{
  "version": "1.0",
  "truncation": null,
  "padding": null,
  "added_tokens": [
    {
      "id": 0,
      "content": "[UNK]",
      "single_word": false,
      "lstrip": false,
      "rstrip": false,
      "normalized": false,
      "special": true
    }
  ],
  "normalizer": null,
  "pre_tokenizer": {
    "type": "Sequence",
    "pretokenizers": [
      {
        "type": "Digits",
        "individual_digits": false
      },
      {
        "type": "ByteLevel",
        "add_prefix_space": false,
        "trim_offsets": true,
        "use_regex": true
      }
    ]
  },
  "post_processor": null,
  "decoder": null,
  "model": {
    "type": "BPE",
    "dropout": null,
    "unk_token": "[UNK]",
    "continuing_subword_prefix": null,
    "end_of_word_suffix": null,
    "fuse_unk": false,
    "byte_fallback": false,
    "vocab": {
      "[UNK]": 0,
      "!": 1,
      "\"": 2,
      "#": 3,
      "$": 4,
      "%": 5,
      "&": 6,
      "'": 7,
      "(": 8,
      ")": 9,
      "*": 10,
      "+": 11,
      ",": 12,
      "-": 13,
      ".": 14,
      "/": 15,
      "0": 16,
      "1": 17,
      "2": 18,
      "3": 19,
      "4": 20,
      "5": 21,
      "6": 22,
      "7": 23,
      "8": 24,
      "9": 25,
      ":": 26,
      ";": 27,
      "<": 28,
      "=": 29,
      ">": 30,
      "?": 31,
      "@": 32,
      "A": 33,
      "B": 34,
      "C": 35,
      "D": 36,
      "E": 37,
      "F": 38,
      "G": 39,
      "H": 40,
      "I": 41,
      "J": 42,
      "K": 43,
      "L": 44,
      "M": 45,
      "N": 46,
      "O": 47,
      "P": 48,
      "Q": 49,
      "R": 50,
      "S": 51,
      "T": 52,
      "U": 53,
      "V": 54,
      "W": 55,
      "X": 56,
      "Y": 57,
      "Z": 58,
      "[": 59,
      "\\": 60,
      "]": 61,
      "^": 62,
      "_": 63,
      "`": 64,
      "a": 65,
      "b": 66,
      "c": 67,
      "d": 68,
      "e": 69,
      "f": 70,
      "g": 71,
      "h": 72,
      "i": 73,
      "j": 74,
      "k": 75,
      "l": 76,
      "m": 77,
      "n": 78,
      "o": 79,
      "p": 80,
      "q": 81,
      "r": 82,
      "s": 83,
      "t": 84,
      "u": 85,
      "v": 86,
      "w": 87,
      "x": 88,
      "y": 89,
      "z": 90,
      "{": 91,
      "|": 92,
      "}": 93,
      "~": 94,
      "¡": 95,
      "¢": 96,
      "£": 97,
      "¤": 98,
      "¥": 99,
      "¦": 100,
      "§": 101,
      "¨": 102,
      "©": 103,
      "ª": 104,
      "«": 105,
      "¬": 106,
      "®": 107,
      "¯": 108,
      "°": 109,
      "±": 110,
      "²": 111,
      "³": 112,
      "´": 113,
      "µ": 114,
      "¶": 115,
      "·": 116,
      "¸": 117,
      "¹": 118,
      "º": 119,
      "»": 120,
      "¼": 121,
      "½": 122,
      "¾": 123,
      "¿": 124,
      "Â": 125,
      "Ã": 126,
      "Ä": 127,
      "Å": 128,
      "Æ": 129,
      "Ç": 130,
      "È": 131,
      "É": 132,
      "Ê": 133,
      "Ë": 134,
      "Ì": 135,
      "Í": 136,
      "Î": 137,
      "Ï": 138,
      "Ð": 139,
      "Ñ": 140,
      "Ò": 141,
      "Ó": 142,
      "Ô": 143,
      "Õ": 144,
      "Ö": 145,
      "×": 146,
      "Ø": 147,
      "Ù": 148,
      "Ú": 149,
      "Û": 150,
      "Ü": 151,
      "Ý": 152,
      "Þ": 153,
      "ß": 154,
      "à": 155,
      "á": 156,
      "â": 157,
      "ã": 158,
      "ä": 159,
      "å": 160,
      "æ": 161,
      "ç": 162,
      "è": 163,
      "é": 164,
      "ê": 165,
      "ë": 166,
      "ì": 167,
      "í": 168,
      "î": 169,
      "ï": 170,
      "ð": 171,
      "ó": 172,
      "ô": 173,
      "Ā": 174,
      "ā": 175,
      "Ă": 176,
      "ă": 177,
      "Ą": 178,
      "ą": 179,
      "Ć": 180,
      "ć": 181,
      "Ĉ": 182,
      "ĉ": 183,
      "Ċ": 184,
      "ċ": 185,
      "Č": 186,
      "č": 187,
      "Ď": 188,
      "ď": 189,
      "Đ": 190,
      "đ": 191,
      "Ē": 192,
      "ē": 193,
      "Ĕ": 194,
      "ĕ": 195,
      "Ė": 196,
      "ė": 197,
      "Ę": 198,
      "ę": 199,
      "Ě": 200,
      "ě": 201,
      "Ĝ": 202,
      "ĝ": 203,
      "Ğ": 204,
      "ğ": 205,
      "Ġ": 206,
      "ġ": 207,
      "Ģ": 208,
      "ģ": 209,
      "Ĥ": 210,
      "ĥ": 211,
      "Ħ": 212,
      "ħ": 213,
      "Ĩ": 214,
      "ĩ": 215,
      "Ī": 216,
      "ī": 217,
      "Ĭ": 218,
      "ĭ": 219,
      "Į": 220,
      "į": 221,
      "İ": 222,
      "ı": 223,
      "Ĳ": 224,
      "ĳ": 225,
      "Ĵ": 226,
      "ĵ": 227,
      "Ķ": 228,
      "ķ": 229,
      "ĸ": 230,
      "Ĺ": 231,
      "ĺ": 232,
      "Ļ": 233,
      "ļ": 234,
      "Ľ": 235,
      "ľ": 236,
      "Ŀ": 237,
      "ŀ": 238,
      "Ł": 239,
      "ł": 240,
      "Ń": 241,
      "ĠĠ": 242,
      "th": 243,
      "ĠĠĠĠ": 244,
      "in": 245,
      "on": 246,
      "er": 247,
      "Ġa": 248,
      "Ġth": 249,
      "ti": 250,
      "re": 251,
      "en": 252,
      "Ġthe": 253,
      "al": 254,
      "or": 255,
      "Ġs": 256,
      "Ġ\\": 257,
      "te": 258,
      "is": 259,
      "tion": 260,
      "Ġc": 261,
      "le": 262,
      "Ġ$": 263,
      "ar": 264,
      "Ġo": 265,
      "Ġf": 266,
      "an": 267,
      "es": 268,
      "ma": 269,
      "ĠĠĠ": 270,
      "Ġt": 271,
      "ro": 272,
      "Ġw": 273,
      "Ġp": 274,
      "ĠĠĠĠĠĠĠĠ": 275,
      "de": 276,
      "Ġof": 277,
      "Ġin": 278,
      "ta": 279,
      "Ġb": 280,
      "ing": 281,
      "Ġan": 282,
      "se": 283,
      "ra": 284,
      "{\\": 285,
      "ig": 286,
      "la": 287,
      "me": 288,
      "ic": 289,
      "Ġe": 290,
      "at": 291,
      "Ġand": 292,
      "Ġd": 293,
      "it": 294,
      "ent": 295,
      "Ġ(": 296,
      "Ġre": 297,
      "Ġto": 298,
      "el": 299,
      "st": 300,
      "Ġn": 301,
      "un": 302,
      "ed": 303,
      "_{": 304,
      "Ġis": 305,
      "ec": 306,
      "si": 307,
      "Ġ=": 308,
      "ol": 309,
      "ur": 310,
      "ce": 311,
      "mp": 312,
      "qu": 313,
      "Ġ$\\": 314,
      "ch": 315,
      "Ġh": 316,
      "čĊ": 317,
      "et": 318,
      "Ġm": 319,
      "Th": 320,
      "lo": 321,
      "tr": 322,
      "ul": 323,
      "math": 324,
      "ation": 325,
      "ĉĉ": 326,
      "ĠĠĠĠĠĠĠ": 327,
      "Ġfor": 328,
      "as": 329,
      "Ġv": 330,
      "end": 331,
      "if": 332,
      "ly": 333,
      "um": 334,
      "ve": 335,
      "Ġ&": 336,
      "ter": 337,
      "Ġ{": 338,
      "ction": 339,
      "ot": 340,
      "}\\": 341,
      "Ġg": 342,
      "Ġcon": 343,
      "il": 344,
      "}$": 345,
      "^{": 346,
      "id": 347,
      "be": 348,
      "ith": 349,
      "ite": 350,
      "ĠĊ": 351,
      "ge": 352,
      ");": 353,
      "us": 354,
      "ver": 355,
      "ph": 356,
      "ss": 357,
      "Ġthat": 358,
      "cal": 359,
      "Ġco": 360,
      "igh": 361,
      "ted": 362,
      "ut": 363,
      "ĠS": 364,
      "Ġon": 365,
      "am": 366,
      "The": 367,
      "ref": 368,
      "ct": 369,
      "Ġ*": 370,
      "ure": 371,
      "gin": 372,
      "Ġde": 373,
      "}}": 374,
      "xt": 375,
      "Ġbe": 376,
      "(\\": 377,
      "ad": 378,
      "ble": 379,
      "Ġpro": 380,
      "Ġwith": 381,
      "ow": 382,
      "ight": 383,
      "Ġl": 384,
      "ĠA": 385,
      "Ġ}": 386,
      "pp": 387,
      "Ġwe": 388,
      "begin": 389,
      "--": 390,
      "ĠC": 391,
      "Ġwh": 392,
      "im": 393,
      "ĠĠĠĠĠĠĠĠĠĠĠ": 394,
      "//": 395,
      "ame": 396,
      "rac": 397,
      "Ġal": 398,
      "In": 399,
      "co": 400,
      "ine": 401,
      "_{\\": 402,
      ")$": 403,
      "ts": 404,
      "Ġma": 405,
      "ub": 406,
      "ir": 407,
      "ere": 408,
      "ft": 409,
      "od": 410,
      "Ġby": 411,
      "sp": 412,
      "ri": 413,
      "20": 414,
      "ate": 415,
      "per": 416,
      "to": 417,
      "Ġas": 418,
      "Ġthis": 419,
      "Ġ<": 420,
      "}{": 421,
      "equ": 422,
      "Ġare": 423,
      "mb": 424,
      "Ġex": 425,
      "ue": 426,
      "and": 427,
      "ity": 428,
      "frac": 429,
      "},": 430,
      "ĠF": 431,
      "ck": 432,
      "cite": 433,
      "ode": 434,
      "der": 435,
      "di": 436,
      "pe": 437,
      "})": 438,
      "ment": 439,
      "right": 440,
      "eq": 441,
      "tic": 442,
      "ĠM": 443,
      "rom": 444,
      "ĠThe": 445,
      "bel": 446,
      "ĠĠĠĠĠ": 447,
      "text": 448,
      "up": 449,
      "ore": 450,
      "unction": 451,
      "ect": 452,
      "da": 453,
      "iz": 454,
      "Ġi": 455,
      "ase": 456,
      "label": 457,
      "ĠP": 458,
      "tions": 459,
      ",\\": 460,
      "mathb": 461,
      "urn": 462,
      "=\"": 463,
      "Ġ-": 464,
      "ĠL": 465,
      "res": 466,
      "ĠĠĠĠĠĠĠĠĠĠĠĠĠĠĠĠ": 467,
      "Ġor": 468,
      "par": 469,
      "ran": 470,
      "Ġif": 471,
      "ĠB": 472,
      "Ġ+": 473,
      "ew": 474,
      "$,": 475,
      "ĠR": 476,
      "left": 477,
      "$.": 478,
      "sion": 479,
      "for": 480,
      "rm": 481,
      "ĠH": 482,
      "ho": 483,
      "int": 484,
      "Ġat": 485,
      "equation": 486,
      "lu": 487,
      "fig": 488,
      "ĠT": 489,
      "Ġfrom": 490,
      "low": 491,
      "Ġme": 492,
      "om": 493,
      "Ġ\"": 494,
      "mathcal": 495,
      "Ġit": 496,
      "ĠD": 497,
      "pa": 498,
      "ys": 499,
      "the": 500,
      "ign": 501,
      "ist": 502,
      "}.": 503,
      "ĠE": 504,
      "turn": 505,
      "ĠW": 506,
      "**": 507,
      "ĠI": 508,
      "li": 509,
      "</": 510,
      "ff": 511,
      "iv": 512,
      "Ġfunction": 513,
      "Ġcomp": 514,
      "ĠN": 515,
      "}(": 516,
      "ess": 517,
      "ty": 518,
      "use": 519,
      "00": 520,
      "ich": 521,
      "Ġcan": 522,
      "()": 523,
      "op": 524,
      "und": 525,
      "con": 526,
      "Ġpar": 527,
      "ĠG": 528,
      "}^": 529,
      "ga": 530,
      "tial": 531,
      "pro": 532,
      "Ġsu": 533,
      "Ġun": 534,
      "all": 535,
      "Ġ'": 536,
      "}_": 537,
      "~\\": 538,
      "tive": 539,
      "mu": 540,
      "ener": 541,
      "tri": 542,
      "ence": 543,
      "pha": 544,
      "lass": 545,
      "ome": 546,
      "ke": 547,
      "ds": 548,
      "Ġsh": 549,
      "line": 550,
      "==": 551,
      "alpha": 552,
      "Ġob": 553,
      "ave": 554,
      "ap": 555,
      "ther": 556,
      "so": 557,
      "dot": 558,
      "du": 559,
      "tim": 560,
      ")\\": 561,
      "Ġpo": 562,
      "ĠTh": 563,
      "ach": 564,
      "Ġst": 565,
      "ary": 566,
      "),": 567,
      "psi": 568,
      "Ġch": 569,
      "fer": 570,
      "ber": 571,
      "ray": 572,
      "til": 573,
      "ser": 574,
      "able": 575,
      ").": 576,
      "are": 577,
      "Ġse": 578,
      "lic": 579,
      "Ġsta": 580,
      "ant": 581,
      "ata": 582,
      "Ġwhich": 583,
      "est": 584,
      "$\\": 585,
      "ile": 586,
      "19": 587,
      "Ġle": 588,
      "set": 589,
      "bo": 590,
      "alue": 591,
      "mple": 592,
      "odel": 593,
      "po": 594,
      "row": 595,
      "ort": 596,
      "ell": 597,
      "Ġdis": 598,
      "amma": 599,
      "ult": 600,
      "ari": 601,
      "ĠIn": 602,
      "cc": 603,
      "bu": 604,
      "ang": 605,
      "ms": 606,
      "_\\": 607,
      "ĠĠĠĠĠĠĠĠĠĠĠĠĠĠĠ": 608,
      "fin": 609,
      "10": 610,
      "str": 611,
      "Ġnot": 612,
      "tain": 613,
      "Ġ//": 614,
      "vi": 615,
      "Ġreturn": 616,
      "Ġres": 617,
      "=\\": 618,
      "gra": 619,
      "ype": 620,
      "----": 621,
      "Ġhave": 622,
      "get": 623,
      "Ġ\\\\": 624,
      "mathbb": 625,
      "}_{": 626,
      "Ġbo": 627,
      "}^{": 628,
      "igma": 629,
      "ĠO": 630,
      "age": 631,
      "sub": 632,
      "of": 633,
      "ical": 634,
      "Ġ@": 635,
      "ab": 636,
      "ers": 637,
      "ĉĉĉĉ": 638,
      "\">": 639,
      "-\\": 640,
      "Ġapp": 641,
      "Ġsp": 642,
      "Ġr": 643,
      "oc": 644,
      "lon": 645,
      "clu": 646,
      "times": 647,
      "ance": 648,
      "ill": 649,
      "ens": 650,
      "umber": 651,
      "Ġ[": 652,
      "^{\\": 653,
      "phi": 654,
      "Ġlo": 655,
      "pi": 656,
      "Ġset": 657,
      "Ġ{\\": 658,
      "Ġus": 659,
      "Ġuse": 660,
      "vel": 661,
      "ding": 662,
      "lamb": 663,
      "fa": 664,
      "ject": 665,
      "lambda": 666,
      "ex": 667,
      "Ġexp": 668,
      "ire": 669,
      "..": 670,
      "201": 671,
      "iel": 672,
      "Ġstr": 673,
      "mo": 674,
      "bf": 675,
      "Ġne": 676,
      "Ġk": 677,
      "sum": 678,
      "idth": 679,
      "Ġqu": 680,
      "ork": 681,
      "Ġmodel": 682,
      "ack": 683,
      "ded": 684,
      "cri": 685,
      "Ġar": 686,
      "our": 687,
      "we": 688,
      "time": 689,
      "ces": 690,
      "Ġclass": 691,
      "mathbf": 692,
      "Ġdata": 693,
      "ies": 694,
      "tes": 695,
      "og": 696,
      "ind": 697,
      "ĠU": 698,
      "ion": 699,
      "act": 700,
      "psilon": 701,
      "Ġall": 702,
      "ular": 703,
      "var": 704,
      "ents": 705,
      "section": 706,
      "Ġwas": 707,
      "Ġ|": 708,
      "lation": 709,
      "ree": 710,
      "Ġte": 711,
      "sigma": 712,
      "pt": 713,
      "ak": 714,
      "Ġinter": 715,
      "ated": 716,
      "wo": 717,
      "ong": 718,
      "ator": 719,
      "Ġra": 720,
      "Ġla": 721,
      "put": 722,
      "ag": 723,
      "Ġ(\\": 724,
      "tation": 725,
      "Con": 726,
      "^{-": 727,
      "Ġhas": 728,
      "bar": 729,
      "ren": 730,
      "ations": 731,
      "align": 732,
      "}{\\": 733,
      "Ġshow": 734,
      "hat": 735,
      "beta": 736,
      "ac": 737,
      "ou": 738,
      "tribu": 739,
      "',": 740,
      "tilde": 741,
      "Ġy": 742,
      "ay": 743,
      "ial": 744,
      "Ġ:": 745,
      "Ġper": 746,
      "lement": 747,
      "Ġone": 748,
      "err": 749,
      "eta": 750,
      "em": 751,
      "Ġad": 752,
      "ollow": 753,
      "ide": 754,
      "olu": 755,
      "over": 756,
      "ous": 757,
      "Ġev": 758,
      "app": 759,
      "Ġ/": 760,
      "->": 761,
      "Ġno": 762,
      "yste": 763,
      "ps": 764,
      "+\\": 765,
      "array": 766,
      "Ġmo": 767,
      "del": 768,
      "Ġpre": 769,
      "mathrm": 770,
      "this": 771,
      "gamma": 772,
      "Ġdif": 773,
      "av": 774,
      "\\\\": 775,
      "*}": 776,
      "no": 777,
      "Ġequ": 778,
      "Ġass": 779,
      "ize": 780,
      "sh": 781,
      "ory": 782,
      "Ġx": 783,
      "theta": 784,
      "item": 785,
      "min": 786,
      "Ġfollow": 787,
      "ĠV": 788,
      "xi": 789,
      "\",": 790,
      "orre": 791,
      "rho": 792,
      "ix": 793,
      "))": 794,
      "mm": 795,
      "thod": 796,
      "Ġtwo": 797,
      "wh": 798,
      "ample": 799,
      "ting": 800,
      "ule": 801,
      "^\\": 802,
      "ĠWe": 803,
      "delta": 804,
      "Ġj": 805,
      "yn": 806,
      "ard": 807,
      "ĠK": 808,
      "irst": 809,
      "200": 810,
      "uld": 811,
      "ull": 812,
      "width": 813,
      "Ġnew": 814,
      "Ġ*/": 815,
      "]{": 816,
      "ĠĠĠĠĠĠĠĠĠ": 817,
      "ics": 818,
      "Ġalso": 819,
      "ĉĉĉ": 820,
      "ties": 821,
      "figure": 822,
      "cent": 823,
      "sition": 824,
      "leq": 825,
      "Ġgener": 826,
      "sed": 827,
      "ll": 828,
      "tau": 829,
      ")}": 830,
      "dots": 831,
      "();": 832,
      "cre": 833,
      "Ġen": 834,
      "Ġtran": 835,
      "Ġsub": 836,
      "Re": 837,
      "ne": 838,
      "ĠJ": 839,
      "col": 840,
      "12": 841,
      "ield": 842,
      "$-": 843,
      "Ġop": 844,
      "ection": 845,
      "alu": 846,
      "Ġpa": 847,
      "Ġwill": 848,
      "::": 849,
      "We": 850,
      "orm": 851,
      "Ġdo": 852,
      "}$,": 853,
      "Ġsuch": 854,
      "}$.": 855,
      "Ġ_": 856,
      "eng": 857,
      "Ġvalue": 858,
      "ual": 859,
      "Ġimp": 860,
      "big": 861,
      "('": 862,
      "Ġvar": 863,
      "'s": 864,
      "ature": 865,
      "ameter": 866,
      "roup": 867,
      "Ġwhere": 868,
      "lay": 869,
      "Ġcont": 870,
      "}(\\": 871,
      "ark": 872,
      "Ġdiffer": 873,
      "form": 874,
      "uct": 875,
      "ors": 876,
      "ip": 877,
      "partial": 878,
      "Ġcase": 879,
      "eqref": 880,
      "Ġcorre": 881,
      "ht": 882,
      "ace": 883,
      "Ġ`": 884,
      "Ġ.": 885,
      "clude": 886,
      "Ġtime": 887,
      "nu": 888,
      "(\"": 889,
      "Ġtr": 890,
      "Ġthere": 891,
      "tical": 892,
      "ĠThis": 893,
      "Ġgiv": 894,
      "Ġver": 895,
      "Ġconst": 896,
      "Ġrep": 897,
      "Ġnumber": 898,
      "mation": 899,
      "Ġonly": 900,
      "fty": 901,
      "infty": 902,
      "led": 903,
      "name": 904,
      "Ġbet": 905,
      "graph": 906,
      "ast": 907,
      "Ġcol": 908,
      "omega": 909,
      "ystem": 910,
      "dex": 911,
      "Ġu": 912,
      "Ġthen": 913,
      "Ġeach": 914,
      "table": 915,
      "cap": 916,
      "os": 917,
      "Pro": 918,
      "serv": 919,
      "arrow": 920,
      "Ġour": 921,
      "eqn": 922,
      "spon": 923,
      "ption": 924,
      "Ġph": 925,
      "pend": 926,
      "tit": 927,
      "ength": 928,
      "Ġdes": 929,
      "ĠĠĠĠĠĠĠĠĠĠĠĠĠĠĠĠĠĠĠ": 930,
      "out": 931,
      "ults": 932,
      "tab": 933,
      "ced": 934,
      "tex": 935,
      "return": 936,
      "Ġnon": 937,
      "Ġout": 938,
      "|\\": 939,
      "Ġover": 940,
      "ger": 941,
      "Ġreg": 942,
      "Del": 943,
      "gh": 944,
      "Ġspec": 945,
      "ust": 946,
      "ans": 947,
      "Ġline": 948,
      "ice": 949,
      "own": 950,
      "gle": 951,
      "****": 952,
      "ween": 953,
      "Ġother": 954,
      "Delta": 955,
      "ise": 956,
      "Ġname": 957,
      "inal": 958,
      "Ġro": 959,
      "space": 960,
      "param": 961,
      "Ex": 962,
      "imp": 963,
      "tring": 964,
      "Ġfirst": 965,
      "ublic": 966,
      "quad": 967,
      "Ġerr": 968,
      "Ġany": 969,
      "dic": 970,
      "--------": 971,
      "ility": 972,
      "ension": 973,
      "dition": 974,
      "Ġso": 975,
      "Ġint": 976,
      "art": 977,
      "Ġ</": 978,
      "ince": 979,
      "ok": 980,
      "\\,": 981,
      "ish": 982,
      "Ġspa": 983,
      "def": 984,
      "its": 985,
      "ia": 986,
      "Ġ!": 987,
      "fore": 988,
      "Ġbetween": 989,
      "emp": 990,
      "ord": 991,
      "ud": 992,
      "Name": 993,
      "Ġvari": 994,
      "one": 995,
      "tric": 996,
      "cdot": 997,
      "sider": 998,
      "Ġmethod": 999,
      "Ġdefin": 1000,
      "Ġ$(": 1001,
      "Ġcur": 1002,
      "ose": 1003,
      "ula": 1004,
      "====": 1005,
      "sc": 1006,
      "$$": 1007,
      "fra": 1008,
      ")$.": 1009,
      "11": 1010,
      "Ġwhen": 1011,
      "Ġusing": 1012,
      "}}\\": 1013,
      "}[": 1014,
      "Ġext": 1015,
      "Ġused": 1016,
      "sf": 1017,
      "type": 1018,
      "Ġgiven": 1019,
      "oid": 1020,
      "ev": 1021,
      "orem": 1022,
      "olution": 1023,
      "ob": 1024,
      "ges": 1025,
      "Ġtype": 1026,
      "sta": 1027,
      "sec": 1028,
      "rt": 1029,
      "eqnarray": 1030,
      "sq": 1031,
      "mall": 1032,
      "Ġhe": 1033,
      "fo": 1034,
      "pm": 1035,
      "Ġthan": 1036,
      "key": 1037,
      "gy": 1038,
      "ulti": 1039,
      "round": 1040,
      "Ġz": 1041,
      "Ġes": 1042,
      "Ġgra": 1043,
      "epsilon": 1044,
      "ĠX": 1045,
      "Ġbut": 1046,
      "Ġstate": 1047,
      "For": 1048,
      "Ġthese": 1049,
      "work": 1050,
      "Co": 1051,
      "Ġappro": 1052,
      "Ġmore": 1053,
      "ton": 1054,
      "Ġparameter": 1055,
      "center": 1056,
      "ear": 1057,
      "alues": 1058,
      "Ġabo": 1059,
      "ER": 1060,
      "ization": 1061,
      "rent": 1062,
      "hi": 1063,
      "Ġresult": 1064,
      "Ġ>": 1065,
      "olds": 1066,
      "Ġorder": 1067,
      "16": 1068,
      "Ġsome": 1069,
      "les": 1070,
      "Ġtrans": 1071,
      "include": 1072,
      "rain": 1073,
      "Ġel": 1074,
      "ml": 1075,
      "chi": 1076,
      "Ġeff": 1077,
      "Ġmod": 1078,
      "}_{\\": 1079,
      "Ġits": 1080,
      "Ġsim": 1081,
      "ink": 1082,
      "ential": 1083,
      "Ġrequ": 1084,
      "tern": 1085,
      "where": 1086,
      "Ġhigh": 1087,
      "alse": 1088,
      "ased": 1089,
      "Ġobtain": 1090,
      "ĠFor": 1091,
      "lec": 1092,
      "._": 1093,
      "Ġter": 1094,
      "Ġget": 1095,
      "div": 1096,
      "Ġcal": 1097,
      "mega": 1098,
      "trix": 1099,
      "Ġ)": 1100,
      "ized": 1101,
      "15": 1102,
      "^*": 1103,
      "18": 1104,
      "Omega": 1105,
      "cy": 1106,
      "cess": 1107,
      "he": 1108,
      "Ġlar": 1109,
      "ann": 1110,
      "su": 1111,
      "ves": 1112,
      ")$,": 1113,
      "perator": 1114,
      "sqrt": 1115,
      "ssi": 1116,
      "Ġ&&": 1117,
      "exp": 1118,
      "irc": 1119,
      "data": 1120,
      "Ġid": 1121,
      "};": 1122,
      "Ġconsider": 1123,
      "Ġresults": 1124,
      "val": 1125,
      "back": 1126,
      "Ġform": 1127,
      "unt": 1128,
      "wide": 1129,
      "Gamma": 1130,
      "ze": 1131,
      "Ġpres": 1132,
      "Ġrela": 1133,
      "ĠFig": 1134,
      "main": 1135,
      "ever": 1136,
      "ST": 1137,
      "ymb": 1138,
      "Ġup": 1139,
      "eck": 1140,
      "spec": 1141,
      "Type": 1142,
      "ian": 1143,
      "lem": 1144,
      "angle": 1145,
      "ote": 1146,
      "ymbol": 1147,
      "ati": 1148,
      "Ġsame": 1149,
      "ond": 1150,
      "sim": 1151,
      "ĠĠĊ": 1152,
      "Ġ${\\": 1153,
      "comp": 1154,
      "Ġfollowing": 1155,
      "Ġac": 1156,
      "tt": 1157,
      "vare": 1158,
      "ild": 1159,
      "Ġpartic": 1160,
      "lock": 1161,
      "log": 1162,
      "tif": 1163,
      "umn": 1164,
      "Ġinto": 1165,
      "varepsilon": 1166,
      "essage": 1167,
      "Ch": 1168,
      "Ġdifferent": 1169,
      "Ġ||": 1170,
      "To": 1171,
      "subsection": 1172,
      "Ġfield": 1173,
      "^{(": 1174,
      "ym": 1175,
      "textbf": 1176,
      "ext": 1177,
      "13": 1178,
      "âĢ": 1179,
      "}=": 1180,
      "Ġunder": 1181,
      "Ġfact": 1182,
      "IN": 1183,
      "ected": 1184,
      "gor": 1185,
      "Ġpublic": 1186,
      "elf": 1187,
      "old": 1188,
      "asure": 1189,
      "vely": 1190,
      "ied": 1191,
      "ĠčĊ": 1192,
      "String": 1193,
      "ib": 1194,
      "Ġ\\,": 1195,
      "Ġwork": 1196,
      "ax": 1197,
      "rr": 1198,
      "mat": 1199,
      "ox": 1200,
      "Ġchar": 1201,
      "Ġtrue": 1202,
      "Ġacc": 1203,
      "ource": 1204,
      "ases": 1205,
      "ments": 1206,
      "au": 1207,
      "De": 1208,
      "25": 1209,
      "}^{\\": 1210,
      ")=": 1211,
      "lect": 1212,
      "graphics": 1213,
      "try": 1214,
      "rangle": 1215,
      "son": 1216,
      "Ġobserv": 1217,
      "Ġelement": 1218,
      "caption": 1219,
      "ĠQ": 1220,
      "pre": 1221,
      "cm": 1222,
      "Ġbeen": 1223,
      "ates": 1224,
      "function": 1225,
      "dis": 1226,
      "ici": 1227,
      "Ob": 1228,
      "cale": 1229,
      "Ġtheir": 1230,
      "includegraphics": 1231,
      "Ġproper": 1232,
      "ura": 1233,
      "../": 1234,
      "Ġrepres": 1235,
      "energy": 1236,
      "14": 1237,
      "rightarrow": 1238,
      "ĠY": 1239,
      "Ġdistribu": 1240,
      "ific": 1241,
      "Ġanal": 1242,
      "En": 1243,
      "Ġsign": 1244,
      "ĠRe": 1245,
      "Res": 1246,
      "ON": 1247,
      "Ġself": 1248,
      "')": 1249,
      "fter": 1250,
      "Ġbec": 1251,
      "Ġcomple": 1252,
      "non": 1253,
      "mage": 1254,
      "pri": 1255,
      "bm": 1256,
      "Ġdef": 1257,
      "Ġspace": 1258,
      "Ġsec": 1259,
      "Ġmay": 1260,
      "imension": 1261,
      "Ġbound": 1262,
      "red": 1263,
      "Ġcorrespon": 1264,
      "cript": 1265,
      "Ġsystem": 1266,
      "varphi": 1267,
      "Ġnull": 1268,
      "fault": 1269,
      "sk": 1270,
      "Ġstring": 1271,
      "ound": 1272,
      "lection": 1273,
      "Ġden": 1274,
      "Ġlow": 1275,
      "Ġvalues": 1276,
      "geq": 1277,
      "Ġ#": 1278,
      "umer": 1279,
      "Ġman": 1280,
      "];": 1281,
      "Ar": 1282,
      "Ġmeasure": 1283,
      "lit": 1284,
      "Ġgeneral": 1285,
      "Ġdire": 1286,
      "Ġwere": 1287,
      ".~\\": 1288,
      "ucture": 1289,
      "gs": 1290,
      "ange": 1291,
      "olog": 1292,
      "ĠĠĠĠĠĠ": 1293,
      "raw": 1294,
      "ress": 1295,
      "action": 1296,
      "emph": 1297,
      "ning": 1298,
      "ormal": 1299,
      "lan": 1300,
      "ector": 1301,
      ".}": 1302,
      "overline": 1303,
      "sour": 1304,
      "Ġelse": 1305,
      "Ġpoint": 1306,
      "],": 1307,
      "Ġmass": 1308,
      "&\\": 1309,
      "yp": 1310,
      "Sta": 1311,
      "ert": 1312,
      "ĠĠĠĠĠĠĠĠĠĠĠĠĠĠĠĠĠĠĠĠĠĠĠĠĠĠĠĠĠĠĠĠ": 1313,
      "requ": 1314,
      "owever": 1315,
      "ath": 1316,
      "frak": 1317,
      "als": 1318,
      "Ġser": 1319,
      "ni": 1320,
      "vec": 1321,
      "RE": 1322,
      "value": 1323,
      "tively": 1324,
      "Ġpol": 1325,
      "Ġend": 1326,
      "proof": 1327,
      "gorith": 1328,
      "Ġboth": 1329,
      "che": 1330,
      "AT": 1331,
      "ĠIt": 1332,
      "Ġgroup": 1333,
      "sel": 1334,
      "Ġ==": 1335,
      "ons": 1336,
      "face": 1337,
      "size": 1338,
      "Ġtest": 1339,
      "ists": 1340,
      "Ġfin": 1341,
      "ling": 1342,
      "Ġfalse": 1343,
      "code": 1344,
      "32": 1345,
      ")^": 1346,
      "string": 1347,
      "}).": 1348,
      "ument": 1349,
      "[\\": 1350,
      "entation": 1351,
      "new": 1352,
      "jec": 1353,
      "ery": 1354,
      "ont": 1355,
      "formation": 1356,
      "Ġmin": 1357,
      "Ġsee": 1358,
      "Big": 1359,
      "amb": 1360,
      "ensure": 1361,
      "},\\": 1362,
      "arch": 1363,
      "dd": 1364,
      ".,": 1365,
      "Ġenergy": 1366,
      "rou": 1367,
      "Ġdescri": 1368,
      "import": 1369,
      "ved": 1370,
      "Id": 1371,
      "ĠCh": 1372,
      "Ġesti": 1373,
      "Ġfe": 1374,
      "Ġprodu": 1375,
      "mod": 1376,
      "Ġsmall": 1377,
      "stra": 1378,
      "199": 1379,
      "Ġcontain": 1380,
      "read": 1381,
      "class": 1382,
      "arget": 1383,
      "atch": 1384,
      "ilar": 1385,
      "itial": 1386,
      "mathfrak": 1387,
      "ime": 1388,
      "Ġassu": 1389,
      "Ġproble": 1390,
      "hould": 1391,
      "hline": 1392,
      "etwork": 1393,
      "tiv": 1394,
      "17": 1395,
      "Ġsupp": 1396,
      "Ġ--": 1397,
      "></": 1398,
      "bra": 1399,
      "Ġinte": 1400,
      "com": 1401,
      "Ġ,": 1402,
      "Ġclo": 1403,
      "stance": 1404,
      "ten": 1405,
      "ole": 1406,
      "''": 1407,
      "Ġstar": 1408,
      "langle": 1409,
      "ating": 1410,
      "ci": 1411,
      "ause": 1412,
      "ick": 1413,
      "Ġfra": 1414,
      "see": 1415,
      "bolds": 1416,
      "iew": 1417,
      "source": 1418,
      "Data": 1419,
      "man": 1420,
      "SS": 1421,
      "}}$": 1422,
      "ensity": 1423,
      "boldsymbol": 1424,
      "ition": 1425,
      "mber": 1426,
      "Ġwell": 1427,
      "Ġran": 1428,
      "ĠIf": 1429,
      "ception": 1430,
      "pr": 1431,
      "box": 1432,
      "Ġcompu": 1433,
      "ero": 1434,
      "Ġmulti": 1435,
      "100": 1436,
      "__": 1437,
      "Ġsing": 1438,
      "Ġste": 1439,
      "span": 1440,
      "Ġlim": 1441,
      "ldots": 1442,
      "ymme": 1443,
      "Ġdefined": 1444,
      "file": 1445,
      "ambda": 1446,
      "Ġexample": 1447,
      "Lambda": 1448,
      "ĠZ": 1449,
      "length": 1450,
      "Ġli": 1451,
      "ally": 1452,
      "med": 1453,
      "Ġprocess": 1454,
      "ep": 1455,
      "very": 1456,
      "LE": 1457,
      "ster": 1458,
      "Phi": 1459,
      "Ġerror": 1460,
      "vers": 1461,
      "Ġ/**": 1462,
      "Ġdist": 1463,
      "rit": 1464,
      "Ġback": 1465,
      "unc": 1466,
      "pd": 1467,
      "ash": 1468,
      "):": 1469,
      "Let": 1470,
      "ames": 1471,
      "ĠPro": 1472,
      "appa": 1473,
      "Ġsur": 1474,
      "defin": 1475,
      "ner": 1476,
      "lim": 1477,
      "Ġab": 1478,
      "kappa": 1479,
      "ass": 1480,
      "List": 1481,
      "ha": 1482,
      "ader": 1483,
      "AR": 1484,
      "ences": 1485,
      "Ġfollows": 1486,
      "Ġpri": 1487,
      "ality": 1488,
      "Ġabove": 1489,
      "Ġdepend": 1490,
      "ry": 1491,
      "max": 1492,
      "des": 1493,
      "Ġdisc": 1494,
      "Ġtemp": 1495,
      "ints": 1496,
      "mbox": 1497,
      "play": 1498,
      "Ġ},": 1499,
      "position": 1500,
      "vari": 1501,
      "Ġcomm": 1502,
      "sty": 1503,
      "citep": 1504,
      "nab": 1505,
      "otimes": 1506,
      "This": 1507,
      "');": 1508,
      "22": 1509,
      "ative": 1510,
      "Value": 1511,
      ".\\": 1512,
      "Ġlarge": 1513,
      "mis": 1514,
      "Ġstructure": 1515,
      "Ġlocal": 1516,
      "vent": 1517,
      "Ġthey": 1518,
      "Ġkn": 1519,
      "St": 1520,
      "Ġmat": 1521,
      "lear": 1522,
      "////": 1523,
      "trans": 1524,
      "orph": 1525,
      "50": 1526,
      "Ġmodels": 1527,
      "ression": 1528,
      "30": 1529,
      "nabla": 1530,
      "Ġshown": 1531,
      "><": 1532,
      "Ġsc": 1533,
      "));": 1534,
      "cur": 1535,
      "ency": 1536,
      "node": 1537,
      "Ġ===": 1538,
      "self": 1539,
      "top": 1540,
      "Ġsize": 1541,
      "Ġpr": 1542,
      "ines": 1543,
      "bit": 1544,
      "ynam": 1545,
      "Ġobject": 1546,
      "ĠĠĠĠĠĠĠĠĠĠĠĠĠ": 1547,
      "ields": 1548,
      "Ġcho": 1549,
      "with": 1550,
      "onent": 1551,
      "html": 1552,
      "Ġvoid": 1553,
      "inter": 1554,
      "test": 1555,
      "gr": 1556,
      "Ġwhile": 1557,
      "ler": 1558,
      "add": 1559,
      "circ": 1560,
      "})$": 1561,
      "AL": 1562,
      "style": 1563,
      "ĠĠĠĠĠĠĠĠĠĠĠĠĠĠĠĠĠĠĠĠĠĠĠ": 1564,
      "nonumber": 1565,
      "Ġwo": 1566,
      "($": 1567,
      "Ġnode": 1568,
      "cted": 1569,
      "gorithm": 1570,
      "order": 1571,
      "textit": 1572,
      "mate": 1573,
      "ID": 1574,
      "\\|": 1575,
      "Ġmax": 1576,
      "ste": 1577,
      "ground": 1578,
      "td": 1579,
      "ensuremath": 1580,
      "Ġmost": 1581,
      "ive": 1582,
      "********": 1583,
      "Ġbu": 1584,
      "ism": 1585,
      "ision": 1586,
      "late": 1587,
      "rodu": 1588,
      "depend": 1589,
      "sing": 1590,
      "An": 1591,
      "OR": 1592,
      "ability": 1593,
      "Ġ:=": 1594,
      "by": 1595,
      "\\%": 1596,
      "ey": 1597,
      "ask": 1598,
      "}),": 1599,
      "Err": 1600,
      "EN": 1601,
      "://": 1602,
      "perim": 1603,
      "Ġradi": 1604,
      "Ġshould": 1605,
      "rite": 1606,
      "Ġparameters": 1607,
      "Ġcalc": 1608,
      "Ġwould": 1609,
      "ilter": 1610,
      "}}{": 1611,
      "ulation": 1612,
      "ffici": 1613,
      "ĠCo": 1614,
      "Object": 1615,
      "Ġrequire": 1616,
      "âĢĵ": 1617,
      "tom": 1618,
      "Set": 1619,
      "Ġdistribution": 1620,
      "not": 1621,
      "ross": 1622,
      "ij": 1623,
      "24": 1624,
      "21": 1625,
      "Ġ``": 1626,
      "Ġq": 1627,
      "Col": 1628,
      "Ġcall": 1629,
      "inu": 1630,
      "Ġiden": 1631,
      "lace": 1632,
      "rol": 1633,
      ")(": 1634,
      "ented": 1635,
      "Ġregion": 1636,
      "Par": 1637,
      "Ġkey": 1638,
      "ough": 1639,
      "As": 1640,
      "ically": 1641,
      "Ġgo": 1642,
      "ie": 1643,
      "acter": 1644,
      "Ġmag": 1645,
      "Ġoperator": 1646,
      "Ġsol": 1647,
      "Ġsecond": 1648,
      "By": 1649,
      "ixed": 1650,
      "tot": 1651,
      "Sigma": 1652,
      "px": 1653,
      "que": 1654,
      "\\[": 1655,
      "Ġhand": 1656,
      "cor": 1657,
      "ĠCon": 1658,
      "At": 1659,
      "vious": 1660,
      "Ġsection": 1661,
      "ier": 1662,
      "Ġsince": 1663,
      "Ġthree": 1664,
      "Ġtra": 1665,
      "atisf": 1666,
      "/\\": 1667,
      "ower": 1668,
      "Ġmatrix": 1669,
      "Ġproblem": 1670,
      "mark": 1671,
      "Ġdoes": 1672,
      "nt": 1673,
      "Ġcurrent": 1674,
      "\");": 1675,
      "io": 1676,
      "vice": 1677,
      "Ġnetwork": 1678,
      "Ġpossi": 1679,
      "ui": 1680,
      "Ġincre": 1681,
      "comm": 1682,
      "ern": 1683,
      "color": 1684,
      "cont": 1685,
      "Ġcons": 1686,
      "Ġ!=": 1687,
      "Ġcent": 1688,
      "oci": 1689,
      "Ġ=>": 1690,
      "vert": 1691,
      "urther": 1692,
      "Ġinclu": 1693,
      "Ġed": 1694,
      "Ġperform": 1695,
      "less": 1696,
      "SE": 1697,
      "Ġder": 1698,
      "\\!": 1699,
      "stru": 1700,
      "----------------": 1701,
      "Ġgraph": 1702,
      "rough": 1703,
      "ven": 1704,
      "Ġarg": 1705,
      "].": 1706,
      "py": 1707,
      "Ġdeter": 1708,
      "go": 1709,
      "ict": 1710,
      "Ġterms": 1711,
      "erature": 1712,
      "64": 1713,
      "Ġdec": 1714,
      "ĠAn": 1715,
      "lob": 1716,
      "Ġ($": 1717,
      "lat": 1718,
      "DE": 1719,
      "========": 1720,
      "widetilde": 1721,
      "mon": 1722,
      "uth": 1723,
      "Ġlet": 1724,
      "Ġtop": 1725,
      "ĠThen": 1726,
      "Ġfinal": 1727,
      "../../": 1728,
      "Ġcre": 1729,
      "Ġfeature": 1730,
      "Ġprob": 1731,
      "Ġsample": 1732,
      "ai": 1733,
      "andom": 1734,
      "Ġsimilar": 1735,
      "Ġfunctions": 1736,
      "Ġeffec": 1737,
      "Ġinitial": 1738,
      "message": 1739,
      "Ġequation": 1740,
      "Ġdensity": 1741,
      "draw": 1742,
      "Ġapproach": 1743,
      "Ġsequ": 1744,
      "amp": 1745,
      "ĠAs": 1746,
      "vate": 1747,
      "uto": 1748,
      "Ġreal": 1749,
      "uch": 1750,
      "mer": 1751,
      "htt": 1752,
      "Ġ?": 1753,
      "let": 1754,
      "ain": 1755,
      "Element": 1756,
      "Ġsatisf": 1757,
      "ysis": 1758,
      "Ġinput": 1759,
      "Ġafter": 1760,
      "/**": 1761,
      "Ġobtained": 1762,
      "prime": 1763,
      "indow": 1764,
      "uring": 1765,
      "{-": 1766,
      "ee": 1767,
      "mary": 1768,
      "Ġcom": 1769,
      "##": 1770,
      "Ġval": 1771,
      "Ġpath": 1772,
      "}-": 1773,
      "tal": 1774,
      "Ġmap": 1775,
      "centering": 1776,
      "Ġsuper": 1777,
      "Ġfound": 1778,
      "view": 1779,
      "Ġbel": 1780,
      "ody": 1781,
      "roll": 1782,
      "Ġhref": 1783,
      "ified": 1784,
      "ake": 1785,
      "ared": 1786,
      "ĉĉĉĉĉ": 1787,
      "ift": 1788,
      "Ġevery": 1789,
      "ld": 1790,
      "loc": 1791,
      "ful": 1792,
      "Ġsum": 1793,
      "sitive": 1794,
      "reak": 1795,
      "Ġrespec": 1796,
      "Ġcorresponding": 1797,
      "Ġlinear": 1798,
      "zeta": 1799,
      "Ġbased": 1800,
      "Ġhis": 1801,
      "~~": 1802,
      "struct": 1803,
      "ĠDe": 1804,
      "23": 1805,
      "Ġallow": 1806,
      "lient": 1807,
      "Un": 1808,
      "){": 1809,
      "ost": 1810,
      "Ġconn": 1811,
      "Ġparticular": 1812,
      "Fig": 1813,
      "index": 1814,
      "ays": 1815,
      "Ġsolution": 1816,
      "ently": 1817,
      "Ġent": 1818,
      "Ġscal": 1819,
      "IT": 1820,
      "ream": 1821,
      "pper": 1822,
      "Error": 1823,
      "40": 1824,
      "Ġ%": 1825,
      "Ġmain": 1826,
      "Ġlong": 1827,
      "\\{": 1828,
      "Ġnow": 1829,
      "}+": 1830,
      "matrix": 1831,
      "Ġrefer": 1832,
      "Ġpart": 1833,
      "\\]": 1834,
      "tabular": 1835,
      "date": 1836,
      "Ġevent": 1837,
      "Ġ};": 1838,
      "gebra": 1839,
      "ving": 1840,
      "istic": 1841,
      "imum": 1842,
      "\")": 1843,
      "otential": 1844,
      "Ġdi": 1845,
      "ng": 1846,
      "Ġredu": 1847,
      "Ġtrain": 1848,
      "Ġright": 1849,
      "ĠEq": 1850,
      "Ġpaper": 1851,
      "Comp": 1852,
      "Ġpredic": 1853,
      "Ser": 1854,
      "move": 1855,
      "Ġneed": 1856,
      ")=\\": 1857,
      "lack": 1858,
      "ural": 1859,
      "odes": 1860,
      "emma": 1861,
      "Ġvariable": 1862,
      "Ġdete": 1863,
      "Ġhy": 1864,
      "Ġfinite": 1865,
      "Ġexperim": 1866,
      "perty": 1867,
      "ese": 1868,
      "Ġdiscus": 1869,
      "Ġsingle": 1870,
      "Ġ&=": 1871,
      "Ġconstant": 1872,
      "ĠLet": 1873,
      "reg": 1874,
      "verse": 1875,
      "tations": 1876,
      "Ġtyp": 1877,
      "Ġthrough": 1878,
      "Ġshows": 1879,
      "prop": 1880,
      "Ġoptim": 1881,
      "Ġcondition": 1882,
      "Ġfile": 1883,
      "Ġarray": 1884,
      "under": 1885,
      "Class": 1886,
      "Ġfa": 1887,
      "map": 1888,
      ")}\\": 1889,
      "Ġfind": 1890,
      "AN": 1891,
      "}=\\": 1892,
      "Ġpoints": 1893,
      "Ġflu": 1894,
      "Ġcharacter": 1895,
      "ov": 1896,
      ";\\": 1897,
      "Ġapproxi": 1898,
      "lish": 1899,
      "ĠTheorem": 1900,
      "Ġstud": 1901,
      "Ġindex": 1902,
      "Ġphase": 1903,
      "Ġdimension": 1904,
      "Ġindic": 1905,
      "Ġabout": 1906,
      "Ġlevel": 1907,
      "Ġdue": 1908,
      "udi": 1909,
      "gram": 1910,
      "Ġprovi": 1911,
      "Ġinformation": 1912,
      "Ġsource": 1913,
      "Ġaction": 1914,
      "Node": 1915,
      "uration": 1916,
      "war": 1917,
      "mission": 1918,
      "group": 1919,
      "Ġag": 1920,
      "Ġtheory": 1921,
      "rack": 1922,
      "Ġtak": 1923,
      "Ġimport": 1924,
      "call": 1925,
      "Ġleft": 1926,
      "Ġpropo": 1927,
      "tice": 1928,
      "ival": 1929,
      "br": 1930,
      "orts": 1931,
      "Ġadd": 1932,
      "CT": 1933,
      "imple": 1934,
      "Ġaddition": 1935,
      "ness": 1936,
      "{(": 1937,
      "vid": 1938,
      "erm": 1939,
      "Ġspectr": 1940,
      "Ġlength": 1941,
      ")^{": 1942,
      "ush": 1943,
      "omorph": 1944,
      "Ġlead": 1945,
      "ĠĠĠĠĠĠĠĠĠĠĠĠ": 1946,
      "Ġcla": 1947,
      "33": 1948,
      "Po": 1949,
      "totype": 1950,
      "Ġ);": 1951,
      "Ġbecause": 1952,
      "ĠAl": 1953,
      "Ġorig": 1954,
      "He": 1955,
      "Ġrespectively": 1956,
      "/>": 1957,
      "ctor": 1958,
      "ward": 1959,
      "ccess": 1960,
      "$)": 1961,
      "Ġcalcula": 1962,
      "Ġvector": 1963,
      "Ġrun": 1964,
      "bed": 1965,
      "80": 1966,
      "Ġorg": 1967,
      "tus": 1968,
      "Ġstates": 1969,
      "url": 1970,
      "Key": 1971,
      "Ġvery": 1972,
      "path": 1973,
      "lies": 1974,
      "Ġtri": 1975,
      "Ġmust": 1976,
      "ene": 1977,
      "ĠHowever": 1978,
      "Ġsymme": 1979,
      "Ġexist": 1980,
      "Ġ});": 1981,
      "++": 1982,
      "Ġlimit": 1983,
      "60": 1984,
      "}]": 1985,
      "Array": 1986,
      "Ġpair": 1987,
      "Exception": 1988,
      "uc": 1989,
      "apa": 1990,
      "Ġoff": 1991,
      "orted": 1992,
      "Ġproof": 1993,
      "Ġrange": 1994,
      "andard": 1995,
      "cdots": 1996,
      "thm": 1997,
      "Ġdefine": 1998,
      "Bu": 1999,
      "ffer": 2000,
      "Ġ(!": 2001,
      "\":": 2002,
      "Event": 2003,
      "gain": 2004,
      "ĠThere": 2005,
      "Lo": 2006,
      "ins": 2007,
      "Ġinstance": 2008,
      "ication": 2009,
      "annel": 2010,
      "lot": 2011,
      "Index": 2012,
      "}|": 2013,
      "000": 2014,
      "Ġmultip": 2015,
      "tity": 2016,
      "antum": 2017,
      "Ġpossible": 2018,
      "ditions": 2019,
      "Ġsyste": 2020,
      "ense": 2021,
      "Ġlist": 2022,
      "}^\\": 2023,
      ".~": 2024,
      "widehat": 2025,
      "Get": 2026,
      "mit": 2027,
      "asi": 2028,
      "75": 2029,
      "Op": 2030,
      "}_\\": 2031,
      "Ġmatch": 2032,
      "Cont": 2033,
      "AM": 2034,
      "Ġintrodu": 2035,
      "45": 2036,
      "Ġlear": 2037,
      "Ġpotential": 2038,
      "Ġstatic": 2039,
      "Ġderiv": 2040,
      "alax": 2041,
      "Ġcontinu": 2042,
      "Ġalgorithm": 2043,
      "}\\,": 2044,
      "qquad": 2045,
      "Ġet": 2046,
      "oth": 2047,
      "State": 2048,
      "base": 2049,
      "Ġrandom": 2050,
      "dependent": 2051,
      "Ġuni": 2052,
      "Ġthem": 2053,
      "inc": 2054,
      "Ġproperties": 2055,
      "ternal": 2056,
      "eps": 2057,
      "Ġ/*": 2058,
      "Ġanalysis": 2059,
      "Ġclu": 2060,
      "tribute": 2061,
      "Time": 2062,
      "pec": 2063,
      "jects": 2064,
      "lemma": 2065,
      "Ġcomplex": 2066,
      "ify": 2067,
      "bility": 2068,
      "Ġtarget": 2069,
      "operator": 2070,
      "...": 2071,
      "\"/>": 2072,
      "Ġdirect": 2073,
      "ii": 2074,
      "summary": 2075,
      "ited": 2076,
      "Al": 2077,
      "Ġimage": 2078,
      "}}(": 2079,
      "On": 2080,
      "spect": 2081,
      "Me": 2082,
      "ocument": 2083,
      "mbin": 2084,
      "Psi": 2085,
      "script": 2086,
      "Ġmethods": 2087,
      "defined": 2088,
      "Ġav": 2089,
      "Ġoptions": 2090,
      "Ġnormal": 2091,
      "tail": 2092,
      "title": 2093,
      "Test": 2094,
      "Ġeven": 2095,
      "verage": 2096,
      "Ġprevious": 2097,
      "90": 2098,
      "rc": 2099,
      "Ġterm": 2100,
      "Ġtotal": 2101,
      "tyle": 2102,
      "Ġcontext": 2103,
      "})\\": 2104,
      "textwidth": 2105,
      "ĠSection": 2106,
      "Ġlat": 2107,
      "Ġzero": 2108,
      "ology": 2109,
      "Ġpe": 2110,
      "Ġdynam": 2111,
      "count": 2112,
      "^+": 2113,
      "().": 2114,
      "const": 2115,
      "&=": 2116,
      "Ġconfig": 2117,
      "Ġ\\{": 2118,
      ",-": 2119,
      "ets": 2120,
      "Ġpresent": 2121,
      "':": 2122,
      "Ġemp": 2123,
      "ĠFigure": 2124,
      "arent": 2125,
      "load": 2126,
      "Ġoper": 2127,
      "module": 2128,
      "ities": 2129,
      "sert": 2130,
      "Ġstudy": 2131,
      "temp": 2132,
      "cope": 2133,
      "note": 2134,
      "aus": 2135,
      "OM": 2136,
      "Ġassoci": 2137,
      "Qu": 2138,
      "ĠTo": 2139,
      "Ġplay": 2140,
      "Ġrate": 2141,
      "{{\\": 2142,
      "Ġbackground": 2143,
      "';": 2144,
      "cer": 2145,
      "prototype": 2146,
      "}^{(": 2147,
      "ational": 2148,
      "Ġdetermin": 2149,
      "File": 2150,
      "Ġdeg": 2151,
      "aw": 2152,
      "IC": 2153,
      "Ġsequence": 2154,
      "Ġcoup": 2155,
      "lobal": 2156,
      "mages": 2157,
      "ĠUn": 2158,
      "sequ": 2159,
      "Ġexists": 2160,
      "Ġmean": 2161,
      "netic": 2162,
      "Ġinv": 2163,
      "ordin": 2164,
      "model": 2165,
      "ĠEx": 2166,
      "tivity": 2167,
      "pace": 2168,
      "Ġconver": 2169,
      "/*": 2170,
      "which": 2171,
      "ely": 2172,
      "small": 2173,
      "Ġstrong": 2174,
      "appro": 2175,
      "arg": 2176,
      "27": 2177,
      "Ġnil": 2178,
      "Ġmodule": 2179,
      "Ġwithin": 2180,
      "lication": 2181,
      "org": 2182,
      "Requ": 2183,
      "ĠLemma": 2184,
      "Ġact": 2185,
      "If": 2186,
      "mula": 2187,
      "Ġpower": 2188,
      "99": 2189,
      "ration": 2190,
      "ices": 2191,
      "lable": 2192,
      "With": 2193,
      "mathsf": 2194,
      "Ġ///": 2195,
      "Ġhere": 2196,
      "jo": 2197,
      "list": 2198,
      "ually": 2199,
      "ĉĊ": 2200,
      "mid": 2201,
      "Ġmany": 2202,
      "cept": 2203,
      "}\\\\": 2204,
      ")]": 2205,
      "AS": 2206,
      "iod": 2207,
      "ants": 2208,
      "uments": 2209,
      "AC": 2210,
      "AP": 2211,
      "Ġtext": 2212,
      "());": 2213,
      "Ġwidth": 2214,
      "Ġelec": 2215,
      "Se": 2216,
      "Ġcould": 2217,
      "\";": 2218,
      "05": 2219,
      "ude": 2220,
      "Ġlog": 2221,
      "35": 2222,
      "ched": 2223,
      "Ġtemperature": 2224,
      "aris": 2225,
      "Ġcheck": 2226,
      "ron": 2227,
      "olean": 2228,
      "Ġ$(\\": 2229,
      "\"><": 2230,
      "ug": 2231,
      "Ġbase": 2232,
      "LL": 2233,
      "Ġprobability": 2234,
      "medi": 2235,
      "][": 2236,
      "Ġhad": 2237,
      "sive": 2238,
      "options": 2239,
      "Ġlower": 2240,
      "ĠHe": 2241,
      "tically": 2242,
      "subset": 2243,
      "Ġlast": 2244,
      "lus": 2245,
      "Ġgalax": 2246,
      "ason": 2247,
      "struction": 2248,
      "Ġmon": 2249,
      "other": 2250,
      "ĠString": 2251,
      "Ġlay": 2252,
      "link": 2253,
      "hen": 2254,
      "side": 2255,
      "Ġconditions": 2256,
      "dimension": 2257,
      "indent": 2258,
      "Ġwor": 2259,
      "Ġplan": 2260,
      "28": 2261,
      "ĠSt": 2262,
      "It": 2263,
      "tis": 2264,
      "Int": 2265,
      "Ġbeing": 2266,
      "Ġocc": 2267,
      "PE": 2268,
      "(),": 2269,
      "TE": 2270,
      "ava": 2271,
      "Ġref": 2272,
      "pdf": 2273,
      "Ġbas": 2274,
      "Ġread": 2275,
      "js": 2276,
      "state": 2277,
      "Ġelements": 2278,
      "({\\": 2279,
      "Ġquantum": 2280,
      "Ġfixed": 2281,
      "ape": 2282,
      "2018": 2283,
      "unded": 2284,
      "Ġnext": 2285,
      "ĉĠĠĠ": 2286,
      "but": 2287,
      "off": 2288,
      "Equ": 2289,
      "Of": 2290,
      "198": 2291,
      "scale": 2292,
      "Ġsimp": 2293,
      "reat": 2294,
      "havi": 2295,
      "Ġobserved": 2296,
      "Ġfactor": 2297,
      "effici": 2298,
      "ances": 2299,
      "ute": 2300,
      "}:": 2301,
      "cup": 2302,
      "pos": 2303,
      "ither": 2304,
      "equiv": 2305,
      "Ġge": 2306,
      "urb": 2307,
      "foot": 2308,
      "Ġcode": 2309,
      "ings": 2310,
      "Le": 2311,
      "citet": 2312,
      "01": 2313,
      ".$": 2314,
      "Ġloc": 2315,
      "Ġcalled": 2316,
      "Ġway": 2317,
      "func": 2318,
      "star": 2319,
      "ache": 2320,
      "Ġequival": 2321,
      "Ġagain": 2322,
      "Path": 2323,
      "}+\\": 2324,
      "af": 2325,
      "sponse": 2326,
      "Ġ&\\": 2327,
      "Ġscale": 2328,
      "ental": 2329,
      "input": 2330,
      "lected": 2331,
      "from": 2332,
      "cos": 2333,
      "xspace": 2334,
      "]$": 2335,
      "tics": 2336,
      "Ġblock": 2337,
      "Ġframe": 2338,
      "Ġsimple": 2339,
      "Ġposition": 2340,
      "Ġproperty": 2341,
      "Ġassume": 2342,
      "Ġpositive": 2343,
      "onents": 2344,
      "tron": 2345,
      "Ġview": 2346,
      "translation": 2347,
      "Sh": 2348,
      "Text": 2349,
      "Ġthose": 2350,
      "Ġperformance": 2351,
      "26": 2352,
      "field": 2353,
      "Ġknown": 2354,
      "2017": 2355,
      "Ġremain": 2356,
      "}}{\\": 2357,
      "Ġversion": 2358,
      "'$": 2359,
      "|^": 2360,
      "Ġbefore": 2361,
      "imal": 2362,
      "anel": 2363,
      "Ġprivate": 2364,
      "Ġsystems": 2365,
      "Ġalgebra": 2366,
      "Ġvis": 2367,
      "point": 2368,
      "velop": 2369,
      "light": 2370,
      "Ġhow": 2371,
      "Ġinteraction": 2372,
      "page": 2373,
      "split": 2374,
      "upp": 2375,
      "onal": 2376,
      "Ġoutput": 2377,
      "Ġmake": 2378,
      "bor": 2379,
      "sin": 2380,
      "wise": 2381,
      "ottom": 2382,
      "Ġcontrol": 2383,
      "do": 2384,
      "View": 2385,
      "lin": 2386,
      "operatorname": 2387,
      "Ġthus": 2388,
      "Ġequations": 2389,
      "ĠAr": 2390,
      "Ġidentif": 2391,
      "hspace": 2392,
      "mul": 2393,
      "Ġtask": 2394,
      "Ġwithout": 2395,
      "Ġquan": 2396,
      "olumn": 2397,
      "ww": 2398,
      "Ġstandard": 2399,
      "ister": 2400,
      "lying": 2401,
      "Ġexpected": 2402,
      "rid": 2403,
      "Ġ-\\": 2404,
      "TR": 2405,
      "gg": 2406,
      "Ġhigher": 2407,
      "define": 2408,
      "neq": 2409,
      "lip": 2410,
      "}-\\": 2411,
      ")-": 2412,
      "Ġcirc": 2413,
      "II": 2414,
      "rop": 2415,
      "footnote": 2416,
      "Ġlines": 2417,
      "Ġ__": 2418,
      "Ġindu": 2419,
      "Ġlink": 2420,
      "rows": 2421,
      "Ġphot": 2422,
      "ĠBy": 2423,
      "Ġabs": 2424,
      "IM": 2425,
      "display": 2426,
      "Ġspin": 2427,
      "enumer": 2428,
      "Ġcontribu": 2429,
      "['": 2430,
      "Ġfour": 2431,
      "licit": 2432,
      "Ġtimes": 2433,
      "Ġfrequ": 2434,
      "Ġsignific": 2435,
      "ML": 2436,
      "(-": 2437,
      "olutions": 2438,
      "Ġdenote": 2439,
      "ensor": 2440,
      "Ġfields": 2441,
      "den": 2442,
      "pack": 2443,
      "Ġimple": 2444,
      "Ġhel": 2445,
      "dag": 2446,
      "Ġassociated": 2447,
      "Ġalong": 2448,
      "Ġsetting": 2449,
      "2016": 2450,
      "Ġbreak": 2451,
      "lue": 2452,
      "theorem": 2453,
      "48": 2454,
      ")}{": 2455,
      "default": 2456,
      "ouble": 2457,
      "noindent": 2458,
      "lied": 2459,
      "sian": 2460,
      "element": 2461,
      "Ġduring": 2462,
      "Ġsto": 2463,
      "ily": 2464,
      "ĠOn": 2465,
      "2019": 2466,
      "multic": 2467,
      "rep": 2468,
      "nb": 2469,
      "rate": 2470,
      "tional": 2471,
      "&&": 2472,
      "cing": 2473,
      "Ġevalu": 2474,
      "http": 2475,
      "Ġboundary": 2476,
      "Ġcases": 2477,
      "has": 2478,
      "Ġcoun": 2479,
      "cho": 2480,
      "Ġphys": 2481,
      "Ġvalid": 2482,
      "valid": 2483,
      "Ġbin": 2484,
      "ssif": 2485,
      "])": 2486,
      "ures": 2487,
      "ears": 2488,
      "enumerate": 2489,
      "ĠSince": 2490,
      "scr": 2491,
      "edge": 2492,
      "ĠĠĠĠĠĠĠĠĠĠĠĠĠĠĠĠĠĠĠĠĠĠĠĠĠĠĠ": 2493,
      "]\\": 2494,
      "Ġproposed": 2495,
      "land": 2496,
      "Ġstudi": 2497,
      "igned": 2498,
      "Ġcross": 2499,
      "fill": 2500,
      "IS": 2501,
      "Ġopen": 2502,
      "Ġyou": 2503,
      "Ġdistance": 2504,
      "2015": 2505,
      "alle": 2506,
      "sets": 2507,
      "variant": 2508,
      "asing": 2509,
      "ik": 2510,
      "command": 2511,
      "Rec": 2512,
      "70": 2513,
      "Ġdefault": 2514,
      "multicolumn": 2515,
      "eV": 2516,
      "angu": 2517,
      "ired": 2518,
      "ED": 2519,
      "Ġbehavi": 2520,
      "From": 2521,
      "Ġfurther": 2522,
      "Ġsepar": 2523,
      "attern": 2524,
      "Ġuser": 2525,
      "Ġvel": 2526,
      "create": 2527,
      "$}": 2528,
      "29": 2529,
      "member": 2530,
      "////////": 2531,
      "Ġsimula": 2532,
      "System": 2533,
      ")}$": 2534,
      "Ġtech": 2535,
      "pping": 2536,
      "Ġpop": 2537,
      "\\,\\": 2538,
      "Ġnumer": 2539,
      "ĠĠĠĠĊ": 2540,
      "Ġfit": 2541,
      "Ġcombin": 2542,
      "search": 2543,
      "Ġconsist": 2544,
      "ET": 2545,
      "Ġdescribed": 2546,
      "Ġcomponent": 2547,
      "her": 2548,
      "34": 2549,
      ".</": 2550,
      "Ġbelow": 2551,
      "Ġdiff": 2552,
      "Info": 2553,
      "vir": 2554,
      "Dis": 2555,
      "itemize": 2556,
      "Ġanaly": 2557,
      "dimensional": 2558,
      "AB": 2559,
      "Map": 2560,
      "vspace": 2561,
      "lev": 2562,
      "Ġcontra": 2563,
      "ĉĉĉĉĉĉ": 2564,
      "cription": 2565,
      "Ġtraining": 2566,
      "core": 2567,
      "omial": 2568,
      "ording": 2569,
      "igen": 2570,
      "oo": 2571,
      "Ġlabel": 2572,
      "ocus": 2573,
      "Ġrespect": 2574,
      "{}": 2575,
      "tio": 2576,
      "iled": 2577,
      "Ġchange": 2578,
      "Ġstart": 2579,
      "ken": 2580,
      "Ġestima": 2581,
      "Hand": 2582,
      "object": 2583,
      "check": 2584,
      "amil": 2585,
      "ĠThus": 2586,
      "Ġclear": 2587,
      "Ġ()": 2588,
      "oll": 2589,
      "till": 2590,
      "``": 2591,
      "ends": 2592,
      "ailable": 2593,
      "true": 2594,
      "Ġchang": 2595,
      "error": 2596,
      "ams": 2597,
      "Ġlike": 2598,
      "LO": 2599,
      "36": 2600,
      "ocity": 2601,
      "linear": 2602,
      "CO": 2603,
      "dt": 2604,
      "method": 2605,
      "Ġimplies": 2606,
      "ological": 2607,
      "Ġimportant": 2608,
      "omin": 2609,
      "Ġeffect": 2610,
      "Size": 2611,
      "ctions": 2612,
      "ĠĠĠĠĠĠĠĠĠĠ": 2613,
      "eturn": 2614,
      "amespace": 2615,
      "Ġdeno": 2616,
      "Ite": 2617,
      "yc": 2618,
      "RO": 2619,
      "Ġsignificant": 2620,
      "xy": 2621,
      "Ġexact": 2622,
      "Ġke": 2623,
      "Ġproduct": 2624,
      "Ġ_{": 2625,
      "Ġdomain": 2626,
      "Ġdefinition": 2627,
      "Ġcoeffici": 2628,
      "Man": 2629,
      "Ġexpression": 2630,
      "tra": 2631,
      "ĠSta": 2632,
      "Exp": 2633,
      "that": 2634,
      "itor": 2635,
      "Context": 2636,
      "ages": 2637,
      "ks": 2638,
      "Ġedge": 2639,
      "Or": 2640,
      "ĠRes": 2641,
      "olume": 2642,
      "Ġsever": 2643,
      "Ġsurface": 2644,
      "ĠOb": 2645,
      "Ġpla": 2646,
      "Ġweight": 2647,
      "gener": 2648,
      "approx": 2649,
      "Ġcomplete": 2650,
      "UR": 2651,
      "Ġformula": 2652,
      "mathscr": 2653,
      "ION": 2654,
      "loat": 2655,
      "}}_": 2656,
      "ference": 2657,
      "ager": 2658,
      "95": 2659,
      "Ġimpro": 2660,
      "Code": 2661,
      "wn": 2662,
      "result": 2663,
      "Ġwrit": 2664,
      "Ġperiod": 2665,
      "Ġfeatures": 2666,
      "Ġsets": 2667,
      "2014": 2668,
      "Ġ!==": 2669,
      "Ġdevelop": 2670,
      "public": 2671,
      "Ġ\\|": 2672,
      "Ġcolor": 2673,
      "Request": 2674,
      "Ġoriginal": 2675,
      "}}}": 2676,
      "04": 2677,
      "mag": 2678,
      "normal": 2679,
      "abled": 2680,
      "Ġiter": 2681,
      "())": 2682,
      "underline": 2683,
      "Ġstep": 2684,
      "Ġeither": 2685,
      "Ġaverage": 2686,
      "\\}$": 2687,
      "Ġconsidered": 2688,
      "char": 2689,
      "Ġdetail": 2690,
      "mbed": 2691,
      "lated": 2692,
      "can": 2693,
      "Ġnear": 2694,
      "Pi": 2695,
      "ES": 2696,
      "Ġloss": 2697,
      "Ġmoment": 2698,
      "atter": 2699,
      "nbsp": 2700,
      "App": 2701,
      "tices": 2702,
      "Ġleast": 2703,
      "Ġflow": 2704,
      "Ġinf": 2705,
      "ral": 2706,
      "Config": 2707,
      "AD": 2708,
      "owled": 2709,
      "vis": 2710,
      "Ġassert": 2711,
      "roid": 2712,
      "Ġcoordin": 2713,
      "multi": 2714,
      "2020": 2715,
      "Ġrepresentation": 2716,
      "Ġfull": 2717,
      "Ġchannel": 2718,
      "Ġcontains": 2719,
      "body": 2720,
      "Ġfree": 2721,
      "util": 2722,
      "skip": 2723,
      "ources": 2724,
      "gative": 2725,
      ")+": 2726,
      "stead": 2727,
      "api": 2728,
      "config": 2729,
      "bb": 2730,
      "head": 2731,
      "Ġrelation": 2732,
      "Ġunit": 2733,
      "Ġdep": 2734,
      "'t": 2735,
      "65": 2736,
      "38": 2737,
      "Ġlarger": 2738,
      "Ġgenerated": 2739,
      "ready": 2740,
      "rans": 2741,
      "Ver": 2742,
      "location": 2743,
      "No": 2744,
      "ĠNo": 2745,
      "^-": 2746,
      "arison": 2747,
      "Ġcolumn": 2748,
      "amily": 2749,
      "mption": 2750,
      "Ġmagnetic": 2751,
      "Ġcar": 2752,
      "resh": 2753,
      "Ġband": 2754,
      "Ġ/>": 2755,
      "****************": 2756,
      "Ġequal": 2757,
      "iform": 2758,
      "mooth": 2759,
      "web": 2760,
      "}/": 2761,
      "Ġfil": 2762,
      "height": 2763,
      "gl": 2764,
      "tainer": 2765,
      "Ġauth": 2766,
      "GL": 2767,
      "Ġide": 2768,
      "rary": 2769,
      "void": 2770,
      "based": 2771,
      "~$": 2772,
      "argin": 2773,
      "sto": 2774,
      "Ġlearning": 2775,
      "ying": 2776,
      "Model": 2777,
      "Ġcoupling": 2778,
      "trm": 2779,
      "Ġconstrain": 2780,
      "ĠThese": 2781,
      "formed": 2782,
      "0000": 2783,
      "Inter": 2784,
      "ln": 2785,
      "Ġlight": 2786,
      "Ġconf": 2787,
      "2013": 2788,
      "sw": 2789,
      "Ġmuch": 2790,
      "textrm": 2791,
      "Ġsolutions": 2792,
      "teq": 2793,
      "chan": 2794,
      "ended": 2795,
      "ĠEn": 2796,
      "ĠNew": 2797,
      "Ġextra": 2798,
      "08": 2799,
      "finite": 2800,
      "66": 2801,
      "03": 2802,
      "ĠAss": 2803,
      "way": 2804,
      "({": 2805,
      "Ġtransition": 2806,
      "sions": 2807,
      "Ġclose": 2808,
      "Ġprove": 2809,
      "Ġcluster": 2810,
      "Ġprovid": 2811,
      "Ġsupport": 2812,
      "Tr": 2813,
      "event": 2814,
      "ĠLe": 2815,
      "clo": 2816,
      "Ġgives": 2817,
      "sen": 2818,
      "Query": 2819,
      "Ġtake": 2820,
      "tag": 2821,
      "block": 2822,
      "02": 2823,
      "iter": 2824,
      "current": 2825,
      "Ġvia": 2826,
      "Ġindependent": 2827,
      "ĠTable": 2828,
      "Ġspectrum": 2829,
      "ttp": 2830,
      "Ġ\\;": 2831,
      "anguage": 2832,
      "Ġbi": 2833,
      "Ġvariables": 2834,
      "icon": 2835,
      "}^{-": 2836,
      "Ġweak": 2837,
      "Ġseveral": 2838,
      "tig": 2839,
      "Ġmode": 2840,
      "New": 2841,
      "Ġhal": 2842,
      "Be": 2843,
      "Ġstill": 2844,
      "((": 2845,
      "Mo": 2846,
      "']": 2847,
      "Ġoccur": 2848,
      "ync": 2849,
      "CH": 2850,
      "Ġrequired": 2851,
      "There": 2852,
      "Theta": 2853,
      "hand": 2854,
      "55": 2855,
      "sl": 2856,
      "Ġobjects": 2857,
      "osition": 2858,
      "ĉĠ": 2859,
      "Ġclassif": 2860,
      "rule": 2861,
      "Ġintegra": 2862,
      "Ġcallback": 2863,
      "example": 2864,
      "Ġholds": 2865,
      "Ġrule": 2866,
      "start": 2867,
      "Ġestimate": 2868,
      "Add": 2869,
      "Ġcomponents": 2870,
      "king": 2871,
      "ĠâĢĵ": 2872,
      "lete": 2873,
      "FF": 2874,
      "Ġtherefore": 2875,
      "lector": 2876,
      "Ġmeans": 2877,
      "Ġwrite": 2878,
      "Ġnote": 2879,
      "Ġaround": 2880,
      "Is": 2881,
      "pher": 2882,
      "png": 2883,
      "Property": 2884,
      "Ġhom": 2885,
      "pon": 2886,
      "assert": 2887,
      "ways": 2888,
      "Ġseries": 2889,
      "seteq": 2890,
      "pc": 2891,
      "UT": 2892,
      "Ġtable": 2893,
      "lar": 2894,
      "Ġcreate": 2895,
      "Ġvelocity": 2896,
      "Over": 2897,
      "Ġcontent": 2898,
      "44": 2899,
      "prod": 2900,
      "itch": 2901,
      "ail": 2902,
      "Since": 2903,
      "ĠTherefore": 2904,
      "CD": 2905,
      "2012": 2906,
      "mentation": 2907,
      "ĠNote": 2908,
      "ether": 2909,
      "[]": 2910,
      "Ġcell": 2911,
      "}}_{": 2912,
      "sm": 2913,
      "ynomial": 2914,
      "Ġ$\\{": 2915,
      "pped": 2916,
      "Ġachi": 2917,
      "ride": 2918,
      "Ġ$|": 2919,
      "),\\": 2920,
      "Ġear": 2921,
      "Then": 2922,
      "<\\": 2923,
      "Com": 2924,
      "Ġdiv": 2925,
      "Ġinterest": 2926,
      "Ġfla": 2927,
      "gen": 2928,
      "long": 2929,
      "Ġless": 2930,
      "ateg": 2931,
      "Ġwave": 2932,
      "tational": 2933,
      "37": 2934,
      "gence": 2935,
      "Ġprovide": 2936,
      "van": 2937,
      "Des": 2938,
      "oreover": 2939,
      "Ġeigen": 2940,
      "Ġnat": 2941,
      "down": 2942,
      "cheme": 2943,
      "Ġrelated": 2944,
      "ategory": 2945,
      "06": 2946,
      "Ġneu": 2947,
      "Ġinst": 2948,
      "07": 2949,
      "ecess": 2950,
      "2010": 2951,
      "minus": 2952,
      "bs": 2953,
      "Ġgu": 2954,
      "NN": 2955,
      "Ġspecific": 2956,
      "user": 2957,
      "Ġwho": 2958,
      "Ġgeome": 2959,
      "Table": 2960,
      "Ġevolution": 2961,
      "dagger": 2962,
      ")|": 2963,
      "Ġfilter": 2964,
      "}'": 2965,
      "ane": 2966,
      "viron": 2967,
      "ret": 2968,
      "31": 2969,
      "^{-\\": 2970,
      "Ġstars": 2971,
      "{$": 2972,
      "kn": 2973,
      "Ġside": 2974,
      "Ġbest": 2975,
      "olic": 2976,
      "Group": 2977,
      "Ġavailable": 2978,
      "subseteq": 2979,
      "Item": 2980,
      "push": 2981,
      "though": 2982,
      "Ġintegr": 2983,
      "Mod": 2984,
      "39": 2985,
      "PI": 2986,
      "End": 2987,
      "2011": 2988,
      "Ġrelations": 2989,
      "ible": 2990,
      "Ġjo": 2991,
      "matic": 2992,
      "oot": 2993,
      "texttt": 2994,
      "Ġnodes": 2995,
      "case": 2996,
      "enu": 2997,
      "Ġimages": 2998,
      "Ġmaximum": 2999,
      "Ġflux": 3000,
      "cel": 3001,
      "jective": 3002,
      "\"\"": 3003,
      "Ġeffective": 3004,
      "Ġ($\\": 3005,
      "inally": 3006,
      "Ġtheorem": 3007,
      "}},": 3008,
      "Ġjust": 3009,
      "_+": 3010,
      "ession": 3011,
      "net": 3012,
      "IG": 3013,
      "ustom": 3014,
      "more": 3015,
      "Ġenco": 3016,
      "Ġresponse": 3017,
      "my": 3018,
      "Ġdown": 3019,
      "ware": 3020,
      "ric": 3021,
      "Ġevents": 3022,
      "flow": 3023,
      "oriz": 3024,
      "turb": 3025,
      "por": 3026,
      "most": 3027,
      "ket": 3028,
      "Ġincluding": 3029,
      "Ġregular": 3030,
      "ires": 3031,
      "Ã©": 3032,
      "Ġbuil": 3033,
      "ĠApp": 3034,
      "Ġaff": 3035,
      "wedge": 3036,
      "cr": 3037,
      "reate": 3038,
      "Ġspect": 3039,
      "roller": 3040,
      "local": 3041,
      "Ġmade": 3042,
      "AG": 3043,
      "Out": 3044,
      "Ġrece": 3045,
      "Ġsearch": 3046,
      "Ġrequest": 3047,
      "Ġgau": 3048,
      "Ġmetric": 3049,
      "dif": 3050,
      "Ġrelative": 3051,
      "});": 3052,
      "\\}": 3053,
      "sitions": 3054,
      "Ġauto": 3055,
      "lugin": 3056,
      "Ġblack": 3057,
      "Ġratio": 3058,
      "Ġinclude": 3059,
      "ressed": 3060,
      "norm": 3061,
      "Ġmark": 3062,
      "$_": 3063,
      "Ġseen": 3064,
      "Ġdifference": 3065,
      "09": 3066,
      "ars": 3067,
      "oplus": 3068,
      "doc": 3069,
      "ymp": 3070,
      "omorphism": 3071,
      "Ġ$-": 3072,
      "Ġemission": 3073,
      "sible": 3074,
      "================": 3075,
      "Ġadditional": 3076,
      "Ġcap": 3077,
      "icro": 3078,
      "NS": 3079,
      "*{": 3080,
      "197": 3081,
      "PT": 3082,
      "Ġsignal": 3083,
      "ĠComp": 3084,
      "Ġ]": 3085,
      "enc": 3086,
      "Ġmultiple": 3087,
      "*/": 3088,
      "like": 3089,
      "tor": 3090,
      "tition": 3091,
      "Ġcannot": 3092,
      "Ġglobal": 3093,
      "nav": 3094,
      "reen": 3095,
      "ename": 3096,
      "Ġreco": 3097,
      "ring": 3098,
      "empty": 3099,
      "All": 3100,
      "refer": 3101,
      "CC": 3102,
      "column": 3103,
      "Ġax": 3104,
      "lain": 3105,
      "Tok": 3106,
      "Ġcontinuous": 3107,
      "linewidth": 3108,
      "Service": 3109,
      "conn": 3110,
      "67": 3111,
      "server": 3112,
      "Ġgalaxies": 3113,
      "Ġhyper": 3114,
      "Note": 3115,
      "Ġdirection": 3116,
      "Ġprec": 3117,
      "thes": 3118,
      "mediate": 3119,
      "2009": 3120,
      "dient": 3121,
      "ater": 3122,
      "IR": 3123,
      "riter": 3124,
      "word": 3125,
      "Ġpass": 3126,
      "](": 3127,
      "_{(": 3128,
      "Ġupper": 3129,
      "Ġamp": 3130,
      "PS": 3131,
      "Options": 3132,
      "ĠĠĠĊ": 3133,
      "Ġeffects": 3134,
      "setminus": 3135,
      "Ġsyn": 3136,
      "Ġheight": 3137,
      "bug": 3138,
      "omes": 3139,
      "AA": 3140,
      "Ġim": 3141,
      "Ġeffici": 3142,
      "Ġalready": 3143,
      "ba": 3144,
      "Ġintern": 3145,
      "lations": 3146,
      "ters": 3147,
      "Ġpolynomial": 3148,
      "ino": 3149,
      "ople": 3150,
      "ĠGL": 3151,
      "Ġspe": 3152,
      "Ġmechan": 3153,
      "Ġcri": 3154,
      "child": 3155,
      "Ġho": 3156,
      "site": 3157,
      "Ġdia": 3158,
      "Ġgive": 3159,
      "ferences": 3160,
      "49": 3161,
      "loy": 3162,
      "bin": 3163,
      "Ġequivalent": 3164,
      "Ġpanel": 3165,
      "meric": 3166,
      "ogle": 3167,
      "context": 3168,
      "limits": 3169,
      "hn": 3170,
      "dire": 3171,
      "\\'": 3172,
      "ides": 3173,
      "ĠSet": 3174,
      "Ġwhat": 3175,
      "Ġcompared": 3176,
      "Ġroot": 3177,
      "omen": 3178,
      "ernel": 3179,
      "Ġsymmetry": 3180,
      "sup": 3181,
      "Ġshort": 3182,
      "Ass": 3183,
      "Ġ$[": 3184,
      "Call": 3185,
      "OS": 3186,
      "Field": 3187,
      "Ġprovided": 3188,
      "Ġdegree": 3189,
      "68": 3190,
      "tablish": 3191,
      "ged": 3192,
      "ĠAt": 3193,
      "ender": 3194,
      "Ġbasis": 3195,
      "ĠAd": 3196,
      "izes": 3197,
      "_{{\\": 3198,
      "Ġrestr": 3199,
      "Ġfrequency": 3200,
      "2008": 3201,
      "apache": 3202,
      "Ġ(-": 3203,
      "stack": 3204,
      "ĠSh": 3205,
      "racy": 3206,
      "Ġnecess": 3207,
      "_*": 3208,
      "Val": 3209,
      "Function": 3210,
      "Ġ}\\": 3211,
      "Method": 3212,
      "Ġoperators": 3213,
      "part": 3214,
      "Ġobservations": 3215,
      "Sec": 3216,
      "Ġrecent": 3217,
      "Ġvertex": 3218,
      "mi": 3219,
      "ĠGet": 3220,
      "izing": 3221,
      "Reg": 3222,
      "Ġsmooth": 3223,
      "igger": 3224,
      "divid": 3225,
      "Ġ+=": 3226,
      "Ġconstruct": 3227,
      "Ġinequ": 3228,
      "Ġgauge": 3229,
      "active": 3230,
      "ĠSo": 3231,
      "Ġarguments": 3232,
      "Ġstatis": 3233,
      "allel": 3234,
      "Ġnoise": 3235,
      "aving": 3236,
      "parameter": 3237,
      "\"></": 3238,
      "iven": 3239,
      "Ġbounded": 3240,
      "false": 3241,
      "Ġexec": 3242,
      "Ġpresented": 3243,
      ")\\,": 3244,
      "Ġgas": 3245,
      "icture": 3246,
      "Ġapplied": 3247,
      "deed": 3248,
      "jection": 3249,
      "){\\": 3250,
      "corre": 3251,
      "Ġexplicit": 3252,
      "Sub": 3253,
      "mand": 3254,
      "Color": 3255,
      "image": 3256,
      "Ġcenter": 3257,
      "jor": 3258,
      "version": 3259,
      "Ġcurve": 3260,
      "len": 3261,
      "abs": 3262,
      "ollary": 3263,
      "uture": 3264,
      "ird": 3265,
      "47": 3266,
      "ior": 3267,
      "Ġwhether": 3268,
      "Ġdataset": 3269,
      "amilton": 3270,
      ")/": 3271,
      "Ġturn": 3272,
      "uting": 3273,
      "values": 3274,
      "ns": 3275,
      "number": 3276,
      "Ġcer": 3277,
      "Ġwindow": 3278,
      "Count": 3279,
      "ectors": 3280,
      "idget": 3281,
      "https": 3282,
      "ponse": 3283,
      "Bo": 3284,
      "Ġangle": 3285,
      "ale": 3286,
      "Ġexpan": 3287,
      "MA": 3288,
      "fs": 3289,
      "Vert": 3290,
      "Ġapproximation": 3291,
      "Ġprim": 3292,
      "Ġprofile": 3293,
      "Input": 3294,
      "Ġbehavior": 3295,
      "Fra": 3296,
      "Ġbetter": 3297,
      "Ġembed": 3298,
      "subfigure": 3299,
      "quare": 3300,
      "Ġchild": 3301,
      "ĠPar": 3302,
      "Ġmis": 3303,
      "Ġstyle": 3304,
      "Ġtitle": 3305,
      "definition": 3306,
      "Ġatta": 3307,
      "serve": 3308,
      "Ġvarious": 3309,
      "_{-": 3310,
      "orth": 3311,
      "duct": 3312,
      "85": 3313,
      "bigg": 3314,
      "Ġbro": 3315,
      "Ġcommon": 3316,
      "bound": 3317,
      "tual": 3318,
      "Ġhence": 3319,
      "md": 3320,
      "Ġdecre": 3321,
      "kip": 3322,
      "obj": 3323,
      "Ġhowever": 3324,
      "fact": 3325,
      "Ġmedi": 3326,
      "ULL": 3327,
      "uracy": 3328,
      "ĠSec": 3329,
      "city": 3330,
      "mes": 3331,
      "SU": 3332,
      "HT": 3333,
      "kes": 3334,
      "button": 3335,
      "Ġcyc": 3336,
      ")}(": 3337,
      "Ġextension": 3338,
      "Ġsmaller": 3339,
      "level": 3340,
      "ef": 3341,
      "lap": 3342,
      "}%": 3343,
      "target": 3344,
      "rees": 3345,
      "Ġmessage": 3346,
      "Ġanother": 3347,
      "Ġlater": 3348,
      "Ġlayer": 3349,
      "OT": 3350,
      "eff": 3351,
      "Message": 3352,
      "Ġuncer": 3353,
      "gment": 3354,
      "Ġappear": 3355,
      "incip": 3356,
      "llar": 3357,
      "$(": 3358,
      "enari": 3359,
      "Ġinstead": 3360,
      "'\\": 3361,
      "Ġinvol": 3362,
      "ticle": 3363,
      "Ġher": 3364,
      "OD": 3365,
      ",\\,": 3366,
      "Ġinves": 3367,
      "Token": 3368,
      "Ġam": 3369,
      "ention": 3370,
      "Ġparticle": 3371,
      "=(": 3372,
      "Ġwhose": 3373,
      "Ġtypes": 3374,
      "Ad": 3375,
      "Ġ|\\": 3376,
      "Ġthrow": 3377,
      "ropy": 3378,
      "La": 3379,
      "tative": 3380,
      "MS": 3381,
      "--------------------------------": 3382,
      "2007": 3383,
      "owledge": 3384,
      "98": 3385,
      "match": 3386,
      "las": 3387,
      "Ġclosed": 3388,
      "Ġquanti": 3389,
      "Ġremo": 3390,
      "ĠUni": 3391,
      "versity": 3392,
      "Ext": 3393,
      "bul": 3394,
      "cep": 3395,
      "Ġsuffici": 3396,
      "ctive": 3397,
      "ging": 3398,
      "gether": 3399,
      "Ġrepresent": 3400,
      "Ġradius": 3401,
      "Ġreason": 3402,
      "ĠĠĠĠĠĠĠĠĠĠĠĠĠĠĠĠĠ": 3403,
      "Ġalways": 3404,
      "Ġgroups": 3405,
      "wards": 3406,
      "FT": 3407,
      "static": 3408,
      ":\\": 3409,
      "aligned": 3410,
      "ĠProposition": 3411,
      "Ġtechni": 3412,
      "References": 3413,
      "iction": 3414,
      "tings": 3415,
      "Ġsw": 3416,
      "Ġfew": 3417,
      "Ġparticles": 3418,
      "Ġnumerical": 3419,
      "Ġdesign": 3420,
      "Ġgood": 3421,
      "Ġbool": 3422,
      "any": 3423,
      "Ġapply": 3424,
      "change": 3425,
      "db": 3426,
      "ump": 3427,
      "pag": 3428,
      "Ġunique": 3429,
      "Ġspecial": 3430,
      "remove": 3431,
      "Ġcommun": 3432,
      "Ġsuccess": 3433,
      "ball": 3434,
      "'_": 3435,
      "aussian": 3436,
      "Ġinterval": 3437,
      "leg": 3438,
      "known": 3439,
      "coun": 3440,
      "Ġestablish": 3441,
      "Ġuniform": 3442,
      "Ġscatter": 3443,
      "returns": 3444,
      "Ġcor": 3445,
      "property": 3446,
      "Ġitem": 3447,
      "Ġtree": 3448,
      "./": 3449,
      "colon": 3450,
      "run": 3451,
      "}}(\\": 3452,
      "Ġ+\\": 3453,
      "Ġurl": 3454,
      "Ġexpect": 3455,
      "Ġoptimal": 3456,
      "dro": 3457,
      "vironment": 3458,
      "Sp": 3459,
      "Ġdynamics": 3460,
      "Ġfig": 3461,
      "\\\"": 3462,
      "2006": 3463,
      "Number": 3464,
      "Ġdetermined": 3465,
      "stit": 3466,
      "append": 3467,
      "={": 3468,
      "Ġdiscre": 3469,
      "Ġmomentum": 3470,
      "Client": 3471,
      "Ġregions": 3472,
      "Ġbecomes": 3473,
      "range": 3474,
      "Ġspectral": 3475,
      "ĠReturn": 3476,
      "Ġsatisfies": 3477,
      "Ġsimulations": 3478,
      "UN": 3479,
      "lice": 3480,
      "Ġtransp": 3481,
      ")_{": 3482,
      "=-": 3483,
      "ture": 3484,
      "ilder": 3485,
      "Ġdocument": 3486,
      "zero": 3487,
      "Eq": 3488,
      "ade": 3489,
      "\\!\\!": 3490,
      "Ġquery": 3491,
      "next": 3492,
      "Ġdetails": 3493,
      "Ġreach": 3494,
      "Ġshe": 3495,
      "rel": 3496,
      "dividual": 3497,
      "Ġchoice": 3498,
      "96": 3499,
      "first": 3500,
      "Ġarea": 3501,
      "lick": 3502,
      "ING": 3503,
      "comple": 3504,
      "Ġ$.": 3505,
      "Response": 3506,
      "Ġamplit": 3507,
      "Ġdirectly": 3508,
      "istory": 3509,
      "Ġsources": 3510,
      "meq": 3511,
      "Ġvertices": 3512,
      "ĉĠĠĠĠĠĠĠ": 3513,
      "Ġmatter": 3514,
      "Ġpattern": 3515,
      "perp": 3516,
      "Ġarbit": 3517,
      "Ġnatural": 3518,
      "content": 3519,
      "black": 3520,
      "Ġ&=&": 3521,
      "Ġil": 3522,
      "older": 3523,
      "stand": 3524,
      "Ġcollection": 3525,
      "Ġspecified": 3526,
      "EX": 3527,
      "Ġ~": 3528,
      "97": 3529,
      "Ġ<<": 3530,
      "query": 3531,
      "forall": 3532,
      "Ġcost": 3533,
      "Ġelectron": 3534,
      "ĠCol": 3535,
      "Ġneigh": 3536,
      "}$-": 3537,
      "chema": 3538,
      "using": 3539,
      "Ġallows": 3540,
      "illi": 3541,
      "nit": 3542,
      "opy": 3543,
      "Ġti": 3544,
      "super": 3545,
      "ait": 3546,
      "Ġfamily": 3547,
      "Ġcompute": 3548,
      "Line": 3549,
      "bt": 3550,
      "DF": 3551,
      "Spec": 3552,
      "='": 3553,
      "Ġdouble": 3554,
      "ĠÐ": 3555,
      "CL": 3556,
      "simeq": 3557,
      "ris": 3558,
      "Ġaccording": 3559,
      "soft": 3560,
      "Ġconnected": 3561,
      "ympto": 3562,
      "Ġpeak": 3563,
      "Ġdecay": 3564,
      "EE": 3565,
      "Ġargument": 3566,
      "ories": 3567,
      "ife": 3568,
      "Ġplot": 3569,
      "izer": 3570,
      "++)": 3571,
      "Ġmaps": 3572,
      "terial": 3573,
      "scri": 3574,
      "Ġperturb": 3575,
      "orage": 3576,
      "cl": 3577,
      "hood": 3578,
      "mar": 3579,
      "]);": 3580,
      "urity": 3581,
      "Ġundefined": 3582,
      "Ġcompact": 3583,
      "Ġreference": 3584,
      "subsubsection": 3585,
      "ENT": 3586,
      "parse": 3587,
      "Ġlattice": 3588,
      "ranch": 3589,
      "forms": 3590,
      "lications": 3591,
      "ung": 3592,
      "Ġdiscussed": 3593,
      "tocol": 3594,
      "Ġques": 3595,
      ")^{\\": 3596,
      "Trans": 3597,
      "Ġsamples": 3598,
      "Ġscalar": 3599,
      "info": 3600,
      "ĠĠĠĠĠĠĠĠĠĠĠĠĠĠ": 3601,
      "tage": 3602,
      "dap": 3603,
      "Net": 3604,
      "Ġmer": 3605,
      "Ġ\\(": 3606,
      "88": 3607,
      "ĠHence": 3608,
      "Supp": 3609,
      ")^{-": 3610,
      "Ġtaken": 3611,
      ".~(\\": 3612,
      "Ġcorresponds": 3613,
      "filter": 3614,
      "remark": 3615,
      "radi": 3616,
      "Ġphysical": 3617,
      "lustra": 3618,
      "Ġprote": 3619,
      "Ġconstruction": 3620,
      "Ġupdate": 3621,
      "ĠPo": 3622,
      "Ġexperiments": 3623,
      "Ġconfiguration": 3624,
      "Ġnuc": 3625,
      "Child": 3626,
      "write": 3627,
      "parent": 3628,
      "OO": 3629,
      "ived": 3630,
      "Ġneutr": 3631,
      "Ġclassical": 3632,
      "Ġred": 3633,
      "ĠMe": 3634,
      "Ġconstraints": 3635,
      "42": 3636,
      "{$\\": 3637,
      "css": 3638,
      "Ġir": 3639,
      "cket": 3640,
      "auth": 3641,
      "Ġvir": 3642,
      "dim": 3643,
      "Pr": 3644,
      "Ġaccount": 3645,
      "US": 3646,
      "aries": 3647,
      "Ġderived": 3648,
      "Ġdone": 3649,
      "Ġscheme": 3650,
      "aves": 3651,
      "bottom": 3652,
      "46": 3653,
      "Ġframework": 3654,
      "Ġpack": 3655,
      "ilities": 3656,
      "Manager": 3657,
      "$^{-": 3658,
      "Result": 3659,
      "cell": 3660,
      "ĠRo": 3661,
      "Image": 3662,
      "Log": 3663,
      "Ġrow": 3664,
      "Ġwritten": 3665,
      "null": 3666,
      "ety": 3667,
      "Fact": 3668,
      "Ġfocus": 3669,
      "Ġlaw": 3670,
      "mine": 3671,
      "2005": 3672,
      "Status": 3673,
      "tle": 3674,
      "Width": 3675,
      "ATE": 3676,
      "And": 3677,
      "anish": 3678,
      "ĠLo": 3679,
      "Ġdomin": 3680,
      "ah": 3681,
      "Ref": 3682,
      "newcommand": 3683,
      "ending": 3684,
      "Ġexplo": 3685,
      "monstra": 3686,
      "57": 3687,
      "Ġlik": 3688,
      "tran": 3689,
      "Attribute": 3690,
      "Ġmeasured": 3691,
      "Ġproced": 3692,
      "}^*": 3693,
      "ithub": 3694,
      "Pre": 3695,
      "Ġground": 3696,
      "Fe": 3697,
      "Ġplace": 3698,
      "Ġmanif": 3699,
      "gular": 3700,
      "textsc": 3701,
      "merican": 3702,
      "Ġtensor": 3703,
      "Ġnegative": 3704,
      "dx": 3705,
      "([": 3706,
      "Ġloop": 3707,
      "attr": 3708,
      "Ġcomparison": 3709,
      "port": 3710,
      "Style": 3711,
      "Ġresulting": 3712,
      "SP": 3713,
      "ĠWhen": 3714,
      "amiltonian": 3715,
      "SO": 3716,
      "Ġborder": 3717,
      "$).": 3718,
      "uk": 3719,
      "Ġcritical": 3720,
      "adding": 3721,
      "cases": 3722,
      "ĠMo": 3723,
      "Ġerrors": 3724,
      "^{+": 3725,
      "Ġcoefficients": 3726,
      "Ġprovides": 3727,
      "Ġspatial": 3728,
      "Ġfraction": 3729,
      "Ġlit": 3730,
      "cond": 3731,
      "Ġaccuracy": 3732,
      "Ġchanges": 3733,
      "Cell": 3734,
      "ators": 3735,
      "Ġinternal": 3736,
      "Ġdisplay": 3737,
      "Ġstrate": 3738,
      "Stream": 3739,
      "Ġcontribution": 3740,
      "Ġ{};": 3741,
      "Per": 3742,
      "Ġchain": 3743,
      "Ġedges": 3744,
      "Off": 3745,
      "perties": 3746,
      "Ġdecomp": 3747,
      ")}{\\": 3748,
      "ques": 3749,
      "Ġmargin": 3750,
      "2021": 3751,
      "trices": 3752,
      "LT": 3753,
      "Ġobj": 3754,
      "$$\\": 3755,
      "Ġassumption": 3756,
      "rem": 3757,
      "last": 3758,
      "Ġagainst": 3759,
      "thing": 3760,
      "User": 3761,
      "Ġcorrelation": 3762,
      "Ġmeasurements": 3763,
      "cat": 3764,
      "MC": 3765,
      "process": 3766,
      "SI": 3767,
      "Ġcentral": 3768,
      "43": 3769,
      "Ġenough": 3770,
      "SC": 3771,
      "idence": 3772,
      "eded": 3773,
      "Ġnumbers": 3774,
      "ses": 3775,
      "Now": 3776,
      "Ġindividual": 3777,
      "Ġcorrect": 3778,
      "tributes": 3779,
      "Ġtrack": 3780,
      "dir": 3781,
      "Date": 3782,
      "Ġscenari": 3783,
      "Dec": 3784,
      "Ġapproximate": 3785,
      "Ġcertain": 3786,
      "Ġpur": 3787,
      "Ġ((": 3788,
      "Ġinvariant": 3789,
      "Ġstruct": 3790,
      "Ġcalculated": 3791,
      "Ġ=\\": 3792,
      "Ġparent": 3793,
      "Base": 3794,
      "ested": 3795,
      "ĠWh": 3796,
      "!--": 3797,
      "bits": 3798,
      "Ġtry": 3799,
      "Ð°": 3800,
      "Ġyears": 3801,
      "gorithms": 3802,
      "Ġfail": 3803,
      "Ġclasses": 3804,
      "frame": 3805,
      "Ġinequality": 3806,
      "Ġdemonstra": 3807,
      "undle": 3808,
      "Ġlook": 3809,
      "gies": 3810,
      "ols": 3811,
      "Not": 3812,
      "supp": 3813,
      "pmatrix": 3814,
      ")\\\\": 3815,
      "lease": 3816,
      "lash": 3817,
      "Handler": 3818,
      "}}^": 3819,
      "87": 3820,
      "cast": 3821,
      "Gener": 3822,
      "umin": 3823,
      "Ġimprove": 3824,
      "Ġeasi": 3825,
      "Ġvolume": 3826,
      "Ġcorrespond": 3827,
      "ĠCar": 3828,
      "Ġminimum": 3829,
      "idden": 3830,
      "Ġintegral": 3831,
      ")_": 3832,
      "ĠAll": 3833,
      "Ġsen": 3834,
      "require": 3835,
      "Ġlen": 3836,
      "Ġperformed": 3837,
      "ĠBo": 3838,
      "bullet": 3839,
      "vex": 3840,
      "2000": 3841,
      "Source": 3842,
      "github": 3843,
      "items": 3844,
      "Ġintroduced": 3845,
      "})$.": 3846,
      "cop": 3847,
      "exports": 3848,
      "dist": 3849,
      "Ġprior": 3850,
      "Ġinfinite": 3851,
      "earch": 3852,
      "Ġdistributions": 3853,
      "entations": 3854,
      "Ġconven": 3855,
      "fe": 3856,
      "Parameter": 3857,
      "mory": 3858,
      "Ġproblems": 3859,
      "HE": 3860,
      "gine": 3861,
      "Ġplane": 3862,
      "ĠĠĠĠĠĠĠĠĠĠĠĠĠĠĠĠĠĠĠĠĠĠĠĠĠĠĠĠĠĠĠ": 3863,
      "Ġmotion": 3864,
      "2004": 3865,
      "Ġ$$": 3866,
      "typ": 3867,
      "orn": 3868,
      "\\|_{": 3869,
      "Ġspectra": 3870,
      "Ġmight": 3871,
      "iti": 3872,
      "inte": 3873,
      "Ġdenotes": 3874,
      "Ġsimulation": 3875,
      "Ġtheore": 3876,
      "lor": 3877,
      "acc": 3878,
      "Ph": 3879,
      "open": 3880,
      "entif": 3881,
      "lib": 3882,
      "Ġsymmetric": 3883,
      "olute": 3884,
      "Arg": 3885,
      "then": 3886,
      "Ġincreasing": 3887,
      "ĠRec": 3888,
      "Ð¾": 3889,
      "Ġrest": 3890,
      "Ġcomputed": 3891,
      "Ġpolar": 3892,
      "Ġutil": 3893,
      "ĠSystem": 3894,
      "|_{": 3895,
      "Ġsoft": 3896,
      "Default": 3897,
      "gn": 3898,
      "Ġprincip": 3899,
      "Ġfar": 3900,
      "tx": 3901,
      "Ġpartial": 3902,
      "pol": 3903,
      "para": 3904,
      "Equal": 3905,
      "Ġtogether": 3906,
      "vity": 3907,
      "Ġcurves": 3908,
      "Here": 3909,
      "Ġdescribe": 3910,
      "Util": 3911,
      "Ġrather": 3912,
      "Ġorbit": 3913,
      "reshold": 3914,
      "usion": 3915,
      "####": 3916,
      "Ġdri": 3917,
      "ification": 3918,
      "levant": 3919,
      "ĠMoreover": 3920,
      "(_": 3921,
      "opt": 3922,
      "encies": 3923,
      "inf": 3924,
      "az": 3925,
      "mations": 3926,
      "cs": 3927,
      "Ġstrict": 3928,
      ")$-": 3929,
      "ĠJo": 3930,
      "sequence": 3931,
      "Ed": 3932,
      "Ġconsistent": 3933,
      "oper": 3934,
      "Ġ;": 3935,
      "ised": 3936,
      "ilib": 3937,
      "Ġhttp": 3938,
      "urthermore": 3939,
      "imilar": 3940,
      "ashed": 3941,
      "bi": 3942,
      "Ġgreat": 3943,
      "Resource": 3944,
      "olve": 3945,
      "Ġaddress": 3946,
      "PC": 3947,
      "vices": 3948,
      "Ġrole": 3949,
      "Ġsplit": 3950,
      "Ġlinks": 3951,
      "=\"../../": 3952,
      "Ġbegin": 3953,
      "Instance": 3954,
      "isms": 3955,
      "rag": 3956,
      "endix": 3957,
      "Ġdependence": 3958,
      "lang": 3959,
      "Ġsupported": 3960,
      "ests": 3961,
      "lt": 3962,
      "One": 3963,
      "ĠPh": 3964,
      "Format": 3965,
      "\\_": 3966,
      "Ġincrease": 3967,
      "dsh": 3968,
      "Ġoperation": 3969,
      "romise": 3970,
      "Run": 3971,
      "Ġboolean": 3972,
      "ĠObject": 3973,
      "Ġillustra": 3974,
      "www": 3975,
      "77": 3976,
      "Ġtransform": 3977,
      "Ġnetworks": 3978,
      "arp": 3979,
      "refix": 3980,
      "roduction": 3981,
      "ixel": 3982,
      "package": 3983,
      "Ġinterpre": 3984,
      "ished": 3985,
      "Ġdepends": 3986,
      "~$\\": 3987,
      "ĠCom": 3988,
      "aly": 3989,
      "tik": 3990,
      "Ġdescription": 3991,
      "gress": 3992,
      "Ġjava": 3993,
      "Next": 3994,
      "JS": 3995,
      "odot": 3996,
      "hip": 3997,
      "Ġcover": 3998,
      "only": 3999,
      "Figure": 4000,
      ">(": 4001,
      "Ġsrc": 4002,
      "CE": 4003,
      "mma": 4004,
      "Ġuntil": 4005,
      "}}^{": 4006,
      "Ġdual": 4007,
      "meta": 4008,
      "ASS": 4009,
      "Ġselected": 4010,
      "Ġdisk": 4011,
      "Ġdetection": 4012,
      "Row": 4013,
      "Ġleads": 4014,
      "mini": 4015,
      "Block": 4016,
      "client": 4017,
      "Ġchosen": 4018,
      "orld": 4019,
      "ution": 4020,
      "Ġhelp": 4021,
      "~~~~": 4022,
      "Ġsk": 4023,
      "sters": 4024,
      "ls": 4025,
      "ĠGaussian": 4026,
      "Ġdiag": 4027,
      "Ġmatrices": 4028,
      "Ġachiev": 4029,
      "'}": 4030,
      "56": 4031,
      "Thus": 4032,
      "init": 4033,
      "Ġmagnit": 4034,
      "aded": 4035,
      "Ġapplication": 4036,
      "Ġful": 4037,
      "uation": 4038,
      "Listener": 4039,
      "Ġresearch": 4040,
      "ERT": 4041,
      "ĠOne": 4042,
      "font": 4043,
      "json": 4044,
      "Content": 4045,
      "redu": 4046,
      "Ġworks": 4047,
      "PR": 4048,
      "Ġinteger": 4049,
      "Ġstudied": 4050,
      "Ġmodes": 4051,
      "Ġsay": 4052,
      "Ġexpansion": 4053,
      "Ġsite": 4054,
      "ĠNULL": 4055,
      "Ġexperimental": 4056,
      "dings": 4057,
      "rowser": 4058,
      "displaystyle": 4059,
      "Ġenti": 4060,
      "Length": 4061,
      "select": 4062,
      "fit": 4063,
      "proposition": 4064,
      "used": 4065,
      "mic": 4066,
      "gges": 4067,
      "uter": 4068,
      "mbers": 4069,
      "ĠHere": 4070,
      "mapsto": 4071,
      "phere": 4072,
      "Ġbox": 4073,
      "arily": 4074,
      "omorphic": 4075,
      "Ġstd": 4076,
      "reed": 4077,
      "ords": 4078,
      "{{": 4079,
      "mc": 4080,
      "find": 4081,
      "Ġkernel": 4082,
      "Ġformat": 4083,
      "update": 4084,
      "break": 4085,
      "Ġargs": 4086,
      "loor": 4087,
      "IP": 4088,
      "Ġreturns": 4089,
      "Theorem": 4090,
      "Case": 4091,
      "Ġstellar": 4092,
      "Ġdetermine": 4093,
      "Ġexplain": 4094,
      "icense": 4095,
      "ptr": 4096,
      "Ġ[]": 4097,
      "Ġfuture": 4098,
      "$;": 4099,
      "Ġalgorithms": 4100,
      "Lay": 4101,
      "alog": 4102,
      "Ġarbitrary": 4103,
      "Ġamo": 4104,
      "free": 4105,
      "Ġamong": 4106,
      "Component": 4107,
      "Ðµ": 4108,
      "Ġprocedure": 4109,
      "_-": 4110,
      "ros": 4111,
      "Ġgrow": 4112,
      "Ġselection": 4113,
      "isted": 4114,
      "41": 4115,
      "Buffer": 4116,
      "\\{\\": 4117,
      "deg": 4118,
      "ables": 4119,
      "itect": 4120,
      "Ġpairs": 4121,
      "UI": 4122,
      "ilibri": 4123,
      "\".": 4124,
      "andid": 4125,
      "Ġable": 4126,
      "bert": 4127,
      "Ġsit": 4128,
      "Ġangular": 4129,
      "fn": 4130,
      "ani": 4131,
      "ĠDis": 4132,
      "ublish": 4133,
      "structed": 4134,
      "Ġpeople": 4135,
      "Ġinterface": 4136,
      "58": 4137,
      "ĠTest": 4138,
      "Ġreduced": 4139,
      "So": 4140,
      "Ġsolid": 4141,
      "ple": 4142,
      "Bar": 4143,
      "Ġuseful": 4144,
      "Ġmove": 4145,
      "foo": 4146,
      "elper": 4147,
      "request": 4148,
      "Gra": 4149,
      "pdate": 4150,
      "Ġload": 4151,
      "Ġins": 4152,
      "Filter": 4153,
      "ker": 4154,
      "FI": 4155,
      "Ġasympto": 4156,
      "Ġshape": 4157,
      "Ġrepresents": 4158,
      "Ġcompare": 4159,
      "ĠRef": 4160,
      "Ġhoriz": 4161,
      "hbar": 4162,
      "Box": 4163,
      "YPE": 4164,
      "uler": 4165,
      "gt": 4166,
      "$~": 4167,
      "enti": 4168,
      "Ġsubset": 4169,
      "Ġprac": 4170,
      "scope": 4171,
      "Ġtw": 4172,
      "Ġyields": 4173,
      "'(": 4174,
      "cord": 4175,
      "Ġpolic": 4176,
      "SD": 4177,
      "Ġdraw": 4178,
      "Ġcapa": 4179,
      "ĠFe": 4180,
      "cle": 4181,
      "Ġintroduce": 4182,
      "osed": 4183,
      ":\"": 4184,
      "grams": 4185,
      "Ġdoc": 4186,
      "Ġwords": 4187,
      "ĠReg": 4188,
      "Ġhard": 4189,
      "Ġtransfer": 4190,
      "Ġaxis": 4191,
      "Ġpopulation": 4192,
      "description": 4193,
      "Ġexamples": 4194,
      "Ġresi": 4195,
      "Ġarch": 4196,
      "Ġmaterial": 4197,
      "Ġpost": 4198,
      "han": 4199,
      "ĠHamiltonian": 4200,
      "DB": 4201,
      "rl": 4202,
      "Ġresolution": 4203,
      "Ġdiagram": 4204,
      "ĠWith": 4205,
      "Ġrequires": 4206,
      "Ġhead": 4207,
      "private": 4208,
      "Our": 4209,
      "Override": 4210,
      "Ġbinary": 4211,
      "Ġfore": 4212,
      "cks": 4213,
      "Ġchoose": 4214,
      "host": 4215,
      "Ġknow": 4216,
      "auto": 4217,
      "Ġspaces": 4218,
      "ury": 4219,
      "Ġquad": 4220,
      "Ġcharacteristic": 4221,
      "ograph": 4222,
      "Meta": 4223,
      "Ġminim": 4224,
      "hy": 4225,
      "offset": 4226,
      "cd": 4227,
      "Ġagree": 4228,
      "Ġinner": 4229,
      "ĉĠĠĠĠĠĠĠĠĠĠĠ": 4230,
      "Ġnecessary": 4231,
      ")+\\": 4232,
      "}&": 4233,
      "unit": 4234,
      "Ġpage": 4235,
      "First": 4236,
      "Ġacross": 4237,
      "ceed": 4238,
      "Imp": 4239,
      "PP": 4240,
      "Ġoften": 4241,
      "Ġold": 4242,
      "dle": 4243,
      "Ġlocation": 4244,
      "else": 4245,
      "num": 4246,
      "However": 4247,
      "Ġleading": 4248,
      "69": 4249,
      "LS": 4250,
      "option": 4251,
      "Ġcoordinates": 4252,
      ")},": 4253,
      "ions": 4254,
      "EM": 4255,
      "Ġtakes": 4256,
      "tikz": 4257,
      "Builder": 4258,
      "alt": 4259,
      "bold": 4260,
      "Cur": 4261,
      "clusion": 4262,
      "Ġorigin": 4263,
      "2003": 4264,
      "Ġformation": 4265,
      "Ġcharge": 4266,
      "reng": 4267,
      "vector": 4268,
      "Ġpers": 4269,
      "}({\\": 4270,
      "Ġuses": 4271,
      "Ġgalaxy": 4272,
      "ĠSer": 4273,
      "Ġstudies": 4274,
      "Ġalmost": 4275,
      "CK": 4276,
      "ĠThey": 4277,
      "UE": 4278,
      "na": 4279,
      "rap": 4280,
      "Ġinvestig": 4281,
      "tate": 4282,
      "tries": 4283,
      "ĠUniversity": 4284,
      "hbox": 4285,
      "Ġren": 4286,
      "Ġsugges": 4287,
      "ously": 4288,
      "Ġtag": 4289,
      "Ġrank": 4290,
      "ali": 4291,
      "Ġprocesses": 4292,
      "Ġgenerate": 4293,
      "ĠIs": 4294,
      "[(": 4295,
      "Ġaccess": 4296,
      "print": 4297,
      "ĉĉĉĉĉĉĉĉ": 4298,
      "Ġremove": 4299,
      "Ġthird": 4300,
      "Ġoffset": 4301,
      "mt": 4302,
      "namespace": 4303,
      "Ġconvergence": 4304,
      "Ġstructures": 4305,
      "Ġactive": 4306,
      "Ġconnection": 4307,
      "Ġexperiment": 4308,
      "Ġ-->": 4309,
      "aring": 4310,
      "mpty": 4311,
      "pres": 4312,
      "ĠOur": 4313,
      "&=&": 4314,
      "Ġlanguage": 4315,
      "Frame": 4316,
      "Âł": 4317,
      "Ġvectors": 4318,
      "eve": 4319,
      "Ġuns": 4320,
      "seud": 4321,
      "stream": 4322,
      "results": 4323,
      "outh": 4324,
      "Ġ${": 4325,
      "minipage": 4326,
      "zed": 4327,
      "blue": 4328,
      "asy": 4329,
      "imin": 4330,
      "ampling": 4331,
      "Ġquark": 4332,
      "})$,": 4333,
      "Ġcount": 4334,
      "ries": 4335,
      "google": 4336,
      "ili": 4337,
      "Ġpress": 4338,
      "Ġunderstand": 4339,
      "sg": 4340,
      ")-\\": 4341,
      "Collection": 4342,
      "picture": 4343,
      "ĠFrom": 4344,
      "Ġcopy": 4345,
      "ilibrium": 4346,
      "root": 4347,
      ")}_{": 4348,
      "Ġstream": 4349,
      "Ġsimply": 4350,
      "Height": 4351,
      "But": 4352,
      "Ġcomputation": 4353,
      "MM": 4354,
      "tin": 4355,
      "joint": 4356,
      "Ġsymbol": 4357,
      "Ġvanish": 4358,
      "src": 4359,
      "Ġincluded": 4360,
      "creen": 4361,
      "}}$,": 4362,
      "ially": 4363,
      "////////////////": 4364,
      "Ġcoll": 4365,
      "Ġparts": 4366,
      "args": 4367,
      "ored": 4368,
      "}}$.": 4369,
      "Version": 4370,
      "CP": 4371,
      "Ġenvironment": 4372,
      "Ġpresence": 4373,
      "after": 4374,
      "raint": 4375,
      "ths": 4376,
      "Ġadj": 4377,
      "Ġobserve": 4378,
      "Ġuint": 4379,
      "Ġlatter": 4380,
      "Ġown": 4381,
      "air": 4382,
      "Ġincreases": 4383,
      "Ġcosm": 4384,
      "format": 4385,
      "ek": 4386,
      "ably": 4387,
      "sol": 4388,
      "ĠIN": 4389,
      "Ġpas": 4390,
      "Ġextended": 4391,
      "}{|": 4392,
      "Start": 4393,
      "lines": 4394,
      "))$": 4395,
      "finition": 4396,
      "Window": 4397,
      "Ġdifferential": 4398,
      "Ġrecon": 4399,
      "Ġdiffic": 4400,
      "ĠSch": 4401,
      "Ġmeta": 4402,
      "Ġestimates": 4403,
      "produ": 4404,
      "Ġmeasurement": 4405,
      "ley": 4406,
      "Ġconstraint": 4407,
      "Ġextends": 4408,
      "ĠTr": 4409,
      "Ġmajor": 4410,
      "Ġservice": 4411,
      "mass": 4412,
      "ypes": 4413,
      "day": 4414,
      "typeof": 4415,
      "Ġfund": 4416,
      "Ġ{@": 4417,
      "}$)": 4418,
      "Ġpropag": 4419,
      "ideo": 4420,
      "ands": 4421,
      "onential": 4422,
      "_.": 4423,
      "scil": 4424,
      "Ġscattering": 4425,
      "sem": 4426,
      "cf": 4427,
      "lier": 4428,
      "structure": 4429,
      "ĠLi": 4430,
      "Ġhalf": 4431,
      "Ġcontaining": 4432,
      "inner": 4433,
      "Ġpul": 4434,
      "Ġcut": 4435,
      "rup": 4436,
      "variance": 4437,
      "thesis": 4438,
      "TD": 4439,
      "Point": 4440,
      ")--": 4441,
      "Ġselect": 4442,
      "Ġlemma": 4443,
      "Ġinteractions": 4444,
      "mented": 4445,
      "NR": 4446,
      "kit": 4447,
      "Ġfigure": 4448,
      "Right": 4449,
      "Ġmention": 4450,
      "Ġempty": 4451,
      "ĠList": 4452,
      "59": 4453,
      "Ġneeded": 4454,
      "$),": 4455,
      "float": 4456,
      "sities": 4457,
      "Ġeasily": 4458,
      "Ġproject": 4459,
      "SM": 4460,
      "Ġbecome": 4461,
      "Ġtor": 4462,
      "Ġsatisfy": 4463,
      "ĉĠĠĠĠĠ": 4464,
      "algebra": 4465,
      "pose": 4466,
      "fla": 4467,
      "stract": 4468,
      "Ġbody": 4469,
      "ume": 4470,
      "Ġspeed": 4471,
      "500": 4472,
      "Ġoptical": 4473,
      "cccc": 4474,
      "Ġmorph": 4475,
      "symme": 4476,
      "Ġcore": 4477,
      "ĠBe": 4478,
      "Ġmemory": 4479,
      "Sc": 4480,
      "Json": 4481,
      "Str": 4482,
      "Wh": 4483,
      "show": 4484,
      "TH": 4485,
      "Ġapproaches": 4486,
      "Ġtaking": 4487,
      "Ġanalog": 4488,
      "Ġredsh": 4489,
      "Ġcr": 4490,
      "89": 4491,
      "Ġsense": 4492,
      "Ġadded": 4493,
      "Ġfast": 4494,
      "versal": 4495,
      "86": 4496,
      "ĠReturns": 4497,
      "zz": 4498,
      "').": 4499,
      "Ġ$|\\": 4500,
      "Ġinteresting": 4501,
      "endif": 4502,
      "prec": 4503,
      "FA": 4504,
      "ĠSe": 4505,
      "Ġstra": 4506,
      "Ġidentity": 4507,
      "vas": 4508,
      "Ġatten": 4509,
      ":(": 4510,
      "sor": 4511,
      "Tag": 4512,
      "ĠData": 4513,
      "Ġtransformation": 4514,
      "54": 4515,
      "Ġhaving": 4516,
      "Ġexactly": 4517,
      "Ġrelevant": 4518,
      "Ġmasses": 4519,
      "Ġyour": 4520,
      "}{(": 4521,
      "chool": 4522,
      "Ġnotation": 4523,
      "52": 4524,
      "overn": 4525,
      "Ġbounds": 4526,
      "Char": 4527,
      "floor": 4528,
      "Ġresource": 4529,
      "cla": 4530,
      "LP": 4531,
      "expected": 4532,
      "bust": 4533,
      "Ġexistence": 4534,
      "layer": 4535,
      "Ġstable": 4536,
      "urate": 4537,
      "tax": 4538,
      "sur": 4539,
      "Ġoscil": 4540,
      "Ġopp": 4541,
      "xml": 4542,
      "Ġbranch": 4543,
      "uman": 4544,
      "icity": 4545,
      ":}": 4546,
      "lide": 4547,
      ">>": 4548,
      "}\\,\\": 4549,
      "container": 4550,
      "cong": 4551,
      "Ġamplitude": 4552,
      "sole": 4553,
      "ĠCor": 4554,
      "Ġcategory": 4555,
      "63": 4556,
      "tact": 4557,
      "high": 4558,
      "51": 4559,
      "uations": 4560,
      "Ġclient": 4561,
      "plan": 4562,
      "ĠFirst": 4563,
      "Ġ^": 4564,
      "eler": 4565,
      "'),": 4566,
      "bot": 4567,
      "Ġsteps": 4568,
      "Ġensure": 4569,
      "inty": 4570,
      "header": 4571,
      "2002": 4572,
      "Ġassumed": 4573,
      "Ġret": 4574,
      "ising": 4575,
      "Ġgap": 4576,
      "cref": 4577,
      "Ġestimated": 4578,
      "Ġrepla": 4579,
      "bl": 4580,
      "window": 4581,
      "Read": 4582,
      "era": 4583,
      "Ġalign": 4584,
      "Ġconv": 4585,
      "Ġprogram": 4586,
      ",\\\\": 4587,
      "book": 4588,
      "Ġrender": 4589,
      "Ġaut": 4590,
      "Ġstreng": 4591,
      "Ġwant": 4592,
      "Ġclassification": 4593,
      "Ġhost": 4594,
      "mail": 4595,
      "Equals": 4596,
      ")}}": 4597,
      "osite": 4598,
      "une": 4599,
      "Ġfix": 4600,
      "tainty": 4601,
      "alg": 4602,
      "Ġhold": 4603,
      "eneous": 4604,
      "CS": 4605,
      "Ġproduction": 4606,
      "Ġmid": 4607,
      "Ġcreated": 4608,
      "Offset": 4609,
      "Ġquestion": 4610,
      "strong": 4611,
      "onical": 4612,
      "Ġforce": 4613,
      "Ġaltern": 4614,
      "tree": 4615,
      "lesssim": 4616,
      "Check": 4617,
      "ditional": 4618,
      "Ġess": 4619,
      "Null": 4620,
      "Ġblue": 4621,
      "URL": 4622,
      "Ġotherwise": 4623,
      "Ġcircle": 4624,
      "ony": 4625,
      "iver": 4626,
      "Ġdid": 4627,
      "Conn": 4628,
      "Ġearly": 4629,
      ":=": 4630,
      "2001": 4631,
      "Ne": 4632,
      "gments": 4633,
      "ĠII": 4634,
      ",$": 4635,
      "TP": 4636,
      ".\"": 4637,
      "Introduction": 4638,
      "Ġserver": 4639,
      "ĠAmerican": 4640,
      "uary": 4641,
      "Range": 4642,
      "Ð¸": 4643,
      "Ġ->": 4644,
      "dep": 4645,
      "Ġtherm": 4646,
      "Ġgradient": 4647,
      "ighted": 4648,
      "ecause": 4649,
      "Top": 4650,
      "Ġtoo": 4651,
      "Hz": 4652,
      "CON": 4653,
      "esti": 4654,
      "Therefore": 4655,
      "Factory": 4656,
      "ina": 4657,
      "ategor": 4658,
      "Ġcandid": 4659,
      "Ġconsists": 4660,
      "ube": 4661,
      "ante": 4662,
      "Ġpartition": 4663,
      "fil": 4664,
      "ĉĉĊ": 4665,
      "Ġprediction": 4666,
      "Ġreson": 4667,
      "-$": 4668,
      "Ġinduced": 4669,
      "Up": 4670,
      "||": 4671,
      "ĠSupp": 4672,
      ";&": 4673,
      "ĠType": 4674,
      "pts": 4675,
      "dom": 4676,
      "Ġgraphs": 4677,
      "Ġdeep": 4678,
      "Web": 4679,
      "gers": 4680,
      "semb": 4681,
      "ĠCan": 4682,
      "ench": 4683,
      "Ġfactors": 4684,
      "va": 4685,
      "Ġoptimization": 4686,
      "OP": 4687,
      "External": 4688,
      "Ġwide": 4689,
      "mode": 4690,
      "Ġconclude": 4691,
      "---": 4692,
      "Cache": 4693,
      "Create": 4694,
      "Ġentire": 4695,
      "ERR": 4696,
      "Ġfluct": 4697,
      "ĠArray": 4698,
      "Ġfi": 4699,
      "\"]": 4700,
      "Ġdevi": 4701,
      "vider": 4702,
      "Ġsignificantly": 4703,
      "53": 4704,
      "ital": 4705,
      "Ev": 4706,
      "inct": 4707,
      "Ġmagnitude": 4708,
      "Ġcalculation": 4709,
      "priate": 4710,
      "Page": 4711,
      "Ġpixel": 4712,
      "instance": 4713,
      "Ġlearn": 4714,
      "status": 4715,
      "Ġorgan": 4716,
      "faces": 4717,
      "Ġcalculations": 4718,
      "params": 4719,
      "Max": 4720,
      "Ġdate": 4721,
      "Ġgrid": 4722,
      "$_{": 4723,
      "rapper": 4724,
      "bigl": 4725,
      "Ġvirtual": 4726,
      "Valid": 4727,
      "ontal": 4728,
      "Ġdiscuss": 4729,
      "Ġapplications": 4730,
      "Ġremains": 4731,
      "system": 4732,
      "images": 4733,
      "sign": 4734,
      "Action": 4735,
      "RL": 4736,
      "Ġmakes": 4737,
      "Ġdark": 4738,
      "Def": 4739,
      "inary": 4740,
      "Sto": 4741,
      "ĠĠĠĠĠĠĠĠĊ": 4742,
      "background": 4743,
      "aged": 4744,
      "PL": 4745,
      "ĉĉĉĉĉĉĉ": 4746,
      "Ġclusters": 4747,
      "Ġabsor": 4748,
      "Ġ[\\": 4749,
      "Ac": 4750,
      "Ġcause": 4751,
      "Ġ^{": 4752,
      "Container": 4753,
      "AME": 4754,
      "Ġbar": 4755,
      "vo": 4756,
      "place": 4757,
      "âĢĻ": 4758,
      "78": 4759,
      "Ġhar": 4760,
      "ried": 4761,
      "ynamic": 4762,
      "Ġbelong": 4763,
      "ĠErr": 4764,
      "62": 4765,
      "btn": 4766,
      "^*$": 4767,
      "Ġori": 4768,
      "itz": 4769,
      "Ġarchitect": 4770,
      "Ġexisting": 4771,
      "Label": 4772,
      "Ġ[];": 4773,
      "bes": 4774,
      "\").": 4775,
      "Ġthreshold": 4776,
      "92": 4777,
      "Ġscaling": 4778,
      "ĠâĢ": 4779,
      "backs": 4780,
      "vey": 4781,
      "tfrac": 4782,
      "SL": 4783,
      "sect": 4784,
      "Ġbottom": 4785,
      "Ġmolec": 4786,
      "94": 4787,
      "bigr": 4788,
      "duc": 4789,
      "afe": 4790,
      "Ġcontributions": 4791,
      "93": 4792,
      "Module": 4793,
      "Ġtemplate": 4794,
      "Ġ>=": 4795,
      "Ġonce": 4796,
      "rief": 4797,
      "ĠSub": 4798,
      "Ġinside": 4799,
      "fi": 4800,
      "Ġmy": 4801,
      "output": 4802,
      "Ġamount": 4803,
      "Ġabsolute": 4804,
      "lex": 4805,
      "Ġreview": 4806,
      "Ġsubgroup": 4807,
      "IF": 4808,
      "GC": 4809,
      "Match": 4810,
      "Ġexcept": 4811,
      "ĠSee": 4812,
      "(&": 4813,
      "Ġ{$": 4814,
      "php": 4815,
      "Ġdeta": 4816,
      "$:": 4817,
      "Ġsettings": 4818,
      "rela": 4819,
      "Ġreported": 4820,
      "ĠOr": 4821,
      "inue": 4822,
      "NO": 4823,
      "Can": 4824,
      "Output": 4825,
      "Ġsent": 4826,
      "Ġque": 4827,
      "Li": 4828,
      "ÑĤ": 4829,
      "Ġgeometry": 4830,
      "Ġ\\!": 4831,
      "gu": 4832,
      "template": 4833,
      "Ġdeco": 4834,
      "ĠQu": 4835,
      "Task": 4836,
      ">&": 4837,
      "eli": 4838,
      "Ġproduced": 4839,
      "Ġobservation": 4840,
      "Ġword": 4841,
      "=\"+": 4842,
      "When": 4843,
      "Ġstrategy": 4844,
      "amental": 4845,
      "Ġregime": 4846,
      "ĠMath": 4847,
      "Ġmet": 4848,
      "Ġlarg": 4849,
      "Ġtasks": 4850,
      "IL": 4851,
      "ĠHT": 4852,
      "Ġitself": 4853,
      "eter": 4854,
      "Ġfully": 4855,
      "dr": 4856,
      "ingu": 4857,
      "ĠCal": 4858,
      "]$.": 4859,
      "ank": 4860,
      "yl": 4861,
      "ĠOp": 4862,
      "Using": 4863,
      "Ġdimensions": 4864,
      "]}": 4865,
      "Ġconvex": 4866,
      "she": 4867,
      "Ġadap": 4868,
      "Ġscope": 4869,
      "Ġener": 4870,
      "Ġones": 4871,
      "xx": 4872,
      "Ġstatus": 4873,
      "Ġcontrast": 4874,
      "Ġdistributed": 4875,
      "Ġavoid": 4876,
      "berg": 4877,
      "mathop": 4878,
      "sequently": 4879,
      "anti": 4880,
      "CM": 4881,
      "each": 4882,
      "Ġslight": 4883,
      "avy": 4884,
      "ĠSte": 4885,
      "tability": 4886,
      "unk": 4887,
      "roy": 4888,
      "Ġbeam": 4889,
      "scal": 4890,
      "Ġgame": 4891,
      "two": 4892,
      "roug": 4893,
      "Ġhandle": 4894,
      "ĠNe": 4895,
      "jected": 4896,
      "apply": 4897,
      "iral": 4898,
      "Ġentropy": 4899,
      "Ġprotected": 4900,
      "\\}$.": 4901,
      "Ġcoefficient": 4902,
      "uming": 4903,
      "1000": 4904,
      "chas": 4905,
      "Mode": 4906,
      "Ġsingular": 4907,
      "Ġimplementation": 4908,
      "dual": 4909,
      "\\;": 4910,
      "Ġdenoted": 4911,
      "det": 4912,
      "Ġthick": 4913,
      "ĠUnited": 4914,
      "Ġtrivi": 4915,
      "Ġ{}": 4916,
      "PRO": 4917,
      "Ġcalculate": 4918,
      "Ġnone": 4919,
      "))\\": 4920,
      "Ġpressure": 4921,
      "Ġplayers": 4922,
      "band": 4923,
      "Ġrotation": 4924,
      "stein": 4925,
      "Ġrates": 4926,
      "olved": 4927,
      "Ġdest": 4928,
      "ĠSp": 4929,
      "Ġdetect": 4930,
      "Ġsquare": 4931,
      "alk": 4932,
      "Ġanno": 4933,
      "Ġcour": 4934,
      "Finally": 4935,
      "ĠGener": 4936,
      "pg": 4937,
      "Ġclaim": 4938,
      "84": 4939,
      "Ġminimal": 4940,
      "tains": 4941,
      ",{\\": 4942,
      "Ġthermal": 4943,
      "Ġ\"\"\"": 4944,
      "ects": 4945,
      "Ġknowledge": 4946,
      "vature": 4947,
      "Ġcoordinate": 4948,
      "True": 4949,
      "Ġflat": 4950,
      "Ġpreser": 4951,
      "Ġtheoretical": 4952,
      "ometry": 4953,
      "Ġwar": 4954,
      "osity": 4955,
      "Ġshift": 4956,
      "Ġexponential": 4957,
      "conf": 4958,
      "Interface": 4959,
      "post": 4960,
      "...,": 4961,
      "iota": 4962,
      "SR": 4963,
      "CR": 4964,
      "ckn": 4965,
      "Ġmix": 4966,
      "Ġbul": 4967,
      "}}_{\\": 4968,
      "Ġcounter": 4969,
      "Ġkine": 4970,
      "Types": 4971,
      "Ġmechanism": 4972,
      "triv": 4973,
      "Ġhash": 4974,
      "Ġpure": 4975,
      "Ġformal": 4976,
      "Ġdiscrete": 4977,
      "Ġbuffer": 4978,
      "rant": 4979,
      "72": 4980,
      "ĠDec": 4981,
      "replace": 4982,
      "Ġscales": 4983,
      "matically": 4984,
      "dfrac": 4985,
      "java": 4986,
      "Ġshall": 4987,
      "onds": 4988,
      "Ġsho": 4989,
      "join": 4990,
      "Ġmes": 4991,
      "ratic": 4992,
      "Section": 4993,
      "ocation": 4994,
      "Ġeasy": 4995,
      "Ġpolicy": 4996,
      "Ġimmediate": 4997,
      "Ġhypo": 4998,
      "See": 4999,
      "Ġessential": 5000,
      "Target": 5001,
      "Su": 5002,
      "FR": 5003,
      "bind": 5004,
      "\"),": 5005,
      "ises": 5006,
      "response": 5007,
      "$&": 5008,
      "Clo": 5009,
      "udes": 5010,
      "uli": 5011,
      "illa": 5012,
      "mulation": 5013,
      "adow": 5014,
      "Ġion": 5015,
      "render": 5016,
      "Ġappropriate": 5017,
      "Ġseparate": 5018,
      "INT": 5019,
      "build": 5020,
      "Ġorth": 5021,
      "Ġyear": 5022,
      "ĠID": 5023,
      "IV": 5024,
      "})}": 5025,
      "alth": 5026,
      "Back": 5027,
      "Ġbasic": 5028,
      "Ġlayers": 5029,
      "cons": 5030,
      "Ġcatch": 5031,
      "Ġdepth": 5032,
      "Ġindicates": 5033,
      "loop": 5034,
      "ĠGra": 5035,
      "ĠMa": 5036,
      "Ġdeveloped": 5037,
      "Ġstation": 5038,
      "icted": 5039,
      "Ġatom": 5040,
      "Ġrepe": 5041,
      "Ġcollision": 5042,
      "Url": 5043,
      "vee": 5044,
      "Ġtraject": 5045,
      "Ġ\\]": 5046,
      "ĠDo": 5047,
      "Ġparallel": 5048,
      "Link": 5049,
      "buf": 5050,
      "Ġthrows": 5051,
      "[\"": 5052,
      "Ġuncertainty": 5053,
      "ĠPre": 5054,
      "Ġdatasets": 5055,
      "Ġusers": 5056,
      "Left": 5057,
      "Ġinverse": 5058,
      "gated": 5059,
      "][]{": 5060,
      "Ġanti": 5061,
      "step": 5062,
      "}[\\": 5063,
      "]$,": 5064,
      "patch": 5065,
      "iggs": 5066,
      "mitted": 5067,
      "Ġput": 5068,
      "DM": 5069,
      "${\\": 5070,
      "grid": 5071,
      "rs": 5072,
      "}})": 5073,
      "Ġimpact": 5074,
      "ĠMon": 5075,
      "Ġbit": 5076,
      "Ġdiscussion": 5077,
      "Ġinc": 5078,
      "ider": 5079,
      "Ġ\\&": 5080,
      "clear": 5081,
      "Column": 5082,
      "forward": 5083,
      "?:": 5084,
      "Ġnucle": 5085,
      "$};": 5086,
      "Each": 5087,
      "Ġhim": 5088,
      "ĠNational": 5089,
      "lots": 5090,
      "brace": 5091,
      "Ġtechniques": 5092,
      "oto": 5093,
      "ometric": 5094,
      "Ġauthors": 5095,
      "Ġadvan": 5096,
      "ium": 5097,
      "chron": 5098,
      "tification": 5099,
      "longrightarrow": 5100,
      "cover": 5101,
      "ĠFinally": 5102,
      "ux": 5103,
      "Do": 5104,
      "Ġtreat": 5105,
      "chastic": 5106,
      "Ġbuild": 5107,
      "df": 5108,
      "Ġsatisfying": 5109,
      "TO": 5110,
      "control": 5111,
      "ots": 5112,
      "Ġchall": 5113,
      "anged": 5114,
      "ctx": 5115,
      "@{": 5116,
      "Ġcommu": 5117,
      "Ġweb": 5118,
      "Min": 5119,
      "Ġallowed": 5120,
      "91": 5121,
      "uint": 5122,
      "Ġconstants": 5123,
      "61": 5124,
      "}}.": 5125,
      "Ġassign": 5126,
      "Ġstarting": 5127,
      "uminosity": 5128,
      "axis": 5129,
      "olicy": 5130,
      "close": 5131,
      "Ġkeep": 5132,
      "Ġauthor": 5133,
      "Ġrespon": 5134,
      "atri": 5135,
      "Ġfive": 5136,
      "Ġlikely": 5137,
      "direct": 5138,
      "Ġprojection": 5139,
      "ĠEX": 5140,
      "ABLE": 5141,
      "tribution": 5142,
      "ĠModel": 5143,
      "should": 5144,
      "Ġinflu": 5145,
      "Ġforms": 5146,
      "tific": 5147,
      "copy": 5148,
      "pop": 5149,
      "emptyset": 5150,
      "Ġestimation": 5151,
      "Ġbroad": 5152,
      "Ġattribute": 5153,
      "Ġneighbor": 5154,
      "Ġquasi": 5155,
      "Oper": 5156,
      "menu": 5157,
      "=\"#": 5158,
      "Ġdecomposition": 5159,
      "Ġfoot": 5160,
      "aid": 5161,
      "Ġappears": 5162,
      "Temp": 5163,
      "Ġferm": 5164,
      "Ġmapping": 5165,
      "Ġlib": 5166,
      "})=": 5167,
      "Ġeq": 5168,
      "ĠAfter": 5169,
      "abo": 5170,
      "Ġstrongly": 5171,
      "Ġoption": 5172,
      "These": 5173,
      "ĠVer": 5174,
      "Ġhole": 5175,
      "74": 5176,
      "Ġcomplexity": 5177,
      "alysis": 5178,
      "mann": 5179,
      "Ġemploy": 5180,
      "Ġswitch": 5181,
      "Callback": 5182,
      "\\)": 5183,
      "orig": 5184,
      "82": 5185,
      "ĠGo": 5186,
      "Ġproved": 5187,
      "Ġtoken": 5188,
      "document": 5189,
      "hom": 5190,
      "Ġcustom": 5191,
      "Ġexternal": 5192,
      "isation": 5193,
      "Ġgoal": 5194,
      "ĠUsing": 5195,
      "Ġrecor": 5196,
      "Ġrepresented": 5197,
      "uro": 5198,
      "algorithm": 5199,
      "ech": 5200,
      "Ġoperations": 5201,
      "Ġremaining": 5202,
      "Ð½": 5203,
      "zation": 5204,
      "dy": 5205,
      "})^": 5206,
      "arante": 5207,
      "android": 5208,
      "Ġactual": 5209,
      "After": 5210,
      "gian": 5211,
      "aa": 5212,
      "uns": 5213,
      "reference": 5214,
      "Ġring": 5215,
      "Ġweights": 5216,
      "nd": 5217,
      "itable": 5218,
      "ĠJS": 5219,
      "points": 5220,
      "structor": 5221,
      "Ġreturned": 5222,
      "ĠĠĠĠĠĠĠĠĠĠĠĠĠĠĠĠĠĠĠĠĠĠĠĠĠĠĠĠĠĠĠĠĠĠĠĠĠĠĠĠĠĠĠĠĠĠĠĠĠĠĠĠĠĠĠĠĠĠĠĠĠĠĠĠ": 5223,
      "EL": 5224,
      "Ġreplace": 5225,
      "sue": 5226,
      "Update": 5227,
      "racted": 5228,
      "API": 5229,
      "76": 5230,
      ",\\,\\": 5231,
      "Ġscenario": 5232,
      "imilarly": 5233,
      "ĠPer": 5234,
      "Ġlife": 5235,
      "lastic": 5236,
      ")}_": 5237,
      "Ġaccurate": 5238,
      "Ġliterature": 5239,
      "GR": 5240,
      "Controller": 5241,
      "Ġcombination": 5242,
      "Ġequilibrium": 5243,
      ".)": 5244,
      "Button": 5245,
      "Ġvary": 5246,
      "Ġlevels": 5247,
      "sample": 5248,
      "Ġslow": 5249,
      "win": 5250,
      "ĠAPI": 5251,
      "arc": 5252,
      "make": 5253,
      "oral": 5254,
      "ĠBut": 5255,
      "magnetic": 5256,
      "Ġcache": 5257,
      "mated": 5258,
      "asic": 5259,
      "quot": 5260,
      "MB": 5261,
      "eness": 5262,
      "Ġphoton": 5263,
      "Ġlocated": 5264,
      "criptor": 5265,
      "ĠLicense": 5266,
      "Ġentry": 5267,
      "acu": 5268,
      "ident": 5269,
      "83": 5270,
      "such": 5271,
      "bmatrix": 5272,
      "Ġreduce": 5273,
      "Ġtechn": 5274,
      "Ġfunctional": 5275,
      "dated": 5276,
      "ana": 5277,
      ">\\": 5278,
      "Im": 5279,
      "|}{": 5280,
      "enter": 5281,
      "essages": 5282,
      "Ġneeds": 5283,
      "tiny": 5284,
      ";\\;\\": 5285,
      "Ġincludes": 5286,
      "gent": 5287,
      "PU": 5288,
      "ĠSpec": 5289,
      "Ġdon": 5290,
      "ĠNS": 5291,
      "Ġreduction": 5292,
      "Ġmach": 5293,
      "IO": 5294,
      "Ġpi": 5295,
      "Ġpseud": 5296,
      "Ġrepresentations": 5297,
      "PO": 5298,
      "Ġboson": 5299,
      "/(": 5300,
      "Ġradio": 5301,
      "Ġnorm": 5302,
      "Ġpl": 5303,
      "sembly": 5304,
      "Ġagreement": 5305,
      "Ġstack": 5306,
      "ĠAppendix": 5307,
      "iving": 5308,
      "Ġdiagonal": 5309,
      "diff": 5310,
      "Ġdetailed": 5311,
      "Ġcommand": 5312,
      "}}^{\\": 5313,
      "Ġfont": 5314,
      "ĠIR": 5315,
      "Ġcapture": 5316,
      "callback": 5317,
      "CA": 5318,
      "reme": 5319,
      "tify": 5320,
      "Hash": 5321,
      "Dire": 5322,
      "trivial": 5323,
      "paragraph": 5324,
      "MR": 5325,
      "Ġstatement": 5326,
      "ĠFurthermore": 5327,
      "Ġiso": 5328,
      "allow": 5329,
      ";</": 5330,
      "uni": 5331,
      "ront": 5332,
      "ĠEqu": 5333,
      "ĠNone": 5334,
      "mptions": 5335,
      "phan": 5336,
      "Ġign": 5337,
      "ĠClass": 5338,
      "Ġwhole": 5339,
      "plot": 5340,
      "Ġconstructed": 5341,
      "plugin": 5342,
      "Ġthough": 5343,
      "cience": 5344,
      "}_{-": 5345,
      "[-": 5346,
      "ĠLie": 5347,
      "semble": 5348,
      "Ġunits": 5349,
      "Ġproduce": 5350,
      "^{*": 5351,
      "Ġprimary": 5352,
      "chor": 5353,
      "actions": 5354,
      "ama": 5355,
      "ru": 5356,
      "Ġpropor": 5357,
      "GB": 5358,
      "Return": 5359,
      "+(": 5360,
      "Ġideal": 5361,
      "sv": 5362,
      ",\"": 5363,
      "Ġoverall": 5364,
      "licity": 5365,
      "Auth": 5366,
      "ssive": 5367,
      "ading": 5368,
      "Ġparse": 5369,
      "Ġidentified": 5370,
      "pid": 5371,
      "Lemma": 5372,
      "Ġitems": 5373,
      "]{\\": 5374,
      "Ste": 5375,
      "Comple": 5376,
      "Ro": 5377,
      "dec": 5378,
      "entry": 5379,
      "req": 5380,
      "vartheta": 5381,
      "Ġ\\(\\": 5382,
      "ĠBu": 5383,
      "meds": 5384,
      "Ġmanifold": 5385,
      "bum": 5386,
      "ugh": 5387,
      "ĠNow": 5388,
      "ifically": 5389,
      "img": 5390,
      "bib": 5391,
      "Command": 5392,
      "Write": 5393,
      "istry": 5394,
      "Ġ}{": 5395,
      "********************************": 5396,
      "medskip": 5397,
      "Ġwin": 5398,
      "Ġphysics": 5399,
      "Header": 5400,
      "uted": 5401,
      "Ġsuccessful": 5402,
      "Ġrules": 5403,
      "izations": 5404,
      "73": 5405,
      "real": 5406,
      "Ġcref": 5407,
      "Ġsufficiently": 5408,
      "enomen": 5409,
      "`.": 5410,
      "ulated": 5411,
      "Ġrunning": 5412,
      "models": 5413,
      "circle": 5414,
      "Ġusually": 5415,
      "std": 5416,
      "Ġ...": 5417,
      "yr": 5418,
      "Ġfun": 5419,
      "Tra": 5420,
      "Ġfundamental": 5421,
      "Ġpublish": 5422,
      "}}}\\": 5423,
      "Ġcurvature": 5424,
      "Ġrobust": 5425,
      "Ġcaus": 5426,
      "Ġmaximal": 5427,
      "train": 5428,
      "Ġ({\\": 5429,
      "oton": 5430,
      "hr": 5431,
      "79": 5432,
      "FL": 5433,
      "Ġtypical": 5434,
      "Ġenergies": 5435,
      "ards": 5436,
      "Ġsimpl": 5437,
      "Ġstraight": 5438,
      "Ġworld": 5439,
      "Ġmembers": 5440,
      "sitivity": 5441,
      "uple": 5442,
      "Ġvisual": 5443,
      "Ġmatching": 5444,
      "mn": 5445,
      "tml": 5446,
      "come": 5447,
      "81": 5448,
      "ĠDes": 5449,
      "Ġpassed": 5450,
      "|}": 5451,
      "final": 5452,
      "Ġvertical": 5453,
      "Ġapi": 5454,
      "Ġexception": 5455,
      "Ġcriter": 5456,
      "author": 5457,
      "Ġextend": 5458,
      "acy": 5459,
      "Results": 5460,
      "cus": 5461,
      "VER": 5462,
      "angular": 5463,
      "Ġdistinct": 5464,
      "}$}": 5465,
      "Ġindicate": 5466,
      "exec": 5467,
      "Ġgain": 5468,
      "Ġunderlying": 5469,
      "DD": 5470,
      "avel": 5471,
      "Ġneural": 5472,
      "erman": 5473,
      "before": 5474,
      "Ġredshift": 5475,
      "Ġstage": 5476,
      "1999": 5477,
      "Ġgenerally": 5478,
      "cache": 5479,
      "columnwidth": 5480,
      "Ġexplicitly": 5481,
      "Ġidentify": 5482,
      "Ġcycle": 5483,
      "IB": 5484,
      "hout": 5485,
      "ao": 5486,
      "Ġexhi": 5487,
      "atives": 5488,
      "ski": 5489,
      "\\}\\": 5490,
      "debug": 5491,
      "Ġfeed": 5492,
      "Ġface": 5493,
      "ĠStates": 5494,
      "Ġfac": 5495,
      "ĠDi": 5496,
      "ĠEng": 5497,
      "Ġfilm": 5498,
      "ÑĢ": 5499,
      "Ġsemi": 5500,
      "Proof": 5501,
      "Ġsolve": 5502,
      "Ġelect": 5503,
      "Ġguarante": 5504,
      "Timeout": 5505,
      "trics": 5506,
      "scriptsize": 5507,
      "///": 5508,
      "300": 5509,
      "Ġage": 5510,
      "ĠCoun": 5511,
      "lone": 5512,
      "Ġcontainer": 5513,
      "Ġstrength": 5514,
      "Position": 5515,
      "ĠError": 5516,
      "inst": 5517,
      "Ġrelatively": 5518,
      "Ġtool": 5519,
      "umb": 5520,
      "tikzpicture": 5521,
      "formal": 5522,
      "Ġlonger": 5523,
      "cible": 5524,
      "Ġformer": 5525,
      "buffer": 5526,
      "Ġsufficient": 5527,
      "Ġattention": 5528,
      "usic": 5529,
      "Ġstatistical": 5530,
      "Hence": 5531,
      "task": 5532,
      "=\"../": 5533,
      "Vis": 5534,
      "TYPE": 5535,
      "ori": 5536,
      "Ġconsidering": 5537,
      "aj": 5538,
      "ollowing": 5539,
      "ĠCO": 5540,
      ")</": 5541,
      "Ġasymptotic": 5542,
      "Ġhapp": 5543,
      "Ġ$,": 5544,
      "hash": 5545,
      "Ġmentioned": 5546,
      "iff": 5547,
      "Ġsampling": 5548,
      "diag": 5549,
      "rown": 5550,
      "}}=": 5551,
      "Ġefficiency": 5552,
      "Ġalthough": 5553,
      "Ġradial": 5554,
      "ql": 5555,
      "}~": 5556,
      "Ġlimited": 5557,
      "Ġmaking": 5558,
      "Ġpoly": 5559,
      "ĠGe": 5560,
      "Obj": 5561,
      "Ġwhite": 5562,
      "ering": 5563,
      "ĠCheck": 5564,
      "Ġevaluation": 5565,
      "bur": 5566,
      "nap": 5567,
      "Ġvo": 5568,
      "Ġhol": 5569,
      "ours": 5570,
      "${": 5571,
      "urations": 5572,
      "Ġobservable": 5573,
      "Ġconserv": 5574,
      "Ġassumptions": 5575,
      "Sch": 5576,
      "cp": 5577,
      "pass": 5578,
      "webkit": 5579,
      "latform": 5580,
      "Ġembedding": 5581,
      "gan": 5582,
      "Ġdetected": 5583,
      "Ġevaluate": 5584,
      "SA": 5585,
      "vitational": 5586,
      "Ġderivative": 5587,
      "Ġsix": 5588,
      "Ġjoin": 5589,
      "ccording": 5590,
      ":=\\": 5591,
      "Ġattemp": 5592,
      "Ġslightly": 5593,
      "itions": 5594,
      "chedule": 5595,
      "vs": 5596,
      "weight": 5597,
      "\\}$,": 5598,
      "Ġsections": 5599,
      "EQ": 5600,
      "1998": 5601,
      "formations": 5602,
      "ĠMark": 5603,
      "Ġfiles": 5604,
      "ship": 5605,
      "Ġdiver": 5606,
      "teger": 5607,
      "Ġodd": 5608,
      "Const": 5609,
      "ĠLag": 5610,
      "Tree": 5611,
      "Ġisomorphism": 5612,
      "}|\\": 5613,
      "tool": 5614,
      "Ġoccurs": 5615,
      "Ġestablished": 5616,
      "bp": 5617,
      "figures": 5618,
      "Pos": 5619,
      "BC": 5620,
      "Ġtypeof": 5621,
      "ka": 5622,
      "ĠInter": 5623,
      "Ġtopological": 5624,
      "pacity": 5625,
      "Ġdust": 5626,
      "Ġvariation": 5627,
      "Ġprotocol": 5628,
      "Ġcm": 5629,
      "Ġdesired": 5630,
      "Ġmodified": 5631,
      "Ġclearly": 5632,
      "Ġderive": 5633,
      "&=\\": 5634,
      "ĠHo": 5635,
      "rank": 5636,
      "Ġconfir": 5637,
      "cker": 5638,
      "Ġidea": 5639,
      "Ġquality": 5640,
      "Ġcontained": 5641,
      "dl": 5642,
      "ones": 5643,
      "Ġagent": 5644,
      "Ġcanonical": 5645,
      "ibration": 5646,
      "Ġnature": 5647,
      "istent": 5648,
      "multirow": 5649,
      "Ġtrained": 5650,
      "ares": 5651,
      "tives": 5652,
      "Ġfill": 5653,
      "=\"../../../../": 5654,
      "Ġlimits": 5655,
      "Ġconsequence": 5656,
      "ĠWhile": 5657,
      "Ġnames": 5658,
      "Ġparams": 5659,
      "transform": 5660,
      "Ġdifferences": 5661,
      "Ġtrivial": 5662,
      "ĠCL": 5663,
      "Expression": 5664,
      "Ġnamely": 5665,
      "Render": 5666,
      "Ġachieve": 5667,
      "^{(\\": 5668,
      "Empty": 5669,
      "Ġphenomen": 5670,
      "imes": 5671,
      "Ġdx": 5672,
      "Server": 5673,
      "Ġgeneralized": 5674,
      "Ġluminosity": 5675,
      "ĠMin": 5676,
      "second": 5677,
      "Ġpaths": 5678,
      "\\%$": 5679,
      "Ġvideo": 5680,
      "blem": 5681,
      "Ġsetup": 5682,
      "Ġmicro": 5683,
      "ĠĠĠĠĠĠĠĠĠĠĠĠĠĠĠĠĠĠĠĠĠ": 5684,
      "Ġapplying": 5685,
      "Ġrecord": 5686,
      "Multi": 5687,
      "chem": 5688,
      "Ġ,\\": 5689,
      "Ġtowards": 5690,
      "term": 5691,
      "Ġconcent": 5692,
      "byte": 5693,
      "Provider": 5694,
      "Ġremark": 5695,
      "onom": 5696,
      "fect": 5697,
      "isely": 5698,
      "ictionary": 5699,
      "flu": 5700,
      "anner": 5701,
      "Document": 5702,
      "Ġintegration": 5703,
      "vised": 5704,
      "car": 5705,
      "Ġdr": 5706,
      "shift": 5707,
      "utes": 5708,
      "nn": 5709,
      "uri": 5710,
      "Ġelectr": 5711,
      "while": 5712,
      "Ġvol": 5713,
      "Jo": 5714,
      "ĠMar": 5715,
      "=.": 5716,
      "Ġgeneration": 5717,
      "phys": 5718,
      "Ġdynamical": 5719,
      "ogeneous": 5720,
      "lean": 5721,
      "Ġmeasures": 5722,
      "Ġpadding": 5723,
      "icrosoft": 5724,
      "HTML": 5725,
      "Ġnonlinear": 5726,
      "MD": 5727,
      "ĠAdd": 5728,
      "ourier": 5729,
      ")})": 5730,
      "edia": 5731,
      "ĠĠĠĠĠĠĠĠĠĠĠĠĊ": 5732,
      "bly": 5733,
      "Ġreceived": 5734,
      "rand": 5735,
      "ubble": 5736,
      "large": 5737,
      "Xi": 5738,
      "sure": 5739,
      "Ġpredicted": 5740,
      "Ġhuman": 5741,
      "Ġnor": 5742,
      "avelength": 5743,
      "yntax": 5744,
      "Ġellip": 5745,
      "SH": 5746,
      "global": 5747,
      "ening": 5748,
      "Ġexper": 5749,
      "Ġconj": 5750,
      "tained": 5751,
      "Ġexpressed": 5752,
      "Ġspher": 5753,
      "ĠAnd": 5754,
      "ĠSD": 5755,
      "icker": 5756,
      "Properties": 5757,
      "Ġuncertain": 5758,
      "Ġdepending": 5759,
      "Ġregister": 5760,
      "istor": 5761,
      "\\|\\": 5762,
      "Ġtrace": 5763,
      "ategories": 5764,
      "Ġss": 5765,
      "Params": 5766,
      "notag": 5767,
      "ĠSM": 5768,
      "roughout": 5769,
      "osing": 5770,
      "Ġelem": 5771,
      "255": 5772,
      "mult": 5773,
      "Ġpreviously": 5774,
      "Ġstability": 5775,
      "dev": 5776,
      "EC": 5777,
      "Ġhistory": 5778,
      "Ġround": 5779,
      "Ġtermin": 5780,
      "Ġteam": 5781,
      "Ġpredictions": 5782,
      "ae": 5783,
      "Ġdecision": 5784,
      "AV": 5785,
      "slant": 5786,
      "Widget": 5787,
      "Ġsubject": 5788,
      "Ġbal": 5789,
      "Ġdifficult": 5790,
      "71": 5791,
      "Change": 5792,
      "Ġdimensional": 5793,
      "ĠMan": 5794,
      "Ġgreater": 5795,
      "full": 5796,
      "notation": 5797,
      "store": 5798,
      "complete": 5799,
      "ĠGeV": 5800,
      "clusions": 5801,
      "scripts": 5802,
      "hal": 5803,
      "subsec": 5804,
      "parameters": 5805,
      "Suppose": 5806,
      "ãģ": 5807,
      "acuum": 5808,
      "ĠEach": 5809,
      "Ġeigenvalues": 5810,
      "DO": 5811,
      "servable": 5812,
      "sues": 5813,
      "Ġdevice": 5814,
      "Ġlocally": 5815,
      "mos": 5816,
      "Ġcomputational": 5817,
      "Ġmassive": 5818,
      "ĠAlso": 5819,
      "Ġkeys": 5820,
      "ĠIndeed": 5821,
      "Ġrele": 5822,
      "stro": 5823,
      "KE": 5824,
      "ĠĠĠĠĠĠĠĠĠĠĠĠĠĠĠĠĠĠĠĠ": 5825,
      "Ġgrowth": 5826,
      "ĠMay": 5827,
      "Ġer": 5828,
      "Ġseason": 5829,
      "Ġfn": 5830,
      "Fla": 5831,
      "Consider": 5832,
      "Ġdashed": 5833,
      "tw": 5834,
      "Ġabund": 5835,
      "rea": 5836,
      "Ġsituation": 5837,
      "Ġsummar": 5838,
      "Ġbuilt": 5839,
      "Ġrecall": 5840,
      "Ge": 5841,
      "Ġport": 5842,
      "Ġbias": 5843,
      "Ġprinciple": 5844,
      "ifts": 5845,
      "Ġcompletely": 5846,
      "udio": 5847,
      "Level": 5848,
      "Form": 5849,
      "Ġradiation": 5850,
      "Ġvariance": 5851,
      "Local": 5852,
      "dia": 5853,
      "Ġlargest": 5854,
      "since": 5855,
      "ulations": 5856,
      "Ġquo": 5857,
      "^*\\": 5858,
      "|-": 5859,
      "enum": 5860,
      ".\\\\": 5861,
      "spa": 5862,
      "Ġquite": 5863,
      "Ġdisper": 5864,
      "Ġaver": 5865,
      "Ġsequences": 5866,
      "ĠState": 5867,
      ")[": 5868,
      "ĠJohn": 5869,
      "Ġsaid": 5870,
      "initial": 5871,
      "Cal": 5872,
      "__(": 5873,
      "ĠHiggs": 5874,
      "webpack": 5875,
      "tun": 5876,
      "Layout": 5877,
      "El": 5878,
      "Ġcancel": 5879,
      "Ġtests": 5880,
      "Ġ**": 5881,
      "Ġcontinue": 5882,
      "diction": 5883,
      "dash": 5884,
      "radius": 5885,
      "Ġestimat": 5886,
      "Ġlabels": 5887,
      "Ġcare": 5888,
      "Option": 5889,
      "border": 5890,
      "Ġremoved": 5891,
      "phantom": 5892,
      "bet": 5893,
      "cut": 5894,
      "ĠĠĠĠĠĠĠĠĠĠĠĠĠĠĠĠĠĠĠĠĠĠĠĠĠĠĠĠĠĠĠĠĠĠĠ": 5895,
      "termin": 5896,
      "!\\": 5897,
      "Prop": 5898,
      "parallel": 5899,
      "Doc": 5900,
      "Mon": 5901,
      "Ġacceler": 5902,
      "eh": 5903,
      "Ġbir": 5904,
      "yond": 5905,
      "km": 5906,
      "Ġconc": 5907,
      "prote": 5908,
      "sources": 5909,
      "ropic": 5910,
      "Ġbundle": 5911,
      "Ġansw": 5912,
      "Ġgravity": 5913,
      "Ġactually": 5914,
      "resp": 5915,
      "Ġissue": 5916,
      "(-\\": 5917,
      "continu": 5918,
      "Ġcoinc": 5919,
      "Script": 5920,
      "Ġtrigger": 5921,
      "Ġaccre": 5922,
      "Ġwhereas": 5923,
      "handle": 5924,
      "rangian": 5925,
      "Ġfall": 5926,
      "ules": 5927,
      "nos": 5928,
      "Ġstochastic": 5929,
      "Address": 5930,
      "Ġtechnique": 5931,
      "ĠCreate": 5932,
      "exists": 5933,
      "component": 5934,
      "Ġoutside": 5935,
      "ids": 5936,
      "RR": 5937,
      "ialog": 5938,
      "Ġfluctuations": 5939,
      "proto": 5940,
      "Unit": 5941,
      "service": 5942,
      "}\\|": 5943,
      "Ġyet": 5944,
      "ano": 5945,
      "Ġmath": 5946,
      "atures": 5947,
      "Ġreport": 5948,
      "Ġbulk": 5949,
      "trict": 5950,
      "Ġandroid": 5951,
      "Ġachieved": 5952,
      "Ñģ": 5953,
      "Ġfo": 5954,
      "Ġsuff": 5955,
      "oung": 5956,
      "Ġjoint": 5957,
      "Names": 5958,
      ")--(": 5959,
      "have": 5960,
      "ogonal": 5961,
      "Ġrecur": 5962,
      "Ġtun": 5963,
      "Ġouter": 5964,
      "Open": 5965,
      "Ġ$\\{\\": 5966,
      "general": 5967,
      "Ġpropose": 5968,
      "Ġquantities": 5969,
      "copic": 5970,
      "ĠĠĠĠĠĠĠĠĠĠĠĠĠĠĠĠĠĠ": 5971,
      "Ġdynamic": 5972,
      "Graph": 5973,
      ")),": 5974,
      "ĠPr": 5975,
      "IST": 5976,
      "types": 5977,
      "UM": 5978,
      "Ġexpec": 5979,
      "entity": 5980,
      "token": 5981,
      "Ġstri": 5982,
      "Ġequivalence": 5983,
      "pecially": 5984,
      "Ġ\\,\\": 5985,
      "Ġusual": 5986,
      "Ġchannels": 5987,
      "Ġgen": 5988,
      "boolean": 5989,
      "ART": 5990,
      "corollary": 5991,
      "Entry": 5992,
      "bool": 5993,
      "ague": 5994,
      "har": 5995,
      "actic": 5996,
      "Ġcorrections": 5997,
      "resource": 5998,
      "Ġhome": 5999,
      "Ġsatisfied": 6000,
      "~(\\": 6001,
      "Ġfloat": 6002,
      "Dir": 6003,
      "spin": 6004,
      "'))": 6005,
      "ĠAu": 6006,
      "Ġnormalized": 6007,
      "vision": 6008,
      "ĠGal": 6009,
      "Ġnamespace": 6010,
      "ryst": 6011,
      "Ġday": 6012,
      "\"`": 6013,
      "Ġcombined": 6014,
      "dent": 6015,
      "ĠGu": 6016,
      "Ġonto": 6017,
      "Ġprobab": 6018,
      "ky": 6019,
      "Ġpos": 6020,
      "Ġgovern": 6021,
      "ham": 6022,
      "sheet": 6023,
      "Ġdegrees": 6024,
      "Given": 6025,
      "jecture": 6026,
      "board": 6027,
      "Ð¾Ð": 6028,
      "gather": 6029,
      "dest": 6030,
      "domain": 6031,
      ")^\\": 6032,
      "ming": 6033,
      "ĠST": 6034,
      "ado": 6035,
      "pk": 6036,
      "Ġtransport": 6037,
      "Ġmember": 6038,
      "ini": 6039,
      "Ġmask": 6040,
      "inted": 6041,
      "there": 6042,
      "Ġaim": 6043,
      "Ġapproximately": 6044,
      "ND": 6045,
      "Ġspecies": 6046,
      ")).": 6047,
      "Selector": 6048,
      ".$$": 6049,
      "negative": 6050,
      "Ġchem": 6051,
      "called": 6052,
      "pair": 6053,
      "cheduler": 6054,
      "Dev": 6055,
      "Ġsqu": 6056,
      "Ġprecisely": 6057,
      "ĠPol": 6058,
      "white": 6059,
      "ĠFile": 6060,
      "atible": 6061,
      "$-$": 6062,
      "Bound": 6063,
      "ggest": 6064,
      "sma": 6065,
      "Ġindices": 6066,
      "scroll": 6067,
      "Ġmu": 6068,
      "Process": 6069,
      "Ġetc": 6070,
      "Ġperturbation": 6071,
      "Ġkind": 6072,
      "Ġmaxim": 6073,
      "Ġ<=": 6074,
      "Ġvariety": 6075,
      "Ġalbum": 6076,
      "ki": 6077,
      "settings": 6078,
      "Ġtypically": 6079,
      "Moreover": 6080,
      "Ġcomputing": 6081,
      "atrix": 6082,
      "Ġrecently": 6083,
      "Ġhydro": 6084,
      "Ġ++": 6085,
      "ĠPa": 6086,
      "Di": 6087,
      "undefined": 6088,
      "Settings": 6089,
      "Ġgeneric": 6090,
      "Ġhalo": 6091,
      "Ġjet": 6092,
      "ĠWorld": 6093,
      "Ġwater": 6094,
      "Nav": 6095,
      "Ġdevelopment": 6096,
      "GN": 6097,
      "valu": 6098,
      "128": 6099,
      "iting": 6100,
      "Ġcourse": 6101,
      "BU": 6102,
      "STATE": 6103,
      "lator": 6104,
      "bing": 6105,
      "urs": 6106,
      "ght": 6107,
      "river": 6108,
      "reducible": 6109,
      "elihood": 6110,
      "Ġhidden": 6111,
      "ĠWar": 6112,
      "Ġaway": 6113,
      "Ġdetector": 6114,
      "$.}": 6115,
      "Ġchildren": 6116,
      "ford": 6117,
      "```": 6118,
      "ensive": 6119,
      "Access": 6120,
      "2022": 6121,
      "ĠTrans": 6122,
      "Ġsoftware": 6123,
      "Ġhighly": 6124,
      "aging": 6125,
      "Ġactions": 6126,
      "Handle": 6127,
      "Iter": 6128,
      "()->": 6129,
      "!]": 6130,
      "cial": 6131,
      "Ġefficient": 6132,
      "legate": 6133,
      "condition": 6134,
      "^*(": 6135,
      "tach": 6136,
      "ko": 6137,
      "Ġcoher": 6138,
      "ulate": 6139,
      "sts": 6140,
      "Kind": 6141,
      "ĠAssert": 6142,
      "ocial": 6143,
      "Ke": 6144,
      "PECT": 6145,
      "ca": 6146,
      "ĠCont": 6147,
      "Ġgravitational": 6148,
      "faults": 6149,
      "Ġdra": 6150,
      "<?": 6151,
      "ilbert": 6152,
      "}{*": 6153,
      "Ġbecame": 6154,
      "Ġforward": 6155,
      "shot": 6156,
      "VAL": 6157,
      "sively": 6158,
      "ience": 6159,
      "ales": 6160,
      "Ġreve": 6161,
      "1996": 6162,
      "\\!\\": 6163,
      "400": 6164,
      "Ġextract": 6165,
      "rane": 6166,
      "1997": 6167,
      "textcolor": 6168,
      "hfill": 6169,
      "Ġexpressions": 6170,
      "tish": 6171,
      "aking": 6172,
      "backslash": 6173,
      "Ġindeed": 6174,
      "etal": 6175,
      "jav": 6176,
      "Ġfootball": 6177,
      "trins": 6178,
      "Work": 6179,
      "Ġnamed": 6180,
      "REF": 6181,
      "Ġyield": 6182,
      "Ġverify": 6183,
      "Ġdistingu": 6184,
      "keys": 6185,
      "DR": 6186,
      "fl": 6187,
      "`,": 6188,
      "ĠMore": 6189,
      "cline": 6190,
      "reedom": 6191,
      "Configuration": 6192,
      "Ġdot": 6193,
      "ĠSu": 6194,
      "focus": 6195,
      "Ġblocks": 6196,
      "ancy": 6197,
      "Ġentries": 6198,
      "Ġintersection": 6199,
      "enchmark": 6200,
      "when": 6201,
      "&-": 6202,
      "prob": 6203,
      "Ġextreme": 6204,
      "<!--": 6205,
      "Ġpay": 6206,
      "itory": 6207,
      "Ġinstanceof": 6208,
      "Ġreprodu": 6209,
      "trigger": 6210,
      "tral": 6211,
      "Control": 6212,
      "imary": 6213,
      "ĠJan": 6214,
      "Ġshowed": 6215,
      "downarrow": 6216,
      "Ġstore": 6217,
      "belian": 6218,
      "poch": 6219,
      "uly": 6220,
      "arith": 6221,
      "oling": 6222,
      "Ġ*)": 6223,
      "ĠYou": 6224,
      "particle": 6225,
      "Ġscore": 6226,
      "Ġnever": 6227,
      "Ġintensity": 6228,
      "Ġarchitecture": 6229,
      "isot": 6230,
      "Ġbeyond": 6231,
      "Ġhandler": 6232,
      "lates": 6233,
      "Ġdense": 6234,
      "Tran": 6235,
      "Ġpositions": 6236,
      "Utils": 6237,
      ")(\\": 6238,
      "ĠBri": 6239,
      "Ġ_{\\": 6240,
      "Ġexci": 6241,
      "Ġassuming": 6242,
      "equal": 6243,
      "================================": 6244,
      "thick": 6245,
      "Ġdelete": 6246,
      "aco": 6247,
      "NAME": 6248,
      "chain": 6249,
      "mathit": 6250,
      "monic": 6251,
      "Ġobjective": 6252,
      "Ġrect": 6253,
      "Body": 6254,
      "ffff": 6255,
      "stackrel": 6256,
      "Ġmar": 6257,
      "$^{": 6258,
      "DS": 6259,
      "ierarch": 6260,
      "(*": 6261,
      "FO": 6262,
      "256": 6263,
      "Ġiteration": 6264,
      "NE": 6265,
      "emark": 6266,
      "Ġdelay": 6267,
      "Ġupon": 6268,
      "Ġ['": 6269,
      "rays": 6270,
      "sd": 6271,
      "gex": 6272,
      "greg": 6273,
      "oks": 6274,
      "Ġnovel": 6275,
      "force": 6276,
      "'_{": 6277,
      "apter": 6278,
      "-(": 6279,
      "ĠSuppose": 6280,
      "optim": 6281,
      "entifier": 6282,
      "Ġtesting": 6283,
      "phase": 6284,
      "invariant": 6285,
      "Boolean": 6286,
      "Ġcat": 6287,
      "isson": 6288,
      "Copy": 6289,
      "iler": 6290,
      "INE": 6291,
      "ues": 6292,
      "Helper": 6293,
      "Ġmeaning": 6294,
      "Ġmachine": 6295,
      "ĠEd": 6296,
      "tan": 6297,
      "ĠFunction": 6298,
      "well": 6299,
      "|$": 6300,
      "Ġpolarization": 6301,
      "Ġcorrection": 6302,
      "nother": 6303,
      "Ġsm": 6304,
      "ils": 6305,
      ")}.": 6306,
      "Ġunknown": 6307,
      ".__": 6308,
      "Ġvacuum": 6309,
      "Ġmodules": 6310,
      "Last": 6311,
      "Ġattack": 6312,
      "lapse": 6313,
      "$^": 6314,
      "Ġani": 6315,
      "Ġtheories": 6316,
      "widget": 6317,
      "zing": 6318,
      "Invalid": 6319,
      "category": 6320,
      ")}(\\": 6321,
      "ultane": 6322,
      "ĠĠčĊ": 6323,
      "Ġsuitable": 6324,
      "hel": 6325,
      "ĠTe": 6326,
      "Ġdeal": 6327,
      "Ã¡": 6328,
      "Ġinvestigate": 6329,
      "AND": 6330,
      "boldmath": 6331,
      "shape": 6332,
      "inv": 6333,
      "Ġstatistics": 6334,
      "special": 6335,
      "ography": 6336,
      "hover": 6337,
      "ient": 6338,
      "Ġonline": 6339,
      "Ġimplemented": 6340,
      "tient": 6341,
      "\\|_": 6342,
      "Ġrel": 6343,
      "Ġparame": 6344,
      "_{+": 6345,
      "Ġelectro": 6346,
      "toString": 6347,
      "Ġcompar": 6348,
      "beled": 6349,
      "internal": 6350,
      "ĠOther": 6351,
      "Ġexam": 6352,
      "Ġsuggest": 6353,
      "channel": 6354,
      "textup": 6355,
      "Ġcontact": 6356,
      "Ġdig": 6357,
      "Ġreplaced": 6358,
      "&&\\": 6359,
      "lub": 6360,
      "Mark": 6361,
      "Ġespecially": 6362,
      "ĠSw": 6363,
      "tivation": 6364,
      "navbar": 6365,
      "$\\,": 6366,
      "urope": 6367,
      "BS": 6368,
      "delete": 6369,
      "ĠShe": 6370,
      "&=&\\": 6371,
      "ĠGiven": 6372,
      "}$\\": 6373,
      "PH": 6374,
      "Ġrelax": 6375,
      "Extension": 6376,
      "_,": 6377,
      "bal": 6378,
      "Ġcurrently": 6379,
      "Ġquadratic": 6380,
      "Parameters": 6381,
      "modules": 6382,
      "Ġuniformly": 6383,
      "Ġhypothesis": 6384,
      "Ġcloud": 6385,
      "Ġheavy": 6386,
      "ferred": 6387,
      "differ": 6388,
      "|^{": 6389,
      "uparrow": 6390,
      "iss": 6391,
      "common": 6392,
      "extend": 6393,
      "Ġxml": 6394,
      "Ġsus": 6395,
      "ives": 6396,
      "ĠSc": 6397,
      "{(\\": 6398,
      "plane": 6399,
      "Long": 6400,
      "Ġhighest": 6401,
      "Ġdel": 6402,
      "Ġ})": 6403,
      "Ġwon": 6404,
      "GeV": 6405,
      "iem": 6406,
      "Ġevidence": 6407,
      "Ġimmediately": 6408,
      "kin": 6409,
      "Ġequality": 6410,
      "Current": 6411,
      "Ġearlier": 6412,
      "RI": 6413,
      "Ġarri": 6414,
      "Ġruns": 6415,
      "Ġconfigurations": 6416,
      "Ap": 6417,
      "disabled": 6418,
      "Ġelectric": 6419,
      "Ġ$^{": 6420,
      "120": 6421,
      "CF": 6422,
      "Ġoffer": 6423,
      "ination": 6424,
      "Ġobvious": 6425,
      "Definition": 6426,
      "Ġseman": 6427,
      "Ġneutrino": 6428,
      "urch": 6429,
      "Ġinstances": 6430,
      "mas": 6431,
      "ggle": 6432,
      "Ġcompe": 6433,
      "Que": 6434,
      "language": 6435,
      "(){": 6436,
      ">,": 6437,
      "ĠLa": 6438,
      "PA": 6439,
      "stral": 6440,
      "Scope": 6441,
      "Ġmetrics": 6442,
      "click": 6443,
      "ermi": 6444,
      "Newton": 6445,
      "entic": 6446,
      "Ġuncertainties": 6447,
      "aut": 6448,
      "}/\\": 6449,
      "Ġattr": 6450,
      "Ġcells": 6451,
      "atory": 6452,
      "Ġplayer": 6453,
      "Ġvio": 6454,
      "ĠExample": 6455,
      "Ġato": 6456,
      "etch": 6457,
      "Ġgeometric": 6458,
      "ellow": 6459,
      "MO": 6460,
      "Ġlistener": 6461,
      "Ġquantity": 6462,
      "Ġmixed": 6463,
      "wt": 6464,
      "varrho": 6465,
      "Args": 6466,
      "Ġmixing": 6467,
      "ĠFourier": 6468,
      "brid": 6469,
      "Ġ}}": 6470,
      "Ġanom": 6471,
      "Ġphases": 6472,
      "margin": 6473,
      "ĠBar": 6474,
      "ĠCounty": 6475,
      "fields": 6476,
      "ONT": 6477,
      "Ġbehaviour": 6478,
      "propto": 6479,
      "ORT": 6480,
      "Ġformed": 6481,
      "Ġprecision": 6482,
      "igation": 6483,
      "ĠExp": 6484,
      "Ġdegener": 6485,
      "amera": 6486,
      "Ġcomes": 6487,
      "labor": 6488,
      "pdown": 6489,
      "Ġconcept": 6490,
      "Serial": 6491,
      "Ġvers": 6492,
      "pl": 6493,
      "corpor": 6494,
      "ceil": 6495,
      "%;": 6496,
      "QL": 6497,
      "ather": 6498,
      "ZE": 6499,
      "ifies": 6500,
      "functions": 6501,
      "Exec": 6502,
      "*}[": 6503,
      "Ġreflect": 6504,
      "ascript": 6505,
      "atom": 6506,
      "clip": 6507,
      "Ġ('": 6508,
      "Example": 6509,
      "total": 6510,
      "mise": 6511,
      "Ptr": 6512,
      "DA": 6513,
      "project": 6514,
      "Ġdensities": 6515,
      "binom": 6516,
      "Ġrelationship": 6517,
      "tifact": 6518,
      "Ġbytes": 6519,
      "eries": 6520,
      "Ġwavelength": 6521,
      "Pri": 6522,
      "leftarrow": 6523,
      "square": 6524,
      "iding": 6525,
      "Store": 6526,
      "Ġsizes": 6527,
      "double": 6528,
      "Ġattributes": 6529,
      "ws": 6530,
      "Ġadop": 6531,
      "Ġfollowed": 6532,
      "$\\\\": 6533,
      "itter": 6534,
      "(!": 6535,
      "Ġrapid": 6536,
      "conv": 6537,
      "Ġstrings": 6538,
      "uit": 6539,
      "\"))": 6540,
      "Thread": 6541,
      "obs": 6542,
      "HS": 6543,
      "iii": 6544,
      "Vari": 6545,
      "}.}": 6546,
      "Bytes": 6547,
      "Ġengine": 6548,
      "sy": 6549,
      "Host": 6550,
      "Ġcomposition": 6551,
      "Cor": 6552,
      "Ġtrac": 6553,
      "Ġconnec": 6554,
      "Ġevaluated": 6555,
      "Ġheat": 6556,
      "enn": 6557,
      "Ġdeath": 6558,
      "Ġvisible": 6559,
      "Ġsure": 6560,
      "ĠEnd": 6561,
      "Ġexchange": 6562,
      "unct": 6563,
      "Http": 6564,
      "Pe": 6565,
      "]^": 6566,
      "interface": 6567,
      "Ab": 6568,
      "ffic": 6569,
      "iness": 6570,
      "Values": 6571,
      "Ġindepend": 6572,
      "ĠWeb": 6573,
      "Order": 6574,
      "Ġ\\[": 6575,
      "Ġalgebraic": 6576,
      "Ġalternative": 6577,
      "Ġcontinuum": 6578,
      "Ġbright": 6579,
      "ira": 6580,
      "ĠEXPECT": 6581,
      "MP": 6582,
      "Var": 6583,
      "Ġprofiles": 6584,
      "Ġrecover": 6585,
      "Ġtransitions": 6586,
      "multline": 6587,
      "Ġdatabase": 6588,
      "Ġabsorption": 6589,
      "lower": 6590,
      "None": 6591,
      "Down": 6592,
      "Ġpseudo": 6593,
      "hs": 6594,
      "gmentation": 6595,
      "ulus": 6596,
      "Non": 6597,
      "Ġothers": 6598,
      "Ġsuppose": 6599,
      "ĠYork": 6600,
      "ada": 6601,
      "Ġshowing": 6602,
      "Ġidentical": 6603,
      "ĠDate": 6604,
      "anning": 6605,
      "ĠThat": 6606,
      "ĠJSON": 6607,
      "Ġslo": 6608,
      "ĠOR": 6609,
      "Ġreleased": 6610,
      "Ġfunc": 6611,
      "ĠExt": 6612,
      "bil": 6613,
      "1995": 6614,
      "$'": 6615,
      "Ġelectrons": 6616,
      "GET": 6617,
      "ĠSuch": 6618,
      "Pol": 6619,
      "RT": 6620,
      "Ġprint": 6621,
      "Ġleg": 6622,
      "Ġrough": 6623,
      "Ġchalleng": 6624,
      "Ġmatches": 6625,
      "Ġcolumns": 6626,
      "ME": 6627,
      "holder": 6628,
      "Ġng": 6629,
      "Ġcoupled": 6630,
      "now": 6631,
      "nel": 6632,
      "Ġcome": 6633,
      "Ġtopology": 6634,
      "ĠGerman": 6635,
      "Ġprocessing": 6636,
      "123": 6637,
      "Ġfluid": 6638,
      "oom": 6639,
      "strap": 6640,
      "inger": 6641,
      "msg": 6642,
      "Parent": 6643,
      "sport": 6644,
      "Ġtransverse": 6645,
      "ille": 6646,
      "Ġexclu": 6647,
      "Ġbuilding": 6648,
      "ĠAug": 6649,
      "layout": 6650,
      "avi": 6651,
      "Ġfreedom": 6652,
      "tivistic": 6653,
      "footnotesize": 6654,
      "arr": 6655,
      "wave": 6656,
      "HC": 6657,
      "Ġhomogeneous": 6658,
      "DP": 6659,
      "Ġperiodic": 6660,
      "Ġ),": 6661,
      "Ġdeviation": 6662,
      "ĠHigh": 6663,
      "ĉĠĠĠĠ": 6664,
      "short": 6665,
      "ember": 6666,
      "irr": 6667,
      "ĠCorollary": 6668,
      "rich": 6669,
      "ĠSouth": 6670,
      "}^{+": 6671,
      "Ġirreducible": 6672,
      "Ġdedu": 6673,
      "Ġpermu": 6674,
      "isk": 6675,
      "regular": 6676,
      "instein": 6677,
      ")>": 6678,
      "ided": 6679,
      "Ġvs": 6680,
      "trinsic": 6681,
      "depth": 6682,
      "Ġmissing": 6683,
      "=\\{": 6684,
      "Before": 6685,
      "Ġchanged": 6686,
      "Location": 6687,
      "imits": 6688,
      "ucial": 6689,
      "Operation": 6690,
      "Ġanalytic": 6691,
      "Ġprop": 6692,
      "vide": 6693,
      "events": 6694,
      "detail": 6695,
      "measure": 6696,
      "Ġdro": 6697,
      "Ġpatterns": 6698,
      "luster": 6699,
      "some": 6700,
      "ttps": 6701,
      "Ġcandidate": 6702,
      "Ġintermediate": 6703,
      "elec": 6704,
      "Ġfinally": 6705,
      "thern": 6706,
      "tip": 6707,
      "Ġconvolution": 6708,
      "textsf": 6709,
      "ATION": 6710,
      "eline": 6711,
      "Storage": 6712,
      "utils": 6713,
      "Ġgenerating": 6714,
      "theless": 6715,
      "}{{\\": 6716,
      "ĠName": 6717,
      "Ġfiber": 6718,
      "Own": 6719,
      "Core": 6720,
      "green": 6721,
      "repres": 6722,
      "ĠFran": 6723,
      "pole": 6724,
      "Ġkm": 6725,
      "Ġnum": 6726,
      "Ġsignals": 6727,
      "ĠSU": 6728,
      "Ġatoms": 6729,
      "indexOf": 6730,
      "Ġsem": 6731,
      "Ġperfect": 6732,
      "bc": 6733,
      "scriptscript": 6734,
      "STR": 6735,
      "Ġformulation": 6736,
      "limit": 6737,
      "MT": 6738,
      "important": 6739,
      "reated": 6740,
      "Ġseems": 6741,
      "While": 6742,
      "Te": 6743,
      "ingle": 6744,
      "Reference": 6745,
      "Ġcommunication": 6746,
      "scriptscriptstyle": 6747,
      "})^{": 6748,
      "Ġemer": 6749,
      "_;": 6750,
      "pla": 6751,
      "SV": 6752,
      "cto": 6753,
      "Ġep": 6754,
      "Ġadding": 6755,
      "Ġcomb": 6756,
      "Ġproportional": 6757,
      "FC": 6758,
      "ĠDE": 6759,
      "Ġisot": 6760,
      "\"));": 6761,
      "ACK": 6762,
      "Sum": 6763,
      "ĠAc": 6764,
      "Font": 6765,
      "vor": 6766,
      "stop": 6767,
      "Ġtypename": 6768,
      "Schema": 6769,
      "EXT": 6770,
      "Ġgl": 6771,
      "Ġbits": 6772,
      "agement": 6773,
      "150": 6774,
      "Ġpublished": 6775,
      "Ġinfluence": 6776,
      "media": 6777,
      "Ġdependent": 6778,
      "sep": 6779,
      "Ġretri": 6780,
      "Ġpolynomials": 6781,
      "Ġ\"\\": 6782,
      "Ġorthogonal": 6783,
      "posed": 6784,
      "Template": 6785,
      "'],": 6786,
      "mits": 6787,
      "Ġtransmission": 6788,
      "Ġ(*": 6789,
      "Ġdt": 6790,
      "Ġpurpose": 6791,
      "ALL": 6792,
      "Ġ---": 6793,
      "Ġsong": 6794,
      "ĠLagrangian": 6795,
      "success": 6796,
      "sube": 6797,
      ",...,": 6798,
      "Ġbrief": 6799,
      "Ġ..": 6800,
      "simple": 6801,
      "Ġnav": 6802,
      "tios": 6803,
      "Ġ~\\": 6804,
      "Ġhttps": 6805,
      "ĠAlthough": 6806,
      "smallskip": 6807,
      "Ġcli": 6808,
      "tamp": 6809,
      "hu": 6810,
      "Ġgenerator": 6811,
      "ott": 6812,
      "selected": 6813,
      "tember": 6814,
      "Ġheader": 6815,
      "Ġfrequencies": 6816,
      "Ġreduces": 6817,
      "gre": 6818,
      "ract": 6819,
      "Ġinit": 6820,
      "Ġselector": 6821,
      "aff": 6822,
      "Ġtemperatures": 6823,
      "Red": 6824,
      "Ġdrop": 6825,
      "Ġpractice": 6826,
      "ERROR": 6827,
      "ayes": 6828,
      "Async": 6829,
      "XX": 6830,
      "crete": 6831,
      "ĠTime": 6832,
      "rd": 6833,
      "Ġwall": 6834,
      "Ġdesigned": 6835,
      "\\},": 6836,
      "Ġderivatives": 6837,
      "Bigg": 6838,
      "ĠjQuery": 6839,
      "Ġdiffusion": 6840,
      "extension": 6841,
      ")_{\\": 6842,
      "series": 6843,
      "midrule": 6844,
      "track": 6845,
      "stan": 6846,
      "Ġaffect": 6847,
      "transition": 6848,
      "ibility": 6849,
      "umes": 6850,
      "calc": 6851,
      "zon": 6852,
      "COM": 6853,
      "SF": 6854,
      "iemann": 6855,
      "oundation": 6856,
      "density": 6857,
      "Ġwaves": 6858,
      "Ġnet": 6859,
      "ĠSome": 6860,
      "Reader": 6861,
      "Ġinher": 6862,
      "Ġreader": 6863,
      "Ġaccretion": 6864,
      "Ġentang": 6865,
      "Ġexpectation": 6866,
      "rier": 6867,
      "Ġtranslation": 6868,
      "Ġstraightforward": 6869,
      "Ġthread": 6870,
      "MF": 6871,
      "Pod": 6872,
      "Pack": 6873,
      "sort": 6874,
      "Ġasymme": 6875,
      "Ġsimultane": 6876,
      "Ġnuclear": 6877,
      "Ġregar": 6878,
      "bre": 6879,
      "ĠConsider": 6880,
      "Ġglu": 6881,
      "Ġrows": 6882,
      "Es": 6883,
      "Ġdiagrams": 6884,
      "eptember": 6885,
      "Ġdays": 6886,
      "arities": 6887,
      "Go": 6888,
      "Symbol": 6889,
      "Ġreconstruction": 6890,
      "textnormal": 6891,
      "Load": 6892,
      "Stack": 6893,
      "collection": 6894,
      "Ġbutton": 6895,
      "coding": 6896,
      "Ġplayed": 6897,
      "Ġfitting": 6898,
      "Ġencoding": 6899,
      "Ġland": 6900,
      "Ġuniversal": 6901,
      "Ġpromise": 6902,
      "\\}.": 6903,
      "conver": 6904,
      "Ġcorrelations": 6905,
      "tright": 6906,
      ")}$.": 6907,
      "Ġparticip": 6908,
      "Ġdefines": 6909,
      "Ġprefer": 6910,
      "Ġexpand": 6911,
      "mal": 6912,
      "{.": 6913,
      "Ġdecreases": 6914,
      "symmetric": 6915,
      "ampion": 6916,
      "kl": 6917,
      "cluster": 6918,
      "ĠEurope": 6919,
      "Ġdirections": 6920,
      "{|": 6921,
      "Sign": 6922,
      "Ġinfo": 6923,
      "stitute": 6924,
      "hol": 6925,
      "mix": 6926,
      "icons": 6927,
      "pite": 6928,
      "product": 6929,
      "irical": 6930,
      "Connection": 6931,
      "Attr": 6932,
      "Search": 6933,
      "BL": 6934,
      "Ġproceed": 6935,
      "Promise": 6936,
      "slice": 6937,
      "resize": 6938,
      "BA": 6939,
      "Ġorbital": 6940,
      "observ": 6941,
      "single": 6942,
      "():": 6943,
      "even": 6944,
      "unch": 6945,
      "SET": 6946,
      "Ġdispersion": 6947,
      "Ġhorizontal": 6948,
      "Ġexplained": 6949,
      "Ġoverride": 6950,
      "ĉĠĠĠĠĠĠĠĠ": 6951,
      "manif": 6952,
      "unter": 6953,
      "Ġbr": 6954,
      "ĠUS": 6955,
      "Ġconnect": 6956,
      "Ġcosmological": 6957,
      "Ġsolving": 6958,
      "ĠException": 6959,
      "Ġsector": 6960,
      "Ġnotion": 6961,
      "Ġbus": 6962,
      "Ġcouplings": 6963,
      "nol": 6964,
      "Ġgreen": 6965,
      "Ġbrowser": 6966,
      "Ġsubspace": 6967,
      "Ġproducts": 6968,
      "insert": 6969,
      "ĠOF": 6970,
      "Ġbene": 6971,
      "Ġstress": 6972,
      "Ġther": 6973,
      "ĠAlgorithm": 6974,
      "Ġsco": 6975,
      "}&\\": 6976,
      "Argument": 6977,
      "network": 6978,
      "Ġbyte": 6979,
      "Ġexpress": 6980,
      "exception": 6981,
      "Ġ{$\\": 6982,
      "Ġdefinitions": 6983,
      "ĠURL": 6984,
      "ĠNode": 6985,
      "ached": 6986,
      "ĠHar": 6987,
      "stri": 6988,
      "Ġpen": 6989,
      "ĠSV": 6990,
      "uid": 6991,
      "Ġduration": 6992,
      "ĠChar": 6993,
      "Menu": 6994,
      "tible": 6995,
      "Ġfinding": 6996,
      "Ġhierarch": 6997,
      "onic": 6998,
      "zy": 6999,
      "xture": 7000,
      "Ġmorphism": 7001,
      "bd": 7002,
      "Ġchemical": 7003,
      "Ġobserver": 7004,
      "ĠGR": 7005,
      "ĠSchool": 7006,
      "Ġmetall": 7007,
      "register": 7008,
      "ĉĠĠĠĠĠĠĠĠĠĠĠĠĠĠĠ": 7009,
      "Ġball": 7010,
      "comment": 7011,
      "Ġincreased": 7012,
      "Ġthank": 7013,
      "Ġprime": 7014,
      "mathtt": 7015,
      "Ġdescribes": 7016,
      "atively": 7017,
      "Bin": 7018,
      "correspon": 7019,
      "Description": 7020,
      "thon": 7021,
      "Ġunderstanding": 7022,
      "ners": 7023,
      "thetic": 7024,
      "Queue": 7025,
      "finity": 7026,
      "chemes": 7027,
      "Ġpackage": 7028,
      "Fn": 7029,
      "NG": 7030,
      "straint": 7031,
      "env": 7032,
      "Ġsuggests": 7033,
      "panel": 7034,
      "Ġ\\{\\": 7035,
      "Ġactivity": 7036,
      "writ": 7037,
      "Ġrise": 7038,
      "mf": 7039,
      "oman": 7040,
      "Ġmathe": 7041,
      "Only": 7042,
      "Ġfine": 7043,
      "ĠRed": 7044,
      "1994": 7045,
      "asons": 7046,
      "Ho": 7047,
      "Ġcodes": 7048,
      "finished": 7049,
      "ifier": 7050,
      "Ġ[],": 7051,
      "Ġvalidation": 7052,
      "Ġpor": 7053,
      "wrap": 7054,
      "Ġ\\|\\": 7055,
      "ĠMethod": 7056,
      "PRE": 7057,
      "ĠPri": 7058,
      "istance": 7059,
      "Ġcharacters": 7060,
      "gradient": 7061,
      "Ġnoted": 7062,
      "Ġnotice": 7063,
      "Track": 7064,
      "Func": 7065,
      "Ġcryst": 7066,
      "Events": 7067,
      "Ġsurvey": 7068,
      "ctober": 7069,
      "bon": 7070,
      "Ġhorizon": 7071,
      "wait": 7072,
      "ĠDM": 7073,
      "trightarrow": 7074,
      "ĠTra": 7075,
      "Ġshared": 7076,
      "Ġgames": 7077,
      "Ġbeh": 7078,
      "ynamics": 7079,
      "[$": 7080,
      "ĠEqs": 7081,
      "rg": 7082,
      "kern": 7083,
      "Ġweighted": 7084,
      "Ġsegment": 7085,
      "aren": 7086,
      "Ġ\\}": 7087,
      "Ġscenarios": 7088,
      "]]": 7089,
      "Ġpoli": 7090,
      "Ġreferences": 7091,
      "ĠLog": 7092,
      "Ġunion": 7093,
      "Ġdemonstrate": 7094,
      "oting": 7095,
      "Ġinteract": 7096,
      "ĠEvent": 7097,
      "BE": 7098,
      "Ġmedium": 7099,
      "001": 7100,
      "Hom": 7101,
      "random": 7102,
      "Ġsolar": 7103,
      "eval": 7104,
      "Ġrational": 7105,
      "card": 7106,
      "ĠMod": 7107,
      "Root": 7108,
      "$}}": 7109,
      "Ġexports": 7110,
      "ĠMarch": 7111,
      "pository": 7112,
      "Ġfermion": 7113,
      "ODO": 7114,
      "Ġpiec": 7115,
      "pril": 7116,
      "imer": 7117,
      "Ġarc": 7118,
      "citealt": 7119,
      "}>": 7120,
      "Ġpossibility": 7121,
      "Fa": 7122,
      "\\/": 7123,
      "Ġseparation": 7124,
      "Pa": 7125,
      "_{-\\": 7126,
      "Ġrestriction": 7127,
      "Ġinvolved": 7128,
      "Ġlowest": 7129,
      "year": 7130,
      "Ġflag": 7131,
      "quations": 7132,
      "arguments": 7133,
      "Ġbands": 7134,
      "BB": 7135,
      "\\,{\\": 7136,
      "Sw": 7137,
      "Ġcapacity": 7138,
      "Ġupdated": 7139,
      ")}$,": 7140,
      "Ġmi": 7141,
      "Ġensemble": 7142,
      "Ġoccup": 7143,
      "Mapp": 7144,
      "}^+": 7145,
      "properties": 7146,
      "Ġfamil": 7147,
      "Ġcategories": 7148,
      "counter": 7149,
      "Ġsimulated": 7150,
      "ately": 7151,
      "Ġresources": 7152,
      "Auto": 7153,
      "}[!": 7154,
      "ãĥ": 7155,
      "Ġpast": 7156,
      "Ġimplement": 7157,
      "Ġanswer": 7158,
      "Ġpredict": 7159,
      "bilities": 7160,
      "Proposition": 7161,
      "rome": 7162,
      "urally": 7163,
      "Ġmedia": 7164,
      "Ġinputs": 7165,
      "Ġmiddle": 7166,
      "Ġhtml": 7167,
      "Ġreli": 7168,
      "Ġfailed": 7169,
      "DC": 7170,
      "Ani": 7171,
      "Ġworking": 7172,
      "Ġmeas": 7173,
      "sch": 7174,
      "Ġphotons": 7175,
      "rence": 7176,
      "defn": 7177,
      "ticles": 7178,
      "ĠIS": 7179,
      "Ġstrictly": 7180,
      "JSON": 7181,
      "ji": 7182,
      "Policy": 7183,
      "ĠJanuary": 7184,
      ";\\;": 7185,
      "illion": 7186,
      "ĠPy": 7187,
      "ctic": 7188,
      "coder": 7189,
      "subequations": 7190,
      "vect": 7191,
      "Rect": 7192,
      "Ã³": 7193,
      "Ġimproved": 7194,
      "ridge": 7195,
      "Ġepoch": 7196,
      "Ġlisted": 7197,
      "Ġeigenvalue": 7198,
      "Ġvariations": 7199,
      "Ġadjac": 7200,
      "cross": 7201,
      "TEST": 7202,
      "1992": 7203,
      "Ġsend": 7204,
      "Ġctx": 7205,
      "})=\\": 7206,
      "^+$": 7207,
      "Ġparticularly": 7208,
      "Ġdistances": 7209,
      "lating": 7210,
      "Ġtemporal": 7211,
      "apan": 7212,
      "Ġbaseline": 7213,
      "Ġmolecular": 7214,
      "aps": 7215,
      "\\[\\": 7216,
      "ĠHilbert": 7217,
      "\\}_{": 7218,
      "Ġratios": 7219,
      "Ġoffic": 7220,
      "Ġpointer": 7221,
      "fined": 7222,
      "Ġagents": 7223,
      "Vector": 7224,
      "mean": 7225,
      "factor": 7226,
      "'.": 7227,
      "zer": 7228,
      "AGE": 7229,
      "Ġclean": 7230,
      "Ġlittle": 7231,
      "ĠSeptember": 7232,
      "bigcup": 7233,
      "Ġacqu": 7234,
      "Session": 7235,
      "region": 7236,
      "Ġlies": 7237,
      "cape": 7238,
      "nm": 7239,
      "ĠSO": 7240,
      "anges": 7241,
      "Ġadvantage": 7242,
      "1990": 7243,
      "ĠAustral": 7244,
      "Ġmainly": 7245,
      "ffor": 7246,
      "ius": 7247,
      "Ġconstit": 7248,
      "IGN": 7249,
      "Ġsensitivity": 7250,
      "ĠAugust": 7251,
      "ĠMax": 7252,
      "Ġspecify": 7253,
      "ĠUV": 7254,
      "Ġdecrease": 7255,
      "iers": 7256,
      "ĠEquation": 7257,
      "matical": 7258,
      "exist": 7259,
      "Ġmoving": 7260,
      "Ġnecessarily": 7261,
      "Ġvor": 7262,
      "Ġpopular": 7263,
      "URE": 7264,
      "Ax": 7265,
      "javascript": 7266,
      "Ġareas": 7267,
      "Ġunsigned": 7268,
      "what": 7269,
      "alities": 7270,
      "ĠHTML": 7271,
      "Ġmodeling": 7272,
      "cb": 7273,
      "ĠLO": 7274,
      "lers": 7275,
      "Ġadvers": 7276,
      "Ġchiral": 7277,
      "Record": 7278,
      "Ġincorpor": 7279,
      "ĠResearch": 7280,
      "Ġsocial": 7281,
      "ĉĉĉĊ": 7282,
      "hang": 7283,
      "CTION": 7284,
      "Ġlate": 7285,
      "BP": 7286,
      "ifted": 7287,
      "RA": 7288,
      "ĠInt": 7289,
      "racket": 7290,
      "Nodes": 7291,
      "uclide": 7292,
      "180": 7293,
      "arge": 7294,
      "ĠNorth": 7295,
      "COL": 7296,
      "ĠJune": 7297,
      "Ġarm": 7298,
      "picker": 7299,
      "iring": 7300,
      "Port": 7301,
      "born": 7302,
      "Delete": 7303,
      "Ġtransformations": 7304,
      ")&": 7305,
      "Ġupd": 7306,
      "ured": 7307,
      "lege": 7308,
      "ãĤ": 7309,
      "Ġtreatment": 7310,
      "determin": 7311,
      "110": 7312,
      "files": 7313,
      "coordin": 7314,
      "Ġshock": 7315,
      "eder": 7316,
      "Ġstorage": 7317,
      "]=": 7318,
      "Ġpatch": 7319,
      "Writer": 7320,
      "Impl": 7321,
      "Ġatomic": 7322,
      "ULT": 7323,
      "uclidean": 7324,
      "->_": 7325,
      "sky": 7326,
      "sterior": 7327,
      "Ġthroughout": 7328,
      "SY": 7329,
      "Ġcondu": 7330,
      "quark": 7331,
      "Ġ(\"": 7332,
      "children": 7333,
      "Ġdirected": 7334,
      "ftrightarrow": 7335,
      "ined": 7336,
      "omorphisms": 7337,
      "FONT": 7338,
      "moment": 7339,
      "Ġcommunity": 7340,
      "Ġtang": 7341,
      "Head": 7342,
      ")))": 7343,
      "Ġorders": 7344,
      "ĠBase": 7345,
      "Ġneighborhood": 7346,
      "framework": 7347,
      "Ġregression": 7348,
      "generate": 7349,
      "Ġenter": 7350,
      "Mem": 7351,
      "ĠSN": 7352,
      "CODE": 7353,
      "ĠĠĠĠĠĠĠĠĠĠĠĠĠĠĠĠĠĠĠĠĠĠĠĠ": 7354,
      "tified": 7355,
      "Ġfunctor": 7356,
      "########": 7357,
      "Ġprecise": 7358,
      "ĠBOO": 7359,
      "Ġarticle": 7360,
      "trim": 7361,
      "Ġspan": 7362,
      "ady": 7363,
      "Ġestimator": 7364,
      "Select": 7365,
      "orter": 7366,
      "queue": 7367,
      "EV": 7368,
      "++;": 7369,
      "Ġacts": 7370,
      "period": 7371,
      "ĠJuly": 7372,
      "Ġwait": 7373,
      "vember": 7374,
      "Ġalgebras": 7375,
      "Ġopts": 7376,
      "Ġten": 7377,
      "Ġissues": 7378,
      "Ġrepresen": 7379,
      "Ġrepresenting": 7380,
      "Sim": 7381,
      "Integer": 7382,
      "Ġorientation": 7383,
      "Cref": 7384,
      "Bbb": 7385,
      "tile": 7386,
      "Ġscreen": 7387,
      "coming": 7388,
      "Ġ<!--": 7389,
      "Car": 7390,
      "Ġsystematic": 7391,
      "TT": 7392,
      "Ġinterpo": 7393,
      "ĠInitial": 7394,
      "1993": 7395,
      "mote": 7396,
      "Ġfav": 7397,
      "ĠGreen": 7398,
      "Keys": 7399,
      "Pointer": 7400,
      "Ġextracted": 7401,
      "Ġlogarith": 7402,
      "Ġrandomly": 7403,
      "classes": 7404,
      "elem": 7405,
      "formance": 7406,
      "Ġ'/": 7407,
      "Ġfeedback": 7408,
      "Rule": 7409,
      "triangle": 7410,
      "attribute": 7411,
      "Scroll": 7412,
      "}},\\": 7413,
      "Rep": 7414,
      "ĠPhys": 7415,
      "assu": 7416,
      "Ġperson": 7417,
      "Ġexecution": 7418,
      "Ġisomorphic": 7419,
      "Ġsummary": 7420,
      "Ġshell": 7421,
      "Ġqueue": 7422,
      "ĠScience": 7423,
      "Ġcarried": 7424,
      "mouse": 7425,
      "dashed": 7426,
      "Ma": 7427,
      "fg": 7428,
      "ĠDOM": 7429,
      "ĠDefinition": 7430,
      "Ġserial": 7431,
      "inclu": 7432,
      "Ġinference": 7433,
      "ĠOctober": 7434,
      "oring": 7435,
      "ĠUse": 7436,
      "Ġtransparent": 7437,
      "izable": 7438,
      "related": 7439,
      "tmp": 7440,
      "Initial": 7441,
      "Ġopposite": 7442,
      "Ġconditional": 7443,
      "Ġturb": 7444,
      "syn": 7445,
      "leqslant": 7446,
      "ya": 7447,
      "Ġair": 7448,
      "newline": 7449,
      "ORD": 7450,
      "ĠBer": 7451,
      "kens": 7452,
      "Ġstop": 7453,
      "Ġdistinguish": 7454,
      "Ġsurfaces": 7455,
      "Ġpick": 7456,
      "ought": 7457,
      "ĠFermi": 7458,
      "PD": 7459,
      "Arr": 7460,
      "Active": 7461,
      "Ġfilms": 7462,
      "ĠSk": 7463,
      "Ġcontroller": 7464,
      "Ġinterested": 7465,
      "=-\\": 7466,
      "ority": 7467,
      "Ġuniqu": 7468,
      "Ġstated": 7469,
      "=}": 7470,
      "LR": 7471,
      "LD": 7472,
      "Ġpush": 7473,
      "}{*}{": 7474,
      "Ġplanet": 7475,
      "Ġcity": 7476,
      "Ġresonance": 7477,
      "Ġautomatically": 7478,
      "ĠĠĠĠĠĠĠĠĠĠĠĠĠĠĠĠĠĠĠĠĠĠ": 7479,
      "ĠEnglish": 7480,
      "toggle": 7481,
      "Ġessentially": 7482,
      "itive": 7483,
      "valued": 7484,
      "Ġprefix": 7485,
      "ĠRun": 7486,
      "ĠĠĠĠĠĠĠĠĠĠĠĠĠĠĠĠĠĠĠĠĠĠĠĠĠ": 7487,
      "Ġsensitive": 7488,
      "none": 7489,
      "Ġimply": 7490,
      "Ġsphere": 7491,
      "dete": 7492,
      "Ġord": 7493,
      "Ġstand": 7494,
      "vc": 7495,
      "sequent": 7496,
      "Ġconverges": 7497,
      "props": 7498,
      "Ġexplan": 7499,
      "Ġ{{": 7500,
      "Ġtail": 7501,
      "Recall": 7502,
      "Ġrenormal": 7503,
      "Ġcy": 7504,
      "ensing": 7505,
      "LA": 7506,
      "^*_": 7507,
      "Ġschemes": 7508,
      "ĠNumber": 7509,
      "Parser": 7510,
      "rench": 7511,
      "Ġimportance": 7512,
      "Ġanisot": 7513,
      "Plugin": 7514,
      "Ġ_.": 7515,
      "ĠSimilarly": 7516,
      ".(\\": 7517,
      "|_": 7518,
      "ĠQCD": 7519,
      "itle": 7520,
      "Ġproton": 7521,
      "ament": 7522,
      "Ġdevices": 7523,
      "urable": 7524,
      "|_{\\": 7525,
      "Ġinstr": 7526,
      "Ġinterpretation": 7527,
      "schema": 7528,
      "Ġpicture": 7529,
      "Ġmsg": 7530,
      "Ġapplic": 7531,
      "Ġinser": 7532,
      "enced": 7533,
      "Fields": 7534,
      "Ġtrajectory": 7535,
      "dal": 7536,
      "Ġschool": 7537,
      "END": 7538,
      "selector": 7539,
      "That": 7540,
      "Ġsimilarly": 7541,
      "ĠApril": 7542,
      "_{[": 7543,
      "gramm": 7544,
      "}~\\": 7545,
      "&$": 7546,
      "tization": 7547,
      "igible": 7548,
      "licated": 7549,
      "ypto": 7550,
      "Ġsimplicity": 7551,
      "Ġcaused": 7552,
      "_(": 7553,
      "DOM": 7554,
      "Enabled": 7555,
      "Ġintegrated": 7556,
      "Elements": 7557,
      "TEX": 7558,
      "False": 7559,
      "Ġforces": 7560,
      "Ġ(_": 7561,
      "ĠIntern": 7562,
      "Ġgeneralization": 7563,
      "vm": 7564,
      "Ġfront": 7565,
      "bolic": 7566,
      "Ġamplitudes": 7567,
      "FS": 7568,
      "send": 7569,
      "complex": 7570,
      "Ġassigned": 7571,
      "OK": 7572,
      "chart": 7573,
      "Ġlikelihood": 7574,
      "ĠPe": 7575,
      "Ġmusic": 7576,
      "hyper": 7577,
      "rated": 7578,
      "uff": 7579,
      "Network": 7580,
      "Ġdomains": 7581,
      "connection": 7582,
      "notin": 7583,
      "loss": 7584,
      "tating": 7585,
      "ĠCity": 7586,
      "ĠValue": 7587,
      "Ġgeodes": 7588,
      "BR": 7589,
      "atal": 7590,
      "ads": 7591,
      "tigated": 7592,
      "160": 7593,
      "Metadata": 7594,
      "indu": 7595,
      "Ġgoing": 7596,
      "raft": 7597,
      "mask": 7598,
      "Ġwriting": 7599,
      "ensors": 7600,
      "enge": 7601,
      "Ġdifferenti": 7602,
      "....": 7603,
      "flat": 7604,
      "sat": 7605,
      "mathbbm": 7606,
      "cussion": 7607,
      "nolimits": 7608,
      "tributed": 7609,
      "ĠAGN": 7610,
      "Ġwhy": 7611,
      "GE": 7612,
      "Ġsession": 7613,
      "Ġfits": 7614,
      "Tool": 7615,
      "jk": 7616,
      "olar": 7617,
      "ApJ": 7618,
      "Ġstarted": 7619,
      "}{}": 7620,
      "ĠCON": 7621,
      "Ġconcern": 7622,
      "Ġiterations": 7623,
      "Ġbatch": 7624,
      "Ġbary": 7625,
      "Ġvarying": 7626,
      "Ġcomplement": 7627,
      "tivated": 7628,
      "Ġrig": 7629,
      "Phys": 7630,
      "homo": 7631,
      "intro": 7632,
      "Ġpixels": 7633,
      "Ġbeginning": 7634,
      "Assert": 7635,
      "Ġsort": 7636,
      "Ġtren": 7637,
      "Pattern": 7638,
      "ehic": 7639,
      "Namespace": 7640,
      "ĠHand": 7641,
      "tz": 7642,
      "address": 7643,
      "Ġconformal": 7644,
      "vertex": 7645,
      "ĠOpen": 7646,
      "law": 7647,
      "approxi": 7648,
      "Byte": 7649,
      "Ġbenchmark": 7650,
      "'$.": 7651,
      "tick": 7652,
      "otstrap": 7653,
      "ico": 7654,
      "Ġdecays": 7655,
      "Rightarrow": 7656,
      "inline": 7657,
      "ĠOver": 7658,
      "also": 7659,
      "Ġsy": 7660,
      "Ġaccep": 7661,
      "substack": 7662,
      "Matrix": 7663,
      "neg": 7664,
      "ĠWork": 7665,
      "otal": 7666,
      "Ġgenerators": 7667,
      "Entity": 7668,
      "coup": 7669,
      "Ġunitary": 7670,
      "Ġfair": 7671,
      "Rad": 7672,
      "bas": 7673,
      "ÃŃ": 7674,
      "}<": 7675,
      "ney": 7676,
      "Ġkinetic": 7677,
      "Ġconclusion": 7678,
      "Ġtes": 7679,
      "Ġrestricted": 7680,
      "ĠMc": 7681,
      "Ġindicated": 7682,
      "hance": 7683,
      "Ġcharged": 7684,
      "KEY": 7685,
      "Ġplugin": 7686,
      "Ġintegers": 7687,
      ".&": 7688,
      "istration": 7689,
      "fixed": 7690,
      "Ġdirectory": 7691,
      "primary": 7692,
      "respec": 7693,
      "fine": 7694,
      "Ġplasma": 7695,
      "Selection": 7696,
      "unfinished": 7697,
      "Num": 7698,
      "connected": 7699,
      "Ġreq": 7700,
      "ĠRE": 7701,
      "Ġstationary": 7702,
      "tated": 7703,
      "Ġlimi": 7704,
      "Ġima": 7705,
      "weak": 7706,
      "rest": 7707,
      "ĠBra": 7708,
      "olver": 7709,
      "Ġreveal": 7710,
      "Ġlibrary": 7711,
      "tensor": 7712,
      "gray": 7713,
      "Ġdominant": 7714,
      "Bigl": 7715,
      "Ġgets": 7716,
      "Lin": 7717,
      ":</": 7718,
      "ops": 7719,
      "Ġdivis": 7720,
      "Ġinduction": 7721,
      "Ġadopted": 7722,
      "pf": 7723,
      "ORM": 7724,
      "Ġamb": 7725,
      "Bigr": 7726,
      "Ġconjug": 7727,
      "below": 7728,
      "cknowled": 7729,
      "Furthermore": 7730,
      "constant": 7731,
      "Ġplotted": 7732,
      "Ġtook": 7733,
      "Ġrelease": 7734,
      "Ġinline": 7735,
      "ĠBritish": 7736,
      "Transform": 7737,
      "application": 7738,
      "shadow": 7739,
      "ĠPoisson": 7740,
      "ĠRiemann": 7741,
      "Descriptor": 7742,
      "Tab": 7743,
      "Ġsites": 7744,
      "Ġheld": 7745,
      "\\,,": 7746,
      "Volume": 7747,
      "HO": 7748,
      "verb": 7749,
      "cknowledge": 7750,
      "Ġcompatible": 7751,
      "lb": 7752,
      "ĠSto": 7753,
      "Part": 7754,
      "Props": 7755,
      "Ġspacetime": 7756,
      "ĠNovember": 7757,
      "vdots": 7758,
      "Ġways": 7759,
      "allest": 7760,
      "Ġclustering": 7761,
      "Scale": 7762,
      "device": 7763,
      "Ġdiscr": 7764,
      "Ð°Ð": 7765,
      "Ġsolved": 7766,
      "Ġprev": 7767,
      "dropdown": 7768,
      "Ġchart": 7769,
      "vol": 7770,
      ")=(": 7771,
      "Ġanalyze": 7772,
      "ĠKing": 7773,
      "Device": 7774,
      "Ġatmos": 7775,
      "Ġsubsection": 7776,
      "arse": 7777,
      "Ġbook": 7778,
      "Ġdoesn": 7779,
      "above": 7780,
      "Ġturns": 7781,
      "ĠDecember": 7782,
      "jpg": 7783,
      "ĠEar": 7784,
      "Init": 7785,
      "ĠCLASS": 7786,
      "}}=\\": 7787,
      "Direct": 7788,
      "Ġlack": 7789,
      "ious": 7790,
      "ĠâĢĶ": 7791,
      "Ġdiscrimin": 7792,
      "sharp": 7793,
      "numer": 7794,
      "Ġordered": 7795,
      "ights": 7796,
      "gi": 7797,
      "cen": 7798,
      "hed": 7799,
      "custom": 7800,
      "|=": 7801,
      "pies": 7802,
      "Rou": 7803,
      "Newtonsoft": 7804,
      "Ġpropagation": 7805,
      "Ġmessages": 7806,
      "Step": 7807,
      "Ġgoes": 7808,
      "ĠHREF": 7809,
      "selves": 7810,
      "irror": 7811,
      "decomp": 7812,
      "IE": 7813,
      "asso": 7814,
      "Fin": 7815,
      "precated": 7816,
      "})(": 7817,
      "cyc": 7818,
      "ĠGroup": 7819,
      "napshot": 7820,
      "Parse": 7821,
      "Ġvalu": 7822,
      "overset": 7823,
      "trl": 7824,
      "Ġnormalization": 7825,
      "Ġ}{\\": 7826,
      "____": 7827,
      "')$": 7828,
      "Application": 7829,
      "padding": 7830,
      "between": 7831,
      "'=": 7832,
      "Ġ'<": 7833,
      "Ġintervals": 7834,
      ")}_{\\": 7835,
      "urnal": 7836,
      "uge": 7837,
      "\\|^": 7838,
      "surface": 7839,
      "*\\": 7840,
      ")|\\": 7841,
      "Ġcompan": 7842,
      "Ġprobabilities": 7843,
      "gni": 7844,
      "Ġinver": 7845,
      "changed": 7846,
      "Ġmac": 7847,
      "power": 7848,
      "Ġperturbations": 7849,
      "RC": 7850,
      "ĠMap": 7851,
      "'));": 7852,
      "Ġsimilarity": 7853,
      "Ġjson": 7854,
      "iki": 7855,
      "Ġled": 7856,
      "ĠAccording": 7857,
      "Ġwind": 7858,
      "Param": 7859,
      "}\\;": 7860,
      "Ġprogress": 7861,
      "('.": 7862,
      "Ġsymbols": 7863,
      "}})$": 7864,
      "Ġneutral": 7865,
      "ocities": 7866,
      "Ġconsole": 7867,
      "TC": 7868,
      "Ġhot": 7869,
      "Ġcub": 7870,
      "symmetry": 7871,
      "ders": 7872,
      "ĠSecond": 7873,
      "Ġconjecture": 7874,
      "separ": 7875,
      "Upsilon": 7876,
      "rame": 7877,
      "BH": 7878,
      "umentation": 7879,
      "ĠVal": 7880,
      "Ġbig": 7881,
      "Ġinvestigated": 7882,
      "sql": 7883,
      "helper": 7884,
      "Ġbelie": 7885,
      "switch": 7886,
      "els": 7887,
      "Ġslope": 7888,
      "Ġspherical": 7889,
      "$_{\\": 7890,
      "OwnProperty": 7891,
      "Ġconsisting": 7892,
      "Ġenable": 7893,
      "arial": 7894,
      "Ġfailure": 7895,
      "Ġmanner": 7896,
      "neu": 7897,
      "orent": 7898,
      "Ġinsp": 7899,
      "Float": 7900,
      "III": 7901,
      "requency": 7902,
      "Ġpanels": 7903,
      "ANT": 7904,
      "Ġpriv": 7905,
      "support": 7906,
      "Ġ\"\"": 7907,
      "Ġelimin": 7908,
      "Ġframes": 7909,
      "Ġos": 7910,
      "Ġlaser": 7911,
      "Ġability": 7912,
      ".},": 7913,
      "Ġcovariance": 7914,
      "Ġdefining": 7915,
      "History": 7916,
      "matics": 7917,
      "(:": 7918,
      "iterator": 7919,
      "ĠassertEquals": 7920,
      "Ġinclusion": 7921,
      "ĠTrue": 7922,
      "Ġdominated": 7923,
      "Ġnarrow": 7924,
      "volume": 7925,
      "Ġtrunc": 7926,
      "FN": 7927,
      "Ġinvolving": 7928,
      "ĠEl": 7929,
      "Ġneutron": 7930,
      "hape": 7931,
      "Editor": 7932,
      "reet": 7933,
      "ats": 7934,
      "Ġreached": 7935,
      "Ġjump": 7936,
      "Ġturbul": 7937,
      "ĠDirac": 7938,
      "Click": 7939,
      "hl": 7940,
      "ipeline": 7941,
      "road": 7942,
      "Ġrestric": 7943,
      "ditionally": 7944,
      "Ġthin": 7945,
      "iso": 7946,
      "'+": 7947,
      "bounded": 7948,
      "distribution": 7949,
      "fd": 7950,
      "Ġdecreasing": 7951,
      "Ġscroll": 7952,
      "Ġalloc": 7953,
      "ĠGets": 7954,
      "hide": 7955,
      "equals": 7956,
      "Ġcompleted": 7957,
      "will": 7958,
      "lik": 7959,
      "Ã¼": 7960,
      "ccc": 7961,
      "ĠTHE": 7962,
      "dens": 7963,
      "ĠRequ": 7964,
      "dere": 7965,
      "orentz": 7966,
      "asc": 7967,
      "Ġquestions": 7968,
      "cycle": 7969,
      "export": 7970,
      "Ġ}$": 7971,
      "Ġproto": 7972,
      "imit": 7973,
      "Deta": 7974,
      "Ġtransaction": 7975,
      "Ġmodify": 7976,
      "partment": 7977,
      "bruary": 7978,
      "----------------------------------------------------------------": 7979,
      "Ġbreaking": 7980,
      "Ġeffor": 7981,
      "Ġrecomm": 7982,
      "Ġsat": 7983,
      "txt": 7984,
      "kov": 7985,
      "typedef": 7986,
      "Ġcontradiction": 7987,
      "'$,": 7988,
      "}))": 7989,
      "Ġvanishes": 7990,
      "UV": 7991,
      "Ġbur": 7992,
      "Ġ$\\|": 7993,
      "triang": 7994,
      "going": 7995,
      "ĠIO": 7996,
      "deep": 7997,
      ">$": 7998,
      "More": 7999,
      "Syntax": 8000,
      "Pass": 8001,
      "potential": 8002,
      "Ġaffine": 8003,
      "fr": 8004,
      "Ġconfidence": 8005,
      "conom": 8006,
      "Ġspread": 8007,
      "Ġadv": 8008,
      "avity": 8009,
      "Ġ).": 8010,
      "character": 8011,
      "homology": 8012,
      "Met": 8013,
      "Ġnative": 8014,
      "Mock": 8015,
      "Ġmarked": 8016,
      "Cla": 8017,
      "Ġabstract": 8018,
      "Ġrobot": 8019,
      "Ġ::": 8020,
      "Ġsignature": 8021,
      "Ġempirical": 8022,
      "////////////////////////////////": 8023,
      "{\"": 8024,
      "Ġopacity": 8025,
      "ette": 8026,
      "Pers": 8027,
      "IX": 8028,
      "ĠLeague": 8029,
      "itary": 8030,
      "stantial": 8031,
      "Ġscript": 8032,
      "zone": 8033,
      "}_{{\\": 8034,
      "Ġexponent": 8035,
      "rfloor": 8036,
      "Ġĉ": 8037,
      "Ġconduct": 8038,
      "Ġcatalog": 8039,
      "Ġembedded": 8040,
      "CN": 8041,
      "Ġlept": 8042,
      "uber": 8043,
      "ĠNOT": 8044,
      ",~": 8045,
      "oidal": 8046,
      "utive": 8047,
      "}.\\": 8048,
      "Ġconto": 8049,
      "connect": 8050,
      "Ġrisk": 8051,
      "Ġsound": 8052,
      "Ġreferred": 8053,
      "Ġnearly": 8054,
      "ills": 8055,
      "Ġparametr": 8056,
      "Ġcandidates": 8057,
      "lfloor": 8058,
      "'}\\": 8059,
      "Ġunless": 8060,
      "ĠAf": 8061,
      "Ġ^{\\": 8062,
      "century": 8063,
      "Ġproviding": 8064,
      "Ġresolve": 8065,
      "Ġcontrols": 8066,
      "Ġcomparing": 8067,
      "shi": 8068,
      "Ġsuggested": 8069,
      "dz": 8070,
      "ĠTODO": 8071,
      "Wrapper": 8072,
      "ĠBel": 8073,
      "arest": 8074,
      "inos": 8075,
      "Ġdiscover": 8076,
      "Fail": 8077,
      "theme": 8078,
      "Ġappend": 8079,
      "Ġbirths": 8080,
      "lexi": 8081,
      "Two": 8082,
      "roscopic": 8083,
      ":[": 8084,
      "Ġimprovement": 8085,
      "Ġflows": 8086,
      "Ġtrajectories": 8087,
      "modal": 8088,
      "theory": 8089,
      "ĠPDF": 8090,
      "Ġsupercon": 8091,
      "Observable": 8092,
      "Debug": 8093,
      "Ġorbits": 8094,
      "Ġaggreg": 8095,
      "inear": 8096,
      "constructor": 8097,
      ".}\\": 8098,
      "covery": 8099,
      "ĠCent": 8100,
      "Ġappe": 8101,
      "Ġstarts": 8102,
      "Ġrequests": 8103,
      "Ġcollisions": 8104,
      "tb": 8105,
      "ĠJapan": 8106,
      "mun": 8107,
      "Ġasser": 8108,
      "ĠOut": 8109,
      "Ġbelongs": 8110,
      "Ġsparse": 8111,
      "testing": 8112,
      "Inst": 8113,
      "250": 8114,
      "GS": 8115,
      "EventListener": 8116,
      "docs": 8117,
      "Ġignore": 8118,
      "hskip": 8119,
      "ologies": 8120,
      "pmb": 8121,
      "ĠBecause": 8122,
      "Ġtouch": 8123,
      "Runtime": 8124,
      "Ġraw": 8125,
      "prev": 8126,
      "Ġdisjoint": 8127,
      "Ġcharacterized": 8128,
      "aba": 8129,
      "ĠTH": 8130,
      "ĠBoth": 8131,
      "Title": 8132,
      "AF": 8133,
      "Ġinvalid": 8134,
      "Ġabsence": 8135,
      "words": 8136,
      "Ġweakly": 8137,
      "Ġposterior": 8138,
      "titions": 8139,
      "Aut": 8140,
      "gligible": 8141,
      "inction": 8142,
      "Ġfaster": 8143,
      "Ġcalls": 8144,
      "\",\"": 8145,
      "Ġtriang": 8146,
      "rb": 8147,
      "ĠIE": 8148,
      "GM": 8149,
      "*)": 8150,
      "ĠRemark": 8151,
      "ulture": 8152,
      "Ġsynchron": 8153,
      "Ġcontract": 8154,
      "$/": 8155,
      "Ġsecurity": 8156,
      "Ġintrinsic": 8157,
      "Ġdesc": 8158,
      "Ġsplitting": 8159,
      "Av": 8160,
      "sa": 8161,
      "here": 8162,
      "ĠFoundation": 8163,
      "Ġversus": 8164,
      "Items": 8165,
      "atell": 8166,
      "Assume": 8167,
      "Ġillustrated": 8168,
      "iton": 8169,
      "ened": 8170,
      "Other": 8171,
      "dients": 8172,
      "Project": 8173,
      "Ġaccoun": 8174,
      "Cap": 8175,
      "UL": 8176,
      "Ġlabeled": 8177,
      "liography": 8178,
      "Ġcomparable": 8179,
      "oli": 8180,
      "ATA": 8181,
      "Ġsubsets": 8182,
      "Ġseparated": 8183,
      "ulo": 8184,
      "ĠCopy": 8185,
      "uck": 8186,
      "})-": 8187,
      "Ġprojective": 8188,
      "Full": 8189,
      "1991": 8190,
      ")}=": 8191,
      "uel": 8192,
      "okie": 8193,
      "Ġemployed": 8194,
      "DT": 8195,
      "Scal": 8196,
      "Ġbl": 8197,
      "Ġtrees": 8198,
      "Channel": 8199,
      "independent": 8200,
      "Ġprevent": 8201,
      "Ġcard": 8202,
      "EP": 8203,
      "Ġtmp": 8204,
      "ĠAssume": 8205,
      "ĠCre": 8206,
      "RS": 8207,
      "iffer": 8208,
      "pattern": 8209,
      "Ġchoices": 8210,
      "ĠĠĠĠĠĠĠĠĠĠĠĠĠĠĠĠĠĠĠĠĠĠĠĠĠĠĠĠĠĠĠĠĠĠĠĠĠĠĠ": 8211,
      "tn": 8212,
      "Ġharmonic": 8213,
      "Ġrg": 8214,
      "Ġcharacteristics": 8215,
      "ITY": 8216,
      "Custom": 8217,
      "WS": 8218,
      "EO": 8219,
      "metric": 8220,
      "Ġstabil": 8221,
      "stood": 8222,
      "Ġlie": 8223,
      "ĠMC": 8224,
      "âĢĿ": 8225,
      "Ġnaturally": 8226,
      "Second": 8227,
      "drop": 8228,
      "bytes": 8229,
      "raise": 8230,
      "Ġoptional": 8231,
      "BM": 8232,
      "ultra": 8233,
      "plus": 8234,
      "atellite": 8235,
      "Ġindicating": 8236,
      "~(": 8237,
      "riend": 8238,
      "uv": 8239,
      "Ġ$$\\": 8240,
      "Ġnonzero": 8241,
      "})_{": 8242,
      "learning": 8243,
      "orizontal": 8244,
      "Ġangles": 8245,
      "]^{": 8246,
      "Ġnegle": 8247,
      "rat": 8248,
      "quid": 8249,
      "ĠWil": 8250,
      "ĠRegister": 8251,
      "ias": 8252,
      "Ġdemonstrated": 8253,
      "Ġreserv": 8254,
      "Ġatt": 8255,
      "Bundle": 8256,
      "ission": 8257,
      "ocused": 8258,
      "SION": 8259,
      "embed": 8260,
      "Ġexhibit": 8261,
      "oke": 8262,
      "Ġelliptic": 8263,
      "Ġsmallest": 8264,
      "za": 8265,
      "Ġ&$": 8266,
      "levision": 8267,
      "Ġaccept": 8268,
      "tight": 8269,
      "uds": 8270,
      "svg": 8271,
      "Ġproposition": 8272,
      "Ġprincipal": 8273,
      "Math": 8274,
      "ACE": 8275,
      "Ġextensions": 8276,
      "Proto": 8277,
      "Ġpara": 8278,
      "Ġquick": 8279,
      "spects": 8280,
      "spe": 8281,
      "Ġjob": 8282,
      "ĠNot": 8283,
      "compare": 8284,
      "tite": 8285,
      "reset": 8286,
      "Pop": 8287,
      "GG": 8288,
      "Ġce": 8289,
      "owers": 8290,
      "bile": 8291,
      "sys": 8292,
      ",.": 8293,
      "125": 8294,
      "displaymath": 8295,
      "Ġaug": 8296,
      "vskip": 8297,
      "Ġcone": 8298,
      "Ġimplicit": 8299,
      "Ġversions": 8300,
      "Ġproduces": 8301,
      "wner": 8302,
      "family": 8303,
      ")\">": 8304,
      "Ġcrucial": 8305,
      "Ġsubstit": 8306,
      "Send": 8307,
      "ĠSan": 8308,
      "Ġapparent": 8309,
      "Ġ>>>": 8310,
      "physical": 8311,
      "Ġgiving": 8312,
      "experim": 8313,
      "Ġ$<": 8314,
      "HR": 8315,
      "Ġvehic": 8316,
      "ilation": 8317,
      "taining": 8318,
      "timeout": 8319,
      "Ġtown": 8320,
      "Ġdeduce": 8321,
      "cmd": 8322,
      "\\|_{\\": 8323,
      "Ġallowing": 8324,
      "TER": 8325,
      "ĠHis": 8326,
      "Ġhouse": 8327,
      "Ġuniverse": 8328,
      "problem": 8329,
      "Ġlinearly": 8330,
      "Ġtools": 8331,
      "ĠBoolean": 8332,
      "Ġda": 8333,
      "Use": 8334,
      "Ġlocations": 8335,
      "lab": 8336,
      "asible": 8337,
      "Lower": 8338,
      "anned": 8339,
      "direction": 8340,
      "oted": 8341,
      "Ġexplore": 8342,
      "Ġcomputer": 8343,
      "controller": 8344,
      "Ġstored": 8345,
      "Errorf": 8346,
      "hard": 8347,
      "Ġenhance": 8348,
      "Ġsky": 8349,
      "TIM": 8350,
      "Ġregard": 8351,
      "Ġ\"/": 8352,
      "eg": 8353,
      "unsigned": 8354,
      "handler": 8355,
      "Ġabundance": 8356,
      "rf": 8357,
      "Has": 8358,
      "ĠÃ": 8359,
      "mock": 8360,
      "Windows": 8361,
      "awa": 8362,
      "ĠĠĠĠĠĠĊ": 8363,
      "Comparison": 8364,
      "stable": 8365,
      "ĠFebruary": 8366,
      "ned": 8367,
      "dict": 8368,
      "Ġvelocities": 8369,
      "Ġshare": 8370,
      "Ġservices": 8371,
      "ĠEuclidean": 8372,
      "resolve": 8373,
      "Ġ{},": 8374,
      "mathds": 8375,
      "Ġchanging": 8376,
      "ĠNO": 8377,
      "PM": 8378,
      "upper": 8379,
      "assertEquals": 8380,
      "(/": 8381,
      "Lib": 8382,
      "Although": 8383,
      "'>": 8384,
      "Ġ$[\\": 8385,
      "ĠVAL": 8386,
      "amel": 8387,
      "Ġdele": 8388,
      "homog": 8389,
      "Ġinitially": 8390,
      "Display": 8391,
      "Ġdemand": 8392,
      "hook": 8393,
      "CB": 8394,
      "ulty": 8395,
      "Ġcriterion": 8396,
      "due": 8397,
      "nodes": 8398,
      "Dep": 8399,
      "Ġepis": 8400,
      "Ġsubstantial": 8401,
      "dian": 8402,
      "Ġsubsequent": 8403,
      "Ġ_,": 8404,
      "dereq": 8405,
      "poly": 8406,
      "aster": 8407,
      "hidden": 8408,
      "ĠMonte": 8409,
      "dynamic": 8410,
      "spaces": 8411,
      "usted": 8412,
      "Ġmoments": 8413,
      "pers": 8414,
      "Layer": 8415,
      "Ġreasonable": 8416,
      "lm": 8417,
      "sia": 8418,
      "Ġbegan": 8419,
      "Ġ{{\\": 8420,
      "ĠNetwork": 8421,
      "Ġroughly": 8422,
      "Ġplots": 8423,
      "~~~~~~~~": 8424,
      "Ġmesh": 8425,
      "sn": 8426,
      "Ġanalogous": 8427,
      "Ġplaced": 8428,
      "Ġreads": 8429,
      "Ġprof": 8430,
      "session": 8431,
      "Ġarr": 8432,
      "Ġsuffices": 8433,
      "HM": 8434,
      "editor": 8435,
      "Ġcolors": 8436,
      "ĠCur": 8437,
      "moz": 8438,
      "psch": 8439,
      "analy": 8440,
      "abbr": 8441,
      "three": 8442,
      "ĠIm": 8443,
      "AE": 8444,
      "mplectic": 8445,
      "Main": 8446,
      "ducation": 8447,
      "Ġsimultaneously": 8448,
      "HD": 8449,
      "=(\\": 8450,
      "Ġwal": 8451,
      "setup": 8452,
      "}=(": 8453,
      "forming": 8454,
      "ĠClo": 8455,
      "specific": 8456,
      "Ġgovernment": 8457,
      "opts": 8458,
      "Ġcamp": 8459,
      "ipher": 8460,
      "shell": 8461,
      "hop": 8462,
      "Ġpuls": 8463,
      "unced": 8464,
      "000000": 8465,
      "pare": 8466,
      "missions": 8467,
      "}_{(": 8468,
      "American": 8469,
      "uniform": 8470,
      "=\"_": 8471,
      "Ġholes": 8472,
      "fail": 8473,
      "Ġperforming": 8474,
      "Ġtim": 8475,
      "Ġthermod": 8476,
      "Ġpractical": 8477,
      "Database": 8478,
      "Mar": 8479,
      "desc": 8480,
      "Ġtend": 8481,
      "Len": 8482,
      "pschitz": 8483,
      "IA": 8484,
      "ĠEinstein": 8485,
      "ishing": 8486,
      "Ġplus": 8487,
      "Gu": 8488,
      "rad": 8489,
      "BO": 8490,
      "adoop": 8491,
      "Iterator": 8492,
      "Ġconstructor": 8493,
      "Ġrepeated": 8494,
      "selection": 8495,
      ")|^": 8496,
      "'}$": 8497,
      "than": 8498,
      "Ġidentification": 8499,
      "Ġdir": 8500,
      "(__": 8501,
      "yal": 8502,
      "ita": 8503,
      "Ġadjacent": 8504,
      "sym": 8505,
      "ystems": 8506,
      "endar": 8507,
      "domin": 8508,
      "Ġentity": 8509,
      "symbol": 8510,
      "Ġeffectively": 8511,
      "aved": 8512,
      "Internal": 8513,
      "Dictionary": 8514,
      "Ġhadron": 8515,
      ")!": 8516,
      "Ġsil": 8517,
      "Remove": 8518,
      "ĠRus": 8519,
      "XML": 8520,
      "PAR": 8521,
      "learly": 8522,
      "names": 8523,
      "Ġquotient": 8524,
      "Ġtriangle": 8525,
      "pan": 8526,
      "Ġpulse": 8527,
      ">.": 8528,
      "impl": 8529,
      "constrain": 8530,
      "Changed": 8531,
      "Ġcarry": 8532,
      "))$.": 8533,
      "gon": 8534,
      "elastic": 8535,
      "Ġreflection": 8536,
      "ĠPlan": 8537,
      "Lock": 8538,
      "lyph": 8539,
      "Div": 8540,
      "Ġmut": 8541,
      "Ġca": 8542,
      "Ġcircular": 8543,
      "Ġnorth": 8544,
      "}|^": 8545,
      "Ġresidual": 8546,
      "\\,.": 8547,
      "mous": 8548,
      "Ġconvert": 8549,
      "Uni": 8550,
      ").}": 8551,
      "Ġdy": 8552,
      "Ġequals": 8553,
      "ĠCla": 8554,
      "}}}{": 8555,
      "Ġcompany": 8556,
      "Draw": 8557,
      "Ġoutputs": 8558,
      "Ġcontribute": 8559,
      "Rev": 8560,
      "Ġintegrals": 8561,
      "Ġmedian": 8562,
      "grad": 8563,
      "Ġconstrained": 8564,
      "High": 8565,
      "]_{": 8566,
      "boost": 8567,
      "Ġapplies": 8568,
      "ĠWindow": 8569,
      "Ġreaction": 8570,
      "Ġoverlap": 8571,
      "Ġcriteria": 8572,
      "Ġ'';": 8573,
      "Ġpossibly": 8574,
      "Close": 8575,
      "Ġcareer": 8576,
      "Ġ],": 8577,
      "Ġadopt": 8578,
      "veloper": 8579,
      "Ñĥ": 8580,
      "}\\!": 8581,
      "ouch": 8582,
      "Ġenabled": 8583,
      "Ġtraditional": 8584,
      "promise": 8585,
      "Ġlatent": 8586,
      "Ġlearned": 8587,
      "ĠKey": 8588,
      "pkg": 8589,
      "ĠMeV": 8590,
      "ĠVir": 8591,
      "jet": 8592,
      "lands": 8593,
      "Ġrequirements": 8594,
      "Ġstrategies": 8595,
      "sig": 8596,
      "rey": 8597,
      "Ġnumerically": 8598,
      "errors": 8599,
      "temperature": 8600,
      "Ġask": 8601,
      "Prefix": 8602,
      "Ġcoherent": 8603,
      "ĠNor": 8604,
      "spective": 8605,
      "tyles": 8606,
      "world": 8607,
      "Ġanalytical": 8608,
      "Ġconnections": 8609,
      "Ġhyperbolic": 8610,
      "Ġsides": 8611,
      "met": 8612,
      "Ġmeet": 8613,
      "Ġ$-$": 8614,
      "frared": 8615,
      "$&$": 8616,
      "ĠCR": 8617,
      "WE": 8618,
      "hanced": 8619,
      "given": 8620,
      "nil": 8621,
      "Ġrecogn": 8622,
      "Attributes": 8623,
      "inement": 8624,
      "ĠAb": 8625,
      "Ġquali": 8626,
      "utor": 8627,
      "ua": 8628,
      "Ġdwar": 8629,
      "ĠBayes": 8630,
      "Ġwhenever": 8631,
      "Ġinfinity": 8632,
      "}_+": 8633,
      "elements": 8634,
      "ondon": 8635,
      "anchor": 8636,
      "ĠNGC": 8637,
      "anced": 8638,
      "Some": 8639,
      "vities": 8640,
      "Global": 8641,
      "},{\\": 8642,
      "}}}$": 8643,
      "@{}": 8644,
      "okup": 8645,
      "Ġinstant": 8646,
      "Ġpeaks": 8647,
      "Ġopt": 8648,
      "ĠLorentz": 8649,
      "lr": 8650,
      "$--": 8651,
      "supervised": 8652,
      "contains": 8653,
      "Ġdu": 8654,
      "cv": 8655,
      "Ġdivided": 8656,
      "Ġaux": 8657,
      "Ġmostly": 8658,
      "standard": 8659,
      "Ġsupports": 8660,
      "ĠMarkov": 8661,
      "Ġformalism": 8662,
      "\\-": 8663,
      "Ġlogic": 8664,
      "Ġbinding": 8665,
      "Ġinflation": 8666,
      "Gen": 8667,
      "ĠLy": 8668,
      "closed": 8669,
      "ope": 8670,
      "1980": 8671,
      "Ġ\\,,": 8672,
      "ians": 8673,
      "bigskip": 8674,
      "respectively": 8675,
      "}^{(\\": 8676,
      "ĠDefault": 8677,
      "Ġbroken": 8678,
      "Ġattempt": 8679,
      "Ġmoved": 8680,
      "Ġeventually": 8681,
      "Ġentanglement": 8682,
      "Security": 8683,
      "Ġgenerality": 8684,
      "Single": 8685,
      "'',": 8686,
      "className": 8687,
      "ĠCarlo": 8688,
      "Ġclub": 8689,
      "touch": 8690,
      "Api": 8691,
      "ĠPublic": 8692,
      "tribut": 8693,
      "Ġrequirement": 8694,
      "Ġinduces": 8695,
      "Ps": 8696,
      "{[": 8697,
      "seq": 8698,
      "cribe": 8699,
      "Proxy": 8700,
      "Ġpotentials": 8701,
      "dri": 8702,
      "Ġresolved": 8703,
      "expression": 8704,
      "ĠBOOST": 8705,
      "ĠĠĠĠĠĠĠĠĠĠĠĠĠĠĠĠĠĠĠĠĠĠĠĠĠĠ": 8706,
      "Ġhomot": 8707,
      "Cluster": 8708,
      "Ġinterior": 8709,
      "ĠAR": 8710,
      "Ġdissi": 8711,
      "ĠWest": 8712,
      "loyment": 8713,
      "Ġgate": 8714,
      "maging": 8715,
      "={\\": 8716,
      "Ġboundaries": 8717,
      "ĠMulti": 8718,
      "^-$": 8719,
      "UP": 8720,
      "Any": 8721,
      "Register": 8722,
      "forEach": 8723,
      "Ġseed": 8724,
      "ĠGeneral": 8725,
      "]+": 8726,
      "ĠFR": 8727,
      "AX": 8728,
      "nes": 8729,
      "Media": 8730,
      "ective": 8731,
      "ĠImp": 8732,
      "iliary": 8733,
      "Ġdeformation": 8734,
      "rency": 8735,
      "ensus": 8736,
      "###": 8737,
      "FE": 8738,
      "Ġexcitation": 8739,
      "SIZE": 8740,
      "Ġaffected": 8741,
      "aml": 8742,
      "solid": 8743,
      "Ġcollected": 8744,
      "trum": 8745,
      "$(\\": 8746,
      "Ġparser": 8747,
      "adj": 8748,
      "poses": 8749,
      "mac": 8750,
      "trace": 8751,
      "Ġfinitely": 8752,
      "underset": 8753,
      "gal": 8754,
      "Ġprops": 8755,
      "ĠMy": 8756,
      "uncil": 8757,
      "Ġworth": 8758,
      "Ġsuccessfully": 8759,
      "Ġsemantic": 8760,
      "utoff": 8761,
      "CG": 8762,
      "Space": 8763,
      "Ġindependently": 8764,
      "TRY": 8765,
      ")\\,\\": 8766,
      "Ġunderstood": 8767,
      "shal": 8768,
      "lli": 8769,
      "Ġest": 8770,
      "cited": 8771,
      "_->": 8772,
      "Ġinvolves": 8773,
      "Ġboost": 8774,
      "ĠSun": 8775,
      "ĠCNN": 8776,
      "anguages": 8777,
      "Ġtrade": 8778,
      "Similarly": 8779,
      "fol": 8780,
      "Ġrespective": 8781,
      "illis": 8782,
      "sident": 8783,
      "ratio": 8784,
      "MAX": 8785,
      "Ġcomposed": 8786,
      "Ġsegmentation": 8787,
      "distance": 8788,
      "Ġscores": 8789,
      "pix": 8790,
      "Ġthink": 8791,
      "NA": 8792,
      "Ġexecute": 8793,
      "Ġdescribing": 8794,
      "Ġfmt": 8795,
      "^{[": 8796,
      "hd": 8797,
      "\\}}": 8798,
      "ĠTwo": 8799,
      "tract": 8800,
      "Ġpull": 8801,
      "ressive": 8802,
      "amond": 8803,
      "Ġgenerates": 8804,
      "Ġzone": 8805,
      "graphy": 8806,
      "Ġordering": 8807,
      "Cs": 8808,
      "Ġstronger": 8809,
      "Ð»": 8810,
      "prefix": 8811,
      "incre": 8812,
      "jQuery": 8813,
      "Dialog": 8814,
      "centerline": 8815,
      "Ġmarket": 8816,
      "bour": 8817,
      "subfloat": 8818,
      "iteral": 8819,
      "Ġcamera": 8820,
      "inher": 8821,
      "kind": 8822,
      "lank": 8823,
      "/***/": 8824,
      "Ġmock": 8825,
      "INS": 8826,
      "ATH": 8827,
      "found": 8828,
      "FAULT": 8829,
      "Ġwomen": 8830,
      "Ġds": 8831,
      "Acc": 8832,
      "Ġemit": 8833,
      "Ġraise": 8834,
      "Ġtranslate": 8835,
      "ĠUser": 8836,
      "href": 8837,
      "ĠBH": 8838,
      "Ġschedule": 8839,
      "renew": 8840,
      "fony": 8841,
      "Ġwidely": 8842,
      "Ġapplicable": 8843,
      "ipped": 8844,
      "gacy": 8845,
      "ĠReact": 8846,
      "Ġmaterials": 8847,
      "gets": 8848,
      "flags": 8849,
      "Ret": 8850,
      "ĠXML": 8851,
      "umula": 8852,
      "Loader": 8853,
      "maps": 8854,
      "rew": 8855,
      "Ġdb": 8856,
      "Ġii": 8857,
      "Ġpartially": 8858,
      "teness": 8859,
      "loader": 8860,
      "fold": 8861,
      "esting": 8862,
      "Ġmen": 8863,
      "Ġreasons": 8864,
      "Ġcomplicated": 8865,
      "Ġarise": 8866,
      "estern": 8867,
      "Ġtreated": 8868,
      "ĠArm": 8869,
      "Ġcooling": 8870,
      "lective": 8871,
      "Memory": 8872,
      "extra": 8873,
      "}\\}$": 8874,
      "Ġclock": 8875,
      "Mu": 8876,
      "cessed": 8877,
      "reek": 8878,
      "ĠAN": 8879,
      "Ġfamilies": 8880,
      "Ġroots": 8881,
      "Hel": 8882,
      "yy": 8883,
      "aker": 8884,
      "Ġlock": 8885,
      "Ġcalibration": 8886,
      "save": 8887,
      "CHE": 8888,
      "apes": 8889,
      "Axis": 8890,
      "1989": 8891,
      "eved": 8892,
      "ander": 8893,
      "Ġtell": 8894,
      "Ġdelta": 8895,
      ">::": 8896,
      "')\\": 8897,
      "Ġobservables": 8898,
      "Ġinvariance": 8899,
      "oulo": 8900,
      "Ġassess": 8901,
      "cher": 8902,
      "Ġschema": 8903,
      "{%": 8904,
      "WA": 8905,
      "800": 8906,
      "Ġdiscussions": 8907,
      "brief": 8908,
      "}}\\,": 8909,
      "Ġ];": 8910,
      "CI": 8911,
      "loaded": 8912,
      "Plan": 8913,
      "scription": 8914,
      "Ġplays": 8915,
      "master": 8916,
      "Ġexceed": 8917,
      "cous": 8918,
      "ĠUnder": 8919,
      "dp": 8920,
      ")));": 8921,
      "Ġpod": 8922,
      "ĠHer": 8923,
      "Ġcentury": 8924,
      "Sym": 8925,
      "noise": 8926,
      "ĠText": 8927,
      "Experim": 8928,
      "correct": 8929,
      "Ġconversion": 8930,
      "nat": 8931,
      "integra": 8932,
      "sibility": 8933,
      "Headers": 8934,
      "tors": 8935,
      "NotNull": 8936,
      "Ġsecondary": 8937,
      "basic": 8938,
      "(|": 8939,
      "analysis": 8940,
      ")}^": 8941,
      "Ġwalk": 8942,
      "Ġfourth": 8943,
      "mem": 8944,
      "HP": 8945,
      "ĠLap": 8946,
      "ville": 8947,
      "ginary": 8948,
      "Ġtechnical": 8949,
      "Na": 8950,
      "^+\\": 8951,
      "}$).": 8952,
      "Ġbehind": 8953,
      "~{\\": 8954,
      "ĠCase": 8955,
      "Ġund": 8956,
      "Ġsharp": 8957,
      "CV": 8958,
      "Fix": 8959,
      "TS": 8960,
      "unique": 8961,
      "Ġranges": 8962,
      "Ġinvoke": 8963,
      "original": 8964,
      "factory": 8965,
      "ara": 8966,
      "lam": 8967,
      "Xml": 8968,
      "Ġacting": 8969,
      "ĠAir": 8970,
      "Ġvanishing": 8971,
      "erial": 8972,
      "parts": 8973,
      "Ġyoung": 8974,
      "}}+": 8975,
      "addClass": 8976,
      "Ġderivation": 8977,
      "Ġdetermines": 8978,
      "Ġqueries": 8979,
      "ĠCall": 8980,
      "ja": 8981,
      "Gr": 8982,
      "Ġconclu": 8983,
      "tably": 8984,
      "$=": 8985,
      "Ġtruth": 8986,
      "Ġfactory": 8987,
      "Ġoutper": 8988,
      "LM": 8989,
      "Ġmechanisms": 8990,
      "Ġroute": 8991,
      "themes": 8992,
      "ĠSur": 8993,
      "evertheless": 8994,
      "Ġcoverage": 8995,
      "Ġcosmic": 8996,
      "Ġconcentration": 8997,
      "Ġrecorded": 8998,
      "fix": 8999,
      "ĠCP": 9000,
      "Ġseconds": 9001,
      "Adap": 9002,
      "Ġadmits": 9003,
      "Ġcycles": 9004,
      "Conf": 9005,
      "zen": 9006,
      "ĠFrench": 9007,
      "att": 9008,
      "Cho": 9009,
      "Us": 9010,
      "War": 9011,
      "ĠBr": 9012,
      "Framework": 9013,
      "autoref": 9014,
      "Ġhappens": 9015,
      "entication": 9016,
      "Ġtraffic": 9017,
      "press": 9018,
      "Ġdom": 9019,
      "enses": 9020,
      "Ġtimeout": 9021,
      "jections": 9022,
      "similar": 9023,
      "Msg": 9024,
      "Ġcorrelated": 9025,
      "Print": 9026,
      "Ġmagne": 9027,
      "printf": 9028,
      "ĠIII": 9029,
      "Ġanimation": 9030,
      "Ġrelaxation": 9031,
      "illing": 9032,
      "ĠRecall": 9033,
      "Ġinterpreted": 9034,
      "Ali": 9035,
      "Ġloaded": 9036,
      "tates": 9037,
      "commu": 9038,
      "Ġjus": 9039,
      "deriv": 9040,
      "ĠNext": 9041,
      "}(-": 9042,
      "repe": 9043,
      "Ġbriefly": 9044,
      "ĠImage": 9045,
      "ĠDen": 9046,
      "ĠMich": 9047,
      "ĠDO": 9048,
      "Fil": 9049,
      "FP": 9050,
      "metadata": 9051,
      "Ġcomment": 9052,
      "SG": 9053,
      "Ġdrawn": 9054,
      "Ġusage": 9055,
      "Ġmetallicity": 9056,
      "grade": 9057,
      "Ġtested": 9058,
      "hasOwnProperty": 9059,
      "was": 9060,
      "equival": 9061,
      "placement": 9062,
      "ĠSi": 9063,
      "hadoop": 9064,
      "ĠPark": 9065,
      "Ġfilename": 9066,
      "vironments": 9067,
      "Ġvilla": 9068,
      "access": 9069,
      "smooth": 9070,
      "Ġserved": 9071,
      "Ġcorrespondence": 9072,
      "Ġmetal": 9073,
      "Ġpoor": 9074,
      "Rece": 9075,
      "tian": 9076,
      "Flags": 9077,
      "Ġpermutation": 9078,
      "UID": 9079,
      "Ġgrant": 9080,
      "enable": 9081,
      "Ġconvenient": 9082,
      "written": 9083,
      "fx": 9084,
      "Ġunstable": 9085,
      "Ġintersect": 9086,
      "pu": 9087,
      "FILE": 9088,
      "Ġfilters": 9089,
      "Ġcorrectly": 9090,
      "Ġabelian": 9091,
      "Ġpresents": 9092,
      "Ġmini": 9093,
      "enabled": 9094,
      "ĠChampion": 9095,
      "Ġprice": 9096,
      "Ġseparately": 9097,
      "Feature": 9098,
      "formula": 9099,
      "ĠOnly": 9100,
      "pheric": 9101,
      "Ġalpha": 9102,
      "renewcommand": 9103,
      "101": 9104,
      "pb": 9105,
      "Ġmoduli": 9106,
      "rations": 9107,
      "Ġexplor": 9108,
      "Ġelectronic": 9109,
      "ĠAfric": 9110,
      "Ġillustrate": 9111,
      "COLOR": 9112,
      "ĠChris": 9113,
      "lescope": 9114,
      "ĠEast": 9115,
      "Microsoft": 9116,
      "Ġfoo": 9117,
      "unts": 9118,
      "Ġgran": 9119,
      "unic": 9120,
      "Ġnegligible": 9121,
      "Ġleave": 9122,
      "ĠUpdate": 9123,
      "Orig": 9124,
      "ota": 9125,
      "gramming": 9126,
      "ĠSim": 9127,
      "Ġreceive": 9128,
      "rupt": 9129,
      "Ġinsert": 9130,
      "Ġtrip": 9131,
      "Ġlayout": 9132,
      "1987": 9133,
      ">();": 9134,
      "compact": 9135,
      "Ġaveraged": 9136,
      "screen": 9137,
      "Ġeast": 9138,
      "ĠFurther": 9139,
      "ades": 9140,
      "vin": 9141,
      "chy": 9142,
      "Ġsymmetries": 9143,
      "Shared": 9144,
      "Flow": 9145,
      "Ġ){": 9146,
      "__)": 9147,
      "ĠWilli": 9148,
      "bad": 9149,
      "Ġformulas": 9150,
      "inity": 9151,
      "Ġfire": 9152,
      "protect": 9153,
      "Ġinfer": 9154,
      "ĠIP": 9155,
      "Ġcomments": 9156,
      "Ġimplements": 9157,
      "cepts": 9158,
      "Ġlost": 9159,
      "Ġcovering": 9160,
      "Ġprobe": 9161,
      "ued": 9162,
      "components": 9163,
      "Ġattacks": 9164,
      "interval": 9165,
      "Ġdeli": 9166,
      "gging": 9167,
      "aneous": 9168,
      "ĠCode": 9169,
      "createElement": 9170,
      "Ġmajority": 9171,
      "ä¸": 9172,
      ".'": 9173,
      "Post": 9174,
      "andra": 9175,
      "idx": 9176,
      "Ġmaster": 9177,
      "rong": 9178,
      "Ġconventional": 9179,
      "pending": 9180,
      "expan": 9181,
      "Ġlongit": 9182,
      "odd": 9183,
      "esides": 9184,
      "Ġsatellite": 9185,
      "groups": 9186,
      "Ġsouth": 9187,
      "ĠĠĠĠĠĠĠĠĠĠĠĠĠĠĠĠĠĠĠĠĠĠĠĠĠĠĠĠ": 9188,
      "ĉčĊ": 9189,
      "PORT": 9190,
      "Ġflags": 9191,
      "Ġsampled": 9192,
      "Ġinstability": 9193,
      "STM": 9194,
      "artifact": 9195,
      "orbit": 9196,
      "done": 9197,
      "Ġcreation": 9198,
      "Ġconsistency": 9199,
      "ye": 9200,
      "Ġencoder": 9201,
      "ĠLondon": 9202,
      "LINE": 9203,
      "ben": 9204,
      "Another": 9205,
      "variants": 9206,
      "listener": 9207,
      "Ġhighlight": 9208,
      "Ġrelativistic": 9209,
      "\"\"\"": 9210,
      "Ġmultiplication": 9211,
      "Ġclosure": 9212,
      "TED": 9213,
      "Ġrealistic": 9214,
      "ĠMil": 9215,
      ")/\\": 9216,
      "quote": 9217,
      "Ġanomal": 9218,
      "figs": 9219,
      "Ġenumer": 9220,
      "Grid": 9221,
      "transp": 9222,
      "}\"": 9223,
      "bors": 9224,
      "Identifier": 9225,
      "ĠSuper": 9226,
      "ĠTask": 9227,
      "tur": 9228,
      "ĠAL": 9229,
      "fc": 9230,
      "}}\\\\": 9231,
      "consistent": 9232,
      "Ġcircles": 9233,
      "aylor": 9234,
      "),(": 9235,
      "Ġrepresentative": 9236,
      "Ġcollect": 9237,
      "Ġinterference": 9238,
      "Ġcondens": 9239,
      "mutable": 9240,
      "}}-": 9241,
      "degree": 9242,
      "ularities": 9243,
      "ĠTR": 9244,
      "Star": 9245,
      "):=\\": 9246,
      "Ġwire": 9247,
      "Ġborn": 9248,
      "owski": 9249,
      "Classes": 9250,
      "gnition": 9251,
      "Ġextent": 9252,
      "'(\\": 9253,
      "rents": 9254,
      "Ġquas": 9255,
      "Ġasync": 9256,
      "assertEqual": 9257,
      "pq": 9258,
      "attributes": 9259,
      "Ġchecked": 9260,
      "Ġ\\#": 9261,
      "Ġdeterministic": 9262,
      "ĠAT": 9263,
      "1988": 9264,
      "ĠEuropean": 9265,
      "Ġheaders": 9266,
      "Ġseven": 9267,
      "]:": 9268,
      "Ġtab": 9269,
      "imed": 9270,
      "Ġaspects": 9271,
      "Ġsteady": 9272,
      "Interval": 9273,
      "Ġpapers": 9274,
      "}$;": 9275,
      "Ġclassifier": 9276,
      "Ġplatform": 9277,
      "600": 9278,
      "}}+\\": 9279,
      "ToString": 9280,
      "Ġsingularity": 9281,
      "Ġintroduction": 9282,
      "+|": 9283,
      "expand": 9284,
      "optimal": 9285,
      "ĠCollege": 9286,
      "olving": 9287,
      "corresponding": 9288,
      "Word": 9289,
      "Ġglob": 9290,
      "ĠkeV": 9291,
      "omenta": 9292,
      "Ġregularization": 9293,
      "Ðº": 9294,
      "Ġdotted": 9295,
      "ptions": 9296,
      "Member": 9297,
      "Ġdiameter": 9298,
      "Ġpassing": 9299,
      "ĠMed": 9300,
      "otent": 9301,
      "resolution": 9302,
      "nostic": 9303,
      "atorial": 9304,
      "Ã¶": 9305,
      "ĠStr": 9306,
      "Ġacces": 9307,
      "Ġsep": 9308,
      "Conver": 9309,
      "SN": 9310,
      "ĠSum": 9311,
      "actor": 9312,
      "parser": 9313,
      "Ġtangent": 9314,
      "Ġmathematical": 9315,
      "ĠEuler": 9316,
      "ĠService": 9317,
      "sal": 9318,
      "ny": 9319,
      "Ġ\\\\[": 9320,
      "ĉĠĠ": 9321,
      "Job": 9322,
      "Under": 9323,
      "coordinate": 9324,
      "gate": 9325,
      "ĠĠĠĠĠĠĠĠĠĠĠĠĠĠĠĠĠĠĠĠĠĠĠĠĠĠĠĠĠ": 9326,
      "ĠâĢľ": 9327,
      "Ġseem": 9328,
      "}$$": 9329,
      "Ġexcess": 9330,
      "]_": 9331,
      "Ġclosely": 9332,
      "Ġperforms": 9333,
      "ester": 9334,
      "ETH": 9335,
      "Ġadjust": 9336,
      "Ġreset": 9337,
      "Ġcolour": 9338,
      "titude": 9339,
      "ĠCSS": 9340,
      "NT": 9341,
      "ĠRad": 9342,
      "Native": 9343,
      "missible": 9344,
      "utf": 9345,
      "Ġgot": 9346,
      "[:": 9347,
      "ĠVersion": 9348,
      "Ġ```": 9349,
      "Ġcreating": 9350,
      "solution": 9351,
      "Ġshear": 9352,
      "Ġrights": 9353,
      "Ġ'\\": 9354,
      "Ġbad": 9355,
      "Ġhybrid": 9356,
      "perturb": 9357,
      "Ġcollabor": 9358,
      "ociation": 9359,
      ")<": 9360,
      "Ġgeodesic": 9361,
      "NC": 9362,
      "Ġexplanation": 9363,
      "Animation": 9364,
      "Ġcircuit": 9365,
      "Ġcohomology": 9366,
      "posable": 9367,
      "echn": 9368,
      "duration": 9369,
      "Ġcavity": 9370,
      "headers": 9371,
      "Ġruntime": 9372,
      "cancel": 9373,
      "Ġstudents": 9374,
      "SW": 9375,
      "Ġresponsible": 9376,
      "Ġanni": 9377,
      "Ġcombinations": 9378,
      "Ġdestroy": 9379,
      "abc": 9380,
      "frequency": 9381,
      "ĠJaco": 9382,
      "Ġmetadata": 9383,
      "Tests": 9384,
      "}{$": 9385,
      "GP": 9386,
      "Ġchoosing": 9387,
      "profile": 9388,
      "Show": 9389,
      "Ġ([": 9390,
      "aws": 9391,
      "Ġdie": 9392,
      "makebox": 9393,
      "MENT": 9394,
      "URI": 9395,
      "pod": 9396,
      "retch": 9397,
      "Ġtight": 9398,
      "Generic": 9399,
      "hole": 9400,
      "tivities": 9401,
      "BOO": 9402,
      "ociety": 9403,
      "Ġconsu": 9404,
      "ĠCr": 9405,
      "Ġtorus": 9406,
      "Ġcontrolled": 9407,
      "Pool": 9408,
      "ycle": 9409,
      "Ġtopic": 9410,
      "Si": 9411,
      "aux": 9412,
      "Ġfails": 9413,
      "relax": 9414,
      "Ġsometimes": 9415,
      "BF": 9416,
      "Tri": 9417,
      "outer": 9418,
      "Ġmatched": 9419,
      "Ġreceiver": 9420,
      "Ġcommit": 9421,
      "velope": 9422,
      "progress": 9423,
      "Ġcommonly": 9424,
      "subscri": 9425,
      "biggl": 9426,
      "ĠHall": 9427,
      "}]$": 9428,
      "iling": 9429,
      "wa": 9430,
      "()).": 9431,
      "Ġneur": 9432,
      "Ġprobably": 9433,
      "Ġ)$": 9434,
      "possi": 9435,
      "ĠOption": 9436,
      "addr": 9437,
      "Ġacceleration": 9438,
      "orest": 9439,
      "ĠIts": 9440,
      "Ġsci": 9441,
      "\\!\\!\\!\\!": 9442,
      "Ġmillion": 9443,
[...]
