{"[UNK]":0,"!":1,"\"":2,"#":3,"$":4,"%":5,"&":6,"'":7,"(":8,")":9,"*":10,"+":11,",":12,"-":13,".":14,"/":15,"0":16,"1":17,"2":18,"3":19,"4":20,"5":21,"6":22,"7":23,"8":24,"9":25,":":26,";":27,"<":28,"=":29,">":30,"?":31,"@":32,"A":33,"B":34,"C":35,"D":36,"E":37,"F":38,"G":39,"H":40,"I":41,"J":42,"K":43,"L":44,"M":45,"N":46,"O":47,"P":48,"Q":49,"R":50,"S":51,"T":52,"U":53,"V":54,"W":55,"X":56,"Y":57,"Z":58,"[":59,"\\":60,"]":61,"^":62,"_":63,"`":64,"a":65,"b":66,"c":67,"d":68,"e":69,"f":70,"g":71,"h":72,"i":73,"j":74,"k":75,"l":76,"m":77,"n":78,"o":79,"p":80,"q":81,"r":82,"s":83,"t":84,"u":85,"v":86,"w":87,"x":88,"y":89,"z":90,"{":91,"|":92,"}":93,"~":94,"¡":95,"¢":96,"£":97,"¤":98,"¥":99,"¦":100,"§":101,"¨":102,"©":103,"ª":104,"«":105,"¬":106,"®":107,"¯":108,"°":109,"±":110,"²":111,"³":112,"´":113,"µ":114,"¶":115,"·":116,"¸":117,"¹":118,"º":119,"»":120,"¼":121,"½":122,"¾":123,"¿":124,"Â":125,"Ã":126,"Ä":127,"Å":128,"Æ":129,"Ç":130,"È":131,"É":132,"Ê":133,"Ë":134,"Ì":135,"Í":136,"Î":137,"Ï":138,"Ð":139,"Ñ":140,"Ò":141,"Ó":142,"Ô":143,"Õ":144,"Ö":145,"×":146,"Ø":147,"Ù":148,"Ú":149,"Û":150,"Ü":151,"Ý":152,"Þ":153,"ß":154,"à":155,"á":156,"â":157,"ã":158,"ä":159,"å":160,"æ":161,"ç":162,"è":163,"é":164,"ê":165,"ë":166,"ì":167,"í":168,"î":169,"ï":170,"ð":171,"ó":172,"ô":173,"Ā":174,"ā":175,"Ă":176,"ă":177,"Ą":178,"ą":179,"Ć":180,"ć":181,"Ĉ":182,"ĉ":183,"Ċ":184,"ċ":185,"Č":186,"č":187,"Ď":188,"ď":189,"Đ":190,"đ":191,"Ē":192,"ē":193,"Ĕ":194,"ĕ":195,"Ė":196,"ė":197,"Ę":198,"ę":199,"Ě":200,"ě":201,"Ĝ":202,"ĝ":203,"Ğ":204,"ğ":205,"Ġ":206,"ġ":207,"Ģ":208,"ģ":209,"Ĥ":210,"ĥ":211,"Ħ":212,"ħ":213,"Ĩ":214,"ĩ":215,"Ī":216,"ī":217,"Ĭ":218,"ĭ":219,"Į":220,"į":221,"İ":222,"ı":223,"Ĳ":224,"ĳ":225,"Ĵ":226,"ĵ":227,"Ķ":228,"ķ":229,"ĸ":230,"Ĺ":231,"ĺ":232,"Ļ":233,"ļ":234,"Ľ":235,"ľ":236,"Ŀ":237,"ŀ":238,"Ł":239,"ł":240,"Ń":241,"ĠĠ":242,"th":243,"ĠĠĠĠ":244,"in":245,"on":246,"er":247,"Ġa":248,"Ġth":249,"ti":250,"re":251,"en":252,"Ġthe":253,"al":254,"or":255,"Ġs":256,"Ġ\\":257,"te":258,"is":259,"tion":260,"Ġc":261,"le":262,"Ġ$":263,"ar":264,"Ġo":265,"Ġf":266,"an":267,"es":268,"ma":269,"ĠĠĠ":270,"Ġt":271,"ro":272,"Ġw":273,"Ġp":274,"ĠĠĠĠĠĠĠĠ":275,"de":276,"Ġof":277,"Ġin":278,"ta":279,"Ġb":280,"ing":281,"Ġan":282,"se":283,"ra":284,"{\\":285,"ig":286,"la":287,"me":288,"ic":289,"Ġe":290,"at":291,"Ġand":292,"Ġd":293,"it":294,"ent":295,"Ġ(":296,"Ġre":297,"Ġto":298,"el":299,"st":300,"Ġn":301,"un":302,"ed":303,"_{":304,"Ġis":305,"ec":306,"si":307,"Ġ=":308,"ol":309,"ur":310,"ce":311,"mp":312,"qu":313,"Ġ$\\":314,"ch":315,"Ġh":316,"čĊ":317,"et":318,"Ġm":319,"Th":320,"lo":321,"tr":322,"ul":323,"math":324,"ation":325,"ĉĉ":326,"ĠĠĠĠĠĠĠ":327,"Ġfor":328,"as":329,"Ġv":330,"end":331,"if":332,"ly":333,"um":334,"ve":335,"Ġ&":336,"ter":337,"Ġ{":338,"ction":339,"ot":340,"}\\":341,"Ġg":342,"Ġcon":343,"il":344,"}$":345,"^{":346,"id":347,"be":348,"ith":349,"ite":350,"ĠĊ":351,"ge":352,");":353,"us":354,"ver":355,"ph":356,"ss":357,"Ġthat":358,"cal":359,"Ġco":360,"igh":361,"ted":362,"ut":363,"ĠS":364,"Ġon":365,"am":366,"The":367,"ref":368,"ct":369,"Ġ*":370,"ure":371,"gin":372,"Ġde":373,"}}":374,"xt":375,"Ġbe":376,"(\\":377,"ad":378,"ble":379,"Ġpro":380,"Ġwith":381,"ow":382,"ight":383,"Ġl":384,"ĠA":385,"Ġ}":386,"pp":387,"Ġwe":388,"begin":389,"--":390,"ĠC":391,"Ġwh":392,"im":393,"ĠĠĠĠĠĠĠĠĠĠĠ":394,"//":395,"ame":396,"rac":397,"Ġal":398,"In":399,"co":400,"ine":401,"_{\\":402,")$":403,"ts":404,"Ġma":405,"ub":406,"ir":407,"ere":408,"ft":409,"od":410,"Ġby":411,"sp":412,"ri":413,"20":414,"ate":415,"per":416,"to":417,"Ġas":418,"Ġthis":419,"Ġ<":420,"}{":421,"equ":422,"Ġare":423,"mb":424,"Ġex":425,"ue":426,"and":427,"ity":428,"frac":429,"},":430,"ĠF":431,"ck":432,"cite":433,"ode":434,"der":435,"di":436,"pe":437,"})":438,"ment":439,"right":440,"eq":441,"tic":442,"ĠM":443,"rom":444,"ĠThe":445,"bel":446,"ĠĠĠĠĠ":447,"text":448,"up":449,"ore":450,"unction":451,"ect":452,"da":453,"iz":454,"Ġi":455,"ase":456,"label":457,"ĠP":458,"tions":459,",\\":460,"mathb":461,"urn":462,"=\"":463,"Ġ-":464,"ĠL":465,"res":466,"ĠĠĠĠĠĠĠĠĠĠĠĠĠĠĠĠ":467,"Ġor":468,"par":469,"ran":470,"Ġif":471,"ĠB":472,"Ġ+":473,"ew":474,"$,":475,"ĠR":476,"left":477,"$.":478,"sion":479,"for":480,"rm":481,"ĠH":482,"ho":483,"int":484,"Ġat":485,"equation":486,"lu":487,"fig":488,"ĠT":489,"Ġfrom":490,"low":491,"Ġme":492,"om":493,"Ġ\"":494,"mathcal":495,"Ġit":496,"ĠD":497,"pa":498,"ys":499,"the":500,"ign":501,"ist":502,"}.":503,"ĠE":504,"turn":505,"ĠW":506,"**":507,"ĠI":508,"li":509,"</":510,"ff":511,"iv":512,"Ġfunction":513,"Ġcomp":514,"ĠN":515,"}(":516,"ess":517,"ty":518,"use":519,"00":520,"ich":521,"Ġcan":522,"()":523,"op":524,"und":525,"con":526,"Ġpar":527,"ĠG":528,"}^":529,"ga":530,"tial":531,"pro":532,"Ġsu":533,"Ġun":534,"all":535,"Ġ'":536,"}_":537,"~\\":538,"tive":539,"mu":540,"ener":541,"tri":542,"ence":543,"pha":544,"lass":545,"ome":546,"ke":547,"ds":548,"Ġsh":549,"line":550,"==":551,"alpha":552,"Ġob":553,"ave":554,"ap":555,"ther":556,"so":557,"dot":558,"du":559,"tim":560,")\\":561,"Ġpo":562,"ĠTh":563,"ach":564,"Ġst":565,"ary":566,"),":567,"psi":568,"Ġch":569,"fer":570,"ber":571,"ray":572,"til":573,"ser":574,"able":575,").":576,"are":577,"Ġse":578,"lic":579,"Ġsta":580,"ant":581,"ata":582,"Ġwhich":583,"est":584,"$\\":585,"ile":586,"19":587,"Ġle":588,"set":589,"bo":590,"alue":591,"mple":592,"odel":593,"po":594,"row":595,"ort":596,"ell":597,"Ġdis":598,"amma":599,"ult":600,"ari":601,"ĠIn":602,"cc":603,"bu":604,"ang":605,"ms":606,"_\\":607,"ĠĠĠĠĠĠĠĠĠĠĠĠĠĠĠ":608,"fin":609,"10":610,"str":611,"Ġnot":612,"tain":613,"Ġ//":614,"vi":615,"Ġreturn":616,"Ġres":617,"=\\":618,"gra":619,"ype":620,"----":621,"Ġhave":622,"get":623,"Ġ\\\\":624,"mathbb":625,"}_{":626,"Ġbo":627,"}^{":628,"igma":629,"ĠO":630,"age":631,"sub":632,"of":633,"ical":634,"Ġ@":635,"ab":636,"ers":637,"ĉĉĉĉ":638,"\">":639,"-\\":640,"Ġapp":641,"Ġsp":642,"Ġr":643,"oc":644,"lon":645,"clu":646,"times":647,"ance":648,"ill":649,"ens":650,"umber":651,"Ġ[":652,"^{\\":653,"phi":654,"Ġlo":655,"pi":656,"Ġset":657,"Ġ{\\":658,"Ġus":659,"Ġuse":660,"vel":661,"ding":662,"lamb":663,"fa":664,"ject":665,"lambda":666,"ex":667,"Ġexp":668,"ire":669,"..":670,"201":671,"iel":672,"Ġstr":673,"mo":674,"bf":675,"Ġne":676,"Ġk":677,"sum":678,"idth":679,"Ġqu":680,"ork":681,"Ġmodel":682,"ack":683,"ded":684,"cri":685,"Ġar":686,"our":687,"we":688,"time":689,"ces":690,"Ġclass":691,"mathbf":692,"Ġdata":693,"ies":694,"tes":695,"og":696,"ind":697,"ĠU":698,"ion":699,"act":700,"psilon":701,"Ġall":702,"ular":703,"var":704,"ents":705,"section":706,"Ġwas":707,"Ġ|":708,"lation":709,"ree":710,"Ġte":711,"sigma":712,"pt":713,"ak":714,"Ġinter":715,"ated":716,"wo":717,"ong":718,"ator":719,"Ġra":720,"Ġla":721,"put":722,"ag":723,"Ġ(\\":724,"tation":725,"Con":726,"^{-":727,"Ġhas":728,"bar":729,"ren":730,"ations":731,"align":732,"}{\\":733,"Ġshow":734,"hat":735,"beta":736,"ac":737,"ou":738,"tribu":739,"',":740,"tilde":741,"Ġy":742,"ay":743,"ial":744,"Ġ:":745,"Ġper":746,"lement":747,"Ġone":748,"err":749,"eta":750,"em":751,"Ġad":752,"ollow":753,"ide":754,"olu":755,"over":756,"ous":757,"Ġev":758,"app":759,"Ġ/":760,"->":761,"Ġno":762,"yste":763,"ps":764,"+\\":765,"array":766,"Ġmo":767,"del":768,"Ġpre":769,"mathrm":770,"this":771,"gamma":772,"Ġdif":773,"av":774,"\\\\":775,"*}":776,"no":777,"Ġequ":778,"Ġass":779,"ize":780,"sh":781,"ory":782,"Ġx":783,"theta":784,"item":785,"min":786,"Ġfollow":787,"ĠV":788,"xi":789,"\",":790,"orre":791,"rho":792,"ix":793,"))":794,"mm":795,"thod":796,"Ġtwo":797,"wh":798,"ample":799,"ting":800,"ule":801,"^\\":802,"ĠWe":803,"delta":804,"Ġj":805,"yn":806,"ard":807,"ĠK":808,"irst":809,"200":810,"uld":811,"ull":812,"width":813,"Ġnew":814,"Ġ*/":815,"]{":816,"ĠĠĠĠĠĠĠĠĠ":817,"ics":818,"Ġalso":819,"ĉĉĉ":820,"ties":821,"figure":822,"cent":823,"sition":824,"leq":825,"Ġgener":826,"sed":827,"ll":828,"tau":829,")}":830,"dots":831,"();":832,"cre":833,"Ġen":834,"Ġtran":835,"Ġsub":836,"Re":837,"ne":838,"ĠJ":839,"col":840,"12":841,"ield":842,"$-":843,"Ġop":844,"ection":845,"alu":846,"Ġpa":847,"Ġwill":848,"::":849,"We":850,"orm":851,"Ġdo":852,"}$,":853,"Ġsuch":854,"}$.":855,"Ġ_":856,"eng":857,"Ġvalue":858,"ual":859,"Ġimp":860,"big":861,"('":862,"Ġvar":863,"'s":864,"ature":865,"ameter":866,"roup":867,"Ġwhere":868,"lay":869,"Ġcont":870,"}(\\":871,"ark":872,"Ġdiffer":873,"form":874,"uct":875,"ors":876,"ip":877,"partial":878,"Ġcase":879,"eqref":880,"Ġcorre":881,"ht":882,"ace":883,"Ġ`":884,"Ġ.":885,"clude":886,"Ġtime":887,"nu":888,"(\"":889,"Ġtr":890,"Ġthere":891,"tical":892,"ĠThis":893,"Ġgiv":894,"Ġver":895,"Ġconst":896,"Ġrep":897,"Ġnumber":898,"mation":899,"Ġonly":900,"fty":901,"infty":902,"led":903,"name":904,"Ġbet":905,"graph":906,"ast":907,"Ġcol":908,"omega":909,"ystem":910,"dex":911,"Ġu":912,"Ġthen":913,"Ġeach":914,"table":915,"cap":916,"os":917,"Pro":918,"serv":919,"arrow":920,"Ġour":921,"eqn":922,"spon":923,"ption":924,"Ġph":925,"pend":926,"tit":927,"ength":928,"Ġdes":929,"ĠĠĠĠĠĠĠĠĠĠĠĠĠĠĠĠĠĠĠ":930,"out":931,"ults":932,"tab":933,"ced":934,"tex":935,"return":936,"Ġnon":937,"Ġout":938,"|\\":939,"Ġover":940,"ger":941,"Ġreg":942,"Del":943,"gh":944,"Ġspec":945,"ust":946,"ans":947,"Ġline":948,"ice":949,"own":950,"gle":951,"****":952,"ween":953,"Ġother":954,"Delta":955,"ise":956,"Ġname":957,"inal":958,"Ġro":959,"space":960,"param":961,"Ex":962,"imp":963,"tring":964,"Ġfirst":965,"ublic":966,"quad":967,"Ġerr":968,"Ġany":969,"dic":970,"--------":971,"ility":972,"ension":973,"dition":974,"Ġso":975,"Ġint":976,"art":977,"Ġ</":978,"ince":979,"ok":980,"\\,":981,"ish":982,"Ġspa":983,"def":984,"its":985,"ia":986,"Ġ!":987,"fore":988,"Ġbetween":989,"emp":990,"ord":991,"ud":992,"Name":993,"Ġvari":994,"one":995,"tric":996,"cdot":997,"sider":998,"Ġmethod":999,"Ġdefin":1000,"Ġ$(":1001,"Ġcur":1002,"ose":1003,"ula":1004,"====":1005,"sc":1006,"$$":1007,"fra":1008,")$.":1009,"11":1010,"Ġwhen":1011,"Ġusing":1012,"}}\\":1013,"}[":1014,"Ġext":1015,"Ġused":1016,"sf":1017,"type":1018,"Ġgiven":1019,"oid":1020,"ev":1021,"orem":1022,"olution":1023,"ob":1024,"ges":1025,"Ġtype":1026,"sta":1027,"sec":1028,"rt":1029,"eqnarray":1030,"sq":1031,"mall":1032,"Ġhe":1033,"fo":1034,"pm":1035,"Ġthan":1036,"key":1037,"gy":1038,"ulti":1039,"round":1040,"Ġz":1041,"Ġes":1042,"Ġgra":1043,"epsilon":1044,"ĠX":1045,"Ġbut":1046,"Ġstate":1047,"For":1048,"Ġthese":1049,"work":1050,"Co":1051,"Ġappro":1052,"Ġmore":1053,"ton":1054,"Ġparameter":1055,"center":1056,"ear":1057,"alues":1058,"Ġabo":1059,"ER":1060,"ization":1061,"rent":1062,"hi":1063,"Ġresult":1064,"Ġ>":1065,"olds":1066,"Ġorder":1067,"16":1068,"Ġsome":1069,"les":1070,"Ġtrans":1071,"include":1072,"rain":1073,"Ġel":1074,"ml":1075,"chi":1076,"Ġeff":1077,"Ġmod":1078,"}_{\\":1079,"Ġits":1080,"Ġsim":1081,"ink":1082,"ential":1083,"Ġrequ":1084,"tern":1085,"where":1086,"Ġhigh":1087,"alse":1088,"ased":1089,"Ġobtain":1090,"ĠFor":1091,"lec":1092,"._":1093,"Ġter":1094,"Ġget":1095,"div":1096,"Ġcal":1097,"mega":1098,"trix":1099,"Ġ)":1100,"ized":1101,"15":1102,"^*":1103,"18":1104,"Omega":1105,"cy":1106,"cess":1107,"he":1108,"Ġlar":1109,"ann":1110,"su":1111,"ves":1112,")$,":1113,"perator":1114,"sqrt":1115,"ssi":1116,"Ġ&&":1117,"exp":1118,"irc":1119,"data":1120,"Ġid":1121,"};":1122,"Ġconsider":1123,"Ġresults":1124,"val":1125,"back":1126,"Ġform":1127,"unt":1128,"wide":1129,"Gamma":1130,"ze":1131,"Ġpres":1132,"Ġrela":1133,"ĠFig":1134,"main":1135,"ever":1136,"ST":1137,"ymb":1138,"Ġup":1139,"eck":1140,"spec":1141,"Type":1142,"ian":1143,"lem":1144,"angle":1145,"ote":1146,"ymbol":1147,"ati":1148,"Ġsame":1149,"ond":1150,"sim":1151,"ĠĠĊ":1152,"Ġ${\\":1153,"comp":1154,"Ġfollowing":1155,"Ġac":1156,"tt":1157,"vare":1158,"ild":1159,"Ġpartic":1160,"lock":1161,"log":1162,"tif":1163,"umn":1164,"Ġinto":1165,"varepsilon":1166,"essage":1167,"Ch":1168,"Ġdifferent":1169,"Ġ||":1170,"To":1171,"subsection":1172,"Ġfield":1173,"^{(":1174,"ym":1175,"textbf":1176,"ext":1177,"13":1178,"âĢ":1179,"}=":1180,"Ġunder":1181,"Ġfact":1182,"IN":1183,"ected":1184,"gor":1185,"Ġpublic":1186,"elf":1187,"old":1188,"asure":1189,"vely":1190,"ied":1191,"ĠčĊ":1192,"String":1193,"ib":1194,"Ġ\\,":1195,"Ġwork":1196,"ax":1197,"rr":1198,"mat":1199,"ox":1200,"Ġchar":1201,"Ġtrue":1202,"Ġacc":1203,"ource":1204,"ases":1205,"ments":1206,"au":1207,"De":1208,"25":1209,"}^{\\":1210,")=":1211,"lect":1212,"graphics":1213,"try":1214,"rangle":1215,"son":1216,"Ġobserv":1217,"Ġelement":1218,"caption":1219,"ĠQ":1220,"pre":1221,"cm":1222,"Ġbeen":1223,"ates":1224,"function":1225,"dis":1226,"ici":1227,"Ob":1228,"cale":1229,"Ġtheir":1230,"includegraphics":1231,"Ġproper":1232,"ura":1233,"../":1234,"Ġrepres":1235,"energy":1236,"14":1237,"rightarrow":1238,"ĠY":1239,"Ġdistribu":1240,"ific":1241,"Ġanal":1242,"En":1243,"Ġsign":1244,"ĠRe":1245,"Res":1246,"ON":1247,"Ġself":1248,"')":1249,"fter":1250,"Ġbec":1251,"Ġcomple":1252,"non":1253,"mage":1254,"pri":1255,"bm":1256,"Ġdef":1257,"Ġspace":1258,"Ġsec":1259,"Ġmay":1260,"imension":1261,"Ġbound":1262,"red":1263,"Ġcorrespon":1264,"cript":1265,"Ġsystem":1266,"varphi":1267,"Ġnull":1268,"fault":1269,"sk":1270,"Ġstring":1271,"ound":1272,"lection":1273,"Ġden":1274,"Ġlow":1275,"Ġvalues":1276,"geq":1277,"Ġ#":1278,"umer":1279,"Ġman":1280,"];":1281,"Ar":1282,"Ġmeasure":1283,"lit":1284,"Ġgeneral":1285,"Ġdire":1286,"Ġwere":1287,".~\\":1288,"ucture":1289,"gs":1290,"ange":1291,"olog":1292,"ĠĠĠĠĠĠ":1293,"raw":1294,"ress":1295,"action":1296,"emph":1297,"ning":1298,"ormal":1299,"lan":1300,"ector":1301,".}":1302,"overline":1303,"sour":1304,"Ġelse":1305,"Ġpoint":1306,"],":1307,"Ġmass":1308,"&\\":1309,"yp":1310,"Sta":1311,"ert":1312,"ĠĠĠĠĠĠĠĠĠĠĠĠĠĠĠĠĠĠĠĠĠĠĠĠĠĠĠĠĠĠĠĠ":1313,"requ":1314,"owever":1315,"ath":1316,"frak":1317,"als":1318,"Ġser":1319,"ni":1320,"vec":1321,"RE":1322,"value":1323,"tively":1324,"Ġpol":1325,"Ġend":1326,"proof":1327,"gorith":1328,"Ġboth":1329,"che":1330,"AT":1331,"ĠIt":1332,"Ġgroup":1333,"sel":1334,"Ġ==":1335,"ons":1336,"face":1337,"size":1338,"Ġtest":1339,"ists":1340,"Ġfin":1341,"ling":1342,"Ġfalse":1343,"code":1344,"32":1345,")^":1346,"string":1347,"}).":1348,"ument":1349,"[\\":1350,"entation":1351,"new":1352,"jec":1353,"ery":1354,"ont":1355,"formation":1356,"Ġmin":1357,"Ġsee":1358,"Big":1359,"amb":1360,"ensure":1361,"},\\":1362,"arch":1363,"dd":1364,".,":1365,"Ġenergy":1366,"rou":1367,"Ġdescri":1368,"import":1369,"ved":1370,"Id":1371,"ĠCh":1372,"Ġesti":1373,"Ġfe":1374,"Ġprodu":1375,"mod":1376,"Ġsmall":1377,"stra":1378,"199":1379,"Ġcontain":1380,"read":1381,"class":1382,"arget":1383,"atch":1384,"ilar":1385,"itial":1386,"mathfrak":1387,"ime":1388,"Ġassu":1389,"Ġproble":1390,"hould":1391,"hline":1392,"etwork":1393,"tiv":1394,"17":1395,"Ġsupp":1396,"Ġ--":1397,"></":1398,"bra":1399,"Ġinte":1400,"com":1401,"Ġ,":1402,"Ġclo":1403,"stance":1404,"ten":1405,"ole":1406,"''":1407,"Ġstar":1408,"langle":1409,"ating":1410,"ci":1411,"ause":1412,"ick":1413,"Ġfra":1414,"see":1415,"bolds":1416,"iew":1417,"source":1418,"Data":1419,"man":1420,"SS":1421,"}}$":1422,"ensity":1423,"boldsymbol":1424,"ition":1425,"mber":1426,"Ġwell":1427,"Ġran":1428,"ĠIf":1429,"ception":1430,"pr":1431,"box":1432,"Ġcompu":1433,"ero":1434,"Ġmulti":1435,"100":1436,"__":1437,"Ġsing":1438,"Ġste":1439,"span":1440,"Ġlim":1441,"ldots":1442,"ymme":1443,"Ġdefined":1444,"file":1445,"ambda":1446,"Ġexample":1447,"Lambda":1448,"ĠZ":1449,"length":1450,"Ġli":1451,"ally":1452,"med":1453,"Ġprocess":1454,"ep":1455,"very":1456,"LE":1457,"ster":1458,"Phi":1459,"Ġerror":1460,"vers":1461,"Ġ/**":1462,"Ġdist":1463,"rit":1464,"Ġback":1465,"unc":1466,"pd":1467,"ash":1468,"):":1469,"Let":1470,"ames":1471,"ĠPro":1472,"appa":1473,"Ġsur":1474,"defin":1475,"ner":1476,"lim":1477,"Ġab":1478,"kappa":1479,"ass":1480,"List":1481,"ha":1482,"ader":1483,"AR":1484,"ences":1485,"Ġfollows":1486,"Ġpri":1487,"ality":1488,"Ġabove":1489,"Ġdepend":1490,"ry":1491,"max":1492,"des":1493,"Ġdisc":1494,"Ġtemp":1495,"ints":1496,"mbox":1497,"play":1498,"Ġ},":1499,"position":1500,"vari":1501,"Ġcomm":1502,"sty":1503,"citep":1504,"nab":1505,"otimes":1506,"This":1507,"');":1508,"22":1509,"ative":1510,"Value":1511,".\\":1512,"Ġlarge":1513,"mis":1514,"Ġstructure":1515,"Ġlocal":1516,"vent":1517,"Ġthey":1518,"Ġkn":1519,"St":1520,"Ġmat":1521,"lear":1522,"////":1523,"trans":1524,"orph":1525,"50":1526,"Ġmodels":1527,"ression":1528,"30":1529,"nabla":1530,"Ġshown":1531,"><":1532,"Ġsc":1533,"));":1534,"cur":1535,"ency":1536,"node":1537,"Ġ===":1538,"self":1539,"top":1540,"Ġsize":1541,"Ġpr":1542,"ines":1543,"bit":1544,"ynam":1545,"Ġobject":1546,"ĠĠĠĠĠĠĠĠĠĠĠĠĠ":1547,"ields":1548,"Ġcho":1549,"with":1550,"onent":1551,"html":1552,"Ġvoid":1553,"inter":1554,"test":1555,"gr":1556,"Ġwhile":1557,"ler":1558,"add":1559,"circ":1560,"})$":1561,"AL":1562,"style":1563,"ĠĠĠĠĠĠĠĠĠĠĠĠĠĠĠĠĠĠĠĠĠĠĠ":1564,"nonumber":1565,"Ġwo":1566,"($":1567,"Ġnode":1568,"cted":1569,"gorithm":1570,"order":1571,"textit":1572,"mate":1573,"ID":1574,"\\|":1575,"Ġmax":1576,"ste":1577,"ground":1578,"td":1579,"ensuremath":1580,"Ġmost":1581,"ive":1582,"********":1583,"Ġbu":1584,"ism":1585,"ision":1586,"late":1587,"rodu":1588,"depend":1589,"sing":1590,"An":1591,"OR":1592,"ability":1593,"Ġ:=":1594,"by":1595,"\\%":1596,"ey":1597,"ask":1598,"}),":1599,"Err":1600,"EN":1601,"://":1602,"perim":1603,"Ġradi":1604,"Ġshould":1605,"rite":1606,"Ġparameters":1607,"Ġcalc":1608,"Ġwould":1609,"ilter":1610,"}}{":1611,"ulation":1612,"ffici":1613,"ĠCo":1614,"Object":1615,"Ġrequire":1616,"âĢĵ":1617,"tom":1618,"Set":1619,"Ġdistribution":1620,"not":1621,"ross":1622,"ij":1623,"24":1624,"21":1625,"Ġ``":1626,"Ġq":1627,"Col":1628,"Ġcall":1629,"inu":1630,"Ġiden":1631,"lace":1632,"rol":1633,")(":1634,"ented":1635,"Ġregion":1636,"Par":1637,"Ġkey":1638,"ough":1639,"As":1640,"ically":1641,"Ġgo":1642,"ie":1643,"acter":1644,"Ġmag":1645,"Ġoperator":1646,"Ġsol":1647,"Ġsecond":1648,"By":1649,"ixed":1650,"tot":1651,"Sigma":1652,"px":1653,"que":1654,"\\[":1655,"Ġhand":1656,"cor":1657,"ĠCon":1658,"At":1659,"vious":1660,"Ġsection":1661,"ier":1662,"Ġsince":1663,"Ġthree":1664,"Ġtra":1665,"atisf":1666,"/\\":1667,"ower":1668,"Ġmatrix":1669,"Ġproblem":1670,"mark":1671,"Ġdoes":1672,"nt":1673,"Ġcurrent":1674,"\");":1675,"io":1676,"vice":1677,"Ġnetwork":1678,"Ġpossi":1679,"ui":1680,"Ġincre":1681,"comm":1682,"ern":1683,"color":1684,"cont":1685,"Ġcons":1686,"Ġ!=":1687,"Ġcent":1688,"oci":1689,"Ġ=>":1690,"vert":1691,"urther":1692,"Ġinclu":1693,"Ġed":1694,"Ġperform":1695,"less":1696,"SE":1697,"Ġder":1698,"\\!":1699,"stru":1700,"----------------":1701,"Ġgraph":1702,"rough":1703,"ven":1704,"Ġarg":1705,"].":1706,"py":1707,"Ġdeter":1708,"go":1709,"ict":1710,"Ġterms":1711,"erature":1712,"64":1713,"Ġdec":1714,"ĠAn":1715,"lob":1716,"Ġ($":1717,"lat":1718,"DE":1719,"========":1720,"widetilde":1721,"mon":1722,"uth":1723,"Ġlet":1724,"Ġtop":1725,"ĠThen":1726,"Ġfinal":1727,"../../":1728,"Ġcre":1729,"Ġfeature":1730,"Ġprob":1731,"Ġsample":1732,"ai":1733,"andom":1734,"Ġsimilar":1735,"Ġfunctions":1736,"Ġeffec":1737,"Ġinitial":1738,"message":1739,"Ġequation":1740,"Ġdensity":1741,"draw":1742,"Ġapproach":1743,"Ġsequ":1744,"amp":1745,"ĠAs":1746,"vate":1747,"uto":1748,"Ġreal":1749,"uch":1750,"mer":1751,"htt":1752,"Ġ?":1753,"let":1754,"ain":1755,"Element":1756,"Ġsatisf":1757,"ysis":1758,"Ġinput":1759,"Ġafter":1760,"/**":1761,"Ġobtained":1762,"prime":1763,"indow":1764,"uring":1765,"{-":1766,"ee":1767,"mary":1768,"Ġcom":1769,"##":1770,"Ġval":1771,"Ġpath":1772,"}-":1773,"tal":1774,"Ġmap":1775,"centering":1776,"Ġsuper":1777,"Ġfound":1778,"view":1779,"Ġbel":1780,"ody":1781,"roll":1782,"Ġhref":1783,"ified":1784,"ake":1785,"ared":1786,"ĉĉĉĉĉ":1787,"ift":1788,"Ġevery":1789,"ld":1790,"loc":1791,"ful":1792,"Ġsum":1793,"sitive":1794,"reak":1795,"Ġrespec":1796,"Ġcorresponding":1797,"Ġlinear":1798,"zeta":1799,"Ġbased":1800,"Ġhis":1801,"~~":1802,"struct":1803,"ĠDe":1804,"23":1805,"Ġallow":1806,"lient":1807,"Un":1808,"){":1809,"ost":1810,"Ġconn":1811,"Ġparticular":1812,"Fig":1813,"index":1814,"ays":1815,"Ġsolution":1816,"ently":1817,"Ġent":1818,"Ġscal":1819,"IT":1820,"ream":1821,"pper":1822,"Error":1823,"40":1824,"Ġ%":1825,"Ġmain":1826,"Ġlong":1827,"\\{":1828,"Ġnow":1829,"}+":1830,"matrix":1831,"Ġrefer":1832,"Ġpart":1833,"\\]":1834,"tabular":1835,"date":1836,"Ġevent":1837,"Ġ};":1838,"gebra":1839,"ving":1840,"istic":1841,"imum":1842,"\")":1843,"otential":1844,"Ġdi":1845,"ng":1846,"Ġredu":1847,"Ġtrain":1848,"Ġright":1849,"ĠEq":1850,"Ġpaper":1851,"Comp":1852,"Ġpredic":1853,"Ser":1854,"move":1855,"Ġneed":1856,")=\\":1857,"lack":1858,"ural":1859,"odes":1860,"emma":1861,"Ġvariable":1862,"Ġdete":1863,"Ġhy":1864,"Ġfinite":1865,"Ġexperim":1866,"perty":1867,"ese":1868,"Ġdiscus":1869,"Ġsingle":1870,"Ġ&=":1871,"Ġconstant":1872,"ĠLet":1873,"reg":1874,"verse":1875,"tations":1876,"Ġtyp":1877,"Ġthrough":1878,"Ġshows":1879,"prop":1880,"Ġoptim":1881,"Ġcondition":1882,"Ġfile":1883,"Ġarray":1884,"under":1885,"Class":1886,"Ġfa":1887,"map":1888,")}\\":1889,"Ġfind":1890,"AN":1891,"}=\\":1892,"Ġpoints":1893,"Ġflu":1894,"Ġcharacter":1895,"ov":1896,";\\":1897,"Ġapproxi":1898,"lish":1899,"ĠTheorem":1900,"Ġstud":1901,"Ġindex":1902,"Ġphase":1903,"Ġdimension":1904,"Ġindic":1905,"Ġabout":1906,"Ġlevel":1907,"Ġdue":1908,"udi":1909,"gram":1910,"Ġprovi":1911,"Ġinformation":1912,"Ġsource":1913,"Ġaction":1914,"Node":1915,"uration":1916,"war":1917,"mission":1918,"group":1919,"Ġag":1920,"Ġtheory":1921,"rack":1922,"Ġtak":1923,"Ġimport":1924,"call":1925,"Ġleft":1926,"Ġpropo":1927,"tice":1928,"ival":1929,"br":1930,"orts":1931,"Ġadd":1932,"CT":1933,"imple":1934,"Ġaddition":1935,"ness":1936,"{(":1937,"vid":1938,"erm":1939,"Ġspectr":1940,"Ġlength":1941,")^{":1942,"ush":1943,"omorph":1944,"Ġlead":1945,"ĠĠĠĠĠĠĠĠĠĠĠĠ":1946,"Ġcla":1947,"33":1948,"Po":1949,"totype":1950,"Ġ);":1951,"Ġbecause":1952,"ĠAl":1953,"Ġorig":1954,"He":1955,"Ġrespectively":1956,"/>":1957,"ctor":1958,"ward":1959,"ccess":1960,"$)":1961,"Ġcalcula":1962,"Ġvector":1963,"Ġrun":1964,"bed":1965,"80":1966,"Ġorg":1967,"tus":1968,"Ġstates":1969,"url":1970,"Key":1971,"Ġvery":1972,"path":1973,"lies":1974,"Ġtri":1975,"Ġmust":1976,"ene":1977,"ĠHowever":1978,"Ġsymme":1979,"Ġexist":1980,"Ġ});":1981,"++":1982,"Ġlimit":1983,"60":1984,"}]":1985,"Array":1986,"Ġpair":1987,"Exception":1988,"uc":1989,"apa":1990,"Ġoff":1991,"orted":1992,"Ġproof":1993,"Ġrange":1994,"andard":1995,"cdots":1996,"thm":1997,"Ġdefine":1998,"Bu":1999,"ffer":2000,"Ġ(!":2001,"\":":2002,"Event":2003,"gain":2004,"ĠThere":2005,"Lo":2006,"ins":2007,"Ġinstance":2008,"ication":2009,"annel":2010,"lot":2011,"Index":2012,"}|":2013,"000":2014,"Ġmultip":2015,"tity":2016,"antum":2017,"Ġpossible":2018,"ditions":2019,"Ġsyste":2020,"ense":2021,"Ġlist":2022,"}^\\":2023,".~":2024,"widehat":2025,"Get":2026,"mit":2027,"asi":2028,"75":2029,"Op":2030,"}_\\":2031,"Ġmatch":2032,"Cont":2033,"AM":2034,"Ġintrodu":2035,"45":2036,"Ġlear":2037,"Ġpotential":2038,"Ġstatic":2039,"Ġderiv":2040,"alax":2041,"Ġcontinu":2042,"Ġalgorithm":2043,"}\\,":2044,"qquad":2045,"Ġet":2046,"oth":2047,"State":2048,"base":2049,"Ġrandom":2050,"dependent":2051,"Ġuni":2052,"Ġthem":2053,"inc":2054,"Ġproperties":2055,"ternal":2056,"eps":2057,"Ġ/*":2058,"Ġanalysis":2059,"Ġclu":2060,"tribute":2061,"Time":2062,"pec":2063,"jects":2064,"lemma":2065,"Ġcomplex":2066,"ify":2067,"bility":2068,"Ġtarget":2069,"operator":2070,"...":2071,"\"/>":2072,"Ġdirect":2073,"ii":2074,"summary":2075,"ited":2076,"Al":2077,"Ġimage":2078,"}}(":2079,"On":2080,"spect":2081,"Me":2082,"ocument":2083,"mbin":2084,"Psi":2085,"script":2086,"Ġmethods":2087,"defined":2088,"Ġav":2089,"Ġoptions":2090,"Ġnormal":2091,"tail":2092,"title":2093,"Test":2094,"Ġeven":2095,"verage":2096,"Ġprevious":2097,"90":2098,"rc":2099,"Ġterm":2100,"Ġtotal":2101,"tyle":2102,"Ġcontext":2103,"})\\":2104,"textwidth":2105,"ĠSection":2106,"Ġlat":2107,"Ġzero":2108,"ology":2109,"Ġpe":2110,"Ġdynam":2111,"count":2112,"^+":2113,"().":2114,"const":2115,"&=":2116,"Ġconfig":2117,"Ġ\\{":2118,",-":2119,"ets":2120,"Ġpresent":2121,"':":2122,"Ġemp":2123,"ĠFigure":2124,"arent":2125,"load":2126,"Ġoper":2127,"module":2128,"ities":2129,"sert":2130,"Ġstudy":2131,"temp":2132,"cope":2133,"note":2134,"aus":2135,"OM":2136,"Ġassoci":2137,"Qu":2138,"ĠTo":2139,"Ġplay":2140,"Ġrate":2141,"{{\\":2142,"Ġbackground":2143,"';":2144,"cer":2145,"prototype":2146,"}^{(":2147,"ational":2148,"Ġdetermin":2149,"File":2150,"Ġdeg":2151,"aw":2152,"IC":2153,"Ġsequence":2154,"Ġcoup":2155,"lobal":2156,"mages":2157,"ĠUn":2158,"sequ":2159,"Ġexists":2160,"Ġmean":2161,"netic":2162,"Ġinv":2163,"ordin":2164,"model":2165,"ĠEx":2166,"tivity":2167,"pace":2168,"Ġconver":2169,"/*":2170,"which":2171,"ely":2172,"small":2173,"Ġstrong":2174,"appro":2175,"arg":2176,"27":2177,"Ġnil":2178,"Ġmodule":2179,"Ġwithin":2180,"lication":2181,"org":2182,"Requ":2183,"ĠLemma":2184,"Ġact":2185,"If":2186,"mula":2187,"Ġpower":2188,"99":2189,"ration":2190,"ices":2191,"lable":2192,"With":2193,"mathsf":2194,"Ġ///":2195,"Ġhere":2196,"jo":2197,"list":2198,"ually":2199,"ĉĊ":2200,"mid":2201,"Ġmany":2202,"cept":2203,"}\\\\":2204,")]":2205,"AS":2206,"iod":2207,"ants":2208,"uments":2209,"AC":2210,"AP":2211,"Ġtext":2212,"());":2213,"Ġwidth":2214,"Ġelec":2215,"Se":2216,"Ġcould":2217,"\";":2218,"05":2219,"ude":2220,"Ġlog":2221,"35":2222,"ched":2223,"Ġtemperature":2224,"aris":2225,"Ġcheck":2226,"ron":2227,"olean":2228,"Ġ$(\\":2229,"\"><":2230,"ug":2231,"Ġbase":2232,"LL":2233,"Ġprobability":2234,"medi":2235,"][":2236,"Ġhad":2237,"sive":2238,"options":2239,"Ġlower":2240,"ĠHe":2241,"tically":2242,"subset":2243,"Ġlast":2244,"lus":2245,"Ġgalax":2246,"ason":2247,"struction":2248,"Ġmon":2249,"other":2250,"ĠString":2251,"Ġlay":2252,"link":2253,"hen":2254,"side":2255,"Ġconditions":2256,"dimension":2257,"indent":2258,"Ġwor":2259,"Ġplan":2260,"28":2261,"ĠSt":2262,"It":2263,"tis":2264,"Int":2265,"Ġbeing":2266,"Ġocc":2267,"PE":2268,"(),":2269,"TE":2270,"ava":2271,"Ġref":2272,"pdf":2273,"Ġbas":2274,"Ġread":2275,"js":2276,"state":2277,"Ġelements":2278,"({\\":2279,"Ġquantum":2280,"Ġfixed":2281,"ape":2282,"2018":2283,"unded":2284,"Ġnext":2285,"ĉĠĠĠ":2286,"but":2287,"off":2288,"Equ":2289,"Of":2290,"198":2291,"scale":2292,"Ġsimp":2293,"reat":2294,"havi":2295,"Ġobserved":2296,"Ġfactor":2297,"effici":2298,"ances":2299,"ute":2300,"}:":2301,"cup":2302,"pos":2303,"ither":2304,"equiv":2305,"Ġge":2306,"urb":2307,"foot":2308,"Ġcode":2309,"ings":2310,"Le":2311,"citet":2312,"01":2313,".$":2314,"Ġloc":2315,"Ġcalled":2316,"Ġway":2317,"func":2318,"star":2319,"ache":2320,"Ġequival":2321,"Ġagain":2322,"Path":2323,"}+\\":2324,"af":2325,"sponse":2326,"Ġ&\\":2327,"Ġscale":2328,"ental":2329,"input":2330,"lected":2331,"from":2332,"cos":2333,"xspace":2334,"]$":2335,"tics":2336,"Ġblock":2337,"Ġframe":2338,"Ġsimple":2339,"Ġposition":2340,"Ġproperty":2341,"Ġassume":2342,"Ġpositive":2343,"onents":2344,"tron":2345,"Ġview":2346,"translation":2347,"Sh":2348,"Text":2349,"Ġthose":2350,"Ġperformance":2351,"26":2352,"field":2353,"Ġknown":2354,"2017":2355,"Ġremain":2356,"}}{\\":2357,"Ġversion":2358,"'$":2359,"|^":2360,"Ġbefore":2361,"imal":2362,"anel":2363,"Ġprivate":2364,"Ġsystems":2365,"Ġalgebra":2366,"Ġvis":2367,"point":2368,"velop":2369,"light":2370,"Ġhow":2371,"Ġinteraction":2372,"page":2373,"split":2374,"upp":2375,"onal":2376,"Ġoutput":2377,"Ġmake":2378,"bor":2379,"sin":2380,"wise":2381,"ottom":2382,"Ġcontrol":2383,"do":2384,"View":2385,"lin":2386,"operatorname":2387,"Ġthus":2388,"Ġequations":2389,"ĠAr":2390,"Ġidentif":2391,"hspace":2392,"mul":2393,"Ġtask":2394,"Ġwithout":2395,"Ġquan":2396,"olumn":2397,"ww":2398,"Ġstandard":2399,"ister":2400,"lying":2401,"Ġexpected":2402,"rid":2403,"Ġ-\\":2404,"TR":2405,"gg":2406,"Ġhigher":2407,"define":2408,"neq":2409,"lip":2410,"}-\\":2411,")-":2412,"Ġcirc":2413,"II":2414,"rop":2415,"footnote":2416,"Ġlines":2417,"Ġ__":2418,"Ġindu":2419,"Ġlink":2420,"rows":2421,"Ġphot":2422,"ĠBy":2423,"Ġabs":2424,"IM":2425,"display":2426,"Ġspin":2427,"enumer":2428,"Ġcontribu":2429,"['":2430,"Ġfour":2431,"licit":2432,"Ġtimes":2433,"Ġfrequ":2434,"Ġsignific":2435,"ML":2436,"(-":2437,"olutions":2438,"Ġdenote":2439,"ensor":2440,"Ġfields":2441,"den":2442,"pack":2443,"Ġimple":2444,"Ġhel":2445,"dag":2446,"Ġassociated":2447,"Ġalong":2448,"Ġsetting":2449,"2016":2450,"Ġbreak":2451,"lue":2452,"theorem":2453,"48":2454,")}{":2455,"default":2456,"ouble":2457,"noindent":2458,"lied":2459,"sian":2460,"element":2461,"Ġduring":2462,"Ġsto":2463,"ily":2464,"ĠOn":2465,"2019":2466,"multic":2467,"rep":2468,"nb":2469,"rate":2470,"tional":2471,"&&":2472,"cing":2473,"Ġevalu":2474,"http":2475,"Ġboundary":2476,"Ġcases":2477,"has":2478,"Ġcoun":2479,"cho":2480,"Ġphys":2481,"Ġvalid":2482,"valid":2483,"Ġbin":2484,"ssif":2485,"])":2486,"ures":2487,"ears":2488,"enumerate":2489,"ĠSince":2490,"scr":2491,"edge":2492,"ĠĠĠĠĠĠĠĠĠĠĠĠĠĠĠĠĠĠĠĠĠĠĠĠĠĠĠ":2493,"]\\":2494,"Ġproposed":2495,"land":2496,"Ġstudi":2497,"igned":2498,"Ġcross":2499,"fill":2500,"IS":2501,"Ġopen":2502,"Ġyou":2503,"Ġdistance":2504,"2015":2505,"alle":2506,"sets":2507,"variant":2508,"asing":2509,"ik":2510,"command":2511,"Rec":2512,"70":2513,"Ġdefault":2514,"multicolumn":2515,"eV":2516,"angu":2517,"ired":2518,"ED":2519,"Ġbehavi":2520,"From":2521,"Ġfurther":2522,"Ġsepar":2523,"attern":2524,"Ġuser":2525,"Ġvel":2526,"create":2527,"$}":2528,"29":2529,"member":2530,"////////":2531,"Ġsimula":2532,"System":2533,")}$":2534,"Ġtech":2535,"pping":2536,"Ġpop":2537,"\\,\\":2538,"Ġnumer":2539,"ĠĠĠĠĊ":2540,"Ġfit":2541,"Ġcombin":2542,"search":2543,"Ġconsist":2544,"ET":2545,"Ġdescribed":2546,"Ġcomponent":2547,"her":2548,"34":2549,".</":2550,"Ġbelow":2551,"Ġdiff":2552,"Info":2553,"vir":2554,"Dis":2555,"itemize":2556,"Ġanaly":2557,"dimensional":2558,"AB":2559,"Map":2560,"vspace":2561,"lev":2562,"Ġcontra":2563,"ĉĉĉĉĉĉ":2564,"cription":2565,"Ġtraining":2566,"core":2567,"omial":2568,"ording":2569,"igen":2570,"oo":2571,"Ġlabel":2572,"ocus":2573,"Ġrespect":2574,"{}":2575,"tio":2576,"iled":2577,"Ġchange":2578,"Ġstart":2579,"ken":2580,"Ġestima":2581,"Hand":2582,"object":2583,"check":2584,"amil":2585,"ĠThus":2586,"Ġclear":2587,"Ġ()":2588,"oll":2589,"till":2590,"``":2591,"ends":2592,"ailable":2593,"true":2594,"Ġchang":2595,"error":2596,"ams":2597,"Ġlike":2598,"LO":2599,"36":2600,"ocity":2601,"linear":2602,"CO":2603,"dt":2604,"method":2605,"Ġimplies":2606,"ological":2607,"Ġimportant":2608,"omin":2609,"Ġeffect":2610,"Size":2611,"ctions":2612,"ĠĠĠĠĠĠĠĠĠĠ":2613,"eturn":2614,"amespace":2615,"Ġdeno":2616,"Ite":2617,"yc":2618,"RO":2619,"Ġsignificant":2620,"xy":2621,"Ġexact":2622,"Ġke":2623,"Ġproduct":2624,"Ġ_{":2625,"Ġdomain":2626,"Ġdefinition":2627,"Ġcoeffici":2628,"Man":2629,"Ġexpression":2630,"tra":2631,"ĠSta":2632,"Exp":2633,"that":2634,"itor":2635,"Context":2636,"ages":2637,"ks":2638,"Ġedge":2639,"Or":2640,"ĠRes":2641,"olume":2642,"Ġsever":2643,"Ġsurface":2644,"ĠOb":2645,"Ġpla":2646,"Ġweight":2647,"gener":2648,"approx":2649,"Ġcomplete":2650,"UR":2651,"Ġformula":2652,"mathscr":2653,"ION":2654,"loat":2655,"}}_":2656,"ference":2657,"ager":2658,"95":2659,"Ġimpro":2660,"Code":2661,"wn":2662,"result":2663,"Ġwrit":2664,"Ġperiod":2665,"Ġfeatures":2666,"Ġsets":2667,"2014":2668,"Ġ!==":2669,"Ġdevelop":2670,"public":2671,"Ġ\\|":2672,"Ġcolor":2673,"Request":2674,"Ġoriginal":2675,"}}}":2676,"04":2677,"mag":2678,"normal":2679,"abled":2680,"Ġiter":2681,"())":2682,"underline":2683,"Ġstep":2684,"Ġeither":2685,"Ġaverage":2686,"\\}$":2687,"Ġconsidered":2688,"char":2689,"Ġdetail":2690,"mbed":2691,"lated":2692,"can":2693,"Ġnear":2694,"Pi":2695,"ES":2696,"Ġloss":2697,"Ġmoment":2698,"atter":2699,"nbsp":2700,"App":2701,"tices":2702,"Ġleast":2703,"Ġflow":2704,"Ġinf":2705,"ral":2706,"Config":2707,"AD":2708,"owled":2709,"vis":2710,"Ġassert":2711,"roid":2712,"Ġcoordin":2713,"multi":2714,"2020":2715,"Ġrepresentation":2716,"Ġfull":2717,"Ġchannel":2718,"Ġcontains":2719,"body":2720,"Ġfree":2721,"util":2722,"skip":2723,"ources":2724,"gative":2725,")+":2726,"stead":2727,"api":2728,"config":2729,"bb":2730,"head":2731,"Ġrelation":2732,"Ġunit":2733,"Ġdep":2734,"'t":2735,"65":2736,"38":2737,"Ġlarger":2738,"Ġgenerated":2739,"ready":2740,"rans":2741,"Ver":2742,"location":2743,"No":2744,"ĠNo":2745,"^-":2746,"arison":2747,"Ġcolumn":2748,"amily":2749,"mption":2750,"Ġmagnetic":2751,"Ġcar":2752,"resh":2753,"Ġband":2754,"Ġ/>":2755,"****************":2756,"Ġequal":2757,"iform":2758,"mooth":2759,"web":2760,"}/":2761,"Ġfil":2762,"height":2763,"gl":2764,"tainer":2765,"Ġauth":2766,"GL":2767,"Ġide":2768,"rary":2769,"void":2770,"based":2771,"~$":2772,"argin":2773,"sto":2774,"Ġlearning":2775,"ying":2776,"Model":2777,"Ġcoupling":2778,"trm":2779,"Ġconstrain":2780,"ĠThese":2781,"formed":2782,"0000":2783,"Inter":2784,"ln":2785,"Ġlight":2786,"Ġconf":2787,"2013":2788,"sw":2789,"Ġmuch":2790,"textrm":2791,"Ġsolutions":2792,"teq":2793,"chan":2794,"ended":2795,"ĠEn":2796,"ĠNew":2797,"Ġextra":2798,"08":2799,"finite":2800,"66":2801,"03":2802,"ĠAss":2803,"way":2804,"({":2805,"Ġtransition":2806,"sions":2807,"Ġclose":2808,"Ġprove":2809,"Ġcluster":2810,"Ġprovid":2811,"Ġsupport":2812,"Tr":2813,"event":2814,"ĠLe":2815,"clo":2816,"Ġgives":2817,"sen":2818,"Query":2819,"Ġtake":2820,"tag":2821,"block":2822,"02":2823,"iter":2824,"current":2825,"Ġvia":2826,"Ġindependent":2827,"ĠTable":2828,"Ġspectrum":2829,"ttp":2830,"Ġ\\;":2831,"anguage":2832,"Ġbi":2833,"Ġvariables":2834,"icon":2835,"}^{-":2836,"Ġweak":2837,"Ġseveral":2838,"tig":2839,"Ġmode":2840,"New":2841,"Ġhal":2842,"Be":2843,"Ġstill":2844,"((":2845,"Mo":2846,"']":2847,"Ġoccur":2848,"ync":2849,"CH":2850,"Ġrequired":2851,"There":2852,"Theta":2853,"hand":2854,"55":2855,"sl":2856,"Ġobjects":2857,"osition":2858,"ĉĠ":2859,"Ġclassif":2860,"rule":2861,"Ġintegra":2862,"Ġcallback":2863,"example":2864,"Ġholds":2865,"Ġrule":2866,"start":2867,"Ġestimate":2868,"Add":2869,"Ġcomponents":2870,"king":2871,"ĠâĢĵ":2872,"lete":2873,"FF":2874,"Ġtherefore":2875,"lector":2876,"Ġmeans":2877,"Ġwrite":2878,"Ġnote":2879,"Ġaround":2880,"Is":2881,"pher":2882,"png":2883,"Property":2884,"Ġhom":2885,"pon":2886,"assert":2887,"ways":2888,"Ġseries":2889,"seteq":2890,"pc":2891,"UT":2892,"Ġtable":2893,"lar":2894,"Ġcreate":2895,"Ġvelocity":2896,"Over":2897,"Ġcontent":2898,"44":2899,"prod":2900,"itch":2901,"ail":2902,"Since":2903,"ĠTherefore":2904,"CD":2905,"2012":2906,"mentation":2907,"ĠNote":2908,"ether":2909,"[]":2910,"Ġcell":2911,"}}_{":2912,"sm":2913,"ynomial":2914,"Ġ$\\{":2915,"pped":2916,"Ġachi":2917,"ride":2918,"Ġ$|":2919,"),\\":2920,"Ġear":2921,"Then":2922,"<\\":2923,"Com":2924,"Ġdiv":2925,"Ġinterest":2926,"Ġfla":2927,"gen":2928,"long":2929,"Ġless":2930,"ateg":2931,"Ġwave":2932,"tational":2933,"37":2934,"gence":2935,"Ġprovide":2936,"van":2937,"Des":2938,"oreover":2939,"Ġeigen":2940,"Ġnat":2941,"down":2942,"cheme":2943,"Ġrelated":2944,"ategory":2945,"06":2946,"Ġneu":2947,"Ġinst":2948,"07":2949,"ecess":2950,"2010":2951,"minus":2952,"bs":2953,"Ġgu":2954,"NN":2955,"Ġspecific":2956,"user":2957,"Ġwho":2958,"Ġgeome":2959,"Table":2960,"Ġevolution":2961,"dagger":2962,")|":2963,"Ġfilter":2964,"}'":2965,"ane":2966,"viron":2967,"ret":2968,"31":2969,"^{-\\":2970,"Ġstars":2971,"{$":2972,"kn":2973,"Ġside":2974,"Ġbest":2975,"olic":2976,"Group":2977,"Ġavailable":2978,"subseteq":2979,"Item":2980,"push":2981,"though":2982,"Ġintegr":2983,"Mod":2984,"39":2985,"PI":2986,"End":2987,"2011":2988,"Ġrelations":2989,"ible":2990,"Ġjo":2991,"matic":2992,"oot":2993,"texttt":2994,"Ġnodes":2995,"case":2996,"enu":2997,"Ġimages":2998,"Ġmaximum":2999,"Ġflux":3000,"cel":3001,"jective":3002,"\"\"":3003,"Ġeffective":3004,"Ġ($\\":3005,"inally":3006,"Ġtheorem":3007,"}},":3008,"Ġjust":3009,"_+":3010,"ession":3011,"net":3012,"IG":3013,"ustom":3014,"more":3015,"Ġenco":3016,"Ġresponse":3017,"my":3018,"Ġdown":3019,"ware":3020,"ric":3021,"Ġevents":3022,"flow":3023,"oriz":3024,"turb":3025,"por":3026,"most":3027,"ket":3028,"Ġincluding":3029,"Ġregular":3030,"ires":3031,"Ã©":3032,"Ġbuil":3033,"ĠApp":3034,"Ġaff":3035,"wedge":3036,"cr":3037,"reate":3038,"Ġspect":3039,"roller":3040,"local":3041,"Ġmade":3042,"AG":3043,"Out":3044,"Ġrece":3045,"Ġsearch":3046,"Ġrequest":3047,"Ġgau":3048,"Ġmetric":3049,"dif":3050,"Ġrelative":3051,"});":3052,"\\}":3053,"sitions":3054,"Ġauto":3055,"lugin":3056,"Ġblack":3057,"Ġratio":3058,"Ġinclude":3059,"ressed":3060,"norm":3061,"Ġmark":3062,"$_":3063,"Ġseen":3064,"Ġdifference":3065,"09":3066,"ars":3067,"oplus":3068,"doc":3069,"ymp":3070,"omorphism":3071,"Ġ$-":3072,"Ġemission":3073,"sible":3074,"================":3075,"Ġadditional":3076,"Ġcap":3077,"icro":3078,"NS":3079,"*{":3080,"197":3081,"PT":3082,"Ġsignal":3083,"ĠComp":3084,"Ġ]":3085,"enc":3086,"Ġmultiple":3087,"*/":3088,"like":3089,"tor":3090,"tition":3091,"Ġcannot":3092,"Ġglobal":3093,"nav":3094,"reen":3095,"ename":3096,"Ġreco":3097,"ring":3098,"empty":3099,"All":3100,"refer":3101,"CC":3102,"column":3103,"Ġax":3104,"lain":3105,"Tok":3106,"Ġcontinuous":3107,"linewidth":3108,"Service":3109,"conn":3110,"67":3111,"server":3112,"Ġgalaxies":3113,"Ġhyper":3114,"Note":3115,"Ġdirection":3116,"Ġprec":3117,"thes":3118,"mediate":3119,"2009":3120,"dient":3121,"ater":3122,"IR":3123,"riter":3124,"word":3125,"Ġpass":3126,"](":3127,"_{(":3128,"Ġupper":3129,"Ġamp":3130,"PS":3131,"Options":3132,"ĠĠĠĊ":3133,"Ġeffects":3134,"setminus":3135,"Ġsyn":3136,"Ġheight":3137,"bug":3138,"omes":3139,"AA":3140,"Ġim":3141,"Ġeffici":3142,"Ġalready":3143,"ba":3144,"Ġintern":3145,"lations":3146,"ters":3147,"Ġpolynomial":3148,"ino":3149,"ople":3150,"ĠGL":3151,"Ġspe":3152,"Ġmechan":3153,"Ġcri":3154,"child":3155,"Ġho":3156,"site":3157,"Ġdia":3158,"Ġgive":3159,"ferences":3160,"49":3161,"loy":3162,"bin":3163,"Ġequivalent":3164,"Ġpanel":3165,"meric":3166,"ogle":3167,"context":3168,"limits":3169,"hn":3170,"dire":3171,"\\'":3172,"ides":3173,"ĠSet":3174,"Ġwhat":3175,"Ġcompared":3176,"Ġroot":3177,"omen":3178,"ernel":3179,"Ġsymmetry":3180,"sup":3181,"Ġshort":3182,"Ass":3183,"Ġ$[":3184,"Call":3185,"OS":3186,"Field":3187,"Ġprovided":3188,"Ġdegree":3189,"68":3190,"tablish":3191,"ged":3192,"ĠAt":3193,"ender":3194,"Ġbasis":3195,"ĠAd":3196,"izes":3197,"_{{\\":3198,"Ġrestr":3199,"Ġfrequency":3200,"2008":3201,"apache":3202,"Ġ(-":3203,"stack":3204,"ĠSh":3205,"racy":3206,"Ġnecess":3207,"_*":3208,"Val":3209,"Function":3210,"Ġ}\\":3211,"Method":3212,"Ġoperators":3213,"part":3214,"Ġobservations":3215,"Sec":3216,"Ġrecent":3217,"Ġvertex":3218,"mi":3219,"ĠGet":3220,"izing":3221,"Reg":3222,"Ġsmooth":3223,"igger":3224,"divid":3225,"Ġ+=":3226,"Ġconstruct":3227,"Ġinequ":3228,"Ġgauge":3229,"active":3230,"ĠSo":3231,"Ġarguments":3232,"Ġstatis":3233,"allel":3234,"Ġnoise":3235,"aving":3236,"parameter":3237,"\"></":3238,"iven":3239,"Ġbounded":3240,"false":3241,"Ġexec":3242,"Ġpresented":3243,")\\,":3244,"Ġgas":3245,"icture":3246,"Ġapplied":3247,"deed":3248,"jection":3249,"){\\":3250,"corre":3251,"Ġexplicit":3252,"Sub":3253,"mand":3254,"Color":3255,"image":3256,"Ġcenter":3257,"jor":3258,"version":3259,"Ġcurve":3260,"len":3261,"abs":3262,"ollary":3263,"uture":3264,"ird":3265,"47":3266,"ior":3267,"Ġwhether":3268,"Ġdataset":3269,"amilton":3270,")/":3271,"Ġturn":3272,"uting":3273,"values":3274,"ns":3275,"number":3276,"Ġcer":3277,"Ġwindow":3278,"Count":3279,"ectors":3280,"idget":3281,"https":3282,"ponse":3283,"Bo":3284,"Ġangle":3285,"ale":3286,"Ġexpan":3287,"MA":3288,"fs":3289,"Vert":3290,"Ġapproximation":3291,"Ġprim":3292,"Ġprofile":3293,"Input":3294,"Ġbehavior":3295,"Fra":3296,"Ġbetter":3297,"Ġembed":3298,"subfigure":3299,"quare":3300,"Ġchild":3301,"ĠPar":3302,"Ġmis":3303,"Ġstyle":3304,"Ġtitle":3305,"definition":3306,"Ġatta":3307,"serve":3308,"Ġvarious":3309,"_{-":3310,"orth":3311,"duct":3312,"85":3313,"bigg":3314,"Ġbro":3315,"Ġcommon":3316,"bound":3317,"tual":3318,"Ġhence":3319,"md":3320,"Ġdecre":3321,"kip":3322,"obj":3323,"Ġhowever":3324,"fact":3325,"Ġmedi":3326,"ULL":3327,"uracy":3328,"ĠSec":3329,"city":3330,"mes":3331,"SU":3332,"HT":3333,"kes":3334,"button":3335,"Ġcyc":3336,")}(":3337,"Ġextension":3338,"Ġsmaller":3339,"level":3340,"ef":3341,"lap":3342,"}%":3343,"target":3344,"rees":3345,"Ġmessage":3346,"Ġanother":3347,"Ġlater":3348,"Ġlayer":3349,"OT":3350,"eff":3351,"Message":3352,"Ġuncer":3353,"gment":3354,"Ġappear":3355,"incip":3356,"llar":3357,"$(":3358,"enari":3359,"Ġinstead":3360,"'\\":3361,"Ġinvol":3362,"ticle":3363,"Ġher":3364,"OD":3365,",\\,":3366,"Ġinves":3367,"Token":3368,"Ġam":3369,"ention":3370,"Ġparticle":3371,"=(":3372,"Ġwhose":3373,"Ġtypes":3374,"Ad":3375,"Ġ|\\":3376,"Ġthrow":3377,"ropy":3378,"La":3379,"tative":3380,"MS":3381,"--------------------------------":3382,"2007":3383,"owledge":3384,"98":3385,"match":3386,"las":3387,"Ġclosed":3388,"Ġquanti":3389,"Ġremo":3390,"ĠUni":3391,"versity":3392,"Ext":3393,"bul":3394,"cep":3395,"Ġsuffici":3396,"ctive":3397,"ging":3398,"gether":3399,"Ġrepresent":3400,"Ġradius":3401,"Ġreason":3402,"ĠĠĠĠĠĠĠĠĠĠĠĠĠĠĠĠĠ":3403,"Ġalways":3404,"Ġgroups":3405,"wards":3406,"FT":3407,"static":3408,":\\":3409,"aligned":3410,"ĠProposition":3411,"Ġtechni":3412,"References":3413,"iction":3414,"tings":3415,"Ġsw":3416,"Ġfew":3417,"Ġparticles":3418,"Ġnumerical":3419,"Ġdesign":3420,"Ġgood":3421,"Ġbool":3422,"any":3423,"Ġapply":3424,"change":3425,"db":3426,"ump":3427,"pag":3428,"Ġunique":3429,"Ġspecial":3430,"remove":3431,"Ġcommun":3432,"Ġsuccess":3433,"ball":3434,"'_":3435,"aussian":3436,"Ġinterval":3437,"leg":3438,"known":3439,"coun":3440,"Ġestablish":3441,"Ġuniform":3442,"Ġscatter":3443,"returns":3444,"Ġcor":3445,"property":3446,"Ġitem":3447,"Ġtree":3448,"./":3449,"colon":3450,"run":3451,"}}(\\":3452,"Ġ+\\":3453,"Ġurl":3454,"Ġexpect":3455,"Ġoptimal":3456,"dro":3457,"vironment":3458,"Sp":3459,"Ġdynamics":3460,"Ġfig":3461,"\\\"":3462,"2006":3463,"Number":3464,"Ġdetermined":3465,"stit":3466,"append":3467,"={":3468,"Ġdiscre":3469,"Ġmomentum":3470,"Client":3471,"Ġregions":3472,"Ġbecomes":3473,"range":3474,"Ġspectral":3475,"ĠReturn":3476,"Ġsatisfies":3477,"Ġsimulations":3478,"UN":3479,"lice":3480,"Ġtransp":3481,")_{":3482,"=-":3483,"ture":3484,"ilder":3485,"Ġdocument":3486,"zero":3487,"Eq":3488,"ade":3489,"\\!\\!":3490,"Ġquery":3491,"next":3492,"Ġdetails":3493,"Ġreach":3494,"Ġshe":3495,"rel":3496,"dividual":3497,"Ġchoice":3498,"96":3499,"first":3500,"Ġarea":3501,"lick":3502,"ING":3503,"comple":3504,"Ġ$.":3505,"Response":3506,"Ġamplit":3507,"Ġdirectly":3508,"istory":3509,"Ġsources":3510,"meq":3511,"Ġvertices":3512,"ĉĠĠĠĠĠĠĠ":3513,"Ġmatter":3514,"Ġpattern":3515,"perp":3516,"Ġarbit":3517,"Ġnatural":3518,"content":3519,"black":3520,"Ġ&=&":3521,"Ġil":3522,"older":3523,"stand":3524,"Ġcollection":3525,"Ġspecified":3526,"EX":3527,"Ġ~":3528,"97":3529,"Ġ<<":3530,"query":3531,"forall":3532,"Ġcost":3533,"Ġelectron":3534,"ĠCol":3535,"Ġneigh":3536,"}$-":3537,"chema":3538,"using":3539,"Ġallows":3540,"illi":3541,"nit":3542,"opy":3543,"Ġti":3544,"super":3545,"ait":3546,"Ġfamily":3547,"Ġcompute":3548,"Line":3549,"bt":3550,"DF":3551,"Spec":3552,"='":3553,"Ġdouble":3554,"ĠÐ":3555,"CL":3556,"simeq":3557,"ris":3558,"Ġaccording":3559,"soft":3560,"Ġconnected":3561,"ympto":3562,"Ġpeak":3563,"Ġdecay":3564,"EE":3565,"Ġargument":3566,"ories":3567,"ife":3568,"Ġplot":3569,"izer":3570,"++)":3571,"Ġmaps":3572,"terial":3573,"scri":3574,"Ġperturb":3575,"orage":3576,"cl":3577,"hood":3578,"mar":3579,"]);":3580,"urity":3581,"Ġundefined":3582,"Ġcompact":3583,"Ġreference":3584,"subsubsection":3585,"ENT":3586,"parse":3587,"Ġlattice":3588,"ranch":3589,"forms":3590,"lications":3591,"ung":3592,"Ġdiscussed":3593,"tocol":3594,"Ġques":3595,")^{\\":3596,"Trans":3597,"Ġsamples":3598,"Ġscalar":3599,"info":3600,"ĠĠĠĠĠĠĠĠĠĠĠĠĠĠ":3601,"tage":3602,"dap":3603,"Net":3604,"Ġmer":3605,"Ġ\\(":3606,"88":3607,"ĠHence":3608,"Supp":3609,")^{-":3610,"Ġtaken":3611,".~(\\":3612,"Ġcorresponds":3613,"filter":3614,"remark":3615,"radi":3616,"Ġphysical":3617,"lustra":3618,"Ġprote":3619,"Ġconstruction":3620,"Ġupdate":3621,"ĠPo":3622,"Ġexperiments":3623,"Ġconfiguration":3624,"Ġnuc":3625,"Child":3626,"write":3627,"parent":3628,"OO":3629,"ived":3630,"Ġneutr":3631,"Ġclassical":3632,"Ġred":3633,"ĠMe":3634,"Ġconstraints":3635,"42":3636,"{$\\":3637,"css":3638,"Ġir":3639,"cket":3640,"auth":3641,"Ġvir":3642,"dim":3643,"Pr":3644,"Ġaccount":3645,"US":3646,"aries":3647,"Ġderived":3648,"Ġdone":3649,"Ġscheme":3650,"aves":3651,"bottom":3652,"46":3653,"Ġframework":3654,"Ġpack":3655,"ilities":3656,"Manager":3657,"$^{-":3658,"Result":3659,"cell":3660,"ĠRo":3661,"Image":3662,"Log":3663,"Ġrow":3664,"Ġwritten":3665,"null":3666,"ety":3667,"Fact":3668,"Ġfocus":3669,"Ġlaw":3670,"mine":3671,"2005":3672,"Status":3673,"tle":3674,"Width":3675,"ATE":3676,"And":3677,"anish":3678,"ĠLo":3679,"Ġdomin":3680,"ah":3681,"Ref":3682,"newcommand":3683,"ending":3684,"Ġexplo":3685,"monstra":3686,"57":3687,"Ġlik":3688,"tran":3689,"Attribute":3690,"Ġmeasured":3691,"Ġproced":3692,"}^*":3693,"ithub":3694,"Pre":3695,"Ġground":3696,"Fe":3697,"Ġplace":3698,"Ġmanif":3699,"gular":3700,"textsc":3701,"merican":3702,"Ġtensor":3703,"Ġnegative":3704,"dx":3705,"([":3706,"Ġloop":3707,"attr":3708,"Ġcomparison":3709,"port":3710,"Style":3711,"Ġresulting":3712,"SP":3713,"ĠWhen":3714,"amiltonian":3715,"SO":3716,"Ġborder":3717,"$).":3718,"uk":3719,"Ġcritical":3720,"adding":3721,"cases":3722,"ĠMo":3723,"Ġerrors":3724,"^{+":3725,"Ġcoefficients":3726,"Ġprovides":3727,"Ġspatial":3728,"Ġfraction":3729,"Ġlit":3730,"cond":3731,"Ġaccuracy":3732,"Ġchanges":3733,"Cell":3734,"ators":3735,"Ġinternal":3736,"Ġdisplay":3737,"Ġstrate":3738,"Stream":3739,"Ġcontribution":3740,"Ġ{};":3741,"Per":3742,"Ġchain":3743,"Ġedges":3744,"Off":3745,"perties":3746,"Ġdecomp":3747,")}{\\":3748,"ques":3749,"Ġmargin":3750,"2021":3751,"trices":3752,"LT":3753,"Ġobj":3754,"$$\\":3755,"Ġassumption":3756,"rem":3757,"last":3758,"Ġagainst":3759,"thing":3760,"User":3761,"Ġcorrelation":3762,"Ġmeasurements":3763,"cat":3764,"MC":3765,"process":3766,"SI":3767,"Ġcentral":3768,"43":3769,"Ġenough":3770,"SC":3771,"idence":3772,"eded":3773,"Ġnumbers":3774,"ses":3775,"Now":3776,"Ġindividual":3777,"Ġcorrect":3778,"tributes":3779,"Ġtrack":3780,"dir":3781,"Date":3782,"Ġscenari":3783,"Dec":3784,"Ġapproximate":3785,"Ġcertain":3786,"Ġpur":3787,"Ġ((":3788,"Ġinvariant":3789,"Ġstruct":3790,"Ġcalculated":3791,"Ġ=\\":3792,"Ġparent":3793,"Base":3794,"ested":3795,"ĠWh":3796,"!--":3797,"bits":3798,"Ġtry":3799,"Ð°":3800,"Ġyears":3801,"gorithms":3802,"Ġfail":3803,"Ġclasses":3804,"frame":3805,"Ġinequality":3806,"Ġdemonstra":3807,"undle":3808,"Ġlook":3809,"gies":3810,"ols":3811,"Not":3812,"supp":3813,"pmatrix":3814,")\\\\":3815,"lease":3816,"lash":3817,"Handler":3818,"}}^":3819,"87":3820,"cast":3821,"Gener":3822,"umin":3823,"Ġimprove":3824,"Ġeasi":3825,"Ġvolume":3826,"Ġcorrespond":3827,"ĠCar":3828,"Ġminimum":3829,"idden":3830,"Ġintegral":3831,")_":3832,"ĠAll":3833,"Ġsen":3834,"require":3835,"Ġlen":3836,"Ġperformed":3837,"ĠBo":3838,"bullet":3839,"vex":3840,"2000":3841,"Source":3842,"github":3843,"items":3844,"Ġintroduced":3845,"})$.":3846,"cop":3847,"exports":3848,"dist":3849,"Ġprior":3850,"Ġinfinite":3851,"earch":3852,"Ġdistributions":3853,"entations":3854,"Ġconven":3855,"fe":3856,"Parameter":3857,"mory":3858,"Ġproblems":3859,"HE":3860,"gine":3861,"Ġplane":3862,"ĠĠĠĠĠĠĠĠĠĠĠĠĠĠĠĠĠĠĠĠĠĠĠĠĠĠĠĠĠĠĠ":3863,"Ġmotion":3864,"2004":3865,"Ġ$$":3866,"typ":3867,"orn":3868,"\\|_{":3869,"Ġspectra":3870,"Ġmight":3871,"iti":3872,"inte":3873,"Ġdenotes":3874,"Ġsimulation":3875,"Ġtheore":3876,"lor":3877,"acc":3878,"Ph":3879,"open":3880,"entif":3881,"lib":3882,"Ġsymmetric":3883,"olute":3884,"Arg":3885,"then":3886,"Ġincreasing":3887,"ĠRec":3888,"Ð¾":3889,"Ġrest":3890,"Ġcomputed":3891,"Ġpolar":3892,"Ġutil":3893,"ĠSystem":3894,"|_{":3895,"Ġsoft":3896,"Default":3897,"gn":3898,"Ġprincip":3899,"Ġfar":3900,"tx":3901,"Ġpartial":3902,"pol":3903,"para":3904,"Equal":3905,"Ġtogether":3906,"vity":3907,"Ġcurves":3908,"Here":3909,"Ġdescribe":3910,"Util":3911,"Ġrather":3912,"Ġorbit":3913,"reshold":3914,"usion":3915,"####":3916,"Ġdri":3917,"ification":3918,"levant":3919,"ĠMoreover":3920,"(_":3921,"opt":3922,"encies":3923,"inf":3924,"az":3925,"mations":3926,"cs":3927,"Ġstrict":3928,")$-":3929,"ĠJo":3930,"sequence":3931,"Ed":3932,"Ġconsistent":3933,"oper":3934,"Ġ;":3935,"ised":3936,"ilib":3937,"Ġhttp":3938,"urthermore":3939,"imilar":3940,"ashed":3941,"bi":3942,"Ġgreat":3943,"Resource":3944,"olve":3945,"Ġaddress":3946,"PC":3947,"vices":3948,"Ġrole":3949,"Ġsplit":3950,"Ġlinks":3951,"=\"../../":3952,"Ġbegin":3953,"Instance":3954,"isms":3955,"rag":3956,"endix":3957,"Ġdependence":3958,"lang":3959,"Ġsupported":3960,"ests":3961,"lt":3962,"One":3963,"ĠPh":3964,"Format":3965,"\\_":3966,"Ġincrease":3967,"dsh":3968,"Ġoperation":3969,"romise":3970,"Run":3971,"Ġboolean":3972,"ĠObject":3973,"Ġillustra":3974,"www":3975,"77":3976,"Ġtransform":3977,"Ġnetworks":3978,"arp":3979,"refix":3980,"roduction":3981,"ixel":3982,"package":3983,"Ġinterpre":3984,"ished":3985,"Ġdepends":3986,"~$\\":3987,"ĠCom":3988,"aly":3989,"tik":3990,"Ġdescription":3991,"gress":3992,"Ġjava":3993,"Next":3994,"JS":3995,"odot":3996,"hip":3997,"Ġcover":3998,"only":3999,"Figure":4000,">(":4001,"Ġsrc":4002,"CE":4003,"mma":4004,"Ġuntil":4005,"}}^{":4006,"Ġdual":4007,"meta":4008,"ASS":4009,"Ġselected":4010,"Ġdisk":4011,"Ġdetection":4012,"Row":4013,"Ġleads":4014,"mini":4015,"Block":4016,"client":4017,"Ġchosen":4018,"orld":4019,"ution":4020,"Ġhelp":4021,"~~~~":4022,"Ġsk":4023,"sters":4024,"ls":4025,"ĠGaussian":4026,"Ġdiag":4027,"Ġmatrices":4028,"Ġachiev":4029,"'}":4030,"56":4031,"Thus":4032,"init":4033,"Ġmagnit":4034,"aded":4035,"Ġapplication":4036,"Ġful":4037,"uation":4038,"Listener":4039,"Ġresearch":4040,"ERT":4041,"ĠOne":4042,"font":4043,"json":4044,"Content":4045,"redu":4046,"Ġworks":4047,"PR":4048,"Ġinteger":4049,"Ġstudied":4050,"Ġmodes":4051,"Ġsay":4052,"Ġexpansion":4053,"Ġsite":4054,"ĠNULL":4055,"Ġexperimental":4056,"dings":4057,"rowser":4058,"displaystyle":4059,"Ġenti":4060,"Length":4061,"select":4062,"fit":4063,"proposition":4064,"used":4065,"mic":4066,"gges":4067,"uter":4068,"mbers":4069,"ĠHere":4070,"mapsto":4071,"phere":4072,"Ġbox":4073,"arily":4074,"omorphic":4075,"Ġstd":4076,"reed":4077,"ords":4078,"{{":4079,"mc":4080,"find":4081,"Ġkernel":4082,"Ġformat":4083,"update":4084,"break":4085,"Ġargs":4086,"loor":4087,"IP":4088,"Ġreturns":4089,"Theorem":4090,"Case":4091,"Ġstellar":4092,"Ġdetermine":4093,"Ġexplain":4094,"icense":4095,"ptr":4096,"Ġ[]":4097,"Ġfuture":4098,"$;":4099,"Ġalgorithms":4100,"Lay":4101,"alog":4102,"Ġarbitrary":4103,"Ġamo":4104,"free":4105,"Ġamong":4106,"Component":4107,"Ðµ":4108,"Ġprocedure":4109,"_-":4110,"ros":4111,"Ġgrow":4112,"Ġselection":4113,"isted":4114,"41":4115,"Buffer":4116,"\\{\\":4117,"deg":4118,"ables":4119,"itect":4120,"Ġpairs":4121,"UI":4122,"ilibri":4123,"\".":4124,"andid":4125,"Ġable":4126,"bert":4127,"Ġsit":4128,"Ġangular":4129,"fn":4130,"ani":4131,"ĠDis":4132,"ublish":4133,"structed":4134,"Ġpeople":4135,"Ġinterface":4136,"58":4137,"ĠTest":4138,"Ġreduced":4139,"So":4140,"Ġsolid":4141,"ple":4142,"Bar":4143,"Ġuseful":4144,"Ġmove":4145,"foo":4146,"elper":4147,"request":4148,"Gra":4149,"pdate":4150,"Ġload":4151,"Ġins":4152,"Filter":4153,"ker":4154,"FI":4155,"Ġasympto":4156,"Ġshape":4157,"Ġrepresents":4158,"Ġcompare":4159,"ĠRef":4160,"Ġhoriz":4161,"hbar":4162,"Box":4163,"YPE":4164,"uler":4165,"gt":4166,"$~":4167,"enti":4168,"Ġsubset":4169,"Ġprac":4170,"scope":4171,"Ġtw":4172,"Ġyields":4173,"'(":4174,"cord":4175,"Ġpolic":4176,"SD":4177,"Ġdraw":4178,"Ġcapa":4179,"ĠFe":4180,"cle":4181,"Ġintroduce":4182,"osed":4183,":\"":4184,"grams":4185,"Ġdoc":4186,"Ġwords":4187,"ĠReg":4188,"Ġhard":4189,"Ġtransfer":4190,"Ġaxis":4191,"Ġpopulation":4192,"description":4193,"Ġexamples":4194,"Ġresi":4195,"Ġarch":4196,"Ġmaterial":4197,"Ġpost":4198,"han":4199,"ĠHamiltonian":4200,"DB":4201,"rl":4202,"Ġresolution":4203,"Ġdiagram":4204,"ĠWith":4205,"Ġrequires":4206,"Ġhead":4207,"private":4208,"Our":4209,"Override":4210,"Ġbinary":4211,"Ġfore":4212,"cks":4213,"Ġchoose":4214,"host":4215,"Ġknow":4216,"auto":4217,"Ġspaces":4218,"ury":4219,"Ġquad":4220,"Ġcharacteristic":4221,"ograph":4222,"Meta":4223,"Ġminim":4224,"hy":4225,"offset":4226,"cd":4227,"Ġagree":4228,"Ġinner":4229,"ĉĠĠĠĠĠĠĠĠĠĠĠ":4230,"Ġnecessary":4231,")+\\":4232,"}&":4233,"unit":4234,"Ġpage":4235,"First":4236,"Ġacross":4237,"ceed":4238,"Imp":4239,"PP":4240,"Ġoften":4241,"Ġold":4242,"dle":4243,"Ġlocation":4244,"else":4245,"num":4246,"However":4247,"Ġleading":4248,"69":4249,"LS":4250,"option":4251,"Ġcoordinates":4252,")},":4253,"ions":4254,"EM":4255,"Ġtakes":4256,"tikz":4257,"Builder":4258,"alt":4259,"bold":4260,"Cur":4261,"clusion":4262,"Ġorigin":4263,"2003":4264,"Ġformation":4265,"Ġcharge":4266,"reng":4267,"vector":4268,"Ġpers":4269,"}({\\":4270,"Ġuses":4271,"Ġgalaxy":4272,"ĠSer":4273,"Ġstudies":4274,"Ġalmost":4275,"CK":4276,"ĠThey":4277,"UE":4278,"na":4279,"rap":4280,"Ġinvestig":4281,"tate":4282,"tries":4283,"ĠUniversity":4284,"hbox":4285,"Ġren":4286,"Ġsugges":4287,"ously":4288,"Ġtag":4289,"Ġrank":4290,"ali":4291,"Ġprocesses":4292,"Ġgenerate":4293,"ĠIs":4294,"[(":4295,"Ġaccess":4296,"print":4297,"ĉĉĉĉĉĉĉĉ":4298,"Ġremove":4299,"Ġthird":4300,"Ġoffset":4301,"mt":4302,"namespace":4303,"Ġconvergence":4304,"Ġstructures":4305,"Ġactive":4306,"Ġconnection":4307,"Ġexperiment":4308,"Ġ-->":4309,"aring":4310,"mpty":4311,"pres":4312,"ĠOur":4313,"&=&":4314,"Ġlanguage":4315,"Frame":4316,"Âł":4317,"Ġvectors":4318,"eve":4319,"Ġuns":4320,"seud":4321,"stream":4322,"results":4323,"outh":4324,"Ġ${":4325,"minipage":4326,"zed":4327,"blue":4328,"asy":4329,"imin":4330,"ampling":4331,"Ġquark":4332,"})$,":4333,"Ġcount":4334,"ries":4335,"google":4336,"ili":4337,"Ġpress":4338,"Ġunderstand":4339,"sg":4340,")-\\":4341,"Collection":4342,"picture":4343,"ĠFrom":4344,"Ġcopy":4345,"ilibrium":4346,"root":4347,")}_{":4348,"Ġstream":4349,"Ġsimply":4350,"Height":4351,"But":4352,"Ġcomputation":4353,"MM":4354,"tin":4355,"joint":4356,"Ġsymbol":4357,"Ġvanish":4358,"src":4359,"Ġincluded":4360,"creen":4361,"}}$,":4362,"ially":4363,"////////////////":4364,"Ġcoll":4365,"Ġparts":4366,"args":4367,"ored":4368,"}}$.":4369,"Version":4370,"CP":4371,"Ġenvironment":4372,"Ġpresence":4373,"after":4374,"raint":4375,"ths":4376,"Ġadj":4377,"Ġobserve":4378,"Ġuint":4379,"Ġlatter":4380,"Ġown":4381,"air":4382,"Ġincreases":4383,"Ġcosm":4384,"format":4385,"ek":4386,"ably":4387,"sol":4388,"ĠIN":4389,"Ġpas":4390,"Ġextended":4391,"}{|":4392,"Start":4393,"lines":4394,"))$":4395,"finition":4396,"Window":4397,"Ġdifferential":4398,"Ġrecon":4399,"Ġdiffic":4400,"ĠSch":4401,"Ġmeta":4402,"Ġestimates":4403,"produ":4404,"Ġmeasurement":4405,"ley":4406,"Ġconstraint":4407,"Ġextends":4408,"ĠTr":4409,"Ġmajor":4410,"Ġservice":4411,"mass":4412,"ypes":4413,"day":4414,"typeof":4415,"Ġfund":4416,"Ġ{@":4417,"}$)":4418,"Ġpropag":4419,"ideo":4420,"ands":4421,"onential":4422,"_.":4423,"scil":4424,"Ġscattering":4425,"sem":4426,"cf":4427,"lier":4428,"structure":4429,"ĠLi":4430,"Ġhalf":4431,"Ġcontaining":4432,"inner":4433,"Ġpul":4434,"Ġcut":4435,"rup":4436,"variance":4437,"thesis":4438,"TD":4439,"Point":4440,")--":4441,"Ġselect":4442,"Ġlemma":4443,"Ġinteractions":4444,"mented":4445,"NR":4446,"kit":4447,"Ġfigure":4448,"Right":4449,"Ġmention":4450,"Ġempty":4451,"ĠList":4452,"59":4453,"Ġneeded":4454,"$),":4455,"float":4456,"sities":4457,"Ġeasily":4458,"Ġproject":4459,"SM":4460,"Ġbecome":4461,"Ġtor":4462,"Ġsatisfy":4463,"ĉĠĠĠĠĠ":4464,"algebra":4465,"pose":4466,"fla":4467,"stract":4468,"Ġbody":4469,"ume":4470,"Ġspeed":4471,"500":4472,"Ġoptical":4473,"cccc":4474,"Ġmorph":4475,"symme":4476,"Ġcore":4477,"ĠBe":4478,"Ġmemory":4479,"Sc":4480,"Json":4481,"Str":4482,"Wh":4483,"show":4484,"TH":4485,"Ġapproaches":4486,"Ġtaking":4487,"Ġanalog":4488,"Ġredsh":4489,"Ġcr":4490,"89":4491,"Ġsense":4492,"Ġadded":4493,"Ġfast":4494,"versal":4495,"86":4496,"ĠReturns":4497,"zz":4498,"').":4499,"Ġ$|\\":4500,"Ġinteresting":4501,"endif":4502,"prec":4503,"FA":4504,"ĠSe":4505,"Ġstra":4506,"Ġidentity":4507,"vas":4508,"Ġatten":4509,":(":4510,"sor":4511,"Tag":4512,"ĠData":4513,"Ġtransformation":4514,"54":4515,"Ġhaving":4516,"Ġexactly":4517,"Ġrelevant":4518,"Ġmasses":4519,"Ġyour":4520,"}{(":4521,"chool":4522,"Ġnotation":4523,"52":4524,"overn":4525,"Ġbounds":4526,"Char":4527,"floor":4528,"Ġresource":4529,"cla":4530,"LP":4531,"expected":4532,"bust":4533,"Ġexistence":4534,"layer":4535,"Ġstable":4536,"urate":4537,"tax":4538,"sur":4539,"Ġoscil":4540,"Ġopp":4541,"xml":4542,"Ġbranch":4543,"uman":4544,"icity":4545,":}":4546,"lide":4547,">>":4548,"}\\,\\":4549,"container":4550,"cong":4551,"Ġamplitude":4552,"sole":4553,"ĠCor":4554,"Ġcategory":4555,"63":4556,"tact":4557,"high":4558,"51":4559,"uations":4560,"Ġclient":4561,"plan":4562,"ĠFirst":4563,"Ġ^":4564,"eler":4565,"'),":4566,"bot":4567,"Ġsteps":4568,"Ġensure":4569,"inty":4570,"header":4571,"2002":4572,"Ġassumed":4573,"Ġret":4574,"ising":4575,"Ġgap":4576,"cref":4577,"Ġestimated":4578,"Ġrepla":4579,"bl":4580,"window":4581,"Read":4582,"era":4583,"Ġalign":4584,"Ġconv":4585,"Ġprogram":4586,",\\\\":4587,"book":4588,"Ġrender":4589,"Ġaut":4590,"Ġstreng":4591,"Ġwant":4592,"Ġclassification":4593,"Ġhost":4594,"mail":4595,"Equals":4596,")}}":4597,"osite":4598,"une":4599,"Ġfix":4600,"tainty":4601,"alg":4602,"Ġhold":4603,"eneous":4604,"CS":4605,"Ġproduction":4606,"Ġmid":4607,"Ġcreated":4608,"Offset":4609,"Ġquestion":4610,"strong":4611,"onical":4612,"Ġforce":4613,"Ġaltern":4614,"tree":4615,"lesssim":4616,"Check":4617,"ditional":4618,"Ġess":4619,"Null":4620,"Ġblue":4621,"URL":4622,"Ġotherwise":4623,"Ġcircle":4624,"ony":4625,"iver":4626,"Ġdid":4627,"Conn":4628,"Ġearly":4629,":=":4630,"2001":4631,"Ne":4632,"gments":4633,"ĠII":4634,",$":4635,"TP":4636,".\"":4637,"Introduction":4638,"Ġserver":4639,"ĠAmerican":4640,"uary":4641,"Range":4642,"Ð¸":4643,"Ġ->":4644,"dep":4645,"Ġtherm":4646,"Ġgradient":4647,"ighted":4648,"ecause":4649,"Top":4650,"Ġtoo":4651,"Hz":4652,"CON":4653,"esti":4654,"Therefore":4655,"Factory":4656,"ina":4657,"ategor":4658,"Ġcandid":4659,"Ġconsists":4660,"ube":4661,"ante":4662,"Ġpartition":4663,"fil":4664,"ĉĉĊ":4665,"Ġprediction":4666,"Ġreson":4667,"-$":4668,"Ġinduced":4669,"Up":4670,"||":4671,"ĠSupp":4672,";&":4673,"ĠType":4674,"pts":4675,"dom":4676,"Ġgraphs":4677,"Ġdeep":4678,"Web":4679,"gers":4680,"semb":4681,"ĠCan":4682,"ench":4683,"Ġfactors":4684,"va":4685,"Ġoptimization":4686,"OP":4687,"External":4688,"Ġwide":4689,"mode":4690,"Ġconclude":4691,"---":4692,"Cache":4693,"Create":4694,"Ġentire":4695,"ERR":4696,"Ġfluct":4697,"ĠArray":4698,"Ġfi":4699,"\"]":4700,"Ġdevi":4701,"vider":4702,"Ġsignificantly":4703,"53":4704,"ital":4705,"Ev":4706,"inct":4707,"Ġmagnitude":4708,"Ġcalculation":4709,"priate":4710,"Page":4711,"Ġpixel":4712,"instance":4713,"Ġlearn":4714,"status":4715,"Ġorgan":4716,"faces":4717,"Ġcalculations":4718,"params":4719,"Max":4720,"Ġdate":4721,"Ġgrid":4722,"$_{":4723,"rapper":4724,"bigl":4725,"Ġvirtual":4726,"Valid":4727,"ontal":4728,"Ġdiscuss":4729,"Ġapplications":4730,"Ġremains":4731,"system":4732,"images":4733,"sign":4734,"Action":4735,"RL":4736,"Ġmakes":4737,"Ġdark":4738,"Def":4739,"inary":4740,"Sto":4741,"ĠĠĠĠĠĠĠĠĊ":4742,"background":4743,"aged":4744,"PL":4745,"ĉĉĉĉĉĉĉ":4746,"Ġclusters":4747,"Ġabsor":4748,"Ġ[\\":4749,"Ac":4750,"Ġcause":4751,"Ġ^{":4752,"Container":4753,"AME":4754,"Ġbar":4755,"vo":4756,"place":4757,"âĢĻ":4758,"78":4759,"Ġhar":4760,"ried":4761,"ynamic":4762,"Ġbelong":4763,"ĠErr":4764,"62":4765,"btn":4766,"^*$":4767,"Ġori":4768,"itz":4769,"Ġarchitect":4770,"Ġexisting":4771,"Label":4772,"Ġ[];":4773,"bes":4774,"\").":4775,"Ġthreshold":4776,"92":4777,"Ġscaling":4778,"ĠâĢ":4779,"backs":4780,"vey":4781,"tfrac":4782,"SL":4783,"sect":4784,"Ġbottom":4785,"Ġmolec":4786,"94":4787,"bigr":4788,"duc":4789,"afe":4790,"Ġcontributions":4791,"93":4792,"Module":4793,"Ġtemplate":4794,"Ġ>=":4795,"Ġonce":4796,"rief":4797,"ĠSub":4798,"Ġinside":4799,"fi":4800,"Ġmy":4801,"output":4802,"Ġamount":4803,"Ġabsolute":4804,"lex":4805,"Ġreview":4806,"Ġsubgroup":4807,"IF":4808,"GC":4809,"Match":4810,"Ġexcept":4811,"ĠSee":4812,"(&":4813,"Ġ{$":4814,"php":4815,"Ġdeta":4816,"$:":4817,"Ġsettings":4818,"rela":4819,"Ġreported":4820,"ĠOr":4821,"inue":4822,"NO":4823,"Can":4824,"Output":4825,"Ġsent":4826,"Ġque":4827,"Li":4828,"ÑĤ":4829,"Ġgeometry":4830,"Ġ\\!":4831,"gu":4832,"template":4833,"Ġdeco":4834,"ĠQu":4835,"Task":4836,">&":4837,"eli":4838,"Ġproduced":4839,"Ġobservation":4840,"Ġword":4841,"=\"+":4842,"When":4843,"Ġstrategy":4844,"amental":4845,"Ġregime":4846,"ĠMath":4847,"Ġmet":4848,"Ġlarg":4849,"Ġtasks":4850,"IL":4851,"ĠHT":4852,"Ġitself":4853,"eter":4854,"Ġfully":4855,"dr":4856,"ingu":4857,"ĠCal":4858,"]$.":4859,"ank":4860,"yl":4861,"ĠOp":4862,"Using":4863,"Ġdimensions":4864,"]}":4865,"Ġconvex":4866,"she":4867,"Ġadap":4868,"Ġscope":4869,"Ġener":4870,"Ġones":4871,"xx":4872,"Ġstatus":4873,"Ġcontrast":4874,"Ġdistributed":4875,"Ġavoid":4876,"berg":4877,"mathop":4878,"sequently":4879,"anti":4880,"CM":4881,"each":4882,"Ġslight":4883,"avy":4884,"ĠSte":4885,"tability":4886,"unk":4887,"roy":4888,"Ġbeam":4889,"scal":4890,"Ġgame":4891,"two":4892,"roug":4893,"Ġhandle":4894,"ĠNe":4895,"jected":4896,"apply":4897,"iral":4898,"Ġentropy":4899,"Ġprotected":4900,"\\}$.":4901,"Ġcoefficient":4902,"uming":4903,"1000":4904,"chas":4905,"Mode":4906,"Ġsingular":4907,"Ġimplementation":4908,"dual":4909,"\\;":4910,"Ġdenoted":4911,"det":4912,"Ġthick":4913,"ĠUnited":4914,"Ġtrivi":4915,"Ġ{}":4916,"PRO":4917,"Ġcalculate":4918,"Ġnone":4919,"))\\":4920,"Ġpressure":4921,"Ġplayers":4922,"band":4923,"Ġrotation":4924,"stein":4925,"Ġrates":4926,"olved":4927,"Ġdest":4928,"ĠSp":4929,"Ġdetect":4930,"Ġsquare":4931,"alk":4932,"Ġanno":4933,"Ġcour":4934,"Finally":4935,"ĠGener":4936,"pg":4937,"Ġclaim":4938,"84":4939,"Ġminimal":4940,"tains":4941,",{\\":4942,"Ġthermal":4943,"Ġ\"\"\"":4944,"ects":4945,"Ġknowledge":4946,"vature":4947,"Ġcoordinate":4948,"True":4949,"Ġflat":4950,"Ġpreser":4951,"Ġtheoretical":4952,"ometry":4953,"Ġwar":4954,"osity":4955,"Ġshift":4956,"Ġexponential":4957,"conf":4958,"Interface":4959,"post":4960,"...,":4961,"iota":4962,"SR":4963,"CR":4964,"ckn":4965,"Ġmix":4966,"Ġbul":4967,"}}_{\\":4968,"Ġcounter":4969,"Ġkine":4970,"Types":4971,"Ġmechanism":4972,"triv":4973,"Ġhash":4974,"Ġpure":4975,"Ġformal":4976,"Ġdiscrete":4977,"Ġbuffer":4978,"rant":4979,"72":4980,"ĠDec":4981,"replace":4982,"Ġscales":4983,"matically":4984,"dfrac":4985,"java":4986,"Ġshall":4987,"onds":4988,"Ġsho":4989,"join":4990,"Ġmes":4991,"ratic":4992,"Section":4993,"ocation":4994,"Ġeasy":4995,"Ġpolicy":4996,"Ġimmediate":4997,"Ġhypo":4998,"See":4999,"Ġessential":5000,"Target":5001,"Su":5002,"FR":5003,"bind":5004,"\"),":5005,"ises":5006,"response":5007,"$&":5008,"Clo":5009,"udes":5010,"uli":5011,"illa":5012,"mulation":5013,"adow":5014,"Ġion":5015,"render":5016,"Ġappropriate":5017,"Ġseparate":5018,"INT":5019,"build":5020,"Ġorth":5021,"Ġyear":5022,"ĠID":5023,"IV":5024,"})}":5025,"alth":5026,"Back":5027,"Ġbasic":5028,"Ġlayers":5029,"cons":5030,"Ġcatch":5031,"Ġdepth":5032,"Ġindicates":5033,"loop":5034,"ĠGra":5035,"ĠMa":5036,"Ġdeveloped":5037,"Ġstation":5038,"icted":5039,"Ġatom":5040,"Ġrepe":5041,"Ġcollision":5042,"Url":5043,"vee":5044,"Ġtraject":5045,"Ġ\\]":5046,"ĠDo":5047,"Ġparallel":5048,"Link":5049,"buf":5050,"Ġthrows":5051,"[\"":5052,"Ġuncertainty":5053,"ĠPre":5054,"Ġdatasets":5055,"Ġusers":5056,"Left":5057,"Ġinverse":5058,"gated":5059,"][]{":5060,"Ġanti":5061,"step":5062,"}[\\":5063,"]$,":5064,"patch":5065,"iggs":5066,"mitted":5067,"Ġput":5068,"DM":5069,"${\\":5070,"grid":5071,"rs":5072,"}})":5073,"Ġimpact":5074,"ĠMon":5075,"Ġbit":5076,"Ġdiscussion":5077,"Ġinc":5078,"ider":5079,"Ġ\\&":5080,"clear":5081,"Column":5082,"forward":5083,"?:":5084,"Ġnucle":5085,"$};":5086,"Each":5087,"Ġhim":5088,"ĠNational":5089,"lots":5090,"brace":5091,"Ġtechniques":5092,"oto":5093,"ometric":5094,"Ġauthors":5095,"Ġadvan":5096,"ium":5097,"chron":5098,"tification":5099,"longrightarrow":5100,"cover":5101,"ĠFinally":5102,"ux":5103,"Do":5104,"Ġtreat":5105,"chastic":5106,"Ġbuild":5107,"df":5108,"Ġsatisfying":5109,"TO":5110,"control":5111,"ots":5112,"Ġchall":5113,"anged":5114,"ctx":5115,"@{":5116,"Ġcommu":5117,"Ġweb":5118,"Min":5119,"Ġallowed":5120,"91":5121,"uint":5122,"Ġconstants":5123,"61":5124,"}}.":5125,"Ġassign":5126,"Ġstarting":5127,"uminosity":5128,"axis":5129,"olicy":5130,"close":5131,"Ġkeep":5132,"Ġauthor":5133,"Ġrespon":5134,"atri":5135,"Ġfive":5136,"Ġlikely":5137,"direct":5138,"Ġprojection":5139,"ĠEX":5140,"ABLE":5141,"tribution":5142,"ĠModel":5143,"should":5144,"Ġinflu":5145,"Ġforms":5146,"tific":5147,"copy":5148,"pop":5149,"emptyset":5150,"Ġestimation":5151,"Ġbroad":5152,"Ġattribute":5153,"Ġneighbor":5154,"Ġquasi":5155,"Oper":5156,"menu":5157,"=\"#":5158,"Ġdecomposition":5159,"Ġfoot":5160,"aid":5161,"Ġappears":5162,"Temp":5163,"Ġferm":5164,"Ġmapping":5165,"Ġlib":5166,"})=":5167,"Ġeq":5168,"ĠAfter":5169,"abo":5170,"Ġstrongly":5171,"Ġoption":5172,"These":5173,"ĠVer":5174,"Ġhole":5175,"74":5176,"Ġcomplexity":5177,"alysis":5178,"mann":5179,"Ġemploy":5180,"Ġswitch":5181,"Callback":5182,"\\)":5183,"orig":5184,"82":5185,"ĠGo":5186,"Ġproved":5187,"Ġtoken":5188,"document":5189,"hom":5190,"Ġcustom":5191,"Ġexternal":5192,"isation":5193,"Ġgoal":5194,"ĠUsing":5195,"Ġrecor":5196,"Ġrepresented":5197,"uro":5198,"algorithm":5199,"ech":5200,"Ġoperations":5201,"Ġremaining":5202,"Ð½":5203,"zation":5204,"dy":5205,"})^":5206,"arante":5207,"android":5208,"Ġactual":5209,"After":5210,"gian":5211,"aa":5212,"uns":5213,"reference":5214,"Ġring":5215,"Ġweights":5216,"nd":5217,"itable":5218,"ĠJS":5219,"points":5220,"structor":5221,"Ġreturned":5222,"ĠĠĠĠĠĠĠĠĠĠĠĠĠĠĠĠĠĠĠĠĠĠĠĠĠĠĠĠĠĠĠĠĠĠĠĠĠĠĠĠĠĠĠĠĠĠĠĠĠĠĠĠĠĠĠĠĠĠĠĠĠĠĠĠ":5223,"EL":5224,"Ġreplace":5225,"sue":5226,"Update":5227,"racted":5228,"API":5229,"76":5230,",\\,\\":5231,"Ġscenario":5232,"imilarly":5233,"ĠPer":5234,"Ġlife":5235,"lastic":5236,")}_":5237,"Ġaccurate":5238,"Ġliterature":5239,"GR":5240,"Controller":5241,"Ġcombination":5242,"Ġequilibrium":5243,".)":5244,"Button":5245,"Ġvary":5246,"Ġlevels":5247,"sample":5248,"Ġslow":5249,"win":5250,"ĠAPI":5251,"arc":5252,"make":5253,"oral":5254,"ĠBut":5255,"magnetic":5256,"Ġcache":5257,"mated":5258,"asic":5259,"quot":5260,"MB":5261,"eness":5262,"Ġphoton":5263,"Ġlocated":5264,"criptor":5265,"ĠLicense":5266,"Ġentry":5267,"acu":5268,"ident":5269,"83":5270,"such":5271,"bmatrix":5272,"Ġreduce":5273,"Ġtechn":5274,"Ġfunctional":5275,"dated":5276,"ana":5277,">\\":5278,"Im":5279,"|}{":5280,"enter":5281,"essages":5282,"Ġneeds":5283,"tiny":5284,";\\;\\":5285,"Ġincludes":5286,"gent":5287,"PU":5288,"ĠSpec":5289,"Ġdon":5290,"ĠNS":5291,"Ġreduction":5292,"Ġmach":5293,"IO":5294,"Ġpi":5295,"Ġpseud":5296,"Ġrepresentations":5297,"PO":5298,"Ġboson":5299,"/(":5300,"Ġradio":5301,"Ġnorm":5302,"Ġpl":5303,"sembly":5304,"Ġagreement":5305,"Ġstack":5306,"ĠAppendix":5307,"iving":5308,"Ġdiagonal":5309,"diff":5310,"Ġdetailed":5311,"Ġcommand":5312,"}}^{\\":5313,"Ġfont":5314,"ĠIR":5315,"Ġcapture":5316,"callback":5317,"CA":5318,"reme":5319,"tify":5320,"Hash":5321,"Dire":5322,"trivial":5323,"paragraph":5324,"MR":5325,"Ġstatement":5326,"ĠFurthermore":5327,"Ġiso":5328,"allow":5329,";</":5330,"uni":5331,"ront":5332,"ĠEqu":5333,"ĠNone":5334,"mptions":5335,"phan":5336,"Ġign":5337,"ĠClass":5338,"Ġwhole":5339,"plot":5340,"Ġconstructed":5341,"plugin":5342,"Ġthough":5343,"cience":5344,"}_{-":5345,"[-":5346,"ĠLie":5347,"semble":5348,"Ġunits":5349,"Ġproduce":5350,"^{*":5351,"Ġprimary":5352,"chor":5353,"actions":5354,"ama":5355,"ru":5356,"Ġpropor":5357,"GB":5358,"Return":5359,"+(":5360,"Ġideal":5361,"sv":5362,",\"":5363,"Ġoverall":5364,"licity":5365,"Auth":5366,"ssive":5367,"ading":5368,"Ġparse":5369,"Ġidentified":5370,"pid":5371,"Lemma":5372,"Ġitems":5373,"]{\\":5374,"Ste":5375,"Comple":5376,"Ro":5377,"dec":5378,"entry":5379,"req":5380,"vartheta":5381,"Ġ\\(\\":5382,"ĠBu":5383,"meds":5384,"Ġmanifold":5385,"bum":5386,"ugh":5387,"ĠNow":5388,"ifically":5389,"img":5390,"bib":5391,"Command":5392,"Write":5393,"istry":5394,"Ġ}{":5395,"********************************":5396,"medskip":5397,"Ġwin":5398,"Ġphysics":5399,"Header":5400,"uted":5401,"Ġsuccessful":5402,"Ġrules":5403,"izations":5404,"73":5405,"real":5406,"Ġcref":5407,"Ġsufficiently":5408,"enomen":5409,"`.":5410,"ulated":5411,"Ġrunning":5412,"models":5413,"circle":5414,"Ġusually":5415,"std":5416,"Ġ...":5417,"yr":5418,"Ġfun":5419,"Tra":5420,"Ġfundamental":5421,"Ġpublish":5422,"}}}\\":5423,"Ġcurvature":5424,"Ġrobust":5425,"Ġcaus":5426,"Ġmaximal":5427,"train":5428,"Ġ({\\":5429,"oton":5430,"hr":5431,"79":5432,"FL":5433,"Ġtypical":5434,"Ġenergies":5435,"ards":5436,"Ġsimpl":5437,"Ġstraight":5438,"Ġworld":5439,"Ġmembers":5440,"sitivity":5441,"uple":5442,"Ġvisual":5443,"Ġmatching":5444,"mn":5445,"tml":5446,"come":5447,"81":5448,"ĠDes":5449,"Ġpassed":5450,"|}":5451,"final":5452,"Ġvertical":5453,"Ġapi":5454,"Ġexception":5455,"Ġcriter":5456,"author":5457,"Ġextend":5458,"acy":5459,"Results":5460,"cus":5461,"VER":5462,"angular":5463,"Ġdistinct":5464,"}$}":5465,"Ġindicate":5466,"exec":5467,"Ġgain":5468,"Ġunderlying":5469,"DD":5470,"avel":5471,"Ġneural":5472,"erman":5473,"before":5474,"Ġredshift":5475,"Ġstage":5476,"1999":5477,"Ġgenerally":5478,"cache":5479,"columnwidth":5480,"Ġexplicitly":5481,"Ġidentify":5482,"Ġcycle":5483,"IB":5484,"hout":5485,"ao":5486,"Ġexhi":5487,"atives":5488,"ski":5489,"\\}\\":5490,"debug":5491,"Ġfeed":5492,"Ġface":5493,"ĠStates":5494,"Ġfac":5495,"ĠDi":5496,"ĠEng":5497,"Ġfilm":5498,"ÑĢ":5499,"Ġsemi":5500,"Proof":5501,"Ġsolve":5502,"Ġelect":5503,"Ġguarante":5504,"Timeout":5505,"trics":5506,"scriptsize":5507,"///":5508,"300":5509,"Ġage":5510,"ĠCoun":5511,"lone":5512,"Ġcontainer":5513,"Ġstrength":5514,"Position":5515,"ĠError":5516,"inst":5517,"Ġrelatively":5518,"Ġtool":5519,"umb":5520,"tikzpicture":5521,"formal":5522,"Ġlonger":5523,"cible":5524,"Ġformer":5525,"buffer":5526,"Ġsufficient":5527,"Ġattention":5528,"usic":5529,"Ġstatistical":5530,"Hence":5531,"task":5532,"=\"../":5533,"Vis":5534,"TYPE":5535,"ori":5536,"Ġconsidering":5537,"aj":5538,"ollowing":5539,"ĠCO":5540,")</":5541,"Ġasymptotic":5542,"Ġhapp":5543,"Ġ$,":5544,"hash":5545,"Ġmentioned":5546,"iff":5547,"Ġsampling":5548,"diag":5549,"rown":5550,"}}=":5551,"Ġefficiency":5552,"Ġalthough":5553,"Ġradial":5554,"ql":5555,"}~":5556,"Ġlimited":5557,"Ġmaking":5558,"Ġpoly":5559,"ĠGe":5560,"Obj":5561,"Ġwhite":5562,"ering":5563,"ĠCheck":5564,"Ġevaluation":5565,"bur":5566,"nap":5567,"Ġvo":5568,"Ġhol":5569,"ours":5570,"${":5571,"urations":5572,"Ġobservable":5573,"Ġconserv":5574,"Ġassumptions":5575,"Sch":5576,"cp":5577,"pass":5578,"webkit":5579,"latform":5580,"Ġembedding":5581,"gan":5582,"Ġdetected":5583,"Ġevaluate":5584,"SA":5585,"vitational":5586,"Ġderivative":5587,"Ġsix":5588,"Ġjoin":5589,"ccording":5590,":=\\":5591,"Ġattemp":5592,"Ġslightly":5593,"itions":5594,"chedule":5595,"vs":5596,"weight":5597,"\\}$,":5598,"Ġsections":5599,"EQ":5600,"1998":5601,"formations":5602,"ĠMark":5603,"Ġfiles":5604,"ship":5605,"Ġdiver":5606,"teger":5607,"Ġodd":5608,"Const":5609,"ĠLag":5610,"Tree":5611,"Ġisomorphism":5612,"}|\\":5613,"tool":5614,"Ġoccurs":5615,"Ġestablished":5616,"bp":5617,"figures":5618,"Pos":5619,"BC":5620,"Ġtypeof":5621,"ka":5622,"ĠInter":5623,"Ġtopological":5624,"pacity":5625,"Ġdust":5626,"Ġvariation":5627,"Ġprotocol":5628,"Ġcm":5629,"Ġdesired":5630,"Ġmodified":5631,"Ġclearly":5632,"Ġderive":5633,"&=\\":5634,"ĠHo":5635,"rank":5636,"Ġconfir":5637,"cker":5638,"Ġidea":5639,"Ġquality":5640,"Ġcontained":5641,"dl":5642,"ones":5643,"Ġagent":5644,"Ġcanonical":5645,"ibration":5646,"Ġnature":5647,"istent":5648,"multirow":5649,"Ġtrained":5650,"ares":5651,"tives":5652,"Ġfill":5653,"=\"../../../../":5654,"Ġlimits":5655,"Ġconsequence":5656,"ĠWhile":5657,"Ġnames":5658,"Ġparams":5659,"transform":5660,"Ġdifferences":5661,"Ġtrivial":5662,"ĠCL":5663,"Expression":5664,"Ġnamely":5665,"Render":5666,"Ġachieve":5667,"^{(\\":5668,"Empty":5669,"Ġphenomen":5670,"imes":5671,"Ġdx":5672,"Server":5673,"Ġgeneralized":5674,"Ġluminosity":5675,"ĠMin":5676,"second":5677,"Ġpaths":5678,"\\%$":5679,"Ġvideo":5680,"blem":5681,"Ġsetup":5682,"Ġmicro":5683,"ĠĠĠĠĠĠĠĠĠĠĠĠĠĠĠĠĠĠĠĠĠ":5684,"Ġapplying":5685,"Ġrecord":5686,"Multi":5687,"chem":5688,"Ġ,\\":5689,"Ġtowards":5690,"term":5691,"Ġconcent":5692,"byte":5693,"Provider":5694,"Ġremark":5695,"onom":5696,"fect":5697,"isely":5698,"ictionary":5699,"flu":5700,"anner":5701,"Document":5702,"Ġintegration":5703,"vised":5704,"car":5705,"Ġdr":5706,"shift":5707,"utes":5708,"nn":5709,"uri":5710,"Ġelectr":5711,"while":5712,"Ġvol":5713,"Jo":5714,"ĠMar":5715,"=.":5716,"Ġgeneration":5717,"phys":5718,"Ġdynamical":5719,"ogeneous":5720,"lean":5721,"Ġmeasures":5722,"Ġpadding":5723,"icrosoft":5724,"HTML":5725,"Ġnonlinear":5726,"MD":5727,"ĠAdd":5728,"ourier":5729,")})":5730,"edia":5731,"ĠĠĠĠĠĠĠĠĠĠĠĠĊ":5732,"bly":5733,"Ġreceived":5734,"rand":5735,"ubble":5736,"large":5737,"Xi":5738,"sure":5739,"Ġpredicted":5740,"Ġhuman":5741,"Ġnor":5742,"avelength":5743,"yntax":5744,"Ġellip":5745,"SH":5746,"global":5747,"ening":5748,"Ġexper":5749,"Ġconj":5750,"tained":5751,"Ġexpressed":5752,"Ġspher":5753,"ĠAnd":5754,"ĠSD":5755,"icker":5756,"Properties":5757,"Ġuncertain":5758,"Ġdepending":5759,"Ġregister":5760,"istor":5761,"\\|\\":5762,"Ġtrace":5763,"ategories":5764,"Ġss":5765,"Params":5766,"notag":5767,"ĠSM":5768,"roughout":5769,"osing":5770,"Ġelem":5771,"255":5772,"mult":5773,"Ġpreviously":5774,"Ġstability":5775,"dev":5776,"EC":5777,"Ġhistory":5778,"Ġround":5779,"Ġtermin":5780,"Ġteam":5781,"Ġpredictions":5782,"ae":5783,"Ġdecision":5784,"AV":5785,"slant":5786,"Widget":5787,"Ġsubject":5788,"Ġbal":5789,"Ġdifficult":5790,"71":5791,"Change":5792,"Ġdimensional":5793,"ĠMan":5794,"Ġgreater":5795,"full":5796,"notation":5797,"store":5798,"complete":5799,"ĠGeV":5800,"clusions":5801,"scripts":5802,"hal":5803,"subsec":5804,"parameters":5805,"Suppose":5806,"ãģ":5807,"acuum":5808,"ĠEach":5809,"Ġeigenvalues":5810,"DO":5811,"servable":5812,"sues":5813,"Ġdevice":5814,"Ġlocally":5815,"mos":5816,"Ġcomputational":5817,"Ġmassive":5818,"ĠAlso":5819,"Ġkeys":5820,"ĠIndeed":5821,"Ġrele":5822,"stro":5823,"KE":5824,"ĠĠĠĠĠĠĠĠĠĠĠĠĠĠĠĠĠĠĠĠ":5825,"Ġgrowth":5826,"ĠMay":5827,"Ġer":5828,"Ġseason":5829,"Ġfn":5830,"Fla":5831,"Consider":5832,"Ġdashed":5833,"tw":5834,"Ġabund":5835,"rea":5836,"Ġsituation":5837,"Ġsummar":5838,"Ġbuilt":5839,"Ġrecall":5840,"Ge":5841,"Ġport":5842,"Ġbias":5843,"Ġprinciple":5844,"ifts":5845,"Ġcompletely":5846,"udio":5847,"Level":5848,"Form":5849,"Ġradiation":5850,"Ġvariance":5851,"Local":5852,"dia":5853,"Ġlargest":5854,"since":5855,"ulations":5856,"Ġquo":5857,"^*\\":5858,"|-":5859,"enum":5860,".\\\\":5861,"spa":5862,"Ġquite":5863,"Ġdisper":5864,"Ġaver":5865,"Ġsequences":5866,"ĠState":5867,")[":5868,"ĠJohn":5869,"Ġsaid":5870,"initial":5871,"Cal":5872,"__(":5873,"ĠHiggs":5874,"webpack":5875,"tun":5876,"Layout":5877,"El":5878,"Ġcancel":5879,"Ġtests":5880,"Ġ**":5881,"Ġcontinue":5882,"diction":5883,"dash":5884,"radius":5885,"Ġestimat":5886,"Ġlabels":5887,"Ġcare":5888,"Option":5889,"border":5890,"Ġremoved":5891,"phantom":5892,"bet":5893,"cut":5894,"ĠĠĠĠĠĠĠĠĠĠĠĠĠĠĠĠĠĠĠĠĠĠĠĠĠĠĠĠĠĠĠĠĠĠĠ":5895,"termin":5896,"!\\":5897,"Prop":5898,"parallel":5899,"Doc":5900,"Mon":5901,"Ġacceler":5902,"eh":5903,"Ġbir":5904,"yond":5905,"km":5906,"Ġconc":5907,"prote":5908,"sources":5909,"ropic":5910,"Ġbundle":5911,"Ġansw":5912,"Ġgravity":5913,"Ġactually":5914,"resp":5915,"Ġissue":5916,"(-\\":5917,"continu":5918,"Ġcoinc":5919,"Script":5920,"Ġtrigger":5921,"Ġaccre":5922,"Ġwhereas":5923,"handle":5924,"rangian":5925,"Ġfall":5926,"ules":5927,"nos":5928,"Ġstochastic":5929,"Address":5930,"Ġtechnique":5931,"ĠCreate":5932,"exists":5933,"component":5934,"Ġoutside":5935,"ids":5936,"RR":5937,"ialog":5938,"Ġfluctuations":5939,"proto":5940,"Unit":5941,"service":5942,"}\\|":5943,"Ġyet":5944,"ano":5945,"Ġmath":5946,"atures":5947,"Ġreport":5948,"Ġbulk":5949,"trict":5950,"Ġandroid":5951,"Ġachieved":5952,"Ñģ":5953,"Ġfo":5954,"Ġsuff":5955,"oung":5956,"Ġjoint":5957,"Names":5958,")--(":5959,"have":5960,"ogonal":5961,"Ġrecur":5962,"Ġtun":5963,"Ġouter":5964,"Open":5965,"Ġ$\\{\\":5966,"general":5967,"Ġpropose":5968,"Ġquantities":5969,"copic":5970,"ĠĠĠĠĠĠĠĠĠĠĠĠĠĠĠĠĠĠ":5971,"Ġdynamic":5972,"Graph":5973,")),":5974,"ĠPr":5975,"IST":5976,"types":5977,"UM":5978,"Ġexpec":5979,"entity":5980,"token":5981,"Ġstri":5982,"Ġequivalence":5983,"pecially":5984,"Ġ\\,\\":5985,"Ġusual":5986,"Ġchannels":5987,"Ġgen":5988,"boolean":5989,"ART":5990,"corollary":5991,"Entry":5992,"bool":5993,"ague":5994,"har":5995,"actic":5996,"Ġcorrections":5997,"resource":5998,"Ġhome":5999,"Ġsatisfied":6000,"~(\\":6001,"Ġfloat":6002,"Dir":6003,"spin":6004,"'))":6005,"ĠAu":6006,"Ġnormalized":6007,"vision":6008,"ĠGal":6009,"Ġnamespace":6010,"ryst":6011,"Ġday":6012,"\"`":6013,"Ġcombined":6014,"dent":6015,"ĠGu":6016,"Ġonto":6017,"Ġprobab":6018,"ky":6019,"Ġpos":6020,"Ġgovern":6021,"ham":6022,"sheet":6023,"Ġdegrees":6024,"Given":6025,"jecture":6026,"board":6027,"Ð¾Ð":6028,"gather":6029,"dest":6030,"domain":6031,")^\\":6032,"ming":6033,"ĠST":6034,"ado":6035,"pk":6036,"Ġtransport":6037,"Ġmember":6038,"ini":6039,"Ġmask":6040,"inted":6041,"there":6042,"Ġaim":6043,"Ġapproximately":6044,"ND":6045,"Ġspecies":6046,")).":6047,"Selector":6048,".$$":6049,"negative":6050,"Ġchem":6051,"called":6052,"pair":6053,"cheduler":6054,"Dev":6055,"Ġsqu":6056,"Ġprecisely":6057,"ĠPol":6058,"white":6059,"ĠFile":6060,"atible":6061,"$-$":6062,"Bound":6063,"ggest":6064,"sma":6065,"Ġindices":6066,"scroll":6067,"Ġmu":6068,"Process":6069,"Ġetc":6070,"Ġperturbation":6071,"Ġkind":6072,"Ġmaxim":6073,"Ġ<=":6074,"Ġvariety":6075,"Ġalbum":6076,"ki":6077,"settings":6078,"Ġtypically":6079,"Moreover":6080,"Ġcomputing":6081,"atrix":6082,"Ġrecently":6083,"Ġhydro":6084,"Ġ++":6085,"ĠPa":6086,"Di":6087,"undefined":6088,"Settings":6089,"Ġgeneric":6090,"Ġhalo":6091,"Ġjet":6092,"ĠWorld":6093,"Ġwater":6094,"Nav":6095,"Ġdevelopment":6096,"GN":6097,"valu":6098,"128":6099,"iting":6100,"Ġcourse":6101,"BU":6102,"STATE":6103,"lator":6104,"bing":6105,"urs":6106,"ght":6107,"river":6108,"reducible":6109,"elihood":6110,"Ġhidden":6111,"ĠWar":6112,"Ġaway":6113,"Ġdetector":6114,"$.}":6115,"Ġchildren":6116,"ford":6117,"```":6118,"ensive":6119,"Access":6120,"2022":6121,"ĠTrans":6122,"Ġsoftware":6123,"Ġhighly":6124,"aging":6125,"Ġactions":6126,"Handle":6127,"Iter":6128,"()->":6129,"!]":6130,"cial":6131,"Ġefficient":6132,"legate":6133,"condition":6134,"^*(":6135,"tach":6136,"ko":6137,"Ġcoher":6138,"ulate":6139,"sts":6140,"Kind":6141,"ĠAssert":6142,"ocial":6143,"Ke":6144,"PECT":6145,"ca":6146,"ĠCont":6147,"Ġgravitational":6148,"faults":6149,"Ġdra":6150,"<?":6151,"ilbert":6152,"}{*":6153,"Ġbecame":6154,"Ġforward":6155,"shot":6156,"VAL":6157,"sively":6158,"ience":6159,"ales":6160,"Ġreve":6161,"1996":6162,"\\!\\":6163,"400":6164,"Ġextract":6165,"rane":6166,"1997":6167,"textcolor":6168,"hfill":6169,"Ġexpressions":6170,"tish":6171,"aking":6172,"backslash":6173,"Ġindeed":6174,"etal":6175,"jav":6176,"Ġfootball":6177,"trins":6178,"Work":6179,"Ġnamed":6180,"REF":6181,"Ġyield":6182,"Ġverify":6183,"Ġdistingu":6184,"keys":6185,"DR":6186,"fl":6187,"`,":6188,"ĠMore":6189,"cline":6190,"reedom":6191,"Configuration":6192,"Ġdot":6193,"ĠSu":6194,"focus":6195,"Ġblocks":6196,"ancy":6197,"Ġentries":6198,"Ġintersection":6199,"enchmark":6200,"when":6201,"&-":6202,"prob":6203,"Ġextreme":6204,"<!--":6205,"Ġpay":6206,"itory":6207,"Ġinstanceof":6208,"Ġreprodu":6209,"trigger":6210,"tral":6211,"Control":6212,"imary":6213,"ĠJan":6214,"Ġshowed":6215,"downarrow":6216,"Ġstore":6217,"belian":6218,"poch":6219,"uly":6220,"arith":6221,"oling":6222,"Ġ*)":6223,"ĠYou":6224,"particle":6225,"Ġscore":6226,"Ġnever":6227,"Ġintensity":6228,"Ġarchitecture":6229,"isot":6230,"Ġbeyond":6231,"Ġhandler":6232,"lates":6233,"Ġdense":6234,"Tran":6235,"Ġpositions":6236,"Utils":6237,")(\\":6238,"ĠBri":6239,"Ġ_{\\":6240,"Ġexci":6241,"Ġassuming":6242,"equal":6243,"================================":6244,"thick":6245,"Ġdelete":6246,"aco":6247,"NAME":6248,"chain":6249,"mathit":6250,"monic":6251,"Ġobjective":6252,"Ġrect":6253,"Body":6254,"ffff":6255,"stackrel":6256,"Ġmar":6257,"$^{":6258,"DS":6259,"ierarch":6260,"(*":6261,"FO":6262,"256":6263,"Ġiteration":6264,"NE":6265,"emark":6266,"Ġdelay":6267,"Ġupon":6268,"Ġ['":6269,"rays":6270,"sd":6271,"gex":6272,"greg":6273,"oks":6274,"Ġnovel":6275,"force":6276,"'_{":6277,"apter":6278,"-(":6279,"ĠSuppose":6280,"optim":6281,"entifier":6282,"Ġtesting":6283,"phase":6284,"invariant":6285,"Boolean":6286,"Ġcat":6287,"isson":6288,"Copy":6289,"iler":6290,"INE":6291,"ues":6292,"Helper":6293,"Ġmeaning":6294,"Ġmachine":6295,"ĠEd":6296,"tan":6297,"ĠFunction":6298,"well":6299,"|$":6300,"Ġpolarization":6301,"Ġcorrection":6302,"nother":6303,"Ġsm":6304,"ils":6305,")}.":6306,"Ġunknown":6307,".__":6308,"Ġvacuum":6309,"Ġmodules":6310,"Last":6311,"Ġattack":6312,"lapse":6313,"$^":6314,"Ġani":6315,"Ġtheories":6316,"widget":6317,"zing":6318,"Invalid":6319,"category":6320,")}(\\":6321,"ultane":6322,"ĠĠčĊ":6323,"Ġsuitable":6324,"hel":6325,"ĠTe":6326,"Ġdeal":6327,"Ã¡":6328,"Ġinvestigate":6329,"AND":6330,"boldmath":6331,"shape":6332,"inv":6333,"Ġstatistics":6334,"special":6335,"ography":6336,"hover":6337,"ient":6338,"Ġonline":6339,"Ġimplemented":6340,"tient":6341,"\\|_":6342,"Ġrel":6343,"Ġparame":6344,"_{+":6345,"Ġelectro":6346,"toString":6347,"Ġcompar":6348,"beled":6349,"internal":6350,"ĠOther":6351,"Ġexam":6352,"Ġsuggest":6353,"channel":6354,"textup":6355,"Ġcontact":6356,"Ġdig":6357,"Ġreplaced":6358,"&&\\":6359,"lub":6360,"Mark":6361,"Ġespecially":6362,"ĠSw":6363,"tivation":6364,"navbar":6365,"$\\,":6366,"urope":6367,"BS":6368,"delete":6369,"ĠShe":6370,"&=&\\":6371,"ĠGiven":6372,"}$\\":6373,"PH":6374,"Ġrelax":6375,"Extension":6376,"_,":6377,"bal":6378,"Ġcurrently":6379,"Ġquadratic":6380,"Parameters":6381,"modules":6382,"Ġuniformly":6383,"Ġhypothesis":6384,"Ġcloud":6385,"Ġheavy":6386,"ferred":6387,"differ":6388,"|^{":6389,"uparrow":6390,"iss":6391,"common":6392,"extend":6393,"Ġxml":6394,"Ġsus":6395,"ives":6396,"ĠSc":6397,"{(\\":6398,"plane":6399,"Long":6400,"Ġhighest":6401,"Ġdel":6402,"Ġ})":6403,"Ġwon":6404,"GeV":6405,"iem":6406,"Ġevidence":6407,"Ġimmediately":6408,"kin":6409,"Ġequality":6410,"Current":6411,"Ġearlier":6412,"RI":6413,"Ġarri":6414,"Ġruns":6415,"Ġconfigurations":6416,"Ap":6417,"disabled":6418,"Ġelectric":6419,"Ġ$^{":6420,"120":6421,"CF":6422,"Ġoffer":6423,"ination":6424,"Ġobvious":6425,"Definition":6426,"Ġseman":6427,"Ġneutrino":6428,"urch":6429,"Ġinstances":6430,"mas":6431,"ggle":6432,"Ġcompe":6433,"Que":6434,"language":6435,"(){":6436,">,":6437,"ĠLa":6438,"PA":6439,"stral":6440,"Scope":6441,"Ġmetrics":6442,"click":6443,"ermi":6444,"Newton":6445,"entic":6446,"Ġuncertainties":6447,"aut":6448,"}/\\":6449,"Ġattr":6450,"Ġcells":6451,"atory":6452,"Ġplayer":6453,"Ġvio":6454,"ĠExample":6455,"Ġato":6456,"etch":6457,"Ġgeometric":6458,"ellow":6459,"MO":6460,"Ġlistener":6461,"Ġquantity":6462,"Ġmixed":6463,"wt":6464,"varrho":6465,"Args":6466,"Ġmixing":6467,"ĠFourier":6468,"brid":6469,"Ġ}}":6470,"Ġanom":6471,"Ġphases":6472,"margin":6473,"ĠBar":6474,"ĠCounty":6475,"fields":6476,"ONT":6477,"Ġbehaviour":6478,"propto":6479,"ORT":6480,"Ġformed":6481,"Ġprecision":6482,"igation":6483,"ĠExp":6484,"Ġdegener":6485,"amera":6486,"Ġcomes":6487,"labor":6488,"pdown":6489,"Ġconcept":6490,"Serial":6491,"Ġvers":6492,"pl":6493,"corpor":6494,"ceil":6495,"%;":6496,"QL":6497,"ather":6498,"ZE":6499,"ifies":6500,"functions":6501,"Exec":6502,"*}[":6503,"Ġreflect":6504,"ascript":6505,"atom":6506,"clip":6507,"Ġ('":6508,"Example":6509,"total":6510,"mise":6511,"Ptr":6512,"DA":6513,"project":6514,"Ġdensities":6515,"binom":6516,"Ġrelationship":6517,"tifact":6518,"Ġbytes":6519,"eries":6520,"Ġwavelength":6521,"Pri":6522,"leftarrow":6523,"square":6524,"iding":6525,"Store":6526,"Ġsizes":6527,"double":6528,"Ġattributes":6529,"ws":6530,"Ġadop":6531,"Ġfollowed":6532,"$\\\\":6533,"itter":6534,"(!":6535,"Ġrapid":6536,"conv":6537,"Ġstrings":6538,"uit":6539,"\"))":6540,"Thread":6541,"obs":6542,"HS":6543,"iii":6544,"Vari":6545,"}.}":6546,"Bytes":6547,"Ġengine":6548,"sy":6549,"Host":6550,"Ġcomposition":6551,"Cor":6552,"Ġtrac":6553,"Ġconnec":6554,"Ġevaluated":6555,"Ġheat":6556,"enn":6557,"Ġdeath":6558,"Ġvisible":6559,"Ġsure":6560,"ĠEnd":6561,"Ġexchange":6562,"unct":6563,"Http":6564,"Pe":6565,"]^":6566,"interface":6567,"Ab":6568,"ffic":6569,"iness":6570,"Values":6571,"Ġindepend":6572,"ĠWeb":6573,"Order":6574,"Ġ\\[":6575,"Ġalgebraic":6576,"Ġalternative":6577,"Ġcontinuum":6578,"Ġbright":6579,"ira":6580,"ĠEXPECT":6581,"MP":6582,"Var":6583,"Ġprofiles":6584,"Ġrecover":6585,"Ġtransitions":6586,"multline":6587,"Ġdatabase":6588,"Ġabsorption":6589,"lower":6590,"None":6591,"Down":6592,"Ġpseudo":6593,"hs":6594,"gmentation":6595,"ulus":6596,"Non":6597,"Ġothers":6598,"Ġsuppose":6599,"ĠYork":6600,"ada":6601,"Ġshowing":6602,"Ġidentical":6603,"ĠDate":6604,"anning":6605,"ĠThat":6606,"ĠJSON":6607,"Ġslo":6608,"ĠOR":6609,"Ġreleased":6610,"Ġfunc":6611,"ĠExt":6612,"bil":6613,"1995":6614,"$'":6615,"Ġelectrons":6616,"GET":6617,"ĠSuch":6618,"Pol":6619,"RT":6620,"Ġprint":6621,"Ġleg":6622,"Ġrough":6623,"Ġchalleng":6624,"Ġmatches":6625,"Ġcolumns":6626,"ME":6627,"holder":6628,"Ġng":6629,"Ġcoupled":6630,"now":6631,"nel":6632,"Ġcome":6633,"Ġtopology":6634,"ĠGerman":6635,"Ġprocessing":6636,"123":6637,"Ġfluid":6638,"oom":6639,"strap":6640,"inger":6641,"msg":6642,"Parent":6643,"sport":6644,"Ġtransverse":6645,"ille":6646,"Ġexclu":6647,"Ġbuilding":6648,"ĠAug":6649,"layout":6650,"avi":6651,"Ġfreedom":6652,"tivistic":6653,"footnotesize":6654,"arr":6655,"wave":6656,"HC":6657,"Ġhomogeneous":6658,"DP":6659,"Ġperiodic":6660,"Ġ),":6661,"Ġdeviation":6662,"ĠHigh":6663,"ĉĠĠĠĠ":6664,"short":6665,"ember":6666,"irr":6667,"ĠCorollary":6668,"rich":6669,"ĠSouth":6670,"}^{+":6671,"Ġirreducible":6672,"Ġdedu":6673,"Ġpermu":6674,"isk":6675,"regular":6676,"instein":6677,")>":6678,"ided":6679,"Ġvs":6680,"trinsic":6681,"depth":6682,"Ġmissing":6683,"=\\{":6684,"Before":6685,"Ġchanged":6686,"Location":6687,"imits":6688,"ucial":6689,"Operation":6690,"Ġanalytic":6691,"Ġprop":6692,"vide":6693,"events":6694,"detail":6695,"measure":6696,"Ġdro":6697,"Ġpatterns":6698,"luster":6699,"some":6700,"ttps":6701,"Ġcandidate":6702,"Ġintermediate":6703,"elec":6704,"Ġfinally":6705,"thern":6706,"tip":6707,"Ġconvolution":6708,"textsf":6709,"ATION":6710,"eline":6711,"Storage":6712,"utils":6713,"Ġgenerating":6714,"theless":6715,"}{{\\":6716,"ĠName":6717,"Ġfiber":6718,"Own":6719,"Core":6720,"green":6721,"repres":6722,"ĠFran":6723,"pole":6724,"Ġkm":6725,"Ġnum":6726,"Ġsignals":6727,"ĠSU":6728,"Ġatoms":6729,"indexOf":6730,"Ġsem":6731,"Ġperfect":6732,"bc":6733,"scriptscript":6734,"STR":6735,"Ġformulation":6736,"limit":6737,"MT":6738,"important":6739,"reated":6740,"Ġseems":6741,"While":6742,"Te":6743,"ingle":6744,"Reference":6745,"Ġcommunication":6746,"scriptscriptstyle":6747,"})^{":6748,"Ġemer":6749,"_;":6750,"pla":6751,"SV":6752,"cto":6753,"Ġep":6754,"Ġadding":6755,"Ġcomb":6756,"Ġproportional":6757,"FC":6758,"ĠDE":6759,"Ġisot":6760,"\"));":6761,"ACK":6762,"Sum":6763,"ĠAc":6764,"Font":6765,"vor":6766,"stop":6767,"Ġtypename":6768,"Schema":6769,"EXT":6770,"Ġgl":6771,"Ġbits":6772,"agement":6773,"150":6774,"Ġpublished":6775,"Ġinfluence":6776,"media":6777,"Ġdependent":6778,"sep":6779,"Ġretri":6780,"Ġpolynomials":6781,"Ġ\"\\":6782,"Ġorthogonal":6783,"posed":6784,"Template":6785,"'],":6786,"mits":6787,"Ġtransmission":6788,"Ġ(*":6789,"Ġdt":6790,"Ġpurpose":6791,"ALL":6792,"Ġ---":6793,"Ġsong":6794,"ĠLagrangian":6795,"success":6796,"sube":6797,",...,":6798,"Ġbrief":6799,"Ġ..":6800,"simple":6801,"Ġnav":6802,"tios":6803,"Ġ~\\":6804,"Ġhttps":6805,"ĠAlthough":6806,"smallskip":6807,"Ġcli":6808,"tamp":6809,"hu":6810,"Ġgenerator":6811,"ott":6812,"selected":6813,"tember":6814,"Ġheader":6815,"Ġfrequencies":6816,"Ġreduces":6817,"gre":6818,"ract":6819,"Ġinit":6820,"Ġselector":6821,"aff":6822,"Ġtemperatures":6823,"Red":6824,"Ġdrop":6825,"Ġpractice":6826,"ERROR":6827,"ayes":6828,"Async":6829,"XX":6830,"crete":6831,"ĠTime":6832,"rd":6833,"Ġwall":6834,"Ġdesigned":6835,"\\},":6836,"Ġderivatives":6837,"Bigg":6838,"ĠjQuery":6839,"Ġdiffusion":6840,"extension":6841,")_{\\":6842,"series":6843,"midrule":6844,"track":6845,"stan":6846,"Ġaffect":6847,"transition":6848,"ibility":6849,"umes":6850,"calc":6851,"zon":6852,"COM":6853,"SF":6854,"iemann":6855,"oundation":6856,"density":6857,"Ġwaves":6858,"Ġnet":6859,"ĠSome":6860,"Reader":6861,"Ġinher":6862,"Ġreader":6863,"Ġaccretion":6864,"Ġentang":6865,"Ġexpectation":6866,"rier":6867,"Ġtranslation":6868,"Ġstraightforward":6869,"Ġthread":6870,"MF":6871,"Pod":6872,"Pack":6873,"sort":6874,"Ġasymme":6875,"Ġsimultane":6876,"Ġnuclear":6877,"Ġregar":6878,"bre":6879,"ĠConsider":6880,"Ġglu":6881,"Ġrows":6882,"Es":6883,"Ġdiagrams":6884,"eptember":6885,"Ġdays":6886,"arities":6887,"Go":6888,"Symbol":6889,"Ġreconstruction":6890,"textnormal":6891,"Load":6892,"Stack":6893,"collection":6894,"Ġbutton":6895,"coding":6896,"Ġplayed":6897,"Ġfitting":6898,"Ġencoding":6899,"Ġland":6900,"Ġuniversal":6901,"Ġpromise":6902,"\\}.":6903,"conver":6904,"Ġcorrelations":6905,"tright":6906,")}$.":6907,"Ġparticip":6908,"Ġdefines":6909,"Ġprefer":6910,"Ġexpand":6911,"mal":6912,"{.":6913,"Ġdecreases":6914,"symmetric":6915,"ampion":6916,"kl":6917,"cluster":6918,"ĠEurope":6919,"Ġdirections":6920,"{|":6921,"Sign":6922,"Ġinfo":6923,"stitute":6924,"hol":6925,"mix":6926,"icons":6927,"pite":6928,"product":6929,"irical":6930,"Connection":6931,"Attr":6932,"Search":6933,"BL":6934,"Ġproceed":6935,"Promise":6936,"slice":6937,"resize":6938,"BA":6939,"Ġorbital":6940,"observ":6941,"single":6942,"():":6943,"even":6944,"unch":6945,"SET":6946,"Ġdispersion":6947,"Ġhorizontal":6948,"Ġexplained":6949,"Ġoverride":6950,"ĉĠĠĠĠĠĠĠĠ":6951,"manif":6952,"unter":6953,"Ġbr":6954,"ĠUS":6955,"Ġconnect":6956,"Ġcosmological":6957,"Ġsolving":6958,"ĠException":6959,"Ġsector":6960,"Ġnotion":6961,"Ġbus":6962,"Ġcouplings":6963,"nol":6964,"Ġgreen":6965,"Ġbrowser":6966,"Ġsubspace":6967,"Ġproducts":6968,"insert":6969,"ĠOF":6970,"Ġbene":6971,"Ġstress":6972,"Ġther":6973,"ĠAlgorithm":6974,"Ġsco":6975,"}&\\":6976,"Argument":6977,"network":6978,"Ġbyte":6979,"Ġexpress":6980,"exception":6981,"Ġ{$\\":6982,"Ġdefinitions":6983,"ĠURL":6984,"ĠNode":6985,"ached":6986,"ĠHar":6987,"stri":6988,"Ġpen":6989,"ĠSV":6990,"uid":6991,"Ġduration":6992,"ĠChar":6993,"Menu":6994,"tible":6995,"Ġfinding":6996,"Ġhierarch":6997,"onic":6998,"zy":6999,"xture":7000,"Ġmorphism":7001,"bd":7002,"Ġchemical":7003,"Ġobserver":7004,"ĠGR":7005,"ĠSchool":7006,"Ġmetall":7007,"register":7008,"ĉĠĠĠĠĠĠĠĠĠĠĠĠĠĠĠ":7009,"Ġball":7010,"comment":7011,"Ġincreased":7012,"Ġthank":7013,"Ġprime":7014,"mathtt":7015,"Ġdescribes":7016,"atively":7017,"Bin":7018,"correspon":7019,"Description":7020,"thon":7021,"Ġunderstanding":7022,"ners":7023,"thetic":7024,"Queue":7025,"finity":7026,"chemes":7027,"Ġpackage":7028,"Fn":7029,"NG":7030,"straint":7031,"env":7032,"Ġsuggests":7033,"panel":7034,"Ġ\\{\\":7035,"Ġactivity":7036,"writ":7037,"Ġrise":7038,"mf":7039,"oman":7040,"Ġmathe":7041,"Only":7042,"Ġfine":7043,"ĠRed":7044,"1994":7045,"asons":7046,"Ho":7047,"Ġcodes":7048,"finished":7049,"ifier":7050,"Ġ[],":7051,"Ġvalidation":7052,"Ġpor":7053,"wrap":7054,"Ġ\\|\\":7055,"ĠMethod":7056,"PRE":7057,"ĠPri":7058,"istance":7059,"Ġcharacters":7060,"gradient":7061,"Ġnoted":7062,"Ġnotice":7063,"Track":7064,"Func":7065,"Ġcryst":7066,"Events":7067,"Ġsurvey":7068,"ctober":7069,"bon":7070,"Ġhorizon":7071,"wait":7072,"ĠDM":7073,"trightarrow":7074,"ĠTra":7075,"Ġshared":7076,"Ġgames":7077,"Ġbeh":7078,"ynamics":7079,"[$":7080,"ĠEqs":7081,"rg":7082,"kern":7083,"Ġweighted":7084,"Ġsegment":7085,"aren":7086,"Ġ\\}":7087,"Ġscenarios":7088,"]]":7089,"Ġpoli":7090,"Ġreferences":7091,"ĠLog":7092,"Ġunion":7093,"Ġdemonstrate":7094,"oting":7095,"Ġinteract":7096,"ĠEvent":7097,"BE":7098,"Ġmedium":7099,"001":7100,"Hom":7101,"random":7102,"Ġsolar":7103,"eval":7104,"Ġrational":7105,"card":7106,"ĠMod":7107,"Root":7108,"$}}":7109,"Ġexports":7110,"ĠMarch":7111,"pository":7112,"Ġfermion":7113,"ODO":7114,"Ġpiec":7115,"pril":7116,"imer":7117,"Ġarc":7118,"citealt":7119,"}>":7120,"Ġpossibility":7121,"Fa":7122,"\\/":7123,"Ġseparation":7124,"Pa":7125,"_{-\\":7126,"Ġrestriction":7127,"Ġinvolved":7128,"Ġlowest":7129,"year":7130,"Ġflag":7131,"quations":7132,"arguments":7133,"Ġbands":7134,"BB":7135,"\\,{\\":7136,"Sw":7137,"Ġcapacity":7138,"Ġupdated":7139,")}$,":7140,"Ġmi":7141,"Ġensemble":7142,"Ġoccup":7143,"Mapp":7144,"}^+":7145,"properties":7146,"Ġfamil":7147,"Ġcategories":7148,"counter":7149,"Ġsimulated":7150,"ately":7151,"Ġresources":7152,"Auto":7153,"}[!":7154,"ãĥ":7155,"Ġpast":7156,"Ġimplement":7157,"Ġanswer":7158,"Ġpredict":7159,"bilities":7160,"Proposition":7161,"rome":7162,"urally":7163,"Ġmedia":7164,"Ġinputs":7165,"Ġmiddle":7166,"Ġhtml":7167,"Ġreli":7168,"Ġfailed":7169,"DC":7170,"Ani":7171,"Ġworking":7172,"Ġmeas":7173,"sch":7174,"Ġphotons":7175,"rence":7176,"defn":7177,"ticles":7178,"ĠIS":7179,"Ġstrictly":7180,"JSON":7181,"ji":7182,"Policy":7183,"ĠJanuary":7184,";\\;":7185,"illion":7186,"ĠPy":7187,"ctic":7188,"coder":7189,"subequations":7190,"vect":7191,"Rect":7192,"Ã³":7193,"Ġimproved":7194,"ridge":7195,"Ġepoch":7196,"Ġlisted":7197,"Ġeigenvalue":7198,"Ġvariations":7199,"Ġadjac":7200,"cross":7201,"TEST":7202,"1992":7203,"Ġsend":7204,"Ġctx":7205,"})=\\":7206,"^+$":7207,"Ġparticularly":7208,"Ġdistances":7209,"lating":7210,"Ġtemporal":7211,"apan":7212,"Ġbaseline":7213,"Ġmolecular":7214,"aps":7215,"\\[\\":7216,"ĠHilbert":7217,"\\}_{":7218,"Ġratios":7219,"Ġoffic":7220,"Ġpointer":7221,"fined":7222,"Ġagents":7223,"Vector":7224,"mean":7225,"factor":7226,"'.":7227,"zer":7228,"AGE":7229,"Ġclean":7230,"Ġlittle":7231,"ĠSeptember":7232,"bigcup":7233,"Ġacqu":7234,"Session":7235,"region":7236,"Ġlies":7237,"cape":7238,"nm":7239,"ĠSO":7240,"anges":7241,"Ġadvantage":7242,"1990":7243,"ĠAustral":7244,"Ġmainly":7245,"ffor":7246,"ius":7247,"Ġconstit":7248,"IGN":7249,"Ġsensitivity":7250,"ĠAugust":7251,"ĠMax":7252,"Ġspecify":7253,"ĠUV":7254,"Ġdecrease":7255,"iers":7256,"ĠEquation":7257,"matical":7258,"exist":7259,"Ġmoving":7260,"Ġnecessarily":7261,"Ġvor":7262,"Ġpopular":7263,"URE":7264,"Ax":7265,"javascript":7266,"Ġareas":7267,"Ġunsigned":7268,"what":7269,"alities":7270,"ĠHTML":7271,"Ġmodeling":7272,"cb":7273,"ĠLO":7274,"lers":7275,"Ġadvers":7276,"Ġchiral":7277,"Record":7278,"Ġincorpor":7279,"ĠResearch":7280,"Ġsocial":7281,"ĉĉĉĊ":7282,"hang":7283,"CTION":7284,"Ġlate":7285,"BP":7286,"ifted":7287,"RA":7288,"ĠInt":7289,"racket":7290,"Nodes":7291,"uclide":7292,"180":7293,"arge":7294,"ĠNorth":7295,"COL":7296,"ĠJune":7297,"Ġarm":7298,"picker":7299,"iring":7300,"Port":7301,"born":7302,"Delete":7303,"Ġtransformations":7304,")&":7305,"Ġupd":7306,"ured":7307,"lege":7308,"ãĤ":7309,"Ġtreatment":7310,"determin":7311,"110":7312,"files":7313,"coordin":7314,"Ġshock":7315,"eder":7316,"Ġstorage":7317,"]=":7318,"Ġpatch":7319,"Writer":7320,"Impl":7321,"Ġatomic":7322,"ULT":7323,"uclidean":7324,"->_":7325,"sky":7326,"sterior":7327,"Ġthroughout":7328,"SY":7329,"Ġcondu":7330,"quark":7331,"Ġ(\"":7332,"children":7333,"Ġdirected":7334,"ftrightarrow":7335,"ined":7336,"omorphisms":7337,"FONT":7338,"moment":7339,"Ġcommunity":7340,"Ġtang":7341,"Head":7342,")))":7343,"Ġorders":7344,"ĠBase":7345,"Ġneighborhood":7346,"framework":7347,"Ġregression":7348,"generate":7349,"Ġenter":7350,"Mem":7351,"ĠSN":7352,"CODE":7353,"ĠĠĠĠĠĠĠĠĠĠĠĠĠĠĠĠĠĠĠĠĠĠĠĠ":7354,"tified":7355,"Ġfunctor":7356,"########":7357,"Ġprecise":7358,"ĠBOO":7359,"Ġarticle":7360,"trim":7361,"Ġspan":7362,"ady":7363,"Ġestimator":7364,"Select":7365,"orter":7366,"queue":7367,"EV":7368,"++;":7369,"Ġacts":7370,"period":7371,"ĠJuly":7372,"Ġwait":7373,"vember":7374,"Ġalgebras":7375,"Ġopts":7376,"Ġten":7377,"Ġissues":7378,"Ġrepresen":7379,"Ġrepresenting":7380,"Sim":7381,"Integer":7382,"Ġorientation":7383,"Cref":7384,"Bbb":7385,"tile":7386,"Ġscreen":7387,"coming":7388,"Ġ<!--":7389,"Car":7390,"Ġsystematic":7391,"TT":7392,"Ġinterpo":7393,"ĠInitial":7394,"1993":7395,"mote":7396,"Ġfav":7397,"ĠGreen":7398,"Keys":7399,"Pointer":7400,"Ġextracted":7401,"Ġlogarith":7402,"Ġrandomly":7403,"classes":7404,"elem":7405,"formance":7406,"Ġ'/":7407,"Ġfeedback":7408,"Rule":7409,"triangle":7410,"attribute":7411,"Scroll":7412,"}},\\":7413,"Rep":7414,"ĠPhys":7415,"assu":7416,"Ġperson":7417,"Ġexecution":7418,"Ġisomorphic":7419,"Ġsummary":7420,"Ġshell":7421,"Ġqueue":7422,"ĠScience":7423,"Ġcarried":7424,"mouse":7425,"dashed":7426,"Ma":7427,"fg":7428,"ĠDOM":7429,"ĠDefinition":7430,"Ġserial":7431,"inclu":7432,"Ġinference":7433,"ĠOctober":7434,"oring":7435,"ĠUse":7436,"Ġtransparent":7437,"izable":7438,"related":7439,"tmp":7440,"Initial":7441,"Ġopposite":7442,"Ġconditional":7443,"Ġturb":7444,"syn":7445,"leqslant":7446,"ya":7447,"Ġair":7448,"newline":7449,"ORD":7450,"ĠBer":7451,"kens":7452,"Ġstop":7453,"Ġdistinguish":7454,"Ġsurfaces":7455,"Ġpick":7456,"ought":7457,"ĠFermi":7458,"PD":7459,"Arr":7460,"Active":7461,"Ġfilms":7462,"ĠSk":7463,"Ġcontroller":7464,"Ġinterested":7465,"=-\\":7466,"ority":7467,"Ġuniqu":7468,"Ġstated":7469,"=}":7470,"LR":7471,"LD":7472,"Ġpush":7473,"}{*}{":7474,"Ġplanet":7475,"Ġcity":7476,"Ġresonance":7477,"Ġautomatically":7478,"ĠĠĠĠĠĠĠĠĠĠĠĠĠĠĠĠĠĠĠĠĠĠ":7479,"ĠEnglish":7480,"toggle":7481,"Ġessentially":7482,"itive":7483,"valued":7484,"Ġprefix":7485,"ĠRun":7486,"ĠĠĠĠĠĠĠĠĠĠĠĠĠĠĠĠĠĠĠĠĠĠĠĠĠ":7487,"Ġsensitive":7488,"none":7489,"Ġimply":7490,"Ġsphere":7491,"dete":7492,"Ġord":7493,"Ġstand":7494,"vc":7495,"sequent":7496,"Ġconverges":7497,"props":7498,"Ġexplan":7499,"Ġ{{":7500,"Ġtail":7501,"Recall":7502,"Ġrenormal":7503,"Ġcy":7504,"ensing":7505,"LA":7506,"^*_":7507,"Ġschemes":7508,"ĠNumber":7509,"Parser":7510,"rench":7511,"Ġimportance":7512,"Ġanisot":7513,"Plugin":7514,"Ġ_.":7515,"ĠSimilarly":7516,".(\\":7517,"|_":7518,"ĠQCD":7519,"itle":7520,"Ġproton":7521,"ament":7522,"Ġdevices":7523,"urable":7524,"|_{\\":7525,"Ġinstr":7526,"Ġinterpretation":7527,"schema":7528,"Ġpicture":7529,"Ġmsg":7530,"Ġapplic":7531,"Ġinser":7532,"enced":7533,"Fields":7534,"Ġtrajectory":7535,"dal":7536,"Ġschool":7537,"END":7538,"selector":7539,"That":7540,"Ġsimilarly":7541,"ĠApril":7542,"_{[":7543,"gramm":7544,"}~\\":7545,"&$":7546,"tization":7547,"igible":7548,"licated":7549,"ypto":7550,"Ġsimplicity":7551,"Ġcaused":7552,"_(":7553,"DOM":7554,"Enabled":7555,"Ġintegrated":7556,"Elements":7557,"TEX":7558,"False":7559,"Ġforces":7560,"Ġ(_":7561,"ĠIntern":7562,"Ġgeneralization":7563,"vm":7564,"Ġfront":7565,"bolic":7566,"Ġamplitudes":7567,"FS":7568,"send":7569,"complex":7570,"Ġassigned":7571,"OK":7572,"chart":7573,"Ġlikelihood":7574,"ĠPe":7575,"Ġmusic":7576,"hyper":7577,"rated":7578,"uff":7579,"Network":7580,"Ġdomains":7581,"connection":7582,"notin":7583,"loss":7584,"tating":7585,"ĠCity":7586,"ĠValue":7587,"Ġgeodes":7588,"BR":7589,"atal":7590,"ads":7591,"tigated":7592,"160":7593,"Metadata":7594,"indu":7595,"Ġgoing":7596,"raft":7597,"mask":7598,"Ġwriting":7599,"ensors":7600,"enge":7601,"Ġdifferenti":7602,"....":7603,"flat":7604,"sat":7605,"mathbbm":7606,"cussion":7607,"nolimits":7608,"tributed":7609,"ĠAGN":7610,"Ġwhy":7611,"GE":7612,"Ġsession":7613,"Ġfits":7614,"Tool":7615,"jk":7616,"olar":7617,"ApJ":7618,"Ġstarted":7619,"}{}":7620,"ĠCON":7621,"Ġconcern":7622,"Ġiterations":7623,"Ġbatch":7624,"Ġbary":7625,"Ġvarying":7626,"Ġcomplement":7627,"tivated":7628,"Ġrig":7629,"Phys":7630,"homo":7631,"intro":7632,"Ġpixels":7633,"Ġbeginning":7634,"Assert":7635,"Ġsort":7636,"Ġtren":7637,"Pattern":7638,"ehic":7639,"Namespace":7640,"ĠHand":7641,"tz":7642,"address":7643,"Ġconformal":7644,"vertex":7645,"ĠOpen":7646,"law":7647,"approxi":7648,"Byte":7649,"Ġbenchmark":7650,"'$.":7651,"tick":7652,"otstrap":7653,"ico":7654,"Ġdecays":7655,"Rightarrow":7656,"inline":7657,"ĠOver":7658,"also":7659,"Ġsy":7660,"Ġaccep":7661,"substack":7662,"Matrix":7663,"neg":7664,"ĠWork":7665,"otal":7666,"Ġgenerators":7667,"Entity":7668,"coup":7669,"Ġunitary":7670,"Ġfair":7671,"Rad":7672,"bas":7673,"ÃŃ":7674,"}<":7675,"ney":7676,"Ġkinetic":7677,"Ġconclusion":7678,"Ġtes":7679,"Ġrestricted":7680,"ĠMc":7681,"Ġindicated":7682,"hance":7683,"Ġcharged":7684,"KEY":7685,"Ġplugin":7686,"Ġintegers":7687,".&":7688,"istration":7689,"fixed":7690,"Ġdirectory":7691,"primary":7692,"respec":7693,"fine":7694,"Ġplasma":7695,"Selection":7696,"unfinished":7697,"Num":7698,"connected":7699,"Ġreq":7700,"ĠRE":7701,"Ġstationary":7702,"tated":7703,"Ġlimi":7704,"Ġima":7705,"weak":7706,"rest":7707,"ĠBra":7708,"olver":7709,"Ġreveal":7710,"Ġlibrary":7711,"tensor":7712,"gray":7713,"Ġdominant":7714,"Bigl":7715,"Ġgets":7716,"Lin":7717,":</":7718,"ops":7719,"Ġdivis":7720,"Ġinduction":7721,"Ġadopted":7722,"pf":7723,"ORM":7724,"Ġamb":7725,"Bigr":7726,"Ġconjug":7727,"below":7728,"cknowled":7729,"Furthermore":7730,"constant":7731,"Ġplotted":7732,"Ġtook":7733,"Ġrelease":7734,"Ġinline":7735,"ĠBritish":7736,"Transform":7737,"application":7738,"shadow":7739,"ĠPoisson":7740,"ĠRiemann":7741,"Descriptor":7742,"Tab":7743,"Ġsites":7744,"Ġheld":7745,"\\,,":7746,"Volume":7747,"HO":7748,"verb":7749,"cknowledge":7750,"Ġcompatible":7751,"lb":7752,"ĠSto":7753,"Part":7754,"Props":7755,"Ġspacetime":7756,"ĠNovember":7757,"vdots":7758,"Ġways":7759,"allest":7760,"Ġclustering":7761,"Scale":7762,"device":7763,"Ġdiscr":7764,"Ð°Ð":7765,"Ġsolved":7766,"Ġprev":7767,"dropdown":7768,"Ġchart":7769,"vol":7770,")=(":7771,"Ġanalyze":7772,"ĠKing":7773,"Device":7774,"Ġatmos":7775,"Ġsubsection":7776,"arse":7777,"Ġbook":7778,"Ġdoesn":7779,"above":7780,"Ġturns":7781,"ĠDecember":7782,"jpg":7783,"ĠEar":7784,"Init":7785,"ĠCLASS":7786,"}}=\\":7787,"Direct":7788,"Ġlack":7789,"ious":7790,"ĠâĢĶ":7791,"Ġdiscrimin":7792,"sharp":7793,"numer":7794,"Ġordered":7795,"ights":7796,"gi":7797,"cen":7798,"hed":7799,"custom":7800,"|=":7801,"pies":7802,"Rou":7803,"Newtonsoft":7804,"Ġpropagation":7805,"Ġmessages":7806,"Step":7807,"Ġgoes":7808,"ĠHREF":7809,"selves":7810,"irror":7811,"decomp":7812,"IE":7813,"asso":7814,"Fin":7815,"precated":7816,"})(":7817,"cyc":7818,"ĠGroup":7819,"napshot":7820,"Parse":7821,"Ġvalu":7822,"overset":7823,"trl":7824,"Ġnormalization":7825,"Ġ}{\\":7826,"____":7827,"')$":7828,"Application":7829,"padding":7830,"between":7831,"'=":7832,"Ġ'<":7833,"Ġintervals":7834,")}_{\\":7835,"urnal":7836,"uge":7837,"\\|^":7838,"surface":7839,"*\\":7840,")|\\":7841,"Ġcompan":7842,"Ġprobabilities":7843,"gni":7844,"Ġinver":7845,"changed":7846,"Ġmac":7847,"power":7848,"Ġperturbations":7849,"RC":7850,"ĠMap":7851,"'));":7852,"Ġsimilarity":7853,"Ġjson":7854,"iki":7855,"Ġled":7856,"ĠAccording":7857,"Ġwind":7858,"Param":7859,"}\\;":7860,"Ġprogress":7861,"('.":7862,"Ġsymbols":7863,"}})$":7864,"Ġneutral":7865,"ocities":7866,"Ġconsole":7867,"TC":7868,"Ġhot":7869,"Ġcub":7870,"symmetry":7871,"ders":7872,"ĠSecond":7873,"Ġconjecture":7874,"separ":7875,"Upsilon":7876,"rame":7877,"BH":7878,"umentation":7879,"ĠVal":7880,"Ġbig":7881,"Ġinvestigated":7882,"sql":7883,"helper":7884,"Ġbelie":7885,"switch":7886,"els":7887,"Ġslope":7888,"Ġspherical":7889,"$_{\\":7890,"OwnProperty":7891,"Ġconsisting":7892,"Ġenable":7893,"arial":7894,"Ġfailure":7895,"Ġmanner":7896,"neu":7897,"orent":7898,"Ġinsp":7899,"Float":7900,"III":7901,"requency":7902,"Ġpanels":7903,"ANT":7904,"Ġpriv":7905,"support":7906,"Ġ\"\"":7907,"Ġelimin":7908,"Ġframes":7909,"Ġos":7910,"Ġlaser":7911,"Ġability":7912,".},":7913,"Ġcovariance":7914,"Ġdefining":7915,"History":7916,"matics":7917,"(:":7918,"iterator":7919,"ĠassertEquals":7920,"Ġinclusion":7921,"ĠTrue":7922,"Ġdominated":7923,"Ġnarrow":7924,"volume":7925,"Ġtrunc":7926,"FN":7927,"Ġinvolving":7928,"ĠEl":7929,"Ġneutron":7930,"hape":7931,"Editor":7932,"reet":7933,"ats":7934,"Ġreached":7935,"Ġjump":7936,"Ġturbul":7937,"ĠDirac":7938,"Click":7939,"hl":7940,"ipeline":7941,"road":7942,"Ġrestric":7943,"ditionally":7944,"Ġthin":7945,"iso":7946,"'+":7947,"bounded":7948,"distribution":7949,"fd":7950,"Ġdecreasing":7951,"Ġscroll":7952,"Ġalloc":7953,"ĠGets":7954,"hide":7955,"equals":7956,"Ġcompleted":7957,"will":7958,"lik":7959,"Ã¼":7960,"ccc":7961,"ĠTHE":7962,"dens":7963,"ĠRequ":7964,"dere":7965,"orentz":7966,"asc":7967,"Ġquestions":7968,"cycle":7969,"export":7970,"Ġ}$":7971,"Ġproto":7972,"imit":7973,"Deta":7974,"Ġtransaction":7975,"Ġmodify":7976,"partment":7977,"bruary":7978,"----------------------------------------------------------------":7979,"Ġbreaking":7980,"Ġeffor":7981,"Ġrecomm":7982,"Ġsat":7983,"txt":7984,"kov":7985,"typedef":7986,"Ġcontradiction":7987,"'$,":7988,"}))":7989,"Ġvanishes":7990,"UV":7991,"Ġbur":7992,"Ġ$\\|":7993,"triang":7994,"going":7995,"ĠIO":7996,"deep":7997,">$":7998,"More":7999,"Syntax":8000,"Pass":8001,"potential":8002,"Ġaffine":8003,"fr":8004,"Ġconfidence":8005,"conom":8006,"Ġspread":8007,"Ġadv":8008,"avity":8009,"Ġ).":8010,"character":8011,"homology":8012,"Met":8013,"Ġnative":8014,"Mock":8015,"Ġmarked":8016,"Cla":8017,"Ġabstract":8018,"Ġrobot":8019,"Ġ::":8020,"Ġsignature":8021,"Ġempirical":8022,"////////////////////////////////":8023,"{\"":8024,"Ġopacity":8025,"ette":8026,"Pers":8027,"IX":8028,"ĠLeague":8029,"itary":8030,"stantial":8031,"Ġscript":8032,"zone":8033,"}_{{\\":8034,"Ġexponent":8035,"rfloor":8036,"Ġĉ":8037,"Ġconduct":8038,"Ġcatalog":8039,"Ġembedded":8040,"CN":8041,"Ġlept":8042,"uber":8043,"ĠNOT":8044,",~":8045,"oidal":8046,"utive":8047,"}.\\":8048,"Ġconto":8049,"connect":8050,"Ġrisk":8051,"Ġsound":8052,"Ġreferred":8053,"Ġnearly":8054,"ills":8055,"Ġparametr":8056,"Ġcandidates":8057,"lfloor":8058,"'}\\":8059,"Ġunless":8060,"ĠAf":8061,"Ġ^{\\":8062,"century":8063,"Ġproviding":8064,"Ġresolve":8065,"Ġcontrols":8066,"Ġcomparing":8067,"shi":8068,"Ġsuggested":8069,"dz":8070,"ĠTODO":8071,"Wrapper":8072,"ĠBel":8073,"arest":8074,"inos":8075,"Ġdiscover":8076,"Fail":8077,"theme":8078,"Ġappend":8079,"Ġbirths":8080,"lexi":8081,"Two":8082,"roscopic":8083,":[":8084,"Ġimprovement":8085,"Ġflows":8086,"Ġtrajectories":8087,"modal":8088,"theory":8089,"ĠPDF":8090,"Ġsupercon":8091,"Observable":8092,"Debug":8093,"Ġorbits":8094,"Ġaggreg":8095,"inear":8096,"constructor":8097,".}\\":8098,"covery":8099,"ĠCent":8100,"Ġappe":8101,"Ġstarts":8102,"Ġrequests":8103,"Ġcollisions":8104,"tb":8105,"ĠJapan":8106,"mun":8107,"Ġasser":8108,"ĠOut":8109,"Ġbelongs":8110,"Ġsparse":8111,"testing":8112,"Inst":8113,"250":8114,"GS":8115,"EventListener":8116,"docs":8117,"Ġignore":8118,"hskip":8119,"ologies":8120,"pmb":8121,"ĠBecause":8122,"Ġtouch":8123,"Runtime":8124,"Ġraw":8125,"prev":8126,"Ġdisjoint":8127,"Ġcharacterized":8128,"aba":8129,"ĠTH":8130,"ĠBoth":8131,"Title":8132,"AF":8133,"Ġinvalid":8134,"Ġabsence":8135,"words":8136,"Ġweakly":8137,"Ġposterior":8138,"titions":8139,"Aut":8140,"gligible":8141,"inction":8142,"Ġfaster":8143,"Ġcalls":8144,"\",\"":8145,"Ġtriang":8146,"rb":8147,"ĠIE":8148,"GM":8149,"*)":8150,"ĠRemark":8151,"ulture":8152,"Ġsynchron":8153,"Ġcontract":8154,"$/":8155,"Ġsecurity":8156,"Ġintrinsic":8157,"Ġdesc":8158,"Ġsplitting":8159,"Av":8160,"sa":8161,"here":8162,"ĠFoundation":8163,"Ġversus":8164,"Items":8165,"atell":8166,"Assume":8167,"Ġillustrated":8168,"iton":8169,"ened":8170,"Other":8171,"dients":8172,"Project":8173,"Ġaccoun":8174,"Cap":8175,"UL":8176,"Ġlabeled":8177,"liography":8178,"Ġcomparable":8179,"oli":8180,"ATA":8181,"Ġsubsets":8182,"Ġseparated":8183,"ulo":8184,"ĠCopy":8185,"uck":8186,"})-":8187,"Ġprojective":8188,"Full":8189,"1991":8190,")}=":8191,"uel":8192,"okie":8193,"Ġemployed":8194,"DT":8195,"Scal":8196,"Ġbl":8197,"Ġtrees":8198,"Channel":8199,"independent":8200,"Ġprevent":8201,"Ġcard":8202,"EP":8203,"Ġtmp":8204,"ĠAssume":8205,"ĠCre":8206,"RS":8207,"iffer":8208,"pattern":8209,"Ġchoices":8210,"ĠĠĠĠĠĠĠĠĠĠĠĠĠĠĠĠĠĠĠĠĠĠĠĠĠĠĠĠĠĠĠĠĠĠĠĠĠĠĠ":8211,"tn":8212,"Ġharmonic":8213,"Ġrg":8214,"Ġcharacteristics":8215,"ITY":8216,"Custom":8217,"WS":8218,"EO":8219,"metric":8220,"Ġstabil":8221,"stood":8222,"Ġlie":8223,"ĠMC":8224,"âĢĿ":8225,"Ġnaturally":8226,"Second":8227,"drop":8228,"bytes":8229,"raise":8230,"Ġoptional":8231,"BM":8232,"ultra":8233,"plus":8234,"atellite":8235,"Ġindicating":8236,"~(":8237,"riend":8238,"uv":8239,"Ġ$$\\":8240,"Ġnonzero":8241,"})_{":8242,"learning":8243,"orizontal":8244,"Ġangles":8245,"]^{":8246,"Ġnegle":8247,"rat":8248,"quid":8249,"ĠWil":8250,"ĠRegister":8251,"ias":8252,"Ġdemonstrated":8253,"Ġreserv":8254,"Ġatt":8255,"Bundle":8256,"ission":8257,"ocused":8258,"SION":8259,"embed":8260,"Ġexhibit":8261,"oke":8262,"Ġelliptic":8263,"Ġsmallest":8264,"za":8265,"Ġ&$":8266,"levision":8267,"Ġaccept":8268,"tight":8269,"uds":8270,"svg":8271,"Ġproposition":8272,"Ġprincipal":8273,"Math":8274,"ACE":8275,"Ġextensions":8276,"Proto":8277,"Ġpara":8278,"Ġquick":8279,"spects":8280,"spe":8281,"Ġjob":8282,"ĠNot":8283,"compare":8284,"tite":8285,"reset":8286,"Pop":8287,"GG":8288,"Ġce":8289,"owers":8290,"bile":8291,"sys":8292,",.":8293,"125":8294,"displaymath":8295,"Ġaug":8296,"vskip":8297,"Ġcone":8298,"Ġimplicit":8299,"Ġversions":8300,"Ġproduces":8301,"wner":8302,"family":8303,")\">":8304,"Ġcrucial":8305,"Ġsubstit":8306,"Send":8307,"ĠSan":8308,"Ġapparent":8309,"Ġ>>>":8310,"physical":8311,"Ġgiving":8312,"experim":8313,"Ġ$<":8314,"HR":8315,"Ġvehic":8316,"ilation":8317,"taining":8318,"timeout":8319,"Ġtown":8320,"Ġdeduce":8321,"cmd":8322,"\\|_{\\":8323,"Ġallowing":8324,"TER":8325,"ĠHis":8326,"Ġhouse":8327,"Ġuniverse":8328,"problem":8329,"Ġlinearly":8330,"Ġtools":8331,"ĠBoolean":8332,"Ġda":8333,"Use":8334,"Ġlocations":8335,"lab":8336,"asible":8337,"Lower":8338,"anned":8339,"direction":8340,"oted":8341,"Ġexplore":8342,"Ġcomputer":8343,"controller":8344,"Ġstored":8345,"Errorf":8346,"hard":8347,"Ġenhance":8348,"Ġsky":8349,"TIM":8350,"Ġregard":8351,"Ġ\"/":8352,"eg":8353,"unsigned":8354,"handler":8355,"Ġabundance":8356,"rf":8357,"Has":8358,"ĠÃ":8359,"mock":8360,"Windows":8361,"awa":8362,"ĠĠĠĠĠĠĊ":8363,"Comparison":8364,"stable":8365,"ĠFebruary":8366,"ned":8367,"dict":8368,"Ġvelocities":8369,"Ġshare":8370,"Ġservices":8371,"ĠEuclidean":8372,"resolve":8373,"Ġ{},":8374,"mathds":8375,"Ġchanging":8376,"ĠNO":8377,"PM":8378,"upper":8379,"assertEquals":8380,"(/":8381,"Lib":8382,"Although":8383,"'>":8384,"Ġ$[\\":8385,"ĠVAL":8386,"amel":8387,"Ġdele":8388,"homog":8389,"Ġinitially":8390,"Display":8391,"Ġdemand":8392,"hook":8393,"CB":8394,"ulty":8395,"Ġcriterion":8396,"due":8397,"nodes":8398,"Dep":8399,"Ġepis":8400,"Ġsubstantial":8401,"dian":8402,"Ġsubsequent":8403,"Ġ_,":8404,"dereq":8405,"poly":8406,"aster":8407,"hidden":8408,"ĠMonte":8409,"dynamic":8410,"spaces":8411,"usted":8412,"Ġmoments":8413,"pers":8414,"Layer":8415,"Ġreasonable":8416,"lm":8417,"sia":8418,"Ġbegan":8419,"Ġ{{\\":8420,"ĠNetwork":8421,"Ġroughly":8422,"Ġplots":8423,"~~~~~~~~":8424,"Ġmesh":8425,"sn":8426,"Ġanalogous":8427,"Ġplaced":8428,"Ġreads":8429,"Ġprof":8430,"session":8431,"Ġarr":8432,"Ġsuffices":8433,"HM":8434,"editor":8435,"Ġcolors":8436,"ĠCur":8437,"moz":8438,"psch":8439,"analy":8440,"abbr":8441,"three":8442,"ĠIm":8443,"AE":8444,"mplectic":8445,"Main":8446,"ducation":8447,"Ġsimultaneously":8448,"HD":8449,"=(\\":8450,"Ġwal":8451,"setup":8452,"}=(":8453,"forming":8454,"ĠClo":8455,"specific":8456,"Ġgovernment":8457,"opts":8458,"Ġcamp":8459,"ipher":8460,"shell":8461,"hop":8462,"Ġpuls":8463,"unced":8464,"000000":8465,"pare":8466,"missions":8467,"}_{(":8468,"American":8469,"uniform":8470,"=\"_":8471,"Ġholes":8472,"fail":8473,"Ġperforming":8474,"Ġtim":8475,"Ġthermod":8476,"Ġpractical":8477,"Database":8478,"Mar":8479,"desc":8480,"Ġtend":8481,"Len":8482,"pschitz":8483,"IA":8484,"ĠEinstein":8485,"ishing":8486,"Ġplus":8487,"Gu":8488,"rad":8489,"BO":8490,"adoop":8491,"Iterator":8492,"Ġconstructor":8493,"Ġrepeated":8494,"selection":8495,")|^":8496,"'}$":8497,"than":8498,"Ġidentification":8499,"Ġdir":8500,"(__":8501,"yal":8502,"ita":8503,"Ġadjacent":8504,"sym":8505,"ystems":8506,"endar":8507,"domin":8508,"Ġentity":8509,"symbol":8510,"Ġeffectively":8511,"aved":8512,"Internal":8513,"Dictionary":8514,"Ġhadron":8515,")!":8516,"Ġsil":8517,"Remove":8518,"ĠRus":8519,"XML":8520,"PAR":8521,"learly":8522,"names":8523,"Ġquotient":8524,"Ġtriangle":8525,"pan":8526,"Ġpulse":8527,">.":8528,"impl":8529,"constrain":8530,"Changed":8531,"Ġcarry":8532,"))$.":8533,"gon":8534,"elastic":8535,"Ġreflection":8536,"ĠPlan":8537,"Lock":8538,"lyph":8539,"Div":8540,"Ġmut":8541,"Ġca":8542,"Ġcircular":8543,"Ġnorth":8544,"}|^":8545,"Ġresidual":8546,"\\,.":8547,"mous":8548,"Ġconvert":8549,"Uni":8550,").}":8551,"Ġdy":8552,"Ġequals":8553,"ĠCla":8554,"}}}{":8555,"Ġcompany":8556,"Draw":8557,"Ġoutputs":8558,"Ġcontribute":8559,"Rev":8560,"Ġintegrals":8561,"Ġmedian":8562,"grad":8563,"Ġconstrained":8564,"High":8565,"]_{":8566,"boost":8567,"Ġapplies":8568,"ĠWindow":8569,"Ġreaction":8570,"Ġoverlap":8571,"Ġcriteria":8572,"Ġ'';":8573,"Ġpossibly":8574,"Close":8575,"Ġcareer":8576,"Ġ],":8577,"Ġadopt":8578,"veloper":8579,"Ñĥ":8580,"}\\!":8581,"ouch":8582,"Ġenabled":8583,"Ġtraditional":8584,"promise":8585,"Ġlatent":8586,"Ġlearned":8587,"ĠKey":8588,"pkg":8589,"ĠMeV":8590,"ĠVir":8591,"jet":8592,"lands":8593,"Ġrequirements":8594,"Ġstrategies":8595,"sig":8596,"rey":8597,"Ġnumerically":8598,"errors":8599,"temperature":8600,"Ġask":8601,"Prefix":8602,"Ġcoherent":8603,"ĠNor":8604,"spective":8605,"tyles":8606,"world":8607,"Ġanalytical":8608,"Ġconnections":8609,"Ġhyperbolic":8610,"Ġsides":8611,"met":8612,"Ġmeet":8613,"Ġ$-$":8614,"frared":8615,"$&$":8616,"ĠCR":8617,"WE":8618,"hanced":8619,"given":8620,"nil":8621,"Ġrecogn":8622,"Attributes":8623,"inement":8624,"ĠAb":8625,"Ġquali":8626,"utor":8627,"ua":8628,"Ġdwar":8629,"ĠBayes":8630,"Ġwhenever":8631,"Ġinfinity":8632,"}_+":8633,"elements":8634,"ondon":8635,"anchor":8636,"ĠNGC":8637,"anced":8638,"Some":8639,"vities":8640,"Global":8641,"},{\\":8642,"}}}$":8643,"@{}":8644,"okup":8645,"Ġinstant":8646,"Ġpeaks":8647,"Ġopt":8648,"ĠLorentz":8649,"lr":8650,"$--":8651,"supervised":8652,"contains":8653,"Ġdu":8654,"cv":8655,"Ġdivided":8656,"Ġaux":8657,"Ġmostly":8658,"standard":8659,"Ġsupports":8660,"ĠMarkov":8661,"Ġformalism":8662,"\\-":8663,"Ġlogic":8664,"Ġbinding":8665,"Ġinflation":8666,"Gen":8667,"ĠLy":8668,"closed":8669,"ope":8670,"1980":8671,"Ġ\\,,":8672,"ians":8673,"bigskip":8674,"respectively":8675,"}^{(\\":8676,"ĠDefault":8677,"Ġbroken":8678,"Ġattempt":8679,"Ġmoved":8680,"Ġeventually":8681,"Ġentanglement":8682,"Security":8683,"Ġgenerality":8684,"Single":8685,"'',":8686,"className":8687,"ĠCarlo":8688,"Ġclub":8689,"touch":8690,"Api":8691,"ĠPublic":8692,"tribut":8693,"Ġrequirement":8694,"Ġinduces":8695,"Ps":8696,"{[":8697,"seq":8698,"cribe":8699,"Proxy":8700,"Ġpotentials":8701,"dri":8702,"Ġresolved":8703,"expression":8704,"ĠBOOST":8705,"ĠĠĠĠĠĠĠĠĠĠĠĠĠĠĠĠĠĠĠĠĠĠĠĠĠĠ":8706,"Ġhomot":8707,"Cluster":8708,"Ġinterior":8709,"ĠAR":8710,"Ġdissi":8711,"ĠWest":8712,"loyment":8713,"Ġgate":8714,"maging":8715,"={\\":8716,"Ġboundaries":8717,"ĠMulti":8718,"^-$":8719,"UP":8720,"Any":8721,"Register":8722,"forEach":8723,"Ġseed":8724,"ĠGeneral":8725,"]+":8726,"ĠFR":8727,"AX":8728,"nes":8729,"Media":8730,"ective":8731,"ĠImp":8732,"iliary":8733,"Ġdeformation":8734,"rency":8735,"ensus":8736,"###":8737,"FE":8738,"Ġexcitation":8739,"SIZE":8740,"Ġaffected":8741,"aml":8742,"solid":8743,"Ġcollected":8744,"trum":8745,"$(\\":8746,"Ġparser":8747,"adj":8748,"poses":8749,"mac":8750,"trace":8751,"Ġfinitely":8752,"underset":8753,"gal":8754,"Ġprops":8755,"ĠMy":8756,"uncil":8757,"Ġworth":8758,"Ġsuccessfully":8759,"Ġsemantic":8760,"utoff":8761,"CG":8762,"Space":8763,"Ġindependently":8764,"TRY":8765,")\\,\\":8766,"Ġunderstood":8767,"shal":8768,"lli":8769,"Ġest":8770,"cited":8771,"_->":8772,"Ġinvolves":8773,"Ġboost":8774,"ĠSun":8775,"ĠCNN":8776,"anguages":8777,"Ġtrade":8778,"Similarly":8779,"fol":8780,"Ġrespective":8781,"illis":8782,"sident":8783,"ratio":8784,"MAX":8785,"Ġcomposed":8786,"Ġsegmentation":8787,"distance":8788,"Ġscores":8789,"pix":8790,"Ġthink":8791,"NA":8792,"Ġexecute":8793,"Ġdescribing":8794,"Ġfmt":8795,"^{[":8796,"hd":8797,"\\}}":8798,"ĠTwo":8799,"tract":8800,"Ġpull":8801,"ressive":8802,"amond":8803,"Ġgenerates":8804,"Ġzone":8805,"graphy":8806,"Ġordering":8807,"Cs":8808,"Ġstronger":8809,"Ð»":8810,"prefix":8811,"incre":8812,"jQuery":8813,"Dialog":8814,"centerline":8815,"Ġmarket":8816,"bour":8817,"subfloat":8818,"iteral":8819,"Ġcamera":8820,"inher":8821,"kind":8822,"lank":8823,"/***/":8824,"Ġmock":8825,"INS":8826,"ATH":8827,"found":8828,"FAULT":8829,"Ġwomen":8830,"Ġds":8831,"Acc":8832,"Ġemit":8833,"Ġraise":8834,"Ġtranslate":8835,"ĠUser":8836,"href":8837,"ĠBH":8838,"Ġschedule":8839,"renew":8840,"fony":8841,"Ġwidely":8842,"Ġapplicable":8843,"ipped":8844,"gacy":8845,"ĠReact":8846,"Ġmaterials":8847,"gets":8848,"flags":8849,"Ret":8850,"ĠXML":8851,"umula":8852,"Loader":8853,"maps":8854,"rew":8855,"Ġdb":8856,"Ġii":8857,"Ġpartially":8858,"teness":8859,"loader":8860,"fold":8861,"esting":8862,"Ġmen":8863,"Ġreasons":8864,"Ġcomplicated":8865,"Ġarise":8866,"estern":8867,"Ġtreated":8868,"ĠArm":8869,"Ġcooling":8870,"lective":8871,"Memory":8872,"extra":8873,"}\\}$":8874,"Ġclock":8875,"Mu":8876,"cessed":8877,"reek":8878,"ĠAN":8879,"Ġfamilies":8880,"Ġroots":8881,"Hel":8882,"yy":8883,"aker":8884,"Ġlock":8885,"Ġcalibration":8886,"save":8887,"CHE":8888,"apes":8889,"Axis":8890,"1989":8891,"eved":8892,"ander":8893,"Ġtell":8894,"Ġdelta":8895,">::":8896,"')\\":8897,"Ġobservables":8898,"Ġinvariance":8899,"oulo":8900,"Ġassess":8901,"cher":8902,"Ġschema":8903,"{%":8904,"WA":8905,"800":8906,"Ġdiscussions":8907,"brief":8908,"}}\\,":8909,"Ġ];":8910,"CI":8911,"loaded":8912,"Plan":8913,"scription":8914,"Ġplays":8915,"master":8916,"Ġexceed":8917,"cous":8918,"ĠUnder":8919,"dp":8920,")));":8921,"Ġpod":8922,"ĠHer":8923,"Ġcentury":8924,"Sym":8925,"noise":8926,"ĠText":8927,"Experim":8928,"correct":8929,"Ġconversion":8930,"nat":8931,"integra":8932,"sibility":8933,"Headers":8934,"tors":8935,"NotNull":8936,"Ġsecondary":8937,"basic":8938,"(|":8939,"analysis":8940,")}^":8941,"Ġwalk":8942,"Ġfourth":8943,"mem":8944,"HP":8945,"ĠLap":8946,"ville":8947,"ginary":8948,"Ġtechnical":8949,"Na":8950,"^+\\":8951,"}$).":8952,"Ġbehind":8953,"~{\\":8954,"ĠCase":8955,"Ġund":8956,"Ġsharp":8957,"CV":8958,"Fix":8959,"TS":8960,"unique":8961,"Ġranges":8962,"Ġinvoke":8963,"original":8964,"factory":8965,"ara":8966,"lam":8967,"Xml":8968,"Ġacting":8969,"ĠAir":8970,"Ġvanishing":8971,"erial":8972,"parts":8973,"Ġyoung":8974,"}}+":8975,"addClass":8976,"Ġderivation":8977,"Ġdetermines":8978,"Ġqueries":8979,"ĠCall":8980,"ja":8981,"Gr":8982,"Ġconclu":8983,"tably":8984,"$=":8985,"Ġtruth":8986,"Ġfactory":8987,"Ġoutper":8988,"LM":8989,"Ġmechanisms":8990,"Ġroute":8991,"themes":8992,"ĠSur":8993,"evertheless":8994,"Ġcoverage":8995,"Ġcosmic":8996,"Ġconcentration":8997,"Ġrecorded":8998,"fix":8999,"ĠCP":9000,"Ġseconds":9001,"Adap":9002,"Ġadmits":9003,"Ġcycles":9004,"Conf":9005,"zen":9006,"ĠFrench":9007,"att":9008,"Cho":9009,"Us":9010,"War":9011,"ĠBr":9012,"Framework":9013,"autoref":9014,"Ġhappens":9015,"entication":9016,"Ġtraffic":9017,"press":9018,"Ġdom":9019,"enses":9020,"Ġtimeout":9021,"jections":9022,"similar":9023,"Msg":9024,"Ġcorrelated":9025,"Print":9026,"Ġmagne":9027,"printf":9028,"ĠIII":9029,"Ġanimation":9030,"Ġrelaxation":9031,"illing":9032,"ĠRecall":9033,"Ġinterpreted":9034,"Ali":9035,"Ġloaded":9036,"tates":9037,"commu":9038,"Ġjus":9039,"deriv":9040,"ĠNext":9041,"}(-":9042,"repe":9043,"Ġbriefly":9044,"ĠImage":9045,"ĠDen":9046,"ĠMich":9047,"ĠDO":9048,"Fil":9049,"FP":9050,"metadata":9051,"Ġcomment":9052,"SG":9053,"Ġdrawn":9054,"Ġusage":9055,"Ġmetallicity":9056,"grade":9057,"Ġtested":9058,"hasOwnProperty":9059,"was":9060,"equival":9061,"placement":9062,"ĠSi":9063,"hadoop":9064,"ĠPark":9065,"Ġfilename":9066,"vironments":9067,"Ġvilla":9068,"access":9069,"smooth":9070,"Ġserved":9071,"Ġcorrespondence":9072,"Ġmetal":9073,"Ġpoor":9074,"Rece":9075,"tian":9076,"Flags":9077,"Ġpermutation":9078,"UID":9079,"Ġgrant":9080,"enable":9081,"Ġconvenient":9082,"written":9083,"fx":9084,"Ġunstable":9085,"Ġintersect":9086,"pu":9087,"FILE":9088,"Ġfilters":9089,"Ġcorrectly":9090,"Ġabelian":9091,"Ġpresents":9092,"Ġmini":9093,"enabled":9094,"ĠChampion":9095,"Ġprice":9096,"Ġseparately":9097,"Feature":9098,"formula":9099,"ĠOnly":9100,"pheric":9101,"Ġalpha":9102,"renewcommand":9103,"101":9104,"pb":9105,"Ġmoduli":9106,"rations":9107,"Ġexplor":9108,"Ġelectronic":9109,"ĠAfric":9110,"Ġillustrate":9111,"COLOR":9112,"ĠChris":9113,"lescope":9114,"ĠEast":9115,"Microsoft":9116,"Ġfoo":9117,"unts":9118,"Ġgran":9119,"unic":9120,"Ġnegligible":9121,"Ġleave":9122,"ĠUpdate":9123,"Orig":9124,"ota":9125,"gramming":9126,"ĠSim":9127,"Ġreceive":9128,"rupt":9129,"Ġinsert":9130,"Ġtrip":9131,"Ġlayout":9132,"1987":9133,">();":9134,"compact":9135,"Ġaveraged":9136,"screen":9137,"Ġeast":9138,"ĠFurther":9139,"ades":9140,"vin":9141,"chy":9142,"Ġsymmetries":9143,"Shared":9144,"Flow":9145,"Ġ){":9146,"__)":9147,"ĠWilli":9148,"bad":9149,"Ġformulas":9150,"inity":9151,"Ġfire":9152,"protect":9153,"Ġinfer":9154,"ĠIP":9155,"Ġcomments":9156,"Ġimplements":9157,"cepts":9158,"Ġlost":9159,"Ġcovering":9160,"Ġprobe":9161,"ued":9162,"components":9163,"Ġattacks":9164,"interval":9165,"Ġdeli":9166,"gging":9167,"aneous":9168,"ĠCode":9169,"createElement":9170,"Ġmajority":9171,"ä¸":9172,".'":9173,"Post":9174,"andra":9175,"idx":9176,"Ġmaster":9177,"rong":9178,"Ġconventional":9179,"pending":9180,"expan":9181,"Ġlongit":9182,"odd":9183,"esides":9184,"Ġsatellite":9185,"groups":9186,"Ġsouth":9187,"ĠĠĠĠĠĠĠĠĠĠĠĠĠĠĠĠĠĠĠĠĠĠĠĠĠĠĠĠ":9188,"ĉčĊ":9189,"PORT":9190,"Ġflags":9191,"Ġsampled":9192,"Ġinstability":9193,"STM":9194,"artifact":9195,"orbit":9196,"done":9197,"Ġcreation":9198,"Ġconsistency":9199,"ye":9200,"Ġencoder":9201,"ĠLondon":9202,"LINE":9203,"ben":9204,"Another":9205,"variants":9206,"listener":9207,"Ġhighlight":9208,"Ġrelativistic":9209,"\"\"\"":9210,"Ġmultiplication":9211,"Ġclosure":9212,"TED":9213,"Ġrealistic":9214,"ĠMil":9215,")/\\":9216,"quote":9217,"Ġanomal":9218,"figs":9219,"Ġenumer":9220,"Grid":9221,"transp":9222,"}\"":9223,"bors":9224,"Identifier":9225,"ĠSuper":9226,"ĠTask":9227,"tur":9228,"ĠAL":9229,"fc":9230,"}}\\\\":9231,"consistent":9232,"Ġcircles":9233,"aylor":9234,"),(":9235,"Ġrepresentative":9236,"Ġcollect":9237,"Ġinterference":9238,"Ġcondens":9239,"mutable":9240,"}}-":9241,"degree":9242,"ularities":9243,"ĠTR":9244,"Star":9245,"):=\\":9246,"Ġwire":9247,"Ġborn":9248,"owski":9249,"Classes":9250,"gnition":9251,"Ġextent":9252,"'(\\":9253,"rents":9254,"Ġquas":9255,"Ġasync":9256,"assertEqual":9257,"pq":9258,"attributes":9259,"Ġchecked":9260,"Ġ\\#":9261,"Ġdeterministic":9262,"ĠAT":9263,"1988":9264,"ĠEuropean":9265,"Ġheaders":9266,"Ġseven":9267,"]:":9268,"Ġtab":9269,"imed":9270,"Ġaspects":9271,"Ġsteady":9272,"Interval":9273,"Ġpapers":9274,"}$;":9275,"Ġclassifier":9276,"Ġplatform":9277,"600":9278,"}}+\\":9279,"ToString":9280,"Ġsingularity":9281,"Ġintroduction":9282,"+|":9283,"expand":9284,"optimal":9285,"ĠCollege":9286,"olving":9287,"corresponding":9288,"Word":9289,"Ġglob":9290,"ĠkeV":9291,"omenta":9292,"Ġregularization":9293,"Ðº":9294,"Ġdotted":9295,"ptions":9296,"Member":9297,"Ġdiameter":9298,"Ġpassing":9299,"ĠMed":9300,"otent":9301,"resolution":9302,"nostic":9303,"atorial":9304,"Ã¶":9305,"ĠStr":9306,"Ġacces":9307,"Ġsep":9308,"Conver":9309,"SN":9310,"ĠSum":9311,"actor":9312,"parser":9313,"Ġtangent":9314,"Ġmathematical":9315,"ĠEuler":9316,"ĠService":9317,"sal":9318,"ny":9319,"Ġ\\\\[":9320,"ĉĠĠ":9321,"Job":9322,"Under":9323,"coordinate":9324,"gate":9325,"ĠĠĠĠĠĠĠĠĠĠĠĠĠĠĠĠĠĠĠĠĠĠĠĠĠĠĠĠĠ":9326,"ĠâĢľ":9327,"Ġseem":9328,"}$$":9329,"Ġexcess":9330,"]_":9331,"Ġclosely":9332,"Ġperforms":9333,"ester":9334,"ETH":9335,"Ġadjust":9336,"Ġreset":9337,"Ġcolour":9338,"titude":9339,"ĠCSS":9340,"NT":9341,"ĠRad":9342,"Native":9343,"missible":9344,"utf":9345,"Ġgot":9346,"[:":9347,"ĠVersion":9348,"Ġ```":9349,"Ġcreating":9350,"solution":9351,"Ġshear":9352,"Ġrights":9353,"Ġ'\\":9354,"Ġbad":9355,"Ġhybrid":9356,"perturb":9357,"Ġcollabor":9358,"ociation":9359,")<":9360,"Ġgeodesic":9361,"NC":9362,"Ġexplanation":9363,"Animation":9364,"Ġcircuit":9365,"Ġcohomology":9366,"posable":9367,"echn":9368,"duration":9369,"Ġcavity":9370,"headers":9371,"Ġruntime":9372,"cancel":9373,"Ġstudents":9374,"SW":9375,"Ġresponsible":9376,"Ġanni":9377,"Ġcombinations":9378,"Ġdestroy":9379,"abc":9380,"frequency":9381,"ĠJaco":9382,"Ġmetadata":9383,"Tests":9384,"}{$":9385,"GP":9386,"Ġchoosing":9387,"profile":9388,"Show":9389,"Ġ([":9390,"aws":9391,"Ġdie":9392,"makebox":9393,"MENT":9394,"URI":9395,"pod":9396,"retch":9397,"Ġtight":9398,"Generic":9399,"hole":9400,"tivities":9401,"BOO":9402,"ociety":9403,"Ġconsu":9404,"ĠCr":9405,"Ġtorus":9406,"Ġcontrolled":9407,"Pool":9408,"ycle":9409,"Ġtopic":9410,"Si":9411,"aux":9412,"Ġfails":9413,"relax":9414,"Ġsometimes":9415,"BF":9416,"Tri":9417,"outer":9418,"Ġmatched":9419,"Ġreceiver":9420,"Ġcommit":9421,"velope":9422,"progress":9423,"Ġcommonly":9424,"subscri":9425,"biggl":9426,"ĠHall":9427,"}]$":9428,"iling":9429,"wa":9430,"()).":9431,"Ġneur":9432,"Ġprobably":9433,"Ġ)$":9434,"possi":9435,"ĠOption":9436,"addr":9437,"Ġacceleration":9438,"orest":9439,"ĠIts":9440,"Ġsci":9441,"\\!\\!\\!\\!":9442,"Ġmillion":9443,"ditive":9444,"libr":9445,"itian":9446,"Ġelection":9447,"Ġsegments":9448,"ĠDav":9449,"ĠDire":9450,"ison":9451,"TEXT":9452,"origin":9453,"Ġencoded":9454,"bg":9455,"Ġsigned":9456,"lymp":9457,"aching":9458,"bibliography":9459,"Ġtargets":9460,"xrightarrow":9461,"Ġaccomp":9462,"momentum":9463,"ĠDuring":9464,"Ġcoming":9465,",(":9466,"rev":9467,"stellar":9468,"Vertex":9469,"Mouse":9470,")~\\":9471,"Ġvalign":9472,"textstyle":9473,"invalid":9474,"Ġ\\:":9475,"StyleID":9476,"Ġlengths":9477,"leftrightarrow":9478,"Ġhit":9479,"bx":9480,"Ġloops":9481,"Ġio":9482,"destroy":9483,"Ġphoto":9484,"Ġdivergence":9485,"argument":9486,"ILE":9487,"Ġleaves":9488,"Ġupdates":9489,"states":9490,"watch":9491,"Ġembeddings":9492,"BUG":9493,"Ġcollapse":9494,"According":9495,"Ġarises":9496,"Ġann":9497,"Ġproves":9498,"isy":9499,"ĠSpecifically":9500,"Ġspecifically":9501,"rect":9502,"Ġsl":9503,"ECT":9504,"TF":9505,"Bit":9506,"lined":9507,"Ġrgba":9508,"browser":9509,"oked":9510,"virtual":9511,"ike":9512,"DIR":9513,"',\\":9514,"Failed":9515,"Ġecho":9516,"Ġnothing":9517,"@\"":9518,"biggr":9519,"Ġfermions":9520,"indic":9521,"Figures":9522,"sest":9523,"Ġadversarial":9524,"ĠWrite":9525,"Ġhistor":9526,"iforn":9527,"MAP":9528,"}]\\":9529,"Ġfitted":9530,"rics":9531,"Ġappearance":9532,"Ġincident":9533,"Ġextremely":9534,"Dom":9535,"Span":9536,"half":9537,"hips":9538,"Ġproperly":9539,"Normal":9540,"Ġsynthetic":9541,"Ġradii":9542,"ĠField":9543,"Ġinequalities":9544,"alloc":9545,"htbp":9546,"throw":9547,"XY":9548,"Ġnational":9549,"NV":9550,"Ġ[[":9551,"Ġorganized":9552,"Ġtravel":9553,"Ġquarks":9554,"STAT":9555,"rypt":9556,"Ġcounts":9557,"qq":9558,"Ġanalyzed":9559,"Ġoscillations":9560,"Ġreplacing":9561,"Ġliquid":9562,"Ġproxy":9563,"Ġeditor":9564,"Ġhomomorphism":9565,"Ġ''":9566,"DL":9567,"ĠAct":9568,"ifications":9569,"clone":9570,"ĠML":9571,"sun":9572,"reful":9573,"objects":9574,"Ġimaginary":9575,"Ġcyclic":9576,"Ġregarding":9577,"concat":9578,"orary":9579,"(.":9580,"Ġelementary":9581,"Ġholomorphic":9582,"onomy":9583,"console":9584,"np":9585,"ĠCH":9586,"Fi":9587,"Ġmonoton":9588,"ria":9589,"Ġtransmit":9590,"Ġrestrict":9591,"month":9592,"Ġdisorder":9593,"tificate":9594,"ifornia":9595,"Ġconservation":9596,")\"":9597,"variable":9598,"Summary":9599,"through":9600,"aver":9601,"Ġeconom":9602,"generated":9603,"Ġpurposes":9604,"equence":9605,"ĠCenter":9606,"ĠAm":9607,"111":9608,"Enumer":9609,"rec":9610,"cloud":9611,"ĠInternational":9612,"thread":9613,"ermitian":9614,"Ġtot":9615,"Ġexcited":9616,"\\'{":9617,"predic":9618,"ĠHy":9619,"Directory":9620,"Ġtokens":9621,"Ġmerge":9622,"*{-":9623,"Ġcrystal":9624,"tributions":9625,"augh":9626,"ĠMor":9627,"ĠInstitute":9628,"NULL":9629,"tableblock":9630,"ĠJava":9631,"ĠGoogle":9632,"protocol":9633,"Trace":9634,"ono":9635,"Ġposs":9636,"Ġends":9637,"Ġexport":9638,"ĠFin":9639,"Background":9640,"Ġbubble":9641,"Ġquar":9642,"Ġmagnet":9643,"Ġ\\}$":9644,"Ġfinds":9645,"}{$\\":9646,"annot":9647,"Ġdecla":9648,"enta":9649,"Observer":9650,"VM":9651,"oney":9652,"Files":9653,"ALSE":9654,"record":9655,"Ġmanifolds":9656,"setlength":9657,"arm":9658,"colhead":9659,"Ġtriple":9660,"_{(\\":9661,"Ġinstall":9662,"consider":9663,"Agent":9664,"laration":9665,"ynchron":9666,"ĉĉĉĉĉĉĉĉĉ":9667,"ENTRY":9668,"DI":9669,"both":9670,"1986":9671,"Named":9672,"Ġeight":9673,"Ġfractional":9674,"Ġminor":9675,"gtr":9676,"storage":9677,"Ġbalance":9678,"Ġweek":9679,"because":9680,"Ġcopies":9681,"visible":9682,"Ġreading":9683,"Ġsomewhat":9684,"Ġui":9685,"Ġauxiliary":9686,"KS":9687,"admin":9688,"different":9689,"Ġroom":9690,"('./":9691,"alled":9692,"Ġgenus":9693,"fp":9694,"Ġsymplectic":9695,"ductivity":9696,"=\"-":9697,"topr":9698,"Ġenvironments":9699,"Ġcountry":9700,"tages":9701,"togram":9702,"Ġmouse":9703,"\\\\\\":9704,"Ġok":9705,"Ġdisplayed":9706,"Ġguarantee":9707,"Ġreward":9708,"\">&":9709,"Ġjets":9710,"may":9711,"ewise":9712,"Eff":9713,"Ġ$-\\":9714,"goog":9715,"thin":9716,"Ġimpos":9717,"Py":9718,"exact":9719,"&+":9720,"})}\\":9721,"manager":9722,"graphs":9723,"typename":9724,"toprule":9725,"Ġmodern":9726,"frag":9727,"ndef":9728,"Ġisolated":9729,"scriptstyle":9730,"lg":9731,"Ġordinary":9732,"pin":9733,")~":9734,"video":9735,"varpi":9736,"Ġslice":9737,"Ġpotentially":9738,"Ġmarginal":9739,"ĠBG":9740,"kernel":9741,"quantum":9742,"'];":9743,"ĠBrown":9744,"Ġpipeline":9745,"ĠCopyright":9746,"motion":9747,"WR":9748,"'re":9749,"Ġpromis":9750,"Ġpacket":9751,"Ġbins":9752,"Ġhealth":9753,"'-":9754,"Ġqubit":9755,"Ġcovered":9756,"Ġcompression":9757,"Ġnearest":9758,"canvas":9759,".&.&":9760,"Ġoutflow":9761,"arity":9762,"fully":9763,"Simple":9764,"Panel":9765,"tel":9766,"ĠGalactic":9767,"Ġfeasible":9768,"Ġmonitor":9769,"dig":9770,"Ġstructural":9771,"Ġrecognition":9772,"edit":9773,"ranes":9774,"ĠDiv":9775,"Ġtelevision":9776,"Ġpowers":9777,"Ġdriven":9778,"VERSION":9779,"relative":9780,"Statement":9781,"Ġcentered":9782,"ĠPath":9783,"Ġcombining":9784,"bigoplus":9785,"curve":9786,"Ġpurely":9787,"ĠSNR":9788,"Double":9789,"Ġsave":9790,"ĠDefine":9791,"Sync":9792,"htb":9793,"Ġcompletion":9794,"atomic":9795,"processing":9796,"Protocol":9797,"Ġreverse":9798,"USE":9799,"strate":9800,"Ġexecuted":9801,"**/":9802,"Ġconfirmed":9803,"via":9804,"Thm":9805,"required":9806,"=[":9807,"mpt":9808,"stat":9809,"Ġpenal":9810,"ortun":9811,"Ġri":9812,"continuous":9813,"Ġhours":9814,"uses":9815,"Ġconclusions":9816,"}^{*":9817,"Ġmoves":9818,"scape":9819,"irm":9820,"Ġbuf":9821,"Ġpion":9822,"restr":9823,"convex":9824,"Domain":9825,"claim":9826,"dc":9827,"Ġlive":9828,"mbining":9829,"sinh":9830,"Ġduality":9831,"FM":9832,"anger":9833,"Ġvalidate":9834,"requires":9835,"Logger":9836,"ĠĠĠĠĠĊ":9837,"Ġencode":9838,"ĠAmeric":9839,"checked":9840,"simp":9841,"gged":9842,"Ġappearing":9843,"Ġerg":9844,"Ġchallenging":9845,"choose":9846,"Ġalignment":9847,"Ġdebug":9848,"runtime":9849,"Struct":9850,"protected":9851,"resizebox":9852,"Socket":9853,"Ġtrend":9854,"Ġfluxes":9855,"Ġbusiness":9856,"ONE":9857,"ĠAny":9858,"TA":9859,"ĠStar":9860,"Ġvi":9861,"dical":9862,"Ġcursor":9863,"uzz":9864,"details":9865,"NP":9866,"},\\\\":9867,"ĠProof":9868,"ĉĠĠĠĠĠĠĠĠĠĠĠĠ":9869,"dialog":9870,"-{\\":9871,"Ġrefers":9872,"Ġcutoff":9873,"vv":9874,"Year":9875,"|{\\":9876,").$$":9877,"Comment":9878,"Ġtypedef":9879,"Also":9880,"Ġscaled":9881,"ymmetric":9882,"Ġscene":9883,"FIG":9884,"Selected":9885,"Ġperiods":9886,"1970":9887,"ĠInstead":9888,"ignment":9889,"bootstrap":9890,"Ġempha":9891,"ĠFix":9892,"[{\\":9893,"Ġthought":9894,"}}}{\\":9895,"Ġdipole":9896,"Ġcomputations":9897,"eqq":9898,"erc":9899,")*":9900,"]^{\\":9901,"Ġcloser":9902,"Ġobservational":9903,"ĠCho":9904,"tiveness":9905,"lative":9906,"}}^{(":9907,"Ġrich":9908,"Limit":9909,"Duration":9910,"ĠWal":9911,"satisf":9912,"vectors":9913,"trib":9914,"-$\\":9915,"Ġgradu":9916,"chen":9917,"uby":9918,"Ġsurround":9919,"112":9920,"wer":9921,"Ġassignment":9922,"CHECK":9923,"lush":9924,"Ġcharges":9925,"ida":9926,"KL":9927,"eto":9928,"Ġultra":9929,"proxy":9930,"chive":9931,"Ġcareful":9932,"boundary":9933,"tc":9934,"Ġescape":9935,"Ġplaces":9936,"Ġprojected":9937,"Sk":9938,"ĠDue":9939,"Ġlimitations":9940,"ica":9941,"email":9942,"loading":9943,"scalebox":9944,"Total":9945,"aign":9946,"EG":9947,"}}_\\":9948,"1985":9949,"rk":9950,"atibility":9951,"ena":9952,"Ġtends":9953,"merge":9954,"Ġ>>":9955,"Ġcrossing":9956,"Ġperspective":9957,"Ġsensor":9958,"ĠGr":9959,"ĠHouse":9960,"}$),":9961,"umption":9962,"manifold":9963,"Ġadmin":9964,"SSL":9965,"ĠZe":9966,"512":9967,"Require":9968,"ĠCup":9969,"attle":9970,"Ġcentre":9971,"erry":9972,"Ġlocalization":9973,"Ġthemselves":9974,"conj":9975,"Ġensures":9976,"sumer":9977,"aria":9978,"DBLP":9979,"tatively":9980,"ĠOper":9981,"cosh":9982,"Progress":9983,"Ġhomotopy":9984,"()));":9985,"wrapper":9986,"xiom":9987,"Collections":9988,"critical":9989,"throws":9990,"Ġannihi":9991,"training":9992,"Ġviewed":9993,"Ġchallenge":9994,"Move":9995,"HTTP":9996,"=$":9997,"Ġfigures":9998,"Ġproofs":9999,"password":10000,"ariant":10001,"Ġson":10002,"Ġcommutative":10003,"Desc":10004,"xymatrix":10005,"ifndef":10006,"ova":10007,"}.$":10008,"Ġoriginally":10009,"Bs":10010,"Ġutility":10011,"Ġcubic":10012,"Conclusion":10013,"Ġcauses":10014,"ĠMag":10015,"material":10016,"serial":10017,"$}\\":10018,"1984":10019,"gtrsim":10020,"Ġexit":10021,"eper":10022,"Ġready":10023,"ĠCalifornia":10024,"Br":10025,"bibliographystyle":10026,"Ġrectangle":10027,"igu":10028,"Indeed":10029,"Ġfinish":10030,"wal":10031,"Ġoutcome":10032,"occ":10033,"^*(\\":10034,"irit":10035,"ĠParameter":10036,"ceptions":10037,"ĠLand":10038,"Found":10039,"terms":10040,"Depend":10041,"electron":10042,"igens":10043,"Ġmanip":10044,"previous":10045,"Ġsquares":10046,"wp":10047,"fraction":10048,"TRUE":10049,"ĠUI":10050,"Ġmolecules":10051,"Ġ[\"":10052,"Ġfocused":10053,"tities":10054,"Ġelastic":10055,"ĠDeep":10056,"ACT":10057,"_{{":10058,"ĠConfig":10059,"Icon":10060,"ĠSm":10061,"Ġintroducing":10062,"Children":10063,"EEE":10064,"Den":10065,"Ġ\\,.":10066,"ĠConsequently":10067,"Ġparam":10068,"Pair":10069,"Ġdrag":10070,"polar":10071,"Ġpopulations":10072,"=\"../../../../../":10073,"Ġlocalized":10074,"ĠPromise":10075,"radio":10076,"ĠResults":10077,"IND":10078,"qed":10079,"'])":10080,"cribed":10081,"Gs":10082,"Ġmodification":10083,"PY":10084,"ram":10085,"Ġaudio":10086,"isArray":10087,"positive":10088,"Ġbuilder":10089,"Ġinstruction":10090,"tests":10091,"OL":10092,"REG":10093,"Ġinstrument":10094,"ĠRemove":10095,"}$:":10096,"Ġachieves":10097,"Constants":10098,"evolution":10099,"legal":10100,"Ġinteracting":10101,"iner":10102,"omite":10103,"diagonal":10104,"ĠCouncil":10105,"Ġcast":10106,"ĠCS":10107,"ICE":10108,"Ġmonth":10109,"Ġconsec":10110,"centage":10111,"ĠHTTP":10112,"artifactId":10113,"rift":10114,"phy":10115,"Ġtracking":10116,"Ġdriving":10117,"+}":10118,"Ġanalys":10119,"Ġenhanced":10120,"enberg":10121,"identifier":10122,"checkbox":10123,"ĠValid":10124,"Ġremote":10125,"annotation":10126,"emit":10127,"ĠProcess":10128,"ĠTop":10129,"Ġlimiting":10130,"Ġcontents":10131,"ighter":10132,"ancial":10133,"Cre":10134,"Ġmomenta":10135,"Ġmm":10136,"Ġ)\\":10137,"Ġskip":10138,"ĠNewton":10139,"Ġconverge":10140,"partite":10141,"decor":10142,"Ġprivacy":10143,"ington":10144,"entific":10145,"configuration":10146,"Ġunity":10147,"IMP":10148,"fast":10149,"ston":10150,"tools":10151,"Ġrecords":10152,"Ġcontinuity":10153,"Ġfem":10154,"ĠMac":10155,"Region":10156,"Ġlogarithmic":10157,"auchy":10158,"ĠBan":10159,"ĠEarth":10160,"ĠCOM":10161,"batch":10162,"LOCK":10163,"spring":10164,"udinal":10165,"ĠEval":10166,"My":10167,"good":10168,"former":10169,"Ġisotropic":10170,"UTF":10171,"orge":10172,"feature":10173,"Ġquickly":10174,"MI":10175,"licate":10176,"prising":10177,"delay":10178,"Ġcred":10179,"Ã¤":10180,"aven":10181,"ĠIOException":10182,"ĠHol":10183,"Ġtwice":10184,"NL":10185,"cli":10186,"Ġvariability":10187,"ById":10188,"Binary":10189,"homogeneous":10190,"ĠDistrict":10191,"Methods":10192,"udy":10193,"Character":10194,"Ġappeared":10195,"omitempty":10196,"]}\\":10197,"gls":10198,"^{{\\":10199,"ĠMal":10200,"Cr":10201,"Numer":10202,"abatic":10203,"defer":10204,"!<":10205,"ĠMer":10206,"idel":10207,"]\\\\":10208,"Ġexamine":10209,"ĠIndex":10210,"Ġsaf":10211,"ĠAnother":10212,"flag":10213,"igration":10214,"trained":10215,"Mask":10216,"Cl":10217,"]{./":10218,"entials":10219,"/.":10220,"notations":10221,"ĠMicrosoft":10222,"plugins":10223,"ĠFalse":10224,"ĠSC":10225,"Sample":10226,"Ġol":10227,"tags":10228,"General":10229,"Ġ\"<":10230,"eeq":10231,"ĠAuth":10232,"ĠRiver":10233,"Browser":10234,"Based":10235,"gap":10236,"]))":10237,"Adapter":10238,"):=":10239,"ĠObserv":10240,"mats":10241,"rapped":10242,"Ġsimplify":10243,"Ġsummarized":10244,"Ġ-=":10245,"Ġinvolve":10246,"}.$$":10247,"Ga":10248,"clean":10249,"Ġcorner":10250,"efficient":10251,"coupling":10252,"Ġcoincides":10253,"ĠHash":10254,"sb":10255,"tesian":10256,"ĠWindows":10257,"vertical":10258,"Mer":10259,"BJ":10260,"bottomrule":10261,"âĢĶ":10262,"traction":10263,"NOT":10264,"Operator":10265,"Build":10266,"Shape":10267,"Ġcircum":10268,"meter":10269,"ifdef":10270,"stylesheet":10271,"drag":10272,"ĠRead":10273,"Ġflo":10274,"fmt":10275,"Ġresp":10276,"appendChild":10277,"lapsed":10278,"Notice":10279,"scheme":10280,"Ġ\"$":10281,"]['":10282,"Ġdamp":10283,"ĠCa":10284,"eld":10285,"Env":10286,"Delegate":10287,"Enum":10288,"Dest":10289,"tack":10290,"Ġsentence":10291,"Common":10292,"ĠOtherwise":10293,"Ġflexi":10294,"wall":10295,"undles":10296,"security":10297,"comb":10298,"ackn":10299,"ITE":10300,"Ġwish":10301,"ĠBlack":10302,"oulomb":10303,"esh":10304,"Ġcomposite":10305,"ĠKo":10306,"Ġcompletes":10307,"Bal":10308,"Ġlanguages":10309,"You":10310,"Ġgradients":10311,"Transaction":10312,"induced":10313,"130":10314,"}=-":10315,"ĠStep":10316,"earning":10317,"Ġfinished":10318,"lbrace":10319,"mr":10320,"ĠBa":10321,"erson":10322,"nov":10323,"Ġreadonly":10324,"NRAS":10325,"ĠOf":10326,"$^\\":10327,"Ġattach":10328,"Ġalone":10329,"ĠMost":10330,"Ġconducted":10331,"Ġvoltage":10332,"Ġactivation":10333,"}{!":10334,"Basic":10335,"eros":10336,"parentNode":10337,"Ġbg":10338,"haps":10339,"ractive":10340,"Ġenables":10341,"filename":10342,")}=\\":10343,"Ġconsideration":10344,"($\\":10345,"}})\\":10346,"dependence":10347,"VALUE":10348,"Ġefficiently":10349,"ĠSa":10350,";}":10351,"Ġdivision":10352,"Ġmodular":10353,"west":10354,"ullable":10355,"Ġstatements":10356,"Ġelectromagnetic":10357,"Ġimaging":10358,"+$":10359,"ĠPal":10360,"algo":10361,"}):":10362,"Ġnuclei":10363,")$$":10364,"OPT":10365,"Ġconjugate":10366,"Ġpages":10367,"1983":10368,"into":10369,"kk":10370,"sequences":10371,"Uri":10372,"bounds":10373,"Loc":10374,"wood":10375,"Many":10376,"squ":10377,"Ġjav":10378,"ogen":10379,")},\\":10380,"Ġclouds":10381,"Ġvillage":10382,"orel":10383,"dark":10384,"Ġclick":10385,"Ġpy":10386,"mately":10387,"Ġsequential":10388,"Ġmil":10389,"Ġdescent":10390,"Ġchains":10391,"cha":10392,"Ġdependencies":10393,"fun":10394,"nor":10395,"ĠDr":10396,"Ġ\\|_{":10397,"Ġdied":10398,"Ġ\",":10399,"groupId":10400,"ĠElement":10401,"Cancel":10402,"photon":10403,"echo":10404,"Ġasymmetry":10405,"Ġoverla":10406,"Ġconcat":10407,"Ġ}(":10408,"raining":10409,"WN":10410,"dv":10411,"INSERT":10412,"''.":10413,"Ġreproduce":10414,"ĠLocal":10415,"tator":10416,"voke":10417,"omas":10418,"ortion":10419,"Ġbrightness":10420,"Ġconverted":10421,"mcite":10422,"Ġdepicted":10423,"Ġdriver":10424,"abi":10425,"ulator":10426,"Ġrealized":10427,"Ġsomething":10428,"Ġdetectors":10429,"Route":10430,"TV":10431,"Ġcame":10432,"cerning":10433,"beq":10434,"Ġindividuals":10435,"conditions":10436,"Times":10437,"Ġbars":10438,"Ġ'\"":10439,"MOD":10440,"Ġreaches":10441,"ilistic":10442,"Ġarti":10443,"gravity":10444,"%,":10445,"GA":10446,"Ġcombine":10447,"Ġdegenerate":10448,"Ġhierarchy":10449,"ĠTheir":10450,"lattice":10451,"help":10452,"Because":10453,"ĠBayesian":10454,"Ġdisks":10455,"Ġobtains":10456,"Ġradiative":10457,"Ġloading":10458,"Ġexperience":10459,"integr":10460,"}],":10461,"bian":10462,"Analysis":10463,"140":10464,"Success":10465,"Ġattached":10466,"$^{\\":10467,">'":10468,"Ġrely":10469,"Ġsingularities":10470,"Ġsuppressed":10471,"coloneqq":10472,"Ġapproximations":10473,"Ġcold":10474,"mates":10475,"DEF":10476,"relation":10477,"paper":10478,"Ġasymptotically":10479,"dependency":10480,"Ag":10481,"Diff":10482,"anc":10483,")$}":10484,"------------":10485,"uristic":10486,"ĠOff":10487,"ĠEngland":10488,"ĠĠĠĠĠĠĠĠĠĠĠĠĠĠĠĠĠĠĠĠĠĠĠĠĠĠĠĠĠĠ":10489,"Further":10490,"animation":10491,"Ġprograms":10492,"FLAG":10493,"Ġnontrivial":10494,"Ġinvestigation":10495,"People":10496,"ĠLHC":10497,"Ġmale":10498,"Ġphotometric":10499,"dm":10500,"multip":10501,"ĠNotice":10502,"ĠAP":10503,"mulate":10504,"Ġparity":10505,"UES":10506,"Ġbenef":10507,"Ġplanets":10508,"Ġfib":10509,"ĠLong":10510,"Ġguide":10511,"Ġrapidly":10512,"Deep":10513,"^*}":10514,"})^{-":10515,"HH":10516,"}}}}":10517,"Ġscience":10518,"ZZ":10519,"Mapping":10520,"ĠAustralia":10521,"\"],":10522,"KK":10523,"Ġideas":10524,"ĠMet":10525,"nova":10526,"'}(":10527,"Ġspar":10528,"outhern":10529,"Ġhydrogen":10530,"Db":10531,"FUN":10532,"Ġpointed":10533,"Ġphenomenon":10534,"area":10535,"these":10536,"Gaussian":10537,"TM":10538,"ites":10539,"Ġprogramming":10540,"ĠCreates":10541,"ENSE":10542,"Ġneighbors":10543,"ographic":10544,"ĠInteger":10545,"warz":10546,"Ġtracks":10547,"ĠFrance":10548,"same":10549,"ftware":10550,"nl":10551,"Ġbelieve":10552,"proj":10553,"Ġcaptured":10554,",}":10555,"ĠTechn":10556,"fb":10557,"Edge":10558,"Following":10559,"ĠCollection":10560,"~~~":10561,"rv":10562,"Ġstudying":10563,"Ñı":10564,"Ġoptimized":10565,"ĠNa":10566,"GAN":10567,"Ġtransformed":10568,"rategy":10569,"ĠLipschitz":10570,"degenerate":10571,"Ġgamma":10572,"ĠTran":10573,"ĠNN":10574,"Ġqubits":10575,"})^{\\":10576,"Ġtoward":10577,"^{*}":10578,"ĠMat":10579,"neigh":10580,"utation":10581,"tech":10582,"\\\\[":10583,"adap":10584,"pes":10585,"ĠEven":10586,"ashion":10587,"sid":10588,"estimate":10589,"ona":10590,"itt":10591,"ysh":10592,"Ġvariational":10593,"Ġhardware":10594,"once":10595,"Mix":10596,"correlation":10597,"examples":10598,"without":10599,"Ġart":10600,"))=":10601,"};\\":10602,"Flag":10603,"ĠVis":10604,"Ġdisabled":10605,"Ġdialog":10606,"Ġ'',":10607,"&&&&":10608,"home":10609,"eman":10610,"Ġneutrinos":10611,"Ġcardinal":10612,"mention":10613,"Ġnearby":10614,"Ġbandwidth":10615,"Ġclone":10616,"Diag":10617,"ĠBS":10618,"Mis":10619,"utter":10620,"lug":10621,"Ġexpanded":10622,"Ġsimplified":10623,"))$,":10624,"Ġcontinued":10625,"})}{":10626,"ĠĠĠĠĠĠĠĠĠĠĠĠĠĠĠĠĠĠĠĠĠĠĠĠĠĠĠĠĠĠĠĠĠĠĠĠĠĠĠĠĠĠĠ":10627,"filled":10628,"+{\\":10629,"rink":10630,"ĠQue":10631,"rgb":10632,"cellcolor":10633,"Ġreject":10634,"ĠSci":10635,"comparison":10636,"Ġcalling":10637,"including":10638,"cosity":10639,"Ġrobustness":10640,"Ġdecoder":10641,"Canvas":10642,"Ġgave":10643,"Ġuniquely":10644,"Mac":10645,"wd":10646,"Ġdeviations":10647,"Lat":10648,"ĠSpace":10649,"{|\\":10650,"yes":10651,"Spa":10652,"Ġexponentially":10653,"1982":10654,")}}\\":10655,"cursor":10656,"ango":10657,"expect":10658,"Ġinterpolation":10659,"-->":10660,"Ġdiscovered":10661,"Ġvic":10662,"Ġshifts":10663,"methods":10664,"lac":10665,"amber":10666,"READ":10667,"Ġplate":10668,"Constructor":10669,"rbrace":10670,"LOG":10671,"NavBar":10672,"odal":10673,"ĠAlex":10674,"Ġverified":10675,"Ġill":10676,"Ġequivalently":10677,"Ġclassified":10678,"scatter":10679,"ĠProperty":10680,"Ġvon":10681,"ĠSets":10682,"Ġviews":10683,"mach":10684,"Profile":10685,"tf":10686,"Ġbra":10687,"netes":10688,"sey":10689,"Ġ'.":10690,"SER":10691,"Ġsurv":10692,"pay":10693,"Ġwidget":10694,"parame":10695,"later":10696,"validate":10697,"Ġclip":10698,"ubernetes":10699,"Ġstages":10700,"corr":10701,"men":10702,"operation":10703,"omp":10704,"coin":10705,"Tick":10706,"kg":10707,"ĠWeyl":10708,"ĠChina":10709,"Ġrare":10710,"rotate":10711,"Ġlooking":10712,"chro":10713,"stats":10714,"LC":10715,"105":10716,"Ġmul":10717,"Ġbranching":10718,"Ġparton":10719,"overrightarrow":10720,"Ġopened":10721,"essional":10722,".(":10723,"score":10724,"ilo":10725,"Generator":10726,"Ġstory":10727,"Ġcanvas":10728,"optional":10729,"Texture":10730,"Ġvortex":10731,"Ġtil":10732,"Linq":10733,"Ġendpoint":10734,"Ġguarantees":10735,"Ġminutes":10736,"FNGL":10737,"bracket":10738,"Ġna":10739,"Wal":10740,"rot":10741,"ims":10742,"Ġvariant":10743,"Abstract":10744,"Ġ{'":10745,"tivate":10746,"Ġregularity":10747,"identif":10748,"ĠFigs":10749,"library":10750,"ĠFollowing":10751,"Visible":10752,"pull":10753,"zo":10754,"Fs":10755,"MNRAS":10756,"Ġobtaining":10757,"standing":10758,"ĠeV":10759,"supported":10760,"algorithmic":10761,"tamin":10762,"onon":10763,"Ġremoving":10764,"Ġdoing":10765,"Ġadaptive":10766,"burg":10767,"dynamics":10768,"lst":10769,"Ġfusion":10770,"ĠFo":10771,"Ġalt":10772,"displayName":10773,"ĠIndia":10774,"Ġapproximated":10775,"Ġextraction":10776,"ĠĠĠĠĠĠĠĊ":10777,"BD":10778,"Ġparty":10779,"abric":10780,"cu":10781,"|}{\\":10782,"raisebox":10783,"Ġofficial":10784,"abolic":10785,"rase":10786,"\\\"{":10787,"datab":10788,"Ġmanager":10789,"Ġsurve":10790,"ĠInput":10791,"tp":10792,"Ġserve":10793,"Complete":10794,"Ġperturbative":10795,"Ġadjoint":10796,"','":10797,"Ġau":10798,"ĠAward":10799,"Hy":10800,"ULE":10801,"Ġmapped":10802,"Ġvisit":10803,"fortun":10804,"Ġflavor":10805,"Ġdefinite":10806,"ĠGraph":10807,"Ġpole":10808,"->]":10809,"ĠBal":10810,"Ġicon":10811,"ilinear":10812,"UD":10813,"Ġwest":10814,"Ġworked":10815,"ael":10816,"tk":10817,"iet":10818,"ras":10819,"Living":10820,"lators":10821,"ĠDon":10822,"ĠRoman":10823,"ARY":10824,"Ġgraded":10825,"Ġminimize":10826,"Ġ\"\",":10827,"IVE":10828,"velocity":10829,"oser":10830,"igroup":10831,"Ġmanagement":10832,"Ġwarning":10833,"underbrace":10834,"3333":10835,"Ġ\"-":10836,"{-}":10837,"Ġthickness":10838,"inds":10839,"roke":10840,"ĠASS":10841,"^*,":10842,"Ġuintptr":10843,"Ġastro":10844,"Ã§":10845,"theses":10846,"Ġrepeat":10847,"Sur":10848,"binary":10849,"Ġsucc":10850,"Ġmenu":10851,"ĠTeV":10852,"izers":10853,"useum":10854,"scalar":10855,"Endpoint":10856,"ĠCanada":10857,"_{|":10858,"Ġdetermining":10859,"BT":10860,"}\\,,":10861,"moving":10862,"available":10863,"trical":10864,"Ġspins":10865,"associ":10866,"pn":10867,"Define":10868,"Ġpolicies":10869,"tru":10870,"coded":10871,"Ġeigens":10872,"Ġoriented":10873,"pool":10874,"alaxy":10875,"Mat":10876,"Ġdirector":10877,"}$~":10878,"ICENSE":10879,"Ġcreates":10880,"lability":10881,"ĠRepublic":10882,"tee":10883,"plays":10884,"Ġclar":10885,"%%":10886,"uling":10887,"tabs":10888,"Ġanomaly":10889,"Ġreconstructed":10890,"teen":10891,"Renderer":10892,"Ġtables":10893,"Ġmus":10894,"Ġbis":10895,"classif":10896,"lict":10897,"Same":10898,"lie":10899,"Ġhappen":10900,"wang":10901,"Ġassembly":10902,"erg":10903,"Ġquantization":10904,"Ġpin":10905,"Touch":10906,"rig":10907,"FW":10908,"middle":10909,"dk":10910,"ceq":10911,"stone":10912,"aterial":10913,"sho":10914,"Ġrewrite":10915,"Ġexpos":10916,"[]{":10917,"Ġsafe":10918,"Inf":10919,"rarily":10920,"Ġdestination":10921,"Ġcb":10922,"Ġparen":10923,".*":10924,"GD":10925,"Imple":10926,"IES":10927,"Ġvaries":10928,"preser":10929,"ĠTw":10930,"flush":10931,"Ġconfigure":10932,"Ġpowerful":10933,"comes":10934,"tainers":10935,"role":10936,"Ġsignificance":10937,"Ġreducing":10938,"ĠRich":10939,"Ġtransi":10940,"Ġextinction":10941,"vie":10942,"consist":10943,"Drag":10944,"osc":10945,"pation":10946,"dio":10947,"icen":10948,"ĠDev":10949,"ITION":10950,"satz":10951,"PROC":10952,"ĠCPU":10953,"}}^\\":10954,"ummy":10955,"ago":10956,"Ġrigid":10957,"}$&":10958,"ato":10959,"elling":10960,"ketch":10961,"Ġrotational":10962,"eds":10963,"antly":10964,"Condition":10965,"entric":10966,"Ġstands":10967,"icular":10968,"Vir":10969,"},$":10970,"ĠRic":10971,"Rows":10972,"async":10973,"liers":10974,"Ġwriter":10975,"Ġthanks":10976,"Ġgluon":10977,"Ġiterator":10978,"Ġmodeled":10979,"footer":10980,"toolbar":10981,"linec":10982,"Ġneither":10983,"warning":10984,"ĠINTO":10985,"Ġdocuments":10986,"Ġenum":10987,"Ġepochs":10988,"Ġdespite":10989,"ATTR":10990,"Ġmultiplic":10991,"Ġwatch":10992,"Ġgal":10993,"Ġforeach":10994,"@{}}":10995,"Ġsoon":10996,"Ġphenomena":10997,"horizontal":10998,"Ġsimplest":10999,"Ġprimitive":11000,"ĠBack":11001,"evalu":11002,"cn":11003,"protobuf":11004,"Ġinvariants":11005,"ĠEv":11006,"Ġhund":11007,"Ġcounting":11008,"classical":11009,"fluid":11010,"memory":11011,".\",":11012,"Ġsituations":11013,"ĠPort":11014,"Ġarrays":11015,"Pres":11016,"Role":11017,"pagation":11018,"havior":11019,"umann":11020,"vable":11021,"Ġreliable":11022,"Ġjoined":11023,"Ġcapt":11024,"unce":11025,"}}{(":11026,"Ġheter":11027,"Ġreci":11028,"ddot":11029,"compile":11030,"aches":11031,"zure":11032,"attach":11033,"Ġlists":11034,"ĠNevertheless":11035,"ĠVari":11036,"eigen":11037,"ĠGW":11038,"Ġ\\\\\\":11039,"ĠCl":11040,"ifting":11041,"stage":11042,"ĠDepartment":11043,").$":11044,"Ġexplored":11045,"Edit":11046,"Ġtunnel":11047,"LowerCase":11048,"Ġallocation":11049,"1981":11050,"rist":11051,"ĠConn":11052,"Arguments":11053,"Ġtags":11054,"ĠStandard":11055,"buil":11056,"Ġabundances":11057,"VID":11058,"\"/":11059,"Ġheating":11060,"far":11061,"ĠWilson":11062,"Ġ$\\|\\":11063,"Ġadapted":11064,"react":11065,"IGHT":11066,"Ġanchor":11067,"periodic":11068,"sti":11069,"Ġshapes":11070,"Ġmagnitudes":11071,"1979":11072,"Once":11073,"coll":11074,"rceil":11075,"Such":11076,"BIT":11077,"Ġanalyses":11078,"Ġgoog":11079,"1024":11080,"Ġspeech":11081,"Ġroad":11082,"rote":11083,"Ġmixture":11084,"WORD":11085,"lag":11086,"Short":11087,"liance":11088,"interpre":11089,"Ġignored":11090,"Ġdeaths":11091,"Real":11092,"four":11093,"ĠTV":11094,"jquery":11095,"Ġbind":11096,"Ġcommunic":11097,"Ġpump":11098,"135":11099,"Ġaspect":11100,"ĠCour":11101,"MeV":11102,"Ġvalidity":11103,"Ġfilled":11104,"Ġrenormalization":11105,"Ġdivisor":11106,"Ġpref":11107,"ĠVALUES":11108,"integer":11109,"getName":11110,"Package":11111,"inux":11112,"Ġchunk":11113,"^*_{":11114,"Ġconvolutional":11115,"ĠInc":11116,"Conclusions":11117,"127":11118,"romagnetic":11119,"\\,$":11120,"ĠCoulomb":11121,"Ġmassless":11122,"Ġfragment":11123,"ĠIV":11124,"adic":11125,"ĠCap":11126,"lices":11127,"Ġstrain":11128,"Ġbosons":11129,"ĠEmp":11130,"Ms":11131,"pendicular":11132,"Ġproven":11133,"Services":11134,"ĠPen":11135,"Registry":11136,"ielding":11137,"Ġcancellation":11138,"Ġadi":11139,")$)":11140,"ito":11141,"ĠAdditionally":11142,"PER":11143,"ignore":11144,"{},":11145,"partition":11146,"Ġprototype":11147,"bro":11148,"Ġimplied":11149,"Ġformally":11150,"ĠMake":11151,"ĠBob":11152,"çļ":11153,"ĠCe":11154,"fire":11155,"essel":11156,"install":11157,"ĠBGCOLOR":11158,"ĠDim":11159,"){$":11160,"}'$":11161,"shared":11162,"pointer":11163,"Ġblow":11164,"}}-\\":11165,"ĠANY":11166,"Ġdeterminant":11167,"MN":11168,"Ġ\\%":11169,"=\"../../../../../../":11170,"Ġreally":11171,"views":11172,".\");":11173,"Ġrecommend":11174,"pache":11175,"linder":11176,"Inv":11177,"Ġcharacterization":11178,"Sequence":11179,"Ġsizeof":11180,"anks":11181,"policy":11182,"Ign":11183,"ĠMS":11184,"DEBUG":11185,"çļĦ":11186,"Ġmobile":11187,")->":11188,"CSS":11189,"Java":11190,"route":11191,"Ġassumes":11192,"ĠUN":11193,"ĠCE":11194,"Ġadditive":11195,"fm":11196,"Ġ[-":11197,"phone":11198,"Ġmovement":11199,"Ġdistrict":11200,"ĠUnion":11201,"Ġease":11202,"servers":11203,"bone":11204,"ĉĉĉĉĊ":11205,"Ġequipped":11206,"Ġtd":11207,"HER":11208,"Ġ'$":11209,"===":11210,"Ġcosts":11211,"Ġcuts":11212,"ijk":11213,"Ġconcepts":11214,"Free":11215,"ĠOlymp":11216,"ibling":11217,"Ġmeasuring":11218,"Ġentirely":11219,"pur":11220,"validation":11221,"Ġtechnology":11222,"Ġ'-":11223,"Ġlosses":11224,"Ġrelies":11225,"Ġfactorization":11226,"Ġredshifts":11227,"Focus":11228,"/{":11229,"Ġpreserve":11230,"Ġwent":11231,"equilibrium":11232,"pic":11233,"270":11234,"Resources":11235,"coped":11236,"Ġdescriptor":11237,"QU":11238,"LU":11239,"ĠMessage":11240,"Algorithm":11241,"((\\":11242,"ÐµÐ":11243,"Account":11244,"Ġconnecting":11245,"sync":11246,"charge":11247,"ĠBol":11248,"Ġpossess":11249,"$~\\":11250,"ĠZend":11251,"Variable":11252,"mating":11253,"lvert":11254,"Ġwebsite":11255,"Transport":11256,"--\\":11257,"Ġquantitative":11258,"lceil":11259,"collapse":11260,";->":11261,"005":11262,"Ġmirror":11263,"fortunately":11264,"Ġdetermination":11265,"Ġcoincide":11266,"assumption":11267,"ĠIl":11268,"ĠGPU":11269,"mount":11270,"bose":11271,"metic":11272,"ĠSF":11273,"eno":11274,"artin":11275,"ĠExec":11276,"Import":11277,"ĠTaylor":11278,"002":11279,"ĠParty":11280,"execute":11281,"driver":11282,"mentations":11283,"ĠASSERT":11284,"})+":11285,"velopment":11286,"ĠMain":11287,"theore":11288,"observer":11289,"Ġsummarize":11290,"Ġmonths":11291,"Ġrotate":11292,"ĠSE":11293,"Ġfavor":11294,"Ġcovers":11295,"Ġexhibits":11296,"]}$":11297,"Ġmultiplicity":11298,"Ġannounced":11299,"iddle":11300,"Ġexc":11301,"ĠHAL":11302,"Ġconvenience":11303,"mk":11304,"arisons":11305,"hh":11306,"adian":11307,"turbed":11308,"Ġlepton":11309,"quality":11310,"ĠMajor":11311,"ctors":11312,"Capa":11313,"multiple":11314,"ĠLat":11315,"ĠBro":11316,"construct":11317,"Ġinferred":11318,"Ġpairing":11319,"}\\)":11320,"how":11321,")$;":11322,"ichlet":11323,"Ġparticipants":11324,"\\`":11325,"uan":11326,"PDF":11327,"removeClass":11328,"Ġpool":11329,"Library":11330,"Ġarrow":11331,"ETHOD":11332,"ĠCD":11333,"intelli":11334,"ĠSimilar":11335,"spectrum":11336,"licial":11337,"Ġoperating":11338,"Ġfer":11339,"article":11340,"Ġmeson":11341,"Ġarising":11342,"Ġscan":11343,"singular":11344,"),\\\\":11345,"slash":11346,"Bel":11347,"dn":11348,"iant":11349,"ĠChurch":11350,"tency":11351,"intellij":11352,".][]{":11353,"Ġhelpful":11354,"ĠGa":11355,"Ġdefaults":11356,"resolved":11357,"Ġconvention":11358,"Ġcovariant":11359,"Abs":11360,"ĠHow":11361,"Warning":11362,"Ġrotating":11363,"Ġsurrounding":11364,"atio":11365,"Ġthermodynamic":11366,"compute":11367,"Join":11368,"ĠDir":11369,"MSE":11370,"Ġlicense":11371,"Ġbounding":11372,"Ġnoisy":11373,"ea":11374,"Ġsti":11375,"Ġexperimentally":11376,"Ġdependency":11377,"builder":11378,"tuning":11379,"Ġfindings":11380,"OF":11381,"Ġeffort":11382,"Ġpose":11383,"Support":11384,"owner":11385,"ckets":11386,"bv":11387,"dispatch":11388,"illisec":11389,"disable":11390,"Ġargue":11391,"Ġ\\)":11392,"ĉĉĠĠĠ":11393,"Ġleaf":11394,"Ġshadow":11395,"Ġheavi":11396,"ĠProgram":11397,"Ġ/*!<":11398,"flux":11399,"]_{\\":11400,"algebras":11401,"Area":11402,"Bool":11403,"Ġiff":11404,"Ġwrong":11405,"gas":11406,"Ġpolitical":11407,"central":11408,"Ġ{*}":11409,"Ġdrift":11410,"Ġprepar":11411,"organ":11412,"ĠDR":11413,"Ġms":11414,"ĉĉĉĉĉĉĊ":11415,"Ġfather":11416,"Ġinternational":11417,"following":11418,"tl":11419,"Ġarbitrarily":11420,"ĠHel":11421,"}$\\\\":11422,"ĠView":11423,"ĠLu":11424,"Ġowner":11425,"theo":11426,"Ġlaws":11427,"(@":11428,"Ġdiscovery":11429,"Ġconsecutive":11430,"versely":11431,"Ġchallenges":11432,"\"},":11433,"Ġaccum":11434,"ĠSVG":11435,"opf":11436,"graphic":11437,"lica":11438,"oder":11439,"Constraint":11440,"Ġqual":11441,"Ġdimensionless":11442,"Ġmeasurable":11443,"Ġportion":11444,"batim":11445,"Ġshifted":11446,".\\]":11447,"achine":11448,"ĠSDSS":11449,"Ġexcitations":11450,"yer":11451,"Ġ\\*":11452,"ĠBased":11453,"Ġsuperconduct":11454,"Ġlongitudinal":11455,"ĠWhe":11456,"amer":11457,"ĠAmerica":11458,"Ġsett":11459,"opacity":11460,"Ġcausal":11461,"Ġtwist":11462,"present":11463,"Ġmind":11464,"Ġencounter":11465,"Ġeasier":11466,"transparent":11467,"Video":11468,"UC":11469,"ĠAND":11470,"Ñĭ":11471,"Ġions":11472,"setAttribute":11473,"ĠSH":11474,"toLowerCase":11475,"ĠProject":11476,"Ġimproves":11477,"}:\\":11478,"mentioned":11479,"Ġsecret":11480,"Ear":11481,")_\\":11482,"Ġmerger":11483,"geqslant":11484,"Failure":11485,"dapt":11486,"Annotation":11487,"otor":11488,"Ġpreced":11489,"}\\,.":11490,"Ġoccurred":11491,"ĠJames":11492,"ĠLib":11493,"SQL":11494,"102":11495,"Ġdwarf":11496,"driven":11497,"Ġsimpler":11498,"Ġsquared":11499,"Ġanisotropy":11500,"ĠWAR":11501,"Ġprimarily":11502,"ĠIter":11503,"inese":11504,"Ġinvertible":11505,"Ġgrows":11506,"She":11507,"everal":11508,"iller":11509,"particles":11510,"tein":11511,"Ġbroadcast":11512,"ulating":11513,"nostics":11514,"Ġkept":11515,"Ġviscosity":11516,"ĠArg":11517,"Ġteams":11518,"ĠResource":11519,"ĠPR":11520,"Ġobserving":11521,"Find":11522,"Batch":11523,"Ġtexture":11524,"upload":11525,"OC":11526,"}\\|_{":11527,"ĠWilliam":11528,"Ġvan":11529,"Poly":11530,"Ġdifficulty":11531,"ĠTri":11532,"Ġidx":11533,"ĠPoint":11534,"****************************************************************":11535,"keyword":11536,"Ġwrapper":11537,"Ġinjective":11538,"effect":11539,"ami":11540,"logger":11541,"ivil":11542,"PATH":11543,"Ġcalib":11544,"Ġlargely":11545,"cost":11546,"Ġ%}":11547,"Ġturbulence":11548,"Ġhex":11549,"LECT":11550,"ĠGovern":11551,"ryption":11552,"Ġextrapo":11553,"tarea":11554,"\\%,":11555,"ĠDavid":11556,"Ġviolation":11557,"Sm":11558,"Ġadmissible":11559,"}{-":11560,"Ġremainder":11561,"Au":11562,"player":11563,"Ġskew":11564,"ĠSI":11565,"Ġassertion":11566,"dotted":11567,";/":11568,"=&":11569,"Ġcontour":11570,"representation":11571,"Ġaccurately":11572,"Ġcalculating":11573,"Ġpreserves":11574,"Ġfinancial":11575,"keV":11576,"ticular":11577,"vention":11578,"Ġcompleteness":11579,"('/":11580,"Ġconcaten":11581,"Ġtorsion":11582,"igner":11583,"lov":11584,"Lie":11585,"360":11586,"Ġcharacterize":11587,"ĠBlock":11588,"Evalu":11589,"weighted":11590,"Ra":11591,"maml":11592,"olo":11593,"icensed":11594,"resources":11595,"kt":11596,"ĠLL":11597,"Ġplanar":11598,"currency":11599,"tients":11600,"Expr":11601,"VE":11602,"Ġul":11603,"constraint":11604,"arcsec":11605,"Ġkeeping":11606,"Bounds":11607,"variate":11608,"icode":11609,"DIS":11610,"Play":11611,"liminary":11612,"gue":11613,"nc":11614,"foreach":11615,"Ġmoder":11616,"Ġmechanics":11617,"decay":11618,"combin":11619,"who":11620,"Ġtuple":11621,"}=-\\":11622,"Cat":11623,".,][]{":11624,"utions":11625,"ĠOnce":11626,"ordi":11627,"Ġcurrents":11628,"Fatal":11629,"Ġfake":11630,"Members":11631,"Ã¨":11632,"Ġrever":11633,"Ġcoarse":11634,"ĠRiemannian":11635,"Tx":11636,"reason":11637,"Ids":11638,"istence":11639,"udget":11640,"Ġappendix":11641,"dor":11642,"))^":11643,"eller":11644,"Engine":11645,"Ġfaces":11646,"Plot":11647,"stry":11648,"Wait":11649,"ĠAuto":11650,"disk":11651,"external":11652,"engine":11653,":'":11654,"zip":11655,"Super":11656,"Loop":11657,"Acknowledge":11658,"haser":11659,"Timer":11660,"UB":11661,"ĠGermany":11662,"Ġpartitions":11663,"Ġpercent":11664,"Ġiniti":11665,"fake":11666,"FFFF":11667,"Ġamounts":11668,"CLASS":11669,"addle":11670,"=\"../../../":11671,"Ġobe":11672,"ssl":11673,"ĠCauchy":11674,"ĠRequest":11675,"spectral":11676,"Ġlinked":11677,"Ġpromin":11678,"Ġrequested":11679,"Ġkernels":11680,"REE":11681,"systems":11682,"Stats":11683,"|}\\":11684,"Ġextensive":11685,"leep":11686,";<":11687,"Pixel":11688,"forma":11689,"Ġcoherence":11690,"Ġlot":11691,"ĠSen":11692,"Ġidentities":11693,"Corollary":11694,"xs":11695,"Ġinitialize":11696,"''$":11697,"Ġletter":11698,"ĠSR":11699,"checkmark":11700,"_{\\{":11701,"REQ":11702,"Ġtriangles":11703,"ĠclassName":11704,"inherit":11705,"trary":11706,"ĠSect":11707,"Ġpassword":11708,"amo":11709,"ĠSL":11710,"Ġmechanical":11711,"otone":11712,"Ġgold":11713,"hookrightarrow":11714,"Ġcouple":11715,"Book":11716,"Ġbid":11717,"Ġprocessed":11718,"ĠCMB":11719,";\"":11720,"Ġele":11721,"jango":11722,"[],":11723,"Strategy":11724,"ĠPost":11725,"ĠDel":11726,"ĠConst":11727,"Gal":11728,"ĠSy":11729,"gend":11730,"ĠUniverse":11731,"Ġexcluded":11732,"statis":11733,"resi":11734,"eties":11735,"ĠAssociation":11736,"Ġaveraging":11737,"follow":11738,"Bottom":11739,"Ġprog":11740,"Ġopening":11741,"!}":11742,"illed":11743,"mak":11744,"Ġprojects":11745,"1977":11746,"socket":11747,"Ġkpc":11748,"ĠArmy":11749,"Ġresidu":11750,"Ġincoming":11751,"repeat":11752,"Ġpairwise":11753,"ĠOrder":11754,"Binding":11755,"Details":11756,"Ġproving":11757,"effective":11758,"Cast":11759,"ĠAgain":11760,"Product":11761,"Ġchurch":11762,"bis":11763,"choice":11764,"Ġjournal":11765,"vg":11766,"}),\\":11767,"They":11768,"iser":11769,"Ġdisplacement":11770,"ban":11771,"|,":11772,"expr":11773,"Ġrealization":11774,"CNN":11775,"ahler":11776,"ãĢ":11777,"aling":11778,"Ġbring":11779,"ĠUp":11780,"Prototype":11781,"umulative":11782,"identity":11783,"Ġintegrable":11784,"Ġaligned":11785,"\")]":11786,"Ġplaying":11787,"acle":11788,"subject":11789,"atten":11790,"Ġanten":11791,"Ġray":11792,"Ġbenefit":11793,"Ġsusp":11794,"ceeded":11795,"spac":11796,"seen":11797,"Ġdiffe":11798,"Ġassociation":11799,"vided":11800,"Ġsums":11801,"Ġgrowing":11802,"192":11803,")-(":11804,"tegra":11805,"datepicker":11806,"Ġpreferred":11807,"ĠAssumption":11808,"ĠKe":11809,"ĠBorel":11810,"Ġcorrected":11811,"'},":11812,"multiput":11813,"1978":11814,"basis":11815,"&#":11816,"Insp":11817,"ĠDB":11818,"Ġfriend":11819,"ĠBur":11820,"ĠColor":11821,"ANG":11822,"Ġscheduler":11823,"Html":11824,"Ġ\"\";":11825,"Ġmicros":11826,"ynamical":11827,")\\|_{":11828,"ĠAD":11829,"1960":11830,"Ġregarded":11831,"Completed":11832,"Ġcontribut":11833,"ĠEmber":11834,"Ġ',":11835,"_);":11836,"ATED":11837,"Required":11838,"Ġstudent":11839,"Folder":11840,"Validation":11841,"Ġdrive":11842,"Ġionization":11843,"}};":11844,"named":11845,"Objects":11846,"odies":11847,"Ġbaryon":11848,").\\":11849,")}]":11850,"ymer":11851,"implies":11852,"ĠTemp":11853,"Ġentities":11854,"Ġmaintain":11855,"Ġcos":11856,"entropy":11857,"changes":11858,"Ġalter":11859,"Ġshorter":11860,"ĠRL":11861,"Ġenv":11862,"Ko":11863,"bec":11864,"During":11865,"ĠSQL":11866,"PUT":11867,"issues":11868,"Ca":11869,"Ġhomology":11870,"Ġweaker":11871,"Mag":11872,"hou":11873,"*}\\":11874,"ĠLine":11875,"IEEE":11876,"bif":11877,"Ġoverflow":11878,"scss":11879,"ĠAcade":11880,"diagram":11881,"Ġcontamin":11882,"Random":11883,"1976":11884,"Public":11885,"Driver":11886,"|\\,":11887,"ĠIndian":11888,"Ġthings":11889,"Ġintegrating":11890,".\\,\\":11891,"FD":11892,">\"":11893,"Ba":11894,"ois":11895,"|$.":11896,"Ġteach":11897,"Ġrescal":11898,"every":11899,"Ġtension":11900,"mazon":11901,"Rate":11902,"Ġimpossible":11903,"Ġpresentation":11904,"ĠSW":11905,"ĠWhat":11906,"Ġenvelope":11907,"rab":11908,"Ġdeci":11909,"Ġnested":11910,"noalign":11911,"Idx":11912,"ĠGold":11913,"Ġconcrete":11914,"Ġtherein":11915,"Ġbarrier":11916,"Ġsurveys":11917,"DEFAULT":11918,"Ġforecast":11919,"Chain":11920,"Serializer":11921,"Ġphotometry":11922,"Ġarchitectures":11923,"Der":11924,"ĠYoung":11925,"Ġsuc":11926,"ĠAction":11927,"ĠWhite":11928,"Ġdocumentation":11929,"psfrag":11930,"Ġ@\"":11931,"chools":11932,"Mc":11933,"Ġsubgroups":11934,"ĠAustralian":11935,"lementary":11936,"glyph":11937,"bus":11938,"ĠSociety":11939,"eral":11940,"Ġfiltering":11941,"ĠDivision":11942,"Ġinfrared":11943,"104":11944,"Cursor":11945,"Ġsending":11946,"Ġdots":11947,"respon":11948,"appear":11949,"ĠPRO":11950,"Ġsuffer":11951,"mps":11952,"ordered":11953,"cfg":11954,"Ġacknowled":11955,"arn":11956,"Ġrace":11957,"yan":11958,"Ġleaving":11959,"inverse":11960,"Category":11961,"Ġ\"'":11962,"arian":11963,"ĠVector":11964,"Ġdefe":11965,",$$":11966,"Ġdise":11967,"Ġanomalous":11968,"Ber":11969,"Ġwrote":11970,"Ġforming":11971,"gauge":11972,"ĠBi":11973,"TL":11974,"git":11975,"oking":11976,"ĠArt":11977,"Ġzeros":11978,"Ġrev":11979,"ĠSource":11980,"obtained":11981,"ĠBig":11982,"subscribe":11983,"Ġlifetime":11984,"INFO":11985,"Ġcf":11986,"seudo":11987,"Ġfif":11988,"Ġtuning":11989,"Ġrings":11990,",+":11991,"sis":11992,"sr":11993,"Ġperpendicular":11994,"Ġhon":11995,"verti":11996,"reedy":11997,"strial":11998,"Ġdup":11999,"Ġgover":12000,"prevent":12001,"Ġnoting":12002,"Ġ&-":12003,"![":12004,"Ġimposed":12005,"ĠWIT":12006,"sity":12007,"uma":12008,"Ġcss":12009,"Ġprojections":12010,"Scalar":12011,"Ġnotations":12012,"ĠEner":12013,"=\\,":12014,"leading":12015,"Ġcompens":12016,"Ġcompris":12017,"asket":12018,"Ġrecovery":12019,"ĠNon":12020,"Face":12021,"MLE":12022,"Equation":12023,"Ġslot":12024,"peak":12025,"Ġeffectiveness":12026,"dataset":12027,"Ġconfirm":12028,"}:=\\":12029,"ĠRefs":12030,"recur":12031,"auss":12032,"Ġcampaign":12033,"ĠStreet":12034,"Ġoscillation":12035,"ASE":12036,"Ġmorphisms":12037,"zi":12038,"laton":12039,"VALID":12040,"Transition":12041,"upsi":12042,"Ġneighbour":12043,"Ġfashion":12044,"Ġenhancement":12045,"Ġcores":12046,"Ġinitialization":12047,"Ġidentifying":12048,"Ter":12049,"ï¼":12050,"Ġbgcolor":12051,"Ġgeneralize":12052,"burst":12053,"Ġ!!":12054,"lets":12055,"about":12056,"ADD":12057,"})}{\\":12058,"'].":12059,"ÑĮ":12060,"ĠClearly":12061,"Disposable":12062,"binding":12063,"Ġpropagator":12064,"arding":12065,"ood":12066,"don":12067,"Ġreplacement":12068,"Ġbirth":12069,"Ġnewly":12070,"cls":12071,"ĠTok":12072,"^+_":12073,"kh":12074,"vdash":12075,"Ġsuscep":12076,"Linear":12077,"Ġwrap":12078,"TestCase":12079,"ĠOptional":12080,"Ġtransforms":12081,"Ġdoub":12082,"lc":12083,"disc":12084,"Ġarrows":12085,"relevant":12086,"Ġxmlns":12087,"Ġprobabilistic":12088,"Ġsys":12089,"Ġidentifier":12090,"Bl":12091,"ĠSP":12092,"Ġ$^":12093,"ĠUK":12094,".<":12095,"Ġgene":12096,"upsilon":12097,"Ġsurprising":12098,"ĠTheore":12099,"rvert":12100,"Ġlang":12101,"Fragment":12102,"Ġvehicle":12103,"Ġnan":12104,"ositions":12105,"\"].":12106,"ĠSpa":12107,"Cer":12108,"tificial":12109,"junit":12110,"Tags":12111,"Remark":12112,"dh":12113,"quo":12114,"AH":12115,"Ġdim":12116,"']);":12117,">:":12118,"pancy":12119,"ĠCommand":12120,"GHz":12121,"Ġmodulo":12122,"Ġmodulation":12123,"Ġ{(":12124,"ĠHen":12125,"oses":12126,"Ġatmosphere":12127,"Ġmotivated":12128,"best":12129,"Ġreports":12130,"rons":12131,"$]":12132,"Ġaccepted":12133,"Ġsays":12134,"Ġever":12135,"Ġregex":12136,"ĠGeorge":12137,"Scheduler":12138,"camel":12139,"Ġnews":12140,"MAT":12141,"uer":12142,"Ġemail":12143,"contents":12144,"near":12145,"ĠÐ¿":12146,"Ġmoun":12147,"Ġillustrates":12148,"=\"/":12149,"Ġdispatch":12150,"ĠSFR":12151,"isher":12152,"Ġmonomial":12153,"oming":12154,"Ġattrs":12155,"ĠPlanck":12156,"Ġ=&":12157,"ership":12158,"unicip":12159,"je":12160,"DateTime":12161,"Ġap":12162,"suffici":12163,"Ġnm":12164,"Ġpayload":12165,"ĠCC":12166,"Ġrevealed":12167,"EST":12168,"mapping":12169,"Ġpersonal":12170,"ĠHamilton":12171,"Ġarrive":12172,"Ġresponses":12173,"Ready":12174,"Ġqualitative":12175,"morph":12176,"Vol":12177,"Ġinset":12178,"}--\\":12179,"Ġstyles":12180,"$\\%":12181,"Ġopportun":12182,")]{":12183,"Ġprox":12184,"ĠHa":12185,"Ġrail":12186,"Ġvariants":12187,"Ġautomorphism":12188,"vince":12189,"aped":12190,"Due":12191,"Corre":12192,"warn":12193,"CRE":12194,"matches":12195,"vp":12196,"elia":12197,"240":12198,"ĠSY":12199,"^*$.":12200,"Ġrac":12201,"@\\":12202,"ĠAli":12203,"ĠRev":12204,"Discussion":12205,"Ġenc":12206,"Ġhandling":12207,"Ġformulated":12208,"Ġbre":12209,"lacian":12210,"ĠSym":12211,"*{\\":12212,"QCD":12213,"actual":12214,"Ġsubscri":12215,"Ð²":12216,"Ġrout":12217,"*,":12218,"olves":12219,"Ġnavigation":12220,"Ġ'%":12221,"ESS":12222,"does":12223,"700":12224,"Ġboxes":12225,"Language":12226,"Ġreasoning":12227,"Ġmagnetization":12228,"arded":12229,"Ġchecks":12230,"^+(":12231,"Ġrequiring":12232,"decre":12233,"Ġestimators":12234,"Ġbundles":12235,"Ġnumerous":12236,"ĠLou":12237,"Ġoverview":12238,"Bits":12239,"('#":12240,"relativistic":12241,"Ġclosest":12242,"################":12243,"Ġneglect":12244,"emon":12245,"Password":12246,"Ġdictionary":12247,"ArgumentException":12248,"Ġinitialized":12249,"Ġstations":12250,"rish":12251,"ĠBit":12252,"cryp":12253,"Ġrecovered":12254,"Ġfol":12255,"ships":12256,"triangleq":12257,"nucle":12258,"ajax":12259,"ologically":12260,"otherwise":12261,"Day":12262,"1974":12263,"Ġhope":12264,"Ġampl":12265,"flex":12266,"Ġimg":12267,"Ġdiffers":12268,"'})":12269,"Ġsin":12270,"idelity":12271,"Ġomitted":12272,"ĠSED":12273,"@{\\":12274,"ĠMem":12275,"appendix":12276,"Zero":12277,"iy":12278,"adjoint":12279,"Ġfila":12280,"ĠPress":12281,"Begin":12282,"lination":12283,"Final":12284,"animate":12285,"extensions":12286,"Ġsubgraph":12287,"INTER":12288,"lp":12289,"ackson":12290,"blob":12291,"performance":12292,"Ġprovider":12293,"{}{":12294,"phot":12295,"sensitive":12296,"Ġdissipation":12297,"Ġemplo":12298,"encoding":12299,"Ġepisode":12300,"popup":12301,"Attach":12302,"Ġiterative":12303,"Ġspatially":12304,"ĠSal":12305,"Ġworst":12306,"Ġrelationships":12307,"Ġheuristic":12308,"Ġclaimed":12309,"Ġoutperforms":12310,"integral":12311,"approximation":12312,"job":12313,"Ġdifferentiable":12314,"labels":12315,"Ġinstalled":12316,"ĠRoyal":12317,"Ġtrim":12318,"Ġinversion":12319,"Ġintroduces":12320,"Ġcountries":12321,"physics":12322,"Ġactivities":12323,"smallmatrix":12324,"bibitem":12325,"Ġpercentage":12326,"Ġindicator":12327,"Setting":12328,"Ġproportion":12329,"Ġconstitu":12330,"uu":12331,"neutral":12332,"ordan":12333,"ĠHD":12334,"Ġnom":12335,"Ġ(.":12336,"verbatim":12337,"Ġdedic":12338,"splice":12339,"Ġsubsequently":12340,"pixel":12341,"Ġolder":12342,"FG":12343,"Ġpolarized":12344,"istant":12345,"Ġjud":12346,"columns":12347,"eb":12348,"ifferent":12349,"Zone":12350,"Ġmic":12351,"ĠAnalysis":12352,"getElement":12353,"Points":12354,"-\\!":12355,"mathrel":12356,"Ti":12357,"uts":12358,"Ġmodelling":12359,"information":12360,"Ġpriority":12361,"provider":12362,"115":12363,"BG":12364,"highlight":12365,"ora":12366,"design":12367,"Ġjavax":12368,"Ġminimizing":12369,"sampling":12370,"AI":12371,"Ġconsumption":12372,"oids":12373,"ufact":12374,"ashington":12375,"1975":12376,"cripts":12377,"Both":12378,"Ctx":12379,"Ġfacili":12380,"Ġuniqueness":12381,"infinite":12382,"iny":12383,"dg":12384,"Ġpolitic":12385,"Ġbrane":12386,"STRING":12387,"Ġsimulate":12388,"Ġbranches":12389,"Ġthereby":12390,"ĠIL":12391,"Ġfiltered":12392,"Marker":12393,"zes":12394,"ĠAssembly":12395,"Upper":12396,"ĠAcc":12397,"lits":12398,"Ġestimating":12399,"AAAA":12400,"Ġspectroscopic":12401,"Ġpredicate":12402,"tables":12403,"}$};":12404,"ĠPO":12405,"Ġbinaries":12406,"WW":12407,"ĉĠĠĠĠĠĠĠĠĠ":12408,"Ġcompetition":12409,"pas":12410,"ĠAdS":12411,"Raw":12412,"tier":12413,"OUT":12414,"144":12415,"bundle":12416,"Ġproducing":12417,"Agg":12418,"holds":12419,"had":12420,"Ġharmon":12421,"aman":12422,"signal":12423,"allery":12424,"ĠComple":12425,"()))":12426,"Bi":12427,"estor":12428,"Dete":12429,"Ġdecor":12430,"Ġbeli":12431,"Ġ$({\\":12432,"Repository":12433,"ĠCommun":12434,"brane":12435,"}{.":12436,"Ġdemonstrates":12437,"Ġexpanding":12438,"rackets":12439,"Ġregistered":12440,"native":12441,"TABLE":12442,"iggers":12443,"=\"\"":12444,"anging":12445,"Ġextrem":12446,"CAL":12447,"Allow":12448,"Ġansatz":12449,"strings":12450,"220":12451,"('<":12452,"Ġemitted":12453,"Ġarrange":12454,"platform":12455,"Ġgr":12456,"ĠApache":12457,"Ġoutline":12458,"pmod":12459,"Ġcarbon":12460,"Ġgoals":12461,"Ġnucleus":12462,"rece":12463,"MIN":12464,"atis":12465,"medium":12466,")}^{":12467,"ĠLaw":12468,"Ġappo":12469,"Ġindependence":12470,"Ġdecoding":12471,"Ġextending":12472,"ĠCommon":12473,"Ġconserved":12474,"ĠEnergy":12475,"Ġparabolic":12476,"take":12477,"Screen":12478,"locale":12479,"getAttribute":12480,"average":12481,"Ġincrement":12482,"Split":12483,"ĠRG":12484,"Ġvisibility":12485,"scaling":12486,"Ġsaw":12487,"10000":12488,"}}%":12489,"ultural":12490,"thermal":12491,"Expected":12492,"FOR":12493,"semi":12494,"tuple":12495,"users":12496,"eref":12497,"Ġexperi":12498,"defaults":12499,"services":12500,"incar":12501,"Ġguaranteed":12502,"Ġimprovements":12503,"Ġbases":12504,"Appendix":12505,"Ġtimestamp":12506,"olf":12507,"VAR":12508,"capa":12509,"{\\'":12510,"AST":12511,"Ġconcerning":12512,"safe":12513,"ONG":12514,"1973":12515,"Ġattempts":12516,"^*$,":12517,"Ġnonnegative":12518,"Ġterminal":12519,"ĠSoftware":12520,"Ġresonances":12521,"Ġimpose":12522,"Ã³n":12523,"PG":12524,"Ġice":12525,"keep":12526,"Errors":12527,"ailability":12528,"'}{":12529,"Pay":12530,"Ġhierarchical":12531,"Ġexploration":12532,"gaz":12533,"agent":12534,"Ġfractions":12535,"Activity":12536,"rehen":12537,"ĠAg":12538,"front":12539,"aka":12540,"Vec":12541,"translate":12542,"Blob":12543,"Har":12544,"108":12545,"chematic":12546,"PhysRev":12547,"PN":12548,"Ġregardless":12549,"Clear":12550,"Ġrecursive":12551,"rought":12552,"ĠObservable":12553,"\\@":12554,"Ġfermionic":12555,"Ġmarried":12556,"Ġcontinuously":12557,"Ġannotation":12558,"Ġdaugh":12559,"Ġiterate":12560,"Ġ$%":12561,"trip":12562,"jar":12563,"ĠTur":12564,"sass":12565,"ideos":12566,"gel":12567,"odic":12568,"cis":12569,"Enumerable":12570,"pus":12571,"{}\\":12572,">;":12573,"strict":12574,"production":12575,"________":12576,"speed":12577,"Bra":12578,"Ġhide":12579,"Indic":12580,"coher":12581,"llig":12582,"Ġtoday":12583,"Large":12584,"major":12585,"Ġroll":12586,"Cloud":12587,"ineq":12588,"FORM":12589,"IJ":12590,"cellent":12591,"Ġparsed":12592,"Ġmotions":12593,"Cred":12594,")}}{":12595,"Without":12596,"hot":12597,"{-\\":12598,"pen":12599,"Ġcra":12600,"itar":12601,"ĉĠĠĠĠĠĠĠĠĠĠĠĠĠĠĠĠĠĠĠ":12602,"ĠDu":12603,"FFER":12604,"fall":12605,"ĠWay":12606,"Ġaxes":12607,"Ġinvoked":12608,"attrs":12609,"Ġcategor":12610,"Watch":12611,"103":12612,"samples":12613,"Ġequally":12614,"overview":12615,"Acknowled":12616,"ĠFil":12617,"Ġpc":12618,"isEmpty":12619,"onormal":12620,"ferm":12621,"Ġsup":12622,".\\,":12623,"Ġconsiders":12624,"trically":12625,"Ġhum":12626,"natural":12627,"ithmetic":12628,"Ġfacts":12629,"directed":12630,"#{":12631,"ĠUtil":12632,")}+":12633,"ĠGrant":12634,"impro":12635,")\\;":12636,"Ġpriori":12637,"iles":12638,"Pl":12639,"Ġaz":12640,"ulted":12641,"'^":12642,"branch":12643,"Ġcapable":12644,"jax":12645,"Ġaccounts":12646,"apor":12647,"existence":12648,"kubernetes":12649,"Ġconsiderations":12650,"Ġparad":12651,"fitting":12652,"Ġoptimize":12653,"tzmann":12654,"fv":12655,"ĠTor":12656,"Ġregimes":12657,"Depth":12658,"ĠSign":12659,"Ġmilitary":12660,"LAS":12661,"Ġdeploy":12662,"Ġcorollary":12663,"ĠAS":12664,"imuth":12665,"Ġreserved":12666,"ĠEV":12667,"Ġspot":12668,"/*!":12669,"ootball":12670,"'_{\\":12671,"Ġaffects":12672,"Ġdegeneracy":12673,"Ġbosonic":12674,"ĠForm":12675,"Ġinfinitely":12676,"Ġ'_":12677,"Ġeducation":12678,"){$\\":12679,"Ġbackward":12680,"Ġfluctuation":12681,"Stop":12682,"Ġthresh":12683,"features":12684,"Month":12685,"ÐµÐ½":12686,"Ġcached":12687,"ORTED":12688,".}.":12689,"POST":12690,"Ġmal":12691,"rupted":12692,"eel":12693,"Ġmem":12694,"enes":12695,"Ġlabor":12696,"encode":12697,"{#":12698,"vanishing":12699,"wan":12700,"copes":12701,"Ġnight":12702,"Upload":12703,"observed":12704,"ections":12705,"Ġevaluating":12706,"Ġcompac":12707,"ĠThomas":12708,"Ġtwisted":12709,"sz":12710,"Ġliving":12711,"Ġiner":12712,"}\\|\\":12713,"_+$":12714,"1972":12715,"limin":12716,"Ġprofessional":12717,"ĠHttp":12718,"Ġadmit":12719,"Ġintended":12720,"Ġmono":12721,"Ġsurjective":12722,"Ġpreserved":12723,"lein":12724,"Ġsemigroup":12725,"quanti":12726,"ĠIC":12727,"Ġturbulent":12728,"ĠMu":12729,"assign":12730,"lities":12731,"zoom":12732,"ĠForce":12733,"ĠBest":12734,"Player":12735,"account":12736,"ĠEM":12737,"Ġlens":12738,"sections":12739,"tia":12740,"Ġadapt":12741,"Delay":12742,"Ġdamping":12743,"ĠRepres":12744,"Static":12745,"toBe":12746,"geometry":12747,"ĠGHz":12748,"}}({\\":12749,"amazon":12750,"ĠBen":12751,"ENER":12752,"QA":12753,"ĠPart":12754,"mathring":12755,"ĠRegion":12756,"Ġgiant":12757,"Ġtensors":12758,"ĠDelete":12759,"Ġsends":12760,"Ġchecking":12761,"Ġwavelengths":12762,"itzer":12763,"Ġconstructing":12764,"Groups":12765,"Ġmodulus":12766,"Columns":12767,"Ġproposal":12768,"paths":12769,"RAY":12770,"Ġstrip":12771,"viously":12772,"0001":12773,"Border":12774,"ĠMass":12775,"uning":12776,"Ġcommands":12777,"003":12778,"|<":12779,"Ġinjection":12780,"}^{-\\":12781,"tized":12782,"ĠHandle":12783,"slide":12784,"urated":12785,"catch":12786,"ARE":12787,"}^-":12788,"Ġfrequently":12789,"RANT":12790,"Ġ\\,\\,":12791,"ĠJose":12792,"Ġevident":12793,"transport":12794,"ongo":12795,"sidebar":12796,"ORY":12797,"Ġrestrictions":12798,"escape":12799,"cpp":12800,"Ġverification":12801,"publish":12802,"Private":12803,"Ġpiece":12804,"]{$":12805,"akes":12806,"Ġencoura":12807,"ĠPaul":12808,"Ġoffers":12809,"leton":12810,"zier":12811,"eting":12812,"ĠYang":12813,"ffers":12814,"asp":12815,"SB":12816,"Ġadiabatic":12817,"rules":12818,"ĠĠĠĠĠĠĠĠĠĠĠĠĠĠĠĠĠĠĠĠĠĠĠĠĠĠĠĠĠĠĠĠĠ":12819,"convergence":12820,"Ġlogger":12821,"MODULE":12822,"Ġanalytically":12823,"/_":12824,"Emit":12825,"Sort":12826,"Center":12827,"Ġconductivity":12828,"NSString":12829,"enario":12830,"regex":12831,"cov":12832,"lectric":12833,"Bind":12834,"warded":12835,"Opt":12836,"Ġturned":12837,"Ġ\"%":12838,"rn":12839,"stroke":12840,"HAL":12841,"iable":12842,"Dispatch":12843,"tooltip":12844,"Lag":12845,"\\%.":12846,"Ġ...,":12847,"Ġforced":12848,"]{@{}":12849,"Prob":12850,"Ġspacing":12851,"^-\\":12852,"}=\\{":12853,"necess":12854,"ĠCath":12855,"=\\!":12856,"Ġomit":12857,"Elem":12858,"ensively":12859,"Ġresonant":12860,"AdS":12861,"ĠChampionship":12862,"Ġoutcomes":12863,"React":12864,"Features":12865,"Ġcompound":12866,"******/":12867,"ĠGreat":12868,")}\\\\":12869,"ĠMock":12870,")'":12871,"Convert":12872,"Ġdecided":12873,"Ġadds":12874,"Ġhadronic":12875,"White":12876,"Ġsummation":12877,"Ġlift":12878,"Ñĩ":12879,"Ġtotally":12880,"ISE":12881,"plain":12882,"RG":12883,"cheduling":12884,"],\\":12885,"))}":12886,"ĠMex":12887,"ĠWARRANT":12888,"Ġns":12889,")^{-\\":12890,"Environment":12891,"ĠRail":12892,"eneity":12893,"Sql":12894,"Ġcompanies":12895,"<<":12896,"Ġtidal":12897,"sqcup":12898,"ĠTO":12899,"shown":12900,"estival":12901,"9999":12902,"assembly":12903,"legend":12904,"Ġmutual":12905,"Ġpasses":12906,"ulli":12907,"Ġecc":12908,"ĠPop":12909,"cone":12910,"Ġsupplied":12911,"106":12912,",\"./":12913,"Ġreadily":12914,"Ġcmd":12915,"Am":12916,"ĠHaw":12917,"^*)":12918,"ips":12919,"Ġsemantics":12920,":#":12921,"Ġhalos":12922,"Ġtheorems":12923,"Rest":12924,"}}}(":12925,"Ġneglected":12926,"Thelia":12927,"ĠPresident":12928,"ĠDirichlet":12929,"Ġexposure":12930,"()</":12931,"kar":12932,"Ġnine":12933,"Series":12934,"Ġsongs":12935,"107":12936,"Ġcl":12937,"tbody":12938,"Ġmarker":12939,"Ġ}_{":12940,"Nullable":12941,"Ġbug":12942,"Ġlisteners":12943,"interaction":12944,"structures":12945,"Ġadaptation":12946,"ĠArch":12947,"ĠFind":12948,"reject":12949,"Ġgray":12950,"person":12951,"Virtual":12952,"ASSERT":12953,"CDM":12954,"Med":12955,"Rules":12956,"sson":12957,"Ġ|=":12958,"getValue":12959,"zh":12960,"Ġdigital":12961,"DATA":12962,"Ġflav":12963,"Ġanc":12964,"Ġpoles":12965,"Put":12966,"ĠHistor":12967,"venue":12968,"Ġlookup":12969,"rational":12970,"Notification":12971,"added":12972,"ĠCG":12973,"ĠÂ":12974,"tbl":12975,"release":12976,"Ġorganization":12977,"Returns":12978,"thrift":12979,"Ġsheaf":12980,"Ġpaint":12981,"graded":12982,"odge":12983,"Ġincorrect":12984,"Ġalias":12985,"umni":12986,"tifications":12987,"Enter":12988,"Ġseparable":12989,"Related":12990,"extends":12991,"ĠIM":12992,"ĠOP":12993,"aki":12994,"elt":12995,"Ġkinematic":12996,"Ġperhaps":12997,"haus":12998,"Ġoscillator":12999,")$:":13000,"ĠHubble":13001,"ĠDan":13002,"ritable":13003,"Ġnucleon":13004,"Om":13005,"Ġreceives":13006,"Ġinspired":13007,"jj":13008,"ĠMean":13009,"assets":13010,"likely":13011,"Contains":13012,"Ġcontradic":13013,"Ġleak":13014,"tat":13015,"ĠVol":13016,"timer":13017,"Ġulti":13018,"Ġfewer":13019,"ARRAY":13020,"Fixed":13021,"oscal":13022,"'')":13023,"hpp":13024,"Spe":13025,"Ġ}).":13026,"Admin":13027,"Structure":13028,"pref":13029,"ĠOutput":13030,"Ġefforts":13031,"}}[":13032,"edges":13033,"ĠLOG":13034,"Ġbridge":13035,"{+":13036,"Circ":13037,"Unknown":13038,"Ġsharing":13039,"Wang":13040,"Ġsimplicial":13041,"minimum":13042,"addEventListener":13043,"IAL":13044,"reci":13045,"Ġdiscrepancy":13046,"Ġaccessible":13047,"ukawa":13048,"Ġsupernova":13049,"moved":13050,"ĠParse":13051,"Ġcontroll":13052,"ĠCentral":13053,"Ġbudget":13054,"ĠPet":13055,"Ġbelonging":13056,"license":13057,"Observ":13058,"ĠTex":13059,"isset":13060,"many":13061,"Ã£":13062,"Ġsole":13063,"country":13064,"ĠControl":13065,"Metrics":13066,"USY":13067,"IDE":13068,"Ġlogical":13069,"tration":13070,"Ġgetting":13071,"relations":13072,"cyclic":13073,"Syn":13074,"Nd":13075,"ĠPHP":13076,"esture":13077,"Ġgoverning":13078,"hold":13079,"Ġmuon":13080,"117":13081,"ijection":13082,"Ġsensors":13083,"(\"%":13084,"ĠRGB":13085,"Ġ'#":13086,"Ġsupersymmetry":13087,"Ġspecification":13088,"Ġaddresses":13089,"Ġannihilation":13090,"Spr":13091,"()`":13092,"Ġmodifications":13093,"assertTrue":13094,"onymous":13095,"just":13096,"Ġslowly":13097,"}}|":13098,"Ġsucces":13099,"Ä±":13100,"Ġ\".":13101,"Hub":13102,"Extra":13103,"ĠĠĠĠĠĠĠĠĠĠĠĠĠĠĠĠĠĠĠĠĠĠĠĠĠĠĠĠĠĠĠĠĠĠ":13104,"Ġanisotropic":13105,"\\).":13106,"dat":13107,"Append":13108,"Ġpromising":13109,"Ġwidths":13110,"guide":13111,"}\\{":13112,"Ġcomparisons":13113,"ĠKingdom":13114,"Ġdedicated":13115,"Ġexponents":13116,"Ġargued":13117,"alian":13118,"they":13119,"ĠKore":13120,"Ġcapital":13121,"Ġgalactic":13122,"Make":13123,"Drop":13124,"Ġinterfer":13125,"ĠAcademy":13126,"Ġinduce":13127,"zhang":13128,"Ġsight":13129,"ticip":13130,"ĠGC":13131,"Labels":13132,"Ġsorted":13133,"Ġcombinatorial":13134,"KM":13135,"Ġvideos":13136,"plots":13137,"ece":13138,"Ġbreaks":13139,"Ġsupervised":13140,".}}":13141,"ĠBanach":13142,"Ġreactions":13143,"ĠMany":13144,"exit":13145,"Ġgates":13146,"imod":13147,")+(":13148,"Ġjs":13149,"Ġpredicts":13150,"]*":13151,"lax":13152,"Ġoverhead":13153,"\\),":13154,"ĠProblem":13155,"tty":13156,"raints":13157,"Ġsyntax":13158,"ĠLay":13159,"{-.":13160,"Ġredund":13161,"ĠChinese":13162,"AMP":13163,"Ġsuppress":13164,"gination":13165,"extern":13166,"Dynamic":13167,"ĠAlice":13168,"AW":13169,"CHAR":13170,"ittle":13171,"Are":13172,"omer":13173,"ĠDem":13174,"Ġcollective":13175,"Ġtriangular":13176,"ASK":13177,"Ġpermissions":13178,"Ġsql":13179,"Ġ'')":13180,"_)":13181,"ĠNP":13182,"ores":13183,"priv":13184,"ĠPFNGL":13185,"orse":13186,"Ġcoding":13187,"variables":13188,"days":13189,"ĠMary":13190,"Ġcontours":13191,"GroupName":13192,"refresh":13193,"Ġ}.":13194,"BI":13195,"slider":13196,"Ġpan":13197,"Ġagrees":13198,"mbf":13199,"pared":13200,"Ġspiral":13201,"inkowski":13202,"Ġhosp":13203,"Graphics":13204,"Ġqq":13205,"Observe":13206,"aily":13207,"ometer":13208,"118":13209,"bn":13210,"username":13211,"Dig":13212,"igator":13213,"ĠCF":13214,"Ġtruncated":13215,"encoder":13216,"BY":13217,"lood":13218,"Ġneurons":13219,"urc":13220,"forcement":13221,")}+\\":13222,"Ġletters":13223,"ĠCompany":13224,"ĠSimple":13225,"Ġsurro":13226,"remarks":13227,";\\;\\;\\;\\":13228,"Program":13229,"Addr":13230,"00000000":13231,"dense":13232,"Counter":13233,"xtures":13234,"uples":13235,"ĠFigures":13236,"Ġdead":13237,"Ġboard":13238,"Ġreveals":13239,"Ġtraces":13240,"leave":13241,"breve":13242,"Ġadvanced":13243,"Ġnp":13244,"Power":13245,"ortest":13246,"generic":13247,"ĠsetTimeout":13248,"Ġswitching":13249,"ynman":13250,"ĠMusic":13251,"suming":13252,",\\;":13253,"commit":13254,"Ġspont":13255,"Qual":13256,"Ġfs":13257,"Ġinsight":13258,"Ġaddressed":13259,"Ġminimization":13260,"ĠWhether":13261,"GO":13262,"Ġhelps":13263,"Ġemphasize":13264,"Encoding":13265,"Ġ$_":13266,"writer":13267,"ircraft":13268,"simal":13269,"Ġrm":13270,"Ġawait":13271,"Ġleader":13272,"rian":13273,"PARAM":13274,"Ġasymmetric":13275,"Ġpp":13276,"ĠRet":13277,"Ġcylinder":13278,"constrained":13279,"iro":13280,"ĠWashington":13281,"Ġpreserving":13282,"Phaser":13283,"ffffff":13284,"Ġinserted":13285,"Tor":13286,"ellip":13287,"ĠLab":13288,"corner":13289,"ÑģÑĤ":13290,"umino":13291,"Execution":13292,"within":13293,"MODE":13294,"ĠRou":13295,"Visual":13296,"ĠCons":13297,"170":13298,"Ġhelper":13299,"Ġliteral":13300,"DEX":13301,"$_\\":13302,"ambig":13303,"Ġloader":13304,"ĠRob":13305,"Ġbare":13306,"Ġles":13307,"expansion":13308,"ELD":13309,"except":13310,"Ġaper":13311,"Ġreflected":13312,"John":13313,"docker":13314,"roscopy":13315,"Into":13316,"rates":13317,"RF":13318,"coustic":13319,"probability":13320,"Ġcommunities":13321,"ĠShow":13322,"derr":13323,"lVert":13324,"abstract":13325,"Ġ+(":13326,"ARB":13327,"chunk":13328,"orange":13329,"Ġdebut":13330,"Ġdivide":13331,"room":13332,"Ġexcellent":13333,"Like":13334,"Release":13335,"ining":13336,"350":13337,"wing":13338,"Ġlattices":13339,"imitive":13340,"signature":13341,"His":13342,"Ġcompatibility":13343,"Throw":13344,"paren":13345,"Ġanalogue":13346,"GLE":13347,"rint":13348,"kpc":13349,"ĠSol":13350,"ĠRight":13351,"Phase":13352,"Ġtetra":13353,"Ġmedical":13354,"Ġcasc":13355,"Usage":13356,"BUFFER":13357,"perturbative":13358,"Ġdelegate":13359,"}{(\\":13360,"ĠBY":13361,"ppings":13362,"acting":13363,"Contents":13364,"canonical":13365,"ĠassertThat":13366,"_*$":13367,"Ġaims":13368,"Ġadvance":13369,"ĠMad":13370,"lighted":13371,"ĠGames":13372,"Ġsigns":13373,"ĠMis":13374,"(\"./":13375,"Ġtimescale":13376,"Ġpenalty":13377,"Rel":13378,"Ġdisable":13379,"Ġplanning":13380,"Self":13381,"facebook":13382,"lad":13383,"GT":13384,"report":13385,"Ġjunction":13386,"Most":13387,"Ġpointing":13388,"Ð´":13389,"uss":13390,"ĠDoc":13391,"ulse":13392,"Ġkinds":13393,"ĠJapanese":13394,"Ġzoom":13395,"llll":13396,"asion":13397,"Ġforeground":13398,"5000":13399,"Ġtile":13400,"\\%)":13401,"Ġraised":13402,"endor":13403,"mechan":13404,".]":13405,"Ġranking":13406,"Ġsupersymmetric":13407,"GW":13408,"Ġfre":13409,"),$":13410,"linecite":13411,"ĠSmith":13412,"ifying":13413,"Ġvarieties":13414,"Ġcompanion":13415,"Sol":13416,"database":13417,"ĠRussian":13418,"Ġcontrary":13419,"Ġtelescope":13420,"limsup":13421,"LOW":13422,"nr":13423,"trine":13424,"ictor":13425,"Ġsaturation":13426,")}{(":13427,"ĠLearning":13428,"fly":13429,"Ġ$+":13430,"Ġalle":13431,"their":13432,"^{-(":13433,"alias":13434,"Ġpieces":13435,"METHOD":13436,"Ġlatency":13437,"Ġhalign":13438,")=-":13439,"SNR":13440,"micro":13441,"ĠSearch":13442,"Ġ&=\\":13443,"Ind":13444,"Ġserves":13445,"thesize":13446,"itecture":13447,"ĠLink":13448,")\\,,":13449,"Ġcounterpart":13450,"ĠBell":13451,"NotFound":13452,"transfer":13453,"quasi":13454,"audio":13455,"Ġsync":13456,"Ġlooks":13457,"nodeName":13458,"EXPORT":13459,"Ġmission":13460,"bolev":13461,"ĠShort":13462,"Ġprominent":13463,"}}{{\\":13464,"ĠPython":13465,"Ġbold":13466,"ĠAbstract":13467,"substring":13468,"Ġspeaking":13469,"ele":13470,"ĠBrownian":13471,"Acknowledgements":13472,"tibility":13473,"sil":13474,"Ġagreed":13475,"login":13476,"Remote":13477,"ĠOS":13478,"(\"/":13479,"Cmd":13480,"substr":13481,"HL":13482,"Ġbegins":13483,"AY":13484,"Identity":13485,"ERS":13486,"Ġsocket":13487,"tikzcd":13488,"Ġmacro":13489,"terior":13490,"Ġoperated":13491,"?}":13492,"itors":13493,"kins":13494,"Ġâ":13495,"Place":13496,"feed":13497,"ĠCross":13498,"Lem":13499,"titive":13500,"Messages":13501,"Ġsentences":13502,"Ġtax":13503,"Ġtrial":13504,"tilities":13505,"Ġsketch":13506,"Ġrec":13507,"Similar":13508,"ĠNAS":13509,"Eng":13510,"Reset":13511,"Esti":13512,"overflow":13513,".;":13514,"|^{\\":13515,"osted":13516,"Ġlensing":13517,"VV":13518,"Ġalbums":13519,"ios":13520,"Ġtheme":13521,"commutative":13522,"ĠTIM":13523,"game":13524,"ĠRay":13525,"Ġwaiting":13526,"Ġacknowledge":13527,"Ġhandled":13528,"determined":13529,"theast":13530,"atz":13531,"tabularnewline":13532,"Ġunlike":13533,"decla":13534,"ĠTown":13535,"UND":13536,"Sharp":13537,"proc":13538,"Ġcontraction":13539,"Ġacquired":13540,"pages":13541,"Ġrewritten":13542,"sphere":13543,"Ġconsequently":13544,"ĠPage":13545,"Ġcenters":13546,"Author":13547,"Ġbond":13548,"equations":13549,"ĠRecords":13550,"Ġorthonormal":13551,"Ġutilize":13552,"essor":13553,"_*\\":13554,"Ġconsequences":13555,"Ġbrother":13556,"ered":13557,"})\\\\":13558,"RGB":13559,"ĠInformation":13560,"iar":13561,"ipe":13562,"IZ":13563,"ĠHistory":13564,"Ġpulses":13565,"Validator":13566,"review":13567,"Ġarrival":13568,"precision":13569,"Audio":13570,"ĠChannel":13571,"Converter":13572,"Ġaxiom":13573,"\\,$\\":13574,"inject":13575,"Ġfalls":13576,"Ġbracket":13577,"ĠGLint":13578,"Ġunchanged":13579,"ĠIsland":13580,"Ġ\\'":13581,"construction":13582,"Ġtiming":13583,"Ã£o":13584,"irable":13585,"Ġdisplays":13586,"()),":13587,"Ġphysically":13588,"TeV":13589,"Du":13590,"*(":13591,"ĠPass":13592,"orough":13593,"strip":13594,"World":13595,"Ġremained":13596,"Foo":13597,"bers":13598,"Il":13599,"shall":13600,"ĠModule":13601,"icial":13602,"Exists":13603,"itons":13604,"lux":13605,"Calc":13606,"ĠContext":13607,"schild":13608,"1971":13609,"Ġstructured":13610,"Ġtransient":13611,"Ġsecure":13612,"Ġsuppression":13613,"Ġutils":13614,"Ġanything":13615,"Ġparametric":13616,"Ġsolver":13617,"conc":13618,")=-\\":13619,"Ġsafety":13620,"Ġbtn":13621,"NODE":13622,"Ġxhr":13623,"dw":13624,"Ġpulsar":13625,"ĠSing":13626,"Ġresearchers":13627,"Ġmanually":13628,"water":13629,"ĠStream":13630,"Mixin":13631,"Constant":13632,"pal":13633,"etc":13634,"Ð¼":13635,"}={\\":13636,"ĠĠĠĠĠĠĠĠĠĠĠĠĠĠĠĠĊ":13637,"Ġfaith":13638,"Ġtoler":13639,"Ġdynamically":13640,"})+\\":13641,"Optim":13642,"Ġprocedures":13643,"atern":13644,"isting":13645,"Ġfounded":13646,"/{\\":13647,"bigcap":13648,"004":13649,"contra":13650,"ĠRobert":13651,"]=\\":13652,"Ġstay":13653,"ĠAI":13654,"Ġexpensive":13655,"mathord":13656,"modes":13657,"509":13658,"Ġcardinality":13659,"clock":13660,"ĠChi":13661,"124":13662,"pred":13663,"ĠRoad":13664,"yo":13665,"Combining":13666,"Ġreconstruct":13667,"preventDefault":13668,"ederal":13669,"Lookup":13670,"ĉĉĠ":13671,"Dimension":13672,"latforms":13673,"onlinecite":13674,"Ġcondensate":13675,"Ġtit":13676,"ĠCurrent":13677,"Ġrays":13678,"Ġbath":13679,"Ġgrand":13680,"FALSE":13681,"Supported":13682,"submit":13683,"Alpha":13684,"ynchronous":13685,"Ġinherit":13686,"racle":13687,"Ġimplications":13688,"Ġpredictive":13689,"Ġtx":13690,"1968":13691,"continue":13692,"FIX":13693,"/******/":13694,"ĠSyntax":13695,"Ġip":13696,"mator":13697,"olet":13698,"Ġrid":13699,"frames":13700,"ĠAmazon":13701,"ĠSchr":13702,"navigation":13703,"illiseconds":13704,"riends":13705,"ĠSNe":13706,"Ġsearches":13707,"YY":13708,"usp":13709,"apis":13710,"AU":13711,"NI":13712,")}-":13713,"Win":13714,"109":13715,"ĠChern":13716,"ĠExperim":13717,"Fake":13718,"rVert":13719,"Ġretrieve":13720,"vanced":13721,"1950":13722,"Lines":13723,"fff":13724,"Alloc":13725,"Ġintegrate":13726,"Bucket":13727,"Ġbipartite":13728,"Ġ{\"":13729,"Resolver":13730,"minimal":13731,"Ġlex":13732,"vb":13733,"Ġremoval":13734,"ancer":13735,"liament":13736,"equivalent":13737,"Ġdip":13738,"Ġsuperconducting":13739,"asympto":13740,"Shader":13741,"}$.}":13742,"Users":13743,"(|\\":13744,"urnament":13745,"Ġdiversity":13746,"Ġtrying":13747,"ĠparseInt":13748,"ĠStart":13749,"Ġ'[":13750,"Ġlatest":13751,"difference":13752,"Ġbif":13753,"succ":13754,"]->":13755,"accept":13756,"Ġrigor":13757,"Ġknot":13758,"Ġmethodology":13759,"Ġevolutionary":13760,"Ġresid":13761,"ĠImple":13762,"avg":13763,"}''":13764,"urnals":13765,"Ġ\\\"":13766,"cx":13767,"PV":13768,"matter":13769,"ĠDay":13770,"quee":13771,"Ġartifact":13772,"Ġaccompan":13773,"Ġbrought":13774,"Ġinterpret":13775,"Ġreturning":13776,"associated":13777,"ĠLandroid":13778,"ĠDeta":13779,"ĠFROM":13780,"SSM":13781,"levance":13782,"around":13783,"differential":13784,"EVENT":13785,"Ġexploit":13786,"his":13787,"ĠCourt":13788,"messages":13789,"Save":13790,"ĠUsed":13791,"Ġdeliver":13792,"Ġhistogram":13793,"Ġrejected":13794,"ticity":13795,"wargs":13796,"cedure":13797,"Ġbehaviors":13798,"rehensive":13799,"Light":13800,"ĠByte":13801,"Ġatmospheric":13802,"Ġsubspaces":13803,"Capture":13804,"Ġcool":13805,"ĠCore":13806,"keleton":13807,"Ġincomp":13808,"Ġwalls":13809,"Ġglobally":13810,"Scheme":13811,"Ġgraphene":13812,"}}^{-":13813,"ĠClub":13814,"utable":13815,"ĠScot":13816,"Ġpending":13817,"AK":13818,"kw":13819,"Ġbijection":13820,"Ġimplementations":13821,"ĠNeumann":13822,"labeled":13823,"ĠPla":13824,">)":13825,"edu":13826,"rical":13827,"aming":13828,"almost":13829,"\\;\\":13830,"leted":13831,"ANCE":13832,"Ġsubstantially":13833,"Ġbalanced":13834,"']['":13835,"dra":13836,"ĠDenote":13837,"ĠED":13838,"Ġautomatic":13839,"mixed":13840,"inn":13841,"Ġquantify":13842,"ĠCV":13843,"Ratio":13844,"Green":13845,"reson":13846,"Ġoffice":13847,"Ġmonop":13848,"electric":13849,"lips":13850,"ĠDS":13851,"obile":13852,"adi":13853,"pip":13854,"Ġta":13855,"unov":13856,"ĠKar":13857,"lee":13858,"ATOR":13859,"Ġoccurrence":13860,"Future":13861,"Ġglass":13862,"Ġazimuth":13863,"ĠEngine":13864,"amplit":13865,"Ġengineering":13866,"Ġ(!(":13867,"tm":13868,"Ġwindows":13869,"ĠPl":13870,"Ġcosmology":13871,"Extensions":13872,"xff":13873,"Ġreaching":13874,"Ġtransferred":13875,"+|\\":13876,"Loaded":13877,"Ġtells":13878,"Ġarithmetic":13879,"asketball":13880,"fan":13881,"Ġdistortion":13882,"olor":13883,"together":13884,"ĠMAX":13885,"Ġrendering":13886,"Ġsnapshot":13887,"Ġsmoothing":13888,"1969":13889,")\\,.":13890,"ffix":13891,"Ġselecting":13892,"door":13893,"Ġswe":13894,"indices":13895,"Ġchose":13896,"Ġmonitoring":13897,"NET":13898,"Ġactor":13899,"elasticsearch":13900,"gm":13901,"Insert":13902,"ĠPan":13903,"Ġattractive":13904,"Ġvision":13905,"quar":13906,"acknowled":13907,"ĠMari":13908,"Ġeigenstates":13909,"nail":13910,"APIENTRY":13911,"territ":13912,"ĠKn":13913,"ĠCanadian":13914,"estingly":13915,"Ġvocal":13916,"Ġdev":13917,"activity":13918,"nas":13919,"limited":13920,"Ġsynthesis":13921,"unks":13922,"Ġindexed":13923,"{})":13924,"Ġranging":13925,"Standard":13926,"ĠGro":13927,"vian":13928,"(['":13929,"Ġsaddle":13930,"eks":13931,"Ġspent":13932,"ĠFilter":13933,"ĠFree":13934,"Ġghost":13935,"}<\\":13936,"Ġovercome":13937,")\",":13938,"114":13939,"Ġassociate":13940,"}^{[":13941,"Ġgreatly":13942,"'ll":13943,"What":13944,"ĠConvert":13945,"Hu":13946,"Ġsake":13947,"Ġ~~":13948,"ĠRandom":13949,"Ġmanaged":13950,"imath":13951,"Ġmerged":13952,"Ġcomputationally":13953,"SELECT":13954,"Ġdenomin":13955,"}^{{\\":13956,"Ġpossibilities":13957,"ĠFro":13958,"Ġ}),":13959,"Ġprotocols":13960,"Ġdiffuse":13961,"Ġgrate":13962,"discrete":13963,"itation":13964,"Ġpreceding":13965,"Ġpatches":13966,"Ġingre":13967,"blockList":13968,"Ġaxial":13969,"tas":13970,"ĠLaplacian":13971,"Ġmanifest":13972,"Ġdominates":13973,"Conv":13974,"Ġmother":13975,"ĠItalian":13976,"Ġconcerned":13977,"Ġmicroscopic":13978,"Ġ$(-":13979,"ĠMeta":13980,"HI":13981,"qubit":13982,"ClassName":13983,"Ġmultiplicative":13984,"Ġbilinear":13985,"liminaries":13986,"loads":13987,"Ġfilling":13988,"setcounter":13989,"reatest":13990,"AO":13991,"Ġsheet":13992,"Ġconsistently":13993,"spi":13994,"Ġhistorical":13995,"Google":13996,"Ġdevo":13997,"ĠColumn":13998,"Ġrein":13999,"rtimes":14000,"goto":14001,"contact":14002,"polynomial":14003,"Ġchampion":14004,"Ġbaselines":14005,")^*":14006,"Ġrock":14007,":`":14008,"smash":14009,"Mean":14010,"Ġpreliminary":14011,"ĠVo":14012,"\\},\\":14013,"Ġtemplates":14014,"ĠClient":14015,"ĠNAME":14016,"Ġsink":14017,"marker":14018,"Ha":14019,"tomic":14020,"}&=&":14021,"Ġambigu":14022,"ĠAfrica":14023,"/$":14024,"121":14025,"Prev":14026,"Ġdaughter":14027,"Origin":14028,"demic":14029,"Optional":14030,"Ġvirt":14031,"Ġdirective":14032,"Ġ({":14033,"tifier":14034,"erve":14035,"Ġworse":14036,"Ġsuggesting":14037,"Ġcomplexes":14038,"isFunction":14039,"Ġscientific":14040,"ien":14041,"cred":14042,"history":14043,"Ġphonon":14044,"gressive":14045,"bea":14046,"sontable":14047,"Ġcumulative":14048,"Ġpermutations":14049,"harmonic":14050,"Clearly":14051,"FB":14052,"Ġflush":14053,"xygen":14054,"}:=":14055,"$^{+":14056,"varsigma":14057,"rative":14058,"Ġ\\;\\;":14059,"ssue":14060,"Even":14061,"Lang":14062,"Ġconsiderably":14063,"Ġlaunch":14064,"ĠAfrican":14065,"}^*$":14066,"ĠSurvey":14067,"åı":14068,"})]":14069,"ĠFa":14070,"normalized":14071,"isenberg":14072,"Ġacoustic":14073,"ĠPoincar":14074,"Ġschools":14075,"Ġindirect":14076,"Ġafore":14077,"Ġneighboring":14078,"ĠMichael":14079,"HEAD":14080,"pated":14081,"Information":14082,"tem":14083,"zil":14084,"Ġattributed":14085,"filters":14086,"artan":14087,"WIN":14088,"glu":14089,"territory":14090,"Ġbuildings":14091,"Notes":14092,"ĠSymfony":14093,"Ġshot":14094,"DEs":14095,"robust":14096,"conclusion":14097,"Ġcritic":14098,"OME":14099,"Ġsupporting":14100,"Ġworkers":14101,"Pb":14102,"positions":14103,"Repe":14104,"aught":14105,"ĠParameters":14106,"Ġcipher":14107,"Ġconservative":14108,"================================================================":14109,"Ġsea":14110,"Ġcompiler":14111,"oned":14112,")}\\,":14113,"TI":14114,"bell":14115,"BV":14116,"oS":14117,"Ġwife":14118,"ĠPhysics":14119,"Ġinstit":14120,"ĠSupport":14121,"Ġvice":14122,"layers":14123,"must":14124,"Compare":14125,"ĠCalc":14126,"reader":14127,"Numerical":14128,"Ġarticles":14129,"Ġobviously":14130,"ĠMethods":14131,"Ġplanes":14132,"ĠBuffer":14133,"Ġrefinement":14134,"BN":14135,"Ġsch":14136,"Ġsinglet":14137,"reverse":14138,"Tw":14139,"\\:":14140,"ĠChe":14141,"schedule":14142,"|$,":14143,"ercial":14144,"icket":14145,"ĠPack":14146,"awiki":14147,"remain":14148,"ĠGlobal":14149,"biased":14150,"ĠRicci":14151,"vides":14152,"Ġcentr":14153,"blank":14154,"Ġdeleted":14155,"Ġoccupied":14156,"mediawiki":14157,"ĠWestern":14158,"itness":14159,"stretch":14160,"Ġworker":14161,"balance":14162,"ssec":14163,"Act":14164,"Trigger":14165,")\\)":14166,"Term":14167,"gru":14168,"Ġbrain":14169,"esis":14170,"Ġdistinguished":14171,"Ġ<-":14172,"Ġexclude":14173,"Distance":14174,"bars":14175,"Ġdz":14176,"enger":14177,"ĠHI":14178,"Ġcapabilities":14179,"DG":14180,"Ġmonotone":14181,"Declaration":14182,"Ġisn":14183,"TX":14184,"dB":14185,"ratch":14186,"ĠProf":14187,"ĠWithout":14188,"Ġmaximize":14189,"station":14190,"python":14191,"Ġcomputes":14192,"Inner":14193,"tod":14194,"ĠBay":14195,"Fill":14196,"ĠTechnology":14197,"Ġshallow":14198,"orption":14199,"ergy":14200,"Ġlabelled":14201,"possible":14202,"Ġcomplementary":14203,"Kn":14204,"adv":14205,"]).":14206,"ternatively":14207,"Ġconsiderable":14208,"matched":14209,"Card":14210,"hence":14211,"ĠReference":14212,"mv":14213,")<\\":14214,"Ġvehicles":14215,"ĠCorre":14216,"Ġpackets":14217,"eth":14218,"}',":14219,"ĠMedia":14220,"ĠCM":14221,"thle":14222,"Ġmolecule":14223,"Ġdeferred":14224,"agree":14225,"containers":14226,"Ġfemale":14227,"ifiers":14228,"Ġartificial":14229,"Ġhypotheses":14230,"Ġposi":14231,"Ġendpoints":14232,"Switch":14233,"_{*":14234,"ĠCustom":14235,"vary":14236,"rotation":14237,"raries":14238,"ĠBR":14239,"Ġsolves":14240,"=\"@":14241,"Locale":14242,"Ġfixing":14243,"Assembly":14244,"ĠTer":14245,"gar":14246,"Ġroles":14247,")&=":14248,"Ġrad":14249,"=#":14250,"ĠQuery":14251,"Ġopposed":14252,"Ġdecoup":14253,"geometric":14254,"Ġadvantages":14255,"Ġwallet":14256,"beam":14257,"Ġhimself":14258,"thinspace":14259,"Ġbooks":14260,"Ġfetch":14261,"--;":14262,"ĠMIT":14263,"Ġcharset":14264,"Family":14265,"ĉĉĉĉĉĉĉĉĉĉ":14266,"]),":14267,"Ġrepository":14268,"ãĢĤ":14269,"ala":14270,"riction":14271,"Ġgrav":14272,"amous":14273,"colsep":14274,"Analy":14275,"Ġphotos":14276,"Ġspinor":14277,"ĠFrank":14278,"126":14279,"}')":14280,"Ġdeveloping":14281,"230":14282,"Ġplaceholder":14283,"uits":14284,"Ġ[(":14285,"BOOL":14286,"Ġlocus":14287,"Ġindustry":14288,"pad":14289,"ĠSpanish":14290,"Modified":14291,"Processor":14292,"-|":14293,"Ġsb":14294,"ĠHermitian":14295,"Segment":14296,"1967":14297,"riteria":14298,"=\\\"":14299,"Ġguess":14300,"hm":14301,"Signature":14302,"Ġmemb":14303,"parbox":14304,"ĠMel":14305,"Ġ}^{":14306,"etermin":14307,"Xiv":14308,"ĠMI":14309,"ĠComponent":14310,"Ġmanufact":14311,"ĠNLO":14312,"Ġconnectivity":14313,"pgf":14314,"ĠResNet":14315,"Ġqualitatively":14316,"175":14317,"NaN":14318,"Ġsignatures":14319,"Ġapart":14320,"Ġdealing":14321,"sized":14322,"stability":14323,"ĠĠĠĠĠĠĠĠĠĠĠĠĠĠĠĠĠĠĠĠĠĠĠĠĠĠĠĠĠĠĠĠĠĠĠĠĠĠĠĠĠĠĠĠĠĠĠ":14324,"uminosities":14325,"Ġinterfaces":14326,"nod":14327,"UST":14328,"failed":14329,"utch":14330,"_*(":14331,"iative":14332,"ilde":14333,"ĠDNN":14334,"rmk":14335,"Tile":14336,"branes":14337,"Ġinten":14338,"ĠArrayList":14339,"ĠNat":14340,"Ġcompilation":14341,"Cu":14342,"ĠMatrix":14343,"unched":14344,"ĠStatus":14345,"worth":14346,"$\\{":14347,"Ġelected":14348,"atre":14349,"TypeDef":14350,"ĠJe":14351,"'}}":14352,"[[":14353,"ĠTimes":14354,"icities":14355,"IOException":14356,"gery":14357,"benius":14358,"Ġrepul":14359,"ĠConfiguration":14360,"Ġaforementioned":14361,"Cut":14362,"scan":14363,"Ġhundred":14364,"Ġblob":14365,"alert":14366,"Appro":14367,"Ġoperate":14368,"nothing":14369,"-}":14370,"hsize":14371,"([]":14372,"deprecated":14373,"ĠIden":14374,"Ġmodal":14375,"program":14376,"discussion":14377,"Ġintui":14378,"Ġeverywhere":14379,"Should":14380,"Ġnormalize":14381,"Sl":14382,"Relative":14383,"Ġevolve":14384,"Chart":14385,"Ġtrap":14386,"nodeType":14387,"ĠIo":14388,"Ġdropped":14389,"})_":14390,"__.":14391,"Care":14392,"Ġarcs":14393,"ĠĠĠĠĠĠĠĠĠĠĠĠĠĠĠĠĠĠĠĠĠĠĠĠĠĠĠĠĠĠĠĠĠĠĠĠĠĠĠĠĠĠĠĠĠĠĠĠĠĠĠĠĠĠĠĠĠĠĠĠĠĠĠĠĠĠĠĠĠĠĠĠĠĠĠĠĠĠĠĠĠĠĠĠĠĠĠĠĠĠĠĠĠĠĠĠĠĠĠĠĠĠĠĠĠĠĠĠĠĠĠĠĠĠĠĠĠĠĠĠĠĠĠĠĠĠĠĠ":14394,"Ġconcerns":14395,"Ġyielding":14396,"aland":14397,"stituting":14398,"ĠBC":14399,"Ġmotivation":14400,"ĠReal":14401,"Ġeverything":14402,"Ġextensively":14403,"iger":14404,"Ġleague":14405,"ĠNormal":14406,"122":14407,"Separ":14408,"placeholder":14409,"continuity":14410,"113":14411,"asser":14412,"Ġgrey":14413,"Runner":14414,"higher":14415,"Ġstrengths":14416,"(\\{":14417,"Ġvolumes":14418,">}":14419,"LY":14420,"Ġtour":14421,"ardi":14422,"riers":14423,"RM":14424,"Ġtrust":14425,"convert":14426,"Ġlocale":14427,"ĠĠĠĠĠĠĠĠĠĠĠĠĠĠĠĠĠĠĠĠĠĠĠĠĠĠĠĠĠĠĠĠĠĠĠĠĠ":14428,"Ġdiscretization":14429,"Ġanalogy":14430,"yui":14431,"threshold":14432,"ĠĠĠĠĠĠĠĠĠĠĠĠĠĠĠĠĠĠĠĠĠĠĠĠĠĠĠĠĠĠĠĠĠĠĠĠ":14433,"oni":14434,"Ġcapability":14435,"princip":14436,"ĠMO":14437,"ĠTa":14438,"oren":14439,"Ġsupply":14440,"Ġdisease":14441,"ionic":14442,"ĠYUI":14443,"Ġdeployment":14444,"eea":14445,"Ġbeams":14446,"paces":14447,"Padding":14448,"pot":14449,"gro":14450,"Ġasked":14451,"Fit":14452,".',":14453,"ĠFT":14454,"Functions":14455,"Ġspo":14456,"Ġclients":14457,"Generated":14458,"Ġobsta":14459,"\\,(":14460,"Taking":14461,"Ġem":14462,"boson":14463,"ĠCharles":14464,"meas":14465,"ĠPlease":14466,"ĠTexas":14467,"%)":14468,"reduce":14469,"_+(":14470,"Ġfairly":14471,"potent":14472,"ĠWARRANTIES":14473,"discus":14474,"})-\\":14475,"Ġquadrup":14476,"210":14477,"LICENSE":14478,"010":14479,"Ġdop":14480,"ĠTab":14481,"ups":14482,"Ġcolored":14483,"/\"":14484,"ĠSS":14485,"Ġhour":14486,"Ġdeveloper":14487,"ouse":14488,"Ġforest":14489,"ĠLandau":14490,"ĠVirgin":14491,"Ġvaried":14492,"hedral":14493,"Ġrelate":14494,"Ġ\\;\\":14495,"reland":14496,"Ġsparsity":14497,"kj":14498,"quet":14499,"ĠParis":14500,"licenses":14501,"\\&":14502,"ĠGib":14503,"Chunk":14504,"Ġstopping":14505,"eqno":14506,"ightest":14507,"1964":14508,"Zoom":14509,"Ġsex":14510,"ĠMuseum":14511,"Ġmotiv":14512,
[...]
