#version: 0.2
Ġ Ġ
Ġ t
i n
ĠĠ ĠĠ
h e
Ġ a
o n
e r
r e
a t
Ġt he
e n
o r
Ġ s
a l
e s
i s
a n
i t
Ġ c
Ġ o
a r
i on
e d
Ġ w
Ġ f
Ġ p
l e
in g
n d
i c
Ġ in
Ġo f
ĠĠ Ġ
Ġ b
r o
a s
ĠĠĠĠ ĠĠĠĠ
Ġ d
Ġ m
c t
e t
Ġa nd
en t
o u
Ġt o
e l
s t
a m
i l
o m
Ġ re
Ġ \
Ġ h
Ġt h
Ġ n
i g
Ġ $
at ion
o l
i d
i m
a c
Ġ S
Ġ (
Ġ e
o t
Ġ T
Ġ l
u r
u t
i v
Ġ C
s e
Ġ A
a d
Ġ is
ĠĠĠĠ ĠĠĠ
u l
c e
Ġ =
Ġf or
Ġ g
o d
â Ģ
o w
t r
i f
Ġ I
e m
a g
a y
l y
a b
c h
ĉ ĉ
Ġ M
u n
u s
u m
v er
t er
Ġ on
q u
Ġb e
< /
i r
it h
č Ċ
a p
{ \
at e
= "
Ġ P
Ġc on
Ġth at
t h
Ġ B
Ġ v
) ;
p e
2 0
Ġa s
Ġs t
ct ion
- -
o c
h t
en d
er s
e x
es t
a v
Ġ {
Ġw ith
Ġ H
Ġ <
Ġ R
is t
re s
an d
Ġ F
Ġ D
Ġa l
Ġp ro
he r
as s
o p
Ġa n
u b
Ġ L
ĠT he
u p
ĠĠĠĠĠĠĠĠ ĠĠĠ
es s
at h
/ /
e w
a in
Ġ N
_ {
o s
e g
it y
Ġ W
Ġb y
am e
Ġ *
1 9
Ġd e
Ġw h
p t
or t
Ġ G
Ġw as
r i
Ġ it
ro m
Ġ E
Ġe x
Ġ "
Ġc om
ar t
u e
o re
p l
ou r
Ġa t
Ġ r
Ġ$ \
e ct
ig ht
Ġ }
m ent
in e
i es
Ġc l
Ġ or
al l
il l
u re
Ġ &
ag e
Ġa re
i al
Ġ Ċ
a k
" >
Ġf rom
m ath
an t
i z
iv e
n t
re f
c l
Ġ he
u d
Ġth is
l d
o g
Ġs e
ex t
g e
Ġw e
ĠĠĠĠĠĠĠĠ ĠĠĠĠĠĠĠĠ
Ġ O
. .
Ġ J
Ġ y
ul t
i b
an s
ac k
c on
e f
p ort
p er
ĠĠĠĠ Ġ
âĢ Ļ
ur n
it e
Ġt r
( )
0 0
b er
Ġ U
* *
} \
or m
^ {
a ct
T he
u nd
p h
ar y
Ġc h
} $
ab le
s p
Ġn ot
at ed
i p
in t
ar d
st r
av e
ic h
Ġs h
el l
o v
a re
f f
it ion
ig n
Ġcl ass
20 1
Ġ if
ic al
m a
Ġ âĢ
Ġ le
Ġ -
t urn
ac e
' s
p ro
y pe
Ġ k
f t
od e
as e
or d
= =
i re
in d
c om
o st
u g
ou t
) ,
as t
e p
g et
-- --
an g
I n
on g
im e
ĠI n
Ġcom p
t o
u st
i a
Ġ K
f r
( \
Ġ '
or k
} }
Ġp l
en s
i le
ation s
en ce
) .
ic e
Ġh ave
id e
l i
t ext
c c
il d
ion s
ub l
at a
Ġre s
er v
t a
eg in
Ġwh ich
Ġ us
Ġc an
c al
Ġw he
e c
b egin
e y
o k
e ar
j ect
Ġ V
ĠĠĠĠĠĠĠĠ ĠĠĠĠĠĠĠ
d u
Ġh as
Ġ j
i an
t her
Ġ un
ou ld
s o
Ġal l
e qu
Ġ im
f orm
ĠS t
Ġd is
Ġa d
an ce
) $
_ {\
Ġa b
or y
en c
Ġa p
Ġa r
un ction
al ue
e v
ou s
u se
Ġh is
en er
Ġre turn
ac h
Ġ +
20 0
ro w
er t
ubl ic
r a
} ,
o ver
Ġ //
o b
ĉĉ ĉĉ
Ġ [
ent s
res s
Ġn ew
ab el
- >
er e
ĠT h
Ġs tr
f ig
} {
1 0
c ri
: :
oc k
r ight
f er
Ġ </
ĠC h
Ġcon t
e q
Ġ |
C on
ow n
s et
ol l
ar am
.. /
et a
ter n
ou nd
fr ac
ir st
our ce
p le
er m
l l
cl ud
o se
re e
Ġal so
u al
t he
m er
Ġp art
Ġs u
Ġon e
ic t
or s
om e
is h
ol d
" ,
at es
iz e
el f
S t
on e
p s
r m
ul l
c ite
Ġw ill
âĢ Ŀ
Ġw ere
Ġ @
ar k
ou nt
t e
i el
1 8
i k
el y
Ġb ut
Ġo ut
c he
l abel
Ġp r
r it
Ġy ou
Ġde f
in k
Ġo b
s s
pt ion
Ġm e
math b
Ġd o
pe ct
p ut
Ġthe ir
Ġs p
w e
d iv
w o
in al
Ġe v
Ġ /
Ġs et
Ġ qu
iel d
Ġf unction
E x
y st
r ap
m l
( "
ic s
Ġin t
Ġ up
le ct
et h
od el
r ay
( );
o int
s um
Ġo ther
$ ,
$ .
Ġ ro
Ġit s
i ew
le ft
, \
Ġp er
a il
Ġ Y
} )
ess age
s h
ĠU n
c re
ing s
l ine
math cal
Ġ .
o ol
Ġp ublic
er r
ak e
Ġp re
pe c
Ġm an
Ġf irst
Ġm ore
o ok
Ġwh o
p r
Ġw ork
c k
a w
ro up
i x
> </
ĠI t
' ,
tr ing
ation al
equ ation
Ġthe y
ar i
Ġo ver
1 2
yst em
sp an
n g
} .
Ġa g
Ġ en
ic k
---- ----
ĠâĢ ľ
Ġn ame
l es
Ġin ter
Ġt ime
\ \
Ġbe en
m b
tr ib
ĠH e
f ter
Ġh ad
> <
at er
um ber
p os
Ġt wo
Ġd es
a x
Ġ :
** **
is s
r y
n e
i ed
} (
c ent
t y
l o
at or
am b
trib ut
Ġs o
ul ar
he d
Ġ ver
Ġn e
../ ../
Ġy ear
Ġg et
Ġ und
Ġ* /
p on
} ^
== ==
o f
im es
ou n
Ġt e
u ct
Ġcom m
Ġs ub
at ive
P ro
ig h
) )
~ \
_ _
ĉĉ ĉ
ar g
o id
ph a
} _
v el
r am
n ame
E R
Ġwhe n
rap h
if ic
d a
ap p
Ġan y
an c
Ġthe re
Ġs up
oll ow
ĠĠĠĠĠĠĠĠ ĠĠĠĠĠĠĠĠĠĠĠ
on s
Ġp e
em ber
Ġre g
i o
Ġres ult
op le
i e
al pha
1 6
m s
i ent
ĠĠĠĠĠĠĠĠ Ġ
ht ml
Ġg o
Ġon ly
Ġre l
th is
19 9
Ġtr ans
an ge
c ol
ro und
Ġab out
ay s
Ġd ata
s ub
Ġwhe re
Ġth an
ov e
ĠâĢ ĵ
Ġb et
Ġ| |
ĠTh is
d er
( '
o ot
le ment
1 5
Ġ her
Ġad d
ug h
y s
as ed
Ġsu ch
Ġin to
Ġv alue
on t
Ġpro v
Ġh ref
eth od
it ed
Ġd if
âĢ ĵ
ad e
Ġc ol
an n
Ġcon s
at ic
Ġin clud
ar ch
al s
o x
id ent
it ies
O N
is e
u es
Ġund er
N ame
t ain
Ġa cc
h at
ĠW e
ou g
en g
at ing
d ef
Ġl ine
Ġo ur
Ġf ollow
el ta
Ġt ype
Ġpl ay
le t
res ent
Ġp os
ur re
Ġw ould
I N
cri pt
amb da
tr ans
Ġas s
1 1
ĠC om
Ġs c
u ild
Ġs ome
id th
s ource
) \
Ġof f
Ġ #
h o
Ġa ct
Ġfor m
am es
m essage
l ation
T ype
Ġk n
im port
Ġ end
il ity
y n
t d
w ard
Ġ i
Ġthe n
Ġn o
ol og
p aram
Ġcon st
al se
Ġf il
I d
am ma
or n
ar s
in ce
d d
Ġin v
em ent
Ġin d
ĠS e
Ġg ener
S tring
iv ers
m in
Ġre c
Ġ= >
id er
ire ct
at ch
mer ic
it s
con d
Ġp ol
$ \
Ġre qu
enc es
_ \
mathb b
o y
am p
we en
Ġl oc
in ed
ib le
t on
v e
l and
al ly
a id
re d
= \
c ed
c ess
l ock
ĠA r
Ġm odel
Ġpe ople
u res
re turn
Ġo p
ab l
1 3
1 7
ut ion
b ar
or ld
Ġ use
Ġc o
ĠP ro
: //
t t
T h
Ġp h
ig ma
ot h
Ġsh ow
Ġs im
C om
Ġa fter
as h
ur ing
ĠN ew
1 4
R E
eg a
m u
b r
ow er
d ot
Ġ\ \
} _{
Ġs elf
c ode
Ġs pec
at ure
/ >
ist s
} ^{
Ġbet ween
ic es
s on
ik e
Ġm ay
pl ic
Ġ el
b le
Ġc ase
Ġus ed
Ġre m
Ġdif fer
Ġst ud
ro ugh
- \
ction s
it em
Ġbe c
s c
er y
an k
S T
a use
ut h
R es
Ġs he
^ {\
t s
Ġthe se
Ġc all
cl ass
Ġf e
2 5
v ar
al ign
i ous
w n
Ġc or
ac he
urre nt
il y
n ot
Ġn umber
Ġ ent
iz ed
Ġ x
Ġs erv
W e
re ad
ad d
a ult
# #
p i
Ġe qu
n ing
ĠA l
Ġ !
e ad
C h
is hed
" />
Ġm ost
Ġf l
Ġs ystem
p art
ph i
Ġin st
A T
a ir
f l
v ent
is ion
Ġe ach
Ġ _
Ġpro du
l ambda
as k
um ent
Ġg iv
y le
an y
Ġthe m
se ction
ce ption
re n
Ġ `
it le
Ġa c
ag es
L ist
Ġv al
b f
R ef
t ype
Ġg r
ĠA meric
Ġc re
Ġe ff
oc i
in es
Ġa m
ht t
Ġor g
19 8
i er
f or
Ġb ack
C l
Ġ {\
Ġp oint
trans lation
y m
Ġth rough
ment s
in s
ch ool
am ple
r ic
v al
oug h
on d
3 0
p ar
ĠF or
Ġ est
f o
Ġ= =
mathb f
m all
Ġch ar
us s
it t
re at
u le
il on
tr y
iz ation
2 1
Ġ Q
e ver
Ġn ull
iv ate
Ġs aid
Ġyear s
et er
l oc
A R
Ġst ate
Ġw ell
or g
Ġat t
is m
A r
O R
I D
Ġo per
n er
) :
ap t
Ġ err
p ress
h ip
b ack
Ġt est
l og
Ġh ow
m an
Ġs ign
00 0
s erv
eng th
Ġ >
Ġ ed
c es
Ġe m
tern al
Ġ --
s er
o le
as on
// //
ĠT r
u c
ut e
g y
L E
Ġv oid
ĠC on
Ġs ol
he n
e e
s igma
Ġ Z
Ġe ver
Ġv ar
Ġs ame
ivers ity
Ġre p
I t
he re
s elf
ot e
Ġg roup
p re
Ġtr ue
if e
b eta
Ġap pro
ar ray
Ġ )
o h
ĠĠĠĠĠĠĠĠĠĠĠĠĠĠĠĠ ĠĠĠĠĠĠĠĠĠĠĠĠĠĠĠĠ
le ction
Ġv ari
T r
ild e
ep s
y p
"> <
b e
ire d
Ġwh at
ang le
Ġf inal
ĠA s
Ġf ound
Ġm on
^{ -
over n
Ġag ain
v iew
Ġdiffer ent
Ġne ed
2 2
er n
Ġ( \
Ġc ent
Ġf ield
Ġl ike
a z
Ġf alse
per ty
Ġex t
od y
w idth
Ġm in
Ġm od
T o
5 0
w ork
Ġj ust
math rm
Ġn on
S S
} {\
ĠĠĠĠ ĠĠ
Ġpart ic
ĠC l
ical ly
ers on
w w
u ch
Ġus ing
Ġs er
19 7
str ing
t en
Ġh im
Ġr ight
Ġde c
form ation
um n
a h
r r
f ul
Ġst art
) );
**** ****
ĠS h
et s
E N
+ \
. ,
* }
iv er
Ġb oth
A L
Ġ X
Ġm ethod
Ġse e
ce pt
Ġl ong
Ġman y
g amma
op t
Ġm at
Ġsh ould
s ion
" );
b ject
Ġb r
Ġs ur
ar get
f ore
Ġor der
Ġh igh
b y
av a
ĠĠĠĠĠĠĠĠ ĠĠĠĠĠ
ĠA n
Ref er
ou se
Ġp aram
-------- --------
Ġt erm
ion al
Ġwh ile
3 2
] {
as es
ant s
Ġgiv en
enc y
is ter
a j
Ġc oun
Ġle ad
Ġbe ing
cc ess
ĠD e
Ġth ree
if ied
^ \
n ew
d ata
Ġf act
in clud
at t
Ġel se
u ff
re am
ĠI nd
Ġfollow ing
Ġl ist
are d
a ction
m e
Ġd irect
Ġc ould
g ram
d elta
ĠE x
or th
if y
ot her
k ey
2 4
V alue
Ġf am
Ġse cond
u ary
Ġdis c
C ol
fig ure
n b
Ġn ow
) }
Ġar t
al e
Ġbec ause
g er
w ay
.. .
en se
c o
at her
Ġd et
ot t
D ata
Ġs ing
ition s
b ers
ir c
v alue
le q
Ġm y
are nt
Ġ id
r ho
Ġb el
ent ial
b all
$ -
Ġsup port
p end
al ity
Ġcons ider
Ġbe fore
s y
Ġever y
F or
vel op
Ġd uring
Ġm ade
the ta
ĠĠĠĠĠĠĠĠĠĠĠĠĠĠĠĠ ĠĠĠĠĠĠĠ
ak ing
se c
ĠC ol
Ġper form
Ġstr ing
str uct
f ace
ar ly
ro ll
con t
ĠUn iversity
ro p
Ġ z
Ġde velop
ou th
iv ed
r on
c dot
ta u
e le
ro ss
Ġy our
Ġob ject
ur y
pl ay
ur al
ect or
. âĢĿ
t il
b ig
} (\
==== ====
Ġm ed
Ġre ad
" )
olog y
19 6
m ed
eq ref
d ate
}$ ,
Ġim port
S et
}$ .
iss ion
t imes
d is
a f
nb sp
Ġ/ **
p x
Ġo pt
Ġex per
ro l
Ġcont in
ĠAmeric an
com m
Ġdo es
re qu
t ing
ain s
al th
Ġo wn
Ġw rit
Ġd r
iv ely
l ed
ot s
iv es
Ġpro cess
Ġc urrent
Refer ences
4 0
( $
ord er
E n
s cript
at us
ar row
l ob
ul ation
Ġpr ivate
f ile
r al
ter s
res pon
ra w
ft y
Ġver y
S E
ab ility
ĠUn ited
2 3
Ġf in
Ġre sp
U n
Ġ& &
i ence
Ġr un
ĠI s
ar n
i ev
Ġdes cri
e k
A s
1 00
' )
in fty
t est
o od
Ġm ake
ĠF r
. "
Ġeff ect
Ġm ain
Ġs mall
Ġm em
D E
Ex ception
p m
ro id
m ary
l er
ual ly
ar ge
i qu
] ;
Ġb l
it ial
B y
an e
Ã ©
ĠI f
Ġh and
Ġre le
Ġk ey
Ġm ov
he ck
re g
ĠCom m
rr or
ist ory
] ,
Ġev en
Ġth ose
C T
I T
l p
ain ing
.. ..
ch n
et work
A N
Ġf ind
ĠA nd
ep end
n u
O n
Ġw orld
ĠS c
s ize
Ġs ince
Ġl ink
ect ed
mb ol
om ega
qu ad
in a
Th is
ri x
uth or
Ġkn ow
Ġl ast
Ġcon d
A t
Ġd id
t ime
t ilde
part ial
O bject
Ġst atic
Ġ u
Ġb uild
Ġ %
Ġar g
re m
Ġg u
d ay
in ter
Ġc r
us ic
ĠL e
sp ace
Ġte am
overn ment
le x
Ġstr uct
| \
o ad
loc ation
Ġ// /
et ers
Ġex pect
Ġw ay
Ġbe g
he ad
ĠS tring
Ġinclud ing
Ġp op
k e
Ġ! =
Ġin cre
Ġcomm un
C O
cent er
' t
Ġresult s
n ess
p or
is tr
g round
r ite
Ġloc al
Ġ$ (
Ġp res
m od
oh n
T est
M E
it al
Ġa v
Ġch ild
i or
ag er
om en
Con t
Ġe lement
3 3
ĠO n
Ġprov id
o ber
Ġp ass
() .
I m
Ġap p
Ġf r
Ġor ig
Ġrep resent
ver t
Ġb ro
g r
Ġp resent
v ious
t able
Ġap pe
I nd
G et
s q
Ġto p
in ess
D elta
Ġb o
t op
ac es
oc ument
el s
Ġrec ord
Ġin formation
2 6
r c
a u
2 7
() );
Ġan al
um er
iv ing
Ġl aw
Ġpos s
2 8
ĠR es
lo ad
ĠĠ Ċ
eta il
Ġt itle
ĠH ow
ĠS he
20 20
Ġb ound
ar m
Ġob tain
g or
Ġall ow
K ey
com e
ind ow
col or
d e
re ak
u str
Ġop en
al k
eq n
S h
Ġm et
A n
E rror
ĠSt ates
x i
Ġs l
Ġpro ble
ore m
Ġs chool
Ġme as
ut il
w here
Ġf our
ĠR e
l ess
ind ex
p ace
Ġv is
f ield
Ġagain st
Ġre port
ĠE ng
us h
g o
f unction
Ġm ult
ĠĠĠĠ Ċ
le ar
ĠP h
Ġev ent
Ġs ize
Ġpro gram
ag n
l ink
Ġm ust
P h
Ġkn own
se arch
Ġre f
r t
u ro
âĢ ľ
en n
Ġl im
Cl ass
ĉĉĉĉ ĉ
201 6
ĠP r
htt p
Ġre ce
6 4
os s
l ist
et y
, âĢĿ
Ġd ist
ur s
it ive
m p
in c
Ġchar act
p ublic
s k
lect ed
Ġre al
le m
Ġt em
"> </
un e
Ġdis tribut
v en
n av
ĠP l
ur ation
ar ri
Ġm uch
ur l
t ies
tern ational
S e
Ġp erson
erv ice
tr act
)$ .
Ġt ri
Ġle t
Ġb ased
. _
ain ed
j s
Ġres pect
} }\
Ġ čĊ
Ġle ft
} ;
ol ution
$ $
op y
ang u
Ġc our
id d
ap e
Ġp ar
201 5
\ ,
2 9
201 7
us iness
O m
Ġm ark
ĠB r
[ '
" ;
Ġob serv
iv al
pos ition
A C
V iew
g roup
Ġl ife
b ed
m et
Ġl ater
Ġre fer
Ġin s
ak es
it er
ill ion
Ġ ident
in ation
it or
Ġl arge
cal e
og raph
Ġval ues
Ġf ile
Ġle vel
sum mary
R equ
Ġ ,
pl oy
Ġcall ed
eps ilon
ific ation
Ġhe re
v ir
ener gy
ol v
. </
Ġhe lp
} [
Ġst and
t ab
Ġsp ace
Ġex pl
if t
ir d
o pe
ĠM ay
] .
b s
p p
s im
201 8
ĠA d
Ġd own
Ġfil m
ad i
Ġc are
ĠO r
Ġa ut
Om ega
b o
at s
is ed
ĠâĢ Ķ
Ġex p
Ġhe ad
le y
orm al
ur ther
c m
ĠA ss
du ct
ac y
A l
Ġdes ign
respon d
Ġp ower
201 4
L L
at ely
R O
Ġb ook
Ġfam ily
' );
our n
lob al
ur ch
4 5
o ff
Ġgener al
} _{\
end s
I nt
ĠJ ohn
b ox
Ġst ill
Ġse ver
6 0
ens ion
ition al
se e
Ġerr or
() ,
Ġwith in
as ter
R e
Ġa round
! --
20 19
p ath
Ġorg an
w h
Ġpro ject
ĠM ar
tribut e
i od
our ces
" :
Ġm ass
Ġt ake
Ġis s
ĠJ an
b l
../../ ../../
f il
en e
con st
I C
un c
f in
F ile
I ON
che d
aj or
Ġw ant
Ġex ample
Ġpro t
T E
ĠN ational
ps i
n ode
' ]
" .
Ġn ext
Ġgo od
ĠC an
L A
ĠA t
u ck
am pl
uff er
^ *
Ġo cc
is on
Ġl ook
Ġinter est
l im
Ġser ies
ord ing
19 5
op er
at ors
od es
ack age
Ġc ap
ert ain
Ġpol it
r ist
raph ics
n o
ĠC ent
P E
ĠW h
ict ion
Ġpl ace
b um
a i
Ġd i
om et
Ġm ap
201 3
T ime
port s
Ġt yp
ĠY ork
anc es
H e
av ing
th s
ĠF ig
s l
Ġas sum
ĠThe y
)$ ,
plic ation
m at
Ġle g
oot ball
ĠW orld
oc ial
oc us
Ġg overnment
b ut
ord s
Q u
us er
a im
Ġd em
Ġv iew
Ġp at
u ction
ps ilon
Ġ/ >
ount y
Ġan n
ĠY ou
Ġoff ic
W ith
ess ion
Ġsing le
Ġt ext
d es
m ap
Ġest abl
G amma
w ith
ul y
3 5
em pt
201 2
ĠS p
um p
c apt
201 0
8 0
eqn array
ĠB ut
ro du
Ġrequ est
ĠF e
Ġ energy
Ġst at
M an
ĠA ll
Ġth ink
Ġt arget
Ġp ost
ain t
D ef
âĢ Ķ
htt ps
og le
Ġte chn
N ode
pos ed
ic y
qu ot
Â ł
Ġwith out
Ġs um
per ties
Ġass ert
Ġpartic ular
ap er
um an
iv ity
Requ est
Ġlink s
ug g
a it
//// ////
end ed
il ar
cri ption
201 1
St ate
im ate
er o
ma x
sq rt
Ġd ue
Ġc al
Ġbe h
Ġth row
ĠB l
Ġ );
s w
Ġm ax
ĠG r
Ġint eg
Ġad v
A P
i ans
angu age
ĠN ov
A dd
N ot
com p
Ġab ove
Ġcor respond
Ġd on
Ġse ason
T R
Ġsu ccess
le g
Ġ ?
con om
E vent
am ed
T ext
Ġl og
/ *
v are
Ġb est
re l
i j
ul es
ole an
Ġplay ers
` `
' :
l ength
E qu
ĠU S
Ġinv est
Ġto t
Ġch ang
Ġin itial
Ġp ath
\\ \\
che s
Ġ-- >
ail able
Ġse ction
pl it
Ġorig inal
Ġun til
E lement
d t
Ġde pend
Ġb as
ic le
ur ity
ag ue
Ġn ear
ust om
ĠW ar
ĠM an
ore d
capt ion
=" +
19 4
ib r
Ġe lect
vare psilon
ĠHow ever
text bf
In fo
sub section
Ġal ong
m odel
Ġsever al
st yle
he s
ward s
P l
Ġ$ {\
ix ed
ĠC ar
^{ (
Ġmeas ure
Ġm usic
u f
F ield
b old
Ġs ay
Ġd ay
ĠSt ate
O r
/ **
u ed
Ġex ist
Ġg ame
on y
Ġn etwork
}^ {\
ens ure
Ġd en
im al
w ays
() )
Ġh tt
Ġl arg
Ġan other
i um
Ġare a
P ath
9 0
m y
P aram
Ġo ld
re t
p oint
uro pe
p ed
Ex ternal
res ult
3 4
}, \
Ġa ff
nd er
Ġs at
s up
Ġcont ent
press ion
Ġd el
It em
Ġdef ined
ĠG e
O ver
} =
Ġver sion
Ġar ray
Ġch ange
A ll
u k
ĠO ct
ver s
st it
st ance
in ition
ĠA ug
M ap
gor ith
a ut
err or
ef f
Con fig
) =
ater ial
Con text
ww w
i am
Ind ex
n on
ĠM arch
vir on
Ġcharact er
r ide
I S
at ures
ple ment
Ġd om
iqu e
Ġcomp ut
ch i
ĠS chool
F orm
Ġcon str
tr ue
er al
Ġcl os
Ġdet erm
f rom
ĠP ol
sy mbol
am ent
m ber
eg raphics
ĠT o
includ egraphics
pt ember
Ġh old
em ph
A S
D es
Ġinclud e
Ġimport ant
Ġin put
st and
V ert
ĠB rit
Ġb lock
in put
con fig
ĠM in
Ġb usiness
ate g
200 9
ent ion
b ody
b m
Ġpre vious
F F
r angle
v oid
U R
Ġh ome
Ġn ode
7 5
a us
Ġass oci
Ġal bum
Ġbec ame
n ext
ames pace
Ġ: =
Ġs pe
ay er
200 8
Ġw on
Ġtr y
Ġproble m
9 9
il it
' '
ic on
Ġc heck
3 1
ĠS outh
pr il
ial ly
it her
p ose
u i
w are
le ge
Ġre du
Ġc rit
ĠJan uary
ĠĠĠĠĠĠĠĠĠĠĠĠĠĠĠĠ ĠĠĠĠĠĠĠĠĠĠĠ
f ess
Ġde ath
h old
s ide
Ġdef ault
at ter
ag s
D e
0 1
ap i
Ġmem bers
ar r
b it
ĠR eg
S ervice
st ate
var phi
ĠE n
om an
Ġper iod
Ġpro b
ys is
Ġ et
Ġpos ition
Ġst yle
Ar ray
Ġa ction
pon ent
ĠN o
ref ore
ay out
Ġtot al
ĠG erm
Ġ\ ,
yn am
id ual
Ġstud y
ist or
ist ic
Ġh ig
u x
Ġserv ice
ĠB e
Ġc ur
## ##
Ġ/ *
3 6
ou ble
Ġf ail
Ġf ull
Ġs ong
c or
Ġ( !
******** ********
Ġs k
Ġm ajor
pro of
ĠE urope
ĠThe re
ap ache
Ġa uthor
Ġ enc
ab les
right arrow
Ġsim ilar
Ġus er
d own
I s
ce mber
T H
Ġme an
b lock
Ġp ubl
and s
Ġde v
Ġg reat
ĠJ une
0 8
A D
) (
ob ject
Ġsh ort
c er
Ġterm s
Ġrequ ire
Ġposs ible
ĠSe ptember
epend ent
C ode
en u
. ~\
ĠC al
ver sion
ne ction
Ġf ew
ĠAug ust
Ġen g
Ġc ar
Ġcre ate
Ġb ase
' ;
Ġe arly
ĠC ounty
im um
Res ult
ic a
ĠJ uly
a ff
L O
Ġdisc uss
ge q
il t
ustr al
Ġ} );
Ġwe ek
l ing
im ent
3 9
Ġ ide
Ġc ode
Ġcon text
" "
l in
id es
ev el
ac ed
um e
3 7
Ġprodu ct
re p
ut ure
lo at
ight s
pro v
ĠOct ober
read y
ĠC o
Ġpro perty
ĠT e
Ġl ow
Ġsh own
M L
Ġc over
Ġk e
Ġs ource
ide o
end er
Ġcomp any
Ġpoint s
ĠA pril
F il
Ġg row
Ġch o
[ ]
Ġ( $
and om
b t
Ġ es
Ġb u
M P
200 7
B uild
Ġl ess
Ġw omen
Ġd iv
3 8
et urn
w it
al f
over line
& \
N ew
t itle
ĠB y
Ġacc ess
+ +
se qu
Ġd eg
I G
Ġp ot
O f
ĠG u
Ġt urn
m m
Ġ __
d om
Ġshow s
Ġcomp let
Ġt imes
um ents
c all
ens ity
Ġ} ,
Ġc ity
ard s
Ġr ange
Ġpro m
Ġs pect
viron ment
Ġqu ant
Ġstr ong
S ize
ĠA ct
Ġfollow s
ott om
ĠS ystem
Ġh istory
ĠP ar
Ġav ailable
E D
0 5
Ġst ates
B ig
Ġf ore
oug ht
w ord
ĠCh rist
Ġw in
Ġhe alth
abl ed
Ġcomp on
ĠâĢ ĺ
Ġl a
Ġcont rol
c ast
tr a
Ġcoun try
se mb
le te
pl ate
A B
Ġchild ren
ĠS up
yn c
o in
Ġb reak
ĠDe cember
Ġv ol
v ec
ur g
ĠNov ember
Ġd er
ĠM ed
Ġmodel s
ass ert
I f
=" ../../../../
z e
ann el
Ġinst ance
IN G
ĠA p
os p
Ġqu est
al es
Ġfor mer
Ġf ootball
fr ak
Ġd etail
g ress
200 6
Ġind ex
ign ed
. }
c her
c ul
Ġm illion
ĠR ep
l ang
d f
ĠC ity
E S
or ies
Tr ans
u ation
ad a
ag ed
ip le
Ġre st
Ġcom b
L et
= '
is f
ear ch
Ġcon f
in ary
ec ut
Ġadd ress
w id
[ \
Ġs it
C H
Ġint rodu
Ġp o
6 6
Ġcon fig
Ġro le
M essage
v es
ĠN orth
her n
} ).
cl us
m d
Ġb ir
H and
ar ning
if f
F rom
Ġgo ing
Com m
D is
Ġm ember
bold symbol
ĠP res
em s
ĠE d
Ġstruct ure
Ġre cent
> &
is ing
ĠS o
re en
Ġf ree
l ish
def ault
ab ly
Ġe as
I I
er ing
ib ility
or ph
Ġcor re
k s
U T
Ġf und
j ava
Ġs ide
S er
Ġparam eters
ĠP art
ĠF l
Ġed uc
ra ft
p en
cre ate
li ent
k en
Ġl and
th ough
un g
br uary
V al
Ġsign ific
Ġre search
Ġle ast
Ġim age
ampl es
l t
i ents
) ^
Ġ q
Ġreg ion
math frak
ĠA b
ĠW ill
a e
Ġpre d
Ġj ava
ud e
ĠD r
ri or
âĢ ¦
in fo
def ine
L oc
5 5
A nd
M odel
Ġin div
g t
le v
ag ement
Ġd at
ĠA ustral
Ġf urther
on se
e ction
Ġback ground
n ow
ic ient
c ap
M A
ak en
t ings
Ġspec ial
i ol
} }$
cont ent
P r
7 0
abl a
Ġresp onse
Ġim p
; &
Ġph ot
O ut
ld ots
Col or
Ġf ac
gorith m
Ġp ut
h line
Ġs om
, "
id ence
t es
Ġsup er
Ġpr act
Ġdistribut ion
Ġprov ide
Ġ Â
4 8
m ult
ĠB o
Ġph ys
ref er
Ġs rc
h am
Ġpot ential
i i
Ġlim it
includ e
Ġn ational
n abla
itt le
L ambda
ĠG et
g es
ĠC or
Ġa ver
roll er
Ġal ready
In ter
olog ical
Ġl ength
Ġcomp et
Ġcl aim
Ġin du
E T
Ġe conom
n ect
Ġacc ount
Man ager
l angle
Ġc ost
ener al
end ing
Ġcol or
s i
Ġal ways
Ġrel ations
Ġind ic
b ase
Ġ Ð
20 21
Ġam ong
Ġd ocument
Ġem ploy
ĠM c
in o
Ġrequ ired
Ġf ocus
st art
Ġcommun ity
im ation
Ġs ocial
Ġindiv idual
Ġc ases
20 00
Ġh app
ĠS ec
F r
Ġdescri bed
Ġof ten
Ġexpect ed
Ġ= ==
L og
ent ly
ad em
w ide
ĠĠĠĠĠĠĠĠ ĠĠĠĠ
ĠThe n
our s
Ġse qu
ers ion
and roid
ĠFe bruary
C all
pon se
Ġcon c
app a
U N
Ġcomm on
U p
A d
che ck
T able
T D
Ġbe come
Ġne ver
Ġinv olv
ing ton
R eg
ir t
s f
ĠThe se
Ġparam eter
Ġsu ff
im ens
Ġp arent
ou d
Ġm atch
ec ess
ab or
Ġc oll
re ed
Ġme ans
re c
Ġcon tribut
200 5
. \
ut ions
I P
Ġrele ased
Ġdif f
d raw
ym met
Ġse c
og n
Ġplay ed
---------------- ----------------
A p
e ed
ur b
Ġsat isf
4 4
Ġbet ter
re w
ĠĠĠĠĠĠĠĠ ĠĠ
em ents
Ġh uman
Ġrece ived
U S
c ss
Ġdevelop ment
Ġcomp lex
f alse
0 2
tain er
ĠA fr
Ġc ell
Ġfunction s
EN T
c irc
us ing
Ġp ay
op s
S ystem
Ġre t
as ing
C C
Ġe ither
Ġc ou
an el
on es
ĠBrit ish
an a
Ġperform ance
B ut
c y
ĠH is
Ġre pl
Ġf ive
ĠL ist
d oc
b ug
c il
Ġre ally
et ic
pro t
Ġto o
ĉĉĉĉ ĉĉ
Ð °
Ġb and
id ed
Ġs y
R ec
Ġsignific ant
Ġto ok
r ation
an ch
Ġappro x
ĠA fter
Ġan t
amp ions
i ef
Ġ} ;
Ġev ents
Ġm ight
~ ~
ap an
val id
U LL
ĠA g
pt ions
Ġout put
itt ed
m ost
Ġn il
sub set
} )$
ĠW hen
ig ation
cite p
ĠS er
} ),
======== ========
if ier
ĠC oun
ac hed
ĠK ing
=" #
G roup
Ġwhe ther
Ġst ory
Ġgr ad
U ser
ĠI m
\ |
; </
Ph i
Ġt able
C lient
Ġ( )
Ġw idth
Ġm ot
ĠD ep
0 7
Ġr ate
er ed
con text
Ġpl an
Ġl abel
ĠCom p
pt y
ĠL et
y d
Ġm om
ograph y
=" ../
Ġn eg
Ġp aper
Ġth ird
get her
D O
Ġto gether
re ate
ĠC O
k appa
ĠR uss
Ġver t
Ġh ard
Ġh aving
a ul
Ġab s
Ġcare er
Ġappro ach
r ing
Ġc amp
c it
Ġfe ature
k n
200 4
ĠW est
Ġl ight
Ġprovid ed
re et
Ġhe ld
m ethod
Ġab le
Ġe p
Ġm essage
Ġopt ions
ĉ Ċ
Ġg raph
ok en
0 4
c ell
Ġp erm
Ġa ge
Ð ¾
Ġm agn
c ore
0 9
ad io
] (
Ġcond itions
al t
Ġse par
arg in
ith ub
Ġsystem s
p ackage
Ġmat rix
ap s
Ġac ross
Ġc ult
er a
st atic
Ġtr ack
ot imes
Ġh ost
Ġ` `
Ġwork ing
Ġs ix
S ub
Ġstud ents
um b
M ethod
m ark
ar ing
ĠW ith
ĠO ne
Ġconst ant
Ġpop ulation
ug ht
ic ro
F l
c ount
ĠO ff
pr int
Ġse en
M od
.... ....
ugg est
ĠM e
Ar g
d b
Ġf ar
id ge
c le
Ġl ik
ĠPres ident
Ġs m
ĠE l
Pro perty
Ġconsider ed
Ġanal ysis
go ogle
Ġc irc
Ġg l
Ġcom e
f oot
ĠAr t
Ġsol ution
Ġar r
Ġobtain ed
iv en
0 6
il ities
O T
Ġbeg an
ilit ary
Ġyou ng
ĠR ec
Ġh ouse
I R
Ġt ask
ic ense
b ook
Ġvari ous
op h
fl u
Ġre d
Ġb order
| -
Ġc ount
Ã ¡
Ġthe ory
ew ork
ĠQ u
Ġl ower
ĠA rm
ateg ory
g ed
ĠS et
b uild
ly ing
n a
we b
re st
Ġb ool
at ural
Ġw ater
Ġim plement
Ġs ent
m it
w ise
Qu ery
n s
Ġf uture
Ġg lobal
Ġst d
A ss
Ġpr im
00 00
oc r
R ead
Ġwrit ten
av es
en ame
act ory
iev e
min istr
d ev
cre en
ĠTh at
Ġc ertain
Ġw ar
I L
eth ing
ce ed
n et
Ġg ive
ourn al
Ġp ort
Ġval id
pl ied
h and
text it
Ġatt ack
st er
S igma
ĠH ouse
Ġs ays
ond on
Ġb i
in it
ren ch
S ee
Ġd ays
Ġtr aining
6 5
oci ety
Ġcond ition
Ġpubl ished
Res ponse
Ġbuild ing
/ \
> (
Ġcre ated
g ithub
Ġb ig
Ġf ri
Ġar ch
ĠC our
ure d
Ġhig her
ensure math
d o
Ġh om
l ight
p arent
fer ence
ip s
Ġn amed
ch o
Over ride
ok e
b or
Ġhow ever
ĠD ef
Ð µ
S P
ex p
S tr
ust er
B e
Ġmethod s
y l
C E
Ġinclud ed
Ġg ot
Ġtr ad
ic an
ir m
Ġd one
d l
Ġadd ition
Ġbel ow
Ġm en
th ing
Ġserv ices
Ġre ason
Ġj ob
N A
Ġbeg in
\ %
B ar
s mall
4 9
med i
il le
h ib
p ly
Ġwork s
Ġp air
ĠD av
ĠCol lege
ĠĠĠĠĠĠĠĠĠĠĠĠĠĠĠĠ ĠĠĠĠĠĠĠĠĠĠĠĠĠĠĠ
Ġelement s
Ġgroup s
Ġto wn
C ount
Ġcl ose
b ased
i et
ĠD is
on al
Ġm aking
Ġassoci ated
ĠEng lish
Ġc ross
Ġbl ack
qu e
Ġn um
idd le
) </
Ġme et
Build er
ĠM on
Ġg e
ĠD es
opt ion
< !--
Ġa ir
Ġpro perties
ĠA m
Ġaver age
E E
n ull
Ġand roid
mb ox
ĠCh ar
u it
Ġb ody
Ġb en
Ġpolit ical
ev ent
E nd
ar ies
l s
Ġs che
ĠB ar
Ġcon struct
St ream
\ [
Ġc ame
x y
b orn
E d
Ġd ensity
Ġr a
Ġstand ard
art ment
ĠLe ague
Ġestabl ished
}} {
Ġre view
non umber
al y
( (
ill ed
ord in
S c
d ir
r un
Ġa ch
Ġn ormal
ire ction
ibr ary
4 7
Ġth ings
ĠAmeric a
Ġcorrespond ing
) {
im age
Ġm aterial
Ġbu ilt
Ġcons ist
Ġin ternational
Ġest im
n amespace
ĠS ch
av el
Ġc lear
ĠJ apan
Ġsh all
Ġt aken
Ġt re
0 3
M S
Ġs uggest
he ight
es e
Ġcal cul
Ġm er
Ġcon v
Ġann oun
Ġl anguage
iz ing
Ġg ames
dot s
act ive
c urrent
Ġs cal
pro p
S p
N o
] )
b ra
ĠI I
Ġn ecess
iv il
Ġsub ject
ĠP ark
9 5
ill s
Ġs ite
ers hip
Ġp ast
200 1
ĠIn ternational
200 3
t em
ĠC ont
wid et
ĠT est
y ear
ĠL ondon
und le
Ġunder stand
Ġk ind
opt ions
tr ies
Ġpos itive
ĠA dd
Ġfe atures
Ġst ep
s ing
Ġcomp os
Ġp ur
pl ies
Ġrespect ively
i res
D ate
Ġv ia
N S
ĠP e
ĠR ev
Ġde cl
Ġappe ar
Ġe ar
A A
Ġcol umn
A meric
Ġas k
Ġt w
P I
arri ed
ĉĉĉĉ ĉĉĉĉ
ma il
du c
Ġs em
it te
am a
Ġl o
cl ient
f ord
Ġpro fess
Ġloc ated
F ig
Ġl oss
Ġhtt p
U til
Ġof fer
Ġother s
8 8
p ol
ef ore
kn own
Ġsom ething
Ġspec ific
ĠI nt
Ġf requ
un ic
Ġv iol
qu ery
ĠĠĠĠĠĠĠĠĠĠĠĠĠĠĠĠ Ġ
ens or
widet ilde
ampions hip
{ -
Ġfil ms
ul ations
In put
ch ange
ĠB ro
b b
Ġmark et
ĠSe ction
es tern
Ġsur v
Ġacc ording
Ġind ependent
fl ow
Ġpro of
is k
Ġstart ed
6 7
ĠWill iam
Ġequ ation
m ember
Ġp age
Ġr andom
ph p
ĠH igh
ĠA ng
f unc
Im age
pr ime
Ġcomm and
Ġh alf
c ase
Ġe mb
Ġrel ated
ab ase
200 2
is es
Ġc aus
Ġen vironment
ser ver
H E
Ġact iv
A ct
at form
tr ict
d r
Ġbeh av
Ġon ce
ho od
Ġex press
ul a
Ġw rite
Ġbe com
Ġg en
Ġcent ury
Ġph ase
Ġm ove
ish ing
Ġright s
ut es
O S
Ġl ines
ver se
Ġl ittle
Ġmed ia
th m
g en
\ !
if orn
id s
h as
ĠH ar
Ġn umer
Ġg round
Ġp ress
St atus
ag ing
ac ing
t x
ON T
Ġam ount
Ġcan not
Ġc he
Ġth us
Ġreg ular
Ġc le
dis play
ed eral
ĠP er
} -
s pec
Ġ row
F A
Ġl ot
Ġoffic ial
Ġcontin u
ĠTr ans
ĠCl ass
Ġ ill
Ġserv ed
ot ed
Ġke ep
un ity
Ġth ough
is try
center ing
requ est
Ġa way
ĠA ir
el ine
ĠL a
Ġv ector
und er
r up
B lock
Ġan g
Ġbo olean
le ctions
Ġal ign
Ġcl ub
\ ]
Ġt reat
Ġm iss
att le
em ma
ch an
p c
iforn ia
At tribute
ĠM ore
Ġ- >
fin ished
or age
ad es
ĠN ot
y les
u el
O ff
Ġd ynam
Ġen ough
N ull
e lement
oc ol
ĠĠĠĠĠĠĠĠ ĠĠĠĠĠĠ
Ġd ate
Ġh istor
B C
Ġresp ons
Ġdef ine
p age
Ġprodu ction
wh ich
oci ation
Ġcont ains
T O
Ġex ists
Ġdis play
Ġw ent
ĠC r
Ġc y
v is
o on
Ġpol icy
Ġb orn
( {
Ġpartic ip
ĠI r
8 5
row n
Ġper cent
Ġwh ose
P os
m on
ĠH er
Ġline ar
arg s
iz er
at ives
Ġ< <
p ing
ial og
Ġquest ion
enc ies
Ġcont ain
Ġchang es
m ar
) ]
Ġst ation
a ctions
Ð ¸
rit er
ĠL aw
an ies
ch ild
Ġtem per
Ġn ov
ĠS im
Ġun it
j av
B ase
Ġsim ple
ĠV al
N av
\ {
Ġmom ent
ĠM ich
add ing
at ory
ad o
Ġd est
g ing
le vel
Ġfl ow
Ġv ideo
it ect
ri es
ĠCour t
Ġcour se
Ġadd ed
ĠH am
Ġplay er
Res ource
ĠPh il
W h
} +
ĠThe orem
Ġev al
Ġf ig
9 7
The re
RE F
T oken
Ġfield s
A ction
t arget
z eta
ĠS ince
Ġadd itional
app end
4 6
Ġdeg ree
L ine
cent ury
Ġl oad
istr ict
s cale
Ġrec ogn
Ġinst ead
semb ly
Americ an
w ed
ak er
S up
l ib
Ġreport ed
ĠS tr
Ġbro ad
ĠN ULL
op en
Ġse arch
tab ular
) =\
ĠF rench
A G
plic it
ĠG o
at al
e h
but ton
ic o
in st
ĠE q
Ġr ather
Ġac cept
Ġs cale
ac ity
av y
Ġp rior
Ġt ax
H ead
om orph
\\\\ \\\\
G L
and id
Ġoper ator
p ng
Ġv ill
4 2
Ġpro posed
Ġr adi
ĠCal ifornia
sk ip
Ġpres ident
Ġc ustom
s m
Ġl ed
Ġcon tr
ell ing
ĠA c
Ġl ive
un finished
ĠCh ina
or ge
ĠD o
s plit
In stance
app ing
H T
U E
S ource
ist ics
Ġatt empt
Ġin f
Ġpr int
bs ite
ic ult
Equ al
ars er
C ell
ĠA cc
Com p
G r
Ġch all
use um
] [
Ġmult i
7 7
E X
ĠF irst
ap ter
Ġt alk
pl ace
c os
Com ponent
Ġal gorithm
ĠI N
f irst
b ottom
. ~
in ing
ĠSt ud
} =\
Ġst atus
ast ic
Ġl iter
Ġst ar
Ġle arn
AT E
Ġl ate
Ġ" ""
Ġexper ience
Ġent ire
Ġal most
se lect
Ġbir ths
O ptions
Hand ler
ache s
Ġex act
Ġeduc ation
Ġd ied
ĠRep ublic
a el
sh ip
ig en
od ing
Ġz ero
itte e
Ġit em
l ong
) ^{
Ã ³
F irst
ĠS an
it es
Y PE
ĠM y
in n
ro y
O D
Ġin flu
R un
Ġap plic
G ener
ic les
st ream
j son
Ġ& =
Ġmult iple
ug in
tribut es
P ol
itt ing
ell ow
B uffer
) }\
ĠĠĠĠĠĠĠĠ Ċ
m ain
Ġcontin ue
P e
ĠDep artment
head er
. )
ĠEurope an
Ġinst all
Ġeng ine
li ke
stit ute
ir rep
ĠD istrict
led ge
Ġsuccess ful
ĠCent er
Ġhe ight
Ġ+ =
Ġspec ies
Ġw indow
//////// ////////
ch ar
s g
Ġs af
Ġto day
} ]
O per
he l
P art
Ġd ouble
ĠGerm an
Cont ent
Ġfe el
Ġm akes
mod ule
Ġfin ite
idd en
A M
Ġdis trict
ari o
h ost
str ong
O P
i ation
anc ial
imens ional
Ġde al
S C
ĠM ark
Ñ Ĥ
Ġcomp lete
9 8
Ġp ers
A fter
ĠN e
Ġprot ected
d at
Ġequ ival
m ore
w rite
ic ation
Ġres ource
ĠR ef
S pec
Ġsequ ence
Ġimp act
Ġtyp es
ĠIn ter
Ġsur face
Ġreg ard
F unction
oper ator
ĠInd ia
Ġim prov
us ed
{ (
ft ware
Ġs on
ĠCan ada
Ġth ought
un k
a ign
Ġcoun tries
eg er
Ġreturn ed
ian ce
Ġro und
bt n
p df
Ġf all
str uction
Ġle arning
Ġcompon ent
Ġm ilitary
irt ual
Ġn atural
s in
Ġcon duct
Ġr ank
9 6
iz es
if orm
ac c
om b
pect ed
ash ington
r l
Ġcent er
Ġcon tract
Ġtrans form
C K
ot ype
ov ed
Ġpr inc
i ers
loc al
Ġo ption
ĠE ast
; \
il es
nav bar
ol ic
p ost
h a
Ġa ud
o ch
Ġare as
Ġdist ance
ĠE m
F actory
al ax
Ġc ut
ĠF rom
p tr
O ne
Ġap plication
Ġcl ient
A cc
Ġf ixed
Ġf ather
Ġte lev
Ġst op
ĠEng land
Ġwork ed
ĠCoun cil
Ġr at
Ġc opy
in ated
Ġpred ict
Ġiss ues
qu are
c up
LA SS
ĠG eneral
}^ \
ĠInd ian
[ "
x ml
r um
ĠS en
V ersion
Ġfact or
n ected
lem ma
Ġmon ths
199 9
5 00
Ġprovid es
$ )
Ġiss ue
ot o
St art
Ġlarg er
pro perty
wide hat
ĠD em
ar a
Ġt aking
} |
ul ated
H ow
Ġprodu ced
a ugh
Ġlead ing
}_ \
Ġcour t
col umn
ot a
Pro v
f ont
Ġrelations hip
ĠR ed
F I
bo ard
Ġobserv ed
f ind
Ġs ymmet
Ġnot e
L T
Ġs old
S U
ĠO bject
c an
Ġmat ter
Ġne igh
ari ant
Ġex ecut
Ġinclud es
Ġcomp anies
, -
ad ata
cdot s
Ã Ń
o o
ar ily
L ink
ach ing
Ġvis it
Ġfor ce
g l
ge bra
Ġb it
c ing
en ed
Ġits elf
am ily
im ately
Ġre str
ĠR eturn
P si
at rix
ab s
ĠCh urch
om s
Ġeff ort
Ġdiff icult
$ {
Ġincre ase
n ey
Def ault
Ġset s
Ġh on
Ġup on
Ð ½
Ġpre c
Ġwh y
b urg
6 8
ER T
I M
ĠAustral ia
Ġin ternal
Ġrele ase
Ġbas is
ul ly
text width
Ġact ive
anc ed
C D
Ġpop ular
g ener
Ġin it
ra el
* /
b ound
or iz
}) \
Ġtelev ision
ct or
st atus
ĠM r
oot h
Ġl ove
Ġre v
ens ive
rup t
Ġ ]
s rc
Ġben ef
Ġequ al
le ase
Ġexper iment
I V
ict ure
y r
Ġc apt
str y
Ġrefer ence
land s
oy al
ĠS m
u ate
it ude
ĠU K
u id
e es
Ġs ample
5 7
Ġdevelop ed
Ġag re
Ġconstr uction
Ġy et
Ġ\ {
ĠN one
row ser
W indow
Ġs w
des cription
Ġpart y
Ġact ually
ĠP al
ĠG roup
Ġw ords
Ġprob ability
Ġmov ed
not e
4 3
ain ts
Ġun ique
ot es
u z
pr ivate
n ce
Q L
Ġcurrent ly
q quad
Tr ue
ro te
Ġthe refore
Ġext ends
u ccess
is ions
A b
Ġspec ified
Ġcol lection
Comm and
comm and
ĠĠĠĠĠĠĠĠ ĠĠĠĠĊ
ist ance
p ack
Ġa ward
ate gy
ĠU p
N umber
ele te
W hen
Ġpro p
ĠDav id
pec ially
L oad
il i
Ġm argin
d en
H el
Ġgiv es
199 8
Ġde p
Ġneed ed
im g
Ġeffect s
} );
Ġloc ation
Ġdef inition
Ġmon ey
Ġannoun ced
Ġj ud
Ġproble ms
Ġclos ed
Ġ ir
ĠBl ack
m ing
ol s
M M
Ġassum e
Ġcomp ar
ĠD irect
ber g
ĠW ashington
al let
Ġoper ation
Ġ$ (\
( -
Ġanal y
un n
cre t
str act
ĠD iv
Ġlik ely
199 0
Ġeffect ive
al le
d s
5 8
ip al
ram ework
ang ed
T ask
ĠP aul
Ġdec ision
Ġin c
ĠG od
as ons
Ġthrow s
p y
4 1
Ġwe ight
ĠFr ance
ri ef
l en
Ġgener ated
P oint
if act
ĠFig ure
yp es
Ġneed s
f e
Ġquant um
im ension
" ]
Ġdetail s
Ġup date
Ã ¼
cl ose
ock et
er ation
o e
Ġwho le
el ves
Ġex cept
e in
it ch
AB LE
equ iv
Ġhtt ps
ĠP at
Equ als
Ġst re
a res
St yle
O L
P re
m id
Ġindu stry
n um
che ma
R A
}} (
l or
Ġn orth
Ġim m
serv ice
" ).
ol ve
Ġoff ice
pro ject
} +\
Ġs ound
i pl
Ġs ure
Ġcorre ct
ĠL emma
) -
Ġst ream
inal ly
pro x
Ġb ox
iev ed
Ġdirect ly
ri ate
m eta
P er
empt y
p ite
Ġ{ @
p ush
id a
ĠH ol
ed d
Ġcou pl
ĠSt reet
ĠJ ames
at ively
C heck
o res
B U
5 6
av en
P C
Ġacc ur
Ġf av
Ġperson al
Ñ Ģ
Ġdisc over
ant ic
i as
G e
Ġwh ite
Ġmod ule
c el
Ġse lect
Ġt akes
ĠHe alth
^ +
Ġhold s
ly mp
ĠC up
B ack
Ex t
ĠB er
L ast
L abel
ĠR ober
R eturn
Ġf em
ĠPart y
Ġ ess
m em
Ġse lected
Ġfr ont
Ġc andid
Ġ ...
Ġdirect or
Ġwrit ing
" ),
l ast
B ox
Ġop port
Ġpresent ed
Ġperform ed
Ġad ministr
on str
& =
Ch ar
Ġd irection
Ġcent ral
ri a
Ġm ode
a a
ĠV ol
Ġe lection
ĠTh om
} /
as cript
s igned
O b
R ep
Ġs ense
Ġf a
ĠA ward
st d
Ġc red
ĠB el
ĠAss ociation
E m
Ġst age
ver y
Ġ( (
ĠC ong
un t
ĠP ort
ĠCh ampionship
row s
F ONT
b and
u a
d ec
Ġed ge
P RO
ĠA nt
enc ed
S ON
p ass
Ġestabl ish
ĠS k
Ġto ld
7 8
{ {\
A pp
Ġconc ern
st ar
Ġes pecially
Ġme chan
Ġsec urity
Ġun c
i ences
an ish
on ly
Ġj o
ent ry
ob j
Ġaut o
ou ch
un ch
pre t
li er
D B
ig ger
M et
R ow
Ġl ost
}^{ (
Ġcon nection
y per
// /
iz ations
Ġrel ig
Ġdid n
evel op
Ġbound ary
pro cess
Ġcomp ared
Ġw rote
c r
Ġsp in
f ill
ĠR iver
ĠW hat
Ġinvolv ed
end if
form at
b a
ĠComp any
Ġout side
Ġ< !--
Ġg as
th at
List ener
C reate
clus ion
ach ine
ĠF il
F e
ac her
S I
ad ian
st ant
Ġwe bsite
Ġnecess ary
l a
Ġallow ed
fil ter
Ġstud ies
p at
Ġobject s
Ġv ict
ĠM al
ag o
ĠIn stitute
} :
ĠTh us
n umber
ĠR ich
ĠGe orge
Ġdoes n
Ġpart s
v ille
P age
Ġinteg r
Ġc atch
h an
ĠO b
up date
ber t
he et
f inal
Ġnew s
ĠWh ile
Ġcon ver
Cont roller
Ġset ting
Ġ& \
y a
Ġad j
ub e
el oc
ĠNew s
a ur
cit et
y ing
Ġt ell
Ġs outh
| |
U I
}\ ,
Ġev idence
Ġth ing
l ayout
Ġm id
w in
on ic
Ġdiffer ence
con tainer
k a
ref ix
Ġg alax
Fil ter
Ġtrans fer
o z
Ġw ord
so le
n ormal
Ġinst it
ag ram
Ġoper ations
Ġim ages
N D
ĠS ub
Ġfor ward
ĠC he
ĠJ ust
erv e
wo od
R em
ind ent
Ġsupport ed
Ġnum bers
Ġapp ly
ĠC ons
Ġpol ice
Ġl iving
V ER
Ġide a
Ġmax imum
b uf
( &
Ġincre asing
Ġdo ing
}\ \
ot al
it ar
$ }
c s
Ġd raw
math sf
for ce
Ġrel ative
wit ch
Ġro ad
Ġform at
q l
ĠIs rael
IN T
sh ow
Ġt en
Ġtrans ition
M em
Ġep is
ed ia
N O
t ic
E L
Ġus es
Ġm ag
param s
S im
ĠSe e
Ġapp oint
Ġco ordin
Ġtemper ature
E nt
Ġqu al
Ġf ace
Ġb ank
Ġdem onstr
Ġinvest ig
m t
so ft
F T
Ġmon th
ĠGerm any
out put
_ .
ic ol
ous ly
ĠQ ue
Ġn one
199 7
b ul
Ġpat tern
as c
Form at
Ġin j
Ġarch itect
{ }
Ġphys ical
Ġro t
A ut
Ġr ule
Ġlarg est
Ġn av
n es
Ġintrodu ced
tt p
5 9
Ġcom es
t ag
m enu
ĠG L
ort hern
Ġcamp aign
Ġfil ter
ã ģ
S ince
Ġart icle
199 6
Ch ild
ĠTr ump
Ġch annel
ĠS y
Ġm ention
Ġrun ning
il ies
Y ou
ra z
ĠĠĠĠĠĠĠĠĠĠĠĠĠĠĠĠ ĠĠĠĠĠĠĠĠĠĠĠĠĠĠĠĠĠĠĠ
ĠAr ch
ĠUn ion
Out put
U s
re ater
Ġnov el
Ġm other
Ġim medi
ĠH all
& &
v an
Ġeconom ic
8 7
Ġon line
Ġn ames
' re
Ġopt im
8 6
ĠN ote
ĠF ound
ig r
N ext
Ġthrough out
ĠS ome
umer ate
Ð¾ Ð
and er
Ġleg al
Ġsh are
n ov
Ġdat as
Ġ Ã
ec k
Ġmod ern
ĠArm y
i os
ĠO F
refer ence
C L
Ġinter face
ark s
D r
en ing
b in
Ġsol id
Ġcompon ents
ĠR em
S O
Ġap plied
od ed
b reak
respon se
Ġd ig
ĠS um
out hern
Ġac qu
Ġrepresent ation
Ġallow s
Ġt im
Ġrel ation
n eq
Ġde part
. $
ĠD ata
jav ascript
ĠH REF
l n
Ġgo al
Ġbr ing
val ues
z er
Val id
ann ing
Ġs ex
Ġn ight
Ġs ens
Ġe mer
Ġs ources
H istory
__ __
Ġarg ument
Ġhim self
Ġs us
st ack
u ge
Ñ ģ
Ġal though
Ġcon sum
C ache
Ġvill age
ĠC LASS
Ġprov e
ĠW ork
ĠP ress
L ength
Ġlong er
el se
Col umn
Ġst ars
et t
ĠRes earch
Ġsol utions
B undle
B r
ar ter
Ġsim ply
( {\
Ġr isk
at tr
Ġde ep
ines e
x space
Ġdescri ption
ĠP ublic
Ġn uc
e al
] $
% %
ĠSc ience
ĠI D
fil es
Ġcrit ical
i us
Ġent ry
or ing
st yles
' $
operator name
Ġbehav ior
Ġf ood
ĠJ ew
| ^
Ġconst it
d i
T P
198 0
5 1
Ġ url
g in
Ġstat ement
is ation
M ode
h space
ate gor
S ec
ĠE X
Ġfin ancial
< ?
Ġy ield
il ton
he st
T em
ou l
ind ing
a ud
gr ad
osp ital
ĠT V
ĠC ap
Ġprofess ional
Ġreg ister
Ġbook s
) +
S y
Ġser ver
Ġdom ain
rem ove
ĠS ervice
vent ion
Ġaut om
ang er
il er
set s
But ton
ĠM art
ann ot
ist an
ĠS pec
Ġcontin ued
un it
Ġg overn
Ġtechn ology
Ġden ote
P O
Ġt ree
5 4
ic i
}} {\
f it
Ġex pression
omet ry
ic ial
Ġch urch
S D
Ġman agement
Ġbecom es
Ġc ivil
7 6
Ġf ire
ap prox
t ex
} -\
A g
Ġvari able
os en
8 9
c d
5 2
Ġup per
Ġc it
ĠAfr ica
el es
C ON
Ġbo ard
ex ample
ĠR oman
ob ile
CO L
199 5
Add ress
20 22
k it
`` `
UR L
the orem
ify ing
T ag
Ġgrow th
Ġ ~
B A
Ġbeh ind
ry pt
res h
am s
Ġr adio
f loat
Ġcharact ers
ĠComm ission
Ġp ain
or se
iss ions
in stance
Ġor d
sc r
I O
ef ined
ER R
Ġt our
Ġequ ations
Ġsc en
at ur
in ner
Ġro ck
F O
om ial
Ġfri end
ĠO ut
ess ages
ad ow
u ated
Ġvari ables
Ġpro ced
el t
ĠMin ister
Ġfil es
Ġschool s
ĠL icense
P ar
Ġav oid
Ġjo ined
Ġpract ice
Ġver s
r d
We b
: </
air s
Ġexp and
Ġsign al
Ġf lo
Ġpro gress
V ID
Ġmain tain
op l
> >
L ayout
NA ME
ĠL ou
en umerate
ĠM ary
M ax
id ents
Ġsign ed
Ġsmall er
o ice
Ġcomplet ed
Ġpro te
re me
mat rix
P R
Pe ople
Ġb ar
Ġd oc
Ġknow ledge
Ġrecent ly
Ġqu ery
T hat
**************** ****************
Ġset t
ect ors
Ġchang ed
Se lect
Ġt ro
Ġv eloc
Ġcap ital
m ission
w rap
ag ger
Ġprim ary
old er
ĠDem ocr
Ġl at
5 3
M in
Ser ver
ĠWh ite
r is
ĠD ay
sc ope
Ġelect ron
ĠB ook
Ġf ont
Ġre ve
l am
ans ion
Ġal tern
Ġcho ice
b es
d ated
Ġtrans l
ĠT ex
Ġdeath s
G u
Ġ[ ]
Ġcom ment
' ).
Ġus ually
199 4
ĠM usic
Ġst aff
C A
Ġcont act
Ġd rop
g reg
id ing
ĠM ex
Ġcon cept
Ġpass ed
8 4
Ġclass es
Ġproduct s
oc al
Ġdesign ed
ri an
Ġim plies
Ġplay ing
prot otype
Ġm ale
Ġbel ieve
Ġr ules
Ġf ight
ĠRober t
S A
ĠS ing
Ġro ot
ay ers
Ġrem ains
Ġw ife
is her
ĠV ir
ĠJ ack
d epend
Ġ ensure
ic ate
Ġtrans port
Ġse lection
Ġsc ient
in ct
\ "
v ant
ĠS ociety
Ġc ause
C P
d imensional
Ġfollow ed
clud e
9 4
Ġreturn s
ĠG reen
L e
B l
Ġan sw
ĠO lymp
V is
ree k
C ase
ĠL eg
( [
duc ation
] \
ro s
omet imes
W hat
Ġ- \
Ġlim ited
Ġf ra
z on
W ork
item ize
Ġex hib
Ġwe ak
ĠT able
Ġlevel s
#### ####
Ġres ources
m es
ĠD i
ĠO ther
Ġqu ality
3 00
Prov ider
Ġdeterm ined
ĠH T
am l
ĠO ur
Up date
Ġs eg
mer c
Ġn ature
ĠM od
the n
Ġw alk
Ġd am
ict ed
D F
Ġfail ed
s d
ĠAfr ican
ĠB ay
ched ul
T op
="../../../../ ../
C o
Ġto wards
ĠM at
N N
d ep
Ġf it
Ġch arg
ĠT ype
Ġb all
o i
ĠFr anc
ms elves
Ġfr ame
E ng
Ġcall back
Ġc ast
Ġexist ing
= {
Ġmem ory
Ġs ort
cript or
Ġv irtual
ec ution
Ġh ous
9 3
ĠM et
7 2
im ents
ĠThe refore
util s
re y
Ġse em
Ġp ack
) }{
ar p
st on
er c
9 1
Ġin str
S o
Ġsy mbol
en a
is l
T ypes
Ġev olution
$ (
. /
Ġde cre
ter m
line ar
Ġthe mselves
Ġr ace
Ġsong s
erv ed
ĠAr ray
sup port
Ġspe ed
back ground
ĠR oyal
++ )
oot str
ĠCong ress
ec ause
us ion
in i
9 2
Ġs creen
err y
U rl
Ġconfig uration
=" ../../
N ote
h ing
ã ĥ
t ree
Ã ¶
Ġstre ng
T arget
Ġ( "
g s
AT ION
a uthor
alle l
Ġrem ove
j ection
Ġqu ick
Ġbro ther
Ġprogram s
Ġco eff
ef t
ĠY ear
Ġtr avel
off set
En try
g n
Ġs aw
ing u
Ġde but
Ġopen ed
ĠAc adem
Ġrem ain
Ġg ave
The n
197 0
ĠT ur
Ġd ed
Ġfor ces
ĠChrist ian
Ġ! ==
g ence
A V
Ġother wise
r ule
Ġstud ent
s ign
ĠD uring
uf act
Ġchall eng
Ġprevious ly
ĠN ow
Ġins ide
Ġest imate
Ġsc ience
act er
Ġear lier
class es
c a
ĠMich ael
Ġfam ilies
Ġmed ical
Ġe ight
f g
pro to
H O
Ġcon nected
Ġgr ant
199 2
ult ure
it ory
) /
W idth
p g
n ers
ill ing
Ġequival ent
Ġteam s
Ġm arried
) }$
se y
( _
Ġd augh
comm on
od er
ex pected
Ġcol lect
ĠJ er
Ġh ours
ĠA PI
Ġb ad
Ġqu ite
v ed
ĠO pen
ĠDiv ision
Ġspect rum
ĉĉĉĉ ĉĉĉ
Fr ame
Ġj oin
b our
Ġcon nect
CO DE
ol ar
ĠE ar
ĠC E
ele br
Ġp ick
u int
al ian
Ġj ournal
Ġstart ing
B o
P S
ent al
6 3
Ġdis e
Ġagre ement
t ask
Ġsh ip
ĠG overnment
Ġa uth
Ġwe b
Ġbegin ning
Ġtr ade
{ {
ĠM ount
erv ices
N et
Ġm ar
ootstr ap
N ow
ĠF ile
w indow
w ell
Ġact ual
por ary
Ġl ib
Ġa x
L iving
A ccess
in v
Ġn odes
Ġl ives
199 3
Ġ\ |
D ev
Ġsub s
v space
En c
ĠCh inese
T YPE
ĉ ĠĠĠ
Ġmean ing
Ġc a
ri al
ĠG l
ĠT ime
fr ame
ec ute
Config uration
return s
P i
fl ict
Ġf loat
ĠBo ard
no indent
ĠL og
m as
Ġreg ions
ĠS w
Ġrec over
com ple
\ ,\
n orm
cl os
ĠH istory
ĠSec ret
P ost
Ġmov ie
ie ce
Param eter
ĠM us
ain e
w ait
Ġit er
C R
e ch
ty p
ro ad
Ġm ix
ĠPro v
Ġarg uments
Ġappro p
oriz ont
ĠComm ittee
} '
Ġl ack
h i
Ġad apt
Ġrecord ed
Ġh it
Ent ity
om ic
8 2
ĠTex as
Ġf ederal
Ġt ag
Ġcult ure
Ġpl atform
O pen
art ifact
Ġun its
est ival
ĠTe chn
pon ents
Inter face
ĠM useum
Ġth reat
AR T
Ġal gebra
b on
ĠA lex
requ ire
Ġro b
we ight
Ġcom ing
Ġpro per
im s
Ġpolit ic
uss ian
ĠAcc ording
T ree
Ġn om
Ġcoun ter
Ġmagn etic
Ġso ftware
Ġform ed
he nt
ir us
ĠM or
par se
\ }$
a o
M on
g le
Ġread ing
ĠH ere
ĠF orm
~ $
Ġchar ge
R el
Ġsit uation
Ġtreat ment
ĠP ost
Ġsub sequ
Ġs il
Ġm ind
ĠG reat
Ġsh ape
Ġag o
Ġex plicit
ĠIn c
Ġorgan ization
r ics
Off set
Ġw ays
li ament
ĠRuss ian
Ġparticular ly
Ġne ut
ĠD on
anc y
oun ter
ĠH en
Ġob j
Ġv eh
Ġs en
Ġhe art
ĠW il
P P
w s
f ect
ĠB en
Ġ ign
Ġst ore
Ġse ems
ĠC ath
Ġsuff icient
m itted
Ġ ;
Ġarg s
L evel
Ġre li
Ġwant ed
g an
merc ial
Ġl ayer
b ool
an o
ĠM ag
Ġ* *
Ġre con
ul ate
Ġask ed
() ->
Ġneg ative
ĠR oad
M N
Ġgener ally
Ġrat io
tem plate
Z E
res ents
Ġ er
Ġinterest ing
C an
S L
ĠM iss
Ġso on
ir it
Ġb re
6 2
ang es
M e
or ial
Ġw oman
Ġrequ ires
ed y
em ic
Ġatt ention
ĠThom as
ĠAustral ian
Ġstud ied
Ġdev ice
Ġad opt
S cript
Ġd imension
ol id
Ġwrit er
ĠG old
f ort
Ġpl aces
ĠCent ral
Ġb g
E M
Ġfig ure
r s
' ),
Ġdescri be
Ġincre ased
etail s
ag ment
ĠS am
Ġus ers
Ġr ail
en ge
Ġresult ing
] );
Ġappe ared
Con tainer
Ġbro ught
sh ould
Ġl en
Ġinter view
ym pt
ĠCan adian
Ġre pe
ro ot
d ocument
Ġre comm
ern el
cre te
an i
ĠW estern
et ch
ĠO f
Ġvol ume
Ġdirect ed
con f
Ã ¤
Ġant i
Ġ _{
Ġlook ing
a fter
K E
g raph
Ġill ustr
y e
Ġd ark
: "
Ġex ception
Ġem pty
Ġdef e
rel ated
ĠS l
Ġf ully
Util s
Ġse ven
reed om
f s
d rop
ĠF in
ĠM ac
evelop ment
d et
Ġin equ
Ġg ir
Ġlaw s
it able
ĠO per
ĠĠĠ Ċ
Ġactiv ities
orizont al
S H
Ġpe ak
Ġre nder
yn ch
}} _
Pro cess
Ġfor ms
Ġsc ope
th on
Ġpre vent
ĠE v
al ed
ot ic
Ġc am
ens us
er rit
Ġbir th
Ġmov ement
g ate
f ree
ĠK ore
Ġunc ertain
Ġe igen
ĠL ib
Ġbel ong
ĠĠĠĠĠĠĠĠĠĠĠĠĠĠĠĠ ĠĠĠĠĠ
oc ation
IG N
Ġprob ably
ip p
=" -
ĠReturn s
ĠM em
Ġm us
model s
c ache
J son
Ġb uffer
Ġfinal ly
199 1
ĠB est
V AL
ĠB ill
6 1
iver se
h r
ot ion
8 3
Ġu int
ã Ĥ
D irect
Ġdeterm ine
Ġw ait
math scr
S l
it ing
7 9
ĠS al
im ages
7 4
Ġfrequ ency
}} }
Ġcom pl
Ġw id
j o
R ight
b uffer
ag raph
Ġveloc ity
Call back
Ġun iform
I F
et her
ol ute
Ġn orm
ĠN S
D ec
D at
ĠN or
Ġstruct ures
g u
P A
res hold
c over
all s
ĠL at
ĉĉ Ċ
ic ens
Ġf un
8 1
ĠFound ation
r ong
Des cription
ĠIs land
Ġnot hing
as ic
ĠB ank
ĠCl ub
ail ed
Ġh ot
Ġp anel
W rite
se cond
et ime
c i
Ġcl uster
Ġcon sequ
Ġhe l
St at
Ġident ity
ĠVir gin
ĠI S
ab ilities
ir ing
pro ve
Ġst ay
Ġeas y
ĠFl or
Ġess ential
P ort
Ġpres ence
Ġ{ }
ĠF ore
O p
; ->
cont rol
D D
ill er
M ore
icro soft
Ġc ore
az ine
Mod ule
ĠR el
Ġw ave
Ġover all
tr ack
yn omial
Ġget ting
m atch
ask et
Ġbas ic
ĠB uild
Ġfore ign
Ġg reater
Ġorig in
ĠT om
Ġmin imum
Ġqu e
Ġhand le
Ġro om
ĠCar ol
t ical
Ġerr ors
4 00
bit r
v ector
Ġs ociety
under line
Ġoff set
Ġst ated
Head er
Ġk illed
tr m
Ġdr ug
Un it
lo od
Ġmet ric
param eter
ĠPro gram
Loc al
R L
k y
ĠM ad
text tt
Ġs ession
ic ated
Ġappe ars
Ġf ramework
to ken
Ġext ension
Ġex tra
Ġhig hest
C urrent
ĠD el
AC K
ail y
ann ed
Ġstr ategy
Ġd ram
< \
tex trm
6 9
i h
olv ed
subset eq
Ġtry ing
y es
it z
Ġthe orem
ĠO ver
ĠSm ith
ĠSc ott
ĠFranc is
t ml
re a
f a
bul let
ĠS T
re es
Ġdec ided
Loc ation
d el
ol es
Ġf ix
Ġc op
^ -
ĠR ead
s pect
Ġtr a
7 3
ent ity
Ġab ility
Ġrepresent ed
F ont
7 1
ĠAn n
Ġon es
Ġr ap
Cont rol
Ġocc up
Set tings
Ġb ur
Ġsche me
pos es
on om
% ;
Ġpur pose
COL OR
C S
ĠD an
artifact Id
ell ig
Ġn et
Ġa ctions
ĠD E
AP I
Ġmeet ing
Ġm is
Ġp urch
min us
Pos ition
ĠE nd
or ig
Ġcol lege
c p
Ġsp ent
Ġex am
Ġno ise
R ange
Ġredu ced
ĠP re
c ard
Ġass ist
Ġb al
ĠC reate
Ġm iddle
Ġext ended
B O
He ight
ĠR E
ĠFr ank
ĠT or
mult icol
is ms
Ġneigh bor
Ġst e
ĠP o
1 000
Em pty
erm an
R I
s v
multicol umn
Ġnear ly
P T
S earch
ar ant
p op
L I
in y
Ġr ad
Ġprot ect
Ġclass ical
d x
ĠDirect or
Ġact ivity
Ġproject s
w rit
re al
Ġcho ose
ib ly
ĠSe cond
ĠAss ert
Ġinter pret
im ary
as hed
Ġbg color
res ource
Ġle ave
Ġinter action
Ġlead er
D o
Ġin sp
Ġet c
Ġ* )
. [
Ġparent s
ĠH el
N E
Ġc ategory
ĠE ducation
t og
Ġdistribut ed
196 0
Ġre ached
The ta
ĠG a
Ġs end
N one
ĠT ri
ĠT own
Ġrece ive
Ġrep resents
........ ........
R ev
M ar
-- -
ĠLou is
}^{ -
Th read
Ġ$\ {
D ir
Ġdiscuss ed
ĠAcadem y
at re
Ġtr ain
n ap
Ġquest ions
t f
Ġf ast
D A
r ange
d eg
ill a
ĠJapan ese
Ġfe ed
ens ions
opl us
: \
b al
Ġc elebr
ur a
om a
et ri
de bug
Ġany thing
mod al
Ser ial
tern et
ĠKing dom
Ġuse ful
" ))
Ġl atter
j oy
t im
Ġm ount
Ġmiss ing
b order
k ind
198 9
Ġoper ators
Ġevent ually
Ġsm ooth
Ġch osen
Ġindividual s
group Id
Ġw ide
c at
Ġe arn
Ġb illion
iction ary
ĠU nder
Ġvari ety
C M
ĠM ont
ac ement
au ge
pro d
ct x
uct ure
Ġman if
Ġprodu ce
Ġcont aining
Ġpress ure
ĠL os
Ġp en
Ġit ems
Ġs ports
Ġbe y
Ġe lected
Ġh ope
: (
T e
z a
sh ift
ĠRuss ia
Ġman ager
Ġart ists
> ,
Ġdaugh ter
C opy
B J
ur i
ict or
H ash
co pe
Ġex amples
k in
Ġfil ename
Ġn ation
ĠT imes
b efore
Ġmot ion
Ġed itor
I con
act or
Ġbey ond
Ġpro file
Ġestim ated
ur t
T I
ĠGr and
Ġre ach
Ġl i
Ġwork ers
Ġfact ors
B S
H ttp
Ġs ch
M y
ap se
Ġfound ed
cl es
Ġaff ect
ic ago
Ġman ufact
Ġk m
w ar
Ġhigh ly
ĠT O
Ġrepl aced
Ġnot ed
w est
= (
Ġfri ends
Ġ( -
Ch ange
d irect
s ystem
sy ch
P o
ĠWe b
}} ,
Ġder iv
cher s
or al
c ur
Ġh yper
Ġrele vant
stit ution
=" _
W E
tain s
S he
it a
25 5
ĠR ob
Ġche m
Ġstr ict
Ġlead s
ollow ing
re land
Ġimplement ation
Ġcommun ities
ĠSer ies
Ġin cor
G B
not her
Ġsh ift
Ġcit iz
Ġexact ly
ig ration
Ġin fin
Ġpre m
Ġapplic ations
Ġh yp
U M
Ġeas ily
Ġtrad itional
m ode
O ption
ĠChar les
Refer ence
ĠM ass
IN E
Ġder ived
s cal
wit ter
Ġcontinu ous
PE CT
Or der
Ġmajor ity
Ġhe nce
Ġpre p
b i
Ġr ates
Ġs ometimes
struct or
Ġp adding
Ġrun s
ĠRich ard
Ġapprox imately
ĠJ ose
Pro ject
Ġpl ant
Rec ord
Ġs witch
Ġat tribute
a uth
Ġsl ow
Ġs cript
or ation
styles heet
st ep
ĠHam ilton
im inal
{ $
yd ro
Ġdest roy
ĠSt at
in os
ĠP eter
Ġ> =
Ġmin or
est ed
Ġover ride
Ġte acher
Ġtem plate
Ġart ist
urs or
et te
\ '
198 8
az z
ole c
ĠH ill
re ct
Ġ$ |
k i
^{ -\
Ġv an
Ġimmedi ately
Ġh um
Ġmeas ures
as tern
iqu es
A m
Ġsay ing
Ġcoll abor
k m
ĠCO VID
F L
h ash
ĠS ur
Ġtest s
ĠJ ournal
Ġst eps
ĠN ame
M O
if ies
ing er
Ġw atch
OR T
Ġan im
doc s
Ġexp ansion
ad er
Ġm ut
Ġweek s
Ġch art
ĠH istor
ĠS ocial
Ġrem aining
b an
Ġcur ve
" ));
Ġsc ore
ĠOff ice
Param s
$ _
l anguage
ĠB ase
bl ack
Ġinflu ence
Ex pression
ĠD ec
Ġpr iv
ari able
Ġequ ip
ĠAl though
ĠFlor ida
Con nection
Ġlist ed
Ġevery thing
="../../../../ ../../
Ġra ise
Ġac adem
Ġst ories
Ġf air
Ġgr and
er ia
Ġim prove
\\\\\\\\ \\\\\\\\
omorph ism
Ġrecord s
Ġcomplet ely
at ically
Ġde ad
Ġobserv ations
Ġappoint ed
Ġar bitr
Ġmap s
add ress
foot note
Ġcaus ed
O ur
d im
ot ing
() :
Ġfin ished
k er
Ġcomp act
Ġprocess es
à ¤
Ġgo es
Ġs amples
Ġas pect
Ġch ain
ou ri
Ġde b
erv ation
K ind
Pro perties
com ing
ĠPar is
Ġpat ients
_ +
Ġvert ex
Ġse cret
ick er
Ġbl ue
roll ed
Ġb ottom
ĠAl so
Ġmin utes
Ġemb edd
ĠB G
}} _{
av ed
it led
Ġapprop riate
wh ile
onal d
if ically
Ġredu ce
Ġpl aced
dev ice
ĠPro ject
ind er
Ġres olution
out e
Ġsome one
ĠGo ogle
set minus
Ġ" \
ĠZ eal
Ġpro ceed
ĠW omen
is hes
ĠR ock
Ġpol ynomial
Col lection
Ġgener ation
Ġp ert
ĠSup er
H ere
con s
M at
P L
Ġgener ate
ĠG ames
h aps
Ġcon vert
ategor ies
Ġfem ale
def inition
ĠCath olic
) |
Ġsurv ey
typ es
il arly
ick et
Ġcompar ison
Ġcar ry
D ocument
Ġresp ond
ĠL ife
ĠM ost
Ġbound ed
Ġh arm
ud get
ug ins
Im pl
ag on
Ġass ess
as ure
Ġun ivers
C al
Ġrem oved
E v
wh ite
im in
Pro t
ĠV er
Oper ation
Ġident ified
af e
Ġmention ed
th let
al ysis
sq l
Ġcontribut ion
umn i
ĠZeal and
L ong
S ession
Ġg un
= -
ol t
ĠIr an
f ound
? :
l ig
E Q
ĠAng eles
St ore
Ġcons ists
Ġeffort s
ĠL ong
N on
Ġ( $\
h igh
pro du
Ġsh ared
ĠPro fess
end ar
ev en
Ġfl ux
Ġe ast
att ice
av ity
Ġpl ans
irc raft
ĠA ut
ew idth
k r
Ġprovid ing
Ġpr ison
arg ument
\ }
ĠAr g
ro t
F C
Ġrespons ible
u ations
inter face
Ġm ur
ĠAr ts
ĠO R
r or
ĠM er
Ġopport unity
ĠF urther
lim its
ol f
Ġto ken
Ġpl ane
sh ire
asket ball
aw s
AL L
Nav Bar
As ync
Ġser ious
ĠIt alian
Ġsp read
c opy
R ender
Ġd ou
198 6
rop y
ound s
Ġb rief
ev e
b ootstrap
Ġb ul
Ġcap acity
================ ================
Ġfav or
198 7
Ġm ission
trans form
l ines
Ġbuild ings
ell ar
p o
leg al
Ġnetwork s
Ġw est
und red
se ct
ĠAr ab
Ġepis ode
Tr ack
o om
ĠC re
ĠOr der
S ign
Ġag ent
ĠA pp
Ġsepar ate
Ġin form
Ġx ml
adi us
Ġp or
I A
ĠG ener
L eft
G E
Ġen joy
ĠM o
Ġm aster
M ult
Ġj oint
Ġexist ence
Ġp urs
Ġsp aces
Ġelect ric
ĠĠĠĠĠĠĠĠĠĠĠĠĠĠĠĠĠĠĠĠĠĠĠĠĠĠĠĠĠĠĠĠ ĠĠĠĠĠĠĠ
ant a
atal og
Ġcom mercial
Ġdatas et
ak ers
m ake
ĠAs sembly
Ġinteg er
& #
ĠĠĠĠĠĠĠĠĠĠĠĠĠĠĠĠ ĠĠĠĠ
Ġcle an
Ġfour th
ow ers
ac cess
Ġin fo
Ġgu itar
ĠM ap
Ġa mb
f aces
ĠFor ce
Ġsl ight
Ġcon flict
or a
D S
k l
ST R
c z
ĠD en
u an
ĉ Ġ
Ġmov ing
Ġoriginal ly
a ver
Ġdepend s
Ġ\ ;
Ġcrit ic
M enu
al o
Ġdem and
cri be
Ġpartic le
Ġhas h
ĠEx ception
How ever
Ġin come
ir al
s ur
ĠC heck
c oll
d agger
Int eger
b ind
Ġliter ature
P tr
m ut
Ġdel iver
Ġs quare
Ġle ague
Ġconsist ent
Ġdat abase
ĠF ield
Ġset tings
U P
Ġpol ic
Ġl ock
ĠK e
v est
ĠVirgin ia
Ġ ::
Ġocc ur
~~ ~~
p ers
Ġdi agram
col on
Result s
g lobal
ig an
Ġ$ {
ĠT wo
ä ¸
D own
med ia
ir med
Ġg old
os ing
big g
Ġpartic les
ĠIn st
ĠC amp
Ġcontr ast
E l
al d
Ġrelig ious
Ġ â
Ġdynam ics
Ġalbum s
N e
h ouse
a ight
all ery
Ġform ula
wed ge
T im
ĠP enn
Ġbr anch
ĠCh icago
equ als
ĠI ll
Ġl if
198 4
Ġc ert
Ġm icro
s uccess
ĠB ig
iv ial
d elete
Ġstr ateg
it ation
Ġcompet ition
ĠSecret ary
Ġ util
il ed
Ġ$ [
Ġparam s
Ġw orth
in em
ud d
ap ers
Ġradi us
T ER
ĠRec ords
C ore
Wh ile
Ġc os
Ġs ector
ĠPe ople
Ġe cho
ĠI reland
Ġun known
Ġmeasure d
Ġpo or
al a
ĠT HE
Ġent er
ro om
ad y
ific ations
Ġcomp ute
Ġunderstand ing
at ial
Ġl ibrary
Ġwh om
Ġc ard
ann els
ven ue
du le
O K
Ġmin im
d est
' m
Hel per
Ġp ackage
tribut ion
Ġv ote
Ġg reen
t n
CT ION
Ġsee k
Ġsur round
ĠGe org
en um
Ġlead ers
ĠEX PECT
Ġref lect
P ass
Ġ eth
Ġsc atter
D L
ĠM odel
anc ing
Ð° Ð
s ession
nt ax
Ġoffic er
Ġdise ase
ĠMex ico
In st
ic ine
SE T
omet ric
Ġgalax ies
t ure
app ed
D ep
ĠL and
ell ed
_ *
Ġph il
ĠC ON
vir t
Ġcall s
z ero
Ġpr ice
j oin
Ġp ark
Ġsum mer
Ġsim pl
AT A
Ġal leg
m iss
ĠM el
U LT
in ternal
ourn ament
s end
Ġpol ar
ĠAt l
ĠIs lam
x x
Ġcomput er
Q ue
r ad
es h
Ġgiv ing
align ed
Ġdist inct
ĠU N
Ġinequ ality
ĠR ail
Ġserv e
Ġass ign
ĠR un
and a
oll ary
ck now
web kit
ms g
s ort
198 5
all ow
v m
orn ey
re q
H ost
b el
D IR
Ġco ach
ĠA ust
ic ons
Ġf oot
b ing
Ġal t
Ġproced ure
' ve
' \
ĠK ey
ĠB usiness
Ġpl ot
Ġenc our
Ġorgan izations
ut y
Ġocc urre
equ al
Ġcon cent
ĠJ ud
Ġauth ors
OR D
h s
ici ency
Ġtest ing
por ation
fo o
un ched
S chema
il s
( :
Ġinit i
ĠSp anish
ed s
O ther
ĠCh ild
Ġpart ies
Com ple
Ġnot ice
n cy
Ġinv oke
ĠRev iew
Ġf irm
_{ {\
Ġform ation
Ġdiscuss ion
hold er
com ponent
ploy ment
Ġpl ays
Ġexper iments
pro duct
Ġt ensor
v ey
Ġtrans action
ex port
ĠG en
Ġcandid ate
Ġex tract
olog ies
ĠT im
L S
Ġ$ -
Ġp ri
lin ewidth
Ġn amespace
Ġun ion
ament al
Ġsh ot
h over
Ġin ner
i en
Ġsatisf ies
arri age
ĠA tt
f ocus
ĠD ate
), \
ĠBG COLOR
Ġr ul
I ter
A c
U se
en v
Ġth ous
Ġthe rm
G ET
Ġsc ene
ĠSt ar
Ġturn ed
Ġann ual
ĠIt s
i ant
Ġtr ust
re nder
od ay
ĠHen ry
as er
Ġvis ual
ĠV ictor
T itle
u ce
E C
Ġem ission
as tr
G o
ĠC D
Ġapprox imation
Ġreport s
ĠB rown
Ar t
Ġfl ag
ĠD evelopment
Ġund efined
ar ian
Ġw rong
Ġstr aight
Ġj av
cont in
raz il
ell a
Ġshow ed
Ġis n
in f
c lear
rom e
Ġcou ple
ynam ic
Ġopt imal
Ġex ternal
Ġquick ly
Ġm achine
Ġmat ches
ĠA v
in ations
to String
' _
H as
ĠS un
h om
Ġa im
Ġsignificant ly
ĠE qu
ick s
h ab
S k
Ġf if
Ġqu arter
' >
Ass ert
ĠIt aly
ĠC all
X X
stand ing
ov iet
Ġn ative
or ter
Ġsymmet ry
Param eters
ĠSh ow
=" /
P arser
ĠD u
Ġc ache
v as
st at
Ġper fect
Ġ| \
ĠN etwork
Ġopen ing
ĠPro position
Ġcontain er
ĠH uman
Ġpos itions
ĠL O
ĠCh ief
Ġgo als
Ġend ed
ĠC ode
Ġth read
ip eline
ynch ron
is is
dis abled
_ ;
Ġrestr ict
Ġim ag
P at
ĠEng ine
Ġcost s
os h
U RE
Ġm unic
The se
org an
ĠSec urity
ERR OR
ĠReg ister
ar c
Ġs plit
Ġget s
n el
k et
Ġcl imate
ĠTr ue
ĠM ethod
V ector
ix el
Ġfl at
ĠM ax
' .
D raw
Ġrem ained
* {
f ull
Ġcle arly
> .
ic ity
fr am
Ġsaf ety
P H
ĠMore over
Def inition
Ġp ages
Ġaccur acy
Ġb us
Ġg auge
re v
ĠK n
Ġcre ating
198 3
Ġcell s
ĠO h
Ġown er
foot er
Ġeconom y
T S
M ark
result s
Ġan c
Ġhelp ed
D om
pl ugin
p ower
Ġadv ant
C or
N ames
ent y
f n
wid get
Ġen h
V er
he mat
U B
ex ports
se m
it ors
ĠP y
Ġext rem
ĠT op
15 0
ĠF re
Ġra ised
j a
Ġc arried
ĠE ach
Ġlet ter
ĠT em
19 50
' ],
e an
Ġthe ore
imens ions
id get
Ġadministr ation
Ġre asons
ĠFil m
Ġw ind
sub figure
gorith ms
Ġind ust
Ap plication
Se ction
T V
Ġh op
Ġhe avy
Ġch ief
Ġ\ (
Ġp ull
Ġbe aut
il ation
ĠD ev
J ohn
Ġrefer red
R ect
Ġansw er
Ġconstr aints
Ġnuc lear
Ġform al
Dev ice
n eg
Ġd u
) }(
Ġro ute
Ġ{ };
hand le
Ã³ n
Ġsim ulations
Ġd ual
Ġsen ior
S R
virt ual
Ġnumer ical
E ach
form s
Ġdes pite
Ġvert ices
Ġlo op
Ġm ill
ĠĠĠĠĠĠ Ċ
Ġpre t
point s
A tt
Ġfra ction
Ġcomm it
}} (\
at o
Ġcomb ined
j i
Ġgrow ing
hes is
ĠH ence
Ġcomp are
Arg s
ĠL ake
Ġin fr
se ud
Ġp p
198 2
I l
_{ -
Ġevery one
Ġb ill
AT H
up le
le ep
Ġclaim s
if fer
ĠU s
Ġmeasure ments
ic ients
Ġcontribut ions
Ġs ave
ĠYou ng
Ġincre ases
Ġsur pr
âĢĿ .
Ġdom in
cl ick
ress ion
Ġ$ .
est amp
Tem plate
ĠS und
> ();
Ġofficial s
P op
Ġpol y
c are
ĠE conom
ellig ence
Ġcalcul ated
## #
Ġst ack
p anel
ĠCarol ina
Ġf arm
Ġbroad cast
Ġf elt
St ack
Ġaward ed
ĠMart in
", "
ĠH on
orn ing
Ġident ify
Ġrel atively
cl oud
Ġex c
field s
De cl
ut ch
Ġmost ly
p ool
ĠM ur
Ġf reedom
Ġcorrespond s
Ġmoment um
ĠF ootball
ĠSum mer
Ġfail ure
Ġ[ '
ĠB re
Ġexperiment al
as y
Ġst ations
Ġa ircraft
Hand le
Ġang le
Ġdis k
W riter
put e
ĠEar th
Ġ} )
AN D
Ġe mail
1 20
Ġh undred
Ġde lete
Ġcl ust
! !
se ar
ol a
ĠĠĠĠĠĠĠĠĠĠĠĠĠĠĠĠ ĠĠ
s che
s el
Ġspect ral
d ouble
By tes
ĠUS A
n am
Ġ ut
S um
Ġar rest
Ġex change
Ã §
T C
Ġpar se
rodu ction
Ġed ges
,\ ,
by te
sh ot
Ġp refer
_{ (
s pe
Ġassum ption
R ed
Ġconstruct ed
P arent
ĠF ederal
Ġby te
Ġ+ +
Ġcomb ination
al g
; "
id ers
ĠU se
Ġop in
ib er
Ġo il
os oph
197 9
Ġdig ital
orn er
set tings
ish op
Ġp oll
` .
ĠB i
Ġtri al
Ġoff ers
n y
k o
Read er
M C
c f
}$ -
c ut
L P
gy pt
Ġw or
f ony
} %
Pol icy
ĠC ast
ĠD et
pos ite
ult ural
ov es
m ann
Ġfeature d
c ases
Ġs al
as i
as ion
Class es
sk i
el er
ym fony
Ġm ixed
ĠR equ
Ġinterest ed
Val ues
16 0
ĠMed ia
Ġact or
Ġold er
pect ive
st ein
ĠS pr
c ustom
er ies
OR M
Ġv s
Ã ¨
Ġp iece
v ol
ĠSt ep
B R
Ġr ise
per p
con nect
198 1
clud ed
W S
-- >
Ġhistor ical
fram ework
Ġtyp ically
Ġach iev
Ġl ived
M D
Ġb inary
Ġsit es
l ook
c ar
Ġreg ime
T ool
)\ ,
S ing
he lp
r ich
id ay
Ġgu arant
) ^{\
fr ont
Ġr ac
us band
Ġstr ugg
ĠAmeric ans
Ġcont ained
ĠM il
am m
st o
Ġdis s
Ġun less
Ġob vious
sec ut
Ġsim ulation
p adding
Ġpro f
Ġrequire ments
overn or
Ġdet ection
ĠS il
Ġb attle
HT ML
i pe
ĠB ur
Ġinteg ral
por ate
( *
Ġnumer ous
; <
F alse
Ġcult ural
Ġexpress ed
ĠS pe
re place
r ices
SS ERT
ĠP et
Ġdepart ment
M eta
Ġmaterial s
In valid
ang ing
st ore
Ġpair s
ĠO p
in et
ĠL ine
cl aim
Ġam plit
Ġh ar
p atch
ĠB ob
Ġm olec
Ġent ity
Ġt errit
m aterial
ĠJew ish
Ġh ospital
Ġcitiz ens
ĠF estival
ne ctions
ĠC am
= #
ĠI II
Ġprop ag
Ġfor ced
m c
it ness
Ġsh oot
go ing
Arg ument
Ġp aid
ĠSc ot
ĠO ld
ian a
Ġbecom ing
Ġcoupl ing
Ġp le
Ġv oc
O M
=" "
rom ise
Ġo s
ult y
un ct
D I
at tribute
Ġ+ \
A ME
M ain
Ġ} \
sh ape
ĠM ath
Ġestim ates
un ities
Ġla unched
sh ort
ic ip
Ġtr aff
ĠW al
agn ost
ĠL ee
ĠJ SON
ang ular
Ġpart ial
Ġin line
ĠJ im
Ġhead er
b u
Ġstreng th
Ġach ieve
} "
def ined
B ody
ĠF ort
w a
y an
s ive
ist ent
and emic
ĠV is
ar ation
c ategory
Fig ure
Ġaltern ative
] ]
ful ly
Ġoffic ers
Ġal one
Ġpro pos
Ġrem ember
Ġabs olute
d ist
D oc
ov ing
Ġtechn iques
W rap
N um
for all
bo olean
Ġun iversity
Ġat tract
b its
Ġth r
ĠS ervices
y er
Ġmus ical
Ġappro aches
Ġarbitr ary
ad s
ĠOlymp ics
Sy mbol
depend ency
Ġarchitect ure
Ġcomput ed
he m
Ġmin ister
Ġh idden
Ġto ol
ĠS wed
Ġs ampl
Ġst able
An y
Ġre sear
De bug
ĠF ri
Ġt ouch
ĠW ell
Ġent ered
ĠCol umb
Ġc ities
Ġcorre lation
Ġassum ed
Ġ( '
reg ister
F ound
ĠC ivil
Ġeff icient
Ġst ock
Ġtask s
Ex p
E rr
Ġth reshold
c pp
ĠThe ir
co in
Ġmur der
ĠV alue
ac ific
S ION
Ġs ust
Ġdiv ision
E q
Ġshow ing
Ġl attice
ak istan
Ġcre ation
Bo olean
' }
25 6
m en
Ġon to
ĠL ibrary
ĠM os
et ry
com ment
on a
ian o
ock ey
Ġseg ment
ĠCol or
) _{
-------------------------------- --------------------------------
at ers
197 8
E CT
ad r
Ġfam ous
ĠJose ph
air man
Ġor ient
ost on
Ġwin ning
Ġdetail ed
Ġat tr
ĠI d
ĠAs ia
ĠJ es
eff ect
z ing
mult i
pos s
block List
tog gle
mod ules
Ġrap id
ĠL ie
}^ *
og ene
Ġpolic ies
Ġnew sp
Ġag reed
D elete
Ġw aves
TE D
in itial
Ġl abor
ol ver
Ġexecut ive
g a
Ġcent re
C ar
l ers
C ustom
Ð »
ĠA wards
ĠM any
Ġlead ership
Ġdec ay
Ġintrodu ce
D ialog
197 6
sub subsection
Ġs ales
Ġsp irit
ans as
ĠMan agement
li e
j ust
Ġdep th
Ġins ert
Ġcoeff icients
Ġin tr
Ġpur poses
ĠIn itial
Ġal umni
ĠN avy
angu ages
ĠD om
Ġun signed
197 2
Acc ording
es ter
est s
Des criptor
aut o
f lo
Ġregard ing
ult s
Ġinvest ment
ph one
ĉĉĉ Ċ
Ġs ister
pm atrix
Ġdel ay
d ict
Ġcommun ication
Ġf ine
r ate
ĠW ood
Ġr ing
em ail
ins ert
J ob
ov a
On ly
Met adata
Ġp ush
Ġblock s
Ġiss ued
D P
Ġprocess ing
on ym
ĠJust ice
Ġby tes
ĠHT ML
ĠG ood
Ġhe ard
ĠY our
Ġcomm ission
Ġide as
ap plication
Ġm ask
it an
Ġscal ar
Ġdiffer ences
Ġimport ance
ph as
V ar
ĠM a
F urther
197 7
Ġp ure
r u
cl ip
Cl ick
im a
Ġrec all
plic ations
Ġser ial
Ġwas n
Se cond
pre c
call back
bl ue
Ġcy cle
C re
ĠH ome
Ġp aint
//////////////// ////////////////
ĠL ove
Ġprov ed
van ia
g est
ad or
Ġv oice
\! \!
Ġv ac
ĠE r
ra q
inst all
ack et
ĠBrit ain
f amily
Ġin nov
ĠÂ £
i ro
Ġprot ocol
ĠL in
ĠP ubl
ĠJohn son
ell i
Ġoffer ed
k ins
Ġst ress
ĠE vent
` ,
et ween
R oot
B efore
ad min
A pi
Ġt or
Ġviol ence
Ġach ieved
197 5
urb an
Ġcl oud
um s
ĠSen ate
197 4
ĠI O
j pg
Ġbehav i
and ard
Ġsing er
Ġemploy ees
er g
ol k
R ule
Ġinter val
ĠK ar
Ġst orage
call ed
Ġclass ification
Ġcl in
Ġslight ly
ĠA ff
Ġex cit
Ġsub set
est ic
ĠJ ul
ab il
__ (
text sc
uck et
j e
v ision
ĠO l
Ġse ctions
ple ments
Ġj son
Ġfootball ers
TE ST
Ġhouse hold
al i
Ġh usband
ĠE ven
Ġhapp en
ĠE mp
M B
En abled
) ^{-
s ime
EN D
Ġlat est
ĠR ights
Ġse a
sy l
and ra
Ġwrit ers
p icture
Ġ icon
ĠT our
Ġassert Equals
pl ugins
ĠPar liament
sime q
ĠB razil
u ing
clus ive
ner gy
By te
X ml
D uring
ĠAd ministr
Ġfund amental
Ġjob s
Ġtr uth
Ġex port
Ġd raft
Ġw rap
.~ (\
Ġcover ed
f ri
Ġprote ction
Ġinitial ly
Ġp ul
Ġco ast
Ġ$ $
ĠM iddle
ac le
Ġa ware
ĠS oviet
Ġanal og
197 3
N etwork
Ġ" /
u er
Ġocc urs
ĠU ser
N G
w an
ĠE gypt
IT Y
ta il
Ġfund ing
Ġvert ical
ann er
H S
F R
her it
Ġdef end
' ))
Ġappear ance
ĠL ord
Ġpert urb
s es
AG E
Ġdistribut ions
ograph ic
Ġall oc
ent er
ĠH ot
g g
Ġed ition
P erson
H z
Ġde com
ĠG lobal
ĠK h
Ġspe ak
Ġdirect ory
Ġwe ap
ĠT ra
Ġal gorithms
Ġcr iminal
ud es
AC E
Ġre ject
$ ).
Ġgr id
Ġindic ates
r ical
Ġstrong ly
Ġdet ect
Ġmod es
Ġauthor ity
Ġro ut
ank s
12 8
m argin
ĠA uthor
Ġtrans formation
Ġr are
âĢĿ ,
Ġvis ible
ĠMus lim
Ġ ul
ĠSpec ial
ram es
c ape
Ġcur ves
press ed
Ġstud io
ĠA L
ĠB ecause
Ġview s
n ames
Ġto ward
r ine
Ġcal c
sh all
ic ed
Ġar m
196 8
Ġprodu cer
Test s
ĠVal ley
ĠTechn ology
Ġ' /
key s
at ible
d ates
Ġmain ly
Ġp et
Ġax is
I X
ĠT re
Ġfind ing
Ñ ĥ
m ond
W idget
Ġden otes
r adius
Ġcontin ues
v a
St orage
ĠCent re
Ġle aving
Ġv ary
ĠE rror
) ).
ag onal
Ġredu ction
FA ULT
hen omen
Ġfa ith
Ġide al
U l
Ġrepresent ing
ĠIn formation
Ġcan cer
syl vania
Ġfocus ed
pe ople
Ġchall enge
Sh ow
st able
ĠSp ain
oper ation
Ġm sg
m ock
reg ion
ma zon
Ġsem i
ĠH and
he t
n ership
Ġs n
Ġn ine
Ġorder ed
P ackage
Ġk ing
ĠV iew
ĠTe am
Ġmeasure ment
ĠÂ §
ĠH aw
P RE
Ġres idents
ĠB oth
Ġj ourn
m aster
ition ally
ĠJ ac
Ġoper ating
pend ix
ĠN orthern
ĠIr ish
annot ation
M ed
Ġb udget
ĠPl an
ist ical
b c
ell er
M R
Ġindic ate
Ġ ens
Ġ( *
ce an
Ð º
Ġ ult
Ġown ed
G S
Ġw ood
ent h
Ġp an
Ġsaf e
Ġp andemic
Ġlearn ed
od ies
em porary
pt on
Ġh ydro
l ow
D R
il ib
M ock
r ick
Ġpart ner
ĠL u
Ġconduct ed
Ġ= \
Ġman aged
l aw
Ġinter actions
Ġadd ing
ĠN OT
ace book
Ġinv ariant
In itial
T ab
Ġsing ular
Ġup dated
Y ear
Ġ< =
} )$.
\| _{
n umer
Ġinstit utions
ĠJ ones
r ons
M ember
Ġg ap
Ch annel
Ġcom ments
ad ing
Ġpar allel
ĠSup reme
Ġsex ual
Ġ ),
ĠN av
Ġact s
Ġm ock
S ome
ir a
ĠDemocr atic
Ch anged
Ġro ll
$ $\
test s
oth ing
Ġattack s
ĠN O
p an
ĠP ri
Ġatt ended
Ġs chedul
Ġp ool
n one
ĠĠĠĠĠĠĠĠĠĠĠĠĠĠĠĠ ĠĠĠĠĠĠĠĠĠ
C I
Ġmed al
Ġadopt ed
Th us
el i
Ġdef in
Ġsub stant
ĠJ o
ur ies
Ġneighbor hood
u ous
ard en
Ġcirc le
Ġn am
ce ived
ay lor
ĠO nt
' ll
ud io
istr ation
Ġc at
{ $\
12 3
ri p
ĠS outhern
Ġw ild
ul f
ĠComm unity
al id
Ġint ended
ĠC opy
L a
197 1
ĠProfess or
Ġmod ified
ra wn
D i
for ward
Ġdr ive
Ġmass ive
ĠI P
Ġke pt
Ġpart ition
196 9
f ix
Ġdr iver
Ġto ols
Ġabs or
ĠG al
ĠP an
) }{\
Ä ĩ
ĠA R
Ġany one
Ġdes c
new command
ax is
p a
at i
gr id
) {\
Ġsy nt
import ant
Ġread er
che n
rem ark
Ġp icture
ĠS aint
Ġmat rices
Ġ Î
Ġpower ful
in line
Ġ{ $
Dis play
Ġdist ingu
1 10
Ġpro port
ex ception
he ll
st op
; /
dom ain
Ġreg ional
cm d
el a
Ġcons ult
Ġtyp ical
ier arch
ĠE lect
L java
Ġb lood
Ġo dd
Ġis land
Ġdec ades
Ġdepend ence
Mem bers
F loat
Ġtr ained
ĠI raq
Ġstat istics
Field s
im pl
sp ring
Ġinvest igation
ĠCon ference
ĠC ross
) _
Ġbusiness es
="../../ ../
Ġc ounty
cknow led
Ġdoc uments
M atch
Ġkn ew
Ġsp atial
Ġhand s
h y
Ġjav ax
Ġbenef its
ĠW ay
)$ -
ĠG reek
Ø §
Ġlim its
Ġtechn ical
ĠL i
Ġass igned
Ġbound s
Ġsc ored
ĠW ales
ĠOr gan
Ġs qu
L ock
pass word
ado op
he ast
medi ate
Ġcoordin ates
) \\
Ġart icles
sec urity
Ġdiscover ed
\ _
if ul
Ġl ies
ot i
D C
Ġb asketball
Ġacadem ic
it age
Ġad m
we et
sup er
Ġset up
Ġbenef it
Ġbel ieved
omorph ic
igh ter
Id ent
Ġp y
Ä ģ
Ġch ance
el ess
ĠP akistan
ff ect
Ġdeg rees
Ġserv ing
Ġpolit ics
Ġp il
Ġsymmet ric
Ġcirc um
Ġ il
sc ape
Ġp sych
Ġc ool
adi um
con nection
") ]
Ġread y
The orem
Ġenvironment al
Ġclaim ed
Ġpl anning
Ġapp arent
Ġspect ra
Ġspe ech
ang o
FI LE
ĠB oston
Acc ount
t w
k g
$ ^{-
}} ^{
im it
on ical
V ol
}} ^
Ġaff ected
~ $\
19 40
st one
ĠA N
ĠSund ay
Ġrepl ace
ub y
Act ive
Que ue
id el
J SON
ĠG ame
=" @
Ġper haps
Ġem phas
Ġexpl ained
Con st
ĠPenn sylvania
ott ed
Ġat tributes
tribut ed
Ġre ality
b ot
Con d
Ġcon ference
) ),
old s
epend ence
Ġag ree
Ġact ing
Ġis ol
ĠT ele
Ġst ellar
Ġre tr
. '
ar ia
un signed
Ġinstance of
Act ivity
Ġchem ical
Ġcr isis
W A
ev ents
Ġt ournament
Ġyield s
Ġt error
Ġf ans
ash ion
Ġb in
c uss
w riter
M ENT
s uch
Ġn orthern
ec es
Ġobserv e
TE X
Ġpret ty
196 7
map sto
Ġsu c
t wo
ass ets
Ġr an
ĠGa ussian
m ove
Ġchalleng es
ĠU RL
Fl ags
Ġdevelop ing
f ly
Ġs outhern
CH E
Ġn or
Ġcr ime
Ġtre nd
Ġhapp ened
it o
Ġt end
D el
Ġsatisf y
ro ph
let on
ak a
Ġmag azine
Trans action
tr i
Ġg ain
D T
Ġfore st
Ġprofess or
urre ncy
P erm
Ġs s
od ot
ific ate
Ġfac ilities
add r
Time out
ĠA ND
n amed
Ġadvant age
ĠT ext
. *
ĠM A
ĠS ir
ĠC amb
Ġro ugh
Ġhyp ot
b ad
M T
Ġr iver
t ik
str a
Ġwon der
ap es
m ic
Ġsum mary
ĠPol icy
Ġimplement ed
pl ot
ĠW all
u ctions
m osp
item s
ĠĠĠĠĠĠĠĠĠĠĠĠĠĠĠĠĠĠĠĠĠĠĠĠĠĠĠĠĠĠĠĠ ĠĠĠĠĠĠĠĠĠĠĠĠĠĠĠĠĠĠĠĠĠĠĠĠĠĠĠĠĠĠĠĠ
Ġex tr
ook ie
P ublic
Ġfund s
h av
ĠAn y
Ġsuc ceed
P ool
ĠWilliam s
19 45
pro file
rec ated
ik i
I E
ab y
Ġadj ust
ĠM ain
Ġaccept ed
Ġallow ing
he tic
pon ential
Ġconsider ing
Ġord ers
_ ,
Ġw all
Ġp henomen
ĠP op
The y
ri um
Ġatt end
Ġdepend ing
Ob j
co q
19 30
Ġex erc
ĠMich igan
ren ce
ĠF und
[ (
Ġoccurre d
Ġtri ed
ĠU sing
Ġv acc
ĠJ oe
Ġmechan ism
Ġcon vers
ĠS O
KE Y
Ġhe ar
Ġpe ace
ent ed
Ġdev ices
v s
Ġla unch
Ġunder lying
proto buf
n etwork
25 0
z z
D et
Ġ ice
hent ication
Ġf ellow
U sing
Ġconf irmed
g ers
ĠEmp ire
Ġact ress
ĠOn ly
Ġm arriage
Ġrecomm end
Ġar my
b en
Ġl ab
ĠM ajor
b ell
id ae
ed ge
W ill
Ġw allet
art s
ĠS ar
are a
Ġconver gence
ĠFrancis co
C F
ĠMed ical
here nt
ĠRep resent
Ġm essages
Ġm orph
pr imary
- (
%% %%
6 00
w er
Con s
Ġkey s
Ġse asons
Ġh tml
pro position
Ġext end
r idge
pro perties
ĠP oint
ĠB ack
W orld
Or ig
M I
ino is
Ġbr and
Ġen able
In it
Ġveh icle
Ġsuggest ed
T ABLE
amp ion
un te
ĠF ed
ĠEx ecut
M ay
Ġcall ing
Ġpolitic ian
AR Y
os is
Ext ension
sk y
em y
al ing
ĠPl ay
Ġ ^
par a
Ġ&= &
Ġprinc iple
Ġsuccessful ly
H ome
Ġh uge
ĠĠĠĠĠĠĠĠĠĠĠĠĠĠĠĠ ĠĠĠĠĠĠĠĠ
Ġsup ply
Ġc ref
ĠM ov
_ ->
ĠDef ault
en ant
b as
Sup port
ĠOh io
Ġe lem
Ġcon sole
}) +
ad el
Ġscient ific
d y
ĠF inally
th read
ĠF unction
Ġmatch ing
flo or
ĠE U
196 4
} &
ĠH ig
ĠV AL
Ġme ant
l as
Ġd b
ĠO x
ĠStud ies
Ġent ries
B P
A v
not ation
Ġcol on
Ġcandid ates
ug by
==== ==
sc roll
Ġconstr aint
astr ucture
ĠB ow
Ġman ner
Ġm apping
ĠEn ter
) },
Ġm useum
S ch
Ġe lections
Ġinstr ument
ĠJer sey
Y k
a ug
Ġwid ely
Ġded icated
ele gate
Ġsol ar
@ "
Ġyou th
ĠP ower
ord ers
Not Null
Ġreve aled
M sg
E arly
ĠK ong
og rap
Ġinterest s
Ġvis ited
ĠComm on
ĠKore a
ly ph
h ar
ĠJ eff
Ġtr igger
Ġvict ory
et ts
M edia
Back ground
Ġv ectors
ĠSt e
ĠG ir
"> &
Ġpro min
B I
ipl es
ob s
Ġgir l
ĠR adio
an es
Ġstart s
Ġadv oc
z en
ab eth
atur day
ĠR am
ib li
S cope
( !
is er
ĠS U
Ġmark ed
St ep
ion e
Ġbut ton
Ġplan et
anc el
p ay
Ġs pl
$ ;
Ġexpl ain
Ġtraff ic
e ach
ĠP acific
J Q
Ġdynam ic
B E
ĠOnt ario
Ġre ct
IN FO
ĠB ern
Pro p
ex ists
Dat abase
and on
iv ery
ĠF ree
Ġag ency
ĠQue en
Ġp i
Ġrem ark
h ome
ĠRe port
Ġd aily
Ġc ov
s ite
cont roller
Ġmin imal
t otal
Ġprinc ipal
Ġvers ions
Ġk ernel
Ġch annels
Ġn g
Ġhand ler
At tributes
Ġas ympt
drop down
gr ade
l at
ĠPol ice
BU G
ilib rium
ĠE very
Ġexper t
- $
t ed
Ġind eed
ach us
Y i
ac ro
In v
A uth
script style
ĠM aster
Ġcred it
Ġsom ew
Ġstat ements
)) )
ĠAs ian
tik z
I ST
Ġdem ocr
ĠM P
m i
us es
m ma
S end
C are
g ency
h adoop
MA X
ors hip
ĠA ction
ĠGeorg ia
m I
| _{
l g
19 20
n n
Ġoption al
Ed itor
Ġap i
des c
Ġstand ards
' (
ĠBl ue
Ġauthor ities
force ment
ĠS ol
) "
Ġres on
=" ">
ĠV an
ap pe
ch annel
ip ality
a ught
on to
ook s
ĠHe ad
Ġf ear
\ {\
ĠL ead
Ġrecord ing
lim it
ĠRepublic an
Ġd imensions
Ġf ill
ĠV ersion
ts d
Not es
Ġgalax y
Ġp od
en ess
b ury
S M
ver b
th rows
rec ord
up s
Ġequip ment
Ġaud ience
arri er
Ġcolumn s
c am
o ir
Eng lish
10 1
Ġopt ical
Ġhous ing
Ġbal ance
ĠPol it
Ġprim arily
w ords
Ġchang ing
r ase
ig er
ĠĠĠĠĠĠĠĠĠĠĠĠĠĠĠĠ ĠĠĠĠĠĠ
Ġloc ations
196 5
] :
Pro duct
Ġenc oding
Ġb tn
O e
Ä ±
Log ger
Ġnot es
g ment
Ġearn ed
Ġt al
Ġ% }
LO G
A F
display style
que ue
lo op
un ior
ail s
ur er
ĠT ask
r andom
se lected
ip age
Ġpr ime
Ġobserv ation
Ġeval uation
ĠJack son
ĠE p
Ġab stract
ĠJ r
ĠHamilton ian
tain ed
ĠC y
8 00
ĠF alse
tx t
Ġdescri bes
P AR
Ġth ick
Sec urity
C ap
R R
[ $
ĠLat in
ur ance
Ġmet al
param eters
aw a
b ro
Ġcon clude
s creen
ĠCor poration
Ġopport unities
p res
Ġch ampionship
i able
Ġl icense
Ġro les
on av
Ġtrack s
Ġfig ures
ĠPh ys
Ġm orning
C G
196 6
nap shot
ĠChampionship s
Ġspec ifically
, $
ĠG i
Ġthem e
p ir
Ġnot ation
p ot
man ager
st ats
Ġsett lement
r id
ist ed
ç ļ
Ġex ecution
Ġexper i
con v
G en
Ġte aching
^{ +
ĠU kr
her ited
ĠM ond
Ġlarg ely
is c
ĠB attle
j query
achus etts
Ġcon ven
ĠC are
ĠB ul
l ife
p erson
form ance
ĠOr ig
sc ill
ĠSt an
min ipage
Ġeff iciency
ed it
18 0
st ances
ĠFurther more
Ġhigh light
in ity
Ġsol ve
ub V
ĠB as
Ġs ides
Ġcompos ed
By Id
ĠC a
Direct ory
pl us
Ġcomm ittee
-> _
ĠF amily
Ġang ular
K oi
Ġapplic able
Ġ era
S w
T wo
Ġl ayers
D em
m o
ĠH arr
Com par
çļ Ħ
Ġsuggest s
ĠL ab
op her
. __
JQ Yi
Ul I
Ġcoun cil
() {
I B
c QL
MN mI
tf Gu
Yk Koi
ubV tfGu
cQL BJ
YkKoi ubVtfGu
JQYi UlI
ev ed
ĠN ode
ĠAnd rew
it les
ĠR etri
Ġjust ice
Ġso ft
SI ZE
ĠN umber
f i
Ġregister ed
} }$.
Ġopin ion
Ġconc ert
YkKoiubVtfGu Oe
I MP
s ince
! [
Ġphys ics
ĠâĢ ¦
l ate
U ID
ĠM en
Ġm iles
w hen
Ġover l
Ġuncertain ty
Ġh ab
n ic
d ependent
ĠIll inois
Ġsk ills
ĠW indow
s chema
ar se
: #
Ġa wait
li k
Ġsh ock
ĠS ong
ĠR ay
uck y
Ġd oll
Ġsecond s
Ġdifferent ial
Ġmon itor
Ġcharg ed
Ġdef ense
Ġde leg
G R
burg h
ĠU r
s ave
Ġd ir
Ġestablish ments
Ġst reet
ĠP ass
Ġlabel s
s ch
l ayer
Ġf le
ĠEd ward
Load er
ic er
[ :
ogene ous
G eneral
M atrix
Ġbu y
Ġear th
Ġimprov ed
VER SION
cond ition
}( {\
Ġtr ace
ĠE astern
Ġtheore tical
B it
ĠThe atre
ĠW ater
Ġw ants
Ġmed ium
ĠS uch
O wn
Ġus ual
ĠCar l
ble m
RO M
Å ¡
ĠP age
Ġle aves
Ġbe am
Ġpor tr
assert Equals
ock er
Ñ ı
ĠS and
ĠP rem
} }$,
Ġindu ced
Ġact ors
Ġfunction al
Ev ents
e cho
ĠM ember
ĠTr ust
Ġbr ain
Ġpre par
os itory
Ġmass es
} )$,
Ġrecogn ized
Item s
) ">
ĠM ult
ĠW he
Ġinteg ration
Ġs ell
Ġorgan ized
ĠSc iences
ĠL y
P ATH
Ġfac ility
od d
k w
ĠC oll
Ġext ent
com ponents
Ġsign ature
ed itor
ĠCo ast
ch or
Ġdram a
Ġmagn itude
Ġinvolv ing
Ġthan k
}{ (
Ġl anguages
Ġadv ance
is lation
ĠF acebook
Ġp lease
Ġrepe ated
il ing
Ġinstall ed
Ġserv es
ĠL uc
anc er
Ġcy cl
ĠFr iday
u v
onav irus
l arge
il a
Ġcomplex ity
M OD
ĠN on
Fil es
ĠComm and
ac count
F inally
ĠC ard
Ġd anger
Ġcover age
ĠC ro
Ġge ometry
s ol
Ġ ..
() ));
Ġdisc r
Ġdiv ided
ell o
uz z
ĠHistor ic
Ġw itness
t an
Ġhe at
O pt
S uccess
if ts
)) );
j ar
Ġen abled
ĠColumb ia
v ing
F ull
Ġdam age
el d
U LE
Ġinfin ite
ĠT R
ĠE nergy
ĠF our
d iff
Ġcapt ure
g it
Stat ement
erv ative
av it
Ġad vert
Ġ ener
Ġsupport s
let s
Ġp owers
am ber
iz able
Ġf unc
Ġdes ired
h bar
Ġdis pl
config uration
Ġconcern s
eng er
\ /
Ġb oy
ĠA ri
ĠSe a
Ġgrad ient
Ġver ify
iv ation
ag ers
T A
ĠK ent
Ġnuc le
pos itory
g reen
" `
c b
ĠMin istry
ele ase
Ġbel ief
Ġthink ing
Ġpen al
Ġ" "
ĠWil son
ĠJ on
L IC
S ymfony
de cl
h idden
ĠIn ternet
Ġscatter ing
Ġh ole
Ġcon j
Ġvoc als
In ternal
Ġassoci ation
Ġf re
Ġaspect s
eng ine
Ġcertain ly
semb le
s ys
iven ess
Ġscen ario
Ġr aw
ĠL ocal
Ġsecond ary
log ger
Ġexpl an
Ġoptim ization
ĠI l
Ġb att
Ġcalcul ate
ĠM id
sum er
osoph y
) +\
e z
Ġg rew
Ġ[ ];
d p
h u
Run time
Ġw estern
type of
ĠM u
33 33
ĠR o
Ġthous ands
sh adow
Ġd ie
Ġacqu ired
it ivity
ĠL android
S Y
p are
$ ~
h ard
n i
Ġextrem ely
enn is
Ġloc ally
Ġf lex
Ġinc ident
ath an
ĠR os
T erm
Ġh our
am in
ĠUp date
f old
Ġt ab
ron ic
Ġst ability
Ġb right
cc cc
con g
Ġanc ient
Ġs an
G C
Con str
ĠI ss
Pr int
Ġag ents
Ġcomm itted
Ġo scill
v in
ĠH ong
ĠA re
EX T
ï ¼
te en
Ġfor t
Ġperform ing
ĠIn vest
il ly
print f
ĠH ospital
Ġrequest s
Ġposs ibility
ĠP aram
Ġinstit ution
$ /
Ġdec isions
du ction
Ġpred iction
Ġcam era
Ġcaus es
ĠPr ime
ĠMass achusetts
Ġfe at
est ion
Ġtechn ique
to ol
w orld
G raph
w ater
Ġrot ation
L C
ar ters
P anel
Gener ic
ing ly
Ã £
circ le
Ġexpand ed
Ġtre es
Ġat mosp
er ial
++ ;
s en
h orizontal
Ġrec ip
Ġa wards
Ġlook s
ĠOb ama
Ġcharg es
d em
ĠN ations
######## ########
Ġd og
Ġpath s
i ate
In s
Ġtre ated
Ġobject ive
poss ible
all oc
clus ions
ĠG overnor
not es
Ġhon or
Ġcalcul ations
ĠM ah
M r
Ġp seud
Ġsubsequ ent
Reg ister
com pl
ĠBro ad
ĠB u
ĠR h
U L
f ail
Ġn arrow
Ġdecl ared
Ġs port
12 5
Ġtw ice
Ġrefer ences
or ough
child ren
ĠPr ince
ĠProv ince
ĠE st
act ic
Ġleg isl
at io
Ġcon nections
Ġfe et
Ġsupport ing
by tes
IC E
ty ped
Int roduction
Ġl ie
ĠDes ign
N ational
196 2
iz abeth
ĠScot land
iter ator
Window s
ĠIm age
int on
ird s
p et
Ġperm an
c ert
Ġend s
Ġflo or
Ġtell s
V D
Ġ$ |\
gener ated
ĠK enn
F S
() ).
A uthor
ĠBro ok
H igh
Ġarr ived
Ġex cell
Ġinv alid
Ġre form
Ġposs ibly
Ġc er
Ġturn s
m ass
Ed it
F ix
ĠEn vironment
ev al
ĠS ta
Iter ator
i y
Cl ose
ĠDan iel
NavBar Cell
) -\
h ow
ential s
'] )
sv g
196 3
ĠO ption
Ġgrant ed
Ġe q
T otal
Ġpre v
Ġz one
ĠC P
Ġgraph s
ĠOx ford
Ġlist en
ĠT H
Ġm ental
Ġbr idge
Ġengine ering
um es
N ULL
X ML
Ġim plements
Ġco al
ĠL ast
Ġres ident
fl ags
Ġexplicit ly
ST ATE
Ġpattern s
Ġc ategories
S pace
ĠGu ard
Ġpart nership
ĠV iet
id en
Ġcalc ulation
Ġcomput ation
Ġbeg ins
ct rine
Ġr ich
Ġph one
FF FF
The refore
Ġcan cell
end or
F IG
> \
ĠA nother
Ġex ceed
ĠN ight
Ġcol lected
Ġse at
Ġb ond
Ġn arr
Ġsh op
Ġwhere as
im b
Ġ[ [
ĠT w
Ġindust rial
) )$
eg r
ĠEx t
ex ternal
Ġfl uct
Ġcompos ition
Ġfact ory
ĠK en
Ġtrans lation
le an
Ġelectron ic
S N
Ġc row
Ġshe ll
ict ures
per iment
ing ham
ro ut
Ġc ensus
Ġconv ex
Ġcoordin ate
Ġpers pective
$ ),
ĠĠĠĠĠĠĠĠĠĠĠĠĠĠĠĠĠĠĠĠĠĠĠĠĠĠĠĠĠĠĠĠ ĠĠĠĠĠĠĠĠĠĠĠ
ĉĉĉĉ ĉĉĉĉĉ
assert Equal
Ġrecogn ition
w all
ĠS pace
Ġest ate
ĠH a
p red
Pro file
* )
ĠL o
end ment
ĠS aturday
w ild
Ġj ump
Ġac comp
Ġsh ut
s u
Select or
Ġ ip
ĠW ild
ĠD own
c ref
to ols
Ġfil ed
Ġp m
ach ment
Ġdr iving
S m
ĠS E
Ġhapp ens
z ed
Ġs ym
con tains
Al though
ĠT aylor
ĠC irc
Ġag greg
ut able
Ġsup erv
% ,
s a
is ely
Ġdown load
D ouble
Prot ocol
ĠF ar
ĠWe ek
op ic
Ġ urban
Ġsp ot
Ġamplit ude
ind s
Ġm ys
t or
Ġautom atically
t mp
V ideo
h l
ĠB ang
Ġpract ices
B B
Ġl um
}$ )
Trans form
ĠW ho
Ġeval uate
Ġpat ient
Ġdefe ated
ĠSt art
Ġ io
Ġwe ights
par agraph
ult ane
Ġa head
por ated
ĠCon fig
ymmet ric
em on
Ġpl us
Ġadv anced
Ġbig gest
aw n
Ġnear by
Ġbuild er
ig ital
ĠB O
ist ence
Ġprov ince
? âĢĿ
ant om
_ (
im ated
Ġapp lying
Se lected
Ġsp an
V M
W R
Ġclust ers
at tributes
Ġr ational
Ġhous es
Ġcont roller
ay a
less sim
r an
comple te
av or
Ġrece iving
in ate
che ster
} </
ĠPal est
G lobal
Ġcomput ational
Ġscal es
sw itch
ut f
eg o
Ġin struction
ĠW alk
ĠM ike
Pro xy
Ġtop ic
hand ler
H R
ĠM ot
Ġappro ved
ur is
Ġgen us
Ġaccur ate
Pl ugin
ire ment
Ġrem ote
Ġconf irm
Ġentire ly
Ġret ired
Ġrob ust
Ġemploy ed
ograp her
app ly
Ġop posite
res et
Ġrest aur
To String
Ġpass ing
tab s
Ġcl ients
Ġfind s
Ġrail way
og en
ĠChrist mas
igr ants
Ġoper ated
Ġap pend
Ġwe alth
art icle
: }
Ġtherm al
Ġpl anned
ĠTO DO
w p
t ion
ON E
Ġsold iers
ĠW is
A U
Ġm obile
Ġinsp ired
ph ia
ĠW ed
C ategory
Ġsust ain
or row
Ġb ands
b rowser
ĠS ports
tr igger
] }
as ters
ĠCE O
fl at
ĠS om
D etails
Ġdom estic
Sim ple
cre d
Ġleg islation
Ġrepresent ative
S eg
ĠCon stitution
Ġinst ances
) --
group s
Ġex ponential
B i
ĠN et
am ing
ne ver
Ġc m
UT F
Ġpolitic ians
) }_{
ag r
Ġcop ies
ap ol
196 1
% .
Ġg lob
}{ |
ĠInd ex
P ay
un ately
Fe ature
Ġv ision
if iers
ĠI R
cri bed
up load
Ġfin ish
p resent
ĠL ittle
Ġnecess arily
G O
g ies
Ġdi am
ĠA ccess
Ġcommon ly
Ġclos ely
ĠA mazon
Ġcustom ers
ĠExecut ive
adel phia
ĠJ ava
ĠP M
Des c
Ġd ream
ĠD utch
olog ist
Ġag ric
in son
ĠG ets
ĠN Y
Ġtro ops
er ate
Ġport ion
Ġconcern ed
f ixed
Ġpro jection
Ġperson nel
Ġd ro
erv es
IP T
Ġtalk ing
Ġ{ '
En um
Ġsubsequ ently
Ġv irus
Ġanim als
Ġpers ons
J ava
ac ent
ĠĠĠĠĠĠĠĠĠĠĠĠĠĠĠĠ ĠĠĠĠĠĠĠĠĠĠ
Ġsatisf ying
Ġtra ject
con n
194 4
se x
ĠS i
Ġtem por
Ġor th
Ad apter
Ġresear chers
Ġc e
ĠRe al
ĠAb out
up l
Ġcom edy
f ol
ĠD ar
ign ment
eli hood
L ayer
Ġxml ns
' d
Ġd uration
ĠInd eed
Ġsh ips
S ER
e lect
b re
uc ial
B rowser
ĠPort ug
Gr id
Å į
ost er
Ġcapt ured
Ġw el
ĠS I
Ġrespons ibility
ot on
Ġas ync
icens ed
Ġle mma
Ġnam ely
| }
ar iance
Ġsu itable
B ound
ul i
D av
Ġfl ight
ĠI mm
rel ations
Ġ[ \
ĠP ath
N T
Ġequ ality
Ġst ored
al so
Ġstr ings
Ġmat hemat
Ġgener ic
Ã ±
Ġnew ly
Ġjud ge
get Name
Ġte le
ĠPhil ipp
d ialog
Aut o
Ġcomp r
ro le
Ġw ish
_ -
il bert
Ġpo inter
agn etic
ist ant
: =
&= &
Ġcl ick
Ġdis crete
ur ations
Comm on
Ġconsequ ence
Ġb ass
enc ing
Ġd ialog
F E
Ġrelig ion
Ġk ids
S QL
ĠA M
b d
res p
Ġsufficient ly
Ġnav igation
ate ver
D uration
Ġsurround ing
Ġneg oti
ĠC H
get Element
Ġprov ider
ĠC ub
Ã£ o
ĠCh ris
ord an
on ia
Ġdet ected
ĠAlex ander
Ġir re
Ġ= ========
Ġscal ing
g ame
Ġbe at
Pro ps
Ġprogram ming
Ġch apter
col lection
inal s
Ġk ill
id x
ĠCopy right
ĠP en
Ġhe ro
h box
act s
M any
j oint
Ġs yn
Ġcont rolled
rit ical
ap h
Ġd ict
Ġneut r
L o
Ġnewsp aper
ĠF ire
Sc roll
ĠL ike
con str
ĠCont rol
A re
urs day
Ġcon vent
ul pt
ar ity
Ġbi as
ĠMond ay
ĠJes us
Ġhe av
ĠPol and
Ġwin ner
IN D
ĠF I
Ġveh icles
ĠAdministr ation
ĠB ell
key word
Ar ch
) [
Par se
G N
Ġcharacter istic
ĠMc C
R oute
p icker
Mem ory
Ġre action
ĠL im
Key s
ĠF air
Ġreason able
Ġco inc
Ġcont ro
prov ider
Ġb rowser
IN S
Ġfif th
nes day
Ġsum mar
ĠL abor
f ire
Ġw arn
Ġpl ants
Ġprof ession
com es
Ġint elligence
ĠT witter
ly wood
Ġden oted
Ġben ch
Ġhom es
Ġsing les
Ġbehavi our
Ġg ender
th ur
Ġindic ated
rop ol
Ġc ars
Ġvari ation
P ORT
oun try
mer ce
ĠG ar
Ġeffect ively
195 6
Ġ ri
Ġp refix
Ġpublic ation
ps on
U nder
et ing
a is
C ast
ra ham
F ail
pro ps
Ġc orner
Ġphys ic
Ġstat istical
Ġthe rap
Ġinst ant
ĠC ase
Ab stract
ĠP ers
ĠRes ource
ĠL ight
Ġphot o
Ġt ail
=" ${
O UT
g eneral
D on
st ood
id i
Ġ[ "
ĠB oy
IV E
ess ions
ĠTh ree
s at
ĠS her
p refix
Ġout er
ĠCol lection
ĠAd v
Ġpredict ed
Ġsatisf ied
Ġeduc ational
Ġfac ulty
Ġ ion
ch ain
ĠR og
ĠStep hen
c oh
ĠK r
ens es
^* $
Ġbro ken
Ġhistor ic
Ġhold ing
Con f
Ġb undle
ct ic
Ġent ropy
Ġconst ants
Ġh or
Un ited
Ġb log
% )
Ex pr
Ġpi eces
Ġprep ared
ĠBer lin
spec ial
Ġor bit
F in
Ġrow s
ĠIO Exception
Ġthe ories
om ent
ub ble
Ġext ensive
Ġreview s
s ample
fe ature
im ination
Ġexpl o
am i
Con n
an th
Rep ository
he im
ist ing
ink ing
Rem ove
Ġv en
RE AD
Ġbo ost
P y
{ %
Pat tern
Ġdec ade
] $.
Ġre q
ro ke
Ġepis odes
clos ed
195 9
og ram
Gener ator
Ġexper iences
ab out
ĠL ew
ĠEngine ering
) }}
ues day
Com ment
W N
ag ent
onom y
ip ped
Ġd rawn
Care er
pl atform
op ed
serv ices
Ġalong side
Ġv on
Ġmay be
Ġab und
G P
ack s
S che
sim ple
d etail
V ariable
ou red
II I
ĠL ev
Ġs ale
Ġrelationship s
Ġpromin ent
Ġqu adr
enn es
Ġ( _
p ic
Ġap pre
ouri er
ĠB a
fil ename
Ġcontr ad
= >
Ðµ Ð
194 8
it ative
F unc
à ¸
ĠTor onto
ST AT
Ġaud io
Ñ Į
un a
to k
includ ing
Ġg one
Ġm and
Ġag encies
Ġconstit ution
IT E
00 1
plic ated
ud a
Ġtrans mission
Ġtyp ename
Ġcoeff icient
t c
prot ected
l ay
br ace
\ }$.
Ġcamp us
195 8
ĠÂ »
Eng ine
Ġradi ation
TH OD
unn el
em an
ĠH om
N odes
iv ated
Ab out
ĠD at
194 2
f d
ĠK im
Reg ion
Ġassum ptions
ĠB BC
ater n
am az
Ġ{ {
Ġar ts
ĠB lock
Ġf ashion
ĠSup port
t ags
Ġe ye
v ari
19 18
Ġd ire
ad ed
H is
T T
Ġintrodu ction
function s
ĠAss oci
Ġes cape
Ġl iqu
y o
ĠJ ean
Po inter
\\\\\\\\\\\\\\\\ \\\\\\\\\\\\\\\\
Ġp ars
Ġfight ing
R est
Ġalleg ed
Ġbeaut iful
F ailed
Ġd ust
ĠPro cess
equ ence
al gorithm
19 39
Ġgreat est
ĠUn ivers
ak i
Ġclub s
let ed
Ġt aught
ĠE lement
ide os
sing le
C B
ã Ģ
ok es
ĠCl ark
at ar
Ġinfr astructure
ap ore
ĠS us
Ġinvestig ate
Ġsp ons
ĠS ign
ĠB ad
b p
rior ity
ĠRev olution
$ :
Ġdo ctor
Ġem ot
CO MP
plic ity
Ġf n
Ġex it
ĠR en
Ġv ot
LE CT
Ġtr ail
å ı
TEX T
ĠSt eve
big l
Ġdo or
Ġsp ring
ĠSt ation
ĠEl izabeth
Ġr ural
Ag ent
ĠN AME
an z
G A
m ask
Ġlist ing
Ġult imately
br id
Ġl ayout
Ġassist ant
____ ____
Ġf resh
m n
Ġdes cent
Ġcon clusion
Ġexpl ore
Ġj Query
ĠR ome
ĠR om
h ol
', '
ex pect
Ġd ance
Ġtest ed
S ocket
195 7
Ġque ue
web pack
ades h
M apping
Ġconf idence
Ġa thlet
Enc oded
yd ney
DE BUG
Ġfl uid
Ġtransfer red
Ġin verse
h ide
ap l
es ian
ut ed
Ñ ĭ
Ġun able
ĠCon f
Ġfl ags
Ġo k
Ġl it
ĠA li
Ġattempt s
sub s
s afe
Fil ms
ĠD ir
Ġmark ets
per t
Ġs quad
Ġinter section
Ġex pos
put er
Ġsee ing
Ġr g
ĠL ink
Ġprom ote
Ġs izes
ser ial
B rit
Ġa id
ĠD O
Ġcont emporary
col Last
big r
nav List
ĠFore ign
Ġatt orney
Ġhe aring
Ġca ref
194 1
Ġs un
n il
met adata
Ġm ist
Ġp al
orig inal
ĠAff airs
Ġb urn
g ov
pro gress
ĠAg ain
ĠT oday
Ġ ×
N OT
Ġpract ical
\ ;
are t
ap ed
typed ef
et al
B AR
Ġcommun ic
T ags
Ġtype of
y g
Ġtr av
Ġus age
ĠC A
math op
Ġop position
Ġweap ons
i Äĩ
ĠĠĠĠĠĠĠĠĠĠĠĠĠĠĠĠ ĠĠĠĠĠĠĠĠĠĠĠĠĠ
Ġrepresent ations
ze ch
ĠH ung
ĠReg ion
ĠPro perty
ĠS em
Ġmed ian
ex pr
Ġdestroy ed
-------- ----
ix els
ĠL ear
ibr ation
" ],
Ġadministr ative
/ (
iffer ent
Ġf an
Ġsim ultane
Ġass istance
Ġdecom position
requ ired
art he
ĠJew s
Ġreturn ing
Pl ay
Ġequ ilibrium
oc cer
ĠChild ren
Ġsampl ing
Const ants
âĢ ¢
Ġf uel
Ġbel iev
Ġessential ly
Ġgir ls
ĠA rea
ĠD onald
Ġmot or
R AN
be an
}[ \
Ġlook ed
}) }
ĠN ext
T ra
rop ic
Ġmat ters
ĠL ive
pre v
own er
et ies
ĠI E
Ġconstruct or
Ġhelp ing
ĠM ir
Ġbul k
our se
Ġjourn ey
Ġcomput ing
pl an
ĠInst ead
P res
Ġde bt
Ġvol unte
}} _{\
Ġprec isely
w ill
ĠDes pite
ĠS D
Ġbase ball
Ġv ice
per ial
Ġcould n
ĠM icrosoft
ĠBel g
AD D
Ġaccount s
ĠTur key
w ing
ĠPri ze
re lation
S em
}} )
ĠVictor ia
u ating
col First
Ä į
ĠR od
Ġpro xy
Ġrel ax
ĠO s
ĠB on
ask a
Ġinj ury
pl ane
ĠPhil adelphia
ul ator
Ġf ell
ĠM ake
ĠMed icine
ĠG iven
Ġm arg
Ġfrequ ently
Ġfeat uring
Ġstrateg ies
li ance
Ġt x
ou ter
j unit
âĢ ħ
O ST
re port
us hed
G iven
194 6
R ole
ĠTh rough
CHE CK
Â °
195 5
J S
ĠA SSERT
b rief
au x
Ġf iction
C red
ĠH ash
v als
ĠOlymp ic
Ġdatas ets
ĠB and
Ġest imation
J an
z one
is or
Ġsequ ences
D est
Ġp ra
ir ation
Ġb odies
ĠBe ach
Ġacc ident
ĠL ater
Ġcircum stances
194 3
Ġdeb ate
m al
Ġst uff
ĠCor ps
ĠS N
Ġcar bon
Ġre new
Ġconvert ed
Ġw arm
Ġmov ies
S ync
Ġ\ ]
Ġsol o
] $,
H C
M s
Ġlet ters
Ġparticip ants
ĠF ollowing
( __
or i
ĠI V
,\ \
at on
L eg
$ _{
coll apse
Col lections
Ġpre ced
fri end
ĠE nt
Ġcomp re
ĠF ox
j ob
Ġse ed
Re port
C am
Ġterrit ory
ĠC R
ĠĠĠĠĠĠĠĠĠĠĠĠĠĠĠĠ ĠĠĠĠĠĠĠĠĠĠĠĠ
Ġinterpret ation
Ġh ol
Ġm yst
Ġsh ares
as et
Sum mary
ER S
Ġacc ord
fg han
is a
Ġp un
Ġint ent
struct ure
ĠR ight
op es
ĠN E
Ġread only
ĠT erm
en able
195 4
ĠM essage
Ġint ensity
194 7
T x
ĠH un
ĠA venue
ĠV ill
ib ilities
Ġb omb
u um
Ġind ices
ann a
Ġlink ed
Ġ" ,
err ors
Pro of
f x
Ġcre w
cuss ion
j ango
Ġcover s
7 00
Ġsch olar
At tr
Ġ ],
Ex ecut
Ġp it
f ast
Ġintegr ated
Ġpass word
anc ell
ĠP RO
pro b
ĠN ether
ĠOff icial
A nother
head ers
Ġ ^{
Ġm ir
Ġv otes
Ġarr ang
Ġr ig
ĠIs lands
m aven
z h
ĠH ard
ĠA P
[ -
Ġr is
Ġunivers al
Ġr ain
Ġsent ence
Ġpay ment
d etails
Ġperform ances
se par
Ġtransl ate
ĠA D
ur d
un ique
og y
ĠDef ense
Ġex cess
ĠS ource
ap os
Ġmax im
. ");
Ġhapp y
Ġsup posed
ĠA k
">< !--
Ġf illed
ii i
AL SE
ĠSpr ing
Ġm ent
Ġexperi enced
Ġ= ======
Ġrequest ed
ĠF C
prot ocol
Ġload ed
th row
zon a
Wrap per
Ġen v
Ġin ject
f all
Ġresult ed
empty set
A CT
Ġgrad uated
Ġm enu
Ġsec ure
el ly
Ġhel ps
b asic
Ġd imensional
ul ating
Ġs ac
Ġgu ard
ĠN C
ĠCamb ridge
Ġrev olution
ĠRetri eved
S cale
Ġlow est
g p
D iv
L android
Ġas sets
Ġin n
all classes
Ġeas tern
Ġab use
Ġtr ivial
Ġc tx
Ġend ing
st orage
}\ ,\
A ng
P refix
p arser
Ġstand s
195 2
Ġderiv ative
Ġd iver
rupt ion
Ident ifier
d one
Ġnot ion
dep th
Ġcomp ens
ĠD C
Ġident ical
ĠA sh
ĠC at
ĠKore an
Ġe yes
ĠScott ish
Ġmys elf
w t
r ank
f c
ch anged
sl ash
ĠE th
H L
N ov
Ġdou b
Ġres olve
Ġdepend ent
B est
Str uct
ĠOn ce
Ġc ook
in er
Ġent r
ĠOb serv
Ġc atalog
ĠB efore
Ġdis abled
ĠAn th
Ġsize of
or ient
ag a
tem p
Ġmanif old
() </
Ġmom ents
Ġwe ather
Ġthan ks
Res ources
Ġmax imal
Ġref ers
ĠInt eger
us ers
ĠSt ock
osp it
Ġsepar ated
H P
E V
}} ^{\
Ġar ms
b ec
ĠOff icer
ic ing
, {\
the less
nd ef
Ġent itled
Ġcon tribute
ĠW rit
che stra
Ġimmedi ate
194 9
Ġproper ly
L emma
ĠE ll
ok ed
ident ifier
ag ues
Ġemploy ment
Sh ort
âĢ ĺ
195 3
ĠD ocument
S pe
aj ax
Ġc as
Ġyoung er
Ġschedul ed
W rit
}} .
Sh ape
reg on
ys ical
Ġcrit eria
con sin
i ota
ĠAp pendix
Ġso le
Ġp apers
Ġsub section
ĠC ur
ag g
ur ches
ow ed
! \
put ation
t body
ĠG ro
od s
e en
ĠB al
d frac
amaz on
Reg istry
> ::
v ect
at om
Ġign ore
ĠV ice
Ġconstit u
y al
Ġtarget s
build er
Ġac compl
c u
ul ner
v ard
L in
Ġas sembly
Ġpurch ase
EE EE
i em
Ġd a
Ġprov ision
ĠW AR
Ġref uge
Ġt itles
im m
ĠBook s
Ġconsist ing
ĠM ill
ĠW at
e a
Ġ{ "
Ġclin ical
play er
Ġpredict ions
qu arters
Ġunder stood
ĠWed nesday
Ġabs ence
h ref
Ġad min
S F
ex ecute
ow a
h ave
Ġpar agraph
M icrosoft
el lect
test ing
an try
log in
ĠS u
Tr ace
wrap per
Ġrough ly
cept ions
t frac
Ġcomplet ion
re ement
Ġ rom
s n
br as
ĠB C
Ġap plies
Å Ĥ
Ġcan onical
Ġsign als
Ġne ural
ak h
Ġreg ulations
iter al
os es
ĠS ydney
ĠTh ursday
Ġ? >
hen sive
Ġdi pl
Ġcover ing
long rightarrow
are st
Ġj et
ĠP erson
Ġcont ents
Ġdef ines
ĠN az
Ġfact s
Ġdocument ation
13 0
un es
Ġrequire ment
r ift
M er
N C
1 15
A E
s quare
Ġcharacter istics
Ġv irt
v ature
M usic
Ġ" -
Sing le
ibr aries
? >
B L
in ction
Ġtw enty
Ġm ach
ag an
icens es
ĠNether lands
Q U
L INE
ĠAir port
n odes
ĠPr inc
qu ant
i Ã³n
O F
sh ared
ĠM arg
Ġarrest ed
Ġc old
Ġal ter
S V
Ġinput s
Ġgu ide
ĠW ars
Ġin fer
ip her
Ġexplan ation
Ġfeed back
Ġinter act
cer ning
tain ment
Ġ' <
och astic
TI ME
Ġenh ance
Pass word
D epend
b matrix
sw arm
v ideo
C r
Ġv eter
Ġcor porate
Ġspec ify
ĠArg ent
pr ise
arr ing
ly n
ĠCon nect
ER E
Ġexpress ions
Ġworld wide
Ġdi agonal
Ġ Å
\ )
ual ity
Ġemer gency
Ġe lev
Ġsuff ered
Ġmet adata
ĠA z
Ġf aster
comp iler
ĠC ustom
res ources
Ġm eta
IG HT
ĠCom ple
Un iversity
IT ION
Ex ample
ĠSh ort
ast e
Ġnon linear
Dom ain
}) =
ĠP R
Ġdemonstr ate
C oll
MOD ULE
Ġcomm ut
Ġtri p
C RE
Se lection
ĠD oug
l ower
Ġkeep ing
ĠAg ency
ĠG ree
Ġdrop ped
Ġfound er
ĠDav is
Ġ ).
Ġpercent age
Ġl ists
Ġop posed
; }
Ġembedd ing
Ġre produ
Cl uster
ð Ł
Ġgl ass
ĠM ic
con struct
op ts
Ġmet rics
w orth
; )
S ervices
Hel p
Ġmusic ians
Ġv ent
Ġappe al
ĠWindow s
ow nt
ĠĠĠĠĠĠĠĠĠĠĠĠĠĠĠĠ Ċ
ĠGr ant
)) \
VAL UE
ve e
$ &
Ġbring ing
Ġadv ice
Ġprom pt
B ook
ĠComm unic
if er
ĠB et
p ubl
al gebra
Char acter
Ġb its
ĠCoun try
HT TP
ig a
ĠT uesday
rop ical
ĠIslam ic
TR UE
ĠC ount
ON G
Vis ible
Ġd x
Ġsc ulpt
âĢ¦ âĢ¦
M iss
Ġener gies
^{ *
cd n
ĠS ym
ĠW in
Ġg ained
Ġc md
ID TH
man if
wild fly
ĠB ush
UR I
Ġscient ists
Ġres erved
S ports
Ġclos er
Ġap art
pro fit
Ġtrad ition
ĠS anta
Ġ[ ],
ĠS at
ĠPol ish
con trib
ind u
f lex
Ġoffic ially
U SE
$ };
oc aml
Ġg ate
ure au
igh th
Ġdis p
M ost
Ġgr avit
Ġinter ior
N amespace
ache lor
Ġoffer ing
ĠC urrent
Ġconsum er
Ġsp end
(' .
Ġ" <
ĠC reek
ed u
ĠF ellow
Ġrad ial
Ã¡ n
S ur
mon th
Ġan imal
Text ure
Ġs oci
Ġan imation
Mult i
Ġclass ic
Im port
ĠCh annel
n p
and o
Trans port
ĠS a
ĠMin nes
10 5
á ĥ
Ġcollabor ation
over ty
tr ivial
Ġab andon
Pro gress
ĠS af
ĠRail way
os a
om atic
Ġsomew hat
Fl ow
ivers ary
,\ ,\
) }_
Ġwait ing
Ġd ens
Ġprinc iples
ur able
ir ms
c raft
Ġatt ached
Ġown ers
ĠC as
a ired
plement ation
Ġtemper atures
ov al
cl ine
cle an
tr ace
Ġfe e
Cons ider
B M
Ġstand ing
Ġher self
ar ry
ĠColor ado
Ġpart ners
L anguage
] {\
Ġf ish
Ġvalid ation
Ġimprov ement
ab ric
Ġhab it
Ġ$ ,
ĠK ir
Ġder ive
avel ength
Ġle ct
< !
n ight
Ġfore ach
ĠA fghan
Ġsche dule
V E
s ome
Ġgr avity
ĠD er
Ġrecover y
Ġsat ell
Ġgood s
Ġcor onavirus
reg ular
Ġid x
Ġqu asi
Ġphot on
Ġsm art
ĠK ansas
ev in
Ġquant ity
ĠWh y
t i
Ġs ynchron
pt ic
t ons
Ġcon form
ĠH ay
Ġlo an
Ġexecut ed
ol ut
U D
P ER
ĠR a
ï »
195 1
v o
ĠMinnes ota
Ġh ockey
p air
ab et
Ġappear ances
Î ±
Ġmunic ipal
ĠAnt on
ĠSing apore
Ġc ash
iss ues
ĠSo ftware
ĠF ac
Ġext reme
b g
ierarch y
In ternational
Ðµ Ð½
\ }\
ĠIn f
Ġprom oted
Ġins urance
Ġlog ger
ï» ¿
Ġfav our
fort unately
ĠGu ide
M ask
Ġl osing
19 17
Ġfr agment
Ġmarket ing
it ter
Ġpr ices
Ġeas ier
Ġpropos al
Head ers
ĠPl aces
Ġocc asion
Ġor b
ili ar
' ));
/ _
ĠO t
Ġprior ity
trans ition
Ġincreasing ly
y ers
Ġstr ik
Ġhypot hesis
Ġcomp lement
Ġs ought
ut enant
r g
U ri
Ġ\ (\
it i
ĠG reg
ĠCh ange
ort ion
Ġcomp atible
pl ates
1 12
l an
Ġde ploy
j an
bour ne
Ġspe aking
Ġcre ative
Ġex ecute
J ECT
Ġexerc ise
ge bras
Ġne ither
ari os
Ġenc ounter
Ġind ependence
ĠAtl antic
Ġsp ending
Ġj uris
tr im
ĠH ttp
Ġcl ock
ĠH as
com b
Ġvers us
OR TED
init ely
Ġaddress es
Ġdecre ase
p ub
Ġ} }
. âĢĻ
Ġdocument ary
fol io
G ame
r b
the re
Ġmunic ipality
Ġcour ts
ĠLO G
D ay
Ch rist
Ġperm ission
fl ag
Ġarg ued
run time
ĠT al
Ġcontrol s
t ensor
iss on
ud den
ĠD am
Ġc art
Ġtrans parent
) })
is ition
Ġc odes
Ġhum ans
ak ed
Inst all
ret ch
cl uster
Ġpriv acy
Ġcr ucial
Ġcho ices
Ġgrad uate
Ġst orm
Ġb os
atur ally
Ġexc ited
u its
Ġvar iance
Ġprov isions
][ ]{
ress ed
ĠS ant
ĠBo olean
Ġf erm
and y
ĠV en
sequ ently
ĠC orn
}} }\
st ates
P M
Ġmov es
Ġvict ims
Ġinvolv es
ĠG allery
ro g
Ġpain ting
pat tern
x s
ĠM iller
ĠL es
LO CK
ĠB all
19 36
Ġdemonstr ated
Ġlum inos
c ow
t iny
ĠT urn
19 14
Ġprec ision
Ġs aved
Ġd uty
Ġhost ed
H ence
ĠPro p
Fr agment
spring framework
} ~
Ġst ores
user name
iev al
æ ĸ
Ġup dates
ĠN ever
y ard
olv ing
iss ue
Brit ish
ĠSt ory
Ġfeel ing
u able
clud es
he red
ĠRequ est
Ġ ing
ĠS che
Ġp arser
T F
time out
Ġknow s
neg ative
Ġmod ules
ry ption
m ad
ĠWis consin
Ġnot able
Ġprogram me
p ull
ĠRef er
y cle
view s
d ash
ĠSta ff
ä »
@ {
agnost ic
ĠT ok
Ġare n
S outh
Dav id
Ġn ob
Ġdest ination
Ġch ampion
ĠJ ordan
ĠB udd
Ġsil ver
Ġcan cel
us al
Ġm ort
Ġu i
re pre
check box
m oz
Ġco q
F ind
Ġteacher s
ch a
Ġred shift
um my
as ync
index Of
secut ive
in ator
Ġb an
Ġpurch ased
Ġcos m
t ics
. <
Ġdr iven
Ġperman ent
con nected
um a
Cl oud
Ġpotential ly
ĠIsrael i
column width
Ġsch ol
Ġfootball er
Ġdisplay ed
Ġoper ate
}_{ -
Ġlimit ations
med skip
Ġg ather
ĠAp ple
Ġtem p
Ġtop ological
ĠT am
Ġnull ptr
Ġar c
ĠRe act
F ramework
script size
ĠQue ens
ph y
ĠPrem ier
R et
Ġre venue
Ġ} {
Ġfac ilit
F ollowing
Ġhead ers
az y
Ġf ant
repre ne
)-- (
Ġcompl iance
in ant
Ġhundred s
Ġpro pose
Ġgovern ments
P Y
en abled
ĠH ou
Ġpresident ial
ay ed
Ġb inding
Date Time
bu ilt
Ġv ess
Ġdis miss
if def
Ġmix ing
Ġpar liament
(' /
oriz on
Ġdrug s
par allel
ff ff
Ġdes tr
Ġfr ag
ĠT y
Ġwor st
ur ities
ob serv
in ian
Ã© e
te ction
Ð ²
Ġm el
Ġaff ord
Ġrestr icted
Ġdiscover y
Ġrespect ive
ĠM ilitary
ĠR oute
Ġdi agn
Ġen forcement
Ġmult ip
\ }$,
des ign
Ġcon version
el le
per or
Ġcont est
Id s
ow s
D M
Ġtime out
EN SE
Ġdeliver ed
Ġtr uly
Ġpost ed
Ġsepar ation
x html
ĠIndian a
Ġw ww
F LA
E mail
Go ogle
ce ive
ĠRec ord
Ġdec or
ĠSt andard
ĠGold en
Ġassum ing
Ġqual ified
Ġprom ise
Ġbre aking
Ġgener ating
ĠH o
Ġmount ain
J ust
ĠF inal
F ree
Ġwh atever
Ġop acity
Ġpro hib
Ġ urg
Ġadj acent
Ġa cknowled
P UT
Sk ip
ĠAri zona
un ing
Ġdou bt
comm od
D elegate
Pl ayer
k ish
Ġim possible
opt ional
ĉ čĊ
sh op
og onal
ĠTrans port
em et
ĠU I
arthe ta
ĠArray List
10 2
v artheta
ĠSur vey
ĠCE LL
Ġman age
ic ide
t p
Pro gram
Ġh orizontal
Ġrestrict ions
Ġt urb
hold ers
b log
Ġb atch
ct ors
L ook
Ġtrans actions
Ġgener ator
Ġst ages
ins ic
Ġour s
over ning
h d
Ġquant ities
Ġw arning
ĠS M
se q
Ġannoun ce
t k
" /
PO ST
Ġsc roll
ĠMem orial
sign ature
j et
ĠS on
ĠL ady
as sembly
ĠA S
Ġun iverse
in valid
Ġreport ing
er os
Ġres c
Ġis omorphism
Ġcre ates
ME THOD
ph antom
ĠMod ern
\ |\
19 38
ĠM oh
ĠN ative
11 1
Return s
bl ank
enn a
t ar
Ġdel ivery
Ġexper ts
ĠW el
as m
/ .
Ġcr yst
ic ular
at iv
Ġsens itive
ĠT ai
Ġm ob
Î ¿
it ely
Ġcap able
A nt
S cal
ĠArt icle
ĠLew is
12 7
ĠF ood
Ġdefin itions
s ig
Ġtechn ologies
ĠJac ob
M ouse
Re al
Ġassess ment
) ->
ĠDu ke
Ġdomin ant
Ġdec ide
Ġeval uated
Ġs leep
Ġsk y
new s
En ter
ĠMiss ouri
ĠViet nam
ma zing
ĠBr ad
Ġsubstant ial
Ġon going
pol y
M ath
Ġde bug
Ġcol ors
Ġk id
Ã º
Ġb ed
ĠP ut
Ġl es
ex tern
ten ance
F ore
ĠEx ample
Ġstop ped
at ivity
ac cept
ĠC ond
re ll
Ġparticip ated
^* \
Ġprodu cing
ĠBro ther
ĠL anguage
A ustral
ig ate
Gener ated
Ġexcell ent
k h
ĠBr idge
L en
y cl
Ġcontribut ed
ĠC ulture
Ġfail s
+ (
Ġgeneral ized
ik a
Ġv align
an ches
S equence
Ġsubject s
me an
.. .,
}} =
Ass ociation
Ġv o
R C
Ġd iverse
ul us
Child ren
Ġperiod s
ĠHT TP
Ġent ertain
P D
2 13
, '
g ood
19 37
j u
Ġcons ervation
Ġacc eler
ĠS QL
| ^{
Ġlog ic
Ġit eration
C ho
Ġrg ba
( @
tri angle
ĠG re
eng ers
Ġh all
Ġfind ings
side bar
Ġw at
Be an
ĠAd am
Ġindic ating
ĠMary land
Ġjoin ing
b ian
bo ost
Ġconcent ration
Ġscen es
G a
ĠSwed en
Ġseem ed
on ce
Ġfor th
ennes see
y y
at omic
ĠHol y
ĠHar ry
W here
Ġcol our
ĠL ow
onym ous
Ġasympt otic
& =\
own ed
sh ips
Ġsc r
ĠHol lywood
ord on
Ġcustom er
Ġcomb at
} |\
v c
L at
Ġseek ing
E ffect
pro xy
Method s
Ġb uf
Ġsur g
Ġw a
. ",
19 00
n c
if ndef
ĠR aj
col n
S ql
Ġs ending
******************************** ********************************
ĠLe on
Ġad vent
$ {\
Ġen um
= .
Ġin clusion
ext ension
d k
ĠH al
pos ing
Ġpres ents
os l
Ã ¢
Ġleg end
Ġpl ugin
Ġwrit es
ut ies
pe at
Inter val
Ġopt s
Ġapprox imate
ĠIn put
ĠÐ ¿
ĠCons ider
ass andra
aint iff
ul atory
Ġsc ores
pol icy
Ġdefe at
Ġexp at
E st
Ġhot el
Ġsh aring
Ġbrief ly
vol ume
m issions
Ġpoint ed
Ġm al
Ġpass ion
B ind
Ġre nt
ur st
I gn
c ounter
Ġnov els
Ġrank ed
Ġsign s
Ġparticip ate
EEEE FF
ĠDe ath
ir th
Ġequival ence
ĠFore st
ser ies
CT YPE
Ġdire ctions
ĠĠ čĊ
ound ed
sub sec
Ġflow s
y brid
hel per
Ġa st
Ġe le
Ġsub group
Ġwork er
Ġp iano
ut her
Ġv ast
Ġmod ify
ĠO regon
emet ery
ĠA mb
R T
se ason
Ġemploy ee
iv als
ri e
: =\
Ġgu ess
(' #
ĠL td
ĠC art
Ġad ult
K e
ĠN AS
ag en
On ce
Ġprodu ces
ph ase
ĠEconom ic
ĠN a
Ġconsider ation
Ġd ashed
Ġmagn et
Post ed
Ġexhib ition
Ġ ];
Ġl ang
Ġ( [
() ))
ĠL em
Ġa w
Ġin hab
Ġpost er
Ġv ideos
O ct
St ats
ĠR est
Ġw alls
ĠH an
19 19
aa aa
More over
Ġeng aged
ĠM S
ĠP ot
Ġaff ili
M ake
hed ral
ĠB ol
Ġst ead
End point
ĠMag azine
Ġsup pose
Ġorient ation
u y
Ġfound ation
exp and
St op
Ġreject ed
H ub
Ġcorre ction
qu ote
Not ification
Ġro ots
c ers
Ġr aces
Ġc ab
ĠS ab
Ġb ought
Ġwill ing
p ur
rep resent
Sup pose
Ġposs ess
}) ^
Ġbound aries
Ġd ense
Ġcommit ment
Ġt mp
Ġjournal ist
ellect ual
Ġstudy ing
qu es
ĠV ector
Ġproced ures
ĠBuild ing
ee per
est abl
F amily
ĠC ov
Ġchar set
form ed
Ġdesign ated
Ġcrow d
A x
ĠSI ZE
ĠUn it
N amed
Ġse vent
Ġp ipeline
are n
Ġv ulner
ĠC zech
Ġn ations
ĠTr ade
Ġpro files
ĠL com
ver age
Pre vious
Ġth in
ĠP ay
ĠR ose
Ġpop ulations
t le
M aterial
Q UE
Ġp ed
itar ian
}$ }
Ġbelong s
b at
Ġrecomm ended
m k
H om
| }{
Ġcopy right
Bl ack
ear s
o is
Ġchalleng ing
aud i
wit zer
ĠAm ong
ĠPro t
ĠN orm
Ã© s
Ġcompos er
B asic
U C
s r
ĠMount ain
N ative
ail ability
the me
es ides
Ġmembers hip
Ġcoll apse
ac on
Ġfavor ite
sh al
B egin
ĠM ari
check ed
Ġf aced
Ġsum m
set up
Ġliqu id
Ġw inter
Ġdis order
C ert
ĠE ND
S creen
w as
ĠH art
inst ein
ĠA ge
Ġreal ized
d c
sl ant
Ġperiod ic
Ġst one
Ġinter mediate
ĠP it
(" /
erv ing
is p
Ġf ol
Ġre verse
Ġbr ings
Ġm es
DO CTYPE
å Ī
M ill
M c
ĠD or
us form
Ġl ift
fig ures
NavBar Font
ig ious
Ġl ose
numer usform
es ome
F ORM
ĠV i
Ġcur vature
ĠT er
const ant
Ġlist ener
w arning
ĠC ost
unn y
Ġcon secutive
und efined
orig in
Ġnormal ized
out s
Ġconsequ ences
ĠF uture
Ġt ight
Ġres et
down load
Ġk ick
Ġ" $
Ġout come
B en
spec ific
ĠAN Y
Ġgu est
O C
14 0
Ġsup por
Ġamount s
'] ['
ĠSt adium
Ġd ates
Ġcon cerning
writ ten
19 35
Ġmolec ular
Ġc arri
et ary
Element s
Ġtem porary
% "
S W
ĠS earch
Ġ( {\
Ġp ref
Ġdiscuss ions
Ex ecution
Ġhousehold s
Ġk illing
ou pl
19 33
Ġsymbol s
ish ment
A li
Ġassert That
Ġch ose
E very
Ġcom fort
Ġstr ike
ah oma
ĠSe ason
A ug
... </
ĠSen ior
igen ous
z ip
Ġwin ners
witzer land
En vironment
it udes
ĠMex ican
ropol itan
con duct
ĠR ow
L R
Ġgovern or
Ġcol le
Ġgr ade
ĠB it
atter y
Ġt itled
aw are
ĠT ro
ĠAr thur
Ġw ire
Ġsche ma
olut ely
{ "
P ubl
ĠG P
ĠO cean
Ġdis appe
ĠA T
Ġw ing
th rough
ĠD ue
ĠLeg isl
Ġis ot
ang el
ĠW here
ĠFr ont
Ġdom inated
Pol it
ĠT ony
Ġref used
Ġstr ip
um ps
S ample
Ġcoupl ed
ĠS C
k t
Ġl oved
Ġmed icine
res ize
Ġg ar
ar ith
ĠP ub
em ony
support ed
Ñģ ÑĤ
ĠF ROM
Ġent ang
F inal
Ġcharacter ized
Ġlaw yer
az a
ĠE u
Ġp ixel
re du
aps ed
Ġsk ip
= [
Pro to
N ormal
s un
out heast
St ar
Ġphot ograph
ert y
Ġloss es
Ġcirc uit
ail ing
F P
æ ľ
Ap pend
ĠSe ver
Ġregard ed
B ased
hav ior
py thon
ĠĠĠĠĠĠĠĠĠĠĠĠĠĠĠĠ ĠĠĠĠĠĠĠĠĠĠĠĠĠĠ
ĠF ord
"" "
d ark
Ġrapid ly
Ġpil ot
Ġte en
s ocket
Ġpubl isher
ĠA h
ĠR oss
m oment
g lyph
Ġw ins
; ">
Ġbank s
=" $
Ġsever e
con sole
ik ip
l ass
Sp an
over view
F ocus
ĠAuthor ity
print ln
^* (
AN T
? "
DE FAULT
Ġvari ations
off s
S ort
SC R
Ġsim ilarly
Ã ¸
ĠDi ego
Ġfluct uations
g oto
part s
ile y
Ġyour self
ĠVal id
multi row
ĠK now
Ġfr anch
w eg
Ġca ught
L i
Ġstrong er
Ġst ochastic
U K
os ed
we alth
Con structor
Ġuncertain ties
Ġth ir
X i
Ġacc used
us cript
Ġoff ices
10 4
Ġappro val
end a
act ivity
ak s
ast y
Ġres istance
ĠAnd erson
Ġt ack
19 34
Ġrestr iction
Ġattempt ed
Ġ\ !
ĠL ore
Ġf estival
ĠN ick
ĠF OR
ĠRes ponse
: [
Wh y
ĠAp ache
Ġem pir
W est
Ġview ed
PRO JECT
Ġtop ics
Ġcon cluded
' _{
Ġac commod
Ġdynam ical
Ġass ault
Ġheav ily
ĠS ite
ĠB rian
tikz picture
Ġmaintain ed
}\ |
Ġel ig
l u
Ġil legal
r ated
) ^\
r uby
Ġthe atre
Ġdepend encies
................ ................
ĠInd ones
Ġread s
d am
An imation
ĠChar l
face book
Ġ' '
ĠW inter
ĠMar ia
Ġph ases
Ġgu id
ĠC ore
D ictionary
i ated
Ġir on
Ġwould n
Cond ition
OR Y
Ġsp oke
M F
W allet
Sub s
cre ens
Ġdoll ars
Ġ$\ {\
ymmet ry
Ġclos ure
ĠR ad
clos ure
Ġeigen values
ĠM it
ab ama
ĠB ishop
Ġcaus ing
Ġstrateg ic
ĠA ud
Ġvalid ate
Ġbeh alf
is cal
ĠBr ig
ĠP lease
ĠE ric
p aper
Ġprep are
ĠSy ria
Ġm it
ang ers
comp are
E P
s ym
Requ ired
Vert ex
A rea
br and
Ġredu ces
Ġro yal
ĠB ox
ou st
Ġsp r
19 29
ĠL ind
Ġcon figure
S ep
b atch
rupt ed
ĠE P
, .
Ġdirect ors
Ġdr ag
Ġ> >
Ġcent ers
iam i
1 16
Ġat oms
ĠReg iment
c ross
ĠN AV
vis ible
H er
ĠUkr aine
v ariable
Ġs we
iz ers
SE LECT
Ġdet ector
Ġpo et
equ ations
Ð ´
P air
Ġcompet ed
ikip edia
D b
Ġstrict ly
VAL ID
AN G
\! \
Ġen emy
iz z
Ġre tail
Ġpro fit
Ġdecl are
back slash
ĠSim on
D IS
ĠR oll
R PC
B el
Ġphil osophy
ĠB ureau
is ations
Ġpro test
w ho
select or
Ġw orse
Ġre aching
d ag
method s
Ġf itting
Ġconfig urations
comple x
iv acy
D etail
Ġtri ple
viron ments
Ġengine er
av ailable
f actory
w d
Ġmanufact uring
ar on
' ];
Us ers
Ġsp ac
Ġcompre hensive
per iod
id al
Ġn p
Ġaccess ible
ĠF ind
ĠH op
Ġb ow
is ot
M IN
RE G
not ag
Ġcorrect ly
o or
ĠM att
ĠT ennessee
Ġall Classes
im its
ĠG h
ri ed
Person al
T ele
n ol
ĠAL IGN
Ġdistrict s
Test Case
ĠAtt orney
Ġy ards
Ġd iversity
^{ (\
Ġdescri bing
Ġord inary
ĠGree ce
e ah
ch ant
ĠallClasses Link
Ġch airman
fin ite
ĠMed al
ĠAnd roid
requ ency
ĠJ ane
Ġsit uations
0000 00
ĠO N
Ġcom plicated
Ġat omic
H on
Ġt ags
INT ER
re lease
ĠFed eration
b us
cre ated
Ġ\ &
Ġsol ving
Ad min
Ġf rames
Con nect
Ġpass es
duc ible
" ].
vert ical
L ib
ĠB alt
Ġmin ute
_ );
down arrow
ĠN ig
Ġf ake
comm ons
p in
ro it
ĠD igital
Ġre ward
19 10
Ġh air
Ġprec ise
L ower
Ġqu ark
Ġqu ot
ĠA thlet
Ġb ind
Pr ivate
S ave
get Value
Ġfl u
Ġassoci ate
Ġse ats
f eed
Valid ator
ĠS av
ĠTh ird
Ġal ert
19 15
R aw
ĠFor ces
Ġunivers ities
Pl an
ick ets
Ġign ored
B Y
Ġs ympt
c v
Ġad ults
Ġshoot ing
con vert
E SS
Ġread ers
Ġg overning
ĠCap tain
Ġh orse
Ġl ay
load er
Ġan om
J oin
TR Y
Ġris ks
? ?
ĠF ull
Ġal ias
pl ier
ap is
Ġs udden
Ġredu cing
Ġtown s
Ġp overty
Ġn ice
Ġ@ "
Ġc ursor
w ave
ĠCap ital
Ġf aces
Ġpart ially
ordin ate
clip se
Ġexpos ure
Ġaccord ance
Oper ator
ĠC ab
Null able
Ġconvers ation
Argument Exception
ke ep
Ġmer ge
f red
Ġt ang
Sh ould
e ctions
Ġl yr
Ġst yles
ĠD ark
iss ip
Ġreli ef
cor ollary
m aking
Ġestablish ment
inem a
Ġv oting
Ġ\ "
Ġv ocal
Ġrepl acement
Ġsu it
ĠB arn
agnost ics
Ġre vers
Ġold est
Ġident ification
Vol ume
sp in
l ab
19 28
W ait
Ġsimultane ously
g ather
Ġacc um
ĠMos cow
Ġpan els
an aly
kl ahoma
Ġn aturally
ĠL iter
Ġinv ent
ĠSup pose
ĠX ML
Ġrecon struction
ĠC G
ĠP ier
Ġs and
Ġmill ions
Al so
ĠP A
Ġcour ses
Ġfam iliar
ut r
w estern
sl ice
Ġshe l
Ġincre d
olog ists
el and
Ġ_ .
ed er
Ġm d
R elease
Ġput ting
Ġexpl ains
object s
\% $
Ġneigh bour
Ð° Ð½
Ġcarry ing
( -\
Ġbro ke
n m
w ick
T ax
AN CE
Ð¾Ð ²
m ouse
sequ ence
Ġh its
ĠLin coln
Ġpro ps
Ġman ip
st an
Ġsche mes
L imit
ro ute
ex ec
ic ut
lo pe
ĠComm un
ub le
dat abase
ĠB att
Ġpolar ization
Ġa f
ele m
Ġuniform ly
ĠSim ilarly
ĠB os
agr ang
ĠB at
Event Listener
m ont
Ġy ellow
ĠMe an
Ġsub mitted
Ġar med
ang a
Ġproport ional
;\ ;\
P ack
Ï Ħ
cover y
Ġcommunic ations
ĠC lient
ĠCl inton
Ġt er
Ñ ĩ
ĠAcc ount
ĠS quare
und ers
ĠG ib
Ġw avelength
ĠD B
Ġpenal ty
Ġt sd
ĠF ourier
Ġmod al
Ġs elling
qu ir
Ġdisc ipl
Ġdep ict
l iving
EL D
P ers
. \\
D en
lo om
Ġbeliev es
Ġm igr
Ġland scape
ĠHou ston
Ġent ities
el astic
ĠPhil ip
Ġpar ish
comp ile
ut s
Ġret irement
clud ing
g ot
Ġexpl os
ownt own
C ur
Ġ Ø
Ġeven ing
Fl ag
Ġoccup ied
ow ski
Ob serv
19 32
ĠT ag
Ġadapt ed
Ġembedd ed
Ġreg istration
Ġfrequ encies
ĠAdd itionally
ĠJ oh
v i
ĠS ix
Ġvary ing
M ove
ĠB iden
Ġre in
Ġg ene
Ġpl ate
Ġel imin
ĠM un
ĠTh ose
ĠDis ney
M ich
ĠW IT
Ġre named
Ġcheck ed
Ġgravit ational
Rem ote
w atch
Ġh ospit
ĠCl oud
Ġh un
se p
Ġexp ensive
W arning
Sy ntax
leg es
w ig
ĠB an
form er
ph an
C ent
t witter
Ġfac ing
! "
ĠI owa
ene z
Ġparticip ation
Ġpresent ation
Ġwhe never
Ġillustr ated
Ġpro spect
valid ate
Ġown ership
Ġinv ited
Ġim plicit
Ġte ach
ject ure
d ig
AR D
W ORD
not ations
Ġluminos ity
is Empty
ĠW rite
ORD ER
ĠE s
Copy right
10 7
F act
ĠN FL
ane ous
Ġsur faces
å ®
ĠF a
ef e
ĠS ri
m ag
Ġcol span
ĠRepresent atives
Ġstrugg le
C ard
Ġre tain
is set
Ġcl ip
ir cles
ĠK al
ĠS ets
Ġclass ified
in herit
ex it
ĠSwed ish
W omen
it ure
A I
Ġf ly
G erman
u j
Ġbrother s
Ġsystem atic
U ES
L ight
Ġc ub
el son
ĠF all
inc ial
ĠPhilipp ines
W H
ĠIn s
Will iam
ĠCol on
19 16
int ell
Ġcent uries
ĠHarr is
P red
ific ial
Ġhand ling
ib l
Ġatmosp here
F N
Ġtop ology
Ġin ternet
Ġ-- -
ĠSt one
ĠAp plication
ĠâĢ ¢
Ġcontinu ing
ĉ ĠĠ
the w
Ġl ob
Ġconvent ional
Ġelect rons
l ights
Ð ¼
Ġask ing
Ġdeg ener
Ġtyp ed
66 66
Ġch air
ĠEnter tainment
: `
Ġge ometric
Ġcrit ics
al ion
Input Stream
10 6
D ATA
ĠSk y
pt o
Ġk il
> )
ĠD ream
Over view
ĠSt atus
Ġh olid
Ġf mt
Ġregular ly
res olve
itect ure
ibli ography
Ġdanger ous
Ġadd s
Ġcons c
Ġexpect ation
cy cl
Ġse es
) }.
Ġb old
en berg
ic ator
Ġneigh b
Ġselect or
Ġstre ets
Ġcons ervative
ĠD aily
sc opic
S ources
NS String
/ {
stand ard
ĠK at
Ġd t
N ET
Ġdeal ing
Ġgu y
coh ol
ĠC S
Ġf ib
Ġdef ining
B inding
ĠS witzerland
ĠH or
{ .
ĠW y
her ical
av al
od ge
ĠN ich
Con ver
Ġplatform s
Ġv oted
1 18
ĠC NN
ĠS ound
Ġconsum ption
er on
ĠNAV BAR
CH AR
10 3
ĠHe art
ov en
Ġbur ied
in us
um ption
Ġweek end
l ibrary
sub mit
Ġwindow s
P lease
ĠV ideo
$. }
Ġmeet ings
Ġcoun sel
Ġ _{\
Ġinflu enced
In formation
Ġcollect ive
ĠÂ ·
st ud
Ġguarant ee
ĠCh ap
el ve
ynam ics
Ġad vers
Render er
Ġsp here
() ),
g ar
ann y
Ġscen arios
intell ij
! ]
r adio
ĠMal ays
US ER
ĠHigh way
IO Exception
I AL
d istance
Ġsignific ance
( .
> :
Ġsus pend
ant e
Ġcoll ision
D rop
ĠM oon
Ġstraight forward
as p
T ube
r ig
ĠB ah
ĠPat rick
Ġsc oring
Ġrepl acing
ro ck
SS L
ist a
En umer
high light
o a
ĠAr k
ĠHow ard
3 60
Ġkind s
ĠHar vard
B order
ph ony
Ġund ert
p u
od ox
ey n
ĠT ax
Ġch ap
we ek
Ġappre ci
ĠD ick
LO C
Ġdr ivers
var rho
h ook
mem ory
d iction
C LASS
Ġneut ral
ul er
l ad
}{ {\
n ie
lo yd
å ħ
dest roy
ĠNor way
Ġnom inated
ĠT reat
ous es
F M
P al
ro c
v ia
E p
U ST
F older
Ġcompet itive
~~~~ ~~~~
ĠJ am
ĠReg ional
az e
Serial izer
G ui
mer ge
Ġpublic ations
Ġcomm ands
L ife
ĠAl bert
Ġt ables
Ġperturb ation
Ġman agers
Ġex posed
Ġdraw ing
B N
Ġ_ ,
grad ient
Ġanal ys
ard o
. $$
st age
| $
ĠMar c
(" #
G ER
Ġpro ud
Ġh alo
r f
col lect
iam ond
Ġarg ue
ab c
St ud
Ġmechan isms
ĠD ead
Ġtrans itions
Ġvari ant
con structor
Ġf asc
ĠCont in
ç Ķ
ĠL oad
19 31
Ġl aid
BP ACK
ro b
Ġk in
St atic
form ing
ĠCast le
L ike
Ġrespons es
All oc
Ġcon crete
ĠMr s
d on
y ou
ĠP os
Ġob lig
ĠOper ation
/ "
19 27
Ġstruct ural
ĠSystem s
Valid ation
Ġsens itivity
=\ "
ĠB or
19 22
Ġpe er
ĠFin ancial
Ġprom otion
Ġinvestig ated
ĠAll en
l ined
19 24
Object s
as ma
Ġcross ing
Ġrel ating
Ġcol lections
Ġs ys
math it
Ġim plied
} >
âĢĻ ,
ĠT en
Ġprem ier
19 12
Ġf ought
et ric
th rift
M ajor
ĠSc ient
E val
amb ig
Ġmodel ing
ĠR oy
Ġan chor
s b
F n
l icense
ist ogram
pro gram
ĠMan chester
Ġ ig
ĠW H
Ġlik elihood
Ġp atch
d ynamic
Ġp ixels
M ac
ty pen
Ġin tern
ĠDo ctor
P G
ĠN ev
cl one
ĠAl abama
Ġprote in
ĠDes cription
19 21
ext end
Ġvac uum
Ġun us
ĠC le
Ġbo ys
ĠY es
agrang ian
ĠCh airman
MO DE
Ġmet all
Ġe ase
Ġsett led
Ġrac ial
op ol
Ġ" ";
w ich
Ġdef initely
sub ject
Ġvacc ine
Ġdev iation
Ġappe aring
STR ING
ys ics
Ġconj ug
Ġb id
us r
an im
pl es
ĠOrig inal
is ons
ĠOn line
ĠM O
B al
d ers
Ġcorre ctions
{ |
10 8
ĠW IDTH
Ġground s
Ġm ine
Ġres olved
Ġn a
ong o
Ġste el
nav igation
) >
F rench
i ors
g ments
Ġanaly ze
Ġst abil
ĠMan ager
in th
ĠL ook
ĠG ram
an alysis
cal endar
in ating
Ġex ports
Ġde pos
Ġliter ary
M aster
ic ode
ta h
Ġun iqu
Ġgrow n
Ġj azz
re str
}) (
ĠPl ace
Ġs ter
Ġwatch ing
her ic
Ġdes ire
ĠHot el
Us age
Dr iver
C ONT
over s
m f
ĠAp pe
Ġshort ly
Ġd ry
ĠPe ace
elf are
m ay
ĠDemocr ats
Ġisol ated
l oss
Ġst im
N orth
ĠM ock
Ġad mitted
ut ation
}{ *
Ġ' \
Ġrun time
Ġh aven
arg o
Ġext ensions
s is
ĠI T
mat htt
ĠO S
Ġfall s
ĠOption al
press ive
" |
S ong
Ġ ,\
Ġvot ers
ĠB urn
se ctions
Ġre ly
})+ (\
Ġexhib it
R ob
text normal
Ġm ilit
Ġut ility
ĠC SS
R S
kw args
stack rel
h ire
19 25
Ġcr imes
ĠM L
m essages
11 4
Ġabsor ption
Ġconcept s
ĠOrgan ization
Ġtransport ation
al ert
ag ination
ex pression
Ġassign ment
Ġprefer red
Ġa mazing
Ġb ug
Ġb ars
part y
Ġr anges
weg ian
Ġsound s
ĠEd itor
ĠL ank
re act
V ari
ĠMo ore
b urn
Ġpublic ly
" },
ĠB E
anch or
up per
Con sumer
getElement ById
er k
Ġcon n
Ġvisit ors
c atch
Ġm il
Ser ies
ĠKent ucky
F OR
ĠLab our
i at
typen ame
ĠCont ent
Î ¹
ĠE mer
Set ting
= $
Ġm o
Ġm oral
Ġcon vention
Ġ" ",
19 26
ĠT ree
Ġrecogn ize
ĠR yan
Ġregard less
Ġanaly tic
Ph oto
trans action
N V
Ġcons ent
Ġ ðŁ
d uration
Ġviol ation
Ġident ifier
="../../../../../../ ../
Ġfocus es
a ire
AR N
Un known
ĠHig gs
)} (\
Ġform ulation
: @"
ĠAfghan istan
olt ip
am ps
ick ing
ph oton
ĠM as
Ġbench mark
ĠCh all
ex tra
Ġsurpr ising
ĠIl legal
Ġ( âĢľ
Ġpubl ishing
ĠB ible
Ġhom ogeneous
Ġch urches
ĠÂ ©
) (\
B inary
ok ing
Ġpet ition
ĠNav al
ia h
Ġs ight
j Query
ĠB ry
Ġsucceed ed
Ġorth ogonal
ĠSe lect
r as
Ġfound ing
Ġexpat riate
Ġbas eline
Th rough
ĠRes pon
ĠU l
ĠT a
ex pl
ĠAd vis
M AP
Ġw rest
Ġ{ },
ĠMar ine
Ġdecre ases
s ync
OP T
text up
Ins ert
Ġemot ional
Ġhead quarters
Ġquadr atic
enn y
app oint
Ġinvest ors
ater al
Ġes cap
est yle
Ġsix th
li est
Ġsup ers
f mt
evel oper
ic he
ĠDef inition
Ġac id
Ġmanif est
ul um
ik h
Cont act
M essages
ac o
Ġc raft
de ep
B ecause
Ġdecl ine
ĠCon vention
Ġto wer
WE BPACK
ĠE arly
Ġill ness
AT OR
St andard
Ġcompar able
âĢĻ .
ĠM iami
z o
Ġp ub
Ġend point
act ual
ĠS quad
Ġturn ing
Ġdist ances
Ġr acing
} /\
dr iver
ĠJ ay
ĠMel bourne
che ll
Ġcount s
Ġp ione
Ġcut s
eg as
Ġair port
ĠO klahoma
Ġsh adow
dep recated
ĠTur kish
Ġann iversary
p b
å Ĳ
ol utions
s pl
Ġvict im
Nav igation
B ad
g i
C apt
nt il
IMP ORTED
ĠH y
Ġenjoy ed
Ġinnov ation
Ġt elling
tr l
ĠF ame
Ġ' ';
idel ines
Ġtr uck
Ġload ing
DE F
bound s
at ibility
Ġaddress ed
put ed
Ġro of
olv es
B atch
Ġpre gn
19 23
g ray
t ol
Con stant
id ency
ĉĉĉĉ ĉĉĉĉĉĉ
Ġ\ [
ĠD NA
ĠO ak
element s
ĠB ab
H D
get s
Ġa ims
oun ce
ograph ical
f ake
ĠSt and
] ))
Ġdiff usion
Ġalgebra ic
mult line
P od
do or
Ġ\ ,\
{ (\
F uture
C lear
Ġa str
Ġtransl ated
Ġpolynomial s
ÃŃ a
Ġsuff ering
Y Y
log o
Ġneutr ino
Ġderiv atives
Ġgun s
~ (\
Ġl ens
vert ex
A udio
Ġweight ed
im ore
Ġden ied
int eg
t re
all as
__ _
Ġleg acy
Ġ' ./
uer to
Ġres idual
Ġcer emony
ĠAn alysis
Id entity
inv ariant
Ġorb ital
Ġval uable
Ġen semble
Ġperm issions
9 00
Ġp up
dis able
aw ay
ĠS H
Ġrul ed
Ġm ail
Ġhead s
ĠDE FAULT
ĠR ab
ĠAb stract
^ ^
ĠC op
Ġpack et
J apan
Ġdom ains
Ġprov en
ĠF A
ĠBer k
Ph il
Ġm ouse
Ġel if
direct ory
Ġentertain ment
S u
Ġinter pol
ĠAust ria
ol i
Ġequ als
}$ \
Ġs urn
Ġabs olutely
Ġag ed
Not Found
Ġsub mit
h ang
Ġal pha
Err ors
ĠWh it
Ġrul ing
in cess
Str ategy
b est
\| _
Ġfil ters
ĠN ob
Ġpay load
Met rics
Ġfem ales
Comple te
l arg
ation Token
ur se
Ġdis cret
Ġinstr uments
R ate
ĠG R
C ounter
ĠN atural
ur ric
el ian
R a
'] );
A SSERT
ĠY outh
$ ^{
Ġincor porated
Ġpost s
ch arge
Ġr ugby
ac er
Ġc ited
ĠH ans
Ġbr anches
ĠGe V
Ġs ons
Ġent ering
Ġthrow n
Ġf its
Ġsk in
Ġindependent ly
Ġm art
Ġinj ured
ubl in
R ich
Ġcr ash
load ed
es is
ce il
c ov
Ġdise ases
ĠK evin
Or gan
R ober
Th row
Ġman uscript
Ġtalk s
Ġmin ing
ug ar
P ower
Ġa ug
Î µ
foot notes
iv idual
Ġr ating
ĠPh ot
Ġdesign s
Ġapparent ly
G M
ĠP C
E ven
Ġent reprene
Comp iler
ĠRem ove
id ges
ĠBase ball
issip pi
Ġint ellectual
Ġcor relations
ĠAl ice
> ;
le e
Ġdens ities
ĠPe ak
V AR
ĠJud ge
ĠPr int
eg et
ĠM and
19 13
m ix
L ibrary
Ġmer ged
ĠV ari
cont ents
Ġcontinu um
em ed
Ġto k
ip art
ass ign
ĠTown ship
ĠG all
Res olver
ĠHer itage
Ġform ally
ĠS mall
ell s
Ġcl im
Ġeduc ated
Ġro utes
v endor
gress ive
Ph one
Ġcont roll
I Z
Ġdemocr acy
e b
ĠSt ream
Ġlog ging
ĠS in
ĠD M
d irection
ĠK han
Ġen vironments
for Each
Ġdistingu ish
RE E
ĠAnth ony
Ġmonitor ing
Ġant icip
ĠS audi
p kg
if i
Ġst ats
oid s
Ġ" %
Ġrecon struct
Ġdef ect
=\ {
Ġmov ements
H older
Ġqu eries
ĠTem ple
et he
Ġaccomp an
ĠAg reement
il ty
lik ely
ĠConnect icut
ues e
Ġvill ages
spe ed
Ġd uties
ï¼ Į
$ '
h ot
Ġs ql
s he
ex amples
ra ise
el eration
Ġfew er
ĠRefer ence
div ision
Ġd elta
Ġpo etry
ĠL as
Ġpres erve
Ġn urs
Ġbig ger
ag ma
ĠLear ning
Ġconv olution
Ġst arring
enc ode
Ed ge
Ġdisp ersion
T Y
Ġh ide
ĠCo oper
Group s
ĠA I
Ġint ention
ĠK a
Ġsup plied
3 50
Ġsw im
Ġacc ret
f ather
ĠPr ivate
ĠChe m
ĠS W
ĠWal ter
n l
Ġoutput s
ĠF ix
Ġrepresent atives
li x
ĠL A
$- $
Ġsympt oms
ĠFre der
Ġtal ent
Ġrece iver
Ġ elli
Arg uments
Ġâ Ĩ
K S
." ""
AT ED
int eger
ĠP a
n ed
Ġf ired
h us
Ġin fl
arg uments
chedul er
u is
se lection
Ġinform ed
ĠEx pl
Ġl ands
En v
Ġf ul
Ġextract ed
Ġformer ly
Ġjud gment
Ġours elves
sp acing
ĠD ave
We ight
ĠM unic
The me
j ack
Ġh ybrid
Ġencour age
b ib
Ġco operation
ĠTok yo
AC H
load ing
an imation
ĠPro duct
ĠD un
ĠAl gorithm
UN D
O ld
ĠB uck
Ġmark s
Ġadapt ation
h yper
s hell
O W
Ġadvert ising
Pl ot
Ġc yl
h fill
Ġseg ments
Ġg iant
Ġcond itional
Ġconven ient
ĠMark et
Ġlyr ics
RE D
Ġpriv ile
Ġfe els
Ġf at
Process or
i est
Ġst ood
rypt ed
im p
ub er
ĠS P
Ġwas te
ĠCor ollary
Ġsatell ite
f b
od a
dis c
Ġdr um
Ġs ocket
Ġbr on
Ġat om
Ġtax es
ol o
Ġsecret ary
INS ERT
Ġlist ening
d n
ill ery
scal a
Ġt err
u h
cript ions
Ġchild hood
Ġocc as
ĠG ard
Ġle af
Ġconnect ing
we ak
Ġhon est
Ġspirit ual
Ġphot os
th ick
ĠPro tection
sem antic
ĠCommon wealth
ĠL java
pre vious
Ġattack ed
Ġreg ulation
ĠRes ources
Ġguid ance
Add r
on i
Ġarr ival
text color
rel ative
up arrow
Ġtri es
Ġsh r
rom agnetic
Qu ant
Ġreve als
sh arp
Ġtempor al
ĠArm en
Ġthous and
ĠC ape
iv a
ĠTr aining
ĠInd ust
ĠWAR RAN
let ter
ĠĠĠĠ čĊ
d ensity
r uit
Ġfranch ise
Ġinv olve
Ġsh arp
*} [
Sign ature
Ġ ur
ed a
Ġrandom ly
footnotes ize
Ġm acro
ict ional
Ġed it
B T
Ġp ending
ĠA st
comm it
Ġelement ary
Ġto ler
sc ss
Ġclos ing
Ġcomp aring
com par
Ġout comes
Ġhealth y
Ġhealth care
l icenses
Ġchart s
Ġreg ression
d ays
um ul
ĠG er
T ri
Ġg ift
Ġequ ally
ort heast
c ountry
B IT
Ġcheck s
ĠC ook
bold math
equ ate
Ġmay or
Ġnorm ally
N UM
Ġgreat ly
ĠP ope
ĠAn ne
ag u
ĠOr th
read er
Ġt d
Ġdeterm ination
Ã¼ r
ce iver
Ġconf ident
pl oad
HE AD
Ġiniti ative
Ġcomp ilation
Ġsol ved
Ġequip ped
Ġ' ',
Ġqu as
ĠMon te
ch art
ur ers
Ġr u
h our
ĠG ab
Ġsim ulated
ãĢ Ĥ
ĠMem bers
head ing
Ø ±
Ġst ake
Ġin aug
Ġhard ware
ĉ ĠĠĠĠĠ
ĠY et
Ġim pr
Ġm or
ĠĠĠĠĠĠĠĠĠĠĠĠĠĠĠĠĠĠĠĠĠĠĠĠĠĠĠĠĠĠĠĠ Ġ
Ġm m
ili ary
Ex port
ĠDet roit
M arch
F UN
%%%% %%%%
f etch
sp ir
Ġeth nic
Ġconsider able
S ame
br idge
ĠJ unior
on der
ĠSim ple
il st
E ST
10 9
M en
t m
m iddle
Ġs b
Ġ> >>
M al
Ġt all
W ord
om as
Ġbo at
SCR IPT
Ġsus pect
Ġobvious ly
w arn
Ġres idence
Ġmain tenance
Ġde put
Ġacqu isition
Ġconsum ers
Ġcompet e
Ġd ip
ĠSil ver
Ð ¿
Ġmusic ian
ex ecut
Ġim posed
}. }
\ },
P resent
al ias
ĠV o
Ġschol ars
A SE
Ġ" .
Ġimm igration
ass ador
}) ^{
Ġmarg inal
Ġform ul
/ ">
Ġgu ys
Ġbe ar
ĠSer ver
em pl
Ġrob ot
D iff
19 11
Ġrepe at
Ġtri als
char acter
B ottom
O h
ĠP DF
Am ount
b one
Ġtr ains
Compar ison
ĠAb d
Ġs i
Ġfair ly
Map per
Ġinstr uctions
Sh ared
iem ann
Ġsurg ery
Draw ing
Ġp itch
Ġh oles
ĠV irtual
Ġsmall est
at en
H tml
LE D
refer red
te am
Pl atform
n ative
ĠC it
Ġnav bar
Ġinterpret ed
ĠWhe ther
ĠPh ill
Ġg ay
j b
Ġcon front
Ġelect ro
Ġreal ize
Ġempir ical
ĠH um
ĠL ock
Ġw aters
P aul
Ġimprov ing
k ov
th ree
ĠN ash
p ad
Ġhost s
Ġover se
ĠE uro
FF ER
Ġcap tain
lim inary
Ġ$ ^{
Ġne uro
ĠBr un
edd ing
L Y
A bs
Dep recated
t l
) ",
Ġsub space
Ġr ising
work s
ĠIN TO
ĠJ un
Ġrestaur ant
Ġp ictures
int ro
S an
ig e
] +
Ġphenomen on
ĠKenn edy
Ġinter vals
ather ine
Ġcap abilities
ĠSh ould
ĉ ĠĠĠĠĠĠĠ
h alf
Ġjuris diction
bin om
erm i
Ġtraject ory
ĠB h
en ix
in ch
Ġref lection
Ġh al
Ġwith draw
Ġa ux
c ost
10 24
qu al
om ot
Ġs itting
ĠMay or
ub b
ink s
pro pto
Ġindu ction
apol is
Ġoper ational
usal em
ĠB ra
S G
iss ance
Ä ĥ
ĠP ur
Ġcommand er
Ġas set
Ġdeterm ines
t b
B ool
g iven
ĠAg ric
Ġtr unc
Ġrece ives
Ġaff airs
Ġan th
R andom
Ġwalk ing
ĠBelg ium
ĠTh ough
ĠCh ile
in cre
ĠH ilbert
Ġs in
get Id
l if
Ġfin ance
# {
ĠW atch
grad uate
Ġmer ely
Ġep och
def n
Pre v
Ġslow ly
v ars
ĠYou Tube
C ursor
K n
Ġl aser
Ġpl ain
> '
ĠNig eria
Ġcontro vers
oun ced
o es
re tt
met ic
Ġtrack ing
ĠDep uty
or er
k top
fr ag
Ġirre ducible
L D
Ġimprov ements
Ġout standing
Ġrat ios
b etween
Ġ' .
Ġpay ments
oc a
> "
A z
ĠD ouble
ĠJ os
al ia
Ġtrans verse
enez uel
W B
part icle
Ġf iber
Ġstr uck
11 7
ĠWalk er
ff f
int end
ĠLa ure
Ġf ault
Ġdifficult y
14 4
Ġaware ness
ĠE ss
IN ST
Ġreli able
Ġcert ificate
Ġnarr ative
Ġc ards
urs ive
ĠR on
ĠH ug
< <
Log in
ab ad
ar o
Ġprovid ers
ĠT og
Fail ure
á »
ĠPl ayer
Ġfra ud
ĠJ son
] ^
Ġpaint ings
ĠÐ ²
h ill
ĠPro du
ĠF ather
Ã ¥
et ition
ĠDom in
Ġme ets
amazon aws
] =
ick y
11 3
Ġimp ly
ĠM D
ĠP rom
map s
19 08
aut ore
ĠInd ependent
CO MM
ĠR ule
Ġf iscal
v et
Ġm ess
S pr
el ines
bar a
Seg ment
Ġtot ally
Ġd yn
str ings
Ġout break
valid ation
Ġfe es
Error f
ĠK y
I ES
Perm ission
Ġex clusive
ĠTele vision
ĠG ordon
ri k
Ġs now
Ġin herit
J ames
un iform
ĠEx press
Î ½
z i
rypt o
Bi ography
Ġro oms
Ġinteg ers
ĠRef orm
J une
in ces
in istic
Can adian
ĠYear s
C N
am ents
ĠTai wan
Ġd il
An alysis
MM ARY
Ġsim plicity
assert True
$ ^
ativ istic
Ġsit uated
Ġleg it
ĠFin ance
AT CH
Ġfund ed
periment al
Ġre aches
ĠRel ations
ĠLouis iana
ile vel
B D
ĠBar on
em bed
Ġexam ine
Ġdeleg ate
ic ates
cy cle
Ġenc oded
ol as
2 20
text sf
Ġs ed
Ġb aby
. :
Ġc orn
Ġshe et
; |
Sh ader
G EN
Ġtem ple
ĠH it
Ġtrad ing
Ġpl aintiff
ĠP as
5 12
Enc oding
rem arks
U V
Ġse ar
ĠSar ah
Ġm ales
ĠC red
Ġsepar ately
ĠAut o
ĠĠĠĠĠĠĠĠ ĠĠĊ
. -
Ġcritic ism
Ġsub stit
GB T
Z one
Ġagric ultural
E urope
Ġco aches
t ip
f actor
ens itive
ĠPh oto
Ġoper ates
Ġhapp ening
or ous
Ġre n
Ġcho osing
Ĥ ¬
Ġvisit ing
Ġs av
H am
Ġc ircles
Ġrequ iring
Ġrad ical
Ġform ing
, ...,
Ġcorrespond ence
$ \\
ĠVol ume
Ġsy nd
& &\
cl ide
ĠSe attle
ĠMc K
Ġin ference
\ }.
ĠSt ew
Ġlib eral
ĠCh apter
ĠAtl anta
Ġelectric ity
Ġfe as
Ġ Ñģ
Ġh ired
Ġf old
j d
ĠD ur
Sup er
to Be
Ġperform s
TH ER
Ġig et
Ac cept
Ġvol umes
Ġhistor ian
ĠNew ton
ĠHaw ai
f p
Ġorgan isation
&= &\
Des pite
ine ar
Ġev ident
ast s
Ġsl ot
Ġperm it
r ules
ĠS ud
Ġcirc ular
Ġlif etime
ĠP i
Ġp sy
ĠL oc
Con sole
Ġover flow
ac ef
ĠAl ber
He alth
Ġa ria
ĠE ver
ustr y
Ġabandon ed
t ures
ov ak
gener ate
Ġ ~\
ĠU V
ĠQueens land
ä ½
Ġcom ic
Ġsing ing
ĠGir l
Ġt on
Ġelse where
u uid
S ite
Ġinf lation
ĠStud y
Ġresident ial
Ġher itage
Ġpseud o
Ġsustain able
B ounds
ge o
ĠHon or
u ity
level and
em en
ss l
ĠB Y
ph rase
ut ing
m atic
ĠMar shall
ĠLib eral
Ġs oul
ĠDe an
re ason
ĠP sych
Ġch a
ĠL am
ĠRes erve
Ġpick ed
Ġf s
Ġreve al
class Name
Ġs ync
Ġdiscr imination
j k
Ġf urn
ĠPolit ical
Ġprodu cers
Ġgen etic
13 5
def er
st e
Ġen ables
ĠB ased
Ġproject ed
ĠA BC
ĠD ub
Ġprocess ed
ust ed
V ICE
New s
ĠS el
Ġroad s
Ġrecover ed
ĠMiss issippi
Ġn an
ĠAl bum
Ġpro to
p ages
ol ly
Ġne arest
Û Į
Ġ& $
ĠD ak
C enter
Ġsign ing
Ġaim ed
Ġmorph ism
iv ities
Ġ\ {\
ĠCent ury
ĠV in
claim ed
Ġelig ible
Jan uary
ot te
app y
Ġtherap y
. ;
Ġr ival
AT TR
Ġ ĉ
Ġw x
Ġdeterm ining
Ġdiam eter
dis tribution
Ġre putation
Ġun f
F ac
ĠGr ad
CON FIG
Pro position
z y
m ac
rem ote
Aug ust
Ġt ort
Ġag es
\ [\
Ġ$ _
ĠPy thon
ĠM organ
ĠK elly
Ġco oper
arch ive
h al
Ġcl ar
th an
ors es
Ġmiss ed
Ġs lope
ir ates
me asure
d ing
ĠN ap
Ġneg lig
ĠAl liance
ic it
ĠSen ator
ĠP ack
new line
re pository
end ers
.* ;
ĠC hen
Task s
ä º
Ġinitial ize
Constr aint
ĠL eft
Ġunit ary
Ġar ise
Ġst ating
Ġ' %
Ġres erve
}^ +
BU IL
C md
ĠWith out
ĠM ission
ĠP ed
ĠBow l
Ġprofession als
ĠRes ults
O lymp
b olic
m ount
Ġgen re
ĠConfig uration
p d
Ġviol ent
Ġeng age
ram a
Ġorder ing
Ġfun ctor
Ġ\ |\
In ner
Ġremain der
link s
Ġpain ter
ious ly
) }$.
er as
Ġdestr uction
W ell
Ġreson ance
H ar
se a
at hered
ĠVAL IGN
ĠC ow
AS K
ĠD a
st ory
â Ĩ
An notation
Ġed ited
ĠPh D
Decl aration
ĠAl an
Ġcontract s
LI ST
Ġf lying
Pl ace
Ge V
sh a
Label s
uc lear
mit ter
DO M
Ġb rown
Ġtri b
ab ul
Ġwe ar
Ù Ħ
ĠĠĠĠĠĠĠĠĠĠĠĠĠĠĠĠĠĠĠĠĠĠĠĠĠĠĠĠĠĠĠĠ ĠĠĠĠĠĠĠĠĠĠĠĠĠĠĠ
Ġd ies
ĠLaw rence
_ )
CD ATA
}^{ +
Ag greg
Ġb ases
Ġjud ges
Ġre pository
p rom
}[ !
ou ver
Ġman aging
Ġoccup ation
Ġd im
ĠR ound
ĠL agrangian
Ġentr ance
res pect
12 4
b oth
big cup
_{ +
× ķ
ĠO tt
ant ed
B orn
T AG
M o
u ates
Ob server
em it
Ġb are
Ġt ens
w en
ĠTh read
b n
item pty
oc ese
/* !
l ive
ĠVill age
ĠDoug las
Ġe c
V P
Ã© t
ĠP uerto
Ġfor get
om itempty
sub equations
"> (
Ġcomp an
second ary
Ġtransform ations
) _{\
is o
ate ur
Ġcompens ation
w allet
left arrow
ĠCro at
Ġw arr
Ġb irds
h istory
Ġspect ro
ĠD VD
Ġfocus ing
n est
ĠN am
u on
Ġclass Name
Ġmach ines
ĠDe ep
! âĢĿ
ĠF arm
Ġh a
ex cept
view port
l on
ĠBr uce
C he
book s
mut able
is ode
ho le
Ġinhab it
Ġ{ $\
com pute
clide an
Ġal ive
ang les
ĠAm endment
Be en
lib s
ĉĉ ĠĠĠ
m apping
ĠM E
A pril
he rence
Â ©
ĠBe at
$ }}
We ek
ĠP rior
b ow
ĠO C
Ġ' ''
à ¥
oust ic
m outh
Ġterm inal
Ġdiagram s
FI ELD
12 6
ĠM IT
Ġsu icide
Ġmy th
18 90
ter y
n an
Ġc od
ĠT errit
ĠD al
Form s
Ġ< -
b oot
Ï ĥ
ĠH erm
å ¤
Ġwel come
Ġmat ched
r pc
SS ION
Ġbl ow
ĠJer usalem
m aker
Ġinvolv ement
ĠOr chestra
**** **
ĠG arden
Ġsuppor ters
ear ing
ĠFe b
Ġlabel ed
Ġphot ons
J uly
ĠAss istant
ĠArgent ina
Ġmechan ical
ĠOut put
m ates
W arn
C ALL
= %
12 2
D onald
and al
Ġappoint ment
ĠA C
Ã ł
ĠN ik
ĠDe lete
Ġ" >
Ġgu ilty
Ġprepar ation
on na
Ver ify
Ġdecre asing
Ġal gebras
Ġal cohol
ĠC ole
m ill
_{ -\
ĠQu ery
Ġdiscr imin
Line ar
f act
get Instance
Pe er
ĠSam uel
nol imits
Ġh orizon
sol r
Ġtext ure
Ġem issions
Ġm igration
script scriptstyle
ĠSchool s
g ent
rep o
Ġaccompan ied
Ġw ider
ĠChrist opher
cont act
Ġapprox im
Ġt ied
ĠH oll
ĠIn v
Ġtransform ed
Ġf itted
c assandra
Ġfall ing
ts burgh
Ġrank ing
Option al
ain ian
ĠI ter
Ġim pl
Ġinter sect
Ġang les
P ub
Ġexpect ations
n ik
Ġt unnel
ort ed
ob i
Lo op
j ax
Ġdr ums
[ ]{
ĠBang l
Further more
Ġpro tests
m ir
Ġph arm
ĠEnvironment al
Ġobtain ing
glyph icon
De ath
Ġrot ate
Ġpro position
Ġliter al
> ()
Ġmer ger
ĠN eg
R ules
ĠMc G
an ia
ĠEqu ation
ĠO k
ĠAnton io
Ġin duct
ĠEx change
ĠAb b
re nt
ĠAdd ress
\ }_{
um in
uff ers
19 05
Tim er
nov ation
Ġexpand ing
P ress
Ġun like
Ġagre ements
Ġindust ries
am ount
Ġr id
ĉĉĉĉĉĉĉĉ ĉĉĉ
p read
Ġbron ze
label s
f our
en ers
bel ow
ĉĉĉĉ Ċ
W IN
Ġoper a
eral d
19 2
;| &
Ġprint ed
aud io
ĠCon text
Ġanim ated
UR CE
as hes
A wards
Ġ* ,
Ġh am
19 07
Ġenh anced
00 2
ĠA le
ĠÃ ł
Ġdevelop ments
ĠT ake
ĠU tah
Ġun ity
ĠMuslim s
M art
Ġarr ive
V C
Ġb om
Dep th
es tr
Cont ents
ey ond
P ut
s heet
ul p
Miss ing
Ġstead y
ĠP ear
Ġexpl oration
Ġposter ior
Ġreal istic
LE MENT
ĠBuild er
ĠSU MMARY
do i
Ex pected
AC CE
he ets
Ch ain
Fil m
e ast
UN T
ID E
Ġref lected
Ġpri ze
Ġcommission ed
Ġg ang
Tim estamp
ele y
ĠK am
Depend ency
p ref
ind ependent
Ġjournal ists
det erm
Ġdistingu ished
w he
Wh ite
ĠN eed
w hat
ĠL P
Ġall ocation
ĠF le
ah n
Group Name
omorph isms
Ġpr on
al ph
ym n
s z
Ġmathemat ical
Ġdis ag
Ġrem oval
M ount
Å ¾
ĠSw iss
ĠC F
Ġdeep ly
ĠR ot
Ġco herent
small skip
con ver
i op
Ġpro be
ĠDen mark
D er
Ġintr insic
tr ain
Ġencour aged
A X
ĠCh air
Ġthere by
Ġiter ations
N umer
Ġperm itted
Ch art
trans port
Ġabund ance
Ġsurpr ise
Ġl ake
get String
ĠN ation
G reen
Ġpubl ish
Ġansw ers
Ġpl ots
Ġaug ment
Ġ( ;
T ile
ock s
g z
ĠT ool
Mich ael
ff ee
Ġcomp iler
Ġcolle agues
pr iv
Ġmag ic
S i
per ature
it ol
Con tains
ĠAust in
( ()
log ging
Ġaut hent
Ġt uple
Ġ{ %
ĠC C
Ġpay ing
) &
Ġpl asma
F rames
im itive
Ġproport ion
Column s
S erv
sp aces
Ġoverl ap
* \
Ġt ip
Ġd ress
}) =\
ĠF er
Ġdis able
Ġt ank
b x
igh ters
Ġiter ator
Form er
Ġs essions
Ġsurv ive
ĠComm ander
Ġc ro
t ouch
Ġalign ment
Ġqu iet
und les
ev a
Ġlocal ized
Ax is
Ġgener ations
ĠS port
inter val
od o
op les
Ġs occer
m akers
Cont in
b ia
Row s
20 23
Ġplace holder
c n
Ġj ury
h ist
Å Ł
Ġweek ly
ar ance
sw ing
Ġm outh
ĠG raph
ard ing
ĠCh amber
Point s
Ġear liest
Ġb on
ĠG ulf
alt Color
Ġdesc end
Ġins ight
Ġpass engers
ĠChrist ians
Ġprob abilities
Ġincor rect
Ġrest ore
m ms
Ġs ectors
Ġrem oving
Ġpurs ue
ĠEm peror
ĠD allas
Ġs ensor
Ġev il
Ġmet res
C ulture
b undle
r ame
win ning
Ġsimilar ity
Ġdecl aration
ĠS ep
$\ ,
Ġsp arse
ro se
ĠP eters
ren a
Ġinj uries
Ġre plic
i ac
Ġde leted
Ġturb ul
ad oc
Ġim g
ĠOther wise
ĠM ust
b inary
In f
Ġinter ference
Ġreg ulatory
comp act
Icon Error
Ġsup plement
ĠEar l
ops is
as is
Ġdesign er
Ġcy cles
Ġdem ands
Ġfem in
ĠSever al
ĠQue bec
UR N
ĠE mb
ij ing
Ġdev oted
ĠĠĠĠ ĠĊ
ĠThom pson
Rec all
ĠSt ore
ĠWork s
riter ia
ĠPubl ishing
cal cul
ĠW ord
ĠCol omb
B ro
ann on
xy gen
inter pret
ides pread
ĠPubl ished
Ġthought s
Ġput s
ant on
ĠD og
ail and
Ġpass enger
L iteral
ĠMat thew
ial s
v ance
Rober t
V ec
Ġinnov ative
pend ing
Q ual
b lob
Ġaccret ion
Ġbeaut y
Ġso il
Olymp ic
Ġj unior
ĠD ublin
ĠE ag
tr ight
um ing
art z
f are
ĠSy mbol
Ġlaw yers
Ġpres erved
Ġcelebr ated
Ġunus ual
Ġassert True
m obile
ĠSt ill
cons istent
pr agma
can vas
ĠS n
AS H
Ġinv asion
IconError Encoded
cor respond
Run ner
v y
AA AA
ac ew
j amin
Ġm esh
RA Y
Ġadm its
ĠF ive
Ġgrow s
Ġtw elve
s ong
Ġ ----------------------------------------------------------------
Ġbelong ing
Ġfore cast
Ġbreak s
R ot
Ġneut ron
ĠH ills
Col lect
ma j
k ernel
d ale
Ġd s
M a
out ing
sh are
Ġhe ter
Ġtri angle
w br
Ġcal endar
st rip
Ġl icensed
ĠR et
Ġr anging
qu est
Ġs ick
Ġin herited
Ex ists
av ia
Ġdiv or
ĠN ag
Ġhelp ful
lear ning
ĠCre ates
upl icate
Oct ober
rt l
pro blem
le ading
Ġy es
Ġeigen value
ĠHistor ical
Ġgener ators
24 0
Ġb ot
om er
STAT US
Ġmedal ists
ĠM s
po inter
EN TRY
Ġd ictionary
Ġdep icted
Ġs a
over e
M us
Ġd war
Ġfr uit
Ġserious ly
Ġemer ging
ch anges
ĠB eck
ĠPr act
Ġgener ates
ĠT itle
Ġis omorphic
OR K
Pop ulated
Ġ Ä
19 06
por ter
Ġge odes
Ġpropag ation
ĠF red
d z
Ï ģ
Ġap ilevel
Ġf irms
Ġsurv ived
\, {\
BU FFER
Ġthem es
Ġhospit als
K it
ĠA ws
ĠSp irit
w i
Ġp ump
ĠC os
Ġdevelop ers
Ġre ven
F eed
T L
_{ [
) }$,
Y our
Ġdes criptor
String Builder
Ġcent ered
ĠAd vent
Ġre ign
Ġde als
N a
Ġf i
EE E
ac ht
D id
C ity
ĠBalt imore
Ð° ÑĤ
oc om
ĠCommission er
r at
fore ach
back s
ĠJ S
un s
Ġwhe el
G G
Ġsuper ior
Ġb il
Ġrun ner
Ġimm igrants
Ġre ar
G ood
Ġconver ges
in burgh
ĠFri ed
Ġpass age
ok er
Ġj s
Y ER
re le
ĠF reedom
ash i
M achine
ĠRes ult
ĠIndones ia
Ġart istic
}} ,\
ens ively
Ġmod ification
19 09
Ġminor ity
Ġinterview s
writ ing
Ġentang lement
W I
ĠInt elligence
d jango
ict ions
= &
ĠOper a
Ġconstitution al
Ġlog ical
S plit
ĠL abel
opt im
Ðµ ÑĢ
ĠB ou
h arm
Ù Ĩ
ĠST ART
Ġaver aged
L ive
Z ero
Ġexcit ing
ĠK az
int o
ĠIn ternal
ĠClass es
Ġtyped ef
ĠP ap
Ġeng agement
ĠBill board
Ġperson ality
ĠBul g
top ic
Ġcov ariance
rout er
Ġro se
Ġprison ers
Ġs ad
Ġs oph
f ef
G IN
e enth
ter ed
Ġab road
Array List
ry ing
Ġauthor ized
anc ouver
pan ic
Ġc b
ri ent
ĠB ron
Ġ" '
c op
ĠH D
ĠE V
Ġrecommend ations
ĠÐ ½
æ ķ
ĠC ert
am an
D ATE
ĠAd ams
ĠT ab
Ġthe ater
ĠRuss ell
column s
Ġch unk
bound ed
ol ph
T oday
ĠS R
Ġl ots
Ġcon e
M ag
ic ians
ĠD A
Ġlog arith
ĠPortug al
st eps
Ġpack ages
ĠD ist
ĠO pt
comm unic
Ġdo ctors
Ġgo ogle
Ġremark able
Se ptember
LE TE
Ġ\ }
Ġtrend s
le ans
cite alt
d in
Ġmolec ules
cept or
LIC ENSE
n ob
re peat
}{ }
ens is
Ġpar ad
Ġd ot
ĠE ffect
Ġnot ing
ps hire
| _{\
Ġne ur
Ġpat ent
b rew
ĠK o
Ġmix ture
Ġconsist ed
Ign ore
u ant
pat cher
p us
Man agement
Ġn ick
Ġestabl ishing
ver sy
ĠCom par
Serial ization
ĠN elson
Ġhand led
And roid
ident ity
build ing
Ã ª
ĠD ance
ĠL ang
Ġcomb ine
Ġbi ological
R UN
2 30
Ġo cean
ĠLim ited
chi at
Dr ag
ĠW as
Per iod
Ġdialog ue
ĠAl b
LO W
ĠDat abase
ĠT el
t v
Ġcontrad iction
n os
ĠĠĠĠĠĠĠĠĠĠĠĠĠĠĠĠĠĠĠĠĠĠĠĠĠĠĠĠĠĠĠĠ ĠĠ
Ġrecip ient
ĠJ ob
Ġun expected
RE CT
Ġa ired
ab i
' $.
Ġoff ensive
Ġup coming
V I
set ting
tribut ions
: '
Ġrep ly
med ium
ĠF isher
Ġfle et
Ġsp okes
b inding
be ing
Ġart ifact
m ate
ĠV enezuel
tern oon
ĠNC AA
RA ME
ĠCol umn
qu ality
Ġcrit er
Ġpopular ity
ĠW right
w iki
ĠC emetery
ĠCl in
Ġstation ary
tright arrow
ĠB etween
Ġ" [
Ġt ropical
fr agment
ĠR ic
Ġb reed
hy thm
Ġhor ror
ĠB eng
Ġw av
Pres ident
clus ively
De cember
ĠS to
^* _
Ġpars ed
ĠD ictionary
Ġat tributed
ĠCo q
ial ect
P romise
ĠNor wegian
Ġde fer
l m
Ġfrequ ent
c ancel
id o
ĠLank a
s olid
Ġm ath
D an
C LA
Com b
Ġvulner able
C ancel
T om
Ġcon fer
Ġv ort
l r
Ġ` ``
Sec ret
cl s
V irtual
Ġrele ases
ĠCommunic ations
list ed
ĠCar ter
Ġtok ens
Ġinf ection
Ġathlet es
Ġinstall ation
ĠI F
ĠCon stant
Ġd ating
×ķ ×
du al
er en
\| ^
ĠMalays ia
Ġaff ine
ant i
Ġre act
Ġwonder ful
A lex
sc ar
( ['
Ġsp herical
ĠTr ack
B oth
L IN
loc ale
Ġneighb ors
T yp
ol ished
Ġfarm ers
}) )
ĠPortug uese
X Y
Con vert
gener ator
Ġco ins
ĠH old
Ġeng ines
ud son
ĠF BI
Ġpar a
Austral ian
ben ch
Ġhydro gen
Ġh ook
w ind
PH P
jav ax
Ġsynt hetic
eles cope
c ity
(" %
Ġadv is
* ,
Rev iew
è ¯
Ġv eget
az ines
Ġim plications
ant ics
g if
ist ically
| _
i ations
ord inary
-------- --
leq slant
Ġm ac
E Y
L icense
ĠJ osh
C V
Spec ial
Ġtim estamp
iz ard
Th ree
Ġpro x
Ġh at
19 01
40 4
Ġtarget ed
ĠN BA
Ġround s
ĠP ho
Ġ uri
^+ $
Ġw idespread
Ġover view
Aut hentication
Ġspl itting
ĠAng el
en h
cc c
Ġd owntown
Ġmut ual
Ġgr ass
Model s
UB LIC
ard ed
Ġpul se
th a
ab ove
ĠBrook lyn
li ed
ĠW oman
Ġgot o
enc oding
str ument
Ġemer ged
Ġis lands
mid rule
ĠP romise
Ġgeneral ization
W in
ĠMark ov
abl ing
del ay
k ing
Ġv m
ĠH u
Ī Ĵ
Ġv ic
19 04
W atch
m iral
3 000
s ar
Ġs urre
E ducation
Ġgr ants
ĠM achine
ĠJ ason
Table Row
Ġident ifying
Us es
================================ ================================
val ued
ch arg
bor ough
Ġsl ice
A K
Ġdis contin
uff icient
d ashed
ĠI L
with out
Ġlegisl ative
Ġtr im
Ġtext s
s yn
Ã ´
17 5
Ġinflu ential
Ġback ing
ss on
oc he
Ap J
Ġf olk
am er
n ia
Ġintrodu cing
A ir
Ġestim ator
ĠC leveland
Ġf etch
oth s
Ġde emed
Ġarr anged
op edia
run ning
Ġdefend ant
hip s
re view
Ġpro secut
ĠI mp
ĠEq s
iver pool
B ibliography
ĠK itt
Ġhop es
iv ia
Ġrecord ings
Ġimag ine
ion ed
ac les
in formation
} ",
P OS
Ġcompet ing
est one
Ġdepend ency
decl are
Ġb ath
con tain
ist ol
p ars
L ear
Big g
Ġun likely
Ġcr ick
ĠG raham
w hel
Ġcons iders
Ġob st
Ġsup plies
ĠPo isson
Down load
ign ore
Ġcolon ial
Ġkn ock
ĠStud ent
B F
im ir
Ġhead ed
sur face
over set
ĠEd ition
ĠStud ios
Ġo x
Ġkin etic
un ion
17 0
ĠM aur
Ġanaly tical
Ġimpr ison
Rel ated
d anger
ĠM ars
Ġwe aring
TI ES
or us
id ad
ugg ing
sec ution
âĢĿ )
vious ly
Cam era
Ġg arden
p f
ĠPalest inian
ĠInf antry
Ġcriter ion
Orig in
Ġra ising
ĠC ensus
Ġthreat ened
ĠI ron
Ġch ains
A rm
ra ig
St ub
Ġs ke
Ġpeak s
Ġmaintain ing
ĠK ings
Ġrank s
Ġcon clusions
Style ID
ĠSing h
Mon th
Execut or
Ġop ens
et r
f ar
Des ign
Ġp ole
ĠOrth odox
ĠOr leans
> %
ĠNever theless
ĠSquad ron
process ing
Ġclos est
ĠO wn
Ġcompet itions
Ġt ennis
Ġbas ically
H ave
Ġdis appoint
ĠU til
sc ore
Code c
ĠKn ight
Ġrest ored
p al
eg u
ĠV egas
Ġex ponent
A ctions
ib bean
AV E
Ġproject ive
Ġk it
Ġproceed ings
Ġ' @
Fe atures
ri ble
Ã «
at ile
Ġnot ably
T ouch
y ll
ĠCh ampions
pos itions
ĠSch olar
F ixed
Te am
Ġ| =
IC ATION
BO OL
Ġsurv ival
f ac
ĠRepublic ans
ambig uation
Ġg rap
Y es
Ġp ushed
Ġb orders
ĠFrank lin
um ed
pe ction
Å «
RE S
OL D
im inated
Ac adem
Ġw orship
ĠTe ch
ĠA GN
Ġcol leges
ĠMethod s
12 1
Ġconsist ency
An aly
Ġart ificial
Ġcan vas
flu id
s ass
Ġknow ing
ĠArk ansas
ap y
\\\\\\\\\\\\\\\\\\\\\\\\\\\\\\\\ \\\\\\\\\\\\\\\\\\\\\\\\\\\\\\\\
Ġul tr
Ġind irect
ge on
Ġarrang ement
ĠH ad
ĠK it
ĠM other
Ġeffect iveness
N I
Ġ' "
ĠR iemann
ĠN ature
create Element
ĠS end
Ġpl otted
h pp
O BJ
Ġexp ed
ĠB us
os c
Ġt ends
Ġorgan isations
Ġstay ed
ion ic
onom ous
Ġde ployment
it is
Ġarch ae
" ];
enc er
ĠR ap
ĠM ess
Ex ecute
Ġsing ers
F ALSE
cent ral
LE S
Ġv ital
Ġrep orter
Ġhigh way
ĠComm ons
Ġresc ue
ĠWARRAN TIES
Ġfin ishing
Ġsuspend ed
ĠRob inson
I ss
vel ope
Ġanaly zed
Ġe g
tr action
ess ment
ĠCamp bell
ĠU RI
Ġdecl ined
ĠWe bsite
Ġsac r
oc ent
Ġ' _
ampl ing
ĠStud ents
c fg
l int
Me an
B G
U pload
Ð ·
ĠW ard
Sports people
e per
ant ly
on line
i ere
Ġautom atic
as a
Ġcoll isions
ab a
Ġsub sets
ĠLe ban
ĠB asic
E u
c ursor
ĠL iving
55 5
Ġm eters
Ġfriend ly
Ġch rom
ul o
12 9
Conver ter
mem bers
ug u
With out
et o
ĠIran ian
ĠStew art
Ġf older
TR AN
Ġemb r
g raphics
3 20
ĠF ermi
f und
re ach
al ities
Ġb ott
Ġrec ruit
R oman
ĠM aterial
op ter
Ġover come
r atio
p id
Ġc urrency
Ġcomb ining
Ġh int
0000 0000
Ġw ine
ter ior
Ġany where
ĠS A
if ference
ĠS ac
ĠAn na
ĠF M
ĠThe ory
ate ful
Ġexpert ise
ic ht
Res et
Ġdifficult ies
er als
Ġcl one
Ġl ibraries
. ),
Ġequ ity
Output Stream
not ify
âĢ ī
ub ern
Ġsc an
D ig
__ )
ĠM I
ĠEd inburgh
Ġinter vention
Ġt ough
EN V
H istor
ĠJ uan
Ġimpact s
}} =\
ĠRog er
ate way
fef efe
fr ames
Ġcosm ological
Ġrefuge es
Ġun em
Ġcontr ary
Ġvol t
Ġspe aker
ĠB uffer
Ġamplit udes
ect ure
math ds
ĠPar se
Av ailable
Nov ember
ĠPal ace
qu et
Ġ- =
Sh ift
Ġin vert
B ER
Ġsus p
Ġthreat s
19 03
P riority
Ġel der
Ġpri est
Pr ice
Ġst retch
S core
ĠB uff
Ġim aging
Ġsh orter
is y
ĠAnn ual
Ġillustr ate
ĠTri b
DE X
ĠArg ument
Id x
Ġcaref ully
Sep ar
Ġconv icted
ĠOper ations
ĠIt em
Ġ-- ></
4 50
P acket
Ġob server
(' <
D ynamic
Ġr ide
Ġactiv ists
Ġweap on
not in
D irection
Ġanalog ous
roph y
ĠL ower
ĠD OM
tim estamp
L U
ĠI C
Ge ography
Ġevery where
R G
ĠLeg al
deg ree
l ia
ens on
T ok
19 0
ĠĠĠĠĠĠĠĠĠĠĠĠĠĠĠĠĠĠĠĠĠĠĠĠĠĠĠĠĠĠĠĠ ĠĠĠĠĠ
Ġcomp iled
ĠEconom ics
Ġf est
un lock
hat tan
Ġpure ly
ap ple
Ġreflect s
Ġenc ode
row th
et es
l b
Ġsuff er
ĠBangl adesh
Ġadmin ister
ĠN i
Right arrow
Ġ& #
ĠCirc uit
S elf
ĠMor ris
E r
A ST
Ġsp oken
Ġex cluded
T ex
irm ingham
BA SE
Ġaffect s
ĠM agn
Ġst adium
uk i
Ġcl ause
av is
( /
Ġor bits
Ġmar ine
M ut
å Ĭ
in ject
00 5
ĠUn iverse
ĠMov ement
ĠTh ailand
ĠM C
sub stack
Ġnegoti ations
oth y
ival ent
Ġharm onic
Ġdeput y
S uch
mark s
he res
18 80
ĠU pon
Ġprom oting
Ġexcept ions
SP AN
Ġen act
Ġgrad ually
g lob
Ġaggreg ate
w alk
he astern
or b
Ġdis joint
ox y
uch y
cond itions
ĠCommun ist
ĠB art
b ecause
ĠBO OST
ĠCar lo
get Message
the ory
ĠAss ume
Ġc ogn
Ġd st
Ġconsist ently
Ġholid ay
ain er
Ġprov es
19 02
ise cond
ir i
Part ition
sd k
99 99
Ġtro uble
Ġtouch down
Ġman ual
NO DE
raz y
ĠB ull
IL ITY
ĠG ary
Ġs wit
ĠH ope
s qu
ĠPl ant
CC ESS
è ¿
or o
n ecess
Are Equal
is an
ĠPer formance
z es
ĠBo ys
Gr ad
f older
ĠPit tsburgh
pl acement
Ġres ign
ĠVAL UES
Ġcon gress
ĠNot ice
ĠJ enn
Ġ$\ |
ĠM aine
att ed
ĠJon athan
Ġpro s
Ġth orough
ĠF ern
Ġr aid
l ua
Ġlong est
refer ences
File Name
}{* }{
Bl ue
Ġd ated
O k
ul ates
ĠM ort
ĠBrazil ian
ĠR io
Ġsh apes
Ġver b
EN ABLE
S al
g ems
Ġactiv ist
ĠSt ein
ĠL ane
>< !--
m illion
ĠM obile
fl ush
ĠF inn
Re ason
ĠR ace
QUE ST
ĠPolit ics
' }\
Ġbl ank
Ġnormal ization
lect ric
Part icip
bo ards
Ġnewsp apers
ID S
ĠG rey
ĠLie utenant
. ]
ĠG il
ĠĠĠĠĠĠĠĠĠĠĠĠĠĠĠĠĠĠĠĠĠĠĠĠĠĠĠĠĠĠĠĠ ĠĠĠĠ
N P
ser vers
Ġens ures
W he
br ane
Pr imary
ĠDak ota
Ġdiss ip
Ġun stable
ĠF al
ĠF O
ĠR ange
nt z
ĠCub a
pl er
Ġsuggest ing
ĠMov ie
th ird
U nd
Ġun s
14 5
Ġ âĢĻ
ĠP aper
En able
ĠSer ial
æ ĺ
Ġsurround ed
link ed
Ġcool ing
ĠS cript
Ġw ounded
Own er
ĠV iol
styles heets
im ony
ug s
Ġre tained
Ind ian
oid al
ĠTh ank
j ud
st ers
Ġexp enses
B H
ĠH ell
Ġex ha
ĠBe ijing
Ġb ucket
) |\
est ure
IM IT
cl ock
Ġmon ot
k es
erv oir
Ġgu idelines
Ġfr ustr
Pro fess
v p
RE SU
M ass
d m
2 10
ĠF el
en z
je ctions
annot ations
Ġplan ets
met ric
Ġapprop ri
" (
g h
Ġph rase
fe atures
Ġrespond ed
< >();
th umb
Ġsurn ame
Ġlimit ing
Ġagric ulture
Ġinvest ments
Ġsubs idi
b oy
Ġexpl ored
Ġcontrovers ial
Ġcomp ression
au i
produ ction
Ġext ending
on z
ĠH ockey
ĠIm perial
it ime
000 1
Ġc ached
h op
ĠMur ray
Ġg ray
Ġmem orial
Run ning
Ġinhabit ants
t ically
Ġsole ly
ĠSaf ety
ĠN ic
Loc ale
Ġdispl ays
ĠC arn
Ġbox es
res olution
ĠA ch
Ġt um
Ġdef ensive
}} )$
og ue
C SS
or ate
Ġcitiz en
AR GET
Ġweak ly
AP P
ĠBroad way
D TD
Ù ħ
be ans
u ition
ĠBrother s
} <
Ġcond ens
Comp at
ĠArab ia
ane an
J o
Ġcor ruption
te chn
ĠS oc
v dots
Ä «
Ġconform al
Ġstreng then
Ġav ailability
Ġen umer
SP ACE
le f
ĠInd ustry
dec ode
Ġbeg un
ĠL anc
iv an
}) _{
t ot
ĠMarg aret
et on
ĠB apt
Trans ition
ĠG ray
ĠIm port
Ġh ierarchy
Ġelect rical
13 6
ous ing
Ġthir ty
Ġsk ill
ĠNAS A
ĠT her
Ġexist ed
Ġap artment
ut ter
Ġas c
ĠD oc
Ġp in
| =
Ġtrans it
Ch anges
ĠM aj
ĠFin land
Ġcheck ing
ĠCom ponent
PRO P
Ġcred its
ĠMult i
Ġt ies
Ġmin i
local host
Ġ# {
Ġ( %
ĠD id
ĠN um
Ġke eps
Ġphotograph s
Ġcaref ul
Orig inal
Ġactiv ation
ĠSing le
ĠAl tern
Ġvis its
HO UT
ĠS ession
Ġaf ternoon
tra its
ct ree
Ġcor por
ĠSpe aker
get Type
L M
ĠGir ls
C oin
Ġan isot
for ced
Ġcontribut ing
ĠH IV
ĠJ u
Ġn s
Ġposs ession
' },
e clipse
S napshot
tra ctions
sl ide
stat ement
& $
Ġcut ting
ov o
min ute
27 0
Ġemphas is
ĠE instein
ĠV ancouver
ĠLog ger
ut t
Ġlab our
RE T
ĠEgypt ian
Ġing red
Ġcr icket
Ġout line
T or
c ient
Ġparticip ating
ĠC ultural
As sembly
og a
= -\
pl ain
ar ial
Ġch amber
ab stract
T uple
Ġprim itive
b ach
HO ME
ĠSt age
Ge ometry
N eg
Ġalloc ated
e lection
s ame
ĠDef ine
ĠMont real
Control s
b ucket
ĠDir ac
ĠBatt alion
Ġas ks
Ġshift ed
g re
ĠH ave
Support ed
order ed
Ass ume
ĠB ound
ĠS r
inc or
Ġdam aged
i ang
ass y
A cknowled
ĠCom puter
dis ambiguation
ĠHung ary
ĠG ill
\, ,
k ern
Ġb acter
Ġt act
Ġmeas uring
Un iform
includ es
Ġim pressive
Ġaccount ing
Ġtraject ories
ĠĠĠĠĠĠĠĠĠĠĠĠĠĠĠĠ ĠĠĠĠĊ
Ġc ust
ĠPat ri
Ġw elfare
H I
(" \
Cre ated
Ġinstrument al
Ġannounce ment
Al gorithm
ĠEn c
W ar
Ġpull ed
B bb
bl ing
grad le
ĠL LC
qu estion
l floor
ins ula
Ġdram atic
ĠD raw
ĠSt ars
Ġmiss ions
Ġpos it
Ġbl ind
d ocker
Ġstr ange
Name Link
S en
RE SS
Mat cher
Ġclust ering
Ġ( ,
Ġre ception
un known
at ics
Ġas semb
As set
> $
S ever
Ġtalk ed
ĠMit chell
Sub ject
} ~\
id ity
ĠAct ive
Ġex clusively
F D
L and
q q
Ġiniti atives
Ġent hus
Y P
Ġconsc ious
tim eline
R ail
un ed
Ġguarant eed
Con tract
ĠB achelor
dr iven
ne e
Ġrep air
ar us
ĠIn valid
Ġuser name
Ġnon zero
Ġhyper bolic
% "><
Ġf oss
Ġamong st
}\ ;
c mp
ext ensions
Ġg ross
ĠB aker
Ġfin itely
Ġphys ically
Ġdemocr atic
add ed
G l
ĠL GBT
ver ify
ĠC rown
list ener
Ġd y
Ġla ugh
Ġg ram
Ġnot ification
Sc ott
ĠL I
ey er
des criptor
run ner
I r
ig o
acew atch
ĠL ess
en o
B reak
os opher
ĠO P
Ġstream ing
ĠSt ev
S am
e u
S ide
Ġbelief s
Ġrender ed
Ġb at
Ġel astic
to oltip
ham mad
ĠDo es
Ġdiv isions
Ġt icket
ĠP rix
our t
h ai
Ġl oyal
Ġover whel
Ġjourn als
M ail
Ġhom ot
ĠCl imate
Ġp ose
Ġann ually
m x
Ġst em
Sim ilarly
B u
Ġdis pute
F W
Ġt ur
Ġre actions
Ġchar ity
ĠT ar
Ġrare ly
ĠMA X
ĠI ce
ĠCar ibbean
Big l
lin ux
ĠW ind
Ġrestaur ants
)= (
dat aset
Ġpropos als
SO URCE
' )$
t z
Ġc oc
dom inant
ari ate
Ġde pression
Ġe at
B g
Ġinsp iration
p ent
if iable
autore f
ne ed
Ġlength s
look ing
prov ed
ĠJ azz
ĠZ one
ĠI gn
T y
Ġs ends
Ġconstant ly
ĠSt op
urre d
Ñ Ĩ
Ġpart ly
ĠEx per
ĠS S
Ġsevent h
' $,
F B
Ġb ary
__ ,
ĠSpec ifically
f av
trans l
Ġs ender
i pt
urric ane
r floor
Sche dule
get Class
gener ic
RESU LT
ic ian
a ac
establ ished
cc a
i ot
ĠNaz i
Ġ' #
it err
ĠF ro
eg e
Ext ensions
ĠR ick
ĠM es
ĠSp acewatch
c ourse
os er
u art
ay an
V ill
ĠDe cl
Ġwe bs
T ensor
ill o
ish ops
ĠStud io
Ġep id
quir y
h n
C irc
ĠZ e
Ġdeploy ed
$ --
Ge orge
ĠPr ivacy
ĠD anish
Ġsl ave
uff ix
Ġan notation
ĠW ol
ĠR ub
Tele vision
Al pha
Ġw ake
Ġmeaning ful
D ITION
Ġcomb inations
alax y
ĠAl aska
un ning
Ġas ide
ĠRun time
16 5
ĠBy te
Ġded uce
Dis tribution
ĠStan ley
Ġdis aster
h is
ĠD R
= (\
ro oms
ĠT ob
ĠE dd
Di agnostics
Ġbe ach
ĠEx p
J ack
ul k
ĠT alk
Ġpaint ed
Ġperfect ly
Ġvis ibility
Ġval ley
Ġ à¤
/ )
Ġhas n
ĠHam pshire
Ġcons ensus
Ġb orrow
ĠCons ervative
ĠMat hemat
Ġcount ies
Ġinst ability
ĠS V
Ġrepeated ly
Vis ual
Fe bruary
ĠL ad
v g
Ġreview ed
Ð¾Ð »
a ho
Ġass ass
& -
inn ed
L ow
Ġto x
× Ļ
ĠFreder ick
le in
Mon itor
c od
spect or
ric ulum
W ho
Ġg allery
Ġfeel ings
Ġf usion
Ġev olved
Ġdef ence
add Class
ĠMic hel
Ġdist inction
ass oci
ĠH ost
Ġperson ally
Do ctrine
ĠMari e
sm ooth
Ġcoupl es
ub s
st ation
the y
5 000
ĠTre as
cor rect
Ġin cl
18 70
app ings
ĠAl fred
B its
ĠR ain
Ġsurv iv
ĠL uther
Ġre b
h ou
Ġ å
Ġcond em
ĠBrig ade
em ale
ĠUr ban
ĠJim my
a que
s ocial
18 98
Ġred irect
d st
og ical
ĠWith in
ĠSum mary
Ġh ill
}_ +
Ġcor related
ĠGener ated
Ġphot ographer
ith metic
T X
ari ans
ĠArch ives
in itions
ro d
Det ector
f requency
ced ure
ĠH end
Ġindu ces
Ġport folio
Ġsubs cription
Ġens uring
B usiness
Ġch ampions
he alth
ĠâĨ Ĵ
ust ain
TableRow Color
Ġqu ad
Ġfl ash
Ġreported ly
t oc
am y
ac re
Ġact ively
tog ether
olog ically
up dated
he x
itte es
Ġm ile
Ġsy ntax
TO M
T og
ĠN othing
Dis k
Ġatt ending
ĠProfess ional
Ġf ishing
PRO C
Ġob l
ĠL iverpool
Ġful fill
St age
Ġnom ination
f ish
Ġb ird
IN VALID
Ġes c
Ġa apt
Ġeconom ics
ĠJ e
ig s
sp ot
M ilitary
S witch
osp el
pare ncy
Ġdo ors
Ġrom antic
L ead
ĠK l
Ġconstr ained
an ne
ĠA the
Ġde let
ĠT ol
ab b
Ġemploy er
> ${
Ġg enu
æ Ī
Ġfor cing
ĠEx pression
Int ent
ĠL ag
Ġcelebr ate
Ġl in
ĠKar l
Ġsh ifts
ĠMan hattan
ug osl
Ġvan ishes
Ġanalys es
Ġconflict s
K L
Ġphot ography
ent i
') ->
Up dated
re ck
ĠB ed
pro c
ĠN BC
Ġcom ed
AT URE
Ġcompos ite
Ġprom ising
Ġo xygen
Ġh ip
ĠImm utable
T M
Ġretr ieve
ĠP ad
Ġlabor atory
Ġin coming
ig ator
ĠMet ropolitan
A SS
ĠV I
Serv let
u et
R adio
ut down
ĠR y
16 8
Ġf er
Ġcal ibration
Ġb attery
AT O
], [
CO M
Ġrem oves
st ock
ĠChar lie
ve ill
ĠPort land
Ġcoupl ings
ĠM eg
Ġphysic ian
Ġsem antic
ordin ates
ĠVi enna
ĠR ico
Ġland ing
g ow
Ġde eper
ĠPr ice
h uman
ĠWar ren
dl ib
Ġvar ies
ĠT OP
Ðµ ÑĤ
Ġcarri es
Ġcomm em
ĠS elf
Ġk inem
Ġcell padding
, (
Ġfant asy
Ġ$ [\
Ġt ar
ne ut
ath on
Ġbroad er
Ġprov incial
Ġquot ient
ĠS pect
se ed
] ^{
ab e
con cat
Ġc ous
ĠE RR
TH E
t uple
ĠDel hi
ĠY ang
Ġterror ist
Ġacc eleration
Str ucture
Ġis instance
ĠT ower
Ġhe x
ĠWay ne
$ _{\
Ġch iral
tr aining
Ġd eter
eff icient
ĠE C
ue z
ĠV ik
> [
ĠK ath
Ġ$ <
Ġmem or
ĠD ie
Ġcontinu ity
ĠB illy
() ">
d elegate
Ġpro c
mat ches
]] ></
M utable
N R
B us
Ġge omet
me as
ĠCr ime
Ġpl astic
S chool
ĠP od
ĠWel sh
Ġforest s
ur ring
Ġattract ed
t own
in x
b ai
)} _{\
ĠIm ages
EV ENT
igh bor
ĠLegisl ative
ĠP un
S K
Ġsort ed
di ag
Ġwh ilst
ĠP red
ĠFor um
Ġnot iced
ĠUp per
F i
çĶ ¨
he ro
Ġmir ror
met rics
ĠS eg
qu er
Ġcomp ound
Ġcoal ition
Ġres id
Ex tra
": "
Cal endar
ĠFac ulty
;\ ;
ĠJeff erson
pay load
con current
tim er
' +
Ġobject ives
ĠP ast
B ACK
Ġg olf
Ġpre liminary
press ions
] ).
it ary
V O
ĠB H
Ġmot ivated
' ',
Ġ' -
(' ./
18 91
Ġco hom
ADD ING
Ġt ension
ces ter
k ee
ĠHand le
Ġwat ched
ĠN ull
ĠO K
veill ance
ĠP HP
Ġcas ual
h aus
Ġsub stance
f m
Ġp ip
Ġmechan ics
ĠBen jamin
ĠL evel
Ġ' ,
Ġven ues
Ġdes ert
An n
Ġglob ally
ĠCom ment
se cret
Ġmain stream
) *
ĠF ALSE
ch at
ĠCap itol
) |^
ar ound
andid ate
ĠD est
A fr
R ussian
Ġclaim ing
e or
ĠEv ans
sche mas
ĠEu clidean
F ootball
add le
Ġcell spacing
cknow ledge
ig m
18 99
Ġs alt
arri ers
stats models
Al bum
Ġhead ing
jack son
iterr anean
ĠR oom
ĠA uth
Re act
allow ed
ĠInd ians
ag h
duc ational
Ġins pect
W W
Ġint ense
ĠSh ah
Ġinvestig ations
ix on
L aw
Ġline arly
ik es
Ġar ising
ith uan
in herited
Ġb arrier
ra f
}_{ {\
ĠCon vert
. ).
ĠV ar
Part y
man agement
Ġli ability
ĠBern ard
pos itive
Ġpurs uant
Ġt ie
d or
draw able
Ġaccept ance
} &\
ĠE N
Off icial
ĠB irmingham
MP L
) !
ĠT arget
Br idge
Ġrelax ation
not ification
ou b
US A
per cent
Ġbirth day
Ġharm ony
ĠLem mon
Ġelect oral
ĠCon sequently
Ġ$ $\
r and
Ġmonth ly
P ush
no frame
14 7
. ',
Ġover s
Ġin hib
ĠC atal
x sd
Ġres ort
Ġcap ability
Ġ" ${
Met ric
Ġprot otype
ld s
Not able
ĠPr adesh
Ġprogress ive
p iece
AC ING
ĠPr incess
}} }{
Ġagre es
P ane
ĠS hip
ache l
16 9
Ġcon jecture
Ġg rey
( |
B ur
C UR
Ġtim ing
ĠL L
Ġcan n
if ting
Ġattempt ing
Ġcancell ed
P REF
iv ic
or ry
ĠW ang
comp ass
LO AD
Ġarrang ements
ĠM ach
ĠT ig
cl i
Ġliter ally
Ġperturb ations
Z Z
Ġcast le
Work er
Ġar ises
{ [
Ġdo i
Ġpra ised
ĠR O
ĠAnd y
ĠC IA
ĠBr anch
D U
Ġden om
Ġt iny
ou p
13 4
at able
Ġcontro versy
ĠS cal
ĠSy rian
N Y
ord ination
TER N
100 00
Ġimplement ing
ul se
Has Been
Ġaccomp any
ĠCom merce
ential ly
Ġopin ions
Ġ( ),
Ġvari ants
am ination
con struction
ĠUkr ainian
ĠPhys ics
ĠSt even
. },
ĠC lear
ĠC T
Ġcub ic
Ġpark ing
process or
pos al
ĠS ex
at in
Ġanc est
Load ing
C amp
H A
Ġaux iliary
Ġc arrier
Ġmod erate
c x
Ġph on
Ġad mit
Ġel iminated
Ġcampaign s
Ġconven ience
! </
Dec imal
== =
Un ique
en vironment
am ous
Sh adow
] ['
ĠD ise
m ov
Ġexhib its
ĠH ero
as ant
Ø ¯
Ġc up
unders et
ĠC ancer
ĠPro file
Ġlo ops
cp u
ĠMad rid
Ã© r
ĠMet ro
ĠâĢ ł
ĠR ender
ĠĠĠĠĠĠĠĠĠĠĠĠĠĠĠĠĠĠĠĠĠĠĠĠĠĠĠĠĠĠĠĠ ĠĠĠĠĠĠ
ĠM atch
Ġt f
Ġad option
AR G
op ens
ta x
om y
ĠConf ed
ab olic
Ġsp ark
Ġoccasion ally
C ost
C AL
ĠH em
ĠR elease
Ġdipl om
ĠQ CD
Ph ys
dis k
Del ay
ĠT ABLE
ĠT otal
ill iant
ĠH E
ĠS ide
ĠP il
Â ·
em ies
path s
ĠR andom
Ġspac etime
ĠC old
P an
ĠAr n
Ġrefer ring
P ADDING
ĠC er
google apis
Ġobserv able
Ġsuff ices
7 50
Ġincor por
Ġre semb
ĠP O
Ġrout ine
prot ect
Ġess ay
ol en
Ġres igned
ĠMin or
Ġm apped
out ube
m r
Ġincre ment
ĠMod ule
Ġcompl aint
s amples
13 2
ĠEnt ity
des cribe
sup erv
ĠWIT HOUT
S n
k ar
Ġsuccess or
ĠPark er
ĠBr and
M ix
D istance
Ġrem ind
ĠChristian ity
ace ut
Ġg athered
no ise
ĠNev ada
ch t
Ġam ended
pe g
ĠCom b
ĠS yn
Ġintegr ity
Ġexam ined
\| _{\
In struction
ig ion
O FF
Ġpo em
Ġcy ber
ĠMot or
Ġwith d
Ġcount ing
date picker
Hash Map
ĠEv ents
ĠR ugby
inn ers
Ali as
Ġl ying
Ġfacilit ate
Ġg ains
ish ments
Ġj unction
code c
ĠShe l
Ñ ĸ
Ġinequ alities
Big r
ew ise
Ġstream s
cast le
contin ue
ĠMon th
Ġdelay ed
Ġenc oder
ĠV erm
ob a
pack et
Ġefficient ly
end point
ĠÐ ¸
Ġqu oted
Ġsuper conduct
Ġc ategor
ĠMean while
ĠGu y
U psilon
50 9
Ġsampl ed
Ġvalid ity
B ucket
Ġan ten
inc ipal
Re ceived
au er
Ġmark er
ĠK EY
ex act
ĠUn less
d ating
}^{ (\
Ġdepart ments
Ġlo ans
ĠR ud
ĠN GC
um ar
ĠCh o
MA GE
Ï Ģ
Tr igger
\ -
ĠK u
ad ic
T ur
ĠA U
f w
ĠV eter
Ex pect
ĠA qu
Ġg host
ĠL icensed
t ile
ĠUn fortunately
Ġguarant ees
ester day
ĠTog ether
f un
=" {{
Ġexam ination
sub float
Ġinitial ized
ine a
i ology
Ġsurvey s
ĠInst all
D ue
] </
ĠChall enge
Ġmount ains
Th omas
ĠElect ric
sat isf
Ġbl ess
script s
' ].
Ġre normal
h ig
ĠIllegal ArgumentException
ĠJoh ann
ĠRoman ia
Dis c
P rom
us ive
ĠThe ater
ĠO cc
p ipeline
qu o
f lix
Ġlisten ers
;" |
) }^
Ġvari ed
ex ecution
Ġattract ive
ĠF ant
Ġking dom
ĠF lo
>( <
################ ################
15 5
cam era
Ġqu ote
ac ies
it ud
d ifferent
C annot
vers ions
? }
Ġhuman ity
Ġvess els
Ġr um
ir k
Ġrel oc
ĠW olf
LA B
Ġanal yst
ĠUn like
ĠBar bara
. (
Ġg all
ple ctic
Ġim pose
Ġphenomen a
ment ioned
Ġcos mic
br anch
Ġdiv ide
} "/>
fl ux
CRE ATE
v n
an Ã§
est ing
ĠInitial ized
gu ide
Ġprint f
to ctree
m ers
ĠC el
Ġac oustic
Ġrail road
Ġrel ies
Ġevery body
HasBeen Set
op am
in ery
//////////////////////////////// ////////////////////////////////
` )
**************************************************************** ********
Ġtravel ing
Block s
Ġm ic
St ation
ãģ ®
ĠSh ar
ĠCO L
cos ystem
Ġscient ist
ĠB ORDER
m ys
p oll
ĠR and
ĠD J
str ict
ĠG lob
ĠN ep
pi pe
Ġdemonstr ates
bor ne
Ġ< ?
Ġs overe
Ġmathemat ics
20 2
ĠRem ark
' }$
N ON
Ġexception al
Ġv it
Ġin herent
i q
se en
T l
ur bed
ĠM oz
Ġcr ack
Mod ified
ĠM ind
ĠPro perties
Ġpoint ing
Ġcryst al
Ġaut hentication
om on
lat est
Ġdec ays
Ġjud icial
ĠOC aml
F actor
R GB
O cc
pr ice
att ing
Ġgu ests
f ailed
ĠSal v
ĠT an
Ġdefault s
is i
ĠD ays
Ġprom ot
ĠAd miral
d w
Ġpl enty
Ġre cre
Ġext ensively
script ions
g un
cam el
FLA G
bre aking
gr pc
}, {\
. }\
Ġw et
G old
Ġin struct
Ġ\ #
Ġdaugh ters
18 00
Ġsold ier
ref resh
dat etime
Ġsubstant ially
ĠE li
value Of
ĠK on
ĠM icro
Ġver ified
Ġag enda
Ã© n
Ġview ers
Ġmin istry
Ġdepart ure
ĠAl ban
om ed
et ics
, âĢĻ
l st
Ġbus y
2 25
Ġhe ll
13 7
Ġa cknowledge
Ġcl s
enn ial
G T
AR RAY
Rep resent
ush ing
ĠR ank
ĠCo al
Ġal igned
ĠColl ins
f iction
Ġde formation
] ->
Ġc able
Ġvolunte ers
max cdn
Ġassum es
s amp
Ġend if
redu ce
ĠB reak
ĠDef ence
Ġentreprene ur
m any
ĠT ry
Al ert
sim ilar
ĠRec all
M esh
ĠOtt oman
Ġdr ink
Ġshop ping
Ġrem arks
Ġsent enced
Ġrel ate
Ġcons olid
Ġhigh lights
ĠMay be
L ater
Ġcoast al
Ġbr ands
Ġbur st
sh aped
sc an
Ġ} {\
}) -
Par cel
Ġtherm od
ĠAust rian
Ġscholar ship
T imes
akes pe
ĠEn cycl
C ountry
Ġh ack
18 95
18 96
Ġatt itude
Ġcomput ers
Ġterrit ories
Ġelimin ate
ir able
Ġim per
Ġdevelop er
Ġc rown
(" .
Ġin cent
ĠDr ive
ĠP arent
pi res
us p
ot ton
Ġpotential s
w right
ĠBl ues
ac co
Ġst roke
mathbb m
M W
os ph
ĠCh ron
ĠTra il
Ġg ro
Ġb le
m ade
}= (
Ġco ffee
Ġr ivers
eth yl
K ernel
N eed
let t
om eter
Ġf ro
ĠJ oint
ĠBerk eley
ĠK os
c ritical
H H
Ġact ed
C ref
ĠS ize
Ġt ile
h um
orient ed
her s
db c
sup p
ĠAnt i
Ġ======= =
ĠF un
Ġcr u
Ġtrad itions
Ġgovern ed
1 19
ĠG un
Ġun w
B TH
Ġlik ed
C trl
ĠF ine
D ict
Ġless ons
ib ling
acc ur
ch itz
18 60
Ġd otted
Ġmed ieval
13 3
Ġel abor
S mall
ĠCon sole
Ġoverse as
U A
P DF
M AN
Ġh ate
aceut ical
Ġbre ath
ĠI an
d yn
V R
Ġpred ecess
ap ing
}. \
Ġen orm
FFFF FF
a uc
Ġhe ating
SP ACING
ĠClass ic
Ġinflu ences
ol ate
Ġsequ el
">< ![
Form atter
Ġlog in
IT LE
pack ages
Ġveloc ities
Ġinfin ity
effect ive
p aces
ĠG C
ĠG O
ep ing
ĠLiter ature
ab is
ĠL E
Ġdr inking
ber ry
ul u
iss a
CR IPT
ĠUnivers al
ĠSe pt
OT TOM
Ġnav al
Ġiniti ated
o ys
Ġminim ize
Ġn ested
Ġvess el
Trans fer
ro v
Ġpe oples
oun ters
Ġfail ing
get Attribute
ĠPro f
Ġpre st
Ġam end
Ġsub str
t ake
ĠÃ ī
ĠK IND
k k
Ġs napshot
G RO
__ ["
Stat istics
Ġreason ing
ĠF ast
s ources
Data Type
zer bai
E LEMENT
ĠH ind
B s
ĉĉ Ġ
ĠB egin
Japan ese
d td
tt ing
An im
I ME
ĠB AS
vel oc
Ġaccur ately
h h
Ġper pet
Ġj ets
Ġref resh
I p
Ġs ail
Ġst ops
Ġassert ion
DE D
Ġmon ument
acef ul
S eq
Ġr ings
A MP
Ġf abric
um ann
Ġmag azines
Work s
__ .
ĠGl as
t bl
LA Y
View Controller
maj or
l c
on ed
r h
Ġformul as
Ġd rew
aus es
Com ponents
ĠSt orm
Ġsil ent
s ent
Ġsudden ly
d al
Ġveter an
final s
Ġinc idents
ĠMu hammad
ĠHawai i
Ġ" #
Ġlaws uit
spir acy
Ġdel iber
ĠP oll
Ġh orses
ex isting
Ġf oo
int egr
Ġg od
ĠF ly
Text View
display math
Ġacqu ire
ĠPol y
ĠMount ains
ier ra
ĠCred it
ĠB ond
p k
Ġfeas ible
m ust
p agination
ĠC BS
Ġpod cast
Ġnot ify
Ġsearch ing
con figure
Ġvirt ually
P s
Ġf inger
C ross
d ed
Ġm os
Ġre fr
ing e
Ġhabit at
tab les
) )$.
E ar
H ello
ĠK an
)} =
ÃŃ n
N U
ĠP ref
Ġdiver gence
) <
mb f
Ġc rop
ĠM ak
ph abet
tract ed
Is rael
Europe an
EX PORT
Ġinsert ed
ĠRich mond
h ad
Mod ifier
Ġste am
Ġcontinu ously
p od
ĠBar ry
hes es
ips chitz
Ġb ag
r v
Ġshe ar
Ġsub stitute
Ġstr ain
Ġrest oration
Ġspec ification
Tem p
Ġcritic ized
E ast
ĠA ld
ĠG ot
Ġvolt age
Ġb ishop
Ġanom al
Me asure
Ġimag inary
Ġcult ures
Ġhighlight ed
Ġi i
. (\
Ġsee ks
se gment
che str
Ġcivil ian
Ġsports people
ĠCon nection
Ġwrap per
å Ń
YER WB
BTH YERWB
ear ly
B road
è ®
ĠPho enix
Ġf atal
18 97
Ġposs ibilities
it Hub
ĠWar ner
c ord
o j
... )
Ġformal ism
ĠP or
ĠP ictures
ĠB ag
Ġalleg ations
Ġmid field
"/ ></
ĠOr ange
Ġscreen ing
ID ENT
33 3
trans fer
Ġgener ality
akespe are
S il
R ay
T ING
t one
ĠF oot
Ġver ification
Ġven ue
Bit map
ĠTR UE
ĠMod al
task s
ĠS now
Ġwarr ant
Ġdist urb
Scal ar
Sh are
' =
Ġprepar ing
red irect
T ip
m other
ĠO il
Ġmod ifications
Ġflo ating
ump y
Ġtor us
ĠMem ory
Ġp reference
Ġaccept able
ĠCom ics
Ġn eck
Î ·
ĠM ack
P ixel
ĠBroad cast
R adius
ĠId ent
Rel ative
' )\
Ġc avity
Ġadvoc ate
Ġincred ible
ĠCELL SPACING
ĉĉ čĊ
Ġorgan ic
ĠCELL PADDING
ĠLore ntz
ĠParam eters
: &
Ġshould n
$ (\
Ġflow ers
Ġf ed
Ġdyn asty
Ġbatt les
sub Nav
I FI
h base
lock ed
ĠDe bug
Ġg ard
Ġnumer ically
! (
ĠSte el
separ ator
ĠT i
ĠM i
ĠP S
Test ing
Ġorig ins
am ilies
set Text
ad v
ow ell
Ġhon our
ĠRail road
" ?>
Ġuniqu ely
Ġam endment
ĠC her
J O
Ġbr ick
Ġsound track
ĠJohn ny
Ġinter pre
ĠA rena
Ġj ail
Rich ard
S ol
New ton
Ġoccur ring
Ġm s
Ġins ights
Ġelli ptic
Ġl iv
ever y
m und
part ition
Ġdeterm inistic
Ġh az
Ġregular ity
Ġarray s
ĠG reater
Ch ina
st ri
Ġte ch
d ue
ov ich
ĠCr iminal
Ġvent ure
o il
ĠF ight
ĠH aving
ren ew
Ġp our
Ġattr s
M obile
Ġhel per
Comple tion
miss ible
Ġrect angle
Ġor ange
}} }$
Ġcomplet ing
ĠQu ant
Ġachiev ing
ĠPro test
B uf
ĠB loom
res olved
Ġthread s
Ã¨ re
Ex amples
Ġperm utation
ĠTurn er
f uture
Ġcred entials
Ġadd r
Ġlat ent
Ġcor poration
Publ ished
ĠC row
Ġarch ive
Ġhard er
bour g
L uc
ĠPl anning
ĠSt re
Look up
C at
Ġt ill
ĠÐ ´
Ġpe ers
g em
block s
U r
ĠFe ature
Ġw eren
ĠHel p
ĠO d
Ind eed
ĠCamp aign
Ġam pl
Ġinternational ly
s ure
Ġt one
Ġj u
ĠMP s
ĠL yn
conom ic
x rightarrow
uck er
Ġencounter ed
G s
Ġdifferent ly
ul s
SH A
Ġv ibr
Ġpsych ological
F our
ograph ics
ĠS ET
cho ose
Ġvo ices
S ig
Ñ ħ
Ġco in
Ġcam ps
ĠC ass
ĠVis ual
em ption
amp ing
Ġab elian
Up per
p oi
constr aint
ĠB row
Ġint ens
Ġsc iences
is ch
Ġsurpr ised
Ġp s
Ġguitar ist
ierarch ical
br aska
Ġearth qu
ubern etes
Ġspecial ized
ĠDate Time
Ġdismiss ed
v skip
Ġk w
H en
Ġunder ground
ors ion
Ġex pr
attr s
F oot
ST M
uss ia
L ines
Ġfor b
}| ^
14 3
depend encies
ft en
N orm
ĠCl aim
Ġadvent ure
ul ous
18 88
go og
ĠC rit
Ġ ^{\
Ġt s
ĠC M
av i
* (
ge ometry
D one
Sup press
D ist
~ (
in verse
Ġextr action
Cl ub
Ġâ Ĥ¬
Ġpreced ing
ind ices
ĠU E
Ġcomplet es
ĠJ ess
Art icle
ĠCh art
Ġpremier ed
a very
Ġorient ed
prec ision
ĠGr id
F ire
ĠB orn
Fore ign
Ġant ib
ĠF if
ir l
aw esome
13 8
ĠMed ic
S ent
Ġs cre
od al
ref lect
pon s
N ONE
c ookie
ous el
Ġactress es
project s
Ġout per
ST ART
fil er
Ġc inema
ĠInitial ize
Ġs aving
Ġad equate
opt imal
h yp
Ġamb ig
Ġd ump
ick en
= }
ĠS Y
Ù Ī
P N
ĠU SS
Ġoblig ations
ind eq
Ġvari ability
Ġab b
serv let
RE NT
ĠP si
ĠLead er
urre nce
Ġtang ent
g ap
Ġmulti plication
ĠAlber ta
ĠA B
ĠCon struction
ĠHun ter
Ġ{ {\
ĠVer ify
M IT
b ishop
ĠT rophy
re z
i ator
æ Ĺ
he art
ĠJ en
Ġtour ism
WA RE
Ġasympt ot
ĠIndust rial
Ġster e
Ġste ep
Warn ings
Pro du
ĠR ules
ĠN iger
Ġgovern ance
c ached
ĠAlex and
Ġall ies
ĠHash Map
Ġar row
ĠT ak
Ġob sc
IE W
O s
ĠLeg end
Ġo ct
ĠS F
ĠW orth
Ð¾ ÑĢ
R ank
writ ers
ĠWH ERE
S ets
Ġmem ories
Ġexcit ation
spec ies
Ad v
B etween
S ocial
tr ained
Ġult imate
Ġbur den
V A
por al
Ġg ent
com press
ose x
() ]
ĉĉĉĉĉĉĉĉ ĉĉĉĉ
start s
Ġaud iences
ĠF itz
Ġflex ible
Ġre lying
ĠS even
Ġindic ator
tok es
Ġtravel ed
Ġaltern ate
Ph ase
Ġb ins
ĠM atrix
ĠCP U
mar shall
Ġcl othing
h p
lim ited
ĠSer bia
he ld
ĠB ody
\, .
sign al
Ġsu ite
Set up
ĠP ic
Ġd ub
ĠL ost
Ġabs ent
b et
Ġneighbor ing
Ġem it
T ry
}\ }$
ĠT yp
Ġdog s
Ġb oot
ĠE uler
ter ms
n ail
indu ced
On line
Ġconstit ute
Ġinteract ing
W alk
W ARN
do es
U AL
f ive
un ks
K K
ĠIn n
C lean
Ġ. =
ĠRober ts
te ch
Ġfl av
Ġto m
Ġterm in
Trans lation
Ġpers u
ĠHung arian
Ġt y
Ġsent ences
Ġac res
G H
15 2
Ġlimit ation
amp ed
CO UNT
ĠÐ º
ĠT oken
Ġany way
Ex it
Ġcred ited
F ill
Ä Ł
ĠNorm an
z ym
ĠB A
Ġleg s
J ew
Ġup load
u ent
ject ive
ocr atic
Ġphil osopher
ĠHarr ison
Ġch ronic
Ġse p
18 89
Ġap ps
D ry
ra h
30 4
ĠP ent
Ġhold er
L ite
th y
Ġemploy ers
ĠTh ings
F ar
g ender
rot ate
Enumer able
Ġband width
re nd
op ing
Ġvol unt
For ward
ĠN an
Ġproof s
_{ {
fil ters
. ")
Ġsqu ares
Ġsomew here
pre pare
ĠSim ilar
Song s
ur u
d eveloper
). }
mut ex
over flow
ster dam
tr on
tr ait
Ġind igenous
Ġcommun icate
Ġper ceived
Ġb oss
Ġconv ey
13 1
W at
Ġdis cre
ĠS SL
ĠO scar
put es
C a
ĠCh ampion
pol ar
ĠSpe ed
chedul ed
in ced
æķ °
ĠBapt ist
H ol
ĠN ord
ĠMed iterranean
S at
p ixel
ĠĠĠĠĠĠĠĠĠĠĠĠĠĠĠĠĠĠĠĠĠĠĠĠĠĠĠĠĠĠĠĠ ĠĠĠĠĠĠĠĠ
Menu Item
Ġex clude
RE QUEST
ĠE val
hell o
m icrosoft
ai ro
ĠFri end
Ġdr ift
Ġwav ef
R ound
Ap pe
ĠUs ed
J ac
ĠJ oy
f ers
Ġcard inal
ĠG as
ĠW ikipedia
Ġident ities
Ġcontrad ict
Fix ture
20 8
en ario
Ġcert ified
ĠAdv anced
ĠĠĠĠĠĠĠ Ċ
T i
18 50
ĠL apl
cel ona
m el
ĠIn stit
Ġ" );
ĠB log
ut orial
ĠH orn
ĠW ait
Ġachiev ement
ĠIn iti
: %
plement ed
14 6
om ing
Ġl ad
Ġclass ifier
or ange
18 93
sl ider
R M
Ġmed ic
Ġplan es
Ġ/* !
=- =-
ĠP UBLIC
Ġcompos ers
ĠStan ford
over y
Ġ ell
, ~
Ġim perial
Ġaccess ed
ĠSy ntax
Ġrac ism
m usic
ay ing
K ing
Ġsec ured
Po jo
hol m
ĠM uch
c ategories
Al t
stream ing
Ġread ily
ĠC raig
}_{ (
vent ions
Ġconfigure d
Ġcompan ion
Ġloc omot
Ġmanufact urers
qu arter
Ġoccas ions
Ġaddress ing
Ġw edding
v v
h on
Ġ[ -
isecond s
ĠRead ing
Ġr ay
ĠTr avel
Sh arp
umb ent
( `
ĠS ave
es cape
Ġpl acement
pect ives
Ġlik es
ĠB ud
ore l
It alian
Ġprom ised
ep age
ĠGuard ian
Ġover r
sub string
Ġrev ision
ĠLabor atory
est imate
0 10
d ied
Ġmanufact urer
g c
Ġt ou
respon sive
18 94
ĠTechn ical
Ġ" ;
Ġreprodu ce
Ġdis patch
ĠS ax
Ġlocal ization
Ġstar red
ĠArt ist
Ġdev ast
ok a
respect ively
be at
ĠArch ive
Ġsegment ation
N L
tes y
P eter
i u
Ġconduct ing
it us
ut o
us c
Ġ ib
vers ely
ĠEx amples
ĠCom ments
Ġbos on
Ġl ic
over lay
Ġspe akers
am ation
Function s
ĠSer ge
k u
ĠH udson
tool bar
L com
ĠM erc
Ġhistor ians
Ġintegr als
aw t
f ollow
Ġl ingu
ĠB lood
++ ++
ĠA x
Ġlock ed
A ud
it r
18 85
Ġcap s
necess ary
Ġen force
Ġminister s
\ }}
^{ [
Pop up
ey l
umul ative
ĠS ister
ĠAssoci ate
Tag ged
ĠL arry
ĠProt ocol
elastic search
** *
bal ance
Ġdiagn osis
Ġ} ).
Ġbank ing
Ġwebs ites
ethe less
Constr aints
w ang
Ġchem istry
Ġobserv ables
mar ine
int f
Tool s
Ġfunction ality
vari ables
ĠM ason
Ġs weet
ĠU g
H int
Comm it
}\ !
trans late
Ġa z
Ġconf usion
Ġviol ations
Ġterror ism
ĠC arm
olt z
="@ +
ĠP ackage
Ġb anned
Sc ene
pop up
Ġextra ordinary
Reg ular
F ake
Ġem otion
ch unk
b ank
ĠC ell
Class Name
incor porated
OR S
Ġprocess or
if est
Ġsurre nder
Ġin ev
le af
Ġm ild
ĠY ugosl
Ġsoci eties
ĠMar vel
ut ory
Ġhom eless
manif est
Ġsup press
success ful
form al
ett i
Ġrev ised
Ġgeodes ic
us k
ect ive
âĢ ĭ
af ka
Ġop ponents
Ġneglig ible
ĠW es
Ġvan ishing
Ġp arks
> {
Ġc ul
}( -
ĠDen ver
Ġw ars
ab ases
ĠCarl os
ĠCat hedral
Ġe col
ĠWork ing
r ink
care t
end um
ĠL INE
De ep
ĠGab ri
ĠAnd re
Ġ" )
SU CCESS
T ARGET
ĠStat istics
ĠScient ific
- ">
Ġf ictional
Ġbond s
com ments
uc le
it ual
cho ice
C art
Ġn ortheast
Lower Case
Ġg al
Ġany more
ĠG round
Ġt ons
ic z
igr ant
Ġconstitu ency
Ġrest art
Ex pat
Ġswim ming
> .</
cript ors
Ġcook ies
Ġem p
' (\
> `
M iddle
S PE
ĠR aw
c art
Ġtrigger ed
ĠTh or
ĠDirect ors
Ġarchitect ural
Ġwalk ed
20 4
adi ents
WR ITE
ĠO ptions
ĠH indu
ens en
Ġw age
Ġspeak s
Ġprotect ing
Ġup grade
Re ception
)+ (\
ĠNich olas
="../ _
Ġconcent r
Def ine
Ġconj unction
b ast
Not ice
ĠJava Script
ancell or
ĠP erm
text ure
LE V
CL I
Ġadvant ages
ĠT ags
ĠPr imary
it ious
Ġser vers
Ġ" _
-------------------------------- ----------------
Ġthink s
r ac
Ġafter wards
ĠCl ose
è ¡
Ġinstitution al
ĠCit iz
st roke
Ġengine ers
Own Property
U ntil
ĠG T
ĠHig her
ĠSt ories
ĠEth iop
FA IL
ĠH AL
ĠF err
Ġderiv ation
Ġs le
rg b
Ġfraction al
N or
en ue
if le
Ġobserv ational
gener ation
ĠR ural
18 92
Ġent ers
Ġto w
ĠIm Gui
augh ter
}} +
Ġprov ing
Conn ector
Read y
tem perature
ĠMad ison
15 00
Ġwrap ped
ĠKen ya
pos er
IN IT
post s
op acity
Ġpo ems
Ġdon ated
Ġinj ection
Ġvari eties
Ġbr illiant
Ġmyst ery
C AR
Ġexpl oring
iv o
Add itional
cons ider
ĠB S
Ġdocument ed
Ġpres cribed
Ġlit igation
M ov
å ľ
ĠC ache
Ġcloud s
Ġscal ed
AR CH
ĠP erry
Mod al
G uid
row Color
ĠAb u
) /\
ĠRem arks
ĠA y
Ġtrans mitted
Ġqual ifying
Ġdig it
Comp are
An chor
ĠJos Ã©
ĠS aints
atom y
Key word
ĠF alls
e ing
ĠS uccess
ĠN ad
S afe
ik o
ĠD CHECK
Ġcomp ress
): =\
Ġassoci ations
ĠArch itecture
_ [
Ġb es
ĠM asters
ĠK il
Ġf unny
Un ivers
ĠPerson al
put ing
18 65
Ġportr ait
on ian
Ġtim er
W M
dis patch
ator ial
Ġqual ify
All ow
ĠB og
Ġl l
En tries
}} -
Ġten ure
ĠNot es
sur ance
Ġ\ }$
Ġnom ine
Ġe cosystem
Error Code
ent ries
Ġspec ifies
cs v
sp ark
vis it
u ke
Ġembedd ings
ĠColomb ia
comp atible
atern al
ĠSym phony
Ġ\ )
rel ax
Ġdecre ased
pro port
Ġun ions
= {\
el o
u cc
15 1
v iol
Ġarg ues
Ġsurv iving
Ġvolunte er
s lds
ãĥ ¼
ĠM all
Path s
Ġport s
ĠFl ore
Ġen emies
Ð¸ ÑĤ
Ġenter prise
az el
Ġtest imony
Ġconsider ations
Rec ip
Ġproceed s
Lin q
W el
15 4
Ġcross ed
ĠCon st
Ġm oon
Track er
col head
ĠString Builder
ĠCo hen
Ġab ortion
L ou
Ġl os
ĠP ant
Ġsup ern
Ġaccompl ished
ym an
Ġm arch
ĠQu arter
ĠDemocr at
F s
Ġme at
ars ity
Access or
ich i
Ġstrik ing
G D
Pro duction
GL enum
Expat riate
ins ky
p n
ĠLu ke
Ġinv oked
Ġqu bit
Ġc rypt
og s
ĠFil ter
ĠJ ama
ĠP L
enc il
Ġconcent rated
ĠGlas gow
m ot
Ġb ills
Ġal ien
}$ ).
Ġexp ense
Ġst ick
ol ia
ĠS EC
Ġmanif olds
Ġthe at
Ġregular ization
Ġflo od
26 0
Ġdiam ond
3 75
Dest ination
mod ified
heim er
]( #
P ipeline
ĠCl ay
hab ilit
Ġcon greg
Ġintrodu ces
Ġs ake
Ġbehavi ors
Spe ed
oc c
B ob
Ġpre vention
ĠR u
ph oto
bl ast
x it
ĠSh akespeare
ann ah
Ġnorth west
ĠRepresent ative
ĠĠĠĠĠĠĠĠĠĠĠĠĠĠĠĠĠĠĠĠĠĠĠĠĠĠĠĠĠĠĠĠ ĠĠĠĠĠĠĠĠĠĠĠĠĠĠĠĠĠĠĠ
ĠMar x
ĠVictor ian
Ġsummar ized
Ġ( `
Per cent
Sur face
Ġj oy
="# "
ĠC L
Ġb ubble
Ġprotocol s
Ġv ir
ĠW i
ĠJ erry
g om
ĠTreat y
ĠW or
B LOCK
C ould
ĠVenezuel a
Ġp ian
im o
ult an
Ġle ase
Ġsome how
Ġbo ards
Ġl ights
Ġ} $
P aint
mid t
Ġsimpl ified
ĠM yst
Ġsec urities
publ ished
Ï Ĥ
14 8
Ġcomfort able
ĠCov id
' ,\
Ġconsider ably
Ġspons ored
place holder
ch rome
Ġg it
if ice
em in
Ġatt ach
ĠColon el
Ġlog o
Ġinitial ization
work er
Ġh urt
V S
Ġ[ {
Ġfore ver
Ġdeg rad
iv ariate
ĠY ale
16 6
Ass ignment
ĠSus an
T w
lev ant
Ġtro ubl
ĠOl iver
Mill is
ĠC HE
Ġcohom ology
over ed
az ure
M or
Ġb one
Ġinter active
Sl ot
ĠNS String
20 3
Ġfl avor
ĠKir k
nob r
Ġpre dominant
Ġpro ton
Ġout lined
Ġo mitted
Ġgr an
ĠG ET
Ġreconstruct ed
Ġkey board
@ {}
ĠN A
+ |
gr avity
ust ers
ĠMil an
inter action
dr ag
Ġmount ed
Ġ æ
veloc ity
ro us
Ġsh ots
ĠDel aware
B ill
g ements
An notations
Ġobserv ing
ĠÐ ¾
ĠFri ends
Fr ank
ĠStr ucture
Array s
od ic
ĠPer u
inc inn
Rep ly
S yn
uff le
ĠStr ateg
Ġde prec
Ġcelebr ation
ĠM ans
grad ed
ĠL ud
}{ $
ĠInter est
Fr ance
ĠF L
Ġst y
ĠFl ight
superv ised
erial ize
Vis itor
d evelop
ta wa
ir s
Ġwid get
Polit ical
l it
Ġgr ateful
Ġmetall icity
TEXT URE
T ON
ĠN ormal
Ġhel ic
H ard
Build ings
28 0
ĠNov a
ph ot
ĠGi ants
11 11
Ġreason ably
* >(
Ġappreci ate
Ġmodel ed
Ġdec ides
est on
Ġunc lear
Ġportr ayed
ĠSong s
ĠSt yle
Ġem power
ĠTransport ation
g overnor
Mark er
Ġcomment ed
r k
Pay ment
Ġwealth y
ĠM ut
ĠP E
Ġparam etri
P adding
oupl ing
ĠR ing
Ġlob by
P ending
E lect
big oplus
Block ly
att ach
Ġcomp ly
ĠCon struct
Ġpoly g
Comple x
In ject
ĠC u
ĠAdvis ory
}}\ \
ĠCharl otte
ĠA str
over ride
ĠNe il
RO OT
Ġmot ivation
Ġfl ights
it zer
Ġrel ativistic
Ġconv inced
Ġthick ness
Dest roy
Ġveter ans
: -
Ġsp ots
ĠD IS
ĠAb raham
15 9
uk a
Ġfl ower
Char les
es ters
loc als
ĠD eg
sp i
] _{
ĠFle et
pos able
vers al
Ġwind s
Î »
Ġper ception
ĠM ix
Ġj e
Con tain
text style
H ook
M ust
Ġsup pressed
Mult iple
] ),
itud inal
ellig ent
ME SS
ynchron ous
I ll
ace ae
Ġsus pic
ĠOver all
ĠArab ic
K G
Ġgraph ic
as ia
Sc an
ĠCons erv
NG TH
ĠTam il
A ff
File Path
est im
h ind
ĠA WS
ĠGr ace
ĠKe ith
L arge
nos cript
c urrency
Ġrender ing
Pay load
Ġar ithmetic
Ġwood en
ol ition
EN CE
ĠB enn
ah l
Ġbr ut
ĠC hel
ac ion
Ġviol in
U Int
ch annels
14 9
is ible
Ġf ert
d v
Ġre forms
Ġtr aces
at z
Ġlegit imate
14 2
Ã³ w
ĠMur phy
mult iple
or ia
Ġneighbour hood
' -
incinn ati
ern ate
13 9
Ġpract ition
Res earch
asc ade
ĠF ont
ä¸ Ń
subs cribe
f aster
iff s
Ġstop ping
Ġm as
Ġco aching
22 4
> ../
ĠS id
^- $
Ġeng aging
Ġval ued
ĠPier re
mod ifier
ac a
ĠB asketball
Ġdam ages
Ġpy thon
F ollow
Ġmon arch
In jection
Ġprint ing
s elling
ĠAthlet ic
A W
T ake
ĠN icol
Valid ate
Ġunem ployment
ad itional
3 30
R atio
Ã ¦
Ġan onymous
Ġmunicipal ities
ï ¿
m acro
ĠCol lections
s outh
B er
ĠH ousing
Ġacknowled ged
Ġtrib ute
ĠT ed
Ġtack le
Ġadjust ed
Ġform ats
Ġelect romagnetic
Ġ Ã©
te enth
ener ate
Te chn
r x
om ething
Cert ificate
ir ts
ĠL loyd
ĠG ay
Ġbre ast
15 6
Ġcomput ations
ĠB omb
U UID
ĠM ong
ĠT ib
ME M
pot ential
ar an
Con v
om eters
ĠRog ers
ĠW W
}) ^{\
Ġappro ached
ĠA zerbai
Ar r
é Ģ
Ġr hs
amp a
Ġsynd rome
Ġdispl acement
Ġst ub
vent ory
yst al
ĠLin ux
Ġparliament ary
l ag
Ø ª
Ġt ickets
Ġback up
ĠAl ong
Ġmethod ology
ancell ationToken
BY TE
ĠVin cent
Ġoptim ized
Ġaffect ing
Ġ( #
ĠNe braska
Ġt rem
d g
ov iÄĩ
Ġen rolled
ĠG arc
Ġstrugg ling
ĠS creen
ĠCurrent ly
ĠPubl isher
F ri
ull ivan
+ "
ĠS olar
Ġpre val
to Equal
Ġdiff ers
pro j
ĠP ick
Ġ$- $
Ġsoph istic
r adi
Ġneg lect
Ġb read
Ġstructure d
al og
ĉĉĉĉĉĉĉĉ ĉĉĉĉĉĉĉĉ
Ġyoung est
Ġdes criptions
ĠAdd itional
Ġmuseum s
ĠE rr
look up
ĠT on
Ġrecommend ation
J s
ĠPro blem
Ġed iting
ĠAgain st
ĠB io
Ġop ponent
Ġlook up
ex clude
Ġgrad uating
Ġcomp ile
osoph ical
Ġhar ass
r ain
ĠSh adow
FORM AT
l ater
m icro
Ġgr ain
Ġfil med
14 1
Ġsl avery
External Task
Ġsynt hesis
ĠV lad
Ġsusp ension
Ġtr ick
ĠG overn
ed ly
bound ary
ĠB OTTOM
F RAME
Ġatmosp heric
ap ps
Ġover head
ph ysical
ĠSh ang
ĠB urg
set Attribute
pre ced
99 9
Ġbu ying
Ġsust ained
Ġbright ness
ĠRob in
center line
Ġr hythm
Ġl ux
act ers
Ġcor rel
Ġun e
RE Q
cont rolled
c amp
ĠPl atform
Ġsuff ix
Ġconver ge
D G
S ym
hib ition
c uda
ĠC atalog
ad apter
Al ignment
Ġgen es
ĠP resent
q a
the ad
ĠAgric ulture
ĠTe acher
E mb
Ġfre ely
Ġinf ected
ĠF ab
Ġharm on
Ġadapt ive
Ġcorpor ations
[] )
ĠCon n
Vis ibility
ĠPro of
Ġ\, ,
m g
n om
ĠEx cell
15 7
ĠCont emporary
ĠS L
ĠAn aly
Ġbank rupt
ĠCre ated
() [
ĠW ing
G overnment
Ġquant itative
Ġdec oder
MA IN
Ġd inner
Ġinter fer
Ġdis orders
or ic
Re place
z oom
ĠDet erm
AR B
Ġsus cept
Å Ħ
Ġg ates
ĠD im
ĠSh a
ag i
Ġcl ot
Ġel ite
Ġc ow
s creens
Ġdef ending
et ta
Ġg aps
ĠN at
Ġrespons ibilities
Ġe ighth
et c
Ġsum s
U int
Ġmask s
P rior
\\ \
im edia
Ġpar ity
ĠC ant
Ġp ace
w oman
? )
Ġfl ed
Ġp ill
arg v
RO W
Ġstat ue
Ġscript s
ĠL ithuan
ent ric
ĠF i
D ao
ar ms
Ġthe sis
ĠL ate
ars on
com position
18 61
uck s
M ot
ant ine
ĠT ournament
ĠD I
ĠSud an
ĠPro duction
Ġd ivers
ĠS ad
Ġcam eras
^ +\
ĠCON DITION
ed ges
He ap
ĠYork shire
Ġsynchron ized
ĠP el
Q t
ĠAct or
Ġdo zen
W ORK
st ad
Ġtele phone
Ġport ions
u u
Ù ĩ
or ious
ĠT erry
quant um
ĠCON FIG
V T
war z
or ters
Ġinv ariance
Second s
Ġtreat y
ĠMe V
Ass ign
Mer ge
ĠT s
it on
Ġre open
ĠBuff alo
cel and
ĠWrit ing
}{ $\
ĠI van
Ġenc ryption
Ġjoint ly
Ġhomot opy
Az ure
g ls
Im ages
dim en
Ġhop ing
ĠGr an
non atomic
Ġcl er
Ġr iding
ĠComple x
ï¿ ½
Ġh ang
Ġ__ ____
ĠBar celona
Ġsure ly
Ġen compass
ĠMag ic
; %
list ing
ĠCont act
ari ants
Su ite
ĠA udio
Ġoff ense
ĠHe brew
const ants
ĠAm sterdam
second s
f olk
Ġh istogram
tract or
ak u
Ġf illing
Ġown s
v ectors
ĠR PC
b ibli
ĠB R
got ten
ĠCol lect
) ~
Ġradi i
Ġenorm ous
Ġpl acing
im plementation
ce q
ĠM ail
ĠW u
ĠBe aut
input s
dir name
Ġreg istry
Sche me
18 64
b urst
an che
L ondon
Ġ// -->
Ġtw ist
Ġpsych ology
Ġa fr
z ens
Ġp c
Ġunder graduate
20 5
ia o
)\ ,\
Ġsaf ely
ĠT u
Ġe arning
Ġse eds
Ġloc ality
ÑĢ Ð°Ð
// ----------------------------------------------------------------
on ing
Ġfinal s
hash Code
æĸ ĩ
che m
) '
18 5
Ġhon ors
ĠE ug
ad apt
ub a
n r
15 3
'] ))
ĠPalest ine
Ð ±
Ġlast ed
Ġd ialect
Tr ump
Ġreg iment
Ġpoll ution
ĠF actory
Ġaver aging
ĠB ird
Ġbal anced
n io
ĠAt tribute
Ġt issue
Ġsingular ity
C AP
ĠDer by
Ġal i
? (
St yles
." ;
first row
Ġrec ru
Ġc url
ĠBer g
Ġhand les
Can vas
L ab
row se
adem ark
Ġre dis
ley ball
big skip
SER VER
ĠB arr
Ġgrand father
go al
Ġpres erving
Ġachiev es
á º
us age
00 3
utr ition
ĠT un
he v
ĠLead ership
Ġch ron
s leep
Ġeval uating
Ġcous in
pr ises
Top ic
ĠN ATO
co ordinate
Ġnom inations
abet es
ex tr
ip per
Ġgr ave
Ġdebut ed
Ġnucle i
18 86
Ġsur veillance
Ġen abling
or ro
Ġinter faces
ĠĠĠĠĠĠĠĠĠĠĠĠĠĠĠĠĠĠĠĠĠĠĠĠĠĠĠĠĠĠĠĠ ĠĠĠĠĠĠĠĠĠ
ĠInvest ment
to LowerCase
Sl ice
ex per
Ġdist ant
le ad
{ },
pay ment
im er
Ġcharacter ization
is b
Ġann ih
ĠForm er
g tr
App ly
Ġex pend
ĠV ent
ĠElement ary
×Ļ ×
Ġcab inet
H F
Ġhom omorphism
dem o
fr action
sc opy
ij k
ĠW a
18 87
4 000
k an
Ġin clusive
Ġs hed
ju ana
ç »
ĠK rist
k ip
Ġele ven
Status Code
" ])
Ġ$ ('#
ri en
Al tern
Ġoccurre nce
N ever
S rc
es c
Ġpro jections
Ġconvers ations
ĠIn novation
ĠK ur
LE N
Ġsouth west
L ev
Load ed
Ġsimpl er
ĠSm art
ĠLeban on
K ar
ĠY ank
Ġalleged ly
im ity
Ġv ec
sche me
Oper ations
Âł Âł
ĠH im
am o
CH AN
Ġmod uli
Ġbusiness man
ĠDr ug
Ġ )$
ĠEd wards
Ġ} .
Ġp uzz
aval ry
Ġfilter ed
m ind
Ġdiscuss ing
al ter
Ġmand atory
Ġobl igation
! =
ĠI de
Ġsh ore
Ġbr ig
Ġto ll
al ink
Subs cription
lef trightarrow
ĠPhil osophy
Ġsome body
ul sion
J ul
Ġsens ors
ĠCons ervation
ĠW rest
BUIL D
um ph
}}\ ,
AB ILITY
n pm
re verse
ri er
ĠCl are
ĠS ay
Separ ator
am ic
ĠC atherine
mark et
Ġpush ing
ĠWork ers
G ateway
U ML
ic ies
Ġ$ -\
ĠVerm ont
ĠB ot
Ġdel ight
Ġto String
Ġor chestra
di agram
initial ize
Ġpr ayer
Ġsister s
scal ar
s ized
K O
L ie
Ġcollect ing
sh ops
Ġcorrect ed
Ġtempor arily
In line
Ġext inction
ĠSpr ings
Ġins pection
Ġt ale
ps y
ĠD elta
ĠN HL
ĠCal cul
Ġb eta
Ġfall en
Ġwor ry
ĠCons ult
ĠĠĠĠĠĠĠĠ čĊ
Ġtri bes
ĠTr inity
ĠJ O
ĠGu inea
Ġple ased
p q
ĠB our
Ġc f
Ġdisc ount
x ym
Ġb arriers
ĠTh row
ites pace
R outer
ĠF R
ĠD raft
conv ex
Ġ/ ><
Ġs outheast
Ġcomp ounds
Ġprote ins
Christ ian
Ġr ally
LO B
Ġwalk s
em a
ĠD epend
ĠTrans action
ĉ ĠĠĠĠ
im eter
ec ycle
ĠT YPE
ĠB ir
ĠGerm ans
i S
Ġr ub
Ġship ping
Ġcommut ative
}$ ;
az i
ĠEncycl opedia
\' {
ĠH ob
18 84
Ch unk
B a
Ġstart up
Ġg raphics
x t
ack ets
per mission
ep he
Ġbi ography
n ear
il ia
Ġrecogn ised
ĠP anel
Ð ¹
Ġdual ity
Ġisol ation
Ġexplos ion
ĠAg ent
B lob
Ġde ck
Ġexha ust
hem atic
Ġr ated
compar ison
m un
Vill ages
ĠC ob
Ġtr ap
Ġsus pected
xi ety
fav icon
Ġinterpol ation
Ġsl aves
Ġintegr ate
ĠBe ing
}$ \\
Ġreal ization
Ġpain ters
m art
Ġref in
Ġfest ivals
ExternalTask Pojo
> -
Ġd ots
Ġad s
eq q
Ġman ually
Ġtri be
r age
ĠU P
Ġc c
Ġz ones
Ġexponential ly
pe ated
Ġinvestig ating
Check ed
Ref lection
Ġdwar f
S B
aster y
ĠP in
Ġres ervoir
cal c
H a
min imum
Rec ent
Ġpros per
int ent
Conf irm
abul ary
Ġdis ability
Ġbi ology
ĠStat ement
ach i
custom er
St ates
STR U
, [
c py
arri ors
ĠE M
Ġsym plectic
Us ed
26 4
ĠCONDITION S
t ility
ĠS outheast
ĠBAS IS
ash board
2 11
W il
Ġchalleng ed
Ġvis itor
ĠCre ative
aver age
ev es
c as
s il
Ġ( <
ĠL ion
Ġcomp atibility
SET TING
p mb
ast rop
Ġview ing
Ġdoll ar
ac iÃ³n
Ġtechn ological
Ġcur riculum
manif old
Ġc ookie
Ġcom ics
off icial
Ġt orn
Ġdes per
ĠEd ge
iz a
G amm
Ġassist ed
NE W
}} +\
Ñ Ī
Ġfrag ments
+ $
al is
Ġmod ular
Am ong
16 7
ĠS z
he ne
Ġe ating
ĠL ux
str uctions
ac ular
Ġadv ances
Ġfun eral
Ġmist ake
R ad
r w
ĠArm ed
ash a
pre view
Ġoscill ations
Ġan not
ovak ia
B attle
}] $
Med al
Ġescap ed
==== =
append Child
ag ar
ĠG onz
ĠSh aw
Sm ith
con j
), (
Ġout door
ĠMon ey
op al
P ref
oc co
member NameLink
ad vant
Ġf ighter
default s
(" -
Ġrecall ed
M ir
ĠTig ers
}] \
harm onic
Ġpun ishment
ort s
Ġpop ulated
Ġdiscre p
cur ve
ĠAt omic
Ġwarn ed
Back end
ĠIn surance
ploy ee
ĠSe an
ĠFI FA
Sever al
Ġmurder ed
Ġcaus al
l ies
ak ov
to o
15 8
Ġpo ison
Ġen roll
Ġmaintain s
ĠS witch
s olution
Ġjust ify
ĠFour th
ĠBr istol
Oper and
ĠAssoci ated
Ġorgan ised
fig s
Ġrat ings
Ġloc ale
subs cription
ield s
Ġsk ew
Ġdistribut e
be am
Ġtw in
Academ ic
Back up
m achine
Sp anish
22 2
UT C
Ġs ax
Ġre write
Ġcon cludes
Ġam id
abil istic
p riority
Ġ/ ></
Leg acy
Ġmob ility
Ġd w
un ate
Ġsc rap
ĠD iamond
Ġcontext s
hom ogeneous
Ġelev ation
oth ic
C hat
$& $
ĠL en
sh ore
Ġsubsidi ary
Â »
18 63
ĠAthe ns
et erm
enc ia
Ġillustr ates
Ġnorm s
render er
J ose
mark er
Ġgr ab
S IGN
Ġhost ing
Ġt ours
ĠC ox
ĠW onder
Ġconcert s
S cheduler
P icker
field set
ort on
V ote
Ġb is
For ce
Ġfr act
J im
[ {\
or acle
Ġob ey
B as
Ġl ung
w ik
ĠB rew
Ref resh
ĠRespon d
om o
FT WARE
al one
Ġn it
Rail way
ĠI da
O G
Ġdefin ite
ĠC lean
ĠD ig
ĠCr uz
Open Tl
Ġburn ing
renew command
? </
ĠDr ag
ist le
Ġfollow ers
ĠTerrit ory
G raphics
is se
" }
ĠE T
Ġim pression
Java Script
m agn
ĠE lection
S un
Ġb io
ĠN ar
Ġprogram mes
Ġprem iere
ur istic
Ã ½
Ġbr idges
Ġferm ions
ob e
Ġaffili ated
Data Source
Cent ral
ĠY eah
C ritical
Dec oder
M X
Ġpat ri
Ġincor porate
AU TH
Ġv anish
40 1
Ġfin ancing
sect s
or bit
ĠAdd ed
Ġt une
ĠSt orage
Ġv e
ingu ished
ĠCost a
b os
ĠR angers
Ġcancell ation
ĠHoll and
G UI
ĠCor p
Stack Trace
Ġhard ly
s chool
d imension
18 81
ĠB esides
ator ies
is en
Ð¾Ð ´
d ump
Ġt ube
ot he
ĠCar r
re b
Ġswitch ing
ur ious
ext ype
s ymmetric
ĠMont ana
display Name
parent Node
30 1
ĠCommunic ation
Ġfl ip
oll o
ĠInst agram
i ov
Ġball s
Ġcontroll ing
ĠR acing
In cre
ĠBay esian
Ġc ss
Ġimm une
G al
r n
ĠM end
\!\! \!\!
um per
Ġag gressive
Ġtreat ments
vel t
ĠM is
Ġ"- //
Y S
ĠEl li
Ġle x
text area
Exp and
Ġsear ches
Ġchar ter
ou x
Ġal liance
eyn olds
o ons
sh ots
\ ":
Ġsk etch
17 6
Ã Ł
PT ION
() `
A mazon
Ġfast est
). $$
n orth
ĠParam eter
ĠTest s
] _
Ġimportant ly
cell color
R F
Ġer g
ĠB right
ĠC urt
ĠQ ual
Att empt
g overnment
}$ $
xym atrix
idel ity
OBJ ECT
eg ration
Ġrel ates
Ġ(! (
ĠT F
th lete
OPT ION
Ġdat etime
Ġ// !
ĠJust in
Ġconnect s
Gamm ac
Ġcust ody
Se ason
M el
Ġtrans mit
IN DEX
Ġbackground s
Ġgather ing
correspond ing
LE NGTH
cons ist
Ġab ilities
' })
ĠRequ ired
ĠHit ler
ĠC oul
ex ist
comm ands
c ategor
=" ./
ĠB order
Al ign
Th reshold
b ird
ĠIraq i
) ~\
Ġdipl omatic
less ly
h w
aj a
Ġspecial ist
scale box
AME TER
S ound
col ors
H ig
ĠH orse
ĠC hern
18 62
. &
ici ary
ĠGh ana
Ġcontin uation
ĠInd ependence
=" {
ĠY u
AB C
yg on
cc entric
Ġche ap
sw er
Ġpers istent
ac l
Ġrefer enced
Ġresear cher
}} }{\
2 12
Ġcent res
p el
âĢ¦âĢ¦ âĢ¦âĢ¦
s ender
ĠCr icket
ĠNash ville
w x
th reshold
ov an
Ġaccommod ate
ud o
Ġsub mission
ind a
50 1
Ġphysic ians
M ad
Ġb ull
Ġcycl ic
Ġg amma
ĠQu est
Ġattend ance
ĠI o
MS G
ic ism
Ġident ifies
st ellar
________ ________
al tern
for ge
' =>
Object ive
> /
Ġfoss il
Ġdi agnostic
ĠLa ura
Ġdo ctrine
ĠG W
Ġpo ets
M id
18 75
Ġz ip
cri ber
Ġshall ow
R AS
C le
Ġpro found
V IEW
ĠH unt
Ġev ac
ĠCHE CK
Pro b
y t
T W
ĠM aced
Ġx si
PO INT
et e
2 32
Ġjournal ism
Ġcoinc ides
D a
Ġqu bits
Ġimprov es
M ont
l ap
Ġr m
ĠM ol
ĠS ah
] ^{\
ĠS oci
ĠH at
Cred entials
ĠB ass
ert on
Ġpeak ed
H idden
ĠL if
dec oration
Ġcogn itive
D imension
Ġdr ives
Ġwe aker
Ġtax p
C ategories
Ġa qu
ĠPh ase
n ational
Ind icator
gu ard
ĠL ov
ĠHar vey
Ġh ub
ab we
F ast
bell ion
18 82
LEV EL
2 16
ĠZ end
Event Args
Ġsav ings
C ookie
Fil ters
ber ger
Un its
All owed
Ġgener a
Fig ures
h aw
Ġsh ops
Ġreg imes
Ġsettlement s
ro tt
ĠV ic
reg istry
CL U
H AL
ĠFr ances
Ġmer chant
Ġremember ed
ific ates
Ï ħ
Ġadvert is
Particip ant
Ġhand ed
)) }
Ġhol omorphic
Ġland ed
Act or
ĠR T
ĠU lt
ĠDr agon
c ott
ur ated
ag greg
ĠE state
P atch
ĠAthlet ics
h c
Z oom
Ġhun ting
FUN CTION
Ġ\\ [
Mar shall
M AC
Im plementation
ĠRes erved
Ġsec ular
Ġsal ary
ĠHis panic
e ur
Ġnation wide
Ġill um
F K
Ġse cre
ro at
st dlib
leg end
std err
ĠE le
Fil ename
Ġ( {
ĠN ancy
Ġscatter ed
ĠLib erty
Ġfaith ful
SU B
Ġcounter part
Gener ate
ena issance
Ġconjug ate
Requ ire
back end
on er
ĠS ierra
Ġevery day
ĠWat son
ct rl
Ġh o
(" <
Ġcon spiracy
Ġt ub
Ġ! !
im en
123 45
å Ľ
k le
Ġhistor ically
ik ing
c rit
s it
+ }
ĠA round
ĠAnt ar
CC CC
Ġsymmet ries
Ġdis ks
ĠTh anks
moment um
B ay
Ñ İ
Ġs ugar
pro per
Ġstat ute
top rule
Ġl oves
ron es
size of
ĠP ain
ĠO ri
Ġman ages
Ġcontact s
ĠV ert
/** */
Ġchap ters
Ġc argo
Ġretr ieved
x l
Ġtr ig
Ġbo ats
sl f
ĠPro gress
Ġcitizens hip
Ġsum mit
R IGHT
B ooks
ad just
ath y
ĠM ann
Ġs id
ĠP AR
im ag
the se
Ġrot ating
ĠPer haps
ĠP le
Ġstr at
con sc
Ġb undles
ĠMun ich
ĠA LL
Ġimport ed
M ur
Ġmot iv
ĠBelg ian
; ,
Ġred und
ĠE ston
numer ic
Ġeditor ial
sm art
imb abwe
Ġconstruct ing
ĠD ame
ĠP icture
* }\
N ested
s ens
Ġhe m
ĠU TC
Re ceive
Ġdefe ating
Ġtrad itionally
Per formance
Ġa ster
P ACK
ĠF ixed
List eners
ĠS occer
end region
ĠU SE
Con clusion
Ġpred icate
ool s
aaaa aaaa
Ġp ipe
gom ery
Ġrele g
Fr ont
)- (
_{ (\
Ġn inet
}) }\
io let
ĠNet flix
Call ed
H uman
im on
ĠS K
stit u
N OS
Ġa uction
P ars
ĠTrans itional
C Y
Ġdraw s
q ed
Ġisot ropic
ĠIniti ative
Ġafford able
ĠL an
Ġsh aped
cor relation
Ġsuperv ised
C over
ĠV oice
ĠS oph
St e
ĠS ent
ibl ings
ul ators
set length
am med
NotFound Exception
Ġselect ing
inv oke
fin ity
Ġcoinc ide
ĠPar ish
Ġarr iving
Ġsp iral
ĠDe ut
Ġdet ectors
C W
yl um
20 6
cos ity
Ġw ings
ĠB aby
Ġthere in
ĠE sp
ym p
MESS AGE
Ġple asure
Ġdro ve
ä» ¶
ĠGal actic
Ġ Ø§
ĠC ategory
L F
oph one
Ġbon us
18 76
ĠAppe als
V s
Ġwarn ings
D ot
Ġdiscipl ine
Ġrout er
Ġachiev ements
Ġball ot
oc o
Ġpsy chiat
comp ose
ĠP T
Ga ussian
G allery
Ġf reed
ĠS ustain
av an
Ġr itual
18 83
F oo
I EEE
Ġencour aging
Ġbuild s
jb oss
ack now
ĠY am
Ġdegener ate
c aster
Ġun cle
ĠCoun sel
ĠK ate
ĠCon tract
Ġpower ed
per m
Ġterm ination
Ġch at
ĠR ele
ĠAv iation
T own
Ġb ipart
ĠI M
R en
Ġpres erves
Ġind ent
Ġutil ized
sl ot
Ġexped ition
ĠR ole
Con struct
Ġorig inated
Ġrep ublic
ĠLink ed
P ad
R etry
ĠDev ice
Ġpregn ant
ag ation
Ġlegisl ature
Ġblock ed
Ġvol can
Ġcivil ians
t cp
Ġrig id
ĠM orning
Ġ} ),
Ġy esterday
â ĪĴ
ĠStr ategy
Ġb ra
Ġun changed
ĠTerm s
uct ive
Ġconf used
Str ings
ÐµÐ½ Ð¸
Ġexhib ited
Capt ure
Ġcompet itors
ĠD etails
}} }}
S in
ĠR osen
ĠFa ith
Ġd Ã©
ĠSec urities
un i
av ier
ĠL ot
Pred icate
Ġst uck
ht bp
CM D
preced ented
Ġass ists
Le ague
p referred
ĠL arge
m os
Ġbl ues
T wig
in ely
'' .
Ġchampionship s
Ġprevent ing
ĠS ometimes
Ġfoot age
gtr sim
upload s
ĠL ocation
ĠOt tawa
Pro c
Ġres erves
ber y
ĠL isa
a qu
ipl inary
Th an
r ically
TR A
ĠCh rome
ĠPos ition
ose velt
yst yle
Ġdu o
, </
Ġa est
th al
Ġevolution ary
Ġf iring
Ġpart itions
ĠSh op
dest ination
all ing
Ġdip ole
Ġund ers
l brace
Ġ' ')
ĠC incinnati
h istor
ĠB und
Ġor al
Ġmed als
Ġnurs ing
4 80
C op
Def ined
Ġparticip ant
Ġaccept s
Ġ" +
ent o
}, \\
Ġsign atures
Ġbound ing
Ġmil k
or ne
ĠS ymfony
amb ers
Ġd imin
Ġr ape
IT H
Ġco res
Ġd ying
Ġcompos itions
Ġenhance ment
Ġsp ir
N ING
ĠRE G
Ġto mb
iv ot
Ġnon profit
" </
Ġb unch
osp here
Can ada
Ġg ri
mon itor
um m
ĠW ag
Ġprom ises
Custom er
ĠReg ulations
m itting
Ġre try
pot ent
ĠCroat ia
agon ist
R oll
---- ---
g al
con tract
er ious
ĠR ather
h int
~~ ~
V ariant
Ġr c
Qu estion
Ġtw isted
Ġcurrent s
> ()</
car bon
Ġdream s
Ext ended
^ *}
Ġre nd
pol it
Ġexpl aining
Ġc oding
ĠY e
M ary
un al
faster xml
Ġam ateur
Ġbre ach
ĠS ql
Ġprov inces
g uid
Ġsculpt ure
St d
Ġfriend ship
ĠAn cient
ERT Y
ĠDis c
Ġcompr ises
Author ization
os hi
Ġ' $
18 78
row ing
Meta Data
w b
Ġde code
Ġsimpl ify
el ing
Ġcall er
Ġseem ingly
g ui
Ġd ad
ĠF ish
Im mutable
LI B
il o
Ġoverwhel ming
w au
ĠR oot
ĠVal ues
Ġsubs id
Ġt ape
Ġprof its
Ġdivor ce
ĠN N
ĠPhill ips
F un
Â ®
Ġm ature
ĠX ml
Ġpair ing
tr ation
Ġwild life
Ġsp anning
[ [
F re
ĠL ex
Ġanom aly
T ables
' ):
Br anch
mult ip
Ġen zym
eng u
ĠSer bian
Ġn m
Ġtrad ed
H aving
G reat
ch arts
Ġex terior
Ġthere after
ipp et
Ġsan ctions
G F
ĠForm at
Ġ um
Ph ot
R o
ing ing
Ġg a
j q
v r
ĠHer z
Ġpat rol
n f
b ay
Ch inese
ĠK el
var pi
ĠDis play
È Ļ
Ġexceed s
as ide
c ence
Ġfol ks
Ġcalcul ating
Â §
Be havior
XX XX
Ġrecip ients
w at
Ġin ad
Ġlif estyle
Ġnucle us
Ġsimpl est
Ġt weet
Ġcon gr
Ġsp ins
Ġcross es
c ill
ic us
MA KE
Part s
Ġf ram
Ġed itors
ĠCon structor
Ġhuman itarian
iz ational
-- \
<? >
Ġsl ide
ĠH O
17 7
Draw able
cess ion
Ġdistinct ive
Enc oder
im iter
Ġfail ures
Un able
Ġcounter parts
C AC
à ®
F ace
H ex
Ġemphas ize
C U
ĠA aron
ĠE SP
Ġemot ions
Ġconc urrent
Ġback ed
ĠN athan
Ġob s
ĠMe chan
Ġrevolution ary
Ġres ist
pe er
PREF IX
al p
Ġan ger
Ġtrem end
in ite
Ġin ert
Ġleg ally
un its
ĠH amb
. ');
18 67
Ġanticip ated
oc hem
ĠO UT
ĠExt ension
enti eth
Ġf ulf
]{ ./
Ġgenu ine
Ġunder go
Ġdro ps
E t
adi ans
Ġbe ings
Ġgr adients
Ġsophistic ated
^{ {\
ĠVis it
Ġtoler ance
ĠE ve
miss ing
Ġcon ce
Ġbroadcast ing
sp ired
ew ay
Ġcol ony
it atively
ĠKe ep
Ġafr aid
pro ach
y outube
Ġ" ./
v ation
ĠR ivers
be it
Ġr ab
uch i
se ek
H ot
18 9
bibli ograph
ĠPsych ology
Ass oci
m q
Ġle tting
Ġback ward
Ang le
ĠR alph
pend icular
aged y
Ġf ighters
log ical
Ã§ Ã£o
Ġcontribut es
x f
Ġartifact s
Ġin set
ĠCh and
Request s
Ġfilter ing
ĠS ER
23 5
Ġfavour ite
ĠV el
' }(
ĠK ol
Ġpresent ing
ĠDocument ation
17 2
Ap is
neut ral
T urn
ĠJ a
Ġdoub les
Ġst olen
Ġcyl inder
^{ *}
t ier
"> &#
Ġref ere
}$ ),
at im
Ġa fore
De ployment
sh ifts
ĠSch w
ĠS oul
W ater
g mail
ah a
Ġconsequ ently
bibliograph ystyle
}} ^{(
d id
Ġmiss ile
Ġflex ibility
ibl ical
Ġinf ect
ĠMe eting
iffer ential
ĠS uz
Ġaut onomous
fold ing
ĠLu is
pt s
Ġbe er
bib item
ĠR ey
ĠMax well
uss els
^* (\
Ġcharacter ize
Ġhon ored
ĠMunic ipal
Ġwitness es
om i
Sw ift
ĠPen insula
Ġinv ention
SE C
ĠWall ace
Ġd ign
ĠD ATA
Ch apter
Ġmod est
ĠR idge
}) :
der iv
Any Ref
Ġprest igious
Ġo c
Ġconv iction
ac ements
Ġl oud
; -
Add ed
ĠA my
Ġintegr ating
J ud
Ġin complete
Ġfix ture
Ġutil ize
U TE
ap prop
Th ird
DO CK
Ġfif ty
): =
pred ict
re ports
Ġart illery
Ġ(! $
h m
Ġf ate
ĠX X
or um
am pton
ĠCan al
LO AT
wau kee
ĠT E
S us
y aml
="# ">
Ġsub graph
control s
Ġen velope
ĠSw ift
per formance
ĠK ind
Ġconfer ences
R ock
Ġwrit ings
em p
Ġg ear
ling ton
Ġglob e
Ġcre ator
ĠFl ag
Ġsingular ities
Ex cel
Ġse q
make box
Ġinf ections
PA SS
Ġsuperv ision
remove Class
Ag ain
ĠK ill
Ġm ere
.. ...
F etch
Ġb achelor
sec ure
:: $
ĠSet tings
get Text
Ġdev iations
ĠField s
y arn
20 9
Ġreal m
Ġp ounds
sc ene
Re ceiver
Ġsc andal
ĠCirc le
> )</
cred ited
n atural
Ġlogarith mic
ĠQ String
ĠP H
Ġd f
P reference
Ġ ../
Ġcompar isons
ĠAr c
if rame
S a
Ġdirect ive
Str ip
Ġ ions
Ġlearn s
is Equal
ass et
Ġcomment ary
orient ation
ro gen
conf irm
Ġlegend ary
ina e
od ore
reg ex
Ġtal ented
18 68
Ġsurviv ors
form ula
vis ual
b ie
Ġcour age
Ġep ic
× ª
ĠM B
Ġhop ed
Ġwire less
Ġjo ins
colon eqq
Ġreven ues
Ġemp ire
Ġwe aken
erm ark
ĠK ay
as se
------------ -
ern ess
Work flow
F ROM
Res pon
Icon Success
D ER
L ONG
Ġrot ational
u ator
u o
ĠM ade
Ġacc red
16 4
urch ase
L ove
g ement
ĠO THER
Î ¼
S ir
g b
ĠCh i
Ġmind s
Ã Ĺ
ĠJ ar
Ġout flow
Ġflux es
M AR
ĠBob by
) },\
Ġmolec ule
ĠDub ai
as ive
Is Null
A Y
sc ience
ĠAnd r
ĠCont ainer
ĠS yl
Ġcol ored
ĠD rama
get Property
ific ant
Ġw ages
Ġastr onom
Ġfil ing
Ġfarm ing
ah an
L ang
Ġz oom
ĠLINE AR
s izing
ĠMark eting
Sim ilar
\ @
ow der
Ġh itting
Ġcrick eters
ĠP om
Cl ip
å ¯
ro e
ĠMunic ipality
Ġapproxim ations
Ġstrik es
ah u
ĠR ever
Ġsuggest ions
ĠJenn ifer
K T
Ġm amm
ev ille
16 2
å ¼
Ġprodu ctions
ĠU nd
Rec ords
L ess
ĠArn old
integ ration
acknow led
ĠA pr
ĠRe ed
UT O
R ever
17 1
irrep bar
5 50
Ġt v
Ġmem oir
bit ration
ĠM idd
Ġpres ervation
ĠI celand
Ġtransl ations
ĠB eyond
n od
th in
Ġgold en
ĠC apt
Ġide als
~ {\
br acket
L ittle
Ġdis pers
un ches
ĠC ad
ore n
ĠAng l
Ġrel ay
ent e
with in
Ġsp ont
ĠHel en
W D
Ġa xi
Ġdram atically
bal ena
Ġdemand ing
Ġrenew able
F ort
N ER
Ġm im
product s
ĠInd igenous
H ide
g ue
ĠB uch
anc ies
Ġadj oint
Q R
N il
Ġpoor ly
ĠSoc orro
- $\
Ġdi et
work ing
ĠWh ich
] \\
Ġlight ing
ĠE D
Ġarbitr arily
Get String
' "
ĠN ames
ĠIn it
Ġincred ibly
H o
ĠPer iod
ring tone
Ġillustr ation
ĉĉĉĉĉĉ Ċ
ĠS ales
INST ANCE
found er
Ġad mission
Ġexplo it
ot ypes
ĠArt ists
W ashington
ĠM ul
Prot otype
Ġsynt hes
ĠSO FTWARE
Dat aset
Dis abled
Ġload er
Ġ( );
ĠFellow ship
ĠA w
Found ation
b usiness
ordin ator
ĠV AR
Ġsem antics
$ =
Ġ )\
ĠL ions
IconSuccess Encoded
w y
ĠG M
17 9
18 40
sub str
ch apter
comp iled
Ġprevent ed
at che
Ġconsult ant
ash ing
und a
r brace
Ġfif teen
ĠAmb assador
ism atch
ee k
18 79
R oyal
Ġs ink
ĠR uth
Ġres il
ĠPhys ical
ad j
help ers
Ġmod elling
DE LETE
Ġtown ship
Ġtransform s
ple te
Ġinfer red
bad ge
Ġw ishes
Ġc s
arch ar
Ġexecut ives
}} )\
ĠG host
Ġpat ches
Ã¡ s
Lear ning
st ub
LA S
Ġal phabet
ĠSet ting
---- -
Ġut ter
get Key
Ġtem plates
'' '
97 8
Ġcyl ind
act ing
big gr
17 8
HO ST
Ã ī
im ize
Ġobtain s
Ġst eal
n x
Ġafore mentioned
PRO TO
Ġfit ness
ĠArmen ian
ĠCam eron
ĠP ul
Ġal arm
ĠĠĠĠĠĠĠĠĠĠĠĠĠĠĠĠĠĠĠĠĠĠĠĠĠĠĠĠĠĠĠĠ ĠĠĠĠĠĠĠĠĠĠ
Ġart work
Spr ing
Ġadd itive
Ġoptim ize
Ġaccompany ing
d h
Ġ. /
ĠG alaxy
en os
Ġrad ar
00 7
Ġsim ulate
Ġstay ing
/ #
ĠG len
ĠGener ation
ĠT oy
ag ic
pre vent
Ġarr ives
Ġcompl aints
Ġter rible
18 7
!! !!
sw ap
ĠM ick
20 7
ht b
Ġfasc inating
Ġmanufact ured
Ġl ambda
ie u
Ġkw args
ĠIn cre
inter faces
Ġsp ell
ĠRo osevelt
ĠP ra
ĠB orough
ĠW E
ent ine
ĠTem plate
ĠTreas ury
b eck
Ġt ent
Ġprefer ences
ĠPr im
] >
Cre ation
B ag
ĠV ict
ĠS ony
e i
t abl
ia z
Ġmeas urable
Ġd jango
ĠF ramework
Reg istration
ĠPers ian
Ġt aste
mes h
Ġbomb ing
[ ->
ĠLe o
ĠChap el
H orizontal
ç Ľ
ĠForm ula
18 71
MA G
DI RECT
ĠBut ler
ĠSt uart
( %
Ġsh ar
ock ets
Ġund erm
Th m
Project s
e lected
Ġenthus i
/ '
N F
36 5
ĠIS BN
ĠB ath
ĠDise ase
ĠConfed erate
o ard
ĠS alt
Ġno isy
Ġ\, .
Rev ision
pl iers
Dan iel
M LE
LIN K
ĠHug hes
19 3
Ġbe ating
Ġcorn ers
te le
Ġrele vance
ĠB rowser
ack ed
t ec
Ġ\| _{
Ġc inem
l ov
om es
iz ar
18 2
ĠCl iff
ĠPeters burg
at em
ĠB lo
ĠF u
Ġconnect ivity
× Ķ
Ġ[ (
amb ling
Ġcapt ures
friend ly
d ip
j obs
load s
Ġtour ist
Ġrep o
og an
uet ooth
ĠColumb us
Ġren owned
ĠStr uct
( []
å °
Ġs ig
Ġplay offs
Ġaccording ly
organ ization
Ġmar ry
Ġpat ron
Att achment
V V
ĠMah ar
ol ine
Ġtr apped
Ġinter cept
Ġadv ised
ĠSo on
Head ing
Ġclot hes
ell ers
ros so
Ġgrad ed
id ually
ble ms
E lem
Ġhash Code
ĠV II
ĠInter face
Ġm ines
Link s
FLA GS
rele ased
Ġneur ons
ĠImp act
T ITLE
eg al
Ġinn ings
">( </
MN RAS
Ġburn ed
] }\
d an
ĠS or
ĠEn try
pert urb
18 77
Ġcomb inator
Ġpars ing
ĠPr ison
pl ant
Ġg lyph
ĠB eth
23 4
Ġadvoc acy
H ung
Ġcomm ittees
ĠY O
Ġt anks
ick ed
bo ys
V IS
ĠCon sumer
ĠFinn ish
ig ue
ĠE ld
Ġcare ers
th ood
Ġde alt
ĠIN T
Ġ( .
act iv
Ġp unct
ĠP ars
Ġtrans parency
Un ion
hand ed
TO P
ish a
DB LP
3 25
eg an
ĠThrough out
s al
E U
ĠGr ade
is dom
Ġf d
elect ron
Log ging
Ġprivile ge
we ets
Ġswit ched
18 72
Ġpe aceful
Ġshel ter
ĠC e
ĠIn stitution
ond o
ĠH R
ĠD ol
abs olute
Ġbut ter
Ġconf ined
` :
il ateral
ĠDis covery
L ists
Ġun precedented
Ġsk i
qu ire
ĠK id
list en
Pr imitive
Ġke V
ĠN ear
18 8
ĠArch itect
raise box
Ġsub t
Ġaff air
ĠPh arm
Ġneighborhood s
Ġsent iment
ex tract
ĠD ennis
Ġnob le
ular ity
Ġdiagn osed
ter min
Ġviol ated
Ġwork shop
Ġprohib ited
Ġearthqu ake
s ix
Ġbenef icial
serial ize
æ ī
ard i
Ġapprox imated
pret ty
x e
L ee
Gr and
ĠD rop
min ster
Ġattr action
sen al
ĠR eynolds
M argin
Ġeth ics
Ġinvest ed
at ype
In clude
Ġbut tons
Dec ode
Ġalter ed
Ġfor ty
ĠHop kins
C tx
Ġ" ")
Sign al
v t
Ġed itions
Ġtri ps
IC K
sc apes
ĠIss ue
ĠCont roller
Pol y
E mitter
st orm
Ġqual itative
ĠA bs
mem Item
in as
TE GER
Ġpass phrase
flu ence
b age
asc ular
User name
Ġhyp ers
Ġdecor ated
f eld
ĠB ach
ĠEmer gency
Afr ican
Ġinaug ural
intend o
Ġtre ating
Ġsummar ize
Ġqu arks
ĠChar acter
Ġco arse
s an
r ans
17 3
o ct
Ġcap ac
m ime
add EventListener
Ġf ame
ĠA f
Ġv ig
Ġsub tle
Ġimport s
Ġ{ })
ĠF iction
em e
Ġmort g
it ian
ĠB ear
âĢ¦ ]
short cut
K im
cor r
RET URN
; ]
Ġsup pression
S CHE
av g
Ġte a
Ġspread ing
Ġcount ed
oca ust
Ġtour ing
represent ation
riter ion
SD K
}\ )
Ġe uro
P ages
ph al
Ġferm ion
Ġequival ently
b ur
ela ide
class ical
Ġfl our
Ġneg lected
Ġvic inity
w al
ĠC ut
ex ceptions
av atar
Ġor chestr
P oll
ĠN uclear
Pro blem
ĠComp etition
ĠR enaissance
sin h
ĠH ugh
alth ough
Ġvari ational
h all
ig roup
Ġsever ely
/ $
Ġre nov
S ys
Ä Ļ
bottom rule
att ices
Ġauthor ization
Ġstrugg les
P F
Ġb lob
ourn aments
Ġan xiety
Ġclass room
Ġcop ied
| {\
am ine
}} ^\
Ġnon trivial
g as
=" //
Ġstreng ths
Ġle ak
ĠG A
& +
M il
Ġj ew
big gl
å Ĩ
tok ens
ĠC WE
* .
c atalog
Ġe ccentric
Ġsuccess ive
ĠF E
font s
27 5
ĠFil ms
Ġmer ch
ĠTr igger
Ġeth ical
E nergy
ic ious
Part ial
)} =\
Ġcoll apsed
Ġexhib itions
ĠG ra
Ġer up
ĠR ES
up les
ĠBy z
Ġpol es
ĠGreg ory
r ab
å® ļ
Ġprox imity
RE AM
First Name
Ġmart ial
ĠNep al
ene ath
h art
M ex
ER Y
CON F
ĠL ayout
ĠCoun ter
Ġinter ven
Ġrep orters
Ġdraft ed
Vari ables
Ġimplement ations
I J
Ġf ut
Ġdon ations
resize box
Ġm ari
Ġthere of
) _\
Ġdesign ation
Mat ches
Ġadvers arial
T reat
Ġjust ified
)) =
roll ers
Ġsett le
Jew ish
Ġl ap
Ġcal ibr
Ġz eros
e igen
ĠR ice
ĠD yn
anc ers
ab atic
Ġdiv isor
ĠRoman ian
Ġun ve
Ġexpect s
L y
umb ai
ĠR at
F at
Ġdemonstr ation
ĠT odd
ĠL HC
- {\
Ġpredecess or
ĠLet ter
Ġprop ri
Ġpres idency
UM ENT
ĠĠĠĠ ĉ
Ġav iation
ĠSub s
Ġcop per
C atalog
w l
se ver
Ġpredominant ly
G erm
Ġs its
ĠT as
Ġadminister ed
b is
Ġax es
Input s
r isk
ĠN urs
âĢ¦ .
ut ton
ack er
ĠZ hang
l ift
ĠRe ports
ĠLegisl ature
Perm issions
ĠHe avy
File System
Ġrobust ness
Inst ances
Over flow
window s
ĠAzerbai jan
S ender
in ar
Ġfor um
fr astructure
copy right
ĠModel s
s By
Ġdis abilities
Ġtrans ient
l ists
ĠB irth
m ak
ĠK un
18 66
}. $$
Ġcont our
Ġcert ification
Ġloc als
SD L
ĠLeon ard
ĠFlore nce
24 5
Art ifact
Ġdis par
Ġde ce
Ġar rows
ĠG ene
Ġcor rupt
Cal cul
ĠT S
Ġform ulated
Ġir regular
18 4
Rel ations
O O
Ġtr ump
ĠFig s
She ll
n v
Ġra ises
Ġpregn ancy
L if
ĠS old
Ð¾Ð ¼
ĠHer bert
Ġaud it
rep ly
Ind ia
dat as
ĠG DP
ĠAng lo
pr ising
ĠAl ger
bit coin
ĠHar bor
Comple ted
log ue
17 4
icens ing
Ġicon ic
Ġ( +
ourn ey
Ġdeliver ing
Ġp ension
ill es
ĠCle arly
Ġ ì
Com pute
Ex pl
g ie
land o
at ra
Ġup dating
ĠPart ners
STRU CT
( @"
Des cribe
l uc
ĠH av
Ġdo zens
Ġperm its
ĠV ery
Ġf oster
ret val
Ġf ires
Ġlog s
Ġavoid ed
Ġrock s
ĠW I
Ġex ec
um i
habilit ation
ĠGener ate
H op
Ġh orn
ĠV as
ĠR oche
Ġev olve
Record ed
st mt
ĠT ell
00 4
) )$,
Ġlong itudinal
ĠPrinc eton
ĠProgram me
ĠP sy
conf irmed
al in
* {-
ĠPl us
Ġaccept ing
ĠT EST
ĠBudd hist
ĠA G
Ġindu ce
J oe
df s
os ure
Ar n
A mb
pr us
ĠCl uster
Ġprot esters
R N
ĠGrad uate
Ġs nap
Th ough
Ġautom ated
38 4
Ġcompr ised
å º
Ġh yd
ĠShang hai
!! :
ĠAz ure
Ġindic ation
ĠG olf
Ġare na
it ations
Con version
Mod ules
Ġsymbol ic
ĠCon cert
ĠPract ice
j ournal
ĠObserv atory
ĠT error
fail ure
K EN
eg el
log ic
{- }
ups ilon
ess a
up iter
f v
ĠM otion
tab End
Ġeg gs
ĠC elebr
ĠEn able
ä¸ Ģ
ĠDe b
Ġqu art
Ġnob ody
Ġkit chen
Ġ\ \\
\" {
S aint
NOS CRIPT
Th rows
ĠCon v
Ġc razy
ĠZ ero
ĠNO TE
pl ots
mys ql
qu ick
Ġextr apol
Ġwork force
Ġthr iller
18 74
ad ers
16 1
andid ates
ĠCamp us
ĠZ imbabwe
Ġat tractions
E s
Ġc ave
SE D
ĠL is
ĠCo ach
Iss ue
Write Line
S printf
qu is
sh iv
Ġcha os
Represent ation
Ġs oc
Ġper f
reg ation
Ġsl ower
Ġten ant
vis ibility
Un lock
B re
C NN
Ġsh a
Ġ/ .
mod ern
Ġearn ings
ĠGen eva
ĠComple te
al most
Ġrow span
ĠK er
Ġstrong est
Ġsp y
ĠVen ice
Â ½
Ġtrav els
ĠC over
ĠM ills
Ġso ap
Ġpron ounced
Ġdefer red
k now
Ġh alt
Ġcou p
DO WN
ĠMont gomery
( <
il iation
ff ic
ch anging
b read
â Ķ
Ġdis putes
Ġin quiry
Ġvacc ines
Ġrenew ed
Ġt elescope
ĠO blast
: /
ĠT ang
Ġgu ided
ĠReg ulation
Ġcons erv
ĠUS B
valid ator
ĠG az
Americ a
Ġproceed ing
ĠAr ctic
ĠLat ino
h skip
sc atter
cos h
Ġradi ative
Ñ Ħ
Ġco herence
ĠNorth west
Tag Name
IC S
Ġinject ive
ĠS ter
ĠM ario
reed y
ern els
Ġcomplet eness
Cap acity
Ġgrad uation
ENT ER
R eq
ĠM ove
ess el
ĠH ab
Ġwar fare
Ġ utils
18 30
ed uc
Tog gle
ĠSum mit
ĠWeek ly
Ġcut off
Ġs ubl
ĠDec ision
h it
ang ered
Ġback end
DE P
O rient
Ġcle ared
PAR AM
Ã± a
AS C
Ġanth rop
ĠN om
ĠN ak
Read Only
Ġconc aten
}$ :
Ġneutr inos
âĨ ĳ
ĠV M
ĠWrest ling
erv ous
ĠClark e
ĠI MP
ij i
Ġ[ #
Ġindex ed
ĠHar per
T our
d ens
Ġd ancing
Ġ' ../
Ġb atter
ĠF loat
Ġfant astic
Ġdis closure
add y
ov y
ĠClin ical
el en
ĠWell s
R X
ĠOther s
6 50
Ġc ad
leg iate
Ġ" (
}. $
16 3
ĠCOL SPAN
D roid
Ġcollabor ative
plic a
isb ane
el ong
Rep ublic
Ġabb rev
Ġcomplex es
St mt
Ġsong writer
itt en
ĠBut ton
in ians
unc an
Ġth rew
ĠS ask
Ġabsor bed
ĠL it
ex c
Ġcit ing
Ġexperi encing
i ary
ann i
Ġtr act
Ġshut down
U i
n ick
cover ed
Ġturbul ence
View s
Ġcompr ising
h orn
Ġb ol
G od
{ |\
im an
Ġcatalog ue
I MAGE
ĠL ipschitz
ĠG ate
Typ ed
Ġg aining
ĠLe eds
Ġbl ame
um ably
ay al
Ġrel atives
ĠFl ow
n at
=" <?
FN GL
ĠBroadcast ing
Fr ag
SU PP
Ġemer ge
Ġasymptot ically
b ars
ĠL ik
Link ed
> ');
f ollowing
ĠH ait
tol ua
Ġc umulative
FE ATURE
Ġver se
Ġterm inated
FO RE
A CTION
Ġnational ly
c ock
Ġinv ariants
. âĢĶ
H ouse
N s
Ġcol ours
Vis it
Ġc p
ĠPref ecture
Ġl t
ĠAbb ey
k el
ĠCond ition
r us
Ġap pendix
ĠLe ave
j j
Ġcomp ass
ĠHar old
ĠSocial ist
ĠK ids
Ġex empt
itt est
cur r
capt ure
m aml
C ES
Ġadvoc ates
Ġdiscuss es
Through out
Ġcro ps
k ill
st reet
Ġgl ad
ĠTib et
Sub mit
Ġch ip
ass o
Ġap pl
Ġreg ards
18 48
Ġblock ing
spec ified
CON NE
ĠProtest ant
Al umni
Ġconscious ness
m ans
UP DATE
IS H
18 73
> ("
ĠR onald
ffff ff
uck land
Ġphot ometric
Ġexp ans
ĠAir lines
Ġc fg
Ġm ad
ĠH alf
lig a
Ġrespect ed
High light
Ġsustain ability
1 200
K h
ĠSN R
Ġadv isor
f its
Comp ilation
under brace
Ġpres cription
Ġdescend ants
Ġl on
Ġpack ets
ĠP oss
ĠWood s
Do es
charg ed
, ...
ĠRe agan
Ġexc av
j ab
Ġdel ays
ĠPresident ial
Ġv i
PAR AMETER
Ġgrad es
ĠE mail
Ġ$\ |\
Ġcommun e
Ã© d
Ġinf antry
di agonal
Ġscr atch
Ġm anga
Ġn inth
Ġphil anth
if s
ĠG ilbert
In c
ĠK re
ĠD ialog
ari e
c g
ĠNe uro
ĠSp encer
Ġmus cle
Ġcann abis
Ġ' </
Ġvis cosity
Abs olute
od b
but tons
Ġrevers ed
ĠT aking
Ġspec ifying
Ġdem olished
olec ular
F IN
I o
al ong
amb le
product ive
R P
ic om
Ġspeed s
Ġt uning
le igh
22 6
Ġche st
ph on
Ind ices
Ġroll ing
Ġ' {
ĠHel per
ĠRh ode
B razil
Ġmem brane
sw ick
B ot
Ġlink ing
ĠTr uth
e as
Le ave
Ġdrum mer
l ayers
^^ ^^
18 6
IN PUT
Ġlock down
Ã¶ r
ĠGro ve
ich let
Ġrem n
). \
Ġansw ered
Ġvirt ue
Ġbare ly
Ġco ordination
Ġmulti plicity
ĠAcadem ic
cu ador
Ġd upl
Ġ$ ("#
ĠSh im
he nd
}) ^{-
Ġactiv ated
Ġmulti plic
}) }{
ĠGu id
Ġdead line
Ġhum or
Ġbranch ing
w m
min a
ĠD ifferent
pers istence
ĠGlob e
Ġwe igh
), \\
ĠCub an
A IN
Austral ia
ĠA F
Ġinter rupt
p it
Ġ ))
Ġm ood
Ġp t
const it
ĠR ou
Ġelder ly
Ġan notations
Last Name
ĠN P
comm ut
Ġsqu ared
h im
ĠMus ical
Ġtend ency
Ex per
Cred it
Ġc ry
ĠStr ong
ch ing
ĠGL enum
ĠBos nia
] -->
ĠSt ack
Ġcont ested
Mart in
M oths
AND LE
ic ans
er ie
3 80
Ġex tern
e V
Ġrefer endum
ĠTr ain
ĠĠĠĠĠĠĠĠĠĠĠĠĠĠĠĠĠĠĠĠĠĠĠĠĠĠĠĠĠĠĠĠ ĠĠĠĠĠĠĠĠĠĠĠĠĠĠĠĠĠĠĠĠĠĠĠ
tem plates
ur as
ĠPart icip
ĠJo an
le ave
Ġm eth
ĠY emen
We ather
Thread ing
Dem ographics
Ġan ime
ĠPark s
ĠF oster
Prov ince
Ġanaly zing
Ġgard ens
Ġpolit ically
x ref
ĠInter view
weight ed
ĠOak land
Ġr ic
ĠTh under
unt ed
Ð°Ð »
constr aints
be k
$ }\
18 1
algorithm ic
Ġwrest ling
ĠIn stance
ĠWe ather
] ];
ĠN L
Pre view
ĠInd ies
un ting
ĠâĢ Ŀ
){ $
ro gate
re ject
Ex ec
Ġcent r
us hes
}; \
re ction
}( (
ĠTest ament
plic ial
Ġqu otes
Ġm i
ph inx
ĠPhilipp ine
30 5
e conomic
Ġf isher
Ġeth n
ĠPlan et
Ġinterview ed
, }
ĠS ultan
CON ST
az ar
ĠH ub
ĠN y
Ġmot ions
ĠLuc as
Ġgot ten
ĠReview s
ĠWild life
ĠS ob
Ġen jo
ĠAbd ul
18 59
Ġsp ite
m itt
ĠGP U
Eu Script
Ġt orsion
ĠPrinc ipal
V oid
ĠMathemat ics
Ġconcept ual
---- --
Ġtri angles
Ġlie utenant
Ġingred ients
Ġvot er
Vert ical
Ġbul let
Ġsubstit uted
Album s
Ġas h
Ġ" --
Ġsh ield
Ġs ang
Ġpal ace
is Array
Ġp tr
ĠNor folk
2 15
f illed
Ġif f
d ynamics
ĠS ak
Ġdis advant
T ick
Ġcontin ent
Ġon click
Ġwarm ing
ĠBeng al
bor o
W ild
Ġper pendicular
Ġmort ality
Ġem itted
ĠDe al
Ġrecon cil
Ġun necessary
oot ing
Ġserial ized
ab ol
22 7
Over lay
Ġvol atile
Ġst ret
Ġper cussion
Ġbelong ed
ĠI SO
the ir
R etri
ĠU C
Ġcer emon
io x
Mean while
G Hz
ĠBel arus
ĠRay mond
r in
Ġ= ================================================================
Ġs creens
Ġcomplement ary
man uel
Ġaltern atives
G W
ĠĠĠĠĠĠĠĠĠĠĠĠĠĠĠĠĠĠĠĠĠĠĠĠĠĠĠĠĠĠĠĠ ĠĠĠĠĠĠĠĠĠĠĠĠ
ĠSh are
}} _\
Ġwork shops
( (\
Collect or
18 3
ĠD ocker
ĠGl ass
C y
Ġprec ip
Ġbacter ia
E O
Ġfound ations
T s
z ier
Ġprem ises
ĠA V
ra ising
Ġdes irable
ĠRE AD
Ġdemand ed
ĠP ont
Ġpro secution
M ASK
Ġfar ms
con sum
ĠInt roduction
TO DO
å Į
Ġdec oding
D im
Ġle ver
Ch ris
ĠCong o
Ġmet aph
Ġcomb ines
ĠR isk
Ġqu it
22 3
Ġconsult ation
ĠĠĠĠĠĠĠĠĠĠĠĠĠĠĠĠĠĠĠĠĠĠĠĠĠĠĠĠĠĠĠĠ ĠĠĠĠĠĠĠĠĠĠĠĠĠĠ
ar ations
ĠRel igion
contin uous
CP U
play ing
auth ors
ĠJul ian
ĠAl lied
Ġpri ests
Ġsequ ential
ri o
arr ison
Ġemer gence
Ġamb assador
Ġdepict s
Ġwor ried
With in
oupl ed
Ġb ay
ĠEm ma
ĠSD SS
ĠTrans form
art icles
ĠK ash
ĠSt ef
Ġend points
Ġdet ention
path y
Ġcapt ion
Ġv in
Ġer ected
/ ?
Ġang ry
n P
ĠIs aac
ĠD aw
C s
} --\
in come
30 2
Ġkey word
ic ers
Ġenc rypted
IP S
Ġminim izing
Ġr ays
18 69
Th anks
Ġent ert
Ġbr acket
ĠRes et
Ġthr one
% ),
Ġbe ars
Ex change
ĠU ntil
Ġcongress ional
w ikipedia
ĠV ision
Cl ause
p ip
ĠBro s
ĠIP v
ĠEm irates
ĠCab inet
Ġweak ness
ĠÐ ·
Ġsubs ystem
Ø ³
Ġconduct or
NO TE
Ġt et
ext ends
has OwnProperty
an imate
Ġrec ycl
ull ah
30 3
DOCK ED
Ġindiv idually
AP PL
B on
H it
Ġwe ird
Ġdiff e
B and
ĠS ox
ĠChem ical
Ġch ances
Ġpl ates
Ġmyst erious
)$ }
CLI ENT
proport ion
verb ose
ur face
Ġcomp elling
ĠK ap
Ġrom ance
Organ ization
ht m
r ors
s ed
z el
N i
Con figure
Ġtarget ing
Ġrout ing
Type Name
fil m
W ords
Ġab ort
ĠTh ir
ĠE L
Ġfilm ing
Ġpurs uit
] }$
ĠG ov
ĠGener ic
US Y
wall paper
f ee
h or
Ġun anim
Ġsur f
d og
Ġa thlete
Ġ{ ?}
Ġbel t
h ydro
ge om
Ð Ł
yl an
pl ays
ĠCall ed
3 40
Ġdef ended
AT T
ĠBit coin
t ick
Ġarchitect ures
ĠVeter ans
Ġ\\ &\
WARN ING
ĠA pi
v d
}= -
hel m
bro ok
Ġconfirm ation
m eter
Cl aim
ĠEag les
f itting
ĠHe in
b ol
st own
seud o
By Name
Ġreg ret
period ic
Ġquant ization
Ġlift ed
Ġc attle
ĠS ey
XML Schema
ĠMarc us
y ang
Ġm k
ĠS ho
Ġcomp ressed
Ġexpl ores
Ġsc oped
ĠSand ers
P en
ĠPart nership
stitu ency
ĠL amb
pt ical
NAME SPACE
ploy ed
ad os
Ġon set
ff ield
Ġc emetery
@{ }}
> ';
ĠA part
J on
Initial ize
ĠThe ore
Ġwork place
ĠBulg aria
Ġp ad
ark er
Ġcontain ers
aus ed
Ġwork flow
ER N
ogn ition
R outing
ok u
ag ain
Ġun ified
Ġad missible
ov sky
ism iss
Ġmod er
F G
ri z
ch air
Ġc ube
ok o
Ġdevelop s
Ġreli ability
associ ated
ĠM ik
Ġa pt
s napshot
ut ers
)$ $
Red irect
clos ing
G i
Produ cer
Ġv iable
ĠPl ayers
] *
28 8
hook rightarrow
Start ing
Key board
y u
ĠEp isode
ĠM enu
ĠB ent
Ġperman ently
) ?
O l
Person nel
ing o
L em
found ed
Ġsol ver
Ġadministr ator
ĠJul ia
ri b
Max imum
Ġpropag anda
Ġchap el
max imum
Call able
x r
ĠE ight
Ġh ierarchical
ĠEdd ie
Ġ ÑĤ
ĠD od
power ed
ĠSc ar
sk a
Ġpers pectives
arn ess
Ġhand lers
Ġle verage
ĠEr nest
whe el
ĠCom edy
{ }{
Ġrele asing
itor ies
ĠAl t
Ġn urse
g ro
v ariant
Ġlux ury
ĠBrook s
ĠP ART
Ġle an
> ";
W F
Ġmari juana
ĠM ig
col lections
Ġattack ing
ĠY ellow
M u
å į
ĠChar ter
ĠBenn ett
ĠLi u
ĠBat man
M ah
Ġend e
23 1
ur bs
estr ian
}{ !
C odes
ĠNob el
Ġd ans
ĠAn imation
IFI ER
ĠM atter
0000 000
ĠPal mer
C ss
bas is
ĠCa uchy
is cher
ĠF act
Serial izable
Ġt ear
Ġtrail er
Ġwithdraw al
all ed
A ust
Com puter
g ary
Ġse aled
Cl osed
ĠAd elaide
Ġre vel
ac ian
ĠG and
Ġshould er
^* ,
Ġf t
S wed
n othing
Ġh ull
Ġexperiment ally
ĠFil ip
ĠMethod ist
Ġdec imal
Initial ized
Ġl as
con c
pars ed
oy le
ĠAct ivity
Dis patcher
names e
C lock
Ġair line
GEN ER
ĠC ould
b id
parent s
h in
Ġhad n
ing ers
Ġurg ed
R pc
Ġex empl
Comp any
: **
Ġtour ists
> =
Ġdeterm inant
ol ics
is ive
Ġb ail
b acco
ĠI BM
Ġprem ium
ĠW eyl
unt u
ĠC ome
Ġmand ate
é ĩ
Ġ- &
ĠT X
Ġhous ed
ot er
Ġ( @
ĠCom mercial
ent ropy
Ġconvolution al
verb atim
Ġto g
Ġn ut
Ġle agues
_{ |
Ġdef icit
IN LINE
Ġland mark
n al
log y
Pr incipal
Ñģ Ðº
ST EM
H W
Ġe leg
get Time
ç ½
Ġr s
EX P
Ġun lock
aut om
G esture
r p
Ġsp acing
Ġdr ain
ĠZ ion
ĠInd ividual
ĠĠĠĠĠĠĠĠĠĠĠĠĠĠ Ċ
Ġpartnership s
idd ing
Ġinstit ute
Suppress Warnings
is ors
add itional
ĠF DA
ĠGL int
Ġas ymmetry
ĠRod rig
ĠProdu ctions
ĠL ives
cap acity
b rit
ĠLaw s
Ġw isdom
Ġwant ing
ĠValue Error
Ġk nee
Ġres ume
Ġint elligent
S ar
Ġwitness ed
p her
... "
Ġt ournaments
ĠCh a
ur sion
ĠQu estion
Ġaccess key
ãĤ Ĵ
Ġprev ents
ĠH ir
n ell
Ġb ishops
oper ations
- }
en es
Ġg aming
Alloc ator
Ġm aj
B ank
qu ark
Ġins ufficient
ĠM ob
Ġpack ed
Ġarg v
Ġdat abases
el n
Ġarg uing
3 45
S on
Ġte eth
Jose ph
ct l
Ġdem o
tabular newline
Ġsac red
}\ |_{
Ġsup rem
Ġcul min
Ġll vm
other wise
ĠEvery thing
ĠCoal ition
r ise
ul g
ĠM eta
Ġfl ush
sk in
ĠSp ot
erg i
Ġepoch s
angel ical
og g
Ġpl ugins
A ge
I ts
Ġnecess ity
ĠG uild
ond e
ĠA ber
Ġtra its
Ġundert aken
ĠM ode
ĠS ect
18 57
ĠPlan ck
Ġschedul ing
****** /
the ore
Ġro ster
Ġmoment a
æĺ ¯
m tx
Ġhand ful
ĠPre vention
Ġhom osex
Ġelev ated
el ist
Ġex clusion
Ġrec ursive
U X
p ure
Rel ation
S heet
Comm ands
Ġsw ap
a eda
Ġamb itious
Ġh ung
ĠW alt
}$ ~
M Hz
ĠC ONT
}} ;
Ġtre as
ic ia
Ġpass ive
Ġstep ped
BU TE
Ġbar rel
Ver b
Ġn ights
Reg ex
Ġplay off
ĠValid ate
Ġtact ics
MP TY
Ġimm un
ĠUE FA
ĠTom my
22 8
Ġpassion ate
e eq
play back
Ġsuggest ion
Ġacknowled ges
At l
ĠP av
b v
Ġplan ar
Ġpurs uing
ast ically
en burg
P K
ĠM umbai
ĠH us
Ġtremend ous
ĠT D
ĠCom pute
Ġsort s
è §
Ġun successful
Ġt ick
Ġg onna
Co ins
che my
thread s
are l
G AN
m orph
Ġre built
ĠT ul
Ġinfr ared
ĠIda ho
ĠS FR
we ather
Ġinvest or
Ġgrad uates
ro les
ĠBre xit
Ġinfin itely
Profess ional
). $
Ġdesign ing
Ġf id
Ġmaxim ize
ĉĉĉĉĉ Ċ
act ivate
Ġbreak down
Ġapproach ing
ĠA CT
19 1
Com ments
ĠS ample
prov ided
Ġpublisher s
Ġg ig
ĠL IC
Ġsub groups
ĠBrun swick
Ġt idal
ĠBr ussels
ĠId entity
car ousel
Appe arance
ĠD anny
ĠCh oice
}} -\
ha o
7 68
Ġis set
ĠP rep
Ġdesign ers
Pl ayers
Ġd ose
}}{ (
Ġag gress
sy ntax
%%%%%%%% %%%%%%%%
ĠD oll
Ġreloc ated
Ġid s
Ġin ches
ĠFor ward
Event Handler
Arch ive
ĠW aters
Ġless er
ĠSl oven
former ly
Ġp ec
ĠF at
ĠCl ick
Ġsil ence
Ġsquad ron
ĠM iles
Res olution
[ ],
Ġtri angular
std out
Ch ief
Ġf el
\\ [
Ġfavor able
SCHE MA
ĠY uk
ĠR us
Ġs q
Ġcell ular
Ġtim eline
Hen ry
Ġdefect s
Ġfor g
Trans l
Â «
Qu ick
Ġpil ots
Ġtrunc ated
ch rom
Ġd ressed
Ġr het
Check er
ex e
ocom plete
ĠRiemann ian
F all
ĠB ak
Ġtog gle
l ived
ĠAh med
ĠC inema
Ġinv ented
Ġamend ments
ĠC ir
ĠB orel
Render ing
b road
ĠMil waukee
st retch
Ġavoid ing
}\, ,
ĠDi agnostic
Equ ation
Ġpra ise
oc y
ĠBr isbane
Ġvolunt ary
Ġenjo ys
25 7
ĠQ uality
oxy gen
m ess
F IL
ĠEm ily
sup set
Ġret ro
Ġconvent ions
Ġvort ex
ĠAss umption
Ġtrav elled
I FT
ĠJ ung
ĠSher iff
on aut
get Logger
K ills
Ġw ard
et ype
Ġ= &
You ng
Ġpit cher
Res ize
J P
ĠK i
Ġuniqu eness
ĠG ust
port folio
Ġestim ating
OP EN
Ġcommand ed
ĠP rest
Ġabund ances
ĠTy ler
eg en
ĠM aking
Ġro oted
ĠFI LE
ampl er
m ob
es a
Ġbus es
tr ust
Ġcl arity
z ig
ow ards
ĠB ened
ĠCh an
ĠCour se
Ġhom ology
IF Y
ol y
Ġbe aring
Ġinter im
Ġquarter back
hl js
Ġo l
ĠCr isis
ĠE E
Ġun set
Ġatt achment
v b
ĠPro b
Ġlo ose
Ġreflect ing
ĠAll ah
Ġp ic
ram id
ĠB udget
Ġfactor ization
A WS
Ġ} ));
23 7
ĠG aza
Ġ# #
Browser Detector
Ġe ject
Ġim pressed
ĠGabri el
Ġn u
ĠCh ang
Ġmat hematic
Ad ministr
( $\
Ġdomin ate
ĠCoul omb
p ark
Ġdown stream
the o
m ixed
ĠC B
oy age
Ham ilton
Grad ient
g res
Ġacceler ated
D AT
30 8
ĠF ra
Ġdeprec ated
ĠL iga
Ġmake up
Pl us
V ir
Ġcommem or
chi ef
ĠSD K
le arn
Ġlast ing
ĠN HS
ĠInt egr
Ġt ier
Ġ" :
W estern
ĠB ald
Man ifest
r ational
pare n
------------ --
ĠIns ert
)} }\
Ġte aches
Ġcirc ulation
Ġbad ly
Ġl icenses
ĠC ann
ĠComp anies
J eff
min or
ĠBar ack
ĠEvent ually
con e
Ġconsult ing
x c
w ent
Ġcomm od
Ġnam ing
dot ted
ins ki
ĠR F
ĠR achel
OD Y
Ġan ces
' }),
ound ing
Ġess ence
rout ing
ok ia
Ġcallback s
Ġcon fin
Ġinvest ing
Ġsett lers
m h
Ġassess ed
enc oder
Ġdissip ation
Ġb rew
Ġbankrupt cy
c ook
Dis cussion
Ðµ Ð»
int rodu
} '$
ĠS ullivan
Ġ} (
ĠK in
ĠCr u
Ġs iblings
sp r
Ġy ard
pro duc
Ġdist ortion
Ġprob abilistic
Ġl ucky
Ġrece ipt
P rep
M ale
Ġk iller
W ay
ex istence
Ġfra ctions
Ġtrust ed
Ġret reat
com ed
ĠD evelop
Ġre un
Ġcontribut or
ĠInt el
Te X
Tra its
y i
equ ivalent
ĠEnter prise
Con clusions
ou bt
Ġsm oke
ĠPet e
Debug ger
Ġce ased
Ġr ice
Ġtrav elling
ap or
r ison
mu x
Ġimprison ment
Ġdiscret ion
ĠFant asy
r ceil
t om
N AS
Ġgr pc
ack ing
Ġemb ark
ĠArch ived
Ġlect ure
ĠSet up
ĠStand ards
Ġad verse
Ġab oard
^* _{
Aut om
C WE
Ġref ined
Ġcart oon
I BUTE
ĠEv olution
UN K
! )
P a
ph ones
open api
ĠEconom y
ĠC raw
Ġ/// <
Ġd type
am as
V an
Ġpick s
Ġstrugg led
Ġe V
ĠM illion
ĠBi ography
ym ph
ĠR M
ĠTh an
Off ice
Î º
Not ify
ĠInter ior
ĠArch bishop
Ġmod ulation
Named Cell
ĠL oss
Ġbin aries
Ġrefuge e
Ġtox ic
ĠStrateg ic
st ars
ĠAp ost
ine q
ĠAr gs
v ary
ĠQ t
Ġh ur
ĠD ES
ĠA uckland
is co
sche dule
ĠAuth ors
Ġf u
the m
n h
can onical
ices ter
Ġr am
am ar
< >(
Ð½ Ñĭ
Ġconsum ed
consc ious
sat z
Key words
Ġpione er
Ġanalog y
GRO UP
Ġp ale
Ġpoly mer
es ar
co ins
' />
Ġpenal ties
Ġround ed
Ġdeter ior
* >
ĠCy prus
m ong
ut a
av in
Ġprior ities
Ġp index
ĠAv ailable
40 5
ĠFr ame
F ee
n as
Ġend emic
Ġden y
Ġrender er
Ġr amp
dd ot
prob ability
ĠF P
Ġinvent ory
al bum
gr and
co res
ipher al
ĠProgram s
ĠSch r
Ġout lets
($ _
Py thon
in aries
equ ilibrium
Ġcarri ers
Ġ( ).
Ġl ig
Ġfulf illed
c orner
Ġa ws
Ġfin anc
ĠVlad imir
Medal ists
E ll
Ġnom inal
s aved
Ġmet ropolitan
à ¦
ĠFif th
ĠD ipl
Ġnot ions
Ġl ady
ĠD S
Ġ*/ ;
Ġmist akes
' </
/ %
"> @
spect rum
ĠExcell ence
R ew
ĠTh ai
Ġbro ker
Ġ\ %
che l
ĠTe V
Ġpre view
s ible
elect ric
ĠR ect
V ers
Ġthermod ynamic
; =
Ġtri but
R V
ig nt
Ġsimilar ities
ĠTechn ologies
Dependency Injection
ans wer
ĠCO M
Ġdefend ers
el ia
Ġl y
Ġev olving
ĠM ask
min imal
pass ed
for um
Ù Ĭ
Ġm oth
ĠCart esian
Ġturbul ent
Ġgu ards
8 000
get Default
Ġopen ly
ĠK as
Ġinvert ible
ov ina
22 9
[ ];
p romise
pl aced
ĠIss ues
C li
ep per
l ceil
nav Bar
Ä ħ
Ġde port
_{\ {
ĠCh ase
Ġpr ide
ĠM ine
Call ing
Ġcon fess
ĠPar al
Ġsport ing
un stable
Ġc ock
se min
intend ent
u ced
-------- ---
ĠAll ow
l iteral
Ġf et
out heastern
Ġcons erved
23 8
m ine
Th ose
Cal c
Ġch ore
Ġlect ures
ĠAn imal
ĠDi ocese
é Ĺ
3 10
LE X
Ġiter ative
ĠPot ter
Ġhero es
Ġs ou
ĠC I
Ġtrans fers
ĠPat tern
c in
cover age
Ġodd s
Cor ollary
Ġout s
EN S
ĠBet ter
| ,
ĠGram my
Ġconfident ial
@ @
Ġshort est
call s
Ġto bacco
K a
ĠSp ider
ĠBl ake
Ġintegr able
Ġnovel ist
Ġresign ation
x ff
ĠHol mes
ac ial
Ġadvis ory
D X
W ang
produ ced
st ead
man aged
open h
Mut ex
other apy
Ġend orse
Out come
Writ ten
ext ended
act ical
Ġsur ge
Get ter
Ġprison er
ĠRevolution ary
ĠGard ens
Ġsub stitution
Filter Database
ÐµÐ ´
ĠAl pha
Ġul tra
ĠG ent
Ġiter ate
ĠD y
Ġstat istic
Ġepid emic
ĠS ans
fin ish
Ġf ur
communic ations
d ummy
al go
ct uary
)$ ;
Util ities
j l
ĠJ in
Ġfor gotten
Ġstake holders
B ern
ĠSe bast
Ġs ew
ĠR ams
Ġsacr ifice
00 6
ĠK err
IC AL
ãĥ ³
b ias
Ġin version
ĠA ST
Ġment ions
ĠF loyd
l iter
sub division
Ġinn ocent
Ġdisappe ared
Ġke en
S and
Ã µ
ĠK or
[ _
y our
\% ,
Ġdefend ants
' ^
Ġpurs ued
ĠUg anda
2 14
S ink
by e
oc cup
if old
Ġk ernels
ĠPar ad
( ",
Ġn ic
Ġl unch
t u
Ġnever theless
ob ar
Ġi OS
Ġse ized
Ġco at
ĠDev on
function al
Ġfood s
ĠT at
oc on
ĉ ĠĠĠĠĠĠĠĠĠĠĠ
Ġind oor
Ġb esides
ĠS chema
Doc uments
c nt
Res olve
ĠKn ights
ĠH erald
Ġacc us
A H
Ġcomp romise
arri or
ĠPear l
a q
i Name
ev t
K B
J ournal
" +
T aking
ĠThe me
Ġless on
APPL ICATION
c url
Ġsatell ites
ĠTun is
ĠM ull
i ating
Ġell ip
Ġpair wise
rot ation
Ġtermin ology
Ġfle w
ray s
u pe
Cl one
Ġnull able
AR S
Tok ens
ĠS ed
by ter
Ġmob il
pre ceq
Ġfound ers
Ġflat ten
Ġelabor ate
z k
Ġst reak
ĠE g
Fl at
na issance
Ġgr ains
ll abel
ĠVol unte
Ġunf air
Ġn ervous
Im g
Rem ark
18 54
Ġem peror
r ag
Ġclean up
Ġtort ure
Ġconcentr ations
con tr
Ġ) {
eloc ity
str ategy
)} ]
Ġt oured
K M
+ {\
Ġthrow ing
Ġcancell ationToken
Ġnormal ize
ĠP owell
ĠSecond ary
ser if
Ġfib ers
ne apolis
ĠDirect ory
ir re
rec v
Ġprompt ed
Ġcontr action
Col lege
Inv oke
C ut
f urt
ĠP ink
ĠG ang
sp ons
anc o
Ġred shifts
un ov
Ġplay wright
æ ł
Ġrun ners
DE V
E th
Cho ice
18 55
Ġtr agedy
Ġgr at
ĠWIT H
geq slant
S hip
Ġmetall ic
ĠRe id
Fl ora
Ġconstit utes
Ġobst acles
MS earch
Ġstat utory
div ider
ĠS tra
unc her
ass er
}, $
Ð½ Ð¾
ĠFig ures
ĠR ah
n z
Ġh i
ĠT ypes
enn ium
Ġaggreg ation
m us
v dash
R B
end ors
ĠF ail
Mod ern
en za
En code
ĠEll is
ĠB ug
Ġexcell ence
' ')
Ġtransport ed
(" [
ĠBO OL
ĠE ff
ĠDemocr acy
rest ore
ĠF IX
Ġsub division
S ens
c odes
App Compat
ĠS Ã£o
ĠMan uel
ĠRem ember
sm ith
ĠNe umann
Ġde pr
ang led
ĠBudd h
em bourg
ĠNot re
author ized
Ġa u
t lement
ure auc
fl ash
Ġdrop ping
Ġlab elled
P aired
ĠW riter
ĠP rec
Ġup set
ĠF ocus
ass umption
Ġrac ist
screens aver
q p
Ġt body
ĠK ra
ĠDom ain
s uggest
Ġpractition ers
Î ¯
Ġun safe
Ġp unk
ĠN umer
Ġde form
ign er
scal ing
EX CE
I sl
Z end
ĠCor porate
Ġw orn
23 3
Ġkid n
Ge org
ĠH ur
ĠTH IS
Mus ical
Ġb eneath
ĠK aren
ĠHol ocaust
Recip ients
ĠDur ham
8 50
ch ap
B rown
ĠT ensor
ĠSing les
HEAD ER
Ġor n
ĠA id
pl oys
min i
add on
f h
Ġterm inate
Instance Of
Ġoscill ation
ĠS TR
ĠW er
end ant
request s
Ġide ology
ĠJer emy
Ġcasual ties
atche wan
n ested
ĠAp plied
ĠHen ri
Ġhaz ard
f on
Ġhot els
OP ER
|\ ,
ĠC V
Tax a
M ike
ĠCO MP
access or
Ġre written
Ġm u
Ġcooper ative
' /
ĠCO MM
ers et
Ġes cal
Ġmut ation
ĠI v
c ue
ãģ Ļ
ĠEag le
3 15
ĠProduct s
un ar
Ġcancel ed
Ġb ell
ĠPan ama
it ars
Ġemploy ing
stan bul
Ġform ations
cell s
\\\\\\\\\\\\\\\\\\\\\\\\\\\\\\\\\\\\\\\\\\\\\\\\\\\\\\\\\\\\\\\\ \\\\\\\\\\\\\\\\\\\\\\\\\\\\\\\\\\\\\\\\\\\\\\\\\\\\\\\\\\\\\\\\
kin son
aw i
sup ports
Ġop posing
ott ing
Ġtim ber
ĠSalv ador
ven ile
Hon ours
A ws
ast ics
Ġsp at
IT S
Ġh ire
k b
ĠS part
Ġfix ing
ari um
Ġsp ans
Ġsk illed
NO WN
| }{\
ĠR GB
ĠNew castle
pres erve
en i
Ġph ones
Disc ography
Ġmark ing
ĠDr iver
Json Property
ĠÂ «
Ġl uck
}\ |\
ID s
Ġart ic
emph is
Ġess ays
Ġtri ang
ĠWars aw
Ġrock et
ĠB ert
Ġrel uct
ĠMc Donald
Ġnav igate
ĠWag ner
ĠÐ ±
ĠMet al
tensor flow
Ġm igrants
r ub
Ġl azy
Ġlat ency
get Data
Ġbeh ave
Stud ent
Ġimm igrant
ĠEngine ers
in ion
Man aged
Ġaddition ally
] _{\
Ġat tain
us a
Ġcan on
Ġaccount ed
Linear Layout
il io
Ġap olog
26 5
ams ung
Ġkn ot
air y
ugg ed
ĠR ise
Opt im
Ġth umb
ĠScot ia
Ġl ip
18 47
., ][]{
F atal
w ould
so lete
source forge
Th ank
Ġpredict s
Ġil leg
Ġperform ers
ev olution
ĠN R
ĠCh anges
ĠLib ya
navBar Cell
ĠB L
Con struction
ĠTo o
sy nt
Me V
Ġrev ival
Ġhar vest
Ġe ager
oper ating
C ov
ĠD h
IS O
Inv ocation
A verage
Ġb ootstrap
ĠChe ster
} `
| }\
D istrict
Ġgrand mother
IR ST
CK ET
ĠNap ole
Build ing
Ġquestion ed
art en
inv est
ĠH aven
ĠKaz akh
Ġnomine e
B AD
it ic
g reat
un ivers
So ft
poly mer
}} /
Ġres olutions
D J
X P
ere k
-> {
col ogy
Ġtens ors
F LOAT
ĠCorn ell
Ġpre jud
B in
24 7
Ġcrit ically
det ect
oc ide
ĠCon ver
co ordinates
And rew
Min imum
The ir
ĠTh r
ç ±
ĠA ve
ĠB erry
ib us
ĠDes ert
ĠF erg
ĠOr lando
Ġmer gers
we ights
ĠPr ague
oin ters
} ],
P acific
Com posite
table block
p ick
Il legal
com fort
ĠDist inguished
n ut
Ġ" ");
dis crete
M icro
j sp
ĠDecl aration
}) +\
aur us
getElement sBy
append ix
role um
Ġw ore
Ġel imination
We ak
co eff
ĠD uncan
Ġinc umbent
6 25
ve ction
de ploy
omet own
Ġdir ty
ĠO m
Ġinter change
Ġ[ âĢ¦]
Ġsub urb
Ġperturb ative
is che
(' ../
ĠYugosl avia
Ġtri bal
{ })
R ele
Ã ¯
Ġmagn itudes
ĠMor occo
ĠM az
Ġ| ___
Ġpoll ing
Ġn ose
Ġhar sh
ĠArch ae
ãĤ ¹
tw ig
@ {\
hib ernate
ak et
Operation Exception
ĠSh ir
Ġtra uma
Ġharass ment
F und
Ġ.. .,
Ñ ī
ĠE ye
7 20
Ġnew er
cond itional
O x
ĠB in
ĠIndian apolis
ĠBrad ley
Dis able
ĠF iles
sq cup
Ġcirc uits
ĠAch iev
ĠL akes
D K
w ire
Ġconstr ain
Ġanten na
n or
ĠSw an
r ases
Ġant is
Ġcapt uring
R oom
| $.
Ġw are
Ġamb ient
ĠA SC
LE FT
c ool
)\ |_{
ĠVo iv
Ġm a
ĠGl enn
ĠT all
Ġorgan ize
Ġo ps
ĠOut standing
ro ots
Ġs el
ĠR ush
Ġout going
ĠAr r
P ot
m and
18 58
Ġpup ils
Ġpharm aceutical
Ġcre ativity
Ġassign ments
ĠIn side
Comm unity
Op code
AT IVE
Ġpar abolic
ĠApp ly
udd y
P TED
Ġfor wards
bo at
lev ard
Ġdraw ings
Ġkil ometers
L es
ĠRuntime Exception
Ġd ummy
æ İ
ĠJama ica
ĠAngl ican
ole v
Ã¼ n
ress es
ne z
26 3
ĠPaul o
m ons
uck ets
Ġre ass
get Current
ĠH arm
ĠH H
ĠR af
ĠJohn s
prec iation
ĠLIC ENSE
B IN
Start ed
âĢĶ âĢĶ
Ġrig orous
rows ers
Ġaccommod ation
read only
imm ers
Ġf o
ĠN ine
Ġg fx
ĠM IN
Ġreg ulated
Ġspl its
N ay
ĠE cuador
ĠS erv
ĠE ducational
12 34
Pers istent
}^{ *
en stein
Ġun ited
y ellow
ĠCor respond
ĠRh odes
T LS
ĠR av
ĠLind a
Ġenact ed
Ġtom orrow
g ene
Ġan ch
Ġisol ate
l ic
Ġaut omorphism
ĠPed ro
. ][]{
ĠB LA
loc ations
Ġca ution
rosso ver
Ġh ills
{ #
Lou is
Ġn ons
Ex act
mod es
Im p
ĠStart ing
char set
Ġathlet ic
im plies
Ġapplic ant
set Value
P ic
d V
Ġindex es
aff e
ĠEthiop ia
and ro
Ġspokes man
Ġb ike
ĠR uby
29 0
Ġtheore ms
Att ach
NUM BER
Ġdi abetes
Dem o
Ġsimultane ous
ĠKnow ledge
ĠN g
Ġgeneral ize
-- ;
abor ation
Ġp ink
Ġad apter
}\, .
iS ector
ĠB inary
sl ug
ĠAc cept
Ġh anging
ish i
Ch arts
Loc ator
ĠIter ator
ĠNiger ian
in tr
ĠWell ington
Ġf ade
^+ (
, +
s id
W C
k ed
Character Offset
ĠMon itor
Ġpredict ive
Ġalt itude
ĠPut in
Ġd ock
ĠF T
Ph ysical
A thlet
ĠD NS
ĠAmeric as
ĠWest minster
ĠDis tribution
Ġac ute
Ġaff irm
atern ity
ĠS olid
Ġregister s
Ke ep
'' $
design ated
ĠR out
Ġ" </
Ġmer ging
ĠAppe al
Ġnumber ed
Ġac claimed
Ġmanip ulation
w yn
ĠE sc
Ġcur r
ant le
.\ ]
Ġgrap hene
Ġatt itudes
um ble
() "
Ġany body
dat ab
us on
Ġ" {
ast ed
Ġo ught
ĠC ord
ĠP ush
F inder
ĠSol omon
R out
ĠM N
ĠIn fo
Ġappe als
icy cle
Ġl ag
Ġpract ically
Ġn ephe
18 56
be havior
ĠC ities
ĠG ospel
ig g
Ġcont amination
Ġmut ually
ĠÐ ¼
Q A
tr uct
ĠSe lection
$ ~\
F X
ĠS ic
ap a
Ph ysics
Ġfro zen
Ġstud ios
back up
Ġaffili ate
ĠA way
Ġcour tesy
ACCE PTED
l os
fo od
Ġref use
Ġtraff icking
d type
Prot os
Ġintr ig
ĠCa uc
Ġattorney s
che z
Inst ead
ĠCol in
Process ing
ĠSim pson
ĠO wen
b w
Ġre use
ĠS afe
re ts
as List
ĠC ash
ĠArm strong
ag le
ĠHe aven
ĠCan adians
Ġpolar ized
à¤ ¾
Ġl od
Ġimpact ed
ari at
S pect
ĠBi ology
re ng
Ġint ensive
ĠRem ote
ÑĢ Ð¸
ĠH AVE
ourn als
Ġ* **
LOC AL
ĠBeat les
Scott ish
Ġwithd rew
D am
Ġre jection
est e
Ġmorph isms
Ġrob ots
li um
RE ST
Orient ation
Ġsurprising ly
l vert
al ways
ĠA ur
[...]
