{"[UNK]":0,"!":1,"\"":2,"#":3,"$":4,"%":5,"&":6,"'":7,"(":8,")":9,"*":10,"+":11,",":12,"-":13,".":14,"/":15,"0":16,"1":17,"2":18,"3":19,"4":20,"5":21,"6":22,"7":23,"8":24,"9":25,":":26,";":27,"<":28,"=":29,">":30,"?":31,"@":32,"A":33,"B":34,"C":35,"D":36,"E":37,"F":38,"G":39,"H":40,"I":41,"J":42,"K":43,"L":44,"M":45,"N":46,"O":47,"P":48,"Q":49,"R":50,"S":51,"T":52,"U":53,"V":54,"W":55,"X":56,"Y":57,"Z":58,"[":59,"\\":60,"]":61,"^":62,"_":63,"`":64,"a":65,"b":66,"c":67,"d":68,"e":69,"f":70,"g":71,"h":72,"i":73,"j":74,"k":75,"l":76,"m":77,"n":78,"o":79,"p":80,"q":81,"r":82,"s":83,"t":84,"u":85,"v":86,"w":87,"x":88,"y":89,"z":90,"{":91,"|":92,"}":93,"~":94,"¡":95,"¢":96,"£":97,"¤":98,"¥":99,"¦":100,"§":101,"¨":102,"©":103,"ª":104,"«":105,"¬":106,"®":107,"¯":108,"°":109,"±":110,"²":111,"³":112,"´":113,"µ":114,"¶":115,"·":116,"¸":117,"¹":118,"º":119,"»":120,"¼":121,"½":122,"¾":123,"¿":124,"Â":125,"Ã":126,"Ä":127,"Å":128,"Æ":129,"Ç":130,"È":131,"É":132,"Ê":133,"Ë":134,"Ì":135,"Í":136,"Î":137,"Ï":138,"Ð":139,"Ñ":140,"Ò":141,"Ó":142,"Ô":143,"Õ":144,"Ö":145,"×":146,"Ø":147,"Ù":148,"Ú":149,"Û":150,"Ü":151,"Ý":152,"Þ":153,"ß":154,"à":155,"á":156,"â":157,"ã":158,"ä":159,"å":160,"æ":161,"ç":162,"è":163,"é":164,"ê":165,"ë":166,"ì":167,"í":168,"î":169,"ï":170,"ð":171,"ò":172,"ó":173,"ô":174,"Ā":175,"ā":176,"Ă":177,"ă":178,"Ą":179,"ą":180,"Ć":181,"ć":182,"Ĉ":183,"ĉ":184,"Ċ":185,"ċ":186,"Č":187,"č":188,"Ď":189,"ď":190,"Đ":191,"đ":192,"Ē":193,"ē":194,"Ĕ":195,"ĕ":196,"Ė":197,"ė":198,"Ę":199,"ę":200,"Ě":201,"ě":202,"Ĝ":203,"ĝ":204,"Ğ":205,"ğ":206,"Ġ":207,"ġ":208,"Ģ":209,"ģ":210,"Ĥ":211,"ĥ":212,"Ħ":213,"ħ":214,"Ĩ":215,"ĩ":216,"Ī":217,"ī":218,"Ĭ":219,"ĭ":220,"Į":221,"į":222,"İ":223,"ı":224,"Ĳ":225,"ĳ":226,"Ĵ":227,"ĵ":228,"Ķ":229,"ķ":230,"ĸ":231,"Ĺ":232,"ĺ":233,"Ļ":234,"ļ":235,"Ľ":236,"ľ":237,"Ŀ":238,"ŀ":239,"Ł":240,"ł":241,"Ń":242,"ĠĠ":243,"Ġt":244,"in":245,"ĠĠĠĠ":246,"he":247,"Ġa":248,"on":249,"er":250,"re":251,"at":252,"Ġthe":253,"en":254,"or":255,"Ġs":256,"al":257,"es":258,"is":259,"an":260,"it":261,"Ġc":262,"Ġo":263,"ar":264,"ion":265,"ed":266,"Ġw":267,"Ġf":268,"Ġp":269,"le":270,"ing":271,"nd":272,"ic":273,"Ġin":274,"Ġof":275,"ĠĠĠ":276,"Ġb":277,"ro":278,"as":279,"ĠĠĠĠĠĠĠĠ":280,"Ġd":281,"Ġm":282,"ct":283,"et":284,"Ġand":285,"ent":286,"ou":287,"Ġto":288,"el":289,"st":290,"am":291,"il":292,"om":293,"Ġre":294,"Ġ\\":295,"Ġh":296,"Ġth":297,"Ġn":298,"ig":299,"Ġ$":300,"ation":301,"ol":302,"id":303,"im":304,"ac":305,"ĠS":306,"Ġ(":307,"Ġe":308,"ot":309,"ĠT":310,"Ġl":311,"ur":312,"ut":313,"iv":314,"ĠC":315,"se":316,"ĠA":317,"ad":318,"Ġis":319,"ĠĠĠĠĠĠĠ":320,"ul":321,"ce":322,"Ġ=":323,"Ġfor":324,"Ġg":325,"od":326,"âĢ":327,"ow":328,"tr":329,"if":330,"ĠI":331,"em":332,"ag":333,"ay":334,"ly":335,"ab":336,"ch":337,"ĉĉ":338,"ĠM":339,"un":340,"us":341,"um":342,"ver":343,"ter":344,"Ġon":345,"qu":346,"Ġbe":347,"</":348,"ir":349,"ith":350,"čĊ":351,"ap":352,"{\\":353,"ate":354,"=\"":355,"ĠP":356,"Ġcon":357,"Ġthat":358,"th":359,"ĠB":360,"Ġv":361,");":362,"pe":363,"20":364,"Ġas":365,"Ġst":366,"ction":367,"--":368,"oc":369,"ht":370,"end":371,"ers":372,"ex":373,"est":374,"av":375,"Ġ{":376,"Ġwith":377,"ĠH":378,"Ġ<":379,"ĠR":380,"ist":381,"res":382,"and":383,"ĠF":384,"ĠD":385,"Ġal":386,"Ġpro":387,"her":388,"ass":389,"op":390,"Ġan":391,"ub":392,"ĠL":393,"ĠThe":394,"up":395,"ĠĠĠĠĠĠĠĠĠĠĠ":396,"ess":397,"ath":398,"//":399,"ew":400,"ain":401,"ĠN":402,"_{":403,"os":404,"eg":405,"ity":406,"ĠW":407,"Ġby":408,"ame":409,"Ġ*":410,"19":411,"Ġde":412,"Ġwh":413,"pt":414,"ort":415,"ĠG":416,"Ġwas":417,"ri":418,"Ġit":419,"rom":420,"ĠE":421,"Ġex":422,"Ġ\"":423,"Ġcom":424,"art":425,"ue":426,"ore":427,"pl":428,"our":429,"Ġat":430,"Ġr":431,"Ġ$\\":432,"ect":433,"ight":434,"Ġ}":435,"ment":436,"ine":437,"ies":438,"Ġcl":439,"Ġor":440,"all":441,"ill":442,"ure":443,"Ġ&":444,"age":445,"Ġare":446,"ial":447,"ĠĊ":448,"ak":449,"\">":450,"Ġfrom":451,"math":452,"ant":453,"iz":454,"ive":455,"nt":456,"ref":457,"cl":458,"Ġhe":459,"ud":460,"Ġthis":461,"ld":462,"og":463,"Ġse":464,"ext":465,"ge":466,"Ġwe":467,"ĠĠĠĠĠĠĠĠĠĠĠĠĠĠĠĠ":468,"ĠO":469,"..":470,"ĠJ":471,"Ġy":472,"ult":473,"ib":474,"ans":475,"ack":476,"con":477,"ef":478,"port":479,"per":480,"ĠĠĠĠĠ":481,"âĢĻ":482,"urn":483,"ite":484,"Ġtr":485,"()":486,"00":487,"ber":488,"ĠU":489,"**":490,"}\\":491,"orm":492,"^{":493,"act":494,"The":495,"und":496,"ph":497,"ary":498,"Ġch":499,"}$":500,"able":501,"sp":502,"Ġnot":503,"ated":504,"ip":505,"int":506,"ard":507,"str":508,"ave":509,"ich":510,"Ġsh":511,"ell":512,"ov":513,"are":514,"ff":515,"ition":516,"ign":517,"Ġclass":518,"201":519,"Ġif":520,"ical":521,"ma":522,"ĠâĢ":523,"Ġle":524,"Ġ-":525,"turn":526,"ace":527,"'s":528,"pro":529,"ype":530,"Ġk":531,"ft":532,"ode":533,"ase":534,"ord":535,"==":536,"ire":537,"ind":538,"com":539,"ost":540,"ug":541,"out":542,"),":543,"ast":544,"ep":545,"get":546,"----":547,"ang":548,"In":549,"ong":550,"ime":551,"ĠIn":552,"Ġcomp":553,"to":554,"ust":555,"ia":556,"ĠK":557,"fr":558,"(\\":559,"Ġ'":560,"ork":561,"}}":562,"Ġpl":563,"ens":564,"ile":565,"ations":566,"ence":567,").":568,"ice":569,"Ġhave":570,"ide":571,"li":572,"text":573,"cc":574,"ild":575,"ions":576,"ubl":577,"ata":578,"Ġres":579,"erv":580,"ta":581,"egin":582,"Ġwhich":583,"Ġus":584,"Ġcan":585,"cal":586,"Ġwhe":587,"ec":588,"begin":589,"ey":590,"ok":591,"ear":592,"ject":593,"ĠV":594,"ĠĠĠĠĠĠĠĠĠĠĠĠĠĠĠ":595,"du":596,"Ġhas":597,"Ġj":598,"ian":599,"ther":600,"Ġun":601,"ould":602,"so":603,"Ġall":604,"equ":605,"Ġim":606,"form":607,"ĠSt":608,"Ġdis":609,"Ġad":610,"ance":611,")$":612,"_{\\":613,"Ġab":614,"ory":615,"enc":616,"Ġap":617,"Ġar":618,"unction":619,"alue":620,"ev":621,"ous":622,"use":623,"Ġhis":624,"ener":625,"Ġreturn":626,"ach":627,"Ġ+":628,"200":629,"row":630,"ert":631,"ublic":632,"ra":633,"},":634,"over":635,"Ġ//":636,"ob":637,"ĉĉĉĉ":638,"Ġ[":639,"ents":640,"ress":641,"Ġnew":642,"abel":643,"->":644,"ere":645,"ĠTh":646,"Ġstr":647,"fig":648,"}{":649,"10":650,"cri":651,"::":652,"ock":653,"right":654,"fer":655,"Ġ</":656,"ĠCh":657,"Ġcont":658,"eq":659,"Ġ|":660,"Con":661,"own":662,"set":663,"oll":664,"aram":665,"../":666,"eta":667,"tern":668,"ound":669,"frac":670,"irst":671,"ource":672,"ple":673,"erm":674,"ll":675,"clud":676,"ose":677,"ree":678,"Ġalso":679,"ual":680,"the":681,"mer":682,"Ġpart":683,"Ġsu":684,"Ġone":685,"ict":686,"ors":687,"ome":688,"ish":689,"old":690,"\",":691,"ates":692,"ize":693,"elf":694,"St":695,"one":696,"ps":697,"rm":698,"ull":699,"cite":700,"Ġwill":701,"âĢĿ":702,"Ġwere":703,"Ġ@":704,"ark":705,"ount":706,"te":707,"iel":708,"18":709,"ik":710,"ely":711,"Ġbut":712,"Ġout":713,"che":714,"label":715,"Ġpr":716,"rit":717,"Ġyou":718,"Ġdef":719,"ink":720,"Ġob":721,"ss":722,"ption":723,"Ġme":724,"mathb":725,"Ġdo":726,"pect":727,"put":728,"Ġtheir":729,"Ġsp":730,"we":731,"div":732,"wo":733,"inal":734,"Ġev":735,"Ġ/":736,"Ġset":737,"Ġqu":738,"ield":739,"Ġfunction":740,"Ex":741,"yst":742,"rap":743,"ml":744,"(\"":745,"ics":746,"Ġint":747,"Ġup":748,"lect":749,"eth":750,"odel":751,"ray":752,"();":753,"oint":754,"sum":755,"Ġother":756,"$,":757,"$.":758,"Ġro":759,"Ġits":760,"iew":761,"left":762,",\\":763,"Ġper":764,"ail":765,"ĠY":766,"})":767,"essage":768,"sh":769,"ĠUn":770,"cre":771,"ings":772,"line":773,"mathcal":774,"Ġ.":775,"ool":776,"Ġpublic":777,"err":778,"ake":779,"Ġpre":780,"pec":781,"Ġman":782,"Ġfirst":783,"Ġmore":784,"ook":785,"Ġwho":786,"pr":787,"Ġwork":788,"ck":789,"aw":790,"roup":791,"ix":792,"></":793,"ĠIt":794,"',":795,"tring":796,"ational":797,"equation":798,"Ġthey":799,"ari":800,"Ġover":801,"12":802,"ystem":803,"span":804,"ng":805,"}.":806,"Ġag":807,"Ġen":808,"ick":809,"--------":810,"ĠâĢľ":811,"Ġname":812,"les":813,"Ġinter":814,"Ġtime":815,"\\\\":816,"Ġbeen":817,"mb":818,"trib":819,"ĠHe":820,"fter":821,"Ġhad":822,"><":823,"ater":824,"umber":825,"pos":826,"Ġtwo":827,"Ġdes":828,"ax":829,"Ġ:":830,"****":831,"iss":832,"ry":833,"ne":834,"ied":835,"}(":836,"cent":837,"ty":838,"lo":839,"ator":840,"amb":841,"tribut":842,"Ġso":843,"ular":844,"hed":845,"Ġver":846,"Ġne":847,"../../":848,"Ġyear":849,"Ġget":850,"Ġund":851,"Ġ*/":852,"pon":853,"}^":854,"====":855,"of":856,"imes":857,"oun":858,"Ġte":859,"uct":860,"Ġcomm":861,"Ġsub":862,"ative":863,"Pro":864,"igh":865,"))":866,"~\\":867,"__":868,"ĉĉĉ":869,"arg":870,"oid":871,"pha":872,"}_":873,"vel":874,"ram":875,"name":876,"ER":877,"Ġwhen":878,"raph":879,"ific":880,"da":881,"app":882,"Ġany":883,"anc":884,"Ġthere":885,"Ġsup":886,"ollow":887,"ĠĠĠĠĠĠĠĠĠĠĠĠĠĠĠĠĠĠĠ":888,"ons":889,"Ġpe":890,"ember":891,"Ġreg":892,"io":893,"Ġresult":894,"ople":895,"ie":896,"alpha":897,"16":898,"ms":899,"ient":900,"ĠĠĠĠĠĠĠĠĠ":901,"html":902,"Ġgo":903,"Ġonly":904,"Ġrel":905,"this":906,"199":907,"Ġtrans":908,"ange":909,"col":910,"round":911,"Ġabout":912,"ays":913,"Ġdata":914,"sub":915,"Ġwhere":916,"Ġthan":917,"ove":918,"ĠâĢĵ":919,"Ġbet":920,"Ġ||":921,"ĠThis":922,"der":923,"('":924,"oot":925,"lement":926,"15":927,"Ġher":928,"Ġadd":929,"ugh":930,"ys":931,"ased":932,"Ġsuch":933,"Ġinto":934,"Ġvalue":935,"ont":936,"Ġprov":937,"Ġhref":938,"ethod":939,"ited":940,"Ġdif":941,"âĢĵ":942,"ade":943,"Ġcol":944,"ann":945,"Ġcons":946,"atic":947,"Ġinclud":948,"arch":949,"als":950,"ox":951,"ident":952,"ities":953,"ON":954,"ise":955,"ues":956,"Ġunder":957,"Name":958,"tain":959,"Ġacc":960,"hat":961,"ĠWe":962,"oug":963,"eng":964,"ating":965,"def":966,"Ġline":967,"Ġour":968,"Ġfollow":969,"elta":970,"Ġtype":971,"Ġplay":972,"let":973,"resent":974,"Ġpos":975,"urre":976,"Ġwould":977,"IN":978,"cript":979,"ambda":980,"trans":981,"Ġass":982,"11":983,"ĠCom":984,"Ġsc":985,"uild":986,"Ġsome":987,"idth":988,"source":989,")\\":990,"Ġoff":991,"Ġ#":992,"ho":993,"Ġact":994,"Ġform":995,"ames":996,"message":997,"lation":998,"Type":999,"Ġkn":1000,"import":1001,"Ġend":1002,"ility":1003,"yn":1004,"td":1005,"ward":1006,"Ġi":1007,"Ġthen":1008,"Ġno":1009,"olog":1010,"param":1011,"Ġconst":1012,"alse":1013,"Ġfil":1014,"Id":1015,"amma":1016,"orn":1017,"ars":1018,"ince":1019,"dd":1020,"Ġinv":1021,"ement":1022,"Ġind":1023,"ĠSe":1024,"Ġgener":1025,"String":1026,"ivers":1027,"min":1028,"Ġrec":1029,"Ġ=>":1030,"ider":1031,"irect":1032,"atch":1033,"meric":1034,"its":1035,"cond":1036,"Ġpol":1037,"$\\":1038,"Ġrequ":1039,"ences":1040,"_\\":1041,"mathbb":1042,"oy":1043,"amp":1044,"ween":1045,"Ġloc":1046,"ined":1047,"ible":1048,"ton":1049,"ve":1050,"land":1051,"ally":1052,"aid":1053,"red":1054,"=\\":1055,"ced":1056,"cess":1057,"lock":1058,"ĠAr":1059,"Ġmodel":1060,"Ġpeople":1061,"ures":1062,"return":1063,"Ġop":1064,"abl":1065,"13":1066,"17":1067,"ution":1068,"bar":1069,"orld":1070,"Ġuse":1071,"Ġco":1072,"ĠPro":1073,"://":1074,"tt":1075,"Th":1076,"Ġph":1077,"igma":1078,"oth":1079,"Ġshow":1080,"Ġsim":1081,"Com":1082,"Ġafter":1083,"ash":1084,"uring":1085,"ĠNew":1086,"14":1087,"RE":1088,"ega":1089,"mu":1090,"br":1091,"ower":1092,"dot":1093,"Ġ\\\\":1094,"}_{":1095,"Ġself":1096,"code":1097,"Ġspec":1098,"ature":1099,"/>":1100,"ists":1101,"}^{":1102,"Ġbetween":1103,"ices":1104,"son":1105,"ike":1106,"Ġmay":1107,"plic":1108,"Ġel":1109,"ble":1110,"Ġcase":1111,"Ġused":1112,"Ġrem":1113,"Ġdiffer":1114,"Ġstud":1115,"rough":1116,"-\\":1117,"ctions":1118,"item":1119,"Ġbec":1120,"sc":1121,"ery":1122,"ank":1123,"ST":1124,"ause":1125,"uth":1126,"Res":1127,"Ġshe":1128,"^{\\":1129,"ts":1130,"Ġthese":1131,"Ġcall":1132,"class":1133,"Ġfe":1134,"25":1135,"var":1136,"align":1137,"ious":1138,"wn":1139,"Ġcor":1140,"ache":1141,"urrent":1142,"ily":1143,"not":1144,"Ġnumber":1145,"Ġent":1146,"ized":1147,"Ġx":1148,"Ġserv":1149,"We":1150,"read":1151,"add":1152,"ault":1153,"##":1154,"pi":1155,"Ġequ":1156,"ning":1157,"ĠAl":1158,"Ġ!":1159,"ead":1160,"Ch":1161,"ished":1162,"\"/>":1163,"Ġmost":1164,"Ġfl":1165,"Ġsystem":1166,"part":1167,"phi":1168,"Ġinst":1169,"AT":1170,"air":1171,"fl":1172,"vent":1173,"ision":1174,"Ġeach":1175,"Ġ_":1176,"Ġprodu":1177,"lambda":1178,"ask":1179,"ument":1180,"Ġgiv":1181,"yle":1182,"any":1183,"Ġthem":1184,"section":1185,"ception":1186,"ren":1187,"Ġ`":1188,"itle":1189,"Ġac":1190,"ages":1191,"List":1192,"Ġval":1193,"bf":1194,"Ref":1195,"type":1196,"Ġgr":1197,"ĠAmeric":1198,"Ġcre":1199,"Ġeff":1200,"oci":1201,"ines":1202,"Ġam":1203,"htt":1204,"Ġorg":1205,"198":1206,"ier":1207,"for":1208,"Ġback":1209,"Cl":1210,"Ġ{\\":1211,"Ġpoint":1212,"translation":1213,"ym":1214,"Ġthrough":1215,"ments":1216,"ins":1217,"chool":1218,"ample":1219,"ric":1220,"val":1221,"ough":1222,"ond":1223,"30":1224,"par":1225,"ĠFor":1226,"Ġest":1227,"fo":1228,"Ġ==":1229,"mathbf":1230,"mall":1231,"Ġchar":1232,"uss":1233,"itt":1234,"reat":1235,"ule":1236,"ilon":1237,"try":1238,"ization":1239,"21":1240,"ĠQ":1241,"ever":1242,"Ġnull":1243,"ivate":1244,"Ġsaid":1245,"Ġyears":1246,"eter":1247,"loc":1248,"AR":1249,"Ġstate":1250,"Ġwell":1251,"org":1252,"Ġatt":1253,"ism":1254,"Ar":1255,"OR":1256,"ID":1257,"Ġoper":1258,"ner":1259,"):":1260,"apt":1261,"Ġerr":1262,"press":1263,"hip":1264,"back":1265,"Ġtest":1266,"log":1267,"Ġhow":1268,"man":1269,"Ġsign":1270,"000":1271,"serv":1272,"ength":1273,"Ġ>":1274,"Ġed":1275,"ces":1276,"Ġem":1277,"ternal":1278,"Ġ--":1279,"ser":1280,"ole":1281,"ason":1282,"////":1283,"ĠTr":1284,"uc":1285,"ute":1286,"gy":1287,"LE":1288,"Ġvoid":1289,"ĠCon":1290,"Ġsol":1291,"hen":1292,"ee":1293,"sigma":1294,"ĠZ":1295,"Ġever":1296,"Ġvar":1297,"Ġsame":1298,"iversity":1299,"Ġrep":1300,"It":1301,"here":1302,"self":1303,"ote":1304,"Ġgroup":1305,"pre":1306,"Ġtrue":1307,"ife":1308,"beta":1309,"Ġappro":1310,"array":1311,"Ġ)":1312,"oh":1313,"ĠĠĠĠĠĠĠĠĠĠĠĠĠĠĠĠĠĠĠĠĠĠĠĠĠĠĠĠĠĠĠĠ":1314,"lection":1315,"Ġvari":1316,"Tr":1317,"ilde":1318,"eps":1319,"yp":1320,"\"><":1321,"be":1322,"ired":1323,"Ġwhat":1324,"angle":1325,"Ġfinal":1326,"ĠAs":1327,"Ġfound":1328,"Ġmon":1329,"^{-":1330,"overn":1331,"Ġagain":1332,"view":1333,"Ġdifferent":1334,"Ġneed":1335,"22":1336,"ern":1337,"Ġ(\\":1338,"Ġcent":1339,"Ġfield":1340,"Ġlike":1341,"az":1342,"Ġfalse":1343,"perty":1344,"Ġext":1345,"ody":1346,"width":1347,"Ġmin":1348,"Ġmod":1349,"To":1350,"50":1351,"work":1352,"Ġjust":1353,"mathrm":1354,"Ġnon":1355,"SS":1356,"}{\\":1357,"ĠĠĠĠĠĠ":1358,"Ġpartic":1359,"ĠCl":1360,"ically":1361,"erson":1362,"ww":1363,"uch":1364,"Ġusing":1365,"Ġser":1366,"197":1367,"string":1368,"ten":1369,"Ġhim":1370,"Ġright":1371,"Ġdec":1372,"formation":1373,"umn":1374,"ah":1375,"rr":1376,"ful":1377,"Ġstart":1378,"));":1379,"********":1380,"ĠSh":1381,"ets":1382,"EN":1383,"+\\":1384,".,":1385,"*}":1386,"iver":1387,"Ġboth":1388,"AL":1389,"ĠX":1390,"Ġmethod":1391,"Ġsee":1392,"cept":1393,"Ġlong":1394,"Ġmany":1395,"gamma":1396,"opt":1397,"Ġmat":1398,"Ġshould":1399,"sion":1400,"\");":1401,"bject":1402,"Ġbr":1403,"Ġsur":1404,"arget":1405,"fore":1406,"Ġorder":1407,"Ġhigh":1408,"by":1409,"ava":1410,"ĠĠĠĠĠĠĠĠĠĠĠĠĠ":1411,"ĠAn":1412,"Refer":1413,"ouse":1414,"Ġparam":1415,"----------------":1416,"Ġterm":1417,"ional":1418,"Ġwhile":1419,"32":1420,"]{":1421,"ases":1422,"ants":1423,"Ġgiven":1424,"ency":1425,"ister":1426,"aj":1427,"Ġcoun":1428,"Ġlead":1429,"Ġbeing":1430,"ccess":1431,"ĠDe":1432,"Ġthree":1433,"ified":1434,"^\\":1435,"new":1436,"data":1437,"Ġfact":1438,"includ":1439,"att":1440,"Ġelse":1441,"uff":1442,"ream":1443,"ĠInd":1444,"Ġfollowing":1445,"Ġlist":1446,"ared":1447,"action":1448,"me":1449,"Ġdirect":1450,"Ġcould":1451,"gram":1452,"delta":1453,"ĠEx":1454,"orth":1455,"ify":1456,"other":1457,"key":1458,"24":1459,"Value":1460,"Ġfam":1461,"Ġsecond":1462,"uary":1463,"Ġdisc":1464,"Col":1465,"figure":1466,"nb":1467,"Ġnow":1468,")}":1469,"Ġart":1470,"ale":1471,"Ġbecause":1472,"ger":1473,"way":1474,"...":1475,"ense":1476,"co":1477,"ather":1478,"Ġdet":1479,"ott":1480,"Data":1481,"Ġsing":1482,"itions":1483,"bers":1484,"irc":1485,"value":1486,"leq":1487,"Ġmy":1488,"arent":1489,"Ġid":1490,"rho":1491,"Ġbel":1492,"ential":1493,"ball":1494,"$-":1495,"Ġsupport":1496,"pend":1497,"ality":1498,"Ġconsider":1499,"Ġbefore":1500,"sy":1501,"Ġevery":1502,"For":1503,"velop":1504,"Ġduring":1505,"Ġmade":1506,"theta":1507,"ĠĠĠĠĠĠĠĠĠĠĠĠĠĠĠĠĠĠĠĠĠĠĠ":1508,"aking":1509,"sec":1510,"ĠCol":1511,"Ġperform":1512,"Ġstring":1513,"struct":1514,"face":1515,"arly":1516,"roll":1517,"cont":1518,"ĠUniversity":1519,"rop":1520,"Ġz":1521,"Ġdevelop":1522,"outh":1523,"ived":1524,"ron":1525,"cdot":1526,"tau":1527,"ele":1528,"ross":1529,"Ġyour":1530,"Ġobject":1531,"ury":1532,"play":1533,"ural":1534,"ector":1535,".âĢĿ":1536,"til":1537,"big":1538,"}(\\":1539,"========":1540,"Ġmed":1541,"Ġread":1542,"\")":1543,"ology":1544,"196":1545,"med":1546,"eqref":1547,"date":1548,"}$,":1549,"Ġimport":1550,"Set":1551,"}$.":1552,"ission":1553,"times":1554,"dis":1555,"af":1556,"nbsp":1557,"Ġ/**":1558,"px":1559,"Ġopt":1560,"Ġexper":1561,"rol":1562,"Ġcontin":1563,"ĠAmerican":1564,"comm":1565,"Ġdoes":1566,"requ":1567,"ting":1568,"ains":1569,"alth":1570,"Ġown":1571,"Ġwrit":1572,"Ġdr":1573,"ively":1574,"led":1575,"ots":1576,"ives":1577,"Ġprocess":1578,"Ġcurrent":1579,"References":1580,"40":1581,"($":1582,"order":1583,"En":1584,"script":1585,"atus":1586,"arrow":1587,"lob":1588,"ulation":1589,"Ġprivate":1590,"file":1591,"ral":1592,"ters":1593,"respon":1594,"raw":1595,"fty":1596,"Ġvery":1597,"SE":1598,"ability":1599,"ĠUnited":1600,"23":1601,"Ġfin":1602,"Ġresp":1603,"Un":1604,"Ġ&&":1605,"ience":1606,"Ġrun":1607,"ĠIs":1608,"arn":1609,"iev":1610,"Ġdescri":1611,"ek":1612,"As":1613,"100":1614,"')":1615,"infty":1616,"test":1617,"ood":1618,"Ġmake":1619,"ĠFr":1620,".\"":1621,"Ġeffect":1622,"Ġmain":1623,"Ġsmall":1624,"Ġmem":1625,"DE":1626,"Exception":1627,"pm":1628,"roid":1629,"mary":1630,"ler":1631,"ually":1632,"arge":1633,"iqu":1634,"];":1635,"Ġbl":1636,"itial":1637,"By":1638,"ane":1639,"Ã©":1640,"ĠIf":1641,"Ġhand":1642,"Ġrele":1643,"Ġkey":1644,"Ġmov":1645,"heck":1646,"reg":1647,"ĠComm":1648,"rror":1649,"istory":1650,"],":1651,"Ġeven":1652,"Ġthose":1653,"CT":1654,"IT":1655,"lp":1656,"aining":1657,"....":1658,"chn":1659,"etwork":1660,"AN":1661,"Ġfind":1662,"ĠAnd":1663,"epend":1664,"nu":1665,"On":1666,"Ġworld":1667,"ĠSc":1668,"size":1669,"Ġsince":1670,"Ġlink":1671,"ected":1672,"mbol":1673,"omega":1674,"quad":1675,"ina":1676,"This":1677,"rix":1678,"uthor":1679,"Ġknow":1680,"Ġlast":1681,"Ġcond":1682,"At":1683,"Ġdid":1684,"time":1685,"tilde":1686,"partial":1687,"Object":1688,"Ġstatic":1689,"Ġu":1690,"Ġbuild":1691,"Ġ%":1692,"Ġarg":1693,"rem":1694,"Ġgu":1695,"day":1696,"inter":1697,"Ġcr":1698,"usic":1699,"ĠLe":1700,"space":1701,"Ġteam":1702,"overnment":1703,"lex":1704,"Ġstruct":1705,"|\\":1706,"oad":1707,"location":1708,"Ġ///":1709,"eters":1710,"Ġexpect":1711,"Ġway":1712,"Ġbeg":1713,"head":1714,"ĠString":1715,"Ġincluding":1716,"Ġpop":1717,"ke":1718,"Ġ!=":1719,"Ġincre":1720,"Ġcommun":1721,"CO":1722,"center":1723,"'t":1724,"Ġresults":1725,"ness":1726,"por":1727,"istr":1728,"ground":1729,"rite":1730,"Ġlocal":1731,"Ġ$(":1732,"Ġpres":1733,"mod":1734,"ohn":1735,"Test":1736,"ME":1737,"ital":1738,"Ġav":1739,"Ġchild":1740,"ior":1741,"ager":1742,"omen":1743,"Cont":1744,"Ġelement":1745,"33":1746,"ĠOn":1747,"Ġprovid":1748,"ober":1749,"Ġpass":1750,"().":1751,"Im":1752,"Ġapp":1753,"Ġfr":1754,"Ġorig":1755,"Ġrepresent":1756,"vert":1757,"Ġbro":1758,"gr":1759,"Ġpresent":1760,"vious":1761,"table":1762,"Ġappe":1763,"Ind":1764,"Get":1765,"sq":1766,"Ġtop":1767,"iness":1768,"Delta":1769,"Ġbo":1770,"top":1771,"aces":1772,"ocument":1773,"els":1774,"Ġrecord":1775,"Ġinformation":1776,"26":1777,"rc":1778,"au":1779,"27":1780,"());":1781,"Ġanal":1782,"umer":1783,"iving":1784,"Ġlaw":1785,"Ġposs":1786,"28":1787,"ĠRes":1788,"load":1789,"ĠĠĊ":1790,"etail":1791,"Ġtitle":1792,"ĠHow":1793,"ĠShe":1794,"2020":1795,"Ġbound":1796,"arm":1797,"Ġobtain":1798,"gor":1799,"Ġallow":1800,"Key":1801,"come":1802,"indow":1803,"color":1804,"de":1805,"reak":1806,"ustr":1807,"Ġopen":1808,"alk":1809,"eqn":1810,"Sh":1811,"Ġmet":1812,"An":1813,"Error":1814,"ĠStates":1815,"xi":1816,"Ġsl":1817,"Ġproble":1818,"orem":1819,"Ġschool":1820,"Ġmeas":1821,"util":1822,"where":1823,"Ġfour":1824,"ĠRe":1825,"less":1826,"index":1827,"pace":1828,"Ġvis":1829,"field":1830,"Ġagainst":1831,"Ġreport":1832,"ĠEng":1833,"ush":1834,"go":1835,"function":1836,"Ġmult":1837,"ĠĠĠĠĊ":1838,"lear":1839,"ĠPh":1840,"Ġevent":1841,"Ġsize":1842,"Ġprogram":1843,"agn":1844,"link":1845,"Ġmust":1846,"Ph":1847,"Ġknown":1848,"search":1849,"Ġref":1850,"rt":1851,"uro":1852,"âĢľ":1853,"enn":1854,"Ġlim":1855,"Class":1856,"ĉĉĉĉĉ":1857,"2016":1858,"ĠPr":1859,"http":1860,"Ġrece":1861,"64":1862,"oss":1863,"list":1864,"ety":1865,",âĢĿ":1866,"Ġdist":1867,"urs":1868,"itive":1869,"mp":1870,"inc":1871,"Ġcharact":1872,"public":1873,"sk":1874,"lected":1875,"Ġreal":1876,"lem":1877,"Ġtem":1878,"\"></":1879,"une":1880,"Ġdistribut":1881,"ven":1882,"nav":1883,"ĠPl":1884,"uration":1885,"arri":1886,"Ġmuch":1887,"url":1888,"ties":1889,"ternational":1890,"Se":1891,"Ġperson":1892,"ervice":1893,"tract":1894,")$.":1895,"Ġtri":1896,"Ġlet":1897,"Ġbased":1898,"._":1899,"ained":1900,"js":1901,"Ġrespect":1902,"}}\\":1903,"ĠčĊ":1904,"Ġleft":1905,"};":1906,"olution":1907,"$$":1908,"opy":1909,"angu":1910,"Ġcour":1911,"idd":1912,"ape":1913,"Ġpar":1914,"2015":1915,"\\,":1916,"29":1917,"2017":1918,"usiness":1919,"Om":1920,"Ġmark":1921,"ĠBr":1922,"['":1923,"\";":1924,"Ġobserv":1925,"ival":1926,"position":1927,"AC":1928,"View":1929,"group":1930,"Ġlife":1931,"bed":1932,"met":1933,"Ġlater":1934,"Ġrefer":1935,"Ġins":1936,"akes":1937,"iter":1938,"illion":1939,"Ġident":1940,"ination":1941,"itor":1942,"Ġlarge":1943,"cale":1944,"ograph":1945,"Ġvalues":1946,"Ġfile":1947,"Ġlevel":1948,"summary":1949,"Requ":1950,"Ġ,":1951,"ploy":1952,"Ġcalled":1953,"epsilon":1954,"ification":1955,"Ġhere":1956,"vir":1957,"energy":1958,"olv":1959,".</":1960,"Ġhelp":1961,"}[":1962,"Ġstand":1963,"tab":1964,"Ġspace":1965,"Ġexpl":1966,"ift":1967,"ird":1968,"ope":1969,"ĠMay":1970,"].":1971,"bs":1972,"pp":1973,"sim":1974,"2018":1975,"ĠAd":1976,"Ġdown":1977,"Ġfilm":1978,"adi":1979,"Ġcare":1980,"ĠOr":1981,"Ġaut":1982,"Omega":1983,"bo":1984,"ats":1985,"ised":1986,"ĠâĢĶ":1987,"Ġexp":1988,"Ġhead":1989,"ley":1990,"ormal":1991,"urther":1992,"cm":1993,"ĠAss":1994,"duct":1995,"acy":1996,"Al":1997,"Ġdesign":1998,"respond":1999,"Ġpower":2000,"2014":2001,"LL":2002,"ately":2003,"RO":2004,"Ġbook":2005,"Ġfamily":2006,"');":2007,"ourn":2008,"lobal":2009,"urch":2010,"45":2011,"off":2012,"Ġgeneral":2013,"}_{\\":2014,"ends":2015,"Int":2016,"ĠJohn":2017,"box":2018,"Ġstill":2019,"Ġsever":2020,"60":2021,"ension":2022,"itional":2023,"see":2024,"Ġerror":2025,"(),":2026,"Ġwithin":2027,"aster":2028,"Re":2029,"Ġaround":2030,"!--":2031,"2019":2032,"path":2033,"Ġorgan":2034,"wh":2035,"Ġproject":2036,"ĠMar":2037,"tribute":2038,"iod":2039,"ources":2040,"\":":2041,"Ġmass":2042,"Ġtake":2043,"Ġiss":2044,"ĠJan":2045,"bl":2046,"../../../../":2047,"fil":2048,"ene":2049,"const":2050,"IC":2051,"unc":2052,"fin":2053,"File":2054,"ION":2055,"ched":2056,"ajor":2057,"Ġwant":2058,"Ġexample":2059,"Ġprot":2060,"TE":2061,"ĠNational":2062,"psi":2063,"node":2064,"']":2065,"\".":2066,"Ġnext":2067,"Ġgood":2068,"ĠCan":2069,"LA":2070,"ĠAt":2071,"uck":2072,"ampl":2073,"uffer":2074,"^*":2075,"Ġocc":2076,"ison":2077,"Ġlook":2078,"Ġinterest":2079,"lim":2080,"Ġseries":2081,"ording":2082,"195":2083,"oper":2084,"ators":2085,"odes":2086,"ackage":2087,"Ġcap":2088,"ertain":2089,"Ġpolit":2090,"rist":2091,"raphics":2092,"no":2093,"ĠCent":2094,"PE":2095,"ĠWh":2096,"iction":2097,"Ġplace":2098,"bum":2099,"ai":2100,"Ġdi":2101,"omet":2102,"Ġmap":2103,"2013":2104,"Time":2105,"ports":2106,"Ġtyp":2107,"ĠYork":2108,"ances":2109,"He":2110,"aving":2111,"ths":2112,"ĠFig":2113,"sl":2114,"Ġassum":2115,"ĠThey":2116,")$,":2117,"plication":2118,"mat":2119,"Ġleg":2120,"ootball":2121,"ĠWorld":2122,"ocial":2123,"ocus":2124,"Ġgovernment":2125,"but":2126,"ords":2127,"Qu":2128,"user":2129,"aim":2130,"Ġdem":2131,"Ġview":2132,"Ġpat":2133,"uction":2134,"psilon":2135,"Ġ/>":2136,"ounty":2137,"Ġann":2138,"ĠYou":2139,"Ġoffic":2140,"With":2141,"ession":2142,"Ġsingle":2143,"Ġtext":2144,"des":2145,"map":2146,"Ġestabl":2147,"Gamma":2148,"with":2149,"uly":2150,"35":2151,"empt":2152,"2012":2153,"ĠSp":2154,"ump":2155,"capt":2156,"2010":2157,"80":2158,"eqnarray":2159,"ĠBut":2160,"rodu":2161,"Ġrequest":2162,"ĠFe":2163,"Ġenergy":2164,"Ġstat":2165,"Man":2166,"ĠAll":2167,"Ġthink":2168,"Ġtarget":2169,"Ġpost":2170,"aint":2171,"Def":2172,"âĢĶ":2173,"https":2174,"ogle":2175,"Ġtechn":2176,"Node":2177,"posed":2178,"icy":2179,"quot":2180,"Âł":2181,"Ġwithout":2182,"Ġsum":2183,"perties":2184,"Ġassert":2185,"Ġparticular":2186,"aper":2187,"uman":2188,"ivity":2189,"Request":2190,"Ġlinks":2191,"ugg":2192,"ait":2193,"////////":2194,"ended":2195,"ilar":2196,"cription":2197,"2011":2198,"State":2199,"imate":2200,"ero":2201,"max":2202,"sqrt":2203,"Ġdue":2204,"Ġcal":2205,"Ġbeh":2206,"Ġthrow":2207,"ĠBl":2208,"Ġ);":2209,"sw":2210,"Ġmax":2211,"ĠGr":2212,"Ġinteg":2213,"Ġadv":2214,"AP":2215,"ians":2216,"anguage":2217,"ĠNov":2218,"Add":2219,"Not":2220,"comp":2221,"Ġabove":2222,"Ġcorrespond":2223,"Ġdon":2224,"Ġseason":2225,"TR":2226,"Ġsuccess":2227,"leg":2228,"Ġ?":2229,"conom":2230,"Event":2231,"amed":2232,"Text":2233,"Ġlog":2234,"/*":2235,"vare":2236,"Ġbest":2237,"rel":2238,"ij":2239,"ules":2240,"olean":2241,"Ġplayers":2242,"``":2243,"':":2244,"length":2245,"Equ":2246,"ĠUS":2247,"Ġinvest":2248,"Ġtot":2249,"Ġchang":2250,"Ġinitial":2251,"Ġpath":2252,"\\\\\\\\":2253,"ches":2254,"Ġ-->":2255,"ailable":2256,"Ġsection":2257,"plit":2258,"Ġoriginal":2259,"Ġuntil":2260,"Element":2261,"dt":2262,"Ġdepend":2263,"Ġbas":2264,"icle":2265,"urity":2266,"ague":2267,"Ġnear":2268,"ustom":2269,"ĠWar":2270,"ĠMan":2271,"ored":2272,"caption":2273,"=\"+":2274,"194":2275,"ibr":2276,"Ġelect":2277,"varepsilon":2278,"ĠHowever":2279,"textbf":2280,"Info":2281,"subsection":2282,"Ġalong":2283,"model":2284,"Ġseveral":2285,"style":2286,"hes":2287,"wards":2288,"Pl":2289,"Ġ${\\":2290,"ixed":2291,"ĠCar":2292,"^{(":2293,"Ġmeasure":2294,"Ġmusic":2295,"uf":2296,"Field":2297,"bold":2298,"Ġsay":2299,"Ġday":2300,"ĠState":2301,"Or":2302,"/**":2303,"ued":2304,"Ġexist":2305,"Ġgame":2306,"ony":2307,"Ġnetwork":2308,"}^{\\":2309,"ensure":2310,"Ġden":2311,"imal":2312,"ways":2313,"())":2314,"Ġhtt":2315,"Ġlarg":2316,"Ġanother":2317,"ium":2318,"Ġarea":2319,"Path":2320,"90":2321,"my":2322,"Param":2323,"Ġold":2324,"ret":2325,"point":2326,"urope":2327,"ped":2328,"External":2329,"result":2330,"34":2331,"},\\":2332,"Ġaff":2333,"nder":2334,"Ġsat":2335,"sup":2336,"Ġcontent":2337,"pression":2338,"Ġdel":2339,"Item":2340,"Ġdefined":2341,"ĠGe":2342,"Over":2343,"}=":2344,"Ġversion":2345,"Ġarray":2346,"Ġchange":2347,"All":2348,"uk":2349,"ĠOct":2350,"vers":2351,"stit":2352,"stance":2353,"inition":2354,"ĠAug":2355,"Map":2356,"gorith":2357,"aut":2358,"error":2359,"eff":2360,"Config":2361,")=":2362,"aterial":2363,"Context":2364,"www":2365,"iam":2366,"Index":2367,"non":2368,"ĠMarch":2369,"viron":2370,"Ġcharacter":2371,"ride":2372,"IS":2373,"atures":2374,"plement":2375,"Ġdom":2376,"ique":2377,"Ġcomput":2378,"chi":2379,"ĠSchool":2380,"Form":2381,"Ġconstr":2382,"true":2383,"eral":2384,"Ġclos":2385,"Ġdeterm":2386,"from":2387,"ĠPol":2388,"symbol":2389,"ament":2390,"mber":2391,"egraphics":2392,"ĠTo":2393,"includegraphics":2394,"ptember":2395,"Ġhold":2396,"emph":2397,"AS":2398,"Des":2399,"Ġinclude":2400,"Ġimportant":2401,"Ġinput":2402,"stand":2403,"Vert":2404,"ĠBrit":2405,"Ġblock":2406,"input":2407,"config":2408,"ĠMin":2409,"Ġbusiness":2410,"ateg":2411,"2009":2412,"ention":2413,"body":2414,"bm":2415,"Ġprevious":2416,"FF":2417,"rangle":2418,"void":2419,"UR":2420,"Ġhome":2421,"Ġnode":2422,"75":2423,"aus":2424,"Ġassoci":2425,"Ġalbum":2426,"Ġbecame":2427,"next":2428,"amespace":2429,"Ġ:=":2430,"Ġspe":2431,"ayer":2432,"2008":2433,"Ġwon":2434,"Ġtry":2435,"Ġproblem":2436,"99":2437,"ilit":2438,"''":2439,"icon":2440,"Ġcheck":2441,"31":2442,"ĠSouth":2443,"pril":2444,"ially":2445,"ither":2446,"pose":2447,"ui":2448,"ware":2449,"lege":2450,"Ġredu":2451,"Ġcrit":2452,"ĠJanuary":2453,"ĠĠĠĠĠĠĠĠĠĠĠĠĠĠĠĠĠĠĠĠĠĠĠĠĠĠĠ":2454,"fess":2455,"Ġdeath":2456,"hold":2457,"side":2458,"Ġdefault":2459,"atter":2460,"ags":2461,"De":2462,"01":2463,"api":2464,"Ġmembers":2465,"arr":2466,"bit":2467,"ĠReg":2468,"Service":2469,"state":2470,"varphi":2471,"ĠEn":2472,"oman":2473,"Ġperiod":2474,"Ġprob":2475,"ysis":2476,"Ġet":2477,"Ġposition":2478,"Ġstyle":2479,"Array":2480,"Ġaction":2481,"ponent":2482,"ĠNo":2483,"refore":2484,"ayout":2485,"Ġtotal":2486,"ĠGerm":2487,"Ġ\\,":2488,"ynam":2489,"idual":2490,"Ġstudy":2491,"istor":2492,"istic":2493,"Ġhig":2494,"ux":2495,"Ġservice":2496,"ĠBe":2497,"Ġcur":2498,"####":2499,"Ġ/*":2500,"36":2501,"ouble":2502,"Ġfail":2503,"Ġfull":2504,"Ġsong":2505,"cor":2506,"Ġ(!":2507,"****************":2508,"Ġsk":2509,"Ġmajor":2510,"proof":2511,"ĠEurope":2512,"ĠThere":2513,"apache":2514,"Ġauthor":2515,"Ġenc":2516,"ables":2517,"rightarrow":2518,"Ġsimilar":2519,"Ġuser":2520,"down":2521,"Is":2522,"cember":2523,"TH":2524,"Ġmean":2525,"block":2526,"Ġpubl":2527,"ands":2528,"Ġdev":2529,"Ġgreat":2530,"ĠJune":2531,"08":2532,"AD":2533,")(":2534,"object":2535,"Ġshort":2536,"cer":2537,"Ġterms":2538,"Ġrequire":2539,"Ġpossible":2540,"ĠSeptember":2541,"ependent":2542,"Code":2543,"enu":2544,".~\\":2545,"ĠCal":2546,"version":2547,"nection":2548,"Ġfew":2549,"ĠAugust":2550,"Ġeng":2551,"Ġcar":2552,"Ġcreate":2553,"Ġbase":2554,"';":2555,"Ġearly":2556,"ĠCounty":2557,"imum":2558,"Result":2559,"ica":2560,"ĠJuly":2561,"aff":2562,"LO":2563,"Ġdiscuss":2564,"geq":2565,"ilt":2566,"ustral":2567,"Ġ});":2568,"Ġweek":2569,"ling":2570,"iment":2571,"39":2572,"Ġide":2573,"Ġcode":2574,"Ġcontext":2575,"\"\"":2576,"lin":2577,"ides":2578,"evel":2579,"aced":2580,"ume":2581,"37":2582,"Ġproduct":2583,"rep":2584,"uture":2585,"loat":2586,"ights":2587,"prov":2588,"ĠOctober":2589,"ready":2590,"ĠCo":2591,"Ġproperty":2592,"ĠTe":2593,"Ġlow":2594,"Ġshown":2595,"ML":2596,"Ġcover":2597,"Ġke":2598,"Ġsource":2599,"ideo":2600,"ender":2601,"Ġcompany":2602,"Ġpoints":2603,"ĠApril":2604,"Fil":2605,"Ġgrow":2606,"Ġcho":2607,"[]":2608,"Ġ($":2609,"andom":2610,"bt":2611,"Ġes":2612,"Ġbu":2613,"MP":2614,"2007":2615,"Build":2616,"Ġless":2617,"Ġwomen":2618,"Ġdiv":2619,"38":2620,"eturn":2621,"wit":2622,"alf":2623,"overline":2624,"&\\":2625,"New":2626,"title":2627,"ĠBy":2628,"Ġaccess":2629,"++":2630,"sequ":2631,"Ġdeg":2632,"IG":2633,"Ġpot":2634,"Of":2635,"ĠGu":2636,"Ġturn":2637,"mm":2638,"Ġ__":2639,"dom":2640,"Ġshows":2641,"Ġcomplet":2642,"Ġtimes":2643,"uments":2644,"call":2645,"ensity":2646,"Ġ},":2647,"Ġcity":2648,"ards":2649,"Ġrange":2650,"Ġprom":2651,"Ġspect":2652,"vironment":2653,"Ġquant":2654,"Ġstrong":2655,"Size":2656,"ĠAct":2657,"Ġfollows":2658,"ottom":2659,"ĠSystem":2660,"Ġhistory":2661,"ĠPar":2662,"Ġavailable":2663,"ED":2664,"05":2665,"Ġstates":2666,"Big":2667,"Ġfore":2668,"ought":2669,"word":2670,"ĠChrist":2671,"Ġwin":2672,"Ġhealth":2673,"abled":2674,"Ġcompon":2675,"ĠâĢĺ":2676,"Ġla":2677,"Ġcontrol":2678,"cast":2679,"tra":2680,"Ġcountry":2681,"semb":2682,"lete":2683,"plate":2684,"AB":2685,"Ġchildren":2686,"ĠSup":2687,"ync":2688,"oin":2689,"Ġbreak":2690,"ĠDecember":2691,"Ġvol":2692,"vec":2693,"urg":2694,"ĠNovember":2695,"Ġder":2696,"ĠMed":2697,"Ġmodels":2698,"assert":2699,"If":2700,"=\"../../../../":2701,"ze":2702,"annel":2703,"Ġinstance":2704,"ING":2705,"ĠAp":2706,"osp":2707,"Ġquest":2708,"ales":2709,"Ġformer":2710,"Ġfootball":2711,"frak":2712,"Ġdetail":2713,"gress":2714,"2006":2715,"Ġindex":2716,"igned":2717,".}":2718,"cher":2719,"cul":2720,"Ġmillion":2721,"ĠRep":2722,"lang":2723,"df":2724,"ĠCity":2725,"ES":2726,"ories":2727,"Trans":2728,"uation":2729,"ada":2730,"aged":2731,"iple":2732,"Ġrest":2733,"Ġcomb":2734,"Let":2735,"='":2736,"isf":2737,"earch":2738,"Ġconf":2739,"inary":2740,"ecut":2741,"Ġaddress":2742,"wid":2743,"[\\":2744,"Ġsit":2745,"CH":2746,"Ġintrodu":2747,"Ġpo":2748,"66":2749,"Ġconfig":2750,"Ġrole":2751,"Message":2752,"ves":2753,"ĠNorth":2754,"hern":2755,"}).":2756,"clus":2757,"md":2758,"Ġbir":2759,"Hand":2760,"arning":2761,"iff":2762,"From":2763,"Ġgoing":2764,"Comm":2765,"Dis":2766,"Ġmember":2767,"boldsymbol":2768,"ĠPres":2769,"ems":2770,"ĠEd":2771,"Ġstructure":2772,"Ġrecent":2773,">&":2774,"ising":2775,"ĠSo":2776,"reen":2777,"Ġfree":2778,"lish":2779,"default":2780,"ably":2781,"Ġeas":2782,"II":2783,"ering":2784,"ibility":2785,"orph":2786,"Ġcorre":2787,"ks":2788,"UT":2789,"Ġfund":2790,"java":2791,"Ġside":2792,"Ser":2793,"Ġparameters":2794,"ĠPart":2795,"ĠFl":2796,"Ġeduc":2797,"raft":2798,"pen":2799,"create":2800,"lient":2801,"ken":2802,"Ġland":2803,"though":2804,"ung":2805,"bruary":2806,"Val":2807,"Ġsignific":2808,"Ġresearch":2809,"Ġleast":2810,"Ġimage":2811,"amples":2812,"lt":2813,"ients":2814,")^":2815,"Ġq":2816,"Ġregion":2817,"mathfrak":2818,"ĠAb":2819,"ĠWill":2820,"ae":2821,"Ġpred":2822,"Ġjava":2823,"ude":2824,"ĠDr":2825,"rior":2826,"âĢ¦":2827,"info":2828,"define":2829,"Loc":2830,"55":2831,"And":2832,"Model":2833,"Ġindiv":2834,"gt":2835,"lev":2836,"agement":2837,"Ġdat":2838,"ĠAustral":2839,"Ġfurther":2840,"onse":2841,"ection":2842,"Ġbackground":2843,"now":2844,"icient":2845,"cap":2846,"MA":2847,"aken":2848,"tings":2849,"Ġspecial":2850,"iol":2851,"}}$":2852,"content":2853,"Pr":2854,"70":2855,"abla":2856,"Ġresponse":2857,"Ġimp":2858,";&":2859,"Ġphot":2860,"Out":2861,"ldots":2862,"Color":2863,"Ġfac":2864,"gorithm":2865,"Ġput":2866,"hline":2867,"Ġsom":2868,",\"":2869,"idence":2870,"tes":2871,"Ġsuper":2872,"Ġpract":2873,"Ġdistribution":2874,"Ġprovide":2875,"ĠÂ":2876,"48":2877,"mult":2878,"ĠBo":2879,"Ġphys":2880,"refer":2881,"Ġsrc":2882,"ham":2883,"Ġpotential":2884,"ii":2885,"Ġlimit":2886,"include":2887,"Ġnational":2888,"nabla":2889,"ittle":2890,"Lambda":2891,"ĠGet":2892,"ges":2893,"ĠCor":2894,"Ġaver":2895,"roller":2896,"Ġalready":2897,"Inter":2898,"ological":2899,"Ġlength":2900,"Ġcompet":2901,"Ġclaim":2902,"Ġindu":2903,"ET":2904,"Ġeconom":2905,"nect":2906,"Ġaccount":2907,"Manager":2908,"langle":2909,"Ġcost":2910,"eneral":2911,"ending":2912,"Ġcolor":2913,"si":2914,"Ġalways":2915,"Ġrelations":2916,"Ġindic":2917,"base":2918,"ĠÐ":2919,"2021":2920,"Ġamong":2921,"Ġdocument":2922,"Ġemploy":2923,"ĠMc":2924,"ino":2925,"Ġrequired":2926,"Ġfocus":2927,"start":2928,"Ġcommunity":2929,"imation":2930,"Ġsocial":2931,"Ġindividual":2932,"Ġcases":2933,"2000":2934,"Ġhapp":2935,"ĠSec":2936,"Fr":2937,"Ġdescribed":2938,"Ġoften":2939,"Ġexpected":2940,"Ġ===":2941,"Log":2942,"ently":2943,"adem":2944,"wide":2945,"ĠĠĠĠĠĠĠĠĠĠĠĠ":2946,"ĠThen":2947,"ours":2948,"Ġsequ":2949,"ersion":2950,"android":2951,"ĠFebruary":2952,"Call":2953,"ponse":2954,"Ġconc":2955,"appa":2956,"UN":2957,"Ġcommon":2958,"Up":2959,"Ad":2960,"check":2961,"Table":2962,"TD":2963,"Ġbecome":2964,"Ġnever":2965,"Ġinvolv":2966,"ington":2967,"Reg":2968,"irt":2969,"sf":2970,"ĠThese":2971,"Ġparameter":2972,"Ġsuff":2973,"imens":2974,"Ġparent":2975,"oud":2976,"Ġmatch":2977,"ecess":2978,"abor":2979,"Ġcoll":2980,"reed":2981,"Ġmeans":2982,"rec":2983,"Ġcontribut":2984,"2005":2985,".\\":2986,"utions":2987,"IP":2988,"Ġreleased":2989,"Ġdiff":2990,"draw":2991,"ymmet":2992,"Ġsec":2993,"ogn":2994,"Ġplayed":2995,"--------------------------------":2996,"Ap":2997,"eed":2998,"urb":2999,"Ġsatisf":3000,"44":3001,"Ġbetter":3002,"rew":3003,"ĠĠĠĠĠĠĠĠĠĠ":3004,"ements":3005,"Ġhuman":3006,"Ġreceived":3007,"US":3008,"css":3009,"Ġdevelopment":3010,"Ġcomplex":3011,"false":3012,"02":3013,"tainer":3014,"ĠAfr":3015,"Ġcell":3016,"Ġfunctions":3017,"ENT":3018,"circ":3019,"using":3020,"Ġpay":3021,"ops":3022,"System":3023,"Ġret":3024,"asing":3025,"CC":3026,"Ġeither":3027,"Ġcou":3028,"anel":3029,"ones":3030,"ĠBritish":3031,"ana":3032,"Ġperformance":3033,"But":3034,"cy":3035,"ĠHis":3036,"Ġrepl":3037,"Ġfive":3038,"ĠList":3039,"doc":3040,"bug":3041,"cil":3042,"Ġreally":3043,"etic":3044,"prot":3045,"Ġtoo":3046,"ĉĉĉĉĉĉ":3047,"Ð°":3048,"Ġband":3049,"ided":3050,"Ġsy":3051,"Rec":3052,"Ġsignificant":3053,"Ġtook":3054,"ration":3055,"anch":3056,"Ġapprox":3057,"ĠAfter":3058,"Ġant":3059,"ampions":3060,"ief":3061,"Ġ};":3062,"Ġevents":3063,"Ġmight":3064,"~~":3065,"apan":3066,"valid":3067,"ULL":3068,"ĠAg":3069,"ptions":3070,"Ġoutput":3071,"itted":3072,"most":3073,"Ġnil":3074,"subset":3075,"})$":3076,"ĠWhen":3077,"igation":3078,"citep":3079,"ĠSer":3080,"}),":3081,"================":3082,"ifier":3083,"ĠCoun":3084,"ached":3085,"ĠKing":3086,"=\"#":3087,"Group":3088,"Ġwhether":3089,"Ġstory":3090,"Ġgrad":3091,"User":3092,"ĠIm":3093,"\\|":3094,";</":3095,"Phi":3096,"Ġtable":3097,"Client":3098,"Ġ()":3099,"Ġwidth":3100,"Ġmot":3101,"ĠDep":3102,"07":3103,"Ġrate":3104,"ered":3105,"context":3106,"Ġplan":3107,"Ġlabel":3108,"ĠComp":3109,"pty":3110,"ĠLet":3111,"yd":3112,"Ġmom":3113,"ography":3114,"=\"../":3115,"Ġneg":3116,"Ġpaper":3117,"Ġthird":3118,"gether":3119,"DO":3120,"Ġtogether":3121,"reate":3122,"ĠCO":3123,"kappa":3124,"ĠRuss":3125,"Ġvert":3126,"Ġhard":3127,"Ġhaving":3128,"aul":3129,"Ġabs":3130,"Ġcareer":3131,"Ġapproach":3132,"ring":3133,"Ġcamp":3134,"cit":3135,"Ġfeature":3136,"kn":3137,"2004":3138,"ĠWest":3139,"Ġlight":3140,"Ġprovided":3141,"reet":3142,"Ġheld":3143,"method":3144,"Ġable":3145,"Ġep":3146,"Ġmessage":3147,"Ġoptions":3148,"ĉĊ":3149,"Ġgraph":3150,"oken":3151,"04":3152,"cell":3153,"Ġperm":3154,"Ġage":3155,"Ð¾":3156,"Ġmagn":3157,"core":3158,"09":3159,"adio":3160,"](":3161,"Ġconditions":3162,"alt":3163,"Ġsepar":3164,"argin":3165,"ithub":3166,"Ġsystems":3167,"package":3168,"Ġmatrix":3169,"aps":3170,"Ġacross":3171,"Ġcult":3172,"era":3173,"static":3174,"Ġtrack":3175,"otimes":3176,"Ġhost":3177,"Ġ``":3178,"Ġworking":3179,"Ġsix":3180,"Sub":3181,"Ġstudents":3182,"umb":3183,"Method":3184,"mark":3185,"aring":3186,"ĠWith":3187,"ĠOne":3188,"Ġconstant":3189,"Ġpopulation":3190,"ught":3191,"icro":3192,"Fl":3193,"count":3194,"ĠOff":3195,"print":3196,"Ġseen":3197,"Mod":3198,"........":3199,"uggest":3200,"ĠMe":3201,"Arg":3202,"db":3203,"Ġfar":3204,"idge":3205,"cle":3206,"Ġlik":3207,"ĠPresident":3208,"Ġsm":3209,"ĠEl":3210,"Property":3211,"Ġconsidered":3212,"Ġanalysis":3213,"google":3214,"Ġcirc":3215,"Ġgl":3216,"Ġcome":3217,"foot":3218,"ĠArt":3219,"Ġsolution":3220,"Ġarr":3221,"Ġobtained":3222,"iven":3223,"06":3224,"ilities":3225,"OT":3226,"Ġbegan":3227,"ilitary":3228,"Ġyoung":3229,"ĠRec":3230,"Ġhouse":3231,"IR":3232,"Ġtask":3233,"icense":3234,"book":3235,"Ġvarious":3236,"oph":3237,"flu":3238,"Ġred":3239,"Ġborder":3240,"|-":3241,"Ġcount":3242,"Ã¡":3243,"Ġtheory":3244,"ework":3245,"ĠQu":3246,"Ġlower":3247,"ĠArm":3248,"ategory":3249,"ged":3250,"ĠSet":3251,"build":3252,"lying":3253,"na":3254,"web":3255,"rest":3256,"Ġbool":3257,"atural":3258,"Ġwater":3259,"Ġimplement":3260,"Ġsent":3261,"mit":3262,"wise":3263,"Query":3264,"ns":3265,"Ġfuture":3266,"Ġglobal":3267,"Ġstd":3268,"Ass":3269,"Ġprim":3270,"0000":3271,"ocr":3272,"Read":3273,"Ġwritten":3274,"aves":3275,"ename":3276,"actory":3277,"ieve":3278,"ministr":3279,"dev":3280,"creen":3281,"ĠThat":3282,"Ġcertain":3283,"Ġwar":3284,"IL":3285,"ething":3286,"ceed":3287,"net":3288,"Ġgive":3289,"ournal":3290,"Ġport":3291,"Ġvalid":3292,"plied":3293,"hand":3294,"textit":3295,"Ġattack":3296,"ster":3297,"Sigma":3298,"ĠHouse":3299,"Ġsays":3300,"ondon":3301,"Ġbi":3302,"init":3303,"rench":3304,"See":3305,"Ġdays":3306,"Ġtraining":3307,"65":3308,"ociety":3309,"Ġcondition":3310,"Ġpublished":3311,"Response":3312,"Ġbuilding":3313,"/\\":3314,">(":3315,"Ġcreated":3316,"github":3317,"Ġbig":3318,"Ġfri":3319,"Ġarch":3320,"ĠCour":3321,"ured":3322,"Ġhigher":3323,"ensuremath":3324,"do":3325,"Ġhom":3326,"light":3327,"parent":3328,"ference":3329,"ips":3330,"Ġnamed":3331,"cho":3332,"Override":3333,"oke":3334,"bor":3335,"Ġhowever":3336,"ĠDef":3337,"Ðµ":3338,"SP":3339,"exp":3340,"Str":3341,"uster":3342,"Be":3343,"Ġmethods":3344,"yl":3345,"CE":3346,"Ġincluded":3347,"Ġgot":3348,"Ġtrad":3349,"ican":3350,"irm":3351,"Ġdone":3352,"dl":3353,"Ġaddition":3354,"Ġbelow":3355,"Ġmen":3356,"thing":3357,"Ġservices":3358,"Ġreason":3359,"Ġjob":3360,"NA":3361,"Ġbegin":3362,"\\%":3363,"Bar":3364,"small":3365,"49":3366,"medi":3367,"ille":3368,"hib":3369,"ply":3370,"Ġworks":3371,"Ġpair":3372,"ĠDav":3373,"ĠCollege":3374,"ĠĠĠĠĠĠĠĠĠĠĠĠĠĠĠĠĠĠĠĠĠĠĠĠĠĠĠĠĠĠĠ":3375,"Ġelements":3376,"Ġgroups":3377,"Ġtown":3378,"Count":3379,"Ġclose":3380,"based":3381,"iet":3382,"ĠDis":3383,"onal":3384,"Ġmaking":3385,"Ġassociated":3386,"ĠEnglish":3387,"Ġcross":3388,"Ġblack":3389,"que":3390,"Ġnum":3391,"iddle":3392,")</":3393,"Ġmeet":3394,"Builder":3395,"ĠMon":3396,"Ġge":3397,"ĠDes":3398,"option":3399,"<!--":3400,"Ġair":3401,"Ġproperties":3402,"ĠAm":3403,"Ġaverage":3404,"EE":3405,"null":3406,"Ġandroid":3407,"mbox":3408,"ĠChar":3409,"uit":3410,"Ġbody":3411,"Ġben":3412,"Ġpolitical":3413,"event":3414,"End":3415,"aries":3416,"ls":3417,"Ġsche":3418,"ĠBar":3419,"Ġconstruct":3420,"Stream":3421,"\\[":3422,"Ġcame":3423,"xy":3424,"born":3425,"Ed":3426,"Ġdensity":3427,"Ġra":3428,"Ġstandard":3429,"artment":3430,"ĠLeague":3431,"Ġestablished":3432,"}}{":3433,"Ġreview":3434,"nonumber":3435,"aly":3436,"((":3437,"illed":3438,"ordin":3439,"Sc":3440,"dir":3441,"run":3442,"Ġach":3443,"Ġnormal":3444,"irection":3445,"ibrary":3446,"47":3447,"Ġthings":3448,"ĠAmerica":3449,"Ġcorresponding":3450,"){":3451,"image":3452,"Ġmaterial":3453,"Ġbuilt":3454,"Ġconsist":3455,"Ġinternational":3456,"Ġestim":3457,"namespace":3458,"ĠSch":3459,"avel":3460,"Ġclear":3461,"ĠJapan":3462,"Ġshall":3463,"Ġtaken":3464,"Ġtre":3465,"03":3466,"MS":3467,"Ġsuggest":3468,"height":3469,"ese":3470,"Ġcalcul":3471,"Ġmer":3472,"Ġconv":3473,"Ġannoun":3474,"Ġlanguage":3475,"izing":3476,"Ġgames":3477,"dots":3478,"active":3479,"current":3480,"Ġscal":3481,"prop":3482,"Sp":3483,"No":3484,"])":3485,"bra":3486,"ĠII":3487,"Ġnecess":3488,"ivil":3489,"Ġsubject":3490,"ĠPark":3491,"95":3492,"ills":3493,"Ġsite":3494,"ership":3495,"Ġpast":3496,"2001":3497,"ĠInternational":3498,"2003":3499,"tem":3500,"ĠCont":3501,"widet":3502,"ĠTest":3503,"year":3504,"ĠLondon":3505,"undle":3506,"Ġunderstand":3507,"Ġkind":3508,"options":3509,"tries":3510,"Ġpositive":3511,"ĠAdd":3512,"Ġfeatures":3513,"Ġstep":3514,"sing":3515,"Ġcompos":3516,"Ġpur":3517,"plies":3518,"Ġrespectively":3519,"ires":3520,"Date":3521,"Ġvia":3522,"NS":3523,"ĠPe":3524,"ĠRev":3525,"Ġdecl":3526,"Ġappear":3527,"Ġear":3528,"AA":3529,"Ġcolumn":3530,"Americ":3531,"Ġask":3532,"Ġtw":3533,"PI":3534,"arried":3535,"ĉĉĉĉĉĉĉĉ":3536,"mail":3537,"duc":3538,"Ġsem":3539,"itte":3540,"ama":3541,"Ġlo":3542,"client":3543,"ford":3544,"Ġprofess":3545,"Ġlocated":3546,"Fig":3547,"Ġloss":3548,"Ġhttp":3549,"Util":3550,"Ġoffer":3551,"Ġothers":3552,"88":3553,"pol":3554,"efore":3555,"known":3556,"Ġsomething":3557,"Ġspecific":3558,"ĠInt":3559,"Ġfrequ":3560,"unic":3561,"Ġviol":3562,"query":3563,"ĠĠĠĠĠĠĠĠĠĠĠĠĠĠĠĠĠ":3564,"ensor":3565,"widetilde":3566,"ampionship":3567,"{-":3568,"Ġfilms":3569,"ulations":3570,"Input":3571,"change":3572,"ĠBro":3573,"bb":3574,"Ġmarket":3575,"ĠSection":3576,"estern":3577,"Ġsurv":3578,"Ġaccording":3579,"Ġindependent":3580,"flow":3581,"Ġproof":3582,"isk":3583,"Ġstarted":3584,"67":3585,"ĠWilliam":3586,"Ġequation":3587,"member":3588,"Ġpage":3589,"Ġrandom":3590,"php":3591,"ĠHigh":3592,"ĠAng":3593,"func":3594,"Image":3595,"prime":3596,"Ġcommand":3597,"Ġhalf":3598,"case":3599,"Ġemb":3600,"Ġrelated":3601,"abase":3602,"2002":3603,"ises":3604,"Ġcaus":3605,"Ġenvironment":3606,"server":3607,"HE":3608,"Ġactiv":3609,"Act":3610,"atform":3611,"trict":3612,"dr":3613,"Ġbehav":3614,"Ġonce":3615,"hood":3616,"Ġexpress":3617,"ula":3618,"Ġwrite":3619,"Ġbecom":3620,"Ġgen":3621,"Ġcentury":3622,"Ġphase":3623,"Ġmove":3624,"ishing":3625,"Ġrights":3626,"utes":3627,"OS":3628,"Ġlines":3629,"verse":3630,"Ġlittle":3631,"Ġmedia":3632,"thm":3633,"gen":3634,"\\!":3635,"iforn":3636,"ids":3637,"has":3638,"ĠHar":3639,"Ġnumer":3640,"Ġground":3641,"Ġpress":3642,"Status":3643,"aging":3644,"acing":3645,"tx":3646,"ONT":3647,"Ġamount":3648,"Ġcannot":3649,"Ġche":3650,"Ġthus":3651,"Ġregular":3652,"Ġcle":3653,"display":3654,"ederal":3655,"ĠPer":3656,"}-":3657,"spec":3658,"Ġrow":3659,"FA":3660,"Ġlot":3661,"Ġofficial":3662,"Ġcontinu":3663,"ĠTrans":3664,"ĠClass":3665,"Ġill":3666,"Ġserved":3667,"oted":3668,"Ġkeep":3669,"unity":3670,"Ġthough":3671,"istry":3672,"centering":3673,"request":3674,"Ġaway":3675,"ĠAir":3676,"eline":3677,"ĠLa":3678,"Ġvector":3679,"under":3680,"rup":3681,"Block":3682,"Ġang":3683,"Ġboolean":3684,"lections":3685,"Ġalign":3686,"Ġclub":3687,"\\]":3688,"Ġtreat":3689,"Ġmiss":3690,"attle":3691,"emma":3692,"chan":3693,"pc":3694,"ifornia":3695,"Attribute":3696,"ĠMore":3697,"Ġ->":3698,"finished":3699,"orage":3700,"ades":3701,"ĠNot":3702,"yles":3703,"uel":3704,"Off":3705,"Ġdynam":3706,"Ġenough":3707,"Null":3708,"element":3709,"ocol":3710,"ĠĠĠĠĠĠĠĠĠĠĠĠĠĠ":3711,"Ġdate":3712,"Ġhistor":3713,"BC":3714,"Ġrespons":3715,"Ġdefine":3716,"page":3717,"Ġproduction":3718,"which":3719,"ociation":3720,"Ġcontains":3721,"TO":3722,"Ġexists":3723,"Ġdisplay":3724,"Ġwent":3725,"ĠCr":3726,"Ġcy":3727,"vis":3728,"oon":3729,"Ġpolicy":3730,"Ġborn":3731,"({":3732,"Ġparticip":3733,"ĠIr":3734,"85":3735,"rown":3736,"Ġpercent":3737,"Ġwhose":3738,"Pos":3739,"mon":3740,"ĠHer":3741,"Ġlinear":3742,"args":3743,"izer":3744,"atives":3745,"Ġ<<":3746,"ping":3747,"ialog":3748,"Ġquestion":3749,"encies":3750,"Ġcontain":3751,"Ġchanges":3752,"mar":3753,")]":3754,"Ġstation":3755,"actions":3756,"Ð¸":3757,"riter":3758,"ĠLaw":3759,"anies":3760,"child":3761,"Ġtemper":3762,"Ġnov":3763,"ĠSim":3764,"Ġunit":3765,"jav":3766,"Base":3767,"Ġsimple":3768,"ĠVal":3769,"Nav":3770,"\\{":3771,"Ġmoment":3772,"ĠMich":3773,"adding":3774,"atory":3775,"ado":3776,"Ġdest":3777,"ging":3778,"level":3779,"Ġflow":3780,"Ġvideo":3781,"itect":3782,"ries":3783,"ĠCourt":3784,"Ġcourse":3785,"Ġadded":3786,"ĠHam":3787,"Ġplayer":3788,"Resource":3789,"ĠPhil":3790,"Wh":3791,"}+":3792,"ĠTheorem":3793,"Ġeval":3794,"Ġfig":3795,"97":3796,"There":3797,"REF":3798,"Token":3799,"Ġfields":3800,"Action":3801,"target":3802,"zeta":3803,"ĠSince":3804,"Ġadditional":3805,"append":3806,"46":3807,"Ġdegree":3808,"Line":3809,"century":3810,"Ġload":3811,"istrict":3812,"scale":3813,"Ġrecogn":3814,"Ġinstead":3815,"sembly":3816,"American":3817,"wed":3818,"aker":3819,"Sup":3820,"lib":3821,"Ġreported":3822,"ĠStr":3823,"Ġbroad":3824,"ĠNULL":3825,"open":3826,"Ġsearch":3827,"tabular":3828,")=\\":3829,"ĠFrench":3830,"AG":3831,"plicit":3832,"ĠGo":3833,"atal":3834,"eh":3835,"button":3836,"ico":3837,"inst":3838,"ĠEq":3839,"Ġrather":3840,"Ġaccept":3841,"Ġscale":3842,"acity":3843,"avy":3844,"Ġprior":3845,"Ġtax":3846,"Head":3847,"omorph":3848,"\\\\\\\\\\\\\\\\":3849,"GL":3850,"andid":3851,"Ġoperator":3852,"png":3853,"Ġvill":3854,"42":3855,"Ġproposed":3856,"Ġradi":3857,"ĠCalifornia":3858,"skip":3859,"Ġpresident":3860,"Ġcustom":3861,"sm":3862,"Ġled":3863,"Ġcontr":3864,"elling":3865,"ĠAc":3866,"Ġlive":3867,"unfinished":3868,"ĠChina":3869,"orge":3870,"ĠDo":3871,"split":3872,"Instance":3873,"apping":3874,"HT":3875,"UE":3876,"Source":3877,"istics":3878,"Ġattempt":3879,"Ġinf":3880,"Ġprint":3881,"bsite":3882,"icult":3883,"Equal":3884,"arser":3885,"Cell":3886,"ĠAcc":3887,"Comp":3888,"Gr":3889,"Ġchall":3890,"useum":3891,"][":3892,"Ġmulti":3893,"77":3894,"EX":3895,"ĠFirst":3896,"apter":3897,"Ġtalk":3898,"place":3899,"cos":3900,"Component":3901,"Ġalgorithm":3902,"ĠIN":3903,"first":3904,"bottom":3905,".~":3906,"ining":3907,"ĠStud":3908,"}=\\":3909,"Ġstatus":3910,"astic":3911,"Ġliter":3912,"Ġstar":3913,"Ġlearn":3914,"ATE":3915,"Ġlate":3916,"Ġ\"\"\"":3917,"Ġexperience":3918,"Ġentire":3919,"Ġalmost":3920,"select":3921,"Ġbirths":3922,"Options":3923,"Handler":3924,"aches":3925,"Ġexact":3926,"Ġeducation":3927,"Ġdied":3928,"ĠRepublic":3929,"ael":3930,"ship":3931,"igen":3932,"oding":3933,"Ġzero":3934,"ittee":3935,"Ġitem":3936,"long":3937,")^{":3938,"Ã³":3939,"First":3940,"ĠSan":3941,"ites":3942,"YPE":3943,"ĠMy":3944,"inn":3945,"roy":3946,"OD":3947,"Ġinflu":3948,"Run":3949,"Ġapplic":3950,"Gener":3951,"icles":3952,"stream":3953,"json":3954,"Ġ&=":3955,"Ġmultiple":3956,"ugin":3957,"tributes":3958,"Pol":3959,"itting":3960,"ellow":3961,"Buffer":3962,")}\\":3963,"ĠĠĠĠĠĠĠĠĊ":3964,"main":3965,"Ġcontinue":3966,"Pe":3967,"ĠDepartment":3968,"header":3969,".)":3970,"ĠEuropean":3971,"Ġinstall":3972,"Ġengine":3973,"like":3974,"stitute":3975,"irrep":3976,"ĠDistrict":3977,"ledge":3978,"Ġsuccessful":3979,"ĠCenter":3980,"Ġheight":3981,"Ġ+=":3982,"Ġspecies":3983,"Ġwindow":3984,"////////////////":3985,"char":3986,"sg":3987,"Ġsaf":3988,"Ġtoday":3989,"}]":3990,"Oper":3991,"hel":3992,"Part":3993,"Ġdouble":3994,"ĠGerman":3995,"Content":3996,"Ġfeel":3997,"Ġmakes":3998,"module":3999,"Ġfinite":4000,"idden":4001,"AM":4002,"Ġdistrict":4003,"ario":4004,"host":4005,"strong":4006,"OP":4007,"iation":4008,"ancial":4009,"imensional":4010,"Ġdeal":4011,"SC":4012,"ĠMark":4013,"ÑĤ":4014,"Ġcomplete":4015,"98":4016,"Ġpers":4017,"After":4018,"ĠNe":4019,"Ġprotected":4020,"dat":4021,"Ġequival":4022,"more":4023,"write":4024,"ication":4025,"Ġresource":4026,"ĠRef":4027,"Spec":4028,"Ġsequence":4029,"Ġimpact":4030,"Ġtypes":4031,"ĠInter":4032,"Ġsurface":4033,"Ġregard":4034,"Function":4035,"operator":4036,"ĠIndia":4037,"Ġimprov":4038,"used":4039,"{(":4040,"ftware":4041,"Ġson":4042,"ĠCanada":4043,"Ġthought":4044,"unk":4045,"aign":4046,"Ġcountries":4047,"eger":4048,"Ġreturned":4049,"iance":4050,"Ġround":4051,"btn":4052,"pdf":4053,"Ġfall":4054,"struction":4055,"Ġlearning":4056,"Ġcomponent":4057,"Ġmilitary":4058,"irtual":4059,"Ġnatural":4060,"sin":4061,"Ġconduct":4062,"Ġrank":4063,"96":4064,"izes":4065,"iform":4066,"acc":4067,"omb":4068,"pected":4069,"ashington":4070,"rl":4071,"Ġcenter":4072,"Ġcontract":4073,"Ġtransform":4074,"CK":4075,"otype":4076,"oved":4077,"Ġprinc":4078,"iers":4079,"local":4080,"Ġoption":4081,"ĠEast":4082,";\\":4083,"iles":4084,"navbar":4085,"olic":4086,"post":4087,"ha":4088,"Ġaud":4089,"och":4090,"Ġareas":4091,"Ġdistance":4092,"ĠEm":4093,"Factory":4094,"alax":4095,"Ġcut":4096,"ĠFrom":4097,"ptr":4098,"One":4099,"Ġapplication":4100,"Ġclient":4101,"Acc":4102,"Ġfixed":4103,"Ġfather":4104,"Ġtelev":4105,"Ġstop":4106,"ĠEngland":4107,"Ġworked":4108,"ĠCouncil":4109,"Ġrat":4110,"Ġcopy":4111,"inated":4112,"Ġpredict":4113,"Ġissues":4114,"quare":4115,"cup":4116,"LASS":4117,"ĠGeneral":4118,"}^\\":4119,"ĠIndian":4120,"[\"":4121,"xml":4122,"rum":4123,"ĠSen":4124,"Version":4125,"Ġfactor":4126,"nected":4127,"lemma":4128,"Ġmonths":4129,"1999":4130,"500":4131,"Ġprovides":4132,"$)":4133,"Ġissue":4134,"oto":4135,"Start":4136,"Ġlarger":4137,"property":4138,"widehat":4139,"ĠDem":4140,"ara":4141,"Ġtaking":4142,"}|":4143,"ulated":4144,"How":4145,"Ġproduced":4146,"augh":4147,"Ġleading":4148,"}_\\":4149,"Ġcourt":4150,"column":4151,"ota":4152,"Prov":4153,"font":4154,"Ġrelationship":4155,"ĠRed":4156,"FI":4157,"board":4158,"Ġobserved":4159,"find":4160,"Ġsymmet":4161,"Ġnote":4162,"LT":4163,"Ġsold":4164,"SU":4165,"ĠObject":4166,"can":4167,"Ġmatter":4168,"Ġneigh":4169,"ariant":4170,"Ġexecut":4171,"Ġincludes":4172,"Ġcompanies":4173,",-":4174,"adata":4175,"cdots":4176,"ÃŃ":4177,"oo":4178,"arily":4179,"Link":4180,"aching":4181,"Ġvisit":4182,"Ġforce":4183,"gl":4184,"gebra":4185,"Ġbit":4186,"cing":4187,"ened":4188,"Ġitself":4189,"amily":4190,"imately":4191,"Ġrestr":4192,"ĠReturn":4193,"Psi":4194,"atrix":4195,"abs":4196,"ĠChurch":4197,"oms":4198,"Ġeffort":4199,"Ġdifficult":4200,"${":4201,"Ġincrease":4202,"ney":4203,"Default":4204,"Ġsets":4205,"Ġhon":4206,"Ġupon":4207,"Ð½":4208,"Ġprec":4209,"Ġwhy":4210,"burg":4211,"68":4212,"ERT":4213,"IM":4214,"ĠAustralia":4215,"Ġinternal":4216,"Ġrelease":4217,"Ġbasis":4218,"ully":4219,"textwidth":4220,"Ġactive":4221,"anced":4222,"CD":4223,"Ġpopular":4224,"gener":4225,"Ġinit":4226,"rael":4227,"*/":4228,"bound":4229,"oriz":4230,"})\\":4231,"Ġtelevision":4232,"ctor":4233,"status":4234,"ĠMr":4235,"ooth":4236,"Ġlove":4237,"Ġrev":4238,"ensive":4239,"rupt":4240,"Ġ]":4241,"src":4242,"Ġbenef":4243,"Ġequal":4244,"lease":4245,"Ġexperiment":4246,"IV":4247,"icture":4248,"yr":4249,"Ġcapt":4250,"stry":4251,"Ġreference":4252,"lands":4253,"oyal":4254,"ĠSm":4255,"uate":4256,"itude":4257,"ĠUK":4258,"uid":4259,"ees":4260,"Ġsample":4261,"57":4262,"Ġdeveloped":4263,"Ġagre":4264,"Ġconstruction":4265,"Ġyet":4266,"Ġ\\{":4267,"ĠNone":4268,"rowser":4269,"Window":4270,"Ġsw":4271,"description":4272,"Ġparty":4273,"Ġactually":4274,"ĠPal":4275,"ĠGroup":4276,"Ġwords":4277,"Ġprobability":4278,"Ġmoved":4279,"note":4280,"43":4281,"aints":4282,"Ġunique":4283,"otes":4284,"uz":4285,"private":4286,"nce":4287,"QL":4288,"Ġcurrently":4289,"qquad":4290,"True":4291,"rote":4292,"Ġtherefore":4293,"Ġextends":4294,"uccess":4295,"isions":4296,"Ab":4297,"Ġspecified":4298,"Ġcollection":4299,"Command":4300,"command":4301,"ĠĠĠĠĠĠĠĠĠĠĠĠĊ":4302,"istance":4303,"pack":4304,"Ġaward":4305,"ategy":4306,"ĠUp":4307,"Number":4308,"elete":4309,"When":4310,"Ġprop":4311,"ĠDavid":4312,"pecially":4313,"Load":4314,"ili":4315,"Ġmargin":4316,"den":4317,"Hel":4318,"Ġgives":4319,"1998":4320,"Ġdep":4321,"Ġneeded":4322,"img":4323,"Ġeffects":4324,"});":4325,"Ġlocation":4326,"Ġdefinition":4327,"Ġmoney":4328,"Ġannounced":4329,"Ġjud":4330,"Ġproblems":4331,"Ġclosed":4332,"Ġir":4333,"ĠBlack":4334,"ming":4335,"ols":4336,"MM":4337,"Ġassume":4338,"Ġcompar":4339,"ĠDirect":4340,"berg":4341,"ĠWashington":4342,"allet":4343,"Ġoperation":4344,"Ġ$(\\":4345,"(-":4346,"Ġanaly":4347,"unn":4348,"cret":4349,"stract":4350,"ĠDiv":4351,"Ġlikely":4352,"1990":4353,"Ġeffective":4354,"alle":4355,"ds":4356,"58":4357,"ipal":4358,"ramework":4359,"anged":4360,"Task":4361,"ĠPaul":4362,"Ġdecision":4363,"Ġinc":4364,"ĠGod":4365,"asons":4366,"Ġthrows":4367,"py":4368,"41":4369,"Ġweight":4370,"ĠFrance":4371,"rief":4372,"len":4373,"Ġgenerated":4374,"Point":4375,"ifact":4376,"ĠFigure":4377,"ypes":4378,"Ġneeds":4379,"fe":4380,"Ġquantum":4381,"imension":4382,"\"]":4383,"Ġdetails":4384,"Ġupdate":4385,"Ã¼":4386,"close":4387,"ocket":4388,"eration":4389,"oe":4390,"Ġwhole":4391,"elves":4392,"Ġexcept":4393,"ein":4394,"itch":4395,"ABLE":4396,"equiv":4397,"Ġhttps":4398,"ĠPat":4399,"Equals":4400,"Ġstre":4401,"ares":4402,"Style":4403,"OL":4404,"Pre":4405,"mid":4406,"Ġindustry":4407,"num":4408,"chema":4409,"RA":4410,"}}(":4411,"lor":4412,"Ġnorth":4413,"Ġimm":4414,"service":4415,"\").":4416,"olve":4417,"Ġoffice":4418,"project":4419,"}+\\":4420,"Ġsound":4421,"ipl":4422,"Ġsure":4423,"Ġcorrect":4424,"ĠLemma":4425,")-":4426,"Ġstream":4427,"inally":4428,"prox":4429,"Ġbox":4430,"ieved":4431,"Ġdirectly":4432,"riate":4433,"meta":4434,"Per":4435,"empty":4436,"pite":4437,"Ġ{@":4438,"push":4439,"ida":4440,"ĠHol":4441,"edd":4442,"Ġcoupl":4443,"ĠStreet":4444,"ĠJames":4445,"atively":4446,"Check":4447,"ores":4448,"BU":4449,"56":4450,"aven":4451,"PC":4452,"Ġaccur":4453,"Ġfav":4454,"Ġpersonal":4455,"ÑĢ":4456,"Ġdiscover":4457,"antic":4458,"ias":4459,"Ge":4460,"Ġwhite":4461,"Ġmodule":4462,"cel":4463,"Ġselect":4464,"Ġtakes":4465,"ĠHealth":4466,"^+":4467,"Ġholds":4468,"lymp":4469,"ĠCup":4470,"Back":4471,"Ext":4472,"ĠBer":4473,"Last":4474,"Label":4475,"ĠRober":4476,"Return":4477,"Ġfem":4478,"ĠParty":4479,"Ġess":4480,"mem":4481,"Ġselected":4482,"Ġfront":4483,"Ġcandid":4484,"Ġ...":4485,"Ġdirector":4486,"Ġwriting":4487,"\"),":4488,"last":4489,"Box":4490,"Ġopport":4491,"Ġpresented":4492,"Ġperformed":4493,"Ġadministr":4494,"onstr":4495,"&=":4496,"Char":4497,"Ġdirection":4498,"Ġcentral":4499,"ria":4500,"Ġmode":4501,"aa":4502,"ĠVol":4503,"Ġelection":4504,"ĠThom":4505,"}/":4506,"ascript":4507,"signed":4508,"Ob":4509,"Rep":4510,"Ġsense":4511,"Ġfa":4512,"ĠAward":4513,"std":4514,"Ġcred":4515,"ĠBel":4516,"ĠAssociation":4517,"Em":4518,"Ġstage":4519,"very":4520,"Ġ((":4521,"ĠCong":4522,"unt":4523,"ĠPort":4524,"ĠChampionship":4525,"rows":4526,"FONT":4527,"band":4528,"ua":4529,"dec":4530,"Ġedge":4531,"PRO":4532,"ĠAnt":4533,"enced":4534,"SON":4535,"pass":4536,"Ġestablish":4537,"ĠSk":4538,"Ġtold":4539,"78":4540,"{{\\":4541,"App":4542,"Ġconcern":4543,"star":4544,"Ġespecially":4545,"Ġmechan":4546,"Ġsecurity":4547,"Ġunc":4548,"iences":4549,"anish":4550,"only":4551,"Ġjo":4552,"entry":4553,"obj":4554,"Ġauto":4555,"ouch":4556,"unch":4557,"pret":4558,"lier":4559,"DB":4560,"igger":4561,"Met":4562,"Row":4563,"Ġlost":4564,"}^{(":4565,"Ġconnection":4566,"yper":4567,"///":4568,"izations":4569,"Ġrelig":4570,"Ġdidn":4571,"evelop":4572,"Ġboundary":4573,"process":4574,"Ġcompared":4575,"Ġwrote":4576,"cr":4577,"Ġspin":4578,"fill":4579,"ĠRiver":4580,"ĠWhat":4581,"Ġinvolved":4582,"endif":4583,"format":4584,"ba":4585,"ĠCompany":4586,"Ġoutside":4587,"Ġ<!--":4588,"Ġgas":4589,"that":4590,"Listener":4591,"Create":4592,"clusion":4593,"achine":4594,"ĠFil":4595,"Fe":4596,"acher":4597,"SI":4598,"adian":4599,"stant":4600,"Ġwebsite":4601,"Ġnecessary":4602,"la":4603,"Ġallowed":4604,"filter":4605,"Ġstudies":4606,"pat":4607,"Ġobjects":4608,"Ġvict":4609,"ĠMal":4610,"ago":4611,"ĠInstitute":4612,"}:":4613,"ĠThus":4614,"number":4615,"ĠRich":4616,"ĠGeorge":4617,"Ġdoesn":4618,"Ġparts":4619,"ville":4620,"Page":4621,"Ġintegr":4622,"Ġcatch":4623,"han":4624,"ĠOb":4625,"update":4626,"bert":4627,"heet":4628,"final":4629,"Ġnews":4630,"ĠWhile":4631,"Ġconver":4632,"Controller":4633,"Ġsetting":4634,"Ġ&\\":4635,"ya":4636,"Ġadj":4637,"ube":4638,"eloc":4639,"ĠNews":4640,"aur":4641,"citet":4642,"ying":4643,"Ġtell":4644,"Ġsouth":4645,"||":4646,"UI":4647,"}\\,":4648,"Ġevidence":4649,"Ġthing":4650,"layout":4651,"Ġmid":4652,"win":4653,"onic":4654,"Ġdifference":4655,"container":4656,"ka":4657,"refix":4658,"Ġgalax":4659,"Filter":4660,"Ġtransfer":4661,"oz":4662,"Ġword":4663,"sole":4664,"normal":4665,"Ġinstit":4666,"agram":4667,"Ġoperations":4668,"Ġimages":4669,"ND":4670,"ĠSub":4671,"Ġforward":4672,"ĠChe":4673,"ĠJust":4674,"erve":4675,"wood":4676,"Rem":4677,"indent":4678,"Ġsupported":4679,"Ġnumbers":4680,"Ġapply":4681,"ĠCons":4682,"Ġpolice":4683,"Ġliving":4684,"VER":4685,"Ġidea":4686,"Ġmaximum":4687,"buf":4688,"(&":4689,"Ġincreasing":4690,"Ġdoing":4691,"}\\\\":4692,"otal":4693,"itar":4694,"$}":4695,"cs":4696,"Ġdraw":4697,"mathsf":4698,"force":4699,"Ġrelative":4700,"witch":4701,"Ġroad":4702,"Ġformat":4703,"ql":4704,"ĠIsrael":4705,"INT":4706,"show":4707,"Ġten":4708,"Ġtransition":4709,"Mem":4710,"Ġepis":4711,"edia":4712,"NO":4713,"tic":4714,"EL":4715,"Ġuses":4716,"Ġmag":4717,"params":4718,"Sim":4719,"ĠSee":4720,"Ġappoint":4721,"Ġcoordin":4722,"Ġtemperature":4723,"Ent":4724,"Ġqual":4725,"Ġface":4726,"Ġbank":4727,"Ġdemonstr":4728,"Ġinvestig":4729,"mt":4730,"soft":4731,"FT":4732,"Ġmonth":4733,"ĠGermany":4734,"output":4735,"_.":4736,"icol":4737,"ously":4738,"ĠQue":4739,"Ġnone":4740,"1997":4741,"bul":4742,"Ġpattern":4743,"asc":4744,"Format":4745,"Ġinj":4746,"Ġarchitect":4747,"{}":4748,"Ġphysical":4749,"Ġrot":4750,"Aut":4751,"Ġrule":4752,"Ġlargest":4753,"Ġnav":4754,"nes":4755,"Ġintroduced":4756,"ttp":4757,"59":4758,"Ġcomes":4759,"tag":4760,"menu":4761,"ĠGL":4762,"orthern":4763,"Ġcampaign":4764,"Ġfilter":4765,"ãģ":4766,"Since":4767,"Ġarticle":4768,"1996":4769,"Child":4770,"ĠTrump":4771,"Ġchannel":4772,"ĠSy":4773,"Ġmention":4774,"Ġrunning":4775,"ilies":4776,"You":4777,"raz":4778,"ĠĠĠĠĠĠĠĠĠĠĠĠĠĠĠĠĠĠĠĠĠĠĠĠĠĠĠĠĠĠĠĠĠĠĠ":4779,"ĠArch":4780,"ĠUnion":4781,"Output":4782,"Us":4783,"reater":4784,"Ġnovel":4785,"Ġmother":4786,"Ġimmedi":4787,"ĠHall":4788,"&&":4789,"van":4790,"Ġeconomic":4791,"87":4792,"Ġonline":4793,"Ġnames":4794,"'re":4795,"Ġoptim":4796,"86":4797,"ĠNote":4798,"ĠFound":4799,"igr":4800,"Next":4801,"Ġthroughout":4802,"ĠSome":4803,"umerate":4804,"Ð¾Ð":4805,"ander":4806,"Ġlegal":4807,"Ġshare":4808,"nov":4809,"Ġdatas":4810,"ĠÃ":4811,"eck":4812,"Ġmodern":4813,"ĠArmy":4814,"ios":4815,"ĠOF":4816,"reference":4817,"CL":4818,"Ġinterface":4819,"arks":4820,"Dr":4821,"ening":4822,"bin":4823,"Ġsolid":4824,"Ġcomponents":4825,"ĠRem":4826,"SO":4827,"Ġapplied":4828,"oded":4829,"break":4830,"response":4831,"Ġdig":4832,"ĠSum":4833,"outhern":4834,"Ġacqu":4835,"Ġrepresentation":4836,"Ġallows":4837,"Ġtim":4838,"Ġrelation":4839,"neq":4840,"Ġdepart":4841,".$":4842,"ĠData":4843,"javascript":4844,"ĠHREF":4845,"ln":4846,"Ġgoal":4847,"Ġbring":4848,"values":4849,"zer":4850,"Valid":4851,"anning":4852,"Ġsex":4853,"Ġnight":4854,"Ġsens":4855,"Ġemer":4856,"Ġsources":4857,"History":4858,"____":4859,"Ġargument":4860,"Ġhimself":4861,"Ġsus":4862,"stack":4863,"uge":4864,"Ñģ":4865,"Ġalthough":4866,"Ġconsum":4867,"Cache":4868,"Ġvillage":4869,"ĠCLASS":4870,"Ġprove":4871,"ĠWork":4872,"ĠPress":4873,"Length":4874,"Ġlonger":4875,"else":4876,"Column":4877,"Ġstars":4878,"ett":4879,"ĠResearch":4880,"Ġsolutions":4881,"Bundle":4882,"Br":4883,"arter":4884,"Ġsimply":4885,"({\\":4886,"Ġrisk":4887,"attr":4888,"Ġdeep":4889,"inese":4890,"xspace":4891,"Ġdescription":4892,"ĠPublic":4893,"Ġnuc":4894,"eal":4895,"]$":4896,"%%":4897,"ĠScience":4898,"ĠID":4899,"files":4900,"Ġcritical":4901,"ius":4902,"Ġentry":4903,"oring":4904,"styles":4905,"'$":4906,"operatorname":4907,"Ġbehavior":4908,"Ġfood":4909,"ĠJew":4910,"|^":4911,"Ġconstit":4912,"di":4913,"TP":4914,"1980":4915,"51":4916,"Ġurl":4917,"gin":4918,"Ġstatement":4919,"isation":4920,"Mode":4921,"hspace":4922,"ategor":4923,"Sec":4924,"ĠEX":4925,"Ġfinancial":4926,"<?":4927,"Ġyield":4928,"ilton":4929,"hest":4930,"Tem":4931,"oul":4932,"inding":4933,"aud":4934,"grad":4935,"ospital":4936,"ĠTV":4937,"ĠCap":4938,"Ġprofessional":4939,"Ġregister":4940,"Ġbooks":4941,")+":4942,"Sy":4943,"Ġserver":4944,"Ġdomain":4945,"remove":4946,"ĠService":4947,"vention":4948,"Ġautom":4949,"anger":4950,"iler":4951,"sets":4952,"Button":4953,"ĠMart":4954,"annot":4955,"istan":4956,"ĠSpec":4957,"Ġcontinued":4958,"unit":4959,"Ġgovern":4960,"Ġtechnology":4961,"Ġdenote":4962,"PO":4963,"Ġtree":4964,"54":4965,"ici":4966,"}}{\\":4967,"fit":4968,"Ġexpression":4969,"ometry":4970,"icial":4971,"Ġchurch":4972,"SD":4973,"Ġmanagement":4974,"Ġbecomes":4975,"Ġcivil":4976,"76":4977,"Ġfire":4978,"approx":4979,"tex":4980,"}-\\":4981,"Ag":4982,"Ġvariable":4983,"osen":4984,"89":4985,"cd":4986,"52":4987,"Ġupper":4988,"Ġcit":4989,"ĠAfrica":4990,"eles":4991,"CON":4992,"Ġboard":4993,"example":4994,"ĠRoman":4995,"obile":4996,"COL":4997,"1995":4998,"Address":4999,"2022":5000,"kit":5001,"```":5002,"URL":5003,"theorem":5004,"ifying":5005,"Tag":5006,"Ġgrowth":5007,"Ġ~":5008,"BA":5009,"Ġbehind":5010,"rypt":5011,"resh":5012,"ams":5013,"Ġradio":5014,"float":5015,"Ġcharacters":5016,"ĠCommission":5017,"Ġpain":5018,"orse":5019,"issions":5020,"instance":5021,"Ġord":5022,"scr":5023,"IO":5024,"efined":5025,"ERR":5026,"Ġtour":5027,"Ġequations":5028,"Ġscen":5029,"atur":5030,"inner":5031,"Ġrock":5032,"FO":5033,"omial":5034,"Ġfriend":5035,"ĠOut":5036,"essages":5037,"adow":5038,"uated":5039,"Ġvariables":5040,"Ġproced":5041,"elt":5042,"ĠMinister":5043,"Ġfiles":5044,"Ġschools":5045,"ĠLicense":5046,"Par":5047,"Ġavoid":5048,"Ġjoined":5049,"Ġpractice":5050,"Ġvers":5051,"rd":5052,"Web":5053,":</":5054,"airs":5055,"Ġexpand":5056,"Ġsignal":5057,"Ġflo":5058,"Ġprogress":5059,"VID":5060,"Ġmaintain":5061,"opl":5062,">>":5063,"Layout":5064,"NAME":5065,"ĠLou":5066,"enumerate":5067,"ĠMary":5068,"Max":5069,"idents":5070,"Ġsigned":5071,"Ġsmaller":5072,"oice":5073,"Ġcompleted":5074,"Ġprote":5075,"reme":5076,"matrix":5077,"PR":5078,"People":5079,"Ġbar":5080,"Ġdoc":5081,"Ġknowledge":5082,"Ġrecently":5083,"Ġquery":5084,"That":5085,"********************************":5086,"Ġsett":5087,"ectors":5088,"Ġchanged":5089,"Select":5090,"Ġtro":5091,"Ġveloc":5092,"Ġcapital":5093,"mission":5094,"wrap":5095,"agger":5096,"Ġprimary":5097,"older":5098,"ĠDemocr":5099,"Ġlat":5100,"53":5101,"Min":5102,"Server":5103,"ĠWhite":5104,"ris":5105,"ĠDay":5106,"scope":5107,"Ġelectron":5108,"ĠBook":5109,"Ġfont":5110,"Ġreve":5111,"lam":5112,"ansion":5113,"Ġaltern":5114,"Ġchoice":5115,"bes":5116,"dated":5117,"Ġtransl":5118,"ĠTex":5119,"Ġdeaths":5120,"Gu":5121,"Ġ[]":5122,"Ġcomment":5123,"').":5124,"Ġusually":5125,"1994":5126,"ĠMusic":5127,"Ġstaff":5128,"CA":5129,"Ġcontact":5130,"Ġdrop":5131,"greg":5132,"iding":5133,"ĠMex":5134,"Ġconcept":5135,"Ġpassed":5136,"84":5137,"Ġclasses":5138,"Ġproducts":5139,"ocal":5140,"Ġdesigned":5141,"rian":5142,"Ġimplies":5143,"Ġplaying":5144,"prototype":5145,"Ġmale":5146,"Ġbelieve":5147,"Ġrules":5148,"Ġfight":5149,"ĠRobert":5150,"SA":5151,"ĠSing":5152,"Ġroot":5153,"ayers":5154,"Ġremains":5155,"Ġwife":5156,"isher":5157,"ĠVir":5158,"ĠJack":5159,"depend":5160,"Ġensure":5161,"icate":5162,"Ġtransport":5163,"Ġselection":5164,"Ġscient":5165,"inct":5166,"\\\"":5167,"vant":5168,"ĠSociety":5169,"Ġcause":5170,"CP":5171,"dimensional":5172,"Ġfollowed":5173,"clude":5174,"94":5175,"Ġreturns":5176,"ĠGreen":5177,"Le":5178,"Bl":5179,"Ġansw":5180,"ĠOlymp":5181,"Vis":5182,"reek":5183,"Case":5184,"ĠLeg":5185,"([":5186,"ducation":5187,"]\\":5188,"ros":5189,"ometimes":5190,"What":5191,"Ġ-\\":5192,"Ġlimited":5193,"Ġfra":5194,"zon":5195,"Work":5196,"itemize":5197,"Ġexhib":5198,"Ġweak":5199,"ĠTable":5200,"Ġlevels":5201,"########":5202,"Ġresources":5203,"mes":5204,"ĠDi":5205,"ĠOther":5206,"Ġquality":5207,"300":5208,"Provider":5209,"Ġdetermined":5210,"ĠHT":5211,"aml":5212,"ĠOur":5213,"Update":5214,"Ġseg":5215,"merc":5216,"Ġnature":5217,"ĠMod":5218,"then":5219,"Ġwalk":5220,"Ġdam":5221,"icted":5222,"DF":5223,"Ġfailed":5224,"sd":5225,"ĠAfrican":5226,"ĠBay":5227,"chedul":5228,"Top":5229,"=\"../../../../../":5230,"Co":5231,"Ġtowards":5232,"ĠMat":5233,"NN":5234,"dep":5235,"Ġfit":5236,"Ġcharg":5237,"ĠType":5238,"Ġball":5239,"oi":5240,"ĠFranc":5241,"mselves":5242,"Ġframe":5243,"Eng":5244,"Ġcallback":5245,"Ġcast":5246,"Ġexisting":5247,"={":5248,"Ġmemory":5249,"Ġsort":5250,"criptor":5251,"Ġvirtual":5252,"ecution":5253,"Ġhous":5254,"93":5255,"ĠMet":5256,"72":5257,"iments":5258,"ĠTherefore":5259,"utils":5260,"rey":5261,"Ġseem":5262,"Ġpack":5263,")}{":5264,"arp":5265,"ston":5266,"erc":5267,"91":5268,"Ġinstr":5269,"So":5270,"Ġsymbol":5271,"ena":5272,"isl":5273,"Types":5274,"Ġevolution":5275,"$(":5276,"./":5277,"Ġdecre":5278,"term":5279,"linear":5280,"Ġthemselves":5281,"Ġrace":5282,"Ġsongs":5283,"erved":5284,"ĠArray":5285,"support":5286,"Ġspeed":5287,"background":5288,"ĠRoyal":5289,"++)":5290,"ootstr":5291,"ĠCongress":5292,"ecause":5293,"usion":5294,"ini":5295,"92":5296,"Ġscreen":5297,"erry":5298,"Url":5299,"Ġconfiguration":5300,"=\"../../":5301,"Note":5302,"hing":5303,"ãĥ":5304,"tree":5305,"Ã¶":5306,"Ġstreng":5307,"Target":5308,"Ġ(\"":5309,"gs":5310,"ATION":5311,"author":5312,"allel":5313,"Ġremove":5314,"jection":5315,"Ġquick":5316,"Ġbrother":5317,"Ġprograms":5318,"Ġcoeff":5319,"eft":5320,"ĠYear":5321,"Ġtravel":5322,"offset":5323,"Entry":5324,"gn":5325,"Ġsaw":5326,"ingu":5327,"Ġdebut":5328,"Ġopened":5329,"ĠAcadem":5330,"Ġremain":5331,"Ġgave":5332,"Then":5333,"1970":5334,"ĠTur":5335,"Ġded":5336,"Ġforces":5337,"ĠChristian":5338,"Ġ!==":5339,"gence":5340,"AV":5341,"Ġotherwise":5342,"rule":5343,"Ġstudent":5344,"sign":5345,"ĠDuring":5346,"ufact":5347,"Ġchalleng":5348,"Ġpreviously":5349,"ĠNow":5350,"Ġinside":5351,"Ġestimate":5352,"Ġscience":5353,"acter":5354,"Ġearlier":5355,"classes":5356,"ca":5357,"ĠMichael":5358,"Ġfamilies":5359,"Ġmedical":5360,"Ġeight":5361,"fg":5362,"proto":5363,"HO":5364,"Ġconnected":5365,"Ġgrant":5366,"1992":5367,"ulture":5368,"itory":5369,")/":5370,"Width":5371,"pg":5372,"ners":5373,"illing":5374,"Ġequivalent":5375,"Ġteams":5376,"Ġmarried":5377,")}$":5378,"sey":5379,"(_":5380,"Ġdaugh":5381,"common":5382,"oder":5383,"expected":5384,"Ġcollect":5385,"ĠJer":5386,"Ġhours":5387,"ĠAPI":5388,"Ġbad":5389,"Ġquite":5390,"ved":5391,"ĠOpen":5392,"ĠDivision":5393,"Ġspectrum":5394,"ĉĉĉĉĉĉĉ":5395,"Frame":5396,"Ġjoin":5397,"bour":5398,"Ġconnect":5399,"CODE":5400,"olar":5401,"ĠEar":5402,"ĠCE":5403,"elebr":5404,"Ġpick":5405,"uint":5406,"alian":5407,"Ġjournal":5408,"Ġstarting":5409,"Bo":5410,"PS":5411,"ental":5412,"63":5413,"Ġdise":5414,"Ġagreement":5415,"task":5416,"Ġship":5417,"ĠGovernment":5418,"Ġauth":5419,"Ġweb":5420,"Ġbeginning":5421,"Ġtrade":5422,"{{":5423,"ĠMount":5424,"ervices":5425,"Net":5426,"Ġmar":5427,"ootstrap":5428,"Now":5429,"ĠFile":5430,"window":5431,"well":5432,"Ġactual":5433,"porary":5434,"Ġlib":5435,"Ġax":5436,"Living":5437,"Access":5438,"inv":5439,"Ġnodes":5440,"Ġlives":5441,"1993":5442,"Ġ\\|":5443,"Dev":5444,"Ġsubs":5445,"vspace":5446,"Enc":5447,"ĠChinese":5448,"TYPE":5449,"ĉĠĠĠ":5450,"Ġmeaning":5451,"Ġca":5452,"rial":5453,"ĠGl":5454,"ĠTime":5455,"frame":5456,"ecute":5457,"Configuration":5458,"returns":5459,"Pi":5460,"flict":5461,"Ġfloat":5462,"ĠBoard":5463,"noindent":5464,"ĠLog":5465,"mas":5466,"Ġregions":5467,"ĠSw":5468,"Ġrecover":5469,"comple":5470,"\\,\\":5471,"norm":5472,"clos":5473,"ĠHistory":5474,"ĠSecret":5475,"Post":5476,"Ġmovie":5477,"iece":5478,"Parameter":5479,"ĠMus":5480,"aine":5481,"wait":5482,"Ġiter":5483,"CR":5484,"ech":5485,"typ":5486,"road":5487,"Ġmix":5488,"ĠProv":5489,"Ġarguments":5490,"Ġapprop":5491,"orizont":5492,"ĠCommittee":5493,"}'":5494,"Ġlack":5495,"hi":5496,"Ġadapt":5497,"Ġrecorded":5498,"Ġhit":5499,"Entity":5500,"omic":5501,"82":5502,"ĠTexas":5503,"Ġfederal":5504,"Ġtag":5505,"Ġculture":5506,"Ġplatform":5507,"Open":5508,"artifact":5509,"Ġunits":5510,"estival":5511,"ĠTechn":5512,"ponents":5513,"Interface":5514,"ĠMuseum":5515,"Ġthreat":5516,"ART":5517,"Ġalgebra":5518,"bon":5519,"ĠAlex":5520,"require":5521,"Ġrob":5522,"weight":5523,"Ġcoming":5524,"Ġproper":5525,"ims":5526,"Ġpolitic":5527,"ussian":5528,"ĠAccording":5529,"Tree":5530,"Ġnom":5531,"Ġcounter":5532,"Ġmagnetic":5533,"Ġsoftware":5534,"Ġformed":5535,"hent":5536,"irus":5537,"ĠMor":5538,"parse":5539,"\\}$":5540,"ao":5541,"Mon":5542,"gle":5543,"Ġreading":5544,"ĠHere":5545,"ĠForm":5546,"~$":5547,"Ġcharge":5548,"Rel":5549,"Ġsituation":5550,"Ġtreatment":5551,"ĠPost":5552,"Ġsubsequ":5553,"Ġsil":5554,"Ġmind":5555,"ĠGreat":5556,"Ġshape":5557,"Ġago":5558,"Ġexplicit":5559,"ĠInc":5560,"Ġorganization":5561,"rics":5562,"Offset":5563,"Ġways":5564,"liament":5565,"ĠRussian":5566,"Ġparticularly":5567,"Ġneut":5568,"ĠDon":5569,"ancy":5570,"ounter":5571,"ĠHen":5572,"Ġobj":5573,"Ġveh":5574,"Ġsen":5575,"Ġheart":5576,"ĠWil":5577,"PP":5578,"ws":5579,"fect":5580,"ĠBen":5581,"Ġign":5582,"Ġstore":5583,"Ġseems":5584,"ĠCath":5585,"Ġsufficient":5586,"mitted":5587,"Ġ;":5588,"Ġargs":5589,"Level":5590,"Ġreli":5591,"Ġwanted":5592,"gan":5593,"mercial":5594,"Ġlayer":5595,"bool":5596,"ano":5597,"ĠMag":5598,"Ġ**":5599,"Ġrecon":5600,"ulate":5601,"Ġasked":5602,"()->":5603,"Ġnegative":5604,"ĠRoad":5605,"MN":5606,"Ġgenerally":5607,"Ġratio":5608,"template":5609,"ZE":5610,"resents":5611,"Ġer":5612,"Ġinteresting":5613,"Can":5614,"SL":5615,"ĠMiss":5616,"Ġsoon":5617,"irit":5618,"Ġbre":5619,"62":5620,"anges":5621,"Me":5622,"orial":5623,"Ġwoman":5624,"Ġrequires":5625,"edy":5626,"emic":5627,"Ġattention":5628,"ĠThomas":5629,"ĠAustralian":5630,"Ġstudied":5631,"Ġdevice":5632,"Ġadopt":5633,"Script":5634,"Ġdimension":5635,"olid":5636,"Ġwriter":5637,"ĠGold":5638,"fort":5639,"Ġplaces":5640,"ĠCentral":5641,"Ġbg":5642,"EM":5643,"Ġfigure":5644,"rs":5645,"'),":5646,"Ġdescribe":5647,"Ġincreased":5648,"etails":5649,"agment":5650,"ĠSam":5651,"Ġusers":5652,"Ġrail":5653,"enge":5654,"Ġresulting":5655,"]);":5656,"Ġappeared":5657,"Container":5658,"Ġbrought":5659,"should":5660,"Ġlen":5661,"Ġinterview":5662,"ympt":5663,"ĠCanadian":5664,"Ġrepe":5665,"root":5666,"document":5667,"Ġrecomm":5668,"ernel":5669,"crete":5670,"ani":5671,"ĠWestern":5672,"etch":5673,"ĠOf":5674,"Ġvolume":5675,"Ġdirected":5676,"conf":5677,"Ã¤":5678,"Ġanti":5679,"Ġ_{":5680,"Ġlooking":5681,"after":5682,"KE":5683,"graph":5684,"Ġillustr":5685,"ye":5686,"Ġdark":5687,":\"":5688,"Ġexception":5689,"Ġempty":5690,"Ġdefe":5691,"related":5692,"ĠSl":5693,"Ġfully":5694,"Utils":5695,"Ġseven":5696,"reedom":5697,"fs":5698,"drop":5699,"ĠFin":5700,"ĠMac":5701,"evelopment":5702,"det":5703,"Ġinequ":5704,"Ġgir":5705,"Ġlaws":5706,"itable":5707,"ĠOper":5708,"ĠĠĠĊ":5709,"Ġactivities":5710,"orizontal":5711,"SH":5712,"Ġpeak":5713,"Ġrender":5714,"ynch":5715,"}}_":5716,"Process":5717,"Ġforms":5718,"Ġscope":5719,"thon":5720,"Ġprevent":5721,"ĠEv":5722,"aled":5723,"otic":5724,"Ġcam":5725,"ensus":5726,"errit":5727,"Ġbirth":5728,"Ġmovement":5729,"gate":5730,"free":5731,"ĠKore":5732,"Ġuncertain":5733,"Ġeigen":5734,"ĠLib":5735,"Ġbelong":5736,"ĠĠĠĠĠĠĠĠĠĠĠĠĠĠĠĠĠĠĠĠĠ":5737,"ocation":5738,"IGN":5739,"Ġprobably":5740,"ipp":5741,"=\"-":5742,"ĠReturns":5743,"ĠMem":5744,"Ġmus":5745,"models":5746,"cache":5747,"Json":5748,"Ġbuffer":5749,"Ġfinally":5750,"1991":5751,"ĠBest":5752,"VAL":5753,"ĠBill":5754,"61":5755,"iverse":5756,"hr":5757,"otion":5758,"83":5759,"Ġuint":5760,"ãĤ":5761,"Direct":5762,"Ġdetermine":5763,"Ġwait":5764,"mathscr":5765,"Sl":5766,"iting":5767,"79":5768,"ĠSal":5769,"images":5770,"74":5771,"Ġfrequency":5772,"}}}":5773,"Ġcompl":5774,"Ġwid":5775,"jo":5776,"Right":5777,"buffer":5778,"agraph":5779,"Ġvelocity":5780,"Callback":5781,"Ġuniform":5782,"IF":5783,"ether":5784,"olute":5785,"Ġnorm":5786,"ĠNS":5787,"Dec":5788,"Dat":5789,"ĠNor":5790,"Ġstructures":5791,"gu":5792,"PA":5793,"reshold":5794,"cover":5795,"alls":5796,"ĠLat":5797,"ĉĉĊ":5798,"icens":5799,"Ġfun":5800,"81":5801,"ĠFoundation":5802,"rong":5803,"Description":5804,"ĠIsland":5805,"Ġnothing":5806,"asic":5807,"ĠBank":5808,"ĠClub":5809,"ailed":5810,"Ġhot":5811,"Ġpanel":5812,"Write":5813,"second":5814,"etime":5815,"ci":5816,"Ġcluster":5817,"Ġconsequ":5818,"Ġhel":5819,"Stat":5820,"Ġidentity":5821,"ĠVirgin":5822,"ĠIS":5823,"abilities":5824,"iring":5825,"prove":5826,"Ġstay":5827,"Ġeasy":5828,"ĠFlor":5829,"Ġessential":5830,"Port":5831,"Ġpresence":5832,"Ġ{}":5833,"ĠFore":5834,"Op":5835,";->":5836,"control":5837,"DD":5838,"iller":5839,"More":5840,"icrosoft":5841,"Ġcore":5842,"azine":5843,"Module":5844,"ĠRel":5845,"Ġwave":5846,"Ġoverall":5847,"track":5848,"ynomial":5849,"Ġgetting":5850,"match":5851,"asket":5852,"Ġbasic":5853,"ĠBuild":5854,"Ġforeign":5855,"Ġgreater":5856,"Ġorigin":5857,"ĠTom":5858,"Ġminimum":5859,"Ġque":5860,"Ġhandle":5861,"Ġroom":5862,"ĠCarol":5863,"tical":5864,"Ġerrors":5865,"400":5866,"bitr":5867,"vector":5868,"Ġsociety":5869,"underline":5870,"Ġoffset":5871,"Ġstated":5872,"Header":5873,"Ġkilled":5874,"trm":5875,"Ġdrug":5876,"Unit":5877,"lood":5878,"Ġmetric":5879,"parameter":5880,"ĠProgram":5881,"Local":5882,"RL":5883,"ky":5884,"ĠMad":5885,"texttt":5886,"Ġsession":5887,"icated":5888,"Ġappears":5889,"Ġframework":5890,"token":5891,"Ġextension":5892,"Ġextra":5893,"Ġhighest":5894,"Current":5895,"ĠDel":5896,"ACK":5897,"aily":5898,"anned":5899,"Ġstrategy":5900,"Ġdram":5901,"<\\":5902,"textrm":5903,"69":5904,"ih":5905,"olved":5906,"subseteq":5907,"Ġtrying":5908,"yes":5909,"itz":5910,"Ġtheorem":5911,"ĠOver":5912,"ĠSmith":5913,"ĠScott":5914,"ĠFrancis":5915,"tml":5916,"rea":5917,"fa":5918,"bullet":5919,"ĠST":5920,"rees":5921,"Ġdecided":5922,"Location":5923,"del":5924,"oles":5925,"Ġfix":5926,"Ġcop":5927,"^-":5928,"ĠRead":5929,"spect":5930,"Ġtra":5931,"73":5932,"entity":5933,"Ġability":5934,"Ġrepresented":5935,"Font":5936,"71":5937,"ĠAnn":5938,"Ġones":5939,"Ġrap":5940,"Control":5941,"Ġoccup":5942,"Settings":5943,"Ġbur":5944,"Ġscheme":5945,"poses":5946,"onom":5947,"%;":5948,"Ġpurpose":5949,"COLOR":5950,"CS":5951,"ĠDan":5952,"artifactId":5953,"ellig":5954,"Ġnet":5955,"Ġactions":5956,"ĠDE":5957,"API":5958,"Ġmeeting":5959,"Ġmis":5960,"Ġpurch":5961,"minus":5962,"Position":5963,"ĠEnd":5964,"orig":5965,"Ġcollege":5966,"cp":5967,"Ġspent":5968,"Ġexam":5969,"Ġnoise":5970,"Range":5971,"Ġreduced":5972,"ĠPre":5973,"card":5974,"Ġassist":5975,"Ġbal":5976,"ĠCreate":5977,"Ġmiddle":5978,"Ġextended":5979,"BO":5980,"Height":5981,"ĠRE":5982,"ĠFrank":5983,"ĠTor":5984,"multicol":5985,"isms":5986,"Ġneighbor":5987,"Ġste":5988,"ĠPo":5989,"1000":5990,"Empty":5991,"erman":5992,"RI":5993,"sv":5994,"multicolumn":5995,"Ġnearly":5996,"PT":5997,"Search":5998,"arant":5999,"pop":6000,"LI":6001,"iny":6002,"Ġrad":6003,"Ġprotect":6004,"Ġclassical":6005,"dx":6006,"ĠDirector":6007,"Ġactivity":6008,"Ġprojects":6009,"writ":6010,"real":6011,"Ġchoose":6012,"ibly":6013,"ĠSecond":6014,"ĠAssert":6015,"Ġinterpret":6016,"imary":6017,"ashed":6018,"Ġbgcolor":6019,"resource":6020,"Ġleave":6021,"Ġinteraction":6022,"Ġleader":6023,"Do":6024,"Ġinsp":6025,"Ġetc":6026,"Ġ*)":6027,".[":6028,"Ġparents":6029,"ĠHel":6030,"NE":6031,"Ġcategory":6032,"ĠEducation":6033,"tog":6034,"Ġdistributed":6035,"1960":6036,"Ġreached":6037,"Theta":6038,"ĠGa":6039,"Ġsend":6040,"None":6041,"ĠTri":6042,"ĠTown":6043,"Ġreceive":6044,"Ġrepresents":6045,"................":6046,"Rev":6047,"Mar":6048,"---":6049,"ĠLouis":6050,"}^{-":6051,"Thread":6052,"Ġ$\\{":6053,"Dir":6054,"Ġdiscussed":6055,"ĠAcademy":6056,"atre":6057,"Ġtrain":6058,"nap":6059,"Ġquestions":6060,"tf":6061,"Ġfast":6062,"DA":6063,"range":6064,"deg":6065,"illa":6066,"ĠJapanese":6067,"Ġfeed":6068,"ensions":6069,"oplus":6070,":\\":6071,"bal":6072,"Ġcelebr":6073,"ura":6074,"oma":6075,"etri":6076,"debug":6077,"Ġanything":6078,"modal":6079,"Serial":6080,"ternet":6081,"ĠKingdom":6082,"Ġuseful":6083,"\"))":6084,"Ġlatter":6085,"joy":6086,"tim":6087,"Ġmount":6088,"Ġmissing":6089,"border":6090,"kind":6091,"1989":6092,"Ġoperators":6093,"Ġeventually":6094,"Ġsmooth":6095,"Ġchosen":6096,"Ġindividuals":6097,"groupId":6098,"Ġwide":6099,"cat":6100,"Ġearn":6101,"Ġbillion":6102,"ictionary":6103,"ĠUnder":6104,"Ġvariety":6105,"CM":6106,"ĠMont":6107,"acement":6108,"auge":6109,"prod":6110,"ctx":6111,"ucture":6112,"Ġmanif":6113,"Ġproduce":6114,"Ġcontaining":6115,"Ġpressure":6116,"ĠLos":6117,"Ġpen":6118,"Ġitems":6119,"Ġsports":6120,"Ġbey":6121,"Ġelected":6122,"Ġhope":6123,":(":6124,"Te":6125,"za":6126,"shift":6127,"ĠRussia":6128,"Ġmanager":6129,"Ġartists":6130,">,":6131,"Ġdaughter":6132,"Copy":6133,"BJ":6134,"uri":6135,"ictor":6136,"Hash":6137,"cope":6138,"Ġexamples":6139,"kin":6140,"Ġfilename":6141,"Ġnation":6142,"ĠTimes":6143,"before":6144,"Ġmotion":6145,"Ġeditor":6146,"Icon":6147,"actor":6148,"Ġbeyond":6149,"Ġprofile":6150,"Ġestimated":6151,"urt":6152,"TI":6153,"ĠGrand":6154,"Ġreach":6155,"Ġli":6156,"Ġworkers":6157,"Ġfactors":6158,"BS":6159,"Http":6160,"Ġsch":6161,"My":6162,"apse":6163,"Ġfounded":6164,"cles":6165,"Ġaffect":6166,"icago":6167,"Ġmanufact":6168,"Ġkm":6169,"war":6170,"Ġhighly":6171,"ĠTO":6172,"Ġreplaced":6173,"Ġnoted":6174,"west":6175,"=(":6176,"Ġfriends":6177,"Ġ(-":6178,"Change":6179,"direct":6180,"system":6181,"sych":6182,"Po":6183,"ĠWeb":6184,"}},":6185,"Ġderiv":6186,"chers":6187,"oral":6188,"cur":6189,"Ġhyper":6190,"Ġrelevant":6191,"stitution":6192,"=\"_":6193,"WE":6194,"tains":6195,"She":6196,"ita":6197,"255":6198,"ĠRob":6199,"Ġchem":6200,"Ġstrict":6201,"Ġleads":6202,"ollowing":6203,"reland":6204,"Ġimplementation":6205,"Ġcommunities":6206,"ĠSeries":6207,"Ġincor":6208,"GB":6209,"nother":6210,"Ġshift":6211,"Ġcitiz":6212,"Ġexactly":6213,"igration":6214,"Ġinfin":6215,"Ġprem":6216,"Ġapplications":6217,"Ġhyp":6218,"UM":6219,"Ġeasily":6220,"Ġtraditional":6221,"mode":6222,"Option":6223,"ĠCharles":6224,"Reference":6225,"ĠMass":6226,"INE":6227,"Ġderived":6228,"scal":6229,"witter":6230,"Ġcontinuous":6231,"PECT":6232,"Order":6233,"Ġmajority":6234,"Ġhence":6235,"Ġprep":6236,"bi":6237,"Ġrates":6238,"Ġsometimes":6239,"structor":6240,"Ġpadding":6241,"Ġruns":6242,"ĠRichard":6243,"Ġapproximately":6244,"ĠJose":6245,"Project":6246,"Ġplant":6247,"Record":6248,"Ġswitch":6249,"Ġattribute":6250,"auth":6251,"Ġslow":6252,"Ġscript":6253,"oration":6254,"stylesheet":6255,"step":6256,"ĠHamilton":6257,"iminal":6258,"{$":6259,"ydro":6260,"Ġdestroy":6261,"ĠStat":6262,"inos":6263,"ĠPeter":6264,"Ġ>=":6265,"Ġminor":6266,"ested":6267,"Ġoverride":6268,"Ġteacher":6269,"Ġtemplate":6270,"Ġartist":6271,"ursor":6272,"ette":6273,"\\'":6274,"1988":6275,"azz":6276,"olec":6277,"ĠHill":6278,"rect":6279,"Ġ$|":6280,"ki":6281,"^{-\\":6282,"Ġvan":6283,"Ġimmediately":6284,"Ġhum":6285,"Ġmeasures":6286,"astern":6287,"iques":6288,"Am":6289,"Ġsaying":6290,"Ġcollabor":6291,"km":6292,"ĠCOVID":6293,"FL":6294,"hash":6295,"ĠSur":6296,"Ġtests":6297,"ĠJournal":6298,"Ġsteps":6299,"ĠName":6300,"MO":6301,"ifies":6302,"inger":6303,"Ġwatch":6304,"ORT":6305,"Ġanim":6306,"docs":6307,"Ġexpansion":6308,"ader":6309,"Ġmut":6310,"Ġweeks":6311,"Ġchart":6312,"ĠHistor":6313,"ĠSocial":6314,"Ġremaining":6315,"ban":6316,"Ġcurve":6317,"\"));":6318,"Ġscore":6319,"ĠOffice":6320,"Params":6321,"$_":6322,"language":6323,"ĠBase":6324,"black":6325,"Ġinfluence":6326,"Expression":6327,"ĠDec":6328,"Ġpriv":6329,"ariable":6330,"Ġequip":6331,"ĠAlthough":6332,"ĠFlorida":6333,"Connection":6334,"Ġlisted":6335,"Ġeverything":6336,"=\"../../../../../../":6337,"Ġraise":6338,"Ġacadem":6339,"Ġstories":6340,"Ġfair":6341,"Ġgrand":6342,"eria":6343,"Ġimprove":6344,"\\\\\\\\\\\\\\\\\\\\\\\\\\\\\\\\":6345,"omorphism":6346,"Ġrecords":6347,"Ġcompletely":6348,"atically":6349,"Ġdead":6350,"Ġobservations":6351,"Ġappointed":6352,"Ġarbitr":6353,"Ġmaps":6354,"address":6355,"footnote":6356,"Ġcaused":6357,"Our":6358,"dim":6359,"oting":6360,"():":6361,"Ġfinished":6362,"ker":6363,"Ġcompact":6364,"Ġprocesses":6365,"à¤":6366,"Ġgoes":6367,"Ġsamples":6368,"Ġaspect":6369,"Ġchain":6370,"ouri":6371,"Ġdeb":6372,"ervation":6373,"Kind":6374,"Properties":6375,"coming":6376,"ĠParis":6377,"Ġpatients":6378,"_+":6379,"Ġvertex":6380,"Ġsecret":6381,"icker":6382,"Ġblue":6383,"rolled":6384,"Ġbottom":6385,"ĠAlso":6386,"Ġminutes":6387,"Ġembedd":6388,"ĠBG":6389,"}}_{":6390,"aved":6391,"itled":6392,"Ġappropriate":6393,"while":6394,"onald":6395,"ifically":6396,"Ġreduce":6397,"Ġplaced":6398,"device":6399,"ĠProject":6400,"inder":6401,"Ġresolution":6402,"oute":6403,"Ġsomeone":6404,"ĠGoogle":6405,"setminus":6406,"Ġ\"\\":6407,"ĠZeal":6408,"Ġproceed":6409,"ĠWomen":6410,"ishes":6411,"ĠRock":6412,"Ġpolynomial":6413,"Collection":6414,"Ġgeneration":6415,"Ġpert":6416,"ĠSuper":6417,"Here":6418,"cons":6419,"Mat":6420,"PL":6421,"Ġgenerate":6422,"ĠGames":6423,"haps":6424,"Ġconvert":6425,"ategories":6426,"Ġfemale":6427,"definition":6428,"ĠCatholic":6429,")|":6430,"Ġsurvey":6431,"types":6432,"ilarly":6433,"icket":6434,"Ġcomparison":6435,"Ġcarry":6436,"Document":6437,"Ġrespond":6438,"ĠLife":6439,"ĠMost":6440,"Ġbounded":6441,"Ġharm":6442,"udget":6443,"ugins":6444,"Impl":6445,"agon":6446,"Ġassess":6447,"asure":6448,"Ġunivers":6449,"Cal":6450,"Ġremoved":6451,"Ev":6452,"white":6453,"imin":6454,"Prot":6455,"ĠVer":6456,"Operation":6457,"Ġidentified":6458,"afe":6459,"Ġmentioned":6460,"thlet":6461,"alysis":6462,"sql":6463,"Ġcontribution":6464,"umni":6465,"ĠZealand":6466,"Long":6467,"Session":6468,"Ġgun":6469,"=-":6470,"olt":6471,"ĠIran":6472,"found":6473,"?:":6474,"lig":6475,"EQ":6476,"ĠAngeles":6477,"Store":6478,"Ġconsists":6479,"Ġefforts":6480,"ĠLong":6481,"Non":6482,"Ġ($\\":6483,"high":6484,"produ":6485,"Ġshared":6486,"ĠProfess":6487,"endar":6488,"even":6489,"Ġflux":6490,"Ġeast":6491,"attice":6492,"avity":6493,"Ġplans":6494,"ircraft":6495,"ĠAut":6496,"ewidth":6497,"kr":6498,"Ġproviding":6499,"Ġprison":6500,"argument":6501,"\\}":6502,"ĠArg":6503,"rot":6504,"FC":6505,"Ġresponsible":6506,"uations":6507,"interface":6508,"Ġmur":6509,"ĠArts":6510,"ĠOR":6511,"ror":6512,"ĠMer":6513,"Ġopportunity":6514,"ĠFurther":6515,"limits":6516,"olf":6517,"Ġtoken":6518,"Ġplane":6519,"shire":6520,"asketball":6521,"aws":6522,"ALL":6523,"NavBar":6524,"Async":6525,"Ġserious":6526,"ĠItalian":6527,"Ġspread":6528,"copy":6529,"Render":6530,"Ġdou":6531,"1986":6532,"ropy":6533,"ounds":6534,"Ġbrief":6535,"eve":6536,"bootstrap":6537,"Ġbul":6538,"Ġcapacity":6539,"================================":6540,"Ġfavor":6541,"1987":6542,"Ġmission":6543,"transform":6544,"lines":6545,"Ġbuildings":6546,"ellar":6547,"po":6548,"legal":6549,"Ġnetworks":6550,"Ġwest":6551,"undred":6552,"sect":6553,"ĠArab":6554,"Ġepisode":6555,"Track":6556,"oom":6557,"ĠCre":6558,"ĠOrder":6559,"Sign":6560,"Ġagent":6561,"ĠApp":6562,"Ġseparate":6563,"Ġinform":6564,"Ġxml":6565,"adius":6566,"Ġpor":6567,"IA":6568,"ĠGener":6569,"Left":6570,"GE":6571,"Ġenjoy":6572,"ĠMo":6573,"Ġmaster":6574,"Mult":6575,"Ġjoint":6576,"Ġexistence":6577,"Ġpurs":6578,"Ġspaces":6579,"Ġelectric":6580,"ĠĠĠĠĠĠĠĠĠĠĠĠĠĠĠĠĠĠĠĠĠĠĠĠĠĠĠĠĠĠĠĠĠĠĠĠĠĠĠ":6581,"anta":6582,"atalog":6583,"Ġcommercial":6584,"Ġdataset":6585,"akers":6586,"make":6587,"ĠAssembly":6588,"Ġinteger":6589,"&#":6590,"ĠĠĠĠĠĠĠĠĠĠĠĠĠĠĠĠĠĠĠĠ":6591,"Ġclean":6592,"Ġfourth":6593,"owers":6594,"access":6595,"Ġinfo":6596,"Ġguitar":6597,"ĠMap":6598,"Ġamb":6599,"faces":6600,"ĠForce":6601,"Ġslight":6602,"Ġconflict":6603,"ora":6604,"DS":6605,"kl":6606,"STR":6607,"cz":6608,"ĠDen":6609,"uan":6610,"ĉĠ":6611,"Ġmoving":6612,"Ġoriginally":6613,"aver":6614,"Ġdepends":6615,"Ġ\\;":6616,"Ġcritic":6617,"Menu":6618,"alo":6619,"Ġdemand":6620,"cribe":6621,"Ġparticle":6622,"Ġhash":6623,"ĠException":6624,"However":6625,"Ġincome":6626,"iral":6627,"sur":6628,"ĠCheck":6629,"coll":6630,"dagger":6631,"Integer":6632,"bind":6633,"Ġliterature":6634,"Ptr":6635,"mut":6636,"Ġdeliver":6637,"Ġsquare":6638,"Ġleague":6639,"Ġconsistent":6640,"Ġdatabase":6641,"ĠField":6642,"Ġsettings":6643,"UP":6644,"Ġpolic":6645,"Ġlock":6646,"ĠKe":6647,"vest":6648,"ĠVirginia":6649,"Ġ::":6650,"Ġoccur":6651,"~~~~":6652,"pers":6653,"Ġdiagram":6654,"colon":6655,"Results":6656,"global":6657,"igan":6658,"Ġ${":6659,"ĠTwo":6660,"ä¸":6661,"Down":6662,"media":6663,"irmed":6664,"Ġgold":6665,"osing":6666,"bigg":6667,"Ġparticles":6668,"ĠInst":6669,"ĠCamp":6670,"Ġcontrast":6671,"El":6672,"ald":6673,"Ġreligious":6674,"Ġâ":6675,"Ġdynamics":6676,"Ġalbums":6677,"Ne":6678,"house":6679,"aight":6680,"allery":6681,"Ġformula":6682,"wedge":6683,"Tim":6684,"ĠPenn":6685,"Ġbranch":6686,"ĠChicago":6687,"equals":6688,"ĠIll":6689,"Ġlif":6690,"1984":6691,"Ġcert":6692,"Ġmicro":6693,"success":6694,"ĠBig":6695,"ivial":6696,"delete":6697,"Ġstrateg":6698,"itation":6699,"Ġcompetition":6700,"ĠSecretary":6701,"Ġutil":6702,"iled":6703,"Ġ$[":6704,"Ġparams":6705,"Ġworth":6706,"inem":6707,"udd":6708,"apers":6709,"Ġradius":6710,"TER":6711,"ĠRecords":6712,"Core":6713,"While":6714,"Ġcos":6715,"Ġsector":6716,"ĠPeople":6717,"Ġecho":6718,"ĠIreland":6719,"Ġunknown":6720,"Ġmeasured":6721,"Ġpoor":6722,"ala":6723,"ĠTHE":6724,"Ġenter":6725,"room":6726,"ady":6727,"ifications":6728,"Ġcompute":6729,"Ġunderstanding":6730,"atial":6731,"Ġlibrary":6732,"Ġwhom":6733,"Ġcard":6734,"annels":6735,"venue":6736,"dule":6737,"OK":6738,"Ġminim":6739,"dest":6740,"'m":6741,"Helper":6742,"Ġpackage":6743,"tribution":6744,"Ġvote":6745,"Ġgreen":6746,"tn":6747,"CTION":6748,"Ġseek":6749,"Ġsurround":6750,"ĠGeorg":6751,"enum":6752,"Ġleaders":6753,"ĠEXPECT":6754,"Ġreflect":6755,"Pass":6756,"Ġeth":6757,"Ġscatter":6758,"DL":6759,"ĠModel":6760,"ancing":6761,"Ð°Ð":6762,"session":6763,"ntax":6764,"Ġofficer":6765,"Ġdisease":6766,"ĠMexico":6767,"Inst":6768,"icine":6769,"SET":6770,"ometric":6771,"Ġgalaxies":6772,"ture":6773,"apped":6774,"Dep":6775,"ĠLand":6776,"elled":6777,"_*":6778,"Ġphil":6779,"ĠCON":6780,"virt":6781,"Ġcalls":6782,"zero":6783,"Ġprice":6784,"join":6785,"Ġpark":6786,"Ġsummer":6787,"Ġsimpl":6788,"ATA":6789,"Ġalleg":6790,"miss":6791,"ĠMel":6792,"ULT":6793,"internal":6794,"ournament":6795,"send":6796,"Ġpolar":6797,"ĠAtl":6798,"ĠIslam":6799,"xx":6800,"Ġcomputer":6801,"Que":6802,"rad":6803,"esh":6804,"Ġgiving":6805,"aligned":6806,"Ġdistinct":6807,"ĠUN":6808,"Ġinequality":6809,"ĠRail":6810,"Ġserve":6811,"Ġassign":6812,"ĠRun":6813,"anda":6814,"ollary":6815,"cknow":6816,"webkit":6817,"msg":6818,"sort":6819,"1985":6820,"allow":6821,"vm":6822,"orney":6823,"req":6824,"Host":6825,"bel":6826,"DIR":6827,"Ġcoach":6828,"ĠAust":6829,"icons":6830,"Ġfoot":6831,"bing":6832,"Ġalt":6833,"Ġprocedure":6834,"'ve":6835,"'\\":6836,"ĠKey":6837,"ĠBusiness":6838,"Ġplot":6839,"Ġencour":6840,"Ġorganizations":6841,"uty":6842,"Ġoccurre":6843,"equal":6844,"Ġconcent":6845,"ĠJud":6846,"Ġauthors":6847,"ORD":6848,"hs":6849,"iciency":6850,"Ġtesting":6851,"poration":6852,"foo":6853,"unched":6854,"Schema":6855,"ils":6856,"(:":6857,"Ġiniti":6858,"ĠSpanish":6859,"eds":6860,"Other":6861,"ĠChild":6862,"Ġparties":6863,"Comple":6864,"Ġnotice":6865,"ncy":6866,"Ġinvoke":6867,"ĠReview":6868,"Ġfirm":6869,"_{{\\":6870,"Ġformation":6871,"Ġdiscussion":6872,"holder":6873,"component":6874,"ployment":6875,"Ġplays":6876,"Ġexperiments":6877,"product":6878,"Ġtensor":6879,"vey":6880,"Ġtransaction":6881,"export":6882,"ĠGen":6883,"Ġcandidate":6884,"Ġextract":6885,"ologies":6886,"ĠTim":6887,"LS":6888,"Ġ$-":6889,"Ġpri":6890,"linewidth":6891,"Ġnamespace":6892,"Ġunion":6893,"amental":6894,"Ġshot":6895,"hover":6896,"Ġinner":6897,"ien":6898,"Ġsatisfies":6899,"arriage":6900,"ĠAtt":6901,"focus":6902,"ĠDate":6903,"),\\":6904,"ĠBGCOLOR":6905,"Ġrul":6906,"Iter":6907,"Ac":6908,"Use":6909,"env":6910,"Ġthous":6911,"Ġtherm":6912,"GET":6913,"Ġscene":6914,"ĠStar":6915,"Ġturned":6916,"Ġannual":6917,"ĠIts":6918,"iant":6919,"Ġtrust":6920,"render":6921,"oday":6922,"ĠHenry":6923,"aser":6924,"Ġvisual":6925,"ĠVictor":6926,"Title":6927,"uce":6928,"EC":6929,"Ġemission":6930,"astr":6931,"Go":6932,"ĠCD":6933,"Ġapproximation":6934,"Ġreports":6935,"ĠBrown":6936,"Art":6937,"Ġflag":6938,"ĠDevelopment":6939,"Ġundefined":6940,"arian":6941,"Ġwrong":6942,"Ġstraight":6943,"Ġjav":6944,"contin":6945,"razil":6946,"ella":6947,"Ġshowed":6948,"Ġisn":6949,"inf":6950,"clear":6951,"rome":6952,"Ġcouple":6953,"ynamic":6954,"Ġoptimal":6955,"Ġexternal":6956,"Ġquickly":6957,"Ġmachine":6958,"Ġmatches":6959,"ĠAv":6960,"inations":6961,"toString":6962,"'_":6963,"Has":6964,"ĠSun":6965,"hom":6966,"Ġaim":6967,"Ġsignificantly":6968,"ĠEqu":6969,"icks":6970,"hab":6971,"Sk":6972,"Ġfif":6973,"Ġquarter":6974,"'>":6975,"Assert":6976,"ĠItaly":6977,"ĠCall":6978,"XX":6979,"standing":6980,"oviet":6981,"Ġnative":6982,"orter":6983,"Ġsymmetry":6984,"Parameters":6985,"ĠShow":6986,"=\"/":6987,"Parser":6988,"ĠDu":6989,"Ġcache":6990,"vas":6991,"stat":6992,"Ġperfect":6993,"Ġ|\\":6994,"ĠNetwork":6995,"Ġopening":6996,"ĠProposition":6997,"Ġcontainer":6998,"ĠHuman":6999,"Ġpositions":7000,"ĠLO":7001,"ĠChief":7002,"Ġgoals":7003,"Ġended":7004,"ĠCode":7005,"Ġthread":7006,"ipeline":7007,"ynchron":7008,"isis":7009,"disabled":7010,"_;":7011,"Ġrestrict":7012,"Ġimag":7013,"Pat":7014,"ĠEngine":7015,"Ġcosts":7016,"osh":7017,"URE":7018,"Ġmunic":7019,"These":7020,"organ":7021,"ĠSecurity":7022,"ERROR":7023,"ĠRegister":7024,"arc":7025,"Ġsplit":7026,"Ġgets":7027,"nel":7028,"ket":7029,"Ġclimate":7030,"ĠTrue":7031,"ĠMethod":7032,"Vector":7033,"ixel":7034,"Ġflat":7035,"ĠMax":7036,"'.":7037,"Draw":7038,"Ġremained":7039,"*{":7040,"full":7041,"Ġclearly":7042,">.":7043,"icity":7044,"fram":7045,"Ġsafety":7046,"PH":7047,"ĠMoreover":7048,"Definition":7049,"Ġpages":7050,"Ġaccuracy":7051,"Ġbus":7052,"Ġgauge":7053,"rev":7054,"ĠKn":7055,"Ġcreating":7056,"1983":7057,"Ġcells":7058,"ĠOh":7059,"Ġowner":7060,"footer":7061,"Ġeconomy":7062,"TS":7063,"Mark":7064,"results":7065,"Ġanc":7066,"Ġhelped":7067,"Dom":7068,"plugin":7069,"power":7070,"Ġadvant":7071,"Cor":7072,"Names":7073,"enty":7074,"fn":7075,"widget":7076,"Ġenh":7077,"Ver":7078,"hemat":7079,"UB":7080,"exports":7081,"sem":7082,"itors":7083,"ĠPy":7084,"Ġextrem":7085,"ĠTop":7086,"150":7087,"ĠFre":7088,"Ġraised":7089,"ja":7090,"Ġcarried":7091,"ĠEach":7092,"Ġletter":7093,"ĠTem":7094,"1950":7095,"'],":7096,"ean":7097,"Ġtheore":7098,"imensions":7099,"idget":7100,"Ġadministration":7101,"Ġreasons":7102,"ĠFilm":7103,"Ġwind":7104,"subfigure":7105,"gorithms":7106,"Ġindust":7107,"Application":7108,"Section":7109,"TV":7110,"Ġhop":7111,"Ġheavy":7112,"Ġchief":7113,"Ġ\\(":7114,"Ġpull":7115,"Ġbeaut":7116,"ilation":7117,"ĠDev":7118,"John":7119,"Ġreferred":7120,"Rect":7121,"Ġanswer":7122,"Ġconstraints":7123,"Ġnuclear":7124,"Ġformal":7125,"Device":7126,"neg":7127,"Ġdu":7128,")}(":7129,"Ġroute":7130,"Ġ{};":7131,"handle":7132,"Ã³n":7133,"Ġsimulations":7134,"Ġdual":7135,"Ġsenior":7136,"SR":7137,"virtual":7138,"Ġnumerical":7139,"Each":7140,"forms":7141,"Ġdespite":7142,"Ġvertices":7143,"Ġloop":7144,"Ġmill":7145,"ĠĠĠĠĠĠĊ":7146,"Ġpret":7147,"points":7148,"Att":7149,"Ġfraction":7150,"Ġcommit":7151,"}}(\\":7152,"ato":7153,"Ġcombined":7154,"ji":7155,"Ġgrowing":7156,"hesis":7157,"ĠHence":7158,"Ġcompare":7159,"Args":7160,"ĠLake":7161,"Ġinfr":7162,"seud":7163,"Ġpp":7164,"1982":7165,"Il":7166,"_{-":7167,"Ġeveryone":7168,"Ġbill":7169,"ATH":7170,"uple":7171,"leep":7172,"Ġclaims":7173,"iffer":7174,"ĠUs":7175,"Ġmeasurements":7176,"icients":7177,"Ġcontributions":7178,"Ġsave":7179,"ĠYoung":7180,"Ġincreases":7181,"Ġsurpr":7182,"âĢĿ.":7183,"Ġdomin":7184,"click":7185,"ression":7186,"Ġ$.":7187,"estamp":7188,"Template":7189,"ĠSund":7190,">();":7191,"Ġofficials":7192,"Pop":7193,"Ġpoly":7194,"care":7195,"ĠEconom":7196,"elligence":7197,"Ġcalculated":7198,"###":7199,"Ġstack":7200,"panel":7201,"ĠCarolina":7202,"Ġfarm":7203,"Ġbroadcast":7204,"Ġfelt":7205,"Stack":7206,"Ġawarded":7207,"ĠMartin":7208,"\",\"":7209,"ĠHon":7210,"orning":7211,"Ġidentify":7212,"Ġrelatively":7213,"cloud":7214,"Ġexc":7215,"fields":7216,"Decl":7217,"utch":7218,"Ġmostly":7219,"pool":7220,"ĠMur":7221,"Ġfreedom":7222,"Ġcorresponds":7223,"Ġmomentum":7224,"ĠFootball":7225,"ĠSummer":7226,"Ġfailure":7227,"Ġ['":7228,"ĠBre":7229,"Ġexperimental":7230,"asy":7231,"Ġstations":7232,"Ġaircraft":7233,"Handle":7234,"Ġangle":7235,"Ġdisk":7236,"Writer":7237,"pute":7238,"ĠEarth":7239,"Ġ})":7240,"AND":7241,"Ġemail":7242,"120":7243,"Ġhundred":7244,"Ġdelete":7245,"Ġclust":7246,"!!":7247,"sear":7248,"ola":7249,"ĠĠĠĠĠĠĠĠĠĠĠĠĠĠĠĠĠĠ":7250,"sche":7251,"sel":7252,"Ġspectral":7253,"double":7254,"Bytes":7255,"ĠUSA":7256,"nam":7257,"Ġut":7258,"Sum":7259,"Ġarrest":7260,"Ġexchange":7261,"Ã§":7262,"TC":7263,"Ġparse":7264,"roduction":7265,"Ġedges":7266,",\\,":7267,"byte":7268,"shot":7269,"Ġprefer":7270,"_{(":7271,"spe":7272,"Ġassumption":7273,"Red":7274,"Ġconstructed":7275,"Parent":7276,"ĠFederal":7277,"Ġbyte":7278,"Ġ++":7279,"Ġcombination":7280,"alg":7281,";\"":7282,"iders":7283,"ĠUse":7284,"Ġopin":7285,"iber":7286,"Ġoil":7287,"osoph":7288,"1979":7289,"Ġdigital":7290,"orner":7291,"settings":7292,"ishop":7293,"Ġpoll":7294,"`.":7295,"ĠBi":7296,"Ġtrial":7297,"Ġoffers":7298,"ny":7299,"ko":7300,"Reader":7301,"MC":7302,"cf":7303,"}$-":7304,"cut":7305,"LP":7306,"gypt":7307,"Ġwor":7308,"fony":7309,"}%":7310,"Policy":7311,"ĠCast":7312,"ĠDet":7313,"posite":7314,"ultural":7315,"oves":7316,"mann":7317,"Ġfeatured":7318,"cases":7319,"Ġsal":7320,"asi":7321,"asion":7322,"Classes":7323,"ski":7324,"eler":7325,"ymfony":7326,"Ġmixed":7327,"ĠRequ":7328,"Ġinterested":7329,"Values":7330,"160":7331,"ĠMedia":7332,"Ġactor":7333,"Ġolder":7334,"pective":7335,"stein":7336,"ĠSpr":7337,"custom":7338,"eries":7339,"ORM":7340,"Ġvs":7341,"Ã¨":7342,"Ġpiece":7343,"vol":7344,"ĠStep":7345,"BR":7346,"Ġrise":7347,"perp":7348,"connect":7349,"1981":7350,"cluded":7351,"WS":7352,"-->":7353,"Ġhistorical":7354,"framework":7355,"Ġtypically":7356,"Ġachiev":7357,"Ġlived":7358,"MD":7359,"Ġbinary":7360,"Ġsites":7361,"look":7362,"car":7363,"Ġregime":7364,"Tool":7365,")\\,":7366,"Sing":7367,"help":7368,"rich":7369,"iday":7370,"Ġguarant":7371,")^{\\":7372,"front":7373,"Ġrac":7374,"usband":7375,"Ġstrugg":7376,"ĠAmericans":7377,"Ġcontained":7378,"ĠMil":7379,"amm":7380,"sto":7381,"Ġdiss":7382,"Ġunless":7383,"Ġobvious":7384,"secut":7385,"Ġsimulation":7386,"padding":7387,"Ġprof":7388,"Ġrequirements":7389,"overnor":7390,"Ġdetection":7391,"ĠSil":7392,"Ġbattle":7393,"HTML":7394,"ipe":7395,"ĠBur":7396,"Ġintegral":7397,"porate":7398,"(*":7399,"Ġnumerous":7400,";<":7401,"False":7402,"Ġcultural":7403,"Ġexpressed":7404,"ĠSpe":7405,"replace":7406,"rices":7407,"SSERT":7408,"ĠPet":7409,"Ġdepartment":7410,"Meta":7411,"Ġmaterials":7412,"Invalid":7413,"anging":7414,"store":7415,"Ġpairs":7416,"ĠOp":7417,"inet":7418,"ĠLine":7419,"claim":7420,"Ġamplit":7421,"Ġhar":7422,"patch":7423,"ĠBob":7424,"Ġmolec":7425,"Ġentity":7426,"Ġterrit":7427,"material":7428,"ĠJewish":7429,"Ġhospital":7430,"Ġcitizens":7431,"ĠFestival":7432,"nections":7433,"ĠCam":7434,"=#":7435,"ĠIII":7436,"Ġpropag":7437,"Ġforced":7438,"mc":7439,"itness":7440,"Ġshoot":7441,"going":7442,"Argument":7443,"Ġpaid":7444,"ĠScot":7445,"ĠOld":7446,"iana":7447,"Ġbecoming":7448,"Ġcoupling":7449,"Ġple":7450,"Ġvoc":7451,"OM":7452,"=\"\"":7453,"romise":7454,"Ġos":7455,"ulty":7456,"unct":7457,"DI":7458,"attribute":7459,"Ġ+\\":7460,"AME":7461,"Main":7462,"Ġ}\\":7463,"shape":7464,"ĠMath":7465,"Ġestimates":7466,"unities":7467,"Ġlaunched":7468,"short":7469,"icip":7470,"Ġtraff":7471,"ĠWal":7472,"agnost":7473,"ĠLee":7474,"ĠJSON":7475,"angular":7476,"Ġpartial":7477,"Ġinline":7478,"ĠJim":7479,"Ġheader":7480,"bu":7481,"Ġstrength":7482,"Ġachieve":7483,"}\"":7484,"defined":7485,"Body":7486,"ĠFort":7487,"wa":7488,"yan":7489,"sive":7490,"istent":7491,"andemic":7492,"ĠVis":7493,"aration":7494,"category":7495,"Figure":7496,"Ġalternative":7497,"]]":7498,"fully":7499,"Ġofficers":7500,"Ġalone":7501,"Ġpropos":7502,"Ġremember":7503,"Ġabsolute":7504,"dist":7505,"Doc":7506,"oving":7507,"Ġtechniques":7508,"Wrap":7509,"Num":7510,"forall":7511,"boolean":7512,"Ġuniversity":7513,"Ġattract":7514,"bits":7515,"Ġthr":7516,"ĠServices":7517,"yer":7518,"Ġmusical":7519,"Ġapproaches":7520,"Ġarbitrary":7521,"ads":7522,"ĠOlympics":7523,"Symbol":7524,"dependency":7525,"Ġarchitecture":7526,"Ġcomputed":7527,"hem":7528,"Ġminister":7529,"Ġhidden":7530,"Ġtool":7531,"ĠSwed":7532,"Ġsampl":7533,"Ġstable":7534,"Any":7535,"Ġresear":7536,"Debug":7537,"ĠFri":7538,"Ġtouch":7539,"ĠWell":7540,"Ġentered":7541,"ĠColumb":7542,"Ġcities":7543,"Ġcorrelation":7544,"Ġassumed":7545,"Ġ('":7546,"register":7547,"Found":7548,"ĠCivil":7549,"Ġefficient":7550,"Ġstock":7551,"Ġtasks":7552,"Exp":7553,"Err":7554,"Ġthreshold":7555,"cpp":7556,"ĠTheir":7557,"coin":7558,"Ġmurder":7559,"ĠValue":7560,"acific":7561,"SION":7562,"Ġsust":7563,"Ġdivision":7564,"Eq":7565,"Ġshowing":7566,"Ġlattice":7567,"akistan":7568,"Ġcreation":7569,"Boolean":7570,"'}":7571,"256":7572,"men":7573,"Ġonto":7574,"ĠLibrary":7575,"ĠMos":7576,"etry":7577,"comment":7578,"ona":7579,"iano":7580,"ockey":7581,"Ġsegment":7582,"ĠColor":7583,")_{":7584,"----------------------------------------------------------------":7585,"aters":7586,"1978":7587,"ECT":7588,"adr":7589,"Ġfamous":7590,"ĠJoseph":7591,"airman":7592,"Ġorient":7593,"oston":7594,"Ġwinning":7595,"Ġdetailed":7596,"Ġattr":7597,"ĠId":7598,"ĠAsia":7599,"ĠJes":7600,"effect":7601,"zing":7602,"multi":7603,"poss":7604,"blockList":7605,"toggle":7606,"modules":7607,"Ġrapid":7608,"ĠLie":7609,"}^*":7610,"ogene":7611,"Ġpolicies":7612,"Ġnewsp":7613,"Ġagreed":7614,"Delete":7615,"Ġwaves":7616,"TED":7617,"initial":7618,"Ġlabor":7619,"olver":7620,"Ġexecutive":7621,"ga":7622,"Ġcentre":7623,"Car":7624,"lers":7625,"Custom":7626,"Ð»":7627,"ĠAwards":7628,"ĠMany":7629,"Ġleadership":7630,"Ġdecay":7631,"Ġintroduce":7632,"Dialog":7633,"1976":7634,"subsubsection":7635,"Ġsales":7636,"Ġspirit":7637,"ansas":7638,"ĠManagement":7639,"lie":7640,"just":7641,"Ġdepth":7642,"Ġinsert":7643,"Ġcoefficients":7644,"Ġintr":7645,"Ġpurposes":7646,"ĠInitial":7647,"Ġalumni":7648,"ĠNavy":7649,"anguages":7650,"ĠDom":7651,"Ġunsigned":7652,"1972":7653,"According":7654,"ester":7655,"ests":7656,"Descriptor":7657,"auto":7658,"flo":7659,"Ġregarding":7660,"ults":7661,"Ġinvestment":7662,"phone":7663,"ĉĉĉĊ":7664,"Ġsister":7665,"pmatrix":7666,"Ġdelay":7667,"dict":7668,"Ġcommunication":7669,"Ġfine":7670,"rate":7671,"ĠWood":7672,"Ġring":7673,"email":7674,"insert":7675,"Job":7676,"ova":7677,"Only":7678,"Metadata":7679,"Ġpush":7680,"Ġblocks":7681,"Ġissued":7682,"DP":7683,"Ġprocessing":7684,"onym":7685,"ĠJustice":7686,"Ġbytes":7687,"ĠHTML":7688,"ĠGood":7689,"Ġheard":7690,"ĠYour":7691,"Ġcommission":7692,"Ġideas":7693,"application":7694,"Ġmask":7695,"itan":7696,"Ġscalar":7697,"Ġdifferences":7698,"Ġimportance":7699,"phas":7700,"Var":7701,"ĠMa":7702,"Further":7703,"1977":7704,"Ġpure":7705,"ru":7706,"clip":7707,"Click":7708,"ima":7709,"Ġrecall":7710,"plications":7711,"Ġserial":7712,"Ġwasn":7713,"Second":7714,"prec":7715,"callback":7716,"blue":7717,"Ġcycle":7718,"Cre":7719,"ĠHome":7720,"Ġpaint":7721,"////////////////////////////////":7722,"ĠLove":7723,"Ġproved":7724,"vania":7725,"gest":7726,"ador":7727,"Ġvoice":7728,"\\!\\!":7729,"Ġvac":7730,"ĠEr":7731,"raq":7732,"install":7733,"acket":7734,"ĠBritain":7735,"family":7736,"Ġinnov":7737,"ĠÂ£":7738,"iro":7739,"Ġprotocol":7740,"ĠLin":7741,"ĠPubl":7742,"ĠJohnson":7743,"elli":7744,"Ġoffered":7745,"kins":7746,"Ġstress":7747,"ĠEvent":7748,"`,":7749,"etween":7750,"Root":7751,"Before":7752,"admin":7753,"Api":7754,"Ġtor":7755,"Ġviolence":7756,"Ġachieved":7757,"1975":7758,"urban":7759,"Ġcloud":7760,"ums":7761,"ĠSenate":7762,"1974":7763,"ĠIO":7764,"jpg":7765,"Ġbehavi":7766,"andard":7767,"Ġsinger":7768,"Ġemployees":7769,"erg":7770,"olk":7771,"Rule":7772,"Ġinterval":7773,"ĠKar":7774,"Ġstorage":7775,"called":7776,"Ġclassification":7777,"Ġclin":7778,"Ġslightly":7779,"ĠAff":7780,"Ġexcit":7781,"Ġsubset":7782,"estic":7783,"ĠJul":7784,"abil":7785,"__(":7786,"textsc":7787,"ucket":7788,"je":7789,"vision":7790,"ĠOl":7791,"Ġsections":7792,"plements":7793,"Ġjson":7794,"Ġfootballers":7795,"TEST":7796,"Ġhousehold":7797,"ali":7798,"Ġhusband":7799,"ĠEven":7800,"Ġhappen":7801,"ĠEmp":7802,"MB":7803,"Enabled":7804,")^{-":7805,"sime":7806,"END":7807,"Ġlatest":7808,"ĠRights":7809,"Ġsea":7810,"syl":7811,"andra":7812,"Ġwriters":7813,"picture":7814,"Ġicon":7815,"ĠTour":7816,"ĠassertEquals":7817,"plugins":7818,"ĠParliament":7819,"simeq":7820,"ĠBrazil":7821,"uing":7822,"clusive":7823,"nergy":7824,"Byte":7825,"Xml":7826,"During":7827,"ĠAdministr":7828,"Ġfundamental":7829,"Ġjobs":7830,"Ġtruth":7831,"Ġexport":7832,"Ġdraft":7833,"Ġwrap":7834,".~(\\":7835,"Ġcovered":7836,"fri":7837,"Ġprotection":7838,"Ġinitially":7839,"Ġpul":7840,"Ġcoast":7841,"Ġ$$":7842,"ĠMiddle":7843,"acle":7844,"Ġaware":7845,"ĠSoviet":7846,"Ġanalog":7847,"1973":7848,"Network":7849,"Ġ\"/":7850,"uer":7851,"Ġoccurs":7852,"ĠUser":7853,"NG":7854,"wan":7855,"ĠEgypt":7856,"ITY":7857,"tail":7858,"Ġfunding":7859,"Ġvertical":7860,"anner":7861,"HS":7862,"FR":7863,"herit":7864,"Ġdefend":7865,"'))":7866,"Ġappearance":7867,"ĠLord":7868,"Ġperturb":7869,"ses":7870,"AGE":7871,"Ġdistributions":7872,"ographic":7873,"Ġalloc":7874,"enter":7875,"ĠHot":7876,"gg":7877,"Ġedition":7878,"Person":7879,"Hz":7880,"Ġdecom":7881,"ĠGlobal":7882,"ĠKh":7883,"Ġspeak":7884,"Ġdirectory":7885,"Ġweap":7886,"ĠTra":7887,"Ġalgorithms":7888,"Ġcriminal":7889,"udes":7890,"ACE":7891,"Ġreject":7892,"$).":7893,"Ġgrid":7894,"Ġindicates":7895,"rical":7896,"Ġstrongly":7897,"Ġdetect":7898,"Ġmodes":7899,"Ġauthority":7900,"Ġrout":7901,"anks":7902,"128":7903,"margin":7904,"ĠAuthor":7905,"Ġtransformation":7906,"Ġrare":7907,"âĢĿ,":7908,"Ġvisible":7909,"ĠMuslim":7910,"Ġul":7911,"ĠSpecial":7912,"rames":7913,"cape":7914,"Ġcurves":7915,"pressed":7916,"Ġstudio":7917,"ĠAL":7918,"ĠBecause":7919,"Ġviews":7920,"names":7921,"Ġtoward":7922,"rine":7923,"Ġcalc":7924,"shall":7925,"iced":7926,"Ġarm":7927,"1968":7928,"Ġproducer":7929,"Tests":7930,"ĠValley":7931,"ĠTechnology":7932,"Ġ'/":7933,"keys":7934,"atible":7935,"dates":7936,"Ġmainly":7937,"Ġpet":7938,"Ġaxis":7939,"IX":7940,"ĠTre":7941,"Ġfinding":7942,"Ñĥ":7943,"mond":7944,"Widget":7945,"Ġdenotes":7946,"radius":7947,"Ġcontinues":7948,"va":7949,"Storage":7950,"ĠCentre":7951,"Ġleaving":7952,"Ġvary":7953,"ĠError":7954,")).":7955,"agonal":7956,"Ġreduction":7957,"FAULT":7958,"henomen":7959,"Ġfaith":7960,"Ġideal":7961,"Ul":7962,"Ġrepresenting":7963,"ĠInformation":7964,"Ġcancer":7965,"sylvania":7966,"Ġfocused":7967,"people":7968,"Ġchallenge":7969,"Show":7970,"stable":7971,"ĠSpain":7972,"operation":7973,"Ġmsg":7974,"mock":7975,"region":7976,"mazon":7977,"Ġsemi":7978,"ĠHand":7979,"het":7980,"nership":7981,"Ġsn":7982,"Ġnine":7983,"Ġordered":7984,"Package":7985,"Ġking":7986,"ĠView":7987,"ĠTeam":7988,"Ġmeasurement":7989,"ĠÂ§":7990,"ĠHaw":7991,"PRE":7992,"Ġresidents":7993,"ĠBoth":7994,"Ġjourn":7995,"master":7996,"itionally":7997,"ĠJac":7998,"Ġoperating":7999,"pendix":8000,"ĠNorthern":8001,"ĠIrish":8002,"annotation":8003,"Med":8004,"Ġbudget":8005,"ĠPlan":8006,"istical":8007,"bc":8008,"eller":8009,"MR":8010,"Ġindicate":8011,"Ġens":8012,"Ġ(*":8013,"cean":8014,"Ðº":8015,"Ġult":8016,"Ġowned":8017,"GS":8018,"Ġwood":8019,"enth":8020,"Ġpan":8021,"Ġsafe":8022,"Ġpandemic":8023,"Ġlearned":8024,"odies":8025,"emporary":8026,"pton":8027,"Ġhydro":8028,"low":8029,"DR":8030,"ilib":8031,"Mock":8032,"rick":8033,"Ġpartner":8034,"ĠLu":8035,"Ġconducted":8036,"Ġ=\\":8037,"Ġmanaged":8038,"law":8039,"Ġinteractions":8040,"Ġadding":8041,"ĠNOT":8042,"acebook":8043,"Ġinvariant":8044,"Initial":8045,"Tab":8046,"Ġsingular":8047,"Ġupdated":8048,"Year":8049,"Ġ<=":8050,"})$.":8051,"\\|_{":8052,"numer":8053,"Ġinstitutions":8054,"ĠJones":8055,"rons":8056,"Member":8057,"Ġgap":8058,"Channel":8059,"Ġcomments":8060,"ading":8061,"Ġparallel":8062,"ĠSupreme":8063,"Ġsexual":8064,"Ġ),":8065,"ĠNav":8066,"Ġacts":8067,"Ġmock":8068,"Some":8069,"ira":8070,"ĠDemocratic":8071,"Changed":8072,"Ġroll":8073,"$$\\":8074,"tests":8075,"othing":8076,"Ġattacks":8077,"ĠNO":8078,"pan":8079,"ĠPri":8080,"Ġattended":8081,"Ġschedul":8082,"Ġpool":8083,"none":8084,"ĠĠĠĠĠĠĠĠĠĠĠĠĠĠĠĠĠĠĠĠĠĠĠĠĠ":8085,"CI":8086,"Ġmedal":8087,"Ġadopted":8088,"Thus":8089,"eli":8090,"Ġdefin":8091,"Ġsubstant":8092,"ĠJo":8093,"uries":8094,"Ġneighborhood":8095,"uous":8096,"arden":8097,"Ġcircle":8098,"Ġnam":8099,"ceived":8100,"aylor":8101,"ĠOnt":8102,"'ll":8103,"udio":8104,"istration":8105,"Ġcat":8106,"{$\\":8107,"123":8108,"rip":8109,"ĠSouthern":8110,"Ġwild":8111,"ulf":8112,"ĠCommunity":8113,"alid":8114,"Ġintended":8115,"ĠCopy":8116,"La":8117,"1971":8118,"ĠProfessor":8119,"Ġmodified":8120,"rawn":8121,"Di":8122,"forward":8123,"Ġdrive":8124,"Ġmassive":8125,"ĠIP":8126,"Ġkept":8127,"Ġpartition":8128,"1969":8129,"fix":8130,"Ġdriver":8131,"Ġtools":8132,"Ġabsor":8133,"ĠGal":8134,"ĠPan":8135,")}{\\":8136,"Äĩ":8137,"ĠAR":8138,"Ġanyone":8139,"Ġdesc":8140,"newcommand":8141,"axis":8142,"pa":8143,"ati":8144,"grid":8145,"){\\":8146,"Ġsynt":8147,"important":8148,"Ġreader":8149,"chen":8150,"remark":8151,"Ġpicture":8152,"ĠSaint":8153,"Ġmatrices":8154,"ĠÎ":8155,"Ġpowerful":8156,"inline":8157,"Ġ{$":8158,"Display":8159,"Ġdistingu":8160,"110":8161,"Ġproport":8162,"exception":8163,"hell":8164,"stop":8165,";/":8166,"domain":8167,"Ġregional":8168,"cmd":8169,"ela":8170,"Ġconsult":8171,"Ġtypical":8172,"ierarch":8173,"ĠElect":8174,"Ljava":8175,"Ġblood":8176,"Ġodd":8177,"Ġisland":8178,"Ġdecades":8179,"Ġdependence":8180,"Members":8181,"Float":8182,"Ġtrained":8183,"ĠIraq":8184,"Ġstatistics":8185,"Fields":8186,"impl":8187,"spring":8188,"Ġinvestigation":8189,"ĠConference":8190,"ĠCross":8191,")_":8192,"Ġbusinesses":8193,"=\"../../../":8194,"Ġcounty":8195,"cknowled":8196,"Ġdocuments":8197,"Match":8198,"Ġknew":8199,"Ġspatial":8200,"Ġhands":8201,"hy":8202,"Ġjavax":8203,"Ġbenefits":8204,"ĠWay":8205,")$-":8206,"ĠGreek":8207,"Ø§":8208,"Ġlimits":8209,"Ġtechnical":8210,"ĠLi":8211,"Ġassigned":8212,"Ġbounds":8213,"Ġscored":8214,"ĠWales":8215,"ĠOrgan":8216,"Ġsqu":8217,"Lock":8218,"password":8219,"adoop":8220,"heast":8221,"mediate":8222,"Ġcoordinates":8223,")\\\\":8224,"Ġarticles":8225,"security":8226,"Ġdiscovered":8227,"\\_":8228,"iful":8229,"Ġlies":8230,"oti":8231,"DC":8232,"Ġbasketball":8233,"Ġacademic":8234,"itage":8235,"Ġadm":8236,"weet":8237,"super":8238,"Ġsetup":8239,"Ġbenefit":8240,"Ġbelieved":8241,"omorphic":8242,"ighter":8243,"Ident":8244,"Ġpy":8245,"Äģ":8246,"Ġchance":8247,"eless":8248,"ĠPakistan":8249,"ffect":8250,"Ġdegrees":8251,"Ġserving":8252,"Ġpolitics":8253,"Ġpil":8254,"Ġsymmetric":8255,"Ġcircum":8256,"Ġil":8257,"scape":8258,"Ġpsych":8259,"Ġcool":8260,"adium":8261,"connection":8262,"\")]":8263,"Ġready":8264,"Theorem":8265,"Ġenvironmental":8266,"Ġclaimed":8267,"Ġplanning":8268,"Ġapparent":8269,"Ġspectra":8270,"Ġspeech":8271,"ango":8272,"FILE":8273,"ĠBoston":8274,"Account":8275,"tw":8276,"kg":8277,"$^{-":8278,"}}^{":8279,"imit":8280,"onical":8281,"Vol":8282,"}}^":8283,"Ġaffected":8284,"~$\\":8285,"1940":8286,"stone":8287,"ĠAN":8288,"ĠSunday":8289,"Ġreplace":8290,"uby":8291,"Active":8292,"Queue":8293,"idel":8294,"JSON":8295,"ĠGame":8296,"=\"@":8297,"Ġperhaps":8298,"Ġemphas":8299,"Ġexplained":8300,"Const":8301,"ĠPennsylvania":8302,"otted":8303,"Ġattributes":8304,"tributed":8305,"Ġreality":8306,"bot":8307,"Cond":8308,"Ġconference":8309,")),":8310,"olds":8311,"ependence":8312,"Ġagree":8313,"Ġacting":8314,"Ġisol":8315,"ĠTele":8316,"Ġstellar":8317,"Ġretr":8318,".'":8319,"aria":8320,"unsigned":8321,"Ġinstanceof":8322,"Activity":8323,"Ġchemical":8324,"Ġcrisis":8325,"WA":8326,"events":8327,"Ġtournament":8328,"Ġyields":8329,"Ġterror":8330,"Ġfans":8331,"ashion":8332,"Ġbin":8333,"cuss":8334,"writer":8335,"MENT":8336,"such":8337,"Ġnorthern":8338,"eces":8339,"Ġobserve":8340,"TEX":8341,"Ġpretty":8342,"1967":8343,"mapsto":8344,"Ġsuc":8345,"two":8346,"assets":8347,"Ġran":8348,"ĠGaussian":8349,"move":8350,"Ġchallenges":8351,"ĠURL":8352,"Flags":8353,"Ġdeveloping":8354,"fly":8355,"Ġsouthern":8356,"CHE":8357,"Ġnor":8358,"Ġcrime":8359,"Ġtrend":8360,"Ġhappened":8361,"ito":8362,"Ġtend":8363,"Del":8364,"Ġsatisfy":8365,"roph":8366,"leton":8367,"aka":8368,"Ġmagazine":8369,"Transaction":8370,"tri":8371,"Ġgain":8372,"DT":8373,"Ġforest":8374,"Ġprofessor":8375,"urrency":8376,"Perm":8377,"Ġss":8378,"odot":8379,"ificate":8380,"Ġfacilities":8381,"addr":8382,"Timeout":8383,"ĠAND":8384,"named":8385,"Ġadvantage":8386,"ĠText":8387,".*":8388,"ĠMA":8389,"ĠSir":8390,"ĠCamb":8391,"Ġrough":8392,"Ġhypot":8393,"bad":8394,"MT":8395,"Ġriver":8396,"tik":8397,"stra":8398,"Ġwonder":8399,"apes":8400,"mic":8401,"Ġsummary":8402,"ĠPolicy":8403,"Ġimplemented":8404,"plot":8405,"ĠWall":8406,"uctions":8407,"mosp":8408,"items":8409,"ĠĠĠĠĠĠĠĠĠĠĠĠĠĠĠĠĠĠĠĠĠĠĠĠĠĠĠĠĠĠĠĠĠĠĠĠĠĠĠĠĠĠĠĠĠĠĠĠĠĠĠĠĠĠĠĠĠĠĠĠĠĠĠĠ":8410,"Ġextr":8411,"ookie":8412,"Public":8413,"Ġfunds":8414,"hav":8415,"ĠAny":8416,"Ġsucceed":8417,"Pool":8418,"ĠWilliams":8419,"1945":8420,"profile":8421,"recated":8422,"iki":8423,"IE":8424,"aby":8425,"Ġadjust":8426,"ĠMain":8427,"Ġaccepted":8428,"Ġallowing":8429,"hetic":8430,"ponential":8431,"Ġconsidering":8432,"Ġorders":8433,"_,":8434,"Ġwall":8435,"Ġphenomen":8436,"ĠPop":8437,"They":8438,"rium":8439,"Ġattend":8440,"Ġdepending":8441,"Obj":8442,"coq":8443,"1930":8444,"Ġexerc":8445,"ĠMichigan":8446,"rence":8447,"ĠFund":8448,"[(":8449,"Ġoccurred":8450,"Ġtried":8451,"ĠUsing":8452,"Ġvacc":8453,"ĠJoe":8454,"Ġmechanism":8455,"Ġconvers":8456,"ĠSO":8457,"KEY":8458,"Ġhear":8459,"Ġpeace":8460,"ented":8461,"Ġdevices":8462,"vs":8463,"Ġlaunch":8464,"Ġunderlying":8465,"protobuf":8466,"network":8467,"250":8468,"zz":8469,"Det":8470,"Ġice":8471,"hentication":8472,"Ġfellow":8473,"Using":8474,"Ġconfirmed":8475,"gers":8476,"ĠEmpire":8477,"Ġactress":8478,"ĠOnly":8479,"Ġmarriage":8480,"Ġrecommend":8481,"Ġarmy":8482,"ben":8483,"Ġlab":8484,"ĠMajor":8485,"bell":8486,"idae":8487,"edge":8488,"Will":8489,"Ġwallet":8490,"arts":8491,"ĠSar":8492,"area":8493,"Ġconvergence":8494,"ĠFrancisco":8495,"CF":8496,"ĠMedical":8497,"herent":8498,"ĠRepresent":8499,"Ġmessages":8500,"Ġmorph":8501,"primary":8502,"-(":8503,"%%%%":8504,"600":8505,"wer":8506,"Cons":8507,"Ġkeys":8508,"Ġseasons":8509,"Ġhtml":8510,"proposition":8511,"Ġextend":8512,"ridge":8513,"properties":8514,"ĠPoint":8515,"ĠBack":8516,"World":8517,"Orig":8518,"MI":8519,"inois":8520,"Ġbrand":8521,"Ġenable":8522,"Init":8523,"Ġvehicle":8524,"Ġsuggested":8525,"TABLE":8526,"ampion":8527,"unte":8528,"ĠFed":8529,"ĠExecut":8530,"May":8531,"Ġcalling":8532,"Ġpolitician":8533,"ARY":8534,"osis":8535,"Extension":8536,"sky":8537,"emy":8538,"aling":8539,"ĠPlay":8540,"Ġ^":8541,"para":8542,"Ġ&=&":8543,"Ġprinciple":8544,"Ġsuccessfully":8545,"Home":8546,"Ġhuge":8547,"ĠĠĠĠĠĠĠĠĠĠĠĠĠĠĠĠĠĠĠĠĠĠĠĠ":8548,"Ġsupply":8549,"Ġcref":8550,"ĠMov":8551,"_->":8552,"ĠDefault":8553,"enant":8554,"bas":8555,"Support":8556,"ĠOhio":8557,"Ġelem":8558,"Ġconsole":8559,"})+":8560,"adel":8561,"Ġscientific":8562,"dy":8563,"ĠFinally":8564,"thread":8565,"ĠFunction":8566,"Ġmatching":8567,"floor":8568,"ĠEU":8569,"1964":8570,"}&":8571,"ĠHig":8572,"ĠVAL":8573,"Ġmeant":8574,"las":8575,"Ġdb":8576,"ĠOx":8577,"ĠStudies":8578,"Ġentries":8579,"BP":8580,"Av":8581,"notation":8582,"Ġcolon":8583,"Ġcandidates":8584,"ugby":8585,"======":8586,"scroll":8587,"Ġconstraint":8588,"astructure":8589,"ĠBow":8590,"Ġmanner":8591,"Ġmapping":8592,"ĠEnter":8593,")},":8594,"Ġmuseum":8595,"Sch":8596,"Ġelections":8597,"Ġinstrument":8598,"ĠJersey":8599,"Yk":8600,"aug":8601,"Ġwidely":8602,"Ġdedicated":8603,"elegate":8604,"Ġsolar":8605,"@\"":8606,"Ġyouth":8607,"ĠPower":8608,"orders":8609,"NotNull":8610,"Ġrevealed":8611,"Msg":8612,"Early":8613,"ĠKong":8614,"ograp":8615,"Ġinterests":8616,"Ġvisited":8617,"ĠCommon":8618,"ĠKorea":8619,"lyph":8620,"har":8621,"ĠJeff":8622,"Ġtrigger":8623,"Ġvictory":8624,"etts":8625,"Media":8626,"Background":8627,"Ġvectors":8628,"ĠSte":8629,"ĠGir":8630,"\">&":8631,"Ġpromin":8632,"BI":8633,"iples":8634,"obs":8635,"Ġgirl":8636,"ĠRadio":8637,"anes":8638,"Ġstarts":8639,"Ġadvoc":8640,"zen":8641,"abeth":8642,"aturday":8643,"ĠRam":8644,"ibli":8645,"Scope":8646,"(!":8647,"iser":8648,"ĠSU":8649,"Ġmarked":8650,"Step":8651,"ione":8652,"Ġbutton":8653,"Ġplanet":8654,"ancel":8655,"pay":8656,"Ġspl":8657,"$;":8658,"Ġexplain":8659,"Ġtraffic":8660,"each":8661,"ĠPacific":8662,"JQ":8663,"Ġdynamic":8664,"BE":8665,"ĠOntario":8666,"Ġrect":8667,"INFO":8668,"ĠBern":8669,"Prop":8670,"exists":8671,"Database":8672,"andon":8673,"ivery":8674,"ĠFree":8675,"Ġagency":8676,"ĠQueen":8677,"Ġpi":8678,"Ġremark":8679,"home":8680,"ĠReport":8681,"Ġdaily":8682,"Ġcov":8683,"site":8684,"controller":8685,"Ġminimal":8686,"total":8687,"Ġprincipal":8688,"Ġversions":8689,"Ġkernel":8690,"Ġchannels":8691,"Ġng":8692,"Ġhandler":8693,"Attributes":8694,"Ġasympt":8695,"dropdown":8696,"grade":8697,"lat":8698,"ĠPolice":8699,"BUG":8700,"ilibrium":8701,"ĠEvery":8702,"Ġexpert":8703,"-$":8704,"ted":8705,"Ġindeed":8706,"achus":8707,"Yi":8708,"acro":8709,"Inv":8710,"Auth":8711,"scriptstyle":8712,"ĠMaster":8713,"Ġcredit":8714,"Ġsomew":8715,"Ġstatements":8716,")))":8717,"ĠAsian":8718,"tikz":8719,"IST":8720,"Ġdemocr":8721,"ĠMP":8722,"mi":8723,"uses":8724,"mma":8725,"Send":8726,"Care":8727,"gency":8728,"hadoop":8729,"MAX":8730,"orship":8731,"ĠAction":8732,"ĠGeorgia":8733,"mI":8734,"|_{":8735,"lg":8736,"1920":8737,"nn":8738,"Ġoptional":8739,"Editor":8740,"Ġapi":8741,"desc":8742,"Ġstandards":8743,"'(":8744,"ĠBlue":8745,"Ġauthorities":8746,"forcement":8747,"ĠSol":8748,")\"":8749,"Ġreson":8750,"=\"\">":8751,"ĠVan":8752,"appe":8753,"channel":8754,"ipality":8755,"aught":8756,"onto":8757,"ooks":8758,"ĠHead":8759,"Ġfear":8760,"\\{\\":8761,"ĠLead":8762,"Ġrecording":8763,"limit":8764,"ĠRepublican":8765,"Ġdimensions":8766,"Ġfill":8767,"ĠVersion":8768,"tsd":8769,"Notes":8770,"Ġgalaxy":8771,"Ġpod":8772,"eness":8773,"bury":8774,"SM":8775,"verb":8776,"throws":8777,"record":8778,"ups":8779,"Ġequipment":8780,"Ġaudience":8781,"arrier":8782,"Ġcolumns":8783,"cam":8784,"oir":8785,"English":8786,"101":8787,"Ġoptical":8788,"Ġhousing":8789,"Ġbalance":8790,"ĠPolit":8791,"Ġprimarily":8792,"words":8793,"Ġchanging":8794,"rase":8795,"iger":8796,"ĠĠĠĠĠĠĠĠĠĠĠĠĠĠĠĠĠĠĠĠĠĠ":8797,"Ġlocations":8798,"1965":8799,"]:":8800,"Product":8801,"Ġencoding":8802,"Ġbtn":8803,"Oe":8804,"Ä±":8805,"Logger":8806,"Ġnotes":8807,"gment":8808,"Ġearned":8809,"Ġtal":8810,"Ġ%}":8811,"LOG":8812,"AF":8813,"displaystyle":8814,"queue":8815,"loop":8816,"unior":8817,"ails":8818,"urer":8819,"ĠTask":8820,"random":8821,"selected":8822,"ipage":8823,"Ġprime":8824,"Ġobservation":8825,"Ġevaluation":8826,"ĠJackson":8827,"ĠEp":8828,"Ġabstract":8829,"ĠJr":8830,"ĠHamiltonian":8831,"tained":8832,"ĠCy":8833,"800":8834,"ĠFalse":8835,"txt":8836,"Ġdescribes":8837,"PAR":8838,"Ġthick":8839,"Security":8840,"Cap":8841,"RR":8842,"[$":8843,"ĠLatin":8844,"urance":8845,"Ġmetal":8846,"parameters":8847,"awa":8848,"bro":8849,"Ġconclude":8850,"screen":8851,"ĠCorporation":8852,"Ġopportunities":8853,"pres":8854,"Ġchampionship":8855,"iable":8856,"Ġlicense":8857,"Ġroles":8858,"onav":8859,"Ġtracks":8860,"Ġfigures":8861,"ĠPhys":8862,"Ġmorning":8863,"CG":8864,"1966":8865,"napshot":8866,"ĠChampionships":8867,"Ġspecifically":8868,",$":8869,"ĠGi":8870,"Ġtheme":8871,"pir":8872,"Ġnotation":8873,"pot":8874,"manager":8875,"stats":8876,"Ġsettlement":8877,"rid":8878,"isted":8879,"çļ":8880,"Ġexecution":8881,"Ġexperi":8882,"conv":8883,"Gen":8884,"Ġteaching":8885,"^{+":8886,"ĠUkr":8887,"herited":8888,"ĠMond":8889,"Ġlargely":8890,"isc":8891,"ĠBattle":8892,"jquery":8893,"achusetts":8894,"Ġconven":8895,"ĠCare":8896,"ĠBul":8897,"life":8898,"person":8899,"formance":8900,"ĠOrig":8901,"scill":8902,"ĠStan":8903,"minipage":8904,"Ġefficiency":8905,"edit":8906,"180":8907,"stances":8908,"ĠFurthermore":8909,"Ġhighlight":8910,"inity":8911,"Ġsolve":8912,"ubV":8913,"ĠBas":8914,"Ġsides":8915,"Ġcomposed":8916,"ById":8917,"ĠCa":8918,"Directory":8919,"plus":8920,"Ġcommittee":8921,"->_":8922,"ĠFamily":8923,"Ġangular":8924,"Koi":8925,"Ġapplicable":8926,"Ġera":8927,"Sw":8928,"Two":8929,"Ġlayers":8930,"Dem":8931,"mo":8932,"ĠHarr":8933,"Compar":8934,"çļĦ":8935,"Ġsuggests":8936,"ĠLab":8937,"opher":8938,".__":8939,"JQYi":8940,"UlI":8941,"Ġcouncil":8942,"(){":8943,"IB":8944,"cQL":8945,"MNmI":8946,"tfGu":8947,"YkKoi":8948,"ubVtfGu":8949,"cQLBJ":8950,"YkKoiubVtfGu":8951,"JQYiUlI":8952,"eved":8953,"ĠNode":8954,"ĠAndrew":8955,"itles":8956,"ĠRetri":8957,"Ġjustice":8958,"Ġsoft":8959,"SIZE":8960,"ĠNumber":8961,"fi":8962,"Ġregistered":8963,"}}$.":8964,"Ġopinion":8965,"Ġconcert":8966,"YkKoiubVtfGuOe":8967,"IMP":8968,"since":8969,"![":8970,"Ġphysics":8971,"ĠâĢ¦":8972,"late":8973,"UID":8974,"ĠMen":8975,"Ġmiles":8976,"when":8977,"Ġoverl":8978,"Ġuncertainty":8979,"Ġhab":8980,"nic":8981,"dependent":8982,"ĠIllinois":8983,"Ġskills":8984,"ĠWindow":8985,"schema":8986,"arse":8987,":#":8988,"Ġawait":8989,"lik":8990,"Ġshock":8991,"ĠSong":8992,"ĠRay":8993,"ucky":8994,"Ġdoll":8995,"Ġseconds":8996,"Ġdifferential":8997,"Ġmonitor":8998,"Ġcharged":8999,"Ġdefense":9000,"Ġdeleg":9001,"GR":9002,"burgh":9003,"ĠUr":9004,"save":9005,"Ġdir":9006,"Ġestablishments":9007,"Ġstreet":9008,"ĠPass":9009,"Ġlabels":9010,"sch":9011,"layer":9012,"Ġfle":9013,"ĠEdward":9014,"Loader":9015,"icer":9016,"[:":9017,"ogeneous":9018,"General":9019,"Matrix":9020,"Ġbuy":9021,"Ġearth":9022,"Ġimproved":9023,"VERSION":9024,"condition":9025,"}({\\":9026,"Ġtrace":9027,"ĠEastern":9028,"Ġtheoretical":9029,"Bit":9030,"ĠTheatre":9031,"ĠWater":9032,"Ġwants":9033,"Ġmedium":9034,"ĠSuch":9035,"Own":9036,"Ġusual":9037,"ĠCarl":9038,"blem":9039,"ROM":9040,"Å¡":9041,"ĠPage":9042,"Ġleaves":9043,"Ġbeam":9044,"Ġportr":9045,"assertEquals":9046,"ocker":9047,"Ñı":9048,"ĠSand":9049,"ĠPrem":9050,"}}$,":9051,"Ġinduced":9052,"Ġactors":9053,"Ġfunctional":9054,"Events":9055,"echo":9056,"ĠMember":9057,"ĠTrust":9058,"Ġbrain":9059,"Ġprepar":9060,"ository":9061,"Ġmasses":9062,"})$,":9063,"Ġrecognized":9064,"Items":9065,")\">":9066,"ĠMult":9067,"ĠWhe":9068,"Ġintegration":9069,"Ġsell":9070,"Ġorganized":9071,"ĠSciences":9072,"ĠLy":9073,"PATH":9074,"Ġfacility":9075,"odd":9076,"kw":9077,"ĠColl":9078,"Ġextent":9079,"components":9080,"Ġsignature":9081,"editor":9082,"ĠCoast":9083,"chor":9084,"Ġdrama":9085,"Ġmagnitude":9086,"Ġinvolving":9087,"Ġthank":9088,"}{(":9089,"Ġlanguages":9090,"Ġadvance":9091,"islation":9092,"ĠFacebook":9093,"Ġplease":9094,"Ġrepeated":9095,"iling":9096,"Ġinstalled":9097,"Ġserves":9098,"ĠLuc":9099,"ancer":9100,"Ġcycl":9101,"ĠFriday":9102,"uv":9103,"onavirus":9104,"large":9105,"ila":9106,"Ġcomplexity":9107,"MOD":9108,"ĠNon":9109,"Files":9110,"ĠCommand":9111,"account":9112,"Finally":9113,"ĠCard":9114,"Ġdanger":9115,"Ġcoverage":9116,"ĠCro":9117,"Ġgeometry":9118,"sol":9119,"Ġ..":9120,"()));":9121,"Ġdiscr":9122,"Ġdivided":9123,"ello":9124,"uzz":9125,"ĠHistoric":9126,"Ġwitness":9127,"tan":9128,"Ġheat":9129,"Opt":9130,"Success":9131,"ifts":9132,")));":9133,"jar":9134,"Ġenabled":9135,"ĠColumbia":9136,"ving":9137,"Full":9138,"Ġdamage":9139,"eld":9140,"ULE":9141,"Ġinfinite":9142,"ĠTR":9143,"ĠEnergy":9144,"ĠFour":9145,"diff":9146,"Ġcapture":9147,"git":9148,"Statement":9149,"ervative":9150,"avit":9151,"Ġadvert":9152,"Ġener":9153,"Ġsupports":9154,"lets":9155,"Ġpowers":9156,"amber":9157,"izable":9158,"Ġfunc":9159,"Ġdesired":9160,"hbar":9161,"Ġdispl":9162,"configuration":9163,"Ġconcerns":9164,"enger":9165,"\\/":9166,"Ġboy":9167,"ĠAri":9168,"ĠSea":9169,"Ġgradient":9170,"Ġverify":9171,"ivation":9172,"agers":9173,"TA":9174,"ĠKent":9175,"Ġnucle":9176,"pository":9177,"green":9178,"\"`":9179,"cb":9180,"ĠMinistry":9181,"elease":9182,"Ġbelief":9183,"Ġthinking":9184,"Ġpenal":9185,"Ġ\"\"":9186,"ĠWilson":9187,"ĠJon":9188,"LIC":9189,"Symfony":9190,"decl":9191,"hidden":9192,"ĠInternet":9193,"Ġscattering":9194,"Ġhole":9195,"Ġconj":9196,"Ġvocals":9197,"Internal":9198,"Ġassociation":9199,"Ġfre":9200,"Ġaspects":9201,"engine":9202,"Ġcertainly":9203,"semble":9204,"sys":9205,"iveness":9206,"Ġscenario":9207,"Ġraw":9208,"ĠLocal":9209,"Ġsecondary":9210,"logger":9211,"Ġexplan":9212,"Ġoptimization":9213,"ĠIl":9214,"Ġbatt":9215,"Ġcalculate":9216,"ĠMid":9217,"sumer":9218,"osophy":9219,")+\\":9220,"ez":9221,"Ġgrew":9222,"Ġ[];":9223,"dp":9224,"hu":9225,"Runtime":9226,"Ġwestern":9227,"typeof":9228,"ĠMu":9229,"3333":9230,"ĠRo":9231,"Ġthousands":9232,"shadow":9233,"Ġdie":9234,"Ġacquired":9235,"itivity":9236,"ĠLandroid":9237,"SY":9238,"pare":9239,"$~":9240,"hard":9241,"ni":9242,"Ġextremely":9243,"ennis":9244,"Ġlocally":9245,"Ġflex":9246,"Ġincident":9247,"athan":9248,"ĠRos":9249,"Term":9250,"Ġhour":9251,"amin":9252,"ĠUpdate":9253,"fold":9254,"Ġtab":9255,"ronic":9256,"Ġstability":9257,"Ġbright":9258,"cccc":9259,"cong":9260,"Ġancient":9261,"Ġsan":9262,"GC":9263,"Constr":9264,"ĠIss":9265,"Print":9266,"Ġagents":9267,"Ġcommitted":9268,"Ġoscill":9269,"vin":9270,"ĠHong":9271,"ĠAre":9272,"EXT":9273,"ï¼":9274,"teen":9275,"Ġfort":9276,"Ġperforming":9277,"ĠInvest":9278,"illy":9279,"printf":9280,"ĠHospital":9281,"Ġrequests":9282,"Ġpossibility":9283,"ĠParam":9284,"Ġinstitution":9285,"$/":9286,"Ġdecisions":9287,"duction":9288,"Ġprediction":9289,"Ġcamera":9290,"Ġcauses":9291,"ĠPrime":9292,"ĠMassachusetts":9293,"Ġfeat":9294,"estion":9295,"Ġtechnique":9296,"tool":9297,"world":9298,"Graph":9299,"water":9300,"Ġrotation":9301,"LC":9302,"arters":9303,"Panel":9304,"Generic":9305,"ingly":9306,"Ã£":9307,"circle":9308,"Ġexpanded":9309,"Ġtrees":9310,"Ġatmosp":9311,"erial":9312,"++;":9313,"sen":9314,"horizontal":9315,"Ġrecip":9316,"Ġawards":9317,"Ġlooks":9318,"ĠObama":9319,"Ġcharges":9320,"dem":9321,"ĠNations":9322,"################":9323,"Ġdog":9324,"Ġpaths":9325,"iate":9326,"Ins":9327,"Ġtreated":9328,"Ġobjective":9329,"possible":9330,"alloc":9331,"clusions":9332,"ĠGovernor":9333,"notes":9334,"Ġhonor":9335,"Ġcalculations":9336,"ĠMah":9337,"Mr":9338,"Ġpseud":9339,"Ġsubsequent":9340,"Register":9341,"compl":9342,"ĠBroad":9343,"ĠBu":9344,"ĠRh":9345,"UL":9346,"fail":9347,"Ġnarrow":9348,"Ġdeclared":9349,"Ġsport":9350,"125":9351,"Ġtwice":9352,"Ġreferences":9353,"orough":9354,"children":9355,"ĠPrince":9356,"ĠProvince":9357,"ĠEst":9358,"actic":9359,"Ġlegisl":9360,"atio":9361,"Ġconnections":9362,"Ġfeet":9363,"Ġsupporting":9364,"bytes":9365,"ICE":9366,"typed":9367,"Introduction":9368,"Ġlie":9369,"ĠDesign":9370,"National":9371,"1962":9372,"izabeth":9373,"ĠScotland":9374,"iterator":9375,"Windows":9376,"ĠImage":9377,"inton":9378,"irds":9379,"pet":9380,"Ġperman":9381,"cert":9382,"Ġends":9383,"Ġfloor":9384,"Ġtells":9385,"VD":9386,"Ġ$|\\":9387,"generated":9388,"ĠKenn":9389,"FS":9390,"()).":9391,"Author":9392,"ĠBrook":9393,"High":9394,"Ġarrived":9395,"Ġexcell":9396,"Ġinvalid":9397,"Ġreform":9398,"Ġpossibly":9399,"Ġcer":9400,"Ġturns":9401,"mass":9402,"Edit":9403,"Fix":9404,"ĠEnvironment":9405,"eval":9406,"ĠSta":9407,"Iterator":9408,"iy":9409,"Close":9410,"ĠDaniel":9411,"NavBarCell":9412,")-\\":9413,"how":9414,"entials":9415,"'])":9416,"svg":9417,"1963":9418,"ĠOption":9419,"Ġgranted":9420,"Ġeq":9421,"Total":9422,"Ġprev":9423,"Ġzone":9424,"ĠCP":9425,"Ġgraphs":9426,"ĠOxford":9427,"Ġlisten":9428,"ĠTH":9429,"Ġmental":9430,"Ġbridge":9431,"Ġengineering":9432,"umes":9433,"NULL":9434,"XML":9435,"Ġimplements":9436,"Ġcoal":9437,"ĠLast":9438,"Ġresident":9439,"flags":9440,"Ġexplicitly":9441,"STATE":9442,"Ġpatterns":9443,"Ġcategories":9444,"Space":9445,"ĠGuard":9446,"Ġpartnership":9447,"ĠViet":9448,"iden":9449,"Ġcalculation":9450,"Ġcomputation":9451,"Ġbegins":9452,"ctrine":9453,"Ġrich":9454,"Ġphone":9455,"FFFF":9456,"Therefore":9457,"Ġcancell":9458,"endor":9459,"FIG":9460,">\\":9461,"ĠAnother":9462,"Ġexceed":9463,"ĠNight":9464,"Ġcollected":9465,"Ġseat":9466,"Ġbond":9467,"Ġnarr":9468,"Ġshop":9469,"Ġwhereas":9470,"imb":9471,"Ġ[[":9472,"ĠTw":9473,"Ġindustrial":9474,"))$":9475,"egr":9476,"ĠExt":9477,"external":9478,"Ġfluct":9479,"Ġcomposition":9480,"Ġfactory":9481,"ĠKen":9482,"Ġtranslation":9483,"lean":9484,"Ġelectronic":9485,"SN":9486,"Ġcrow":9487,"Ġshell":9488,"ictures":9489,"periment":9490,"ingham":9491,"rout":9492,"Ġcensus":9493,"Ġconvex":9494,"Ġcoordinate":9495,"Ġperspective":9496,"$),":9497,"ĠĠĠĠĠĠĠĠĠĠĠĠĠĠĠĠĠĠĠĠĠĠĠĠĠĠĠĠĠĠĠĠĠĠĠĠĠĠĠĠĠĠĠ":9498,"ĉĉĉĉĉĉĉĉĉ":9499,"assertEqual":9500,"Ġrecognition":9501,"wall":9502,"ĠSpace":9503,"Ġestate":9504,"ĠHa":9505,"pred":9506,"Profile":9507,"*)":9508,"ĠLo":9509,"endment":9510,"ĠSaturday":9511,"wild":9512,"Ġjump":9513,"Ġaccomp":9514,"Ġshut":9515,"su":9516,"Selector":9517,"Ġip":9518,"ĠWild":9519,"ĠDown":9520,"cref":9521,"tools":9522,"Ġfiled":9523,"Ġpm":9524,"achment":9525,"Ġdriving":9526,"Sm":9527,"ĠSE":9528,"Ġhappens":9529,"zed":9530,"Ġsym":9531,"contains":9532,"Although":9533,"ĠTaylor":9534,"ĠCirc":9535,"Ġaggreg":9536,"utable":9537,"Ġsuperv":9538,"%,":9539,"sa":9540,"isely":9541,"Ġdownload":9542,"Double":9543,"Protocol":9544,"ĠFar":9545,"ĠWeek":9546,"opic":9547,"Ġurban":9548,"Ġspot":9549,"Ġamplitude":9550,"inds":9551,"Ġmys":9552,"tor":9553,"Ġautomatically":9554,"tmp":9555,"Video":9556,"hl":9557,"ĠBang":9558,"Ġpractices":9559,"BB":9560,"Ġlum":9561,"}$)":9562,"Transform":9563,"ĠWho":9564,"Ġevaluate":9565,"Ġpatient":9566,"Ġdefeated":9567,"ĠStart":9568,"Ġio":9569,"Ġweights":9570,"paragraph":9571,"ultane":9572,"Ġahead":9573,"porated":9574,"ĠConfig":9575,"ymmetric":9576,"emon":9577,"Ġplus":9578,"Ġadvanced":9579,"Ġbiggest":9580,"awn":9581,"Ġnearby":9582,"Ġbuilder":9583,"igital":9584,"ĠBO":9585,"istence":9586,"Ġprovince":9587,"?âĢĿ":9588,"antom":9589,"_(":9590,"imated":9591,"Ġapplying":9592,"Selected":9593,"Ġspan":9594,"VM":9595,"WR":9596,"Ġclusters":9597,"attributes":9598,"Ġrational":9599,"Ġhouses":9600,"Ġcontroller":9601,"aya":9602,"lesssim":9603,"ran":9604,"complete":9605,"avor":9606,"Ġreceiving":9607,"inate":9608,"chester":9609,"}</":9610,"ĠPalest":9611,"Global":9612,"Ġcomputational":9613,"Ġscales":9614,"switch":9615,"utf":9616,"ego":9617,"Ġinstruction":9618,"ĠWalk":9619,"ĠMike":9620,"Proxy":9621,"Ġtopic":9622,"handler":9623,"HR":9624,"ĠMot":9625,"Ġapproved":9626,"uris":9627,"Ġgenus":9628,"Ġaccurate":9629,"Plugin":9630,"irement":9631,"Ġremote":9632,"Ġconfirm":9633,"Ġentirely":9634,"Ġretired":9635,"Ġrobust":9636,"Ġemployed":9637,"ographer":9638,"apply":9639,"Ġopposite":9640,"reset":9641,"Ġrestaur":9642,"ToString":9643,"Ġpassing":9644,"tabs":9645,"Ġclients":9646,"Ġfinds":9647,"Ġrailway":9648,"ogen":9649,"ĠChristmas":9650,"igrants":9651,"Ġoperated":9652,"Ġappend":9653,"Ġwealth":9654,"article":9655,":}":9656,"Ġthermal":9657,"Ġplanned":9658,"ĠTODO":9659,"wp":9660,"tion":9661,"ONE":9662,"Ġsoldiers":9663,"ĠWis":9664,"AU":9665,"Ġmobile":9666,"Ġinspired":9667,"phia":9668,"ĠWed":9669,"Category":9670,"Ġsustain":9671,"orrow":9672,"Ġbands":9673,"browser":9674,"ĠSports":9675,"trigger":9676,"]}":9677,"asters":9678,"ĠCEO":9679,"flat":9680,"ĠSom":9681,"Details":9682,"Ġdomestic":9683,"Simple":9684,"cred":9685,"Ġlegislation":9686,"Ġrepresentative":9687,"Seg":9688,"ĠConstitution":9689,"Ġinstances":9690,")--":9691,"groups":9692,"Ġexponential":9693,"Bi":9694,"ĠNet":9695,"aming":9696,"never":9697,"Ġcm":9698,"UTF":9699,"Ġpoliticians":9700,")}_{":9701,"agr":9702,"Ġcopies":9703,"apol":9704,"1961":9705,"%.":9706,"Ġglob":9707,"}{|":9708,"ĠIndex":9709,"Pay":9710,"unately":9711,"Feature":9712,"Ġvision":9713,"ifiers":9714,"ĠIR":9715,"cribed":9716,"upload":9717,"Ġfinish":9718,"present":9719,"ĠLittle":9720,"Ġnecessarily":9721,"GO":9722,"gies":9723,"Ġdiam":9724,"ĠAccess":9725,"Ġcommonly":9726,"Ġclosely":9727,"ĠAmazon":9728,"Ġcustomers":9729,"ĠExecutive":9730,"adelphia":9731,"ĠJava":9732,"ĠPM":9733,"Desc":9734,"Ġdream":9735,"ĠDutch":9736,"ologist":9737,"Ġagric":9738,"inson":9739,"ĠGets":9740,"ĠNY":9741,"Ġtroops":9742,"erate":9743,"Ġportion":9744,"Ġconcerned":9745,"fixed":9746,"Ġprojection":9747,"Ġpersonnel":9748,"Ġdro":9749,"erves":9750,"IPT":9751,"Ġtalking":9752,"Ġ{'":9753,"Enum":9754,"Ġsubsequently":9755,"Ġvirus":9756,"Ġanimals":9757,"Ġpersons":9758,"Java":9759,"acent":9760,"ĠĠĠĠĠĠĠĠĠĠĠĠĠĠĠĠĠĠĠĠĠĠĠĠĠĠ":9761,"Ġsatisfying":9762,"Ġtraject":9763,"conn":9764,"1944":9765,"sex":9766,"ĠSi":9767,"Ġtempor":9768,"Ġorth":9769,"Adapter":9770,"Ġresearchers":9771,"Ġce":9772,"ĠReal":9773,"ĠAbout":9774,"upl":9775,"Ġcomedy":9776,"fol":9777,"ĠDar":9778,"ignment":9779,"elihood":9780,"Layer":9781,"Ġxmlns":9782,"'d":9783,"Ġduration":9784,"ĠIndeed":9785,"Ġships":9786,"SER":9787,"elect":9788,"bre":9789,"ucial":9790,"Browser":9791,"ĠPortug":9792,"Grid":9793,"Åį":9794,"oster":9795,"Ġcaptured":9796,"Ġwel":9797,"ĠSI":9798,"Ġresponsibility":9799,"oton":9800,"Ġasync":9801,"icensed":9802,"Ġlemma":9803,"Ġnamely":9804,"|}":9805,"ariance":9806,"Ġsuitable":9807,"Bound":9808,"uli":9809,"Dav":9810,"Ġflight":9811,"ĠImm":9812,"relations":9813,"Ġ[\\":9814,"ĠPath":9815,"NT":9816,"Ġequality":9817,"Ġstored":9818,"also":9819,"Ġstrings":9820,"Ġmathemat":9821,"Ġgeneric":9822,"Ã±":9823,"Ġnewly":9824,"Ġjudge":9825,"getName":9826,"Ġtele":9827,"ĠPhilipp":9828,"dialog":9829,"Auto":9830,"Ġcompr":9831,"role":9832,"Ġwish":9833,"_-":9834,"ilbert":9835,"Ġpointer":9836,"agnetic":9837,"istant":9838,":=":9839,"&=&":9840,"Ġclick":9841,"Ġdiscrete":9842,"urations":9843,"Common":9844,"Ġconsequence":9845,"Ġbass":9846,"encing":9847,"Ġdialog":9848,"FE":9849,"Ġreligion":9850,"Ġkids":9851,"SQL":9852,"ĠAM":9853,"bd":9854,"resp":9855,"Ġsufficiently":9856,"Ġnavigation":9857,"atever":9858,"Duration":9859,"Ġsurrounding":9860,"Ġnegoti":9861,"ĠCH":9862,"getElement":9863,"Ġprovider":9864,"ĠCub":9865,"Ã£o":9866,"ĠChris":9867,"ordan":9868,"onia":9869,"Ġdetected":9870,"ĠAlexander":9871,"Ġirre":9872,"Ġ=========":9873,"Ġscaling":9874,"game":9875,"Ġbeat":9876,"Props":9877,"Ġprogramming":9878,"Ġchapter":9879,"collection":9880,"inals":9881,"Ġkill":9882,"idx":9883,"ĠCopyright":9884,"ĠPen":9885,"Ġhero":9886,"hbox":9887,"acts":9888,"Many":9889,"joint":9890,"Ġsyn":9891,"Ġcontrolled":9892,"ritical":9893,"aph":9894,"Ġdict":9895,"Ġneutr":9896,"Lo":9897,"Ġnewspaper":9898,"ĠFire":9899,"Scroll":9900,"ĠLike":9901,"constr":9902,"ĠControl":9903,"Are":9904,"ursday":9905,"Ġconvent":9906,"ulpt":9907,"arity":9908,"Ġbias":9909,"ĠMonday":9910,"ĠJesus":9911,"Ġheav":9912,"ĠPoland":9913,"Ġwinner":9914,"IND":9915,"ĠFI":9916,"Ġvehicles":9917,"ĠAdministration":9918,"ĠBell":9919,"keyword":9920,"Arch":9921,")[":9922,"Parse":9923,"GN":9924,"Ġcharacteristic":9925,"ĠMcC":9926,"Route":9927,"picker":9928,"Memory":9929,"Ġreaction":9930,"ĠLim":9931,"Keys":9932,"ĠFair":9933,"Ġreasonable":9934,"Ġcoinc":9935,"Ġcontro":9936,"provider":9937,"Ġbrowser":9938,"INS":9939,"Ġfifth":9940,"nesday":9941,"Ġsummar":9942,"ĠLabor":9943,"fire":9944,"Ġwarn":9945,"Ġplants":9946,"Ġprofession":9947,"comes":9948,"Ġintelligence":9949,"ĠTwitter":9950,"lywood":9951,"Ġdenoted":9952,"Ġbench":9953,"Ġhomes":9954,"Ġsingles":9955,"Ġbehaviour":9956,"Ġgender":9957,"thur":9958,"Ġindicated":9959,"ropol":9960,"Ġcars":9961,"Ġvariation":9962,"PORT":9963,"ountry":9964,"merce":9965,"ĠGar":9966,"Ġeffectively":9967,"1956":9968,"Ġri":9969,"Ġprefix":9970,"Ġpublication":9971,"pson":9972,"Under":9973,"eting":9974,"ais":9975,"Cast":9976,"raham":9977,"Fail":9978,"props":9979,"Ġcorner":9980,"Ġphysic":9981,"Ġstatistical":9982,"Ġtherap":9983,"Ġinstant":9984,"ĠCase":9985,"Abstract":9986,"ĠPers":9987,"ĠResource":9988,"ĠLight":9989,"Ġphoto":9990,"Ġtail":9991,"=\"${":9992,"OUT":9993,"general":9994,"Don":9995,"stood":9996,"idi":9997,"Ġ[\"":9998,"ĠBoy":9999,"IVE":10000,"essions":10001,"ĠThree":10002,"sat":10003,"ĠSher":10004,"prefix":10005,"Ġouter":10006,"ĠCollection":10007,"ĠAdv":10008,"Ġpredicted":10009,"Ġsatisfied":10010,"Ġeducational":10011,"Ġfaculty":10012,"Ġion":10013,"chain":10014,"ĠRog":10015,"ĠStephen":10016,"coh":10017,"ĠKr":10018,"enses":10019,"^*$":10020,"Ġbroken":10021,"Ġhistoric":10022,"Ġholding":10023,"Conf":10024,"Ġbundle":10025,"ctic":10026,"Ġentropy":10027,"Ġconstants":10028,"Ġhor":10029,"United":10030,"Ġblog":10031,"%)":10032,"Expr":10033,"Ġpieces":10034,"Ġprepared":10035,"ĠBerlin":10036,"special":10037,"Ġorbit":10038,"Fin":10039,"Ġrows":10040,"ĠIOException":10041,"Ġtheories":10042,"oment":10043,"ubble":10044,"Ġextensive":10045,"Ġreviews":10046,"sample":10047,"feature":10048,"imination":10049,"Ġexplo":10050,"ami":10051,"Conn":10052,"anth":10053,"Repository":10054,"heim":10055,"isting":10056,"inking":10057,"Remove":10058,"Ġven":10059,"READ":10060,"Ġboost":10061,"Py":10062,"{%":10063,"Pattern":10064,"Ġdecade":10065,"]$.":10066,"Ġreq":10067,"roke":10068,"Ġepisodes":10069,"closed":10070,"1959":10071,"ogram":10072,"Generator":10073,"Ġexperiences":10074,"about":10075,"ĠLew":10076,"ĠEngineering":10077,")}}":10078,"uesday":10079,"Comment":10080,"WN":10081,"agent":10082,"onomy":10083,"ipped":10084,"Ġdrawn":10085,"Career":10086,"platform":10087,"oped":10088,"services":10089,"Ġalongside":10090,"Ġvon":10091,"Ġmaybe":10092,"Ġabund":10093,"GP":10094,"acks":10095,"Sche":10096,"simple":10097,"detail":10098,"Variable":10099,"oured":10100,"III":10101,"ĠLev":10102,"Ġsale":10103,"Ġrelationships":10104,"Ġprominent":10105,"Ġquadr":10106,"ennes":10107,"Ġ(_":10108,"pic":10109,"Ġappre":10110,"ourier":10111,"ĠBa":10112,"filename":10113,"Ġcontrad":10114,"=>":10115,"ÐµÐ":10116,"1948":10117,"itative":10118,"Func":10119,"à¸":10120,"ĠToronto":10121,"STAT":10122,"Ġaudio":10123,"ÑĮ":10124,"una":10125,"tok":10126,"including":10127,"Ġgone":10128,"Ġmand":10129,"Ġagencies":10130,"Ġconstitution":10131,"ITE":10132,"001":10133,"plicated":10134,"uda":10135,"Ġtransmission":10136,"Ġtypename":10137,"Ġcoefficient":10138,"tc":10139,"protected":10140,"lay":10141,"brace":10142,"\\}$.":10143,"Ġcampus":10144,"1958":10145,"ĠÂ»":10146,"Engine":10147,"Ġradiation":10148,"THOD":10149,"unnel":10150,"eman":10151,"ĠHom":10152,"Nodes":10153,"ivated":10154,"About":10155,"ĠDat":10156,"1942":10157,"fd":10158,"ĠKim":10159,"Region":10160,"Ġassumptions":10161,"ĠBBC":10162,"atern":10163,"amaz":10164,"Ġ{{":10165,"Ġarts":10166,"ĠBlock":10167,"Ġfashion":10168,"ĠSupport":10169,"tags":10170,"Ġeye":10171,"vari":10172,"1918":10173,"Ġdire":10174,"aded":10175,"His":10176,"TT":10177,"Ġintroduction":10178,"functions":10179,"ĠAssoci":10180,"Ġescape":10181,"Ġliqu":10182,"yo":10183,"ĠJean":10184,"Pointer":10185,"\\\\\\\\\\\\\\\\\\\\\\\\\\\\\\\\\\\\\\\\\\\\\\\\\\\\\\\\\\\\\\\\":10186,"Ġpars":10187,"Ġfighting":10188,"Rest":10189,"Ġalleged":10190,"Ġbeautiful":10191,"Failed":10192,"Ġdust":10193,"ĠProcess":10194,"equence":10195,"algorithm":10196,"1939":10197,"Ġgreatest":10198,"ĠUnivers":10199,"aki":10200,"Ġclubs":10201,"leted":10202,"Ġtaught":10203,"ĠElement":10204,"ideos":10205,"single":10206,"CB":10207,"ãĢ":10208,"okes":10209,"ĠClark":10210,"atar":10211,"Ġinfrastructure":10212,"apore":10213,"ĠSus":10214,"Ġinvestigate":10215,"Ġspons":10216,"ĠSign":10217,"ĠBad":10218,"bp":10219,"riority":10220,"ĠRevolution":10221,"$:":10222,"Ġdoctor":10223,"Ġemot":10224,"COMP":10225,"plicity":10226,"Ġfn":10227,"Ġexit":10228,"ĠRen":10229,"Ġvot":10230,"LECT":10231,"Ġtrail":10232,"åı":10233,"TEXT":10234,"ĠSteve":10235,"bigl":10236,"Ġdoor":10237,"Ġspring":10238,"ĠStation":10239,"ĠElizabeth":10240,"Ġrural":10241,"Agent":10242,"ĠNAME":10243,"anz":10244,"GA":10245,"mask":10246,"Ġlisting":10247,"Ġultimately":10248,"brid":10249,"Ġlayout":10250,"Ġassistant":10251,"________":10252,"Ġfresh":10253,"mn":10254,"Ġdescent":10255,"Ġconclusion":10256,"Ġexplore":10257,"ĠjQuery":10258,"ĠRome":10259,"ĠRom":10260,"hol":10261,"','":10262,"expect":10263,"Ġdance":10264,"Ġtested":10265,"Socket":10266,"1957":10267,"Ġqueue":10268,"webpack":10269,"adesh":10270,"Mapping":10271,"Ġconfidence":10272,"Ġathlet":10273,"Encoded":10274,"ydney":10275,"DEBUG":10276,"Ġfluid":10277,"Ġtransferred":10278,"Ġinverse":10279,"hide":10280,"apl":10281,"esian":10282,"uted":10283,"Ñĭ":10284,"Ġunable":10285,"ĠConf":10286,"Ġflags":10287,"Ġok":10288,"Ġlit":10289,"ĠAli":10290,"Ġattempts":10291,"subs":10292,"safe":10293,"Films":10294,"ĠDir":10295,"Ġmarkets":10296,"pert":10297,"Ġsquad":10298,"Ġintersection":10299,"Ġexpos":10300,"puter":10301,"Ġseeing":10302,"Ġrg":10303,"ĠLink":10304,"Ġpromote":10305,"Ġsizes":10306,"serial":10307,"Brit":10308,"Ġaid":10309,"ĠDO":10310,"Ġcontemporary":10311,"colLast":10312,"bigr":10313,"navList":10314,"ĠForeign":10315,"Ġattorney":10316,"Ġhearing":10317,"Ġcaref":10318,"1941":10319,"Ġsun":10320,"nil":10321,"metadata":10322,"Ġmist":10323,"Ġpal":10324,"original":10325,"ĠAffairs":10326,"Ġburn":10327,"gov":10328,"progress":10329,"ĠAgain":10330,"ĠToday":10331,"Ġ×":10332,"NOT":10333,"Ġpractical":10334,"\\;":10335,"aret":10336,"aped":10337,"typedef":10338,"etal":10339,"BAR":10340,"Ġcommunic":10341,"Tags":10342,"Ġtypeof":10343,"yg":10344,"Ġtrav":10345,"Ġusage":10346,"ĠCA":10347,"mathop":10348,"Ġopposition":10349,"Ġweapons":10350,"iÄĩ":10351,"ĠĠĠĠĠĠĠĠĠĠĠĠĠĠĠĠĠĠĠĠĠĠĠĠĠĠĠĠĠ":10352,"Ġrepresentations":10353,"zech":10354,"ĠHung":10355,"ĠRegion":10356,"ĠProperty":10357,"ĠSem":10358,"Ġmedian":10359,"expr":10360,"Ġdestroyed":10361,"------------":10362,"ixels":10363,"ĠLear":10364,"ibration":10365,"\"],":10366,"Ġadministrative":10367,"/(":10368,"ifferent":10369,"Ġfan":10370,"Ġsimultane":10371,"Ġassistance":10372,"Ġdecomposition":10373,"required":10374,"arthe":10375,"ĠJews":10376,"Ġreturning":10377,"Play":10378,"Ġequilibrium":10379,"occer":10380,"ĠChildren":10381,"Ġsampling":10382,"Constants":10383,"âĢ¢":10384,"Ġfuel":10385,"Ġbeliev":10386,"Ġessentially":10387,"Ġgirls":10388,"ĠArea":10389,"ĠDonald":10390,"Ġmotor":10391,"RAN":10392,"bean":10393,"}[\\":10394,"Ġlooked":10395,"})}":10396,"ĠNext":10397,"Tra":10398,"ropic":10399,"Ġmatters":10400,"ĠLive":10401,"prev":10402,"owner":10403,"eties":10404,"ĠIE":10405,"Ġconstructor":10406,"Ġhelping":10407,"ĠMir":10408,"Ġbulk":10409,"ourse":10410,"Ġjourney":10411,"Ġcomputing":10412,"plan":10413,"ĠInstead":10414,"Pres":10415,"Ġdebt":10416,"Ġvolunte":10417,"}}_{\\":10418,"Ġprecisely":10419,"will":10420,"ĠDespite":10421,"ĠSD":10422,"Ġbaseball":10423,"Ġvice":10424,"perial":10425,"Ġcouldn":10426,"ĠMicrosoft":10427,"ĠBelg":10428,"ADD":10429,"Ġaccounts":10430,"ĠTurkey":10431,"wing":10432,"ĠPrize":10433,"relation":10434,"Sem":10435,"}})":10436,"ĠVictoria":10437,"uating":10438,"colFirst":10439,"Äį":10440,"ĠRod":10441,"Ġproxy":10442,"Ġrelax":10443,"ĠOs":10444,"ĠBon":10445,"aska":10446,"Ġinjury":10447,"plane":10448,"ĠPhiladelphia":10449,"ulator":10450,"Ġfell":10451,"ĠMake":10452,"ĠMedicine":10453,"ĠGiven":10454,"Ġmarg":10455,"Ġfrequently":10456,"Ġfeaturing":10457,"Ġstrategies":10458,"liance":10459,"Ġtx":10460,"outer":10461,"junit":10462,"âĢħ":10463,"OST":10464,"report":10465,"ushed":10466,"Given":10467,"1946":10468,"Role":10469,"ĠThrough":10470,"CHECK":10471,"Â°":10472,"1955":10473,"JS":10474,"ĠASSERT":10475,"brief":10476,"aux":10477,"Ġfiction":10478,"Cred":10479,"ĠHash":10480,"vals":10481,"ĠOlympic":10482,"Ġdatasets":10483,"ĠBand":10484,"Ġestimation":10485,"Jan":10486,"zone":10487,"isor":10488,"Ġsequences":10489,"Dest":10490,"Ġpra":10491,"iration":10492,"Ġbodies":10493,"ĠBeach":10494,"Ġaccident":10495,"ĠLater":10496,"Ġcircumstances":10497,"1943":10498,"Ġdebate":10499,"mal":10500,"Ġstuff":10501,"ĠCorps":10502,"ĠSN":10503,"Ġcarbon":10504,"Ġrenew":10505,"Ġconverted":10506,"Ġwarm":10507,"Ġmovies":10508,"Sync":10509,"Ġ\\]":10510,"Ġsolo":10511,"]$,":10512,"HC":10513,"Ms":10514,"Ġletters":10515,"Ġparticipants":10516,"ĠFollowing":10517,"(__":10518,"ori":10519,"ĠIV":10520,",\\\\":10521,"aton":10522,"Leg":10523,"$_{":10524,"collapse":10525,"Collections":10526,"Ġpreced":10527,"friend":10528,"ĠEnt":10529,"Ġcompre":10530,"ĠFox":10531,"job":10532,"Ġseed":10533,"Report":10534,"Cam":10535,"Ġterritory":10536,"ĠCR":10537,"ĠĠĠĠĠĠĠĠĠĠĠĠĠĠĠĠĠĠĠĠĠĠĠĠĠĠĠĠ":10538,"Ġinterpretation":10539,"Ġhol":10540,"Ġmyst":10541,"Ġshares":10542,"aset":10543,"Summary":10544,"ERS":10545,"Ġaccord":10546,"fghan":10547,"isa":10548,"Ġpun":10549,"Ġintent":10550,"structure":10551,"ĠRight":10552,"opes":10553,"ĠNE":10554,"Ġreadonly":10555,"ĠTerm":10556,"enable":10557,"1954":10558,"ĠMessage":10559,"Ġintensity":10560,"1947":10561,"Tx":10562,"ĠHun":10563,"ĠAvenue":10564,"ĠVill":10565,"ibilities":10566,"Ġbomb":10567,"uum":10568,"Ġindices":10569,"anna":10570,"Ġlinked":10571,"Ġ\",":10572,"errors":10573,"Proof":10574,"fx":10575,"Ġcrew":10576,"cussion":10577,"jango":10578,"Ġcovers":10579,"700":10580,"Ġscholar":10581,"Attr":10582,"Ġ],":10583,"Execut":10584,"Ġpit":10585,"fast":10586,"Ġintegrated":10587,"Ġpassword":10588,"ancell":10589,"ĠPRO":10590,"prob":10591,"ĠNether":10592,"ĠOfficial":10593,"Another":10594,"headers":10595,"Ġ^{":10596,"Ġmir":10597,"Ġvotes":10598,"Ġarrang":10599,"Ġrig":10600,"ĠIslands":10601,"maven":10602,"zh":10603,"ĠHard":10604,"ĠAP":10605,"[-":10606,"Ġris":10607,"Ġuniversal":10608,"Ġrain":10609,"Ġsentence":10610,"Ġpayment":10611,"details":10612,"Ġperformances":10613,"separ":10614,"Ġtranslate":10615,"ĠAD":10616,"urd":10617,"unique":10618,"ogy":10619,"ĠDefense":10620,"Ġexcess":10621,"ĠSource":10622,"apos":10623,"Ġmaxim":10624,".\");":10625,"Ġhappy":10626,"Ġsupposed":10627,"ĠAk":10628,"\"><!--":10629,"Ġfilled":10630,"iii":10631,"ALSE":10632,"ĠSpring":10633,"Ġment":10634,"Ġexperienced":10635,"Ġ=======":10636,"Ġrequested":10637,"ĠFC":10638,"protocol":10639,"Ġloaded":10640,"throw":10641,"zona":10642,"Wrapper":10643,"Ġenv":10644,"Ġinject":10645,"fall":10646,"Ġresulted":10647,"emptyset":10648,"ACT":10649,"Ġgraduated":10650,"Ġmenu":10651,"Ġsecure":10652,"elly":10653,"Ġhelps":10654,"basic":10655,"Ġdimensional":10656,"ulating":10657,"Ġsac":10658,"Ġguard":10659,"ĠNC":10660,"ĠCambridge":10661,"Ġrevolution":10662,"ĠRetrieved":10663,"Scale":10664,"Ġlowest":10665,"gp":10666,"Div":10667,"Landroid":10668,"Ġassets":10669,"Ġinn":10670,"allclasses":10671,"Ġeastern":10672,"Ġabuse":10673,"Ġtrivial":10674,"Ġctx":10675,"Ġending":10676,"storage":10677,"}\\,\\":10678,"Ang":10679,"Prefix":10680,"parser":10681,"Ġstands":10682,"1952":10683,"Ġderivative":10684,"Ġdiver":10685,"ruption":10686,"Identifier":10687,"done":10688,"Ġnotion":10689,"depth":10690,"Ġcompens":10691,"ĠDC":10692,"Ġidentical":10693,"ĠAsh":10694,"ĠCat":10695,"ĠKorean":10696,"Ġeyes":10697,"ĠScottish":10698,"Ġmyself":10699,"wt":10700,"rank":10701,"fc":10702,"changed":10703,"slash":10704,"ĠEth":10705,"HL":10706,"Nov":10707,"Ġdoub":10708,"Ġresolve":10709,"Ġdependent":10710,"Best":10711,"Struct":10712,"ĠOnce":10713,"Ġcook":10714,"iner":10715,"Ġentr":10716,"ĠObserv":10717,"Ġcatalog":10718,"ĠBefore":10719,"Ġdisabled":10720,"ĠAnth":10721,"Ġsizeof":10722,"orient":10723,"aga":10724,"temp":10725,"Ġmanifold":10726,"()</":10727,"Ġmoments":10728,"Ġweather":10729,"Ġthanks":10730,"Resources":10731,"Ġmaximal":10732,"Ġrefers":10733,"ĠInteger":10734,"users":10735,"ĠStock":10736,"ospit":10737,"Ġseparated":10738,"HP":10739,"EV":10740,"}}^{\\":10741,"Ġarms":10742,"bec":10743,"ĠOfficer":10744,"icing":10745,",{\\":10746,"theless":10747,"ndef":10748,"Ġentitled":10749,"Ġcontribute":10750,"ĠWrit":10751,"chestra":10752,"Ġimmediate":10753,"1949":10754,"Ġproperly":10755,"Lemma":10756,"ĠEll":10757,"oked":10758,"identifier":10759,"agues":10760,"Ġemployment":10761,"Short":10762,"âĢĺ":10763,"1953":10764,"ĠDocument":10765,"Spe":10766,"ajax":10767,"Ġcas":10768,"Ġyounger":10769,"Ġscheduled":10770,"Writ":10771,"}}.":10772,"Shape":10773,"regon":10774,"ysical":10775,"Ġcriteria":10776,"consin":10777,"iota":10778,"ĠAppendix":10779,"Ġsole":10780,"Ġpapers":10781,"Ġsubsection":10782,"ĠCur":10783,"agg":10784,"urches":10785,"owed":10786,"!\\":10787,"putation":10788,"tbody":10789,"ĠGro":10790,"ods":10791,"een":10792,"ĠBal":10793,"dfrac":10794,"amazon":10795,"Registry":10796,">::":10797,"vect":10798,"atom":10799,"Ġignore":10800,"ĠVice":10801,"Ġconstitu":10802,"yal":10803,"Ġtargets":10804,"builder":10805,"Ġaccompl":10806,"cu":10807,"ulner":10808,"vard":10809,"Lin":10810,"Ġassembly":10811,"Ġpurchase":10812,"EEEE":10813,"iem":10814,"Ġda":10815,"Ġprovision":10816,"ĠWAR":10817,"Ġrefuge":10818,"Ġtitles":10819,"imm":10820,"ĠBooks":10821,"Ġconsisting":10822,"ĠMill":10823,"ĠWat":10824,"ea":10825,"Ġ{\"":10826,"Ġclinical":10827,"player":10828,"Ġpredictions":10829,"quarters":10830,"Ġunderstood":10831,"ĠWednesday":10832,"Ġabsence":10833,"href":10834,"Ġadmin":10835,"SF":10836,"execute":10837,"owa":10838,"have":10839,"Ġparagraph":10840,"Microsoft":10841,"ellect":10842,"testing":10843,"antry":10844,"login":10845,"ĠSu":10846,"Trace":10847,"wrapper":10848,"Ġroughly":10849,"ceptions":10850,"tfrac":10851,"Ġcompletion":10852,"reement":10853,"Ġrom":10854,"sn":10855,"bras":10856,"ĠBC":10857,"Ġapplies":10858,"ÅĤ":10859,"Ġcanonical":10860,"Ġsignals":10861,"Ġneural":10862,"akh":10863,"Ġregulations":10864,"iteral":10865,"oses":10866,"ĠSydney":10867,"ĠThursday":10868,"Ġ?>":10869,"hensive":10870,"Ġdipl":10871,"Ġcovering":10872,"longrightarrow":10873,"arest":10874,"Ġjet":10875,"ĠPerson":10876,"Ġcontents":10877,"Ġdefines":10878,"ĠNaz":10879,"Ġfacts":10880,"Ġdocumentation":10881,"130":10882,"unes":10883,"Ġrequirement":10884,"rift":10885,"Mer":10886,"NC":10887,"115":10888,"AE":10889,"square":10890,"Ġcharacteristics":10891,"Ġvirt":10892,"vature":10893,"Music":10894,"Ġ\"-":10895,"Single":10896,"ibraries":10897,"?>":10898,"BL":10899,"inction":10900,"Ġtwenty":10901,"Ġmach":10902,"agan":10903,"icenses":10904,"ĠNetherlands":10905,"QU":10906,"LINE":10907,"ĠAirport":10908,"nodes":10909,"ĠPrinc":10910,"quant":10911,"iÃ³n":10912,"OF":10913,"shared":10914,"ĠMarg":10915,"Ġarrested":10916,"Ġcold":10917,"Ġalter":10918,"SV":10919,"Ġinputs":10920,"Ġguide":10921,"ĠWars":10922,"Ġinfer":10923,"ipher":10924,"Ġexplanation":10925,"Ġfeedback":10926,"Ġinteract":10927,"cerning":10928,"tainment":10929,"Ġ'<":10930,"ochastic":10931,"TIME":10932,"Ġenhance":10933,"Password":10934,"Depend":10935,"bmatrix":10936,"swarm":10937,"video":10938,"Cr":10939,"Ġveter":10940,"Ġcorporate":10941,"Ġspecify":10942,"ĠArgent":10943,"prise":10944,"arring":10945,"lyn":10946,"ĠConnect":10947,"ERE":10948,"Ġexpressions":10949,"Ġworldwide":10950,"Ġdiagonal":10951,"ĠÅ":10952,"\\)":10953,"uality":10954,"Ġemergency":10955,"Ġelev":10956,"Ġsuffered":10957,"Ġmetadata":10958,"ĠAz":10959,"Ġfaster":10960,"compiler":10961,"ĠCustom":10962,"resources":10963,"Ġmeta":10964,"IGHT":10965,"ĠComple":10966,"University":10967,"ITION":10968,"Example":10969,"ĠShort":10970,"aste":10971,"Ġnonlinear":10972,"Domain":10973,"})=":10974,"ĠPR":10975,"Ġdemonstrate":10976,"Coll":10977,"MODULE":10978,"Ġcommut":10979,"Ġtrip":10980,"CRE":10981,"Selection":10982,"ĠDoug":10983,"lower":10984,"Ġkeeping":10985,"ĠAgency":10986,"ĠGree":10987,"Ġdropped":10988,"Ġfounder":10989,"ĠDavis":10990,"Ġ).":10991,"Ġpercentage":10992,"Ġlists":10993,"Ġopposed":10994,";}":10995,"Ġembedding":10996,"Ġreprodu":10997,"Cluster":10998,"ðŁ":10999,"Ġglass":11000,"ĠMic":11001,"construct":11002,"opts":11003,"Ġmetrics":11004,"worth":11005,";)":11006,"Services":11007,"Help":11008,"Ġmusicians":11009,"Ġvent":11010,"Ġappeal":11011,"ĠWindows":11012,"ownt":11013,"ĠĠĠĠĠĠĠĠĠĠĠĠĠĠĠĠĊ":11014,"ĠGrant":11015,"))\\":11016,"VALUE":11017,"vee":11018,"$&":11019,"Ġbringing":11020,"Ġadvice":11021,"Ġprompt":11022,"Book":11023,"ĠCommunic":11024,"ifer":11025,"ĠBet":11026,"publ":11027,"algebra":11028,"Character":11029,"Ġbits":11030,"ĠCountry":11031,"HTTP":11032,"iga":11033,"ĠTuesday":11034,"ropical":11035,"ĠIslamic":11036,"TRUE":11037,"ĠCount":11038,"ONG":11039,"Visible":11040,"Ġdx":11041,"Ġsculpt":11042,"âĢ¦âĢ¦":11043,"Miss":11044,"Ġenergies":11045,"^{*":11046,"cdn":11047,"ĠSym":11048,"ĠWin":11049,"Ġgained":11050,"Ġcmd":11051,"IDTH":11052,"manif":11053,"wildfly":11054,"ĠBush":11055,"URI":11056,"Ġscientists":11057,"Ġreserved":11058,"Sports":11059,"Ġcloser":11060,"Ġapart":11061,"profit":11062,"Ġtradition":11063,"ĠSanta":11064,"Ġ[],":11065,"ĠSat":11066,"ĠPolish":11067,"contrib":11068,"indu":11069,"flex":11070,"Ġofficially":11071,"USE":11072,"$};":11073,"ocaml":11074,"Ġgate":11075,"ureau":11076,"ighth":11077,"Ġdisp":11078,"Most":11079,"Ġgravit":11080,"Ġinterior":11081,"Namespace":11082,"achelor":11083,"Ġoffering":11084,"ĠCurrent":11085,"Ġconsumer":11086,"Ġspend":11087,"('.":11088,"Ġ\"<":11089,"ĠCreek":11090,"edu":11091,"ĠFellow":11092,"Ġradial":11093,"Ã¡n":11094,"Sur":11095,"month":11096,"Ġanimal":11097,"Texture":11098,"Ġsoci":11099,"Ġanimation":11100,"Multi":11101,"Ġclassic":11102,"Import":11103,"ĠChannel":11104,"np":11105,"ando":11106,"Transport":11107,"ĠSa":11108,"ĠMinnes":11109,"105":11110,"áĥ":11111,"Ġcollaboration":11112,"overty":11113,"trivial":11114,"Ġabandon":11115,"Progress":11116,"ĠSaf":11117,"ĠRailway":11118,"osa":11119,"omatic":11120,"Ġsomewhat":11121,"Flow":11122,"iversary":11123,",\\,\\":11124,")}_":11125,"Ġwaiting":11126,"Ġdens":11127,"Ġprinciples":11128,"urable":11129,"irms":11130,"craft":11131,"Ġattached":11132,"Ġowners":11133,"ĠCas":11134,"aired":11135,"plementation":11136,"Ġtemperatures":11137,"oval":11138,"cline":11139,"clean":11140,"trace":11141,"Ġfee":11142,"Consider":11143,"BM":11144,"Ġstanding":11145,"Ġherself":11146,"arry":11147,"ĠColorado":11148,"Ġpartners":11149,"Language":11150,"]{\\":11151,"Ġfish":11152,"Ġvalidation":11153,"Ġimprovement":11154,"abric":11155,"Ġhabit":11156,"Ġ$,":11157,"ĠKir":11158,"Ġderive":11159,"avelength":11160,"Ġlect":11161,"<!":11162,"night":11163,"Ġforeach":11164,"ĠAfghan":11165,"Ġschedule":11166,"VE":11167,"some":11168,"Ġgravity":11169,"ĠDer":11170,"Ġrecovery":11171,"Ġsatell":11172,"Ġgoods":11173,"Ġcoronavirus":11174,"regular":11175,"Ġidx":11176,"Ġquasi":11177,"Ġphoton":11178,"Ġsmart":11179,"ĠKansas":11180,"evin":11181,"Ġquantity":11182,"ĠWhy":11183,"ti":11184,"Ġsynchron":11185,"ptic":11186,"tons":11187,"Ġconform":11188,"ĠHay":11189,"Ġloan":11190,"Ġexecuted":11191,"olut":11192,"UD":11193,"PER":11194,"ĠRa":11195,"ï»":11196,"1951":11197,"vo":11198,"ĠMinnesota":11199,"Ġhockey":11200,"pair":11201,"abet":11202,"Ġappearances":11203,"Î±":11204,"Ġmunicipal":11205,"ĠAnton":11206,"ĠSingapore":11207,"Ġcash":11208,"issues":11209,"ĠSoftware":11210,"ĠFac":11211,"Ġextreme":11212,"bg":11213,"ierarchy":11214,"International":11215,"ÐµÐ½":11216,"\\}\\":11217,"ĠInf":11218,"Ġpromoted":11219,"Ġinsurance":11220,"Ġlogger":11221,"ï»¿":11222,"Ġfavour":11223,"fortunately":11224,"ĠGuide":11225,"Mask":11226,"Ġlosing":11227,"1917":11228,"Ġfragment":11229,"Ġmarketing":11230,"itter":11231,"Ġprices":11232,"Ġeasier":11233,"Ġproposal":11234,"Headers":11235,"ĠPlaces":11236,"Ġoccasion":11237,"Ġorb":11238,"iliar":11239,"'));":11240,"/_":11241,"ĠOt":11242,"Ġpriority":11243,"transition":11244,"Ġincreasingly":11245,"yers":11246,"Ġstrik":11247,"Ġhypothesis":11248,"Ġcomplement":11249,"Ġsought":11250,"utenant":11251,"rg":11252,"Uri":11253,"Ġ\\(\\":11254,"iti":11255,"ĠGreg":11256,"ĠChange":11257,"ortion":11258,"Ġcompatible":11259,"plates":11260,"112":11261,"lan":11262,"Ġdeploy":11263,"jan":11264,"bourne":11265,"Ġspeaking":11266,"Ġcreative":11267,"Ġexecute":11268,"JECT":11269,"Ġexercise":11270,"gebras":11271,"Ġneither":11272,"arios":11273,"Ġencounter":11274,"Ġindependence":11275,"ĠAtlantic":11276,"Ġspending":11277,"Ġjuris":11278,"trim":11279,"ĠHttp":11280,"Ġclock":11281,"ĠHas":11282,"comb":11283,"Ġversus":11284,"ORTED":11285,"initely":11286,"Ġaddresses":11287,"Ġdecrease":11288,"pub":11289,"Ġ}}":11290,".âĢĻ":11291,"Ġdocumentary":11292,"folio":11293,"Game":11294,"rb":11295,"there":11296,"Ġmunicipality":11297,"Ġcourts":11298,"ĠLOG":11299,"Day":11300,"Christ":11301,"Ġpermission":11302,"flag":11303,"Ġargued":11304,"runtime":11305,"ĠTal":11306,"Ġcontrols":11307,"tensor":11308,"isson":11309,"udden":11310,"ĠDam":11311,"Ġcart":11312,"Ġtransparent":11313,")})":11314,"isition":11315,"Ġcodes":11316,"Ġhumans":11317,"aked":11318,"Install":11319,"retch":11320,"cluster":11321,"Ġprivacy":11322,"Ġcrucial":11323,"Ġchoices":11324,"Ġgraduate":11325,"Ġstorm":11326,"Ġbos":11327,"aturally":11328,"Ġexcited":11329,"uits":11330,"Ġvariance":11331,"Ġprovisions":11332,"][]{":11333,"ressed":11334,"ĠSant":11335,"ĠBoolean":11336,"Ġferm":11337,"andy":11338,"ĠVen":11339,"sequently":11340,"ĠCorn":11341,"}}}\\":11342,"states":11343,"PM":11344,"Ġmoves":11345,"Ġvictims":11346,"Ġinvolves":11347,"ĠGallery":11348,"rog":11349,"Ġpainting":11350,"pattern":11351,"xs":11352,"ĠMiller":11353,"ĠLes":11354,"LOCK":11355,"ĠBall":11356,"1936":11357,"Ġdemonstrated":11358,"Ġluminos":11359,"cow":11360,"tiny":11361,"ĠTurn":11362,"1914":11363,"Ġprecision":11364,"Ġsaved":11365,"Ġduty":11366,"Ġhosted":11367,"Hence":11368,"ĠProp":11369,"Fragment":11370,"springframework":11371,"}~":11372,"Ġstores":11373,"username":11374,"ieval":11375,"æĸ":11376,"Ġupdates":11377,"ĠNever":11378,"yard":11379,"olving":11380,"issue":11381,"British":11382,"ĠStory":11383,"Ġfeeling":11384,"uable":11385,"cludes":11386,"hered":11387,"ĠRequest":11388,"Ġing":11389,"ĠSche":11390,"Ġparser":11391,"TF":11392,"timeout":11393,"Ġknows":11394,"negative":11395,"Ġmodules":11396,"ryption":11397,"mad":11398,"ĠWisconsin":11399,"Ġnotable":11400,"Ġprogramme":11401,"pull":11402,"ĠRefer":11403,"ycle":11404,"views":11405,"dash":11406,"ĠStaff":11407,"ä»":11408,"@{":11409,"agnostic":11410,"ĠTok":11411,"Ġaren":11412,"South":11413,"David":11414,"Ġnob":11415,"Ġdestination":11416,"Ġchampion":11417,"ĠJordan":11418,"ĠBudd":11419,"Ġsilver":11420,"Ġcancel":11421,"usal":11422,"Ġmort":11423,"Ġui":11424,"repre":11425,"checkbox":11426,"moz":11427,"Ġcoq":11428,"Find":11429,"Ġteachers":11430,"cha":11431,"Ġredshift":11432,"ummy":11433,"async":11434,"indexOf":11435,"secutive":11436,"inator":11437,"Ġban":11438,"Ġpurchased":11439,"Ġcosm":11440,"tics":11441,".<":11442,"Ġdriven":11443,"Ġpermanent":11444,"connected":11445,"uma":11446,"Cloud":11447,"Ġpotentially":11448,"ĠIsraeli":11449,"columnwidth":11450,"Ġschol":11451,"Ġfootballer":11452,"Ġdisplayed":11453,"Ġoperate":11454,"}_{-":11455,"Ġlimitations":11456,"medskip":11457,"Ġgather":11458,"ĠApple":11459,"Ġtemp":11460,"Ġtopological":11461,"ĠTam":11462,"Ġnullptr":11463,"Ġarc":11464,"ĠReact":11465,"Framework":11466,"scriptsize":11467,"ĠQueens":11468,"phy":11469,"ĠPremier":11470,"Ret":11471,"Ġrevenue":11472,"Ġ}{":11473,"Ġfacilit":11474,"Following":11475,"Ġheaders":11476,"azy":11477,"Ġfant":11478,"reprene":11479,")--(":11480,"Ġcompliance":11481,"inant":11482,"Ġhundreds":11483,"Ġpropose":11484,"Ġgovernments":11485,"PY":11486,"enabled":11487,"ĠHou":11488,"Ġpresidential":11489,"ayed":11490,"Ġbinding":11491,"DateTime":11492,"built":11493,"Ġvess":11494,"Ġdismiss":11495,"ifdef":11496,"Ġmixing":11497,"Ġparliament":11498,"('/":11499,"orizon":11500,"Ġdrugs":11501,"parallel":11502,"ffff":11503,"Ġdestr":11504,"Ġfrag":11505,"ĠTy":11506,"Ġworst":11507,"urities":11508,"observ":11509,"inian":11510,"Ã©e":11511,"tection":11512,"Ð²":11513,"Ġmel":11514,"Ġafford":11515,"Ġrestricted":11516,"Ġdiscovery":11517,"Ġrespective":11518,"ĠMilitary":11519,"ĠRoute":11520,"Ġdiagn":11521,"Ġenforcement":11522,"Ġmultip":11523,"\\}$,":11524,"design":11525,"Ġconversion":11526,"elle":11527,"peror":11528,"Ġcontest":11529,"Ids":11530,"ows":11531,"DM":11532,"Ġtimeout":11533,"ENSE":11534,"Ġdelivered":11535,"Ġtruly":11536,"Ġposted":11537,"Ġseparation":11538,"xhtml":11539,"ĠIndiana":11540,"Ġwww":11541,"FLA":11542,"Email":11543,"Google":11544,"ceive":11545,"ĠRecord":11546,"Ġdecor":11547,"ĠStandard":11548,"ĠGolden":11549,"Ġassuming":11550,"Ġqualified":11551,"Ġpromise":11552,"Ġbreaking":11553,"Ġgenerating":11554,"ĠHo":11555,"Ġmountain":11556,"Just":11557,"ĠFinal":11558,"Free":11559,"Ġwhatever":11560,"Ġopacity":11561,"Ġprohib":11562,"Ġurg":11563,"Ġadjacent":11564,"Ġacknowled":11565,"PUT":11566,"Skip":11567,"ĠArizona":11568,"uning":11569,"Ġdoubt":11570,"commod":11571,"Delegate":11572,"Player":11573,"kish":11574,"Ġimpossible":11575,"optional":11576,"ĉčĊ":11577,"shop":11578,"ogonal":11579,"ĠTransport":11580,"emet":11581,"ĠUI":11582,"artheta":11583,"ĠArrayList":11584,"102":11585,"vartheta":11586,"ĠSurvey":11587,"ĠCELL":11588,"Ġmanage":11589,"icide":11590,"tp":11591,"Program":11592,"Ġhorizontal":11593,"Ġrestrictions":11594,"Ġturb":11595,"holders":11596,"blog":11597,"Ġbatch":11598,"ctors":11599,"Look":11600,"Ġtransactions":11601,"Ġgenerator":11602,"Ġstages":11603,"insic":11604,"Ġours":11605,"overning":11606,"hd":11607,"Ġquantities":11608,"Ġwarning":11609,"ĠSM":11610,"seq":11611,"Ġannounce":11612,"tk":11613,"\"/":11614,"POST":11615,"Ġscroll":11616,"ĠMemorial":11617,"signature":11618,"jet":11619,"ĠSon":11620,"ĠLady":11621,"assembly":11622,"ĠAS":11623,"Ġuniverse":11624,"invalid":11625,"Ġreporting":11626,"eros":11627,"Ġresc":11628,"Ġisomorphism":11629,"Ġcreates":11630,"METHOD":11631,"phantom":11632,"ĠModern":11633,"\\|\\":11634,"1938":11635,"ĠMoh":11636,"ĠNative":11637,"111":11638,"Returns":11639,"blank":11640,"enna":11641,"tar":11642,"Ġdelivery":11643,"Ġexperts":11644,"ĠWel":11645,"asm":11646,"/.":11647,"Ġcryst":11648,"icular":11649,"ativ":11650,"Ġsensitive":11651,"ĠTai":11652,"Ġmob":11653,"Î¿":11654,"itely":11655,"Ġcapable":11656,"Ant":11657,"Scal":11658,"ĠArticle":11659,"ĠLewis":11660,"127":11661,"ĠFood":11662,"Ġdefinitions":11663,"sig":11664,"Ġtechnologies":11665,"ĠJacob":11666,"Mouse":11667,"Real":11668,"Ġassessment":11669,")->":11670,"ĠDuke":11671,"Ġdominant":11672,"Ġdecide":11673,"Ġevaluated":11674,"Ġsleep":11675,"Ġsky":11676,"news":11677,"Enter":11678,"ĠMissouri":11679,"ĠVietnam":11680,"mazing":11681,"ĠBrad":11682,"Ġsubstantial":11683,"Ġongoing":11684,"poly":11685,"Math":11686,"Ġdebug":11687,"Ġcolors":11688,"Ġkid":11689,"Ãº":11690,"Ġbed":11691,"ĠPut":11692,"Ġles":11693,"extern":11694,"tenance":11695,"Fore":11696,"ĠExample":11697,"Ġstopped":11698,"ativity":11699,"accept":11700,"ĠCond":11701,"rell":11702,"Ġparticipated":11703,"^*\\":11704,"Ġproducing":11705,"ĠBrother":11706,"ĠLanguage":11707,"Austral":11708,"igate":11709,"Generated":11710,"Ġexcellent":11711,"kh":11712,"ĠBridge":11713,"Len":11714,"ycl":11715,"Ġcontributed":11716,"ĠCulture":11717,"Ġfails":11718,"+(":11719,"Ġgeneralized":11720,"ika":11721,"Ġvalign":11722,"anches":11723,"Sequence":11724,"Ġsubjects":11725,"mean":11726,"...,":11727,"}}=":11728,"Association":11729,"Ġvo":11730,"RC":11731,"Ġdiverse":11732,"ulus":11733,"Children":11734,"Ġperiods":11735,"ĠHTTP":11736,"Ġentertain":11737,"PD":11738,"213":11739,",'":11740,"good":11741,"1937":11742,"ju":11743,"Ġconservation":11744,"Ġacceler":11745,"ĠSQL":11746,"|^{":11747,"Ġlogic":11748,"Ġiteration":11749,"Cho":11750,"Ġrgba":11751,"(@":11752,"triangle":11753,"ĠGre":11754,"engers":11755,"Ġhall":11756,"Ġfindings":11757,"sidebar":11758,"Ġwat":11759,"Bean":11760,"ĠAdam":11761,"Ġindicating":11762,"ĠMaryland":11763,"Ġjoining":11764,"bian":11765,"boost":11766,"Ġconcentration":11767,"Ġscenes":11768,"Ga":11769,"ĠSweden":11770,"Ġseemed":11771,"once":11772,"Ġforth":11773,"ennessee":11774,"yy":11775,"atomic":11776,"ĠHoly":11777,"ĠHarry":11778,"Where":11779,"Ġcolour":11780,"ĠLow":11781,"onymous":11782,"Ġasymptotic":11783,"&=\\":11784,"owned":11785,"ships":11786,"Ġscr":11787,"ĠHollywood":11788,"ordon":11789,"Ġcustomer":11790,"Ġcombat":11791,"}|\\":11792,"vc":11793,"Lat":11794,"Ġseeking":11795,"Effect":11796,"proxy":11797,"Methods":11798,"Ġbuf":11799,"Ġsurg":11800,"Ġwa":11801,".\",":11802,"1900":11803,"nc":11804,"ifndef":11805,"ĠRaj":11806,"coln":11807,"Sql":11808,"Ġsending":11809,"****************************************************************":11810,"ĠLeon":11811,"Ġadvent":11812,"${\\":11813,"Ġenum":11814,"=.":11815,"Ġinclusion":11816,"extension":11817,"dk":11818,"ĠHal":11819,"posing":11820,"Ġpresents":11821,"osl":11822,"Ã¢":11823,"Ġlegend":11824,"Ġplugin":11825,"Ġwrites":11826,"uties":11827,"peat":11828,"Interval":11829,"Ġopts":11830,"Ġapproximate":11831,"ĠInput":11832,"ĠÐ¿":11833,"ĠConsider":11834,"assandra":11835,"aintiff":11836,"ulatory":11837,"Ġscores":11838,"policy":11839,"Ġdefeat":11840,"Ġexpat":11841,"Est":11842,"Ġhotel":11843,"Ġsharing":11844,"Ġbriefly":11845,"volume":11846,"missions":11847,"Ġpointed":11848,"Ġmal":11849,"Ġpassion":11850,"Bind":11851,"Ġrent":11852,"urst":11853,"Ign":11854,"counter":11855,"Ġnovels":11856,"Ġranked":11857,"Ġsigns":11858,"Ġparticipate":11859,"EEEEFF":11860,"ĠDeath":11861,"irth":11862,"Ġequivalence":11863,"ĠForest":11864,"series":11865,"CTYPE":11866,"Ġdirections":11867,"ĠĠčĊ":11868,"ounded":11869,"subsec":11870,"Ġflows":11871,"ybrid":11872,"helper":11873,"Ġast":11874,"Ġele":11875,"Ġsubgroup":11876,"Ġworker":11877,"Ġpiano":11878,"uther":11879,"Ġvast":11880,"Ġmodify":11881,"ĠOregon":11882,"emetery":11883,"ĠAmb":11884,"RT":11885,"season":11886,"Ġemployee":11887,"ivals":11888,"rie":11889,":=\\":11890,"Ġguess":11891,"('#":11892,"ĠLtd":11893,"ĠCart":11894,"Ġadult":11895,"Ke":11896,"ĠNAS":11897,"agen":11898,"Once":11899,"Ġproduces":11900,"phase":11901,"ĠEconomic":11902,"ĠNa":11903,"Ġconsideration":11904,"Ġdashed":11905,"Ġmagnet":11906,"Posted":11907,"Ġexhibition":11908,"Ġ];":11909,"Ġlang":11910,"Ġ([":11911,"()))":11912,"ĠLem":11913,"Ġaw":11914,"Ġinhab":11915,"Ġposter":11916,"Ġvideos":11917,"Oct":11918,"Stats":11919,"ĠRest":11920,"Ġwalls":11921,"ĠHan":11922,"1919":11923,"aaaa":11924,"Moreover":11925,"Ġengaged":11926,"ĠMS":11927,"ĠPot":11928,"Ġaffili":11929,"Make":11930,"hedral":11931,"ĠBol":11932,"Ġstead":11933,"Endpoint":11934,"ĠMagazine":11935,"Ġsuppose":11936,"Ġorientation":11937,"uy":11938,"Ġfoundation":11939,"expand":11940,"Stop":11941,"Ġrejected":11942,"Hub":11943,"Ġcorrection":11944,"quote":11945,"Notification":11946,"Ġroots":11947,"cers":11948,"Ġraces":11949,"Ġcab":11950,"ĠSab":11951,"Ġbought":11952,"Ġwilling":11953,"pur":11954,"represent":11955,"Suppose":11956,"Ġpossess":11957,"})^":11958,"Ġboundaries":11959,"Ġdense":11960,"Ġcommitment":11961,"Ġtmp":11962,"Ġjournalist":11963,"ellectual":11964,"Ġstudying":11965,"ques":11966,"ĠVector":11967,"Ġprocedures":11968,"ĠBuilding":11969,"eeper":11970,"establ":11971,"Family":11972,"ĠCov":11973,"Ġcharset":11974,"formed":11975,"Ġdesignated":11976,"Ġcrowd":11977,"Ax":11978,"ĠSIZE":11979,"ĠUnit":11980,"Named":11981,"Ġsevent":11982,"Ġpipeline":11983,"aren":11984,"Ġvulner":11985,"ĠCzech":11986,"Ġnations":11987,"ĠTrade":11988,"Ġprofiles":11989,"ĠLcom":11990,"verage":11991,"Previous":11992,"Ġthin":11993,"ĠPay":11994,"ĠRose":11995,"Ġpopulations":11996,"tle":11997,"Material":11998,"QUE":11999,"Ġped":12000,"itarian":12001,"}$}":12002,"Ġbelongs":12003,"bat":12004,"Ġrecommended":12005,"mk":12006,"Hom":12007,"|}{":12008,"Ġcopyright":12009,"Black":12010,"ears":12011,"ois":12012,"Ġchallenging":12013,"audi":12014,"witzer":12015,"ĠAmong":12016,"ĠProt":12017,"ĠNorm":12018,"Ã©s":12019,"Ġcomposer":12020,"Basic":12021,"UC":12022,"sr":12023,"ĠMountain":12024,"Native":12025,"ailability":12026,"theme":12027,"esides":12028,"Ġmembership":12029,"Ġcollapse":12030,"acon":12031,"Ġfavorite":12032,"shal":12033,"Begin":12034,"ĠMari":12035,"checked":12036,"Ġfaced":12037,"Ġsumm":12038,"setup":12039,"Ġliquid":12040,"Ġwinter":12041,"Ġdisorder":12042,"Cert":12043,"ĠEND":12044,"Screen":12045,"was":12046,"ĠHart":12047,"instein":12048,"ĠAge":12049,"Ġrealized":12050,"dc":12051,"slant":12052,"Ġperiodic":12053,"Ġstone":12054,"Ġintermediate":12055,"ĠPit":12056,"(\"/":12057,"erving":12058,"isp":12059,"Ġfol":12060,"Ġreverse":12061,"Ġbrings":12062,"Ġmes":12063,"DOCTYPE":12064,"åĪ":12065,"Mill":12066,"Mc":12067,"ĠDor":12068,"usform":12069,"Ġlift":12070,"figures":12071,"NavBarFont":12072,"igious":12073,"Ġlose":12074,"numerusform":12075,"esome":12076,"FORM":12077,"ĠVi":12078,"Ġcurvature":12079,"ĠTer":12080,"constant":12081,"Ġlistener":12082,"warning":12083,"ĠCost":12084,"unny":12085,"Ġconsecutive":12086,"undefined":12087,"origin":12088,"Ġnormalized":12089,"outs":12090,"Ġconsequences":12091,"ĠFuture":12092,"Ġtight":12093,"Ġreset":12094,"download":12095,"Ġkick":12096,"Ġ\"$":12097,"Ġoutcome":12098,"Ben":12099,"specific":12100,"ĠANY":12101,"Ġguest":12102,"OC":12103,"140":12104,"Ġsuppor":12105,"Ġamounts":12106,"']['":12107,"ĠStadium":12108,"Ġdates":12109,"Ġconcerning":12110,"written":12111,"1935":12112,"Ġmolecular":12113,"Ġcarri":12114,"etary":12115,"Elements":12116,"Ġtemporary":12117,"%\"":12118,"SW":12119,"ĠSearch":12120,"Ġ({\\":12121,"Ġpref":12122,"Ġdiscussions":12123,"Execution":12124,"Ġhouseholds":12125,"Ġkilling":12126,"oupl":12127,"1933":12128,"Ġsymbols":12129,"ishment":12130,"Ali":12131,"ĠassertThat":12132,"Ġchose":12133,"Every":12134,"Ġcomfort":12135,"Ġstrike":12136,"ahoma":12137,"ĠSeason":12138,"Aug":12139,"...</":12140,"ĠSenior":12141,"igenous":12142,"zip":12143,"Ġwinners":12144,"witzerland":12145,"Environment":12146,"itudes":12147,"ĠMexican":12148,"ropolitan":12149,"conduct":12150,"ĠRow":12151,"LR":12152,"Ġgovernor":12153,"Ġcolle":12154,"Ġgrade":12155,"ĠBit":12156,"attery":12157,"Ġtitled":12158,"aware":12159,"ĠTro":12160,"ĠArthur":12161,"Ġwire":12162,"Ġschema":12163,"olutely":12164,"{\"":12165,"Publ":12166,"ĠGP":12167,"ĠOcean":12168,"Ġdisappe":12169,"ĠAT":12170,"Ġwing":12171,"through":12172,"ĠDue":12173,"ĠLegisl":12174,"Ġisot":12175,"angel":12176,"ĠWhere":12177,"ĠFront":12178,"Ġdominated":12179,"Polit":12180,"ĠTony":12181,"Ġrefused":12182,"Ġstrip":12183,"umps":12184,"Sample":12185,"Ġcoupled":12186,"ĠSC":12187,"kt":12188,"Ġloved":12189,"Ġmedicine":12190,"resize":12191,"Ġgar":12192,"arith":12193,"ĠPub":12194,"emony":12195,"supported":12196,"ÑģÑĤ":12197,"ĠFROM":12198,"Ġentang":12199,"Final":12200,"Ġcharacterized":12201,"Ġlawyer":12202,"aza":12203,"ĠEu":12204,"Ġpixel":12205,"redu":12206,"apsed":12207,"Ġskip":12208,"=[":12209,"Proto":12210,"Normal":12211,"sun":12212,"outheast":12213,"Star":12214,"Ġphotograph":12215,"erty":12216,"Ġlosses":12217,"Ġcircuit":12218,"ailing":12219,"FP":12220,"æľ":12221,"Append":12222,"ĠSever":12223,"Ġregarded":12224,"Based":12225,"havior":12226,"python":12227,"ĠĠĠĠĠĠĠĠĠĠĠĠĠĠĠĠĠĠĠĠĠĠĠĠĠĠĠĠĠĠ":12228,"ĠFord":12229,"\"\"\"":12230,"dark":12231,"Ġrapidly":12232,"Ġpilot":12233,"Ġteen":12234,"socket":12235,"Ġpublisher":12236,"ĠAh":12237,"ĠRoss":12238,"moment":12239,"glyph":12240,"Ġwins":12241,";\">":12242,"Ġbanks":12243,"=\"$":12244,"Ġsevere":12245,"console":12246,"ikip":12247,"lass":12248,"Span":12249,"overview":12250,"Focus":12251,"ĠAuthority":12252,"println":12253,"^*(":12254,"ANT":12255,"?\"":12256,"DEFAULT":12257,"Ġvariations":12258,"offs":12259,"Sort":12260,"SCR":12261,"Ġsimilarly":12262,"Ã¸":12263,"ĠDiego":12264,"Ġfluctuations":12265,"goto":12266,"parts":12267,"iley":12268,"Ġyourself":12269,"ĠValid":12270,"multirow":12271,"ĠKnow":12272,"Ġfranch":12273,"weg":12274,"Ġcaught":12275,"Li":12276,"Ġstronger":12277,"Ġstochastic":12278,"UK":12279,"osed":12280,"wealth":12281,"Constructor":12282,"Ġuncertainties":12283,"Ġthir":12284,"Xi":12285,"Ġaccused":12286,"uscript":12287,"Ġoffices":12288,"104":12289,"Ġapproval":12290,"enda":12291,"activity":12292,"aks":12293,"asty":12294,"Ġresistance":12295,"ĠAnderson":12296,"Ġtack":12297,"1934":12298,"Ġrestriction":12299,"Ġattempted":12300,"Ġ\\!":12301,"ĠLore":12302,"Ġfestival":12303,"ĠNick":12304,"ĠFOR":12305,"ĠResponse":12306,":[":12307,"Why":12308,"ĠApache":12309,"Ġempir":12310,"West":12311,"Ġviewed":12312,"PROJECT":12313,"Ġtopics":12314,"Ġconcluded":12315,"'_{":12316,"Ġaccommod":12317,"Ġdynamical":12318,"Ġassault":12319,"Ġheavily":12320,"ĠSite":12321,"ĠBrian":12322,"tikzpicture":12323,"Ġmaintained":12324,"}\\|":12325,"Ġelig":12326,"lu":12327,"Ġillegal":12328,"rated":12329,")^\\":12330,"ruby":12331,"Ġtheatre":12332,"Ġdependencies":12333,"................................":12334,"ĠIndones":12335,"Ġreads":12336,"dam":12337,"Animation":12338,"ĠCharl":12339,"facebook":12340,"Ġ''":12341,"ĠWinter":12342,"ĠMaria":12343,"Ġphases":12344,"Ġguid":12345,"ĠCore":12346,"Dictionary":12347,"iated":12348,"Ġiron":12349,"Ġwouldn":12350,"Condition":12351,"ORY":12352,"Ġspoke":12353,"MF":12354,"Wallet":12355,"Subs":12356,"creens":12357,"Ġdollars":12358,"Ġ$\\{\\":12359,"ymmetry":12360,"Ġclosure":12361,"ĠRad":12362,"closure":12363,"Ġeigenvalues":12364,"ĠMit":12365,"abama":12366,"ĠBishop":12367,"Ġcausing":12368,"Ġstrategic":12369,"ĠAud":12370,"Ġvalidate":12371,"Ġbehalf":12372,"iscal":12373,"ĠBrig":12374,"ĠPlease":12375,"ĠEric":12376,"paper":12377,"Ġprepare":12378,"ĠSyria":12379,"Ġmit":12380,"angers":12381,"compare":12382,"EP":12383,"sym":12384,"Required":12385,"Vertex":12386,"Area":12387,"brand":12388,"Ġreduces":12389,"Ġroyal":12390,"ĠBox":12391,"oust":12392,"Ġspr":12393,"1929":12394,"ĠLind":12395,"Ġconfigure":12396,"Sep":12397,"batch":12398,"rupted":12399,"ĠEP":12400,",.":12401,"Ġdirectors":12402,"Ġdrag":12403,"Ġ>>":12404,"Ġcenters":12405,"iami":12406,"116":12407,"Ġatoms":12408,"ĠRegiment":12409,"cross":12410,"ĠNAV":12411,"visible":12412,"Her":12413,"ĠUkraine":12414,"variable":12415,"Ġswe":12416,"izers":12417,"SELECT":12418,"Ġdetector":12419,"Ġpoet":12420,"equations":12421,"Ð´":12422,"Pair":12423,"Ġcompeted":12424,"ikipedia":12425,"Db":12426,"Ġstrictly":12427,"VALID":12428,"ANG":12429,"\\!\\":12430,"Ġenemy":12431,"izz":12432,"Ġretail":12433,"Ġprofit":12434,"Ġdeclare":12435,"backslash":12436,"ĠSimon":12437,"DIS":12438,"ĠRoll":12439,"RPC":12440,"Bel":12441,"Ġphilosophy":12442,"ĠBureau":12443,"isations":12444,"Ġprotest":12445,"who":12446,"selector":12447,"Ġworse":12448,"Ġreaching":12449,"dag":12450,"methods":12451,"Ġfitting":12452,"Ġconfigurations":12453,"complex":12454,"ivacy":12455,"Detail":12456,"Ġtriple":12457,"vironments":12458,"Ġengineer":12459,"available":12460,"factory":12461,"wd":12462,"Ġmanufacturing":12463,"aron":12464,"'];":12465,"Users":12466,"Ġspac":12467,"Ġcomprehensive":12468,"period":12469,"idal":12470,"Ġnp":12471,"Ġaccessible":12472,"ĠFind":12473,"ĠHop":12474,"Ġbow":12475,"isot":12476,"MIN":12477,"REG":12478,"notag":12479,"Ġcorrectly":12480,"oor":12481,"ĠMatt":12482,"ĠTennessee":12483,"ĠallClasses":12484,"imits":12485,"ĠGh":12486,"ried":12487,"Personal":12488,"Tele":12489,"nol":12490,"ĠALIGN":12491,"Ġdistricts":12492,"TestCase":12493,"ĠAttorney":12494,"Ġyards":12495,"Ġdiversity":12496,"^{(\\":12497,"Ġdescribing":12498,"Ġordinary":12499,"ĠGreece":12500,"eah":12501,"chant":12502,"ĠallClassesLink":12503,"Ġchairman":12504,"finite":12505,"ĠMedal":12506,"ĠAndroid":12507,"requency":12508,"ĠJane":12509,"Ġsituations":12510,"000000":12511,"ĠON":12512,"Ġcomplicated":12513,"Ġatomic":12514,"Hon":12515,"Ġtags":12516,"INTER":12517,"release":12518,"ĠFederation":12519,"bus":12520,"created":12521,"Ġ\\&":12522,"Ġsolving":12523,"Admin":12524,"Ġframes":12525,"Connect":12526,"Ġpasses":12527,"ducible":12528,"\"].":12529,"vertical":12530,"Lib":12531,"ĠBalt":12532,"Ġminute":12533,"_);":12534,"downarrow":12535,"ĠNig":12536,"Ġfake":12537,"commons":12538,"pin":12539,"roit":12540,"ĠDigital":12541,"Ġreward":12542,"1910":12543,"Ġhair":12544,"Ġprecise":12545,"Lower":12546,"Ġquark":12547,"Ġquot":12548,"ĠAthlet":12549,"Ġbind":12550,"Private":12551,"Save":12552,"getValue":12553,"Ġflu":12554,"Ġassociate":12555,"Ġseats":12556,"feed":12557,"Validator":12558,"ĠSav":12559,"ĠThird":12560,"Ġalert":12561,"1915":12562,"Raw":12563,"ĠForces":12564,"Ġuniversities":12565,"Plan":12566,"ickets":12567,"Ġignored":12568,"BY":12569,"Ġsympt":12570,"cv":12571,"Ġadults":12572,"Ġshooting":12573,"convert":12574,"ESS":12575,"Ġreaders":12576,"Ġgoverning":12577,"ĠCaptain":12578,"Ġhorse":12579,"Ġlay":12580,"loader":12581,"Ġanom":12582,"Join":12583,"TRY":12584,"Ġrisks":12585,"??":12586,"ĠFull":12587,"Ġalias":12588,"plier":12589,"apis":12590,"Ġsudden":12591,"Ġreducing":12592,"Ġtowns":12593,"Ġpoverty":12594,"Ġnice":12595,"Ġ@\"":12596,"Ġcursor":12597,"wave":12598,"ĠCapital":12599,"Ġfaces":12600,"Ġpartially":12601,"ordinate":12602,"clipse":12603,"Ġexposure":12604,"Ġaccordance":12605,"Operator":12606,"ĠCab":12607,"Nullable":12608,"Ġconversation":12609,"ArgumentException":12610,"keep":12611,"Ġmerge":12612,"fred":12613,"Ġtang":12614,"Should":12615,"ections":12616,"Ġlyr":12617,"Ġstyles":12618,"ĠDark":12619,"issip":12620,"Ġrelief":12621,"corollary":12622,"making":12623,"Ġestablishment":12624,"inema":12625,"Ġvoting":12626,"Ġ\\\"":12627,"Ġvocal":12628,"Ġreplacement":12629,"Ġsuit":12630,"ĠBarn":12631,"agnostics":12632,"Ġrevers":12633,"Ġoldest":12634,"Ġidentification":12635,"Volume":12636,"spin":12637,"lab":12638,"1928":12639,"Wait":12640,"Ġsimultaneously":12641,"gather":12642,"Ġaccum":12643,"ĠMoscow":12644,"Ġpanels":12645,"analy":12646,"klahoma":12647,"Ġnaturally":12648,"ĠLiter":12649,"Ġinvent":12650,"ĠSuppose":12651,"ĠXML":12652,"Ġreconstruction":12653,"ĠCG":12654,"ĠPier":12655,"Ġsand":12656,"Ġmillions":12657,"Also":12658,"ĠPA":12659,"Ġcourses":12660,"Ġfamiliar":12661,"utr":12662,"western":12663,"slice":12664,"Ġshel":12665,"Ġincred":12666,"ologists":12667,"eland":12668,"Ġ_.":12669,"eder":12670,"Ġmd":12671,"Release":12672,"Ġputting":12673,"Ġexplains":12674,"objects":12675,"\\%$":12676,"Ġneighbour":12677,"Ð°Ð½":12678,"Ġcarrying":12679,"(-\\":12680,"Ġbroke":12681,"nm":12682,"wick":12683,"Tax":12684,"ANCE":12685,"Ð¾Ð²":12686,"mouse":12687,"sequence":12688,"Ġhits":12689,"ĠLincoln":12690,"Ġprops":12691,"Ġmanip":12692,"stan":12693,"Ġschemes":12694,"Limit":12695,"route":12696,"exec":12697,"icut":12698,"lope":12699,"ĠCommun":12700,"uble":12701,"database":12702,"ĠBatt":12703,"Ġpolarization":12704,"Ġaf":12705,"elem":12706,"Ġuniformly":12707,"ĠSimilarly":12708,"ĠBos":12709,"agrang":12710,"ĠBat":12711,"EventListener":12712,"mont":12713,"Ġyellow":12714,"ĠMean":12715,"Ġsubmitted":12716,"Ġarmed":12717,"anga":12718,"Ġproportional":12719,";\\;\\":12720,"Pack":12721,"ÏĦ":12722,"covery":12723,"Ġcommunications":12724,"ĠClient":12725,"ĠClinton":12726,"Ġter":12727,"Ñĩ":12728,"ĠAccount":12729,"ĠSquare":12730,"unders":12731,"ĠGib":12732,"Ġwavelength":12733,"ĠDB":12734,"Ġpenalty":12735,"Ġtsd":12736,"ĠFourier":12737,"Ġmodal":12738,"Ġselling":12739,"quir":12740,"Ġdiscipl":12741,"Ġdepict":12742,"living":12743,"ELD":12744,"Pers":12745,".\\\\":12746,"Den":12747,"loom":12748,"Ġbelieves":12749,"Ġmigr":12750,"Ġlandscape":12751,"ĠHouston":12752,"Ġentities":12753,"elastic":12754,"ĠPhilip":12755,"Ġparish":12756,"compile":12757,"uts":12758,"Ġretirement":12759,"cluding":12760,"got":12761,"Ġexplos":12762,"owntown":12763,"Cur":12764,"ĠØ":12765,"Ġevening":12766,"Flag":12767,"Ġoccupied":12768,"owski":12769,"Observ":12770,"1932":12771,"ĠTag":12772,"Ġadapted":12773,"Ġembedded":12774,"Ġregistration":12775,"Ġfrequencies":12776,"ĠAdditionally":12777,"ĠJoh":12778,"vi":12779,"ĠSix":12780,"Ġvarying":12781,"Move":12782,"ĠBiden":12783,"Ġrein":12784,"Ġgene":12785,"Ġplate":12786,"Ġelimin":12787,"ĠMun":12788,"ĠThose":12789,"ĠDisney":12790,"Mich":12791,"ĠWIT":12792,"Ġrenamed":12793,"Ġchecked":12794,"Ġgravitational":12795,"Remote":12796,"watch":12797,"Ġhospit":12798,"ĠCloud":12799,"Ġhun":12800,"sep":12801,"Ġexpensive":12802,"Warning":12803,"Syntax":12804,"leges":12805,"wig":12806,"ĠBan":12807,"former":12808,"phan":12809,"Cent":12810,"twitter":12811,"Ġfacing":12812,"!\"":12813,"ĠIowa":12814,"enez":12815,"Ġparticipation":12816,"Ġpresentation":12817,"Ġwhenever":12818,"Ġillustrated":12819,"Ġprospect":12820,"validate":12821,"Ġownership":12822,"Ġinvited":12823,"Ġimplicit":12824,"Ġteach":12825,"jecture":12826,"dig":12827,"ARD":12828,"WORD":12829,"notations":12830,"Ġluminosity":12831,"isEmpty":12832,"ĠWrite":12833,"ORDER":12834,"ĠEs":12835,"Copyright":12836,"107":12837,"Fact":12838,"ĠNFL":12839,"aneous":12840,"Ġsurfaces":12841,"å®":12842,"ĠFa":12843,"efe":12844,"ĠSri":12845,"mag":12846,"Ġcolspan":12847,"ĠRepresentatives":12848,"Ġstruggle":12849,"Card":12850,"Ġretain":12851,"isset":12852,"Ġclip":12853,"ircles":12854,"ĠKal":12855,"ĠSets":12856,"Ġclassified":12857,"inherit":12858,"exit":12859,"ĠSwedish":12860,"Women":12861,"iture":12862,"AI":12863,"Ġfly":12864,"German":12865,"uj":12866,"Ġbrothers":12867,"Ġsystematic":12868,"UES":12869,"Light":12870,"Ġcub":12871,"elson":12872,"ĠFall":12873,"incial":12874,"ĠPhilippines":12875,"WH":12876,"ĠIns":12877,"William":12878,"ĠColon":12879,"1916":12880,"intell":12881,"Ġcenturies":12882,"ĠHarris":12883,"Pred":12884,"ificial":12885,"Ġhandling":12886,"ibl":12887,"Ġatmosphere":12888,"FN":12889,"Ġtopology":12890,"Ġinternet":12891,"Ġ---":12892,"ĠStone":12893,"ĠApplication":12894,"ĠâĢ¢":12895,"Ġcontinuing":12896,"ĉĠĠ":12897,"thew":12898,"Ġlob":12899,"Ġconventional":12900,"Ġelectrons":12901,"lights":12902,"Ð¼":12903,"Ġasking":12904,"Ġdegener":12905,"Ġtyped":12906,"6666":12907,"Ġchair":12908,"ĠEntertainment":12909,":`":12910,"Ġgeometric":12911,"Ġcritics":12912,"alion":12913,"InputStream":12914,"106":12915,"DATA":12916,"ĠSky":12917,"pto":12918,"Ġkil":12919,">)":12920,"ĠDream":12921,"Overview":12922,"ĠStatus":12923,"Ġholid":12924,"Ġfmt":12925,"Ġregularly":12926,"resolve":12927,"itecture":12928,"ibliography":12929,"Ġdangerous":12930,"Ġadds":12931,"Ġconsc":12932,"Ġexpectation":12933,"cycl":12934,"Ġsees":12935,")}.":12936,"Ġbold":12937,"enberg":12938,"icator":12939,"Ġneighb":12940,"Ġselector":12941,"Ġstreets":12942,"Ġconservative":12943,"ĠDaily":12944,"scopic":12945,"Sources":12946,"NSString":12947,"/{":12948,"standard":12949,"ĠKat":12950,"Ġdt":12951,"NET":12952,"Ġdealing":12953,"Ġguy":12954,"cohol":12955,"ĠCS":12956,"Ġfib":12957,"Ġdefining":12958,"Binding":12959,"ĠSwitzerland":12960,"ĠHor":12961,"{.":12962,"ĠWy":12963,"herical":12964,"aval":12965,"odge":12966,"ĠNich":12967,"Conver":12968,"Ġplatforms":12969,"Ġvoted":12970,"118":12971,"ĠCNN":12972,"ĠSound":12973,"Ġconsumption":12974,"eron":12975,"ĠNAVBAR":12976,"CHAR":12977,"103":12978,"ĠHeart":12979,"oven":12980,"Ġburied":12981,"inus":12982,"umption":12983,"Ġweekend":12984,"library":12985,"submit":12986,"Ġwindows":12987,"Please":12988,"ĠVideo":12989,"$.}":12990,"Ġmeetings":12991,"Ġcounsel":12992,"Ġ_{\\":12993,"Ġinfluenced":12994,"Information":12995,"Ġcollective":12996,"ĠÂ·":12997,"stud":12998,"Ġguarantee":12999,"ĠChap":13000,"elve":13001,"ynamics":13002,"Ġadvers":13003,"Renderer":13004,"Ġsphere":13005,"()),":13006,"gar":13007,"anny":13008,"Ġscenarios":13009,"intellij":13010,"!]":13011,"radio":13012,"ĠMalays":13013,"USER":13014,"ĠHighway":13015,"IOException":13016,"IAL":13017,"distance":13018,"Ġsignificance":13019,"(.":13020,">:":13021,"Ġsuspend":13022,"ante":13023,"Ġcollision":13024,"Drop":13025,"ĠMoon":13026,"Ġstraightforward":13027,"asp":13028,"Tube":13029,"rig":13030,"ĠBah":13031,"ĠPatrick":13032,"Ġscoring":13033,"Ġreplacing":13034,"rock":13035,"SSL":13036,"ista":13037,"Enumer":13038,"highlight":13039,"oa":13040,"ĠArk":13041,"ĠHoward":13042,"360":13043,"Ġkinds":13044,"ĠHarvard":13045,"Border":13046,"phony":13047,"Ġundert":13048,"pu":13049,"odox":13050,"eyn":13051,"ĠTax":13052,"Ġchap":13053,"week":13054,"Ġappreci":13055,"ĠDick":13056,"LOC":13057,"Ġdrivers":13058,"varrho":13059,"hook":13060,"memory":13061,"diction":13062,"CLASS":13063,"Ġneutral":13064,"uler":13065,"lad":13066,"}{{\\":13067,"nie":13068,"loyd":13069,"åħ":13070,"destroy":13071,"ĠNorway":13072,"Ġnominated":13073,"ĠTreat":13074,"ouses":13075,"FM":13076,"Pal":13077,"roc":13078,"via":13079,"Ep":13080,"UST":13081,"Folder":13082,"Ġcompetitive":13083,"~~~~~~~~":13084,"ĠJam":13085,"ĠRegional":13086,"aze":13087,"Serializer":13088,"Gui":13089,"merge":13090,"Ġpublications":13091,"Ġcommands":13092,"Life":13093,"ĠAlbert":13094,"Ġtables":13095,"Ġperturbation":13096,"Ġmanagers":13097,"Ġexposed":13098,"Ġdrawing":13099,"BN":13100,"Ġ_,":13101,"gradient":13102,"Ġanalys":13103,"ardo":13104,".$$":13105,"stage":13106,"|$":13107,"ĠMarc":13108,"(\"#":13109,"GER":13110,"Ġproud":13111,"Ġhalo":13112,"rf":13113,"collect":13114,"iamond":13115,"Ġargue":13116,"abc":13117,"Stud":13118,"Ġmechanisms":13119,"ĠDead":13120,"Ġtransitions":13121,"Ġvariant":13122,"constructor":13123,"Ġfasc":13124,"ĠContin":13125,"çĶ":13126,"ĠLoad":13127,"1931":13128,"Ġlaid":13129,"BPACK":13130,"rob":13131,"Ġkin":13132,"Static":13133,"forming":13134,"ĠCastle":13135,"Like":13136,"Ġresponses":13137,"Alloc":13138,"Ġconcrete":13139,"ĠMrs":13140,"don":13141,"you":13142,"ĠPos":13143,"Ġoblig":13144,"ĠOperation":13145,"/\"":13146,"1927":13147,"Ġstructural":13148,"ĠSystems":13149,"Validation":13150,"Ġsensitivity":13151,"=\\\"":13152,"ĠBor":13153,"1922":13154,"Ġpeer":13155,"ĠFinancial":13156,"Ġpromotion":13157,"Ġinvestigated":13158,"ĠAllen":13159,"lined":13160,"1924":13161,"Objects":13162,"asma":13163,"Ġcrossing":13164,"Ġrelating":13165,"Ġcollections":13166,"Ġsys":13167,"mathit":13168,"Ġimplied":13169,"}>":13170,"âĢĻ,":13171,"ĠTen":13172,"Ġpremier":13173,"1912":13174,"Ġfought":13175,"etric":13176,"thrift":13177,"Major":13178,"ĠScient":13179,"Eval":13180,"ambig":13181,"Ġmodeling":13182,"ĠRoy":13183,"Ġanchor":13184,"sb":13185,"Fn":13186,"license":13187,"istogram":13188,"program":13189,"ĠManchester":13190,"Ġig":13191,"ĠWH":13192,"Ġlikelihood":13193,"Ġpatch":13194,"dynamic":13195,"Ġpixels":13196,"Mac":13197,"typen":13198,"Ġintern":13199,"ĠDoctor":13200,"PG":13201,"ĠNev":13202,"clone":13203,"ĠAlabama":13204,"Ġprotein":13205,"ĠDescription":13206,"1921":13207,"extend":13208,"Ġvacuum":13209,"Ġunus":13210,"ĠCle":13211,"Ġboys":13212,"ĠYes":13213,"agrangian":13214,"ĠChairman":13215,"MODE":13216,"Ġmetall":13217,"Ġease":13218,"Ġsettled":13219,"Ġracial":13220,"opol":13221,"Ġ\"\";":13222,"wich":13223,"Ġdefinitely":13224,"subject":13225,"Ġvaccine":13226,"Ġdeviation":13227,"Ġappearing":13228,"STRING":13229,"ysics":13230,"Ġconjug":13231,"Ġbid":13232,"usr":13233,"anim":13234,"ples":13235,"ĠOriginal":13236,"isons":13237,"ĠOnline":13238,"ĠMO":13239,"Bal":13240,"ders":13241,"Ġcorrections":13242,"{|":13243,"108":13244,"ĠWIDTH":13245,"Ġgrounds":13246,"Ġmine":13247,"Ġresolved":13248,"Ġna":13249,"ongo":13250,"Ġsteel":13251,"navigation":13252,")>":13253,"French":13254,"iors":13255,"gments":13256,"Ġanalyze":13257,"Ġstabil":13258,"ĠManager":13259,"inth":13260,"ĠLook":13261,"ĠGram":13262,"analysis":13263,"calendar":13264,"inating":13265,"Ġexports":13266,"Ġdepos":13267,"Ġliterary":13268,"Master":13269,"icode":13270,"tah":13271,"Ġuniqu":13272,"Ġgrown":13273,"Ġjazz":13274,"restr":13275,"})(":13276,"ĠPlace":13277,"Ġster":13278,"Ġwatching":13279,"heric":13280,"Ġdesire":13281,"ĠHotel":13282,"Usage":13283,"Driver":13284,"CONT":13285,"overs":13286,"mf":13287,"ĠAppe":13288,"Ġshortly":13289,"Ġdry":13290,"ĠPeace":13291,"elfare":13292,"may":13293,"ĠDemocrats":13294,"Ġisolated":13295,"loss":13296,"Ġstim":13297,"North":13298,"ĠMock":13299,"Ġadmitted":13300,"utation":13301,"}{*":13302,"Ġ'\\":13303,"Ġruntime":13304,"Ġhaven":13305,"argo":13306,"Ġextensions":13307,"sis":13308,"ĠIT":13309,"mathtt":13310,"ĠOS":13311,"Ġfalls":13312,"ĠOptional":13313,"pressive":13314,"\"|":13315,"Song":13316,"Ġ,\\":13317,"Ġvoters":13318,"ĠBurn":13319,"sections":13320,"Ġrely":13321,"})+(\\":13322,"Ġexhibit":13323,"Rob":13324,"textnormal":13325,"Ġmilit":13326,"Ġutility":13327,"ĠCSS":13328,"RS":13329,"kwargs":13330,"stackrel":13331,"hire":13332,"1925":13333,"Ġcrimes":13334,"ĠML":13335,"messages":13336,"114":13337,"Ġabsorption":13338,"Ġconcepts":13339,"ĠOrganization":13340,"Ġtransportation":13341,"alert":13342,"agination":13343,"expression":13344,"Ġassignment":13345,"Ġpreferred":13346,"Ġamazing":13347,"Ġbug":13348,"Ġbars":13349,"party":13350,"Ġranges":13351,"wegian":13352,"Ġsounds":13353,"ĠEditor":13354,"ĠLank":13355,"react":13356,"Vari":13357,"ĠMoore":13358,"burn":13359,"Ġpublicly":13360,"\"},":13361,"ĠBE":13362,"anchor":13363,"upper":13364,"Consumer":13365,"getElementById":13366,"erk":13367,"Ġconn":13368,"Ġvisitors":13369,"catch":13370,"Ġmil":13371,"Series":13372,"ĠKentucky":13373,"FOR":13374,"ĠLabour":13375,"iat":13376,"typename":13377,"ĠContent":13378,"Î¹":13379,"ĠEmer":13380,"Setting":13381,"=$":13382,"Ġmo":13383,"Ġmoral":13384,"Ġconvention":13385,"Ġ\"\",":13386,"1926":13387,"ĠTree":13388,"Ġrecognize":13389,"ĠRyan":13390,"Ġregardless":13391,"Ġanalytic":13392,"Photo":13393,"transaction":13394,"NV":13395,"Ġconsent":13396,"ĠðŁ":13397,"duration":13398,"Ġviolation":13399,"Ġidentifier":13400,"=\"../../../../../../../":13401,"Ġfocuses":13402,"aire":13403,"ARN":13404,"Unknown":13405,"ĠHiggs":13406,")}(\\":13407,"Ġformulation":13408,":@\"":13409,"ĠAfghanistan":13410,"oltip":13411,"amps":13412,"icking":13413,"photon":13414,"ĠMas":13415,"Ġbenchmark":13416,"ĠChall":13417,"extra":13418,"Ġsurprising":13419,"ĠIllegal":13420,"Ġ(âĢľ":13421,"Ġpublishing":13422,"ĠBible":13423,"Ġhomogeneous":13424,"Ġchurches":13425,"ĠÂ©":13426,")(\\":13427,"Binary":13428,"oking":13429,"Ġpetition":13430,"ĠNaval":13431,"iah":13432,"Ġsight":13433,"jQuery":13434,"ĠBry":13435,"Ġsucceeded":13436,"Ġorthogonal":13437,"ĠSelect":13438,"ras":13439,"Ġfounding":13440,"Ġexpatriate":13441,"Ġbaseline":13442,"Through":13443,"ĠRespon":13444,"ĠUl":13445,"ĠTa":13446,"expl":13447,"ĠAdvis":13448,"MAP":13449,"Ġwrest":13450,"Ġ{},":13451,"ĠMarine":13452,"Ġdecreases":13453,"sync":13454,"OPT":13455,"textup":13456,"Insert":13457,"Ġemotional":13458,"Ġheadquarters":13459,"Ġquadratic":13460,"enny":13461,"appoint":13462,"Ġinvestors":13463,"ateral":13464,"Ġescap":13465,"estyle":13466,"Ġsixth":13467,"liest":13468,"Ġsupers":13469,"fmt":13470,"eveloper":13471,"iche":13472,"ĠDefinition":13473,"Ġacid":13474,"Ġmanifest":13475,"ulum":13476,"ikh":13477,"Contact":13478,"Messages":13479,"aco":13480,"Ġcraft":13481,"deep":13482,"Because":13483,"Ġdecline":13484,"ĠConvention":13485,"Ġtower":13486,"WEBPACK":13487,"ĠEarly":13488,"Ġillness":13489,"ATOR":13490,"Standard":13491,"Ġcomparable":13492,"âĢĻ.":13493,"ĠMiami":13494,"zo":13495,"Ġpub":13496,"Ġendpoint":13497,"actual":13498,"ĠSquad":13499,"Ġturning":13500,"Ġdistances":13501,"Ġracing":13502,"}/\\":13503,"driver":13504,"ĠJay":13505,"ĠMelbourne":13506,"chell":13507,"Ġcounts":13508,"Ġpione":13509,"Ġcuts":13510,"egas":13511,"Ġairport":13512,"ĠOklahoma":13513,"Ġshadow":13514,"deprecated":13515,"ĠTurkish":13516,"Ġanniversary":13517,"pb":13518,"åĲ":13519,"olutions":13520,"spl":13521,"Ġvictim":13522,"Navigation":13523,"Bad":13524,"gi":13525,"Capt":13526,"ntil":13527,"IMPORTED":13528,"ĠHy":13529,"Ġenjoyed":13530,"Ġinnovation":13531,"Ġtelling":13532,"trl":13533,"ĠFame":13534,"Ġ'';":13535,"idelines":13536,"Ġtruck":13537,"Ġloading":13538,"DEF":13539,"bounds":13540,"atibility":13541,"Ġaddressed":13542,"puted":13543,"Ġroof":13544,"olves":13545,"Batch":13546,"Ġpregn":13547,"1923":13548,"gray":13549,"tol":13550,"Constant":13551,"idency":13552,"ĉĉĉĉĉĉĉĉĉĉ":13553,"Ġ\\[":13554,"ĠDNA":13555,"ĠOak":13556,"elements":13557,"ĠBab":13558,"HD":13559,"gets":13560,"Ġaims":13561,"ounce":13562,"ographical":13563,"fake":13564,"ĠStand":13565,"]))":13566,"Ġdiffusion":13567,"Ġalgebraic":13568,"multline":13569,"Pod":13570,"door":13571,"Ġ\\,\\":13572,"{(\\":13573,"Future":13574,"Clear":13575,"Ġastr":13576,"Ġtranslated":13577,"Ġpolynomials":13578,"ÃŃa":13579,"Ġsuffering":13580,"YY":13581,"logo":13582,"Ġneutrino":13583,"Ġderivatives":13584,"Ġguns":13585,"~(\\":13586,"Ġlens":13587,"vertex":13588,"Audio":13589,"Ġweighted":13590,"imore":13591,"Ġdenied":13592,"integ":13593,"tre":13594,"allas":13595,"___":13596,"Ġlegacy":13597,"Ġ'./":13598,"uerto":13599,"Ġresidual":13600,"Ġceremony":13601,"ĠAnalysis":13602,"Identity":13603,"invariant":13604,"Ġorbital":13605,"Ġvaluable":13606,"Ġensemble":13607,"Ġpermissions":13608,"900":13609,"Ġpup":13610,"disable":13611,"away":13612,"ĠSH":13613,"Ġruled":13614,"Ġmail":13615,"Ġheads":13616,"ĠDEFAULT":13617,"ĠRab":13618,"ĠAbstract":13619,"^^":13620,"ĠCop":13621,"Ġpacket":13622,"Japan":13623,"Ġdomains":13624,"Ġproven":13625,"ĠFA":13626,"ĠBerk":13627,"Phil":13628,"Ġmouse":13629,"Ġelif":13630,"directory":13631,"Ġentertainment":13632,"Su":13633,"Ġinterpol":13634,"ĠAustria":13635,"oli":13636,"Ġequals":13637,"}$\\":13638,"Ġsurn":13639,"Ġabsolutely":13640,"Ġaged":13641,"NotFound":13642,"Ġsubmit":13643,"hang":13644,"Ġalpha":13645,"Errors":13646,"ĠWhit":13647,"Ġruling":13648,"incess":13649,"Strategy":13650,"best":13651,"\\|_":13652,"Ġfilters":13653,"ĠNob":13654,"Ġpayload":13655,"Metrics":13656,"Ġfemales":13657,"Complete":13658,"larg":13659,"ationToken":13660,"urse":13661,"Ġdiscret":13662,"Ġinstruments":13663,"Rate":13664,"ĠGR":13665,"Counter":13666,"ĠNatural":13667,"urric":13668,"elian":13669,"Ra":13670,"']);":13671,"ASSERT":13672,"ĠYouth":13673,"$^{":13674,"Ġincorporated":13675,"Ġposts":13676,"charge":13677,"Ġrugby":13678,"acer":13679,"Ġcited":13680,"ĠHans":13681,"Ġbranches":13682,"ĠGeV":13683,"Ġsons":13684,"Ġentering":13685,"Ġthrown":13686,"Ġfits":13687,"Ġskin":13688,"Ġindependently":13689,"Ġmart":13690,"Ġinjured":13691,"ublin":13692,"Rich":13693,"Ġcrash":13694,"loaded":13695,"esis":13696,"ceil":13697,"cov":13698,"Ġdiseases":13699,"ĠKevin":13700,"Organ":13701,"Rober":13702,"Throw":13703,"Ġmanuscript":13704,"Ġtalks":13705,"Ġmining":13706,"ugar":13707,"Power":13708,"Ġaug":13709,"Îµ":13710,"footnotes":13711,"ividual":13712,"Ġrating":13713,"ĠPhot":13714,"Ġdesigns":13715,"Ġapparently":13716,"GM":13717,"ĠPC":13718,"Even":13719,"Ġentreprene":13720,"Compiler":13721,"ĠRemove":13722,"idges":13723,"ĠBaseball":13724,"issippi":13725,"Ġintellectual":13726,"Ġcorrelations":13727,"ĠAlice":13728,">;":13729,"lee":13730,"Ġdensities":13731,"ĠPeak":13732,"VAR":13733,"ĠJudge":13734,"ĠPrint":13735,"eget":13736,"ĠMand":13737,"1913":13738,"mix":13739,"Library":13740,"Ġmerged":13741,"ĠVari":13742,"contents":13743,"Ġcontinuum":13744,"emed":13745,"Ġtok":13746,"ipart":13747,"assign":13748,"ĠTownship":13749,"ĠGall":13750,"Resolver":13751,"ĠHeritage":13752,"Ġformally":13753,"ĠSmall":13754,"ells":13755,"Ġclim":13756,"Ġeducated":13757,"Ġroutes":13758,"vendor":13759,"gressive":13760,"Phone":13761,"Ġcontroll":13762,"IZ":13763,"Ġdemocracy":13764,"eb":13765,"ĠStream":13766,"Ġlogging":13767,"ĠSin":13768,"ĠDM":13769,"direction":13770,"ĠKhan":13771,"Ġenvironments":13772,"forEach":13773,"Ġdistinguish":13774,"REE":13775,"ĠAnthony":13776,"Ġmonitoring":13777,"Ġanticip":13778,"ĠSaudi":13779,"pkg":13780,"ifi":13781,"Ġstats":13782,"oids":13783,"Ġ\"%":13784,"Ġreconstruct":13785,"Ġdefect":13786,"=\\{":13787,"Ġmovements":13788,"Holder":13789,"Ġqueries":13790,"ĠTemple":13791,"ethe":13792,"Ġaccompan":13793,"ĠAgreement":13794,"ilty":13795,"likely":13796,"ĠConnecticut":13797,"uese":13798,"Ġvillages":13799,"speed":13800,"Ġduties":13801,"ï¼Į":13802,"$'":13803,"hot":13804,"Ġsql":13805,"she":13806,"examples":13807,"raise":13808,"eleration":13809,"Ġfewer":13810,"ĠReference":13811,"division":13812,"Ġdelta":13813,"Ġpoetry":13814,"ĠLas":13815,"Ġpreserve":13816,"Ġnurs":13817,"Ġbigger":13818,"agma":13819,"ĠLearning":13820,"Ġconvolution":13821,"Ġstarring":13822,"encode":13823,"Edge":13824,"Ġdispersion":13825,"TY":13826,"Ġhide":13827,"ĠCooper":13828,"Groups":13829,"ĠAI":13830,"Ġintention":13831,"ĠKa":13832,"Ġsupplied":13833,"350":13834,"Ġswim":13835,"Ġaccret":13836,"father":13837,"ĠPrivate":13838,"ĠChem":13839,"ĠSW":13840,"ĠWalter":13841,"nl":13842,"Ġoutputs":13843,"ĠFix":13844,"Ġrepresentatives":13845,"lix":13846,"ĠLA":13847,"$-$":13848,"Ġsymptoms":13849,"ĠFreder":13850,"Ġtalent":13851,"Ġreceiver":13852,"Ġelli":13853,"Arguments":13854,"ĠâĨ":13855,"KS":13856,".\"\"\"":13857,"ATED":13858,"integer":13859,"ĠPa":13860,"ned":13861,"Ġfired":13862,"hus":13863,"Ġinfl":13864,"arguments":13865,"cheduler":13866,"uis":13867,"selection":13868,"Ġinformed":13869,"ĠExpl":13870,"Ġlands":13871,"Env":13872,"Ġful":13873,"Ġextracted":13874,"Ġformerly":13875,"Ġjudgment":13876,"Ġourselves":13877,"spacing":13878,"ĠDave":13879,"Weight":13880,"ĠMunic":13881,"Theme":13882,"jack":13883,"Ġhybrid":13884,"Ġencourage":13885,"bib":13886,"Ġcooperation":13887,"ĠTokyo":13888,"ACH":13889,"loading":13890,"animation":13891,"ĠProduct":13892,"ĠDun":13893,"ĠAlgorithm":13894,"UND":13895,"Old":13896,"ĠBuck":13897,"Ġmarks":13898,"Ġadaptation":13899,"hyper":13900,"shell":13901,"OW":13902,"Ġadvertising":13903,"Plot":13904,"Ġcyl":13905,"hfill":13906,"Ġsegments":13907,"Ġgiant":13908,"Ġconditional":13909,"Ġconvenient":13910,"ĠMarket":13911,"Ġlyrics":13912,"RED":13913,"Ġprivile":13914,"Ġfeels":13915,"Ġfat":13916,"Processor":13917,"iest":13918,"Ġstood":13919,"rypted":13920,"imp":13921,"uber":13922,"ĠSP":13923,"Ġwaste":13924,"ĠCorollary":13925,"Ġsatellite":13926,"fb":13927,"oda":13928,"disc":13929,"Ġdrum":13930,"Ġsocket":13931,"Ġbron":13932,"Ġatom":13933,"Ġtaxes":13934,"olo":13935,"Ġsecretary":13936,"INSERT":13937,"Ġlistening":13938,"dn":13939,"illery":13940,"scala":13941,"Ġterr":13942,"uh":13943,"criptions":13944,"Ġchildhood":13945,"Ġoccas":13946,"ĠGard":13947,"Ġleaf":13948,"Ġconnecting":13949,"weak":13950,"Ġhonest":13951,"Ġspiritual":13952,"Ġphotos":13953,"thick":13954,"ĠProtection":13955,"semantic":13956,"ĠCommonwealth":13957,"ĠLjava":13958,"previous":13959,"Ġattacked":13960,"Ġregulation":13961,"ĠResources":13962,"Ġguidance":13963,"Addr":13964,"oni":13965,"Ġarrival":13966,"textcolor":13967,"relative":13968,"uparrow":13969,"Ġtries":13970,"Ġshr":13971,"romagnetic":13972,"Quant":13973,"Ġreveals":13974,"sharp":13975,"Ġtemporal":13976,"ĠArmen":13977,"Ġthousand":13978,"ĠCape":13979,"iva":13980,"ĠTraining":13981,"ĠIndust":13982,"ĠWARRAN":13983,"letter":13984,"ĠĠĠĠčĊ":13985,"density":13986,"ruit":13987,"Ġfranchise":13988,"Ġinvolve":13989,"Ġsharp":13990,"*}[":13991,"Signature":13992,"Ġur":13993,"eda":13994,"Ġrandomly":13995,"footnotesize":13996,"Ġmacro":13997,"ictional":13998,"Ġedit":13999,"BT":14000,"Ġpending":14001,"ĠAst":14002,"commit":14003,"Ġelementary":14004,"Ġtoler":14005,"scss":14006,"Ġclosing":14007,"Ġcomparing":14008,"compar":14009,"Ġoutcomes":14010,"Ġhealthy":14011,"Ġhealthcare":14012,"licenses":14013,"Ġcharts":14014,"Ġregression":14015,"days":14016,"umul":14017,"ĠGer":14018,"Tri":14019,"Ġgift":14020,"Ġequally":14021,"ortheast":14022,"country":14023,"BIT":14024,"Ġchecks":14025,"ĠCook":14026,"boldmath":14027,"equate":14028,"Ġmayor":14029,"Ġnormally":14030,"NUM":14031,"Ġgreatly":14032,"ĠPope":14033,"ĠAnne":14034,"agu":14035,"ĠOrth":14036,"reader":14037,"Ġtd":14038,"Ġdetermination":14039,"Ã¼r":14040,"ceiver":14041,"Ġconfident":14042,"pload":14043,"HEAD":14044,"Ġinitiative":14045,"Ġcompilation":14046,"Ġsolved":14047,"Ġequipped":14048,"Ġ'',":14049,"Ġquas":14050,"ĠMonte":14051,"chart":14052,"urers":14053,"Ġru":14054,"hour":14055,"ĠGab":14056,"Ġsimulated":14057,"ãĢĤ":14058,"ĠMembers":14059,"heading":14060,"Ø±":14061,"Ġstake":14062,"Ġinaug":14063,"Ġhardware":14064,"ĉĠĠĠĠĠ":14065,"ĠYet":14066,"Ġimpr":14067,"Ġmor":14068,"ĠĠĠĠĠĠĠĠĠĠĠĠĠĠĠĠĠĠĠĠĠĠĠĠĠĠĠĠĠĠĠĠĠ":14069,"Ġmm":14070,"iliary":14071,"Export":14072,"ĠDetroit":14073,"March":14074,"FUN":14075,"%%%%%%%%":14076,"fetch":14077,"spir":14078,"Ġethnic":14079,"Ġconsiderable":14080,"Same":14081,"bridge":14082,"ĠJunior":14083,"onder":14084,"ĠSimple":14085,"ilst":14086,"EST":14087,"109":14088,"Men":14089,"tm":14090,"middle":14091,"Ġsb":14092,"Ġ>>>":14093,"Mal":14094,"Ġtall":14095,"Word":14096,"omas":14097,"Ġboat":14098,"SCRIPT":14099,"Ġsuspect":14100,"Ġobviously":14101,"warn":14102,"Ġresidence":14103,"Ġmaintenance":14104,"Ġdeput":14105,"Ġacquisition":14106,"Ġconsumers":14107,"Ġcompete":14108,"Ġdip":14109,"ĠSilver":14110,"Ð¿":14111,"Ġmusician":14112,"execut":14113,"Ġimposed":14114,"}.}":14115,"\\},":14116,"Present":14117,"alias":14118,"ĠVo":14119,"Ġscholars":14120,"ASE":14121,"Ġ\".":14122,"Ġimmigration":14123,"assador":14124,"})^{":14125,"Ġmarginal":14126,"Ġformul":14127,"/\">":14128,"Ġguys":14129,"Ġbear":14130,"ĠServer":14131,"empl":14132,"Ġrobot":14133,"Diff":14134,"1911":14135,"Ġrepeat":14136,"Ġtrials":14137,"character":14138,"Bottom":14139,"Oh":14140,"ĠPDF":14141,"Amount":14142,"bone":14143,"Ġtrains":14144,"Comparison":14145,"ĠAbd":14146,"Ġsi":14147,"Ġfairly":14148,"Mapper":14149,"Ġinstructions":14150,"Shared":14151,"iemann":14152,"Ġsurgery":14153,"Drawing":14154,"Ġpitch":14155,"Ġholes":14156,"ĠVirtual":14157,"Ġsmallest":14158,"aten":14159,"Html":14160,"LED":14161,"referred":14162,"team":14163,"Platform":14164,"native":14165,"ĠCit":14166,"Ġnavbar":14167,"Ġinterpreted":14168,"ĠWhether":14169,"ĠPhill":14170,"Ġgay":14171,"jb":14172,"Ġconfront":14173,"Ġelectro":14174,"Ġrealize":14175,"Ġempirical":14176,"ĠHum":14177,"ĠLock":14178,"Ġwaters":14179,"Paul":14180,"Ġimproving":14181,"kov":14182,"three":14183,"ĠNash":14184,"pad":14185,"Ġhosts":14186,"Ġoverse":14187,"ĠEuro":14188,"FFER":14189,"Ġcaptain":14190,"liminary":14191,"Ġ$^{":14192,"Ġneuro":14193,"ĠBrun":14194,"edding":14195,"LY":14196,"Abs":14197,"Deprecated":14198,"tl":14199,")\",":14200,"Ġsubspace":14201,"Ġrising":14202,"works":14203,"ĠINTO":14204,"ĠJun":14205,"Ġrestaurant":14206,"Ġpictures":14207,"intro":14208,"San":14209,"ige":14210,"]+":14211,"Ġphenomenon":14212,"ĠKennedy":14213,"Ġintervals":14214,"atherine":14215,"Ġcapabilities":14216,"ĠShould":14217,"ĉĠĠĠĠĠĠĠ":14218,"half":14219,"Ġjurisdiction":14220,"binom":14221,"ermi":14222,"Ġtrajectory":14223,"ĠBh":14224,"enix":14225,"inch":14226,"Ġreflection":14227,"Ġhal":14228,"Ġwithdraw":14229,"Ġaux":14230,"cost":14231,"1024":14232,"qual":14233,"omot":14234,"Ġsitting":14235,"ĠMayor":14236,"ubb":14237,"inks":14238,"propto":14239,"Ġinduction":14240,"apolis":14241,"Ġoperational":14242,"usalem":14243,"ĠBra":14244,"SG":14245,"issance":14246,"Äĥ":14247,"ĠPur":14248,"Ġcommander":14249,"Ġasset":14250,"Ġdetermines":14251,"tb":14252,"Bool":14253,"given":14254,"ĠAgric":14255,"Ġtrunc":14256,"Ġreceives":14257,"Ġaffairs":14258,"Ġanth":14259,"Random":14260,"Ġwalking":14261,"ĠBelgium":14262,"ĠThough":14263,"ĠChile":14264,"incre":14265,"ĠHilbert":14266,"Ġsin":14267,"getId":14268,"lif":14269,"Ġfinance":14270,"#{":14271,"ĠWatch":14272,"graduate":14273,"Ġmerely":14274,"Ġepoch":14275,"defn":14276,"Prev":14277,"Ġslowly":14278,"vars":14279,"ĠYouTube":14280,"Cursor":14281,"Kn":14282,"Ġlaser":14283,"Ġplain":14284,">'":14285,"ĠNigeria":14286,"Ġcontrovers":14287,"ounced":14288,"oes":14289,"rett":14290,"metic":14291,"Ġtracking":14292,"ĠDeputy":14293,"orer":14294,"ktop":14295,"frag":14296,"Ġirreducible":14297,"LD":14298,"Ġimprovements":14299,"Ġoutstanding":14300,"Ġratios":14301,"between":14302,"Ġ'.":14303,"Ġpayments":14304,"oca":14305,">\"":14306,"Az":14307,"ĠDouble":14308,"ĠJos":14309,"alia":14310,"Ġtransverse":14311,"enezuel":14312,"WB":14313,"particle":14314,"Ġfiber":14315,"Ġstruck":14316,"117":14317,"ĠWalker":14318,"fff":14319,"intend":14320,"ĠLaure":14321,"Ġfault":14322,"Ġdifficulty":14323,"144":14324,"Ġawareness":14325,"ĠEss":14326,"INST":14327,"Ġreliable":14328,"Ġcertificate":14329,"Ġnarrative":14330,"Ġcards":14331,"ursive":14332,"ĠRon":14333,"ĠHug":14334,"<<":14335,"Login":14336,"abad":14337,"aro":14338,"Ġproviders":14339,"ĠTog":14340,"Failure":14341,"á»":14342,"ĠPlayer":14343,"Ġfraud":14344,"ĠJson":14345,"]^":14346,"Ġpaintings":14347,"ĠÐ²":14348,"hill":14349,"ĠProdu":14350,"ĠFather":14351,"Ã¥":14352,"etition":14353,"ĠDomin":14354,"Ġmeets":14355,"amazonaws":14356,"]=":14357,"icky":14358,"113":14359,"Ġimply":14360,"ĠMD":14361,"ĠProm":14362,"maps":14363,"1908":14364,"autore":14365,"ĠIndependent":14366,"COMM":14367,"ĠRule":14368,"Ġfiscal":14369,"vet":14370,"Ġmess":14371,"Spr":14372,"elines":14373,"bara":14374,"Segment":14375,"Ġtotally":14376,"Ġdyn":14377,"strings":14378,"Ġoutbreak":14379,"validation":14380,"Ġfees":14381,"Errorf":14382,"ĠKy":14383,"IES":14384,"Permission":14385,"Ġexclusive":14386,"ĠTelevision":14387,"ĠGordon":14388,"rik":14389,"Ġsnow":14390,"Ġinherit":14391,"James":14392,"uniform":14393,"ĠExpress":14394,"Î½":14395,"zi":14396,"rypto":14397,"Biography":14398,"Ġrooms":14399,"Ġintegers":14400,"ĠReform":14401,"June":14402,"inces":14403,"inistic":14404,"Canadian":14405,"ĠYears":14406,"CN":14407,"aments":14408,"ĠTaiwan":14409,"Ġdil":14410,"Analysis":14411,"MMARY":14412,"Ġsimplicity":14413,"assertTrue":14414,"$^":14415,"ativistic":14416,"Ġsituated":14417,"Ġlegit":14418,"ĠFinance":14419,"ATCH":14420,"Ġfunded":14421,"perimental":14422,"Ġreaches":14423,"ĠRelations":14424,"ĠLouisiana":14425,"ilevel":14426,"BD":14427,"ĠBaron":14428,"embed":14429,"Ġexamine":14430,"Ġdelegate":14431,"icates":14432,"cycle":14433,"Ġencoded":14434,"olas":14435,"220":14436,"textsf":14437,"Ġsed":14438,"Ġbaby":14439,".:":14440,"Ġcorn":14441,"Ġsheet":14442,";|":14443,"Shader":14444,"GEN":14445,"Ġtemple":14446,"ĠHit":14447,"Ġtrading":14448,"Ġplaintiff":14449,"ĠPas":14450,"512":14451,"Encoding":14452,"remarks":14453,"UV":14454,"Ġsear":14455,"ĠSarah":14456,"Ġmales":14457,"ĠCred":14458,"Ġseparately":14459,"ĠAuto":14460,"ĠĠĠĠĠĠĠĠĠĠĊ":14461,".-":14462,"Ġcriticism":14463,"Ġsubstit":14464,"GBT":14465,"Zone":14466,"Ġagricultural":14467,"Europe":14468,"Ġcoaches":14469,"tip":14470,"factor":14471,"ensitive":14472,"ĠPhoto":14473,"Ġoperates":14474,"Ġhappening":14475,"orous":14476,"Ġren":14477,"Ġchoosing":14478,"Ĥ¬":14479,"Ġvisiting":14480,"Ġsav":14481,"Ham":14482,"Ġcircles":14483,"Ġrequiring":14484,"Ġradical":14485,"Ġforming":14486,",...,":14487,"Ġcorrespondence":14488,"$\\\\":14489,"ĠVolume":14490,"Ġsynd":14491,"&&\\":14492,"clide":14493,"ĠSeattle":14494,"ĠMcK":14495,"Ġinference":14496,"\\}.":14497,"ĠStew":14498,"Ġliberal":14499,"ĠChapter":14500,"ĠAtlanta":14501,"Ġelectricity":14502,"Ġfeas":14503,"ĠÑģ":14504,"Ġhired":14505,"Ġfold":14506,"jd":14507,"ĠDur":14508,"Super":14509,"toBe":14510,"Ġperforms":14511,"THER":14512,"Ġiget":14513,"Accept":14514,"Ġvolumes":14515,"Ġhistorian":14516,"ĠNewton":14517,"ĠHawai":14518,"fp":14519,"Ġorganisation":14520,"&=&\\":14521,"Despite":14522,"inear":14523,"Ġevident":14524,"asts":14525,"Ġslot":14526,"Ġpermit":14527,"rules":14528,"ĠSud":14529,"Ġcircular":14530,"Ġlifetime":14531,"ĠPi":14532,"Ġpsy":14533,"ĠLoc":14534,"Console":14535,"Ġoverflow":14536,"acef":14537,"ĠAlber":14538,"Health":14539,"Ġaria":14540,"ĠEver":14541,"ustry":14542,"Ġabandoned":14543,"tures":14544,"ovak":14545,"generate":14546,"Ġ~\\":14547,"ĠUV":14548,"ĠQueensland":14549,"ä½":14550,"Ġcomic":14551,"Ġsinging":14552,"ĠGirl":14553,"Ġton":14554,"Ġelsewhere":14555,"uuid":14556,"Site":14557,"Ġinflation":14558,"ĠStudy":14559,"Ġresidential":14560,"Ġheritage":14561,"Ġpseudo":14562,"Ġsustainable":14563,"Bounds":14564,"geo":14565,"ĠHonor":14566,"uity":14567,"leveland":14568,"emen":14569,"ssl":14570,"ĠBY":14571,"phrase":14572,"uting":14573,
[...]
