#version: 0.2
Ġ Ġ
ĠĠ ĠĠ
Ġ t
i n
o n
e r
Ġ a
h e
a t
r e
e n
Ġt he
o r
s t
a l
i t
i on
ĠĠ Ġ
Ġ c
l e
a r
a n
ĠĠĠĠ ĠĠĠĠ
Ġ s
Ġ o
i s
Ġ f
e s
e d
Ġ w
Ġ p
r o
in g
i c
e t
c t
Ġ b
Ġ in
Ġ \
n d
Ġo f
Ġ d
a s
Ġ $
Ġ m
e l
en t
a m
o u
Ġt o
Ġa nd
i g
Ġt h
Ġ re
Ġ n
o m
ĠĠĠĠ ĠĠĠ
at ion
i m
i l
a c
i d
Ġ =
Ġ e
Ġ h
Ġ (
o l
o t
u t
s e
u r
Ġ is
{ \
Ġ l
i v
o d
ĉ ĉ
u l
i f
c e
Ġ T
) ;
r a
č Ċ
a b
Ġ <
q u
Ġ S
Ġ {
Ġ v
g e
Ġf or
u m
o w
a d
Ġ g
t h
- -
e m
u n
= "
p e
e x
Ġ st
at e
Ġ C
ct ion
Ġ A
c h
u s
l y
at h
Ġc on
en d
_ {
p t
ĠĠĠĠĠĠĠĠ ĠĠĠ
/ /
Ġb e
Ġ *
it h
< /
Ġ I
v er
Ġ on
Ġth at
h t
i st
o c
e g
as s
Ġ$ \
t er
â Ģ
Ġ }
r i
re s
Ġa s
i r
Ġ &
am e
v e
u b
m ath
a y
er s
e f
Ġp ro
Ġ M
p p
t a
Ġw ith
u e
p h
an d
Ġa n
Ġa l
e w
Ġ P
ex t
m a
Ġe x
2 0
e st
e ct
o s
t r
Ġw h
es s
Ġ "
ĠĠĠĠĠĠĠĠ ĠĠĠĠĠĠĠĠ
ig ht
in e
re f
ĠĠĠĠ Ġ
it y
or t
Ġ B
} \
l ass
Ġ F
u re
" >
Ġ Ċ
( )
p er
o re
i z
} $
^ {
p l
ar t
Ġ R
m ent
a ge
* *
Ġth is
Ġb y
ĠT he
Ġc om
Ġ D
Ġw e
er e
ur n
Ġ it
ul t
ro m
Ġ L
ab le
ou r
Ġ H
in t
i al
Ġa re
Ġ or
it e
c on
Ġ N
o p
n t
u p
Ġ E
Ġ W
a g
Ġ if
t urn
s p
l i
y pe
iv e
Ġa t
Ġ r
o g
k e
} }
c al
ac k
Ġ G
i es
e p
. .
or m
od e
( \
an t
-- --
t ext
= =
Ġ '
i le
u d
g et
pt ion
a p
il l
f t
Ġf rom
eg in
an s
Ġc lass
b egin
l d
0 0
al l
e c
e qu
Ġ -
l ic
as e
Ġ y
p le
ac e
it ion
Ġn ot
at a
ĠĠĠĠĠĠĠĠ ĠĠĠĠĠĠĠ
a v
ig n
I n
) $
in d
_ {\
f f
f r
Ġs h
st r
un ction
b er
a ve
Ġc h
Ġ O
u nd
Ġ le
a re
at ed
ar y
t o
} ,
j ect
Ġ //
Ġs e
) ,
Ġt r
Ġ +
âĢ Ļ
} {
T he
im e
c om
al ue
) .
s er
an g
p ort
Ġw as
en s
Ġre turn
Ġs u
p ro
c l
ic al
el l
ic h
f ig
ab el
Ġre s
a ct
- >
Ġc an
il d
Ġ us
e q
fr ac
i re
Ġ he
ar am
or d
1 9
a st
ou t
: :
en ce
ation s
o st
Ġ U
r ight
C on
s et
p ut
c c
c ite
ar d
e v
f orm
id e
et a
Ġh ave
u st
Ġ @
ĉĉ ĉĉ
ro w
en er
Ġ [
or k
Ġ im
math b
Ġ J
an ce
iz e
Ġ< /
l ow
l abel
r m
d u
our ce
ic e
ub lic
l o
p s
b le
on g
Ġf unction
S t
Ġwh ich
d d
ĠI n
Ġn ew
t he
" ,
Ġ j
a k
ac h
l oc
Ġ un
20 1
.. /
, \
ri b
$ ,
u se
ĠT h
$ .
math cal
u g
s s
ou ld
o o
ra y
Ġ /
el f
Ġst r
a in
( );
( "
Ġo b
Ġh as
le ft
Ġ k
th er
or y
res s
ul l
s c
s um
} )
Ġd ef
od el
} .
ent s
ta in
equ ation
i el
o ver
Ġ âĢ
Ġa r
' ,
i p
pe ct
f er
1 0
s o
iel d
Ġ V
l ine
p on
Ġs et
at or
} (
tr ing
er r
m l
Ġal l
} ^
ou s
Ġa b
Ġ* /
Ġ :
et h
on e
---- ----
ou nd
er m
Ġv ar
Ġp l
E x
Ġin t
en c
d iv
ess age
he n
Ġcon t
cl ud
ut ion
} _
ol d
~ \
d a
y st
** **
Ġa pp
i a
Ġw ill
Ġ K
ph a
) )
e ar
' s
u al
ow n
a pp
Ġin ter
o int
Ġp ublic
Ġd is
al pha
Ġ qu
re e
o id
ĠĠĠĠĠĠĠĠ Ġ
Ġon e
t e
ou nt
w e
Ġd o
l l
el y
am b
at es
Ġ .
Ġe v
yst em
Ġp art
um ber
o b
ĠĠĠĠĠĠĠĠ ĠĠĠĠĠĠĠĠĠĠĠ
o f
Ġm e
th is
o v
E R
Ġ |
> </
P ro
Ġn ame
ĉĉ ĉ
n ame
le ct
( '
== ==
s ub
i ew
in al
sp an
Ġo ut
i x
s h
ir st
) \
om e
ic s
ro up
Ġs p
m b
Ġ _
ar k
el ta
in k
ic t
amb da
v ar
d ef
Ġg et
N ame
c k
id th
Ġ i
u ct
t t
ot h
im es
p aram
eth od
T ype
$ \
Ġres ult
Ġp er
pe c
w o
../ ../
le ment
Ġcon st
c he
> <
p os
en g
Ġp r
es c
Ġp re
Ġv alue
p r
Ġd ata
Ġy ou
er y
O N
ul ar
Ġal so
per t
I N
a x
r y
am ma
_ \
Ġb ut
o se
mathb b
le d
ra ph
= \
i an
ion s
c ol
1 2
Ġ\ \
im port
âĢ Ŀ
m u
re turn
l ation
ke y
T h
le s
c re
d ot
ĠS t
i b
20 0
or s
} ^{
} _{
er t
y n
Ġt ype
S tring
an ge
n e
Ġt ime
at ic
p i
al se
ht ml
Ġn e
Ġfor m
am ple
Ġo ver
Ġ ro
I d
Ġc ol
ig ma
Ġcom p
Ġm ore
ing s
er v
Ġm odel
ra d
o x
s ource
- \
ol low
at ch
tr ans
o ve
ac he
in ed
Ġ #
Ġl ine
Ġthe ir
Ġs ub
m essage
o ol
Ġ up
b ar
Ġd if
eg a
Ġt wo
ĠW e
Ġd e
at ive
ph i
Ġo ther
if ic
Ġs o
it em
c ent
ig h
Ġ !
h o
Ġit s
^ {\
loc k
Ġan y
y s
R E
Ġ x
c a
r it
h at
Ġa dd
b f
a ke
Ġh ref
ĠTh is
ar g
S T
Ġs elf
Ġw hen
l ambda
Ġh is
Ġo ur
al u
Ġ `
oo k
se ction
al ign
Ġ {\
ri pt
Ġw ork
t ype
Ġf ollow
Ġc l
i o
n ot
ur re
Ġon ly
f o
R es
und er
is e
T o
Ġ el
Ġth ere
Ġm an
Ġ id
Ġp os
ce ption
mathb f
Ġf irst
Ġre qu
Ġre g
Ġwh ere
a il
Ġsu ch
C om
t d
Ġc ase
Ġthe y
Ġg ener
c ode
a ult
Ġin d
Ġ= >
Ġ en
id er
il on
c ess
ter n
Ġw ere
ĠâĢ ľ
ĠC h
W e
Ġb et
is s
Ġbe en
ad d
Ġ err
il ity
/ >
is h
i ed
Ġtr ans
Ġs im
res ent
Ġa g
Ġa cc
# #
Ġ= =
Ġth an
ut e
1 1
oc k
: //
c lass
u ild
ro und
y p
A T
d er
Ġc or
Ġn ull
Ġ use
Ġcom m
Ġe qu
Ġv oid
_ _
n g
Ġd ist
Ġ Y
Ġthe n
p art
i ble
Ġ end
Ġs c
1 6
al s
L ist
m in
Ġcon s
am es
on t
w ork
it s
Ġdif fer
w h
Ġn o
aram et
s igma
" />
eng th
re ad
ild e
e ad
\ \
u le
a w
1 8
m s
Ġ( \
at ing
b eta
ser v
f ter
ar ray
^{ -
Ġ )
an c
i e
ĠI t
Ġd ec
C h
f or
urre nt
} {\
ang le
iv en
Ġa d
Ġre l
Ġn umber
on s
Ġs ome
as k
Ġsh ow
ic k
Ġ >
ser t
Ġex t
Ġg o
ep end
w idth
Ġin to
con d
at er
O R
L E
u res
ption s
math rm
I D
n ing
r r
* }
y le
ep s
v ent
Ġ under
ar ch
ĠĠĠĠĠĠĠĠĠĠĠĠĠĠĠĠ ĠĠĠĠĠĠĠĠĠĠĠĠĠĠĠĠ
Ġwh o
it ies
Ġt est
Ġe ach
trans lation
Ġtr ue
we en
+ \
as ed
ay s
Ġpro v
Ġus ed
at ure
1 5
i ous
) :
ire ct
um ent
Ġin st
g amma
A R
Ġl i
in ce
) );
iv ate
Ġab out
ation al
Ġp h
ol ution
b ack
ht t
b ject
l og
] {
t on
i ent
str ing
Ġ u
A r
fig ure
iz ed
ic es
r am
Ġthe se
ĠĠĠĠ ĠĠ
y m
Ġl oc
pp ort
Ġm ethod
// //
Ġs ystem
Ġf alse
A L
Ġp oint
al id
iz ation
ction s
) }
**** ****
b r
Ġbet ween
d elta
the ta
^ \
d ata
al ly
n ew
in clud
ou n
pert y
" );
Ġs pec
Ġf ield
n er
"> <
it le
ut h
as h
ĠU n
le q
re d
Ġm ay
he d
V alue
Ġor g
S S
f ile
E N
D ata
ra ct
Ġc o
Ġa ct
Ġat t
Ġe ff
-------- --------
c dot
r ho
Ġel se
e le
Ġy ear
Ġw ould
3 2
ar get
v alue
v el
$ -
ta u
em ber
Ġp ol
s elf
ou g
T r
Ġ --
Ġus ing
alu es
um n
ĠĠĠĠĠĠĠĠ ĠĠĠĠĠ
s on
m er
Ġin clud
}$ ,
Ġh ad
Ġstr ing
Ġ& &
b ig
}$ .
du c
m all
ot e
Ġ/ **
2 5
ug h
1 3
} (\
t imes
s u
eq ref
ow er
ol og
Ġp e
r ic
S et
1 4
Ġch ar
li ent
Ġn on
Ġh igh
ĠP ro
ent ial
ĠĠĠĠĠĠĠĠĠĠĠĠĠĠĠĠ ĠĠĠĠĠĠĠ
sp ace
Ġ ent
I t
ag es
ĠF or
C ol
Ġob ject
p ar
Ġf e
str uct
Ġm od
g y
Ġst ate
av a
Ġapp ro
or g
con t
an n
p re
Ġof f
e y
e ver
Ġc re
ment s
Ġo per
" )
Ġb ack
part ial
] ;
r t
Ġk n
ar row
p m
F or
in s
Ġg iven
Ex ception
t est
Ġ X
Ġc al
Ġf inal
ra w
erv ice
' )
ĠC om
Ġp aramet
Ġd ev
Ġre p
n u
Ġs ame
Ġs a
f ace
| \
d ate
( $
ft y
ist s
Ġe m
Ġst ud
Ġt ra
Ġm at
in fty
t ing
w ard
u ff
E rr
se c
Ġ Q
re am
Ġ z
==== ====
a ir
t ilde
ro ugh
om ega
Ġf ile
er n
p ress
Ġdiffer ent
O bject
i er
Ġt e
s ize
ĠS e
if y
Ġs ign
t able
m ary
] ,
in es
Ġ! =
Ġsh ould
res pon
Ġe st
2 1
Ġ// /
Ġne ed
Ġor der
Ġd et
od y
he ck
Ġst atic
D E
A s
l a
ĠA s
T est
ver s
re qu
S E
ical ly
D elta
. _
ens ion
are nt
rib ution
Ġcom ple
at us
n b
Ġre c
Ġm ost
ir c
y mb
Ġ %
. ,
il y
Ġpart ic
ĠC on
C T
Ġt erm
form ation
I T
as es
Ġ$ (
ar s
ri x
p x
m e
1 00
ymb ol
v iew
w w
g er
E n
Ġf act
Ġa m
Ġ| |
am p
if ied
ĠS tring
Ġd esc
it ed
op le
ĠH e
us s
old s
Ġg roup
pl ay
at t
f unction
Ġas s
1 7
o y
Ġh ow
Ġa fter
Ġse e
} ;
ire d
qu ad
il ter
ult i
Ġpr ivate
Ġh er
le t
G et
Ġw ell
d is
eq n
() .
3 0
A N
le an
ers ion
B y
Ġe ver
ot s
ar ge
Ġm in
Ġfollow ing
cent er
an k
em ent
() );
loc ation
ĠI f
Ġf l
s q
Ġcons ider
o ad
nb sp
du ct
Ġvar i
Con t
m od
il s
ro l
Err or
Ġa c
Ġ key
d ition
r ite
le ction
enc y
Ġst art
Ġthe m
x i
} [
ro ll
n et
oug h
k en
Ġar g
is m
Ġb oth
ore m
Ġth rough
2 2
lo b
ver t
in ter
M E
ab ility
Ġresult s
Ġ ed
U n
ord er
Ġe lement
ĠE x
} }\
r c
Ġex pect
\ ,
it ial
Ġl ist
ro id
)$ .
Ġs er
or ld
Ġr ight
c m
5 0
19 9
iv ely
Ġb ound
ur ing
g or
p en
cc ess
et s
t ime
sc ript
a ction
oc i
ce pt
' );
l er
Ġpro cess
t op
c o
Ġstr uct
t ab
F ile
eps ilon
C O
pon ent
$ $
com m
b y
is ion
ect ed
pl ic
le ar
C lass
in ing
I nd
wh ere
sum mary
Ġob tain
Ġcon tain
ad e
Ġs ize
ect or
f ul
Ġdis c
is hed
le m
Ġli ke
Ġc all
en se
f ra
ind ow
ind ex
Ġerr or
um er
Ġl ong
iv ers
ef ore
} _{\
Ġc urrent
ĠĠ Ċ
m et
" ;
Ġdo es
l ink
s im
Ġper form
ur l
con st
Ġsa id
Ġwh at
iv es
al ity
Ġpe ople
Ġs he
pos ition
Ġeff ect
Ġwh ile
.. .
Ġh and
Ġj ust
Ġs ur
O m
Ġim port
ot t
() ,
Ġv alues
text bf
m an
ur ation
l ist
K ey
Th is
re ak
6 4
P h
ps i
n ode
are d
Ġre ad
ĠA l
p ace
ĠĠĠĠ Ċ
R equ
ca use
Ġn ow
g o
Ġd es
u c
v oid
un c
Ġever y
ri ption
cal e
g roup
iv er
[ '
oth er
re m
re g
U L
oc ument
Ġf ound
Ġbe cause
Ġan al
Om ega
he ad
Ġ Z
f l
A n
uff er
2 4
V iew
r on
im it
if t
] .
raph ics
ch i
ĠâĢ ĵ
^ *
Ġsu pport
et work
qu e
f ore
)$ ,
o k
ant s
htt p
I nt
ĠN ew
Ġf ind
S e
Ġas sert
ĠA n
op y
ps ilon
b m
Ġme as
Ġre m
Ġre sp
Ġc ould
. </
Ġ );
g round
p ublic
Ġd irect
Ġcon dition
Ġex ample
rib ute
re n
respon d
c es
ag er
N ode
le ss
an y
ĠF ig
Ġb el
ro ss
R O
S h
orm al
s l
Ġpro ble
p ath
i k
Ġc ent
r al
u ch
eqn array
Ġin v
f ield
Ġr un
ĉĉĉĉ ĉ
Ġl arge
Ġm y
sq rt
Ġpl ay
enc es
00 0
Ġman y
on d
Ġ čĊ
b e
r ame
Ġy our
" :
sub section
l ength
tr y
ca ption
m ed
el op
A C
r id
Ġs ing
em pl
Ġs mall
ul ation
Ġse cond
G amma
P E
b ox
Ġrep resent
pt y
T E
Ġc a
ener gy
P I
E vent
ro p
re at
' ]
in ition
E lement
"> </
Ġcont in
T ime
col or
v are
E qu
g ram
Ġloc al
Ġm ake
Ġcom put
Ġres pect
Ġ ?
I ON
Ġ: =
Ġle ad
j s
vare psilon
Ġ/ >
' t
^{ (
D ef
Ġf in
il ar
T R
pl it
/ **
Ġsp ace
Ġm ass
n o
Ġ$ {\
Ġth row
oo lean
ma x
/ *
t en
Ġyear s
Ġin formation
L A
Ġm ap
se e
Ġas sum
rib ut
Ġth ree
lo ad
' :
o ot
Ġbe ing
In fo
Ġar ray
Ġv ery
Ġm ust
Requ est
w n
Ġin cre
St ate
R e
Q u
Ġev en
v ious
O n
Ġle t
` `
h er
Ġob serv
Ġex per
as on
W ith
id ent
Ġag ain
res ult
ack age
}^ {\
Ġpos s
pert ies
gor ith
eg raphics
includ egraphics
4 0
iss ion
yp es
A dd
Ġl ast
n av
v al
Ġs ince
Ġto p
ĠT r
A l
it t
Ġ/ *
Ġn ode
P ath
" "
ut il
Ġcor respond
Ġ\ ,
Ġbe fore
us h
Ġo pt
Ġp resent
an e
l p
ific ation
T ext
Ġm ax
Ind ex
3 3
ens ure
ur al
ist er
Ġev ent
n ess
} =
se arch
F ield
f in
ers on
Ġal low
Con text
Ġm et
Con fig
) =
R ef
n on
() )
right arrow
s k
Ġkn ow
Ġprov id
mer ic
Ġt arget
b ers
Ġid ent
ma p
Ġin put
I C
Ġp ar
r ide
Ġth ose
b l
Ġ( !
=" ../../
o pe
Ġest im
r angle
ol v
w ith
tern al
Ġm on
us er
em ph
lob al
Ġw ay
. âĢĿ
Ġrequ est
st ance
Ġa ut
2 3
Ġf il
ir t
Ġp ath
Ġre al
od es
var phi
re l
Ġint eg
e b
ap ache
Ar ray
olog y
ess ion
Ġp ass
Ġm ain
a z
Ġs olution
iv ed
ap i
Ġdef ined
' '
ge q
Ġ energy
ath er
Ġ} ,
uth or
M an
it ive
//// ////
a pe
Ġt ak
8 0
ob ject
it or
m odel
B ig
om et
M ap
Ġ ,
Ġre f
cal l
Ġl og
er o
over n
f e
O ver
Ġd epend
l ang
ass ert
ann el
Ġgener al
! --
. ~\
p oint
l ay
if e
Ġ} );
ac es
uild er
ual ly
S ervice
act er
C ode
r ation
ames pace
Ġm em
Ġdist ribution
6 0
pro of
It em
Ġdef ault
ar i
it er
b olds
pp er
Ġdev elop
U R
ar n
c i
Ġab ove
Ġa p
) (
f rom
over line
Ġle vel
Ġt itle
tr ue
ĠA r
Ġ ra
Ġmeas ure
bolds ymbol
ou se
fra k
du ction
ow ever
u i
Ġb l
Ġor ig
Ġc heck
& \
. }
ĠĠĠĠĠĠĠĠĠĠĠĠĠĠĠĠ ĠĠĠĠĠĠĠĠĠĠĠ
Ġh ere
i ag
os s
im al
def ine
+ +
ix ed
[ \
o ff
ch n
=" +
ĠR es
ĠS h
w ord
end s
Ġd en
r u
Ġle ft
al th
Ġc ur
i or
con fig
Ġm ulti
ict ion
[ ]
im ension
duc ed
in put
Ġt ext
}, \
******** ********
ch ool
Ġn etwork
og le
' ;
yn am
Ġp a
L O
in ation
w id
Ġcon text
Ġv is
Ġf am
M A
Ġex pl
Ġ= ==
err or
S ize
b it
htt ps
a j
Ġdesc rib
N ot
A tt
b lock
yn c
st yle
Ġw rit
O r
Ġb ased
} ).
tt p
ut ton
ve c
A D
Ġar t
Ġre fer
Ġin itial
empl ate
ou ble
Ġ_ _
ur ther
h line
Ġm ed
ĠA meric
Ġus er
Ġs at
) ^
Ġpro t
Ġind ex
lic ation
lo at
Ġc ount
ĠI nd
Ġinst ance
Res ult
o per
c ed
lect ed
## ##
iv ity
l and
and om
S ystem
Ġ rad
our ces
H and
ator s
Ġcon fig
ign ed
O f
m m
re t
F orm
ra g
o le
Ġh im
cre ate
Ġd uring
Ġst at
math frak
Ġn ext
Ġproble m
Ġ( $
Ġp res
et urn
ĠA nd
id d
Ġs ource
2 7
Ġm ade
e k
Ġd id
Ġmodel s
pro t
Ġpos ition
A pp
c or
d ay
ust om
l im
Ġb r
and ard
com p
d t
U T
ef f
w ay
oc us
m d
ac y
ĠC ol
Ġch ild
ivers ity
} }$
ne ction
er efore
Ġse ction
p d
Ġs um
Ġparamet ers
Ġfollow s
ri es
gorith m
able s
Ġ} ;
Ġadd ition
ile d
qu ot
ens ity
v en
F F
a u
t il
E D
Ġb lock
L et
= '
iv al
M odel
Ġpartic ular
Ġw orld
able d
I S
s f
press ion
Ġv iew
Ġsh own
C H
o h
Ġc ode
vers ion
Ġn il
i j
b ody
s w
def ault
c ript
Ġex ist
Ġd r
Ġd at
I G
L ambda
4 5
Ġd om
ld ots
l angle
Ġm uch
im um
n ab
Ġqu ant
at rix
Ġs pect
Ġsu per
M L
Ġsim ilar
Ġt em
Ġo pen
s i
ys is
s ide
Ġb reak
Ġdet erm
Ġcont ent
Ġp ower
includ e
en u
Ġm ag
c irc
âĢ ľ
ic y
at ures
um e
st ate
st art
2 8
v ail
or ph
M essage
t itle
u f
Ġcre ate
Ġm ov
Ġb as
20 20
Ġpro b
Ġre port
ic on
Ġex p
re ate
i od
nd er
Ġparamet er
a h
Ġm ark
Ġsing le
I s
ve st
is f
com e
nab la
IN G
Ph i
b s
ym met
Ġwith in
al e
g es
7 5
ĠO n
d raw
L oc
E S
M P
Ġ q
Ġpre d
l ight
Ġj ava
Ġpro ject
ple ment
A S
text it
Ġterm s
Ġcomm un
ir on
~ ~
\ |
A B
ar m
str u
Ġc oun
9 9
ord ing
Ġ enc
Qu ery
Ġg u
S er
Ġbe h
Ġcal led
tain er
pos ed
Ġwith out
at ter
Ġs ample
Ġim age
ĠT o
, âĢĿ
Ġb uild
e e
Ġap pe
cite p
Ġre le
ur s
or th
2 6
d esc
c ul
Ġv ersion
F rom
al k
at ely
Ġw ant
m p
pon se
Ġhe ad
ĠĠĠĠĠĠĠĠ ĠĠĠĠ
Ġp op
app a
ensure math
Ġt ake
UL L
Ġtr y
I f
t ings
Ġl ook
. \
E T
pl oy
i que
or n
Ġcor re
ĠR e
en ame
t es
che ck
ott om
} ),
Ġst ill
Ġto t
Ġinter est
Ġr ange
epend ent
Ġo wn
O ut
sub set
Ġhe lp
Ġrequ ire
Ġd own
mb ox
Ġs ol
ust er
ar ning
Ġ` `
p or
ĉ Ċ
ĠG et
x im
cont ent
\ %
l ish
u les
ĠĠĠĠĠĠĠĠ ĠĠ
Ġcontin u
du ce
3 5
In ter
ww w
m it
d ev
a it
Ġinclud ing
} )$
v alid
Ġl aw
ord s
Ġdisc uss
o pt
Ġch ange
l in
Ġc r
ate g
Ġ-- >
Ġd ep
en e
ot ential
Ġposs ible
in fo
2 9
Ġd ue
Ġw idth
Ġ et
Ġa ction
anc es
d own
con text
Ġgo od
Man ager
n ext
k appa
H e
T able
Ġpro gram
U N
ur ity
Ġo ptions
ist ory
Ġl imit
Ġcon f
u age
Ġch ang
19 8
âĢ ĵ
ma ge
Ġfunction s
roll er
Ġre ce
and roid
Ġd eta
w are
---------------- ----------------
Ġpro perty
if ier
Ġo cc
b o
ge st
Ġg raph
Ġass oci
v is
ist ic
u x
b ase
Ġp at
a ut
ĠThe n
Ġstruct ure
Ġd er
Ġout put
ag s
m ethod
ra p
Ġback ground
ic ient
n al
um ents
201 7
Pro perty
Ġm ak
ot imes
Ġmat rix
Ġe lect
Ġbe g
A nd
Ġpoint s
ĠH owever
Ġb ase
ith er
Ġe ar
f unc
us ing
L og
an el
Ġsat isf
20 19
201 8
i i
Ð ¾
t s
o od
ĠS ystem
Ġit em
Ġshow s
0 1
C ell
G roup
end er
C lient
vail able
and s
he s
is on
g s
Ġa round
Ġl ow
Ġre ma
] (
Ġpre vious
I m
Ġv ert
irt ual
Ġme an
Ġs rc
v iron
Ġexpect ed
re c
j ava
Ġcont rol
20 21
Ġb ool
\ !
i ence
lo se
w ays
R eg
Ġb ro
Ġte chn
Ġc ar
S igma
iv ing
var i
Ġd em
D is
in ary
read y
in ess
che s
re en
Ġs che
Ġf our
O T
Ġchar acter
it al
Res ponse
Ġs equ
7 0
201 6
er ence
at s
ic le
="../../ ../../
A t
Ġl ength
Ġstud y
ra int
an sp
9 0
; &
. "
> &
c ap
Ġp ost
end ed
Ġcol or
g t
ĉĉĉĉ ĉĉ
Col or
f alse
======== ========
S u
Ġd on
pro v
c ount
T D
Tr ans
}} {
wid et
Ġtot al
C all
e ction
D esc
Ġs erv
Ã ©
) {
Ġadd ress
on se
C ount
\ [
im ent
p ackage
Ġreg ion
Ġst ates
201 5
it ch
Ġst d
dot s
non umber
D O
Ġresp onse
b t
um p
Ġl ink
Over ride
Ġkn own
{ -
et y
Ġp erson
Ġ< <
A ll
d oc
M ethod
Ġv alid
widet ilde
Ð °
center ing
Ġt ask
F act
Ġbe st
c ore
cl us
Ġmethod s
ĠP h
Ġimport ant
b ra
ex p
E nd
] )
3 4
EN T
et er
( (
/ \
Ġcl os
M od
l t
Ġd eg
o ptions
U ser
Ġint ro
w ide
Ġp otential
st atic
Ġse ver
> (
ent ion
P r
ĠS et
ib ility
R ead
he ther
Ġsu ccess
h ip
se qu
ut ure
n s
Ġg overn
ith ub
P l
St ream
Ġc our
N ew
Ġconst ant
0 5
Ġt ri
c it
Ġl ay
o op
Ġacc ess
I L
stru ction
In put
ater ial
Ġorig inal
om en
ĠUn iversity
6 6
Ġst yle
o in
ĠY ou
Ġin vest
T H
Ġ Ð
Ġm essage
B uilder
Ġagain st
Ġth ink
ev ent
ĠL et
Ġrequ ired
Com m
ct or
Ġobtain ed
i um
Ġs cal
w ise
ĠB y
Ġcorrespond ing
fo ot
i us
Ġind ic
Ġline ar
F ig
C E
l ing
Ġpro duct
ore d
o ption
ĠB ut
I P
Ġre t
u ck
Ġc lear
ic i
Ġg r
h and
Ġa vailable
ĠW h
d b
m o
e lement
c urrent
Ġs ay
av ing
Ġstr ong
im age
g ress
tab ular
201 4
St atus
we b
g ithub
Ġpa per
Ġf ull
m ember
Ð µ
s mall
id ual
ud e
ir d
go ogle
Ġim p
Ġa ff
ĠD e
5 5
pl ace
Ġcomple x
Ġd el
og raph
lic k
ill ion
Ġsu pp
} -
Ġcom b
Ġappro xim
A ME
us iness
Ġf rame
r un
d e
U S
x y
Ġan other
s ing
Ġd ensity
c ss
=" ../
m ult
Ġ ide
Ġcon n
m y
Ġappro ach
.. ..
viron ment
Ġc ap
ear ch
Ġt able
ri or
Ġal ong
c ast
ial ly
Ġo ld
4 8
c er
Ġinclud e
Ġl abel
end ing
h old
port s
l ished
ens or
Ġst andard
Ġr andom
pon ents
a im
Ġd ocument
Ġequ ation
pr int
Ġm atch
Ġc rit
U p
s pec
Ġr ate
Ġc ou
Ġ ke
Ġperform ance
u ary
R ec
Ġanal ysis
\ ]
Ġp air
u str
Ġpro perties
00 00
Ġs ec
um an
f low
Ġpl ace
ĠN ULL
c lient
ou d
I mage
dis play
Ġcal cul
ep ar
Ġs pe
in it
d ec
he ight
p ol
T O
\ {
Ġv ector
S ub
Ġper iod
ou th
Ġdef ine
ĠA pp
y c
m ark
le g
3 6
Ġv ol
Ġs k
om ent
Ġle ast
Ġb oolean
Ġt yp
Ġfam ily
D ate
Ġp arent
ĠI N
ĠT est
E X
ver age
Ġt imes
Ġsign ific
ON T
ĠĠĠĠĠĠĠĠĠĠĠĠĠĠĠĠ Ġ
201 3
Ġc irc
Ġn ear
Ġim plement
Ġthe ory
Ġ ge
in a
n ull
=" #
g le
3 9
aram s
Ġn ormal
em ma
P aramet
ur b
u ro
I R
To ken
Ġal ready
( {
G L
Equ al
oc ial
Ġcol umn
Ġ( )
Ġp ur
Ġph ot
d om
G ener
Ġle ss
Ġl ife
a f
r ary
3 8
N ull
ord in
Ġrespect ively
Ġpro of
A P
B ar
ĠĠĠĠĠĠĠĠĠĠĠĠĠĠĠĠ ĠĠĠĠĠĠĠĠĠĠĠĠĠĠĠ
aj or
Ġg ra
3 1
p ng
e ed
Ġc ases
Ġs ervice
arg in
ĠS o
S P
Ġf ree
el s
Ġex ec
Ġn um
pro p
ab ase
Ġelement s
P os
ĠThe orem
E E
} +
Ġb ook
a pt
ser ver
ĠA d
Ġpl an
ĠThe y
) =\
; </
; \
) </
S C
Ġf urther
Ġf ew
Ġcondition s
Ġs chool
requ est
ĠCom m
) ]
st and
che d
v es
Ġab s
row s
r ing
Ġe ither
In stance
al t
E L
th m
Ġ" ""
qu ery
Ġl ower
Ġprov ide
Ġre cent
ang uage
p c
ĠSe ction
Ġe as
Ġqu est
t x
if f
om ic
ur y
Ġal gorithm
Ġacc ount
Ġre search
Ġal ways
arg s
al le
Ġte am
oh n
Ġsever al
St yle
) }\
pr ime
is ed
Ġph ys
Y PE
sk ip
h as
ot ype
4 4
Ġf a
Ġw hether
} ]
Ġ& =
z eta
ĠO r
{ (
E d
g ener
ol l
Ġcon struct
S ource
n amespace
Ġs w
B lock
plic it
ĠG L
Ġre d
ĠI s
ast er
k n
d ir
O ptions
Ġdif f
H ead
Ġsu ff
ĠUn ited
Ġd ynam
Ġme ans
c an
ĠĠĠĠĠĠĠĠ ĠĠĠĠĠĠ
) ^{
ire ction
Ġex ists
} =\
ateg ory
t arget
app end
Ġc ell
ER T
Ġorg an
N o
or age
ic ense
id es
B e
oper ator
N S
3 7
am ed
se lect
L ine
ribut es
201 2
s cale
Ġtra ining
ec ess
Ġt urn
as ing
Ġs it
c ase
ly ing
O ff
Ġwe ight
B ase
ch ar
Ġd iv
p age
Ġp o
om orph
ĠA t
ĠE q
ĠAmeric an
ĠA ll
Ġg lobal
ic ro
Ġph ase
Ġassoci ated
al f
Ġl ight
C K
lem ma
Ġn eg
Ġc over
ĠTh ere
eb ug
oc ol
B uffer
in c
Ġsystem s
fr ame
Ġsh ort
Ġoper ator
ele te
Ġd iag
R un
ĠL ist
ĠE n
Ġser ies
iz er
ch ild
u es
Ġsim ple
ĠC O
Ġbet ter
Ġdef inition
Ġle g
D ec
pt r
Ġz ero
mod ule
pp ed
Ġd ay
Ex t
ĠE ng
cdot s
C l
Ġh ttp
. ~
RE F
Ġsignific ant
ĠN o
or ies
Cont ent
Ġl ater
u id
O per
ĠS he
ad ata
Att ribute
m at
j son
Ġfield s
b utton
o ice
Hand ler
Ġp ort
I I
F ilter
} |
Ġhigh er
Ġc are
Res ource
Ġ+ =
âĢ Ķ
P ar
] [
M S
Ġbeh av
AT E
}^ \
pd f
ab ly
g ing
Ġ- >
ver se
Ġad v
, -
Ġfin ite
er tain
p arent
s plit
Com ponent
Ð ¸
C C
ug in
wide hat
$ )
Ġf ocus
ĠThe se
w rite
text width
Ġs epar
Ġm ight
ide o
ĠâĢ Ķ
P si
c ell
, "
Ġbel ow
Ġb order
act ive
Ġpos itive
on y
ent ly
ĠâĢ ĺ
}_ \
Ġc ost
k s
F unction
Ġw rite
olv ed
< !--
ĠP r
Ġc lose
A ction
ĠM ar
Ġm ot
n ow
b ased
ĠA dd
S tr
loc al
6 5
r l
Ġs cale
Ġs ide
olog ical
Fact ory
wh ich
r ist
eg er
H T
7 8
Ġcom ponent
li b
Ġh y
math sf
* /
h space
un e
Ġ\ {
Ġf ore
// /
Ġs ymmet
ph p
Ġprovid ed
ĠF r
Ġim pl
}} (
201 1
Ġrel ations
Ġf ail
I M
Ġin div
od ing
A G
ĠS u
Ġro le
pl ing
Ġpro p
W indow
Ñ Ĥ
pl ac
p o
Ġev alu
V ert
Ġt rad
add ing
}\ ,
c os
an ch
d o
Def ault
s g
Ġthrow s
Ġa uthor
ex pect
L ay
Ġp erm
Tr ue
Ġcol l
il t
ĠU S
el ine
s rc
}) \
Ġl a
Ġ und
us ed
Ġand roid
Ġ{ @
Ġg row
li ed
0 2
0 4
id ence
Ġhe ight
st it
St art
x ml
Ġh app
Ġc ross
" .
Ġgo ing
us ic
U E
V ersion
Ġan n
g ed
Ġcons ist
Ġare a
f irst
Ġl oss
Ġdes ign
ĠR eturn
q quad
ĠD ef
Ġch annel
Ġre st
Ġf ilter
f ill
Ġst ep
ĠP l
Ġp ut
ge bra
Ġdat as
Ġcomp ar
Ġf und
Ġb o
Ġs om
Ar g
ĠO bject
ward s
Ġcomm on
9 5
ex ample
o ber
201 0
Ġfe atures
Ġp age
Ġd one
Ġf ixed
ob j
[ "
O P
Ġsequ ence
pro perty
ĠA ss
head er
Ġev ents
Ġhe alth
ĠC l
und le
Ġtem per
Ġh ome
Ġl arg
Ġl ines
^ +
col umn
b b
Ġs em
li p
imension al
ta ct
Ġgovern ment
le x
ug ht
Ġfe ature
ĠĠĠĠĠĠĠĠ Ċ
ĠFig ure
x space
0 8
Ġf requ
Ġrec ord
ens ions
Ġpred ict
Ġ( (
Ġcontain s
f ilter
Equ als
F A
N av
comm and
Ġth us
Ġspec ific
O S
is ing
ter s
b uild
Ġ ]
iz ing
end if
A ct
med i
ache d
{ {\
m ost
Ġconsider ed
Ġse en
Ġpro posed
ĠC ent
Ġspec ial
Ġprot ected
Ġm oment
ĠSt ates
op en
Ġun til
j av
O D
Ġg ive
Ġo p
c up
Ġpro m
Ġindiv idual
Ġl oad
Ġd ouble
Ġcan not
b ook
Ġv ia
R ep
in st
Com p
O b
Ġre ason
r um
b all
Ġle arning
LA SS
h ost
th ough
N umber
Ġm ajor
str ong
ĠW hen
Ġto o
} );
Ġit er
Ġequ ival
ig ation
Ġg ame
Ġc lient
0 7
Ġm ode
t ed
Ġa verage
Ġtrans ition
d at
Ġh ard
u k
ĠR ep
R ow
Ġwe ek
S pec
ig ger
am ent
st atus
Ġprob ability
ch ange
g l
Ġb usiness
itt ed
b ottom
Ġv al
le vel
im ary
on al
}^{ (
da pt
f ont
Pro v
l ong
age ment
i res
& =
Ġv er
em pty
al ax
st er
Ġf uture
Ġfact or
Ġn umer
H E
Ġtrans form
app ro
ind ent
P oint
Ġdist ance
at form
Ġpol it
L oad
n um
sc r
ial og
m t
Ġind ependent
ĠI nt
ul a
//////// ////////
Ġn ecess
f ind
$ {
ĠG e
Ġ$ (\
e ch
Ġobserv ed
net ic
ĠM an
con n
Ġmulti ple
4 9
ĠN one
ĠL emma
Ġse arch
p ush
kn own
Ġli k
Ġf low
equ iv
Ġex press
Ġspec ified
Ġh ost
Ġassum e
Ġchild ren
Ġdom ain
ma in
F I
Ġ eng
ĠS ince
Ġa ble
ĠR eg
6 8
ĠM ay
i ps
Ġsu g
pp ing
at ural
fin ished
} /
F rame
Ġmod ule
IN T
p ost
st ream
ul ations
ĠC an
( -
Ġex act
V ER
ap s
rit er
l ast
d r
Ġem ploy
Ġext ends
} :
A M
Ġdis play
0 3
Ġp ub
Ġp ay
7 7
Ġf r
m id
}\ \
Ġmon th
Ġdescrib ed
l en
a ctions
Ġ& \
Ġp ract
T ask
W h
F ONT
s in
g en
A d
pro cess
Con st
st d
C heck
re ed
Ġup date
O L
il ities
S p
at io
ĠS p
ig en
Ġest ab
P art
. $
o ke
| ^
Ġcl aim
Ð ½
se mb
Ġre ally
prot otype
og n
Ġf ac
Ġset s
ra ction
ĠC ar
at tr
Ġin s
i ation
Ġg reat
Ġb i
Ġe mb
Ġun it
Ġ url
L ink
ed ia
i ol
Ġw indow
Ġm ove
Ġed ge
C reate
_ .
ta g
s igned
oug ht
ce ed
ic ol
âĢ ¦
N O
F l
Ġd est
ĠJ ohn
not e
b ound
Ġne ver
Ġh om
Ġequ al
( &
{ }
Ġgener ated
bt n
Ġf ar
" ]
ĠSt ate
st ract
ĠM ore
Ġmem bers
ac ity
Ġrel ated
ĉ ĠĠĠ
Ġc ertain
Ġcoun try
our s
Ġac ross
ed d
operator name
m ar
S ON
pro ject
ĠB l
Ġoff ic
Ch ild
Ġo ption
im g
pr ivate
ansp ort
ĠL e
Ġres ource
Ġst atus
d l
Ġsug gest
if orm
Ġc opy
led ge
Ġt ypes
Ġb en
Ġfil m
d ist
Ġam ong
iz es
ma il
0 6
Ġof ten
uro pe
Ġb ody
ref ix
a i
un finished
Ġh istory
Ġbl ack
em pt
itt le
Ġexper iment
y les
Ġse lect
P RO
cit et
ĠG ener
p ack
Ġse em
Ġaddition al
] $
AB LE
ag ed
Ġto get
Ġconst raint
ĠJ an
b uf
Ġtoget her
( {\
L abel
ĠC al
Ġacc ording
ef ined
Ġb u
Ġacc ur
H el
Ġobject s
ĠW ith
P age
B U
Ġst ar
ra in
ch an
pl us
desc ription
) -
ĠY ork
param s
S c
Ġh uman
ic ation
Form at
ĠP ol
ed ge
S I
n umber
P C
ock et
Ġcon c
' $
Ġbe come
M et
n ormal
P ol
Ġk ind
sc ope
200 9
ab s
ar r
Ġ! ==
ĠA ct
Out put
igh b
ict ure
Ġquant um
Ġapp lication
umer ate
4 2
oo se
y l
ribut ed
g rad
fer ence
6 7
idd en
eth ing
in o
le y
Ġreg ular
Ġl im
ĠS c
rem ove
Ġcon v
up date
Ġinst ead
Ġanal y
Ġopt im
Ġsur face
r s
4 7
Col umn
E nt
ĠN ational
}} {\
} +\
Ġvar ious
el oc
ĠĠĠĠĠĠĠĠ ĠĠĠĠĊ
Ġear ly
ĉĉĉĉ ĉĉĉĉ
Ġgroup s
Ñ Ģ
th ers
ĠB e
Ġcont ribution
Ġcent er
row ser
en n
or iz
Ġapp lic
ol ve
g r
Ġg l
L ength
Ð¾ Ð
Ġtr ack
ĠF e
C ON
th ing
q l
F irst
Ġcall back
n eq
Ġden ote
U M
form at
UR L
Ġunder stand
8 8
Ġs l
Ġen ough
Ġchang es
st ar
R eturn
Ġm illion
un it
P re
C ache
Ġpro f
u int
ot o
Ġinter nal
ev el
Ġs s
Ġs ent
ar ies
m ore
Ġpr int
so le
Ġan t
Ġtak en
D B
enc ies
er ing
f loat
ĠN ot
st ack
Ġcre ated
Ġ[ ]
ie ve
Ġhow ever
& &
Ġam ount
idd le
0 9
Ġen vironment
Ġt re
ac c
List ener
i qu
ul y
Ġcon ver
ĠR ef
ph er
con tainer
r ule
il er
Ġim ages
Comm and
z e
Ġj ob
V alid
Ġ row
Ġlarg er
Ġc ustom
Ġcom e
in stance
U t
Ġm er
Off set
l s
er a
A ut
a use
Ġnot e
Ġcomm and
m eta
200 8
Ġg alax
Ġcomp any
app ing
N ext
ft ware
il it
return s
Ġis su
C D
Ġrepresent ation
m em
ĠM in
Ġsp in
} -\
ĠS ec
ĠE urope
ate gy
Ġbound ary
v alues
Ġinter face
Cont roller
Add ress
Ġpre c
Ġh tt
cl ose
ĠTh at
}} _
Ġrefer ence
out put
ĠC or
) }{
C ase
Ġs ays
ER R
Ġcl uster
respon se
ir m
Ġbeg in
he et
Ch ar
line ar
Ġre lation
Ġro ot
th at
Ġe con
ĠTh us
Ġappe ar
Ġh aving
M ode
E m
f s
Ġp rior
C L
Ġ ill
A cc
ĠN ote
ĠO ne
em ents
ent ry
T YPE
the orem
op s
id ed
R em
Ġc atch
" ).
v space
c s
B ox
Ġu int
" ),
19 7
en umerate
ĠW orld
Ġf it
] \
omet ry
Ġco ordin
mult icol
Ġ- \
O ne
W idth
Ġs ocial
math scr
Ġd ate
il li
Ġhtt ps
Ġcorre ct
U I
Ġg ives
N N
t ask
ev ed
Ġke ep
li ke
im ate
ist ry
Ġser ver
d ep
to ol
Ġl anguage
item ize
ab or
T P
Ġ es
n ce
Ġqu ery
ĠC o
multicol umn
ĠS er
Ġth erefore
Ser ver
ne y
Ġsh all
Ġdeta ils
Ġcomple te
Ġcommun ity
om ial
Ġdevelop ment
Ġsub ject
Ġset ting
ho od
l n
Ġvari ables
sc he
Ġar r
Ġ\ |
semb ly
al y
4 6
P er
Ġwh ose
Ġpol icy
Ġw on
Ġoper ation
> >
Ġh olds
is es
p ly
ic a
com es
Ġm aterial
p y
++ )
if act
We b
off set
Ġwrit ten
on ly
ĠC lass
Ġb and
serv ice
sh ow
ĠP art
I O
Ġst ream
Ġf ig
od er
Ġcom ponents
ĠP ar
Ġequ ations
ĠI D
ĠT e
a int
not ation
ed er
Ġvari able
ĠE X
str ict
Ġdeg ree
Ġform at
t y
ist ics
F e
un k
Ġimpl ies
Ġle arn
el se
Ġun ique
ĠH REF
m on
Ġar ch
Ġh old
Ġmax imum
Ġtemper ature
Ġwork s
( [
Ġwe ak
ĠC LASS
no indent
Ġth ings
200 7
Ġwork ing
d ag
ĠT able
ĠCh rist
~ $
CO L
9 8
) }$
ry pt
t yp
A b
Ġv irtual
= {
P i
inal ly
Se lect
Ġarg ument
S ec
nav bar
Ġrel ative
Ġeffect ive
S che
Ġden ot
$ }
is k
N AME
d s
\ "
av es
Ġadd ed
Ġon ce
Ġro t
c y
ĠW est
ang ed
as cript
Ġpro ve
ĠN ov
Ġoff set
j ection
ut es
Ġsolution s
uss ian
Ġy ield
Ġquest ion
( _
\ ,\
Prov ider
sh ip
Ġv eloc
ast ic
Ġco eff
F T
ion al
Ġg rad
Ġaut o
t emplate
p ass
Ġim prov
ĠA PI
U rl
vari ant
A A
ache s
< ?
Ġsom ething
ĠL icense
Ñ ģ
Ġapp ly
ĠS im
: "
Ġcontin ue
ib rary
expect ed
Ġl and
D at
Ġdiffer ence
Ġl en
ref erence
ĠC ont
Ġc ity
Ġatt ack
and id
S im
Ġmat ter
Up date
Ġmak ing
le ctions
qu are
Ġw omen
Ġconfig uration
**************** ****************
Ġ ~
ure d
Ġn odes
20 00
\ }$
Ġb ig
5 8
Ġcon nection
N et
Ġbas is
Ġeffect s
S ince
Ġprovid es
Ġr ather
Ġg round
Ġd irection
Ġst re
{ {
Ġb it
it ude
N D
Ġexpl ain
Ġin it
5 7
Ġex pression
Ġob j
le ase
B ack
ition al
d imensional
Ġreturn s
lay out
it ory
sh ould
p ose
L ast
ĠA rt
Ġd raw
' ).
Ġto ol
C P
Ġloc ation
M ax
n orm
`` `
#### ####
ĠT ype
mo oth
I V
Ġth ird
ic ult
ur ch
re st
clus ion
Th ere
tain s
sh ift
S U
Ġp ress
S O
Ġn atural
l or
at al
D ev
B utton
Ġdirect ly
Ġas k
Ġcomp ared
b ind
Ġrem ov
ĠD is
n a
Ġme chan
a ff
Ġb uffer
S D
200 6
Ġp ast
in ner
ud io
P R
Ġdesc ription
pro to
}} }
ro y
) +
4 3
requ ire
at ively
ĠA b
im ation
Ġl ate
. /
Ġd imension
Ġf ive
par se
pl oad
ri ed
5 00
ag ing
Ġmak es
Ġac cept
se m
on es
s ystem
Ġre view
Ġst ory
Ġch all
ĠP res
b reak
g ence
Ġd ays
ĠĠĠĠĠĠĠĠĠĠĠĠĠĠĠĠ ĠĠĠĠĠĠĠĠĠĠĠĠĠĠĠĠĠĠĠ
ul ly
T ypes
Con tainer
Ġm ember
Ġm argin
m enu
ĉ Ġ
m ber
c el
En try
] );
Ġarg s
Ġg re
Ġpat tern
al let
ĠAr ray
9 6
Ġt ree
Ġarg uments
m atch
clud e
ex ec
Ġa x
ĠCom p
ta x
Ġt w
T arget
ro ot
} '
Ġstud ents
Ġl ot
he l
5 6
ĠH T
Ġestim ate
c d
$ (
b in
so ft
Ġapp lied
ĠG r
U s
art ment
ĠTh erefore
Ġmed ia
ĠF ile
m ulti
A PI
The n
Ġed uc
Config uration
ĠD o
^ -
Ġne ighb
bo ard
fl u
Ġneed ed
Ġbehav ior
ri ef
ript or
4 1
Ġincre ase
Ġal gebra
r ics
Ġp anel
Ġt reat
it es
Ġde b
Ġl ittle
Ġd i
ĠW ar
Ġproble ms
T ag
Ġsign al
Ġreg ard
ra ft
an ta
Ġm usic
Ġimp act
ĠQ u
b a
ĠO F
am il
M em
t ree
ĠD ata
t ic
s up
Ġal most
under line
ĠS outh
ern el
appro x
su pport
im ages
N ote
i ans
Ġ* *
jav ascript
k it
ot al
' ),
Ġse lected
Ġth ough
im ents
yc le
ĠA g
Ġl iter
Ġst ars
ĠA ug
Ġh alf
le ge
ess ages
al es
ist or
om an
Ġv iol
d epend
Ġex ception
Ġclos ed
Inter face
Ġper cent
ition s
Ġpro file
Head er
Ġg ot
Ġw ords
w indow
Ġallow s
ĠC ount
Ġact ive
p g
b uffer
ach ine
ĠO ct
ĠS chool
ra pper
Ġne ut
ĠĠĠ Ċ
() ->
Ġpresent ed
ou ch
V is
9 7
Ġf ont
W hen
ã ģ
* {
anc ed
Ġc ut
R ange
ref er
Ġp ers
Ġ Â
one y
Call back
Ġpop ulation
old er
l ate
Ġinclud ed
T op
ight s
A ccess
Lay out
) |
ist ration
Paramet er
Ġserv ices
Ġ< !--
y ear
ct x
Pro cess
Ġmag netic
Ġcour se
Ġrece ived
M in
Ġ ...
on str
oun ter
Ut ils
Ġneed s
Ġlay er
d et
ul ated
comm on
D F
Ġent ire
u ation
Ġrem ove
Ġ{ }
Ġb ox
Ġme et
I F
ĠReturn s
ut ils
at tern
P O
Ġu pper
Ġex plicit
He ight
Ġright s
UL T
Ġdatas et
Ġfile s
A g
Ġresp ons
ĠAs sert
: </
s m
\ '
b ool
Ġsatisf y
Ġa way
Ġent ry
M M
min us
Ġs ure
Ġcol lection
Ġde ath
t ra
f inal
A V
h ib
et ch
id s
Ġa ge
ĠM e
Ġ ;
con f
E v
it ect
d im
Ġn one
T ree
Q L
Ġs ens
Ġform er
Ġo thers
Ġ _{
Ġdiff icult
pro d
pr il
ĠTr ans
ĠIn tern
ark s
at ives
Ġw ater
ew idth
}} _{
Ġy et
os ed
The ta
Un it
200 5
text tt
ĠM arch
ult ure
ĠD ep
er c
}} ,
Ġspect rum
Ġev olution
Ġsupport ed
Ġw ave
Ġm ar
R L
com ple
Ġf ri
Ġmark et
A ss
Ġsc en
Ġr ank
Ġem pty
ef t
i ke
Ġ$\ {
Ġs eg
c ame
Ġc he
W rite
) /
ĠS ch
lic e
5 9
ĠĠĠĠĠĠĠĠĠĠĠĠĠĠĠĠ ĠĠĠĠĠ
text rm
ĠO ff
Ġnum bers
yn omial
en ing
res ource
Ġclass es
ĠC ity
ĠSe e
Ġs ite
Ġsuccess ful
Ġch ain
Ġse ason
Ġhand le
. )
{ $
b um
ĠB rit
ĉĉ Ċ
ĠR ec
Ġo pp
Ġfor ce
Ġt im
Ġad j
S H
Ġnecess ary
the n
ĠJan uary
Ġact iv
Ġca pt
to ken
ST R
i ef
Ġe igen
equ al
}^{ -
Ġmem ory
ect ors
on ic
Ġbe came
c ache
Ġinteg r
p atch
ter m
res h
Mod ule
Ex ec
Ġtak ing
Ġsh ift
Z E
g raph
Th at
Ġphys ical
r ict
um b
ĠR em
ad a
duc es
Ġg as
Ġis s
Ġf loat
Ġr ule
C o
ĠE d
Ġyou ng
ĠSe pt
T I
Ġs ix
ĠIn ter
f oo
Ġc amp
Ġof fer
Ġm iss
ac ing
Ġup d
G e
a uthor
Ġcontinu ous
m es
Ġits elf
Ġs ense
Ġinter n
Ġ> =
W ork
subset eq
Ġreport ed
CO DE
Ġ( -
Ġreturn ed
Ġveloc ity
Ġdem onstr
Ġact ually
200 4
Em pty
d ocument
Ġequival ent
Cont rol
ĠG u
g reg
ar ily
ut able
ĠG o
ce mber
n ers
Th read
Ġiss ue
ĠD r
our nal
ĉĉĉĉ ĉĉĉ
AT ION
Ġtak es
alle l
Loc al
Ġsol id
20 22
am ily
Ġmet ric
li er
ve ctor
ar io
oc r
Ġex cept
Ġch oice
Ġ\ ;
K E
Ġerr ors
ol ume
P P
er ed
Ġlead ing
Ġwh y
am l
Ġus es
ar ing
< \
ĠS ub
Ġw ar
Ġdoes n
Ġa chi
Ġlik ely
lin ewidth
ser ve
V AL
Ġsmall er
Ent ity
ta int
c r
w ait
f a
? :
Ġre nder
Ġincre asing
at ory
ĠC reate
Ser ial
g n
E Q
ĠA fter
Ġr atio
N ow
Ġd oc
ent ity
p a
8 5
s ign
Ġ$ |
h am
un g
foot note
ell ing
R el
% %
un ity
id get
Pos ition
bl ack
ĠJ une
Ġpro duction
Ġn ational
Ġvert ex
Ġg en
Ġrec ogn
Ġp arams
D e
ĠO b
U til
$ _
Ġm ult
D irect
= (
v ant
Ġdescrib e
Ġb ar
s d
L I
L evel
Ġcon struction
Ġt emplate
i ents
def inition
C S
Ġal ign
Ġpro ced
Ġframe work
f g
i as
Ġs ources
cont rol
Ġinvest ig
ĠM c
con struct
Con nection
ĠF irst
ch o
f ree
H ash
Ġdec re
st o
O pen
il i
8 7
Ġag re
Ġwho le
Ġthe orem
a a
AC K
Ġan g
ĠB o
AR T
Ġcrit ical
ĠEx ception
set minus
Ġs m
6 9
Ġcon duct
Ġother wise
N one
ot a
Ġbro ad
f il
e h
Ġbe comes
Ġto ok
ĠJ uly
ĠF rom
th on
Ġstat ement
Ġcomp et
ol ute
res ents
yn tax
g ate
Ġbuild ing
Ġben ef
Ġaut om
au ge
f n
Col lection
ĠA fr
Ġover ride
Ġdev ice
^{ -\
A fter
5 1
i ber
os p
ĠA cc
Ġatt empt
ĠG erm
om s
Set tings
ĠA pril
ard s
in ated
Q ue
Ġw in
S L
st yles
" ))
Ġ ess
Ġt alk
C opy
5 2
Ġp ack
-- -
Ġst o
ate gor
Ġcomple t
Ġexper ience
he nt
5 4
Ġconn ected
Ġ* )
align ed
P arams
Ġfrequ ency
Ġt ag
Ġqu e
Ġc ame
ĠN orth
; ->
Ġatt ribute
Ġpolit ical
Ġse lection
Ġw ord
ress ion
Ġdec l
Ġde al
Ġdeterm ined
Ġro b
Ġexist ing
n ap
Pro perties
> ,
sub figure
Ġsuff icient
Ġno ise
Ġn uc
Ġl oop
Ġf all
ĠN S
ans ion
O p
Ġs ymbol
ĠI m
ve y
Ġsim ply
Ġfe el
ym pt
Ġin flu
it ter
: (
en ed
Ġstart ed
olv ing
~~ ~~
res hold
Ġs ong
an a
d ebug
se cond
ĠG a
Ġpart s
St at
Ġn av
Ġinclud es
D D
IG N
eta ils
Ġpartic ip
yn ch
Ġemb edd
Ġf oot
as hed
Ġrun ning
Ġcent ral
class es
Ġa void
h a
os en
ri p
Ex pression
S cript
cre te
5 3
c ur
P ort
o plus
ustr al
li es
Ġ( $\
Ġa pi
c lear
Ġre plac
em ic
Ġt ax
t ml
PE CT
ĠSept ember
un ch
Ch ange
Ġallow ed
iss ions
Ġun cer
iction ary
us ion
as ic
_ *
lay er
ĠP er
Ġc andid
\ }
J son
M O
6 3
omorph ism
C A
od ed
ang es
d en
Ġto ken
ĠDe cember
Ġact ual
M atch
Ġde ep
H ttp
Ġsample s
c ar
s a
Ġvol ume
Ġsh ape
K ind
k er
Ġund efined
Loc ation
z z
ri er
ĠM on
R ight
OR T
s y
Ġissu es
m ode
C R
Ġn ames
Oper ation
Ġneg ative
model s
Ġfor ward
Ġto day
ĠD E
oriz ont
Ġ$ [
ub e
Ġder iv
Ġrequ ires
t im
D ocument
: \
Ġun iform
Ġpol ynomial
or ing
ur g
v ision
AL L
O ption
Ġreg ister
ĠL a
Ġstud ies
ĠL og
Ġext ension
s cal
Ġin fin
Ġs ort
ĠOct ober
' re
ĠE rr
ru pt
c p
Ġ ign
su per
art ifact
m ission
=" -
Ġs mooth
Ġtrans fer
b ul
6 2
200 3
ĠAug ust
Ġ ensure
P T
Ġinter pre
ma ke
r ange
Ġsche me
COL OR
Ġlink s
ĠS ci
() :
Ġperform ed
or ig
Ġv ideo
t ical
Ġmin imum
oci ety
Ġa ir
_ +
ed ef
Ġm ention
B C
row n
Ref erence
Ġhy per
ĠS T
Ġcomput e
ĠNov ember
P S
ĠO ur
Ġf ix
Ġcomp act
S earch
Ġd im
Ġth ought
Ġobserv ations
Ġfil ename
col on
D ir
ĠM y
Ġus ers
f act
Ġoper ators
S o
is ions
h ad
pec ially
Ġm en
Ġoper ations
C urrent
Ġreg ions
B undle
lo or
ind er
d eg
=" _
w edge
Int eger
Ġbound ed
Ġar bit
Ġgener ate
Ġx ml
Ġhe nce
param eter
Ġn amespace
om y
new command
Ġ ir
et ime
Ġintro duced
i ers
Ġre strict
s v
Ġim medi
Ġcurrent ly
ĠM ark
over y
H O
As ync
am s
Ġdec ision
p ri
_{ (
Ġbu ilt
H ost
Ġelect ron
Ġa dapt
av or
x x
Ġcur ve
ĠC our
lim its
B O
ĠM ed
C an
Ġsc ope
ad ow
Ġinter action
F ont
Ġvis it
Ġfl ux
Ġe p
c il
Ġs plit
Pro t
Ġdiag ram
ĠT O
I ter
N E
Ġide a
Ġsub set
200 1
Im pl
c opy
amil ton
Hand le
ms g
ĠH is
for ce
ic les
ra st
Ġform ula
Ġpro per
it able
att ice
us es
St ore
h ash
dag ger
ill s
re ct
ul ate
ĠS w
ify ing
am a
' \
Ġup on
ĠH ere
ph ere
Paramet ers
orizont al
en um
aut o
Ġ$ {
em p
c at
ing ton
d el
Ġn orm
Ġcon sum
" ));
d rop
Ġin f
Y ou
="../../../../ ../
Ġa uth
in ternal
i et
ind ing
re nder
Ġhas h
Ġinteg er
ĠPres ident
ĠC heck
w s
d x
ĠCh ar
Ġpub lished
com ing
k et
ma g
dev ice
z ero
ther n
ĠCount y
anc ial
Ġf ace
h om
P L
Ġ$ -
ĠAmeric a
\! \!
8 6
ĠP a
rib e
Ġc ache
IN E
Ġcomp an
ĠPro position
Ġstr ict
ot ic
100 0
ĠD ev
S A
Ġresult ing
ach ing
In st
M ore
M D
Ġl ive
oll ary
Ã ¡
equ ality
ĠB ar
Ġad min
cre en
big g
d est
Ġintern ational
Ġdiscuss ed
), \
_{ {\
iz ations
a fter
Ġpass ed
Ġdeterm ine
Ġeff ort
Â ł
iv ial
it z
Ġknow ledge
up le
e in
ĠD av
icro soft
S ession
X ml
ar p
ĠR ev
in ci
P o
.... ....
Ġsw itch
Desc ription
ound ation
L eft
con s
Hel per
ograph y
Ġexper iments
Ġdid n
el ves
ag raph
Def inition
ĠO R
V ari
b efore
re q
Or der
ĠC oun
Ġmap s
Ġrad ius
P tr
Ġinst all
oot st
Ġper t
Rec ord
is ation
= -
Ġsymmet ry
Ġn ov
b and
Ġlong er
Ġh ouse
N ames
Ġapproxim ation
Ġin side
Ġal tern
Ġpartic le
Ġ\ (
E M
En c
CT ION
ĠA ustral
Ġde le
back ground
Ġrep resents
Ġdevelop ed
d elete
ĠĠĠĠĠĠĠĠĠĠĠĠĠĠĠĠ ĠĠĠĠ
k ing
Ġcompar ison
ĠI I
Ġv ers
Ġcom es
Ġcou ple
8 9
Ġconn ect
}} (\
Ġfa iled
D om
Ġgra v
Ġsec urity
F O
n ov
R A
trans form
Ġal bum
ob ile
add ress
Ġopt imal
R ender
Ġill ustr
Ġwh ite
B A
ERR OR
' _
st ep
Ġres olution
um in
et ers
Ġ| \
j oin
v m
Ġes pecially
Ġout side
Ġimplement ation
ĠEX PECT
inter face
Ġd ig
ens ive
Ġpartic les
================ ================
we ight
Ġp adding
Ġinterest ing
B l
h igh
d irect
result s
ag ue
AN D
F alse
m ing
="../../../../ ../../
i os
Ġuncer taint
ĠW hat
br uary
T ER
g lobal
ec ause
Ġman if
inci ple
Ġ{ };
el er
C al
sequ ence
Ġpar se
R ect
Nav Bar
Ġsatisf ies
artifact Id
eder al
a uth
Ġdynam ics
Ġon line
Ġf un
Ġm ix
ex ception
Ġspe ed
Ġa rm
ĠE nd
Ġeng ine
at ial
As sert
Ġt ele
Ġvert ices
Ġcount ries
text sc
s pect
C ore
ã ĥ
ous ly
ab ilities
Ġpe ak
Ġset tings
Ð° Ð
In valid
6 1
Ġr ules
v as
B ut
Ġev idence
es ign
M enu
Ġc ore
an es
Ġwrit ing
ix el
Ġuse ful
Ġth ing
Ġan sw
equ als
P ost
I X
rop y
Ġappro pri
Pro ject
Ġt ensor
Ġchar ge
n ost
Ġhe ld
in y
gorith ms
Ġaccur acy
Ġch oose
Ġcontain er
Ġem ission
ĠE l
if ies
Ġstre ng
an ish
Ġext ra
t ypes
ell ar
Ġconc ern
Ġrele ase
p op
Ġmin im
ber t
Ġdist ributed
Com ple
Ġf ully
Ġw ent
Ġ ::
doc s
iv il
act ers
( *
str y
L P
Ġst ore
ĠS pec
Ġst age
Ġexec ut
_{ -
rel ated
Ġor d
Ġsh are
G ET
( :
ilit ary
av y
ĠB G
hand le
Ġres ources
Ġexample s
ici ents
en v
F R
ol ic
_ ;
H ere
200 2
t og
Ġder ived
ic ate
Arg ument
' ],
b order
ell ow
Ġcontain ing
D own
ĠI S
Ġcon tact
Ġitem s
Ġo pport
ĠI sl
Ġarch itect
Ġdo ing
Ġgalax ies
Ġare as
ver y
V ID
is ms
def ined
Ġext ract
Ġcomm it
Ġident ity
Ġconstraint s
) }(
com ponent
M C
Ġqu ality
)\ ,
Ġpert urb
Ġdepend s
ex ports
Ġeas y
ĠV AL
Ġg auge
7 2
Ġ[ '
Ġrema ins
) _{
Ġpro gress
Ġcoun ter
3 00
o om
to String
ĠN e
ootst rap
Ġn amed
Ġstr ategy
by te
Ġc red
ĠWh ile
% ;
d ouble
Ġfig ure
ond on
} %
ĠH igh
Ġc os
group Id
ĠN ow
a e
il le
n eg
in ct
am era
Ġs end
Ġnetwork s
E q
S ign
sub subsection
Ġw ait
Ġgrow th
m atrix
Ġ+ +
est amp
l ap
re es
Ġ$ .
T im
Ġann oun
M eta
t w
N on
Ġh yp
ĠE ast
M e
ĠR E
Ġmot ion
Ġrele ased
ac ed
Ġso ftware
Ġcon vert
vent ion
ick er
Ġexp and
ile s
25 5
Ġ} \
K e
Ġw or
9 2
ã Ĥ
,\ ,
) ^{\
ĠP e
Ġnumer ical
ĠK ing
Ġcont ract
Ġbas ic
Ġs ession
Ġlevel s
Ġgo al
Ġ( "
L S
N um
ĠH ouse
ĠU p
Ġcou pling
omet ric
Ġin equality
OR D
c ases
Ġth read
Ġtest s
Ġrele vant
Ġr isk
Ġdec ay
Ġoffic ial
Ġorig in
t ri
Sche ma
Read er
Ġconsist ent
Ġrecent ly
f aces
ed u
for all
b on
SS ERT
ĠĠĠĠĠĠĠĠĠĠĠĠĠĠĠĠ ĠĠ
Ġsc atter
Ġim m
Ġclass ical
ynch ron
Ġexact ly
V alues
9 3
O ur
Ġl ove
ĠH ence
ant ic
Ġpr imary
Ġlead s
re w
Ġst eps
P ass
ĠB r
ak ing
W hat
rid ge
k a
apt er
Ġspect ral
P A
Su pp
Ġn et
Ġcomp are
duc ing
Ġpol ar
re a
re p
Ġmonth s
s ample
T emplate
Ġcon cept
B ody
ĠS tr
Ġto ld
call back
Ġapplic ations
~ $\
ĠA m
Ġby te
Ġt ell
Ġmeasure d
Ġst ack
Ġbeg an
Ġch arg
Ġed ges
ber g
Ġpres ence
L ong
B ound
at ur
Ġmag n
ĠR ead
Ġdet ection
ĠM od
8 4
in f
Ġfr ont
Ġinv oke
sh ot
Ġpro duced
D C
Ġqu ite
Ġstart ing
G E
Ġon es
a res
wid get
ac cess
Ġin fo
Ġtr ansport
Ġmoment um
Met adata
Ġdele te
ynam ic
ĠCent er
ex port
p icture
ĠIntern ational
ĠN ame
S k
Ġb inary
Ġscal ar
it ution
}^ *
al ysis
s end
U B
el i
Ġg ain
SE T
Ġg ames
ur i
Ġc ategory
Ġm oney
V ector
enc ed
co pe
}$ -
Ġn ature
om b
Ġth erm
Ġin ner
f ocus
Dev ice
Ġch osen
struct ure
App lication
Ġart icle
D o
ĠC ON
Ġad opt
bl ue
bs ite
Ar gs
ug ins
8 2
Ġcorrespond s
he st
ĠS k
wh ite
Ġ+ \
ul er
| |
Ġ( '
Ġprocess es
ĠS ome
9 4
iver se
OR M
a ign
ĠFe bruary
ĠD ec
Ġw alk
pro ve
H owever
Ġdec om
Ġplay ers
field s
\| _{
Pol icy
ĠD irect
Fig ure
Ġb ottom
Ġsim ulations
Ġchall eng
ĠG od
frame work
ĠMore over
Ġchang ed
web kit
it ing
ĠB ro
at ically
ib r
ĠDep artment
Ġassum ption
Ġlim ited
Ġby tes
Ġcomput ed
M on
ĠBG COLOR
Ġst op
ĠL aw
ĠG roup
Ġca use
Ġhead er
Ġpl ane
ĠWe b
> ();
e es
s ol
Ġre duced
V ar
P arent
b oolean
` .
D r
U P
Ġpop ular
) ^{-
Ġam plit
stit ute
Ġestab lished
urther more
ĠCour t
Ġexp ansion
Ġess ential
Ġ util
erv ices
c lick
ar ant
R ev
G B
f ord
Ġra ise
d f
Ġg rid
Ġlarge st
Ġassert Equals
Ġeas ily
ĠA tt
Ġs ound
Ġ" \
V er
p id
ad es
T ool
r ices
ĠCh ina
Ġv ot
Ġf raction
ip al
f it
Ġdat abase
Ġe mer
sq l
p ite
Ġcoeff icients
ĠR un
Ġe lem
Ġatt ention
Ġloc ated
Ġsp aces
ĠO ut
U RE
Dat abase
re al
c ard
ĠH ar
Ġproced ure
Se ction
ĠH amilton
s ur
Ġdis k
ĠEng lish
Ġbel ong
h y
Ġpl atform
ĠD ate
Ġass ign
9 1
ch annel
Ġeduc ation
v irtual
7 6
s ession
se ct
Ġro und
Ġd ark
Ġle d
re place
Ġfact ors
h s
Ġcalcul ated
point s
eta il
ĠS ervice
ĠTr ue
u a
E ach
Ġstud ied
Ġa im
D L
Ġus ually
}} ^
st at
Ch annel
Ġin du
Ġcour t
pl ugin
ĠD ist
By tes
ĠT ime
Ġre pe
ĠV alue
ĠHe alth
pm atrix
Ex p
styles heet
Ġperson al
Ġin c
ip eline
ĠW ork
ĠJ SON
} "
Ġcare er
ĠM ap
f ect
Ġnew s
Ġax is
AT A
ĠL O
{ $\
file s
Ġseem s
Field s
Ġindu stry
t ik
M ock
S ION
Ġplay er
h ing
r an
ĠL ondon
Ġcom ment
V al
ĠSt ud
Ġthe ore
Ġsit uation
ĠEurope an
f ull
P aram
Ġdep th
Ex ternal
ĠErr or
' }
att le
d ro
Ġtask s
Ġcol lect
Ġbel ieve
Par ser
per p
ro duction
D I
B oolean
Ġinteg ral
Ġan gle
Ġext ended
EX T
Ġinv olved
med ia
Ġplay ed
b old
Ġagre ement
ĠI O
am pling
Ġin variant
Tr ack
En abled
dis abled
te e
Ġestim ated
O K
Ġwe b
TE ST
g u
in itial
k ind
g ra
E l
ac ro
Ġbl ue
Ġsim ulation
ole c
mod al
Con n
Ġpr inciple
h over
Ġr ates
ir th
B R
Ġs low
st ore
all ow
ang ular
D elete
ĠA c
Ġun signed
U se
Ġj ud
os ing
ĠM odel
Ġ} )
ĠĠĠĠĠĠĠĠĠĠĠĠĠĠĠĠ ĠĠĠĠĠĠĠĠĠ
ĠM ath
D A
ĠBrit ish
Ġstruct ures
rom ise
u ge
M ark
Ġb ad
R oot
Ġl attice
O M
Se e
set tings
Ġto wards
ĠRes earch
ĠP ublic
o res
ic an
W riter
\ _
Ġexperiment al
Ob j
Ġdistribution s
Ġ< =
Ġlead ers
H as
St ack
Ġsc ript
n i
T itle
` ,
Ġs y
Ġmeasure ments
Ġproduct s
oc al
Ġinter val
m ock
' ))
Ġal gorithms
"" "
Ġst ation
Ġform s
ĠW illi
M y
Ġpart ial
> .
Ġ ),
$ ).
ĠĠĠĠĠĠĠĠĠĠĠĠĠĠĠĠĠĠĠĠĠĠĠĠĠĠĠĠĠĠĠĠ ĠĠĠĠĠĠĠ
dom ain
Ġgre ater
Ġrelations hip
al g
-------------------------------- --------------------------------
) }{\
D oc
Ġtrans action
wh ile
as ons
ĠD em
Ġh istor
Ġchar acters
if orn
Result s
su ccess
Ġal though
c ustom
bul let
Ġqu al
Dec l
Ġch o
ĠInd ia
}} ^{
Ġex ternal
ist ent
rag ment
ri a
4 00
ĠT ra
ert ific
conn ect
r ong
r ate
leg al
Ġ$ $
Ġfinal ly
Ġcompan ies
m c
Ġ' /
tik z
sh ort
Ġl atter
Ġaff ect
8 3
ing u
Ġre duce
Ref er
Ġb al
ĠA ir
Ġa ctions
7 3
ĠGener al
R ule
. [
id a
Ġpair s
' >
form s
Ġd ual
o on
Ġp ackage
Ġdirect ory
Ġj av
Ġdenot es
Ġo s
S M
) _
m as
ategor ies
ang er
St orage
__ (
sh ape
)\ \
w ner
Ġarbit rary
if fer
se ud
ĠCol lege
Window s
$ $\
L e
Ġin line
Ġbr ing
Ġcorre lation
Ġet c
S w
Ġm ock
) {\
Ġappropri ate
ĠG overn
aw s
Ġm sg
u el
Ġmean ing
Ġw ays
X X
Ġestab lish
ĠAss oci
Ġj o
ime q
id ing
Ġcirc le
com ment
Ġto wn
Ġor bit
Ġpract ice
Ġseg ment
ĠN OT
S R
Ġ" /
s imeq
ĠA L
iforn ia
h r
ĠF orm
Ġ er
Que ue
he lp
ĠM ich
.~ (\
A pi
Ġcont rast
end ix
ĠO pen
ĠH er
Ġfe ed
com put
^{ +
m itted
## #
end ar
Desc riptor
Ġs us
anc y
Ġim prove
} )$.
8 1
Ġd a
Ġj son
199 9
On ly
iqu es
im pl
Ġqu ick
att ribute
ra b
" `
ici ency
Ġpart y
in v
had oop
AT H
Ġl ock
il ib
Ġthrough out
Ġestim ates
ĠR equ
w in
Ġfin ancial
Class es
el li
st ant
Ġintro duce
W E
Ð »
reg ister
Ġst ra
est ed
W idget
in sert
ĠU K
Ġpart ition
atal og
rem ark
R out
Ġgener ation
HT ML
d ependent
CH E
c f
Ġf ast
ic o
ĠH ow
ou l
Ġe cho
Ġnot hing
Ġexist ence
Ġre ve
Ġcent ury
ä ¸
Ġincre ases
app lication
j pg
ĠH ol
ck now
Ġ( *
ad min
Pro p
Ġappro aches
o ph
EN D
as c
FA ULT
ist ance
J ob
7 9
Ġcon serv
Ġpl ot
S cope
B uild
ic ons
Ġman agement
Ġprevious ly
D ebug
By te
ma z
hes is
C or
og ene
ĠU se
IT Y
ad r
Ġcur ves
Ġs ex
ing le
Ġecon omic
Ġear lier
ĠJ ap
Ġp ul
Ġover all
Ġtechn ology
ĠBl ack
Ġtest ing
rad ius
", "
j o
Ġbound s
Ġappe ars
) ),
Ġpro duce
) },
Ġm ind
Ġbeh ind
Ġt our
Ġabs olute
Ġsignificant ly
Ġex hib
Ġprop ag
ĠP ark
ĠA rm
ĠT HE
ig hest
set s
ash ington
R I
7 1
ro t
7 4
if ically
ĠJ ust
$ ^{-
e ach
Ġc lean
Ġin sert
ill ing
Ġvis ual
Ġpress ure
T S
Ġ= \
p adding
p anel
N G
Ġmeas ures
Time out
m iss
l ines
Ġsim pl
ak er
w p
ĠE v
E C
P H
Ġlook ing
ge x
Ġre comm
Ġgener ally
Ġsing ular
Ġb all
ĠR ed
ĠĠĠĠĠĠĠĠĠĠĠĠĠĠĠĠ ĠĠĠĠĠĠĠĠ
ĠNew s
ren ch
Ġh it
over ed
Th us
re et
Ġqu as
Ġal t
J SON
ank s
Ġgr ant
ust ers
as ure
cont in
map sto
reed om
The orem
ĠO ther
ĠE m
Ġcoordin ates
Ġh on
Ġp ick
W S
| _{
w rit
Ġbe y
Ġwork ed
F r
Ġbey ond
t n
a iled
Ġcom pl
Ġmat rices
p k
)$ -
Ġun its
un signed
c ategory
Ġstreng th
u it
in et
Ġtreat ment
cm d
_ ->
Ġsh ared
Ġpur pose
Ġcons ists
D IR
Ġsp atial
Ġdiscuss ion
P RE
ĠF unction
Ġn ight
Style ID
im in
T C
Ġs light
ĠV ol
D ele
="../../ ../
' (
ms elves
sem ble
Ġc ref
rec ated
s ort
FI LE
D ep
Ġsymmet ric
cond ition
Ġfollow ed
ĠE qu
ament al
Ġrad io
Ġmod es
ĠU RL
Ġremov ed
ĠP y
AG E
od ot
) ).
Ġprof ession
__ __
Ġfl ag
Ġatt ributes
il led
Ġtem por
g ment
Ġeff icient
Ġm ilitary
; <
Ġre ach
w ar
ib ly
ĠE ar
Ġh arm
Ñ ĥ
Ġst and
r is
et ri
Ġpre vent
ĠSci ence
IN S
Ġex am
The se
In itial
ple ments
Ġk ernel
ĠHT ML
a el
pro duct
reg ion
ĠEng land
ĠĠĠĠĠĠĠĠĠĠĠĠĠĠĠĠĠĠĠĠĠĠĠĠĠĠĠĠĠĠĠĠ ĠĠĠĠĠĠĠĠĠĠĠĠĠĠĠĠĠĠĠĠĠĠĠĠĠĠĠĠĠĠĠĠ
Ġhand ler
Ġthe mselves
b its
E ng
Ġb ul
param eters
=" /
g rid
Ġrema ining
S l
f ort
M ulti
depend ency
display style
Ġag ent
Ġprot ocol
Ġconver gence
ĠRep ublic
Ġob serve
r d
N etwork
Ġset up
} &
ĠCal ifornia
es h
ĠGa ussian
urre n
omet imes
ĠAl so
Ġm ut
ax is
er ve
M B
Ġinstance of
al o
KE Y
el t
Ġocc ur
ens es
Ġauth ors
Ġcom ing
Ġst able
T ra
Ġact ivity
cl oud
-- >
b ut
Ch anged
N R
Ġth reshold
il ation
TE X
key s
ĠĠĠĠĠĠĠĠĠĠĠĠĠĠĠĠ ĠĠĠĠĠĠ
ĠF l
D raw
Ġs quare
p ub
Ġdepend ence
ĠS m
C re
c pp
con nection
ir it
er ies
p are
all oc
Ġh ours
Ġin cor
pos es
Ġm ask
re me
In it
hold er
Ġal loc
Ġl ack
Ġac qu
_ -
& #
Ġspect ra
C ustom
Ġrece ive
-> _
Ġag o
Not Null
Ã ³
item s
net work
on ical
es ian
ta ge
Ġt en
Ġident ified
as er
ri um
assert Equal
Refer ences
Ġclass ification
lang uage
omorph ic
ĠE vent
h an
$ ;
pro position
spec ial
Ġleg al
12 3
m argin
Ġquest ions
Ġrel ig
ĠIs ra
Ġab ility
d iag
Act ive
L ock
Ġas ympt
in line
Ġ ..
pon ential
Ġprob ably
Ġsa f
f ix
Ġparticular ly
Ġw atch
AC E
Ġtrans formation
Ã Ń
Ġdes igned
Ġdeta il
Ġ&= &
co in
Ġyield s
un t
G o
ĠS an
25 6
th read
\ {\
C F
ir ing
Ġl ost
Ġcomplet ely
Ġf ire
r f
Ġser ial
Ġident ify
u ations
ĠP re
sc roll
S ymbol
Ġform ation
ĠAr ch
//////////////// ////////////////
en ge
Ġtra in
Dis play
Ġget ting
Ġpro te
Ġl iving
ig ration
ĠC re
An y
ĠM ethod
mod ules
Ġhigh ly
a o
ol ar
Ġbr anch
)) )
or ge
c ref
S end
for ward
Ġf ood
Id ent
D S
Ġf ight
Ġm id
S um
ĠCoun cil
Ġimmedi ately
add r
P e
ĠQ ue
Ġindic ates
Ġnot ice
nap shot
Ġnov el
ri al
Ġcal c
ex ists
b ed
o e
tr ack
or ter
ĠO per
cal led
ĠDef ault
tt y
Ġcontribution s
P ackage
air s
B efore
ĠS y
Ġdom in
ĠU ser
Ġmain tain
Ġgra du
sequ ently
urs or
y es
Ġbegin ning
TE D
Ġhe l
199 8
Ġgu arant
Ġmention ed
[ (
Ġa ud
Ġh ope
Ġoff ice
ed it
_ ,
Ġm icro
D ialog
Ġst ellar
Ġ[ ];
ook s
Ġv ectors
Ġcl oud
d iff
Ġassum ed
ĠM r
Ġor ient
C lick
Ġgrad ient
ier arch
ir al
em ail
Ġoptim ization
w rap
Ġe q
Ġany thing
Ġincre ased
Ġm apping
c ut
T ab
Ġinter actions
an notation
Sec urity
Ġun ivers
P ool
ack et
is hes
Ġtr ansp
Ġtra vel
s b
Ġcall s
Ġrepresent ed
Ġm iddle
Ġst e
t ure
Ġv ict
ut or
ot ion
Ġen h
Ġliter ature
ĠS en
b al
ĠIn st
Ġform al
ĠDav id
par a
Ġl ibrary
n umer
Ġj oint
key word
U sing
Ġl ang
Ġm is
$ ~
ĠW ashington
Ġc op
n one
lo op
ĠB ase
uck et
ĠA ut
ific ations
type of
w ell
d i
u pload
Ġd ro
ock er
use um
p ay
Ġanal og
Ġkey s
Ġh ighest
Ġpol ice
Ġf unc
tog gle
Ġ ^
Ġpred iction
Ġmod ern
Ġent ity
rom e
N e
ult ural
Ġv eh
ĠP o
Ġre li
G S
Su pport
ĠN ode
Ġclear ly
ĠC opy
' .
Ġtry ing
Acc ount
Ġn or
ĠO ver
av ed
Ġm achine
pro perties
g reen
ĠN O
m ove
assert Equals
n es
Ġmeasure ment
Ġ Ã
Ġh ot
Ġserv ed
Ġas pect
ne ctions
am ely
I con
Ġdist inct
Ġvari ety
ele ction
Ġj Query
ilib rium
Ġant i
] ]
ar se
her it
ol ver
Wh ile
Ġsc ient
} )$,
Ġreg ime
Se cond
Str uct
Ġb orn
in i
p ers
eff ect
Ġ esc
j ust
Ġ ut
plic ation
em y
ĠF oundation
Ġh idden
Ġstra ight
Ġte ach
ĠP al
Ġ{ $
B S
or ation
() ).
proto buf
w ik
SI ZE
Ġref lect
} }$,
Ġs on
} }$.
ĠC ode
M ember
at ible
L java
foot er
Ġcamp aign
ĠO f
Ġfri end
( !
ad er
) +\
Ġcomb ination
Ġf ather
Ġsc ore
Ġd b
Ġa ch
Ġmod ified
Ġmechan ism
D R
[ :
ĠPa ul
Ġm orph
Ext ension
M ain
u ed
Ġm olec
Iter ator
ĠC ons
r or
que ue
ro te
f ail
A dapt
Ġmov ie
Ġenc oding
un ic
L L
ad s
eng ine
. *
Ġblock s
E CT
Ġpo inter
F loat
12 8
) -\
c b
Run time
lo od
[ $
ĠF alse
M ar
A p
Ġang ular
VER SION
Ġh tml
t wo
vis ed
Ġunderstand ing
Ġfam il
Ġwe bsite
ress ed
ĠĠĠĠĠĠ Ċ
Ġf air
anc el
ent er
A uth
Ġtrad e
ĠE ach
m ass
ar ation
ĠM or
Ġtechn iques
Ġprogram s
ist r
inc ipal
Ġdeta iled
sc ription
app ly
Com par
Ġre v
Ġl ives
ip age
Ġpro ceed
P attern
ĠM em
ĠIn stitute
Ġun known
M R
Ġnot ation
Ġmov ed
}{ |
M sg
Ġask ed
Ġspec ies
: }
Ġp ure
Ġmed ical
n ames
ev ents
) )$
ĠPro gram
ic ies
Ġpr iv
g g
Ġneut r
br id
ĠGo ogle
G R
tx t
olv es
ĠF ield
, $
Ġdis e
ĠEx t
m ic
LO G
t otal
Ġex port
. __
sc ill
Ġg ap
Ġun less
MA X
t ip
ĠTr ump
Ġach ieve
Ġwant ed
Ġtr igger
G raph
m ma
ĠG reen
Ġneighb or
k ens
Ġhe art
con g
Ġmatch ing
T e
Ġvert ical
b i
Test s
Ġnear ly
in n
Ġhigh light
du le
Fl ags
Ġs old
P AR
Ġcontain ed
Ġfail ure
h i
se lected
min ipage
ĠCh urch
Pro xy
AR Y
ĠHamilton ian
Ġle ave
av en
Ġfamil ies
P erm
Select or
re v
ĠR el
B r
Ġlay ers
fl ags
H z
Ġdirect or
t ion
Ġdiffer ential
}( {\
ĠP ost
Ġcap acity
E O
Ġst orage
Ġadv anta
hent ication
Ġbehav i
Ġrel atively
typ edef
ĠC all
Ġre ct
Ġat tr
Ġinv alid
Ġbo ard
ĠAcc ording
Ġelect ric
Ġm or
Sh ow
RO M
ig r
I B
Ġre serv
Ġdet ect
st op
Ġw ide
Ġinterpre t
Ġres id
ec k
Ġn g
Ġper fect
O O
Reg ister
ent al
ĠM et
Ġevery thing
Ġass ess
ch ain
s or
Ġcap ital
") ]
Ġmass es
CHE CK
Ġinflu ence
) ">
Ġmiss ing
eth er
amp ion
Ġcon clude
T ABLE
Item s
In ternal
Trans action
Ex ample
() ));
: =
Ġgo es
cc cc
Ġdim ensions
ĠK ey
Ġgraph s
Ġsc ience
Ġd rop
al ed
ĠU N
ĠPh il
ĠPro ject
Ġget s
b el
Ġfl at
Ġs ector
Trans form
v c
Ġc it
ess or
B it
ertific ate
F unc
Ġstr ateg
D P
ĠI P
Ġro ut
con v
Ġpres ident
U ID
Ġg reen
sche ma
F ail
wo od
Ġjav ax
ic ity
a ur
Ġche m
] }
Ġr ing
iter ator
) }_{
print f
l imit
Ev ents
ĠIn c
em por
Ġ\ !
ĠP ort
pass word
sec urity
un n
s ave
l arge
Ġcrit er
Ġrema in
Ġl at
Ġsur v
Ġlabel s
M T
bo ost
not ations
ĠS te
by tes
ing er
ar a
b ootstrap
Ġqu adr
Ġro om
ĠJ ames
Ġupd ated
pro file
Ed itor
ĠB ay
Ġcon cent
Direct ory
++ ;
Ġstud ent
Ġex c
h bar
ab il
Con s
pl ugins
Ġunder lying
}{ (
ist ical
Ġdiffer ences
ST ATE
Ġver ify
Ġmin imal
Ġv ary
s ince
Ġs ave
Ġc ov
ĠA N
ollow ing
Ġansw er
Ġob vious
Ġp refer
Prot ocol
Ġres on
) }}
G rid
Ġd ied
z er
Ġexper i
Ġhyp ot
ĉ ĠĠĠĠĠĠĠ
d ict
ov ed
Ġt ro
)) );
Ġide al
block List
ĠSu pp
ud es
Ġp en
ĠC r
A m
Ġread er
Ġopt ical
Ġ$ |\
Ġopp os
g a
ĠJ ew
Ġweight s
ĠCO VID
Ġdatas ets
Ġfund amental
Ġso on
ĠT ask
$ };
Ġcomplex ity
Ġex pert
Th erefore
Ġo dd
g an
stit ution
Ġbook s
Ġp hen
Sc roll
$ ),
v s
Ġfor ces
ĠM ag
Ġis n
Ġw orth
() {
Ġge ometry
Ġs up
- $
Mem ory
ĠTh om
ĠInd ian
U ES
th rows
}$ )
ook ie
w hen
G C
st able
m os
St ep
Ġproject s
C lose
al led
Ġscen ario
Ġd u
Ġrun s
ab e
less sim
ĠCan ada
ve ct
Ġpar allel
Ġ" "
Ġo scill
Ġposition s
medi ate
Int roduction
Ġsepar ate
Ġed itor
Ġread ing
Ġth reat
Ġshow ed
Ð º
s pe
iz able
he mat
Ġc ast
Ġprov ed
Fe ature
Ġexpress ed
struct or
ĠU sing
R AN
ymmet ric
Log ger
Ġgalax y
ele br
ĠF inally
ak es
Ġcalcul ate
I ST
Ġmagn itude
an o
Ġre duction
m ut
Ġvis ible
al gorithm
Ġhim self
Ġext end
> \
R ed
cont roller
ĠN or
Ġc ycle
Ġst aff
ly ph
Ġdel ay
15 0
sp ring
16 0
Ġprovid ing
Ġcoordin ate
Ġobserv ation
Ġa ward
Ġmov ing
y g
Ġcomput ation
Ġrot ation
D el
id x
ĠU s
tool s
il ing
Ġdynam ic
G r
ist an
Ġindic ate
Ġen able
* )
( @
id ers
Att ributes
u ous
Pl ugin
pl an
ĠĠĠĠĠĠĠĠĠĠĠĠĠĠĠĠ ĠĠĠĠĠĠĠĠĠĠĠĠĠ
Ġabs or
Ġs aw
Ġd am
p ool
Ġt or
ĠM at
Con f
F inally
ad o
ic ated
ill a
inst all
ĠV er
Ġachi ev
Ġt ab
Ġstrong ly
osp ital
h aps
le ep
Ġpr ice
Ġprocess ing
Con dition
ĠL android
Ġem p
Ġinst itution
ĠC ong
ĠAfr ica
v ed
1 20
Ġ[ \
Ġwrit er
Ġw rote
ĠTO DO
op ed
Ġcomple ted
Ġex cit
Ġid x
Ġf n
Ġc ivil
Ġtra ined
Ġext rem
) [
Ñ ı
Ġc li
ma ster
Ġsp an
en a
p red
Ġcre ating
ar ter
l ig
Ġi o
Ġconstruct ed
Ġevalu ation
Ġent ries
pos s
ĠF rench
M edia
it ivity
oo per
Ġconsider ing
Ġw rong
h av
######## ########
' ve
k i
ĠAustral ia
Ġcon sole
Po inter
Ġret ri
Ġl if
Ġre call
ble m
P U
pl ot
Load er
Element s
R est
Ġtr ust
F L
Ġs il
Ġ% }
F IG
In v
Ġ( _
ĠG ets
Ġm essages
ogene ous
M ENT
Ġb ur
Ġb irth
ie ce
Ġbut ton
Ġinfin ite
Ġtra ject
ĠA R
ch mark
ott ed
Ġab stract
Aut o
child ren
Ġannoun ced
pr imary
d y
Ġocc urs
ĠM ax
m ann
Ġin sp
O pt
hand ler
F ound
L IC
Ġscatter ing
Ġim ag
Ġp ush
\ )
Ġb in
Ġs creen
Re ce
_ (
Ġb uilder
Ġst ay
res et
oc ation
En um
Ke ys
Ġin duced
Act ivity
Ġuncertaint y
Ġamplit ude
t frac
Ġocc up
Ġen abled
ĠA p
Ġw allet
ĠV ersion
Ġcell s
Ġcomput ational
Ġin str
Ġv ac
^* $
ĠS O
Const ants
Ġcandid ate
Ġon to
Ġn ative
Ġdem and
ev en
ĠIO Exception
err y
Ġcolumn s
Ġdes ired
Ġb rief
ĠP at
Ġimplement ed
Ġim plements
S QL
M at
d em
ĠEx ec
ilar ly
r andom
j oint
Ġtype of
P anel
Ġbe am
Ġex change
tr igger
Ġcomb ined
ver b
J ava
ĠH el
ĠT ext
ev al
olog ies
Ġsub group
Ġslight ly
Ġcalc ulation
con tains
Const raint
ç ļ
st ats
ST AT
Ġm us
ĠP ress
Ġschool s
}} _{\
Ġnot ed
] :
Ġtheore tical
Ġ{ '
Ġf em
Ed it
N amed
Ġa mb
j ob
Ġca used
man ager
199 7
Ġf ederal
Ġre q
sing le
ens ed
y ing
X ML
Ġman ager
res p
çļ Ħ
ĠD esc
ĠAl though
lo ok
Ġf reedom
Ġapproxim ately
ĠComm ission
ĠK e
Ġresp ond
Ġb illion
Ġshow ing
Ġrob ust
ĠD ay
ploy ment
Ġevalu ate
ĠDem ocr
Ġre place
Ġ ult
R R
s ite
elop ment
m aterial
met adata
f amily
Ġpath s
Ġpro port
ĠT w
ĠB er
Ġlim its
Ġrec ords
M atrix
rec ord
Ġse ctions
ĠĠĠĠĠĠĠĠĠĠĠĠĠĠĠĠ ĠĠĠĠĠĠĠĠĠĠ
Ġexec ution
in em
Ġqu ot
H ow
M OD
par agraph
Ġw all
ober t
Ġm other
ident ifier
h ol
\ }$.
ub y
Ġpro jection
h idden
ĠI d
ĉĉĉ Ċ
ĠB en
Pr int
ar c
199 0
op ic
'] )
P Y
F C
ri z
Ġindividual s
os ity
D T
Ġsp read
Ġadd ing
Ġex ponential
import ant
Ġwork ers
G lobal
j oy
I E
ĠSer ies
' m
Ġconst ants
Ġeff iciency
su ch
circ le
ut ive
b rief
ang o
ĠWh ite
d frac
s ys
TR Y
n n
Ġsol ve
ri an
i able
Ġtyp ically
A c
ĠT V
Ġscal ing
Ġst ri
f i
( __
Ġfoot ball
ĠGerm an
D et
Ġf ine
ĠCom mit
Ġw aves
ĠSt reet
&= &
Ġdr ug
N ULL
W A
199 6
ĠComp any
uf act
" /
Ġ icon
Ġtr ace
Ġfunction al
ed itor
ĠM o
@ {
Ġcalcul ations
$ &
ĠR uss
Ġtyp ical
Ġv align
Ġconv ex
Ġprot ect
Ġdepend ing
as et
urren cy
Ġexplicit ly
and er
D iag
s at
Ġent er
ĠO ption
Ġplay ing
Ġestim ation
Ġsec ret
$ :
. '
ĠTe chn
ac count
Ġrequest s
ig gs
m ask
Gener ic
Ġaltern ative
ĠR ich
Ġcont roller
ve e
ĠF urthermore
ic ial
] $.
ĠEx ample
ann ed
Ġc ulture
Ġn ation
Ġg ave
ĠM al
Ġorgan ization
Ġactiv ities
ph ys
p u
Ġsc ene
D es
i ra
Ġsome one
At tr
r b
T erm
h box
NavBar Cell
V M
ĠRes ult
Ġcommun ication
s he
Ġc ard
drop down
Ġnuc lear
S cale
ĠUp date
ĠD on
Ex pect
B P
Ġarchitect ure
Ġque ue
Ġ ener
L a
Ġle mma
Ġsatisfy ing
INS ERT
l ers
y a
Ġphen omen
not es
ĠUn ion
cl uster
P od
Ġdecom position
Ġfore ign
H S
Ġs ociety
Ġde ad
Ġmass ive
Ġcl usters
Ġinterest ed
ines e
ff ect
==== ==
Ġachi eved
Ġinter view
F ix
Ġdenot ed
Par se
ĠT ex
Ġ{ {
P ORT
Ġin tr
Ġh ol
"> &
ĠA nt
To String
Ġh ole
Ġf ill
Ġv acc
Ġsum mar
Ġpat ients
Ġp y
Ġr ise
ĠCon fig
Ġhe avy
Ġbel i
Ġdis crete
, {\
c over
Ġdest roy
N odes
ĠPart y
Pro file
I MP
Ġreplac ed
ĠA ND
sa fe
Ġcontinu ed
r ons
Ġmov ement
Ġst ated
Ġ[ [
test s
Rem ove
RE AD
k y
}} )
er ial
Ġmin or
ex pr
Ġmat ches
Ġv s
ĠB uild
op es
ur ations
Ġm eta
Ġmajor ity
Ġparent s
ĠL eg
ub ble
Ġc tx
S ocket
Ġp seud
sw itch
li br
Ġm aster
D ouble
A meric
Ġform ed
t mp
os itory
Ġdeg rees
Ġconf lic
br ace
Ġchannel s
Ġm ixed
] $,
Ġstr ings
Ġtyp ename
F S
J ECT
ĠBo ard
Ġopport unity
get Name
Stat ement
b ot
} </
com ponents
Ġin form
web pack
tikz picture
ir us
Ġl umin
N amespace
Ġtrad itional
Ġcoeff icient
F ull
Ġs ometimes
d es
Ġth ick
IN D
F ailed
clus ions
Ġro ck
H ER
Ġp refix
ym f
Ġdet ected
am el
att ributes
}\ ,\
| }{
he tic
Ġred shift
Ġfl uct
Ġw oman
Ġinst ances
om in
Ġan im
UT F
H R
ix els
Lay er
Ġre asons
C I
l at
empty set
S ER
z a
Ġb right
ir med
ro ad
ud get
B B
Ġcar ry
sc reen
Ġp od
W rapper
duc er
BU G
ĠAssoci ation
Ġw ind
Ġset t
Ġin j
ĠE duc
Ġcomput er
Ġp ool
Cl uster
,\ \
clus ive
w est
y e
Ġg iving
Ġrequire ments
P ER
Adapt er
Ġdist rict
ch astic
Ġ raw
D M
Ġscal es
app er
Ġtherm al
v an
Dom ain
urre d
ĠL ong
cl aim
Ġmeet ing
ĠI mage
A X
Ġcoll abor
b en
math op
Ġe ight
Ġsum mary
Ġre ached
ymf ony
Ġe lection
b as
Ġphys ics
app ed
ag o
go ing
sim ple
et te
Ġpres erv
ag r
b u
Ġa wait
ĠIN TO
pos itory
ĠIn itial
R ad
ON E
ĠB el
s ive
ĠH and
}[ \
nd ef
Ġne ural
S ync
L INE
Ġs ampling
v ille
Ab stract
S Y
Ġp aram
Ġrepresent ations
ĠC he
Ġhapp en
p refix
ĠF lor
Ġcost s
Ġro ute
Ġ\ (\
st orage
N OT
Ġacc eler
) "
Ġbro ught
Ġv an
clud ed
Ġrespons ible
l f
Ġas ync
', '
By Id
if iers
prot ocol
Ġe mail
Ã ¤
ï ¼
Ġw est
File s
Ġfri ends
Ġin verse
IP T
Ġp ars
Ġsp ent
ĠD iv
B E
C ap
Ġsy nt
ang ing
big l
ĠGe orge
R et
Ġsur pr
Ġapp lying
ĠN etwork
Ġtr uth
Ġsign ature
Ġinteg ration
k w
pro ps
imit ive
> ::
N A
V olume
ĉ ĠĠĠĠĠ
f x
Ġf avor
Ġsign ed
ĠD es
ac le
Ġnuc le
P ATH
ĠPl an
Ġadj ust
e ve
ĠN umber
Ġdeb ug
Ġ ],
Ġimport ance
IC E
S pace
ĠRe act
ail y
Ġ ×
Ġfind ing
j unit
\ ;
f d
per iment
se y
g ies
z one
Ġgener ic
[ -
ser ial
199 5
Ġb ank
Ġra pid
Ġd ed
ch or
sk i
Ġtool s
Ġmin utes
Ġj oin
Head ers
ĠVAL UES
s el
int eg
; /
Ġcl ub
Ġpo or
) })
Pro ps
ick et
b p
bm atrix
it ar
Ġsur vey
ĠIsra el
Ġdel iver
n il
t iny
Ġfil ms
config uration
IT E
Ġ\ ]
Reg ion
ech o
ĠChrist ian
Ġobject ive
Ġcon ven
Comm on
h ome
) --
g it
Col lections
Ġsa fe
S he
st on
Ġw ife
ist ed
Ġcommun ities
Ġun ion
ack son
ĠU nder
/ (
O UT
big r
Ġoption al
Ġeffort s
Ġ â
and ra
Ġmax im
Ġind eed
av el
et ween
o les
Ġcom position
Ġ" ,
c are
Ġro ad
Ġp icture
d p
k es
P refix
gener ated
ff ic
ĠSu per
Ġc elebr
Ġj ournal
ell ig
A CT
ĠV iew
ĠGovern ment
N T
D est
TEX T
SC R
ĠH istory
ut f
m i
Ġsufficient ly
re lation
Ġ ^{
column width
C RE
LE CT
C M
ap ers
log ger
pre v
i ate
Ġser ious
Ġdev ices
t or
Ġb undle
Ġep is
Ġr ace
Ġvalid ation
Ġlate st
S eg
g in
al d
ject ed
is ely
c uss
Ġconstruct or
ĠĠĠĠĠĠĠĠĠĠĠĠĠĠĠĠĠĠĠĠĠĠĠĠĠĠĠĠĠĠĠĠ ĠĠĠĠĠĠĠĠĠĠĠ
comple te
U LE
Ġbo ost
fil ename
if def
}} .
%% %%
ĠI R
v art
Ġpart ners
S ingle
plic ity
Ġen joy
Ġis ol
Ġir re
Vari able
anc ing
ra z
im s
Ex pr
Ġp i
Ġw id
ĠPro f
= .
ch art
Ġbi as
dep th
Ġ rows
rel ations
pect ive
k in
j query
h ere
Ġh ous
Ġen um
r ift
ĠInt eger
ĠFr ance
ĠD el
Ġ[ ],
ĠD et
âĢĿ .
Ġg ir
Ġo wner
Ġm ill
Reg istry
Ã ¼
ass ets
Ġassum ptions
pl atform
ou thern
h ips
Ġh um
Ġst ories
Ġdist ingu
Ġ ens
Ġ ion
ĠCopy right
d one
ĠF in
Ġexplain ed
Ġequ ilibrium
co q
ught er
Ġst ability
Ġfl ags
Char acter
TI ME
)) \
Ġmet rics
D uration
}_{ -
Ġent ropy
Ġembedd ing
ĠH all
Ġn orth
s ymbol
ĠM art
oth ing
Ġread y
dec l
U SE
Ġc lick
prot ected
iter al
Ġsize of
multi row
ĠL ie
Ð ¼
k m
ou ter
ĠAr g
ful ly
ow ers
Or ig
Ġapp end
le v
Ġcom ments
,\ ,\
stru ctions
Ġse ven
Ġ ).
Ġsem i
al gebra
g b
S yntax
ul ator
st ro
Ġenc ou
ential s
Ġc m
und red
on a
un ct
og ram
Rout e
ĠD i
pro b
long rightarrow
ĠS um
cre t
ĠW il
S equ
ĠPro perty
ĠWilli am
el ines
Ġcapt ure
Sim ple
ĠApp endix
Ġpr im
=" ${
ph as
Su ccess
{ %
}) }
$ _{
ĠJ er
Ġreport s
y r
con struction
S ch
Ġpub lish
he ta
ist ence
ĠLe ague
ĠSe cond
A uthor
and emic
St ats
Tr ace
Ġquick ly
UR I
Pro of
Ġautom atically
up s
ĠFr anc
\ |\
Ġd ir
r ase
head ers
Ġcl imate
Ġinput s
v a
Ġgrav it
=" "
ap es
Ġus ual
ĠR etri
Ġsay ing
-------- ----
pro gress
Com ment
ĠM ost
U ri
s es
W N
S F
ĠB ig
W R
T A
iv ation
low er
ĠA ng
gener al
ĠFlor ida
ĠSt art
Ġpredict ed
rior ity
D ist
Ġcon j
sy ch
ĠAn y
) ->
an i
Ġrem ark
form ance
ĠMich ael
Ġapp oint
ĠSec ret
Ġstat istics
Ġmet adata
199 4
ed y
L emma
IV E
Ġxml ns
Ġcov ari
Ġapplic able
M apping
Ġn amely
' ));
Ġso ft
Ġlearn ed
ign ment
Ġweek s
Ñ ĭ
Ġpol icies
: @
sv g
Ġp iece
ex ternal
ĠR oy
Ġatt ract
B rowser
ĠH ash
ro om
Ġmaterial s
Ġloc ally
Ġdec ided
ĠCommit tee
Ġcar ried
Ġf erm
Ġlaw s
fr ont
sum er
b ad
function s
Ġevent ually
ĠInd eed
Ġch art
w t
on ym
Ġag greg
i h
Ġind ices
Ñ Į
ore st
Ġcre ation
Pro duct
ĠS M
ĠĠĠĠĠĠĠĠĠĠĠĠĠĠĠĠ ĠĠĠĠĠĠĠĠĠĠĠĠ
Ġd uration
Ġmax imal
ĠM ary
}} }\
h ide
ĠCong ress
Ġpl ans
Ident ifier
ĠM us
Ġcit iz
Ġpl aces
Ġhy dro
v olume
t ensor
arg ument
ĠTex as
Ġlay out
stand ing
Ġcom pos
HT TP
RE G
Eng ine
RE S
J S
ĠP ath
Ġb rowser
par ser
Ġstat istical
ex tern
S election
ĠL L
Ġs izes
Ġs qu
requ ired
eli hood
ĠJ ava
Vert ex
Ġcon sequence
Ġb tn
ĠOff ice
ĠV is
Ġpredict ions
Ġplan et
C G
Ġrepresent ing
L en
Ġvari ation
1 10
ĠR ad
Ġexpl an
en ers
ĠA SSERT
AL SE
Ġac com
' ll
math it
Ġwhere as
Ġcharacter istic
Ġsur round
sl ant
=" ">
i ance
Ġser ve
P ay
Gener ator
I A
f ixed
Ar t
v ol
ĠCh inese
text color
Ġb os
re y
ĠB ecause
Ġtre nd
ĠCom put
en able
Ġlist ed
\ }$,
ĠOn ly
E ST
Ġadvanta ge
Ġaccur ate
arn ings
ant om
Ġsaf ety
T T
Ġevery one
G ER
n y
ĠR iver
Ġl icense
fig ures
G iven
Ġout er
d etails
Ġtr ivial
sh adow
p icker
sl ash
ic ip
$ {\
Ġinter section
Ġsatisf ied
nost ic
Ġtechn ique
ick s
Ġd ust
M ath
Ġdr iver
st ein
it ness
ĠT H
Ġdise ase
Ġprofession al
}) =
Ġhead ers
Ġst ress
ext ension
Ġsh ock
Ġspe ak
con tain
Ġpro xy
Ġgrow ing
err ors
k o
Ġsub stant
Ġprop ose
G en
str iction
ĠRes ource
AD D
if ndef
Ġpur ch
S pe
ĠY ear
index Of
Ġlead er
P y
Ġ" -
. ");
Ġpl aced
O ther
P op
ĠT im
Ġor th
b d
ĠA ward
ĠAfr ican
ĠS a
TR UE
CE SS
Ġp ull
LO CK
ph one
| }
) }_
Ġcor por
tr ivial
av ail
Ġa ver
test ing
Ġ{ "
f ound
anes e
i ota
H istory
Ġsit es
ĠS I
it a
Ġleg is
ĠMin ister
u um
S cal
ens us
Ġth ous
ĠL ou
Ġlet ter
ĠG iven
Ġnon linear
Ġpur poses
Ġpattern s
Ġcont rad
ĠJ ournal
Ġv alu
as ync
Ġdiag onal
Ġequ ality
Ġregard ing
;\ ;\
}$ }
Ġst ored
ĠM ac
d ialog
Ġt ouch
Ġdeterm in
ou rier
b ib
! \
art icle
ist ing
it o
ĠRequ est
ĠLO G
ĠV ir
] {\
am az
Sh ape
EN SE
Ġconst it
l legal
Ġco inc
Ġview s
Im port
trans ition
v ature
Ġpa int
script size
ĠReg ister
serv ices
Ġdig ital
Ġcan onical
ur a
ĠM ex
ĠS QL
n odes
Ġchall enge
iffer ent
Ġch urch
im inal
Ġrecord ed
19 80
C ar
Ġneighbor hood
d ash
od ay
Ġo k
t i
f old
br as
lap se
maz on
Ġs al
Ġin fra
ograph ic
Ġf lex
vart heta
ĠS uch
ĠC a
un ing
Ġtime out
w orld
ro ut
ĠW indow
D etails
k l
Ġl o
H ome
Ġsecond s
Ġs outh
Ġthan k
ist ant
Ġinst ant
v als
Ġsequ ences
Ġk m
ĠHT TP
S ample
Ġl ib
Ġro ugh
Ġsu itable
Ġtrans l
c lip
ĠS ociety
Ġcon nections
ĠT wo
Rep ort
- (
ĠA ction
Ġderiv ative
Ġhe at
ĠGerm any
b rowser
18 0
Ġre pro
< !
Ġcomput ing
i ated
m f
EN TRY
Ġass igned
Ġdisc r
Ġincor por
ĠEduc ation
ĠCol or
Gener ated
L android
E V
Rep ository
IT ION
ĠI ss
Ġb atch
Ġopen ed
ĠR obert
ĠB oolean
H igh
Ġu i
Ġturn ed
Ġr ational
Ø §
us al
ici ans
Ġsupport s
S V
= [
ill er
Ġin come
ĠM essage
Pro gress
not ag
Ġgr and
ner gy
ã Ģ
O B
Ġsuccessful ly
Ġs en
Ġe ast
6 00
Ġc yc
P ub
ĠInd ex
Ġsuggest s
j e
}\ |
res ize
B egin
Ġ eth
Ġrefer red
Ġrefer ences
it ative
Ġp ages
Ġrem ember
b uilder
}} ^{\
l aw
it ation
+ (
Ġmanif old
Ġvari ance
Ġact s
ra ge
Ġpr ime
n p
Ġwas n
ĠC ap
ĠT R
p attern
Ġr at
ib ration
ĠI E
Ġpass word
b urg
Ġtrans lation
ue st
X i
Ġc ategories
Ġpro pos
Ġdescrib es
abe led
ĉĉĉĉ ĉĉĉĉĉ
Ġman ner
Ġb its
Ġide as
Ġder ive
resent ation
Ġexpress ions
Ġex it
Ġord ers
as y
Ġprec isely
> ()
j Query
Ġv ill
uc ial
ĠE ven
ele ase
ĠA lex
199 3
ĠD uring
à ¤
G P
Ġstart s
Ġasympt otic
T wo
t emp
grad e
ta il
; }
^{ *
ymmet ry
Ġal one
sh all
ens ities
Ad min
ĠR ob
s ym
ge bras
SCR IPT
ĠN AME
ta gs
A x
S ome
fl at
& =\
Dele gate
ĠDirect or
ĠDist rict
exp and
ĠÐ ¿
Ġchang ing
Ġorder ed
se q
ur t
Ġ$ ,
ra ined
Ġres olve
u ages
H ence
ro le
Ġassert That
ĠM edia
Ġjo ined
Ġ' <
F UN
r ical
tab s
plic ated
mm utable
int ro
qu ant
ĠSm ith
l g
Ġign ore
Ġcall ing
ĠH ead
ĠAc ad
ri end
Ġc amera
ish ing
un ique
\ }\
}) ^
} |\
prov ider
i ant
Ġchalleng es
Ġcandid ates
Ġdis p
Ġspec ify
un ities
Ġs ynchron
ut y
Ġchem ical
F N
g ers
Ġ= ========
Ġc md
$ /
man if
Ġlist ener
ĠS D
Ġbul k
ĠM icrosoft
ult ane
Ġ" <
und efined
ĠS ur
25 0
ĠCh ild
Ġcomm erc
Ġpar ser
00 1
ad ing
ĠPro v
Ġbe aut
Ġrem ote
fe ature
Ġc y
S ervices
s lice
p ower
Ġvers ions
Ġsol ar
Ġappe ared
ĠW AR
l as
Ġprec ision
ed s
][ ]{
iven ess
Ġposs ibility
Ġt x
=" @
tr im
c ing
Date Time
ace book
Ġman ufact
libr ary
FF FF
m n
im its
âĢĿ ,
Ġh undred
Ġsub t
b c
ict ed
Ġlog ger
RE Q
Ġinvestig ate
D epend
199 2
Ġp andemic
ĠH ttp
Ġd ire
Ġecon omy
T x
Ġdes pite
Ġbehavi our
Ġa cknow
ĠC H
Ġaff ected
Ġag ents
ven ue
form al
art esian
(' .
Ġf mt
Ġb uf
ul i
Ġm om
tr ace
irt y
Ġh ar
ot on
st ain
ĠB ill
Ġtop ic
Ġrad iation
Ġprov ider
Ġag reed
Ġqu ark
cl ine
ext end
å ı
m k
sub sec
agr ang
Ġc ool
ĠEar th
az z
t c
F LA
Ġsp ac
Ġstat ements
d etail
Ġiter ation
duc ible
sequ ent
ĠT imes
Ġmost ly
her ent
ĠB lock
Ġtop ological
Cons ider
U pd
F E
ĠThom as
ĠV alid
Ġsc roll
const ant
b or
L imit
R ole
Ġt end
Ġop in
t an
Ġd x
Ġst ock
Ġoff ers
ari os
G N
VAL UE
Back ground
pt on
Ġbenef it
res ources
Frame work
Ġmon itor
Ġ} {
Ġfore ach
Ġselect or
exec ute
s quare
} ~
Ġpre v
act ic
Ġem phas
med skip
T ags
sc ape
aw a
f c
ot ed
t ex
Ġres et
Ġto ward
j ango
ĠG old
h ref
}{ *
Ġfact ory
Ġbal ance
neg ative
ĠL ife
Ġnormal ized
Ġener gies
in valid
Ġin fer
Ġfocus ed
orig inal
Ġel li
End point
w rapper
am ing
ĠG en
Ġ\ &
Ġclaim s
d ele
i pped
ition ally
ĠSt at
Ġimprov ed
Ġhapp ens
h l
h orizontal
Ġa ware
ĠSt ep
U D
pre c
.. .,
time out
pl ane
Ġf irm
Ġpl ugin
Ġdirect ed
z ure
Ġnecess arily
Pass word
12 5
Ġmark ed
Ġphot on
ĠL ine
r ich
Ġdef ines
ĠZ e
B ind
p air
Ġt ail
s ome
poss ible
ĠD ir
et al
Ġadopt ed
Ġs ch
Ġpart ies
h ouse
ĠM a
Ġshe ll
Ġd ashed
ff ff
S K
Ġfl uid
en abled
land s
G u
T otal
Ġgeneral ized
Ð ²
onal d
F ORM
R T
Ġk illed
t k
^* \
Ġac ad
ĠT om
^{ (\
ur able
sh ared
Ġ ];
avel ength
Ġ[ "
table block
Vis ible
: =\
j ar
g overn
I gn
Ġthe ories
ac ob
Ġis omorphism
ĠL at
Ġmod ules
h d
org an
ct r
ĠG al
ĠAn n
C ategory
Ð ´
ĠIn put
ĠU I
Ġ( [
C lear
Ġ il
ch anged
Ġ( {\
ĠE U
Ġdet ector
= >
Americ an
Ġd iver
script style
DE FAULT
Ġv ote
Ġloc ations
amaz on
f ol
Ġapproxim ate
il bert
ĠS am
em on
Ġus age
Ã ¶
ĠM iss
Ġtri al
Ġpre tty
Ġquas i
li k
ĠD O
ĠAs sembly
. ",
Ġapp arent
ĠB oth
col lection
Ġallow ing
ii i
Ġpower ful
Ġcirc um
g ather
Ġtransp arent
The y
Ġcon vers
{ "
Ġcharg ed
CO MP
ĠT op
Ġteam s
h ave
Ġrel ax
Ġmain ly
Supp ose
ĠG lobal
F low
o ch
anc er
re port
Ġm ission
Ġelect ro
Ġpl ays
Se lected
ast e
ĠSh ow
Ġcol lege
Ġconf irm
H C
ĠM er
Ġt mp
Res ources
Ġexec ute
Ġtem p
check ed
ach ment
Ġattack s
}} =
ĠM usic
tri angle
Ðµ Ð½
Ġde leg
nost ics
P UT
Ġbenef its
Ġrecomm end
19 70
ĠL i
Ġdis abled
Ag ent
set up
D ictionary
Ġtechn ical
ierarch y
r ank
st one
10 1
Ġdynam ical
P a
c lean
Ġag ree
Ġen v
ist ers
os ure
ph ase
Ġsto chastic
ĠH iggs
al ing
Ġs pher
j i
Ġd ram
Ġcomm ut
More over
run time
ĠD en
Ġgrav ity
Ġm enu
iss ues
Ġin nov
ĠAmeric ans
En umer
p end
Ġex ceed
; )
empl ates
ĠS und
as sembly
p res
P ublic
Com put
Ġd ict
se par
Ġ-- -
Ġf elt
ĠB ack
z h
M ask
! ]
ĠD an
e lect
ĠĠĠĠĠĠĠĠĠĠĠĠĠĠĠĠ ĠĠĠĠĠĠĠĠĠĠĠĠĠĠ
Ġsu stain
Ġg lob
ĠIn formation
j a
t body
ĠPro cess
Ġsign als
M I
Ġ$\ {\
Ġevalu ated
N V
su pp
M ag
Ġra ised
ĠD at
Ġtele vision
Ġdoc uments
Acc ording
Ġpr ison
Ġmed ium
Ġjob s
ree k
ĠL ocal
Ph ys
ic ine
ĠS E
ĠJap an
) ^\
conn ected
word s
b asic
ele m
ĠB ank
L anguage
m ouse
Ġd imensional
og onal
i em
C B
ĠArm y
alt y
Ġ' \
typ ename
Ġch ance
st ates
am i
comp are
F n
Ġn om
ĠM ake
Ġinter act
........ ........
Ġcover age
Ġrad ial
Pro gram
the me
. <
Ġopen ing
ĠRev iew
Child ren
Ġab und
Error f
ar ity
b orn
pro xy
Ġregister ed
ĠDev elopment
in ations
Ġp ixel
Ġh or
ĠF il
ob serv
() ))
ation Token
b g
z en
math tt
at omic
Ġquant ity
Ġequival ence
est ival
rop ic
po ch
¿ ½
ĠSec urity
Ġgener ator
ĠO p
Ġl ic
iv ery
all ery
Ġcommerc ial
Inter val
Ġcos m
oriz on
agrang ian
g i
Text ure
ĠB usiness
Ġad m
ĠAN Y
Ġsom ew
b atch
Ġp le
ME TH
S ort
ĠFranc is
ĠCent ral
Ġstr ug
EE EE
mo z
Ġassum ing
n ol
Ġdepend ent
Ġdef orm
ap ed
Ġj et
Ġdemonstr ate
Ġhypot hesis
elli j
g ba
Ġfa ith
p ull
Ġvalid ate
ing ly
ĠH uman
support ed
Ġdis s
Ġm es
ĠP ub
IG HT
Sum mary
er ior
ic ago
s heet
Ġfin ished
plement ation
Ġnull ptr
Method s
ĠP en
ĠS un
Ġcl in
ĠAd min
Ġl ies
N ative
Ġrelig ious
Ġ_ ,
Ġsuggest ed
ap pe
log in
Ġtrans late
int ellij
Ġconf idence
">< !--
Id s
L in
\% $
8 00
ent y
ĠB ook
Ġint ensity
Ġturn s
pol icy
Ġexpl o
ĠM useum
pe at
Ġnav igation
grad ient
pk g
Ġviol ence
f ly
Ġd ense
Ġsp irit
Ġcur vature
h ard
Ġcan cel
comp iler
Ġcont ents
N ormal
ĠRep ort
os h
Ġra re
object s
Ġcover ed
s ch
el astic
c li
Ġde let
Ġb us
select or
Ã §
Ġconv olution
? >
equ ations
ĠT or
user name
\! \
mag netic
d ig
ir ror
(' #
i ative
pt o
Ġ\ ,\
Sh ort
ĠC EL
per iod
Ġgu id
ma ven
Ġpa id
> :
ay lor
Ġs ql
Oper ator
, '
Ġrepe ated
P air
ĠX ML
Ġext ent
ĠS ocial
Ġn p
Ġident ical
Ġpro ps
Ġdi am
Ġunder st
Ġpl ant
ra ise
S ql
ĠS al
Ġ' '
Ġd ou
am er
ir ical
C red
v ideo
p erson
Ġper haps
aj ax
th row
ĠP oint
element s
ĠF ROM
Ġ} }
Test Case
ad ian
199 1
fl ag
Ġp lease
# {
" ],
ï ¿½
Q U
ĠB rown
Ġnot ion
Ġdocument ation
F in
group s
um my
Ġmat hemat
Ġquant ities
construct or
Ġm ur
en ess
us ers
Ġinvest igation
Ġwh om
R C
G O
Ġinvest ment
Ġpr incipal
ĠB est
C ALL
spring framework
Sequ ence
comm it
Ġz one
s ig
s ync
sh al
Ġgener ating
******************************** ********************************
ĠC ath
Ġofficial s
c ounter
METH OD
33 33
Ġread only
ĠL and
. \\
Ġb ands
ĠArray List
option al
con vert
her ited
at o
Ġunivers al
h fill
ĠJ ose
Ġdefinition s
I LE
Ġcon figure
Ġhelp ed
t ons
A li
hel per
F ind
ĠEng ine
Ġrec over
Ġb ind
reg ular
Ġreason able
str ings
! [
U nder
Ġfour th
Ġdr ive
u zz
Ġsche ma
Ġpl us
col l
anc ell
Ġh uge
M ouse
D iv
ĠDef inition
ĠFr ank
ĠRuss ia
ac cept
Ġ= ======
ĠN ext
ĠSo ftware
A SSERT
( -\
B ook
ĠIsl am
col lapse
IN FO
ĠSc ott
D ATA
Ġd ialog
ri ptions
Ġspe ech
ro ute
Ġdown load
L ower
A E
E mail
ph antom
Ġhapp ened
(' /
par allel
ĠG reat
ĠS che
Ġsim ultane
Ġfeed back
ĠWest ern
INT ER
ce il
ĠM ass
Sp an
Ġr ich
Ġke pt
ĠPh ys
Ġat mos
bold math
ĠT ur
ser ies
Ġtri ple
mon th
~~~~ ~~~~
Argument Exception
Ġorgan izations
w ave
Ġopt s
s n
Ġc lock
Ġadmin istration
rad e
Ġexpl ore
li ament
_ );
» ¿
ĠH en
Ġown ers
Ġ? >
ĠW rite
Ġfund ing
Ġmod ify
Ġsupp ose
se p
EL D
EEEE FF
Ġmag net
Ġind ust
ĠThe ir
Ġg old
Ġsum mer
Ġex ports
) >
Ġk new
ï »¿
Ġ ,\
Ġenc ounter
ell er
p an
os es
Ġ@ "
^ ^
CH AN
a ver
Ed ge
Ġa udio
Ġany one
B asic
th ere
ĉ ĠĠĠĠ
ad v
Ġsong s
os oph
N C
orig in
Ġtre ated
Ġb udget
ĠP RO
Ġdec ades
! !
cl osed
at iv
y y
Ġlumin osity
ĠP aramet
Ġro ll
text up
Ġperiod ic
VAL ID
res olve
qu ote
ĠV ector
Ġhe ard
B AR
ĠS ervices
foot notes
T F
Ġb re
an aly
is is
act or
ĠSupp ose
Ġ> >
u v
od ies
ID TH
cor ollary
Ġeigen values
S ur
ri age
w ill
Ġt err
ĠCons ider
un ately
"/ ></
Hel p
L i
Ġ\ "
Ġd ie
OR TED
M s
Ġextrem ely
An imation
Ġs ym
Ġcomp atible
Ġemploy ees
spec ific
Ġal leg
check box
Ġconfig urations
Ġl abor
Ġcontinu es
Ġbu y
Ġoppos ite
it ors
Mem bers
Ġessential ly
Ġ" $
\| _
Return s
; ">
Pl an
um es
et es
hav ior
ĠIt s
Ġstrateg ies
pl ain
Ġwid ely
du led
end or
iv ated
Ġ" ",
ĠFor ce
. $$
Ġgravit ational
ĠR oman
qu est
Be an
Ġcontrol s
Ġspec ifically
MOD ULE
Ġoper ating
S G
ar ith
ĠA rab
vert ex
$. }
Ġp ain
print ln
ĠC ase
Not ification
Ġplan ning
rit ical
rid ay
ins ic
Ġsh ot
ĠGe V
ĠB i
*} [
S N
Ġprote ction
Ġinst alled
Ġprom ise
alle y
Event Listener
Ġwon der
f ast
Ġla unch
Ġd t
Serial izer
g ments
Ġr ac
ĠPe ople
DE F
Ġtrans mission
) }.
A F
s ocket
high light
Ġb ond
Ġinv olving
Ġ ul
PO ST
Ġveh icle
k t
vari able
Ġperform ing
" },
ĠCar ol
Ġqu arter
mem ory
Ġan imation
Ġlook s
SE LECT
it ely
Ġp ixels
at re
c ceed
) (\
M er
F ocus
| ^{
ts d
c le
Ġre ality
Ġocc urred
Ġm arg
| -
ĠMan agement
footnotes ize
j d
Ġupd ates
Cl oud
et ic
is ot
Ġtre es
NavBar Font
ĠK ore
de ep
Ġanaly z
Valid ation
ĠR ussian
Ġre striction
all classes
Ġg un
ĠL os
: [
ist ogram
Ġh orizontal
Ġconduct ed
ac ent
Ġperturb ation
Ġan om
ĠĠ čĊ
in os
Ġb ill
O wn
Ġposs ibly
d c
sk y
Ġen semble
ĠS ource
Ġproper ly
ĠJ ud
Ġbas eline
. """
C apt
L ook
Ġcorre ction
var rho
in ity
Ġf ragment
Ġpers pective
Exec ution
com b
ĠE con
nav List
empor ary
B L
ĠM any
ĉ čĊ
w all
ĠC up
Con structor
Ġc odes
ĠVir gin
cont rib
erm an
opt s
avail able
ordin ate
ĠG ra
u cl
Ġinterpret ation
Ġeffect ively
ell o
Ġcol lected
Ġlow est
in herit
Ġw ild
f ire
tain ed
we et
Ġcitiz ens
Ġpol y
Ġbroad cast
M any
Ġold er
g oto
ĠB OO
Ġprofile s
ĠR oad
plac ement
Ġrun time
Id entity
Ġpass ing
Ġtra ffic
own er
iss on
US ER
Ġenvironment al
MO DE
Ġsc an
ĠH ill
i ro
li e
um ption
( .
M ove
text normal
Ġr ig
con sole
Ġv anish
'] ['
fact ory
Ġapp lies
Ġa v
ĠE lement
on ce
^* (
Ġs ides
Ġuniform ly
DE BUG
ev es
Ġas sembly
Ġar c
Ġaspect s
ĠC G
W ait
Ġad vers
Ġchar set
O F
ĠB it
Ġart ist
R PC
valid ate
Ġindic ated
Ġinstr ument
198 9
C la
SS L
Ġpro to
po inter
Ġs cre
b log
ap os
G a
Ġcon clusion
Ġsex ual
w riter
Ġsub sequent
12 7
S W
Ġdevelop ing
Ġann ual
ash ion
Dr iver
ĠI ll
ul ing
fin ite
Ġfor ced
or ient
py thon
ĠOb serv
p b
Ġcho ices
Ġcertain ly
Ġda ughter
Ġex erc
A re
Ġreserv ed
is Empty
ĠM ain
% ,
OR Y
Ġfluct uations
az ine
e z
Ġim plicit
it led
id ential
method s
ĠR ights
ĠH am
edu ce
' d
Ġca uses
ord ers
L ibrary
Ġe arn
Ġdest ination
est ic
Ġpolar ization
Ġmar ried
c n
get Value
/ .
Ġneutr ino
}{ {\
requ ency
ly mp
Al though
Ġw ish
Ġ Î
ab it
Fl ag
Al low
Ġrequest ed
Pro to
ĠPol icy
Requ ired
, .
Ġhistor ical
Ġcorre ctions
ig er
dr iver
comple x
| $
h ow
ĠF acebook
Ġcon vent
Ġd rag
th rift
Ġscen arios
ec es
ĠRich ard
Ġa part
ex it
dest roy
C ref
Object s
ĠSt ar
Ġact ing
Ġinitial ly
are n
cl one
r v
ĠSI ZE
/ {
ug ment
Ġtemper atures
Ġtop ology
ellig ence
ĠLou is
Ġdire ctions
assert True
sp in
c hen
Ġin vari
ĠM iddle
Ġcomplet ion
Ġmer ge
l oss
P D
ge les
ap se
Ġdev iation
Ġdecre ase
Ġop acity
V ideo
Ġs ales
Ġuncertaint ies
CH AR
a us
Ġsupp ly
m oment
Ġgo als
M apper
J oin
)-- (
ĠC A
j et
' _{
ict or
get Element
Ġn arrow
Ġdr iving
Ġfail s
ĠSu pport
rib ed
M icrosoft
Ġ\ |\
me an
Ġo il
al i
ĠL in
gra v
B inary
mer ge
ject ure
Ġoriginal ly
IO Exception
p ared
Ġc ultural
Ġmix ing
w d
B atch
lip se
Ġv oice
up d
AN CE
c ross
Ġsens itive
Ġsub section
Ġcouple d
Ġcrit ic
{ (\
ĠP age
ĠA uthor
back slash
ĠOr der
ĠY our
v alu
En ter
STR ING
Ġpract ical
p at
Ñģ ÑĤ
ĠDiv ision
LO C
Ġpre m
Ġint ended
Ġph il
ĠSund ay
D b
Ġh ospital
ĠC lient
Ġthe me
ĠOr ig
se lection
DO M
ĠI ran
Ġf aster
Ġcriter ia
L R
Re al
s id
ĠA mazon
atur ally
Ch ain
ĠD ocument
ĠW ill
Con ver
Ġcur sor
Ġcon d
Ġaccept ed
ĠS ets
re ce
od d
force ment
Ġend point
example s
re lease
CT YPE
d uration
anch or
w a
Ġcan cell
W ORD
con duct
Ġm acro
bl ank
Ġc ities
sc opic
Ġinter mediate
Ġben chmark
ĠL com
ĠĠĠĠĠĠĠĠĠĠĠĠĠĠĠĠĠĠĠĠĠĠĠĠĠĠĠĠĠĠĠĠ Ġ
Ġaddress es
Ġintegr ated
st andard
Ġleaders hip
left arrow
Ñ ĩ
ĠRoy al
Ġm ys
t ics
P ers
Ġnumer ous
F ragment
ĠAn geles
ĠC ustom
H P
Ġca ref
w er
ĠP R
Ġlimit ations
ab ric
ĠSt andard
Ġfr ames
plic ate
pl er
Ġre duces
} >
ĠL ink
' ];
if ul
Null able
Ġinter pol
ĉ ĠĠĠĠĠĠĠĠĠĠĠ
Ġperm ut
ol f
Ġcorrect ly
Ġexplan ation
M IN
D IS
ic ator
Ġfam ous
Ġcont ribute
ĠR ock
tr l
x s
and a
Ġad ult
Ġtyp edef
Ġw ants
Ġph ases
Ġ" ";
w ild
Go ogle
Ġp ri
Input Stream
C ast
ĠE very
Ġin ject
A ng
$\ \
Ġcon version
ond ay
ro s
Ġenh ance
E ffect
Ġl ie
ry ption
f ake
ok ed
Ġimprov ement
] ^
ĠW omen
En vironment
Ġp ark
ĠD M
ĠCh icago
Ġemploy ed
Ġtri ed
Ġexpect ation
const raint
ĠF und
re ci
Ġfem ale
Ġart ists
w arning
n os
u on
Ġorient ation
Ġp ipeline
as ion
(" /
inst ein
un ched
z ip
y an
ron ic
Ġf av
bel ow
Ġquadr atic
ĠH ome
p ic
col Last
B Y
Str ategy
at ar
Ġconflic t
Ġ" %
Ġcop ies
Ġmom ents
Ġcharg es
Ġcr ucial
g ray
ĠAp ache
Ġman aged
ĠN av
Ġ' ';
Ġhe ar
ov a
Const ant
Ġdec isions
Ġ_ .
Ġcheck ed
ass andra
CON FIG
Ġtransition s
g ame
Ġconf irmed
An notation
press ed
å Ī
Ġvac uum
ĠP eter
Ġe poch
NS String
ĠAl gorithm
Ġge ometric
Ġw avelength
pt ic
~ (\
et o
ĠM ov
Ġopport unities
R aw
a per
ĠN on
Ġs olving
Ġh our
for Each
Ġtempor al
face book
ĠRetri eved
Ġre action
ĠSt atus
oun try
)} (\
ip art
Ġtest ed
ab out
ĠI II
Ġt ags
Ġis ot
dat abase
Ġrecogn ition
ĠC amp
ĠM il
=\ "
... </
S ave
su ff
ĠIsl and
ĠB ob
Ġb inding
ound s
in er
Ġ _{\
ĠP ass
Ġcred it
f mt
ĠâĢ ¦
B inding
Ġj ump
cuss ion
Ġcan cer
i ations
ĠF ourier
L SP
Ġtarget s
ate way
comp ile
: `
C LASS
col lect
C ONT
the less
uff ers
ĠL oad
Ġcent re
Ġdisc overed
over view
ĠĠĠĠĠĠĠĠĠĠĠĠĠĠĠĠ Ċ
Ġend ed
Ġsymbol s
um ul
$ '
Ġdepend encies
Ġinc ident
col First
Ġw ire
Ġend s
Ġauthor ity
ĠS pr
F ree
Ġ{ },
Ġ{ $\
Ġf ans
W arning
Ġweight ed
Ġfig ures
A rea
Ġsup ers
he m
ĠOption al
i pp
us form
B I
ut down
numer usform
Ġsu cceed
og en
Ġp owers
Ġcor ner
bin om
h ook
ĠL y
Ġindic ating
S a
B o
in variant
DO CTYPE
ĠBOO ST
ĠG ood
Con tact
ĠL ord
small skip
() ),
Ġ\ [
al ent
ĠCont rol
arg uments
is set
Ġin clusion
Ġli qu
C md
ut ed
Ġfund s
* \
Ġme ant
Ġs b
dis able
Pr ivate
Ġsepar ation
Ġf arm
Ġlog ic
N UM
ĠF ind
we ak
Ð° Ð½
Ġmay be
Ġdeg ener
ex pression
ĠComm on
Set ting
st ra
ate ver
u er
ĠE ND
An other
Al loc
Ġsepar ated
$\ ,
Ġstraight forward
P lay
ĠSecret ary
B al
Ġcr isis
b x
Ġpart ner
ip ment
Ġfit ting
Ġfrequ encies
Fail ure
M F
ol a
Ġc ub
Ġsk y
ĠS up
ĠO h
$ ^
part s
Ġscient ific
J ohn
are a
Ġbusiness es
ore ign
Ġdraw n
Ġparticip ants
Ġs ports
pr ise
G LE
PRO C
ĠRem ove
aps ed
ĠD u
rypt o
cont ents
ĠUS A
Ġun iverse
mid rule
down arrow
Ġat oms
cre d
Ġw arning
Ġcr iminal
ot ing
Ġdiv ided
Ġf ear
Gener al
V E
Ġrequire ment
int eger
ĠW IT
Ġoutput s
w atch
Sk ip
W orld
F older
ĠM ad
sc ribe
Not Found
ra q
Ġat omic
play er
is c
Ġp p
inet ic
Ġprior ity
erv ed
comm ons
Ġv ision
=\ {
Ġreg ression
clud es
}$ \
Ġpre par
Ġalgebra ic
ap is
ON G
im ately
'] );
Ġh us
epend ence
Ġb lood
}. }
ä »
ãĢ Ĥ
ĠF riday
Ġle aving
Ġse a
Ob server
Ġsecond ary
St atic
ĠS pe
Ġform ulation
al a
stack rel
Ġar rest
Ġappear ance
Ġ> >>
Ġres idual
Ġident ifier
Ġabs ence
Ġconcern s
$ ^{
rem arks
Ġb attle
W allet
vis ible
l b
Ġissu ed
on omy
Ġm obile
Ġstrict ly
Us age
AT TR
ĠInst ead
c atch
MA P
Ġrestrict ed
Ġprec ise
Ġli ber
Ġunderst ood
Ġcharacter istics
ĠE nt
Ġs ys
Ġcons ult
}^ +
m en
Ġc atalog
ctr ine
Ġrec urs
ĠYou ng
ĠV ari
\ /
P ack
ĠM ock
est er
198 8
lo pe
Ġh alo
Th row
em per
M ake
Ġj our
M ed
} /\
Ġsk ip
nol imits
> ;
ĠF ix
Compar ison
Ġbe coming
Ġsens itivity
Ġpack et
Inst all
ĠI llegal
Ġcomple ment
Ġext ensions
P s
{ |
Ġact or
Ġbelong s
Ġcar bon
AT OR
Ġcontinu um
Ġr gba
Ġbel ief
ĠS ign
r ish
em it
Group Name
th ick
Ġcontrol led
Ġperm issions
Ġclos ely
Ġw itness
C ur
Ġequ als
Comp iler
n ic
reate st
id en
ĠJ es
plic ations
ĠL agrangian
AR D
ĠAustral ian
Ġpl as
Ġs pon
ĠM ulti
ĠÂ £
ra pped
Process or
sub ject
Ġent ered
v in
Ġload ed
Ġorth ogonal
P red
ĠCor ollary
lear ning
Y ear
Ġ' ',
Ġphot ograph
L oop
d ynamic
ĠC R
Ġdem ocr
Ġt error
Ġsche mes
up arrow
Un known
Ġthink ing
Rem ote
AR N
S m
ic ed
Ġf rag
Ġoffer ed
ĠM ont
Named Cell
Res olver
t z
dist ribution
ĠL ast
Ġbro ken
Ġadv ance
Ġthan ks
Ġex cess
Ġsee k
ĠL ibrary
on om
at ivity
Ġ' %
ĠCon n
Ġcompet ition
] ))
Ġt ight
Ġc ooper
f lex
rel and
ĠWAR RAN
On ce
ĠÐ ²
Ġmet al
Ġoffic er
Ġembedd ed
d ensity
Ġd ensities
Ġphot o
Ġun iqu
mult line
Ġex cell
Ġm ental
Ġth r
M iss
V AR
ir ation
c ert
re act
Ġt ang
Ġextract ed
Ġl ived
Ġpolynomial s
b ro
In sert
S ame
ĠC la
ur ance
I AL
ĠSpec ial
Ġhand s
Ġmodel ing
Ar ch
Ġf ake
ĠA ccess
Ġd elta
Ġ\ {\
Ġcre ates
ĠCol lection
Ġcli ents
% "
Ġrandom ly
Ġirre ducible
ĠComm and
198 7
an imation
Ob serv
U C
ma pping
Ġm ale
C ursor
Ġdef end
ic ular
Seg ment
ĠA ff
Ġanaly ze
are st
Ġconj ug
e per
Add r
sequ ences
D ay
u uid
ĠJew ish
atur day
Ġsent ence
B M
Ġs ync
Ġcoll ision
| _
ĠP lay
d ark
ĠW ay
or ney
ext ra
Ġhom ogeneous
m al
Ġdisplay ed
ab br
pro gram
ĠJap anese
F P
ĠOb ama
Ġdemonstr ated
ĠP M
ma ges
> )
Ġg ather
H ub
Ġf ol
Ex port
ĠO lymp
Ġresearch ers
Tr ansport
ret ch
n ative
Ġsc ores
cre ated
Ġin ference
Filter Database
Ġex pos
s un
Ð¾Ð ²
alle st
ĠF ree
Ġinterest s
ĠCh ief
Ġs phere
al so
Ġderiv atives
em s
Ġvari ations
or a
our se
ORD ER
rel ative
d irection
ess ions
ĠAL IGN
Ġpotential ly
Ġcr yst
ynam ics
ile vel
ab c
Ġd aily
Render er
govern or
P OS
ĠG ame
\ },
Ġbreak ing
Group s
ĠA T
Ġre construction
LO W
ĠTechn ology
alu ation
Ġmur der
Ġtraject ory
lo ating
c ient
ic ing
Ġrepresent ative
ab ove
Ġle aves
n ob
ĠC lear
com par
Ġb ug
Ġelect rons
ĠAb stract
in ction
rad io
Ġacc ret
k ins
ĠAcad emy
G A
19 60
Ġentire ly
FF ER
Ġdecre ases
p resent
Ġabsor ption
ĠE nergy
ĠGr and
et t
side bar
g lyph
Ġent ang
F uture
H om
}{* }{
ĠSim ilarly
Ġread s
Ġcondition al
Ġt urb
Ġlang uages
ĠMex ico
ĠJust ice
Ġtw ice
Ġdomin ant
_{ +
x html
Loc ale
ĠArt s
ĠChar les
Ġd anger
ĠD OM
Ġesc ape
Ġexecut ed
trans action
ce an
&= &\
Ġwe ap
ig an
ĠCan adian
m ix
Ġs ell
Ġign ored
Ġexc ited
Ġ ig
Ġel if
comput e
Ġpur su
gener ate
Pro position
Ġorgan ized
St op
M ill
Ġdiff usion
= $
view s
Ġimmedi ate
item pty
Ġdist ances
* ,
Ġlik elihood
Ġ" .
Ġepis ode
En v
Ġpat ient
om itempty
Ġra il
Ġinstitution s
& &\
R ate
Ġp atch
] +
sh ips
ĠD B
F il
n am
ĠJohn son
Ġanaly tic
Ġterm in
Ġc row
lic enses
P layer
Ġd st
ĠB re
u pper
, ...,
Ġperm ission
pro pto
Ġpre ced
ĠAt l
h u
Ge V
Ġlarg ely
Ġdomain s
Ġch ief
ĠK n
st ances
Ġfind s
Ġf ul
down load
OP T
Ġproport ional
urre nce
urb an
ĠApp lication
he el
! <
Ġsimilar ly
Ġestim ator
Comple te
Ġ ip
Ax is
ĠP ower
ass ign
p od
ĠS earch
Ġsk ills
ĠPar is
P M
f p
ĠM el
__ )
f etch
Sh ared
act ivity
Ġsh oot
\ }.
Ġclos er
Ġopin ion
Ġvary ing
Ġdep artment
os c
T V
ĠMart in
Ġde ploy
Ġconsist ing
Serial ization
Ġnot es
ion e
Ġ' ''
Ġsim ulated
FI ELD
Ġs ending
U V
M ay
ĠWindow s
Ġl ift
ĠA S
Ġ' .
Ġinv olves
Ġfil led
Ġfilter s
ĠF OR
she ll
ĠF ederal
Ġdef ining
Ġbound aries
\ [\
el come
? âĢĿ
T Y
Ġs ocket
text sf
H tml
Ġem it
) &
Ġbro ther
ĠL ee
Ġthous ands
Ġart icles
Ġrough ly
Ġd oll
ĠAs ia
ĠCath olic
oc aml
M essages
Ab out
Ġun iversity
ĠS ing
Ġ ĉ
Ġelectron ic
ĠRes ponse
h ar
to Be
Ġconcern ed
Ġcol ors
Ġsub space
Ġdisp ersion
Ġpro position
Ġse ed
AT ED
Err ors
198 6
Ġaud ience
W rit
Ġrelations hips
ĠCl ub
Ġp apers
Ġtrans actions
Ġcustom ers
}) ^{
Ġro les
Ġpro duces
Ġvari ant
Ġph one
Pre vious
Ġeas ier
App end
onym ous
Ġdiv ision
E P
Ġpolit ics
ĠI raq
Ġresid ents
und ers
}{ }
an alysis
pre vious
enc ode
ĠTw itter
Ġp sych
St andard
oun tain
Ġchalleng ing
ag ent
def er
Ġlink ed
B ased
Ġassert True
at ibility
Ġch unk
Ġcont ribut
}[ !
N ET
Conn ect
n m
Ġm d
Ġded icated
viron ments
ĠR est
ï¼ Į
ig ate
Ġsen ior
ĠS N
C V
ĠAn other
S ymfony
con tact
E st
M aterial
sur face
M ult
ĠH y
uc ed
ct ic
fact or
al and
ĠCh ampion
_ )
\ }_{
Ġbr and
valid ation
ĠEqu ation
Ġb rain
ĠVirgin ia
Ġsp arse
) }$.
7 00
Ġf ru
Ġdiv is
Ġre verse
ĠG R
ĠQu ery
h pp
m iddle
vert ical
class Name
Ġinitial ize
ask et
pa per
def n
load er
Ġg ender
Ġto kens
W atch
Ġcomm itted
Ġcompl iance
sub mit
enc ing
LI ST
B IT
Ġhus band
D iff
W IN
Ġcon ference
p ag
RE D
Ġneut ron
Ġw at
Ġfin ish
ĠF re
al ian
ib ilities
Ġpres ents
leq slant
Ġpseud o
Con tains
D rag
ĠN et
Ġvers us
Ġrespect ive
_{ [
Ġbuild ings
st rip
ĠC P
Ġhel ps
on ed
sub equations
Ġpe ace
ĠOut put
Ġro ots
sign ature
ĠT ele
The me
13 0
G ame
Ġaccount s
ĠI ter
ĠMus lim
ar ia
Ġst ead
top ic
rupt ed
ud a
II I
big cup
cal endar
he ast
er g
as m
u an
C a
ab y
ĠS l
ĠM onday
R a
u ing
Ġmed ian
Ġbeli eved
ĠP O
Ġsystem atic
æ ľ
Ġadv oc
Ġ| =
ob s
0000 00
Ġsupport ing
Ġintro duction
Ġmolec ular
Arg uments
× ķ
ĠS H
ĠDesc ription
Ġinteg ers
Decl aration
L Y
t p
Ã³ n
r uby
Ġiter ations
Sh ould
Ġstandard s
o z
ov ing
10 24
fort unately
}} ,\
Ġqu eries
HER E
ĠI reland
< <
m essages
ucl ide
ï¿½ ï¿½
ul ating
Ġmorph ism
st ud
Ġsimilar ity
Ġm ouse
ĠKing dom
A bs
Ġemp irical
al ias
Ġn ine
ĠDE FAULT
Ġwhen ever
UM M
Ġfact s
est im
Ġdiagram s
es ides
Ġjust ice
Ġfac ilities
Ġre ward
Ġm iles
Ġn aturally
Ã ¨
au x
Ġear th
p mb
Ġstrong er
Ġf ra
md c
S plit
ĠS pace
F OR
U ST
ur ies
We ight
ear ning
ER S
ph y
RA Y
ĠW ell
Ġs aved
er os
] =
st age
ro ke
over ning
Big g
Ġtalk ing
ĠSim ple
c fg
i pping
Ġsur faces
iv ari
dist ance
Ġdef e
Ġle s
um ps
$- $
urs day
F ixed
Trans ition
ĠJose ph
e an
ĠN AV
ĠOr gan
Ġconsum er
ov es
A UT
) ",
Ġrec overy
Ġu pload
ak istan
Ġexpand ed
yg on
}^{ +
n c
Ġ ~\
Ġclaim ed
Ġorbit al
Ġpanel s
In formation
ĠB ur
pl ings
Ġr u
Expect ed
k ub
i pher
11 1
Ġsp ot
AT CH
ĠC urrent
Ġpriv acy
Ġ$ ^{
ĠT own
Ġs yn
uclide an
ç Ķ
ĠCor por
T uple
{ .
Ġs an
Ġcomp ens
Ġcomm ission
ĠIntern et
kw args
Ġla unched
ĠL java
ar ian
fe ed
iz ers
Ġcom posed
Bound s
Con vert
om a
Cont ents
ĠJ ul
ĠR ight
Ex ists
Met rics
b inary
Ġa head
Ġk ids
R andom
Ġsh ip
ide os
ĠCom ple
Ġgu ide
Ġth er
Ġreve aled
;\ ;
Ġadv anced
ĠProf essor
p in
) _{\
Ġour s
if er
Ġh orizon
Ġbig gest
cer ning
ĠS il
writ ten
Enc oding
Tim er
Ġwork er
ĠĠĠĠĠĠĠĠĠĠĠĠĠĠĠĠĠĠĠĠĠĠĠĠĠĠĠĠĠĠĠĠ ĠĠĠĠĠĠĠĠĠĠĠĠĠĠĠ
b us
Ġcommon ly
ĠP op
b ur
g ov
ĠF ort
Ġcom plicated
Ġdiscuss ions
Ġfore st
Ġmor ning
am in
Ġimpl ied
In ner
ues day
Ġcomm ands
S creen
go od
S can
ĠM ur
ĠW ed
az y
un iform
ĠT re
198 5
ol id
Ġsem antic
D em
V ICE
Ġe lected
\| ^
in cre
erm i
Ġag ency
v g
198 4
Ġdam age
Ġst uff
Ġout come
Ġatt ached
iem ann
Ġdescrib ing
An alysis
v o
Ġcor relations
Ġc at
BP ACK
t l
Ġres olved
el ian
T L
el oper
Ġkeep ing
Ġcover ing
ĠCre ates
part icle
Ġinvestig ated
direct ory
ad y
____ ____
DE X
_{ -\
Ġp ref
ĠS i
con cat
Ġmov es
Ġcr ime
ĉ ĠĠ
Ġc ert
Wh ere
Ġexecut ive
sh arp
Ġdis able
Ġacad emic
ĠO ld
as p
includ ing
r ated
Ġdom inated
ost on
Ġwait ing
th rough
STAT US
Ġext reme
Row s
Ġtr unc
Ġinter vals
Ġrema ined
ĠEn vironment
ĠP lease
ĠM C
Sign ature
**** **
B order
ĠT aylor
Ġ ----------------------------------------------------------------
ĠL ake
t m
inter pre
Ġm ount
ĠComm unity
W ord
S em
P romise
Ġiter ator
HE AD
Ġimp ly
å Ĳ
sp acing
" ].
ort ion
D uring
UN D
m ay
Ġadj acent
> $
am ps
Ġin struction
ĠA M
å ®
et ing
ne ut
Ġcomp re
Ġpay load
Ġ\ }
Id x
ic ian
Ġdep art
Ġat om
ĠConfig uration
Ġtransform ations
ativ istic
ĠJ acob
A I
ell a
y er
ĠR out
ĠGe org
aw n
Ġprim arily
âĢ¦ âĢ¦
Ġecon om
}) =\
cent ury
Ġprom pt
Label s
wik i
s en
Ġneut ral
ĠW IDTH
Ġarr ange
Ag greg
ul us
b lob
Ġfound ed
ult y
s pl
ĠD elete
Su per
^+ $
cc c
ar ial
or row
ag ger
z y
Ġf its
ut ing
Ġsat ell
form ing
get Id
irc raft
ĠH ilbert
Ġcompar ing
Tim estamp
V irtual
/ "
IN ST
Ġident ification
ĠCon vert
Ġinfra structure
ur er
li a
Ġst abil
display Name
Ġ' ./
Ġs olved
Ġconvert ed
D rop
Ġinter ior
ul ner
hy per
Ġth in
Ġsec ure
Valid ator
ĠHen ry
char acter
form ed
ĠCh ange
C ounter
c ancel
ans as
ĠJ o
rag ma
Ġillustr ated
Ġap ilevel
Ġrece iving
e a
l ife
Ġs in
Ġsim plicity
Con sumer
X Y
Ġ Ñģ
im a
Ġlog ging
æ ĸ
Ġp et
NO DE
l r
Z one
ad oc
fol io
Pl atform
Ġpres c
A SE
at on
Ġtrans verse
Ġassign ment
L eg
Ġf re
Ġl ens
ĠStud ies
cd n
el d
Ġcoll apse
lic ense
Ġsimultane ously
RE E
Ġrece iver
mit ter
Ġrob ot
Ġal gebras
omorph isms
Ð ¿
Ġpercent age
column s
Array List
ĠOn ce
Ġwin ning
Requ ire
can vas
Ġch ampion
ĠSt ream
Ġf s
Ġfind ings
f b
A udio
Ġac comp
C enter
Ġdr iven
riter ia
d ocker
im ination
) }$,
nes day
n el
Ġ ray
ok es
B ottom
patch er
V ec
ad ed
Ġport ion
oper ation
Ġmanif est
periment al
bound s
ĠC NN
Ġcould n
Ġl abeled
Ġad vert
I Z
Al so
U pload
Ġfun ctor
p ages
ĠP et
Ġencou rag
or ial
BU FFER
"> (
r ink
ĠCon text
ĠL anguage
get s
:@ "
M aster
Ġmechan isms
}} )$
Ġoffic ers
ĠL ead
Ġne ither
it an
ĠA ust
O C
Ġmet all
Ġfe as
ĠSup reme
Run ner
Ġflow s
ac ific
ĠB ern
=" $
AN T
ĠS V
Ġhy brid
}) )
ĠA re
ĠS W
ĠSer ver
(" %
ĠS aturday
St ub
Ġatt end
Ġferm ion
Ġsomew hat
Ġal ias
ĠĠĠĠĠĠĠĠĠĠĠĠĠĠĠĠĠĠĠĠĠĠĠĠĠĠĠĠĠĠĠĠ ĠĠ
t ar
Ġte aching
al ert
con ver
Ġvill age
Ġco ach
Ġman ip
Ġguarant ee
g ency
ĠC ast
if i
Ġassoci ation
Ġst ands
Ġal ert
ĠNAV BAR
Ġload ing
n amed
Ġconserv ation
s olution
h alf
198 3
Point s
ĠZe aland
pr iv
Ġmod al
st ic
ĠC ross
Ġb log
Ġtrack s
ĠAg ain
Ġcapt ured
Ġcluster ing
rypt ed
dep recated
A ST
Ġcheck s
> "
Com b
A SS
Ġcompar able
fore ach
Ġl ists
Ġp ending
Ġnew ly
B ool
Ac cept
Ġdef ense
at i
P erson
sw arm
Ġn a
AC H
ĠL u
Ġsee ing
Ġ ing
ĠOther wise
y d
getElement ById
H D
ĉĉ ĠĠĠ
ĠM ember
Ġconcent ration
Ġc e
Ġco al
="../../../../../../ ../
Ġs n
read er
Ver ify
Ġin fe
Ġpers ons
F urthermore
Ġanal ys
Ġsche d
ibr aries
is er
ĠBrit ain
UR CE
B D
Ġmat ched
Ġc lip
Ġa ugment
cite alt
ĠC SS
Ġan chor
Ġg overning
un te
Re call
Ġcol le
Ġconven ient
ĠJ ones
Ġinsp ired
p f
Ġb ridge
Ph one
res pect
il ine
Ġtell s
em b
Ġengine ering
LIC ENSE
Ġc ult
sp aces
ch a
Ġc old
Ä ±
del ay
upload s
d ashed
me asure
trans late
Ġpol l
Ġpar agraph
L ight
i pe
ĠO N
cor respond
j k
Ġall Classes
Ġim possible
th let
Ġconver ges
w arn
at en
if th
ĠTh read
ĠEn ter
5 12
Ġdisc over
ip edia
valu ed
×ķ ×
Ġco ast
wild fly
ĠSp anish
l ab
Ġf ashion
Ġpay ment
c ou
Ġrecogn ized
Ġl ab
ĠallClasses Link
Ġconsider ation
Ġpoint ed
Ġdesc riptor
Ġre construct
be an
Ġsm art
ĠE V
R ules
Ġreson ance
Ġlook ed
ant ly
Ġs un
in ite
Ġspect ro
Ġauthor ities
ĠCl oud
FN GL
Ġs pl
Ġin duction
Ġpost erior
v dots
ĠU V
S erv
Ġre pository
Ġcharacter ized
Ġal ter
C N
ĠM ajor
Ġperiod s
gy pt
Ġdef ect
bound ed
Con sole
() </
i en
Ġstat s
Ġjud ge
ID E
Ġig et
WE BPACK
met ric
Ġtim estamp
Ġref ers
Re act
t b
Ġcount s
d rag
14 0
Ġpre pared
Ġsh aring
ĠC are
Ġg one
Ġgu ess
Ġclass Name
Ġgeneral ization
R elease
= &
re peat
Ġsche dule
Ġsc r
Ġdeath s
Ġr is
Ġbeg ins
Ġserv es
re ason
( --
D etail
ĠPar se
Ġem ot
Ġk ing
Ġd ream
ĠW al
it udes
ad el
Ġm esh
Ġpro min
Ġmar riage
Ġgrant ed
Ġorder ing
Ġexperi ences
Over view
Ġhand ling
l m
Ġpract ices
pro blem
unn el
Ġf iber
ĠW ood
Ġas sets
Diag nostics
Ġw arm
Ġsum m
Ġmys elf
U psilon
ĠJ im
Ġwor st
w as
Ġsurround ing
ol ut
( ['
ta ke
Ġhe av
Ġenc oded
r ick
order ed
k g
Pre v
us r
tr ight
Perm ission
k ernel
Ġv m
Ġr anges
Ġenc ode
Ġdecl ared
Ġd ip
Ġfe et
> '
; "
b olic
Ġaccret ion
ard en
Ġover flow
Ġ ice
Ġd raft
ign ore
et ry
Ġphot ons
appro xim
Ġeigen value
Ġdiscr imin
ĠAnd roid
' $.
Ġadmin istr
c amel
.* ;
cal cul
phys ical
Ġsm allest
LE TE
Ġ$ _
create Element
Ġst yles
Z ero
Ġrat ios
ad or
Ġdisc overy
Ġare n
t ouch
r ac
Ġneg ot
Ġ- =
Ġprogram ming
Ġext ensive
ĠD own
get Instance
ĠL ic
1 12
Part ition
ĠD im
Ġcirc uit
| _{\
P REF
ĠCon f
not in
D ig
Ġco q
ĠWil son
ĠUn it
ĠL ay
C ard
Ġis omorphic
UMM ARY
b etween
l u
Ġ' "
erm in
ĠPal est
ĠP akistan
ict ures
Ġgener ates
d k
C ho
Ġn s
C ancel
Ġv ort
} &\
ail s
Ġch apter
opt im
let s
$ }}
( /
Ġf etch
et ies
Ġteach er
ĠR a
Ġt uple
ens itive
Ġw idget
UN T
ĠN ever
ĠM O
k ers
ĠE lect
Ġfe e
Ġmus ical
Ġ` ``
du al
Ġtri angle
ĠL ore
\, {\
Ġc od
ĠS C
ma ps
ĠSen ate
t f
ern etes
new line
Î ±
Ġcontrad iction
Ġd s
Ġre ly
Ã £
an im
us hed
ĠL iber
ĠCh annel
Ġdec ade
ang les
Ġb low
Ġreal ized
Mon th
Ġsupp osed
ir ms
Ġe ase
B en
Ġgener ators
ĠAd v
Ġcopy right
Nav igation
Ġattempt s
Ġadd s
l ined
Ġfac ilit
} ~\
Ġd iverse
ĠC ore
load ing
Ġm and
Ġcosm ological
cl osure
ĠPol it
Ign ore
ĠTe am
N umer
Ġrestrict ions
G M
Ġpart ially
}}\ ,
ĠD ig
Ð ·
ĠRe al
ss l
Sw itch
Column s
BU IL
Ġg oto
Ġacc um
Ġstation ary
c ost
B F
ĠPy thon
( ()
ent h
Ġdistingu ish
ĠM L
ĠIn vest
is y
p n
ĠC ivil
Ap J
Ġsubstant ial
Ġd ot
Ġcompre hen
Ġprob abilities
Ġregion al
ĠD ouble
ic ode
t re
vel ope
Ġpars ed
Ġre ject
Ġrespons es
ul as
pl ays
act ual
Ġs lice
Ġsh ares
Ġclos ure
Ġcol our
tright arrow
198 2
Ġun able
S napshot
ĠF amily
Q ual
Ġwe alth
b ug
Ġe ye
ph rase
CO MM
Exec utor
ff f
Ġut ility
ð Ł
Ġf le
) |\
vers al
ĠO S
ĠH as
Ġent ities
ĠC S
Ġtrack ing
inter val
Un ique
ĠCol umb
am ond
K L
exec ution
Ġlog arith
IM IT
re ement
g ent
Ġb urn
En able
Task s
EN V
Ġf loor
Fe atures
ĠF urther
pol y
Ð° ÑĤ
ul s
ĉĉĉĉ ĉĉĉĉĉĉ
TI ES
B its
RES ULT
raz il
ĠB uffer
Ġge odes
th ree
Ġv oc
S elf
W H
Ġm al
IL ITY
Ġ era
ĉĉĉĉ Ċ
Ġr an
ta ff
Ġpropag ation
Ġhous ing
ĠN ull
ĠH ot
10 2
init ely
ĠW all
st e
Ġ& $
cond itions
Conver ter
ĠIt aly
ud d
Ġenc oder
ĠCarol ina
ĠĠĠĠĠĠĠĠĠĠĠĠĠĠĠĠĠĠĠĠĠĠĠĠĠĠĠĠĠĠĠĠ ĠĠĠĠ
d st
Ġim g
iss ue
C s
Ġsit uations
new s
Log in
ĠS P
Ġbeaut iful
ho le
ĠT EST
ind ependent
tr ansport
ord an
ĠC F
g re
AV E
Ġperform s
Ġdeleg ate
j b
Ġa ux
rem ote
Ġmarg inal
Dep th
Ġalign ment
}) _{
IMP ORTED
Ġcl one
ĠJ eff
ĠI L
l an
ke ep
fe atures
m obile
Support ed
Ġed it
Ġserv ing
ĠEq s
bind ing
Ġinf lation
ĠI mmutable
ĠPro t
Ġcou plings
/* !
ack s
Ġhapp y
w ater
Ġindependent ly
fl ush
im p
Ġappoint ed
T ile
Î ¿
Ðµ ÑĢ
Ġv irt
j ax
R S
ĠL ove
sub stack
Ġconvent ional
ass oci
ĠN Y
197 9
A cknow
Ġt ables
ĠĠĠĠĠĠĠĠĠĠĠĠĠĠĠĠĠĠĠĠĠĠĠĠĠĠĠĠĠĠĠĠ ĠĠĠĠĠ
it les
Ġliqu id
= %
esign er
ĠTh ursday
Ġdec ays
ĠZ end
Ġrespons ibility
Ġ< -
emper ature
h ot
Ġd ictionary
ru ption
m r
Ġlet ters
Ġsplit ting
Ġcovari ance
ĠCont ent
ise cond
ĠH istor
[ ]{
Ġcirc ular
âĢ ĺ
vail ability
PRO P
ĠWARRAN TIES
g iven
ä ½
ĠRepublic an
Ġdecre asing
Ġaff ine
Output Stream
: '
t uple
L IN
Res et
Ġveh icles
Ġd og
ĠC EO
ĠMed ical
Ġmark ets
Del ay
Ġk inetic
Ġamplit udes
Ġequ ipment
Line ar
ĠA D
Ġview ed
Ġseg ments
Ġspe aking
ĠWilli ams
Ġ" '
ĠBy te
Ġnormal ization
ĠB E
Ġch iral
^* _
Ġf aces
D irection
f all
: #
Ġpr ices
id ents
Ġdom estic
ĠL ike
Ġ$\ |
ian a
Ġang les
Ġs lope
process ing
Ġpi eces
ĠDemocr atic
Ġg reatest
Copy right
D u
Ext ensions
Ġwh atever
Ġdeterm ines
' }\
enc oding
ĠB uilder
Sh ader
Ġ uri
Ġwor se
Big l
Ġamount s
Per iod
ĠCent re
pp et
Ġre new
ĠT uesday
ĠTr ust
ug gest
r gb
An aly
ĠC D
ane ous
oc om
Ġd iversity
Ġc er
Ġad vis
Ġf ellow
Ġown ed
r atio
os ition
on av
' )$
Ġen vironments
In f
Ġcol on
nav igation
ĠP erson
ce st
Ġhold ing
Ġt er
ĠStr uct
ĠJ S
Ġ ur
c od
Ġt a
c ursor
h istory
re po
dis k
= -\
ST M
en ance
Ġtext ure
Man agement
Ġpropos al
} <
Ġconsist ency
Depend ency
ph ia
Ġstruct ural
ĠN E
& $
Us ers
T ouch
ivers al
Ġcustom er
ĠSci ences
Ġis land
o ir
EX PORT
Ġref lection
ch unk
Ġm ach
sample s
Ġfac ility
Pe ople
Ġcircum stances
r pc
Ġplas ma
ca pt
ĠIt alian
as is
b est
Ġn arr
Ġch air
Qu ant
TR AN
Ġcoll isions
Ġin vert
Ġb old
ph oton
10 5
Ġphil osoph
S ite
N a
con c
Ġord inary
Ġobserv able
ĠS UMMARY
c ov
ĠĠĠĠĠ Ċ
Ġb oy
Ġunit ary
A MP
B bb
": "
Ġab use
ĠP romise
ĠG re
Ġpre pare
p ad
ĠD om
Ġp il
label s
m ond
ro b
Am ount
sc an
UE ST
ĠDir ac
P ut
T AG
Ġcover s
F amily
ch er
H older
Ġclin ical
CO M
AD C
Ġb an
å ħ
Ġw arn
Ġcon formal
Ġyou th
sc ore
F ALSE
t ically
ĠAss ume
Ġs ep
Ġf ib
Ġen ables
Ġan notation
ap y
ĠVAL IGN
Ġrepe at
M ost
ĠJ ack
Ġtraject ories
Ġso le
oun ce
ĠÐ ½
Ġapp reci
Ġreturn ing
Ġneg lig
Ġpop ulations
Ġaccom pl
ĠCon st
Down load
T w
Ġthrow n
Re ason
Ġs ud
0000 0000
Ġm ist
c overy
Ġb ra
Ġb odies
T yp
c assandra
Ġexcell ent
Ã£ o
M ut
L icense
ĠV ictor
tra ining
ĠW hether
Ġcount y
Ġintr insic
op ing
ĠCol umn
}} =\
Ġisol ated
P ower
Ġc b
ĠB oston
um ing
Ġc ook
C r
olut ely
FLA G
/ _
log ging
pher ic
================================ ================================
tim estamp
log o
(" #
ĠN a
Ġa ircraft
D ynamic
ĠB u
ĠF act
Ġperm an
Ġstre et
ĠH AL
With out
Ġdelet ed
Ġknow s
Ġcommun ic
Ġcommit tee
A vailable
Ġdis joint
Ġh oles
eng er
ĠB ol
M achine
Ġsp end
. }\
| =
ĠMark ov
Y Y
Big r
ĠIn it
B N
Ġgu itar
S epar
Post ed
hold ers
Ġe yes
An im
ri e
Ġh ide
Ġappro ved
ĠT our
198 1
ot es
ĠJ son
Ġsh adow
Ġcomp iler
comp act
ch anges
ian o
D ATE
Ġinter sect
s ed
Ġint ent
PH P
Right arrow
Ġ/* !<
Ġprinciple s
ĠE gypt
Ġm s
}) (
Ġbrief ly
a udio
ĠP an
0 10
ĠJ oe
ĠS ar
Ġre ducing
ĠJes us
A K
RE SS
Ġacc ord
Ġpl otted
Ġex ponent
ĠR ay
c v
ĠS U
Ġe le
Ġsynt hetic
D er
G IN
Ġst ages
Ġman age
= }
go og
am ber
ot ent
Ġs leep
Ġ' _
Ġdec ide
Ġarg ue
Ġcap able
Ġp m
P G
Ġpro ducer
ĠCol l
ĠQ CD
m issions
Ġc av
ĠP DF
d m
ĠP si
Ġb ary
Ġnear by
Ġgu ard
RE CT
gener ator
Ġre form
Ġvis ibility
om atic
Ġan isot
ĠB Y
Ġmov ies
ĠWed nesday
ab eth
Ġa id
Ġinterpre ted
BO OL
er red
Ġf oo
ge o
Ġcon sequences
Ġacknow led
ĠSer ial
ct ors
EE E
ĠSe lect
p ref
And roid
ĠTh rough
Ġj s
ĠRec ords
Ġrapid ly
Ġexhib it
fg han
get Class
pos ite
| &
\, ,
ĠV irtual
Option al
Ġfrequ ently
is o
Ġf an
ext ensions
Ġv ulner
add Class
Ġcon sec
Ġprom ote
ĠWh y
Ġf resh
ph ony
in ject
Ġsign s
Ġpro be
Miss ing
Col l
ĠH on
Ġhard ware
Ġal pha
ident ity
' $,
t bl
ru les
ĠRef erence
ili ary
Ġsepar ately
sche me
tw itter
Ġcom pr
(' <
an notations
P ixel
ĠG raph
String Builder
on gest
Int eg
Ġf ish
Ġcriter ion
. },
cm p
19 2
ĠF ermi
Ġnew sp
ge ometry
ĠC ard
Ġreport ing
Ġgre w
3 60
Ġsubset s
/ ">
u ity
i y
Ġdis cre
ch itz
Ġlat ent
ĠD CHECK
m ac
Ġch a
sol id
D en
ĠA li
res olution
Ġen umer
Ġk ill
V ol
cor rect
Ġaward ed
ater n
oid al
Ġcont roll
ĠPo isson
B H
Ġprocess ed
Ġ{ %
ĠDe ep
ĠR ow
Ġm it
Ġcho osing
Ġsegment ation
Ġclass ifier
Ass ume
ut ch
clud ing
ĠR iemann
Ġproced ures
p ur
Ġc ertificate
ag ers
Ġ$ [\
Ġhelp ing
Ġlocal ized
Ge ometry
G rad
)= (
Ġpl ots
Ġexperi enced
Ġb g
) |^
Ġover lap
no ise
id al
Ġregard less
Ġs ensor
ĠE st
Ġar ise
ĠBl ue
Ġexerc ise
ĠF ilter
Ġal location
get Type
ĠAdd ress
ĠB efore
LA PI
get String
ĠHand le
ĠA DC
late st
ver ify
Ġcon e
rf loor
S pr
ĠP ut
Ġdepend ency
lf loor
onav irus
ĠO P
Ġsub mit
is ons
rout er
Ġspher ical
K G
AR B
int s
qu al
T ex
Ġperturb ations
ĠSh ould
Dec imal
Ġstudy ing
met ic
cl s
U CT
B ecause
k h
contain ers
ĠS and
Ġcon cerning
Dep recated
Th rough
Ġ} {\
Ġsupp lied
Ġpresent ation
G EN
} ",
ĠS outhern
Ġprov ision
it age
Ġh align
hom ology
Ġult imately
Ġsur ve
Ġindust rial
PRO JECT
T M
re pository
p rom
ĠĠĠĠĠĠĠĠĠĠĠĠĠĠĠĠĠĠĠĠĠĠĠĠĠĠĠĠĠĠĠĠ ĠĠĠĠĠĠ
ĠB et
k top
Ġ" ${
Ġg ate
@ {}
Ġor bits
h ab
~ (
ĠF estival
form er
s z
L iteral
Ġd y
super vised
ĠRun time
I ME
ĠFil m
ĠV alley
t ures
Ġp al
ĠA C
p ragma
Ġn ice
ĠR am
Ġproject ive
P riority
ĠFrancis co
ow ski
an ches
Ġturb ul
Ġtechn ologies
HO UT
A zure
R ot
ĠAut o
or ough
b an
Fr ames
ĠAb out
yl van
b oth
Ġhe aring
Ġpar a
Ġmat ters
Ġdeb ut
ra ble
Sec ret
A ctions
Ġmathemat ical
Ġstead y
\ -
D on
Ġ urban
Ġreplac ing
M r
ĠD C
or ters
Ġliter al
Ġdo or
ĠMod ule
Ġphot os
Ġle ague
elastic search
ud i
head ing
ĠC irc
b undle
L ike
ĠJ un
Ġhom es
es ome
Ġcyc les
= (\
O FF
T X
ĠĠĠĠ čĊ
id el
ĠT ree
. âĢĻ
her ence
Ġg uest
pe g
cons istent
Ġaccess ible
ĠM aster
ex cept
part y
Ġtr uly
ĠDef ine
cp u
19 50
not ify
Ġt ick
Ġa w
< >();
Ġdeb ate
Ġreg istration
E very
Ġrec ording
19 78
Ġind ent
ĠS aint
ĠGr ant
Be en
tool tip
bu ilt
SP ACE
Ġnon zero
Mod ified
b ing
ish op
Ġkind s
E ar
ĠJ r
! (
Ġm m
Ġent ertain
the ory
L ib
ĠCom ponent
B est
ĠB ow
}. \
ĠW ater
Ġrect angle
attr s
Aut hentication
filter s
mat ches
ĠU RI
tr ansp
Ġconsum ption
Ġassess ment
Ġexpert s
Ġt d
on to
ĠSc ot
Ġincreasing ly
o es
link s
Ġw ood
Ġpe er
ĠVer ify
script scriptstyle
multi ple
scal a
if ference
Ġinter ference
As sembly
Ġre normal
ĠB O
ĠF oot
Ġc ached
ĠPol ice
Ġcorrespond ence
Ġsurpr ising
con current
s r
( |
Ġrelig ion
E Y
ĠC amb
J ust
**************************************************************** ********
Ġloss es
B reak
Ġprof essor
ĠE mp
ra v
D id
auto ref
Ġ$ <
Ġterm inal
P res
Ġspac etime
empl oy
Ġn ested
Ġout per
Ġprint f
Ġ' -
Enumer able
R F
Cont in
TER N
ĠT erm
K S
Ġ$ $\
W ill
Ġd war
)} _{\
ĠK en
ĠJ ackson
}\ ;
' +
Ġpul se
Ġincor rect
Control s
p otential
w an
Ġadm its
uck y
ĠRec ord
Scal ar
Ġillustr ate
× Ļ
BA SE
1 32
Ġreal istic
Ġconst rained
se x
ro vers
ĠLog ger
Ġhe ter
ta rea
TE GER
Ġfam ili
Ġmult ip
m ount
Ġprefer red
M ac
Ġexpos ure
ĠResult s
Ġ-- ></
ĠB a
Ġanim als
ĠAn alysis
Ġwrit es
Ġleg end
ĠSt an
re gex
ĠW ho
Ġexam ine
Ġconcept s
loc ale
File Name
) *
ĠA v
L at
nt z
Ġarr ived
UR N
Ġanaly tical
Ġrest aur
Ġcan vas
LA Y
P lease
Ġg lass
Ġexp ensive
Ali as
D av
EN ABLE
m atic
Ġv ideos
Ġrec ip
Ġsto res
' ].
> [
ak a
get Message
66 66
t rain
Ðµ ÑĤ
Rel ated
Ġfeature d
19 77
el a
Code c
ic ates
f ac
Ġel imin
ĠO k
Ġyour self
Ġcirc les
k ern
d jango
Ġmulti pl
pro c
ever al
asket ball
SO URCE
Ġt ens
æ ķ
ĠAdd itionally
ĠD ue
Ġclass ic
h ang
Ġens ures
Ġsche duled
dat aset
Ġm ail
ĠA GN
p ending
Ġf iction
ĠF uture
. ',
ĠWe ek
ĠD ebug
Ġmod ification
lin ux
g if
Ġjour ney
ĠF rame
Ġsuff ices
Ġc ars
Ġm ob
%%%% %%%%
% )
F eed
equ ival
Ġs yntax
Ġdefault s
tim er
ĠCh air
ath an
Ġmod er
N eg
10 4
Ġtro ub
R UN
refer red
ĠM ot
ĠNor thern
UB LIC
Ġf older
li ance
fra gment
ma j
ĠOrig inal
Sim ilarly
Ġvan ishes
Ġcollabor ation
ĠI V
ĠE uclidean
ĠPr ivate
Ġdro pped
aw are
Ġrecomm ended
ĠR O
Ġin vent
AR RAY
Ġs port
Ġrev olution
Work er
ylvan ia
second ary
in ator
ec lipse
Ġd educe
N P
Pr imary
W in
Ġins urance
ĠS to
sub float
en ant
d v
}\ !
ĠC ur
Ġfl ight
ic er
view port
p aces
part ition
ĠMon te
P acket
] ^{
M o
plic a
â Ķ
LE MENT
Ġdel ivery
over set
Ġanalog ous
iz abeth
ĠA I
und les
F inal
Ch anges
with out
y ou
ĠP ers
Ġappear ing
Ġviol ation
lik ely
Ġlegis lation
Ġre venue
197 6
ips chitz
ov iet
ĠJer sey
' },
Ġemploy ment
Ass oci
Ġsl ot
pert urb
Ġon going
r n
or se
le f
om m
es e
b oot
w ing
Met ric
Ġdou bt
ĠF ollowing
d z
sd k
Ġsample d
Cont ract
cl ock
ĠLat in
Ġt alent
Ġhom ot
f requency
Ġposs ess
ĠS end
ĠPro p
set ting
sh are
Sh arp
ĠC HE
Dis k
ĠL o
Ġproject ed
ĠK ar
B T
N EL
H L
Ġp in
Table Row
ĠW rit
ĠExec utive
ĠG reek
ĠG i
Ġharm onic
Ġinfin ity
Ġl aser
deg ree
att ed
D im
sat isf
; |&
I p
Ġpres erve
\!\! \!\!
Ġfeel ing
Ġk inem
Ġm ent
adel phia
Ġpublic ation
IN VALID
ĠEx pression
refer ences
Ġ{ {\
int on
ĠPar liament
a ug
Ġfile d
Ġremov ing
Ġan cient
ĠWh ere
)} =
p et
glyph icon
ĠClass es
Ġread ers
00 5
Ġf uel
ĠG ames
te en
ĠT ri
Ġle af
Ġw ww
Ġbr ings
Ġpeak s
Ġout comes
ĠSpec ifically
s ame
& -
fa iled
Ġst ations
ĠA fghan
or al
op ens
Al gorithm
Ġob server
F ollowing
Ġ Ø
Ġcub ic
U AL
ac er
Ġplace holder
r int
Orig in
Ġb ubble
are t
amazon aws
ĠP ri
b ell
ĠL ab
Ġplatform s
Ġaff ord
get Attribute
Ġtop ics
in son
__ _
B ER
mathbb m
Ġseem ed
Ġreg ulations
ĠC C
Ġd il
{ [
Ġcenter ed
Ġstud io
Ġreli able
Draw ing
Ġtempor ary
Ġhundred s
Bit map
Wh y
O wner
Ġm ath
Ġ" >
Ġstrug g
t ile
Col lect
OL D
ort ed
ĠM id
ĠIn ternal
Ġne ur
ific ial
un known
Ġint elligence
Ġcon tr
re newcommand
Ġhel per
Ġre jected
Ġcorpor ate
Ġ ri
contin ue
ĠF ar
at ile
Ser ies
, (
Ġv ast
Ġre tain
Ġfor t
è ¯
. (
Exec ute
ĠG l
Ġwe ather
Can not
Ġaim s
A nt
Ġexplain s
ĠT ag
Ġs ale
le ading
Ġprov es
B ad
Ġ iron
% .
R ob
Ġincre ment
ĠB razil
Ġlist en
}) -
}_ +
ad ium
ĠÐ ¸
N d
Ġpl ate
Ġ\ #
um a
b ec
Ġsto pped
ĠB as
In struction
$ (\
{ },
> %
ur is
ĠN AS
Ġembedd ings
ĠV an
Ġdis appe
Ġobtain ing
ĠMe an
Vis ual
th an
K it
ĠIn valid
v v
Con tain
Ġex pr
19 75
b one
ĠAct ive
Ġoper ate
ĠR en
Ġlegis l
Ġweak ly
ĠAdmin istration
Ġass istance
b at
ĠApp le
ĠF our
Ġ' #
De ep
spe ed
Ġv irus
ĠT ABLE
Ġm igr
ĠCom par
' ',
Ġs oc
ĠT ool
Ch unk
ĠKore a
mem bers
Ġm yst
Ġpl anned
Ġfor th
Ġhyper bolic
Ġneighb our
Ġcomb ine
text ure
Ġsus pect
ĠDan iel
Ġsh arp
ĠF ire
d n
In tern
Ġag encies
Ġind ependence
ĠH aw
et ric
? "
ĠJ on
Ġinitial ized
Ġs outhern
Track er
Ġlinear ly
ĠK enn
v skip
ĠM S
ĠL uc
Ġis instance
ĠM A
Ġ# {
en ario
LO AD
M ix
Ġreplac ement
ĠP A
ĠCon stitution
Class Name
Ġprov en
Ġ// !
Ġinv olve
% "><
im m
mer ce
AP P
Ph oto
Ġhon or
Ġphenomen on
is ition
Ġpro ducing
Ġ* ,
Path s
qu ality
ĠCon dition
s ent
ri ent
ĠL ight
ĠD iag
Ġconserv ative
se gment
Ġcommit ment
G G
ĠO l
Ġsuper conduct
ab stract
Can vas
pro duction
ĠD esign
99 99
ä º
ĠOper ation
Ġdeterm ining
Ġin structions
Ġopp osed
ĠĠĠĠĠĠĠĠ ĠĠĊ
Ġadv ice
ĠMich igan
(" \
Ġneighb ors
Sche me
RE T
) )$.
Ġeduc ational
ĠL ook
OR K
s qu
Å ¡
Ġarg ued
ĠRad io
E ven
st ion
eff icient
Ġabund ance
ĠOh io
Ġl ose
DE D
ĠD A
Ġmon ot
Ġed ition
B ACK
at able
) !
Ġst rip
Ġreview s
Ġfore cast
ĠA wards
Ġanalyz ed
Ġquot ient
ĠH om
Ġsubject s
Ġacqu ired
ĠM atch
ĠWIT HOUT
Ġveloc ities
Com mit
am ount
Ġm useum
g raphics
j ackson
Ġv ice
ch arge
S uch
Ġdeal ing
Ġcheck ing
T ensor
the mes
Ġconst itution
ant ics
Ġse ar
Ġcent ers
Ġl oved
Ġf ault
Ġp an
Ġcomp ression
f older
add ed
ĠCon ference
itz er
ns ylvania
Ġw rapper
P ane
Ġ( %
Ġfew er
Ġsp ending
osp it
re nt
` )
St ar
e ah
Ġcomprehen sive
un ed
ut ter
Ġalleg ed
K ernel
path s
Ġm apped
Own Property
ĠW ik
ri ers
U nd
ĠIt em
ĠH a
s ocial
Ġgener ality
Ġ' ,
D TD
Mark er
i ences
F etch
ĠPr int
Ġin n
Ġelement ary
et ary
fra g
Hash Map
AR G
ex act
Ġnav bar
Form atter
, ~
Ġoffer ing
gener ic
197 3
Ġdec or
var s
11 5
ott en
" ];
W I
Ġpr imitive
Ġc as
Ġacc ident
ĠNew ton
CRE ATE
V D
^ +\
Ġaver aged
Ġcon jecture
). }
Ġdr ink
He alth
ser vers
ĠS ize
Ġtr im
od o
D ITION
dat etime
M c
unders et
' }$
197 2
Ġarm s
IN IT
F ac
h yp
. (\
ĠB asic
ĠB H
000 1
Ġvacc ine
ĠCorpor ation
Ġh ierarchy
Ġhelp ful
te ction
Ġge omet
Ġdestroy ed
S ched
Ġc art
Ġwill ing
dec ode
Ġsch olar
ym er
b our
ĠP acific
Tr igger
Ġco herent
ĠChrist mas
arch ive
Ġgir ls
ĠR ender
ĠPr ime
Ġsignific ance
fl uid
C trl
Ġdeterm ination
Ġa ria
Ġsp ring
Ġgood s
45 6
Ġappe al
Sa fe
sim ilar
Ġtransform ed
ĠS af
Ġentang lement
re le
... )
Ġc yl
P resent
Ġde bt
LA B
ref n
ib ling
ST ART
ĠGu ide
Ġactiv ation
m ime
ĠN ative
ĠM AX
task s
Ġgir l
$ _{\
D one
ĠJ ob
Ġatmos phere
over ty
197 4
ĠST ART
H y
ĠO x
Capt ure
Serv let
ĠChild ren
Ġannoun ce
ĠNot ice
Ġr id
Ġcross ing
ĠL I
Ġasympt ot
ost er
ĠW alk
B uf
is en
local host
me as
Ġt sd
EV ENT
50 9
Bl ack
= {\
SU C
Ġne arest
}} }$
Ġconvers ation
Ġr iver
}= (
}_{ (
Ġs we
nt il
ma king
ĠH arr
Ġto ler
h olds
ĠCh ris
end ment
pre pare
Ġcon crete
ĠP L
ĠNS String
Ġin herit
ĠRem ark
sh ire
ĠIllegal ArgumentException
Ġpack ages
op acity
10 3
d ifferent
ĠB an
ĠA P
c x
ten ess
Ġs ac
Ġest ate
^- $
Ġearn ed
Ġfamili ar
Ġ\, ,
Ġin duces
li bs
k ip
Ġm o
ĠS ym
(' ./
Ï Ħ
H AND
Ġcollect ive
Character Offset
ĠCHE CK
ĠP FNGL
Ġcor related
Ġwould n
Form s
ĠEngine ering
Ġ ^{\
ĠL ev
Ġenh anced
em an
Ġsing er
Model s
v i
ĠT oday
Ġconnect ing
h skip
+ |
Ġe lections
ev alu
Ġnor thern
ĠL abor
Ġdec oder
ĠSp ain
Ġretri eve
Ġrot ate
ĠF all
ript ors
V O
ong o
Ġpass es
n ament
à ¸
Ġm ort
13 5
ancell ationToken
################ ################
Ġpost ed
Ġteach ers
sol r
as i
Ġp ose
Ex it
ĠN ations
Cre ated
m acro
ĠB ul
br anch
dele gate
ĠMin istry
am m
b ecause
ĉĉĉĉĉĉ Ċ
> ${
11 7
Ġarray s
ly wood
Ġuser name
ref resh
Ġmonitor ing
itect ure
Run ning
th ird
F i
\| _{\
display math
Ġs napshot
Set up
Ġloop s
Look up
-------- --
erial ize
c ycle
Ġcomb ining
Ġscient ists
== =
B el
ĠC ov
Ð¾Ð »
Ġp c
Ġadd r
ĠF ALSE
ĠGeorg ia
sc ious
upd ated
B u
ac ement
M utable
ĠAtt ribute
Ġfin itely
ĠMed icine
}\ }$
Ġim per
g lob
end point
f ar
pub lish
) <
PREF IX
i pl
File Path
ĠF A
}} }{
Ġb ars
Set s
Ġas set
$& $
Ġend ing
Ġcre ative
on line
let ter
}_{ {\
ĠRe call
rt l
Lower Case
ir y
ino is
Ġhum ans
Ġcon clusions
ĠBro ad
R M
Ġact ors
load ed
ĠJew s
Ġdiss ip
g z
t ot
dis patch
S to
Ġpass ion
Ġp un
Ġpromin ent
ĠK EY
ĠEast ern
Ġ} ).
T ry
Ġcrow d
Ġconsec utive
ĠM en
Load ing
Ġdetermin istic
Ġc le
100 00
ĠLic ensed
N ONE
14 4
Ġcon vention
ĠGL int
Ġanom al
C ertificate
Ġcol span
sl ide
Ġvol unte
Ġcut s
ĠB ased
' )\
h al
ent ric
Ġregard ed
n ight
Ġabs olutely
Ġform ulas
Ġpurch ase
Ġs and
Ġsett lement
rep resent
Ġv eter
Upd ated
Ġb id
d ays
I refn
Ġcomb inations
}} ^{(
ĠM i
un lock
aint enance
ĠÐ º
st ub
* >(
ly n
el lect
Ġ" _
je ctions
Ġequ ally
Ġcl s
Ġvict ims
tra ined
ĠK IND
ĠMethod s
iline ar
Ġfight ing
Ġobvious ly
ĠM D
__ ,
Ch art
Ġpen alty
fl ux
Ġlif etime
ĠP ay
list ener
Ġvis ited
Un iform
ĠC PU
] ),
ch oice
ĠM atrix
Ġours elves
co ordinate
prot ect
9 00
Ġlog ical
ri ber
du ate
D ict
Ġincre d
Ġmolec ules
Ġvict ory
equal ities
bib li
Ġ" #
Ġfeas ible
ĠA ws
ĠE instein
Comp are
Constraint s
Ġa maz
ĠS em
C ity
O ld
sign al
Ñ ĸ
met rics
Ġwrit ers
ist ically
}, {\
Ġpro sec
St ud
* {-
includ es
oid s
parent Node
x rightarrow
fr ames
Ġcom fort
ĠTh ree
ĠI rish
us et
math ds
Al pha
Ġp itch
Ġmot or
ĠH ard
ĠB ell
ĠÂ §
Ġchain s
' =
ĠAcc ount
Ġc ash
opt imal
C UR
Ġan imal
Ġintegr als
ĠSe a
Ġsee king
Ġclass ified
edd ing
ĠQue en
c ountry
run ner
Ġimprov ements
or ous
Ġmulti plication
Ġpermut ation
G ui
Ġde ployment
Ġtri p
ĠGu ard
24 0
ch oose
C SS
Ġex posed
ind ices
Ġeffect iveness
Ġun stable
Ġh aven
è ¿
') ->
Ġarm y
v endor
}( -
Ġwindow s
ment ion
ĠDes pite
Ġag ric
Ġd otted
Ġperform ances
Ġaccom mod
$ --
ĠSh ort
b ucket
Ġsever e
Ġintro ducing
atter y
S B
ADD ING
ĠArg ument
Ġre in
Ġcamp us
miss ible
ĠW ild
ĠArt icle
et c
Ġs ight
ad apt
Ġint ention
pay load
il ly
Ġinst ability
Ġcal ibration
ĠM u
ĠT YPE
Ġsort ed
G D
Ġresult ed
Ġw rap
ess el
Ġput ting
SD K
im od
Ġconc ert
Ġnot ification
ul o
br and
_ [
) }^
D istance
Lin q
Ġatt ended
ĠComm un
Valid ate
Ġris ks
ĠS om
ĠBro ok
Ġre aches
ĠC artesian
Â °
Ġw a
re pre
Status Code
ĠH ospital
Ġun ity
Ġfavor ite
ac on
Ġbos on
SS ION
ĠN avy
TO M
w hat
AS H
W ARN
ĠS ol
cons ider
d on
ĠF R
interpre t
end a
. ")
ĠT ro
u ent
ur ities
is a
Ġpotential s
S PE
\' {
Ġm igration
ĠHash Map
^{ [
med ium
AC ING
Read y
Ġb ucket
Back end
Ġover view
ple ctic
acc ur
I ES
al og
19 68
Ġcont rovers
sc ss
Comple tion
Ġcap abilities
C irc
Ġsupp lement
3 50
Ġf old
po i
Ġred irect
ĠÐ ´
r uct
ĠP HP
ĠAs ian
Link ed
um s
ĠM IT
ĠE RR
Ġb igger
ĠS SL
/** */
in formation
WA RE
fil led
. ');
L D
project s
Ġgo ogle
Ġleg acy
c ritical
ĠR ail
ĠPen nsylvania
t v
Ġa u
Ġweap ons
ound ed
Ġt ends
ak i
we ek
qu es
Ġm unic
Ġdis cret
Ġadvers arial
C LA
__ .
cept or
ĠG ar
Ġdifficult y
ĠParamet ers
Ġnumer ically
sw ing
11 4
ok ing
Ġrequ iring
Ġaddress ed
ĠPhil adelphia
æ ĺ
te le
fin ement
]( #
ict s
Î µ
per iments
z oom
ĠInitial ize
ĠC ache
Ġf i
Ġt ack
ĠO pt
ne ed
sub string
Error Code
Ġemer gency
A W
Sur face
G T
Rece ived
db c
ĠG rid
Ġproport ion
Ġpro hib
Ġpl ants
press ions
desc ribe
ĠW in
Ġrelax ation
Us ed
ĠL ittle
or bit
ĠN GC
H ook
vel oc
F M
ĠV iet
Ġacceler ation
Ġim posed
ĠSw ed
ĠS at
ĠMe V
center line
Ġdo ctor
Î ¹
S core
Ġh its
Ġencou rage
Ġ ðŁ
b n
IC ATION
() [
Ġ. =
Ġmin ister
Ġdis order
ĠThe atre
Ġdeliver ed
Menu Item
2 20
ĠS oviet
r ig
Ġlist ing
10 7
Test ing
RO W
mut ex
itor ies
top rule
Ġs ister
Ġsh apes
Match er
isecond s
P at
h h
f our
res olved
dec om
Ġpure ly
ĠF ull
Ġdep icted
Ġadapt ed
ĠL earning
çĶ ¨
Ġdrug s
P ush
ĠM ike
s mooth
Ġcompos ite
dest ination
M ust
Ġcos mic
ex pl
repre ne
Ġin coming
es is
Ġart ifact
d esign
s is
Con v
Ext ra
set length
View Controller
Ġmill ions
Ġshe et
Ġident ifying
FA IL
P ress
Ġstand ing
he x
Ġg ift
Re gex
Ġtot ally
Rel ative
Ġdiam eter
v ia
Ġa st
âĢ ¢
Ġregular ization
Data Type
Ġimprov ing
ME SS
Ġsus p
O k
ou red
As set
Ġhand led
Att empt
L ines
Ġformal ism
and o
H H
ĠS ET
pi pe
Ġpos it
Ġs ender
Ġassoci ate
ĠT ry
value Of
Ġch ose
vis it
append Child
S lice
ter ms
\, .
Ġinitial ization
he t
Ġre vers
l st
Ġg iant
Ġdeform ation
ierarch ical
Ġrece ives
Ġworld wide
S y
Ġse es
Ġ" )
ĠR ule
andid ate
Ġscal ed
im edia
ĠC L
ul f
Ġim aging
esc ape
Ġfraction al
J an
Array s
ith metic
C ulture
th ur
Ġtherm od
S i
ĠK ong
Ġn an
ĠGener ated
con figure
ac l
âĶ Ģ
Ġf itted
12 4
å Ĭ
alt Color
ĠDate Time
ĠM ic
E MP
nob r
start s
] ).
ph ab
Ġmarket ing
Ġp ray
T emp
g p
ĠD onald
Ġconfigure d
or i
Second s
] ->
Ġdef initely
V C
ĠLore ntz
F B
' (\
f uture
Ġil legal
big skip
TableRow Color
Ġlog in
c ached
f aster
Ġver ified
B oth
ĠPro duct
10 6
40 4
REQ UEST
f un
pro fit
ĠRes pon
respect ively
N eed
h base
Ġefficient ly
quest ion
HO ME
FUN CTION
Ġtang ent
app ings
umb n
Ġref uge
est imate
Ġlist ening
B lob
er al
19 69
Ġscen es
B ro
ĠĠĠĠĠĠĠ Ċ
ĠH D
Supp ress
ĠĠĠĠĠĠĠĠĠĠĠĠĠĠĠĠ ĠĠĠĠĊ
}$ ).
n l
Ġpro test
rid es
Ġrest ore
Ġpartners hip
Ġgovern ments
sp ot
ĠEl izabeth
Ġh al
hel lo
ust ed
ig ator
ĠEx p
ĠConn ect
Ġtim er
ce ived
iv ities
Ġsub sequently
S eq
Ġbring ing
Ġderiv ation
Ġem issions
ĠM P
plement ed
ĠTh ose
Ġh ers
/ )
Ġmag azine
Pl ace
ĠG ir
MA SK
Ġattr s
ĠB ad
p q
int o
eq q
ĠW at
ĠB ORDER
process or
BY TE
Ġout line
Ġdraw ing
Ġneglig ible
at om
w allet
ps on
C ent
Ġcell padding
Ġinj ury
default s
B i
os a
Ġmembers hip
B s
T y
10 8
' -
Int ent
script s
Ġ\ }$
depend encies
b re
Ġcomple tes
G LAPI
ag ram
br ane
Us es
Ġbur st
ĠR andom
197 1
ĠAnd rew
Ġtransfer red
Ġfe at
Ġlimit ing
Ġplan ets
H ave
Ġ[ -
ME M
}| ^
Ġalloc ated
a ud
att ach
Ġin equalities
Ġcompet itive
ĠI T
Ġart s
Oper ations
el ly
Ġexcit ation
__ ["
\ ":
âĢĻ ,
K n
Ġ' @
i ors
to LowerCase
Ġprovid ers
ĠPalest in
gl s
Ġ( `
os er
Ġsud den
iz z
ĠGL enum
Ġsub mitted
}}\ \
Res pon
Ġpul s
Ġcool ing
erm it
sh op
Ġm el
Nd Ex
G RO
stat ement
p ixel
T og
Dest roy
] _{
ĠD ictionary
pos itive
Ġspec ification
Ġb ed
uch y
Ġf ell
Ġaut hentication
Ġfor get
Ġobserv ables
Ġf abric
ĠI F
. ]
Ġmix ture
ĠCar lo
Sc ene
Ġ& #
ĠC apt
M AN
P ending
ĠB ush
se en
dr iven
å ¤
et he
Ġexception s
b ury
Ġsequ ential
Vis itor
Ġta ught
Comp at
Ġexpl os
Ġ$- $
Ġre gex
ĠU t
Ġreal ize
ĠI C
run ning
Ġen forcement
j u
Ġf ifth
Ġev ident
ĠF oreign
] ['
Ġoptim ized
h our
l int
ĉĉĉĉĉĉĉĉ ĉĉĉ
P ipeline
ĠĠĠĠĠĠĠĠĠĠĠĠĠĠĠĠĠĠĠĠĠĠĠĠĠĠĠĠĠĠĠĠ ĠĠĠĠĠĠĠĠ
Ġad mit
ad apter
ĠS us
Ġk id
Ġf usion
Ġreve al
n od
S ide
Ġex cluded
)\ ,\
is l
C amera
C oin
ĠD ar
00 2
ced ure
Ġh ook
ĠIslam ic
ext ract
ĠY es
ĠReg ion
B ucket
T ube
IT LE
Ġins pect
ĠL eb
AN G
Ġsatell ite
Ġcyc lic
Ġgu y
ĠIll inois
Ġinvari ance
! "
Ġfair ly
ĠUn less
pos ing
AT URE
Ġshe ar
ĠF ac
Ġequ ipped
ĠI gn
ĠR o
Ġl ob
ĠT arget
ĠS yntax
us ual
ĠB iden
A ff
Ġmark er
scal ar
Ñ Ĩ
lic ations
n ed
Ġbr anches
m ust
Ġdecl are
L C
Check ed
G ateway
eg o
ater al
ĠCon serv
ĠJ ordan
Ph ase
Ø ±
Fig ures
diag ram
H AL
ĠâĢ ¢
Ġrema inder
Ġar ises
Fact or
Ð ¹
in x
du ctions
Ġinter rupt
ad ic
le ton
Ġlook up
Ġ[ {
Ġre aching
Com ponents
Ġvalu able
Ġres c
}} _\
Function s
red irect
ĠE p
IN DEX
G reen
Ġemploy ee
Ġthread s
Ġpar ad
s yn
Ġd uty
27 0
set Attribute
â Ĩ
ach er
> `
AR GET
st eps
if ting
arg v
_{ {
: %
Ġachiev es
Sl ot
ret val
Ġclos ing
Ġre pl
en vironment
Ġver ification
ites pace
Ġsur g
ĠTR UE
out s
M a
Ġshift s
Ġar row
Ġinter net
Ġelli ptic
Ġspec ifies
Top ic
\ }}
ĠB ra
gr pc
ĠAd am
F ake
Ġconven ience
Rad ius
Ġexpl ored
D i
ili pp
Ġca ught
Ġins ight
Ġaccord ance
pos able
Not ice
ard ing
pop up
Ġb ird
W rap
19 67
An chor
ĠU k
ĠColumb ia
p us
× ª
ra it
Ġguarant ees
Ġver b
FORM AT
Ġocc asion
it ud
work s
ĠCon sole
ht bp
Ġdis patch
x sd
SUC CESS
Û Į
D esign
Multi ple
f riend
Spec ial
over flow
Ġsold iers
ick y
ĠC y
}] $
Ġreg ul
Ġlength s
12 1
fig s
' ,\
Ġprogram me
RO OT
L ang
ĠTo ken
jav ax
Ġg ar
Ġdesc ent
M ail
F s
r and
w alk
Ġb anks
ĠScot land
ĠĠĠĠĠĠĠĠĠĠĠĠĠĠĠĠĠĠĠĠĠĠĠĠĠĠĠĠĠĠĠĠ ĠĠĠĠĠĠĠĠĠ
im ited
bottom rule
sp i
( []
be ans
Ġm irror
Type Def
f w
Ġst im
Ġexpand ing
P ref
) ~\
ĠCon struct
w ind
ol is
Ġp ed
ĉĉ Ġ
if iable
code c
tool bar
Ġ} .
r as
ÑĢ Ðµ
ag ues
Ġowners hip
. ;
grav ity
P DF
Ġask ing
}} -
Ġstrateg ic
L arge
In line
Ġdoll ars
em bed
to Equal
A rr
Ġh abit
Ġbox es
ĠS ite
Ġbl ank
Ġhydro gen
2 13
Ġv o
Ġ )$
ĠEd itor
Ġcomp ile
if est
Ġaux iliary
Ġdecl aration
is ations
ĠN ight
FR AME
Ġs ought
hed ral
ut s
LP ADDING
Ġsc oped
ĠÂ »
ĠK im
ent ries
Ġpost s
Ext ract
contin uous
ĠStep hen
az ure
Ġdiver gence
Reg istration
Ġal igned
Ġb are
Ġpro ud
Ġpl ain
Ġaut hent
Ġdanger ous
}) }\
t ol
ĠC ho
Ġarr ive
t oc
Access or
ul um
rot ate
Pro f
Ġvanish ing
F urther
sc hed
ĠT urn
ĠCo ast
Cal endar
p al
Ġl in
ĠW HERE
Ġres istance
>< !--
o pher
Ġprov isions
}} ;
ick ing
f m
ordin ates
cur ve
Ġgradu ate
ĠCEL LPADDING
ĠC as
reg istry
Me an
Ġhe x
ĠCEL LSP
ĠCELLSP ACING
ĠPro perties
Ġsu it
Ġhistor ic
ĠS ports
): =\
Ġcount ing
For ward
sl ider
ĠH op
Ġcontinu ity
Ġrecogn ize
Ġco homology
ph an
T ri
Ġclose st
Ġtro ops
Ġlocal ization
Ġh istogram
Ġvot ing
Ġrec ru
ar ters
o pping
ĠL ew
Ġk not
Ind eed
Ġt s
itar ian
Ġbound ing
Ġt ile
L M
Ġel astic
CO UNT
R GB
k ov
Ġ\| _{
Ġfocus es
U pper
il a
ak ed
ĠD er
Ġland scape
Ġgen us
SH A
Ġn ations
ĠT OP
ĠF ish
ual ity
}^{ (\
Ġl it
ĠB ound
Dec oder
ard ed
Ġ" );
Ġinv oked
Ġr c
AB ILITY
Ġpublic ly
Ġ\\ [
Ġwatch ing
l iteral
Ent ries
Ġnorm ally
Ġhous es
Ġab elian
ĠH MS
resize box
or ne
Stat istics
Ġ} ),
do i
ĠT ab
t emperature
Ġminim ize
ĠNever theless
ĠĠĠĠĠĠĠĠĠĠĠĠĠĠĠĠĠĠĠĠĠĠĠĠĠĠĠĠĠĠĠĠ ĠĠĠĠĠĠĠĠĠĠĠĠĠĠĠĠĠĠĠ
N ON
size of
man y
Mon itor
MA GE
Ġr ural
Ġcomp ilation
F oundation
ĠSpr ing
Ġr hs
F it
Y es
! </
" ?>
initial ize
ĠL eft
Ġs oci
un a
10 9
Ad v
Ġs ympt
Par cel
Dat aset
Ġadapt ation
ĠB lo
? ?
ĠH ong
Mill is
Ġmin ute
Ġpro spect
Ġpriv ile
i ator
'] ))
N orm
Ġassum es
size i
ĠCon sequently
Ġsub scription
Î ½
Sub scription
own ed
n atural
ch ant
Ġh a
ĠG ro
Ġp tr
Ġv ent
ĠB AS
look up
Ġoppos ition
S ym
Z Z
Enc oded
ĠIm port
Ġdis put
Ġyoung er
Ġca using
Ġform ally
enn is
Struct ure
per cent
vect ors
g tr
}} +
l ive
Ġg it
Ġd ates
rel ax
us age
ĠAm ong
Ġaffect s
Ġinterpol ation
Ġrender ed
Ġcl ause
un ks
pro j
i Ã³n
Ġcont emporary
Ġslow ly
Ġwall s
ĠL ive
Ġpro ton
var pi
Ġent itled
not ated
Ġre nt
fra ction
ĠPh oto
not ification
Ġexpect ations
D MA
Ġparticip ate
Ġperm it
trans fer
h n
ĠB BC
LO B
ig ible
Ġrep ly
Ġa f
se cret
Ġim plications
Ġi i
STR UCT
hes es
leg end
ĠL oc
Tool s
---- --
) /\
ro g
kub ernetes
@{ }}
re view
>( <
ang el
be ing
ore l
P al
Ġw inter
I ss
do es
" }
ĠEmp ire
Ġcont ributed
ev in
C lean
Or gan
lo v
Ġfl avor
Ġoper ated
Ġindic ator
Ġcell spacing
Ġheav ily
ĠUs ed
draw able
or ange
big oplus
}$ ;
ĠN C
allow ed
g ap
T IM
Ġalong side
P N
pro f
ynchron ous
Ġe lev
ĠK ent
ĠWith out
Ġimag inary
s ources
suff icient
() ">
Ġref lected
Ġvalid ity
in verse
}] \
im er
Def ine
Ġa wards
ĠB rad
d anger
Ġre lies
Ġ} $
St d
ĠOx ford
> {
Ġfound ation
Ġgeodes ic
ĠN othing
Ġgreat ly
Ġuniqu ely
Ġdis miss
Ġvari ants
f av
GL enum
Ġext raction
r x
man agement
ĠTr ansport
Ġv on
ach uset
Ġhers elf
ĠSt ore
\\ \
G uid
Ġguarant eed
ĠO C
Has Been
| }{\
ref lect
v p
ĠMem ory
ol ate
achuset ts
Ġjo ining
brid ge
âĢĻ .
v n
compar ison
maj or
Ġb omb
Ġ\ :
or er
---- ---
Ġsp oke
N ER
ĠG W
Ġk w
pack et
Ġcol lections
gu ide
? (
Ġnot ing
Ñ ħ
str ument
ribution s
Re place
ig uous
ĠRout e
Ġin duct
ĠL abel
Sh ift
Ġproof s
Ġexpl oration
Ġbe at
k k
Ġto String
ĠO ptions
; ,
i q
ĠR om
11 8
Ġconver ge
manif est
trans l
Ġreve als
ever y
ate st
ĠW is
ar on
no frame
Ġc c
ĠS ir
ĠC ulture
colon eqq
v ard
d imension
ĠB attle
N ov
le e
Ġsingular ity
ĠL ow
ĠR ic
sh a
Ġro utes
c raft
ĠF air
//////////////////////////////// ////////////////////////////////
f ollow
q q
ĠB ox
}} +\
vari ables
Ġcoun cil
H ello
+ $
Ġtor us
Ġsh ut
Ġse at
list ing
Ġqual ified
p riority
li x
20 2
Ġsymmet ries
List eners
Ġacknow ledge
pre view
form ula
back end
Ret ry
c urrency
ĠN um
M esh
ĠF ox
Meta Data
B us
lect ric
veloc ity
Event Args
Ġind irect
Ġalbum s
Ġperman ent
W arnings
che ster
tim eline
Ġsummar ized
Ġthere by
Ġcons iders
ĠG P
Ġant icip
led gments
Ġoscill ations
Ġm ess
L ow
ĠString Builder
ĠEnt ity
), (
ivari ate
FT WARE
Trans fer
, [
ĠV ice
p ipeline
V I
Ġsqu ares
Mer ge
ĠE uler
ec ycle
Ġw inner
ĠF ellow
Ù Ħ
ĠW ales
Ġguid ance
F ill
Ġover l
block s
Ġbreak s
5 000
Ġmark s
ĠAg ency
ab ling
Mod ifier
ĠB ang
Ġad equ
con j
lef trightarrow
sp ark
M AC
11 3
Ġfall s
Ġcomput ations
ĠCar l
iv idual
Ï ĥ
pack ages
Pe er
Ġcloud s
Ġ( #
ĠS F
ĠSte ve
alax y
Ġrel ating
v r
re ma
d ue
Ġl l
Wh ite
Be havior
Ġassert ion
Ġrec overed
Ġy es
) ~
> .</
Ġtw enty
ellect ual
G s
d td
Ġh ospit
yst yle
OR S
ĠAff airs
Ġlocal e
Con clusion
L com
S ig
Ġdet ectors
Ġt f
ar ance
ĠÂ ©
Ġun expected
}{ !
Ñ İ
Ġl ibraries
Ġdevelop ers
Ġcompl aint
Ġph on
WR ITE
Ġc ss
Ġrad ii
C tx
manif old
the ad
Ġtri als
Ġanalys es
ast ers
empor al
Ang le
=" {{
w orth
Ġb ins
HasBeen Set
ĠA rea
H ar
ĠY et
ĠEx pect
Ġ( {
Ġhealth y
spect or
Ġvot ers
Ġwest ern
n ecess
ĠEn able
ivers ary
Ġfac ing
' })
ex isting
ĠMan ager
ĠS ymbol
Ġhealth care
M ount
Ġobserv ational
ĠS ingle
L T
Ġa thlet
Ġappro val
set Text
OB JECT
ĠE th
g al
Ġhol id
Ġrepro duce
Ġend if
ĠG it
(" .
Ġinnov ation
prec ision
Sub ject
L u
Ġbar rier
Ġconsum ers
Co ord
ic ide
ind uced
ĠAl low
Ġca usal
R atio
Ġcl im
ĠChampion ship
C ookie
ĠE C
Ġs ectors
Ð¸ ÑĤ
ĠDat abase
Per cent
19 64
Ġvari ability
ag on
ĠD a
ump y
Ġimm igr
Ġhon est
+ "
er en
qu ick
Ġsk in
Su ite
F D
ĠDig ital
Ġsynchron ized
ĠSt ock
Al ert
ĠV ideo
ĠU pd
H is
G AN
Ġferm ions
T imes
sub scribe
w ang
Ġadult s
Ġf asc
Ġg ray
ener ate
Ð¾Ð ´
bibli ograph
at ype
render er
desc riptor
Ð¾ ÑĢ
Ġs ends
cs v
ct rl
us cript
ĠBay esian
faster xml
Ġamaz ing
ĠG ib
Ġsu ite
Block s
olog ist
Ä į
bibliograph ystyle
ĠK now
_{ (\
Ġj ets
ĠC red
Ġfac ulty
ĠP ur
Ġgain ed
y aml
ĠF inal
TH ER
S ent
ĠF I
Ġtrad ition
st ellar
g h
Ġvol tage
Ġshift ed
amp ing
ĉĉ čĊ
ĠS ong
ut r
Ġmaintain ed
}} }}
ĠIn v
ag greg
te am
ox y
conv ex
Ġre act
ĠL ind
Ġh air
Ġturn ing
Ġmut ual
Pay load
NG TH
link ed
Dis abled
Text View
ĠF ood
Ġfunction ality
B LOCK
n pm
Ġevery where
ĠG C
In cre
ors ion
ne ighb
Ġmod ular
Ġbeli eves
W ell
app le
c ookie
sc riber
Ġcond ens
Ġs ink
Ġcommunic ations
Ġconsist ently
Ġfilter ed
decl are
ĠDav is
Ġremov al
: &
ject ive
Ġmod uli
Ġlist eners
Load ed
Ġsub graph
Ġdemonstr ates
ĠB C
Ġvict im
Ġsimpl ified
` :
ma kers
: -
enc il
ul se
ĠM ah
xy gen
Ġpar ity
Ġun like
add le
Ġre put
vious ly
sche mas
ĠV ar
ĠSc ient
S rc
}$ $
sw ap
Ġput s
Ġmer ely
n able
ĠEd ward
ĠS cal
ĠR od
Ġpars ing
col head
Ġrig id
I mmutable
det erm
Ġ å
Ġ" [
ĠH ad
Name Link
Ġgrad ients
Ġar ising
ĠCont in
ĠGovern or
SER VER
Ġst ub
Ġint u
Ġhom omorphism
Ġjud gment
Ġcommut ative
R outer
Ġst orm
c as
Ġh all
Ġhomot opy
g uid
12 2
ĠD ub
Ġcontr ary
mod ified
eder ation
Ġt unnel
( `
re verse
ĠSt ory
ab olic
Ġmot ivated
ĠGener ate
Ġcaref ul
ĠEn c
ĠN az
App ly
MESS AGE
grad le
separ ator
Ġc ro
Ġmeaning ful
ire ment
I ll
The lia
Ġmeas uring
s ymmetric
it ches
Ġansw ers
Z oom
Ġsh orter
Ġun likely
Ġglob ally
ĠAir port
umul ative
ĠS R
Ġover come
com ments
f loor
Ġsc ored
C ost
Ġaccur ately
mention ed
TEXT URE
Ġrel ativistic
ĠC ub
e en
' ):
ĠTest s
help ers
ĠIsra eli
Request s
Ġremark able
CD ATA
St yles
Ġcon cluded
}, \\
Separ ator
] _
od ge
i per
ĠId ent
Ġs ig
ul k
Ġref resh
n als
ĠA lice
æ Ī
N I
m ad
moment um
Ġd ance
Ġmor al
ht b
() ]
In s
Ġ======= =
C ould
ĠR og
Ġp overty
Ġhe lic
Ġinteract ing
Ġad vent
ĠD IS
Ġhol omorphic
Ġautom atic
Ġtim ing
Ġaggreg ate
U Int
Ġ" ;
! =
Ġnot ify
Ġreg istry
Ġbirth s
ĠCON DITION
y o
i ab
Ġ$ ('#
Ġstrug gle
G raphics
Ġbeh alf
re ach
ĠX ml
RE NT
() `
R IGHT
19 40
ĠR ome
File System
] ^{\
Y our
ĠV al
Ġser vers
m x
am pler
19 65
[ ];
le af
OT TOM
pr ice
ul p
ĠA ge
Ġhost s
ĠAlex ander
Ġtrend s
ĠO K
11 6
Ġsuff ered
Ġweek end
c op
Ġgu ilt
O cc
Ġqu arks
ĠJava Script
bal ance
[ {\
19 45
ĠD est
pol ar
W est
Ch rist
ru ction
Ġemot ional
ow nt
Ġs i
Ġre write
ers hip
Ġf o
^{ {\
Ġvar ies
AR CH
oc key
Ġp ump
}} )\
v t
Ġarbit r
Ġo mitted
Ġt ip
ak s
Ġcor onavirus
g c
Ġcav ity
input s
Ġfocus ing
****** /
æķ °
igh th
im plementation
std err
C ross
Th reshold
place holder
l arg
Ġrender ing
Ġab and
Ġpred icate
ra ine
ist ency
Ġoccup ied
Ġparamet riz
D ash
Ġrobust ness
Ġdes ire
qu ark
O ct
effect ive
ĠMass achusetts
ledge ments
Ġc ategor
ĠL evel
n r
Ġeng aged
Ġt itles
Ġelse where
19 30
17 0
l c
-------------------------------- ----------------
DB LP
ĠAdd ed
Ġconsider able
Ġl osing
Ġparticip ation
Ġarrest ed
Sh are
Ġ(! (
Ġcomp atibility
Int o
remove Class
ĠAfghan istan
Ġ$ -\
evel oper
Ġcons ent
For ce
Ġcour ts
Ġprot otype
Ġst ake
fill draw
ĠCl uster
over ride
^^ ^^
ym atrix
un es
serv let
Observ able
Ġcryst al
ab i
Ġneutr inos
CL I
Ġstream s
Ġphenomen a
ĠOff icer
Ġass ist
Ġremov es
correspond ing
Al t
pen se
riz ona
ĠBe ach
Ġband width
}{ $\
Ġ' ')
Ġcontinu ing
e ctions
Al ign
] *
has OwnProperty
Ass ign
ĠHol lywood
Ġcr ash
OPT ION
ĠS mall
google apis
Ġhapp ening
pag ination
ĠMc C
Ä ģ
1 19
$ }\
U UID
ĠA sh
Ġob st
S tage
Ġterr itory
Ġvol umes
Ġmanif olds
Ġcard inal
Ġz oom
F oo
ĠSim ilar
Ġmechan ical
ĠTor onto
12 6
dir name
Pop up
SU B
dev eloper
ĠW ord
Ġin herited
scale box
L ite
S mall
ay a
Ġann ih
vis or
ĠMod ern
Ġgo og
ĠS ymfony
Sh adow
st mt
Ġp ole
ĠW atch
Ġdr ift
ĠB and
ĠB on
su it
& +
Ġpre lim
Orig inal
sh ots
i ating
off s
Ġtrans mit
comp atible
ext ends
Pr imitive
om ics
ĠM E
est ing
en ium
u j
Ġdisc ipl
Ġarr ival
ĠK ansas
Ġj uris
aw t
E mb
d ers
ĠH ost
ĠB al
ir k
Ġthick ness
] </
pre vent
ĠD eb
Ġcaref ully
ĠD R
Ġer g
D a
Ġfilter ing
× Ķ
ĠT ake
String s
Ġw ider
AUT H
Ġb ases
LO AT
ĠAn th
m ms
Ġg rows
Ġass ault
ĠĠĠĠĠĠĠĠĠĠĠĠĠĠĠĠĠĠĠĠĠĠĠĠĠĠĠĠĠĠĠĠ ĠĠĠĠĠĠĠĠĠĠ
sub scription
Ġmetall icity
ĠH ou
m ys
Ġgu ys
Ġimprov es
ĠP UBLIC
pi e
Ġt ension
Ġdep os
raise box
Ġb ath
Ġsound s
Ġ( âĢľ
f und
asc ade
Exp and
Ġf ired
$ =
P adding
n ear
ĉ ĠĠĠĠĠĠĠĠĠĠĠĠĠĠĠ
ache lor
2 30
ĠFoot ball
pe ople
Ġadapt ive
Ġdi pl
Ġex clude
Ġag es
at ics
bound ary
F W
algorithm ic
è ®
is Array
Ġhand les
<? >
loc als
app s
ĠP C
vers ely
Ġent ering
Tra its
ĠS on
edd ed
Ġattempt ed
ĠCONDITION S
Ġregular ly
date picker
I EEE
Ġman ually
Ġle ct
c ategories
ĠCon nection
EN CE
em ark
ĠS ession
Ġdip ole
f v
Ġdis plays
to kens
ate ful
ĠR PC
h w
Rev iew
19 20
Ġsupp ressed
serial ize
Y S
Ġprom ising
Ġgrow n
CE PT
V S
work er
ab ul
Ġprocess or
IE W
ab b
en o
inv oke
? }
q a
Ġb asketball
Ġepoch s
Ġmer ged
r at
ĠM ust
se ed
An notations
ĠR h
lock ed
ĠB ooks
ĠGal actic
ap ing
ap ore
I mages
R ank
Ġse asons
Ġrem ind
Comple ted
u ated
Part s
}; \
Ġex clusive
pe ction
Component Model
Ġw x
PA SS
ĠBAS IS
om er
re ply
Ġan ten
Ġp or
ĠF a
rib es
Sign al
ĠDev ice
]{ ./
Ġno isy
S printf
st ation
ĠRep resent
Sched uler
I mp
// ----------------------------------------------------------------
ĠN eed
ock s
qu et
ĠPh ot
Ġmach ines
New s
ord on
ant e
Ġcarry ing
Cal led
U K
Def ined
L ONG
ad just
Filter s
Ġident ities
[ [
car bon
è ¡
ĠC at
tog ether
ĠAtl antic
4 50
ag an
Ġreflect s
Ġre tail
Rece ive
Ġdemocr acy
Ġsub sid
ĠPr ince
ĠF ixed
Ġshoot ing
ous el
Ġl ambda
Ġg lyph
M IT
ĠG ree
F IL
). $$
ĠCo q
ann a
ĠH E
] \\
ĠT IM
CON F
ol s
ÑĢ Ð°Ð
Ġful fill
hash Code
/ $
Ġ rom
MA IN
E mitter
New ton
ãģ ®
ĠSO FTWARE
ĠRev olution
ĠPub lish
Ġrout er
Ġa vailability
Ġdec line
) '
R G
ĠCh apter
Ġdiv ide
Cred entials
Data Source
}} }{\
. -
}. $
lim ate
F ace
Th m
oc a
shall er
^ *}
Ġ\, .
Det ector
re ll
th in
Ġform ing
T ip
Ġvari ational
P B
ĠÃ ł
Ġprov ing
55 5
ĠPro of
Fix ture
PROP ERT
ph ot
Ġte en
Comple x
Ġcoinc ides
el le
Ġcre w
Ġin cl
Vari ant
Ù Ĩ
~~ ~
z ier
Ġfe els
Ġinvest ors
Ġgr pc
Gener ate
ant ed
ism atch
] }\
ermit ian
aw ay
Ġfac ed
ĠT ok
non atomic
ĠN iger
x ymatrix
gress ive
S ys
section s
ĠCamb ridge
ey ond
ĠDemocr ats
b id
Ġr anging
Ġob lig
Ġc f
}) :
Ġpay ments
Ġqu bit
Ġelectro magnetic
d ump
Ġexponential ly
ĠH un
stit uting
ĠSy ria
ro ck
param ref
enn es
ĠParamet er
ĠEcon omic
Ġ[ #
ĠSur vey
d h
Ġs ed
he alth
add EventListener
, }
ĠL P
Ġr ising
og y
M N
ĠCon tainer
ĠC ost
ĠH art
Ġnewsp aper
Ġback ward
Dav id
Ġvot es
phab et
Example s
ĠR os
Al ignment
Ġcl ar
' }(
sl f
igen ous
ĠU SE
Ġt elling
ĠBer lin
do or
16 8
abil istic
Ġw rapped
Ġbright ness
Write Line
ĠSt orage
bur st
as hes
19 66
Ġp ng
ex ist
Ġcred entials
q ed
ĠD I
Ġacqu isition
y ers
Ġapparent ly
quant um
3 20
second s
ack now
Ġeven ing
ni ppet
cal c
p ed
Ġsustain able
af ka
ĠColor ado
D ue
S ink
Ġdual ity
Ġperfect ly
ĠG T
Ġ Ã©
}$ ),
Ġcour ses
b ow
Ġman ual
Ġc ru
Ġinsert ed
T ick
al tern
Ġg ene
Ġsent ences
oun ced
Ġstream ing
NR AS
Ġcooper ation
omet er
Ġco ins
Ġcancell ationToken
N il
d or
Ġre try
the y
en ue
pi res
Ï ģ
em ple
ĠL ipschitz
ĠC art
Ġtalk s
" ])
Ġk illing
get Key
it atively
Ġact ress
ro zen
un ion
ĠL IC
B ridge
min imum
Ġrank ing
P ACK
ch arg
der iv
road cast
Ġmechan ics
H er
P ars
../../ ../
ag a
Ġeng age
Ġ$\ |\
r ating
Un expected
Ġbelong ing
ĠF low
up les
âĶĢ âĶĢ
BUIL D
ĠD ark
Dest ination
over lay
Ġleg it
ou stic
'' .
d w
Ġpart itions
Des pite
H I
Ġsym plectic
ĠG PU
ĠE ric
^* (\
l am
iz ard
ĠDo es
ren ce
ĠN N
Ġepis odes
urs ive
Ġmode led
D ao
ĠC T
Ġwith draw
Ġbas ically
out heast
Ġdist urb
LE NGTH
------------ -
ĠM iller
Ġpres idential
ĠP red
Ref lection
miss ing
Ġelectric ity
war z
. ";
Ġp t
uth er
Ġsingular ities
Ñ Ī
- {\
Ġh un
Ġrout ine
C MD
* }\
o ken
Ã ±
Ġsuper ior
Ġapproxim ations
ol i
ow a
Ġl y
Ġdiscre p
Ġc s
ct ree
Ġtrigger ed
Ġdec ode
ĠP rem
C ert
Con figure
Ġent r
Ġmeet ings
re strict
s leep
unic ations
G it
olog ically
ĠDis ney
Ġdivis or
ag en
En code
Oper and
ĠSk y
Ref resh
Ġcall er
Ġimag ine
^{ *}
m achine
Ġmed icine
itud inal
mathb in
Ġprote in
w ho
inn ed
Ġreason ing
St rip
Ġorient ed
aa aa
+ }
period ic
l brace
est s
St e
ç »
ĠR ange
}{ $
c amera
ens ively
S heet
system s
Ġmanufact uring
ĠS cript
×Ļ ×
gtr sim
umbn ail
ĠComput e
GL uint
Ġart ificial
Ġfav our
c ourse
b v
Ġillustr ates
Ġdiscr imination
Ġobserv ing
Ġext ending
19 0
ĠO THER
2 25
B G
Q t
Ġatt ach
Ġpreserv ed
table s
ĠO nt
B ag
Ġsub str
Ġexhib its
S IGN
P icker
Ġ" --
Ġstr ange
Ġan notations
Ġfor g
ĠS A
c py
text style
Ġhot el
Br anch
Ġam pl
ĠTh row
ĠC ooper
ĠH ung
Ġunivers ities
r k
Ġlimit ation
Ġmin ing
Ġst roke
ÐµÐ½ Ð¸
) },\
ĠC lose
App ro
Ġaccess key
w so
ĠW H
Ġconc aten
/ #
L ER
nes ota
ĠB S
Ġpoint ing
U A
Ġinter faces
@ "
sl ashed
pred ict
G re
Ġmer ger
E LEMENT
uff le
:: $
High light
A WS
Ġprof it
th reshold
Pers istent
Ġexcit ing
ĠO UT
Att rib
} "/>
row se
ig gers
per mission
âĢ ĭ
rint f
ĠB ridge
Ġperm itted
}. $$
Ġsimpl er
ask a
ĠP ack
Ġout standing
Ġf loating
IT H
ĠSystem s
Ġimp ose
h arm
Ġcompens ation
Ġphys ically
Ġatt orney
Ġle x
Ð¾ ÑĤ
atern ion
ĠL E
ure au
P rom
}} ^\
transp arent
}$ :
iv ot
In ject
open api
Ġinform ed
}$ };
}) ^{\
Add ed
Ġemer ging
ĠT F
Ġg amma
ĠF eb
-> ]
Ġy ellow
c u
Ġ< ?
ĠPub lished
c ord
Ġb ow
O h
Ġp ip
ĠTh ird
' =>
Ã© e
ĠD raw
ĠP S
Ġc ookie
under brace
Enc oder
ĠB oy
const ants
ĠN FL
Equal To
ĠBuild ing
ag ation
Un mar
Ġsol it
Ġas ymmetry
Ġrad ical
å Ń
m ill
Ġass istant
d am
Ġpy thon
- }
Ġstri ke
N ational
h p
Ġhead s
13 4
Ġoptim ize
M X
ĠE ns
ĠUn iverse
Ġprepar ation
Spe ed
Ġreli ef
e ast
ĠCoun try
SU PP
Ġp s
eng ers
ĠA uth
Ġ' $
Ġtrad ing
)} =\
Ġquant itative
Ġâ Ĩ
~ {\
AS C
Ġt emplates
stream ing
Rel ation
Ġm aintenance
ĠPh ilipp
Ġsimpl ify
Ġ' </
az el
mark er
Ġsubt ract
Ġa str
_{ |
ira ble
D ot
ĠSum mary
m ov
te ch
m icrosoft
Ġenjoy ed
Ġpat ent
Ġsurve ys
}\ )
Ġinfe ction
an imate
++ ++
tr on
an z
Pr ice
Ġv ec
ĠD NA
INST ANCE
Ġs elling
Ġwalk ing
Allow ed
ut ies
att en
We ek
c ity
ke leton
LIN K
ig roup
ĠHol y
Ġde eper
DE LETE
Ġrac ial
Ġtransl ated
Opt im
ĠObserv able
ac ef
Ġre start
sc ene
Ġregular ity
if rame
K K
um ann
TR A
ĠT ax
fail ure
Ġc fg
sin h
Ġop ens
l ceil
W ORK
API ENTRY
lic t
h ire
11 11
numer ic
ĠW ait
Trans lation
app oint
Ġcomp iled
Ġimplement ing
Ġnucle i
Ġr m
ĠS NR
Ġmod ifications
Ġsuff er
post s
Ġdev oted
cor relation
ĠRes ources
ĠCl inton
sub str
m icro
Ġsol o
sp irit
é Ģ
Part ial
N ested
Th ree
ĠH or
Ġacc used
Check er
l vert
Ġexception al
oc o
n ate
Ġw elcome
Ġtrans it
Ġcontinuous ly
u eto
capt ure
ĠMark et
enn a
Me asure
M LE
big gr
sc riptions
Block ly
! âĢĿ
HO ST
ĠM aterial
co hol
Ġsum s
ĠFin ancial
r ceil
Ġphilosoph y
ĠE ffect
l ot
Ġt ries
plac ed
ĠInt eg
com press
rop ical
CHAN NEL
Ġaware ness
Ġsh ips
ĠStud y
u z
us ive
ĠL HC
an th
BO O
be am
Ġarchitect ures
Ġtransport ation
He ap
phys ics
M ass
le in
2 10
14 7
19 63
Ġke eps
Ġim press
ĠGL uint
æ Ĺ
ff ee
Ġent reprene
ĠG uid
p ing
ĠMem bers
big gl
T ables
V A
---- -
Ġcor rel
n an
Ġher o
ĠM arg
diag onal
Ġcom edy
C AP
av g
AR K
ĠCon structor
ile y
Cap acity
Ġdegener ate
Ġ(! $
Ġing red
{ }{
ĠA WS
Ġdeep ly
Ġsupp ress
Ġsuff ix
Ġanom aly
Inst ances
Ġrank ed
ĠSt ation
d ynamics
Fil ename
Ġar ithmetic
Ġp our
end region
16 9
ueto oth
ch at
Ġun e
P aint
ĠWe yl
Vis ibility
Ġke V
De ployment
Ġtarget ed
}) ^{-
ĠG ET
Conn ector
d yn
i at
Å ¾
ĠLIC ENSE
iffer ential
ĠLew is
r vert
Ġagre ements
G F
c yc
pp ers
ĠM achine
Ġevalu ating
Ġs now
H A
Ġsympt oms
O rient
ĠTur key
Ġcomb at
Ġfin ance
ĠCon stant
Ġcap ability
Ġk ick
Ġreconstruct ed
M NRAS
Ġnarr ative
): =
Desc ribe
Ġd ry
Rec ords
ĠT y
h us
Ù ħ
Ġbo ys
ain s
{ })
Ġperson nel
the se
33 3
Ġqu iet
Ġbg color
ĠMem orial
Ġ )\
neut ral
geq slant
Ġnot able
ĠJ oh
Over flow
Ġaccomp an
r brace
Ġapproxim ated
> /
D imension
ĠI o
Ġf ly
Ġlogarith mic
S ol
Ġhas n
Ġsuggest ing
U int
ĠNO TE
Ġra in
vis ual
Ġp ictures
ĠA rizona
ĠOn line
ball o
)$ }
Ġexhib ition
ou ri
li ers
Ġposs ibilities
{- }
dem o
Ġcal endar
iv acy
17 5
- $\
ĠS ample
ĠCap ital
Ġhe ating
Ġc raft
Ġcomp ress
Ġm ic
Ġb lob
), \\
make box
14 3
nap shots
ĠPri ze
oun tains
sc atter
ent a
Ġfeat uring
Ġconjug ate
ac o
Ġrel ate
ĠL ater
sup ers
ĠH O
Ġ" +
t ick
Ġpro c
ĉĉĉĉĉĉĉĉ ĉĉĉĉ
Ġdise ases
comm ut
ĠApp ro
Ġnon trivial
H idden
Ġpro jections
TO OL
tensor flow
ops is
Ġmiss ed
pt s
Ġdesign s
; %
Ġapp s
is cal
e igen
Ġe c
g d
wp engine
ar ound
Ġinflu enced
ub er
ĠD oug
on i
channel s
ĠViet nam
: **
plic ial
Ġ utils
Ġ# #
Ġdec oding
ĠHe art
ĠA venue
Ġman uscript
ĠQu ant
Ð¾Ð ¼
Ġfound er
Comp ilation
ĠM ult
t cp
he at
pg f
ear s
Ġbranch ing
Pub lish
FFFF FF
U ntil
ĠB ible
ig ious
Ġn m
Ġadd itive
ap id
\" {
Con version
ern els
Ġr ings
a ui
window s
uc ene
Ġtr uck
ĠJ ean
par sed
Ġarch ive
Ġadj oint
e or
Ġb ott
ĠE N
c am
tex tarea
cor r
ĠR elease
ĠExample s
ik i
Ġprotocol s
Ġobtain s
Ġk il
LE V
C odes
car ballo
Ġharm ony
qu o
Ġd ump
od a
cos h
abs olute
ex clude
LE S
for ced
Ġcharacter ization
P ages
ĠR N
Ġoper ational
Ġdis ks
Ġpr on
Ġen velope
Ġrot ational
I BU
ma ker
Ġasymptot ically
Ġintro duces
ab ases
s ender
ĠF ILE
Q A
Ġinstr uments
ĠOlymp ic
Ġstre ets
ĠL td
sub Nav
Dis patcher
ĠCom b
ant asy
S ender
elf are
Ð¾Ð ±
// !
Ġref used
Ġre actions
I o
}) }{
u its
** *
ens ing
Mod al
Ġal ive
99 9
ĠCal cul
Ġshould n
Un able
Pay ment
Ġdesc end
Ġlo an
ĠD oc
cos ity
Ġvisit ors
us p
min ute
Ġpass age
Ġan cest
Type Name
Stack Trace
ic ious
Ġmulti plic
Ġin jection
Not es
ri ends
ĠAl tern
prob ability
Ġflux es
ĠT yp
cell color
Ġimpact s
L U
Ind icator
ĠB ru
Ġdevelop ments
NE W
all enge
ĠS elf
ĠW ars
Ġsimple st
MS G
Ġs av
ĠF O
Ġsuff ering
mod ifier
Ġgener ations
Conf irm
d ing
Ġ* _
tain ment
Ġb ought
inter action
Ġret ired
ĠFr ont
br acket
ĠForm at
get Text
re duce
ĠT al
Pro b
c url
Ġg ro
Con struct
Ġsurpr ise
vers ions
Ġfrequ ent
Ġm ile
Ġrepresent atives
Ġill ness
Ġsole ly
Ġqu ote
i est
r ically
eg u
Ġdem ands
ain ing
Ġpair ing
oul omb
Ġlic ensed
Work flow
Ġden ied
integ ration
Ġretri eved
Ġinfer red
m ot
R o
Ġ/ ></
Ġb lo
ĠGL sizei
ur istic
ĠM att
Ġe cc
Ġr s
"> @
ĠCor ps
S ources
}\ |\
ij k
T i
dev elop
Ġisot ropic
| {\
Ġen emy
Ġdistingu ished
Ġw ins
Ġso ph
ĠI mages
T or
ĠE ll
T LS
Ass ignment
By Name
==== =
f ish
Ġdirect ive
ĠOrgan ization
Ġhand lers
writ ing
w ire
Ġdis ag
Ġfall ing
col ors
l ua
Ġcons ensus
seud o
Ġdram a
W alk
Ġknow ing
ĠĠĠĠĠĠĠĠ čĊ
{ |\
bl ing
Ġper ception
Ġconvolution al
A v
Ġw arr
Z end
Ġmulti plicity
ĠT reat
ĠC M
A U
control s
ant i
Ġif f
Ġsummar ize
AA AA
Ġt ough
Ġult ra
e u
Ã© s
Ġcalcul ating
p romise
ĠT ensor
s ass
Ġsurg ery
Ġenc ryption
Ġvulner able
Vert ical
Part y
Ġens uring
Ġb at
ch rome
Ġtax es
DI RECT
ĠValid ate
Ġequival ently
ĠDet erm
Ġsk ew
T ON
ĠB all
ĠV ill
14 5
Ġthought s
Author ization
rep resentation
Ġsqu ared
ĠVis ual
Bl ue
e V
ĠD ele
Ġst rain
Ġcr imes
ĠPort ug
ĠA UT
Ġch rom
In jection
ĠN atural
Ġfund ed
ĠD ead
EN C
? </
utor ial
Ġp reference
iv als
Ġscript s
Ġ) {
Ġatt ributed
00 3
Ġbehavi ors
el and
="# ">
Ġinstall ation
Ġext inction
Ġread ily
Ġpil ot
Ġmov ements
US Y
cel ld
Ġ/** <
Ġpre gn
LE D
AME TER
16 5
NotFound Exception
Ġp ot
C lip
Ġfor cing
Mod ules
ĠC hen
* .
Initial ize
Rep ly
li est
Dec ode
act iv
Ġdev iations
Ġg a
ĠH o
ĠH al
Ġgrad ed
Ġdo i
s ampling
Back up
Ġsubstant ially
ĠS taff
Ġreal ization
Ġs ake
Ġaut orest
H ard
w i
define Property
m g
Ġtransform s
g able
Ġrot ating
Ġaccess ed
Ġf d
Ġdat etime
) )$,
}^ -
sl ot
UM N
k ar
row th
Ġdeg rad
ĠV AR
F IN
19 62
{ }\
ia h
ĠTra ining
F ROM
pl ots
Ġex ha
Ġcoun sel
M ich
}$ &
Ġins ights
Ġcoinc ide
WARN ING
Ġbe ar
Ġthous and
ter rit
weight ed
Ġg al
pe ated
ear ing
T oday
Ġt uning
Vari ables
Inv oke
olution s
Ġdr ivers
Ġdifficult ies
Ġport ray
onom ous
, </
C at
Ġth orough
duc ers
Key word
ĠS S
å ľ
Ġfl ush
Ġimplement ations
ĠAg reement
ĠP ackage
celld esigner
Ġ/ ><
Ġf lo
PO INT
Ġopp on
Ġcont our
="@ +
ĠE P
K EN
dec ay
ĠC ro
m aml
Ġsim ulate
Ġint ellectual
j q
ĠĠĠĠĠĠĠĠĠĠĠĠĠĠĠĠĠĠĠĠĠĠĠĠĠĠĠĠĠĠĠĠ ĠĠĠĠĠĠĠĠĠĠĠĠ
Ġf urn
un its
Ġdep recated
Ġdialog ue
C NN
Ġhost ed
Ġhyp ers
am ination
( (\
h uman
Ġadvanta ges
Ġflex ible
Ġpick ed
Ġcut off
Ġsit ting
Ġla id
Tag Name
ĠAnd erson
ĠK a
UN K
ce q
ĉĉĉĉĉ Ċ
Ġgain s
Log ging
} '$
Ġdwar f
Ġx si
Rece iver
g ar
ĠTh ough
u u
y cl
Ġw aste
R ich
DO WN
ĠN ormal
c atalog
Cre ation
). $
RET URN
ĠA B
TE MP
Ġcomb inator
Ġ\\ \
PAR AM
)) =
v et
ĠD epend
il st
Res olve
ĠPhys ics
ĠS ER
}\ |_{
ĠS quare
A ug
W M
Ġmot iv
ĠM ill
Ġ"- //
dec oration
TO DO
ĠThe ory
umn i
Ġmaintain ing
ĠAss umption
Ġdifferent ly
Ġguid elines
H ide
r w
ĠP sych
ĠT rade
the w
comm ands
Ev alu
u pt
ĠDec l
Ġc oding
Direct ive
Ind ices
reed y
G ood
ĠL ang
Ġhouse hold
12 9
ro tt
ass umption
ct l
ĠUn fortunately
od ic
ack ets
ars ity
ĠTr ack
Ġtour nament
ĠS pect
Ġselect ing
Ġaver aging
ev t
ĠSt op
/ '
Ġfl av
( $\
ich let
ĠRequ ired
Ø ¯
Ġconsider ations
al go
F at
ĠC V
ĠM ET
f air
IN PUT
Ġgovern ed
F ast
L ive
Ġaccount ing
ĠS ri
ĠS anta
ĠDef ense
dec or
Ġdocument ary
Ġco arse
stats models
ĠL ib
ĠC E
)\ |_{
c rum
Ġgen etic
F un
d iction
arg o
Ġg enu
................ ................
s napshot
Ġd jango
Th rows
Fr ont
Ġpreserv es
Ġs essions
Ġg fx
Ġany where
Ġcancell ation
Ġad missible
ank a
Ġsus cept
ĠProt ocol
Ġcharacter ize
ew ise
Ġc urrency
Ġz eros
Ġdesign ated
Ġbal anced
ĠMin nesota
get C
ent ropy
Ġrecommend ations
chart s
Ĥ ¬
ĠF loat
Ġpolit icians
ĠV ert
Ġex tern
Ġr uling
Ġcallback s
Prot otype
x t
Ġexam ined
> ';
* (
ĠCom ment
Debug ger
ĠM ount
ĠL ock
Ġfl u
Ġcontext s
Ġde als
e eq
Ġrun ner
Ġinit iative
Ġcorrect ed
MA G
19 61
Ġmeas urable
book s
+ {\
F oot
ĠB R
Ġdis placement
CP U
inner HTML
ĠS equ
IBU TE
Ġ" ./
Thread ing
a verage
> ../
Ġne uro
Ġreg ulation
t le
ĠSum mer
z i
ac ies
pe er
Ġaim ed
Pro c
TR ACT
Ġhighlight ed
Ġf irms
Ġwe ar
ph oto
ĠF ord
ĠYou Tube
Ġmoment a
im eter
Ġ. /
ĠAtt orney
ĠI MP
ĠB OTTOM
ĠS L
em et
ĠG er
ple d
)$ $
Ġthere in
3 000
ple te
end ers
ik a
Ġinvari ants
Ġ âĢĻ
Ġcontract s
Ġ æ
ir r
per formance
ur ers
ol ars
+ -
Ġgovern or
In clude
Ġliber al
Ġad mitted
ĠEx pl
}= -
Ġarbitr arily
} --
Ġt on
ĠH ay
Ġel igible
ĠT og
le ave
Ex cel
lim ited
hom ogeneous
Ġrecurs ive
ĠPl ace
s an
/ ******/
ak h
por ter
inter faces
>() </
con sin
Ġattract ive
Th an
CL U
G H
ĠInter face
ter ior
Ġsens ors
15 2
\\ [
z o
Ġground s
v y
sec ure
ĠP ract
Ġdef inite
\ `
Ġupd ating
H orizontal
Ġre n
ĠP erm
os is
EO F
St mt
Ġover head
Ġfl ash
ĠF L
and y
territ ory
Ġl ots
ĠE D
Ġb ag
ĠSing apore
Ġg host
Ġimm igration
ev ing
ĠA mb
p ick
el led
Ġk ernels
Ġadministr ative
" </
\% ,
Perm issions
Event Handler
ĠS ave
Ġneg lect
Ġentertain ment
Ġqu bits
n orth
back s
ĠRes et
Ġgrad e
Ġmin i
Ġutil ize
Ġincorpor ated
Ġoff ices
x f
ang ers
(" -
Ġem itted
AC HE
Pred icate
Ġ ÑĤ
Ġs ad
equ e
Custom er
Ġc inem
su ite
M argin
Ġintegr ating
Ġdiff ers
| ,
Ġsear ches
Ga ussian
Ġstructure d
ĠB rian
Ġa xi
in vert
append ix
Ġencounter ed
Ġprelim inary
col n
nos is
umin ate
Ġfacilit ate
) ?
Ġin set
Art ifact
ĠS eg
Ġo ct
ĠTe V
et ition
Ġst retch
Ġold est
Ġinnov ative
M icro
Ġrem arks
f ollowing
Ġprov ince
Ï Ģ
ĠT itle
i ary
Ġsem antics
Ġru led
sp ir
13 3
ĠCol lections
Ġadvert ising
Ġinter vention
Ġal i
Ġmot ivation
ĠN orm
S an
CON NE
iber nate
ĠM eta
ĠR GB
ĠM I
Not ify
orient ation
IF Y
u pp
ĠF ound
Ġfra ud
Ã º
ĠPro blem
Ġaccept able
L em
(" <
n io
Ġequ ity
Ġbro ke
ad joint
ĠWh it
ort s
ĠFe ature
ĠHou ston
Ġobject ives
Ġv ital
Ġdest ruction
Ġr ating
Ġax es
H int
Ġcent uries
assert False
E lem
ed ges
b idden
Ġsurv ival
ILE D
Ġport folio
Ġ" ")
ĠCh rome
Java Script
Ġsol ver
Im plementation
Ġvort ex
ĠRE G
Abs olute
> ');
ular ity
wik ipedia
but tons
N L
ĠT i
Ġpair wise
ĠGold en
ĠHarr is
Ġweak er
á »
ether lands
N U
V P
V IEW
Ġsuper vised
Ġphot ometric
Ġaccept ance
W ho
l attice
Ġd ots
ĠOlymp ics
Ġintegr ate
V R
Ġspirit ual
ur ches
13 7
nov a
ĠAuthor ity
G W
Ġqual itative
Ġreput ation
ĠD MA
conf irm
ĠS TR
go al
Ġquant ization
g gle
') ).
Ġm k
- ">
Ġrep o
Are Equal
aren cy
Ġaff ili
Ġc rypt
. ).
std out
}\, ,
ĠST AT
lic es
Ġmethod ology
cur r
Ġp ushed
ĠEx change
gle w
ĠM rs
sc opy
ĠDe ath
Ñ Ħ
ĠMo ore
ĠTrans action
str ategy
row Color
S el
Read Only
first row
User name
o i
ĠPl atform
ST RE
Ġse q
^* ,
Ġgr ants
IT S
Ev aluation
ben ch
ĠE mb
ish ment
ĠF orest
Ġbi ological
ĠD aily
last ic
v b
ĠSet tings
Ġ" :
St ates
ĠK h
ĠI mm
Ġminim izing
ĠSt ill
Ġinv ited
Ġconstruct ing
ac les
[ ],
Ġend points
Ġ' {
icip ant
ĠP AR
Ġprint ed
Ġcompar isons
="# "
if old
ĠF ast
Ġup grade
Ġfe es
) _\
ĠS ql
ĠAll en
it ched
Ġf er
ing ham
ĠSy d
evalu ate
ĠA ud
Ġag ed
HAND LE
> =
15 5
node Type
ĠCa uchy
Ġsp ins
Ġ ions
Ġenhance ment
Ġsearch ing
Ġeast ern
Ġpers istent
PI O
ĠMay be
Ġ! (
oss ible
T ARGET
Ġ um
Ġb undles
the o
Ġpay ing
ur d
ĠR yan
Ġ// -->
] }$
s yntax
Ġn ic
ak en
Ġf estival
Ġestim ating
ĠOnt ario
Ġconst expr
ĠFig s
Ġup coming
Ġnormal ize
Ġdirect ors
idel ity
on ia
Ġcompan ion
Ġform ulated
Eng lish
C li
Ġpreced ing
ĠS Y
Ar row
em ed
13 6
$ ^{\
STAT IC
ups ilon
Ġmag ic
ĠD am
}, $
0000 000
R eq
ĠD rag
ab ama
Alloc ator
ĠM B
Ġagre es
ĠRel ations
stro ke
ext ype
ort heast
iab atic
enc oder
Ġpropos als
ĠD ATA
[ <
J s
Ġsh op
Operation Exception
qu arters
Ġback end
Ġto wer
necess ary
Ġsign ing
M al
Ġg ates
ĠO cean
amer as
L ead
ĠG reg
Ġb aby
pan ic
Ġc url
LA S
}}{ (
ENT S
Ġre lying
Ġm a
Ġin clusive
dis c
elect ron
ĠP anel
)) ^
ĠHar ry
F ire
ĠD utch
Map s
Ġman aging
Ġserial ized
> )</
ĠQ String
Ġoffic ially
Ġexpert ise
get Data
ĠR ose
L if
Ġsub stitution
b et
)- (
Ġrender er
XX XX
Ġsurv ive
be at
ĠDis play
Ġtroub le
Comput e
ul ates
Ġlock ed
ex c
ĠL ady
custom er
Ġprofession als
ĠIN TEGER
Sim ilar
Pl ot
/ %
ĠP rom
dim en
Ġun usual
ĠV alues
Ġelimin ate
Ġreg imes
Ġhom ology
s om
Ġtrans ient
Head ing
Ġbase ball
vent ions
Ġo xygen
Ġcurrent s
Ġinvert ible
se ason
nt hetic
oc c
ĠNAS A
ester day
LE N
} ],
t emplates
Ġtw ist
Res ize
Ġsto pping
b ol
m ixed
Ġnot iced
Suppress Warnings
I FI
em ony
ĠB orel
ĠT er
sw er
ĠD id
C lock
Ġl azy
ĠSe ason
Rec ogn
ĠIN T
ord inary
Con clusions
Ġas c
to ctree
Pl us
y ellow
Http Request
13 1
Al tern
Ġm art
Ġpack ets
amp ed
am y
Ġinter fer
h ist
-- ;
ig e
vis ibility
ĠStruct ure
Ġeng agement
app y
12 34
Ġout flow
Get String
Ġkey word
Do ctrine
M obile
ĠArch ived
Ġse vent
Ġpurch ased
Ġb ootstrap
ĠOC aml
Ġplan ar
F oreign
ĠC orn
equ ilibrium
Ġw arnings
13 9
ĠDiag nostic
ĠGener ic
log ic
2 60
for ge
ok er
pol l
ĠOff icial
ĠB ody
sup set
ic it
respon sive
ĠCon vention
Ġair port
he ap
Typ ed
Ġmoder ate
Ġin ert
Ġadjust ed
ĠN ick
Ġindex ed
at im
ĠClear ly
il ateral
Ġther apy
Ġme ets
en h
al one
B in
âĢ ħ
ĠAt omic
c rit
)$ )
)} }\
Ġserious ly
T ITLE
Ġo mit
nos cript
Ġestablish ment
ĠVictor ia
Ġto ggle
ĠF lo
Per formance
}$ ~
Ġviol ent
Ġestablish ing
Instance Of
NO SCRIPT
| }\
Ġcomple teness
sm art
Ġm ountain
Ġapp endix
Ġspe aker
ĠA bb
^* _{
Ġcon scious
Ġ[ (
Ġscre ening
M ov
Ġco ord
ĠE r
get Property
vent ory
b urn
ol ation
M art
Ġoutper forms
g ui
le ans
ĠÐ ·
ĠEar ly
[ _
Ex change
Ġ! !
mes h
Ġa z
Ġc ards
Ġst one
Ġsched uler
ĠMar ine
x e
ĠS ud
Ġ\ '
ow ed
ĠE M
in ating
rest ore
copy right
ri ate
al p
Ġ( );
the ore
ĠIsl ands
Ġkw args
ell s
)} ]
ĠD or
)$ ;
Ġarm ed
Ġexplo it
Ġocc urrence
Ð½ Ñĭ
ogn itive
Ġo c
pos er
w hel
om as
Ġvar ied
Me V
F LOAT
Cor ollary
H ex
) ',
m is
ĠW el
Ġpe ers
Ġ.. .,
Ġt iny
n ik
Inv ocation
uck ets
ĠPol ish
Ġb ipart
id ge
ol itan
OP EN
imit er
Ġann iversary
CC CC
Cl one
plac ian
at z
tt ing
with in
FLA GS
ab a
Ġm ine
(@ "
Ġpreserv ing
å Ľ
as ci
Cl osed
Ġdec ou
plic as
st an
Input s
t u
M vc
Ġs oul
Ġtr aces
Ġbroad er
Ġ= &
ĠB rowser
Ġrad iative
build ing
ĠPer formance
Ġexperiment ally
Ġinject ive
, +
C over
M or
USE D
n ested
Ġg aps
ĠL iter
Ġ( .
ĠSt one
ĠP osition
Ġb att
Ġpi pe
å ¼
di amond
Ph aser
ĠInst all
Ġ} ));
\, $
Cal cul
az e
Ġsk ill
ĠValue Error
ĠSyd ney
tr ation
ĠHar vard
Ġw ake
Ġg ay
Ġun changed
Ġfactor ization
Rout ing
Ġ( <
v ance
B as
ĠPro tection
g ro
13 8
Ġdeploy ed
Ġp ione
ĠB reak
ĠPol and
ur se
Ġtri angles
Ġform ats
tele phony
Ġp urs
ĠN ash
Serial izable
ĠMag azine
Tog gle
Ġe V
iv ia
ep age
Ġev al
gra duate
Ġwonder ful
Ġproceed ings
att ices
W illi
> -
ĠS her
Ġcon front
Ġvot ed
mon itor
Ġsil ver
Ġs ick
L ie
Ġh ierarchical
ext ended
li ps
ann y
LI B
ĠSet up
Ġid s
class ical
ãĢĤ </
grad ed
Ġd type
ertific ates
Ġback up
U TE
ay er
Com posite
Ġf at
Ġachiev ing
LEV EL
Ġemb r
Dist ribution
ĠM oh
ĠV olume
Ġco res
Ġoccup ation
Ġ} (
Rev ision
gu ard
R D
ĠU INT
roll ers
] ];
Ġex tr
ĠT emplate
Ġb ass
ĠMary land
Ġswitch ing
ĠDu ke
TH E
ro it
ĠPalestin ian
00 4
ĠV i
W D
ĠS ix
Ġgr ateful
ĠA V
ING S
Ġpar liament
ĠM it
Ex plicit
Ġguilt y
ĠR M
Ġconnect ivity
ÑĢ Ð¸
ĠM s
exception s
ĠCov id
Ġminor ity
el son
2 80
oun ters
'' $
Ġtrans mitted
break ing
spec ified
ĠĠĠĠĠĠĠĠĠĠĠĠĠĠĠĠĠĠĠĠĠĠĠĠĠĠĠĠĠĠĠĠ ĠĠĠĠĠĠĠĠĠĠĠĠĠ
Ġshort ly
ãĥ ¼
Red irect
al gebras
ĠRepublic ans
A CTION
Ġcal ibr
GRO UP
ĠM ilitary
Equ ation
$ ^\
Ġev il
ĠKenn edy
ĠÐ ¼
act ivate
H a
Ġhash Code
> ("
Ġ{ })
To kens
ri ble
ĠN ation
Ġkey board
Ġco herence
Ġt icket
Ġar rows
dot ted
Mag ick
orient ed
Ġvot er
L F
cap acity
C atalog
ĠG allery
Dis cussion
Al g
Ġf inger
Ġbos ons
Ġpl acement
View s
Ġpass phrase
2 11
Ġhard er
Ġoper ates
Ġuniqu eness
Ġexceed s
Ġregul atory
CT RL
Ġg od
IN LINE
Ġlaw yer
rot ation
ĠSen ior
Elements By
ĠL ar
Ġrepeated ly
s ight
ĠB ureau
Ġsc oring
dec re
Ġc ensus
dd ot
read crum
Ġac id
Ġcolle agues
Ġro y
other wise
ge om
' ^
P atch
ĠĠĠĠ ĉ
Ġend l
el ve
Default s
14 2
Ġsh rink
Ġph rase
CON ST
Ġsl ide
Ġinit i
i ot
n as
Ex pl
Ġvis cosity
jav adoc
ab inet
Ġindust ries
Ġg ram
Ġthe atre
Q R
Ġan onymous
ĠCl ark
Dis able
Ġrefer enced
op am
Un its
Ġ= ================================================================
Ġcor ners
Ġmy th
Ġcont est
ĠV M
rows ers
Ġnorm s
Ġload er
Ġv i
Ġplan es
B g
Ġwor ry
ĠWis consin
ĠV en
Res olution
ĠPe ace
Ġmod elling
Ð°Ð »
Ġs ock
al ways
ĠL es
SD L
Ġbl ind
Ġc p
Ġdetermin ant
Ġsp acing
Ġemphas ize
load s
ĠAr thur
ocom plete
ĠAr gs
Ġun w
ent ed
check mark
ĠGree ce
W P
g ue
Ġdef erred
ĠR et
T ake
Ġpaint ing
Ra ises
20 4
Ġvari eties
pro port
hen e
Un iversity
}: \
emet ery
ec om
ï¿½ï¿½ ï¿½ï¿½
Ġdiag nostic
ro se
c uda
jb oss
ĠAs ync
. ),
Ġgradu ated
Ġwe bs
Pro blem
Intern ational
ĠR F
Ġstr at
Ġanomal ous
Bal ancer
care t
ig m
20 3
struct ures
ĠS ound
Ġt um
). \
ĠLink ed
ĠG ram
clus ively
OD Y
NO WN
eg as
Ġsp ark
|\ ,
s il
( ",
ers ions
Ġtw isted
Ġmagn itudes
ĠCre ated
ĠH it
IL L
" ][
o or
ass et
15 4
ĠF ro
Ġpurs ue
ĠL IMIT
hook rightarrow
ograph ical
ĠBit coin
B etween
x c
Ġgradu ally
prevent Default
Object Meta
19 41
}} /
Ġcontribut ing
ownt own
is p
Ġscr atch
Ġpat ches
n x
erv ing
[] )
ĠExt ension
ĠS ect
Ġsp okes
Ġfru str
Ġmask s
E t
te chn
Ġencourag ed
ĠC am
Ġbro thers
dat as
sat z
Ġext rap
.\ ]
w br
ĠW i
Un lock
x ff
Ġh opes
Ġ' ../
max imum
Ġst ood
Ġt ar
st retch
bit coin
sche dule
Py thon
19 44
ennes see
Ġrecommend ation
Ġdesc riptions
Ġconf usion
Ġj e
ĠAPI ENTRY
ĠA zure
Ġpublic ations
Ġe g
Ġrank s
RO P
Ġdist inction
vert ices
ffff ff
y ll
Ġrestaur ant
st ock
ĠS everal
Ġc ited
P an
19 59
ĠJ enn
Ġsu icide
Ġtext s
art z
}) +
Ġiter ative
Ġstart up
wik imedia
19 58
ĠT a
ĠP od
Ġt ort
Ġpl ugins
., ][]{
verb atim
ist a
ID S
k u
Ġfr anch
J o
M ajor
D AT
Ġo cean
oper ations
b es
ĠH ind
get Time
fav icon
string ify
ĠCON FIG
Ġs el
Ġatmos pheric
usal em
' /
Ġneighb oring
Ġdefend ant
A ud
J O
al ink
$ ~\
Que stion
Ġsucceed ed
Ġelect rical
Ġquot ed
can onical
Ver b
sc re
Ġlong itudinal
Ġy ards
20 8
Î ·
Ġto m
ĠEv ents
type param
s outh
gener ation
21 7
Ġdiag n
Ġre nd
lem an
Ġimpress ive
S outh
st ory
max cdn
Ġanim ated
l on
Ġparse Int
man ual
mark s
Y P
Ù Ī
over rightarrow
on der
ev olution
p ot
B er
] _{\
ĠI owa
Ġsett led
est ab
oo led
Ġv ibr
V oid
b eq
ta h
ĠN P
olog ists
19 18
~~~~~~~~ ~~~~~~~~
all as
ĠIn f
A IN
Ġincorpor ate
; "><
Doc s
pos al
job s
ĠIter ator
Ġin fl
ial ect
ĠK evin
pre tty
ĠTrans itional
ĠR L
ENT ER
nov ation
15 7
ĠY ang
Ġco in
}} -\
ĠC u
Ġiter ate
M iddle
Ġport s
V T
Ġaccompan ied
L ev
ĠC K
Pol y
Ġra ising
Ġperturb ative
on ing
Ġf illing
lay ers
N ever
ed a
ool s
deg enerate
man aged
ĠP arent
19 57
ĠQ t
Comm ands
Ġbus y
á ĥ
eg et
ĠE ss
ĠIn stance
ĠChrist ians
| $.
Ġwalk s
T ax
ig rate
IT ER
Ġo ps
Ġbeaut y
Ã ł
Ġsql ite
ĠB esides
GB T
R X
ĠB inary
ĠI mp
Ġaccomp any
ĠR oss
Hand lers
Ġa stro
ĠLe on
Add itional
Ġdelay ed
ĠP layer
Ġsub div
Ġdiam ond
ĠN etherlands
ĠIndian a
ĠHel p
Ġt ou
Ġmass less
NAME SPACE
ĠIn sert
RE C
Ġred und
* {\
Ġarrange ment
ĠM oon
zh ang
N s
O ps
over s
UP DATE
Ġspec ifying
y ard
ĠS K
R pc
Ġin cent
ĠT ony
Ġmod ulation
Ġf ought
Ġwork flow
Ġshe l
Ġgeneral ize
' }),
i NdEx
reg on
end o
Ġevolution ary
DE P
Ġl ying
ession al
Ġaggreg ation
ul pt
ä¸ Ń
Ġb eta
y arn
Ġa ws
se a
ĠL arge
ĠC oulomb
Ġelli ps
Ġdoc s
){ $
ĠDo ctor
Ġset Up
i pt
Ġgl uon
S at
ĠCO LSP
ĠCOLSP AN
y ield
Ġmon omial
Ġcop ied
d g
ĠChe m
ĠSa udi
ĠThe ore
ĠUn like
ash i
Ġdifferent iable
add itional
Ġhouse holds
Ġoccur ring
Ġen force
Ġn od
fin ish
ĠÐ ±
ĠKe ep
ĠRem arks
bar s
Ġnot ations
Ġrecip ient
ĠN eg
ĠR T
\ @
ov ld
G l
ĠSim on
el m
ĠSar ah
Ġsure ly
get Default
Ġev olved
Ġany more
Ġbre ath
Ã ¥
id o
fe e
ĠStud ent
B AD
field set
Over lay
L o
( <
Ġphotograph s
font s
Ġr aces
set Value
Ġany way
20 5
Att achment
Ġconflic ts
ĠR eb
ter min
Pub lished
xim ity
spect rum
Ag ain
Ġsac r
Ġdo ctors
dat ab
å ¯
f red
et ype
olv ement
scal ing
G I
Ġcar ries
C he
Ġsign atures
19 39
fit ting
j ud
Art icle
Content Type
Ġd w
Json Property
ĠMod al
-------- -
triangle q
14 6
ri k
N ING
Ġte ch
Ġecc entric
DE VICE
W ang
in ate
(" [
F inder
d type
constraint s
ĠSet ting
pend icular
Ġa fore
Ġclean up
Ġh ub
Ġstreng then
ĠBO OL
ĠH ur
. :
19 48
claim ed
ĠLin ux
Ġdist ribute
Ġvisit ing
Ġhighlight s
ĠĠĠĠĠĠĠĠĠĠĠĠĠĠĠĠĠĠĠĠĠĠĠĠĠĠĠĠĠĠĠĠ ĠĠĠĠĠĠĠĠĠĠĠĠĠĠĠĠĠĠĠĠĠĠĠ
E nergy
">( </
Ġtrans c
.\ ,\
est ingly
Un ited
p ix
Ġcar rier
ĠAnt on
B a
F rag
ĠC lean
Ġadapt er
Ġacqu ire
ph on
net t
Cla use
Ġ{ (
ann on
ĠĠĠĠĠĠĠĠĠĠĠĠĠĠĠĠĠĠĠĠĠĠĠĠĠĠĠĠĠĠĠĠ ĠĠĠĠĠĠĠĠĠĠĠĠĠĠ
ĠKore an
, $$
ĠB egin
f lix
Ġin version
ple s
Ġmot ions
P K
Ġal cohol
Ġm ild
ĠIP v
à ¥
ak ers
Ġcy ber
* >
Ġt idal
Byte Array
Ġcounter part
Ġexcit ations
Ġturbul ence
Ġlog s
Mat ches
s izing
}^{ *
ĠLin coln
Ġb orrow
Ġ\ )
Ġbuild s
ĠM and
he ets
Ġmolec ule
AC CESS
Ġide als
integ ral
ĠJ ane
ST O
ĠDi ego
Ġll vm
Ġresc ue
h ou
Ġmorph isms
w en
ĠR ES
ĠMor oc
ĠJud ge
C hat
vari ance
resh olds
Ġpublish ing
l ishes
Ġtra p
Ġhead ing
ex istence
ĠG O
Ġarg v
Ġthreat s
G al
Ġt ract
Ġcapt ures
Ġinvestig ations
Ġe at
Ġpl aint
I llegal
Ġaut omorphism
ke eper
Ġrep orter
Ġbond s
Ġo prot
und ef
pay ment
C hen
Ġm ilit
ĠS av
ĠL ag
Ġconsider ably
verb ose
ta king
}{ .
ĠSche ma
' "
Ġsat ur
She ll
Ġbelief s
Ġemploy er
Ð½ Ð¾
LOB AL
ĠD ocker
Ġsynt hesis
j our
Ġchild hood
O W
ref ox
19 42
Orient ation
Ġabs ent
G Hz
Ġse ats
ric ulum
Ġext ensively
ain ed
ĠLa ure
Ġdefe at
b k
Ġjoint ly
Ġjournal ist
Ġpolar ized
sp arse
ethe less
l it
Ġt ied
at ially
Ġfail ures
ĠAn aly
C ountry
n f
Ġas ide
request s
S uff
Ġpo les
Ġw heel
d al
ĠA ST
Ġle pton
D ark
S n
Ġ ../
ĠT otal
}-- \
ĠH ub
15 1
ĠGL float
Ġneur ons
=\ !
iff s
14 1
H it
Ġemer ged
I MAGE
f re
Ġp sy
Ġtalk ed
p read
ĠP H
s uggest
PROPERT Y
ĠM obile
ĠB alt
Ġz ip
ĠP ART
Ġout break
thread s
f ive
Man ifest
over e
ĠPart ners
od b
member NameLink
det ect
re nd
Ġvoc als
f link
15 3
m v
ĠA udio
Ġcut ting
d ummy
ĠL ocation
in herited
4 80
Ġdig it
ĠPlan ck
Grad ient
, âĢĻ
^+ (
ess aging
Ġdif fe
Ġ& -
ĠT ai
2 64
Ġv it
Ġc umulative
ob ody
Max imum
h c
Ġsc ulpt
Key board
he art
direct ive
ĠF C
g mail
Rel ations
Ġh int
Ġrout ing
CK ET
ĠAl abama
be havior
Get ter
ele t
ustr y
}\, .
A ctor
ro d
Ġh ack
Ġutil ized
19 5
22 4
s aved
or acle
PAR AMETER
A rm
z c
Initial ized
her its
40 1
re ng
Ġ ].
Rem ark
Draw able
Ġt ex
Ġestim ators
Ġdefault Value
Ġn urs
Ġout lined
Ġrare ly
ĠS eq
Ġmes on
ĠLay out
Ġreview ed
H o
Ġmus icians
list en
Ġ" (
ast y
no align
Ġpl enty
Any Ref
se g
ĠA k
erv ation
Ġlat ency
Ġtens ors
Ġthermod ynamic
, ...
la h
c art
($ _
Ġnucle us
}} }(
IS O
ĠPat rick
bas is
get Logger
ĠSt ack
Ġin qu
Ġprob abilistic
Ġsw ap
l v
ĠN ev
Ġinfra red
ĠRE AD
14 9
Ġcompos er
Po jo
Rad io
-\ !
Ġafore mentioned
we alth
/ ?
Ð ±
Ġanisot ropy
ĠSt yle
}), \
Ġw el
Ġpredict s
ĠEns ure
r p
con sum
Ġsaf ely
ĠMat hemat
at ched
ĠF IX
ss on
{ #
ĠAp pe
d id
ad j
ĠPro file
v anish
Sh ard
c C
Ġper pendicular
Ġhor se
M ot
Ġdec imal
Ġcomp ound
Ġcommun icate
Man aged
Ġsk etch
Ġintegr ity
Ġoscill ation
Ġen abling
ĠPh D
Start ed
å® ļ
Ġres ident
ble ms
Ġdec ent
Ġthem es
Ġgen re
Ġd ies
Ġhe ap
k ish
Ġ{ !
ĠC lin
list ed
impl ies
ĠEnvironment al
Ġac oustic
bad ge
Util ities
ĠT rad
]{ @{}
16 6
F atal
Ge o
Ã ¢
ear n
aw esome
node Name
ID ENT
ĠAl loc
ĠE mer
Ġev t
Ġround s
Ġcur r
Prot os
ĠBel g
equival ent
Ġeth nic
> ',
is Valid
scre ens
ĠD etails
PRO TO
D X
ĠW as
}^{ -\
rec ision
Ġneg lected
R ay
Ġcon cludes
ĠRef s
assert Raises
ĠUk raine
comp ass
Is Null
Im plemented
ĠC it
che stra
fin ity
Ġd ash
ĠC os
Work space
Ġsim plicial
< >(
ĠP itt
Ġdistrict s
Ġd uties
Ġpl ug
}}( {\
H F
Ġbackground s
Ġtoler ance
ĠSD SS
in ery
ĠCh ern
P ad
| .
Ġtrunc ated
ĠT en
Ġconstant ly
ĠW ind
^* $.
eta iled
Ġconst rain
We ak
="../ _
out ube
Fat alf
Ġb orders
App endix
ĠP rior
Ġredshift s
APIENTRY P
Ġover whel
we ights
Ġinterview s
ĠC limate
Ġreason ably
en ix
C ut
Ġb ij
_{\ {
An n
ĠWith in
Ġbur ied
La unch
v irt
ĠT emple
sc ience
Ġcovari ant
Ġrenormal ization
Ġcomp ressed
ĠRiemann ian
å º
Ġt orsion
L and
Ġaccording ly
Do es
Na N
NUM BER
Ġb attery
Ġaff airs
ĠE ver
Ġis set
Ġ@ {
p ow
ar ations
Ġst em
ĠU til
pers istence
re tt
Te am
Ġsl ave
D ER
Ġcook ies
ag g
Process ing
B rit
s it
amp ions
Ġpart ly
$ ]
h op
ĠSu ccess
ST EM
t ls
ari ant
m ong
per m
Ġhospit als
P TR
ĠScott ish
Ġ\ %
Ġsp iral
Ġro oms
ook ies
o j
19 00
Ġident ifies
! }
22 2
comput er
Ġvalu ed
19 56
um ed
Ġhold er
analy tics
ĠM ove
Sche dule
i ar
ud son
TH READ
3 30
Å Ĥ
sb urg
Ã¡ n
Ġste el
U INT
Ġin duce
enc oded
tern oon
ĠM enu
19 55
Att ach
v iol
=" //
æĺ ¯
}: =\
ĠStat ement
V s
edu ction
tr unc
n othing
ER Y
Ġf ract
host name
Ġr am
Ġinj uries
r ations
Ġrele ases
ĠMi ami
ĠR ect
> }
CO PY
resource GroupName
ĠEn try
7 50
EQ UAL
Ġrele vance
inherit Doc
Ġmunic ipal
ious ly
Ġstrength s
b is
AS P
ĠN BA
Ġep id
Ġtele scope
i ac
i op
ĠG ard
Ġdram atic
Ġbin aries
SE CON
s ock
R ew
u y
Ġoper and
m art
() }
Ġret irement
ĠCal led
conver gence
Ð ³
ĠV in
P OL
r ub
Ġauthor ized
Ġle ak
UL AR
kn ow
00 7
Link s
b uffers
Kn own
Ġpopular ity
co eff
ĠL anka
b az
amilton ian
r Vert
B IND
ĠF E
Ġcon sequently
Ġclub s
B and
li u
Numer ic
V IS
Ġst ops
Ġexpect s
z ech
Ġjuris diction
Ġre written
h it
Ġbut tons
IP S
( %
ah ler
Ġ" ");
Ġdev eloper
Ġcer emony
ro magnetic
Im g
effect s
Get Type
sl ug
mat ched
Ġcritic ism
ĠC ru
D K
Ġm as
M W
it ure
ATTR IBUTE
s ay
ĠD ream
Ġorgan isation
ĠMiss ouri
Ġadequ ate
Fin ished
âĢĿ )
Ġden omin
Ġattempt ing
Ġdissip ation
im ize
bra ins
A verage
LE FT
g as
Ġocc as
Ġoffset s
prov ided
lick r
T ele
t one
ĠT ennessee
A H
Ear ly
14 8
Ġdimension less
Ġcontain ers
Aut hent
h b
Q UE
ä¸ Ģ
ĠJer usalem
0 12
look ing
OFF SET
l abeled
Ġre vision
Ġspl its
Ġab ort
q p
m ont
rece ive
Ġp ad
Aut om
Ġconstit ute
rol led
Ġl ongest
read only
(" ./
Ġemphas is
Ġem otion
^+ _
ipher al
Ġcont ributes
Ġw ra
ĠBr and
g auge
z ing
ĠO ak
ON LY
A O
associ ated
m ates
Trans l
Ġvis itor
Ġs aving
Ġstat istic
? )
Ġcelebr ated
âĢ¦âĢ¦ âĢ¦âĢ¦
dis crete
ke V
Ġpul led
) ]{
C riteria
l ings
c M
Ġon click
re ports
Ġ( ((
mer c
Int ro
ĠType Error
In spector
Ut ility
H W
eg ree
Ø ª
Ġin jected
Ġcor ruption
Ġact ively
R ound
pro per
ot ypes
valid ator
Ġsubgroup s
ĠAr k
Ġneighbour hood
Ġev olve
=\ ,
ine q
Ġexpl oring
im b
^ -\
D s
Associ ation
min imal
Ġin ev
ĠCon tact
\ ).
ĠFin ance
D ry
D onald
VER R
Ġprefer ences
Ġsy nd
t ou
ĠA F
Ġro ads
15 8
D IV
call s
Ġmaxim ize
Ġresid ential
ĠMex ican
H ol
au er
the ir
ĠAnth ony
mys ql
cell s
ĠF P
Ġabund ances
Ġun set
get Current
A lex
ĠH an
Ġinter active
ogene ity
ĠP attern
Ġreg ret
ĠTH IS
observ ed
Ġcon current
9 78
Ġint ense
con e
oy al
æ ī
ĠMar c
COL UMN
; -
pp le
}$ \\
FA ILED
lat ex
CLI ENT
S ing
ĠCom ments
st ers
Ġdis appoint
M id
h ill
Ġb ol
Ġliter ary
ah n
ĠFig ures
ĠAtl anta
C LO
p ip
ĠB ry
Ġmed i
\ ),
ĠA h
ĠH ave
ech an
Ġprior i
] ));
ĠD NS
ag u
F ar
v dash
Ġgra in
o auth
mod es
Ġvol atile
taint y
o ft
Ġd ress
Ġle ver
Throw able
Ġw eren
hand ed
s ens
Ġlabor atory
is an
Ġillustr ation
win ning
approxim ation
ĠTr igger
ä» ¶
Cho ice
Ð Ł
ĠFact ory
P en
B ra
Ġcont ours
MA KE
osc ow
un ov
tra its
at ers
f h
Ġvis its
Rep o
Ke ep
HEAD ER
Reg ular
M Q
Ġk pc
}} [
FO RE
h int
ict ions
Ġag enda
Ġman agers
Ġ$( {\
Ġt y
LE AN
ĠAm endment
M ULT
Ġin struct
al most
am an
wikimedia ui
i ph
Ġf id
ĠO s
Ch apter
Ġtown s
est ure
Ġinv olvement
B ODY
Ġres cal
ĠPa per
cent ral
cast le
Or g
Ġenc rypted
mark et
st ri
GP KG
Ġincred ible
-------- ---
Ġspon s
G UI
Ġg rap
ĠDE BUG
url s
Ġd f
ĠYear s
} ',
pie ce
" \
al ter
Ġfru it
Ġsoph istic
x ref
ynam ical
Ġinteg rable
Ġ gest
ĠJ ay
Ġinit With
D an
Ġmod ulo
on na
Ġd ummy
sw ift
15 6
tr uth
C ached
d eb
get ElementsBy
dim s
Ġinvest ments
Ġchart s
LOC AL
rec v
Ġdro ps
Ġs quad
cont ract
}= -\
Ġl ands
30 4
. ][]{
Ġtr acing
ĠW inter
bar a
arc sec
Ġimplicit ly
ip ality
Ġset Timeout
ĠMan chester
Ġnov els
Ġcomplement ary
ĠB utton
Loc ator
Ġmob ility
Ġjust ify
Ġsomew here
ĠL A
Ġaddress ing
ĠEx pr
] /
re ject
S pect
Ä ĩ
ĠR ole
}) }{\
(' ../
Ġca ption
Ġh ist
u is
Ġtab index
Ġbary on
ĠRuntime Exception
) }^{
Ġob l
Ġh ate
Ġvirt ually
Ġholid ay
L ab
C ss
su cc
Ġsupp ression
ĠP E
Ġt et
Ġel abor
rop olitan
ĠTrans form
C art
Ġm im
ĠT ech
R etri
g age
ad i
la res
Ġsh utdown
OP ER
ĠSw itch
Ġv ic
ke e
char set
19 54
N orth
× ľ
s per
ides pread
N EXT
ĠPolit ical
tr an
sql ite
Ġx hr
Ġk it
Ġu uid
ator ial
Ġrail way
aut om
: /
el ist
Ġparamet ric
dis cussion
Ġdynam ically
ment al
ĠAdd itional
ĠAd S
raz y
list item
' ')
ĠP ier
m q
ex change
SE C
ĠInd ust
Cla im
normal ized
Ġb ot
Ap pe
ĠU P
ĠM ut
ĠFrame work
Ġtr ick
Ġsupp lies
Ġb on
im ir
å Į
)}\ \
ĠSchool s
Ġrefer ring
AD DR
ĠAdd s
ĠF riend
Ġun employ
Ġfermion ic
ple t
cl osing
Rect angle
om p
de ploy
/ ************************************************************************
Ġd Ã©
get Parent
ĠO t
Collect or
ĠMuslim s
A RE
Ã ½
Pro ducer
Pre view
Ġnumer ic
_+ $
sh own
24 5
Sub mit
38 4
Ġalloc ate
Ġinj ured
TIME OUT
Ġiniti atives
Ġor ange
Ġhor ror
Ġre serve
ĠE dition
Ġflex ibility
F ore
T s
ex plicit
ĠN ature
ĠUn ivers
ĠCon v
jet brains
ĠS ant
Ġfix ing
child node
Ġdiscrep ancy
Ġimportant ly
Ġanalyz ing
op ol
] >
Ġc ube
ro gate
Ġcon form
Ġcompet ing
Attr s
ee per
or ce
cond itional
ĠHead er
Ġfra ctions
Analy zer
itzer land
Ġprom oted
ent o
Ġaltern ate
S al
XML Schema
ĠL em
19 43
Ġcompet e
Ġmin us
Ġdown stream
i u
ast s
ĠL as
Ġinfin itely
ĠSD K
Ġfrag ments
23 4
ĠSh ared
mk ern
cos ystem
Ġpresc ribed
Ġinter cept
Ġcontinu ation
Ġut ter
s ymmetry
}} |
Ġ& =\
Ġ' [
] ",
GEN ER
Ġj unction
ORM AL
Ġf lying
Ġpl astic
)) }
Ġcounter parts
ĠSp irit
Ġconstitution al
Ġf lip
Ġd ocker
ĠP os
Ġw ing
ĠSt adium
Ġj un
W W
ĠAd ams
J ames
it is
d ifference
^* $,
Ġnon negative
ĠEnter tainment
Ġ* **
math ring
Ġwat ers
Ġannounce ment
Ġc ameras
Mar shal
S ound
Mich ael
3 75
ĠRespon d
we ets
n or
ID s
ĠChair man
c nt
w ick
Opt s
Ġpublish er
short cut
Ex perimental
Ġshall ow
Ġchampion ship
Ðµ Ð»
tes y
Ġcy cl
cor ner
g ender
Ġd amping
"> ,</
r g
ur face
ess ment
S PI
Ġpredict ive
Ġaccept s
ĠStud ents
in th
Ġspon t
2 32
Rec ent
Ġwire less
Ġdisc ount
Ġle pt
ĠIn cre
s and
El se
G RE
ĠCent ury
U i
im ore
Ġins pection
ĠLeg end
cre ation
Ġcor ollary
=' #
ĠF un
Ġph arm
ĠS oc
U uid
Â ©
T W
Ġcontroll ing
IF AR
ĠReg ional
Ġpet ition
Ġd ans
ma gn
ĠB SD
ĠG az
00 8
Condition al
Ð ¶
rec ords
Ġproceed s
che ll
ĠLine ar
Ġf iscal
19 49
E val
Ġblock ing
support s
"> &#
ic ut
ĠPolit ics
Ġstr uck
Ġw elfare
cover age
Ġfre ely
Ð¾Ð ³
Ġret ro
ha us
io let
Ġfriend ly
met er
ĠTh ank
D N
back up
Ġear liest
Ġre semble
Ġopin ions
ĠERR OR
act ing
}}{ {\
19 53
la unch
B ERT
Ġen orm
Ġt ies
http Request
Number Of
ĠHow ard
ĠM R
Ġdefe ated
d og
al ph
ĠO regon
Ġsupp orters
et ched
M arch
ĠCheck s
Ġappoint ment
F ollow
Ġdist ant
Ġchair man
NN s
then Return
t ract
ĠP ear
a ac
Ù ĩ
Ġindex es
inherit doc
Hel pers
M acro
Ã ª
pect ives
Ġ/// <
im uth
Ġretri eval
^ (
Ġb rown
log s
UM ENT
Ġconj unction
Ġtravel ing
const rained
ĠJ am
ĠP ot
ĠW IN
sc opes
Ġfix es
Ġconserv ed
im prov
Null Exception
Ġsched uling
Ã ¸
o ct
F ee
B usiness
ĠAl liance
I FT
15 00
Qu ick
NE SS
Ġdig its
C artesian
S ocial
hand lers
pub lished
Ġpolit ician
Ġphot ography
ĠK elly
STRE AM
p referred
Ġrep air
ĠDocument ation
l ists
Ġ) :
r h
Ġartifact s
ĠModel s
ĠCurrent ly
Ġm ac
}} %
ĠB at
riter ion
Ñ ī
l ag
Ġcol ored
Ġpar abolic
Ġexp ans
DE V
b os
Ġdemocr atic
tikz cd
m or
TO P
4 000
L ess
ev a
cess ion
Ġres idence
L ife
Ġst ere
}\ {
Ġtri ang
is i
18 5
Ġspan ning
abul ary
FUN C
ĠS ide
log ue
Ġf atal
\% .
P t
Ġf lood
ĠDir ichlet
om es
DE C
ĠRes Net
ĠAnd re
ĠF oo
oth ers
Ġwavelength s
Ġo x
Ġc ry
Ġex clusively
Co ins
v ary
Cl osure
l ad
ĠG Hz
=" '
ĠL ess
Ġprepar ing
Ġover rid
Ġprison ers
Ġnull able
Ã§ Ã£o
comple tion
UB LE
15 9
Ġfail ing
ta ken
Ġ[] *
Ġwe aring
ent ities
Ġed iting
ĠCont ract
ĠF ail
State Exception
a que
Ġr ide
P ur
Ġp b
as List
| <
Ġcont raction
pert ure
Ġsymbol ic
ĠC ell
F G
d ense
Ġperson ality
EX P
ordin ator
ĠPo inter
Âł Âł
' }}
ch ars
os cal
Value Type
IC S
P in
ĠB urn
UT C
E urope
Ġv ocal
ij ing
CL UD
ĠS DL
V V
Ġrel ay
Dis patch
ath ers
ĠLaw rence
ĠMal ays
ĠV iol
ĠRes erved
F our
ĠAg ric
Callback s
CLUD ING
# /
}, {
Ġprom oting
Part icle
Î »
b ias
Ġin h
Ġle verage
H EL
Ġ( @
Ġreson ances
} `
enc er
as ympt
ur c
Ġsp atially
Te X
iss ipp
19 47
Res earch
Ġw idespread
ĠC WE
Ġj ury
Ġcomplex es
ole v
ĠComm ons
t uning
Ġm u
Ġappear ances
ĠCont roller
Ġout going
ĠEd ge
ĠOper ations
ĠN ich
Ġrel ates
Ġle tting
Ġspectro scopic
ĠCh ap
/ ><
oin car
E p
c odes
ĠChrist opher
x a
16 2
ĠCred it
query Selector
ĉ ĠĠĠĠĠĠĠĠ
Ġli ability
Ġ ))
. &
ch rom
ber ry
AS K
Dec or
bour ne
| ^{\
Ġphot ometry
b ank
Ġeng ines
co ins
;\;\ ;\;\
Ġp ag
add er
Ġuncer tain
ag le
yn man
x l
ex e
FIL TER
Ġshe af
Ġconduct ivity
file Name
Ġ ----------------
}{ {
List s
Ġbas elines
Ġsw im
ĠM ountain
ĠC ONT
ĠH IV
ĠDet roit
expand ed
ĠHot el
Ġsurround ed
) ];
G old
CONT RO
uls ion
19 52
dec oder
Ġaf ternoon
es a
"> "
box times
Ġmem ories
Ġgre y
19 17
Comb ining
Ġcrit ics
ĠD ise
Sp in
spl ice
w ich
char At
Ġhypot heses
Com ments
16 7
ĠFor ces
Ġpod cast
Ġsumm ation
ass er
(' \
Ġoff ensive
________ ________
[ ^
Ġs alt
ym orph
Ġannih ilation
EX TERN
Ġresource GroupName
ĠAust in
Ġimmigr ants
ĠCO L
ĠAss istant
j j
Ġconcent rated
in tern
Ġmed al
Ġreson ant
w m
Ġch at
keyword s
le ad
ĠEn um
"> '
x it
DO CK
alloc ate
im ath
c id
ang led
ĠE T
OUT PUT
ĠF i
| +
re try
Ext ended
$\ %
col s
att ention
ĠB ug
bas eline
. \,
f ers
Ġattack ed
REQ UI
]{ $
Ġminim ization
Ġs la
mu x
ear ly
Ġreg isters
------------ --
Ġb unch
ĠComput er
s ized
Ġres ist
Upd ates
Ġm outh
ans wer
ik h
Ġ' )
W ITH
Ġsome how
Le ave
Ġweek ly
port let
Ġdis contin
Ġevery body
fer m
Q CD
ç ½
)\ )
ĠD eveloper
ĠCall back
Ġbr acket
17 6
ĠMov ie
se ver
Ġsix th
Vis it
Ġcelebr ate
Ġdu plicate
op enc
Ġsat uration
Ġtheore ms
p ure
im inated
ĠG rad
ther mal
ĠR on
Ġde emed
Ġsch olars
ĠD ick
Ġso il
D U
h ind
CA SE
ĠC atalog
exp ansion
Ġb uffers
ĠS FR
g ot
pl o
Ġtack le
oc on
Ġaffect ing
Ġinstrument al
M usic
m orph
ĠD rop
ene z
Ġturbul ent
ĠC MB
Im plicit
}=\ {
FAIL URE
R en
Ġassert False
Ġ* */
nu cle
comput ed
c rypto
ĠF reedom
00 6
Ġ) );
l Vert
× ¨
@ {\
ĠSch olar
sc ar
30 1
Ġed ited
ĠD ifferent
Ġsequ el
g un
Ġparticip ating
M igration
Ġinsp iration
iv ially
ĠK at
Ġfore ground
re vision
Ġgr an
adv anta
ma pper
product s
Ġmem or
ift y
16 4
Or d
Ġlabel led
Ġdebug ging
Ġun clear
Ġstri king
class ification
Ar c
Ġrest ored
AT T
ç ±
re ction
=- =-
ĠT aking
ĠP as
Ġsee ks
(( (
Ġexam ination
pare n
Ġdesign er
Ġd yn
est yle
7 68
eloc ity
Ġfound ing
Ġcouple s
123 456
s ong
ar o
ll ll
ĠTh er
SE D
issipp i
h m
âĨ ĳ
Ġh ooks
ĠS el
Mix in
f ather
ign ite
Ġ nd
big cap
Ġb le
ir q
ĠR ound
ĠA pi
ĠB ishop
op les
rm k
Ġl p
e con
IC K
m otion
å °
ex perimental
DIS ABLE
' _{\
Ġmathemat ics
ĠS in
B IN
Ġamong st
S taff
Ġsing ing
Ġs ons
norm als
j amin
ip ly
ĠS yn
get Context
&& &&
Ġengine er
æ İ
k r
ĠArg ent
Ġp ix
ĠW E
ol ly
Ġab road
ĠAl bert
ific ant
feed back
Ġagric ultural
asci i
Ġwat ched
Ġliter ally
ĠHistor ic
ot er
Ġcombinator ial
Ġin complete
ĠCO MP
Ġvacc ines
n P
con cept
W ords
Ġover se
depend ence
ĠSw ift
Ġbur den
Ġmet ers
av atar
Phys ical
Ġdiag nosis
ĠM ode
17 2
Ġro se
d if
Ġre use
Ġparticip ated
Ġpro tests
Ġwidth s
Ġdist ortion
Min imum
Ġdefect s
Phys Rev
Ġreal m
ĠRes erve
root Scope
ĠP ope
ĠG h
Spe aker
Ġch urches
19 46
23 5
Fl ush
Ġequal To
ĠU TC
T om
st ars
Ġcomput ers
Z ip
Ġb acter
em er
Ġun safe
function al
Ġweap on
ta ges
west ern
({ },
Ġatt itude
Ġdes irable
Ġgather ed
g res
Ġun lock
Ġquant ify
Ġdis ability
INTER N
Ġp ion
R oom
s us
Ġ ì
Ġt itled
Ġslow er
Ġch amber
uc lear
ĠJ O
bi ased
A pril
Ġt ill
Ġwork space
Ġdis aster
ĠH ug
ĠInitial izes
Ġent hus
ĠPl ugin
un stable
Ġdel iber
Ð°Ð º
S il
initial ized
Ġconvers ations
D G
CO RE
ĠApp ly
ĠMean while
Ġ( +
Ġher itage
Ġsurv ived
ĠF LA
Ġpass ive
Ġtimes cale
Ġinit iated
Ġdecre ased
} ')
ĠD ES
ĠE W
ĠComple x
2 12
Ġh ur
source forge
Arch ive
R V
Ġfarm ers
Cur ve
AT IVE
r ans
VERR IDE
Ġnot ions
Ġpo etry
Ġto x
ust ain
ge ms
tain ing
Ġenter prise
as ym
), $
Ġoscill ator
DEF IN
19 51
Ġs id
ov al
ĠKent ucky
Ġcancel led
Ġarrange ments
ch apter
ors es
Ġmand atory
aut hentication
ĠLeg al
per or
ĠNot es
ĠJ ason
ob server
p aint
ĠPhil ip
g m
ĠUt ils
Ġi prot
ĠBan ach
Ex ist
Ġcr ack
it ol
R P
it ical
Ch ina
div ider
normal ize
N Y
Ġm appings
requ ires
ob tained
PE G
}{ -
qu is
ard o
Ġtool tip
Ġisol ation
plic ates
l ades
AR M
Ġsuggest ions
IR ST
O s
Ġthe ater
sh ake
Ġbr ane
J une
Ġcomput es
Start ing
ENABLE D
Mut ex
^* )
amil ies
ãĤ Ĵ
ĠSwed en
sq cup
Ġas ymmetric
Ġbenef icial
Ġas semble
ĠSe attle
chi at
ost ream
Ġult imate
tz mann
cou pling
Ġexha ust
ĠF ried
Ġbo at
Ġion ization
ç± »
Ġconf ident
Pro jection
rob ust
P reference
ĠM oscow
unt u
00 000
19 4
min or
Ġcons olid
Ġhuman ity
Ġmagnet ization
ĠDe an
mem Item
SER VICE
Ġacknowled ges
F ACE
N M
ĠC reek
ĠWork s
hom a
c A
ĠY ES
Ġfix ture
f oundation
id ad
. }.
C AL
anc ies
ĠWik ipedia
ĠA x
sh aped
IS H
ĠRef orm
Ġexecut or
Ar n
ik es
Ġadv ances
ĠTok yo
h ive
Ġdep ression
mid t
ĠValid ation
match ing
ĠLab our
SV G
)) {
AP PL
cons istency
Ġkinem atic
c amp
o S
is ode
Se pt
ĠM W
ĠL GBT
BU FR
or ry
Ġmod ulus
EN SION
v d
ĠF S
ĠM ach
ĠDis able
Ġas ks
Ġo w
Ð¾Ð º
Ġres ize
Ch ars
Ġfore ver
è ¦
ĠP P
col sep
B ur
Ġamb ig
i ri
ĠSt atic
ĠT E
dis p
ĠF ake
CP P
ĠD S
Ġwarr ant
ĠHer itage
Ġinflu ential
Ġ$ ^
erv es
Ġperson ally
Ġpermut ations
Ġpropag ator
Ġmonot onic
Ġorgan isations
Ġconstit u
car ousel
Ġcyl inder
pre ced
ĠS olar
dev ices
Ġharm on
ĠCla im
S olution
Ġ" </
Ġfranch ise
' }{
Ġf ram
Ġst ick
. }}
Å Ł
T aking
Ġview ing
Transform er
19 3
ĠEV ENT
ur ious
oxy gen
Ġal phabet
}^{ [
18 7
Ġviol ations
Ġcardinal ity
m utable
Ġad option
ĠInd ones
ĠS EC
) }}{
b rew
ĠT ypes
Ind ent
ĠMat thew
vanish ing
ĠF ather
per form
un ning
on z
Ġg ang
Ġun ified
Ġh at
PI X
ro oms
Ġbos onic
fl ash
Ġvisual ization
ADD RESS
N i
() "
Ġnom inal
Acknow ledgements
Ġshort est
cy cl
if urc
ĠP T
Ġsub stitute
S en
\% )
qu er
ĠAn ne
olv able
External Task
Ġse aled
- "
j dbc
as pect
Ġfaith ful
in tr
ra ctions
num bers
ĠB UT
scal ed
h dr
s al
ter y
lim sup
Rot ation
ĠR ot
Ġor b
ĠST ATE
ĠCO PY
16 1
Iss ue
K w
Ġmill iseconds
B ay
ĠP NG
Ġcomputational ly
Ġp iano
Tool bar
t ec
ĠCO MM
get User
u art
la homa
Contain ers
")) );
] ,\
im ony
ĠSV G
Ġball s
i ology
Â ·
> ";
Ġcorpor ation
Ġauthor ization
Ġ] );
position s
unic ode
Ġtra ins
Ġpred omin
Ġsur jective
inst ances
ĠP rep
it ize
ĠE S
i ang
Ch rome
Ġtra il
: .
m ade
k ed
ĠWalk er
Ġsem igroup
Ġanaly tically
Ġinflu ences
ig a
depend s
ĠChar acter
Ġan th
ĠU rb
suff ix
pred icate
ĠChristian ity
Ġcitiz en
ĠMar shall
id ually
ĠD ur
Ġanalog y
Ġc ust
Ġsurv iv
Ġre ven
em ption
ĠA U
A ge
Ġten ant
am plit
Bu ilt
Ġc up
ĠE dd
mk dir
ĠK al
ather ine
Suff ix
pt ical
Ġjournal ists
ĠY uk
Ġt act
ĠF T
j an
ĠA BC
Ġmain stream
CharacterOffset End
CharacterOffset Begin
å Ģ
ci pl
comp iled
Ġrefuge es
Ġp id
L iving
ĠR ank
Ġanalog ue
" ):
Ġray s
class path
16 3
Ġmonth ly
Ġas ynchronous
M AT
ĠD ave
ig o
accur acy
ĠD og
Ġ/ \
Ġbar riers
un ication
] &
ed ition
SY S
Ġh am
Ġentr ance
ĠE uro
ynam ically
ct ype
ĠD allas
hat tan
| (
B K
St roke
18 00
Ġunder go
ĠC ancer
Ġco ffee
IC AL
Ġcyl ind
f req
Ġfluct uation
Ġexp enses
Ġcent r
Ġmer ging
widget s
Ġl hs
S ibling
-> ,
Ġamb ient
harm onic
Ġdis pers
Ġatt achment
ĠT err
Cal c
r ates
Col ors
TO KEN
ĠDesc ribe
Ġfeel ings
Ġbeg un
me ans
ĠTh anks
Ġdef in
EN S
20 6
fix ture
em ies
Ġoff line
desc r
el n
P references
ĠS PI
R ever
ĠPr ivacy
ĠBe at
dash board
q t
Ġf ed
Ġpol ygon
t ens
ãģ Ļ
Ġsophistic ated
ĠS ex
ĠDefault s
W ave
Ġlens ing
ĠVari able
or o
ĠG alaxy
Ġper ceived
ĠB run
ous es
ass ador
Ġb rowsers
ĠS ho
Spr ite
align ment
I J
it i
Ġgovern ance
ĠCO M
Rec ently
che str
Ġprom otion
Ġb less
Ġposs ession
Ġt rem
ĠO cc
Inst ant
rupted Exception
ol as
AL LOW
'' '
rid ges
ĠAdv anced
0 30
Ġcon fer
)^{ -\
b age
ĠS tage
}) \\
ĠCol on
Ġreserv oir
ĠA dapt
ĠM ission
Ġexplos ion
Ġart istic
Ġtri angular
ĠPl ant
Ġarr anged
sched uler
Ġscatter ed
CONT ENT
S am
20 7
} ")
ĠF ive
Match ers
ĠT rib
ĠA DD
Ġspecial ized
ew art
Comp ile
ĠWIT H
ĠM ER
ĠField s
ĠSaf ety
ĠB udd
/// <
ĠCapt ain
ĠI M
Ġsmooth ing
AR GS
Ent ities
up iter
Ġun used
$ _\
ma ils
erm al
Ob serve
C ategories
)} +
Ġautom ated
g allery
C amp
ĠPro gress
tabular newline
Ġswe ep
ĠĠĠĠĠĠĠĠĠĠĠĠĠĠĠĠĠĠĠĠĠĠĠĠĠĠĠĠĠĠĠĠ ĠĠĠĠĠĠĠĠĠĠĠĠĠĠĠĠ
ĠF ore
st raction
Ġv eget
P b
ĠF red
Par allel
=" {
ag ain
: $
ĠR ele
Ġ\ ,\,
ĠMay or
G LOBAL
Ġb io
ĠE E
Ġ/ .
ra k
ym an
vis ory
Ġaccompl ished
Organ ization
ĠEx press
ĠW ang
é ĩ
level and
ĠLa placian
BE GIN
end l
m ate
Ġob s
Ġre finement
Ġsp arsity
18 8
dist ributed
ve ction
ĠĠĠĠĠĠĠĠĠĠĠĠĠĠ Ċ
0 75
ĠPhilipp ines
Ġex pense
c g
R oll
Ad S
ĠR ober
Ġ| ___
ĠNiger ia
ExternalTask Pojo
var sigma
}^{ {\
Ġent ers
add on
Field Value
ĠF M
. #
=" ./
Ġinf ected
ben chmark
he size
Ex act
P ull
o pp
od ash
ob e
xx x
ĠS ED
An swer
Ġhe li
yn olds
ey er
Ġanal yst
Ġattract ed
ens en
ac ion
Ġfile Name
ow ards
to k
for um
an on
ĠB ond
ĠInd ependent
conf irmed
re start
Rep resentation
q w
ĠDr ug
T CP
ch anging
Ġrob ots
he im
out line
ĠGa uss
Ġprem ier
Ġwh ilst
DE SC
ĠDirect ory
Ġrespond ed
Bound ing
Ġclass ify
ÑĨ Ð¸
ĠB etween
Ġprogress ive
( |\
{ };
ĠHash Set
ow s
Ġsurpr ised
hl js
Ġcontrovers ial
[ @
and al
Sample s
ĠĠĠĠĠĠĠĠ ĠĊ
ential ly
Ġhard ly
ĠM ars
Ġgenu ine
Ġsudden ly
{- .
Ġpush ing
mo ke
Ġsecret ary
Ġpo et
Serial ize
Jan uary
Ġpro ducers
Ġfall back
Pr incipal
pro jection
Sm art
L ag
tab End
ĉĉĉ ĠĠĠ
Ġless ons
}^* $
A MS
s child
ĠLL C
K B
Ġlearn s
Pa ul
un used
ren a
Ġconf ined
ĠAct ivity
r ational
ĠJ osh
Ġmount ed
d ns
ar ab
Ġfit ness
ĠM ess
Ġ' --
VER TEX
Ġper pet
Ġab b
Ġ" *
ĠSm art
Ġverb ose
L ATE
an ne
P AGE
t odo
ĠB U
Ġtreat ments
Phys ics
n ie
ĠF ed
ĠOff set
ut ors
Writ able
Log ical
Ġt ube
ĠG ulf
quot ed
ĠM as
Ġsub stance
^{- (
ce ive
pm od
h ub
ĠF ont
Ġhad ronic
ĠSw itzerland
A ws
Diag nostic
Cre ator
om ed
math rel
ĠBow l
PO SE
19 1
Ġaugment ation
v ation
Est im
ĠCh art
On line
Ġro of
R obert
ass o
) ");
Ġdat abases
Ġpre val
Depend encies
iver pool
EMP TY
S un
Ġdetect ing
ĠA SC
MLE lement
ĠU tah
Id le
s ink
ĠPh ase
Ġsuperconduct ing
e enth
ĠCast le
iv a
FE ATURE
:: ~
Ġcap ac
ra ining
Ġexist ed
ĠOr leans
$ ^{+
At omic
Ġc ot
Ġre interpret
Im ports
Ġo l
Ġnot ably
v nd
ĠD VD
ĠAc cept
c ub
Ġpop ulated
Ġthink s
SP AN
Aggreg ate
ĠStr ategy
c out
ĠPrem ier
0 25
bul k
)$ :
Ġelse if
Ġlegit imate
be zier
C OR
amb ig
pr ison
Ġemp ower
With in
Ġv ir
Ġn ick
Ġdomin ate
ĠMar ia
ĠD ynamic
17 1
Out Of
Ġt m
ht m
Ġex ponents
o a
Ġm uon
Ġbr illi
Ġexecut ing
ta p
ug by
rel ativistic
Ġund ers
y u
Ġn eck
ĠS ob
2 33
ĠP ed
Ġemploy ers
ĠMET H
im ag
Ġfr iction
Ġappreci ate
æ ³
Ġob ey
Neg ative
Compar ator
ĠSQL Exception
ĠH aving
ĠH ubble
ph inx
Ġgun s
Ġs olves
Ġwebs ites
ser if
Ġinvestig ating
Ġs le
f ade
Ġint ra
ĠâĨ Ĵ
H aving
Ġm eth
ĠM IN
A Y
Ä ĥ
Ġmark up
=" <?
ĠM organ
ĠD omin
Ġbeh ave
60 1
ĠM AP
inter pol
ĠReg Exp
loc ations
rec ogn
Pr iv
Ġport ions
g pu
uzz y
L aw
log ical
Ġlaw yers
Ġcomp ares
] -
COM PI
acef ul
{ -\
Ġon set
Ġt ropical
ĠNe umann
Ï Ĥ
ĠL am
ĠThom pson
ĠC I
Sort ed
[] {\
b ash
Ġst ating
ĠP aram
l ucene
Ġaltern atives
sp ired
fold ing
0 11
D ocker
Ġch rome
C op
AB C
Thread s
ĠFish er
s phere
th umb
ellig ent
Ġc v
d B
s ound
ĠM un
Th ird
stat istics
Ï ħ
ĠC AN
Ġsur ge
n v
ov y
Ph ot
C AN
æ ł
ĠEm pty
has Next
en berg
ĠL ower
ap unov
A ir
ĠR aj
ill ance
ĠM icro
Ġcolle ges
Ġpl aus
Ġsusp ended
co res
Ġjud ges
ĠCr ime
uck er
lades h
ur ring
L ex
Ġprom ises
Ġj oy
apt ers
Ġdiscuss ing
Ġreli ability
Ġbij ection
Ġs q
Ġan satz
form atter
Ġlegisl ative
th anks
ĠCommon wealth
ĠW ard
ribut or
Ġcontact s
r q
ss h
Ġ* (
Ġsub mission
ĠSh ape
Ġaddition ally
Ġm il
ĠM N
}} ]
ĠB or
commut ative
T B
x hr
}) +\
ĠIn fo
Ġ$ ("#
Ġe cosystem
( ',
18 2
Ġcom ic
ĠD L
Clear ly
spec ies
b ay
g ol
Ġre tained
Ġblock ed
} ''
ĠK er
current Time
)+ (
ink owski
(" _
Prop agation
lear n
sing ular
Ġcampaign s
int roduction
NO TE
Circ le
ĠB os
** :
Ġlo ans
Ġ Ø§
ĠIS BN
Ġmultiplic ative
com pressed
r hs
)}{ (
ĠDen ote
}{! }{
cm id
supers cript
less ly
Inst ead
Ġfair ness
ge m
G lob
Ġaband oned
Ġp uzz
Ġisol ate
ĠSil ver
Ġsub spaces
filter ed
ab ri
Ġvar s
ĠAnn ual
k b
as ide
dev elopment
36 5
con clusion
ĠB att
U X
] -->
ĠH u
bal ena
Ġprev ents
c ould
Ġ} _{
V ersions
Ġh i
Ġathlet es
Ġal umni
Ġapart ment
Ġh urt
Ġgr ass
ne e
s ided
oc he
ĠB uck
Char Field
Ġmetall ic
Ġaccompl ish
S us
ib li
SE SSION
mall oc
Request ed
Dis covery
ĠMon th
y ml
ĠW y
M ON
ĠL STM
Ġob sc
Ġax ial
Ġre con
Ġstat istically
Ġpark ing
> ",
)= -
Ġste ep
neighb or
}} </
S everal
em e
n z
}$. }
Ġla ugh
cred entials
ĠS port
Ġfil tration
ĠCol lect
hes ized
focus ed
ben ius
Ġfl are
ace ut
Ġcross ed
Ġadmin ister
ĠD al
sort ed
cn fn
it ro
Ġloc us
GR AM
ĠAl an
work ing
Ġesc aped
Ġp ec
50 1
80 80
M en
le vant
Ġcollect ing
C ACHE
S yn
æ į
Ġy esterday
Ġl attices
Ġjust ified
") ).
per missions
e asy
23 1
Ġt ur
osp el
Ġt weet
H u
Ġth resholds
ut er
Ġ` $
n at
Ġv e
sub title
Conn ected
che m
ĠExec ute
be it
Ġfun ny
ĠFunction s
Ġsh ots
ĠY eah
Ġaccompany ing
Ġdecl ined
ĠPer haps
ĠMiss issippi
dele ted
um m
ĠMo z
Ġsup rem
ant on
Ġr t
ĠH ope
){ $\
Hash Code
20 9
aut hent
Ġmicro scopic
! ");
en kins
iv an
Ġis lands
es ium
p rior
ç Ľ
Ġcomfort able
l if
Ġpack ed
Ġsp oken
ĠVis it
J uly
_* \
: ]
as io
n om
Ġsing let
Ġcor pus
read able
al ong
Ġr um
ĠQue ens
calcul ate
18 4
ov ich
Ġpsych ological
Through out
getElementsBy TagName
Ch oose
Ġlik es
Ġ< ![
_* $
ray s
Ġirre levant
ĠB orn
ill ation
to o
Bound ary
ĠPr ice
) ";
}} ^{-
ĠH ans
uit ively
ĠAPI s
J oint
LI ED
datab ind
b oy
Ġtra iling
sem i
term inal
th ink
w ould
Ġlik ed
Ġdomin ates
organ ization
ĠRuss ell
Ġcomp ly
Ġor thon
Ġyield ing
Print f
ĠComm unications
enn ial
S AT
j sp
Ġemploy ing
I CT
ĠInst agram
ĠEx ternal
ge ometric
ĠTh ings
ĠFrank lin
ac qu
View er
SA MP
%%%%%%%% %%%%%%%%
Ġtra pped
Ġparameter ized
ĠF ederation
Ġc line
p v
ot he
le et
ĠU TF
Code Dom
k ill
expect s
Ġsens ing
Ġdiscret ization
ac iÃ³n
Ġpro ximity
Track ing
art icles
- |
Ġdocument ed
Integ ration
CE P
19 6
Ġref id
ĠBe ijing
Ð» Ñı
f are
Ġ- &
ĠSch r
Ġb ilinear
Ġp ra
ST AMP
Ġwin ners
Ġj azz
Dis pose
E r
ĠWh ich
ĠSa fe
ox ide
com pl
ĠB eng
Ġaut onomous
C u
hd fs
Ġcirc uits
ĠUS B
cmid rule
ĠT X
18 3
C U
math ord
ĠHistor ical
Ġmanip ulation
Ġparad igm
en ch
Spr ing
Ġnegot iations
Code Attribute
Ġcred its
d fs
Ġtransl ations
ĠS n
Ġgra ins
Ġres il
anta stic
Ġc ul
Ġref ined
stud y
L IMIT
Ġ Ñĥ
ĠB us
sc rib
Ġlog o
Ġmonot one
Ġhad ron
ĠHel per
Non Null
ĠEcon omics
process ed
dim ensions
Ġanisot ropic
small matrix
p unct
" +
Ġconnect s
Ġ iv
ain ter
k pc
Ġv tk
Ġp index
' ",
V ars
ĠR TC
al ion
con serv
b right
17 3
Ġaud iences
Con nections
Ġdel ays
So ft
ion ic
Ġs overe
to Array
Ġlab our
ĠBrook lyn
Ġg raphics
ĠC ow
Ġcon dem
Ġmain tains
Ġra ises
Und efined
ĠR ol
ap olis
N ORMAL
ĠB L
Spe ech
Ġcoal ition
Ġad iabatic
ĠOper a
Ġextra ordinary
ĠCo hen
y our
For Key
Des erial
>> >
ĠF arm
ĠC zech
Ġindic ation
Ġvic inity
% );
j p
auth ors
W i
ĠArray s
ĠWork ing
INTERN AL
) &=
i w
ract ive
Ġbi ased
ĠPer iod
T urn
ĠR ather
aut orest
Ġsepar able
burg h
ĠC ra
ĠTur kish
y ang
17 8
F K
Ġpass engers
)} +\
Ġpredict ing
Ġform ulate
pre ceq
ĠG ordon
uer to
urch ase
E scape
ĠYou th
17 7
r us
Ġt une
reng th
Tr im
c xx
Ġ" \"
ĠR ub
Ġnom inated
)\ |
ĠLouis iana
isen berg
b ird
F all
ĠT alk
)) :
Ġoverl apping
Ġstay ed
att achment
CL K
CON TEXT
ut ility
Ġ{ :
eg en
ad os
W ar
ref s
iss ance
D irty
Ġmet av
ĠB log
Ġterm ination
}{ (\
Ġbe ams
ol er
aceut ical
Ġg arden
28 8
æĸ ĩ
ar x
Ġcl arity
Ġaugment ed
ĠN i
Ġform atted
qu bit
y i
ĠI Enumerable
Ð½ Ð¸
Ġclass ifiers
O Auth
p ane
it ious
Numer ical
B on
Ġt ank
ĠN umer
hen ce
; :
ĠU ri
Ġanten na
od ox
ĠH old
k j
ia o
ught ers
Ġbird s
Ġdo ors
ĠDom ain
ro bot
ut o
L B
la z
res olver
ä¸ ª
At Index
Ġcomb ines
Ġsepar ator
23 7
ĠD ialog
ens on
bal anced
assert That
E u
P F
nt hesis
parent s
$\ {
VAR I
] =\
Ġs addle
ĠB arn
ve led
un safe
'] [
pe ak
ĠN A
Ġd ol
Pol ygon
l ift
Ġ ~~
Ġm i
Ġrestaur ants
BOO ST
Ġthreat ened
P ic
ĠArab ia
K er
spe ction
od ers
ĠV eter
ĠP UR
ĠLIMIT ED
id ency
Ġf printf
Ġimport ed
ĠAg ent
Ġvo ices
ĠR ules
d up
Ġsh ar
spect ral
Aug ust
Ġhead ed
)\, ,
Ġh ired
ĠS ort
ĠTre as
Ġget ter
he ld
ĠCirc uit
ef ault
Ġ($ (
Channel s
Ġeconom ics
Ġappropri ately
Ġtick ets
sh utdown
6 55
. {
z ens
j ournal
p ause
Ġwalk ed
App Compat
par ity
Initial izer
Ġpresc ription
an try
Ġl t
re duced
19 36
Ġfib ers
S om
ĠW allet
RO WS
Ġwind s
Aggreg ation
Ġz ones
Ðº Ð°
Ġ" {
] <
single ton
dig est
c H
Ġequ ivari
Ġcor rupt
ĠPhil osoph
ic he
Ġto w
19 33
++ ]
Ġg allery
Ġben ch
Ġb b
ĠMc K
o il
ĠMin or
_* (
im ap
Spec ific
ĠH AVE
Ġconduct ing
estim ated
alth ough
ĠU pper
desc ribed
Ġindiv idually
Am ong
ĠC ategory
UNK NOWN
um ar
Ġentreprene ur
ĠC ape
s amp
ĠOr th
}/ {
Ġin herent
18 9
Ġfa int
Ġhar ass
Ġgrap hene
mock ito
? .
em en
ep he
ĠAL L
> *
g f
ĠF BI
ble s
iz en
:: ::
ĠMax well
Ġun bounded
ĠWal ter
Inter faces
Ġdou b
Ġfem in
C are
E F
Ġsing les
ign er
19 38
Ġterror ist
H am
Ġemer ge
W T
ĠStat istics
Ġh az
Ġc ognitive
sub script
Ġcl er
G ra
il io
19 15
ĠJon athan
D ifferent
Ġsp anned
Gener ation
Ġdiff use
start ed
Ġdegener acy
Ġpursu ant
ĠH RESULT
Ġview port
ĠE mber
Ġsp ots
Ġbr ackets
}) (\
Ġback ing
Z hang
17 4
ĠR oom
Ġparticip ant
mag net
EX CEPT
Ġly rics
Ġthrough put
}: =
ĠExec ution
C AT
ĠI de
ĠG all
K ER
h ooks
real m
Ġr ival
Ġr acing
in ch
LE ASE
B uffers
or b
Ġhal os
E duc
P ART
ĠM ail
Ġscal ars
Ġhe uristic
ĠU lt
ĠR aw
Ġorig ins
Ġt body
is ible
Ġpro x
Ġ urg
Ġplanet ary
Ġoblig ations
ĠF ame
ĠFor um
Ġt all
As String
ĠL imited
Ġthe sis
ĠZ one
In side
ĠV ER
ĠTog ether
M V
17 9
Ġsuccess ive
So ftware
Ġexplan ations
ĠM ir
Ġlink ing
E ast
res on
sp y
Tra ining
spir acy
Ġdig est
ĠS TD
Ġdram atically
d eps
p airs
A ustral
Ġs ou
19 14
Definition s
ĠSpec ifies
Ġenorm ous
Ġt rib
ass ignment
Ġal arm
graph s
ĠU pon
can not
Ġserial ize
Ġtensor flow
Ġmatch er
LE T
Ġab ortion
og a
SS M
B an
Ġd owntown
ho enix
ĠO wn
Dele ted
ha o
ol en
Vertex Attrib
r times
Ġspeed s
ĠSt udio
w x
R x
Ġ rib
ul ous
get Path
ke ley
oper ators
Ġacknowled ged
P rel
x FF
Ġ ĉĉ
S uggest
ĠM atter
ĠV I
Ġpract ition
Ð» Ð¸
level s
Ġsimultane ous
d ifferential
Ġinsert ion
normals ize
å į
Ġan notated
40 3
Hy per
{ ``
Ġ* =
br ack
Ġclos es
document ation
Ġm ales
el ing
APPL ICATION
Pos itive
AN Y
xi ety
ĠInd ustry
Ġviol ated
block quote
ĠL iving
Ġr ub
Ġlog ged
ER O
ĠA z
Ġg ross
ous ing
b ard
} <\
R DF
L y
Ġdest ruct
enn y
' </
ĠG arden
our t
Ġrig orous
M gr
Ġm p
Ġactiv ists
ĠUs age
_{ *
Ġb reed
DE CL
Ġlabel ing
Un ion
Ġdev ast
ĠFre der
Ġlic enses
en umer
print StackTrace
)} -
Ph il
Ex isting
s To
B ot
32 1
ĠOk lahoma
. ')
WH M
åı ĸ
Ġt one
Ġl os
Ġb is
Ġhead quarters
ĠRem ote
ĠNav al
Sh utdown
Ġa ster
AC L
Ġlaw suit
v x
am ous
ĠA str
dot sc
j ump
Ġex clusion
Ġex empl
ĠT RAN
nav Bar
ĠDoug las
ĠObject s
; ]
Ġf ishing
ĠĠĠĠĠĠĠĠĠĠĠĠĠĠĠĠĠĠĠĠĠĠĠĠĠĠĠĠĠĠĠĠ ĠĠĠĠĠĠĠĠĠĠĠĠĠĠĠĠĠ
32 5
ĠLay er
). </
ĠP la
st ability
ĠP ush
Ġqu ad
Ġ$( -
Ġinv ocation
}) -\
DEF INE
C ov
ec ker
ĠSE LECT
Ġtw elve
ĠRec ently
R TC
Ġm oon
r ust
Get Value
Ġcheck sum
oll ar
PRE SS
ĠV egas
Ignore Case
k v
m atter
Ġsh a
Enumer ator
WIN DO
ĠP ic
Ġacceler ated
Ġveter an
e o
SET T
Ġex terior
G overn
author ized
s ible
Ġstr ide
Ġbank ing
Inter pre
ĠCar ter
ind icator
æ ŀ
D to
Ġs que
c oc
Ġbipart ite
IN TEGER
æľ ī
Ġorthon ormal
st orm
ol k
/ :
Ġloc als
Ġintern ally
ĠF ight
St amp
Ġinstitution al
Ġexplain ing
merc ial
D ays
Ġchem istry
online cite
er ce
Ġsent iment
struct ured
ĠW R
Ġdel ight
Ġagric ulture
Ġul tr
================ ========
Ġk ub
Ġ' ');
pol ynomial
w ere
Hash Set
ex periment
rece ived
Ġkn ock
ĠThrow able
Desc riptors
ĠBar on
pres erve
a ire
is Function
ens ely
Ġbirth day
ac ht
ĠY O
ĠAd vent
Ġmore over
)= -\
S ci
ide al
/ {\
2 15
B tn
Ġs ail
ĠÂ ·
Build ing
user Id
omet ers
Ġh oping
MO VE
Ġsub sequence
Oct ober
f lip
Ġt c
awa ii
en z
ig s
ĠR S
imod al
) ^*
id i
Ġ( ;
Ġtrust ed
ACT IVE
Ġdr ives
h ibernate
Ġd irty
ME DI
Ġinn oc
Key Value
Ġpoor ly
Ġw age
output s
ĠGi ants
lo ose
del im
= </
De cember
5 50
Ġr v
ĠM ind
ort on
,\ ;
Ġres ort
ä ¿
ach i
rr rr
' )}
ĠBalt imore
B V
ĠH ess
Ġch ip
ĠArch itecture
ĠC UR
Tool tip
w b
l hs
Ġprom ised
in cess
ĠRob inson
Ad just
rece iver
Ġas p
t ies
Image View
part icles
Ġdisput e
TR ACE
Ġ à¤
W ire
ĠFl ag
ĠMan hattan
Ġcult ures
Ġconv icted
ĠIm Gui
Ġemer gence
part icular
r isk
text superscript
T rad
Ġev olving
Ġel der
Ġfle et
Supp lier
\ ",
ĠScient ific
port folio
success ful
pro logue
Perm alink
eg an
ĠP ars
quad r
andid ates
Ġactiv ated
Ġprotect ing
ĠS ab
19 35
LA ST
Ġattack er
Cast le
R anges
friend ly
D H
Part icipant
E mit
| $,
Ġre named
P icture
Ġnucle on
Ġcon vey
ins pect
N Unit
Symbol s
dor ff
ch ip
yst al
Ġad res
ĠUn iversal
Ġre plica
Sl ide
Ġmultipl ier
un i
Ġpul ses
ĠM OD
At om
}= {\
S CHE
Ġ$ +
con sumer
cor por
alt ies
ĠTH REE
ĠMet adata
Q C
ĠM ask
Ġorgan ic
Ġar cs
in fra
re load
ast ro
Ġdef ensive
sh iv
dis cuss
Ġgen es
ĠC ox
ĠBru ce
c z
Ġs sl
Î ¼
ĠA bs
19 37
US H
Ġaz imuth
Ġc oc
{\ "
Ġpre vention
co ordinates
D ead
ak ov
Ġfem ales
Table Name
L STM
Sw ap
Q T
G esture
Com bo
Ġsl ots
Ġdoll ar
int ent
") ),
Comp any
F old
d ed
ĠS r
default Value
Re peat
ear Down
A wait
ĠR oll
ĠInt elligence
Ġ\| _
http Response
Ġassign ments
Ġa pt
Ġavoid ed
Ġrenew able
Ġf iring
Ġdes ert
ro les
Ġdes erial
Ġtre ating
observ ation
perturb ative
ĠN V
ĠMot or
Ġmay or
convert ed
Ġtermin ate
ĠS election
reg ions
Ġsubt le
ĠMulti ple
Ġd z
m ob
}{ |\
Ġdr um
Ġtriple t
FO UND
ber ger
de ployment
ĠNot ification
ĠB ind
F requency
g rey
v ac
ĠV k
}{* }{\
(\ {
sh ader
Pres ident
ED IT
ĠMax imum
Ġemot ions
CLU DE
Con sum
comp any
Ġlight s
Â ®
ĠW right
iv o
std lib
Ġt ub
ĠS ta
Qu ota
Ġst uck
Render ing
ang a
ĠBr ig
ur acy
19 34
a is
ĠLeg isl
Ġtra v
Ġsuper vision
ĠR ab
V ote
Ġchar ity
Ġassert NotNull
ort ex
ĠB ron
high er
Bal ance
Ġwh itespace
act ivation
X iv
- %
Event Type
ĠRic ci
Ġstrugg ling
B LE
Block Index
ĠSam uel
Con d
Ġinst it
40 5
Ġgal actic
sim pl
{ +
Ġoccasion ally
Ġinv asion
ill o
L ANG
ĠLabor atory
q s
ĠM AC
ĠL ad
30 2
Ġst y
Ġant ib
Match ing
clean up
Ġassoci ations
ĠBang ladesh
ache l
Ġmes ons
sburg h
P rior
d ip
ol o
alo is
C rypt
sc enario
n h
ĠCommission er
Ġaccommod ate
ud o
ĠM ix
Ġbu ying
â Ī
Ġf oss
\, $\
akes pe
Cred ential
* -
f ine
Con sequently
ĠP ast
Nov ember
F X
ro ots
Ðµ Ð¼
Ð¸ Ñģ
AUT O
w eg
Ġserial izer
18 1
Ġtransp arency
Ġ' ;
app rop
Ġsh opping
R B
é ¡
att ack
Ġb oot
Ġ\ }$.
ĠN ic
Ġpri ze
Ġrac ism
S ens
ĠL ik
19 29
ĠJ oint
t om
Ġ ------------------------------------------------
ĠChar lie
Ġtr iggers
ram a
Ġs weet
ut enant
ĠC lick
Ġbi ases
å ĩ
Ġp unct
Ġminim a
urren ces
Ġpod s
Ġburn ing
ĠK ath
âĢ ī
>{ @
L ee
Ġs urre
t emporal
Ġc d
Ġstr len
reg istration
App lying
s low
Ġin hib
(" ")]
al ia
DE s
do jo
Ġl iv
Sept ember
L ef
Ġcha otic
Ġpre view
pol ymer
aa a
ĠRail way
per ience
track er
cccc cccc
ro utes
Ġsatell ites
Ġmist ake
ins ide
Ġcross es
N F
Ġqu art
ĠSe ctions
Ġj ail
Assert ion
Ġm ismatch
Ġl ake
ĠB io
col lections
ex periments
Ġpresent ing
ĠSch warz
Ġstr ongest
LOC ATION
h or
18 6
ĠMETH OD
Ġq q
ĠSto kes
19 19
Ġsil ent
ĠVill age
Ġspeak s
Ġrelax ed
Ġf rozen
ĠN LO
ĠK az
H ierarchy
Ġsynchron ization
s ure
as ant
}{ @{}
ĠDep uty
ĠI SO
\| _\
ph or
Ġarg c
Ġcosm ology
un ate
Ġarg ues
Ġd ating
pro cedure
yst er
Ġdead line
ĠG ray
Y ES
it ten
ĠO B
Ġle gs
ĠPar ser
c F
ĠD WORD
x r
åľ ¨
Ġ( __
Ġcur riculum
yc lic
ib lings
= #
\ :
ĠConnect icut
ĠU E
K im
s ap
{( -
\ #
Ġb om
Ġvacc ination
ber ta
ĠID s
Ġir regular
fra id
Ġsit uated
Ġgl u
in ely
ĠArch ives
g ru
Ġt issue
ĠCON TRACT
iv ic
30 3
Text Field
an ies
ĠS can
row e
s ensitive
ĠD ak
Ġpaint ings
ĠUn supported
match er
access or
Ġtrunc ation
Ġf est
Ġ- (
Ġmed ic
ĠB ERT
Fl at
s sec
Ġdiag nostics
v oc
Ġp kg
Un supported
Te chn
æĹ ¶
Ġun necessary
see k
Add itionally
el if
work space
ĠB ah
control led
Ġinh abit
b uck
navBar Cell
Call able
Ġm apper
}\ ]
ict ing
Ġspectro scopy
end ant
LO T
ĠLa place
tan h
ĠA PP
\ ;\
A mazon
ĠK ind
ĠCon sumer
ĠBlo om
th us
ĠG len
Ġgener ative
em a
LE X
B inder
mb f
Ġroot ed
ĠC ensus
ĠTest ing
T oo
Ġatt ending
gate way
Str ict
ĠPO ST
ĠP oincar
64 0
27 5
c riteria
Ġimport s
on er
ĠPro b
Ġimp lying
ĠK y
Ġachiev ement
th y
ĠEm ploy
Ġcolon ial
Ġinf ect
ĠU int
pl ier
iss a
Ġmusic ian
ĠMic hel
ĠT S
Ġeng aging
tt ify
ĠAss uming
at in
"> #
Ġperturb ed
Ġadvoc ate
Heading Color
Ġp as
,\,\ ,\,\
starts With
Ġpass enger
Ġtim est
ĠK ub
Ġresolution s
Rem oved
tim ing
Ġw et
, &
Ġg ateway
end um
Ġnav igate
Ġdim in
ĠGit Hub
ĠL uther
IM O
H istogram
ĠH R
Ġrevers ed
, -\
Ġth irty
Dim ensions
Dev ices
Ġ[ _
)\, .
Ġsub algebra
Ġ[ ])
Ġpos es
work flow
et ics
Code Analysis
akespe are
id ity
Ġsp ans
ĠC IFAR
"> {
la zy
Pl ane
flu ence
Ġl ua
ĠC leveland
Ġmod est
ĠN ap
Ġbro ker
o is
Ġpop up
Ġown s
Ġalleg ations
Th anks
tag Name
us ually
wh ose
Pi pe
ĠV a
Ġoff ense
C LE
H AS
ĠAdmin istr
un s
Sl ider
Ġc trl
Ġdesign ing
R oles
Ġw ine
Pl ugins
jav ase
ĠG lob
Writ ten
ex plain
ĉ ĠĠĠĠĠĠĠĠĠ
Ġspread ing
S IG
j peg
Ġh ockey
Te V
Ġdepart ure
Ġtechn ological
Ġess ay
ar ms
Ġpron ounced
7 20
MS earch
ĠG D
et imes
Ġin sufficient
x d
ĠHigh er
ĠId entity
d in
Off ice
D TO
Ġqual itatively
Ġfol ks
Al ready
Or Empty
Ġavoid ing
M us
CLA RE
ĠG A
ĠTra vel
jour nals
Ġcomple ting
Ġener get
b ach
dd ots
ĠBe ing
Ġconcept ual
ĠL iverpool
Ġvolunte ers
op eng
Ġpro gen
pur ple
plan et
Ð°Ð½ Ð¸
Ġcoord ination
H uman
Ġstar ring
Ġv alley
C nt
IT NESS
rele ases
Ġ" ]
Ġpart on
Ġpri est
ĠL S
xx xx
P et
pe st
d irty
); \
ir s
det ermin
Ġmut ation
v k
ĠPerson al
Ġanticip ated
ĠInt el
Ġcont amination
Result Set
Ġpropag ate
St ation
im ple
er ef
Ġann ually
Ġsupers ymmetric
)( -
H ot
)} ;
ĠSen ator
ĠD elta
Ġna ive
Ġsystem atically
ric ane
RE L
g ulp
hy thm
ĠCon struction
Ġevalu ations
Ġt uned
parse Int
RE PL
Ġfoot er
n oc
ĠR and
Ġeigen states
Ġwarn ed
Ġ@ @
Ġbr ands
get Node
b readcrum
Ġphon on
utr ition
der ived
Ġtour ism
Ġsav ings
Foreign Key
ĠN elson
styles heets
$ },
Ġdiscuss es
Ġquot es
Ġful filled
C os
olec ular
) `
ĠMoroc co
Ġ" __
Ġcon structions
Ġgraph ic
Ġspeak ers
azel cast
Mark up
ĠR u
L earning
f ork
Ġi OS
Ġblock chain
Watch er
Ġtrem end
b w
j l
s ix
ĠPol y
m om
oth y
Å į
ctx t
B roadcast
status Code
Ġcha os
Ġsp y
Ġen compass
typ ed
Ġsoc cer
path y
Ġabb rev
ĠM M
Ġ` --
hy dro
Require ment
on aut
im plicit
ĠK han
ĠS ac
b ac
ĠD T
Ġqu it
a head
Â »
Ġc ascade
ĠB atch
Ġvalu ation
Inf os
Out er
Ġc rop
ĠV K
Mod ify
Ġrandom ized
e ither
19 16
'' (
ĠT CP
Ġg ent
Lay ers
ĠReg iment
ymorph ic
Ġsc iences
ä¸ į
ĠExpect ed
ĠSk ip
ĠQuant um
E ff
Ġclaim ing
Ġpre t
me chan
Ġb ifurc
ĠEv ans
Ġterror ism
ap k
Ġse eds
Fin ish
Dependency Injection
prom pt
ital ic
Ġp ace
Ġh ang
lik elihood
om on
ĠTra its
Cred it
Ġ( -\
ĠN AT
Ġ' &
Ġcondens ate
ĠI ron
h size
ĠC B
ĠL en
}} },
ĠCh ile
ĠOb serve
ĠExt ract
Gr ant
Brit ish
Ġrecurs ively
P LAY
ĠBrown ian
ic z
GLE W
o ak
pl aces
Ġb es
eq z
proport ion
') [
preced ented
Ġprof ound
ĠM other
Ġpl acing
Ġmut ually
}\ }_{
C urrency
H ooks
Ġsimilar ities
)/ (
and ro
Ġdirect ories
K T
ĉĉĉ Ġ
ten ant
Ġs ke
h ai
Ġabsor bed
But tons
Ġconfirm ation
First Name
aus dorff
C andidate
ed ly
ĠH H
Ġpred ecess
Ġpoll ution
q r
Ġl ag
View port
Ġ'/ '
sur vey
w heel
Y M
Ġdef ence
\ &
register ed
ĠTrans fer
ĠRead er
ĠCh amber
Ġtra its
Grid View
/ ,
Work ing
Job s
Ġprevent ing
ip ient
Ex pressions
ĠS ent
at is
p w
Ġframework s
] ])
Rep orter
Ġtransform er
unn y
IST ER
aw ait
Ed m
em or
ãĥ ³
b usiness
param etric
Ġant is
Ġim prison
Ġconv in
Linear Layout
R W
Ġseem ingly
W IDTH
\, (
AR S
ĠW riter
Ġeigen vectors
ĠOver all
list eners
ĠAssoci ated
Ġt ie
Ġcon gress
DOCK ED
Ġincl ination
H op
Ġ$ ('.
Ġtag ged
k le
Ġencourag ing
Ġunemploy ment
' |
conn ector
Ġwor ship
bl ur
Address es
sim ulation
Ġf ut
fl avor
Pub Key
}) _
Ġv iable
ĠNor way
b end
ig g
1 200
Ġf antasy
Ġ+ (
ĠHigh way
ĠT IME
ĠU UID
br anes
P V
ĠC emetery
av al
ĠUn icode
J ap
] ):
so ftware
we ather
22 8
Ġ{ *}
ĠCap itol
p otent
Le af
Ġ× Ķ
/ -
Ġt uples
per ial
Ġsp rintf
ĠGir l
$ |
J y
ĠLe ave
Ġcalcul us
Ġpen et
comb ination
Ġd d
ĠS ometimes
Ġdem o
ĠQue stion
ph r
Ġingred ients
Ġc amps
ĠM os
Ġle ar
exec utor
Ġafford able
un iversal
ĠC old
ĠM T
Ġfasc inating
COMM AND
Ġsome body
Ġoptim izer
ĠG NU
Ġel iminated
Ġhar vest
Ġmyst ery
QU ERY
ĠI ce
f loating
ceed ed
PI C
Ġvalid ated
Ġadvers ary
CHAN T
Ġd rast
Ġcompr ises
Ġancest or
m outh
(' ',
ĠObserv atory
Ġthere of
Ġtyp ed
J av
Ġh ip
Ġin consistent
:: _
Ġafter wards
ĠUs ers
ĠSwed ish
Ġa perture
ĠM uch
ĠDirect ors
host s
; =
Ġbr ut
DO UBLE
Ã ´
Ġmem brane
DO C
h ass
ĠA stro
Ġtermin ology
@ \
mm as
ĠComple te
Ġre plication
ou ver
us hes
Ġrem n
Byte String
ĠA le
Ġdes per
ik ing
x b
ĠT an
Ġad mission
123456 78
22 3
em ia
ĠN an
Ġg ri
SP H
ĠE L
Ġdepart ments
Ġb oss
22 6
ĠComp are
Ġconvent ions
$ [
Ġresidual s
}| $
det ection
ĠSw iss
Ġgeomet ries
8 50
incre ment
Ġst adium
ĠInd ians
ĠGra ham
ĠG ary
Ġj umps
ĠG B
act ed
a uses
ose x
Ġevery day
Ġpers pectives
ĠÐ½ Ðµ
\ }^
Ġaltern ating
ĠLead er
ĠP eters
Ġpol ymer
publish er
ed e
Ġhit ting
V m
Ġqu i
Ġincred ibly
R educe
ĠDr ive
ĠMel bourne
Ġp up
P IN
Ġbit map
ĠPUR POSE
Ġdis connected
Inter pol
J ul
X T
Ġcomp ounds
Ġcheck point
ĠCamp bell
ĠK ings
Bo ost
B ob
Ġload s
l iter
Ġfl ights
Ġch ronic
Ġatt raction
,- .
ãĤ ĭ
Ġbe ach
WI SE
k el
Ġes lint
Ġveter ans
Ġt il
B ug
Ġam ended
CA ST
Pod s
) <\
Â ±
Ġjud icial
ĠArch ive
k an
ring tone
) ],
ME TA
Ġtheore tically
Ø ³
go als
ok emon
Willi am
ĠBen jamin
Ġple ased
d ictionary
ĠE mail
Un icode
Byte Buffer
rout ing
S parse
openc v
Ġrecru it
(' -
)}\ ,
ĠProv ince
pi o
be en
ol oad
Ġn ons
ĠSt ewart
Data Set
cor related
ĠCommun ication
ĠT EXT
Ġsupers ymmetry
Ġmark ers
Ġspher es
ĠC le
Ġcomm ute
Ġintu ition
ron es
Ġformer ly
) }}{\
W rong
e ur
et ermin
hed ron
Ġdiv iding
prot oc
ĠOpt im
un less
Serial ized
W il
ĠStan ford
Ġvent ure
\ .
Ġcount able
Ġ ub
Ġre jection
)\ ;
ĠB ird
Ġob servers
Ġc of
Rest ore
roll ing
Ġcapt uring
× ©
ex ponential
symbol s
V L
Ġpers u
Ġst mt
Ġbe an
ĠH ermitian
ĠP IX
os phere
user Agent
ĠTheore ms
sc apes
ĠE SP
sc ribed
Ġcount ed
23 8
Ġcontribut ors
Ġhost ing
ĠStud ios
E W
Ġking dom
ĠL R
ST OP
Ext ent
] )$
Ġr he
Ġres ume
vers ation
set Name
Ġpar ish
Ð°ÑĤ ÑĮ
"> Â
it ime
Ġconsum e
ĠR C
in finite
Ġsal ary
}, \,
ĠSh are
Cap abilities
ĠH um
Ġcount ies
ĠVAL UE
ĠB uff
ĠW W
æ Ń
ath on
eler ation
ASC II
Ġvirt ue
! )
n ick
Spec ifically
ĠConst ants
n th
ĠA rr
Ġselect s
Ġb s
Ġget Name
in el
set Property
Ġintr ig
}- {\
ĠAut om
has Class
AT FORM
ĠA rc
ĠR uby
tab colsep
ĠIn s
}( (
Ġconfig urable
Ġtax pay
min i
}= (\
RA W
Op acity
c ot
ĠIn struction
Ġc able
ĠD P
Comp atible
ick en
ĠStr ateg
Ġ ic
Ġ"/ "
ï¼ ļ
pro g
analy tic
Acknow ledgments
if s
Ġvalid ator
ĠR ate
ĠRe ynolds
Ġcontroll ers
Ġcelebr ation
Ġdrink ing
l av
ĠS plit
ĉĉĉ čĊ
vet ica
ĠB order
ĠAl bum
TH ON
pl anes
red is
Ġloc ate
Index Of
Config s
PT ION
ul sive
sv c
ab ort
Th omas
fore ign
Ġvol unt
\ },\
ĠDat aset
Ġim pression
Ġsec ular
P ag
Target s
Li u
Ġau ction
Ġtr ivially
Ġindic ators
ar ma
Ġbenchmark s
ĠDown load
Ġneighborhood s
Ġentang led
Exception s
inc ial
Ġaud it
Ñģ Ñı
Ġval ence
ĠY an
un ix
R ing
Ġcollabor ative
: _
V ED
play back
ir l
ĠP D
ĠN L
)\ }$
c S
ol ated
Ġl n
co herent
3 40
h ls
spec s
ĠAng el
Ġforest s
Ġguest s
H K
Ġag gressive
;& #
Ġcap s
tag on
SH OT
ĠIR S
w u
ĠC FT
show s
Ġexpans ions
Ĺ ãģ
Ġtem ple
L ater
Ġ{} ",
ĠSy rian
Ġinfin ites
+\ !
Ġrecord ings
ĠH S
19 32
Ġor acle
Sc enario
ov ic
Ġcontext ual
CD M
Ġprivile ge
2 16
ĠD un
< >
Ġre b
ĠKe pler
Ġf reed
ĠNaz i
ab etes
ĠR G
Ġconf irms
start ing
ĠIn novation
pres erving
] ],
Ġd ated
Ġaver ages
3 45
-- )
Ġdraw s
ac re
pr ising
Comput ed
ĠJ e
B ern
20 23
IT EM
Ġsus pic
Ġcorpor ations
D Y
Ġland ing
uli ar
ĠB aker
pre sto
ĠRep resents
cl usters
$ }.
em ale
ĠL ength
ĠB P
dr ive
EM ENT
ĠAUT H
up al
å Ĩ
che l
ĠĠĠĠĠĠĠĠĠĠĠĠĠĠĠĠĠĠĠĠĠĠĠĠĠĠĠĠĠĠĠĠ ĠĠĠĠĠĠĠĠĠĠĠĠĠĠĠĠĠĠ
Ġv a
Ġcoll apsed
M irror
os ities
t g
Ġs hed
if ice
ĠE R
Ġre ign
ĠZ ero
he v
Ġr pc
Ġback bone
Ġpre st
ST D
Ġcopy ing
To k
}^{ *}
ĠNev ada
er ase
ĠPlan ning
c D
M u
UT ION
Ġf idelity
ĠRead ing
ĠSt even
Last Name
ĠCh anges
m eth
á º
all ing
ĠMov ement
Ġinduct ive
ĠMit chell
}) _{\
Ġrat ings
Ġt ape
Ġdemand ing
co ord
writ eln
Form er
STO RE
Dem o
Volume Source
> ");
ĉ ĠĠĠĠĠĠĠĠĠĠĠĠĠĠĠĠĠĠĠ
Ġimm une
ĠC ook
ĠTr ace
ĠSch w
}) ]
PR I
Xml Element
Ġred ist
Ġport rait
Ġprint ing
numer ical
Ġsub class
Ġearth qu
m ir
new page
25 4
ĠDist ribution
c ube
ud ge
"][ "
Ġim posing
att empt
prov iders
wall paper
ĠN ames
22 9
Ġdelet ion
Appe arance
r te
Ðº Ð¸
ĠP ap
el ike
prov ide
bra ham
IAL IZ
W ild
iz ar
Ġl ux
Ġdo zen
ĠPART IC
Ġobl igation
bre ve
22 7
ival ent
]{ $\
poss ibly
Ġdenomin ator
ĠSte in
SN AP
se ar
Den ote
ĠF unc
Ġrest oration
ix on
è¦ ģ
c overed
Ġn u
Ġs ans
re cent
}) /
List en
Ġaccept ing
ĠIss ue
Ġst iff
Ġlob by
Ġjav adoc
Ġup stream
Ġcas ual
plo ys
% ">
ow ell
Ġre wards
Ġre ception
ĠFe atures
mic ron
)} )$
Ġbre ast
3 64
w right
ĠC LI
ĠS ep
sp atial
ĠO scar
per f
Ġn umpy
H istor
Ġpuls ar
b ands
incre asing
Ġconstit utes
Ġb link
Ġback wards
press ure
gra ined
AD ER
ib an
Ġdwar fs
ĠMar shal
C rypto
Ġv essel
Ġadjust ment
ĠS PE
) &=\
K ub
Ġreflect ing
ĠTele scope
- )
irection al
um ptions
Scal ing
Ġsh ield
BO X
Ġm arch
ĠC ould
Inter ceptor
è ¨
ĠColl ins
ĠC ounter
Ġtunnel ing
C XX
ĠN ag
Ġco aches
fix tures
ĠT M
MEM ORY
ph ore
ĠTai wan
Ġambig uity
ĠQ ual
Call s
d ll
Ġam id
ch t
W all
Fl ash
Spec ification
is EqualTo
ĠS ame
$. \
oo f
} &=&
ĠN UM
def i
V B
Ġoverwhel ming
ĠHop f
s chool
Ġf ade
Pr inter
æ Į
class List
Ġgroup ed
Doc uments
ĠHy per
Ġtempor arily
ĠR oot
Comp act
Term s
ĠBlock ly
ĠBr anch
ĠNetwork s
24 7
Property Name
top ology
ĠTrans former
Ap ache
Sm ith
ĠCal endar
E lect
)) =\
d ma
re duction
Ġdis advanta
N or
Sw ift
ĠArk ansas
ĠA CT
Ġscre ens
ĠWay ne
def s
Over all
enez uel
Ġt abs
Ġconsum ed
CONNE CT
ĠP uerto
set counter
K ing
Ġcatalog ue
ĠRog er
ĠB art
Sc oped
progress ive
Ġscholar ship
ĠFile s
A sc
Ġp ill
dom in
ĠT am
Ġal lies
CEP TED
ate ur
sequ ential
Co ordinate
n of
Buffer ed
ĠQue ue
Ġdog s
Ġb read
sole te
ĠPro xy
3 80
pr im
ĠBel ow
ĠB apt
ĠUrb an
Ġm ere
Ġel ite
station ary
19 10
m ol
ord ion
Ġdis abilities
erm ost
Ġh ass
ir ically
ĠG URL
Ġrespons ibilities
Ġlogarith m
Contin ue
B orn
N othing
y t
pher es
restrict ed
Ġt ale
ĠRE ST
ĠGener ation
author ization
callback s
Ġsec urities
ri o
Ġh ull
th a
Ġhost name
ĠO DI
}}$ -
Ġnecess ity
Unmar shal
Ġsustain ability
Ġin aug
R CC
ĠT LS
ps frag
Diag ram
Gu ard
Ġpr inter
ç½ ®
Ġam endment
Ġdesc riptors
contain ing
S ensor
net ty
-> {
}[ (
B UT
Ġprof its
unit test
ap or
comp at
lot te
( _.
order ing
Stream s
Ġg otten
Ġmiss ions
d ead
26 5
Ġprote ins
h on
ĠImmutable List
in vest
Ġlet s
av oid
Ġincorpor ating
ug g
IG H
ĠElect ric
ues e
ĠAust ria
imit ives
ĠX XX
Ġl as
Ġl un
Ġun precedented
Is Valid
ĠMa ine
M g
ĠC ou
ĠRepresent atives
et on
ĠC MS
ir ates
Ġestablish ments
ĠB achelor
act ory
te es
Ġutil izing
Ġ[ $
ST AR
Ġmem orial
="../../../../../../ ../../
ch r
}\ !\
Ġwitness es
: ",
; (
is dom
ic ast
ess els
Ġcle ared
v f
pp y
Locale Resource
Ġroy al
ĠM oney
ĠH ell
Ġun a
hol m
Ġch ron
Ġign oring
hab ilit
ĠDel hi
) ](
Ġst er
)$ \
66 6
CHANT ABILITY
æ Ģ
Enc ryption
Q P
add All
PR INT
Ġmem o
Ġview ers
EX EC
Ġsort ing
Ġsh aped
larg er
ot ive
ĠL anc
Ġident ically
Trans late
y outube
Ġl ingu
cit ation
ni h
ĠW orth
IST S
CUR RENT
ep och
Ġcharg ing
ĠCamp aign
text subscript
Ġappro ached
Ġglob e
c ous
Ġdemonstr ation
Ġcell ular
Ġb ills
ĠC over
Ġ& $\
og ical
US A
Incre ment
W ER
MAG ES
}_{ +
}' \
+- +-
May be
Ġenumer able
24 8
Ã µ
v ark
Ġs lices
f at
pr ises
anc ouver
Ġmer gers
ĠMe asure
un checked
') ),
emph asis
c rypt
ĠFIX ME
Ġunder graduate
ĠWrit ing
ĠInt ent
ĠSpe ed
b io
ĠP il
ĠG EN
ĠW a
Ġche ap
(' _
ĠA ctor
xy z
ĠIMP LIED
assert Same
dec imal
Ġ' :
DE SCRIPT
Ġreported ly
Ġball ot
ĠSupp lement
Ġapproach ing
Ġdimension ality
ĠCr iminal
ĠCol omb
IN X
unit Pattern
Ġtele phone
è¡ ¨
Ġan xiety
Ġ$< $
h is
Ġsh or
check er
e i
ĠB og
In herited
Ġspin or
amplit ude
) ")
List Item
Ġno ble
**************** ********
Ġspecific ations
ĠMed al
Ġa fraid
erc ise
he ll
yn e
26 2
Ġsuggest ion
ĠAb d
ynch ro
add plot
Ġdam ages
Ġgu ided
s ynchron
L t
Ġmultip ly
ĠL ane
ĠH erm
RE SOURCE
Ġfib re
a uc
})- (\
... "
Ġ' __
Ġsh ard
Ġdec oded
Ġconcent rations
di am
Ġmorph ology
m ind
m itt
ig ion
Mean while
re pos
Ġfollow ers
Ġmin istry
st or
Ġcontribut or
ĠS Ne
Prov iders
B ank
C Y
\ ;\;
Ġj ew
ĠAn imation
Ġansw ered
ĠIn stitution
ĠAnd y
ĠConst raint
Ġw ishes
ĠĠĠĠĠĠĠĠĠĠĠĠĠĠĠĠĠĠĠĠĠĠĠĠĠĠĠĠĠĠĠĠ ĠĠĠĠĠĠĠĠĠĠĠĠĠĠĠĠĠĠĠĠĠĠĠĠĠĠĠ
R N
pp ler
box es
po on
S ep
T K
ĠM ouse
Ġsh ifting
inal s
Ġtest imony
User Id
2 14
Ġterm inated
Ġcert ified
Ġle ase
Ġfree ze
equiv ariant
Ġre vised
Ġover lay
Inter action
at ility
ĠMarg aret
BU F
Ġs z
ĠN amespace
Ġrot ations
M Hz
Loc ations
am ents
Ġscient ist
$. \\
Ġcol ours
å ½
Access ibility
Ġvers a
C ycle
Ġinfe ctions
ll vm
prop ag
ĠCompar ison
Ġoverse as
R ic
Ġe ating
Ġfor bidden
ĠCH AR
ĠAnton io
ĠG il
ĠPaul i
ĠK u
Ġsuccess or
Bind ings
Å Ļ
b h
ĠS ocket
ĠT uple
ici ary
d ale
Ġg olf
ĠF al
Ġl d
ĠIran ian
ĠÐ½ Ð°
Re plication
le tt
}\ }
art s
acknow ledgments
Ġ' *
Ġ[ `
alloc ator
ĠN amed
Port s
us c
ĠIm plementation
ev aluation
ĠThrough out
Ġsynd rome
print s
Ġformula e
ĠYuk awa
Ġter rible
6 50
D eb
W hether
ĠUpd ated
Ġre ar
qu asi
Block ing
es gue
qu arter
ĠDise ase
Ġ* );
get All
Ġam end
Ġpri ors
Ð°Ð ´
Ġtend ency
Ġ$ %
Ġun ions
strict Equal
Ġcinem a
op edia
IM ARY
' ></
in burgh
Ġtarget ing
Ġfac et
Ġcapt ain
ĠAssoci ate
m other
Ġb esides
Ġgather ing
Ġfor um
ad ers
ig ating
Ġdecom posed
> @
Ġdo se
Ġe col
ĠH ills
ĠQue st
Ġicon ic
hard ware
V elocity
Ġin ad
Ġst ays
Ġ} ^{
Ġal ien
network s
ĠOper ator
A ware
ĠB ou
cred it
ĠSh akespeare
H i
ĠMor ris
Ġlat itude
ĠH z
B ill
Ġin ches
first Child
Ġrec urrent
ĠStan ley
j vm
ĠF er
AC CEPTED
F ault
Ð¾ Ð½
ĠPr imary
semb ler
sel enium
0 15
Ġspon sor
+ |\
ĠT ower
ĠK err
Lin ux
Ġcontrovers y
ĠFac ulty
Ġ\ ;\;
Ġd ad
ĠPARTIC ULAR
E U
c ms
ME T
Ġinc idence
Ġt aste
Fe bruary
Ġsubt raction
Ġaccount ed
Ġmultipl ied
Field Name
ĠPublish ing
8 75
Ġvar char
G PU
is olate
}) )$
Ġstake holders
"> {{
Ġmind s
ĠL oop
ĠIllegal StateException
ĠPsych ology
Ġw ars
Du plicate
ĠL D
Ġrad ar
Ġroll ing
Ġshort cut
Q Q
um ably
Ġres ign
Ġun supervised
Ġeduc ated
Ġestab lishes
re striction
Ġactiv ist
g host
ĠP ick
to pe
Ã© t
ĠSaf ari
og ue
Ġpract ically
Ġvolunte er
D ynamically
ĠG round
Ġplaus ible
~ ,
ri ot
s elling
dis pose
Th ough
SR C
Ġlift ed
ĠBar bara
Project s
Rich ard
Ġ ])
ac s
ink s
Ġproblem atic
)) ]
[ $\
err no
Ġen umerate
Ġt iles
Pre par
cur ves
N an
sur ance
ĠC IA
Con cept
Ġtrans fers
Ġwe ird
Ġtrad itions
Object Type
)] \
opens sl
Ġconvin ced
Ġbehav es
Cor rect
Ġv in
Ġch unks
und o
Ġun icode
30 5
CH O
ĠPhys ical
Ġsh ipping
get Int
ĠV ec
ribut ing
rec ation
Ġalter ed
C ritical
In strument
row ing
Al location
ĠW ol
Ġdet ections
ĠAn im
ä¸ º
3 10
ĠM age
J acob
\ (
ĠBy tes
24 6
serial izer
Ġpen al
Ġsuscept ibility
w r
Ġf ibration
Ġact ed
non linear
ĠG AN
D ump
I mm
ĠD iff
EN UM
Ġm ature
Ġcommand er
M Y
[ ->]
Ġ\ ;\
d an
or ious
ĠP ent
pm d
`` .
ĠJacob ian
h ift
Ġaccum ulated
0 100
ĠCalcul ate
Ġpo ison
Ġjo ins
A IL
Index es
Ġdep icts
ĠAuth ors
K P
t alk
in come
Ġtable Name
Ġm os
Var id
ac ency
Ã¼ r
rowe ak
Ġsur f
Ġre forms
ĠR ick
gr p
ĠAl ert
Ġcent roid
ĠMER CHANTABILITY
Ġass ass
Pos itions
yl um
s af
ĠP ER
Ġform atter
Ġcommission ed
ac ular
P ing
Ġdam aged
g om
pro files
//////// ////
Ð Ĵ
Ġ" #{
c andidate
per mal
25 3
track ing
pl ant
Ġsurve illance
Ġhe ll
Ġexp ose
Ġess ence
WA IT
it ored
Ġglyph icon
L azy
}$ \,
ĠR ever
target s
i our
Pack ages
r ise
Ġshock s
ymmet ries
Click Listener
' ><
Ġ' \\
Ref s
ĠT ar
B ulk
ĠHon or
ĠPitt sburgh
Ġmunic ipality
Ġp name
Ġpa use
0 13
] |
= _
ĠB ag
OB J
T IP
Ġj u
Ġde alt
ĠSp ark
Ġrepro duced
Ġintersect s
t pl
Ġc razy
Ġchar s
I ZE
vis ited
Full Name
4 75
n k
w al
IS A
Ġfast est
Ġcon ce
ĠLand au
ole sc
Ġhabit at
ang ler
Ġpointer s
LAB EL
em in
Ġstd out
get File
L oss
ĠE li
Ġdis orders
n ational
view er
ĠStart ing
ĠS B
lo yd
Ġcl azz
Ð¾Ð ¹
Ġ} }</
ĠW oman
ĠU T
Im mediate
K a
ĠMar vel
G i
m ine
To Array
Ġconsist ed
Ġarchitect ural
general ized
Clean up
Ġcontrad icts
re li
Ġnot ifications
ĠSc ene
un til
Ġwork force
Property Value
Ġrecurs ion
C Sharp
19 27
ĠJeff erson
b rowse
"> )</
ĠMur ray
ĠLy apunov
b z
Ġport al
Ġvacc inated
+ (\
c rop
ib bean
24 2
UN IT
Ġemb ed
ĠTele vision
ĠS ync
l ane
Ġc pu
enu es
IF ICATION
y ii
att rib
Un fortunately
Action Bar
ĠBol tzmann
b ie
å ¾
ĠS quad
ĠA pr
ĠBroad way
ĠMalays ia
be hav
ĠP ad
Ġsurprising ly
ĠC MD
B esides
spect ra
Ġi put
æ Ķ
ĠBro thers
Ġ( &
ĠC BS
Quant um
19 31
ĠNet flix
Ġc rypto
pass ed
Ġresid ue
net s
SY STEM
f abric
ST ACK
R ele
comp atibility
illi ps
Ġman ages
26 3
Ġw av
Ill uminate
Ġcon finement
Ġhand ed
ĠV ery
ams ung
Leg acy
M appings
S and
CCCC FF
Ġd ub
ĠArm en
c ro
Ġtim eline
x z
bit map
. %
S pl
ĠCo al
ĠA vailable
Ġextrem al
ĠGib bs
Trans actions
Tr ansp
ĠApp end
Ġsem ic
× ŀ
Der ived
loc ated
Ġw ast
Ġsp ir
ĠR ace
28 5
Ġmacro scopic
ĠC rown
ĠM is
In c
Ġme at
ĉĉĉĉĉĉĉĉ ĉĉĉĉĉ
Ġinvent ory
C ENTER
il iation
Ġcl ot
ĠRef er
ne eds
Ġ&& \
C as
re ck
Ġrec i
/* .
ah oo
pre duce
Ġconf used
SC A
ĠFe ynman
ĠA the
B ol
Ġg all
x si
=" .
row ave
& +\
ĠW olf
Ġcl othing
Ġsu ited
View Model
Ġfol k
/ ',
l umin
ĠInd igenous
ac a
roll ment
*}[ !
m ul
Ġpsych ology
No Error
æį ®
Ġh r
re search
Ġnumer us
Ġda ughters
ĠUn known
}) \,
> {{
iz ational
Ġatt enu
Ġfund ament
CRE X
Ġm ir
Prov ince
permal ink
Ġqu ota
Ġfun ctors
P oll
ĠM inkowski
ĠG as
Ġland mark
th umbnail
Ġobst acles
Ed ges
ĠInvest ment
ĠH I
li qu
Ġcomp ass
cent ric
Ġ{ ?}
S ING
ĠK r
ĠEx port
ĠTerm s
ĠMc G
ĠAnt i
solution s
ĠP i
c ategor
Ġv endor
SUPP ORTED
Ġm ountains
am d
Ġ` .
C ou
H ASH
Ġâ Ĥ¬
z ym
Ġinc idents
k p
Ġsubstr ate
H M
ĠG DP
P referred
f u
ul u
Ġexperi encing
ĠS outheast
inv ocation
Ġpiece wise
ce led
con nections
pack ed
ĠM aur
Ġengine ers
Ġintu itive
rott le
ĠIndones ia
all ax
}( [
Ġd rew
Ġdata Type
icon duct
}\| _
Need ed
Ġg ard
ĠĠĠĠĠĠĠĠĠĠĠĠĠĠĠĠĠĠĠĠĠĠĠĠĠĠĠĠĠĠĠĠ ĠĠĠĠĠĠĠĠĠĠĠĠĠĠĠĠĠĠĠĠĠĠĠĠ
Ġd inner
ĠT D
deriv ative
Act ual
R m
Ġf ires
inter est
Ġ< \
_+ (
Ġsusp ension
Ġf antastic
Ġex cluding
rect angle
Ġmit igate
Sub scriber
Ġheter ogeneous
w l
19 28
ĠN amely
ĠJ oin
Ġpo em
Ġdream s
v ing
ref lection
ĠV A
ĠGener ator
ĠD ance
Ġtransl ates
ĠM echan
Ġsoci eties
ĠK ir
SQL ite
AL T
ĠH awaii
Ġp ic
ju ana
G ap
M otion
Ġsent enced
cre st
irm ingham
N LS
Ġple asure
d ynamical
ĉ ĠĊ
p ager
ang ent
Lef trightarrow
IL D
25 2
> ]
30 8
ĠPRO VID
Ġhypers urface
Ġremember ed
Ġregard s
coll ision
ari juana
Ġlif ting
Ġsh ader
ĠJ ess
FI X
ĠA thlet
Ġperm its
ĠAgain st
att s
Ġpers istence
Ġab ilities
comm unity
libr aries
re ve
ĠAn na
Ġgr asp
Ġdemonstr ating
D am
Ġf ocal
pr imitive
Ġan not
rema ining
B log
get Resource
Ġper ipheral
ãĤ ¹
w c
ĠChampion ships
pher ical
S NR
l x
Ġdeliver ing
é Ĺ
Ġachiev able
}} )$.
ĠF eed
in ces
or ov
Ġh orses
ma preduce
des erialize
19 22
ĠD F
Ġid le
oc cup
Ġchar ter
par s
Record ed
ĠPre vious
Ġvill ages
Ġnewsp apers
Ġp ow
ĠK illing
sm ash
Second ary
u ction
Ġv enue
Ġpr icing
Ġca ution
}\ ;\
Ġtrack er
Ġbrilli ant
if teen
ĠK ol
f eld
ĠURL s
Ġb one
ĠI sing
aver aged
T ilde
W L
Ġapplic ant
amer on
Ġp g
(" ",
ĠPark er
Ġcod imension
vis ions
Ġdrop down
Ġf t
im o
ue z
ĠRe place
ĠE ither
eh icle
Ġadvent ure
} &=
ĠC row
ĠB ud
}} }_
" })
Res erved
Ġpe oples
insert ion
PRE C
in struction
tab len
3 15
clip se
le igh
ĠH im
Ġnon empty
19 21
ĠSche dule
abs or
Dig est
Ġsepar ating
Ġfil ing
Ġsort s
Ġdismiss ed
Ġen rich
Ġmon oton
ĠBelg ium
H N
Ġcou rage
Ġredund ant
Ġsh aded
ĠP icture
ici encies
get Item
50 5
ĠMag ic
built in
m el
Ġw ounded
Ġpro sper
Tag ged
Lif ecycle
ĠL if
stream s
ĠImage Net
Ġprot ons
ĠMar ie
Ġtouch down
ASS IGN
Ġe leg
re pr
ĠGr ass
> #
ĠB B
Ġpoint wise
Ġeth ical
separ ated
ç ī
] ^-
Ġb ail
array stretch
ĠFro benius
ane an
24 3
SCHE MA
J J
is Null
Ġunder ground
inter section
ĠN ik
Ġund erm
Tr ust
Ġbl ame
T abs
ob i
Ġcomp elling
BIND ING
Ġ& +
ĠCh ain
Ġobst acle
ĠKn ight
Ġcon ject
Con current
23 9
Ġhuman itarian
Ġt p
Ġcur ved
Ġbe er
ĠP ossible
charg ed
List Result
ĠCon figure
User Agent
Ġdegrad ation
**** *
Ġpec uliar
H en
ĠP SF
Bl ank
S ong
Sim ulation
d ie
Ġc ab
ra ke
ĠSt ev
M il
ä ¾
Ġl oose
ĠAl ong
mark ed
ÃŃ a
ĠPerm ission
y z
Ġb t
Ġcon gru
hen g
Un ary
C MS
G U
Ġbreak down
A ML
ĠWe bsite
ĠVert ex
F re
ĉĉ ĠĠ
ä ¹
Ġre name
Ġn obody
ĠThe ater
Ġdec ides
ĠPal ace
Ġbare ly
Ġf p
Ġnew er
[...]
