{
  "version": "1.0",
  "truncation": null,
  "padding": null,
  "added_tokens": [
    {
      "id": 0,
      "content": "[UNK]",
      "single_word": false,
      "lstrip": false,
      "rstrip": false,
      "normalized": false,
      "special": true
    }
  ],
  "normalizer": null,
  "pre_tokenizer": {
    "type": "Sequence",
    "pretokenizers": [
      {
        "type": "Digits",
        "individual_digits": false
      },
      {
        "type": "ByteLevel",
        "add_prefix_space": false,
        "trim_offsets": true,
        "use_regex": true
      }
    ]
  },
  "post_processor": null,
  "decoder": null,
  "model": {
    "type": "BPE",
    "dropout": null,
    "unk_token": "[UNK]",
    "continuing_subword_prefix": null,
    "end_of_word_suffix": null,
    "fuse_unk": false,
    "byte_fallback": false,
    "vocab": {
      "[UNK]": 0,
      "!": 1,
      "\"": 2,
      "#": 3,
      "$": 4,
      "%": 5,
      "&": 6,
      "'": 7,
      "(": 8,
      ")": 9,
      "*": 10,
      "+": 11,
      ",": 12,
      "-": 13,
      ".": 14,
      "/": 15,
      "0": 16,
      "1": 17,
      "2": 18,
      "3": 19,
      "4": 20,
      "5": 21,
      "6": 22,
      "7": 23,
      "8": 24,
      "9": 25,
      ":": 26,
      ";": 27,
      "<": 28,
      "=": 29,
      ">": 30,
      "?": 31,
      "@": 32,
      "A": 33,
      "B": 34,
      "C": 35,
      "D": 36,
      "E": 37,
      "F": 38,
      "G": 39,
      "H": 40,
      "I": 41,
      "J": 42,
      "K": 43,
      "L": 44,
      "M": 45,
      "N": 46,
      "O": 47,
      "P": 48,
      "Q": 49,
      "R": 50,
      "S": 51,
      "T": 52,
      "U": 53,
      "V": 54,
      "W": 55,
      "X": 56,
      "Y": 57,
      "Z": 58,
      "[": 59,
      "\\": 60,
      "]": 61,
      "^": 62,
      "_": 63,
      "`": 64,
      "a": 65,
      "b": 66,
      "c": 67,
      "d": 68,
      "e": 69,
      "f": 70,
      "g": 71,
      "h": 72,
      "i": 73,
      "j": 74,
      "k": 75,
      "l": 76,
      "m": 77,
      "n": 78,
      "o": 79,
      "p": 80,
      "q": 81,
      "r": 82,
      "s": 83,
      "t": 84,
      "u": 85,
      "v": 86,
      "w": 87,
      "x": 88,
      "y": 89,
      "z": 90,
      "{": 91,
      "|": 92,
      "}": 93,
      "~": 94,
      "¡": 95,
      "¢": 96,
      "£": 97,
      "¤": 98,
      "¥": 99,
      "¦": 100,
      "§": 101,
      "¨": 102,
      "©": 103,
      "ª": 104,
      "«": 105,
      "¬": 106,
      "®": 107,
      "¯": 108,
      "°": 109,
      "±": 110,
      "²": 111,
      "³": 112,
      "´": 113,
      "µ": 114,
      "¶": 115,
      "·": 116,
      "¸": 117,
      "¹": 118,
      "º": 119,
      "»": 120,
      "¼": 121,
      "½": 122,
      "¾": 123,
      "¿": 124,
      "Â": 125,
      "Ã": 126,
      "Ä": 127,
      "Å": 128,
      "Æ": 129,
      "Ç": 130,
      "È": 131,
      "É": 132,
      "Ê": 133,
      "Ë": 134,
      "Ì": 135,
      "Í": 136,
      "Î": 137,
      "Ï": 138,
      "Ð": 139,
      "Ñ": 140,
      "Ò": 141,
      "Ó": 142,
      "Ô": 143,
      "Õ": 144,
      "Ö": 145,
      "×": 146,
      "Ø": 147,
      "Ù": 148,
      "Ú": 149,
      "Û": 150,
      "Ü": 151,
      "Ý": 152,
      "Þ": 153,
      "ß": 154,
      "à": 155,
      "á": 156,
      "â": 157,
      "ã": 158,
      "ä": 159,
      "å": 160,
      "æ": 161,
      "ç": 162,
      "è": 163,
      "é": 164,
      "ê": 165,
      "ë": 166,
      "ì": 167,
      "í": 168,
      "î": 169,
      "ï": 170,
      "ð": 171,
      "ò": 172,
      "ó": 173,
      "ô": 174,
      "Ā": 175,
      "ā": 176,
      "Ă": 177,
      "ă": 178,
      "Ą": 179,
      "ą": 180,
      "Ć": 181,
      "ć": 182,
      "Ĉ": 183,
      "ĉ": 184,
      "Ċ": 185,
      "ċ": 186,
      "Č": 187,
      "č": 188,
      "Ď": 189,
      "ď": 190,
      "Đ": 191,
      "đ": 192,
      "Ē": 193,
      "ē": 194,
      "Ĕ": 195,
      "ĕ": 196,
      "Ė": 197,
      "ė": 198,
      "Ę": 199,
      "ę": 200,
      "Ě": 201,
      "ě": 202,
      "Ĝ": 203,
      "ĝ": 204,
      "Ğ": 205,
      "ğ": 206,
      "Ġ": 207,
      "ġ": 208,
      "Ģ": 209,
      "ģ": 210,
      "Ĥ": 211,
      "ĥ": 212,
      "Ħ": 213,
      "ħ": 214,
      "Ĩ": 215,
      "ĩ": 216,
      "Ī": 217,
      "ī": 218,
      "Ĭ": 219,
      "ĭ": 220,
      "Į": 221,
      "į": 222,
      "İ": 223,
      "ı": 224,
      "Ĳ": 225,
      "ĳ": 226,
      "Ĵ": 227,
      "ĵ": 228,
      "Ķ": 229,
      "ķ": 230,
      "ĸ": 231,
      "Ĺ": 232,
      "ĺ": 233,
      "Ļ": 234,
      "ļ": 235,
      "Ľ": 236,
      "ľ": 237,
      "Ŀ": 238,
      "ŀ": 239,
      "Ł": 240,
      "ł": 241,
      "Ń": 242,
      "ĠĠ": 243,
      "ĠĠĠĠ": 244,
      "Ġt": 245,
      "in": 246,
      "on": 247,
      "er": 248,
      "Ġa": 249,
      "he": 250,
      "at": 251,
      "re": 252,
      "en": 253,
      "Ġthe": 254,
      "or": 255,
      "st": 256,
      "al": 257,
      "it": 258,
      "ion": 259,
      "ĠĠĠ": 260,
      "Ġc": 261,
      "le": 262,
      "ar": 263,
      "an": 264,
      "ĠĠĠĠĠĠĠĠ": 265,
      "Ġs": 266,
      "Ġo": 267,
      "is": 268,
      "Ġf": 269,
      "es": 270,
      "ed": 271,
      "Ġw": 272,
      "Ġp": 273,
      "ro": 274,
      "ing": 275,
      "ic": 276,
      "et": 277,
      "ct": 278,
      "Ġb": 279,
      "Ġin": 280,
      "Ġ\\": 281,
      "nd": 282,
      "Ġof": 283,
      "Ġd": 284,
      "as": 285,
      "Ġ$": 286,
      "Ġm": 287,
      "el": 288,
      "ent": 289,
      "am": 290,
      "ou": 291,
      "Ġto": 292,
      "Ġand": 293,
      "ig": 294,
      "Ġth": 295,
      "Ġre": 296,
      "Ġn": 297,
      "om": 298,
      "ĠĠĠĠĠĠĠ": 299,
      "ation": 300,
      "im": 301,
      "il": 302,
      "ac": 303,
      "id": 304,
      "Ġ=": 305,
      "Ġe": 306,
      "Ġh": 307,
      "Ġ(": 308,
      "ol": 309,
      "ot": 310,
      "ut": 311,
      "se": 312,
      "ur": 313,
      "Ġis": 314,
      "{\\": 315,
      "Ġl": 316,
      "iv": 317,
      "od": 318,
      "ĉĉ": 319,
      "ul": 320,
      "if": 321,
      "ce": 322,
      "ĠT": 323,
      ");": 324,
      "ra": 325,
      "čĊ": 326,
      "ab": 327,
      "Ġ<": 328,
      "qu": 329,
      "ĠS": 330,
      "Ġ{": 331,
      "Ġv": 332,
      "ge": 333,
      "Ġfor": 334,
      "um": 335,
      "ow": 336,
      "ad": 337,
      "Ġg": 338,
      "th": 339,
      "--": 340,
      "em": 341,
      "un": 342,
      "=\"": 343,
      "pe": 344,
      "ex": 345,
      "Ġst": 346,
      "ate": 347,
      "ĠC": 348,
      "ction": 349,
      "ĠA": 350,
      "ch": 351,
      "us": 352,
      "ly": 353,
      "ath": 354,
      "Ġcon": 355,
      "end": 356,
      "_{": 357,
      "pt": 358,
      "ĠĠĠĠĠĠĠĠĠĠĠ": 359,
      "//": 360,
      "Ġbe": 361,
      "Ġ*": 362,
      "ith": 363,
      "</": 364,
      "ĠI": 365,
      "ver": 366,
      "Ġon": 367,
      "Ġthat": 368,
      "ht": 369,
      "ist": 370,
      "oc": 371,
      "eg": 372,
      "ass": 373,
      "Ġ$\\": 374,
      "ter": 375,
      "âĢ": 376,
      "Ġ}": 377,
      "ri": 378,
      "res": 379,
      "Ġas": 380,
      "ir": 381,
      "Ġ&": 382,
      "ame": 383,
      "ve": 384,
      "ub": 385,
      "math": 386,
      "ay": 387,
      "ers": 388,
      "ef": 389,
      "Ġpro": 390,
      "ĠM": 391,
      "pp": 392,
      "ta": 393,
      "Ġwith": 394,
      "ue": 395,
      "ph": 396,
      "and": 397,
      "Ġan": 398,
      "Ġal": 399,
      "ew": 400,
      "ĠP": 401,
      "ext": 402,
      "ma": 403,
      "Ġex": 404,
      "20": 405,
      "est": 406,
      "ect": 407,
      "os": 408,
      "tr": 409,
      "Ġwh": 410,
      "ess": 411,
      "Ġ\"": 412,
      "ĠĠĠĠĠĠĠĠĠĠĠĠĠĠĠĠ": 413,
      "ight": 414,
      "ine": 415,
      "ref": 416,
      "ĠĠĠĠĠ": 417,
      "ity": 418,
      "ort": 419,
      "ĠB": 420,
      "}\\": 421,
      "lass": 422,
      "ĠF": 423,
      "ure": 424,
      "\">": 425,
      "ĠĊ": 426,
      "()": 427,
      "per": 428,
      "ore": 429,
      "iz": 430,
      "}$": 431,
      "^{": 432,
      "pl": 433,
      "art": 434,
      "ĠR": 435,
      "ment": 436,
      "age": 437,
      "**": 438,
      "Ġthis": 439,
      "Ġby": 440,
      "ĠThe": 441,
      "Ġcom": 442,
      "ĠD": 443,
      "Ġwe": 444,
      "ere": 445,
      "urn": 446,
      "Ġit": 447,
      "ult": 448,
      "rom": 449,
      "ĠL": 450,
      "able": 451,
      "our": 452,
      "ĠH": 453,
      "int": 454,
      "ial": 455,
      "Ġare": 456,
      "Ġor": 457,
      "ite": 458,
      "con": 459,
      "ĠN": 460,
      "op": 461,
      "nt": 462,
      "up": 463,
      "ĠE": 464,
      "ĠW": 465,
      "ag": 466,
      "Ġif": 467,
      "turn": 468,
      "sp": 469,
      "li": 470,
      "ype": 471,
      "ive": 472,
      "Ġat": 473,
      "Ġr": 474,
      "og": 475,
      "ke": 476,
      "}}": 477,
      "cal": 478,
      "ack": 479,
      "ĠG": 480,
      "ies": 481,
      "ep": 482,
      "..": 483,
      "orm": 484,
      "ode": 485,
      "(\\": 486,
      "ant": 487,
      "----": 488,
      "text": 489,
      "==": 490,
      "Ġ'": 491,
      "ile": 492,
      "ud": 493,
      "get": 494,
      "ption": 495,
      "ap": 496,
      "ill": 497,
      "ft": 498,
      "Ġfrom": 499,
      "egin": 500,
      "ans": 501,
      "Ġclass": 502,
      "begin": 503,
      "ld": 504,
      "00": 505,
      "all": 506,
      "ec": 507,
      "equ": 508,
      "Ġ-": 509,
      "lic": 510,
      "ase": 511,
      "Ġy": 512,
      "ple": 513,
      "ace": 514,
      "ition": 515,
      "Ġnot": 516,
      "ata": 517,
      "ĠĠĠĠĠĠĠĠĠĠĠĠĠĠĠ": 518,
      "av": 519,
      "ign": 520,
      "In": 521,
      ")$": 522,
      "ind": 523,
      "_{\\": 524,
      "ff": 525,
      "fr": 526,
      "Ġsh": 527,
      "str": 528,
      "unction": 529,
      "ber": 530,
      "ave": 531,
      "Ġch": 532,
      "ĠO": 533,
      "und": 534,
      "Ġle": 535,
      "are": 536,
      "ated": 537,
      "ary": 538,
      "to": 539,
      "},": 540,
      "ject": 541,
      "Ġ//": 542,
      "Ġse": 543,
      "),": 544,
      "Ġtr": 545,
      "Ġ+": 546,
      "âĢĻ": 547,
      "}{": 548,
      "The": 549,
      "ime": 550,
      "com": 551,
      "alue": 552,
      ").": 553,
      "ser": 554,
      "ang": 555,
      "port": 556,
      "Ġwas": 557,
      "ens": 558,
      "Ġreturn": 559,
      "Ġsu": 560,
      "pro": 561,
      "cl": 562,
      "ical": 563,
      "ell": 564,
      "ich": 565,
      "fig": 566,
      "abel": 567,
      "Ġres": 568,
      "act": 569,
      "->": 570,
      "Ġcan": 571,
      "ild": 572,
      "Ġus": 573,
      "eq": 574,
      "frac": 575,
      "ire": 576,
      "Ġhe": 577,
      "aram": 578,
      "ord": 579,
      "19": 580,
      "ast": 581,
      "out": 582,
      "::": 583,
      "ence": 584,
      "ations": 585,
      "ost": 586,
      "ĠU": 587,
      "right": 588,
      "Con": 589,
      "set": 590,
      "put": 591,
      "cc": 592,
      "cite": 593,
      "ard": 594,
      "ev": 595,
      "form": 596,
      "ide": 597,
      "eta": 598,
      "Ġhave": 599,
      "ust": 600,
      "Ġ@": 601,
      "ĉĉĉĉ": 602,
      "row": 603,
      "ener": 604,
      "Ġ[": 605,
      "ork": 606,
      "Ġim": 607,
      "mathb": 608,
      "ĠJ": 609,
      "ance": 610,
      "ize": 611,
      "Ġ</": 612,
      "low": 613,
      "label": 614,
      "rm": 615,
      "du": 616,
      "ource": 617,
      "ice": 618,
      "ublic": 619,
      "lo": 620,
      "ps": 621,
      "ble": 622,
      "ong": 623,
      "Ġfunction": 624,
      "St": 625,
      "Ġwhich": 626,
      "dd": 627,
      "ĠIn": 628,
      "Ġnew": 629,
      "the": 630,
      "\",": 631,
      "Ġj": 632,
      "ak": 633,
      "ach": 634,
      "loc": 635,
      "Ġun": 636,
      "201": 637,
      "../": 638,
      ",\\": 639,
      "rib": 640,
      "$,": 641,
      "use": 642,
      "ĠTh": 643,
      "$.": 644,
      "mathcal": 645,
      "ug": 646,
      "ss": 647,
      "ould": 648,
      "oo": 649,
      "ray": 650,
      "Ġ/": 651,
      "elf": 652,
      "Ġstr": 653,
      "ain": 654,
      "();": 655,
      "(\"": 656,
      "Ġob": 657,
      "Ġhas": 658,
      "left": 659,
      "Ġk": 660,
      "ther": 661,
      "ory": 662,
      "ress": 663,
      "ull": 664,
      "sc": 665,
      "sum": 666,
      "})": 667,
      "Ġdef": 668,
      "odel": 669,
      "}.": 670,
      "ents": 671,
      "tain": 672,
      "equation": 673,
      "iel": 674,
      "over": 675,
      "ĠâĢ": 676,
      "Ġar": 677,
      "',": 678,
      "ip": 679,
      "pect": 680,
      "fer": 681,
      "10": 682,
      "so": 683,
      "ield": 684,
      "ĠV": 685,
      "line": 686,
      "pon": 687,
      "Ġset": 688,
      "ator": 689,
      "}(": 690,
      "tring": 691,
      "err": 692,
      "ml": 693,
      "Ġall": 694,
      "}^": 695,
      "ous": 696,
      "Ġab": 697,
      "Ġ*/": 698,
      "Ġ:": 699,
      "eth": 700,
      "one": 701,
      "--------": 702,
      "ound": 703,
      "erm": 704,
      "Ġvar": 705,
      "Ġpl": 706,
      "Ex": 707,
      "Ġint": 708,
      "enc": 709,
      "div": 710,
      "essage": 711,
      "hen": 712,
      "Ġcont": 713,
      "clud": 714,
      "ution": 715,
      "}_": 716,
      "old": 717,
      "~\\": 718,
      "da": 719,
      "yst": 720,
      "****": 721,
      "Ġapp": 722,
      "ia": 723,
      "Ġwill": 724,
      "ĠK": 725,
      "pha": 726,
      "))": 727,
      "ear": 728,
      "'s": 729,
      "ual": 730,
      "own": 731,
      "app": 732,
      "Ġinter": 733,
      "oint": 734,
      "Ġpublic": 735,
      "Ġdis": 736,
      "alpha": 737,
      "Ġqu": 738,
      "ree": 739,
      "oid": 740,
      "ĠĠĠĠĠĠĠĠĠ": 741,
      "Ġone": 742,
      "te": 743,
      "ount": 744,
      "we": 745,
      "Ġdo": 746,
      "ll": 747,
      "ely": 748,
      "amb": 749,
      "ates": 750,
      "Ġ.": 751,
      "Ġev": 752,
      "ystem": 753,
      "Ġpart": 754,
      "umber": 755,
      "ob": 756,
      "ĠĠĠĠĠĠĠĠĠĠĠĠĠĠĠĠĠĠĠ": 757,
      "of": 758,
      "Ġme": 759,
      "this": 760,
      "ov": 761,
      "ER": 762,
      "Ġ|": 763,
      "></": 764,
      "Pro": 765,
      "Ġname": 766,
      "ĉĉĉ": 767,
      "name": 768,
      "lect": 769,
      "('": 770,
      "====": 771,
      "sub": 772,
      "iew": 773,
      "inal": 774,
      "span": 775,
      "Ġout": 776,
      "ix": 777,
      "sh": 778,
      "irst": 779,
      ")\\": 780,
      "ome": 781,
      "ics": 782,
      "roup": 783,
      "Ġsp": 784,
      "mb": 785,
      "Ġ_": 786,
      "ark": 787,
      "elta": 788,
      "ink": 789,
      "ict": 790,
      "ambda": 791,
      "var": 792,
      "def": 793,
      "Ġget": 794,
      "Name": 795,
      "ck": 796,
      "idth": 797,
      "Ġi": 798,
      "uct": 799,
      "tt": 800,
      "oth": 801,
      "imes": 802,
      "param": 803,
      "ethod": 804,
      "Type": 805,
      "$\\": 806,
      "Ġresult": 807,
      "Ġper": 808,
      "pec": 809,
      "wo": 810,
      "../../": 811,
      "lement": 812,
      "Ġconst": 813,
      "che": 814,
      "><": 815,
      "pos": 816,
      "eng": 817,
      "Ġpr": 818,
      "esc": 819,
      "Ġpre": 820,
      "Ġvalue": 821,
      "pr": 822,
      "Ġdata": 823,
      "Ġyou": 824,
      "ery": 825,
      "ON": 826,
      "ular": 827,
      "Ġalso": 828,
      "pert": 829,
      "IN": 830,
      "ax": 831,
      "ry": 832,
      "amma": 833,
      "_\\": 834,
      "Ġbut": 835,
      "ose": 836,
      "mathbb": 837,
      "led": 838,
      "raph": 839,
      "=\\": 840,
      "ian": 841,
      "ions": 842,
      "col": 843,
      "12": 844,
      "Ġ\\\\": 845,
      "import": 846,
      "âĢĿ": 847,
      "mu": 848,
      "return": 849,
      "lation": 850,
      "key": 851,
      "Th": 852,
      "les": 853,
      "cre": 854,
      "dot": 855,
      "ĠSt": 856,
      "ib": 857,
      "200": 858,
      "ors": 859,
      "}^{": 860,
      "}_{": 861,
      "ert": 862,
      "yn": 863,
      "Ġtype": 864,
      "String": 865,
      "ange": 866,
      "ne": 867,
      "Ġtime": 868,
      "atic": 869,
      "pi": 870,
      "alse": 871,
      "html": 872,
      "Ġne": 873,
      "Ġform": 874,
      "ample": 875,
      "Ġover": 876,
      "Ġro": 877,
      "Id": 878,
      "Ġcol": 879,
      "igma": 880,
      "Ġcomp": 881,
      "Ġmore": 882,
      "ings": 883,
      "erv": 884,
      "Ġmodel": 885,
      "rad": 886,
      "ox": 887,
      "source": 888,
      "-\\": 889,
      "ollow": 890,
      "atch": 891,
      "trans": 892,
      "ove": 893,
      "ache": 894,
      "ined": 895,
      "Ġ#": 896,
      "Ġline": 897,
      "Ġtheir": 898,
      "Ġsub": 899,
      "message": 900,
      "ool": 901,
      "Ġup": 902,
      "bar": 903,
      "Ġdif": 904,
      "ega": 905,
      "Ġtwo": 906,
      "ĠWe": 907,
      "Ġde": 908,
      "ative": 909,
      "phi": 910,
      "Ġother": 911,
      "ific": 912,
      "Ġso": 913,
      "item": 914,
      "cent": 915,
      "igh": 916,
      "Ġ!": 917,
      "ho": 918,
      "Ġits": 919,
      "^{\\": 920,
      "lock": 921,
      "Ġany": 922,
      "ys": 923,
      "RE": 924,
      "Ġx": 925,
      "ca": 926,
      "rit": 927,
      "hat": 928,
      "Ġadd": 929,
      "bf": 930,
      "ake": 931,
      "Ġhref": 932,
      "ĠThis": 933,
      "arg": 934,
      "ST": 935,
      "Ġself": 936,
      "Ġwhen": 937,
      "lambda": 938,
      "Ġhis": 939,
      "Ġour": 940,
      "alu": 941,
      "Ġ`": 942,
      "ook": 943,
      "section": 944,
      "align": 945,
      "Ġ{\\": 946,
      "ript": 947,
      "Ġwork": 948,
      "type": 949,
      "Ġfollow": 950,
      "Ġcl": 951,
      "io": 952,
      "not": 953,
      "urre": 954,
      "Ġonly": 955,
      "fo": 956,
      "Res": 957,
      "under": 958,
      "ise": 959,
      "To": 960,
      "Ġel": 961,
      "Ġthere": 962,
      "Ġman": 963,
      "Ġid": 964,
      "Ġpos": 965,
      "ception": 966,
      "mathbf": 967,
      "Ġfirst": 968,
      "Ġrequ": 969,
      "Ġreg": 970,
      "Ġwhere": 971,
      "ail": 972,
      "Ġsuch": 973,
      "Com": 974,
      "td": 975,
      "Ġcase": 976,
      "Ġthey": 977,
      "Ġgener": 978,
      "code": 979,
      "ault": 980,
      "Ġind": 981,
      "Ġ=>": 982,
      "Ġen": 983,
      "ider": 984,
      "ilon": 985,
      "cess": 986,
      "tern": 987,
      "Ġwere": 988,
      "ĠâĢľ": 989,
      "ĠCh": 990,
      "We": 991,
      "Ġbet": 992,
      "iss": 993,
      "Ġbeen": 994,
      "add": 995,
      "Ġerr": 996,
      "ility": 997,
      "/>": 998,
      "ish": 999,
      "ied": 1000,
      "Ġtrans": 1001,
      "Ġsim": 1002,
      "resent": 1003,
      "Ġag": 1004,
      "Ġacc": 1005,
      "##": 1006,
      "Ġ==": 1007,
      "Ġthan": 1008,
      "ute": 1009,
      "11": 1010,
      "ock": 1011,
      "://": 1012,
      "class": 1013,
      "uild": 1014,
      "round": 1015,
      "yp": 1016,
      "AT": 1017,
      "der": 1018,
      "Ġcor": 1019,
      "Ġnull": 1020,
      "Ġuse": 1021,
      "Ġcomm": 1022,
      "Ġequ": 1023,
      "Ġvoid": 1024,
      "__": 1025,
      "ng": 1026,
      "Ġdist": 1027,
      "ĠY": 1028,
      "Ġthen": 1029,
      "part": 1030,
      "ible": 1031,
      "Ġend": 1032,
      "Ġsc": 1033,
      "16": 1034,
      "als": 1035,
      "List": 1036,
      "min": 1037,
      "Ġcons": 1038,
      "ames": 1039,
      "ont": 1040,
      "work": 1041,
      "its": 1042,
      "Ġdiffer": 1043,
      "wh": 1044,
      "Ġno": 1045,
      "aramet": 1046,
      "sigma": 1047,
      "\"/>": 1048,
      "ength": 1049,
      "read": 1050,
      "ilde": 1051,
      "ead": 1052,
      "\\\\": 1053,
      "ule": 1054,
      "aw": 1055,
      "18": 1056,
      "ms": 1057,
      "Ġ(\\": 1058,
      "ating": 1059,
      "beta": 1060,
      "serv": 1061,
      "fter": 1062,
      "array": 1063,
      "^{-": 1064,
      "Ġ)": 1065,
      "anc": 1066,
      "ie": 1067,
      "ĠIt": 1068,
      "Ġdec": 1069,
      "Ch": 1070,
      "for": 1071,
      "urrent": 1072,
      "}{\\": 1073,
      "angle": 1074,
      "iven": 1075,
      "Ġad": 1076,
      "Ġrel": 1077,
      "Ġnumber": 1078,
      "ons": 1079,
      "Ġsome": 1080,
      "ask": 1081,
      "Ġshow": 1082,
      "ick": 1083,
      "Ġ>": 1084,
      "sert": 1085,
      "Ġext": 1086,
      "Ġgo": 1087,
      "epend": 1088,
      "width": 1089,
      "Ġinto": 1090,
      "cond": 1091,
      "ater": 1092,
      "OR": 1093,
      "LE": 1094,
      "ures": 1095,
      "ptions": 1096,
      "mathrm": 1097,
      "ID": 1098,
      "ning": 1099,
      "rr": 1100,
      "*}": 1101,
      "yle": 1102,
      "eps": 1103,
      "vent": 1104,
      "Ġunder": 1105,
      "arch": 1106,
      "ĠĠĠĠĠĠĠĠĠĠĠĠĠĠĠĠĠĠĠĠĠĠĠĠĠĠĠĠĠĠĠĠ": 1107,
      "Ġwho": 1108,
      "ities": 1109,
      "Ġtest": 1110,
      "Ġeach": 1111,
      "translation": 1112,
      "Ġtrue": 1113,
      "ween": 1114,
      "+\\": 1115,
      "ased": 1116,
      "ays": 1117,
      "Ġprov": 1118,
      "Ġused": 1119,
      "ature": 1120,
      "15": 1121,
      "ious": 1122,
      "):": 1123,
      "irect": 1124,
      "ument": 1125,
      "Ġinst": 1126,
      "gamma": 1127,
      "AR": 1128,
      "Ġli": 1129,
      "ince": 1130,
      "));": 1131,
      "ivate": 1132,
      "Ġabout": 1133,
      "ational": 1134,
      "Ġph": 1135,
      "olution": 1136,
      "back": 1137,
      "htt": 1138,
      "bject": 1139,
      "log": 1140,
      "]{": 1141,
      "ton": 1142,
      "ient": 1143,
      "string": 1144,
      "Ġu": 1145,
      "Ar": 1146,
      "figure": 1147,
      "ized": 1148,
      "ices": 1149,
      "ram": 1150,
      "Ġthese": 1151,
      "ĠĠĠĠĠĠ": 1152,
      "ym": 1153,
      "Ġloc": 1154,
      "pport": 1155,
      "Ġmethod": 1156,
      "////": 1157,
      "Ġsystem": 1158,
      "Ġfalse": 1159,
      "AL": 1160,
      "Ġpoint": 1161,
      "alid": 1162,
      "ization": 1163,
      "ctions": 1164,
      ")}": 1165,
      "********": 1166,
      "br": 1167,
      "Ġbetween": 1168,
      "delta": 1169,
      "theta": 1170,
      "^\\": 1171,
      "data": 1172,
      "ally": 1173,
      "new": 1174,
      "includ": 1175,
      "oun": 1176,
      "perty": 1177,
      "\");": 1178,
      "Ġspec": 1179,
      "Ġfield": 1180,
      "ner": 1181,
      "\"><": 1182,
      "itle": 1183,
      "uth": 1184,
      "ash": 1185,
      "ĠUn": 1186,
      "leq": 1187,
      "red": 1188,
      "Ġmay": 1189,
      "hed": 1190,
      "Value": 1191,
      "Ġorg": 1192,
      "SS": 1193,
      "file": 1194,
      "EN": 1195,
      "Data": 1196,
      "ract": 1197,
      "Ġco": 1198,
      "Ġact": 1199,
      "Ġatt": 1200,
      "Ġeff": 1201,
      "----------------": 1202,
      "cdot": 1203,
      "rho": 1204,
      "Ġelse": 1205,
      "ele": 1206,
      "Ġyear": 1207,
      "Ġwould": 1208,
      "32": 1209,
      "arget": 1210,
      "value": 1211,
      "vel": 1212,
      "$-": 1213,
      "tau": 1214,
      "ember": 1215,
      "Ġpol": 1216,
      "self": 1217,
      "oug": 1218,
      "Tr": 1219,
      "Ġ--": 1220,
      "Ġusing": 1221,
      "alues": 1222,
      "umn": 1223,
      "ĠĠĠĠĠĠĠĠĠĠĠĠĠ": 1224,
      "son": 1225,
      "mer": 1226,
      "Ġinclud": 1227,
      "}$,": 1228,
      "Ġhad": 1229,
      "Ġstring": 1230,
      "Ġ&&": 1231,
      "big": 1232,
      "}$.": 1233,
      "duc": 1234,
      "mall": 1235,
      "ote": 1236,
      "Ġ/**": 1237,
      "25": 1238,
      "ugh": 1239,
      "13": 1240,
      "}(\\": 1241,
      "times": 1242,
      "su": 1243,
      "eqref": 1244,
      "ower": 1245,
      "olog": 1246,
      "Ġpe": 1247,
      "ric": 1248,
      "Set": 1249,
      "14": 1250,
      "Ġchar": 1251,
      "lient": 1252,
      "Ġnon": 1253,
      "Ġhigh": 1254,
      "ĠPro": 1255,
      "ential": 1256,
      "ĠĠĠĠĠĠĠĠĠĠĠĠĠĠĠĠĠĠĠĠĠĠĠ": 1257,
      "space": 1258,
      "Ġent": 1259,
      "It": 1260,
      "ages": 1261,
      "ĠFor": 1262,
      "Col": 1263,
      "Ġobject": 1264,
      "par": 1265,
      "Ġfe": 1266,
      "struct": 1267,
      "Ġmod": 1268,
      "gy": 1269,
      "Ġstate": 1270,
      "ava": 1271,
      "Ġappro": 1272,
      "org": 1273,
      "cont": 1274,
      "ann": 1275,
      "pre": 1276,
      "Ġoff": 1277,
      "ey": 1278,
      "ever": 1279,
      "Ġcre": 1280,
      "ments": 1281,
      "Ġoper": 1282,
      "\")": 1283,
      "Ġback": 1284,
      "partial": 1285,
      "];": 1286,
      "rt": 1287,
      "Ġkn": 1288,
      "arrow": 1289,
      "pm": 1290,
      "For": 1291,
      "ins": 1292,
      "Ġgiven": 1293,
      "Exception": 1294,
      "test": 1295,
      "ĠX": 1296,
      "Ġcal": 1297,
      "Ġfinal": 1298,
      "raw": 1299,
      "ervice": 1300,
      "')": 1301,
      "ĠCom": 1302,
      "Ġparamet": 1303,
      "Ġdev": 1304,
      "Ġrep": 1305,
      "nu": 1306,
      "Ġsame": 1307,
      "Ġsa": 1308,
      "face": 1309,
      "|\\": 1310,
      "date": 1311,
      "($": 1312,
      "fty": 1313,
      "ists": 1314,
      "Ġem": 1315,
      "Ġstud": 1316,
      "Ġtra": 1317,
      "Ġmat": 1318,
      "infty": 1319,
      "ting": 1320,
      "ward": 1321,
      "uff": 1322,
      "Err": 1323,
      "sec": 1324,
      "ĠQ": 1325,
      "ream": 1326,
      "Ġz": 1327,
      "========": 1328,
      "air": 1329,
      "tilde": 1330,
      "rough": 1331,
      "omega": 1332,
      "Ġfile": 1333,
      "ern": 1334,
      "press": 1335,
      "Ġdifferent": 1336,
      "Object": 1337,
      "ier": 1338,
      "Ġte": 1339,
      "size": 1340,
      "ĠSe": 1341,
      "ify": 1342,
      "Ġsign": 1343,
      "table": 1344,
      "mary": 1345,
      "],": 1346,
      "ines": 1347,
      "Ġ!=": 1348,
      "Ġshould": 1349,
      "respon": 1350,
      "Ġest": 1351,
      "21": 1352,
      "Ġ///": 1353,
      "Ġneed": 1354,
      "Ġorder": 1355,
      "Ġdet": 1356,
      "ody": 1357,
      "heck": 1358,
      "Ġstatic": 1359,
      "DE": 1360,
      "As": 1361,
      "la": 1362,
      "ĠAs": 1363,
      "Test": 1364,
      "vers": 1365,
      "requ": 1366,
      "SE": 1367,
      "ically": 1368,
      "Delta": 1369,
      "._": 1370,
      "ension": 1371,
      "arent": 1372,
      "ribution": 1373,
      "Ġcomple": 1374,
      "atus": 1375,
      "nb": 1376,
      "Ġrec": 1377,
      "Ġmost": 1378,
      "irc": 1379,
      "ymb": 1380,
      "Ġ%": 1381,
      ".,": 1382,
      "ily": 1383,
      "Ġpartic": 1384,
      "ĠCon": 1385,
      "CT": 1386,
      "Ġterm": 1387,
      "formation": 1388,
      "IT": 1389,
      "ases": 1390,
      "Ġ$(": 1391,
      "ars": 1392,
      "rix": 1393,
      "px": 1394,
      "me": 1395,
      "100": 1396,
      "ymbol": 1397,
      "view": 1398,
      "ww": 1399,
      "ger": 1400,
      "En": 1401,
      "Ġfact": 1402,
      "Ġam": 1403,
      "Ġ||": 1404,
      "amp": 1405,
      "ified": 1406,
      "ĠString": 1407,
      "Ġdesc": 1408,
      "ited": 1409,
      "ople": 1410,
      "ĠHe": 1411,
      "uss": 1412,
      "olds": 1413,
      "Ġgroup": 1414,
      "play": 1415,
      "att": 1416,
      "function": 1417,
      "Ġass": 1418,
      "17": 1419,
      "oy": 1420,
      "Ġhow": 1421,
      "Ġafter": 1422,
      "Ġsee": 1423,
      "};": 1424,
      "ired": 1425,
      "quad": 1426,
      "ilter": 1427,
      "ulti": 1428,
      "Ġprivate": 1429,
      "Ġher": 1430,
      "let": 1431,
      "Get": 1432,
      "Ġwell": 1433,
      "dis": 1434,
      "eqn": 1435,
      "().": 1436,
      "30": 1437,
      "AN": 1438,
      "lean": 1439,
      "ersion": 1440,
      "By": 1441,
      "Ġever": 1442,
      "ots": 1443,
      "arge": 1444,
      "Ġmin": 1445,
      "Ġfollowing": 1446,
      "center": 1447,
      "ank": 1448,
      "ement": 1449,
      "());": 1450,
      "location": 1451,
      "ĠIf": 1452,
      "Ġfl": 1453,
      "sq": 1454,
      "Ġconsider": 1455,
      "oad": 1456,
      "nbsp": 1457,
      "duct": 1458,
      "Ġvari": 1459,
      "Cont": 1460,
      "mod": 1461,
      "ils": 1462,
      "rol": 1463,
      "Error": 1464,
      "Ġac": 1465,
      "Ġkey": 1466,
      "dition": 1467,
      "rite": 1468,
      "lection": 1469,
      "ency": 1470,
      "Ġstart": 1471,
      "Ġthem": 1472,
      "xi": 1473,
      "}[": 1474,
      "roll": 1475,
      "net": 1476,
      "ough": 1477,
      "ken": 1478,
      "Ġarg": 1479,
      "ism": 1480,
      "Ġboth": 1481,
      "orem": 1482,
      "Ġthrough": 1483,
      "22": 1484,
      "lob": 1485,
      "vert": 1486,
      "inter": 1487,
      "ME": 1488,
      "ability": 1489,
      "Ġresults": 1490,
      "Ġed": 1491,
      "Un": 1492,
      "order": 1493,
      "Ġelement": 1494,
      "ĠEx": 1495,
      "}}\\": 1496,
      "rc": 1497,
      "Ġexpect": 1498,
      "\\,": 1499,
      "itial": 1500,
      "Ġlist": 1501,
      "roid": 1502,
      ")$.": 1503,
      "Ġser": 1504,
      "orld": 1505,
      "Ġright": 1506,
      "cm": 1507,
      "50": 1508,
      "199": 1509,
      "ively": 1510,
      "Ġbound": 1511,
      "uring": 1512,
      "gor": 1513,
      "pen": 1514,
      "ccess": 1515,
      "ets": 1516,
      "time": 1517,
      "script": 1518,
      "action": 1519,
      "oci": 1520,
      "cept": 1521,
      "');": 1522,
      "ler": 1523,
      "Ġprocess": 1524,
      "top": 1525,
      "co": 1526,
      "Ġstruct": 1527,
      "tab": 1528,
      "File": 1529,
      "epsilon": 1530,
      "CO": 1531,
      "ponent": 1532,
      "$$": 1533,
      "comm": 1534,
      "by": 1535,
      "ision": 1536,
      "ected": 1537,
      "plic": 1538,
      "lear": 1539,
      "Class": 1540,
      "ining": 1541,
      "Ind": 1542,
      "where": 1543,
      "summary": 1544,
      "Ġobtain": 1545,
      "Ġcontain": 1546,
      "ade": 1547,
      "Ġsize": 1548,
      "ector": 1549,
      "ful": 1550,
      "Ġdisc": 1551,
      "ished": 1552,
      "lem": 1553,
      "Ġlike": 1554,
      "Ġcall": 1555,
      "ense": 1556,
      "fra": 1557,
      "indow": 1558,
      "index": 1559,
      "Ġerror": 1560,
      "umer": 1561,
      "Ġlong": 1562,
      "ivers": 1563,
      "efore": 1564,
      "}_{\\": 1565,
      "Ġcurrent": 1566,
      "ĠĠĊ": 1567,
      "met": 1568,
      "\";": 1569,
      "Ġdoes": 1570,
      "link": 1571,
      "sim": 1572,
      "Ġperform": 1573,
      "url": 1574,
      "const": 1575,
      "Ġsaid": 1576,
      "Ġwhat": 1577,
      "ives": 1578,
      "ality": 1579,
      "Ġpeople": 1580,
      "Ġshe": 1581,
      "position": 1582,
      "Ġeffect": 1583,
      "Ġwhile": 1584,
      "...": 1585,
      "Ġhand": 1586,
      "Ġjust": 1587,
      "Ġsur": 1588,
      "Om": 1589,
      "Ġimport": 1590,
      "ott": 1591,
      "(),": 1592,
      "Ġvalues": 1593,
      "textbf": 1594,
      "man": 1595,
      "uration": 1596,
      "list": 1597,
      "Key": 1598,
      "This": 1599,
      "reak": 1600,
      "64": 1601,
      "Ph": 1602,
      "psi": 1603,
      "node": 1604,
      "ared": 1605,
      "Ġread": 1606,
      "ĠAl": 1607,
      "pace": 1608,
      "ĠĠĠĠĊ": 1609,
      "Requ": 1610,
      "cause": 1611,
      "Ġnow": 1612,
      "go": 1613,
      "Ġdes": 1614,
      "uc": 1615,
      "void": 1616,
      "unc": 1617,
      "Ġevery": 1618,
      "ription": 1619,
      "cale": 1620,
      "group": 1621,
      "iver": 1622,
      "['": 1623,
      "other": 1624,
      "rem": 1625,
      "reg": 1626,
      "UL": 1627,
      "ocument": 1628,
      "Ġfound": 1629,
      "Ġbecause": 1630,
      "Ġanal": 1631,
      "Omega": 1632,
      "head": 1633,
      "ĠZ": 1634,
      "fl": 1635,
      "An": 1636,
      "uffer": 1637,
      "24": 1638,
      "View": 1639,
      "ron": 1640,
      "imit": 1641,
      "ift": 1642,
      "].": 1643,
      "raphics": 1644,
      "chi": 1645,
      "ĠâĢĵ": 1646,
      "^*": 1647,
      "Ġsupport": 1648,
      "etwork": 1649,
      "que": 1650,
      "fore": 1651,
      ")$,": 1652,
      "ok": 1653,
      "ants": 1654,
      "http": 1655,
      "Int": 1656,
      "ĠNew": 1657,
      "Ġfind": 1658,
      "Se": 1659,
      "Ġassert": 1660,
      "ĠAn": 1661,
      "opy": 1662,
      "psilon": 1663,
      "bm": 1664,
      "Ġmeas": 1665,
      "Ġrem": 1666,
      "Ġresp": 1667,
      "Ġcould": 1668,
      ".</": 1669,
      "Ġ);": 1670,
      "ground": 1671,
      "public": 1672,
      "Ġdirect": 1673,
      "Ġcondition": 1674,
      "Ġexample": 1675,
      "ribute": 1676,
      "ren": 1677,
      "respond": 1678,
      "ces": 1679,
      "ager": 1680,
      "Node": 1681,
      "less": 1682,
      "any": 1683,
      "ĠFig": 1684,
      "Ġbel": 1685,
      "ross": 1686,
      "RO": 1687,
      "Sh": 1688,
      "ormal": 1689,
      "sl": 1690,
      "Ġproble": 1691,
      "path": 1692,
      "ik": 1693,
      "Ġcent": 1694,
      "ral": 1695,
      "uch": 1696,
      "eqnarray": 1697,
      "Ġinv": 1698,
      "field": 1699,
      "Ġrun": 1700,
      "ĉĉĉĉĉ": 1701,
      "Ġlarge": 1702,
      "Ġmy": 1703,
      "sqrt": 1704,
      "Ġplay": 1705,
      "ences": 1706,
      "000": 1707,
      "Ġmany": 1708,
      "ond": 1709,
      "ĠčĊ": 1710,
      "be": 1711,
      "rame": 1712,
      "Ġyour": 1713,
      "\":": 1714,
      "subsection": 1715,
      "length": 1716,
      "try": 1717,
      "caption": 1718,
      "med": 1719,
      "elop": 1720,
      "AC": 1721,
      "rid": 1722,
      "Ġsing": 1723,
      "empl": 1724,
      "Ġsmall": 1725,
      "ulation": 1726,
      "Ġsecond": 1727,
      "Gamma": 1728,
      "PE": 1729,
      "box": 1730,
      "Ġrepresent": 1731,
      "pty": 1732,
      "TE": 1733,
      "Ġca": 1734,
      "energy": 1735,
      "PI": 1736,
      "Event": 1737,
      "rop": 1738,
      "reat": 1739,
      "']": 1740,
      "inition": 1741,
      "Element": 1742,
      "\"></": 1743,
      "Ġcontin": 1744,
      "Time": 1745,
      "color": 1746,
      "vare": 1747,
      "Equ": 1748,
      "gram": 1749,
      "Ġlocal": 1750,
      "Ġmake": 1751,
      "Ġcomput": 1752,
      "Ġrespect": 1753,
      "Ġ?": 1754,
      "ION": 1755,
      "Ġ:=": 1756,
      "Ġlead": 1757,
      "js": 1758,
      "varepsilon": 1759,
      "Ġ/>": 1760,
      "'t": 1761,
      "^{(": 1762,
      "Def": 1763,
      "Ġfin": 1764,
      "ilar": 1765,
      "TR": 1766,
      "plit": 1767,
      "/**": 1768,
      "Ġspace": 1769,
      "Ġmass": 1770,
      "no": 1771,
      "Ġ${\\": 1772,
      "Ġthrow": 1773,
      "oolean": 1774,
      "max": 1775,
      "/*": 1776,
      "ten": 1777,
      "Ġyears": 1778,
      "Ġinformation": 1779,
      "LA": 1780,
      "Ġmap": 1781,
      "see": 1782,
      "Ġassum": 1783,
      "ribut": 1784,
      "Ġthree": 1785,
      "load": 1786,
      "':": 1787,
      "oot": 1788,
      "Ġbeing": 1789,
      "Info": 1790,
      "Ġarray": 1791,
      "Ġvery": 1792,
      "Ġmust": 1793,
      "Request": 1794,
      "wn": 1795,
      "Ġincre": 1796,
      "State": 1797,
      "Re": 1798,
      "Qu": 1799,
      "Ġeven": 1800,
      "vious": 1801,
      "On": 1802,
      "Ġlet": 1803,
      "``": 1804,
      "her": 1805,
      "Ġobserv": 1806,
      "Ġexper": 1807,
      "ason": 1808,
      "With": 1809,
      "ident": 1810,
      "Ġagain": 1811,
      "result": 1812,
      "ackage": 1813,
      "}^{\\": 1814,
      "Ġposs": 1815,
      "perties": 1816,
      "gorith": 1817,
      "egraphics": 1818,
      "includegraphics": 1819,
      "40": 1820,
      "ission": 1821,
      "ypes": 1822,
      "Add": 1823,
      "Ġlast": 1824,
      "nav": 1825,
      "val": 1826,
      "Ġsince": 1827,
      "Ġtop": 1828,
      "ĠTr": 1829,
      "Al": 1830,
      "itt": 1831,
      "Ġ/*": 1832,
      "Ġnode": 1833,
      "Path": 1834,
      "\"\"": 1835,
      "util": 1836,
      "Ġcorrespond": 1837,
      "Ġ\\,": 1838,
      "Ġbefore": 1839,
      "ush": 1840,
      "Ġopt": 1841,
      "Ġpresent": 1842,
      "ane": 1843,
      "lp": 1844,
      "ification": 1845,
      "Text": 1846,
      "Ġmax": 1847,
      "Index": 1848,
      "33": 1849,
      "ensure": 1850,
      "ural": 1851,
      "ister": 1852,
      "Ġevent": 1853,
      "ness": 1854,
      "}=": 1855,
      "search": 1856,
      "Field": 1857,
      "fin": 1858,
      "erson": 1859,
      "Ġallow": 1860,
      "Context": 1861,
      "Ġmet": 1862,
      "Config": 1863,
      ")=": 1864,
      "Ref": 1865,
      "non": 1866,
      "())": 1867,
      "rightarrow": 1868,
      "sk": 1869,
      "Ġknow": 1870,
      "Ġprovid": 1871,
      "meric": 1872,
      "Ġtarget": 1873,
      "bers": 1874,
      "Ġident": 1875,
      "map": 1876,
      "Ġinput": 1877,
      "IC": 1878,
      "Ġpar": 1879,
      "ride": 1880,
      "Ġthose": 1881,
      "bl": 1882,
      "Ġ(!": 1883,
      "=\"../../": 1884,
      "ope": 1885,
      "Ġestim": 1886,
      "rangle": 1887,
      "olv": 1888,
      "with": 1889,
      "ternal": 1890,
      "Ġmon": 1891,
      "user": 1892,
      "emph": 1893,
      "lobal": 1894,
      "Ġway": 1895,
      ".âĢĿ": 1896,
      "Ġrequest": 1897,
      "stance": 1898,
      "Ġaut": 1899,
      "23": 1900,
      "Ġfil": 1901,
      "irt": 1902,
      "Ġpath": 1903,
      "Ġreal": 1904,
      "odes": 1905,
      "varphi": 1906,
      "rel": 1907,
      "Ġinteg": 1908,
      "eb": 1909,
      "apache": 1910,
      "Array": 1911,
      "ology": 1912,
      "ession": 1913,
      "Ġpass": 1914,
      "Ġmain": 1915,
      "az": 1916,
      "Ġsolution": 1917,
      "ived": 1918,
      "api": 1919,
      "Ġdefined": 1920,
      "''": 1921,
      "geq": 1922,
      "Ġenergy": 1923,
      "ather": 1924,
      "Ġ},": 1925,
      "uthor": 1926,
      "Man": 1927,
      "itive": 1928,
      "////////": 1929,
      "ape": 1930,
      "Ġtak": 1931,
      "80": 1932,
      "object": 1933,
      "itor": 1934,
      "model": 1935,
      "Big": 1936,
      "omet": 1937,
      "Map": 1938,
      "Ġ,": 1939,
      "Ġref": 1940,
      "call": 1941,
      "Ġlog": 1942,
      "ero": 1943,
      "overn": 1944,
      "fe": 1945,
      "Over": 1946,
      "Ġdepend": 1947,
      "lang": 1948,
      "assert": 1949,
      "annel": 1950,
      "Ġgeneral": 1951,
      "!--": 1952,
      ".~\\": 1953,
      "point": 1954,
      "lay": 1955,
      "ife": 1956,
      "Ġ});": 1957,
      "aces": 1958,
      "uilder": 1959,
      "ually": 1960,
      "Service": 1961,
      "acter": 1962,
      "Code": 1963,
      "ration": 1964,
      "amespace": 1965,
      "Ġmem": 1966,
      "Ġdistribution": 1967,
      "60": 1968,
      "proof": 1969,
      "Item": 1970,
      "Ġdefault": 1971,
      "ari": 1972,
      "iter": 1973,
      "bolds": 1974,
      "pper": 1975,
      "Ġdevelop": 1976,
      "UR": 1977,
      "arn": 1978,
      "ci": 1979,
      "Ġabove": 1980,
      "Ġap": 1981,
      ")(": 1982,
      "from": 1983,
      "overline": 1984,
      "Ġlevel": 1985,
      "Ġtitle": 1986,
      "true": 1987,
      "ĠAr": 1988,
      "Ġra": 1989,
      "Ġmeasure": 1990,
      "boldsymbol": 1991,
      "ouse": 1992,
      "frak": 1993,
      "duction": 1994,
      "owever": 1995,
      "ui": 1996,
      "Ġbl": 1997,
      "Ġorig": 1998,
      "Ġcheck": 1999,
      "&\\": 2000,
      ".}": 2001,
      "ĠĠĠĠĠĠĠĠĠĠĠĠĠĠĠĠĠĠĠĠĠĠĠĠĠĠĠ": 2002,
      "Ġhere": 2003,
      "iag": 2004,
      "oss": 2005,
      "imal": 2006,
      "define": 2007,
      "++": 2008,
      "ixed": 2009,
      "[\\": 2010,
      "off": 2011,
      "chn": 2012,
      "=\"+": 2013,
      "ĠRes": 2014,
      "ĠSh": 2015,
      "word": 2016,
      "ends": 2017,
      "Ġden": 2018,
      "ru": 2019,
      "Ġleft": 2020,
      "alth": 2021,
      "Ġcur": 2022,
      "ior": 2023,
      "config": 2024,
      "Ġmulti": 2025,
      "iction": 2026,
      "[]": 2027,
      "imension": 2028,
      "duced": 2029,
      "input": 2030,
      "Ġtext": 2031,
      "},\\": 2032,
      "****************": 2033,
      "chool": 2034,
      "Ġnetwork": 2035,
      "ogle": 2036,
      "';": 2037,
      "ynam": 2038,
      "Ġpa": 2039,
      "LO": 2040,
      "ination": 2041,
      "wid": 2042,
      "Ġcontext": 2043,
      "Ġvis": 2044,
      "Ġfam": 2045,
      "MA": 2046,
      "Ġexpl": 2047,
      "Ġ===": 2048,
      "error": 2049,
      "Size": 2050,
      "bit": 2051,
      "https": 2052,
      "aj": 2053,
      "Ġdescrib": 2054,
      "Not": 2055,
      "Att": 2056,
      "block": 2057,
      "ync": 2058,
      "style": 2059,
      "Ġwrit": 2060,
      "Or": 2061,
      "Ġbased": 2062,
      "}).": 2063,
      "ttp": 2064,
      "utton": 2065,
      "vec": 2066,
      "AD": 2067,
      "Ġart": 2068,
      "Ġrefer": 2069,
      "Ġinitial": 2070,
      "emplate": 2071,
      "ouble": 2072,
      "Ġ__": 2073,
      "urther": 2074,
      "hline": 2075,
      "Ġmed": 2076,
      "ĠAmeric": 2077,
      "Ġuser": 2078,
      "Ġsat": 2079,
      ")^": 2080,
      "Ġprot": 2081,
      "Ġindex": 2082,
      "lication": 2083,
      "loat": 2084,
      "Ġcount": 2085,
      "ĠInd": 2086,
      "Ġinstance": 2087,
      "Result": 2088,
      "oper": 2089,
      "ced": 2090,
      "lected": 2091,
      "####": 2092,
      "ivity": 2093,
      "land": 2094,
      "andom": 2095,
      "System": 2096,
      "Ġrad": 2097,
      "ources": 2098,
      "Hand": 2099,
      "ators": 2100,
      "Ġconfig": 2101,
      "igned": 2102,
      "Of": 2103,
      "mm": 2104,
      "ret": 2105,
      "Form": 2106,
      "rag": 2107,
      "ole": 2108,
      "Ġhim": 2109,
      "create": 2110,
      "Ġduring": 2111,
      "Ġstat": 2112,
      "mathfrak": 2113,
      "Ġnext": 2114,
      "Ġproblem": 2115,
      "Ġ($": 2116,
      "Ġpres": 2117,
      "eturn": 2118,
      "ĠAnd": 2119,
      "idd": 2120,
      "Ġsource": 2121,
      "27": 2122,
      "Ġmade": 2123,
      "ek": 2124,
      "Ġdid": 2125,
      "Ġmodels": 2126,
      "prot": 2127,
      "Ġposition": 2128,
      "App": 2129,
      "cor": 2130,
      "day": 2131,
      "ustom": 2132,
      "lim": 2133,
      "Ġbr": 2134,
      "andard": 2135,
      "comp": 2136,
      "dt": 2137,
      "UT": 2138,
      "eff": 2139,
      "way": 2140,
      "ocus": 2141,
      "md": 2142,
      "acy": 2143,
      "ĠCol": 2144,
      "Ġchild": 2145,
      "iversity": 2146,
      "}}$": 2147,
      "nection": 2148,
      "erefore": 2149,
      "Ġsection": 2150,
      "pd": 2151,
      "Ġsum": 2152,
      "Ġparameters": 2153,
      "Ġfollows": 2154,
      "ries": 2155,
      "gorithm": 2156,
      "ables": 2157,
      "Ġ};": 2158,
      "Ġaddition": 2159,
      "iled": 2160,
      "quot": 2161,
      "ensity": 2162,
      "ven": 2163,
      "FF": 2164,
      "au": 2165,
      "til": 2166,
      "ED": 2167,
      "Ġblock": 2168,
      "Let": 2169,
      "='": 2170,
      "ival": 2171,
      "Model": 2172,
      "Ġparticular": 2173,
      "Ġworld": 2174,
      "abled": 2175,
      "IS": 2176,
      "sf": 2177,
      "pression": 2178,
      "Ġview": 2179,
      "Ġshown": 2180,
      "CH": 2181,
      "oh": 2182,
      "Ġcode": 2183,
      "version": 2184,
      "Ġnil": 2185,
      "ij": 2186,
      "body": 2187,
      "sw": 2188,
      "default": 2189,
      "cript": 2190,
      "Ġexist": 2191,
      "Ġdr": 2192,
      "Ġdat": 2193,
      "IG": 2194,
      "Lambda": 2195,
      "45": 2196,
      "Ġdom": 2197,
      "ldots": 2198,
      "langle": 2199,
      "Ġmuch": 2200,
      "imum": 2201,
      "nab": 2202,
      "Ġquant": 2203,
      "atrix": 2204,
      "Ġspect": 2205,
      "Ġsuper": 2206,
      "ML": 2207,
      "Ġsimilar": 2208,
      "Ġtem": 2209,
      "Ġopen": 2210,
      "si": 2211,
      "ysis": 2212,
      "side": 2213,
      "Ġbreak": 2214,
      "Ġdeterm": 2215,
      "Ġcontent": 2216,
      "Ġpower": 2217,
      "include": 2218,
      "enu": 2219,
      "Ġmag": 2220,
      "circ": 2221,
      "âĢľ": 2222,
      "icy": 2223,
      "atures": 2224,
      "ume": 2225,
      "state": 2226,
      "start": 2227,
      "28": 2228,
      "vail": 2229,
      "orph": 2230,
      "Message": 2231,
      "title": 2232,
      "uf": 2233,
      "Ġcreate": 2234,
      "Ġmov": 2235,
      "Ġbas": 2236,
      "2020": 2237,
      "Ġprob": 2238,
      "Ġreport": 2239,
      "icon": 2240,
      "Ġexp": 2241,
      "reate": 2242,
      "iod": 2243,
      "nder": 2244,
      "Ġparameter": 2245,
      "ah": 2246,
      "Ġmark": 2247,
      "Ġsingle": 2248,
      "Is": 2249,
      "vest": 2250,
      "isf": 2251,
      "come": 2252,
      "nabla": 2253,
      "ING": 2254,
      "Phi": 2255,
      "bs": 2256,
      "ymmet": 2257,
      "Ġwithin": 2258,
      "ale": 2259,
      "ges": 2260,
      "75": 2261,
      "ĠOn": 2262,
      "draw": 2263,
      "Loc": 2264,
      "ES": 2265,
      "MP": 2266,
      "Ġq": 2267,
      "Ġpred": 2268,
      "light": 2269,
      "Ġjava": 2270,
      "Ġproject": 2271,
      "plement": 2272,
      "AS": 2273,
      "textit": 2274,
      "Ġterms": 2275,
      "Ġcommun": 2276,
      "iron": 2277,
      "~~": 2278,
      "\\|": 2279,
      "AB": 2280,
      "arm": 2281,
      "stru": 2282,
      "Ġcoun": 2283,
      "99": 2284,
      "ording": 2285,
      "Ġenc": 2286,
      "Query": 2287,
      "Ġgu": 2288,
      "Ser": 2289,
      "Ġbeh": 2290,
      "Ġcalled": 2291,
      "tainer": 2292,
      "posed": 2293,
      "Ġwithout": 2294,
      "atter": 2295,
      "Ġsample": 2296,
      "Ġimage": 2297,
      "ĠTo": 2298,
      ",âĢĿ": 2299,
      "Ġbuild": 2300,
      "ee": 2301,
      "Ġappe": 2302,
      "citep": 2303,
      "Ġrele": 2304,
      "urs": 2305,
      "orth": 2306,
      "26": 2307,
      "desc": 2308,
      "cul": 2309,
      "Ġversion": 2310,
      "From": 2311,
      "alk": 2312,
      "ately": 2313,
      "Ġwant": 2314,
      "mp": 2315,
      "ponse": 2316,
      "Ġhead": 2317,
      "ĠĠĠĠĠĠĠĠĠĠĠĠ": 2318,
      "Ġpop": 2319,
      "appa": 2320,
      "ensuremath": 2321,
      "Ġtake": 2322,
      "ULL": 2323,
      "Ġtry": 2324,
      "If": 2325,
      "tings": 2326,
      "Ġlook": 2327,
      ".\\": 2328,
      "ET": 2329,
      "ploy": 2330,
      "ique": 2331,
      "orn": 2332,
      "Ġcorre": 2333,
      "ĠRe": 2334,
      "ename": 2335,
      "tes": 2336,
      "check": 2337,
      "ottom": 2338,
      "}),": 2339,
      "Ġstill": 2340,
      "Ġtot": 2341,
      "Ġinterest": 2342,
      "Ġrange": 2343,
      "ependent": 2344,
      "Ġown": 2345,
      "Out": 2346,
      "subset": 2347,
      "Ġhelp": 2348,
      "Ġrequire": 2349,
      "Ġdown": 2350,
      "mbox": 2351,
      "Ġsol": 2352,
      "uster": 2353,
      "arning": 2354,
      "Ġ``": 2355,
      "por": 2356,
      "ĉĊ": 2357,
      "ĠGet": 2358,
      "xim": 2359,
      "content": 2360,
      "\\%": 2361,
      "lish": 2362,
      "ules": 2363,
      "ĠĠĠĠĠĠĠĠĠĠ": 2364,
      "Ġcontinu": 2365,
      "duce": 2366,
      "35": 2367,
      "Inter": 2368,
      "www": 2369,
      "mit": 2370,
      "dev": 2371,
      "ait": 2372,
      "Ġincluding": 2373,
      "})$": 2374,
      "valid": 2375,
      "Ġlaw": 2376,
      "ords": 2377,
      "Ġdiscuss": 2378,
      "opt": 2379,
      "Ġchange": 2380,
      "lin": 2381,
      "Ġcr": 2382,
      "ateg": 2383,
      "Ġ-->": 2384,
      "Ġdep": 2385,
      "ene": 2386,
      "otential": 2387,
      "Ġpossible": 2388,
      "info": 2389,
      "29": 2390,
      "Ġdue": 2391,
      "Ġwidth": 2392,
      "Ġet": 2393,
      "Ġaction": 2394,
      "ances": 2395,
      "down": 2396,
      "context": 2397,
      "Ġgood": 2398,
      "Manager": 2399,
      "next": 2400,
      "kappa": 2401,
      "He": 2402,
      "Table": 2403,
      "Ġprogram": 2404,
      "UN": 2405,
      "urity": 2406,
      "Ġoptions": 2407,
      "istory": 2408,
      "Ġlimit": 2409,
      "Ġconf": 2410,
      "uage": 2411,
      "Ġchang": 2412,
      "198": 2413,
      "âĢĵ": 2414,
      "mage": 2415,
      "Ġfunctions": 2416,
      "roller": 2417,
      "Ġrece": 2418,
      "android": 2419,
      "Ġdeta": 2420,
      "ware": 2421,
      "--------------------------------": 2422,
      "Ġproperty": 2423,
      "ifier": 2424,
      "Ġocc": 2425,
      "bo": 2426,
      "gest": 2427,
      "Ġgraph": 2428,
      "Ġassoci": 2429,
      "vis": 2430,
      "istic": 2431,
      "ux": 2432,
      "base": 2433,
      "Ġpat": 2434,
      "aut": 2435,
      "ĠThen": 2436,
      "Ġstructure": 2437,
      "Ġder": 2438,
      "Ġoutput": 2439,
      "ags": 2440,
      "method": 2441,
      "rap": 2442,
      "Ġbackground": 2443,
      "icient": 2444,
      "nal": 2445,
      "uments": 2446,
      "2017": 2447,
      "Property": 2448,
      "Ġmak": 2449,
      "otimes": 2450,
      "Ġmatrix": 2451,
      "Ġelect": 2452,
      "Ġbeg": 2453,
      "And": 2454,
      "Ġpoints": 2455,
      "ĠHowever": 2456,
      "Ġbase": 2457,
      "ither": 2458,
      "Ġear": 2459,
      "func": 2460,
      "using": 2461,
      "Log": 2462,
      "anel": 2463,
      "Ġsatisf": 2464,
      "2019": 2465,
      "2018": 2466,
      "ii": 2467,
      "Ð¾": 2468,
      "ts": 2469,
      "ood": 2470,
      "ĠSystem": 2471,
      "Ġitem": 2472,
      "Ġshows": 2473,
      "01": 2474,
      "Cell": 2475,
      "Group": 2476,
      "ender": 2477,
      "Client": 2478,
      "vailable": 2479,
      "ands": 2480,
      "hes": 2481,
      "ison": 2482,
      "gs": 2483,
      "Ġaround": 2484,
      "Ġlow": 2485,
      "Ġrema": 2486,
      "](": 2487,
      "Ġprevious": 2488,
      "Im": 2489,
      "Ġvert": 2490,
      "irtual": 2491,
      "Ġmean": 2492,
      "Ġsrc": 2493,
      "viron": 2494,
      "Ġexpected": 2495,
      "rec": 2496,
      "java": 2497,
      "Ġcontrol": 2498,
      "2021": 2499,
      "Ġbool": 2500,
      "\\!": 2501,
      "ience": 2502,
      "lose": 2503,
      "ways": 2504,
      "Reg": 2505,
      "Ġbro": 2506,
      "Ġtechn": 2507,
      "Ġcar": 2508,
      "Sigma": 2509,
      "iving": 2510,
      "vari": 2511,
      "Ġdem": 2512,
      "Dis": 2513,
      "inary": 2514,
      "ready": 2515,
      "iness": 2516,
      "ches": 2517,
      "reen": 2518,
      "Ġsche": 2519,
      "Ġfour": 2520,
      "OT": 2521,
      "Ġcharacter": 2522,
      "ital": 2523,
      "Response": 2524,
      "Ġsequ": 2525,
      "70": 2526,
      "2016": 2527,
      "erence": 2528,
      "ats": 2529,
      "icle": 2530,
      "=\"../../../../": 2531,
      "At": 2532,
      "Ġlength": 2533,
      "Ġstudy": 2534,
      "raint": 2535,
      "ansp": 2536,
      "90": 2537,
      ";&": 2538,
      ".\"": 2539,
      ">&": 2540,
      "cap": 2541,
      "Ġpost": 2542,
      "ended": 2543,
      "Ġcolor": 2544,
      "gt": 2545,
      "ĉĉĉĉĉĉ": 2546,
      "Color": 2547,
      "false": 2548,
      "================": 2549,
      "Su": 2550,
      "Ġdon": 2551,
      "prov": 2552,
      "count": 2553,
      "TD": 2554,
      "Trans": 2555,
      "}}{": 2556,
      "widet": 2557,
      "Ġtotal": 2558,
      "Call": 2559,
      "ection": 2560,
      "Desc": 2561,
      "Ġserv": 2562,
      "Ã©": 2563,
      "){": 2564,
      "Ġaddress": 2565,
      "onse": 2566,
      "Count": 2567,
      "\\[": 2568,
      "iment": 2569,
      "package": 2570,
      "Ġregion": 2571,
      "Ġstates": 2572,
      "2015": 2573,
      "itch": 2574,
      "Ġstd": 2575,
      "dots": 2576,
      "nonumber": 2577,
      "DO": 2578,
      "Ġresponse": 2579,
      "bt": 2580,
      "ump": 2581,
      "Ġlink": 2582,
      "Override": 2583,
      "Ġknown": 2584,
      "{-": 2585,
      "ety": 2586,
      "Ġperson": 2587,
      "Ġ<<": 2588,
      "All": 2589,
      "doc": 2590,
      "Method": 2591,
      "Ġvalid": 2592,
      "widetilde": 2593,
      "Ð°": 2594,
      "centering": 2595,
      "Ġtask": 2596,
      "Fact": 2597,
      "Ġbest": 2598,
      "core": 2599,
      "clus": 2600,
      "Ġmethods": 2601,
      "ĠPh": 2602,
      "Ġimportant": 2603,
      "bra": 2604,
      "exp": 2605,
      "End": 2606,
      "])": 2607,
      "34": 2608,
      "ENT": 2609,
      "eter": 2610,
      "((": 2611,
      "/\\": 2612,
      "Ġclos": 2613,
      "Mod": 2614,
      "lt": 2615,
      "Ġdeg": 2616,
      "options": 2617,
      "User": 2618,
      "Ġintro": 2619,
      "wide": 2620,
      "Ġpotential": 2621,
      "static": 2622,
      "Ġsever": 2623,
      ">(": 2624,
      "ention": 2625,
      "Pr": 2626,
      "ĠSet": 2627,
      "ibility": 2628,
      "Read": 2629,
      "hether": 2630,
      "Ġsuccess": 2631,
      "hip": 2632,
      "sequ": 2633,
      "uture": 2634,
      "ns": 2635,
      "Ġgovern": 2636,
      "ithub": 2637,
      "Pl": 2638,
      "Stream": 2639,
      "Ġcour": 2640,
      "New": 2641,
      "Ġconstant": 2642,
      "05": 2643,
      "Ġtri": 2644,
      "cit": 2645,
      "Ġlay": 2646,
      "oop": 2647,
      "Ġaccess": 2648,
      "IL": 2649,
      "struction": 2650,
      "Input": 2651,
      "aterial": 2652,
      "Ġoriginal": 2653,
      "omen": 2654,
      "ĠUniversity": 2655,
      "66": 2656,
      "Ġstyle": 2657,
      "oin": 2658,
      "ĠYou": 2659,
      "Ġinvest": 2660,
      "TH": 2661,
      "ĠÐ": 2662,
      "Ġmessage": 2663,
      "Builder": 2664,
      "Ġagainst": 2665,
      "Ġthink": 2666,
      "event": 2667,
      "ĠLet": 2668,
      "Ġrequired": 2669,
      "Comm": 2670,
      "ctor": 2671,
      "Ġobtained": 2672,
      "ium": 2673,
      "Ġscal": 2674,
      "wise": 2675,
      "ĠBy": 2676,
      "Ġcorresponding": 2677,
      "foot": 2678,
      "ius": 2679,
      "Ġindic": 2680,
      "Ġlinear": 2681,
      "Fig": 2682,
      "CE": 2683,
      "ling": 2684,
      "Ġproduct": 2685,
      "ored": 2686,
      "option": 2687,
      "ĠBut": 2688,
      "IP": 2689,
      "Ġret": 2690,
      "uck": 2691,
      "Ġclear": 2692,
      "ici": 2693,
      "Ġgr": 2694,
      "hand": 2695,
      "Ġavailable": 2696,
      "ĠWh": 2697,
      "db": 2698,
      "mo": 2699,
      "element": 2700,
      "current": 2701,
      "Ġsay": 2702,
      "aving": 2703,
      "Ġstrong": 2704,
      "image": 2705,
      "gress": 2706,
      "tabular": 2707,
      "2014": 2708,
      "Status": 2709,
      "web": 2710,
      "github": 2711,
      "Ġpaper": 2712,
      "Ġfull": 2713,
      "member": 2714,
      "Ðµ": 2715,
      "small": 2716,
      "idual": 2717,
      "ude": 2718,
      "ird": 2719,
      "google": 2720,
      "Ġimp": 2721,
      "Ġaff": 2722,
      "ĠDe": 2723,
      "55": 2724,
      "place": 2725,
      "Ġcomplex": 2726,
      "Ġdel": 2727,
      "ograph": 2728,
      "lick": 2729,
      "illion": 2730,
      "Ġsupp": 2731,
      "}-": 2732,
      "Ġcomb": 2733,
      "Ġapproxim": 2734,
      "AME": 2735,
      "usiness": 2736,
      "Ġframe": 2737,
      "run": 2738,
      "de": 2739,
      "US": 2740,
      "xy": 2741,
      "Ġanother": 2742,
      "sing": 2743,
      "Ġdensity": 2744,
      "css": 2745,
      "=\"../": 2746,
      "mult": 2747,
      "Ġide": 2748,
      "Ġconn": 2749,
      "my": 2750,
      "Ġapproach": 2751,
      "....": 2752,
      "vironment": 2753,
      "Ġcap": 2754,
      "earch": 2755,
      "Ġtable": 2756,
      "rior": 2757,
      "Ġalong": 2758,
      "cast": 2759,
      "ially": 2760,
      "Ġold": 2761,
      "48": 2762,
      "cer": 2763,
      "Ġinclude": 2764,
      "Ġlabel": 2765,
      "ending": 2766,
      "hold": 2767,
      "ports": 2768,
      "lished": 2769,
      "ensor": 2770,
      "Ġstandard": 2771,
      "Ġrandom": 2772,
      "ponents": 2773,
      "aim": 2774,
      "Ġdocument": 2775,
      "Ġequation": 2776,
      "print": 2777,
      "Ġmatch": 2778,
      "Ġcrit": 2779,
      "Up": 2780,
      "spec": 2781,
      "Ġrate": 2782,
      "Ġcou": 2783,
      "Ġke": 2784,
      "Ġperformance": 2785,
      "uary": 2786,
      "Rec": 2787,
      "Ġanalysis": 2788,
      "\\]": 2789,
      "Ġpair": 2790,
      "ustr": 2791,
      "Ġproperties": 2792,
      "0000": 2793,
      "Ġsec": 2794,
      "uman": 2795,
      "flow": 2796,
      "Ġplace": 2797,
      "ĠNULL": 2798,
      "client": 2799,
      "oud": 2800,
      "Image": 2801,
      "display": 2802,
      "Ġcalcul": 2803,
      "epar": 2804,
      "Ġspe": 2805,
      "init": 2806,
      "dec": 2807,
      "height": 2808,
      "pol": 2809,
      "TO": 2810,
      "\\{": 2811,
      "Ġvector": 2812,
      "Sub": 2813,
      "Ġperiod": 2814,
      "outh": 2815,
      "Ġdefine": 2816,
      "ĠApp": 2817,
      "yc": 2818,
      "mark": 2819,
      "leg": 2820,
      "36": 2821,
      "Ġvol": 2822,
      "Ġsk": 2823,
      "oment": 2824,
      "Ġleast": 2825,
      "Ġboolean": 2826,
      "Ġtyp": 2827,
      "Ġfamily": 2828,
      "Date": 2829,
      "Ġparent": 2830,
      "ĠIN": 2831,
      "ĠTest": 2832,
      "EX": 2833,
      "verage": 2834,
      "Ġtimes": 2835,
      "Ġsignific": 2836,
      "ONT": 2837,
      "ĠĠĠĠĠĠĠĠĠĠĠĠĠĠĠĠĠ": 2838,
      "2013": 2839,
      "Ġcirc": 2840,
      "Ġnear": 2841,
      "Ġimplement": 2842,
      "Ġtheory": 2843,
      "Ġge": 2844,
      "ina": 2845,
      "null": 2846,
      "=\"#": 2847,
      "gle": 2848,
      "39": 2849,
      "arams": 2850,
      "Ġnormal": 2851,
      "emma": 2852,
      "Paramet": 2853,
      "urb": 2854,
      "uro": 2855,
      "IR": 2856,
      "Token": 2857,
      "Ġalready": 2858,
      "({": 2859,
      "GL": 2860,
      "Equal": 2861,
      "ocial": 2862,
      "Ġcolumn": 2863,
      "Ġ()": 2864,
      "Ġpur": 2865,
      "Ġphot": 2866,
      "dom": 2867,
      "Gener": 2868,
      "Ġless": 2869,
      "Ġlife": 2870,
      "af": 2871,
      "rary": 2872,
      "38": 2873,
      "Null": 2874,
      "ordin": 2875,
      "Ġrespectively": 2876,
      "Ġproof": 2877,
      "AP": 2878,
      "Bar": 2879,
      "ĠĠĠĠĠĠĠĠĠĠĠĠĠĠĠĠĠĠĠĠĠĠĠĠĠĠĠĠĠĠĠ": 2880,
      "ajor": 2881,
      "Ġgra": 2882,
      "31": 2883,
      "png": 2884,
      "eed": 2885,
      "Ġcases": 2886,
      "Ġservice": 2887,
      "argin": 2888,
      "ĠSo": 2889,
      "SP": 2890,
      "Ġfree": 2891,
      "els": 2892,
      "Ġexec": 2893,
      "Ġnum": 2894,
      "prop": 2895,
      "abase": 2896,
      "Ġelements": 2897,
      "Pos": 2898,
      "ĠTheorem": 2899,
      "EE": 2900,
      "}+": 2901,
      "Ġbook": 2902,
      "apt": 2903,
      "server": 2904,
      "ĠAd": 2905,
      "Ġplan": 2906,
      "ĠThey": 2907,
      ")=\\": 2908,
      ";</": 2909,
      ";\\": 2910,
      ")</": 2911,
      "SC": 2912,
      "Ġfurther": 2913,
      "Ġfew": 2914,
      "Ġconditions": 2915,
      "Ġschool": 2916,
      "request": 2917,
      "ĠComm": 2918,
      ")]": 2919,
      "stand": 2920,
      "ched": 2921,
      "ves": 2922,
      "Ġabs": 2923,
      "rows": 2924,
      "ring": 2925,
      "Ġeither": 2926,
      "Instance": 2927,
      "alt": 2928,
      "EL": 2929,
      "thm": 2930,
      "Ġ\"\"\"": 2931,
      "query": 2932,
      "Ġlower": 2933,
      "Ġprovide": 2934,
      "Ġrecent": 2935,
      "anguage": 2936,
      "pc": 2937,
      "ĠSection": 2938,
      "Ġeas": 2939,
      "Ġquest": 2940,
      "tx": 2941,
      "iff": 2942,
      "omic": 2943,
      "ury": 2944,
      "Ġalgorithm": 2945,
      "Ġaccount": 2946,
      "Ġresearch": 2947,
      "Ġalways": 2948,
      "args": 2949,
      "alle": 2950,
      "Ġteam": 2951,
      "ohn": 2952,
      "Ġseveral": 2953,
      "Style": 2954,
      ")}\\": 2955,
      "prime": 2956,
      "ised": 2957,
      "Ġphys": 2958,
      "YPE": 2959,
      "skip": 2960,
      "has": 2961,
      "otype": 2962,
      "44": 2963,
      "Ġfa": 2964,
      "Ġwhether": 2965,
      "}]": 2966,
      "Ġ&=": 2967,
      "zeta": 2968,
      "ĠOr": 2969,
      "{(": 2970,
      "Ed": 2971,
      "gener": 2972,
      "oll": 2973,
      "Ġconstruct": 2974,
      "Source": 2975,
      "namespace": 2976,
      "Ġsw": 2977,
      "Block": 2978,
      "plicit": 2979,
      "ĠGL": 2980,
      "Ġred": 2981,
      "ĠIs": 2982,
      "aster": 2983,
      "kn": 2984,
      "dir": 2985,
      "Options": 2986,
      "Ġdiff": 2987,
      "Head": 2988,
      "Ġsuff": 2989,
      "ĠUnited": 2990,
      "Ġdynam": 2991,
      "Ġmeans": 2992,
      "can": 2993,
      "ĠĠĠĠĠĠĠĠĠĠĠĠĠĠ": 2994,
      ")^{": 2995,
      "irection": 2996,
      "Ġexists": 2997,
      "}=\\": 2998,
      "ategory": 2999,
      "target": 3000,
      "append": 3001,
      "Ġcell": 3002,
      "ERT": 3003,
      "Ġorgan": 3004,
      "No": 3005,
      "orage": 3006,
      "icense": 3007,
      "ides": 3008,
      "Be": 3009,
      "operator": 3010,
      "NS": 3011,
      "37": 3012,
      "amed": 3013,
      "select": 3014,
      "Line": 3015,
      "ributes": 3016,
      "2012": 3017,
      "scale": 3018,
      "Ġtraining": 3019,
      "ecess": 3020,
      "Ġturn": 3021,
      "asing": 3022,
      "Ġsit": 3023,
      "case": 3024,
      "lying": 3025,
      "Off": 3026,
      "Ġweight": 3027,
      "Base": 3028,
      "char": 3029,
      "Ġdiv": 3030,
      "page": 3031,
      "Ġpo": 3032,
      "omorph": 3033,
      "ĠAt": 3034,
      "ĠEq": 3035,
      "ĠAmerican": 3036,
      "ĠAll": 3037,
      "Ġglobal": 3038,
      "icro": 3039,
      "Ġphase": 3040,
      "Ġassociated": 3041,
      "alf": 3042,
      "Ġlight": 3043,
      "CK": 3044,
      "lemma": 3045,
      "Ġneg": 3046,
      "Ġcover": 3047,
      "ĠThere": 3048,
      "ebug": 3049,
      "ocol": 3050,
      "Buffer": 3051,
      "inc": 3052,
      "Ġsystems": 3053,
      "frame": 3054,
      "Ġshort": 3055,
      "Ġoperator": 3056,
      "elete": 3057,
      "Ġdiag": 3058,
      "Run": 3059,
      "ĠList": 3060,
      "ĠEn": 3061,
      "Ġseries": 3062,
      "izer": 3063,
      "child": 3064,
      "ues": 3065,
      "Ġsimple": 3066,
      "ĠCO": 3067,
      "Ġbetter": 3068,
      "Ġdefinition": 3069,
      "Ġleg": 3070,
      "Dec": 3071,
      "ptr": 3072,
      "Ġzero": 3073,
      "module": 3074,
      "pped": 3075,
      "Ġday": 3076,
      "Ext": 3077,
      "ĠEng": 3078,
      "cdots": 3079,
      "Cl": 3080,
      "Ġhttp": 3081,
      ".~": 3082,
      "REF": 3083,
      "Ġsignificant": 3084,
      "ĠNo": 3085,
      "ories": 3086,
      "Content": 3087,
      "Ġlater": 3088,
      "uid": 3089,
      "Oper": 3090,
      "ĠShe": 3091,
      "adata": 3092,
      "Attribute": 3093,
      "mat": 3094,
      "json": 3095,
      "Ġfields": 3096,
      "button": 3097,
      "oice": 3098,
      "Handler": 3099,
      "Ġport": 3100,
      "II": 3101,
      "Filter": 3102,
      "}|": 3103,
      "Ġhigher": 3104,
      "Ġcare": 3105,
      "Resource": 3106,
      "Ġ+=": 3107,
      "âĢĶ": 3108,
      "Par": 3109,
      "][": 3110,
      "MS": 3111,
      "Ġbehav": 3112,
      "ATE": 3113,
      "}^\\": 3114,
      "pdf": 3115,
      "ably": 3116,
      "ging": 3117,
      "Ġ->": 3118,
      "verse": 3119,
      "Ġadv": 3120,
      ",-": 3121,
      "Ġfinite": 3122,
      "ertain": 3123,
      "parent": 3124,
      "split": 3125,
      "Component": 3126,
      "Ð¸": 3127,
      "CC": 3128,
      "ugin": 3129,
      "widehat": 3130,
      "$)": 3131,
      "Ġfocus": 3132,
      "ĠThese": 3133,
      "write": 3134,
      "textwidth": 3135,
      "Ġsepar": 3136,
      "Ġmight": 3137,
      "ideo": 3138,
      "ĠâĢĶ": 3139,
      "Psi": 3140,
      "cell": 3141,
      ",\"": 3142,
      "Ġbelow": 3143,
      "Ġborder": 3144,
      "active": 3145,
      "Ġpositive": 3146,
      "ony": 3147,
      "ently": 3148,
      "ĠâĢĺ": 3149,
      "}_\\": 3150,
      "Ġcost": 3151,
      "ks": 3152,
      "Function": 3153,
      "Ġwrite": 3154,
      "olved": 3155,
      "<!--": 3156,
      "ĠPr": 3157,
      "Ġclose": 3158,
      "Action": 3159,
      "ĠMar": 3160,
      "Ġmot": 3161,
      "now": 3162,
      "based": 3163,
      "ĠAdd": 3164,
      "Str": 3165,
      "local": 3166,
      "65": 3167,
      "rl": 3168,
      "Ġscale": 3169,
      "Ġside": 3170,
      "ological": 3171,
      "Factory": 3172,
      "which": 3173,
      "rist": 3174,
      "eger": 3175,
      "HT": 3176,
      "78": 3177,
      "Ġcomponent": 3178,
      "lib": 3179,
      "Ġhy": 3180,
      "mathsf": 3181,
      "*/": 3182,
      "hspace": 3183,
      "une": 3184,
      "Ġ\\{": 3185,
      "Ġfore": 3186,
      "///": 3187,
      "Ġsymmet": 3188,
      "php": 3189,
      "Ġprovided": 3190,
      "ĠFr": 3191,
      "Ġimpl": 3192,
      "}}(": 3193,
      "2011": 3194,
      "Ġrelations": 3195,
      "Ġfail": 3196,
      "IM": 3197,
      "Ġindiv": 3198,
      "oding": 3199,
      "AG": 3200,
      "ĠSu": 3201,
      "Ġrole": 3202,
      "pling": 3203,
      "Ġprop": 3204,
      "Window": 3205,
      "ÑĤ": 3206,
      "plac": 3207,
      "po": 3208,
      "Ġevalu": 3209,
      "Vert": 3210,
      "Ġtrad": 3211,
      "adding": 3212,
      "}\\,": 3213,
      "cos": 3214,
      "anch": 3215,
      "do": 3216,
      "Default": 3217,
      "sg": 3218,
      "Ġthrows": 3219,
      "Ġauthor": 3220,
      "expect": 3221,
      "Lay": 3222,
      "Ġperm": 3223,
      "True": 3224,
      "Ġcoll": 3225,
      "ilt": 3226,
      "ĠUS": 3227,
      "eline": 3228,
      "src": 3229,
      "})\\": 3230,
      "Ġla": 3231,
      "Ġund": 3232,
      "used": 3233,
      "Ġandroid": 3234,
      "Ġ{@": 3235,
      "Ġgrow": 3236,
      "lied": 3237,
      "02": 3238,
      "04": 3239,
      "idence": 3240,
      "Ġheight": 3241,
      "stit": 3242,
      "Start": 3243,
      "xml": 3244,
      "Ġhapp": 3245,
      "Ġcross": 3246,
      "\".": 3247,
      "Ġgoing": 3248,
      "usic": 3249,
      "UE": 3250,
      "Version": 3251,
      "Ġann": 3252,
      "ged": 3253,
      "Ġconsist": 3254,
      "Ġarea": 3255,
      "first": 3256,
      "Ġloss": 3257,
      "Ġdesign": 3258,
      "ĠReturn": 3259,
      "qquad": 3260,
      "ĠDef": 3261,
      "Ġchannel": 3262,
      "Ġrest": 3263,
      "Ġfilter": 3264,
      "fill": 3265,
      "Ġstep": 3266,
      "ĠPl": 3267,
      "Ġput": 3268,
      "gebra": 3269,
      "Ġdatas": 3270,
      "Ġcompar": 3271,
      "Ġfund": 3272,
      "Ġbo": 3273,
      "Ġsom": 3274,
      "Arg": 3275,
      "ĠObject": 3276,
      "wards": 3277,
      "Ġcommon": 3278,
      "95": 3279,
      "example": 3280,
      "ober": 3281,
      "2010": 3282,
      "Ġfeatures": 3283,
      "Ġpage": 3284,
      "Ġdone": 3285,
      "Ġfixed": 3286,
      "obj": 3287,
      "[\"": 3288,
      "OP": 3289,
      "Ġsequence": 3290,
      "property": 3291,
      "ĠAss": 3292,
      "header": 3293,
      "Ġevents": 3294,
      "Ġhealth": 3295,
      "ĠCl": 3296,
      "undle": 3297,
      "Ġtemper": 3298,
      "Ġhome": 3299,
      "Ġlarg": 3300,
      "Ġlines": 3301,
      "^+": 3302,
      "column": 3303,
      "bb": 3304,
      "Ġsem": 3305,
      "lip": 3306,
      "imensional": 3307,
      "tact": 3308,
      "Ġgovernment": 3309,
      "lex": 3310,
      "ught": 3311,
      "Ġfeature": 3312,
      "ĠĠĠĠĠĠĠĠĊ": 3313,
      "ĠFigure": 3314,
      "xspace": 3315,
      "08": 3316,
      "Ġfrequ": 3317,
      "Ġrecord": 3318,
      "ensions": 3319,
      "Ġpredict": 3320,
      "Ġ((": 3321,
      "Ġcontains": 3322,
      "filter": 3323,
      "Equals": 3324,
      "FA": 3325,
      "Nav": 3326,
      "command": 3327,
      "Ġthus": 3328,
      "Ġspecific": 3329,
      "OS": 3330,
      "ising": 3331,
      "ters": 3332,
      "build": 3333,
      "Ġ]": 3334,
      "izing": 3335,
      "endif": 3336,
      "Act": 3337,
      "medi": 3338,
      "ached": 3339,
      "{{\\": 3340,
      "most": 3341,
      "Ġconsidered": 3342,
      "Ġseen": 3343,
      "Ġproposed": 3344,
      "ĠCent": 3345,
      "Ġspecial": 3346,
      "Ġprotected": 3347,
      "Ġmoment": 3348,
      "ĠStates": 3349,
      "open": 3350,
      "Ġuntil": 3351,
      "jav": 3352,
      "OD": 3353,
      "Ġgive": 3354,
      "Ġop": 3355,
      "cup": 3356,
      "Ġprom": 3357,
      "Ġindividual": 3358,
      "Ġload": 3359,
      "Ġdouble": 3360,
      "Ġcannot": 3361,
      "book": 3362,
      "Ġvia": 3363,
      "Rep": 3364,
      "inst": 3365,
      "Comp": 3366,
      "Ob": 3367,
      "Ġreason": 3368,
      "rum": 3369,
      "ball": 3370,
      "Ġlearning": 3371,
      "LASS": 3372,
      "host": 3373,
      "though": 3374,
      "Number": 3375,
      "Ġmajor": 3376,
      "strong": 3377,
      "ĠWhen": 3378,
      "Ġtoo": 3379,
      "});": 3380,
      "Ġiter": 3381,
      "Ġequival": 3382,
      "igation": 3383,
      "Ġgame": 3384,
      "Ġclient": 3385,
      "07": 3386,
      "Ġmode": 3387,
      "ted": 3388,
      "Ġaverage": 3389,
      "Ġtransition": 3390,
      "dat": 3391,
      "Ġhard": 3392,
      "uk": 3393,
      "ĠRep": 3394,
      "Row": 3395,
      "Ġweek": 3396,
      "Spec": 3397,
      "igger": 3398,
      "ament": 3399,
      "status": 3400,
      "Ġprobability": 3401,
      "change": 3402,
      "gl": 3403,
      "Ġbusiness": 3404,
      "itted": 3405,
      "bottom": 3406,
      "Ġval": 3407,
      "level": 3408,
      "imary": 3409,
      "onal": 3410,
      "}^{(": 3411,
      "dapt": 3412,
      "font": 3413,
      "Prov": 3414,
      "long": 3415,
      "agement": 3416,
      "ires": 3417,
      "&=": 3418,
      "Ġver": 3419,
      "empty": 3420,
      "alax": 3421,
      "ster": 3422,
      "Ġfuture": 3423,
      "Ġfactor": 3424,
      "Ġnumer": 3425,
      "HE": 3426,
      "Ġtransform": 3427,
      "appro": 3428,
      "indent": 3429,
      "Point": 3430,
      "Ġdistance": 3431,
      "atform": 3432,
      "Ġpolit": 3433,
      "Load": 3434,
      "num": 3435,
      "scr": 3436,
      "ialog": 3437,
      "mt": 3438,
      "Ġindependent": 3439,
      "ĠInt": 3440,
      "ula": 3441,
      "////////////////": 3442,
      "Ġnecess": 3443,
      "find": 3444,
      "${": 3445,
      "ĠGe": 3446,
      "Ġ$(\\": 3447,
      "ech": 3448,
      "Ġobserved": 3449,
      "netic": 3450,
      "ĠMan": 3451,
      "conn": 3452,
      "Ġmultiple": 3453,
      "49": 3454,
      "ĠNone": 3455,
      "ĠLemma": 3456,
      "Ġsearch": 3457,
      "push": 3458,
      "known": 3459,
      "Ġlik": 3460,
      "Ġflow": 3461,
      "equiv": 3462,
      "Ġexpress": 3463,
      "Ġspecified": 3464,
      "Ġhost": 3465,
      "Ġassume": 3466,
      "Ġchildren": 3467,
      "Ġdomain": 3468,
      "main": 3469,
      "FI": 3470,
      "Ġeng": 3471,
      "ĠSince": 3472,
      "Ġable": 3473,
      "ĠReg": 3474,
      "68": 3475,
      "ĠMay": 3476,
      "ips": 3477,
      "Ġsug": 3478,
      "pping": 3479,
      "atural": 3480,
      "finished": 3481,
      "}/": 3482,
      "Frame": 3483,
      "Ġmodule": 3484,
      "INT": 3485,
      "post": 3486,
      "stream": 3487,
      "ulations": 3488,
      "ĠCan": 3489,
      "(-": 3490,
      "Ġexact": 3491,
      "VER": 3492,
      "aps": 3493,
      "riter": 3494,
      "last": 3495,
      "dr": 3496,
      "Ġemploy": 3497,
      "Ġextends": 3498,
      "}:": 3499,
      "AM": 3500,
      "Ġdisplay": 3501,
      "03": 3502,
      "Ġpub": 3503,
      "Ġpay": 3504,
      "77": 3505,
      "Ġfr": 3506,
      "mid": 3507,
      "}\\\\": 3508,
      "Ġmonth": 3509,
      "Ġdescribed": 3510,
      "len": 3511,
      "actions": 3512,
      "Ġ&\\": 3513,
      "Ġpract": 3514,
      "Task": 3515,
      "Wh": 3516,
      "FONT": 3517,
      "sin": 3518,
      "gen": 3519,
      "Ad": 3520,
      "process": 3521,
      "Const": 3522,
      "std": 3523,
      "Check": 3524,
      "reed": 3525,
      "Ġupdate": 3526,
      "OL": 3527,
      "ilities": 3528,
      "Sp": 3529,
      "atio": 3530,
      "ĠSp": 3531,
      "igen": 3532,
      "Ġestab": 3533,
      "Part": 3534,
      ".$": 3535,
      "oke": 3536,
      "|^": 3537,
      "Ġclaim": 3538,
      "Ð½": 3539,
      "semb": 3540,
      "Ġreally": 3541,
      "prototype": 3542,
      "ogn": 3543,
      "Ġfac": 3544,
      "Ġsets": 3545,
      "raction": 3546,
      "ĠCar": 3547,
      "attr": 3548,
      "Ġins": 3549,
      "iation": 3550,
      "Ġgreat": 3551,
      "Ġbi": 3552,
      "Ġemb": 3553,
      "Ġunit": 3554,
      "Ġurl": 3555,
      "Link": 3556,
      "edia": 3557,
      "iol": 3558,
      "Ġwindow": 3559,
      "Ġmove": 3560,
      "Ġedge": 3561,
      "Create": 3562,
      "_.": 3563,
      "tag": 3564,
      "signed": 3565,
      "ought": 3566,
      "ceed": 3567,
      "icol": 3568,
      "âĢ¦": 3569,
      "NO": 3570,
      "Fl": 3571,
      "Ġdest": 3572,
      "ĠJohn": 3573,
      "note": 3574,
      "bound": 3575,
      "Ġnever": 3576,
      "Ġhom": 3577,
      "Ġequal": 3578,
      "(&": 3579,
      "{}": 3580,
      "Ġgenerated": 3581,
      "btn": 3582,
      "Ġfar": 3583,
      "\"]": 3584,
      "ĠState": 3585,
      "stract": 3586,
      "ĠMore": 3587,
      "Ġmembers": 3588,
      "acity": 3589,
      "Ġrelated": 3590,
      "ĉĠĠĠ": 3591,
      "Ġcertain": 3592,
      "Ġcountry": 3593,
      "ours": 3594,
      "Ġacross": 3595,
      "edd": 3596,
      "operatorname": 3597,
      "mar": 3598,
      "SON": 3599,
      "project": 3600,
      "ĠBl": 3601,
      "Ġoffic": 3602,
      "Child": 3603,
      "Ġoption": 3604,
      "img": 3605,
      "private": 3606,
      "ansport": 3607,
      "ĠLe": 3608,
      "Ġresource": 3609,
      "Ġstatus": 3610,
      "dl": 3611,
      "Ġsuggest": 3612,
      "iform": 3613,
      "Ġcopy": 3614,
      "ledge": 3615,
      "Ġtypes": 3616,
      "Ġben": 3617,
      "Ġfilm": 3618,
      "dist": 3619,
      "Ġamong": 3620,
      "izes": 3621,
      "mail": 3622,
      "06": 3623,
      "Ġoften": 3624,
      "urope": 3625,
      "Ġbody": 3626,
      "refix": 3627,
      "ai": 3628,
      "unfinished": 3629,
      "Ġhistory": 3630,
      "Ġblack": 3631,
      "empt": 3632,
      "ittle": 3633,
      "Ġexperiment": 3634,
      "yles": 3635,
      "Ġselect": 3636,
      "PRO": 3637,
      "citet": 3638,
      "ĠGener": 3639,
      "pack": 3640,
      "Ġseem": 3641,
      "Ġadditional": 3642,
      "]$": 3643,
      "ABLE": 3644,
      "aged": 3645,
      "Ġtoget": 3646,
      "Ġconstraint": 3647,
      "ĠJan": 3648,
      "buf": 3649,
      "Ġtogether": 3650,
      "({\\": 3651,
      "Label": 3652,
      "ĠCal": 3653,
      "Ġaccording": 3654,
      "efined": 3655,
      "Ġbu": 3656,
      "Ġaccur": 3657,
      "Hel": 3658,
      "Ġobjects": 3659,
      "ĠWith": 3660,
      "Page": 3661,
      "BU": 3662,
      "Ġstar": 3663,
      "rain": 3664,
      "chan": 3665,
      "plus": 3666,
      "description": 3667,
      ")-": 3668,
      "ĠYork": 3669,
      "params": 3670,
      "Sc": 3671,
      "Ġhuman": 3672,
      "ication": 3673,
      "Format": 3674,
      "ĠPol": 3675,
      "edge": 3676,
      "SI": 3677,
      "number": 3678,
      "PC": 3679,
      "ocket": 3680,
      "Ġconc": 3681,
      "'$": 3682,
      "Ġbecome": 3683,
      "Met": 3684,
      "normal": 3685,
      "Pol": 3686,
      "Ġkind": 3687,
      "scope": 3688,
      "2009": 3689,
      "abs": 3690,
      "arr": 3691,
      "Ġ!==": 3692,
      "ĠAct": 3693,
      "Output": 3694,
      "ighb": 3695,
      "icture": 3696,
      "Ġquantum": 3697,
      "Ġapplication": 3698,
      "umerate": 3699,
      "42": 3700,
      "oose": 3701,
      "yl": 3702,
      "ributed": 3703,
      "grad": 3704,
      "ference": 3705,
      "67": 3706,
      "idden": 3707,
      "ething": 3708,
      "ino": 3709,
      "ley": 3710,
      "Ġregular": 3711,
      "Ġlim": 3712,
      "ĠSc": 3713,
      "remove": 3714,
      "Ġconv": 3715,
      "update": 3716,
      "Ġinstead": 3717,
      "Ġanaly": 3718,
      "Ġoptim": 3719,
      "Ġsurface": 3720,
      "rs": 3721,
      "47": 3722,
      "Column": 3723,
      "Ent": 3724,
      "ĠNational": 3725,
      "}}{\\": 3726,
      "}+\\": 3727,
      "Ġvarious": 3728,
      "eloc": 3729,
      "ĠĠĠĠĠĠĠĠĠĠĠĠĊ": 3730,
      "Ġearly": 3731,
      "ĉĉĉĉĉĉĉĉ": 3732,
      "Ġgroups": 3733,
      "ÑĢ": 3734,
      "thers": 3735,
      "ĠBe": 3736,
      "Ġcontribution": 3737,
      "Ġcenter": 3738,
      "rowser": 3739,
      "enn": 3740,
      "oriz": 3741,
      "Ġapplic": 3742,
      "olve": 3743,
      "gr": 3744,
      "Ġgl": 3745,
      "Length": 3746,
      "Ð¾Ð": 3747,
      "Ġtrack": 3748,
      "ĠFe": 3749,
      "CON": 3750,
      "thing": 3751,
      "ql": 3752,
      "First": 3753,
      "Ġcallback": 3754,
      "neq": 3755,
      "Ġdenote": 3756,
      "UM": 3757,
      "format": 3758,
      "URL": 3759,
      "Ġunderstand": 3760,
      "88": 3761,
      "Ġsl": 3762,
      "Ġenough": 3763,
      "Ġchanges": 3764,
      "star": 3765,
      "Return": 3766,
      "Ġmillion": 3767,
      "unit": 3768,
      "Pre": 3769,
      "Cache": 3770,
      "Ġprof": 3771,
      "uint": 3772,
      "oto": 3773,
      "Ġinternal": 3774,
      "evel": 3775,
      "Ġss": 3776,
      "Ġsent": 3777,
      "aries": 3778,
      "more": 3779,
      "Ġprint": 3780,
      "sole": 3781,
      "Ġant": 3782,
      "Ġtaken": 3783,
      "DB": 3784,
      "encies": 3785,
      "ering": 3786,
      "float": 3787,
      "ĠNot": 3788,
      "stack": 3789,
      "Ġcreated": 3790,
      "Ġ[]": 3791,
      "ieve": 3792,
      "Ġhowever": 3793,
      "&&": 3794,
      "Ġamount": 3795,
      "iddle": 3796,
      "09": 3797,
      "Ġenvironment": 3798,
      "Ġtre": 3799,
      "acc": 3800,
      "Listener": 3801,
      "iqu": 3802,
      "uly": 3803,
      "Ġconver": 3804,
      "ĠRef": 3805,
      "pher": 3806,
      "container": 3807,
      "rule": 3808,
      "iler": 3809,
      "Ġimages": 3810,
      "Command": 3811,
      "ze": 3812,
      "Ġjob": 3813,
      "Valid": 3814,
      "Ġrow": 3815,
      "Ġlarger": 3816,
      "Ġcustom": 3817,
      "Ġcome": 3818,
      "instance": 3819,
      "Ut": 3820,
      "Ġmer": 3821,
      "Offset": 3822,
      "ls": 3823,
      "era": 3824,
      "Aut": 3825,
      "ause": 3826,
      "Ġnote": 3827,
      "Ġcommand": 3828,
      "meta": 3829,
      "2008": 3830,
      "Ġgalax": 3831,
      "Ġcompany": 3832,
      "apping": 3833,
      "Next": 3834,
      "ftware": 3835,
      "ilit": 3836,
      "returns": 3837,
      "Ġissu": 3838,
      "CD": 3839,
      "Ġrepresentation": 3840,
      "mem": 3841,
      "ĠMin": 3842,
      "Ġspin": 3843,
      "}-\\": 3844,
      "ĠSec": 3845,
      "ĠEurope": 3846,
      "ategy": 3847,
      "Ġboundary": 3848,
      "values": 3849,
      "Ġinterface": 3850,
      "Controller": 3851,
      "Address": 3852,
      "Ġprec": 3853,
      "Ġhtt": 3854,
      "close": 3855,
      "ĠThat": 3856,
      "}}_": 3857,
      "Ġreference": 3858,
      "output": 3859,
      "ĠCor": 3860,
      ")}{": 3861,
      "Case": 3862,
      "Ġsays": 3863,
      "ERR": 3864,
      "Ġcluster": 3865,
      "response": 3866,
      "irm": 3867,
      "Ġbegin": 3868,
      "heet": 3869,
      "Char": 3870,
      "linear": 3871,
      "Ġrelation": 3872,
      "Ġroot": 3873,
      "that": 3874,
      "Ġecon": 3875,
      "ĠThus": 3876,
      "Ġappear": 3877,
      "Ġhaving": 3878,
      "Mode": 3879,
      "Em": 3880,
      "fs": 3881,
      "Ġprior": 3882,
      "CL": 3883,
      "Ġill": 3884,
      "Acc": 3885,
      "ĠNote": 3886,
      "ĠOne": 3887,
      "ements": 3888,
      "entry": 3889,
      "TYPE": 3890,
      "theorem": 3891,
      "ops": 3892,
      "ided": 3893,
      "Rem": 3894,
      "Ġcatch": 3895,
      "\").": 3896,
      "vspace": 3897,
      "cs": 3898,
      "Box": 3899,
      "Ġuint": 3900,
      "\"),": 3901,
      "197": 3902,
      "enumerate": 3903,
      "ĠWorld": 3904,
      "Ġfit": 3905,
      "]\\": 3906,
      "ometry": 3907,
      "Ġcoordin": 3908,
      "multicol": 3909,
      "Ġ-\\": 3910,
      "One": 3911,
      "Width": 3912,
      "Ġsocial": 3913,
      "mathscr": 3914,
      "Ġdate": 3915,
      "illi": 3916,
      "Ġhttps": 3917,
      "Ġcorrect": 3918,
      "UI": 3919,
      "Ġgives": 3920,
      "NN": 3921,
      "task": 3922,
      "eved": 3923,
      "Ġkeep": 3924,
      "like": 3925,
      "imate": 3926,
      "istry": 3927,
      "Ġserver": 3928,
      "dep": 3929,
      "tool": 3930,
      "Ġlanguage": 3931,
      "itemize": 3932,
      "abor": 3933,
      "TP": 3934,
      "Ġes": 3935,
      "nce": 3936,
      "Ġquery": 3937,
      "ĠCo": 3938,
      "multicolumn": 3939,
      "ĠSer": 3940,
      "Ġtherefore": 3941,
      "Server": 3942,
      "ney": 3943,
      "Ġshall": 3944,
      "Ġdetails": 3945,
      "Ġcomplete": 3946,
      "Ġcommunity": 3947,
      "omial": 3948,
      "Ġdevelopment": 3949,
      "Ġsubject": 3950,
      "Ġsetting": 3951,
      "hood": 3952,
      "ln": 3953,
      "Ġvariables": 3954,
      "sche": 3955,
      "Ġarr": 3956,
      "Ġ\\|": 3957,
      "sembly": 3958,
      "aly": 3959,
      "46": 3960,
      "Per": 3961,
      "Ġwhose": 3962,
      "Ġpolicy": 3963,
      "Ġwon": 3964,
      "Ġoperation": 3965,
      ">>": 3966,
      "Ġholds": 3967,
      "ises": 3968,
      "ply": 3969,
      "ica": 3970,
      "comes": 3971,
      "Ġmaterial": 3972,
      "py": 3973,
      "++)": 3974,
      "ifact": 3975,
      "Web": 3976,
      "offset": 3977,
      "Ġwritten": 3978,
      "only": 3979,
      "ĠClass": 3980,
      "Ġband": 3981,
      "service": 3982,
      "show": 3983,
      "ĠPart": 3984,
      "IO": 3985,
      "Ġstream": 3986,
      "Ġfig": 3987,
      "oder": 3988,
      "Ġcomponents": 3989,
      "ĠPar": 3990,
      "Ġequations": 3991,
      "ĠID": 3992,
      "ĠTe": 3993,
      "aint": 3994,
      "notation": 3995,
      "eder": 3996,
      "Ġvariable": 3997,
      "ĠEX": 3998,
      "strict": 3999,
      "Ġdegree": 4000,
      "Ġformat": 4001,
      "ty": 4002,
      "istics": 4003,
      "Fe": 4004,
      "unk": 4005,
      "Ġimplies": 4006,
      "Ġlearn": 4007,
      "else": 4008,
      "Ġunique": 4009,
      "ĠHREF": 4010,
      "mon": 4011,
      "Ġarch": 4012,
      "Ġhold": 4013,
      "Ġmaximum": 4014,
      "Ġtemperature": 4015,
      "Ġworks": 4016,
      "([": 4017,
      "Ġweak": 4018,
      "ĠCLASS": 4019,
      "noindent": 4020,
      "Ġthings": 4021,
      "2007": 4022,
      "Ġworking": 4023,
      "dag": 4024,
      "ĠTable": 4025,
      "ĠChrist": 4026,
      "~$": 4027,
      "COL": 4028,
      "98": 4029,
      ")}$": 4030,
      "rypt": 4031,
      "typ": 4032,
      "Ab": 4033,
      "Ġvirtual": 4034,
      "={": 4035,
      "Pi": 4036,
      "inally": 4037,
      "Select": 4038,
      "Ġargument": 4039,
      "Sec": 4040,
      "navbar": 4041,
      "Ġrelative": 4042,
      "Ġeffective": 4043,
      "Sche": 4044,
      "Ġdenot": 4045,
      "$}": 4046,
      "isk": 4047,
      "NAME": 4048,
      "ds": 4049,
      "\\\"": 4050,
      "aves": 4051,
      "Ġadded": 4052,
      "Ġonce": 4053,
      "Ġrot": 4054,
      "cy": 4055,
      "ĠWest": 4056,
      "anged": 4057,
      "ascript": 4058,
      "Ġprove": 4059,
      "ĠNov": 4060,
      "Ġoffset": 4061,
      "jection": 4062,
      "utes": 4063,
      "Ġsolutions": 4064,
      "ussian": 4065,
      "Ġyield": 4066,
      "Ġquestion": 4067,
      "(_": 4068,
      "\\,\\": 4069,
      "Provider": 4070,
      "ship": 4071,
      "Ġveloc": 4072,
      "astic": 4073,
      "Ġcoeff": 4074,
      "FT": 4075,
      "ional": 4076,
      "Ġgrad": 4077,
      "Ġauto": 4078,
      "template": 4079,
      "pass": 4080,
      "Ġimprov": 4081,
      "ĠAPI": 4082,
      "Url": 4083,
      "variant": 4084,
      "AA": 4085,
      "aches": 4086,
      "<?": 4087,
      "Ġsomething": 4088,
      "ĠLicense": 4089,
      "Ñģ": 4090,
      "Ġapply": 4091,
      "ĠSim": 4092,
      ":\"": 4093,
      "Ġcontinue": 4094,
      "ibrary": 4095,
      "expected": 4096,
      "Ġland": 4097,
      "Dat": 4098,
      "Ġdifference": 4099,
      "Ġlen": 4100,
      "reference": 4101,
      "ĠCont": 4102,
      "Ġcity": 4103,
      "Ġattack": 4104,
      "andid": 4105,
      "Sim": 4106,
      "Ġmatter": 4107,
      "Update": 4108,
      "Ġmaking": 4109,
      "lections": 4110,
      "quare": 4111,
      "Ġwomen": 4112,
      "Ġconfiguration": 4113,
      "********************************": 4114,
      "Ġ~": 4115,
      "ured": 4116,
      "Ġnodes": 4117,
      "2000": 4118,
      "\\}$": 4119,
      "Ġbig": 4120,
      "58": 4121,
      "Ġconnection": 4122,
      "Net": 4123,
      "Ġbasis": 4124,
      "Ġeffects": 4125,
      "Since": 4126,
      "Ġprovides": 4127,
      "Ġrather": 4128,
      "Ġground": 4129,
      "Ġdirection": 4130,
      "Ġstre": 4131,
      "{{": 4132,
      "Ġbit": 4133,
      "itude": 4134,
      "ND": 4135,
      "Ġexplain": 4136,
      "Ġinit": 4137,
      "57": 4138,
      "Ġexpression": 4139,
      "Ġobj": 4140,
      "lease": 4141,
      "Back": 4142,
      "itional": 4143,
      "dimensional": 4144,
      "Ġreturns": 4145,
      "layout": 4146,
      "itory": 4147,
      "should": 4148,
      "pose": 4149,
      "Last": 4150,
      "ĠArt": 4151,
      "Ġdraw": 4152,
      "').": 4153,
      "Ġtool": 4154,
      "CP": 4155,
      "Ġlocation": 4156,
      "Max": 4157,
      "norm": 4158,
      "```": 4159,
      "########": 4160,
      "ĠType": 4161,
      "mooth": 4162,
      "IV": 4163,
      "Ġthird": 4164,
      "icult": 4165,
      "urch": 4166,
      "rest": 4167,
      "clusion": 4168,
      "There": 4169,
      "tains": 4170,
      "shift": 4171,
      "SU": 4172,
      "Ġpress": 4173,
      "SO": 4174,
      "Ġnatural": 4175,
      "lor": 4176,
      "atal": 4177,
      "Dev": 4178,
      "Button": 4179,
      "Ġdirectly": 4180,
      "Ġask": 4181,
      "Ġcompared": 4182,
      "bind": 4183,
      "Ġremov": 4184,
      "ĠDis": 4185,
      "na": 4186,
      "Ġmechan": 4187,
      "aff": 4188,
      "Ġbuffer": 4189,
      "SD": 4190,
      "2006": 4191,
      "Ġpast": 4192,
      "inner": 4193,
      "udio": 4194,
      "PR": 4195,
      "Ġdescription": 4196,
      "proto": 4197,
      "}}}": 4198,
      "roy": 4199,
      ")+": 4200,
      "43": 4201,
      "require": 4202,
      "atively": 4203,
      "ĠAb": 4204,
      "imation": 4205,
      "Ġlate": 4206,
      "./": 4207,
      "Ġdimension": 4208,
      "Ġfive": 4209,
      "parse": 4210,
      "pload": 4211,
      "ried": 4212,
      "500": 4213,
      "aging": 4214,
      "Ġmakes": 4215,
      "Ġaccept": 4216,
      "sem": 4217,
      "ones": 4218,
      "system": 4219,
      "Ġreview": 4220,
      "Ġstory": 4221,
      "Ġchall": 4222,
      "ĠPres": 4223,
      "break": 4224,
      "gence": 4225,
      "Ġdays": 4226,
      "ĠĠĠĠĠĠĠĠĠĠĠĠĠĠĠĠĠĠĠĠĠĠĠĠĠĠĠĠĠĠĠĠĠĠĠ": 4227,
      "ully": 4228,
      "Types": 4229,
      "Container": 4230,
      "Ġmember": 4231,
      "Ġmargin": 4232,
      "menu": 4233,
      "ĉĠ": 4234,
      "mber": 4235,
      "cel": 4236,
      "Entry": 4237,
      "]);": 4238,
      "Ġargs": 4239,
      "Ġgre": 4240,
      "Ġpattern": 4241,
      "allet": 4242,
      "ĠArray": 4243,
      "96": 4244,
      "Ġtree": 4245,
      "Ġarguments": 4246,
      "match": 4247,
      "clude": 4248,
      "exec": 4249,
      "Ġax": 4250,
      "ĠComp": 4251,
      "tax": 4252,
      "Ġtw": 4253,
      "Target": 4254,
      "root": 4255,
      "}'": 4256,
      "Ġstudents": 4257,
      "Ġlot": 4258,
      "hel": 4259,
      "56": 4260,
      "ĠHT": 4261,
      "Ġestimate": 4262,
      "cd": 4263,
      "$(": 4264,
      "bin": 4265,
      "soft": 4266,
      "Ġapplied": 4267,
      "ĠGr": 4268,
      "Us": 4269,
      "artment": 4270,
      "ĠTherefore": 4271,
      "Ġmedia": 4272,
      "ĠFile": 4273,
      "multi": 4274,
      "API": 4275,
      "Then": 4276,
      "Ġeduc": 4277,
      "Configuration": 4278,
      "ĠDo": 4279,
      "^-": 4280,
      "Ġneighb": 4281,
      "board": 4282,
      "flu": 4283,
      "Ġneeded": 4284,
      "Ġbehavior": 4285,
      "rief": 4286,
      "riptor": 4287,
      "41": 4288,
      "Ġincrease": 4289,
      "Ġalgebra": 4290,
      "rics": 4291,
      "Ġpanel": 4292,
      "Ġtreat": 4293,
      "ites": 4294,
      "Ġdeb": 4295,
      "Ġlittle": 4296,
      "Ġdi": 4297,
      "ĠWar": 4298,
      "Ġproblems": 4299,
      "Tag": 4300,
      "Ġsignal": 4301,
      "Ġregard": 4302,
      "raft": 4303,
      "anta": 4304,
      "Ġmusic": 4305,
      "Ġimpact": 4306,
      "ĠQu": 4307,
      "ba": 4308,
      "ĠOF": 4309,
      "amil": 4310,
      "Mem": 4311,
      "tree": 4312,
      "ĠData": 4313,
      "tic": 4314,
      "sup": 4315,
      "Ġalmost": 4316,
      "underline": 4317,
      "ĠSouth": 4318,
      "ernel": 4319,
      "approx": 4320,
      "support": 4321,
      "images": 4322,
      "Note": 4323,
      "ians": 4324,
      "Ġ**": 4325,
      "javascript": 4326,
      "kit": 4327,
      "otal": 4328,
      "'),": 4329,
      "Ġselected": 4330,
      "Ġthough": 4331,
      "iments": 4332,
      "ycle": 4333,
      "ĠAg": 4334,
      "Ġliter": 4335,
      "Ġstars": 4336,
      "ĠAug": 4337,
      "Ġhalf": 4338,
      "lege": 4339,
      "essages": 4340,
      "ales": 4341,
      "istor": 4342,
      "oman": 4343,
      "Ġviol": 4344,
      "depend": 4345,
      "Ġexception": 4346,
      "Ġclosed": 4347,
      "Interface": 4348,
      "Ġpercent": 4349,
      "itions": 4350,
      "Ġprofile": 4351,
      "Header": 4352,
      "Ġgot": 4353,
      "Ġwords": 4354,
      "window": 4355,
      "Ġallows": 4356,
      "ĠCount": 4357,
      "Ġactive": 4358,
      "pg": 4359,
      "buffer": 4360,
      "achine": 4361,
      "ĠOct": 4362,
      "ĠSchool": 4363,
      "rapper": 4364,
      "Ġneut": 4365,
      "ĠĠĠĊ": 4366,
      "()->": 4367,
      "Ġpresented": 4368,
      "ouch": 4369,
      "Vis": 4370,
      "97": 4371,
      "Ġfont": 4372,
      "When": 4373,
      "ãģ": 4374,
      "*{": 4375,
      "anced": 4376,
      "Ġcut": 4377,
      "Range": 4378,
      "refer": 4379,
      "Ġpers": 4380,
      "ĠÂ": 4381,
      "oney": 4382,
      "Callback": 4383,
      "Ġpopulation": 4384,
      "older": 4385,
      "late": 4386,
      "Ġincluded": 4387,
      "Top": 4388,
      "ights": 4389,
      "Access": 4390,
      "Layout": 4391,
      ")|": 4392,
      "istration": 4393,
      "Parameter": 4394,
      "Ġservices": 4395,
      "Ġ<!--": 4396,
      "year": 4397,
      "ctx": 4398,
      "Process": 4399,
      "Ġmagnetic": 4400,
      "Ġcourse": 4401,
      "Ġreceived": 4402,
      "Min": 4403,
      "Ġ...": 4404,
      "onstr": 4405,
      "ounter": 4406,
      "Utils": 4407,
      "Ġneeds": 4408,
      "Ġlayer": 4409,
      "det": 4410,
      "ulated": 4411,
      "common": 4412,
      "DF": 4413,
      "Ġentire": 4414,
      "uation": 4415,
      "Ġremove": 4416,
      "Ġ{}": 4417,
      "Ġbox": 4418,
      "Ġmeet": 4419,
      "IF": 4420,
      "ĠReturns": 4421,
      "utils": 4422,
      "attern": 4423,
      "PO": 4424,
      "Ġupper": 4425,
      "Ġexplicit": 4426,
      "Height": 4427,
      "Ġrights": 4428,
      "ULT": 4429,
      "Ġdataset": 4430,
      "Ġfiles": 4431,
      "Ag": 4432,
      "Ġrespons": 4433,
      "ĠAssert": 4434,
      ":</": 4435,
      "sm": 4436,
      "\\'": 4437,
      "bool": 4438,
      "Ġsatisfy": 4439,
      "Ġaway": 4440,
      "Ġentry": 4441,
      "MM": 4442,
      "minus": 4443,
      "Ġsure": 4444,
      "Ġcollection": 4445,
      "Ġdeath": 4446,
      "tra": 4447,
      "final": 4448,
      "AV": 4449,
      "hib": 4450,
      "etch": 4451,
      "ids": 4452,
      "Ġage": 4453,
      "ĠMe": 4454,
      "Ġ;": 4455,
      "conf": 4456,
      "Ev": 4457,
      "itect": 4458,
      "dim": 4459,
      "Ġnone": 4460,
      "Tree": 4461,
      "QL": 4462,
      "Ġsens": 4463,
      "Ġformer": 4464,
      "Ġothers": 4465,
      "Ġ_{": 4466,
      "Ġdifficult": 4467,
      "prod": 4468,
      "pril": 4469,
      "ĠTrans": 4470,
      "ĠIntern": 4471,
      "arks": 4472,
      "atives": 4473,
      "Ġwater": 4474,
      "ewidth": 4475,
      "}}_{": 4476,
      "Ġyet": 4477,
      "osed": 4478,
      "Theta": 4479,
      "Unit": 4480,
      "2005": 4481,
      "texttt": 4482,
      "ĠMarch": 4483,
      "ulture": 4484,
      "ĠDep": 4485,
      "erc": 4486,
      "}},": 4487,
      "Ġspectrum": 4488,
      "Ġevolution": 4489,
      "Ġsupported": 4490,
      "Ġwave": 4491,
      "Ġmar": 4492,
      "RL": 4493,
      "comple": 4494,
      "Ġfri": 4495,
      "Ġmarket": 4496,
      "Ass": 4497,
      "Ġscen": 4498,
      "Ġrank": 4499,
      "Ġempty": 4500,
      "eft": 4501,
      "ike": 4502,
      "Ġ$\\{": 4503,
      "Ġseg": 4504,
      "came": 4505,
      "Ġche": 4506,
      "Write": 4507,
      ")/": 4508,
      "ĠSch": 4509,
      "lice": 4510,
      "59": 4511,
      "ĠĠĠĠĠĠĠĠĠĠĠĠĠĠĠĠĠĠĠĠĠ": 4512,
      "textrm": 4513,
      "ĠOff": 4514,
      "Ġnumbers": 4515,
      "ynomial": 4516,
      "ening": 4517,
      "resource": 4518,
      "Ġclasses": 4519,
      "ĠCity": 4520,
      "ĠSee": 4521,
      "Ġsite": 4522,
      "Ġsuccessful": 4523,
      "Ġchain": 4524,
      "Ġseason": 4525,
      "Ġhandle": 4526,
      ".)": 4527,
      "{$": 4528,
      "bum": 4529,
      "ĠBrit": 4530,
      "ĉĉĊ": 4531,
      "ĠRec": 4532,
      "Ġopp": 4533,
      "Ġforce": 4534,
      "Ġtim": 4535,
      "Ġadj": 4536,
      "SH": 4537,
      "Ġnecessary": 4538,
      "then": 4539,
      "ĠJanuary": 4540,
      "Ġactiv": 4541,
      "Ġcapt": 4542,
      "token": 4543,
      "STR": 4544,
      "ief": 4545,
      "Ġeigen": 4546,
      "equal": 4547,
      "}^{-": 4548,
      "Ġmemory": 4549,
      "ectors": 4550,
      "onic": 4551,
      "Ġbecame": 4552,
      "cache": 4553,
      "Ġintegr": 4554,
      "patch": 4555,
      "term": 4556,
      "resh": 4557,
      "Module": 4558,
      "Exec": 4559,
      "Ġtaking": 4560,
      "Ġshift": 4561,
      "ZE": 4562,
      "graph": 4563,
      "That": 4564,
      "Ġphysical": 4565,
      "rict": 4566,
      "umb": 4567,
      "ĠRem": 4568,
      "ada": 4569,
      "duces": 4570,
      "Ġgas": 4571,
      "Ġiss": 4572,
      "Ġfloat": 4573,
      "Ġrule": 4574,
      "Co": 4575,
      "ĠEd": 4576,
      "Ġyoung": 4577,
      "ĠSept": 4578,
      "TI": 4579,
      "Ġsix": 4580,
      "ĠInter": 4581,
      "foo": 4582,
      "Ġcamp": 4583,
      "Ġoffer": 4584,
      "Ġmiss": 4585,
      "acing": 4586,
      "Ġupd": 4587,
      "Ge": 4588,
      "author": 4589,
      "Ġcontinuous": 4590,
      "mes": 4591,
      "Ġitself": 4592,
      "Ġsense": 4593,
      "Ġintern": 4594,
      "Ġ>=": 4595,
      "Work": 4596,
      "subseteq": 4597,
      "Ġreported": 4598,
      "CODE": 4599,
      "Ġ(-": 4600,
      "Ġreturned": 4601,
      "Ġvelocity": 4602,
      "Ġdemonstr": 4603,
      "Ġactually": 4604,
      "2004": 4605,
      "Empty": 4606,
      "document": 4607,
      "Ġequivalent": 4608,
      "Control": 4609,
      "ĠGu": 4610,
      "greg": 4611,
      "arily": 4612,
      "utable": 4613,
      "ĠGo": 4614,
      "cember": 4615,
      "ners": 4616,
      "Thread": 4617,
      "Ġissue": 4618,
      "ĠDr": 4619,
      "ournal": 4620,
      "ĉĉĉĉĉĉĉ": 4621,
      "ATION": 4622,
      "Ġtakes": 4623,
      "allel": 4624,
      "Local": 4625,
      "Ġsolid": 4626,
      "2022": 4627,
      "amily": 4628,
      "Ġmetric": 4629,
      "lier": 4630,
      "vector": 4631,
      "ario": 4632,
      "ocr": 4633,
      "Ġexcept": 4634,
      "Ġchoice": 4635,
      "Ġ\\;": 4636,
      "KE": 4637,
      "Ġerrors": 4638,
      "olume": 4639,
      "PP": 4640,
      "ered": 4641,
      "Ġleading": 4642,
      "Ġwhy": 4643,
      "aml": 4644,
      "Ġuses": 4645,
      "aring": 4646,
      "<\\": 4647,
      "ĠSub": 4648,
      "Ġwar": 4649,
      "Ġdoesn": 4650,
      "Ġachi": 4651,
      "Ġlikely": 4652,
      "linewidth": 4653,
      "serve": 4654,
      "VAL": 4655,
      "Ġsmaller": 4656,
      "Entity": 4657,
      "taint": 4658,
      "cr": 4659,
      "wait": 4660,
      "fa": 4661,
      "?:": 4662,
      "Ġrender": 4663,
      "Ġincreasing": 4664,
      "atory": 4665,
      "ĠCreate": 4666,
      "Serial": 4667,
      "gn": 4668,
      "EQ": 4669,
      "ĠAfter": 4670,
      "Ġratio": 4671,
      "Now": 4672,
      "Ġdoc": 4673,
      "entity": 4674,
      "pa": 4675,
      "85": 4676,
      "sign": 4677,
      "Ġ$|": 4678,
      "ham": 4679,
      "ung": 4680,
      "footnote": 4681,
      "elling": 4682,
      "Rel": 4683,
      "%%": 4684,
      "unity": 4685,
      "idget": 4686,
      "Position": 4687,
      "black": 4688,
      "ĠJune": 4689,
      "Ġproduction": 4690,
      "Ġnational": 4691,
      "Ġvertex": 4692,
      "Ġgen": 4693,
      "Ġrecogn": 4694,
      "Ġparams": 4695,
      "De": 4696,
      "ĠOb": 4697,
      "Util": 4698,
      "$_": 4699,
      "Ġmult": 4700,
      "Direct": 4701,
      "=(": 4702,
      "vant": 4703,
      "Ġdescribe": 4704,
      "Ġbar": 4705,
      "sd": 4706,
      "LI": 4707,
      "Level": 4708,
      "Ġconstruction": 4709,
      "Ġtemplate": 4710,
      "ients": 4711,
      "definition": 4712,
      "CS": 4713,
      "Ġalign": 4714,
      "Ġproced": 4715,
      "Ġframework": 4716,
      "fg": 4717,
      "ias": 4718,
      "Ġsources": 4719,
      "control": 4720,
      "Ġinvestig": 4721,
      "ĠMc": 4722,
      "construct": 4723,
      "Connection": 4724,
      "ĠFirst": 4725,
      "cho": 4726,
      "free": 4727,
      "Hash": 4728,
      "Ġdecre": 4729,
      "sto": 4730,
      "Open": 4731,
      "ili": 4732,
      "87": 4733,
      "Ġagre": 4734,
      "Ġwhole": 4735,
      "Ġtheorem": 4736,
      "aa": 4737,
      "ACK": 4738,
      "Ġang": 4739,
      "ĠBo": 4740,
      "ART": 4741,
      "Ġcritical": 4742,
      "ĠException": 4743,
      "setminus": 4744,
      "Ġsm": 4745,
      "69": 4746,
      "Ġconduct": 4747,
      "Ġotherwise": 4748,
      "None": 4749,
      "ota": 4750,
      "Ġbroad": 4751,
      "fil": 4752,
      "eh": 4753,
      "Ġbecomes": 4754,
      "Ġtook": 4755,
      "ĠJuly": 4756,
      "ĠFrom": 4757,
      "thon": 4758,
      "Ġstatement": 4759,
      "Ġcompet": 4760,
      "olute": 4761,
      "resents": 4762,
      "yntax": 4763,
      "gate": 4764,
      "Ġbuilding": 4765,
      "Ġbenef": 4766,
      "Ġautom": 4767,
      "auge": 4768,
      "fn": 4769,
      "Collection": 4770,
      "ĠAfr": 4771,
      "Ġoverride": 4772,
      "Ġdevice": 4773,
      "^{-\\": 4774,
      "After": 4775,
      "51": 4776,
      "iber": 4777,
      "osp": 4778,
      "ĠAcc": 4779,
      "Ġattempt": 4780,
      "ĠGerm": 4781,
      "oms": 4782,
      "Settings": 4783,
      "ĠApril": 4784,
      "ards": 4785,
      "inated": 4786,
      "Que": 4787,
      "Ġwin": 4788,
      "SL": 4789,
      "styles": 4790,
      "\"))": 4791,
      "Ġess": 4792,
      "Ġtalk": 4793,
      "Copy": 4794,
      "52": 4795,
      "Ġpack": 4796,
      "---": 4797,
      "Ġsto": 4798,
      "ategor": 4799,
      "Ġcomplet": 4800,
      "Ġexperience": 4801,
      "hent": 4802,
      "54": 4803,
      "Ġconnected": 4804,
      "Ġ*)": 4805,
      "aligned": 4806,
      "Params": 4807,
      "Ġfrequency": 4808,
      "Ġtag": 4809,
      "Ġque": 4810,
      "Ġcame": 4811,
      "ĠNorth": 4812,
      ";->": 4813,
      "Ġattribute": 4814,
      "Ġpolitical": 4815,
      "Ġselection": 4816,
      "Ġword": 4817,
      "ression": 4818,
      "Ġdecl": 4819,
      "Ġdeal": 4820,
      "Ġdetermined": 4821,
      "Ġrob": 4822,
      "Ġexisting": 4823,
      "nap": 4824,
      "Properties": 4825,
      ">,": 4826,
      "subfigure": 4827,
      "Ġsufficient": 4828,
      "Ġnoise": 4829,
      "Ġnuc": 4830,
      "Ġloop": 4831,
      "Ġfall": 4832,
      "ĠNS": 4833,
      "ansion": 4834,
      "Op": 4835,
      "Ġsymbol": 4836,
      "ĠIm": 4837,
      "vey": 4838,
      "Ġsimply": 4839,
      "Ġfeel": 4840,
      "ympt": 4841,
      "Ġinflu": 4842,
      "itter": 4843,
      ":(": 4844,
      "ened": 4845,
      "Ġstarted": 4846,
      "olving": 4847,
      "~~~~": 4848,
      "reshold": 4849,
      "Ġsong": 4850,
      "ana": 4851,
      "debug": 4852,
      "second": 4853,
      "ĠGa": 4854,
      "Ġparts": 4855,
      "Stat": 4856,
      "Ġnav": 4857,
      "Ġincludes": 4858,
      "DD": 4859,
      "IGN": 4860,
      "etails": 4861,
      "Ġparticip": 4862,
      "ynch": 4863,
      "Ġembedd": 4864,
      "Ġfoot": 4865,
      "ashed": 4866,
      "Ġrunning": 4867,
      "Ġcentral": 4868,
      "classes": 4869,
      "Ġavoid": 4870,
      "ha": 4871,
      "osen": 4872,
      "rip": 4873,
      "Expression": 4874,
      "Script": 4875,
      "crete": 4876,
      "53": 4877,
      "cur": 4878,
      "Port": 4879,
      "oplus": 4880,
      "ustral": 4881,
      "lies": 4882,
      "Ġ($\\": 4883,
      "Ġapi": 4884,
      "clear": 4885,
      "Ġreplac": 4886,
      "emic": 4887,
      "Ġtax": 4888,
      "tml": 4889,
      "PECT": 4890,
      "ĠSeptember": 4891,
      "unch": 4892,
      "Change": 4893,
      "Ġallowed": 4894,
      "issions": 4895,
      "Ġuncer": 4896,
      "ictionary": 4897,
      "usion": 4898,
      "asic": 4899,
      "_*": 4900,
      "layer": 4901,
      "ĠPer": 4902,
      "Ġcandid": 4903,
      "\\}": 4904,
      "Json": 4905,
      "MO": 4906,
      "63": 4907,
      "omorphism": 4908,
      "CA": 4909,
      "oded": 4910,
      "anges": 4911,
      "den": 4912,
      "Ġtoken": 4913,
      "ĠDecember": 4914,
      "Ġactual": 4915,
      "Match": 4916,
      "Ġdeep": 4917,
      "Http": 4918,
      "Ġsamples": 4919,
      "car": 4920,
      "sa": 4921,
      "Ġvolume": 4922,
      "Ġshape": 4923,
      "Kind": 4924,
      "ker": 4925,
      "Ġundefined": 4926,
      "Location": 4927,
      "zz": 4928,
      "rier": 4929,
      "ĠMon": 4930,
      "Right": 4931,
      "ORT": 4932,
      "sy": 4933,
      "Ġissues": 4934,
      "mode": 4935,
      "CR": 4936,
      "Ġnames": 4937,
      "Operation": 4938,
      "Ġnegative": 4939,
      "models": 4940,
      "Ġforward": 4941,
      "Ġtoday": 4942,
      "ĠDE": 4943,
      "orizont": 4944,
      "Ġ$[": 4945,
      "ube": 4946,
      "Ġderiv": 4947,
      "Ġrequires": 4948,
      "tim": 4949,
      "Document": 4950,
      ":\\": 4951,
      "Ġuniform": 4952,
      "Ġpolynomial": 4953,
      "oring": 4954,
      "urg": 4955,
      "vision": 4956,
      "ALL": 4957,
      "Option": 4958,
      "Ġregister": 4959,
      "ĠLa": 4960,
      "Ġstudies": 4961,
      "ĠLog": 4962,
      "Ġextension": 4963,
      "scal": 4964,
      "Ġinfin": 4965,
      "Ġsort": 4966,
      "ĠOctober": 4967,
      "'re": 4968,
      "ĠErr": 4969,
      "rupt": 4970,
      "cp": 4971,
      "Ġign": 4972,
      "super": 4973,
      "artifact": 4974,
      "mission": 4975,
      "=\"-": 4976,
      "Ġsmooth": 4977,
      "Ġtransfer": 4978,
      "bul": 4979,
      "62": 4980,
      "2003": 4981,
      "ĠAugust": 4982,
      "Ġensure": 4983,
      "PT": 4984,
      "Ġinterpre": 4985,
      "make": 4986,
      "range": 4987,
      "Ġscheme": 4988,
      "COLOR": 4989,
      "Ġlinks": 4990,
      "ĠSci": 4991,
      "():": 4992,
      "Ġperformed": 4993,
      "orig": 4994,
      "Ġvideo": 4995,
      "tical": 4996,
      "Ġminimum": 4997,
      "ociety": 4998,
      "Ġair": 4999,
      "_+": 5000,
      "edef": 5001,
      "Ġmention": 5002,
      "BC": 5003,
      "rown": 5004,
      "Reference": 5005,
      "Ġhyper": 5006,
      "ĠST": 5007,
      "Ġcompute": 5008,
      "ĠNovember": 5009,
      "PS": 5010,
      "ĠOur": 5011,
      "Ġfix": 5012,
      "Ġcompact": 5013,
      "Search": 5014,
      "Ġdim": 5015,
      "Ġthought": 5016,
      "Ġobservations": 5017,
      "Ġfilename": 5018,
      "colon": 5019,
      "Dir": 5020,
      "ĠMy": 5021,
      "Ġusers": 5022,
      "fact": 5023,
      "Ġoperators": 5024,
      "So": 5025,
      "isions": 5026,
      "had": 5027,
      "pecially": 5028,
      "Ġmen": 5029,
      "Ġoperations": 5030,
      "Current": 5031,
      "Ġregions": 5032,
      "Bundle": 5033,
      "loor": 5034,
      "inder": 5035,
      "deg": 5036,
      "=\"_": 5037,
      "wedge": 5038,
      "Integer": 5039,
      "Ġbounded": 5040,
      "Ġarbit": 5041,
      "Ġgenerate": 5042,
      "Ġxml": 5043,
      "Ġhence": 5044,
      "parameter": 5045,
      "Ġnamespace": 5046,
      "omy": 5047,
      "newcommand": 5048,
      "Ġir": 5049,
      "etime": 5050,
      "Ġintroduced": 5051,
      "iers": 5052,
      "Ġrestrict": 5053,
      "sv": 5054,
      "Ġimmedi": 5055,
      "Ġcurrently": 5056,
      "ĠMark": 5057,
      "overy": 5058,
      "HO": 5059,
      "Async": 5060,
      "ams": 5061,
      "Ġdecision": 5062,
      "pri": 5063,
      "_{(": 5064,
      "Ġbuilt": 5065,
      "Host": 5066,
      "Ġelectron": 5067,
      "Ġadapt": 5068,
      "avor": 5069,
      "xx": 5070,
      "Ġcurve": 5071,
      "ĠCour": 5072,
      "limits": 5073,
      "BO": 5074,
      "ĠMed": 5075,
      "Can": 5076,
      "Ġscope": 5077,
      "adow": 5078,
      "Ġinteraction": 5079,
      "Font": 5080,
      "Ġvisit": 5081,
      "Ġflux": 5082,
      "Ġep": 5083,
      "cil": 5084,
      "Ġsplit": 5085,
      "Prot": 5086,
      "Ġdiagram": 5087,
      "ĠTO": 5088,
      "Iter": 5089,
      "NE": 5090,
      "Ġidea": 5091,
      "Ġsubset": 5092,
      "2001": 5093,
      "Impl": 5094,
      "copy": 5095,
      "amilton": 5096,
      "Handle": 5097,
      "msg": 5098,
      "ĠHis": 5099,
      "force": 5100,
      "icles": 5101,
      "rast": 5102,
      "Ġformula": 5103,
      "Ġproper": 5104,
      "itable": 5105,
      "attice": 5106,
      "uses": 5107,
      "Store": 5108,
      "hash": 5109,
      "dagger": 5110,
      "ills": 5111,
      "rect": 5112,
      "ulate": 5113,
      "ĠSw": 5114,
      "ifying": 5115,
      "ama": 5116,
      "'\\": 5117,
      "Ġupon": 5118,
      "ĠHere": 5119,
      "phere": 5120,
      "Parameters": 5121,
      "orizontal": 5122,
      "enum": 5123,
      "auto": 5124,
      "Ġ${": 5125,
      "emp": 5126,
      "cat": 5127,
      "ington": 5128,
      "del": 5129,
      "Ġnorm": 5130,
      "Ġconsum": 5131,
      "\"));": 5132,
      "drop": 5133,
      "Ġinf": 5134,
      "You": 5135,
      "=\"../../../../../": 5136,
      "Ġauth": 5137,
      "internal": 5138,
      "iet": 5139,
      "inding": 5140,
      "render": 5141,
      "Ġhash": 5142,
      "Ġinteger": 5143,
      "ĠPresident": 5144,
      "ĠCheck": 5145,
      "ws": 5146,
      "dx": 5147,
      "ĠChar": 5148,
      "Ġpublished": 5149,
      "coming": 5150,
      "ket": 5151,
      "mag": 5152,
      "device": 5153,
      "zero": 5154,
      "thern": 5155,
      "ĠCounty": 5156,
      "ancial": 5157,
      "Ġface": 5158,
      "hom": 5159,
      "PL": 5160,
      "Ġ$-": 5161,
      "ĠAmerica": 5162,
      "\\!\\!": 5163,
      "86": 5164,
      "ĠPa": 5165,
      "ribe": 5166,
      "Ġcache": 5167,
      "INE": 5168,
      "Ġcompan": 5169,
      "ĠProposition": 5170,
      "Ġstrict": 5171,
      "otic": 5172,
      "1000": 5173,
      "ĠDev": 5174,
      "SA": 5175,
      "Ġresulting": 5176,
      "aching": 5177,
      "Inst": 5178,
      "More": 5179,
      "MD": 5180,
      "Ġlive": 5181,
      "ollary": 5182,
      "Ã¡": 5183,
      "equality": 5184,
      "ĠBar": 5185,
      "Ġadmin": 5186,
      "creen": 5187,
      "bigg": 5188,
      "dest": 5189,
      "Ġinternational": 5190,
      "Ġdiscussed": 5191,
      "),\\": 5192,
      "_{{\\": 5193,
      "izations": 5194,
      "after": 5195,
      "Ġpassed": 5196,
      "Ġdetermine": 5197,
      "Ġeffort": 5198,
      "Âł": 5199,
      "ivial": 5200,
      "itz": 5201,
      "Ġknowledge": 5202,
      "uple": 5203,
      "ein": 5204,
      "ĠDav": 5205,
      "icrosoft": 5206,
      "Session": 5207,
      "Xml": 5208,
      "arp": 5209,
      "ĠRev": 5210,
      "inci": 5211,
      "Po": 5212,
      "........": 5213,
      "Ġswitch": 5214,
      "Description": 5215,
      "oundation": 5216,
      "Left": 5217,
      "cons": 5218,
      "Helper": 5219,
      "ography": 5220,
      "Ġexperiments": 5221,
      "Ġdidn": 5222,
      "elves": 5223,
      "agraph": 5224,
      "Definition": 5225,
      "ĠOR": 5226,
      "Vari": 5227,
      "before": 5228,
      "req": 5229,
      "Order": 5230,
      "ĠCoun": 5231,
      "Ġmaps": 5232,
      "Ġradius": 5233,
      "Ptr": 5234,
      "Ġinstall": 5235,
      "ootst": 5236,
      "Ġpert": 5237,
      "Record": 5238,
      "isation": 5239,
      "=-": 5240,
      "Ġsymmetry": 5241,
      "Ġnov": 5242,
      "band": 5243,
      "Ġlonger": 5244,
      "Ġhouse": 5245,
      "Names": 5246,
      "Ġapproximation": 5247,
      "Ġinside": 5248,
      "Ġaltern": 5249,
      "Ġparticle": 5250,
      "Ġ\\(": 5251,
      "EM": 5252,
      "Enc": 5253,
      "CTION": 5254,
      "ĠAustral": 5255,
      "Ġdele": 5256,
      "background": 5257,
      "Ġrepresents": 5258,
      "Ġdeveloped": 5259,
      "delete": 5260,
      "ĠĠĠĠĠĠĠĠĠĠĠĠĠĠĠĠĠĠĠĠ": 5261,
      "king": 5262,
      "Ġcomparison": 5263,
      "ĠII": 5264,
      "Ġvers": 5265,
      "Ġcomes": 5266,
      "Ġcouple": 5267,
      "89": 5268,
      "Ġconnect": 5269,
      "}}(\\": 5270,
      "Ġfailed": 5271,
      "Dom": 5272,
      "Ġgrav": 5273,
      "Ġsecurity": 5274,
      "FO": 5275,
      "nov": 5276,
      "RA": 5277,
      "transform": 5278,
      "Ġalbum": 5279,
      "obile": 5280,
      "address": 5281,
      "Ġoptimal": 5282,
      "Render": 5283,
      "Ġillustr": 5284,
      "Ġwhite": 5285,
      "BA": 5286,
      "ERROR": 5287,
      "'_": 5288,
      "step": 5289,
      "Ġresolution": 5290,
      "umin": 5291,
      "eters": 5292,
      "Ġ|\\": 5293,
      "join": 5294,
      "vm": 5295,
      "Ġespecially": 5296,
      "Ġoutside": 5297,
      "Ġimplementation": 5298,
      "ĠEXPECT": 5299,
      "interface": 5300,
      "Ġdig": 5301,
      "ensive": 5302,
      "Ġparticles": 5303,
      "================================": 5304,
      "weight": 5305,
      "Ġpadding": 5306,
      "Ġinteresting": 5307,
      "Bl": 5308,
      "high": 5309,
      "direct": 5310,
      "results": 5311,
      "ague": 5312,
      "AND": 5313,
      "False": 5314,
      "ming": 5315,
      "=\"../../../../../../": 5316,
      "ios": 5317,
      "Ġuncertaint": 5318,
      "ĠWhat": 5319,
      "bruary": 5320,
      "TER": 5321,
      "global": 5322,
      "ecause": 5323,
      "Ġmanif": 5324,
      "inciple": 5325,
      "Ġ{};": 5326,
      "eler": 5327,
      "Cal": 5328,
      "sequence": 5329,
      "Ġparse": 5330,
      "Rect": 5331,
      "NavBar": 5332,
      "Ġsatisfies": 5333,
      "artifactId": 5334,
      "ederal": 5335,
      "auth": 5336,
      "Ġdynamics": 5337,
      "Ġonline": 5338,
      "Ġfun": 5339,
      "Ġmix": 5340,
      "exception": 5341,
      "Ġspeed": 5342,
      "Ġarm": 5343,
      "ĠEnd": 5344,
      "Ġengine": 5345,
      "atial": 5346,
      "Assert": 5347,
      "Ġtele": 5348,
      "Ġvertices": 5349,
      "Ġcountries": 5350,
      "textsc": 5351,
      "spect": 5352,
      "Core": 5353,
      "ãĥ": 5354,
      "ously": 5355,
      "abilities": 5356,
      "Ġpeak": 5357,
      "Ġsettings": 5358,
      "Ð°Ð": 5359,
      "Invalid": 5360,
      "61": 5361,
      "Ġrules": 5362,
      "vas": 5363,
      "But": 5364,
      "Ġevidence": 5365,
      "esign": 5366,
      "Menu": 5367,
      "Ġcore": 5368,
      "anes": 5369,
      "Ġwriting": 5370,
      "ixel": 5371,
      "Ġuseful": 5372,
      "Ġthing": 5373,
      "Ġansw": 5374,
      "equals": 5375,
      "Post": 5376,
      "IX": 5377,
      "ropy": 5378,
      "Ġappropri": 5379,
      "Project": 5380,
      "Ġtensor": 5381,
      "Ġcharge": 5382,
      "nost": 5383,
      "Ġheld": 5384,
      "iny": 5385,
      "gorithms": 5386,
      "Ġaccuracy": 5387,
      "Ġchoose": 5388,
      "Ġcontainer": 5389,
      "Ġemission": 5390,
      "ĠEl": 5391,
      "ifies": 5392,
      "Ġstreng": 5393,
      "anish": 5394,
      "Ġextra": 5395,
      "types": 5396,
      "ellar": 5397,
      "Ġconcern": 5398,
      "Ġrelease": 5399,
      "pop": 5400,
      "Ġminim": 5401,
      "bert": 5402,
      "Ġdistributed": 5403,
      "Comple": 5404,
      "Ġfully": 5405,
      "Ġwent": 5406,
      "Ġ::": 5407,
      "docs": 5408,
      "ivil": 5409,
      "acters": 5410,
      "(*": 5411,
      "stry": 5412,
      "LP": 5413,
      "Ġstore": 5414,
      "ĠSpec": 5415,
      "Ġstage": 5416,
      "Ġexecut": 5417,
      "_{-": 5418,
      "related": 5419,
      "Ġord": 5420,
      "Ġshare": 5421,
      "GET": 5422,
      "(:": 5423,
      "ilitary": 5424,
      "avy": 5425,
      "ĠBG": 5426,
      "handle": 5427,
      "Ġresources": 5428,
      "Ġexamples": 5429,
      "icients": 5430,
      "env": 5431,
      "FR": 5432,
      "olic": 5433,
      "_;": 5434,
      "Here": 5435,
      "2002": 5436,
      "tog": 5437,
      "Ġderived": 5438,
      "icate": 5439,
      "Argument": 5440,
      "'],": 5441,
      "border": 5442,
      "ellow": 5443,
      "Ġcontaining": 5444,
      "Down": 5445,
      "ĠIS": 5446,
      "Ġcontact": 5447,
      "Ġitems": 5448,
      "Ġopport": 5449,
      "ĠIsl": 5450,
      "Ġarchitect": 5451,
      "Ġdoing": 5452,
      "Ġgalaxies": 5453,
      "Ġareas": 5454,
      "very": 5455,
      "VID": 5456,
      "isms": 5457,
      "defined": 5458,
      "Ġextract": 5459,
      "Ġcommit": 5460,
      "Ġidentity": 5461,
      "Ġconstraints": 5462,
      ")}(": 5463,
      "component": 5464,
      "MC": 5465,
      "Ġquality": 5466,
      ")\\,": 5467,
      "Ġperturb": 5468,
      "Ġdepends": 5469,
      "exports": 5470,
      "Ġeasy": 5471,
      "ĠVAL": 5472,
      "Ġgauge": 5473,
      "72": 5474,
      "Ġ['": 5475,
      "Ġremains": 5476,
      ")_{": 5477,
      "Ġprogress": 5478,
      "Ġcounter": 5479,
      "300": 5480,
      "oom": 5481,
      "toString": 5482,
      "ĠNe": 5483,
      "ootstrap": 5484,
      "Ġnamed": 5485,
      "Ġstrategy": 5486,
      "byte": 5487,
      "Ġcred": 5488,
      "ĠWhile": 5489,
      "%;": 5490,
      "double": 5491,
      "Ġfigure": 5492,
      "ondon": 5493,
      "}%": 5494,
      "ĠHigh": 5495,
      "Ġcos": 5496,
      "groupId": 5497,
      "ĠNow": 5498,
      "ae": 5499,
      "ille": 5500,
      "neg": 5501,
      "inct": 5502,
      "amera": 5503,
      "Ġsend": 5504,
      "Ġnetworks": 5505,
      "Eq": 5506,
      "Sign": 5507,
      "subsubsection": 5508,
      "Ġwait": 5509,
      "Ġgrowth": 5510,
      "matrix": 5511,
      "Ġ++": 5512,
      "estamp": 5513,
      "lap": 5514,
      "rees": 5515,
      "Ġ$.": 5516,
      "Tim": 5517,
      "Ġannoun": 5518,
      "Meta": 5519,
      "tw": 5520,
      "Non": 5521,
      "Ġhyp": 5522,
      "ĠEast": 5523,
      "Me": 5524,
      "ĠRE": 5525,
      "Ġmotion": 5526,
      "Ġreleased": 5527,
      "aced": 5528,
      "Ġsoftware": 5529,
      "Ġconvert": 5530,
      "vention": 5531,
      "icker": 5532,
      "Ġexpand": 5533,
      "iles": 5534,
      "255": 5535,
      "Ġ}\\": 5536,
      "Ke": 5537,
      "Ġwor": 5538,
      "92": 5539,
      "ãĤ": 5540,
      ",\\,": 5541,
      ")^{\\": 5542,
      "ĠPe": 5543,
      "Ġnumerical": 5544,
      "ĠKing": 5545,
      "Ġcontract": 5546,
      "Ġbasic": 5547,
      "Ġsession": 5548,
      "Ġlevels": 5549,
      "Ġgoal": 5550,
      "Ġ(\"": 5551,
      "LS": 5552,
      "Num": 5553,
      "ĠHouse": 5554,
      "ĠUp": 5555,
      "Ġcoupling": 5556,
      "ometric": 5557,
      "Ġinequality": 5558,
      "ORD": 5559,
      "cases": 5560,
      "Ġthread": 5561,
      "Ġtests": 5562,
      "Ġrelevant": 5563,
      "Ġrisk": 5564,
      "Ġdecay": 5565,
      "Ġofficial": 5566,
      "Ġorigin": 5567,
      "tri": 5568,
      "Schema": 5569,
      "Reader": 5570,
      "Ġconsistent": 5571,
      "Ġrecently": 5572,
      "faces": 5573,
      "edu": 5574,
      "forall": 5575,
      "bon": 5576,
      "SSERT": 5577,
      "ĠĠĠĠĠĠĠĠĠĠĠĠĠĠĠĠĠĠ": 5578,
      "Ġscatter": 5579,
      "Ġimm": 5580,
      "Ġclassical": 5581,
      "ynchron": 5582,
      "Ġexactly": 5583,
      "Values": 5584,
      "93": 5585,
      "Our": 5586,
      "Ġlove": 5587,
      "ĠHence": 5588,
      "antic": 5589,
      "Ġprimary": 5590,
      "Ġleads": 5591,
      "rew": 5592,
      "Ġsteps": 5593,
      "Pass": 5594,
      "ĠBr": 5595,
      "aking": 5596,
      "What": 5597,
      "ridge": 5598,
      "ka": 5599,
      "apter": 5600,
      "Ġspectral": 5601,
      "PA": 5602,
      "Supp": 5603,
      "Ġnet": 5604,
      "Ġcompare": 5605,
      "ducing": 5606,
      "Ġpolar": 5607,
      "rea": 5608,
      "rep": 5609,
      "Ġmonths": 5610,
      "sample": 5611,
      "Template": 5612,
      "Ġconcept": 5613,
      "Body": 5614,
      "ĠStr": 5615,
      "Ġtold": 5616,
      "callback": 5617,
      "Ġapplications": 5618,
      "~$\\": 5619,
      "ĠAm": 5620,
      "Ġbyte": 5621,
      "Ġtell": 5622,
      "Ġmeasured": 5623,
      "Ġstack": 5624,
      "Ġbegan": 5625,
      "Ġcharg": 5626,
      "Ġedges": 5627,
      "berg": 5628,
      "Ġpresence": 5629,
      "Long": 5630,
      "Bound": 5631,
      "atur": 5632,
      "Ġmagn": 5633,
      "ĠRead": 5634,
      "Ġdetection": 5635,
      "ĠMod": 5636,
      "84": 5637,
      "inf": 5638,
      "Ġfront": 5639,
      "Ġinvoke": 5640,
      "shot": 5641,
      "Ġproduced": 5642,
      "DC": 5643,
      "Ġquite": 5644,
      "Ġstarting": 5645,
      "GE": 5646,
      "Ġones": 5647,
      "ares": 5648,
      "widget": 5649,
      "access": 5650,
      "Ġinfo": 5651,
      "Ġtransport": 5652,
      "Ġmomentum": 5653,
      "Metadata": 5654,
      "Ġdelete": 5655,
      "ynamic": 5656,
      "ĠCenter": 5657,
      "export": 5658,
      "picture": 5659,
      "ĠInternational": 5660,
      "ĠName": 5661,
      "Sk": 5662,
      "Ġbinary": 5663,
      "Ġscalar": 5664,
      "itution": 5665,
      "}^*": 5666,
      "alysis": 5667,
      "send": 5668,
      "UB": 5669,
      "eli": 5670,
      "Ġgain": 5671,
      "SET": 5672,
      "Ġgames": 5673,
      "uri": 5674,
      "Ġcategory": 5675,
      "Ġmoney": 5676,
      "Vector": 5677,
      "enced": 5678,
      "cope": 5679,
      "}$-": 5680,
      "Ġnature": 5681,
      "omb": 5682,
      "Ġtherm": 5683,
      "Ġinner": 5684,
      "focus": 5685,
      "Device": 5686,
      "Ġchosen": 5687,
      "structure": 5688,
      "Application": 5689,
      "Ġarticle": 5690,
      "Do": 5691,
      "ĠCON": 5692,
      "Ġadopt": 5693,
      "blue": 5694,
      "bsite": 5695,
      "Args": 5696,
      "ugins": 5697,
      "82": 5698,
      "Ġcorresponds": 5699,
      "hest": 5700,
      "ĠSk": 5701,
      "white": 5702,
      "Ġ+\\": 5703,
      "uler": 5704,
      "||": 5705,
      "Ġ('": 5706,
      "Ġprocesses": 5707,
      "ĠSome": 5708,
      "94": 5709,
      "iverse": 5710,
      "ORM": 5711,
      "aign": 5712,
      "ĠFebruary": 5713,
      "ĠDec": 5714,
      "Ġwalk": 5715,
      "prove": 5716,
      "However": 5717,
      "Ġdecom": 5718,
      "Ġplayers": 5719,
      "fields": 5720,
      "\\|_{": 5721,
      "Policy": 5722,
      "ĠDirect": 5723,
      "Figure": 5724,
      "Ġbottom": 5725,
      "Ġsimulations": 5726,
      "Ġchalleng": 5727,
      "ĠGod": 5728,
      "framework": 5729,
      "ĠMoreover": 5730,
      "Ġchanged": 5731,
      "webkit": 5732,
      "iting": 5733,
      "ĠBro": 5734,
      "atically": 5735,
      "ibr": 5736,
      "ĠDepartment": 5737,
      "Ġassumption": 5738,
      "Ġlimited": 5739,
      "Ġbytes": 5740,
      "Ġcomputed": 5741,
      "Mon": 5742,
      "ĠBGCOLOR": 5743,
      "Ġstop": 5744,
      "ĠLaw": 5745,
      "ĠGroup": 5746,
      "Ġcause": 5747,
      "Ġheader": 5748,
      "Ġplane": 5749,
      "ĠWeb": 5750,
      ">();": 5751,
      "ees": 5752,
      "sol": 5753,
      "Ġreduced": 5754,
      "Var": 5755,
      "Parent": 5756,
      "boolean": 5757,
      "`.": 5758,
      "Dr": 5759,
      "UP": 5760,
      "Ġpopular": 5761,
      ")^{-": 5762,
      "Ġamplit": 5763,
      "stitute": 5764,
      "Ġestablished": 5765,
      "urthermore": 5766,
      "ĠCourt": 5767,
      "Ġexpansion": 5768,
      "Ġessential": 5769,
      "Ġutil": 5770,
      "ervices": 5771,
      "click": 5772,
      "arant": 5773,
      "Rev": 5774,
      "GB": 5775,
      "ford": 5776,
      "Ġraise": 5777,
      "df": 5778,
      "Ġgrid": 5779,
      "Ġlargest": 5780,
      "ĠassertEquals": 5781,
      "Ġeasily": 5782,
      "ĠAtt": 5783,
      "Ġsound": 5784,
      "Ġ\"\\": 5785,
      "Ver": 5786,
      "pid": 5787,
      "ades": 5788,
      "Tool": 5789,
      "rices": 5790,
      "ĠChina": 5791,
      "Ġvot": 5792,
      "Ġfraction": 5793,
      "ipal": 5794,
      "fit": 5795,
      "Ġdatabase": 5796,
      "Ġemer": 5797,
      "sql": 5798,
      "pite": 5799,
      "Ġcoefficients": 5800,
      "ĠRun": 5801,
      "Ġelem": 5802,
      "Ġattention": 5803,
      "Ġlocated": 5804,
      "Ġspaces": 5805,
      "ĠOut": 5806,
      "URE": 5807,
      "Database": 5808,
      "real": 5809,
      "card": 5810,
      "ĠHar": 5811,
      "Ġprocedure": 5812,
      "Section": 5813,
      "ĠHamilton": 5814,
      "sur": 5815,
      "Ġdisk": 5816,
      "ĠEnglish": 5817,
      "Ġbelong": 5818,
      "hy": 5819,
      "Ġplatform": 5820,
      "ĠDate": 5821,
      "Ġassign": 5822,
      "91": 5823,
      "channel": 5824,
      "Ġeducation": 5825,
      "virtual": 5826,
      "76": 5827,
      "session": 5828,
      "sect": 5829,
      "Ġround": 5830,
      "Ġdark": 5831,
      "Ġled": 5832,
      "replace": 5833,
      "Ġfactors": 5834,
      "hs": 5835,
      "Ġcalculated": 5836,
      "points": 5837,
      "etail": 5838,
      "ĠService": 5839,
      "ĠTrue": 5840,
      "ua": 5841,
      "Each": 5842,
      "Ġstudied": 5843,
      "Ġaim": 5844,
      "DL": 5845,
      "Ġusually": 5846,
      "}}^": 5847,
      "stat": 5848,
      "Channel": 5849,
      "Ġindu": 5850,
      "Ġcourt": 5851,
      "plugin": 5852,
      "ĠDist": 5853,
      "Bytes": 5854,
      "ĠTime": 5855,
      "Ġrepe": 5856,
      "ĠValue": 5857,
      "ĠHealth": 5858,
      "pmatrix": 5859,
      "Exp": 5860,
      "stylesheet": 5861,
      "Ġpersonal": 5862,
      "Ġinc": 5863,
      "ipeline": 5864,
      "ĠWork": 5865,
      "ĠJSON": 5866,
      "}\"": 5867,
      "Ġcareer": 5868,
      "ĠMap": 5869,
      "fect": 5870,
      "Ġnews": 5871,
      "Ġaxis": 5872,
      "ATA": 5873,
      "ĠLO": 5874,
      "{$\\": 5875,
      "files": 5876,
      "Ġseems": 5877,
      "Fields": 5878,
      "Ġindustry": 5879,
      "tik": 5880,
      "Mock": 5881,
      "SION": 5882,
      "Ġplayer": 5883,
      "hing": 5884,
      "ran": 5885,
      "ĠLondon": 5886,
      "Ġcomment": 5887,
      "Val": 5888,
      "ĠStud": 5889,
      "Ġtheore": 5890,
      "Ġsituation": 5891,
      "ĠEuropean": 5892,
      "full": 5893,
      "Param": 5894,
      "Ġdepth": 5895,
      "External": 5896,
      "ĠError": 5897,
      "'}": 5898,
      "attle": 5899,
      "dro": 5900,
      "Ġtasks": 5901,
      "Ġcollect": 5902,
      "Ġbelieve": 5903,
      "Parser": 5904,
      "perp": 5905,
      "roduction": 5906,
      "DI": 5907,
      "Boolean": 5908,
      "Ġintegral": 5909,
      "Ġangle": 5910,
      "Ġextended": 5911,
      "EXT": 5912,
      "Ġinvolved": 5913,
      "media": 5914,
      "Ġplayed": 5915,
      "bold": 5916,
      "Ġagreement": 5917,
      "ĠIO": 5918,
      "ampling": 5919,
      "Ġinvariant": 5920,
      "Track": 5921,
      "Enabled": 5922,
      "disabled": 5923,
      "tee": 5924,
      "Ġestimated": 5925,
      "OK": 5926,
      "Ġweb": 5927,
      "TEST": 5928,
      "gu": 5929,
      "initial": 5930,
      "kind": 5931,
      "gra": 5932,
      "El": 5933,
      "acro": 5934,
      "Ġblue": 5935,
      "Ġsimulation": 5936,
      "olec": 5937,
      "modal": 5938,
      "Conn": 5939,
      "Ġprinciple": 5940,
      "hover": 5941,
      "Ġrates": 5942,
      "irth": 5943,
      "BR": 5944,
      "Ġslow": 5945,
      "store": 5946,
      "allow": 5947,
      "angular": 5948,
      "Delete": 5949,
      "ĠAc": 5950,
      "Ġunsigned": 5951,
      "Use": 5952,
      "Ġjud": 5953,
      "osing": 5954,
      "ĠModel": 5955,
      "Ġ})": 5956,
      "ĠĠĠĠĠĠĠĠĠĠĠĠĠĠĠĠĠĠĠĠĠĠĠĠĠ": 5957,
      "ĠMath": 5958,
      "DA": 5959,
      "ĠBritish": 5960,
      "Ġstructures": 5961,
      "romise": 5962,
      "uge": 5963,
      "Mark": 5964,
      "Ġbad": 5965,
      "Root": 5966,
      "Ġlattice": 5967,
      "OM": 5968,
      "See": 5969,
      "settings": 5970,
      "Ġtowards": 5971,
      "ĠResearch": 5972,
      "ĠPublic": 5973,
      "ores": 5974,
      "ican": 5975,
      "Writer": 5976,
      "\\_": 5977,
      "Ġexperimental": 5978,
      "Obj": 5979,
      "Ġdistributions": 5980,
      "Ġ<=": 5981,
      "Ġleaders": 5982,
      "Has": 5983,
      "Stack": 5984,
      "Ġscript": 5985,
      "ni": 5986,
      "Title": 5987,
      "`,": 5988,
      "Ġsy": 5989,
      "Ġmeasurements": 5990,
      "Ġproducts": 5991,
      "ocal": 5992,
      "Ġinterval": 5993,
      "mock": 5994,
      "'))": 5995,
      "Ġalgorithms": 5996,
      "\"\"\"": 5997,
      "Ġstation": 5998,
      "Ġforms": 5999,
      "ĠWilli": 6000,
      "My": 6001,
      "Ġpartial": 6002,
      ">.": 6003,
      "Ġ),": 6004,
      "$).": 6005,
      "ĠĠĠĠĠĠĠĠĠĠĠĠĠĠĠĠĠĠĠĠĠĠĠĠĠĠĠĠĠĠĠĠĠĠĠĠĠĠĠ": 6006,
      "domain": 6007,
      "Ġgreater": 6008,
      "Ġrelationship": 6009,
      "alg": 6010,
      "----------------------------------------------------------------": 6011,
      ")}{\\": 6012,
      "Doc": 6013,
      "Ġtransaction": 6014,
      "while": 6015,
      "asons": 6016,
      "ĠDem": 6017,
      "Ġhistor": 6018,
      "Ġcharacters": 6019,
      "iforn": 6020,
      "Results": 6021,
      "success": 6022,
      "Ġalthough": 6023,
      "custom": 6024,
      "bullet": 6025,
      "Ġqual": 6026,
      "Decl": 6027,
      "Ġcho": 6028,
      "ĠIndia": 6029,
      "}}^{": 6030,
      "Ġexternal": 6031,
      "istent": 6032,
      "ragment": 6033,
      "ria": 6034,
      "400": 6035,
      "ĠTra": 6036,
      "ertific": 6037,
      "connect": 6038,
      "rong": 6039,
      "rate": 6040,
      "legal": 6041,
      "Ġ$$": 6042,
      "Ġfinally": 6043,
      "Ġcompanies": 6044,
      "mc": 6045,
      "Ġ'/": 6046,
      "tikz": 6047,
      "short": 6048,
      "Ġlatter": 6049,
      "Ġaffect": 6050,
      "83": 6051,
      "ingu": 6052,
      "Ġreduce": 6053,
      "Refer": 6054,
      "Ġbal": 6055,
      "ĠAir": 6056,
      "Ġactions": 6057,
      "73": 6058,
      "ĠGeneral": 6059,
      "Rule": 6060,
      ".[": 6061,
      "ida": 6062,
      "Ġpairs": 6063,
      "'>": 6064,
      "forms": 6065,
      "Ġdual": 6066,
      "oon": 6067,
      "Ġpackage": 6068,
      "Ġdirectory": 6069,
      "Ġjav": 6070,
      "Ġdenotes": 6071,
      "Ġos": 6072,
      "SM": 6073,
      ")_": 6074,
      "mas": 6075,
      "ategories": 6076,
      "anger": 6077,
      "Storage": 6078,
      "__(": 6079,
      "shape": 6080,
      ")\\\\": 6081,
      "wner": 6082,
      "Ġarbitrary": 6083,
      "iffer": 6084,
      "seud": 6085,
      "ĠCollege": 6086,
      "Windows": 6087,
      "$$\\": 6088,
      "Le": 6089,
      "Ġinline": 6090,
      "Ġbring": 6091,
      "Ġcorrelation": 6092,
      "Ġetc": 6093,
      "Sw": 6094,
      "Ġmock": 6095,
      "){\\": 6096,
      "Ġappropriate": 6097,
      "ĠGovern": 6098,
      "aws": 6099,
      "Ġmsg": 6100,
      "uel": 6101,
      "Ġmeaning": 6102,
      "Ġways": 6103,
      "XX": 6104,
      "Ġestablish": 6105,
      "ĠAssoci": 6106,
      "Ġjo": 6107,
      "imeq": 6108,
      "iding": 6109,
      "Ġcircle": 6110,
      "comment": 6111,
      "Ġtown": 6112,
      "Ġorbit": 6113,
      "Ġpractice": 6114,
      "Ġsegment": 6115,
      "ĠNOT": 6116,
      "SR": 6117,
      "Ġ\"/": 6118,
      "simeq": 6119,
      "ĠAL": 6120,
      "ifornia": 6121,
      "hr": 6122,
      "ĠForm": 6123,
      "Ġer": 6124,
      "Queue": 6125,
      "help": 6126,
      "ĠMich": 6127,
      ".~(\\": 6128,
      "Api": 6129,
      "Ġcontrast": 6130,
      "endix": 6131,
      "ĠOpen": 6132,
      "ĠHer": 6133,
      "Ġfeed": 6134,
      "comput": 6135,
      "^{+": 6136,
      "mitted": 6137,
      "###": 6138,
      "endar": 6139,
      "Descriptor": 6140,
      "Ġsus": 6141,
      "ancy": 6142,
      "Ġimprove": 6143,
      "})$.": 6144,
      "81": 6145,
      "Ġda": 6146,
      "Ġjson": 6147,
      "1999": 6148,
      "Only": 6149,
      "iques": 6150,
      "impl": 6151,
      "Ġquick": 6152,
      "attribute": 6153,
      "rab": 6154,
      "\"`": 6155,
      "iciency": 6156,
      "Ġparty": 6157,
      "inv": 6158,
      "hadoop": 6159,
      "ATH": 6160,
      "Ġlock": 6161,
      "ilib": 6162,
      "Ġthroughout": 6163,
      "Ġestimates": 6164,
      "ĠRequ": 6165,
      "win": 6166,
      "Ġfinancial": 6167,
      "Classes": 6168,
      "elli": 6169,
      "stant": 6170,
      "Ġintroduce": 6171,
      "WE": 6172,
      "Ð»": 6173,
      "register": 6174,
      "Ġstra": 6175,
      "ested": 6176,
      "Widget": 6177,
      "insert": 6178,
      "ĠUK": 6179,
      "Ġpartition": 6180,
      "atalog": 6181,
      "remark": 6182,
      "Rout": 6183,
      "Ġgeneration": 6184,
      "HTML": 6185,
      "dependent": 6186,
      "CHE": 6187,
      "cf": 6188,
      "Ġfast": 6189,
      "ico": 6190,
      "ĠHow": 6191,
      "oul": 6192,
      "Ġecho": 6193,
      "Ġnothing": 6194,
      "Ġexistence": 6195,
      "Ġreve": 6196,
      "Ġcentury": 6197,
      "ä¸": 6198,
      "Ġincreases": 6199,
      "application": 6200,
      "jpg": 6201,
      "ĠHol": 6202,
      "cknow": 6203,
      "Ġ(*": 6204,
      "admin": 6205,
      "Prop": 6206,
      "Ġapproaches": 6207,
      "oph": 6208,
      "END": 6209,
      "asc": 6210,
      "FAULT": 6211,
      "istance": 6212,
      "Job": 6213,
      "79": 6214,
      "Ġconserv": 6215,
      "Ġplot": 6216,
      "Scope": 6217,
      "Build": 6218,
      "icons": 6219,
      "Ġmanagement": 6220,
      "Ġpreviously": 6221,
      "Debug": 6222,
      "Byte": 6223,
      "maz": 6224,
      "hesis": 6225,
      "Cor": 6226,
      "ogene": 6227,
      "ĠUse": 6228,
      "ITY": 6229,
      "adr": 6230,
      "Ġcurves": 6231,
      "Ġsex": 6232,
      "ingle": 6233,
      "Ġeconomic": 6234,
      "Ġearlier": 6235,
      "ĠJap": 6236,
      "Ġpul": 6237,
      "Ġoverall": 6238,
      "Ġtechnology": 6239,
      "ĠBlack": 6240,
      "Ġtesting": 6241,
      "radius": 6242,
      "\",\"": 6243,
      "jo": 6244,
      "Ġbounds": 6245,
      "Ġappears": 6246,
      ")),": 6247,
      "Ġproduce": 6248,
      ")},": 6249,
      "Ġmind": 6250,
      "Ġbehind": 6251,
      "Ġtour": 6252,
      "Ġabsolute": 6253,
      "Ġsignificantly": 6254,
      "Ġexhib": 6255,
      "Ġpropag": 6256,
      "ĠPark": 6257,
      "ĠArm": 6258,
      "ĠTHE": 6259,
      "ighest": 6260,
      "sets": 6261,
      "ashington": 6262,
      "RI": 6263,
      "71": 6264,
      "rot": 6265,
      "74": 6266,
      "ifically": 6267,
      "ĠJust": 6268,
      "$^{-": 6269,
      "each": 6270,
      "Ġclean": 6271,
      "Ġinsert": 6272,
      "illing": 6273,
      "Ġvisual": 6274,
      "Ġpressure": 6275,
      "TS": 6276,
      "Ġ=\\": 6277,
      "padding": 6278,
      "panel": 6279,
      "NG": 6280,
      "Ġmeasures": 6281,
      "Timeout": 6282,
      "miss": 6283,
      "lines": 6284,
      "Ġsimpl": 6285,
      "aker": 6286,
      "wp": 6287,
      "ĠEv": 6288,
      "EC": 6289,
      "PH": 6290,
      "Ġlooking": 6291,
      "gex": 6292,
      "Ġrecomm": 6293,
      "Ġgenerally": 6294,
      "Ġsingular": 6295,
      "Ġball": 6296,
      "ĠRed": 6297,
      "ĠĠĠĠĠĠĠĠĠĠĠĠĠĠĠĠĠĠĠĠĠĠĠĠ": 6298,
      "ĠNews": 6299,
      "rench": 6300,
      "Ġhit": 6301,
      "overed": 6302,
      "Thus": 6303,
      "reet": 6304,
      "Ġquas": 6305,
      "Ġalt": 6306,
      "JSON": 6307,
      "anks": 6308,
      "Ġgrant": 6309,
      "usters": 6310,
      "asure": 6311,
      "contin": 6312,
      "mapsto": 6313,
      "reedom": 6314,
      "Theorem": 6315,
      "ĠOther": 6316,
      "ĠEm": 6317,
      "Ġcoordinates": 6318,
      "Ġhon": 6319,
      "Ġpick": 6320,
      "WS": 6321,
      "|_{": 6322,
      "writ": 6323,
      "Ġbey": 6324,
      "Ġworked": 6325,
      "Fr": 6326,
      "Ġbeyond": 6327,
      "tn": 6328,
      "ailed": 6329,
      "Ġcompl": 6330,
      "Ġmatrices": 6331,
      "pk": 6332,
      ")$-": 6333,
      "Ġunits": 6334,
      "unsigned": 6335,
      "category": 6336,
      "Ġstrength": 6337,
      "uit": 6338,
      "inet": 6339,
      "Ġtreatment": 6340,
      "cmd": 6341,
      "_->": 6342,
      "Ġshared": 6343,
      "Ġpurpose": 6344,
      "Ġconsists": 6345,
      "DIR": 6346,
      "Ġspatial": 6347,
      "Ġdiscussion": 6348,
      "PRE": 6349,
      "ĠFunction": 6350,
      "Ġnight": 6351,
      "StyleID": 6352,
      "imin": 6353,
      "TC": 6354,
      "Ġslight": 6355,
      "ĠVol": 6356,
      "Dele": 6357,
      "=\"../../../": 6358,
      "'(": 6359,
      "mselves": 6360,
      "semble": 6361,
      "Ġcref": 6362,
      "recated": 6363,
      "sort": 6364,
      "FILE": 6365,
      "Dep": 6366,
      "Ġsymmetric": 6367,
      "condition": 6368,
      "Ġfollowed": 6369,
      "ĠEqu": 6370,
      "amental": 6371,
      "Ġradio": 6372,
      "Ġmodes": 6373,
      "ĠURL": 6374,
      "Ġremoved": 6375,
      "ĠPy": 6376,
      "AGE": 6377,
      "odot": 6378,
      ")).": 6379,
      "Ġprofession": 6380,
      "____": 6381,
      "Ġflag": 6382,
      "Ġattributes": 6383,
      "illed": 6384,
      "Ġtempor": 6385,
      "gment": 6386,
      "Ġefficient": 6387,
      "Ġmilitary": 6388,
      ";<": 6389,
      "Ġreach": 6390,
      "war": 6391,
      "ibly": 6392,
      "ĠEar": 6393,
      "Ġharm": 6394,
      "Ñĥ": 6395,
      "Ġstand": 6396,
      "ris": 6397,
      "etri": 6398,
      "Ġprevent": 6399,
      "ĠScience": 6400,
      "INS": 6401,
      "Ġexam": 6402,
      "These": 6403,
      "Initial": 6404,
      "plements": 6405,
      "Ġkernel": 6406,
      "ĠHTML": 6407,
      "ael": 6408,
      "product": 6409,
      "region": 6410,
      "ĠEngland": 6411,
      "ĠĠĠĠĠĠĠĠĠĠĠĠĠĠĠĠĠĠĠĠĠĠĠĠĠĠĠĠĠĠĠĠĠĠĠĠĠĠĠĠĠĠĠĠĠĠĠĠĠĠĠĠĠĠĠĠĠĠĠĠĠĠĠĠ": 6412,
      "Ġhandler": 6413,
      "Ġthemselves": 6414,
      "bits": 6415,
      "Eng": 6416,
      "Ġbul": 6417,
      "parameters": 6418,
      "=\"/": 6419,
      "grid": 6420,
      "Ġremaining": 6421,
      "Sl": 6422,
      "fort": 6423,
      "Multi": 6424,
      "dependency": 6425,
      "displaystyle": 6426,
      "Ġagent": 6427,
      "Ġprotocol": 6428,
      "Ġconvergence": 6429,
      "ĠRepublic": 6430,
      "Ġobserve": 6431,
      "rd": 6432,
      "Network": 6433,
      "Ġsetup": 6434,
      "}&": 6435,
      "ĠCalifornia": 6436,
      "esh": 6437,
      "ĠGaussian": 6438,
      "urren": 6439,
      "ometimes": 6440,
      "ĠAlso": 6441,
      "Ġmut": 6442,
      "axis": 6443,
      "erve": 6444,
      "MB": 6445,
      "Ġinstanceof": 6446,
      "alo": 6447,
      "KEY": 6448,
      "elt": 6449,
      "Ġoccur": 6450,
      "enses": 6451,
      "Ġauthors": 6452,
      "Ġcoming": 6453,
      "Ġstable": 6454,
      "Tra": 6455,
      "Ġactivity": 6456,
      "cloud": 6457,
      "-->": 6458,
      "but": 6459,
      "Changed": 6460,
      "NR": 6461,
      "Ġthreshold": 6462,
      "ilation": 6463,
      "TEX": 6464,
      "keys": 6465,
      "ĠĠĠĠĠĠĠĠĠĠĠĠĠĠĠĠĠĠĠĠĠĠ": 6466,
      "ĠFl": 6467,
      "Draw": 6468,
      "Ġsquare": 6469,
      "pub": 6470,
      "Ġdependence": 6471,
      "ĠSm": 6472,
      "Cre": 6473,
      "cpp": 6474,
      "connection": 6475,
      "irit": 6476,
      "eries": 6477,
      "pare": 6478,
      "alloc": 6479,
      "Ġhours": 6480,
      "Ġincor": 6481,
      "poses": 6482,
      "Ġmask": 6483,
      "reme": 6484,
      "Init": 6485,
      "holder": 6486,
      "Ġalloc": 6487,
      "Ġlack": 6488,
      "Ġacqu": 6489,
      "_-": 6490,
      "&#": 6491,
      "Ġspectra": 6492,
      "Custom": 6493,
      "Ġreceive": 6494,
      "->_": 6495,
      "Ġago": 6496,
      "NotNull": 6497,
      "Ã³": 6498,
      "items": 6499,
      "network": 6500,
      "onical": 6501,
      "esian": 6502,
      "tage": 6503,
      "Ġten": 6504,
      "Ġidentified": 6505,
      "aser": 6506,
      "rium": 6507,
      "assertEqual": 6508,
      "References": 6509,
      "Ġclassification": 6510,
      "language": 6511,
      "omorphic": 6512,
      "ĠEvent": 6513,
      "han": 6514,
      "$;": 6515,
      "proposition": 6516,
      "special": 6517,
      "Ġlegal": 6518,
      "123": 6519,
      "margin": 6520,
      "Ġquestions": 6521,
      "Ġrelig": 6522,
      "ĠIsra": 6523,
      "Ġability": 6524,
      "diag": 6525,
      "Active": 6526,
      "Lock": 6527,
      "Ġasympt": 6528,
      "inline": 6529,
      "Ġ..": 6530,
      "ponential": 6531,
      "Ġprobably": 6532,
      "Ġsaf": 6533,
      "fix": 6534,
      "Ġparticularly": 6535,
      "Ġwatch": 6536,
      "ACE": 6537,
      "Ġtransformation": 6538,
      "ÃŃ": 6539,
      "Ġdesigned": 6540,
      "Ġdetail": 6541,
      "Ġ&=&": 6542,
      "coin": 6543,
      "Ġyields": 6544,
      "unt": 6545,
      "Go": 6546,
      "ĠSan": 6547,
      "256": 6548,
      "thread": 6549,
      "\\{\\": 6550,
      "CF": 6551,
      "iring": 6552,
      "Ġlost": 6553,
      "Ġcompletely": 6554,
      "Ġfire": 6555,
      "rf": 6556,
      "Ġserial": 6557,
      "Ġidentify": 6558,
      "uations": 6559,
      "ĠPre": 6560,
      "scroll": 6561,
      "Symbol": 6562,
      "Ġformation": 6563,
      "ĠArch": 6564,
      "////////////////////////////////": 6565,
      "enge": 6566,
      "Ġtrain": 6567,
      "Display": 6568,
      "Ġgetting": 6569,
      "Ġprote": 6570,
      "Ġliving": 6571,
      "igration": 6572,
      "ĠCre": 6573,
      "Any": 6574,
      "ĠMethod": 6575,
      "modules": 6576,
      "Ġhighly": 6577,
      "ao": 6578,
      "olar": 6579,
      "Ġbranch": 6580,
      ")))": 6581,
      "orge": 6582,
      "cref": 6583,
      "Send": 6584,
      "forward": 6585,
      "Ġfood": 6586,
      "Ident": 6587,
      "DS": 6588,
      "Ġfight": 6589,
      "Ġmid": 6590,
      "Sum": 6591,
      "ĠCouncil": 6592,
      "Ġimmediately": 6593,
      "addr": 6594,
      "Pe": 6595,
      "ĠQue": 6596,
      "Ġindicates": 6597,
      "Ġnotice": 6598,
      "napshot": 6599,
      "Ġnovel": 6600,
      "rial": 6601,
      "Ġcalc": 6602,
      "exists": 6603,
      "bed": 6604,
      "oe": 6605,
      "track": 6606,
      "orter": 6607,
      "ĠOper": 6608,
      "called": 6609,
      "ĠDefault": 6610,
      "tty": 6611,
      "Ġcontributions": 6612,
      "Package": 6613,
      "airs": 6614,
      "Before": 6615,
      "ĠSy": 6616,
      "Ġdomin": 6617,
      "ĠUser": 6618,
      "Ġmaintain": 6619,
      "Ġgradu": 6620,
      "sequently": 6621,
      "ursor": 6622,
      "yes": 6623,
      "Ġbeginning": 6624,
      "TED": 6625,
      "Ġhel": 6626,
      "1998": 6627,
      "Ġguarant": 6628,
      "Ġmentioned": 6629,
      "[(": 6630,
      "Ġaud": 6631,
      "Ġhope": 6632,
      "Ġoffice": 6633,
      "edit": 6634,
      "_,": 6635,
      "Ġmicro": 6636,
      "Dialog": 6637,
      "Ġstellar": 6638,
      "Ġ[];": 6639,
      "ooks": 6640,
      "Ġvectors": 6641,
      "Ġcloud": 6642,
      "diff": 6643,
      "Ġassumed": 6644,
      "ĠMr": 6645,
      "Ġorient": 6646,
      "Click": 6647,
      "Ġgradient": 6648,
      "ierarch": 6649,
      "iral": 6650,
      "email": 6651,
      "Ġoptimization": 6652,
      "wrap": 6653,
      "Ġeq": 6654,
      "Ġanything": 6655,
      "Ġincreased": 6656,
      "Ġmapping": 6657,
      "cut": 6658,
      "Tab": 6659,
      "Ġinteractions": 6660,
      "annotation": 6661,
      "Security": 6662,
      "Ġunivers": 6663,
      "Pool": 6664,
      "acket": 6665,
      "ishes": 6666,
      "Ġtransp": 6667,
      "Ġtravel": 6668,
      "sb": 6669,
      "Ġcalls": 6670,
      "Ġrepresented": 6671,
      "Ġmiddle": 6672,
      "Ġste": 6673,
      "ture": 6674,
      "Ġvict": 6675,
      "utor": 6676,
      "otion": 6677,
      "Ġenh": 6678,
      "Ġliterature": 6679,
      "ĠSen": 6680,
      "bal": 6681,
      "ĠInst": 6682,
      "Ġformal": 6683,
      "ĠDavid": 6684,
      "para": 6685,
      "Ġlibrary": 6686,
      "numer": 6687,
      "Ġjoint": 6688,
      "keyword": 6689,
      "Using": 6690,
      "Ġlang": 6691,
      "Ġmis": 6692,
      "$~": 6693,
      "ĠWashington": 6694,
      "Ġcop": 6695,
      "none": 6696,
      "loop": 6697,
      "ĠBase": 6698,
      "ucket": 6699,
      "ĠAut": 6700,
      "ifications": 6701,
      "typeof": 6702,
      "well": 6703,
      "di": 6704,
      "upload": 6705,
      "Ġdro": 6706,
      "ocker": 6707,
      "useum": 6708,
      "pay": 6709,
      "Ġanalog": 6710,
      "Ġkeys": 6711,
      "Ġhighest": 6712,
      "Ġpolice": 6713,
      "Ġfunc": 6714,
      "toggle": 6715,
      "Ġ^": 6716,
      "Ġprediction": 6717,
      "Ġmodern": 6718,
      "Ġentity": 6719,
      "rome": 6720,
      "Ne": 6721,
      "ultural": 6722,
      "Ġveh": 6723,
      "ĠPo": 6724,
      "Ġreli": 6725,
      "GS": 6726,
      "Support": 6727,
      "ĠNode": 6728,
      "Ġclearly": 6729,
      "ĠCopy": 6730,
      "'.": 6731,
      "Ġtrying": 6732,
      "Account": 6733,
      "Ġnor": 6734,
      "ĠOver": 6735,
      "aved": 6736,
      "Ġmachine": 6737,
      "properties": 6738,
      "green": 6739,
      "ĠNO": 6740,
      "move": 6741,
      "assertEquals": 6742,
      "nes": 6743,
      "Ġmeasurement": 6744,
      "ĠÃ": 6745,
      "Ġhot": 6746,
      "Ġserved": 6747,
      "Ġaspect": 6748,
      "nections": 6749,
      "amely": 6750,
      "Icon": 6751,
      "Ġdistinct": 6752,
      "Ġvariety": 6753,
      "election": 6754,
      "ĠjQuery": 6755,
      "ilibrium": 6756,
      "Ġanti": 6757,
      "]]": 6758,
      "arse": 6759,
      "herit": 6760,
      "olver": 6761,
      "While": 6762,
      "Ġscient": 6763,
      "})$,": 6764,
      "Ġregime": 6765,
      "Second": 6766,
      "Struct": 6767,
      "Ġborn": 6768,
      "ini": 6769,
      "pers": 6770,
      "effect": 6771,
      "Ġesc": 6772,
      "just": 6773,
      "Ġut": 6774,
      "plication": 6775,
      "emy": 6776,
      "ĠFoundation": 6777,
      "Ġhidden": 6778,
      "Ġstraight": 6779,
      "Ġteach": 6780,
      "ĠPal": 6781,
      "Ġ{$": 6782,
      "BS": 6783,
      "oration": 6784,
      "()).": 6785,
      "protobuf": 6786,
      "wik": 6787,
      "SIZE": 6788,
      "Ġreflect": 6789,
      "}}$,": 6790,
      "Ġson": 6791,
      "}}$.": 6792,
      "ĠCode": 6793,
      "Member": 6794,
      "atible": 6795,
      "Ljava": 6796,
      "footer": 6797,
      "Ġcampaign": 6798,
      "ĠOf": 6799,
      "Ġfriend": 6800,
      "(!": 6801,
      "ader": 6802,
      ")+\\": 6803,
      "Ġcombination": 6804,
      "Ġfather": 6805,
      "Ġscore": 6806,
      "Ġdb": 6807,
      "Ġach": 6808,
      "Ġmodified": 6809,
      "Ġmechanism": 6810,
      "DR": 6811,
      "[:": 6812,
      "ĠPaul": 6813,
      "Ġmorph": 6814,
      "Extension": 6815,
      "Main": 6816,
      "ued": 6817,
      "Ġmolec": 6818,
      "Iterator": 6819,
      "ĠCons": 6820,
      "ror": 6821,
      "queue": 6822,
      "rote": 6823,
      "fail": 6824,
      "Adapt": 6825,
      "Ġmovie": 6826,
      "Ġencoding": 6827,
      "unic": 6828,
      "LL": 6829,
      "ads": 6830,
      "engine": 6831,
      ".*": 6832,
      "Ġblocks": 6833,
      "ECT": 6834,
      "Ġpointer": 6835,
      "Float": 6836,
      "128": 6837,
      ")-\\": 6838,
      "cb": 6839,
      "Runtime": 6840,
      "lood": 6841,
      "[$": 6842,
      "ĠFalse": 6843,
      "Mar": 6844,
      "Ap": 6845,
      "Ġangular": 6846,
      "VERSION": 6847,
      "Ġhtml": 6848,
      "two": 6849,
      "vised": 6850,
      "Ġunderstanding": 6851,
      "Ġfamil": 6852,
      "Ġwebsite": 6853,
      "ressed": 6854,
      "ĠĠĠĠĠĠĊ": 6855,
      "Ġfair": 6856,
      "ancel": 6857,
      "enter": 6858,
      "Auth": 6859,
      "Ġtrade": 6860,
      "ĠEach": 6861,
      "mass": 6862,
      "aration": 6863,
      "ĠMor": 6864,
      "Ġtechniques": 6865,
      "Ġprograms": 6866,
      "istr": 6867,
      "incipal": 6868,
      "Ġdetailed": 6869,
      "scription": 6870,
      "apply": 6871,
      "Compar": 6872,
      "Ġrev": 6873,
      "Ġlives": 6874,
      "ipage": 6875,
      "Ġproceed": 6876,
      "Pattern": 6877,
      "ĠMem": 6878,
      "ĠInstitute": 6879,
      "Ġunknown": 6880,
      "MR": 6881,
      "Ġnotation": 6882,
      "Ġmoved": 6883,
      "}{|": 6884,
      "Msg": 6885,
      "Ġasked": 6886,
      "Ġspecies": 6887,
      ":}": 6888,
      "Ġpure": 6889,
      "Ġmedical": 6890,
      "names": 6891,
      "events": 6892,
      "))$": 6893,
      "ĠProgram": 6894,
      "icies": 6895,
      "Ġpriv": 6896,
      "gg": 6897,
      "Ġneutr": 6898,
      "brid": 6899,
      "ĠGoogle": 6900,
      "GR": 6901,
      "txt": 6902,
      "olves": 6903,
      "ĠField": 6904,
      ",$": 6905,
      "Ġdise": 6906,
      "ĠExt": 6907,
      "mic": 6908,
      "LOG": 6909,
      "total": 6910,
      "Ġexport": 6911,
      ".__": 6912,
      "scill": 6913,
      "Ġgap": 6914,
      "Ġunless": 6915,
      "MAX": 6916,
      "tip": 6917,
      "ĠTrump": 6918,
      "Ġachieve": 6919,
      "Ġwanted": 6920,
      "Ġtrigger": 6921,
      "Graph": 6922,
      "mma": 6923,
      "ĠGreen": 6924,
      "Ġneighbor": 6925,
      "kens": 6926,
      "Ġheart": 6927,
      "cong": 6928,
      "Ġmatching": 6929,
      "Te": 6930,
      "Ġvertical": 6931,
      "bi": 6932,
      "Tests": 6933,
      "Ġnearly": 6934,
      "inn": 6935,
      "Ġhighlight": 6936,
      "dule": 6937,
      "Flags": 6938,
      "Ġsold": 6939,
      "PAR": 6940,
      "Ġcontained": 6941,
      "Ġfailure": 6942,
      "hi": 6943,
      "selected": 6944,
      "minipage": 6945,
      "ĠChurch": 6946,
      "Proxy": 6947,
      "ARY": 6948,
      "ĠHamiltonian": 6949,
      "Ġleave": 6950,
      "aven": 6951,
      "Ġfamilies": 6952,
      "Perm": 6953,
      "Selector": 6954,
      "rev": 6955,
      "ĠRel": 6956,
      "Br": 6957,
      "Ġlayers": 6958,
      "flags": 6959,
      "Hz": 6960,
      "Ġdirector": 6961,
      "tion": 6962,
      "Ġdifferential": 6963,
      "}({\\": 6964,
      "ĠPost": 6965,
      "Ġcapacity": 6966,
      "EO": 6967,
      "Ġstorage": 6968,
      "Ġadvanta": 6969,
      "hentication": 6970,
      "Ġbehavi": 6971,
      "Ġrelatively": 6972,
      "typedef": 6973,
      "ĠCall": 6974,
      "Ġrect": 6975,
      "Ġattr": 6976,
      "Ġinvalid": 6977,
      "Ġboard": 6978,
      "ĠAccording": 6979,
      "Ġelectric": 6980,
      "Ġmor": 6981,
      "Show": 6982,
      "ROM": 6983,
      "igr": 6984,
      "IB": 6985,
      "Ġreserv": 6986,
      "Ġdetect": 6987,
      "stop": 6988,
      "Ġwide": 6989,
      "Ġinterpret": 6990,
      "Ġresid": 6991,
      "eck": 6992,
      "Ġng": 6993,
      "Ġperfect": 6994,
      "OO": 6995,
      "Register": 6996,
      "ental": 6997,
      "ĠMet": 6998,
      "Ġeverything": 6999,
      "Ġassess": 7000,
      "chain": 7001,
      "sor": 7002,
      "Ġcapital": 7003,
      "\")]": 7004,
      "Ġmasses": 7005,
      "CHECK": 7006,
      "Ġinfluence": 7007,
      ")\">": 7008,
      "Ġmissing": 7009,
      "ether": 7010,
      "ampion": 7011,
      "Ġconclude": 7012,
      "TABLE": 7013,
      "Items": 7014,
      "Internal": 7015,
      "Transaction": 7016,
      "Example": 7017,
      "()));": 7018,
      ":=": 7019,
      "Ġgoes": 7020,
      "cccc": 7021,
      "Ġdimensions": 7022,
      "ĠKey": 7023,
      "Ġgraphs": 7024,
      "Ġscience": 7025,
      "Ġdrop": 7026,
      "aled": 7027,
      "ĠUN": 7028,
      "ĠPhil": 7029,
      "ĠProject": 7030,
      "Ġgets": 7031,
      "bel": 7032,
      "Ġflat": 7033,
      "Ġsector": 7034,
      "Transform": 7035,
      "vc": 7036,
      "Ġcit": 7037,
      "essor": 7038,
      "Bit": 7039,
      "ertificate": 7040,
      "Func": 7041,
      "Ġstrateg": 7042,
      "DP": 7043,
      "ĠIP": 7044,
      "Ġrout": 7045,
      "conv": 7046,
      "Ġpresident": 7047,
      "UID": 7048,
      "Ġgreen": 7049,
      "schema": 7050,
      "Fail": 7051,
      "wood": 7052,
      "Ġjavax": 7053,
      "icity": 7054,
      "aur": 7055,
      "Ġchem": 7056,
      "]}": 7057,
      "Ġring": 7058,
      "iterator": 7059,
      ")}_{": 7060,
      "printf": 7061,
      "limit": 7062,
      "Events": 7063,
      "ĠInc": 7064,
      "empor": 7065,
      "Ġ\\!": 7066,
      "ĠPort": 7067,
      "password": 7068,
      "security": 7069,
      "unn": 7070,
      "save": 7071,
      "large": 7072,
      "Ġcriter": 7073,
      "Ġremain": 7074,
      "Ġlat": 7075,
      "Ġsurv": 7076,
      "Ġlabels": 7077,
      "MT": 7078,
      "boost": 7079,
      "notations": 7080,
      "ĠSte": 7081,
      "bytes": 7082,
      "inger": 7083,
      "ara": 7084,
      "bootstrap": 7085,
      "Ġquadr": 7086,
      "Ġroom": 7087,
      "ĠJames": 7088,
      "Ġupdated": 7089,
      "profile": 7090,
      "Editor": 7091,
      "ĠBay": 7092,
      "Ġconcent": 7093,
      "Directory": 7094,
      "++;": 7095,
      "Ġstudent": 7096,
      "Ġexc": 7097,
      "hbar": 7098,
      "abil": 7099,
      "Cons": 7100,
      "plugins": 7101,
      "Ġunderlying": 7102,
      "}{(": 7103,
      "istical": 7104,
      "Ġdifferences": 7105,
      "STATE": 7106,
      "Ġverify": 7107,
      "Ġminimal": 7108,
      "Ġvary": 7109,
      "since": 7110,
      "Ġsave": 7111,
      "Ġcov": 7112,
      "ĠAN": 7113,
      "ollowing": 7114,
      "Ġanswer": 7115,
      "Ġobvious": 7116,
      "Ġprefer": 7117,
      "Protocol": 7118,
      "Ġreson": 7119,
      ")}}": 7120,
      "Grid": 7121,
      "Ġdied": 7122,
      "zer": 7123,
      "Ġexperi": 7124,
      "Ġhypot": 7125,
      "ĉĠĠĠĠĠĠĠ": 7126,
      "dict": 7127,
      "oved": 7128,
      "Ġtro": 7129,
      ")));": 7130,
      "Ġideal": 7131,
      "blockList": 7132,
      "ĠSupp": 7133,
      "udes": 7134,
      "Ġpen": 7135,
      "ĠCr": 7136,
      "Am": 7137,
      "Ġreader": 7138,
      "Ġoptical": 7139,
      "Ġ$|\\": 7140,
      "Ġoppos": 7141,
      "ga": 7142,
      "ĠJew": 7143,
      "Ġweights": 7144,
      "ĠCOVID": 7145,
      "Ġdatasets": 7146,
      "Ġfundamental": 7147,
      "Ġsoon": 7148,
      "ĠTask": 7149,
      "$};": 7150,
      "Ġcomplexity": 7151,
      "Ġexpert": 7152,
      "Therefore": 7153,
      "Ġodd": 7154,
      "gan": 7155,
      "stitution": 7156,
      "Ġbooks": 7157,
      "Ġphen": 7158,
      "Scroll": 7159,
      "$),": 7160,
      "vs": 7161,
      "Ġforces": 7162,
      "ĠMag": 7163,
      "Ġisn": 7164,
      "Ġworth": 7165,
      "(){": 7166,
      "Ġgeometry": 7167,
      "Ġsup": 7168,
      "-$": 7169,
      "Memory": 7170,
      "ĠThom": 7171,
      "ĠIndian": 7172,
      "UES": 7173,
      "throws": 7174,
      "}$)": 7175,
      "ookie": 7176,
      "when": 7177,
      "GC": 7178,
      "stable": 7179,
      "mos": 7180,
      "Step": 7181,
      "Ġprojects": 7182,
      "Close": 7183,
      "alled": 7184,
      "Ġscenario": 7185,
      "Ġdu": 7186,
      "Ġruns": 7187,
      "abe": 7188,
      "lesssim": 7189,
      "ĠCanada": 7190,
      "vect": 7191,
      "Ġparallel": 7192,
      "Ġ\"\"": 7193,
      "Ġoscill": 7194,
      "Ġpositions": 7195,
      "mediate": 7196,
      "Introduction": 7197,
      "Ġseparate": 7198,
      "Ġeditor": 7199,
      "Ġreading": 7200,
      "Ġthreat": 7201,
      "Ġshowed": 7202,
      "Ðº": 7203,
      "spe": 7204,
      "izable": 7205,
      "hemat": 7206,
      "Ġcast": 7207,
      "Ġproved": 7208,
      "Feature": 7209,
      "Ġexpressed": 7210,
      "structor": 7211,
      "ĠUsing": 7212,
      "RAN": 7213,
      "ymmetric": 7214,
      "Logger": 7215,
      "Ġgalaxy": 7216,
      "elebr": 7217,
      "ĠFinally": 7218,
      "akes": 7219,
      "Ġcalculate": 7220,
      "IST": 7221,
      "Ġmagnitude": 7222,
      "ano": 7223,
      "Ġreduction": 7224,
      "mut": 7225,
      "Ġvisible": 7226,
      "algorithm": 7227,
      "Ġhimself": 7228,
      "Ġextend": 7229,
      ">\\": 7230,
      "Red": 7231,
      "controller": 7232,
      "ĠNor": 7233,
      "Ġcycle": 7234,
      "Ġstaff": 7235,
      "lyph": 7236,
      "Ġdelay": 7237,
      "150": 7238,
      "spring": 7239,
      "160": 7240,
      "Ġproviding": 7241,
      "Ġcoordinate": 7242,
      "Ġobservation": 7243,
      "Ġaward": 7244,
      "Ġmoving": 7245,
      "yg": 7246,
      "Ġcomputation": 7247,
      "Ġrotation": 7248,
      "Del": 7249,
      "idx": 7250,
      "ĠUs": 7251,
      "tools": 7252,
      "iling": 7253,
      "Ġdynamic": 7254,
      "Gr": 7255,
      "istan": 7256,
      "Ġindicate": 7257,
      "Ġenable": 7258,
      "*)": 7259,
      "(@": 7260,
      "iders": 7261,
      "Attributes": 7262,
      "uous": 7263,
      "Plugin": 7264,
      "plan": 7265,
      "ĠĠĠĠĠĠĠĠĠĠĠĠĠĠĠĠĠĠĠĠĠĠĠĠĠĠĠĠĠ": 7266,
      "Ġabsor": 7267,
      "Ġsaw": 7268,
      "Ġdam": 7269,
      "pool": 7270,
      "Ġtor": 7271,
      "ĠMat": 7272,
      "Conf": 7273,
      "Finally": 7274,
      "ado": 7275,
      "icated": 7276,
      "illa": 7277,
      "install": 7278,
      "ĠVer": 7279,
      "Ġachiev": 7280,
      "Ġtab": 7281,
      "Ġstrongly": 7282,
      "ospital": 7283,
      "haps": 7284,
      "leep": 7285,
      "Ġprice": 7286,
      "Ġprocessing": 7287,
      "Condition": 7288,
      "ĠLandroid": 7289,
      "Ġemp": 7290,
      "Ġinstitution": 7291,
      "ĠCong": 7292,
      "ĠAfrica": 7293,
      "ved": 7294,
      "120": 7295,
      "Ġ[\\": 7296,
      "Ġwriter": 7297,
      "Ġwrote": 7298,
      "ĠTODO": 7299,
      "oped": 7300,
      "Ġcompleted": 7301,
      "Ġexcit": 7302,
      "Ġidx": 7303,
      "Ġfn": 7304,
      "Ġcivil": 7305,
      "Ġtrained": 7306,
      "Ġextrem": 7307,
      ")[": 7308,
      "Ñı": 7309,
      "Ġcli": 7310,
      "master": 7311,
      "Ġspan": 7312,
      "ena": 7313,
      "pred": 7314,
      "Ġcreating": 7315,
      "arter": 7316,
      "lig": 7317,
      "Ġio": 7318,
      "Ġconstructed": 7319,
      "Ġevaluation": 7320,
      "Ġentries": 7321,
      "poss": 7322,
      "ĠFrench": 7323,
      "Media": 7324,
      "itivity": 7325,
      "ooper": 7326,
      "Ġconsidering": 7327,
      "Ġwrong": 7328,
      "hav": 7329,
      "################": 7330,
      "'ve": 7331,
      "ki": 7332,
      "ĠAustralia": 7333,
      "Ġconsole": 7334,
      "Pointer": 7335,
      "Ġretri": 7336,
      "Ġlif": 7337,
      "Ġrecall": 7338,
      "blem": 7339,
      "PU": 7340,
      "plot": 7341,
      "Loader": 7342,
      "Elements": 7343,
      "Rest": 7344,
      "Ġtrust": 7345,
      "FL": 7346,
      "Ġsil": 7347,
      "Ġ%}": 7348,
      "FIG": 7349,
      "Inv": 7350,
      "Ġ(_": 7351,
      "ĠGets": 7352,
      "Ġmessages": 7353,
      "ogeneous": 7354,
      "MENT": 7355,
      "Ġbur": 7356,
      "Ġbirth": 7357,
      "iece": 7358,
      "Ġbutton": 7359,
      "Ġinfinite": 7360,
      "Ġtraject": 7361,
      "ĠAR": 7362,
      "chmark": 7363,
      "otted": 7364,
      "Ġabstract": 7365,
      "Auto": 7366,
      "children": 7367,
      "Ġannounced": 7368,
      "primary": 7369,
      "dy": 7370,
      "Ġoccurs": 7371,
      "ĠMax": 7372,
      "mann": 7373,
      "Ġinsp": 7374,
      "Opt": 7375,
      "handler": 7376,
      "Found": 7377,
      "LIC": 7378,
      "Ġscattering": 7379,
      "Ġimag": 7380,
      "Ġpush": 7381,
      "\\)": 7382,
      "Ġbin": 7383,
      "Ġscreen": 7384,
      "Rece": 7385,
      "_(": 7386,
      "Ġbuilder": 7387,
      "Ġstay": 7388,
      "reset": 7389,
      "ocation": 7390,
      "Enum": 7391,
      "Keys": 7392,
      "Ġinduced": 7393,
      "Activity": 7394,
      "Ġuncertainty": 7395,
      "Ġamplitude": 7396,
      "tfrac": 7397,
      "Ġoccup": 7398,
      "Ġenabled": 7399,
      "ĠAp": 7400,
      "Ġwallet": 7401,
      "ĠVersion": 7402,
      "Ġcells": 7403,
      "Ġcomputational": 7404,
      "Ġinstr": 7405,
      "Ġvac": 7406,
      "^*$": 7407,
      "ĠSO": 7408,
      "Constants": 7409,
      "Ġcandidate": 7410,
      "Ġonto": 7411,
      "Ġnative": 7412,
      "Ġdemand": 7413,
      "even": 7414,
      "ĠIOException": 7415,
      "erry": 7416,
      "Ġcolumns": 7417,
      "Ġdesired": 7418,
      "Ġbrief": 7419,
      "ĠPat": 7420,
      "Ġimplemented": 7421,
      "Ġimplements": 7422,
      "SQL": 7423,
      "Mat": 7424,
      "dem": 7425,
      "ĠExec": 7426,
      "ilarly": 7427,
      "random": 7428,
      "joint": 7429,
      "Ġtypeof": 7430,
      "Panel": 7431,
      "Ġbeam": 7432,
      "Ġexchange": 7433,
      "trigger": 7434,
      "Ġcombined": 7435,
      "verb": 7436,
      "Java": 7437,
      "ĠHel": 7438,
      "ĠText": 7439,
      "eval": 7440,
      "ologies": 7441,
      "Ġsubgroup": 7442,
      "Ġslightly": 7443,
      "Ġcalculation": 7444,
      "contains": 7445,
      "Constraint": 7446,
      "çļ": 7447,
      "stats": 7448,
      "STAT": 7449,
      "Ġmus": 7450,
      "ĠPress": 7451,
      "Ġschools": 7452,
      "}}_{\\": 7453,
      "Ġnoted": 7454,
      "]:": 7455,
      "Ġtheoretical": 7456,
      "Ġ{'": 7457,
      "Ġfem": 7458,
      "Edit": 7459,
      "Named": 7460,
      "Ġamb": 7461,
      "job": 7462,
      "Ġcaused": 7463,
      "manager": 7464,
      "1997": 7465,
      "Ġfederal": 7466,
      "Ġreq": 7467,
      "single": 7468,
      "ensed": 7469,
      "ying": 7470,
      "XML": 7471,
      "Ġmanager": 7472,
      "resp": 7473,
      "çļĦ": 7474,
      "ĠDesc": 7475,
      "ĠAlthough": 7476,
      "look": 7477,
      "Ġfreedom": 7478,
      "Ġapproximately": 7479,
      "ĠCommission": 7480,
      "ĠKe": 7481,
      "Ġrespond": 7482,
      "Ġbillion": 7483,
      "Ġshowing": 7484,
      "Ġrobust": 7485,
      "ĠDay": 7486,
      "ployment": 7487,
      "Ġevaluate": 7488,
      "ĠDemocr": 7489,
      "Ġreplace": 7490,
      "Ġult": 7491,
      "RR": 7492,
      "site": 7493,
      "elopment": 7494,
      "material": 7495,
      "metadata": 7496,
      "family": 7497,
      "Ġpaths": 7498,
      "Ġproport": 7499,
      "ĠTw": 7500,
      "ĠBer": 7501,
      "Ġlimits": 7502,
      "Ġrecords": 7503,
      "Matrix": 7504,
      "record": 7505,
      "Ġsections": 7506,
      "ĠĠĠĠĠĠĠĠĠĠĠĠĠĠĠĠĠĠĠĠĠĠĠĠĠĠ": 7507,
      "Ġexecution": 7508,
      "inem": 7509,
      "Ġquot": 7510,
      "How": 7511,
      "MOD": 7512,
      "paragraph": 7513,
      "Ġwall": 7514,
      "obert": 7515,
      "Ġmother": 7516,
      "identifier": 7517,
      "hol": 7518,
      "\\}$.": 7519,
      "uby": 7520,
      "Ġprojection": 7521,
      "hidden": 7522,
      "ĠId": 7523,
      "ĉĉĉĊ": 7524,
      "ĠBen": 7525,
      "Print": 7526,
      "arc": 7527,
      "1990": 7528,
      "opic": 7529,
      "'])": 7530,
      "PY": 7531,
      "FC": 7532,
      "riz": 7533,
      "Ġindividuals": 7534,
      "osity": 7535,
      "DT": 7536,
      "Ġspread": 7537,
      "Ġadding": 7538,
      "Ġexponential": 7539,
      "important": 7540,
      "Ġworkers": 7541,
      "Global": 7542,
      "joy": 7543,
      "IE": 7544,
      "ĠSeries": 7545,
      "'m": 7546,
      "Ġconstants": 7547,
      "Ġefficiency": 7548,
      "such": 7549,
      "circle": 7550,
      "utive": 7551,
      "brief": 7552,
      "ango": 7553,
      "ĠWhite": 7554,
      "dfrac": 7555,
      "sys": 7556,
      "TRY": 7557,
      "nn": 7558,
      "Ġsolve": 7559,
      "rian": 7560,
      "iable": 7561,
      "Ġtypically": 7562,
      "Ac": 7563,
      "ĠTV": 7564,
      "Ġscaling": 7565,
      "Ġstri": 7566,
      "fi": 7567,
      "(__": 7568,
      "Ġfootball": 7569,
      "ĠGerman": 7570,
      "Det": 7571,
      "Ġfine": 7572,
      "ĠCommit": 7573,
      "Ġwaves": 7574,
      "ĠStreet": 7575,
      "&=&": 7576,
      "Ġdrug": 7577,
      "NULL": 7578,
      "WA": 7579,
      "1996": 7580,
      "ĠCompany": 7581,
      "ufact": 7582,
      "\"/": 7583,
      "Ġicon": 7584,
      "Ġtrace": 7585,
      "Ġfunctional": 7586,
      "editor": 7587,
      "ĠMo": 7588,
      "@{": 7589,
      "Ġcalculations": 7590,
      "$&": 7591,
      "ĠRuss": 7592,
      "Ġtypical": 7593,
      "Ġvalign": 7594,
      "Ġconvex": 7595,
      "Ġprotect": 7596,
      "Ġdepending": 7597,
      "aset": 7598,
      "urrency": 7599,
      "Ġexplicitly": 7600,
      "ander": 7601,
      "Diag": 7602,
      "sat": 7603,
      "Ġenter": 7604,
      "ĠOption": 7605,
      "Ġplaying": 7606,
      "Ġestimation": 7607,
      "Ġsecret": 7608,
      "$:": 7609,
      ".'": 7610,
      "ĠTechn": 7611,
      "account": 7612,
      "Ġrequests": 7613,
      "iggs": 7614,
      "mask": 7615,
      "Generic": 7616,
      "Ġalternative": 7617,
      "ĠRich": 7618,
      "Ġcontroller": 7619,
      "vee": 7620,
      "ĠFurthermore": 7621,
      "icial": 7622,
      "]$.": 7623,
      "ĠExample": 7624,
      "anned": 7625,
      "Ġculture": 7626,
      "Ġnation": 7627,
      "Ġgave": 7628,
      "ĠMal": 7629,
      "Ġorganization": 7630,
      "Ġactivities": 7631,
      "phys": 7632,
      "pu": 7633,
      "Ġscene": 7634,
      "Des": 7635,
      "ira": 7636,
      "Ġsomeone": 7637,
      "Attr": 7638,
      "rb": 7639,
      "Term": 7640,
      "hbox": 7641,
      "NavBarCell": 7642,
      "VM": 7643,
      "ĠResult": 7644,
      "Ġcommunication": 7645,
      "she": 7646,
      "Ġcard": 7647,
      "dropdown": 7648,
      "Ġnuclear": 7649,
      "Scale": 7650,
      "ĠUpdate": 7651,
      "ĠDon": 7652,
      "Expect": 7653,
      "BP": 7654,
      "Ġarchitecture": 7655,
      "Ġqueue": 7656,
      "Ġener": 7657,
      "La": 7658,
      "Ġlemma": 7659,
      "Ġsatisfying": 7660,
      "INSERT": 7661,
      "lers": 7662,
      "ya": 7663,
      "Ġphenomen": 7664,
      "notes": 7665,
      "ĠUnion": 7666,
      "cluster": 7667,
      "Pod": 7668,
      "Ġdecomposition": 7669,
      "Ġforeign": 7670,
      "HS": 7671,
      "Ġsociety": 7672,
      "Ġdead": 7673,
      "Ġmassive": 7674,
      "Ġclusters": 7675,
      "Ġinterested": 7676,
      "inese": 7677,
      "ffect": 7678,
      "======": 7679,
      "Ġachieved": 7680,
      "Ġinterview": 7681,
      "Fix": 7682,
      "Ġdenoted": 7683,
      "Parse": 7684,
      "ĠTex": 7685,
      "Ġ{{": 7686,
      "PORT": 7687,
      "Ġintr": 7688,
      "Ġhol": 7689,
      "\">&": 7690,
      "ĠAnt": 7691,
      "ToString": 7692,
      "Ġhole": 7693,
      "Ġfill": 7694,
      "Ġvacc": 7695,
      "Ġsummar": 7696,
      "Ġpatients": 7697,
      "Ġpy": 7698,
      "Ġrise": 7699,
      "ĠConfig": 7700,
      "Ġheavy": 7701,
      "Ġbeli": 7702,
      "Ġdiscrete": 7703,
      ",{\\": 7704,
      "cover": 7705,
      "Ġdestroy": 7706,
      "Nodes": 7707,
      "ĠParty": 7708,
      "Profile": 7709,
      "IMP": 7710,
      "Ġreplaced": 7711,
      "ĠAND": 7712,
      "safe": 7713,
      "Ġcontinued": 7714,
      "rons": 7715,
      "Ġmovement": 7716,
      "Ġstated": 7717,
      "Ġ[[": 7718,
      "tests": 7719,
      "Remove": 7720,
      "READ": 7721,
      "ky": 7722,
      "}})": 7723,
      "erial": 7724,
      "Ġminor": 7725,
      "expr": 7726,
      "Ġmatches": 7727,
      "Ġvs": 7728,
      "ĠBuild": 7729,
      "opes": 7730,
      "urations": 7731,
      "Ġmeta": 7732,
      "Ġmajority": 7733,
      "Ġparents": 7734,
      "ĠLeg": 7735,
      "ubble": 7736,
      "Ġctx": 7737,
      "Socket": 7738,
      "Ġpseud": 7739,
      "switch": 7740,
      "libr": 7741,
      "Ġmaster": 7742,
      "Double": 7743,
      "Americ": 7744,
      "Ġformed": 7745,
      "tmp": 7746,
      "ository": 7747,
      "Ġdegrees": 7748,
      "Ġconflic": 7749,
      "brace": 7750,
      "Ġchannels": 7751,
      "Ġmixed": 7752,
      "]$,": 7753,
      "Ġstrings": 7754,
      "Ġtypename": 7755,
      "FS": 7756,
      "JECT": 7757,
      "ĠBoard": 7758,
      "Ġopportunity": 7759,
      "getName": 7760,
      "Statement": 7761,
      "bot": 7762,
      "}</": 7763,
      "components": 7764,
      "Ġinform": 7765,
      "webpack": 7766,
      "tikzpicture": 7767,
      "irus": 7768,
      "Ġlumin": 7769,
      "Namespace": 7770,
      "Ġtraditional": 7771,
      "Ġcoefficient": 7772,
      "Full": 7773,
      "Ġsometimes": 7774,
      "des": 7775,
      "Ġthick": 7776,
      "IND": 7777,
      "Failed": 7778,
      "clusions": 7779,
      "Ġrock": 7780,
      "HER": 7781,
      "Ġprefix": 7782,
      "ymf": 7783,
      "Ġdetected": 7784,
      "amel": 7785,
      "attributes": 7786,
      "}\\,\\": 7787,
      "|}{": 7788,
      "hetic": 7789,
      "Ġredshift": 7790,
      "Ġfluct": 7791,
      "Ġwoman": 7792,
      "Ġinstances": 7793,
      "omin": 7794,
      "Ġanim": 7795,
      "UTF": 7796,
      "HR": 7797,
      "ixels": 7798,
      "Layer": 7799,
      "Ġreasons": 7800,
      "CI": 7801,
      "lat": 7802,
      "emptyset": 7803,
      "SER": 7804,
      "za": 7805,
      "Ġbright": 7806,
      "irmed": 7807,
      "road": 7808,
      "udget": 7809,
      "BB": 7810,
      "Ġcarry": 7811,
      "screen": 7812,
      "Ġpod": 7813,
      "Wrapper": 7814,
      "ducer": 7815,
      "BUG": 7816,
      "ĠAssociation": 7817,
      "Ġwind": 7818,
      "Ġsett": 7819,
      "Ġinj": 7820,
      "ĠEduc": 7821,
      "Ġcomputer": 7822,
      "Ġpool": 7823,
      "Cluster": 7824,
      ",\\\\": 7825,
      "clusive": 7826,
      "west": 7827,
      "ye": 7828,
      "Ġgiving": 7829,
      "Ġrequirements": 7830,
      "PER": 7831,
      "Adapter": 7832,
      "Ġdistrict": 7833,
      "chastic": 7834,
      "Ġraw": 7835,
      "DM": 7836,
      "Ġscales": 7837,
      "apper": 7838,
      "Ġthermal": 7839,
      "van": 7840,
      "Domain": 7841,
      "urred": 7842,
      "ĠLong": 7843,
      "claim": 7844,
      "Ġmeeting": 7845,
      "ĠImage": 7846,
      "AX": 7847,
      "Ġcollabor": 7848,
      "ben": 7849,
      "mathop": 7850,
      "Ġeight": 7851,
      "Ġsummary": 7852,
      "Ġreached": 7853,
      "ymfony": 7854,
      "Ġelection": 7855,
      "bas": 7856,
      "Ġphysics": 7857,
      "apped": 7858,
      "ago": 7859,
      "going": 7860,
      "simple": 7861,
      "ette": 7862,
      "Ġpreserv": 7863,
      "agr": 7864,
      "bu": 7865,
      "Ġawait": 7866,
      "ĠINTO": 7867,
      "pository": 7868,
      "ĠInitial": 7869,
      "Rad": 7870,
      "ONE": 7871,
      "ĠBel": 7872,
      "sive": 7873,
      "ĠHand": 7874,
      "}[\\": 7875,
      "ndef": 7876,
      "Ġneural": 7877,
      "Sync": 7878,
      "LINE": 7879,
      "Ġsampling": 7880,
      "ville": 7881,
      "Abstract": 7882,
      "SY": 7883,
      "Ġparam": 7884,
      "Ġrepresentations": 7885,
      "ĠChe": 7886,
      "Ġhappen": 7887,
      "prefix": 7888,
      "ĠFlor": 7889,
      "Ġcosts": 7890,
      "Ġroute": 7891,
      "Ġ\\(\\": 7892,
      "storage": 7893,
      "NOT": 7894,
      "Ġacceler": 7895,
      ")\"": 7896,
      "Ġbrought": 7897,
      "Ġvan": 7898,
      "cluded": 7899,
      "Ġresponsible": 7900,
      "lf": 7901,
      "Ġasync": 7902,
      "','": 7903,
      "ById": 7904,
      "ifiers": 7905,
      "protocol": 7906,
      "Ġemail": 7907,
      "Ã¤": 7908,
      "ï¼": 7909,
      "Ġwest": 7910,
      "Files": 7911,
      "Ġfriends": 7912,
      "Ġinverse": 7913,
      "IPT": 7914,
      "Ġpars": 7915,
      "Ġspent": 7916,
      "ĠDiv": 7917,
      "BE": 7918,
      "Cap": 7919,
      "Ġsynt": 7920,
      "anging": 7921,
      "bigl": 7922,
      "ĠGeorge": 7923,
      "Ret": 7924,
      "Ġsurpr": 7925,
      "Ġapplying": 7926,
      "ĠNetwork": 7927,
      "Ġtruth": 7928,
      "Ġsignature": 7929,
      "Ġintegration": 7930,
      "kw": 7931,
      "props": 7932,
      "imitive": 7933,
      ">::": 7934,
      "NA": 7935,
      "Volume": 7936,
      "ĉĠĠĠĠĠ": 7937,
      "fx": 7938,
      "Ġfavor": 7939,
      "Ġsigned": 7940,
      "ĠDes": 7941,
      "acle": 7942,
      "Ġnucle": 7943,
      "PATH": 7944,
      "ĠPlan": 7945,
      "Ġadjust": 7946,
      "eve": 7947,
      "ĠNumber": 7948,
      "Ġdebug": 7949,
      "Ġ],": 7950,
      "Ġimportance": 7951,
      "ICE": 7952,
      "Space": 7953,
      "ĠReact": 7954,
      "aily": 7955,
      "Ġ×": 7956,
      "Ġfinding": 7957,
      "junit": 7958,
      "\\;": 7959,
      "fd": 7960,
      "periment": 7961,
      "sey": 7962,
      "gies": 7963,
      "zone": 7964,
      "Ġgeneric": 7965,
      "[-": 7966,
      "serial": 7967,
      "1995": 7968,
      "Ġbank": 7969,
      "Ġrapid": 7970,
      "Ġded": 7971,
      "chor": 7972,
      "ski": 7973,
      "Ġtools": 7974,
      "Ġminutes": 7975,
      "Ġjoin": 7976,
      "Headers": 7977,
      "ĠVALUES": 7978,
      "sel": 7979,
      "integ": 7980,
      ";/": 7981,
      "Ġclub": 7982,
      "Ġpoor": 7983,
      ")})": 7984,
      "Props": 7985,
      "icket": 7986,
      "bp": 7987,
      "bmatrix": 7988,
      "itar": 7989,
      "Ġsurvey": 7990,
      "ĠIsrael": 7991,
      "Ġdeliver": 7992,
      "nil": 7993,
      "tiny": 7994,
      "Ġfilms": 7995,
      "configuration": 7996,
      "ITE": 7997,
      "Ġ\\]": 7998,
      "Region": 7999,
      "echo": 8000,
      "ĠChristian": 8001,
      "Ġobjective": 8002,
      "Ġconven": 8003,
      "Common": 8004,
      "home": 8005,
      ")--": 8006,
      "git": 8007,
      "Collections": 8008,
      "Ġsafe": 8009,
      "She": 8010,
      "ston": 8011,
      "Ġwife": 8012,
      "isted": 8013,
      "Ġcommunities": 8014,
      "Ġunion": 8015,
      "ackson": 8016,
      "ĠUnder": 8017,
      "/(": 8018,
      "OUT": 8019,
      "bigr": 8020,
      "Ġoptional": 8021,
      "Ġefforts": 8022,
      "Ġâ": 8023,
      "andra": 8024,
      "Ġmaxim": 8025,
      "Ġindeed": 8026,
      "avel": 8027,
      "etween": 8028,
      "oles": 8029,
      "Ġcomposition": 8030,
      "Ġ\",": 8031,
      "care": 8032,
      "Ġroad": 8033,
      "Ġpicture": 8034,
      "dp": 8035,
      "kes": 8036,
      "Prefix": 8037,
      "generated": 8038,
      "ffic": 8039,
      "ĠSuper": 8040,
      "Ġcelebr": 8041,
      "Ġjournal": 8042,
      "ellig": 8043,
      "ACT": 8044,
      "ĠView": 8045,
      "ĠGovernment": 8046,
      "NT": 8047,
      "Dest": 8048,
      "TEXT": 8049,
      "SCR": 8050,
      "ĠHistory": 8051,
      "utf": 8052,
      "mi": 8053,
      "Ġsufficiently": 8054,
      "relation": 8055,
      "Ġ^{": 8056,
      "columnwidth": 8057,
      "CRE": 8058,
      "LECT": 8059,
      "CM": 8060,
      "apers": 8061,
      "logger": 8062,
      "prev": 8063,
      "iate": 8064,
      "Ġserious": 8065,
      "Ġdevices": 8066,
      "tor": 8067,
      "Ġbundle": 8068,
      "Ġepis": 8069,
      "Ġrace": 8070,
      "Ġvalidation": 8071,
      "Ġlatest": 8072,
      "Seg": 8073,
      "gin": 8074,
      "ald": 8075,
      "jected": 8076,
      "isely": 8077,
      "cuss": 8078,
      "Ġconstructor": 8079,
      "ĠĠĠĠĠĠĠĠĠĠĠĠĠĠĠĠĠĠĠĠĠĠĠĠĠĠĠĠĠĠĠĠĠĠĠĠĠĠĠĠĠĠĠ": 8080,
      "complete": 8081,
      "ULE": 8082,
      "Ġboost": 8083,
      "filename": 8084,
      "ifdef": 8085,
      "}}.": 8086,
      "%%%%": 8087,
      "ĠIR": 8088,
      "vart": 8089,
      "Ġpartners": 8090,
      "Single": 8091,
      "plicity": 8092,
      "Ġenjoy": 8093,
      "Ġisol": 8094,
      "Ġirre": 8095,
      "Variable": 8096,
      "ancing": 8097,
      "raz": 8098,
      "ims": 8099,
      "Expr": 8100,
      "Ġpi": 8101,
      "Ġwid": 8102,
      "ĠProf": 8103,
      "=.": 8104,
      "chart": 8105,
      "Ġbias": 8106,
      "depth": 8107,
      "Ġrows": 8108,
      "relations": 8109,
      "pective": 8110,
      "kin": 8111,
      "jquery": 8112,
      "here": 8113,
      "Ġhous": 8114,
      "Ġenum": 8115,
      "rift": 8116,
      "ĠInteger": 8117,
      "ĠFrance": 8118,
      "ĠDel": 8119,
      "Ġ[],": 8120,
      "ĠDet": 8121,
      "âĢĿ.": 8122,
      "Ġgir": 8123,
      "Ġowner": 8124,
      "Ġmill": 8125,
      "Registry": 8126,
      "Ã¼": 8127,
      "assets": 8128,
      "Ġassumptions": 8129,
      "platform": 8130,
      "outhern": 8131,
      "hips": 8132,
      "Ġhum": 8133,
      "Ġstories": 8134,
      "Ġdistingu": 8135,
      "Ġens": 8136,
      "Ġion": 8137,
      "ĠCopyright": 8138,
      "done": 8139,
      "ĠFin": 8140,
      "Ġexplained": 8141,
      "Ġequilibrium": 8142,
      "coq": 8143,
      "ughter": 8144,
      "Ġstability": 8145,
      "Ġflags": 8146,
      "Character": 8147,
      "TIME": 8148,
      "))\\": 8149,
      "Ġmetrics": 8150,
      "Duration": 8151,
      "}_{-": 8152,
      "Ġentropy": 8153,
      "Ġembedding": 8154,
      "ĠHall": 8155,
      "Ġnorth": 8156,
      "symbol": 8157,
      "ĠMart": 8158,
      "othing": 8159,
      "Ġready": 8160,
      "decl": 8161,
      "USE": 8162,
      "Ġclick": 8163,
      "protected": 8164,
      "iteral": 8165,
      "Ġsizeof": 8166,
      "multirow": 8167,
      "ĠLie": 8168,
      "Ð¼": 8169,
      "km": 8170,
      "outer": 8171,
      "ĠArg": 8172,
      "fully": 8173,
      "owers": 8174,
      "Orig": 8175,
      "Ġappend": 8176,
      "lev": 8177,
      "Ġcomments": 8178,
      ",\\,\\": 8179,
      "structions": 8180,
      "Ġseven": 8181,
      "Ġ).": 8182,
      "Ġsemi": 8183,
      "algebra": 8184,
      "gb": 8185,
      "Syntax": 8186,
      "ulator": 8187,
      "stro": 8188,
      "Ġencou": 8189,
      "entials": 8190,
      "Ġcm": 8191,
      "undred": 8192,
      "ona": 8193,
      "unct": 8194,
      "ogram": 8195,
      "Route": 8196,
      "ĠDi": 8197,
      "prob": 8198,
      "longrightarrow": 8199,
      "ĠSum": 8200,
      "cret": 8201,
      "ĠWil": 8202,
      "Sequ": 8203,
      "ĠProperty": 8204,
      "ĠWilliam": 8205,
      "elines": 8206,
      "Ġcapture": 8207,
      "Simple": 8208,
      "ĠAppendix": 8209,
      "Ġprim": 8210,
      "=\"${": 8211,
      "phas": 8212,
      "Success": 8213,
      "{%": 8214,
      "})}": 8215,
      "$_{": 8216,
      "ĠJer": 8217,
      "Ġreports": 8218,
      "yr": 8219,
      "construction": 8220,
      "Sch": 8221,
      "Ġpublish": 8222,
      "heta": 8223,
      "istence": 8224,
      "ĠLeague": 8225,
      "ĠSecond": 8226,
      "Author": 8227,
      "andemic": 8228,
      "Stats": 8229,
      "Trace": 8230,
      "Ġquickly": 8231,
      "URI": 8232,
      "Proof": 8233,
      "Ġautomatically": 8234,
      "ups": 8235,
      "ĠFranc": 8236,
      "\\|\\": 8237,
      "Ġdir": 8238,
      "rase": 8239,
      "headers": 8240,
      "Ġclimate": 8241,
      "Ġinputs": 8242,
      "va": 8243,
      "Ġgravit": 8244,
      "=\"\"": 8245,
      "apes": 8246,
      "Ġusual": 8247,
      "ĠRetri": 8248,
      "Ġsaying": 8249,
      "------------": 8250,
      "progress": 8251,
      "Comment": 8252,
      "ĠMost": 8253,
      "Uri": 8254,
      "ses": 8255,
      "WN": 8256,
      "SF": 8257,
      "ĠBig": 8258,
      "WR": 8259,
      "TA": 8260,
      "ivation": 8261,
      "lower": 8262,
      "ĠAng": 8263,
      "general": 8264,
      "ĠFlorida": 8265,
      "ĠStart": 8266,
      "Ġpredicted": 8267,
      "riority": 8268,
      "Dist": 8269,
      "Ġconj": 8270,
      "sych": 8271,
      "ĠAny": 8272,
      ")->": 8273,
      "ani": 8274,
      "Ġremark": 8275,
      "formance": 8276,
      "ĠMichael": 8277,
      "Ġappoint": 8278,
      "ĠSecret": 8279,
      "Ġstatistics": 8280,
      "Ġmetadata": 8281,
      "1994": 8282,
      "edy": 8283,
      "Lemma": 8284,
      "IVE": 8285,
      "Ġxmlns": 8286,
      "Ġcovari": 8287,
      "Ġapplicable": 8288,
      "Mapping": 8289,
      "Ġnamely": 8290,
      "'));": 8291,
      "Ġsoft": 8292,
      "Ġlearned": 8293,
      "ignment": 8294,
      "Ġweeks": 8295,
      "Ñĭ": 8296,
      "Ġpolicies": 8297,
      ":@": 8298,
      "svg": 8299,
      "Ġpiece": 8300,
      "external": 8301,
      "ĠRoy": 8302,
      "Ġattract": 8303,
      "Browser": 8304,
      "ĠHash": 8305,
      "room": 8306,
      "Ġmaterials": 8307,
      "Ġlocally": 8308,
      "Ġdecided": 8309,
      "ĠCommittee": 8310,
      "Ġcarried": 8311,
      "Ġferm": 8312,
      "Ġlaws": 8313,
      "front": 8314,
      "sumer": 8315,
      "bad": 8316,
      "functions": 8317,
      "Ġeventually": 8318,
      "ĠIndeed": 8319,
      "Ġchart": 8320,
      "wt": 8321,
      "onym": 8322,
      "Ġaggreg": 8323,
      "ih": 8324,
      "Ġindices": 8325,
      "ÑĮ": 8326,
      "orest": 8327,
      "Ġcreation": 8328,
      "Product": 8329,
      "ĠSM": 8330,
      "ĠĠĠĠĠĠĠĠĠĠĠĠĠĠĠĠĠĠĠĠĠĠĠĠĠĠĠĠ": 8331,
      "Ġduration": 8332,
      "Ġmaximal": 8333,
      "ĠMary": 8334,
      "}}}\\": 8335,
      "hide": 8336,
      "ĠCongress": 8337,
      "Ġplans": 8338,
      "Identifier": 8339,
      "ĠMus": 8340,
      "Ġcitiz": 8341,
      "Ġplaces": 8342,
      "Ġhydro": 8343,
      "volume": 8344,
      "tensor": 8345,
      "argument": 8346,
      "ĠTexas": 8347,
      "Ġlayout": 8348,
      "standing": 8349,
      "Ġcompos": 8350,
      "HTTP": 8351,
      "REG": 8352,
      "Engine": 8353,
      "RES": 8354,
      "JS": 8355,
      "ĠPath": 8356,
      "Ġbrowser": 8357,
      "parser": 8358,
      "Ġstatistical": 8359,
      "extern": 8360,
      "Selection": 8361,
      "ĠLL": 8362,
      "Ġsizes": 8363,
      "Ġsqu": 8364,
      "required": 8365,
      "elihood": 8366,
      "ĠJava": 8367,
      "Vertex": 8368,
      "Ġconsequence": 8369,
      "Ġbtn": 8370,
      "ĠOffice": 8371,
      "ĠVis": 8372,
      "Ġpredictions": 8373,
      "Ġplanet": 8374,
      "CG": 8375,
      "Ġrepresenting": 8376,
      "Len": 8377,
      "Ġvariation": 8378,
      "110": 8379,
      "ĠRad": 8380,
      "Ġexplan": 8381,
      "eners": 8382,
      "ĠASSERT": 8383,
      "ALSE": 8384,
      "Ġaccom": 8385,
      "'ll": 8386,
      "mathit": 8387,
      "Ġwhereas": 8388,
      "Ġcharacteristic": 8389,
      "Ġsurround": 8390,
      "slant": 8391,
      "=\"\">": 8392,
      "iance": 8393,
      "Ġserve": 8394,
      "Pay": 8395,
      "Generator": 8396,
      "IA": 8397,
      "fixed": 8398,
      "Art": 8399,
      "vol": 8400,
      "ĠChinese": 8401,
      "textcolor": 8402,
      "Ġbos": 8403,
      "rey": 8404,
      "ĠBecause": 8405,
      "Ġtrend": 8406,
      "ĠComput": 8407,
      "enable": 8408,
      "Ġlisted": 8409,
      "\\}$,": 8410,
      "ĠOnly": 8411,
      "EST": 8412,
      "Ġadvantage": 8413,
      "Ġaccurate": 8414,
      "arnings": 8415,
      "antom": 8416,
      "Ġsafety": 8417,
      "TT": 8418,
      "Ġeveryone": 8419,
      "GER": 8420,
      "ny": 8421,
      "ĠRiver": 8422,
      "Ġlicense": 8423,
      "figures": 8424,
      "Given": 8425,
      "Ġouter": 8426,
      "details": 8427,
      "Ġtrivial": 8428,
      "shadow": 8429,
      "picker": 8430,
      "slash": 8431,
      "icip": 8432,
      "${\\": 8433,
      "Ġintersection": 8434,
      "Ġsatisfied": 8435,
      "nostic": 8436,
      "Ġtechnique": 8437,
      "icks": 8438,
      "Ġdust": 8439,
      "Math": 8440,
      "Ġdriver": 8441,
      "stein": 8442,
      "itness": 8443,
      "ĠTH": 8444,
      "Ġdisease": 8445,
      "Ġprofessional": 8446,
      "})=": 8447,
      "Ġheaders": 8448,
      "Ġstress": 8449,
      "extension": 8450,
      "Ġshock": 8451,
      "Ġspeak": 8452,
      "contain": 8453,
      "Ġproxy": 8454,
      "Ġgrowing": 8455,
      "errors": 8456,
      "ko": 8457,
      "Ġsubstant": 8458,
      "Ġpropose": 8459,
      "Gen": 8460,
      "striction": 8461,
      "ĠResource": 8462,
      "ADD": 8463,
      "ifndef": 8464,
      "Ġpurch": 8465,
      "Spe": 8466,
      "ĠYear": 8467,
      "indexOf": 8468,
      "Ġleader": 8469,
      "Py": 8470,
      "Ġ\"-": 8471,
      ".\");": 8472,
      "Ġplaced": 8473,
      "Other": 8474,
      "Pop": 8475,
      "ĠTim": 8476,
      "Ġorth": 8477,
      "bd": 8478,
      "ĠAward": 8479,
      "ĠAfrican": 8480,
      "ĠSa": 8481,
      "TRUE": 8482,
      "CESS": 8483,
      "Ġpull": 8484,
      "LOCK": 8485,
      "phone": 8486,
      "|}": 8487,
      ")}_": 8488,
      "Ġcorpor": 8489,
      "trivial": 8490,
      "avail": 8491,
      "Ġaver": 8492,
      "testing": 8493,
      "Ġ{\"": 8494,
      "found": 8495,
      "anese": 8496,
      "iota": 8497,
      "History": 8498,
      "Ġsites": 8499,
      "ĠSI": 8500,
      "ita": 8501,
      "Ġlegis": 8502,
      "ĠMinister": 8503,
      "uum": 8504,
      "Scal": 8505,
      "ensus": 8506,
      "Ġthous": 8507,
      "ĠLou": 8508,
      "Ġletter": 8509,
      "ĠGiven": 8510,
      "Ġnonlinear": 8511,
      "Ġpurposes": 8512,
      "Ġpatterns": 8513,
      "Ġcontrad": 8514,
      "ĠJournal": 8515,
      "Ġvalu": 8516,
      "async": 8517,
      "Ġdiagonal": 8518,
      "Ġequality": 8519,
      "Ġregarding": 8520,
      ";\\;\\": 8521,
      "}$}": 8522,
      "Ġstored": 8523,
      "ĠMac": 8524,
      "dialog": 8525,
      "Ġtouch": 8526,
      "Ġdetermin": 8527,
      "ourier": 8528,
      "bib": 8529,
      "!\\": 8530,
      "article": 8531,
      "isting": 8532,
      "ito": 8533,
      "ĠRequest": 8534,
      "ĠLOG": 8535,
      "ĠVir": 8536,
      "]{\\": 8537,
      "amaz": 8538,
      "Shape": 8539,
      "ENSE": 8540,
      "Ġconstit": 8541,
      "llegal": 8542,
      "Ġcoinc": 8543,
      "Ġviews": 8544,
      "Import": 8545,
      "transition": 8546,
      "vature": 8547,
      "Ġpaint": 8548,
      "scriptsize": 8549,
      "ĠRegister": 8550,
      "services": 8551,
      "Ġdigital": 8552,
      "Ġcanonical": 8553,
      "ura": 8554,
      "ĠMex": 8555,
      "ĠSQL": 8556,
      "nodes": 8557,
      "Ġchallenge": 8558,
      "ifferent": 8559,
      "Ġchurch": 8560,
      "iminal": 8561,
      "Ġrecorded": 8562,
      "1980": 8563,
      "Car": 8564,
      "Ġneighborhood": 8565,
      "dash": 8566,
      "oday": 8567,
      "Ġok": 8568,
      "ti": 8569,
      "fold": 8570,
      "bras": 8571,
      "lapse": 8572,
      "mazon": 8573,
      "Ġsal": 8574,
      "Ġinfra": 8575,
      "ographic": 8576,
      "Ġflex": 8577,
      "vartheta": 8578,
      "ĠSuch": 8579,
      "ĠCa": 8580,
      "uning": 8581,
      "Ġtimeout": 8582,
      "world": 8583,
      "rout": 8584,
      "ĠWindow": 8585,
      "Details": 8586,
      "kl": 8587,
      "Ġlo": 8588,
      "Home": 8589,
      "Ġseconds": 8590,
      "Ġsouth": 8591,
      "Ġthank": 8592,
      "istant": 8593,
      "Ġinstant": 8594,
      "vals": 8595,
      "Ġsequences": 8596,
      "Ġkm": 8597,
      "ĠHTTP": 8598,
      "Sample": 8599,
      "Ġlib": 8600,
      "Ġrough": 8601,
      "Ġsuitable": 8602,
      "Ġtransl": 8603,
      "clip": 8604,
      "ĠSociety": 8605,
      "Ġconnections": 8606,
      "ĠTwo": 8607,
      "Report": 8608,
      "-(": 8609,
      "ĠAction": 8610,
      "Ġderivative": 8611,
      "Ġheat": 8612,
      "ĠGermany": 8613,
      "browser": 8614,
      "180": 8615,
      "Ġrepro": 8616,
      "<!": 8617,
      "Ġcomputing": 8618,
      "iated": 8619,
      "mf": 8620,
      "ENTRY": 8621,
      "Ġassigned": 8622,
      "Ġdiscr": 8623,
      "Ġincorpor": 8624,
      "ĠEducation": 8625,
      "ĠColor": 8626,
      "Generated": 8627,
      "Landroid": 8628,
      "EV": 8629,
      "Repository": 8630,
      "ITION": 8631,
      "ĠIss": 8632,
      "Ġbatch": 8633,
      "Ġopened": 8634,
      "ĠRobert": 8635,
      "ĠBoolean": 8636,
      "High": 8637,
      "Ġui": 8638,
      "Ġturned": 8639,
      "Ġrational": 8640,
      "Ø§": 8641,
      "usal": 8642,
      "icians": 8643,
      "Ġsupports": 8644,
      "SV": 8645,
      "=[": 8646,
      "iller": 8647,
      "Ġincome": 8648,
      "ĠMessage": 8649,
      "Progress": 8650,
      "notag": 8651,
      "Ġgrand": 8652,
      "nergy": 8653,
      "ãĢ": 8654,
      "OB": 8655,
      "Ġsuccessfully": 8656,
      "Ġsen": 8657,
      "Ġeast": 8658,
      "600": 8659,
      "Ġcyc": 8660,
      "Pub": 8661,
      "ĠIndex": 8662,
      "Ġsuggests": 8663,
      "je": 8664,
      "}\\|": 8665,
      "resize": 8666,
      "Begin": 8667,
      "Ġeth": 8668,
      "Ġreferred": 8669,
      "Ġreferences": 8670,
      "itative": 8671,
      "Ġpages": 8672,
      "Ġremember": 8673,
      "builder": 8674,
      "}}^{\\": 8675,
      "law": 8676,
      "itation": 8677,
      "+(": 8678,
      "Ġmanifold": 8679,
      "Ġvariance": 8680,
      "Ġacts": 8681,
      "rage": 8682,
      "Ġprime": 8683,
      "np": 8684,
      "Ġwasn": 8685,
      "ĠCap": 8686,
      "ĠTR": 8687,
      "pattern": 8688,
      "Ġrat": 8689,
      "ibration": 8690,
      "ĠIE": 8691,
      "Ġpassword": 8692,
      "burg": 8693,
      "Ġtranslation": 8694,
      "uest": 8695,
      "Xi": 8696,
      "Ġcategories": 8697,
      "Ġpropos": 8698,
      "Ġdescribes": 8699,
      "abeled": 8700,
      "ĉĉĉĉĉĉĉĉĉ": 8701,
      "Ġmanner": 8702,
      "Ġbits": 8703,
      "Ġideas": 8704,
      "Ġderive": 8705,
      "resentation": 8706,
      "Ġexpressions": 8707,
      "Ġexit": 8708,
      "Ġorders": 8709,
      "asy": 8710,
      "Ġprecisely": 8711,
      ">()": 8712,
      "jQuery": 8713,
      "Ġvill": 8714,
      "ucial": 8715,
      "ĠEven": 8716,
      "elease": 8717,
      "ĠAlex": 8718,
      "1993": 8719,
      "ĠDuring": 8720,
      "à¤": 8721,
      "GP": 8722,
      "Ġstarts": 8723,
      "Ġasymptotic": 8724,
      "Two": 8725,
      "temp": 8726,
      "grade": 8727,
      "tail": 8728,
      ";}": 8729,
      "^{*": 8730,
      "ymmetry": 8731,
      "Ġalone": 8732,
      "shall": 8733,
      "ensities": 8734,
      "Admin": 8735,
      "ĠRob": 8736,
      "sym": 8737,
      "gebras": 8738,
      "SCRIPT": 8739,
      "ĠNAME": 8740,
      "tags": 8741,
      "Ax": 8742,
      "Some": 8743,
      "flat": 8744,
      "&=\\": 8745,
      "Delegate": 8746,
      "ĠDirector": 8747,
      "ĠDistrict": 8748,
      "expand": 8749,
      "ĠÐ¿": 8750,
      "Ġchanging": 8751,
      "Ġordered": 8752,
      "seq": 8753,
      "urt": 8754,
      "Ġ$,": 8755,
      "rained": 8756,
      "Ġresolve": 8757,
      "uages": 8758,
      "Hence": 8759,
      "role": 8760,
      "ĠassertThat": 8761,
      "ĠMedia": 8762,
      "Ġjoined": 8763,
      "Ġ'<": 8764,
      "FUN": 8765,
      "rical": 8766,
      "tabs": 8767,
      "plicated": 8768,
      "mmutable": 8769,
      "intro": 8770,
      "quant": 8771,
      "ĠSmith": 8772,
      "lg": 8773,
      "Ġignore": 8774,
      "Ġcalling": 8775,
      "ĠHead": 8776,
      "ĠAcad": 8777,
      "riend": 8778,
      "Ġcamera": 8779,
      "ishing": 8780,
      "unique": 8781,
      "\\}\\": 8782,
      "})^": 8783,
      "}|\\": 8784,
      "provider": 8785,
      "iant": 8786,
      "Ġchallenges": 8787,
      "Ġcandidates": 8788,
      "Ġdisp": 8789,
      "Ġspecify": 8790,
      "unities": 8791,
      "Ġsynchron": 8792,
      "uty": 8793,
      "Ġchemical": 8794,
      "FN": 8795,
      "gers": 8796,
      "Ġ=========": 8797,
      "Ġcmd": 8798,
      "$/": 8799,
      "manif": 8800,
      "Ġlistener": 8801,
      "ĠSD": 8802,
      "Ġbulk": 8803,
      "ĠMicrosoft": 8804,
      "ultane": 8805,
      "Ġ\"<": 8806,
      "undefined": 8807,
      "ĠSur": 8808,
      "250": 8809,
      "ĠChild": 8810,
      "Ġcommerc": 8811,
      "Ġparser": 8812,
      "001": 8813,
      "ading": 8814,
      "ĠProv": 8815,
      "Ġbeaut": 8816,
      "Ġremote": 8817,
      "feature": 8818,
      "Ġcy": 8819,
      "Services": 8820,
      "slice": 8821,
      "power": 8822,
      "Ġversions": 8823,
      "Ġsolar": 8824,
      "Ġappeared": 8825,
      "ĠWAR": 8826,
      "las": 8827,
      "Ġprecision": 8828,
      "eds": 8829,
      "][]{": 8830,
      "iveness": 8831,
      "Ġpossibility": 8832,
      "Ġtx": 8833,
      "=\"@": 8834,
      "trim": 8835,
      "cing": 8836,
      "DateTime": 8837,
      "acebook": 8838,
      "Ġmanufact": 8839,
      "library": 8840,
      "FFFF": 8841,
      "mn": 8842,
      "imits": 8843,
      "âĢĿ,": 8844,
      "Ġhundred": 8845,
      "Ġsubt": 8846,
      "bc": 8847,
      "icted": 8848,
      "Ġlogger": 8849,
      "REQ": 8850,
      "Ġinvestigate": 8851,
      "Depend": 8852,
      "1992": 8853,
      "Ġpandemic": 8854,
      "ĠHttp": 8855,
      "Ġdire": 8856,
      "Ġeconomy": 8857,
      "Tx": 8858,
      "Ġdespite": 8859,
      "Ġbehaviour": 8860,
      "Ġacknow": 8861,
      "ĠCH": 8862,
      "Ġaffected": 8863,
      "Ġagents": 8864,
      "venue": 8865,
      "formal": 8866,
      "artesian": 8867,
      "('.": 8868,
      "Ġfmt": 8869,
      "Ġbuf": 8870,
      "uli": 8871,
      "Ġmom": 8872,
      "trace": 8873,
      "irty": 8874,
      "Ġhar": 8875,
      "oton": 8876,
      "stain": 8877,
      "ĠBill": 8878,
      "Ġtopic": 8879,
      "Ġradiation": 8880,
      "Ġprovider": 8881,
      "Ġagreed": 8882,
      "Ġquark": 8883,
      "cline": 8884,
      "extend": 8885,
      "åı": 8886,
      "mk": 8887,
      "subsec": 8888,
      "agrang": 8889,
      "Ġcool": 8890,
      "ĠEarth": 8891,
      "azz": 8892,
      "tc": 8893,
      "FLA": 8894,
      "Ġspac": 8895,
      "Ġstatements": 8896,
      "detail": 8897,
      "Ġiteration": 8898,
      "ducible": 8899,
      "sequent": 8900,
      "ĠTimes": 8901,
      "Ġmostly": 8902,
      "herent": 8903,
      "ĠBlock": 8904,
      "Ġtopological": 8905,
      "Consider": 8906,
      "Upd": 8907,
      "FE": 8908,
      "ĠThomas": 8909,
      "ĠValid": 8910,
      "Ġscroll": 8911,
      "constant": 8912,
      "bor": 8913,
      "Limit": 8914,
      "Role": 8915,
      "Ġtend": 8916,
      "Ġopin": 8917,
      "tan": 8918,
      "Ġdx": 8919,
      "Ġstock": 8920,
      "Ġoffers": 8921,
      "arios": 8922,
      "GN": 8923,
      "VALUE": 8924,
      "Background": 8925,
      "pton": 8926,
      "Ġbenefit": 8927,
      "resources": 8928,
      "Framework": 8929,
      "Ġmonitor": 8930,
      "Ġ}{": 8931,
      "Ġforeach": 8932,
      "Ġselector": 8933,
      "execute": 8934,
      "square": 8935,
      "}~": 8936,
      "Ġprev": 8937,
      "actic": 8938,
      "Ġemphas": 8939,
      "medskip": 8940,
      "Tags": 8941,
      "scape": 8942,
      "awa": 8943,
      "fc": 8944,
      "oted": 8945,
      "tex": 8946,
      "Ġreset": 8947,
      "Ġtoward": 8948,
      "jango": 8949,
      "ĠGold": 8950,
      "href": 8951,
      "}{*": 8952,
      "Ġfactory": 8953,
      "Ġbalance": 8954,
      "negative": 8955,
      "ĠLife": 8956,
      "Ġnormalized": 8957,
      "Ġenergies": 8958,
      "invalid": 8959,
      "Ġinfer": 8960,
      "Ġfocused": 8961,
      "original": 8962,
      "Ġelli": 8963,
      "Endpoint": 8964,
      "wrapper": 8965,
      "aming": 8966,
      "ĠGen": 8967,
      "Ġ\\&": 8968,
      "Ġclaims": 8969,
      "dele": 8970,
      "ipped": 8971,
      "itionally": 8972,
      "ĠStat": 8973,
      "Ġimproved": 8974,
      "Ġhappens": 8975,
      "hl": 8976,
      "horizontal": 8977,
      "Ġaware": 8978,
      "ĠStep": 8979,
      "UD": 8980,
      "prec": 8981,
      "...,": 8982,
      "timeout": 8983,
      "plane": 8984,
      "Ġfirm": 8985,
      "Ġplugin": 8986,
      "Ġdirected": 8987,
      "zure": 8988,
      "Ġnecessarily": 8989,
      "Password": 8990,
      "125": 8991,
      "Ġmarked": 8992,
      "Ġphoton": 8993,
      "ĠLine": 8994,
      "rich": 8995,
      "Ġdefines": 8996,
      "ĠZe": 8997,
      "Bind": 8998,
      "pair": 8999,
      "Ġtail": 9000,
      "some": 9001,
      "possible": 9002,
      "ĠDir": 9003,
      "etal": 9004,
      "Ġadopted": 9005,
      "Ġsch": 9006,
      "Ġparties": 9007,
      "house": 9008,
      "ĠMa": 9009,
      "Ġshell": 9010,
      "Ġdashed": 9011,
      "ffff": 9012,
      "SK": 9013,
      "Ġfluid": 9014,
      "enabled": 9015,
      "lands": 9016,
      "Gu": 9017,
      "Total": 9018,
      "Ġgeneralized": 9019,
      "Ð²": 9020,
      "onald": 9021,
      "FORM": 9022,
      "RT": 9023,
      "Ġkilled": 9024,
      "tk": 9025,
      "^*\\": 9026,
      "Ġacad": 9027,
      "ĠTom": 9028,
      "^{(\\": 9029,
      "urable": 9030,
      "shared": 9031,
      "Ġ];": 9032,
      "avelength": 9033,
      "Ġ[\"": 9034,
      "tableblock": 9035,
      "Visible": 9036,
      ":=\\": 9037,
      "jar": 9038,
      "govern": 9039,
      "Ign": 9040,
      "Ġtheories": 9041,
      "acob": 9042,
      "Ġisomorphism": 9043,
      "ĠLat": 9044,
      "Ġmodules": 9045,
      "hd": 9046,
      "organ": 9047,
      "ctr": 9048,
      "ĠGal": 9049,
      "ĠAnn": 9050,
      "Category": 9051,
      "Ð´": 9052,
      "ĠInput": 9053,
      "ĠUI": 9054,
      "Ġ([": 9055,
      "Clear": 9056,
      "Ġil": 9057,
      "changed": 9058,
      "Ġ({\\": 9059,
      "ĠEU": 9060,
      "Ġdetector": 9061,
      "=>": 9062,
      "American": 9063,
      "Ġdiver": 9064,
      "scriptstyle": 9065,
      "DEFAULT": 9066,
      "Ġvote": 9067,
      "Ġlocations": 9068,
      "amazon": 9069,
      "fol": 9070,
      "Ġapproximate": 9071,
      "ilbert": 9072,
      "ĠSam": 9073,
      "emon": 9074,
      "Ġusage": 9075,
      "Ã¶": 9076,
      "ĠMiss": 9077,
      "Ġtrial": 9078,
      "Ġpretty": 9079,
      "Ġquasi": 9080,
      "lik": 9081,
      "ĠDO": 9082,
      "ĠAssembly": 9083,
      ".\",": 9084,
      "Ġapparent": 9085,
      "ĠBoth": 9086,
      "collection": 9087,
      "Ġallowing": 9088,
      "iii": 9089,
      "Ġpowerful": 9090,
      "Ġcircum": 9091,
      "gather": 9092,
      "Ġtransparent": 9093,
      "They": 9094,
      "Ġconvers": 9095,
      "{\"": 9096,
      "Ġcharged": 9097,
      "COMP": 9098,
      "ĠTop": 9099,
      "Ġteams": 9100,
      "have": 9101,
      "Ġrelax": 9102,
      "Ġmainly": 9103,
      "Suppose": 9104,
      "ĠGlobal": 9105,
      "Flow": 9106,
      "och": 9107,
      "ancer": 9108,
      "report": 9109,
      "Ġmission": 9110,
      "Ġelectro": 9111,
      "Ġplays": 9112,
      "Selected": 9113,
      "aste": 9114,
      "ĠShow": 9115,
      "Ġcollege": 9116,
      "Ġconfirm": 9117,
      "HC": 9118,
      "ĠMer": 9119,
      "Ġtmp": 9120,
      "Resources": 9121,
      "Ġexecute": 9122,
      "Ġtemp": 9123,
      "checked": 9124,
      "achment": 9125,
      "Ġattacks": 9126,
      "}}=": 9127,
      "ĠMusic": 9128,
      "triangle": 9129,
      "ÐµÐ½": 9130,
      "Ġdeleg": 9131,
      "nostics": 9132,
      "PUT": 9133,
      "Ġbenefits": 9134,
      "Ġrecommend": 9135,
      "1970": 9136,
      "ĠLi": 9137,
      "Ġdisabled": 9138,
      "Agent": 9139,
      "setup": 9140,
      "Dictionary": 9141,
      "Ġtechnical": 9142,
      "ierarchy": 9143,
      "rank": 9144,
      "stone": 9145,
      "101": 9146,
      "Ġdynamical": 9147,
      "Pa": 9148,
      "clean": 9149,
      "Ġagree": 9150,
      "Ġenv": 9151,
      "isters": 9152,
      "osure": 9153,
      "phase": 9154,
      "Ġstochastic": 9155,
      "ĠHiggs": 9156,
      "aling": 9157,
      "Ġspher": 9158,
      "ji": 9159,
      "Ġdram": 9160,
      "Ġcommut": 9161,
      "Moreover": 9162,
      "runtime": 9163,
      "ĠDen": 9164,
      "Ġgravity": 9165,
      "Ġmenu": 9166,
      "issues": 9167,
      "Ġinnov": 9168,
      "ĠAmericans": 9169,
      "Enumer": 9170,
      "pend": 9171,
      "Ġexceed": 9172,
      ";)": 9173,
      "emplates": 9174,
      "ĠSund": 9175,
      "assembly": 9176,
      "pres": 9177,
      "Public": 9178,
      "Comput": 9179,
      "Ġdict": 9180,
      "separ": 9181,
      "Ġ---": 9182,
      "Ġfelt": 9183,
      "ĠBack": 9184,
      "zh": 9185,
      "Mask": 9186,
      "!]": 9187,
      "ĠDan": 9188,
      "elect": 9189,
      "ĠĠĠĠĠĠĠĠĠĠĠĠĠĠĠĠĠĠĠĠĠĠĠĠĠĠĠĠĠĠ": 9190,
      "Ġsustain": 9191,
      "Ġglob": 9192,
      "ĠInformation": 9193,
      "ja": 9194,
      "tbody": 9195,
      "ĠProcess": 9196,
      "Ġsignals": 9197,
      "MI": 9198,
      "Ġ$\\{\\": 9199,
      "Ġevaluated": 9200,
      "NV": 9201,
      "supp": 9202,
      "Mag": 9203,
      "Ġraised": 9204,
      "ĠDat": 9205,
      "Ġtelevision": 9206,
      "Ġdocuments": 9207,
      "According": 9208,
      "Ġprison": 9209,
      "Ġmedium": 9210,
      "Ġjobs": 9211,
      "reek": 9212,
      "ĠLocal": 9213,
      "Phys": 9214,
      "icine": 9215,
      "ĠSE": 9216,
      "ĠJapan": 9217,
      ")^\\": 9218,
      "connected": 9219,
      "words": 9220,
      "basic": 9221,
      "elem": 9222,
      "ĠBank": 9223,
      "Language": 9224,
      "mouse": 9225,
      "Ġdimensional": 9226,
      "ogonal": 9227,
      "iem": 9228,
      "CB": 9229,
      "ĠArmy": 9230,
      "alty": 9231,
      "Ġ'\\": 9232,
      "typename": 9233,
      "Ġchance": 9234,
      "states": 9235,
      "ami": 9236,
      "compare": 9237,
      "Fn": 9238,
      "Ġnom": 9239,
      "ĠMake": 9240,
      "Ġinteract": 9241,
      "................": 9242,
      "Ġcoverage": 9243,
      "Ġradial": 9244,
      "Program": 9245,
      "theme": 9246,
      ".<": 9247,
      "Ġopening": 9248,
      "ĠReview": 9249,
      "Children": 9250,
      "Ġabund": 9251,
      "Errorf": 9252,
      "arity": 9253,
      "born": 9254,
      "proxy": 9255,
      "Ġregistered": 9256,
      "ĠDevelopment": 9257,
      "inations": 9258,
      "Ġpixel": 9259,
      "Ġhor": 9260,
      "ĠFil": 9261,
      "observ": 9262,
      "()))": 9263,
      "ationToken": 9264,
      "bg": 9265,
      "zen": 9266,
      "mathtt": 9267,
      "atomic": 9268,
      "Ġquantity": 9269,
      "Ġequivalence": 9270,
      "estival": 9271,
      "ropic": 9272,
      "poch": 9273,
      "¿½": 9274,
      "ĠSecurity": 9275,
      "Ġgenerator": 9276,
      "ĠOp": 9277,
      "Ġlic": 9278,
      "ivery": 9279,
      "allery": 9280,
      "Ġcommercial": 9281,
      "Interval": 9282,
      "Ġcosm": 9283,
      "orizon": 9284,
      "agrangian": 9285,
      "gi": 9286,
      "Texture": 9287,
      "ĠBusiness": 9288,
      "Ġadm": 9289,
      "ĠANY": 9290,
      "Ġsomew": 9291,
      "batch": 9292,
      "Ġple": 9293,
      "METH": 9294,
      "Sort": 9295,
      "ĠFrancis": 9296,
      "ĠCentral": 9297,
      "Ġstrug": 9298,
      "EEEE": 9299,
      "moz": 9300,
      "Ġassuming": 9301,
      "nol": 9302,
      "Ġdependent": 9303,
      "Ġdeform": 9304,
      "aped": 9305,
      "Ġjet": 9306,
      "Ġdemonstrate": 9307,
      "Ġhypothesis": 9308,
      "ellij": 9309,
      "gba": 9310,
      "Ġfaith": 9311,
      "pull": 9312,
      "Ġvalidate": 9313,
      "ingly": 9314,
      "ĠHuman": 9315,
      "supported": 9316,
      "Ġdiss": 9317,
      "Ġmes": 9318,
      "ĠPub": 9319,
      "IGHT": 9320,
      "Summary": 9321,
      "erior": 9322,
      "icago": 9323,
      "sheet": 9324,
      "Ġfinished": 9325,
      "plementation": 9326,
      "Ġnullptr": 9327,
      "Methods": 9328,
      "ĠPen": 9329,
      "ĠSun": 9330,
      "Ġclin": 9331,
      "ĠAdmin": 9332,
      "Ġlies": 9333,
      "Native": 9334,
      "Ġreligious": 9335,
      "Ġ_,": 9336,
      "Ġsuggested": 9337,
      "appe": 9338,
      "login": 9339,
      "Ġtranslate": 9340,
      "intellij": 9341,
      "Ġconfidence": 9342,
      "\"><!--": 9343,
      "Ids": 9344,
      "Lin": 9345,
      "\\%$": 9346,
      "800": 9347,
      "enty": 9348,
      "ĠBook": 9349,
      "Ġintensity": 9350,
      "Ġturns": 9351,
      "policy": 9352,
      "Ġexplo": 9353,
      "ĠMuseum": 9354,
      "peat": 9355,
      "Ġnavigation": 9356,
      "gradient": 9357,
      "pkg": 9358,
      "Ġviolence": 9359,
      "fly": 9360,
      "Ġdense": 9361,
      "Ġspirit": 9362,
      "Ġcurvature": 9363,
      "hard": 9364,
      "Ġcancel": 9365,
      "compiler": 9366,
      "Ġcontents": 9367,
      "Normal": 9368,
      "ĠReport": 9369,
      "osh": 9370,
      "Ġrare": 9371,
      "objects": 9372,
      "Ġcovered": 9373,
      "sch": 9374,
      "elastic": 9375,
      "cli": 9376,
      "Ġdelet": 9377,
      "Ġbus": 9378,
      "selector": 9379,
      "Ã§": 9380,
      "Ġconvolution": 9381,
      "?>": 9382,
      "equations": 9383,
      "ĠTor": 9384,
      "username": 9385,
      "\\!\\": 9386,
      "magnetic": 9387,
      "dig": 9388,
      "irror": 9389,
      "('#": 9390,
      "iative": 9391,
      "pto": 9392,
      "Ġ\\,\\": 9393,
      "Short": 9394,
      "ĠCEL": 9395,
      "period": 9396,
      "Ġguid": 9397,
      "maven": 9398,
      "Ġpaid": 9399,
      ">:": 9400,
      "aylor": 9401,
      "Ġsql": 9402,
      "Operator": 9403,
      ",'": 9404,
      "Ġrepeated": 9405,
      "Pair": 9406,
      "ĠXML": 9407,
      "Ġextent": 9408,
      "ĠSocial": 9409,
      "Ġnp": 9410,
      "Ġidentical": 9411,
      "Ġprops": 9412,
      "Ġdiam": 9413,
      "Ġunderst": 9414,
      "Ġplant": 9415,
      "raise": 9416,
      "Sql": 9417,
      "ĠSal": 9418,
      "Ġ''": 9419,
      "Ġdou": 9420,
      "amer": 9421,
      "irical": 9422,
      "Cred": 9423,
      "video": 9424,
      "person": 9425,
      "Ġperhaps": 9426,
      "ajax": 9427,
      "throw": 9428,
      "ĠPoint": 9429,
      "elements": 9430,
      "ĠFROM": 9431,
      "Ġ}}": 9432,
      "TestCase": 9433,
      "adian": 9434,
      "1991": 9435,
      "flag": 9436,
      "Ġplease": 9437,
      "#{": 9438,
      "\"],": 9439,
      "ï¿½": 9440,
      "QU": 9441,
      "ĠBrown": 9442,
      "Ġnotion": 9443,
      "Ġdocumentation": 9444,
      "Fin": 9445,
      "groups": 9446,
      "ummy": 9447,
      "Ġmathemat": 9448,
      "Ġquantities": 9449,
      "constructor": 9450,
      "Ġmur": 9451,
      "eness": 9452,
      "users": 9453,
      "Ġinvestigation": 9454,
      "Ġwhom": 9455,
      "RC": 9456,
      "GO": 9457,
      "Ġinvestment": 9458,
      "Ġprincipal": 9459,
      "ĠBest": 9460,
      "CALL": 9461,
      "springframework": 9462,
      "Sequence": 9463,
      "commit": 9464,
      "Ġzone": 9465,
      "sig": 9466,
      "sync": 9467,
      "shal": 9468,
      "Ġgenerating": 9469,
      "****************************************************************": 9470,
      "ĠCath": 9471,
      "Ġofficials": 9472,
      "counter": 9473,
      "METHOD": 9474,
      "3333": 9475,
      "Ġreadonly": 9476,
      "ĠLand": 9477,
      ".\\\\": 9478,
      "Ġbands": 9479,
      "ĠArrayList": 9480,
      "optional": 9481,
      "convert": 9482,
      "herited": 9483,
      "ato": 9484,
      "Ġuniversal": 9485,
      "hfill": 9486,
      "ĠJose": 9487,
      "Ġdefinitions": 9488,
      "ILE": 9489,
      "Ġconfigure": 9490,
      "Ġhelped": 9491,
      "tons": 9492,
      "Ali": 9493,
      "helper": 9494,
      "Find": 9495,
[...]
