#version: 0.2
t h
i n
Ġ a
Ġ th
o n
e r
t i
r e
Ġth e
e n
Ġ s
a l
Ġ o
Ġ Ġ
Ġ \
o r
Ġ c
i s
t e
a n
a r
e s
Ġ w
Ġ f
Ġ $
ti on
Ġ t
Ġo f
l e
Ġ p
Ġa n
Ġ in
Ġ b
m a
in g
r o
Ġ d
e d
Ġan d
a t
i c
r a
e l
Ġt o
i g
{ \
a s
t a
i t
Ġ h
Ġ m
e c
Ġ e
o u
l a
o m
en t
Ġ re
Ġ is
ĠĠ ĠĠ
Ġ n
o l
_ {
e t
Ġ (
s i
T h
s t
c e
Ġ$ \
c h
l y
Ġf or
a m
q u
a tion
Ġ l
v e
Ġ g
o w
ma th
i l
Ġ S
u n
v er
e g
u s
i d
i th
o t
i m
Ġth at
Ġ on
u m
u r
Ġ A
en d
} \
Ġc on
Ġ C
Th e
č Ċ
te d
u l
p h
} $
Ġ &
^ {
o d
ig h
Ġw ith
Ġ Ċ
Ġa s
Ġb e
Ġw h
t er
r i
Ġ I
c i
g e
c al
u re
2 0
Ġp ro
Ġ M
â Ģ
Ġa l
c t
s e
Ġw e
er e
i f
i r
} }
a d
( \
Ġ v
igh t
u t
Ġb y
p p
Ġ ma
ra c
Ġe x
re f
Ġ F
eg in
Ġ P
Ġ B
Ġa re
it y
b egin
in e
t s
an d
o re
_ {\
) $
Ġc om
Ġ H
d e
Ġ The
Ġs t
p er
b le
Ġd e
Ġ L
f t
Ġ R
re s
} {
ro m
Ġa t
Ġ W
u b
o s
Ġ it
Ġ D
er s
f rac
c tion
Ġ T
Ġ =
m b
ĠĠĠĠ ĠĠĠĠ
ci te
ti c
ti m
e qu
te x
ĠĠ Ġ
e q
, \
r ight
p a
e ta
Ġf rom
Ġs h
Ġ N
Ġ E
} )
m ent
Ġo r
Ġ G
d er
is t
o p
la b
r an
a te
a y
Ġ us
d i
math b
es s
Ġth is
ou n
r m
ic h
lab el
l u
c k
} ,
u p
e m
$ ,
a ve
i z
f or
th er
e w
Ġc h
i v
1 9
$ .
Ġs u
tion s
Ġc an
p l
le ft
ig n
Ġ -
equ ation
math cal
Ġ y
Ġ un
tex t
Ġw as
si on
il l
o g
ec t
l d
} .
te m
en ce
al l
d u
t o
d s
Ġre s
Ġ Th
Ġp ar
p le
an t
el l
d a
} (
ti ve
p ar
ĠI n
f f
1 0
Ġ le
Ġh ave
} ^
k e
a b
~ \
y s
Ġwh ich
r u
ou r
Ġm e
f ig
ti al
} _
a p
Ġ O
Ġs e
l ow
i es
ec tion
in t
c c
âĢ Ļ
s o
ph a
ar y
f er
al pha
a ch
en er
m u
Ġm od
Ġ J
ic al
Ġn ot
) \
i on
l ine
20 1
Ġs p
as e
p si
on g
ti l
s um
0 0
Ġs ta
Ġa pp
v el
$ \
es t
b er
p ro
a re
id e
el ta
Ġ k
Ġ U
Ġ +
am ma
or k
e ar
Ġo b
ar i
en s
d ing
Ġ K
ou s
Ġp o
an g
Ġh as
mathb b
_ \
eg a
o ver
Ġal l
om e
g h
) ,
} _{
c lu
Ġ\ \
v i
= \
r ic
} ^{
am e
er m
d ot
) .
Ġc l
ig ma
Ġa b
an ce
ta in
h o
Ġ r
tim es
ro w
- \
h i
a k
a g
u e
ar d
ph i
c es
I n
Ġ âĢ
Ġ qu
' s
te s
Ġon e
Ġ ra
w o
s ub
Ġ im
p i
a ted
^ {\
or t
ou ld
ri b
Ġcom p
Ġd is
as t
la mb
al ly
Ġa d
lamb da
re e
re d
o st
Ġ V
e x
Ġf un
Ġin ter
Ġp er
a c
o f
ation s
Ġn o
ul ar
Ġh e
Ġal so
th e
Ġcon t
u tion
et w
Ġ {\
or s
Ġmod el
b f
h at
Ġsh ow
l o
tim e
mathb f
ou t
pa ce
l on
ent s
ra ph
Ġw ill
s s
Ġd o
Ġf i
Ġ i
oun d
Ġt wo
f in
Ġl o
ol low
p t
er v
Ġd if
20 0
Ġe v
Ġ en
u st
Ġ j
r y
psi lon
o se
. .
Ġs et
s igma
ra y
as s
le d
ĠW e
ti es
} {\
ta tion
s ection
p s
ir st
^{ -
Ġ( \
al ign
Ġp a
Ġf ollow
is h
c on
Ġ if
Ġs o
c ent
Ġo ur
or y
Ġd i
Ġex p
til de
ul t
b eta
um ber
math rm
Ġf a
a ble
Ġ te
Ġfun ction
Ġth ere
ar k
Ġs im
Ġf in
x i
for m
l i
Ġa r
Ġsu ch
Ġe qu
* }
la tion
Ġo ut
g amma
Ġb ut
+ \
Ġre p
Ġd at
th eta
Ġm ore
un d
la y
ĉ ĉ
Ġc or
Ġwh ere
Ġthe ir
Ġ time
id th
Ġn e
o k
Ġs ub
r ho
Ġo ver
Ġv al
c ed
Ġg ener
Ġit s
1 2
] {
ic s
i a
re n
\ \
Ġdif fer
c om
o th
i te
at ure
on d
Ġ ro
^ \
Ġ ver
Ġd ist
) }
ti t
$ -
u d
ran s
le q
ti cal
n e
Ġp h
d elta
Ġc o
fig ure
a pp
Ġon ly
ta u
b ar
l es
W e
a v
Ġs ome
Ġd es
Ġf irst
Ġ [
c dot
Ġo ther
ys tem
i al
}$ ,
e en
Ġw ere
l l
or m
Ġ {
ar ray
}$ .
| \
a ge
Ġthe n
Ġth an
w h
Ġp re
i an
} (\
eq ref
on e
ow n
a ck
Ġre g
w idth
ĠTh is
b ig
o x
ra m
Ġa cc
ma tion
y p
Ġe ach
Ġan y
Ġ "
Ġh is
etw een
ĠĠĠĠĠĠĠĠ ĠĠĠĠĠĠĠĠ
Ġs ol
n u
Ġm an
ĠC h
Ġg iv
n o
Ġy ou
t ing
Ġ up
Ġt ra
c ap
il ity
Ġs a
p o
Ġ Y
Ġw ork
Ġcon st
a us
n i
p ec
Ġb etween
par tial
y n
el d
ft y
ĠĠĠĠ ĠĠĠ
Ġl i
Ġthe y
Ġbe en
i tem
ic e
in fty
Ġa g
Ġwh en
ta b
Ġ x
t ri
1 8
Ġp res
u gh
as ed
Ġdat a
om ega
in ce
Ġthe se
Ġh igh
âĢ Ŀ
Ġfor m
di tion
Ġc ol
s et
ment s
v es
Ġs ystem
s c
ar row
t en
e p
si tion
Ġin to
Ġd ec
Ġe le
o ve
Ġ es
clu d
ti s
Ġo p
a in
ar g
c re
Ġ |
at ing
y m
l ic
Ġp l
in d
Ġc ase
p end
is e
si der
it s
at or
am et
f ore
ol og
eq n
1 1
u al
Ġt rans
Ġb ec
m all
ul ts
iz e
Ġapp ro
qu ad
D elta
s ec
o c
Ġv ari
p on
od e
ĠI t
u es
Ġus e
Ġe ff
Ġn on
g y
i le
n ing
Ġun der
g es
v ar
r im
ro up
ĠF or
1 5
o v
ore m
Ġn ew
f ter
e ver
r on
- -
Ġn umber
Ġus ed
} }\
en tial
s erv
s pace
ol ds
or d
am ple
Ġus ing
si m
i e
m in
\ ,
Ġg o
} [
)$ .
Ġpro v
ru ct
r al
r t
c y
Ġl ine
Ġde fin
th od
Ġ }
Ġ u
k s
ow er
u la
p m
ĠA n
Ġ$ (
ter n
Ġgiv en
Ġp ol
Ġf e
Ġst ar
ul ti
c ol
t y
Ġsta te
m er
Ġs ec
Ġa c
f a
o te
ou gh
Ġab out
Ġre la
p ut
Ġdiffer ent
iz ation
e psilon
Ġk n
Ġwh o
$ $
Ġt erm
1 6
an s
Ġcon sider
i x
o b
ot s
ol d
in s
Ġc al
Ġ X
s q
ro und
g le
1 3
ic i
ar ge
Ġs ame
Ġ la
Ġma y
} _{\
ro ugh
2 2
Ġw ould
ver s
cent er
m s
Ġob tain
O m
Ġs ign
Ġcom ple
res s
wh ere
vel y
eqn array
Ġor der
iz ed
Ġc ur
v al
Ġpar amet
Ġfa ct
Ġ z
ay s
Om ega
1 4
Ġpro du
Ġres ults
as ure
Ġs c
^ *
Ġfollow ing
ĠâĢ ľ
ta ble
as es
)$ ,
w ide
f ic
Ġcom m
ĠF ig
sq rt
i p
Ġh ad
Ġw ell
h e
text bf
t t
ang le
G amma
c ess
Ġan al
tri x
Ġm ost
Ġme thod
if ic
v en
19 9
Ġo per
Ġb oth
f i
b m
te g
sub section
ver y
. ,
ĠS t
at er
in ed
Ġy ear
v are
Ġ Q
el y
ar ch
Ġpar tic
) ;
ow ever
Ġs ur
Ġ$ {\
ti vely
g or
vare psilon
raph ics
y mb
ener gy
) =
b ra
2 1
j ect
}^ {\
Ġ čĊ
Ġdis c
s h
Ġp e
^{ (
Ġsu pp
Ġex t
ymb ol
Ġse e
an n
Ġh er
ur n
on s
u ch
in clud
for mation
Ġrep res
} =
2 5
Ġa m
Ġ\ ,
eg raphics
includ egraphics
os ed
Ġ <
right arrow
Ġper form
Ġs mall
ĠH e
ate s
al ity
Ġme asure
1 7
aus e
Ġb ound
f ra
Ġcl ass
Ġe m
en sion
c ted
Ġs pace
Ġdi re
ĠP ro
Ġm in
Ġim p
Ġsp ec
Ġob serv
a i
cap tion
Ġdist rib
le m
ran gle
Ġin t
al s
ing s
Ġth rough
in es
a u
e f
en g
ĠĠĠĠ Ġ
t on
ic k
ur ing
Ġd en
Ġg roup
ĠâĢ ĵ
Ġres ult
et ric
is ts
Ġas sum
ruct ure
en ces
a x
Ġ Z
in ts
Ġex per
var phi
Ġa fter
ti ma
Ġfi eld
in ing
em ph
f ul
ĠA s
Ġt yp
ation al
ge q
n er
Ġcor res
Ġpro ble
p tion
Ġpo int
et s
j ec
3 0
F or
Ġdes c
c m
ro p
is m
il ar
am b
. ~\
im ension
Ġ energy
as h
v ec
is ion
ction s
c le
. }
u te
in k
pro of
Ġne ed
r it
ĠĠ Ċ
Ġthe m
Ġre qu
Ġp lay
o y
mb er
Ġp os
l og
ch i
Ġs te
) ^
over line
& \
Ġin clu
ti v
Ġs ing
Ġpro cess
Ġma ss
Ġw or
Ġth ree
Ġ ed
Ġe very
' '
2 3
n on
Ġi ma
ro ss
b olds
gor ith
a tive
Ġs cal
} ,\
si ble
id en
Ġre c
ra w
Ġin v
bolds ymbol
ra tion
el f
i tion
ĠA l
Ġpar t
Ġb ack
Ġst ud
ul l
oun t
etw ork
Ġin cre
op le
B ig
5 0
Ġcon s
Ġpro per
Ġval ue
l ish
u tions
h line
Ġma t
[ \
Ġwh ile
ĠC om
Th is
Ġgener al
en cy
ens ure
Ġ ran
w e
o ot
Ġl im
}) .
Ġl arge
um er
ex t
fra k
Ġin s
ĠC on
Ġn ow
Ġli ke
l and
Ġg ra
ol ution
Ġm ulti
} }$
Ġle ad
Ġc ent
u lation
Ġb el
Ġm o
Ġg et
v ed
i ties
ens ity
ro du
Ġlo cal
Ġin teg
Ġsec ond
r ing
a ke
l angle
Ġsp ect
ĠU ni
Ġin de
Ġcom pa
pl ic
ab ility
ical ly
orm al
Ġde f
c er
Ġs ch
i b
Ġab ove
p or
2 4
w ard
er o
ur al
math frak
po sition
L et
Ġc ould
Ġval ues
Ġs ince
Ġp la
Ġ end
app a
ld ots
olog y
ym m
Ġdo es
Ġfollow s
rim e
i re
Ġes tima
Ġst ructure
i ly
s k
Ġver y
ect or
a th
Ġcor re
n ess
h a
Ġ .
Ġch ar
en tation
vel op
Ġ `
o ok
Ġre al
il d
Ġshow n
r c
Ġcorres pon
er r
ur ther
L amb
de f
k ing
Ġ ,
Ġev en
g er
m e
Ġman y
Lamb da
l im
Ġcont in
ec ted
u di
Ġmodel s
or ph
cite p
z e
is sion
i ve
k appa
P hi
pl it
u g
Ġh ow
Ġ iden
Ġpro b
Ġbec ause
ac ter
d ic
Ġma g
si ve
en ted
Ġsh e
) )
Ġde pend
e e
la ck
Ġreg ion
ĠN ew
re at
so ci
um n
st ra
et erm
Ġof f
n ab
Ġfe ature
Ġf ound
âĢ ĵ
ct or
Ġl ong
Ġ right
Ġy our
b it
o times
es e
Ġdefin ed
Ġag ain
ar t
Ġeff ec
Ġwh at
tex tit
mb ox
an ge
Ġt ak
Ġn etwork
vi ous
ec h
Ġf il
m on
Ġb u
ren t
t al
st er
Ġappro ach
r ong
} )$
/ /
Ġra di
an e
Ġdesc rib
ff ici
c l
as on
in al
\ |
nab la
m an
A s
Ġproble m
\ %
c or
o ol
ta te
R e
Ġpe ople
Ġsh ould
. \
Ġsa id
gorith m
r is
Ġm on
Ġ tem
o h
Ġsim ilar
Ġle t
Ġin formation
ent ly
Ġma in
Ġdistrib ution
Ġ :
Ġ ke
p ect
yn am
Ġb ased
Ġbe ing
el s
ci al
Ġto p
se e
a ct
am pl
.. .
red ic
i j
ub lic
n g
Ġcon tain
Ġs er
non umber
Ġw ay
m od
}} {
ensure math
ys is
ĠI f
Ġs ection
Ġ ent
ma in
ĠD e
r um
ti ce
m ed
t ure
Ġpartic ular
f y
Ġv i
Ġcal c
S igma
\ [
eng th
ĠR e
Ġterm s
19 8
tic s
4 0
C on
ro l
Ġex ample
Ġpro p
Ġle ar
ot ential
vi ew
Ġprov id
Ġth ose
Ġd eterm
Ġj ust
y le
dot s
Ġst and
}) ,
Ġt ri
10 0
Ġre du
Ġs um
ĠTh ere
Ġal low
Ġcomp u
o per
mer ic
Ġdisc us
ar ds
Ġc re
Ġkn ow
ĠTh en
an y
Ġd er
Ġle vel
le t
i ed
Ġb as
Ġsa tis
b y
r in
Ġh and
Ġele ct
Ġpa per
Ġchar acter
er n
ci rc
Ġin i
Ġres pec
en e
if e
00 0
} -
le ct
Ġp ower
Ġd ue
Ġshow s
s f
n ot
w n
w ith
Ġad dition
hi p
r id
Ġfin d
g ram
ar ly
b e
et ry
til l
] $
si tive
Ġparamet ers
Ġg raph
Ġl ow
m o
qu e
l ess
an ts
center ing
u ally
} ;
/ \
Ġyear s
Ġc ar
{ -
Ġs our
Ġin st
Ġma trix
w ay
wide tilde
Ġde velop
Ġstud y
Ġobtain ed
Ġd ensity
os s
Ġd uring
m ark
E x
d raw
\ !
ĠH owever
Ġch o
Ġsol ution
res sion
Ġh ere
Ġequ ation
Ġte ch
Ġexper im
Ġf am
F ig
Ġsing le
Ġa ct
6 0
Ġp redic
at ors
Ġpo ints
h en
I t
fa ce
Ġma ke
Ġimp ort
Ġh el
d is
tab ular
re ad
Ġs erv
m m
Ġf re
2 7
s ing
Ġde te
ec k
s on
201 8
s er
Ġ` `
and om
Ġa v
p rime
Ġun i
o od
Ġsu per
ĠL et
Ġcomp on
Ġcon n
Ġte st
Ġp otential
Ġ- -
Ġm y
at ter
Ġfunction s
Ġbe fore
u th
x im
Ġm uch
2 8
Ġs equ
em ma
b ox
ĠT o
Ġor ig
iv al
\ ]
z eta
) =\
Ġcorrespon ding
20 20
Ġm ed
on al
Ġ q
Ġme an
ĠThe orem
at ch
Ġh im
Ġop tim
\ {
Ġsta tes
or n
c o
Ġst ra
Ġint rodu
Ġappro xi
A n
ĠE q
Ġma de
Ġconst ant
S T
Ġpos sible
= "
} +
Ġs ize
Ġf lu
ta tions
ic es
Ġin dic
vers ity
Ġcon dition
Ġf our
el ds
s u
al e
Ġfin ite
Ġin du
Ġwith in
Ġini tial
ge bra
Ġcontin u
Ġ err
Ġanal ysis
~ ~
Ġl arg
p r
Ġre ad
Ġ| |
Ġthe ory
201 7
4 5
Ġrespec tively
Ġd eg
ĠL e
20 19
) ^{
Ġg u
or ding
) }\
2 6
p d
3 3
} =\
ma trix
ĠS h
Ġe t
Ġl ast
Ġst rong
di v
o ther
is tic
ter s
th m
si de
Ġre le
a w
ent al
ĠO n
Ġr un
Ġp ri
Ġfi x
ĠS ch
i od
Ġ left
lo ck
ĠĠĠĠĠĠĠĠ ĠĠĠ
ur b
) (
Ġcomple x
Ġas soci
ma x
Ġre st
Ġpres ent
{ (
Ġin f
i red
c ing
di tions
u ra
om orph
Ġpro of
iv ed
Ġdes ign
Ġm ust
Ġkn own
per ature
Ġd own
Ġ >
ĠA meric
t le
Ġd imension
Ġ& =
; \
Ġparamet er
Ġt ake
Ġt ru
Ġcont rib
Ġa round
Ġre fer
Ġp op
p re
Ġcur rent
Ġph ase
Ġad d
Ġop en
Ġc oun
7 5
pend ent
Ġs till
Ġcom b
9 0
k et
tiv ity
Ġv is
Ġra te
Ġp ers
i o
Ġmin im
n ame
ĠS o
ant um
Ġline ar
n ew
Ġex ist
Ġc ou
si d
al th
ver se
d ay
Ġo cc
Ġc le
$ )
201 6
am es
s p
ĠE x
ula tions
g an
Ġa ver
Ġpre vious
Ġ( $
ex p
Ġto tal
Ġpa ir
Ġal ong
Ġh y
Ġcomm un
Ġas s
Ġtyp e
} |
ampl es
Ġ /
Ġm om
b al
Ġsign ific
}^ \
Ġinclu ding
P ro
Ġwith out
T o
cdot s
Ġs ymm
ver t
a h
ar s
Ġse ver
Ġs pa
âĢ ľ
ta ck
t ra
. ~
Ġde ta
Ġma p
ĠS ection
Ġr andom
Ġdire ct
Ġma xim
Ġv ector
col or
ab les
o ck
Ġperform ance
}_ \
a ction
3 5
in ation
Ġs en
Ġcont rol
. âĢĿ
Ġgo od
Ġb est
Ġal gorithm
lem ma
ĠA r
e ps
text width
Ġph ot
wide hat
s cal
Ġlim it
Ġst udi
ĠA d
ti g
ĠĠĠĠ ĠĠ
od es
Ġiden ti
, -
er t
th ing
} ]
Ġre f
v ing
ĠFig ure
il s
201 5
Ġlo ok
7 0
2 9
E R
Ġimport ant
Ġd ynam
Ġsystem s
an ces
se qu
am p
Ġn ear
ma te
m and
ru le
Ġl ower
Ġre t
Ġ\ {
Ġpro f
le ction
at a
}) \
p lay
I f
Ġc ir
Ġlo c
st yle
if t
al ax
Ġim pro
}\ ,
q quad
or ted
un der
Ġprodu ct
or th
Ġtem perature
i i
tical ly
Ġd id
}} (
pro p
l ight
0 5
re g
Ġcon f
^ +
b ility
math sf
Ġe as
ol l
Ġ '
Ġcon ditions
si an
i er
Ġm ark
ri pt
b ack
& =
20 22
}^{ (
Ġf urther
ou th
Ġf ram
ĠAn d
Ġhigh er
Ġran ge
201 4
m id
ith er
over n
ĠR es
Ġw rit
20 21
fi ed
ĠL emma
Ġmethod s
C h
Ġsignific ant
ion s
Ġdi ag
olog ical
ne tic
Ġcal led
it al
ou se
8 0
et y
Ġ times
A S
o id
Ġapp lic
Ġhel p
Ġapp ear
i k
Ġ$ (\
Ġsupp ort
u de
}\ \
c os
{ {\
is ed
Ġl it
Ġprob ability
Ġpo sitive
A R
P si
Ġex pl
Ġph ys
: //
Ġad v
Ġdef ine
Ġwor ld
ce pt
Ġobserv ed
o int
Ġconst ra
om en
wh ich
as ing
ot t
sion s
Ġc ases
ĠB y
Ġper iod
pd f
ru ction
Ġpro gram
t op
Ġtra ining
Ġte am
pp er
Ġqu antum
et ter
u ation
sub set
ly ing
Ġn ext
Ġima ge
um b
Ġ ide
Ġsever al
Ġ lay
Ġcon ver
an ti
I I
Ġfact or
al le
app ro
3 2
la ble
og raph
< /
Ġf ull
x space
no te
Ġc lu
Ġth us
od y
Ġz ero
a z
g g
Ġfre qu
9 9
ĠU n
Ġa uth
A T
in ess
Ġex ists
Ġstand ard
if ied
c up
Ġle ast
ula ted
as si
ĠĠĠĠĠĠĠĠĠĠĠĠĠĠĠĠ ĠĠĠĠĠĠĠĠĠĠĠĠĠĠĠĠ
Ġproper ties
Ġ el
Ġcont ra
ĠC ol
201 3
re ak
Ġl ess
Ġf ree
Ġbu il
Ġt ran
Ġch ange
si ze
e ffici
av ing
lu e
Ġn ormal
Ġdiscus s
pl oy
Ġg e
ĠS ta
Ġs ample
0 1
hi le
st and
Ġb i
ord in
tex ts
b all
m it
A l
oper ator
ha vi
i ted
B y
Ġa ction
e k
f oot
Ġprop osed
ir on
Ġequ ival
Ġsp e
d en
w ays
Ġ& \
p ort
Ġagain st
Ġ )
tion al
jec ts
ĠUni versity
Ġo wn
Ġcom par
4 8
Ġl ight
l ing
ut o
Ġre ce
se arch
s mall
Ġl ength
Ġser ies
Ġch ang
th s
Ġp ublic
cite t
s in
Ġ *
Ġev al
Ġpl an
Ġc over
ur y
Ġb and
S t
} +\
in ter
ai lable
Ġfeature s
201 2
Ġg alax
Ġinter est
om in
Ġin put
mu la
' t
C om
Ġc ross
Ġassum e
Ġf ew
op e
Ġcomple te
Ġvi ew
de fin
or der
w w
} :
Ġc a
i or
Ġab s
) :
Ġassoci ated
ure s
b ased
}} {\
Ġl oss
| ^
Ġbel ow
' $
ch ie
j or
lo bal
ir d
Ġdescrib ed
Ġc y
ĠTh ese
) ]
Ã ©
is on
k es
3 6
Ġin clud
Ġc ap
par t
o le
Ġg row
Ġfix ed
v ari
g round
in a
ĠA t
Ġaver age
Ġt as
Ġfam ily
oc us
Ġb ro
Ġprov ide
end ed
Ġf it
pl ies
h space
Ġb etter
19 7
ĠP h
n eq
) -
yp e
Ġh al
ind ent
Ġl ines
Ġs ay
Ġre cent
r and
( {\
ĠN o
Ġsequ ence
ma t
la im
Ġh ist
Ġa ff
Th ere
e v
el i
Ġeff ect
lish ed
fic ation
Ġm en
Ġdat as
Ġg re
Ġcons ist
Ġanal y
equ iv
Ġse par
u le
pp ing
d imension
cc ess
Ġth ough
Ġal gebra
the orem
) }{
Ġn ode
Ġan other
te st
Ġden ote
ĠS ince
Ġla w
Ġres pect
S S
Ġd ri
} -\
Ġlear ning
p ic
Ġs em
ĠC ar
l in
Ġconsider ed
Ġar g
Ġre ma
ta ge
Ġl ife
Ġsim ple
3 4
201 1
20 10
Ġf low
an k
et er
Ġerr or
operator name
Ġres pon
ric t
Ġp ur
in ally
Ġbe havi
Ġoper ator
ĠM e
ĠI s
scal e
ĠS u
Ġsp in
Ġequ ations
Ġsur face
Ġ- \
ul es
umer ate
Ġg ame
div id
9 5
Ġv ol
ti o
ĠThe y
n ode
st ar
Ġme ans
Ġh om
Ġdist ance
ĠM ore
w ards
Ġmom ent
I N
Ġre search
m ul
Ġex act
Ġsour ce
l er
en umerate
Ġbound ary
Ġa chie
foot note
Ġret urn
da g
ĠP ar
Ġav ailable
Ġt urn
sk ip
n t
Ġrela tions
Ġfin al
in ary
us iness
Ġscal e
Ġse en
l at
Ġf ar
3 1
item ize
Ġc ost
Ġn umer
th ough
s l
sc r
Ġm us
Ġqu es
Ġc er
Ġwe ight
6 5
Ġev ent
3 8
Ġs ide
Ġn at
re m
Ġare a
Ġl ater
ĠTh us
ĠB ut
ge ther
) }$
ĠC oun
oh n
$ }
] \
Ġpla ce
ĠâĢ Ķ
Ġg ive
O n
re t
or ld
, âĢĿ
A N
ech an
Ġpar ti
le cted
Ġe ither
w ise
or ies
im e
v iron
Ġinv ol
ves tig
ĠB e
no indent
m ost
tic es
v space
ol umn
Ġp ass
\ ,\
6 4
tern al
ore d
e b
ig en
is s
Ġv el
ec e
ri te
tit y
ĠAmeric an
Ġt rac
ut ure
p e
Ġsol utions
un e
Ġc our
ĠS ec
' ,
Ġmat ch
Ġim plies
ĠA pp
te ad
Ġm etric
ma tic
l us
Ġf ocus
dimension al
Ġc ell
Ġlarg er
end s
r ary
mul tic
Ġen c
b b
ec ess
om ial
0 4
Ġste p
Ġor gan
ĉ Ċ
n ow
Ġden o
Ġed ge
ĠE ng
Ġc ri
3 7
Ġv ia
um an
t in
ed ge
~ $
Ġb lack
o ber
Ġco effici
re am
Ġe mb
ti ves
multic olumn
Ġgiv es
g en
Ġele ment
a ma
p la
Ġele ments
divid ual
s pec
fer ences
Ġre m
5 5
Ġl og
. "
id es
Ġexp ected
Ġpo sition
Ġm et
Ġes tab
g ed
g ing
Ġo pp
Ġinde pendent
Ġ _{
math scr
Ġ\ |
ang u
Ġat t
f un
om es
200 9
appro x
Ġelect ron
b ul
a ther
si te
\ }$
big g
Ġs elf
Ġocc ur
oc ity
e ther
le y
Ġ ti
ĠC l
Ġrela ted
Ġal ways
Ġch ann
il i
ens or
arg et
um ent
}} }
I D
4 4
Ġcl assi
it ch
Ġs k
alle l
ate ly
la ted
te q
Ġdefin ition
f ill
ĠJ an
en n
Ġd iv
Ġwe ak
Ġinclu de
}} _
ĉĉ ĉĉ
mo oth
igh b
P i
d d
ĠA ll
Ġpro ve
plic it
( -
Ġsh ort
Ġc all
id ence
Ġb lock
ĠG e
en ti
Ġno te
i um
li ed
us e
w are
rac tion
0 8
Ġmag netic
Ġpa th
Ġrequ ire
n al
Ġre ach
Ġch ild
Ġl at
Ġhe ad
Ġin vestig
Ġn ame
le c
Ġvari ous
led ge
qu are
if y
a ir
Ġfi elds
Ġsch ool
0 2
al k
6 6
Ġd ay
u ted
Ġim ple
Ġthere fore
ill ion
Ġd on
3 9
Ġreg ular
pa ct
l an
Ġre lation
Ġh olds
s plit
read y
ag es
The ta
Ġm ight
u c
ega tive
O N
under line
Ġima ges
Ġcomm on
Ġg overn
Ġun it
h t
Ġeffec ts
200 8
ĠUni ted
Ġp an
is ter
fer ence
Ġset ting
0 7
Ġcou pl
ĠS he
Ġis s
m ore
em e
Ġorig inal
Ġl ist
Ġw ave
ĠE u
Ġh owever
Ġli k
pp ed
) +
Ġeffec tive
g s
g ra
ĠM ar
0 6
Ġcir c
Ġestima te
er y
Ġac ross
if orm
Ġin dividual
tic le
Ġcompa red
Ġspec ial
d es
{ $
rac y
Ġp rac
Ġfor mula
Ġexp ression
ĠC an
& &
se teq
A C
ĠM ay
^ -
âĢ ¦
Ġset s
ap e
con st
g ence
Ġtech n
N N
Ġam ong
ĠC ent
Ġth ink
line ar
Ġc are
Ġstar s
Ġthe orem
ress ed
th at
Ġdiffer ence
Ġspect rum
ĠThere fore
Ġp rim
Ġtru e
Ġeff ici
med i
Ġm echan
d o
t urb
Ġb o
Ġ ec
0 3
fin ite
Ġe ar
r ig
4 9
Re ferences
ĠS e
{ }
o ff
ĠW ith
Ġcl ose
ĠâĢ ĺ
Ġy i
ri ption
S ince
" ,
Ġco ordin
Ġma jor
Ġto gether
Ġb ook
Ġdeg ree
Ġqu anti
Ġto o
ho od
}^{ -
tation al
Ġrepres entation
Ġev olution
Ġg as
Ġmulti ple
Ġspec ific
m ulti
ri es
iv ing
il la
Ġde v
iz ing
Ġn ecess
i ble
Ġpre c
mb ers
Ġ$\ {
I C
Ġgener ated
Ġcompon ents
Ġal ready
] ,
Ġw ar
Ġpo st
ĠM an
p os
as tic
viron ment
Ġre ason
Ġsu ccess
Ġen ough
Ġcompon ent
Th en
ĠU S
Ġaddition al
jec tive
sub seteq
Ġem ploy
bul let
n ormal
s w
Ġc ate
R E
il ities
am il
Ġcon clu
text tt
p ond
Ġ$ |
Ġa ble
0 9
our s
) ,\
Ġsatis fy
text rm
f e
te in
Ġacc ording
Ġof ten
ĠĠĠĠĠĠĠĠ Ġ
ma p
or ts
Ġproper ty
) {\
S E
Ġcer tain
Ġh ard
4 7
200 6
Ġequ al
Ġf uture
Ġvel ocity
tt ps
ar ies
Ġpres ented
200 7
yn omial
Ġm ix
res h
Ġh ome
u ration
Ġun til
ter ial
6 8
min us
Ġgroup s
rin ci
ic y
Ġexper i
Ġvari ables
us h
A L
ĠT able
H e
Ġp at
Ġse ason
Ġtak en
) |
Ġs yn
um e
< \
Ġke y
f ies
Ġe arly
Ġ label
on om
Ġw in
Ġbas is
Ġ$ -
n d
Ġs it
âĢ Ķ
an ish
s tit
Ġnat ural
Ġcan not
Ġcontain s
Ġcontinu ous
Ġex ten
Ġem ission
g et
Ġ\ ;
Ġg lobal
ĠN ational
Ġne ut
Ġw ant
Ġse em
li ke
ĠO ne
ĠY ou
ĠC or
a il
} '
Ġhy per
Ġunder stand
Ġstar t
ta tive
Ġdire ction
6 7
Ġf ig
pro d
u ary
in ks
Ġimpro ve
Ġeval u
line width
ĠP a
ĠJ ohn
e le
Ġsta tis
Ġrequ ired
Ġinv ari
n orm
Ġc laim
Ġsign al
g o
V ert
t r
Ġen g
dag ger
Ġe igen
Ġtran sition
Ġ( $\
Ġrep la
ci ence
Ġwh ose
Ġre d
c ur
Ġbec ome
a cc
re es
l n
u cle
o ch
}} _{
ĠL i
op lus
Ġmat ter
Ġev ents
Ġmaxim um
ph er
Ġext ra
Ġout put
i led
Ġra tio
Ġtech ni
Ġclu ster
on t
Ġfil m
i ti
^{ -\
ĠC O
ĠW hen
Ġc ount
ĠR ep
A M
Ġne ighb
set minus
oun ds
ĠIn di
Ġflu x
} /
a ctions
Ġs w
Ġ( -
Ġm is
omorph ism
ĠP ol
or g
Ġg reat
}} ,
Ġb usiness
Ġge om
ic ro
P S
Ġt arget
si tions
Ġexp la
h y
* *
Ġcl os
Ġwh ether
m ission
au ge
Ġse arch
Ġlear n
b s
Ġdo main
ĠC o
Ġdec re
Ġin equ
Ġder iv
umb ers
Ġn am
i ous
Ġh app
p to
ide o
Ġu pper
Ġd ou
" >
Ġ$ [
Ġver sion
ĠF ran
ĠN ote
er ing
Ġ il
\ }
Ġre view
per p
Ġma terial
_ +
Ġh aving
e an
Ġfrequ ency
ĠĠ ĠĊ
u tes
Ġm ove
Ġth ird
in c
Ġs mooth
Ġw idth
Ġapp lied
ab ly
Ġro le
m entation
Ġincre ase
th ers
ew ork
ci es
p ol
fi eld
Ġle g
Ġprovid ed
es sion
ĠP re
Ġpres s
du ct
Ġmag n
iv en
re en
Ġpol ynomial
angu age
Ġcle ar
s up
Ġno ise
I S
Ġde mon
Ġequival ent
Ġobserv ations
_ *
ti re
Ġb egin
ĠR ec
D E
sc ript
ĠW orld
Ġg round
m ing
200 5
Ġf ac
_{ (
Ġcl osed
ĠSta tes
ric es
Ġuni que
Ġc aus
Ġat tack
8 5
e ff
sub figure
Ġemb ed
ĠĠĠĠĠĠĠĠ ĠĠĠĠĠĠĠ
av es
Ġa ir
ĠS p
ma g
Ġhe alth
C D
m ar
ott om
Ġgo ing
ener al
k n
Ġcho ice
l s
p ly
ect ors
Ġsmall er
ĠM in
d ed
Ġphys ical
* {
Ġcent ral
a ce
d ist
Ġinde x
t or
g roup
ĠS te
at s
Ġw on
u racy
he ad
w edge
ur ity
a f
) {
ĠO r
ut ing
iz es
are d
$ _
Ġra ther
d le
N ote
an a
Ġun cer
20 00
ĉĉ ĉ
Ġplay ers
Ġsc en
Ġdiag ram
amil ton
Ġinteg ral
Ġp ut
pa ge
m p
Ġdatas et
Ġbound ed
Ġh ear
oun g
Ġal most
op y
e y
l or
Ġar ch
Ġcent er
Ġprovid es
Ġpop ulation
our ce
Ġh ence
Ġcon fig
Ġrepres ent
Ġb en
Ġsymm etry
9 8
Ġf ore
Ġoper ators
Ġbec omes
d own
Ġsu ffici
Ġwrit ten
Ġw ater
Ġbehavi or
ne y
Ġ |\
Ġhal f
Ġca pa
r r
Ġinter action
lim its
Ġgalax ies
A P
la p
ac y
Ġl and
end ing
Ġcur ve
ul ly
Ġcomp any
Ġb reak
Ġ ~
ĠS c
or ing
ma s
Ġh uman
Ġproble ms
dis play
Ġm ov
Ġincre asing
)\ ,
Ġwork s
Ġdirect ly
Ġh or
Ġs l
Ġb ig
4 6
b o
Ġof fic
Ġfi ve
u k
Ġin c
Ġval id
Ġdeterm ined
Ġsour ces
sid ent
Ġrela tive
Ġan ti
Ġn ucle
Ġacc ount
Ġme mbers
Ġbel ie
oll ary
po int
ri ed
Ġchang es
Ġag ree
Ġregion s
qu es
ĠM ed
ran ch
ce p
Ġt w
re l
om s
in o
com mand
Ġw rite
ĠC al
un ch
os en
al es
is ing
L E
n a
Ġdynam ics
Ġd one
ĠY ork
_{ {\
Ġback ground
Ġver tex
col on
um p
Ġcri tical
O R
Ġpri or
N o
Ġun iform
Ġpro ced
aus sian
ĠJan uary
i res
Ġmod e
Ġdeta ils
Ġc ode
ten tion
align ed
ĠA ug
is ted
b lack
s ta
9 7
Ġma king
ula te
Ġallow s
Ġl inks
b ound
_{ -
ĠJ u
Ġmus ic
Ġ }\
ite ct
id ed
ĠA ust
Ġt reat
Ġdis cre
g ory
200 4
}} (\
Ġ text
ĠS tate
C C
Ġob jects
en se
Ġch all
ĠO ur
u ck
Ġma kes
d ec
Ġpe ak
ll ar
ore s
Ġapproxi mation
Ġconn ected
Ġconst ruction
c ell
R es
Ġauth or
Ġan g
) }(
] [
ce ed
rop y
Ġad j
l ong
Ġques tion
Ġtak ing
ĠPro position
ĠG u
Ġins tead
Ġm id
Ġper turb
Ġcom e
Ġh ol
4 2
Ġne ver
Ġbuil ding
on es
ĠW ar
Ġsu g
Ġen vironment
ri p
5 7
Ġdiscuss ed
an sion
h er
ad e
ĠE n
Ġc am
Ġcon text
Ġrec ord
Ġstudi es
Ġrest ric
Ġit er
Ġoptim al
Ġso ft
Ġp rinci
Ġf oot
Ġ _
d if
Ġp ub
st s
Ġsub set
ĠO ct
Ġg auge
ĠM a
ĠSch ool
om an
Ġlay er
vi al
4 3
Ġm er
z ed
ear ch
Ġke ep
Ġprodu ction
Ġs amples
i am
Ġth erm
Ġperform ed
x y
Ġwor ds
es is
Ġsc atter
Ġspect ral
Ġdif fic
Ġs ays
Ġob ject
defin ition
Ġintrodu ced
ari ly
Ġn umbers
Ġwe b
Ġrep orted
5 8
D e
\! \!
Ġma ps
Ġexperim ents
) ^{\
Ġch eck
ĠS im
e V
Ġex plicit
it ing
Ġwe ek
fa ct
Ġtas k
i ally
Ġ: =
I T
ograph y
Ġapproxi mate
9 6
Ġil lu
Ġinter val
ĠH ere
' _
Ġcol umn
Ġv o
Ġpartic le
Ġform er
ĠB ri
) _{
Ġdevelop ment
Ġd el
Ġacc ess
ĠF rom
is k
Ġsatis fies
Ġnumer ical
Ġcon ven
ĠM arch
Ġlead ing
for all
b um
Ġc ut
ran ge
' \
y l
E q
Ġpartic les
Ġpl ot
A A
al y
Ġrepres en
Ġh ar
pa g
ĠS outh
Ġd omin
p ri
Ġim pact
Ġsim ulations
Ġpat tern
Ġclass ical
Ġcoupl ing
ĠA fter
ĠTh at
ĠS ep
un g
E S
I R
ren g
Ġcompa ct
v ant
v ent
Ġexp on
texts c
P h
j ection
Ġfram ework
ĠH ence
Ġcommun ity
i ma
Ġvari able
ĠM on
ta g
d t
Ġa way
end ix
Ġapp ly
com p
ĠA pr
sub subsection
Ġmoment um
Ġcon cer
Ġc os
Ġa ge
,\ ,
Ġso cial
Ġf la
Ġ\ (
Ġsch eme
}$ -
Ġar bit
Ġmeasure d
Ġro b
Ġinclud ed
Ġen tire
Ġacc uracy
le ge
Ġd ays
Ġ #
ĠEu rop
t rans
Ġgovern ment
Ġpro ject
Ġpers on
Ġm em
Â ł
Ġpro te
Ġsen se
te mber
U n
{ $\
Ġchann el
il es
Ġtrans form
Ġc ity
Ġam plit
Ġ+ \
Ġinst ance
B C
and id
O ur
Ġsug ges
Ġtak es
Ġs us
= (
5 6
ser ve
S h
Ġcl i
8 8
u sion
Ġj o
an ced
ym pto
O S
r un
Ġpol ar
in f
Ġmark et
amilton ian
Ġresult ing
Ġn egative
Ġcompar ison
Ġver tices
op s
d eg
Ġus er
ur ch
4 1
Ġtyp es
Ġlit tle
f lo
S u
) /
is ms
as ter
ĠN e
ĠB ar
Ġre ally
Ġdemon stra
Ġn odes
Ġw ind
Ġradi us
M S
Ġspa tial
m un
ash ed
ri er
Ġhist ory
Ġm ar
Ġde ath
F T
er a
ĠR eg
Ġof fer
\ '
E D
c an
Ġ ir
H ere
Ġ ess
Ġs ix
Ġpri v
: \
ĠCoun ty
ĠH ar
kn own
ve y
erm an
en ing
In t
Ġmeasure ments
-- --
= -
ĠC ity
Ġserv ice
Ġscen ari
Ġder ived
Ġmen tion
el ine
m y
p ng
ta ct
Ġlit er
b and
= {
f rom
20 23
ĠF irst
r ist
) ^{-
ece mber
E N
age ment
Ġinequ ality
ag ue
ed u
Ġcorrespon ds
Ġd raw
le vel
s ch
Ġnetwork s
ĠM ark
st o
Ġmo tion
.~ (\
k er
Ġd ra
Ġdec om
Ġan n
Ġdec ay
200 3
Ġp ay
Ġassum ption
row n
ab s
N ow
Ġcontrib ution
ove mber
Ġb ase
se m
^{ +
sim eq
iv es
f for
it z
Ġbe h
gorith ms
ĠT ra
an i
Ġcorres pond
Ġlead s
id s
Ġbro ad
ĠI I
ĠM c
or ds
Ġlik ely
con t
at ory
n ers
tis h
Ġman if
em pt
) }{\
p matrix
Ġinter pre
A t
Ġcoeffici ents
M C
ou d
c ases
7 7
Ġon ce
$ ^{-
Ġcour se
Ġsim ply
ti k
Ġlat tice
s elf
ĠP er
ĠMore over
Ġcomp ute
$ ).
Ġpl ane
ĠJ une
)\ \
W ith
Ġrep ort
p c
Ġpan el
s te
rodu ction
ust om
Ġpa ti
Ġst reng
ĠN orth
" .
urther more
Ġminim um
ve x
Ġs ite
Ġed ges
Ġdiffic ult
Ġp ast
Ġ= \
pp ose
ĠR ef
Ġinf lu
ĠA g
}} ^
W hen
te gy
iz on
Ġdec ision
di ent
Ġstudi ed
F rom
c ation
on ic
ĠApr il
Ġcalc ulated
Ġo ld
og ene
ĠR i
Ġch ain
Fig ure
Ġs eg
}^ *
} %
av y
ĠM od
Ġredu ced
Ġsh all
Ġcho ose
Ġcorre lation
h am
v olution
Ġtrans fer
C O
Ġa uto
ĠW ill
N et
ph ere
Ġinterest ing
Ġb ar
Ġpos si
Ġor bit
Ġdete ction
6 9
ous ly
$ $\
part ment
ĠA f
Ġde ep
Ġa x
ĠSep tember
st ers
Ġv ideo
\| _{
Ġm illion
Ġconstra ints
Ġran k
ĠF eb
z ero
Ġexp ansion
Ġl ink
Ġconsist ent
Ġsim ulation
Ġad op
~ $\
ĠOct ober
h om
t ype
Ġch arge
Ġdevelop ed
Ġbec ame
lab or
Ġw omen
Ġs ent
Ġch osen
Ġo thers
Ġs ong
ĠA b
Ġnecess ary
ir t
Ġindu st
ron t
Ġon line
Ġw a
Ġg ames
Ġb ir
Ġsim pl
Ġspe ed
Ġpres ence
l ig
Ġprocess es
Ġ tit
Ġn orm
ol ic
ran t
} )$.
Ġar ti
mod el
Ġdeno tes
ĠJu ly
p res
Ġd ual
ĠP o
d am
Ġ row
Ġst ory
Ġrespon se
Ġscal ar
Ġchild ren
n s
ed er
in de
ĠAug ust
ĠIn tern
Ġdistrib utions
' )
Ġknow ledge
)$ -
Ġc andid
Ġwork ing
d ro
w ar
Ġgo al
Ġto ol
Ġpa ck
$ (
b ook
Ġconst ruct
Ġcon sequ
Ġcorre ct
Ġcol or
dition al
b ur
Ġcount ry
ther n
ĠD ecember
Ġsta tion
Ġt ry
Ġcur ves
H owever
Ġme et
Ġexperim ental
s tate
Ġal bum
O ne
k en
re mark
Ġt ree
d im
Ġh old
ber g
cl ass
ad a
Ġ ve
Ġwho le
Ġa da
Ġnew s
Ġproced ure
ĠN ovember
um in
ref er
Ġl anguage
Ġp ul
id ent
v ity
ĠB o
. )
k y
Ġcommun ic
Ġneed ed
Ġ&= &
M ore
val ue
S P
os p
Ġt ensor
Ġal gorithms
5 9
v ision
rit er
Ġqu ality
as i
Ġin finite
A B
Ġcomp e
Ġde p
Ġclass es
ru cted
Ġs quare
Ġal tern
Ġd ark
ou l
200 2
ish ed
Ġeas ily
Ġus es
Ġspect ra
I M
ific ation
The orem
Ġfig ure
Ġvol ume
ch ange
en cies
Ġinvari ant
E E
Ġdou ble
Ġarch itect
Ġapplic ation
ber t
5 4
s ol
li er
L e
Ġto ok
S o
Ġeas y
ĠE d
par amet
Ġ Â
R ec
h ttps
\ _
la tions
ag ed
5 00
tik z
Ġpol icy
m ic
] .
Ġstud ents
pec ially
Ġrema ins
ro ll
new command
Ġfact ors
Ġdescrib e
ĠR us
Ġlevel s
ĠD i
Ġapplic ations
Ġdepend ence
Ġg en
ow s
| _{
Ġexperi ence
Ġex amples
th is
5 2
A r
Ġsymm etric
p id
Ġde al
map sto
Ġpar ts
Ġstructure s
Ġparti ci
Ġfor mation
Ġits elf
il le
b ut
il ib
z z
Ġcont ent
ap s
a e
b in
Ġuse ful
Ġdeterm ine
Ġdo c
P R
Ġwh y
Ġf ri
8 7
Ġpar tial
ĠR o
Ġres olution
ern el
Ġs plit
ĠQ u
Ġb ody
Th us
b i
Ġsignificant ly
Ġexperim ent
Ġidenti fy
ĠH amiltonian
Ġloc ated
Ġcompu ted
pic ture
Ġspa ces
Ġdepend s
Ġadd ress
Ġintrodu ce
Ġprodu ced
ĠĠĠĠ Ċ
ĠG aussian
hi te
ilib ri
omorph ic
Ġus ers
ura te
ru ary
, "
g raph
Ġgrow th
par allel
od ot
Ġincre ases
it or
Ġmagn it
p an
6 3
Ġexact ly
Ġcom es
b its
os ing
one y
ĠAust ral
Ġrequ ires
ec ause
d y
in i
Ġmod es
si a
Ġinclud es
te e
200 1
f ect
ill s
p ose
r up
S im
Ġl atter
Ġneed s
Ġex ec
= =
s tack
c ity
Ġillu stra
Ġserv ices
ight s
Ġass ign
Ġu til
Ġrele vant
Ġan gle
Ġrec og
d x
Ġext ended
pro position
Ġed uc
S O
Ġ ensure
Ġste llar
Ġch arg
' (
5 3
ĠD o
Ġmat rices
ww w
ĠS w
Ġra tes
}} ^{
our nal
Ġf ully
Ġapproach es
lo ad
Ġ @
Ġal ign
Ġfor ce
Ġinteg ra
u x
Ġpro m
5 1
Ġpress ure
Ġorig in
Ġcol l
cc ording
) _
Ġas ympto
Ġsupp orted
S ch
Ġg ain
Ġadd ed
el er
Ġcomp an
Ġide a
ĠP e
Ġrepres ents
ds h
ĠH igh
Ġann oun
Ġess ential
Ġa rm
- $
Ġt or
our ces
Ġyi elds
is es
}$ \
$ ;
} &
Ġembed ding
re et
si ties
Ġam ount
for d
A d
Ġup d
Ġstreng th
ĠO b
Ġb ranch
Ġ$ $
min i
Ġestima tes
n et
Ġrece ived
Ġfa ce
Ġth resh
ric e
E C
l ies
Ġdif f
Ġcou ple
ĠO ff
Ġy et
Ġec onom
u ed
Ġh ouse
Ġste ps
6 2
Ġestima ted
Ġsh ape
Ġl ot
Ġth ings
Ġma s
display style
N ew
W hat
ra tic
b ly
Ġb ox
d ata
Ġm ess
Ġsu ff
\ {\
ell ing
u ations
Ġarbit rary
fun ction
Ġrefer ence
re w
Ġas k
ĠW hile
ĠS er
b lue
Ġconver gence
Ġon es
ĠD is
Ġstra tegy
Ġt able
7 8
al i
S I
tt p
Ġsta ble
em ic
L P
Ġw ord
no v
Ġim medi
al og
Ġsome thing
Ġb eg
ĠN ow
Ġa im
Ġs low
Ġpol i
v or
Ġthe ore
Ġiden tity
c ast
Ġes pecially
st ructure
An d
D F
Ġmeasure ment
Ġrele ased
Ġh yp
$ ~
Ġg ot
Ġpair s
ĠE l
Ġestab lish
Ġqu ad
Ġav oid
Ġact ually
es ted
Ġbe am
}$ }
Ġfe el
is ation
od ing
Ġs light
ap an
.. ..
N R
Ġexist ence
s a
Ġestab lished
Ġinter actions
Ġat tention
int y
it ary
Ex ternal
S ee
h bar
c il
Ġv ectors
Ġto wards
Ġrec over
A D
ĠIn de
Ġor d
ilibri um
m ma
Ġd ig
f ree
en ed
A pp
Ġcate gory
Ġm orph
ti tion
Ġfoot ball
Ġno vel
ma tions
ak ing
Ġcompu tation
) +\
Ġan sw
Ġpro pag
c a
s es
- >
Ġp ic
Ġf all
Ġbuil t
ti ble
Ġb lue
Ġqu ite
9 3
ĠP ark
Ġd eli
ampl ing
Ġb in
ĠW est
Ġsta ge
Ġplay ed
pro du
ĠM o
S U
ĠFeb ruary
Ġre ve
Ġob serve
Ġin side
igh ted
Ġc ore
' }
Ġcap ture
Ġma ch
Ġop tical
c us
) },
vers al
l ass
er ed
al t
ce ption
Ġclassi fication
pa th
i tes
al g
9 4
6 1
z ation
b ody
Ġn eg
_ _
\ "
Ġdiffer ential
Ġse lected
Ġcomp o
s ur
ta inty
b a
} }$,
Ġdis k
val ues
ĠA c
} )$,
ĠM ich
Ġus ually
Ġdisc over
b r
) -\
ĠB ra
Ġfin ding
Ġcons ists
y ond
Ġlim ited
Ġp i
Ġmo lec
ĠS an
} }$.
ar a
multi row
ar an
Ġo sc
el ess
iz ations
ĠD es
ĠM us
u ter
Ġy oung
Ġover all
Ġst ring
k a
ti mation
Ġc ustom
ĠD av
Ġm icro
v is
Ġn ature
Ġcre ate
ĠAf ric
Ġcre ated
mini page
um ents
ce ment
P C
Ġlong er
}{ |
c ref
ĠK ing
ing u
ĠL a
y ear
Ġv anish
Ġarg ument
Ġbel ong
Ġmed ia
Ġrecent ly
Ġgalax y
Ġanal og
Ġat tem
Ġtrans formation
cal l
S C
Ġcir cle
f low
Ġex ci
in ct
Ġcompa re
ag raph
P T
ĠH is
S M
ir al
Ġc ame
ort un
Ġex hi
}$ )
com ple
ĠG o
p is
Ġprof ile
Ġk ind
rac k
c ome
Ġfram e
M od
Ġspec ies
Ġal though
re du
Ġare as
Ġiss ue
Ġpub lished
ian s
H z
Ġproduct s
Ġrem ov
Ġfor ward
: }
c ong
Ġ$ |\
ĠRes earch
Ġpredic tion
le x
v ol
Ġc ult
hi ps
Ġout side
p tions
com m
pi te
Ġdesc ription
Ġe mer
Ġloc ation
Ġchall en
}( {\
Ġ rule
Ġme mber
L O
Ġcoordin ates
are nt
on y
Ġte ll
ĠA ir
Ġla te
tab ility
Ġb it
Ġscatter ing
Ġb ul
m en
Ġf lat
) }_{
ma ss
f it
ol ute
Ġradi o
ex ample
h ere
Ġtechni ques
n ed
h ic
Ġexp ect
e ma
Ġr isk
Ġsuccess ful
Ġachie ve
m l
Ġf raction
Ġstar ting
Ġh eld
$ ),
ĠW hat
ond on
lo cal
Ġconf ir
) --
) )$
al se
cor re
Ġform s
Ġev idence
Ġpop ular
ĠM y
ĠEng lish
Ġeng ine
9 2
Ġstar ted
Ġexten sion
rid ge
Ġappro pri
M e
Ġhor izon
Ġerr ors
Ġac tive
ĠD ist
Ġappear s
u ff
&= &
Ġsol id
om ic
Ġcontra st
E T
el ves
Ġa ut
Ġrep e
Ġres on
Ġagree ment
l as
Ġauth ors
Ġdiscus sion
ub e
Ġb all
Ġc ry
A ll
Ġar ri
Ġth ick
Ġup on
p al
}{ (
c el
ĠCom p
Ġcon tact
Ġabs or
Ġstate ment
Ġs ymbol
se ud
Ġiss ues
Ġliter ature
re st
Ġfe ed
Ġconfig uration
h and
c ript
amp ions
Ġar ticle
ogene ous
. $
ĠĠĠĠĠĠĠĠ ĠĠ
ck now
Ġassum ed
Ġidenti fied
end er
Ġcoun ter
ĠB ro
al gebra
Ġto wn
Ġindu ced
,\ \
[ (
Ġre dsh
Ġgraph s
spec ial
ĠF e
L L
Ġlarg est
Ġp ure
Ġcontrib utions
c tive
a tives
m ented
Ġde vi
Ġen h
Ġreg ime
ra g
Ġtreat ment
ĠNew s
Ġe ffor
Ġwh ite
Ġstra ight
Ġredu ce
Ġlo ve
Ġj ob
Ġse lection
Ġno tation
m c
Ġre const
ĠCh ar
h box
Ġmem ory
| |
col umn
Ġpl at
Int roduction
H E
ren ch
Ġprodu ce
Ġ$ {
Ġre si
Ġconclu de
Ġamplit ude
Ġexp and
li p
Ġsit uation
b old
Th ese
S ec
There fore
Ġto day
ĠT rans
ĠG ra
) }}
Ġgener ally
Ġada p
Ġre main
}{ *
if ically
Ġoptim ization
: :
Ġb inary
A G
Ġcon cent
Ġex am
ci enti
it er
s ymm
ar p
Ġcomb ination
L i
Ġh ost
Ġcon du
| -
_ -
it ter
Ġcol lection
B e
Ġs cre
Ġli ve
Ġin ner
ĠH er
m ary
Ġform al
Ġinteg er
Ġfun dam
Ġben ef
n es
cc cc
Ġvis ual
Ġbas ic
ĠH ouse
Ġmeasure s
7 2
Ġgra dient
9 1
ul i
L S
Ġcon serv
Ġgener ate
Ġcon sum
I m
Ġacc urate
Ġmass es
}\ ,\
Ġmagnit ude
v an
M M
199 8
less sim
om b
Ġoper ations
du al
ec ts
] {\
ĠJ apan
Ġobserv ation
ci ety
Ġ& &
199 9
P ar
ĠA m
di re
O T
Ġseem s
Ġtherm al
Ġun its
Ġi tem
ĠS erv
Ġmention ed
os ity
Ġdesign ed
ro un
U S
Ġd est
t frac
Ġs m
d frac
stit ute
Ġte ach
Ġallow ed
Ġch em
Ġadv an
Ġshow ed
Ġthresh old
le ase
Ġhigh ly
Ġo ri
il led
Ġapp e
Ġbeg an
Ġoper ation
Ġplay er
8 6
8 4
u tive
Ġc at
ĠIn ter
ĠM or
Ġtas ks
at us
Ġcon vex
7 6
^* $
Ġ ener
Ġrepres ented
Ġtra ject
] $.
Ġe ver
ch eck
Ġconstra int
ic ity
Ġcle arly
ti an
: =
Ġmechan ism
Ġthough t
ar ing
Ġcalc ulations
8 9
ĠBri tish
Ġdete ct
di ag
big l
in ted
ĠO p
ĠT ech
Ġle mma
G C
Ġn ational
Ġph en
ist ory
Ġexist ing
op ic
Ġflu ct
per im
Ġnam ed
Ġs ure
ĠT e
Ġclu sters
c ar
Ġk ernel
d om
Ġcare er
Ġtheore tical
ĠCent er
Ġper fect
M R
Ġtrac k
Ġprov ed
ĠF inally
Ġcalc ulation
C ol
b on
ud es
Ġ[ \
to col
$ _{
Ġsh are
Ġtechn ology
Ġcomplete ly
Ġprevious ly
A fter
Ġvari ety
Ġb al
V ID
Ġrela tively
Ġc ru
b el
$ };
o la
Ġcell s
Ġlay ers
Ġst yle
F inally
rac ted
O b
Ġn ight
Ġuncer tainty
at t
Ġle d
form s
p ir
Ġcoeffici ent
Ġminim al
ag er
,\ ,\
Ġbe yond
Ġr ing
Ġ ri
Ġrun ning
Ġconn ection
Ġ\ !
Ġmon ths
Ġqu ark
ĠIntern ational
ur s
Ġv ary
Ġprac tice
Ġdatas ets
Ġhyp oth
ra ft
Ġb ounds
Ġprim ary
$ :
m ann
con n
3 00
ĠL ondon
con s
Ġfil ter
Ġexpon ential
Ġgener ation
Ġdeno ted
N e
\ }$.
Ġparti tion
ru g
Ġk ine
Ġelect ric
Ġredu ction
Ġstrong ly
k i
Ġpar allel
big r
Ġ %
an cial
Ġincre ased
Ġent ropy
Ġv ac
ĠS cience
Ġinter n
Ġsing ular
ĠB ay
] }
tain ed
Ġmean ing
g ies
u el
Ġinvol ved
w ell
a ugh
Ġ{ $
Ġb ra
Ġinv est
Ġm il
Ġear lier
ĠS ome
Ġdiscre te
s y
Ġsub sequ
r d
o cal
Ġh ole
ke y
are n
flo or
ag ing
Ġ\ ]
ĠCol lege
Ġf ront
min ist
ĠE qu
Ġslight ly
Ġthrough out
, $
e lect
es tern
Ġqu ick
Ġdeta iled
Ġor th
Ġte le
Ġpati ents
ilar ly
Ġbeh ind
c ase
math op
sum e
Ġr ules
t ot
Ġp en
ys et
if f
}} _{\
Ġcomplex ity
Ġdiffer ences
Ġsatisfy ing
Ġide al
od er
z ing
Ġneighb or
Ġconsider ing
b u
Ġfa il
ĠI m
F irst
Ġscal es
Ġoffic ial
ĠAmeric a
M P
Ġro und
Ġf ood
Ġg ap
Ġrema ining
Ġn or
Ġdep th
Ġre mark
Ġtra in
Ġw ide
Ġb ottom
Ġm es
] $,
vari ant
ve e
ĠH ow
Ġsub ject
) )\
Ġfunction al
ĠCh ris
8 2
o o
Ġabs olute
ure d
empt yset
Ġang ular
ĠH ol
Ġrelations hip
~~ ~~
Ġve hic
Ġscal ing
Ġw ent
om etric
Ġax is
us ed
8 3
Ġindust ry
Ġgre ater
et al
Ġv ic
ĠĠĠĠĠĠĠĠ ĠĠĠĠ
ollow ing
Ġfundam ental
ĠF urthermore
ĠB er
ph ant
7 4
Ġes timation
Ġeffici ency
as ons
on ical
ad ing
a o
Ġsec urity
Ġexpl o
ell ip
7 3
ran g
ter m
Ġdimension s
Ġtit le
Ġopp ortun
an o
Ġsc ore
Ġtyp ical
Ġla unch
Ġcoll ision
Ġfollow ed
M A
vi ties
ĠIndi a
ri ef
B ut
o ti
bra ce
ĠV i
Ġcy cle
P re
Ġre li
S et
Ġb ur
c r
Ġcomm it
) })
ers on
Ġpro por
Ġac qu
l ength
ĠS ub
n am
ĠS pec
Ġindic ates
Ġf ast
Ġde mand
Ġt en
][ ]{
Ġv s
ĠHe alth
Ġg rid
Ġpriv ate
Ġappropri ate
m os
Ġother wise
Ġp refer
Ġt re
bra tion
ĠU sing
7 9
Ġeval uation
if orn
mu lation
Ġdecom position
id ing
le g
C P
Ġconst ructed
th en
ĠWill iam
ot o
Ġla ck
Ġsh ift
se mb
fa ces
Ġw ays
C S
ar c
a j
ed om
tin y
Ġdis play
}[ \
U sing
Ġsub group
Ġscenari o
Ġtra ined
F e
Ġpro g
Ġbu ild
Ġrele ase
Ġdist inct
Ġcompan ies
Ġrob ust
d el
ĠB lack
ĠA rm
Ġj oint
199 6
Ġst ream
Ġhigh est
ĠN or
ĠG roup
Ġp ort
ch ed
}} )
t w
no ther
c at
| }{
jec ted
Ġtra vel
si tivity
Ġhy dro
}} .
ĠAn g
H ow
8 1
Ġexp ressed
Ġcontain ing
Ġw atch
Ġf lo
C T
Ġques tions
Ġ ion
v ille
Ġlook ing
gor ies
su per
Ġh ours
F F
land s
Ġro ad
Ġmas sive
;\ ;\
tikz picture
t wo
iforn ia
Ġb und
Ġ ^{
he ight
Ġpartici p
pa ign
Ġb ring
v ature
Ġweight s
{ {
Ġphen omen
ys te
Ġequ ilibrium
Ġsol ve
Ġpers onal
Ġro tation
b l
i table
b as
I s
ĠAs soci
Ġc riter
ĠAl so
ĠE m
ar ding
d et
Ġweb site
ĠLe ague
ar th
+ (
ĠW ork
Ġcon cept
y a
Ġpic ture
Ġlo op
Ġgu aran
ĠP ri
r ich
Y ou
Ġb l
te l
s uch
B S
D P
Ġcalc ulate
Ġapproximate ly
Ġrepresen tations
}) }
ing ton
ĠD em
Ġw all
Ġex ternal
ĠG reen
Ġhe ight
Ġac tivity
es ter
}_{ -
Ġgeom etry
Ġcontin ue
o ph
Ġw id
( )
, {\
Ġb r
Ġe y
est ing
Ġcom ing
Ġdid n
ĠPre sident
defin ed
io ta
i ra
à ¤
Ġs ound
g u
7 1
D A
Ġsuffici ent
.. .,
Ġacc eler
199 7
c d
Ġt un
Ġpro jection
}} }\
Ġtem por
al ysis
ĠF in
ĠG al
Ġne ural
Ġel se
for ward
Ġacc om
\ ;
Ġst rict
Ġsu gg
D M
Ġcomb ined
ĠApp endix
Ġcl ub
Ġprof ession
Ġpa ge
Ġindic ate
Ġsuffici ently
Ġstatis tical
Ġa udi
$ &
ĠL aw
Ġachie ved
umin osity
Ġag ent
Ġhist or
Ġpoli tical
rib ution
tin u
Ġphys ics
C H
Ġf erm
Ġinter nal
v ised
Ġreve al
oun ts
b orn
Ġp ix
Ġse lect
Ġqu asi
Ġparticular ly
I P
= .
b reak
Ġcontra ct
Ġass ess
og le
ill ing
Ġcoordin ate
Ġdi ver
$ {\
Ġ Ã
}} ^{\
Ġsem i
re me
Ġd ust
ĠE ach
Ġcurrent ly
ro s
on ds
Ġe pis
Ġon to
Ġneut rin
t un
re qu
Ġpol y
I G
}{* }{
par agraph
j oint
ĠO f
t ru
A meric
Ġt ax
}) =
L emma
c ription
ĠS en
ell ow
Ġet c
S tate
Ġm oney
Ġmulti plic
ĠB el
mid rule
Ġ$ ,
) }_
Ġevalu ate
Ġs ampling
Pro of
och astic
la m
ad d
\ )
Ġex cept
am s
Ġtyp ically
Ġac tiv
Ġmon th
Ġunderstand ing
Ġfil ms
long rightarrow
( (
Ġreg ard
c over
Ġre comm
Ġlim its
Ġsum mar
| }
h ol
res ults
Ġob vious
Ġsec tions
ĠJ o
I F
Ġcontain ed
b matrix
Ġsta bility
id den
ĠRep ublic
at tle
v a
ĠEurop ean
Ġsoft ware
ĠT V
Ġk m
Ġannoun ced
Ġ$ .
cor por
Ġin verse
00 1
al gorithm
ĠL ag
is tics
script size
S F
Ġdistrib uted
E M
un ction
ĠDe partment
Ġth ing
if ts
Ġent er
Ġ er
a el
S p
Ġab ility
ĠR ed
Ġhe avy
c les
Ġmaxim al
Ġ }{
ĠCh ina
Ġbelie ve
Ġdiag onal
P P
n y
Ġgre en
Ġvari ation
G B
D is
Ġv irt
Ġtechni que
Ġt al
W hile
Ġassum ptions
.. /
Ġd ro
Ġl ost
Ġdis e
p g
ĠA ct
Ġext rem
ĠL ie
st r
ĠS ur
column width
Ġcommunic ation
a res
is ely
es ts
ĠĠĠĠĠĠĠĠ ĠĠĠĠĠ
Ġform ed
tri es
Ġarchitect ure
ĠS m
Ġdo ing
Ġ\ (\
ĠC our
Ġs il
Ġo dd
Ġb os
Ġb re
ma tically
Ġapp lying
ĠCh rist
ap ter
Ġ ;
ĠCal ifornia
Ġdepend ing
Ġpredic ted
ĠS M
Ġp ick
fa ult
ra di
Ġmanif old
Ġ //
Ġfa ir
Ġinflu ence
S ection
sp an
Ã ¡
Ġp seud
or ge
: =\
1 10
Ġnam ely
Ġqu ar
ig gs
Ġmach ine
i tions
ĠT im
Ġ ...
g ener
si vely
Ġus ual
ti vities
ĠM ag
Ġcon j
Ġprinci ple
Q u
Ġpres erv
s ystem
Ġcent ury
Ġco ol
Ġto ld
sk i
S ub
}) ^
tri vial
ĠSt reet
Ġeffici ent
Ġtest ing
Ġwhere as
h ar
Ġ ]
Ġf em
Ġener gies
Ġconsequ ence
Ġstra teg
Ġpur pose
Ġs par
^{ *
H ence
Ġres ol
C o
Ġd ate
Ġcom mu
ra te
C A
Ġphot on
Ġsa f
Ġad m
Ġimmedi ately
ĠU K
phant om
& =\
Ġman agement
R O
form al
}} =
Ġcharacter istic
\ }$,
ri al
Ġar t
Ġre call
var theta
Ġoccur s
Ġ\ &
Ġde b
Ġinteg ration
vi e
as k
Ġpar ty
C or
Ġrun s
Ġchann els
Ġst ri
10 00
Ġradi ation
ma il
Ġ ^
ĠT w
ĠF rench
wo od
Ġra pid
Ġdete cted
ci ble
} |\
an ks
ot ing
Ġdoes n
E n
ob ile
Ġuncer tain
Ġb rief
Ġpro tocol
tic les
ch o
and s
st an
Ġasympto tic
ĠInde ed
\ }\
ĠAl though
sub sec
eder al
g ather
Ġatt rib
us ing
ĠI R
Ġcompu tational
Ġinde ed
Ġnon linear
Ġhe at
ĠCO VID
ff ic
Ġconst ants
Ġdeta il
N ext
Ġshow ing
le ment
Ġh it
Ġimple mentation
sl ash
Ġlocal ly
c f
re al
199 5
Ġm arg
[ -
Ġnear ly
ci r
am ent
Ġvis it
ĠG overn
Ġis omorphism
fin ition
ch e
Ġintern ational
iv il
N A
Ġbi as
o ted
z a
ric k
h al
199 0
ou rier
Ġf ine
Ġexp ec
Ġma pping
Ġderiv ative
te ll
Ġab und
Ġp erm
Ġpredic tions
Ġcons tit
figure s
Ġder ive
Ġgeneral ized
ĠDav id
Ġunder lying
ĠS T
Ġv illa
Ġrecog n
mag netic
Ġst ress
u it
er ve
Ġtop ological
ĠG eneral
ĠCom mun
sem ble
Ġdis per
Ġp rice
vi tational
Ġro ot
w a
re la
\ |\
h u
Ġprop ose
v ector
Ġsur vey
r ical
vel ength
Ġgo es
Ġfor ces
Ġaltern ative
ou ra
Ġdeg rees
Ġredsh ift
Ġmov ing
Ġcur vature
Ġt ren
ĠE ast
ĠIn stitute
de pendent
ĠD ire
Ġt er
Ġco inc
Ġwor th
n el
Ġopp o
por ts
w hile
Ġtri vial
Ġc m
Ġa ctions
S R
Ġtra de
clu sion
Ġf ir
Ġmod ern
Ġc ause
Ġeduc ation
Ġradi al
pa ir
r s
Ġcos m
f lu
ist ry
rum p
ĠCan ada
id a
k m
g in
Ġsh ock
en ced
Ġmod ule
Ġse ven
Ġs ector
Ġfin ally
S D
Ġno ted
ĠS ol
Ġelect ro
Ġtrans port
ĠCoun cil
ĠS a
mit ted
no tag
s pect
Ġres ources
Con sider
Ġr ise
rop ic
Ġexpla in
ch ar
Ġrec ur
ĠP al
lay er
S L
ble m
Ġcomp uting
P e
I V
med skip
Ġsp read
Ġre sid
g ent
ms elves
M L
Ġdynam ical
Ġb orn
/ (
b ib
} ~
ad y
olog ies
Ġpo sitions
c ode
ĠO ther
ĠW il
Ġs yste
Ġ( {\
Ġb ad
Ġag o
su pp
Ġh on
im al
Ġthe mselves
v in
S e
Ġro om
Ġaff ect
ĠB u
Ġbegin ning
or tion
Ġdev ice
Ġcl oud
ĠTech n
for mations
Ġs on
ic o
}\ |
Ġcontra dic
ic a
Ġmo tiv
t d
Ġag g
Ġn ull
oun ter
ul ating
f s
Ġfam il
Ġrela x
am ily
Ġlead ers
as c
Ġtra ditional
h igh
i ke
on a
ĠS ystem
la w
Ġocc up
Ġacc re
Ġ lab
Ġvari ance
^{ (\
Ġsw itch
eli hood
k in
Ġob jective
cap e
Ġcam paign
Ġexplicit ly
b re
Ġinvestig ate
medi ate
in teg
X i
Ġcandid ate
Ġp r
Americ an
Ġver tical
th ere
ĠSu per
ris on
Ġdist ingu
Ġ ellip
iz er
\% $
Ġd ashed
Ġwrit ing
Ġl as
199 4
Ġcapa city
el t
or i
ĠD ec
en sive
Ġdes ired
ran k
' re
ult ane
Ġ math
Ġdimension al
Ġsta ted
cir cle
pl es
Ġcoun tries
ĠH all
Ġm ind
ĠF ound
P U
st on
Ġl uminosity
m ult
ra d
or ation
C l
Ġwork ed
in put
Ġprec isely
err or
Ġansw er
cal led
Ġn orth
Ġar c
Ġse x
Ġnucle ar
osp ital
Ġfin ancial
Su ppose
( -\
Ġre produ
Ġsim plic
Ġprob ab
Ġro ugh
Ġeigen values
Ġs ites
Ġdeterm in
sl ant
ĠD ay
pro cess
Ġex change
u um
ura tions
Ġact ual
G L
Ġ tes
ĠP lan
par ison
Ġsequ ences
equation s
an ted
Ġint ensity
r us
Ġev ol
Ġprovid ing
Ġfamil ies
tima te
inde x
Ġinde pend
Ġsatis fied
il bert
Ġcaus ed
Ġcan onical
1 20
Ġl iving
ĠAustral ia
os es
and er
Ġw alk
Ġfre edom
i eld
u i
Ġext end
Ġmod ified
Ġh ttps
ro sc
G iven
ĠG od
A b
Ġso on
^* \
Ġget ting
Ġb right
Ġst ochastic
ĠC up
ĠM al
Ġ Ð
Ġstatis tics
em y
ch ang
Ġs cience
C M
Ġpro ceed
h ttp
ĠMod el
u ge
Ġspe ak
ynam ic
Ġequival ence
Ġ â
Ġbul k
ist ance
Ġinter ested
Ġexpla ined
Ġgiv ing
Ġsta y
N S
Ġqu an
Ġgra vity
C L
Ġserv ed
l ines
Ġf le
ro ph
ĠEng land
Ġupd ate
Ġdynam ic
Ġsepar ate
og onal
Ġs ym
Ġrepla ced
T able
Ġprob ably
C E
Ġcol labor
es ti
Ġs cienti
. ;
p ris
Ġquanti ties
Ġsu itable
th eless
ran e
ĠĠĠĠĠĠĠĠĠĠĠĠĠĠĠĠ ĠĠĠ
Ġsta ff
Ġchem ical
ĠJ ames
Ġle ave
Ġyi eld
Ġthan k
H S
Ġsol ar
s us
ĠD ata
More over
ol i
ti fied
Ġro ck
ĠG erman
F L
Ġadvan tage
P A
Ġ$\ {\
oun tain
ĠD r
ĠRi ver
ĠS ee
s table
Ġg ets
Ġimpro ved
)-- (
ash ington
s ign
Ġconven i
ed y
Ġcompo sition
ĠSt ar
Ġa ward
j oy
b ottom
Ġa mb
pl ot
Ġthe ories
a uto
Ġfi re
Ġneighbor hood
text color
Big g
Ġtrans mission
ac tic
et ries
B A
Ġd x
Ġ\ ,\
T S
ĠC a
at ur
x x
com ing
ad es
Ġin j
k o
w ork
4 00
Ġright s
m f
! ]
Ġmid dle
ĠDist rict
Ġimport ance
Ġun known
Ġsa w
in ner
Ġdev ices
an cy
Ġfa ther
R A
ĠL u
ĠP at
l li
P er
h an
Ġpattern s
] (
ĠR ober
Ġinst rum
Ġhypoth esis
ĠCh ampions
ĠM il
rang ian
Ġoff ice
Ġref lect
Ġmain tain
ai ly
Ġcharacter s
Ġask ed
cent ury
ro te
u fact
l en
la te
Ġplay ing
the tic
Ġmov ed
ĠB ook
Ġco her
rip ts
Ġs qu
Ġl isted
Ġin corpor
l ist
ax is
res sive
15 0
ĠUn der
Ġdig ital
ro y
Ġconn ec
Ġm or
cor ollary
ĠEurop e
res pon
Ġcar ried
Ġg ave
Ġ< /
y r
Ġm eta
h fill
ĠS uch
Ġj ud
pt on
ul us
Ġdete ctor
^* (
Ġmin utes
Ġsugges ts
) ^\
. \\
U T
Ġfluct uations
D S
ĠC ap
e th
ĠR ich
lo od
form ed
Ġmatch ing
b rid
Ġp ush
D es
Ġplan et
Ġgener ic
ro id
mon ic
ĠL ab
mod ule
Ġj et
R ight
Ġs ens
Ġs pher
Ġin ver
Ġreach ed
Ġper cent
ron ic
T r
Ġa st
b p
ti fication
I A
Ġf alse
ĠO ut
Ġs outh
ĠR em
j i
S te
ann ed
da ted
ĠPro gram
$ ^{
Ġis ot
I ON
Ġfri ends
Ġ ign
ma ge
Ġperturb ation
back slash
U R
Ġdi ed
Ġ _{\
o mas
Ġplat form
Ġ ,\
Ġcompu ter
Ġcar ry
Ġbehavi our
ĠA ccording
Ġgra du
t an
Ġpo or
in du
tra ct
Ġhear t
H C
a fter
199 3
Ġb rand
Ġprocess ing
Ġad ding
e led
Ġteam s
> \
el es
ĠS ing
Ġdire cted
ir us
ĠPa ul
a ut
' _{
Ġmaterial s
ht ml
Ġe q
Ġg ir
Ġmess age
$. }
} ~~
ĠR oy
ĠT ex
om etry
Ġhim self
ĠB i
f ile
| ^{
Ġdis pla
Ġlabel s
Ġc op
Ġfa vor
n n
s pa
ic on
Ġdoc ument
Ġassum ing
Ġprogram s
ĠR ad
o ta
Ġno thing
ĠGe V
-- -
ĠD ef
ou thern
pro b
g a
Ġbu y
Ġsta tic
D ef
down arrow
en ta
Ġmain ly
ĠD iv
Ġsh ared
Ġgra vitational
Ġm u
*} [
r ins
se y
199 2
ĠG iven
Ġco ach
Ġf ight
ĠĠĠĠĠĠĠĠ ĠĠĠĠĠĠ
ĠV er
ĠS un
Ġ id
ĠN ot
text up
Ġno tice
a vi
( $
is ot
b ilities
c ate
ĠB en
Ġevalu ated
os ure
le ar
redu cible
Ġcorre ction
G N
Ġco vari
a ff
D B
ines e
ĠM id
Ġc ele
pa red
{ (\
ĠM ac
im in
Ġcon duct
Ġima g
rough t
P r
i ant
Ġst op
ari ties
ĠSu ppose
Ġl ies
b il
Ġcorre ctions
pl ane
is son
Ġbund le
ĠAssoci ation
Ġprof iles
h aps
h ang
ĠS et
S c
id el
th ick
ac tive
ĠO ver
Ġan om
Ġtool s
ed s
Ġquick ly
up arrow
Ġoff ers
O r
Ġp aren
Ġmis sing
ĠCh urch
Ġsim ultane
n os
ĠC M
ĠV ol
Ġsign als
esti val
s quare
ĠY ear
g eneral
Ġpol ice
em es
F C
ĠF il
ĠW hite
ag o
| $
n egative
ĠV al
Ġextra ct
A p
om ing
Ġat oms
v s
~ (\
U ni
f ram
ren ce
Ġpolar ization
) (\
G e
N D
- (
Ġwind ow
Ġh ot
Ġj us
f il
Ġindividual s
var rho
m n
P a
ĠSec ond
Ġtemperature s
e ks
ĠH iggs
Ġcontinu ed
Ġh um
c lic
ject ure
ch mark
Ġw aves
ĠJ ack
Ġsupp ose
dition ally
Ġuniform ly
math it
I d
ic tion
ph as
Ġcom plic
d ens
Ġpl as
Ġun ion
R B
Ġwa velength
Ġread ing
ac ob
Ġimple mented
ro b
Ġis o
Ġcomb in
Ġmix ed
ver age
Ġband s
l ink
er c
n ol
Ġdeli ver
texts f
Ġ$ ^{
Ġequ ality
AT E
---- ----
Ġcouple d
Ġvac uum
Ġto ur
Ġcate gories
Ġdel ay
) }.
r or
Ġ~ ~\
Ġmed ium
_{ +
P E
Ġo uter
Ġmath ema
! \
00 00
Ġele ction
ĠE du
Ġde pic
ĠFound ation
erm any
im its
Ġe ight
Ġw rote
ĠS um
ii i
Ġblock s
ĠP ress
Ġpossi bility
Ġfi le
Ġra ce
Ġex clu
ĠN etwork
ĠCour t
lo op
Ġflu id
Ġrecord ed
Ġdemonstra te
Ġmil itary
ĠF ourier
ĠW ashington
R R
& &\
s tead
\| _
S pec
Ġac tivities
Ġ{ $\
O M
Ġchang ed
Ã ³
$ ^
Ġrequire ments
Ġperiod ic
Ġattem pt
ad s
cre te
cal e
z en
ar ith
ĠT wo
Ġmed ical
C ar
erm i
Ġat mos
Ġbir ths
Ġpa ths
Ġgeom etric
ma ins
Ġag ents
ens us
un ct
ĠA re
Ġd u
Ġden se
go ing
bin om
Ġsome times
con tinu
Ġdire ctor
Ġquan tity
$- $
Ġfeed back
Ġnormal ized
Ġconn ect
Ġquad ratic
Ġp rime
ĠA ward
Ġmajor ity
ed ic
lo c
Ġhal o
text normal
ven tion
er ies
)} (\
ner gy
dif f
Ġcal i
re lated
Ġuncertain ties
un i
` `
Ġtele vision
$\ ,
id er
Ġno tion
I L
Ġs izes
Ġins pi
Ġset up
Ġen joy
bold math
Ġdeg ener
Ġdescrib es
s ource
p ower
ĠD en
ĠG re
Ġcost s
Ġc ard
Ġiden tical
ĠL eg
ĠIndi an
ĠCon sider
Ġ\ |\
ĠA lex
Ġtest s
g r
Ġabsor ption
Ġmix ing
Ġpla ced
om ew
Ġstud ent
nu al
Ġconfig urations
Ġsugg est
ĠC ur
Ġord ers
st ream
ur ning
Ġins tit
po ch
Ġcomple ted
ĠB est
pl an
Ġph ases
ĠR ob
og en
Ġredu ces
stack rel
math tt
ĠA rt
ĠCon t
Ġl ives
Ġ rac
Ġexpl ore
text bullet
Ġd ot
Ġvi ol
L ist
Ġdire ctions
Ġsem an
Ġtrans lation
Ġd edu
Ġth reat
Ġmost ly
ste p
y d
Ġmet al
i ps
Ġpredic t
ow ers
Ġde ad
ĠM ax
Ġturn s
Ġact s
Ġexpression s
Ġtra ce
D R
Ġlearn ed
198 0
Ġalgebra ic
g n
al ities
w in
h as
Ġcon volution
l arge
ĠK e
Ġdevi ation
Ġ\ [
em ann
Ġpla ys
ra b
Ġfit ting
Ġevent ually
Ġw oman
ĠC hi
Ġt rig
Ġmo ther
f irst
ist or
Ġleg al
R el
E qu
l lap
in variant
D C
Ġdise ase
}. }
ul er
B M
Ġad minist
Ġem pir
ĠFran ce
ĠP ort
sequ ently
ĉĉ Ċ
Ġmolec ular
ĠAfric a
Ġden sities
ĠD M
@ {
ish ing
Ġme as
E L
op tim
per s
Ġnecess arily
un t
Ġevery thing
Ġtri ang
Ġprofession al
Ġin fer
Ġpla ces
Ġuni versal
ĠB oth
Ġcle an
) _{\
Ġinter face
m i
} /\
red it
Ġm ission
P I
cons ist
ill er
&= &\
Ġtechn ical
Ġbo ard
ĠD uring
Ġdecre ase
ĠT rump
ĠE arth
ĠB rown
Ġtry ing
Ġconf idence
ix ed
Ġt urb
Ġdepend ent
k ra
en ess
ĠDem oc
Ġintegra ted
\! \
Th at
Ġre n
w ave
Ġstra in
i ver
Ġmin or
Ġcontinu um
al d
Ð ¾
Ġman ner
e val
pec ts
Ġtru th
Ġpolynomial s
Ġpur ch
Ġarg uments
Ġsaf ety
Ã Ń
Ġ tim
prop to
Ġin fra
Ġh ope
s ect
Ġmetric s
Ġt end
D ata
ta il
ĠRe view
ma ted
Ġcry st
Ġch urch
Ġdiff usion
Ġfor mulation
ĠA ss
par ticle
a a
Ġd ama
E nd
Ġhom ogeneous
k l
ci ties
Ġadop ted
la ce
a tively
mult line
g ers
set s
Ġorgan ization
{ |
Ġstraight forward
or ter
ĠR el
ad ian
d r
av en
Ġw anted
> </
ĠIn c
Ġbook s
e es
Ġv acc
Ġal one
ti os
( "
Ġinter section
ĠM ost
Ġsur v
if ted
Ġapp arent
ra ted
Ġinter mediate
amet er
IN G
ĠP an
Ġconj ug
footnote size
pec tive
Ġfrequ encies
pt y
199 1
Ġany thing
ier arch
ĠC E
ur l
ci an
os ted
ĠGe orge
ĠZ e
Ġpro jects
Ġcharg ed
ough t
ĠQ ue
Ġappe ared
ĠG old
Ġt alk
on ly
paramet er
Ġwe eks
Ġgener ating
Ġiter ation
ree k
Ġsign ature
Ġbas eline
ĠM at
ĠS i
dif fer
Ġsol ving
ĠB ecause
ni tion
O p
ĠPar ty
d ash
Ġprec ision
Ġd rop
b ed
ol f
$\ \
hi re
b t
C R
ing er
po le
Ġinter act
G eV
D o
Ġremov ed
Ġac cep
] ^
Ġcap ital
ĠD el
Ġt rees
ĠĠĠĠĠĠĠĠĠĠĠĠĠĠĠĠĠĠĠĠĠĠĠĠĠĠĠĠĠĠĠĠ ĠĠĠĠĠĠĠĠĠĠĠĠĠĠĠĠĠĠĠĠĠĠĠĠĠĠĠĠĠĠĠĠ
Ġrece ive
ven ue
Ġfour th
=\ {
Ġtempor al
Ġim m
Ġneutrin o
el ian
Ġexp ress
Ġman ufact
Ġfri end
Ġre asons
Ġsepar ation
Ġr ig
bur g
ar m
Ġcom ment
ins tein
ĠT ime
stra ct
sum ption
ĠSer ies
en a
ĠM ari
Ġelectron s
Ġcl in
Ġorth ogonal
ĠCl ass
Ġoppo site
T T
Ġrefer red
ĠAr ch
Ġmodel ing
Ġm ale
left arrow
st ring
ĠCor ollary
R ep
ĠMich ael
B ar
op es
res p
Ġc ra
c ou
Ã ¼
Ġ ill
Ġdecre ases
ĠComp any
Ġd r
Ġdist rict
Ġanaly tic
ann el
or age
Ġessential ly
ĠMus ic
reg ular
c line
Ġsugges ted
Ġsen sitivity
Ġpart ners
Ġloc ations
Ġindic ated
ĠD on
al a
Ġde m
ĠL ib
Ġas ymm
z y
Ġcandid ates
Ġscenari os
Ġpre sident
ĠC ong
O P
Ġpropor tional
F R
Ġem phas
re pres
Ġg ran
ĠTex as
ĠL ou
Ġindic es
ĠT ru
ir ing
ur ally
ĠI ts
et te
Ġ{ };
Ġstrateg ies
ĠP ublic
c rib
Ġt ro
Ġlow est
Ġh ous
Ġma x
ys ical
m om
ĠSo ciety
' m
tell ig
so ft
P o
Ġmorph ism
Ġs at
lo b
g re
ĠV ir
Ġdisper sion
Ġper mu
}) ^{
qu id
Ġb rought
Ġir reducible
Ġschool s
mer cial
Ġla test
Ġinter view
ĠUn ion
ĠM r
ash ion
velop ment
ĠP r
Ġneut ron
. $$
Ġg lu
R eg
Ġc opy
Ġqu ery
ĠAc ad
ir it
S A
Ġj ournal
Ġmet all
Ġeconom ic
}^{ +
Ġimprove ment
Ġderiv atives
Ġc ast
angle ment
w ord
rim in
ch ain
ĠM ad
A ccording
ĠB ur
lec tive
Ġrespon sible
Ġmove ment
ĠCh inese
Ġallow ing
pa re
Ġst atus
sub equations
Ġcour t
c s
Ġst o
T ra
Ġcult ure
me thod
Ġchallen ge
stan tial
ĠP l
Ġsc ene
Ġadj ac
Ġsub space
Ġcorre lations
Ġpo ster
Ġorbit al
ĠLag rangian
Ġtop ology
Ġop tions
Ġinvol ving
ate lli
ab ase
ess or
Ġn ames
$ '
ĠPro f
P M
Ġcharacter istics
Ġinterpre tation
ad o
si bility
ĠP ost
ĠM art
L R
Ġl ens
Ġreturn ed
Ġex c
ro t
Ap J
ĠSt udi
Ġh idden
ĠRo ad
cus sion
Ġmom ents
G M
Ġwe ighted
Ġsen sitive
ify ing
Ġ ~\
Ġconclu sion
Ġtran sitions
fi er
Ġa cknow
Ġad vers
Ġtra ffic
b ot
con f
../ ../
S ome
se p
Ġsome one
ĠG ermany
Ġn arrow
Ġdri ve
ar ity
Ġti gh
Ġchall eng
Ġgrow ing
v ect
$ }}
pos es
c is
ĠS am
bo ard
Ġg old
Ġimple ment
\ }.
Ġreg ression
Ġdes pite
Ġra tional
Ġin ten
r ating
rins ic
Ġdiagram s
Ġvari ations
tem por
Ġto uch
ĠR oman
) }$.
Ġitem s
H om
r at
Ġmeet ing
oun ding
Ġturn ed
Ġent ries
Ġcol lected
ĠAl gorithm
f ont
L A
small skip
ĠE ven
Ġrep orts
Ġf rac
Ġstrict ly
Ġs n
aw a
tic k
ce il
tiv istic
Ġpower ful
The y
In ter
Ġs omew
M an
Ġdiffer enti
Ġchang ing
Ġreg arding
at ural
Ġr ich
ult ra
Ġaff ected
Ġagg reg
ĠC ons
Ġini ti
ĠS N
V al
et ing
ri an
Res ults
ĠSt ud
ĠW h
B H
ub ble
Ġexpec tation
\\ \
Ġdec ided
ĠB as
Ġen able
Ġ\ {\
Ġb us
Ġd augh
Ġn et
ob serv
Ġto ward
{ .
Ġsetting s
Ġbir th
te en
i tation
ĠThe ir
ĠL y
Ġenh ance
l der
w rit
Ġcom ments
Ġprec ise
pro duct
me an
er ry
Ġenc oura
O ver
Ġtri ple
Ġsim ulated
row s
od ed
Ġcover age
Ġsyste matic
Ð µ
ĠP M
Ġaccre tion
ine ar
ang er
ĠM ary
ĠF ore
ta ted
ĠS al
Ġopen ed
L a
}[ !
ot or
Ġver sus
Ġchallen ges
ay lor
s en
Ġvilla ge
Ġdist ances
im port
ĠI II
Ġorder ed
Ġsur faces
Ġas ser
Ġide as
k ov
Ġemploy ed
Ġfun ctor
d f
C ref
Ġdemonstra ted
Ġpl us
ĠS U
Ġsk y
B ox
p ot
Ð °
fic ial
Ġtraject ory
E s
h ed
Ġrepla ce
et t
Pro position
F A
ĠL ist
ĠP art
we ight
ĠRus sian
u ro
Ġac cept
( );
y er
d ri
Ġf l
Ġdri ving
sc ripts
Ġcru cial
18 0
j o
Ġsh ot
con ver
Ġneut ral
Ġpl ans
nol imits
) }$,
st ood
ĠL and
me asure
Ġrandom ly
Ġrestric tion
Ġs ides
st ration
Ġsch ed
Ġevery one
Ġstar ts
L T
Ġpre vent
P s
Ġre ct
oc ation
}~~ {
ograph ic
** **
in clu
ĠIs land
rac ket
Ġprac tical
ti zation
big cup
as ion
ĠV ic
Ġphot ons
Ġh ierarch
}^ +
Ġwid ely
Ġsch emes
ven ess
ĠH ilbert
H O
Ġt ang
, ...,
Ġsta ck
198 9
Ġtrans verse
symm etric
Ġre action
ti fy
b or
ĠT ur
Ġeffor t
Ġreconst ruction
Ġvirt ual
et ro
Ġcosm ological
Ġopportun ity
m es
P O
Ġinclu sion
ynam ics
Ġsimilar ly
Ġinitial ly
om y
Ġent ry
ari an
M a
Ġw ife
c tic
Ġcont roll
n um
low er
\ }_{
Ġeffor ts
ĠA cc
N T
Ġar ray
^+ $
Ġth in
Ġcam era
Ġex ception
Ġli e
Ġ\ }
> <
ĠSim ilarly
re p
}) =\
g reen
D i
d ensity
Ġcommun ities
ĠSm ith
ĠM ex
Ġc amp
li k
Ġhorizon tal
tab ly
c ut
Al though
b olic
Ġjo ined
) [
T rans
Ġra re
Ġsign ed
T ype
Ġlo ad
\ [\
Ġser ious
Ġ- --
ruct ural
Ġf aster
ĠY our
Ġattack s
Ġeigen value
ĠM er
Ġpi ec
ful ly
12 8
ĠIs ra
} >
Ġsub stantial
Ġinvestig ated
pec ted
Ġb ud
Ġcli mate
w est
Ġmo vie
Ġsp ot
II I
tru e
ĠS to
ĠB usiness
ri a
Ġextrem ely
Ġexpl an
Ġra tios
_{ -\
h old
ĠJ ew
cite alt
ĠServ ice
T e
ph ase
Ġcol lect
ĠGo ogle
Ġeffec tively
ĠW al
Ġn ation
un s
n eg
Ġlik elihood
roun ding
Ġrecomm end
ĠT op
og ram
c oh
Ġmon ot
Ġanaly ze
Ġdefin es
Ġ* /
Ġcover ed
os c
Ġe poch
ĠCar ol
Ġvary ing
Ġm ut
Ġst ories
ĠCent ral
ĠEqu ation
P ol
Ġpossi bly
Ġepis ode
Ġcondu cted
Ġg ene
omorph isms
ĠĠ čĊ
Ġdomin ant
ĠC am
n m
and emic
le ctions
ĠTh omas
pl o
au ti
Ġspec ified
Ġo w
ĠEdu cation
Ġis n
}{ {\
ĠT or
Ġvehic le
Ġabs ence
ĠSu pp
clud ed
Ġser ve
Ġconfir med
ult ure
res ult
Ġpol ic
po ints
form ing
Ġread er
ch ron
z er
Ġben chmark
Ġat omic
Ġprote ct
Ġsc ores
ĠC ath
Ġsay ing
ĠF lor
? âĢĿ
ĠOp en
Ġdefin itions
pro per
\ },
Ġre lig
Ġwork ers
Ġuni qu
Ġres erv
}} ,\
Ġin nov
stand ing
ĠEq s
}~~{ }$\
Ġf light
ĠL ife
y an
Ġmark ed
19 70
form ance
Ġpre t
Ġexhi bit
ĠF ace
op t
Ġrestric ted
new line
Ġconsist ing
L C
Ġtre ated
ar ma
th le
b lock
Ġindu ction
Ġle aves
ĠS D
Ġp as
V i
H T
Ġpan els
Ġext racted
)= (
f old
pon ent
Ġcho ices
ch ing
ĠB al
Ġb ank
Ġsimilar ity
Ġp ip
ĠL in
Ġsh ell
Ġw ish
Ġprop os
C an
use um
Ġop tion
Ġreson ance
Ġperform ing
Ġimp ly
Ġguaran te
Ġv or
it t
Ġsp an
con dition
Ġgo als
Ġcomple ment
Ġcent re
_{ [
) >
N ame
ma ke
Ġquar ter
ĠD u
ĠRober t
] =
ĠS ci
O f
Ġinvestig ation
ĠU V
ĠO ly
Ġprinci pal
Ġlead er
Ġdo mains
O C
ct ors
ĠJ ournal
Ġsimplic ity
Ġis omorphic
Ġuni verse
n umber
Ġhigh light
me mber
ĠF re
Ġem pty
Ġas pects
ch er
k ern
Ã ¶
ĠB ob
i us
Ġanal ys
ĠAfric an
Ġreason able
Ġelectron ic
Ġst ore
Ġprog ress
Ġpl ant
Ġt ail
Ġqu e
Ġspec ifically
ent y
Ġw rong
l oss
Ġvi o
T V
ĠF ermi
N E
m al
Ġfocus ed
ĠS pace
ist an
Ġillustra ted
c en
ĠRoy al
ph ot
Ġcontrib ute
sk y
' ve
at as
ĠMin ister
In de
Ġact ing
Ġjo in
und ers
ĠCl ub
Ġpseud o
Ġbenef it
Mod el
== ==
ĠArm y
Ġattem p
ĠH ill
Ġsp orts
mathbb m
val ued
Ġrepe ated
ĠH en
def n
ĠL o
Ġ ru
Ġspe ech
Ġestima tor
ĠC R
Rec all
Big l
il ing
M ar
mod els
Pe ople
ĠOff ice
ĠR a
fun ctions
Ġh und
Ġappear ance
ĠT om
ĠR ock
Ġf its
Ġbreak ing
Ġlook s
az ine
Ġdiv ided
Ġsur pris
25 0
Ġsong s
Ġsum mer
not in
ĠG rand
Ġp ull
Ġferm ion
Ġgener ator
Ġem o
il ding
Ġfi ber
Ġm ul
Ġconver ges
u a
Ġcharacter ized
st rong
Ġlas er
Ġori entation
leq slant
ĠWe b
Ġorig inally
rid ay
( [
s m
wh en
Ġnat urally
un it
Ġsplit ting
Ġp atch
Ġk illed
Ġrepresent ing
h ouse
Ġver ify
198 8
ess age
Ġin ference
ĠCom mission
i pped
| _{\
Ġs we
;\ ;
c raft
Ġinterval s
r ish
\| ^
com es
Ġalgebra s
ĠAustral ian
th esis
cur rent
R ef
semb ly
Ġdeath s
di ents
Ġassign ed
Ġrem ove
Ġunit ary
c ross
Ġtes ted
dire ct
i ta
Ġstation ary
c as
Big r
ĠRus sia
Ġmed ian
ĠB ig
198 7
Ġcustom ers
Ġl ic
Ġphot o
ĠChris tian
atur day
Ġhapp ens
Ġdomin ated
\, {\
ĠH y
Ġkine tic
Ġma ster
Ġcol d
Ġtrans formations
Ġcat alog
E d
ĠK ore
Ġexci ted
Ġs phere
Ġparen ts
Ġres ource
Ġopen ing
Ġsol ved
comple te
| _
ĠE v
j a
ĠL at
Ġrough ly
c tivity
mit tee
li e
& $
Ġpi ece
Ġcondition al
Ġbal ance
b an
ĠW estern
Ġscre en
u ma
Ġw est
Ġrequ est
A V
pre c
ĠC D
ĠC NN
Ġge odes
O ut
B B
Ġg rand
Ġclos ely
Ġconcent ration
Ġstrong er
P D
w hite
Ġinc ident
Ġlog arith
Ġgeneral ization
Ġch ance
Ġinter ior
d ashed
Ġc odes
Ġst ock
Ġm obile
' $.
S he
, .
F urthermore
A E
Ġprobab ilities
cl ide
h ave
Ġseg ment
sh ift
Ġunder stood
Ġpres ents
Ġempir ical
ch es
Ġcontrol s
ie f
b ro
p osed
if old
Ġosc ill
ĠTechn ology
Ġflow s
}{ }
Ġsta bil
Ġplas ma
Ġsecond ary
z on
ĠU kra
Ġj ump
}} =\
Ġrefer ences
Ġen semble
ĠS und
Ġth ous
Ġfem ale
Ġcluster ing
av a
ĠDiv ision
ti le
12 5
ĠGovern ment
roun ds
b c
flo at
ob s
tit ude
= -\
Ġlaw s
( {
Ġidenti fication
Ġdefin ite
li ography
Ġb lood
ĠA R
Ġposter ior
Ġb illion
Ġc ivil
Ġpriv acy
B bb
de pend
Ġel imin
al ing
Ġcompar able
Ġra il
ex ists
o ke
Ġwon der
os h
ĠEng ine
\, ,
Ġpass ed
ĠDe finition
O ther
ĠG reat
it ar
at o
Ġbenef its
du st
Ġinf lation
Ġdef e
ru ctions
Ġsimultane ously
D ec
Ġcompe tition
ĠH am
Ġpaper s
sp in
ĠA M
Ġch e
Ġd edic
ĠH istory
Ġp le
T wo
Ġinst ances
ar di
ear s
int ro
v dots
ĠJ ose
Ġinvol ves
Ġm iss
un k
M y
Ġfir m
Ġex cell
Ġsubsequ ent
Ġdecre asing
ĠE con
in ction
ĠT our
Ġent anglement
es ides
} ~\
s ince
clide an
Ġrec ords
ĠL ore
Ġreveal ed
Ġamplit udes
ĠM iss
au th
Ġsp ent
Ġinst ant
Ġcompar ing
Ġvis ible
C N
ĠSc ot
Ġsl ope
Ġdiv is
ri tical
Right arrow
Ġcontradic tion
Ġturb ul
as y
ulti mate
ro om
Ġor bits
Ġke pt
Ġplan ning
Ġrespec tive
lap se
ĠVir gin
M o
Ġh ref
Ġread y
ĠJ acob
Ġcriter ia
Ġterm in
al so
Ġcomp osed
Ġcan cel
sec ond
Ġvo ice
Ġpro mo
Ġsh ap
} &\
op en
^* _
uth or
Ġfe as
sy ch
Ġrecog nition
Ġex ceed
paramet ers
Ġco ok
Ġhy brid
Ġoper ating
l vec
ĠFran cis
g ray
} <
con d
D D
Ġdiv ision
ti veness
Ġpur poses
m ode
ĠT HE
ima ge
Ġinput s
198 6
Ġcolumn s
Ġsum mary
ed ia
ra s
pla te
Ġa ug
at z
ist ant
an cing
A nother
Ġpen al
ab a
Ġd t
Ġpers pective
ing ly
Ġf rag
Ġcre ating
ĠDire ctor
Ġma sk
Ġb ary
Ġcomm and
Ġan isot
ĠM C
Ġw al
ĠPo isson
Ġintrodu ction
Ġclos er
Ġcharg es
Ġdistingu ish
ĠP eter
conn ected
Ð ¸
Ġplot ted
ari al
sub stack
Ġat ta
Ġthan ks
Ġf ru
for ce
Ġpolic ies
' )$
po lation
\ -
per iod
Ġtri al
com b
Ġca ref
fin ity
Ġhapp en
Ġde ploy
Ġcon formal
ic ago
Ġch iral
Ġcontrol led
ver b
T C
Ġmod ules
Ġreg ister
Ġrepresen tative
cent ric
Ġtraject ories
Ġan no
Ġd y
ĠE nergy
Ġprodu ces
Ġpropag ation
Ġmar ried
S um
Ġdaugh ter
un ici
| =
ĠIn formation
Ġcover ing
tri ang
ĠTw itter
Ġpix el
Ġre normal
F S
Ġmechan isms
it ness
t z
Ġo il
Ġspace time
over set
ys ics
ta ur
w orld
Ġs atelli
ĠUS A
ri e
Ġli b
Ġhand s
Ġfig ures
are st
Ġlet ter
ĠT own
Ġfin ds
ĠJapan ese
oti ent
F il
ĠM useum
bel ow
th an
Ġo lder
Ġst r
ĠM ass
Ġt run
Ġcovari ance
R S
z ens
g l
Ġpos s
' ll
Ġqu al
pa per
Ġcommon ly
ĠB ill
Ġ labor
Ġaff ine
Ġcoupl ings
Ġcirc uit
Ġup dated
i tations
R I
ĠL ear
Ġmatch es
ra tive
ari o
Ġsa fe
) |\
& -
Ġe ast
ĠU p
al ian
con stra
ic ine
Ġf elt
ĠBo ard
Ġdis app
f l
od ies
Ġs le
co ordin
tri angle
Ġfail ure
hy per
Ġf ans
ag s
Ġhol es
or ial
ta tes
pla ce
ĠTim es
Ġg ate
ĠM el
ĠY oung
Ġm ur
Ġcar bon
p ass
}} )$
it on
f ol
Ġsec ret
Ġext reme
Ġdefin ing
Ġa ware
ig an
j pg
Ġ ..
$ _{\
ĠFran k
h ab
if ies
Ġiter ations
Ġchalleng ing
Ġparticip ants
ak es
Ġland s
ĠFlor ida
Ġli quid
ĠC ase
ide os
h ard
E P
Ġst orage
Ġdiscus sions
ĠSt and
te ct
Ġp andemic
scripts cript
Ġsur rounding
Ġcirc um
Ġcon v
ĠP lay
Ġh uge
angu ages
sum ing
Ġinvol ve
scriptscript style
Ġpl ots
Ġadjac ent
Ġorgan ized
Ġadop t
Ġdiscover ed
Ġcontin ues
' $,
Ġinteg ers
Ġtrig ger
empt y
Ġbro ken
H istory
r g
Ġg rant
Ġembed ded
Ġto t
s ample
ĠJ er
ĠâĢ ¦
Ġfa v
Ġperturb ations
Ġlab eled
ĠA GN
Ġtren d
Ġle aving
o cities
Ġan ni
ĠRi emann
ol ar
Ġpol iti
G A
G o
~ (
ta ges
in y
Ġqu as
Ġspher ical
Ġconven tional
Ġrequire ment
Ġweak ly
Con t
Ġat om
ĠH el
ĠE s
Ġcomplic ated
c ore
ĠDe velopment
ad er
N C
T H
av ity
' }\
pol ar
) ).
] ^{
Ġabund ance
Ġcan cer
Ġsub stit
Ġd aily
Ġ ice
e ven
if fer
ĠSo cial
198 5
Ġsepar ated
ce an
ta min
es ian
A cknow
Ġend s
ig ital
appro xi
j k
pi re
T E
U V
Ġ$\ |
pa ck
Ġf ra
ig er
ĠCan adian
p ost
ma tics
Ġn ine
Ġint rinsic
Ġm ill
Ġcompa tible
Ġbelong s
el le
ĠCom mittee
ĠC le
Ġcom mercial
Ġop in
L M
Ġsol d
ra ise
Ġs un
g ets
Ġsymbol s
ĠV is
Col or
ĠS pa
Ġdraw n
ĠE very
Ġro ots
198 4
in v
Ġext ent
Ġsub t
ul as
Ġac ad
ĠS il
Ġc ub
Ġper haps
O D
e per
pher ic
Ġconf lic
Ġf if
w t
od d
}_{ {\
Ġn one
* \
ĠC as
ĠV an
Ġvanish es
ĠA nother
k ers
Ġclaim s
d eterm
math ds
in st
Ġfor mat
Ġp ages
10 1
Ġ }$
Ġdri ven
l b
Ġpotential ly
Ġpro position
Ġsmall est
Ġsupp ly
re land
ĠDi rac
ak er
Ġfram es
Ġgener ators
Ġp owers
od ay
onal d
du e
ĠQ CD
Ġsm art
Ġnormal ization
lig ible
Ġtigh t
. },
ĠN ext
oot ball
rosc opic
ell er
\\ &
Ġang les
il os
Ġa xi
Ġh ttp
ĠN ov
k ins
ĠC re
th es
l floor
ĠW ay
unders et
Ġarti sts
ĠL os
for tun
lear ning
ful l
)} _{\
ST ATE
ab ove
Ġhar monic
r floor
Ġdis joint
Ġ$ [\
Ġro ll
" )
ten sion
Ġseg mentation
ura ble
Ġreturn s
Ġpub lish
Ġbound aries
ib ility
ĠL ake
! !
G u
Ġext ends
ĠB ank
Ġdest roy
. }\
Ġ ultra
As sume
ĠAcad emy
ĠF urther
Ġp red
it tle
âĢĿ .
}) _{
+ +
Ġse a
ex ist
Ġsubset s
Ġf ederal
B u
Ġ ultimate
Ġ }{\
h l
Ġfin ish
Ġre tri
Ġcollision s
ĠF riday
Ġcol lege
pr ise
ch or
Ġin her
el se
Ġindepend ently
ĠS aturday
ĠG ames
ip ment
at re
Ġarti st
al and
M F
Ġlo ck
ĠG ood
ĠLou is
ote l
Ġdec ays
ĠM any
en c
Ġsh oot
ĠRem ark
Ġre ci
Ġma c
nt z
6 00
T ime
Ġmon it
Ġal le
ĠAs sume
Ġpul se
b ers
Ġread s
ĠServ ices
Ġso ciety
arg ets
ĠO per
H D
ul f
l ot
Ġpass ing
B R
ĠMark ov
Ġey es
Ġs ales
Ġany one
Ġde but
ger y
Ġan nual
Ġellip tic
yp es
Ġre ality
in er
Ġpre par
Ġapp lies
s ed
) |^
ĠC ho
ig ration
ĠMon te
ĠB a
ti fic
ĠT aylor
Ġf ashion
ĠFace book
ĠK ar
ti a
Ġmo ves
'' ,
Ġsomew hat
Ġb order
Ġfle xi
Ġre ward
Ġresi dual
ĠJ ust
Ġnumer ous
alle y
ec tive
) &
ĠS C
im um
b d
A U
t ran
Ġ }}
Ġout come
ĠPe ople
ou ble
I ST
Ġz one
b etween
Ġv ote
tain ment
Ġrec ording
led g
re y
Ġcon e
ĠP C
M T
fin ed
ĠĠĠĠĠĠĠĠĠĠĠĠĠĠĠĠ ĠĠĠĠĠĠĠ
o inted
Ġs ort
Ġ$ $\
li ament
Ġs al
a ver
Ġconnec tions
ine ment
V er
Ġmix ture
Ġanaly tical
Ġhand le
ul ator
Ġqu ali
os sible
c are
Ġver sions
Ġpar ties
\| _{\
G S
ĠMe thod
Ġnear by
z o
. (\
fa ctor
mom ent
ĠOff ic
Ġwhen ever
ĠH aw
oid al
sh arp
Ġfinding s
Ġb ill
ĠL ap
Ġview s
oth ing
Ġsp irit
Ġbrief ly
ER T
] ;
Ġsh arp
Ex p
Ġsuper con
Ġun less
}\ ;
Ġcon vers
Ġre member
clu sions
Ġsuccessful ly
U psilon
]{ .
Ġf ol
ever theless
Ġne ur
Ġw ild
u zz
ĠW omen
ap y
Ġenvironment al
ĠSt ra
âĢ ĺ
viron ments
p x
Ġdat abase
Ġpati ent
Ġf ill
ĠL ee
ate st
fin al
Ġv ision
O L
Ġpartial ly
Ġra d
Ġcall s
Ġpo ol
inde pendent
Ġ& $
Ġcon dens
pl ied
}} }{
Ġconserv ation
Ġst ructural
Ġpret ty
Ġh ospital
ĠS ha
E u
Ġtop ic
os a
Ġstand s
qu ark
Ġste ady
Ġline arly
Ġpeak s
ow ski
re c
Ġcool ing
Ġmes h
oun ted
Ġcaus es
we ak
T op
Ġj our
}) )
Ġpart ner
ĠD ep
A g
v o
i tive
int ing
Ġdedu ce
ti bility
Ġsuff ices
b ase
Ġcor ner
Ġcriter ion
l m
Ġth er
ima ges
)} =
h or
as tern
ĠL ong
Ġb low
the ory
ond ay
Ġtw ice
ĠS P
Ġlat ent
ĠB an
st ruction
Ġdisc rimin
auto ref
Ġim plic
Ġbec oming
ad ed
dec om
t b
Ġfin ished
ps ch
C al
cor respon
R L
Ġ$ <
Ġdis si
Ġanalog ous
Ġsub section
Ġpa id
et ers
p otential
ĠKing dom
Ġvel ocities
ĠCong ress
on ym
bound ed
ĠH or
Ġdis order
Ġcre ation
Ġpro jective
Ġadj ust
c ope
ad ow
Ġ ^{\
Ġd og
c lip
' }$
Ġh op
is y
per turb
l ined
198 3
Ġnon zero
Al so
E ng
ĠP ower
Ġv an
Ġse p
Ġwin ning
Ġp m
ult ural
ĠM icro
ĠW ed
19 60
Ġinc ome
ĠC y
ĠIn stead
ĠSund ay
Ġsent ence
auti ful
ret urn
ĠO F
Ġindu ces
Ġsus tain
Ġemploy ees
Ġhelp ed
Ġpack age
Ġcompe ti
ĠRes ults
requ ency
cep ts
Ġout per
Ġdevelop ing
l ife
Ġs end
Ġk in
R em
air s
Ġoffer ed
Ġlib rary
psch itz
ĠIt alian
Ġdescrib ing
Ġosc illa
Ġcirc ular
ket ball
sub float
}= (
um ps
ĠT ype
ut ter
Ġfor ced
ĠChar les
and a
Ġanaly zed
Ġ{ {\
te ction
Ġtrac ks
Ġra ised
lo ok
ĠW in
}_ +
Ġauto matically
cc c
}}\ ,
}) -
ph en
igh ter
Ġlaunch ed
Ġe th
Ġmor ning
Ġentire ly
= (\
Ġexcell ent
M on
Ġadm its
su ed
cy cle
Ġe mail
}_{ {
Ġcoher ent
Ġpartici pa
pro blem
L iving
comple x
z il
Ġbud get
er g
Ġvehic les
ane ous
Ġph one
Ġres pond
Ġlarg ely
Ġpotential s
cont rol
la d
Ġco hom
ĠPar is
jec tions
G R
ĠCh icago
B i
}} }$
Ġw ire
Ġex cess
A F
im als
par am
ri z
Un der
ab y
la g
Ġdedic ated
Ġwas n
}. \
ult y
). }
Ġw ood
\, .
Com p
t x
Ġbuilding s
( '
Ġcol our
198 2
d z
Ġpop ulations
V M
Ġcorrespond ence
, ~
Ġcorre lated
Ġkeep ing
ta ke
super vised
J ohn
Ġcy cles
or ig
Ġad ver
Ġiso lated
Ġcon jecture
) )$.
Ð ½
}^{ (\
ci a
Ġsta tions
Ġperiod s
X X
val id
Ġhom ot
Ġover lap
vel oper
Ġspar se
ant ly
) !
B I
Ġar ise
Ġro ute
Ġfun ding
\ /
g iven
te ch
A m
Ġde formation
ĠWil son
Ñ Ĥ
Ġm ir
ĠE lect
Sim ilarly
ific ations
Ġhel ps
M at
Ġorgan izations
n b
ĠH ome
ĠA T
ol es
Ġ\, ,
^{ [
Ġbro ther
Ġleg is
g est
Ġsh ip
ĠPro ject
el ines
ator ial
ĠP enn
ĠN a
Ġc row
Ġcur ren
Ġpla te
Ġreal istic
display math
ot al
}( -
Ġhistor ical
B E
Ġima ging
lo se
Ġhear d
{ [
Ġser ver
ard en
Ġconveni ent
tellig ence
Ġcho osing
cal c
Ġcor por
ĠF ar
16 0
ĠC P
Ġcol ors
ĠM ur
Ġgener ality
ĠZe aland
Ġexci tation
re ci
Ġsur ve
o cc
ci ent
oun der
Ġwrit er
Ġtri ed
Ġ ur
Ġconstra ined
Ġvo cal
b ell
ho le
Ġm i
Ġcos mic
Ġprogram ming
Ġcali bration
ĠAng eles
Ġaver aged
vi a
ew ise
Ġfa ith
fram e
Ġl anguages
Ġcirc les
par ti
Ġillustra te
Ġinst al
Ġd uration
Ġlook ed
t ory
Ġcertain ly
ĠAg ain
Ġd war
Ġclaim ed
ĠCh ild
Ġsec onds
oun ting
R C
Ġtri angle
Ġexec ution
symm etry
25 6
ĠEu clidean
Ġp lease
H M
ĠI reland
Ġtherm od
Ã ¨
ĠA I
Ġvalid ation
ili ary
B L
Ġro t
cle ar
Ġimmedi ate
Ġpix els
ĠH a
ĠA st
ĠReg ion
Ġsepar ately
}| ^
$ (\
Ġrapid ly
D T
Ġv ideos
Ĥ ¬
Ġt argets
ĠMan agement
S i
ĠPro v
ĠN GC
Ġgen us
Ġrelax ation
Ġclin ical
' =
ature s
Ġen vironments
spec ific
Ġqu otient
Ġprob e
P rop
sh ot
ĠLib rary
pa ren
Ġ Î
Ġpre m
ĠH uman
av ig
ro ad
ci ous
Ġ til
ĠVirgin ia
Ġstate ments
ĠC H
ĠB ol
Ġrelations hips
ple ctic
Ġinter ference
Ġfa iled
C F
Ġgu ide
V D
Ġembedding s
Ġgir l
Ġfinite ly
g color
v skip
Ġcomp re
ĠMart in
equ ival
0 10
Ġin finity
urb an
B O
Ġbos on
sur face
Ġconcer ns
Ġindic ating
\ }}
el a
por tation
ten ess
ub b
Ġrow s
ĠP la
Ġ ĉ
ĠGe org
Ġintegral s
o e
Ġbra in
ĠW ood
Ġd rug
g i
ĠM L
)\ ,\
Ġle ague
ĠG ar
Ġeas ier
ch en
Ġw ants
elect ric
Ġadv anced
ĠG et
ĠE instein
Ġprim arily
Ġrema ined
sim ple
ou ds
Ġcover s
C ase
Ġsta ges
ĠA ma
Ġref ers
Ġresearch ers
Ġfore ign
do or
Ġpa in
ĠĠĠĠĠĠĠĠĠĠĠĠĠĠĠĠ Ġ
Ġmathema tical
8 00
Ġinvest ment
ĠTe am
p ation
or a
ĠC amp
Ġoutput s
u an
ĠIn t
if ting
Ġseman tic
rr or
at al
fortun ately
Ġun stable
ĠSp anish
Ġh our
ĠDes ign
Ġexpon ent
St ring
ĠD ue
Ġnumer ically
g ency
ĠJ ul
Ġa head
Ġg lass
ĠRec all
Ġar ticles
h skip
Ġman ager
u v
Le ft
re lation
w ater
ĠS k
sp e
ĠEx p
Ġv oid
}\ }$
Ġdec ades
Ġey e
ĠVic tor
Ġreal ized
pl ing
er os
B F
ĠT em
w ill
Ġhyper bolic
b ec
h ow
n ight
it ted
ĠMed ia
ĠB H
us band
Ġst ru
ues day
Ġord inary
ĠChi ef
ĠChampions hip
m ers
u tation
Ġg ather
Ġtru st
Ġsh aring
% )
es tima
c laim
G P
ut ch
ĠAr ts
Ġelement ary
deg ree
cen tage
Ġ !
ĠI N
ol ars
Ġc redit
Ġc iti
ĠSec ret
e ties
Ġfam ous
ĠCommun ity
ĠR am
Ġb atter
198 1
Ġa u
Ġanom al
Ġview ed
se q
ĠG en
Ġexten sive
Ġredu cing
ris is
Ġco oper
umer ical
Ġpro min
# #
Ġ$- $
ĠB r
ĠM ulti
Ġopportun ities
ĠIt aly
Ġupd ates
ĠS y
G ra
}, {\
Ġguaran tee
Ġscienti fic
pec tively
M in
}_{ (
Ġb attle
ex perim
G s
@ {}
Ġpro ves
re ed
Ġsk ills
ĠRec ords
Ġc ities
Ġsample d
pr int
b es
Ġinterpre ted
Ġsyn thetic
Ġb atch
Ġs ensor
Ġtrans mit
ser ver
Ġm m
Ġformal ism
Ġclos ure
Ġdama ge
Ġorder ing
Ġf ish
] _{
Ġfound ed
ĠMe V
all s
Ġexp osure
S N
Ġcross ing
f o
ĠCent re
197 9
( |
ci fic
D uring
ers hip
ĠMex ico
Ġkn ew
^- $
Ġ\ }$
Ġc od
urs day
ĠRich ard
Ġb gcolor
Ġobserv ables
Ġrob ot
s yn
Ġmarg inal
m et
ri age
Ġconsider ation
Ġfit ted
ĠAn y
Ġconsist ency
ĠSci ences
p y
ig ens
tain ing
Ġde fault
ĠOn ly
az z
Ġins er
Ġim plicit
12 3
13 0
Ġeconom y
Ġassoci ation
inclu ding
Ġpo inted
d ers
Ġcon sec
Ġp or
ĠG lobal
Ġdoc uments
E ach
res pectively
ul arities
at ers
Ñ Ģ
Ġinspi red
ĠL ove
ut y
ĠMa jor
pro v
Ġt rib
im ent
ĠSpec ifically
Ġdecision s
ho st
Ġhydro gen
T R
Ġacc es
Ġgu itar
ĠA v
) }^
ĠJ un
ĠC are
ĠM em
Ġexam ine
dist ribution
st one
p mb
Ġend ed
ĠH on
Ġcapture d
Ġperform s
ST M
Ġrepla cing
Ġbusiness es
}$ ).
Ġenh anced
ĠI D
Ġran ges
Ġis land
il er
Ġsh ear
ã ģ
ĠA rab
ĠJ ones
Ġpro tein
lo cation
ĠP ub
us es
Ġdi ameter
' )\
Ex perim
M D
Ġa ux
w rite
Ġfil led
Ġref lection
Ġp itch
ĠPol icy
ilos oph
ĠWe ek
ĠR ail
Ch ar
Ġfil es
Ġbo ost
Ġreli able
C lass
sa tis
G eneral
ĠCarol ina
ĠF ree
ser ies
ro g
Ġp rices
ur t
ĠF estival
ell s
Ġpiec es
Ġwh om
ren ew
H ome
Ġn an
Ġcele bra
) ),
Ã ¤
M ax
ion e
ĠF ollowing
ĠLore ntz
Ġacceler ation
indu ced
ĠM onday
Ġb ars
ĠIsra el
Ġd ream
s ome
Ġr id
Ġequ ipment
Ġexplan ation
ab e
ĠOn ce
po sitions
Ġphot os
Ġins tability
sing le
Ġout comes
Ġrecover y
w er
14 0
Ġcombin ations
B ecause
optim al
Ġour s
um ni
Ġwor st
p redic
ed ding
Ġcoun ts
}} +
N O
Ġprov en
B ack
ĠV alley
ron s
ĠB ern
f lat
Ġstudy ing
ul ted
11 1
ĠH istor
C ur
Ġp ortion
sol id
ĠJo e
Ġcomb ining
ĠW ind
d al
Ġs ave
ĠSh ow
no ise
$& $
E l
em an
Ġne ither
Ġ= >
P L
t ensor
Ġpul s
do main
= {\
Ġcenter ed
): =\
Ġapplic able
Ġderiv ation
Ġmag ne
ri end
Ġinvari ance
' (\
lic ation
center line
L ab
t ree
con v
ĠJ im
ĠG a
Ġsupp orts
ul ing
Ġtrac king
s el
ĠG ame
v able
ĠS us
[ {\
for cement
ti ci
Ġf er
ver tex
Ġdeterm ines
Ġsupport ing
fig s
Ġre l
l r
ĠC la
Ġform ulas
ĠF ootball
Ġneg ligible
EE E
ĠE nd
ach e
Ġhard ware
}}\ \
un iform
di tive
Ġsit uations
ĠOr der
ĠT er
ĠM u
Ġtell s
nes day
Ġbegin s
pl us
Ġar range
Ġsen ior
Ġresid ents
hen sive
Ġre ly
Ġc rim
Ġengine ering
w an
Ġacc ounts
Ġt r
Ġcol lapse
v est
^ +\
i ro
th ree
x rightarrow
Ġprote ction
Ġadv ance
ĠM en
G et
Ġex erc
} ]$
au x
Ġpermu tation
pa city
and ra
Ġfa ces
ul ner
Ġneighb our
Ġvic tim
E V
Ġint ended
Ġmod er
ĠâĢ ¢
Ġhe avi
ĉĉĉĉ ĉ
ord an
ĠCon n
ever al
Ġf resh
Ġloss es
sec tions
Ġele cted
Ġmur der
rup t
ĠS pe
Ġflo or
G D
Ġp il
K S
ĠCar lo
Ġimp ossible
ak a
Ġcon ference
th rough
ĠD C
Ġen ables
Ġinequ alities
ĠJose ph
script style
ĠA D
Ġcli ent
ĠFil m
F ollowing
Ġs ad
Ġh eter
F urther
big skip
top rule
ĠK en
Ġclassi fied
Ġproper ly
is sible
Ġsign s
ink ing
Ġab elian
w as
Ġpar k
ledg ments
ĠT ri
M c
}} +\
de p
] )
left rightarrow
B P
Ġconsum ption
s ym
ĠI V
Ġair craft
ĠJohn son
Ġres taur
Ã ¢
Ġdiver gence
Ġw el
H L
et o
197 7
Ġfe et
Ġp arent
ĠB C
Ġvanish ing
ĠG ener
Ġc atch
Ġintrodu cing
Ġ\ #
Ġgu ess
M ed
Ġcomp ris
}{ $\
ĠCath olic
var pi
Ġgener ates
Ġtor us
Ġf an
Ġdiag nos
197 8
Ġmetall icity
Ġfeas ible
ĠN S
sta tic
Ġear th
de ep
\!\! \!\!
Ġcomp ens
Ġp rison
Ġfac ilities
Ġdes cent
Ġmess ages
d oc
cl osed
A ut
H ar
p op
ĠFor ce
Ġphenomen on
ĠCE O
N on
o ir
al actic
Ġch ampions
ĠR ay
Ġc as
v v
$ =
Ġmolec ules
Ġsymm etries
pol y
},\ \
di um
B o
k ip
is ters
Ġstudi o
Ġhapp ened
s mooth
Ġposs ess
u er
ĠN Y
Ġofficial s
ĠT re
Ġ ly
Ġclassi fier
T ok
om er
ĠE uler
ĠSpec ial
or bit
Ġa ctor
ĠW ater
ĠP ic
ĠAd ditionally
ĠP DF
ra ys
Ġch ec
bib liography
Ġch ief
Com parison
ĠH op
Ġdo or
Ġto urn
ni e
ĠB ack
d ate
lement ary
ĠP res
Ġaudi o
Ġal ter
ur ance
m etric
tem perature
tra ined
Ġmultiplic ation
Ġinfra structure
Ġd et
E X
ari ant
am ber
re size
h ou
âĢĿ ,
Ġconclu sions
ĠO ld
Ġbe autiful
in ity
Ġlong it
}} -
eq q
Ġaudi ence
ĠP ak
197 6
Ġlo ops
y e
ran ts
renew command
uto ff
Ph ys
ĠA sia
ĠL ast
Ġoscilla tions
crib ed
Ġcar s
Ġvol tage
Ġequ ipped
Ġpure ly
Ġman ip
Ġregular ization
tra ining
Ġpro ton
Ġactiv ation
Ġse ed
ĠF a
ugh t
sim ilar
Ġpro jected
ov ing
Ġsignific ance
Ġb an
re le
Ġdri ver
Ġcult ural
}$ ;
ran ce
el la
us tice
}\ !
}} ^{(
ĠS O
itz er
ĠC ross
en berg
ĠAt lan
ĠR et
Ġfrequ ently
Ġed itor
k h
l ast
Ġb la
Ġk ids
Ġatmos phere
_{ {
Ġsec ure
i tial
an alysis
Ġcon cepts
s he
make box
Ġw itness
Ġcop ies
ĠAn alysis
Ġp p
per son
Ġdot ted
S H
c u
ur ies
ĠApp le
}) (
Ġar ises
Ġfeature d
Ġst ret
Ġwor se
sh ort
Ġenc oder
_{ (\
Ġh usband
am i
Ġequ als
consist ent
G E
Ġco ast
Ġreach es
Ġcapa ble
Ġpres entation
s olution
] _
ĠB ir
Sec ond
am ing
Ġanalys es
Ġan imals
ra tio
Ġgeodes ic
Ġel astic
ĠÂ £
Ġmod uli
Ġas pect
Ġsu cc
Ġwar m
u pper
com ponent
Ġd anger
u able
F P
ĠB lue
set length
ĠB re
ĠOb serv
Ġcollabor ation
all ery
auth or
Ġn ice
Ġn om
ili ar
um es
des cription
ĠA wards
m essage
Ġfact s
Ġt ends
r andom
ĠD own
Ġc avity
ani el
' ,\
Ġobserv able
ĠL ine
q q
F M
iz able
big oplus
av al
e ach
Ġadvers arial
Ġapp ointed
}] \
Ġutil ity
ĠT uesday
Ġp ump
Ġthink ing
Ġtang ent
D av
Ġlink ed
Fig ures
}) ;
Ġreview s
Ġsingular ity
resize box
Ġdi verse
Ġ\\ [
Ġdi versity
Ġmechan ical
M ay
Ġne arest
mod ules
ĠS ar
Ġdepic ted
im es
Ġ iron
Ġtechn ologies
c ounter
ĠT O
R T
lic k
form er
b racket
M ark
all ow
Ġfrac tional
Ñ ģ
ht bp
or ough
ili pp
C V
Ġun ity
al f
ĠP en
Vi ew
K L
Ġ( )
ĠMc C
cell color
b ition
Ġpe ace
ĠM ont
Ġspe aking
Ġenc ounter
Ġeffici ently
h el
h olds
Ġatt end
St ar
ĠMe an
ĠM as
Ġimag inary
ĠT r
Ġjob s
alax y
b our
) {$
) /\
ĠSum mer
ĠT a
Ġman aged
Ġdown load
Ġb ridge
EN T
19 75
Ġvari ability
Ġexperi ences
i ance
Ġdetermin istic
ĠSw ed
ĠHen ry
' d
ĠCon ference
Ġam ounts
Ġsee ing
Ġacc um
D ist
Ġappear ing
Ġf usion
Ġc e
197 4
Ġg l
Ġcomm ission
Ġr ating
cate gory
l ind
uch y
od al
Ġg lob
Ġarg ue
ĠF amily
Ġcohom ology
Ġwe ather
Ġa part
DB LP
Ġproof s
F in
ĠSec urity
Ġdef ense
) ~\
ĠUkra ine
G G
ĠB ell
Ġm otor
Ġaccep ted
ish op
en cing
Ġfore st
Ġin vi
Ġrela tivistic
ph one
Ġg iant
ran es
it an
F orm
Ġparamet ri
ĠEn ter
f r
fy ing
Ġlimit ing
Ġper centage
con vex
Ġp ref
la ps
ĠTh rough
Ġcryst al
coordin ate
Ġdisplay ed
Ġsc ored
Ġm al
ĠNew ton
ĠIntern et
ĠMid dle
Ġstand ards
w ho
Ġbelie ved
L ong
ti se
Ġcontinu ity
ĠRe al
ost on
}{*}{ $
D I
}) }\
Ġhol omorphic
Ġb its
Ġen velop
Ġseg ments
Ġext raction
ic an
Ġbig gest
Ġ )$
Ġm iles
clu ster
rac tive
Ġchain s
g tr
con sider
Ġachie ves
, (
Ġs pl
S B
.... ....
E W
c ov
w orth
con j
}$ $
Ġt ag
Ġt ension
hi o
* {-
Ġpropos al
Ġarm s
ad j
Con clusion
Ġsh o
ord ers
Ġadminist ration
Ġleaders hip
bottom rule
un te
in cre
p ur
tempor ary
N ot
ĠA L
Ġcommu tative
d on
' .
Ġt ens
197 3
Ġhelp ful
Ġexpand ed
ĠGal actic
au g
ĠF orm
g ood
up s
ĠAn n
+ |
Ġrem ote
}. $
Re v
Ġaux iliary
Ġrect angle
W hy
ĠA P
up le
Ġclass ic
writ ten
Ġm ountain
bigg l
L o
Ġmanif olds
Ġdiscover y
Ġg un
Ġb log
Ġed ition
Ġre plic
Ġserv es
Ġcli ents
__ __
U p
Ġconcer ned
" ;
corre ct
qu antum
Ġcompu tations
g ls
19 50
Ġcut s
ul o
til ity
Ġpre ced
Ġab stract
Ġs av
b en
ĠCon sequently
ĠC T
Ġmus ical
ins on
ĠP op
Ġbe at
Ġd s
Ġpro test
ex pected
Ġcol le
Ġb ond
ĠS ports
M ulti
Ġcy clic
Ex t
Ob ject
i as
ĠIn d
se par
n ic
Ġpre pared
ĠI ran
spa ces
text style
Ġferm ions
ĠBay esian
V ar
b ecause
col head
ĠRep ort
ĠTh ursday
Ġb id
com pact
), (
Ġf ell
ĠG rant
correspon ding
Ġalign ment
Ġde veloper
f ast
Ġte les
Ġwe ap
Ġe igens
Ġset tle
Ġadap ted
ĠD ar
Ġdis p
Ġhomot opy
Ġdri ft
Ġ= =
Me thod
Ġno tes
}} }{\
v y
Ġaim s
Ġneighb ors
Ġst reet
Ġcl ouds
Be fore
ak i
ĠN et
Ġ\ :
B as
Ġlog ic
lab ility
Ġsh ifts
ĠN AS
atas et
Inde ed
Ġlocal ization
c ers
ĠOr gan
char acter
ĠU s
ĠPol ice
yl van
Ġproced ures
p q
ĠNo tice
ĠD igital
Ġde partment
Ġres istance
res olution
) <
for mula
Ġsex ual
ore l
S ta
Ġso ci
ĠL og
v ate
Ġoffic er
chang ed
Ġensure s
Ġcomple tion
ĠG M
ĠD an
ĠAb out
Ġsyn chron
Ġc la
Ġb oy
Ġn ar
Ġl ived
ĠB ased
Ġacqu ired
Ġalbum s
Ġvari ant
Ġcl ock
an aly
ĠChrist mas
b oth
Ġeffec tiveness
Ġwh e
ar se
ĠR un
Ġnucle i
Ġradi i
ĠMed ical
Ġobserv ational
ĠM et
y al
Ġrestric tions
f requency
Ġconsec utive
on to
Ġf uel
ĠRad io
or row
iti an
Ġbin ding
Ġsatelli te
con fig
Ġd oll
Ġplan ets
it ting
Ġsummar ized
bibliography style
ess el
ĠL ord
ĠP y
us er
ĠL im
Ġ era
Ġcorrect ly
ĠC A
ta tively
Ġs ession
ĠAd am
bigg r
ĠBra zil
Ġdual ity
ad ic
Ġprodu cing
ĠS E
H igh
10 5
ĠStudi es
Ġ$ -\
il t
] ^{\
tain s
ĠN i
back ground
Ġde le
Ġteach er
Ġro les
Ġexpl ored
Ġer g
= #
b ol
en tations
h r
Ġexp ensive
Ġbroad cast
der iv
G AN
c p
Ġs outhern
ĠHe ad
k k
e mb
ch annel
Ġprac tices
sh ape
Ġnew ly
197 2
Ġband width
ĠAd v
Ġcustom er
Th m
ric tion
ĠWed nesday
rela x
Ġconver ge
Ġhom omorphism
Ġ\| _{
Ġp sych
]{. /
Ġh ab
Ġtot ally
B T
Ġthous ands
ĠM ach
ĠB ow
- {\
ĠJ es
Ġso le
Ġexten sions
N P
ĠEx ample
os is
ans as
^ *}
com ment
Ġv ulner
ĠI P
ti st
ledge ments
Ġes cape
n etwork
ĠE U
ĠS and
effici ent
ĠG ir
Ġdifficult y
Ġd amp
ost er
Ġb ene
ount ry
in ian
t ors
ti er
ra tions
os si
continu ous
ĠCol umb
oul omb
Ġcon crete
colon eqq
N L
tion ed
dri ven
s n
c ceed
Ġaward ed
$ ^{\
C a
ĠJ ud
parti te
Ġ\, .
g on
Ġb ed
ĠEngine ering
Ġs ight
ari a
Ġdeli very
^{ {\
des ign
Ġconnect ing
Ġtri p
Ġm unici
moment um
Ġri ver
Ġc um
ĠIn dust
ad i
Ġch air
Ġdi pole
Ġsequ ential
H I
ĠH u
p ed
ĠN on
B ook
Ġfac ili
qu ar
ĠM ah
el ding
). $$
Ġsc ope
is er
ĠM S
Ġcon g
}{ $
+ }
ĠI ll
Ġmark ets
v c
ti ties
" :
y ing
ĠF und
Ġqu bit
ĠWilliam s
ĠF ederal
ĠNor thern
erm itian
Ġtop ics
Ġhol ding
ĠK im
Ġslow ly
ĠL ocal
m ond
ob ject
ĠLear ning
Ġopin ion
Ex ample
Ġ },
ss ue
Ġinteract ing
ĠH ear
c ular
Ġow ner
S ol
Ġsqu ares
Ġn ative
] }\
c ritical
Ġhe ating
u ated
Ġcomb ine
Ġelectro magnetic
ou g
Ġout flow
Ġuni versity
ric ket
Ġattemp ts
1 12
eng er
Ġv ar
o is
ĠJ eff
Ġpl ants
et ary
ĠS outhern
ht b
ou ts
ĠF un
differ ent
Ġapp reci
w ang
Ġoff set
ĠS NR
ole an
ian o
Ġdetect ors
Ġv irus
qu ality
Ġ est
Ġk ing
xy matrix
Ġdeterm ination
ĠLi ke
h aus
Ġfac ility
rip tions
m d
Ġimprove ments
Ġmicro sc
Ġj ets
ĠS ign
ĠF ish
Ġenc oding
Ġnor thern
ĠTh ree
ud inal
Ġsubsequ ently
il istic
Ġb ath
Ġb odies
D on
Ġd il
* }\
sh ell
ĠP A
ĠLab or
ĠL ight
Ġoccur red
R o
}$ ),
ck s
is o
Ġphot ograph
Ġprote cted
lim inary
De finition
Ġis sued
tot al
o on
Ġam pl
Ġflux es
Ġst ored
ĠF ort
Ġt ack
> $
l arg
M ost
Ġme ant
Ġreve als
ylvan ia
pro tect
gtr sim
po sitive
Ġs ale
ĠN evertheless
B ased
vers ely
Ġbr ings
ĠR E
ning s
Ġcom for
ĠAnd rew
Ġan ten
Ġisot ropic
3 60
Ġacad emic
Ġlength s
ock ey
Ġthick ness
Ġplat forms
ici ous
}; \
ĠPh il
ri ers
g lobal
S ing
cho ose
Ġminim ize
Ġdec la
D en
): =
am ond
l brace
Ġhapp y
ch arge
vious ly
Ġdeterm ining
ĠSe a
Ġg ender
ho ok
Ġwall s
+ $
A c
)} ,\
U E
ĠSc ott
W ill
Ġra w
v ectors
) ~
H H
ĠCol or
Ġm ys
Ġrest rict
ĉ čĊ
man ifold
ĠW hy
ĠU N
Ġform ally
sin h
rom e
Ġacknow led
Ð¾ Ð
$- -
Ġcoun ting
Ġfun d
M us
NR AS
S w
Ġmonit oring
ĠCor por
Ġmeas uring
scale box
ĠRe ad
T M
ĠC L
ener ate
ab eth
ĠA ff
S m
com mu
J an
Ġcoun ty
at uring
i tage
}} _\
Ġmod ular
Ġfun ds
us ted
ĠF our
IN E
\' {
Ġhum ans
ĠH D
O I
Ġm ob
f m
or gan
re ds
sid ers
const ant
Ġgrow s
tit le
it o
Ġrelig ious
the ast
ĠT al
st ances
Ġ ?
^* (\
ĠPa cific
& +
Ġrig id
Ġsu cceed
t own
ps on
ĠAd minist
ĠC os
ĠAl ice
Ġlet ters
Z Z
par ts
| {\
Ġconsequ ences
Ġs ti
Ġa p
ĠMich igan
Ġb ins
}$ :
Ġexper ts
Ġsub jects
Ġphenomen a
z i
ĠU l
] \\
M ain
ep ing
ĠSen ate
Ġcri tic
Ġke V
ĠW ho
Ġs tim
ic ation
ĠDe v
Ġcoinc ides
Ġvic tory
Ġter rit
Ġconcer ning
Ġsh ares
Ġcre w
is ition
Ġm el
Ġarri ve
}. $$
Ġpromin ent
ĠC ir
Ġ( .
Ġsym plectic
Ġrespon ses
Ġexperi enced
d ynamic
ex act
Ġv aries
Re ad
all en
ĠJ on
R F
aus s
Ġperform ances
Ġindust rial
b ining
ĠSpa in
Ġoper ated
ula tive
Ġadap tive
ĠR ight
Ġset t
Ġp ed
Ġ ens
ĠI mage
Ġtru ly
Ġcontroll er
Ġc ere
Ġequ ally
ymm etric
Ġocc asion
Ġad mit
Ġh o
ĠC er
Ġtransform ed
> >
ĠLi ber
Ġsp ring
Ġoffer ing
ĠUni verse
ĠS F
Ġknow s
Ġoffic ers
Ġse at
Ġc risis
Ġth read
Ġpo le
Ġcomp ression
ci pl
Ġqu eries
ĠDes pite
Ġregard ed
}{ !
U N
AS S
ri x
ĠG W
$ ^\
Ġarri val
cos h
Ġen tity
/ >
Ġtren ds
Ġg one
as hi
Ġins ight
Ġquanti tative
q ed
on ed
Ġcol lective
}} }}
Ġcompre hensive
omin ated
ov a
od ge
rop ical
Ġl ists
Ġassign ment
L ast
i y
Ġv on
Ġsk in
int en
Ġadver tis
197 1
Ġexponential ly
ĠPro of
Ġcon tamin
Ġrobust ness
) )=
ĠA uthor
t rim
No tice
th in
clud es
lim it
Ġver ified
Ġpip eline
Ġent ered
Ġacces sible
' -
vi et
Ġfew er
Ġpl anned
Ġconflic t
Ġcent ers
j an
i et
C s
p in
Ġv ot
ĠFrancis co
h n
ous tic
ĠT est
Ġwa it
Ġb are
uck y
Ġlocal ized
Ġren der
Ġfavor ite
osp it
Ġdegener ate
Ġsol di
Ġapproxi mations
Ġ urban
s un
Ġregion al
Ġv en
Ġincreasing ly
ab olic
Ġexpl oration
Ġinj ury
ĠCon f
)} =\
Ġpers ist
Ġsc an
Ġcompo site
ĠH o
ach ing
ura ted
Ġh air
Ġsub graph
Ġconven tion
Ġtal king
hom ogeneous
ĠM A
ĠMin istry
}) ^{\
Ġexpla ins
ent ure
Ġguarante es
, }
tis m
Ġconcer n
P N
Ġc utoff
d den
ple x
C I
Ġbranch es
ĠAma zon
Ġsupp osed
Ġmod ification
19 68
Ġsee k
Ġuniqu ely
Ġobtain ing
B D
em i
Ġassess ment
ĠH ospital
ĠĠĠĠĠĠĠĠĠĠĠĠĠĠĠĠ ĠĠ
Ġv ice
Ġaccurate ly
Ġs ell
u ous
Ġsimpl ified
ĠF ield
em ical
Ġdevi ations
m ove
Ġcharacter ization
ĠM ike
Ġjour ney
Ġconjug ate
Ġcub ic
ĠA ND
Ġmin i
ĠĠĠĠ ĠĊ
ĠRepublic an
ĠĠĠĠĠĠĠĠ Ċ
diag ram
}\, ,
s ylvania
Ġsing ularities
men tioned
Ġmechan ics
^{ *}
Ġshap es
Ġpar ad
lin der
Ġsing er
ĠSt an
dist ance
Ġbright ness
19 69
'' .
u si
}) }{
p f
Ġasympto tically
Ġs ter
Ġregular ity
for ma
ound ed
Ġinstit utions
e eq
Ġpo se
K K
W h
Ġl es
stand ard
Ġvari ational
ren e
omes tic
ĠB on
Ġpropor tion
ate ver
Ġtun nel
ĠN ight
r brace
M I
= }
Ġsever e
trans lation
T A
Ġciti zens
Ġasymm etry
âĢ ¢
ĠC ov
ĠM ain
Ġreach ing
um ann
ver sion
Ġexpand ing
Ġph on
ĠCont rol
ĠR ic
Ġfil ters
G a
raise box
Ġultimate ly
Ġtw ist
i en
Ġlogarith mic
Ġm ental
Ġch ose
amp ion
F I
ĠT ele
gra de
ian a
ack now
~ {\
Ġh ers
es timate
Ġre lies
lo v
is ons
ĠI rish
Ġno isy
ĠA sian
ch ester
Ġpol ym
Ġan imal
ĠS hi
}} )\
Ġdec ide
Ġnot ing
F i
Ġexper t
f amily
ĠJew ish
Ġindepend ence
Ġrece iving
Ġcaus al
ma xim
Ġmode led
Ġmarket ing
M NRAS
ne ut
Ġform ing
ĠG reek
g t
ur er
Ġqu bits
di e
ĠD R
A cc
Ġ{ }
war z
Ġfam iliar
Ġimpro ves
Ġmom enta
Ġrecogn ized
ĠSa int
Ġus age
S W
ĠG R
Ġradi ative
en tic
Ġs la
Ġpublic ation
Ġtourn ament
Ġexec utive
- $\
ĠC amb
Ġadv oc
radi us
Ġg ar
ĠMark et
under brace
Ġown ed
ĠS ky
b ing
Ġserv ing
ra p
Ġch apter
ĠGeorg ia
A dd
Ġbas ketball
ĠF l
Ġcl ick
Ġmay be
Ġfa ils
Ġadd ressed
r ically
ĉ Ġ
ĠP rem
h es
Ġmir ror
ial s
def ine
Ġwrit ers
Ġro un
{ |\
ok es
ste llar
K e
Ġp al
}) ^{-
xy gen
| }{\
Ġquark s
Ġsurve ys
n as
aw are
K ey
Ġbox es
st art
~~~~ ~~~~
Ġyou th
or ney
Ġbu ff
Ġanni hi
i ent
ĠB ang
g ar
ic ular
Ġres ulted
p at
( $\
ĠI ma
Ġresol ved
Ġexhi bits
Ġori ented
Ġfif th
Ġaccom pl
Ġnon trivial
or ate
ĠS up
ĠB oston
Ġlim itations
Ġrequ iring
Ġn avig
l anguage
Ġattrib utes
ch est
dis c
ĠL HC
Ġc rime
_{ |
mat ch
G r
Ġidentify ing
si tes
ĠAmeric ans
Ġremov ing
Ġp in
ĠJack son
M E
j et
Ġfla vor
ĠJ ustice
ĠSte p
g ue
T est
Ġa ffor
Ġcheck ed
O O
Ġgra dients
ĠA tt
n ext
ĠA U
ĠStand ard
ĠI T
aba tic
ĠProf essor
Ġval uable
)$ }
Ġ )\
Ġpenal ty
de v
ĠK a
d or
Ġsched ule
ĠA sh
Ġmarg in
Ġa thle
gg ed
tic ed
Ġkin ds
B ra
Ġrecover ed
ĠSur vey
Ġviol ence
ab ric
process ing
rup tion
Ġro ut
ti e
b ury
}$ ~
ĠG ro
il inear
Ġhous ing
Ġk ick
ĠB ul
Ġequival ently
Ġlife time
Ġarbit r
27 0
Ġar ising
it ors
ĠL ittle
ĠCar l
ĠD ir
ĠO k
ĠD E
Ġstr ings
ĠO hio
v acy
Ġdec ade
Ġarri ved
Ġs and
ĠN C
Ġimpro ving
Ġprom ising
Ġre ar
ath an
Ġanom aly
Ġr is
Ġsupp ressed
Ġsu dden
Ġphot ometric
Ġconvolution al
o tes
)$ )
Ġapproxi mated
Ġ$\ |\
ach el
Ġcom pi
sequ ence
Ġsh orter
Ġm ic
Ġatta ched
E very
' }(
B est
ĠLat in
ini tial
as soci
Ġtran si
n it
c ost
Ġcompeti tive
E ven
G aussian
ĠE C
Ġre verse
ĠB ud
Ġin gre
Ġe V
f riend
Ġgra ded
ĠLi pschitz
7 00
G en
Su pp
"> <
Ġbar rier
Ġele v
Ġcomp la
\" {
! âĢĿ
rib utions
Ġpar ity
Ġsh ifted
ĠDemoc ratic
ĠC ivil
ĠF ac
v dash
Ġcomple tes
ol is
L og
re v
ĠQue en
w art
c ated
ĠOly mp
ĠD ri
V ol
Ġa ma
Ġconserv ative
Ġs ket
ĠF ood
Ġag reed
W ork
Ġobtain s
Ġconfir m
li ent
w ords
Ġarg ued
per ty
sc rib
Ġre in
19 67
}\ )
ĠC ast
S a
Ġdis ks
Ġ{ {
Ġun able
ĠKore a
lin ec
Ġimp osed
Ġmulti pl
Ġadj oint
O V
Ġan cient
Ġfeel ing
in to
ĠMed icine
Ġa w
Ġmultiplic ity
Ġprov ing
ak ed
algorithm ic
re a
ĠP i
Ġabsolute ly
F ix
Ġepoch s
ĠDe ep
oh er
period ic
AT ION
Ġk ill
Ġs ister
phi a
Ġdi e
Ġprefer red
Ġover view
Ġreprodu ce
R ed
ĠD un
u ble
ab in
ĠS yn
} '$
Ġsp ins
Ġjud ge
I mage
Ġthere by
diag onal
el ly
+ {\
Ġdiscre pan
}= -
ich let
ĠN am
ang led
ĠIn f
Ġf ear
Ġinstrum ent
Ġs in
Ġvari ants
d l
}) :
Ġin cl
ce q
olog ically
Ste p
iz abeth
Ġdro pped
ach es
Ġwa iting
Ġconver sion
ĠM aster
las g
Ġad ditive
ĠĠĠĠĠĠĠĠĠĠĠĠĠĠĠĠ ĠĠĠĠ
Ġli ber
ĠE r
$ }\
B en
ma y
Ġre tail
ĠPro du
Ġmer ger
th ese
aut y
Ġd im
ĠF ire
ĠD a
n als
ĠP ers
Ġdra ma
ĠM ountain
idel ity
ĠP oint
bound ary
le ts
phot on
ĠP S
Ġext inction
Ġpoli tics
ĠP rime
Ġwe alth
ĠBe fore
Ġf ant
po ol
Ġon going
ri ate
ai lability
if er
Ġoper ate
ĠSim ilar
Ġac id
ĠEn vironment
ĠĠĠĠĠĠ ĠĊ
Ġmotiv ated
}} ^\
Ġse es
ĠJer sey
hi bit
Ġremain der
Ġman age
ri tes
Ġoptim ized
Ġse asons
Ġal umni
R a
sh ow
ist ration
Ġrece iver
Ġre actions
ĠEx ec
Ġtransfer red
bur gh
ree ment
ĠF air
b n
assi fication
ĠN N
Ġscal ed
ĠD ub
Ġinter polation
Ġwin ner
Ġhelp ing
ĠPh ot
ĠPenn sylvania
V is
Ã³ n
) )$,
k g
Ġada pt
Ġsh or
m ix
ĠC oulomb
Ġk id
f ixed
f la
Ġvor tex
Ġpurch ase
Ġmeas urable
oun ger
@{ }}
ĠAm ong
n atural
Ġadap tation
ĠB lo
d h
Ġobvious ly
Ġdesign s
es h
10 2
Ġconstit u
rac le
Ġcharacter ize
on i
Ġsimpl est
ĠV ari
Ġto ken
Ġ( "
ann a
Ġre v
ĠR h
cor r
Ġy ellow
Ġreconst ructed
ĠL ive
cur ve
Ġgre atest
Ġopp osed
Ġdispla cement
Ġneutrin os
ĠS ong
com parison
Ġcapa bilities
Ġsp ort
corre lation
eg o
pa rent
pend icular
lik ely
)$ $
Ġa id
p rim
ĠJ ordan
ĠW ales
ĠB la
sta tes
Ġcra sh
ĠWe yl
ur i
Ġlo se
Ġcol on
Ġpair ing
Ġ( +
ino is
[ ]
Ġs tem
h yp
Ġcould n
ĠB iden
Ġread ers
Ġhierarch y
y o
Ġh a
Ġpres erve
Ġprodu cer
ic ks
ple d
or ous
ĠRep res
fra g
m pic
ay a
ent er
ici ally
Ġs up
Ġvio lation
)} }\
Ġp erman
P G
Ġbranch ing
ĠW ell
ĠM D
Ġi i
ig roup
Ġhypoth es
tic ular
}$ &
Ġsens ors
Ġst uff
ĠJ r
Ġsum s
Ġobserv ing
Ġre venue
ĠBro ok
c op
Ġstand ing
Ġmagn et
Ġfla g
Ġepis odes
Ġt we
Ġ ions
ĠC ard
cos ity
Ġw inter
is si
il lation
M any
ens es
Ġact ors
Ġr ings
11 5
Ġ\\ \
Ġcoinc ide
ĠÂ »
Ġth row
l st
Ġen tities
ĠO x
Ġpass es
ĠSp ring
Ġscen es
Ġfair ly
f mf
g rid
Ġro tational
L U
Ġquanti zation
â Ĥ¬
B oth
ĠFig s
ution al
Ġsimpl er
l ar
Ġmut ual
Ġle af
ci ans
Ġre new
il ly
ĠT eV
ĠPh ilipp
Ġhers elf
13 5
Ġsummar ize
Ġprinci ples
Ġarm y
Ġag ency
g ap
ĠC ro
Ġv ast
] }$
G raph
Ġvalid ity
Ġalong side
ĠC at
ĠK ong
" />
M O
ĠOlymp ics
Ġf estival
ĠT y
Ġinter ests
C NN
ĠB at
( (\
reg ion
Ġfla v
),\ \
Ġinvari ants
ĠPar liament
o ma
Con n
R ad
class ical
Ġseem ed
b x
Ġb io
h s
Ġprov ision
ou red
Ġele ctions
Ġcontinuous ly
Ġsus cep
se en
Ġmi tig
Ġran ging
Ġreal ization
Ġc ro
l t
Ġsh ut
-------- --------
id ance
Ġt urning
Ġcurren ts
f ar
Ġev ident
Ġregard less
ĠK ey
Ġgreat ly
w p
Ġchar t
ĠPak istan
enn is
}} }$}
Ġteach ing
E arly
cat en
do i
ĠCo ast
Ġfall s
}, $
M SE
Ġp rin
Ġaff ects
* {\
Ġatt ended
Ġb ow
v ance
Ġrot ating
Ġconver ted
Ġtem plate
Ġadv ice
res ol
Ġher o
ĠN avy
}\, .
rg b
is a
Ġst rip
arge ted
Ġperfect ly
sc atter
Ġt a
c v
Ġsp end
ĠR ights
ĠK now
lat tice
m arg
Ġgir ls
Th rough
edu led
f g
equ ilibrium
}}{ (
C le
Ġhom es
Ġexperiment ally
G Hz
Ġd rum
Ġintrodu ces
he im
Ġimplic ations
ĠBro ad
à ¥
ĠH ard
d dot
on av
Ġre ti
Ġover come
la tes
). $
ĠT oday
Ġprim itive
P l
Ġmag azine
ĠU se
ĠB S
G roup
Ġyour self
Ġaver aging
Ġresi du
ph y
Ġturbul ence
ĠDef ine
d ynamics
Ġbatter y
ĠP R
ĠC S
ĠW here
Ġaccom mod
ors hip
z es
id ay
Con clusions
f our
ĠBri tain
Ġweek end
Ġarti ficial
Ġcomple teness
Ġidenti ties
P ri
ĠP age
v anish
Ġo xygen
st ance
Ġend ing
[ ->
Ġra ise
ith ub
Ġpro tot
Ġhealth y
Ġl ift
ru gs
b eq
Ġw estern
Ġun like
ell i
S to
ĠVi ew
ĠB l
^* ,
Ġcom pl
Ġinteg rating
ord on
Ġtor sion
ĠG PU
p ublic
t ons
19 64
ual ity
Ġweak er
Ġconveni ence
ĠU r
up si
re ets
ern els
Ġhom ology
ic ations
ell o
Ġdemonstra tes
ĠAir port
nam ed
Ġm ort
ĠSecret ary
3 50
di a
ang ular
5 12
Ġn m
u ing
Ġall ocation
ĠWith out
Ġag es
ĠR en
ĠF uture
Â °
Ġn il
ĠL as
un a
Ġconsist ently
ĠBe ach
m em
ture s
ec tions
ab i
Ġ\ %
Ġcon siders
10 4
Ġhund reds
Ġext ending
Ġillustra tes
Ġun d
T ext
Ġperturb ative
ĠB ru
Ġcall ing
ffici ent
S ym
olog ist
r ceil
Ġass ist
al o
ĠG RB
onav irus
}) +
B er
Ġref lected
V I
im ple
ma king
\% ,
l ceil
ĠB orel
Ġarbitr arily
t rack
pd ate
pot ent
int on
L ocal
the o
ĠY ang
er al
M ich
P lan
w ind
frac tion
elect ron
Ġcon c
ĠK ent
Ġreason ing
nes ota
r k
19 65
Ġdist urb
Ġcate gor
Ġcommit tee
upsi lon
B el
Ġf ul
em s
ĠG ib
Ġpre sid
Ġmar riage
Ġvacc ine
Ġlongit udinal
et ts
M ag
S ource
vi an
er as
ĠN O
Ġpreserv es
ĠP hi
Eng lish
Ġmys elf
Ġas sets
Ġto ler
ad or
ev in
Ġheavi ly
Val ue
Ġm and
Ġfe aturing
Ġquali tative
r l
Ġact ress
h ad
ĠM P
os er
g rounds
}$ \\
Ġan c
P ub
Ġp ot
dire ction
M eV
n ear
Ġhist ogram
ry st
ne ighb
Ġin telligence
pro j
ter ms
ĠH ong
com pa
Ġ rom
| }\
Ġpos ted
fun c
I EEE
ĠW ild
Ġp od
ĠL ow
b les
Ġplan ar
ĠR ou
Ġmethod ology
ele ment
ĠPr ince
Ġc ash
Ġneur ons
Ġredsh ifts
i ers
Ġmagnit udes
B r
the y
Ġsugg esting
ĠW is
Ġfactor ization
On ce
Ġth r
Ġt ables
Ġb urn
Ġbig ger
1 18
s tage
) _\
ab ilities
j e
Ġrec ru
ĠSystem s
es sions
19 66
10 8
Â ©
Ġread ily
ĠF ull
Ġph ilosoph
Ġlands cape
Ġrepla cement
all ing
a ult
)$ ;
)- (
ĠE astern
Ġcy cl
}) ,\
om o
Ġa di
ly wood
as sumption
L ine
Ġput ting
ra tes
j s
Ġexerc ise
ik i
ĠB and
Ġran king
ĠB ase
iffer ent
Ġpro jections
g as
k ens
Ġab use
ol s
Ġco arse
at on
Ġag ric
ĠH an
y ers
od ic
hal f
ĠA li
Ġdef end
L D
ĠV o
Ġanti ci
T ube
Ġinver tible
Ġg amma
ann er
arc sec
Ġreport ing
ĠC ra
O U
Ġdeliver ed
,- .
ĠB oy
Ġdeal ing
Ġmod elling
ã ĥ
Ġabund ances
ĠThe atre
Ġcoher ence
ĠPol i
Ġcont our
Ġassum es
Ġhund red
Ġdetermin ant
ĠEd ward
Ġmod ulation
Ã §
fi elds
Ġcre ates
ent ral
Ġad ds
ĠR og
cont ent
2 20
ĠT erm
Ġevery where
Ġs ac
iz ers
ĠP ra
Ġfor th
Ġex cluded
Ġf o
t arget
An y
itect ure
Ġins ights
Ġgra te
D ue
ru ctive
Ġansw ers
ĠN one
Ġstru gg
L in
Ġenhance ment
ĠD ark
Ġsuper ior
ĠH un
integ ral
d v
u z
ĠL ew
ĠA ut
Ġattrib ute
la h
Ġfore cast
off s
S er
sh ap
ĠOn line
onom y
Ġwas te
ter ior
Ġfocus es
Ġprom ote
Ġa de
we ighted
19 40
ĠAlex ander
ĠM i
ud y
in formation
ula tes
Dav id
s atz
Ġin jection
M N
ĠCa uchy
Ġauthor ities
im g
Ġthere in
Ġcaref ully
ta x
u u
ĠS R
Ġ }(
Ġdi alog
b est
Ġd ance
us s
}} -\
_{\ {
Ġim per
ĠS W
ard ed
Ġarchitect ures
ag ers
ĠW he
. ][]{
F s
ĠD NA
Ä ģ
Ġt um
th on
Ġn ur
Ġcommit ted
w all
Ġinf ection
G O
.\ ]
B ri
Ġdec oder
Ġcaus ing
Ġappro ved
$ ~\
E rror
ĠS tation
ĠO rig
ĠĠĠĠĠĠĠĠĠĠĠĠĠĠĠĠ ĠĠĠĠĠ
Ġde par
enn es
\, $
Ġmus e
idel ines
] _{\
Ġmy ster
v as
ress ing
Ġsquare d
algebra s
Ġst orm
Ġman us
ĠI S
Ġcorre cted
ĠC PU
Ġpair wise
F un
Ġsupercon duct
r ator
ĠT ake
Ġphys ically
ration al
et rical
**** ****
ĠAre a
Ġin jective
Ġnucle us
vi ation
Ġthermod ynamic
ti zed
Ġvol unte
ij k
00 5
Ġsimpl ify
ĠEm pire
Ġthem e
o tic
Ġl osing
e z
.\ ,\
P osted
Ġbelong ing
Ġcont rary
ĠL ater
Ġenvelop e
Ġreal ize
Ġy ounger
Ġprogram me
Ġsw im
}^{ *
Ġrepe at
s ho
val uation
Ġbring ing
oid s
ĠR od
Ġb ases
Ġours elves
D em
ĠA C
Ġmatch ed
rele vant
Ġd a
., ][]{
ĠMus lim
Ġk ernels
ĠM ount
Ġfor get
S uch
et ti
Rel ated
Ġcalc ulating
Ġprepar ation
d b
u pp
Ġcre ative
ĠSo viet
ĠGu ide
Ġevalu ating
c n
19 30
Ġdec ou
Ġag rees
ear ing
A ust
Ġbos ons
ut ri
ĠCom mand
ĠB rand
)\ |_{
Ġformula ted
ĉĉ ĉĊ
Ġconsider ations
no ck
Ġacknow ledge
k ar
ĠB or
W here
Ġg ates
pe ople
Ġb on
Ġinfer red
hook rightarrow
ĠE ar
ĠPlan ck
ĠF C
Ġob server
Ġsyn thesis
{- }
oc y
Ġs ounds
Ġall oc
Ġd ry
10 3
im plies
Def ine
oun ced
Ġgre w
per t
ĠSo ft
Ġrenormal ization
mon y
if ur
Ġremark able
Ġfi la
Ġre write
Ġsym pt
M ean
ro magnetic
eff ective
}: \
10 6
ure au
Ġfra ct
D r
ĠAn th
Ġhous es
Ġterm inal
t yp
ĠIll inois
le ading
flu x
Ġhe ur
}) }{\
Ġacqu isition
Ġneg lect
Ġapp endix
D ire
on ia
Ġalign ed
ma sh
Ġconsider able
Pre vious
ĠSe ason
Ġmed al
Ġper pendicular
ord ance
t rac
Ġinter sect
j u
Ġadm issible
ĠCle arly
d p
Ġestima ting
Ġsto pped
P op
Ġintegra ble
E m
' ]
Ġcl ar
ĠCh air
ĠCon serv
Ġaut omorphism
Ġauthor ity
Ġemer gency
Cor ollary
dot ted
ap ore
Ġme mb
Ġgain ed
Ġadvan tages
C ho
inten ance
ĠN iger
Ġsp ons
Ġtun ing
ch a
sum mary
Ġp ron
Ġcommunic ations
ĠCom mon
Ġbreak s
le in
ĠMicro soft
ĠSD SS
ola te
ĠScot land
Ġare n
Ġcont ro
P H
v ard
Ġexpec tations
Ġsubgroup s
Ġmorph isms
small matrix
semb les
Ġdif fe
Ġmeaning ful
ĠPro cess
N ational
Ġexci tations
ent ropy
Ġtri als
vel ocity
Ġdwar f
H y
ĠP ut
Ġp lu
AR T
ĠK n
Ġsch olars
r f
p us
Ġdimension less
Ab out
Ġt error
m t
Ġprobab ilistic
Ġl if
l ers
ĠAs sumption
Ġcompan ion
Ġosc illation
n l
igh th
Ġra in
row th
Ġs ends
ĠEx perim
A v
g ithub
Ġde eper
Ġpack et
ĠAs sembly
L u
Ġphot ometry
jec tives
Ġoccup ied
st ruct
Ġdispla ys
geq slant
M or
ent ry
m is
D s
Ġglob ally
Ġexam ined
Ġretri e
els on
N i
gra vity
Ġdivis or
ĠC ru
Ġimp ose
Ġoutper forms
com mun
Ġfocus ing
Ġmuse um
Ġmod ify
me tic
ĠV illa
Ġmass less
Ġpossi bilities
ĠB attle
Ġprotocol s
}- -\
Ġs an
C are
Ġc ores
Ġsk ew
, $$
Ġdefinite ly
B lack
Ġmov ies
= $
h d
ĠP ass
Ġdissi pation
ma c
^* _{
) )^
Ġinfra red
ĠC oll
}\ |_{
Ġhas h
ĠT ok
ach us
la del
ĠB lu
s ig
T or
Ġclos est
ĠEl izabeth
Ġanomal ous
} ''
y i
system s
Ġpreserv ed
sing ular
ĠC C
su it
du ate
ĠS ir
)} ]
Ġinter net
ĠV ideo
ĠS ect
Ġst ores
. \,
with out
ĠSte ve
Ġswitch ing
Ġtw isted
Ġiter ative
Ġpoliti cian
Ġencoura ge
ĠOb ama
o z
ĠW atch
Ġatt ractive
d ouble
Ġglu on
ĠW alk
Ġenc oded
ir ty
Ġ à¤
pon ents
ĠR F
Ġsurv ival
Ġno table
Ġparti tions
}= -\
Ġd ots
Ġs now
Ġco al
ĠSup reme
? "
put ing
e igen
G al
Equ ation
Ġg ray
ric s
Ġdri vers
, +
ĠE ff
Ġmed i
Ġconnec tivity
ĠK al
}\ |\
par ing
Ġf ly
Ġown ers
Ġw ww
ph ysical
b os
onom ous
G ener
). \
tis tics
ogene ity
G reen
ĠF ox
Ġph ra
Sum mary
Ġemploy ee
Ġs ending
ĠP et
Ġcl ip
Ġc ensus
s hip
pi x
li mate
sta gram
}: =\
Ġprof essor
ev olution
Ġwould n
achus etts
ĉ ĠĠĠ
Ġassoci ate
ladel phia
Ġsent ences
W S
or ters
res ted
w atch
Ġregister ed
O per
ĠC ode
ĠE P
et nam
ĠS L
ĠStud y
per i
Ġf at
ĠColumb ia
Ġ[ -
Ġgu y
Ġhon or
Ġincre di
Ġs ectors
Ġsur gery
app endix
19 20
Ġpay ment
Ġamb ig
ĠP rin
Ġd omestic
Ġade qu
H ol
Ġar rows
Ġscienti sts
ĠTra ining
K M
ĠK ir
Ġmach ines
^+ _
ĠL an
A ction
ĠL O
ad ap
Ġvocal s
}$ };
proper ties
S an
Ġvari eties
Ġattrib uted
Ġb is
Ġsus p
ĠBook s
Ġcrow d
ran ged
Ġwatch ing
R ob
ĠN umber
Ġin d
Ġphys ic
S ep
Ġfor cing
Ġsubstantial ly
ĠSupp ort
ta ils
over rightarrow
Ġcamp us
Ġdeb ate
ira ble
Ġstream ing
A I
Ġsp iral
ci ted
Ġj un
n p
Ġa wards
Ġwid er
% .
el astic
la cian
^+ (
Ġpar agraph
24 0
id al
Ġanisot ropy
round ed
Ġreflect s
ĠS at
Ġfight ing
{ }\
\\ [
ĠPort ug
Ġvis cosity
J o
Ġco variant
Ġres cal
Ġover la
Ġgeneral ize
ul ties
) )}
$ ]
ĠO s
Ġconsum er
ch arg
us ual
sq cup
b one
Ġoper ational
Ġama zing
Ġteach ers
Ġh un
Ġutil ize
Uni ted
ĠT H
Ġk pc
ĠĠĠĠĠĠĠĠĠĠĠĠĠĠĠĠ ĠĠĠĠĠĠĠĠĠĠĠ
ĠI C
Ġno tations
A O
Ġuniqu eness
Ġminim izing
r ats
the ore
Ġra y
Ġear ned
Ġass istance
ĠAn ton
Ġrecomm ended
Ġbal anced
pl ots
ĠD aniel
P art
Rem ark
Ġspatial ly
Ġrece ives
Ġdou bt
ã Ĥ
ĠM arg
lu ster
Ġcons ult
W orld
Ġw ins
Ġflexi ble
Ġexplo it
ĠD er
Ġmembers hip
an chor
im eter
M ap
ĠBu ilding
U s
Ġleg end
Ġob sta
Ġh ospit
dep th
| $.
ĠD ra
ub er
V s
ĠRiemann ian
Ġther apy
A ss
om eter
Ġb row
Ġpreserv ing
bas ic
Ġfootball ers
Ġwire less
ul atory
ĠRe v
Ġspec ify
Ġpartners hip
Ġeven ing
triang leq
sc ope
in n
Ġworld wide
nu cle
ev ent
ce ived
Ġb omb
p ress
Ġpol es
app ed
Ġvari ed
opy right
Ġmin ute
al ed
str ating
b ad
Ġmat ters
Ġmoder ate
Ġcon caten
stra te
Ġ\ )
ĠDav is
Ġp y
Ġif f
ĠM O
p en
is ations
Ġs ou
Ġsc oring
Ġconvers ation
Ġaff ili
ĠChild ren
Ġbre ath
Ġst at
19 63
Dis cussion
Ġtrans action
Ġpre liminary
Ġins urance
Ġwe ar
Ġ$ ^
fi ers
ĠD utch
Ġatmos pheric
Ġcon test
Ġf ellow
Ġvo tes
19 45
M B
19 62
Ġcon temporary
Ġinter fer
Ġinnov ation
C ap
Ġsa ke
e matic
th ew
li ers
tabular newline
ba tim
ĠM ill
}{ -
ĠSt ory
No tes
T D
Ġc oding
ĠP as
Ġo x
Ġjus tice
Ġdo ctor
e u
T P
rac tions
Ġcondu ctivity
check mark
[ ]{
de te
ĠApp ro
f ollowing
Ġpr int
L em
ak s
Ġh otel
S ur
Ġintegra te
act ing
r b
Ġes tate
oot stra
ĠMin nesota
~~ ~
out put
rosc opy
Ġprior i
ĠCh apter
ĠG Hz
Ġmin ister
ĠA uto
Ġpro xim
ĠÂ ·
Ġconsum ers
Ġfar m
Ġat tract
Ġ }_{
ĠRef s
}} ;
Ġindic ator
id ents
Ġpoint ing
ĠLe ad
Ġhon est
Ġacc ident
D ep
ag a
Ġshoot ing
R et
Ġinstrum ents
ĠI l
k t
ĠE le
p ality
ck et
E Q
ĠM ath
Ġguarante ed
Ġad ult
Ġpublic ly
Ġac oustic
n one
^* $.
Ġr ural
A ug
ĠS ho
u ition
Ġpil ot
a ctor
Ġemission s
Ġpar abolic
Ä ĩ
W ang
Ġvis ited
ĠTh ose
r v
Ġdiv ide
Ġwh atever
Ġreg imes
Ġinfinite ly
Ġscre ening
Ġcarry ing
2 10
T ru
@ {\
ĠS ED
ici ties
Ġemer ging
ĠH art
de m
w ich
Ġauto matic
ad joint
n ull
J ust
ĠAnd erson
ĠG l
Ġmin ing
are t
Ġbary on
}^{ -\
Ġmark s
ĠA S
Ġroun ds
T ech
or b
App endix
lim in
Ġauth entic
H R
Ġmod ulo
Ġmes on
. ]
ĠAg ency
ĠAdminist ration
Ġexception al
Ġf illing
n ecess
Ġa ds
Ġca ught
re view
Ġelect rical
ther mal
ĠCo oper
Ġc r
Ġremov al
men tations
;\;\ ;\;\
' _{\
it ro
fil ter
vi ve
Ġ( (
Ġun likely
ĠTh om
G W
Ġdev oted
ynam ical
Ġhistor ic
Ġtriang les
B a
fol io
b ited
Ġjo ining
ĠL ook
Ġh its
ĠJ ean
ĠF act
/ .
Ġsch eduled
Ġbund les
Ġdiff ers
ĠA ge
ur ities
g ov
B N
Ġstructure d
Ġb ag
Ġwind ows
ke V
Ġm ig
Ġemphas ize
Ġgu idance
ĠM ater
v ents
Ġle pton
Ġcrim inal
Ġindu ce
ĠDir ichlet
M ac
fit ting
ĠTh ough
w al
augh t
Ġsh r
S erv
ra q
ĠP lease
Ġv oting
Ã ±
. âĢĻ
ĠWind ows
Ġmo tions
ĠTor onto
Ġneg oti
amet ers
Ġdra ft
ĠCorpor ation
|\ ,
Ġtit les
ĠCM B
ĠFore st
Ġdifferenti able
Ġdef ect
par se
\ @
ĠF lo
ĠY es
Ġas king
ĠEx t
ĠExec utive
Ġtim ing
}} |
Ġhear ing
Ġmotiv ation
ĠW rit
ĠC F
ĠK h
Ġion ization
L ie
Ġsurpris ing
p es
V ari
W A
Ġexp osed
con c
inc ar
sem i
E A
leg al
se x
Ġcoun cil
Ġwavelength s
Ġma pped
ether lands
Ġhierarch ical
Ġre min
t ration
l vert
D own
tra in
^* )
Ġb ass
Ġb et
Uni versity
ĠW i
Ġlist en
Des pite
te t
! }
' +
Ġa fore
R i
ĠS on
te sian
repres entation
Ġhead s
z im
Ġcon cluded
12 6
ĠIn teg
Ġtransform s
Ġalle ged
Ġre pair
let ter
Ġcomplex es
ĠS af
ai re
E F
Ġpla in
Ġinver sion
In tern
Ġsp ont
Ġsc r
Ġdefe ated
chi ve
m orph
Ġins p
ou ri
d g
ĠGovern or
Ġfilter ing
ar ticle
Ġparticipa te
flu id
am big
Ġover head
Su per
ĠS FR
Ġpa int
mer ce
be ing
Ġtra ding
Ġopp on
Ġhar m
app ing
Ġris ks
Ġpolar ized
Pro b
Ġspect roscopic
% ,
Ġ& -
di ted
no align
ĠP ay
exp and
ĠAd S
Ġsee king
Ġmain tained
co in
le ton
ĠN ic
qu ote
ĠYou Tube
17 0
Ġin direct
ul pt
Ġlo ved
14 4
ine q
da p
s ame
ab out
c ard
ĠL ink
ĠSt ring
th ur
Ġdem oc
Ġmanufact uring
ĠH and
Ġturbul ent
Ġcaref ul
Ġdestroy ed
ĠVictor ia
P ath
ĠW at
Ġdamp ing
Ġconstra in
s ys
00 2
ut or
Ġoptim ize
a tivity
ĠPh ysics
H er
Ġsh ips
) }}{
Ġso ph
com pare
ĠG r
ĠN FL
d m
bre ve
Ġe at
ĠS pect
ential ly
Ġcircum stances
Ġtrans it
ile y
Ġrespon sibility
b ow
Ġevolution ary
R equ
spect rum
Ġperson nel
cc er
ĠIs lands
ĠOn t
Ġad ults
Ġconserv ed
Phys Rev
z hang
riz ona
Ġresol ve
ĠL td
Ġb ubble
Ġpredic ts
=\ ,
ĠH ay
ai ve
Ġrail way
Ġrank ed
Ġc us
ĠA venue
ĠR L
ĠB ad
Ġsim ulate
b is
to gether
Ġconstruct ing
G F
conn ection
Ġestablish ments
ĠN atural
Ġcons ensus
Ġmagne tization
Ġinvest ors
Ġcom edy
Ġti dal
ĠPa per
Ġsp ending
sec ts
Ġfru it
Ġint ra
ĠF inal
ĠMass achusetts
Ġcounter part
Ġst reets
Ġcapa bility
Ġrequ ests
Ġcy lind
ĠR ome
ĠW all
p et
Ġneg lected
Ġg aps
nb sp
Ġz eros
Ġr ising
ok ing
por ted
enn y
ĠE th
Ġpo si
irt ual
ĠB all
T F
ver sities
Ġf abric
]{ @{}
| ,
Ġcontrib uted
Ġdraw ing
^* $,
Ġbi ological
bas is
ever y
h h
ĠFigure s
ĠD O
ĠE M
Ġaccom pan
y les
Ġt argeted
Ġpl astic
ĠF i
Ġwill ing
Ġs quad
l c
able d
Ġh ur
other wise
= [
ĠĠĠĠĠĠĠĠĠĠĠĠĠĠĠĠ ĠĠĠĠĠĠĠĠ
est yle
}{ .
rep rene
) ]{
Ġv eter
pi red
Ġexc iting
con sin
ĠB R
pres erv
S ystem
Ġconsider ably
u its
&& &&
Ġfe els
im od
ĠG alaxy
ss on
exist ence
gh an
E ff
L AS
ĠB BC
Ġbehavi ors
Ġdistingu ished
spe ed
Ġgain s
Ġec centric
Ġlic ense
Ġcompar isons
C at
des h
ver si
ir s
esting ly
ĠSan ta
H P
Ġinstal led
om ics
ĠH as
dec ay
Ġt ab
yd ney
as ym
Ġasymm etric
an th
vers ary
ĠTru st
pm od
Ġin er
Ġf inger
Ġmod ulus
yn man
ma kers
Ġver ification
ra in
Ġgrow n
iction ary
s g
Ġ/ **
Ġs ke
f li
Ġincorpor ate
H u
dic tion
Ġent ering
f ac
Ġc red
Å į
H is
al go
Ġbelie f
10 7
ĉĉĉĉ ĉĉĉĉ
Ġmod ifications
Ġapp s
equ al
11 4
Ġla ugh
m r
Ġsuper vised
eta ils
Ġdoc um
U K
Ġb ounding
Ġsucc es
Ġcont raction
Ġmer ely
in ations
Ġc ards
19 61
Ġso il
Ġcy linder
inf o
if ier
sh op
Ġto kens
Ī Ĵ
Ġreson ant
)^{ -\
es tab
Ġpredic tive
L ear
Ġd rugs
ĠMa the
ĠH ur
)}\ \
ĠChampions hips
ĠB esides
lic ations
m iss
ĠV en
Ġin coming
od s
o pher
tis tic
ĠThe ory
Ġav ailability
Ġincorpor ated
Ġor g
ĠC u
Ġsil ver
Ġpas sion
ma k
ĠG raph
Ġsle ep
ĠP ur
Ġeduc ational
op ed
'' $
ĠColor ado
âĢ ī
ĠI o
ĠA ction
}^ -
E vent
F W
Ġreson ances
Ġteles cope
ĠT R
Ġnorm ally
ĠH ubble
ĠH om
ag ues
9 00
fact s
ĠH ad
Ġsyn thes
cas ts
V P
Ġcor ollary
Re al
Ġa per
Ġno ticed
$ {
ut s
ĠV in
ul um
Ġrela te
Ġsl ot
Ġat ten
Ġestima tors
ob tained
ĠA u
C B
ĠM iller
re ll
ĠP lat
gra d
Ġfi led
Ġrestaur ant
Ġret urning
Ġpost s
l ighted
ĠT i
y si
@ \
g ate
ĠM I
Ġver sa
" );
12 4
ĠNAS A
tikz cd
H a
Ġfrac tions
Ġvol umes
ĠFor d
ann on
Ġgood s
Ġcomplement ary
ĠC lin
Ġke eps
Ġqu en
ar on
Ġmiss ed
Ġy es
Ġcont ours
ĠPh ys
Ġar ts
ĠEcon omic
Ġsympt oms
Ġcorpor ate
Ġy ards
Ġshe af
Ġgre y
al la
ow a
AN D
c b
il st
ĠH ou
f ts
ow ed
ĠG i
ĠL es
Ġutil ized
Ġgradu ally
' }{
Ġhab it
Ġdro ps
Ġgra in
th al
Ġra ys
ĠE ric
ĠE vent
Ġwal king
ĠOx ford
Ġo cean
vari ate
. '
B G
Ġan onym
enn a
ar o
$\ %
Ġup coming
Ġrecogn ize
vol ume
Ġab and
Ġf iction
ĠS ym
tag on
ĠS earch
H A
Ġlabor atory
ĠOffic er
r vert
ph ab
ĠT es
Ġinterpre t
N Y
==== ====
ĠPro blem
ma ster
Ġconsequ ently
er on
ĠE mer
pl er
ater al
] ,\
ER S
C ons
s d
Ġpropag ator
S ign
el o
Ġnon negative
Ġafore mentioned
Ġsepar able
Ġdiscrepan cy
our se
ed ing
ĠR u
ð Ł
ĠH amilton
ĠIn stagram
Ġcombin atorial
Ġsum mation
en um
tz mann
Ð »
Ġ lying
pro ve
Ġres c
ĠBer lin
scal ing
Ġexclu sive
Ġb ol
Ġkine matic
in ality
conver gence
Ġdanger ous
H F
da ble
t urn
Ġcali bra
math ring
Ġfac ing
Ġpul ses
Ġquanti fy
Ġsupp ression
,\,\ ,\,\
eder ation
y y
Ġevol ve
ĠW ang
Ġremark s
T I
T em
au di
Ġneighb oring
ra it
Ġfound ation
Ġc og
T L
Ġsem igroup
as sum
ĠS cienti
ĠN ick
k u
qu ot
Ġst one
b v
Ġexten sively
Ġste el
Ġgraph ene
Ġc s
depend ence
ĠHistor ic
ĠSing apore
Ġcook ies
f ollow
rela tivistic
S outh
Ġpoliti cians
Ġm outh
ĠProv ince
Ġbur st
Ġh osted
Ġar row
un ov
ĠN E
ĠGold en
Ġle pt
ĠPhi ladelphia
ĠT urn
Ġsn ap
Ġste ep
Ġapparent ly
L ag
Ġexp an
ĠReg ister
Ġlog ical
Ġsc ript
Ġt ub
e a
Ġexec uted
Ġeas tern
ĠCamb ridge
I J
qu anti
vi ally
Ġe p
ĠDis ney
ĠC V
ĠVi etnam
ric ts
}\ {
scal ar
ĠS A
CD M
Ġcommit ment
Ġmaxim ize
st ant
tra ce
ĠBan ach
Ġc asc
pg f
Ġb anks
Ġtal ent
Ġsole ly
S cript
Ġplan es
ens ing
) }^{
Ġsearch es
a verage
ĠC ountry
Ġannihi lation
rib uted
ession al
Ġst range
ĠSto ck
Ġneighbour hood
C y
ĠD aily
Ġmon omial
ĠA B
N G
on ically
Ġoccur rence
ĠAn ti
un ning
R G
Ġme ets
Ġsh op
ĠN P
Ġtw enty
vari ance
' :
Ġsoldi ers
Ġf ounder
Ġstatis tically
. }.
im p
C re
Ġdecre ased
Ġt on
Ġinflu enced
Ġadvertis ing
Ġdest ination
Ġsuff er
ian ts
Ġ$( {\
ĠS n
_+ $
D L
Ġb rown
Ġhealth care
cep tions
la tive
Ġmill ions
ll ll
M il
ma ch
we b
ĠR aj
Ġb ifur
19 59
le e
Ġhost s
$ _\
reg on
Ġsuper nov
Ġful fill
tit led
Ġcry pto
Ġgene tic
Ġminim ization
)\, ,
Ġanaly tically
s is
ĠS quare
Ġs ought
vi o
math ord
ĠOther wise
\% .
Ġkn ot
Ġtheorem s
f eld
con text
Ġprior ity
Ġasser tion
cou pling
Ġvot ers
Ġre volution
25 5
D u
se ason
Ġsure ly
Ġdeveloper s
ĠMag azine
ĠW as
Ġco ff
Ġen rich
Ġshe et
R us
Ġm ild
Ġweap ons
ĠPub lish
an es
ĠC all
$ /
qu et
Ġcar rier
. }}
p b
Ġ ),
ĠTh ird
ĠR om
Ġar rested
}} }(
ces sion
}=\ {
Ġpicture s
Ġfi bers
Ġoccur ring
spect ral
ĠE ll
M W
var sigma
J u
K E
ĠĠĠĠĠĠĠĠĠĠĠĠĠĠĠĠ ĠĠĠĠĠĠ
Ġaddress es
Ġsol o
s ale
it ons
ĠB lock
ĠB ridge
]{ $
Ġsh adow
ĠMal ay
s tation
and y
ch ild
Ġtro ops
Ġast ron
over s
k pc
vanish ing
Ġfacili tate
11 6
w s
el led
Ġacc ordance
ĠF ix
Ġdise ases
Ġh em
Ġreserv oir
ps frag
Ġsur jective
Ġemo tional
re ct
{ -\
Ġth orough
ĠF L
] ]
| <
pres ent
Ġreti red
ou ch
Ġag encies
Ġc f
Ġprocess ed
Ġstreng ths
ĠD oug
ĠT ai
Ġdecla red
Ġselect ing
C ross
Ġto wer
12 2
Ġmanus cript
Ġhypothes es
ĠS everal
Ġfermion ic
. -
ĠH ung
Ġspar s
ĠN ations
11 3
Ġdiffic ulties
c ount
Ġtra p
oc or
Ġmolec ule
op ing
1 19
lim ited
Ġclub s
S en
10 9
Ġpers ons
ĠN ash
Ġanalog ue
Ġtriang ular
Ġanaly zing
ver gence
bi ased
Ġfluct uation
Ġoscill ator
Ġcut ting
p ub
linec ite
eck er
D el
par tition
ĠN etherlands
ah ler
}) \\
f p
Ġle ver
ĠC laim
ĠG L
Ġprom pt
33 33
Ġf ron
pon se
)$ :
Ġpass age
Ġtens ors
\ ).
ple t
s eg
Ġbin aries
er en
Ġillu stration
ĠCur rent
ĠLap lacian
Ġb rane
11 7
Ġreconst ruct
_* $
In put
Ġcol laps
Ġref inement
Ġdec line
the ir
Ġm igration
g ot
Ġpatch es
lim sup
ind ic
Sim ilar
ole v
ĠR yan
id ers
n orth
t re
l ang
ĠAl tern
ĠT ro
f alse
s at
Ġfac ed
Ġas sembly
f ted
Ġsto pping
c lose
z ech
Ġmag ic
W W
ĠY et
}} %
s v
ĠBri an
Ġregular ly
Ġdec oding
ij ection
par a
Ġde als
Ġstri ke
R P
Ġgran ted
deg enerate
Ġelse where
Ġw ra
col l
ur g
Ġsat uration
Ġh ang
ro ot
ĠPol ish
und le
ĠIn s
bour ne
Ġcol ored
ma ps
F ull
Ġ= &
Ġfun ded
har monic
Ġgu ys
ic ide
Ġspeak er
Ġto m
Ġ& =\
ĠT en
ĠPol and
ĠOnt ario
" |
Ġb old
U M
ĠE nt
ĠG ene
ly n
ĠG P
ĠLew is
12 1
on ormal
Ġdevelop ments
Ġprovid er
sch eme
19 56
Ġan satz
Ġt rim
new s
)} +
Ġpre pare
path y
Ġdef ects
\% )
Ġg ro
B s
ĠY uk
approxi mation
Ġmon op
Ġevol ved
Ġred und
hold ers
tific ate
lab eled
cy cl
Ġpick ed
Ø §
j our
ak h
Ġjoint ly
par ticles
Ġimpact s
ĠP rim
Ġelimin ate
os ystem
Ġd ates
Ġpre gn
ĠW el
ta ken
( |\
ĠW ars
ĠC ub
Ġcontrib utes
Ġtrac es
P ost
m ons
or ption
R edu
Ġapp oint
Ġoff icially
Ġel ig
ĠA z
Ġb ought
Ġs elling
Ġlo an
{ #
Ġcum ulative
ĠR os
Ġk illing
ĠI raq
f ound
Ġsustain able
O h
Ġsing les
Ġappe al
Ġattemp ted
Ġmicrosc opic
19 58
ra ge
Ġe ase
Ġto ugh
Ġperm ission
bur st
fer m
Ġl um
Ġsens ing
Ġdist ortion
Ġb aby
Ġw ine
ro tate
iam i
Ġseman tics
Ġpurch ased
Y es
Ġcl im
ĠMax well
g al
Ġr ide
T aking
Ġrac es
New s
Ġdemand s
id u
Ġtrans lated
la v
ĠS till
Ġdis ag
Ġtrans portation
Ġhor se
eng ers
sid ed
refer ence
con e
Ġreli ability
Ġpoly top
Ġcor ners
Ġadi abatic
Ġcar ries
Ġo mit
Ġh aven
pro pag
] =\
big cap
) );
ĠR ose
Ġlabel led
Ġspan ning
Ġma intenance
in it
id ae
ĠDe ath
olog ists
X Y
shap ed
g ame
Ġvisit ors
)+ (
P ic
ĠS S
Ġbos onic
ver batim
Ġsur prise
ĠBrown ian
ĠHar ry
Ġanisot ropic
{- .
f und
ĠT aking
mid t
ĠB ox
L arge
Ġmaintain ing
ut en
k ernel
ĠS mall
){ $\
I E
g auge
ĠC reek
Ġcapture s
ĠĠĠĠ ĠĠĊ
}) +\
end ar
rup ted
ĠMar sh
Ġri val
Ġtransi ent
2 30
14 5
Ġ\ ,\,
Ġgra de
Ġaim ed
Ġperman ent
)\ ;
ĠSte phen
Ġsl ice
Ġign ore
Ġtrans actions
ab ling
Ġachie ving
12 7
ĠKore an
ĠA mb
d c
Ġass istant
Ġbe ar
ci ally
Ġdec or
Ġop ens
ul se
Ġadv is
c z
ĠL P
par ty
Ġmon itor
Ġchampions hip
Ġd elta
ĠNe umann
tis tical
Ġback ward
Acknow ledgements
Ġgra v
Ġout lined
h ot
ĠScot tish
math rel
equival ent
Ġint ui
}^{ {\
sch ild
ĠDe ad
Ġmob ility
Ġt aught
n or
ĠCap ital
Ġmu on
Ġar ith
ĠWis consin
F ree
ĠS ydney
ĠL yn
)= -
Ġto x
Ġtra dition
Ġprovid ers
ĠMo on
Ġsignature s
ĠD onald
ennes see
N umber
ĠG er
4 50
qu bit
dire cted
Ġfrequ ent
M id
Ġprov ince
ha o
}} [
ĠCov id
ur is
Ġmonot onic
b rane
ĠCh ang
ĠO cean
Ġdegener acy
Ġcomputation ally
Ġfall ing
li ve
commu tative
on linecite
Q CD
ha w
Ġpro ud
ĠS ri
Ġd ic
ĠA rizona
Ġstrateg ic
Ġsta ke
Ġt ropical
ao tic
IF AR
,\ ;
Ġhand ling
Ġparamet ric
ang a
Ġin formed
t ask
Ġre b
pa ted
O ff
Ġwin ds
\ ),
19 52
observ ed
Ġp un
ĠAl f
or al
Ġb ot
Com bining
_* (
ĠPh oto
y ard
Ġ tick
ĠS Ne
mid dle
ctor al
à ¸
In teg
ĠW inter
ĠBel g
Ġbase ball
Ġ ic
Ġign ored
Ġnews paper
00 3
back s
a way
19 57
Ġsuff ered
ĠAr gent
ĠUn fortunately
Ġgen u
C hen
Ġfac ulty
=\ !
P b
V V
Ġte tra
Ġpreced ing
E G
M s
ĠL A
$ ^{+
Ġinter ven
O ct
ĠT an
si e
S yn
}}( {\
al most
ere f
Ġte en
Ġlet ting
Ġsub spaces
b us
Ã¡ n
at om
Ġscatter ed
zim uth
Ġti ssue
os it
Ġp ion
ro ke
Ġor ange
Ġw rites
Ġlat tices
ol o
Ġhigh lighted
Ġg alactic
Ġcour ses
ĠC orn
con ditions
Ġ tic
Cur rent
Ġanten na
Ġun changed
_{ *
Ġcomb at
ĠDen ote
w ing
ni tive
ĠF A
-\ !
Ġbi partite
Ġqu iet
fill draw
Ġbe auty
Ġhouse holds
Ġper i
ĠMod ern
ploy ment
Ġti p
ĠLa ure
rm s
}$. }
Ġtri es
Ġsad dle
en o
Ġax es
s ampling
in der
Ġp ric
coh ol
ĠL ady
f ront
s qu
ĠSch r
associ ated
h op
Ġdo se
F G
ĠS ab
DE s
ĠSh ort
Ġrel ating
)} +\
et rically
Ġsp oke
se lect
no tation
eg as
gy pt
ĠK o
limin aries
Ġadj usted
Back ground
Ġrele vance
)\, .
Ġc ricket
Ġhouse hold
m us
Ġw ing
Ġreg ret
ĠJes us
Ġ$( -
Ġt ube
au er
Ġb lu
}{ (\
Ġse ats
Ġball s
m icro
ti ous
Ġc up
Ġn ega
Ġsub tle
Ġtrans mitted
Cle arly
Ġbas elines
d ark
^{- (
os ph
Ġoppo sition
)}{ (
ĠO l
f all
Ġtro uble
ĠG ab
Ġinst ructions
oun ce
Ġemploy ment
Ġmultiplic ative
ink owski
igh test
Th ree
Ġb acter
4 000
Ġspect roscopy
um ar
Ġgrate ful
ĠD ream
ig m
Ġuni vers
? ?
y es
ok en
Ġrepresen ta
ĠH i
u per
ĠHop f
Ġ ×
Ġp ray
mb f
Ġsimplic ial
Ġcon cludes
ĠP L
sk a
19 44
cy clic
{ %
an ni
^ -\
Ġh all
Ġreview ed
Ġspa c
19 0
ov ed
ĠP O
Ġch ampion
Ġwith draw
17 5
ĠIn itial
Ã Ĥ
Ġhighlight s
proper ty
b ach
per ties
Ġfa ult
Ġoccup ation
w riter
ĠL STM
Ġexpon ents
n othing
udi o
ma tes
Ġcorre l
ell ows
t ens
P ers
ĠW I
)= -\
tem p
Ġru led
ur ious
ĠT ab
Ġf ro
" ]
end a
chang es
ĠD oc
Ġbuff er
il der
f ix
d n
Ġg a
Ġcontrib uting
ĠG h
// //
Ġ{ (
Ġreg istration
j ust
ig a
gg ing
oh en
ok ed
Ġflexi bility
19 55
od a
Ġbrand s
Ġnorm s
ro matic
ĠA ccess
Ġshort ly
ĠIn stit
ĠAnd roid
G T
li ance
Ġo pacity
Ġim mun
po si
con tin
Ġtimes cale
Ġle verage
Ġlegis lation
ĠPri vacy
, ...
), $
Ġhad ronic
S pe
hol der
Ġre ver
nov ation
Ġimag ine
ĠS ix
ĠE arly
Ġob lig
av g
Ġgra ins
Ġfit ness
We b
Ġk il
Ġreg ulations
ï ¿
ĠRail way
Ġcontinu ing
ro d
il de
ĠCl oud
Ġmemb rane
Ġon set
Ġm ine
G ood
i math
} <\
Ġch amber
Ġwin ners
Ġnucle on
N a
Ġpl enty
ĠTur k
Ġex it
Ġres ign
ra ce
min imum
ĠF red
Ġra m
Ġcounter parts
Ġconcent rated
Ġtra ins
ĠBra d
19 48
u ity
ĠP rom
Ġdeb t
ĠM att
Ġinter vention
Ġback grounds
ĠE W
st ret
ĠS ou
Ġthough ts
Ġob jectives
Ġknow ing
Î ±
Ġenter tainment
Ġarrange ment
Ġsearch ing
ĠA k
T eV
A f
rib ute
ter y
cent ral
Ġin correct
ma de
tun ing
Ġaccept ance
ah n
cur ren
si di
Ġcosm ology
or di
f re
ign er
tempor al
tran sition
F ile
r ise
U L
Ġre tire
constra ined
}) _
Ġsur vive
Ġacknowled ges
W ell
ni k
Ġair port
prob ability
m eta
ĠCh ern
Ð º
Ġpolym er
li b
ro se
chest ra
_* \
st d
H el
Ph oto
Ġsh el
}} },
ĠSen ior
Ġwel come
Ġretri eval
Ġappro val
Ġlens ing
am in
ĠE X
j j
ig g
F D
}}{ {\
ĠMo ore
Ġcontract s
du ctor
car lasg
Ġast roph
carlasg uns
ĠIn vest
ĠSta dium
Ġsub mitted
Ġgu est
Ġ+ (
li u
tel lect
at ar
pro file
22 5
Ġpul led
Ġa zimuth
Ġcomp rom
/ {\
con clusion
Ġenc ry
NN s
Ġfix ing
w en
Ġval ued
ĠDemoc rats
no on
ĠC ook
ant ry
soci ation
n c
ĠRes Net
e ah
ĠO ri
Ġvic inity
Ġden omin
per formance
ĠPer formance
Ġanalog y
âĢĻ ,
Ġaddition ally
ĠPri ze
Ġsuperconduct ing
rack ets
ĠE dition
ĠCh annel
sim al
Ġchec king
Ġaccompan ied
ĠO R
N orth
ĠA h
| ^{\
Ġdomin ates
Ġwidth s
A tt
ĠO regon
ab ul
ĠLe ft
Ġhar der
n at
Ġsit ting
S G
Ġimp ressive
gener ated
Ġe gg
Ġdes ire
ed ges
ard o
Ġbeam s
resol ved
Y ear
}{* }{\
Ġterrit ory
ĠTra de
a pa
}_{ +
ĠJ ane
M r
m el
ex amples
ĠCons tit
}) ]
Ġprote ins
igen ous
exp ansion
Ġaxi al
z an
rim ination
ĠD or
up date
Ġcon vert
ge ometric
Ġrad ical
}} ^{-
is enberg
}: =
Ġg ram
if olds
M en
Ġblock chain
Ġdoll ars
Ġcam eras
P oint
in ated
u sive
Ġexpl oring
' ^
h ence
)}\ ,
c am
Ġbas ically
Ġunder go
Ġ ...,
ul sion
Ġfil tration
)} -
Ġacc ounting
Ġvictim s
ĠHear t
Ġpar ton
Ġno tions
Ġdra g
y u
Ġb ijection
quar ters
Ġdisc l
ĠH R
ĠE V
em ed
Ġinvestig ations
Ġf old
H o
ĠSh er
res on
Ġt iny
Ġcompa c
f ish
F O
ens en
ros so
ĠL iter
ues ts
Ġman ual
E nt
Ġre vers
oul der
su cc
Ġyi elding
I B
n an
In d
ment al
r Vert
D er
Ag ain
Ġdis cipl
Ex ception
Ġb ug
ĠF ried
ĠR oss
in finite
ĠM oh
T O
as ts
Ġem itted
ĠMe mber
ĠK evin
lus h
ed i
col sep
Ġr ush
W est
ĠF M
ĠTur key
Ġf idelity
Ġex em
Ġrecommend ations
Ġs lic
Ġrelig ion
Ġdepend ency
Ġwhe el
dor ff
em ia
Ġtrun cated
qu asi
ĠH al
ĠC N
ĠR GB
Ġsol ves
ĠM un
\, (
T w
ĠAtlan tic
Ġmove ments
Ġent angled
graph s
Ġp c
o om
em eter
fli x
Ġdiff use
ĠOly mpic
D O
Ġdifferent ly
Ġcirc uits
A ct
or ne
ĠCh en
Ġmonot one
Ġb racket
v ary
Ġmusic ians
own ed
) &=
Ġre jected
Ġdown stream
Ġhal os
as ympto
Ġdist ant
Ġfa ke
ĠF er
Ġsing let
Ġrepresenta tives
ï¿ ½
Ph one
al p
ĠLe on
ri ends
N orm
Ġinnov ative
Ġpublic ations
ul ators
Ġeng aged
ast y
3 000
ĠP rinci
M ass
av ed
break ing
load s
Ġaware ness
]{ $\
Ġtal ks
ik es
g lu
Ġmed icine
bal ance
Ġro of
d ir
âĢĻ .
lo be
Ġne uro
Ġeigens tates
Ġtra il
Ġb at
F ield
Ġpropos als
Z hang
st ars
Ġhar mon
Ġconcent rations
ta h
w ick
Ġan th
ater n
ĠW ord
ĠHar ris
Ġpres cription
forma tive
Ġorth onormal
Ġsmooth ing
Ġparticip ation
O rig
m ill
ur ers
Ġun usual
ĠG reg
ĠC ON
P at
ĠK ansas
Ġp ione
elf are
gra ded
ys h
ĠG allery
Ġle ct
ĠT am
en h
19 39
Ġport folio
p seud
Ġbo ys
Ġl ots
l Vert
ĠRe volution
sh own
ĠPrem ier
Ġfe e
S V
13 4
Ġlat ency
ĠN az
ootstra p
Ġ$ +
ĠTh anks
, -\
Ġre written
Go ogle
ĠUn like
d in
Ġd uty
ĠP it
N ormal
i la
Ġsol ver
Ġpredic ting
en ius
Care er
ĠCh ap
small er
Aust ral
S ports
\, $\
Ġeng age
C am
el ve
M al
id ity
ĠHou ston
Ġbo at
Ġrob ots
e ast
s ell
ta king
A pr
Ġsub mit
d B
R N
00 4
Ġrecommend ation
la in
Ġbro ke
f an
Re view
Ġrac ing
fin ing
@ {-
Ġaccep table
+ |\
ĠS ob
\ },\
Ġwal ks
Ġ( @
ag an
ac on
hand ed
ta kes
19 54
ĠHol lywood
ter ed
ĠG ram
Ġconf usion
ĠC ulture
Ġtra pped
Ġsimultane ous
Ġbe ta
Ġconcer t
Ġfem ales
Ġli br
Ġgener ations
olog raph
Ġeigen vectors
P ublic
Ġcomp eting
com mon
ol itan
group s
te es
Ġdel ays
ut ors
Ġb ott
ol as
ĠFin ancial
Ġb onds
Ġsoph istic
Will iam
ĠSim on
ĠP ack
| $,
R ober
m g
Ġin tention
ĠM eta
Ġre fined
A re
) <\
ĠMem orial
w eg
v ac
Ġe pid
Ġsettle ment
Ġh ockey
Ġel ab
ĠD rag
vari able
t p
Ġc ache
W ho
f n
13 6
Ġhad ron
rug gle
hor izon
ĠS I
Ġdiscre tization
Ġappear ances
C ode
gra dient
ine ma
s tab
inter val
Ġgu idelines
C hi
id ation
k ed
Ġbroad er
19 53
Ġelectric ity
ke e
Ġinj ured
X iv
Ġslow er
itzer land
Ġcard inality
mathb in
Ġanc est
ĠCl ark
$\ {
ik ip
Ġst ood
ĠV I
ĠT ennessee
ĠSta ff
ĠCor ps
Ġcon fined
rodu ct
til es
si zed
}) _{\
de fault
rm k
19 42
Ġspa cing
Q L
ĠL am
dec re
ĠFish er
all as
ĠPro duct
ab c
Ġbl ind
Ġlearn s
Ġdiagnos is
Ġquali tatively
Ġc ube
rob ust
ĠB io
Ġpromo ted
os phere
A uthor
ĠJ am
ens ed
N umerical
Ġens uring
Ġag ed
}^* $
Ġ }^{
ri f
P lease
ĠAff airs
Ġ// /
Ġcor onavirus
ĠT eles
ĠL ar
Ġsqu ee
ĠH ot
Ġfa int
ĠN L
hi bition
Ġaug mentation
Ġclos ing
Ġshor test
Ġt all
hy dro
Ġarith metic
mission s
Ġle ak
hal o
Ġoper ates
sh ould
Ġaper ture
Ġdeploy ed
bu ild
ss ec
ĠT it
us al
Ġcon vin
15 5
Ã© e
Ġtell ing
c C
IN T
Ġsubstit ution
[ $
B V
b k
\| _\
Ġec osystem
ĠM N
me as
Ġloc us
Ġfun ctors
ĠP lace
Ġformula te
itch en
T s
ĠM es
fi re
Ġ utter
ĠT ony
ĠM W
Ġfl ash
ĠEnter tainment
with in
Ġadminist rative
re lations
ĠP ot
Ġs essions
U I
Ġpopular ity
Ġmore over
B ound
Ġp iano
13 2
ĠJ os
Ġdefe at
Ġdialog ue
Ġg host
rid ges
Ġauto mated
differ ential
Ch ris
}) -\
d ays
p ing
s phere
ĠK u
Ġdomin ate
ĠWith in
min imal
pro fit
h ist
(\ {
}} ]
it ten
pla tes
ap unov
Ġin hab
Ġb ilinear
ĠP ath
Ġbir ds
. (
do es
approxi mate
Ġsket ch
ikip edia
Ġun expected
ĠRegion al
T ags
ĠCh ange
Ġperturb ed
Ġpart ly
ĠS om
= &
Ġsec re
Ġmac ro
Ġent ers
ĠSwed en
ma ts
ĠQ ues
Ġf asc
ĠC e
Ġlim itation
Ġquad r
19 41
ĠIndi ana
cm id
T i
19 47
Ġsp anned
Ġincl ination
fra red
ĠF u
M art
}= {\
fa ir
Al g
B lock
ĠS tein
Ġph arma
Ġdesc riptions
Op en
ĠMethod s
Ġex terior
so le
Con sequently
ĠSt one
ĠRic ci
orig inal
Al gorithm
at tention
ĠB ureau
p lying
s outh
ĠT ax
\ `
Ġthous and
cmid rule
su ccess
stit uting
Rec ently
Ġsp ots
3 20
S pect
Ġke ys
13 7
Ġcl oth
F unction
ograph ical
Ġperm it
Ġgovern or
Ġm im
Ġob ey
ĠMan ager
P an
v ation
Ar ch
Ġeng agement
Ġ rib
ĠLeg end
aus dorff
ĠE ver
ĠD am
perturb ative
Ġabs ent
Ġpermu tations
Ġaggreg ation
ĠL anguage
Ġspecific ation
ĠF R
Ġla id
ĠSol ar
Ġaug mented
ow ards
Ġrem n
B ERT
r times
sc ription
Ġclassi fy
Ġestablish ing
ĠUn it
Ġnar rative
Ġde pos
Ġ$ %
Ġquad rup
phab et
dis crete
Ġthrough put
ĠE li
Ġcoun table
t m
ĠD A
t bl
Ġcondens ate
ĠS l
Ġro oms
ven ted
Mus ic
{ +
19 46
Ġt rus
are a
ĠP rac
Ġcoupl es
Ġrecur sive
T otal
W E
- |
Ġorgan ic
ĠP ier
Ġtown s
Ġsh i
dot sc
ĠE T
a os
Ġemploy ing
Ġcoff ee
Ġh az
Ġse eds
ĠAd d
art an
Ġstatis tic
Ġp ad
ĠB it
Ġg rounds
HT ML
Ġinten se
Ġchec ks
inter action
Ġran ks
allen ge
ĠF OR
si l
ĠN ation
ĠE gypt
}_ *
ĠK y
ĠDu ke
Ġmas ks
Ġthresh olds
Ġaggreg ate
. </
ĠEu ro
Ġque ue
s b
}| $
tiv ated
Ġfre ely
Ġenable d
ific ant
Ġpuls ar
12 9
on der
Ġ\ }$.
Ġ\ ;\;
ple te
Ġim plied
Ġlay out
u til
ĠV ice
Ġh am
ĠS ite
Ġch aotic
19 2
Ġa ud
ĠM iami
Ġhol iday
reg ation
Ġgen es
pa ti
Ġk nock
ds on
reat ment
ĠR ick
ies t
! "
Ġout line
Ġdesign ated
ĠMan chester
r h
roph y
ĠAll en
ore n
ĠCol lection
ĠF W
E du
Ġphon on
Ġ} ;
el and
Ġcompu tes
Ġlist ing
am plit
Ġt ank
Ġexplo sion
C ate
ĠIma ges
ĠI den
Ġpro gen
Ġbi ased
Experim ental
Ch apter
pol ynomial
ol or
ĠIs la
ĠA thle
pp ers
Ġtriple t
ĠM and
Ġpre val
Ġman agers
ĠN ich
Â ®
19 49
Ġs ed
a tic
Ġcomp ounds
New ton
c ence
rob enius
Ġsupp ress
Ġsc ulpt
ĠCh eck
SS M
Ġt ac
inter pre
ĠS ound
H am
E nergy
Ġprefer ence
Ġor b
R ich
Ob serve
Intern ational
b ling
}}$ -
w hat
ĠD ate
Ġexclu sively
et z
Ġhapp ening
st at
Ġsub strate
m outh
Ġad min
cccc cccc
f b
ĠF ra
'' (
eg al
Ġpa inting
)$ \
Ġide als
c ot
Ġch ronic
ĠR equ
par ticular
( ).
ĠTheorem s
ma ker
A K
19 43
Ġrout ine
Ġamb ient
n av
Ġengine er
Ġj unction
Ġdetect ing
Ġcontamin ation
Ġfir ms
Ġdes irable
ĠM ake
Ġenjoy ed
Ġinsp ection
A ng
or o
T ake
ĠQue ens
Ġf lying
ach er
} &=&
pro f
L y
Ã £
com o
Ġacc used
ĠD og
Ġti ed
am an
Ġexhi bition
ĠInd ones
ĠB reak
}^{ [
ĠPh ase
Ġpar king
Ġfe es
cover y
comb ination
Ġbelie ves
M arch
Ġf ranch
ĠA PI
Ġcor pus
ĠL arge
ap i
F IG
c it
Ġpack ets
ĠRec ently
Ġingre dients
ĠMary land
Fil ms
ĠĠĠĠĠĠĠĠĠĠĠĠĠĠĠĠ ĠĠĠĠĠĠĠĠĠ
f ly
Ġs i
v b
ĠT ar
Ġo mitted
cal ar
ino sities
ĠMat thew
Ġdocument ary
si bly
Ġprofession als
Ġ ^{-
Ġacceler ated
ĠH ermitian
Å ¡
Ġrelax ed
Ġsus pend
C ON
Ġeng ines
ĠH otel
arg o
Ġswe et
Ġn a
ĠJew s
Ġp ec
)\ |
roll er
ĠS V
Ġimp lying
Ġle gs
ĠJ ay
L and
ool s
end ment
ĠPo incar
ma tical
ĠP ear
Ġcell ular
Ġimplement ing
C G
Ġ ''
ĠO t
ĠEx pl
Ġpush ed
f c
ĠM is
Ġg arden
Ġen emy
resh old
app y
iv ari
Ob serv
Ġp unct
e vi
Ġreg ulation
Ġdist inction
Ġreserv ed
Ġf riction
Ġtun ed
lik elihood
k j
Ġcol lections
u ating
Ġgovern ed
Ġcompe te
lem an
necess ary
w estern
ĠK ol
Ġsuper symmetric
Ġs oul
ri k
ĠS H
Ġar ranged
A lex
un ing
h ai
c od
Ġtack le
Ġc ot
Ġsti ff
ĠM U
ĠĠĠĠĠĠĠĠĠĠĠĠĠĠĠĠ ĠĠĠĠĠĠĠĠĠĠĠĠĠĠĠ
Ġvo la
Ġsu it
Ġval ley
le xi
Acknow ledgments
cer tain
Ġoffic es
in als
Ġm ent
N ode
^{ '
p rinci
Ġch ap
rela tive
in ch
Ġcomp ound
)\ )
Ġstream s
ĠFore ign
Ġnom inal
ĠÂ ©
Ġcooper ation
per or
ob j
Ġspars ity
C K
Ġdeep ly
acknow ledgments
am ental
Ġweek ly
ĠDi ego
B ur
Ġas ks
16 5
13 8
EC T
high er
ĠSch warz
v x
ĠCh e
Ġen for
\ #
ĠA rc
Ġsequ el
ĠC I
d rome
Ġwe aring
}) /
19 00
}{ |\
Ġabsor bed
I tem
ĠRet urn
Ġdog s
Ġpred omin
ty le
lies t
Ġprotot ype
o il
Ġfin ance
Ġ/ *
ĠH I
App lying
Ġener ge
$ }.
fi able
Ad S
ĠMiss ouri
Ġfra ud
Ġun bounded
i u
Ġsem icon
pre ceq
ex pl
th us
v p
r ity
ph an
Ä ±
Ġrem ind
Ġun clear
res pond
be am
ĠIsra eli
P V
Ġ( -\
Ġmorph ology
preserv ing
â ĸ
Ġsk ill
Ġd ies
Ġparticipa ted
v id
ding s
5 000
ĠN orm
ĠW a
ĠPal est
avi er
who se
tan h
ĠSil ver
wh el
{ }{
over ning
Ġmunici pal
Ġ ~~
[ [
=" ../../
ĠM R
Ġin hibit
ĠWh it
ho ma
ĠQu antum
ext ra
ĠMari a
P lay
int end
Li ke
Di ag
Q A
clu ding
Ġcross es
ĠF ram
corre lated
Ġas set
Ġgradu ate
eli ke
Ġter ri
Ġad mitted
ank a
hed ral
A u
Ġcon texts
ĠG un
echan ical
Ġweb sites
B ro
Den ote
ĠPat rick
const ruction
s tein
ĠRes ources
ĠDo es
Ġinvi ted
' ;
F OR
G re
Ġmeet ings
structure s
Ġv ital
19 51
Ġ âĢĻ
Ġil legal
at riate
B ay
Ġw aters
continu ity
Ġf ed
ern and
ĠE ss
B al
ting s
re ach
de fi
div ision
T ab
Ġre tain
K im
ĠS ource
ori ented
Ġm ales
pp ings
h size
Ġle m
. :
Ġh ex
\ >
Ġdist ricts
H and
yp ical
ĠSar ah
Ã© s
ors es
ĠB L
Ġsix th
ĠT ext
ĠH es
ide al
e fault
Res earch
ta m
Ġcont ents
ĠLe vel
V ec
Ġd z
ĠK han
Ġ( {
pos sible
ĠG C
Ñ ĥ
Ġf urn
\ &
Ġvis iting
tra ctor
ĠF unction
ĠR on
d V
o i
Ġexper tise
Ġfaith ful
S Y
y ou
ĠR an
pro ved
N F
Inde x
tic ity
ber ger
m cited
mcited efault
c A
Ġan chor
ul sive
ĠJ oh
Ġs tick
\ ;\
s ight
determ in
b ian
con serv
emeter y
Ġinstrum ental
Ġcar di
ĠAs suming
set counter
onom ic
13 3
Ġplanet ary
Ġadvers ary
ĠTo gether
o S
19 36
supp ort
ĠDef ense
Ġafter noon
ĠAnth ony
Ġc ited
ar ound
Ġaut onomous
ĠYear s
ĠCan cer
ĠM ir
ĠF la
ĠD ur
ord ination
}= (\
w ere
ĠR andom
list ing
Ġen abling
Through out
ĠHigh way
ĠMean while
}\ ]
Ġn eck
D G
C all
ĠL ind
mat ter
ĠD omin
S everal
li ps
ĠD ise
ĠV e
Ġtri vially
Ġent rance
lab ama
Ġrepeated ly
d at
ĠR ac
}^{ *}
ĠN ame
Ġ texts
Ġgran ts
r n
ĠI owa
Ġemer ged
0 15
Ġpas sive
var nothing
Ġin form
pack age
d omin
Ġdepend encies
ĠD id
jour nals
ble ms
dif ference
Ġgener ative
Ġtrun cation
Ġm g
Ġarc s
G lobal
b urn
sc ore
h ref
ion ization
Ġgu ard
Ġvis its
Ġfor b
ĠE pis
AL L
Ġsubsequ ence
Ġw ake
Ġwonder ful
Ġimportant ly
Ġreason ably
ĠAr thur
rosso ver
ĠR ub
Ġroad s
ĠL S
z h
Ġgra ss
b ranes
al ong
Ġjournal ist
Ġ& &\
Ġspl its
Ġheur istic
d dots
Ġcomb ines
Ġenc ode
Ġsett led
F E
pon ential
row e
ex tension
L im
ĠN ik
Ġmin us
ĠD ifferent
ĠL em
\ }^
Ġro yal
ĠH E
z c
Ġcontinu ation
Li u
J y
ĠCh em
Ġst ruggle
ĠB run
man y
Ġinc idence
< -
Ġp ra
ĠP T
ĠLap lace
stret ch
ĠR oll
yn olds
pher es
Ġpoor ly
re dsh
spec tive
Ġperson ality
Ġnovel s
ĠN ature
14 3
Ġ! =
F low
Ġve ge
Pro f
Ġst ops
dis cussion
Ġtru ck
Ġsophistic ated
P DF
Ġmes ons
] +
or ry
Bri tish
M AP
ĠO ak
Ġspeed s
T ag
Ġen forcement
ĠW ol
achel or
ĠObserv atory
\, ,\
ĠSoft ware
osc ow
O H
ĠR est
Ġbeh alf
_+ (
Ġro utes
D iff
st ock
ĠSto kes
ens tein
Ġcommu te
ĠB ush
ĠR ow
ĠB uck
ĠHaw ai
) &\
In itial
Ġinv ent
$ },
ĠS em
Ġw et
Ġ Å
Ġrandom ized
ĠC ow
r put
B ase
ĠInde x
r ide
int roduction
)} )$
ron ze
Ġchar ts
L ee
Ġo pt
Ġes cap
Ġtit led
ĠP or
ec tic
etro it
ordin ary
on na
ĠM ol
Ġsuper symmetry
Ġresidu als
N M
c la
In fo
Ġevol ving
ĠT rib
marg in
Ġo d
Ġmo ck
Ġbe ach
Ġsub stitute
Ġinj uries
Ġfilter ed
C u
determ ined
Com mun
s tability
em ission
dis cus
Ġaltern ating
Ġun ified
Ġtravel ing
Ġ$< $
den se
App ro
order ed
Ġrare ly
Ġsuscep tibility
Ġemo tion
ast ro
- }
ĠE ag
ĠTh er
Eu rop
ond o
Ġen th
Ġscal ars
ĠMe asure
ĠOffic ial
Ġmer gers
h our
ĠR G
dis k
I l
â Ħ
ĠH ave
Ġproxim ity
R M
ĠMod els
Ġiniti ative
Ġrecur rent
G old
Ġvisual ization
ĠTeles cope
W ar
tiv ation
S un
u sible
Ð ²
ft en
la homa
Ġmin ima
ĠPart ners
ĠM atch
Ġparameter ized
Ġreci pi
}) (\
cl osure
Ġexpan sions
Ġtunnel ing
ic ate
Jan uary
ann y
teen th
pp i
Ġbene ficial
)) =\
ti ans
Ġfla re
Ġresi due
Ġprom ise
7 50
Ġadequ ate
ĠW olf
Ġ< \
ĠAr ticle
can onical
Ġasser t
s r
ap or
Ġrele ases
[ $\
ĠFe ynman
pos able
n ice
Ġt rick
Ġh ate
ag u
ip e
ĠS elf
ucle ar
ĠCap tain
Ġextrem al
Ġsus pect
writ ing
Ġpron ounced
ch rot
ĠE mb
fact ory
Ġpay ments
ĠTra vel
ĠIndust ry
Ġre cal
ĠB us
ĠEd itor
Ġphilosoph y
Ġsh ots
Ġparad igm
paramet ric
Ġcur ved
Ġstri king
Ġsched uling
Ġmulti variate
F eb
P Y
tify ing
Ġev il
ĠG ri
}\ }
{( -
ĠP ad
G H
Ġprof it
ĠStud ent
Ġlogarith m
Ġsur rounded
Ġs ick
Ġpresid ential
M er
Ġsucces sive
M u
Ġvulner able
ĠSwed ish
66 66
Ġdeploy ment
B l
Ġkine matics
Ġinst ruction
ĠM inkowski
15 00
Sp in
p n
Ġbut ton
tellect ual
ting ale
Ġreli ef
Ġn utri
Ġmac roscopic
b ir
scatter ing
st op
Ch eck
p read
Ġdwar fs
L ife
me ans
be fore
Ġre lay
T U
chrot ron
d rop
ĠS av
Ġen titled
cover ed
Ġinstit ution
ĠR V
)( -
Ġgovern ments
Ġwor ry
ĠOp tim
}\ }_{
Ġrela tes
Ġpiec ewise
ĠF ive
Ġlong est
Ġwork er
Ġany where
Ġlaw yer
Ġp et
Ġgeom etrical
Ġrequ ested
Ġdelay ed
ĠT otal
}' \
E lect
m ir
GB T
ĠF P
Ġob sc
ĠK ra
ĠB ry
Ġdynam ically
. _
c ra
Ġold est
Ġinter active
}$ }\
ĠL au
ĠJ e
Ġsum mand
c L
) &=&
r ine
ne e
T ri
13 9
Ġvo ted
}} /
ĠLand au
ĠAr k
ĠPhilipp ines
ĠLabor atory
ti sts
Ġpass engers
Ġout standing
rad ation
Ġinter faces
W rit
w ould
Ġpro sec
i ors
19 18
par ity
ag en
Ġimp urity
import ant
'' )
tific ations
Ġir relevant
ĠSw itzerland
ĠMil itary
Ġexceed s
ĠGir l
\ :
c ous
incre asing
doc ument
cho ice
ĠY outh
Ġamong st
H amiltonian
Ġconstit ute
ĠC zech
+ }$
d ale
ĠAg ric
K w
Ġb unch
ĠNetwork s
experim ents
Ġal ive
) ^*
ã Ģ
ĠCh an
bi as
Ġproceed s
Ġoverla pping
ĠC ore
âĢ ĭ
T X
oc a
exp ression
ĠAst ron
b g
Ġaccording ly
Ġinf ected
Ġa er
Ġcatalog ue
ia o
ĠP ho
) &=\
AR S
Ġp sy
Serv ice
Ġcol ours
ĠPro perty
rop olitan
ĠN ar
xi al
res sible
il arities
Ġput s
Ġent reprene
ĠOrgan ization
Ġcompl iance
Ġiden tically
n od
box times
Ġacqu ire
if ill
Ġinst all
ĠMc K
ĠPe ak
ĠO h
Ġrig orous
On ly
Ġchem istry
Ġcross ed
ad m
pe ak
ĠS US
Ġgeom etries
Ġpar ish
eff ect
hy thm
uch i
t uring
Ġout going
19 37
m kern
chang ing
)\ }$
Ġman ually
ĠAf ghan
Ġinvestig ating
Ġdra matic
Ġconst ructions
mod es
umin ous
Ġc rack
tellig ent
ĠG AN
W il
Ġport rait
})- (\
[ -\
divid ually
Ġmer ch
ĠCast le
idu cial
Ġsho pping
C he
ĠF ind
ru st
Ġmer ged
ĠBol tzmann
Ġmon oidal
Ġp uzz
P lot
Ġs mo
A ir
ĠM ars
- )
Ġcontroll ing
Ġwh ilst
ic ial
Ġres um
ĠQu ar
ĠI SM
Ġimple mentations
ĠSaf ety
Ġfi bre
Ġn u
asc ular
ĠCon cer
Ġn ond
or se
ĠM pc
+ (\
v ens
ol der
Ġj umps
neighb or
Ġdesc end
int rodu
Ġdecom posed
Ġconstant ly
ym an
gra ined
Ġbro thers
ref n
Ġdi plo
Ġ- >
sup set
d ra
Or der
ĠAn aly
Ġcalc ulus
ĠRober ts
b h
Ġr um
ĠT E
ĠK elly
os hi
ay er
Ġ\| _
Ġmonth ly
Ġ\ ;\
ĠG auss
ather ine
Ġint uition
ĠHol y
Me mbers
com ponents
14 7
ĠM ap
Ġper ception
0 25
IC E
"> </
w u
ĠB ishop
Ġout break
Res ult
ov ich
Ġill ness
ĠB log
pro ject
Ġal cohol
ch apter
Ġvirt ually
V ideo
ĠL uc
Ġde formations
Ġmunici pality
L ink
[-> ]
di an
ester day
S n
Ġpay ing
aver aged
Ġd am
ĠP rice
ĠW ard
iam ond
Ġserious ly
) *
H K
An alysis
mon ot
' =\
Ġg uests
ĠPa uli
I refn
Ġfact ory
Ġinitial ization
Ã£ o
Ġval ence
Ġauto ma
ĠTem ple
ĠI mm
ge on
Ġpar a
Ġimplicit ly
ĠN ev
ĠK er
ĠR S
S pa
Ġch rom
ĠL ang
Ġt ur
Ġmet ers
Ġre cept
Ġno tably
Des cription
ĠEnvironment al
14 8
L B
Ġelimin ated
o pp
Ġp run
Ġs ci
L ook
Ġfriend ly
analy tic
Ġlum inosities
ĠN LO
Ġb rackets
ĠTok yo
Ġfor t
cal es
ĠAn nual
Ġoff ensive
is tically
Ġcompa res
ĠAuthor ity
Ġst ating
ll l
bes gue
Ġsudden ly
Ġinf o
Ġref used
om ed
2 60
Ġt uple
Ġdest ruction
Ġtempor ary
Å Ĥ
en z
Ġsh aded
Ġspeak ers
tit udes
Ġreal izations
Â ±
Ġelig ible
s mash
N or
() );
ĠG arden
ĠB E
ĠH ans
ĠC IFAR
ĠN OT
t ar
Ġop tically
Ġec ho
ma d
Ġche ap
Ġex haus
Ġindu ctive
uk i
ĠB urn
ant ine
ĠOver all
tru th
Ġpec uli
}) )$
bas eline
c F
Ġbur ning
Ġconj unction
Ġla ke
. ).
ĠL ic
Ġatt racted
S NR
Ġh olograph
Ġlabel ing
S earch
si mula
10 24
ryst al
u tational
ss ues
fin d
new page
! --
Ġsyste matically
U ser
19 38
V C
$. \\
Ġinflu ences
Ġview ing
ĠT ree
Ġprov in
Ġg aming
tab les
Ġmer ging
oher ence
Ġh at
ĠI sing
po on
ol ph
ĠDo ctor
Ġcharg ing
S al
m k
| |\
Ġ($ (
Ġear n
el ing
Ġinclu sive
Ġun supervised
ĠD L
In stead
Ġutil izing
ĠLim ited
estima ted
mark s
et ta
Ġstrong est
Ġbrow ser
il ty
Ġexclu de
ĠPla ces
Ġg ift
] }(
Ġprefer ences
g p
b end
ĠD ave
$. \
ĠC U
ĠJ ava
Ġser vers
stra ted
De ep
pp ler
Ġref uge
Plan ck
v ark
Ġre form
ĠM E
Ġdiscus sing
Ġchild hood
ĠK err
ĠRel ations
Ġsav ed
Ġin complete
alth ough
Spec ifically
bal anced
ĠH z
ĠRou te
) ^{(
row ave
ok er
P res
align at
Ġcompu ters
ĠKent ucky
Ġ ).
Y our
ĠStud ents
we et
Ġparametri zation
13 1
ĠM ove
Ġsub algebra
ĠAn ne
Ġfla gs
Ġref ere
Ġbi ases
book s
}) }$
Ġleg i
Ġsuper position
}[ (
ĠRepublic ans
)) )
ic z
redu ced
Ġcommu tes
Ġcompens ation
as m
Ġbur ied
y ang
Ġrep utation
ĠR R
texts ub
Ġtor que
t n
ĠWork ing
ĠF ederation
. ),
t f
h uman
c O
Ġis lands
Ġro se
st udi
Ġattack er
ak ov
Ġf as
ĠAust in
ene z
H i
gener ation
^* $-
ĠSe attle
D iv
textsub script
' |
ec ell
Ġc able
ec raft
Ġpur s
Ġcon ject
ĠB os
ĠPol y
Ġshock s
Ġbifur cation
ĠAtlan ta
Ġphra se
) ]$
Ġun con
b oy
Ġinc en
Ġc of
Ġtermin ology
ĠIn tel
{ ,
Ġl ux
ĠG ard
ĠOb serve
ĠM ission
W hite
ĠW y
28 0
ĠSUS Y
e h
Ġser ial
H aving
ĉĉĉĉ ĉĉ
Ġheter ogeneous
Ġf oli
Ġd ress
di amond
Ġdete c
ĠM itch
Ġsusp ension
Ġport ray
ĠNiger ia
Ġdr ink
C ov
Ġpla tes
ĠLe besgue
Ġcl arity
}$ \,
ĠS ex
ĠM rs
Ġne b
Ġh ook
Ġcomm ut
decom position
at ric
Ġconn ects
spect ra
Ġspont aneous
14 6
ĠL ower
Ġman aging
Ġ Ï
ex cept
Ġdete ctions
Ġrun time
Ġrestaur ants
Ġinher ent
ĠN ative
Ġd up
Ġtheore tically
is hi
ĠR id
am ed
ĠI M
consist ency
Ġster e
ig e
ĠJ en
conver ted
it ure
Ġim mer
mak ecell
ĠCon dition
rr rr
J une
ĠPro tection
Ġdef ensive
ĠPh D
R un
d ynamical
Ġ( [
ĠAl liance
Ex amples
pla in
Ġencounter ed
b ranch
k ine
+\ !
Ġw rest
Ġt une
Ġcommunic ate
) }}{\
F inal
Ġqual ified
Ġv ib
ed ral
ĠIn st
f ine
Ġp our
Ġdri ves
Ġsugges tions
ous es
Ġaffect ing
Ġcelebra ted
Ġlibr aries
Ġformula e
)/ (
Ġcompe tit
P al
Ġreg ulatory
trans fer
Ġindust ries
19 35
pec tives
Com ment
ĠZ hang
$ |
L aw
ist ing
Ġvalid ate
}{! }{
00 7
ĠH um
ĠC FT
Ġpo et
Ġfunction ality
Ġtext ure
le ad
20 8
ĠF all
ma jor
Ġn ations
ill ance
ĠB uff
Ġgradu ated
ĠC ost
ĠTai wan
S pace
[ ]{\
t u
ĠP redic
ĠD etails
Ġ& $\
Ġexam ination
ĠL ac
le v
si ans
ced ure
ap olis
ĠJacob ian
Ġsatelli tes
ĠV egas
bar a
g ress
ĠI r
Ġdes k
col n
pa y
ph on
f ers
Ġo racle
_{ |\
Q C
ĠU pdate
ĠYuk awa
Ġcons ent
ubb ard
}( (
ĠSe ven
Ġcong ru
Ġover whel
l p
Ġsuff ering
constra int
ĠR ound
23 5
od rom
ad van
ĠAd ams
Ġsem is
ar n
mo tion
P ower
Ġpromo tion
âĦ ¢
I O
Ġsub sidi
Ġdisapp ear
or able
Ġdesign er
equiv ariant
Ġresid ential
Ġbeh ave
Ġcancel lation
k it
ĠP lus
ĠPh ill
rin o
bu ilding
produ ction
Per formance
ĠM oscow
ĠNet flix
osp in
M pc
ĠMor gan
Op tim
ister ed
Ġinterview s
ĠB orn
Ġra ising
Ġtrans late
Ġattack ed
ter min
ides pread
Ġemer ge
uzz y
K A
ĠNam ely
ag g
bra ket
d an
ĠJ ason
Ġro tations
Ġpen et
ĠB etween
Ġdi amond
Ġdimension ality
ĠA labama
normal size
tab colsep
Te X
Ġevalu ations
ĠG ran
Ġpref ix
ĠSec tions
Ġfi b
P ort
Ġpar liament
Ġcent uries
tract ing
Ġax ion
Ġcryst all
ogen ic
Ġhor ror
)] \
Ġfar mers
Ġatt orney
ĠMel bourne
Ġpro tons
Ph ot
ant on
With out
Ġre wards
uten ant
}| ^{
Ġret ro
Ġdo ors
ĠB P
Ġcon vol
s al
Ġa side
ĠP SF
in os
Ġthe sis
ar ab
Ġcod imension
cur ves
Ġmut ually
ĠHow ard
Ġtrans parent
F our
ed a
, [
Ġaver ages
14 2
Ġ& +
tab len
Ġdi electric
en ix
add plot
Ġown ership
Ġcomfor table
Left rightarrow
ular ity
Ġequ ity
}\| _
Ġ$ >
xi ma
Ġadop tion
Ġ }^{\
ĠM ul
os ures
g b
Ġval uation
set up
3 30
M Hz
ĠT ak
ĠC redit
ĠMach ine
Ġpo inter
ag ain
Ġimm ig
c H
ĠWalk er
ol y
ĠEcon omics
rowe ak
lim inf
ĠA BC
up les
Ġspher es
Ġspread ing
circ led
AC T
Ġwar ning
ER E
Ġdepar ture
comp ass
L ow
ĠF ellows
T a
ĠLeg is
til lation
Ġin dividually
' )$.
____ ____
ĠEx amples
Ġconduct ance
Ġpo etry
Ġtas te
r p
Ġemer gence
K er
Ġh ub
Ġflight s
havi or
des cribed
ĠM obile
ĠE g
Apr il
et ri
Ġidenti fies
Ġdisc rimination
p ure
og on
} &=
' );
00 6
Ġfootball er
thin space
n ames
Ġiso lation
Ġsen tim
Ġcere mony
ĠB ERT
}- {\
Ġpass enger
ĠA bb
ch ment
k ind
vark appa
p unct
Ġdeg ra
ĠSchool s
b ab
| (
Ġspin or
Ġlo ading
ĠComp uter
p red
Ġestablish ment
ĠGre ece
ĠPri or
Ġcontro versi
bf series
Ġcolle agues
Ġthe atre
Ad ditionally
is i
Ġindex ed
F act
. [
it ants
Ġrefer ring
an te
Ġv oc
Ġpe er
ĠAd vis
der ived
ĠInde pendent
ma terial
Ġti e
ĠN BA
Ġdis miss
D onald
cre ate
Ġretire ment
Ð ¼
tes y
Ġshall ow
f am
ĠB ou
di am
d ig
or er
dist ingu
al ph
ĠS el
Ĩ Ĵ
Ġhead ing
Ġoff line
F re
ĠNor way
b atch
ĠP od
Ġhydro dynamic
ĠB rig
Ġinspi ration
Ġho pping
ĠR ap
S ize
C as
ĠVilla ge
ĠP H
Ġnavig ation
ĠG as
en te
ĠD at
Ġg ang
ĠB og
Ġadv ances
K B
ul s
method s
E t
_ +\
Ġsit uated
ĠMex ican
ĠC limate
ĠHer itage
gra duate
pher ical
), $$
mon th
S k
Mich ael
Ġgen re
alax ies
Ġsat urated
ot ors
ĠD allas
ĠD y
bib item
ĠG ordon
p ted
Ġc ust
Ġab st
Ġfair ness
22 4
W omen
in verse
Ġorbit als
ĠBow l
Ġhyper surface
s amples
19 5
sp ot
ĠS eg
an tic
Ġconfir ms
ordi al
~ ,
Ġcom ic
I X
T erm
Ġprocess or
ĠS tri
ren der
Ġin set
}\ !\
Ġh opes
cy cles
ĠA F
be an
ĠAdv anced
Ã ¸
re ma
re tt
Ġgather ed
K P
ĠThom pson
ĠMe mbers
Ġcog nitive
ĠC ou
ish ment
Ġdiag n
Ġcontradic ts
}) \,
qu ery
Ġfore ground
15 2
Ġtic ket
ĠF r
Ġle x
Ġ[ (
be it
ĠK i
ĠT M
Ġ till
ĠTh ings
Ġdesign ing
Ġc ul
U P
Ġarti facts
Ġincorpor ating
Ġlist ening
ĠK ur
ĠI ce
b at
ĠSing h
ĠO N
Con f
Ġir regular
ĠCol on
ĠFin ance
le igh
L STM
part ments
ĠC ape
Ġto w
th a
ĠC ox
um s
Ġres ort
Ġrating s
Pa ul
Ġencoura ged
ĠP layer
ĠĠĠĠĠĠĠĠĠĠĠĠĠĠĠĠ ĠĠĠĠĠĠĠĠĠĠ
Ġdiv iding
â ĪĴ
Ġgeodes ics
ĠC el
ĠCom pe
u y
bra tions
Ġde leg
he v
n umerical
li a
ĠT un
20 2
Ġnon local
24 5
ĠH IV
ĠBo olean
Ġtoler ance
Ġsubt raction
t uple
or ange
Ġindic ation
ĠAd vent
ĠIsla mic
V A
ĠAg reement
b ridge
tim ore
In f
Ġqu iver
ĠSw iss
class es
T ilde
qu is
18 5
Ġre tained
Ġplace ment
Ġst yles
ĠMar ine
000 1
Ġgenu ine
Th anks
ĠD P
ĠD al
op tion
Ġinv asion
ĠLi ver
Ġh i
Ġuni versities
normal font
Ġspirit ual
Ġcy ber
rr bracket
ĠMil ky
Ġn aive
20 5
16 8
Ġpoint wise
t ypes
Ġres erve
] )$
Ġtw in
J apan
Ġm ounted
Ġpres cribed
Ġimp osing
Ġbus y
F ind
fe ature
Ġparticip ating
ĠTru e
Ġf lip
Ġprem ier
sc reen
Ġfranch ise
d ataset
Ġb one
nos tic
ĠIn vestig
Ġfi red
Ġend points
Ġac tively
Ġlo como
Ġpol l
Ġw ings
ĠD ak
Ġchair man
ĠJacob i
f ocus
Ġw edding
Ġjus tified
Form er
Ġi Phone
Ġb ird
T oday
Ġsl opes
uck er
Ġphenomen ological
Ġ\ [\
" ).
^- (
Ġsim ilarities
on line
serv ice
Ġtra v
ĠSob olev
Ġinstant aneous
Ġpa ce
Ġmem ories
Ġvis ibility
Am ong
erv ed
orig in
pro gram
sw itch
ĠM Hz
ferm ion
Ġenth usi
Ġfant asy
Ġdeg radation
| ^{-
Ġadv enture
ĠL ik
( ),
ci o
Ġob s
ĠHe isenberg
Ġpropag ating
ĠS in
J ames
K a
S am
Ġfunction als
Ġthreat s
fa ction
Ġprim es
ĠR C
min im
" ),
St and
ĠO pp
man ifolds
Ã º
u ters
Ñ ı
radi ation
Ġprodu cers
ron es
Ġlem mas
19 33
S ong
Ġin acc
ick ing
ĠApp lying
Ġcollect ing
$ [
Ġt one
ĠTurk ish
end ers
Ġhand led
h ear
Ġdat ing
ric ulum
Ġd ash
ag ent
function al
ĠSt ars
on z
ll bracket
S il
h ome
Ġcompa tibility
u ate
Ġch ip
Y M
ĠAl bert
ĠCl inton
win ning
Ġerg odic
Ġaddress ing
Ġresol utions
G ar
Ġin evi
Ġcla use
{$ {\
Ġn ick
Ġg uns
' })
Ġexplan ations
Ġprin ted
Ġmon o
Pers onal
ev ol
ĠI L
Q U
ĠL ane
Ġinstal lation
Ġpurs ue
b ay
ĠU pper
Ġtreat ments
Ġapproach ing
ĠK az
ĠDel hi
F N
g age
om eters
Ġde ple
Ġan tis
ĠC r
3 75
par k
| +
Ch rist
ec es
ĠWork s
i vers
19 34
redsh ift
19 17
atas ets
K T
Ġla g
ib liography
| >
ĠN ear
F ar
ĠLy apunov
ĠK illing
c rit
ĠMy r
T rack
Ġsuper vision
Ġar rest
en ko
ĠVal ue
Ġanonym ous
Ġear liest
ĠSm art
)} -\
stra in
hol m
T om
sh ots
si mulation
Con text
mod al
Ġc abin
ĠB h
Ġpro xy
t v
14 9
Ġindic ators
Ġan xi
big wedge
Ġ\! \
ĠNe ed
Ġwe igh
Ġopin ions
Ġz ones
Ġintui tive
Ġg overning
Ġcoun sel
Ġtax es
Ġpresent ing
Ġre ject
cou ver
ĠÃ ł
ĠBang la
U C
ch emical
ĠScienti fic
iv an
Ġr uling
Ġh ull
Ġw idespread
Ġadv ent
B on
L at
ĠS cre
Ġclassi fiers
f u
n r
it arian
ĠK enn
at omic
compa tible
ys on
Ġinteg rand
Ġrecur rence
b ounds
ĠY an
Ġsupp lies
16 7
he at
Ġminor ity
M atch
Ġcele br
G erman
multi ple
ĠUkra inian
ĠExp ress
ĠH ills
ie val
inter acting
pat tern
Ġb orrow
ĠE rror
ĠEx change
tic a
O s
k al
ĠL LC
2 15
Ġmanif est
Ġmer ge
Ġb le
and al
j ud
Ġpro s
B esides
Ġre act
ĠD ick
ĠJun ior
Ġd ictionary
' ),
Ġequ iv
ĠCon tin
Ġdra s
W N
av ailable
Ġany more
Ġland ing
tw itter
Ġpri ze
+ {
equival ence
Ġs alt
Ġd eter
oy al
Ġanomal ies
Ġher itage
Ġpersist ent
F ace
Ġbar riers
Ġbre ast
uni que
ĠL R
}( [
Ġsome how
RE S
Ġfila ment
Ġannoun cement
rotate box
pix el
y z
âĸ Ī
d w
ĠRe ynolds
Ġconf inement
I tal
en cer
Ġemphas is
ĠR och
19 10
ph p
ĠDire ct
Ġvi able
Ġtor ic
Ġanni versary
ĠMay or
19 29
Ġr h
Ġtrans lations
ĠGal ois
Ġback bone
lon e
m v
Ġpri ors
b undle
Ġin cur
ĠN SF
ĠOk lahoma
l g
}}\ ,\
Ġcelebra te
ĠMo vie
\!\! \!
)} ;
Ġra cial
k now
Ġcons isted
Ġfore sts
Ġdra matically
ber ry
deriv ative
ĠS lo
Ġ ],
J ack
a per
Ġiniti ated
z ym
Ġcompris es
ĠH aving
ĠDri ve
ĠD etroit
Ġtick ets
ĠB ible
min ute
Ġstret ch
b ary
19 14
19 19
Ġqu oted
Ġsubstit uting
Ġrecur sion
w i
00 8
Ġl ifting
Ġen umer
peri ence
Ġan ima
ĠĠĠĠĠĠĠĠĠĠĠĠĠĠĠĠ ĠĠĠĠĠĠĠĠĠĠĠĠ
Ġch aos
Ġhospit als
' }}
ĠP sych
Ġr ub
Ġaltern atives
ang ers
Ġarm ed
ĠT D
ubb les
at op
Ġh os
Ġcri tics
Ġoptim ality
Ġconver gent
play er
' }(\
f box
Ġhel ium
Ġreprodu ced
- (\
Ġis omorphisms
ĠElect ric
Pro blem
}' _
Ġsp okes
Ġincredi ble
Ju ly
us ta
Ġpla usible
Ġto y
ĠJ a
Ġdecom pose
^- _
ĠĠĠĠĠĠĠĠ ĠĠĠĠĊ
c et
ĠH ausdorff
Ġvacc ines
] &
ĠCommun ications
F ore
ĠO S
K n
Ġwatch ed
Ġmu tation
Ġevol ves
Ġagric ultural
ĠRus sell
st udy
ric ted
] ^-
Ġs ons
Ġmodel led
Con v
ĠG B
Ġsol iton
Ġcampaign s
Ġnil potent
Ġastroph ysical
pa tive
Ġdenomin ator
ĠN A
Ä į
1 2022
sol utions
Ġcons cious
G overn
Ġstru ck
}\ }$.
in th
Ġly rics
Ġc rossover
go ogle
respon se
c aus
ĠM om
ai led
Ġ )^
Ġbuy ing
ĠB eng
ĠH ugh
Ġro bo
Pro v
s gn
Ġf iducial
ĠS ud
Ġsing ing
Ġ rug
ill iant
ĠSch olar
issi ppi
Ġd ens
over view
bu ilt
Ġcryst als
we ek
i ang
Ġint rig
paren cy
ĠIo T
Ġh ill
ut t
Ġv essel
Ġdirect ors
Ġmor al
we alth
Ġwalk ed
d k
ay an
ĠF arm
ĠPers onal
p k
Ġcritic ism
Ġg r
T im
Ġatt raction
Ġachie vable
- .
ro oms
ĠU tah
ĠLi u
Ġ&= &\
Ġf ought
ĠY u
ĠPe ace
E instein
ĠW right
ĠRes erve
Ġd B
Ġpla cing
ectic ut
Ġtw elve
AC E
ĠL E
Ġf ont
Ġleg acy
appro ach
3 25
Ġinvolve ment
Al tern
W in
ri tic
V E
F rench
Aug ust
ĠVol ume
Con fig
Ġmet als
eps fig
Ġlight s
ĠF lu
}} )$.
ĠLaw rence
/ (\
ĠCom ments
Ġinfinite simal
P F
ab stract
Ġd imin
redu ction
Ġhead ed
*}[ !
p atch
Ġviol ent
spa tial
weg ian
ti f
16 2
ad dle
Ġhard ly
ir m
ĠU AV
Ġcomp oser
Oct ober
em er
abe tes
P ut
ĠF robenius
ĠMed al
w alk
ĠPh arma
AC K
ĠNe ural
Ġappropri ately
Ġsurpris ed
c M
ĠE N
uper script
p se
15 6
diff usion
m or
As suming
array stretch
ĠO sc
IT Y
ĠTra il
Ġavoid ed
Ġsu ited
Ġde formed
og a
Ġhit ting
ris k
ric ks
Ġun biased
ad v
ur u
ĠD FT
con tra
Ġ\ {(
Ġj ack
ob e
W F
ps line
texts uperscript
ĠIs lam
Ġgre edy
Ġpro hi
ĠH ell
Ġthem es
as er
Ġim pa
fore ach
ĠC ustom
Ġcomp ressed
worth y
ĠC ele
ĠR ain
ir l
ĠD J
id ential
ĠGib bs
per ed
ver ty
U se
Ġpric ing
it ating
Ġannoun ce
wa it
Ġbenchmark s
ĠI d
ts burgh
Ġins u
g m
Ġmathema tics
Ġrect angular
ec ke
s ymbol
Ġb att
te or
Ġresid ence
en ario
Ġlater al
uni versal
ch em
plan es
Ġrecording s
oul li
ang les
c ub
Ġst rand
Ġti ps
c lock
Ġjud g
inclu de
W al
ĠM T
E lement
ÃŃ a
Ġsaf ely
ur us
Ġaccommod ate
Ret urn
Ġmulti plied
Ġped est
ĠCon tact
le f
H op
Ġaltern ate
ĠInter estingly
W I
Ġout door
19 28
ĠSp irit
L F
Ġpublish ing
Ġcalibra ted
Ġro uting
Ġcylind rical
Ġfi bration
Ġassess ed
as ant
Ġrela tivity
Ġweight ing
Ġin homogeneous
Ġanno tations
D ecember
Ġsomew here
Ġexplo ited
Ġaccompl ished
Ġliter ary
Ġupd ating
re si
ĠR A
iv a
}\, {\
ĠSta ge
Ġcoach es
ri el
Ġavoid ing
ĠC ate
estab lished
c end
Ġex otic
PR L
Ġcontact s
d ominated
Ġsta dium
normal ized
Ġambig uity
Ġli kes
D ay
H on
Ġshe aves
Ġcour ts
Ġp iv
ĠS port
ak ers
fram ework
Ġsepar ating
Ġsta ys
Ġnon empty
H ard
. ''
ail and
Ġimp ression
Ġcondu ction
0 12
0 11
Ġpol lu
R ic
qu ir
Ġazimuth al
ĠP ed
ta iled
Ġmar ine
pa pers
Ġlinear ized
ĠK am
Ġpush ing
tain able
mo ves
Ġdiscuss es
Ġcap tain
Ġf ulf
ĠP D
Ġspecial ized
? }
\ })
ĠM os
Ġprim al
Eq n
ib l
Î ¿
Ġb lo
ic acy
Ġhor iz
Ġpo verty
Ġar rays
Ġdepic ts
Ġreci pro
og n
ĠD VD
Ġme at
re call
Ġro oted
Ġsyn drome
ĠLab our
om m
Ġpool ing
Ġpolytop e
, +\
I den
mon t
i h
ou ter
ĠK an
Ġtrigger ed
Ġaband oned
lu stration
Ġend point
ĠDe an
ĠK os
ĠS ant
Ġsyn chrotron
as ka
Ġdecay ing
: (
ĠJud ge
ĠN ag
Ġmy th
Ġgu ided
scrib e
ĠF al
mm ode
em ies
Ġre sident
Ġbi ke
Requ est
Ġframework s
( ))
ig s
Ġy r
vio let
{ }^
Ġrest ored
Ġv end
ar ra
Ġbeh aves
for t
Ġab bre
Ġvilla ges
ĠC over
He alth
ect ing
L inear
Ġinten sities
ĠN ormal
wa velength
' },
, ,
Ġreflect ing
ĠMajor ana
I ma
ĠA ren
IM E
P y
Ġcompo sitions
Sing le
Ġj oy
ĠI ron
eq no
ivari ate
Ġdec l
Ġconvers ations
Ġh urt
T HE
tab ilities
Ġprog ressive
Ġpri vi
Ġo k
vec tive
ĠL iving
amma d
& +\
F ram
Ġb es
)= (\
y on
ĠCom pared
A rt
Ġo c
Ġhead quarters
ĠAl ber
ĠAn t
Ġfas test
ĠCh allenge
Ch ild
if mmode
pos sibly
Ġj azz
N etwork
Ġen compass
par box
19 22
ik a
Ġis ometry
lec tively
et ch
Ġany way
Ġfrag mentation
ĠR T
Ġfeel ings
ro ck
g am
D a
ce u
ĠF ed
Ġprac tically
Ġbelie fs
F ran
14 1
, ~\
Lab el
)= {\
pi ece
AG E
Ġtem plates
ex plicit
Ġoptim um
h on
ĠM atter
Ġpod cast
ĠM g
Ġper ceived
},\ ,
n k
Ġanno tation
19 24
g ressive
ins ky
v oid
Ġestablish es
Ġexpla ining
general ized
ĠC ohen
}_{ [
hed ron
Ġn ested
amplit ude
Ġpro to
ĠI de
ĠK at
Ġbul ge
Ġfle et
Ġhas n
Ġcomple ting
ĠAl an
Ġbl ur
tic ing
vis ual
ĠGra ss
ef e
ĠC hile
Ġtrans lates
R ay
ast roph
[ '
Ġh ack
Ġhigh way
ar Xiv
Ġdep ression
ĠAnton io
iz z
Ġdiagnos tic
enta tives
}$ }}
li ver
Ġmen u
se lection
ĠChair man
ĠUS D
ari b
........ ........
^* _{\
z one
15 8
og ue
, âĢĻ
Ġexplo iting
ĠIn cre
ape u
Ġtum or
19 32
ĠAtt orney
en ne
Ġt ap
" "
d S
Ġquadr ature
Ġmultipl ier
es timation
ĠV ery
) }_\
ĠH odge
Ġmul tim
Ġdiffe omorphism
}{! }{\
c oun
ĠN elson
ĠWeb site
Over all
ag on
Ġcon verse
18 8
ĠU pon
ĠWh ich
ĠR ab
Ġf ishing
fi ve
lass ical
Out put
Ġin jected
Ġra tion
ĠCom parison
ĠRob inson
ĠSing le
) })\
t c
or us
ĠK L
il ateral
A H
Ġth ro
mat rices
ĠChrist opher
ĠCom pton
gener ic
ĠM eg
}^* \
2 11
ĠS quad
ĠF le
ĠSt ore
Ġmort ality
Ġam en
cy c
)=\ {
Ġint ent
Ġass ault
15 4
Ġj uris
ĠS B
cal i
ĠMay be
e ither
cate gories
Bu ilding
ĠC B
D Y
Ġparametri zed
Ġmod est
ĠIn telligence
Ù Ħ
Ġshow er
om on
ad ows
Ġs ali
config uration
Ġformer ly
Ġmul tic
p ad
Ġw elfare
Ġbur sts
19 27
Ġj u
ques tion
ne ed
Ġimm une
Ġcompe ted
J acob
ĠL anka
ĠArch itecture
16 6
Ġmo on
ĠBe at
level and
ĠM B
ĠD ays
sign al
Ġneur on
in ters
ĠT ask
D ate
;\;\ ;
ĠUr ban
vary ing
station ary
p any
Ġs ink
l iter
Ġen orm
Ġfrag ments
Ġm arch
ĠJ ac
b R
}) |
Ġconduct ing
Ġ- (
g alactic
Ġsupp orters
Ġvor tices
ĠReg iment
fl align
V S
ĠU ser
ĠS id
0 30
ĠA N
ĠHar vard
Ġ ties
ĠJ up
Ġmin ds
Ph ase
ĠFe ature
T ele
- {
ĠConsider ing
Ġre named
ĠR edu
Ġassoci ations
Ġconcept ual
ĠPy thon
\% }
Ġcasc ade
el der
rig ger
Ġsem ic
ĠArgent ina
/ $
P age
Y ang
Ġlink ing
app rop
Ġcap turing
\ }}\
ĠT el
pan ies
Ġsign ing
ĠC ell
li que
Ġtre ating
ess els
Ġf oo
ele ments
ph ones
Ġer up
P oli
Ġcontext ual
Ġtem ple
}' (
Ġsynchron ization
Ġeigen vector
' _\
ma sk
Ġweap on
sl ashed
follow s
Spec ial
tes ted
Ġinter sects
ĠDoug las
Ġma il
v t
po lated
row ing
ĠEv ents
B ern
19 31
C ast
Ġsuspend ed
Pro perty
enn ifer
M ath
Ġpa ired
less ly
ĠIm pact
Ġsch ema
Ġast ero
ĠA G
ĠD B
ill ary
mag ne
im ination
ogen ous
SF R
Ġre ven
pon s
h p
* [
f x
Ġlept ons
ĠR y
Ġsuper gravity
Ġch at
Ġsc ar
m ph
IM O
Ġdemon stration
c P
ar u
ow der
Ġpos es
Ġsp oken
uer to
ĠCon struction
Ġm ile
Ġme th
M ad
J S
Sm ith
ĠHigh er
Ġ/ >
Ġm s
Ġcon form
Ġkn ots
m ixed
Ġmanip ulation
15 7
multi put
ĠM unici
Ġv in
99 9
Ġl ingu
j amin
un ion
Ġfro zen
M g
Ġsee ks
Ġhel icity
ĠBel ow
v r
ĠR ace
Ġste am
ĠIn novation
Ġrespond ed
= ~
m cite
ĠW u
ick en
g cd
du ality
Ġconv ic
}& =\
Ġdedu ced
Ġexec ute
Ġau ction
a ti
erv es
C os
ĠMon th
asym p
ĠW D
ote ls
oding er
te p
2 90
press ure
Ġun seen
Ġsh ifting
di es
Ġgraph ical
Ġellip tical
Ġfin ishing
S tra
x u
Ġden oting
Ġperm itted
Ġcrim es
ins ki
ĠLeg al
A dam
ram s
sp ring
Ġsmooth ly
Ġlocal ity
b inary
ĠT ag
AS E
ĠLin coln
ĠSch olars
Ġempir ically
ues e
Ġend owed
ĠMari e
N ovember
Ġun e
ĠSt art
Ġelect roweak
Ġprom oting
}) )\
19 25
e al
plo ys
Ġen force
es ome
ĠStudi os
to on
ric ane
Ġal phabet
Ġinser ted
2 13
o sition
ĠPortug al
Ġac ute
r ings
ĠD NN
âĢ ħ
cel ona
A x
cl assification
Ġpower ed
c E
ĠM uch
ĠP RO
Ġdemand ing
d yn
Ġan i
P W
ab ases
Ġele g
}] $.
p u
ĠF low
Ġcondition ed
19 23
igh ters
f illed
us ually
S ect
h fil
}) ^\
Ġpur su
x z
Ġorgan isation
Experim ents
in ely
ĠFre der
ĠIm port
th ird
Ġconf ident
Ġh ired
Ġprepar ing
B ir
Ġ-- >
Ġsh ar
Ġcomm ands
Q Q
ĠG ary
ĠS ay
ĠP erson
ĠJon athan
Ġdifferenti ation
ĠP E
ĠS ac
Sep tember
ĠP ick
ĠMar vel
Ġl ifted
ĠWal ter
Ġsucceed ed
Ġs y
Ed ge
en tative
ĠMark eting
sur faces
Ġ }}\
Ġpack ages
si le
17 6
Ġappreci ate
âĢ¦ ]
estima tes
b io
Ġe ating
st ochastic
ĠPa ti
ĠChar lie
o vian
Qu antum
ĠCon versely
K ar
Ġcap tion
effici ents
Ġb esides
pol icy
Ġlo yal
15 3
iss a
ĠF ast
ction al
Ġposi tively
g ical
Ġoptim izing
Ġacc ounted
larg er
Ġc ulti
Ġinitial ized
Ġprim ordial
Ġarrange ments
op tical
D ev
pos ing
}+ (
rog ate
Ġinter sections
Ġsol vable
ĠB aker
Ġexhi bited
ĠL ock
ĠB ear
control led
2 16
ĠIR S
). \]
ceu tical
] :
ĠSt ories
= |
K ing
ĠSt ructure
ĠAust ria
Ġb oss
19 12
ĠPoli tical
15 9
Ġâ Ĥ¬
ĠT ran
ass ign
Ġparticip ant
measure d
j p
B lue
S ha
Ġd inner
Ġst uck
Ġquas ars
enc oder
}+ {\
36 5
ĠL GBT
Ġmonot onically
ma ting
er ts
ut sch
}, $$
Ġeigen functions
ĠReview s
Ġanno tated
v d
ĠM ix
b een
Ġa partment
Ġconcent rate
Ġhyper parameters
Ġsil icon
Bbb k
Ġvis cous
trans form
Ġbreak down
H or
ust er
Ġtimes cales
ĠC rim
ĠKe pler
! )
B U
C r
lst listing
ort on
ĠAn na
for th
re cur
Ġantici pated
ĠF O
Ġsu ite
ĠImage Net
Ġactiv ated
tici p
Ġsymbol ic
Ġprop oses
uma bly
> }[
Ġdec on
thod ox
}] ,
pri or
ĠR O
Ġseem ingly
ĠCir c
q w
Ġout liers
Ġf ounding
Ġsmooth ness
ĠPlan ning
$ +$
Ġdown town
ti que
ble d
Ġ( âĢľ
IV E
ĠC ab
Ġresc ue
ĠH erm
Ġin tellectual
se ver
Ġinteg rity
})$ -
theore tic
ĠR and
ĠP ast
ĠB aby
I ts
B W
z hou
ĠCh andra
Ġinvest ments
ĠConn ecticut
ĠE D
Ġen sembles
M icro
x t
Ġanaly se
iss ance
Ġ\ |^
Ġn ominated
at tack
ark s
i op
Ġre con
pol es
Ġsupernov a
}[ {\
mem ory
Ġam id
mat ching
eme mber
b ia
19 26
ef ully
Ġliter ally
Ġtouch down
Ġrest oration
ĠRo om
^* )$
c D
conj ug
' /
Ġc rown
Ġc ow
Ġobsta cle
ĠBe ing
o led
ĠRec ent
ĠP I
de velop
Ġso ccer
Ġmay or
! (
Ġscr atch
in frared
ĠBase ball
Ġappoint ment
Ġg olf
}} }_{
17 4
Q ue
p ush
ĠCom plex
c X
Ġg la
Ġdo ctors
c ro
Ġsimple x
gather ed
Ġcri tici
s ong
Ġdisc s
ul u
Ġsp ike
ĠDub lin
j l
] -
h ill
ab elian
oper ators
C ha
ĠRec ord
hu a
cer tainty
R andom
ves ted
ĠFor ces
Ġholograph ic
B us
ĠCol labor
ti um
ĠB eck
Ġconjug ation
Ġoccasion ally
pro jection
ĠMiss issippi
Ġdeli ber
Ġplate au
F a
Ġstar ring
Ġeccentric ity
W ind
}{ @{}
b w
ist ence
Ġchurch es
as is
ĠB in
band s
}} }_
Ġperson ally
v m
V an
th reshold
à ¦
St ud
Ġed ited
ĠB rit
sum er
Ġdemon strating
ij ing
mark et
ĠB ull
ardi an
Ġequiv ariant
) }^{\
f d
Tru e
{\ '
22 2
, {
lar ation
or ov
ĠL oss
Ġun w
ring e
Ġexem pl
n ology
ent ally
Ġ\ >
Ġion ized
in ating
ĠF ant
19 21
ĠP DE
Ġb read
ĠDen mark
ĠLouis iana
= &\
observ ations
ĠTown ship
oth ers
Ġmus cle
Ġtend ency
ĠBru ce
r ators
ĠS audi
Ġvio lated
Ġvolunte ers
ĠFW HM
Ġh ide
18 7
L ap
ul ous
Ġbuil ds
Ġpeculi ar
5 50
ir ts
Ġ\ '
Ġal leg
ĠB ose
abul ary
Ġneighborhood s
ĠConstit ution
s ort
Ġsurpris ingly
g ences
20 9
mag nit
Ġaccompl ish
Ġanalys ed
im ir
p ref
Ġg raphics
cou pled
Ġoppon ent
Ġrug by
Ġiniti atives
Ġfulf illed
Ġn omin
Ġfem in
ee a
ĠDo ppler
Ġemo tions
Ġd yn
IF A
D oc
Ġf ic
Ġsu icide
ĠEd ge
ĠSol utions
ph e
ĠN eg
ex ponential
fa ther
osit ory
A verage
s ug
ĠS ti
Ġel der
in j
look ing
st en
Ġre cre
_+ ^
Ġre vised
ĠL ess
Ġmission s
o a
}$ (
ang el
ĠRe lease
8 50
}. \\
sub ject
N s
inc tive
M i
Ġmil k
Ġiter atively
pan el
s parse
ole cular
Ġhost ing
Ġbeg un
Ġcon es
T W
! }\
Ġathle tes
Ġcho oses
orth ogonal
lot te
ĠW oman
Ġrad ar
Ġcl ump
- ,
A J
arc s
Ġcollabor ative
valid ation
: #
Ġy esterday
Ġdis aster
ĠC ry
R u
jec ta
B orn
T ree
Ġexp ense
}}, {\
Ġg ear
ĠGir ls
19 15
Ġchar m
Ġenter prise
de tection
18 2
Ġsupp lement
Ġre ign
ĠK ings
Ġdif fraction
ĠGra ham
Ġcor ruption
Ch ang
B ol
Ġpo sitivity
ĠTele vision
Ġfun ny
ĠAl bum
~ .
ĠB oh
Ġslic es
est one
Ġadop ting
ĠGu ard
Ġpossess es
{\ ,
Ġbur den
Ġod ds
Ġless ons
ĠAfghan istan
R D
ov ies
Ġlight ing
Ġth inks
Ġan nu
pend ence
rin ks
Ġmain stream
Or gan
ĠIndones ia
he alth
ĠSte wart
ĠProf essional
ĠHun ter
ot er
He ad
Ġn ic
ĠP un
Ġaccum ulation
Ġsustain ability
ĠPhil ip
W ave
R ank
ĠM otor
ĠM SE
ĠG ulf
ĠPrin cess
P ress
15 1
h dots
b ri
light s
maxim um
ch el
'' \
N evertheless
Ma jor
O K
Ġarri ves
distingu ish
16 3
ĠS ales
Ġlik ed
ĠSy ria
Ġre vol
ĠF ame
23 4
E v
S mall
re ason
d der
ĠLemma s
vari ables
Tra ining
ĠCamp bell
Ġ _\
Ġmic rowave
Ġk itchen
Ġe u
Ġres is
Ġmaintain s
op lan
Ġple asure
ĠSub section
ĠM ack
ĠCon jecture
ĠAss istant
till ery
Ġat titude
M ills
Ġunder ground
Ġmanufact urers
Ġco in
om ers
ĠD ie
inst ance
ĠCon vention
}} }(\
i int
W atch
% %
R NA
Ġb less
Ġjun ior
F B
tem ark
Ġinv olution
amb ers
ĠPublish ing
}} &
ĠCal c
Ġma ppings
Ġdesc ript
Ġrandom ness
c T
Ġquanti zed
R en
K W
Ġhyper plane
Ġb ootstrap
ĠK ath
ĠÃ Ĺ
ding er
tr un
sa fe
Ġquas ar
N I
ser vers
Ġ( ``
crib e
ĠP ope
Ġph osph
Ġg ay
ĠB ed
ĠT ig
Ġco ordination
Ġnever theless
ĠFin land
ple mentation
Ġt y
res sively
mate ur
Ġdrum s
3 45
17 1
ĠThrough out
B st
de x
ĠFac ulty
)) _{
s hi
Ġt rem
ĠB ab
ĠR ank
ĠMalay sia
it eness
ĠH it
ĠS r
ĠB O
ĠCar tesian
Ġcus p
=" +
Ġmet as
27 5
Ġfav ou
! \!
ĠN ur
sh ows
C U
Ġengine ers
H iggs
Ġat tained
ĠF riends
ho ff
ĠTes la
N GC
in burgh
Ġflow ers
uff er
Ġpers pectives
Ġeduc ated
Ġpublish er
Î ½
mic ron
Fig s
rol led
Ġmulti plying
D ri
}. )
ĠVan couver
G i
Ġ\ }$,
Ġd ub
ĠMag ic
ĠG il
iden tified
M n
on ing
ent ing
ĠM etro
Ð ´
Ġcompi lation
Le vel
Ġta ils
Ġde x
Ġlegis l
m art
ĠCent ury
d R
ĠH P
ĠL F
c opes
Ġdream s
ĠBal timore
Par ameter
ĠStudi o
Ġroll ing
Ġorig ins
mo lec
od ers
ru c
r int
or on
ĠTrans former
ĠB ron
Ġdama ged
gu ide
cl oud
M as
Th ough
Ġconvex ity
ĠWrit ing
ĠSh el
}^{ +\
adap tive
ĠB lood
Ġfore ver
Ġg od
Ġdo i
S eg
clu sters
Ġ }.
ĠW ikipedia
Ġc raft
k el
ĠBangla desh
ed ule
$ |\
F amily
ĠS ad
Ġlegi timate
Ġmaxim ally
Ġimplic ation
2 12
t l
qu er
ĠBelg ium
ĠT rin
ĠG T
Ġfa cial
: {\
âĢ¦ .
Ġb orders
Ġcl othing
c g
Ġte a
Ġsh oulder
om i
app end
Ġmyster y
Ġbel t
Ġbare ly
16 4
Ġadjac ency
x shift
wide text
20 3
ĠR H
Ġcontroversi al
c S
Ġfol k
p as
ĠG ray
ĠLiver pool
ĠL L
hat tan
Ġload ed
ĠA qu
ĠMC MC
du ctivity
Ġliber al
ĠSh ould
Ġdevelop s
Ġswitch ed
( .
op ter
c aster
ĠP eters
Ġmitig ate
ĠD elta
^+ ,
tal ion
Ġconven tions
ui tively
Ġâ ĨĴ
ph ony
Ġaccom pany
Ġc ave
vi ate
Ġ$ *
ĠInt roduction
Ġingre dient
Ġin formative
cccc c
ĠIm per
ĠHy per
prec ision
Ġapproach ed
c in
Ġco ck
}}$ )
0 50
k le
ĠR ate
ĠB et
Ġmetall ic
oun ters
cell s
ĠAv ailable
b la
k r
Ġreported ly
19 4
Ġprog ression
le ctor
Ġrecru it
Ġpre vents
ve led
Ġden ied
Ġvi rial
spec ies
Ġs igma
Ġalloc ated
ol k
g iving
Ġcon ce
Po isson
Ġdiv or
ous ing
Ġl unch
ĠPho enix
Ġs aving
Ġde emed
expand after
Ġsk i
Over view
ĠG O
Ġcal endar
is cal
c B
19 16
Â ·
as pect
reng th
ĠSchwarz schild
Ġagric ulture
ĠAl ong
Ġin aug
ĠCar ter
P unct
Ġins tabilities
ĠBrook lyn
s ound
cl assi
Ġjournal ists
ĠRepres entatives
vers y
asympto tic
if ford
Dis c
Ġflo ating
ol ding
ams ung
Ġstay ed
Pub lished
Ġjud ges
ull er
, *
ĠG yr
Ġmusic ian
ĠK night
ĠInter view
## ##
ER N
18 4
Ġsupp lied
Ġfix es
n umer
there fore
Ġdocum entation
b ug
Ġed iting
Ġbirth day
ass ador
ĠZ im
odrom y
Ġinter stellar
sur ance
Ġanten nas
Rober t
3 40
ĠA y
So ft
B rown
ĠH ero
Ġo u
ol en
Ġtarget ing
De ath
id o
out ube
18 00
bor ne
Un fortunately
ĠSam uel
ĠBay es
Ġbroad ening
ĠStra tegy
Ġow ing
20 4
Ġg est
_ -$
clu sive
semble d
e as
Redu ce
}/ {\
Ġco pper
p rom
an ne
Ġbr illiant
ĠC ensus
Ġrein forcement
ĠM ind
}}$ }
den oted
] },
ing ers
Ġemploy er
Ġmonotonic ity
ran ean
Ġcre di
re li
ĠG A
amil ies
ic ed
Dist ribution
fra ct
ĠB Y
df n
polar ized
sim pl
M el
ĠMarsh all
Ġcar riers
Ġgu ilty
eff ects
q a
Ġinsu fficient
Ġprem ium
O ffic
Ġ$ {{\
ĠF ine
Ġcon vey
Ġinflu ential
Ġf ossi
am er
23 1
Ġsecret ary
Ġin ches
Q R
ol in
em en
Ġrep orter
Ġansw ered
[ ][
ysh ift
Ġcompris ing
ĠP CA
gh t
\{ (
Ġdis orders
ĠAng el
Ġs lab
j ee
Ġ )}
lu sion
ĠTh ailand
Ġattempt ing
loc ated
ĠS pr
T ask
Ġd oping
par ams
ak u
pre ced
ĠPan el
\/ }
vers arial
ool ing
Ġextra polation
6 25
Mean while
s ay
em ale
pseud o
Ġaut omorphisms
app lication
Ġconv ection
jo in
Ġn ights
S l
ĠC rime
Ġun ve
Ġexp ects
Ġcer tificate
ĠOrig inal
Ġv essels
Ġcoun ted
gra v
Ġaccess ed
Ġaffor d
ug by
ĠN ep
16 9
Ġswim ming
19 08
ĠLe vi
| .
AS P
pp y
Ġan ne
ci pi
ĠIn iti
s hire
Ġb ull
Ġ& :=
ĠE ve
17 7
prov ided
Ġinf ections
b eck
Ġal pha
ĠWhe ther
ry ing
Ġiner tial
Ġp ill
Ġshap ed
Ġs tic
ĠS ain
^+ $,
Ar ray
Ġill umin
Can adian
Ġpar ser
al tern
19 6
ĠColl ins
ed ition
Ġhop ing
itro gen
le ans
ĠDak ota
ke ep
k w
Ġcomfor t
P ad
ĠS now
ĠMor ris
AC S
ĠK lein
Ġsurv ived
17 8
ĠT u
friend ly
ou x
Ġcompact ness
se lected
Ġsub system
Ġrece ption
Ġre lying
ĠPat ri
ĠFor um
ator ies
Des ign
eta ble
M eta
Ġref ine
eg er
}\ |^
B ob
s pl
ch t
& $\
ama g
} &=&\
ĠR ather
& -\
ĠAt tack
Lear ning
C lick
Ġthe ater
ĠT ables
Ġpull back
oth esis
Ġprun ing
}\ {\
iv ely
Ġconf ron
Ġmal icious
av oid
ĠM s
US A
Ġcompi led
ann ah
Ġint rac
ext ended
Ġcred its
=" #
AM E
Ġcas ual
Ġinv is
Ġsurve illance
Ġpropag ate
im it
Ġfeas ibility
Ġpaint ings
ĠD ance
Ġph ysi
Ġaffor dable
ĠG ill
ĠOper ations
A bs
ĉ ĠĠ
ni kov
Ġaff airs
\ (
Ġmountain s
iden tity
mu st
ub i
ich e
g un
n odes
ps hire
ĠF an
}] $,
arib bean
Ġdu ties
Edu cation
ĠMad rid
Ġab ilities
Ġeth nic
Ġpredic tor
ĠLag range
Ġsp ir
ĠS itter
ĠF ather
L oc
Ġin comp
ĠA p
c ision
Ġdraw s
ĠPer haps
ĠA ra
bo ards
Ġlo ose
}. \]
H en
z ier
Ġg ross
Ġra ises
Ġup grade
Ġeff icacy
6 50
f are
Ġsub category
20 7
S us
Ġdec ides
Ġvirt ue
ĠApp lication
h c
S tation
ĠDis c
="../../ ../../
Th omas
Ġfurther more
Ġad verse
}\ }$,
Ġcooper ative
U pdate
Ġin telligent
ĠRog er
om ical
The ir
com par
Ġcat aly
Ġminim izer
Ġassign ments
Ġpack ing
Ġmaxim izing
Ġview ers
Ġbon us
L ight
Ġ ðŁ
om al
ess ment
)\ }
ĠPark er
Ġconf used
ack s
ĠT ren
pro ton
Ġins ert
Ġeng aging
N one
ĠA ud
Ġin consistent
] }{
ĠG ate
Ġg all
Ġf ocal
Pa per
constra ints
de tails
ens on
g rowth
OR T
{ ,}
Char acter
Ġoff ense
th ose
Ġg ent
Ġor al
Ġpress ures
ĠMc G
ĠO cc
17 2
ogen esis
Eu Script
ĠSpe ed
bos on
ĠPri vate
Ġt ennis
cap es
ĠF ront
Ġminim izes
Ġstack ed
ĠI a
Ġb ump
Ġd om
Ġconstit utes
18 9
s z
ac tivity
Ġsav ings
ĠBe yond
19 13
cross ing
s it
ĠChar acter
ĠDise ase
00 9
Ġconc ave
yp ically
Ġch ir
non linear
' ).
21 7
ĠJu an
Ġasympto tics
Ġrescal ed
Ġem ploys
Ġwave function
ĠAd ditional
ĠF ab
ĠJ oint
Ġcon current
ĠN ob
19 07
Ġsuccess or
Ġ Ã©
rop ies
Ġpic ks
ma to
Ġsp ite
ĠV el
ĠA th
E valuation
Ġdiv ides
coh er
az a
ĠFor mula
Feb ruary
Ġpro l
Ġele ven
N AS
Ġg ly
}$ =
19 05
Ġorb ifold
Ġh ell
ĠHes sian
Ġtwe ets
u table
ĠL M
19 11
nam ely
Ġwork flow
Ġjus tify
ĠPrim ary
le ep
acc uracy
Ã ĥ
Ġg au
ĠM other
Ġ ^\
4 80
ĠCho ose
Ġmis take
ĠVis ual
| )
ol id
Ġmark ers
Ġlaw yers
erm al
^+ _{
Ġc rop
Ġ$\ #
Ġsurv iv
n f
Ġmanufact urer
ee k
R oman
ĠAnd y
Ġoutper form
Ġdemoc racy
Ġsk ip
3 70
Ġshell s
rac ks
Ġcurren cy
Ġex clusion
B usiness
& (
ĠD S
Ġe jecta
ĠW H
Ġsub mission
Ġ );
Ġh orses
Ġsp ans
tinu ous
Ġdiscrimin ator
n h
Î ¹
con clusions
experim ental
ĠI an
ĠV ar
Ġ }^
Ġid em
1 200
Ġpur ple
Ġorgan isations
ĠGener ation
ra ble
other mal
Ġder iving
as ions
ph ysics
ĠN H
ĠSha h
ĠHistor ical
Ġdep ths
Ġd Ã©
Ġl ith
ou ville
equ ality
10 000
Ġrefere e
Ġpartition ing
Ġdr inking
Ġbr ighter
ke ley
}) ).
Ġsimpl ifies
Ġre combination
Ġrenormal ized
eg el
ĠM ic
Ġsupp lementary
ĠH T
á ĥ
33 3
Ġacceler ate
m eter
Ġspecific ations
)| ^{
Ġobsta cles
P ass
ore tical
Ġpo ison
ĠCom bining
Fil m
ant om
Ġproble matic
ĠRe ading
ĠM F
Sto kes
Ġpredomin antly
Ġenerge tic
Ġw eren
20 6
it ol
Ġvacc ination
Ġtri ples
& \\
Ġm ice
Sch warz
Ġar tistic
Ġrescal ing
ĠCom puting
ĠH end
Ġtransmit ter
ĠK il
Ġatten uation
Ġpath way
28 8
Ġfail ures
Ġfrag ment
ul in
ĠP uerto
f ef
ymm etry
ĠA V
ĠH orn
ĠL en
sur vey
Ġphotograph s
Ġtrans l
satis fies
lov ak
D ir
ch an
Ġdec lined
str ut
RO M
ĠCom ics
ĠR ing
Ġel imination
/ *
ĠB A
ĠPoli tics
Ġenorm ous
L eg
ĠKenn edy
AT O
for mat
St ream
ĠOr leans
coordin ates
ĠEv ans
our t
=\ {\
F rank
Ġdi al
17 3
Ġredund ant
Ġphot ography
An n
Ġclaim ing
tain er
Ġen zym
pl ant
ĠC W
for mulation
Ġpo em
Ġcompris ed
}^* (
Ġven ue
nice frac
ĠBrazil ian
m illion
jec tivity
Ġdat abases
texts l
ed back
ĠA le
A BC
st ore
ag ger
Ġtransform er
ĠQueens land
O k
Rec ent
Ġplu g
ĠH il
Ġjo ins
Ġd ys
ĠC leveland
ĠE ST
per fect
ĠĠĠĠĠĠĠĠĠĠĠĠĠĠĠĠĠĠĠĠĠĠĠĠĠĠĠĠĠĠĠĠĠĠĠĠĠĠĠĠĠĠĠĠĠĠĠĠĠĠĠĠĠĠĠĠĠĠĠĠĠĠĠĠ ĠĠĠĠĠĠĠĠĠĠĠĠĠĠĠĠĠĠĠĠĠĠĠĠĠĠĠĠĠĠĠĠĠĠĠĠĠĠĠĠĠĠĠĠĠĠĠĠĠĠĠĠĠĠĠĠĠĠĠĠĠĠĠĠ
ĠSen ator
b ank
Ġdivis ors
ĠH O
fic ations
}$ &$
' )}
ĠAl b
ol ly
Ġsummar izes
}| _{
she et
Ġsentim ent
ĠBar celona
l k
Ñ ĭ
ec om
ma ils
^* =
Y au
ue z
Ġcos ine
Ġa es
Ġextract ing
ĠStra teg
A uto
Ġwar ming
ĠSta tistics
ĠDrag on
pa ths
ĠSt rong
.~ (
Ġch est
sol ved
ĠHamiltonian s
Ġsub script
in ternal
ac o
Ġlo b
be a
ĠSte el
arab ic
it ual
Ġgeneral izes
)) ^{
ĠBlo ch
ĠPit tsburgh
Ġlux ury
ĠG round
Ġsil ent
ul tation
3 80
Ġori entations
Ġn od
Ġaxi oms
Ġinser tion
Bas ic
Consider ing
c ology
Ġ$[ -
Ġprac tition
pir ing
ĠB ranch
B an
u f
Sh ow
ĠFin n
AN T
g ives
Ġweak ness
Ġthermod ynamics
re z
ĠBar on
algebra ic
Ġbott len
Ġqu ote
Ġlock ed
P redic
ĠK el
ĠN an
en tion
ĠÂ ±
P B
Ġfavor able
ĠN at
plic ation
Ġharmon ics
ĠEm peror
Ġh ip
Sub stituting
ex ec
As sociation
j un
as suming
clu de
ob i
Ġ(- .
structure d
s tive
ĠI MF
ĠSt ream
ns tein
ĠA ni
po or
Ġfor got
Ġhand ed
Ġencoura ging
Ġfol ks
ill o
Ġcoast al
Ġdis advan
ĠStan ley
off set
Ġanima ted
co ck
ogon ality
Ġv iv
Ġfollow ers
in z
is omorphism
con duct
ĠFre edom
ph ra
r ors
the astern
dist ributed
v ic
âĸĪ âĸĪ
ĠJ S
ĠPal ace
ĠWar ren
ĠF err
Ġflav our
Com paring
unit length
in ar
ĠL ot
ĠMitch ell
Ġop tics
ĠR ule
[ (\
ambig uation
ĠArch ives
Ġalter ed
Ġdro pping
ĠM n
Ġex isted
ĠC emetery
ĠE valuation
So cial
ĠW igner
am ount
}\ ;\
Ġ& \\
ĠF BI
ag onal
Res ponse
Ġenc ounters
Ġnonlinear ity
Ġrom antic
Ġ> >
Ġ rms
D W
ĠF I
ep tion
dis p
Ġcoun ties
; "
ĠD ouble
Ġinf lam
ĠPro b
******** ********
L Y
Ġexam ining
Ġt ags
Ġevery day
ĠTechn ical
n z
um i
ĠP il
bin ding
Ġheavi er
B K
ĠA verage
Ġprotest s
iz ability
to o
^+ }
c N
enn ett
ĠĠĠĠĠĠĠĠĠĠĠĠĠĠĠĠ ĠĠĠĠĠĠĠĠĠĠĠĠĠ
Ġl ighter
Ġtrans fers
ich i
ox ide
Â Ń
,\ ,\,
ec tious
S hi
Ġaccum ulated
ĠH S
) &=&\
power ed
bor ough
A rm
Ġfir ing
Ġsh ed
'' _
: $
ĠDist ribution
ä ¸
acc ording
Ġagg ressive
Ġcovari ates
Ġforb idden
ĠM M
Ad ditional
Ã ł
Ġmonop ole
Ġf u
18 3
ĠSte ven
nucle on
Ġdetec table
C AR
Ġin door
Ġra mp
son ic
ĠTrans port
sen sitive
ĠG la
id i
k an
L ocation
ĠK on
Ġcondition ing
Ġhuman ity
Ġtrus ted
D U
ĠD I
y ellow
Pre liminaries
ĠB ren
lb rack
ĠCro a
b A
n ia
observ ation
ĠClin ical
fef efe
ĠE volution
Ġvola tility
Ġvo ices
eler ation
ĠArm en
Ġsum ming
}} )$,
Ġcross ings
ĠFrank lin
tw isted
Ġthread s
ĠC opyright
Ġdef ici
o tion
ĠF el
\,\ ,
ĠT ower
Ġcer tified
Ġretrie ved
C ir
Ġex cite
Ġimp ed
Ġcontain er
); \
0 13
M yr
âĢ ¯
tes s
IM P
m ut
en table
Ġag enda
Ġdi et
Ġsub stance
Ġrevers ed
Ġ| ^
ĠU T
Ġcomm ander
ĠEqu ations
ok a
ĠCh amber
Ġl ane
)\ }_{
Ġpoly gon
Ġimm igration
19 3
ID S
k im
v phantom
Ġb ronze
Ġl oud
Ġbacter ia
Ġperm its
Ġscan ning
AM P
Ġfav our
p zc
U LL
ĠRich ards
ane ously
a ccess
Ġ_ _
Ġpro mp
22 6
ĠT ob
ĠQ SO
ĠC ut
^{+ }
I a
Ġg ard
t ang
pro por
ev y
l iving
v ideo
ĠPort land
ĠJul ia
ĠFellows hip
Ġspec ta
k p
Ġcompeti tions
end i
Ã ´
Ġcirc ulation
Ġdef ence
Ġstand ardi
Ġnecess ity
Ġdist inctive
Ġblock ing
Ġfant astic
op les
entral ized
Ġtrans parency
l isted
ĠE R
Un like
F u
Ġg ri
Ġp up
Ġrender ing
t os
Ġf ate
Ġf li
o the
Ġelab orate
ĠĠĠĠĠĠĠĠĠĠĠĠĠĠĠĠ ĠĠĠĠĠĠĠĠĠĠĠĠĠĠ
Ġg ases
ĠB ap
Ġp orts
ab ad
Ġc ath
ĠA x
Ġcoinc idence
ĠMater ials
18 6
Ġch ances
ĠOr chestra
ĠS VM
Ġdiver gent
Ġposs ession
og raphics
Ġexclu ding
Ġfila ments
Ġoper a
ĠBul g
Pro perties
Me asure
az ines
ĠPa pers
ĠN aval
P Q
ĠEd inburgh
Ġb ubbles
Ġe pic
Ġg ym
ĠBlo om
ĠG ov
Ġcl er
ĠC rown
he ating
.} ~\
Sh ort
Ġqu atern
AB LE
requ ire
} ]{
K h
Ġview point
Ġd ressed
Ġpre mi
f lush
omo tive
n ical
od i
av or
ĠLear n
ĠO d
res pect
Ġfinish es
Ġban king
im an
ress es
}, {
0 24
ĠO range
Ġcry pt
g ie
Ġback ing
Europ ean
Ġco h
' }^
Ġrest ore
v u
es a
ĠM ik
ĠR isk
ore sc
et or
con ven
F l
ov al
Ġpos it
ious ly
curren cy
strong ly
W H
ĠOb ject
Ġcloth es
si x
Ġemer ges
he avy
p ion
ĠO DE
Ġab road
consider ed
Ġadjust ment
Ġselect s
ins ula
Ġv iral
lo yd
Ġterm ination
Ġgra sp
$ }{
ĠClass ic
ĠOb viously
bas elines
ĠMur ray
ab lation
ĠAltern atively
Ġdes per
Ġlaw suit
Ġs id
Ġelev ation
3 10
Ġexpl ores
Ġelectron ics
Ġprob es
ĠJim my
R ock
g f
z ag
ĠPri x
Ġseven th
Ġtalk ed
fer red
ĠRel ig
ĠC MS
ces sive
Ġlo ves
ĠPer u
ĠZ ar
Ġun ital
Ġs rc
Ġ /\
Ġdomin ance
neut ral
ann es
Ġsug ar
j ar
em p
ĠO DI
con tact
ar poon
Ġover se
F r
ĠGri ff
h orn
Ġ[ ->
ming ham
Ġprom ised
Ġbe er
Ġwas h
ĠTurn er
F ollow
ĠO il
Ġclar ify
bra tional
ĠMa ine
Ġveter an
C er
G ame
}] .
ĠRam an
hi er
ĠB our
)] .
ph ys
Ġpre vention
Li pschitz
n ell
ĠAccording ly
Ġarri ving
pi le
ĠIs a
23 8
S ample
22 7
st rict
ĠL ith
[- ]
ĠUni versal
ĠStar ting
C W
ĠNor wegian
Ġprevent ing
eg ree
c ss
ar ms
Ġl uminous
Th ird
L ou
enez uel
} ',
)$ ).
ĠU E
ren ces
del ay
}{ }{
ens is
ĠBo ys
P RE
n x
}/ {
reg ions
ĠL inear
ĠGa ia
Ġsu i
_- (
Ã ª
es pecially
ĠAb d
fra id
C ell
}, ~\
Ġlog istic
Ġv enture
ĠH ubbard
nam ent
Ġspeak s
Ġhe ights
ding ton
bm od
St ructure
Ġclin ic
Ġscre ens
Ġexp atriate
l uminosity
Ġ ĉĉ
ĠE L
ĠMem ory
ĠCom ment
Ġla dder
W rite
ĠC CD
ens pace
be y
ĠArk ansas
spec ts
ĠLin ux
ĠNC AA
Ġinten sive
ĠS ale
Ġl ig
{- }\
Ġli ver
Ġthreat ened
Ġsub division
Ġbary ons
Ġgather ing
ĠSt orm
Ġtran sitive
Ġatt ending
ĠEm ploy
b ons
: \,
ĠR M
ĠBe ijing
)} }$
rest ricted
Ġdeliver ing
Ġtechn ological
Ġg allery
c ould
ĠProdu ction
Ġdissi pative
T B
de le
Ġregular ized
Ġhabit at
b ai
Ġbank rupt
quir y
st ory
pi racy
dist ributions
Ġcoal ition
ĠHawai i
With in
wart z
@{- }[
ĠK ate
Ġvio lations
ĠBit coin
Ch ina
T aylor
ĠG all
Ġtra vers
Ġpick ing
Method s
Ġf uzzy
_* (\
i q
Ġbut ter
22 1
ĠPortug uese
Ġampl ification
O ld
d est
ĠT X
St art
ĠC luster
math pzc
Ġro tate
Ġvis ually
H uman
en vironment
sh ore
iter ranean
ĠEar l
Ġth irty
ub ert
ect ure
su c
/ [
Ġread out
ĠJust in
C opyright
ch ap
roll ing
cover ing
Ġstock s
Ġdi am
ĠH ope
Ġm ari
}( -\
Ġaudi ences
uk a
Ġb ills
Ġcent res
Ġis ometric
S ources
al ia
and ro
ĠE SP
\! -\!
w r
ĠN ord
ĠEx cell
heim er
ĠH ST
ĠC atal
Ġcli que
Ġpred ecess
Ġj am
16 1
K D
Ġc u
ĠZ one
Ġop tional
Ġg y
Ġgraph ic
ĠM oney
lay ers
Ġpeak ed
ĠJ oy
charg ed
ĠM HD
bul k
Ġsm ile
si bilities
Ġ[ âĢ¦]
na ti
Mart in
ob jects
emb edding
m ol
up ta
ĠN IR
c ube
glu on
à¤ ¾
ĠLead ership
ĠLa unch
Ġorigin ating
ellip tic
ĠÃ ¢
* }{
Ġd an
f its
Ġph ones
Ġ" \
cite alp
Ġ\ }.
w ig
Ġtransform ing
ta d
integ er
sup seteq
Ġshel ter
}| }
Ġcod ew
F ermi
ĠC hat
Ġinterven tions
Ġcult ures
g ain
m og
K o
T ur
tig ation
arg min
Ġcopy right
ĠIn surance
Ġdis connected
magnit ude
ine a
19 09
j ump
Ġtil es
Ġ icon
Ġun labeled
Ġre nt
Ġcol oring
fol ding
Ġpuls ars
ĠP ap
Ġle ts
)| $
ĠDep uty
alla x
M V
M essage
ĠR s
n old
Ġsl ots
R V
ĠTh ank
ĠTerm s
Ġis ospin
Ġhad rons
ere z
bar rel
F ish
Ġinter change
Ad v
Ġfree ze
ĠCommon wealth
m x
Ġ\; ,
Ġw orm
ĠC row
ĠD anish
ĠR NN
Ġinst ruct
O PT
)} |
g d
ote ch
}^+ $
ĠT oy
Ġsever ely
Ġclean ing
ro tation
ĠKen ya
ĠNewton ian
ar r
}$ '
os calar
Ġearth qu
ĠRe le
Ġdouble t
In dian
Ġelev ated
Ġpollu tion
}} :
ĠU RL
O ly
ĠDis cussion
Ġprovision s
)\ |^
l ived
Ġvoc abulary
w d
corre cted
ch air
Ġbe ating
ĠMont real
Ġc ous
ĠQue bec
30 4
other apy
Austral ian
qu al
ĠA la
ĠL amb
Ġsatis faction
ĠT ik
dis per
ema il
Ġrecur sively
' )$,
Ġpreserv ation
preced ented
$ ^+$
e ared
const ruct
ĠB ah
Ġcor onal
Ġstrength en
0 14
ot ts
cept ual
Ġviol ating
Ġsci ences
Ġ$ >$
Ġde fic
ĠV eter
pher al
ac ted
Ġsubt racted
rest rial
Ġcommission ed
Ġre vis
ĠV ision
tw ork
ĠTer rit
v et
ĠN BC
Ġegg s
ow ell
z ar
Ġacknowled ged
Ġt ale
T ax
cast ing
ĠPub lished
}_{\ {
Ġperiod icity
Ġwave let
ĠO w
ĠN u
ĠS ide
Ġun ders
Ġr hythm
ilibri a
ĠCra ig
F lor
Ġd rew
ra ther
dic t
Ġcorrect ness
Mat rix
Ġfla res
Ġ });
am ous
18 90
Ġflo od
, '
\% $.
Cal c
ĠAgain st
b ie
mod ified
Ġcre am
ĠSp in
Ġ\! \!
IS A
17 9
Ġven ues
Qu ery
ĠF alls
b order
{ .}
ri fic
}) .}
qu i
ĠB essel
Ġreg ards
ĠPro p
ĠM all
ĠN ad
ĠV A
ĠN ak
Eq s
ĠRob in
Ġsec ular
App lication
Ġpreval ence
= '
Ġlic ensed
Ġprogen itor
ĠY e
ut z
Ġcl umps
Ġal beit
is ch
Ġarchitect ural
Ġgold en
I o
Ġ\| _{\
T an
am ard
Ġv ir
Ġextra ordinary
approp riate
ĠC aribbean
ĠThe ater
Ġin no
fe atures
Ġre moves
ĠT ed
Ġmulti ply
Ġcompan ions
ĠPre sid
Ġcol linear
Af ric
Ġantis ymmetric
c um
yn chron
ĠLiber al
L ater
Ġconjug acy
els en
Ġrep ly
Ġafter wards
Ġst roke
Ġcele bration
ĠEg yp
ĠMan hattan
H aw
Ġalgorithm ic
t as
w right
24 6
complex ity
' }$.
Ġal umin
Ġoptim izer
sho ck
ĠSpr ings
Ġsp urious
ps y
Ġblock ed
J P
}} |\
ĠCh ain
ĠK K
Ġp it
Ñ Į
ĠI F
Ġb ranes
A h
Ġgener ically
pro ving
Ġf ading
ĠAn imal
] ^{-
19 04
dis cipl
Ġr ises
Ġhome omorphism
occ up
Ġhaz ard
ĠL D
pa te
Ġbu ck
Bel ow
22 3
Ġstay ing
Ġb ridges
ĠAT LAS
ĠSh ang
^{* }$
ma pping
in vol
load ed
n umbers
t owards
* (
Â »
Ġsus pected
perturb ed
ĠH ockey
ĠK id
ĠQ ual
fact ors
m rm
Ġoppon ents
R W
Ġcur riculum
ĠBro thers
Ġre sembles
Ġla pt
Ġsc ans
Ġscienti st
integ ration
s rc
Ġp ink
um ination
ĠLe ban
ĠBern oulli
simula tions
Î µ
ex am
en v
ĠT as
Ġrestric ting
Ġcomplic ations
ĠC iti
Ġgrid s
Ġin n
Ġv ent
ĠJ osh
Ġhe ated
spec ially
usal em
Ġfail ing
Ġinter play
ĠDen ver
Ġsmooth ed
ĠIndust rial
g ger
ĠI NT
Ġanaly tics
hic le
ĠB B
Fe ature
inter cal
Ġpa inted
Ġmet res
ĠT s
4 25
Ġenc odes
cal ing
ĠP on
m oving
Ġpath ways
C la
Ġexp ort
Ge orge
Ġt ape
Ġen emies
Ġlog o
C ity
Ġfer romagnetic
lect ing
ĠLe ader
Ġsuff ers
En c
Wh ich
el in
coll ision
ĠR AM
Ġsearch ed
Ġincorpor ates
ĠCol omb
ĠAren a
Ġel ong
co lation
ĠN J
rac tical
Ġswitch es
polar ization
Ġhistor ian
ss s
Ġdec oherence
nod ata
Ġtrac ed
G K
ĠFirst ly
Sim ulation
W el
Ġincredi bly
Ġannu ally
ĠMarg aret
e ign
f arcs
Ġdou bly
Ġsus tained
b log
Ġl ung
ĠP V
le ave
ega cy
Ġas c
Ġar twork
ob a
Ġapproxi mating
Ġreveal ing
ĠMathe matics
ol er
oper ative
work s
Ġpar ks
quad ratic
Ġoutflow s
v on
re q
Ġspec im
flu ct
ĠS G
Bi ography
ann ot
be at
ation ally
}= [
ĠAl aska
mas sive
Ġtriang ulation
Ġic onic
22 8
: [
ĠAr chive
Ġs its
pri vate
Ġre jection
ĠF ly
Ġconflic ts
ĠArab ia
ic t
ĠF ollow
n ar
ass ert
er i
Ġpregn ancy
f le
Ġdoll ar
em ics
ĠQ uality
Ġro d
Ġmorph ological
ĠR ot
co efficients
sw ap
ĠBen jamin
ĠCont ent
Ġcancel led
Ġred den
Ġcom ics
Ġorigin ated
Ġrecal ling
id ays
ĠGu y
pl ess
26 5
ĠN EW
ĠChar lotte
Ġre lic
ĠHon or
Ġfeed ing
/ **
Ġsuper fluid
Ġbi ology
ival ent
mat ory
A uth
ne ural
decre asing
ĠCompe tition
2 14
Ġj ew
Ġ ,\\
g alaxies
ci tation
ap tic
H istor
ĠC BS
}{ {
Ġtri ps
pair s
ĠD est
triang ler
H V
h m
mat ched
j ournal
Ġn itrogen
ull ivan
we i
ĠRe ference
Ġfavou rite
Ġsl iding
ĠN ever
ĠAnd re
h is
Ġflu ids
B in
ĠC old
Ġwork shop
e el
produ ced
eg e
ia h
Ġteles copes
Ġmar tingale
Ġob servers
Con tact
Ġess ence
uff le
ĠChris tians
Ġpsych ological
Ġ\ }_{
ĠS z
Ġat tractor
\ (\
Ġma xima
ID E
& {\
ast ing
Ġshi pping
M em
od ium
ĠSw ift
maxim al
Ġunivers ality
AT H
as a
re ver
ĠC ultural
Ġex changes
ru d
Ġencry ption
j ets
Ġflat ten
Ġstrugg ling
Dire ct
ĠP U
ĠF ight
W a
d E
ti tive
Ġprob able
v ir
Ġan tic
tis an
' }{\
] ^\
at ta
Ġsl it
ers tein
e i
Ġth ri
Ġm ouse
PC A
La TeX
set ting
mit t
ĠM RI
Ġn ano
Ġforecast ing
Ġfract al
V ER
ĠA bs
Ġincre ment
ĠR osen
Ġsa il
Ġcon vective
Ġun necessary
}\, (
ili ation
Ġactiv ists
19 06
mark ed
ĠH indu
Ġdec k
arch y
decom p
oher ent
ĠM illion
b C
2 18
cor respond
Ġredu ctions
Ġconcaten ation
Ġgra ding
Ġcra zy
Ġwin ding
ĠMove ment
ĠF E
ling ton
'' }
l iv
Ġexp enses
deg r
Ġcompetit ors
Ġa ired
ot ype
ĠC artan
Ġrecept or
< $
Ġbo olean
Ġcomm uting
Ġspect ro
Ġshe ets
ĠDi ag
cap s
eng u
Ġhist ories
sh ops
med ia
Ġmul tis
bra ham
Ġtox ic
U l
con jecture
Ġneb ula
P ark
ec urity
uck s
Ġdo zen
ĠCh a
rac king
ĠBe the
ĠMor se
ĠBer ry
ĠF itz
Ġun ions
ap oration
P rim
Ï Ħ
ĠV irtual
ail ing
ĠJ ess
Ġcomp os
^{( -
Ġformula tions
Ġarch ae
Pro cess
Ġhem is
os pheric
ie v
ash a
3 15
ĠB ody
âĢĿ )
Ġprotect ing
Ġad mission
Ġcomp et
S elf
ression al
Ġneighb ours
0 40
Ġ\; .
tx t
d q
ĠC ount
Ġdecom positions
Ġinver ted
g ender
38 4
)$. }
Ġquanti tatively
ĠRac ing
in ery
Man ager
ĠBud dh
M ur
intend o
ag i
}( {
Ġactiv ist
ov o
26 4
ĠW rite
pir atory
A wards
Ġcentral ity
H as
Ġar chive
S at
ĠSol id
else a
Ġiner tia
aspect ratio
b et
Y S
ĠB ound
ĠKe ith
ĠD yn
ĠCo al
U D
ĠJ azz
con ditional
23 7
aff ine
P eter
Ġcommu tation
W he
ire ctional
Ġinc idents
ĠCam paign
g ly
Ġdocum ented
Ġsub manifold
Ġl un
Ġr iding
Ġpredic ate
Ġtour ism
11 11
20 24
Ġexpress ing
Ġinher ited
ick ets
}} [\
Ġsurv iving
F lu
ri ors
ram id
Ġd ans
Ġti le
Ġsw ap
eval uation
Ġple ased
ĠDemoc rat
Ġ }_
ĠM etal
av an
Ġ$\ ,
Ġvulner ability
text backslash
B ER
P f
19 03
experim ent
ĠR ules
tis ation
Ġlab our
Ġin valid
Ġl in
Ġg erm
24 8
Ġellip se
Ġappe aling
Ġbus es
Ġshould n
Ġcast le
K O
con cent
}- (
ĠAr ray
or tions
ĠR io
Ġsh ops
ĠW es
Ġdivision s
xi om
Ġpos et
s an
Ġprocess ors
b X
ĠCon stant
ĠPh ysical
ĠBar bara
ef ul
Ġsynthes ized
ĠI g
,\ ]
Ġre versal
ov ic
ĠCom mons
Ġdecou pling
en ame
ĠDec ision
o ints
Ġle an
Ġwish es
Ġvol can
x iv
$ ''
oth y
e ys
ĠM LP
Ġdomin ating
ĠW or
Ġapplic ability
Ñģ ÑĤ
ine quality
Ġ+ +(
Ġper pet
k T
ĠB rew
CT ION
ĠCh ronic
ĠS EC
ĠV R
Ġrestric ts
Ġchar ity
effici ency
Ġsing ers
Ġw age
iz a
ĠPer iod
Ġdeli vers
N H
22 9
W u
vi tation
Con dition
L ondon
Ġcomp elling
$- -$
Ġco ales
ĠHel p
ĠCommun ication
h ler
Ġoscill ators
ran ger
Ġspac ecraft
ĠLiter ature
ĠB EC
Ġsw ing
Ġbene ath
ĠPl ant
mix ing
z el
Ġc ad
pop ulation
V R
Ġoverwhel ming
r ally
Ġma mm
Ġhospit ality
b rand
Ġorgan ised
ĠCl ar
ĠOper a
triangler ight
Ġpor tions
ĠD D
Ġquar tic
ĠBroad way
Ġde position
Ġvor ticity
ĠCommission er
Ġess ay
Ġv ox
by e
Ġbroad ly
ĠT S
D ataset
h ind
Ġsh ore
w id
ĠK itt
Ġca ution
Ġcolon ial
Ġcharacter izing
23 2
L ive
i mag
Ġfoo tage
Ġch ord
I U
M ASS
] \,
ĠB right
pan ic
Ġp ounds
Ġb ending
vi er
Ġbo ards
fig ref
ĠL C
oresc ence
Ġprison ers
ira tes
adj ust
Ġpay off
h ape
t k
Ġavoid s
center ed
sec urity
ant or
Ġcompact ly
Di rac
as ive
P en
id ental
r ink
Pre sident
Cont rol
ĠImper ial
Ġpro fi
cap tions
Ġwild life
Ġcontro versy
ĠF ile
ces e
ĠCre ative
O F
ti z
ĠMN IST
ugh ter
ĠC AR
Ġpat ent
Ġ á
ĠGra ce
h art
apa che
Ġcoach ing
P roduct
Ġqu ies
ac re
Ġcal or
decom posable
cont ribution
Ġabsor bing
Ġaggreg ated
Ġcondu ctor
ub a
occ ur
> &
ĠR ena
sign ed
ĠE lection
Ġste ering
RE E
Th ank
Ġgeneral ised
over eign
Ġtra pping
ĠCos ta
], [
timate ly
radi al
ĠB M
Ġk a
y x
ĠA aron
ĠHam pshire
ĠWay ne
ĠN R
i que
Ġtop ologically
Ġagree ments
ĠK ids
ĠGre ater
Ġinstant on
ĠE OS
Con versely
Ġlock down
' )^
Y oung
ol ished
ir k
Ge ography
Ġdeal t
il ia
ĠR ud
Ġcolle ges
ĠCom b
Ġin elastic
Ġam ple
Ġcommut ator
ran ging
ver tices
align ment
ĠMa j
n is
Ġwood en
Ġhistogram s
)$ ]
Let t
Ġ[ ]
pris es
-- (
ĠPh ilosoph
Ġdead line
Ġremn ant
n est
19 01
ĠO tt
load ing
Ġcomm ented
Ġgovern ance
s low
Ġcategor ical
Ġab ortion
Ġsec ured
ĠJohn ny
measure ment
iffer ential
L HC
re ck
ĠL oc
Ġrep ulsive
Ġacc oun
C ent
Ġintrig uing
ĠM ess
Ġtrem end
ĠB illy
ĠEpis ode
K u
Ġprodu ctivity
inter section
Ġl ifts
enn ial
tor us
og nition
C ount
G ordon
j ava
rest riction
Ġw ars
Ġd ad
ĠG H
Ġd ated
posi ted
Ġneutron s
C luster
23 6
Ġdisp ute
ĠI da
0 35
W T
ĠJ ennifer
ĠVer sion
c R
r ar
ear ly
}~ (
Ġani mation
Ġg lobe
ĠS pi
Ġres et
con tains
Ġref lections
Ġim balance
Pri or
Ġutil izes
}\| _{\
Ġworld s
Ġlif estyle
_{ [\
Ġab lation
ĠStan ford
Ġmin istry
ĠN V
log y
Ġachieve ment
com pared
inter actions
ĠPro tocol
acc o
g alaxy
J im
trans formation
ST AR
* ,
ĠOper ation
18 80
ĠP ain
ba um
hu ang
d ou
Ġde partments
Ġun precedented
Ġm ere
Ġra ted
Ġinhab itants
M ah
ĠCon tract
Ġbehavior al
Ġ Ø
ĠCarl os
ob jective
ta k
Ġl uck
ĠC ricket
ograph er
ul ant
ĠProgram me
L ip
r Ã©
ĠPlan et
ĠCas imir
un es
ĠE state
Ġeconom ics
Ġp unch
Ġper c
ann els
sen al
squ ares
Ñ ĩ
Ġ Ä
ĠMa ur
ĠD G
0 16
Ġocc asions
Ġdeb ris
Ġretrie ve
isot ropic
Ġan ch
P erson
Ġhun ting
lu g
mod ular
d ar
Long rightarrow
0 20
Ġciti zen
Ġh orn
ĠS ample
Ġp osed
ĠPre vious
ĠLu ther
ange vin
satis fying
h f
ti ff
ĠNev ada
Ġjudg ment
Ġtom orrow
ĠD rug
Ġanti fer
LE S
V ic
c x
Ġdivis ible
J D
Ġinterpre tations
Ġcr ush
ge om
Q M
Ġign oring
Ġsatis factory
ĠO H
Ġdig it
Ac ad
Ġstem s
ĠK S
ĠHe b
ĠExperim ental
' )=
Ġpres umably
Ġsur ge
Ġsur rogate
Q S
Ġassoci ative
ec onomic
Ġsmo ke
Ġh oney
ï ¼
Ġmon odromy
EN D
T it
Ġsub scription
ep ti
U pper
ĠC G
os yn
b ic
ĠL ost
Ġrock s
qu oted
ĠTechn ologies
30 1
Ġlack ing
met all
H ilbert
ĠGre y
Ġminim ized
at able
? )
ĠN W
Ġanxi ety
ot to
m cal
Ġ\ },
Th ose
Ġdis ruption
Ã¼ r
Ġw aven
Ġdup lic
B ibliography
l ich
$\ ;
40 1
Ġalgebra ically
Ġmeta bol
Ġcondens ation
Ġc art
Ġdras tically
Ġrenew able
ĠI ssue
osc opic
Ġg ad
ĠK as
}} ),
Ġdi abetes
l q
0000 00
Ġmyster ious
$ )}
ĠL MC
ĠG E
Ġcat astroph
Ġf uck
Ġan ime
ĠBlu es
calc ulated
ĠQues tion
rem um
Ġabund ant
ĠE lementary
sub fig
g ive
qu it
re action
ix on
ĠRe LU
Ġ( !
ĠR ange
Ġadver tise
E ast
g low
23 3
Ġbin omial
ĠHu dson
eg u
ĠMus k
4 95
v ich
g end
Ġs lip
Ġd S
Ġemphas ized
Ġcompu table
ĠS par
ĠD ES
is en
Ġa fraid
Ġst up
ĠMur phy
ĠS equ
Ġab normal
lasg ow
Ġmis match
b q
ĠBir mingham
te cted
Ï ģ
ĠC atherine
\% $,
Ġimple ments
Ġcomprom ise
ĠA uth
Ġ. \
lat on
Ġquanti fied
ges tion
st rom
ĠK ay
Ġ| {\
ar bit
ĠP N
Ġup ward
ĠZ ero
depend ing
Ġfasc inating
id ently
in line
23 9
Ġleak age
4 75
ĠJup iter
> (
A W
ĠM DP
ph or
row color
Ġmanif es
hol omorphic
M is
Ġdec ent
Ġem itting
Ġstabil ization
] }{\
ĠB ottom
Ġn odal
ĠF ro
Ġpr inting
rist ol
ĠSome times
ĠMountain s
Ġtrav elling
C amp
Ġt uples
Ġtra ditionally
Ġstiff ness
ĠD eli
Ġconstitu ent
In dia
Ġrom ance
ĠMuslim s
ĠO wn
Ġresi li
H N
K G
em in
$. )
ogram s
ĠLau ra
}, ...,
og y
Ġdis ent
B ell
ĠC ome
E U
T Y
no tes
Ver tex
an ic
Ġin ad
ĠB PS
Ġpers u
Ġst reak
ĠCon v
integ rated
Ġt anks
qu ette
Ġk nee
Ġlo ads
Ġfoli ation
ĠSt u
AT A
---------------- ----------------
ing ual
b z
mon ary
ĠP le
Ġac ted
ĠK it
Con tin
29 5
Ġth rown
ĠS la
pol ating
f usion
ĠArab ic
ĠAgric ulture
E val
Ġfor mats
Ġdon or
}} }$,
dis ambiguation
ĠEx perience
Ġassign s
ĠSe an
Ġparameter ization
; &
C ond
v k
ĠPic tures
ĠW orth
ĠT on
ĠJer usalem
ex change
Ġ rice
J ul
)$ \\
Ġst d
ĠT alk
soci al
99 99
F lo
Ġdesign ers
Ġhand ful
b ted
ĠL ad
apeu tic
Ġpre condition
correspon ds
Y Y
ti tions
{\ #
Ġ= -
Ġla titude
Ġlegis lative
Ġcompac tification
og an
bers ecurity
is ta
S cience
ot ti
sh a
em ployment
Ġdisc arded
med ium
repres ented
vi Äĩ
Ġhel ic
ï »
ho o
Ġben ch
ur st
ĠY a
ĠBas ic
ick ed
ar atus
ari ans
ĠU L
scal ed
ortun ately
C ost
19 1
ra k
Ġcap s
ĠS oul
v n
Ġj ail
L ower
Ġex ceptions
ign e
ĠAb elian
Ġrecipi ent
Ġs orted
Ġal ien
inter face
R est
Ġt ons
Ġi ii
Ġw ounded
Ġmod alities
ĠA udio
Ġdaugh ters
Ġs ph
ĠB etter
Ġdisapp oint
ĠMulti ple
Ġr ally
ĠMed iterranean
Ġre vision
Ġl os
ru led
Ġball ot
ĠFram ework
30 5
Ġvolunte er
Ġmim ic
Ġorigin ate
Ġwe ird
Ġmis takes
ĠJ ere
Ġpop ulated
Ġoscill atory
ĠF ock
ĠF iction
Ġmeta data
put y
Con stra
Ġel ite
Ġstake holders
frac tive
ĠState ment
Ġexperi encing
| |_{
Ġro ster
ola tes
Ġdisorder ed
od o
0 33
Ġsch ematic
Ġsim ulator
ĠW ave
Ġth rows
29 6
Ġcorrel ator
or ated
Is ra
im ents
18 1
ĠHar rison
Ġmask ed
cur l
ĠBer keley
}} }$.
oul os
ĠM AP
ren ormal
~ }
Ġbounded ness
Ġbl ank
Ġmed ieval
defin ite
): \
ĠMin i
Ġout ward
ge ometry
Ġun correlated
Ġaccept ing
ĠS co
fun ctor
Ġte eth
ine e
Ġstabil izer
og s
ĠK in
Ġin distinguish
studi ed
Bigg l
ener gies
J ones
ĠX X
OR D
ĠBar ry
24 4
26 7
U til
ĠS ize
Ã© n
Ġmu tations
Ġpre cipi
bra ska
local ly
Ġreprodu ces
Ġbe aring
24 7
Ġw edge
ĠH F
Ġb anned
Ġprof ound
Ã ¥
Ġpack ed
Ġless er
ins tead
vari ety
Vis ual
ik h
ï» ¿
Å «
Ġgroup ed
ĠC ole
ĠM ig
Ġme al
Ġst unning
Ġwar ned
H ub
Ġtra ditions
ĠM ak
ox y
Ġvalid ated
C oun
Ġro tated
ĠSe pt
Ġproceed ings
Ġsal ary
ĠIndi ans
no break
I ES
ĠS GD
ĠP el
ĠMe eting
p it
Ġscholars hip
ev ents
ĠF S
ke ys
ential s
ie ve
Ġass isted
Ġemploy ers
top ological
h im
Ġal titude
ĠGRB s
F uture
Ġtempor arily
c ripts
ĠA round
C FT
ĠĠĠ čĊ
Ġunit arity
r q
ph oto
ath ers
ĠMor ning
ĠB egin
Ġstack s
acknow ledgements
b right
Ġre med
Ġsub urb
Ġvot er
g om
vi ol
j us
; {\
ĠHor izon
Ġfall en
morph ism
ĠRes ponse
order ing
Ġsoldi er
ĠDat abase
U RE
Ġellip so
{ =
ion ic
bb ed
ta ctic
Ġtrac ing
ĠS ug
Ġinflation ary
d N
Rus sian
radi o
ĠH im
Ġsystem ic
** *
Pol y
Ġ$ +$
Ġtub es
W alk
On line
sta tistical
IG O
ĠTrans portation
W ould
ĠD ol
Ġsemis imple
Ġc argo
ĠR MS
ĠGh ana
ĠD if
Pro ject
Ġref resh
dete cted
ĠF light
IT E
ÑĢ Ð°
Ġnotice able
Ġske leton
ĠVi enna
Ġma d
Com mand
~$ {\
Hy per
Ġremin is
et ero
ĠG PS
Ġ }(\
ĠJ our
arg ument
te o
ti ficial
Ġj ury
97 8
0 45
fin ished
en sitive
ĠN FT
Ġspa tio
m ans
3 12
ĠV enezuel
run k
Ġjour nals
Ġre called
pro blems
Ġattack ing
Ġconvin ced
Ġno se
Ġnews letter
Ġ$ }
Ġt ort
ĠC ay
Ġbr ut
ĠD ataset
ST R
Ġse lective
We ek
Ġcontroll ers
Ġg iants
In formation
ĠV a
Ġdec e
un itary
ĠI SO
fra structure
Ġshr ink
G reat
V e
Ġmem orial
fund amental
D ifferent
Ġp owder
Ġde puty
Ġlo ans
Ġepid emic
Ġcost ly
Ġbot tle
an cies
}_{ (\
ĠI BM
Ġt orn
Ġtra ded
No table
Ġterri ble
{\ |
if i
ĠSh annon
Ġf ur
ĠA dap
Supp ort
0 75
Ġdirection al
Par ameters
m ind
ĠW ire
//// ////
ĠTra in
Ġby pass
erm ont
16 00
Ġall ies
Ġmark ing
De partment
ass y
ĠDef ence
m echan
cor ner
Ġhalo es
3 90
L AT
ĠKir k
ĠM echan
in corpor
Ġmention ing
div is
Ġrapid ity
Ġthorough ly
Ġaud it
un ting
) "
Ġequ ilibria
Ġwork place
Ġwave form
> [
m ine
rom ov
Ġen larg
Ġcro ps
ĠT rack
Ġf m
osp el
b Z
Ġri vers
le tt
}$ ]
3 27
ĠW R
B re
ĠF IFA
ĠLu ke
Ġc inema
ĠNone theless
ON E
Ġpersist ence
tor sion
Ġb rick
Ġint ru
-\ ,
ĠS ony
Ġbatt les
M U
Re ference
Ġly mph
ish es
ĠMil an
e lection
ip olar
$- $\
ĠCon ditions
Ġm os
Ġdeter ior
ĠWel sh
suc ceq
Ġfriends hip
C entral
Ġsp ell
ag ner
Ġscal ability
Ġup stream
ier ra
ale ph
W itten
Ġf ingers
ĠG rowth
ĠSch ur
ĠK ron
ĠVo ice
ĠG S
Ġfossi l
ĠD ig
Ġsmart phone
B ul
c ational
ĠV ik
ex ternal
Ġcharacter izes
ĠCal abi
ĠFe atures
Ġpa inter
Ġspecial ist
zz i
Ġdis continuity
0 17
C ard
Ar g
en es
us ers
h owever
ĠM aking
ĠF F
h il
et ale
du ction
V IR
ope z
Ġwhere in
ĠMad ison
ĠR ico
Ġz oom
cle an
Ġla p
g ro
ff e
Ġrestric tive
u tives
top ology
ĠR ece
ĠAct ually
Ġan ger
Ġpull ing
Ġis om
N am
h in
Ġ. $$
= {(
ĠSecond ly
ĠL ux
s ources
eder ated
× Ļ
P ER
Ġe mails
Ġg lad
scal es
che z
ĠAlf red
F ac
Ġtra iler
Ã¨ re
ĠRid ge
Ġpip e
ĠL isa
vis or
ĠQuar ter
Ġast rom
n il
Ġrepe ating
st atus
Ġadvoc ate
ĠL INE
ĠLe ave
Ġspace times
ĠEth iop
Ima ges
24 3
}} }^
ĠCh ampion
conn ect
Ġpe ers
ath on
Ġ )$.
ĠCh emical
Ġb ounce
ĠR NA
Ġmod ifying
baselines kip
O pt
Ġremark ably
Ġauthor ized
Ġspher ically
bro ken
ĠB ot
os o
ĠJ erry
Ġspons ored
Ġfood s
th y
Ġ< <
âĢ ³
Ġequ atorial
ĠC ould
ell ers
n ick
~ ~\
ad ditional
Ġbla me
spec ified
ti ght
ĠJ uli
Ġconver ging
Cont ent
ĠKar l
28 5
\!\! \
O B
ĠSe lect
ĠPro test
ĠD ani
ĠG onz
ĠSu ccess
\! =\!
ĠL ion
Ġsur pass
T y
is cher
Ġill umination
ĠUl tra
Ġa qu
Ġdiver gences
aff ected
war ding
log arith
lip se
ĠInf antry
E mb
pos al
ta y
ĠQ ED
Ġcentral ized
Ġauthentic ation
G od
Ġdim er
... ]
T ran
Jo in
_{ ,
(\ |
inc in
^{\ ,
C lient
d word
Ġst ruct
ĠMin or
Ġ })
Ġland mark
ĠSquad ron
Z ero
ĠH yp
Ġass ass
Ġtal ented
tun ed
h b
ur d
)\ ]
Ġsuper potential
Ġe go
Ġed it
Con struction
Ġnega tively
L ittle
á »
eng ine
M aster
ĠK umar
H B
ĠT ang
Oly mpic
ĠE mp
Ġco ins
ĠSh op
ĠCurrent ly
l ift
In v
Ġmonomial s
des c
Ġoscill ating
ĠBern ard
d it
Ġon t
ac le
c G
ĠLar ry
Ġloc ate
Ġflow ing
Ġdele te
ĠNep al
re ls
Ġch ips
ĠA udi
ĠCommand er
ĠC ob
om et
ĠC ad
Ġnom ination
Ġflav ors
ĠO liver
atelli te
m il
St atus
l la
Ġtra veled
0 90
A bel
s ense
um my
ĠPlay ers
ĠConserv ation
ĠFreder ick
A X
E le
x p
Ġcompens ate
Ġpri est
[ ][]{
^{ {
Ġbal ancing
res pective
ura cies
ĠEmer gency
Ġpe tition
comp uted
H an
Ġtravel s
Ġh ung
ĠG OP
ri o
comp ute
col ored
cate gor
Ġse am
+ ,
ĠW W
eta il
ĠEd wards
D id
me mbers
' ))
al one
)\ |_
ĠTit le
Ġto urs
CO VID
N ov
| /
ĠM ort
Ġnews papers
ut ton
Ġpropag ators
% ),
4 40
Ġmultiple t
Ġton ight
ĠWar ner
Ġcor ona
ul ent
ct an
ĠSh are
sum ptions
Ġab rupt
Ġdisag ree
Ġsemic lassical
Ġfoot print
ĠB lan
exist ing
ĠÐ ¿
Ġde posited
ten sive
ĠRog ers
Ġpregn ant
L ove
ĠR as
K F
ĠInvest ment
ci Ã³n
^* ,\
ĠTre as
Ġbottlen eck
Ġdiver ges
Ġutil ization
Com mon
Ġresearch er
f olds
and roid
ru it
Ġmaxim ization
Ġtang ential
Ġpo ems
incin nati
h phantom
Ġdifferenti ate
propag ation
: -
Ġre plied
ĠA my
Ġnan op
R ail
Ġsnap shot
)] ,
)\ !
b rown
Ġcook ing
Ðµ Ð½
pa ired
ĠSus an
Ġsoft max
Ġheter ogeneity
Reduce Action
l f
pi ration
ĠM IT
ob tain
Ġphysic ian
ou in
Ġpar allax
ĠAr tist
ĠS po
Ġsc in
Ġtrig gers
ĠPar ameters
PR B
ill i
] +\
ex c
Ġcur ious
AR D
Ġcor on
0 60
mu tation
Ġac res
Ġear nings
Ġsimpl ification
ĠS or
ĠCo ach
ĠRay leigh
Ġwra pped
IN R
S y
am ic
ub in
iv ic
Ġsol itons
Ġprior iti
run ning
19 02
theore tical
ĠB ond
inter est
Ġalleged ly
ĠS amsung
Ġ[ [
Ġbroad band
Stand ard
Ġre connection
10 16
Ġgot ten
Ġevery body
Ġdig its
Ġsequential ly
Ġquadrup ole
ac s
ĠBer g
Ġrecipro cal
l it
ĠZ h
ash ing
Ġqual ify
ĠB uch
P ack
Ġm eter
ĠAust rian
Ġdisc ount
a is
Ġdra in
C oll
Ġpro spect
g overn
ho v
olog ic
ing ham
Ġconfir mation
ĠBuff alo
l os
Ġs ig
Ġwhe els
V ir
Ġcont racted
cel and
ĠN HL
ĠO K
ĠB ird
ĠEgyp tian
ĠH alf
in um
we ights
_{ _
Ġresis tivity
ĠP are
ĠV la
50 1
os ely
ĠT F
}/ (
Ġsignal ing
Ġnor theast
Ġforth coming
ew s
fic tion
35 5
st ri
long mapsto
Ġdro ve
ma tive
Ġorigin ates
Do es
ĠLic ense
ĠN uclear
mu ch
Ġassign ing
s ent
ĠPlat form
ad ays
rus s
SE C
Ġun directed
Ġj er
Ġimpa cted
Ġass ists
ĠBill board
Ġen closed
oti ents
/ }
Ġcal m
ĠMu h
M om
^+ $.
ĠBas ketball
D eb
Ġmand atory
Z E
ĉĉ čĊ
ci bility
Ġnetwork ing
nu clear
mog orov
Ġnormal ised
ari ance
ĠHung ary
q p
sim plic
ĠN ap
T N
ĠIn dividual
Ġem it
Ġpur ity
ĠNo tes
corre ction
if iers
Ġmark er
ĠWeek ly
ced es
volution al
ĠH ab
mo id
ĠMet ropolitan
P os
Ġequival ences
comp utation
cast le
E con
6 40
ĠF if
Ġag ing
min o
Ġsc ra
ĠOsc ar
Ġmon oid
ĠCap itol
Ġtra uma
ĠIn put
ĠPier re
per m
est on
30 8
l ater
Ġsub jected
ten sions
e on
leg i
ĠCru z
comb ined
Ã Ĺ
}\ }\
Ġdis continuous
den ote
T arget
_ -\
ĠHe avy
hab ili
Ġdiscrimin ant
ĠF o
ĠG olf
Ġdy ing
W D
in vestig
Ġposition ed
Ġgain ing
ĠIniti ative
as sion
Ġansw ering
F ourier
ĠM ason
S ho
' }$,
f uture
ĠP u
ĠP in
ĠG ross
ĠJ ar
18 97
mo ther
e ing
Ġ )^{
ol ine
ĠVin cent
pub lished
Ġsup remum
w rap
ĠâĢ Ŀ
Ri emann
ĠLik ewise
ĠSet ting
le pton
ĠO m
ta tivity
ĠF ernand
or tium
Ġrank ings
ĠC ass
pl at
Ġmetall icities
Ġstret ching
se man
Ġterm ed
hyper ref
Ġwitness es
L oss
ti fies
ĠPrac tice
A ma
Sim ons
Ġcour tesy
Ġaxi om
g aussian
ĠCl ifford
ĠAssoci ated
Ġp es
Rad io
Ġdi p
ĠCNN s
hel p
> =
OI U
In s
measure ments
A ff
Ġbe ars
; "|
Ġev ac
Ġgroup oid
ĠMat rix
ach ed
ne ider
similar ity
v w
app ear
Ġcorrel ators
ĠF ocus
ĠF ashion
AN S
im proved
Ġres p
bro ad
ĠCl assification
\ }^{
ĠN y
Ġtrans ported
ext rem
ale y
Lear n
ĠV L
w oman
ism ic
ĠT reatment
riter ion
ĠA CC
re pe
ĠC lick
Un it
ĠKnow ledge
Ġpro spects
Ġem power
ĠCamp us
Ġpro long
ĠB ian
ĠW IT
Ġqu in
Bigg r
Ġfor um
s pherical
ĠR IS
ĠT amil
ĠComp ute
ĠSpace watch
ĠDoc ument
Ġw orship
ĠA da
ĠG oth
n ut
in variance
ĠNe ighb
ĠCM E
Ġther ap
ĠG ay
ĠBr ill
ĠM AR
C ore
^{* }_{
}' )
Ġconstit ution
Ġcard inal
ĠB row
18 70
ĠAb u
ĠM ans
ĠM AC
Ġper colation
ass erstein
[-> ,
z ig
Ġste pped
ĠConserv ative
Ġhad n
IEEE eqnarray
ĠI EEE
Ġsur gical
ĠIran ian
b ial
an alog
as sume
ĠC lay
ow itz
ĠN M
ĠSh ar
Ġglu ons
Ġbary onic
Ġs ulf
b low
c tively
Ġal ert
ag ar
28 7
T er
ĠS yl
Ġcompla int
Ġsyn tax
Ġdu o
ĠM ovies
ĠForm er
Ġrid ge
. &
{ }_
W R
Ġman ages
}$ ~\
ĠF IR
ĠT reat
ĠD raft
Ġpo cket
Es tima
ĠV GG
oc o
w ed
Ġhe aling
ster dam
Ġp t
Ġimp rison
G Y
K R
Ġinser ting
Ġn erv
Ġsp o
pro jective
fa il
^* )\
Ġcent roid
U B
imod ule
ĠEag les
, &
Ġcon figure
ĠM ust
orbit al
Ġalleg ations
c lient
ĠCirc uit
Ġa cyclic
laim ed
Ġdil aton
33 5
jo ys
CV PR
ste ps
ĠMas ters
f av
Ġelimin ating
Ġdele ted
Ġwork force
ĠAstron omy
Ġaim ing
ĠH at
ĠJ ob
ĠCare er
Ġk ink
Ġl oses
ĠTru th
en za
o ft
Ġneighbour ing
ĠL ate
isk i
J on
Ġadjust ing
ï ¬
: \\
t bp
im s
ex pec
Ġmat ure
Ġtor oidal
Ġw is
l not
ert z
ĠL if
Me mber
Ġsepar ates
Ġpro jec
Ġabst raction
Ġr itual
ar ticles
Ġeleg ant
p v
Ġdecor ated
C Y
ffici ency
Ġmen tions
ĠEvery thing
Rus sia
Q N
b ird
ĠC yp
Ġsh ield
ĠMar c
Ġbatter ies
Ġdec iding
Ġgeom etrically
Ġmedal ists
e at
Ġj ava
Ġob struction
Ġcomp ly
Ġsepar ations
Ġ$\ {(
IG HT
ĠW onder
}) },
Ġla dy
Ġprom ises
Ġdeple tion
ĠRe id
Ġair line
ĠNorm an
ĠM erc
Ġob eys
ĠDe tection
Ġimmig rants
25 7
ĠSch midt
ĠNe il
Ġdecou pled
Ġex cessive
w y
tab il
Ġrece ivers
Work s
ĠN av
)$ };
)) (
ĠHung arian
ĠK ash
Ġl ucky
Ġdis ability
ie u
Ġconstruct s
Ġlaunch ing
}) }.
H il
Ġst olen
In st
l um
E ar
Ġround ed
Ġsum mit
Ġli qu
discipl inary
ĠRes ource
ĠAir lines
Ġtrib ute
Ġdou bling
T ex
}) }(
ck er
and o
ĠR ee
ĠPop ulation
ĠPut in
ĠGrass mann
Ġconvic ted
Ġeffici encies
Ġred ist
ĠG lasgow
Ġbuy ers
ĠOr thodox
Ġnegoti ations
qu as
p rice
Ġoff sets
xi mate
}| =
ut orial
com position
Ġqual ifying
Ġgram mar
ĠLet ter
d ote
pp e
IS O
Ġsuscep tible
Ġcongru ence
ĠY ellow
Ġsyn onym
ĠA ve
Ġp ie
Ġex oplan
)) -
Ġexpand s
discus sed
Tele vision
rac es
Ġdon ated
ĠU C
Ġhead er
Ġind igenous
m etal
ĠWork ers
H W
en ic
27 3
ĠApp lications
d W
ĠM ade
Ġsub scrib
where as
}\, ,\
Ġsen si
ĠMc L
Ġs orry
rc l
Ġprogram mes
Sch ool
ta c
Ġs orts
car bon
Ġexceed ing
Ġbas in
A st
ĠS ame
ke eper
Ġpra ised
ĠRec on
Ġinvent ory
ĠIn side
Ġscal able
Ġdes ert
Ġcondens ed
m ps
rom eter
ĠG ot
E volution
ĠC DF
ĠL ions
Ob viously
Ġadmin istered
ĠAL MA
Ġconject ured
andid ate
N at
Ġw ors
Ġdef ending
ĠAU C
ĠLorentz ian
25 2
m pi
Ġrun ner
ĠA A
Ġpump ing
iz za
Ġspec ifies
BH s
26 8
o es
Ġinv oke
M ari
ĠG lass
Ġk iller
mes h
Star ting
Ġstri kes
N B
pro c
Ġang ry
ĠP b
Ġwor ried
Ex pl
4 20
Ġb a
ĠH unt
g ic
k b
Ġprof its
Ġnorth west
Ġcritici zed
ĠBir th
pp le
Ġemb od
gom ery
Ġreli ably
Inter estingly
Ġsupernov ae
ĠB ass
Ġiter ated
30 3
Ġpsych ology
Ġrespec ts
product s
Ġch lor
Ġfirst ly
Ġarg ues
4 60
ĠM AT
ĠB D
ĠĠĠĠĠĠĠĠĠĠĠĠĠĠĠĠĠĠĠĠĠĠĠĠĠĠĠĠĠĠĠĠ ĠĠĠ
in di
Ġinstit utional
Ġnumber ed
L ib
Ġf iscal
Ġ ero
ĠT ib
Ġrender ed
iti ous
ĠSw itch
atur ally
ĠW ing
Ġ: \
_{ *}
Ġspa ced
Ġrib bon
ĠH ER
ĠT at
Ġback ed
ĠCom plete
bo ys
Rich ard
Offic ial
ĠPDF s
Ġpoly g
Ġprovin cial
ĠX box
ĠPro perties
AM S
ta wa
eg enerate
for ced
Ġres ist
$\% $
j d
ach ers
J ose
ĠL G
&+ &
Ġbr ightest
Ġdis tillation
Ġrecover s
ĠPra desh
la re
Ġnon commutative
Ġgra ce
la tex
iff alse
Ġpre cession
big vee
Mil itary
ĠProduct s
Ġvi olate
Ġyield ed
ĠHy dro
yste matic
ci um
ĠM Ps
ĠMari o
ĠN ATO
col lapse
tell ing
} *{
tra ject
ĠC ot
ab und
Ġin decomposable
Ġdr one
ĠW A
Ġlik ewise
Ġdispla ce
Ġnow here
ub ov
Cho ose
ĠDis covery
ys hev
Ġvi brational
ĠEn c
se min
ĠBi ology
Ġeth ical
| _\
ver tical
ĠR oth
D an
â Ĩ
I ter
ĠWat son
M edia
S tyle
Ġown s
ĠTh under
J ournal
Ġwitness ed
}) ),
L G
e ve
ĠL is
Ġrele asing
W ater
Ġc oded
rot ating
ĠMater ial
ma ble
St rong
Ġaff ir
Ġtes tim
hy brid
ĠLem mon
Ġdiagn osed
ard less
Ġindex es
à ®
ĠPer ry
Ġpuzz le
Ġreci pe
Ġdis abled
Ġdis h
Q P
am ents
Con vergence
Ġsnap shots
em pir
, ''
Ġreplic a
Ġd ump
ed it
Ġ[ {\
ĠH az
Ġcri tically
Ġquarter back
ĠI van
Ġjuris diction
LE D
Ġanaly st
un skip
Sc ot
F ootball
Ġd ining
Ġw ai
ott nt
air y
Ġresign ed
Ġp ile
ĠM ann
ĠL B
ĠEm ily
Ġsil ence
Q ual
Ù ħ
qu ist
Ġspec ifying
ĠLaure n
re search
an im
ĠAcad emic
Ġfl our
IN D
Ä ĥ
W L
Y u
Ġlens es
Ġdistrib ute
ĠEx am
Ġlack s
Ġcollaps ed
Ġt ong
40 4
B ey
X u
Ġg onna
Ġtrac table
sol ar
ĠSum mit
Ġdisturb ance
se a
0 80
Rep res
Ġsla ve
Ġs isters
unt ary
dis cre
estab lish
M G
Ã «
im m
Ġbul let
An aly
24 9
Ġlob by
supp orted
Ġcon sole
Ġhistor ically
J C
b P
fin als
Ġexp osures
Lab els
ed uc
Ġstring ent
30 7
Ġperm e
,- >
hed ra
ĠEnter prise
Ġb end
Ġb ags
Ġinvest ing
Ġlever aging
T ak
Ġ} &
Ġpre v
S z
33 6
cur vature
wind ow
A ccess
Ġshock ed
18 60
ĠC i
ĠCh er
GC N
Fil ter
Ġsubgraph s
Ġt ach
ĠN ancy
Å Ł
Ġentreprene urs
head er
B or
Ġconsum ed
ĠL ands
G rand
] (\
Ġmin er
do ors
ĠDes cription
Ġst rat
ment ing
err ors
Ġtil t
Ġi OS
text quoted
Ġprop ri
new theorem
ĠPhill ips
ol ith
ĠCle an
Ġv ig
Ġwant ing
Ġflo at
Ġarc sec
Ġdepos it
Ġg al
under standing
Ġd oses
textquoted bl
ĠC op
ph asing
Ġfar ming
akes pe
ĠS eb
ĠC AN
N um
{\ {
ĠG ore
ĠDe utsch
Ġcub es
ĠH C
Ġtight ly
ĠB un
ac ute
Ġp ig
Ġstret ched
ĠRoman ia
F ont
18 50
in berg
E ll
Et Al
Z h
b id
land o
Ġreal m
Ġcer tification
ĠN intendo
*} %
Ġsugges tion
es ar
oun ces
ĠSte vens
ĠAlber ta
ĠM end
Ġdiscre tized
ĠAthle tic
k x
ĠM ong
40 5
Ġfore casts
Ġredden ing
st ress
qu eness
_{+ }
9 80
Ġdo zens
er ner
ĠB ag
par ation
\, }
0 22
Ġin hom
18 68
Ġsever ity
\ }\\
Ġhum or
ĠInd igenous
akespe are
B ill
Ġins pect
mes on
b ishop
u h
hard t
Ġal i
Ġcomment ary
Pop ulated
ĠTh an
}}$ \
mach ine
ĠLe v
Ġland ed
art z
Ġ( ,
Ġchalleng ed
Ġlegend ary
}} }.
Ġun resolved
Ġexc iton
Ġm it
ĠAssoci ate
Ġdisp atch
Ġinf laton
re ts
Ġt ric
Ġcom oving
ĠAl pha
ĠSo on
ĠNich olas
Ġimmer sion
ĠTig ers
ge o
oll ar
( [\
ĠK ind
Ġline up
Ġmixture s
======== ========
Ġen joys
ĠY ama
Ġprec urs
Ġmu ons
S ame
Ġhar ass
ĠFant asy
Ġtwe et
Ġper f
Ġsur render
27 6
3 21
res ource
Can ada
Ġmonit ored
Ġstack ing
Ġdiscipl ine
Ġoccup y
Ġoverse as
il o
ĠS ak
Tok en
Ġsub systems
Ġport al
Ġyoung est
F rance
Ġ ult
arc min
ĠBen ef
ring ton
re ction
po late
Ġtop ologies
develop ed
R H
ĉĉĉĉ Ċ
Ġ ubi
ĠH ousing
ex pect
^ !
Ġclassi fying
ĠEl li
th read
Ġelectro static
cet on
~~~~~~~~ ~~~~~~~~
A ST
Ġassess ing
{\ "
Ġl on
18 98
Ġbad ly
Ġapp aratus
com bin
ĠSain ts
Ġe ighth
Ġ= (
Ġexplo its
Set ting
w inger
Ġenrich ed
Ġin ject
ĠGra de
ĠF DA
O A
| =\
ĉĉĉĉ ĉĉĉ
ĠCam eron
Ġthro at
J M
ab el
out ing
29 8
ĠSc ore
weak ly
ĠR ugby
umb ai
as so
Ġdis rup
_{ >
ĠB ath
ĠE ug
Ġintersect ing
f ew
ĠK ap
ĠS ter
Ġdis charge
M ach
ĠSch eme
ĠRep orts
ĠT odd
Ġvisual ize
Ġdefic it
Ġprob ed
ĠAm endment
Ġconscious ness
Ġsur name
7 20
g old
pdf string
25 8
ĠCom paring
ĠBe th
Ġauto mation
Ġk g
F ried
Ġdec entralized
ampl er
26 6
ĠNe braska
ĠHard y
a q
or pdfstring
tex orpdfstring
Ġde uter
ĠR HS
Q G
ch iral
iz ard
Ġmod ality
eg an
Oper ator
ĠS K
I r
Sim ple
orne ys
j m
ĠG Cs
Ġmo od
Ġmag azines
dec orate
domin ant
ĠV as
ad ded
f h
rif ice
osen ess
Ġlas ted
ĠCir cle
be havior
ĠHa ar
Look ing
ĠT arget
year s
ĠLie utenant
Ġmanufact ured
{ +}
big otimes
Ġann ulus
:=\ {
F ast
sign ificant
L ength
Ġquies cent
× ķ
Ġsum med
n ets
Ġterrit ories
pa c
arth y
Ġkey board
ess ed
Ġdown ward
ĠN LP
tagon ist
f ounder
lem m
d les
Ġmach inery
ĠMy ster
ĠAg ent
te am
ish ops
Ġclass room
Ġperi pheral
ri ans
ĠJ in
Ġcomm em
cor o
Ġresili ence
S ar
27 9
Ex ec
erc ise
Ġfer ro
Ġo ct
ĠL ED
ĠSo ci
ĠFran ces
G er
p ull
col our
ĠP etro
ĠG D
u ce
Ġla min
ĠR ural
Ġhyper parameter
Ø ±
Ġpartition ed
Ġinvest or
Ġking dom
ĠO P
Ġpre vented
Ġdou bles
Ġc ris
Ġreg ulated
mag net
Ġresidu es
Ġed itors
in fer
ta mp
29 9
T rump
Ġorth ogonality
L ay
dimension s
F it
ĠG iants
ĠNo vel
ĠP aren
Ġstrugg les
ĠNash ville
Ġspecta cular
Ġhang ing
Ġfic tional
t rigger
Ġtra its
cccc cc
Ġinvis ible
IS M
Ġ\, {\
ĠAst roph
Ġw ires
cite author
Ġsouth west
rop olis
ĠGu ardian
Ġpractition ers
ĠAc tive
M ode
ĠA braham
Ġg lue
ĠCh elsea
select font
Ġcomm od
An ti
ĠHealth care
le ges
^* }\
Ġnation wide
Ġh ire
Sh are
ber y
Ġte amma
AS H
Ġanalog ously
^{* }\
ocor ro
Ġrelation al
s frac
Com pared
Ġburn ed
oper ation
prop osed
b ord
For mat
ĠDep ending
se k
op tions
Ġun fortunately
ĠV acc
ax ter
ĠRich mond
um m
clear page
m its
pl as
Ġintegra bility
ĠS tyle
C olumn
SE D
V illa
ĠExcell ence
ert urb
ĠAGN s
Ġspec ially
Ġcru st
Ġphra ses
Q s
ist le
child ren
l is
in dividual
L N
And rew
Ġhand les
Ġbo ats
)] ^
ĠNe uro
th em
|}{ }
R ate
er ci
Ġhop ed
de z
Ġrep ository
Ġaw esome
repres entations
0 18
ĠNaz i
ĠH em
Ġseason al
Ġtag ged
25 3
A dap
T x
Ġt ar
s end
Ġint end
Com b
Sports people
8 75
N LO
Ġd g
V o
Ġc reat
Ġth rew
ĠI mp
$\ ,\
Ġindistinguish able
w au
el man
Ġb ay
}] }
q i
Ġthe ta
Ġme V
Ġdiff usive
Q ues
um ph
Ġmer it
pla ys
finite ly
Ġal arm
Ġmed ic
Ġrecover ing
ĠO thers
ĠAl ban
Ġbl end
Ġaccompany ing
Ġfold ed
P AR
Ġadv ised
ĠEl se
18 95
Ġmotiv ates
ĠLe o
Ġrecogn ised
Ġph y
ĠCom merce
ĠW E
m tx
respon ding
square d
any on
Ġcharacter ised
Ġdepic t
az ar
Ġreserv es
process es
Ġal ike
ĠD iamond
Ġprior ities
ĠEcon omy
C e
ĠS ocorro
ip ot
\!\!\!\! \!\!\!\!
ĠTour nament
ĠL ex
ĠD W
up loads
S till
Ġin vested
Ġsub tracting
Ġspin ning
lear n
ĠR achel
Ġre formula
Ġz eta
sequ ences
or f
Ġtrans cription
M et
ĠS OC
ĠB art
Ġnumer ator
Ġdisapp ears
ĠT erry
Ġrec oil
AR Y
Ġ ĉĊ
Ġsta gger
split ting
Ġswe ep
^+ (\
ĠÃ ī
Ġmaxim izes
Ġmesh es
ĠMont ana
emb ed
em ploy
\\ &\
sh adow
Cate gories
ĠU g
26 9
ĠB G
Ġun success
pi p
Ġre semble
Ġas sembled
Ġcos et
Ġg am
ac ci
Ġproject or
rie ved
L am
ro le
M ill
.. .\
M ary
Ġchap ters
Japan ese
L eb
ĠG len
ĠCom panies
Ġgeneral izations
uniform ly
ÃŃ n
ĠB ec
ĠTrans fer
semb ling
Ġvari ances
Ġgu ides
Ġz er
ĠCommun ist
B and
ĠShang hai
) )\\
rom an
tis ed
Ġdef ender
$ }\\
Ġcom mer
ist ent
ĠK ondo
âĢ¦ âĢĿ
ĠF at
Ġj e
Ġ{ -
^* _\
Ġfol ding
Ġd v
U U
Ġbe ings
yn c
Ġsho es
ĠEx tra
Ġhoriz ons
Ġis su
ĠAbd ul
33 4
|\ ,\
Ġdefin able
umb ent
D ar
con taining
Ġign or
Ġaer ial
Ġcontract ing
Orig inal
ĠG amma
Ġ`` $
Ġexec utives
}_ -
b etter
Â Ģ
Ġ ^{(
ai ro
ĠBap tist
Ġtremend ous
Ġtour ist
ĠG ol
Ġthere of
atter ing
Ġto ll
ear th
ult an
Ġcompar ative
ĠMo tion
W i
ĠB T
ĠCor p
Ġproceed ing
than ol
ĠB achelor
Ġconst ructive
ĠRail road
horizon tal
}\ \\
ĠD raw
Ġmake up
typ ically
ĠLINE AR
Ġc ine
ĠP sy
Ġar tic
Ġat tain
Cl ub
S eries
Ġc ig
25 4
Ġincre mental
Ġrepla ces
Ġdiam onds
on ian
Im port
H s
Ġb ab
az i
Ġdispla ced
ĠB ristol
S b
Ġplay offs
30 6
A sh
J un
_{ _{
28 6
ĠBat talion
g c
Ġ iv
en burg
Ġdiscl osure
Ġdyn asty
ĠNo ether
id able
ĠF ellow
ho sts
}[ ]
Ġb rew
AM A
^{+ }\
Car lo
ival ently
im odal
Ġh es
Ġcom ed
model ing
' }^{
Ġst ressed
ĠRe ed
ĠGra duate
ĠP ref
uc ci
Ġth ir
Ġal together
Ġhom eless
ta ment
ĠMed ic
Ġpre trained
optim ization
Ġd ancing
im pact
ĠRes taur
P t
ĠS Y
Ġprob ing
Ġtail ored
Ġcru de
op oulos
ĠT rophy
ak is
- |\
im etric
ĠE FT
Ġun lock
plan ar
Ġele ctoral
vers it
/ {
Ġderiv ations
separ ated
charg es
comple teness
Ġthe at
Ġlinear ity
M ix
Ġima gery
A z
R b
Ġ$ )
Ġd in
Ġste ad
ĠH M
Ġhar sh
t ry
] )\
Ġachieve ments
cos m
Ġsl ide
Ġjus tification
4 10
Ġ( ;
Ġbl ast
ri or
ĠM ail
Ġpremi ere
P roduction
integ rable
the ight
Ġimp oses
Ġqu alities
les h
sign ific
h ero
ĠBut ler
ĠR angers
Ġmon och
P ay
v D
30 2
ĠHaw king
ĠP G
del ux
Ġfar ms
Ġcru ise
18 99
ĠBro ther
ÂĢ Â
Ġres piratory
Reg ion
Ġrigid ity
keep aspectratio
v f
ĠSe lection
real istic
trac king
ĠSer ge
Ġrac ism
Ġcla uses
Ġcan nab
Ġexpress es
ĠSc ar
Ġpe oples
ine z
ĠE S
ra h
28 3
go al
Ġv apor
Our s
rac tible
hol es
ĠScholars hip
I AL
c ott
Ġh otels
Ġno body
Pro j
ĠPark s
Ġc ats
Ġev aporation
Ġnucle ons
Ġoccup ancy
Ġsol vers
r x
is omorphic
Ġ- {\
Ġwhere by
)| _{
gener ating
Ġc iting
co eff
ĠCour se
vari ants
Ġsoci eties
Ġsui tably
work ing
ĠR ama
ĠUn til
Ġviol in
Ġencoura ges
qu in
phon on
ĠM V
ni ques
log ical
29 3
J ac
Ġdismiss ed
{ }$
z s
Ġbre vity
Ġcol lo
Ġcre ativity
ĠRes pon
Ġ{ [
Ġpur suit
Ġtele phone
ĠR ole
Ġunder going
TU AL
ĠGu inea
ĠArch itect
L I
Ġf ighter
emph is
ĠA w
ĠElect ron
Ġne u
Ġ| |\
bab we
Ġcons piracy
pla ced
th ma
18 96
Ġtre asure
Ġremn ants
W ood
op edia
ah l
Ġen roll
}] =
mean ing
bro ok
predic tion
ĠJos Ã©
Ġprol ifer
c ue
M ake
24 1
sample d
or ously
hom ot
Ġtrib e
per cent
ĠLu is
Ġrobo tic
Ġlingu istic
pre vious
}} }^{
Char les
Ġfin ancing
Ġdrop out
h eld
Ġcompla ints
N u
\ })$
e ted
Ġex changed
ket ch
M arg
av as
ym er
ul ine
Ġconclu ding
v irtual
d amp
introdu ced
; </
{ =}
bra ted
Ġequal ities
trans port
ĠHol land
d os
ĠD ynamics
Ġins ensitive
ynchron ous
Ġcous in
block s
D H
Ġrever sible
Ġ }\\
ĠDel aware
ĠIda ho
Ġhere after
ĠMan ufact
Ġpenal ties
ĠS ax
ĠT ol
C ou
Ġun ambig
Ġwork load
Ġ} =
le af
am y
Ġli ability
ĠJeff erson
Ġ& &&
ĠR ever
Ġh iring
ro ids
im ed
Ġfun eral
item sep
ĠHor se
ĠS ure
c opy
ro e
Ġinter tw
bi tions
vis ible
ĠR ah
pol i
Ġm anga
ĠVari ous
Ġreson ator
G l
Ġy ard
Ġredund ancy
ĠF ron
ĠCons ult
IC S
Ab stract
Ġhighlight ing
adm issible
ĠHeb rew
Ġredu cible
approximate ly
D raw
te le
Ġe ager
Ġcre dited
ĠB F
Ġpray er
lef teq
f urther
ĠD IS
RE F
Ġultra violet
Ġwor n
St r
ĠKe ep
ĠSupp lementary
ĠCath edral
Ġremember ed
Ġoccur rences
Ġpost ing
ruled tabular
M ike
Ġ`` \
29 7
ĠHad amard
Ġs li
ĠH ai
Ġdes erve
la ge
ĠG erm
Ġinher it
prim ary
t rees
Ġflow er
gu y
Ġmultipl iers
}} )}
ant le
28 9
otts ym
Ġout look
Ġsh it
cut s
Ġautoma ton
ĠLith uan
ĠK un
Ġresult ant
Ġjournal ism
commun ication
) </
w f
27 8
ĠSim ple
ĠD T
Ġeditor ial
Sch midt
AG N
B lo
G ro
Ġtim ely
Ġh int
ĠH ug
arch itecture
ĠSha w
Ġsou theast
sh ifted
Eff ect
E r
h ash
ĠMun ich
ĠDe te
Ġveter ans
et up
ĠD io
tem plate
ance ment
Ġfin als
ke eping
70 7
Ġperiod ically
Ġdesk top
ĠAth ens
p ts
Ġma kers
Ġgra des
S el
ĠDub ai
Ġmin eral
h all
un certainty
ess a
)) }{
oren ce
ĠK or
Ġb icy
Ġor chestra
Ġsim ulating
Ġwave guide
) '
Ġac ids
ĠM it
ĠWe ather
rid or
Ġcontra stive
F ive
d uring
Ġd ich
ĠG em
Ġdistingu ishing
Ġindirect ly
ose x
rem ove
lo ve
lec tivity
+ (-
B ad
20 30
Ġsetup s
Ġme teor
Ġattend ance
mar ine
Ġreminis cent
0 23
)} :
Ġatt ractions
w ent
Ġhom omorphisms
Ġdig raph
Ġenjoy ing
ĠH H
Ġc i
Ġrid ic
Ġor chest
Ġless on
ĠTh ink
Ġintern ationally
Ġpr ide
tal ias
el ia
Ġl ightest
ĠL ud
cite talias
ĠCh arg
H ER
ĠLook ing
delux etable
5 40
b ane
Ġdro plet
Ġemb ry
Ġtext ual
wau kee
Ġhon our
ĠBrig ade
H ouse
ocor relation
ch astic
Ġver b
tis ing
ĠCol umn
ĠNov a
I Z
ĠJ ama
^{ |
Ġes c
ĠFil ms
ĠWild life
| ^\
pla cement
ĠEs tima
s till
Ġmir rors
ĠDown load
R am
b H
Ġw are
Ġch icken
ĠCon temporary
simple x
D AR
f lip
i tative
ĠN othing
Ġc ree
ĠC incinnati
in as
ĠI celand
Ġ} %
Ġconstitu ents
Ġ= -\
ĠVal ues
P et
w itz
Ġlast ing
K al
Ġtechn ically
S elect
st y
Ġres ur
Qu anti
ĠAss essment
ĠH ecke
Ġlaunch es
Americ a
Ġpr one
Ġsoci o
P rom
ĠO B
our g
ob ic
rec ord
Ġsm oking
Ù Ĭ
ra ising
25 00
Res Net
Ġconfir ming
hol tz
lexi ve
35 7
ĠAlex and
Ġinf low
Ġinher ently
ĠDra ma
$& $\
qu est
ĠM ED
Pro gram
Sp ring
ĠE oS
Ġmo ist
ic ian
enti a
ĠVictor ian
prove ment
ĠW rest
ĠW ould
Ġmin isters
Ġbra id
En ter
Ġforgot ten
ĠB ennett
ĠQ atar
Ġear ning
Ġend e
B rand
com pl
Ġdel ight
J L
Ġstra ins
Ġfundam entally
E uler
ĠM IMO
No tation
F K
Ġan not
Ġ= ==
ĠAl lah
ĠSp encer
st ats
pati ent
C enter
B ru
C ut
sm ith
ra ct
ac cep
c ure
Ġc itation
Ġdisapp eared
iv ia
Ġreprodu ction
Ġdecla re
Ġaccep ts
Ġnerv ous
ĠProgram s
Ġrefuge es
; }
T our
ĠL ay
Ġend omorphism
in ion
Ġp ension
Ġbel oved
C ong
Ġcol lectively
^- ,
App le
Ġfell ows
Ġh iding
post er
Ġnavig ate
ĠSong s
empir ical
Ġup gra
ceed ings
ĠRod rig
as aki
ĠS ent
C over
i w
inf all
de mand
ĠCy ber
E mail
ĠAm sterdam
zer bai
Ġelder ly
paramet ri
|| _
ang ling
Ġrep lay
] _\
ĠL loyd
Ġdiffer ing
Ġwork shops
sq subseteq
sen sitivity
ĠSy rian
O UR
de en
ĠTrans form
Ġeigens tate
v ae
pi res
80 2
Ġsound track
ĠX MM
val an
Ġfil ing
or bits
B la
z antine
Ġenh ancing
I so
ig o
Ġcou rage
ĠVis it
J J
er ted
Ġstup id
Ġdouble d
Ġamen able
N OT
t g
Ġfil med
W at
ram er
Ġstar red
24 2
mid way
b odies
Ġver ifies
Ġb ool
Ġrock et
oc ratic
d P
ĠW ells
Ġch ron
}| |
corre lations
r z
ĠP ul
neut rino
Ġsin us
D ouble
\| ^{
ĠLiber ty
ĠMich elle
Ġsupercon ductivity
Ġcrow ds
pur ple
)! }
Ġfi res
Ġelectro des
Ġsch olar
, (\
Ġidem potent
j in
ing e
us k
ĠPar ad
N av
ĠP ix
D igital
Ġc ab
ar ctan
sc an
ĠCho ice
disper sion
ĠChem istry
om p
ĠN I
Ġen rolled
Ġshar ply
Ġnic ely
ĠPalest inian
Ġgard ens
Ġsub jective
ne th
sid es
Ġin tact
à¤ °
VIR TUAL
per f
Ġ: :
ĠApp lied
c ustom
i ation
ĠR I
Ġexhibit ing
R ou
Ġover look
Ġo ught
ari ous
network s
Ġdepos its
ĠPro file
refer red
Ġobserv es
ĠEq n
my vec
Ġw ages
ĠC AS
ok i
Ġbar rel
kins on
J ew
Ġquen ched
a cies
j ack
}} )^
Com ponent
lin ks
T own
Ġn est
Ġposi tives
ĠAdvis ory
ed e
pa ces
ĠPre vention
ok o
Ġarg uing
Ch ange
Ġwis dom
ĠPo ints
Ġthrow ing
Ġfa inter
Ġver tically
Ġup set
leg end
ĠScre en
' }_{
iss ue
A rea
ĠF T
lic t
Ġcoh ort
Ġch oc
Ġtranslation al
Ġalle viate
Ġw ore
Ġand roid
Ġno ble
Ġs ew
ot ypes
ĠFa ith
ji ang
triangle left
Ġ( ),
55 5
Ġmitig ation
g io
Ġemer gent
Ġstress es
ĠA viation
B reak
G yr
G ermany
ĠP f
oy le
Ġstri ps
ĠAcc ount
po site
Abel ian
ĠLuc as
Ġb ell
reli able
r ys
4 45
ĠSpe aker
Ġin nings
ĠL ines
Ġtro ub
um ble
Ġabsor b
ĠB omb
coher ent
ĠA GB
D aniel
f us
ĠA part
}\ \[
Ġall iance
Ġdist orted
Ġ )$,
ĠK rist
ĠSou theast
r one
S emi
ti te
ĠChristian ity
Ġvend ors
}( |
Ġpre processing
fill ing
Ġdel icate
ĠLink ed
Ġanne aling
Ġun constrained
ĠSh akespeare
Ġcre ator
ro ut
ĠD F
requ est
[ "
ik o
ĠEll is
Ġbug s
ĠM az
ht p
Ġvac ua
thes es
Cross Ref
_{ <
)) }\
dim ir
ĠTy ler
bec omes
ĠFle et
0 27
ĠSub sequently
Govern ment
Ġdemand ed
ang o
is ers
bec ca
.. ...
Ġg amb
Ġimp urities
Ġunder taken
Ġcare ers
Ġ tex
Ġf ears
Ġbr ush
N ic
Ù Ĩ
ĠS hen
Ġlight weight
o ard
Ġannoun ces
x s
ĠM SSM
)\ }$.
Ġs overeign
Ġh atch
ĠS qu
Ġbreath ing
Ġstart up
Ġbankrupt cy
R od
W C
Ġprote ctive
' $-
c riptions
wh ether
character istic
C hat
Ġmathema tically
nit method
J eff
ĠĠĠĠĠĠĠĠĠĠĠĠĠĠĠĠĠĠĠĠĠĠĠĠĠĠĠĠĠĠĠĠ Ġ
c els
Ġcent red
Ġacceler ating
ĠR ash
Ġinf ectious
design ed
Ġwh is
30 9
th ia
habili tation
ĠÐ ²
Ġpass word
Ġsubsidi ary
it oring
over y
Ġâ ĪĴ
allow ed
Ġglob ular
el ong
Ġu ph
_+ ,
Ġp ale
SP s
Ġconver ged
cell or
ĠN ine
Ġfestival s
Ġentreprene ur
Ġimp ressed
ĠPhilosoph y
Ġfav ored
V ect
ĠVal ent
Ġ( |
pris ingly
Ġdem ographic
Ġneglect ing
quark s
Ġn i
ex plo
Ġc ater
ale z
Ġdemoc ratic
mass es
E rr
Ġthere after
Ġdiscrimin ative
+\ |
Ġquanti le
Mod els
ĠGal ile
ĠPe te
ĠA ld
fol k
Ġro l
fact ual
Ġis othermal
Ġphotograph er
Ital ian
id ences
ar xiv
26 3
J K
Ġunder graduate
R ow
ĠSum mary
rins ically
ĠNY C
F er
ĠSim ulation
{ ``
ta ker
Ġrespon sibilities
ĠSal v
Ġmultipl icities
Ġstrugg led
mac ro
abs olute
* -
D ark
L es
Ġb om
ĠGener ally
Ġcylind ers
de velopment
left margin
V a
ĠTh or
dis si
ĠSo ccer
Ġparad ox
ari us
Ġconstit utional
ri tis
ann ers
=" ../
Ġlear ner
ĠL DA
Ġge ographical
abs orption
cycl ing
K now
ĠR MSE
R NN
ĠRepres entative
Altern atively
bur sts
ĠColon el
C AL
| <\
hi ma
ĠDe al
c ill
id x
ĠT T
Ġdemonstra tions
Te am
ben chmark
rac ing
ans en
Ġchemical s
continu um
9 60
h istory
Ġa mateur
Ġreview ing
M iss
| +|
ĠCur tis
ĠAn a
Ġhol idays
Ġoffer ings
zz o
Down load
26 2
fi ability
ĠAnt arc
}_+ $
M etric
)\ |_{\
Ġisot opes
D iamond
Ġn erve
b G
Ġma ker
Ġextract s
Ġaffili ated
b ud
j n
Rep ublic
ĠCh and
28 4
Ġlower ing
R oyal
Ġp ist
ĠCub a
Ġacces sibility
Ġwealth y
M ul
ci er
Ġ> =
Ġlower ed
Ġbreak fast
j ab
ĠD ou
$ -\
\ }=
ma ck
ĠAn cient
Ġther apeutic
law s
ĠFa ctor
orph ism
@ /
b S
$ }}}
Ġh ug
ordin ate
Ġmod ulated
col lection
&& +\
RE D
stit ution
u w
ay ashi
Ġm ud
ple ts
Ġatta ch
Ġmedi ated
stra tes
Ġsemicon ductor
Ġaltern atively
Ġren owned
_+ }
34 4
Ġglu ing
ĠB ert
j t
Ġsw ord
ĠHel en
25 9
ĠCre ate
ĠGab riel
ac a
Ġcycl ot
Ġopp osing
Cate gory
3 48
Ġinclu sions
ene tic
ĠSp ot
Ġshow case
ĠLegis lative
or ia
id an
$, $
arra ss
ĠMor occ
Fram e
ps fig
]{ }
re port
eta iled
ĠE mm
Ġpredecess or
di ed
Ġdon ations
perturb ation
Ġg ifts
Ġmag ical
Ġmarg inally
Ġok ay
h em
ĠM ut
Ġsp ikes
ĠK P
Ġastero id
ĠC DC
20 48
Ġst y
Ġfac ets
Ġvacc inated
Ġconvin cing
Ġsol vent
< !--
A k
ĠM ob
pp en
ari um
ledge ment
Ġmurder ed
Ġinevi table
ĠUs ers
Hu ang
N ull
,\ {
Ġqu est
differ enti
Poli tical
> }
ent on
ĠE ye
abs or
Ġfurn iture
b age
Ġreprodu cing
Ġaff air
ĠS alt
xi e
ĠHar per
reson ant
ĠStu art
ol ition
Ġenh ances
3 11
gra vitational
}} })
ind ices
; ][]{
Ġti ssues
ar re
com puting
Ġassoci ates
Ġexpl or
Ġnur sing
,... ,\
Ġcon gestion
H ave
cont ributions
Ġsquee zing
om ar
x b
Ġincomp ressible
p ine
w ear
ta ch
us a
PhysRev Lett
ĠT ypically
Ġtra ils
Ġorgan ize
ju ana
h bt
Ġl anes
AN G
Ġrepe tition
Ġelectro de
ĠBri ef
Ġimm ers
ĠEvent ually
ĠAdvent ure
ĠHugh es
Ġcon ferences
25 1
Ġamb itious
stead y
linec olor
ĠP F
on ts
ĠG y
33 8
9 11
Ġequ i
Ġtour ists
id ad
ass er
\, {
di ver
Ġlapt op
Ġout lier
Ġsent enced
Dire ctor
ĠPear son
Ġcre atures
ĠStand ards
3 13
O G
h idden
Ġsc andal
ĠFl ash
Ġhero es
L INE
dev ice
ĠA cknow
Ġter rain
le ast
Ġdevi ate
Ġp u
ĠSt op
Ġhom ogeneity
C ritical
pur pose
Ġguitar ist
rin ted
Ġ: =\
Ġanth rop
ĠF D
18 65
Ġoccasion al
s elling
ĠE specially
\ )-
Ġk iss
Ġh orm
Ġn aval
equ als
to ol
Ġmod al
gen et
ĠEff ect
P la
ma re
Ġgen ome
ĠConf eder
Ġtrib es
oth s
Ġgrav iton
er ie
Ġle ather
E arth
Ġco ating
ma ture
ov ascular
tic o
ĠPrinci pal
Ġtow ers
Ġactress es
S ig
\ {-
deg ener
r ules
gre y
Ġconstra ining
erm ann
ĠV ent
}}{ }
Ġearthqu ake
ful ness
tific ates
ĠInitial ly
ĠD ennis
Ġinitial ize
/ -
Ġfract ure
se ven
60 6
Ġcluster ed
ĠProcess ing
ĠFinn ish
exp la
test ing
I SS
ct rine
ĠHis panic
Ġdescend ants
Ġcons olid
Ġh ints
ĠS ara
ide finite
ĠLi ouville
Ġplay off
ĠCom mercial
Ġhear ts
ĠA ctor
Ġint ric
pr ints
ĠAr g
Ġan t
sta tistics
Ġc itations
| \\
ĠĠ ĉ
cer y
i el
ĠH ers
ĠL ov
27 7
Ġoptim isation
ĠN avier
Ch inese
ĠÃ Ĥ
c ats
Ġz ig
}{ =}
ĠV ill
~$ (
Ġhyper graph
ĠGPU s
Ġdead ly
Ġfif ty
allen ges
Ġterror ist
Ġsecre ts
B AG
Ġ& (
Ġdet uning
m h
ĠCon stra
39 7
ĠI tem
ged y
aval ry
at in
ĠB es
ĠCrim inal
W ashington
ĠF oster
ĠR av
Ġw ise
ĠS AT
33 7
Ġthr iller
ĠL ives
Ġre taining
pa id
sim i
Ġreal izing
ĠAppro ach
ine es
Ġdest inations
ĠQues tions
se ed
ĠTo o
ĠIl lu
3 24
w b
We yl
S K
H art
u ph
to ck
Ġnormal ize
Ġcompar t
ec y
ĠB ris
Ġhyper surfaces
NE W
il lu
ĠT itan
ĠĠĠĠĠĠĠĠ ĠĠĠĊ
18 75
Ġbol ometric
calc ulation
ho e
monot onic
Av g
Chris tian
3 95
Ġb ishop
ĠJ ake
arg max
28 1
ĠL iz
\\ [-
Ġs of
} *
Austral ia
st rength
Ġdama ges
Z e
S em
Ġre active
Ġdis hes
li o
tw ist
ĠPen insula
ĠFour th
ĠEv idence
Ġexp end
Ġdon ation
S und
rib utes
Ġfound ations
Ġex cur
18 93
Im plementation
Ġche ese
Cre ate
ĠPare to
Y et
Ġfin er
Ġion izing
Ġdes erves
Ä «
ĠE mma
ĠK ill
Ġlength y
Ġf atal
Ġportray ed
Ġdisplace ments
) [\
1 100
[...]
