{"[UNK]":0,"!":1,"\"":2,"#":3,"$":4,"%":5,"&":6,"'":7,"(":8,")":9,"*":10,"+":11,",":12,"-":13,".":14,"/":15,"0":16,"1":17,"2":18,"3":19,"4":20,"5":21,"6":22,"7":23,"8":24,"9":25,":":26,";":27,"<":28,"=":29,">":30,"?":31,"@":32,"A":33,"B":34,"C":35,"D":36,"E":37,"F":38,"G":39,"H":40,"I":41,"J":42,"K":43,"L":44,"M":45,"N":46,"O":47,"P":48,"Q":49,"R":50,"S":51,"T":52,"U":53,"V":54,"W":55,"X":56,"Y":57,"Z":58,"[":59,"\\":60,"]":61,"^":62,"_":63,"`":64,"a":65,"b":66,"c":67,"d":68,"e":69,"f":70,"g":71,"h":72,"i":73,"j":74,"k":75,"l":76,"m":77,"n":78,"o":79,"p":80,"q":81,"r":82,"s":83,"t":84,"u":85,"v":86,"w":87,"x":88,"y":89,"z":90,"{":91,"|":92,"}":93,"~":94,"¡":95,"¢":96,"£":97,"¤":98,"¥":99,"¦":100,"§":101,"¨":102,"©":103,"ª":104,"«":105,"¬":106,"®":107,"¯":108,"°":109,"±":110,"²":111,"³":112,"´":113,"µ":114,"¶":115,"·":116,"¸":117,"¹":118,"º":119,"»":120,"¼":121,"½":122,"¾":123,"¿":124,"Â":125,"Ã":126,"Ä":127,"Å":128,"Æ":129,"Ç":130,"È":131,"É":132,"Ê":133,"Ë":134,"Ì":135,"Í":136,"Î":137,"Ï":138,"Ð":139,"Ñ":140,"Ò":141,"Ó":142,"Ô":143,"Õ":144,"Ö":145,"×":146,"Ø":147,"Ù":148,"Ú":149,"Û":150,"Ü":151,"Ý":152,"Þ":153,"ß":154,"à":155,"á":156,"â":157,"ã":158,"ä":159,"å":160,"æ":161,"ç":162,"è":163,"é":164,"ê":165,"ë":166,"ì":167,"í":168,"î":169,"ï":170,"ð":171,"ñ":172,"ó":173,"ô":174,"Ā":175,"Ă":176,"ć":177,"Ĉ":178,"ĉ":179,"Ċ":180,"Č":181,"č":182,"Ď":183,"Đ":184,"Ě":185,"ě":186,"ğ":187,"Ġ":188,"Ģ":189,"ģ":190,"Ĥ":191,"ĥ":192,"Ħ":193,"ħ":194,"Ĩ":195,"ĩ":196,"Ī":197,"ī":198,"Ĭ":199,"ĭ":200,"Į":201,"į":202,"İ":203,"ı":204,"Ĳ":205,"ĳ":206,"Ĵ":207,"ĵ":208,"Ķ":209,"ķ":210,"ĸ":211,"Ĺ":212,"ĺ":213,"Ļ":214,"ļ":215,"Ľ":216,"ľ":217,"Ŀ":218,"ŀ":219,"Ł":220,"ł":221,"Ń":222,"th":223,"in":224,"Ġa":225,"Ġth":226,"on":227,"er":228,"ti":229,"re":230,"Ġthe":231,"en":232,"Ġs":233,"al":234,"Ġo":235,"ĠĠ":236,"Ġ\\":237,"or":238,"Ġc":239,"is":240,"te":241,"an":242,"ar":243,"es":244,"Ġw":245,"Ġf":246,"Ġ$":247,"tion":248,"Ġt":249,"Ġof":250,"le":251,"Ġp":252,"Ġan":253,"Ġin":254,"Ġb":255,"ma":256,"ing":257,"ro":258,"Ġd":259,"ed":260,"Ġand":261,"at":262,"ic":263,"ra":264,"el":265,"Ġto":266,"ig":267,"{\\":268,"as":269,"ta":270,"it":271,"Ġh":272,"Ġm":273,"ec":274,"Ġe":275,"ou":276,"la":277,"om":278,"ent":279,"Ġre":280,"Ġis":281,"ĠĠĠĠ":282,"Ġn":283,"ol":284,"_{":285,"et":286,"Ġ(":287,"si":288,"Th":289,"st":290,"ce":291,"Ġ$\\":292,"ch":293,"ly":294,"Ġfor":295,"am":296,"qu":297,"ation":298,"Ġl":299,"ve":300,"Ġg":301,"ow":302,"math":303,"il":304,"ĠS":305,"un":306,"ver":307,"eg":308,"us":309,"id":310,"ith":311,"ot":312,"im":313,"Ġthat":314,"Ġon":315,"um":316,"ur":317,"ĠA":318,"end":319,"}\\":320,"Ġcon":321,"ĠC":322,"The":323,"čĊ":324,"ted":325,"ul":326,"ph":327,"}$":328,"Ġ&":329,"^{":330,"od":331,"igh":332,"Ġwith":333,"ĠĊ":334,"Ġas":335,"Ġbe":336,"Ġwh":337,"ter":338,"ri":339,"ĠI":340,"ci":341,"ge":342,"cal":343,"ure":344,"20":345,"Ġpro":346,"ĠM":347,"âĢ":348,"Ġal":349,"ct":350,"se":351,"Ġwe":352,"ere":353,"if":354,"ir":355,"}}":356,"ad":357,"(\\":358,"Ġv":359,"ight":360,"ut":361,"Ġby":362,"pp":363,"Ġma":364,"rac":365,"Ġex":366,"ref":367,"ĠF":368,"egin":369,"ĠP":370,"ĠB":371,"Ġare":372,"ity":373,"begin":374,"ine":375,"ts":376,"and":377,"ore":378,"_{\\":379,")$":380,"Ġcom":381,"ĠH":382,"de":383,"ĠThe":384,"Ġst":385,"per":386,"ble":387,"Ġde":388,"ĠL":389,"ft":390,"ĠR":391,"res":392,"}{":393,"rom":394,"Ġat":395,"ĠW":396,"ub":397,"os":398,"Ġit":399,"ĠD":400,"ers":401,"frac":402,"ction":403,"ĠT":404,"Ġ=":405,"mb":406,"ĠĠĠĠĠĠĠĠ":407,"cite":408,"tic":409,"tim":410,"equ":411,"tex":412,"ĠĠĠ":413,"eq":414,",\\":415,"right":416,"pa":417,"eta":418,"Ġfrom":419,"Ġsh":420,"ĠN":421,"ĠE":422,"})":423,"ment":424,"Ġor":425,"ĠG":426,"der":427,"ist":428,"op":429,"lab":430,"ran":431,"ate":432,"ay":433,"Ġus":434,"di":435,"mathb":436,"ess":437,"Ġthis":438,"oun":439,"rm":440,"ich":441,"label":442,"lu":443,"ck":444,"},":445,"up":446,"em":447,"$,":448,"ave":449,"iz":450,"for":451,"ther":452,"ew":453,"Ġch":454,"iv":455,"19":456,"$.":457,"Ġsu":458,"tions":459,"Ġcan":460,"pl":461,"left":462,"ign":463,"Ġ-":464,"equation":465,"mathcal":466,"Ġy":467,"Ġun":468,"text":469,"Ġwas":470,"sion":471,"ill":472,"og":473,"ect":474,"ld":475,"}.":476,"tem":477,"ence":478,"all":479,"du":480,"to":481,"ds":482,"Ġres":483,"ĠTh":484,"Ġpar":485,"ple":486,"ant":487,"ell":488,"da":489,"}(":490,"tive":491,"par":492,"ĠIn":493,"ff":494,"10":495,"Ġle":496,"Ġhave":497,"}^":498,"ke":499,"ab":500,"~\\":501,"ys":502,"Ġwhich":503,"ru":504,"our":505,"Ġme":506,"fig":507,"tial":508,"}_":509,"ap":510,"ĠO":511,"Ġse":512,"low":513,"ies":514,"ection":515,"int":516,"cc":517,"âĢĻ":518,"so":519,"pha":520,"ary":521,"fer":522,"alpha":523,"ach":524,"ener":525,"mu":526,"Ġmod":527,"ĠJ":528,"ical":529,"Ġnot":530,")\\":531,"ion":532,"line":533,"201":534,"Ġsp":535,"ase":536,"psi":537,"ong":538,"til":539,"sum":540,"00":541,"Ġsta":542,"Ġapp":543,"vel":544,"$\\":545,"est":546,"ber":547,"pro":548,"are":549,"ide":550,"elta":551,"Ġk":552,"ĠU":553,"Ġ+":554,"amma":555,"ork":556,"ear":557,"Ġob":558,"ari":559,"ens":560,"ding":561,"ĠK":562,"ous":563,"Ġpo":564,"ang":565,"Ġhas":566,"mathbb":567,"_\\":568,"ega":569,"over":570,"Ġall":571,"ome":572,"gh":573,"),":574,"}_{":575,"clu":576,"Ġ\\\\":577,"vi":578,"=\\":579,"ric":580,"}^{":581,"ame":582,"erm":583,"dot":584,").":585,"Ġcl":586,"igma":587,"Ġab":588,"ance":589,"tain":590,"ho":591,"Ġr":592,"times":593,"row":594,"-\\":595,"hi":596,"ak":597,"ag":598,"ue":599,"ard":600,"phi":601,"ces":602,"In":603,"ĠâĢ":604,"Ġqu":605,"'s":606,"tes":607,"Ġone":608,"Ġra":609,"wo":610,"sub":611,"Ġim":612,"pi":613,"ated":614,"^{\\":615,"ort":616,"ould":617,"rib":618,"Ġcomp":619,"Ġdis":620,"ast":621,"lamb":622,"ally":623,"Ġad":624,"lambda":625,"ree":626,"red":627,"ost":628,"ĠV":629,"ex":630,"Ġfun":631,"Ġinter":632,"Ġper":633,"ac":634,"of":635,"ations":636,"Ġno":637,"ular":638,"Ġhe":639,"Ġalso":640,"the":641,"Ġcont":642,"ution":643,"etw":644,"Ġ{\\":645,"ors":646,"Ġmodel":647,"bf":648,"hat":649,"Ġshow":650,"lo":651,"time":652,"mathbf":653,"out":654,"pace":655,"lon":656,"ents":657,"raph":658,"Ġwill":659,"ss":660,"Ġdo":661,"Ġfi":662,"Ġi":663,"ound":664,"Ġtwo":665,"fin":666,"Ġlo":667,"ollow":668,"pt":669,"erv":670,"Ġdif":671,"200":672,"Ġev":673,"Ġen":674,"ust":675,"Ġj":676,"ry":677,"psilon":678,"ose":679,"..":680,"Ġset":681,"sigma":682,"ray":683,"ass":684,"led":685,"ĠWe":686,"ties":687,"}{\\":688,"tation":689,"section":690,"ps":691,"irst":692,"^{-":693,"Ġ(\\":694,"align":695,"Ġpa":696,"Ġfollow":697,"ish":698,"con":699,"Ġif":700,"Ġso":701,"cent":702,"Ġour":703,"ory":704,"Ġdi":705,"Ġexp":706,"tilde":707,"ult":708,"beta":709,"umber":710,"mathrm":711,"Ġfa":712,"able":713,"Ġte":714,"Ġfunction":715,"Ġthere":716,"ark":717,"Ġsim":718,"Ġfin":719,"xi":720,"form":721,"li":722,"Ġar":723,"Ġsuch":724,"Ġequ":725,"*}":726,"lation":727,"Ġout":728,"gamma":729,"Ġbut":730,"+\\":731,"Ġrep":732,"Ġdat":733,"theta":734,"Ġmore":735,"und":736,"lay":737,"ĉĉ":738,"Ġcor":739,"Ġwhere":740,"Ġtheir":741,"Ġtime":742,"idth":743,"Ġne":744,"ok":745,"Ġsub":746,"rho":747,"Ġover":748,"Ġval":749,"ced":750,"Ġgener":751,"Ġits":752,"12":753,"]{":754,"ics":755,"ia":756,"ren":757,"\\\\":758,"Ġdiffer":759,"com":760,"oth":761,"ite":762,"ature":763,"ond":764,"Ġro":765,"^\\":766,"Ġver":767,"Ġdist":768,")}":769,"tit":770,"$-":771,"ud":772,"rans":773,"leq":774,"tical":775,"ne":776,"Ġph":777,"delta":778,"Ġco":779,"figure":780,"app":781,"Ġonly":782,"tau":783,"bar":784,"les":785,"We":786,"av":787,"Ġsome":788,"Ġdes":789,"Ġfirst":790,"Ġ[":791,"cdot":792,"Ġother":793,"ystem":794,"ial":795,"}$,":796,"een":797,"Ġwere":798,"ll":799,"orm":800,"Ġ{":801,"array":802,"}$.":803,"|\\":804,"age":805,"Ġthen":806,"Ġthan":807,"wh":808,"Ġpre":809,"ian":810,"}(\\":811,"eqref":812,"one":813,"own":814,"ack":815,"Ġreg":816,"width":817,"ĠThis":818,"big":819,"ox":820,"ram":821,"Ġacc":822,"mation":823,"yp":824,"Ġeach":825,"Ġany":826,"Ġ\"":827,"Ġhis":828,"etween":829,"ĠĠĠĠĠĠĠĠĠĠĠĠĠĠĠĠ":830,"Ġsol":831,"nu":832,"Ġman":833,"ĠCh":834,"Ġgiv":835,"no":836,"Ġyou":837,"ting":838,"Ġup":839,"Ġtra":840,"cap":841,"ility":842,"Ġsa":843,"po":844,"ĠY":845,"Ġwork":846,"Ġconst":847,"aus":848,"ni":849,"pec":850,"Ġbetween":851,"partial":852,"yn":853,"eld":854,"fty":855,"ĠĠĠĠĠĠĠ":856,"Ġli":857,"Ġthey":858,"Ġbeen":859,"item":860,"ice":861,"infty":862,"Ġag":863,"Ġwhen":864,"tab":865,"Ġx":866,"tri":867,"18":868,"Ġpres":869,"ugh":870,"ased":871,"Ġdata":872,"omega":873,"ince":874,"Ġthese":875,"Ġhigh":876,"âĢĿ":877,"Ġform":878,"dition":879,"Ġcol":880,"set":881,"ments":882,"ves":883,"Ġsystem":884,"sc":885,"arrow":886,"ten":887,"ep":888,"sition":889,"Ġinto":890,"Ġdec":891,"Ġele":892,"ove":893,"Ġes":894,"clud":895,"tis":896,"Ġop":897,"ain":898,"arg":899,"cre":900,"Ġ|":901,"ating":902,"ym":903,"lic":904,"Ġpl":905,"ind":906,"Ġcase":907,"pend":908,"ise":909,"sider":910,"its":911,"ator":912,"amet":913,"fore":914,"olog":915,"eqn":916,"11":917,"ual":918,"Ġtrans":919,"Ġbec":920,"mall":921,"ults":922,"ize":923,"Ġappro":924,"quad":925,"Delta":926,"sec":927,"oc":928,"Ġvari":929,"pon":930,"ode":931,"ĠIt":932,"ues":933,"Ġuse":934,"Ġeff":935,"Ġnon":936,"gy":937,"ile":938,"ning":939,"Ġunder":940,"ges":941,"var":942,"rim":943,"roup":944,"ĠFor":945,"15":946,"ov":947,"orem":948,"Ġnew":949,"fter":950,"ever":951,"ron":952,"--":953,"Ġnumber":954,"Ġused":955,"}}\\":956,"ential":957,"serv":958,"space":959,"olds":960,"ord":961,"ample":962,"Ġusing":963,"sim":964,"ie":965,"min":966,"\\,":967,"Ġgo":968,"}[":969,")$.":970,"Ġprov":971,"ruct":972,"ral":973,"rt":974,"cy":975,"Ġline":976,"Ġdefin":977,"thod":978,"Ġ}":979,"Ġu":980,"ks":981,"ower":982,"ula":983,"pm":984,"ĠAn":985,"Ġ$(":986,"tern":987,"Ġgiven":988,"Ġpol":989,"Ġfe":990,"Ġstar":991,"ulti":992,"col":993,"ty":994,"Ġstate":995,"mer":996,"Ġsec":997,"Ġac":998,"fa":999,"ote":1000,"ough":1001,"Ġabout":1002,"Ġrela":1003,"put":1004,"Ġdifferent":1005,"ization":1006,"epsilon":1007,"Ġkn":1008,"Ġwho":1009,"$$":1010,"Ġterm":1011,"16":1012,"ans":1013,"Ġconsider":1014,"ix":1015,"ob":1016,"ots":1017,"old":1018,"ins":1019,"Ġcal":1020,"ĠX":1021,"sq":1022,"round":1023,"gle":1024,"13":1025,"ici":1026,"arge":1027,"Ġsame":1028,"Ġla":1029,"Ġmay":1030,"}_{\\":1031,"rough":1032,"22":1033,"Ġwould":1034,"vers":1035,"center":1036,"ms":1037,"Ġobtain":1038,"Om":1039,"Ġsign":1040,"Ġcomple":1041,"ress":1042,"where":1043,"vely":1044,"eqnarray":1045,"Ġorder":1046,"ized":1047,"Ġcur":1048,"val":1049,"Ġparamet":1050,"Ġfact":1051,"Ġz":1052,"ays":1053,"Omega":1054,"14":1055,"Ġprodu":1056,"Ġresults":1057,"asure":1058,"Ġsc":1059,"^*":1060,"Ġfollowing":1061,"ĠâĢľ":1062,"table":1063,"ases":1064,")$,":1065,"wide":1066,"fic":1067,"Ġcomm":1068,"ĠFig":1069,"sqrt":1070,"ip":1071,"Ġhad":1072,"Ġwell":1073,"he":1074,"textbf":1075,"tt":1076,"angle":1077,"Gamma":1078,"cess":1079,"Ġanal":1080,"trix":1081,"Ġmost":1082,"Ġmethod":1083,"ific":1084,"ven":1085,"199":1086,"Ġoper":1087,"Ġboth":1088,"fi":1089,"bm":1090,"teg":1091,"subsection":1092,"very":1093,".,":1094,"ĠSt":1095,"ater":1096,"ined":1097,"Ġyear":1098,"vare":1099,"ĠQ":1100,"ely":1101,"arch":1102,"Ġpartic":1103,");":1104,"owever":1105,"Ġsur":1106,"Ġ${\\":1107,"tively":1108,"gor":1109,"varepsilon":1110,"raphics":1111,"ymb":1112,"energy":1113,")=":1114,"bra":1115,"21":1116,"ject":1117,"}^{\\":1118,"ĠčĊ":1119,"Ġdisc":1120,"sh":1121,"Ġpe":1122,"^{(":1123,"Ġsupp":1124,"Ġext":1125,"ymbol":1126,"Ġsee":1127,"ann":1128,"Ġher":1129,"urn":1130,"ons":1131,"uch":1132,"includ":1133,"formation":1134,"Ġrepres":1135,"}=":1136,"25":1137,"Ġam":1138,"Ġ\\,":1139,"egraphics":1140,"includegraphics":1141,"osed":1142,"Ġ<":1143,"rightarrow":1144,"Ġperform":1145,"Ġsmall":1146,"ĠHe":1147,"ates":1148,"ality":1149,"Ġmeasure":1150,"17":1151,"ause":1152,"Ġbound":1153,"fra":1154,"Ġclass":1155,"Ġem":1156,"ension":1157,"cted":1158,"Ġspace":1159,"Ġdire":1160,"ĠPro":1161,"Ġmin":1162,"Ġimp":1163,"Ġspec":1164,"Ġobserv":1165,"ai":1166,"caption":1167,"Ġdistrib":1168,"lem":1169,"rangle":1170,"Ġint":1171,"als":1172,"ings":1173,"Ġthrough":1174,"ines":1175,"au":1176,"ef":1177,"eng":1178,"ĠĠĠĠĠ":1179,"ton":1180,"ick":1181,"uring":1182,"Ġden":1183,"Ġgroup":1184,"ĠâĢĵ":1185,"Ġresult":1186,"etric":1187,"ists":1188,"Ġassum":1189,"ructure":1190,"ences":1191,"ax":1192,"ĠZ":1193,"ints":1194,"Ġexper":1195,"varphi":1196,"Ġafter":1197,"tima":1198,"Ġfield":1199,"ining":1200,"emph":1201,"ful":1202,"ĠAs":1203,"Ġtyp":1204,"ational":1205,"geq":1206,"ner":1207,"Ġcorres":1208,"Ġproble":1209,"ption":1210,"Ġpoint":1211,"ets":1212,"jec":1213,"30":1214,"For":1215,"Ġdesc":1216,"cm":1217,"rop":1218,"ism":1219,"ilar":1220,"amb":1221,".~\\":1222,"imension":1223,"Ġenergy":1224,"ash":1225,"vec":1226,"ision":1227,"ctions":1228,"cle":1229,".}":1230,"ute":1231,"ink":1232,"proof":1233,"Ġneed":1234,"rit":1235,"ĠĠĊ":1236,"Ġthem":1237,"Ġrequ":1238,"Ġplay":1239,"oy":1240,"mber":1241,"Ġpos":1242,"log":1243,"chi":1244,"Ġste":1245,")^":1246,"overline":1247,"&\\":1248,"Ġinclu":1249,"tiv":1250,"Ġsing":1251,"Ġprocess":1252,"Ġmass":1253,"Ġwor":1254,"Ġthree":1255,"Ġed":1256,"Ġevery":1257,"''":1258,"23":1259,"non":1260,"Ġima":1261,"ross":1262,"bolds":1263,"gorith":1264,"ative":1265,"Ġscal":1266,"},\\":1267,"sible":1268,"iden":1269,"Ġrec":1270,"raw":1271,"Ġinv":1272,"boldsymbol":1273,"ration":1274,"elf":1275,"ition":1276,"ĠAl":1277,"Ġpart":1278,"Ġback":1279,"Ġstud":1280,"ull":1281,"ount":1282,"etwork":1283,"Ġincre":1284,"ople":1285,"Big":1286,"50":1287,"Ġcons":1288,"Ġproper":1289,"Ġvalue":1290,"lish":1291,"utions":1292,"hline":1293,"Ġmat":1294,"[\\":1295,"Ġwhile":1296,"ĠCom":1297,"This":1298,"Ġgeneral":1299,"ency":1300,"ensure":1301,"Ġran":1302,"we":1303,"oot":1304,"Ġlim":1305,"}).":1306,"Ġlarge":1307,"umer":1308,"ext":1309,"frak":1310,"Ġins":1311,"ĠCon":1312,"Ġnow":1313,"Ġlike":1314,"land":1315,"Ġgra":1316,"olution":1317,"Ġmulti":1318,"}}$":1319,"Ġlead":1320,"Ġcent":1321,"ulation":1322,"Ġbel":1323,"Ġmo":1324,"Ġget":1325,"ved":1326,"ities":1327,"ensity":1328,"rodu":1329,"Ġlocal":1330,"Ġinteg":1331,"Ġsecond":1332,"ring":1333,"ake":1334,"langle":1335,"Ġspect":1336,"ĠUni":1337,"Ġinde":1338,"Ġcompa":1339,"plic":1340,"ability":1341,"ically":1342,"ormal":1343,"Ġdef":1344,"cer":1345,"Ġsch":1346,"ib":1347,"Ġabove":1348,"por":1349,"24":1350,"ward":1351,"ero":1352,"ural":1353,"mathfrak":1354,"position":1355,"Let":1356,"Ġcould":1357,"Ġvalues":1358,"Ġsince":1359,"Ġpla":1360,"Ġend":1361,"appa":1362,"ldots":1363,"ology":1364,"ymm":1365,"Ġdoes":1366,"Ġfollows":1367,"rime":1368,"ire":1369,"Ġestima":1370,"Ġstructure":1371,"ily":1372,"sk":1373,"Ġvery":1374,"ector":1375,"ath":1376,"Ġcorre":1377,"ness":1378,"ha":1379,"Ġ.":1380,"Ġchar":1381,"entation":1382,"velop":1383,"Ġ`":1384,"ook":1385,"Ġreal":1386,"ild":1387,"Ġshown":1388,"rc":1389,"Ġcorrespon":1390,"err":1391,"urther":1392,"Lamb":1393,"def":1394,"king":1395,"Ġ,":1396,"Ġeven":1397,"ger":1398,"me":1399,"Ġmany":1400,"Lambda":1401,"lim":1402,"Ġcontin":1403,"ected":1404,"udi":1405,"Ġmodels":1406,"orph":1407,"citep":1408,"ze":1409,"ission":1410,"ive":1411,"kappa":1412,"Phi":1413,"plit":1414,"ug":1415,"Ġhow":1416,"Ġiden":1417,"Ġprob":1418,"Ġbecause":1419,"acter":1420,"dic":1421,"Ġmag":1422,"sive":1423,"ented":1424,"Ġshe":1425,"))":1426,"Ġdepend":1427,"ee":1428,"lack":1429,"Ġregion":1430,"ĠNew":1431,"reat":1432,"soci":1433,"umn":1434,"stra":1435,"eterm":1436,"Ġoff":1437,"nab":1438,"Ġfeature":1439,"Ġfound":1440,"âĢĵ":1441,"ctor":1442,"Ġlong":1443,"Ġright":1444,"Ġyour":1445,"bit":1446,"otimes":1447,"ese":1448,"Ġdefined":1449,"Ġagain":1450,"art":1451,"Ġeffec":1452,"Ġwhat":1453,"textit":1454,"mbox":1455,"ange":1456,"Ġtak":1457,"Ġnetwork":1458,"vious":1459,"ech":1460,"Ġfil":1461,"mon":1462,"Ġbu":1463,"rent":1464,"tal":1465,"ster":1466,"Ġapproach":1467,"rong":1468,"})$":1469,"//":1470,"Ġradi":1471,"ane":1472,"Ġdescrib":1473,"ffici":1474,"cl":1475,"ason":1476,"inal":1477,"\\|":1478,"nabla":1479,"man":1480,"As":1481,"Ġproblem":1482,"\\%":1483,"cor":1484,"ool":1485,"tate":1486,"Re":1487,"Ġpeople":1488,"Ġshould":1489,".\\":1490,"Ġsaid":1491,"gorithm":1492,"ris":1493,"Ġmon":1494,"Ġtem":1495,"oh":1496,"Ġsimilar":1497,"Ġlet":1498,"Ġinformation":1499,"ently":1500,"Ġmain":1501,"Ġdistribution":1502,"Ġ:":1503,"Ġke":1504,"pect":1505,"ynam":1506,"Ġbased":1507,"Ġbeing":1508,"els":1509,"cial":1510,"Ġtop":1511,"see":1512,"act":1513,"ampl":1514,"...":1515,"redic":1516,"ij":1517,"ublic":1518,"ng":1519,"Ġcontain":1520,"Ġser":1521,"nonumber":1522,"Ġway":1523,"mod":1524,"}}{":1525,"ensuremath":1526,"ysis":1527,"ĠIf":1528,"Ġsection":1529,"Ġent":1530,"main":1531,"ĠDe":1532,"rum":1533,"tice":1534,"med":1535,"ture":1536,"Ġparticular":1537,"fy":1538,"Ġvi":1539,"Ġcalc":1540,"Sigma":1541,"\\[":1542,"ength":1543,"ĠRe":1544,"Ġterms":1545,"198":1546,"tics":1547,"40":1548,"Con":1549,"rol":1550,"Ġexample":1551,"Ġprop":1552,"Ġlear":1553,"otential":1554,"view":1555,"Ġprovid":1556,"Ġthose":1557,"Ġdeterm":1558,"Ġjust":1559,"yle":1560,"dots":1561,"Ġstand":1562,"}),":1563,"Ġtri":1564,"100":1565,"Ġredu":1566,"Ġsum":1567,"ĠThere":1568,"Ġallow":1569,"Ġcompu":1570,"oper":1571,"meric":1572,"Ġdiscus":1573,"ards":1574,"Ġcre":1575,"Ġknow":1576,"ĠThen":1577,"any":1578,"Ġder":1579,"Ġlevel":1580,"let":1581,"ied":1582,"Ġbas":1583,"Ġsatis":1584,"by":1585,"rin":1586,"Ġhand":1587,"Ġelect":1588,"Ġpaper":1589,"Ġcharacter":1590,"ern":1591,"circ":1592,"Ġini":1593,"Ġrespec":1594,"ene":1595,"ife":1596,"000":1597,"}-":1598,"lect":1599,"Ġpower":1600,"Ġdue":1601,"Ġshows":1602,"sf":1603,"not":1604,"wn":1605,"with":1606,"Ġaddition":1607,"hip":1608,"rid":1609,"Ġfind":1610,"gram":1611,"arly":1612,"be":1613,"etry":1614,"till":1615,"]$":1616,"sitive":1617,"Ġparameters":1618,"Ġgraph":1619,"Ġlow":1620,"mo":1621,"que":1622,"less":1623,"ants":1624,"centering":1625,"ually":1626,"};":1627,"/\\":1628,"Ġyears":1629,"Ġcar":1630,"{-":1631,"Ġsour":1632,"Ġinst":1633,"Ġmatrix":1634,"way":1635,"widetilde":1636,"Ġdevelop":1637,"Ġstudy":1638,"Ġobtained":1639,"Ġdensity":1640,"oss":1641,"Ġduring":1642,"mark":1643,"Ex":1644,"draw":1645,"\\!":1646,"ĠHowever":1647,"Ġcho":1648,"Ġsolution":1649,"ression":1650,"Ġhere":1651,"Ġequation":1652,"Ġtech":1653,"Ġexperim":1654,"Ġfam":1655,"Fig":1656,"Ġsingle":1657,"Ġact":1658,"60":1659,"Ġpredic":1660,"ators":1661,"Ġpoints":1662,"hen":1663,"It":1664,"face":1665,"Ġmake":1666,"Ġimport":1667,"Ġhel":1668,"dis":1669,"tabular":1670,"read":1671,"Ġserv":1672,"mm":1673,"Ġfre":1674,"27":1675,"sing":1676,"Ġdete":1677,"eck":1678,"son":1679,"2018":1680,"ser":1681,"Ġ``":1682,"andom":1683,"Ġav":1684,"prime":1685,"Ġuni":1686,"ood":1687,"Ġsuper":1688,"ĠLet":1689,"Ġcompon":1690,"Ġconn":1691,"Ġtest":1692,"Ġpotential":1693,"Ġ--":1694,"Ġmy":1695,"atter":1696,"Ġfunctions":1697,"Ġbefore":1698,"uth":1699,"xim":1700,"Ġmuch":1701,"28":1702,"Ġsequ":1703,"emma":1704,"box":1705,"ĠTo":1706,"Ġorig":1707,"ival":1708,"\\]":1709,"zeta":1710,")=\\":1711,"Ġcorresponding":1712,"2020":1713,"Ġmed":1714,"onal":1715,"Ġq":1716,"Ġmean":1717,"ĠTheorem":1718,"atch":1719,"Ġhim":1720,"Ġoptim":1721,"\\{":1722,"Ġstates":1723,"orn":1724,"co":1725,"Ġstra":1726,"Ġintrodu":1727,"Ġapproxi":1728,"An":1729,"ĠEq":1730,"Ġmade":1731,"Ġconstant":1732,"ST":1733,"Ġpossible":1734,"=\"":1735,"}+":1736,"Ġsize":1737,"Ġflu":1738,"tations":1739,"ices":1740,"Ġindic":1741,"versity":1742,"Ġcondition":1743,"Ġfour":1744,"elds":1745,"su":1746,"ale":1747,"Ġfinite":1748,"Ġindu":1749,"Ġwithin":1750,"Ġinitial":1751,"gebra":1752,"Ġcontinu":1753,"Ġerr":1754,"Ġanalysis":1755,"~~":1756,"Ġlarg":1757,"pr":1758,"Ġread":1759,"Ġ||":1760,"Ġtheory":1761,"2017":1762,"45":1763,"Ġrespectively":1764,"Ġdeg":1765,"ĠLe":1766,"2019":1767,")^{":1768,"Ġgu":1769,"ording":1770,")}\\":1771,"26":1772,"pd":1773,"33":1774,"}=\\":1775,"matrix":1776,"ĠSh":1777,"Ġet":1778,"Ġlast":1779,"Ġstrong":1780,"div":1781,"other":1782,"istic":1783,"ters":1784,"thm":1785,"side":1786,"Ġrele":1787,"aw":1788,"ental":1789,"ĠOn":1790,"Ġrun":1791,"Ġpri":1792,"Ġfix":1793,"ĠSch":1794,"iod":1795,"Ġleft":1796,"lock":1797,"ĠĠĠĠĠĠĠĠĠĠĠ":1798,"urb":1799,")(":1800,"Ġcomplex":1801,"Ġassoci":1802,"max":1803,"Ġrest":1804,"Ġpresent":1805,"{(":1806,"Ġinf":1807,"ired":1808,"cing":1809,"ditions":1810,"ura":1811,"omorph":1812,"Ġproof":1813,"ived":1814,"Ġdesign":1815,"Ġmust":1816,"Ġknown":1817,"perature":1818,"Ġdown":1819,"Ġ>":1820,"ĠAmeric":1821,"tle":1822,"Ġdimension":1823,"Ġ&=":1824,";\\":1825,"Ġparameter":1826,"Ġtake":1827,"Ġtru":1828,"Ġcontrib":1829,"Ġaround":1830,"Ġrefer":1831,"Ġpop":1832,"pre":1833,"Ġcurrent":1834,"Ġphase":1835,"Ġadd":1836,"Ġopen":1837,"Ġcoun":1838,"75":1839,"pendent":1840,"Ġstill":1841,"Ġcomb":1842,"90":1843,"ket":1844,"tivity":1845,"Ġvis":1846,"Ġrate":1847,"Ġpers":1848,"io":1849,"Ġminim":1850,"name":1851,"ĠSo":1852,"antum":1853,"Ġlinear":1854,"new":1855,"Ġexist":1856,"Ġcou":1857,"sid":1858,"alth":1859,"verse":1860,"day":1861,"Ġocc":1862,"Ġcle":1863,"$)":1864,"2016":1865,"ames":1866,"sp":1867,"ĠEx":1868,"ulations":1869,"gan":1870,"Ġaver":1871,"Ġprevious":1872,"Ġ($":1873,"exp":1874,"Ġtotal":1875,"Ġpair":1876,"Ġalong":1877,"Ġhy":1878,"Ġcommun":1879,"Ġass":1880,"Ġtype":1881,"}|":1882,"amples":1883,"Ġ/":1884,"Ġmom":1885,"bal":1886,"Ġsignific":1887,"}^\\":1888,"Ġincluding":1889,"Pro":1890,"Ġwithout":1891,"To":1892,"cdots":1893,"Ġsymm":1894,"vert":1895,"ah":1896,"ars":1897,"Ġsever":1898,"Ġspa":1899,"âĢľ":1900,"tack":1901,"tra":1902,".~":1903,"Ġdeta":1904,"Ġmap":1905,"ĠSection":1906,"Ġrandom":1907,"Ġdirect":1908,"Ġmaxim":1909,"Ġvector":1910,"color":1911,"ables":1912,"ock":1913,"Ġperformance":1914,"}_\\":1915,"action":1916,"35":1917,"ination":1918,"Ġsen":1919,"Ġcontrol":1920,".âĢĿ":1921,"Ġgood":1922,"Ġbest":1923,"Ġalgorithm":1924,"lemma":1925,"ĠAr":1926,"eps":1927,"textwidth":1928,"Ġphot":1929,"widehat":1930,"scal":1931,"Ġlimit":1932,"Ġstudi":1933,"ĠAd":1934,"tig":1935,"ĠĠĠĠĠĠ":1936,"odes":1937,"Ġidenti":1938,",-":1939,"ert":1940,"thing":1941,"}]":1942,"Ġref":1943,"ving":1944,"ĠFigure":1945,"ils":1946,"2015":1947,"Ġlook":1948,"70":1949,"29":1950,"ER":1951,"Ġimportant":1952,"Ġdynam":1953,"Ġsystems":1954,"ances":1955,"sequ":1956,"amp":1957,"Ġnear":1958,"mate":1959,"mand":1960,"rule":1961,"Ġlower":1962,"Ġret":1963,"Ġ\\{":1964,"Ġprof":1965,"lection":1966,"ata":1967,"})\\":1968,"play":1969,"If":1970,"Ġcir":1971,"Ġloc":1972,"style":1973,"ift":1974,"alax":1975,"Ġimpro":1976,"}\\,":1977,"qquad":1978,"orted":1979,"under":1980,"Ġproduct":1981,"orth":1982,"Ġtemperature":1983,"ii":1984,"tically":1985,"Ġdid":1986,"}}(":1987,"prop":1988,"light":1989,"05":1990,"reg":1991,"Ġconf":1992,"^+":1993,"bility":1994,"mathsf":1995,"Ġeas":1996,"oll":1997,"Ġ'":1998,"Ġconditions":1999,"sian":2000,"ier":2001,"Ġmark":2002,"ript":2003,"back":2004,"&=":2005,"2022":2006,"}^{(":2007,"Ġfurther":2008,"outh":2009,"Ġfram":2010,"ĠAnd":2011,"Ġhigher":2012,"Ġrange":2013,"2014":2014,"mid":2015,"ither":2016,"overn":2017,"ĠRes":2018,"Ġwrit":2019,"2021":2020,"fied":2021,"ĠLemma":2022,"Ġmethods":2023,"Ch":2024,"Ġsignificant":2025,"ions":2026,"Ġdiag":2027,"ological":2028,"netic":2029,"Ġcalled":2030,"ital":2031,"ouse":2032,"80":2033,"ety":2034,"Ġtimes":2035,"AS":2036,"oid":2037,"Ġapplic":2038,"Ġhelp":2039,"Ġappear":2040,"ik":2041,"Ġ$(\\":2042,"Ġsupport":2043,"ude":2044,"}\\\\":2045,"cos":2046,"{{\\":2047,"ised":2048,"Ġlit":2049,"Ġprobability":2050,"Ġpositive":2051,"AR":2052,"Psi":2053,"Ġexpl":2054,"Ġphys":2055,"://":2056,"Ġadv":2057,"Ġdefine":2058,"Ġworld":2059,"cept":2060,"Ġobserved":2061,"oint":2062,"Ġconstra":2063,"omen":2064,"which":2065,"asing":2066,"ott":2067,"sions":2068,"Ġcases":2069,"ĠBy":2070,"Ġperiod":2071,"pdf":2072,"ruction":2073,"Ġprogram":2074,"top":2075,"Ġtraining":2076,"Ġteam":2077,"pper":2078,"Ġquantum":2079,"etter":2080,"uation":2081,"subset":2082,"lying":2083,"Ġnext":2084,"Ġimage":2085,"umb":2086,"Ġide":2087,"Ġseveral":2088,"Ġlay":2089,"Ġconver":2090,"anti":2091,"II":2092,"Ġfactor":2093,"alle":2094,"appro":2095,"32":2096,"lable":2097,"ograph":2098,"</":2099,"Ġfull":2100,"xspace":2101,"note":2102,"Ġclu":2103,"Ġthus":2104,"ody":2105,"Ġzero":2106,"az":2107,"gg":2108,"Ġfrequ":2109,"99":2110,"ĠUn":2111,"Ġauth":2112,"AT":2113,"iness":2114,"Ġexists":2115,"Ġstandard":2116,"ified":2117,"cup":2118,"Ġleast":2119,"ulated":2120,"assi":2121,"ĠĠĠĠĠĠĠĠĠĠĠĠĠĠĠĠĠĠĠĠĠĠĠĠĠĠĠĠĠĠĠĠ":2122,"Ġproperties":2123,"Ġel":2124,"Ġcontra":2125,"ĠCol":2126,"2013":2127,"reak":2128,"Ġless":2129,"Ġfree":2130,"Ġbuil":2131,"Ġtran":2132,"Ġchange":2133,"size":2134,"effici":2135,"aving":2136,"lue":2137,"Ġnormal":2138,"Ġdiscuss":2139,"ploy":2140,"Ġge":2141,"ĠSta":2142,"Ġsample":2143,"01":2144,"hile":2145,"stand":2146,"Ġbi":2147,"ordin":2148,"texts":2149,"ball":2150,"mit":2151,"Al":2152,"operator":2153,"havi":2154,"ited":2155,"By":2156,"Ġaction":2157,"ek":2158,"foot":2159,"Ġproposed":2160,"iron":2161,"Ġequival":2162,"Ġspe":2163,"den":2164,"ways":2165,"Ġ&\\":2166,"port":2167,"Ġagainst":2168,"Ġ)":2169,"tional":2170,"jects":2171,"ĠUniversity":2172,"Ġown":2173,"Ġcompar":2174,"48":2175,"Ġlight":2176,"ling":2177,"uto":2178,"Ġrece":2179,"search":2180,"small":2181,"Ġlength":2182,"Ġseries":2183,"Ġchang":2184,"ths":2185,"Ġpublic":2186,"citet":2187,"sin":2188,"Ġ*":2189,"Ġeval":2190,"Ġplan":2191,"Ġcover":2192,"ury":2193,"Ġband":2194,"St":2195,"}+\\":2196,"inter":2197,"ailable":2198,"Ġfeatures":2199,"2012":2200,"Ġgalax":2201,"Ġinterest":2202,"omin":2203,"Ġinput":2204,"mula":2205,"'t":2206,"Com":2207,"Ġcross":2208,"Ġassume":2209,"Ġfew":2210,"ope":2211,"Ġcomplete":2212,"Ġview":2213,"defin":2214,"order":2215,"ww":2216,"}:":2217,"Ġca":2218,"ior":2219,"Ġabs":2220,"):":2221,"Ġassociated":2222,"ures":2223,"based":2224,"}}{\\":2225,"Ġloss":2226,"|^":2227,"Ġbelow":2228,"'$":2229,"chie":2230,"jor":2231,"lobal":2232,"ird":2233,"Ġdescribed":2234,"Ġcy":2235,"ĠThese":2236,")]":2237,"Ã©":2238,"ison":2239,"kes":2240,"36":2241,"Ġinclud":2242,"Ġcap":2243,"part":2244,"ole":2245,"Ġgrow":2246,"Ġfixed":2247,"vari":2248,"ground":2249,"ina":2250,"ĠAt":2251,"Ġaverage":2252,"Ġtas":2253,"Ġfamily":2254,"ocus":2255,"Ġbro":2256,"Ġprovide":2257,"ended":2258,"Ġfit":2259,"plies":2260,"hspace":2261,"Ġbetter":2262,"197":2263,"ĠPh":2264,"neq":2265,")-":2266,"ype":2267,"Ġhal":2268,"indent":2269,"Ġlines":2270,"Ġsay":2271,"Ġrecent":2272,"rand":2273,"({\\":2274,"ĠNo":2275,"Ġsequence":2276,"mat":2277,"laim":2278,"Ġhist":2279,"Ġaff":2280,"There":2281,"ev":2282,"eli":2283,"Ġeffect":2284,"lished":2285,"fication":2286,"Ġmen":2287,"Ġdatas":2288,"Ġgre":2289,"Ġconsist":2290,"Ġanaly":2291,"equiv":2292,"Ġsepar":2293,"ule":2294,"pping":2295,"dimension":2296,"ccess":2297,"Ġthough":2298,"Ġalgebra":2299,"theorem":2300,")}{":2301,"Ġnode":2302,"Ġanother":2303,"test":2304,"Ġdenote":2305,"ĠSince":2306,"Ġlaw":2307,"Ġrespect":2308,"SS":2309,"Ġdri":2310,"}-\\":2311,"Ġlearning":2312,"pic":2313,"Ġsem":2314,"ĠCar":2315,"lin":2316,"Ġconsidered":2317,"Ġarg":2318,"Ġrema":2319,"tage":2320,"Ġlife":2321,"Ġsimple":2322,"34":2323,"2011":2324,"2010":2325,"Ġflow":2326,"ank":2327,"eter":2328,"Ġerror":2329,"operatorname":2330,"Ġrespon":2331,"rict":2332,"Ġpur":2333,"inally":2334,"Ġbehavi":2335,"Ġoperator":2336,"ĠMe":2337,"ĠIs":2338,"scale":2339,"ĠSu":2340,"Ġspin":2341,"Ġequations":2342,"Ġsurface":2343,"Ġ-\\":2344,"ules":2345,"umerate":2346,"Ġgame":2347,"divid":2348,"95":2349,"Ġvol":2350,"tio":2351,"ĠThey":2352,"node":2353,"star":2354,"Ġmeans":2355,"Ġhom":2356,"Ġdistance":2357,"ĠMore":2358,"wards":2359,"Ġmoment":2360,"IN":2361,"Ġresearch":2362,"mul":2363,"Ġexact":2364,"Ġsource":2365,"ler":2366,"enumerate":2367,"Ġboundary":2368,"Ġachie":2369,"footnote":2370,"Ġreturn":2371,"dag":2372,"ĠPar":2373,"Ġavailable":2374,"Ġturn":2375,"skip":2376,"nt":2377,"Ġrelations":2378,"Ġfinal":2379,"inary":2380,"usiness":2381,"Ġscale":2382,"Ġseen":2383,"lat":2384,"Ġfar":2385,"31":2386,"itemize":2387,"Ġcost":2388,"Ġnumer":2389,"though":2390,"sl":2391,"scr":2392,"Ġmus":2393,"Ġques":2394,"Ġcer":2395,"Ġweight":2396,"65":2397,"Ġevent":2398,"38":2399,"Ġside":2400,"Ġnat":2401,"rem":2402,"Ġarea":2403,"Ġlater":2404,"ĠThus":2405,"ĠBut":2406,"gether":2407,")}$":2408,"ĠCoun":2409,"ohn":2410,"$}":2411,"]\\":2412,"Ġplace":2413,"ĠâĢĶ":2414,"Ġgive":2415,"On":2416,"ret":2417,"orld":2418,",âĢĿ":2419,"AN":2420,"echan":2421,"Ġparti":2422,"lected":2423,"Ġeither":2424,"wise":2425,"ories":2426,"ime":2427,"viron":2428,"Ġinvol":2429,"vestig":2430,"ĠBe":2431,"noindent":2432,"most":2433,"tices":2434,"vspace":2435,"olumn":2436,"Ġpass":2437,"\\,\\":2438,"64":2439,"ternal":2440,"ored":2441,"eb":2442,"igen":2443,"iss":2444,"Ġvel":2445,"ece":2446,"rite":2447,"tity":2448,"ĠAmerican":2449,"Ġtrac":2450,"uture":2451,"pe":2452,"Ġsolutions":2453,"une":2454,"Ġcour":2455,"ĠSec":2456,"',":2457,"Ġmatch":2458,"Ġimplies":2459,"ĠApp":2460,"tead":2461,"Ġmetric":2462,"matic":2463,"lus":2464,"Ġfocus":2465,"dimensional":2466,"Ġcell":2467,"Ġlarger":2468,"ends":2469,"rary":2470,"multic":2471,"Ġenc":2472,"bb":2473,"ecess":2474,"omial":2475,"04":2476,"Ġstep":2477,"Ġorgan":2478,"ĉĊ":2479,"now":2480,"Ġdeno":2481,"Ġedge":2482,"ĠEng":2483,"Ġcri":2484,"37":2485,"Ġvia":2486,"uman":2487,"tin":2488,"edge":2489,"~$":2490,"Ġblack":2491,"ober":2492,"Ġcoeffici":2493,"ream":2494,"Ġemb":2495,"tives":2496,"multicolumn":2497,"Ġgives":2498,"gen":2499,"Ġelement":2500,"ama":2501,"pla":2502,"Ġelements":2503,"dividual":2504,"spec":2505,"ferences":2506,"Ġrem":2507,"55":2508,"Ġlog":2509,".\"":2510,"ides":2511,"Ġexpected":2512,"Ġposition":2513,"Ġmet":2514,"Ġestab":2515,"ged":2516,"ging":2517,"Ġopp":2518,"Ġindependent":2519,"Ġ_{":2520,"mathscr":2521,"Ġ\\|":2522,"angu":2523,"Ġatt":2524,"fun":2525,"omes":2526,"2009":2527,"approx":2528,"Ġelectron":2529,"bul":2530,"ather":2531,"site":2532,"\\}$":2533,"bigg":2534,"Ġself":2535,"Ġoccur":2536,"ocity":2537,"ether":2538,"ley":2539,"Ġti":2540,"ĠCl":2541,"Ġrelated":2542,"Ġalways":2543,"Ġchann":2544,"ili":2545,"ensor":2546,"arget":2547,"ument":2548,"}}}":2549,"ID":2550,"44":2551,"Ġclassi":2552,"itch":2553,"Ġsk":2554,"allel":2555,"ately":2556,"lated":2557,"teq":2558,"Ġdefinition":2559,"fill":2560,"ĠJan":2561,"enn":2562,"Ġdiv":2563,"Ġweak":2564,"Ġinclude":2565,"}}_":2566,"ĉĉĉĉ":2567,"mooth":2568,"ighb":2569,"Pi":2570,"dd":2571,"ĠAll":2572,"Ġprove":2573,"plicit":2574,"(-":2575,"Ġshort":2576,"Ġcall":2577,"idence":2578,"Ġblock":2579,"ĠGe":2580,"enti":2581,"Ġnote":2582,"ium":2583,"lied":2584,"use":2585,"ware":2586,"raction":2587,"08":2588,"Ġmagnetic":2589,"Ġpath":2590,"Ġrequire":2591,"nal":2592,"Ġreach":2593,"Ġchild":2594,"Ġlat":2595,"Ġhead":2596,"Ġinvestig":2597,"Ġname":2598,"lec":2599,"Ġvarious":2600,"ledge":2601,"quare":2602,"ify":2603,"air":2604,"Ġfields":2605,"Ġschool":2606,"02":2607,"alk":2608,"66":2609,"Ġday":2610,"uted":2611,"Ġimple":2612,"Ġtherefore":2613,"illion":2614,"Ġdon":2615,"39":2616,"Ġregular":2617,"pact":2618,"lan":2619,"Ġrelation":2620,"Ġholds":2621,"split":2622,"ready":2623,"ages":2624,"Theta":2625,"Ġmight":2626,"uc":2627,"egative":2628,"ON":2629,"underline":2630,"Ġimages":2631,"Ġcommon":2632,"Ġgovern":2633,"Ġunit":2634,"ht":2635,"Ġeffects":2636,"2008":2637,"ĠUnited":2638,"Ġpan":2639,"ister":2640,"ference":2641,"Ġsetting":2642,"07":2643,"Ġcoupl":2644,"ĠShe":2645,"Ġiss":2646,"more":2647,"eme":2648,"Ġoriginal":2649,"Ġlist":2650,"Ġwave":2651,"ĠEu":2652,"Ġhowever":2653,"Ġlik":2654,"pped":2655,")+":2656,"Ġeffective":2657,"gs":2658,"gra":2659,"ĠMar":2660,"06":2661,"Ġcirc":2662,"Ġestimate":2663,"ery":2664,"Ġacross":2665,"iform":2666,"Ġindividual":2667,"ticle":2668,"Ġcompared":2669,"Ġspecial":2670,"des":2671,"{$":2672,"racy":2673,"Ġprac":2674,"Ġformula":2675,"Ġexpression":2676,"ĠCan":2677,"&&":2678,"seteq":2679,"AC":2680,"ĠMay":2681,"^-":2682,"âĢ¦":2683,"Ġsets":2684,"ape":2685,"const":2686,"gence":2687,"Ġtechn":2688,"NN":2689,"Ġamong":2690,"ĠCent":2691,"Ġthink":2692,"linear":2693,"Ġcare":2694,"Ġstars":2695,"Ġtheorem":2696,"ressed":2697,"that":2698,"Ġdifference":2699,"Ġspectrum":2700,"ĠTherefore":2701,"Ġprim":2702,"Ġtrue":2703,"Ġeffici":2704,"medi":2705,"Ġmechan":2706,"do":2707,"turb":2708,"Ġbo":2709,"Ġec":2710,"03":2711,"finite":2712,"Ġear":2713,"rig":2714,"49":2715,"References":2716,"ĠSe":2717,"{}":2718,"off":2719,"ĠWith":2720,"Ġclose":2721,"ĠâĢĺ":2722,"Ġyi":2723,"ription":2724,"Since":2725,"\",":2726,"Ġcoordin":2727,"Ġmajor":2728,"Ġtogether":2729,"Ġbook":2730,"Ġdegree":2731,"Ġquanti":2732,"Ġtoo":2733,"hood":2734,"}^{-":2735,"tational":2736,"Ġrepresentation":2737,"Ġevolution":2738,"Ġgas":2739,"Ġmultiple":2740,"Ġspecific":2741,"multi":2742,"ries":2743,"iving":2744,"illa":2745,"Ġdev":2746,"izing":2747,"Ġnecess":2748,"ible":2749,"Ġprec":2750,"mbers":2751,"Ġ$\\{":2752,"IC":2753,"Ġgenerated":2754,"Ġcomponents":2755,"Ġalready":2756,"],":2757,"Ġwar":2758,"Ġpost":2759,"ĠMan":2760,"pos":2761,"astic":2762,"vironment":2763,"Ġreason":2764,"Ġsuccess":2765,"Ġenough":2766,"Ġcomponent":2767,"Then":2768,"ĠUS":2769,"Ġadditional":2770,"jective":2771,"subseteq":2772,"Ġemploy":2773,"bullet":2774,"normal":2775,"sw":2776,"Ġcate":2777,"RE":2778,"ilities":2779,"amil":2780,"Ġconclu":2781,"texttt":2782,"pond":2783,"Ġ$|":2784,"Ġable":2785,"09":2786,"ours":2787,"),\\":2788,"Ġsatisfy":2789,"textrm":2790,"fe":2791,"tein":2792,"Ġaccording":2793,"Ġoften":2794,"ĠĠĠĠĠĠĠĠĠ":2795,"map":2796,"orts":2797,"Ġproperty":2798,"){\\":2799,"SE":2800,"Ġcertain":2801,"Ġhard":2802,"47":2803,"2006":2804,"Ġequal":2805,"Ġfuture":2806,"Ġvelocity":2807,"ttps":2808,"aries":2809,"Ġpresented":2810,"2007":2811,"ynomial":2812,"Ġmix":2813,"resh":2814,"Ġhome":2815,"uration":2816,"Ġuntil":2817,"terial":2818,"68":2819,"minus":2820,"Ġgroups":2821,"rinci":2822,"icy":2823,"Ġexperi":2824,"Ġvariables":2825,"ush":2826,"AL":2827,"ĠTable":2828,"He":2829,"Ġpat":2830,"Ġseason":2831,"Ġtaken":2832,")|":2833,"Ġsyn":2834,"ume":2835,"<\\":2836,"Ġkey":2837,"fies":2838,"Ġearly":2839,"Ġlabel":2840,"onom":2841,"Ġwin":2842,"Ġbasis":2843,"Ġ$-":2844,"nd":2845,"Ġsit":2846,"âĢĶ":2847,"anish":2848,"stit":2849,"Ġnatural":2850,"Ġcannot":2851,"Ġcontains":2852,"Ġcontinuous":2853,"Ġexten":2854,"Ġemission":2855,"get":2856,"Ġ\\;":2857,"Ġglobal":2858,"ĠNational":2859,"Ġneut":2860,"Ġwant":2861,"Ġseem":2862,"like":2863,"ĠOne":2864,"ĠYou":2865,"ĠCor":2866,"ail":2867,"}'":2868,"Ġhyper":2869,"Ġunderstand":2870,"Ġstart":2871,"tative":2872,"Ġdirection":2873,"67":2874,"Ġfig":2875,"prod":2876,"uary":2877,"inks":2878,"Ġimprove":2879,"Ġevalu":2880,"linewidth":2881,"ĠPa":2882,"ĠJohn":2883,"ele":2884,"Ġstatis":2885,"Ġrequired":2886,"Ġinvari":2887,"norm":2888,"Ġclaim":2889,"Ġsignal":2890,"go":2891,"Vert":2892,"tr":2893,"Ġeng":2894,"dagger":2895,"Ġeigen":2896,"Ġtransition":2897,"Ġ($\\":2898,"Ġrepla":2899,"cience":2900,"Ġwhose":2901,"Ġred":2902,"cur":2903,"Ġbecome":2904,"acc":2905,"rees":2906,"ln":2907,"ucle":2908,"och":2909,"}}_{":2910,"ĠLi":2911,"oplus":2912,"Ġmatter":2913,"Ġevents":2914,"Ġmaximum":2915,"pher":2916,"Ġextra":2917,"Ġoutput":2918,"iled":2919,"Ġratio":2920,"Ġtechni":2921,"Ġcluster":2922,"ont":2923,"Ġfilm":2924,"iti":2925,"^{-\\":2926,"ĠCO":2927,"ĠWhen":2928,"Ġcount":2929,"ĠRep":2930,"AM":2931,"Ġneighb":2932,"setminus":2933,"ounds":2934,"ĠIndi":2935,"Ġflux":2936,"}/":2937,"actions":2938,"Ġsw":2939,"Ġ(-":2940,"Ġmis":2941,"omorphism":2942,"ĠPol":2943,"org":2944,"Ġgreat":2945,"}},":2946,"Ġbusiness":2947,"Ġgeom":2948,"icro":2949,"PS":2950,"Ġtarget":2951,"sitions":2952,"Ġexpla":2953,"hy":2954,"**":2955,"Ġclos":2956,"Ġwhether":2957,"mission":2958,"auge":2959,"Ġsearch":2960,"Ġlearn":2961,"bs":2962,"Ġdomain":2963,"ĠCo":2964,"Ġdecre":2965,"Ġinequ":2966,"Ġderiv":2967,"umbers":2968,"Ġnam":2969,"ious":2970,"Ġhapp":2971,"pto":2972,"ideo":2973,"Ġupper":2974,"Ġdou":2975,"\">":2976,"Ġ$[":2977,"Ġversion":2978,"ĠFran":2979,"ĠNote":2980,"ering":2981,"Ġil":2982,"\\}":2983,"Ġreview":2984,"perp":2985,"Ġmaterial":2986,"_+":2987,"Ġhaving":2988,"ean":2989,"Ġfrequency":2990,"ĠĠĠĊ":2991,"utes":2992,"Ġmove":2993,"Ġthird":2994,"inc":2995,"Ġsmooth":2996,"Ġwidth":2997,"Ġapplied":2998,"ably":2999,"Ġrole":3000,"mentation":3001,"Ġincrease":3002,"thers":3003,"ework":3004,"cies":3005,"pol":3006,"field":3007,"Ġleg":3008,"Ġprovided":3009,"ession":3010,"ĠPre":3011,"Ġpress":3012,"duct":3013,"Ġmagn":3014,"iven":3015,"reen":3016,"Ġpolynomial":3017,"anguage":3018,"Ġclear":3019,"sup":3020,"Ġnoise":3021,"IS":3022,"Ġdemon":3023,"Ġequivalent":3024,"Ġobservations":3025,"_*":3026,"tire":3027,"Ġbegin":3028,"ĠRec":3029,"DE":3030,"script":3031,"ĠWorld":3032,"Ġground":3033,"ming":3034,"2005":3035,"Ġfac":3036,"_{(":3037,"Ġclosed":3038,"ĠStates":3039,"rices":3040,"Ġunique":3041,"Ġcaus":3042,"Ġattack":3043,"85":3044,"eff":3045,"subfigure":3046,"Ġembed":3047,"ĠĠĠĠĠĠĠĠĠĠĠĠĠĠĠ":3048,"aves":3049,"Ġair":3050,"ĠSp":3051,"mag":3052,"Ġhealth":3053,"CD":3054,"mar":3055,"ottom":3056,"Ġgoing":3057,"eneral":3058,"kn":3059,"Ġchoice":3060,"ls":3061,"ply":3062,"ectors":3063,"Ġsmaller":3064,"ĠMin":3065,"ded":3066,"Ġphysical":3067,"*{":3068,"Ġcentral":3069,"ace":3070,"dist":3071,"Ġindex":3072,"tor":3073,"group":3074,"ĠSte":3075,"ats":3076,"Ġwon":3077,"uracy":3078,"head":3079,"wedge":3080,"urity":3081,"af":3082,"){":3083,"ĠOr":3084,"uting":3085,"izes":3086,"ared":3087,"$_":3088,"Ġrather":3089,"dle":3090,"Note":3091,"ana":3092,"Ġuncer":3093,"2000":3094,"ĉĉĉ":3095,"Ġplayers":3096,"Ġscen":3097,"Ġdiagram":3098,"amilton":3099,"Ġintegral":3100,"Ġput":3101,"page":3102,"mp":3103,"Ġdataset":3104,"Ġbounded":3105,"Ġhear":3106,"oung":3107,"Ġalmost":3108,"opy":3109,"ey":3110,"lor":3111,"Ġarch":3112,"Ġcenter":3113,"Ġprovides":3114,"Ġpopulation":3115,"ource":3116,"Ġhence":3117,"Ġconfig":3118,"Ġrepresent":3119,"Ġben":3120,"Ġsymmetry":3121,"98":3122,"Ġfore":3123,"Ġoperators":3124,"Ġbecomes":3125,"down":3126,"Ġsuffici":3127,"Ġwritten":3128,"Ġwater":3129,"Ġbehavior":3130,"ney":3131,"Ġ|\\":3132,"Ġhalf":3133,"Ġcapa":3134,"rr":3135,"Ġinteraction":3136,"limits":3137,"Ġgalaxies":3138,"AP":3139,"lap":3140,"acy":3141,"Ġland":3142,"ending":3143,"Ġcurve":3144,"ully":3145,"Ġcompany":3146,"Ġbreak":3147,"Ġ~":3148,"ĠSc":3149,"oring":3150,"mas":3151,"Ġhuman":3152,"Ġproblems":3153,"display":3154,"Ġmov":3155,"Ġincreasing":3156,")\\,":3157,"Ġworks":3158,"Ġdirectly":3159,"Ġhor":3160,"Ġsl":3161,"Ġbig":3162,"46":3163,"bo":3164,"Ġoffic":3165,"Ġfive":3166,"uk":3167,"Ġinc":3168,"Ġvalid":3169,"Ġdetermined":3170,"Ġsources":3171,"sident":3172,"Ġrelative":3173,"Ġanti":3174,"Ġnucle":3175,"Ġaccount":3176,"Ġmembers":3177,"Ġbelie":3178,"ollary":3179,"point":3180,"ried":3181,"Ġchanges":3182,"Ġagree":3183,"Ġregions":3184,"ques":3185,"ĠMed":3186,"ranch":3187,"cep":3188,"Ġtw":3189,"rel":3190,"oms":3191,"ino":3192,"command":3193,"Ġwrite":3194,"ĠCal":3195,"unch":3196,"osen":3197,"ales":3198,"ising":3199,"LE":3200,"na":3201,"Ġdynamics":3202,"Ġdone":3203,"ĠYork":3204,"_{{\\":3205,"Ġbackground":3206,"Ġvertex":3207,"colon":3208,"ump":3209,"Ġcritical":3210,"OR":3211,"Ġprior":3212,"No":3213,"Ġuniform":3214,"Ġproced":3215,"aussian":3216,"ĠJanuary":3217,"ires":3218,"Ġmode":3219,"Ġdetails":3220,"Ġcode":3221,"tention":3222,"aligned":3223,"ĠAug":3224,"isted":3225,"black":3226,"sta":3227,"97":3228,"Ġmaking":3229,"ulate":3230,"Ġallows":3231,"Ġlinks":3232,"bound":3233,"_{-":3234,"ĠJu":3235,"Ġmusic":3236,"Ġ}\\":3237,"itect":3238,"ided":3239,"ĠAust":3240,"Ġtreat":3241,"Ġdiscre":3242,"gory":3243,"2004":3244,"}}(\\":3245,"Ġtext":3246,"ĠState":3247,"CC":3248,"Ġobjects":3249,"ense":3250,"Ġchall":3251,"ĠOur":3252,"uck":3253,"Ġmakes":3254,"dec":3255,"Ġpeak":3256,"llar":3257,"ores":3258,"Ġapproximation":3259,"Ġconnected":3260,"Ġconstruction":3261,"cell":3262,"Res":3263,"Ġauthor":3264,"Ġang":3265,")}(":3266,"][":3267,"ceed":3268,"ropy":3269,"Ġadj":3270,"long":3271,"Ġquestion":3272,"Ġtaking":3273,"ĠProposition":3274,"ĠGu":3275,"Ġinstead":3276,"Ġmid":3277,"Ġperturb":3278,"Ġcome":3279,"Ġhol":3280,"42":3281,"Ġnever":3282,"Ġbuilding":3283,"ones":3284,"ĠWar":3285,"Ġsug":3286,"Ġenvironment":3287,"rip":3288,"57":3289,"Ġdiscussed":3290,"ansion":3291,"her":3292,"ade":3293,"ĠEn":3294,"Ġcam":3295,"Ġcontext":3296,"Ġrecord":3297,"Ġstudies":3298,"Ġrestric":3299,"Ġiter":3300,"Ġoptimal":3301,"Ġsoft":3302,"Ġprinci":3303,"Ġfoot":3304,"Ġ_":3305,"dif":3306,"Ġpub":3307,"sts":3308,"Ġsubset":3309,"ĠOct":3310,"Ġgauge":3311,"ĠMa":3312,"ĠSchool":3313,"oman":3314,"Ġlayer":3315,"vial":3316,"43":3317,"Ġmer":3318,"zed":3319,"earch":3320,"Ġkeep":3321,"Ġproduction":3322,"Ġsamples":3323,"iam":3324,"Ġtherm":3325,"Ġperformed":3326,"xy":3327,"Ġwords":3328,"esis":3329,"Ġscatter":3330,"Ġspectral":3331,"Ġdiffic":3332,"Ġsays":3333,"Ġobject":3334,"definition":3335,"Ġintroduced":3336,"arily":3337,"Ġnumbers":3338,"Ġweb":3339,"Ġreported":3340,"58":3341,"De":3342,"\\!\\!":3343,"Ġmaps":3344,"Ġexperiments":3345,")^{\\":3346,"Ġcheck":3347,"ĠSim":3348,"eV":3349,"Ġexplicit":3350,"iting":3351,"Ġweek":3352,"fact":3353,"Ġtask":3354,"ially":3355,"Ġ:=":3356,"IT":3357,"ography":3358,"Ġapproximate":3359,"96":3360,"Ġillu":3361,"Ġinterval":3362,"ĠHere":3363,"'_":3364,"Ġcolumn":3365,"Ġvo":3366,"Ġparticle":3367,"Ġformer":3368,"ĠBri":3369,")_{":3370,"Ġdevelopment":3371,"Ġdel":3372,"Ġaccess":3373,"ĠFrom":3374,"isk":3375,"Ġsatisfies":3376,"Ġnumerical":3377,"Ġconven":3378,"ĠMarch":3379,"Ġleading":3380,"forall":3381,"bum":3382,"Ġcut":3383,"range":3384,"'\\":3385,"yl":3386,"Eq":3387,"Ġparticles":3388,"Ġplot":3389,"AA":3390,"aly":3391,"Ġrepresen":3392,"Ġhar":3393,"pag":3394,"ĠSouth":3395,"Ġdomin":3396,"pri":3397,"Ġimpact":3398,"Ġsimulations":3399,"Ġpattern":3400,"Ġclassical":3401,"Ġcoupling":3402,"ĠAfter":3403,"ĠThat":3404,"ĠSep":3405,"ung":3406,"ES":3407,"IR":3408,"reng":3409,"Ġcompact":3410,"vant":3411,"vent":3412,"Ġexpon":3413,"textsc":3414,"Ph":3415,"jection":3416,"Ġframework":3417,"ĠHence":3418,"Ġcommunity":3419,"ima":3420,"Ġvariable":3421,"ĠMon":3422,"tag":3423,"dt":3424,"Ġaway":3425,"endix":3426,"Ġapply":3427,"comp":3428,"ĠApr":3429,"subsubsection":3430,"Ġmomentum":3431,"Ġconcer":3432,"Ġcos":3433,"Ġage":3434,",\\,":3435,"Ġsocial":3436,"Ġfla":3437,"Ġ\\(":3438,"Ġscheme":3439,"}$-":3440,"Ġarbit":3441,"Ġmeasured":3442,"Ġrob":3443,"Ġincluded":3444,"Ġentire":3445,"Ġaccuracy":3446,"lege":3447,"Ġdays":3448,"Ġ#":3449,"ĠEurop":3450,"trans":3451,"Ġgovernment":3452,"Ġproject":3453,"Ġperson":3454,"Ġmem":3455,"Âł":3456,"Ġprote":3457,"Ġsense":3458,"tember":3459,"Un":3460,"{$\\":3461,"Ġchannel":3462,"iles":3463,"Ġtransform":3464,"Ġcity":3465,"Ġamplit":3466,"Ġ+\\":3467,"Ġinstance":3468,"BC":3469,"andid":3470,"Our":3471,"Ġsugges":3472,"Ġtakes":3473,"Ġsus":3474,"=(":3475,"56":3476,"serve":3477,"Sh":3478,"Ġcli":3479,"88":3480,"usion":3481,"Ġjo":3482,"anced":3483,"ympto":3484,"OS":3485,"run":3486,"Ġpolar":3487,"inf":3488,"Ġmarket":3489,"amiltonian":3490,"Ġresulting":3491,"Ġnegative":3492,"Ġcomparison":3493,"Ġvertices":3494,"ops":3495,"deg":3496,"Ġuser":3497,"urch":3498,"41":3499,"Ġtypes":3500,"Ġlittle":3501,"flo":3502,"Su":3503,")/":3504,"isms":3505,"aster":3506,"ĠNe":3507,"ĠBar":3508,"Ġreally":3509,"Ġdemonstra":3510,"Ġnodes":3511,"Ġwind":3512,"Ġradius":3513,"MS":3514,"Ġspatial":3515,"mun":3516,"ashed":3517,"rier":3518,"Ġhistory":3519,"Ġmar":3520,"Ġdeath":3521,"FT":3522,"era":3523,"ĠReg":3524,"Ġoffer":3525,"\\'":3526,"ED":3527,"can":3528,"Ġir":3529,"Here":3530,"Ġess":3531,"Ġsix":3532,"Ġpriv":3533,":\\":3534,"ĠCounty":3535,"ĠHar":3536,"known":3537,"vey":3538,"erman":3539,"ening":3540,"Int":3541,"Ġmeasurements":3542,"----":3543,"=-":3544,"ĠCity":3545,"Ġservice":3546,"Ġscenari":3547,"Ġderived":3548,"Ġmention":3549,"eline":3550,"my":3551,"png":3552,"tact":3553,"Ġliter":3554,"band":3555,"={":3556,"from":3557,"2023":3558,"ĠFirst":3559,"rist":3560,")^{-":3561,"ecember":3562,"EN":3563,"agement":3564,"Ġinequality":3565,"ague":3566,"edu":3567,"Ġcorresponds":3568,"Ġdraw":3569,"level":3570,"sch":3571,"Ġnetworks":3572,"ĠMark":3573,"sto":3574,"Ġmotion":3575,".~(\\":3576,"ker":3577,"Ġdra":3578,"Ġdecom":3579,"Ġann":3580,"Ġdecay":3581,"2003":3582,"Ġpay":3583,"Ġassumption":3584,"rown":3585,"abs":3586,"Now":3587,"Ġcontribution":3588,"ovember":3589,"Ġbase":3590,"sem":3591,"^{+":3592,"simeq":3593,"ives":3594,"ffor":3595,"itz":3596,"Ġbeh":3597,"gorithms":3598,"ĠTra":3599,"ani":3600,"Ġcorrespond":3601,"Ġleads":3602,"ids":3603,"Ġbroad":3604,"ĠII":3605,"ĠMc":3606,"ords":3607,"Ġlikely":3608,"cont":3609,"atory":3610,"ners":3611,"tish":3612,"Ġmanif":3613,"empt":3614,")}{\\":3615,"pmatrix":3616,"Ġinterpre":3617,"At":3618,"Ġcoefficients":3619,"MC":3620,"oud":3621,"cases":3622,"77":3623,"Ġonce":3624,"$^{-":3625,"Ġcourse":3626,"Ġsimply":3627,"tik":3628,"Ġlattice":3629,"self":3630,"ĠPer":3631,"ĠMoreover":3632,"Ġcompute":3633,"$).":3634,"Ġplane":3635,"ĠJune":3636,")\\\\":3637,"With":3638,"Ġreport":3639,"pc":3640,"Ġpanel":3641,"ste":3642,"roduction":3643,"ustom":3644,"Ġpati":3645,"Ġstreng":3646,"ĠNorth":3647,"\".":3648,"urthermore":3649,"Ġminimum":3650,"vex":3651,"Ġsite":3652,"Ġedges":3653,"Ġdifficult":3654,"Ġpast":3655,"Ġ=\\":3656,"ppose":3657,"ĠRef":3658,"Ġinflu":3659,"ĠAg":3660,"}}^":3661,"When":3662,"tegy":3663,"izon":3664,"Ġdecision":3665,"dient":3666,"Ġstudied":3667,"From":3668,"cation":3669,"onic":3670,"ĠApril":3671,"Ġcalculated":3672,"Ġold":3673,"ogene":3674,"ĠRi":3675,"Ġchain":3676,"Figure":3677,"Ġseg":3678,"}^*":3679,"}%":3680,"avy":3681,"ĠMod":3682,"Ġreduced":3683,"Ġshall":3684,"Ġchoose":3685,"Ġcorrelation":3686,"ham":3687,"volution":3688,"Ġtransfer":3689,"CO":3690,"Ġauto":3691,"ĠWill":3692,"Net":3693,"phere":3694,"Ġinteresting":3695,"Ġbar":3696,"Ġpossi":3697,"Ġorbit":3698,"Ġdetection":3699,"69":3700,"ously":3701,"$$\\":3702,"partment":3703,"ĠAf":3704,"Ġdeep":3705,"Ġax":3706,"ĠSeptember":3707,"sters":3708,"Ġvideo":3709,"\\|_{":3710,"Ġmillion":3711,"Ġconstraints":3712,"Ġrank":3713,"ĠFeb":3714,"zero":3715,"Ġexpansion":3716,"Ġlink":3717,"Ġconsistent":3718,"Ġsimulation":3719,"Ġadop":3720,"~$\\":3721,"ĠOctober":3722,"hom":3723,"type":3724,"Ġcharge":3725,"Ġdeveloped":3726,"Ġbecame":3727,"labor":3728,"Ġwomen":3729,"Ġsent":3730,"Ġchosen":3731,"Ġothers":3732,"Ġsong":3733,"ĠAb":3734,"Ġnecessary":3735,"irt":3736,"Ġindust":3737,"ront":3738,"Ġonline":3739,"Ġwa":3740,"Ġgames":3741,"Ġbir":3742,"Ġsimpl":3743,"Ġspeed":3744,"Ġpresence":3745,"lig":3746,"Ġprocesses":3747,"Ġtit":3748,"Ġnorm":3749,"olic":3750,"rant":3751,"})$.":3752,"Ġarti":3753,"model":3754,"Ġdenotes":3755,"ĠJuly":3756,"pres":3757,"Ġdual":3758,"ĠPo":3759,"dam":3760,"Ġrow":3761,"Ġstory":3762,"Ġresponse":3763,"Ġscalar":3764,"Ġchildren":3765,"ns":3766,"eder":3767,"inde":3768,"ĠAugust":3769,"ĠIntern":3770,"Ġdistributions":3771,"')":3772,"Ġknowledge":3773,")$-":3774,"Ġcandid":3775,"Ġworking":3776,"dro":3777,"war":3778,"Ġgoal":3779,"Ġtool":3780,"Ġpack":3781,"$(":3782,"book":3783,"Ġconstruct":3784,"Ġconsequ":3785,"Ġcorrect":3786,"Ġcolor":3787,"ditional":3788,"bur":3789,"Ġcountry":3790,"thern":3791,"ĠDecember":3792,"Ġstation":3793,"Ġtry":3794,"Ġcurves":3795,"However":3796,"Ġmeet":3797,"Ġexperimental":3798,"state":3799,"Ġalbum":3800,"One":3801,"ken":3802,"remark":3803,"Ġtree":3804,"dim":3805,"Ġhold":3806,"berg":3807,"class":3808,"ada":3809,"Ġve":3810,"Ġwhole":3811,"Ġada":3812,"Ġnews":3813,"Ġprocedure":3814,"ĠNovember":3815,"umin":3816,"refer":3817,"Ġlanguage":3818,"Ġpul":3819,"ident":3820,"vity":3821,"ĠBo":3822,".)":3823,"ky":3824,"Ġcommunic":3825,"Ġneeded":3826,"Ġ&=&":3827,"More":3828,"value":3829,"SP":3830,"osp":3831,"Ġtensor":3832,"Ġalgorithms":3833,"59":3834,"vision":3835,"riter":3836,"Ġquality":3837,"asi":3838,"Ġinfinite":3839,"AB":3840,"Ġcompe":3841,"Ġdep":3842,"Ġclasses":3843,"ructed":3844,"Ġsquare":3845,"Ġaltern":3846,"Ġdark":3847,"oul":3848,"2002":3849,"ished":3850,"Ġeasily":3851,"Ġuses":3852,"Ġspectra":3853,"IM":3854,"ification":3855,"Theorem":3856,"Ġfigure":3857,"Ġvolume":3858,"change":3859,"encies":3860,"Ġinvariant":3861,"EE":3862,"Ġdouble":3863,"Ġarchitect":3864,"Ġapplication":3865,"bert":3866,"54":3867,"sol":3868,"lier":3869,"Le":3870,"Ġtook":3871,"So":3872,"Ġeasy":3873,"ĠEd":3874,"paramet":3875,"ĠÂ":3876,"Rec":3877,"https":3878,"\\_":3879,"lations":3880,"aged":3881,"500":3882,"tikz":3883,"Ġpolicy":3884,"mic":3885,"].":3886,"Ġstudents":3887,"pecially":3888,"Ġremains":3889,"roll":3890,"newcommand":3891,"Ġfactors":3892,"Ġdescribe":3893,"ĠRus":3894,"Ġlevels":3895,"ĠDi":3896,"Ġapplications":3897,"Ġdependence":3898,"Ġgen":3899,"ows":3900,"|_{":3901,"Ġexperience":3902,"Ġexamples":3903,"this":3904,"52":3905,"Ar":3906,"Ġsymmetric":3907,"pid":3908,"Ġdeal":3909,"mapsto":3910,"Ġparts":3911,"Ġstructures":3912,"Ġpartici":3913,"Ġformation":3914,"Ġitself":3915,"ille":3916,"but":3917,"ilib":3918,"zz":3919,"Ġcontent":3920,"aps":3921,"ae":3922,"bin":3923,"Ġuseful":3924,"Ġdetermine":3925,"Ġdoc":3926,"PR":3927,"Ġwhy":3928,"Ġfri":3929,"87":3930,"Ġpartial":3931,"ĠRo":3932,"Ġresolution":3933,"ernel":3934,"Ġsplit":3935,"ĠQu":3936,"Ġbody":3937,"Thus":3938,"bi":3939,"Ġsignificantly":3940,"Ġexperiment":3941,"Ġidentify":3942,"ĠHamiltonian":3943,"Ġlocated":3944,"Ġcomputed":3945,"picture":3946,"Ġspaces":3947,"Ġdepends":3948,"Ġaddress":3949,"Ġintroduce":3950,"Ġproduced":3951,"ĠĠĠĠĊ":3952,"ĠGaussian":3953,"hite":3954,"ilibri":3955,"omorphic":3956,"Ġusers":3957,"urate":3958,"ruary":3959,",\"":3960,"graph":3961,"Ġgrowth":3962,"parallel":3963,"odot":3964,"Ġincreases":3965,"itor":3966,"Ġmagnit":3967,"pan":3968,"63":3969,"Ġexactly":3970,"Ġcomes":3971,"bits":3972,"osing":3973,"oney":3974,"ĠAustral":3975,"Ġrequires":3976,"ecause":3977,"dy":3978,"ini":3979,"Ġmodes":3980,"sia":3981,"Ġincludes":3982,"tee":3983,"2001":3984,"fect":3985,"ills":3986,"pose":3987,"rup":3988,"Sim":3989,"Ġlatter":3990,"Ġneeds":3991,"Ġexec":3992,"==":3993,"stack":3994,"city":3995,"Ġillustra":3996,"Ġservices":3997,"ights":3998,"Ġassign":3999,"Ġutil":4000,"Ġrelevant":4001,"Ġangle":4002,"Ġrecog":4003,"dx":4004,"Ġextended":4005,"proposition":4006,"Ġeduc":4007,"SO":4008,"Ġensure":4009,"Ġstellar":4010,"Ġcharg":4011,"'(":4012,"53":4013,"ĠDo":4014,"Ġmatrices":4015,"www":4016,"ĠSw":4017,"Ġrates":4018,"}}^{":4019,"ournal":4020,"Ġfully":4021,"Ġapproaches":4022,"load":4023,"Ġ@":4024,"Ġalign":4025,"Ġforce":4026,"Ġintegra":4027,"ux":4028,"Ġprom":4029,"51":4030,"Ġpressure":4031,"Ġorigin":4032,"Ġcoll":4033,"ccording":4034,")_":4035,"Ġasympto":4036,"Ġsupported":4037,"Sch":4038,"Ġgain":4039,"Ġadded":4040,"eler":4041,"Ġcompan":4042,"Ġidea":4043,"ĠPe":4044,"Ġrepresents":4045,"dsh":4046,"ĠHigh":4047,"Ġannoun":4048,"Ġessential":4049,"Ġarm":4050,"-$":4051,"Ġtor":4052,"ources":4053,"Ġyields":4054,"ises":4055,"}$\\":4056,"$;":4057,"}&":4058,"Ġembedding":4059,"reet":4060,"sities":4061,"Ġamount":4062,"ford":4063,"Ad":4064,"Ġupd":4065,"Ġstrength":4066,"ĠOb":4067,"Ġbranch":4068,"Ġ$$":4069,"mini":4070,"Ġestimates":4071,"net":4072,"Ġreceived":4073,"Ġface":4074,"Ġthresh":4075,"rice":4076,"EC":4077,"lies":4078,"Ġdiff":4079,"Ġcouple":4080,"ĠOff":4081,"Ġyet":4082,"Ġeconom":4083,"ued":4084,"Ġhouse":4085,"Ġsteps":4086,"62":4087,"Ġestimated":4088,"Ġshape":4089,"Ġlot":4090,"Ġthings":4091,"Ġmas":4092,"displaystyle":4093,"New":4094,"What":4095,"ratic":4096,"bly":4097,"Ġbox":4098,"data":4099,"Ġmess":4100,"Ġsuff":4101,"\\{\\":4102,"elling":4103,"uations":4104,"Ġarbitrary":4105,"function":4106,"Ġreference":4107,"rew":4108,"Ġask":4109,"ĠWhile":4110,"ĠSer":4111,"blue":4112,"Ġconvergence":4113,"Ġones":4114,"ĠDis":4115,"Ġstrategy":4116,"Ġtable":4117,"78":4118,"ali":4119,"SI":4120,"ttp":4121,"Ġstable":4122,"emic":4123,"LP":4124,"Ġword":4125,"nov":4126,"Ġimmedi":4127,"alog":4128,"Ġsomething":4129,"Ġbeg":4130,"ĠNow":4131,"Ġaim":4132,"Ġslow":4133,"Ġpoli":4134,"vor":4135,"Ġtheore":4136,"Ġidentity":4137,"cast":4138,"Ġespecially":4139,"structure":4140,"And":4141,"DF":4142,"Ġmeasurement":4143,"Ġreleased":4144,"Ġhyp":4145,"$~":4146,"Ġgot":4147,"Ġpairs":4148,"ĠEl":4149,"Ġestablish":4150,"Ġquad":4151,"Ġavoid":4152,"Ġactually":4153,"ested":4154,"Ġbeam":4155,"}$}":4156,"Ġfeel":4157,"isation":4158,"oding":4159,"Ġslight":4160,"apan":4161,"....":4162,"NR":4163,"Ġexistence":4164,"sa":4165,"Ġestablished":4166,"Ġinteractions":4167,"Ġattention":4168,"inty":4169,"itary":4170,"External":4171,"See":4172,"hbar":4173,"cil":4174,"Ġvectors":4175,"Ġtowards":4176,"Ġrecover":4177,"AD":4178,"ĠInde":4179,"Ġord":4180,"ilibrium":4181,"mma":4182,"Ġdig":4183,"free":4184,"ened":4185,"App":4186,"Ġcategory":4187,"Ġmorph":4188,"tition":4189,"Ġfootball":4190,"Ġnovel":4191,"mations":4192,"aking":4193,"Ġcomputation":4194,")+\\":4195,"Ġansw":4196,"Ġpropag":4197,"ca":4198,"ses":4199,"->":4200,"Ġpic":4201,"Ġfall":4202,"Ġbuilt":4203,"tible":4204,"Ġblue":4205,"Ġquite":4206,"93":4207,"ĠPark":4208,"Ġdeli":4209,"ampling":4210,"Ġbin":4211,"ĠWest":4212,"Ġstage":4213,"Ġplayed":4214,"produ":4215,"ĠMo":4216,"SU":4217,"ĠFebruary":4218,"Ġreve":4219,"Ġobserve":4220,"Ġinside":4221,"ighted":4222,"Ġcore":4223,"'}":4224,"Ġcapture":4225,"Ġmach":4226,"Ġoptical":4227,"cus":4228,")},":4229,"versal":4230,"lass":4231,"ered":4232,"alt":4233,"ception":4234,"Ġclassification":4235,"path":4236,"ites":4237,"alg":4238,"94":4239,"61":4240,"zation":4241,"body":4242,"Ġneg":4243,"__":4244,"\\\"":4245,"Ġdifferential":4246,"Ġselected":4247,"Ġcompo":4248,"sur":4249,"tainty":4250,"ba":4251,"}}$,":4252,"Ġdisk":4253,"values":4254,"ĠAc":4255,"})$,":4256,"ĠMich":4257,"Ġusually":4258,"Ġdiscover":4259,"br":4260,")-\\":4261,"ĠBra":4262,"Ġfinding":4263,"Ġconsists":4264,"yond":4265,"Ġlimited":4266,"Ġpi":4267,"Ġmolec":4268,"ĠSan":4269,"}}$.":4270,"ara":4271,"multirow":4272,"aran":4273,"Ġosc":4274,"eless":4275,"izations":4276,"ĠDes":4277,"ĠMus":4278,"uter":4279,"Ġyoung":4280,"Ġoverall":4281,"Ġstring":4282,"ka":4283,"timation":4284,"Ġcustom":4285,"ĠDav":4286,"Ġmicro":4287,"vis":4288,"Ġnature":4289,"Ġcreate":4290,"ĠAfric":4291,"Ġcreated":4292,"minipage":4293,"uments":4294,"cement":4295,"PC":4296,"Ġlonger":4297,"}{|":4298,"cref":4299,"ĠKing":4300,"ingu":4301,"ĠLa":4302,"year":4303,"Ġvanish":4304,"Ġargument":4305,"Ġbelong":4306,"Ġmedia":4307,"Ġrecently":4308,"Ġgalaxy":4309,"Ġanalog":4310,"Ġattem":4311,"Ġtransformation":4312,"call":4313,"SC":4314,"Ġcircle":4315,"flow":4316,"Ġexci":4317,"inct":4318,"Ġcompare":4319,"agraph":4320,"PT":4321,"ĠHis":4322,"SM":4323,"iral":4324,"Ġcame":4325,"ortun":4326,"Ġexhi":4327,"}$)":4328,"comple":4329,"ĠGo":4330,"pis":4331,"Ġprofile":4332,"Ġkind":4333,"rack":4334,"come":4335,"Ġframe":4336,"Mod":4337,"Ġspecies":4338,"Ġalthough":4339,"redu":4340,"Ġareas":4341,"Ġissue":4342,"Ġpublished":4343,"ians":4344,"Hz":4345,"Ġproducts":4346,"Ġremov":4347,"Ġforward":4348,":}":4349,"cong":4350,"Ġ$|\\":4351,"ĠResearch":4352,"Ġprediction":4353,"lex":4354,"vol":4355,"Ġcult":4356,"hips":4357,"Ġoutside":4358,"ptions":4359,"comm":4360,"pite":4361,"Ġdescription":4362,"Ġemer":4363,"Ġlocation":4364,"Ġchallen":4365,"}({\\":4366,"Ġrule":4367,"Ġmember":4368,"LO":4369,"Ġcoordinates":4370,"arent":4371,"ony":4372,"Ġtell":4373,"ĠAir":4374,"Ġlate":4375,"tability":4376,"Ġbit":4377,"Ġscattering":4378,"Ġbul":4379,"men":4380,"Ġflat":4381,")}_{":4382,"mass":4383,"fit":4384,"olute":4385,"Ġradio":4386,"example":4387,"here":4388,"Ġtechniques":4389,"ned":4390,"hic":4391,"Ġexpect":4392,"ema":4393,"Ġrisk":4394,"Ġsuccessful":4395,"Ġachieve":4396,"ml":4397,"Ġfraction":4398,"Ġstarting":4399,"Ġheld":4400,"$),":4401,"ĠWhat":4402,"ondon":4403,"local":4404,"Ġconfir":4405,")--":4406,"))$":4407,"alse":4408,"corre":4409,"Ġforms":4410,"Ġevidence":4411,"Ġpopular":4412,"ĠMy":4413,"ĠEnglish":4414,"Ġengine":4415,"92":4416,"Ġstarted":4417,"Ġextension":4418,"ridge":4419,"Ġappropri":4420,"Me":4421,"Ġhorizon":4422,"Ġerrors":4423,"Ġactive":4424,"ĠDist":4425,"Ġappears":4426,"uff":4427,"&=&":4428,"Ġsolid":4429,"omic":4430,"Ġcontrast":4431,"ET":4432,"elves":4433,"Ġaut":4434,"Ġrepe":4435,"Ġreson":4436,"Ġagreement":4437,"las":4438,"Ġauthors":4439,"Ġdiscussion":4440,"ube":4441,"Ġball":4442,"Ġcry":4443,"All":4444,"Ġarri":4445,"Ġthick":4446,"Ġupon":4447,"pal":4448,"}{(":4449,"cel":4450,"ĠComp":4451,"Ġcontact":4452,"Ġabsor":4453,"Ġstatement":4454,"Ġsymbol":4455,"seud":4456,"Ġissues":4457,"Ġliterature":4458,"rest":4459,"Ġfeed":4460,"Ġconfiguration":4461,"hand":4462,"cript":4463,"ampions":4464,"Ġarticle":4465,"ogeneous":4466,".$":4467,"ĠĠĠĠĠĠĠĠĠĠ":4468,"cknow":4469,"Ġassumed":4470,"Ġidentified":4471,"ender":4472,"Ġcounter":4473,"ĠBro":4474,"algebra":4475,"Ġtown":4476,"Ġinduced":4477,",\\\\":4478,"[(":4479,"Ġredsh":4480,"Ġgraphs":4481,"special":4482,"ĠFe":4483,"LL":4484,"Ġlargest":4485,"Ġpure":4486,"Ġcontributions":4487,"ctive":4488,"atives":4489,"mented":4490,"Ġdevi":4491,"Ġenh":4492,"Ġregime":4493,"rag":4494,"Ġtreatment":4495,"ĠNews":4496,"Ġeffor":4497,"Ġwhite":4498,"Ġstraight":4499,"Ġreduce":4500,"Ġlove":4501,"Ġjob":4502,"Ġselection":4503,"Ġnotation":4504,"mc":4505,"Ġreconst":4506,"ĠChar":4507,"hbox":4508,"Ġmemory":4509,"||":4510,"column":4511,"Ġplat":4512,"Introduction":4513,"HE":4514,"rench":4515,"Ġproduce":4516,"Ġ${":4517,"Ġresi":4518,"Ġconclude":4519,"Ġamplitude":4520,"Ġexpand":4521,"lip":4522,"Ġsituation":4523,"bold":4524,"These":4525,"Sec":4526,"Therefore":4527,"Ġtoday":4528,"ĠTrans":4529,"ĠGra":4530,")}}":4531,"Ġgenerally":4532,"Ġadap":4533,"Ġremain":4534,"}{*":4535,"ifically":4536,"Ġoptimization":4537,"::":4538,"Ġbinary":4539,"AG":4540,"Ġconcent":4541,"Ġexam":4542,"cienti":4543,"iter":4544,"symm":4545,"arp":4546,"Ġcombination":4547,"Li":4548,"Ġhost":4549,"Ġcondu":4550,"|-":4551,"_-":4552,"itter":4553,"Ġcollection":4554,"Be":4555,"Ġscre":4556,"Ġlive":4557,"Ġinner":4558,"ĠHer":4559,"mary":4560,"Ġformal":4561,"Ġinteger":4562,"Ġfundam":4563,"Ġbenef":4564,"nes":4565,"cccc":4566,"Ġvisual":4567,"Ġbasic":4568,"ĠHouse":4569,"Ġmeasures":4570,"72":4571,"Ġgradient":4572,"91":4573,"uli":4574,"LS":4575,"Ġconserv":4576,"Ġgenerate":4577,"Ġconsum":4578,"Im":4579,"Ġaccurate":4580,"Ġmasses":4581,"}\\,\\":4582,"Ġmagnitude":4583,"van":4584,"MM":4585,"1998":4586,"lesssim":4587,"omb":4588,"Ġoperations":4589,"dual":4590,"ects":4591,"]{\\":4592,"ĠJapan":4593,"Ġobservation":4594,"ciety":4595,"Ġ&&":4596,"1999":4597,"Par":4598,"ĠAm":4599,"dire":4600,"OT":4601,"Ġseems":4602,"Ġthermal":4603,"Ġunits":4604,"Ġitem":4605,"ĠServ":4606,"Ġmentioned":4607,"osity":4608,"Ġdesigned":4609,"roun":4610,"US":4611,"Ġdest":4612,"tfrac":4613,"Ġsm":4614,"dfrac":4615,"stitute":4616,"Ġteach":4617,"Ġallowed":4618,"Ġchem":4619,"Ġadvan":4620,"Ġshowed":4621,"Ġthreshold":4622,"lease":4623,"Ġhighly":4624,"Ġori":4625,"illed":4626,"Ġappe":4627,"Ġbegan":4628,"Ġoperation":4629,"Ġplayer":4630,"86":4631,"84":4632,"utive":4633,"Ġcat":4634,"ĠInter":4635,"ĠMor":4636,"Ġtasks":4637,"atus":4638,"Ġconvex":4639,"76":4640,"^*$":4641,"Ġener":4642,"Ġrepresented":4643,"Ġtraject":4644,"]$.":4645,"Ġever":4646,"check":4647,"Ġconstraint":4648,"icity":4649,"Ġclearly":4650,"tian":4651,":=":4652,"Ġmechanism":4653,"Ġthought":4654,"aring":4655,"Ġcalculations":4656,"89":4657,"ĠBritish":4658,"Ġdetect":4659,"diag":4660,"bigl":4661,"inted":4662,"ĠOp":4663,"ĠTech":4664,"Ġlemma":4665,"GC":4666,"Ġnational":4667,"Ġphen":4668,"istory":4669,"Ġexisting":4670,"opic":4671,"Ġfluct":4672,"perim":4673,"Ġnamed":4674,"Ġsure":4675,"ĠTe":4676,"Ġclusters":4677,"car":4678,"Ġkernel":4679,"dom":4680,"Ġcareer":4681,"Ġtheoretical":4682,"ĠCenter":4683,"Ġperfect":4684,"MR":4685,"Ġtrack":4686,"Ġproved":4687,"ĠFinally":4688,"Ġcalculation":4689,"Col":4690,"bon":4691,"udes":4692,"Ġ[\\":4693,"tocol":4694,"$_{":4695,"Ġshare":4696,"Ġtechnology":4697,"Ġcompletely":4698,"Ġpreviously":4699,"After":4700,"Ġvariety":4701,"Ġbal":4702,"VID":4703,"Ġrelatively":4704,"Ġcru":4705,"bel":4706,"$};":4707,"ola":4708,"Ġcells":4709,"Ġlayers":4710,"Ġstyle":4711,"Finally":4712,"racted":4713,"Ob":4714,"Ġnight":4715,"Ġuncertainty":4716,"att":4717,"Ġled":4718,"forms":4719,"pir":4720,"Ġcoefficient":4721,"Ġminimal":4722,"ager":4723,",\\,\\":4724,"Ġbeyond":4725,"Ġring":4726,"Ġri":4727,"Ġrunning":4728,"Ġconnection":4729,"Ġ\\!":4730,"Ġmonths":4731,"Ġquark":4732,"ĠInternational":4733,"urs":4734,"Ġvary":4735,"Ġpractice":4736,"Ġdatasets":4737,"Ġhypoth":4738,"raft":4739,"Ġbounds":4740,"Ġprimary":4741,"$:":4742,"mann":4743,"conn":4744,"300":4745,"ĠLondon":4746,"cons":4747,"Ġfilter":4748,"Ġexponential":4749,"Ġgeneration":4750,"Ġdenoted":4751,"Ne":4752,"\\}$.":4753,"Ġpartition":4754,"rug":4755,"Ġkine":4756,"Ġelectric":4757,"Ġreduction":4758,"Ġstrongly":4759,"ki":4760,"Ġparallel":4761,"bigr":4762,"Ġ%":4763,"ancial":4764,"Ġincreased":4765,"Ġentropy":4766,"Ġvac":4767,"ĠScience":4768,"Ġintern":4769,"Ġsingular":4770,"ĠBay":4771,"]}":4772,"tained":4773,"Ġmeaning":4774,"gies":4775,"uel":4776,"Ġinvolved":4777,"well":4778,"augh":4779,"Ġ{$":4780,"Ġbra":4781,"Ġinvest":4782,"Ġmil":4783,"Ġearlier":4784,"ĠSome":4785,"Ġdiscrete":4786,"sy":4787,"Ġsubsequ":4788,"rd":4789,"ocal":4790,"Ġhole":4791,"key":4792,"aren":4793,"floor":4794,"aging":4795,"Ġ\\]":4796,"ĠCollege":4797,"Ġfront":4798,"minist":4799,"ĠEqu":4800,"Ġslightly":4801,"Ġthroughout":4802,",$":4803,"elect":4804,"estern":4805,"Ġquick":4806,"Ġdetailed":4807,"Ġorth":4808,"Ġtele":4809,"Ġpatients":4810,"ilarly":4811,"Ġbehind":4812,"case":4813,"mathop":4814,"sume":4815,"Ġrules":4816,"tot":4817,"Ġpen":4818,"yset":4819,"iff":4820,"}}_{\\":4821,"Ġcomplexity":4822,"Ġdifferences":4823,"Ġsatisfying":4824,"Ġideal":4825,"oder":4826,"zing":4827,"Ġneighbor":4828,"Ġconsidering":4829,"bu":4830,"Ġfail":4831,"ĠIm":4832,"First":4833,"Ġscales":4834,"Ġofficial":4835,"ĠAmerica":4836,"MP":4837,"Ġround":4838,"Ġfood":4839,"Ġgap":4840,"Ġremaining":4841,"Ġnor":4842,"Ġdepth":4843,"Ġremark":4844,"Ġtrain":4845,"Ġwide":4846,"Ġbottom":4847,"Ġmes":4848,"]$,":4849,"variant":4850,"vee":4851,"ĠHow":4852,"Ġsubject":4853,"))\\":4854,"Ġfunctional":4855,"ĠChris":4856,"82":4857,"oo":4858,"Ġabsolute":4859,"ured":4860,"emptyset":4861,"Ġangular":4862,"ĠHol":4863,"Ġrelationship":4864,"~~~~":4865,"Ġvehic":4866,"Ġscaling":4867,"Ġwent":4868,"ometric":4869,"Ġaxis":4870,"used":4871,"83":4872,"Ġindustry":4873,"Ġgreater":4874,"etal":4875,"Ġvic":4876,"ĠĠĠĠĠĠĠĠĠĠĠĠ":4877,"ollowing":4878,"Ġfundamental":4879,"ĠFurthermore":4880,"ĠBer":4881,"phant":4882,"74":4883,"Ġestimation":4884,"Ġefficiency":4885,"asons":4886,"onical":4887,"ading":4888,"ao":4889,"Ġsecurity":4890,"Ġexplo":4891,"ellip":4892,"73":4893,"rang":4894,"term":4895,"Ġdimensions":4896,"Ġtitle":4897,"Ġopportun":4898,"ano":4899,"Ġscore":4900,"Ġtypical":4901,"Ġlaunch":4902,"Ġcollision":4903,"Ġfollowed":4904,"MA":4905,"vities":4906,"ĠIndia":4907,"rief":4908,"But":4909,"oti":4910,"brace":4911,"ĠVi":4912,"Ġcycle":4913,"Pre":4914,"Ġreli":4915,"Set":4916,"Ġbur":4917,"cr":4918,"Ġcommit":4919,")})":4920,"erson":4921,"Ġpropor":4922,"Ġacqu":4923,"length":4924,"ĠSub":4925,"nam":4926,"ĠSpec":4927,"Ġindicates":4928,"Ġfast":4929,"Ġdemand":4930,"Ġten":4931,"][]{":4932,"Ġvs":4933,"ĠHealth":4934,"Ġgrid":4935,"Ġprivate":4936,"Ġappropriate":4937,"mos":4938,"Ġotherwise":4939,"Ġprefer":4940,"Ġtre":4941,"bration":4942,"ĠUsing":4943,"79":4944,"Ġevaluation":4945,"iforn":4946,"mulation":4947,"Ġdecomposition":4948,"iding":4949,"leg":4950,"CP":4951,"Ġconstructed":4952,"then":4953,"ĠWilliam":4954,"oto":4955,"Ġlack":4956,"Ġshift":4957,"semb":4958,"faces":4959,"Ġways":4960,"CS":4961,"arc":4962,"aj":4963,"edom":4964,"tiny":4965,"Ġdisplay":4966,"}[\\":4967,"Using":4968,"Ġsubgroup":4969,"Ġscenario":4970,"Ġtrained":4971,"Fe":4972,"Ġprog":4973,"Ġbuild":4974,"Ġrelease":4975,"Ġdistinct":4976,"Ġcompanies":4977,"Ġrobust":4978,"del":4979,"ĠBlack":4980,"ĠArm":4981,"Ġjoint":4982,"1996":4983,"Ġstream":4984,"Ġhighest":4985,"ĠNor":4986,"ĠGroup":4987,"Ġport":4988,"ched":4989,"}})":4990,"tw":4991,"nother":4992,"cat":4993,"|}{":4994,"jected":4995,"Ġtravel":4996,"sitivity":4997,"Ġhydro":4998,"}}.":4999,"ĠAng":5000,"How":5001,"81":5002,"Ġexpressed":5003,"Ġcontaining":5004,"Ġwatch":5005,"Ġflo":5006,"CT":5007,"Ġquestions":5008,"Ġion":5009,"ville":5010,"Ġlooking":5011,"gories":5012,"super":5013,"Ġhours":5014,"FF":5015,"lands":5016,"Ġroad":5017,"Ġmassive":5018,";\\;\\":5019,"tikzpicture":5020,"two":5021,"ifornia":5022,"Ġbund":5023,"Ġ^{":5024,"height":5025,"Ġparticip":5026,"paign":5027,"Ġbring":5028,"vature":5029,"Ġweights":5030,"{{":5031,"Ġphenomen":5032,"yste":5033,"Ġequilibrium":5034,"Ġsolve":5035,"Ġpersonal":5036,"Ġrotation":5037,"bl":5038,"itable":5039,"bas":5040,"Is":5041,"ĠAssoci":5042,"Ġcriter":5043,"ĠAlso":5044,"ĠEm":5045,"arding":5046,"det":5047,"Ġwebsite":5048,"ĠLeague":5049,"arth":5050,"+(":5051,"ĠWork":5052,"Ġconcept":5053,"ya":5054,"Ġpicture":5055,"Ġloop":5056,"Ġguaran":5057,"ĠPri":5058,"rich":5059,"You":5060,"Ġbl":5061,"tel":5062,"such":5063,"BS":5064,"DP":5065,"Ġcalculate":5066,"Ġapproximately":5067,"Ġrepresentations":5068,"})}":5069,"ington":5070,"ĠDem":5071,"Ġwall":5072,"Ġexternal":5073,"ĠGreen":5074,"Ġheight":5075,"Ġactivity":5076,"ester":5077,"}_{-":5078,"Ġgeometry":5079,"Ġcontinue":5080,"oph":5081,"Ġwid":5082,"()":5083,",{\\":5084,"Ġbr":5085,"Ġey":5086,"esting":5087,"Ġcoming":5088,"Ġdidn":5089,"ĠPresident":5090,"defined":5091,"iota":5092,"ira":5093,"à¤":5094,"Ġsound":5095,"gu":5096,"71":5097,"DA":5098,"Ġsufficient":5099,"...,":5100,"Ġacceler":5101,"1997":5102,"cd":5103,"Ġtun":5104,"Ġprojection":5105,"}}}\\":5106,"Ġtempor":5107,"alysis":5108,"ĠFin":5109,"ĠGal":5110,"Ġneural":5111,"Ġelse":5112,"forward":5113,"Ġaccom":5114,"\\;":5115,"Ġstrict":5116,"Ġsugg":5117,"DM":5118,"Ġcombined":5119,"ĠAppendix":5120,"Ġclub":5121,"Ġprofession":5122,"Ġpage":5123,"Ġindicate":5124,"Ġsufficiently":5125,"Ġstatistical":5126,"Ġaudi":5127,"$&":5128,"ĠLaw":5129,"Ġachieved":5130,"uminosity":5131,"Ġagent":5132,"Ġhistor":5133,"Ġpolitical":5134,"ribution":5135,"tinu":5136,"Ġphysics":5137,"CH":5138,"Ġferm":5139,"Ġinternal":5140,"vised":5141,"Ġreveal":5142,"ounts":5143,"born":5144,"Ġpix":5145,"Ġselect":5146,"Ġquasi":5147,"Ġparticularly":5148,"IP":5149,"=.":5150,"break":5151,"Ġcontract":5152,"Ġassess":5153,"ogle":5154,"illing":5155,"Ġcoordinate":5156,"Ġdiver":5157,"${\\":5158,"ĠÃ":5159,"}}^{\\":5160,"Ġsemi":5161,"reme":5162,"Ġdust":5163,"ĠEach":5164,"Ġcurrently":5165,"ros":5166,"onds":5167,"Ġepis":5168,"Ġonto":5169,"Ġneutrin":5170,"tun":5171,"requ":5172,"Ġpoly":5173,"IG":5174,"}{*}{":5175,"paragraph":5176,"joint":5177,"ĠOf":5178,"tru":5179,"Americ":5180,"Ġtax":5181,"})=":5182,"Lemma":5183,"cription":5184,"ĠSen":5185,"ellow":5186,"Ġetc":5187,"State":5188,"Ġmoney":5189,"Ġmultiplic":5190,"ĠBel":5191,"midrule":5192,"Ġ$,":5193,")}_":5194,"Ġevaluate":5195,"Ġsampling":5196,"Proof":5197,"ochastic":5198,"lam":5199,"add":5200,"\\)":5201,"Ġexcept":5202,"ams":5203,"Ġtypically":5204,"Ġactiv":5205,"Ġmonth":5206,"Ġunderstanding":5207,"Ġfilms":5208,"longrightarrow":5209,"((":5210,"Ġregard":5211,"cover":5212,"Ġrecomm":5213,"Ġlimits":5214,"Ġsummar":5215,"|}":5216,"hol":5217,"results":5218,"Ġobvious":5219,"Ġsections":5220,"ĠJo":5221,"IF":5222,"Ġcontained":5223,"bmatrix":5224,"Ġstability":5225,"idden":5226,"ĠRepublic":5227,"attle":5228,"va":5229,"ĠEuropean":5230,"Ġsoftware":5231,"ĠTV":5232,"Ġkm":5233,"Ġannounced":5234,"Ġ$.":5235,"corpor":5236,"Ġinverse":5237,"001":5238,"algorithm":5239,"ĠLag":5240,"istics":5241,"scriptsize":5242,"SF":5243,"Ġdistributed":5244,"EM":5245,"unction":5246,"ĠDepartment":5247,"Ġthing":5248,"ifts":5249,"Ġenter":5250,"Ġer":5251,"ael":5252,"Sp":5253,"Ġability":5254,"ĠRed":5255,"Ġheavy":5256,"cles":5257,"Ġmaximal":5258,"Ġ}{":5259,"ĠChina":5260,"Ġbelieve":5261,"Ġdiagonal":5262,"PP":5263,"ny":5264,"Ġgreen":5265,"Ġvariation":5266,"GB":5267,"Dis":5268,"Ġvirt":5269,"Ġtechnique":5270,"Ġtal":5271,"While":5272,"Ġassumptions":5273,"../":5274,"Ġdro":5275,"Ġlost":5276,"Ġdise":5277,"pg":5278,"ĠAct":5279,"Ġextrem":5280,"ĠLie":5281,"str":5282,"ĠSur":5283,"columnwidth":5284,"Ġcommunication":5285,"ares":5286,"isely":5287,"ests":5288,"ĠĠĠĠĠĠĠĠĠĠĠĠĠ":5289,"Ġformed":5290,"tries":5291,"Ġarchitecture":5292,"ĠSm":5293,"Ġdoing":5294,"Ġ\\(\\":5295,"ĠCour":5296,"Ġsil":5297,"Ġodd":5298,"Ġbos":5299,"Ġbre":5300,"matically":5301,"Ġapplying":5302,"ĠChrist":5303,"apter":5304,"Ġ;":5305,"ĠCalifornia":5306,"Ġdepending":5307,"Ġpredicted":5308,"ĠSM":5309,"Ġpick":5310,"fault":5311,"radi":5312,"Ġmanifold":5313,"Ġ//":5314,"Ġfair":5315,"Ġinfluence":5316,"Section":5317,"span":5318,"Ã¡":5319,"Ġpseud":5320,"orge":5321,":=\\":5322,"110":5323,"Ġnamely":5324,"Ġquar":5325,"iggs":5326,"Ġmachine":5327,"itions":5328,"ĠTim":5329,"Ġ...":5330,"gener":5331,"sively":5332,"Ġusual":5333,"tivities":5334,"ĠMag":5335,"Ġconj":5336,"Ġprinciple":5337,"Qu":5338,"Ġpreserv":5339,"system":5340,"Ġcentury":5341,"Ġcool":5342,"Ġtold":5343,"ski":5344,"Sub":5345,"})^":5346,"trivial":5347,"ĠStreet":5348,"Ġefficient":5349,"Ġtesting":5350,"Ġwhereas":5351,"har":5352,"Ġ]":5353,"Ġfem":5354,"Ġenergies":5355,"Ġconsequence":5356,"Ġstrateg":5357,"Ġpurpose":5358,"Ġspar":5359,"^{*":5360,"Hence":5361,"Ġresol":5362,"Co":5363,"Ġdate":5364,"Ġcommu":5365,"rate":5366,"CA":5367,"Ġphoton":5368,"Ġsaf":5369,"Ġadm":5370,"Ġimmediately":5371,"ĠUK":5372,"phantom":5373,"&=\\":5374,"Ġmanagement":5375,"RO":5376,"formal":5377,"}}=":5378,"Ġcharacteristic":5379,"\\}$,":5380,"rial":5381,"Ġart":5382,"Ġrecall":5383,"vartheta":5384,"Ġoccurs":5385,"Ġ\\&":5386,"Ġdeb":5387,"Ġintegration":5388,"vie":5389,"ask":5390,"Ġparty":5391,"Cor":5392,"Ġruns":5393,"Ġchannels":5394,"Ġstri":5395,"1000":5396,"Ġradiation":5397,"mail":5398,"Ġ^":5399,"ĠTw":5400,"ĠFrench":5401,"wood":5402,"Ġrapid":5403,"Ġdetected":5404,"cible":5405,"}|\\":5406,"anks":5407,"oting":5408,"Ġdoesn":5409,"En":5410,"obile":5411,"Ġuncertain":5412,"Ġbrief":5413,"Ġprotocol":5414,"ticles":5415,"cho":5416,"ands":5417,"stan":5418,"Ġasymptotic":5419,"ĠIndeed":5420,"\\}\\":5421,"ĠAlthough":5422,"subsec":5423,"ederal":5424,"gather":5425,"Ġattrib":5426,"using":5427,"ĠIR":5428,"Ġcomputational":5429,"Ġindeed":5430,"Ġnonlinear":5431,"Ġheat":5432,"ĠCOVID":5433,"ffic":5434,"Ġconstants":5435,"Ġdetail":5436,"Next":5437,"Ġshowing":5438,"lement":5439,"Ġhit":5440,"Ġimplementation":5441,"slash":5442,"Ġlocally":5443,"cf":5444,"real":5445,"1995":5446,"Ġmarg":5447,"[-":5448,"Ġnearly":5449,"cir":5450,"ament":5451,"Ġvisit":5452,"ĠGovern":5453,"Ġisomorphism":5454,"finition":5455,"che":5456,"Ġinternational":5457,"ivil":5458,"NA":5459,"Ġbias":5460,"oted":5461,"za":5462,"rick":5463,"hal":5464,"1990":5465,"ourier":5466,"Ġfine":5467,"Ġexpec":5468,"Ġmapping":5469,"Ġderivative":5470,"tell":5471,"Ġabund":5472,"Ġperm":5473,"Ġpredictions":5474,"Ġconstit":5475,"figures":5476,"Ġderive":5477,"Ġgeneralized":5478,"ĠDavid":5479,"Ġunderlying":5480,"ĠST":5481,"Ġvilla":5482,"Ġrecogn":5483,"magnetic":5484,"Ġstress":5485,"uit":5486,"erve":5487,"Ġtopological":5488,"ĠGeneral":5489,"ĠCommun":5490,"semble":5491,"Ġdisper":5492,"Ġprice":5493,"vitational":5494,"Ġroot":5495,"wa":5496,"rela":5497,"\\|\\":5498,"hu":5499,"Ġpropose":5500,"vector":5501,"Ġsurvey":5502,"rical":5503,"velength":5504,"Ġgoes":5505,"Ġforces":5506,"Ġalternative":5507,"oura":5508,"Ġdegrees":5509,"Ġredshift":5510,"Ġmoving":5511,"Ġcurvature":5512,"Ġtren":5513,"ĠEast":5514,"ĠInstitute":5515,"dependent":5516,"ĠDire":5517,"Ġter":5518,"Ġcoinc":5519,"Ġworth":5520,"nel":5521,"Ġoppo":5522,"ports":5523,"while":5524,"Ġtrivial":5525,"Ġcm":5526,"Ġactions":5527,"SR":5528,"Ġtrade":5529,"clusion":5530,"Ġfir":5531,"Ġmodern":5532,"Ġcause":5533,"Ġeducation":5534,"Ġradial":5535,"pair":5536,"rs":5537,"Ġcosm":5538,"flu":5539,"istry":5540,"rump":5541,"ĠCanada":5542,"ida":5543,"km":5544,"gin":5545,"Ġshock":5546,"enced":5547,"Ġmodule":5548,"Ġseven":5549,"Ġsector":5550,"Ġfinally":5551,"SD":5552,"Ġnoted":5553,"ĠSol":5554,"Ġelectro":5555,"Ġtransport":5556,"ĠCouncil":5557,"ĠSa":5558,"mitted":5559,"notag":5560,"spect":5561,"Ġresources":5562,"Consider":5563,"Ġrise":5564,"ropic":5565,"Ġexplain":5566,"char":5567,"Ġrecur":5568,"ĠPal":5569,"layer":5570,"SL":5571,"blem":5572,"Ġcomputing":5573,"Pe":5574,"IV":5575,"medskip":5576,"Ġspread":5577,"Ġresid":5578,"gent":5579,"mselves":5580,"ML":5581,"Ġdynamical":5582,"Ġborn":5583,"/(":5584,"bib":5585,"}~":5586,"ady":5587,"ologies":5588,"Ġpositions":5589,"code":5590,"ĠOther":5591,"ĠWil":5592,"Ġsyste":5593,"Ġ({\\":5594,"Ġbad":5595,"Ġago":5596,"supp":5597,"Ġhon":5598,"imal":5599,"Ġthemselves":5600,"vin":5601,"Se":5602,"Ġroom":5603,"Ġaffect":5604,"ĠBu":5605,"Ġbeginning":5606,"ortion":5607,"Ġdevice":5608,"Ġcloud":5609,"ĠTechn":5610,"formations":5611,"Ġson":5612,"ico":5613,"}\\|":5614,"Ġcontradic":5615,"ica":5616,"Ġmotiv":5617,"td":5618,"Ġagg":5619,"Ġnull":5620,"ounter":5621,"ulating":5622,"fs":5623,"Ġfamil":5624,"Ġrelax":5625,"amily":5626,"Ġleaders":5627,"asc":5628,"Ġtraditional":5629,"high":5630,"ike":5631,"ona":5632,"ĠSystem":5633,"law":5634,"Ġoccup":5635,"Ġaccre":5636,"Ġlab":5637,"Ġvariance":5638,"^{(\\":5639,"Ġswitch":5640,"elihood":5641,"kin":5642,"Ġobjective":5643,"cape":5644,"Ġcampaign":5645,"Ġexplicitly":5646,"bre":5647,"Ġinvestigate":5648,"mediate":5649,"integ":5650,"Xi":5651,"Ġcandidate":5652,"Ġpr":5653,"American":5654,"Ġvertical":5655,"there":5656,"ĠSuper":5657,"rison":5658,"Ġdistingu":5659,"Ġellip":5660,"izer":5661,"\\%$":5662,"Ġdashed":5663,"Ġwriting":5664,"Ġlas":5665,"1994":5666,"Ġcapacity":5667,"elt":5668,"ori":5669,"ĠDec":5670,"ensive":5671,"Ġdesired":5672,"rank":5673,"'re":5674,"ultane":5675,"Ġmath":5676,"Ġdimensional":5677,"Ġstated":5678,"circle":5679,"ples":5680,"Ġcountries":5681,"ĠHall":5682,"Ġmind":5683,"ĠFound":5684,"PU":5685,"ston":5686,"Ġluminosity":5687,"mult":5688,"rad":5689,"oration":5690,"Cl":5691,"Ġworked":5692,"input":5693,"Ġprecisely":5694,"error":5695,"Ġanswer":5696,"called":5697,"Ġnorth":5698,"Ġarc":5699,"Ġsex":5700,"Ġnuclear":5701,"ospital":5702,"Ġfinancial":5703,"Suppose":5704,"(-\\":5705,"Ġreprodu":5706,"Ġsimplic":5707,"Ġprobab":5708,"Ġrough":5709,"Ġeigenvalues":5710,"Ġsites":5711,"Ġdetermin":5712,"slant":5713,"ĠDay":5714,"process":5715,"Ġexchange":5716,"uum":5717,"urations":5718,"Ġactual":5719,"GL":5720,"Ġtes":5721,"ĠPlan":5722,"parison":5723,"Ġsequences":5724,"equations":5725,"anted":5726,"Ġintensity":5727,"rus":5728,"Ġevol":5729,"Ġproviding":5730,"Ġfamilies":5731,"timate":5732,"index":5733,"Ġindepend":5734,"Ġsatisfied":5735,"ilbert":5736,"Ġcaused":5737,"Ġcanonical":5738,"120":5739,"Ġliving":5740,"ĠAustralia":5741,"oses":5742,"ander":5743,"Ġwalk":5744,"Ġfreedom":5745,"ield":5746,"ui":5747,"Ġextend":5748,"Ġmodified":5749,"Ġhttps":5750,"rosc":5751,"Given":5752,"ĠGod":5753,"Ab":5754,"Ġsoon":5755,"^*\\":5756,"Ġgetting":5757,"Ġbright":5758,"Ġstochastic":5759,"ĠCup":5760,"ĠMal":5761,"ĠÐ":5762,"Ġstatistics":5763,"emy":5764,"chang":5765,"Ġscience":5766,"CM":5767,"Ġproceed":5768,"http":5769,"ĠModel":5770,"uge":5771,"Ġspeak":5772,"ynamic":5773,"Ġequivalence":5774,"Ġâ":5775,"Ġbulk":5776,"istance":5777,"Ġinterested":5778,"Ġexplained":5779,"Ġgiving":5780,"Ġstay":5781,"NS":5782,"Ġquan":5783,"Ġgravity":5784,"CL":5785,"Ġserved":5786,"lines":5787,"Ġfle":5788,"roph":5789,"ĠEngland":5790,"Ġupdate":5791,"Ġdynamic":5792,"Ġseparate":5793,"ogonal":5794,"Ġsym":5795,"Ġreplaced":5796,"Table":5797,"Ġprobably":5798,"CE":5799,"Ġcollabor":5800,"esti":5801,"Ġscienti":5802,".;":5803,"pris":5804,"Ġquantities":5805,"Ġsuitable":5806,"theless":5807,"rane":5808,"ĠĠĠĠĠĠĠĠĠĠĠĠĠĠĠĠĠĠĠ":5809,"Ġstaff":5810,"Ġchemical":5811,"ĠJames":5812,"Ġleave":5813,"Ġyield":5814,"Ġthank":5815,"HS":5816,"Ġsolar":5817,"sus":5818,"ĠData":5819,"Moreover":5820,"oli":5821,"tified":5822,"Ġrock":5823,"ĠGerman":5824,"FL":5825,"Ġadvantage":5826,"PA":5827,"Ġ$\\{\\":5828,"ountain":5829,"ĠDr":5830,"ĠRiver":5831,"ĠSee":5832,"stable":5833,"Ġgets":5834,"Ġimproved":5835,")--(":5836,"ashington":5837,"sign":5838,"Ġconveni":5839,"edy":5840,"Ġcomposition":5841,"ĠStar":5842,"Ġaward":5843,"joy":5844,"bottom":5845,"Ġamb":5846,"plot":5847,"Ġtheories":5848,"auto":5849,"Ġfire":5850,"Ġneighborhood":5851,"textcolor":5852,"Bigg":5853,"Ġtransmission":5854,"actic":5855,"etries":5856,"BA":5857,"Ġdx":5858,"Ġ\\,\\":5859,"TS":5860,"ĠCa":5861,"atur":5862,"xx":5863,"coming":5864,"ades":5865,"Ġinj":5866,"ko":5867,"work":5868,"400":5869,"Ġrights":5870,"mf":5871,"!]":5872,"Ġmiddle":5873,"ĠDistrict":5874,"Ġimportance":5875,"Ġunknown":5876,"Ġsaw":5877,"inner":5878,"Ġdevices":5879,"ancy":5880,"Ġfather":5881,"RA":5882,"ĠLu":5883,"ĠPat":5884,"lli":5885,"Per":5886,"han":5887,"Ġpatterns":5888,"](":5889,"ĠRober":5890,"Ġinstrum":5891,"Ġhypothesis":5892,"ĠChampions":5893,"ĠMil":5894,"rangian":5895,"Ġoffice":5896,"Ġreflect":5897,"Ġmaintain":5898,"aily":5899,"Ġcharacters":5900,"Ġasked":5901,"century":5902,"rote":5903,"ufact":5904,"len":5905,"late":5906,"Ġplaying":5907,"thetic":5908,"Ġmoved":5909,"ĠBook":5910,"Ġcoher":5911,"ripts":5912,"Ġsqu":5913,"Ġlisted":5914,"Ġincorpor":5915,"list":5916,"axis":5917,"ressive":5918,"150":5919,"ĠUnder":5920,"Ġdigital":5921,"roy":5922,"Ġconnec":5923,"Ġmor":5924,"corollary":5925,"ĠEurope":5926,"respon":5927,"Ġcarried":5928,"Ġgave":5929,"Ġ</":5930,"yr":5931,"Ġmeta":5932,"hfill":5933,"ĠSuch":5934,"Ġjud":5935,"pton":5936,"ulus":5937,"Ġdetector":5938,"^*(":5939,"Ġminutes":5940,"Ġsuggests":5941,")^\\":5942,".\\\\":5943,"UT":5944,"Ġfluctuations":5945,"DS":5946,"ĠCap":5947,"eth":5948,"ĠRich":5949,"lood":5950,"formed":5951,"Ġmatching":5952,"brid":5953,"Ġpush":5954,"Des":5955,"Ġplanet":5956,"Ġgeneric":5957,"roid":5958,"monic":5959,"ĠLab":5960,"module":5961,"Ġjet":5962,"Right":5963,"Ġsens":5964,"Ġspher":5965,"Ġinver":5966,"Ġreached":5967,"Ġpercent":5968,"ronic":5969,"Tr":5970,"Ġast":5971,"bp":5972,"tification":5973,"IA":5974,"Ġfalse":5975,"ĠOut":5976,"Ġsouth":5977,"ĠRem":5978,"ji":5979,"Ste":5980,"anned":5981,"dated":5982,"ĠProgram":5983,"$^{":5984,"Ġisot":5985,"ION":5986,"Ġfriends":5987,"Ġign":5988,"mage":5989,"Ġperturbation":5990,"backslash":5991,"UR":5992,"Ġdied":5993,"Ġ_{\\":5994,"omas":5995,"Ġplatform":5996,"Ġ,\\":5997,"Ġcomputer":5998,"Ġcarry":5999,"Ġbehaviour":6000,"ĠAccording":6001,"Ġgradu":6002,"tan":6003,"Ġpoor":6004,"indu":6005,"tract":6006,"Ġheart":6007,"HC":6008,"after":6009,"1993":6010,"Ġbrand":6011,"Ġprocessing":6012,"Ġadding":6013,"eled":6014,"Ġteams":6015,">\\":6016,"eles":6017,"ĠSing":6018,"Ġdirected":6019,"irus":6020,"ĠPaul":6021,"aut":6022,"'_{":6023,"Ġmaterials":6024,"html":6025,"Ġeq":6026,"Ġgir":6027,"Ġmessage":6028,"$.}":6029,"}~~":6030,"ĠRoy":6031,"ĠTex":6032,"ometry":6033,"Ġhimself":6034,"ĠBi":6035,"file":6036,"|^{":6037,"Ġdispla":6038,"Ġlabels":6039,"Ġcop":6040,"Ġfavor":6041,"nn":6042,"spa":6043,"icon":6044,"Ġdocument":6045,"Ġassuming":6046,"Ġprograms":6047,"ĠRad":6048,"ota":6049,"Ġnothing":6050,"ĠGeV":6051,"---":6052,"ĠDef":6053,"outhern":6054,"prob":6055,"ga":6056,"Ġbuy":6057,"Ġstatic":6058,"Def":6059,"downarrow":6060,"enta":6061,"Ġmainly":6062,"ĠDiv":6063,"Ġshared":6064,"Ġgravitational":6065,"Ġmu":6066,"*}[":6067,"rins":6068,"sey":6069,"1992":6070,"ĠGiven":6071,"Ġcoach":6072,"Ġfight":6073,"ĠĠĠĠĠĠĠĠĠĠĠĠĠĠ":6074,"ĠVer":6075,"ĠSun":6076,"Ġid":6077,"ĠNot":6078,"textup":6079,"Ġnotice":6080,"avi":6081,"($":6082,"isot":6083,"bilities":6084,"cate":6085,"ĠBen":6086,"Ġevaluated":6087,"osure":6088,"lear":6089,"reducible":6090,"Ġcorrection":6091,"GN":6092,"Ġcovari":6093,"aff":6094,"DB":6095,"inese":6096,"ĠMid":6097,"Ġcele":6098,"pared":6099,"{(\\":6100,"ĠMac":6101,"imin":6102,"Ġconduct":6103,"Ġimag":6104,"rought":6105,"Pr":6106,"iant":6107,"Ġstop":6108,"arities":6109,"ĠSuppose":6110,"Ġlies":6111,"bil":6112,"Ġcorrections":6113,"plane":6114,"isson":6115,"Ġbundle":6116,"ĠAssociation":6117,"Ġprofiles":6118,"haps":6119,"hang":6120,"ĠSet":6121,"Sc":6122,"idel":6123,"thick":6124,"active":6125,"ĠOver":6126,"Ġanom":6127,"Ġtools":6128,"eds":6129,"Ġquickly":6130,"uparrow":6131,"Ġoffers":6132,"Or":6133,"Ġparen":6134,"Ġmissing":6135,"ĠChurch":6136,"Ġsimultane":6137,"nos":6138,"ĠCM":6139,"ĠVol":6140,"Ġsignals":6141,"estival":6142,"square":6143,"ĠYear":6144,"general":6145,"Ġpolice":6146,"emes":6147,"FC":6148,"ĠFil":6149,"ĠWhite":6150,"ago":6151,"|$":6152,"negative":6153,"ĠVal":6154,"Ġextract":6155,"Ap":6156,"oming":6157,"Ġatoms":6158,"vs":6159,"~(\\":6160,"Uni":6161,"fram":6162,"rence":6163,"Ġpolarization":6164,")(\\":6165,"Ge":6166,"ND":6167,"-(":6168,"Ġwindow":6169,"Ġhot":6170,"Ġjus":6171,"fil":6172,"Ġindividuals":6173,"varrho":6174,"mn":6175,"Pa":6176,"ĠSecond":6177,"Ġtemperatures":6178,"eks":6179,"ĠHiggs":6180,"Ġcontinued":6181,"Ġhum":6182,"clic":6183,"jecture":6184,"chmark":6185,"Ġwaves":6186,"ĠJack":6187,"Ġsuppose":6188,"ditionally":6189,"Ġuniformly":6190,"mathit":6191,"Id":6192,"iction":6193,"phas":6194,"Ġcomplic":6195,"dens":6196,"Ġplas":6197,"Ġunion":6198,"RB":6199,"Ġwavelength":6200,"Ġreading":6201,"acob":6202,"Ġimplemented":6203,"rob":6204,"Ġiso":6205,"Ġcombin":6206,"Ġmixed":6207,"verage":6208,"Ġbands":6209,"link":6210,"erc":6211,"nol":6212,"Ġdeliver":6213,"textsf":6214,"Ġ$^{":6215,"Ġequality":6216,"ATE":6217,"--------":6218,"Ġcoupled":6219,"Ġvacuum":6220,"Ġtour":6221,"Ġcategories":6222,"Ġdelay":6223,")}.":6224,"ror":6225,"Ġ~~\\":6226,"Ġmedium":6227,"_{+":6228,"PE":6229,"Ġouter":6230,"Ġmathema":6231,"!\\":6232,"0000":6233,"Ġelection":6234,"ĠEdu":6235,"Ġdepic":6236,"ĠFoundation":6237,"ermany":6238,"imits":6239,"Ġeight":6240,"Ġwrote":6241,"ĠSum":6242,"iii":6243,"Ġblocks":6244,"ĠPress":6245,"Ġpossibility":6246,"Ġfile":6247,"Ġrace":6248,"Ġexclu":6249,"ĠNetwork":6250,"ĠCourt":6251,"loop":6252,"Ġfluid":6253,"Ġrecorded":6254,"Ġdemonstrate":6255,"Ġmilitary":6256,"ĠFourier":6257,"ĠWashington":6258,"RR":6259,"&&\\":6260,"stead":6261,"\\|_":6262,"Spec":6263,"Ġactivities":6264,"Ġ{$\\":6265,"OM":6266,"Ġchanged":6267,"Ã³":6268,"$^":6269,"Ġrequirements":6270,"Ġperiodic":6271,"Ġattempt":6272,"ads":6273,"crete":6274,"cale":6275,"zen":6276,"arith":6277,"ĠTwo":6278,"Ġmedical":6279,"Car":6280,"ermi":6281,"Ġatmos":6282,"Ġbirths":6283,"Ġpaths":6284,"Ġgeometric":6285,"mains":6286,"Ġagents":6287,"ensus":6288,"unct":6289,"ĠAre":6290,"Ġdu":6291,"Ġdense":6292,"going":6293,"binom":6294,"Ġsometimes":6295,"continu":6296,"Ġdirector":6297,"Ġquantity":6298,"$-$":6299,"Ġfeedback":6300,"Ġnormalized":6301,"Ġconnect":6302,"Ġquadratic":6303,"Ġprime":6304,"ĠAward":6305,"Ġmajority":6306,"edic":6307,"loc":6308,"Ġhalo":6309,"textnormal":6310,"vention":6311,"eries":6312,")}(\\":6313,"nergy":6314,"diff":6315,"Ġcali":6316,"related":6317,"Ġuncertainties":6318,"uni":6319,"``":6320,"Ġtelevision":6321,"$\\,":6322,"ider":6323,"Ġnotion":6324,"IL":6325,"Ġsizes":6326,"Ġinspi":6327,"Ġsetup":6328,"Ġenjoy":6329,"boldmath":6330,"Ġdegener":6331,"Ġdescribes":6332,"source":6333,"power":6334,"ĠDen":6335,"ĠGre":6336,"Ġcosts":6337,"Ġcard":6338,"Ġidentical":6339,"ĠLeg":6340,"ĠIndian":6341,"ĠConsider":6342,"Ġ\\|\\":6343,"ĠAlex":6344,"Ġtests":6345,"gr":6346,"Ġabsorption":6347,"Ġmixing":6348,"Ġplaced":6349,"omew":6350,"Ġstudent":6351,"nual":6352,"Ġconfigurations":6353,"Ġsuggest":6354,"ĠCur":6355,"Ġorders":6356,"stream":6357,"urning":6358,"Ġinstit":6359,"poch":6360,"Ġcompleted":6361,"ĠBest":6362,"plan":6363,"Ġphases":6364,"ĠRob":6365,"ogen":6366,"Ġreduces":6367,"stackrel":6368,"mathtt":6369,"ĠArt":6370,"ĠCont":6371,"Ġlives":6372,"Ġrac":6373,"Ġexplore":6374,"textbullet":6375,"Ġdot":6376,"Ġviol":6377,"List":6378,"Ġdirections":6379,"Ġseman":6380,"Ġtranslation":6381,"Ġdedu":6382,"Ġthreat":6383,"Ġmostly":6384,"step":6385,"yd":6386,"Ġmetal":6387,"ips":6388,"Ġpredict":6389,"owers":6390,"Ġdead":6391,"ĠMax":6392,"Ġturns":6393,"Ġacts":6394,"Ġexpressions":6395,"Ġtrace":6396,"DR":6397,"Ġlearned":6398,"1980":6399,"Ġalgebraic":6400,"gn":6401,"alities":6402,"win":6403,"has":6404,"Ġconvolution":6405,"large":6406,"ĠKe":6407,"Ġdeviation":6408,"Ġ\\[":6409,"emann":6410,"Ġplays":6411,"rab":6412,"Ġfitting":6413,"Ġeventually":6414,"Ġwoman":6415,"ĠChi":6416,"Ġtrig":6417,"Ġmother":6418,"first":6419,"istor":6420,"Ġlegal":6421,"Rel":6422,"Equ":6423,"llap":6424,"invariant":6425,"DC":6426,"Ġdisease":6427,"}.}":6428,"uler":6429,"BM":6430,"Ġadminist":6431,"Ġempir":6432,"ĠFrance":6433,"ĠPort":6434,"sequently":6435,"ĉĉĊ":6436,"Ġmolecular":6437,"ĠAfrica":6438,"Ġdensities":6439,"ĠDM":6440,"@{":6441,"ishing":6442,"Ġmeas":6443,"EL":6444,"optim":6445,"pers":6446,"Ġnecessarily":6447,"unt":6448,"Ġeverything":6449,"Ġtriang":6450,"Ġprofessional":6451,"Ġinfer":6452,"Ġplaces":6453,"Ġuniversal":6454,"ĠBoth":6455,"Ġclean":6456,")_{\\":6457,"Ġinterface":6458,"mi":6459,"}/\\":6460,"redit":6461,"Ġmission":6462,"PI":6463,"consist":6464,"iller":6465,"&=&\\":6466,"Ġtechnical":6467,"Ġboard":6468,"ĠDuring":6469,"Ġdecrease":6470,"ĠTrump":6471,"ĠEarth":6472,"ĠBrown":6473,"Ġtrying":6474,"Ġconfidence":6475,"ixed":6476,"Ġturb":6477,"Ġdependent":6478,"kra":6479,"eness":6480,"ĠDemoc":6481,"Ġintegrated":6482,"\\!\\":6483,"That":6484,"Ġren":6485,"wave":6486,"Ġstrain":6487,"iver":6488,"Ġminor":6489,"Ġcontinuum":6490,"ald":6491,"Ð¾":6492,"Ġmanner":6493,"eval":6494,"pects":6495,"Ġtruth":6496,"Ġpolynomials":6497,"Ġpurch":6498,"Ġarguments":6499,"Ġsafety":6500,"ÃŃ":6501,"Ġtim":6502,"propto":6503,"Ġinfra":6504,"Ġhope":6505,"sect":6506,"Ġmetrics":6507,"Ġtend":6508,"Data":6509,"tail":6510,"ĠReview":6511,"mated":6512,"Ġcryst":6513,"Ġchurch":6514,"Ġdiffusion":6515,"Ġformulation":6516,"ĠAss":6517,"particle":6518,"aa":6519,"Ġdama":6520,"End":6521,"Ġhomogeneous":6522,"kl":6523,"cities":6524,"Ġadopted":6525,"lace":6526,"atively":6527,"multline":6528,"gers":6529,"sets":6530,"Ġorganization":6531,"{|":6532,"Ġstraightforward":6533,"orter":6534,"ĠRel":6535,"adian":6536,"dr":6537,"aven":6538,"Ġwanted":6539,"></":6540,"ĠInc":6541,"Ġbooks":6542,"ees":6543,"Ġvacc":6544,"Ġalone":6545,"tios":6546,"(\"":6547,"Ġintersection":6548,"ĠMost":6549,"Ġsurv":6550,"ifted":6551,"Ġapparent":6552,"rated":6553,"Ġintermediate":6554,"ameter":6555,"ING":6556,"ĠPan":6557,"Ġconjug":6558,"footnotesize":6559,"pective":6560,"Ġfrequencies":6561,"pty":6562,"1991":6563,"Ġanything":6564,"ierarch":6565,"ĠCE":6566,"url":6567,"cian":6568,"osted":6569,"ĠGeorge":6570,"ĠZe":6571,"Ġprojects":6572,"Ġcharged":6573,"ought":6574,"ĠQue":6575,"Ġappeared":6576,"ĠGold":6577,"Ġtalk":6578,"only":6579,"parameter":6580,"Ġweeks":6581,"Ġgenerating":6582,"Ġiteration":6583,"reek":6584,"Ġsignature":6585,"Ġbaseline":6586,"ĠMat":6587,"ĠSi":6588,"differ":6589,"Ġsolving":6590,"ĠBecause":6591,"nition":6592,"Op":6593,"ĠParty":6594,"dash":6595,"Ġprecision":6596,"Ġdrop":6597,"bed":6598,"olf":6599,"$\\\\":6600,"hire":6601,"bt":6602,"CR":6603,"inger":6604,"pole":6605,"Ġinteract":6606,"GeV":6607,"Do":6608,"Ġremoved":6609,"Ġaccep":6610,"]^":6611,"Ġcapital":6612,"ĠDel":6613,"Ġtrees":6614,"ĠĠĠĠĠĠĠĠĠĠĠĠĠĠĠĠĠĠĠĠĠĠĠĠĠĠĠĠĠĠĠĠĠĠĠĠĠĠĠĠĠĠĠĠĠĠĠĠĠĠĠĠĠĠĠĠĠĠĠĠĠĠĠĠ":6615,"Ġreceive":6616,"venue":6617,"Ġfourth":6618,"=\\{":6619,"Ġtemporal":6620,"Ġimm":6621,"Ġneutrino":6622,"elian":6623,"Ġexpress":6624,"Ġmanufact":6625,"Ġfriend":6626,"Ġreasons":6627,"Ġseparation":6628,"Ġrig":6629,"burg":6630,"arm":6631,"Ġcomment":6632,"instein":6633,"ĠTime":6634,"stract":6635,"sumption":6636,"ĠSeries":6637,"ena":6638,"ĠMari":6639,"Ġelectrons":6640,"Ġclin":6641,"Ġorthogonal":6642,"ĠClass":6643,"Ġopposite":6644,"TT":6645,"Ġreferred":6646,"ĠArch":6647,"Ġmodeling":6648,"Ġmale":6649,"leftarrow":6650,"string":6651,"ĠCorollary":6652,"Rep":6653,"ĠMichael":6654,"Bar":6655,"opes":6656,"resp":6657,"Ġcra":6658,"cou":6659,"Ã¼":6660,"Ġill":6661,"Ġdecreases":6662,"ĠCompany":6663,"Ġdr":6664,"Ġdistrict":6665,"Ġanalytic":6666,"annel":6667,"orage":6668,"Ġessentially":6669,"ĠMusic":6670,"regular":6671,"cline":6672,"Ġsuggested":6673,"Ġsensitivity":6674,"Ġpartners":6675,"Ġlocations":6676,"Ġindicated":6677,"ĠDon":6678,"ala":6679,"Ġdem":6680,"ĠLib":6681,"Ġasymm":6682,"zy":6683,"Ġcandidates":6684,"Ġscenarios":6685,"Ġpresident":6686,"ĠCong":6687,"OP":6688,"Ġproportional":6689,"FR":6690,"Ġemphas":6691,"repres":6692,"Ġgran":6693,"ĠTexas":6694,"ĠLou":6695,"Ġindices":6696,"ĠTru":6697,"iring":6698,"urally":6699,"ĠIts":6700,"ette":6701,"Ġ{};":6702,"Ġstrategies":6703,"ĠPublic":6704,"crib":6705,"Ġtro":6706,"Ġlowest":6707,"Ġhous":6708,"Ġmax":6709,"ysical":6710,"mom":6711,"ĠSociety":6712,"'m":6713,"tellig":6714,"soft":6715,"Po":6716,"Ġmorphism":6717,"Ġsat":6718,"lob":6719,"gre":6720,"ĠVir":6721,"Ġdispersion":6722,"Ġpermu":6723,"})^{":6724,"quid":6725,"Ġbrought":6726,"Ġirreducible":6727,"Ġschools":6728,"mercial":6729,"Ġlatest":6730,"Ġinterview":6731,"ĠUnion":6732,"ĠMr":6733,"ashion":6734,"velopment":6735,"ĠPr":6736,"Ġneutron":6737,".$$":6738,"Ġglu":6739,"Reg":6740,"Ġcopy":6741,"Ġquery":6742,"ĠAcad":6743,"irit":6744,"SA":6745,"Ġjournal":6746,"Ġmetall":6747,"Ġeconomic":6748,"}^{+":6749,"Ġimprovement":6750,"Ġderivatives":6751,"Ġcast":6752,"anglement":6753,"word":6754,"rimin":6755,"chain":6756,"ĠMad":6757,"According":6758,"ĠBur":6759,"lective":6760,"Ġresponsible":6761,"Ġmovement":6762,"ĠChinese":6763,"Ġallowing":6764,"pare":6765,"Ġstatus":6766,"subequations":6767,"Ġcourt":6768,"cs":6769,"Ġsto":6770,"Tra":6771,"Ġculture":6772,"method":6773,"Ġchallenge":6774,"stantial":6775,"ĠPl":6776,"Ġscene":6777,"Ġadjac":6778,"Ġsubspace":6779,"Ġcorrelations":6780,"Ġposter":6781,"Ġorbital":6782,"ĠLagrangian":6783,"Ġtopology":6784,"Ġoptions":6785,"Ġinvolving":6786,"atelli":6787,"abase":6788,"essor":6789,"Ġnames":6790,"$'":6791,"ĠProf":6792,"PM":6793,"Ġcharacteristics":6794,"Ġinterpretation":6795,"ado":6796,"sibility":6797,"ĠPost":6798,"ĠMart":6799,"LR":6800,"Ġlens":6801,"Ġreturned":6802,"Ġexc":6803,"rot":6804,"ApJ":6805,"ĠStudi":6806,"Ġhidden":6807,"ĠRoad":6808,"cussion":6809,"Ġmoments":6810,"GM":6811,"Ġweighted":6812,"Ġsensitive":6813,"ifying":6814,"Ġ~\\":6815,"Ġconclusion":6816,"Ġtransitions":6817,"fier":6818,"Ġacknow":6819,"Ġadvers":6820,"Ġtraffic":6821,"bot":6822,"conf":6823,"../../":6824,"Some":6825,"sep":6826,"Ġsomeone":6827,"ĠGermany":6828,"Ġnarrow":6829,"Ġdrive":6830,"arity":6831,"Ġtigh":6832,"Ġchalleng":6833,"Ġgrowing":6834,"vect":6835,"$}}":6836,"poses":6837,"cis":6838,"ĠSam":6839,"board":6840,"Ġgold":6841,"Ġimplement":6842,"\\}.":6843,"Ġregression":6844,"Ġdespite":6845,"Ġrational":6846,"Ġinten":6847,"rating":6848,"rinsic":6849,"Ġdiagrams":6850,"Ġvariations":6851,"tempor":6852,"Ġtouch":6853,"ĠRoman":6854,")}$.":6855,"Ġitems":6856,"Hom":6857,"rat":6858,"Ġmeeting":6859,"ounding":6860,"Ġturned":6861,"Ġentries":6862,"Ġcollected":6863,"ĠAlgorithm":6864,"font":6865,"LA":6866,"smallskip":6867,"ĠEven":6868,"Ġreports":6869,"Ġfrac":6870,"Ġstrictly":6871,"Ġsn":6872,"awa":6873,"tick":6874,"ceil":6875,"tivistic":6876,"Ġpowerful":6877,"They":6878,"Inter":6879,"Ġsomew":6880,"Man":6881,"Ġdifferenti":6882,"Ġchanging":6883,"Ġregarding":6884,"atural":6885,"Ġrich":6886,"ultra":6887,"Ġaffected":6888,"Ġaggreg":6889,"ĠCons":6890,"Ġiniti":6891,"ĠSN":6892,"Val":6893,"eting":6894,"rian":6895,"Results":6896,"ĠStud":6897,"ĠWh":6898,"BH":6899,"ubble":6900,"Ġexpectation":6901,"\\\\\\":6902,"Ġdecided":6903,"ĠBas":6904,"Ġenable":6905,"Ġ\\{\\":6906,"Ġbus":6907,"Ġdaugh":6908,"Ġnet":6909,"observ":6910,"Ġtoward":6911,"{.":6912,"Ġsettings":6913,"Ġbirth":6914,"teen":6915,"itation":6916,"ĠTheir":6917,"ĠLy":6918,"Ġenhance":6919,"lder":6920,"writ":6921,"Ġcomments":6922,"Ġprecise":6923,"product":6924,"mean":6925,"erry":6926,"Ġencoura":6927,"Over":6928,"Ġtriple":6929,"Ġsimulated":6930,"rows":6931,"oded":6932,"Ġcoverage":6933,"Ġsystematic":6934,"Ðµ":6935,"ĠPM":6936,"Ġaccretion":6937,"inear":6938,"anger":6939,"ĠMary":6940,"ĠFore":6941,"tated":6942,"ĠSal":6943,"Ġopened":6944,"La":6945,"}[!":6946,"otor":6947,"Ġversus":6948,"Ġchallenges":6949,"aylor":6950,"sen":6951,"Ġvillage":6952,"Ġdistances":6953,"import":6954,"ĠIII":6955,"Ġordered":6956,"Ġsurfaces":6957,"Ġasser":6958,"Ġideas":6959,"kov":6960,"Ġemployed":6961,"Ġfunctor":6962,"df":6963,"Cref":6964,"Ġdemonstrated":6965,"Ġplus":6966,"ĠSU":6967,"Ġsky":6968,"Box":6969,"pot":6970,"Ð°":6971,"ficial":6972,"Ġtrajectory":6973,"Es":6974,"hed":6975,"Ġreplace":6976,"ett":6977,"Proposition":6978,"FA":6979,"ĠList":6980,"ĠPart":6981,"weight":6982,"ĠRussian":6983,"uro":6984,"Ġaccept":6985,"();":6986,"yer":6987,"dri":6988,"Ġfl":6989,"Ġdriving":6990,"scripts":6991,"Ġcrucial":6992,"180":6993,"jo":6994,"Ġshot":6995,"conver":6996,"Ġneutral":6997,"Ġplans":6998,"nolimits":6999,")}$,":7000,"stood":7001,"ĠLand":7002,"measure":7003,"Ġrandomly":7004,"Ġrestriction":7005,"Ġsides":7006,"stration":7007,"Ġsched":7008,"Ġeveryone":7009,"Ġstarts":7010,"LT":7011,"Ġprevent":7012,"Ps":7013,"Ġrect":7014,"ocation":7015,"}~~{":7016,"ographic":7017,"****":7018,"inclu":7019,"ĠIsland":7020,"racket":7021,"Ġpractical":7022,"tization":7023,"bigcup":7024,"asion":7025,"ĠVic":7026,"Ġphotons":7027,"Ġhierarch":7028,"}^+":7029,"Ġwidely":7030,"Ġschemes":7031,"veness":7032,"ĠHilbert":7033,"HO":7034,"Ġtang":7035,",...,":7036,"Ġstack":7037,"1989":7038,"Ġtransverse":7039,"symmetric":7040,"Ġreaction":7041,"tify":7042,"bor":7043,"ĠTur":7044,"Ġeffort":7045,"Ġreconstruction":7046,"Ġvirtual":7047,"etro":7048,"Ġcosmological":7049,"Ġopportunity":7050,"mes":7051,"PO":7052,"Ġinclusion":7053,"ynamics":7054,"Ġsimilarly":7055,"Ġinitially":7056,"omy":7057,"Ġentry":7058,"arian":7059,"Ma":7060,"Ġwife":7061,"ctic":7062,"Ġcontroll":7063,"num":7064,"lower":7065,"\\}_{":7066,"Ġefforts":7067,"ĠAcc":7068,"NT":7069,"Ġarray":7070,"^+$":7071,"Ġthin":7072,"Ġcamera":7073,"Ġexception":7074,"Ġlie":7075,"Ġ\\}":7076,"><":7077,"ĠSimilarly":7078,"rep":7079,"})=\\":7080,"green":7081,"Di":7082,"density":7083,"Ġcommunities":7084,"ĠSmith":7085,"ĠMex":7086,"Ġcamp":7087,"lik":7088,"Ġhorizontal":7089,"tably":7090,"cut":7091,"Although":7092,"bolic":7093,"Ġjoined":7094,")[":7095,"Trans":7096,"Ġrare":7097,"Ġsigned":7098,"Type":7099,"Ġload":7100,"\\[\\":7101,"Ġserious":7102,"Ġ---":7103,"ructural":7104,"Ġfaster":7105,"ĠYour":7106,"Ġattacks":7107,"Ġeigenvalue":7108,"ĠMer":7109,"Ġpiec":7110,"fully":7111,"128":7112,"ĠIsra":7113,"}>":7114,"Ġsubstantial":7115,"Ġinvestigated":7116,"pected":7117,"Ġbud":7118,"Ġclimate":7119,"west":7120,"Ġmovie":7121,"Ġspot":7122,"III":7123,"true":7124,"ĠSto":7125,"ĠBusiness":7126,"ria":7127,"Ġextremely":7128,"Ġexplan":7129,"Ġratios":7130,"_{-\\":7131,"hold":7132,"ĠJew":7133,"citealt":7134,"ĠService":7135,"Te":7136,"phase":7137,"Ġcollect":7138,"ĠGoogle":7139,"Ġeffectively":7140,"ĠWal":7141,"Ġnation":7142,"uns":7143,"neg":7144,"Ġlikelihood":7145,"rounding":7146,"Ġrecommend":7147,"ĠTop":7148,"ogram":7149,"coh":7150,"Ġmonot":7151,"Ġanalyze":7152,"Ġdefines":7153,"Ġ*/":7154,"Ġcovered":7155,"osc":7156,"Ġepoch":7157,"ĠCarol":7158,"Ġvarying":7159,"Ġmut":7160,"Ġstories":7161,"ĠCentral":7162,"ĠEquation":7163,"Pol":7164,"Ġpossibly":7165,"Ġepisode":7166,"Ġconducted":7167,"Ġgene":7168,"omorphisms":7169,"ĠĠčĊ":7170,"Ġdominant":7171,"ĠCam":7172,"nm":7173,"andemic":7174,"lections":7175,"ĠThomas":7176,"plo":7177,"auti":7178,"Ġspecified":7179,"Ġow":7180,"ĠEducation":7181,"Ġisn":7182,"}{{\\":7183,"ĠTor":7184,"Ġvehicle":7185,"Ġabsence":7186,"ĠSupp":7187,"cluded":7188,"Ġserve":7189,"Ġconfirmed":7190,"ulture":7191,"result":7192,"Ġpolic":7193,"points":7194,"forming":7195,"Ġreader":7196,"chron":7197,"zer":7198,"Ġbenchmark":7199,"Ġatomic":7200,"Ġprotect":7201,"Ġscores":7202,"ĠCath":7203,"Ġsaying":7204,"ĠFlor":7205,"?âĢĿ":7206,"ĠOpen":7207,"Ġdefinitions":7208,"proper":7209,"\\},":7210,"Ġrelig":7211,"Ġworkers":7212,"Ġuniqu":7213,"Ġreserv":7214,"}},\\":7215,"Ġinnov":7216,"standing":7217,"ĠEqs":7218,"}~~{}$\\":7219,"Ġflight":7220,"ĠLife":7221,"yan":7222,"Ġmarked":7223,"1970":7224,"formance":7225,"Ġpret":7226,"Ġexhibit":7227,"ĠFace":7228,"opt":7229,"Ġrestricted":7230,"newline":7231,"Ġconsisting":7232,"LC":7233,"Ġtreated":7234,"arma":7235,"thle":7236,"block":7237,"Ġinduction":7238,"Ġleaves":7239,"ĠSD":7240,"Ġpas":7241,"Vi":7242,"HT":7243,"Ġpanels":7244,"Ġextracted":7245,")=(":7246,"fold":7247,"ponent":7248,"Ġchoices":7249,"ching":7250,"ĠBal":7251,"Ġbank":7252,"Ġsimilarity":7253,"Ġpip":7254,"ĠLin":7255,"Ġshell":7256,"Ġwish":7257,"Ġpropos":7258,"Can":7259,"useum":7260,"Ġoption":7261,"Ġresonance":7262,"Ġperforming":7263,"Ġimply":7264,"Ġguarante":7265,"Ġvor":7266,"itt":7267,"Ġspan":7268,"condition":7269,"Ġgoals":7270,"Ġcomplement":7271,"Ġcentre":7272,"_{[":7273,")>":7274,"Name":7275,"make":7276,"Ġquarter":7277,"ĠDu":7278,"ĠRobert":7279,"]=":7280,"ĠSci":7281,"Of":7282,"Ġinvestigation":7283,"ĠUV":7284,"ĠOly":7285,"Ġprincipal":7286,"Ġleader":7287,"Ġdomains":7288,"OC":7289,"ctors":7290,"ĠJournal":7291,"Ġsimplicity":7292,"Ġisomorphic":7293,"Ġuniverse":7294,"number":7295,"Ġhighlight":7296,"member":7297,"ĠFre":7298,"Ġempty":7299,"Ġaspects":7300,"cher":7301,"kern":7302,"Ã¶":7303,"ĠBob":7304,"ius":7305,"Ġanalys":7306,"ĠAfrican":7307,"Ġreasonable":7308,"Ġelectronic":7309,"Ġstore":7310,"Ġprogress":7311,"Ġplant":7312,"Ġtail":7313,"Ġque":7314,"Ġspecifically":7315,"enty":7316,"Ġwrong":7317,"loss":7318,"Ġvio":7319,"TV":7320,"ĠFermi":7321,"NE":7322,"mal":7323,"Ġfocused":7324,"ĠSpace":7325,"istan":7326,"Ġillustrated":7327,"cen":7328,"ĠRoyal":7329,"phot":7330,"Ġcontribute":7331,"sky":7332,"'ve":7333,"atas":7334,"ĠMinister":7335,"Inde":7336,"Ġacting":7337,"Ġjoin":7338,"unders":7339,"ĠClub":7340,"Ġpseudo":7341,"Ġbenefit":7342,"Model":7343,"====":7344,"ĠArmy":7345,"Ġattemp":7346,"ĠHill":7347,"Ġsports":7348,"mathbbm":7349,"valued":7350,"Ġrepeated":7351,"ĠHen":7352,"defn":7353,"ĠLo":7354,"Ġru":7355,"Ġspeech":7356,"Ġestimator":7357,"ĠCR":7358,"Recall":7359,"Bigl":7360,"iling":7361,"Mar":7362,"models":7363,"People":7364,"ĠOffice":7365,"ĠRa":7366,"functions":7367,"Ġhund":7368,"Ġappearance":7369,"ĠTom":7370,"ĠRock":7371,"Ġfits":7372,"Ġbreaking":7373,"Ġlooks":7374,"azine":7375,"Ġdivided":7376,"Ġsurpris":7377,"250":7378,"Ġsongs":7379,"Ġsummer":7380,"notin":7381,"ĠGrand":7382,"Ġpull":7383,"Ġfermion":7384,"Ġgenerator":7385,"Ġemo":7386,"ilding":7387,"Ġfiber":7388,"Ġmul":7389,"Ġconverges":7390,"ua":7391,"Ġcharacterized":7392,"strong":7393,"Ġlaser":7394,"Ġorientation":7395,"leqslant":7396,"ĠWeb":7397,"Ġoriginally":7398,"riday":7399,"([":7400,"sm":7401,"when":7402,"Ġnaturally":7403,"unit":7404,"Ġsplitting":7405,"Ġpatch":7406,"Ġkilled":7407,"Ġrepresenting":7408,"house":7409,"Ġverify":7410,"1988":7411,"essage":7412,"Ġinference":7413,"ĠCommission":7414,"ipped":7415,"|_{\\":7416,"Ġswe":7417,";\\;":7418,"craft":7419,"Ġintervals":7420,"rish":7421,"\\|^":7422,"comes":7423,"Ġalgebras":7424,"ĠAustralian":7425,"thesis":7426,"current":7427,"Ref":7428,"sembly":7429,"Ġdeaths":7430,"dients":7431,"Ġassigned":7432,"Ġremove":7433,"Ġunitary":7434,"cross":7435,"Ġtested":7436,"direct":7437,"ita":7438,"Ġstationary":7439,"cas":7440,"Bigr":7441,"ĠRussia":7442,"Ġmedian":7443,"ĠBig":7444,"1987":7445,"Ġcustomers":7446,"Ġlic":7447,"Ġphoto":7448,"ĠChristian":7449,"aturday":7450,"Ġhappens":7451,"Ġdominated":7452,"\\,{\\":7453,"ĠHy":7454,"Ġkinetic":7455,"Ġmaster":7456,"Ġcold":7457,"Ġtransformations":7458,"Ġcatalog":7459,"Ed":7460,"ĠKore":7461,"Ġexcited":7462,"Ġsphere":7463,"Ġparents":7464,"Ġresource":7465,"Ġopening":7466,"Ġsolved":7467,"complete":7468,"|_":7469,"ĠEv":7470,"ja":7471,"ĠLat":7472,"Ġroughly":7473,"ctivity":7474,"mittee":7475,"lie":7476,"&$":7477,"Ġpiece":7478,"Ġconditional":7479,"Ġbalance":7480,"ban":7481,"ĠWestern":7482,"Ġscreen":7483,"uma":7484,"Ġwest":7485,"Ġrequest":7486,"AV":7487,"prec":7488,"ĠCD":7489,"ĠCNN":7490,"Ġgeodes":7491,"Out":7492,"BB":7493,"Ġgrand":7494,"Ġclosely":7495,"Ġconcentration":7496,"Ġstronger":7497,"PD":7498,"white":7499,"Ġincident":7500,"Ġlogarith":7501,"Ġgeneralization":7502,"Ġchance":7503,"Ġinterior":7504,"dashed":7505,"Ġcodes":7506,"Ġstock":7507,"Ġmobile":7508,"'$.":7509,"She":7510,",.":7511,"Furthermore":7512,"AE":7513,"Ġprobabilities":7514,"clide":7515,"have":7516,"Ġsegment":7517,"shift":7518,"Ġunderstood":7519,"Ġpresents":7520,"Ġempirical":7521,"ches":7522,"Ġcontrols":7523,"ief":7524,"bro":7525,"posed":7526,"ifold":7527,"Ġoscill":7528,"ĠTechnology":7529,"Ġflows":7530,"}{}":7531,"Ġstabil":7532,"Ġplasma":7533,"Ġsecondary":7534,"zon":7535,"ĠUkra":7536,"Ġjump":7537,"}}=\\":7538,"Ġreferences":7539,"Ġensemble":7540,"ĠSund":7541,"Ġthous":7542,"Ġfemale":7543,"Ġclustering":7544,"ava":7545,"ĠDivision":7546,"tile":7547,"125":7548,"ĠGovernment":7549,"rounds":7550,"bc":7551,"float":7552,"obs":7553,"titude":7554,"=-\\":7555,"Ġlaws":7556,"({":7557,"Ġidentification":7558,"Ġdefinite":7559,"liography":7560,"Ġblood":7561,"ĠAR":7562,"Ġposterior":7563,"Ġbillion":7564,"Ġcivil":7565,"Ġprivacy":7566,"Bbb":7567,"depend":7568,"Ġelimin":7569,"aling":7570,"Ġcomparable":7571,"Ġrail":7572,"exists":7573,"oke":7574,"Ġwonder":7575,"osh":7576,"ĠEngine":7577,"\\,,":7578,"Ġpassed":7579,"ĠDefinition":7580,"Other":7581,"ĠGreat":7582,"itar":7583,"ato":7584,"Ġbenefits":7585,"dust":7586,"Ġinflation":7587,"Ġdefe":7588,"ructions":7589,"Ġsimultaneously":7590,"Dec":7591,"Ġcompetition":7592,"ĠHam":7593,"Ġpapers":7594,"spin":7595,"ĠAM":7596,"Ġche":7597,"Ġdedic":7598,"ĠHistory":7599,"Ġple":7600,"Two":7601,"Ġinstances":7602,"ardi":7603,"ears":7604,"intro":7605,"vdots":7606,"ĠJose":7607,"Ġinvolves":7608,"Ġmiss":7609,"unk":7610,"My":7611,"Ġfirm":7612,"Ġexcell":7613,"Ġsubsequent":7614,"Ġdecreasing":7615,"ĠEcon":7616,"inction":7617,"ĠTour":7618,"Ġentanglement":7619,"esides":7620,"}~\\":7621,"since":7622,"clidean":7623,"Ġrecords":7624,"ĠLore":7625,"Ġrevealed":7626,"Ġamplitudes":7627,"ĠMiss":7628,"auth":7629,"Ġspent":7630,"Ġinstant":7631,"Ġcomparing":7632,"Ġvisible":7633,"CN":7634,"ĠScot":7635,"Ġslope":7636,"Ġdivis":7637,"ritical":7638,"Rightarrow":7639,"Ġcontradiction":7640,"Ġturbul":7641,"asy":7642,"ultimate":7643,"room":7644,"Ġorbits":7645,"Ġkept":7646,"Ġplanning":7647,"Ġrespective":7648,"lapse":7649,"ĠVirgin":7650,"Mo":7651,"Ġhref":7652,"Ġready":7653,"ĠJacob":7654,"Ġcriteria":7655,"Ġtermin":7656,"also":7657,"Ġcomposed":7658,"Ġcancel":7659,"second":7660,"Ġvoice":7661,"Ġpromo":7662,"Ġshap":7663,"}&\\":7664,"open":7665,"^*_":7666,"uthor":7667,"Ġfeas":7668,"sych":7669,"Ġrecognition":7670,"Ġexceed":7671,"parameters":7672,"Ġcook":7673,"Ġhybrid":7674,"Ġoperating":7675,"lvec":7676,"ĠFrancis":7677,"gray":7678,"}<":7679,"cond":7680,"DD":7681,"Ġdivision":7682,"tiveness":7683,"Ġpurposes":7684,"mode":7685,"ĠTHE":7686,"image":7687,"Ġinputs":7688,"1986":7689,"Ġcolumns":7690,"Ġsummary":7691,"edia":7692,"ras":7693,"plate":7694,"Ġaug":7695,"atz":7696,"istant":7697,"ancing":7698,"Another":7699,"Ġpenal":7700,"aba":7701,"Ġdt":7702,"Ġperspective":7703,"ingly":7704,"Ġfrag":7705,"Ġcreating":7706,"ĠDirector":7707,"Ġmask":7708,"Ġbary":7709,"Ġcommand":7710,"Ġanisot":7711,"ĠMC":7712,"Ġwal":7713,"ĠPoisson":7714,"Ġintroduction":7715,"Ġcloser":7716,"Ġcharges":7717,"Ġdistinguish":7718,"ĠPeter":7719,"connected":7720,"Ð¸":7721,"Ġplotted":7722,"arial":7723,"substack":7724,"Ġatta":7725,"Ġthanks":7726,"Ġfru":7727,"force":7728,"Ġpolicies":7729,"')$":7730,"polation":7731,"\\-":7732,"period":7733,"Ġtrial":7734,"comb":7735,"Ġcaref":7736,"finity":7737,"Ġhappen":7738,"Ġdeploy":7739,"Ġconformal":7740,"icago":7741,"Ġchiral":7742,"Ġcontrolled":7743,"verb":7744,"TC":7745,"Ġmodules":7746,"Ġregister":7747,"Ġrepresentative":7748,"centric":7749,"Ġtrajectories":7750,"Ġanno":7751,"Ġdy":7752,"ĠEnergy":7753,"Ġproduces":7754,"Ġpropagation":7755,"Ġmarried":7756,"Sum":7757,"Ġdaughter":7758,"unici":7759,"|=":7760,"ĠInformation":7761,"Ġcovering":7762,"triang":7763,"ĠTwitter":7764,"Ġpixel":7765,"Ġrenormal":7766,"FS":7767,"Ġmechanisms":7768,"itness":7769,"tz":7770,"Ġoil":7771,"Ġspacetime":7772,"overset":7773,"ysics":7774,"taur":7775,"world":7776,"Ġsatelli":7777,"ĠUSA":7778,"rie":7779,"Ġlib":7780,"Ġhands":7781,"Ġfigures":7782,"arest":7783,"Ġletter":7784,"ĠTown":7785,"Ġfinds":7786,"ĠJapanese":7787,"otient":7788,"Fil":7789,"ĠMuseum":7790,"below":7791,"than":7792,"Ġolder":7793,"Ġstr":7794,"ĠMass":7795,"Ġtrun":7796,"Ġcovariance":7797,"RS":7798,"zens":7799,"gl":7800,"Ġposs":7801,"'ll":7802,"Ġqual":7803,"paper":7804,"Ġcommonly":7805,"ĠBill":7806,"Ġlabor":7807,"Ġaffine":7808,"Ġcouplings":7809,"Ġcircuit":7810,"Ġupdated":7811,"itations":7812,"RI":7813,"ĠLear":7814,"Ġmatches":7815,"rative":7816,"ario":7817,"Ġsafe":7818,")|\\":7819,"&-":7820,"Ġeast":7821,"ĠUp":7822,"alian":7823,"constra":7824,"icine":7825,"Ġfelt":7826,"ĠBoard":7827,"Ġdisapp":7828,"fl":7829,"odies":7830,"Ġsle":7831,"coordin":7832,"triangle":7833,"Ġfailure":7834,"hyper":7835,"Ġfans":7836,"ags":7837,"Ġholes":7838,"orial":7839,"tates":7840,"place":7841,"ĠTimes":7842,"Ġgate":7843,"ĠMel":7844,"ĠYoung":7845,"Ġmur":7846,"Ġcarbon":7847,"pass":7848,"}})$":7849,"iton":7850,"fol":7851,"Ġsecret":7852,"Ġextreme":7853,"Ġdefining":7854,"Ġaware":7855,"igan":7856,"jpg":7857,"Ġ..":7858,"$_{\\":7859,"ĠFrank":7860,"hab":7861,"ifies":7862,"Ġiterations":7863,"Ġchallenging":7864,"Ġparticipants":7865,"akes":7866,"Ġlands":7867,"ĠFlorida":7868,"Ġliquid":7869,"ĠCase":7870,"ideos":7871,"hard":7872,"EP":7873,"Ġstorage":7874,"Ġdiscussions":7875,"ĠStand":7876,"tect":7877,"Ġpandemic":7878,"scriptscript":7879,"Ġsurrounding":7880,"Ġcircum":7881,"Ġconv":7882,"ĠPlay":7883,"Ġhuge":7884,"anguages":7885,"suming":7886,"Ġinvolve":7887,"scriptscriptstyle":7888,"Ġplots":7889,"Ġadjacent":7890,"Ġorganized":7891,"Ġadopt":7892,"Ġdiscovered":7893,"Ġcontinues":7894,"'$,":7895,"Ġintegers":7896,"Ġtrigger":7897,"empty":7898,"Ġbroken":7899,"History":7900,"rg":7901,"Ġgrant":7902,"Ġembedded":7903,"Ġtot":7904,"sample":7905,"ĠJer":7906,"ĠâĢ¦":7907,"Ġfav":7908,"Ġperturbations":7909,"Ġlabeled":7910,"ĠAGN":7911,"Ġtrend":7912,"Ġleaving":7913,"ocities":7914,"Ġanni":7915,"ĠRiemann":7916,"olar":7917,"Ġpoliti":7918,"GA":7919,"Go":7920,"~(":7921,"tages":7922,"iny":7923,"Ġquas":7924,"Ġspherical":7925,"Ġconventional":7926,"Ġrequirement":7927,"Ġweakly":7928,"Cont":7929,"Ġatom":7930,"ĠHel":7931,"ĠEs":7932,"Ġcomplicated":7933,"core":7934,"ĠDevelopment":7935,"ader":7936,"NC":7937,"TH":7938,"avity":7939,"'}\\":7940,"polar":7941,")).":7942,"]^{":7943,"Ġabundance":7944,"Ġcancer":7945,"Ġsubstit":7946,"Ġdaily":7947,"Ġice":7948,"even":7949,"iffer":7950,"ĠSocial":7951,"1985":7952,"Ġseparated":7953,"cean":7954,"tamin":7955,"esian":7956,"Acknow":7957,"Ġends":7958,"igital":7959,"approxi":7960,"jk":7961,"pire":7962,"TE":7963,"UV":7964,"Ġ$\\|":7965,"pack":7966,"Ġfra":7967,"iger":7968,"ĠCanadian":7969,"post":7970,"matics":7971,"Ġnine":7972,"Ġintrinsic":7973,"Ġmill":7974,"Ġcompatible":7975,"Ġbelongs":7976,"elle":7977,"ĠCommittee":7978,"ĠCle":7979,"Ġcommercial":7980,"Ġopin":7981,"LM":7982,"Ġsold":7983,"raise":7984,"Ġsun":7985,"gets":7986,"Ġsymbols":7987,"ĠVis":7988,"Color":7989,"ĠSpa":7990,"Ġdrawn":7991,"ĠEvery":7992,"Ġroots":7993,"1984":7994,"inv":7995,"Ġextent":7996,"Ġsubt":7997,"ulas":7998,"Ġacad":7999,"ĠSil":8000,"Ġcub":8001,"Ġperhaps":8002,"OD":8003,"eper":8004,"pheric":8005,"Ġconflic":8006,"Ġfif":8007,"wt":8008,"odd":8009,"}_{{\\":8010,"Ġnone":8011,"*\\":8012,"ĠCas":8013,"ĠVan":8014,"Ġvanishes":8015,"ĠAnother":8016,"kers":8017,"Ġclaims":8018,"determ":8019,"mathds":8020,"inst":8021,"Ġformat":8022,"Ġpages":8023,"101":8024,"Ġ}$":8025,"Ġdriven":8026,"lb":8027,"Ġpotentially":8028,"Ġproposition":8029,"Ġsmallest":8030,"Ġsupply":8031,"reland":8032,"ĠDirac":8033,"aker":8034,"Ġframes":8035,"Ġgenerators":8036,"Ġpowers":8037,"oday":8038,"onald":8039,"due":8040,"ĠQCD":8041,"Ġsmart":8042,"Ġnormalization":8043,"ligible":8044,"Ġtight":8045,".},":8046,"ĠNext":8047,"ootball":8048,"roscopic":8049,"eller":8050,"\\\\&":8051,"Ġangles":8052,"ilos":8053,"Ġaxi":8054,"Ġhttp":8055,"ĠNov":8056,"kins":8057,"ĠCre":8058,"thes":8059,"lfloor":8060,"ĠWay":8061,"underset":8062,"Ġartists":8063,"ĠLos":8064,"fortun":8065,"learning":8066,"full":8067,")}_{\\":8068,"STATE":8069,"above":8070,"Ġharmonic":8071,"rfloor":8072,"Ġdisjoint":8073,"Ġ$[\\":8074,"Ġroll":8075,"\")":8076,"tension":8077,"Ġsegmentation":8078,"urable":8079,"Ġreturns":8080,"Ġpublish":8081,"Ġboundaries":8082,"ibility":8083,"ĠLake":8084,"!!":8085,"Gu":8086,"Ġextends":8087,"ĠBank":8088,"Ġdestroy":8089,".}\\":8090,"Ġultra":8091,"Assume":8092,"ĠAcademy":8093,"ĠFurther":8094,"Ġpred":8095,"ittle":8096,"âĢĿ.":8097,"})_{":8098,"++":8099,"Ġsea":8100,"exist":8101,"Ġsubsets":8102,"Ġfederal":8103,"Bu":8104,"Ġultimate":8105,"Ġ}{\\":8106,"hl":8107,"Ġfinish":8108,"Ġretri":8109,"Ġcollisions":8110,"ĠFriday":8111,"Ġcollege":8112,"prise":8113,"chor":8114,"Ġinher":8115,"else":8116,"Ġindependently":8117,"ĠSaturday":8118,"ĠGames":8119,"ipment":8120,"atre":8121,"Ġartist":8122,"aland":8123,"MF":8124,"Ġlock":8125,"ĠGood":8126,"ĠLouis":8127,"otel":8128,"Ġdecays":8129,"ĠMany":8130,"enc":8131,"Ġshoot":8132,"ĠRemark":8133,"Ġreci":8134,"Ġmac":8135,"ntz":8136,"600":8137,"Time":8138,"Ġmonit":8139,"Ġalle":8140,"ĠAssume":8141,"Ġpulse":8142,"bers":8143,"Ġreads":8144,"ĠServices":8145,"Ġsociety":8146,"argets":8147,"ĠOper":8148,"HD":8149,"ulf":8150,"lot":8151,"Ġpassing":8152,"BR":8153,"ĠMarkov":8154,"Ġeyes":8155,"Ġsales":8156,"Ġanyone":8157,"Ġdebut":8158,"gery":8159,"Ġannual":8160,"Ġelliptic":8161,"ypes":8162,"Ġreality":8163,"iner":8164,"Ġprepar":8165,"Ġapplies":8166,"sed":8167,")|^":8168,"ĠCho":8169,"igration":8170,"ĠMonte":8171,"ĠBa":8172,"tific":8173,"ĠTaylor":8174,"Ġfashion":8175,"ĠFacebook":8176,"ĠKar":8177,"tia":8178,"Ġmoves":8179,"'',":8180,"Ġsomewhat":8181,"Ġborder":8182,"Ġflexi":8183,"Ġreward":8184,"Ġresidual":8185,"ĠJust":8186,"Ġnumerous":8187,"alley":8188,"ective":8189,")&":8190,"ĠSC":8191,"imum":8192,"bd":8193,"AU":8194,"tran":8195,"Ġ}}":8196,"Ġoutcome":8197,"ĠPeople":8198,"ouble":8199,"IST":8200,"Ġzone":8201,"between":8202,"Ġvote":8203,"tainment":8204,"Ġrecording":8205,"ledg":8206,"rey":8207,"Ġcone":8208,"ĠPC":8209,"MT":8210,"fined":8211,"ĠĠĠĠĠĠĠĠĠĠĠĠĠĠĠĠĠĠĠĠĠĠĠ":8212,"ointed":8213,"Ġsort":8214,"Ġ$$\\":8215,"liament":8216,"Ġsal":8217,"aver":8218,"Ġconnections":8219,"inement":8220,"Ver":8221,"Ġmixture":8222,"Ġanalytical":8223,"Ġhandle":8224,"ulator":8225,"Ġquali":8226,"ossible":8227,"care":8228,"Ġversions":8229,"Ġparties":8230,"\\|_{\\":8231,"GS":8232,"ĠMethod":8233,"Ġnearby":8234,"zo":8235,".(\\":8236,"factor":8237,"moment":8238,"ĠOffic":8239,"Ġwhenever":8240,"ĠHaw":8241,"oidal":8242,"sharp":8243,"Ġfindings":8244,"Ġbill":8245,"ĠLap":8246,"Ġviews":8247,"othing":8248,"Ġspirit":8249,"Ġbriefly":8250,"ERT":8251,"];":8252,"Ġsharp":8253,"Exp":8254,"Ġsupercon":8255,"Ġunless":8256,"}\\;":8257,"Ġconvers":8258,"Ġremember":8259,"clusions":8260,"Ġsuccessfully":8261,"Upsilon":8262,"]{.":8263,"Ġfol":8264,"evertheless":8265,"Ġneur":8266,"Ġwild":8267,"uzz":8268,"ĠWomen":8269,"apy":8270,"Ġenvironmental":8271,"ĠStra":8272,"âĢĺ":8273,"vironments":8274,"px":8275,"Ġdatabase":8276,"Ġpatient":8277,"Ġfill":8278,"ĠLee":8279,"atest":8280,"final":8281,"Ġvision":8282,"OL":8283,"Ġpartially":8284,"Ġrad":8285,"Ġcalls":8286,"Ġpool":8287,"independent":8288,"Ġ&$":8289,"Ġcondens":8290,"plied":8291,"}}}{":8292,"Ġconservation":8293,"Ġstructural":8294,"Ġpretty":8295,"Ġhospital":8296,"ĠSha":8297,"Eu":8298,"Ġtopic":8299,"osa":8300,"Ġstands":8301,"quark":8302,"Ġsteady":8303,"Ġlinearly":8304,"Ġpeaks":8305,"owski":8306,"rec":8307,"Ġcooling":8308,"Ġmesh":8309,"ounted":8310,"Ġcauses":8311,"weak":8312,"Top":8313,"Ġjour":8314,"}))":8315,"Ġpartner":8316,"ĠDep":8317,"Ag":8318,"vo":8319,"itive":8320,"inting":8321,"Ġdeduce":8322,"tibility":8323,"Ġsuffices":8324,"base":8325,"Ġcorner":8326,"Ġcriterion":8327,"lm":8328,"Ġther":8329,"images":8330,")}=":8331,"hor":8332,"astern":8333,"ĠLong":8334,"Ġblow":8335,"theory":8336,"onday":8337,"Ġtwice":8338,"ĠSP":8339,"Ġlatent":8340,"ĠBan":8341,"struction":8342,"Ġdiscrimin":8343,"autoref":8344,"Ġimplic":8345,"Ġbecoming":8346,"aded":8347,"decom":8348,"tb":8349,"Ġfinished":8350,"psch":8351,"Cal":8352,"correspon":8353,"RL":8354,"Ġ$<":8355,"Ġdissi":8356,"Ġanalogous":8357,"Ġsubsection":8358,"Ġpaid":8359,"eters":8360,"potential":8361,"ĠKingdom":8362,"Ġvelocities":8363,"ĠCongress":8364,"onym":8365,"bounded":8366,"ĠHor":8367,"Ġdisorder":8368,"Ġcreation":8369,"Ġprojective":8370,"Ġadjust":8371,"cope":8372,"adow":8373,"Ġ^{\\":8374,"Ġdog":8375,"clip":8376,"'}$":8377,"Ġhop":8378,"isy":8379,"perturb":8380,"lined":8381,"1983":8382,"Ġnonzero":8383,"Also":8384,"Eng":8385,"ĠPower":8386,"Ġvan":8387,"Ġsep":8388,"Ġwinning":8389,"Ġpm":8390,"ultural":8391,"ĠMicro":8392,"ĠWed":8393,"1960":8394,"Ġincome":8395,"ĠCy":8396,"ĠInstead":8397,"ĠSunday":8398,"Ġsentence":8399,"autiful":8400,"return":8401,"ĠOF":8402,"Ġinduces":8403,"Ġsustain":8404,"Ġemployees":8405,"Ġhelped":8406,"Ġpackage":8407,"Ġcompeti":8408,"ĠResults":8409,"requency":8410,"cepts":8411,"Ġoutper":8412,"Ġdeveloping":8413,"life":8414,"Ġsend":8415,"Ġkin":8416,"Rem":8417,"airs":8418,"Ġoffered":8419,"Ġlibrary":8420,"pschitz":8421,"ĠItalian":8422,"Ġdescribing":8423,"Ġoscilla":8424,"Ġcircular":8425,"ketball":8426,"subfloat":8427,"}=(":8428,"umps":8429,"ĠType":8430,"utter":8431,"Ġforced":8432,"ĠCharles":8433,"anda":8434,"Ġanalyzed":8435,"Ġ{{\\":8436,"tection":8437,"Ġtracks":8438,"Ġraised":8439,"look":8440,"ĠWin":8441,"}_+":8442,"Ġautomatically":8443,"ccc":8444,"}}\\,":8445,"})-":8446,"phen":8447,"ighter":8448,"Ġlaunched":8449,"Ġeth":8450,"Ġmorning":8451,"Ġentirely":8452,"=(\\":8453,"Ġexcellent":8454,"Mon":8455,"Ġadmits":8456,"sued":8457,"cycle":8458,"Ġemail":8459,"}_{{":8460,"Ġcoherent":8461,"Ġparticipa":8462,"problem":8463,"Living":8464,"complex":8465,"zil":8466,"Ġbudget":8467,"erg":8468,"Ġvehicles":8469,"aneous":8470,"Ġphone":8471,"Ġrespond":8472,"Ġlargely":8473,"Ġpotentials":8474,"control":8475,"lad":8476,"Ġcohom":8477,"ĠParis":8478,"jections":8479,"GR":8480,"ĠChicago":8481,"Bi":8482,"}}}$":8483,"Ġwire":8484,"Ġexcess":8485,"AF":8486,"imals":8487,"param":8488,"riz":8489,"Under":8490,"aby":8491,"lag":8492,"Ġdedicated":8493,"Ġwasn":8494,"}.\\":8495,"ulty":8496,").}":8497,"Ġwood":8498,"\\,.":8499,"Comp":8500,"tx":8501,"Ġbuildings":8502,"('":8503,"Ġcolour":8504,"1982":8505,"dz":8506,"Ġpopulations":8507,"VM":8508,"Ġcorrespondence":8509,",~":8510,"Ġcorrelated":8511,"Ġkeeping":8512,"take":8513,"supervised":8514,"John":8515,"Ġcycles":8516,"orig":8517,"Ġadver":8518,"Ġisolated":8519,"Ġconjecture":8520,"))$.":8521,"Ð½":8522,"}^{(\\":8523,"cia":8524,"Ġstations":8525,"Ġperiods":8526,"XX":8527,"valid":8528,"Ġhomot":8529,"Ġoverlap":8530,"veloper":8531,"Ġsparse":8532,"antly":8533,")!":8534,"BI":8535,"Ġarise":8536,"Ġroute":8537,"Ġfunding":8538,"\\/":8539,"given":8540,"tech":8541,"Am":8542,"Ġdeformation":8543,"ĠWilson":8544,"ÑĤ":8545,"Ġmir":8546,"ĠElect":8547,"Similarly":8548,"ifications":8549,"Ġhelps":8550,"Mat":8551,"Ġorganizations":8552,"nb":8553,"ĠHome":8554,"ĠAT":8555,"oles":8556,"Ġ\\,,":8557,"^{[":8558,"Ġbrother":8559,"Ġlegis":8560,"gest":8561,"Ġship":8562,"ĠProject":8563,"elines":8564,"atorial":8565,"ĠPenn":8566,"ĠNa":8567,"Ġcrow":8568,"Ġcurren":8569,"Ġplate":8570,"Ġrealistic":8571,"displaymath":8572,"otal":8573,"}(-":8574,"Ġhistorical":8575,"BE":8576,"Ġimaging":8577,"lose":8578,"Ġheard":8579,"{[":8580,"Ġserver":8581,"arden":8582,"Ġconvenient":8583,"telligence":8584,"Ġchoosing":8585,"calc":8586,"Ġcorpor":8587,"ĠFar":8588,"160":8589,"ĠCP":8590,"Ġcolors":8591,"ĠMur":8592,"Ġgenerality":8593,"ĠZealand":8594,"Ġexcitation":8595,"reci":8596,"Ġsurve":8597,"occ":8598,"cient":8599,"ounder":8600,"Ġwriter":8601,"Ġtried":8602,"Ġur":8603,"Ġconstrained":8604,"Ġvocal":8605,"bell":8606,"hole":8607,"Ġmi":8608,"Ġcosmic":8609,"Ġprogramming":8610,"Ġcalibration":8611,"ĠAngeles":8612,"Ġaveraged":8613,"via":8614,"ewise":8615,"Ġfaith":8616,"frame":8617,"Ġlanguages":8618,"Ġcircles":8619,"parti":8620,"Ġillustrate":8621,"Ġinstal":8622,"Ġduration":8623,"Ġlooked":8624,"tory":8625,"Ġcertainly":8626,"ĠAgain":8627,"Ġdwar":8628,"Ġclaimed":8629,"ĠChild":8630,"Ġseconds":8631,"ounting":8632,"RC":8633,"Ġtriangle":8634,"Ġexecution":8635,"symmetry":8636,"256":8637,"ĠEuclidean":8638,"Ġplease":8639,"HM":8640,"ĠIreland":8641,"Ġthermod":8642,"Ã¨":8643,"ĠAI":8644,"Ġvalidation":8645,"iliary":8646,"BL":8647,"Ġrot":8648,"clear":8649,"Ġimmediate":8650,"Ġpixels":8651,"ĠHa":8652,"ĠAst":8653,"ĠRegion":8654,"Ġseparately":8655,"}|^":8656,"$(\\":8657,"Ġrapidly":8658,"DT":8659,"Ġvideos":8660,"Ĥ¬":8661,"Ġtargets":8662,"ĠManagement":8663,"Si":8664,"ĠProv":8665,"ĠNGC":8666,"Ġgenus":8667,"Ġrelaxation":8668,"Ġclinical":8669,"'=":8670,"atures":8671,"Ġenvironments":8672,"specific":8673,"Ġquotient":8674,"Ġprobe":8675,"Prop":8676,"shot":8677,"ĠLibrary":8678,"paren":8679,"ĠÎ":8680,"Ġprem":8681,"ĠHuman":8682,"avig":8683,"road":8684,"cious":8685,"Ġtil":8686,"ĠVirginia":8687,"Ġstatements":8688,"ĠCH":8689,"ĠBol":8690,"Ġrelationships":8691,"plectic":8692,"Ġinterference":8693,"Ġfailed":8694,"CF":8695,"Ġguide":8696,"VD":8697,"Ġembeddings":8698,"Ġgirl":8699,"Ġfinitely":8700,"gcolor":8701,"vskip":8702,"Ġcompre":8703,"ĠMartin":8704,"equival":8705,"010":8706,"Ġinfinity":8707,"urban":8708,"BO":8709,"Ġboson":8710,"surface":8711,"Ġconcerns":8712,"Ġindicating":8713,"\\}}":8714,"ela":8715,"portation":8716,"teness":8717,"ubb":8718,"Ġrows":8719,"ĠPla":8720,"Ġĉ":8721,"ĠGeorg":8722,"Ġintegrals":8723,"oe":8724,"Ġbrain":8725,"ĠWood":8726,"Ġdrug":8727,"gi":8728,"ĠML":8729,")\\,\\":8730,"Ġleague":8731,"ĠGar":8732,"Ġeasier":8733,"chen":8734,"Ġwants":8735,"electric":8736,"Ġadvanced":8737,"ĠGet":8738,"ĠEinstein":8739,"Ġprimarily":8740,"Ġremained":8741,"simple":8742,"ouds":8743,"Ġcovers":8744,"Case":8745,"Ġstages":8746,"ĠAma":8747,"Ġrefers":8748,"Ġresearchers":8749,"Ġforeign":8750,"door":8751,"Ġpain":8752,"ĠĠĠĠĠĠĠĠĠĠĠĠĠĠĠĠĠ":8753,"Ġmathematical":8754,"800":8755,"Ġinvestment":8756,"ĠTeam":8757,"pation":8758,"ora":8759,"ĠCamp":8760,"Ġoutputs":8761,"uan":8762,"ĠInt":8763,"ifting":8764,"Ġsemantic":8765,"rror":8766,"atal":8767,"fortunately":8768,"Ġunstable":8769,"ĠSpanish":8770,"Ġhour":8771,"ĠDesign":8772,"Ġexponent":8773,"String":8774,"ĠDue":8775,"Ġnumerically":8776,"gency":8777,"ĠJul":8778,"Ġahead":8779,"Ġglass":8780,"ĠRecall":8781,"Ġarticles":8782,"hskip":8783,"Ġmanager":8784,"uv":8785,"Left":8786,"relation":8787,"water":8788,"ĠSk":8789,"spe":8790,"ĠExp":8791,"Ġvoid":8792,"}\\}$":8793,"Ġdecades":8794,"Ġeye":8795,"ĠVictor":8796,"Ġrealized":8797,"pling":8798,"eros":8799,"BF":8800,"ĠTem":8801,"will":8802,"Ġhyperbolic":8803,"bec":8804,"how":8805,"night":8806,"itted":8807,"ĠMedia":8808,"ĠBH":8809,"usband":8810,"Ġstru":8811,"uesday":8812,"Ġordinary":8813,"ĠChief":8814,"ĠChampionship":8815,"mers":8816,"utation":8817,"Ġgather":8818,"Ġtrust":8819,"Ġsharing":8820,"%)":8821,"estima":8822,"claim":8823,"GP":8824,"utch":8825,"ĠArts":8826,"Ġelementary":8827,"degree":8828,"centage":8829,"Ġ!":8830,"ĠIN":8831,"olars":8832,"Ġcredit":8833,"Ġciti":8834,"ĠSecret":8835,"eties":8836,"Ġfamous":8837,"ĠCommunity":8838,"ĠRam":8839,"Ġbatter":8840,"1981":8841,"Ġau":8842,"Ġanomal":8843,"Ġviewed":8844,"seq":8845,"ĠGen":8846,"Ġextensive":8847,"Ġreducing":8848,"risis":8849,"Ġcooper":8850,"umerical":8851,"Ġpromin":8852,"##":8853,"Ġ$-$":8854,"ĠBr":8855,"ĠMulti":8856,"Ġopportunities":8857,"ĠItaly":8858,"Ġupdates":8859,"ĠSy":8860,"Gra":8861,"},{\\":8862,"Ġguarantee":8863,"Ġscientific":8864,"pectively":8865,"Min":8866,"}_{(":8867,"Ġbattle":8868,"experim":8869,"Gs":8870,"@{}":8871,"Ġproves":8872,"reed":8873,"Ġskills":8874,"ĠRecords":8875,"Ġcities":8876,"Ġsampled":8877,"print":8878,"bes":8879,"Ġinterpreted":8880,"Ġsynthetic":8881,"Ġbatch":8882,"Ġsensor":8883,"Ġtransmit":8884,"server":8885,"Ġmm":8886,"Ġformalism":8887,"Ġclosure":8888,"Ġdamage":8889,"Ġordering":8890,"Ġfish":8891,"]_{":8892,"Ġfounded":8893,"ĠMeV":8894,"alls":8895,"Ġexposure":8896,"SN":8897,"Ġcrossing":8898,"fo":8899,"ĠCentre":8900,"1979":8901,"(|":8902,"cific":8903,"During":8904,"ership":8905,"ĠMexico":8906,"Ġknew":8907,"^-$":8908,"Ġ\\}$":8909,"Ġcod":8910,"ursday":8911,"ĠRichard":8912,"Ġbgcolor":8913,"Ġobservables":8914,"Ġrobot":8915,"syn":8916,"Ġmarginal":8917,"met":8918,"riage":8919,"Ġconsideration":8920,"Ġfitted":8921,"ĠAny":8922,"Ġconsistency":8923,"ĠSciences":8924,"py":8925,"igens":8926,"taining":8927,"Ġdefault":8928,"ĠOnly":8929,"azz":8930,"Ġinser":8931,"Ġimplicit":8932,"123":8933,"130":8934,"Ġeconomy":8935,"Ġassociation":8936,"including":8937,"Ġpointed":8938,"ders":8939,"Ġconsec":8940,"Ġpor":8941,"ĠGlobal":8942,"Ġdocuments":8943,"Each":8944,"respectively":8945,"ularities":8946,"aters":8947,"ÑĢ":8948,"Ġinspired":8949,"ĠLove":8950,"uty":8951,"ĠMajor":8952,"prov":8953,"Ġtrib":8954,"iment":8955,"ĠSpecifically":8956,"Ġdecisions":8957,"host":8958,"Ġhydrogen":8959,"TR":8960,"Ġacces":8961,"Ġguitar":8962,"ĠAv":8963,")}^":8964,"ĠJun":8965,"ĠCare":8966,"ĠMem":8967,"Ġexamine":8968,"distribution":8969,"stone":8970,"pmb":8971,"Ġended":8972,"ĠHon":8973,"Ġcaptured":8974,"Ġperforms":8975,"STM":8976,"Ġreplacing":8977,"Ġbusinesses":8978,"}$).":8979,"Ġenhanced":8980,"ĠID":8981,"Ġranges":8982,"Ġisland":8983,"iler":8984,"Ġshear":8985,"ãģ":8986,"ĠArab":8987,"ĠJones":8988,"Ġprotein":8989,"location":8990,"ĠPub":8991,"uses":8992,"Ġdiameter":8993,"')\\":8994,"Experim":8995,"MD":8996,"Ġaux":8997,"write":8998,"Ġfilled":8999,"Ġreflection":9000,"Ġpitch":9001,"ĠPolicy":9002,"ilosoph":9003,"ĠWeek":9004,"ĠRail":9005,"Char":9006,"Ġfiles":9007,"Ġboost":9008,"Ġreliable":9009,"Class":9010,"satis":9011,"General":9012,"ĠCarolina":9013,"ĠFree":9014,"series":9015,"rog":9016,"Ġprices":9017,"urt":9018,"ĠFestival":9019,"ells":9020,"Ġpieces":9021,"Ġwhom":9022,"renew":9023,"Home":9024,"Ġnan":9025,"Ġcelebra":9026,")),":9027,"Ã¤":9028,"Max":9029,"ione":9030,"ĠFollowing":9031,"ĠLorentz":9032,"Ġacceleration":9033,"induced":9034,"ĠMonday":9035,"Ġbars":9036,"ĠIsrael":9037,"Ġdream":9038,"some":9039,"Ġrid":9040,"Ġequipment":9041,"Ġexplanation":9042,"abe":9043,"ĠOnce":9044,"positions":9045,"Ġphotos":9046,"Ġinstability":9047,"single":9048,"Ġoutcomes":9049,"Ġrecovery":9050,"wer":9051,"140":9052,"Ġcombinations":9053,"Because":9054,"optimal":9055,"Ġours":9056,"umni":9057,"Ġworst":9058,"predic":9059,"edding":9060,"Ġcounts":9061,"}}+":9062,"NO":9063,"Ġproven":9064,"Back":9065,"ĠValley":9066,"rons":9067,"ĠBern":9068,"flat":9069,"Ġstudying":9070,"ulted":9071,"111":9072,"ĠHistor":9073,"Cur":9074,"Ġportion":9075,"solid":9076,"ĠJoe":9077,"Ġcombining":9078,"ĠWind":9079,"dal":9080,"Ġsave":9081,"ĠShow":9082,"noise":9083,"$&$":9084,"El":9085,"eman":9086,"Ġneither":9087,"Ġ=>":9088,"PL":9089,"tensor":9090,"Ġpuls":9091,"domain":9092,"={\\":9093,"Ġcentered":9094,"):=\\":9095,"Ġapplicable":9096,"Ġderivation":9097,"Ġmagne":9098,"riend":9099,"Ġinvariance":9100,"'(\\":9101,"lication":9102,"centerline":9103,"Lab":9104,"tree":9105,"conv":9106,"ĠJim":9107,"ĠGa":9108,"Ġsupports":9109,"uling":9110,"Ġtracking":9111,"sel":9112,"ĠGame":9113,"vable":9114,"ĠSus":9115,"[{\\":9116,"forcement":9117,"tici":9118,"Ġfer":9119,"vertex":9120,"Ġdetermines":9121,"Ġsupporting":9122,"figs":9123,"Ġrel":9124,"lr":9125,"ĠCla":9126,"Ġformulas":9127,"ĠFootball":9128,"Ġnegligible":9129,"EEE":9130,"ĠEnd":9131,"ache":9132,"Ġhardware":9133,"}}\\\\":9134,"uniform":9135,"ditive":9136,"Ġsituations":9137,"ĠOrder":9138,"ĠTer":9139,"ĠMu":9140,"Ġtells":9141,"nesday":9142,"Ġbegins":9143,"plus":9144,"Ġarrange":9145,"Ġsenior":9146,"Ġresidents":9147,"hensive":9148,"Ġrely":9149,"Ġcrim":9150,"Ġengineering":9151,"wan":9152,"Ġaccounts":9153,"Ġtr":9154,"Ġcollapse":9155,"vest":9156,"^+\\":9157,"iro":9158,"three":9159,"xrightarrow":9160,"Ġprotection":9161,"Ġadvance":9162,"ĠMen":9163,"Get":9164,"Ġexerc":9165,"}]$":9166,"aux":9167,"Ġpermutation":9168,"pacity":9169,"andra":9170,"Ġfaces":9171,"ulner":9172,"Ġneighbour":9173,"Ġvictim":9174,"EV":9175,"Ġintended":9176,"Ġmoder":9177,"ĠâĢ¢":9178,"Ġheavi":9179,"ĉĉĉĉĉ":9180,"ordan":9181,"ĠConn":9182,"everal":9183,"Ġfresh":9184,"Ġlosses":9185,"sections":9186,"Ġelected":9187,"Ġmurder":9188,"rupt":9189,"ĠSpe":9190,"Ġfloor":9191,"GD":9192,"Ġpil":9193,"KS":9194,"ĠCarlo":9195,"Ġimpossible":9196,"aka":9197,"Ġconference":9198,"through":9199,"ĠDC":9200,"Ġenables":9201,"Ġinequalities":9202,"ĠJoseph":9203,"scriptstyle":9204,"ĠAD":9205,"Ġclient":9206,"ĠFilm":9207,"Following":9208,"Ġsad":9209,"Ġheter":9210,"Further":9211,"bigskip":9212,"toprule":9213,"ĠKen":9214,"Ġclassified":9215,"Ġproperly":9216,"issible":9217,"Ġsigns":9218,"inking":9219,"Ġabelian":9220,"was":9221,"Ġpark":9222,"ledgments":9223,"ĠTri":9224,"Mc":9225,"}}+\\":9226,"dep":9227,"])":9228,"leftrightarrow":9229,"BP":9230,"Ġconsumption":9231,"sym":9232,"ĠIV":9233,"Ġaircraft":9234,"ĠJohnson":9235,"Ġrestaur":9236,"Ã¢":9237,"Ġdivergence":9238,"Ġwel":9239,"HL":9240,"eto":9241,"1977":9242,"Ġfeet":9243,"Ġparent":9244,"ĠBC":9245,"Ġvanishing":9246,"ĠGener":9247,"Ġcatch":9248,"Ġintroducing":9249,"Ġ\\#":9250,"Ġguess":9251,"Med":9252,"Ġcompris":9253,"}{$\\":9254,"ĠCatholic":9255,"varpi":9256,"Ġgenerates":9257,"Ġtorus":9258,"Ġfan":9259,"Ġdiagnos":9260,"1978":9261,"Ġmetallicity":9262,"Ġfeasible":9263,"ĠNS":9264,"static":9265,"Ġearth":9266,"deep":9267,"\\!\\!\\!\\!":9268,"Ġcompens":9269,"Ġprison":9270,"Ġfacilities":9271,"Ġdescent":9272,"Ġmessages":9273,"doc":9274,"closed":9275,"Aut":9276,"Har":9277,"pop":9278,"ĠForce":9279,"Ġphenomenon":9280,"ĠCEO":9281,"Non":9282,"oir":9283,"alactic":9284,"Ġchampions":9285,"ĠRay":9286,"Ġcas":9287,"vv":9288,"$=":9289,"Ġmolecules":9290,"Ġsymmetries":9291,"poly":9292,"},\\\\":9293,"dium":9294,"Bo":9295,"kip":9296,"isters":9297,"Ġstudio":9298,"Ġhappened":9299,"smooth":9300,"Ġpossess":9301,"uer":9302,"ĠNY":9303,"Ġofficials":9304,"ĠTre":9305,"Ġly":9306,"Ġclassifier":9307,"Tok":9308,"omer":9309,"ĠEuler":9310,"ĠSpecial":9311,"orbit":9312,"Ġactor":9313,"ĠWater":9314,"ĠPic":9315,"ĠAdditionally":9316,"ĠPDF":9317,"rays":9318,"Ġchec":9319,"bibliography":9320,"Ġchief":9321,"Comparison":9322,"ĠHop":9323,"Ġdoor":9324,"Ġtourn":9325,"nie":9326,"ĠBack":9327,"date":9328,"lementary":9329,"ĠPres":9330,"Ġaudio":9331,"Ġalter":9332,"urance":9333,"metric":9334,"temperature":9335,"trained":9336,"Ġmultiplication":9337,"Ġinfrastructure":9338,"Ġdet":9339,"EX":9340,"ariant":9341,"amber":9342,"resize":9343,"hou":9344,"âĢĿ,":9345,"Ġconclusions":9346,"ĠOld":9347,"Ġbeautiful":9348,"inity":9349,"Ġlongit":9350,"}}-":9351,"eqq":9352,"Ġaudience":9353,"ĠPak":9354,"1976":9355,"Ġloops":9356,"ye":9357,"rants":9358,"renewcommand":9359,"utoff":9360,"Phys":9361,"ĠAsia":9362,"ĠLast":9363,"Ġoscillations":9364,"cribed":9365,"Ġcars":9366,"Ġvoltage":9367,"Ġequipped":9368,"Ġpurely":9369,"Ġmanip":9370,"Ġregularization":9371,"training":9372,"Ġproton":9373,"Ġactivation":9374,"Ġseed":9375,"ĠFa":9376,"ught":9377,"similar":9378,"Ġprojected":9379,"oving":9380,"Ġsignificance":9381,"Ġban":9382,"rele":9383,"Ġdriver":9384,"Ġcultural":9385,"}$;":9386,"rance":9387,"ella":9388,"ustice":9389,"}\\!":9390,"}}^{(":9391,"ĠSO":9392,"itzer":9393,"ĠCross":9394,"enberg":9395,"ĠAtlan":9396,"ĠRet":9397,"Ġfrequently":9398,"Ġeditor":9399,"kh":9400,"last":9401,"Ġbla":9402,"Ġkids":9403,"Ġatmosphere":9404,"_{{":9405,"Ġsecure":9406,"itial":9407,"analysis":9408,"Ġconcepts":9409,"she":9410,"makebox":9411,"Ġwitness":9412,"Ġcopies":9413,"ĠAnalysis":9414,"Ġpp":9415,"person":9416,"Ġdotted":9417,"SH":9418,"cu":9419,"uries":9420,"ĠApple":9421,"})(":9422,"Ġarises":9423,"Ġfeatured":9424,"Ġstret":9425,"Ġworse":9426,"short":9427,"Ġencoder":9428,"_{(\\":9429,"Ġhusband":9430,"ami":9431,"Ġequals":9432,"consistent":9433,"GE":9434,"Ġcoast":9435,"Ġreaches":9436,"Ġcapable":9437,"Ġpresentation":9438,"solution":9439,"]_":9440,"ĠBir":9441,"Second":9442,"aming":9443,"Ġanalyses":9444,"Ġanimals":9445,"ratio":9446,"Ġgeodesic":9447,"Ġelastic":9448,"ĠÂ£":9449,"Ġmoduli":9450,"Ġaspect":9451,"Ġsucc":9452,"Ġwarm":9453,"upper":9454,"component":9455,"Ġdanger":9456,"uable":9457,"FP":9458,"ĠBlue":9459,"setlength":9460,"ĠBre":9461,"ĠObserv":9462,"Ġcollaboration":9463,"allery":9464,"author":9465,"Ġnice":9466,"Ġnom":9467,"iliar":9468,"umes":9469,"description":9470,"ĠAwards":9471,"message":9472,"Ġfacts":9473,"Ġtends":9474,"random":9475,"ĠDown":9476,"Ġcavity":9477,"aniel":9478,"',\\":9479,"Ġobservable":9480,"ĠLine":9481,"qq":9482,"FM":9483,"izable":9484,"bigoplus":9485,"aval":9486,"each":9487,"Ġadversarial":9488,"Ġappointed":9489,"}]\\":9490,"Ġutility":9491,"ĠTuesday":9492,"Ġpump":9493,"Ġthinking":9494,"Ġtangent":9495,"Dav":9496,"Ġlinked":9497,"Figures":9498,"});":9499,"Ġreviews":9500,"Ġsingularity":9501,"resizebox":9502,"Ġdiverse":9503,"Ġ\\\\[":9504,"Ġdiversity":9505,"Ġmechanical":9506,"May":9507,"Ġnearest":9508,"modules":9509,"ĠSar":9510,"Ġdepicted":9511,"imes":9512,"Ġiron":9513,"Ġtechnologies":9514,"counter":9515,"ĠTO":9516,"RT":9517,"lick":9518,"former":9519,"bracket":9520,"Mark":9521,"allow":9522,"Ġfractional":9523,"Ñģ":9524,"htbp":9525,"orough":9526,"ilipp":9527,"CV":9528,"Ġunity":9529,"alf":9530,"ĠPen":9531,"View":9532,"KL":9533,"Ġ()":9534,"ĠMcC":9535,"cellcolor":9536,"bition":9537,"Ġpeace":9538,"ĠMont":9539,"Ġspeaking":9540,"Ġencounter":9541,"Ġefficiently":9542,"hel":9543,"holds":9544,"Ġattend":9545,"Star":9546,"ĠMean":9547,"ĠMas":9548,"Ġimaginary":9549,"ĠTr":9550,"Ġjobs":9551,"alaxy":9552,"bour":9553,"){$":9554,")/\\":9555,"ĠSummer":9556,"ĠTa":9557,"Ġmanaged":9558,"Ġdownload":9559,"Ġbridge":9560,"ENT":9561,"1975":9562,"Ġvariability":9563,"Ġexperiences":9564,"iance":9565,"Ġdeterministic":9566,"ĠSwed":9567,"ĠHenry":9568,"'d":9569,"ĠConference":9570,"Ġamounts":9571,"Ġseeing":9572,"Ġaccum":9573,"Dist":9574,"Ġappearing":9575,"Ġfusion":9576,"Ġce":9577,"1974":9578,"Ġgl":9579,"Ġcommission":9580,"Ġrating":9581,"category":9582,"lind":9583,"uchy":9584,"odal":9585,"Ġglob":9586,"Ġargue":9587,"ĠFamily":9588,"Ġcohomology":9589,"Ġweather":9590,"Ġapart":9591,"DBLP":9592,"Ġproofs":9593,"Fin":9594,"ĠSecurity":9595,"Ġdefense":9596,")~\\":9597,"ĠUkraine":9598,"GG":9599,"ĠBell":9600,"Ġmotor":9601,"Ġaccepted":9602,"ishop":9603,"encing":9604,"Ġforest":9605,"Ġinvi":9606,"Ġrelativistic":9607,"phone":9608,"Ġgiant":9609,"ranes":9610,"itan":9611,"Form":9612,"Ġparametri":9613,"ĠEnter":9614,"fr":9615,"fying":9616,"Ġlimiting":9617,"Ġpercentage":9618,"convex":9619,"Ġpref":9620,"laps":9621,"ĠThrough":9622,"Ġcrystal":9623,"coordinate":9624,"Ġdisplayed":9625,"Ġscored":9626,"Ġmal":9627,"ĠNewton":9628,"ĠInternet":9629,"ĠMiddle":9630,"Ġstandards":9631,"who":9632,"Ġbelieved":9633,"Long":9634,"tise":9635,"Ġcontinuity":9636,"ĠReal":9637,"oston":9638,"}{*}{$":9639,"DI":9640,"})}\\":9641,"Ġholomorphic":9642,"Ġbits":9643,"Ġenvelop":9644,"Ġsegments":9645,"Ġextraction":9646,"ican":9647,"Ġbiggest":9648,"Ġ)$":9649,"Ġmiles":9650,"cluster":9651,"ractive":9652,"Ġchains":9653,"gtr":9654,"consider":9655,"Ġachieves":9656,",(":9657,"Ġspl":9658,"SB":9659,"........":9660,"EW":9661,"cov":9662,"worth":9663,"conj":9664,"}$$":9665,"Ġtag":9666,"Ġtension":9667,"hio":9668,"*{-":9669,"Ġproposal":9670,"Ġarms":9671,"adj":9672,"Conclusion":9673,"Ġsho":9674,"orders":9675,"Ġadministration":9676,"Ġleadership":9677,"bottomrule":9678,"unte":9679,"incre":9680,"pur":9681,"temporary":9682,"Not":9683,"ĠAL":9684,"Ġcommutative":9685,"don":9686,"'.":9687,"Ġtens":9688,"1973":9689,"Ġhelpful":9690,"Ġexpanded":9691,"ĠGalactic":9692,"aug":9693,"ĠForm":9694,"good":9695,"ups":9696,"ĠAnn":9697,"+|":9698,"Ġremote":9699,"}.$":9700,"Rev":9701,"Ġauxiliary":9702,"Ġrectangle":9703,"Why":9704,"ĠAP":9705,"uple":9706,"Ġclassic":9707,"written":9708,"Ġmountain":9709,"biggl":9710,"Lo":9711,"Ġmanifolds":9712,"Ġdiscovery":9713,"Ġgun":9714,"Ġblog":9715,"Ġedition":9716,"Ġreplic":9717,"Ġserves":9718,"Ġclients":9719,"____":9720,"Up":9721,"Ġconcerned":9722,"\";":9723,"correct":9724,"quantum":9725,"Ġcomputations":9726,"gls":9727,"1950":9728,"Ġcuts":9729,"ulo":9730,"tility":9731,"Ġpreced":9732,"Ġabstract":9733,"Ġsav":9734,"ben":9735,"ĠConsequently":9736,"ĠCT":9737,"Ġmusical":9738,"inson":9739,"ĠPop":9740,"Ġbeat":9741,"Ġds":9742,"Ġprotest":9743,"expected":9744,"Ġcolle":9745,"Ġbond":9746,"ĠSports":9747,"Multi":9748,"Ġcyclic":9749,"Ext":9750,"Object":9751,"ias":9752,"ĠInd":9753,"separ":9754,"nic":9755,"Ġprepared":9756,"ĠIran":9757,"spaces":9758,"textstyle":9759,"Ġfermions":9760,"ĠBayesian":9761,"Var":9762,"because":9763,"colhead":9764,"ĠReport":9765,"ĠThursday":9766,"Ġbid":9767,"compact":9768,"),(":9769,"Ġfell":9770,"ĠGrant":9771,"corresponding":9772,"Ġalignment":9773,"Ġdeveloper":9774,"fast":9775,"Ġteles":9776,"Ġweap":9777,"Ġeigens":9778,"Ġsettle":9779,"Ġadapted":9780,"ĠDar":9781,"Ġdisp":9782,"Ġhomotopy":9783,"Ġdrift":9784,"Ġ==":9785,"Method":9786,"Ġnotes":9787,"}}}{\\":9788,"vy":9789,"Ġaims":9790,"Ġneighbors":9791,"Ġstreet":9792,"Ġclouds":9793,"Before":9794,"aki":9795,"ĠNet":9796,"Ġ\\:":9797,"Bas":9798,"Ġlogic":9799,"lability":9800,"Ġshifts":9801,"ĠNAS":9802,"ataset":9803,"Indeed":9804,"Ġlocalization":9805,"cers":9806,"ĠOrgan":9807,"character":9808,"ĠUs":9809,"ĠPolice":9810,"ylvan":9811,"Ġprocedures":9812,"pq":9813,"ĠNotice":9814,"ĠDigital":9815,"Ġdepartment":9816,"Ġresistance":9817,"resolution":9818,")<":9819,"formula":9820,"Ġsexual":9821,"orel":9822,"Sta":9823,"Ġsoci":9824,"ĠLog":9825,"vate":9826,"Ġofficer":9827,"changed":9828,"Ġensures":9829,"Ġcompletion":9830,"ĠGM":9831,"ĠDan":9832,"ĠAbout":9833,"Ġsynchron":9834,"Ġcla":9835,"Ġboy":9836,"Ġnar":9837,"Ġlived":9838,"ĠBased":9839,"Ġacquired":9840,"Ġalbums":9841,"Ġvariant":9842,"Ġclock":9843,"analy":9844,"ĠChristmas":9845,"both":9846,"Ġeffectiveness":9847,"Ġwhe":9848,"arse":9849,"ĠRun":9850,"Ġnuclei":9851,"Ġradii":9852,"ĠMedical":9853,"Ġobservational":9854,"ĠMet":9855,"yal":9856,"Ġrestrictions":9857,"frequency":9858,"Ġconsecutive":9859,"onto":9860,"Ġfuel":9861,"ĠRadio":9862,"orrow":9863,"itian":9864,"Ġbinding":9865,"Ġsatellite":9866,"config":9867,"Ġdoll":9868,"Ġplanets":9869,"itting":9870,"Ġsummarized":9871,"bibliographystyle":9872,"essel":9873,"ĠLord":9874,"ĠPy":9875,"user":9876,"ĠLim":9877,"Ġera":9878,"Ġcorrectly":9879,"ĠCA":9880,"tatively":9881,"Ġsession":9882,"ĠAdam":9883,"biggr":9884,"ĠBrazil":9885,"Ġduality":9886,"adic":9887,"Ġproducing":9888,"ĠSE":9889,"High":9890,"105":9891,"ĠStudies":9892,"Ġ$-\\":9893,"ilt":9894,"]^{\\":9895,"tains":9896,"ĠNi":9897,"background":9898,"Ġdele":9899,"Ġteacher":9900,"Ġroles":9901,"Ġexplored":9902,"Ġerg":9903,"=#":9904,"bol":9905,"entations":9906,"hr":9907,"Ġexpensive":9908,"Ġbroadcast":9909,"deriv":9910,"GAN":9911,"cp":9912,"Ġsouthern":9913,"ĠHead":9914,"kk":9915,"emb":9916,"channel":9917,"Ġpractices":9918,"shape":9919,"Ġnewly":9920,"1972":9921,"Ġbandwidth":9922,"ĠAdv":9923,"Ġcustomer":9924,"Thm":9925,"riction":9926,"ĠWednesday":9927,"relax":9928,"Ġconverge":9929,"Ġhomomorphism":9930,"Ġ\\|_{":9931,"Ġpsych":9932,"]{./":9933,"Ġhab":9934,"Ġtotally":9935,"BT":9936,"Ġthousands":9937,"ĠMach":9938,"ĠBow":9939,"-{\\":9940,"ĠJes":9941,"Ġsole":9942,"Ġextensions":9943,"NP":9944,"ĠExample":9945,"osis":9946,"ansas":9947,"^*}":9948,"comment":9949,"Ġvulner":9950,"ĠIP":9951,"tist":9952,"ledgements":9953,"Ġescape":9954,"network":9955,"ĠEU":9956,"ĠSand":9957,"efficient":9958,"ĠGir":9959,"Ġdifficulty":9960,"Ġdamp":9961,"oster":9962,"Ġbene":9963,"ountry":9964,"inian":9965,"tors":9966,"tier":9967,"rations":9968,"ossi":9969,"continuous":9970,"ĠColumb":9971,"oulomb":9972,"Ġconcrete":9973,"coloneqq":9974,"NL":9975,"tioned":9976,"driven":9977,"sn":9978,"cceed":9979,"Ġawarded":9980,"$^{\\":9981,"Ca":9982,"ĠJud":9983,"partite":9984,"Ġ\\,.":9985,"gon":9986,"Ġbed":9987,"ĠEngineering":9988,"Ġsight":9989,"aria":9990,"Ġdelivery":9991,"^{{\\":9992,"design":9993,"Ġconnecting":9994,"Ġtrip":9995,"Ġmunici":9996,"momentum":9997,"Ġriver":9998,"Ġcum":9999,"ĠIndust":10000,"adi":10001,"Ġchair":10002,"Ġdipole":10003,"Ġsequential":10004,"HI":10005,"ĠHu":10006,"ped":10007,"ĠNon":10008,"Book":10009,"Ġfacili":10010,"quar":10011,"ĠMah":10012,"elding":10013,").$$":10014,"Ġscope":10015,"iser":10016,"ĠMS":10017,"Ġcong":10018,"}{$":10019,"+}":10020,"ĠIll":10021,"Ġmarkets":10022,"vc":10023,"tities":10024,"\":":10025,"ying":10026,"ĠFund":10027,"Ġqubit":10028,"ĠWilliams":10029,"ĠFederal":10030,"ĠNorthern":10031,"ermitian":10032,"Ġtopics":10033,"Ġholding":10034,"ĠKim":10035,"Ġslowly":10036,"ĠLocal":10037,"mond":10038,"object":10039,"ĠLearning":10040,"Ġopinion":10041,"Example":10042,"Ġ},":10043,"ssue":10044,"Ġinteracting":10045,"ĠHear":10046,"cular":10047,"Ġowner":10048,"Sol":10049,"Ġsquares":10050,"Ġnative":10051,"]}\\":10052,"critical":10053,"Ġheating":10054,"uated":10055,"Ġcombine":10056,"Ġelectromagnetic":10057,"oug":10058,"Ġoutflow":10059,"Ġuniversity":10060,"ricket":10061,"Ġattempts":10062,"112":10063,"enger":10064,"Ġvar":10065,"ois":10066,"ĠJeff":10067,"Ġplants":10068,"etary":10069,"ĠSouthern":10070,"htb":10071,"outs":10072,"ĠFun":10073,"different":10074,"Ġappreci":10075,"wang":10076,"Ġoffset":10077,"ĠSNR":10078,"olean":10079,"iano":10080,"Ġdetectors":10081,"Ġvirus":10082,"quality":10083,"Ġest":10084,"Ġking":10085,"xymatrix":10086,"Ġdetermination":10087,"ĠLike":10088,"haus":10089,"Ġfacility":10090,"riptions":10091,"md":10092,"Ġimprovements":10093,"Ġmicrosc":10094,"Ġjets":10095,"ĠSign":10096,"ĠFish":10097,"Ġencoding":10098,"Ġnorthern":10099,"ĠThree":10100,"udinal":10101,"Ġsubsequently":10102,"ilistic":10103,"Ġbath":10104,"Ġbodies":10105,"Don":10106,"Ġdil":10107,"*}\\":10108,"shell":10109,"ĠPA":10110,"ĠLabor":10111,"ĠLight":10112,"Ġoccurred":10113,"Ro":10114,"}$),":10115,"cks":10116,"iso":10117,"Ġphotograph":10118,"Ġprotected":10119,"liminary":10120,"Definition":10121,"Ġissued":10122,"total":10123,"oon":10124,"Ġampl":10125,"Ġfluxes":10126,"Ġstored":10127,"ĠFort":10128,"Ġtack":10129,">$":10130,"larg":10131,"Most":10132,"Ġmeant":10133,"Ġreveals":10134,"ylvania":10135,"protect":10136,"gtrsim":10137,"positive":10138,"Ġsale":10139,"ĠNevertheless":10140,"Based":10141,"versely":10142,"Ġbrings":10143,"ĠRE":10144,"nings":10145,"Ġcomfor":10146,"ĠAndrew":10147,"Ġanten":10148,"Ġisotropic":10149,"360":10150,"Ġacademic":10151,"Ġlengths":10152,"ockey":10153,"Ġthickness":10154,"Ġplatforms":10155,"icious":10156,"};\\":10157,"ĠPhil":10158,"riers":10159,"global":10160,"Sing":10161,"choose":10162,"Ġminimize":10163,"Ġdecla":10164,"Den":10165,"):=":10166,"amond":10167,"lbrace":10168,"Ġhappy":10169,"charge":10170,"viously":10171,"Ġdetermining":10172,"ĠSea":10173,"Ġgender":10174,"hook":10175,"Ġwalls":10176,"+$":10177,"Ac":10178,")},\\":10179,"UE":10180,"ĠScott":10181,"Will":10182,"Ġraw":10183,"vectors":10184,")~":10185,"HH":10186,"ĠColor":10187,"Ġmys":10188,"Ġrestrict":10189,"ĉčĊ":10190,"manifold":10191,"ĠWhy":10192,"ĠUN":10193,"Ġformally":10194,"sinh":10195,"rome":10196,"Ġacknowled":10197,"Ð¾Ð":10198,"$--":10199,"Ġcounting":10200,"Ġfund":10201,"Mus":10202,"NRAS":10203,"Sw":10204,"Ġmonitoring":10205,"ĠCorpor":10206,"Ġmeasuring":10207,"scalebox":10208,"ĠRead":10209,"TM":10210,"ĠCL":10211,"enerate":10212,"abeth":10213,"ĠAff":10214,"Sm":10215,"commu":10216,"Jan":10217,"Ġcounty":10218,"aturing":10219,"itage":10220,"}}_\\":10221,"Ġmodular":10222,"Ġfunds":10223,"usted":10224,"ĠFour":10225,"INE":10226,"\\'{":10227,"Ġhumans":10228,"ĠHD":10229,"OI":10230,"Ġmob":10231,"fm":10232,"organ":10233,"reds":10234,"siders":10235,"constant":10236,"Ġgrows":10237,"title":10238,"ito":10239,"Ġreligious":10240,"theast":10241,"ĠTal":10242,"stances":10243,"Ġ?":10244,"^*(\\":10245,"ĠPacific":10246,"&+":10247,"Ġrigid":10248,"Ġsucceed":10249,"town":10250,"pson":10251,"ĠAdminist":10252,"ĠCos":10253,"ĠAlice":10254,"Ġletters":10255,"ZZ":10256,"parts":10257,"|{\\":10258,"Ġconsequences":10259,"Ġsti":10260,"Ġap":10261,"ĠMichigan":10262,"Ġbins":10263,"}$:":10264,"Ġexperts":10265,"Ġsubjects":10266,"Ġphenomena":10267,"zi":10268,"ĠUl":10269,"]\\\\":10270,"Main":10271,"eping":10272,"ĠSenate":10273,"Ġcritic":10274,"ĠkeV":10275,"ĠWho":10276,"Ġstim":10277,"ication":10278,"ĠDev":10279,"Ġcoincides":10280,"Ġvictory":10281,"Ġterrit":10282,"Ġconcerning":10283,"Ġshares":10284,"Ġcrew":10285,"isition":10286,"Ġmel":10287,"Ġarrive":10288,"}.$$":10289,"Ġprominent":10290,"ĠCir":10291,"Ġ(.":10292,"Ġsymplectic":10293,"Ġresponses":10294,"Ġexperienced":10295,"dynamic":10296,"exact":10297,"Ġvaries":10298,"Read":10299,"allen":10300,"ĠJon":10301,"RF":10302,"auss":10303,"Ġperformances":10304,"Ġindustrial":10305,"bining":10306,"ĠSpain":10307,"Ġoperated":10308,"ulative":10309,"Ġadaptive":10310,"ĠRight":10311,"Ġsett":10312,"Ġped":10313,"Ġens":10314,"ĠImage":10315,"Ġtruly":10316,"Ġcontroller":10317,"Ġcere":10318,"Ġequally":10319,"ymmetric":10320,"Ġoccasion":10321,"Ġadmit":10322,"Ġho":10323,"ĠCer":10324,"Ġtransformed":10325,">>":10326,"ĠLiber":10327,"Ġspring":10328,"Ġoffering":10329,"ĠUniverse":10330,"ĠSF":10331,"Ġknows":10332,"Ġofficers":10333,"Ġseat":10334,"Ġcrisis":10335,"Ġthread":10336,"Ġpole":10337,"Ġcompression":10338,"cipl":10339,"Ġqueries":10340,"ĠDespite":10341,"Ġregarded":10342,"}{!":10343,"UN":10344,"ASS":10345,"rix":10346,"ĠGW":10347,"$^\\":10348,"Ġarrival":10349,"cosh":10350,"Ġentity":10351,"/>":10352,"Ġtrends":10353,"Ġgone":10354,"ashi":10355,"Ġinsight":10356,"Ġquantitative":10357,"qed":10358,"oned":10359,"Ġcollective":10360,"}}}}":10361,"Ġcomprehensive":10362,"ominated":10363,"ova":10364,"odge":10365,"ropical":10366,"Ġlists":10367,"Ġassignment":10368,"Last":10369,"iy":10370,"Ġvon":10371,"Ġskin":10372,"inten":10373,"Ġadvertis":10374,"1971":10375,"Ġexponentially":10376,"ĠProof":10377,"Ġcontamin":10378,"Ġrobustness":10379,"))=":10380,"ĠAuthor":10381,"trim":10382,"Notice":10383,"thin":10384,"cludes":10385,"limit":10386,"Ġverified":10387,"Ġpipeline":10388,"Ġentered":10389,"Ġaccessible":10390,"'-":10391,"viet":10392,"Ġfewer":10393,"Ġplanned":10394,"Ġconflict":10395,"Ġcenters":10396,"jan":10397,"iet":10398,"Cs":10399,"pin":10400,"Ġvot":10401,"ĠFrancisco":10402,"hn":10403,"oustic":10404,"ĠTest":10405,"Ġwait":10406,"Ġbare":10407,"ucky":10408,"Ġlocalized":10409,"Ġrender":10410,"Ġfavorite":10411,"ospit":10412,"Ġdegenerate":10413,"Ġsoldi":10414,"Ġapproximations":10415,"Ġurban":10416,"sun":10417,"Ġregional":10418,"Ġven":10419,"Ġincreasingly":10420,"abolic":10421,"Ġexploration":10422,"Ġinjury":10423,"ĠConf":10424,")}=\\":10425,"Ġpersist":10426,"Ġscan":10427,"Ġcomposite":10428,"ĠHo":10429,"aching":10430,"urated":10431,"Ġhair":10432,"Ġsubgraph":10433,"Ġconvention":10434,"Ġtalking":10435,"homogeneous":10436,"ĠMA":10437,"ĠMinistry":10438,"})^{\\":10439,"Ġexplains":10440,"enture":10441,"Ġguarantees":10442,",}":10443,"tism":10444,"Ġconcern":10445,"PN":10446,"Ġcutoff":10447,"dden":10448,"plex":10449,"CI":10450,"Ġbranches":10451,"ĠAmazon":10452,"Ġsupposed":10453,"Ġmodification":10454,"1968":10455,"Ġseek":10456,"Ġuniquely":10457,"Ġobtaining":10458,"BD":10459,"emi":10460,"Ġassessment":10461,"ĠHospital":10462,"ĠĠĠĠĠĠĠĠĠĠĠĠĠĠĠĠĠĠ":10463,"Ġvice":10464,"Ġaccurately":10465,"Ġsell":10466,"uous":10467,"Ġsimplified":10468,"ĠField":10469,"emical":10470,"Ġdeviations":10471,"move":10472,"Ġcharacterization":10473,"ĠMike":10474,"Ġjourney":10475,"Ġconjugate":10476,"Ġcubic":10477,"ĠAND":10478,"Ġmini":10479,"ĠĠĠĠĠĊ":10480,"ĠRepublican":10481,"ĠĠĠĠĠĠĠĠĊ":10482,"diagram":10483,"}\\,,":10484,"sylvania":10485,"Ġsingularities":10486,"mentioned":10487,"Ġmechanics":10488,"^{*}":10489,"Ġshapes":10490,"Ġparad":10491,"linder":10492,"Ġsinger":10493,"ĠStan":10494,"distance":10495,"Ġbrightness":10496,"1969":10497,"''.":10498,"usi":10499,"})}{":10500,"pf":10501,"Ġasymptotically":10502,"Ġster":10503,"Ġregularity":10504,"forma":10505,"ounded":10506,"Ġinstitutions":10507,"eeq":10508,"Ġpose":10509,"KK":10510,"Wh":10511,"Ġles":10512,"standard":10513,"Ġvariational":10514,"rene":10515,"omestic":10516,"ĠBon":10517,"Ġproportion":10518,"atever":10519,"Ġtunnel":10520,"ĠNight":10521,"rbrace":10522,"MI":10523,"=}":10524,"Ġsevere":10525,"translation":10526,"TA":10527,"Ġcitizens":10528,"Ġasymmetry":10529,"âĢ¢":10530,"ĠCov":10531,"ĠMain":10532,"Ġreaching":10533,"umann":10534,"version":10535,"Ġexpanding":10536,"Ġphon":10537,"ĠControl":10538,"ĠRic":10539,"Ġfilters":10540,"Ga":10541,"raisebox":10542,"Ġultimately":10543,"Ġtwist":10544,"ien":10545,"Ġlogarithmic":10546,"Ġmental":10547,"Ġchose":10548,"ampion":10549,"FI":10550,"ĠTele":10551,"grade":10552,"iana":10553,"acknow":10554,"~{\\":10555,"Ġhers":10556,"estimate":10557,"Ġrelies":10558,"lov":10559,"isons":10560,"ĠIrish":10561,"Ġnoisy":10562,"ĠAsian":10563,"chester":10564,"Ġpolym":10565,"Ġanimal":10566,"ĠShi":10567,"}})\\":10568,"Ġdecide":10569,"Ġnoting":10570,"Fi":10571,"Ġexpert":10572,"family":10573,"ĠJewish":10574,"Ġindependence":10575,"Ġreceiving":10576,"Ġcausal":10577,"maxim":10578,"Ġmodeled":10579,"Ġmarketing":10580,"MNRAS":10581,"neut":10582,"Ġforming":10583,"ĠGreek":10584,"gt":10585,"urer":10586,"Ġqubits":10587,"die":10588,"ĠDR":10589,"Acc":10590,"Ġ{}":10591,"warz":10592,"Ġfamiliar":10593,"Ġimproves":10594,"Ġmomenta":10595,"Ġrecognized":10596,"ĠSaint":10597,"Ġusage":10598,"SW":10599,"ĠGR":10600,"Ġradiative":10601,"entic":10602,"Ġsla":10603,"Ġpublication":10604,"Ġtournament":10605,"Ġexecutive":10606,"-$\\":10607,"ĠCamb":10608,"Ġadvoc":10609,"radius":10610,"Ġgar":10611,"ĠMarket":10612,"underbrace":10613,"Ġowned":10614,"ĠSky":10615,"bing":10616,"Ġserving":10617,"rap":10618,"Ġchapter":10619,"ĠGeorgia":10620,"Add":10621,"Ġbasketball":10622,"ĠFl":10623,"Ġclick":10624,"Ġmaybe":10625,"Ġfails":10626,"Ġaddressed":10627,"rically":10628,"ĉĠ":10629,"ĠPrem":10630,"hes":10631,"Ġmirror":10632,"ials":10633,"define":10634,"Ġwriters":10635,"Ġroun":10636,"{|\\":10637,"okes":10638,"stellar":10639,"Ke":10640,"Ġpal":10641,"})^{-":10642,"xygen":10643,"|}{\\":10644,"Ġquarks":10645,"Ġsurveys":10646,"nas":10647,"aware":10648,"Key":10649,"Ġboxes":10650,"start":10651,"~~~~~~~~":10652,"Ġyouth":10653,"orney":10654,"Ġbuff":10655,"Ġannihi":10656,"ient":10657,"ĠBang":10658,"gar":10659,"icular":10660,"Ġresulted":10661,"pat":10662,"($\\":10663,"ĠIma":10664,"Ġresolved":10665,"Ġexhibits":10666,"Ġoriented":10667,"Ġfifth":10668,"Ġaccompl":10669,"Ġnontrivial":10670,"orate":10671,"ĠSup":10672,"ĠBoston":10673,"Ġlimitations":10674,"Ġrequiring":10675,"Ġnavig":10676,"language":10677,"Ġattributes":10678,"chest":10679,"disc":10680,"ĠLHC":10681,"Ġcrime":10682,"_{|":10683,"match":10684,"Gr":10685,"Ġidentifying":10686,"sites":10687,"ĠAmericans":10688,"Ġremoving":10689,"Ġpin":10690,"ĠJackson":10691,"ME":10692,"jet":10693,"Ġflavor":10694,"ĠJustice":10695,"ĠStep":10696,"gue":10697,"Test":10698,"Ġaffor":10699,"Ġchecked":10700,"OO":10701,"Ġgradients":10702,"ĠAtt":10703,"next":10704,"ĠAU":10705,"ĠStandard":10706,"ĠIT":10707,"abatic":10708,"ĠProfessor":10709,"Ġvaluable":10710,")$}":10711,"Ġ)\\":10712,"Ġpenalty":10713,"dev":10714,"ĠKa":10715,"dor":10716,"Ġschedule":10717,"ĠAsh":10718,"Ġmargin":10719,"Ġathle":10720,"gged":10721,"ticed":10722,"Ġkinds":10723,"Bra":10724,"Ġrecovered":10725,"ĠSurvey":10726,"Ġviolence":10727,"abric":10728,"processing":10729,"ruption":10730,"Ġrout":10731,"tie":10732,"bury":10733,"}$~":10734,"ĠGro":10735,"ilinear":10736,"Ġhousing":10737,"Ġkick":10738,"ĠBul":10739,"Ġequivalently":10740,"Ġlifetime":10741,"Ġarbitr":10742,"270":10743,"Ġarising":10744,"itors":10745,"ĠLittle":10746,"ĠCarl":10747,"ĠDir":10748,"ĠOk":10749,"ĠDE":10750,"Ġstrings":10751,"ĠOhio":10752,"vacy":10753,"Ġdecade":10754,"Ġarrived":10755,"Ġsand":10756,"ĠNC":10757,"Ġimproving":10758,"Ġpromising":10759,"Ġrear":10760,"athan":10761,"Ġanomaly":10762,"Ġris":10763,"Ġsuppressed":10764,"Ġsudden":10765,"Ġphotometric":10766,"Ġconvolutional":10767,"otes":10768,")$)":10769,"Ġapproximated":10770,"Ġ$\\|\\":10771,"achel":10772,"Ġcompi":10773,"sequence":10774,"Ġshorter":10775,"Ġmic":10776,"Ġattached":10777,"Every":10778,"'}(":10779,"Best":10780,"ĠLatin":10781,"initial":10782,"associ":10783,"Ġtransi":10784,"nit":10785,"cost":10786,"Ġcompetitive":10787,"Even":10788,"Gaussian":10789,"ĠEC":10790,"Ġreverse":10791,"ĠBud":10792,"Ġingre":10793,"ĠeV":10794,"friend":10795,"Ġgraded":10796,"ĠLipschitz":10797,"700":10798,"Gen":10799,"Supp":10800,"\"><":10801,"Ġbarrier":10802,"Ġelev":10803,"Ġcompla":10804,"\\\"{":10805,"!âĢĿ":10806,"ributions":10807,"Ġparity":10808,"Ġshifted":10809,"ĠDemocratic":10810,"ĠCivil":10811,"ĠFac":10812,"vdash":10813,"Ġcompletes":10814,"olis":10815,"Log":10816,"rev":10817,"ĠQueen":10818,"wart":10819,"cated":10820,"ĠOlymp":10821,"ĠDri":10822,"Vol":10823,"Ġama":10824,"Ġconservative":10825,"Ġsket":10826,"ĠFood":10827,"Ġagreed":10828,"Work":10829,"Ġobtains":10830,"Ġconfirm":10831,"lient":10832,"words":10833,"Ġargued":10834,"perty":10835,"scrib":10836,"Ġrein":10837,"1967":10838,"}\\)":10839,"ĠCast":10840,"Sa":10841,"Ġdisks":10842,"Ġ{{":10843,"Ġunable":10844,"ĠKorea":10845,"linec":10846,"Ġimposed":10847,"Ġmultipl":10848,"Ġadjoint":10849,"OV":10850,"Ġancient":10851,"Ġfeeling":10852,"into":10853,"ĠMedicine":10854,"Ġaw":10855,"Ġmultiplicity":10856,"Ġproving":10857,"aked":10858,"algorithmic":10859,"rea":10860,"ĠPi":10861,"Ġabsolutely":10862,"Fix":10863,"Ġepochs":10864,"ĠDeep":10865,"oher":10866,"periodic":10867,"ATION":10868,"Ġkill":10869,"Ġsister":10870,"phia":10871,"Ġdie":10872,"Ġpreferred":10873,"Ġoverview":10874,"Ġreproduce":10875,"Red":10876,"ĠDun":10877,"uble":10878,"abin":10879,"ĠSyn":10880,"}'$":10881,"Ġspins":10882,"Ġjudge":10883,"Image":10884,"Ġthereby":10885,"diagonal":10886,"elly":10887,"+{\\":10888,"Ġdiscrepan":10889,"}=-":10890,"ichlet":10891,"ĠNam":10892,"angled":10893,"ĠInf":10894,"Ġfear":10895,"Ġinstrument":10896,"Ġsin":10897,"Ġvariants":10898,"dl":10899,"}):":10900,"Ġincl":10901,"ceq":10902,"ologically":10903,"Step":10904,"izabeth":10905,"Ġdropped":10906,"aches":10907,"Ġwaiting":10908,"Ġconversion":10909,"ĠMaster":10910,"lasg":10911,"Ġadditive":10912,"ĠĠĠĠĠĠĠĠĠĠĠĠĠĠĠĠĠĠĠĠ":10913,"Ġliber":10914,"ĠEr":10915,"$}\\":10916,"Ben":10917,"may":10918,"Ġretail":10919,"ĠProdu":10920,"Ġmerger":10921,"these":10922,"auty":10923,"Ġdim":10924,"ĠFire":10925,"ĠDa":10926,"nals":10927,"ĠPers":10928,"Ġdrama":10929,"ĠMountain":10930,"idelity":10931,"ĠPoint":10932,"boundary":10933,"lets":10934,"photon":10935,"ĠPS":10936,"Ġextinction":10937,"Ġpolitics":10938,"ĠPrime":10939,"Ġwealth":10940,"ĠBefore":10941,"Ġfant":10942,"pool":10943,"Ġongoing":10944,"riate":10945,"ailability":10946,"ifer":10947,"Ġoperate":10948,"ĠSimilar":10949,"Ġacid":10950,"ĠEnvironment":10951,"ĠĠĠĠĠĠĠĊ":10952,"Ġmotivated":10953,"}}^\\":10954,"Ġsees":10955,"ĠJersey":10956,"hibit":10957,"Ġremainder":10958,"Ġmanage":10959,"rites":10960,"Ġoptimized":10961,"Ġseasons":10962,"Ġalumni":10963,"Ra":10964,"show":10965,"istration":10966,"Ġreceiver":10967,"Ġreactions":10968,"ĠExec":10969,"Ġtransferred":10970,"burgh":10971,"reement":10972,"ĠFair":10973,"bn":10974,"assification":10975,"ĠNN":10976,"Ġscaled":10977,"ĠDub":10978,"Ġinterpolation":10979,"Ġwinner":10980,"Ġhelping":10981,"ĠPhot":10982,"ĠPennsylvania":10983,"Vis":10984,"Ã³n":10985,"))$,":10986,"kg":10987,"Ġadapt":10988,"Ġshor":10989,"mix":10990,"ĠCoulomb":10991,"Ġkid":10992,"fixed":10993,"fla":10994,"Ġvortex":10995,"Ġpurchase":10996,"Ġmeasurable":10997,"ounger":10998,"@{}}":10999,"ĠAmong":11000,"natural":11001,"Ġadaptation":11002,"ĠBlo":11003,"dh":11004,"Ġobviously":11005,"Ġdesigns":11006,"esh":11007,"102":11008,"Ġconstitu":11009,"racle":11010,"Ġcharacterize":11011,"oni":11012,"Ġsimplest":11013,"ĠVari":11014,"Ġtoken":11015,"Ġ(\"":11016,"anna":11017,"Ġrev":11018,"ĠRh":11019,"corr":11020,"Ġyellow":11021,"Ġreconstructed":11022,"ĠLive":11023,"curve":11024,"Ġgreatest":11025,"Ġopposed":11026,"Ġdisplacement":11027,"Ġneutrinos":11028,"ĠSong":11029,"comparison":11030,"Ġcapabilities":11031,"Ġsport":11032,"correlation":11033,"ego":11034,"parent":11035,"pendicular":11036,"likely":11037,")$$":11038,"Ġaid":11039,"prim":11040,"ĠJordan":11041,"ĠWales":11042,"ĠBla":11043,"states":11044,"Ġcrash":11045,"ĠWeyl":11046,"uri":11047,"Ġlose":11048,"Ġcolon":11049,"Ġpairing":11050,"Ġ(+":11051,"inois":11052,"[]":11053,"Ġstem":11054,"hyp":11055,"Ġcouldn":11056,"ĠBiden":11057,"Ġreaders":11058,"Ġhierarchy":11059,"yo":11060,"Ġha":11061,"Ġpreserve":11062,"Ġproducer":11063,"icks":11064,"pled":11065,"orous":11066,"ĠRepres":11067,"frag":11068,"mpic":11069,"aya":11070,"enter":11071,"icially":11072,"Ġsup":11073,"Ġviolation":11074,")}}\\":11075,"Ġperman":11076,"PG":11077,"Ġbranching":11078,"ĠWell":11079,"ĠMD":11080,"Ġii":11081,"igroup":11082,"Ġhypothes":11083,"ticular":11084,"}$&":11085,"Ġsensors":11086,"Ġstuff":11087,"ĠJr":11088,"Ġsums":11089,"Ġobserving":11090,"Ġrevenue":11091,"ĠBrook":11092,"cop":11093,"Ġstanding":11094,"Ġmagnet":11095,"Ġflag":11096,"Ġepisodes":11097,"Ġtwe":11098,"Ġions":11099,"ĠCard":11100,"cosity":11101,"Ġwinter":11102,"issi":11103,"illation":11104,"Many":11105,"enses":11106,"Ġactors":11107,"Ġrings":11108,"115":11109,"Ġ\\\\\\":11110,"Ġcoincide":11111,"ĠÂ»":11112,"Ġthrow":11113,"lst":11114,"Ġentities":11115,"ĠOx":11116,"Ġpasses":11117,"ĠSpring":11118,"Ġscenes":11119,"Ġfairly":11120,"fmf":11121,"grid":11122,"Ġrotational":11123,"LU":11124,"Ġquantization":11125,"âĤ¬":11126,"Both":11127,"ĠFigs":11128,"utional":11129,"Ġsimpler":11130,"lar":11131,"Ġmutual":11132,"Ġleaf":11133,"cians":11134,"Ġrenew":11135,"illy":11136,"ĠTeV":11137,"ĠPhilipp":11138,"Ġherself":11139,"135":11140,"Ġsummarize":11141,"Ġprinciples":11142,"Ġarmy":11143,"Ġagency":11144,"gap":11145,"ĠCro":11146,"Ġvast":11147,"]}$":11148,"Graph":11149,"Ġvalidity":11150,"Ġalongside":11151,"ĠCat":11152,"ĠKong":11153,"\"/>":11154,"MO":11155,"ĠOlympics":11156,"Ġfestival":11157,"ĠTy":11158,"Ġinterests":11159,"CNN":11160,"ĠBat":11161,"((\\":11162,"region":11163,"Ġflav":11164,"),\\\\":11165,"Ġinvariants":11166,"ĠParliament":11167,"oma":11168,"Conn":11169,"Rad":11170,"classical":11171,"Ġseemed":11172,"bx":11173,"Ġbio":11174,"hs":11175,"Ġprovision":11176,"oured":11177,"Ġelections":11178,"Ġcontinuously":11179,"Ġsuscep":11180,"seen":11181,"Ġmitig":11182,"Ġranging":11183,"Ġrealization":11184,"Ġcro":11185,"lt":11186,"Ġshut":11187,"----------------":11188,"idance":11189,"Ġturning":11190,"Ġcurrents":11191,"far":11192,"Ġevident":11193,"Ġregardless":11194,"ĠKey":11195,"Ġgreatly":11196,"wp":11197,"Ġchart":11198,"ĠPakistan":11199,"ennis":11200,"}}}$}":11201,"Ġteaching":11202,"Early":11203,"caten":11204,"doi":11205,"ĠCoast":11206,"Ġfalls":11207,"},$":11208,"MSE":11209,"Ġprin":11210,"Ġaffects":11211,"*{\\":11212,"Ġattended":11213,"Ġbow":11214,"vance":11215,"Ġrotating":11216,"Ġconverted":11217,"Ġtemplate":11218,"Ġadvice":11219,"resol":11220,"Ġhero":11221,"ĠNavy":11222,"}\\,.":11223,"rgb":11224,"isa":11225,"Ġstrip":11226,"argeted":11227,"Ġperfectly":11228,"scatter":11229,"Ġta":11230,"cv":11231,"Ġspend":11232,"ĠRights":11233,"ĠKnow":11234,"lattice":11235,"marg":11236,"Ġgirls":11237,"Through":11238,"eduled":11239,"fg":11240,"equilibrium":11241,"}}{(":11242,"Cle":11243,"Ġhomes":11244,"Ġexperimentally":11245,"GHz":11246,"Ġdrum":11247,"Ġintroduces":11248,"heim":11249,"Ġimplications":11250,"ĠBroad":11251,"à¥":11252,"ĠHard":11253,"ddot":11254,"onav":11255,"Ġreti":11256,"Ġovercome":11257,"lates":11258,").$":11259,"ĠToday":11260,"Ġprimitive":11261,"Pl":11262,"Ġmagazine":11263,"ĠUse":11264,"ĠBS":11265,"Group":11266,"Ġyourself":11267,"Ġaveraging":11268,"Ġresidu":11269,"phy":11270,"Ġturbulence":11271,"ĠDefine":11272,"dynamics":11273,"Ġbattery":11274,"ĠPR":11275,"ĠCS":11276,"ĠWhere":11277,"Ġaccommod":11278,"orship":11279,"zes":11280,"iday":11281,"Conclusions":11282,"four":11283,"ĠBritain":11284,"Ġweekend":11285,"Ġartificial":11286,"Ġcompleteness":11287,"Ġidentities":11288,"Pri":11289,"ĠPage":11290,"vanish":11291,"Ġoxygen":11292,"stance":11293,"Ġending":11294,"[->":11295,"Ġraise":11296,"ithub":11297,"Ġprotot":11298,"Ġhealthy":11299,"Ġlift":11300,"rugs":11301,"beq":11302,"Ġwestern":11303,"Ġunlike":11304,"elli":11305,"Sto":11306,"ĠView":11307,"ĠBl":11308,"^*,":11309,"Ġcompl":11310,"Ġintegrating":11311,"ordon":11312,"Ġtorsion":11313,"ĠGPU":11314,"public":11315,"tons":11316,"1964":11317,"uality":11318,"Ġweaker":11319,"Ġconvenience":11320,"ĠUr":11321,"upsi":11322,"reets":11323,"ernels":11324,"Ġhomology":11325,"ications":11326,"ello":11327,"Ġdemonstrates":11328,"ĠAirport":11329,"named":11330,"Ġmort":11331,"ĠSecretary":11332,"350":11333,"dia":11334,"angular":11335,"512":11336,"Ġnm":11337,"uing":11338,"Ġallocation":11339,"ĠWithout":11340,"Ġages":11341,"ĠRen":11342,"ĠFuture":11343,"Â°":11344,"Ġnil":11345,"ĠLas":11346,"una":11347,"Ġconsistently":11348,"ĠBeach":11349,"mem":11350,"tures":11351,"ections":11352,"abi":11353,"Ġ\\%":11354,"Ġconsiders":11355,"104":11356,"Ġhundreds":11357,"Ġextending":11358,"Ġillustrates":11359,"Ġund":11360,"Text":11361,"Ġperturbative":11362,"ĠBru":11363,"Ġcalling":11364,"fficient":11365,"Sym":11366,"ologist":11367,"rceil":11368,"Ġassist":11369,"alo":11370,"ĠGRB":11371,"onavirus":11372,"})+":11373,"Ber":11374,"Ġreflected":11375,"VI":11376,"imple":11377,"making":11378,"\\%,":11379,"lceil":11380,"ĠBorel":11381,"Ġarbitrarily":11382,"track":11383,"pdate":11384,"potent":11385,"inton":11386,"Local":11387,"theo":11388,"ĠYang":11389,"eral":11390,"Mich":11391,"Plan":11392,"wind":11393,"fraction":11394,"electron":11395,"Ġconc":11396,"ĠKent":11397,"Ġreasoning":11398,"nesota":11399,"rk":11400,"1965":11401,"Ġdisturb":11402,"Ġcategor":11403,"Ġcommittee":11404,"upsilon":11405,"Bel":11406,"Ġful":11407,"ems":11408,"ĠGib":11409,"Ġpresid":11410,"Ġmarriage":11411,"Ġvaccine":11412,"Ġlongitudinal":11413,"etts":11414,"Mag":11415,"Source":11416,"vian":11417,"eras":11418,"ĠNO":11419,"Ġpreserves":11420,"ĠPhi":11421,"English":11422,"Ġmyself":11423,"Ġassets":11424,"Ġtoler":11425,"ador":11426,"evin":11427,"Ġheavily":11428,"Value":11429,"Ġmand":11430,"Ġfeaturing":11431,"Ġqualitative":11432,"rl":11433,"Ġactress":11434,"had":11435,"ĠMP":11436,"oser":11437,"grounds":11438,"}$\\\\":11439,"Ġanc":11440,"Pub":11441,"Ġpot":11442,"direction":11443,"MeV":11444,"near":11445,"Ġhistogram":11446,"ryst":11447,"neighb":11448,"Ġintelligence":11449,"proj":11450,"terms":11451,"ĠHong":11452,"compa":11453,"Ġrom":11454,"|}\\":11455,"Ġposted":11456,"func":11457,"IEEE":11458,"ĠWild":11459,"Ġpod":11460,"ĠLow":11461,"bles":11462,"Ġplanar":11463,"ĠRou":11464,"Ġmethodology":11465,"element":11466,"ĠPrince":11467,"Ġcash":11468,"Ġneurons":11469,"Ġredshifts":11470,"iers":11471,"Ġmagnitudes":11472,"Br":11473,"they":11474,"Ġsuggesting":11475,"ĠWis":11476,"Ġfactorization":11477,"Once":11478,"Ġthr":11479,"Ġtables":11480,"Ġburn":11481,"Ġbigger":11482,"118":11483,"stage":11484,")_\\":11485,"abilities":11486,"je":11487,"Ġrecru":11488,"ĠSystems":11489,"essions":11490,"1966":11491,"108":11492,"Â©":11493,"Ġreadily":11494,"ĠFull":11495,"Ġphilosoph":11496,"Ġlandscape":11497,"Ġreplacement":11498,"alling":11499,"ault":11500,")$;":11501,")-(":11502,"ĠEastern":11503,"Ġcycl":11504,"}),\\":11505,"omo":11506,"Ġadi":11507,"lywood":11508,"assumption":11509,"Line":11510,"Ġputting":11511,"rates":11512,"js":11513,"Ġexercise":11514,"iki":11515,"ĠBand":11516,"Ġranking":11517,"ĠBase":11518,"ifferent":11519,"Ġprojections":11520,"gas":11521,"kens":11522,"Ġabuse":11523,"ols":11524,"Ġcoarse":11525,"aton":11526,"Ġagric":11527,"ĠHan":11528,"yers":11529,"odic":11530,"half":11531,"ĠAli":11532,"Ġdefend":11533,"LD":11534,"ĠVo":11535,"Ġantici":11536,"Tube":11537,"Ġinvertible":11538,"Ġgamma":11539,"anner":11540,"arcsec":11541,"Ġreporting":11542,"ĠCra":11543,"OU":11544,"Ġdelivered":11545,",-.":11546,"ĠBoy":11547,"Ġdealing":11548,"Ġmodelling":11549,"ãĥ":11550,"Ġabundances":11551,"ĠTheatre":11552,"Ġcoherence":11553,"ĠPoli":11554,"Ġcontour":11555,"Ġassumes":11556,"Ġhundred":11557,"Ġdeterminant":11558,"ĠEdward":11559,"Ġmodulation":11560,"Ã§":11561,"fields":11562,"Ġcreates":11563,"entral":11564,"Ġadds":11565,"ĠRog":11566,"content":11567,"220":11568,"ĠTerm":11569,"Ġeverywhere":11570,"Ġsac":11571,"izers":11572,"ĠPra":11573,"Ġforth":11574,"Ġexcluded":11575,"Ġfo":11576,"target":11577,"Any":11578,"itecture":11579,"Ġinsights":11580,"Ġgrate":11581,"Due":11582,"ructive":11583,"Ġanswers":11584,"ĠNone":11585,"Ġstrugg":11586,"Lin":11587,"Ġenhancement":11588,"ĠDark":11589,"Ġsuperior":11590,"ĠHun":11591,"integral":11592,"dv":11593,"uz":11594,"ĠLew":11595,"ĠAut":11596,"Ġattribute":11597,"lah":11598,"Ġforecast":11599,"offs":11600,"Ser":11601,"shap":11602,"ĠOnline":11603,"onomy":11604,"Ġwaste":11605,"terior":11606,"Ġfocuses":11607,"Ġpromote":11608,"Ġade":11609,"weighted":11610,"1940":11611,"ĠAlexander":11612,"ĠMi":11613,"udy":11614,"information":11615,"ulates":11616,"David":11617,"satz":11618,"Ġinjection":11619,"MN":11620,"ĠCauchy":11621,"Ġauthorities":11622,"img":11623,"Ġtherein":11624,"Ġcarefully":11625,"tax":11626,"uu":11627,"ĠSR":11628,"Ġ}(":11629,"Ġdialog":11630,"best":11631,"Ġdance":11632,"uss":11633,"}}-\\":11634,"_{\\{":11635,"Ġimper":11636,"ĠSW":11637,"arded":11638,"Ġarchitectures":11639,"agers":11640,"ĠWhe":11641,".][]{":11642,"Fs":11643,"ĠDNA":11644,"Äģ":11645,"Ġtum":11646,"thon":11647,"Ġnur":11648,"Ġcommitted":11649,"wall":11650,"Ġinfection":11651,"GO":11652,".\\]":11653,"Bri":11654,"Ġdecoder":11655,"Ġcausing":11656,"Ġapproved":11657,"$~\\":11658,"Error":11659,"ĠStation":11660,"ĠOrig":11661,"ĠĠĠĠĠĠĠĠĠĠĠĠĠĠĠĠĠĠĠĠĠ":11662,"Ġdepar":11663,"ennes":11664,"\\,$":11665,"Ġmuse":11666,"idelines":11667,"]_{\\":11668,"Ġmyster":11669,"vas":11670,"ressing":11671,"Ġsquared":11672,"algebras":11673,"Ġstorm":11674,"Ġmanus":11675,"ĠIS":11676,"Ġcorrected":11677,"ĠCPU":11678,"Ġpairwise":11679,"Fun":11680,"Ġsuperconduct":11681,"rator":11682,"ĠTake":11683,"Ġphysically":11684,"rational":11685,"etrical":11686,"********":11687,"ĠArea":11688,"Ġinjective":11689,"Ġnucleus":11690,"viation":11691,"Ġthermodynamic":11692,"tized":11693,"Ġvolunte":11694,"ijk":11695,"005":11696,"Ġsimplify":11697,"ĠEmpire":11698,"Ġtheme":11699,"otic":11700,"Ġlosing":11701,"ez":11702,".\\,\\":11703,"Posted":11704,"Ġbelonging":11705,"Ġcontrary":11706,"ĠLater":11707,"Ġenvelope":11708,"Ġrealize":11709,"Ġyounger":11710,"Ġprogramme":11711,"Ġswim":11712,"}^{*":11713,"Ġrepeat":11714,"sho":11715,"valuation":11716,"Ġbringing":11717,"oids":11718,"ĠRod":11719,"Ġbases":11720,"Ġourselves":11721,"Dem":11722,"ĠAC":11723,"Ġmatched":11724,"relevant":11725,"Ġda":11726,".,][]{":11727,"ĠMuslim":11728,"Ġkernels":11729,"ĠMount":11730,"Ġforget":11731,"Such":11732,"etti":11733,"Related":11734,"Ġcalculating":11735,"Ġpreparation":11736,"db":11737,"upp":11738,"Ġcreative":11739,"ĠSoviet":11740,"ĠGuide":11741,"Ġevaluating":11742,"cn":11743,"1930":11744,"Ġdecou":11745,"Ġagrees":11746,"earing":11747,"Aust":11748,"Ġbosons":11749,"utri":11750,"ĠCommand":11751,"ĠBrand":11752,")\\|_{":11753,"Ġformulated":11754,"ĉĉĉĊ":11755,"Ġconsiderations":11756,"nock":11757,"Ġacknowledge":11758,"kar":11759,"ĠBor":11760,"Where":11761,"Ġgates":11762,"people":11763,"Ġbon":11764,"Ġinferred":11765,"hookrightarrow":11766,"ĠEar":11767,"ĠPlanck":11768,"ĠFC":11769,"Ġobserver":11770,"Ġsynthesis":11771,"{-}":11772,"ocy":11773,"Ġsounds":11774,"Ġalloc":11775,"Ġdry":11776,"103":11777,"implies":11778,"Define":11779,"ounced":11780,"Ġgrew":11781,"pert":11782,"ĠSoft":11783,"Ġrenormalization":11784,"mony":11785,"ifur":11786,"Ġremarkable":11787,"Ġfila":11788,"Ġrewrite":11789,"Ġsympt":11790,"Mean":11791,"romagnetic":11792,"effective":11793,"}:\\":11794,"106":11795,"ureau":11796,"Ġfract":11797,"Dr":11798,"ĠAnth":11799,"Ġhouses":11800,"Ġterminal":11801,"typ":11802,"ĠIllinois":11803,"leading":11804,"flux":11805,"Ġheur":11806,"})}{\\":11807,"Ġacquisition":11808,"Ġneglect":11809,"Ġappendix":11810,"Dire":11811,"onia":11812,"Ġaligned":11813,"mash":11814,"Ġconsiderable":11815,"Previous":11816,"ĠSeason":11817,"Ġmedal":11818,"Ġperpendicular":11819,"ordance":11820,"trac":11821,"Ġintersect":11822,"ju":11823,"Ġadmissible":11824,"ĠClearly":11825,"dp":11826,"Ġestimating":11827,"Ġstopped":11828,"Pop":11829,"Ġintegrable":11830,"Em":11831,"']":11832,"Ġclar":11833,"ĠChair":11834,"ĠConserv":11835,"Ġautomorphism":11836,"Ġauthority":11837,"Ġemergency":11838,"Corollary":11839,"dotted":11840,"apore":11841,"Ġmemb":11842,"Ġgained":11843,"Ġadvantages":11844,"Cho":11845,"intenance":11846,"ĠNiger":11847,"Ġspons":11848,"Ġtuning":11849,"cha":11850,"summary":11851,"Ġpron":11852,"Ġcommunications":11853,"ĠCommon":11854,"Ġbreaks":11855,"lein":11856,"ĠMicrosoft":11857,"ĠSDSS":11858,"olate":11859,"ĠScotland":11860,"Ġaren":11861,"Ġcontro":11862,"PH":11863,"vard":11864,"Ġexpectations":11865,"Ġsubgroups":11866,"Ġmorphisms":11867,"smallmatrix":11868,"sembles":11869,"Ġdiffe":11870,"Ġmeaningful":11871,"ĠProcess":11872,"National":11873,"Ġexcitations":11874,"entropy":11875,"Ġtrials":11876,"velocity":11877,"Ġdwarf":11878,"Hy":11879,"ĠPut":11880,"Ġplu":11881,"ART":11882,"ĠKn":11883,"Ġscholars":11884,"rf":11885,"pus":11886,"Ġdimensionless":11887,"About":11888,"Ġterror":11889,"mt":11890,"Ġprobabilistic":11891,"Ġlif":11892,"lers":11893,"ĠAssumption":11894,"Ġcompanion":11895,"Ġoscillation":11896,"nl":11897,"ighth":11898,"Ġrain":11899,"rowth":11900,"Ġsends":11901,"ĠExperim":11902,"Av":11903,"github":11904,"Ġdeeper":11905,"Ġpacket":11906,"ĠAssembly":11907,"Lu":11908,"Ġphotometry":11909,"jectives":11910,"Ġoccupied":11911,"struct":11912,"Ġdisplays":11913,"geqslant":11914,"Mor":11915,"entry":11916,"mis":11917,"Ds":11918,"Ġglobally":11919,"Ġexamined":11920,"Ġretrie":11921,"elson":11922,"Ni":11923,"gravity":11924,"Ġdivisor":11925,"ĠCru":11926,"Ġimpose":11927,"Ġoutperforms":11928,"commun":11929,"Ġfocusing":11930,"Ġmuseum":11931,"Ġmodify":11932,"metic":11933,"ĠVilla":11934,"Ġmassless":11935,"Ġpossibilities":11936,"ĠBattle":11937,"Ġprotocols":11938,"}--\\":11939,"Ġsan":11940,"Care":11941,"Ġcores":11942,"Ġskew":11943,",$$":11944,"Ġdefinitely":11945,"Black":11946,"Ġmovies":11947,"=$":11948,"hd":11949,"ĠPass":11950,"Ġdissipation":11951,"mac":11952,"^*_{":11953,"))^":11954,"Ġinfrared":11955,"ĠColl":11956,"}\\|_{":11957,"Ġhash":11958,"ĠTok":11959,"achus":11960,"ladel":11961,"ĠBlu":11962,"sig":11963,"Tor":11964,"Ġclosest":11965,"ĠElizabeth":11966,"Ġanomalous":11967,"}''":11968,"yi":11969,"systems":11970,"Ġpreserved":11971,"singular":11972,"ĠCC":11973,"suit":11974,"duate":11975,"ĠSir":11976,")}]":11977,"Ġinternet":11978,"ĠVideo":11979,"ĠSect":11980,"Ġstores":11981,".\\,":11982,"without":11983,"ĠSteve":11984,"Ġswitching":11985,"Ġtwisted":11986,"Ġiterative":11987,"Ġpolitician":11988,"Ġencourage":11989,"ĠObama":11990,"oz":11991,"ĠWatch":11992,"Ġattractive":11993,"double":11994,"Ġgluon":11995,"ĠWalk":11996,"Ġencoded":11997,"irty":11998,"Ġà¤":11999,"ponents":12000,"ĠRF":12001,"Ġsurvival":12002,"Ġnotable":12003,"Ġpartitions":12004,"}=-\\":12005,"Ġdots":12006,"Ġsnow":12007,"Ġcoal":12008,"ĠSupreme":12009,"?\"":12010,"puting":12011,"eigen":12012,"Gal":12013,"Equation":12014,"Ġgray":12015,"rics":12016,"Ġdrivers":12017,",+":12018,"ĠEff":12019,"Ġmedi":12020,"Ġconnectivity":12021,"ĠKal":12022,"}\\|\\":12023,"paring":12024,"Ġfly":12025,"Ġowners":12026,"Ġwww":12027,"physical":12028,"bos":12029,"onomous":12030,"Gener":12031,").\\":12032,"tistics":12033,"ogeneity":12034,"Green":12035,"ĠFox":12036,"Ġphra":12037,"Summary":12038,"Ġemployee":12039,"Ġsending":12040,"ĠPet":12041,"Ġclip":12042,"Ġcensus":12043,"ship":12044,"pix":12045,"limate":12046,"stagram":12047,"}:=\\":12048,"Ġprofessor":12049,"evolution":12050,"Ġwouldn":12051,"achusetts":12052,"ĉĠĠĠ":12053,"Ġassociate":12054,"ladelphia":12055,"Ġsentences":12056,"WS":12057,"orters":12058,"rested":12059,"watch":12060,"Ġregistered":12061,"Oper":12062,"ĠCode":12063,"ĠEP":12064,"etnam":12065,"ĠSL":12066,"ĠStudy":12067,"peri":12068,"Ġfat":12069,"ĠColumbia":12070,"Ġ[-":12071,"Ġguy":12072,"Ġhonor":12073,"Ġincredi":12074,"Ġsectors":12075,"Ġsurgery":12076,"appendix":12077,"1920":12078,"Ġpayment":12079,"Ġambig":12080,"ĠPrin":12081,"Ġdomestic":12082,"Ġadequ":12083,"Hol":12084,"Ġarrows":12085,"Ġscientists":12086,"ĠTraining":12087,"KM":12088,"ĠKir":12089,"Ġmachines":12090,"^+_":12091,"ĠLan":12092,"Action":12093,"ĠLO":12094,"adap":12095,"Ġvocals":12096,"}$};":12097,"properties":12098,"San":12099,"Ġvarieties":12100,"Ġattributed":12101,"Ġbis":12102,"Ġsusp":12103,"ĠBooks":12104,"Ġcrowd":12105,"ranged":12106,"Ġwatching":12107,"Rob":12108,"ĠNumber":12109,"Ġind":12110,"Ġphysic":12111,"Sep":12112,"Ġforcing":12113,"Ġsubstantially":12114,"ĠSupport":12115,"tails":12116,"overrightarrow":12117,"Ġcampus":12118,"Ġdebate":12119,"irable":12120,"Ġstreaming":12121,"AI":12122,"Ġspiral":12123,"cited":12124,"Ġjun":12125,"np":12126,"Ġawards":12127,"Ġwider":12128,"%.":12129,"elastic":12130,"lacian":12131,"^+(":12132,"Ġparagraph":12133,"240":12134,"idal":12135,"Ġanisotropy":12136,"rounded":12137,"Ġreflects":12138,"ĠSat":12139,"Ġfighting":12140,"{}\\":12141,"\\\\[":12142,"ĠPortug":12143,"Ġviscosity":12144,"Jo":12145,"Ġcovariant":12146,"Ġrescal":12147,"Ġoverla":12148,"Ġgeneralize":12149,"ulties":12150,"))}":12151,"$]":12152,"ĠOs":12153,"Ġconsumer":12154,"charg":12155,"usual":12156,"sqcup":12157,"bone":12158,"Ġoperational":12159,"Ġamazing":12160,"Ġteachers":12161,"Ġhun":12162,"Ġutilize":12163,"United":12164,"ĠTH":12165,"Ġkpc":12166,"ĠĠĠĠĠĠĠĠĠĠĠĠĠĠĠĠĠĠĠĠĠĠĠĠĠĠĠ":12167,"ĠIC":12168,"Ġnotations":12169,"AO":12170,"Ġuniqueness":12171,"Ġminimizing":12172,"rats":12173,"theore":12174,"Ġray":12175,"Ġearned":12176,"Ġassistance":12177,"ĠAnton":12178,"Ġrecommended":12179,"Ġbalanced":12180,"plots":12181,"ĠDaniel":12182,"Part":12183,"Remark":12184,"Ġspatially":12185,"Ġreceives":12186,"Ġdoubt":12187,"ãĤ":12188,"ĠMarg":12189,"luster":12190,"Ġconsult":12191,"World":12192,"Ġwins":12193,"Ġflexible":12194,"Ġexploit":12195,"ĠDer":12196,"Ġmembership":12197,"anchor":12198,"imeter":12199,"Map":12200,"ĠBuilding":12201,"Us":12202,"Ġlegend":12203,"Ġobsta":12204,"Ġhospit":12205,"depth":12206,"|$.":12207,"ĠDra":12208,"uber":12209,"Vs":12210,"ĠRiemannian":12211,"Ġtherapy":12212,"Ass":12213,"ometer":12214,"Ġbrow":12215,"Ġpreserving":12216,"basic":12217,"Ġfootballers":12218,"Ġwireless":12219,"ulatory":12220,"ĠRev":12221,"Ġspecify":12222,"Ġpartnership":12223,"Ġevening":12224,"triangleq":12225,"scope":12226,"inn":12227,"Ġworldwide":12228,"nucle":12229,"event":12230,"ceived":12231,"Ġbomb":12232,"press":12233,"Ġpoles":12234,"apped":12235,"Ġvaried":12236,"opyright":12237,"Ġminute":12238,"aled":12239,"strating":12240,"bad":12241,"Ġmatters":12242,"Ġmoderate":12243,"Ġconcaten":12244,"strate":12245,"Ġ\\)":12246,"ĠDavis":12247,"Ġpy":12248,"Ġiff":12249,"ĠMO":12250,"pen":12251,"isations":12252,"Ġsou":12253,"Ġscoring":12254,"Ġconversation":12255,"Ġaffili":12256,"ĠChildren":12257,"Ġbreath":12258,"Ġstat":12259,"1963":12260,"Discussion":12261,"Ġtransaction":12262,"Ġpreliminary":12263,"Ġinsurance":12264,"Ġwear":12265,"Ġ$^":12266,"fiers":12267,"ĠDutch":12268,"Ġatmospheric":12269,"Ġcontest":12270,"Ġfellow":12271,"Ġvotes":12272,"1945":12273,"MB":12274,"1962":12275,"Ġcontemporary":12276,"Ġinterfer":12277,"Ġinnovation":12278,"Cap":12279,"Ġsake":12280,"ematic":12281,"thew":12282,"liers":12283,"tabularnewline":12284,"batim":12285,"ĠMill":12286,"}{-":12287,"ĠStory":12288,"Notes":12289,"TD":12290,"Ġcoding":12291,"ĠPas":12292,"Ġox":12293,"Ġjustice":12294,"Ġdoctor":12295,"eu":12296,"TP":12297,"ractions":12298,"Ġconductivity":12299,"checkmark":12300,"[]{":12301,"dete":12302,"ĠAppro":12303,"following":12304,"Ġprint":12305,"Lem":12306,"aks":12307,"Ġhotel":12308,"Sur":12309,"Ġintegrate":12310,"acting":12311,"rb":12312,"Ġestate":12313,"ootstra":12314,"ĠMinnesota":12315,"~~~":12316,"output":12317,"roscopy":12318,"Ġpriori":12319,"ĠChapter":12320,"ĠGHz":12321,"Ġminister":12322,"ĠAuto":12323,"Ġproxim":12324,"ĠÂ·":12325,"Ġconsumers":12326,"Ġfarm":12327,"Ġattract":12328,"Ġ}_{":12329,"ĠRefs":12330,"}};":12331,"Ġindicator":12332,"idents":12333,"Ġpointing":12334,"ĠLead":12335,"Ġhonest":12336,"Ġaccident":12337,"Dep":12338,"aga":12339,"Ġshooting":12340,"Ret":12341,"Ġinstruments":12342,"ĠIl":12343,"kt":12344,"ĠEle":12345,"pality":12346,"cket":12347,"EQ":12348,"ĠMath":12349,"Ġguaranteed":12350,"Ġadult":12351,"Ġpublicly":12352,"Ġacoustic":12353,"none":12354,"^*$.":12355,"Ġrural":12356,"Aug":12357,"ĠSho":12358,"uition":12359,"Ġpilot":12360,"actor":12361,"Ġemissions":12362,"Ġparabolic":12363,"Äĩ":12364,"Wang":12365,"Ġvisited":12366,"ĠThose":12367,"rv":12368,"Ġdivide":12369,"Ġwhatever":12370,"Ġregimes":12371,"Ġinfinitely":12372,"Ġscreening":12373,"Ġcarrying":12374,"210":12375,"Tru":12376,"@{\\":12377,"ĠSED":12378,"icities":12379,"Ġemerging":12380,"ĠHart":12381,"dem":12382,"wich":12383,"Ġautomatic":12384,"adjoint":12385,"null":12386,"Just":12387,"ĠAnderson":12388,"ĠGl":12389,"Ġmining":12390,"aret":12391,"Ġbaryon":12392,"}^{-\\":12393,"Ġmarks":12394,"ĠAS":12395,"Ġrounds":12396,"Tech":12397,"orb":12398,"Appendix":12399,"limin":12400,"Ġauthentic":12401,"HR":12402,"Ġmodulo":12403,"Ġmeson":12404,".]":12405,"ĠAgency":12406,"ĠAdministration":12407,"Ġexceptional":12408,"Ġfilling":12409,"necess":12410,"Ġads":12411,"Ġcaught":12412,"review":12413,"Ġelectrical":12414,"thermal":12415,"ĠCooper":12416,"Ġcr":12417,"Ġremoval":12418,"mentations":12419,";\\;\\;\\;\\":12420,"'_{\\":12421,"itro":12422,"filter":12423,"vive":12424,"Ġ((":12425,"Ġunlikely":12426,"ĠThom":12427,"GW":12428,"Ġdevoted":12429,"ynamical":12430,"Ġhistoric":12431,"Ġtriangles":12432,"Ba":12433,"folio":12434,"bited":12435,"Ġjoining":12436,"ĠLook":12437,"Ġhits":12438,"ĠJean":12439,"ĠFact":12440,"/.":12441,"Ġscheduled":12442,"Ġbundles":12443,"Ġdiffers":12444,"ĠAge":12445,"urities":12446,"gov":12447,"BN":12448,"Ġstructured":12449,"Ġbag":12450,"Ġwindows":12451,"keV":12452,"Ġmig":12453,"Ġemphasize":12454,"Ġguidance":12455,"ĠMater":12456,"vents":12457,"Ġlepton":12458,"Ġcriminal":12459,"Ġinduce":12460,"ĠDirichlet":12461,"Mac":12462,"fitting":12463,"ĠThough":12464,"wal":12465,"aught":12466,"Ġshr":12467,"Serv":12468,"raq":12469,"ĠPlease":12470,"Ġvoting":12471,"Ã±":12472,".âĢĻ":12473,"ĠWindows":12474,"Ġmotions":12475,"ĠToronto":12476,"Ġnegoti":12477,"ameters":12478,"Ġdraft":12479,"ĠCorporation":12480,"|\\,":12481,"Ġtitles":12482,"ĠCMB":12483,"ĠForest":12484,"Ġdifferentiable":12485,"Ġdefect":12486,"parse":12487,"\\@":12488,"ĠFlo":12489,"ĠYes":12490,"Ġasking":12491,"ĠExt":12492,"ĠExecutive":12493,"Ġtiming":12494,"}}|":12495,"Ġhearing":12496,"Ġmotivation":12497,"ĠWrit":12498,"ĠCF":12499,"ĠKh":12500,"Ġionization":12501,"Lie":12502,"Ġsurprising":12503,"pes":12504,"Vari":12505,"WA":12506,"Ġexposed":12507,"conc":12508,"incar":12509,"semi":12510,"EA":12511,"legal":12512,"sex":12513,"Ġcouncil":12514,"Ġwavelengths":12515,"Ġmapped":12516,"etherlands":12517,"Ġhierarchical":12518,"Ġremin":12519,"tration":12520,"lvert":12521,"Down":12522,"train":12523,"^*)":12524,"Ġbass":12525,"Ġbet":12526,"University":12527,"ĠWi":12528,"Ġlisten":12529,"Despite":12530,"tet":12531,"!}":12532,"'+":12533,"Ġafore":12534,"Ri":12535,"ĠSon":12536,"tesian":12537,"representation":12538,"Ġheads":12539,"zim":12540,"Ġconcluded":12541,"126":12542,"ĠInteg":12543,"Ġtransforms":12544,"Ġalleged":12545,"Ġrepair":12546,"letter":12547,"Ġcomplexes":12548,"ĠSaf":12549,"aire":12550,"EF":12551,"Ġplain":12552,"Ġinversion":12553,"Intern":12554,"Ġspont":12555,"Ġscr":12556,"Ġdefeated":12557,"chive":12558,"morph":12559,"Ġinsp":12560,"ouri":12561,"dg":12562,"ĠGovernor":12563,"Ġfiltering":12564,"article":12565,"Ġparticipate":12566,"fluid":12567,"ambig":12568,"Ġoverhead":12569,"Super":12570,"ĠSFR":12571,"Ġpaint":12572,"merce":12573,"being":12574,"Ġtrading":12575,"Ġoppon":12576,"Ġharm":12577,"apping":12578,"Ġrisks":12579,"Ġpolarized":12580,"Prob":12581,"Ġspectroscopic":12582,"%,":12583,"Ġ&-":12584,"dited":12585,"noalign":12586,"ĠPay":12587,"expand":12588,"ĠAdS":12589,"Ġseeking":12590,"Ġmaintained":12591,"coin":12592,"leton":12593,"ĠNic":12594,"quote":12595,"ĠYouTube":12596,"170":12597,"Ġindirect":12598,"ulpt":12599,"Ġloved":12600,"144":12601,"ineq":12602,"dap":12603,"same":12604,"about":12605,"card":12606,"ĠLink":12607,"ĠString":12608,"thur":12609,"Ġdemoc":12610,"Ġmanufacturing":12611,"ĠHand":12612,"Ġturbulent":12613,"Ġcareful":12614,"Ġdestroyed":12615,"ĠVictoria":12616,"Path":12617,"ĠWat":12618,"Ġdamping":12619,"Ġconstrain":12620,"sys":12621,"002":12622,"utor":12623,"Ġoptimize":12624,"ativity":12625,"ĠPhysics":12626,"Her":12627,"Ġships":12628,")}}{":12629,"Ġsoph":12630,"compare":12631,"ĠGr":12632,"ĠNFL":12633,"dm":12634,"breve":12635,"Ġeat":12636,"ĠSpect":12637,"entially":12638,"Ġcircumstances":12639,"Ġtransit":12640,"iley":12641,"Ġresponsibility":12642,"bow":12643,"Ġevolutionary":12644,"Requ":12645,"spectrum":12646,"Ġpersonnel":12647,"ccer":12648,"ĠIslands":12649,"ĠOnt":12650,"Ġadults":12651,"Ġconserved":12652,"PhysRev":12653,"zhang":12654,"rizona":12655,"Ġresolve":12656,"ĠLtd":12657,"Ġbubble":12658,"Ġpredicts":12659,"=\\,":12660,"ĠHay":12661,"aive":12662,"Ġrailway":12663,"Ġranked":12664,"Ġcus":12665,"ĠAvenue":12666,"ĠRL":12667,"ĠBad":12668,"Ġsimulate":12669,"bis":12670,"together":12671,"Ġconstructing":12672,"GF":12673,"connection":12674,"Ġestablishments":12675,"ĠNatural":12676,"Ġconsensus":12677,"Ġmagnetization":12678,"Ġinvestors":12679,"Ġcomedy":12680,"Ġtidal":12681,"ĠPaper":12682,"Ġspending":12683,"sects":12684,"Ġfruit":12685,"Ġintra":12686,"ĠFinal":12687,"ĠMassachusetts":12688,"Ġcounterpart":12689,"Ġstreets":12690,"Ġcapability":12691,"Ġrequests":12692,"Ġcylind":12693,"ĠRome":12694,"ĠWall":12695,"pet":12696,"Ġneglected":12697,"Ġgaps":12698,"nbsp":12699,"Ġzeros":12700,"Ġrising":12701,"oking":12702,"ported":12703,"enny":12704,"ĠEth":12705,"Ġposi":12706,"irtual":12707,"ĠBall":12708,"TF":12709,"versities":12710,"Ġfabric":12711,"]{@{}":12712,"|,":12713,"Ġcontributed":12714,"Ġdrawing":12715,"^*$,":12716,"Ġbiological":12717,"basis":12718,"every":12719,"hh":12720,"ĠFigures":12721,"ĠDO":12722,"ĠEM":12723,"Ġaccompan":12724,"yles":12725,"Ġtargeted":12726,"Ġplastic":12727,"ĠFi":12728,"Ġwilling":12729,"Ġsquad":12730,"lc":12731,"abled":12732,"Ġhur":12733,"otherwise":12734,"=[":12735,"ĠĠĠĠĠĠĠĠĠĠĠĠĠĠĠĠĠĠĠĠĠĠĠĠ":12736,"estyle":12737,"}{.":12738,"reprene":12739,")]{":12740,"Ġveter":12741,"pired":12742,"Ġexciting":12743,"consin":12744,"ĠBR":12745,"preserv":12746,"System":12747,"Ġconsiderably":12748,"uits":12749,"&&&&":12750,"Ġfeels":12751,"imod":12752,"ĠGalaxy":12753,"sson":12754,"existence":12755,"ghan":12756,"Eff":12757,"LAS":12758,"ĠBBC":12759,"Ġbehaviors":12760,"Ġdistinguished":12761,"speed":12762,"Ġgains":12763,"Ġeccentric":12764,"Ġlicense":12765,"Ġcomparisons":12766,"Cat":12767,"desh":12768,"versi":12769,"irs":12770,"estingly":12771,"ĠSanta":12772,"HP":12773,"Ġinstalled":12774,"omics":12775,"ĠHas":12776,"decay":12777,"Ġtab":12778,"ydney":12779,"asym":12780,"Ġasymmetric":12781,"anth":12782,"versary":12783,"ĠTrust":12784,"pmod":12785,"Ġiner":12786,"Ġfinger":12787,"Ġmodulus":12788,"ynman":12789,"makers":12790,"Ġverification":12791,"rain":12792,"Ġgrown":12793,"ictionary":12794,"sg":12795,"Ġ/**":12796,"Ġske":12797,"fli":12798,"Ġincorporate":12799,"Hu":12800,"diction":12801,"Ġentering":12802,"fac":12803,"Ġcred":12804,"Åį":12805,"His":12806,"algo":12807,"Ġbelief":12808,"107":12809,"ĉĉĉĉĉĉĉĉ":12810,"Ġmodifications":12811,"Ġapps":12812,"equal":12813,"114":12814,"Ġlaugh":12815,"mr":12816,"Ġsupervised":12817,"etails":12818,"Ġdocum":12819,"UK":12820,"Ġbounding":12821,"Ġsucces":12822,"Ġcontraction":12823,"Ġmerely":12824,"inations":12825,"Ġcards":12826,"1961":12827,"Ġsoil":12828,"Ġcylinder":12829,"info":12830,"ifier":12831,"shop":12832,"Ġtokens":12833,"ĪĴ":12834,"Ġresonant":12835,")^{-\\":12836,"estab":12837,"Ġpredictive":12838,"Lear":12839,"Ġdrugs":12840,"ĠMathe":12841,"ĠHur":12842,")}\\\\":12843,"ĠChampionships":12844,"ĠBesides":12845,"lications":12846,"miss":12847,"ĠVen":12848,"Ġincoming":12849,"ods":12850,"opher":12851,"tistic":12852,"ĠTheory":12853,"Ġavailability":12854,"Ġincorporated":12855,"Ġorg":12856,"ĠCu":12857,"Ġsilver":12858,"Ġpassion":12859,"mak":12860,"ĠGraph":12861,"Ġsleep":12862,"ĠPur":12863,"Ġeducational":12864,"oped":12865,"''$":12866,"ĠColorado":12867,"âĢī":12868,"ĠIo":12869,"ĠAction":12870,"}^-":12871,"Event":12872,"FW":12873,"Ġresonances":12874,"Ġtelescope":12875,"ĠTR":12876,"Ġnormally":12877,"ĠHubble":12878,"ĠHom":12879,"agues":12880,"900":12881,"facts":12882,"ĠHad":12883,"Ġsynthes":12884,"casts":12885,"VP":12886,"Ġcorollary":12887,"Real":12888,"Ġaper":12889,"Ġnoticed":12890,"${":12891,"uts":12892,"ĠVin":12893,"ulum":12894,"Ġrelate":12895,"Ġslot":12896,"Ġatten":12897,"Ġestimators":12898,"obtained":12899,"ĠAu":12900,"CB":12901,"ĠMiller":12902,"rell":12903,"ĠPlat":12904,"grad":12905,"Ġfiled":12906,"Ġrestaurant":12907,"Ġreturning":12908,"Ġposts":12909,"lighted":12910,"ĠTi":12911,"ysi":12912,"@\\":12913,"gate":12914,"ĠMI":12915,"Ġversa":12916,"\");":12917,"124":12918,"ĠNASA":12919,"tikzcd":12920,"Ha":12921,"Ġfractions":12922,"Ġvolumes":12923,"ĠFord":12924,"annon":12925,"Ġgoods":12926,"Ġcomplementary":12927,"ĠClin":12928,"Ġkeeps":12929,"Ġquen":12930,"aron":12931,"Ġmissed":12932,"Ġyes":12933,"Ġcontours":12934,"ĠPhys":12935,"Ġarts":12936,"ĠEconomic":12937,"Ġsymptoms":12938,"Ġcorporate":12939,"Ġyards":12940,"Ġsheaf":12941,"Ġgrey":12942,"alla":12943,"owa":12944,"AND":12945,"cb":12946,"ilst":12947,"ĠHou":12948,"fts":12949,"owed":12950,"ĠGi":12951,"ĠLes":12952,"Ġutilized":12953,"Ġgradually":12954,"'}{":12955,"Ġhabit":12956,"Ġdrops":12957,"Ġgrain":12958,"thal":12959,"Ġrays":12960,"ĠEric":12961,"ĠEvent":12962,"Ġwalking":12963,"ĠOxford":12964,"Ġocean":12965,"variate":12966,".'":12967,"BG":12968,"Ġanonym":12969,"enna":12970,"aro":12971,"$\\%":12972,"Ġupcoming":12973,"Ġrecognize":12974,"volume":12975,"Ġaband":12976,"Ġfiction":12977,"ĠSym":12978,"tagon":12979,"ĠSearch":12980,"HA":12981,"Ġlaboratory":12982,"ĠOfficer":12983,"rvert":12984,"phab":12985,"ĠTes":12986,"Ġinterpret":12987,"NY":12988,"========":12989,"ĠProblem":12990,"master":12991,"Ġconsequently":12992,"eron":12993,"ĠEmer":12994,"pler":12995,"ateral":12996,"],\\":12997,"ERS":12998,"Cons":12999,"sd":13000,"Ġpropagator":13001,"Sign":13002,"elo":13003,"Ġnonnegative":13004,"Ġaforementioned":13005,"Ġseparable":13006,"Ġdiscrepancy":13007,"ourse":13008,"eding":13009,"ĠRu":13010,"ðŁ":13011,"ĠHamilton":13012,"ĠInstagram":13013,"Ġcombinatorial":13014,"Ġsummation":13015,"enum":13016,"tzmann":13017,"Ð»":13018,"Ġlying":13019,"prove":13020,"Ġresc":13021,"ĠBerlin":13022,"scaling":13023,"Ġexclusive":13024,"Ġbol":13025,"Ġkinematic":13026,"inality":13027,"convergence":13028,"Ġdangerous":13029,"HF":13030,"dable":13031,"turn":13032,"Ġcalibra":13033,"mathring":13034,"Ġfacing":13035,"Ġpulses":13036,"Ġquantify":13037,"Ġsuppression":13038,",\\,\\,\\,\\":13039,"ederation":13040,"yy":13041,"Ġevolve":13042,"ĠWang":13043,"Ġremarks":13044,"TI":13045,"Tem":13046,"audi":13047,"Ġneighboring":13048,"rait":13049,"Ġfoundation":13050,"Ġcog":13051,"TL":13052,"Ġsemigroup":13053,"assum":13054,"ĠScienti":13055,"ĠNick":13056,"ku":13057,"quot":13058,"Ġstone":13059,"bv":13060,"Ġextensively":13061,"Ġsteel":13062,"Ġgraphene":13063,"Ġcs":13064,"dependence":13065,"ĠHistoric":13066,"ĠSingapore":13067,"Ġcookies":13068,"follow":13069,"relativistic":13070,"South":13071,"Ġpoliticians":13072,"Ġmouth":13073,"ĠProvince":13074,"Ġburst":13075,"Ġhosted":13076,"Ġarrow":13077,"unov":13078,"ĠNE":13079,"ĠGolden":13080,"Ġlept":13081,"ĠPhiladelphia":13082,"ĠTurn":13083,"Ġsnap":13084,"Ġsteep":13085,"Ġapparently":13086,"Lag":13087,"Ġexpan":13088,"ĠRegister":13089,"Ġlogical":13090,"Ġscript":13091,"Ġtub":13092,"ea":13093,"Ġexecuted":13094,"Ġeastern":13095,"ĠCambridge":13096,"IJ":13097,"quanti":13098,"vially":13099,"Ġep":13100,"ĠDisney":13101,"ĠCV":13102,"ĠVietnam":13103,"ricts":13104,"}\\{":13105,"scalar":13106,"ĠSA":13107,"CDM":13108,"Ġcommitment":13109,"Ġmaximize":13110,"stant":13111,"trace":13112,"ĠBanach":13113,"Ġcasc":13114,"pgf":13115,"Ġbanks":13116,"Ġtalent":13117,"Ġsolely":13118,"Script":13119,"Ġplanes":13120,"ensing":13121,")}^{":13122,"Ġsearches":13123,"average":13124,"ĠCountry":13125,"Ġannihilation":13126,"ributed":13127,"essional":13128,"Ġstrange":13129,"ĠStock":13130,"Ġneighbourhood":13131,"Cy":13132,"ĠDaily":13133,"Ġmonomial":13134,"ĠAB":13135,"NG":13136,"onically":13137,"Ġoccurrence":13138,"ĠAnti":13139,"unning":13140,"RG":13141,"Ġmeets":13142,"Ġshop":13143,"ĠNP":13144,"Ġtwenty":13145,"variance":13146,"':":13147,"Ġsoldiers":13148,"Ġfounder":13149,"Ġstatistically":13150,".}.":13151,"imp":13152,"Cre":13153,"Ġdecreased":13154,"Ġton":13155,"Ġinfluenced":13156,"Ġadvertising":13157,"Ġdestination":13158,"Ġsuffer":13159,"iants":13160,"Ġ$({\\":13161,"ĠSn":13162,"_+$":13163,"DL":13164,"Ġbrown":13165,"Ġhealthcare":13166,"ceptions":13167,"lative":13168,"Ġmillions":13169,"llll":13170,"Mil":13171,"mach":13172,"web":13173,"ĠRaj":13174,"Ġbifur":13175,"1959":13176,"lee":13177,"Ġhosts":13178,"$_\\":13179,"regon":13180,"Ġsupernov":13181,"Ġfulfill":13182,"titled":13183,"Ġcrypto":13184,"Ġgenetic":13185,"Ġminimization":13186,")\\,,":13187,"Ġanalytically":13188,"sis":13189,"ĠSquare":13190,"Ġsought":13191,"vio":13192,"mathord":13193,"ĠOtherwise":13194,"\\%.":13195,"Ġknot":13196,"Ġtheorems":13197,"feld":13198,"context":13199,"Ġpriority":13200,"Ġassertion":13201,"coupling":13202,"Ġvoters":13203,"Ġrevolution":13204,"255":13205,"Du":13206,"season":13207,"Ġsurely":13208,"Ġdevelopers":13209,"ĠMagazine":13210,"ĠWas":13211,"Ġcoff":13212,"Ġenrich":13213,"Ġsheet":13214,"Rus":13215,"Ġmild":13216,"Ġweapons":13217,"ĠPublish":13218,"anes":13219,"ĠCall":13220,"$/":13221,"quet":13222,"Ġcarrier":13223,".}}":13224,"pb":13225,"Ġ),":13226,"ĠThird":13227,"ĠRom":13228,"Ġarrested":13229,"}}}(":13230,"cession":13231,"}=\\{":13232,"Ġpictures":13233,"Ġfibers":13234,"Ġoccurring":13235,"spectral":13236,"ĠEll":13237,"MW":13238,"varsigma":13239,"Ju":13240,"KE":13241,"ĠĠĠĠĠĠĠĠĠĠĠĠĠĠĠĠĠĠĠĠĠĠ":13242,"Ġaddresses":13243,"Ġsolo":13244,"sale":13245,"itons":13246,"ĠBlock":13247,"ĠBridge":13248,"]{$":13249,"Ġshadow":13250,"ĠMalay":13251,"station":13252,"andy":13253,"child":13254,"Ġtroops":13255,"Ġastron":13256,"overs":13257,"kpc":13258,"vanishing":13259,"Ġfacilitate":13260,"116":13261,"ws":13262,"elled":13263,"Ġaccordance":13264,"ĠFix":13265,"Ġdiseases":13266,"Ġhem":13267,"Ġreservoir":13268,"psfrag":13269,"Ġsurjective":13270,"Ġemotional":13271,"rect":13272,"{-\\":13273,"Ġthorough":13274,"ĠFL":13275,"]]":13276,"|<":13277,"present":13278,"Ġretired":13279,"ouch":13280,"Ġagencies":13281,"Ġcf":13282,"Ġprocessed":13283,"Ġstrengths":13284,"ĠDoug":13285,"ĠTai":13286,"Ġdeclared":13287,"Ġselecting":13288,"Cross":13289,"Ġtower":13290,"122":13291,"Ġmanuscript":13292,"Ġhypotheses":13293,"ĠSeveral":13294,"Ġfermionic":13295,".-":13296,"ĠHung":13297,"Ġspars":13298,"ĠNations":13299,"113":13300,"Ġdifficulties":13301,"count":13302,"Ġtrap":13303,"ocor":13304,"Ġmolecule":13305,"oping":13306,"119":13307,"limited":13308,"Ġclubs":13309,"Sen":13310,"109":13311,"Ġpersons":13312,"ĠNash":13313,"Ġanalogue":13314,"Ġtriangular":13315,"Ġanalyzing":13316,"vergence":13317,"biased":13318,"Ġfluctuation":13319,"Ġoscillator":13320,"Ġcutting":13321,"pub":13322,"linecite":13323,"ecker":13324,"Del":13325,"partition":13326,"ĠNetherlands":13327,"ahler":13328,"})\\\\":13329,"fp":13330,"Ġlever":13331,"ĠClaim":13332,"ĠGL":13333,"Ġprompt":13334,"3333":13335,"Ġfron":13336,"ponse":13337,")$:":13338,"Ġpassage":13339,"Ġtensors":13340,"\\).":13341,"plet":13342,"seg":13343,"Ġbinaries":13344,"eren":13345,"Ġillustration":13346,"ĠCurrent":13347,"ĠLaplacian":13348,"Ġbrane":13349,"117":13350,"Ġreconstruct":13351,"_*$":13352,"Input":13353,"Ġcollaps":13354,"Ġrefinement":13355,"Ġdecline":13356,"their":13357,"Ġmigration":13358,"got":13359,"Ġpatches":13360,"limsup":13361,"indic":13362,"Similar":13363,"olev":13364,"ĠRyan":13365,"iders":13366,"north":13367,"tre":13368,"lang":13369,"ĠAltern":13370,"ĠTro":13371,"false":13372,"sat":13373,"Ġfaced":13374,"Ġassembly":13375,"fted":13376,"Ġstopping":13377,"close":13378,"zech":13379,"Ġmagic":13380,"WW":13381,"ĠYet":13382,"}}%":13383,"sv":13384,"ĠBrian":13385,"Ġregularly":13386,"Ġdecoding":13387,"ijection":13388,"para":13389,"Ġdeals":13390,"Ġstrike":13391,"RP":13392,"Ġgranted":13393,"degenerate":13394,"Ġelsewhere":13395,"Ġwra":13396,"coll":13397,"urg":13398,"Ġsaturation":13399,"Ġhang":13400,"root":13401,"ĠPolish":13402,"undle":13403,"ĠIns":13404,"bourne":13405,"Ġcolored":13406,"maps":13407,"Full":13408,"Ġ=&":13409,"Ġfunded":13410,"harmonic":13411,"Ġguys":13412,"icide":13413,"Ġspeaker":13414,"Ġtom":13415,"Ġ&=\\":13416,"ĠTen":13417,"ĠPoland":13418,"ĠOntario":13419,"\"|":13420,"Ġbold":13421,"UM":13422,"ĠEnt":13423,"ĠGene":13424,"lyn":13425,"ĠGP":13426,"ĠLewis":13427,"121":13428,"onormal":13429,"Ġdevelopments":13430,"Ġprovider":13431,"scheme":13432,"1956":13433,"Ġansatz":13434,"Ġtrim":13435,"news":13436,")}+":13437,"Ġprepare":13438,"pathy":13439,"Ġdefects":13440,"\\%)":13441,"Ġgro":13442,"Bs":13443,"ĠYuk":13444,"approximation":13445,"Ġmonop":13446,"Ġevolved":13447,"Ġredund":13448,"holders":13449,"tificate":13450,"labeled":13451,"cycl":13452,"Ġpicked":13453,"Ø§":13454,"jour":13455,"akh":13456,"Ġjointly":13457,"particles":13458,"Ġimpacts":13459,"ĠPrim":13460,"Ġeliminate":13461,"osystem":13462,"Ġdates":13463,"Ġpregn":13464,"ĠWel":13465,"taken":13466,"(|\\":13467,"ĠWars":13468,"ĠCub":13469,"Ġcontributes":13470,"Ġtraces":13471,"Post":13472,"mons":13473,"orption":13474,"Redu":13475,"Ġappoint":13476,"Ġofficially":13477,"Ġelig":13478,"ĠAz":13479,"Ġbought":13480,"Ġselling":13481,"Ġloan":13482,"{#":13483,"Ġcumulative":13484,"ĠRos":13485,"Ġkilling":13486,"ĠIraq":13487,"found":13488,"Ġsustainable":13489,"Oh":13490,"Ġsingles":13491,"Ġappeal":13492,"Ġattempted":13493,"Ġmicroscopic":13494,"1958":13495,"rage":13496,"Ġease":13497,"Ġtough":13498,"Ġpermission":13499,"burst":13500,"ferm":13501,"Ġlum":13502,"Ġsensing":13503,"Ġdistortion":13504,"Ġbaby":13505,"Ġwine":13506,"rotate":13507,"iami":13508,"Ġsemantics":13509,"Ġpurchased":13510,"Yes":13511,"Ġclim":13512,"ĠMaxwell":13513,"gal":13514,"Ġride":13515,"Taking":13516,"Ġraces":13517,"News":13518,"Ġdemands":13519,"idu":13520,"Ġtranslated":13521,"lav":13522,"ĠStill":13523,"Ġdisag":13524,"Ġtransportation":13525,"Ġhorse":13526,"engers":13527,"sided":13528,"reference":13529,"cone":13530,"Ġreliability":13531,"Ġpolytop":13532,"Ġcorners":13533,"Ġadiabatic":13534,"Ġcarries":13535,"Ġomit":13536,"Ġhaven":13537,"propag":13538,"]=\\":13539,"bigcap":13540,"));":13541,"ĠRose":13542,"Ġlabelled":13543,"Ġspanning":13544,"Ġmaintenance":13545,"init":13546,"idae":13547,"ĠDeath":13548,"ologists":13549,"XY":13550,"shaped":13551,"game":13552,"Ġvisitors":13553,")+(":13554,"Pic":13555,"ĠSS":13556,"Ġbosonic":13557,"verbatim":13558,"Ġsurprise":13559,"ĠBrownian":13560,"ĠHarry":13561,"Ġanisotropic":13562,"{-.":13563,"fund":13564,"ĠTaking":13565,"midt":13566,"ĠBox":13567,"Large":13568,"Ġmaintaining":13569,"uten":13570,"kernel":13571,"ĠSmall":13572,"){$\\":13573,"IE":13574,"gauge":13575,"ĠCreek":13576,"Ġcaptures":13577,"ĠĠĠĠĠĠĊ":13578,"})+\\":13579,"endar":13580,"rupted":13581,"ĠMarsh":13582,"Ġrival":13583,"Ġtransient":13584,"230":13585,"145":13586,"Ġ\\,\\,":13587,"Ġgrade":13588,"Ġaimed":13589,"Ġpermanent":13590,")\\;":13591,"ĠStephen":13592,"Ġslice":13593,"Ġignore":13594,"Ġtransactions":13595,"abling":13596,"Ġachieving":13597,"127":13598,"ĠKorean":13599,"ĠAmb":13600,"dc":13601,"Ġassistant":13602,"Ġbear":13603,"cially":13604,"Ġdecor":13605,"Ġopens":13606,"ulse":13607,"Ġadvis":13608,"cz":13609,"ĠLP":13610,"party":13611,"Ġmonitor":13612,"Ġchampionship":13613,"Ġdelta":13614,"ĠNeumann":13615,"tistical":13616,"Ġbackward":13617,"Acknowledgements":13618,"Ġgrav":13619,"Ġoutlined":13620,"hot":13621,"ĠScottish":13622,"mathrel":13623,"equivalent":13624,"Ġintui":13625,"}^{{\\":13626,"schild":13627,"ĠDead":13628,"Ġmobility":13629,"Ġtaught":13630,"nor":13631,"ĠCapital":13632,"Ġmuon":13633,"Ġarith":13634,"ĠWisconsin":13635,"Free":13636,"ĠSydney":13637,"ĠLyn":13638,")=-":13639,"Ġtox":13640,"Ġtradition":13641,"Ġproviders":13642,"ĠMoon":13643,"Ġsignatures":13644,"ĠDonald":13645,"ennessee":13646,"Number":13647,"ĠGer":13648,"450":13649,"qubit":13650,"directed":13651,"Ġfrequent":13652,"Mid":13653,"Ġprovince":13654,"hao":13655,"}}[":13656,"ĠCovid":13657,"uris":13658,"Ġmonotonic":13659,"brane":13660,"ĠChang":13661,"ĠOcean":13662,"Ġdegeneracy":13663,"Ġcomputationally":13664,"Ġfalling":13665,"live":13666,"commutative":13667,"onlinecite":13668,"QCD":13669,"haw":13670,"Ġproud":13671,"ĠSri":13672,"Ġdic":13673,"ĠArizona":13674,"Ġstrategic":13675,"Ġstake":13676,"Ġtropical":13677,"aotic":13678,"IFAR":13679,",\\;":13680,"Ġhandling":13681,"Ġparametric":13682,"anga":13683,"Ġinformed":13684,"task":13685,"Ġreb":13686,"pated":13687,"Off":13688,"Ġwinds":13689,"\\),":13690,"1952":13691,"observed":13692,"Ġpun":13693,"ĠAlf":13694,"oral":13695,"Ġbot":13696,"Combining":13697,"_*(":13698,"ĠPhoto":13699,"yard":13700,"Ġtick":13701,"ĠSNe":13702,"middle":13703,"ctoral":13704,"à¸":13705,"Integ":13706,"ĠWinter":13707,"ĠBelg":13708,"Ġbaseball":13709,"Ġic":13710,"Ġignored":13711,"Ġnewspaper":13712,"003":13713,"backs":13714,"away":13715,"1957":13716,"Ġsuffered":13717,"ĠArgent":13718,"ĠUnfortunately":13719,"Ġgenu":13720,"Chen":13721,"Ġfaculty":13722,"=\\!":13723,"Pb":13724,"VV":13725,"Ġtetra":13726,"Ġpreceding":13727,"EG":13728,"Ms":13729,"ĠLA":13730,"$^{+":13731,"Ġinterven":13732,"Oct":13733,"ĠTan":13734,"sie":13735,"Syn":13736,"}}({\\":13737,"almost":13738,"eref":13739,"Ġteen":13740,"Ġletting":13741,"Ġsubspaces":13742,"bus":13743,"Ã¡n":13744,"atom":13745,"Ġscattered":13746,"zimuth":13747,"Ġtissue":13748,"osit":13749,"Ġpion":13750,"roke":13751,"Ġorange":13752,"Ġwrites":13753,"Ġlattices":13754,"olo":13755,"Ġhighlighted":13756,"Ġgalactic":13757,"Ġcourses":13758,"ĠCorn":13759,"conditions":13760,"Ġtic":13761,"Current":13762,"Ġantenna":13763,"Ġunchanged":13764,"_{*":13765,"Ġcombat":13766,"ĠDenote":13767,"wing":13768,"nitive":13769,"ĠFA":13770,"-\\!":13771,"Ġbipartite":13772,"Ġquiet":13773,"filldraw":13774,"Ġbeauty":13775,"Ġhouseholds":13776,"Ġperi":13777,"ĠModern":13778,"ployment":13779,"Ġtip":13780,"ĠLaure":13781,"rms":13782,"}$.}":13783,"Ġtries":13784,"Ġsaddle":13785,"eno":13786,"Ġaxes":13787,"sampling":13788,"inder":13789,"Ġpric":13790,"cohol":13791,"ĠLady":13792,"front":13793,"squ":13794,"ĠSchr":13795,"associated":13796,"hop":13797,"Ġdose":13798,"FG":13799,"ĠSab":13800,"DEs":13801,"ĠShort":13802,"Ġrelating":13803,")}+\\":13804,"etrically":13805,"Ġspoke":13806,"select":13807,"notation":13808,"egas":13809,"gypt":13810,"ĠKo":13811,"liminaries":13812,"Ġadjusted":13813,"Background":13814,"Ġrelevance":13815,")\\,.":13816,"Ġcricket":13817,"Ġhousehold":13818,"mus":13819,"Ġwing":13820,"Ġregret":13821,"ĠJesus":13822,"Ġ$(-":13823,"Ġtube":13824,"auer":13825,"Ġblu":13826,"}{(\\":13827,"Ġseats":13828,"Ġballs":13829,"micro":13830,"tious":13831,"Ġcup":13832,"Ġnega":13833,"Ġsubtle":13834,"Ġtransmitted":13835,"Clearly":13836,"Ġbaselines":13837,"dark":13838,"^{-(":13839,"osph":13840,"Ġopposition":13841,")}{(":13842,"ĠOl":13843,"fall":13844,"Ġtrouble":13845,"ĠGab":13846,"Ġinstructions":13847,"ounce":13848,"Ġemployment":13849,"Ġmultiplicative":13850,"inkowski":13851,"ightest":13852,"Three":13853,"Ġbacter":13854,"4000":13855,"Ġspectroscopy":13856,"umar":13857,"Ġgrateful":13858,"ĠDream":13859,"igm":13860,"Ġunivers":13861,"??":13862,"yes":13863,"oken":13864,"Ġrepresenta":13865,"ĠHi":13866,"uper":13867,"ĠHopf":13868,"Ġ×":13869,"Ġpray":13870,"mbf":13871,"Ġsimplicial":13872,"Ġconcludes":13873,"ĠPL":13874,"ska":13875,"1944":13876,"cyclic":13877,"{%":13878,"anni":13879,"^-\\":13880,"Ġhall":13881,"Ġreviewed":13882,"Ġspac":13883,"190":13884,"oved":13885,"ĠPO":13886,"Ġchampion":13887,"Ġwithdraw":13888,"175":13889,"ĠInitial":13890,"ÃĤ":13891,"Ġhighlights":13892,"property":13893,"bach":13894,"perties":13895,"Ġfault":13896,"Ġoccupation":13897,"writer":13898,"ĠLSTM":13899,"Ġexponents":13900,"nothing":13901,"udio":13902,"mates":13903,"Ġcorrel":13904,"ellows":13905,"tens":13906,"Pers":13907,"ĠWI":13908,")=-\\":13909,"temp":13910,"Ġruled":13911,"urious":13912,"ĠTab":13913,"Ġfro":13914,"\"]":13915,"enda":13916,"changes":13917,"ĠDoc":13918,"Ġbuffer":13919,"ilder":13920,"fix":13921,"dn":13922,"Ġga":13923,"Ġcontributing":13924,"ĠGh":13925,"////":13926,"Ġ{(":13927,"Ġregistration":13928,"just":13929,"iga":13930,"gging":13931,"ohen":13932,"oked":13933,"Ġflexibility":13934,"1955":13935,"oda":13936,"Ġbrands":13937,"Ġnorms":13938,"romatic":13939,"ĠAccess":13940,"Ġshortly":13941,"ĠInstit":13942,"ĠAndroid":13943,"GT":13944,"liance":13945,"Ġopacity":13946,"Ġimmun":13947,"posi":13948,"contin":13949,"Ġtimescale":13950,"Ġleverage":13951,"Ġlegislation":13952,"ĠPrivacy":13953,",...":13954,"),$":13955,"Ġhadronic":13956,"Spe":13957,"holder":13958,"Ġrever":13959,"novation":13960,"Ġimagine":13961,"ĠSix":13962,"ĠEarly":13963,"Ġoblig":13964,"avg":13965,"Ġgrains":13966,"Ġfitness":13967,"Web":13968,"Ġkil":13969,"Ġregulations":13970,"ï¿":13971,"ĠRailway":13972,"Ġcontinuing":13973,"rod":13974,"ilde":13975,"ĠCloud":13976,"Ġmembrane":13977,"Ġonset":13978,"Ġmine":13979,"Good":13980,"imath":13981,"}<\\":13982,"Ġchamber":13983,"Ġwinners":13984,"Ġnucleon":13985,"Na":13986,"Ġplenty":13987,"ĠTurk":13988,"Ġexit":13989,"Ġresign":13990,"race":13991,"minimum":13992,"ĠFred":13993,"Ġram":13994,"Ġcounterparts":13995,"Ġconcentrated":13996,"Ġtrains":13997,"ĠBrad":13998,"1948":13999,"uity":14000,"ĠProm":14001,"Ġdebt":14002,"ĠMatt":14003,"Ġintervention":14004,"Ġbackgrounds":14005,"ĠEW":14006,"stret":14007,"ĠSou":14008,"Ġthoughts":14009,"Ġobjectives":14010,"Ġknowing":14011,"Î±":14012,"Ġentertainment":14013,"Ġarrangement":14014,"Ġsearching":14015,"ĠAk":14016,"TeV":14017,"Af":14018,"ribute":14019,"tery":14020,"central":14021,"Ġincorrect":14022,"made":14023,"tuning":14024,"Ġacceptance":14025,"ahn":14026,"curren":14027,"sidi":14028,"Ġcosmology":14029,"ordi":14030,"fre":14031,"igner":14032,"temporal":14033,"transition":14034,"File":14035,"rise":14036,"UL":14037,"Ġretire":14038,"constrained":14039,"})_":14040,"Ġsurvive":14041,"Ġacknowledges":14042,"Well":14043,"nik":14044,"Ġairport":14045,"probability":14046,"meta":14047,"ĠChern":14048,"Ðº":14049,"Ġpolymer":14050,"lib":14051,"rose":14052,"chestra":14053,"_*\\":14054,"std":14055,"Hel":14056,"Photo":14057,"Ġshel":14058,"}}},":14059,"ĠSenior":14060,"Ġwelcome":14061,"Ġretrieval":14062,"Ġapproval":14063,"Ġlensing":14064,"amin":14065,"ĠEX":14066,"jj":14067,"igg":14068,"FD":14069,"}}{{\\":14070,"ĠMoore":14071,"Ġcontracts":14072,"ductor":14073,"carlasg":14074,"Ġastroph":14075,"carlasguns":14076,"ĠInvest":14077,"ĠStadium":14078,"Ġsubmitted":14079,"Ġguest":14080,"Ġ+(":14081,"liu":14082,"tellect":14083,"atar":14084,"profile":14085,"225":14086,"Ġpulled":14087,"Ġazimuth":14088,"Ġcomprom":14089,"/{\\":14090,"conclusion":14091,"Ġencry":14092,"NNs":14093,"Ġfixing":14094,"wen":14095,"Ġvalued":14096,"ĠDemocrats":14097,"noon":14098,"ĠCook":14099,"antry":14100,"sociation":14101,"nc":14102,"ĠResNet":14103,"eah":14104,"ĠOri":14105,"Ġvicinity":14106,"Ġdenomin":14107,"performance":14108,"ĠPerformance":14109,"Ġanalogy":14110,"âĢĻ,":14111,"Ġadditionally":14112,"ĠPrize":14113,"Ġsuperconducting":14114,"rackets":14115,"ĠEdition":14116,"ĠChannel":14117,"simal":14118,"Ġchecking":14119,"Ġaccompanied":14120,"ĠOR":14121,"North":14122,"ĠAh":14123,"|^{\\":14124,"Ġdominates":14125,"Ġwidths":14126,"Att":14127,"ĠOregon":14128,"abul":14129,"ĠLeft":14130,"Ġharder":14131,"nat":14132,"Ġsitting":14133,"SG":14134,"Ġimpressive":14135,"generated":14136,"Ġegg":14137,"Ġdesire":14138,"edges":14139,"ardo":14140,"Ġbeams":14141,"resolved":14142,"Year":14143,"}{*}{\\":14144,"Ġterritory":14145,"ĠTrade":14146,"apa":14147,"}_{+":14148,"ĠJane":14149,"Mr":14150,"mel":14151,"examples":14152,"ĠConstit":14153,"})]":14154,"Ġproteins":14155,"igenous":14156,"expansion":14157,"Ġaxial":14158,"zan":14159,"rimination":14160,"ĠDor":14161,"update":14162,"Ġconvert":14163,"geometric":14164,"Ġradical":14165,"}}^{-":14166,"isenberg":14167,"}:=":14168,"Ġgram":14169,"ifolds":14170,"Men":14171,"Ġblockchain":14172,"Ġdollars":14173,"Ġcameras":14174,"Point":14175,"inated":14176,"usive":14177,"Ġexploring":14178,"'^":14179,"hence":14180,")}\\,":14181,"cam":14182,"Ġbasically":14183,"Ġundergo":14184,"Ġ...,":14185,"ulsion":14186,"Ġfiltration":14187,")}-":14188,"Ġaccounting":14189,"Ġvictims":14190,"ĠHeart":14191,"Ġparton":14192,"Ġnotions":14193,"Ġdrag":14194,"yu":14195,"Ġbijection":14196,"quarters":14197,"Ġdiscl":14198,"ĠHR":14199,"ĠEV":14200,"emed":14201,"Ġinvestigations":14202,"Ġfold":14203,"Ho":14204,"ĠSher":14205,"reson":14206,"Ġtiny":14207,"Ġcompac":14208,"fish":14209,"FO":14210,"ensen":14211,"rosso":14212,"ĠLiter":14213,"uests":14214,"Ġmanual":14215,"Ent":14216,"Ġrevers":14217,"oulder":14218,"succ":14219,"Ġyielding":14220,"IB":14221,"nan":14222,"Ind":14223,"mental":14224,"rVert":14225,"Der":14226,"Again":14227,"Ġdiscipl":14228,"Exception":14229,"Ġbug":14230,"ĠFried":14231,"ĠRoss":14232,"infinite":14233,"ĠMoh":14234,"TO":14235,"asts":14236,"Ġemitted":14237,"ĠMember":14238,"ĠKevin":14239,"lush":14240,"edi":14241,"colsep":14242,"Ġrush":14243,"West":14244,"ĠFM":14245,"ĠTurkey":14246,"Ġfidelity":14247,"Ġexem":14248,"Ġrecommendations":14249,"Ġslic":14250,"Ġreligion":14251,"Ġdependency":14252,"Ġwheel":14253,"dorff":14254,"emia":14255,"Ġtruncated":14256,"quasi":14257,"ĠHal":14258,"ĠCN":14259,"ĠRGB":14260,"Ġsolves":14261,"ĠMun":14262,"\\,(":14263,"Tw":14264,"ĠAtlantic":14265,"Ġmovements":14266,"Ġentangled":14267,"graphs":14268,"Ġpc":14269,"oom":14270,"emeter":14271,"flix":14272,"Ġdiffuse":14273,"ĠOlympic":14274,"DO":14275,"Ġdifferently":14276,"Ġcircuits":14277,"Act":14278,"orne":14279,"ĠChen":14280,"Ġmonotone":14281,"Ġbracket":14282,"vary":14283,"Ġmusicians":14284,"owned":14285,")&=":14286,"Ġrejected":14287,"Ġdownstream":14288,"Ġhalos":14289,"asympto":14290,"Ġdistant":14291,"Ġfake":14292,"ĠFer":14293,"Ġsinglet":14294,"Ġrepresentatives":14295,"ï¿½":14296,"Phone":14297,"alp":14298,"ĠLeon":14299,"riends":14300,"Norm":14301,"Ġinnovative":14302,"Ġpublications":14303,"ulators":14304,"Ġengaged":14305,"asty":14306,"3000":14307,"ĠPrinci":14308,"Mass":14309,"aved":14310,"breaking":14311,"loads":14312,"Ġawareness":14313,"]{$\\":14314,"Ġtalks":14315,"ikes":14316,"glu":14317,"Ġmedicine":14318,"balance":14319,"Ġroof":14320,"dir":14321,"âĢĻ.":14322,"lobe":14323,"Ġneuro":14324,"Ġeigenstates":14325,"Ġtrail":14326,"Ġbat":14327,"Field":14328,"Ġproposals":14329,"Zhang":14330,"stars":14331,"Ġharmon":14332,"Ġconcentrations":14333,"tah":14334,"wick":14335,"Ġanth":14336,"atern":14337,"ĠWord":14338,"ĠHarris":14339,"Ġprescription":14340,"formative":14341,"Ġorthonormal":14342,"Ġsmoothing":14343,"Ġparticipation":14344,"Orig":14345,"mill":14346,"urers":14347,"Ġunusual":14348,"ĠGreg":14349,"ĠCON":14350,"Pat":14351,"ĠKansas":14352,"Ġpione":14353,"elfare":14354,"graded":14355,"ysh":14356,"ĠGallery":14357,"Ġlect":14358,"ĠTam":14359,"enh":14360,"1939":14361,"Ġportfolio":14362,"pseud":14363,"Ġboys":14364,"Ġlots":14365,"lVert":14366,"ĠRevolution":14367,"shown":14368,"ĠPremier":14369,"Ġfee":14370,"SV":14371,"134":14372,"Ġlatency":14373,"ĠNaz":14374,"ootstrap":14375,"Ġ$+":14376,"ĠThanks":14377,",-\\":14378,"Ġrewritten":14379,"Google":14380,"ĠUnlike":14381,"din":14382,"Ġduty":14383,"ĠPit":14384,"Normal":14385,"ila":14386,"Ġsolver":14387,"Ġpredicting":14388,"enius":14389,"Career":14390,"ĠChap":14391,"smaller":14392,"Austral":14393,"Sports":14394,"\\,$\\":14395,"Ġengage":14396,"Cam":14397,"elve":14398,"Mal":14399,"idity":14400,"ĠHouston":14401,"Ġboat":14402,"Ġrobots":14403,"east":14404,"sell":14405,"taking":14406,"Apr":14407,"Ġsubmit":14408,"dB":14409,"RN":14410,"004":14411,"Ġrecommendation":14412,"lain":14413,"Ġbroke":14414,"fan":14415,"Review":14416,"Ġracing":14417,"fining":14418,"@{-":14419,"Ġacceptable":14420,"+|\\":14421,"ĠSob":14422,"\\},\\":14423,"Ġwalks":14424,"Ġ(@":14425,"agan":14426,"acon":14427,"handed":14428,"takes":14429,"1954":14430,"ĠHollywood":14431,"tered":14432,"ĠGram":14433,"Ġconfusion":14434,"ĠCulture":14435,"Ġtrapped":14436,"Ġsimultaneous":14437,"Ġbeta":14438,"Ġconcert":14439,"Ġfemales":14440,"Ġlibr":14441,"Ġgenerations":14442,
[...]
