#version: 0.2
Ġ Ġ
Ġ t
i n
Ġ a
h e
o n
e r
ĠĠ ĠĠ
r e
Ġt he
a t
e n
o r
Ġ s
a n
e s
i s
i t
Ġ o
Ġ w
a l
Ġ c
e d
a r
Ġ f
n d
Ġ p
in g
i on
Ġo f
Ġ b
Ġ in
i c
o u
a s
l e
Ġa nd
Ġ m
Ġt o
Ġ d
r o
en t
Ġ h
ĠĠ Ġ
c t
i l
s t
e t
Ġt h
ĠĠĠĠ ĠĠĠĠ
e l
o m
Ġ re
â Ģ
a m
Ġ S
Ġ n
Ġ C
i d
o l
Ġ l
Ġ T
Ġ A
at ion
Ġ e
c e
u r
u t
o t
i m
i v
i g
a d
Ġ I
Ġ (
s e
c h
Ġ g
Ġ is
Ġ M
Ġf or
l y
a y
Ġ on
o w
Ġb e
er s
u l
Ġ P
i r
Ġs t
Ġ B
e m
u s
u n
a g
t er
Ġth at
i f
it h
r a
o d
ĠĠĠĠ ĠĠĠ
v er
2 0
Ġa s
Ġ H
is t
t h
u m
he r
Ġ R
at e
Ġ D
Ġc on
es t
Ġ v
Ġw ith
p e
a c
a b
a v
Ġ F
Ġw as
Ġ =
o c
an d
Ġa l
Ġa n
Ġw h
Ġ L
Ġ W
ĠT he
Ġ it
âĢ Ļ
< /
Ġp ro
o p
Ġ N
r i
q u
ĉ ĉ
es s
e w
h t
re s
Ġ G
1 9
= "
Ġ E
it y
or t
il l
Ġ he
Ġa t
Ġd e
Ġ y
ou r
Ġb y
Ġc om
ro m
o s
) ;
p p
- -
en d
ct ion
m ent
p t
u b
ar t
Ġ $
o re
l d
Ġ or
a in
as s
Ġ <
Ġe x
i es
Ġ J
Ġ {
k e
n t
e x
am e
Ġ âĢ
Ġa re
Ġf rom
al l
Ġ O
Ġ "
an t
Ġ r
Ġs e
Ġ \
u d
iv e
u e
ĠĠĠĠĠĠĠĠ ĠĠĠ
/ /
i al
ag e
Ġ U
Ġc l
Ġ u
in e
ig ht
č Ċ
o g
Ġth is
e ct
u re
u st
ar d
b er
p l
an s
av e
g e
Ġ *
Ġc h
Ġn ot
a p
c l
r ou
o v
. .
T he
i z
' s
ar y
ou t
Ġs h
Ġw e
ic h
ĠS t
p er
Ġ le
0 0
ul t
i a
f f
el l
as t
at ed
o st
ac k
e ar
a re
Ġ }
" >
c on
Ġp l
Ġ K
Ġh ave
Ġs u
20 1
i re
i p
or k
or d
a k
on g
ĠI n
ic al
Ġh is
or m
ur n
ou ld
Ġh as
p ort
âĢ Ŀ
e f
ab le
at h
ic e
om e
o k
Ġ j
ion s
r y
Ġa b
c c
s p
t her
in d
l ic
id e
i an
ĠĠĠĠĠĠĠĠ ĠĠĠĠĠĠĠĠ
ig n
ex t
in t
im e
en ce
Ġ V
ĠĠĠĠ Ġ
Ġw he
Ġcon t
Ġy ou
Ġcom p
e g
Ġwh ich
l i
e p
er e
Ġin t
Ġ k
) ,
ou s
Ġa d
ĠC h
a ct
ation s
as e
Ġal l
p h
r u
i le
Ġ if
Ġ un
er v
s o
a ce
ou nt
) .
it e
Ġcl ass
* *
g h
t r
Ġc an
ĠâĢ ľ
Ġ im
or y
an g
i b
Ġa r
I n
an ce
it ion
Ġt r
Ġ &
e c
m er
e v
Ġg o
en s
en c
t urn
g et
il d
Ġ us
Ġthe ir
Ġwh o
d u
Ġw ere
on e
Ġ Ċ
Ġb ut
-- --
is h
ent s
Ġ -
ĠT h
y pe
f orm
Ġn ew
o b
res s
Ġw ill
= =
Ġre s
Ġ '
Ġd o
c om
re f
20 0
od e
a u
( )
Ġthe y
j ect
Ġal so
al ly
Ġon e
a ch
a il
ter n
Ġo ut
_ {
ub lic
Ġp art
ir st
ow n
r ic
ou nd
Ġh ad
Ġm e
r it
at a
Ġp er
Ġy ear
Ġd is
or s
l l
re e
Ġm an
on t
f er
Ġw ork
o ok
Ġm ore
Ġ en
Ġit s
1 8
Ġ Y
ĠU n
ar k
o se
c k
Ġo ther
ĠH e
at es
Ġa g
ro w
in k
t e
Ġbe en
he d
Ġe v
Ġu p
a ke
n e
ĠI t
r ing
el y
ĠĠĠĠĠĠĠĠ ĠĠĠĠĠĠĠ
a w
Ġs c
cl ud
f t
o ol
1 0
Ġre turn
oc k
ol l
Ġab out
nd er
s s
Ġp e
ation al
ol d
op le
am p
el f
Ġ her
Ġt e
er t
n g
ver y
w o
ri b
Ġs o
Ġa pp
f ter
Ġ [
ing s
Ġf irst
Ġs p
Ġ |
at er
ay s
v el
Ġo ver
Ġcom m
i ew
al ue
Ġ qu
our ce
Ġl i
Ġp re
p ro
a id
Ġ //
Ġ </
Ġt ime
Ġp r
an c
w e
Ġre c
p s
is s
en er
Ġn e
Ġw ould
on s
u al
ul l
: :
.. /
pt ion
ĠâĢ ĵ
er m
le ct
ĉĉ ĉĉ
{ \
o y
s c
S t
ad e
Ġbe c
- >
un ction
Ġpe ople
pe c
Ġthe re
et h
i e
Ġwhe n
Ġof f
" ,
Ġ ro
r am
d iv
y st
s h
Ġk n
re at
em ber
pe ct
Ġth an
o int
on d
v e
l es
Ġa cc
Ġde f
Ġan y
Ġp ublic
in al
Ġg et
Ġint o
Ġd es
ic s
it ed
Ġpl ay
Ġ$ \
i el
ĠC om
Ġt wo
o ver
Ġu nder
u g
Ġin clud
Ġin ter
ig h
i ous
t t
Ġthe m
ic k
m a
or ld
iz e
re d
it ies
iv ers
Ġas s
ĠA r
Ġs aid
p ar
Ġ /
mer ic
i o
Ġs ome
id ent
Ġ @
m l
Ġs et
m ath
1 2
Ġa ct
Ġs he
ic t
ess age
E x
p r
rou nd
ar ch
Ġre g
Ġo ur
l and
ol og
ĠN ew
w ard
19 9
i ed
Ġ .
if ic
u p
as ed
âĢ ĵ
yst em
iel d
t y
i x
Ġ +
a pp
n ing
Ġat t
Ġb et
2 1
Ġon ly
Ġn ame
Ġp ol
Ġo b
Ġa fter
( "
p ut
Ġre l
at ive
Ġin v
Ġcon s
y s
Ġs ub
ur ing
al s
Ġad d
is e
Ġn o
( );
Ġs erv
le ment
sp an
> </
Ġt ra
a x
w n
Ġpro v
re n
Ġyear s
pp ort
s et
ar g
Ġc ol
au se
rou gh
em ent
t he
c re
Ġwh at
Ġwhe re
Ġin d
o od
Ġb u
ov e
Ġ end
Ġa m
ĠS e
an ge
ĠA meric
ul ar
ĠTh is
Ġf il
Ġv ar
1 6
ch ool
1 5
or n
Ġe m
> <
---- ----
Ġst ud
an y
Ġm ost
o ot
at ing
Ġ ra
an k
am es
ut ion
ire ct
u nd
le t
Ġcon st
il y
Ġli ke
i ent
rou p
ĠP ro
Ġtr ans
' ,
if e
m s
e b
u es
Ġsu ch
Ġf e
Ġj ust
enc es
c ed
Ġp os
Ġm ay
er r
ou gh
um ber
Ġm od
1 7
m an
../ ../
t ext
_ _
. âĢĿ
g an
Ġre m
Ġb l
Ġth rough
E R
t s
Ġh im
il ity
Ġ| |
e qu
Ġh ow
ot h
Ġin st
ut h
is hed
oll ow
p os
Ġf unction
Ġd if
T h
c he
f ig
as h
ĠA l
t on
Ġp res
al e
ist s
in ce
} }
in s
ivers ity
Ġ :
Ġ ent
: //
is ion
h ip
Ġm y
Ġf l
ers on
ow er
it t
ib le
Ġl oc
ou n
Ġc ount
Ġpro du
Ġthe se
t o
d er
it s
Ġthe n
1 1
ar s
Ġc o
Ġb ack
o id
en g
a ir
r ay
== ==
ht ml
Ġre qu
oc i
P ro
we en
ra ct
c ent
at ic
u res
Ġc all
^ {
at or
con d
Ġa c
a h
** **
Ġs pec
Ġ* /
o h
e k
Ġag ain
O N
as on
f ul
re nt
at ch
ke y
Ġp h
ut e
l ine
ra ph
ru ct
s ource
Ġw ell
in ed
3 0
Ġh ref
an n
ĉĉ ĉ
r ight
19 8
l ed
b le
ĠW e
Ġman y
m essage
ĠĠĠĠĠĠĠĠ ĠĠĠĠĠĠĠĠĠĠĠ
Ġd ata
1 4
Ġu se
ab el
tr ans
l ation
im es
Ġbet ween
s on
Ġc ould
in es
ĠĠĠĠĠĠĠĠ Ġ
at t
le ction
} \
Ġf ollow
ic es
c ess
Ġres ult
} $
er y
Ġy our
( '
is m
m in
Ġ #
Ġsh ow
al th
Ġr ight
r al
Ġl ine
I N
ot her
n ame
Ġne ed
e ad
1 3
2 2
Ġ el
Ġfor m
ĠS h
) )
o x
v ent
Ġbe ing
o ad
id er
ĠA nd
re ad
ment s
Ġ ed
y m
he n
at ure
Ġf am
ri pt
ĠA n
Ġt ype
n er
Ġc ur
iv es
p en
2 5
Ġar t
u ch
Ġus ed
âĢ ľ
Ġv alue
ou se
Ġm ade
S tr
N ame
Ġde c
th is
Ġd id
Ġd ist
Ġe ff
ĠI nd
C h
Ġf ound
Ġbec ause
c ol
f ore
c es
00 0
ag es
Ġg ener
Ġkn ow
Ġc ent
, âĢĿ
Ġw orld
Ġe ar
or th
Ġle ad
al se
d d
a z
y n
. ,
Ġst art
Ġex t
ĠW h
i er
iz ed
us s
Ġo wn
d ay
Ġdif fer
ĠUn iversity
i ence
Ġl ong
vel op
ĠA s
g ram
u c
t d
ĠC l
Ġn ow
r ad
Ġde velop
a j
ak ing
o f
e ver
19 7
er n
Ġch ar
Ġ= >
iv er
( \
t en
w ay
Ġa p
eth od
Ġc re
ant s
eg in
Ġm ed
Ġsh ould
Ġbe fore
im port
at her
Ġs elf
. "
ĠC ol
g ht
R ef
/ >
R E
T ype
v iew
Ġs ur
I d
Ġs ystem
um ent
Ġs ign
ou th
Ġe very
w w
ur y
par am
Ġsu pport
f l
Ġn umber
Ġd uring
ĠC on
ĠD e
as k
ĠF or
I t
} ,
n ment
Ġst ate
ire d
C om
Ġm ake
ĠS c
Ġgo ver
Str ing
et s
Ġs er
Ġth ose
C on
Ġm ov
ĠAmeric an
Ġex p
Ġ Z
Ġd et
Ġm on
Ġ est
in ess
ĠCom m
# #
Ġp ar
Ġh igh
Ġth ree
ra c
olog y
b ers
Ġ very
ĠI s
Ġ Q
Ġb el
ac he
form ation
el s
Ġev en
it le
A T
Ġm in
b egin
C ont
t ing
or g
" />
b all
Ġcomm un
ce pt
ĠUn ited
Ġhe l
t a
Ġwh ile
i k
iv ing
S T
iv ed
Ġp oint
it al
ĠF r
Ġte am
Ġs ame
od y
5 0
s elf
a ult
e e
Ġst r
ist ory
Ġw ay
' t
Ġb oth
Ġd irect
Ġs im
ĠT r
ht t
ur al
iv ate
I D
Ġg u
re turn
Ġs m
Ġw rit
c ode
trans lation
Ġc ase
ad d
Ġex per
Ġch ild
Ġs chool
cc ess
Ġo per
con t
om en
ers ion
Ġf in
in a
ction s
tern al
are d
Ġl aw
ĠS he
19 6
Ġp erson
Ġre p
us ic
u ally
ce ption
Ġl ast
us iness
Ġse e
cl ass
r on
A R
Ġm em
ill ion
R es
c al
Ġc our
is ter
a f
Ġim p
Ġe ach
i ev
Ġinclud ing
Ġl ife
Ġt est
al k
ro ss
Ġcont in
ĠE x
c o
oh n
Ġdo es
ch n
Ġ i
ical ly
Ġre ad
Ġre sp
y le
ĠP h
Ġpart ic
2 4
l ish
b l
Ġc are
Ġth ink
Ġre le
d ef
iss ion
Ġc or
ion al
Ġse cond
ot e
A r
Ġl ist
Ġagain st
u ro
b y
uth or
Ġre port
) $
Ġapp ro
iv en
g y
O R
Ġim port
enc y
L ist
ĠS p
iz ation
et y
b r
Ġbu ild
Ref er
o ber
Ġm uch
Ġ !
_{ \
e y
en se
Ġhel p
.. .
Ġdis c
ĠB l
s er
o le
ĠM ar
l ished
Ġp op
m od
Ġv al
ĠâĢ Ķ
et er
Ġdiffer ent
b ack
re am
ĠE ng
p on
p le
Ġf act
l oc
Ġrec ord
C l
Ġw ant
Ġpro gram
Ġb ook
ric t
m ed
en n
t il
u se
Ġst at
tern ational
ĠSt ates
Ġr un
v en
are nt
) :
w ork
re m
2 3
ĠB ut
n ess
Ġ _
s u
Ġl ook
} {
c ur
v al
if ied
t ype
ro l
e le
Ġtr ue
Ġde p
Ġ --
um m
Ġp ass
Ġc ar
ĠL e
Ġm ain
ot t
Ã ©
es c
res ent
al ity
r ist
f or
Ġs ing
ial ly
amp le
f o
Ġper form
Ġm ark
20 21
l abel
Ġgo od
E N
pl oy
Ġcur rent
Ġg l
as es
o ard
Ġap pe
Refer ences
ain s
Ġs ince
le y
Ġpol it
Ġ= =
Ġd r
un e
âĢ Ķ
r ation
Ġh and
le ar
y p
Ġd on
v ar
.. ..
le ft
ar m
W e
Ġd own
Ġre ce
con om
ĠO n
oc ial
Ġor gan
et a
4 0
ĠJ an
Ġf ind
per ty
Ġfil m
Ġf alse
Ġe qu
Ġst ill
id th
Ġgover nment
Ġa v
ĠJ ohn
ĠP l
ĠM ay
Ġle g
A L
it ions
Ġan n
Ġn ull
Ġo pen
Ġfam ily
Ġf inal
if y
ur ch
ĠA d
ain ed
Ġpro cess
Ġf our
a pt
Ġprov id
Ġt ake
um an
r is
Ġel se
p or
u le
Ġdes c
Ġpl ace
Ġex pl
err or
ĠThe y
Ġin formation
Ġor der
f ess
Ġs ol
"> <
p re
Ġs om
Ġa round
Ġg r
ĠO r
g er
20 20
ĠR e
ĠâĢ ĺ
L E
i or
S S
ar get
e q
ak es
f rac
ĠC ent
Ġoff ic
Ġt erm
ĠR es
ĠY ou
op t
b ar
ĠY ork
Ġd ay
Ġg roup
Ġl ink
ĠH ow
se arch
ri es
ar n
Ġv oid
Ġ `
i ans
Ġb usiness
Ġad v
ir d
Ġhe re
T o
Ġor ig
ul ation
Ġs ay
Ġre f
Ġv is
ro ll
am b
og raph
2 6
ĠĠĠĠĠĠĠĠ ĠĠĠĠĠ
eng th
Ġin cre
Ġ >
O n
Ġl ater
m p
Ġm ust
Th is
math b
aj or
ĠN ational
ĠU S
st ring
in ing
Ġhe ad
u ild
is ed
2 7
re en
1 00
st r
s ide
Ġs l
-------- --------
Ġeff ect
Ġn on
ĠI f
qu e
Ġcons ider
rib ut
Ġpr ivate
end s
av a
2 8
ĠW orld
Ġpro t
Ġfollow ing
v ious
ir c
Ġc he
Ġinter est
Ġp ower
) );
Ġkn own
av ing
ĠC an
Ġre st
Ġb ro
b s
m y
um n
Ġd em
Ġse ver
ol v
ot s
re g
Ġall ow
Ġdes ign
19 4
o pe
Ġpos s
erv ice
l er
Ġg reat
ĠE uro
in c
it em
Ġinv est
Ġh ome
s ub
Ġloc al
Ġpro ject
Ġwe ek
Ġcon f
our n
Ġcount ry
os s
Ġre al
at ely
th s
us h
an e
ra w
ĠĠĠĠĠĠĠĠĠĠĠĠĠĠĠĠ ĠĠĠĠĠĠĠ
r or
ĠA ll
Ġcall ed
C ol
pl ay
a im
A N
W h
he re
Ġto p
A s
Ġf ield
Ġus ing
ord ing
Ġhe alth
n ew
n ot
ĠC ount
Ġ )
A n
ĠP r
Ġ x
ĠSt ate
Ġse ason
Ġb est
i um
Ġsm all
Ġgo ing
u ary
ro p
B y
g g
Ġm usic
Ġg ame
b e
2 9
ĠW ar
le x
in ation
Ġc ap
Ġev ent
Ġm at
ĠN ov
ĠC ar
r m
Ġ id
Ġp ost
b ject
l ess
id d
ĠA ss
Ġp at
d ata
Ġcomp any
Ġex pect
Ġm et
n b
a i
Ġst and
iv ely
Ġre t
Ġte chn
$ .
**** ****
v ir
Ġf r
Ġ X
ĠA t
I T
U n
ver t
end ed
ect ed
3 2
ord er
i am
Ġpres ent
Ġg iven
as ter
201 6
at s
he ad
Ġ ke
c ite
Ġchar act
Ġw omen
d ate
Ġd el
Ġn ext
or ies
oc ument
201 8
// //
ar ge
Ġar g
Ġan other
Ġin c
il it
Ġb re
" );
Ġle ft
ab ility
le g
Ġser ies
20 19
" .
Ġle vel
le ge
201 7
Ġo ld
Ġis s
ĠP ol
Ġh tt
$ ,
ert ain
ĠEuro pe
ou ght
Ġwith in
ob al
ĠJ u
ĠA ug
ĠA f
er al
201 5
V alue
19 5
ĠB rit
Ġm illion
Ġsu ccess
Ġman ag
ĠA ust
w ays
ĠM an
ang u
Ġf ac
3 3
ff er
Ġun til
b um
m e
ĠM in
ĠS chool
C T
oot ball
Ġst ring
Ġe lect
Ġp ub
D ata
S E
it or
st and
ent ly
Ġob ject
ep end
" )
Ġre ally
Ġest ab
Ġw in
com m
t ime
} )
nb sp
ĠS outh
Ġm ethod
ĠCh rist
Ġchild ren
ĠĠĠĠ ĠĠ
st it
f ile
Ġb r
loc ation
ic le
Ġde ath
ne y
ro id
Ġb ased
ĠO ct
um p
ri ed
Ġwith out
Ġmem bers
ic y
F or
et work
Ġo cc
re qu
ent ial
Ġa uthor
m b
ward s
H e
Ġv iew
Ġbec ame
p x
201 4
Ġen g
Ġin it
m ber
Ġm ajor
ate g
ag ue
on y
ĠB e
ĠM arch
Ġc ity
Ġa ff
en e
} .
f ace
Ġl and
==== ====
math cal
a ction
i od
Ġ key
Ġs pe
Ġt itle
om an
âĢ ¦
pt ember
ĠN o
g in
Ġe conom
pr il
ĠThe re
Ġh istory
T r
, \
g round
ĠP ar
v alue
Ġg row
ord s
Ġf ew
Ġn ear
Ġm ar
he s
C O
anc es
ra p
Ġw ar
umm ary
Ġplay ers
ĠJan uary
us ed
Ġimport ant
Ġare a
ĠG e
Ġsever al
l og
du ct
Ġed uc
Ġre fer
g o
Ġch ang
iv al
ĠA ct
Ġpro ble
Ġear ly
ff ic
l ing
ition al
ce mber
Ġrep resent
ĠC o
ĠĠĠĠĠĠĠĠĠĠĠĠĠĠĠĠ ĠĠĠĠĠĠĠĠĠĠĠĠĠĠĠĠ
ĠP res
sc ript
S h
port s
d a
um er
Ġbe h
Ġs ong
Ġh app
Ġo pt
ent ion
D E
our ces
S et
ĠM ed
ĠF l
Ġcon d
ĠJ une
ĠC al
201 3
Ġ/ **
M E
am ent
ist or
, "
Ġc r
art ment
ail able
] ;
equ ation
un c
f ield
Ġch ange
ĠS o
E r
am ed
ur ther
itt le
ore d
Ġqu est
Ġt ry
ph a
ĠJu ly
ĠT e
201 0
201 2
Ġs ocial
ĠG erm
ĠC ity
Ġp ur
al es
c er
Ġ// /
Ġcommun ity
6 0
ĠG u
Ġ ident
Ġmod el
os p
ac y
ĠSe ptember
I nd
vir on
A l
Ġs ays
Ġpro m
' )
Ġa ut
Ġf und
ĠA pril
Ġserv ice
ind ow
Ex ception
] ,
} (
Ġre search
Ġf ore
il t
Ġne ver
( $
ri ption
Ġal bum
ĠAug ust
ĠOct ober
Ġp ut
S e
Ġem ploy
201 1
r ite
em s
ĠP art
ĠR ep
con st
ĠCount y
Ġal ong
it ive
Ġt urn
Ġ& &
op y
Ġs k
Ġst ory
Ġ ide
a pe
ĠS u
it er
er ing
Ġst atic
id ual
Ġl im
htt p
Ġstud ents
ut ure
Ġh uman
ust om
Ġinclud e
Ġc amp
Ġ z
r c
end ing
ĠDe cember
al f
t est
Ġm ult
ĠN orth
A C
em pt
is on
ĠE d
Ġact iv
ĠW ill
Ġdesc rib
Ġin f
Ġfor mer
Ġl ess
3 5
Ġle t
Â ł
Ġin s
os ed
Ġpl an
Ġ %
Ġlink s
ĠNov ember
ĠR eg
re t
8 0
ĠSt ring
} ^
s w
w h
Ġacc ess
eth ing
ain t
i ol
in ter
im ate
Ġp ay
ww w
ab ly
Ġth ings
T est
I C
G et
l ist
Ġl arge
ol ution
P ar
u ck
i ef
ut il
O bject
Ġsh ort
Ġst ruct
Ġw on
ĠE n
ĠA b
} _
~ \
6 4
Ġ! =
Ġn ational
A A
Ġcom e
ure d
ific ation
Ġwork ing
o ff
Ġc ult
Ġex ample
ight s
Ġde b
a ff
ĠH ar
s ize
angu age
w are
F F
ĠF eb
Ġpartic ular
Ġm en
ĠM c
if t
Ġto o
Ġc rit
ĠTh at
d is
ac es
il ar
p ublic
ress ion
Ġdevelop ment
R O
M od
viron ment
Ġbel iev
v es
Ġto ok
ĠCan ad
a ut
Ġvar i
Ġyou ng
ĠAf ric
oun c
un g
Ġs it
( ).
Ġpro fess
l ink
Ġb ig
Ġl arg
Ġp ract
Ġf ull
her n
Ġper iod
Ġas k
3 1
ĠT o
Ġp o
th ing
ard s
Ġind ust
id ence
Ġt em
Ġsu pp
at ors
Ġapp lic
Ġg ot
Ġin div
read y
Ġcl aim
n av
re w
Ġb as
Ġro le
Ġd ue
ĠG r
Ġrequ est
Ġbec ome
Ġm ember
se ction
ĠĠĠĠ Ċ
che s
Ġf ail
ĠAust ral
is ing
E n
Ġam ong
ĠB r
j s
ru ary
"> </
Ex ternal
Ġav ailable
ap s
ĠH is
V iew
il es
Ġan al
y l
our s
Ġal ways
Ġcomp et
l oad
ide o
ĠHow ever
Ġl ot
Ġm ight
I m
Ġprodu ct
Ġsing le
p art
htt ps
ad em
ater ial
Ġe lement
() );
t op
Ġf ile
f unction
one y
al pha
Ġof ten
ĉĉĉĉ ĉ
Ġsom ething
ĠPres ident
Ġj o
ĠD ep
I ON
ag er
og le
ind ex
S c
rib ute
Ġto t
Ġf ootball
Ġme et
200 9
Ġindiv idual
Ġpolit ical
pl es
3 4
ra ft
id es
Ġf ive
Ġme an
. </
el ta
Cl ass
Ġ enc
ict ion
ur g
in clud
Er ror
Ġc ame
and s
it her
ur l
" ;
200 8
Ġc ost
ab or
Ġf ri
ak en
ar i
oci ety
Ġf oc
i pp
Ġd ays
Ġt ri
] .
3 9
ur s
a it
Ġp ort
og n
Ġh old
Ġstud y
Ġt imes
col or
al ign
ag n
Ġpar am
lect ed
ul es
Ġd i
Ġt ext
Ġgener al
Ġbet ter
d e
[ '
ourn al
s k
Ġd iv
h am
Ġab le
ĠB ar
Ġcomp let
Ġw ater
ĠW est
Ġt arget
um e
s erv
Ġpos ition
ec ut
ru ction
W ith
ing ton
Ġf ar
ĠBrit ish
Ġb ir
ev el
ĠC our
ĠR uss
Ġor g
at us
Ġh ard
v ers
Ġ/ >
ĠA g
=" +
! --
Ġspec ial
Ġcharact er
Ġcare er
t ies
ĠCom p
ilit ary
Ġinv olv
Ġex ist
Ġhe ld
u ed
ĠAr t
ĠFeb ruary
th ough
3 7
Ġserv ices
Ġcont ent
A P
Ġac ross
on es
Ġcon c
" :
u f
Ġp ast
qu ot
Ġcre ate
v ision
Ġmark et
Ġres pect
min ist
Ġc lear
Ġs ize
L L
. _
Ġde v
s ummary
Ġplay ed
w idth
Ġpre vious
amb da
Ġcont rol
c her
Ġc over
s el
Ġh aving
c ast
ĠK ing
Ġl a
p ace
ĠC or
ain ing
end er
is k
../../ ../../
A S
ers hip
ap an
ĠE l
w it
Ġrele ased
Ġrece ived
Ġal ready
p ath
ap er
R e
a ul
ĠD r
Ġh ouse
ear ch
3 6
K ey
ounc il
Ġb o
Ġa ge
P l
ĠH ouse
Ġa ction
Ġm aking
Ġme as
4 5
E D
Ġv ersion
Ġbe gan
Ġl ittle
Ġ Â
Ġle ast
ond on
ur ation
Ġadd ress
ĠC O
Ġs ix
z e
u k
Ġresult s
Ġe as
9 0
Ġprov ide
ĠAmeric a
h old
Ġh ig
Ġorig inal
R equ
op h
Ġ et
get her
3 8
Ġto gether
Ġof fer
id ed
Ġrel ations
Ġf uture
Ġtr ad
ĠI I
re et
i ents
' );
ens ion
Ġk ind
N ot
ack age
u ation
Ġv ol
i que
it te
ect or
d om
ĠD av
ib ility
Ġrequ ire
iv il
g ress
ener al
ro du
Ġar r
Ġt alk
A nd
Ġf ree
ep s
Ġacc ount
if f
re st
I nt
Ġsu per
us er
ĠA fter
Ġs ide
an a
Ġp ri
200 7
Ġfe el
Ġass oci
ĠS ec
ĠW hen
Ġbuild ing
) \
ra ck
Ġim pro
Ġj ob
itt ed
et ers
Ġb en
Ġan t
Ġright s
Ġli k
Ġa ir
ĠG l
b ody
p i
ĠCol lege
Ġwhe ther
M an
y ear
Ġth row
ar ing
ic on
ĠA m
pon se
Ġst yle
Ġth ird
Ġme ans
a e
Ġstr ong
I S
Ġother s
se c
um b
m ost
op er
b ol
Ġposs ible
pl ic
Ġpub lished
7 0
st er
B ut
as c
Ġw ent
A ll
Ġt yp
Ġre du
am ma
Ġr ad
t able
re ed
Ġin ternational
( ),
Ġc ertain
ĠW ith
' ]
T ime
i et
em ents
ct or
rou ps
amp ions
F ile
um ents
Ġcomm on
Ġl og
Ġsp ace
in o
n ow
Ġunder stand
Ġsign ific
ĠIn ternational
Ġk ill
Ġt ax
Ġp arent
mathb b
ĠB y
o ice
ess ion
Ġtot al
pl ace
ail s
i ke
Ġann oun
ed eral
Ġs ent
Ġb ase
Ġexper ience
ĠH er
= \
ĠM e
ib r
Ġd om
ĠC ont
Ġstart ed
olog ical
ĠO ne
Ġ ,
un ity
Ġc a
ĠR ev
l ang
P h
ĠL ondon
op s
ograph y
ĠI m
200 6
m d
l in
ĠS er
Ġf urther
L A
N ew
Ġa way
Q u
Ġv iol
Ġe p
Ġto day
Ġatt ack
us ing
Ġto wn
Ġp ot
ra in
$ \
od es
Ġbre ak
20 22
Ġoffic ial
fl u
Ġsim ilar
ec ess
U R
Ġcour se
an ies
id ge
g ed
ĠCour t
Ġen er
ĠP e
O r
ac c
Ġp ath
ĠCh ar
A dd
at ures
il le
B l
Ġdisc uss
E S
ĠA pp
st ance
ist ic
Ġmed ia
ĠEng lish
Ġ\ \
7 5
Ġper cent
I s
m u
ir l
am a
Ġse en
sh ip
Ġbl ock
ren ch
Ġcour t
Ġph ot
Ġass ert
Ġde g
ir m
ag ed
il ities
ĠJ apan
T R
es e
le te
cl us
Ġcom b
Ġe lection
Ġdet erm
A t
Ġd ocument
D ef
Ġn etwork
Ġg ames
Ġg rad
Ġth ough
T ext
ĠG over
Ġche ck
ac ed
Ġpop ulation
Ġ es
Ġth ought
ĠP ark
ou ble
d own
ĠS ystem
Ġke ep
ĠQ u
Ġre view
## ##
Ġg ive
Ġt reat
Ġo pp
Ġpro perty
Requ est
al d
Ġre ason
Ġeduc ation
ĠThe se
ig ation
ĠB ro
Ġ ?
re c
I f
at ter
ĠWill iam
20 00
ĠC he
anc ial
Ġph ys
itte e
Ġl ive
se qu
Ġcount ries
Ġd one
f ord
n a
g roup
ac hed
Ġresp ons
P E
Ġev ents
_ \
Ġd est
l im
Par am
on se
U T
en ed
ĠA ng
if orn
ĠP er
Ġ error
ĠSt ud
Ġb ody
al t
er ed
Ã ¡
F orm
H E
ĠL aw
Ġ err
idd le
er a
se e
ar ray
Ġbe gin
O ver
9 9
Ġl ove
Ġsub ject
Ġg en
ir t
Ġn amed
d t
ag s
ĠS ch
i j
ĠR ec
ig ma
Ġh ost
Ġ );
Ġcent ury
ym bol
ce ed
Ġwork s
Ġte le
Ġtra ck
Ġb ring
r an
in ary
Ġl ow
ĠD ist
Ġresp onse
es tern
Ġab ove
` `
Ġcre ated
19 0
im ent
ill s
5 5
Ġpro b
w ord
Ġpres ident
con fig
m en
/ **
Ġc oll
/ *
cur ity
Ġdid n
Ġse ction
Ġhtt ps
iforn ia
} ^{
Ġt ell
orm al
Ġm oney
Ġrequ ired
c y
ne ction
A D
e h
N ode
Ġbu ilt
Ġsignific ant
oc r
Ġgl obal
ĠPh il
Ġon ce
St ate
Ġpartic ip
Ġus er
ay er
it ing
Ġwh y
ain er
Ġmon ths
ĠAss oci
ok en
Ġt aken
() )
In fo
au gh
ĠM ich
E vent
Ġ-- >
re l
IN G
Ġener gy
Ġe ver
} _{
Ġdif f
ĠCh ina
E lement
P ath
pp er
h ib
Ġvar ious
ip le
b ook
Ġto ld
Ġch all
Ġh istor
pos ed
com p
o on
st ate
as ing
Ġcont ext
m at
Ġc ases
Ġs af
ames pace
k s
rib ution
ĠR et
l ength
Ġo p
Ġinclud ed
Ġsh all
ĠS m
Ġprovid ed
l t
Ġb and
Ġquest ion
ĠDep artment
Ġar ch
} ;
Ġrec ogn
v oid
Ġl ed
Ġpr im
n ect
um mer
' :
Ġst ates
ay out
Ġserv ed
Ġwrit ten
at ural
Con fig
s y
Ġproble m
ab led
Ġs ource
ign ed
Ġpol icy
ĠCent er
f rom
Ġestab lished
row n
c d
.... ....
- \
Ġen vironment
ĠInd ia
b f
b ox
ri x
Ġb orn
200 5
Ġpoint s
ĠG od
ĠH igh
in it
Ġhow ever
Ġcomp anies
Ind ex
Ġs ite
A pp
Ġshow s
ys is
O T
Ġval ues
Ġr ange
ĠRep ublic
Ġh alf
res p
use um
ĠLe ague
o at
6 6
Ġacc ording
4 8
Ġm aterial
ut ions
Ġben ef
o ke
s m
ĠL a
id s
Ġo pport
ĠM r
Ġm ot
S ervice
g l
Ġterm s
ĠEurope an
ch iev
ĠCal ifornia
h at
Ġth ing
Ġt w
Ġm ilitary
tr ue
att le
r ide
E qu
ĠĠ Ċ
Ġc reat
ĠV ol
ap i
Ġm ass
Ġl ight
fer ence
ĠĠĠĠĠĠĠĠĠĠĠĠĠĠĠĠ ĠĠĠĠĠĠĠĠĠĠĠ
Ġde cl
cont ent
n o
Ġiss ues
ver age
Ġreg ion
Ġint rodu
Ġindust ry
Ġfil ms
or ge
v is
per ties
Ġp ress
Ġe ither
ur b
a el
et t
g r
c ial
ĠA ir
Ġeff ort
ud e
Ġwork ed
p oint
ash ington
a ign
Ġh on
du c
o e
mathb f
ole an
The re
ĠHe alth
Ġc ell
e ed
i us
b or
ĠE m
Ġprodu ction
I G
ampions hip
w ith
ĠD em
Ġex c
Ġde al
Ġr isk
w here
Ġf ather
ĠN ot
ĠD is
ix ed
Ġm om
Ġen ough
Ġdef ault
ĠIn stit
ĠS an
Ġob serv
Ġj ud
Com m
Ġcl ub
\ \
Ġle arn
Ġperform ance
he l
Ġm iss
t itle
Ġint eg
t ain
f in
Cont ext
A meric
l ambda
4 4
Ġimp lement
Ġg roups
Ġd ied
F rom
Ġ __
u el
F ield
Ġset t
Ġt re
Ġc al
b orn
ph i
ĠM y
Ġc irc
' re
Ġadd ition
Ġl ate
u ff
^ {\
ru g
ĠS en
Ġam ount
Ġpart y
Ġimp act
m ark
Ġ( !
Ġcontin ue
Ġsu gg
Ġare as
Ġn eg
Ġsugg est
U N
Ġa ud
v ersion
ref er
ou d
ĠWh at
ra el
Ġv ideo
Ġm ove
un ic
Ġc ode
o or
ĠEng land
b it
A M
n ext
Ġn ecess
ĠC ouncil
= '
s l
Ġm ax
at ory
E T
ĠF rench
at ives
ott om
U S
Ġreport ed
res ult
Ġperson al
ic ult
us es
200 4
Ġfe ature
Ġh om
Ar ray
bl ock
ach ing
Ġc ustom
ar ies
' ;
Ġs old
Ġp ers
ĠE ast
ob ject
Ġin flu
Ġloc ated
Ġar ray
ic o
Ġs on
B C
ric k
u i
al y
iv ity
Ġac cept
ĠA c
y d
ĠInd ian
Res ult
Ġdo ing
Ġcl ose
s um
O f
Ġf all
Ġ} );
b t
Ġappe ar
ĠU K
Ġ/ *
m et
b ut
Ġn ov
pec ially
Ġv ot
cc ording
Ġm atch
c hed
A tt
n own
ĠS w
sel ves
ab les
Tr ans
Ġb i
B uild
Ġexpect ed
Ġs at
Ġm akes
epend ent
ap ache
h o
" "
//// ////
Ġ ens
Ġs ex
Ġ} ,
im al
Ġa chiev
i ation
Ġiss ue
Ġdescrib ed
ic les
Ġent ire
Ġact ually
Ġab s
Ġatt empt
S ee
Ġm er
ann el
Ġnew s
at form
Ġcomp ut
=" ../../../../
6 5
A d
F l
c a
ell ow
ĠG eneral
Ġconsider ed
L O
Ġinst ance
[ ]
i res
u x
qu ad
Ġg round
ĠBl ack
Ġd ate
Ġwe bs
Ġpop ular
Ġoff ice
Ġ Ð
Wh at
Ġrelations hip
m ap
an ch
ĠW ashington
Ġd en
ist ry
Ġbl ack
Ġc ou
Ġy et
Ġal most
Ġr ather
ir it
g es
med i
pl ate
ĠD irect
Ġrel ig
Ġcont ract
Ġeng ine
Ġind ic
Ġdec ision
in ated
ĠD o
in put
Ġl anguage
ĠM or
Ġv ill
M ap
ro te
Ġreg ard
Ġcol or
. )
in n
Ġ{ \
Ġeconom ic
ĠM on
ĠTr ans
Ġtra ining
Ġdirect or
n ode
b ased
un k
c le
ĠCh urch
ak er
Ġv ict
Ġ ill
ĠP al
ound s
g t
se mb
Ġplay er
i ber
esc ription
i ences
v ed
Ġst op
it es
ĠH ol
ar row
ĠNew s
ic ro
is es
il ter
Ġup on
Ġadd ed
Ġrec ent
ĠCanad a
ĠG et
ĠDav id
il on
0 1
ĠL ist
im um
Ġa ward
Ġad minist
Ġannoun ced
Ġb ank
******** ********
oun ter
Ġim m
Ġconc ern
c all
pon ent
ĠV al
Ġbro ad
ĠM ark
Ġm essage
L oc
ĠI nt
Ġfam il
> &
ad es
Ġback ground
C C
yn c
Ġs rc
It em
Ġsuccess ful
Ġf ig
Ġpol ice
pro t
Ġb order
ref ore
Ġcl os
ĠG o
ĠGerm an
Ġm or
C ode
Ġb oard
av y
h ood
P r
f r
Ġopt ions
e es
e ction
S er
4 9
F r
Ġinst it
S ize
j ava
er o
ass ert
Ġs ure
Ġdoes n
ens ive
Ġp age
Ġcon fig
H ow
led ge
D e
Ġl iving
Ġn ight
| -
Americ an
n s
l a
ild e
iz ing
Ġfin ancial
om b
g ing
ĠJ ust
Ġf av
M L
ic a
Ġin put
ra b
c ing
b eta
Ġrele ase
ac her
Ġex am
Ġbe com
ĠP at
ĠJ ames
M essage
osp ital
ell ing
Ġt aking
l ight
ĠAustral ia
200 1
st yle
Ġt able
Ġmon th
+ +
u ffer
li er
ar ter
air s
Ġcon duct
def ault
ĠD on
Ġdiff icult
el t
4 7
Ġc red
ut es
Ġf ood
200 3
cre ate
ĠIs rael
Ġsh are
Ġwho le
p ose
In ter
Ġhtt p
Ġes pecially
in ally
Ġchang es
Ġm other
Ð °
ar ning
ĠF irst
Ġb it
H and
p ite
R ec
Ġlik ely
Ġse par
p m
ov ed
Ġ( )
ĠDist rict
EN T
id a
pos ition
oy al
Ġleg al
b ase
ĠP aul
Ġtechn ology
V ID
ma x
Ġpri or
Ġf ight
M P
Ġw rote
Ġits elf
os ition
m it
Ġass ist
Ġr ate
ĠR ed
Ġre d
c ss
h a
Ġneed s
T E
Ġmov ed
av es
Ġev idence
p an
in fo
L og
Ġcomm and
Ġcurrent ly
ag ing
Ġsystem s
Ġse curity
ĠC ong
ibr ary
as ons
V al
Ġvis it
Ġu nd
ĠIn ter
Ġf em
Ġin j
N o
ĠD ef
A B
ĠPart y
g a
Ġhim self
Y ou
en ing
Ġcol lection
Ġim age
Ġst ation
land s
ĠB er
it ect
Ġl oss
Ġbeliev e
ĠD es
Ġs w
le m
un t
ar a
Ġre v
Ġl ost
Ġst re
Ġl o
Ġa verage
pr int
I P
un ch
o res
opt ion
200 2
and roid
Ġb ar
C H
Ġcan not
cent ury
Ġcamp aign
Ġind ex
roll er
Ġj ava
li ed
ĠInstit ute
resp ond
and id
ly ing
E d
Ġinit ial
Ġestab lish
Ġcom es
U p
7 8
ĠR ober
n ov
Ġspec ific
e ch
Ġcap ital
Ġinvolv ed
om s
Ġpre d
sp ace
ul ations
Ġc apt
; &
S u
---------------- ----------------
Ġwrit ing
Ġinclud es
i i
Ġhig her
Col or
ĠSt reet
ag o
Ġex ecut
li ent
ĠJ ew
is ions
Ġro ad
ĠM od
Ġwebs ite
ian ce
Ġc ivil
ĠAssoci ation
ro y
ĠAr ch
Ġwho se
* }
M A
em ic
ĠComp any
ip s
ĠO ff
W hen
Ġpot ential
ĠD iv
Ġfr ont
enc ed
N A
D is
) }
Ġbook s
ag ement
Ġcond itions
4 6
re ct
A fter
Ð ¾
Ġ= ==
Ġart icle
ly mp
g en
n es
ul ated
Ġspec ies
T D
ĠE ar
ĠTh om
ĠG roup
ĉĉĉĉ ĉĉ
ress ed
u ge
Ġf ace
ĠP ort
O ut
Ġincre ase
Ġide a
evel op
Ġpr int
in ition
R eg
Ġmat ter
ve y
d o
s igma
ch ange
ĠGe orge
Ġfor ce
un n
im ately
ĠA nt
Ġp le
b ig
Ġn um
9 5
Ġlead ing
Ġapp oint
sy ch
Ġschool s
st ruct
Ġ: =
ĠTr ump
Ġf ire
Ġbeh ind
it ar
con text
Ġcomp lex
I L
Ġfor ward
ĠR ich
Ġst aff
Ġmod ern
ĠM ore
ĠC ons
g amma
Ġtele vision
Ã ³
ĠA dd
Ġn ode
Ġon line
Ġtra vel
Ġse em
Ġl ives
Ġrel ated
A ss
M S
C E
5 00
U ser
ef ore
rou ght
Ġc ross
ĠS im
Ġpr inc
b uild
ĠAfric a
Ġbel ow
I R
u ate
Ġ} ;
. [
ist an
it iz
ĠF rom
ĠA ward
f alse
Man ager
Ġout side
st art
O D
b oard
ĠUn ion
Ġf a
Ġc ut
t ab
Ġt en
Ġb ound
yn am
Ġmanag ement
l or
Ġdevelop ed
; </
E nt
wo od
we b
i ers
C ount
=" #
ig ital
R ead
Ġag o
ĠFr ance
Ġbir ths
0 5
Ġdeg ree
at al
18 8
math rm
Ġt our
ĠP ress
Ġv ia
Ġ( \
Ġmov ie
Ġe mer
h ing
go ogle
Ġd er
id ents
enc ies
pl it
T able
ol ic
Ġstat us
ele br
re ement
includ e
S ystem
ĠR iver
Ġappro ach
Mod el
a ur
Ã Ń
che ck
j oy
Ġreturn ed
pt ions
ap ter
arg in
Ġwh ite
semb ly
Ġthrough out
Ġprodu ced
ĠT ex
pp ed
Ġn orth
B ar
Ġw ords
Ġm ind
v ille
ĠJ er
ĠT est
Ġwant ed
Ġsc ient
+ \
Ġneed ed
Ġcon v
Ġthem selves
c ount
Ġw ife
ĠM al
ĠComm ission
Ġfri end
Ġinst ead
Ġgover n
Ġn atural
Ġl iter
^ \
Ġl ength
augh ter
re ate
ra z
ra ce
Ġst ar
Ġmed ical
val id
w ide
Ġfe atures
C all
=" ../
p arent
Ġs ense
ar ily
Ġep is
ew ork
ent al
Ġl ower
Ġl abel
ail ed
Ġc y
d en
) </
Ġinst all
Ġf ederal
o o
Ġcont ribut
Ġ ess
Ġask ed
Ġm id
Ġ ver
n et
Ġm ap
ateg ory
Ġprofess ional
Ġdef ined
ĠT V
ri an
ad o
ache s
ot o
at ab
Ġcontin ued
Ġreg ular
om et
199 0
ĠAr my
Ġt ask
anc ed
^{ -
ines e
h and
am ily
ĠP ublic
p ly
Ġhe art
ĠGover nment
ist ics
il m
Ġs aw
7 7
m ission
Com p
st on
ic ense
n amespace
t es
F A
ĠB oard
p ackage
U LL
Ġplay ing
ang le
Ġdist rict
ĠRes earch
w ise
def ine
Ġlook ing
pt y
Ġd am
ac ity
Ġh ours
ĠD ay
Ġapplic ation
ĠCl ass
Ġacc om
Ġstud ent
ĠF ound
ri ev
======== ========
au ght
ol ar
Ġcons ist
Ġse arch
cre t
Ġpro te
P e
ĠC up
ĠWh ile
act ory
Ġn ation
< !--
d elta
ĠI N
e ff
out hern
Ð µ
Ġprovid es
4 2
Ġcent er
Ġch urch
Ġadd itional
ort hern
ic ation
for ce
Ġth reat
O ne
0 9
ĠM art
Ġ$ (
Ġr out
y les
Ġm ag
ĠS ome
ĠB el
ĠH all
vent ion
ang er
iz ations
Ġdis play
S P
p ed
Ġocc ur
Ġra ce
ĠM ary
Ġs us
Ġst e
Ġcom ing
cent er
ĠComm ittee
Ġcomp on
Ġproble ms
Ġstruct ure
ĠMin ister
duc ation
Ġst age
Ġs outh
ĠIn c
Ġand roid
ri a
Ġro ck
Ġget ting
ĠD an
r ho
199 9
Ġsc he
ĠM ex
T H
Ġw oman
ig r
Ġsh own
av en
d b
ĠChrist ian
Ġcult ure
b re
b and
ĠQ ue
Ġconst it
ft ware
ram ework
Ġch o
ar r
ĠĠĠĠĠĠĠĠ ĠĠĠĠ
Ġsc ience
Ġt er
Ġr ank
itt ing
mod el
the ta
Ġlarg est
Ġh ous
Ġem b
Ġs ociety
ĠWh ite
if ier
ber g
} {\
Ġac qu
ĠCO VID
ĠN e
6 8
ĠT ra
Ġgrow th
Ġc andid
Ġal ign
ith ub
ĠFr anc
act ive
Ġfoc us
Ġst d
Ġr ound
R et
0 7
k nown
Ġt akes
erv e
Ġmom ent
Ġw alk
ĠGerm any
Ġgo al
ĠB ook
ĠAfric an
ĠSc ience
cur rent
l am
ĠL ou
d ev
ĠW ork
S ub
t imes
rit er
Ġc opy
ĠCh ampionship
Ġg ave
Res ponse
Ġassoci ated
fig ure
ĠTex as
p age
E E
ot a
ĠDem ocr
Ġp aper
Pro perty
Ġf ul
Ġrec ently
uf act
Ġh it
Ġqu ick
I I
C lient
] {
ĠAng el
rem e
ĠJ ack
5 8
ĠĠĠĠĠĠĠĠ ĠĠ
Ġdis e
9 8
fin ished
f ort
B e
a res
Ġinter view
k en
Ġbro ther
Ġprogram s
m itted
p ri
Ġcomp lete
0 8
ĠS ociety
ĠD i
id ay
ch an
and er
ire ction
d oc
c ore
ri ef
Ġtry ing
Ġen joy
Ġchall eng
Ġjo ined
Ġb illion
Ġs ound
Ġb ad
Ã ¼
Ġact ive
Ġh or
Ġp ain
le q
and om
Ġw rite
ĠG reen
Ar g
Ġanal ysis
er c
y a
Ġqu al
ip al
or ing
Qu ery
Ġval id
ev ent
Ġstand ard
ou l
> (
Ġnov el
x y
st atic
ial og
O S
Ġpract ice
Ġstat ement
Ġg e
A b
r t
Ġsur v
Ġw or
ĠS am
c ell
Ġlong er
ĠO lymp
Ġd raw
ĠCong ress
Ġst ru
ĠL eg
ĠO f
Ġh ope
ul a
m on
qu are
Ġb rought
Ġcor respond
ri al
v an
$ -
ĠH istory
Ġso on
or age
ĠB ill
li ke
ĠM usic
Ġbeh av
Ġproduct s
Ġde ep
Ġw ays
r im
Ġn il
ĠS k
m ethod
Ġst ri
im age
o z
ou ch
Ġd rug
Ġprob ably
g ithub
Ġim medi
M ethod
s q
Ġany thing
r ong
Ġg irl
Ġb ool
Ġw ord
at ur
G roup
ĠĠĠĠĠĠĠĠĠĠĠĠĠĠĠĠ ĠĠĠĠĠĠĠĠĠĠĠĠĠĠĠ
n ers
it ch
) (
ed y
Ġmeet ing
Ġallow ed
et ic
ĠY ear
Ġout put
Ġne igh
Ġv irt
Ġan im
Ð ¸
Ġmult iple
Ġj ournal
al ed
ĠS ervice
ĠMich ael
x i
Ġw idth
Ġorgan ization
Ġst ay
Ġan sw
6 7
i qu
eq ref
ph p
el ine
Build er
Ġse ek
A G
O P
t au
Ġprom ot
Ġs en
Ġcom pl
Ġfamil ies
4 3
Ġc ause
Ġest im
I V
4 1
Ġnecess ary
le vel
j av
Ġc ast
st ream
Ġ ir
m ar
ĠV ir
ec k
Ġe ight
ust er
Im age
] (
Ġs em
5 7
d raw
m iss
Ġcom ment
Ġse ems
ur ity
he st
m ing
li b
li ament
c ome
Ġqu ite
Ġc elebr
n ull
Ġse qu
oc ol
Ġpos itive
it ation
} (\
Over ride
ĠCh inese
j o
Ġfore ign
Ġst ep
Ġrun ning
Ġelement s
Ġre ve
Ġteam s
Ġfri ends
b urg
Ġactiv ities
Ġparent s
ch ild
Ġn ature
he t
D ate
Ġnot hing
f it
d l
ĠM useum
Ġconst ruction
Ġle arning
Ġwork ers
h as
Ġmod els
r un
is her
un finished
Ġtr ade
ĠAc adem
im s
Ġstud ies
Ġres ources
P art
Ġsome one
Ġprot ect
est ival
ĠM us
Ġal though
Ġevery thing
Ġsong s
Ġpass ed
Ġw atch
198 0
Ġto ol
p ost
re ater
se y
w in
St ream
Ġm ention
Ġcont act
st ant
Ġpart s
9 7
ĠM em
ma z
5 6
ĠM ont
is f
199 8
Ġdem on
E nd
qu ery
ĠR oman
Ġre pl
ON T
part ial
ĠB en
t ained
ĠFl or
mer cial
ed ia
Ġmov ement
ow s
g or
d f
Ġs ym
Ġl ack
o om
ast ic
Ġ( $
Ġvill age
Ġe y
E m
__ __
le an
r ast
ĠS y
Ġleg is
all s
Ġst ories
ĠC am
' m
Ġmar ried
A ct
Ġoper ations
c el
S ource
Ġfollow ed
d ir
eg a
ĠB ank
Ġv acc
Ġd ouble
0 2
Ġcharact ers
Ġknow ledge
ate gy
0 3
e in
Ġro om
ĠG reat
ĠE r
em plate
P re
atab ase
Ġpl atform
N S
' ve
Ġconst ruct
Ġchang ed
Ġfor ces
Ġf requ
Th at
evelop ment
in ate
Ġdesign ed
Ġv eh
Ġqu ality
Ġmeas ure
ĠM at
ĠDirect or
ĠTe chn
ĉ Ċ
ber t
Ġw indow
Ġcomplet ed
ĠRober t
Ġse ven
Ġo ption
] )
y ing
b on
ree k
Ġ ...
Ġopport unity
Ġn umer
Ġdec ided
Ġear lier
Ġbegin ning
0 6
Ġm ale
Ġgr ant
en a
ĠSec ret
re y
ĠJ ournal
Ġcol umn
ĠF in
erv ices
ĠP ost
P I
P ol
S o
' '
Ġc itiz
Ġincre asing
Ġparticular ly
n ed
F irst
Ġtreat ment
Ġm is
Ġto wards
Ġcol lege
ĠM iss
h ost
on a
but ton
pec ial
Ġsay ing
Ġpro gress
ser ver
n u
g rad
Ġch arg
Ġ- >
Ġsign ed
Ġp ick
ĠR oyal
Ġproject s
Ġloc ation
ĠH am
ĠM et
Ġsp ent
Ġcent ral
Ġappro x
Ġs ort
cl ient
ail y
Ġtrans fer
ĠSu per
al a
ĠS et
Ġexp and
Ġl at
Ġun ique
ĠO b
ĠSm ith
Ġcommun ities
ul ate
ĠE ducation
ĠC ath
z er
Ġsim ply
Ġopen ed
Ġm us
Ġl oad
B A
o ch
m ore
id ing
Ġcon cept
Ġweek s
Ġkill ed
por ary
Ġbas is
ĠU p
Ġ Ã
requ est
v est
lic ation
Ġp urch
5 9
ĠThe n
ĠS ing
0 4
opt ions
Ġser ious
S C
pect ed
Ġdeath s
ĠDiv ision
Ġind ependent
Ġmethod s
St atus
Ġcol lect
ob ile
ĠO ut
and emic
Ġthe ory
ĠW estern
ult ure
Ġarch itect
Ġst ream
Ġs il
row s
ie ce
il er
Ġprot ected
Ġtyp es
ĠG old
Ġlim ited
ĠD uring
Ġfollow s
H ead
Ġpl aces
ill ed
Ġsit uation
Ġdeb ut
ĠS ub
ĠT ur
ow ers
Ġre comm
Ġread ing
p at
ĠO F
ĠF ore
U E
Ġpat ients
a ctions
c an
Ġb ox
ĠThom as
Ġr ules
ĠAn n
199 6
ĠCent ral
s im
A ction
ĠA lex
b o
ĠFranc is
199 7
ft y
S he
U til
R A
ĠT om
r ated
E X
ir us
Ġpre vent
ant ic
d r
Ġlead er
i os
Ġn ormal
Ġr ule
C he
Ġens ure
Ġle ave
h an
Ġinvest ig
Ġin sp
Ġcal c
197 0
Ġsc reen
Ġbir th
ful ly
k a
âĢĿ .
Ġmean ing
a ud
Ġ< <
Ġcond ition
ĠH en
Ġte acher
ol ve
ĠCar ol
en ge
8 8
ĠOff ice
Ġp ark
ĠPro gram
Ġn ames
Ġincre ased
}$ .
iz er
iz es
Ġsom et
ĠPro fess
or ial
ĠR ef
e al
l o
D elta
Ġn om
}$ ,
Ġquest ions
Ġdirect ly
Ġex cept
con s
9 6
Ġoper ation
tern et
ĠRuss ian
N av
idd en
Ġindividual s
Ġlevel s
raph ics
head er
L ast
ro ad
Ġnear ly
h aps
ĠM ac
ĠB est
ĠĠĠĠĠĠĠĠĠĠĠĠĠĠĠĠ Ġ
Ġpl ans
Ġex act
ak ers
Ġres ource
Ġrem ain
Ġprim ary
add ing
p ass
5 1
ĠR oad
ĠD el
ĠO ther
v ant
Ġs ch
ĠN ow
Ġs ens
ĠS al
ĠP re
Ġac adem
ous ly
ĠC E
Ġl ines
Ġde ad
Ġsim ple
Ġlim it
Ġappe ared
Ġeffect s
ur rent
S p
ĠFlor ida
over ed
Ġgr and
( (
Ġpolit ic
ver se
ome ga
ĠIs land
ĠT imes
Ġus ually
ĠM ag
ĠK ore
ĠSc ott
L ine
ĠE v
Ġex hib
Ġlead ers
f oot
Ġit em
ic ago
ro s
O L
al ian
Ġth us
Ġpr ison
Ġrem ains
gor ith
Ġevery one
Ġab ility
Ġeffort s
Ġman ufact
eb ug
row ser
Ġpro posed
P ost
Pe ople
Ġcontin u
| \
az ine
arg s
e an
Ġra il
ĠVir gin
ol f
he ight
w ell
ĠL at
ĠAustral ian
Ñ Ĥ
ru pt
Ġass um
is ation
Ġdet ails
Ġresp ond
ang ed
in fty
Ġhe ight
Ġwrit er
ĠRuss ia
Ġh ot
ĠN or
Ġd ram
ir ing
ĠW eb
f ont
c ase
Ġcont ains
Ġphys ical
ed er
ub e
Ġrecord ed
reed om
Ġant i
ĠA tt
ict ure
Ġcl imate
U s
ĠA ccording
Com ponent
ad a
in st
ĠR el
ĠB ay
f ect
Ġatt ention
il i
Ġor d
Ex t
RE F
Ġm ur
Ġsu ffer
Ġcor por
ĠFr ank
Ġb ur
Ġc atch
Ġd ed
Ġtrans port
B ase
Ġin ternal
Ġdel iver
ell ig
it ude
Ġdep end
Ġcl ient
Ġd aughter
Ð ½
In put
ĠM ount
u ated
ore m
ug in
Ġcon nection
c m
Ġun it
ify ing
Ġnum bers
ur t
ra v
ĠM ad
Bl ock
ar io
Ġfail ed
ĠFound ation
am s
i ant
f unc
res h
ĠW omen
I M
an el
D O
f irst
AT E
H istory
e lement
al let
ens ions
ĠL os
r d
( {
ĠC ap
Ġrece ive
ĠCanad ian
t x
Ġpre m
ĠS ince
C K
Ġav oid
tt y
ĠN ULL
w id
199 5
Ġ" ""
in i
Ġdist ribution
D r
Ġis n
Ġcoll abor
C o
In stance
ĠA N
Ġtr ust
) {
Ġperform ed
Ġpre p
00 00
Ġrelig ious
G L
Ġn av
en ame
Ġal leg
und red
ĠS ocial
Ġinc ome
Ġt im
ex p
l ock
ĠL ife
M y
nav bar
app end
t ilde
Cont ent
Ġqu ant
Ġdef e
Ġb oy
Ġart ists
Ġb all
ag on
un s
ĠLou is
Ġs ports
Ġag reement
5 4
G ener
ĠU N
Ġd oc
Ġeconom y
Ġpl ant
os ing
Ġpur pose
Ch ar
r l
i as
Ġart ist
m ember
ĠU nder
Ġreg ister
Ġrefer ence
Ġus es
Ã ¶
[ "
ra k
Ġstre ng
at re
ach ine
Ġeffect ive
t arget
est s
ac ing
Ġis su
Ġw ait
Ġf air
Ġprevious ly
Ġh um
Ġfav or
Ġaut om
op en
x ml
Ġpol ic
Ġp andemic
ish ing
ĠA re
Ġ čĊ
199 4
eg er
Ġsomet imes
L abel
ĠM ass
ĠR ob
H T
ĠPro v
Ġ eth
ĠCl ub
Ġth ous
ter m
Ġmajor ity
U L
5 2
5 3
g u
ĠJ ose
Ġthe refore
ĠO ffic
T oken
ask et
ĠO pen
Ġf elt
m as
Att ribute
om a
ĠS ur
ĠSer ies
Ġdem and
ĠS und
ĠĠĠĠĠĠĠĠ Ċ
l ong
Ġbe aut
ĠI S
str ong
Ġse lected
Ġenc our
Ġw orth
Ġv oc
Ġg as
n ected
st ra
Ġev al
ribut es
b our
j son
Ġse c
ec ause
Ġs ummer
ed s
ĠO ur
R un
Ġs pect
ĠI r
ic ine
Ġrad io
Ġbo olean
Ġmin utes
O ptions
g ment
L ink
Ġwas n
p ng
ĠW il
anc y
h i
G e
ĠJapan ese
und le
Ġfunction s
Ġfin ally
ĠRich ard
b ottom
ven ue
199 2
Ġfem ale
ĠH ill
âĢĿ ,
ĠS l
j ust
Ġs y
at ively
ĠT or
Ġsat isf
Ġal tern
Ġv ote
Ġpro p
Ġpe ace
iver se
T Y
Ġconst ant
n on
clus ion
Ġext ra
ĠB usiness
ĠJ ud
ann ed
p ol
Ġpresent ed
Ġtrans form
Ġsupport ed
ĠN et
ĠP eter
Ġn one
f ind
ruct ure
re land
ot ype
d ated
se lect
Ġconf lic
ĠGr and
Ġm iddle
Ġh ar
Ġpro perties
Ġpart ies
ĠM er
ĠR em
ed d
Ġtrad itional
ĠPe ople
} [
P oint
Ġd im
Equ al
7 6
ĠAcadem y
ĠSe e
Ġcomp ared
Ġapp ly
Ġsol ution
Ġp sych
ĠC amp
ad ata
g est
T O
pr ivate
Ġsc ale
Ġcl osed
ĠĠĠĠĠĠĠĠ ĠĠĠĠĊ
ĠAmeric ans
O per
St art
Ġcrit ical
Ñ Ģ
Ġstru gg
Ġintrodu ced
Ġh ospital
Ġst ated
Hand ler
ĠO per
ĠV ict
Ġcom mercial
Ġin side
ĠL et
Ġdise ase
Ġelect ed
ant a
ĠK e
ffic ient
ĠAngel es
ĠR ad
ĠCh icago
Ġdemon str
old s
Ġm ount
Ġofficial s
r id
Ġrecord s
cher s
Ġorgan izations
ond er
urn s
it led
N ull
ĠI ran
y th
Ġexist ing
Ġgo es
Ġhelp ed
Ġre se
ĠO ver
Ġv ers
ris is
Ġan g
ĠChar les
Ġocc up
$ $
Ġm ission
Ġmult i
Ġbe y
ĠP ri
Ġtrans l
Ġse cret
ic ated
ĠF ig
z z
Ġme chan
LA SS
ock et
m m
ĠPar is
ens ity
er ia
ric s
Ġ+ =
Ġp en
Ġrest rict
Ġstart ing
H el
Ġf un
Ġhig hest
ĠĠĠĠĠĠĠĠ ĠĠĠĠĠĠ
Ġwh om
Ġg old
ĠAr ts
Ġent ry
Ġbey ond
Res ource
ud get
Ġadminist ration
Ġinit i
199 3
n or
Ġturn ed
B ack
as tern
Ġpre c
Ġmin or
ent y
V ER
Ġw rong
ĠM ost
Ġrespons ible
Pro v
ry pt
ib ly
M ar
s g
it ness
Ġf irm
mod ule
ĠH uman
il s
ĠT ime
ĠCh ild
pro perty
ribut ed
Ġqu arter
h ouse
P R
wit ch
Ġ ult
ĠRev iew
Ġst ore
pl oad
Ġevent ually
Ġass ess
t ings
an ish
ens us
Ġlarg er
cl ose
Ġlet ter
Ġan c
Ġactiv ity
Ġin form
T ask
Ġfield s
Ġsaf ety
ust ain
cd ot
ri age
C A
Ġtem per
ĠT own
196 0
Ġre ached
Ġph il
Ġfound ed
F actory
F I
P er
Ġcou ple
Ġdirect ed
3 00
Ġm argin
Ġb ill
E L
Ġann ual
ca ption
O ff
ig ration
Ġp aid
L iving
Ġform ed
ĠD evelopment
ul ed
ĠKing dom
Ġg reater
ĠAt l
ĠN one
if act
bt n
d et
Ġsp irit
Ġcost s
Ġcor rect
Ġup date
un ities
Ġsh ot
Ġd igital
ic i
th let
Ġinterest ing
Ġg ives
yp es
so le
B uffer
Ġrem ember
Ġreport s
ĠIs lam
ĠCath olic
ch ar
ĠD ec
ĠU s
Ġlaw s
Ġcrit ic
u a
" ).
Ġw id
Ġappro pri
Ġdest roy
od ay
\ ,
N ext
ut y
Ġnot ed
al ing
ĠSt ev
Ġpo or
Ġre li
ĠMex ico
Ġepis ode
ur ance
ĠD ata
Def ault
Ġse lect
Ġgrow ing
M em
Ġd ou
Ġpr ice
Ġsur pr
ig en
stit ution
il ed
P RO
Ex p
Ġed itor
Ġ er
Ġpr iv
m em
b a
Ġeas y
Ġmanag er
Ġexp ress
ĠCh ief
ĠI ss
uc lear
ĠE conom
ĠA rab
Ġhe ard
pre t
Ġ â
Ġviol ence
ĠB re
erv ation
Ġappoint ed
pos es
am ples
Ġun c
ron ic
ĠSe ction
p ack
sh ire
ĠI D
in ct
Ġm agn
anc ing
s rc
or ter
] [
Ġoffic er
st ract
ĠR ead
Ġprovid ing
199 1
it able
and a
Ġserv e
st atus
w rite
Ġnot e
Ġful ly
Ġso ftware
Ġg raph
m eta
à ¤
ĉĉĉĉ ĉĉĉĉ
ig an
Ġcon nect
Ġh op
Ġt ru
W indow
Ġgener ally
Ġw ide
N umber
L e
Ġparam eters
Ġre ach
Ġco ach
d escription
erv ed
F unction
Ġh undred
Ġa w
L oad
Ġcar ry
* /
ĠO bject
ĠIn st
c are
ing u
ent ry
Ġent er
Ġemploy ees
6 3
Ġre pe
ro om
R ep
w est
asc ript
Ġd u
ov ers
O m
c od
Ġform at
ĠL ord
ĠFor ce
Ġcult ural
U M
Ġcitiz ens
Ġd irection
st d
Ġhigh ly
ĠSecret ary
wit ter
9 3
Comm and
ĠPro ject
ĠB ig
Ġbuild ings
Ġa ctions
Ġset ting
s i
f inal
b b
ĠB rown
im g
F L
Ġsol id
T ER
)$ .
Ġf oot
ĠR ock
Ġsex ual
ĠF orm
Ġquick ly
$ {
p o
Ġca used
ĠI ll
f e
text bf
Ġinvest ment
ĠI reland
us band
W eb
Ġs ources
Ġst ock
Ġallow s
Ġend ed
Ġimpro v
st yles
Ġsen ior
Ġh ol
loc al
Ġaut o
ĠSt ar
g n
Ġspec ified
E C
if ul
P A
ĠVirgin ia
z a
Ġar rest
m es
Ġad apt
Ġdiffer ence
Ġkn ew
ill er
Ġb al
Ġus ers
Ġlead ership
Ġ row
Ã ¤
Ġo il
Ġsh oot
B S
b ur
Ġsp read
in ner
Ġg iving
Ġsc ene
ind ing
D et
re es
Ġcomm it
stand ing
Ġinflu ence
V ersion
P age
Ġcr im
pt r
Ġother wise
Ġsh ip
ĠO h
Ġop in
Ġra ised
Ġunderstand ing
ĠA p
Ġpat tern
Ġstr ateg
ud d
Ġin nov
9 2
Ġclaim s
Ġcompet ition
D A
or por
ig ger
Ġf arm
F ONT
Ġsc en
Ġarg ument
g ener
k y
Ġ ign
Ġad ult
ĠUS A
L et
ĠH istor
os oph
E ng
C an
ĠM el
ĠB i
9 4
ĠG ames
} );
ĠJ es
lic k
" ),
7 2
Ġfor ms
riev ed
" ]
pro ject
D o
Ġ esc
l ast
ele te
6 1
T S
Ġs ales
unc hed
U I
an i
ĠB ur
9 1
Ġover all
Ġsh ared
Ġany one
it a
Ġact ual
Ġtri al
Ġse ctor
6 2
an o
Ġwe ight
Ġl ived
4 00
ĠH el
asket ball
dis play
P C
Che ck
Ġequ al
Ġf ast
Ġfig ure
Ġch ief
ĠD u
ĠSe cond
ar ian
Ġmov ing
ĠD et
y r
ĠT HE
ĠGe org
h ab
Ġdes pite
sm all
Ġext ends
Ġun its
Ġmur der
Ġfin ished
irc raft
am l
u nder
Tr ue
p c
ĠW ell
Ġc ounter
p id
ol k
Ġp ack
T ag
Ġsub sequ
Ġle ague
Ġparam eter
Ġimpro ve
198 9
as ion
Ġvari ety
Ġimmedi ately
eq n
Ġaff ect
ĠÂ £
Ġas pect
wh ich
Ġd ark
ĠG en
Ġsur face
f ound
app ing
i pl
Ġp aint
p ush
Ġoff ers
ĠP enn
ch o
Ġm aster
S ON
Ġbe g
ĠIt alian
Ġon es
Ġsur round
Ġcons um
Ġd ro
Ġpro ceed
Ġpred ict
eps ilon
Ġopen ing
at as
ĠSt r
Ġm ill
ĠJew ish
~ ~
Ġbecom es
Ġbl ood
Ð¾ Ð
Ġappe ars
Ġet c
ĉ ĠĠĠ
Ġinst r
Ġspe ak
m ult
ot al
ist ance
Ġa ware
n ership
Ġ vert
ĠSund ay
l ayout
Ġhistor ical
Ġcomp ar
C ell
M et
form at
Ġs n
ĠF ilm
est ic
ent ially
Ġpre tty
Ñ ģ
Ġco ord
Ġpl aced
ĠJust ice
az z
Ġt ro
Ġob tained
B ox
ĠZ eal
Ġfund ing
Wh ile
i en
l en
Ġim ag
ps ilon
ĠHen ry
Ġv oice
Ġre asons
Ġc ert
ĠEng ine
pect ive
Ġch oice
or ney
Ġwe b
B ig
Ġgo als
ĠAl though
ĠS ervices
} _{\
Ġs al
Ġ ]
}} \
cont ainer
Ġhapp ened
Ġc ities
Ġchar ge
ĠMart in
ĠPl an
rac y
Ġcrim inal
Ġpro ced
ark s
ĠT er
Ġ< !--
Ġf ans
ay ers
Om ega
Ġpro per
jav ascript
fl ow
ĠS up
p ing
rib e
al le
Ġro ot
AT ION
Ġr at
M at
ult y
Ġfour th
ĠZeal and
com ing
et te
^{ (
Ġcap acity
ult ural
ur a
Ġ( "
Ch ild
Ġse lection
AA AA
// /
Ġbusiness es
ĠSp anish
Ġw est
Ġcl in
Ġtra in
tt p
Ġthrow s
Ġmem ory
os h
u it
B undle
Ġreturn s
so ft
Ġlat est
s ervice
Ġh usband
Ġfam ous
ĠT wo
Ġcreat ing
ĠL and
........ ........
AB LE
olog ies
Ġli ber
ĠM o
ap ers
l s
Ġs end
ab ilities
ill a
Ġc op
Ġs ymbol
Ġcomm ission
Ġad opt
Ġst ra
Ġpolic ies
ov iet
Ġset s
ĠL ake
it z
ĠL oc
^ *
Ġcomplet ely
Ġf if
H O
on ly
d ep
ĠL ong
Ġvirt ual
res ponse
Ġrese ar
7 1
Ġc am
Ġre b
f ilter
Ġbu y
Ġob tain
ĠAs ia
it ors
Ġpl ays
T P
Ġ url
Ġelect ric
Cont roller
Ġhe ar
es ter
Ġ q
Ġrem ained
ens es
Ġdep artment
Ġche m
Ġexecut ive
Ġdef end
Ġgu itar
Ġfil es
I A
Ġim ages
ell a
Ġth r
s pec
Ġd ynam
Ġe ast
ĠVict or
P O
Ġdev ice
m ain
Ġun iversity
Ġper fect
c ar
198 8
Ġex ception
ĠM il
Ġb attle
ĠH ome
Ġrun s
os en
I O
Ġmiss ing
ess ages
//////// ////////
Ġl if
S A
raz il
Ġorig inally
ĠJohn son
he et
8 5
Ġissu ed
le ase
Ġhand s
ĠH ere
ĠE nd
Ġra ise
ĠA v
em porary
Ġbecom ing
su pport
Ġpart ner
| |
7 3
Ġget s
Ġp refer
a o
Ġch art
gorith m
ann ot
Ġsl ow
Ġmeas ures
Ġbas ic
Ġg reen
Ġb rief
ĠEar th
( &
ps i
ĠM ur
ĠC r
ĠB uild
le v
Ġoffic ers
Ġprodu ce
ĠP et
Ġal one
Ġc ru
Ġun ivers
ĠJ o
ĠBrit ain
Ġabs ol
7 4
Ġdist ance
g ent
ĠP ub
Ġfor ced
Ġfa ith
#### ####
ĠCarol ina
ĠF ederal
Ġcan cer
Ġcomp os
Ġa uth
ĠC D
Ġmod ule
Ġbehav ior
Ġbenef its
ĠA ff
ĠD en
Ġstr ategy
ĠSt ep
Ġc risis
N O
Ġhapp en
J ohn
Ġprote ction
C reate
in y
Ġoffer ed
ab s
Ġp oll
6 9
Ġclass es
Ġp iece
re al
Form at
or ation
A ut
W ork
ĠE U
ch i
Ġdec ades
D esc
T op
Ġpolit ics
ellig ence
ur ies
ĠIt aly
r s
ĠR ights
Ġ{ @
Ġaward ed
Ġcall s
F ilter
Ġn et
ĠL og
men u
Ġauthor ity
Ġs ession
Ġref lect
ĠSc ot
' ll
sc ale
Ġcomput er
Ġcontin ues
up date
: </
y an
Ġf ear
ĠC ast
ef t
ĠT im
Ġres idents
ra q
ĠCol umb
Ġinstit utions
sub section
ĠG ood
I Z
Ġter rit
ic an
ĠF ace
List ener
R em
ĠW ood
Ġch ance
ĠC ivil
ĠProfess or
Ġt ree
ĠH REF
Equ als
Ġapp lied
Ġsc ore
St yle
end if
ĠRec ords
ĠâĢ ¦
roll ed
Ġ( (
im ation
all ery
ars er
l ig
ĠMan agement
ĠF ort
or a
ar ant
Ġansw er
A m
Ġspe ed
ourn ament
ĠF estival
umn i
k ins
Ġbel ong
ob j
7 9
Ġexper iment
v are
ĠOr der
Ġem ot
D on
Ġide as
C L
Ġh uge
Ġold er
Ġ` `
ĠB o
Ġlist ed
Ġser ver
b m
ĠE ven
bre ak
Ġneigh bor
ct ors
Ġnumer ous
ak istan
sh ow
Ġnot ice
Ġla unched
Ġjo in
Ġco ast
ĠIt s
ĠSen ate
ĠM os
Ġhold s
Ġpres ence
Ġc lean
Ġgener ation
ĠM iddle
ir med
ĠI d
col umn
Ġanal y
ac ific
ost on
i ate
)$ ,
ans ion
ĠL ee
ĠM ond
he nt
w rit
r ate
Ġcompon ent
Ġmus ical
Ġwe ap
Ġrespect ively
n el
in stance
a uthor
Ġcons ult
air man
Ġc ard
at ers
rel ated
ĠM any
Ġr ates
S pec
c it
Ġa im
Ġfund s
ĠT op
ĠGo ogle
ĠSec urity
if orm
g reg
sec ut
pro cess
ad y
198 7
ĠFr iday
ĠPar liament
L ayout
Ġident ity
ĠL iber
Ġre form
ĠC LASS
n umber
Ġrem ove
ĠJ im
ol a
Ġrequ ires
Ġacc ur
I F
Ġacadem ic
Ġt error
? âĢĿ
Ġex ists
t rack
atur day
urb an
Ġt ouch
olv ed
ĠS il
Ġbr and
ĠJose ph
sc he
Ġopport unities
Ġcon sequ
Ġapprox imately
in em
us ion
Ġobject s
Ġpress ure
Ġre ality
ĠY our
param s
Ġit ems
ĠM ov
CO L
D es
ĠO ld
Ġh arm
198 6
ĠM ain
ic it
Ġcon clud
ĠAs sembly
Ġun s
du ction
M en
ĠMed ia
But ton
at tr
Ġl abor
Ġpro pos
Ġro b
Ġsepar ate
S ec
Ġtr uth
_ .
Ġenvironment al
ef ined
Ġact or
< ?
f ill
n um
Ġl ock
n y
ĠGl obal
ri er
M in
Ġexp ression
ĠSup reme
Ġdesc ription
Ġbenef it
old er
ĠF e
D B
Ġchalleng es
on ic
Ġm ix
G amma
Ġr andom
UR L
ploy ment
c os
Ġt ried
br idge
s ite
P S
Ġag reed
Ġmention ed
Col umn
ref ix
ig inal
ad ow
Ġsaf e
Ġp ull
leg al
ian a
Ġdeterm ined
Ġjust ice
Ġext rem
ist ers
ĠV er
Ġown er
Ġfact ors
19 50
The y
Ġper haps
ing er
Ġre place
Ġjob s
Ġa ircraft
8 6
em ph
ell ed
F C
Ġalbum s
ans as
Ġwin ning
st ances
it ory
Ġal t
b ed
ĠYou ng
t ag
back ground
ĠR E
erm an
i h
Ġs ell
ri end
198 4
T C
ĠA ut
d ec
Ġm ode
Ġb us
A ccording
Ġthink ing
Ġt al
Ġredu ce
ĠL u
Ġf ont
ab our
ĠThe ir
D F
ĠT re
at o
Ġl ic
Ġch annel
Ġinterest s
ĠE X
sq rt
ĠAd minist
Ġmost ly
ĠHe ad
pp ing
ĠF und
Ġnew sp
Ġchall enge
ĠL ibrary
Val id
M ore
ĠE mp
k it
ish op
Ġrequire ments
Ġcr ime
wh ile
q l
Ġcred it
Ġh y
Ġadminist r
Ġrepresent ed
Ġcar ried
rem ove
k i
Ġph ase
Ġm iles
Ġn ine
c ap
Ġaud ience
ĠMus lim
U rl
ĠCor por
="../../../../ ../
ĠK n
Ġmaterial s
lection s
R el
ut ch
Ġill ust
ang es
b ra
Ġhouse hold
Ġmor ning
Ġtrans ition
Ġregard ing
Ġcirc um
ĠJ ul
ĠG ar
Ġfeature d
ian o
=" ../../
ĠA cc
Ġex erc
> >
Ġsc ope
ĠI raq
att ers
ĠComm unity
u id
Ġse a
ĠT ype
Ġpower ful
le ep
og g
Ġm ut
Ġcon ference
Ġre nder
Ġplan ning
Ġinterest ed
ric es
âĢ ħ
Ġto ward
Ġd oll
Ġim pl
m t
Ġfl ow
go ing
g ency
ĠIn formation
ĠS un
ĠL icense
`` `
ĠSt at
Ġr ise
Ġun ion
Ġshow ed
Ġme ant
gy pt
OR T
av ed
S che
du le
Ġob vious
ER R
Ġb udget
198 5
vare psilon
Ġrele vant
O pen
if ically
Se lect
Ġdevelop ing
V is
Ġrepl aced
g ar
ĠD ev
C ON
Ġs ave
Ġdef inition
Ġk m
Ġm ental
ex pected
ĠH aw
ĠR ail
ent ed
el er
ĠA wards
Ġw ild
ce an
Ġcon vers
Ġsc ript
pro v
d im
es h
U P
' ).
Ġadv oc
in et
N ow
f iles
um s
yl van
ag ram
ĠS pe
pro of
L ength
ĠO l
}^ {\
ĠB oy
Ġrefer red
in ations
Ġsk ills
Ġpur poses
Ġex ec
Ġf reedom
ang ing
ip ment
Ġent ered
c irc
n am
ĠVal ley
Ġcont ain
f a
Ġk ing
Ġcon vert
ĠDemocr atic
eg raphics
includ egraphics
Ġb g
Ġappropri ate
w ar
ĠS ol
od ies
Ġexact ly
l aw
NA ME
Ġdeterm ine
ĠRet rieved
M ax
Ġinter face
ĠK ar
l isher
ent h
ĠPol icy
se m
l ook
Ġatt ract
ĠL ove
Ġdiv ision
ĠJ ones
Ġag ency
ĠS pecial
Ġke pt
oot h
Ġsing er
Ġfail ure
Ġob j
Ġatt end
Ġconflic t
ĠTechn ology
Ġp et
ollow ing
Ġdr ive
ĠSh ow
d s
CO DE
Ġinter pret
ic ate
we ight
Ġn uclear
are n
util s
Ġsmall er
C ar
y er
) =
ĠH T
Ġn ative
t ool
t ra
ren ce
D irect
l ies
P ort
Ġw ants
Ġbeliev ed
p g
ic ip
Ġmax imum
p ers
Ġauthor ities
Ġbroad cast
Ġsupp ly
Add ress
Ġfil ter
Ġpur su
Ġident ified
Ġm unic
Ġmar riage
ĠStud ies
Ġm icro
Ġj oint
Ġd anger
is hes
Ġapplic ations
Ġsus p
Ser ver
et ime
M ode
ĠS oviet
Ġexper i
O b
ĠM a
Ġw ood
T V
om y
Ġc orn
Ġis land
id ers
ĠĠĠĠĠĠĠĠĠĠĠĠĠĠĠĠ ĠĠĠĠĠĠĠĠĠĠĠĠĠĠĠĠĠĠĠ
ind s
A ccess
Ġcon nected
ĠS ummer
Ġcandid ate
il ing
out put
requ ire
S im
G B
ĠS ar
Ġra re
Up date
Ġcertain ly
Ġrout e
ĠAl so
ard en
ĠH ot
Ġc ore
ĠOr gan
ĠWilliam s
Ġfoc used
Ġle aving
Ġread y
c ript
ĠN etwork
ind er
Ġreg ional
un te
ĠCol or
B O
as y
oot st
p ress
ĠF ield
Ġadv ant
B U
Ġmat rix
ĠPol it
d ocument
Ġlearn ed
Ġc at
ĠSw ed
Ġro ll
ylvan ia
R ow
Ġtalk ing
Ġp i
Ġla unch
Ġrem oved
ĠB razil
ER T
ĠF ootball
our ney
ank s
cl aim
Ġte aching
ĠB as
Ġk ids
ĠB ob
Ġrel ative
Ġfact or
Ġt ag
ĠG L
Ġpro of
ĠMed ical
ĠTe am
Ġfac ilities
} =
comm on
S ince
ã ģ
ĠT our
Ġview s
198 3
Ġtest ing
the n
Ġinvest igation
Ġw el
Ġarg uments
ĠN orthern
Ġexper t
or al
ĠD om
ĠB oston
Ġst ations
Ġmanag ed
ĠS T
Ġcall back
ĠRepublic an
Ġ$ {\
Ġsol utions
E l
Ġp ush
h or
Ġstud io
c s
Ġcomm ittee
ootst rap
ĠOb ama
ĠB et
ecut ive
C D
ĠN avy
ĠP akistan
ateg ories
Ġf ellow
it age
ĠMond ay
Ġed ition
re nder
Ġm ys
8 2
A V
Ġprofess or
oc racy
Ġcomm itted
right arrow
Ġscient ific
ĠL in
Ar t
ĉ Ġ
it an
Ġs ustain
Ġstand ards
ĠCent re
r um
eqn array
Ret urn
ĠSp ring
li e
ĠL ead
ĠS outhern
E ar
sc ope
Ġspe ech
ĠW al
Ġneg ative
Ġbeaut iful
Ġart icles
C R
Ġdef ine
R ev
M on
Ġl ibrary
est ed
Out put
=" -
C urrent
ad or
or ph
Ġwrit ers
Ġoper ating
In it
ĠC are
Ġimport ance
Ġp air
ĠRe port
ĠOlymp ics
198 2
Ġst ars
FF FF
P L
act er
ĠP M
ĠM ot
K E
Ġoper ator
ab eth
th at
ot ed
w an
om ic
Ġhand le
i ar
Ġsh ape
Ġcount y
Ġed ge
O ther
ĠFace book
d esc
ĠH on
Ġhe avy
++ )
Ġfe et
Ġatt ended
Ġsequ ence
b in
Ġs umm
off set
Ġrem aining
Ġfe ed
n ic
Ġyou th
ĠB ase
Ġbg color
Ġear th
Ġd aily
ĠS aturday
w indow
Ġl it
art ifact
od ing
C ache
Ġbig gest
ab y
ĠW ed
Ġ! ==
Ġequ ival
8 7
ĠW all
ri p
Ġg un
Ġthous ands
urs day
Ġgener ated
Ġeas ily
M O
Ġclear ly
Ġdoc uments
s d
s ign
ues day
w p
ĠSp ain
ĠM en
Ġhous ing
Ġd ream
n ab
197 9
h r
ĠE very
ash ion
Ġfl ag
Ġelection s
el ess
ĠV is
el se
Ġp il
Ġem ail
ĠCon ference
ĠG al
( _
Ġf ra
r angle
Ġsit es
Ġcol on
G o
p y
l anguage
s pect
refer ence
Ġcover ed
Ġtest s
& \
epend ency
ĠPol ice
N E
I ST
k er
8 4
ĠCE O
ĠSp ace
H ome
Ġqu ery
Fr ame
Ġserv ing
ĠB u
ad el
Ġext ended
T ypes
Ġar my
Ġag ree
Ġint ended
Ġf ixed
class es
b i
ĠFrancis co
Ġqu e
Ġp p
ĠJ oe
D uring
ĠJ eff
Ġown ed
Ġpos itions
im ary
c or
we et
m ut
Ġconduct ed
Ġcre ation
Ġ ;
ap se
clus ive
T arget
Prov ider
Ġstruct ures
p ower
Ġpart nership
Ġ[ ]
ad ium
Ġstud ied
Ġestim ated
ĠS and
Ġopin ion
ĠM ax
S O
res ents
opy right
Ġclaim ed
ĠE gypt
ĠW ay
Ġcho ose
8 9
Ġrecomm end
AR T
ens or
ĠMich igan
ors hip
Ġg rew
C ase
ur i
ge q
em y
Ġ ut
s ylvania
Ġcent re
m ond
ph as
Ġz ero
O ur
ĠIr ish
Ġ il
ĠU k
fl oat
Ġro t
hen s
Ġcell s
Ġw onder
ner gy
[ \
Ġpo et
I B
og rap
Ġf ine
ĠA uthor
8 1
ĠJ r
. }
Ġconc ert
id en
he m
ri z
ĠE lect
p op
Ġcustom ers
Ġstra ight
T ree
v ec
Ġoff set
ĠD E
ec es
198 1
ro ot
D ec
Ġm useum
as ure
g ate
return s
Ġfl oat
Ġl atter
ograph ic
Ġdep art
Ġa head
un it
Ġinstit ution
ĠF amily
Ġvol ume
int s
nes day
15 0
epend ence
Ġneg ot
Ġorig in
icro soft
ed u
Ġdec isions
**************** ****************
S l
at ically
Ġliter ature
G l
) ]
k ind
Ġem pty
lish ing
Ġcon cent
ĠA M
Ġgu id
ino is
C S
Ġobserv ed
8 3
ĠJes us
Ġun less
Ġvict ory
ĠPal est
Ġen force
s f
TY PE
end ar
a fter
et ch
ag ment
Ġequ ipment
Ġbl ue
ar p
ĠAnd rew
ĠK h
ĠN S
Ġag ent
ĠEn ter
Ġear ned
. /
con f
Ġde cre
j a
Ġcorrespond ing
Ã ¨
Ġded icated
Ġveh icle
p es
yn ch
i ples
Ġprodu cer
ĠS ir
b ool
ĠOh io
ĠB ecause
ĠC ross
var phi
Ġar m
ĠO x
ĠP o
IG N
Param eter
rom e
D ev
oc key
l ife
he ast
Ġattack s
Ġsc hed
Ġconcern s
Ġfr ame
et ing
C ons
ple te
Ġc ouncil
Ġdisc overed
ĠP ower
Ġex change
Ġbel ief
t ree
par se
Ġdef ense
iction ary
ĠP acific
Ġsur vey
i at
f ree
yd ro
ĠS aint
ĠB ow
ĠO k
ĠG ame
iz ont
ĠG reek
cl es
Ġc row
ate ver
Ġ* *
gh an
m ir
ra pper
ris on
c ard
Ġst reet
ific ations
ĠH ospital
Off set
ick s
ĠF red
ĠQue en
ay lor
Ġr iver
ĠW ales
W idth
t emplate
Ġdiscuss ion
V AL
X X
over line
Ġr an
Ġmag azine
al ysis
ĠC all
prot otype
Ġlook s
af e
Ġmys elf
ĠIn it
et ts
' .
im b
; ->
ĠW ater
Ġ ::
Ġw itness
oc us
r ich
oper ation
f rak
Ġn or
Ġn orm
ĠLat in
and on
Ġb asketball
ot ic
Ġrel ation
Ġg one
U B
Ġsh ift
197 6
ĠF ile
197 2
Ã §
197 8
Ġcom ments
Ġsch olar
im ents
Ã³ n
Ġdescrib e
Ġb ottom
Ġwe alth
Ġa f
uck y
osoph y
S earch
Ġf ix
: (
. ~\
Ġu pper
Ġaccept ed
Ġs outhern
Ġst eps
Ġv s
sh ould
ã ĥ
Ġtrad ition
Ġtrans action
T e
Ġun known
ur er
Ġ\ ,
Ġd raft
A cc
L evel
Ġlegis l
st ein
Loc al
pro p
ĠP op
IN E
Ġph one
Ġreve aled
Ġs port
ĠPenn sylvania
Ġachiev e
ĠGeorg ia
ĠKore a
cont rol
Ġdom estic
ĠII I
ĠK enn
ill ing
b an
Ġsc ored
Ġsett lement
ĠN ations
Ġnot es
Ġc ategory
Ġrespons ibility
Ġtechn ical
Rec ord
Ġra pid
os is
at i
Ġsh op
D D
S ome
Ġfore st
amp ion
Ġinf rast
ĠPl ay
Ġre ject
ĠTh us
Ġpract ices
ĠM u
iz abeth
artifact Id
sk ip
ck now
197 5
Pro ject
ok es
ĠC ode
co very
Ġs ample
n ote
iqu es
ĠG i
t ask
ĠJer sey
] );
ach us
ĠAr ray
( [
Ġredu ced
D escription
Ġappear ance
Ġen h
Ġf re
Ġhon or
Ġn arr
Ġs witch
196 8
Ġv ector
Ġaff ected
Ġm achine
T I
p ool
Ġlook ed
ist ration
T rack
Ġt rou
AC K
l ines
ĠP an
ĠJ ac
Ġsl ight
Ġfor t
M ark
ĠPr ime
Ġv an
Ġs quare
C al
Ġb ul
Ġt end
angu ages
Ent ry
Cont rol
Ġs ister
Ġdam age
} ).
is er
Ġmat ches
Ġ era
Ġopt im
Ġresult ing
ul s
ĠAs ian
Ġadv ance
Ġanc ient
Ent ity
erv ative
ro vers
Ġsu c
Ġappro ved
b order
Ġimplement ation
ĠIn vest
p erson
ĠJack son
Ġdi agn
d es
ĠWe ek
Ġn orthern
The se
al i
' d
h line
e ah
Ġreg ions
op her
Ġmin imum
{ {
il ton
F ig
ĠCon stitution
Ġb rain
d rop
Ġg ender
pos s
Ġv ision
F e
Ġhom es
Ġrepresent ation
Ġmin ister
Ġem phas
ĠSt an
ĠSt and
197 4
Head er
F O
ĠChrist mas
bur gh
Ġ icon
Ġc ook
ĠT ele
197 7
Sc ript
Ġf le
197 3
r ant
Ġse asons
Ġshow ing
Ġprofess ion
Ġres ident
styles heet
Ġhapp y
Ġarr ived
Ġ util
ĠK en
Ġrecogn ized
ĠO R
ĠEx ecutive
w s
Ġaltern ative
' ),
im er
i able
Ġr ul
ĠN Y
M M
Ġrep resents
ĠA PI
Ġsub stant
ĠIn ternet
ent ity
Ġline ar
Ġstat ements
Ġapp arent
sc ape
D S
P at
ĉĉĉĉ ĉĉĉ
M ay
Ġf ramework
Ġt ournament
% ;
Ġhe ro
ĠIll inois
achus etts
Ġh our
Ġpers ons
p df
Ġsuc ceed
Ġal umni
Ġad vert
Ġd og
W rite
COL OR
}, \
out e
Ġact ress
Ġexper iences
ĠScot land
Ġvis ual
ĠEmp ire
Ġp icture
val ues
Ġf it
Ġtool s
ĠL ike
ĠV an
Ġmed al
Ġident ify
Ġcall ing
ĠT uesday
Pro cess
Ġs an
Ġcould n
() ->
is ms
Ġcommun ication
ĠL ine
maz on
Ġple ase
ĠE astern
1 000
av al
Ġhe aring
ig er
Ġl en
ĠG ener
Loc ation
oc ation
Ġro les
ĠTh ursday
AP I
ĠE p
izont al
ord ers
Ġcompon ents
ĠSc iences
or row
Ġmay be
Ġ{ }
ic ed
ĠC reate
ĠC ard
m ail
R L
Ġfl oor
âĢ ĺ
How ever
Ġtemper ature
ĠComm on
ion e
Ġprocess es
Ġt ick
Ġarg s
Ġfund ament
ing ly
Ġdis s
ĠM ember
se cond
b ury
Cont ainer
S H
Ġsold iers
Ġjud ge
Ġwe ak
Ġit er
Inter face
ĠTr ust
Ġoccur red
comm and
Ġd ensity
Ġindust rial
if ies
math frak
Ġrelig ion
Ġexam ples
Ġcomb ined
aw a
ĠB oth
u int
ĠJ un
on av
b efore
19 40
em p
group Id
he mat
Ġg ra
ĠJ on
is c
Ġbu ffer
AL L
Ġpro ve
t ml
ic ial
ag raph
Ġrest aur
r ine
Ġlarg ely
Ġinc orpor
ell er
ra wn
im a
ĠH or
H ttp
194 5
Ġfig ures
u an
ĠR am
Ġorder ed
Ġb att
Ġuse ful
Ġc ars
Param s
Ġest ate
Ġfac ility
Ġpat ient
app a
ĠB ack
E M
Ġdist ributed
ĠDan iel
on ym
Util s
Ġinfrast ructure
Ġtre nd
ĠR h
anc he
Ġfind ing
ct x
b olds
d irect
art ers
19 30
bolds ymbol
mod al
Ġlegis lation
ph one
ap ed
197 1
Ġch ain
ict ed
Ġdom ain
W E
ĠBro ok
Ġdr iver
a uth
Ġsee ing
ath an
st ar
Ġle tt
Ġh ab
Ġess ential
Ġlead s
Ġext ension
enn is
Ġc er
Ġsupport ing
c ache
Ġ ice
v a
d i
atal og
Ġact ors
R ight
ost er
Ġdec ade
p ub
Un it
end ment
H S
Ġam b
( -
196 9
k o
ins on
ĠColumb ia
Ġh yp
p resent
ĠThe atre
Ġey es
iss ions
ĠG ra
ĠWh o
ĠR o
h ar
ens ure
ed ge
Ġbl og
ph y
Ġp ackage
ĠM P
Ġalleg ed
Ġp ages
: "
oth ing
ĠF ree
am in
In st
Ġst rict
Ġrecord ing
ĠL em
Ġexp ressed
ĠWed nesday
A F
Ġper man
Ġsp ot
Ġent ertain
Ġr ich
d est
ĠInd ust
Ġst uff
t oken
ĠMin istry
D ep
Ġsub s
ĠCh ris
Ġrel atively
Ġsom ew
P o
ĠE ach
W ill
am ing
ĠSe a
Ġconf irmed
Ġp un
Ġadopt ed
Ġhelp ing
ure au
Ġact ing
pe ople
ĠD ou
il ly
as er
196 7
a a
Ġa wards
Ġexpl ained
Ġ urban
res ource
Ġ" \
Ġs ale
Ġdr ink
Ġexc ell
iv ery
IZ E
A re
ug ins
ont o
Ġresear chers
ĠK ong
Ġinit ially
A c
u pload
ĠGover nor
ĠCo ast
Ġm and
Ġengine ering
ĠR un
n ce
IN T
te en
ĠChe ck
J son
ĠM id
Ġregister ed
j ection
Ġdist inct
ĠE qu
N et
put e
ĠBl ue
Ġag ric
Ġdram a
Ġanim als
Ġpro min
im ages
ipp ed
ĠV iet
Ġdet ail
ev en
ĠL uc
ru it
ial ize
Ġpre par
He ight
ĠRet urns
b ootstrap
ĠAf ghan
ĠGu ard
Ġsu fficient
Ġconcern ed
Ġj ourney
ĠMass achusetts
Ġm ist
d ist
in ating
Ġw all
ĠReg ister
="../../../../ ../../
> ,
Ġp anel
man n
P op
G u
Ġu int
ĠAb out
Ġconstit ution
Ġch ampionship
ĠD ate
ĠAn y
Ġauth ors
i ro
L ambda
Ġdo or
s en
ĠB ern
rap y
us al
Ġcamp us
N on
Ġmov ies
ĠM aster
Ġfootball ers
m id
b uffer
Ġco al
R I
am m
int on
k m
Ġcont aining
adel ph
k in
Ġmot ion
Ġsp ring
N one
sk i
ly wood
ĠCar l
cre te
N e
yth on
Ġmain tain
che n
Em pty
init ely
Ä ģ
ript or
Ġfil ed
Ġd atabase
igr ants
Ġmark ets
Ġa id
R ange
ĠEd ward
s plit
Ġsche me
oun sel
R C
ĠM ike
ĠK ent
D P
mod els
ĠF ar
ĠC y
in ity
Ġbe at
su ccess
Ġprim arily
. '
Ġexist ence
D L
Ġserv es
Ġ Î
z en
Ġsh ares
ĠL ast
ĠOx ford
Ġch osen
Ġpe ak
onav irus
Ġtyp ically
K e
ĠF our
Ġtro ops
ĠEn vironment
Ġcircum stances
ĠS ong
Ġj ur
Call back
Ġgreat est
d at
wh ite
P osition
Config uration
Ġgrant ed
Ġe cho
text it
Ġeduc ational
trans form
Ġman ner
ad er
ce ived
adelph ia
Ġgirl s
S ign
S L
Ġcandid ates
ĠB ul
Ġinj ury
Ġa st
Ġd rop
Ġm ask
b al
Ġthem e
Ġtell s
) ^
19 20
Ġcons ists
Ġdeb ate
w riter
} /
ole c
it les
Ġdo ctor
ĠF ire
enc ing
ĠE nergy
. âĢĻ
w er
ĠR os
Ġhous es
UL T
ograp her
Ġpl anned
Ġpro file
Ġfight ing
Ġent ity
en ant
n ormal
" ))
ã Ĥ
Ġexp ansion
ĠN ote
ĠN ight
ĠRep resent
Ġcont rast
ict ures
Ġpl ot
ĠA L
ĠC irc
25 5
dev ice
empt y
ac cess
1 20
E v
Ġm atters
Post ed
Ġextrem ely
Ġrev olution
Ġemploy ment
Mod ule
Ġse at
igh ter
Ġinstr ument
g raph
B o
Ġ* )
ens ed
Ġwid ely
ĠRad io
ĠJew s
Ġon to
ar ation
Ġadvant age
ĠC ON
el a
Ġcorpor ate
ĠT witter
P P
Con nection
Ch ange
Ġallow ing
St at
ĠChild ren
D own
Ġrem ov
Ġass ume
Ġmain ly
ĠBro ad
ĠT oday
ik i
Ġprot est
Ġstreng th
ĠH and
Ġarchitect ure
sub set
Ġbal ance
Ð »
Ġfeel ing
} ),
Ġfac ulty
ir a
m atch
ĠM ah
Ġact s
CT ION
f s
y e
Ġl icense
Ġel im
Th read
B I
il a
Ġp owers
ĠĠĠĠĠĠĠĠĠĠĠĠĠĠĠĠ ĠĠĠĠĠ
Q L
ld ots
Ġst orage
ly n
d ict
Ġn ob
ob e
ĠC oll
ĠCorpor ation
Ġeff ic
ak a
. \
Ġm yst
196 4
equ al
alle l
olog ist
Ġa cknow
Ġf an
Ġar ts
v as
ĠV iew
ird s
wid et
sh all
Ġag encies
anc er
o very
Ġre new
v m
ĠMed icine
Ġvari able
Ġab use
Ġconst ra
T A
Ġg ain
l ers
Ġw estern
Ġpolitic ian
Ġchang ing
Ġm ent
ĠS ports
H ash
Ġdeb t
Ġm ixed
Ġf uel
Ġbeg ins
Ġfe at
D ocument
M ed
r ange
Ġsignificant ly
Ġr ural
ĠM ajor
am ber
c oh
Ġspec ifically
r ical
D I
Ġdiscuss ed
o ir
ick er
ĠW ild
d ebug
P os
Ġexperi enced
ĠD C
ĠAdminist ration
ĠEl izabeth
ot es
h ash
Ġdr iving
Ġext ent
Ġlist en
ul f
Ġgu arant
Ġhistor ic
Ġvol unte
ĠB attle
Ġpers pective
Pro t
Ġw ind
N N
ific ate
in f
ol es
ĠP rem
Ġreg ulations
Ġev olution
" ));
Ġin fo
ir ty
ĠL ew
ms g
ĠPr ince
eng er
Ġc ool
Ġseem ed
Ġy ield
ĠIn s
Ġcharg es
ĠMc C
ĠU se
y o
ex ample
Ġdel ay
ĠM ap
% )
h igh
if er
Ġres olution
s es
ĠD own
rou d
Ġs um
f n
Ġsuggest ed
ĠCon f
v in
ĠD O
Ġadv anced
ĠH a
Ġcont rovers
ĠF urther
ĠAN D
Ġbr anch
widet ilde
Ġass ign
Ġsp ending
P erson
Ġa thlet
un ately
Ġconfig uration
il ms
Ġadd ing
Ġsh ut
Ġtra ffic
G E
Ġsett ings
Ġ ~
over ty
Ġprep ared
c at
Ġdecl ared
Ġt aught
ĠT em
ann er
ĠWh y
Ġin tern
ĠE th
Ġvict ims
25 0
Pro perties
Ġprocess ing
u ations
Ġinsp ired
ĠT w
Ġins urance
Ġal gorithm
ĠS om
Ġd ig
is l
196 5
Ġf ell
el lect
Ġveh icles
Q ue
Ġtri p
O p
Ġhold ing
ex ec
Ġassist ance
const ruct
ĠT ri
pre ne
Ġcom edy
Ġs ac
Ġcl ients
Ġentire ly
Ġdev ices
M e
Ġrece iving
co pe
art s
Ġs oc
Ġreg ul
Ġp adding
ĠP oint
ĠE nt
Ġappe al
ĠW he
F ont
ĠL ittle
ĠW alk
Ġdou bt
Ġmon itor
Ġf resh
ĠTr ue
Ġl oved
____ ____
Ġpl ants
Ġprom ote
L eft
s end
Ġw ish
S m
Ġover ride
ĠR ay
Ġfil ename
Ġneighbor hood
re prene
omet ry
ĠFore ign
Ġpolitic ians
Ġcar bon
ĠG irl
ov a
Ġsp end
}} $
ne ctions
ĉĉ Ċ
act or
ĠT aylor
ĠOn ly
ap pe
c f
m ode
ing le
Ġsign al
se ct
ĠPh ys
ĠPhil ipp
Ġp m
Ġcover age
m ake
Ġpen al
Ġcomb ination
ĠB rad
Ġj av
x is
Ġex ternal
Ġfl ight
ĠC ub
ĠW is
Ġd ie
Ġstart s
ĠM ethod
hold er
ĠAff airs
ent er
ĠO p
Ġsupp osed
inter face
ren cy
Ġtem plate
ĠH ong
Ġpart ners
miss ions
Ġacc ident
Ġey e
M r
Ġgood s
Ġclin ical
Ø §
Ġs plit
Ġapp rec
st ack
Ġca uses
b ound
add ress
Ġw ave
ĠR equ
Ġweap ons
iven ess
w ater
O ption
j pg
med ia
r ig
P ass
Ġint elligence
ra ine
6 00
Or der
ĠThe refore
if est
Ġp od
Ġrelationship s
ĠWil son
An y
th ur
in er
Ġass ets
ĠEngine ering
Ġaspect s
Ġim plic
ect ive
= #
ĠB G
Ġult imately
ul pt
Ġhigh light
ĠR od
Ġsp ons
Ġpass ion
Ġm obile
Ġhapp ens
Set tings
Ġmass ive
cl os
Ġachiev ed
Ġc ash
Ġv eter
W S
red it
vir t
Ġteacher s
Oper ation
ĠN OT
Ġunc ertain
i ated
Ġare n
b as
ĠS her
ĠM ic
ĠR om
Ð º
Ġatt ribute
Ġgener ate
ul ner
or ough
Ġcont emporary
Nav Bar
Ġinc ident
ĠR en
ru ption
Ġopp osition
Men u
AN D
het ic
gl obal
Ġdiffer ences
ĠDes ign
Ġ> =
d el
atas et
a ver
ro ke
ĠB ang
= {
Ġto ken
o es
196 6
; "
en v
Ġequival ent
Ġscient ists
Ġform al
P ub
Ġb ond
Ġret ired
V ert
ic ons
ri ate
ĠR og
Ġwin ner
L ong
pro fit
D IR
ĠD ar
Ġp ool
Ġparam s
ĠP ass
au g
c ut
ĠN ame
ĠSt e
pr ise
Ġoffer ing
Ph i
Ġrec ip
C are
ram es
H ere
Ġin n
l n
jo in
ĠDon ald
ĠH ung
ĠâĢ ¢
ĠRev olution
ĠK el
Ġ urg
O K
e z
-- -
ĠOffic er
Ġs un
Result s
ä ¸
Ġalong side
Ġgrad uate
let on
b ind
ĠA ction
ob s
ist ant
Ġv irus
Ġexpl icit
Ġinv oke
Ġemer gency
Ġvacc ine
Y ear
H is
ĠK im
ĠB BC
se x
g ers
Ġperson nel
Ġwh atever
el ines
foot er
Ġnewsp aper
ast ers
Ġf ill
let s
us hed
et her
ĠA ud
Ġb an
Int eger
web kit
Ġw ww
& #
U se
Ġmarket ing
Ġcommit ment
sc ription
Ġs ides
er ry
Ġd ance
16 0
in ternal
Ġnetwork s
Ġsuccessful ly
Ġknow s
Ġl ayer
ic ol
lang le
ĠBer lin
Ġacqu ired
d ouble
Ġex port
=" _
st one
Ġmet al
t ure
M ult
================ ================
ĠL o
Ġtrack s
n amed
Hel per
} )$
ev in
pl om
s v
Ġprov ision
Ab out
Ġorgan ized
ĠA mazon
ug by
r ary
Ġassoci ation
Ġcreat ive
Ġher self
Ġerr ors
t n
Ear ly
Ġad just
Ġp hen
ĠPhil adelphia
th rop
Ġtru ly
ag ues
ur d
pro duct
ĠR ome
Ġb omb
ĠL im
S w
in ant
Ġcre w
c oll
Ġl ies
N ational
Ġannoun ce
Ġadv ice
ĠC ro
Ġx ml
ĠT able
Ġf ashion
Ġf iction
Ġwould n
PE CT
D om
ĠD ub
Ġp an
Ġst ress
Ġv en
Ġpurch ase
Ġv ac
Ġf ant
Ġa maz
Ġcontribut ions
v ard
ĠC ur
? ?
Ġw arm
ĠS ym
ĠAd v
fr ame
W orld
Ġgovern ments
Ġworld wide
B ook
Ġref uge
Ġch apter
ĠF air
k appa
od d
Ġcharg ed
d elete
Ġaff ord
Ġbr idge
ĠChampionship s
Ġloc ations
ĠI P
Ġpublic ation
Ġtw ice
Ġphys ic
pl ugin
rom ise
Ġcont ained
Ġwill ing
ĠB ell
bl ing
T itle
h ow
f riend
ĠV ice
Ġsh ips
Ġp rices
Ġpi eces
Ġis ol
Ġdisc rim
sp irit
As ync
Ġcer em
Ġexpl ain
Ġund efined
Ġinc red
in ator
co in
m osp
riz ona
Ġw arn
am pl
s pe
Ġord ers
as hed
Ġcon ver
s ession
er ies
se curity
Ġle aves
Ġre venue
ogg le
ĠC ov
ivers ary
Ġarrest ed
ĠT al
ĠStev e
eng ine
p a
ĠE st
aw s
ri e
Ġm ort
ĠTor onto
S k
i pe
ip ality
196 3
Im pl
Ġent itled
Ġpay ment
Ġap art
Ġequ ation
f amily
poss ible
Ġun able
Ġear n
ot hes
Ġb odies
=" /
ĠC orn
ot imes
ĠL abor
E Q
ĠC apt
mat rix
eder ation
ĠE vent
G r
ay a
e per
Ġass igned
u ps
t aining
L a
Ġexpand ed
ĠS us
param eter
Ġfavor ite
Ġk id
Ġgu ard
cl ick
ĠPol and
Col lection
% ,
Ġth read
E CT
Ġchem ical
Ġret ire
V er
Ġsy nt
v ector
Ġj ump
V ari
Ġend s
Ġrecogn ition
Ġclass ical
Ġprinc ipal
A uthor
Ġcom fort
Ġacc ord
ĠM A
ĠCor ps
Ġhel ps
Ġen able
F ound
Ġassist ant
ĠF ox
ensure math
C lick
ĠOlymp ic
Ġaccom pl
Se cond
Ġr ough
or gan
S ession
Ġv ent
con nect
ĠRe al
ĠD utch
8 00
ĠĠĠĠĠĠĠĠĠĠĠĠĠĠĠĠ ĠĠĠĠ
ann els
G eneral
S U
ĠJ ean
( :
D ir
p atch
Ġphot o
igen ous
G ET
ĠP en
Ġcam era
ĠM ath
Ġret ail
ĠC re
Ġexerc ise
ain e
ĠIslam ic
194 4
Ġtw enty
Â °
ocr atic
ĠL O
Ġhas h
os es
P H
doc s
Ġ[ '
ic ide
Ġint ent
ĠK ey
Ġyoung er
Ġhundred s
ĠPri ze
Ġl anguages
Ġbring ing
sc ious
ĠH ou
it o
Ġenforce ment
Ġfin ish
ad s
ici ency
in ates
Ġcom plic
Ġup dated
d ot
Ġfundament al
Ġthan k
mer ce
Ser ial
c r
C I
ĠDav is
ĠHistor ic
C ore
ĠN az
ord an
V ector
App lication
B efore
s ystem
, -
Ġre nt
' ],
\ [
ĠA R
S ym
Refer ence
Param eters
Ġsurround ing
Ġcont ribution
Ġyour self
Ġvoc als
E ach
Ġmark ed
ens ional
ĠL ight
enn es
ache lor
Ġsuffer ed
196 2
Ġterrit ory
IT Y
ĠAss ert
ĠAn other
Ġc e
ty pes
& &
ow a
ERR OR
Ġtre ated
ĠTh ree
() :
ud den
g s
ĠB ol
ĠSt ory
ĠR on
d ates
em pl
Ġseek ing
eg o
on ia
Wh y
. $
SE T
Ġdeg rees
f ull
ĠH y
c ert
St ore
Ġdrug s
ĠUn ivers
Ġd uty
Ġcour ts
ow ed
Ġdet ailed
' >
ĠIsrael i
ide os
A ME
Ġp ra
I ter
od ed
Ġan imal
com es
Ġrepresent ing
Ġar bit
id ae
Ġra c
ĠO tt
Ġc art
ol is
ell o
virt ual
call ed
ĠP u
Ġrepe ated
OR M
f ony
nab la
Ġreg ime
Ġdefe ated
yd ney
D raw
st ore
Ġfif th
Ġreview s
ĠSu pport
T ool
Ġgu y
ĠL i
D C
ric ts
Ġmot or
Ġsuggest s
P T
Ġb urn
Ã ±
Ġrem ark
hold ers
i Ä
are t
ĠBe ach
Eng lish
ap es
sh ot
nt ario
ĠV ill
Ġbehav i
ĠStep hen
Mem bers
Ġdown load
Ġp it
Ġslight ly
wid get
Ġp al
Ġsp in
Ġl ov
\ |
ĠP erson
u ous
Ġbase ball
ĠB ush
Ġaccount s
cont in
Ġemploy ee
ex port
ĠBG COLOR
ĠT ro
R ed
Ġdoll ars
c p
ĠArt icle
I E
ĠPort ug
AT A
est amp
ĠTh rough
âĢĻ ,
Sche ma
ĠMin nes
ĠL y
ip eline
Ġg ar
P ublic
ĠC at
ag ger
ĠA sh
H ost
D av
per ial
cit ep
h over
pon ents
Ġexper ts
ĠSt ock
and ra
ĠColor ado
! !
Ġsp aces
âĢ¦ âĢ¦
il ation
Ġ} )
Ġn ations
ĠC A
Ġs ought
i y
Ġvis ible
Ġpar se
ĠP ers
Ġcommun ic
ĠEx ception
Ġparticip ants
Ġconstruct ed
qu ir
N ote
D em
re hens
d ependency
Ġpass ing
Ġcont ainer
Ġadministr ative
w ing
Ġnew ly
Ġsp oke
ĠB iden
Ġrec all
ra it
c lear
Ġad j
y ers
Ġrail way
Ġincreasing ly
h ome
Ġprogram me
ĠP sych
N ames
Ġclub s
ĠF inal
p et
Ġcorn er
Ġwe ather
ask a
ĠF re
to String
ĠMinnes ota
Ġdiv ided
k es
r as
ub y
t im
Ġbank s
Ġ rom
Ġs oci
Ġgrad uated
Ġh idden
D i
Ġstand ing
Ġhe av
Ġprinc iples
P tr
ke ys
ĠAlex ander
ellect ual
ag an
AT H
The n
M D
## #
n ight
mb ox
Ġfound er
T emplate
ĠPalest in
ĠCam bridge
u ct
Ġphot ograph
ĠE N
ĠA venue
Ġown ers
Ġsec ure
s ort
Ġepis odes
Ġprov isions
gr ade
Ġplan et
R ect
res hold
Ġv ulner
r ase
Ġm essages
Ġreport ing
ain ts
Ġcl oud
fo o
A ust
ĠBook s
Ġl ay
app ed
Ġestablish ments
ĠVictor ia
Ġconsist ent
Ġb ass
ĠProv ince
Ġsol o
% .
com ponent
Ġcomp ens
ĠDes pite
ĠI mp
cent ering
-- >
ou red
Ġfact s
Ġtechn ologies
ĠA ccess
ĠW el
Ġfl ood
ĠS che
M ain
Ġoper ated
Ġdocument ary
Ġpost ed
ĠAg ain
Ġde lete
Not es
Ġvers ions
ĠU ser
Ġposs ibly
194 2
ar ia
Ġvot es
iv ation
m o
j e
Ġcy cle
Ġb ed
Ġjur is
ple x
Ġclos ely
id i
Ġind eed
F T
Ġclass ic
Ġarr ang
itar ian
OR D
ĠComm unic
pt on
ĠApp le
Ġext ensive
coh ol
Ġdestroy ed
AC E
d ots
Ġinstall ed
cl oud
ĠMod el
Ġon going
Ġs quad
Ġinvolv ing
Al though
Ġf lex
em ail
196 1
Ġform ation
Ġun iform
Ġfind s
Ġn odes
Ġdist ingu
Ġthan ks
c ustom
Ġg ather
f il
Ġsupport s
Ġperform ing
ĠB on
P res
let ed
Ġsched uled
ĠAir port
D ebug
Ġposs ibility
Ġcollabor ation
G O
p adding
Ġtechn iques
ĠR ight
ĠCont rol
ou ri
$ (
ist ed
x x
og y
annot ation
Ġport ion
m aster
Exp ression
Ġd iverse
it als
ipp ing
ĠW ars
Ġcol lected
Ġabsol ute
ir ms
194 1
Ġde leg
Test s
equ als
c i
ut ely
Ġex pos
app ro
AG E
Ġocc asion
Ġperform ances
Ġmill ions
Ġcomp osed
U RE
Ġeffic ient
ĠÂ »
sk y
M ENT
Ġeng aged
Ġcrow d
Ġconvers ation
ĠComm and
. ;
ĠE ll
âĢ ¢
Ġab andon
ĠScott ish
Ġimpro ved
co q
Ġl y
ĠM ir
Ġtop ic
ĠTur key
ĠA k
um es
ess ions
s or
ĠU r
? :
Ġar ms
ĠM arg
ĠL ive
ann a
ĠHol lywood
Ġnear by
Ġpromin ent
a is
ac le
Ġst orm
ĠL ie
1 10
Ġf ish
ĠS anta
erv es
v ol
Ġpol y
Ġadult s
Ġresult ed
ap ore
Ġsm art
ĠW in
Ġc as
ship s
Ġspe aking
u ing
st ep
ow nt
y al
a us
form ance
ist ent
ĠU t
Ġapplic able
P arent
Ġbring s
Ġtre es
w orth
pl ugins
P arser
ĠH u
ĠF ood
Ġfeat uring
Ġd ialog
Ġadv is
Ġcons umer
Ġlett ers
Ġsh ock
Ġsecond s
e en
ĠA rizona
ĠF I
Ġt itles
Ġexpl an
Ġpresident ial
J an
Ġread er
Ġdeliver ed
f ol
sc reen
Sh ow
ir ation
ol id
her it
st op
am il
ĠCount ry
set tings
ĠN on
n ap
Ġp roud
ĠH un
ĠLoc al
ĠAg ency
Ġl osing
19 39
j i
ĠSt aff
Ġfrequ ently
Ġall oc
Ġun f
cons in
Ġel ig
qu arters
Ġhot el
che stra
Ġatt orney
Ġprot ocol
Ġshoot ing
b ro
ial s
Ġr h
ad ing
un a
Ġvari ables
re place
ut her
Ġprov ince
ĠB efore
en um
Ġgu ide
c up
al o
Ġlo an
Ġne ut
ĠN C
dis abled
ĠA ge
c opy
ĠK ansas
Ġturn s
Ġp overty
Class es
m ic
re q
Ġweek end
-------------------------------- --------------------------------
ps on
Ġcor re
Ġv ice
ĠBel g
I con
Ġfact ory
li k
Ñ ĥ
Ġad vent
Ġtra ined
ĠG ree
ĠB ra
H as
Ġc ensus
Ġgl ass
Ġreturn ing
Ġattempt s
Ġs leep
ĠN O
Ġte en
Ġcol le
st at
id get
um a
Ġkeep ing
w orld
194 8
ĠP age
ĠSt ation
Ġass ault
aw n
ĠMem orial
Ġhead er
ort ion
Ġwin ter
ï ¿
Ġstrateg ic
G en
Ġcompar ison
ĠC H
Ġli e
F alse
and y
pr ime
Ġso le
ST R
ĠLew is
Ġrepresent ative
Ġwatch ing
Ġexhib ition
De cl
Ġvis ited
ĠG reg
f ly
b ul
ĠEconom ic
Ġsecond ary
field s
ur ches
out s
Ġprinc iple
Ġperman ent
ual ity
unn y
ick ing
Ġcustom er
âĢĻ .
od er
child ren
ĠT O
Ġt rib
sp ring
hand le
Ġse gment
Ġkill ing
ct rine
ot he
m aterial
Ġparticip ate
Ġstrugg le
reg on
ad min
Ġh aven
Ġrisk s
M any
ĠAtl antic
Se ction
ater n
ĠA li
Ġprob ability
ĠL ear
Ġsol ar
al id
En cod
ĠL ady
ak h
n ames
Ġl ose
Ġstand s
g ence
Ġcapt ured
Ġdisc over
ĠEX PECT
ĠHam ilton
B ody
> ();
Ġend ing
ĠAfghan istan
Ġdis miss
ĠF ellow
ast e
Ġ( '
S ION
is a
ĠPr inc
Ġappro val
ĠS ydney
t ical
Ġdef initely
ru le
ear s
ib ilities
ress ive
ï¿ ½
her lands
Ġw aves
Ġsubsequ ently
St ep
194 3
block List
Ġreason able
Ġdep th
B R
su per
an es
Ġwait ing
J ust
Ġc rick
m ad
Ġp ure
ĠW indow
ĠMod ern
fort unately
ĠBro ther
Ġpro fit
ob uf
ĠHol y
B rit
put ation
M C
Ġincre ases
ĠO ntario
s he
Ġacc used
Ġhe at
Ġdirect ory
uss ian
ĠH ay
ele ase
Ġhum ans
ĠViet nam
Ġprov ed
Def inition
Ġsubsequ ent
Ġdi plom
ĠIs lands
ĠKore an
fr ont
195 6
ĠS on
Ġdro pped
ĠW rit
edd ing
Ġpl ane
Ġpl us
Ġsc ulpt
Ġex ceed
b u
195 9
ĠS af
Ġv ast
L S
Ġstat istics
Ġpro hib
195 8
u able
Ġs ummary
Ġg ained
Ġsym pt
Ġfac ed
Ġo dd
Ġd ict
Val ues
Ġag ents
/ \
Ġsing les
Ġbeliev es
ex ports
F urther
rib ed
Ġunder t
b el
Ġcour ses
Ġconsider ing
Ġf asc
T wo
19 18
Ġdel ivery
f ramework
w a
N ov
Ġopp os
} -
Ġpar liament
th ony
ig ious
Ġassess ment
Ġman age
ge bra
__ (
S igma
Ġoffic ially
Å į
Ġeffect ively
Ġsh aring
ĠM iller
em et
os a
ĠIn f
Ġf illed
Ġinteg r
Ġfamil iar
ĠEx t
ĠB ad
Ġe c
Ġmor al
pan el
ĠInst ead
Ġb ought
ĠR ose
In valid
D R
Ġeas tern
B r
sh ort
Dev ice
Ġdescrib es
y es
Ġil legal
Ġh ydro
Ġc ry
Ġn arrow
ĠB ru
inst all
ĠH ard
ĠT ok
Ġphen omen
Ġre action
Ġat mosp
Ġsur g
\ %
Ġamaz ing
Ġfound ation
D T
Ġeven ing
ĠW at
ĠGold en
L C
Ġfl at
Ġrequest s
Ġin ner
{ }
{ -
Hand le
? "
Ġc aught
b ec
ern el
Ġask ing
Ġder ived
ass ets
Ġtransfer red
Read er
Ġle ct
Ġbro ken
am i
b ad
ing ham
Ġcomp rehens
em an
bl og
Ġocc urs
Ġexpl ore
Ġbound ary
\ ]
includ ing
Ġe lev
Ġproced ure
Ã £
Ġext ract
Ġpr ime
Ġimplement ed
el d
Ġfor th
g ame
ĠHT ML
our se
Ġelect ronic
; <
ĠD eb
Ġrat io
Ġrem ote
Ġopp osed
Ġstop ped
Ġesc ape
T ags
Ġconf irm
Ġcon sole
Ġse ctions
D oc
ĠEx per
Con st
ĠT ext
C ustom
Ġdec ide
Ġmed icine
Ġquant um
ĠB a
Ġpre ced
Ġdanger ous
ĠM ill
C opy
ĠĠĠĠĠĠĠĠĠĠĠĠĠĠĠĠ ĠĠĠĠĠĠĠĠĠĠĠĠĠĠĠĠĠĠĠĠĠĠĠ
Ġsever e
equ iv
C or
Ġm ock
Ġres c
Ġcapt ure
Ġrec overy
En abled
Ġo s
ĠH om
app lication
ĠS em
ĠB and
ap h
Ġc ache
rec ated
c ow
end a
ĠB udd
st ood
Ġdirect ors
ition ally
ynch ron
ĠR est
195 7
) -
Ġhy per
og ether
Ġpropos al
ĠHou ston
Ġch ampion
Ġdisc ipl
Ġemploy ed
Ġgu ys
b les
Ġpain ting
On ly
Ġhab it
Ġs oul
W A
Ġy ards
Ġmed ium
=" ">
Ġput ting
Ġdem ocracy
EN D
w rap
ĠA h
M ost
Ġlink ed
reg ister
Ġin ternet
Ġd iversity
ar ry
Ġblock s
Ġstri ke
ĠS at
Ġcommon ly
Ġent r
ant ry
ĠCap ital
D ialog
ar on
ĠF ord
ĠDemocr ats
Ġref used
ig in
Ġw allet
ĠD am
Ch rist
Ġpre v
Ġconf idence
im p
Å ¡
Un ited
ĠOn ce
> .
} "
ad ed
ang o
R ender
Ġsil ver
Ġvot ing
c over
Ġjo ining
Ġd rawn
col n
Ġeth nic
ĠJ SON
eng ers
ag a
D ist
Ġexcell ent
J ECT
Ġs udden
Ġn amespace
ĠV en
Ġmusic ians
Ġgu ess
ĠL ater
L java
og en
Ġredu ction
tab ular
ĠL ink
Ġimmedi ate
c uss
d em
Ġstre ets
Ġcor onavirus
Ġvot ers
ĠTur k
}} {
Ġpro port
ĠAnt on
Ġins ert
ĠDu ke
ak ed
Ġscen es
if fer
ĠG allery
; \
ar c
ĠM ilitary
ĠF ac
194 6
194 7
Ġbeh alf
Ġmeet ings
ol ver
ĠAr gent
C P
re ll
Ġm ach
Ġleg end
ĠM ult
J o
Pol icy
ĠCon nect
Ġfac ing
G S
Ġst ack
ĠWis consin
Ġz one
Ġ( âĢľ
Ġoff ices
Ġv ary
Ġp ed
R S
Ġex clud
ĠHar ry
ut ies
ĠS ign
Ġunivers ities
Ġcomb at
g ov
ol itan
com ment
Ġcontribut ed
: #
Ġent reprene
Ġpro f
hel p
N um
Ass ert
ĠS ant
M T
Ġh all
Ġstrong ly
Ġs yn
Ġsem i
R ule
Ġprov ider
Ġcont rolled
V D
St ack
at ar
ĠI O
Met adata
ak s
R ad
10 1
ĠUk raine
Ġeas ier
ĠAr m
Ġpurch ased
Ġlaw yer
M I
ĠAre a
Ġoper ate
f aces
emet ery
Ġf estival
Ġv ess
Ġim possible
h ard
j ar
195 5
P RE
ĠK ir
ĠM oh
Ġtyp ical
Ġs elling
ĠB al
Ġc overs
AR Y
ĠAd am
cer ning
Ġread ers
h ol
ĠSen ior
=" "
Ġpercent age
Ġst one
ĠC ase
Ä ±
ĠN FL
ĠMary land
om orph
Ġm ir
Ġfe e
Ġarg ued
up le
U nder
Ġc old
ĠĠĠĠĠĠ Ċ
ĠL ev
T ra
ĠV alue
d eg
az a
ĠCol lection
Ġm el
Ġgovern or
( *
or i
Ġinvest ors
ĠB C
Ġcon nections
Ġtask s
ud es
ĠÂ §
ol ars
Ġr ing
Ġsign ature
Ġnecess arily
Ġpub lisher
Ġreli ef
ar ity
IC E
EX T
Ġenjoy ed
R oot
ĠFin ancial
p ay
M edia
Ġmanufact uring
Ġrestrict ions
new s
ĠChar l
ĠFore st
Ġj son
Ġtr igger
Ġdep ends
l ow
ĠBr idge
/ .
ĠSy ria
du ced
ĠNet herlands
er g
ĠC ost
ĠĠĠĠĠĠĠĠĠĠĠĠĠĠĠĠ ĠĠ
Pre vious
Ġwor st
ĠFig ure
T im
Ġcop ies
Ġal ter
o is
` .
Ġc ab
Ġdes ire
Ġconsequ ences
or ne
P ackage
ĠS pec
ĠT H
B i
Ġfrequ ency
ĠDef ense
ĠGu ide
Ġind ependence
Ġoppos ite
Ġse vent
Ġwor se
aud i
Ġfin ite
ĠW here
un ct
Ġjournal ist
Ġte ach
Ġvict im
Ġor ient
ĠL td
Ġfac ilit
ĠSt art
ĠT ai
ĠReg ion
leg es
ĠB all
ĠK now
ĠM att
ra ction
pro file
195 4
ĠDis ney
ir th
Ġfe els
Ġprogram ming
ĠA st
Ġphil osophy
m aking
arch y
Ġhost ed
ĠF C
Un iversity
l an
c ategory
Ġhealth care
ennes see
Ġappro aches
ĠTh ose
ĠS uch
Ð° Ð
ĠPol ish
ro t
let ter
Ġmount ain
Ġh air
Ġest imate
call back
Ġs amples
ĠT urn
w atch
Ġwrit es
Ġm olec
Ġpil ot
Ġaud io
\ "
Ġtalk s
ĠO regon
ins ert
Ġlim its
Ġv ideos
Ġbro ke
act s
iv als
Ġg al
k ing
195 2
aut o
194 9
ly ph
Ġide al
ĠMag azine
gr id
_ ;
Ġw at
ze ch
ri or
Ġby te
Ġch air
Su pport
el i
Arg s
w ait
Ġaccom mod
ĠC ru
25 6
m argin
ĠTrans port
W riter
Ġcr imes
se ason
ro g
H L
Ġ ),
Ġcl uster
Ġm ob
bour ne
ĠT y
ĠE ric
ĠS O
un es
by te
ĠThe orem
Ġsent ence
Ġhon est
X ml
Ġen emy
M ock
b ell
ĠO cean
Ġclos er
ĠC ulture
Ġemot ional
Ġst ores
ĠI T
Ġsche dule
Ġv o
ĠJ ordan
Care er
sq l
Ġbo ost
ĠE s
Ġfav our
Ġn ice
i ations
Ġtell ing
Ġfr anch
Ġke ys
Ġv on
ten ance
Ġappear ances
Arg ument
Ġsign s
Ġcap able
te ction
Ġintrodu ction
ĠS ab
Dis play
ĠSing apore
Ġs ounds
ĠL iter
) "
Ġob lig
AAAA AAAA
Ġpract ical
ĠCom put
K ind
Ġindic ate
ER S
E very
Ġcy cl
Ġde ploy
1 30
} ]
Ġcon ven
SS ERT
Ġprom pt
ĠInd ex
Ġbrother s
Ġ ri
Ġw a
Ġad min
ĠD igital
} +
Ġparticip ation
ang ers
Ġdefe at
Ġjav ax
An other
ab ama
D elete
ul ating
Ġfor g
Act ivity
Ġqual ified
iam i
ĠC reek
ĠI l
Ġar med
ro it
ach ment
Ġcont est
ĠA S
Ġinnov ation
est ion
ĠN ative
ib li
is ition
Ġso ft
Ġacc eler
Ġli qu
Ġcontinu ing
195 3
Ġt or
Ġpromot ed
non umber
Back ground
Ġb atter
Ġ& =
ut enant
Ġ+ +
ĠN AS
Ġmod ified
ĠN ick
Ġbut ton
ynam ic
ail ing
Ġvisit ors
Ã¡ n
ĠN umber
Ġuns igned
oc ity
Ġg ap
ĠH o
ĠMiss ouri
% %
ĠSh ort
ĠH ind
ĠComm un
Ġgr id
ĠL es
lem ma
we alth
Ġparticip ated
Ġtal ent
D el
ĠD er
be an
il ty
Ġsp an
bl ack
Ġser ial
anche ster
ĠCl inton
Ġc ategories
t oggle
Dav id
v ing
ut s
Ġdet ect
ĠL abour
ĠU RL
ĠN E
Ġro yal
an z
Ġc inem
ĠA P
S outh
ĠIndian a
c ers
7 00
ĠB rian
y ard
L P
re ens
Ġinv ited
et ies
if ts
k g
Ġgu est
reg ion
ĠT ask
ĠGr ant
Ġse ats
T ab
item s
bo olean
av or
l ah
Ġpre gn
Ġmom ents
Ġopp on
T ube
Ġcent uries
="../../ ../
Ġill ness
ĠI owa
tain ment
Ġlist ing
Ġc ounsel
Ġsustain able
Ġacknow led
f ire
ĠA mb
ĠS ri
Ġdynam ic
ĠN orm
Ġmunic ipal
Ġcan cell
ĠN ig
Ġboy s
olog ists
Ġestablish ment
Ġfind ings
iam ond
Ġexpl ains
ĠBuild ing
B est
Ġjud gment
Ġaccord ance
Ġrank ed
Ġin line
ĠMex ican
Ġcomp ris
ĠLe on
Ġsym met
Ass oci
Ġexc ited
ĠAnd erson
Ġ' /
ĠJ enn
Ġm sg
th m
By te
195 1
Ġrequest ed
Ġv el
ed it
a ired
pl us
cre en
Ġt ack
Ġexpl o
By tes
Ġra cial
Ġcompl iance
ĠM icrosoft
ound ed
Ġne ither
Ar ch
ĠN a
ĠCh ange
app oint
") ]
St orage
ile y
Ġin hab
Ġo k
Ġra ces
ĠC as
se ud
Bo olean
F S
Ġinter action
12 5
Ġaff ili
Ġatt ributes
ĠT reat
Ed itor
Ġg ift
Ġsim pl
ĠS E
igh th
Ġcon vent
g i
A p
ĠSe ason
Ġby tes
Ġ âĢĻ
A pi
ĠB alt
Ġsubject s
ĠAtt orney
Ġaw ait
ĠHar vard
Ġexec ution
ĠB ureau
` ,
Ġann iversary
ĠB ible
Ġint ellectual
P ool
Ã£ o
ĠR aj
Ġnov els
ĠEr ror
b rowser
Ġext end
FA ULT
H igh
Ġenc ounter
S end
ĠHar ris
HE CK
Ġregular ly
ĠPh ot
l ay
Ġthe atre
anc ell
ĠH as
point s
Ġcon clusion
12 8
ĠRet urn
b uf
ĠR yan
Ġtru ck
ob by
Ġconstit u
ĠN ext
ĠP ot
per or
ĠP it
Ġ$ {
ĠPe ace
im pl
Ġwork er
Ġstrateg ies
fol io
Ġre ct
Act ive
et ary
; /
ik ip
Ġtown s
ĠSt adium
Field s
TE ST
Ġst ake
m i
the w
pen ame
iÄ ĩ
Ġb ands
Ġad mitted
iv ated
ĠC ustom
ĠL ook
el and
Ġconclud ed
) /
ĠF ollowing
ĠB at
Ġhor se
ru ctions
A v
ĠKenn edy
Ġst able
ĠT ony
\ {
ĠT ax
sc r
ell i
Ġper mission
ĠT erm
B E
Ġnarr ative
Ġsu it
Ġhapp ening
ĠAr thur
Ġprior ity
Ġdis appe
m ock
Ġh ockey
Ġp apers
A uth
Ġdist ricts
ĠTr ade
ĠS quare
ĠC urrent
Ġre in
Ġw ins
b en
Ġhealth y
ĠE q
' ))
con nection
ĠL ow
ĠMr s
Ġs we
ab et
B N
Ġsuffer ing
Ch annel
RO M
Ġcont ribute
ok ed
Ġext reme
pass word
ĠA z
Ob j
Ġtrans lation
ĠW inter
Ġch airman
Ġdep ending
Ġgrow n
es ome
Ġmembers hip
Ġres istance
Ġport ray
ĠCl ark
ĠT ennessee
ut ed
is ations
ĠFr ont
] ]
19 36
ĠH ig
w ick
rop ical
u ating
ĠLin coln
Ġfin ance
N etwork
m akers
\ !
Ġ< =
ab il
pos itory
P erm
ĠA D
In ternational
Ġal cohol
Ġm aps
ĠDe ath
M ich
prot obuf
Ġl aid
r ont
Ġem issions
ĠPrem ier
Ġiniti ative
text width
Ġrul ing
Ġra w
Ġc os
Trans action
Ġcontinu ous
ikip edia
Ġen abled
) =\
Ġaut hent
N OT
Ġdesign ated
ĠG h
Ġcl ick
n umer
Ġdef in
j an
Ġp iano
! âĢĿ
st ats
ĠDi ego
Ġpart ial
Ġsympt oms
upload s
ĠV ersion
ĠPh oto
Acc ount
Ġpot entially
Ġentertain ment
19 38
Ġe le
ĠL ank
Ch anged
at ible
P si
Ġindic ates
ĠE mer
Ġnot able
ib l
St ud
Ġcon cerning
}^ \
Ġproced ures
irt ual
Ġsub mitted
Ġst ood
aw are
Ġassum ed
Ġcomprehens ive
w all
Ġprop ag
Ġunder stood
ĠSwed en
ĠD aily
ĠAm ong
Ġobject ive
Ġtax es
ĠS av
Ġt y
ak i
ĠInd ones
ĠMore over
ĠD ead
ĠAuthor ity
ĠK at
Ġd ates
aint iff
Ġprom ise
Ġcompos er
Ġst ret
ĠMos cow
ĠQue ens
Ġm ilit
h u
he rent
Ġattempt ed
Ġland scape
Ġcons ent
F ilms
V ol
ĠS ix
Ġwar ning
Ġmin ute
Ġpres c
S pe
Ġs qu
ik a
x s
Ġk il
Ġvot ed
Ġmat hemat
Ġground s
Ġsomew hat
V ar
Ġprodu cing
ia h
W here
R est
ĠR oll
ĠP ay
Ġt itled
Ġf ought
Ġref ers
Ġm il
ang el
c md
ĠLeg isl
c raft
Ġtop ics
==== ==
ential s
) ).
grad uate
Ġencour age
line ar
ĠCol on
Ġrecomm ended
ĠC ab
ĠG ro
Ġno ise
Ġspirit ual
b oy
Ġh its
By Id
=" @
Ġretire ment
ĠĠĠĠĠĠĠĠĠĠĠĠĠĠĠĠ ĠĠĠĠĠĠĠĠ
Su pp
ĠMar ine
li x
c pp
Ġc raft
ĠI V
S D
Ġold est
Ġdim ension
sh op
ind ent
Ġag ed
R AN
Er r
Sym fony
ownt own
Ġb ow
Ġliber al
rad ius
ĠG a
Ġsubstant ial
ĠSu pp
} =\
Ġden ied
Y PE
Ġrefer ences
O ct
a ire
M eta
Id ent
ĠCh annel
out heast
ĠM ake
ann y
ĠR oss
Ġt on
ĠAll en
f ocus
ĠMark et
Ġn urs
ĠN ev
KE Y
Ġsw im
Ġown ership
Ġphot os
ich ol
. *
s ur
ĠRail way
oy d
osp itals
ot ion
M usic
Ġ" /
Ġthous and
Ġoper ators
ord on
Ġproper ly
Brit ish
Ġreject ed
ĠL ind
ro le
d iction
j query
clos ure
ff ect
rop olitan
A ug
Ġspect rum
Ġinv ent
w ords
he red
ist ical
ĠSt one
Ġeff iciency
Con f
Ġt ab
Ġair port
Ġc le
Ġaware ness
19 00
Ġconf ident
Ġpattern s
Ġcerem ony
P AR
ĠOffic ial
######## ########
over nment
Ġpar agraph
Ġb tn
ĠR oy
Ġindic ated
Ġs itting
Ġus ual
Ġplatform s
L ock
Ġb right
Ġem p
Ã ¢
ĠSim on
ur ric
ĠJan e
OD O
ĠH art
ĠD or
Ġpriv acy
n i
P M
ĠGree ce
Ġwith draw
ron ze
ast y
enn a
ĠAl abama
n one
um in
ĠB att
"> &
her ited
Ġw alls
Ġca using
Ġconsum ers
LO G
ĠUp date
Ġprep are
19 17
z eta
ĠO s
ĠCapt ain
br id
ð Ł
Ġd b
ut t
re tt
Ġpro s
rec ord
Ñ ı
Ġeng age
ĠF uture
ess ed
ĠJ am
ĠBr ig
ĠPl ace
ol ly
F ull
Ġdecl ine
Ġheav ily
cept ions
Ġlo op
t ry
Ġcomp osition
V ideo
) }\
Ġab stract
ĠCh airman
Ed it
ov en
re ements
S ports
Ġdis covery
Ġtransport ation
Ġch ose
all as
Ġpar allel
wit zer
Ġinv alid
Ġabsol utely
Ġcarry ing
Ġtrans formation
Ġcrit ics
HT ML
t ics
elf are
VER SION
ed itor
FI LE
ix el
Ġwel come
Ġatt ached
Ġtem porary
St ar
Ġour selves
Ġwin ners
A g
ĠC opyright
ĠAn thony
Ġbur ied
n ie
Ġinj ured
end or
ĠS a
Ġmain tained
Ġm ine
f ast
Ġguid ance
Ġs and
ĠHe art
l ate
ĠDo ctor
att ribute
W idget
H er
art icle
th read
ĠAr k
arg ument
ĠL eb
ĠMo ore
b ot
Ġh un
Ġchild hood
ĠSc ient
g reen
ist ing
Ġrecogn ize
Ġexp ensive
ĠCon st
ĠT en
rodu ction
inal s
Ġliter ary
o en
Ġinteg er
ĠĠĠ Ċ
ĠOn line
el le
19 37
Ġb ra
h us
Ġex cess
x space
Ġpay ments
ĠD ark
gress ive
ĠPat rick
ĠOrgan ization
ur ers
ĠEnter tainment
, .
Ġco operation
Ġs aved
ipp i
Ġk ick
Ġst ored
Ġinform ed
Ġcopy right
ĠD ream
ĠY et
Aust ral
ĠN ob
Ġgr ade
Gl obal
id ency
ĠE lement
g ments
â Ĩ
l at
witzer land
al g
Ġpoint ed
Gener ic
l ights
Ġthought s
Ġfe es
Ġestim ates
is cal
Ġvoc al
Ġcou pl
18 0
u zz
ex ception
Ġr ising
do i
ĠS oc
Ġc ro
v o
ĠK evin
lah oma
IV E
in line
J SON
Ġvert ical
Ġ{ };
Ġm al
Ġreg istration
ĠPhilipp ines
ĠCon vention
ri ers
Ġpriv ile
Ġdeal ing
Ġg od
Sec urity
Ġh tml
Ġre putation
ne ver
ĠR a
Ġkind s
ĠMount ain
s ave
ĠF ederation
Ġsu ff
ĠJud ge
Ġelig ible
Ġabs ence
ĠV i
Ġcomplet ion
Ġch annels
Ġimm igration
ok ing
Ġfootball er
Ã© e
Ġ Å
Ġcover ing
19 19
G A
Ġdr iven
ĠP ath
12 3
mod ules
Ġaccur ate
Ġb aby
ĠF alse
Ġcomp are
ch or
Ġwe ar
in ction
ĠMar ia
M B
Ġengine er
Ġag greg
cl osed
ĠM iami
Ġleg acy
ĠAcc ount
Ġtarget s
Ġe at
Ġwas te
ĠYou Tube
Que ue
anc el
Ġassert Equals
ĠEd itor
) --
ĠP ut
Ġcons ervative
Ġrel ating
ĠC a
ĠB ah
Ġcompet itive
Ġapparent ly
ch ant
ĠAd vis
h av
ĠPro t
) ^{
ĠR eb
equ ality
19 33
Bl ack
Å Ĥ
ĠB ishop
Ġsk in
Ġfra ud
Ġint ention
ĠF all
ĠM anchester
Ġs now
Ġp y
A nt
M ember
W ell
usal em
Ġw ing
ĠY es
i est
Ġrec over
Ġad m
d y
drop down
Ġconsider ation
Ġtest ed
~~ ~~
oc a
ĠN ever
Ġdist ribut
Ġexpos ure
ĠCast le
Ġmechan ism
Ġcommunic ations
ĠReg ional
Ġmeas ured
u z
Î ±
ĠHow ard
Ġchalleng ing
dom ain
tx t
Ġhousehold s
19 14
Ġturn ing
Ġgu ilty
Ġ( *
] :
Ġbuild er
ĠIm age
Ġg rav
iz z
Ġleg it
GB T
ian g
hor izontal
c us
Ġ ing
ock er
Ġcent ers
el son
W N
C F
Ġdise ases
pr imary
D ay
ĉĉĉ Ċ
Ġprofession als
ĠWindow s
Ġ\ {
Ġap i
ou ter
Ġamount s
Ġsus pect
Ġun us
ĠFor ces
ĠPhil ip
[ :
Ġout standing
bs erv
ĠB O
ev ents
ĠStud ents
Ġlaw su
Ġfr ag
Ġre aching
ish ment
au x
W rit
Ġsett led
hed ral
ĠO ption
ĠM S
m ove
Ġreal ized
Ġnav igation
ĠL ib
ous es
P ORT
ic ut
Ġv ir
r at
Ġunder lying
}_ \
C ast
C am
ĠĠĠĠĠĠĠĠĠĠĠĠĠĠĠĠ ĠĠĠĠĠĠĠĠĠ
Ph oto
ĠPl aces
st an
Comm on
ĠAg reement
Ġdes cent
ĠM it
Ġsm ooth
ĠMem bers
ag g
ul um
sche ma
Ġbe ar
ĠS ite
Ġhe nce
ag u
Ġaff airs
sc roll
Ġexper iments
Ġg ay
19 35
Ġexplan ation
} :
ĠRec ord
Pr int
Ġaccess ible
Ġgen us
Ġprint ed
Ġas sembly
al ion
Ġexperiment al
wide hat
Log ger
ĠP ur
sp ir
Ġdr ivers
ĠP ier
A ng
Ġpublic ly
ab out
Ġir on
Ġrestaur ant
Ġb rowser
u ction
Ġs ad
Ġdec or
P ay
par ser
Ġsurpr ise
b at
ig a
ĠAtl anta
cl ip
Pl ay
ĠS i
Ġmov ements
acc ount
Ġd uties
Ġcollect ive
Ġde pos
Ġautom atically
ot ten
Ġshe l
)) )
ĠJ ava
U ID
ĠA T
Ġf ly
Ġfound ing
H R
in th
ph ony
Ġdis abled
Ġcrit eria
are a
C ond
Ġimpl ies
H ar
Ġcre ates
Ġinteg ration
ĠDef ault
Ġmanag ers
ff ee
Ex ec
iss ippi
Ġmov es
ag en
Ġe lem
ĠReg iment
ĠJ ay
ĠH al
ĠAp pe
Ġconf ront
Will iam
Ġinj uries
Ġwalk ing
Ġse es
Ġexc iting
Ġl ists
ch a
Ġtra v
Ġun iverse
Ġant icip
Ġex it
ĠMan ager
Ġrequire ment
Ġpur s
Ġess entially
p res
off s
Ġf at
ĠTh ird
im ore
def ined
or iginal
Ġl ab
Ġover se
c am
uns igned
( !
ĠH an
Ġs ick
Ġst ages
g it
en umer
X T
Ġmunic ipality
Ġtransl ate
ĠDet roit
, '
Ev ents
pl an
Ġcharacter istics
w estern
Ġr u
f ather
Ġindust ries
Ġ% }
Ġmin im
$ )
Ġsp okes
em ed
ĠKent ucky
ts d
Ġpub lishing
az e
Ġcru cial
Ġres olve
ist ence
el ve
ON E
m ates
U D
iev al
ĠF ather
Ext ension
ĠSar ah
ĠG all
Ġadvert ising
', '
Ġex posed
W est
ĠF unction
Ġval uable
Ġloss es
Ġreg ulation
19 34
Ĥ ¬
Ġexpl os
Ġd ry
cd ots
Ġfac es
Ġp ictures
form s
Ġform ula
ĠR ow
key word
}) \
ĠChrist ians
ĠKel ly
d on
Ġtrans actions
ene z
Ġt ail
eg et
Ġlist ening
Ġnom inated
ott ed
ĠTok yo
Ġch urches
Ġeval uation
L eg
ĠChe m
gl as
ĠHer itage
Ġs ons
ĠT rib
ĠW atch
iz able
er on
Ġr ig
dim ensional
ĠC reat
ul ator
Ġprem ier
Ġmiss ed
Ġtrad ing
w ild
G raph
Ġwonder ful
19 29
ĠPolit ical
Ġinteg rated
u v
ĠB arn
Ġcompens ation
à ¸
eg as
M atch
ĠA thlet
ĠS ource
Ġcolle agues
Ã ¸
ĠRepublic ans
C ap
ig ate
ĠG rad
Ġres erved
Ġd a
ï ¼
Ġdest ination
ĠMal ays
MA X
ĠHaw ai
ĠF a
ĠB ab
Ġequ ity
en ess
Ġconvert ed
Ġinnov ative
ĠJ oh
Ġapp lies
f red
ac ro
ĠHot el
r ons
t wo
Ġl abour
M OD
Ġs pl
w eg
result s
» ¿
Ġcr ash
ĠIm m
Ġviol ent
Ġserious ly
en abled
Time out
ĠC zech
Ġcirc le
un ior
Window s
Ġpop ulations
P ER
Ġillust r
Ġben ch
Ġshe ll
ĠS audi
Ġne uro
Ġobvious ly
ĠRes p
J u
Ġv ital
ĠS ound
ap olis
ang ular
ass ador
ĠMe an
J ava
ĠEx p
h att
Ġsk y
and o
ï »¿
Ġpublic ations
it ure
ĠG ib
Direct ory
ĠV ideo
arg o
ĠPro cess
Ġra cing
//////////////// ////////////////
ĠJac ob
wh o
rit ical
Ġpay ing
Ġa ims
Go ogle
Ġenh ance
L IC
I X
m aker
ĠB ry
ap el
E uro
ĠPro tection
S cope
Ġdeep ly
Ġaddress es
Ġpoet ry
ĠSystem s
ut f
Ġelectric ity
ĠN ic
F iles
Ġthe rapy
L ook
ĠSur vey
iv acy
ĠM un
Ġrad ical
ĠG ard
Ġsurg ery
an im
Ġfranch ise
Ġsu icide
_ ,
onym ous
Ġcon scious
V E
ic ious
ĠG il
Ġl ib
ĠP ract
Ġt ough
Ġsit uations
ĠP RO
ĠMed al
S pace
au ge
Ġinst ruct
er en
ost ic
th a
Ġs ending
w ig
Desc riptor
Ġbig ger
Ġfor get
ĠC ook
Ġstudy ing
B P
Ġreal ize
ĠPalestin ian
en z
Ġ ×
in v
Ġinvolv es
Ġhor ror
ĠArch itect
d x
mon th
Ġequ ality
In ternal
Ġappoint ment
J ames
ific ial
! "
() {
Ġcons ervation
Pol it
Ġimag ine
R R
Se lected
ĠF ull
f ix
ch annel
Ġthe ore
ĠW olf
y cl
Ġdiscrim ination
ĠAss istant
Ġmagn etic
Ġhop es
Ġinstance of
Ġfoc uses
Ġpenal ty
Ġal ive
ĠCommon wealth
ĠM oon
ĠP lease
inc ial
Ġsur ve
d am
secut ive
Ġocc as
Ġobserv ations
ĠAl bert
Ġregard ed
ĠA I
web pack
S y
Ġsing ing
ater al
the less
@ "
ĠH it
ang a
Ġprovid ers
ĠJer usalem
Ġse ed
) ),
ell ite
Ġm it
Ġs av
Ġrapid ly
ĠAn ne
sh ape
Ġf aster
Ġshort ly
Ġcritic ism
ĠL as
Ġdraw ing
ç ļ
rib le
Ġconsum ption
ant e
ĠSwed ish
ĠO ak
all oc
T ABLE
ag h
ĠFin ance
Ġsc oring
ather ine
20 23
Ġexecut ed
qu es
Ġbeaut y
i Ã³n
iss ue
Ġinflu enced
ĠN ation
Ġra in
Ġmod er
Ġsub section
Ġun em
int end
Ġsol ve
ĠEar ly
on na
Ġr ational
Ġrough ly
ĠCont in
Fe ature
er k
ul us
Ġr uled
ĠUn it
t ip
as m
ĠC ond
ĠP ope
Ġre pro
A f
ign ment
Ġher itage
Ã º
ĠH op
Ġdo ctors
Ġout come
U LE
ĠF A
Ġ' '
Ex pr
ĠSe ver
Ġjuris diction
Ġsurpr ising
od ox
and al
ĠD NA
Ġr id
cont roller
ĠCh all
Fl oat
Ġg ene
Ġinst ant
ĠTem ple
Ġpro secut
ĠCol omb
ĠS witzerland
M sg
Mat rix
Ġrepresent atives
ĠDe an
Ġhead s
sem ble
Iter ator
Ġev il
l g
}^{ (
ĠT R
Ġro of
Ġinterpret ation
Ġpro spect
Ġvulner able
Ġp ione
al so
Ġjud ges
oc aml
Ġorgan isation
ado op
ĠD ick
s uch
Ġanim ation
Ġsch olars
ĠYear s
Î ¿
Ġcompet e
ĠSchool s
i op
Ġw aters
tern oon
ast s
ĠAll iance
li est
ep ing
ul er
Ġadd s
Ġmed ian
In s
çļ Ħ
N C
ac ent
Ġclass ification
O wn
e ctions
y ou
Ġstru ck
G R
Ġtechn ique
os itory
as p
claim ed
ĠNig eria
J ob
Ġarg ue
Ġm arg
ĠC art
Ġabs or
Ġsecret ary
W omen
Ġpromot ion
Ġoption al
Ġassoci ate
F in
Ġbehavi our
Ġbo at
ĠBe at
ock s
que ue
d oor
Ġ( -
ĠM s
omet imes
Ġoccup ied
It ems
Ġste el
h s
n etwork
pro perties
l ad
P anel
Ġs in
Ġpass es
O h
ĠRes ult
M c
Ġh a
Ġperiod s
Ġmain tenance
Ġpet ition
T erm
ĠD ocument
ĠOk lahoma
I MP
Ġhead quarters
S ch
ĠRel ations
Ġtri als
Ġimprov ement
config uration
Re port
E ven
ĠY outh
ult ane
ech o
o a
Ġf olk
Ġt all
es ides
Ġtrans mission
ĠL anguage
Ġus age
Ġ[ ];
ĠC S
P D
w ich
ĠP y
Ð ´
Ġelect ron
ĠE ss
Ġ ..
H ER
Ġcolumn s
Ġent ries
Ġexp at
1 17
s is
op l
k w
Ġencour aged
Ġintrodu ce
ĠS ud
z one
fl ags
Ġsupport ers
() ));
S ervices
P ATH
Ġagric ultural
or ia
Ġf irms
che ll
or ient
Ġd uration
B rowser
T oday
Ġj azz
* )
Ġly rics
ard o
aw ay
Ġequ ations
Ġb in
Ġatmosp here
w ill
Ġinvolv ement
app er
= -
Ġtalk ed
Ġsix th
ĠB ox
Ġattack ed
Ġt ight
19 28
Ġ= ========
ty ped
ĠPar am
Ġpurs ue
G ame
Ġanc est
ĠR oute
ĠSk y
}} (
est ab
d ers
ĠCent ury
Ġth ick
19 10
Pro file
Ġt act
Ġsub t
ĠRober ts
os l
Ġmer ely
Ġconstitution al
Ġunivers al
Ġac id
19 32
ĠWh it
Ġvari ant
ĠAm endment
ĠRepresent atives
Ġinst ances
be ing
for ward
Ġeng agement
ĠCh air
ĠMay or
ele gate
Ġd ataset
Ġen v
ĠE ver
level and
is en
L at
ot te
) ">
Ġpost s
Ġl ift
m ont
Ġprote in
im it
ĠP A
Ġfl u
Ġprot ests
D ouble
Ġpar ish
F ollowing
IT E
Ġpres ents
Ġhand ler
ĠE c
ĠPro p
ĠB uck
", "
ert o
ĠBow l
ĠE P
ĠV AL
ĠPh D
ĠH ug
Ġt ort
Load er
ĠN av
cont rib
} '
Ġaccur acy
b urn
Ġ io
ĠF inally
add r
NavBar Cell
ĠConnect icut
Ġqu iet
ex ternal
Ġmanag ing
A ud
Ã© s
S eg
ĠG ab
assert Equal
win ning
ĠRes erve
unn el
Ġvis iting
ĠAg ric
Ġroad s
Ġpresent ation
Cl ose
ĠSer b
S IZE
Ġmin ing
Ġn ut
Ġbre aking
ĠB os
ĠCov id
Ġf ired
ĠMiss issippi
t ar
Ġent ering
Ġro oms
uc le
Ġresident ial
ĠG ram
Pro xy
Ġcontrol s
se lected
ĠStud ent
con c
Ġg uns
s in
Ġcompet ed
Ġmet ric
II I
} |
Ġm ess
Ġres idence
Ġland s
ĠEx pl
Ġsc r
Ġprison ers
M arch
! [
ĠF ri
ĠEnvironment al
Ġaim ed
ax is
ĠO N
ĠC ape
Ġjournal ists
ĠRes ources
Ġr ating
ĠDep uty
() ).
Ġregard less
th rows
Ġdis pl
Det ails
ĠH ans
ĠAr g
b led
ĠCl in
Ġexpert ise
h y
ĠP R
Ġenc oding
Ġtem por
Ġs ight
Ġsu p
us cript
Ġab road
ĠSe attle
man ager
e a
ĠK han
e lect
ĠD ur
S em
Ġâ Ĩ
Ġfl o
Ġcom ic
ĠP C
Ġproceed ings
ĠMor gan
re port
ĠT rad
Trans form
Ġl ots
m al
e ach
Ġgen re
ĠUt ah
Ġdemonstr ated
Ġaccom pan
Ġdis appoint
19 31
ro c
Ġl ayout
Pro p
Fl ags
P aul
ĠPh ill
as i
Ġlaw yers
ĠF OR
olv ing
In v
in cess
R ober
ĠFurther more
Ġmy th
Ġ[ [
Ġpaint ings
n orm
Ġf ol
B as
Ġstar ring
al ia
B it
pen se
ĠM O
Ġimprov ing
Ġo vers
ĠSp irit
Don ald
ograph ical
ĠD ave
)) );
Ġwhere as
ĠFred er
ail ability
N orth
ĉ ĠĠĠĠĠ
Ġcon secutive
) |
ĠTurk ish
Ad apter
op les
Ġj ury
ĠV in
{ (
Ġst im
ĠStud y
M iss
Ġdest ruction
Ġregul atory
medi ate
ĠWal ter
ble m
log ger
Ġcont roller
type of
nov ation
sh ift
ĠBar on
Ġy ellow
Ġro se
Ġsurv ived
Ġf unc
ĠTh ough
Ġclos ing
W R
st able
Ġredu cing
Ġmay or
ĠCh apter
ĠL android
play er
En ter
Ġ" "
tool s
Ġthe ater
ĠAust in
bar a
Run time
f all
Ġgal ax
}\ \
IN D
Ġsc ores
} </
ad ian
Ġf lying
Ġg ang
Ġcollection s
l ades
Ġth reshold
New s
Select or
ĠK al
pro to
du ce
Ġst ability
Ġaddress ed
ĠN atural
ell s
q quad
ĠSo ftware
ĠH MS
Des pite
ct ic
Ġpe er
re le
ĠF ame
ffic ial
S ymbol
Ġw rest
w hen
assert Equals
To String
ĠC op
ĠMc K
ĠTai wan
Ġre ven
Ġign ore
Ġinst ruction
Ġfem in
z h
Ġto wer
ĠRes ource
ĠPri or
ĠLem ma
s burg
Ġdefend ant
Ġwe aring
ĠMel bourne
Ġtrou ble
Ġset up
Ġcalc ulated
he im
Ġpick ed
Ñ Į
. __
ĠN BA
ot ing
19 22
sc ribe
ĠC rim
Ġal ert
Ġup coming
f i
Pl ugin
dis c
we ek
Ġre ward
o op
ĠS C
roll ing
B M
sec ution
_ ->
i ac
Ġcert ificate
Ġm outh
ester day
t otal
ĠK a
19 15
ation ally
ip her
weg ian
ĠSt ew
b its
ibr aries
pr ison
Ġc ards
Su ccess
Ġmatch ing
struct or
Ġ& \
Ġinterview s
nav List
ĠNor way
Ġdynam ics
Ġcan cel
, âĢĻ
Ph il
end ers
ver e
dep th
ĠN aval
Ġh ired
Ġd ire
ourn als
Pat tern
ĠSch olar
d p
h idden
ĠS earch
Ġfarm ers
Ġc ited
Ġdocument ation
Ġinstr uments
Cl uster
Ġst ead
Ġmusic ian
T otal
ĠW y
Ġfall s
ĠLaw rence
Ġout break
Ġgen etic
L ife
Ġup dates
Ġcontract s
Ġinter ior
F ind
Ġph arm
Ġrep orter
Ġcho ices
if iers
I mp
ĠG er
L ike
IG HT
li br
il st
t ic
Ġart istic
Ġord inary
Ġsepar ated
Ġelse where
Mich ael
t ons
^ +
Ġ( _
Sc ale
tab s
ink ing
âĢĿ )
Ġdet ection
ch ain
ĠK y
w hel
ĠG ulf
19 21
Ġminor ity
Ġh ospitals
ĠN ichol
p red
c b
Ġw ire
Ġin equality
Ġdem ands
Ġathlet es
ĠT el
UT F
ĠD allas
Ġhol iday
ĠP as
Ð ²
ĠW as
eff ect
ad i
S ER
igr ant
O M
Ġphys ics
Ġorgan isations
F ix
Ġtem ple
Ġout comes
Ġimplement s
Ġn g
Ġfair ly
19 27
ĠChrist opher
lim it
prov ider
Ġsac r
Ġabandon ed
lik ely
se a
al ar
n eg
................ ................
ail ure
z ero
Ġsu itable
Ġa xis
Ġde put
Ġdep ict
ist a
Ġview ed
IP T
1 15
ĠRef orm
ĠStand ard
Ġmark s
R T
Ġf urn
p read
ĠLouis iana
Ġy es
Ġ$ (\
Ġfund ed
19 16
Ġdiscuss ions
ĠDom in
A E
r ame
ĠF reedom
S pan
old ing
Ġco aches
Ġden ote
part y
Ġarr ival
ul ous
U K
J une
ĠLa ure
th rough
Ġoff ensive
ĠĠĠĠĠĠĠĠĠĠĠĠĠĠĠĠ ĠĠĠĠĠĠ
ateg or
ord inary
s ince
R ich
comp iler
Ġro ots
ĠR ick
Ġd ress
ort heast
Pres ident
Ġdemonstr ate
ĠSil ver
app ly
Ġsub stit
h adoop
Ġang le
anc hes
ij ing
Ġknow ing
oper at
'] )
e enth
Ġaf ternoon
Ġgener ations
Ġent ities
get Element
eral d
ĠSt ill
Ġcon crete
Ġimp ressive
is ode
Ġiniti atives
Ġad equ
Ġsucceed ed
ĠWalk er
Ġdialog ue
Ġfew er
th row
19 24
Ġmonitor ing
19 25
Y es
ĠAb b
ĠRuss ell
Ġass et
Ġpro xy
ĠCon fig
= >
Ġas ync
Wh o
Ġcelebr ated
Ġco e
ĠPr ivate
math scr
Ġthreat s
ĠPro perty
VAL UE
B el
ĠR oc
om er
Ġsupp lement
Ġinf ection
ind ed
ï¿½ ï¿½
Ġexpect ations
Ġf n
Ġdem ocratic
Ġsurv ive
ĠP ack
Ġeduc ated
u pp
Eng ine
it ative
ac on
& =
ides pread
++ ;
Person al
ĠD un
Ġpod cast
$ /
it ol
Ġcapt ain
ĠY eah
Ġdiv or
On ce
ĠAust ria
Ġacqu isition
ĠR ab
s a
Ġr ival
D atabase
Ġimm igrants
col Last
Ġvill ages
D uration
ĠG ordon
Ġat tr
Ġrespons es
ĠUs ing
RE AD
Ġemer ging
Ġhas n
ĠL A
Ġemploy er
F R
Ġd ual
gorith ms
h ide
Ġp itch
ĠM ission
B B
ĠS port
ĠMuslim s
M apping
Ä į
ĠD ak
Ġsub mit
ĠHistor ical
. ~
t or
Ġent hus
ĠAnd roid
Ġrespect ive
ill ery
ĠAl an
ĠTra ining
Ġfl ags
Ġdis order
f lix
A pril
U SE
prot ected
ĠMc G
Prot ocol
ĠE ag
ĠPolit ics
ĠM essage
ce ive
A CT
ĠF arm
Ġb inary
r ish
ĠB or
ĠMat thew
d ialog
Ġpl enty
const ruction
Ġlimit ations
ĠL GBT
le ans
Ġperson ality
S ur
Ġincred ible
op ol
Ġtrans parent
ĠAd ams
Ġinvestig ate
Ġp airs
clud e
Ġg iant
ĠInd ependent
1 12
ĠLank a
Ġliqu id
Ġweek ly
Ġal gebra
] $
Ġprodu cers
r uby
ab ric
Ġsupp lies
Ġinvest ments
Sh ort
p icker
ĠJ ason
ĠS quad
ĠBrook lyn
em en
orn ame
raz y
C ategory
atur ally
ev e
ĠB an
ĠCh amber
Ġlegisl ative
or ous
Ġlabel s
ĠRef er
C ent
ĠÂ ©
Ġannounce ment
ĠVill age
Ġin aug
m c
">< !--
F eb
s ymbol
Ab stract
Ġt ied
Ġcelebr ate
ĠP ed
ter y
ĠDou glas
ĠN eed
appro x
Ġso il
ĠI E
ts burgh
J apan
ic he
is ely
Ġ> >
th odox
Ġmen u
enez uel
Ġcont ents
X ML
Ġbu nd
ĠHigh way
in burgh
Ġcommand er
Ġ ur
print f
Ġl es
app y
Ġdisplay ed
Ġxml ns
Ġwhe el
iss ance
19 12
Ġpass word
met adata
=" $
ĠS in
19 26
Ġra ising
import ant
ĠT ODO
Ġcur ve
head ers
Ġr ide
pl atform
Ġex clusive
ĠJ osh
ĠB h
Ġbas ically
let ion
p ur
Ġentr ance
G rid
operat orname
col First
es is
ĠSen ator
Ġc atalog
ram a
ou st
ĠM D
Ġcor ruption
od ge
hand ler
ĠBalt imore
le tt
N T
ort ed
f are
nt il
ĠAr men
Ġcon j
Ġsim ultane
ĠG arden
Con n
ĠO sc
Ġa ver
s ch
Ġo cean
ĠCl imate
sw itch
. -
An not
j amin
Ġtot ally
C M
ĠB it
J S
est yle
Ġrecommend ations
Ġdis ag
Label s
ĠC ore
Ġphotograph s
n il
Ġpri ze
ĠL uther
com plete
Ġsy nd
i ors
Ġcol our
Ġdevelop ments
ĠM as
iter ator
Ġactiv ists
ch art
ĠF ive
all ow
con n
ĠCo oper
Ġd ies
Ġag reements
D est
ĠCh ile
L I
Ġmag ic
Ġcomp act
Ġcol leges
Pro duct
Ġpartic les
Al so
ĠSam uel
Ġstring s
on z
âĢ ĭ
are st
view s
l u
id x
Ġast ron
S Y
Ġn am
Ġa er
j ud
w as
on om
Ġfr ust
Mem ory
M er
Ġ{ '
lic t
Ġg ate
ĠD VD
Ġm ail
Ġdo i
ĠCirc uit
ag ic
Ġpat ent
Ġconsider able
ch anged
Ġhead ed
aught ers
ĠTe ch
Not Null
ĠP rom
) +
ĠB E
Ġre q
LE CT
Ġsign ing
= (
Ġgover ning
ĠRe act
Ġnot ion
Ġ= ======
Ġco q
h ire
ig e
Ġst yles
Ġf iscal
Ġevery body
Ġag es
h our
Ġinter actions
Ġthe ories
aj ax
Ġconstra ints
ĠArch ived
Ġpl ate
Ġany where
om ot
Ġthem es
Ġg arden
i ology
Ġsignific ance
G erman
14 0
ĠM other
." );
Ġt ou
Aug ust
Ġconcent ration
Jan uary
ĠHon or
n est
ear ing
33 33
iver pool
mir al
P ack
Ġfall ing
ĠC ra
ĠAdd itionally
19 23
Ġcomplic ated
Ġhand ling
Ġj oy
all classes
Ġemer ged
ĠP a
En um
Ġreplace ment
F IG
tr igger
rupt ed
Ju ly
Ġpromot ing
Ġex ports
Ġinv asion
am az
ĠT ag
} +\
Ġde als
Ph one
at ial
Ġfunction al
ĠEx change
Ġk it
ĠSm all
Ġme ets
ĠF le
Ġcon fer
Ġdeb ug
Ġv eget
Ġequ ally
Ġformer ly
12 7
Ġl oyal
in ces
Ġlow est
it is
r ays
Ġw eren
Ġstay ed
Ġcorpor ation
ĠEconom ics
k h
Ġrec ru
Ġgr ass
Ġsoc cer
Ġinter act
ĠD id
ĠCommission er
z y
F ree
on omy
Ġunus ual
R oute
Ġhuman ity
Ġcoll apse
Su per
Ġs ampl
coll apse
ĠAnn ual
cy cl
" `
ĠP O
Ġb id
v ia
Ġvers us
d one
Ġgreat ly
O UT
Ġdr ag
ĠOr iginal
~ $
ro ck
own er
Ġpass engers
ĠN ode
Ġcolon ial
ĠBru ce
B re
ĠThom pson
ĠIm ages
ym n
Ġ$ .
ĠH IV
Ġscen ario
Ġre named
in ch
Ġt ries
Ġapp end
Ġperson ally
aps ed
ĠN AME
Ġw idespread
Ġver ify
10 5
ĠBl ock
at hered
ĠM ess
Ġhistor ian
ã Ģ
ĠC ow
ĠN ature
ug g
ĠB eng
ĠInd eed
ari ant
m aven
com ponents
h l
B AR
l arge
ST AT
ot on
M s
å ı
Ġ Ø
Ġman ip
ĠSim ilar
Ġtra ins
Ġinhab it
t mp
Ġbelief s
ik h
Ġfem ales
at on
ĠTh ank
Ġthreat ened
ĠAnd re
ĠOr chestra
Ġfeel ings
Fig ure
ĠP ear
Att ributes
l ayer
P i
Ġt urb
[ $
Ġpass age
Ġcap abilities
Ġposs ession
v s
S ummary
. ),
Ġper mit
s quare
Ġ ],
u ates
cd n
nt ax
Ġf ault
Ġstrong er
Ġse ctors
ĠLeb an
ĠSaf ety
typed ef
Ġpol ar
9 00
Aut o
w en
ĠH oll
op es
get Name
ĠL ab
à ¥
Ġviol ation
Ã¼ r
ĠEd ition
Ġdis aster
look ing
Ġh ate
ul p
math sf
Child ren
Associ ation
oun ced
Ġrespond ed
ĠApp lication
Ġgl ob
ĠMar shall
ĠV egas
Ġtra ce
Ġcitiz en
N ULL
bl ue
i ere
Ġfail s
Ġfoc using
iv a
ro ph
ĠH ope
ĠRes ponse
De cember
O pt
ĠW right
Ġnegot iations
quir y
pro ps
om as
ĠM and
ic ing
Ġres erve
D an
-------- ----
Ġdecl ined
ĠR ace
ĠJ os
eli hood
Ġinter vention
Ġtransl ated
Ġconstant ly
ĠBase ball
ĠW AR
F ailed
Reg ister
Ġpartic le
Ġwindow s
Ð ¼
Ġdesign s
im m
Ġconcept s
Ġw ider
Ġp ushed
Ġh at
Ġre plic
fil ename
ra pped
Ġc ref
Sc roll
Ġl ake
ex ists
omet ric
Ġte ch
Ġtouch down
is an
ĠS ac
Ġl ayers
Ġb on
Ġover whel
Ġloc ally
Ġtype of
Us ers
; )
ĠFrank lin
cuss ion
Ġthrow n
ĠG ets
ĠJun ior
cont ains
ĠBr un
ĠS S
Ġpath s
build er
Ġel der
Ġgr ants
ĠC leveland
Char acter
Ġco oper
Ġansw ers
ĠTre as
Ġput s
Ġinteg ral
Ġaccompan ied
Ġcon version
ĠOr leans
ĠS ep
am an
Ġwor ry
ues e
op ed
Ġder iv
10 2
ĠH ills
Ġconsist ing
Ġlog ic
ĠCr ime
ĠBang lades
ĠAn alysis
ĠAnton io
Ġin clusion
Ġb irds
ĠZ h
S QL
Ñ ĭ
Ġed ited
s ol
Ġweap on
Ke ys
i ative
19 13
ĠC emetery
ĠTele vision
ib bean
Ġw ond
Ġrefuge es
ac cept
Ġdes ired
il iation
Trans port
Ġim prison
ne q
det ail
Ġmoment um
Ġre ign
osp el
edd ed
ĠB eck
( __
Ġsurv iv
Ġper mitted
Ġoper ational
B L
de cl
Ġd owntown
Ġexec ute
Ġentreprene ur
ĠS el
res et
or er
ĠLeg al
Pro fess
ÃŃ a
az y
Ġliter ally
Ġde emed
not es
ĠS ex
T ele
Ġobserv ation
Ġcond em
ub ble
Ġc ov
Ġnorm ally
et he
Ġguid elines
Ġacc um
init ial
ĠCommunic ations
AD D
ĠĠĠĠĠĠĠĠĠĠĠĠĠĠĠĠ ĠĠĠĠĠĠĠĠĠĠĠĠ
Ġd at
ĠPro duct
or se
Euro pe
: \
Ġfeed back
Ġdef ensive
clus ions
Ġcommission ed
Ġoper ates
Ġreve als
F rench
st al
H P
ĠF er
Ġexp enses
Init ial
r in
ap ing
ĠAb d
Ġli ability
m oz
RE S
Com ment
w rapper
l on
ust ers
F amily
Ġ ip
Ġag enda
Ġcompl aint
Ġcy ber
Ġ" ,
Ġm apping
Ġvacc ines
ĠComm ons
Ġrout es
own ed
s ome
Ġh ook
it udes
ĠL am
Ġdepend ent
Ġincorpor ated
ĠY an
ĠK u
Ġchar ity
ri k
Ġpl aintiff
Ġconv icted
ĠChristian ity
b es
Ġr ugby
Ġis lands
serv ices
Ġw ine
ĠH amp
st ory
ĠF ind
Ï Ħ
Rem ove
Ġthe rm
ĠC ole
hatt an
Ġmem orial
Ġto ler
ser ies
Ġp ars
Ġcut s
F ore
Ġas ide
Ġpull ed
item ize
Ġ ).
ĉĉĉĉ ĉĉĉĉĉ
oun ce
Ġcomp ute
Ġlic ensed
sh ared
D iv
O C
Ġassum ption
ĠBe ijing
ĠLim ited
ĠT a
gener ated
Ġwat ched
ill iant
Ġm art
C apt
Ġb are
ĠRob inson
Ġnob le
ook ie
def inition
Ġagric ulture
Ġch a
Ġmin imal
Oct ober
Ġob st
ou ver
19 11
Ġtarget ed
al m
Ġh ole
Ġf ruit
rain ian
Ġkn ock
ĠD ue
ĠPu erto
Ġoper a
Ġprov en
Ġ{ {
ap os
Ġt x
Ġbu ck
_ (
Ġpass enger
C re
ĠA le
ĠSh ould
det ails
param eters
Ġdesign er
Ġfr agment
Ġpopular ity
att ributes
ĠIndust ry
ra ham
Ġre ly
Ġdef ence
ĠM ars
] \
M ut
us ers
Ġprefer red
um ph
AN T
() </
ĠAd vent
p aren
ent le
ĠBet ween
g b
ĠIndones ia
Ġob l
$ _
Ġslow ly
-> _
Ġtest im
Ġcred its
ar o
br and
ors es
Ġdep ression
st ers
ĠB achelor
ev al
Ġchart s
U ST
ĠCar ter
ĠH ash
Par se
v space
Ġsit uated
ĠEd inburgh
Ġpl ain
Pl ayer
ĠRequ est
p air
ĠAl ber
ĠV iol
G C
es ian
ĠM unic
. :
Ġhyp othes
Ġre act
Inst all
sign ature
Ġap artment
Ġcont rad
z ed
set s
Ġbrief ly
Ġw elfare
enumer ate
l ined
Ġbound aries
ĠN ash
ĠV o
ĠBelg ium
by tes
U C
P rior
Ġj unior
Stat ement
og ue
Ġphot ography
ol i
Rep ository
Ġimpact s
work s
log in
ĠH ave
Ġear liest
Ġw orship
Ġign ored
Ġadapt ation
Ġd ating
ĠL iving
Ġbeg un
Ġper pet
Ġarbit rary
Ġstr ange
Ġres ign
iv idual
ĠB ull
Ġs essions
Ġb old
Ġre verse
ĠWork s
Ġphot ographer
un ning
Ġremark able
iss ues
ĠV eter
Ġeval uate
ĠN elson
Ġed ges
He alth
Ġoccup ation
Ġvert ex
Ġcontrovers ial
ĠAl bum
ĠArgent ina
Ġd ir
ack s
Ġop ens
et ween
S M
Ġinflu ential
Ġt ennis
Ġdim ensions
Ġf ishing
Ġapp lying
Col lections
Ġexplicit ly
Ġsc atter
Pl an
V P
Ġdis pute
Ġadmin ister
$ }
Ġf est
ĠH ence
b ing
ic ians
if ting
ĠEx press
Ġcl ock
Hel p
r b
or ious
ict ional
ĠBudd h
ĠT rack
ge on
r ank
Ġim posed
ĠJon athan
Ġj Query
ĠLear ning
ĠK ings
T ax
Ġt ies
< !
ate ur
Ġst adium
p refix
ol t
Ġsurpr ised
Ġuncertain ty
L ayer
} -\
ĠPal ace
ĠB uff
Ġdis ability
F E
Ġmain stream
Ġs oph
S equ
ro oms
ĠMain e
ĠCommun ist
Ġcol ors
ĠM agn
Ġc rypt
BU G
Ġhost s
ust ed
ĠT ake
ĠK az
Ġm ales
as ant
C oll
Ġvel ocity
Ġann ot
iat ric
Ġp refix
10 4
F unc
Ġab ortion
Ġtw elve
ĠStew art
Ġsk ill
Th rough
Ġneigh b
Ġst ating
ĠR ound
Ġactiv ist
h space
t body
AR D
ĠAl b
t w
Ġb ronze
B en
Ġpo inter
}} {\
ĠStud ios
ĠF BI
Ġlo ans
Ġmem ories
ect ors
Ġman uscript
Ġco inc
Ġmet adata
ĠWith out
At tr
viron ments
Ġb orrow
iz on
Ġguarant ee
as hes
c n
Ġsp oken
ĠDo es
wild fly
A gent
Ġposs ess
Ġinsp iration
ĠMed ic
ĠAn na
Ġdram atic
3 50
ĠD rug
Ġemploy ers
ĠĠĠĠĠĠĠĠĠĠĠĠĠĠĠĠĠĠĠĠĠĠĠĠĠĠĠĠĠĠĠĠ ĠĠĠĠĠĠĠĠĠĠĠĠĠĠĠĠĠĠĠĠĠĠĠĠĠĠĠĠĠĠĠĠ
numer us
3 60
numerus form
Ġs ust
t ags
sh adow
ĠNC AA
ibli ography
v ideo
Ġwar rant
the orem
S ocket
" |
f ixed
Ġcur rency
um ps
ĠEar l
Ġg olf
Sim ple
Ġdo ors
ul se
ĠMov ement
og a
olv es
T race
Ġreve al
Ġrestaur ants
Ġfriend ly
m ate
ous ing
ĠB enn
Se ptember
ĠU I
ĠC P
i ot
p icture
ĠB art
ir ates
mult icol
St and
er as
10 3
ĠBill board
ĠLiber al
the me
yn om
yn asty
Ġgen u
O B
ĠD og
F ilm
ol ph
Ġout er
Ġe gg
re v
ĠPub lishing
Ġc rack
ĠOper ation
Ġtrend s
Ġadapt ed
D en
P lease
ĠW orth
B ecause
vious ly
Ġann ually
Ġe ase
Ġman ifest
ev a
Ġauthor ized
am er
g ba
Ġsens itive
H A
S an
mut able
Ġimprov ements
v y
Ġexpat riate
sw arm
ey ond
no indent
ĠWhe ther
Ġque ue
Ġb inding
min us
writ ten
Ġanim ated
ĠDis c
Vari able
fe ature
et ition
F inal
ĠArab ia
M al
on i
oth y
ĠN eg
ĠK ath
ĠPl ayer
Ġre ar
Rober t
Ġcomplex ity
T x
Ġun likely
Ġt ank
ic ity
Em ail
Ġinv olve
ĠMarg aret
Ġcl ar
Ġconstruct or
ĠMov ie
ĠD ise
(' .
in x
Are a
ĠA BC
R ob
multicol umn
ĠV enezuel
\ '
Ġlawsu it
j ango
S ing
as sembly
Ã ¥
Ġrob ust
S ources
iz ers
ĠM ort
Ġmar ine
ass andra
Ġprepar ation
Pass word
Ġl augh
Ġh ide
ut ical
Reg ion
Ġbr ands
j ack
Ġfle et
Ġth irty
Ġdis k
Ġrel ax
Ġneigh bour
Ġbus y
err ors
ĠFor um
Ġh am
S ong
Ġ{ "
11 1
ĠN ag
ell ar
Ġlik ed
Â ©
m ask
Ġobserv e
Nov ember
ĠG ary
ĠIO Exception
am ous
ys ical
IT ION
Ġb orders
B orn
ĠP eters
Ġd ated
Ġtra il
ĠTer rit
c ia
Ġatt ending
Ġdis put
F P
ĠD a
ag ers
it ivity
urric ane
18 90
ache l
E p
PRO JECT
Ġs urn
Ġsub stance
. <
check ed
Ġ" -
C ur
r ating
Ġm o
Ġrece ives
ĠC rown
u y
Ġcut ting
Ġless ons
pan ic
ĠR ule
Ġnam ely
Ġparticip ating
ĠDen mark
ĠSw iss
sv g
Ġtemper atures
Ġf unny
d ale
st age
form ed
Ġcon gress
anc ouver
g ems
Ġs ke
Ġl ang
ĠC redit
Ġmem or
ĠB apt
s ocial
Ġdeterm ination
Ġun con
ĠCamp bell
cos ystem
Ġexam ination
an ia
Ġeconom ics
C RE
Ġdel iber
Ġso vere
ĠSe pt
Ġrank s
A lex
og ram
om ing
d ays
ĠL iverpool
ĠC ensus
t witter
Ġsudden ly
Ġin fer
Ġr um
ĠG iven
it ime
Ġp ref
Ġact ively
Ġresc ue
R ole
Ġarch ae
ĠBrother s
Ġmet ers
Ġlog ger
1 18
ĠW oman
Po inter
h uman
cc a
ĠB ou
Ġconvent ional
AT O
exec ute
ĠT alk
Ġdifficult y
Ġdescrib ing
ed a
{ {\
ĠGra ham
ĠF ried
W rapper
ric ulum
te am
ĠH ell
Ġpres erve
ĠO S
ĠComm ander
ĠMic hel
Y our
Ġp ipeline
Ġthe orem
190 8
spring framework
in ite
Ġemphas is
ĠI ron
Ġdes ert
Ġsatisf ied
Ġhead ers
ĠVol ume
Ġmach ines
ĠN ik
Ġveter an
ĠNaz i
ĠArch ives
ĠEm peror
ef e
prot ocol
ens on
Ġprodu ces
1 16
ĠTown ship
Ġg ross
Ġcal endar
fl ag
Com par
ke e
Ġsize of
ĠMor ris
Ġcirc uit
cond ition
OR Y
ĠF ROM
pre v
erv ing
ĠL com
du cer
Ġbe ach
Ġmeasure ments
S ync
iment al
Ġfl ows
ail and
m ay
Ġfra ction
Î ¹
oen ix
C opyright
Ġdecre ase
Ġf ake
ren a
ĠRog er
Ġjud icial
ĠN eb
qu er
S en
ĠPub lished
ĠPit tsburgh
ĠF il
od a
ĠInd ians
L in
Ġdrink ing
N odes
y g
) }{
ĠD ance
ĠCar ibbean
Ġ ðŁ
Ġb om
Ġto x
build ing
E st
Res ources
Con stra
Ġb rown
Ġm eta
Ġadj acent
Ġinter val
Ġterror ist
Ġwalk ed
ĠL ang
apt ers
Form er
Ġalleg ations
res ources
Ġbi ological
Ù Ħ
ĠMan hattan
y ll
Ġf oss
ow ski
Ġexp ed
UR I
ĠPat ri
Ġdom inant
Ġsubs idi
ĠIran ian
ĠHT TP
ĠP ast
Ġreported ly
b us
Ġ" <
Ġexist ed
list ed
ĠInt elligence
St op
=" ${
Ġbre ath
ĠDel hi
Ġbirth day
Se lection
ĠK am
Ġlif etime
av el
x html
Ã ł
ĠB Y
á ĥ
( {\
Ġgovern ance
Ġcl im
ĠOper ations
t ains
ĠArk ansas
n ia
ĠChar lie
it eral
t i
Ġscholar ship
Ġpri est
ĠHung ary
}\ ,
S ingle
ĠĠĠĠĠĠĠĠĠĠĠĠĠĠĠĠĠĠĠĠĠĠĠĠĠĠĠĠĠĠĠĠ ĠĠĠĠĠĠĠĠĠĠĠ
Ġthink s
Ġen orm
ĠSy rian
Ġestablish ing
Ġmonth ly
text tt
Ġ? >
Ġdev ast
M ake
Ġmeasure ment
Ġtext s
H on
Ġmain taining
/ _
h alf
Ġpub lish
Ġamong st
Ġdist urb
form er
oc ese
f d
v ised
ex pect
ĠMalays ia
ĠB aker
Ġind igenous
) }$
ĠC ancer
Ġu i
Ġrestrict ed
iffer ent
user name
om ent
Ġins ight
Ġrecip ient
ĠDub lin
Cl oud
g ood
b est
amp s
bor ough
Ġread s
rou s
V M
ĠC ultural
M ill
red ited
? >
Ġrele ases
Ġsurv ival
Ġdevelop ers
Ġsurround ed
Head ers
ĠPl ant
Ġanal yst
Ġdet er
TI ME
op ter
Ġcult ures
Ġess ay
Ġun w
ace utical
ĠL ic
Ġaud iences
Ġpain ter
r andom
Ġens uring
riev e
Ġproport ion
ĠM L
Ġvo ices
Ġneut ral
Ġc ust
ĠBanglades h
ed ing
ud a
ĠĠĠĠĠĠĠĠĠĠĠĠĠĠĠĠ ĠĠĠĠĠĠĠĠĠĠ
ĠS n
Ġin fl
ĠDe cl
ĠMay be
Ġal gorithms
Ġcare fully
Ġlist ener
Ġto m
Ġas c
Ġj ail
Ġbl ow
L INE
col on
AL SE
Ġclass ified
Ġfant asy
c ases
Ġtick et
d iff
ĠMor oc
ac re
ier archy
ĠR u
Im port
z o
ĠH ttp
ĠCl oud
Ġclaim ing
M ath
s pecial
ĠOper a
ĠW ard
Ġt um
Ġnewsp apers
b rief
Ġco ffee
Ġcon vention
Ġev ident
umm y
Gener ator
ist r
im ated
Ġt ur
or ry
ĠP ap
ĠPortug al
Ġopt imal
ĠQue bec
ane an
Pub lished
ig ion
Ġp seud
ĠĠĠĠĠĠĠĠĠĠĠĠĠĠĠĠ Ċ
N G
PO ST
ra id
Ġen act
cle an
per t
ĠGirl s
irm ingham
j unit
Ġcomp lement
Ġatt itude
Ġm ile
Ġaccount ing
ĠC ert
Ġpursu ant
ĠBroad way
Ä ĥ
\ }$
int eg
ĠĠĠĠĠĠĠĠĠĠĠĠĠĠĠĠ ĠĠĠĠĠĠĠĠĠĠĠĠĠ
Ġrec re
Ðµ Ð½
Ad min
ĠDe ep
Ġex clus
Ġpropos als
Ġexpand ing
t ers
b n
un ique
book s
Ġinter section
Î ½
sp ot
Ġbank ing
H C
Ġrequ iring
Ġinn oc
sh al
pl ane
Ġdifficult ies
ĠMar x
R elease
ĠÐ ¿
T T
S N
ro se
Ġport folio
ĠT itle
Ġdel ight
O F
Ġsuper ior
em or
Ġcampaign s
Ġg all
Q U
Ġ rows
Ġrare ly
ur se
m outh
TE XT
Ġdi agram
ĠQueens land
Ġload ed
index Of
cit et
ĠKn ight
Pr ivate
Ġ- \
En vironment
ĠM aur
Ġun expected
Ġn ick
EE EE
Ġad option
Be an
ĠD al
Ġc ogn
Ġb its
ĠDak ota
Ġqu ad
iv an
Ġpr on
ĠM eg
Ġspe aker
Ġar c
( --
Ġreli able
Ġimplic ations
align ed
Ġdeput y
Ġcoal ition
ĠB us
ĠSt atus
Ġem power
ĠInst agram
ĠThe ater
Ġcomfort able
Ġ\ |
P refix
ĠUr ban
Ġass ass
ĠO wn
C ard
Ġopin ions
Ġa x
Ġre vers
libr ary
ĠCub a
ut ter
ĠG ill
... </
Ġcompet ing
est one
Ġs izes
Const ants
Ġhar ass
az ines
Ġpre st
ID S
Ġsusp ended
Ġpsych ological
__ _
Ġprec isely
{ $
Ġrac ism
Ġth orough
Ġkey board
ext ension
Ġsat ellite
Ġvis its
Ġin cent
Ġarrang ements
ĠM aj
Ġun like
O lymp
}} _
Ġspec ify
the re
ĠSing h
Ð° Ð½
Ġm igration
Ġoblig ations
F ORM
Ġb oss
an imation
ov ak
Ġvolunte ers
ĠG re
Ġsh ots
Ġinst ructions
CT YPE
Ġbi as
O ld
ann on
st orage
akes pe
Ġke eps
Ġh urt
am ents
ate ful
H z
Ġ _{
amb ig
p u
Ġg athered
Ġvent ure
Ġeng ines
Ġask s
ĠMar ie
ĠF isher
st ud
id el
Ġ' <
sc ss
Ġdr ums
ĠK it
ac o
spir acy
Ġextra ordinary
h ref
ug ht
col lection
ĠAnd y
hip s
Ġaccom p
Ġep id
requ ired
hent ication
ĠComput er
Can adian
sc ience
aly tics
ĠN ep
Ġsent enced
s ym
ĠNor wegian
P al
Ġhe ll
ĠBen jamin
Ġseek s
Ġph rase
Ġfrequ ent
b rew
r ift
ĠIn v
Ġp ace
Ġt rem
on ce
10 7
Ġunem ployment
Ġcount ies
iv ial
ol o
Vis ible
Ġpredict ed
F inally
in ar
ĠCh ampions
ĠL eft
spec ific
ĠF ight
ĠF el
Ġpark ing
Ġstret ch
Ġs ed
Ġsupp lied
ĠWel sh
Ġ[ "
Ġexp on
ĠJu an
C G
ar se
Ġappe aring
ig s
Ġint ense
ĠL ad
Ġrom antic
Ġmin istry
ĠWar ren
Ġp ending
ent i
ĠFac ulty
G reen
Ġrad iation
ĠStev en
Ġas p
Ġbr illiant
ra pe
Ġdecl aration
Ġhop ing
Mult i
Ġam endment
Ident ifier
ĠV ar
M aster
Ġdev oted
et on
ĠP il
E P
en able
MOD ULE
b g
Ġchar set
ĠCap itol
a very
Ġw ounded
re ction
qu est
ĠBoy s
Ġcom ed
Ġhigh way
' $
d ig
ĠR ub
ĠTra vel
Ġindic ating
Ġstruct ural
M us
Ġisol ated
ĠR oom
Ġtrad itions
n an
Ġrad ius
Ġconsequ ence
Ġgu ests
Ġmechan isms
Pro gram
Ġtheore tical
Bi ography
ĠMit chell
W allet
ac les
Ġnot iced
Ġdam aged
os opher
ĠU l
Ġw ake
ĠF ern
c ient
r age
Ġrecord ings
Ġcomput ing
il ateral
pro xy
IN S
Ġcelebr ation
ill ance
ĠT ower
pt ic
ĠLO G
iv ic
Ġtem p
Gener ated
Ġrest ore
ĠL LC
Ġlik es
Ġref lected
}} ,
ĠPro test
Reg istry
id al
Ġshould n
Ã© t
an ne
ĠNev ada
T om
Ġh ip
back s
Ġmount ains
ig inally
ĠL l
s ys
r ative
subset eq
Ġexpl oration
ĠPer formance
Ġn aturally
print ln
Sk ip
d in
it err
o i
l as
ĠSever al
AT ED
d ependent
ĠS elf
G ood
akespe are
es y
Ġking dom
ĠLie utenant
Dom ain
Ġvol umes
ĠF inn
ound ing
ĠL anc
j ob
190 5
DO CTYPE
ens ing
Ġpl astic
Ġd aughters
ĠTh ings
Ġshop ping
Ġall ies
ĠV ari
Ġcoord inates
ĠC arn
ĠAr n
rou te
in valid
ĠNAS A
Ġres on
ow ell
Ġbr anches
CO MP
Ġb ott
l iving
P Y
Ġw age
Pro ps
ĠO bserv
Ġtour ism
Ø ±
Ġbatter y
g roups
ĉ ĠĠĠĠĠĠĠ
M art
ĠThe ory
ĠC R
Ġdiv isions
Us ing
Ġcons olid
Ġst ick
Ġy esterday
on ed
ĠW ord
s ong
) ->
U ri
Ġm d
Ġcas ual
ĠL ag
em on
Î µ
ĠWay ne
ĠH ad
Ch ina
par a
ĠAl ice
. ).
ĠSt ore
he astern
ĠH end
Ġj ournals
ĠC lear
10 6
ry ption
Ġam end
Ġstrugg ling
ĠPr ice
Ġ ^
Ġover l
Q UE
(' /
Ġvari ation
ĠBar bara
mult i
ĠMur ray
ud son
Ġdepart ments
Ġdet ected
{ %
Ġpart ition
æ ľ
Ġinhabit ants
f eed
Ġoverse as
Ġview ers
ĠCor p
> ::
W ar
N Y
Ġconclud e
Ġbu ying
cur ities
ĠEv ans
re pe
ass y
Ġpar ad
Ġadvoc ate
nd ef
ĠMot or
Ġfin ishing
r ator
Ġfore ver
De ath
) [
Ġcompet itions
Ġsp ir
ic ian
ĠW IT
Ġrest ored
circ le
Ġmed ic
Ġcrick et
ĠPark er
Ġsign als
Ġc rown
Ġrep air
ĠStan ley
B egin
s up
Ġapprec iate
ĠDirect ors
L anguage
ag ent
Ġphysic ian
Ġprom ised
ĠInt eger
ap is
ush ing
Ġconflic ts
Ġc m
writ ing
Ġch ronic
Ġdom inated
lim inary
Ġarr anged
IN TER
ĠG row
ĠL ane
Ġper m
Ġremov al
Ġover come
ol en
L en
pro d
ol ished
Ge orge
Ġbr ut
og ene
ĠMont real
um ed
Ġstream ing
l arg
ri el
Ġsp r
Ġdesc end
Ġc od
on ical
ĠA SSERT
ug s
ic ular
Ġc tx
xi ety
Ġnom ination
ill o
Ġas ym
Ġ[ ],
Ġident ification
TR UE
am y
ĠN AV
Ġback ing
ĠBatt alion
m other
Not ification
Ġfore cast
Ġa ired
Ġident ical
; }
Ġorient ation
ĠV ik
Text ure
pl ot
Ġth in
Ġsynt hes
ĠProfess ional
f lex
Ġsevent h
190 7
ĠPortug uese
Ġb le
ĠCom ments
E ST
pro gress
ĠLead er
Ġland ing
log o
Ġret ain
190 9
Ġmed ieval
ĠPr ivacy
ĠIm perial
ĠT ree
ĠS umm
B ased
v als
ĠArray List
Ġscient ist
lement ation
ĠP i
t c
b id
SC R
mark s
form ing
ĠC old
D ictionary
ĠE mb
Ġinstall ation
our t
ah o
" ].
al ph
Ġcl ause
ĠC hen
Ġr ub
Ġcontrovers y
)-- (
Date Time
Ġprogress ive
con sole
Ġdistingu ished
ens is
ĠB ond
. ]
ĠR io
Ġinc idents
Ġe igen
10 8
ĠInf antry
Ġspeak s
n odes
190 6
Ġachiev ement
( @
ch t
Ġinstitution al
re ck
h ill
res olve
ip h
Ġelect oral
Ġsing ular
ins ula
Ġrank ing
ident ifier
Ġcross ing
H ub
p in
Ġcoast al
Ġe q
Ġful fill
Ġab und
C lear
Ġfl owers
comm ons
Ġall Classes
ĠColl ins
M R
Ġadvent ure
em ption
ĠT ar
Ġevery where
t k
Ġsing ers
ch arge
Ġd rew
is ons
or us
Ġart ificial
ob i
bl ank
Ġmyst ery
ĠallClasses Link
ĠBrazil ian
support ed
Wh ite
he ets
op edia
Ġprotect ing
Ġr anging
Ġintegr ity
Ġg auge
ĠO K
Ġsold ier
Ġsim ulation
Ġb ird
Ġut ility
om ed
ĠElect ric
' ));
Ġreview ed
Ġpo em
Ġvol unt
Ġrepeated ly
Ġconsist ed
ĠAN Y
Ġmer ged
Ġb ath
HT TP
t ri
ĠAssoci ate
Ġsomew here
Ġchar ter
f actory
ĠC G
itte es
Ġg am
Ġfl ash
g lyph
t emp
met ric
00 1
Ġbre ast
L ight
em ies
e lection
r ition
Ġprepar ing
ĠF em
ew idth
Ġâ Ĥ¬
ĠT am
Ġarrang ement
Ġl ux
Ñģ ÑĤ
h al
Ġp up
ed ly
ah n
pl ain
g ow
ĠCont ent
Ġenter prise
at omic
iterr anean
re present
Ġres ort
Ġb atch
Ġcount s
re ach
ĠU lt
ĠB illy
ra ctions
ĠU SS
Ġcol span
Ī Ĵ
Ġbl ind
Ġcl othing
down load
Ġexam ine
M ac
Ġsome body
C ert
ĠN ap
ĠBl ood
AS H
Ġl iv
comm unic
Ġrec overed
Ġpaint ed
xy gen
D im
ex pr
190 1
ar us
Ġcinem a
ĠV ancouver
av ia
Ġen vironments
ĠCom ment
Ġreflect s
ĠC os
ĠCro at
Ġhigh lights
Or gan
ĠMad rid
- $
s ingle
ĠOsc ar
S R
ĠM ind
Ġt one
L android
Ġmod es
Method s
Ġpart ially
ĠH old
Pro gress
ĠPr int
T F
ĠM ust
ff ff
ĠHawai i
ĠB urn
Ġform ally
ĠO cc
Ġin ev
Ġs weet
pat tern
ĠJim my
ĠIS BN
Ġw ars
h ot
Ġinf lation
ĠCo al
ĠBr and
ur able
Ġpe oples
A li
ĠN BC
Ġtick ets
Ġ å
ov es
Pl ace
Ġn ucle
s n
Ġsatisf y
Ġnot ably
it ations
Ġcast le
ID TH
y cle
et al
check box
ĠHamp shire
ĠH im
T HE
18 80
Ġperfect ly
st e
ĠTh ailand
(' #
J ack
Ġhelp ful
u ana
ĠNet flix
Ġarr ive
Ġcharacter ized
m ount
Ġfore ach
Ġphenomen on
arch ive
Ġgener ic
Ġs le
Ġh ill
Ġbelong s
ĠD est
Ġult imate
Ġp arser
ĠS ide
test ing
id ges
plic it
Ġcheck s
u j
con nected
Ġple ased
C B
Ð¾Ð ²
Ġpers u
We ek
Rev iew
e conom
Ġsimultane ously
Ġhard ware
ov ing
ĠAL IGN
Ġbroad er
ĠâĨ Ĵ
iv ia
Ġwhe never
ĠEth iop
ĠPort land
Ġnull ptr
Ġcorrect ly
Ġterror ism
at in
Ġcivil ian
p ull
ĠIs a
enc er
ib an
ĠAl aska
se par
Ġcont rary
Ġg allery
Ġ" $
face book
Ġeng aging
uck et
Feb ruary
Ġdes per
n ik
F ramework
Ġcamp s
Ġunder graduate
ĠU pon
pect ives
Ġsc iences
ĠA the
amaz on
op ts
nap shot
ham mad
ĠFreder ick
ĠSh ar
in ced
ĠInt eg
EEEE FF
M ean
ĠC NN
EN SE
Ġu pload
ĠSal v
z ing
Ġt ensor
Ġpart ly
EL D
ĠF ant
\ ,\
Over view
Ġintern ationally
Ġres olved
ĠShe l
ari os
Ġearth qu
A wards
Ġact ed
Ġ@ "
Ġe cosystem
Ġal ien
Ġdist inction
Ġtestim ony
Ġbur den
s un
Ġstat istical
B ind
Ġvirt ually
13 5
cl uster
s elling
z i
Ġm arch
Ġequ ipped
Ġfail ing
ok er
w he
Ġven ues
Ġt ables
ĠMar vel
count ry
Ġd il
Ġ\ (
In formation
V A
ĠW ind
B order
re lease
ĠG P
Con nect
it ter
ĠGu y
ĠS P
min ute
Ġarg ues
Re al
ab ad
ĠCon stant
Ġhead ing
Ġm ath
ĠV ector
UN D
Ġven ue
D id
ĠWeb site
Ġmon ument
ĠJ ess
Ġmet res
ĠCrim inal
ĠSe lect
lo op
ious ly
ke ley
ĠB irmingham
AN G
Ġc ous
Ġmod ify
g eneral
Ġk ne
p ython
b ai
Ġc odes
Ã ´
Ġcomp ly
ĠI an
Ġsp ark
hib ition
ĠB ased
b ow
Ġb ind
á »
ĠS IZE
Ġobject ives
ab ling
Ġrot ation
Ġb ars
ĠR ain
ĠS EC
onom ous
ĠLiter ature
vis ible
sim ple
c as
LO CK
Ġelect rical
Ġrh yth
ĠS D
ane ous
ĠK l
Ġn a
paren cy
Ġcorpor ations
Ġle af
Ġassign ment
part s
Id s
ĠCamp aign
CH AR
ĠPe ak
Ġbatt les
P od
ĠM es
ĠB ed
on al
Ġconnect ing
Ġam id
Ret urns
Ġexclus ively
ĠVi enna
Ġcontribut ing
ict ions
lim its
ĠPerson al
Ġrail road
Ġme at
ĠAl fred
10 9
Ġsl ave
ĠEN D
St ats
ĠOr thodox
b atch
Ġco ins
Ġid x
e or
Ġse curities
k t
S ep
ĠDef ence
Ġmeaning ful
Ġwh ilst
190 3
ĠSh an
cy cle
ish ops
ant ed
Ġdog s
Jo in
op ic
ĠCE LL
z es
oth s
k top
pe ction
ĠW W
ĠUnivers al
Ġpl ugin
() ))
Ġmiss ions
Ġpre vention
ĠConf eder
ix on
N ative
RE D
Ġto w
ĠÂ ·
Th ree
Ġoff ense
enn ial
Ġcharacter istic
190 4
ĠGi ants
Ġsh r
Ġpol ynom
ĠS ett
Ġveter ans
Ġav ailability
Ġany way
Ġm igr
ann ah
Fr agment
Ġrespons ibilities
ue z
clip se
Ġin ject
ĠL ess
Ġconv inced
ĠWork ing
ĠO ri
Ġdef ines
Ġan chor
Sh ould
or rect
for ced
mark et
M ajor
ĠF ine
Ġbound ed
Ġreform s
he ll
Ġmax im
rop y
Ġsole ly
The ta
2 20
Ġattract ed
Ġ( [
ose x
ĠP ad
Ġtravel ing
ĠBl oom
f c
Ġstat s
ĠSym phony
Ġread only
h ave
Austral ian
Ġl obby
ancell or
ong o
Ġde eper
Ġsh arp
v i
Ġant ib
Ġattempt ing
u is
pol icy
ĠKar l
in os
Ġvess els
Ġ$\ {
Ġsumm ar
reg ular
ĠSquad ron
Ġt ie
AN CE
Ġo w
Ġre ception
Ġoppon ents
cl one
ĠC row
an throp
Ġsil ent
Ġam ended
Ġsl avery
ĠV erm
Ġlong est
ss on
ĠT ig
ĠP od
Ġst em
ĠIndust rial
spe ed
ĠStud io
s ample
M IN
P resent
< \
Ġgrad ually
Ġdoll ar
ĠHung arian
Ġd ial
sequ ently
________ ________
ĠGr iff
Element s
âĢ¦ .
w right
11 4
fl oor
qu al
Ġr gba
Ġvolunte er
ĠCons ervative
t own
ĠCom merce
Ġn eck
Ġfol ks
ĠC itiz
Ġint r
C red
. ",
S ave
D b
b ie
e ast
Ġt ropical
Ġb ounds
NavBar Font
oc al
Ġexhib it
c atch
Cont act
ur ities
ĠJeff erson
un ate
Ġrepe at
p aper
ĠD ays
Ġwebs ites
Ġhy brid
ol ute
ĠR and
Ġin herit
Ġcorrespond s
resp ons
Ġwith d
Ġsome how
he ld
place ment
Ġthere by
US ER
m n
ri um
Ġsh adow
sh a
ĠHit ler
Ġd ust
% "
ĠH ub
ĠSh akespeare
Ġemot ion
ĠUk rainian
Olymp ic
Ġdeploy ed
if ice
ĠT ob
w arning
h istory
Ġel ite
Ġw edding
Ġre un
Ġtr ick
Ġatt ributed
ĠSh ah
Ġval ign
/ "
Ġdire ctions
Ġterrit ories
Ġmut ual
ĠR ap
ĠEgypt ian
ĠC BS
C ity
O k
ĠTurn er
Ġ ];
ĠN i
ĠWar ner
Ġcoord inate
he alth
Ġd ad
W atch
ĠS now
trans ition
ĠVal id
Ġex ha
Ġ à¤
is p
Ġconsist ently
Ġpark s
Ind ian
Ġtax p
Ġhom eless
Ġrec ruit
ĠFin land
Ġsec ured
wh at
ĠStan ford
ĠV irtual
ĠInd igenous
Ġsepar ation
MO DE
Ġsoci eties
u er
he ro
Ġanal ys
B usiness
b d
ĠSt re
Ġtime out
m illion
ilt ers
ĠMet ropolitan
Ġaccomp any
F N
Ġdismiss ed
le e
get Value
vol ume
ĠGover n
ĠAgain st
Ġtravel ed
ĠU C
Down load
Ġt ale
E ducation
Ġman if
Ġcomp atible
Ġstreng the
- (
ĠJ azz
âĢ ī
Ġorgan ic
ĠCh ron
act ivity
ine a
L Y
ĠM oz
ĠAp ache
Ġsn ap
Ġs ail
ĠBern ard
Ġt iny
Ġcomm ands
ĠBrig ade
Ġpro ps
ĠJohn ny
ĠDemocr at
ĠBar ry
Ġg ard
ĠS N
ii i
Ġmanufact urers
Ġ Ä
ĠUn fortunately
w iki
Ġpsych ology
Ġcl imb
Ġassum ptions
fl at
an alysis
Ġf ib
Ġdis abilities
Ġpra ised
Ġdo zen
if def
Ġhard er
ant on
i ating
ann es
Ġport rait
Ġwarn ed
Ġaf raid
Inter val
Ġh ub
ĠO il
ĠJ oint
b one
Ġafford able
Ġform ing
Ġrepl acing
Ġs a
ul u
hab ilit
Ġaddress ing
Ġcomp ilation
n atural
ool s
k ov
Ġtransform ed
ĠAb u
ĠMean while
cre ated
S pecial
Up dated
Ġaccompl ish
ĠE li
l ive
Ġb ills
Ġdepend encies
ĠBl og
ĠA qu
ĠR ico
Ġper ceived
Ġcomput ers
OR K
ĠJ oy
Ġalleged ly
f ail
Ġwealth y
D elegate
it us
ĠP un
Ġenorm ous
Ġs ynchron
bre aking
S creen
Ġcons iders
Ġsal ary
ĠD ictionary
Ġind irect
P G
as ync
ops is
A ir
SE LECT
Ġper t
ĠSud an
Ġengine ers
P air
ĠF if
ĠC er
c ounter
ĠNAV BAR
Ġcommun icate
Ġv it
ĠCon cert
et ry
ĠCl ar
ĠCons ider
Ġobl igation
if le
Ġrefer ring
Ġbreak s
E V
Ġeffect iveness
Ġcorre lation
æ ĸ
ĠBapt ist
Det ail
P ers
Ġres igned
Ġcare ful
Ġpr ayer
ä »
Co ord
Ġconvers ations
or ity
m ade
ĠPr incess
as a
Ġcomput ed
ĠR N
W he
L aw
H istor
ĠMon th
ĠPhil osophy
ens ively
Pl ot
"" "
Ġincred ibly
ĠGl as
Ġdiagn osis
ĠApp ro
Ġh ist
ĠC ass
Ġf atal
Ġrun ner
i pt
end um
Â ®
ĠH orn
ĠP rix
Ġcur riculum
enn y
ĠH aving
ĠPlan ning
Ġres et
ĠL ock
iss a
ĠA y
ĠC le
Ġch ampions
pro gram
it ual
Ġl ights
ĠC inem
Ġmist ake
N amespace
Ġco aching
ĠN ATO
ĠHun ter
Ġdeterm ining
zer bai
ed ed
og an
Ġpost er
p iece
ĠP ant
Ġcl er
r ise
Ġmagn itude
Ġb io
ĠM achine
ĠDan ish
Ġtrans c
side bar
ĠF O
T ex
Ġl ibraries
190 2
ĠC lient
Ġtrack ing
ĠN am
Ġbelong ing
An imation
Ñ ĩ
ĠV ent
B ro
r aska
abet es
ĠM yst
Ġgl ad
Ġex pense
Ġcheck ed
Ġlegit imate
ĠR O
ĠR ud
ĠN iger
Ġimpl ied
Sequ ence
ĠCharl otte
Ġtele phone
ect ure
ĠPer haps
Ġclos ure
con duct
W ait
Ġsur render
Ġdepart ure
t re
Ġde cent
pre p
styles heets
ĠTreat y
Ġn p
st ock
ĠO d
ĠF al
m ill
om m
ĠA G
j d
ĠR ic
ol utions
Ġgo ogle
ay an
Ġfl uid
Ġc ul
Ġpoll ution
ĠSte el
var iant
ST ATE
Ġnom ine
Ġc md
Ġpat ri
Ġr ivers
yl um
Ġrece iver
ĠD B
Ġfin ancing
Ġdream s
ĠSus an
Ġicon ic
ĠS QL
Ġmor ph
greg ation
Ġt ribute
Ġexp end
F M
: [
k et
Ġunder ground
24 0
Ġim perial
ier ra
ĠM uch
z ens
Ġd inner
ĠB ud
ĠU g
qu is
f ish
test s
on ies
int eger
ĠKen ya
Ġe ating
ĠR ules
Ġb anned
grad le
ĠL yn
Ġbul k
Ġs isters
ĠC arm
Ġint ensity
Ġvert ices
ĠSt ream
}} }
opl us
App end
Ġnot ing
| ^
ĠD J
Ġter rible
ĠOr ange
v c
Ġhabit at
Ġoccasion ally
foot note
cept or
Ġoccas ions
Ġmechan ical
Ġmin i
18 70
ĠP ent
ĠDr ive
11 3
g ression
I AL
St ruct
ĠBl ues
m und
u art
Ġmod ules
ĠSt ories
P eter
f old
id ad
u ke
ĠMet ro
ĠP oll
ir k
Ġpush ing
Ġcomm emor
ĠI L
Ġen ables
h om
ĠPer ry
Ġhe lic
ĠGuard ian
construct or
G ER
B oth
ĠF riend
Ġm ouse
ĠD ouble
ber ry
Ġmedal ists
ĠA C
time out
ĠD ie
S I
ĠC her
av ailable
Ġprov incial
ĠJust in
Ġst ere
Ġdesc ript
Ġaccept ance
Ġadv ers
Ġcon fess
Ġdec ay
duc ational
Ġqu ote
s ing
Ġd ying
S cal
ĠOption al
Rich ard
B Y
orne ys
Ġret ained
Ġinstrument al
Ġforest s
Ġhand led
Ġpros per
(" /
Ġc able
ĠD elta
Ġcour age
ir i
Ex ecut
ob a
ĠT ogether
Ġquant ity
Ġmind s
ĠCat hedral
Ġt ons
ĠJ en
out ing
Sc ott
Ġind epend
Ġshe et
AT CH
th an
Ġch amber
Ġcalc ulate
9 78
Ġdis cret
C reat
ici ary
eg u
d uration
="../../../../../../ ../
W arning
ĠIn put
RE G
id o
E U
VAL ID
Ġany more
NS String
ĠLead ership
ling ton
Ġt ub
Ġpract ition
Ġb read
Ġvalid ation
g oto
and ed
ĠD escription
as is
Af ric
f und
ĠNorm an
ĠChall enge
R PC
En umer
Ġmanufact urer
Ġcon n
ul ates
ĠIn novation
Ġcritic ized
ĠSt ein
Ġac res
A Y
ĠCra ig
(" #
Ġun ions
set minus
ĠAnt i
ĠH ockey
rad io
Ġvalid ate
ĠM oney
em b
Ġw et
_{ (
12 4
bor ne
Ġpre t
iz ard
ĠF M
et ics
her s
Vert ex
ĠDen ver
Th omas
Ġor bit
ac ular
ant ly
pr ises
ab ul
Sh ape
S al
ĠZ e
Ġsymbol s
Ġfacilit ate
s ocket
Ġo x
over view
Ġmar ry
E SS
ĠG ate
S chool
Ġprof its
ĠG ot
ĠPh oenix
Ġten ure
Ġvess el
d c
Ġrest oration
Ġlov es
ith uan
ĠColon el
ĠF un
ĠC ou
ĠFri ends
ĠR y
ĠL P
Ġcl ip
ĠM obile
ĠMed iterranean
Ġbe ings
Ġb ases
Th us
Ġref lection
Ġmort g
il ib
comp ile
Ġevery day
less ly
ĠLegisl ative
Ġrob ot
Ġpro found
ĠChe l
Ġb ull
ĠWith in
Ġmer ge
ir ical
Ġc ir
ĠP aper
Ġg ro
cur sor
o j
N ET
Ġjournal ism
ĠRead ing
osoph ical
Ġf ert
ĠI M
word press
Ġin herited
W ord
Ġw ages
Ġviol ations
Ġfall en
Ġfant astic
, $
Ġpr ay
Ġ( ;
Ġen emies
Is rael
in ery
Di agn
Ù Ĩ
18 00
Ġfl ights
in us
ME TH
Ġan xiety
ĠL ower
ĠL ore
Å «
Ġst roke
Ï ĥ
ab a
t ures
he art
ĠJenn ifer
Ġsequ ences
Ġen um
ĠE dd
lin ewidth
ĠSt ars
text rm
ĠI ce
Ġopt s
Ġadequ ate
ac co
Ġfun eral
SS L
L ower
ĠH erm
Ġorig ins
ĠA ld
Ù ħ
ĠP ictures
ĠDel aware
ĠW rite
ĠInvest ment
S am
ĠStr ateg
M ouse
Ġident ifying
Ġsche ma
Ġ ul
Ġgl obe
Ġfasc inating
ot ton
Ġsub set
Ġbu f
Û Į
ĠC rit
Ġinvestig ations
select or
TR Y
18 98
cel ona
ĠF alls
Ġacknowled ged
ĠBe ing
S G
Ġex tr
Ġm os
w edge
ol s
Ġsan ctions
Ġbank rupt
Ġt ill
Ġad mit
Ġev olved
ash i
vent ions
u ition
Ġglob ally
or igin
' ];
b c
Ġsc roll
Ġsound track
Ġpack ages
atern al
Ġscreen ing
agon al
Ġtreat y
ost ics
ĠT oy
Ġwork force
Ġphil osopher
oca ust
AR N
ij uana
ĠMur phy
Ġsatisf ies
ĠM aterial
m ouse
M icrosoft
Ser ies
Ġnumer ical
Ġexpl oring
Ġcons ensus
f iction
act eria
Ġrep ly
se q
Ġsp atial
Ġtechn ological
ĠFl ore
14 4
om on
Ġterm inal
17 0
b ishop
g ender
Ġt ags
Ġremember ed
ĠW inn
ĠM ason
Ġacqu ire
Ġhuman itarian
{ "
Ġinput s
A SE
P UT
ĠM IT
Ġnon profit
Ġboard s
' \
Ġear ning
et o
Ġmag azines
Ġt sd
ath on
Ġre aches
Ġcar ries
Ġd ub
Ġprogram mes
ON G
ch anges
IMP ORT
ĠLu ke
Rel ated
p ot
ick ets
Ġdon ated
12 1
col lect
Ġexpress ions
ĠP rad
Ġopt ical
Ġdis orders
ĠD oc
Ġthe at
Â ·
ç Ķ
Ġh ang
ĠG un
hel per
Ġc razy
Ġr ally
Ï ģ
S ample
C enter
ĠM asters
ĠL oad
ĠMount ains
ĠS ustain
ĠSt age
aged y
ĠMu hammad
P ress
I gn
Ġ' ./
Ġpres erved
Ġpay load
ĠB ron
Ġsuccess or
Ġ_ .
ĠIns urance
ra ble
ĠS oul
ĠC amb
M ove
Ġsu gar
oid s
Ġge ometry
ĠJ e
Ġt mp
iv ities
ĠG reater
p rom
Ġrel oc
' }
qu ality
Ġfollow ers
ĠTe acher
ĠHind u
Ġload ing
ĠHar rison
Ġsub mar
M ask
Ġb es
Ġdiplom atic
Ġshel ter
Ġm oon
sub figure
th y
Ġr ounds
Ġed it
Ġh orses
Ġhard ly
Ġnav bar
ĠV I
Ġpan els
ĠA rena
Ġhon our
Ã «
ĠZ one
und efined
ĠTechn ical
ĠAdd ress
Ġtal ented
on ing
Ġvacc ination
ch arg
Ġfl ux
ĠR elease
ars on
ar ance
Ġdam ages
Ġs alt
Cons umer
ĠIn ternal
Ġty pename
Ġse ar
Ġmarg inal
ĠM ock
Ġche ap
Ġsust ained
Ġaffect s
Ġcert ified
inc inn
w d
A ST
ĠM ans
DE FAULT
Ġsustain ability
Ġpro c
g un
ic ator
ra h
z ip
u ilt
âĨ ĳ
Ġinflu ences
Ġclos est
UT H
Ġb oot
ĠE ffect
ĠU pper
if ndef
Ġmod al
Ġdevelop er
ess ment
4 50
ĠH unt
it i
atas ets
M ount
Ġk ernel
Ġd iam
Sec ret
ĠG ray
b old
pre ced
ĠAug sburg
ĠJer ry
Ġvot er
Ġrevolution ary
S W
ĠN ear
amp a
Ġre pository
Ġprocess ed
Ġdro ve
Ġstreng then
ac er
Ġval ley
x it
be at
ĠO C
ĠW ang
S ocial
Ġan ger
ĠPsych ology
bu ilt
Ġpre dom
Ġfl ed
Ġc up
ĠAdvis ory
Ġh az
ff icking
ĠâĢ Ŀ
ĠSer ge
Ġmass es
Ġqual ify
Ġt el
ĠM ut
Ġpe ers
ric ing
Ġcare ers
Ġillust rated
2 30
w alk
Ġh ack
Ġimp ression
w oman
An n
Ġphys ically
Ġpred ecess
ag ination
Ġcomplet ing
Fl ag
valid ate
bas ic
Ġlabor atory
N ormal
Ġpregn ant
G iven
AC H
Ġj ew
object s
ellig ent
A I
ĠHealth care
Ġsub div
Ġgather ing
ĠM all
rist ol
ĠSc ript
Ġd ivers
ĠHe brew
Ġg ains
ĠLeban on
ĠT un
Ġem ission
ĠMar c
Ġs s
Ġspecial ist
> :
ab e
getElement ById
Ġt aste
Ġor al
ĠPalest ine
incinn ati
Ġrecogn ised
l ass
Å ¾
Ġmathemat ics
Ġmet rics
text sc
Un known
ĠAut o
m aps
Ġdiscipl ine
ĠX ML
ĠB orn
ĠD eg
im ir
Ġse gments
Ġste am
ĠAssoci ated
sh ore
d atabase
Ġgot ten
Ġmin isters
u ity
en berg
ext ra
id ays
ĠĠĠĠĠĠĠĠĠĠĠĠĠĠĠĠ ĠĠĠĠĠĠĠĠĠĠĠĠĠĠ
ĠR ot
h n
F act
in herit
act ic
Ġbund le
ha us
os ity
Ġpre val
Ġtrem end
sl ice
METH OD
c rypt
Ġcon spiracy
Part y
Ġcon vey
Ġlog ging
Ġs aving
oust ic
IN FO
ĠStat istics
Ġg rab
Ġim per
ĠVin cent
ey er
Ġt ip
ĠG race
F LA
r ass
ĠF ed
12 2
ver ter
Ġgrand father
Ġbond s
Ġchalleng ed
ĠCarl os
Ġf ro
Ġdelay ed
Ġrenew able
Ġad mission
Ġp ill
sect s
g om
con v
; ">
re ason
Ġpred iction
qu ote
ĠRich mond
opt ional
ar an
r idge
Ġsimilar ly
f our
Sports people
ix els
m atic
p b
dr iver
20 2
Ġcomp iled
link ed
g overnment
Europe an
ĠN ord
te enth
B D
Ġb ureau
Ġdefin itions
ĠColomb ia
Ġcomp an
Ġmurder ed
uss ia
å Ī
RE E
HER E
Ġcou ples
B ibliography
ĠS M
Ġachiev ements
Ġfoot age
V I
}^{ -
Ġc ub
ge o
Ġlit igation
ĠSt op
Ġf abric
Ġqu oted
Part icip
ĠAust rian
ĠL arry
Ġcom ics
ĠOl iver
h ook
L imit
ĠC C
Ġre actions
le ading
vert ical
ipl inary
H ol
Ġhad n
ĠPro position
Valid ation
Ġl ad
Ġim g
Ġsuggest ing
Ġnurs ing
ĠC ry
et e
ĠF itz
Ġimm une
ĠL java
Ġiniti ated
18 99
ass ion
Ac adem
com b
ĠBer keley
os ph
ĠH udson
Ġdo ctrine
Ġup grad
ambig uation
ĠMad ison
Ġrout ine
Ġmand ate
Ġbar riers
Ġarchitect ural
Ġb ot
" ],
c ross
ĠAb stract
Ġspe akers
Ġpo ems
Ġgr ateful
S ql
Ġelement ary
ĠEn cycl
Ġconduct ing
n p
Ġb ag
Ġmuseum s
Ġsurn ame
AAAAAAAA AAAAAAAA
Ġg host
ut ers
ĠG as
Ġqual ifying
ĠN at
ĠL evel
Ġe uro
pos al
ard ing
L ive
f g
Ġj u
Encod ed
Ġgener ating
Ġyoung est
Ġaccompl ished
Bl ue
Ġf inger
ov o
Ð ¿
F older
her ic
Ġple asure
Dis c
el ing
âĢ¦âĢ¦ âĢ¦âĢ¦
ĠS even
Ġst uck
Ġhighlight ed
ĠG onz
Ġcancell ed
18 60
ĠIn n
Id entity
ĠRefer ence
Y Y
ig o
P red
M ilitary
ĠY ale
Vol ume
Ġown s
D ER
Ġland ed
End point
ĠKir k
j b
Ġnav al
ĠS ay
ĠC IA
Ġmid field
ĠPhys ics
ĠN othing
ph ant
ĠB ody
plic ation
ĠTra il
ĠQu arter
DE BUG
ick et
run time
ĉ ĠĠ
amil ies
oper ator
Ġ" ";
c red
ĠNeb raska
ĠM ack
ex it
ĠGlas gow
un al
Ġassert That
ĠN ad
ĠChar ter
ĠE V
Ġremain der
Ge ography
ĠAgric ulture
ĉ čĊ
Ġb rick
att ice
Ġdifferent ly
Ġcust ody
R ussian
Ġins ights
Ġbl ank
Ġcur sor
Ġchem istry
under line
Ġcook ies
cast le
Ġbe am
ty pename
me an
Ġfil ing
ull ivan
Ġexception al
P y
ĠM icro
ĠAlex and
ĠTal iban
ut ory
qu arter
Pl atform
ri en
ĠT ib
des ign
sh ops
B inding
Ġprec ision
Ġapp s
rape ut
om o
Ġp ounds
ĠNichol as
Ġappro ached
B ur
orpor ated
Run ner
ĠG round
sc ala
ĠCon c
Ġoverwhel ming
Ġstri king
Ġ" ",
kw args
Ġman ual
B ad
Ġhop ed
Ġin herent
M AN
ter ior
ĠR at
Ġhistor ically
riter ia
ul ative
Ġleg s
Ġtrib es
st o
Ġrender ed
Dr iver
ĠF err
f ive
Ġde fer
Ġcivil ians
ster dam
18 95
Event Listener
cel and
Ġm ad
ĠAb raham
f x
ĠNew ton
Ġrepresent ations
S ever
Ġg ram
A X
lic ense
ĠEm ploy
ĠTransport ation
Ġag gressive
Ġlog ical
Form s
ĠBe aut
Ġsurviv ors
ĠR ank
Ġsc alar
H tml
Ġcons erv
the y
Ġsc an
Ġprem iere
ĠFa ith
ĠL ost
all ed
Ġsk ip
Ġpun ishment
Ġwor ried
ĠEv ents
te ch
ĠTreas ury
ĠPh arm
Ġins pect
Ġconv iction
Ġdocument ed
Pop ulated
o ons
ĠS ad
Ġemot ions
e u
Ġfoss il
ĠKe ith
ĠT amil
Ġvacc inated
al ert
ĠE lection
ĠMat hemat
ĠCons ult
ĠS H
ĠIm port
bul let
******************************** ********************************
R aw
ĠWork ers
Ġearn ings
evel oper
D ATA
Ġdef ending
ĠAd miral
Comp iler
Ġenh anced
Ġsurve illance
Ġimplement ing
lic enses
ass ign
Ġmolec ular
E lect
Ex ample
sc ore
cal endar
ĠRob in
Ġneighb ors
R ail
Ġinc orrect
Ġparliament ary
ĠGerm ans
ur u
Ġhistor ians
am ation
Requ ired
Cont in
Ġreven ues
18 96
Ġin cur
ĠArt ist
DO M
b ian
Ġtack le
ĠJ ob
ĠMP s
ĠL en
Ġtherm al
Ġsymmet ry
Ġra pe
Å Ł
ĠA my
Ġcan vas
ĠK rist
path y
Aud io
ĠP el
ĠWh ich
Ġing red
ĠW ikipedia
âĢ¦ ]
Ġgrad uating
Ġre nown
ĠSh a
Work s
Ġwood en
ĠAl tern
'] ['
is Empty
ĠConst ruction
Ġr anges
W I
r ations
Ã ª
=\ "
Ġencour aging
R oman
AM P
ag ar
B ill
sp acing
ĠSh aw
Ġstrugg les
sc al
ĠSt ra
Ġev ac
S erv
Ġb at
Ġdecl are
mem ory
Ġcred ited
ĠC u
Ġanal og
Ġattract ive
Ins ert
ĠBo olean
ĠCru z
ĠB io
p al
Ġdistribut ions
Ġwork place
Ġsl aves
Input Stream
Seg ment
Ġspons ored
Pre v
Ġeth ics
IO Exception
P DF
Ġres erves
preced ented
Ġprest igious
ĠH ousing
rick et
Ġun ity
ĠK os
Ġle ase
Ġor th
Ġdepend ence
Ġswim ming
Ġsh ops
7 50
Ġdis closure
Ġlegend ary
Ġw is
Ġinvestig ated
omorph ism
om atic
18 97
Ġprec ise
ft en
ĠS ometimes
re act
ond a
A gg
ĠA aron
L ibrary
Ġrecall ed
ĠDise ase
å ®
v et
th ree
Ġident ifier
av an
Ġsub sc
ĠT ru
ĠCh ampion
Ġautom atic
ber y
trans action
Ġprom ising
Ġadvoc acy
oll ary
Ġ} }
Ġc ow
Ġl ung
Ġaggreg ate
ĠSec urities
U G
ffic ients
at ibility
ĠInter est
Ġover view
Ġstat ue
m ma
n ational
ĠAlber ta
um ar
Sh are
Ġgraph ic
Ġexam ined
Ġselect or
Ġm eth
Ġlast ed
Ġd ign
Ġachiev ing
Ġnation wide
Ġh al
nav igation
ĠSt orm
ex tern
in formation
tr im
Ġnob ody
Ġeth ical
Ġenthus i
ect s
ĠLiber ty
}} _{
ĠRoman ia
Ġpeace ful
st ration
est on
pp ers
Ġo xygen
ex per
epend encies
m obile
Ġsubs id
ĠClass ic
Ġsurv iving
Ġhon ored
Ġconstra int
L ear
Ġmer ger
Ġhypothes is
ĠSpring s
H en
Ġb ishop
ĠR ange
n ecess
ra ined
Ġclass room
Ġresear cher
ĠArchitect ure
UM M
Ġprom ises
Ġ' \
Ġtrans it
Ġn inet
ĠCons erv
Ġsynd rome
P ower
C LASS
Ġj et
mer ge
ĠSim ple
| }
Ġs wit
ĠPro f
s b
found er
r f
ĠS eg
Ġper ception
ĠDE FAULT
ĠSe an
n n
Ġcl othes
ĠGh ana
Ġt ens
ĠC SS
ĠP resent
Con sole
er ious
load er
iff s
Ġ\ "
We ight
Ġde ployment
Ġmil k
Ġout door
Ġeditor ial
W in
ĠW alt
ĠPr imary
C r
aud io
n c
th lete
t race
au er
ah l
ĠM erc
ĠB rew
ox y
Ġinf ections
Ġf oster
ĠMe eting
hav ior
Ñ ĸ
ĠMark eting
Ġhydro gen
B al
ĠCl ay
Ġbre ach
ĠBr anch
Ġyield s
th ird
Ġsub scription
ĠÐ ²
Ġimplic it
sub mit
ĠG ov
BP ACK
ĠS ets
ĠB eth
Ġh unt
Ġall iance
Ġconcert s
method s
Ġconstit ute
B eh
Ġel abor
Ġt ar
ĠRail road
E q
Ġm m
st ates
Ed ge
ĠM i
ĠInd ependence
= [
Ġcou p
Ġstat ute
ĠMil an
j Query
im edia
inst ein
c ity
Ġvari ations
ĠScient ific
as ia
ĠVenezuel a
List en
Ġconscious ness
Ġlif estyle
Ġsequ el
ĠBroad cast
Ġvol can
Ġf old
ĠT ab
ĠInit iative
Ä «
ĠPart nership
Ġrev ised
ĠHig her
read er
am ine
Ġm es
Ġsh ore
Ġm ere
Ġdi et
Ġball ot
Ġcitizens hip
K ing
s ync
Ġleg ally
ĠS r
ĠC atal
ĠG ay
j ax
estab lished
ant i
J ul
Ġf ictional
Ġp ump
ĠTro phy
× ķ
Ġtreat ments
Ġcan nab
ĠAl ban
ĠR ivers
ĠA zerbai
Ġhand ed
F ace
Ġexcept ions
Ġbl ame
ĠS id
Fr ank
Ġsc ales
w i
ĠR ural
a que
Serial izer
Ġapprox imation
Ġcomm od
Ġcar rier
chn ology
Ġinf inite
ĠW es
ĠStr ategy
Ġres erv
Ġsav ings
Ġc oc
Ġnot ification
ĠS outheast
ur st
ĠR ele
T ile
ĠBar celona
Ġindepend ently
sequ ence
ĠC atherine
Ġsupp ose
ĠRon ald
ĠT ed
Ġg onna
Ġv ibr
Ġ$ |
: `
Ġdiagn osed
ĠTh anks
ard ed
urs or
Nav igation
ip art
Ġl oud
Ġstrict ly
ĠK ate
Ġhon ors
vert ed
Ġvary ing
Ġr itual
?? ??
Ġop acity
ĠTer ry
ĠAcadem ic
ĠLa ura
Ġdeliver ing
Ġs id
Ġto ll
Ġmoder ate
Ġseem ingly
18 50
Fl ow
ĠV el
'] );
Ġb achelor
_ );
Ġsumm it
/ ">
ĠCommunic ation
Ġf ate
Ġch ron
arg uments
G old
Tele vision
ĠT an
_ +
Ġadv ised
ĠG O
in ance
h op
ĠO pt
J ew
L R
ick en
Ġcompl aints
Ġspecial ized
Ġst ops
ĠPract ice
ĠGr an
0000 00
Ġep ic
Ġcomment ed
Ġafter wards
in ely
er ial
or o
ĠCont emporary
Ġper missions
Ġreport ers
} %
dis ambiguation
writ ers
Ġsufficient ly
ĠFI FA
M W
Ġdef ining
Ġfriend ship
refer red
Ġel if
w t
ĠAl ong
Ġprivile ge
ĠCons ervation
dest roy
Ġ ig
Ġp in
t ail
Ġart ifact
Ġaccess ed
ID E
Ġattend ance
m ine
Ġw ishes
ir ts
F ootball
ol ition
p ic
Ġproject ed
ĠSpe ed
ĠB asketball
Ġres il
Ġen rolled
Ġsearch ing
Ġpresc ribed
T ok
dis able
Ġob taining
Ġassoci ations
Ġ( $\
ĠSu ccess
ĠT ol
Con structor
dep recated
Valid ator
ĠH ost
19 2
Process or
F UN
av i
ĠL isa
ĠR ugby
Ġm ood
Ġsh ipping
A K
Ġcancell ation
Ġb unch
Ġoppon ent
Ġcross ed
ĠCh art
Ġguitar ist
Ġwitness es
inc ome
B inary
Ġdis p
Ġb one
F our
Ġin duct
ĠF ro
Ġt unnel
ĠK an
Ġt ension
par agraph
Ġco in
Char les
< <
Ġsche mes
Ġre conc
ĠF ab
ĠWrit ing
S ite
ĠIt em
ĠW or
Ġportray ed
Ġrem arks
c ott
Ġa est
Ġp ip
ĠRepresent ative
Ġeval uated
ĠCo ord
D ATE
Bas ic
Ġdo se
Ð ·
Ġcalc ulation
Ġdel ta
ĠNe il
ak u
ĠFl ight
stand ard
ir s
ä º
ele m
L ondon
() ),
Ġd ynasty
Ġfavour ite
force ment
ĠPub lisher
ĠSong s
z ym
Co in
om eters
ĠM is
Ġlit eral
Ġn ortheast
ĉĉĉĉ ĉĉĉĉĉĉ
ĠPart ners
Ġdispl ays
ĠPro duction
NO DE
ri ors
Ġl ying
ort on
ORD ER
; |
Ġstar red
Ġt ours
Object s
Ġv e
ĠV lad
ĠI F
Ġin quiry
Ġalloc ated
ĠP arent
b ach
f ight
ar ms
Ġstri p
ph rase
b ank
Ġ> >>
Ġcho osing
Ġremov ing
ĠReg ulation
Ġs b
us r
Ġdo zens
ĠE T
Ġtr adem
Ġen roll
Am ount
direct ory
Ġsus pected
Ġdivor ce
ĠK on
LE D
sub ject
ĠG DP
Japan ese
Ġpro pose
B ottom
final s
Ġwarm ing
ĠE ug
k ar
y y
Ġbe er
ibl ical
um ption
Ġp ension
Ġaffect ing
ĠS alt
Ġlegisl ature
Ġex empt
Ġapplic ant
i per
Ġtra ject
ĠSer ver
Ġelim inated
ĠM ach
Ġpremier ed
Ġadvoc ates
ys ics
V ill
ĠÃ ī
ĠT u
IC ATION
f olk
if iable
Ġmask s
Ġinvest ed
C AL
ĠUn like
Ġstake holders
olog ically
21 3
uk i
het or
ur ations
Ġrun time
Po jo
18 65
Ġ' ';
ĠMor ning
Ġpregn ancy
al in
M ass
ĠIl legal
ĠS pect
ĠCost a
Ġmand atory
Ġsubsidi ary
ĠCol umn
Ġgrow s
G rad
Ġpar a
ext end
for Each
ĠArab ic
Ġrel ate
ĠTh or
188 9
gom ery
at ile
ĠP DF
Ġfest ivals
t ouch
plic ity
Ġp atch
Ġe ighth
> \
XX XX
Set ting
Ġse cre
St ation
Ġ$ [
Cal c
ĠAmb assador
L ou
am med
us c
Ġlock ed
ĠH D
ĠPr im
ĠN an
Com plete
Ġwe ights
ph an
Ġhold er
ĠWat son
pol it
om es
f illed
c amp
au kee
g z
Ġden otes
ĠC urt
Ġback ed
ĠLl oyd
D ependency
Ġdec ides
Ġcap ability
ĠCam eron
Cl ub
Ġelim inate
C ALL
ik es
Art icle
Ġin clusive
ol ia
che ster
Ġinvest ing
Ġconven ient
th ood
ĠCont ext
h arm
18 94
Ġut ter
Ġpro x
H ave
Ġin ches
^{ -\
Ġsc andal
ul i
Ġpassion ate
vis or
ver b
Ġexperi encing
Ã ¦
ĠS aints
Ġsl ot
Ġang ular
Ġconf usion
ex amples
SCR IPT
Ġob sc
grad ient
ĠD raw
Ġy eah
ĠRog ers
G P
s ig
Ġfil med
Ġexecut ives
Ġprem ium
US A
Ġassist ed
Ġt orn
OP T
I ES
Ġsusp ension
Ġloc omot
Ġ' .
G M
enti eth
ig ator
Ġte a
Ġelect ro
Ġf ame
ĠFr an
Argument Exception
ĠT ry
Ġm acro
ĠD iamond
ĠHis panic
ĠW ing
Ġstay ing
ke eper
Te am
ĠMc L
Ġgra ve
17 5
18 93
aw esome
ell ers
ener gy
rem arks
ĠP ra
Â »
Ġsim ulations
ĠC elebr
Ġsp ots
Ġimportant ly
Ġun precedented
Ġgener ator
Us age
Ġf isher
ĠForm er
ĠSimilar ly
) ",
c ost
ĠCo q
Ġaccept able
c assandra
ug osl
Ġrecommend ation
Ġhun ting
O ST
ĠArch ive
ĠCreat ive
18 92
Ġv ig
12 6
Ġpro l
Ġfl ower
r ang
Ġpre liminary
ĠJ ama
Ġfarm ing
ĠCom ics
v ance
ĠVictor ian
Ġt weet
ĠEx cell
og s
ke ep
Ġinv ariant
re pository
Ġabs ent
ĠFle et
i eg
ĠP S
Ġar ise
Ġin comp
Ġdeleg ate
Ġch ances
ĠK le
Ġinf ected
cal c
ĠMag ic
S il
re view
Ġanticip ated
ĠNash ville
%% %%
m essages
ĠGu id
ĠN HL
Ġa uction
ĠI R
O fficial
ĠF DA
Ġmix ing
d agger
ĠN um
Ġch apters
Ġwalk s
Ġg race
ĠSm art
Ġoptim ization
Ġst olen
Ġfif ty
Ġp or
out ube
Ġvar ied
Ġf ighter
re po
vel t
L D
L uc
M ad
å Ĳ
Ġ\ ;
ounc ing
å ħ
Ġcomp ound
ĠH ob
ash ing
ĠI C
ograph ics
R a
Ġpr ide
Â Ń
ĠOtt oman
× Ļ
Ġt ang
Ch art
he imer
Ġh ur
Ġwild life
Ġinterpret ed
\ }
j et
Ġgenu ine
t ik
Ġf rames
G ui
Ġlux ury
A bs
Ġcab inet
D IS
h is
Ġmat ched
ĠL E
Des ign
Ġpro jection
Ġcam eras
ind a
Ġab ilities
Ġprint ing
ĠNever theless
Ġemb edded
Ġmir ror
L ead
Ġhor izontal
ĠB ird
us ive
ĠL ion
Tr ump
ĠHol ocaust
ĠT s
ĠEx ample
Ġbi ology
ĠN urs
ĠBre ak
ew ise
Ġacknow ledge
Ġ" [
m k
Ġdon ations
Ġlog o
Ġcompos ers
ort s
ĠB ristol
Str ategy
C ONT
om pass
iz ational
met ic
ĠImp act
IN K
ĠMont ana
d istance
Ġfor cing
j u
Test Case
Ġmem oir
EN V
ĠResult s
Not Found
Log in
M or
lic ations
Ġadvert is
high light
ĠAdv anced
Ġwe ird
ĠEp isode
ÃŃ n
Ġang ry
s chool
ĠI de
Ġgen es
Ġrenown ed
Ġfl our
En v
E ast
os c
Ġtim ing
ĠR uth
head ing
Ġch unk
Ġstri kes
ĠEd wards
Ġlock down
Ġ_ ,
Ġconsult ation
F rames
ĠH ait
ĠF ast
Ġorgan ised
% ),
Ġwis dom
w aukee
ĠPol y
H D
ĠL ud
Ġkit chen
Ġbo ats
ĠBuff alo
Ġharass ment
ĠS oci
Ġcomment ary
ash board
M apper
Th row
Ġr iding
Con stant
var iable
to Be
ĠLabor atory
Ġtour ist
Ġsampl ing
J ud
Ġcomb ine
Ġexclud ed
Ġth rew
Ġcent res
] ))
ist le
l ishes
ethe less
Ġt ribe
uck er
Ġl ucky
d n
m iddle
Ġg est
ĠClin ical
Point s
u um
Ġst abil
ĠM C
Ġconstitu ency
ai ro
Ġpat ron
ĠGu inea
Ġc um
Ġstart up
E Y
Ġor chestra
;| &
Ġde ck
Ġanaly ze
Ġ| \
Ġdiscuss ing
ps y
Ġburn ing
i em
ĠW IDTH
ĠR ather
ĠCo hen
Ġsystem atic
Ï Ģ
r ust
glyph icon
ĠIraq i
ĠHel en
Ġl ens
function s
Ġtom orrow
N or
ĠMoroc co
Not able
alt Color
ĠP ic
plic ate
Ġunc lear
Ġun success
d ing
s at
Ġam bit
Ġcollect ing
ĠRem ove
ĠD esc
Ġpolit ically
ĠCh a
gener ate
ĠE C
ul ent
ag ma
ĠSh op
iss et
ut o
ĠT otal
Ġ( @
ĠSing le
Ġmot ivated
p ad
semb led
ent e
ie ge
g rav
pos ing
ĠCol lect
* {
Oper ator
ok a
Ġproceed s
rac ing
ik o
Ġp ian
13 4
ĠBeng al
Ġqu ot
ĠC incinnati
ĠClass es
ĠE state
Ġ( ,
set up
ĠR ing
ĠUn iverse
Ġ" .
A z
ĠS ug
I ss
ĠJos Ã©
F n
ĠSpe aker
Ġguarant eed
ĠC ounsel
Ext ra
ĠNot es
Ġfast est
ĠColumb us
ĠK o
W el
ĠB egin
Ġsh aped
3 20
gh ai
de ep
Ġs its
Ġf er
Ġnom inations
Ġh itting
ĠHoll and
Ġwrit ings
o qu
ĠPl us
Ġbi ography
_ *
Ġj s
Ġne arest
Ġpos it
comp are
ĠResp ond
Ġwithdraw al
Ġpartnership s
Ġencounter ed
Ġemp ire
Ġconsult ant
script ions
Ġf ur
ĠF ul
Null able
ĠL ithuan
n ative
Ġstream s
66 66
ĠAm sterdam
Ġm amm
ĠS ony
bour g
habilit ation
ĠH us
ĠS old
M ary
n ob
Mean while
Ġ ion
ĠWAR RAN
hol m
ĠP romise
Ġ" '
# {
w arn
Ġurg ed
w art
> )
M ont
R ot
ĠHel p
Cond ition
ĠM ak
all ing
Ġviol in
ĠB order
Ġn ep
Ġpo ison
Ġprevent ing
t z
ĠFe ature
Ġin duced
18 91
IMPORT ED
Ġto k
18 61
ĠGrad uate
Ġrot ate
Ġf reed
C AR
L ater
ell ion
ĠD od
Ġscen arios
D rop
Ġrep ublic
Ġ$ $
l ower
Ġ< -
Ġsaf ely
ï¼ Į
Ġgrad uation
188 5
B IT
c ock
ilib rium
li ers
Ġcompar able
Ġreason ably
ĠP le
Ġass ists
J ose
ĠI celand
FI ELD
t ok
ĠCurrent ly
Ġelder ly
Ġde com
Ġcomp elling
Ġinter active
ĠYork shire
Ġun ve
Ġactress es
spect or
v ation
op al
Ġ" >
pl ant
Ġprote ins
ĠĠĠĠĠĠĠĠ ĠĠĊ
str ument
us p
stit u
exp ression
Ġtra uma
Ġcon ce
ĠR ena
Ġliber ty
big g
Ch ris
Ġposs ibilities
p ages
ĠA irl
c ourse
T y
b oth
WE BPACK
Ġstead y
r r
ĠP ont
Ġdifferent ial
Ġmark er
Ġrock s
Ġav iation
g em
Ġarch ive
ĠB our
Ġadminister ed
ser ial
ĠB ald
Ġdisc ount
os er
om i
ab we
Ġhost ing
ĠC F
uss els
ĠSerb ia
ĠStat ement
Ġn an
assert True
ĠD im
Ġsculpt ure
Ù Ī
Ġre construction
ĠDem ocracy
Ġde ce
Ġok ay
jack son
Ġrat ings
Ðµ ÑĢ
F uture
ĠCon n
ĠK ay
Ġm ild
The me
Ġsettlement s
ĠElement ary
Ġs hed
Ġfund ra
ĠQu est
C md
ĠM end
Ġed iting
Ġdis par
t p
su fficient
Christ ian
: @"
ose velt
Ġde leted
ĠAthe ns
Ġwant ing
lement s
az i
ron es
Ġspect ral
ĠC T
Ġthe sis
ĠPier re
Ġt issue
Ġassum ing
ĠA pr
Ġsh orter
F OR
Ġcalc ulations
ent o
Ġre vel
Ġcur ves
Ġh ire
Ġburn ed
ĠA round
ĠT arget
Ġrespect ed
ĠEl li
ĠW onder
Ġfor um
Ġperform s
SO UR
ĠBas ic
Ġsoph istic
ĠS A
Ã© n
ĠÃ ł
ĠP red
Ġd ump
up id
Ġnot ation
orient ed
ĠD ra
Sh ared
is o
Ġext ensions
Ġflex ible
Cont ents
14 5
C ounter
ĠR acing
And roid
F ar
ĠNe uro
Rem ote
, [
Ġj e
bo ost
Ġgrav ity
Ġhar vest
Ġquarter back
Ġs ync
Ġdebut ed
ĠM ol
b rit
ĠK ids
can vas
ĠAn cient
ĠL ate
ĠN PR
li bs
" },
Ġdr ives
ĠAct or
ult an
ĠV A
? )
Ġcompet itors
ĠB right
ut ing
AP P
com ed
Ġ Ñģ
Ġg aming
Ġnorth west
Ġd iver
13 6
Ġcorrespond ence
ĠJ a
Ġat omic
un ches
Ġa qu
Ġfor ty
em por
od ec
ĠTest ament
R ate
Ġv ectors
ĠPre vention
18 64
A SSERT
ĠF L
Ġearthqu ake
ĠLe ave
Ġcous in
ĠPer u
ĠD raft
Ġb ug
Ġcontin ent
T ur
ĠHar bor
F i
ach t
tr l
ist ically
n l
Ġend e
ĠK itt
Ġtyp ed
man agement
em it
d ark
pro duction
view port
G roups
Ġdistingu ish
ĠNob el
un ing
const ant
Ġhol es
ad vant
Ġup set
LE MENT
Ġd ense
ov ic
Ġt d
Ġnation ally
Ġh ung
pre c
Ġdiscret ion
ĠâĢ ł
Ġmiss ile
ĠPhill ips
Ġdu o
ĠCont ract
ĠR isk
Ġthere of
Ġg ear
Ġreal istic
cont ents
CO UN
Ġad verse
erv ous
imb abwe
ĠM atch
Ġen semble
dr iven
Ġneg lig
ab c
F ac
ĠS ales
ex pl
Ġj ack
Stand ard
i u
Ġcoe fficients
sw ing
Ġm ature
Ġ{ },
ä ½
ĠS end
ĠG host
) }(
Ġcogn itive
au i
Ġexcell ence
ibl ings
F ocus
), \
Ġl on
Ġansw ered
Ġen abling
ĠS W
Ġl ingu
ĠDer by
ĠN athan
Ġrestrict ion
ĠM I
ĠOther s
g ies
Ġtremend ous
in ion
r ules
ĠC ome
Ġa ug
io x
ĠQ ual
Ġpro secution
ĠMe chan
1 19
f ers
External Task
ur ring
A xis
ĠEmer gency
ac a
Ġwe igh
Ġhum or
Ġconfer ences
Ġbare ly
ĠHar vey
Render er
V AR
am bers
Ġbl ess
as ures
HE AD
f etch
econom ic
land o
Ġbusiness man
ĠInstit ution
Ġ$ _
Ġund ers
Ġsp here
Ġtr agedy
UB LIC
Ġo sc
Ġinvestig ating
Ġret reat
aster y
Ġsec ular
Ġch ains
c reat
Com put
ĠK id
ĠAg es
\ _
ĠEm ily
ĠB ir
ExternalTask Pojo
ĠP L
ĠL ot
Ġsubstit ute
ĠS yn
ĠId aho
Ġphysic ians
ĠE ld
Pr imary
T ri
V C
ĠReview s
Draw ing
requ ency
pol y
Ġo ught
ĠS ierra
Ġgalax ies
ĠAppe als
ĠG aza
Annot ation
b inding
ley ball
M essages
C amp
Ġt err
Ġg entle
Ġforg otten
ĠP ython
ĠN ancy
ĠP rison
n of
ĠC ell
s afe
Ġconver gence
d ie
Polit ical
V O
188 8
Pro duction
Ġman ages
ĠS olar
ĠP ref
ĠCh apel
Ġfif teen
Ġinn ings
Ġl unch
Ġdep icted
Ġ ----------------------------------------------------------------
d irection
Ġany body
Ġharm ony
M aterial
Ġt ape
Ind ia
Ġinterview ed
ĠS oph
Ġt ut
40 4
Ġan throp
In f
Am ong
Ġstrugg led
G overnment
Ġpredict ions
ro v
Ġaffili ated
L and
D M
t f
Ġlisten ers
Ġcreat or
B ul
Ġtrad ed
ĠVerm ont
Ġpl acing
Ġg ig
comm it
ĠM ail
Ġs ys
H am
SS ION
Ġisol ation
ĠInit ial
ĠD atabase
M el
ĠTr uth
V irtual
ĠArn old
ph oton
Ġmer ch
Ġele ven
amp ed
rt l
ĠT ak
ĠF ish
St atic
Int roduction
ĠT on
ett ers
Ġste pped
ens itive
HO ME
ĠE le
roll ers
re z
ĠL I
ĠY ang
Ġbe ating
ĠCont act
ĠSand ers
( ()
ĠA ra
M ur
Ġro ster
ĠH E
": "
ĠCom par
second ary
Ġambit ious
^ ^
int o
S ame
Ġmed als
Ġdemand ing
l ia
Ġtrans parency
Ġfight ers
umb ent
Th ose
f ef
16 5
Ð° ÑĤ
Ġcon form
Ġw inds
"> (
ĠOak land
12 9
Dan iel
ĠFour th
st eps
ĠIss ue
Ġrefer endum
Ġdead line
UMM ARY
Ġprem ises
Ġc argo
ĠR achel
top ic
Ã¨ re
ĠHop kins
al ter
ĠAv iation
Ġsur ge
E val
g row
Ġrel atives
Ġbel oved
Ġpredom inant
Ã© r
ĠPar ish
/* !
ĠC ob
ĠPro file
ĠP icture
m os
et ter
J im
asc ular
ĠI van
Ġor che
F ollow
Ġpursu ing
G reat
he w
ash a
ĠAct ive
Ġde alt
Ġtri ps
Ġbox es
> %
AT OR
> "
." ""
Ġsac red
Ġrecip ients
ĠB ass
ap est
Ġexpl ored
B T
Ġsatisf ying
f act
ex cept
ff f
ĠS U
12 34
s ized
Rad io
Ġne ural
Ġconf used
Ġcon clusions
Ġf u
Ġn urse
ĠW a
agn etic
Ġprevent ed
18 63
en ue
r and
ĠS ax
Ġadv ances
ĠMont gomery
Ġsure ly
B ER
th rift
for all
b p
ĠC au
at um
Ġsil ence
ingu ished
ic ism
ĠB irth
Ġsubstant ially
c est
Ġmult ip
f mt
f ake
ath y
Ġm aj
ma pping
ĠD ennis
h all
Ġgrad ient
' _
enc ode
ah u
Ġhe ter
j ab
Ġtradition ally
Ġenc ompass
ĠNov a
friend ly
ĠB eyond
Ġd iamond
ĠT ournament
Ġinf ring
Ġn it
Ġmathemat ical
Ġintrodu cing
cont act
Ġsepar ately
ĠE SP
Res earch
ĠInter view
Ac cept
ĠAthlet ic
ĠI gn
ĠM ong
W IN
sen al
ĠMethod s
Ġup grade
Ġthe rap
Ġext ending
du ctions
Ġgold en
Ġqu eries
Ġen umer
Ġesc aped
Ġp uzz
re p
o il
Ġprot agon
Ġsett le
Ġver b
Ġlic ence
Ġcirc ular
ĠE ve
Ġplay offs
ent in
^ -
il ia
Ġport s
Ġal ias
~ $\
ĠRel igion
Ġd ictionary
ĠP ick
ĠPresident ial
F eed
Ext ensions
ĠTerrit ory
ene ath
Ġeconom ies
Ġview ing
Ġcollabor ative
ĠM ade
n ut
ig nt
ĠN ar
**** **
ĠNep al
d k
ĠH at
Ġinnoc ent
N V
Ġs ql
od o
M o
ĠCl aim
Encod ing
Ġam plit
Ġtempor arily
Ġarr iving
ĠR alph
co ord
188 7
V ICE
Ġp ose
r h
}} (\
ĠS ummary
Ġin hib
ĠAnt ar
Ġsent ences
cer pt
18 62
Ġ-- ></
ĠĠĠĠĠĠĠĠĠĠĠĠĠĠĠĠĠĠĠĠĠĠĠĠĠĠĠĠĠĠĠĠ Ġ
LE S
ĠEconom y
w ind
ĠV oice
Ġdraw s
com put
ĠST ART
Ġed itors
H or
Ġbr idges
Ġcl usters
rem ark
Ġcoupl ed
Ġv ic
l ab
Ġprohib ited
et ta
/ {
Ġ} \
ne apolis
ĠB aby
Ġsacr ifice
Ġlight ing
Ġcomm ittees
Ġmyst erious
ĠConfig uration
com pute
ĠWell s
Ġf mt
Ġcheck ing
Ġcoll ision
t l
Ġaltern ate
Ġun cle
m usic
Ġaff air
Ġden y
Ġjust ify
Ġmain tains
inn ed
Ġshift ed
sh aped
Ġdiam eter
E ffect
Ġmus cle
ens en
Dep recated
Ġval ued
Ġwitness ed
pub lished
tik z
Ġexpl ores
188 6
in ent
Ch ain
ent ine
rypt ed
t ed
am ination
Ġvari ants
Ġpursu it
aval ry
g al
Ġinv ention
Ġredu ces
ĠCamp us
ĠCo ach
ĠBelg ian
ĠB omb
AC CE
Ġint ens
pro port
ĠPro gress
ĠBar ack
Ġmount ed
ĠF iction
ĠR ole
ĠM ann
ĠSoc cer
se lection
Ã¶ r
Ġweak ness
ĠL ov
Ġpers pectives
run ning
Ġsports people
Ġdig it
P ut
55 5
oc hem
T imer
Ġ" %
Ġfinal s
j or
ĠW u
Ġsm oke
Ġdiv ide
R andom
17 6
Ġend point
Ġir re
ĠMin or
ĠH em
FF ER
ĠLat ino
ĠF ilms
ax y
h um
ĠC ricket
B ound
ĠR angers
Ġs ocket
Ġimp ose
Ġgraph s
IN ST
ĠRo osevelt
Ġmort ality
z b
s pl
Ġb ail
STR ING
ĠApp end
Ġsouth west
load ing
Ġrac ist
ov ich
ĠSo on
Ġtw in
Ex port
Ġinter mediate
is i
ern ess
Ġaccommod ate
ĠR aw
Ġpublisher s
Ġ[ âĢ¦]
Ġrenew ed
) },
Ġtour ists
Ġhero es
ĠM illion
h aw
Ġcannab is
Ø ¯
.* ;
intend o
Ġvolunt ary
n os
B etween
Ġl uck
Ġpat rol
del ay
Ġal pha
ĠEnter prise
Ġind ices
m ers
am o
fef efe
G od
DE F
Or iginal
ĠAng lo
ĠHug hes
Ġst y
res ize
ĠTig ers
Ġl aser
ĠR ou
Ġmodel ing
ĠLeg end
R ows
Ġext ensively
lim ited
ĠM E
Ġ æ
ĠBob by
rel ations
ke es
ced es
Ġpropag anda
Ġtra iler
Ġcapital ism
The refore
ĠTr inity
Ġimp ressed
oc ide
Exec ution
Ġhand ful
se ctions
u pt
Ġbon us
Ġreg iment
Ġimm un
get Id
Ġmod est
Ġadvis or
st ad
Ġdi abetes
Ġs el
ĠBenn ett
k l
ĠO pp
Ġdistinct ive
Ġprior ities
Ġadvis ory
ĠGet ty
ĠAr med
per p
sh are
m ms
16 8
ĠAl t
Ġcomp iler
ĠG T
ĠHol mes
Ġdis contin
Ġwork shops
ot ypes
Err ors
Ġr ic
anch or
Ġb acteria
iz a
CO M
omorph ic
f eld
ĠWall ace
Ġcor rupt
Ġke en
Sm ith
Ġmat rices
Ġd ancing
( .
ĠG rey
mem bers
Ġadvant ages
Ġ' %
Ġgovern ed
Ġdemonstr ates
Ġdis able
> ;
It alian
Ġmortg age
ress ions
Ex pect
Ġshare holders
ĠS ession
ĠL is
Ġexhib itions
Ġcoupl ing
L ib
Ġbar rier
ĠCh an
ĠBut ler
Miss ing
ĠG raph
String Builder
com fort
ĠL ex
C ross
et ed
Ġdim in
Ġint im
Ġ' ',
Ver ify
Ġg ifts
ĠR osen
ĠId ent
f ac
RA Y
ĠEvery thing
ast rop
( ['
G RO
el ly
uk a
13 7
i ary
ĠT odd
Res olver
ĠFlore nce
Ġdemand ed
Ġdecre ased
gar ia
C ulture
ĠLet ter
un ting
ĠH az
ĠK ill
Ġpres idency
Al bum
ĠMun ich
STAT US
Ġ( ),
Ġal arm
ĠRoc he
) {\
Ġver se
) _
Ġf older
I ll
f b
Ġs outheast
r ors
ĠHor se
Ġexped ition
Ġgot o
i ov
w ikipedia
ick ed
cl ock
ub a
ĠRe yn
Ġmar ijuana
ĠS hip
Ġfilm ing
Arg uments
d al
ĠBl u
Ġfear s
Se ason
ĠBer g
on ian
Ġdist ant
att ed
Ġwel comed
Ġphil anthrop
Perm ission
F ailure
Ġstat utory
ut er
Col lect
ĠF u
P an
s it
Ġbenef icial
ĠC ir
ol ine
Ġ um
Ġtim estamp
element s
ĠSumm it
RE CT
link s
ou p
H uman
Ġt ends
ĠLaw s
Th ough
f ar
Ġlik elihood
Ġmix ture
ĠS or
ĠB ot
x FFFF
Ġwork shop
2 10
Ġdet ention
ĠDr agon
Ġtra fficking
ĠComp anies
Ġig et
ĠCong o
Ġpre jud
ĠCO L
ĠRena issance
ĠP erm
ĠF ix
Ġprov inces
ĠRe ed
ĠLu is
BU IL
Ġth ir
ĠSt uart
Ġinf ect
Ġsub mission
c apt
ĠV ic
_{ -
ĠSh are
C ursor
ĠU P
B atch
å ¤
min ster
ĠSocial ist
è ¯
ĠEag les
Ġche st
Ġf ram
Ġt une
ĠC ox
ers et
Ġoccur ring
Ġk in
iv o
S elf
uck s
Ġtour ing
ĠWood s
Ġcir cles
sub subsection
ĠB urg
pro f
188 1
if ference
Ġhe aven
Ġ{ %
ile vel
13 3
ĠC ant
ĠF oster
ĠWeek ly
p ine
ĠCom edy
188 4
ĠS R
ĠW rest
Ġpert urb
ik ing
ben ch
Ġint rig
Ġexpl aining
Ġte eth
Ġprodu ctions
ĠL ux
Ġspokes man
ĠPut in
Ġend orse
su pp
Ob server
ĠEncycl opedia
Ġsc ar
C HECK
Ġcomput ation
Ġfl uct
Ġl ady
Ġrefuge e
Ġmist akes
Ġatt orneys
Do ctrine
tim estamp
[ (
Ġare na
eg an
at able
Mon th
ĠHar per
ĠN HS
ĠB ear
Ġreal m
Ġfle e
m un
K it
Ð ¹
Ġinvest or
ĠPrinc eton
Ġm igrants
Ġodd s
E conom
B road
int ell
Ġjo ins
AS K
ĠProt ocol
p matrix
iz ar
N UM
rem ote
ynam ics
ĠRod rig
Ġplace ment
EE E
ĠPrad esh
N I
21 1
ĠCan al
15 5
Ġtri ple
Ġwar fare
ogene ous
Ġad s
188 2
Ġmer chant
L iteral
com plex
Ġdead ly
ĠGen eva
ĠW ait
W ashington
get s
ĠFr ances
is se
ĠC ad
Ġpoint ing
ĠA id
ĠForm ula
el astic
ĠG oth
ignt y
.. ."
Ġenjoy s
Ġosc ill
ploy ed
LA Y
ator ies
Task s
ĠO t
Comp at
ĠSher iff
ĠC ould
ĠE ston
D irection
sl ide
Ġp ole
Ġred irect
ĠLeon ard
ĠS UMMARY
ĠY u
Ġconsult ing
ĠPark s
Ġmunicipal ities
as se
Ġa ria
ment ion
Ġover flow
ĠO P
Ġless on
ĠL ions
ĠAr ctic
T ON
to o
Ġre lying
Ġchampionship s
is ch
Ġgrad uates
Direct or
ĠTh read
3 30
od ia
sm art
ĠV ision
em a
Ġdisput es
ĠVAL IGN
ĠS ox
Man agement
Ġt anks
ĠK ash
ĠD ig
Ġmanufact ured
Ġf ut
N AS
h ind
Ġbu ff
Sim ilar
[ -
Ġst ellar
ĠV ery
Ġb ab
p kg
ĠH il
p her
Ġclass Name
P rom
Ġde port
t ax
Ġf iber
ĠAthlet ics
ĠOver all
inc orporated
ch at
ĠD rama
ce iver
Ġcro ps
ĠLegisl ature
Sc hed
ĠTib et
Ġper f
ĠCab inet
re lation
Array List
Song s
cur s
ĠCom b
ĠCoal ition
: '
ĠPl atform
TH ER
Ġbur st
om ething
Ġsort s
ab ol
Ġrom ance
S ir
pro b
ĠB udget
ĠO bl
AT TR
se cret
ĠP att
T AG
Res p
bor o
Ġall ocation
W alk
On line
Ġsw ing
b ast
as ma
et own
ĠEm ma
Dep th
Ġun iqu
Ġra ises
ĠHar old
ĠK ur
Ġun necess
Ġtact ics
Ġag rees
Us es
ĠHer bert
ĠGreg ory
ic us
R UN
ĠG olf
ĠTy ler
an mar
13 2
el ia
Ġas ylum
wp engine
ĠY e
Ġg aining
intell ij
Ġa thlete
mit ter
14 3
5 000
ĠPlan et
Ġconj unction
Ġam ateur
F ire
Ġr hetor
ĠA w
d ied
S plit
Ġbr ig
ĠD j
ĠShan ghai
Tim estamp
Ġint elligent
Ġdeterm ines
Ġcol ony
or f
ĠG az
Ġplay off
ili ary
Ġexplos ion
ew ay
ĠProgram me
Ġap olog
ĠMc Donald
rict ion
Ġc ategor
Ġinter ference
Ġmob il
ink s
ĠOther wise
ĠB ath
Ġinitial ize
m ass
Ġatt itudes
u uid
G EN
Ġbe ars
Ġlast ing
L ove
Ġide ology
ĠGl ass
Ġimag ination
ĠBrook s
v endor
Sign ature
ĠOut put
ĠAirl ines
Ġkill er
Ġsh ield
Ġh alt
ĠCons umer
Ġfil ters
J on
Ġrad ar
ĠĠĠĠĠĠĠĠĠĠĠĠĠĠĠĠĠĠĠĠĠĠĠĠĠĠĠĠĠĠĠĠ ĠĠĠĠĠĠĠĠĠĠĠĠĠĠĠ
Ġaccommod ation
Ï Ĥ
Ġspec im
Ġn ervous
stats models
ĠB und
Ġd atasets
s r
Q ual
Ġkid n
t le
Ġsp ell
3 000
Ġrel uct
Ġc ave
D er
Ġnot ify
Ġtext ure
Ġentreprene urs
ub er
Ġste ep
Ġst rain
e ur
b inary
Ġpresent ing
> ()
10 24
Ġrese m
Ġblock ed
Ġopen ly
ĠTerm s
Ġproduct ive
Ġdefend ants
13 8
Ġprotest ers
Ġte aches
N a
av ier
Ġbl ues
R ock
Ġa ux
ball o
ĠK ind
Ġg rey
ad ows
at ra
Ġin cons
ĠY ugosl
Ġconst ants
is ive
Ġcont rolling
Ġw rap
G T
Met rics
Ġapplic ants
ĠÐ ½
ĠD aw
Ġtr illion
H y
Ġpolynom ial
Ġcreat ivity
ĠPear l
Ġpra ise
valid ation
Â «
Ġrec ycl
m ov
Cons ider
à ¦
ĠS L
Ġshould er
Ġpure ly
ul ing
Ġac oustic
Ġe ager
Ġtr im
Ġsol ving
Ġout s
ĠQu ery
ĠT rain
ĠK il
N amed
Î ·
Ġref use
ĠHu gh
) ^{\
ĠGl obe
Ġf ires
UR N
Ġl ap
ĠConfeder ate
as ive
g ie
Ġamend ments
> '
Ġfre ely
ull ah
ĠJ ur
Ġinter ven
ĠCorpor ate
Ġinaug ural
ĠR ice
ĠF oot
ro d
With out
j oint
ĠComp etition
V R
Ex per
ĠVis ual
fr ag
ĠL ives
ĠW I
5 12
ĠPhys ical
ĠY O
ĠCh ap
Ġr ated
Ġch rom
Ġle an
QUE ST
Ġinter im
ĠLe o
Ġal ike
ĠS ullivan
ĠH av
Sep ar
m oment
Ġn ic
ed uc
ĠN uclear
Ġf el
d id
Ġbad ly
Re ception
Ġflex ibility
car ballo
ph ase
Ġarg uing
Ġc iting
Ġaccept ing
> ../
ĠGl en
def er
Ġcomp aring
H older
Y eah
Ñ Ĩ
Ġgu ided
Ġrepl ied
ĠEthiop ia
H aving
Ġequ als
Ġtort ure
fr ast
she ll
Ġan th
Ġph ases
Ġm ac
ĠT error
ĠIsa ac
l oss
ĠH ur
ĠBet ter
ĠZ imbabwe
Ġpo ets
l b
ĠN om
Ġc attle
Ġc ached
ĠM ul
ĠJ S
T ake
T or
ĠC L
Pro to
ĠTun is
Ġar ising
Ex pected
app le
Ġrid ic
Ġas h
T ouch
Ġs ake
U pload
ar ound
Ġacc us
22 5
AR S
ĠD ol
angel ical
Ġgrand mother
Ġquant ities
Ġpower ed
ĠMil waukee
ĠV as
V IE
Ġthr iller
Ġreg ards
Ġin cl
pat cher
oph one
ĠS um
ĠArt ists
m ac
ĠAr c
Un ivers
ĠJo an
ess a
Ġloc ality
ĠMar io
ĠP in
LE TE
ĠCub an
ator ial
Column s
ĠRh ode
L oop
d anger
ĠA B
Ġun anim
var i
Ġneighborhood s
Ġc b
Ġroll ing
Ġil leg
ĠDe al
Ġexpect ation
ĠB ach
h istor
B er
C ost
Ġan ime
Ġmot ivation
Ġcorre ction
ĠS ah
ĠZ ion
ro at
B ounds
l int
Ġse eds
Ġcourt esy
And rew
ch air
oc y
ĠCom plex
Ġtok ens
r pc
Ġout lets
bre v
Rep ublic
om p
×ķ ×
Ġtarget ing
ĠPalestin ians
IL ITY
R ay
S ort
Ġf etch
Ġfin anc
Ġch at
Ġac ute
ĠJul ian
Dr ag
CO MM
con vert
LO W
Ġexhib ited
Ġm asc
Ġplace holder
Ġw rapped
ra its
Ġg raphics
ris k
ĠPen insula
Ġtox ic
ĠM ills
D ou
refer ences
Ġart work
ĠD M
Name Link
ĠAzerbai jan
ut ton
An alysis
ĠH um
Ġunf air
Ġtreat ing
ĠMov ies
Ġdisappe ared
13 1
ĠBre xit
ĠDe lete
al ias
Ġhar sh
Ġheart s
I l
k n
Ġsever ely
20 3
ĠK EY
CON FIG
Ġsens itivity
er als
Int eg
Ġun ited
B g
Ġcent ered
Ġappe als
M ov
unk nown
15 00
ĠBuddh ist
Ġf s
over nor
f older
e i
RE SS
Ġsur faces
ãĢ Ĥ
U ntil
ĠKe ep
c ours
ang ered
Ġattack ing
ĠCh o
Ex pat
at io
am ount
ĠProgram s
ĠG ene
ĠC risis
ĠRe agan
C a
ĠW i
app rop
Th ank
L EN
Ġmother s
Ġpro pri
red irect
Al pha
ĠReg ulations
m ys
All oc
im mer
ĠJ ar
Ġcomp assion
sp ired
F ort
Ġthere after
= %
N R
ĠH ab
Ġgalax y
ĠMin neapolis
ovak ia
Ġflo ating
ĠS creen
Ġbomb ing
ĠR AF
Cont ains
Ġdraft ed
Ġrece ipt
get Instance
Ġatt ractions
Ġpres ervation
ĠD R
ĠL it
27 0
ĠI ter
ad oc
sem bl
Ġpl ed
Ġse ized
ĠDub ai
Ġaud it
fr agment
othe rapy
w ire
Ġl attice
ĠOtt awa
Î »
ev ille
ĠBro s
* ,
T uple
Ch ief
Ġpri ests
Ġz ones
ĠR aid
ĠLuc as
Ġvis ibility
Ad v
Ġcul min
M AP
Ġaff irm
Ġkil ometers
21 7
U ES
ĠW ag
Count ry
Ġf ract
Add r
Ġs ends
Ġfound ations
ur rection
ub s
Ġinv ented
I ME
ĠCal c
ĠL an
ĠU E
ĠM BA
eg al
Ġen zym
bl ob
188 3
ĠR idge
13 9
column s
ĠBel arus
Ġpenal ties
t age
Ġapp ell
Ġ" ${
k an
c ref
Ġfor b
aint ed
f av
ĠCirc le
20 5
Ġcert ification
Ġthr one
Ġdis advant
ĠR ey
er os
Ch inese
Ġsk i
Option al
ĠT OP
Ġemb race
Ġout line
Ġhot els
Ġf itness
Ġdram atically
Sever al
âĢ ¯
Ġph ones
ex ecut
ĠStand ards
en o
Ġw ings
ĠLem mon
Ġgr at
Ġhom osex
c aster
Ġins pection
Ġart ic
ins ky
ale y
ĠC lean
ĠP owell
ĠArt icles
Ġqu it
ĠJ son
Ã¡ s
Ġprison er
ĠInd ies
V ec
ĠM ental
intend ent
ĠVeter ans
Ġres id
Ġent ers
Ġspread ing
ĠU ntil
Ġn inth
Ġpro files
Ġscr ut
Ġc yl
Ġh yd
Ġpaint ers
Ġmeas uring
14 6
Line ar
Ġd ish
Ġfe as
ĠM aking
blog spot
aj a
ĠE sp
po inter
ĠB uch
Ġbut ter
pr ising
Ġderiv ative
20 30
ar ians
ĠD I
oc o
ĠMult i
~~~~ ~~~~
ĠP ain
ĠU TC
Ġadd iction
Ġcongress ional
Ġorig inated
ĠP os
repe at
z ant
ĠI BM
od s
ĠChel sea
_{ {\
Ġsport ing
Ġun lock
est ing
ĠUn less
L em
Ġdist ribute
ĠAdd itional
ill es
Ġdef ended
M ike
au nd
ĠY emen
gener ator
se en
S witch
ĠVen ice
ĠCom mercial
Expat riate
sol r
umb ai
or um
od ore
Ġgrad es
r us
ĠU til
ĠQ atar
i ator
boy s
W ater
Ġconfident ial
Ġreason ing
ĠK un
art et
ĠK aren
get String
B ob
S uch
Ġrel ates
Ġ uri
T imes
Ġ rib
ĠSp ot
ĠSp ider
K ar
add y
g if
Ġfar ms
ow ing
Ġsmall est
Ġcart oon
n m
18 78
Ġre nov
m ans
ac ies
ĠCre ates
att ing
ces ter
Ġimpact ed
Ġim aging
t v
Ġfood s
Ġbankrupt cy
Ġasym pt
Ġsens or
lear ning
ol ics
SP AN
L icense
med ium
ĠLe eds
Ġimprison ment
ĠCh and
Sh ader
Ġh anging
21 5
Ġamb assador
Ġneighbor ing
æ ķ
Ġden om
Ġprot otype
C ategories
oll o
ĠWild life
M achine
U AL
Ġf iring
Ġdou bles
ĠBi ography
Ġprompt ed
Ġegg s
Ġsophistic ated
ĠSche dule
O cc
Ġgard ens
Ġc emetery
pr us
Ġrel ay
H I
qu ant
) _{
Ġundert aken
Ġpharm aceutical
ĠA uth
V ict
yl an
================================ ================================
Ġm ines
20 8
Ġimport ed
Ġess ence
Ġtrib al
ĠOC aml
ym ph
Ġexha ust
ah an
ĠO w
ob serv
log ging
ij i
Ġp iv
Ġan onymous
Ġcl one
Ġwe aken
ĠPart icip
Ġhol y
Ġpack et
Ġ+ \
Ġb ay
ad ers
Ġor b
ĠB ened
Ġmob ility
unt ed
Ã³ w
Ġp ic
ol er
Ġpal ace
Agg reg
per cent
ph is
ĠA ber
ow der
ĠD ame
Ch o
Ġac claimed
ov an
ĠDecl aration
Ġcur ious
eff ective
Ġi Phone
ĠArg ument
Ġanalys es
brit ies
Ġb arg
Ġvalid ity
Ġsh ame
}$ -
ĠH O
if i
F il
PRO C
18 76
> ${
it ational
ĠĠĠĠĠĠĠĠĠĠĠĠĠĠĠĠĠĠĠĠĠĠĠĠĠĠĠĠĠĠĠĠ ĠĠĠĠ
Ġc ens
Ex pl
k ed
ĉĉ ĠĠĠ
Ġnecess ity
al ym
Work er
ĠS ave
Ġrespond ents
ĠB R
Ġp our
Ġstraight forward
ring ton
N P
ĠBi ology
Ġmod ification
re ts
. (
ss l
Ġvis itor
Ġr amp
le en
Ġwh ites
eng u
Ġde pr
Book s
ĠUg anda
Ġstock s
ĠPeters burg
frast ructure
ĠAbb ey
ro e
ĠEdd ie
b ug
\! \!
el ong
Ġcred entials
Ġemb ark
B ool
ĠE ight
TI ES
ĠOr lando
;" |
TO M
Z one
per iod
Ġexc av
Ġbelong ed
ĠDO M
ĠChem ical
ĠG and
Sche dule
Ġsc aling
ĠGener ation
ish a
ounc ill
Ġquestion ed
char acter
c z
16 9
ĠSp encer
H ouse
ĠTh an
ĠAd ult
om al
pos ite
ĠS ans
B us
Ġc rop
Ġdefe ating
Ġsoc io
Ã ī
air y
lin ux
set ting
CC ESS
in cre
Ġfunction ality
struct ure
Ġfaith ful
clud ed
ĠR av
ĠFellow ship
ĠKaz akh
ĠAn imal
Loc ale
ress es
ĠL ords
Table Row
u ced
un lock
work ing
Ġenc oded
h ad
Â ½
ĠFinn ish
te chn
ct ree
Ġpreced ing
bar rass
Int ent
ĠMus ical
om eter
ĠCar r
å Ĭ
Ġbuck et
ĠM aced
ĠGil bert
}} ^
Build ings
Ġcontact s
Ġcrow ds
Mark er
Ġne ur
f p
Ġdesign ers
Ġs iblings
Ġhe aling
18 71
ĠGram my
Ġto b
ph ones
Ġn ights
cont rolled
ĠL INE
i ens
}^ *
sc apes
Ġiter ation
ur as
Ġimm igrant
act ual
ĠB ris
ri ke
Ġexpect s
Ġd st
mod ern
Ġb ike
ele brities
BO OL
Ġmart ial
rel ative
at em
ĠR ac
ĠBuild er
st rip
Ġcomp ounds
(' <
Ġess ays
ĠPot ter
ĠMunic ipal
S K
u its
Ġ& #
ĠSpace watch
Ġmolec ules
15 2
ĠBr ussels
ĠNorth west
Ġcal m
Ġsymmet ric
Ġdesign ation
ig m
Ph ot
C V
á º
Av ailable
] }
Ġc ig
amazon aws
Ġh orn
Ġdes erve
v or
Ġw ard
uls ion
Ġ| ___
Ġproduct ivity
Ġalter ed
Ġw ore
ĠA bs
14 7
Ġwrest ling
Ġperman ently
create Element
Ġrele g
Ġrhyth m
Ġat oms
e cca
leg iate
Ġp s
Ġ Ø§
18 40
Ġalign ment
IM IT
xFFFF FFFF
ĠM idd
Ġperm its
Ġr ice
Ġcop per
Ġathlet ic
È Ļ
ĠS z
ĠP anel
Ge ometry
Ġland mark
BA SE
ast ics
[] {
Ġf itting
Ġdeg rad
Ġprotocol s
R ound
Ġtr agic
Ġbas eline
Ġdepend ency
Sm all
Ġemb od
ĠCl ose
Ġaut onomous
ĠO ptions
ert on
Ġdis crete
Ġf its
Z ero
ing ers
run ner
ced ure
Pr im
Ġkne e
m or
Res et
cf g
P ad
S ide
Ġdis rupt
Ġthrow ing
Ġadministr ator
Ġcontinu ously
ĠJer emy
ĠG ospel
Ġart illery
Ġap ilevel
igh bor
ĠRe ports
ĠHer z
b usiness
Or igin
Can ada
>< !--
SOUR CE
it ary
14 1
Ġresign ation
or ro
st ation
ĠH amb
ut ral
ub ern
ĠCh i
Ġelev ated
ĠBat man
Ġed itions
ĠE val
ĠEd ge
Tag ged
Ġfle w
en os
ĠWe ather
Ġadjust ed
anc ers
m itt
Ġatt raction
product ive
} )$.
urch ase
H ook
Ġdiv ine
Ġhapp iness
Ġsett lers
ĠM ix
Be en
L o
Ġab oard
ĠAl lied
bro ok
Ġre vis
ĠG ates
Ġdr ummer
ĠA F
b ane
Å Ħ
Ġsh ifts
Ġport ions
gr and
S ar
oc used
Ġworld s
ĠProtest ant
Ġb uses
be ans
Ġback up
ĠMot ion
Ġh iring
arn ings
Ġfound ers
ress ing
ĠLink ed
Ġaccompany ing
PH P
! )
M ex
ĠMichel le
-------- --
W ORD
ĠPer iod
M a
ĠW E
m el
Ġdevast ating
Ġer ected
Ġcelebr ating
_ )
Ġs ew
row se
ĠH alf
Ġqual ities
Ġor ange
18 75
Ġremov es
ĠNot ice
U A
man uel
ipp er
Ġlov ing
\ /
ĠD anny
Ġlaw makers
Ġsu ite
U nd
Ġphil osophical
Ġrele asing
ĠY ellow
The orem
erg us
ĠYan kees
Ġet ern
Ġprefer ence
At l
Cam era
Load ing
Ġbe aring
pe g
in ology
ĠBen ef
Ġb eneath
Ġsk illed
Ġpup ils
Ġcha os
Ġtravel s
ĠF actory
T w
Ġlaunch ing
Ġs ang
Ġmagn et
R ules
) ^{-
Ġdon ation
14 8
ĠC ities
ĠVis it
ass oci
D TD
Ġcomb ining
ĠGr ade
D ig
J ac
Th anks
Ġw orn
cc cc
Ġcompris ed
ĠT ell
n om
ĠB og
Ġob s
Ġded ication
Cont ract
Ġ( %
Ġform ats
ĠN A
v iol
en vironment
Ġsurve ys
Ġcrit ically
/ )
ĠPal mer
Ġlect ure
Ġcont ested
Ġhope fully
33 3
ĠĠĠĠĠ Ċ
Ġdom ains
ĠClar ke
ĠV II
Ġsaf egu
L IST
m itting
Ġelev ation
ĠHill ary
Ġconnect s
ou x
ĠT ampa
ĠArmen ian
ĠN icol
ourn aments
Mod els
ru p
ĠH urricane
Ġterror ists
ĠA chiev
Span ish
ĠRem arks
ĠM ob
ib ration
N eg
T yp
ff ield
al gorithm
string s
er ie
ĠB uffer
ĠLib ya
\| _{
S V
ĠWARRAN TIES
Ġpost ing
w allet
Ġat om
15 3
ĠStrateg ic
L ittle
l ater
ĠR us
ol y
Ġarr ives
14 9
Profess or
Ġins isted
ec a
Ġtri umph
Ġdemon stration
ĠResp ons
r gb
St age
Ġstory t
ĠNor folk
oll ar
18 68
ĠIss ues
Ġgreen house
Ġsh oes
ĠPers ian
Ġless er
Ġfurn iture
Ġam big
he nd
Ġdiscuss es
cl ine
ĠAg ent
d ating
an th
Ġstop ping
Ġsocial ist
ĠPet e
Ġreg ulated
display style
ela ide
Ġf itted
ĠAh med
Jew ish
18 77
ĠDr ag
Ġcompris es
Ġs orry
Ġmot iv
Ġw are
ĠC elt
AR G
Ġsl ide
ĠRay mond
Ġf ru
18 79
} ",
ed e
atic an
Ġsuper vision
Ġton ight
Ġfail ures
ĠHer o
Ġaccount ability
Ġw ors
ĠPal m
A ff
Ġpl ural
Americ a
ĠPop ular
ian ces
AV E
u ador
oe ing
Ġplan es
! </
$ ).
ĠPhilipp ine
Ġdef icit
Ġsh apes
ĠH erald
ĠJul ia
es cope
ĠR ams
ou bt
Ġob server
ĠC HECK
google apis
= $
ĠPl ayers
28 0
im o
ĠW riter
Ġpil ots
ĠFl oyd
ĠR ush
Ġuser name
Afric an
ĠU RI
Ġlim itation
Ġbackground s
Ġd ens
ĠC atalog
ĠK re
inter pret
Ġperform ers
TER N
Ġemer ge
Ġviol ated
Ġes cal
mention ed
Ġt ent
Ġst upid
Ġsatisf action
Ġindic ation
Ġmechan ics
P OS
__ )
Ch anges
al is
Ġp a
proport ion
ribut ions
Ġsm oking
ĠS ymbol
Ġy ard
Ġcomput ational
Ġnomine e
J eff
ĠK r
t iny
Ġexc it
Ġrect angle
Ġf t
ic ode
Ġcan onical
################ ################
ĠPro perties
load ed
H ello
Ġst unning
ific ates
Ġbul let
ro gen
Ġmon etary
n ell
Ġ( +
be it
f aster
ract ed
Ġloc als
AR K
Ġconv ince
Ġmer c
Ġtrust ed
D iff
hem atic
se min
DE X
h art
{ $\
Run ning
ext ensions
Ġlim iting
Add itional
Ġe leg
18 67
ĠSc ar
ĠMet al
ĠBl ake
Le ague
ir able
18 72
found ed
role um
Con verter
Le ave
l it
Ġhous ed
mic ron
in as
n ate
Ġre vision
Ġpursu ed
} ))
Jose ph
ident ity
Ġserv ers
ĠSh ir
Sy ntax
ĠC over
ĠMos es
Ġbroadcast ing
Ġme al
Ġtrigger ed
EN CE
ĠCy ber
Ä Ł
W ire
Ġres ume
F ixed
ĠEngine ers
$ $\
J oe
ran ch
ig ue
pre vious
T ING
Ġc ock
Ġgirl friend
15 1
Ġestim ation
ĠQu ant
Ġnurs es
ĠP rest
Ġvis a
new command
Ġbel t
b ird
Ġ$ -
pr agma
ĠB ent
Ġtob acco
C ancel
Aut hentication
ĠSt rong
ĠCitiz ens
Ġsol ved
ĠG OP
Ġinsp ire
Ġsan ct
get Type
Ġvirt ue
i ency
ĠCh oice
ĠP av
ĠAppe al
Hen ry
map sto
Ġret rieve
UT E
ach i
40 1
Ġpars ed
26 0
Ġoff ence
R oyal
Ġcont ra
Ġsc reens
Sub ject
ĠY ah
A U
18 48
ĠT ABLE
ĠGab riel
s ime
Ġhol idays
u h
Ġre ass
Ġtim ely
ch unk
Ġcelebr ity
Ġspons or
Pr inc
M IT
LIC ENSE
ĠGl enn
ĠEll is
Ġbal anced
ĠPar ad
ĠG uild
Ġign or
at che
ĠP ul
F oot
âĢĿ ),
Rec ip
th al
Ġconcent rated
ĠHe aven
Ġam pl
ĠTo o
ĠEr nest
Ġliter acy
Sh arp
ĠBul garia
Ġinter ventions
15 7
ĠLin ux
Br idge
âĢĿ ).
dec ode
ĠCol lections
Ġspect acular
ĠTom my
Ġsovere ignty
P acific
IC S
ĠEm ployment
Ġlo ose
Do es
Ġra p
Ġsp ite
Ġafter math
ĠMem ory
iod iversity
ĠE ducational
Ġdraw ings
Qu ant
NE W
Ġtr ump
Ġdeb ates
ĠCh ancellor
b ecause
sime q
ens ation
ĠL amb
ĠSt ructure
empl ates
ra ve
ri ent
Ġbar rel
ĠQ uality
15 4
Ġconsider ations
ĠOcc up
Ġsong writer
ian e
Ġt ips
gu ide
Ġw x
ĠIn cre
Ġthreat ening
ph abet
Ġbuild s
Pr ice
= &
ĠBeat les
t oc
Ġsuggest ions
dat etime
h im
ĠEag le
ĠH R
Ġadm its
ĠO g
Re act
Âł Âł
ĠPrinc ipal
ul o
um i
ĠB orough
ĠS witch
un ion
RE T
Ġenact ed
por ter
ri o
Ex ists
it zer
ĠHand le
Fr ance
ĠImm igration
nt hes
k ers
oy s
ĠTechn ologies
on er
um ably
< >();
d jango
op ing
g ement
C art
ade qu
ĠDis covery
Ġt ired
Ġpoor ly
Ġm akers
stitution al
Del ay
S te
Ġfunction ing
] +
Ġm ic
Ġp ixel
ĠCour se
)} {\
Ġcom merce
col m
ĠB esides
RA ME
ĠGard ens
t ensor
v ars
Ġc ad
Ġnews letter
m ag
Ġcle ared
ĠY am
Ġend emic
ra ise
Ġca ution
by ter
ro b
Ġapprec iation
ĠAdv oc
Ð¾Ð »
est y
Ġp orn
car bon
ĠB ec
="../ _
Ġurg ent
ĠExcell ence
ĠFil ip
Ġorgan izing
ĠE D
Ġ' @
Ġpione er
ex isting
)\ \
cod ec
Ġpredecess or
S at
Ġtrav elling
Get ty
G erm
ĠN ull
Det ector
ĠM iles
enc oding
ĠPan ama
s ed
Austral ia
( /
ĠIn side
Ġt ear
Ġprec ip
Med al
c ies
Ġp ale
disc iplinary
op ard
vel ope
Ġgu ards
CRE ATE
ï¿½ï¿½ ï¿½ï¿½
Ġauthor ization
ĠCinem a
Ġdiv id
LO AD
Own er
je ctions
am pton
Ġint imate
o fficial
ĠR ah
ĠRe id
unc an
Ġtrav elled
gu ard
Ġaw esome
Ã Ĺ
ĠAl ger
è ¿
Ġem barrass
cur rency
ĠFant asy
Ġens ures
Ġcivil ization
D u
Ġvir al
ĠInd ividual
S F
10 16
re a
ĠAnd r
ĠTh ink
(" \
Ġv m
ere k
Ġassess ed
ĠEth ics
ĠN ut
Ġanaly zed
ĠN intendo
et ric
t one
Ġcell padding
Ġm anga
ĠGa ussian
max cdn
M obile
V ote
Ġcook ing
] ).
Ġcomp romise
Ø ª
Ġl iver
Ġwire less
fore ach
ĠVlad imir
ĠE ST
Ġoutput s
Ġdign ity
Ġconv ex
N ever
Ġopp osing
Ġpen et
Ġbeat en
p aid
is ers
Ġ' #
Ġtrans mitted
Ġlett ing
Ġc ivic
Dist ribution
D ynamic
Ġconven ience
ĠApp lied
h p
Ġm i
oy le
20 4
class Name
() ">
ĠLind a
Ġsuggest ion
ĠSt ef
ĠC M
Ġcount less
ĠCom plete
ĠF ont
ĠK i
ĠUs ed
Ġcru el
c v
ĠG ender
ĠUp dated
Ġcustom s
Ġlong time
P REF
pr iv
Ġped est
O FF
Ġf ed
18 74
Ġorder ing
Ġminor ities
ĠCh ase
Ġaccur ately
Ġrender ing
Ġepid emic
Ġworth y
Ġdecor ated
st ick
ĠĠĠĠĠĠĠĠĠĠĠĠĠĠĠĠĠĠĠĠĠĠĠĠĠĠĠĠĠĠĠĠ ĠĠ
Mon itor
Error f
" /
Output Stream
Ġread ily
Ġconsider ably
ĠCon nection
ĠM atter
ĠLog ger
ĠSalv ador
18 30
ur bs
Ġair line
Ġcy cles
Ġun fortunately
ĠCare er
Ġill um
ĠMat rix
w ave
ct rl
ĠFl ag
Ġscript s
ud ed
osp ace
Ġacc idents
,\ ,
ĠH aven
Ġcommission er
ĠA CT
ĠT ool
T own
Ġsm ile
ĠExp ression
uff ers
ous el
Ġcount ing
Ġtw entieth
Ġcharg ing
As sembly
ĠBrad ley
c ancel
ancell ation
ĉĉĉĉ Ċ
Gr and
Ġpack ed
Ġcolon ies
ĠG R
Ġbrut al
ĠDou g
ĠC ut
Spe ed
ĠAmeric as
Fore ign
d ynamic
Ġ( #
g ary
any on
Ġcell spacing
Ġemp irical
Ġn ose
Ġtr ivial
ĠTre k
Ġtend ency
F ill
Ġmin eral
deg ree
ĠW aters
neg ative
(" %
ih ad
Ġcount ed
Rail way
Ġstud ios
th umb
ĠM ig
Ġgr an
ĠESP N
ĠD evelop
Ġinstit ute
Ġpop ulated
un ed
2 12
ĠMy anmar
ĠGrow th
Al t
ĠMont e
Ġcoe fficient
Ġ ib
ĠW ould
37 5
ĠWars aw
ĠG or
Ġbl ast
ĠPh ase
Ġtradem ark
Ġatt ach
ri ages
OL D
semb les
e lected
ann i
iev e
ett i
Ġaltern atives
qu et
el o
Ġpoll s
cons ider
ĠSur v
ĠJo el
ri ber
Ġsp y
ĠArch bishop
Ġnorm s
ie u
Ġcoll apsed
b age
Cre ated
Ã± a
Ġli able
stit ute
ĠCh ang
L ow
st orm
Ġ-- -
ĠCent ers
ĠPar se
ty p
D eb
Ġsc ream
50 1
parent s
} &
ĠS ize
lic an
Ġs ax
â ĪĴ
U CT
Ġs ender
ĠC lick
sc hed
c orn
Cent ral
nof rame
u ce
ok o
Ġrem ind
Th ird
Ġaver aged
end point
ĠJ ung
Ġsubt le
Ġre nd
ĠCom ponent
up dated
Ġtrans cript
in is
cc i
ra int
iss on
Ġout lined
Ġcirc ulation
H ard
Ġinter pre
um ble
oot ing
ĠCD C
m art
ĠM umbai
18 73
Ġre construct
ĠReyn olds
Decl aration
Constra int
Ġl os
Ġavoid ed
ĠC ategory
D ue
ĠUS D
names e
H ot
__ ["
Ġ' "
ĠHe in
ht m
Ġcoord ination
Ġpractition ers
list en
Ġenter prises
op am
15 6
atern ity
ĠF act
M ag
Ġd ressed
Ġj unction
St ructure
Ġlog in
ĠExper ience
ĠW ald
Ġvar ies
Ġ= \
ident ial
not ify
atab ases
to ctree
æ Ī
add ed
ĠWest minster
Ġprospect s
... )
Ġgrand children
ri ans
File Name
UT C
ĠGro ve
Ġdr unk
ĠEvery one
ag ine
16 7
Ġenjoy ing
Ġmanufact ure
HO UT
ig g
Ġmake up
Ġsh ar
ĠCon sole
Ġh int
Ġal igned
ov iÄĩ
Ġprocess or
ĠMar cus
Ġdefend ers
ĠL akes
et es
IC K
l r
Ġlift ed
Ġgener ous
' (
N eed
Ġg rain
Ġpro be
18 66
ins ic
ĠFif th
ĠB rain
Ġjust ified
f ilm
el in
ber ger
Ġlect ures
S B
Wh ich
Ġg aps
andid ate
) }}
w ent
Ġre op
get Class
Ġh ierarchy
power ed
ĠJess ica
ĠAb original
Ġexhib its
Execut or
ar cer
T ry
Ġexcess ive
Ġthe ology
pro position
ĠDec ision
Ġb ones
S un
Ġg ray
ĠTh under
t ile
Diagn ostics
ĠRev enue
15 9
ĠConstitution al
Ġder ive
Ġlabel ed
En able
ĠCon vers
Ġprotect ive
ĠCy prus
L M
loc ale
uck land
ĠR af
ort ium
ĠCol in
You ng
ĠThrough out
un ks
enc ia
ĠSt yle
Ġdel ays
ĠĠĠĠ čĊ
Ġprefer ences
ĠViol ence
ĠC raw
m ix
aw i
Ġ ĉ
Ġb ishops
ic ion
Ġdec iding
Ġincorpor ate
ith metic
rapeut ic
Ġl l
Ġl in
Ġgener ates
on line
Ġcommand ed
In ner
ĠR andom
/ ?
Ġclin ic
Vill ages
s ass
rou ter
Ġbehavi ors
Ġfemin ist
ĠS yl
ĠPop ulation
ĠJ obs
Ġu ph
Ġcommit ments
ĠAv ailable
f rames
Ġgener a
ĠL abel
16 6
âĢ ĥ
ign ore
ise cond
ĠR oth
ot er
Ġsacr ific
Fe atures
St ub
ĠCath olics
po i
ĠJ in
oy age
ĠA ve
ĠSol omon
14 2
SP ACE
ĠStev ens
Ġh ills
Ġpeak ed
ĠK as
includ es
ĠP ink
dis patch
å Ń
Ġp unk
Ġin coming
Ġqu otes
ĠT i
Ġst ressed
Ġunnecess ary
23 5
ĠĠĠĠĠĠĠĠĠĠĠĠĠĠĠĠĠĠĠĠĠĠĠĠĠĠĠĠĠĠĠĠ ĠĠĠĠĠ
communic ations
atter y
ĠÐ ¸
BU FFER
ĠAud io
ad v
Ġauthent ic
Ġnav igate
ĠCroat ia
Ġst ones
ĠO z
Ġex empl
ĠPro ductions
ĠN GO
at om
Ign ore
ĠF at
trans port
il inx
ĠS ure
Ġsymbol ic
A ctions
ĠAng els
ov sky
s ure
ĠA LL
Ġharm ful
Ġiter ator
Ġinsp iring
faster xml
Ġend ors
C irc
act ers
Ġdeter ior
ĠF ollow
Ġtown ship
Ġcoord inator
am as
ĠNiger ian
ump y
script s
ĠRel igious
Ġmet ropolitan
get Attribute
Pro f
ĠIn valid
ĠInter ior
em per
ĠGib son
ĠG M
sd k
Ġin verse
ĠS ask
ĠG ang
ĠAct s
rack et
Ï ħ
Ġt ensions
Ġb icy
st own
T emp
c ov
qu estion
Ġsupport ive
Ġch apel
ĠSu z
Ġ======= =
he rence
al am
Ġst er
×Ļ ×
atin um
he tt
ul ly
D ry
Ġt we
." )
Ġsynt hetic
Ġdis patch
all owed
pr ice
Ġhelic opter
Par cel
Ġprim itive
exp and
$ ;
. ',
)$ -
Ġingred ients
ĠA IDS
inn ers
ra f
Ġperiod ic
More over
anc ies
Ġequ ilibrium
Ġinvestig ators
Ġd oses
ĠF ALSE
ĠEx ec
ĠJohn s
St ill
Ġextract ed
Ġdelight ed
Ġ# {
Ġtruck s
Ġsubdiv ision
Ġproceed ing
r ink
sub Nav
P romise
Ġf i
Ġpredominant ly
con g
trans l
ĠKenn eth
ĠSe bast
e very
Sc ore
ĠIndian apolis
Ġdescend ants
ĠC ec
Ġjoint ly
Ġdiagn ostic
15 8
with out
en za
Ap pe
Ġsl ice
Ġparticip ant
z ig
FFFF FF
se ek
Ġover look
Ġbro ker
ĠBank s
ia o
add le
ĠLGBT Q
Ã Ł
Ġover see
Ġdem olished
ra ced
ĠR out
ri pp
M ot
G ate
Ġdirect ing
Ġdece ased
ĠT yp
ĠEvent ually
ab i
DE D
ĠH app
Ġrel ies
ul atory
In vest
br ane
Ġexpect ing
ĠA ub
Ġh iding
Ġ{ $
Ġadv ancing
OT TOM
ĠS ter
p ref
ĠMethod ist
Ġinev itable
les h
ĠS TE
ĠP ackage
ĠGal axy
Ġuncertain ties
ric ia
ĠDep ression
ĠMA X
pay load
TableRow Color
Ġshort age
l ord
Ġover d
Ġident ities
Ġcriminal s
Ġrest art
" ];
Ġn u
ĠRoman ian
ĠE ff
annot ations
ĠNew castle
G N
Ġdist ances
ĠAd elaide
Ġch ore
ĠB ak
own ers
Ġline up
Ġd ys
Ġmemor able
18 69
ĠM ine
Ġw it
local host
Ġflood ing
um ing
ch ing
ul in
Ġd ot
Ġfe ver
ĠSw ift
is ure
ĠRevolution ary
B its
ur ally
22 2
ĠDeg ree
us hes
S napshot
ĠCon vert
Ġt ap
Ð¾ ÑĢ
ĠAss essment
ĠMathemat ics
Ġcook ie
H ung
in ject
Ġment or
Ġaug ment
Re ason
' ].
im ity
Ġm g
ĠR s
Ġtal ents
Serv let
/ #
Ġf ool
Ġpast or
W H
ĠV illa
Ġcondem ned
Ġprov es
)\ ,
Ġcontribut or
VIE W
ĠF an
ĠO wen
Ġplay wright
ĠP apers
ou rier
Ġcasual ties
ar as
ĠSac ram
j ournal
Ġorgan ize
ĠR T
ec hes
set Text
Ġcho ir
ig ating
ud s
Ġinf antry
ĠK in
Ġl ip
ĠBry an
a qu
ĠH arm
ew ard
ĠMunic ipality
Ġinv itation
ĠDes ert
ĠRom ans
Ġfar mer
ĠM om
TR AN
Ġdescript ions
M ir
c op
Ġpost pon
Ġexclud e
Ġle agues
Ġann ex
Ġwarn ings
ip age
og ical
e clipse
Ġexplo itation
Ã ½
Ġt ournaments
Ġrelig ions
ĠSol utions
ĠChem istry
Record ed
ĠHe ights
Ġdepos its
ab stract
ĠJeff rey
Ġchar itable
Ġrent al
ĠB A
Ð ±
ĠNY C
Ġoccas ional
es ar
EN TRY
ĠE sc
ĠV ers
ĠPro ceed
w br
ĠE R
b undle
rele ased
30 4
Ġdr um
Ġconcept ual
ai res
ch ief
Ġpers istent
S n
ĠA ws
ĠUE FA
Ġpick s
ĠVol unte
ĠS ultan
Ġinvent ory
ĠN J
tool tip
Ġconfirm ation
m ile
end ors
ĠO m
get Message
36 5
f w
ĠMan ufact
Ġrock et
Ù ĩ
æ ĺ
Ġcap s
ĠZh ang
ĠE u
Ġco at
Ġmod ifications
Ġcompan ion
ĠB ert
Ġcommun ist
ĠBroadcast ing
Ġthe aters
os hi
ver ify
est e
Ġdiscipl ines
Cal endar
Ġgod s
sw er
ĠAndrew s
ĠMal ta
ĠCard inals
Sc an
m ons
ĠK er
> [
Ġres ist
eb ook
Ġment ions
ĠS V
Ġrun ners
s ix
Ġp ixels
Ġdevelop s
ĠK ap
** *
Ġvar iance
d st
Ġcont ing
Ġphenomen a
Ġorgan izational
Ġpi pe
m aml
Î ¼
ĠSh adow
ĠNurs ing
st roke
ĠS F
Ġ- =
miss ible
Particip ant
art en
ĠM ull
ĠV eh
not ification
Ġacadem ics
ĠRem ember
Ġentertain ing
Ġv iable
Ġad mir
Ġce ased
ĠWrest ling
11 11
stan bul
=" {{
con current
n ick
S rc
us a
enn ium
Ġdon ors
ĠBy zant
Ġpit cher
d og
Ġstrong est
Ġgen res
ĠN ine
pro c
S aint
he x
ĠJ O
Ġcompos itions
d an
ĠS weet
om ore
Ġincre ment
ol ate
Ġsur f
ĠJam ie
ĠF ergus
Ġspr int
ĠF ramework
C ould
work er
ĠM az
Ġannot ation
ĠL if
tim eline
ĠInt roduction
is ible
ĠK yle
Ġteen ager
ĠR ut
ĠBy te
ĠSerb ian
B rien
ĠF ly
Ġo ct
sl ash
Ġninet eenth
B ank
ĠG C
O G
Ġtempor al
M ust
Ù Ĭ
Ġrem inded
Ġrespond ing
t rain
out heastern
ĠG ross
ĠArm strong
il ogy
ĠDav ies
S afe
ĠT iger
M iddle
h agen
Trans lation
5 50
clud es
Com b
O l
Ġunder go
Ġpl ug
ĠEx amples
S ound
ĠHamilton ian
ĠDef inition
Con vert
gl ob
ĠS ale
ĠB AS
Serial ization
ir atory
Ġimport s
fin ite
ĠÐ ´
Ġre ck
Ar thur
F K
h ou
ĠGr id
Ġhold ers
R edu
our cing
Ġpriv ately
d evelop
ot yp
ĠP E
Ġmid st
Ġdisappoint ed
Ðµ ÑĤ
Ġthe ft
ĠCre ated
Ã ¯
Ġdisc ourse
estab lish
ĠSl oven
çĶ ¨
at ivity
ĠB ark
ĠPro b
m f
ĠT E
ĠC ash
ĠAn a
ĠB rief
Ġappro aching
Ġcompris ing
Sp ring
p us
ĠR oot
Ġem ails
ĠMod al
rug u
ĠSustain able
gener ation
Ġn s
ĠW ant
Ġc ris
Cal ifornia
ch anging
30 1
Ġtax ation
ĠMor rison
ĠNap ole
ĠM ead
k u
ĠG ust
18 5
Ġqu arters
Ġsol ic
ĠIll ust
ĠPun jab
M ail
ĠF olk
Ġstruct ured
Ġbo om
Ġab ort
ĠD ir
18 57
Academ ic
es a
Ġtou ched
och astic
ĠV ern
Ġcos m
ich i
ĠHe avy
Ġas sembled
ĠIS IS
od el
: }
ĠL etters
ĠE aster
ĠSu ff
Ġcontact ed
% "><
ĠCongress ional
EN ABLE
Ġstre ak
it oba
Ġg ospel
ock ets
shall er
Ġfl av
Ġauthent ication
19 3
Ġinform al
ĠT ang
um atic
ĠDate Time
p n
M il
Ã© d
vert ex
W C
Ġpro to
ĠT rou
che m
Ġreb uilt
stitu ency
jav ax
ĠRun time
Ġcrick eters
met ry
ĠA post
Ġconduct or
ĠCorn ell
Ġdesper ate
Ġst ub
Support ed
ĠR ever
ĠP UBLIC
Ġtra its
ĠT as
trans late
Ġterm ination
Ġswit ched
Ġim pe
ĠMot ors
ĠTh ai
ĠTR UE
Ġun e
al one
Ġsecre ts
Ġlic enses
Pro of
Ġb reat
ĠGrand e
Ġsex ually
i q
ref resh
rid or
sur face
Ġhom etown
v ik
he res
ĠT all
I ce
ĠV atican
Mart in
Ġsimilar ity
Stat istics
flu ence
Ġtraject ory
ĠArch ae
Ġsubmar ine
Ass et
Ġg ymn
w ik
St eve
list ener
ĠP om
fe atures
T rad
Ġdepart ed
\ {\
ĠD iana
Ġaccept s
Ġovers ight
avel ength
Ġhost ile
in ian
Ġdeleg ation
Ġcontext s
Ġconsist ency
May be
ĠN as
Ñ ħ
Ġre lied
20 6
Trans ition
Ġmag ical
u ably
ĠS ET
ut down
kins on
Ġreloc ated
CD ATA
sw ick
ĠM ik
OR S
ĠDist inguished
Fix ture
ic z
21 6
Ġnovel ist
im an
ĠO pport
pi pe
Ġchemical s
ĠTw enty
Ġbom bs
G reg
ĠCl iff
Ġ` ``
Sc ene
Ġf ond
Ġident ifies
ĠW HO
C annot
ra ils
ES CO
T our
W estern
ĠW HERE
ck er
F ALSE
Ġ' _
ĠCl are
Ġperform er
Ġtim eline
h pp
ven ile
ĠL or
Control s
ĠHen ri
The ir
ĠL ik
Ġcru ise
r ans
ac cur
Ġdesc riptor
Ġfrequ encies
Ġp ays
L ite
art a
Ġd rought
ĠCh ad
ac iÃ³n
Ġinstruct or
cl s
) }_{
ĠÐ º
m g
ĠV acc
Ġhor izon
ĠH ass
P s
eg ie
Exec ute
Ġre organ
f ailed
inter val
ĠDev il
Ġmur ders
C ong
Ġhe ating
Ġind oor
Ġcast ing
Ġsem ester
w yn
Ġdou b
Ġlie utenant
iv id
J ournal
Ġt uition
hel m
== =
pos er
Ġfact ories
/** */
Ġd t
N orm
b oot
V ir
Ġsup rem
it Hub
t ake
per m
Java Script
Ġw reck
ĠT es
Ġtransport ed
N EXT
ĠScholar ship
enc il
Ġind ent
Ġsort ed
Ġthread s
Ġmar itime
Ġlack ing
Ġshe ep
Ġtra ct
Ġ' ''
Ġfilm maker
Ġhel per
Ġapp rent
) +\
Ġmon arch
Ġk iss
eth yl
ĠAll ah
Writ ten
Ġemb edding
ĠMc Car
Ġreve aling
Ġcomplic ations
Y S
ting ham
Ġspokes person
Ġneighbour hood
D ITION
ĠP s
Ð¸ ÑĤ
Ġsovere ign
ok u
Ġb rows
Ġex clusion
ĠAdd ed
ĠEm my
Ġappro ve
Profess ional
sp in
Ġinteg rate
Ġexerc ises
ĠK ra
Ġper cussion
abul ary
Ġg reet
LA B
ur ated
ĠSw an
Ġdisag ree
Ġt ender
separ ator
m x
16 3
Ġ' -
Ġsur pass
en burg
play ing
ias m
Ġp ap
ĠBit coin
ĠS K
Ġinj ust
istr ar
Ġsk etch
ĠLic ensed
f urt
ĠLi u
Ġh o
__ ,
Ch apter
ĠWrit ers
song writer
Is lam
ĠDur ham
Ġimprison ed
ad ic
ĠB ever
23 2
ĠBos nia
Ġfl aw
k now
M ic
op a
Ġhand les
ĠInc ome
Ġunder way
A SS
ib ling
ĠN ames
ĠBa iley
oc om
Ġscr atch
Ġrev ival
` )
ing o
g on
ĠE ye
k ernel
ĠN ixon
Ġproport ional
cl amation
Ġarchae ological
at ics
ĠDi agn
Ġemer gence
` :
d td
D istance
ov ld
Al ert
ĠPublic ations
F red
Ġencour ages
Ġnormal ized
B razil
Ġillust rate
to Equal
Ġconclud es
Ġtim ber
ro tt
ĠPart ner
.~ (\
Ġfrag ments
] </
Ġserv ant
22 4
Ġde ar
ire ment
ĠCustom er
ĠKn ights
stat ement
Ġf illing
Ġvac ation
row Color
contin ue
Ġunsuccess ful
ĉĉ čĊ
Custom er
Ġsolid arity
Ġcler gy
ĠTe aching
Ġmiss iles
ĠMod ule
! (
H a
Ġs ung
ĠH ack
Sh ift
Ġalt ogether
ĠEnt ry
min ipage
ah a
Ġlic ensing
ĠSt orage
Ġbench mark
in itions
ke eping
M ix
udd y
Ġtoler ance
RE NT
="@ +
AR CH
ocol ate
Mat cher
ĠAppend ix
ĠW inds
Ġem peror
Ġmed ication
F iled
Ġis instance
r ina
Ġpick ing
a eda
Ġph osph
Ġ| =
ĠT rial
Ġb apt
Ġver dict
First Name
det erm
D at
Ġserv ants
ĠA part
ĠEll en
99 9
ĠÃ Ĺ
ĠCh uck
Ġd ining
ĠB ag
ĠPre p
Supp ress
Ġp ocket
Ge org
Ġenroll ment
Ġque en
IN VALID
Ġbeliev ing
m any
16 1
Ġinv ite
Ġapprox imate
Ġvac uum
View Controller
Ġst ance
decl are
Ġjo ke
ogn ition
ĠSt alin
ĠL ar
Ġgl ory
ĠP oss
18 59
J O
Ġartifact s
ĠL ynch
Ġspec ification
Ġa pt
ĠAst ron
Ġd rain
Ġreven ge
ĠC ord
ĠAr ist
Un ion
iff e
Ġaffili ate
ry s
CO VID
qu ire
Ġinc umbent
Ġspect ra
ep h
Ġc p
ĠN y
Prov ince
Hash Map
ĠG am
Ġk ings
Ġarr ays
Ġdispl aced
ĠBe havior
C at
Col lege
Ġl akes
opt im
s heet
ĠJosh ua
c ially
ĠÂ «
ĠBO OST
ĠN ak
Ġterrit orial
Ġjew el
s outh
ring e
Ġs word
ĠRichard son
17 2
ĠC ertain
mat ches
De ep
W ORK
c x
but tons
00 5
aw t
Ġmethod ology
Ġarch ives
I ran
ĠB row
end ant
Ġdef ender
Ġre ver
ĠShe ffield
Ġp uls
fl ush
Ġqual ification
ĠL arge
ĠBened ict
Y et
Ġcancel ed
Ġun rest
Ġpos ed
SP AC
ĠOut standing
g raphics
Ġbur ial
20 7
Ġloyal ty
Ġpurch asing
T ech
Last Name
Ġintent ions
it ic
ĠA uckland
ĠF lem
è ®
ĠT X
ĠH ir
SE C
Ġin adequ
B ACK
16 4
Ġrecru ited
ĠEc uador
ĠRoll ing
ol an
}{ |
th ink
Ġvict ories
Ġden oted
Per iod
iox ide
CR IPT
Mut able
b oat
Ġdis charge
R en
Ġtheat rical
ĠFor bes
ĠĠ čĊ
Ġtra pped
Ġwithd rew
ĠMem phis
Ġfort une
Ġsurprising ly
Ġt uple
g arian
Ġpro position
Ġguarant ees
ADD ING
Ġsoc ially
Ġinsert ed
ain ers
Ġw ound
od ot
ĠPo etry
cam era
Ġcub ic
ĠBris bane
Ġreg istry
INS ERT
Ġsnap shot
Ġport al
Ġ" )
Part ition
J ean
con cat
ys et
Ġp ond
ograph ies
ĠC ounter
O s
on ial
ĠRoche ster
cess ion
ME M
ĠMan aging
whe el
ĠE DT
respons ive
ĠLINE AR
ĠD ow
ĠBl air
ĠH off
Ġprop he
Ġver ification
C redit
Ġir r
ĠTour ism
? âĢĻ
ĠK umar
') ->
Ġf uck
it ars
le af
Ġw ise
ĠJ ake
Ġcon qu
na issance
Ġtyped ef
st ri
ĠPed ro
Ġcontrad ict
ĠJul ie
ĠMic he
: -
ĠPakistan i
ĠArmen ia
Ġcomm enced
ĠKnow ledge
ĠW end
Ġtra ces
Ġover r
ĠEx hibition
ĠZ ero
ĠK or
N umer
Ġto mb
" ?>
ME SS
Ġreb ounds
Ġactiv ation
ic ht
ĠChe ster
Enumer able
I p
Ġadv iser
ĠD h
Ġcreat ures
en es
ĠSer ial
Ġre he
W il
Ġt oured
18 2
Ġdesign ing
ĠB ears
Ġarchitect s
ĠP orter
ĠMan uel
ĠS urg
ĠD ale
ev es
ard i
Ġpain ful
Ġa apt
app s
pred ict
Ġfin est
pop up
Ġin sufficient
21 4
ĠAct ress
K n
h bar
m are
P ane
ear chers
Pay ment
Ġeduc ators
6 50
Ġtri o
Ġreflect ing
16 2
A W
ĠDet erm
ĠĠĠĠĠĠĠĠĠĠĠĠĠĠĠĠ ĠĠĠĠĊ
Ġten ant
art icles
N ON
ear ly
P ush
sc reens
) })
former ly
Ġcontinu ity
or ate
Ġcar ing
ch y
qu o
Ġdro pping
=- =-
Ġcl arity
Ġemphas ized
Ġpl ates
ĠW ire
Ġcooper ative
Ġre build
ud o
Ġcontract or
ond e
cent ral
ik er
ĠField s
ogen ic
C odec
Ġwh olly
ro ots
ĠSub ject
Ġsp are
ĠPr ague
Ġcolle ague
ĠLyn n
ru gg
ĠJama ica
Ġnot orious
Ġprior it
ĠLeg acy
) ?
Ġb ol
en stein
tikz picture
Ġwhere ver
are l
sp ons
Ġb ell
Ġinc arcer
Ġbet ray
Ġshall ow
Menu Item
Ġincent ives
N ick
Ġcollabor ated
ĠR ise
M ah
ĠCom pl
ific ant
cs v
ĠSoc orro
id ity
ĠM B
Ġenc ryption
o que
Ġdes k
ĠEs sex
ĠWIT HOUT
jb oss
ĠE t
Group Name
Ġdis g
Ġautom ated
Ġconstit utes
Ġfavor able
à¤ ¾
L ines
Ġwond ering
Ġem it
ĠUn c
Ġindiv id
ĠB elf
ari at
ĠLeg ion
In jection
.. .,
Ġvari eties
ĠGe off
Ġfirm ly
ĠJava Script
ĠIn g
Ġimm unity
Ġf ier
av in
Comp any
18 7
Dep artment
(" .
Ġshut down
spe aking
h orn
ĠJud a
ĠMer cedes
Ġconsum ed
sm ith
Ġaccording ly
Pe er
}} $,
... ]
Ġin mates
ĠU AE
> .</
Re ceived
18 58
Ġexpend iture
ĠA x
L iber
ĠK urd
An im
Ġobst acles
ĠP ac
mid t
Ġrec ount
ĠAbd ul
Ġme als
Ġgl ac
z heimer
it ably
Ġadd r
f actor
Ġview er
ĠC anyon
}} ^{
Ġtouchdown s
y outube
Ġt ears
asc ade
um en
Ġdis closed
Ġprosecut ors
Ġmark ing
ph oto
Ġoffer ings
Ġre con
oph ob
d ocker
Vis ual
e ous
ĠF E
ĠH od
ĠF acts
Ġquad r
add Class
let te
Ġhonor ary
Ġresil ience
ĠD ylan
ĠG em
IT LE
ĠCour ts
ĠT ong
um per
ĠD ialog
Ġrem em
ĠHait i
Ġl od
Ġr ush
Ġaest hetic
T M
ĠS ak
Ġbreak down
ier arch
Dec imal
task s
Ġb esides
Ġconnect ivity
Ġnow here
Text View
Lou is
; %
Ġpract iced
Ġs inc
Ġneg lect
4 80
ĠP ars
Ġapprec iated
t alk
Ġprotagon ist
âĢ ĳ
Ġsent iment
Ġout reach
Ġsub urb
Ġrhetor ic
ĠCurt is
ĠBarn es
FA IL
Ġopp ose
Ġf usion
24 5
Rad ius
Ġkil omet
yg on
J er
ĠEnt ity
Ġdecom position
process or
ER E
ĠH BO
le ys
C ritical
Ġtw ist
rib ers
ĠPar alym
Ġce iling
Constra ints
Ġt ube
Ġcond itional
Ġmain land
ÑĢ Ðµ
re nd
k el
ĠS ic
ĠD uncan
label s
Ġdel ivers
ĠS SL
Id x
Ġanalyst s
Ġamplit ude
Prior ity
m inded
oun s
ĠChief s
ĠS event
Ġthe or
Ġbroad ly
ĠStep han
ĠHend erson
Ġrul er
en ary
ol esc
Form atter
ĠViet namese
Ġimp air
ill on
Ġaut obi
Ġent ropy
Ġintrodu ces
ĠC ool
Ġ&= &
ant is
Ġteen age
% ).
ina e
T er
c in
Ġcontin uation
Ġshock ed
Ġag ing
lev ard
Ġrevers ed
R ank
l ag
t m
ve e
Ġdefault s
H ey
ĠDi ocese
ĠL t
}} $.
Ġtri angle
ĠBrun swick
>( <
u et
(' ./
SH A
] ),
Ġle ts
IS H
Ġbreak through
Look up
op ens
te le
R oll
Ex it
ĠRe ich
FN GL
Ġkick ed
ST ART
ĠAng lican
st rict
ĠLuther an
18 51
ug gest
ĠTh ought
ĠAl leg
and ro
P ADDING
ag le
Ġint ensive
Ġcomb ines
oc cup
ack ed
Ġpl asma
Ġindic ator
byter ian
Ġplan ets
Ġelabor ate
18 55
ad apter
Ġinter vals
ĠAgric ultural
st ed
Ġm a
ĠMedic are
\ )
ĠB ORDER
Ġdepos it
Ġcan al
ĉĉĉĉĉĉĉĉ ĉĉĉ
oy a
ĠRes olution
olec ular
ĠGar cia
Ġs q
ĠPr ide
Ġ" ;
Ġ' ,
Ġpun ish
Pol ice
desc riptor
Ġmach inery
ĠW ool
Ġcomed ian
charg ed
} )$,
or p
Ġtaxp ayer
Ġassass ination
ĠRef uge
Ġancest ors
ĠP HP
Ñ Ī
Ġgovernment al
s ources
ĠP and
Ġharm on
L ee
em ia
Ġb orough
Ġre n
ĠA ri
Ġconfig ured
Ġdis semin
Ġjump ed
Ġpian ist
Ġdet ector
ĠIS O
Ġlength s
aa aa
ĠW H
ĠD awn
process ing
alth ough
17 3
L im
Ġhe x
Ġabund ance
ĠKash mir
ĠBul let
s an
Ġoff shore
( `
Ġre jection
pl oma
ĠK urt
50 9
Ġfu els
Ġprosecut or
ent ric
ĠE RA
vent ory
ament al
C lean
P aint
att a
Ġh ug
Ġrec urs
Ġt ales
Ġh orm
Ġle verage
Ġsubject ed
Ġfeed ing
ble ms
h d
sub scribe
Al umni
ort heastern
18 56
X Y
Ġacadem y
S yn
a ude
ĠGener ated
ro ach
17 8
AP PL
Ġannoun ces
Ġsynt ax
F actor
value Of
Def ined
é Ģ
Ġt ong
Ġcry stal
ĠWy oming
å ľ
Ġch ip
In cre
script style
he y
ĠML B
ĠC av
Ġcl erk
Ġinj ection
For ce
i ya
Ġgen ius
Ġt empt
Ġir regular
ĠEngine er
Ġp upp
post s
Ġun t
Ġeduc ate
Ġscatter ing
Ġb er
Ġefficient ly
Mod ifier
re ne
AR RAY
enz ie
ĠN g
nos cript
ĠJes se
ĠI RS
ib e
ĠK IND
Ġsquad ron
ĠCon struct
Compar ison
Ġ ----
F ive
ĠSh ield
ĠIn spector
Ġrecogn izes
at iv
Ġf are
Ġl un
ĠAlexand ria
Ġrem ed
Ġprosper ity
ant ics
D ict
n ail
Ġre habilitation
Ġderiv atives
M id
Ġcompet ent
ĠMin isters
Ġspe eds
ĠQu estion
ĠV a
Ġscatter ed
h ouses
Set up
rele vant
ron ics
Ġoccur rence
Ġassert ion
ĠIN TO
Ġsupposed ly
fav icon
Ġv in
Ġra id
Ġn aming
rop ic
Sw ed
ĠG ren
ĠC it
Ġen listed
Ġavoid ing
C N
18 3
Ġhaz ard
Ġc elebrities
Ġqu arant
sc ene
d ataset
Ġn erve
Ġexcit ement
Ġr ings
D ao
nob r
Ġevent ual
p agination
Ġ" #
Ġprint f
G allery
flu id
Ġdark ness
L ess
idd ing
Ġmat hematic
ĠNS String
y our
Ġcommun e
ĠDown load
ĠS aw
ĠProduct s
ĠKazakh stan
ĠI v
head ed
ĠLuc y
ĠV AR
ĠFem ale
enn on
Ġintim id
am ar
ur an
ĠJ ak
Ġprov ing
Ġdest ruct
Ġrec alls
17 4
Ġassum es
Ġfix ture
Ġgeneral ized
ĠOr iginally
Ġbatter ies
oubt edly
Ġex terior
Ġden ial
c mp
item pty
ĠG ir
Ġst om
Ġappoint ments
ĠSh aron
A h
ĠSim pson
ett es
Wel come
ne ys
Ġdeterm in
Ġult ra
Ġsupp orter
âĢĵ âĢĵ
Ġdeliber ately
Ġr ivals
ĠMal colm
t imer
v d
Ġs iege
ĠS ons
draw able
) -\
ĠFor ward
ĠEx tra
Com ponents
ĠPref ecture
b org
om itempty
Ġrandom ly
) *
Ġcon current
ĠA V
Ġsp ur
ffic iency
RO OT
Ġbit ter
Ġd irty
Ġst ip
Qu estion
id y
Ġcool ing
Ġpreced ed
ĠL ed
ĠSh in
AR GET
que z
Ġtrust ee
ot ics
Ġel dest
ĠMc N
s yn
Ġaut onomy
ĠTrib une
Ġp ink
Ġra bb
Ġwid ow
ĠS ent
Ġener gies
lat est
Fr anc
t ex
Ġg ates
ĠW er
exec ution
Ġex emption
ĠCard inal
Ġhor r
im eter
d ependencies
ĠStock holm
| _{
ĠS ER
Ġd ioxide
ĠCanad ians
PAR AM
Ġnut rition
ĠAdvent ure
18 54
Ġbab ies
ĠWag ner
E LEMENT
l p
17 7
Ġdet ained
att en
ĠÐ ¾
Ġunve iled
Ġv i
Ġsu pers
z el
Ġcry st
T wig
ĠMon itor
ĠTest s
Ġt enth
ĠD iversity
ĠS erv
B ay
Ġ" _
ĠA way
ĠH ood
Ġd w
Data Type
Ġover night
Ġbuy ers
Ġtow ers
Ġret ro
Ġpull ing
Ġres iding
Rep resent
ĠW ake
Ġassert True
Ġpress ures
Ġd y
ĠArt illery
Bre ak
P N
k ill
Ġa ster
ct r
Ġnot ified
WA RE
Ġtrans itions
Ġdefer red
Ġr ifle
Ġapp ar
H om
Ġro ok
Ġsub stances
Ġrecre ational
ĠF ut
gl ass
stream ing
Ġbehavior al
Ġcontribut es
ĠT it
Ġinf ant
Ġjuris dict
ĠMan itoba
Ġnetwork ing
Ġpl ots
Ġscholar ly
ĠMaterial s
Ġbre eding
Ġqu asi
Ġd ock
Ġsc al
000 1
Ġcor ps
ope z
ĠCar roll
Ġb ubble
Ġbet a
ĠDe ut
Ġmon astery
Ġm eg
Ġdes erves
EN C
Ġdest inations
Read y
pack ages
Ġfundra ising
edd ings
Ġsuccess ion
Ġpron ounced
Ġasp ir
^{ +
Ġsim plicity
Ġcounter parts
Ġrecruit ment
M att
ĠG E
Ġbill ions
Rec ent
Ġthorough ly
Whe ther
serv let
25 2
Ġ Ã©
ĠTh r
Ġtrans fers
Ġpromot es
00 2
ENT S
Ġc ure
pher d
f ilters
m ot
Ġdeg ener
Ġsexual ity
ĠAnn iversary
R h
ĠArgent ine
on ne
17 1
Fr ont
v art
Ġcon gregation
itt ers
Conf irm
Separ ator
ĠP am
ish i
Ġp ig
ĠBud apest
18 9
Ġh i
s ent
ĠLear n
ĠK ol
Ġcomm ence
ĠP iano
23 3
m ust
ĠG erald
approp riate
ist ries
K im
ĠP H
Ġfre el
ort ex
17 9
ri ends
Ġ$ |\
p ark
ĠL L
esc ape
Mod ern
Ġpil gr
F ail
Ġnick name
Ġcl s
d eb
ĠL iga
Mod ified
Ġfinanc ially
Ġin ability
ĠL il
iz za
ip ro
Ġc her
ĠMar tha
ou rable
c ookie
d ad
ĠĠĠĠĠĠĠĠĠĠĠĠĠĠĠĠĠĠĠĠĠĠĠĠĠĠĠĠĠĠĠĠ ĠĠĠĠĠĠ
atche wan
- ">
/ (
Ġle ver
22 3
ĠEug ene
Ġw rapper
ĠL oss
ĠEv olution
author ized
er ialize
it ated
mark er
Ġexpress ing
ĠC V
All ow
18 4
Ġcorn ers
ĠRh odes
pr im
ric ks
care t
ĠBald win
ĠCarol ine
min a
s ung
r il
ĠDar win
amp ire
Ġprox imity
ĠL iv
Ġcomp rom
Ġutil ized
Ġc ater
ĠAr senal
Ġrefer enced
Ġenc ode
Ġlearn s
ĠJoh annes
Reg istration
Ġaccount able
ow itz
Ġtra p
ĠHamb urg
m and
Ġl azy
Ġsec uring
Ġc ere
Ġge ographical
Ġtag ged
C over
Ġreb els
is cher
ĠC yr
ĉĉ Ġ
Ġpr ince
Ġrele vance
h it
ĠG A
text ure
}( {\
Ġclean ing
Ġreserv oir
Ġp ython
Ġang les
Ġ} ).
se p
order ed
Ġcapital ist
project s
umber land
ĠSh ore
Ġatt ain
F ederal
] ->
cond itions
Ġ/ ><
30 3
ĠMe et
Ġtre as
Ġenthus iasm
block s
c art
ĠE PA
Be ing
Ġref resh
ĠChar acter
ĠAut om
18 47
ĠHe at
i ago
In c
18 1
Ġra pper
b etween
st ead
Reg ular
Z oom
w al
cam el
ĠLou ise
g re
Ali as
c ro
f ox
Ġinfect ious
âĢ ²
U t
Ġlength y
ĠAh mad
ch rome
Ġreb ellion
desc ribe
20 9
Ġt ier
ĠEv idence
Ġexam ining
Ġscrut iny
L com
ĠDomin ican
Ġrank ings
Ġgar ner
ĠEd mund
Ġroll ed
SPAC ING
ĠR ender
Ġche ss
ĠH appy
ĠV ert
AR B
â Ħ
Ġpseud o
Ġse al
Ġsp arse
Ġins ult
Ġoverl ap
Ġdemonstr ations
ĠWell ington
20 24
Ġk w
Ġf o
Ġnew er
Ġtrans gender
db c
Ġass ured
Ġg lyph
F D
ĠSh im
Ġmon uments
Ġr iders
Ġret riev
Ġun law
ĠL odge
prep are
log ical
Ġprec ious
G IN
Ġc otton
y t
Ġimp ly
Ġp ec
-------------------------------- ----------------
ĠSuper ior
ĠObl ast
al gebra
Ġform ations
n ings
ĠB OTTOM
18 49
i ological
im ag
Ġproblem atic
Ġform ulation
Ġpat ents
Mult iple
res pect
ĠRes erved
Ġdi agonal
Ġlegit im
ĠPatri ots
p d
in ational
ref lect
Ġmer it
Ġp ist
Ġd x
T reat
ĠCon sequently
Ġconcent rations
Ġinv oked
ĠT ow
]( #
W ARN
ĠC opy
ĠP rec
Ġ. =
ann ers
Ġroot ed
Inst ruction
n st
Ġcon ceived
Ġint end
em er
int age
Ġmon ster
ĠReb ecca
19 1
G al
ĠElect ronic
Ġdis close
Ġref usal
ĠC rist
Ġsh a
Ġnever theless
Ġinter cept
ĠEst ab
br anch
Ġcr ashed
pat ient
Tool s
G uid
Ġf ights
Re pe
Ġstreng ths
Ġsynthes is
ĠCol leges
Ġstrengthe ning
us k
Ġdestroy ing
ĠT rent
Ġso ap
spec ies
RE QUEST
open hagen
Ġb alls
Ġp ricing
ĠCr us
l is
ĠL ac
ION S
Ġblock ing
: &
Ġsp ouse
ant le
Ġdis asters
ĠV e
os ion
ĠP ool
Ġtest ified
Ġsh ifting
Ġf ost
ĠSpec ifically
pl ates
S ig
g irl
sche mas
ĠCert ificate
ĠBr andon
Ġge ometric
Ġconsolid ated
at z
Ġreli ability
ĠR an
ĠD in
ĠTreat ment
23 4
ĠGu atem
Ġsupp liers
ograp hed
' "
ac ion
Ġend if
ok ia
Im ages
Further more
W ed
Ġ[ \
Ġeduc ator
h m
Ġl umin
s ites
Ġindivid ually
Ġa rose
Ġport raits
ĠF ashion
ĠFergus on
Ġkill s
ĠEmb assy
T urn
in ement
r ates
ĠPaul o
ĠC ritical
)) $
Ġdem ographic
Ġsus cept
ĠEn forcement
ext ype
UP DATE
sub string
Ġcloud s
ast ed
Ġide ological
ĠT aking
ĠEqu ity
Ref lection
Sc ience
Person nel
W rap
rac use
ĠTim othy
u pper
ĠPl aza
Ġpit ched
g mail
ol and
Ġactiv ism
ĠDet ails
ĠK erry
Ch icago
l ived
ĠFranc o
Ġende av
ond o
Test ing
ĠBur ke
ĠF eder
b ucket
by e
> )</
Ġse aled
Ġcompl ain
Ġs li
ĠI X
sc an
Ġz oom
f uture
Ġb eds
ĠLiter ary
ract or
Ġshow case
I MA
ĠK end
ĠNot re
man ifest
Met ric
ĠIndust ries
w at
Ġse iz
ĠSouth west
ĠAn im
Ġsw ift
Ġaut umn
ĠIm mutable
rim ination
Ġvibr ant
an aly
Ġsleep ing
r ators
Ġal umin
Ġweight ed
ĠR ES
Ġcap ac
Ġm asters
Ġhe d
ant om
ĠCarn egie
ĠH annah
Top ic
mun ition
gr at
Ġver ified
Ġpress ed
Ġcle ver
ĠM old
ĠI stanbul
ĠS ig
O bserv
l ar
Ġin complete
ĠN R
Ġs ne
Ġp ulse
Ġminim ize
ĠLoc ation
ĠN ormal
ret ch
N ING
ĠMax well
N D
os i
h ole
Ġm aker
Ġcap ita
ĠEx ped
hand ed
Ġliv est
Ġhun ger
ĠE RR
Ġdon or
Ġfinal e
clud ing
Ġa u
Ġdim ensional
Ġr ises
path s
ĠSecond ary
print s
R eb
ĠL ak
LO C
ĠReg istration
Ġimag ery
+ (
N ONE
Ġw ra
p ent
ĠNaz is
Ġsuper hero
com par
23 1
l ists
ap hor
Ġre per
Ġelectron ics
ĠAl pha
ĠScot ia
ĠT anz
Ġle x
mod ifier
display Name
sl ider
Ġs ink
iber nate
ia z
w ear
ĠC ork
und a
Ġl ob
ass o
ĠK rish
Ġper ipher
Ġlov ely
Ġwid get
Ġpersonal ities
ĠMedic aid
az ure
Ġis ot
R ussia
Ġsen ators
Ġflo ors
Î º
ĠCh rome
ĠM Ã¼
eral a
p ending
Ġche er
Ġcre am
Ġarg uably
Cred entials
ĠCELL PADDING
ĠMcCar thy
first row
ĠLes lie
D isk
ĠCELL SPACING
L ev
r ice
Ġo mitted
Ġte ens
sh ine
Con struct
ĠA er
Ġsl ope
WR ITE
ĠH ook
op p
or ian
Ġpar as
Ġinnov ations
Ġcompos ite
ĠAl zheimer
Ġind ict
ĠSus sex
ĠMoh ammed
U k
ĠH ern
ph al
duc ing
quarter ed
ĠM orm
Ġconv inc
ĠOffic ers
Ġgen ocide
DO CK
h ort
Ã§ Ã£o
$ ),
$ };
ĠCom ing
__ .
ĠTe h
Ġter rain
ĠD IS
ĠO DI
N BC
Ġcomp ression
Ġsub group
dr ag
Ġ} ),
ace ae
P ur
or ange
Ġreg ression
our ced
FLA G
Ġreg ulate
ĠMur der
ĠCond itions
Ġ// -->
Ġanaly tical
Ġru ins
ĠElli ott
Ġnew est
W ood
Ġlist ened
ĠHe y
Ġmanif old
r ag
Ġconfig urations
Ġpreval ence
op ting
Ġrem inder
Comm it
Ġcollect ively
V an
g ly
Ġeval uating
Ġsh it
Ġret iring
H u
Ġt ile
ĠX box
inter est
Ġutil ize
ĉĉĉĉĉĉ Ċ
Ġsever ity
âĢ¦ âĢĿ
Sh adow
Ġge ographic
r ases
IT H
c ourt
æ Ĺ
ĠAdminist rative
ĠR iv
p aces
Ġexam ines
ĠBer k
Ġsculpt ures
ĠT at
ĠD w
par allel
ĠNE W
ĠCh in
Ġep it
ĠO A
ĠMar ines
Has Been
ed o
ure ment
Ġ< ?
Ġcomp ile
ĠAn al
100 00
U pper
en i
Ġs her
arg v
Ġactiv ated
Ġassess ments
SET TING
Ġdies el
ific ent
Ġinduct ed
ĠFried rich
Ġhab its
ĠChurch ill
Ġpract icing
COUN T
27 5
b ard
Ġlink ing
ĠAp ollo
Ġcycl ing
W ild
ĠRe uters
ĠN I
ic ates
ag i
Ġelect rons
E mb
Ġdecre ases
Ġf oo
ĠWIT H
ĠB end
Ġm ater
==== =
ile e
ran o
Ġsub str
Ġan ten
Ġinter pol
Ġreview ing
Hon ours
Ġspir its
ol ation
Ġcab in
S und
Ġout rage
Ġt s
Dem ographics
S ol
Album s
ĠA ur
Ġproceed ed
ar iance
ĠJ ourney
Ġch orus
S us
ĠB alk
un stable
ĠC B
ĠRoberts on
document ation
Ġg rief
do es
ĠM ET
S ets
Ġhe m
Ð ³
: %
S UB
the m
if a
ov ina
pre hens
Ġdub bed
ĠE E
Ġout look
ĠTrans itional
' =>
ĠNot tingham
ĠExt ension
up iter
M oths
ĠPer th
Ġmass acre
ĠId entity
inf all
ram id
amb ia
g reat
Ġrecogn ise
ĠPublisher s
Ġst amp
Ġd ra
Trans fer
] ['
Check ed
Ġmanuscript s
Ġd ancer
x sd
By Name
ĠCamb odia
am ic
ĠF lying
22 6
sc opic
ĠWar riors
ĠPod cast
SU CCESS
Ġpract ically
ĠSu ite
Ġnegot iate
h urst
ĠA ires
Ġdet ective
Ġcar riers
F und
ĠG y
year s
pos itions
Ġref ere
N ay
Ġper secution
Ġco herent
Ġcorrespond ent
Ġover turn
as ide
op acity
hell o
Ġex changes
ib a
Ġsign atures
Ġb ust
ĠJac ques
Ġatt achment
ĠChron icle
+ "
Ġpress ing
ĠFran Ã§
oc ene
ĠAndre a
d elegate
Ġex ile
St ates
ĠCal gary
ĠHe ath
Ġsens ors
Ġpres erving
ĠF est
Ġmax imal
Ø ³
Ġwhe els
ĠAn imation
Ġfre ight
G G
tr ad
ir ie
per formance
Ġvol leyball
Ġev olving
gr pc
se gment
ĠF R
Ġsu ed
al ink
Ġloc ale
E th
Ġappe aled
h base
'' '
C SS
Ġeconom ically
pl er
ĠBrad y
Ġun ified
ab lo
S oviet
V EL
ĠT oken
ĠUN ESCO
Ġdepict s
aid en
rom agnetic
Ġi OS
Ġevolution ary
Ġd ent
Ġs ailed
ĠD y
ll a
F ast
Ġthir teen
S ix
ĠClass ical
B rian
ato es
Ġdeleg ates
ount ers
Ġec ological
; ]
C y
ĠSe qu
26 4
Ġm esh
Ġ( `
Ġretail ers
ĠPhot ography
cl i
Dim ension
ely n
I ts
Ġpan ic
L os
Ġsu cc
Ġf right
Ġpar ade
18 6
Ġar ises
Ġexc use
B rown
CL U
ĠIndones ian
ap a
Un iform
ĠCh arg
ĠN atal
ful ness
bal ance
ter ror
Ġcontract ed
Ġcontract ors
.. ...
Ġextra ction
war f
r v
Ġcross es
ĠContin ental
le w
icult ural
ĠEnt reprene
Pack et
æķ °
ĠIs le
ov al
ian i
Ġpres idents
Ġaer ial
E s
ed ar
Oper ations
ĠSing er
ĠMig uel
sk a
Scal ar
Ġri ot
Ġbl end
Ġaccount ed
ĠEm irates
Ġprote ctions
MESS AGE
ang les
Ġdisc our
_ -
M u
Ġd ip
Ġadvent ures
anc a
Pay load
Mer ge
ĠR esc
Col umb
ĠAss istance
pe er
Ġr am
ĠPlay Station
he id
Ġl over
ĠNew man
Ġred ist
Ġdro ps
Ġmeant ime
Ġreg ret
ĠB od
Ġpro long
Ġdou bled
mont on
ar med
ĠUS C
ib us
U UID
roph ic
HasBeen Set
P ending
T ip
ar ial
ĠB in
Ġt f
Ġcl an
Ġlif elong
Â §
Cl imate
Ġspec ulation
An aly
Ġin duction
" ])
ar ag
EX PORT
ĠHash Map
fin ity
Ġcontin ually
Ġterm inated
ĠE instein
ĠP osition
Ġ$ ('#
Ġ\ (\
Ġillustr ates
ĠRuss ians
Ġanaly tics
ĠK w
Ġpres umably
TR A
ĠF ilter
on so
Ġide als
dir name
Per haps
Ġun comfort
Conn ell
Ġdecre asing
Ġillustr ations
ĠE S
Ġcop ied
3 40
and ez
Ġconf ined
18 52
ĠS of
Ġbe aches
ĠProceed ings
Track er
re b
Ġb out
Ġres umed
du ces
s amples
che ss
ĠP owers
ĠSt ruct
Ġle mma
Ġendors ed
B uf
se ed
Lower Case
em bourg
ant o
Ġw avelength
ĠIn tern
Ġann oy
Through out
Ġmet eor
B oard
P K
ĠR w
Ð¾Ð ´
ĠS Ã£o
ĠB oeing
pl aces
Ġmulti pl
head s
ograph s
Ġch lor
Ġhe sit
ĠIllegal ArgumentException
ĠSc i
ĠIP v
ĠHun ting
ĠCl aire
ĠUs ers
ĠStart ing
Ġc af
Ġm oth
Ġsen ator
Ġep och
Dest roy
Ġathlet ics
Ġra ck
: /
18 46
Ġalt itude
ĠS hen
ĠW ords
Can vas
aff e
izar re
ĠF ighter
ĠBur ton
ĠB il
ĠF ra
Sl ot
Own Property
b matrix
Ġal ly
Ġenc ounters
ĠCorn wall
Ġtaxp ayers
Ġdoctor al
Ġsimilar ities
ĠRec ent
Ġpr ayers
="# "
Ġc ord
ne um
ä¸ Ń
ĠBe hind
Ġtransl ations
ĠToy ota
Ġex cerpt
Ġtem ples
Ġend angered
Art icles
f un
Ġend less
Ġeconom ist
B ag
Ġfor wards
Ġst aged
Ġorg ans
Ġpurch ases
âĨ Ĳ
Ġdev iation
ĠBas in
Ġste al
ĠColl abor
go al
Tex as
L es
ĠSacram ento
M Y
}{ (
ĠBer ry
re duce
ĠN u
Ar rays
Ġpsych iat
oun ces
Ġdat etime
Vis it
> {
ĠAt omic
âĦ ¢
ans on
ĠAlb any
Beh av
C trl
ĠB urns
font s
mem Item
ĠI CC
ĠTH IS
l ining
ĠD A
Ġatmosp heric
Ġunderstand s
ĠB ug
Ġimm ense
Ġgam bling
Ġsystem ic
ell ites
ĠE L
10 80
ĠAnd ers
Ġmis conduct
ĠLithuan ia
ĠP f
ĠPro blem
â Ĥ¬
Ġprem ise
l uc
ĠLouis ville
et z
ĠFl ash
Ġelig ibility
zh ou
Ġindic ators
Start ing
ĠLook ing
ĠHold ings
ir ate
isc opal
ĠProp het
ĠCon duct
With in
Ag ain
rest rial
ĠK iss
Ġt ire
Ch at
Ġsub ord
Cert ificate
P aired
Ġs ailing
ĠMil ton
res olved
ĠAbb ott
Ġa fore
Ġche aper
ĠÃ ģ
Ġdivor ced
Ġf ung
ĠT roy
Ġar row
com ments
ĠEm ail
Ġlook up
d frac
Ġdis posal
S eq
Ġby pass
ĠHuman ities
ĠD ebug
elastic search
ĠKle in
it ud
Ġg riev
ĠSing les
S ent
pat hetic
Ġmet abol
isecond s
}} )
C AP
p enter
Ġfr ank
ab olic
RO W
M F
Path s
\ }$.
18 45
in j
30 8
Con nor
c ached
ĠP ere
ac l
Ġor n
Pl ayers
ĠTrans action
Ġcollect or
Load ed
Ġmon opol
Ä ĩ
Å Ļ
ĠO ber
Ġprofess ors
Ġbut tons
ĠM ove
ĠAdv ance
D one
fund ed
Ġgu ilt
al tern
Ġbatt alion
Ġpre view
ĠOper ating
init ialize
int ent
Te chn
so lete
Ġcapt uring
ut a
22 8
en eg
Ġp ad
è ¡
Ġm eter
ĠT YPE
Ġwilling ness
Ġap ost
ĠI MP
Ġpresc ription
ĠAchiev ement
ĠInt o
Ġqual ifications
Pl us
ĠSom ething
Q UI
ĠD as
Ġref uses
Ġincur red
ĠB S
Ġinst ability
ĠCar lo
Ġspons ors
uis ine
Ġm s
Gener ate
ĠBor is
n ation
20 25
ĠCO MM
SER VER
bal ena
ĠG ET
ĠW ere
Ġint act
th ouse
ĠP ray
Ġorgan isms
ĠBou levard
ter min
over ride
ĠMar sh
aw k
Ġlocomot ives
Bit map
ĠB av
ĠM eyer
ĠHol iday
}} _{\
D evelopment
do ctor
Ġplant ed
Lem ma
p f
ĠO UT
ast ically
Ġbuy er
Ġse ct
ring ing
ĠMerc ury
br as
dis k
ĠJournal ism
Ġcoord inated
ĠM ets
Ġ\ ]
che l
og o
Ñ İ
Ġhead lines
Ġcreat ors
ath a
ĠDra ke
ac ious
Con stituency
Ġstation ed
hash Code
Ġev olve
Ġpoll ing
at ype
Ġmilit ia
Ġboard ing
Ġuniqu ely
lement ed
Ġex pr
Y P
custom er
q a
Ġspec ifies
Ġconfig ure
orth y
Block s
act iv
Ġinter fer
Ġlog istics
ĠAngel a
Ġcelebr ates
ĠInvest ig
d ump
ain es
ĠAccess ed
is co
22 7
Ass ignment
In ject
Ent ries
Ġgrand son
Ġg it
ĠAd rian
ĠUnivers ities
rol ogy
Ġposition ed
Ġround ed
K O
ĠA gg
ĠJuda ism
$ :
Ġc ats
N U
Ġto String
Ġur ge
h ist
Ġd Ã©
ĠF ay
son ian
Ġd atabases
Ġred es
fort unate
ĠD ad
**************************************************************** ********
Function s
Ġw ished
ãģ ®
L i
ĠSy nd
loc als
Ġbas in
ĠMon roe
D igital
member NameLink
ol ith
Ġbreak fast
Ġn ost
Ġcol ours
ĠU m
ival ent
Ġadministr ators
Ġfort unate
dem o
ĠC openhagen
ĠNAS CAR
â Ķ
Ġann ouncing
ĠPre vious
] $.
et itive
Ġat he
Ġind ef
ĠPh one
ÑĢ Ð°Ð
I rish
Ġl oses
Ġselect ing
Ġra infall
Ġvocal ist
Rec ords
Ġdemonstr ating
C orn
Ġre productive
ĠV iv
Un fortunately
Ġdial ect
av ian
iling ual
ĠMaur ice
Lin q
et c
ch in
ĠIn j
Ġstoryt elling
Ġacc redited
T L
Ġc and
ĠS ara
Ġundert ake
ar ith
ĠI g
Ġle ak
W ay
pos itive
Ġret ros
AB ILITY
G rant
Ġpro gression
rib ing
ĠSand y
at omy
Ġobserv ers
Ġsuspect s
ĠSe oul
ĠSpe ech
W at
Stack Trace
ĠT ales
26 3
Ġdisc overs
Ġfour teen
em ale
18 53
ĠBelf ast
pos ium
Ġincent ive
let es
g io
ne utral
Ġc ement
sc ient
Que en
ĠW ol
Ġrh s
EN S
ĠPent agon
c u
rib es
ole y
Ġref und
ĠTrib unal
a uses
un i
Int o
Ġmyth ology
c ategories
Ġwithd rawn
ĠDirect ory
Ġtim er
is le
Ref resh
Ġm aternal
s ame
Ġor phan
se ver
ĠAl f
rell a
her ical
Ġret rieved
Y ea
Ġdis band
Sc ient
ĠTrans it
Ġrenew al
S um
Face book
M esh
ĠLiber ation
Germ any
ĠS isters
Ġfe ared
ĠAssoci ates
Ġf et
ĠL az
ĠMan ila
18 44
Ġarbit ration
nd s
$ ^{-
Ġpre y
Ġteach ings
i ota
ĠAd vert
Ġsem if
Ġbott le
A thlet
ĠLog an
ĠS leep
Ġan ch
ĠCor onavirus
ij a
Ġfresh man
math it
ĠIm prov
ĠBet ty
p od
Ġbl amed
ug u
23 8
Vis ibility
he e
ar in
P ark
ĠTeacher s
Ġsear ches
Ġce ase
Lear n
light en
ĠEv il
Ġhonest ly
Car l
Ġthe rapeutic
ĠDay ton
ĠCy cl
ath olic
as por
ly mouth
24 7
sl o
Ġsuccess es
Me asure
sh arp
ĠD iet
R on
Ġint ro
25 4
G a
For ward
Status Code
sh ots
R GB
Ġst ays
Ġf ence
Sur face
multi row
3 80
bur se
Ġrec ession
Ġtechn ically
ĠDod gers
al ism
ĠAll an
Ġe ars
ĠString Builder
Ġrespect s
A ge
ĠS it
Ġkn ife
au f
Ġcomb inations
P ref
ew ater
ust ering
rack s
ios ity
= .
ma jor
ĠSpring field
Ġcl ay
' },
ns ic
Ġres idual
Ġaccus ations
tri angle
es ity
ĠParliament ary
Ġapart ments
ĠKn ox
e fficient
ĠD ifferent
Ġacceler ate
out ed
Ġan x
Ġt it
th irds
met rics
ĠBloom berg
Ġam munition
rict ed
Ġse am
Ġcont empl
AT URE
or ers
an ical
Ġexp ose
Ġhat red
Ġpay able
io let
Ġn od
ĠD rew
Ġc av
Ġb acter
ĉ ĠĠĠĠ
^* $
ĠM ell
ĠK oh
Ġoptim istic
P et
P F
ir al
Ġhead line
Ġg em
unn ers
IN IT
ĠMyst ery
ĠT ennis
ĠF amilies
ĠP si
Ġindirect ly
Ġ" );
Ġsub urban
Data Source
ari us
look up
Ġconvent ions
FORM AT
Ġsu ited
Ġspe eches
z oom
ĠC ort
ĠR anch
Ġsa fer
ov i
Ġ" ./
Ġsu its
File Path
with standing
il ion
ĠSerge ant
å Ľ
long rightarrow
! =
Ġmet all
ount ain
18 20
ĠNew port
umb led
ĠCry stal
G F
Ġcat hedral
Ġdiss olved
h ig
r vm
Ġle ather
ec ycle
Pop up
b ay
ĠE isen
Ġdes irable
Ġabs urd
igr ated
Ġprint s
ĠSol id
Ġla unches
Ġarm ies
ĠSask atchewan
ĠHall ow
bel iev
à ®
Ġquestion ing
Ġco pe
Ġillust ration
ĠIn frastructure
ĠTh row
ĠV III
Ġinter rupt
ĠFr anz
ĠCON FIG
L ord
ĠF ixed
af ka
ĠP AR
olog ic
Ġmet als
prec ision
ĠC airo
Ġent ang
A UTH
ĠDev on
en ario
ĠS tern
th ick
Ġnumber ed
Mus ical
P ixel
L y
Ġple asant
or ah
Ġloc ate
ĠQu ick
ĠObserv atory
p k
30 2
Re place
ch oice
ĠGoth ic
Ġbl essed
Build ing
] $,
Ġsp ont
m ur
ĠBu enos
ĠInit ialize
uch i
23 7
Co ins
Ġd angers
ag ne
F IL
Ġdirect ive
Ar r
Ġref using
ancellation Token
g ray
ap or
ĠD ob
qual ified
A mb
Ġcar ved
ĠB eg
end region
ĠG D
ph ot
}$ )
Ġpath way
ĠM ale
Ġsurg ical
we ather
Tax a
'] ))
Rel ative
Ġgu itars
non atomic
Ġmidfield er
Ġnep hew
ĠUn ity
ĠMar in
w m
Dec oder
AT T
ĠPres byterian
itt en
Ġtop ology
yl on
Ġvill ain
Ġfro zen
is che
ĠMar itime
Ġbre ed
sec ure
Ġland scapes
Ġclimb ing
Ġh ind
Ġres idency
l iter
ĠT EST
Ġelim ination
Ġup ris
Sl ice
Icon Error
Ġbe et
ĠB allet
Ġpros pective
Ġtra ils
Ġhear ings
re li
Ġimag ined
ĠSil va
l ane
red itation
22 9
um ann
Ġsuper vised
ãĥ ¼
M ale
ĠC el
Ġsh irt
Ġcan on
ĠByzant ine
s igned
Ġair ports
ĠAsh ley
ĠClin ic
OB JECT
ĠWes ley
Recorded Vote
Ġfig ured
ĠGriff in
Ġpass ive
ĠTrans fer
ĠA sc
omed ical
ent ries
ĠG reens
Ġexceed s
d ed
18 12
Medal ists
Ġch icken
Al tern
ĠCharl eston
! ,
Ġs ab
ĠSant iago
com merce
Ġz ip
Ġdrink s
t ap
Ġresp iratory
Su ite
pri ority
ĠWal sh
quir ies
RE AM
N ER
ĠRich ards
ĠM TV
osp here
Ġamb ition
E ric
ĠB L
ac ional
ĠSh i
Ġdecl ining
Fl ora
mut ex
Ġen forced
Ġ"- //
_ [
ĠMar ion
Ġsp otted
ĠInt el
ud er
Ġ* ,
Ġrecre ation
: =
harm onic
ma ha
Ġposit ively
ĠFe atures
ĠColon ial
Ġbreath ing
ers hire
ĠR ica
All owed
Ġfru its
at en
Ġdem o
Ġin ception
28 8
uff le
ĠInit ially
! \
ĠB MW
ĠHay es
Ġf als
Ġjump ing
Ġen larg
? </
g ae
ll er
r x
× Ķ
if ax
Spe aking
it as
Ġsur plus
sc ribed
ĠFr aser
l ore
Ġal phabet
ok i
> ()</
ge om
ric ting
Ġpeak s
ĠTri ple
Ġabsor ption
Ġafore mentioned
Ġind ie
if s
ĠPet erson
Work ing
ĠAl most
ĠTr igger
g iven
Ġboy friend
lyn n
ĠJen kins
Ġbas ement
Scott ish
p oll
Ġt ribut
ĠK ab
App ly
"> &#
Ġsuccess ive
ĠFinal s
parent Node
ĠW on
ĠGreen e
ĠH S
Ġcol ored
ĠR oh
ĠK erala
Ġfilm makers
ĠPat tern
Ġstand ings
Ġtum or
ĠYugosl avia
ĠG ive
Ġforth coming
Ġrecru iting
ĠEd gar
Ġabsor bed
Un ique
Ġto ile
ex clude
Ġn ons
Ġint ends
andid ates
Ġal beit
Ġrem inds
Ġover t
ĠCh anges
ĠSc hed
work ers
cp u
H F
C AC
Ġm apped
ĠCar bon
Ġcountry side
Ã¶ n
tool bar
al an
in qu
Ġfl avor
,\ \
vis ibility
ĠRec overy
pay ment
s il
ĠCON DITION
Sw ift
Access or
W O
Ġcontribut ors
c ats
Ġseason al
ĠInst all
P adding
Ġspecial ists
Ġvol tage
ĠBas il
ĠO THER
Ġplaintiff s
ĠM oss
RE L
person al
ĠP ush
st ub
Ġunder went
ĠRodrig uez
Ġm ice
ro ve
ĠĠĠĠĠĠĠĠ čĊ
aj i
S aturday
ĠProv incial
Ġd well
C UR
ĠC arson
ass et
ĠV il
ĠTag ged
Ġkeyboard s
attr s
Step hen
Ġkilomet res
ĠB ound
Ġr outer
Ġh urricane
pl aced
IconError Encoded
op ath
Ex amples
99 99
ul iar
ĠSt a
ĠP or
ĠB ren
b eck
avor ite
ĠIn fo
' ',
h aul
Class Name
Ġund oubtedly
S port
ĠE ra
pro duced
Ad am
Ġuncomfort able
ru ce
Ġsur geon
Ġre cept
ĠH ond
Ġgen ome
ĠP engu
Ġadjust ment
}[ \
t uple
Ġjust ification
() ]
set Attribute
ipe g
ĠSom erset
Ġcelebr ations
ĠS ister
Ġsan ction
g ard
? ,
Current ly
ĠAdvent ures
Ġth umb
Ġinadequ ate
Ġexplos ive
Ġtop ological
Ġsub urbs
ĠSat an
Ġappe aling
Tr igger
Ð° Ð»
Ġw ounds
ad ays
ĠI EEE
ast ing
Ġprofit able
Ġf ingers
Ġd ental
Ġrul ers
Ġb iblical
g p
Ġn ested
L t
Ġdis placement
Ġpass phrase
Ġtr unc
C op
Ġcouncil s
V IS
Ġinteg ers
ĠVAL UES
per mission
Ġcall er
Ġdiff ers
Ġprev ents
ĠH P
f ocused
for cing
Off ice
ĠAnn ie
Ġetern al
ĠTas man
Ġcreat ure
P ier
Ġâ ĪĴ
Arch ive
es pecially
Ġacceler ated
ĠShort ly
J P
ĠD erek
ID ENT
Ġdiss ent
ĠMe asure
itect ure
I reland
Ġo c
Ġse q
Ġexpon ential
Ġ umb
od ic
ĠZ ach
ĠH M
18 39
ĠBre nd
ĠCast ro
in ars
Ġcompl ained
Ġn est
us ions
× ª
Behav ior
ĠRev ival
0000 0000
R IGHT
c ultural
att ach
Ġcapt ures
ĠHug o
b ounds
ĠWe ight
Ġdr one
or get
Ġreg ener
ĠRel ief
Rep ly
gener ic
Ġprivile ges
ins ki
arm ing
ĠFern ando
f ere
Ġc ant
ul as
ĠGriff ith
ad r
over n
empt yset
Ġbox ing
ĠS ach
ĠU rugu
Ġwood s
P a
es p
Ġv endors
Ġb allet
we ak
16 00
Comm unity
Second s
IN DEX
Ke ep
ĠCase y
w ald
Ġbra ve
Ġgar age
ACCE PT
Ġtable ts
R o
it ures
ĠTele graph
K en
ĠS ed
ĠProv iders
A st
K A
Ġins urg
ow ment
Ġsp ends
pt ical
aur us
2 21
Ġb ats
h fill
ĠT D
ote chnology
ĠAct ivity
x l
24 8
N OS
Ġconserv atives
Ġo d
au nder
ĠProject s
Ġc atal
Ġcontain ers
Ġrein force
Ġgrav itational
ĠX X
ĠT her
Ġhist ories
ĠCelt ic
ĠNe ither
int ro
ĠC ult
ĠG ut
over flow
Ġp ause
ĠW ade
Ġr ushed
ge ometry
Recip ients
ĠGl ou
Ġpack aging
}) }
ar ma
Ġstate wide
ass er
Ġwhere in
Ġinstant ly
Mod al
ĠParam eter
Ġun stable
âĢĿ :
ĠM eta
Ġar ithmetic
Ġtrans plant
trans fer
ĠNS W
Ġblack s
or acle
im i
ad os
ĠI o
Ġret ention
Ġscholar ships
Ġm all
ĠS ou
ĠP irates
ĠF ear
Ġment ally
Stud ents
Ġf lesh
hard t
pl ed
ç »
oc ur
o ating
Ġb other
Ġlect urer
Ġsix teen
t an
L ab
ing en
Ġple a
L arge
Ġpop ul
ĠMon ica
ĠBry ant
29 0
Ġexceed ed
Ġaccomplish ments
ĠDr iver
ĠAl ways
ĠR C
ĠâĢ º
Ġorche str
Ġtrust ees
is itions
ĠU nd
3 25
t ec
Ġto y
Ġcon grat
Ġmet aphor
ĠL opez
ĠParam eters
ath am
Ġlist ings
Ass ign
ĠAtt ribute
Ġs ums
et erm
&= &
18 37
jav u
Fr iday
or ig
Ġprejud ice
ĠInvest igation
ĠC raft
ce ans
ad h
ĠR id
ĠC rypt
ard less
Ġequival ence
ĠN ortheast
ew s
g overnor
res a
sh iv
Inst ead
Ġb ags
Comp anies
B on
Per cent
fore st
Ġknock ed
pos able
Ġlack s
Ġemploy s
="# ">
Ġl ending
Ġexp ired
Ġsim ulated
ĠDiv ine
Ġb ilateral
ĠGreat est
er ver
H ence
Ġo ath
Over all
re search
t b
Ġb ore
Part s
b read
Ġbed room
ind uced
Ġcost ly
f u
ĠĠĠĠĠĠĠĠĠĠĠĠĠĠĠĠĠĠĠĠĠĠĠĠĠĠĠĠĠĠĠĠ ĠĠĠĠĠĠĠĠ
Ġgu ides
ad al
od ium
Ġswitch ing
ographer s
Ġdil ig
the ad
Ġsk ull
Ġcred ibility
Ġsuff ix
Ġl as
Ġcur l
law s
Ġteam mates
Ġ" +
Ġreal ised
Ġlawsu its
ĠShe ll
Ã© g
Pub lisher
Ġshe ets
Ġcell ular
Ġmor ality
ĠC and
ap on
Ġreb el
amm ad
Ġcounter part
@ {
Ġ! !
Ġprinc ip
short cut
un iform
Ġnarr atives
ĠHor ror
Ġm im
Ġemb raced
60 1
K ernel
ph ib
Ġexplo it
ĠA ch
ict ured
Ġdiff usion
Ġlack ed
ĠDom ain
ĠSex ual
Ġdis proportion
Ġintern ally
ĠS afe
Ã µ
Ġad olesc
sub scription
ĠNov el
Ġrec urring
ement ia
ĠĠĠĠĠĠĠĠĠĠĠĠĠĠĠĠĠĠĠĠĠĠĠĠĠĠĠĠĠĠĠĠ ĠĠĠĠĠĠĠĠĠ
de javu
Ġcorre ctions
ild a
ĠUn known
epend ing
T alk
ĠB elt
Ġsu ck
ys on
Ġissu ing
Q t
ĠWeb b
in vest
ĠP ine
Ġl ambda
ĠCP U
ip ation
es se
ĠGu ards
oc on
Ġg i
Ġst ir
ĠH ours
D am
ĠP ione
Ġnational ism
ad ier
ĠAr ms
Ġdom inate
> `
ag ain
Ġdr ift
ĠFl ow
ĠSo ft
Ġg a
d aughter
all a
ĠCard iff
Ġ/ ></
od or
Ġfl ip
ĠH our
tra ining
Disc ography
ĠCal vin
ynchron ous
Ġflag ship
to LowerCase
Ġgall eries
ĠĠĠĠĠĠĠĠĠĠĠĠĠĠĠĠĠĠĠĠĠĠĠĠĠĠĠĠĠĠĠĠ ĠĠĠĠĠĠĠĠĠĠĠĠĠĠĠĠĠĠĠ
R eq
ĠDis play
Ġvic inity
eng es
af a
ĠDor othy
RES ULT
Ġ} {
ĠNeg ro
ĠGand hi
ĠBu ilt
ĠGaz ette
Ġm ansion
Ġinitial ized
Ġrook ie
le z
Ġnon linear
ĠHigh land
TR ACE
el ian
Ġbow l
W arnings
Ġle ar
ĠM t
ĠVal ues
Ġlocal ized
C ivil
Ġfe ud
25 7
ott age
R outer
r int
Å Ľ
Ġpublic ity
lig a
å ¯
18 41
23 6
ĠF ur
leg end
Ġdisappe ar
Ġmid night
ĠP itt
ĠLaure n
Al ignment
ĠFrank furt
Ġin ference
Ġl ymph
ĠB agh
ĠPat rol
ĠQuest ions
S UP
Î ¯
Ġpro jections
he ta
ĠRead er
Ġadvoc ated
ĠCall ed
Ġin con
Ġst ab
ĠR as
Ind eed
Â ´
y arn
place holder
Ġpostpon ed
U pon
r ants
Encod er
Any Ref
Ġr ushing
1 200
unt u
h appy
Ġreg imes
ĠHallow een
el ic
sign al
Ch unk
ĠC ay
Ġmarket place
ĠNetwork s
ert ation
Ġo l
Ġassert ed
Ġrig orous
' ):
ĠRest aur
Ġsusp icious
ar ations
CH AN
To o
Ġassign ments
Ġinter change
ĠT ut
ĠTrust ees
Look ing
ad vert
Ġclass rooms
duc ible
ĠRos a
U int
Ġwh oles
y en
at ility
Ġrob ots
Vis itor
ĠBul garian
Ġst ochastic
ĠB rent
Ġmil estone
Ġsomet ime
ĠCONDITION S
M arg
ĠE z
el n
Ġb anner
Ġmem brane
ĠWin ston
Ġhighlight ing
z ier
Ġsen iors
Ġbes ide
Ġexp ans
Med ical
ĠOtt o
Ġstom ach
Const ruction
A mazon
ĠHead quarters
t ot
ĠPl ate
ĠHam as
res olution
r n
Ġsocial ism
Ġrig id
ĠLore n
á ¹
ĠB ee
og onal
Ġinter rog
date picker
Ġswe pt
ĠWinds or
G s
config ure
Ġab brev
back end
23 9
Ġeffic acy
ĠS cre
ĠL ub
Ġacceler ation
Ġun set
Ġgame play
D utch
ĠRE AD
ĠAn alytics
Ġincons istent
DOCK ED
Ġres ides
ar ium
Ġun fortunate
g ang
ĠBre tt
elect ric
T X
Ġopp ression
FT WARE
ĠTe a
Ġon set
ĠAtt ack
S on
Ġuns afe
ad ors
un its
Ġen rich
ĠRec re
n pm
Dest ination
ubern etes
ast ro
Ġcontrad iction
ĠAm anda
k al
ĠC ly
ĠSc ene
Ġ' ')
ĠCal endar
Valid ate
Ġquiet ly
A sh
\ ":
ĠOr d
Ð¸ Ñı
O x
ĠCo operation
" }
ter bury
Ġr m
Ġfrust ration
K S
we bs
k le
P ing
Ġthr illed
ĠGard ner
Ġdisput ed
ĠRaid ers
H ide
ĠG entle
En c
Ġaccess ibility
ĠSebast ian
F oo
âĢ ³
Ġc c
//////////////////////////////// ////////////////////////////////
ĠFun eral
3 10
ĠG ru
ĠBAS IS
Ġjurisdict ions
Ġaccess ing
ĠCont est
Ñģ Ðº
Ġneighbour ing
Us ed
Ġcomp atibility
Ġrem n
la us
Ġmist aken
F H
Ġsynchron ized
ĠUS E
ribut ing
Ġveget ables
Ġastron om
P oll
ĠE asy
d m
Ġdec ree
Ġo h
Ġd orm
Ġobserv ing
ices ter
Leg acy
ĠLead ers
ĠO st
ĠLe one
ĠR uby
eg ovina
ĠCon cept
Re ceive
ĠAc cept
Ġab olished
() [
Ġge ography
Ġd ancers
se at
MS G
ĠEqu ality
ig gers
Ġsc ared
sh aw
ĠW iki
ighth ouse
ĠTh ing
Ġman ually
}} ^{\
Ġcamp uses
inter action
Ġsupp ress
T en
Ġdecl aring
J s
ipp et
Listen ers
4 30
A BC
tr ivial
mer cially
ĠEurope ans
ĠSche me
Ġcontin ental
Ġout let
Ġdict ators
Ġback ward
------------ -
at isf
Ġdist ress
j obs
al bum
D ark
F all
s ender
Ang le
Ġaut ism
ĠCl ara
ĠInter face
Ġemphas ize
Ġvin yl
ĠV it
S a
ĠQu inn
ĠBeaut y
w ang
(" -
p referred
R oy
ĠChrist ine
ĠGu est
Ġnegot iated
L IB
ĠS ue
ĠMan ual
ategor ized
f requency
ĠS TR
[...]
