{"[UNK]":0,"!":1,"\"":2,"#":3,"$":4,"%":5,"&":6,"'":7,"(":8,")":9,"*":10,"+":11,",":12,"-":13,".":14,"/":15,"0":16,"1":17,"2":18,"3":19,"4":20,"5":21,"6":22,"7":23,"8":24,"9":25,":":26,";":27,"<":28,"=":29,">":30,"?":31,"@":32,"A":33,"B":34,"C":35,"D":36,"E":37,"F":38,"G":39,"H":40,"I":41,"J":42,"K":43,"L":44,"M":45,"N":46,"O":47,"P":48,"Q":49,"R":50,"S":51,"T":52,"U":53,"V":54,"W":55,"X":56,"Y":57,"Z":58,"[":59,"\\":60,"]":61,"^":62,"_":63,"`":64,"a":65,"b":66,"c":67,"d":68,"e":69,"f":70,"g":71,"h":72,"i":73,"j":74,"k":75,"l":76,"m":77,"n":78,"o":79,"p":80,"q":81,"r":82,"s":83,"t":84,"u":85,"v":86,"w":87,"x":88,"y":89,"z":90,"{":91,"|":92,"}":93,"~":94,"¡":95,"¢":96,"£":97,"¤":98,"¥":99,"¦":100,"§":101,"¨":102,"©":103,"ª":104,"«":105,"¬":106,"®":107,"¯":108,"°":109,"±":110,"²":111,"³":112,"´":113,"µ":114,"¶":115,"·":116,"¸":117,"¹":118,"º":119,"»":120,"¼":121,"½":122,"¾":123,"¿":124,"Â":125,"Ã":126,"Ä":127,"Å":128,"Æ":129,"Ç":130,"È":131,"É":132,"Ê":133,"Ë":134,"Ì":135,"Í":136,"Î":137,"Ï":138,"Ð":139,"Ñ":140,"Ò":141,"Ó":142,"Ô":143,"Õ":144,"Ö":145,"×":146,"Ø":147,"Ù":148,"Ú":149,"Û":150,"Ü":151,"Ý":152,"Þ":153,"ß":154,"à":155,"á":156,"â":157,"ã":158,"ä":159,"å":160,"æ":161,"ç":162,"è":163,"é":164,"ê":165,"ë":166,"ì":167,"í":168,"î":169,"ï":170,"ð":171,"ñ":172,"ò":173,"ó":174,"ô":175,"Ā":176,"ā":177,"Ă":178,"ă":179,"Ą":180,"ą":181,"Ć":182,"ć":183,"Ĉ":184,"ĉ":185,"Ċ":186,"ċ":187,"Č":188,"č":189,"Ď":190,"ď":191,"Đ":192,"đ":193,"Ē":194,"ē":195,"Ĕ":196,"ĕ":197,"Ė":198,"ė":199,"Ę":200,"ę":201,"Ě":202,"ě":203,"Ĝ":204,"ĝ":205,"Ğ":206,"ğ":207,"Ġ":208,"ġ":209,"Ģ":210,"ģ":211,"Ĥ":212,"ĥ":213,"Ħ":214,"ħ":215,"Ĩ":216,"ĩ":217,"Ī":218,"ī":219,"Ĭ":220,"ĭ":221,"Į":222,"į":223,"İ":224,"ı":225,"Ĳ":226,"ĳ":227,"Ĵ":228,"ĵ":229,"Ķ":230,"ķ":231,"ĸ":232,"Ĺ":233,"ĺ":234,"Ļ":235,"ļ":236,"Ľ":237,"ľ":238,"Ŀ":239,"ŀ":240,"Ł":241,"ł":242,"Ń":243,"ĠĠ":244,"Ġt":245,"in":246,"Ġa":247,"he":248,"on":249,"er":250,"ĠĠĠĠ":251,"re":252,"Ġthe":253,"at":254,"en":255,"or":256,"Ġs":257,"an":258,"es":259,"is":260,"it":261,"Ġo":262,"Ġw":263,"al":264,"Ġc":265,"ed":266,"ar":267,"Ġf":268,"nd":269,"Ġp":270,"ing":271,"ion":272,"Ġof":273,"Ġb":274,"Ġin":275,"ic":276,"ou":277,"as":278,"le":279,"Ġand":280,"Ġm":281,"Ġto":282,"Ġd":283,"ro":284,"ent":285,"Ġh":286,"ĠĠĠ":287,"ct":288,"il":289,"st":290,"et":291,"Ġth":292,"ĠĠĠĠĠĠĠĠ":293,"el":294,"om":295,"Ġre":296,"âĢ":297,"am":298,"ĠS":299,"Ġn":300,"ĠC":301,"id":302,"ol":303,"Ġl":304,"ĠT":305,"ĠA":306,"ation":307,"Ġe":308,"ce":309,"ur":310,"ut":311,"ot":312,"im":313,"iv":314,"ig":315,"ad":316,"ĠI":317,"Ġ(":318,"se":319,"ch":320,"Ġg":321,"Ġis":322,"ĠM":323,"Ġfor":324,"ly":325,"ay":326,"Ġon":327,"ow":328,"Ġbe":329,"ers":330,"ul":331,"ĠP":332,"ir":333,"Ġst":334,"ĠB":335,"em":336,"us":337,"un":338,"ag":339,"ter":340,"Ġthat":341,"if":342,"ith":343,"ra":344,"od":345,"ĠĠĠĠĠĠĠ":346,"ver":347,"20":348,"Ġas":349,"ĠH":350,"ist":351,"th":352,"um":353,"her":354,"ĠR":355,"ate":356,"ĠD":357,"Ġcon":358,"est":359,"Ġv":360,"Ġwith":361,"pe":362,"ac":363,"ab":364,"av":365,"ĠF":366,"Ġwas":367,"Ġ=":368,"oc":369,"and":370,"Ġal":371,"Ġan":372,"Ġwh":373,"ĠL":374,"ĠW":375,"ĠThe":376,"Ġit":377,"âĢĻ":378,"</":379,"Ġpro":380,"op":381,"ĠN":382,"ri":383,"qu":384,"ĉĉ":385,"ess":386,"ew":387,"ht":388,"res":389,"ĠG":390,"19":391,"=\"":392,"ĠE":393,"ity":394,"ort":395,"ill":396,"Ġhe":397,"Ġat":398,"Ġde":399,"Ġy":400,"our":401,"Ġby":402,"Ġcom":403,"rom":404,"os":405,");":406,"pp":407,"--":408,"end":409,"ction":410,"ment":411,"pt":412,"ub":413,"art":414,"Ġ$":415,"ore":416,"ld":417,"Ġor":418,"ain":419,"ass":420,"Ġ<":421,"Ġex":422,"ies":423,"ĠJ":424,"Ġ{":425,"ke":426,"nt":427,"ex":428,"ame":429,"ĠâĢ":430,"Ġare":431,"Ġfrom":432,"all":433,"ĠO":434,"Ġ\"":435,"ant":436,"Ġr":437,"Ġse":438,"Ġ\\":439,"ud":440,"ive":441,"ue":442,"ĠĠĠĠĠĠĠĠĠĠĠ":443,"//":444,"ial":445,"age":446,"ĠU":447,"Ġcl":448,"Ġu":449,"ine":450,"ight":451,"čĊ":452,"og":453,"Ġthis":454,"ect":455,"ure":456,"ust":457,"ard":458,"ber":459,"pl":460,"ans":461,"ave":462,"ge":463,"Ġ*":464,"Ġch":465,"Ġnot":466,"ap":467,"cl":468,"rou":469,"ov":470,"..":471,"The":472,"iz":473,"'s":474,"ary":475,"out":476,"Ġsh":477,"Ġwe":478,"ich":479,"ĠSt":480,"per":481,"Ġle":482,"00":483,"ult":484,"ia":485,"ff":486,"ell":487,"ast":488,"ated":489,"ost":490,"ack":491,"ear":492,"are":493,"Ġ}":494,"\">":495,"con":496,"Ġpl":497,"ĠK":498,"Ġhave":499,"Ġsu":500,"201":501,"ire":502,"ip":503,"ork":504,"ord":505,"ak":506,"ong":507,"ĠIn":508,"ical":509,"Ġhis":510,"orm":511,"urn":512,"ould":513,"Ġhas":514,"port":515,"âĢĿ":516,"ef":517,"able":518,"ath":519,"ice":520,"ome":521,"ok":522,"Ġj":523,"ions":524,"ry":525,"Ġab":526,"cc":527,"sp":528,"ther":529,"ind":530,"lic":531,"ide":532,"ian":533,"ĠĠĠĠĠĠĠĠĠĠĠĠĠĠĠĠ":534,"ign":535,"ext":536,"int":537,"ime":538,"ence":539,"ĠV":540,"ĠĠĠĠĠ":541,"Ġwhe":542,"Ġcont":543,"Ġyou":544,"Ġcomp":545,"eg":546,"Ġwhich":547,"li":548,"ep":549,"ere":550,"Ġint":551,"Ġk":552,"),":553,"ous":554,"Ġad":555,"ĠCh":556,"act":557,"ations":558,"ase":559,"Ġall":560,"ph":561,"ru":562,"ile":563,"Ġif":564,"Ġun":565,"erv":566,"so":567,"ace":568,"ount":569,").":570,"ite":571,"Ġclass":572,"**":573,"gh":574,"tr":575,"Ġcan":576,"ĠâĢľ":577,"Ġim":578,"ory":579,"ang":580,"ib":581,"Ġar":582,"In":583,"ance":584,"ition":585,"Ġtr":586,"Ġ&":587,"ec":588,"mer":589,"ev":590,"Ġgo":591,"ens":592,"enc":593,"turn":594,"get":595,"ild":596,"Ġus":597,"Ġtheir":598,"Ġwho":599,"du":600,"Ġwere":601,"one":602,"ĠĊ":603,"Ġbut":604,"----":605,"ish":606,"ents":607,"Ġ-":608,"ĠTh":609,"ype":610,"form":611,"Ġnew":612,"ob":613,"ress":614,"Ġwill":615,"==":616,"Ġres":617,"Ġ'":618,"Ġdo":619,"com":620,"ref":621,"200":622,"ode":623,"au":624,"()":625,"Ġthey":626,"ject":627,"Ġalso":628,"ally":629,"Ġone":630,"ach":631,"ail":632,"tern":633,"Ġout":634,"_{":635,"ublic":636,"Ġpart":637,"irst":638,"own":639,"ric":640,"ound":641,"Ġhad":642,"Ġme":643,"rit":644,"ata":645,"Ġper":646,"Ġyear":647,"Ġdis":648,"ors":649,"ll":650,"ree":651,"Ġman":652,"ont":653,"fer":654,"Ġwork":655,"ook":656,"Ġmore":657,"Ġen":658,"Ġits":659,"18":660,"ĠY":661,"ĠUn":662,"ark":663,"ose":664,"ck":665,"Ġother":666,"ĠHe":667,"ates":668,"Ġag":669,"row":670,"ink":671,"te":672,"Ġbeen":673,"hed":674,"Ġev":675,"Ġup":676,"ake":677,"ne":678,"ĠIt":679,"ring":680,"ely":681,"ĠĠĠĠĠĠĠĠĠĠĠĠĠĠĠ":682,"aw":683,"Ġsc":684,"clud":685,"ft":686,"ool":687,"10":688,"Ġreturn":689,"ock":690,"oll":691,"Ġabout":692,"nder":693,"ss":694,"Ġpe":695,"ational":696,"old":697,"ople":698,"amp":699,"elf":700,"Ġher":701,"Ġte":702,"ert":703,"ng":704,"very":705,"wo":706,"rib":707,"Ġso":708,"Ġapp":709,"fter":710,"Ġ[":711,"ings":712,"Ġfirst":713,"Ġsp":714,"Ġ|":715,"ater":716,"ays":717,"vel":718,"Ġover":719,"Ġcomm":720,"iew":721,"alue":722,"Ġqu":723,"ource":724,"Ġli":725,"Ġpre":726,"pro":727,"aid":728,"Ġ//":729,"Ġ</":730,"Ġtime":731,"Ġpr":732,"anc":733,"we":734,"Ġrec":735,"ps":736,"iss":737,"ener":738,"Ġne":739,"Ġwould":740,"ons":741,"ual":742,"ull":743,"::":744,"../":745,"ption":746,"ĠâĢĵ":747,"erm":748,"lect":749,"ĉĉĉĉ":750,"{\\":751,"oy":752,"sc":753,"St":754,"ade":755,"Ġbec":756,"->":757,"unction":758,"Ġpeople":759,"pec":760,"Ġthere":761,"eth":762,"ie":763,"Ġwhen":764,"Ġoff":765,"\",":766,"Ġro":767,"ram":768,"div":769,"yst":770,"sh":771,"Ġkn":772,"reat":773,"ember":774,"pect":775,"Ġthan":776,"oint":777,"ond":778,"ve":779,"les":780,"Ġacc":781,"Ġdef":782,"Ġany":783,"Ġpublic":784,"inal":785,"Ġget":786,"Ġinto":787,"Ġdes":788,"ics":789,"ited":790,"Ġplay":791,"Ġ$\\":792,"iel":793,"ĠCom":794,"Ġtwo":795,"over":796,"Ġunder":797,"ug":798,"Ġinclud":799,"Ġinter":800,"igh":801,"ious":802,"tt":803,"Ġthem":804,"ick":805,"ma":806,"orld":807,"ize":808,"red":809,"ities":810,"ivers":811,"Ġass":812,"ĠAr":813,"Ġsaid":814,"par":815,"Ġ/":816,"meric":817,"io":818,"Ġsome":819,"ident":820,"Ġ@":821,"ml":822,"Ġset":823,"math":824,"12":825,"Ġact":826,"Ġshe":827,"ict":828,"essage":829,"Ex":830,"pr":831,"round":832,"arch":833,"Ġreg":834,"Ġour":835,"land":836,"olog":837,"ĠNew":838,"ward":839,"199":840,"ied":841,"Ġ.":842,"ific":843,"up":844,"ased":845,"âĢĵ":846,"ystem":847,"ield":848,"ty":849,"ix":850,"Ġ+":851,"app":852,"ning":853,"Ġatt":854,"Ġbet":855,"21":856,"Ġonly":857,"Ġname":858,"Ġpol":859,"Ġob":860,"Ġafter":861,"(\"":862,"put":863,"Ġrel":864,"ative":865,"Ġinv":866,"Ġcons":867,"ys":868,"Ġsub":869,"uring":870,"als":871,"Ġadd":872,"ise":873,"Ġno":874,"();":875,"Ġserv":876,"lement":877,"span":878,"></":879,"Ġtra":880,"ax":881,"wn":882,"Ġprov":883,"ren":884,"Ġyears":885,"pport":886,"set":887,"arg":888,"Ġcol":889,"ause":890,"rough":891,"ement":892,"the":893,"cre":894,"Ġwhat":895,"Ġwhere":896,"Ġind":897,"ood":898,"Ġbu":899,"ove":900,"Ġend":901,"Ġam":902,"ĠSe":903,"ange":904,"ĠAmeric":905,"ular":906,"ĠThis":907,"Ġfil":908,"Ġvar":909,"16":910,"chool":911,"15":912,"orn":913,"Ġem":914,"><":915,"--------":916,"Ġstud":917,"any":918,"Ġmost":919,"oot":920,"ating":921,"Ġra":922,"ank":923,"ames":924,"ution":925,"irect":926,"und":927,"let":928,"Ġconst":929,"ily":930,"Ġlike":931,"ient":932,"roup":933,"ĠPro":934,"Ġtrans":935,"',":936,"ife":937,"ms":938,"eb":939,"ues":940,"Ġsuch":941,"Ġfe":942,"Ġjust":943,"ences":944,"ced":945,"Ġpos":946,"Ġmay":947,"err":948,"ough":949,"umber":950,"Ġmod":951,"17":952,"man":953,"../../":954,"text":955,"__":956,".âĢĿ":957,"gan":958,"Ġrem":959,"Ġbl":960,"Ġthrough":961,"ER":962,"ts":963,"Ġhim":964,"ility":965,"Ġ||":966,"equ":967,"Ġhow":968,"oth":969,"Ġinst":970,"uth":971,"ished":972,"ollow":973,"pos":974,"Ġfunction":975,"Ġdif":976,"Th":977,"che":978,"fig":979,"ash":980,"ĠAl":981,"ton":982,"Ġpres":983,"ale":984,"ists":985,"ince":986,"}}":987,"ins":988,"iversity":989,"Ġ:":990,"Ġent":991,"://":992,"ision":993,"hip":994,"Ġmy":995,"Ġfl":996,"erson":997,"ower":998,"itt":999,"ible":1000,"Ġloc":1001,"oun":1002,"Ġcount":1003,"Ġprodu":1004,"Ġthese":1005,"to":1006,"der":1007,"its":1008,"Ġthen":1009,"11":1010,"ars":1011,"Ġco":1012,"Ġback":1013,"oid":1014,"eng":1015,"air":1016,"ray":1017,"====":1018,"html":1019,"Ġrequ":1020,"oci":1021,"Pro":1022,"ween":1023,"ract":1024,"cent":1025,"atic":1026,"ures":1027,"Ġcall":1028,"^{":1029,"ator":1030,"cond":1031,"Ġac":1032,"ah":1033,"****":1034,"Ġspec":1035,"Ġ*/":1036,"oh":1037,"ek":1038,"Ġagain":1039,"ON":1040,"ason":1041,"ful":1042,"rent":1043,"atch":1044,"key":1045,"Ġph":1046,"ute":1047,"line":1048,"raph":1049,"ruct":1050,"source":1051,"Ġwell":1052,"ined":1053,"30":1054,"Ġhref":1055,"ann":1056,"ĉĉĉ":1057,"right":1058,"198":1059,"led":1060,"ble":1061,"ĠWe":1062,"Ġmany":1063,"message":1064,"ĠĠĠĠĠĠĠĠĠĠĠĠĠĠĠĠĠĠĠ":1065,"Ġdata":1066,"14":1067,"Ġuse":1068,"abel":1069,"trans":1070,"lation":1071,"imes":1072,"Ġbetween":1073,"son":1074,"Ġcould":1075,"ines":1076,"ĠĠĠĠĠĠĠĠĠ":1077,"att":1078,"lection":1079,"}\\":1080,"Ġfollow":1081,"ices":1082,"cess":1083,"Ġresult":1084,"}$":1085,"ery":1086,"Ġyour":1087,"('":1088,"ism":1089,"min":1090,"Ġ#":1091,"Ġshow":1092,"alth":1093,"Ġright":1094,"ral":1095,"Ġline":1096,"IN":1097,"other":1098,"name":1099,"Ġneed":1100,"ead":1101,"13":1102,"22":1103,"Ġel":1104,"Ġform":1105,"ĠSh":1106,"))":1107,"ox":1108,"vent":1109,"Ġbeing":1110,"oad":1111,"ider":1112,"ĠAnd":1113,"read":1114,"ments":1115,"Ġed":1116,"ym":1117,"hen":1118,"ature":1119,"Ġfam":1120,"ript":1121,"ĠAn":1122,"Ġtype":1123,"ner":1124,"Ġcur":1125,"ives":1126,"pen":1127,"25":1128,"Ġart":1129,"uch":1130,"Ġused":1131,"âĢľ":1132,"Ġvalue":1133,"ouse":1134,"Ġmade":1135,"Str":1136,"Name":1137,"Ġdec":1138,"this":1139,"Ġdid":1140,"Ġdist":1141,"Ġeff":1142,"ĠInd":1143,"Ch":1144,"Ġfound":1145,"Ġbecause":1146,"col":1147,"fore":1148,"ces":1149,"000":1150,"ages":1151,"Ġgener":1152,"Ġknow":1153,"Ġcent":1154,",âĢĿ":1155,"Ġworld":1156,"Ġear":1157,"orth":1158,"Ġlead":1159,"alse":1160,"dd":1161,"az":1162,"yn":1163,".,":1164,"Ġstart":1165,"Ġext":1166,"ĠWh":1167,"ier":1168,"ized":1169,"uss":1170,"Ġown":1171,"day":1172,"Ġdiffer":1173,"ĠUniversity":1174,"ience":1175,"Ġlong":1176,"velop":1177,"ĠAs":1178,"gram":1179,"uc":1180,"td":1181,"ĠCl":1182,"Ġnow":1183,"rad":1184,"Ġdevelop":1185,"aj":1186,"aking":1187,"of":1188,"ever":1189,"197":1190,"ern":1191,"Ġchar":1192,"Ġ=>":1193,"iver":1194,"(\\":1195,"ten":1196,"way":1197,"Ġap":1198,"ethod":1199,"Ġcre":1200,"ants":1201,"egin":1202,"Ġmed":1203,"Ġshould":1204,"Ġbefore":1205,"import":1206,"ather":1207,"Ġself":1208,".\"":1209,"ĠCol":1210,"ght":1211,"Ref":1212,"/>":1213,"RE":1214,"Type":1215,"view":1216,"Ġsur":1217,"Id":1218,"Ġsystem":1219,"ument":1220,"Ġsign":1221,"outh":1222,"Ġevery":1223,"ww":1224,"ury":1225,"param":1226,"Ġsupport":1227,"fl":1228,"Ġnumber":1229,"Ġduring":1230,"ĠCon":1231,"ĠDe":1232,"ask":1233,"ĠFor":1234,"It":1235,"},":1236,"nment":1237,"Ġstate":1238,"ired":1239,"Com":1240,"Ġmake":1241,"ĠSc":1242,"Ġgover":1243,"String":1244,"ets":1245,"Ġser":1246,"Ġthose":1247,"Con":1248,"Ġmov":1249,"ĠAmerican":1250,"Ġexp":1251,"ĠZ":1252,"Ġdet":1253,"Ġmon":1254,"Ġest":1255,"iness":1256,"ĠComm":1257,"##":1258,"Ġpar":1259,"Ġhigh":1260,"Ġthree":1261,"rac":1262,"ology":1263,"bers":1264,"Ġvery":1265,"ĠIs":1266,"ĠQ":1267,"Ġbel":1268,"ache":1269,"formation":1270,"els":1271,"Ġeven":1272,"itle":1273,"AT":1274,"Ġmin":1275,"begin":1276,"Cont":1277,"ting":1278,"org":1279,"\"/>":1280,"ball":1281,"Ġcommun":1282,"cept":1283,"ĠUnited":1284,"Ġhel":1285,"ta":1286,"Ġwhile":1287,"ik":1288,"iving":1289,"ST":1290,"ived":1291,"Ġpoint":1292,"ital":1293,"ĠFr":1294,"Ġteam":1295,"Ġsame":1296,"ody":1297,"50":1298,"self":1299,"ault":1300,"ee":1301,"Ġstr":1302,"istory":1303,"Ġway":1304,"'t":1305,"Ġboth":1306,"Ġdirect":1307,"Ġsim":1308,"ĠTr":1309,"htt":1310,"ural":1311,"ivate":1312,"ID":1313,"Ġgu":1314,"return":1315,"Ġsm":1316,"Ġwrit":1317,"code":1318,"translation":1319,"Ġcase":1320,"add":1321,"Ġexper":1322,"Ġchild":1323,"Ġschool":1324,"ccess":1325,"Ġoper":1326,"cont":1327,"omen":1328,"ersion":1329,"Ġfin":1330,"ina":1331,"ctions":1332,"ternal":1333,"ared":1334,"Ġlaw":1335,"ĠShe":1336,"196":1337,"Ġperson":1338,"Ġrep":1339,"usic":1340,"ually":1341,"ception":1342,"Ġlast":1343,"usiness":1344,"Ġsee":1345,"class":1346,"ron":1347,"AR":1348,"Ġmem":1349,"illion":1350,"Res":1351,"cal":1352,"Ġcour":1353,"ister":1354,"af":1355,"Ġimp":1356,"Ġeach":1357,"iev":1358,"Ġincluding":1359,"Ġlife":1360,"Ġtest":1361,"alk":1362,"ross":1363,"Ġcontin":1364,"ĠEx":1365,"co":1366,"ohn":1367,"Ġdoes":1368,"chn":1369,"Ġi":1370,"ically":1371,"Ġread":1372,"Ġresp":1373,"yle":1374,"ĠPh":1375,"Ġpartic":1376,"24":1377,"lish":1378,"bl":1379,"Ġcare":1380,"Ġthink":1381,"Ġrele":1382,"def":1383,"ission":1384,"Ġcor":1385,"ional":1386,"Ġsecond":1387,"ote":1388,"Ar":1389,"Ġlist":1390,"Ġagainst":1391,"uro":1392,"by":1393,"uthor":1394,"Ġreport":1395,")$":1396,"Ġappro":1397,"iven":1398,"gy":1399,"OR":1400,"Ġimport":1401,"ency":1402,"List":1403,"ĠSp":1404,"ization":1405,"ety":1406,"br":1407,"Ġbuild":1408,"Refer":1409,"ober":1410,"Ġmuch":1411,"Ġ!":1412,"_{\\":1413,"ey":1414,"ense":1415,"Ġhelp":1416,"...":1417,"Ġdisc":1418,"ĠBl":1419,"ser":1420,"ole":1421,"ĠMar":1422,"lished":1423,"Ġpop":1424,"mod":1425,"Ġval":1426,"ĠâĢĶ":1427,"eter":1428,"Ġdifferent":1429,"back":1430,"ream":1431,"ĠEng":1432,"pon":1433,"ple":1434,"Ġfact":1435,"loc":1436,"Ġrecord":1437,"Cl":1438,"Ġwant":1439,"Ġprogram":1440,"Ġbook":1441,"rict":1442,"med":1443,"enn":1444,"til":1445,"use":1446,"Ġstat":1447,"ternational":1448,"ĠStates":1449,"Ġrun":1450,"ven":1451,"arent":1452,"):":1453,"work":1454,"rem":1455,"23":1456,"ĠBut":1457,"ness":1458,"Ġ_":1459,"su":1460,"Ġlook":1461,"}{":1462,"cur":1463,"val":1464,"ified":1465,"type":1466,"rol":1467,"ele":1468,"Ġtrue":1469,"Ġdep":1470,"Ġ--":1471,"umm":1472,"Ġpass":1473,"Ġcar":1474,"ĠLe":1475,"Ġmain":1476,"ott":1477,"Ã©":1478,"esc":1479,"resent":1480,"ality":1481,"rist":1482,"for":1483,"Ġsing":1484,"ially":1485,"ample":1486,"fo":1487,"Ġperform":1488,"Ġmark":1489,"2021":1490,"label":1491,"Ġgood":1492,"EN":1493,"ploy":1494,"Ġcurrent":1495,"Ġgl":1496,"ases":1497,"oard":1498,"Ġappe":1499,"References":1500,"ains":1501,"Ġsince":1502,"ley":1503,"Ġpolit":1504,"Ġ==":1505,"Ġdr":1506,"une":1507,"âĢĶ":1508,"ration":1509,"Ġhand":1510,"lear":1511,"yp":1512,"Ġdon":1513,"var":1514,"....":1515,"left":1516,"arm":1517,"We":1518,"Ġdown":1519,"Ġrece":1520,"conom":1521,"ĠOn":1522,"ocial":1523,"Ġorgan":1524,"eta":1525,"40":1526,"ĠJan":1527,"Ġfind":1528,"perty":1529,"Ġfilm":1530,"Ġfalse":1531,"Ġequ":1532,"Ġstill":1533,"idth":1534,"Ġgovernment":1535,"Ġav":1536,"ĠJohn":1537,"ĠPl":1538,"ĠMay":1539,"Ġleg":1540,"AL":1541,"itions":1542,"Ġann":1543,"Ġnull":1544,"Ġopen":1545,"Ġfamily":1546,"Ġfinal":1547,"ify":1548,"urch":1549,"ĠAd":1550,"ained":1551,"Ġprocess":1552,"Ġfour":1553,"apt":1554,"Ġprovid":1555,"Ġtake":1556,"uman":1557,"ris":1558,"Ġelse":1559,"por":1560,"ule":1561,"Ġdesc":1562,"Ġplace":1563,"Ġexpl":1564,"error":1565,"ĠThey":1566,"Ġinformation":1567,"Ġorder":1568,"fess":1569,"Ġsol":1570,"\"><":1571,"pre":1572,"Ġsom":1573,"Ġaround":1574,"Ġgr":1575,"ĠOr":1576,"ger":1577,"2020":1578,"ĠRe":1579,"ĠâĢĺ":1580,"LE":1581,"ior":1582,"SS":1583,"arget":1584,"eq":1585,"akes":1586,"frac":1587,"ĠCent":1588,"Ġoffic":1589,"Ġterm":1590,"ĠRes":1591,"ĠYou":1592,"opt":1593,"bar":1594,"ĠYork":1595,"Ġday":1596,"Ġgroup":1597,"Ġlink":1598,"ĠHow":1599,"search":1600,"ries":1601,"arn":1602,"Ġvoid":1603,"Ġ`":1604,"ians":1605,"Ġbusiness":1606,"Ġadv":1607,"ird":1608,"Ġhere":1609,"To":1610,"Ġorig":1611,"ulation":1612,"Ġsay":1613,"Ġref":1614,"Ġvis":1615,"roll":1616,"amb":1617,"ograph":1618,"26":1619,"ĠĠĠĠĠĠĠĠĠĠĠĠĠ":1620,"ength":1621,"Ġincre":1622,"Ġ>":1623,"On":1624,"Ġlater":1625,"mp":1626,"Ġmust":1627,"This":1628,"mathb":1629,"ajor":1630,"ĠNational":1631,"ĠUS":1632,"string":1633,"ining":1634,"Ġhead":1635,"uild":1636,"ised":1637,"27":1638,"reen":1639,"100":1640,"str":1641,"side":1642,"Ġsl":1643,"----------------":1644,"Ġeffect":1645,"Ġnon":1646,"ĠIf":1647,"que":1648,"Ġconsider":1649,"ribut":1650,"Ġprivate":1651,"ends":1652,"ava":1653,"28":1654,"ĠWorld":1655,"Ġprot":1656,"Ġfollowing":1657,"vious":1658,"irc":1659,"Ġche":1660,"Ġinterest":1661,"Ġpower":1662,"));":1663,"Ġknown":1664,"aving":1665,"ĠCan":1666,"Ġrest":1667,"Ġbro":1668,"bs":1669,"my":1670,"umn":1671,"Ġdem":1672,"Ġsever":1673,"olv":1674,"ots":1675,"reg":1676,"Ġallow":1677,"Ġdesign":1678,"194":1679,"ope":1680,"Ġposs":1681,"ervice":1682,"ler":1683,"Ġgreat":1684,"ĠEuro":1685,"inc":1686,"item":1687,"Ġinvest":1688,"Ġhome":1689,"sub":1690,"Ġlocal":1691,"Ġproject":1692,"Ġweek":1693,"Ġconf":1694,"ourn":1695,"Ġcountry":1696,"oss":1697,"Ġreal":1698,"ately":1699,"ths":1700,"ush":1701,"ane":1702,"raw":1703,"ĠĠĠĠĠĠĠĠĠĠĠĠĠĠĠĠĠĠĠĠĠĠĠ":1704,"ror":1705,"ĠAll":1706,"Ġcalled":1707,"Col":1708,"play":1709,"aim":1710,"AN":1711,"Wh":1712,"here":1713,"Ġtop":1714,"As":1715,"Ġfield":1716,"Ġusing":1717,"ording":1718,"Ġhealth":1719,"new":1720,"not":1721,"ĠCount":1722,"Ġ)":1723,"An":1724,"ĠPr":1725,"Ġx":1726,"ĠState":1727,"Ġseason":1728,"Ġbest":1729,"ium":1730,"Ġsmall":1731,"Ġgoing":1732,"uary":1733,"rop":1734,"By":1735,"gg":1736,"Ġmusic":1737,"Ġgame":1738,"be":1739,"29":1740,"ĠWar":1741,"lex":1742,"ination":1743,"Ġcap":1744,"Ġevent":1745,"Ġmat":1746,"ĠNov":1747,"ĠCar":1748,"rm":1749,"Ġid":1750,"Ġpost":1751,"bject":1752,"less":1753,"idd":1754,"ĠAss":1755,"Ġpat":1756,"data":1757,"Ġcompany":1758,"Ġexpect":1759,"Ġmet":1760,"nb":1761,"ai":1762,"Ġstand":1763,"ively":1764,"Ġret":1765,"Ġtechn":1766,"$.":1767,"********":1768,"vir":1769,"Ġfr":1770,"ĠX":1771,"ĠAt":1772,"IT":1773,"Un":1774,"vert":1775,"ended":1776,"ected":1777,"32":1778,"order":1779,"iam":1780,"Ġpresent":1781,"Ġgiven":1782,"aster":1783,"2016":1784,"ats":1785,"head":1786,"Ġke":1787,"cite":1788,"Ġcharact":1789,"Ġwomen":1790,"date":1791,"Ġdel":1792,"Ġnext":1793,"ories":1794,"ocument":1795,"2018":1796,"////":1797,"arge":1798,"Ġarg":1799,"Ġanother":1800,"Ġinc":1801,"ilit":1802,"Ġbre":1803,"\");":1804,"Ġleft":1805,"ability":1806,"leg":1807,"Ġseries":1808,"2019":1809,"\".":1810,"Ġlevel":1811,"lege":1812,"2017":1813,"Ġold":1814,"Ġiss":1815,"ĠPol":1816,"Ġhtt":1817,"$,":1818,"ertain":1819,"ĠEurope":1820,"ought":1821,"Ġwithin":1822,"obal":1823,"ĠJu":1824,"ĠAug":1825,"ĠAf":1826,"eral":1827,"2015":1828,"Value":1829,"195":1830,"ĠBrit":1831,"Ġmillion":1832,"Ġsuccess":1833,"Ġmanag":1834,"ĠAust":1835,"ways":1836,"ĠMan":1837,"angu":1838,"Ġfac":1839,"33":1840,"ffer":1841,"Ġuntil":1842,"bum":1843,"me":1844,"ĠMin":1845,"ĠSchool":1846,"CT":1847,"ootball":1848,"Ġstring":1849,"Ġelect":1850,"Ġpub":1851,"Data":1852,"SE":1853,"itor":1854,"stand":1855,"ently":1856,"Ġobject":1857,"epend":1858,"\")":1859,"Ġreally":1860,"Ġestab":1861,"Ġwin":1862,"comm":1863,"time":1864,"})":1865,"nbsp":1866,"ĠSouth":1867,"Ġmethod":1868,"ĠChrist":1869,"Ġchildren":1870,"ĠĠĠĠĠĠ":1871,"stit":1872,"file":1873,"Ġbr":1874,"location":1875,"icle":1876,"Ġdeath":1877,"ney":1878,"roid":1879,"Ġbased":1880,"ĠOct":1881,"ump":1882,"ried":1883,"Ġwithout":1884,"Ġmembers":1885,"icy":1886,"For":1887,"etwork":1888,"Ġocc":1889,"requ":1890,"ential":1891,"Ġauthor":1892,"mb":1893,"wards":1894,"He":1895,"Ġview":1896,"Ġbecame":1897,"px":1898,"2014":1899,"Ġeng":1900,"Ġinit":1901,"mber":1902,"Ġmajor":1903,"ateg":1904,"ague":1905,"ony":1906,"ĠBe":1907,"ĠMarch":1908,"Ġcity":1909,"Ġaff":1910,"ene":1911,"}.":1912,"face":1913,"Ġland":1914,"========":1915,"mathcal":1916,"action":1917,"iod":1918,"Ġkey":1919,"Ġspe":1920,"Ġtitle":1921,"oman":1922,"âĢ¦":1923,"ptember":1924,"ĠNo":1925,"gin":1926,"Ġeconom":1927,"pril":1928,"ĠThere":1929,"Ġhistory":1930,"Tr":1931,",\\":1932,"ground":1933,"ĠPar":1934,"value":1935,"Ġgrow":1936,"ords":1937,"Ġfew":1938,"Ġnear":1939,"Ġmar":1940,"hes":1941,"CO":1942,"ances":1943,"rap":1944,"Ġwar":1945,"ummary":1946,"Ġplayers":1947,"ĠJanuary":1948,"used":1949,"Ġimportant":1950,"Ġarea":1951,"ĠGe":1952,"Ġseveral":1953,"log":1954,"duct":1955,"Ġeduc":1956,"Ġrefer":1957,"go":1958,"Ġchang":1959,"ival":1960,"ĠAct":1961,"Ġproble":1962,"Ġearly":1963,"ffic":1964,"ling":1965,"itional":1966,"cember":1967,"Ġrepresent":1968,"ĠCo":1969,"ĠĠĠĠĠĠĠĠĠĠĠĠĠĠĠĠĠĠĠĠĠĠĠĠĠĠĠĠĠĠĠĠ":1970,"ĠPres":1971,"script":1972,"Sh":1973,"ports":1974,"da":1975,"umer":1976,"Ġbeh":1977,"Ġsong":1978,"Ġhapp":1979,"Ġopt":1980,"ention":1981,"DE":1982,"ources":1983,"Set":1984,"ĠMed":1985,"ĠFl":1986,"Ġcond":1987,"ĠJune":1988,"ĠCal":1989,"2013":1990,"Ġ/**":1991,"ME":1992,"ament":1993,"istor":1994,",\"":1995,"Ġcr":1996,"artment":1997,"ailable":1998,"];":1999,"equation":2000,"unc":2001,"field":2002,"Ġchange":2003,"ĠSo":2004,"Er":2005,"amed":2006,"urther":2007,"ittle":2008,"ored":2009,"Ġquest":2010,"Ġtry":2011,"pha":2012,"ĠJuly":2013,"ĠTe":2014,"2010":2015,"2012":2016,"Ġsocial":2017,"ĠGerm":2018,"ĠCity":2019,"Ġpur":2020,"ales":2021,"cer":2022,"Ġ///":2023,"Ġcommunity":2024,"60":2025,"ĠGu":2026,"Ġident":2027,"Ġmodel":2028,"osp":2029,"acy":2030,"ĠSeptember":2031,"Ind":2032,"viron":2033,"Al":2034,"Ġsays":2035,"Ġprom":2036,"')":2037,"Ġaut":2038,"Ġfund":2039,"ĠApril":2040,"Ġservice":2041,"indow":2042,"Exception":2043,"],":2044,"}(":2045,"Ġresearch":2046,"Ġfore":2047,"ilt":2048,"Ġnever":2049,"($":2050,"ription":2051,"Ġalbum":2052,"ĠAugust":2053,"ĠOctober":2054,"Ġput":2055,"Se":2056,"Ġemploy":2057,"2011":2058,"rite":2059,"ems":2060,"ĠPart":2061,"ĠRep":2062,"const":2063,"ĠCounty":2064,"Ġalong":2065,"itive":2066,"Ġturn":2067,"Ġ&&":2068,"opy":2069,"Ġsk":2070,"Ġstory":2071,"Ġide":2072,"ape":2073,"ĠSu":2074,"iter":2075,"ering":2076,"Ġstatic":2077,"idual":2078,"Ġlim":2079,"http":2080,"Ġstudents":2081,"uture":2082,"Ġhuman":2083,"ustom":2084,"Ġinclude":2085,"Ġcamp":2086,"Ġz":2087,"rc":2088,"ending":2089,"ĠDecember":2090,"alf":2091,"test":2092,"Ġmult":2093,"ĠNorth":2094,"AC":2095,"empt":2096,"ison":2097,"ĠEd":2098,"Ġactiv":2099,"ĠWill":2100,"Ġdescrib":2101,"Ġinf":2102,"Ġformer":2103,"Ġless":2104,"35":2105,"Ġlet":2106,"Âł":2107,"Ġins":2108,"osed":2109,"Ġplan":2110,"Ġ%":2111,"Ġlinks":2112,"ĠNovember":2113,"ĠReg":2114,"ret":2115,"80":2116,"ĠString":2117,"}^":2118,"sw":2119,"wh":2120,"Ġaccess":2121,"ething":2122,"aint":2123,"iol":2124,"inter":2125,"imate":2126,"Ġpay":2127,"www":2128,"ably":2129,"Ġthings":2130,"Test":2131,"IC":2132,"Get":2133,"list":2134,"Ġlarge":2135,"olution":2136,"Par":2137,"uck":2138,"ief":2139,"util":2140,"Object":2141,"Ġshort":2142,"Ġstruct":2143,"Ġwon":2144,"ĠEn":2145,"ĠAb":2146,"}_":2147,"~\\":2148,"64":2149,"Ġ!=":2150,"Ġnational":2151,"AA":2152,"Ġcome":2153,"ured":2154,"ification":2155,"Ġworking":2156,"off":2157,"Ġcult":2158,"Ġexample":2159,"ights":2160,"Ġdeb":2161,"aff":2162,"ĠHar":2163,"size":2164,"anguage":2165,"ware":2166,"FF":2167,"ĠFeb":2168,"Ġparticular":2169,"Ġmen":2170,"ĠMc":2171,"ift":2172,"Ġtoo":2173,"Ġcrit":2174,"ĠThat":2175,"dis":2176,"aces":2177,"ilar":2178,"public":2179,"ression":2180,"Ġdevelopment":2181,"RO":2182,"Mod":2183,"vironment":2184,"Ġbeliev":2185,"ves":2186,"Ġtook":2187,"ĠCanad":2188,"aut":2189,"Ġvari":2190,"Ġyoung":2191,"ĠAfric":2192,"ounc":2193,"ung":2194,"Ġsit":2195,"().":2196,"Ġprofess":2197,"link":2198,"Ġbig":2199,"Ġlarg":2200,"Ġpract":2201,"Ġfull":2202,"hern":2203,"Ġperiod":2204,"Ġask":2205,"31":2206,"ĠTo":2207,"Ġpo":2208,"thing":2209,"ards":2210,"Ġindust":2211,"idence":2212,"Ġtem":2213,"Ġsupp":2214,"ators":2215,"Ġapplic":2216,"Ġgot":2217,"Ġindiv":2218,"ready":2219,"Ġclaim":2220,"nav":2221,"rew":2222,"Ġbas":2223,"Ġrole":2224,"Ġdue":2225,"ĠGr":2226,"Ġrequest":2227,"Ġbecome":2228,"Ġmember":2229,"section":2230,"ĠĠĠĠĊ":2231,"ches":2232,"Ġfail":2233,"ĠAustral":2234,"ising":2235,"En":2236,"Ġamong":2237,"ĠBr":2238,"js":2239,"ruary":2240,"\"></":2241,"External":2242,"Ġavailable":2243,"aps":2244,"ĠHis":2245,"View":2246,"iles":2247,"Ġanal":2248,"yl":2249,"ours":2250,"Ġalways":2251,"Ġcompet":2252,"load":2253,"ideo":2254,"ĠHowever":2255,"Ġlot":2256,"Ġmight":2257,"Im":2258,"Ġproduct":2259,"Ġsingle":2260,"part":2261,"https":2262,"adem":2263,"aterial":2264,"Ġelement":2265,"());":2266,"top":2267,"Ġfile":2268,"function":2269,"oney":2270,"alpha":2271,"Ġoften":2272,"ĉĉĉĉĉ":2273,"Ġsomething":2274,"ĠPresident":2275,"Ġjo":2276,"ĠDep":2277,"ION":2278,"ager":2279,"ogle":2280,"index":2281,"Sc":2282,"ribute":2283,"Ġtot":2284,"Ġfootball":2285,"Ġmeet":2286,"2009":2287,"Ġindividual":2288,"Ġpolitical":2289,"ples":2290,"34":2291,"raft":2292,"ides":2293,"Ġfive":2294,"Ġmean":2295,".</":2296,"elta":2297,"Class":2298,"Ġenc":2299,"iction":2300,"urg":2301,"includ":2302,"Error":2303,"Ġcame":2304,"ands":2305,"ither":2306,"url":2307,"\";":2308,"2008":2309,"Ġcost":2310,"abor":2311,"Ġfri":2312,"aken":2313,"ari":2314,"ociety":2315,"Ġfoc":2316,"ipp":2317,"Ġdays":2318,"Ġtri":2319,"].":2320,"39":2321,"urs":2322,"ait":2323,"Ġport":2324,"ogn":2325,"Ġhold":2326,"Ġstudy":2327,"Ġtimes":2328,"color":2329,"align":2330,"agn":2331,"Ġparam":2332,"lected":2333,"ules":2334,"Ġdi":2335,"Ġtext":2336,"Ġgeneral":2337,"Ġbetter":2338,"de":2339,"['":2340,"ournal":2341,"sk":2342,"Ġdiv":2343,"ham":2344,"Ġable":2345,"ĠBar":2346,"Ġcomplet":2347,"Ġwater":2348,"ĠWest":2349,"Ġtarget":2350,"ume":2351,"serv":2352,"Ġposition":2353,"ecut":2354,"ruction":2355,"With":2356,"ington":2357,"Ġfar":2358,"ĠBritish":2359,"Ġbir":2360,"evel":2361,"ĠCour":2362,"ĠRuss":2363,"Ġorg":2364,"atus":2365,"Ġhard":2366,"vers":2367,"Ġ/>":2368,"ĠAg":2369,"=\"+":2370,"!--":2371,"Ġspecial":2372,"Ġcharacter":2373,"Ġcareer":2374,"ties":2375,"ĠComp":2376,"ilitary":2377,"Ġinvolv":2378,"Ġexist":2379,"Ġheld":2380,"ued":2381,"ĠArt":2382,"ĠFebruary":2383,"though":2384,"37":2385,"Ġservices":2386,"Ġcontent":2387,"AP":2388,"Ġacross":2389,"ones":2390,"Ġconc":2391,"\":":2392,"uf":2393,"Ġpast":2394,"quot":2395,"Ġcreate":2396,"vision":2397,"Ġmarket":2398,"Ġrespect":2399,"minist":2400,"Ġclear":2401,"Ġsize":2402,"LL":2403,"._":2404,"Ġdev":2405,"summary":2406,"Ġplayed":2407,"width":2408,"Ġprevious":2409,"ambda":2410,"Ġcontrol":2411,"cher":2412,"Ġcover":2413,"sel":2414,"Ġhaving":2415,"cast":2416,"ĠKing":2417,"Ġla":2418,"pace":2419,"ĠCor":2420,"aining":2421,"ender":2422,"isk":2423,"../../../../":2424,"AS":2425,"ership":2426,"apan":2427,"ĠEl":2428,"wit":2429,"Ġreleased":2430,"Ġreceived":2431,"Ġalready":2432,"path":2433,"aper":2434,"Re":2435,"aul":2436,"ĠDr":2437,"Ġhouse":2438,"earch":2439,"36":2440,"Key":2441,"ouncil":2442,"Ġbo":2443,"Ġage":2444,"Pl":2445,"ĠHouse":2446,"Ġaction":2447,"Ġmaking":2448,"Ġmeas":2449,"45":2450,"ED":2451,"Ġversion":2452,"Ġbegan":2453,"Ġlittle":2454,"ĠÂ":2455,"Ġleast":2456,"ondon":2457,"uration":2458,"Ġaddress":2459,"ĠCO":2460,"Ġsix":2461,"ze":2462,"uk":2463,"Ġresults":2464,"Ġeas":2465,"90":2466,"Ġprovide":2467,"ĠAmerica":2468,"hold":2469,"Ġhig":2470,"Ġoriginal":2471,"Requ":2472,"oph":2473,"Ġet":2474,"gether":2475,"38":2476,"Ġtogether":2477,"Ġoffer":2478,"ided":2479,"Ġrelations":2480,"Ġfuture":2481,"Ġtrad":2482,"ĠII":2483,"reet":2484,"ients":2485,"');":2486,"ension":2487,"Ġkind":2488,"Not":2489,"ackage":2490,"uation":2491,"Ġvol":2492,"ique":2493,"itte":2494,"ector":2495,"dom":2496,"ĠDav":2497,"ibility":2498,"Ġrequire":2499,"ivil":2500,"gress":2501,"eneral":2502,"rodu":2503,"Ġarr":2504,"Ġtalk":2505,"And":2506,"Ġfree":2507,"eps":2508,"Ġaccount":2509,"iff":2510,"rest":2511,"Int":2512,"Ġsuper":2513,"user":2514,"ĠAfter":2515,"Ġside":2516,"ana":2517,"Ġpri":2518,"2007":2519,"Ġfeel":2520,"Ġassoci":2521,"ĠSec":2522,"ĠWhen":2523,"Ġbuilding":2524,")\\":2525,"rack":2526,"Ġimpro":2527,"Ġjob":2528,"itted":2529,"eters":2530,"Ġben":2531,"Ġant":2532,"Ġrights":2533,"Ġlik":2534,"Ġair":2535,"ĠGl":2536,"body":2537,"pi":2538,"ĠCollege":2539,"Ġwhether":2540,"Man":2541,"year":2542,"Ġthrow":2543,"aring":2544,"icon":2545,"ĠAm":2546,"ponse":2547,"Ġstyle":2548,"Ġthird":2549,"Ġmeans":2550,"ae":2551,"Ġstrong":2552,"IS":2553,"Ġothers":2554,"sec":2555,"umb":2556,"most":2557,"oper":2558,"bol":2559,"Ġpossible":2560,"plic":2561,"Ġpublished":2562,"70":2563,"ster":2564,"But":2565,"asc":2566,"Ġwent":2567,"All":2568,"Ġtyp":2569,"Ġredu":2570,"amma":2571,"Ġrad":2572,"table":2573,"reed":2574,"Ġinternational":2575,"(),":2576,"Ġcertain":2577,"ĠWith":2578,"']":2579,"Time":2580,"iet":2581,"ements":2582,"ctor":2583,"roups":2584,"ampions":2585,"File":2586,"uments":2587,"Ġcommon":2588,"Ġlog":2589,"Ġspace":2590,"ino":2591,"now":2592,"Ġunderstand":2593,"Ġsignific":2594,"ĠInternational":2595,"Ġkill":2596,"Ġtax":2597,"Ġparent":2598,"mathbb":2599,"ĠBy":2600,"oice":2601,"ession":2602,"Ġtotal":2603,"place":2604,"ails":2605,"ike":2606,"Ġannoun":2607,"ederal":2608,"Ġsent":2609,"Ġbase":2610,"Ġexperience":2611,"ĠHer":2612,"=\\":2613,"ĠMe":2614,"ibr":2615,"Ġdom":2616,"ĠCont":2617,"Ġstarted":2618,"ological":2619,"ĠOne":2620,"Ġ,":2621,"unity":2622,"Ġca":2623,"ĠRev":2624,"lang":2625,"Ph":2626,"ĠLondon":2627,"ops":2628,"ography":2629,"ĠIm":2630,"2006":2631,"md":2632,"lin":2633,"ĠSer":2634,"Ġfurther":2635,"LA":2636,"New":2637,"Ġaway":2638,"Qu":2639,"Ġviol":2640,"Ġep":2641,"Ġtoday":2642,"Ġattack":2643,"using":2644,"Ġtown":2645,"Ġpot":2646,"rain":2647,"$\\":2648,"odes":2649,"Ġbreak":2650,"2022":2651,"Ġofficial":2652,"flu":2653,"Ġsimilar":2654,"ecess":2655,"UR":2656,"Ġcourse":2657,"anies":2658,"idge":2659,"ged":2660,"ĠCourt":2661,"Ġener":2662,"ĠPe":2663,"Or":2664,"acc":2665,"Ġpath":2666,"ĠChar":2667,"Add":2668,"atures":2669,"ille":2670,"Bl":2671,"Ġdiscuss":2672,"ES":2673,"ĠApp":2674,"stance":2675,"istic":2676,"Ġmedia":2677,"ĠEnglish":2678,"Ġ\\\\":2679,"75":2680,"Ġpercent":2681,"Is":2682,"mu":2683,"irl":2684,"ama":2685,"Ġseen":2686,"ship":2687,"Ġblock":2688,"rench":2689,"Ġcourt":2690,"Ġphot":2691,"Ġassert":2692,"Ġdeg":2693,"irm":2694,"aged":2695,"ilities":2696,"ĠJapan":2697,"TR":2698,"ese":2699,"lete":2700,"clus":2701,"Ġcomb":2702,"Ġelection":2703,"Ġdeterm":2704,"At":2705,"Ġdocument":2706,"Def":2707,"Ġnetwork":2708,"Ġgames":2709,"Ġgrad":2710,"Ġthough":2711,"Text":2712,"ĠGover":2713,"Ġcheck":2714,"aced":2715,"Ġpopulation":2716,"Ġes":2717,"Ġthought":2718,"ĠPark":2719,"ouble":2720,"down":2721,"ĠSystem":2722,"Ġkeep":2723,"ĠQu":2724,"Ġreview":2725,"####":2726,"Ġgive":2727,"Ġtreat":2728,"Ġopp":2729,"Ġproperty":2730,"Request":2731,"ald":2732,"Ġreason":2733,"Ġeducation":2734,"ĠThese":2735,"igation":2736,"ĠBro":2737,"Ġ?":2738,"rec":2739,"If":2740,"atter":2741,"ĠWilliam":2742,"2000":2743,"ĠChe":2744,"ancial":2745,"Ġphys":2746,"ittee":2747,"Ġlive":2748,"sequ":2749,"Ġcountries":2750,"Ġdone":2751,"ford":2752,"na":2753,"group":2754,"ached":2755,"Ġrespons":2756,"PE":2757,"Ġevents":2758,"_\\":2759,"Ġdest":2760,"lim":2761,"Param":2762,"onse":2763,"UT":2764,"ened":2765,"ĠAng":2766,"iforn":2767,"ĠPer":2768,"Ġerror":2769,"ĠStud":2770,"Ġbody":2771,"alt":2772,"ered":2773,"Ã¡":2774,"Form":2775,"HE":2776,"ĠLaw":2777,"Ġerr":2778,"iddle":2779,"era":2780,"see":2781,"array":2782,"Ġbegin":2783,"Over":2784,"99":2785,"Ġlove":2786,"Ġsubject":2787,"Ġgen":2788,"irt":2789,"Ġnamed":2790,"dt":2791,"ags":2792,"ĠSch":2793,"ij":2794,"ĠRec":2795,"igma":2796,"Ġhost":2797,"Ġ);":2798,"Ġcentury":2799,"ymbol":2800,"ceed":2801,"Ġworks":2802,"Ġtele":2803,"Ġtrack":2804,"Ġbring":2805,"ran":2806,"inary":2807,"Ġlow":2808,"ĠDist":2809,"Ġresponse":2810,"estern":2811,"Ġabove":2812,"``":2813,"Ġcreated":2814,"190":2815,"iment":2816,"ills":2817,"55":2818,"Ġprob":2819,"word":2820,"Ġpresident":2821,"config":2822,"men":2823,"/**":2824,"Ġcoll":2825,"/*":2826,"curity":2827,"Ġdidn":2828,"Ġsection":2829,"Ġhttps":2830,"ifornia":2831,"}^{":2832,"Ġtell":2833,"ormal":2834,"Ġmoney":2835,"Ġrequired":2836,"cy":2837,"nection":2838,"AD":2839,"eh":2840,"Node":2841,"Ġbuilt":2842,"Ġsignificant":2843,"ocr":2844,"Ġglobal":2845,"ĠPhil":2846,"Ġonce":2847,"State":2848,"Ġparticip":2849,"Ġuser":2850,"ayer":2851,"iting":2852,"Ġwhy":2853,"ainer":2854,"Ġmonths":2855,"ĠAssoci":2856,"oken":2857,"Ġtaken":2858,"())":2859,"Info":2860,"augh":2861,"ĠMich":2862,"Event":2863,"Ġ-->":2864,"rel":2865,"ING":2866,"Ġenergy":2867,"Ġever":2868,"}_{":2869,"Ġdiff":2870,"ĠChina":2871,"Element":2872,"Path":2873,"pper":2874,"hib":2875,"Ġvarious":2876,"iple":2877,"book":2878,"Ġtold":2879,"Ġchall":2880,"Ġhistor":2881,"posed":2882,"comp":2883,"oon":2884,"state":2885,"asing":2886,"Ġcontext":2887,"mat":2888,"Ġcases":2889,"Ġsaf":2890,"amespace":2891,"ks":2892,"ribution":2893,"ĠRet":2894,"length":2895,"Ġop":2896,"Ġincluded":2897,"Ġshall":2898,"ĠSm":2899,"Ġprovided":2900,"lt":2901,"Ġband":2902,"Ġquestion":2903,"ĠDepartment":2904,"Ġarch":2905,"};":2906,"Ġrecogn":2907,"void":2908,"Ġled":2909,"Ġprim":2910,"nect":2911,"ummer":2912,"':":2913,"Ġstates":2914,"ayout":2915,"Ġserved":2916,"Ġwritten":2917,"atural":2918,"Config":2919,"sy":2920,"Ġproblem":2921,"abled":2922,"Ġsource":2923,"igned":2924,"Ġpolicy":2925,"ĠCenter":2926,"from":2927,"Ġestablished":2928,"rown":2929,"cd":2930,"........":2931,"-\\":2932,"Ġenvironment":2933,"ĠIndia":2934,"bf":2935,"box":2936,"rix":2937,"Ġborn":2938,"2005":2939,"Ġpoints":2940,"ĠGod":2941,"ĠHigh":2942,"init":2943,"Ġhowever":2944,"Ġcompanies":2945,"Index":2946,"Ġsite":2947,"App":2948,"Ġshows":2949,"ysis":2950,"OT":2951,"Ġvalues":2952,"Ġrange":2953,"ĠRepublic":2954,"Ġhalf":2955,"resp":2956,"useum":2957,"ĠLeague":2958,"oat":2959,"66":2960,"Ġaccording":2961,"48":2962,"Ġmaterial":2963,"utions":2964,"Ġbenef":2965,"oke":2966,"sm":2967,"ĠLa":2968,"ids":2969,"Ġopport":2970,"ĠMr":2971,"Ġmot":2972,"Service":2973,"gl":2974,"Ġterms":2975,"ĠEuropean":2976,"chiev":2977,"ĠCalifornia":2978,"hat":2979,"Ġthing":2980,"Ġtw":2981,"Ġmilitary":2982,"true":2983,"attle":2984,"ride":2985,"Equ":2986,"ĠĠĊ":2987,"Ġcreat":2988,"ĠVol":2989,"api":2990,"Ġmass":2991,"Ġlight":2992,"ference":2993,"ĠĠĠĠĠĠĠĠĠĠĠĠĠĠĠĠĠĠĠĠĠĠĠĠĠĠĠ":2994,"Ġdecl":2995,"content":2996,"no":2997,"Ġissues":2998,"verage":2999,"Ġregion":3000,"Ġintrodu":3001,"Ġindustry":3002,"Ġfilms":3003,"orge":3004,"vis":3005,"perties":3006,"Ġpress":3007,"Ġeither":3008,"urb":3009,"ael":3010,"ett":3011,"gr":3012,"cial":3013,"ĠAir":3014,"Ġeffort":3015,"ude":3016,"Ġworked":3017,"point":3018,"ashington":3019,"aign":3020,"Ġhon":3021,"duc":3022,"oe":3023,"mathbf":3024,"olean":3025,"There":3026,"ĠHealth":3027,"Ġcell":3028,"eed":3029,"ius":3030,"bor":3031,"ĠEm":3032,"Ġproduction":3033,"IG":3034,"ampionship":3035,"with":3036,"ĠDem":3037,"Ġexc":3038,"Ġdeal":3039,"Ġrisk":3040,"where":3041,"Ġfather":3042,"ĠNot":3043,"ĠDis":3044,"ixed":3045,"Ġmom":3046,"Ġenough":3047,"Ġdefault":3048,"ĠInstit":3049,"ĠSan":3050,"Ġobserv":3051,"Ġjud":3052,"Comm":3053,"Ġclub":3054,"\\\\":3055,"Ġlearn":3056,"Ġperformance":3057,"hel":3058,"Ġmiss":3059,"title":3060,"Ġinteg":3061,"tain":3062,"fin":3063,"Context":3064,"Americ":3065,"lambda":3066,"44":3067,"Ġimplement":3068,"Ġgroups":3069,"Ġdied":3070,"From":3071,"Ġ__":3072,"uel":3073,"Field":3074,"Ġsett":3075,"Ġtre":3076,"Ġcal":3077,"born":3078,"phi":3079,"ĠMy":3080,"Ġcirc":3081,"'re":3082,"Ġaddition":3083,"Ġlate":3084,"uff":3085,"^{\\":3086,"rug":3087,"ĠSen":3088,"Ġamount":3089,"Ġparty":3090,"Ġimpact":3091,"mark":3092,"Ġ(!":3093,"Ġcontinue":3094,"Ġsugg":3095,"Ġareas":3096,"Ġneg":3097,"Ġsuggest":3098,"UN":3099,"Ġaud":3100,"version":3101,"refer":3102,"oud":3103,"ĠWhat":3104,"rael":3105,"Ġvideo":3106,"Ġmove":3107,"unic":3108,"Ġcode":3109,"oor":3110,"ĠEngland":3111,"bit":3112,"AM":3113,"next":3114,"Ġnecess":3115,"ĠCouncil":3116,"='":3117,"sl":3118,"Ġmax":3119,"atory":3120,"ET":3121,"ĠFrench":3122,"atives":3123,"ottom":3124,"US":3125,"Ġreported":3126,"result":3127,"Ġpersonal":3128,"icult":3129,"uses":3130,"2004":3131,"Ġfeature":3132,"Ġhom":3133,"Array":3134,"block":3135,"aching":3136,"Ġcustom":3137,"aries":3138,"';":3139,"Ġsold":3140,"Ġpers":3141,"ĠEast":3142,"object":3143,"Ġinflu":3144,"Ġlocated":3145,"Ġarray":3146,"ico":3147,"Ġson":3148,"BC":3149,"rick":3150,"ui":3151,"aly":3152,"ivity":3153,"Ġaccept":3154,"ĠAc":3155,"yd":3156,"ĠIndian":3157,"Result":3158,"Ġdoing":3159,"Ġclose":3160,"sum":3161,"Of":3162,"Ġfall":3163,"Ġ});":3164,"bt":3165,"Ġappear":3166,"ĠUK":3167,"Ġ/*":3168,"met":3169,"but":3170,"Ġnov":3171,"pecially":3172,"Ġvot":3173,"ccording":3174,"Ġmatch":3175,"ched":3176,"Att":3177,"nown":3178,"ĠSw":3179,"selves":3180,"ables":3181,"Trans":3182,"Ġbi":3183,"Build":3184,"Ġexpected":3185,"Ġsat":3186,"Ġmakes":3187,"ependent":3188,"apache":3189,"ho":3190,"\"\"":3191,"////////":3192,"Ġens":3193,"Ġsex":3194,"Ġ},":3195,"imal":3196,"Ġachiev":3197,"iation":3198,"Ġissue":3199,"Ġdescribed":3200,"icles":3201,"Ġentire":3202,"Ġactually":3203,"Ġabs":3204,"Ġattempt":3205,"See":3206,"Ġmer":3207,"annel":3208,"Ġnews":3209,"atform":3210,"Ġcomput":3211,"=\"../../../../":3212,"65":3213,"Ad":3214,"Fl":3215,"ca":3216,"ellow":3217,"ĠGeneral":3218,"Ġconsidered":3219,"LO":3220,"Ġinstance":3221,"[]":3222,"ires":3223,"ux":3224,"quad":3225,"Ġground":3226,"ĠBlack":3227,"Ġdate":3228,"Ġwebs":3229,"Ġpopular":3230,"Ġoffice":3231,"ĠÐ":3232,"What":3233,"Ġrelationship":3234,"map":3235,"anch":3236,"ĠWashington":3237,"Ġden":3238,"istry":3239,"Ġblack":3240,"Ġcou":3241,"Ġyet":3242,"Ġalmost":3243,"Ġrather":3244,"irit":3245,"ges":3246,"medi":3247,"plate":3248,"ĠDirect":3249,"Ġrelig":3250,"Ġcontract":3251,"Ġengine":3252,"Ġindic":3253,"Ġdecision":3254,"inated":3255,"ĠDo":3256,"input":3257,"Ġlanguage":3258,"ĠMor":3259,"Ġvill":3260,"Map":3261,"rote":3262,"Ġregard":3263,"Ġcolor":3264,".)":3265,"inn":3266,"Ġ{\\":3267,"Ġeconomic":3268,"ĠMon":3269,"ĠTrans":3270,"Ġtraining":3271,"Ġdirector":3272,"node":3273,"based":3274,"unk":3275,"cle":3276,"ĠChurch":3277,"aker":3278,"Ġvict":3279,"Ġill":3280,"ĠPal":3281,"ounds":3282,"gt":3283,"semb":3284,"Ġplayer":3285,"iber":3286,"escription":3287,"iences":3288,"ved":3289,"Ġstop":3290,"ites":3291,"ĠHol":3292,"arrow":3293,"ĠNews":3294,"icro":3295,"ises":3296,"ilter":3297,"Ġupon":3298,"Ġadded":3299,"Ġrecent":3300,"ĠCanada":3301,"ĠGet":3302,"ĠDavid":3303,"ilon":3304,"01":3305,"ĠList":3306,"imum":3307,"Ġaward":3308,"Ġadminist":3309,"Ġannounced":3310,"Ġbank":3311,"****************":3312,"ounter":3313,"Ġimm":3314,"Ġconcern":3315,"call":3316,"ponent":3317,"ĠVal":3318,"Ġbroad":3319,"ĠMark":3320,"Ġmessage":3321,"Loc":3322,"ĠInt":3323,"Ġfamil":3324,">&":3325,"ades":3326,"Ġbackground":3327,"CC":3328,"ync":3329,"Ġsrc":3330,"Item":3331,"Ġsuccessful":3332,"Ġfig":3333,"Ġpolice":3334,"prot":3335,"Ġborder":3336,"refore":3337,"Ġclos":3338,"ĠGo":3339,"ĠGerman":3340,"Ġmor":3341,"Code":3342,"Ġboard":3343,"avy":3344,"hood":3345,"Pr":3346,"fr":3347,"Ġoptions":3348,"ees":3349,"ection":3350,"Ser":3351,"49":3352,"Fr":3353,"Ġinstit":3354,"Size":3355,"java":3356,"ero":3357,"assert":3358,"Ġsure":3359,"Ġdoesn":3360,"ensive":3361,"Ġpage":3362,"Ġconfig":3363,"How":3364,"ledge":3365,"De":3366,"Ġliving":3367,"Ġnight":3368,"|-":3369,"American":3370,"ns":3371,"la":3372,"ilde":3373,"izing":3374,"Ġfinancial":3375,"omb":3376,"ging":3377,"ĠJust":3378,"Ġfav":3379,"ML":3380,"ica":3381,"Ġinput":3382,"rab":3383,"cing":3384,"beta":3385,"Ġrelease":3386,"acher":3387,"Ġexam":3388,"Ġbecom":3389,"ĠPat":3390,"ĠJames":3391,"Message":3392,"ospital":3393,"elling":3394,"Ġtaking":3395,"light":3396,"ĠAustralia":3397,"2001":3398,"style":3399,"Ġtable":3400,"Ġmonth":3401,"++":3402,"uffer":3403,"lier":3404,"arter":3405,"airs":3406,"Ġconduct":3407,"default":3408,"ĠDon":3409,"Ġdifficult":3410,"elt":3411,"47":3412,"Ġcred":3413,"utes":3414,"Ġfood":3415,"2003":3416,"create":3417,"ĠIsrael":3418,"Ġshare":3419,"Ġwhole":3420,"pose":3421,"Inter":3422,"Ġhttp":3423,"Ġespecially":3424,"inally":3425,"Ġchanges":3426,"Ġmother":3427,"Ð°":3428,"arning":3429,"ĠFirst":3430,"Ġbit":3431,"Hand":3432,"pite":3433,"Rec":3434,"Ġlikely":3435,"Ġsepar":3436,"pm":3437,"oved":3438,"Ġ()":3439,"ĠDistrict":3440,"ENT":3441,"ida":3442,"position":3443,"oyal":3444,"Ġlegal":3445,"base":3446,"ĠPaul":3447,"Ġtechnology":3448,"VID":3449,"max":3450,"Ġprior":3451,"Ġfight":3452,"MP":3453,"Ġwrote":3454,"Ġitself":3455,"osition":3456,"mit":3457,"Ġassist":3458,"Ġrate":3459,"ĠRed":3460,"Ġred":3461,"css":3462,"ha":3463,"Ġneeds":3464,"TE":3465,"Ġmoved":3466,"aves":3467,"Ġevidence":3468,"pan":3469,"info":3470,"Log":3471,"Ġcommand":3472,"Ġcurrently":3473,"aging":3474,"Ġsystems":3475,"Ġsecurity":3476,"ĠCong":3477,"ibrary":3478,"asons":3479,"Val":3480,"Ġvisit":3481,"Ġund":3482,"ĠInter":3483,"Ġfem":3484,"Ġinj":3485,"No":3486,"ĠDef":3487,"AB":3488,"ĠParty":3489,"ga":3490,"Ġhimself":3491,"You":3492,"ening":3493,"Ġcollection":3494,"Ġimage":3495,"Ġstation":3496,"lands":3497,"ĠBer":3498,"itect":3499,"Ġloss":3500,"Ġbelieve":3501,"ĠDes":3502,"Ġsw":3503,"lem":3504,"unt":3505,"ara":3506,"Ġrev":3507,"Ġlost":3508,"Ġstre":3509,"Ġlo":3510,"Ġaverage":3511,"print":3512,"IP":3513,"unch":3514,"ores":3515,"option":3516,"2002":3517,"android":3518,"Ġbar":3519,"CH":3520,"Ġcannot":3521,"century":3522,"Ġcampaign":3523,"Ġindex":3524,"roller":3525,"Ġjava":3526,"lied":3527,"ĠInstitute":3528,"respond":3529,"andid":3530,"lying":3531,"Ed":3532,"Ġinitial":3533,"Ġestablish":3534,"Ġcomes":3535,"Up":3536,"78":3537,"ĠRober":3538,"nov":3539,"Ġspecific":3540,"ech":3541,"Ġcapital":3542,"Ġinvolved":3543,"oms":3544,"Ġpred":3545,"space":3546,"ulations":3547,"Ġcapt":3548,";&":3549,"Su":3550,"--------------------------------":3551,"Ġwriting":3552,"Ġincludes":3553,"ii":3554,"Ġhigher":3555,"Color":3556,"ĠStreet":3557,"ago":3558,"Ġexecut":3559,"lient":3560,"ĠJew":3561,"isions":3562,"Ġroad":3563,"ĠMod":3564,"Ġwebsite":3565,"iance":3566,"Ġcivil":3567,"ĠAssociation":3568,"roy":3569,"ĠArch":3570,"Ġwhose":3571,"*}":3572,"MA":3573,"emic":3574,"ĠCompany":3575,"ips":3576,"ĠOff":3577,"When":3578,"Ġpotential":3579,"ĠDiv":3580,"Ġfront":3581,"enced":3582,"NA":3583,"Dis":3584,")}":3585,"Ġbooks":3586,"agement":3587,"Ġconditions":3588,"46":3589,"rect":3590,"After":3591,"Ð¾":3592,"Ġ===":3593,"Ġarticle":3594,"lymp":3595,"gen":3596,"nes":3597,"ulated":3598,"Ġspecies":3599,"TD":3600,"ĠEar":3601,"ĠThom":3602,"ĠGroup":3603,"ĉĉĉĉĉĉ":3604,"ressed":3605,"uge":3606,"Ġface":3607,"ĠPort":3608,"Out":3609,"Ġincrease":3610,"Ġidea":3611,"evelop":3612,"Ġprint":3613,"inition":3614,"Reg":3615,"Ġmatter":3616,"vey":3617,"do":3618,"sigma":3619,"change":3620,"ĠGeorge":3621,"Ġforce":3622,"unn":3623,"imately":3624,"ĠAnt":3625,"Ġple":3626,"big":3627,"Ġnum":3628,"95":3629,"Ġleading":3630,"Ġappoint":3631,"sych":3632,"Ġschools":3633,"struct":3634,"Ġ:=":3635,"ĠTrump":3636,"Ġfire":3637,"Ġbehind":3638,"itar":3639,"context":3640,"Ġcomplex":3641,"IL":3642,"Ġforward":3643,"ĠRich":3644,"Ġstaff":3645,"Ġmodern":3646,"ĠMore":3647,"ĠCons":3648,"gamma":3649,"Ġtelevision":3650,"Ã³":3651,"ĠAdd":3652,"Ġnode":3653,"Ġonline":3654,"Ġtravel":3655,"Ġseem":3656,"Ġlives":3657,"Ġrelated":3658,"Ass":3659,"MS":3660,"CE":3661,"500":3662,"User":3663,"efore":3664,"rought":3665,"Ġcross":3666,"ĠSim":3667,"Ġprinc":3668,"build":3669,"ĠAfrica":3670,"Ġbelow":3671,"IR":3672,"uate":3673,"Ġ};":3674,".[":3675,"istan":3676,"itiz":3677,"ĠFrom":3678,"ĠAward":3679,"false":3680,"Manager":3681,"Ġoutside":3682,"start":3683,"OD":3684,"board":3685,"ĠUnion":3686,"Ġfa":3687,"Ġcut":3688,"tab":3689,"Ġten":3690,"Ġbound":3691,"ynam":3692,"Ġmanagement":3693,"lor":3694,"Ġdeveloped":3695,";</":3696,"Ent":3697,"wood":3698,"web":3699,"iers":3700,"Count":3701,"=\"#":3702,"igital":3703,"Read":3704,"Ġago":3705,"ĠFrance":3706,"Ġbirths":3707,"05":3708,"Ġdegree":3709,"atal":3710,"188":3711,"mathrm":3712,"Ġtour":3713,"ĠPress":3714,"Ġvia":3715,"Ġ(\\":3716,"Ġmovie":3717,"Ġemer":3718,"hing":3719,"google":3720,"Ġder":3721,"idents":3722,"encies":3723,"plit":3724,"Table":3725,"olic":3726,"Ġstatus":3727,"elebr":3728,"reement":3729,"include":3730,"System":3731,"ĠRiver":3732,"Ġapproach":3733,"Model":3734,"aur":3735,"ÃŃ":3736,"check":3737,"joy":3738,"Ġreturned":3739,"ptions":3740,"apter":3741,"argin":3742,"Ġwhite":3743,"sembly":3744,"Ġthroughout":3745,"Ġproduced":3746,"ĠTex":3747,"pped":3748,"Ġnorth":3749,"Bar":3750,"Ġwords":3751,"Ġmind":3752,"ville":3753,"ĠJer":3754,"ĠTest":3755,"Ġwanted":3756,"Ġscient":3757,"+\\":3758,"Ġneeded":3759,"Ġconv":3760,"Ġthemselves":3761,"count":3762,"Ġwife":3763,"ĠMal":3764,"ĠCommission":3765,"Ġfriend":3766,"Ġinstead":3767,"Ġgovern":3768,"Ġnatural":3769,"Ġliter":3770,"^\\":3771,"Ġlength":3772,"aughter":3773,"reate":3774,"raz":3775,"race":3776,"Ġstar":3777,"Ġmedical":3778,"valid":3779,"wide":3780,"Ġfeatures":3781,"Call":3782,"=\"../":3783,"parent":3784,"Ġsense":3785,"arily":3786,"Ġepis":3787,"ework":3788,"ental":3789,"Ġlower":3790,"Ġlabel":3791,"ailed":3792,"Ġcy":3793,"den":3794,")</":3795,"Ġinstall":3796,"Ġfederal":3797,"oo":3798,"Ġcontribut":3799,"Ġess":3800,"Ġasked":3801,"Ġmid":3802,"Ġver":3803,"net":3804,"Ġmap":3805,"ategory":3806,"Ġprofessional":3807,"Ġdefined":3808,"ĠTV":3809,"rian":3810,"ado":3811,"aches":3812,"oto":3813,"atab":3814,"Ġcontinued":3815,"Ġregular":3816,"omet":3817,"1990":3818,"ĠArmy":3819,"Ġtask":3820,"anced":3821,"^{-":3822,"inese":3823,"hand":3824,"amily":3825,"ĠPublic":3826,"ply":3827,"Ġheart":3828,"ĠGovernment":3829,"istics":3830,"ilm":3831,"Ġsaw":3832,"77":3833,"mission":3834,"Comp":3835,"ston":3836,"icense":3837,"namespace":3838,"tes":3839,"FA":3840,"ĠBoard":3841,"package":3842,"ULL":3843,"Ġplaying":3844,"angle":3845,"Ġdistrict":3846,"ĠResearch":3847,"wise":3848,"define":3849,"Ġlooking":3850,"pty":3851,"Ġdam":3852,"acity":3853,"Ġhours":3854,"ĠDay":3855,"Ġapplication":3856,"ĠClass":3857,"Ġaccom":3858,"Ġstudent":3859,"ĠFound":3860,"riev":3861,"================":3862,"aught":3863,"olar":3864,"Ġconsist":3865,"Ġsearch":3866,"cret":3867,"Ġprote":3868,"Pe":3869,"ĠCup":3870,"ĠWhile":3871,"actory":3872,"Ġnation":3873,"<!--":3874,"delta":3875,"ĠIN":3876,"eff":3877,"outhern":3878,"Ðµ":3879,"Ġprovides":3880,"42":3881,"Ġcenter":3882,"Ġchurch":3883,"Ġadditional":3884,"orthern":3885,"ication":3886,"force":3887,"Ġthreat":3888,"One":3889,"09":3890,"ĠMart":3891,"Ġ$(":3892,"Ġrout":3893,"yles":3894,"Ġmag":3895,"ĠSome":3896,"ĠBel":3897,"ĠHall":3898,"vention":3899,"anger":3900,"izations":3901,"Ġdisplay":3902,"SP":3903,"ped":3904,"Ġoccur":3905,"Ġrace":3906,"ĠMary":3907,"Ġsus":3908,"Ġste":3909,"Ġcoming":3910,"center":3911,"ĠCommittee":3912,"Ġcompon":3913,"Ġproblems":3914,"Ġstructure":3915,"ĠMinister":3916,"ducation":3917,"Ġstage":3918,"Ġsouth":3919,"ĠInc":3920,"Ġandroid":3921,"ria":3922,"Ġrock":3923,"Ġgetting":3924,"ĠDan":3925,"rho":3926,"1999":3927,"Ġsche":3928,"ĠMex":3929,"TH":3930,"Ġwoman":3931,"igr":3932,"Ġshown":3933,"aven":3934,"db":3935,"ĠChristian":3936,"Ġculture":3937,"bre":3938,"band":3939,"ĠQue":3940,"Ġconstit":3941,"ftware":3942,"ramework":3943,"Ġcho":3944,"arr":3945,"ĠĠĠĠĠĠĠĠĠĠĠĠ":3946,"Ġscience":3947,"Ġter":3948,"Ġrank":3949,"itting":3950,"model":3951,"theta":3952,"Ġlargest":3953,"Ġhous":3954,"Ġemb":3955,"Ġsociety":3956,"ĠWhite":3957,"ifier":3958,"berg":3959,"}{\\":3960,"Ġacqu":3961,"ĠCOVID":3962,"ĠNe":3963,"68":3964,"ĠTra":3965,"Ġgrowth":3966,"Ġcandid":3967,"Ġalign":3968,"ithub":3969,"ĠFranc":3970,"active":3971,"Ġfocus":3972,"Ġstd":3973,"Ġround":3974,"Ret":3975,"07":3976,"known":3977,"Ġtakes":3978,"erve":3979,"Ġmoment":3980,"Ġwalk":3981,"ĠGermany":3982,"Ġgoal":3983,"ĠBook":3984,"ĠAfrican":3985,"ĠScience":3986,"current":3987,"lam":3988,"ĠLou":3989,"dev":3990,"ĠWork":3991,"Sub":3992,"times":3993,"riter":3994,"Ġcopy":3995,"ĠChampionship":3996,"Ġgave":3997,"Response":3998,"Ġassociated":3999,"figure":4000,"ĠTexas":4001,"page":4002,"EE":4003,"ota":4004,"ĠDemocr":4005,"Ġpaper":4006,"Property":4007,"Ġful":4008,"Ġrecently":4009,"ufact":4010,"Ġhit":4011,"Ġquick":4012,"II":4013,"Client":4014,"]{":4015,"ĠAngel":4016,"reme":4017,"ĠJack":4018,"58":4019,"ĠĠĠĠĠĠĠĠĠĠ":4020,"Ġdise":4021,"98":4022,"finished":4023,"fort":4024,"Be":4025,"ares":4026,"Ġinterview":4027,"ken":4028,"Ġbrother":4029,"Ġprograms":4030,"mitted":4031,"pri":4032,"Ġcomplete":4033,"08":4034,"ĠSociety":4035,"ĠDi":4036,"iday":4037,"chan":4038,"ander":4039,"irection":4040,"doc":4041,"core":4042,"rief":4043,"Ġtrying":4044,"Ġenjoy":4045,"Ġchalleng":4046,"Ġjoined":4047,"Ġbillion":4048,"Ġsound":4049,"Ġbad":4050,"Ã¼":4051,"Ġactive":4052,"Ġhor":4053,"Ġpain":4054,"leq":4055,"andom":4056,"Ġwrite":4057,"ĠGreen":4058,"Arg":4059,"Ġanalysis":4060,"erc":4061,"ya":4062,"Ġqual":4063,"ipal":4064,"oring":4065,"Query":4066,"Ġvalid":4067,"event":4068,"Ġstandard":4069,"oul":4070,">(":4071,"Ġnovel":4072,"xy":4073,"static":4074,"ialog":4075,"OS":4076,"Ġpractice":4077,"Ġstatement":4078,"Ġge":4079,"Ab":4080,"rt":4081,"Ġsurv":4082,"Ġwor":4083,"ĠSam":4084,"cell":4085,"Ġlonger":4086,"ĠOlymp":4087,"Ġdraw":4088,"ĠCongress":4089,"Ġstru":4090,"ĠLeg":4091,"ĠOf":4092,"Ġhope":4093,"ula":4094,"mon":4095,"quare":4096,"Ġbrought":4097,"Ġcorrespond":4098,"rial":4099,"van":4100,"$-":4101,"ĠHistory":4102,"Ġsoon":4103,"orage":4104,"ĠBill":4105,"like":4106,"ĠMusic":4107,"Ġbehav":4108,"Ġproducts":4109,"Ġdeep":4110,"Ġways":4111,"rim":4112,"Ġnil":4113,"ĠSk":4114,"method":4115,"Ġstri":4116,"image":4117,"oz":4118,"ouch":4119,"Ġdrug":4120,"Ġprobably":4121,"github":4122,"Ġimmedi":4123,"Method":4124,"sq":4125,"Ġanything":4126,"rong":4127,"Ġgirl":4128,"Ġbool":4129,"Ġword":4130,"atur":4131,"Group":4132,"ĠĠĠĠĠĠĠĠĠĠĠĠĠĠĠĠĠĠĠĠĠĠĠĠĠĠĠĠĠĠĠ":4133,"ners":4134,"itch":4135,")(":4136,"edy":4137,"Ġmeeting":4138,"Ġallowed":4139,"etic":4140,"ĠYear":4141,"Ġoutput":4142,"Ġneigh":4143,"Ġvirt":4144,"Ġanim":4145,"Ð¸":4146,"Ġmultiple":4147,"Ġjournal":4148,"aled":4149,"ĠService":4150,"ĠMichael":4151,"xi":4152,"Ġwidth":4153,"Ġorganization":4154,"Ġstay":4155,"Ġansw":4156,"67":4157,"iqu":4158,"eqref":4159,"php":4160,"eline":4161,"Builder":4162,"Ġseek":4163,"AG":4164,"OP":4165,"tau":4166,"Ġpromot":4167,"Ġsen":4168,"Ġcompl":4169,"Ġfamilies":4170,"43":4171,"Ġcause":4172,"Ġestim":4173,"IV":4174,"41":4175,"Ġnecessary":4176,"level":4177,"jav":4178,"Ġcast":4179,"stream":4180,"Ġir":4181,"mar":4182,"ĠVir":4183,"eck":4184,"Ġeight":4185,"uster":4186,"Image":4187,"](":4188,"Ġsem":4189,"57":4190,"draw":4191,"miss":4192,"Ġcomment":4193,"Ġseems":4194,"urity":4195,"hest":4196,"ming":4197,"lib":4198,"liament":4199,"come":4200,"Ġquite":4201,"Ġcelebr":4202,"null":4203,"Ġsequ":4204,"ocol":4205,"Ġpositive":4206,"itation":4207,"}(\\":4208,"Override":4209,"ĠChinese":4210,"jo":4211,"Ġforeign":4212,"Ġstep":4213,"Ġrunning":4214,"Ġelements":4215,"Ġreve":4216,"Ġteams":4217,"Ġfriends":4218,"burg":4219,"Ġactivities":4220,"Ġparents":4221,"child":4222,"Ġnature":4223,"het":4224,"Date":4225,"Ġnothing":4226,"fit":4227,"dl":4228,"ĠMuseum":4229,"Ġconstruction":4230,"Ġlearning":4231,"Ġworkers":4232,"has":4233,"Ġmodels":4234,"run":4235,"isher":4236,"unfinished":4237,"Ġtrade":4238,"ĠAcadem":4239,"ims":4240,"Ġstudies":4241,"Ġresources":4242,"Part":4243,"Ġsomeone":4244,"Ġprotect":4245,"estival":4246,"ĠMus":4247,"Ġalthough":4248,"Ġeverything":4249,"Ġsongs":4250,"Ġpassed":4251,"Ġwatch":4252,"1980":4253,"Ġtool":4254,"post":4255,"reater":4256,"sey":4257,"win":4258,"Stream":4259,"Ġmention":4260,"Ġcontact":4261,"stant":4262,"Ġparts":4263,"97":4264,"ĠMem":4265,"maz":4266,"56":4267,"ĠMont":4268,"isf":4269,"1998":4270,"Ġdemon":4271,"End":4272,"query":4273,"ĠRoman":4274,"Ġrepl":4275,"ONT":4276,"partial":4277,"ĠBen":4278,"tained":4279,"ĠFlor":4280,"mercial":4281,"edia":4282,"Ġmovement":4283,"ows":4284,"gor":4285,"df":4286,"Ġsym":4287,"Ġlack":4288,"oom":4289,"astic":4290,"Ġ($":4291,"Ġvillage":4292,"Ġey":4293,"Em":4294,"____":4295,"lean":4296,"rast":4297,"ĠSy":4298,"Ġlegis":4299,"alls":4300,"Ġstories":4301,"ĠCam":4302,"'m":4303,"Ġmarried":4304,"Act":4305,"Ġoperations":4306,"cel":4307,"Source":4308,"Ġfollowed":4309,"dir":4310,"ega":4311,"ĠBank":4312,"Ġvacc":4313,"Ġdouble":4314,"02":4315,"Ġcharacters":4316,"Ġknowledge":4317,"ategy":4318,"03":4319,"ein":4320,"Ġroom":4321,"ĠGreat":4322,"ĠEr":4323,"emplate":4324,"Pre":4325,"atabase":4326,"Ġplatform":4327,"NS":4328,"'ve":4329,"Ġconstruct":4330,"Ġchanged":4331,"Ġforces":4332,"Ġfrequ":4333,"That":4334,"evelopment":4335,"inate":4336,"Ġdesigned":4337,"Ġveh":4338,"Ġquality":4339,"Ġmeasure":4340,"ĠMat":4341,"ĠDirector":4342,"ĠTechn":4343,"ĉĊ":4344,"bert":4345,"Ġwindow":4346,"Ġcompleted":4347,"ĠRobert":4348,"Ġseven":4349,"Ġoption":4350,"])":4351,"ying":4352,"bon":4353,"reek":4354,"Ġ...":4355,"Ġopportunity":4356,"Ġnumer":4357,"Ġdecided":4358,"Ġearlier":4359,"Ġbeginning":4360,"06":4361,"Ġmale":4362,"Ġgrant":4363,"ena":4364,"ĠSecret":4365,"rey":4366,"ĠJournal":4367,"Ġcolumn":4368,"ĠFin":4369,"ervices":4370,"ĠPost":4371,"PI":4372,"Pol":4373,"So":4374,"''":4375,"Ġcitiz":4376,"Ġincreasing":4377,"Ġparticularly":4378,"ned":4379,"First":4380,"Ġtreatment":4381,"Ġmis":4382,"Ġtowards":4383,"Ġcollege":4384,"ĠMiss":4385,"host":4386,"ona":4387,"button":4388,"pecial":4389,"Ġsaying":4390,"Ġprogress":4391,"server":4392,"nu":4393,"grad":4394,"Ġcharg":4395,"Ġ->":4396,"Ġsigned":4397,"Ġpick":4398,"ĠRoyal":4399,"Ġprojects":4400,"Ġlocation":4401,"ĠHam":4402,"ĠMet":4403,"Ġspent":4404,"Ġcentral":4405,"Ġapprox":4406,"Ġsort":4407,"client":4408,"aily":4409,"Ġtransfer":4410,"ĠSuper":4411,"ala":4412,"ĠSet":4413,"Ġexpand":4414,"Ġlat":4415,"Ġunique":4416,"ĠOb":4417,"ĠSmith":4418,"Ġcommunities":4419,"ulate":4420,"ĠEducation":4421,"ĠCath":4422,"zer":4423,"Ġsimply":4424,"Ġopened":4425,"Ġmus":4426,"Ġload":4427,"BA":4428,"och":4429,"more":4430,"iding":4431,"Ġconcept":4432,"Ġweeks":4433,"Ġkilled":4434,"porary":4435,"Ġbasis":4436,"ĠUp":4437,"ĠÃ":4438,"request":4439,"vest":4440,"lication":4441,"Ġpurch":4442,"59":4443,"ĠThen":4444,"ĠSing":4445,"04":4446,"options":4447,"Ġserious":4448,"SC":4449,"pected":4450,"Ġdeaths":4451,"ĠDivision":4452,"Ġindependent":4453,"Ġmethods":4454,"Status":4455,"Ġcollect":4456,"obile":4457,"ĠOut":4458,"andemic":4459,"Ġtheory":4460,"ĠWestern":4461,"ulture":4462,"Ġarchitect":4463,"Ġstream":4464,"Ġsil":4465,"rows":4466,"iece":4467,"iler":4468,"Ġprotected":4469,"Ġtypes":4470,"ĠGold":4471,"Ġlimited":4472,"ĠDuring":4473,"Ġfollows":4474,"Head":4475,"Ġplaces":4476,"illed":4477,"Ġsituation":4478,"Ġdebut":4479,"ĠSub":4480,"ĠTur":4481,"owers":4482,"Ġrecomm":4483,"Ġreading":4484,"pat":4485,"ĠOF":4486,"ĠFore":4487,"UE":4488,"Ġpatients":4489,"actions":4490,"can":4491,"Ġbox":4492,"ĠThomas":4493,"Ġrules":4494,"ĠAnn":4495,"1996":4496,"ĠCentral":4497,"sim":4498,"Action":4499,"ĠAlex":4500,"bo":4501,"ĠFrancis":4502,"1997":4503,"fty":4504,"She":4505,"Util":4506,"RA":4507,"ĠTom":4508,"rated":4509,"EX":4510,"irus":4511,"Ġprevent":4512,"antic":4513,"dr":4514,"Ġleader":4515,"ios":4516,"Ġnormal":4517,"Ġrule":4518,"Che":4519,"Ġensure":4520,"Ġleave":4521,"han":4522,"Ġinvestig":4523,"Ġinsp":4524,"Ġcalc":4525,"1970":4526,"Ġscreen":4527,"Ġbirth":4528,"fully":4529,"ka":4530,"âĢĿ.":4531,"Ġmeaning":4532,"aud":4533,"Ġ<<":4534,"Ġcondition":4535,"ĠHen":4536,"Ġteacher":4537,"olve":4538,"ĠCarol":4539,"enge":4540,"88":4541,"ĠOffice":4542,"Ġpark":4543,"ĠProgram":4544,"Ġnames":4545,"Ġincreased":4546,"}$.":4547,"izer":4548,"izes":4549,"Ġsomet":4550,"ĠProfess":4551,"orial":4552,"ĠRef":4553,"eal":4554,"lo":4555,"Delta":4556,"Ġnom":4557,"}$,":4558,"Ġquestions":4559,"Ġdirectly":4560,"Ġexcept":4561,"cons":4562,"96":4563,"Ġoperation":4564,"ternet":4565,"ĠRussian":4566,"Nav":4567,"idden":4568,"Ġindividuals":4569,"Ġlevels":4570,"raphics":4571,"header":4572,"Last":4573,"road":4574,"Ġnearly":4575,"haps":4576,"ĠMac":4577,"ĠBest":4578,"ĠĠĠĠĠĠĠĠĠĠĠĠĠĠĠĠĠ":4579,"Ġplans":4580,"Ġexact":4581,"akers":4582,"Ġresource":4583,"Ġremain":4584,"Ġprimary":4585,"adding":4586,"pass":4587,"51":4588,"ĠRoad":4589,"ĠDel":4590,"ĠOther":4591,"vant":4592,"Ġsch":4593,"ĠNow":4594,"Ġsens":4595,"ĠSal":4596,"ĠPre":4597,"Ġacadem":4598,"ously":4599,"ĠCE":4600,"Ġlines":4601,"Ġdead":4602,"Ġsimple":4603,"Ġlimit":4604,"Ġappeared":4605,"Ġeffects":4606,"urrent":4607,"Sp":4608,"ĠFlorida":4609,"overed":4610,"Ġgrand":4611,"((":4612,"Ġpolitic":4613,"verse":4614,"omega":4615,"ĠIsland":4616,"ĠTimes":4617,"Ġusually":4618,"ĠMag":4619,"ĠKore":4620,"ĠScott":4621,"Line":4622,"ĠEv":4623,"Ġexhib":4624,"Ġleaders":4625,"foot":4626,"Ġitem":4627,"icago":4628,"ros":4629,"OL":4630,"alian":4631,"Ġthus":4632,"Ġprison":4633,"Ġremains":4634,"gorith":4635,"Ġeveryone":4636,"Ġability":4637,"Ġefforts":4638,"Ġmanufact":4639,"ebug":4640,"rowser":4641,"Ġproposed":4642,"Post":4643,"People":4644,"Ġcontinu":4645,"|\\":4646,"azine":4647,"args":4648,"ean":4649,"Ġrail":4650,"ĠVirgin":4651,"olf":4652,"height":4653,"well":4654,"ĠLat":4655,"ĠAustralian":4656,"ÑĤ":4657,"rupt":4658,"Ġassum":4659,"isation":4660,"Ġdetails":4661,"Ġrespond":4662,"anged":4663,"infty":4664,"Ġheight":4665,"Ġwriter":4666,"ĠRussia":4667,"Ġhot":4668,"ĠNor":4669,"Ġdram":4670,"iring":4671,"ĠWeb":4672,"font":4673,"case":4674,"Ġcontains":4675,"Ġphysical":4676,"eder":4677,"ube":4678,"Ġrecorded":4679,"reedom":4680,"Ġanti":4681,"ĠAtt":4682,"icture":4683,"Ġclimate":4684,"Us":4685,"ĠAccording":4686,"Component":4687,"ada":4688,"inst":4689,"ĠRel":4690,"ĠBay":4691,"fect":4692,"Ġattention":4693,"ili":4694,"Ġord":4695,"Ext":4696,"REF":4697,"Ġmur":4698,"Ġsuffer":4699,"Ġcorpor":4700,"ĠFrank":4701,"Ġbur":4702,"Ġcatch":4703,"Ġded":4704,"Ġtransport":4705,"Base":4706,"Ġinternal":4707,"Ġdeliver":4708,"ellig":4709,"itude":4710,"Ġdepend":4711,"Ġclient":4712,"Ġdaughter":4713,"Ð½":4714,"Input":4715,"ĠMount":4716,"uated":4717,"orem":4718,"ugin":4719,"Ġconnection":4720,"cm":4721,"Ġunit":4722,"ifying":4723,"Ġnumbers":4724,"urt":4725,"rav":4726,"ĠMad":4727,"Block":4728,"ario":4729,"Ġfailed":4730,"ĠFoundation":4731,"ams":4732,"iant":4733,"func":4734,"resh":4735,"ĠWomen":4736,"IM":4737,"anel":4738,"DO":4739,"first":4740,"ATE":4741,"History":4742,"element":4743,"allet":4744,"ensions":4745,"ĠLos":4746,"rd":4747,"({":4748,"ĠCap":4749,"Ġreceive":4750,"ĠCanadian":4751,"tx":4752,"Ġprem":4753,"ĠSince":4754,"CK":4755,"Ġavoid":4756,"tty":4757,"ĠNULL":4758,"wid":4759,"1995":4760,"Ġ\"\"\"":4761,"ini":4762,"Ġdistribution":4763,"Dr":4764,"Ġisn":4765,"Ġcollabor":4766,"Co":4767,"Instance":4768,"ĠAN":4769,"Ġtrust":4770,"){":4771,"Ġperformed":4772,"Ġprep":4773,"0000":4774,"Ġreligious":4775,"GL":4776,"Ġnav":4777,"ename":4778,"Ġalleg":4779,"undred":4780,"ĠSocial":4781,"Ġincome":4782,"Ġtim":4783,"exp":4784,"lock":4785,"ĠLife":4786,"My":4787,"navbar":4788,"append":4789,"tilde":4790,"Content":4791,"Ġquant":4792,"Ġdefe":4793,"Ġboy":4794,"Ġartists":4795,"Ġball":4796,"agon":4797,"uns":4798,"ĠLouis":4799,"Ġsports":4800,"Ġagreement":4801,"54":4802,"Gener":4803,"ĠUN":4804,"Ġdoc":4805,"Ġeconomy":4806,"Ġplant":4807,"osing":4808,"Ġpurpose":4809,"Char":4810,"rl":4811,"ias":4812,"Ġartist":4813,"member":4814,"ĠUnder":4815,"Ġregister":4816,"Ġreference":4817,"Ġuses":4818,"Ã¶":4819,"[\"":4820,"rak":4821,"Ġstreng":4822,"atre":4823,"achine":4824,"Ġeffective":4825,"target":4826,"ests":4827,"acing":4828,"Ġissu":4829,"Ġwait":4830,"Ġfair":4831,"Ġpreviously":4832,"Ġhum":4833,"Ġfavor":4834,"Ġautom":4835,"open":4836,"xml":4837,"Ġpolic":4838,"Ġpandemic":4839,"ishing":4840,"ĠAre":4841,"ĠčĊ":4842,"1994":4843,"eger":4844,"Ġsometimes":4845,"Label":4846,"ĠMass":4847,"ĠRob":4848,"HT":4849,"ĠProv":4850,"Ġeth":4851,"ĠClub":4852,"Ġthous":4853,"term":4854,"Ġmajority":4855,"UL":4856,"52":4857,"53":4858,"gu":4859,"ĠJose":4860,"Ġtherefore":4861,"ĠOffic":4862,"Token":4863,"asket":4864,"ĠOpen":4865,"Ġfelt":4866,"mas":4867,"Attribute":4868,"oma":4869,"ĠSur":4870,"ĠSeries":4871,"Ġdemand":4872,"ĠSund":4873,"ĠĠĠĠĠĠĠĠĊ":4874,"long":4875,"Ġbeaut":4876,"ĠIS":4877,"strong":4878,"Ġselected":4879,"Ġencour":4880,"Ġworth":4881,"Ġvoc":4882,"Ġgas":4883,"nected":4884,"stra":4885,"Ġeval":4886,"ributes":4887,"bour":4888,"json":4889,"Ġsec":4890,"ecause":4891,"Ġsummer":4892,"eds":4893,"ĠOur":4894,"Run":4895,"Ġspect":4896,"ĠIr":4897,"icine":4898,"Ġradio":4899,"Ġboolean":4900,"Ġminutes":4901,"Options":4902,"gment":4903,"Link":4904,"Ġwasn":4905,"png":4906,"ĠWil":4907,"ancy":4908,"hi":4909,"Ge":4910,"ĠJapanese":4911,"undle":4912,"Ġfunctions":4913,"Ġfinally":4914,"ĠRichard":4915,"bottom":4916,"venue":4917,"1992":4918,"Ġfemale":4919,"ĠHill":4920,"âĢĿ,":4921,"ĠSl":4922,"just":4923,"Ġsy":4924,"atively":4925,"ĠTor":4926,"Ġsatisf":4927,"Ġaltern":4928,"Ġvote":4929,"Ġprop":4930,"Ġpeace":4931,"iverse":4932,"TY":4933,"Ġconstant":4934,"non":4935,"clusion":4936,"Ġextra":4937,"ĠBusiness":4938,"ĠJud":4939,"anned":4940,"pol":4941,"Ġpresented":4942,"Ġtransform":4943,"Ġsupported":4944,"ĠNet":4945,"ĠPeter":4946,"Ġnone":4947,"find":4948,"ructure":4949,"reland":4950,"otype":4951,"dated":4952,"select":4953,"Ġconflic":4954,"ĠGrand":4955,"Ġmiddle":4956,"Ġhar":4957,"Ġproperties":4958,"Ġparties":4959,"ĠMer":4960,"ĠRem":4961,"edd":4962,"Ġtraditional":4963,"ĠPeople":4964,"}[":4965,"Point":4966,"Ġdim":4967,"Equal":4968,"76":4969,"ĠAcademy":4970,"ĠSee":4971,"Ġcompared":4972,"Ġapply":4973,"Ġsolution":4974,"Ġpsych":4975,"ĠCamp":4976,"adata":4977,"gest":4978,"TO":4979,"private":4980,"Ġscale":4981,"Ġclosed":4982,"ĠĠĠĠĠĠĠĠĠĠĠĠĊ":4983,"ĠAmericans":4984,"Oper":4985,"Start":4986,"Ġcritical":4987,"ÑĢ":4988,"Ġstrugg":4989,"Ġintroduced":4990,"Ġhospital":4991,"Ġstated":4992,"Handler":4993,"ĠOper":4994,"ĠVict":4995,"Ġcommercial":4996,"Ġinside":4997,"ĠLet":4998,"Ġdisease":4999,"Ġelected":5000,"anta":5001,"ĠKe":5002,"fficient":5003,"ĠAngeles":5004,"ĠRad":5005,"ĠChicago":5006,"Ġdemonstr":5007,"olds":5008,"Ġmount":5009,"Ġofficials":5010,"rid":5011,"Ġrecords":5012,"chers":5013,"Ġorganizations":5014,"onder":5015,"urns":5016,"itled":5017,"Null":5018,"ĠIran":5019,"yth":5020,"Ġexisting":5021,"Ġgoes":5022,"Ġhelped":5023,"Ġrese":5024,"ĠOver":5025,"Ġvers":5026,"risis":5027,"Ġang":5028,"ĠCharles":5029,"Ġoccup":5030,"$$":5031,"Ġmission":5032,"Ġmulti":5033,"Ġbey":5034,"ĠPri":5035,"Ġtransl":5036,"Ġsecret":5037,"icated":5038,"ĠFig":5039,"zz":5040,"Ġmechan":5041,"LASS":5042,"ocket":5043,"mm":5044,"ĠParis":5045,"ensity":5046,"eria":5047,"rics":5048,"Ġ+=":5049,"Ġpen":5050,"Ġrestrict":5051,"Ġstarting":5052,"Hel":5053,"Ġfun":5054,"Ġhighest":5055,"ĠĠĠĠĠĠĠĠĠĠĠĠĠĠ":5056,"Ġwhom":5057,"Ġgold":5058,"ĠArts":5059,"Ġentry":5060,"Ġbeyond":5061,"Resource":5062,"udget":5063,"Ġadministration":5064,"Ġiniti":5065,"1993":5066,"nor":5067,"Ġturned":5068,"Back":5069,"astern":5070,"Ġprec":5071,"Ġminor":5072,"enty":5073,"VER":5074,"Ġwrong":5075,"ĠMost":5076,"Ġresponsible":5077,"Prov":5078,"rypt":5079,"ibly":5080,"Mar":5081,"sg":5082,"itness":5083,"Ġfirm":5084,"module":5085,"ĠHuman":5086,"ils":5087,"ĠTime":5088,"ĠChild":5089,"property":5090,"ributed":5091,"Ġquarter":5092,"house":5093,"PR":5094,"witch":5095,"Ġult":5096,"ĠReview":5097,"Ġstore":5098,"pload":5099,"Ġeventually":5100,"Ġassess":5101,"tings":5102,"anish":5103,"ensus":5104,"Ġlarger":5105,"close":5106,"Ġletter":5107,"Ġanc":5108,"Ġactivity":5109,"Ġinform":5110,"Task":5111,"Ġfields":5112,"Ġsafety":5113,"ustain":5114,"cdot":5115,"riage":5116,"CA":5117,"Ġtemper":5118,"ĠTown":5119,"1960":5120,"Ġreached":5121,"Ġphil":5122,"Ġfounded":5123,"Factory":5124,"FI":5125,"Per":5126,"Ġcouple":5127,"Ġdirected":5128,"300":5129,"Ġmargin":5130,"Ġbill":5131,"EL":5132,"Ġannual":5133,"caption":5134,"Off":5135,"igration":5136,"Ġpaid":5137,"Living":5138,"Ġformed":5139,"ĠDevelopment":5140,"uled":5141,"ĠKingdom":5142,"Ġgreater":5143,"ĠAtl":5144,"ĠNone":5145,"ifact":5146,"btn":5147,"det":5148,"Ġspirit":5149,"Ġcosts":5150,"Ġcorrect":5151,"Ġupdate":5152,"unities":5153,"Ġshot":5154,"Ġdigital":5155,"ici":5156,"thlet":5157,"Ġinteresting":5158,"Ġgives":5159,"ypes":5160,"sole":5161,"Buffer":5162,"Ġremember":5163,"Ġreports":5164,"ĠIslam":5165,"ĠCatholic":5166,"char":5167,"ĠDec":5168,"ĠUs":5169,"Ġlaws":5170,"Ġcritic":5171,"ua":5172,"\").":5173,"Ġwid":5174,"Ġappropri":5175,"Ġdestroy":5176,"oday":5177,"\\,":5178,"Next":5179,"uty":5180,"Ġnoted":5181,"aling":5182,"ĠStev":5183,"Ġpoor":5184,"Ġreli":5185,"ĠMexico":5186,"Ġepisode":5187,"urance":5188,"ĠData":5189,"Default":5190,"Ġselect":5191,"Ġgrowing":5192,"Mem":5193,"Ġdou":5194,"Ġprice":5195,"Ġsurpr":5196,"igen":5197,"stitution":5198,"iled":5199,"PRO":5200,"Exp":5201,"Ġeditor":5202,"Ġer":5203,"Ġpriv":5204,"mem":5205,"ba":5206,"Ġeasy":5207,"Ġmanager":5208,"Ġexpress":5209,"ĠChief":5210,"ĠIss":5211,"uclear":5212,"ĠEconom":5213,"ĠArab":5214,"Ġheard":5215,"pret":5216,"Ġâ":5217,"Ġviolence":5218,"ĠBre":5219,"ervation":5220,"Ġappointed":5221,"poses":5222,"amples":5223,"Ġunc":5224,"ronic":5225,"ĠSection":5226,"pack":5227,"shire":5228,"ĠID":5229,"inct":5230,"Ġmagn":5231,"ancing":5232,"src":5233,"orter":5234,"][":5235,"Ġofficer":5236,"stract":5237,"ĠRead":5238,"Ġproviding":5239,"1991":5240,"itable":5241,"anda":5242,"Ġserve":5243,"status":5244,"write":5245,"Ġnote":5246,"Ġfully":5247,"Ġsoftware":5248,"Ġgraph":5249,"meta":5250,"à¤":5251,"ĉĉĉĉĉĉĉĉ":5252,"igan":5253,"Ġconnect":5254,"Ġhop":5255,"Ġtru":5256,"Window":5257,"Ġgenerally":5258,"Ġwide":5259,"Number":5260,"Le":5261,"Ġparameters":5262,"Ġreach":5263,"Ġcoach":5264,"description":5265,"erved":5266,"Function":5267,"Ġhundred":5268,"Ġaw":5269,"Load":5270,"Ġcarry":5271,"*/":5272,"ĠObject":5273,"ĠInst":5274,"care":5275,"ingu":5276,"entry":5277,"Ġenter":5278,"Ġemployees":5279,"63":5280,"Ġrepe":5281,"room":5282,"Rep":5283,"west":5284,"ascript":5285,"Ġdu":5286,"overs":5287,"Om":5288,"cod":5289,"Ġformat":5290,"ĠLord":5291,"ĠForce":5292,"Ġcultural":5293,"UM":5294,"Ġcitizens":5295,"Ġdirection":5296,"std":5297,"Ġhighly":5298,"ĠSecretary":5299,"witter":5300,"93":5301,"Command":5302,"ĠProject":5303,"ĠBig":5304,"Ġbuildings":5305,"Ġactions":5306,"Ġsetting":5307,"si":5308,"final":5309,"bb":5310,"ĠBrown":5311,"img":5312,"FL":5313,"Ġsolid":5314,"TER":5315,")$.":5316,"Ġfoot":5317,"ĠRock":5318,"Ġsexual":5319,"ĠForm":5320,"Ġquickly":5321,"${":5322,"po":5323,"Ġcaused":5324,"ĠIll":5325,"fe":5326,"textbf":5327,"Ġinvestment":5328,"ĠIreland":5329,"usband":5330,"Web":5331,"Ġsources":5332,"Ġstock":5333,"Ġallows":5334,"Ġended":5335,"Ġimprov":5336,"styles":5337,"Ġsenior":5338,"Ġhol":5339,"local":5340,"Ġauto":5341,"ĠStar":5342,"gn":5343,"Ġspecified":5344,"EC":5345,"iful":5346,"PA":5347,"ĠVirginia":5348,"za":5349,"Ġarrest":5350,"mes":5351,"Ġadapt":5352,"Ġdifference":5353,"Ġknew":5354,"iller":5355,"Ġbal":5356,"Ġusers":5357,"Ġleadership":5358,"Ġrow":5359,"Ã¤":5360,"Ġoil":5361,"Ġshoot":5362,"BS":5363,"bur":5364,"Ġspread":5365,"inner":5366,"Ġgiving":5367,"Ġscene":5368,"inding":5369,"Det":5370,"rees":5371,"Ġcommit":5372,"standing":5373,"Ġinfluence":5374,"Version":5375,"Page":5376,"Ġcrim":5377,"ptr":5378,"Ġotherwise":5379,"Ġship":5380,"ĠOh":5381,"Ġopin":5382,"Ġraised":5383,"Ġunderstanding":5384,"ĠAp":5385,"Ġpattern":5386,"Ġstrateg":5387,"udd":5388,"Ġinnov":5389,"92":5390,"Ġclaims":5391,"Ġcompetition":5392,"DA":5393,"orpor":5394,"igger":5395,"Ġfarm":5396,"FONT":5397,"Ġscen":5398,"Ġargument":5399,"gener":5400,"ky":5401,"Ġign":5402,"Ġadult":5403,"ĠUSA":5404,"Let":5405,"ĠHistor":5406,"osoph":5407,"Eng":5408,"Can":5409,"ĠMel":5410,"ĠBi":5411,"94":5412,"ĠGames":5413,"});":5414,"ĠJes":5415,"lick":5416,"\"),":5417,"72":5418,"Ġforms":5419,"rieved":5420,"\"]":5421,"project":5422,"Do":5423,"Ġesc":5424,"last":5425,"elete":5426,"61":5427,"TS":5428,"Ġsales":5429,"unched":5430,"UI":5431,"ani":5432,"ĠBur":5433,"91":5434,"Ġoverall":5435,"Ġshared":5436,"Ġanyone":5437,"ita":5438,"Ġactual":5439,"Ġtrial":5440,"Ġsector":5441,"62":5442,"ano":5443,"Ġweight":5444,"Ġlived":5445,"400":5446,"ĠHel":5447,"asketball":5448,"display":5449,"PC":5450,"Check":5451,"Ġequal":5452,"Ġfast":5453,"Ġfigure":5454,"Ġchief":5455,"ĠDu":5456,"ĠSecond":5457,"arian":5458,"Ġmoving":5459,"ĠDet":5460,"yr":5461,"ĠTHE":5462,"ĠGeorg":5463,"hab":5464,"Ġdespite":5465,"small":5466,"Ġextends":5467,"Ġunits":5468,"Ġmurder":5469,"Ġfinished":5470,"ircraft":5471,"aml":5472,"under":5473,"True":5474,"pc":5475,"ĠWell":5476,"Ġcounter":5477,"pid":5478,"olk":5479,"Ġpack":5480,"Tag":5481,"Ġsubsequ":5482,"Ġleague":5483,"Ġparameter":5484,"Ġimprove":5485,"1989":5486,"asion":5487,"Ġvariety":5488,"Ġimmediately":5489,"eqn":5490,"Ġaffect":5491,"ĠÂ£":5492,"Ġaspect":5493,"which":5494,"Ġdark":5495,"ĠGen":5496,"Ġsurface":5497,"found":5498,"apping":5499,"ipl":5500,"Ġpaint":5501,"push":5502,"Ġoffers":5503,"ĠPenn":5504,"cho":5505,"Ġmaster":5506,"SON":5507,"Ġbeg":5508,"ĠItalian":5509,"Ġones":5510,"Ġsurround":5511,"Ġconsum":5512,"Ġdro":5513,"Ġproceed":5514,"Ġpredict":5515,"epsilon":5516,"Ġopening":5517,"atas":5518,"ĠStr":5519,"Ġmill":5520,"ĠJewish":5521,"~~":5522,"Ġbecomes":5523,"Ġblood":5524,"Ð¾Ð":5525,"Ġappears":5526,"Ġetc":5527,"ĉĠĠĠ":5528,"Ġinstr":5529,"Ġspeak":5530,"mult":5531,"otal":5532,"istance":5533,"Ġaware":5534,"nership":5535,"Ġvert":5536,"ĠSunday":5537,"layout":5538,"Ġhistorical":5539,"Ġcompar":5540,"Cell":5541,"Met":5542,"format":5543,"Ġsn":5544,"ĠFilm":5545,"estic":5546,"entially":5547,"Ġpretty":5548,"Ñģ":5549,"Ġcoord":5550,"Ġplaced":5551,"ĠJustice":5552,"azz":5553,"Ġtro":5554,"Ġobtained":5555,"Box":5556,"ĠZeal":5557,"Ġfunding":5558,"While":5559,"ien":5560,"len":5561,"Ġimag":5562,"psilon":5563,"ĠHenry":5564,"Ġvoice":5565,"Ġreasons":5566,"Ġcert":5567,"ĠEngine":5568,"pective":5569,"Ġchoice":5570,"orney":5571,"Ġweb":5572,"Big":5573,"Ġgoals":5574,"ĠAlthough":5575,"ĠServices":5576,"}_{\\":5577,"Ġsal":5578,"Ġ]":5579,"}}\\":5580,"container":5581,"Ġhappened":5582,"Ġcities":5583,"Ġcharge":5584,"ĠMartin":5585,"ĠPlan":5586,"racy":5587,"Ġcriminal":5588,"Ġproced":5589,"arks":5590,"ĠTer":5591,"Ġ<!--":5592,"Ġfans":5593,"ayers":5594,"Omega":5595,"Ġproper":5596,"javascript":5597,"flow":5598,"ĠSup":5599,"ping":5600,"ribe":5601,"alle":5602,"Ġroot":5603,"ATION":5604,"Ġrat":5605,"Mat":5606,"ulty":5607,"Ġfourth":5608,"ĠZealand":5609,"coming":5610,"ette":5611,"^{(":5612,"Ġcapacity":5613,"ultural":5614,"ura":5615,"Ġ(\"":5616,"Child":5617,"Ġselection":5618,"AAAA":5619,"///":5620,"Ġbusinesses":5621,"ĠSpanish":5622,"Ġwest":5623,"Ġclin":5624,"Ġtrain":5625,"ttp":5626,"Ġthrows":5627,"Ġmemory":5628,"osh":5629,"uit":5630,"Bundle":5631,"Ġreturns":5632,"soft":5633,"Ġlatest":5634,"service":5635,"Ġhusband":5636,"Ġfamous":5637,"ĠTwo":5638,"Ġcreating":5639,"ĠLand":5640,"................":5641,"ABLE":5642,"ologies":5643,"Ġliber":5644,"ĠMo":5645,"apers":5646,"ls":5647,"Ġsend":5648,"abilities":5649,"illa":5650,"Ġcop":5651,"Ġsymbol":5652,"Ġcommission":5653,"Ġadopt":5654,"Ġstra":5655,"Ġpolicies":5656,"oviet":5657,"Ġsets":5658,"ĠLake":5659,"itz":5660,"ĠLoc":5661,"^*":5662,"Ġcompletely":5663,"Ġfif":5664,"HO":5665,"only":5666,"dep":5667,"ĠLong":5668,"Ġvirtual":5669,"response":5670,"Ġresear":5671,"71":5672,"Ġcam":5673,"Ġreb":5674,"filter":5675,"Ġbuy":5676,"Ġobtain":5677,"ĠAsia":5678,"itors":5679,"Ġplays":5680,"TP":5681,"Ġurl":5682,"Ġelectric":5683,"Controller":5684,"Ġhear":5685,"ester":5686,"Ġq":5687,"Ġremained":5688,"enses":5689,"Ġdepartment":5690,"Ġchem":5691,"Ġexecutive":5692,"Ġdefend":5693,"Ġguitar":5694,"Ġfiles":5695,"IA":5696,"Ġimages":5697,"ella":5698,"Ġthr":5699,"spec":5700,"Ġdynam":5701,"Ġeast":5702,"ĠVictor":5703,"PO":5704,"Ġdevice":5705,"main":5706,"Ġuniversity":5707,"Ġperfect":5708,"car":5709,"1988":5710,"Ġexception":5711,"ĠMil":5712,"Ġbattle":5713,"ĠHome":5714,"Ġruns":5715,"osen":5716,"IO":5717,"Ġmissing":5718,"essages":5719,"////////////////":5720,"Ġlif":5721,"SA":5722,"razil":5723,"Ġoriginally":5724,"ĠJohnson":5725,"heet":5726,"85":5727,"Ġissued":5728,"lease":5729,"Ġhands":5730,"ĠHere":5731,"ĠEnd":5732,"Ġraise":5733,"ĠAv":5734,"emporary":5735,"Ġbecoming":5736,"support":5737,"Ġpartner":5738,"||":5739,"73":5740,"Ġgets":5741,"Ġprefer":5742,"ao":5743,"Ġchart":5744,"gorithm":5745,"annot":5746,"Ġslow":5747,"Ġmeasures":5748,"Ġbasic":5749,"Ġgreen":5750,"Ġbrief":5751,"ĠEarth":5752,"(&":5753,"psi":5754,"ĠMur":5755,"ĠCr":5756,"ĠBuild":5757,"lev":5758,"Ġofficers":5759,"Ġproduce":5760,"ĠPet":5761,"Ġalone":5762,"Ġcru":5763,"Ġunivers":5764,"ĠJo":5765,"ĠBritain":5766,"Ġabsol":5767,"74":5768,"Ġdistance":5769,"gent":5770,"ĠPub":5771,"Ġforced":5772,"Ġfaith":5773,"########":5774,"ĠCarolina":5775,"ĠFederal":5776,"Ġcancer":5777,"Ġcompos":5778,"Ġauth":5779,"ĠCD":5780,"Ġmodule":5781,"Ġbehavior":5782,"Ġbenefits":5783,"ĠAff":5784,"ĠDen":5785,"Ġstrategy":5786,"ĠStep":5787,"Ġcrisis":5788,"NO":5789,"Ġhappen":5790,"John":5791,"Ġprotection":5792,"Create":5793,"iny":5794,"Ġoffered":5795,"abs":5796,"Ġpoll":5797,"69":5798,"Ġclasses":5799,"Ġpiece":5800,"real":5801,"Format":5802,"oration":5803,"Aut":5804,"Work":5805,"ĠEU":5806,"chi":5807,"Ġdecades":5808,"Desc":5809,"Top":5810,"Ġpolitics":5811,"elligence":5812,"uries":5813,"ĠItaly":5814,"rs":5815,"ĠRights":5816,"Ġ{@":5817,"Ġawarded":5818,"Ġcalls":5819,"Filter":5820,"Ġnet":5821,"ĠLog":5822,"menu":5823,"Ġauthority":5824,"Ġsession":5825,"Ġreflect":5826,"ĠScot":5827,"'ll":5828,"scale":5829,"Ġcomputer":5830,"Ġcontinues":5831,"update":5832,":</":5833,"yan":5834,"Ġfear":5835,"ĠCast":5836,"eft":5837,"ĠTim":5838,"Ġresidents":5839,"raq":5840,"ĠColumb":5841,"Ġinstitutions":5842,"subsection":5843,"ĠGood":5844,"IZ":5845,"Ġterrit":5846,"ican":5847,"ĠFace":5848,"Listener":5849,"Rem":5850,"ĠWood":5851,"Ġchance":5852,"ĠCivil":5853,"ĠProfessor":5854,"Ġtree":5855,"ĠHREF":5856,"Equals":5857,"Ġapplied":5858,"Ġscore":5859,"Style":5860,"endif":5861,"ĠRecords":5862,"ĠâĢ¦":5863,"rolled":5864,"Ġ((":5865,"imation":5866,"allery":5867,"arser":5868,"lig":5869,"ĠManagement":5870,"ĠFort":5871,"ora":5872,"arant":5873,"Ġanswer":5874,"Am":5875,"Ġspeed":5876,"ournament":5877,"ĠFestival":5878,"umni":5879,"kins":5880,"Ġbelong":5881,"obj":5882,"79":5883,"Ġexperiment":5884,"vare":5885,"ĠOrder":5886,"Ġemot":5887,"Don":5888,"Ġideas":5889,"CL":5890,"Ġhuge":5891,"Ġolder":5892,"Ġ``":5893,"ĠBo":5894,"Ġlisted":5895,"Ġserver":5896,"bm":5897,"ĠEven":5898,"break":5899,"Ġneighbor":5900,"ctors":5901,"Ġnumerous":5902,"akistan":5903,"show":5904,"Ġnotice":5905,"Ġlaunched":5906,"Ġjoin":5907,"Ġcoast":5908,"ĠIts":5909,"ĠSenate":5910,"ĠMos":5911,"Ġholds":5912,"Ġpresence":5913,"Ġclean":5914,"Ġgeneration":5915,"ĠMiddle":5916,"irmed":5917,"ĠId":5918,"column":5919,"Ġanaly":5920,"acific":5921,"oston":5922,"iate":5923,")$,":5924,"ansion":5925,"ĠLee":5926,"ĠMond":5927,"hent":5928,"writ":5929,"rate":5930,"Ġcomponent":5931,"Ġmusical":5932,"Ġweap":5933,"Ġrespectively":5934,"nel":5935,"instance":5936,"author":5937,"Ġconsult":5938,"airman":5939,"Ġcard":5940,"aters":5941,"related":5942,"ĠMany":5943,"Ġrates":5944,"Spec":5945,"cit":5946,"Ġaim":5947,"Ġfunds":5948,"ĠTop":5949,"ĠGoogle":5950,"ĠSecurity":5951,"iform":5952,"greg":5953,"secut":5954,"process":5955,"ady":5956,"1987":5957,"ĠFriday":5958,"ĠParliament":5959,"Layout":5960,"Ġidentity":5961,"ĠLiber":5962,"Ġreform":5963,"ĠCLASS":5964,"number":5965,"Ġremove":5966,"ĠJim":5967,"ola":5968,"Ġrequires":5969,"Ġaccur":5970,"IF":5971,"Ġacademic":5972,"Ġterror":5973,"?âĢĿ":5974,"Ġexists":5975,"track":5976,"aturday":5977,"urban":5978,"Ġtouch":5979,"olved":5980,"ĠSil":5981,"Ġbrand":5982,"ĠJoseph":5983,"sche":5984,"Ġopportunities":5985,"Ġconsequ":5986,"Ġapproximately":5987,"inem":5988,"usion":5989,"Ġobjects":5990,"Ġpressure":5991,"Ġreality":5992,"ĠYour":5993,"params":5994,"Ġitems":5995,"ĠMov":5996,"COL":5997,"Des":5998,"ĠOld":5999,"Ġharm":6000,"1986":6001,"ĠMain":6002,"icit":6003,"Ġconclud":6004,"ĠAssembly":6005,"Ġuns":6006,"duction":6007,"Men":6008,"ĠMedia":6009,"Button":6010,"attr":6011,"Ġlabor":6012,"Ġpropos":6013,"Ġrob":6014,"Ġseparate":6015,"Sec":6016,"Ġtruth":6017,"_.":6018,"Ġenvironmental":6019,"efined":6020,"Ġactor":6021,"<?":6022,"fill":6023,"num":6024,"Ġlock":6025,"ny":6026,"ĠGlobal":6027,"rier":6028,"Min":6029,"Ġexpression":6030,"ĠSupreme":6031,"Ġdescription":6032,"Ġbenefit":6033,"older":6034,"ĠFe":6035,"DB":6036,"Ġchallenges":6037,"onic":6038,"Ġmix":6039,"Gamma":6040,"Ġrandom":6041,"URL":6042,"ployment":6043,"cos":6044,"Ġtried":6045,"bridge":6046,"site":6047,"PS":6048,"Ġagreed":6049,"Ġmentioned":6050,"Column":6051,"refix":6052,"iginal":6053,"adow":6054,"Ġsafe":6055,"Ġpull":6056,"legal":6057,"iana":6058,"Ġdetermined":6059,"Ġjustice":6060,"Ġextrem":6061,"isters":6062,"ĠVer":6063,"Ġowner":6064,"Ġfactors":6065,"1950":6066,"They":6067,"Ġperhaps":6068,"inger":6069,"Ġreplace":6070,"Ġjobs":6071,"Ġaircraft":6072,"86":6073,"emph":6074,"elled":6075,"FC":6076,"Ġalbums":6077,"ansas":6078,"Ġwinning":6079,"stances":6080,"itory":6081,"Ġalt":6082,"bed":6083,"ĠYoung":6084,"tag":6085,"background":6086,"ĠRE":6087,"erman":6088,"ih":6089,"Ġsell":6090,"riend":6091,"1984":6092,"TC":6093,"ĠAut":6094,"dec":6095,"Ġmode":6096,"Ġbus":6097,"According":6098,"Ġthinking":6099,"Ġtal":6100,"Ġreduce":6101,"ĠLu":6102,"Ġfont":6103,"abour":6104,"ĠTheir":6105,"DF":6106,"ĠTre":6107,"ato":6108,"Ġlic":6109,"Ġchannel":6110,"Ġinterests":6111,"ĠEX":6112,"sqrt":6113,"ĠAdminist":6114,"Ġmostly":6115,"ĠHead":6116,"pping":6117,"ĠFund":6118,"Ġnewsp":6119,"Ġchallenge":6120,"ĠLibrary":6121,"Valid":6122,"More":6123,"ĠEmp":6124,"kit":6125,"ishop":6126,"Ġrequirements":6127,"Ġcrime":6128,"while":6129,"ql":6130,"Ġcredit":6131,"Ġhy":6132,"Ġadministr":6133,"Ġrepresented":6134,"Ġcarried":6135,"remove":6136,"ki":6137,"Ġphase":6138,"Ġmiles":6139,"Ġnine":6140,"cap":6141,"Ġaudience":6142,"ĠMuslim":6143,"Url":6144,"ĠCorpor":6145,"=\"../../../../../":6146,"ĠKn":6147,"Ġmaterials":6148,"lections":6149,"Rel":6150,"utch":6151,"Ġillust":6152,"anges":6153,"bra":6154,"Ġhousehold":6155,"Ġmorning":6156,"Ġtransition":6157,"Ġregarding":6158,"Ġcircum":6159,"ĠJul":6160,"ĠGar":6161,"Ġfeatured":6162,"iano":6163,"=\"../../":6164,"ĠAcc":6165,"Ġexerc":6166,">>":6167,"Ġscope":6168,"ĠIraq":6169,"atters":6170,"ĠCommunity":6171,"uid":6172,"Ġsea":6173,"ĠType":6174,"Ġpowerful":6175,"leep":6176,"ogg":6177,"Ġmut":6178,"Ġconference":6179,"Ġrender":6180,"Ġplanning":6181,"Ġinterested":6182,"rices":6183,"âĢħ":6184,"Ġtoward":6185,"Ġdoll":6186,"Ġimpl":6187,"mt":6188,"Ġflow":6189,"going":6190,"gency":6191,"ĠInformation":6192,"ĠSun":6193,"ĠLicense":6194,"```":6195,"ĠStat":6196,"Ġrise":6197,"Ġunion":6198,"Ġshowed":6199,"Ġmeant":6200,"gypt":6201,"ORT":6202,"aved":6203,"Sche":6204,"dule":6205,"Ġobvious":6206,"ERR":6207,"Ġbudget":6208,"1985":6209,"varepsilon":6210,"Ġrelevant":6211,"Open":6212,"ifically":6213,"Select":6214,"Ġdeveloping":6215,"Vis":6216,"Ġreplaced":6217,"gar":6218,"ĠDev":6219,"CON":6220,"Ġsave":6221,"Ġdefinition":6222,"Ġkm":6223,"Ġmental":6224,"expected":6225,"ĠHaw":6226,"ĠRail":6227,"ented":6228,"eler":6229,"ĠAwards":6230,"Ġwild":6231,"cean":6232,"Ġconvers":6233,"Ġscript":6234,"prov":6235,"dim":6236,"esh":6237,"UP":6238,"').":6239,"Ġadvoc":6240,"inet":6241,"Now":6242,"files":6243,"ums":6244,"ylvan":6245,"agram":6246,"ĠSpe":6247,"proof":6248,"Length":6249,"ĠOl":6250,"}^{\\":6251,"ĠBoy":6252,"Ġreferred":6253,"inations":6254,"Ġskills":6255,"Ġpurposes":6256,"Ġexec":6257,"Ġfreedom":6258,"anging":6259,"ipment":6260,"Ġentered":6261,"circ":6262,"nam":6263,"ĠValley":6264,"Ġcontain":6265,"fa":6266,"Ġking":6267,"Ġconvert":6268,"ĠDemocratic":6269,"egraphics":6270,"includegraphics":6271,"Ġbg":6272,"Ġappropriate":6273,"war":6274,"ĠSol":6275,"odies":6276,"Ġexactly":6277,"law":6278,"NAME":6279,"Ġdetermine":6280,"ĠRetrieved":6281,"Max":6282,"Ġinterface":6283,"ĠKar":6284,"lisher":6285,"enth":6286,"ĠPolicy":6287,"sem":6288,"look":6289,"Ġattract":6290,"ĠLove":6291,"Ġdivision":6292,"ĠJones":6293,"Ġagency":6294,"ĠSpecial":6295,"Ġkept":6296,"ooth":6297,"Ġsinger":6298,"Ġfailure":6299,"Ġobj":6300,"Ġattend":6301,"Ġconflict":6302,"ĠTechnology":6303,"Ġpet":6304,"ollowing":6305,"Ġdrive":6306,"ĠShow":6307,"ds":6308,"CODE":6309,"Ġinterpret":6310,"icate":6311,"weight":6312,"Ġnuclear":6313,"aren":6314,"utils":6315,"Ġsmaller":6316,"Car":6317,"yer":6318,")=":6319,"ĠHT":6320,"Ġnative":6321,"tool":6322,"tra":6323,"rence":6324,"Direct":6325,"lies":6326,"Port":6327,"Ġwants":6328,"Ġbelieved":6329,"pg":6330,"icip":6331,"Ġmaximum":6332,"pers":6333,"Ġauthorities":6334,"Ġbroadcast":6335,"Ġsupply":6336,"Address":6337,"Ġfilter":6338,"Ġpursu":6339,"Ġidentified":6340,"Ġmunic":6341,"Ġmarriage":6342,"ĠStudies":6343,"Ġmicro":6344,"Ġjoint":6345,"Ġdanger":6346,"ishes":6347,"Ġapplications":6348,"Ġsusp":6349,"Server":6350,"etime":6351,"Mode":6352,"ĠSoviet":6353,"Ġexperi":6354,"Ob":6355,"ĠMa":6356,"Ġwood":6357,"TV":6358,"omy":6359,"Ġcorn":6360,"Ġisland":6361,"iders":6362,"ĠĠĠĠĠĠĠĠĠĠĠĠĠĠĠĠĠĠĠĠĠĠĠĠĠĠĠĠĠĠĠĠĠĠĠ":6363,"inds":6364,"Access":6365,"Ġconnected":6366,"ĠSummer":6367,"Ġcandidate":6368,"iling":6369,"output":6370,"require":6371,"Sim":6372,"GB":6373,"ĠSar":6374,"Ġrare":6375,"Update":6376,"Ġcertainly":6377,"Ġroute":6378,"ĠAlso":6379,"arden":6380,"ĠHot":6381,"Ġcore":6382,"ĠOrgan":6383,"ĠWilliams":6384,"Ġfocused":6385,"Ġleaving":6386,"Ġready":6387,"cript":6388,"ĠNetwork":6389,"inder":6390,"Ġregional":6391,"unte":6392,"ĠColor":6393,"BO":6394,"asy":6395,"ootst":6396,"press":6397,"ĠField":6398,"Ġadvant":6399,"BU":6400,"Ġmatrix":6401,"ĠPolit":6402,"document":6403,"Ġlearned":6404,"Ġcat":6405,"ĠSwed":6406,"Ġroll":6407,"ylvania":6408,"Row":6409,"Ġtalking":6410,"Ġpi":6411,"Ġlaunch":6412,"Ġremoved":6413,"ĠBrazil":6414,"ERT":6415,"ĠFootball":6416,"ourney":6417,"anks":6418,"claim":6419,"Ġteaching":6420,"ĠBas":6421,"Ġkids":6422,"ĠBob":6423,"Ġrelative":6424,"Ġfactor":6425,"Ġtag":6426,"ĠGL":6427,"Ġproof":6428,"ĠMedical":6429,"ĠTeam":6430,"Ġfacilities":6431,"}=":6432,"common":6433,"Since":6434,"ãģ":6435,"ĠTour":6436,"Ġviews":6437,"1983":6438,"Ġtesting":6439,"then":6440,"Ġinvestigation":6441,"Ġwel":6442,"Ġarguments":6443,"ĠNorthern":6444,"Ġexpert":6445,"oral":6446,"ĠDom":6447,"ĠBoston":6448,"Ġstations":6449,"Ġmanaged":6450,"ĠST":6451,"Ġcallback":6452,"ĠRepublican":6453,"Ġ${\\":6454,"Ġsolutions":6455,"El":6456,"Ġpush":6457,"hor":6458,"Ġstudio":6459,"cs":6460,"Ġcommittee":6461,"ootstrap":6462,"ĠObama":6463,"ĠBet":6464,"ecutive":6465,"CD":6466,"ĠNavy":6467,"ĠPakistan":6468,"ategories":6469,"Ġfellow":6470,"itage":6471,"ĠMonday":6472,"Ġedition":6473,"render":6474,"Ġmys":6475,"82":6476,"AV":6477,"Ġprofessor":6478,"ocracy":6479,"Ġcommitted":6480,"rightarrow":6481,"Ġscientific":6482,"ĠLin":6483,"Art":6484,"ĉĠ":6485,"itan":6486,"Ġsustain":6487,"Ġstandards":6488,"ĠCentre":6489,"rum":6490,"eqnarray":6491,"Return":6492,"ĠSpring":6493,"lie":6494,"ĠLead":6495,"ĠSouthern":6496,"Ear":6497,"scope":6498,"Ġspeech":6499,"ĠWal":6500,"Ġnegative":6501,"Ġbeautiful":6502,"Ġarticles":6503,"CR":6504,"Ġdefine":6505,"Rev":6506,"Mon":6507,"Ġlibrary":6508,"ested":6509,"Output":6510,"=\"-":6511,"Current":6512,"ador":6513,"orph":6514,"Ġwriters":6515,"Ġoperating":6516,"Init":6517,"ĠCare":6518,"Ġimportance":6519,"Ġpair":6520,"ĠReport":6521,"ĠOlympics":6522,"1982":6523,"Ġstars":6524,"FFFF":6525,"PL":6526,"acter":6527,"ĠPM":6528,"ĠMot":6529,"KE":6530,"Ġoperator":6531,"abeth":6532,"that":6533,"oted":6534,"wan":6535,"omic":6536,"Ġhandle":6537,"iar":6538,"Ġshape":6539,"Ġcounty":6540,"Ġedge":6541,"Other":6542,"ĠFacebook":6543,"desc":6544,"ĠHon":6545,"Ġheavy":6546,"++)":6547,"Ġfeet":6548,"Ġattended":6549,"Ġsequence":6550,"bin":6551,"Ġsumm":6552,"offset":6553,"Ġremaining":6554,"Ġfeed":6555,"nic":6556,"Ġyouth":6557,"ĠBase":6558,"Ġbgcolor":6559,"Ġearth":6560,"Ġdaily":6561,"ĠSaturday":6562,"window":6563,"Ġlit":6564,"artifact":6565,"oding":6566,"Cache":6567,"Ġbiggest":6568,"aby":6569,"ĠWed":6570,"Ġ!==":6571,"Ġequival":6572,"87":6573,"ĠWall":6574,"rip":6575,"Ġgun":6576,"Ġthousands":6577,"ursday":6578,"Ġgenerated":6579,"Ġeasily":6580,"MO":6581,"Ġclearly":6582,"Ġdocuments":6583,"sd":6584,"sign":6585,"uesday":6586,"wp":6587,"ĠSpain":6588,"ĠMen":6589,"Ġhousing":6590,"Ġdream":6591,"nab":6592,"1979":6593,"hr":6594,"ĠEvery":6595,"ashion":6596,"Ġflag":6597,"Ġelections":6598,"eless":6599,"ĠVis":6600,"else":6601,"Ġpil":6602,"Ġemail":6603,"ĠConference":6604,"ĠGal":6605,"(_":6606,"Ġfra":6607,"rangle":6608,"Ġsites":6609,"Ġcolon":6610,"Go":6611,"py":6612,"language":6613,"spect":6614,"reference":6615,"Ġcovered":6616,"Ġtests":6617,"&\\":6618,"ependency":6619,"ĠPolice":6620,"NE":6621,"IST":6622,"ker":6623,"84":6624,"ĠCEO":6625,"ĠSpace":6626,"Home":6627,"Ġquery":6628,"Frame":6629,"Ġserving":6630,"ĠBu":6631,"adel":6632,"Ġextended":6633,"Types":6634,"Ġarmy":6635,"Ġagree":6636,"Ġintended":6637,"Ġfixed":6638,"classes":6639,"bi":6640,"ĠFrancisco":6641,"Ġque":6642,"Ġpp":6643,"ĠJoe":6644,"During":6645,"ĠJeff":6646,"Ġowned":6647,"Ġpositions":6648,"imary":6649,"cor":6650,"weet":6651,"mut":6652,"Ġconducted":6653,"Ġcreation":6654,"Ġ;":6655,"apse":6656,"clusive":6657,"Target":6658,"Provider":6659,"Ġstructures":6660,"power":6661,"Ġpartnership":6662,"Ġ[]":6663,"adium":6664,"Ġstudied":6665,"Ġestimated":6666,"ĠSand":6667,"Ġopinion":6668,"ĠMax":6669,"SO":6670,"resents":6671,"opyright":6672,"Ġclaimed":6673,"ĠEgypt":6674,"ĠWay":6675,"Ġchoose":6676,"89":6677,"Ġrecommend":6678,"ART":6679,"ensor":6680,"ĠMichigan":6681,"orship":6682,"Ġgrew":6683,"Case":6684,"uri":6685,"geq":6686,"emy":6687,"Ġut":6688,"sylvania":6689,"Ġcentre":6690,"mond":6691,"phas":6692,"Ġzero":6693,"Our":6694,"ĠIrish":6695,"Ġil":6696,"ĠUk":6697,"float":6698,"Ġrot":6699,"hens":6700,"Ġcells":6701,"Ġwonder":6702,"nergy":6703,"[\\":6704,"Ġpoet":6705,"IB":6706,"ograp":6707,"Ġfine":6708,"ĠAuthor":6709,"81":6710,"ĠJr":6711,".}":6712,"Ġconcert":6713,"iden":6714,"hem":6715,"riz":6716,"ĠElect":6717,"pop":6718,"Ġcustomers":6719,"Ġstraight":6720,"Tree":6721,"vec":6722,"Ġoffset":6723,"ĠDE":6724,"eces":6725,"1981":6726,"root":6727,"Dec":6728,"Ġmuseum":6729,"asure":6730,"gate":6731,"returns":6732,"Ġfloat":6733,"Ġlatter":6734,"ographic":6735,"Ġdepart":6736,"Ġahead":6737,"unit":6738,"Ġinstitution":6739,"ĠFamily":6740,"Ġvolume":6741,"ints":6742,"nesday":6743,"150":6744,"ependence":6745,"Ġnegot":6746,"Ġorigin":6747,"icrosoft":6748,"edu":6749,"Ġdecisions":6750,"********************************":6751,"Sl":6752,"atically":6753,"Ġliterature":6754,"Gl":6755,")]":6756,"kind":6757,"Ġempty":6758,"lishing":6759,"Ġconcent":6760,"ĠAM":6761,"Ġguid":6762,"inois":6763,"CS":6764,"Ġobserved":6765,"83":6766,"ĠJesus":6767,"Ġunless":6768,"Ġvictory":6769,"ĠPalest":6770,"Ġenforce":6771,"sf":6772,"TYPE":6773,"endar":6774,"after":6775,"etch":6776,"agment":6777,"Ġequipment":6778,"Ġblue":6779,"arp":6780,"ĠAndrew":6781,"ĠKh":6782,"ĠNS":6783,"Ġagent":6784,"ĠEnter":6785,"Ġearned":6786,"./":6787,"conf":6788,"Ġdecre":6789,"ja":6790,"Ġcorresponding":6791,"Ã¨":6792,"Ġdedicated":6793,"Ġvehicle":6794,"pes":6795,"ynch":6796,"iples":6797,"Ġproducer":6798,"ĠSir":6799,"bool":6800,"ĠOhio":6801,"ĠBecause":6802,"ĠCross":6803,"varphi":6804,"Ġarm":6805,"ĠOx":6806,"ĠPo":6807,"IGN":6808,"Parameter":6809,"rome":6810,"Dev":6811,"ockey":6812,"life":6813,"heast":6814,"Ġattacks":6815,"Ġsched":6816,"Ġconcerns":6817,"Ġframe":6818,"eting":6819,"Cons":6820,"plete":6821,"Ġcouncil":6822,"Ġdiscovered":6823,"ĠPower":6824,"Ġexchange":6825,"Ġbelief":6826,"tree":6827,"parse":6828,"Ġdefense":6829,"ictionary":6830,"ĠPacific":6831,"Ġsurvey":6832,"iat":6833,"free":6834,"ydro":6835,"ĠSaint":6836,"ĠBow":6837,"ĠOk":6838,"ĠGame":6839,"izont":6840,"ĠGreek":6841,"cles":6842,"Ġcrow":6843,"atever":6844,"Ġ**":6845,"ghan":6846,"mir":6847,"rapper":6848,"rison":6849,"card":6850,"Ġstreet":6851,"ifications":6852,"ĠHospital":6853,"Offset":6854,"icks":6855,"ĠFred":6856,"ĠQueen":6857,"aylor":6858,"Ġriver":6859,"ĠWales":6860,"Width":6861,"template":6862,"Ġdiscussion":6863,"VAL":6864,"XX":6865,"overline":6866,"Ġran":6867,"Ġmagazine":6868,"alysis":6869,"ĠCall":6870,"prototype":6871,"Ġlooks":6872,"afe":6873,"Ġmyself":6874,"ĠInit":6875,"etts":6876,"'.":6877,"imb":6878,";->":6879,"ĠWater":6880,"Ġ::":6881,"Ġwitness":6882,"ocus":6883,"rich":6884,"operation":6885,"frak":6886,"Ġnor":6887,"Ġnorm":6888,"ĠLatin":6889,"andon":6890,"Ġbasketball":6891,"otic":6892,"Ġrelation":6893,"Ġgone":6894,"UB":6895,"Ġshift":6896,"1976":6897,"ĠFile":6898,"1972":6899,"Ã§":6900,"1978":6901,"Ġcomments":6902,"Ġscholar":6903,"iments":6904,"Ã³n":6905,"Ġdescribe":6906,"Ġbottom":6907,"Ġwealth":6908,"Ġaf":6909,"ucky":6910,"osophy":6911,"Search":6912,"Ġfix":6913,":(":6914,".~\\":6915,"Ġupper":6916,"Ġaccepted":6917,"Ġsouthern":6918,"Ġsteps":6919,"Ġvs":6920,"should":6921,"ãĥ":6922,"Ġtradition":6923,"Ġtransaction":6924,"Te":6925,"Ġunknown":6926,"urer":6927,"Ġ\\,":6928,"Ġdraft":6929,"Acc":6930,"Level":6931,"Ġlegisl":6932,"stein":6933,"Local":6934,"prop":6935,"ĠPop":6936,"INE":6937,"Ġphone":6938,"Ġrevealed":6939,"Ġsport":6940,"ĠPennsylvania":6941,"Ġachieve":6942,"ĠGeorgia":6943,"ĠKorea":6944,"control":6945,"Ġdomestic":6946,"ĠIII":6947,"ĠKenn":6948,"illing":6949,"ban":6950,"Ġscored":6951,"Ġsettlement":6952,"ĠNations":6953,"Ġnotes":6954,"Ġcategory":6955,"Ġresponsibility":6956,"Ġtechnical":6957,"Record":6958,"Ġrapid":6959,"osis":6960,"ati":6961,"Ġshop":6962,"DD":6963,"Some":6964,"Ġforest":6965,"ampion":6966,"Ġinfrast":6967,"ĠPlay":6968,"Ġreject":6969,"ĠThus":6970,"Ġpractices":6971,"ĠMu":6972,"izabeth":6973,"artifactId":6974,"skip":6975,"cknow":6976,"1975":6977,"Project":6978,"okes":6979,"ĠCode":6980,"covery":6981,"Ġsample":6982,"note":6983,"iques":6984,"ĠGi":6985,"task":6986,"ĠJersey":6987,"]);":6988,"achus":6989,"ĠArray":6990,"([":6991,"Ġreduced":6992,"Description":6993,"Ġappearance":6994,"Ġenh":6995,"Ġfre":6996,"Ġhonor":6997,"Ġnarr":6998,"Ġswitch":6999,"1968":7000,"Ġvector":7001,"Ġaffected":7002,"Ġmachine":7003,"TI":7004,"pool":7005,"Ġlooked":7006,"istration":7007,"Track":7008,"Ġtrou":7009,"ACK":7010,"lines":7011,"ĠPan":7012,"ĠJac":7013,"Ġslight":7014,"Ġfort":7015,"Mark":7016,"ĠPrime":7017,"Ġvan":7018,"Ġsquare":7019,"Cal":7020,"Ġbul":7021,"Ġtend":7022,"anguages":7023,"Entry":7024,"Control":7025,"Ġsister":7026,"Ġdamage":7027,"}).":7028,"iser":7029,"Ġmatches":7030,"Ġera":7031,"Ġoptim":7032,"Ġresulting":7033,"uls":7034,"ĠAsian":7035,"Ġadvance":7036,"Ġancient":7037,"Entity":7038,"ervative":7039,"rovers":7040,"Ġsuc":7041,"Ġapproved":7042,"border":7043,"Ġimplementation":7044,"ĠInvest":7045,"person":7046,"ĠJackson":7047,"Ġdiagn":7048,"des":7049,"ĠWeek":7050,"Ġnorthern":7051,"These":7052,"ali":7053,"'d":7054,"hline":7055,"eah":7056,"Ġregions":7057,"opher":7058,"Ġminimum":7059,"{{":7060,"ilton":7061,"Fig":7062,"ĠConstitution":7063,"Ġbrain":7064,"drop":7065,"Ġgender":7066,"poss":7067,"Ġvision":7068,"Fe":7069,"Ġhomes":7070,"Ġrepresentation":7071,"Ġminister":7072,"Ġemphas":7073,"ĠStan":7074,"ĠStand":7075,"1974":7076,"Header":7077,"FO":7078,"ĠChristmas":7079,"burgh":7080,"Ġicon":7081,"Ġcook":7082,"ĠTele":7083,"1977":7084,"Script":7085,"Ġfle":7086,"1973":7087,"rant":7088,"Ġseasons":7089,"Ġshowing":7090,"Ġprofession":7091,"Ġresident":7092,"stylesheet":7093,"Ġhappy":7094,"Ġarrived":7095,"Ġutil":7096,"ĠKen":7097,"Ġrecognized":7098,"ĠOR":7099,"ĠExecutive":7100,"ws":7101,"Ġalternative":7102,"'),":7103,"imer":7104,"iable":7105,"Ġrul":7106,"ĠNY":7107,"MM":7108,"Ġrepresents":7109,"ĠAPI":7110,"Ġsubstant":7111,"ĠInternet":7112,"entity":7113,"Ġlinear":7114,"Ġstatements":7115,"Ġapparent":7116,"scape":7117,"DS":7118,"Pat":7119,"ĉĉĉĉĉĉĉ":7120,"May":7121,"Ġframework":7122,"Ġtournament":7123,"%;":7124,"Ġhero":7125,"ĠIllinois":7126,"achusetts":7127,"Ġhour":7128,"Ġpersons":7129,"pdf":7130,"Ġsucceed":7131,"Ġalumni":7132,"Ġadvert":7133,"Ġdog":7134,"Write":7135,"COLOR":7136,"},\\":7137,"oute":7138,"Ġactress":7139,"Ġexperiences":7140,"ĠScotland":7141,"Ġvisual":7142,"ĠEmpire":7143,"Ġpicture":7144,"values":7145,"Ġfit":7146,"Ġtools":7147,"ĠLike":7148,"ĠVan":7149,"Ġmedal":7150,"Ġidentify":7151,"Ġcalling":7152,"ĠTuesday":7153,"Process":7154,"Ġsan":7155,"Ġcouldn":7156,"()->":7157,"isms":7158,"Ġcommunication":7159,"ĠLine":7160,"mazon":7161,"Ġplease":7162,"ĠEastern":7163,"1000":7164,"aval":7165,"Ġhearing":7166,"iger":7167,"Ġlen":7168,"ĠGener":7169,"Location":7170,"ocation":7171,"Ġroles":7172,"ĠThursday":7173,"API":7174,"ĠEp":7175,"izontal":7176,"orders":7177,"Ġcomponents":7178,"ĠSciences":7179,"orrow":7180,"Ġmaybe":7181,"Ġ{}":7182,"iced":7183,"ĠCreate":7184,"ĠCard":7185,"mail":7186,"RL":7187,"Ġfloor":7188,"âĢĺ":7189,"However":7190,"Ġtemperature":7191,"ĠCommon":7192,"ione":7193,"Ġprocesses":7194,"Ġtick":7195,"Ġargs":7196,"Ġfundament":7197,"ingly":7198,"Ġdiss":7199,"ĠMember":7200,"second":7201,"bury":7202,"Container":7203,"SH":7204,"Ġsoldiers":7205,"Ġjudge":7206,"Ġweak":7207,"Ġiter":7208,"Interface":7209,"ĠTrust":7210,"Ġoccurred":7211,"command":7212,"Ġdensity":7213,"Ġindustrial":7214,"ifies":7215,"mathfrak":7216,"Ġreligion":7217,"Ġexamples":7218,"Ġcombined":7219,"awa":7220,"ĠBoth":7221,"uint":7222,"ĠJun":7223,"onav":7224,"before":7225,"1940":7226,"emp":7227,"groupId":7228,"hemat":7229,"Ġgra":7230,"ĠJon":7231,"isc":7232,"Ġbuffer":7233,"ALL":7234,"Ġprove":7235,"tml":7236,"icial":7237,"agraph":7238,"Ġrestaur":7239,"rine":7240,"Ġlargely":7241,"Ġincorpor":7242,"eller":7243,"rawn":7244,"ima":7245,"ĠHor":7246,"Http":7247,"1945":7248,"Ġfigures":7249,"uan":7250,"ĠRam":7251,"Ġordered":7252,"Ġbatt":7253,"Ġuseful":7254,"Ġcars":7255,"Params":7256,"Ġestate":7257,"Ġfacility":7258,"Ġpatient":7259,"appa":7260,"ĠBack":7261,"EM":7262,"Ġdistributed":7263,"ĠDaniel":7264,"onym":7265,"Utils":7266,"Ġinfrastructure":7267,"Ġtrend":7268,"ĠRh":7269,"anche":7270,"Ġfinding":7271,"ctx":7272,"bolds":7273,"direct":7274,"arters":7275,"1930":7276,"boldsymbol":7277,"modal":7278,"Ġlegislation":7279,"phone":7280,"aped":7281,"1971":7282,"Ġchain":7283,"icted":7284,"Ġdomain":7285,"WE":7286,"ĠBrook":7287,"Ġdriver":7288,"auth":7289,"Ġseeing":7290,"athan":7291,"star":7292,"Ġlett":7293,"Ġhab":7294,"Ġessential":7295,"Ġleads":7296,"Ġextension":7297,"ennis":7298,"Ġcer":7299,"Ġsupporting":7300,"cache":7301,"Ġice":7302,"va":7303,"di":7304,"atalog":7305,"Ġactors":7306,"Right":7307,"oster":7308,"Ġdecade":7309,"pub":7310,"Unit":7311,"endment":7312,"HS":7313,"Ġamb":7314,"(-":7315,"1969":7316,"ko":7317,"inson":7318,"ĠColumbia":7319,"Ġhyp":7320,"present":7321,"ĠTheatre":7322,"Ġeyes":7323,"issions":7324,"ĠGra":7325,"ĠWho":7326,"ĠRo":7327,"har":7328,"ensure":7329,"edge":7330,"Ġblog":7331,"phy":7332,"Ġpackage":7333,"ĠMP":7334,"Ġalleged":7335,"Ġpages":7336,":\"":7337,"othing":7338,"ĠFree":7339,"amin":7340,"Inst":7341,"Ġstrict":7342,"Ġrecording":7343,"ĠLem":7344,"Ġexpressed":7345,"ĠWednesday":7346,"AF":7347,"Ġperman":7348,"Ġspot":7349,"Ġentertain":7350,"Ġrich":7351,"dest":7352,"ĠIndust":7353,"Ġstuff":7354,"token":7355,"ĠMinistry":7356,"Dep":7357,"Ġsubs":7358,"ĠChris":7359,"Ġrelatively":7360,"Ġsomew":7361,"Po":7362,"ĠEach":7363,"Will":7364,"aming":7365,"ĠSea":7366,"Ġconfirmed":7367,"Ġpun":7368,"Ġadopted":7369,"Ġhelping":7370,"ureau":7371,"Ġacting":7372,"people":7373,"ĠDou":7374,"illy":7375,"aser":7376,"1967":7377,"aa":7378,"Ġawards":7379,"Ġexplained":7380,"Ġurban":7381,"resource":7382,"Ġ\"\\":7383,"Ġsale":7384,"Ġdrink":7385,"Ġexcell":7386,"ivery":7387,"IZE":7388,"Are":7389,"ugins":7390,"onto":7391,"Ġresearchers":7392,"ĠKong":7393,"Ġinitially":7394,"Ac":7395,"upload":7396,"ĠGovernor":7397,"ĠCoast":7398,"Ġmand":7399,"Ġengineering":7400,"ĠRun":7401,"nce":7402,"INT":7403,"teen":7404,"ĠCheck":7405,"Json":7406,"ĠMid":7407,"Ġregistered":7408,"jection":7409,"Ġdistinct":7410,"ĠEqu":7411,"Net":7412,"pute":7413,"ĠBlue":7414,"Ġagric":7415,"Ġdrama":7416,"Ġanimals":7417,"Ġpromin":7418,"images":7419,"ipped":7420,"ĠViet":7421,"Ġdetail":7422,"even":7423,"ĠLuc":7424,"ruit":7425,"ialize":7426,"Ġprepar":7427,"Height":7428,"ĠReturns":7429,"bootstrap":7430,"ĠAfghan":7431,"ĠGuard":7432,"Ġsufficient":7433,"Ġconcerned":7434,"Ġjourney":7435,"ĠMassachusetts":7436,"Ġmist":7437,"dist":7438,"inating":7439,"Ġwall":7440,"ĠRegister":7441,"=\"../../../../../../":7442,">,":7443,"Ġpanel":7444,"mann":7445,"Pop":7446,"Gu":7447,"Ġuint":7448,"ĠAbout":7449,"Ġconstitution":7450,"Ġchampionship":7451,"ĠDate":7452,"ĠAny":7453,"Ġauthors":7454,"iro":7455,"Lambda":7456,"Ġdoor":7457,"sen":7458,"ĠBern":7459,"rapy":7460,"usal":7461,"Ġcampus":7462,"Non":7463,"Ġmovies":7464,"ĠMaster":7465,"Ġfootballers":7466,"mid":7467,"buffer":7468,"Ġcoal":7469,"RI":7470,"amm":7471,"inton":7472,"km":7473,"Ġcontaining":7474,"adelph":7475,"kin":7476,"Ġmotion":7477,"Ġspring":7478,"None":7479,"ski":7480,"lywood":7481,"ĠCarl":7482,"crete":7483,"Ne":7484,"ython":7485,"Ġmaintain":7486,"chen":7487,"Empty":7488,"initely":7489,"Äģ":7490,"riptor":7491,"Ġfiled":7492,"Ġdatabase":7493,"igrants":7494,"Ġmarkets":7495,"Ġaid":7496,"Range":7497,"ĠEdward":7498,"split":7499,"Ġscheme":7500,"ounsel":7501,"RC":7502,"ĠMike":7503,"ĠKent":7504,"DP":7505,"models":7506,"ĠFar":7507,"ĠCy":7508,"inity":7509,"Ġbeat":7510,"success":7511,"Ġprimarily":7512,".'":7513,"Ġexistence":7514,"DL":7515,"Ġserves":7516,"ĠÎ":7517,"zen":7518,"Ġshares":7519,"ĠLast":7520,"ĠOxford":7521,"Ġchosen":7522,"Ġpeak":7523,"onavirus":7524,"Ġtypically":7525,"Ke":7526,"ĠFour":7527,"Ġtroops":7528,"ĠEnvironment":7529,"Ġcircumstances":7530,"ĠSong":7531,"Ġjur":7532,"Callback":7533,"Ġgreatest":7534,"dat":7535,"white":7536,"Position":7537,"Configuration":7538,"Ġgranted":7539,"Ġecho":7540,"textit":7541,"Ġeducational":7542,"transform":7543,"Ġmanner":7544,"ader":7545,"ceived":7546,"adelphia":7547,"Ġgirls":7548,"Sign":7549,"SL":7550,"Ġcandidates":7551,"ĠBul":7552,"Ġinjury":7553,"Ġast":7554,"Ġdrop":7555,"Ġmask":7556,"bal":7557,"Ġtheme":7558,"Ġtells":7559,")^":7560,"1920":7561,"Ġconsists":7562,"Ġdebate":7563,"writer":7564,"}/":7565,"olec":7566,"itles":7567,"Ġdoctor":7568,"ĠFire":7569,"encing":7570,"ĠEnergy":7571,".âĢĻ":7572,"wer":7573,"ĠRos":7574,"Ġhouses":7575,"ULT":7576,"ographer":7577,"Ġplanned":7578,"Ġprofile":7579,"Ġfighting":7580,"Ġentity":7581,"enant":7582,"normal":7583,"\"))":7584,"ãĤ":7585,"Ġexpansion":7586,"ĠNote":7587,"ĠNight":7588,"ĠRepresent":7589,"Ġcontrast":7590,"ictures":7591,"Ġplot":7592,"ĠAL":7593,"ĠCirc":7594,"255":7595,"device":7596,"empty":7597,"access":7598,"120":7599,"Ev":7600,"Ġmatters":7601,"Posted":7602,"Ġextremely":7603,"Ġrevolution":7604,"Ġemployment":7605,"Module":7606,"Ġseat":7607,"ighter":7608,"Ġinstrument":7609,"graph":7610,"Bo":7611,"Ġ*)":7612,"ensed":7613,"Ġwidely":7614,"ĠRadio":7615,"ĠJews":7616,"Ġonto":7617,"aration":7618,"Ġadvantage":7619,"ĠCON":7620,"ela":7621,"Ġcorporate":7622,"ĠTwitter":7623,"PP":7624,"Connection":7625,"Change":7626,"Ġallowing":7627,"Stat":7628,"ĠChildren":7629,"Down":7630,"Ġremov":7631,"Ġassume":7632,"Ġmainly":7633,"ĠBroad":7634,"ĠToday":7635,"iki":7636,"Ġprotest":7637,"Ġstrength":7638,"ĠHand":7639,"Ġarchitecture":7640,"subset":7641,"Ġbalance":7642,"Ð»":7643,"Ġfeeling":7644,"}),":7645,"Ġfaculty":7646,"ira":7647,"match":7648,"ĠMah":7649,"Ġacts":7650,"CTION":7651,"fs":7652,"ye":7653,"Ġlicense":7654,"Ġelim":7655,"Thread":7656,"BI":7657,"ila":7658,"Ġpowers":7659,"ĠĠĠĠĠĠĠĠĠĠĠĠĠĠĠĠĠĠĠĠĠ":7660,"QL":7661,"ldots":7662,"Ġstorage":7663,"lyn":7664,"dict":7665,"Ġnob":7666,"obe":7667,"ĠColl":7668,"ĠCorporation":7669,"Ġeffic":7670,"aka":7671,".\\":7672,"Ġmyst":7673,"1964":7674,"equal":7675,"allel":7676,"ologist":7677,"Ġacknow":7678,"Ġfan":7679,"Ġarts":7680,"vas":7681,"ĠView":7682,"irds":7683,"widet":7684,"shall":7685,"Ġagencies":7686,"ancer":7687,"overy":7688,"Ġrenew":7689,"vm":7690,"ĠMedicine":7691,"Ġvariable":7692,"Ġabuse":7693,"Ġconstra":7694,"TA":7695,"Ġgain":7696,"lers":7697,"Ġwestern":7698,"Ġpolitician":7699,"Ġchanging":7700,"Ġment":7701,"ĠSports":7702,"Hash":7703,"Ġdebt":7704,"Ġmixed":7705,"Ġfuel":7706,"Ġbegins":7707,"Ġfeat":7708,"Document":7709,"Med":7710,"range":7711,"Ġsignificantly":7712,"Ġrural":7713,"ĠMajor":7714,"amber":7715,"coh":7716,"Ġspecifically":7717,"rical":7718,"DI":7719,"Ġdiscussed":7720,"oir":7721,"icker":7722,"ĠWild":7723,"debug":7724,"Pos":7725,"Ġexperienced":7726,"ĠDC":7727,"ĠAdministration":7728,"ĠElizabeth":7729,"otes":7730,"hash":7731,"Ġdriving":7732,"Ġextent":7733,"Ġlisten":7734,"ulf":7735,"Ġguarant":7736,"Ġhistoric":7737,"Ġvolunte":7738,"ĠBattle":7739,"Ġperspective":7740,"Prot":7741,"Ġwind":7742,"NN":7743,"ificate":7744,"inf":7745,"oles":7746,"ĠPrem":7747,"Ġregulations":7748,"Ġevolution":7749,"\"));":7750,"Ġinfo":7751,"irty":7752,"ĠLew":7753,"msg":7754,"ĠPrince":7755,"enger":7756,"Ġcool":7757,"Ġseemed":7758,"Ġyield":7759,"ĠIns":7760,"Ġcharges":7761,"ĠMcC":7762,"ĠUse":7763,"yo":7764,"example":7765,"Ġdelay":7766,"ĠMap":7767,"%)":7768,"high":7769,"ifer":7770,"Ġresolution":7771,"ses":7772,"ĠDown":7773,"roud":7774,"Ġsum":7775,"fn":7776,"Ġsuggested":7777,"ĠConf":7778,"vin":7779,"ĠDO":7780,"Ġadvanced":7781,"ĠHa":7782,"Ġcontrovers":7783,"ĠFurther":7784,"ĠAND":7785,"Ġbranch":7786,"widetilde":7787,"Ġassign":7788,"Ġspending":7789,"Person":7790,"Ġathlet":7791,"unately":7792,"Ġconfiguration":7793,"ilms":7794,"Ġadding":7795,"Ġshut":7796,"Ġtraffic":7797,"GE":7798,"Ġsettings":7799,"Ġ~":7800,"overty":7801,"Ġprepared":7802,"cat":7803,"Ġdeclared":7804,"Ġtaught":7805,"ĠTem":7806,"anner":7807,"ĠWhy":7808,"Ġintern":7809,"ĠEth":7810,"Ġvictims":7811,"250":7812,"Properties":7813,"Ġprocessing":7814,"uations":7815,"Ġinspired":7816,"ĠTw":7817,"Ġinsurance":7818,"Ġalgorithm":7819,"ĠSom":7820,"Ġdig":7821,"isl":7822,"1965":7823,"Ġfell":7824,"ellect":7825,"Ġvehicles":7826,"Que":7827,"Ġtrip":7828,"Op":7829,"Ġholding":7830,"exec":7831,"Ġassistance":7832,"construct":7833,"ĠTri":7834,"prene":7835,"Ġcomedy":7836,"Ġsac":7837,"Ġclients":7838,"Ġentirely":7839,"Ġdevices":7840,"Me":7841,"Ġreceiving":7842,"cope":7843,"arts":7844,"Ġsoc":7845,"Ġregul":7846,"Ġpadding":7847,"ĠPoint":7848,"ĠEnt":7849,"Ġappeal":7850,"ĠWhe":7851,"Font":7852,"ĠLittle":7853,"ĠWalk":7854,"Ġdoubt":7855,"Ġmonitor":7856,"Ġfresh":7857,"ĠTrue":7858,"Ġloved":7859,"________":7860,"Ġplants":7861,"Ġpromote":7862,"Left":7863,"send":7864,"Ġwish":7865,"Sm":7866,"Ġoverride":7867,"ĠRay":7868,"Ġfilename":7869,"Ġneighborhood":7870,"reprene":7871,"ometry":7872,"ĠForeign":7873,"Ġpoliticians":7874,"Ġcarbon":7875,"ĠGirl":7876,"ova":7877,"Ġspend":7878,"}}$":7879,"nections":7880,"ĉĉĊ":7881,"actor":7882,"ĠTaylor":7883,"ĠOnly":7884,"appe":7885,"cf":7886,"mode":7887,"ingle":7888,"Ġsignal":7889,"sect":7890,"ĠPhys":7891,"ĠPhilipp":7892,"Ġpm":7893,"Ġcoverage":7894,"make":7895,"Ġpenal":7896,"Ġcombination":7897,"ĠBrad":7898,"Ġjav":7899,"xis":7900,"Ġexternal":7901,"Ġflight":7902,"ĠCub":7903,"ĠWis":7904,"Ġdie":7905,"Ġstarts":7906,"ĠMethod":7907,"holder":7908,"ĠAffairs":7909,"enter":7910,"ĠOp":7911,"Ġsupposed":7912,"interface":7913,"rency":7914,"Ġtemplate":7915,"ĠHong":7916,"Ġpartners":7917,"missions":7918,"Ġaccident":7919,"Ġeye":7920,"Mr":7921,"Ġgoods":7922,"Ġclinical":7923,"Ø§":7924,"Ġsplit":7925,"Ġapprec":7926,"stack":7927,"Ġcauses":7928,"bound":7929,"address":7930,"Ġwave":7931,"ĠRequ":7932,"Ġweapons":7933,"iveness":7934,"water":7935,"Option":7936,"jpg":7937,"media":7938,"rig":7939,"Pass":7940,"Ġintelligence":7941,"raine":7942,"600":7943,"Order":7944,"ĠTherefore":7945,"ifest":7946,"Ġpod":7947,"Ġrelationships":7948,"ĠWilson":7949,"Any":7950,"thur":7951,"iner":7952,"Ġassets":7953,"ĠEngineering":7954,"Ġaspects":7955,"Ġimplic":7956,"ective":7957,"=#":7958,"ĠBG":7959,"Ġultimately":7960,"ulpt":7961,"Ġhighlight":7962,"ĠRod":7963,"Ġspons":7964,"Ġpassion":7965,"Ġmobile":7966,"Ġhappens":7967,"Settings":7968,"Ġmassive":7969,"clos":7970,"Ġachieved":7971,"Ġcash":7972,"Ġveter":7973,"WS":7974,"redit":7975,"virt":7976,"Ġteachers":7977,"Operation":7978,"ĠNOT":7979,"Ġuncertain":7980,"iated":7981,"Ġaren":7982,"bas":7983,"ĠSher":7984,"ĠMic":7985,"ĠRom":7986,"Ðº":7987,"Ġattribute":7988,"Ġgenerate":7989,"ulner":7990,"orough":7991,"Ġcontemporary":7992,"NavBar":7993,"Ġincident":7994,"ĠRen":7995,"ruption":7996,"Ġopposition":7997,"Menu":7998,"AND":7999,"hetic":8000,"global":8001,"Ġdifferences":8002,"ĠDesign":8003,"Ġ>=":8004,"del":8005,"ataset":8006,"aver":8007,"roke":8008,"ĠBang":8009,"={":8010,"Ġtoken":8011,"oes":8012,"1966":8013,";\"":8014,"env":8015,"Ġequivalent":8016,"Ġscientists":8017,"Ġformal":8018,"Pub":8019,"Ġbond":8020,"Ġretired":8021,"Vert":8022,"icons":8023,"riate":8024,"ĠRog":8025,"Ġwinner":8026,"Long":8027,"profit":8028,"DIR":8029,"ĠDar":8030,"Ġpool":8031,"Ġparams":8032,"ĠPass":8033,"aug":8034,"cut":8035,"ĠName":8036,"ĠSte":8037,"prise":8038,"Ġoffering":8039,"Phi":8040,"Ġrecip":8041,"Care":8042,"rames":8043,"Here":8044,"Ġinn":8045,"ln":8046,"join":8047,"ĠDonald":8048,"ĠHung":8049,"ĠâĢ¢":8050,"ĠRevolution":8051,"ĠKel":8052,"Ġurg":8053,"OK":8054,"ez":8055,"---":8056,"ĠOfficer":8057,"Ġsun":8058,"Results":8059,"ä¸":8060,"Ġalongside":8061,"Ġgraduate":8062,"leton":8063,"bind":8064,"ĠAction":8065,"obs":8066,"istant":8067,"Ġvirus":8068,"Ġexplicit":8069,"Ġinvoke":8070,"Ġemergency":8071,"Ġvaccine":8072,"Year":8073,"His":8074,"ĠKim":8075,"ĠBBC":8076,"sex":8077,"gers":8078,"Ġpersonnel":8079,"Ġwhatever":8080,"elines":8081,"footer":8082,"Ġnewspaper":8083,"asters":8084,"Ġfill":8085,"lets":8086,"ushed":8087,"ether":8088,"ĠAud":8089,"Ġban":8090,"Integer":8091,"webkit":8092,"Ġwww":8093,"&#":8094,"Use":8095,"Ġmarketing":8096,"Ġcommitment":8097,"scription":8098,"Ġsides":8099,"erry":8100,"Ġdance":8101,"160":8102,"internal":8103,"Ġnetworks":8104,"Ġsuccessfully":8105,"Ġknows":8106,"Ġlayer":8107,"icol":8108,"langle":8109,"ĠBerlin":8110,"Ġacquired":8111,"double":8112,"Ġexport":8113,"=\"_":8114,"stone":8115,"Ġmetal":8116,"ture":8117,"Mult":8118,"================================":8119,"ĠLo":8120,"Ġtracks":8121,"named":8122,"Helper":8123,"})$":8124,"evin":8125,"plom":8126,"sv":8127,"Ġprovision":8128,"About":8129,"Ġorganized":8130,"ĠAmazon":8131,"ugby":8132,"rary":8133,"Ġassociation":8134,"Ġcreative":8135,"Ġherself":8136,"Ġerrors":8137,"tn":8138,"Early":8139,"Ġadjust":8140,"Ġphen":8141,"ĠPhiladelphia":8142,"throp":8143,"Ġtruly":8144,"agues":8145,"urd":8146,"product":8147,"ĠRome":8148,"Ġbomb":8149,"ĠLim":8150,"Sw":8151,"inant":8152,"Ġcrew":8153,"coll":8154,"Ġlies":8155,"National":8156,"Ġannounce":8157,"Ġadvice":8158,"ĠCro":8159,"Ġxml":8160,"ĠTable":8161,"Ġfashion":8162,"Ġfiction":8163,"Ġwouldn":8164,"PECT":8165,"Dom":8166,"ĠDub":8167,"Ġpan":8168,"Ġstress":8169,"Ġven":8170,"Ġpurchase":8171,"Ġvac":8172,"Ġfant":8173,"Ġamaz":8174,"Ġcontributions":8175,"vard":8176,"ĠCur":8177,"??":8178,"Ġwarm":8179,"ĠSym":8180,"ĠAdv":8181,"frame":8182,"World":8183,"Ġgovernments":8184,"Ġworldwide":8185,"Book":8186,"Ġrefuge":8187,"Ġchapter":8188,"ĠFair":8189,"kappa":8190,"odd":8191,"Ġcharged":8192,"delete":8193,"Ġafford":8194,"Ġbridge":8195,"ĠChampionships":8196,"Ġlocations":8197,"ĠIP":8198,"Ġpublication":8199,"Ġtwice":8200,"Ġphysic":8201,"plugin":8202,"romise":8203,"Ġcontained":8204,"Ġwilling":8205,"ĠBell":8206,"bling":8207,"Title":8208,"how":8209,"friend":8210,"ĠVice":8211,"Ġships":8212,"Ġprices":8213,"Ġpieces":8214,"Ġisol":8215,"Ġdiscrim":8216,"spirit":8217,"Async":8218,"Ġcerem":8219,"Ġexplain":8220,"Ġundefined":8221,"Ġincred":8222,"inator":8223,"coin":8224,"mosp":8225,"rizona":8226,"Ġwarn":8227,"ampl":8228,"spe":8229,"Ġorders":8230,"ashed":8231,"Ġconver":8232,"session":8233,"eries":8234,"security":8235,"Ġleaves":8236,"Ġrevenue":8237,"oggle":8238,"ĠCov":8239,"iversary":8240,"Ġarrested":8241,"ĠTal":8242,"ĠSteve":8243,"engine":8244,"pa":8245,"ĠEst":8246,"aws":8247,"rie":8248,"Ġmort":8249,"ĠToronto":8250,"Sk":8251,"ipe":8252,"ipality":8253,"1963":8254,"Impl":8255,"Ġentitled":8256,"Ġpayment":8257,"Ġapart":8258,"Ġequation":8259,"family":8260,"possible":8261,"Ġunable":8262,"Ġearn":8263,"othes":8264,"Ġbodies":8265,"=\"/":8266,"ĠCorn":8267,"otimes":8268,"ĠLabor":8269,"EQ":8270,"ĠCapt":8271,"matrix":8272,"ederation":8273,"ĠEvent":8274,"Gr":8275,"aya":8276,"eper":8277,"Ġassigned":8278,"ups":8279,"taining":8280,"La":8281,"Ġexpanded":8282,"ĠSus":8283,"parameter":8284,"Ġfavorite":8285,"Ġkid":8286,"Ġguard":8287,"click":8288,"ĠPoland":8289,"Collection":8290,"%,":8291,"Ġthread":8292,"ECT":8293,"Ġchemical":8294,"Ġretire":8295,"Ver":8296,"Ġsynt":8297,"vector":8298,"Ġjump":8299,"Vari":8300,"Ġends":8301,"Ġrecognition":8302,"Ġclassical":8303,"Ġprincipal":8304,"Author":8305,"Ġcomfort":8306,"Ġaccord":8307,"ĠMA":8308,"ĠCorps":8309,"Ġhelps":8310,"Ġenable":8311,"Found":8312,"Ġassistant":8313,"ĠFox":8314,"ensuremath":8315,"Click":8316,"ĠOlympic":8317,"Ġaccompl":8318,"Second":8319,"Ġrough":8320,"organ":8321,"Session":8322,"Ġvent":8323,"connect":8324,"ĠReal":8325,"ĠDutch":8326,"800":8327,"ĠĠĠĠĠĠĠĠĠĠĠĠĠĠĠĠĠĠĠĠ":8328,"annels":8329,"General":8330,"SU":8331,"ĠJean":8332,"(:":8333,"Dir":8334,"patch":8335,"Ġphoto":8336,"igenous":8337,"GET":8338,"ĠPen":8339,"Ġcamera":8340,"ĠMath":8341,"Ġretail":8342,"ĠCre":8343,"Ġexercise":8344,"aine":8345,"ĠIslamic":8346,"1944":8347,"Ġtwenty":8348,"Â°":8349,"ocratic":8350,"ĠLO":8351,"Ġhash":8352,"oses":8353,"PH":8354,"docs":8355,"Ġ['":8356,"icide":8357,"Ġintent":8358,"ĠKey":8359,"Ġyounger":8360,"Ġhundreds":8361,"ĠPrize":8362,"Ġlanguages":8363,"Ġbringing":8364,"scious":8365,"ĠHou":8366,"ito":8367,"Ġenforcement":8368,"Ġfinish":8369,"ads":8370,"iciency":8371,"inates":8372,"Ġcomplic":8373,"Ġupdated":8374,"dot":8375,"Ġfundamental":8376,"Ġthank":8377,"merce":8378,"Serial":8379,"cr":8380,"CI":8381,"ĠDavis":8382,"ĠHistoric":8383,"Core":8384,"ĠNaz":8385,"ordan":8386,"Vector":8387,"Application":8388,"Before":8389,"system":8390,",-":8391,"Ġrent":8392,"'],":8393,"\\[":8394,"ĠAR":8395,"Sym":8396,"Reference":8397,"Parameters":8398,"Ġsurrounding":8399,"Ġcontribution":8400,"Ġyourself":8401,"Ġvocals":8402,"Each":8403,"Ġmarked":8404,"ensional":8405,"ĠLight":8406,"ennes":8407,"achelor":8408,"Ġsuffered":8409,"1962":8410,"Ġterritory":8411,"ITY":8412,"ĠAssert":8413,"ĠAnother":8414,"Ġce":8415,"types":8416,"&&":8417,"owa":8418,"ERROR":8419,"Ġtreated":8420,"ĠThree":8421,"():":8422,"udden":8423,"gs":8424,"ĠBol":8425,"ĠStory":8426,"ĠRon":8427,"dates":8428,"empl":8429,"Ġseeking":8430,"ego":8431,"onia":8432,"Why":8433,".$":8434,"SET":8435,"Ġdegrees":8436,"full":8437,"ĠHy":8438,"cert":8439,"Store":8440,"Ġdrugs":8441,"ĠUnivers":8442,"Ġduty":8443,"Ġcourts":8444,"owed":8445,"Ġdetailed":8446,"'>":8447,"ĠIsraeli":8448,"ideos":8449,"AME":8450,"Ġpra":8451,"Iter":8452,"oded":8453,"Ġanimal":8454,"comes":8455,"Ġrepresenting":8456,"Ġarbit":8457,"idae":8458,"Ġrac":8459,"ĠOtt":8460,"Ġcart":8461,"olis":8462,"ello":8463,"virtual":8464,"called":8465,"ĠPu":8466,"Ġrepeated":8467,"ORM":8468,"fony":8469,"nabla":8470,"Ġregime":8471,"Ġdefeated":8472,"ydney":8473,"Draw":8474,"store":8475,"Ġfifth":8476,"Ġreviews":8477,"ĠSupport":8478,"Tool":8479,"Ġguy":8480,"ĠLi":8481,"DC":8482,"ricts":8483,"Ġmotor":8484,"Ġsuggests":8485,"PT":8486,"Ġburn":8487,"Ã±":8488,"Ġremark":8489,"holders":8490,"iÄ":8491,"aret":8492,"ĠBeach":8493,"English":8494,"apes":8495,"shot":8496,"ntario":8497,"ĠVill":8498,"Ġbehavi":8499,"ĠStephen":8500,"Members":8501,"Ġdownload":8502,"Ġpit":8503,"Ġslightly":8504,"widget":8505,"Ġpal":8506,"Ġspin":8507,"Ġlov":8508,"\\|":8509,"ĠPerson":8510,"uous":8511,"Ġbaseball":8512,"ĠBush":8513,"Ġaccounts":8514,"contin":8515,"Ġemployee":8516,"export":8517,"ĠBGCOLOR":8518,"ĠTro":8519,"Red":8520,"Ġdollars":8521,"cp":8522,"ĠArticle":8523,"IE":8524,"ĠPortug":8525,"ATA":8526,"estamp":8527,"ĠThrough":8528,"âĢĻ,":8529,"Schema":8530,"ĠMinnes":8531,"ĠLy":8532,"ipeline":8533,"Ġgar":8534,"Public":8535,"ĠCat":8536,"agger":8537,"ĠAsh":8538,"Host":8539,"Dav":8540,"perial":8541,"citep":8542,"hover":8543,"ponents":8544,"Ġexperts":8545,"ĠStock":8546,"andra":8547,"ĠColorado":8548,"!!":8549,"Ġspaces":8550,"âĢ¦âĢ¦":8551,"ilation":8552,"Ġ})":8553,"Ġnations":8554,"ĠCA":8555,"Ġsought":8556,"iy":8557,"Ġvisible":8558,"Ġparse":8559,"ĠPers":8560,"Ġcommunic":8561,"ĠException":8562,"Ġparticipants":8563,"Ġconstructed":8564,"quir":8565,"Note":8566,"Dem":8567,"rehens":8568,"dependency":8569,"Ġpassing":8570,"Ġcontainer":8571,"Ġadministrative":8572,"wing":8573,"Ġnewly":8574,"Ġspoke":8575,"ĠBiden":8576,"Ġrecall":8577,"rait":8578,"clear":8579,"Ġadj":8580,"yers":8581,"Ġrailway":8582,"Ġincreasingly":8583,"home":8584,"Ġprogramme":8585,"ĠPsych":8586,"Names":8587,"Ġclubs":8588,"ĠFinal":8589,"pet":8590,"Ġcorner":8591,"Ġweather":8592,"aska":8593,"ĠFre":8594,"toString":8595,"ĠMinnesota":8596,"Ġdivided":8597,"kes":8598,"ras":8599,"uby":8600,"tim":8601,"Ġbanks":8602,"Ġrom":8603,"Ġsoci":8604,"Ġgraduated":8605,"Ġhidden":8606,"Di":8607,"Ġstanding":8608,"Ġheav":8609,"Ġprinciples":8610,"Ptr":8611,"keys":8612,"ĠAlexander":8613,"ellectual":8614,"agan":8615,"ATH":8616,"Then":8617,"MD":8618,"###":8619,"night":8620,"mbox":8621,"Ġfounder":8622,"Template":8623,"ĠPalestin":8624,"ĠCambridge":8625,"uct":8626,"Ġphotograph":8627,"ĠEN":8628,"ĠAvenue":8629,"Ġowners":8630,"Ġsecure":8631,"sort":8632,"Ġepisodes":8633,"Ġprovisions":8634,"grade":8635,"Ġplanet":8636,"Rect":8637,"reshold":8638,"Ġvulner":8639,"rase":8640,"Ġmessages":8641,"Ġreporting":8642,"aints":8643,"Ġcloud":8644,"foo":8645,"Aust":8646,"ĠBooks":8647,"Ġlay":8648,"apped":8649,"Ġestablishments":8650,"ĠVictoria":8651,"Ġconsistent":8652,"Ġbass":8653,"ĠProvince":8654,"Ġsolo":8655,"%.":8656,"component":8657,"Ġcompens":8658,"ĠDespite":8659,"ĠImp":8660,"centering":8661,"-->":8662,"oured":8663,"Ġfacts":8664,"Ġtechnologies":8665,"ĠAccess":8666,"ĠWel":8667,"Ġflood":8668,"ĠSche":8669,"Main":8670,"Ġoperated":8671,"Ġdocumentary":8672,"Ġposted":8673,"ĠAgain":8674,"Ġdelete":8675,"Notes":8676,"Ġversions":8677,"ĠUser":8678,"Ġpossibly":8679,"1942":8680,"aria":8681,"Ġvotes":8682,"ivation":8683,"mo":8684,"je":8685,"Ġcycle":8686,"Ġbed":8687,"Ġjuris":8688,"plex":8689,"Ġclosely":8690,"idi":8691,"Ġindeed":8692,"FT":8693,"Ġclassic":8694,"Ġarrang":8695,"itarian":8696,"ORD":8697,"ĠCommunic":8698,"pton":8699,"ĠApple":8700,"Ġextensive":8701,"cohol":8702,"Ġdestroyed":8703,"ACE":8704,"dots":8705,"Ġinstalled":8706,"cloud":8707,"ĠModel":8708,"Ġongoing":8709,"Ġsquad":8710,"Ġinvolving":8711,"Although":8712,"Ġflex":8713,"email":8714,"1961":8715,"Ġformation":8716,"Ġuniform":8717,"Ġfinds":8718,"Ġnodes":8719,"Ġdistingu":8720,"Ġthanks":8721,"custom":8722,"Ġgather":8723,"fil":8724,"Ġsupports":8725,"Ġperforming":8726,"ĠBon":8727,"Pres":8728,"leted":8729,"Ġscheduled":8730,"ĠAirport":8731,"Debug":8732,"Ġpossibility":8733,"Ġcollaboration":8734,"GO":8735,"padding":8736,"Ġtechniques":8737,"ĠRight":8738,"ĠControl":8739,"ouri":8740,"$(":8741,"isted":8742,"xx":8743,"ogy":8744,"annotation":8745,"Ġportion":8746,"master":8747,"Expression":8748,"Ġdiverse":8749,"itals":8750,"ipping":8751,"ĠWars":8752,"Ġcollected":8753,"Ġabsolute":8754,"irms":8755,"1941":8756,"Ġdeleg":8757,"Tests":8758,"equals":8759,"ci":8760,"utely":8761,"Ġexpos":8762,"appro":8763,"AGE":8764,"Ġoccasion":8765,"Ġperformances":8766,"Ġmillions":8767,"Ġcomposed":8768,"URE":8769,"Ġefficient":8770,"ĠÂ»":8771,"sky":8772,"MENT":8773,"Ġengaged":8774,"Ġcrowd":8775,"Ġconversation":8776,"ĠCommand":8777,".;":8778,"ĠEll":8779,"âĢ¢":8780,"Ġabandon":8781,"ĠScottish":8782,"Ġimproved":8783,"coq":8784,"Ġly":8785,"ĠMir":8786,"Ġtopic":8787,"ĠTurkey":8788,"ĠAk":8789,"umes":8790,"essions":8791,"sor":8792,"ĠUr":8793,"?:":8794,"Ġarms":8795,"ĠMarg":8796,"ĠLive":8797,"anna":8798,"ĠHollywood":8799,"Ġnearby":8800,"Ġprominent":8801,"ais":8802,"acle":8803,"Ġstorm":8804,"ĠLie":8805,"110":8806,"Ġfish":8807,"ĠSanta":8808,"erves":8809,"vol":8810,"Ġpoly":8811,"Ġadults":8812,"Ġresulted":8813,"apore":8814,"Ġsmart":8815,"ĠWin":8816,"Ġcas":8817,"ships":8818,"Ġspeaking":8819,"uing":8820,"step":8821,"ownt":8822,"yal":8823,"aus":8824,"formance":8825,"istent":8826,"ĠUt":8827,"Ġapplicable":8828,"Parent":8829,"Ġbrings":8830,"Ġtrees":8831,"worth":8832,"plugins":8833,"Parser":8834,"ĠHu":8835,"ĠFood":8836,"Ġfeaturing":8837,"Ġdialog":8838,"Ġadvis":8839,"Ġconsumer":8840,"Ġletters":8841,"Ġshock":8842,"Ġseconds":8843,"een":8844,"ĠArizona":8845,"ĠFI":8846,"Ġtitles":8847,"Ġexplan":8848,"Ġpresidential":8849,"Jan":8850,"Ġreader":8851,"Ġdelivered":8852,"fol":8853,"screen":8854,"Show":8855,"iration":8856,"olid":8857,"herit":8858,"stop":8859,"amil":8860,"ĠCountry":8861,"settings":8862,"ĠNon":8863,"nap":8864,"Ġproud":8865,"ĠHun":8866,"ĠLocal":8867,"ĠAgency":8868,"Ġlosing":8869,"1939":8870,"ji":8871,"ĠStaff":8872,"Ġfrequently":8873,"Ġalloc":8874,"Ġunf":8875,"consin":8876,"Ġelig":8877,"quarters":8878,"Ġhotel":8879,"chestra":8880,"Ġattorney":8881,"Ġprotocol":8882,"Ġshooting":8883,"bro":8884,"ials":8885,"Ġrh":8886,"ading":8887,"una":8888,"Ġvariables":8889,"replace":8890,"uther":8891,"Ġprovince":8892,"ĠBefore":8893,"enum":8894,"Ġguide":8895,"cup":8896,"alo":8897,"Ġloan":8898,"Ġneut":8899,"ĠNC":8900,"disabled":8901,"ĠAge":8902,"copy":8903,"ĠKansas":8904,"Ġturns":8905,"Ġpoverty":8906,"Classes":8907,"mic":8908,"req":8909,"Ġweekend":8910,"----------------------------------------------------------------":8911,"pson":8912,"Ġcorre":8913,"Ġvice":8914,"ĠBelg":8915,"Icon":8916,"Ġfactory":8917,"lik":8918,"Ñĥ":8919,"Ġadvent":8920,"Ġtrained":8921,"ĠGree":8922,"ĠBra":8923,"Has":8924,"Ġcensus":8925,"Ġglass":8926,"Ġreturning":8927,"Ġattempts":8928,"Ġsleep":8929,"ĠNO":8930,"Ġteen":8931,"Ġcolle":8932,"stat":8933,"idget":8934,"uma":8935,"Ġkeeping":8936,"world":8937,"1948":8938,"ĠPage":8939,"ĠStation":8940,"Ġassault":8941,"awn":8942,"ĠMemorial":8943,"Ġheader":8944,"ortion":8945,"Ġwinter":8946,"ï¿":8947,"Ġstrategic":8948,"Gen":8949,"Ġcomparison":8950,"ĠCH":8951,"Ġlie":8952,"False":8953,"andy":8954,"prime":8955,"Ġsole":8956,"STR":8957,"ĠLewis":8958,"Ġrepresentative":8959,"Ġwatching":8960,"Ġexhibition":8961,"Decl":8962,"Ġvisited":8963,"ĠGreg":8964,"fly":8965,"bul":8966,"ĠEconomic":8967,"Ġsecondary":8968,"fields":8969,"urches":8970,"outs":8971,"Ġprinciple":8972,"Ġpermanent":8973,"uality":8974,"unny":8975,"icking":8976,"Ġcustomer":8977,"âĢĻ.":8978,"oder":8979,"children":8980,"ĠTO":8981,"Ġtrib":8982,"spring":8983,"handle":8984,"Ġsegment":8985,"Ġkilling":8986,"ctrine":8987,"othe":8988,"material":8989,"Ġparticipate":8990,"Ġstruggle":8991,"regon":8992,"admin":8993,"Ġhaven":8994,"Ġrisks":8995,"Many":8996,"ĠAtlantic":8997,"Section":8998,"atern":8999,"ĠAli":9000,"Ġprobability":9001,"ĠLear":9002,"Ġsolar":9003,"alid":9004,"Encod":9005,"ĠLady":9006,"akh":9007,"names":9008,"Ġlose":9009,"Ġstands":9010,"gence":9011,"Ġcaptured":9012,"Ġdiscover":9013,"ĠEXPECT":9014,"ĠHamilton":9015,"Body":9016,">();":9017,"Ġending":9018,"ĠAfghanistan":9019,"Ġdismiss":9020,"ĠFellow":9021,"aste":9022,"Ġ('":9023,"SION":9024,"isa":9025,"ĠPrinc":9026,"Ġapproval":9027,"ĠSydney":9028,"tical":9029,"Ġdefinitely":9030,"rule":9031,"ears":9032,"ibilities":9033,"ressive":9034,"ï¿½":9035,"herlands":9036,"Ġwaves":9037,"Ġsubsequently":9038,"Step":9039,"1943":9040,"blockList":9041,"Ġreasonable":9042,"Ġdepth":9043,"BR":9044,"super":9045,"anes":9046,"Ġwaiting":9047,"Just":9048,"Ġcrick":9049,"mad":9050,"Ġpure":9051,"ĠWindow":9052,"ĠModern":9053,"fortunately":9054,"ĠBrother":9055,"Ġprofit":9056,"obuf":9057,"ĠHoly":9058,"Brit":9059,"putation":9060,"MC":9061,"Ġincreases":9062,"ĠOntario":9063,"she":9064,"Ġaccused":9065,"Ġheat":9066,"Ġdirectory":9067,"ussian":9068,"ĠHay":9069,"elease":9070,"Ġhumans":9071,"ĠVietnam":9072,"Ġproved":9073,"Definition":9074,"Ġsubsequent":9075,"Ġdiplom":9076,"ĠIslands":9077,"ĠKorean":9078,"front":9079,"1956":9080,"ĠSon":9081,"Ġdropped":9082,"ĠWrit":9083,"edding":9084,"Ġplane":9085,"Ġplus":9086,"Ġsculpt":9087,"Ġexceed":9088,"bu":9089,"1959":9090,"ĠSaf":9091,"Ġvast":9092,"LS":9093,"Ġstatistics":9094,"Ġprohib":9095,"1958":9096,"uable":9097,"Ġsummary":9098,"Ġgained":9099,"Ġsympt":9100,"Ġfaced":9101,"Ġodd":9102,"Ġdict":9103,"Values":9104,"Ġagents":9105,"/\\":9106,"Ġsingles":9107,"Ġbelieves":9108,"exports":9109,"Further":9110,"ribed":9111,"Ġundert":9112,"bel":9113,"Ġcourses":9114,"Ġconsidering":9115,"Ġfasc":9116,"Two":9117,"1918":9118,"Ġdelivery":9119,"framework":9120,"wa":9121,"Nov":9122,"Ġoppos":9123,"}-":9124,"Ġparliament":9125,"thony":9126,"igious":9127,"Ġassessment":9128,"Ġmanage":9129,"gebra":9130,"__(":9131,"Sigma":9132,"Ġofficially":9133,"Åį":9134,"Ġeffectively":9135,"Ġsharing":9136,"ĠMiller":9137,"emet":9138,"osa":9139,"ĠInf":9140,"Ġfilled":9141,"Ġintegr":9142,"Ġfamiliar":9143,"ĠExt":9144,"ĠBad":9145,"Ġec":9146,"Ġmoral":9147,"panel":9148,"ĠInstead":9149,"Ġbought":9150,"ĠRose":9151,"Invalid":9152,"DR":9153,"Ġeastern":9154,"Br":9155,"short":9156,"Device":9157,"Ġdescribes":9158,"yes":9159,"Ġillegal":9160,"Ġhydro":9161,"Ġcry":9162,"Ġnarrow":9163,"ĠBru":9164,"install":9165,"ĠHard":9166,"ĠTok":9167,"Ġphenomen":9168,"Ġreaction":9169,"Ġatmosp":9170,"Ġsurg":9171,"\\%":9172,"Ġamazing":9173,"Ġfoundation":9174,"DT":9175,"Ġevening":9176,"ĠWat":9177,"ĠGolden":9178,"LC":9179,"Ġflat":9180,"Ġrequests":9181,"Ġinner":9182,"{}":9183,"{-":9184,"Handle":9185,"?\"":9186,"Ġcaught":9187,"bec":9188,"ernel":9189,"Ġasking":9190,"Ġderived":9191,"assets":9192,"Ġtransferred":9193,"Reader":9194,"Ġlect":9195,"Ġbroken":9196,"ami":9197,"bad":9198,"ingham":9199,"Ġcomprehens":9200,"eman":9201,"blog":9202,"Ġoccurs":9203,"Ġexplore":9204,"Ġboundary":9205,"\\]":9206,"including":9207,"Ġelev":9208,"Ġprocedure":9209,"Ã£":9210,"Ġextract":9211,"Ġprime":9212,"Ġimplemented":9213,"eld":9214,"Ġforth":9215,"game":9216,"ĠHTML":9217,"ourse":9218,"Ġelectronic":9219,";<":9220,"ĠDeb":9221,"Ġratio":9222,"Ġremote":9223,"Ġopposed":9224,"Ġstopped":9225,"Ġescape":9226,"Tags":9227,"Ġconfirm":9228,"Ġconsole":9229,"Ġsections":9230,"Doc":9231,"ĠExper":9232,"Const":9233,"ĠText":9234,"Custom":9235,"Ġdecide":9236,"Ġmedicine":9237,"Ġquantum":9238,"ĠBa":9239,"Ġpreced":9240,"Ġdangerous":9241,"ĠMill":9242,"Copy":9243,"ĠĠĠĠĠĠĠĠĠĠĠĠĠĠĠĠĠĠĠĠĠĠĠĠĠĠĠĠĠĠĠĠĠĠĠĠĠĠĠ":9244,"Ġsevere":9245,"equiv":9246,"Cor":9247,"Ġmock":9248,"Ġresc":9249,"Ġcapture":9250,"Ġrecovery":9251,"Enabled":9252,"Ġos":9253,"ĠHom":9254,"application":9255,"ĠSem":9256,"ĠBand":9257,"aph":9258,"Ġcache":9259,"recated":9260,"cow":9261,"enda":9262,"ĠBudd":9263,"stood":9264,"Ġdirectors":9265,"itionally":9266,"ynchron":9267,"ĠRest":9268,"1957":9269,")-":9270,"Ġhyper":9271,"ogether":9272,"Ġproposal":9273,"ĠHouston":9274,"Ġchampion":9275,"Ġdiscipl":9276,"Ġemployed":9277,"Ġguys":9278,"bles":9279,"Ġpainting":9280,"Only":9281,"Ġhabit":9282,"Ġsoul":9283,"WA":9284,"Ġyards":9285,"Ġmedium":9286,"=\"\">":9287,"Ġputting":9288,"Ġdemocracy":9289,"END":9290,"wrap":9291,"ĠAh":9292,"Most":9293,"Ġlinked":9294,"register":9295,"Ġinternet":9296,"Ġdiversity":9297,"arry":9298,"Ġblocks":9299,"Ġstrike":9300,"ĠSat":9301,"Ġcommonly":9302,"Ġentr":9303,"antry":9304,"ĠCapital":9305,"Dialog":9306,"aron":9307,"ĠFord":9308,"ĠDemocrats":9309,"Ġrefused":9310,"igin":9311,"Ġwallet":9312,"ĠDam":9313,"Christ":9314,"Ġprev":9315,"Ġconfidence":9316,"imp":9317,"Å¡":9318,"United":9319,"ĠOnce":9320,">.":9321,"}\"":9322,"aded":9323,"ango":9324,"Render":9325,"Ġsilver":9326,"Ġvoting":9327,"cover":9328,"Ġjoining":9329,"Ġdrawn":9330,"coln":9331,"Ġethnic":9332,"ĠJSON":9333,"engers":9334,"aga":9335,"Dist":9336,"Ġexcellent":9337,"JECT":9338,"Ġsudden":9339,"Ġnamespace":9340,"ĠVen":9341,"Ġmusicians":9342,"Ġguess":9343,"ĠLater":9344,"Ljava":9345,"ogen":9346,"Ġreduction":9347,"tabular":9348,"ĠLink":9349,"Ġimmediate":9350,"cuss":9351,"dem":9352,"Ġstreets":9353,"Ġcoronavirus":9354,"Ġvoters":9355,"ĠTurk":9356,"}}{":9357,"Ġproport":9358,"ĠAnton":9359,"Ġinsert":9360,"ĠDuke":9361,"aked":9362,"Ġscenes":9363,"iffer":9364,"ĠGallery":9365,";\\":9366,"arc":9367,"ĠMilitary":9368,"ĠFac":9369,"1946":9370,"1947":9371,"Ġbehalf":9372,"Ġmeetings":9373,"olver":9374,"ĠArgent":9375,"CP":9376,"rell":9377,"Ġmach":9378,"Ġlegend":9379,"ĠMult":9380,"Jo":9381,"Policy":9382,"ĠConnect":9383,"Ġfacing":9384,"GS":9385,"Ġstack":9386,"ĠWisconsin":9387,"Ġzone":9388,"Ġ(âĢľ":9389,"Ġoffices":9390,"Ġvary":9391,"Ġped":9392,"RS":9393,"Ġexclud":9394,"ĠHarry":9395,"uties":9396,"ĠSign":9397,"Ġuniversities":9398,"Ġcombat":9399,"gov":9400,"olitan":9401,"comment":9402,"Ġcontributed":9403,":#":9404,"Ġentreprene":9405,"Ġprof":9406,"help":9407,"Num":9408,"Assert":9409,"ĠSant":9410,"MT":9411,"Ġhall":9412,"Ġstrongly":9413,"Ġsyn":9414,"Ġsemi":9415,"Rule":9416,"Ġprovider":9417,"Ġcontrolled":9418,"VD":9419,"Stack":9420,"atar":9421,"ĠIO":9422,"Metadata":9423,"aks":9424,"Rad":9425,"101":9426,"ĠUkraine":9427,"Ġeasier":9428,"ĠArm":9429,"Ġpurchased":9430,"Ġlawyer":9431,"MI":9432,"ĠArea":9433,"Ġoperate":9434,"faces":9435,"emetery":9436,"Ġfestival":9437,"Ġvess":9438,"Ġimpossible":9439,"hard":9440,"jar":9441,"1955":9442,"PRE":9443,"ĠKir":9444,"ĠMoh":9445,"Ġtypical":9446,"Ġselling":9447,"ĠBal":9448,"Ġcovers":9449,"ARY":9450,"ĠAdam":9451,"cerning":9452,"Ġreaders":9453,"hol":9454,"ĠSenior":9455,"=\"\"":9456,"Ġpercentage":9457,"Ġstone":9458,"ĠCase":9459,"Ä±":9460,"ĠNFL":9461,"ĠMaryland":9462,"omorph":9463,"Ġmir":9464,"Ġfee":9465,"Ġargued":9466,"uple":9467,"Under":9468,"Ġcold":9469,"ĠĠĠĠĠĠĊ":9470,"ĠLev":9471,"Tra":9472,"ĠValue":9473,"deg":9474,"aza":9475,"ĠCollection":9476,"Ġmel":9477,"Ġgovernor":9478,"(*":9479,"ori":9480,"Ġinvestors":9481,"ĠBC":9482,"Ġconnections":9483,"Ġtasks":9484,"udes":9485,"ĠÂ§":9486,"olars":9487,"Ġring":9488,"Ġsignature":9489,"Ġnecessarily":9490,"Ġpublisher":9491,"Ġrelief":9492,"arity":9493,"ICE":9494,"EXT":9495,"Ġenjoyed":9496,"Root":9497,"ĠFinancial":9498,"pay":9499,"Media":9500,"Ġmanufacturing":9501,"Ġrestrictions":9502,"news":9503,"ĠCharl":9504,"ĠForest":9505,"Ġjson":9506,"Ġtrigger":9507,"Ġdepends":9508,"low":9509,"ĠBridge":9510,"/.":9511,"ĠSyria":9512,"duced":9513,"ĠNetherlands":9514,"erg":9515,"ĠCost":9516,"ĠĠĠĠĠĠĠĠĠĠĠĠĠĠĠĠĠĠ":9517,"Previous":9518,"Ġworst":9519,"ĠFigure":9520,"Tim":9521,"Ġcopies":9522,"Ġalter":9523,"ois":9524,"`.":9525,"Ġcab":9526,"Ġdesire":9527,"Ġconsequences":9528,"orne":9529,"Package":9530,"ĠSpec":9531,"ĠTH":9532,"Bi":9533,"Ġfrequency":9534,"ĠDefense":9535,"ĠGuide":9536,"Ġindependence":9537,"Ġopposite":9538,"Ġsevent":9539,"Ġworse":9540,"audi":9541,"Ġfinite":9542,"ĠWhere":9543,"unct":9544,"Ġjournalist":9545,"Ġteach":9546,"Ġvictim":9547,"Ġorient":9548,"ĠLtd":9549,"Ġfacilit":9550,"ĠStart":9551,"ĠTai":9552,"ĠRegion":9553,"leges":9554,"ĠBall":9555,"ĠKnow":9556,"ĠMatt":9557,"raction":9558,"profile":9559,"1954":9560,"ĠDisney":9561,"irth":9562,"Ġfeels":9563,"Ġprogramming":9564,"ĠAst":9565,"Ġphilosophy":9566,"making":9567,"archy":9568,"Ġhosted":9569,"ĠFC":9570,"University":9571,"lan":9572,"category":9573,"Ġhealthcare":9574,"ennessee":9575,"Ġapproaches":9576,"ĠThose":9577,"ĠSuch":9578,"Ð°Ð":9579,"ĠPolish":9580,"rot":9581,"letter":9582,"Ġmountain":9583,"Ġhair":9584,"Ġestimate":9585,"callback":9586,"Ġsamples":9587,"ĠTurn":9588,"watch":9589,"Ġwrites":9590,"Ġmolec":9591,"Ġpilot":9592,"Ġaudio":9593,"\\\"":9594,"Ġtalks":9595,"ĠOregon":9596,"insert":9597,"Ġlimits":9598,"Ġvideos":9599,"Ġbroke":9600,"acts":9601,"ivals":9602,"Ġgal":9603,"king":9604,"1952":9605,"auto":9606,"1949":9607,"lyph":9608,"Ġideal":9609,"ĠMagazine":9610,"grid":9611,"_;":9612,"Ġwat":9613,"zech":9614,"rior":9615,"Ġbyte":9616,"Ġchair":9617,"Support":9618,"eli":9619,"Args":9620,"wait":9621,"Ġaccommod":9622,"ĠCru":9623,"256":9624,"margin":9625,"ĠTransport":9626,"Writer":9627,"Ġcrimes":9628,"season":9629,"rog":9630,"HL":9631,"Ġ),":9632,"Ġcluster":9633,"Ġmob":9634,"bourne":9635,"ĠTy":9636,"ĠEric":9637,"ĠSO":9638,"unes":9639,"byte":9640,"ĠTheorem":9641,"Ġsentence":9642,"Ġhonest":9643,"Xml":9644,"Ġenemy":9645,"Mock":9646,"bell":9647,"ĠOcean":9648,"Ġcloser":9649,"ĠCulture":9650,"Ġemotional":9651,"Ġstores":9652,"ĠIT":9653,"Ġschedule":9654,"Ġvo":9655,"ĠJordan":9656,"Career":9657,"sql":9658,"Ġboost":9659,"ĠEs":9660,"Ġfavour":9661,"Ġnice":9662,"iations":9663,"Ġtelling":9664,"Ġfranch":9665,"Ġkeys":9666,"Ġvon":9667,"tenance":9668,"Ġappearances":9669,"Argument":9670,"Ġsigns":9671,"Ġcapable":9672,"tection":9673,"Ġintroduction":9674,"ĠSab":9675,"Display":9676,"ĠSingapore":9677,"Ġsounds":9678,"ĠLiter":9679,")\"":9680,"Ġoblig":9681,"AAAAAAAA":9682,"Ġpractical":9683,"ĠComput":9684,"Kind":9685,"Ġindicate":9686,"ERS":9687,"Every":9688,"Ġcycl":9689,"Ġdeploy":9690,"130":9691,"}]":9692,"Ġconven":9693,"SSERT":9694,"Ġprompt":9695,"ĠIndex":9696,"Ġbrothers":9697,"Ġri":9698,"Ġwa":9699,"Ġadmin":9700,"ĠDigital":9701,"}+":9702,"Ġparticipation":9703,"angers":9704,"Ġdefeat":9705,"Ġjavax":9706,"Another":9707,"abama":9708,"Delete":9709,"ulating":9710,"Ġforg":9711,"Activity":9712,"Ġqualified":9713,"iami":9714,"ĠCreek":9715,"ĠIl":9716,"Ġarmed":9717,"roit":9718,"achment":9719,"Ġcontest":9720,"ĠAS":9721,"Ġinnovation":9722,"estion":9723,"ĠNative":9724,"ibli":9725,"isition":9726,"Ġsoft":9727,"Ġacceler":9728,"Ġliqu":9729,"Ġcontinuing":9730,"1953":9731,"Ġtor":9732,"Ġpromoted":9733,"nonumber":9734,"Background":9735,"Ġbatter":9736,"Ġ&=":9737,"utenant":9738,"Ġ++":9739,"ĠNAS":9740,"Ġmodified":9741,"ĠNick":9742,"Ġbutton":9743,"ynamic":9744,"ailing":9745,"Ġvisitors":9746,"Ã¡n":9747,"ĠNumber":9748,"Ġunsigned":9749,"ocity":9750,"Ġgap":9751,"ĠHo":9752,"ĠMissouri":9753,"%%":9754,"ĠShort":9755,"ĠHind":9756,"ĠCommun":9757,"Ġgrid":9758,"ĠLes":9759,"lemma":9760,"wealth":9761,"Ġparticipated":9762,"Ġtalent":9763,"Del":9764,"ĠDer":9765,"bean":9766,"ilty":9767,"Ġspan":9768,"black":9769,"Ġserial":9770,"anchester":9771,"ĠClinton":9772,"Ġcategories":9773,"toggle":9774,"David":9775,"ving":9776,"uts":9777,"Ġdetect":9778,"ĠLabour":9779,"ĠURL":9780,"ĠNE":9781,"Ġroyal":9782,"anz":9783,"Ġcinem":9784,"ĠAP":9785,"South":9786,"ĠIndiana":9787,"cers":9788,"700":9789,"ĠBrian":9790,"yard":9791,"LP":9792,"reens":9793,"Ġinvited":9794,"eties":9795,"ifts":9796,"kg":9797,"Ġguest":9798,"region":9799,"ĠTask":9800,"ĠGrant":9801,"Ġseats":9802,"Tab":9803,"items":9804,"boolean":9805,"avor":9806,"lah":9807,"Ġpregn":9808,"Ġmoments":9809,"Ġoppon":9810,"Tube":9811,"Ġcenturies":9812,"=\"../../../":9813,"Ġillness":9814,"ĠIowa":9815,"tainment":9816,"Ġlisting":9817,"Ġcounsel":9818,"Ġsustainable":9819,"Ġacknowled":9820,"fire":9821,"ĠAmb":9822,"ĠSri":9823,"Ġdynamic":9824,"ĠNorm":9825,"Ġmunicipal":9826,"Ġcancell":9827,"ĠNig":9828,"Ġboys":9829,"ologists":9830,"Ġestablishment":9831,"Ġfindings":9832,"iamond":9833,"Ġexplains":9834,"ĠBuilding":9835,"Best":9836,"Ġjudgment":9837,"Ġaccordance":9838,"Ġranked":9839,"Ġinline":9840,"ĠMexican":9841,"Ġcompris":9842,"ĠLeon":9843,"Ġsymmet":9844,"Associ":9845,"Ġexcited":9846,"ĠAnderson":9847,"Ġ'/":9848,"ĠJenn":9849,"Ġmsg":9850,"thm":9851,"Byte":9852,"1951":9853,"Ġrequested":9854,"Ġvel":9855,"edit":9856,"aired":9857,"plus":9858,"creen":9859,"Ġtack":9860,"Ġexplo":9861,"Bytes":9862,"Ġracial":9863,"Ġcompliance":9864,"ĠMicrosoft":9865,"ounded":9866,"Ġneither":9867,"Arch":9868,"ĠNa":9869,"ĠChange":9870,"appoint":9871,"\")]":9872,"Storage":9873,"iley":9874,"Ġinhab":9875,"Ġok":9876,"Ġraces":9877,"ĠCas":9878,"seud":9879,"Boolean":9880,"FS":9881,"Ġinteraction":9882,"125":9883,"Ġaffili":9884,"Ġattributes":9885,"ĠTreat":9886,"Editor":9887,"Ġgift":9888,"Ġsimpl":9889,"ĠSE":9890,"ighth":9891,"Ġconvent":9892,"gi":9893,"Ap":9894,"ĠSeason":9895,"Ġbytes":9896,"ĠâĢĻ":9897,"Api":9898,"ĠBalt":9899,"Ġsubjects":9900,"ĠAttorney":9901,"Ġawait":9902,"ĠHarvard":9903,"Ġexecution":9904,"ĠBureau":9905,"`,":9906,"Ġanniversary":9907,"ĠBible":9908,"Ġintellectual":9909,"Pool":9910,"Ã£o":9911,"ĠRaj":9912,"Ġnovels":9913,"ĠError":9914,"browser":9915,"Ġextend":9916,"FAULT":9917,"High":9918,"Ġencounter":9919,"Send":9920,"ĠHarris":9921,"HECK":9922,"Ġregularly":9923,"ĠPhot":9924,"lay":9925,"Ġtheatre":9926,"ancell":9927,"ĠHas":9928,"points":9929,"Ġconclusion":9930,"128":9931,"ĠReturn":9932,"buf":9933,"ĠRyan":9934,"Ġtruck":9935,"obby":9936,"Ġconstitu":9937,"ĠNext":9938,"ĠPot":9939,"peror":9940,"ĠPit":9941,"Ġ${":9942,"ĠPeace":9943,"impl":9944,"Ġworker":9945,"Ġstrategies":9946,"folio":9947,"Ġrect":9948,"Active":9949,"etary":9950,";/":9951,"ikip":9952,"Ġtowns":9953,"ĠStadium":9954,"Fields":9955,"TEST":9956,"Ġstake":9957,"mi":9958,"thew":9959,"pename":9960,"iÄĩ":9961,"Ġbands":9962,"Ġadmitted":9963,"ivated":9964,"ĠCustom":9965,"ĠLook":9966,"eland":9967,"Ġconcluded":9968,")/":9969,"ĠFollowing":9970,"ĠBat":9971,"Ġhorse":9972,"ructions":9973,"Av":9974,"ĠKennedy":9975,"Ġstable":9976,"ĠTony":9977,"\\{":9978,"ĠTax":9979,"scr":9980,"elli":9981,"Ġpermission":9982,"ĠTerm":9983,"BE":9984,"Ġnarrative":9985,"Ġsuit":9986,"Ġhappening":9987,"ĠArthur":9988,"Ġpriority":9989,"Ġdisappe":9990,"mock":9991,"Ġhockey":9992,"Ġpapers":9993,"Auth":9994,"Ġdistricts":9995,"ĠTrade":9996,"ĠSquare":9997,"ĠCurrent":9998,"Ġrein":9999,"Ġwins":10000,"ben":10001,"Ġhealthy":10002,"ĠEq":10003,"'))":10004,"connection":10005,"ĠLow":10006,"ĠMrs":10007,"Ġswe":10008,"abet":10009,"BN":10010,"Ġsuffering":10011,"Channel":10012,"ROM":10013,"Ġcontribute":10014,"oked":10015,"Ġextreme":10016,"password":10017,"ĠAz":10018,"Obj":10019,"Ġtranslation":10020,"ĠWinter":10021,"Ġchairman":10022,"Ġdepending":10023,"Ġgrown":10024,"esome":10025,"Ġmembership":10026,"Ġresistance":10027,"Ġportray":10028,"ĠClark":10029,"ĠTennessee":10030,"uted":10031,"isations":10032,"ĠFront":10033,"]]":10034,"1936":10035,"ĠHig":10036,"wick":10037,"ropical":10038,"uating":10039,"ĠLincoln":10040,"Ġfinance":10041,"Network":10042,"makers":10043,"\\!":10044,"Ġ<=":10045,"abil":10046,"pository":10047,"Perm":10048,"ĠAD":10049,"International":10050,"Ġalcohol":10051,"Ġmaps":10052,"ĠDeath":10053,"Mich":10054,"protobuf":10055,"Ġlaid":10056,"ront":10057,"Ġemissions":10058,"ĠPremier":10059,"Ġinitiative":10060,"textwidth":10061,"Ġruling":10062,"Ġraw":10063,"Ġcos":10064,"Transaction":10065,"Ġcontinuous":10066,"ikipedia":10067,"Ġenabled":10068,")=\\":10069,"Ġauthent":10070,"NOT":10071,"Ġdesignated":10072,"ĠGh":10073,"Ġclick":10074,"numer":10075,"Ġdefin":10076,"jan":10077,"Ġpiano":10078,"!âĢĿ":10079,"stats":10080,"ĠDiego":10081,"Ġpartial":10082,"Ġsymptoms":10083,"uploads":10084,"ĠVersion":10085,"ĠPhoto":10086,"Account":10087,"Ġpotentially":10088,"Ġentertainment":10089,"1938":10090,"Ġele":10091,"ĠLank":10092,"Changed":10093,"atible":10094,"Psi":10095,"Ġindicates":10096,"ĠEmer":10097,"Ġnotable":10098,"ibl":10099,"Stud":10100,"Ġconcerning":10101,"}^\\":10102,"Ġprocedures":10103,"irtual":10104,"Ġsubmitted":10105,"Ġstood":10106,"aware":10107,"Ġassumed":10108,"Ġcomprehensive":10109,"wall":10110,"Ġpropag":10111,"Ġunderstood":10112,"ĠSweden":10113,"ĠDaily":10114,"ĠAmong":10115,"Ġobjective":10116,"Ġtaxes":10117,"ĠSav":10118,"Ġty":10119,"aki":10120,"ĠIndones":10121,"ĠMoreover":10122,"ĠDead":10123,"ĠAuthority":10124,"ĠKat":10125,"Ġdates":10126,"aintiff":10127,"Ġpromise":10128,"Ġcomposer":10129,"Ġstret":10130,"ĠMoscow":10131,"ĠQueens":10132,"Ġmilit":10133,"hu":10134,"herent":10135,"Ġattempted":10136,"Ġlandscape":10137,"Ġconsent":10138,"Films":10139,"Vol":10140,"ĠSix":10141,"Ġwarning":10142,"Ġminute":10143,"Ġpresc":10144,"Spe":10145,"Ġsqu":10146,"ika":10147,"xs":10148,"Ġkil":10149,"Ġvoted":10150,"Ġmathemat":10151,"Ġgrounds":10152,"Ġsomewhat":10153,"Var":10154,"Ġproducing":10155,"iah":10156,"Where":10157,"Rest":10158,"ĠRoll":10159,"ĠPay":10160,"Ġtitled":10161,"Ġfought":10162,"Ġrefers":10163,"Ġmil":10164,"angel":10165,"cmd":10166,"ĠLegisl":10167,"craft":10168,"Ġtopics":10169,"======":10170,"entials":10171,")).":10172,"graduate":10173,"Ġencourage":10174,"linear":10175,"ĠColon":10176,"Ġrecommended":10177,"ĠCab":10178,"ĠGro":10179,"Ġnoise":10180,"Ġspiritual":10181,"boy":10182,"Ġhits":10183,"ById":10184,"=\"@":10185,"Ġretirement":10186,"ĠĠĠĠĠĠĠĠĠĠĠĠĠĠĠĠĠĠĠĠĠĠĠĠ":10187,"Supp":10188,"ĠMarine":10189,"lix":10190,"cpp":10191,"Ġcraft":10192,"ĠIV":10193,"SD":10194,"Ġoldest":10195,"Ġdimension":10196,"shop":10197,"indent":10198,"Ġaged":10199,"RAN":10200,"Err":10201,"Symfony":10202,"owntown":10203,"Ġbow":10204,"Ġliberal":10205,"radius":10206,"ĠGa":10207,"Ġsubstantial":10208,"ĠSupp":10209,"}=\\":10210,"Ġdenied":10211,"YPE":10212,"Ġreferences":10213,"Oct":10214,"aire":10215,"Meta":10216,"Ident":10217,"ĠChannel":10218,"outheast":10219,"ĠMake":10220,"anny":10221,"ĠRoss":10222,"Ġton":10223,"ĠAllen":10224,"focus":10225,"ĠMarket":10226,"Ġnurs":10227,"ĠNev":10228,"KEY":10229,"Ġswim":10230,"Ġownership":10231,"Ġphotos":10232,"ichol":10233,".*":10234,"sur":10235,"ĠRailway":10236,"oyd":10237,"ospitals":10238,"otion":10239,"Music":10240,"Ġ\"/":10241,"Ġthousand":10242,"Ġoperators":10243,"ordon":10244,"Ġproperly":10245,"British":10246,"Ġrejected":10247,"ĠLind":10248,"role":10249,"diction":10250,"jquery":10251,"closure":10252,"ffect":10253,"ropolitan":10254,"Aug":10255,"Ġspectrum":10256,"Ġinvent":10257,"words":10258,"hered":10259,"istical":10260,"ĠStone":10261,"Ġefficiency":10262,"Conf":10263,"Ġtab":10264,"Ġairport":10265,"Ġcle":10266,"Ġawareness":10267,"1900":10268,"Ġconfident":10269,"Ġpatterns":10270,"Ġceremony":10271,"PAR":10272,"ĠOfficial":10273,"################":10274,"overnment":10275,"Ġparagraph":10276,"Ġbtn":10277,"ĠRoy":10278,"Ġindicated":10279,"Ġsitting":10280,"Ġusual":10281,"Ġplatforms":10282,"Lock":10283,"Ġbright":10284,"Ġemp":10285,"Ã¢":10286,"ĠSimon":10287,"urric":10288,"ĠJane":10289,"ODO":10290,"ĠHart":10291,"ĠDor":10292,"Ġprivacy":10293,"ni":10294,"PM":10295,"ĠGreece":10296,"Ġwithdraw":10297,"ronze":10298,"asty":10299,"enna":10300,"ĠAlabama":10301,"none":10302,"umin":10303,"ĠBatt":10304,"\">&":10305,"herited":10306,"Ġwalls":10307,"Ġcausing":10308,"Ġconsumers":10309,"LOG":10310,"ĠUpdate":10311,"Ġprepare":10312,"1917":10313,"zeta":10314,"ĠOs":10315,"ĠCaptain":10316,"brid":10317,"ðŁ":10318,"Ġdb":10319,"utt":10320,"rett":10321,"Ġpros":10322,"record":10323,"Ñı":10324,"Ġengage":10325,"ĠFuture":10326,"essed":10327,"ĠJam":10328,"ĠBrig":10329,"ĠPlace":10330,"olly":10331,"Full":10332,"Ġdecline":10333,"Ġheavily":10334,"ceptions":10335,"Ġloop":10336,"try":10337,"Ġcomposition":10338,"Video":10339,")}\\":10340,"Ġabstract":10341,"ĠChairman":10342,"Edit":10343,"oven":10344,"reements":10345,"Sports":10346,"Ġdiscovery":10347,"Ġtransportation":10348,"Ġchose":10349,"allas":10350,"Ġparallel":10351,"witzer":10352,"Ġinvalid":10353,"Ġabsolutely":10354,"Ġcarrying":10355,"Ġtransformation":10356,"Ġcritics":10357,"HTML":10358,"tics":10359,"elfare":10360,"VERSION":10361,"editor":10362,"FILE":10363,"ixel":10364,"Ġwelcome":10365,"Ġattached":10366,"Ġtemporary":10367,"Star":10368,"Ġourselves":10369,"Ġwinners":10370,"Ag":10371,"ĠCopyright":10372,"ĠAnthony":10373,"Ġburied":10374,"nie":10375,"Ġinjured":10376,"endor":10377,"ĠSa":10378,"Ġmaintained":10379,"Ġmine":10380,"fast":10381,"Ġguidance":10382,"Ġsand":10383,"ĠHeart":10384,"late":10385,"ĠDoctor":10386,"attribute":10387,"Widget":10388,"Her":10389,"article":10390,"thread":10391,"ĠArk":10392,"argument":10393,"ĠLeb":10394,"ĠMoore":10395,"bot":10396,"Ġhun":10397,"Ġchildhood":10398,"ĠScient":10399,"green":10400,"isting":10401,"Ġrecognize":10402,"Ġexpensive":10403,"ĠConst":10404,"ĠTen":10405,"roduction":10406,"inals":10407,"Ġliterary":10408,"oen":10409,"Ġinteger":10410,"ĠĠĠĊ":10411,"ĠOnline":10412,"elle":10413,"1937":10414,"Ġbra":10415,"hus":10416,"Ġexcess":10417,"xspace":10418,"Ġpayments":10419,"ĠDark":10420,"gressive":10421,"ĠPatrick":10422,"ĠOrganization":10423,"urers":10424,"ĠEntertainment":10425,",.":10426,"Ġcooperation":10427,"Ġsaved":10428,"ippi":10429,"Ġkick":10430,"Ġstored":10431,"Ġinformed":10432,"Ġcopyright":10433,"ĠDream":10434,"ĠYet":10435,"Austral":10436,"ĠNob":10437,"Ġgrade":10438,"Global":10439,"idency":10440,"ĠElement":10441,"gments":10442,"âĨ":10443,"lat":10444,"witzerland":10445,"alg":10446,"Ġpointed":10447,"Generic":10448,"lights":10449,"Ġthoughts":10450,"Ġfees":10451,"Ġestimates":10452,"iscal":10453,"Ġvocal":10454,"Ġcoupl":10455,"180":10456,"uzz":10457,"exception":10458,"Ġrising":10459,"doi":10460,"ĠSoc":10461,"Ġcro":10462,"vo":10463,"ĠKevin":10464,"lahoma":10465,"IVE":10466,"inline":10467,"JSON":10468,"Ġvertical":10469,"Ġ{};":10470,"Ġmal":10471,"Ġregistration":10472,"ĠPhilippines":10473,"ĠConvention":10474,"riers":10475,"Ġprivile":10476,"Ġdealing":10477,"Ġgod":10478,"Security":10479,"Ġhtml":10480,"Ġreputation":10481,"never":10482,"ĠRa":10483,"Ġkinds":10484,"ĠMountain":10485,"save":10486,"ĠFederation":10487,"Ġsuff":10488,"ĠJudge":10489,"Ġeligible":10490,"Ġabsence":10491,"ĠVi":10492,"Ġcompletion":10493,"Ġchannels":10494,"Ġimmigration":10495,"oking":10496,"Ġfootballer":10497,"Ã©e":10498,"ĠÅ":10499,"Ġcovering":10500,"1919":10501,"GA":10502,"Ġdriven":10503,"ĠPath":10504,"123":10505,"modules":10506,"Ġaccurate":10507,"Ġbaby":10508,"ĠFalse":10509,"Ġcompare":10510,"chor":10511,"Ġwear":10512,"inction":10513,"ĠMaria":10514,"MB":10515,"Ġengineer":10516,"Ġaggreg":10517,"closed":10518,"ĠMiami":10519,"Ġlegacy":10520,"ĠAccount":10521,"Ġtargets":10522,"Ġeat":10523,"Ġwaste":10524,"ĠYouTube":10525,"Queue":10526,"ancel":10527,"ĠassertEquals":10528,"ĠEditor":10529,")--":10530,"ĠPut":10531,"Ġconservative":10532,"Ġrelating":10533,"ĠCa":10534,"ĠBah":10535,"Ġcompetitive":10536,"Ġapparently":10537,"chant":10538,"ĠAdvis":10539,"hav":10540,"ĠProt":10541,")^{":10542,"ĠReb":10543,"equality":10544,"1933":10545,"Black":10546,"ÅĤ":10547,"ĠBishop":10548,"Ġskin":10549,"Ġfraud":10550,"Ġintention":10551,"ĠFall":10552,"ĠManchester":10553,"Ġsnow":10554,"Ġpy":10555,"Ant":10556,"Member":10557,"Well":10558,"usalem":10559,"Ġwing":10560,"ĠYes":10561,"iest":10562,"Ġrecover":10563,"Ġadm":10564,"dy":10565,"dropdown":10566,"Ġconsideration":10567,"Ġtested":10568,"~~~~":10569,"oca":10570,"ĠNever":10571,"Ġdistribut":10572,"Ġexposure":10573,"ĠCastle":10574,"Ġmechanism":10575,"Ġcommunications":10576,"ĠRegional":10577,"Ġmeasured":10578,"uz":10579,"Î±":10580,"ĠHoward":10581,"Ġchallenging":10582,"domain":10583,"txt":10584,"Ġhouseholds":10585,"1914":10586,"Ġturning":10587,"Ġguilty":10588,"Ġ(*":10589,"]:":10590,"Ġbuilder":10591,"ĠImage":10592,"Ġgrav":10593,"izz":10594,"Ġlegit":10595,"GBT":10596,"iang":10597,"horizontal":10598,"cus":10599,"Ġing":10600,"ocker":10601,"Ġcenters":10602,"elson":10603,"WN":10604,"CF":10605,"Ġdiseases":10606,"primary":10607,"Day":10608,"ĉĉĉĊ":10609,"Ġprofessionals":10610,"ĠWindows":10611,"Ġ\\{":10612,"Ġapi":10613,"outer":10614,"Ġamounts":10615,"Ġsuspect":10616,"Ġunus":10617,"ĠForces":10618,"ĠPhilip":10619,"[:":10620,"Ġoutstanding":10621,"bserv":10622,"ĠBO":10623,"events":10624,"ĠStudents":10625,"Ġlawsu":10626,"Ġfrag":10627,"Ġreaching":10628,"ishment":10629,"aux":10630,"Writ":10631,"Ġsettled":10632,"hedral":10633,"ĠOption":10634,"ĠMS":10635,"move":10636,"Ġrealized":10637,"Ġnavigation":10638,"ĠLib":10639,"ouses":10640,"PORT":10641,"icut":10642,"Ġvir":10643,"rat":10644,"Ġunderlying":10645,"}_\\":10646,"Cast":10647,"Cam":10648,"ĠĠĠĠĠĠĠĠĠĠĠĠĠĠĠĠĠĠĠĠĠĠĠĠĠ":10649,"Photo":10650,"ĠPlaces":10651,"stan":10652,"Common":10653,"ĠAgreement":10654,"Ġdescent":10655,"ĠMit":10656,"Ġsmooth":10657,"ĠMembers":10658,"agg":10659,"ulum":10660,"schema":10661,"Ġbear":10662,"ĠSite":10663,"Ġhence":10664,"agu":10665,"Ġaffairs":10666,"scroll":10667,"Ġexperiments":10668,"Ġgay":10669,"1935":10670,"Ġexplanation":10671,"}:":10672,"ĠRecord":10673,"Print":10674,"Ġaccessible":10675,"Ġgenus":10676,"Ġprinted":10677,"Ġassembly":10678,"alion":10679,"Ġexperimental":10680,"widehat":10681,"Logger":10682,"ĠPur":10683,"spir":10684,"Ġdrivers":10685,"ĠPier":10686,"Ang":10687,"Ġpublicly":10688,"about":10689,"Ġiron":10690,"Ġrestaurant":10691,"Ġbrowser":10692,"uction":10693,"Ġsad":10694,"Ġdecor":10695,"Pay":10696,"parser":10697,"Ġsurprise":10698,"bat":10699,"iga":10700,"ĠAtlanta":10701,"clip":10702,"Play":10703,"ĠSi":10704,"Ġmovements":10705,"account":10706,"Ġduties":10707,"Ġcollective":10708,"Ġdepos":10709,"Ġautomatically":10710,"otten":10711,"Ġshel":10712,")))":10713,"ĠJava":10714,"UID":10715,"ĠAT":10716,"Ġfly":10717,"Ġfounding":10718,"HR":10719,"inth":10720,"phony":10721,"Ġdisabled":10722,"Ġcriteria":10723,"area":10724,"Cond":10725,"Ġimplies":10726,"Har":10727,"Ġcreates":10728,"Ġintegration":10729,"ĠDefault":10730,"Ġmanagers":10731,"ffee":10732,"Exec":10733,"issippi":10734,"Ġmoves":10735,"agen":10736,"Ġelem":10737,"ĠRegiment":10738,"ĠJay":10739,"ĠHal":10740,"ĠAppe":10741,"Ġconfront":10742,"William":10743,"Ġinjuries":10744,"Ġwalking":10745,"Ġsees":10746,"Ġexciting":10747,"Ġlists":10748,"cha":10749,"Ġtrav":10750,"Ġuniverse":10751,"Ġanticip":10752,"Ġexit":10753,"ĠManager":10754,"Ġrequirement":10755,"Ġpurs":10756,"Ġessentially":10757,"pres":10758,"offs":10759,"Ġfat":10760,"ĠThird":10761,"imore":10762,"defined":10763,"original":10764,"Ġlab":10765,"Ġoverse":10766,"cam":10767,"unsigned":10768,"(!":10769,"ĠHan":10770,"Ġsick":10771,"Ġstages":10772,"git":10773,"enumer":10774,"XT":10775,"Ġmunicipality":10776,"Ġtranslate":10777,"ĠDetroit":10778,",'":10779,"Events":10780,"plan":10781,"Ġcharacteristics":10782,"western":10783,"Ġru":10784,"father":10785,"Ġindustries":10786,"Ġ%}":10787,"Ġminim":10788,"$)":10789,"Ġspokes":10790,"emed":10791,"ĠKentucky":10792,"tsd":10793,"Ġpublishing":10794,"aze":10795,"Ġcrucial":10796,"Ġresolve":10797,"istence":10798,"elve":10799,"ONE":10800,"mates":10801,"UD":10802,"ieval":10803,"ĠFather":10804,"Extension":10805,"ĠSarah":10806,"ĠGall":10807,"Ġadvertising":10808,"','":10809,"Ġexposed":10810,"West":10811,"ĠFunction":10812,"Ġvaluable":10813,"Ġlosses":10814,"Ġregulation":10815,"1934":10816,"Ĥ¬":10817,"Ġexplos":10818,"Ġdry":10819,"cdots":10820,"Ġfaces":10821,"Ġpictures":10822,"forms":10823,"Ġformula":10824,"ĠRow":10825,"keyword":10826,"})\\":10827,"ĠChristians":10828,"ĠKelly":10829,"don":10830,"Ġtransactions":10831,"enez":10832,"Ġtail":10833,"eget":10834,"Ġlistening":10835,"Ġnominated":10836,"otted":10837,"ĠTokyo":10838,"Ġchurches":10839,"Ġevaluation":10840,"Leg":10841,"ĠChem":10842,"glas":10843,"ĠHeritage":10844,"Ġsons":10845,"ĠTrib":10846,"ĠWatch":10847,"izable":10848,"eron":10849,"Ġrig":10850,"dimensional":10851,"ĠCreat":10852,"ulator":10853,"Ġpremier":10854,"Ġmissed":10855,"Ġtrading":10856,"wild":10857,"Graph":10858,"Ġwonderful":10859,"1929":10860,"ĠPolitical":10861,"Ġintegrated":10862,"uv":10863,"ĠBarn":10864,"Ġcompensation":10865,"à¸":10866,"egas":10867,"Match":10868,"ĠAthlet":10869,"ĠSource":10870,"Ġcolleagues":10871,"Ã¸":10872,"ĠRepublicans":10873,"Cap":10874,"igate":10875,"ĠGrad":10876,"Ġreserved":10877,"Ġda":10878,"ï¼":10879,"Ġdestination":10880,"ĠMalays":10881,"MAX":10882,"ĠHawai":10883,"ĠFa":10884,"ĠBab":10885,"Ġequity":10886,"eness":10887,"Ġconverted":10888,"Ġinnovative":10889,"ĠJoh":10890,"Ġapplies":10891,"fred":10892,"acro":10893,"ĠHotel":10894,"rons":10895,"two":10896,"Ġlabour":10897,"MOD":10898,"Ġspl":10899,"weg":10900,"results":10901,"»¿":10902,"Ġcrash":10903,"ĠImm":10904,"Ġviolent":10905,"Ġseriously":10906,"enabled":10907,"Timeout":10908,"ĠCzech":10909,"Ġcircle":10910,"unior":10911,"Windows":10912,"Ġpopulations":10913,"PER":10914,"Ġillustr":10915,"Ġbench":10916,"Ġshell":10917,"ĠSaudi":10918,"Ġneuro":10919,"Ġobviously":10920,"ĠResp":10921,"Ju":10922,"Ġvital":10923,"ĠSound":10924,"apolis":10925,"angular":10926,"assador":10927,"ĠMean":10928,"Java":10929,"ĠExp":10930,"hatt":10931,"Ġsky":10932,"ando":10933,"ï»¿":10934,"Ġpublications":10935,"iture":10936,"ĠGib":10937,"Directory":10938,"ĠVideo":10939,"argo":10940,"ĠProcess":10941,"Ġracing":10942,"////////////////////////////////":10943,"ĠJacob":10944,"who":10945,"ritical":10946,"Ġpaying":10947,"Ġaims":10948,"Google":10949,"Ġenhance":10950,"LIC":10951,"IX":10952,"maker":10953,"ĠBry":10954,"apel":10955,"Euro":10956,"ĠProtection":10957,"Scope":10958,"Ġdeeply":10959,"Ġaddresses":10960,"Ġpoetry":10961,"ĠSystems":10962,"utf":10963,"Ġelectricity":10964,"ĠNic":10965,"Files":10966,"Ġtherapy":10967,"Look":10968,"ĠSurvey":10969,"ivacy":10970,"ĠMun":10971,"Ġradical":10972,"ĠGard":10973,"Ġsurgery":10974,"anim":10975,"Ġfranchise":10976,"Ġsuicide":10977,"_,":10978,"onymous":10979,"Ġconscious":10980,"VE":10981,"icious":10982,"ĠGil":10983,"Ġlib":10984,"ĠPract":10985,"Ġtough":10986,"Ġsituations":10987,"ĠPRO":10988,"ĠMedal":10989,"Space":10990,"auge":10991,"Ġinstruct":10992,"eren":10993,"ostic":10994,"tha":10995,"Ġsending":10996,"wig":10997,"Descriptor":10998,"Ġbigger":10999,"Ġforget":11000,"ĠCook":11001,"Ġstudying":11002,"BP":11003,"Ġrealize":11004,"ĠPalestinian":11005,"enz":11006,"Ġ×":11007,"inv":11008,"Ġinvolves":11009,"Ġhorror":11010,"ĠArchitect":11011,"dx":11012,"month":11013,"Ġequality":11014,"Internal":11015,"Ġappointment":11016,"James":11017,"ificial":11018,"!\"":11019,"(){":11020,"Ġconservation":11021,"Polit":11022,"Ġimagine":11023,"RR":11024,"Selected":11025,"ĠFull":11026,"fix":11027,"channel":11028,"Ġtheore":11029,"ĠWolf":11030,"ycl":11031,"Ġdiscrimination":11032,"ĠAssistant":11033,"Ġmagnetic":11034,"Ġhopes":11035,"Ġinstanceof":11036,"Ġfocuses":11037,"Ġpenalty":11038,"Ġalive":11039,"ĠCommonwealth":11040,"ĠMoon":11041,"ĠPlease":11042,"incial":11043,"Ġsurve":11044,"dam":11045,"secutive":11046,"Ġoccas":11047,"Ġobservations":11048,"ĠAlbert":11049,"Ġregarded":11050,"ĠAI":11051,"webpack":11052,"Sy":11053,"Ġsinging":11054,"ateral":11055,"theless":11056,"@\"":11057,"ĠHit":11058,"anga":11059,"Ġproviders":11060,"ĠJerusalem":11061,"Ġseed":11062,")),":11063,"ellite":11064,"Ġmit":11065,"Ġsav":11066,"Ġrapidly":11067,"ĠAnne":11068,"shape":11069,"Ġfaster":11070,"Ġshortly":11071,"Ġcriticism":11072,"ĠLas":11073,"Ġdrawing":11074,"çļ":11075,"rible":11076,"Ġconsumption":11077,"ante":11078,"ĠSwedish":11079,"ĠOak":11080,"alloc":11081,"TABLE":11082,"agh":11083,"ĠFinance":11084,"Ġscoring":11085,"atherine":11086,"2023":11087,"Ġexecuted":11088,"ques":11089,"Ġbeauty":11090,"iÃ³n":11091,"issue":11092,"Ġinfluenced":11093,"ĠNation":11094,"Ġrain":11095,"Ġmoder":11096,"Ġsubsection":11097,"Ġunem":11098,"intend":11099,"Ġsolve":11100,"ĠEarly":11101,"onna":11102,"Ġrational":11103,"Ġroughly":11104,"ĠContin":11105,"Feature":11106,"erk":11107,"ulus":11108,"Ġruled":11109,"ĠUnit":11110,"tip":11111,"asm":11112,"ĠCond":11113,"ĠPope":11114,"Ġrepro":11115,"Af":11116,"ignment":11117,"Ġheritage":11118,"Ãº":11119,"ĠHop":11120,"Ġdoctors":11121,"Ġoutcome":11122,"ULE":11123,"ĠFA":11124,"Ġ''":11125,"Expr":11126,"ĠSever":11127,"Ġjurisdiction":11128,"Ġsurprising":11129,"odox":11130,"andal":11131,"ĠDNA":11132,"Ġrid":11133,"controller":11134,"ĠChall":11135,"Float":11136,"Ġgene":11137,"Ġinstant":11138,"ĠTemple":11139,"Ġprosecut":11140,"ĠColomb":11141,"ĠSwitzerland":11142,"Msg":11143,"Matrix":11144,"Ġrepresentatives":11145,"ĠDean":11146,"Ġheads":11147,"semble":11148,"Iterator":11149,"Ġevil":11150,"lg":11151,"}^{(":11152,"ĠTR":11153,"Ġroof":11154,"Ġinterpretation":11155,"Ġprospect":11156,"Ġvulnerable":11157,"Ġpione":11158,"also":11159,"Ġjudges":11160,"ocaml":11161,"Ġorganisation":11162,"adoop":11163,"ĠDick":11164,"such":11165,"Ġanimation":11166,"Ġscholars":11167,"ĠYears":11168,"Î¿":11169,"Ġcompete":11170,"ĠSchools":11171,"iop":11172,"Ġwaters":11173,"ternoon":11174,"asts":11175,"ĠAlliance":11176,"liest":11177,"eping":11178,"uler":11179,"Ġadds":11180,"Ġmedian":11181,"Ins":11182,"çļĦ":11183,"NC":11184,"acent":11185,"Ġclassification":11186,"Own":11187,"ections":11188,"you":11189,"Ġstruck":11190,"GR":11191,"Ġtechnique":11192,"ository":11193,"asp":11194,"claimed":11195,"ĠNigeria":11196,"Job":11197,"Ġargue":11198,"Ġmarg":11199,"ĠCart":11200,"Ġabsor":11201,"Ġsecretary":11202,"Women":11203,"Ġpromotion":11204,"Ġoptional":11205,"Ġassociate":11206,"Fin":11207,"Ġbehaviour":11208,"Ġboat":11209,"ĠBeat":11210,"ocks":11211,"queue":11212,"door":11213,"Ġ(-":11214,"ĠMs":11215,"ometimes":11216,"Ġoccupied":11217,"Items":11218,"Ġsteel":11219,"hs":11220,"network":11221,"properties":11222,"lad":11223,"Panel":11224,"Ġsin":11225,"Ġpasses":11226,"Oh":11227,"ĠResult":11228,"Mc":11229,"Ġha":11230,"Ġperiods":11231,"Ġmaintenance":11232,"Ġpetition":11233,"Term":11234,"ĠDocument":11235,"ĠOklahoma":11236,"IMP":11237,"Ġheadquarters":11238,"Sch":11239,"ĠRelations":11240,"Ġtrials":11241,"Ġimprovement":11242,"configuration":11243,"Report":11244,"Even":11245,"ĠYouth":11246,"ultane":11247,"echo":11248,"oa":11249,"Ġfolk":11250,"Ġtall":11251,"esides":11252,"Ġtransmission":11253,"ĠLanguage":11254,"Ġusage":11255,"Ġ[];":11256,"ĠCS":11257,"PD":11258,"wich":11259,"ĠPy":11260,"Ð´":11261,"Ġelectron":11262,"ĠEss":11263,"Ġ..":11264,"HER":11265,"Ġcolumns":11266,"Ġentries":11267,"Ġexpat":11268,"117":11269,"sis":11270,"opl":11271,"kw":11272,"Ġencouraged":11273,"Ġintroduce":11274,"ĠSud":11275,"zone":11276,"flags":11277,"Ġsupporters":11278,"()));":11279,"Services":11280,"PATH":11281,"Ġagricultural":11282,"oria":11283,"Ġfirms":11284,"chell":11285,"orient":11286,"Ġduration":11287,"Browser":11288,"Today":11289,"Ġjazz":11290,"*)":11291,"Ġlyrics":11292,"ardo":11293,"away":11294,"Ġequations":11295,"Ġbin":11296,"Ġatmosphere":11297,"will":11298,"Ġinvolvement":11299,"apper":11300,"=-":11301,"Ġtalked":11302,"Ġsixth":11303,"ĠBox":11304,"Ġattacked":11305,"Ġtight":11306,"1928":11307,"Ġ=========":11308,"typed":11309,"ĠParam":11310,"Ġpursue":11311,"Game":11312,"Ġancest":11313,"ĠRoute":11314,"ĠSky":11315,"}}(":11316,"estab":11317,"ders":11318,"ĠCentury":11319,"Ġthick":11320,"1910":11321,"Profile":11322,"Ġtact":11323,"Ġsubt":11324,"ĠRoberts":11325,"osl":11326,"Ġmerely":11327,"Ġconstitutional":11328,"Ġuniversal":11329,"Ġacid":11330,"1932":11331,"ĠWhit":11332,"Ġvariant":11333,"ĠAmendment":11334,"ĠRepresentatives":11335,"Ġinstances":11336,"being":11337,"forward":11338,"Ġengagement":11339,"ĠChair":11340,"ĠMayor":11341,"elegate":11342,"Ġdataset":11343,"Ġenv":11344,"ĠEver":11345,"leveland":11346,"isen":11347,"Lat":11348,"otte":11349,")\">":11350,"Ġposts":11351,"Ġlift":11352,"mont":11353,"Ġprotein":11354,"imit":11355,"ĠPA":11356,"Ġflu":11357,"Ġprotests":11358,"Double":11359,"Ġparish":11360,"Following":11361,"ITE":11362,"Ġpresents":11363,"Ġhandler":11364,"ĠEc":11365,"ĠProp":11366,"ĠBuck":11367,"\",\"":11368,"erto":11369,"ĠBowl":11370,"ĠEP":11371,"ĠVAL":11372,"ĠPhD":11373,"ĠHug":11374,"Ġtort":11375,"Loader":11376,"ĠNav":11377,"contrib":11378,"}'":11379,"Ġaccuracy":11380,"burn":11381,"Ġio":11382,"ĠFinally":11383,"addr":11384,"NavBarCell":11385,"ĠConnecticut":11386,"Ġquiet":11387,"external":11388,"Ġmanaging":11389,"Aud":11390,"Ã©s":11391,"Seg":11392,"ĠGab":11393,"assertEqual":11394,"winning":11395,"ĠReserve":11396,"unnel":11397,"Ġvisiting":11398,"ĠAgric":11399,"Ġroads":11400,"Ġpresentation":11401,"Close":11402,"ĠSerb":11403,"SIZE":11404,"Ġmining":11405,"Ġnut":11406,"Ġbreaking":11407,"ĠBos":11408,"ĠCovid":11409,"Ġfired":11410,"ĠMississippi":11411,"tar":11412,"Ġentering":11413,"Ġrooms":11414,"ucle":11415,"Ġresidential":11416,"ĠGram":11417,"Proxy":11418,"Ġcontrols":11419,"selected":11420,"ĠStudent":11421,"conc":11422,"Ġguns":11423,"sin":11424,"Ġcompeted":11425,"Ġmetric":11426,"III":11427,"}|":11428,"Ġmess":11429,"Ġresidence":11430,"Ġlands":11431,"ĠExpl":11432,"Ġscr":11433,"Ġprisoners":11434,"March":11435,"![":11436,"ĠFri":11437,"ĠEnvironmental":11438,"Ġaimed":11439,"axis":11440,"ĠON":11441,"ĠCape":11442,"Ġjournalists":11443,"ĠResources":11444,"Ġrating":11445,"ĠDeputy":11446,"()).":11447,"Ġregardless":11448,"throws":11449,"Ġdispl":11450,"Details":11451,"ĠHans":11452,"ĠArg":11453,"bled":11454,"ĠClin":11455,"Ġexpertise":11456,"hy":11457,"ĠPR":11458,"Ġencoding":11459,"Ġtempor":11460,"Ġsight":11461,"Ġsup":11462,"uscript":11463,"Ġabroad":11464,"ĠSeattle":11465,"manager":11466,"ea":11467,"ĠKhan":11468,"elect":11469,"ĠDur":11470,"Sem":11471,"ĠâĨ":11472,"Ġflo":11473,"Ġcomic":11474,"ĠPC":11475,"Ġproceedings":11476,"ĠMorgan":11477,"report":11478,"ĠTrad":11479,"Transform":11480,"Ġlots":11481,"mal":11482,"each":11483,"Ġgenre":11484,"ĠUtah":11485,"Ġdemonstrated":11486,"Ġaccompan":11487,"Ġdisappoint":11488,"1931":11489,"roc":11490,"Ġlayout":11491,"Prop":11492,"Flags":11493,"Paul":11494,"ĠPhill":11495,"asi":11496,"Ġlawyers":11497,"ĠFOR":11498,"olving":11499,"Inv":11500,"incess":11501,"Rober":11502,"ĠFurthermore":11503,"Ġmyth":11504,"Ġ[[":11505,"Ġpaintings":11506,"norm":11507,"Ġfol":11508,"Bas":11509,"Ġstarring":11510,"alia":11511,"Bit":11512,"pense":11513,"ĠMO":11514,"Ġimproving":11515,"Ġovers":11516,"ĠSpirit":11517,"Donald":11518,"ographical":11519,"ĠDave":11520,")));":11521,"Ġwhereas":11522,"ĠFreder":11523,"ailability":11524,"North":11525,"ĉĠĠĠĠĠ":11526,"Ġconsecutive":11527,")|":11528,"ĠTurkish":11529,"Adapter":11530,"oples":11531,"Ġjury":11532,"ĠVin":11533,"{(":11534,"Ġstim":11535,"ĠStudy":11536,"Miss":11537,"Ġdestruction":11538,"Ġregulatory":11539,"mediate":11540,"ĠWalter":11541,"blem":11542,"logger":11543,"Ġcontroller":11544,"typeof":11545,"novation":11546,"shift":11547,"ĠBaron":11548,"Ġyellow":11549,"Ġrose":11550,"Ġsurvived":11551,"Ġfunc":11552,"ĠThough":11553,"Ġclosing":11554,"WR":11555,"stable":11556,"Ġreducing":11557,"Ġmayor":11558,"ĠChapter":11559,"ĠLandroid":11560,"player":11561,"Enter":11562,"Ġ\"\"":11563,"tools":11564,"Ġtheater":11565,"ĠAustin":11566,"bara":11567,"Runtime":11568,"fall":11569,"Ġgalax":11570,"}\\\\":11571,"IND":11572,"Ġscores":11573,"}</":11574,"adian":11575,"Ġflying":11576,"Ġgang":11577,"Ġcollections":11578,"lades":11579,"Ġthreshold":11580,"News":11581,"Selector":11582,"ĠKal":11583,"proto":11584,"duce":11585,"Ġstability":11586,"Ġaddressed":11587,"ĠNatural":11588,"ells":11589,"qquad":11590,"ĠSoftware":11591,"ĠHMS":11592,"Despite":11593,"ctic":11594,"Ġpeer":11595,"rele":11596,"ĠFame":11597,"fficial":11598,"Symbol":11599,"Ġwrest":11600,"when":11601,"assertEquals":11602,"ToString":11603,"ĠCop":11604,"ĠMcK":11605,"ĠTaiwan":11606,"Ġreven":11607,"Ġignore":11608,"Ġinstruction":11609,"Ġfemin":11610,"zh":11611,"Ġtower":11612,"ĠResource":11613,"ĠPrior":11614,"ĠLemma":11615,"sburg":11616,"Ġdefendant":11617,"Ġwearing":11618,"ĠMelbourne":11619,"Ġtrouble":11620,"Ġsetup":11621,"Ġcalculated":11622,"heim":11623,"Ġpicked":11624,"ÑĮ":11625,".__":11626,"ĠNBA":11627,"oting":11628,"1922":11629,"scribe":11630,"ĠCrim":11631,"Ġalert":11632,"Ġupcoming":11633,"fi":11634,"Plugin":11635,"disc":11636,"week":11637,"Ġreward":11638,"oop":11639,"ĠSC":11640,"rolling":11641,"BM":11642,"secution":11643,"_->":11644,"iac":11645,"Ġcertificate":11646,"Ġmouth":11647,"esterday":11648,"total":11649,"ĠKa":11650,"1915":11651,"ationally":11652,"ipher":11653,"wegian":11654,"ĠStew":11655,"bits":11656,"ibraries":11657,"prison":11658,"Ġcards":11659,"Success":11660,"Ġmatching":11661,"structor":11662,"Ġ&\\":11663,"Ġinterviews":11664,"navList":11665,"ĠNorway":11666,"Ġdynamics":11667,"Ġcancel":11668,",âĢĻ":11669,"Phil":11670,"enders":11671,"vere":11672,"depth":11673,"ĠNaval":11674,"Ġhired":11675,"Ġdire":11676,"ournals":11677,"Pattern":11678,"ĠScholar":11679,"dp":11680,"hidden":11681,"ĠSearch":11682,"Ġfarmers":11683,"Ġcited":11684,"Ġdocumentation":11685,"Ġinstruments":11686,"Cluster":11687,"Ġstead":11688,"Ġmusician":11689,"Total":11690,"ĠWy":11691,"Ġfalls":11692,"ĠLawrence":11693,"Ġoutbreak":11694,"Ġgenetic":11695,"Life":11696,"Ġupdates":11697,"Ġcontracts":11698,"Ġinterior":11699,"Find":11700,"Ġpharm":11701,"Ġreporter":11702,"Ġchoices":11703,"ifiers":11704,"Imp":11705,"ĠGer":11706,"Like":11707,"IGHT":11708,"libr":11709,"ilst":11710,"tic":11711,"Ġartistic":11712,"Ġordinary":11713,"Ġseparated":11714,"Ġelsewhere":11715,"Michael":11716,"tons":11717,"^+":11718,"Ġ(_":11719,"Scale":11720,"tabs":11721,"inking":11722,"âĢĿ)":11723,"Ġdetection":11724,"chain":11725,"ĠKy":11726,"whel":11727,"ĠGulf":11728,"1921":11729,"Ġminority":11730,"Ġhospitals":11731,"ĠNichol":11732,"pred":11733,"cb":11734,"Ġwire":11735,"Ġinequality":11736,"Ġdemands":11737,"Ġathletes":11738,"ĠTel":11739,"UTF":11740,"ĠDallas":11741,"Ġholiday":11742,"ĠPas":11743,"Ð²":11744,"ĠWas":11745,"effect":11746,"adi":11747,"SER":11748,"igrant":11749,"OM":11750,"Ġphysics":11751,"Ġorganisations":11752,"Fix":11753,"Ġtemple":11754,"Ġoutcomes":11755,"Ġimplements":11756,"Ġng":11757,"Ġfairly":11758,"1927":11759,"ĠChristopher":11760,"limit":11761,"provider":11762,"Ġsacr":11763,"Ġabandoned":11764,"likely":11765,"sea":11766,"alar":11767,"neg":11768,"................................":11769,"ailure":11770,"zero":11771,"Ġsuitable":11772,"Ġaxis":11773,"Ġdeput":11774,"Ġdepict":11775,"ista":11776,"Ġviewed":11777,"IPT":11778,"115":11779,"ĠReform":11780,"ĠStandard":11781,"Ġmarks":11782,"RT":11783,"Ġfurn":11784,"pread":11785,"ĠLouisiana":11786,"Ġyes":11787,"Ġ$(\\":11788,"Ġfunded":11789,"1916":11790,"Ġdiscussions":11791,"ĠDomin":11792,"AE":11793,"rame":11794,"ĠFreedom":11795,"Span":11796,"olding":11797,"Ġcoaches":11798,"Ġdenote":11799,"party":11800,"Ġarrival":11801,"ulous":11802,"UK":11803,"June":11804,"ĠLaure":11805,"through":11806,"Ġoffensive":11807,"ĠĠĠĠĠĠĠĠĠĠĠĠĠĠĠĠĠĠĠĠĠĠ":11808,"ategor":11809,"ordinary":11810,"since":11811,"Rich":11812,"compiler":11813,"Ġroots":11814,"ĠRick":11815,"Ġdress":11816,"ortheast":11817,"President":11818,"Ġdemonstrate":11819,"ĠSilver":11820,"apply":11821,"Ġsubstit":11822,"hadoop":11823,"Ġangle":11824,"anches":11825,"ijing":11826,"Ġknowing":11827,"operat":11828,"'])":11829,"eenth":11830,"Ġafternoon":11831,"Ġgenerations":11832,"Ġentities":11833,"getElement":11834,"erald":11835,"ĠStill":11836,"Ġconcrete":11837,"Ġimpressive":11838,"isode":11839,"Ġinitiatives":11840,"Ġadequ":11841,"Ġsucceeded":11842,"ĠWalker":11843,"Ġdialogue":11844,"Ġfewer":11845,"throw":11846,"1924":11847,"Ġmonitoring":11848,"1925":11849,"Yes":11850,"ĠAbb":11851,"ĠRussell":11852,"Ġasset":11853,"Ġproxy":11854,"ĠConfig":11855,"=>":11856,"Ġasync":11857,"Who":11858,"Ġcelebrated":11859,"Ġcoe":11860,"ĠPrivate":11861,"mathscr":11862,"Ġthreats":11863,"ĠProperty":11864,"VALUE":11865,"Bel":11866,"ĠRoc":11867,"omer":11868,"Ġsupplement":11869,"Ġinfection":11870,"inded":11871,"ï¿½ï¿½":11872,"Ġexpectations":11873,"Ġfn":11874,"Ġdemocratic":11875,"Ġsurvive":11876,"ĠPack":11877,"Ġeducated":11878,"upp":11879,"Engine":11880,"itative":11881,"acon":11882,"&=":11883,"idespread":11884,"++;":11885,"Personal":11886,"ĠDun":11887,"Ġpodcast":11888,"$/":11889,"itol":11890,"Ġcaptain":11891,"ĠYeah":11892,"Ġdivor":11893,"Once":11894,"ĠAustria":11895,"Ġacquisition":11896,"ĠRab":11897,"sa":11898,"Ġrival":11899,"Database":11900,"Ġimmigrants":11901,"colLast":11902,"Ġvillages":11903,"Duration":11904,"ĠGordon":11905,"Ġattr":11906,"Ġresponses":11907,"ĠUsing":11908,"READ":11909,"Ġemerging":11910,"Ġhasn":11911,"ĠLA":11912,"Ġemployer":11913,"FR":11914,"Ġdual":11915,"gorithms":11916,"hide":11917,"Ġpitch":11918,"ĠMission":11919,"BB":11920,"ĠSport":11921,"ĠMuslims":11922,"Mapping":11923,"Äį":11924,"ĠDak":11925,"Ġsubmit":11926,"ĠHistorical":11927,".~":11928,"tor":11929,"Ġenthus":11930,"ĠAndroid":11931,"Ġrespective":11932,"illery":11933,"ĠAlan":11934,"ĠTraining":11935,"Ġflags":11936,"Ġdisorder":11937,"flix":11938,"April":11939,"USE":11940,"protected":11941,"ĠMcG":11942,"Protocol":11943,"ĠEag":11944,"ĠPolitics":11945,"ĠMessage":11946,"ceive":11947,"ACT":11948,"ĠFarm":11949,"Ġbinary":11950,"rish":11951,"ĠBor":11952,"ĠMatthew":11953,"dialog":11954,"Ġplenty":11955,"construction":11956,"Ġlimitations":11957,"ĠLGBT":11958,"leans":11959,"Ġpersonality":11960,"Sur":11961,"Ġincredible":11962,"opol":11963,"Ġtransparent":11964,"ĠAdams":11965,"Ġinvestigate":11966,"Ġpairs":11967,"clude":11968,"Ġgiant":11969,"ĠIndependent":11970,"112":11971,"ĠLanka":11972,"Ġliquid":11973,"Ġweekly":11974,"Ġalgebra":11975,"]$":11976,"Ġproducers":11977,"ruby":11978,"abric":11979,"Ġsupplies":11980,"Ġinvestments":11981,"Short":11982,"picker":11983,"ĠJason":11984,"ĠSquad":11985,"ĠBrooklyn":11986,"emen":11987,"orname":11988,"razy":11989,"Category":11990,"aturally":11991,"eve":11992,"ĠBan":11993,"ĠChamber":11994,"Ġlegislative":11995,"orous":11996,"Ġlabels":11997,"ĠRefer":11998,"Cent":11999,"ĠÂ©":12000,"Ġannouncement":12001,"ĠVillage":12002,"Ġinaug":12003,"mc":12004,"\"><!--":12005,"Feb":12006,"symbol":12007,"Abstract":12008,"Ġtied":12009,"Ġcelebrate":12010,"ĠPed":12011,"tery":12012,"ĠDouglas":12013,"ĠNeed":12014,"approx":12015,"Ġsoil":12016,"ĠIE":12017,"tsburgh":12018,"Japan":12019,"iche":12020,"isely":12021,"Ġ>>":12022,"thodox":12023,"Ġmenu":12024,"enezuel":12025,"Ġcontents":12026,"XML":12027,"Ġbund":12028,"ĠHighway":12029,"inburgh":12030,"Ġcommander":12031,"Ġur":12032,"printf":12033,"Ġles":12034,"appy":12035,"Ġdisplayed":12036,"Ġxmlns":12037,"Ġwheel":12038,"issance":12039,"1912":12040,"Ġpassword":12041,"metadata":12042,"=\"$":12043,"ĠSin":12044,"1926":12045,"Ġraising":12046,"important":12047,"ĠTODO":12048,"Ġcurve":12049,"headers":12050,"Ġride":12051,"platform":12052,"Ġexclusive":12053,"ĠJosh":12054,"ĠBh":12055,"Ġbasically":12056,"letion":12057,"pur":12058,"Ġentrance":12059,"Grid":12060,"operatorname":12061,"colFirst":12062,"esis":12063,"ĠSenator":12064,"Ġcatalog":12065,"rama":12066,"oust":12067,"ĠMD":12068,"Ġcorruption":12069,"odge":12070,"handler":12071,"ĠBaltimore":12072,"lett":12073,"NT":12074,"orted":12075,"fare":12076,"ntil":12077,"ĠArmen":12078,"Ġconj":12079,"Ġsimultane":12080,"ĠGarden":12081,"Conn":12082,"ĠOsc":12083,"Ġaver":12084,"sch":12085,"Ġocean":12086,"ĠClimate":12087,"switch":12088,".-":12089,"Annot":12090,"jamin":12091,"Ġtotally":12092,"CM":12093,"ĠBit":12094,"JS":12095,"estyle":12096,"Ġrecommendations":12097,"Ġdisag":12098,"Labels":12099,"ĠCore":12100,"Ġphotographs":12101,"nil":12102,"Ġprize":12103,"ĠLuther":12104,"complete":12105,"Ġsynd":12106,"iors":12107,"Ġcolour":12108,"Ġdevelopments":12109,"ĠMas":12110,"iterator":12111,"Ġactivists":12112,"chart":12113,"ĠFive":12114,"allow":12115,"conn":12116,"ĠCooper":12117,"Ġdies":12118,"Ġagreements":12119,"Dest":12120,"ĠChile":12121,"LI":12122,"Ġmagic":12123,"Ġcompact":12124,"Ġcolleges":12125,"Product":12126,"Ġparticles":12127,"Also":12128,"ĠSamuel":12129,"Ġstrings":12130,"onz":12131,"âĢĭ":12132,"arest":12133,"views":12134,"lu":12135,"idx":12136,"Ġastron":12137,"SY":12138,"Ġnam":12139,"Ġaer":12140,"jud":12141,"was":12142,"onom":12143,"Ġfrust":12144,"Memory":12145,"Mer":12146,"Ġ{'":12147,"lict":12148,"Ġgate":12149,"ĠDVD":12150,"Ġmail":12151,"Ġdoi":12152,"ĠCircuit":12153,"agic":12154,"Ġpatent":12155,"Ġconsiderable":12156,"changed":12157,"Ġheaded":12158,"aughters":12159,"ĠTech":12160,"NotNull":12161,"ĠProm":12162,")+":12163,"ĠBE":12164,"Ġreq":12165,"LECT":12166,"Ġsigning":12167,"=(":12168,"Ġgoverning":12169,"ĠReact":12170,"Ġnotion":12171,"Ġ=======":12172,"Ġcoq":12173,"hire":12174,"ige":12175,"Ġstyles":12176,"Ġfiscal":12177,"Ġeverybody":12178,"Ġages":12179,"hour":12180,"Ġinteractions":12181,"Ġtheories":12182,"ajax":12183,"Ġconstraints":12184,"ĠArchived":12185,"Ġplate":12186,"Ġanywhere":12187,"omot":12188,"Ġthemes":12189,"Ġgarden":12190,"iology":12191,"Ġsignificance":12192,"German":12193,"140":12194,"ĠMother":12195,".\");":12196,"Ġtou":12197,"August":12198,"Ġconcentration":12199,"January":12200,"ĠHonor":12201,"nest":12202,"earing":12203,"3333":12204,"iverpool":12205,"miral":12206,"Pack":12207,"Ġfalling":12208,"ĠCra":12209,"ĠAdditionally":12210,"1923":12211,"Ġcomplicated":12212,"Ġhandling":12213,"Ġjoy":12214,"allclasses":12215,"Ġemerged":12216,"ĠPa":12217,"Enum":12218,"Ġreplacement":12219,"FIG":12220,"trigger":12221,"rupted":12222,"July":12223,"Ġpromoting":12224,"Ġexports":12225,"Ġinvasion":12226,"amaz":12227,"ĠTag":12228,"}+\\":12229,"Ġdeals":12230,"Phone":12231,"atial":12232,"Ġfunctional":12233,"ĠExchange":12234,"Ġkit":12235,"ĠSmall":12236,"Ġmeets":12237,"ĠFle":12238,"Ġconfer":12239,"Ġdebug":12240,"Ġveget":12241,"Ġequally":12242,"Ġformerly":12243,"127":12244,"Ġloyal":12245,"inces":12246,"Ġlowest":12247,"itis":12248,"rays":12249,"Ġweren":12250,"Ġstayed":12251,"Ġcorporation":12252,"ĠEconomics":12253,"kh":12254,"Ġrecru":12255,"Ġgrass":12256,"Ġsoccer":12257,"Ġinteract":12258,"ĠDid":12259,"ĠCommissioner":12260,"zy":12261,"Free":12262,"onomy":12263,"Ġunusual":12264,"Route":12265,"Ġhumanity":12266,"Ġcollapse":12267,"Super":12268,"Ġsampl":12269,"collapse":12270,"ĠAnnual":12271,"cycl":12272,"\"`":12273,"ĠPO":12274,"Ġbid":12275,"via":12276,"Ġversus":12277,"done":12278,"Ġgreatly":12279,"OUT":12280,"Ġdrag":12281,"ĠOriginal":12282,"~$":12283,"rock":12284,"owner":12285,"Ġpassengers":12286,"ĠNode":12287,"Ġcolonial":12288,"ĠBruce":12289,"Bre":12290,"ĠThompson":12291,"ĠImages":12292,"ymn":12293,"Ġ$.":12294,"ĠHIV":12295,"Ġscenario":12296,"Ġrenamed":12297,"inch":12298,"Ġtries":12299,"Ġappend":12300,"Ġpersonally":12301,"apsed":12302,"ĠNAME":12303,"Ġwidespread":12304,"Ġverify":12305,"105":12306,"ĠBlock":12307,"athered":12308,"ĠMess":12309,"Ġhistorian":12310,"ãĢ":12311,"ĠCow":12312,"ĠNature":12313,"ugg":12314,"ĠBeng":12315,"ĠIndeed":12316,"ariant":12317,"maven":12318,"components":12319,"hl":12320,"BAR":12321,"large":12322,"STAT":12323,"oton":12324,"Ms":12325,"åı":12326,"ĠØ":12327,"Ġmanip":12328,"ĠSimilar":12329,"Ġtrains":12330,"Ġinhabit":12331,"tmp":12332,"Ġbeliefs":12333,"ikh":12334,"Ġfemales":12335,"aton":12336,"ĠThank":12337,"Ġthreatened":12338,"ĠAndre":12339,"ĠOrchestra":12340,"Ġfeelings":12341,"Figure":12342,"ĠPear":12343,"Attributes":12344,"layer":12345,"Pi":12346,"Ġturb":12347,"[$":12348,"Ġpassage":12349,"Ġcapabilities":12350,"Ġpossession":12351,"vs":12352,"Summary":12353,".),":12354,"Ġpermit":12355,"square":12356,"Ġ],":12357,"uates":12358,"cdn":12359,"ntax":12360,"Ġfault":12361,"Ġstronger":12362,"Ġsectors":12363,"ĠLeban":12364,"ĠSafety":12365,"typedef":12366,"Ġpolar":12367,"900":12368,"Auto":12369,"wen":12370,"ĠHoll":12371,"opes":12372,"getName":12373,"ĠLab":12374,"à¥":12375,"Ġviolation":12376,"Ã¼r":12377,"ĠEdition":12378,"Ġdisaster":12379,"looking":12380,"Ġhate":12381,"ulp":12382,"mathsf":12383,"Children":12384,"Association":12385,"ounced":12386,"Ġresponded":12387,"ĠApplication":12388,"Ġglob":12389,"ĠMarshall":12390,"ĠVegas":12391,"Ġtrace":12392,"Ġcitizen":12393,"NULL":12394,"blue":12395,"iere":12396,"Ġfails":12397,"Ġfocusing":12398,"iva":12399,"roph":12400,"ĠHope":12401,"ĠResponse":12402,"December":12403,"Opt":12404,"ĠWright":12405,"Ġnegotiations":12406,"quiry":12407,"props":12408,"omas":12409,"ĠMand":12410,"icing":12411,"Ġreserve":12412,"Dan":12413,"------------":12414,"Ġdeclined":12415,"ĠRace":12416,"ĠJos":12417,"elihood":12418,"Ġintervention":12419,"Ġtranslated":12420,"Ġconstantly":12421,"ĠBaseball":12422,"ĠWAR":12423,"Failed":12424,"Register":12425,"Ġparticle":12426,"Ġwindows":12427,"Ð¼":12428,"Ġdesigns":12429,"imm":12430,"Ġconcepts":12431,"Ġwider":12432,"Ġpushed":12433,"Ġhat":12434,"Ġreplic":12435,"filename":12436,"rapped":12437,"Ġcref":12438,"Scroll":12439,"Ġlake":12440,"exists":12441,"ometric":12442,"Ġtech":12443,"Ġtouchdown":12444,"isan":12445,"ĠSac":12446,"Ġlayers":12447,"Ġbon":12448,"Ġoverwhel":12449,"Ġlocally":12450,"Ġtypeof":12451,"Users":12452,";)":12453,"ĠFranklin":12454,"cussion":12455,"Ġthrown":12456,"ĠGets":12457,"ĠJunior":12458,"contains":12459,"ĠBrun":12460,"ĠSS":12461,"Ġpaths":12462,"builder":12463,"Ġelder":12464,"Ġgrants":12465,"ĠCleveland":12466,"Character":12467,"Ġcooper":12468,"Ġanswers":12469,"ĠTreas":12470,"Ġputs":12471,"Ġintegral":12472,"Ġaccompanied":12473,"Ġconversion":12474,"ĠOrleans":12475,"ĠSep":12476,"aman":12477,"Ġworry":12478,"uese":12479,"oped":12480,"Ġderiv":12481,"102":12482,"ĠHills":12483,"Ġconsisting":12484,"Ġlogic":12485,"ĠCrime":12486,"ĠBanglades":12487,"ĠAnalysis":12488,"ĠAntonio":12489,"Ġinclusion":12490,"Ġbirds":12491,"ĠZh":12492,"SQL":12493,"Ñĭ":12494,"Ġedited":12495,"sol":12496,"Ġweapon":12497,"Keys":12498,"iative":12499,"1913":12500,"ĠCemetery":12501,"ĠTelevision":12502,"ibbean":12503,"Ġwond":12504,"Ġrefugees":12505,"accept":12506,"Ġdesired":12507,"iliation":12508,"Transport":12509,"Ġimprison":12510,"neq":12511,"detail":12512,"Ġmomentum":12513,"Ġreign":12514,"ospel":12515,"edded":12516,"ĠBeck":12517,"(__":12518,"Ġsurviv":12519,"Ġpermitted":12520,"Ġoperational":12521,"BL":12522,"decl":12523,"Ġdowntown":12524,"Ġexecute":12525,"Ġentrepreneur":12526,"ĠSel":12527,"reset":12528,"orer":12529,"ĠLegal":12530,"Profess":12531,"ÃŃa":12532,"azy":12533,"Ġliterally":12534,"Ġdeemed":12535,"notes":12536,"ĠSex":12537,"Tele":12538,"Ġobservation":12539,"Ġcondem":12540,"ubble":12541,"Ġcov":12542,"Ġnormally":12543,"ethe":12544,"Ġguidelines":12545,"Ġaccum":12546,"initial":12547,"ĠCommunications":12548,"ADD":12549,"ĠĠĠĠĠĠĠĠĠĠĠĠĠĠĠĠĠĠĠĠĠĠĠĠĠĠĠĠ":12550,"Ġdat":12551,"ĠProduct":12552,"orse":12553,"Europe":12554,":\\":12555,"Ġfeedback":12556,"Ġdefensive":12557,"clusions":12558,"Ġcommissioned":12559,"Ġoperates":12560,"Ġreveals":12561,"French":12562,"stal":12563,"HP":12564,"ĠFer":12565,"Ġexpenses":12566,"Initial":12567,"rin":12568,"aping":12569,"ĠAbd":12570,"Ġliability":12571,"moz":12572,"RES":12573,"Comment":12574,"wrapper":12575,"lon":12576,"usters":12577,"Family":12578,"Ġip":12579,"Ġagenda":12580,"Ġcomplaint":12581,"Ġcyber":12582,"Ġ\",":12583,"Ġmapping":12584,"Ġvaccines":12585,"ĠCommons":12586,"Ġroutes":12587,"owned":12588,"some":12589,"Ġhook":12590,"itudes":12591,"ĠLam":12592,"Ġdependent":12593,"Ġincorporated":12594,"ĠYan":12595,"ĠKu":12596,"Ġcharity":12597,"rik":12598,"Ġplaintiff":12599,"Ġconvicted":12600,"ĠChristianity":12601,"bes":12602,"Ġrugby":12603,"Ġislands":12604,"services":12605,"Ġwine":12606,"ĠHamp":12607,"story":12608,"ĠFind":12609,"ÏĦ":12610,"Remove":12611,"Ġtherm":12612,"ĠCole":12613,"hattan":12614,"Ġmemorial":12615,"Ġtoler":12616,"series":12617,"Ġpars":12618,"Ġcuts":12619,"Fore":12620,"Ġaside":12621,"Ġpulled":12622,"itemize":12623,"Ġ).":12624,"ĉĉĉĉĉĉĉĉĉ":12625,"ounce":12626,"Ġcompute":12627,"Ġlicensed":12628,"shared":12629,"Div":12630,"OC":12631,"Ġassumption":12632,"ĠBeijing":12633,"ĠLimited":12634,"ĠTa":12635,"generated":12636,"Ġwatched":12637,"illiant":12638,"Ġmart":12639,"Capt":12640,"Ġbare":12641,"ĠRobinson":12642,"Ġnoble":12643,"ookie":12644,"definition":12645,"Ġagriculture":12646,"Ġcha":12647,"Ġminimal":12648,"October":12649,"Ġobst":12650,"ouver":12651,"1911":12652,"Ġtargeted":12653,"alm":12654,"Ġhole":12655,"Ġfruit":12656,"rainian":12657,"Ġknock":12658,"ĠDue":12659,"ĠPuerto":12660,"Ġopera":12661,"Ġproven":12662,"Ġ{{":12663,"apos":12664,"Ġtx":12665,"Ġbuck":12666,"_(":12667,"Ġpassenger":12668,"Cre":12669,"ĠAle":12670,"ĠShould":12671,"details":12672,"parameters":12673,"Ġdesigner":12674,"Ġfragment":12675,"Ġpopularity":12676,"attributes":12677,"ĠIndustry":12678,"raham":12679,"Ġrely":12680,"Ġdefence":12681,"ĠMars":12682,"]\\":12683,"Mut":12684,"users":12685,"Ġpreferred":12686,"umph":12687,"ANT":12688,"()</":12689,"ĠAdvent":12690,"paren":12691,"entle":12692,"ĠBetween":12693,"gb":12694,"ĠIndonesia":12695,"Ġobl":12696,"$_":12697,"Ġslowly":12698,"->_":12699,"Ġtestim":12700,"Ġcredits":12701,"aro":12702,"brand":12703,"orses":12704,"Ġdepression":12705,"sters":12706,"ĠBachelor":12707,"eval":12708,"Ġcharts":12709,"UST":12710,"ĠCarter":12711,"ĠHash":12712,"Parse":12713,"vspace":12714,"Ġsituated":12715,"ĠEdinburgh":12716,"Ġplain":12717,"Player":12718,"ĠRequest":12719,"pair":12720,"ĠAlber":12721,"ĠViol":12722,"GC":12723,"esian":12724,"ĠMunic":12725,".:":12726,"Ġhypothes":12727,"Ġreact":12728,"Install":12729,"signature":12730,"Ġapartment":12731,"Ġcontrad":12732,"zed":12733,"sets":12734,"Ġbriefly":12735,"Ġwelfare":12736,"enumerate":12737,"lined":12738,"Ġboundaries":12739,"ĠNash":12740,"ĠVo":12741,"ĠBelgium":12742,"bytes":12743,"UC":12744,"Prior":12745,"Ġjunior":12746,"Statement":12747,"ogue":12748,"Ġphotography":12749,"oli":12750,"Repository":12751,"Ġimpacts":12752,"works":12753,"login":12754,"ĠHave":12755,"Ġearliest":12756,"Ġworship":12757,"Ġignored":12758,"Ġadaptation":12759,"Ġdating":12760,"ĠLiving":12761,"Ġbegun":12762,"Ġperpet":12763,"Ġarbitrary":12764,"Ġstrange":12765,"Ġresign":12766,"ividual":12767,"ĠBull":12768,"Ġsessions":12769,"Ġbold":12770,"Ġreverse":12771,"ĠWorks":12772,"Ġphotographer":12773,"unning":12774,"Ġremarkable":12775,"issues":12776,"ĠVeter":12777,"Ġevaluate":12778,"ĠNelson":12779,"Ġedges":12780,"Health":12781,"Ġoccupation":12782,"Ġvertex":12783,"Ġcontroversial":12784,"ĠAlbum":12785,"ĠArgentina":12786,"Ġdir":12787,"acks":12788,"Ġopens":12789,"etween":12790,"SM":12791,"Ġinfluential":12792,"Ġtennis":12793,"Ġdimensions":12794,"Ġfishing":12795,"Ġapplying":12796,"Collections":12797,"Ġexplicitly":12798,"Ġscatter":12799,"Plan":12800,"VP":12801,"Ġdispute":12802,"Ġadminister":12803,"$}":12804,"Ġfest":12805,"ĠHence":12806,"bing":12807,"icians":12808,"ifting":12809,"ĠExpress":12810,"Ġclock":12811,"Help":12812,"rb":12813,"orious":12814,"ictional":12815,"ĠBuddh":12816,"ĠTrack":12817,"geon":12818,"rank":12819,"Ġimposed":12820,"ĠJonathan":12821,"ĠjQuery":12822,"ĠLearning":12823,"ĠKings":12824,"Tax":12825,"Ġties":12826,"<!":12827,"ateur":12828,"Ġstadium":12829,"prefix":12830,"olt":12831,"Ġsurprised":12832,"Ġuncertainty":12833,"Layer":12834,"}-\\":12835,"ĠPalace":12836,"ĠBuff":12837,"Ġdisability":12838,"FE":12839,"Ġmainstream":12840,"Ġsoph":12841,"Sequ":12842,"rooms":12843,"ĠMaine":12844,"ĠCommunist":12845,"Ġcolors":12846,"ĠMagn":12847,"Ġcrypt":12848,"BUG":12849,"Ġhosts":12850,"usted":12851,"ĠTake":12852,"ĠKaz":12853,"Ġmales":12854,"asant":12855,"Coll":12856,"Ġvelocity":12857,"Ġannot":12858,"iatric":12859,"Ġprefix":12860,"104":12861,"Func":12862,"Ġabortion":12863,"Ġtwelve":12864,"ĠStewart":12865,"Ġskill":12866,"Through":12867,"Ġneighb":12868,"Ġstating":12869,"ĠRound":12870,"Ġactivist":12871,"hspace":12872,"tbody":12873,"ARD":12874,"ĠAlb":12875,"tw":12876,"Ġbronze":12877,"Ben":12878,"Ġpointer":12879,"}}{\\":12880,"ĠStudios":12881,"ĠFBI":12882,"Ġloans":12883,"Ġmemories":12884,"ectors":12885,"Ġmanuscript":12886,"Ġcoinc":12887,"Ġmetadata":12888,"ĠWithout":12889,"Attr":12890,"vironments":12891,"Ġborrow":12892,"izon":12893,"Ġguarantee":12894,"ashes":12895,"cn":12896,"Ġspoken":12897,"ĠDoes":12898,"wildfly":12899,"Agent":12900,"Ġpossess":12901,"Ġinspiration":12902,"ĠMedic":12903,"ĠAnna":12904,"Ġdramatic":12905,"350":12906,"ĠDrug":12907,"Ġemployers":12908,"ĠĠĠĠĠĠĠĠĠĠĠĠĠĠĠĠĠĠĠĠĠĠĠĠĠĠĠĠĠĠĠĠĠĠĠĠĠĠĠĠĠĠĠĠĠĠĠĠĠĠĠĠĠĠĠĠĠĠĠĠĠĠĠĠ":12909,"numerus":12910,"360":12911,"numerusform":12912,"Ġsust":12913,"tags":12914,"shadow":12915,"ĠNCAA":12916,"ibliography":12917,"video":12918,"Ġwarrant":12919,"theorem":12920,"Socket":12921,"\"|":12922,"fixed":12923,"Ġcurrency":12924,"umps":12925,"ĠEarl":12926,"Ġgolf":12927,"Simple":12928,"Ġdoors":12929,"ulse":12930,"ĠMovement":12931,"oga":12932,"olves":12933,"Trace":12934,"Ġreveal":12935,"Ġrestaurants":12936,"Ġfriendly":12937,"mate":12938,"ousing":12939,"ĠBenn":12940,"September":12941,"ĠUI":12942,"ĠCP":12943,"iot":12944,"picture":12945,"ĠBart":12946,"irates":12947,"multicol":12948,"Stand":12949,"eras":12950,"103":12951,"ĠBillboard":12952,"ĠLiberal":12953,"theme":12954,"ynom":12955,"ynasty":12956,"Ġgenu":12957,"OB":12958,"ĠDog":12959,"Film":12960,"olph":12961,"Ġouter":12962,"Ġegg":12963,"rev":12964,"ĠPublishing":12965,"Ġcrack":12966,"ĠOperation":12967,"Ġtrends":12968,"Ġadapted":12969,"Den":12970,"Please":12971,"ĠWorth":12972,"Because":12973,"viously":12974,"Ġannually":12975,"Ġease":12976,"Ġmanifest":12977,"eva":12978,"Ġauthorized":12979,"amer":12980,"gba":12981,"Ġsensitive":12982,"HA":12983,"San":12984,"mutable":12985,"Ġimprovements":12986,"vy":12987,"Ġexpatriate":12988,"swarm":12989,"eyond":12990,"noindent":12991,"ĠWhether":12992,"Ġqueue":12993,"Ġbinding":12994,"minus":12995,"written":12996,"Ġanimated":12997,"ĠDisc":12998,"Variable":12999,"feature":13000,"etition":13001,"Final":13002,"ĠArabia":13003,"Mal":13004,"oni":13005,"othy":13006,"ĠNeg":13007,"ĠKath":13008,"ĠPlayer":13009,"Ġrear":13010,"Robert":13011,"Ġcomplexity":13012,"Tx":13013,"Ġunlikely":13014,"Ġtank":13015,"icity":13016,"Email":13017,"Ġinvolve":13018,"ĠMargaret":13019,"Ġclar":13020,"Ġconstructor":13021,"ĠMovie":13022,"ĠDise":13023,"('.":13024,"inx":13025,"Area":13026,"ĠABC":13027,"Rob":13028,"multicolumn":13029,"ĠVenezuel":13030,"\\'":13031,"Ġlawsuit":13032,"jango":13033,"Sing":13034,"assembly":13035,"Ã¥":13036,"Ġrobust":13037,"Sources":13038,"izers":13039,"ĠMort":13040,"Ġmarine":13041,"assandra":13042,"Ġpreparation":13043,"Password":13044,"Ġlaugh":13045,"Ġhide":13046,"utical":13047,"Region":13048,"Ġbrands":13049,"jack":13050,"Ġfleet":13051,"Ġthirty":13052,"Ġdisk":13053,"Ġrelax":13054,"Ġneighbour":13055,"Ġbusy":13056,"errors":13057,"ĠForum":13058,"Ġham":13059,"Song":13060,"Ġ{\"":13061,"111":13062,"ĠNag":13063,"ellar":13064,"Ġliked":13065,"Â©":13066,"mask":13067,"Ġobserve":13068,"November":13069,"ĠGary":13070,"ĠIOException":13071,"amous":13072,"ysical":13073,"ITION":13074,"Ġborders":13075,"Born":13076,"ĠPeters":13077,"Ġdated":13078,"Ġtrail":13079,"ĠTerrit":13080,"cia":13081,"Ġattending":13082,"Ġdisput":13083,"FP":13084,"ĠDa":13085,"agers":13086,"itivity":13087,"urricane":13088,"1890":13089,"achel":13090,"Ep":13091,"PROJECT":13092,"Ġsurn":13093,"Ġsubstance":13094,".<":13095,"checked":13096,"Ġ\"-":13097,"Cur":13098,"rating":13099,"Ġmo":13100,"Ġreceives":13101,"ĠCrown":13102,"uy":13103,"Ġcutting":13104,"Ġlessons":13105,"panic":13106,"ĠRule":13107,"Ġnamely":13108,"Ġparticipating":13109,"ĠDenmark":13110,"ĠSwiss":13111,"svg":13112,"Ġtemperatures":13113,"Ġfunny":13114,"dale":13115,"stage":13116,"formed":13117,"Ġcongress":13118,"ancouver":13119,"gems":13120,"Ġske":13121,"Ġlang":13122,"ĠCredit":13123,"Ġmemor":13124,"ĠBapt":13125,"social":13126,"Ġdetermination":13127,"Ġuncon":13128,"ĠCampbell":13129,"cosystem":13130,"Ġexamination":13131,"ania":13132,"Ġeconomics":13133,"CRE":13134,"Ġdeliber":13135,"Ġsovere":13136,"ĠSept":13137,"Ġranks":13138,"Alex":13139,"ogram":13140,"oming":13141,"days":13142,"ĠLiverpool":13143,"ĠCensus":13144,"twitter":13145,"Ġsuddenly":13146,"Ġinfer":13147,"Ġrum":13148,"ĠGiven":13149,"itime":13150,"Ġpref":13151,"Ġactively":13152,"Ġrescue":13153,"Role":13154,"Ġarchae":13155,"ĠBrothers":13156,"Ġmeters":13157,"Ġlogger":13158,"118":13159,"ĠWoman":13160,"Pointer":13161,"human":13162,"cca":13163,"ĠBou":13164,"Ġconventional":13165,"ATO":13166,"execute":13167,"ĠTalk":13168,"Ġdifficulty":13169,"Ġdescribing":13170,"eda":13171,"{{\\":13172,"ĠGraham":13173,"ĠFried":13174,"Wrapper":13175,"riculum":13176,"team":13177,"ĠHell":13178,"Ġpreserve":13179,"ĠOS":13180,"ĠCommander":13181,"ĠMichel":13182,"Your":13183,"Ġpipeline":13184,"Ġtheorem":13185,"1908":13186,"springframework":13187,"inite":13188,"Ġemphasis":13189,"ĠIron":13190,"Ġdesert":13191,"Ġsatisfied":13192,"Ġheaders":13193,"ĠVolume":13194,"Ġmachines":13195,"ĠNik":13196,"Ġveteran":13197,"ĠNazi":13198,"ĠArchives":13199,"ĠEmperor":13200,"efe":13201,"protocol":13202,"enson":13203,"Ġproduces":13204,"116":13205,"ĠTownship":13206,"Ġgross":13207,"Ġcalendar":13208,"flag":13209,"Compar":13210,"kee":13211,"Ġsizeof":13212,"ĠMorris":13213,"Ġcircuit":13214,"condition":13215,"ORY":13216,"ĠFROM":13217,"prev":13218,"erving":13219,"ĠLcom":13220,"ducer":13221,"Ġbeach":13222,"Ġmeasurements":13223,"Sync":13224,"imental":13225,"Ġflows":13226,"ailand":13227,"may":13228,"Ġfraction":13229,"Î¹":13230,"oenix":13231,"Copyright":13232,"Ġdecrease":13233,"Ġfake":13234,"rena":13235,"ĠRoger":13236,"Ġjudicial":13237,"ĠNeb":13238,"quer":13239,"Sen":13240,"ĠPublished":13241,"ĠPittsburgh":13242,"ĠFil":13243,"oda":13244,"ĠIndians":13245,"Lin":13246,"Ġdrinking":13247,"Nodes":13248,"yg":13249,")}{":13250,"ĠDance":13251,"ĠCaribbean":13252,"ĠðŁ":13253,"Ġbom":13254,"Ġtox":13255,"building":13256,"Est":13257,"Resources":13258,"Constra":13259,"Ġbrown":13260,"Ġmeta":13261,"Ġadjacent":13262,"Ġinterval":13263,"Ġterrorist":13264,"Ġwalked":13265,"ĠLang":13266,"apters":13267,"Former":13268,"Ġallegations":13269,"resources":13270,"Ġbiological":13271,"ÙĦ":13272,"ĠManhattan":13273,"yll":13274,"Ġfoss":13275,"owski":13276,"Ġexped":13277,"URI":13278,"ĠPatri":13279,"Ġdominant":13280,"Ġsubsidi":13281,"ĠIranian":13282,"ĠHTTP":13283,"ĠPast":13284,"Ġreportedly":13285,"bus":13286,"Ġ\"<":13287,"Ġexisted":13288,"listed":13289,"ĠIntelligence":13290,"Stop":13291,"=\"${":13292,"Ġbreath":13293,"ĠDelhi":13294,"Ġbirthday":13295,"Selection":13296,"ĠKam":13297,"Ġlifetime":13298,"avel":13299,"xhtml":13300,"Ãł":13301,"ĠBY":13302,"áĥ":13303,"({\\":13304,"Ġgovernance":13305,"Ġclim":13306,"ĠOperations":13307,"tains":13308,"ĠArkansas":13309,"nia":13310,"ĠCharlie":13311,"iteral":13312,"ti":13313,"Ġscholarship":13314,"Ġpriest":13315,"ĠHungary":13316,"}\\,":13317,"Single":13318,"ĠĠĠĠĠĠĠĠĠĠĠĠĠĠĠĠĠĠĠĠĠĠĠĠĠĠĠĠĠĠĠĠĠĠĠĠĠĠĠĠĠĠĠ":13319,"Ġthinks":13320,"Ġenorm":13321,"ĠSyrian":13322,"Ġestablishing":13323,"Ġmonthly":13324,"texttt":13325,"Ġ?>":13326,"Ġdevast":13327,"Make":13328,"Ġmeasurement":13329,"Ġtexts":13330,"Hon":13331,"Ġmaintaining":13332,"/_":13333,"half":13334,"Ġpublish":13335,"Ġamongst":13336,"Ġdisturb":13337,"former":13338,"ocese":13339,"fd":13340,"vised":13341,"expect":13342,"ĠMalaysia":13343,"ĠBaker":13344,"Ġindigenous":13345,")}$":13346,"ĠCancer":13347,"Ġui":13348,"Ġrestricted":13349,"ifferent":13350,"username":13351,"oment":13352,"Ġinsight":13353,"Ġrecipient":13354,"ĠDublin":13355,"Cloud":13356,"good":13357,"best":13358,"amps":13359,"borough":13360,"Ġreads":13361,"rous":13362,"VM":13363,"ĠCultural":13364,"Mill":13365,"redited":13366,"?>":13367,"Ġreleases":13368,"Ġsurvival":13369,"Ġdevelopers":13370,"Ġsurrounded":13371,"Headers":13372,"ĠPlant":13373,"Ġanalyst":13374,"Ġdeter":13375,"TIME":13376,"opter":13377,"Ġcultures":13378,"Ġessay":13379,"Ġunw":13380,"aceutical":13381,"ĠLic":13382,"Ġaudiences":13383,"Ġpainter":13384,"random":13385,"Ġensuring":13386,"rieve":13387,"Ġproportion":13388,"ĠML":13389,"Ġvoices":13390,"Ġneutral":13391,"Ġcust":13392,"ĠBangladesh":13393,"eding":13394,"uda":13395,"ĠĠĠĠĠĠĠĠĠĠĠĠĠĠĠĠĠĠĠĠĠĠĠĠĠĠ":13396,"ĠSn":13397,"Ġinfl":13398,"ĠDecl":13399,"ĠMaybe":13400,"Ġalgorithms":13401,"Ġcarefully":13402,"Ġlistener":13403,"Ġtom":13404,"Ġasc":13405,"Ġjail":13406,"Ġblow":13407,"LINE":13408,"colon":13409,"ALSE":13410,"Ġclassified":13411,"Ġfantasy":13412,"cases":13413,"Ġticket":13414,"diff":13415,"ĠMoroc":13416,"acre":13417,"ierarchy":13418,"ĠRu":13419,"Import":13420,"zo":13421,"ĠHttp":13422,"ĠCloud":13423,"Ġclaiming":13424,"Math":13425,"special":13426,"ĠOpera":13427,"ĠWard":13428,"Ġtum":13429,"Ġnewspapers":13430,"brief":13431,"Ġcoffee":13432,"Ġconvention":13433,"Ġevident":13434,"ummy":13435,"Generator":13436,"istr":13437,"imated":13438,"Ġtur":13439,"orry":13440,"ĠPap":13441,"ĠPortugal":13442,"Ġoptimal":13443,"ĠQuebec":13444,"anean":13445,"Published":13446,"igion":13447,"Ġpseud":13448,"ĠĠĠĠĠĠĠĠĠĠĠĠĠĠĠĠĊ":13449,"NG":13450,"POST":13451,"raid":13452,"Ġenact":13453,"clean":13454,"pert":13455,"ĠGirls":13456,"irmingham":13457,"junit":13458,"Ġcomplement":13459,"Ġattitude":13460,"Ġmile":13461,"Ġaccounting":13462,"ĠCert":13463,"Ġpursuant":13464,"ĠBroadway":13465,"Äĥ":13466,"\\}$":13467,"integ":13468,"ĠĠĠĠĠĠĠĠĠĠĠĠĠĠĠĠĠĠĠĠĠĠĠĠĠĠĠĠĠ":13469,"Ġrecre":13470,"ÐµÐ½":13471,"Admin":13472,"ĠDeep":13473,"Ġexclus":13474,"Ġproposals":13475,"Ġexpanding":13476,"ters":13477,"bn":13478,"unique":13479,"books":13480,"Ġintersection":13481,"Î½":13482,"spot":13483,"Ġbanking":13484,"HC":13485,"Ġrequiring":13486,"Ġinnoc":13487,"shal":13488,"plane":13489,"Ġdifficulties":13490,"ĠMarx":13491,"Release":13492,"ĠÐ¿":13493,"TT":13494,"SN":13495,"rose":13496,"Ġportfolio":13497,"ĠTitle":13498,"Ġdelight":13499,"OF":13500,"Ġsuperior":13501,"emor":13502,"Ġcampaigns":13503,"Ġgall":13504,"QU":13505,"Ġrows":13506,"Ġrarely":13507,"urse":13508,"mouth":13509,"TEXT":13510,"Ġdiagram":13511,"ĠQueensland":13512,"Ġloaded":13513,"indexOf":13514,"citet":13515,"ĠKnight":13516,"Private":13517,"Ġ-\\":13518,"Environment":13519,"ĠMaur":13520,"Ġunexpected":13521,"Ġnick":13522,"EEEE":13523,"Ġadoption":13524,"Bean":13525,"ĠDal":13526,"Ġcogn":13527,"Ġbits":13528,"ĠDakota":13529,"Ġquad":13530,"ivan":13531,"Ġpron":13532,"ĠMeg":13533,"Ġspeaker":13534,"Ġarc":13535,"(--":13536,"Ġreliable":13537,"Ġimplications":13538,"aligned":13539,"Ġdeputy":13540,"Ġcoalition":13541,"ĠBus":13542,"ĠStatus":13543,"Ġempower":13544,"ĠInstagram":13545,"ĠTheater":13546,"Ġcomfortable":13547,"Ġ\\|":13548,"Prefix":13549,"ĠUrban":13550,"Ġassass":13551,"ĠOwn":13552,"Card":13553,"Ġopinions":13554,"Ġax":13555,"Ġrevers":13556,"library":13557,"ĠCuba":13558,"utter":13559,"ĠGill":13560,"...</":13561,"Ġcompeting":13562,"estone":13563,"Ġsizes":13564,"Constants":13565,"Ġharass":13566,"azines":13567,"Ġprest":13568,"IDS":13569,"Ġsuspended":13570,"Ġpsychological":13571,"___":13572,"Ġprecisely":13573,"{$":13574,"Ġracism":13575,"Ġthorough":13576,"Ġkeyboard":13577,"extension":13578,"Ġsatellite":13579,"Ġvisits":13580,"Ġincent":13581,"Ġarrangements":13582,"ĠMaj":13583,"Ġunlike":13584,"Olymp":13585,"}}_":13586,"Ġspecify":13587,"there":13588,"ĠSingh":13589,"Ð°Ð½":13590,"Ġmigration":13591,"Ġobligations":13592,"FORM":13593,"Ġboss":13594,"animation":13595,"ovak":13596,"Ġvolunteers":13597,"ĠGre":13598,"Ġshots":13599,"Ġinstructions":13600,"CTYPE":13601,"Ġbias":13602,"Old":13603,"annon":13604,"storage":13605,"akespe":13606,"Ġkeeps":13607,"Ġhurt":13608,"aments":13609,"ateful":13610,"Hz":13611,"Ġ_{":13612,"ambig":13613,"pu":13614,"Ġgathered":13615,"Ġventure":13616,"Ġengines":13617,"Ġasks":13618,"ĠMarie":13619,"ĠFisher":13620,"stud":13621,"idel":13622,"Ġ'<":13623,"scss":13624,"Ġdrums":13625,"ĠKit":13626,"aco":13627,"spiracy":13628,"Ġextraordinary":13629,"href":13630,"ught":13631,"collection":13632,"ĠAndy":13633,"hips":13634,"Ġaccomp":13635,"Ġepid":13636,"required":13637,"hentication":13638,"ĠComputer":13639,"Canadian":13640,"science":13641,"alytics":13642,"ĠNep":13643,"Ġsentenced":13644,"sym":13645,"ĠNorwegian":13646,"Pal":13647,"Ġhell":13648,"ĠBenjamin":13649,"Ġseeks":13650,"Ġphrase":13651,"Ġfrequent":13652,"brew":13653,"rift":13654,"ĠInv":13655,"Ġpace":13656,"Ġtrem":13657,"once":13658,"107":13659,"Ġunemployment":13660,"Ġcounties":13661,"ivial":13662,"olo":13663,"Visible":13664,"Ġpredicted":13665,"Finally":13666,"inar":13667,"ĠChampions":13668,"ĠLeft":13669,"specific":13670,"ĠFight":13671,"ĠFel":13672,"Ġparking":13673,"Ġstretch":13674,"Ġsed":13675,"Ġsupplied":13676,"ĠWelsh":13677,"Ġ[\"":13678,"Ġexpon":13679,"ĠJuan":13680,"CG":13681,"arse":13682,"Ġappearing":13683,"igs":13684,"Ġintense":13685,"ĠLad":13686,"Ġromantic":13687,"Ġministry":13688,"ĠWarren":13689,"Ġpending":13690,"enti":13691,"ĠFaculty":13692,"Green":13693,"Ġradiation":13694,"ĠSteven":13695,"Ġasp":13696,"Ġbrilliant":13697,"rape":13698,"Ġdeclaration":13699,"Ġhoping":13700,"Multi":13701,"Ġamendment":13702,"Identifier":13703,"ĠVar":13704,"Master":13705,"Ġdevoted":13706,"eton":13707,"ĠPil":13708,"EP":13709,"enable":13710,"MODULE":13711,"bg":13712,"Ġcharset":13713,"ĠCapitol":13714,"avery":13715,"Ġwounded":13716,"rection":13717,"quest":13718,"ĠBoys":13719,"Ġcomed":13720,"Ġhighway":13721,"'$":13722,"dig":13723,"ĠRub":13724,"ĠTravel":13725,"Ġindicating":13726,"Ġstructural":13727,"Mus":13728,"Ġisolated":13729,"ĠRoom":13730,"Ġtraditions":13731,"nan":13732,"Ġradius":13733,"Ġconsequence":13734,"Ġguests":13735,"Ġmechanisms":13736,"Program":13737,"Ġtheoretical":13738,"Biography":13739,"ĠMitchell":13740,"Wallet":13741,"acles":13742,"Ġnoticed":13743,"Ġdamaged":13744,"osopher":13745,"ĠUl":13746,"Ġwake":13747,"ĠFern":13748,"cient":13749,"rage":13750,"Ġrecordings":13751,"Ġcomputing":13752,"ilateral":13753,"proxy":13754,"INS":13755,"Ġcelebration":13756,"illance":13757,"ĠTower":13758,"ptic":13759,"ĠLOG":13760,"ivic":13761,"Ġtemp":13762,"Generated":13763,"Ġrestore":13764,"ĠLLC":13765,"Ġlikes":13766,"Ġreflected":13767,"}},":13768,"ĠProtest":13769,"Registry":13770,"idal":13771,"Ġshouldn":13772,"Ã©t":13773,"anne":13774,"ĠNevada":13775,"Tom":13776,"Ġhip":13777,"backs":13778,"Ġmountains":13779,"iginally":13780,"ĠLl":13781,"sys":13782,"rative":13783,"subseteq":13784,"Ġexploration":13785,"ĠPerformance":13786,"Ġnaturally":13787,"println":13788,"Skip":13789,"din":13790,"iterr":13791,"oi":13792,"las":13793,"ĠSeveral":13794,"ATED":13795,"dependent":13796,"ĠSelf":13797,"Good":13798,"akespeare":13799,"esy":13800,"Ġkingdom":13801,"ĠLieutenant":13802,"Domain":13803,"Ġvolumes":13804,"ĠFinn":13805,"ounding":13806,"ĠLanc":13807,"job":13808,"1905":13809,"DOCTYPE":13810,"ensing":13811,"Ġplastic":13812,"Ġdaughters":13813,"ĠThings":13814,"Ġshopping":13815,"Ġallies":13816,"ĠVari":13817,"Ġcoordinates":13818,"ĠCarn":13819,"ĠArn":13820,"route":13821,"invalid":13822,"ĠNASA":13823,"Ġreson":13824,"owell":13825,"Ġbranches":13826,"COMP":13827,"Ġbott":13828,"living":13829,"PY":13830,"Ġwage":13831,"Props":13832,"ĠObserv":13833,"Ġtourism":13834,"Ø±":13835,"Ġbattery":13836,"groups":13837,"ĉĠĠĠĠĠĠĠ":13838,"Mart":13839,"ĠTheory":13840,"ĠCR":13841,"Ġdivisions":13842,"Using":13843,"Ġconsolid":13844,"Ġstick":13845,"Ġyesterday":13846,"oned":13847,"ĠWord":13848,"song":13849,")->":13850,"Uri":13851,"Ġmd":13852,"Ġcasual":13853,"ĠLag":13854,"emon":13855,"Îµ":13856,"ĠWayne":13857,"ĠHad":13858,"China":13859,"para":13860,"ĠAlice":13861,".).":13862,"ĠStore":13863,"heastern":13864,"ĠHend":13865,"Ġjournals":13866,"ĠClear":13867,"106":13868,"ryption":13869,"Ġamend":13870,"Ġstruggling":13871,"ĠPrice":13872,"Ġ^":13873,"Ġoverl":13874,"QUE":13875,"('/":13876,"Ġvariation":13877,"ĠBarbara":13878,"multi":13879,"ĠMurray":13880,"udson":13881,"Ġdepartments":13882,"Ġdetected":13883,"{%":13884,"Ġpartition":13885,"æľ":13886,"Ġinhabitants":13887,"feed":13888,"Ġoverseas":13889,"Ġviewers":13890,"ĠCorp":13891,">::":13892,"War":13893,"NY":13894,"Ġconclude":13895,"Ġbuying":13896,"curities":13897,"ĠEvans":13898,"repe":13899,"assy":13900,"Ġparad":13901,"Ġadvocate":13902,"ndef":13903,"ĠMotor":13904,"Ġfinishing":13905,"rator":13906,"Ġforever":13907,"Death":13908,")[":13909,"Ġcompetitions":13910,"Ġspir":13911,"ician":13912,"ĠWIT":13913,"Ġrestored":13914,"circle":13915,"Ġmedic":13916,"Ġcricket":13917,"ĠParker":13918,"Ġsignals":13919,"Ġcrown":13920,"Ġrepair":13921,"ĠStanley":13922,"Begin":13923,"sup":13924,"Ġappreciate":13925,"ĠDirectors":13926,"Language":13927,"agent":13928,"Ġphysician":13929,"Ġpromised":13930,"ĠInteger":13931,"apis":13932,"ushing":13933,"Ġconflicts":13934,"Ġcm":13935,"writing":13936,"Ġchronic":13937,"Ġdominated":13938,"liminary":13939,"Ġarranged":13940,"INTER":13941,"ĠGrow":13942,"ĠLane":13943,"Ġperm":13944,"Ġremoval":13945,"Ġovercome":13946,"olen":13947,"Len":13948,"prod":13949,"olished":13950,"George":13951,"Ġbrut":13952,"ogene":13953,"ĠMontreal":13954,"umed":13955,"Ġstreaming":13956,"larg":13957,"riel":13958,"Ġspr":13959,"Ġdescend":13960,"Ġcod":13961,"onical":13962,"ĠASSERT":13963,"ugs":13964,"icular":13965,"Ġctx":13966,"xiety":13967,"Ġnomination":13968,"illo":13969,"Ġasym":13970,"Ġ[],":13971,"Ġidentification":13972,"TRUE":13973,"amy":13974,"ĠNAV":13975,"Ġbacking":13976,"ĠBattalion":13977,"mother":13978,"Notification":13979,"Ġforecast":13980,"Ġaired":13981,"Ġidentical":13982,";}":13983,"Ġorientation":13984,"ĠVik":13985,"Texture":13986,"plot":13987,"Ġthin":13988,"Ġsynthes":13989,"ĠProfessional":13990,"flex":13991,"Ġseventh":13992,"1907":13993,"ĠPortuguese":13994,"Ġble":13995,"ĠComments":13996,"EST":13997,"progress":13998,"ĠLeader":13999,"Ġlanding":14000,"logo":14001,"Ġretain":14002,"1909":14003,"Ġmedieval":14004,"ĠPrivacy":14005,"ĠImperial":14006,"ĠTree":14007,"ĠSumm":14008,"Based":14009,"vals":14010,"ĠArrayList":14011,"Ġscientist":14012,"lementation":14013,"ĠPi":14014,"tc":14015,"bid":14016,"SCR":14017,"marks":14018,"forming":14019,"ĠCold":14020,"Dictionary":14021,"ĠEmb":14022,"Ġinstallation":14023,"ourt":14024,"aho":14025,"\"].":14026,"alph":14027,"Ġclause":14028,"ĠChen":14029,"Ġrub":14030,"Ġcontroversy":14031,")--(":14032,"DateTime":14033,"Ġprogressive":14034,"console":14035,"Ġdistinguished":14036,"ensis":14037,"ĠBond":14038,".]":14039,"ĠRio":14040,"Ġincidents":14041,"Ġeigen":14042,"108":14043,"ĠInfantry":14044,"Ġspeaks":14045,"nodes":14046,"1906":14047,"Ġachievement":14048,"(@":14049,"cht":14050,"Ġinstitutional":14051,"reck":14052,"hill":14053,"resolve":14054,"iph":14055,"Ġelectoral":14056,"Ġsingular":14057,"insula":14058,"Ġranking":14059,"identifier":14060,"Ġcrossing":14061,"Hub":14062,"pin":14063,"Ġcoastal":14064,"Ġeq":14065,"Ġfulfill":14066,"Ġabund":14067,"Clear":14068,"Ġflowers":14069,"commons":14070,"ĠallClasses":14071,"ĠCollins":14072,"MR":14073,"Ġadventure":14074,"emption":14075,"ĠTar":14076,"Ġeverywhere":14077,"tk":14078,"Ġsingers":14079,"charge":14080,"Ġdrew":14081,"isons":14082,"orus":14083,"Ġartificial":14084,"obi":14085,"blank":14086,"Ġmystery":14087,"ĠallClassesLink":14088,"ĠBrazilian":14089,"supported":14090,"White":14091,"heets":14092,"opedia":14093,"Ġprotecting":14094,"Ġranging":14095,"Ġintegrity":14096,"Ġgauge":14097,"ĠOK":14098,"Ġsoldier":14099,"Ġsimulation":14100,"Ġbird":14101,"Ġutility":14102,"omed":14103,"ĠElectric":14104,"'));":14105,"Ġreviewed":14106,"Ġpoem":14107,"Ġvolunt":14108,"Ġrepeatedly":14109,"Ġconsisted":14110,"ĠANY":14111,"Ġmerged":14112,"Ġbath":14113,"HTTP":14114,"tri":14115,"ĠAssociate":14116,"Ġsomewhere":14117,"Ġcharter":14118,"factory":14119,"ĠCG":14120,"ittees":14121,"Ġgam":14122,"Ġflash":14123,"glyph":14124,"temp":14125,"metric":14126,"001":14127,"Ġbreast":14128,"Light":14129,"emies":14130,"election":14131,"rition":14132,"Ġpreparing":14133,"ĠFem":14134,"ewidth":14135,"ĠâĤ¬":14136,"ĠTam":14137,"Ġarrangement":14138,"Ġlux":14139,"ÑģÑĤ":14140,"hal":14141,"Ġpup":14142,"edly":14143,"ahn":14144,"plain":14145,"gow":14146,"ĠContent":14147,"Ġenterprise":14148,"atomic":14149,"iterranean":14150,"represent":14151,"Ġresort":14152,"Ġbatch":14153,"Ġcounts":14154,"reach":14155,"ĠUlt":14156,"ĠBilly":14157,"ractions":14158,"ĠUSS":14159,"Ġcolspan":14160,"ĪĴ":14161,"Ġblind":14162,"Ġclothing":14163,"download":14164,"Ġexamine":14165,"Mac":14166,"Ġsomebody":14167,"Cert":14168,"ĠNap":14169,"ĠBlood":14170,"ASH":14171,"Ġliv":14172,"communic":14173,"Ġrecovered":14174,"Ġpainted":14175,"xygen":14176,"Dim":14177,"expr":14178,"1901":14179,"arus":14180,"Ġcinema":14181,"ĠVancouver":14182,"avia":14183,"Ġenvironments":14184,"ĠComment":14185,"Ġreflects":14186,"ĠCos":14187,"ĠCroat":14188,"Ġhighlights":14189,"Organ":14190,"ĠMadrid":14191,"-$":14192,"single":14193,"ĠOscar":14194,"SR":14195,"ĠMind":14196,"Ġtone":14197,"Landroid":14198,"Ġmodes":14199,"Methods":14200,"Ġpartially":14201,"ĠHold":14202,"Progress":14203,"ĠPrint":14204,"TF":14205,"ĠMust":14206,"ffff":14207,"ĠHawaii":14208,"ĠBurn":14209,"Ġformally":14210,"ĠOcc":14211,"Ġinev":14212,"Ġsweet":14213,"pattern":14214,"ĠJimmy":14215,"ĠISBN":14216,"Ġwars":14217,"hot":14218,"Ġinflation":14219,"ĠCoal":14220,"ĠBrand":14221,"urable":14222,"Ġpeoples":14223,"Ali":14224,"ĠNBC":14225,"Ġtickets":14226,"Ġå":14227,"oves":14228,"Place":14229,"Ġnucle":14230,"sn":14231,"Ġsatisfy":14232,"Ġnotably":14233,"itations":14234,"Ġcastle":14235,"IDTH":14236,"ycle":14237,"etal":14238,"checkbox":14239,"ĠHampshire":14240,"ĠHim":14241,"THE":14242,"1880":14243,"Ġperfectly":14244,"ste":14245,"ĠThailand":14246,"('#":14247,"Jack":14248,"Ġhelpful":14249,"uana":14250,"ĠNetflix":14251,"Ġarrive":14252,"Ġcharacterized":14253,"mount":14254,"Ġforeach":14255,"Ġphenomenon":14256,"archive":14257,"Ġgeneric":14258,"Ġsle":14259,"Ġhill":14260,"Ġbelongs":14261,"ĠDest":14262,"Ġultimate":14263,"Ġparser":14264,"ĠSide":14265,"testing":14266,"idges":14267,"plicit":14268,"Ġchecks":14269,"uj":14270,"connected":14271,"Ġpleased":14272,"CB":14273,"Ð¾Ð²":14274,"Ġpersu":14275,"Week":14276,"Review":14277,"econom":14278,"Ġsimultaneously":14279,"Ġhardware":14280,"oving":14281,"ĠALIGN":14282,"Ġbroader":14283,"ĠâĨĴ":14284,"ivia":14285,"Ġwhenever":14286,"ĠEthiop":14287,"ĠPortland":14288,"Ġnullptr":14289,"Ġcorrectly":14290,"Ġterrorism":14291,"atin":14292,"Ġcivilian":14293,"pull":14294,"ĠIsa":14295,"encer":14296,"iban":14297,"ĠAlaska":14298,"separ":14299,"Ġcontrary":14300,"Ġgallery":14301,"Ġ\"$":14302,"facebook":14303,"Ġengaging":14304,"ucket":14305,"February":14306,"Ġdesper":14307,"nik":14308,"Framework":14309,"Ġcamps":14310,"Ġundergraduate":14311,"ĠUpon":14312,"pectives":14313,"Ġsciences":14314,"ĠAthe":14315,"amazon":14316,"opts":14317,"napshot":14318,"hammad":14319,"ĠFrederick":14320,"ĠShar":14321,"inced":14322,"ĠInteg":14323,"EEEEFF":14324,"Mean":14325,"ĠCNN":14326,"ENSE":14327,"Ġupload":14328,"ĠSalv":14329,"zing":14330,"Ġtensor":14331,"Ġpartly":14332,"ELD":14333,"ĠFant":14334,"\\,\\":14335,"Overview":14336,"Ġinternationally":14337,"Ġresolved":14338,"ĠShel":14339,"arios":14340,"Ġearthqu":14341,"Awards":14342,"Ġacted":14343,"Ġ@\"":14344,"Ġecosystem":14345,"Ġalien":14346,"Ġdistinction":14347,"Ġtestimony":14348,"Ġburden":14349,"sun":14350,"Ġstatistical":14351,"Bind":14352,"Ġvirtually":14353,"135":14354,"cluster":14355,"selling":14356,"zi":14357,"Ġmarch":14358,"Ġequipped":14359,"Ġfailing":14360,"oker":14361,"whe":14362,"Ġvenues":14363,"Ġtables":14364,"ĠMarvel":14365,"country":14366,"Ġdil":14367,"Ġ\\(":14368,"Information":14369,"VA":14370,"ĠWind":14371,"Border":14372,"release":14373,"ĠGP":14374,"Connect":14375,"itter":14376,"ĠGuy":14377,"ĠSP":14378,"minute":14379,"Ġargues":14380,"Real":14381,"abad":14382,"ĠConstant":14383,"Ġheading":14384,"Ġmath":14385,"ĠVector":14386,"UND":14387,"Ġvenue":14388,"Did":14389,"ĠWebsite":14390,"Ġmonument":14391,"ĠJess":14392,"Ġmetres":14393,"ĠCriminal":14394,"ĠSelect":14395,"loop":14396,"iously":14397,"keley":14398,"ĠBirmingham":14399,"ANG":14400,"Ġcous":14401,"Ġmodify":14402,"general":14403,"Ġkne":14404,"python":14405,"bai":14406,"Ġcodes":14407,"Ã´":14408,"Ġcomply":14409,"ĠIan":14410,"Ġspark":14411,"hibition":14412,"ĠBased":14413,"bow":14414,"Ġbind":14415,"á»":14416,"ĠSIZE":14417,"Ġobjectives":14418,"abling":14419,"Ġrotation":14420,"Ġbars":14421,"ĠRain":14422,"ĠSEC":14423,"onomous":14424,"ĠLiterature":14425,"visible":14426,"simple":14427,"cas":14428,"LOCK":14429,"Ġelectrical":14430,"Ġrhyth":14431,"ĠSD":14432,"aneous":14433,"ĠKl":14434,"Ġna":14435,"parency":14436,"Ġcorporations":14437,"Ġleaf":14438,"Ġassignment":14439,"parts":14440,"Ids":14441,"ĠCampaign":14442,"CHAR":14443,"ĠPeak":14444,"Ġbattles":14445,"Pod":14446,"ĠMes":14447,"ĠBed":14448,"onal":14449,"Ġconnecting":14450,"Ġamid":14451,"Returns":14452,"Ġexclusively":14453,"ĠVienna":14454,"Ġcontributing":14455,"ictions":14456,"limits":14457,"ĠPersonal":14458,"Ġrailroad":14459,"Ġmeat":14460,"ĠAlfred":14461,"109":14462,"Ġslave":14463,"ĠEND":14464,"Stats":14465,"ĠOrthodox":14466,"batch":14467,"Ġcoins":14468,"Ġidx":14469,"eor":14470,"Ġsecurities":14471,"kt":14472,"Sep":14473,"ĠDefence":14474,"Ġmeaningful":14475,"Ġwhilst":14476,"1903":14477,"ĠShan":14478,"cycle":14479,"ishops":14480,"anted":14481,"Ġdogs":14482,"Join":14483,"opic":14484,"ĠCELL":14485,"zes":14486,"oths":14487,"ktop":14488,"pection":14489,"ĠWW":14490,"ĠUniversal":14491,"Ġplugin":14492,"()))":14493,"Ġmissions":14494,"Ġprevention":14495,"ĠConfeder":14496,"ixon":14497,"Native":14498,"RED":14499,"Ġtow":14500,"ĠÂ·":14501,"Three":14502,
[...]
