#version: 0.2
Ġ Ġ
t h
i n
ĠĠ ĠĠ
o n
e r
Ġ a
Ġ th
t i
r e
e n
Ġth e
a l
o r
Ġ s
t e
Ġ \
Ġ c
i s
l e
ti on
a r
Ġ o
a n
Ġ $
e s
Ġ f
Ġ w
Ġ t
Ġ p
m a
ĠĠ Ġ
r o
ĠĠĠĠ ĠĠĠĠ
Ġo f
Ġ in
d e
in g
Ġ b
t a
Ġa n
s e
l a
r a
i c
i g
m e
{ \
Ġan d
a t
i t
Ġt o
Ġ d
e l
s t
en t
Ġ re
Ġ e
Ġ n
c e
o u
Ġ (
Ġ h
e d
e c
Ġ is
o l
s i
m p
_ {
q u
g e
c h
č Ċ
Ġ m
Ġ =
l o
Ġ$ \
T h
t r
ĠĠĠĠ ĠĠĠ
u n
a tion
a s
Ġf or
u r
ma th
l y
v e
v er
t er
i l
i d
en d
u l
s s
u m
o t
Ġc on
i f
Ġ &
e t
i th
ĉ ĉ
} \
Ġ g
Ġth at
Ġ S
te d
} $
b e
Ġ v
^ {
h t
c tion
Ġ on
i te
p h
o m
c al
) ;
Ġ <
Ġ Ċ
Th e
a m
c t
Ġb e
Ġ {
a d
Ġ A
Ġ C
Ġ de
- -
u re
re f
u s
x t
Ġ l
Ġp ro
o w
u t
Ġw ith
= "
g in
Ġw h
b le
Ġ I
p p
} }
r i
( \
ig ht
Ġw e
s p
a me
Ġa l
u b
i r
in e
2 0
t s
i m
be gin
o d
ĠĠĠĠĠĠĠĠ ĠĠĠ
Ġ ma
< /
er e
ra c
Ġc o
/ /
a te
Ġa s
Ġb y
Ġ *
p er
o de
_ {\
it y
) $
an d
Ġa re
Ġe x
d i
f t
Ġ }
Ġ F
Ġ M
c k
o re
} {
u e
e qu
d er
ti c
Ġ P
f rac
t o
ro m
} ,
te xt
Ġth is
Ġ The
m b
m ent
p e
c ite
ĠĠĠĠĠĠĠĠ ĠĠĠĠĠĠĠĠ
Ġ B
r ight
Ġ L
Ġ or
l i
e w
e q
b el
} )
a se
i z
Ġ R
u p
ec t
d a
es s
Ġ i
Ġ H
Ġ it
Ġa t
Ġ T
la bel
si on
ĠĠĠĠ Ġ
Ġ D
math b
, \
f or
la ss
re s
is t
r an
Ġ me
Ġ W
ou n
Ġ "
Ġf rom
tion s
in t
Ġ -
l u
Ġ E
Ġs h
" >
Ġ N
ig n
y s
p a
I n
le ft
f ig
lo w
o p
$ ,
ou r
p ar
$ .
â Ģ
0 0
r m
( )
math cal
Ġ G
* *
c on
Ġc h
Ġ if
. .
ge t
f f
Ġco mp
equ ation
i v
Ġs t
ur n
o me
ic h
d s
Ġ +
} .
Ġs u
Ġc an
Ġ un
th e
u se
en ce
l ic
Ġp ar
th er
k e
a ve
g a
t y
} (
al l
a p
or t
ti ve
o s
tr i
un ction
ti al
} ^
a ge
d u
~ \
er s
} _
c c
es t
l d
ar y
l ine
en er
i le
p ro
an t
Ġ Th
Ġ le
t urn
Ġs e
Ġs ta
ph a
m u
a ch
20 1
Ġc lass
al pha
a re
a ble
ti m
Ġwh ich
el l
a ta
-- --
a v
) ,
) .
) \
ti l
ĠI n
Ġn ot
f er
Ġh ave
se t
Ġo b
= =
s er
ode l
Ġ '
p si
mp le
Ġ O
an g
o c
ro w
Ġd is
g ra
ul t
Ġre s
ar i
st r
Ġ y
b er
b u
m s
il l
an ce
al ue
a b
1 9
Ġf unction
c o
Ġ lo
ta in
Ġa pp
$ \
ĠĠĠĠĠĠĠĠ ĠĠĠĠĠĠĠ
ic al
am ma
f in
y pe
c lu
i de
or k
1 0
Ġ r
_ \
Ġp o
Ġs p
ra y
en s
mathb b
= \
s ub
Ġ\ \
on g
Ġ us
Ġw as
d ot
Ġ [
v el
d ing
} _{
p o
c ri
s o
o g
} ^{
h o
a ct
ig ma
Ġ k
a y
Ġ U
i re
la tion
Ġex p
Ġs et
Ġn e
p t
Ġ use
- \
o f
Ġ //
tim es
i es
i al
ou t
i el
Ġ te
Ġre turn
ti me
a ce
Ġal l
e x
ph i
Ġ qu
Ġ la
a c
^ {\
i on
C on
- >
s um
a g
Ġh as
p i
mb da
re e
tr ing
j ect
la mbda
te s
ou s
b f
Ġa d
: :
p ut
ĉĉ ĉĉ
Ġ {\
Ġm odel
a ted
l on
a ck
a k
Ġd ata
Ġin ter
w e
Ġp er
um ber
ent s
id th
or y
in d
e m
mathb f
b o
ou ld
Ġ j
Ġ ra
ta tion
Ġon e
ation s
our ce
Ġa r
ul ar
w o
en c
Ġn o
ar d
se ction
Ġ J
psi lon
al ign
re n
m in
or s
ow n
Ġ< /
Ġ V
Ġ @
Ġp re
ys te
om m
h at
o ver
a pp
s igma
s h
ol low
Ġa ss
i p
.. /
tri bu
an s
Ġn ew
de d
Ġe v
b ar
} {\
Ġd o
ol u
Ġd if
ub lic
Ġ( \
v i
t ing
ig h
be ta
^{ -
e ta
Ġ K
ti es
Ġw ill
iz e
ite m
n e
ir st
til de
a st
" ,
Ġf ollow
Ġ /
math rm
l l
ĠW e
Ġt wo
u al
Ġal so
ul l
Ġs a
\ \
1 2
Ġi mp
* }
c re
+ \
g amma
ic e
Ġ |
p s
c ol
y n
Ġcon t
Ġe qu
p tion
de l
Ġm o
oun d
ic s
un d
n o
( "
Ġ x
c ent
the ta
Ġb o
20 0
se d
x i
er r
ec tion
th od
w idth
or re
ti t
) )
Ġs ub
w h
' s
( );
i x
' ,
] {
Ġsu ch
v ar
Ġg ener
R e
Ġ :
Ġh e
iel d
ar ray
fig ure
Ġ ver
u st
ro up
g h
di v
Ġt ran
^ \
ar k
on e
m l
r ho
Ġth ere
del ta
Ġ time
âĢ Ļ
i mp
le q
for m
la y
le d
Ġ .
W e
al u
or m
le s
Ġwh ere
ta u
) }
Ġ en
Ġcon st
at ure
Ġo ut
Ġre p
Ġo ur
c dot
si tion
at or
m o
Ġl ine
Ġp a
ame ter
ess age
clu de
le ment
Ġdif fer
$ -
u ct
}$ ,
}$ .
o k
is h
e ar
de f
ĠTh is
Ġon ly
yste m
Ġb et
ti cal
Ġs tr
Ġc ase
} (\
n ame
Ġo ther
b ig
gra ph
eq ref
Ġo ver
ma tion
---- ----
Ġv alue
Ġf in
Ġd es
** **
P ro
sp on
Ġth en
Ġn ame
Ġ ro
E x
Ġa b
Ġc orre
Ġc ol
Ġe ach
ta ble
c es
ĠĠĠĠĠĠĠĠ Ġ
Ġan y
Ġg iv
Ġ* /
p end
Ġin t
sp an
g er
Ġre g
ta b
o id
Ġt r
c ap
or d
Ġp h
Ġsh ow
s c
ĉĉ ĉ
par tial
Ġs o
in k
ft y
> </
il ity
ome ga
in fty
te x
Ġm ore
Ġb ut
n u
v ed
Ġo p
| \
o se
i a
Ġ u
d ic
Ġa cc
Ġf irst
Ġp ublic
ar row
ĠĠĠĠĠĠĠĠ ĠĠĠĠĠĠĠĠĠĠĠ
Ġsp ec
we en
Ġs ome
E R
ul ts
sp ace
di tion
1 1
Ġwh en
D el
th is
is e
al ly
u d
it s
f ore
Ġth an
e mp
a mple
ar t
pa ce
in ce
../ ../
N ame
Ġ `
g es
Ġde f
Ġt ype
w ork
Ġn umber
Del ta
Ġbet ween
( '
> <
Ġv ari
de x
Ġit s
en sion
eq n
si der
ra in
== ==
qu ad
ti f
tr ic
Ġ get
Ġ âĢ
f o
Ġn on
s f
Ġ _
v es
en g
Ġe xt
se c
o b
ce d
Ġ up
Ġthe se
u la
Ġus ing
Ġuse d
s ta
Ġ id
i e
Ġde fin
Ġthe ir
f ra
1 6
Ġw ork
Ġapp ro
T ype
ol ds
g le
} [
Ġ es
} }\
h e
m all
Ġme thod
Ġsta te
ter n
Ġre qu
Ġ$ (
1 5
olu tion
n i
ase d
\ ,
Ġc ur
F or
g y
O N
ul ti
ore m
Ġm an
)$ .
z e
i b
iz ation
Ġgiv en
Ġh igh
Ġg ra
lo ck
u le
in clude
r t
c om
s u
ht ml
Ġtran s
t t
c ess
en tial
s q
ri v
ĠF or
Ġe ff
S T
Ġbe en
Ġres ult
t on
e psilon
Ġun der
cent er
I N
Ġc om
Ġor der
le c
imp ort
Ġpar ameter
ren t
D e
p m
alu es
n ing
Ġs im
Ġin to
S tring
$ $
Ġ err
1 8
re ss
Ġt er
el f
ma in
Ġ X
o te
} _{\
y mb
s ource
iz ed
Ġ z
al se
1 3
tr ans
oun t
on d
ĠR e
re turn
lo g
il d
me ga
ymb ol
Ġl ar
ir c
cri pt
Ġh ref
ty pe
al s
Ġcon sider
O mega
Ġp res
l an
eng th
Ġc al
m essage
tri x
Ġob tain
wh ere
a u
ke y
ro und
Ġw ere
E n
Ġre la
e ver
par am
Ġb ec
sp ec
l ang
ec k
tr y
Ġs ame
Ġ #
I d
Ġfor m
Ġdiffer ent
C h
text bf
ra tion
Ġpar tic
v ice
se l
eqn array
ment s
Ġres ults
c ode
Ġch ar
Ġob ser
Ġo per
Ġs elf
ol d
1 4
R E
)$ ,
^ *
Ġ čĊ
Ġfollow ing
2 5
R es
Ġ Y
g or
ĠF ig
m an
sq rt
i ed
da ta
Ġthe y
co mp
i an
Ġ --
Ġf act
ĠC h
ar ch
Ġma y
Ġ >
ĠĠ Ċ
Ġm od
a x
if ic
ec ted
Ġs er
f ter
Ġpro v
as es
G amma
T o
as ure
sub section
um n
w ide
y m
ch e
Ġs ec
Ġs c
ĠĠĠĠĠĠĠĠĠĠĠĠĠĠĠĠ ĠĠĠĠĠĠĠĠĠĠĠĠĠĠĠĠ
vel y
Ġ !
er t
le m
p re
ex p
v are
e xt
Ġ el
ol og
vare psilon
Ġp ol
Ġs ign
t d
A T
o x
si m
d d
graph ics
ĠI t
ate s
on s
v al
o mp
Ġf ield
ro u
Ġ )
Ġl i
Ġc omm
Ġ Q
cap tion
ic i
h i
a ction
ma t
Ġcomp le
ot s
Ġs ystem
/ >
Ġrep res
S ta
b m
} =
ma ge
^{ (
Ġ= >
Ġan al
Ġse e
Ġ end
Ġ$ {\
include graphics
Ġa c
Ġf e
c m
}^ {\
c lass
c ation
Ġdis tribu
) =
re ad
s k
d is
. ,
ce ption
ra w
Ġpro per
for mation
Ġte st
r y
Ġs pace
ti vely
si ze
a use
Ġd ire
re d
y le
ran gle
Ġy ou
on t
ver y
an ge
: //
n er
ener gy
ti v
le ct
a ult
as s
emp h
Ġ= =
" />
i ew
Ġg o
Ġh is
Ġd en
Ġbo th
n ew
Ġme asure
# #
um er
s on
_ _
Ġn ull
cal e
) :
Ġ low
right arrow
Ġcorre spon
1 7
ect or
Ġ\ ,
et work
\ !
im ension
is ts
uct ure
a th
Ġv oid
ow ever
var phi
gor ith
b ack
Ġsu pp
g s
Ġpro du
ver s
ge q
r r
Ġtr ue
n on
A R
Ġg roup
ens ure
al ity
. ~\
S t
Ġm in
at ing
ĠĠĠĠ ĠĠ
Ġw ould
Ġw ell
Ġk n
3 2
me d
sel f
L E
e p
. }
f ile
Ġv alues
f ace
Ġpo int
L ist
j ec
en tation
Ġpro ble
} ;
S S
at ch
Ġv ar
pro of
Ġde c
v ec
v ent
l it
ĠP ro
ch i
I D
p r
m ary
b olds
le ction
t en
bolds ymbol
Ġdes cri
n el
ic k
l ing
fra k
D ata
o le
O R
si ble
3 0
r it
& \
trans lation
st ra
ht t
enc y
over line
Ġe lement
19 9
rou gh
am es
}, \
er y
1 00
am b
ĠA n
ĠD e
' )
p ri
Ġs mall
i tion
Ġmo st
Ġab out
il ar
i ve
B ig
re qu
um ent
str ing
5 0
mb er
te st
âĢ Ŀ
Ġes ti
Ġpro cess
Ġin te
i tial
[ \
orm al
as h
Ġst ar
Ġs te
math frak
ad er
Ġs tring
Ġf ra
y p
to p
Ġs ur
Ġ energy
}) .
Ġex ample
h line
Ġma ss
) ^
Ġcomp u
Ġass u
O b
st ance
Ġb ack
b ra
A r
Ġin v
Ġb u
Th is
Ġcon tain
is ion
' '
st er
} }$
p d
ar get
ĠĠĠĠĠĠĠĠ ĠĠĠĠĠ
ĠI f
**** ****
Ġl im
Ġm ulti
la s
v alue
Ġ ran
2 2
Ġs ing
A n
riv ate
A L
Ġt ra
i me
g o
l im
Ġd ist
Ġf alse
E N
is m
a tive
c i
"> <
in es
Ġb ound
Ġp os
Ġlo cal
4 0
oc i
ld ots
// //
Ġgener al
" );
er o
lang le
Ġdefin ed
ou gh
as k
Ġs ize
vi ew
) );
res sion
le ar
ad d
Ġsh ould
ĠC on
se e
P ar
Ġ Z
in ts
amb da
m is
u th
L et
d es
r ite
m od
ens ity
Ġ& &
2 1
Ġex per
ro l
L ambda
bo x
de pend
Ġdis c
ma x
a i
bo ve
S et
b in
p lay
m er
Ġwh ile
c ted
-------- --------
n ot
Ġor g
Ġde pend
or der
Ġc lo
Ġfollow s
ab ility
ensure math
Ġa bove
P hi
Ġth rough
Ġ ,
ire d
Ġlar ge
n ab
v en
D E
Ġin clu
ma te
C ol
gorith m
l er
V alue
on ent
con t
S E
. \
iel ds
tex tit
ĠĠĠĠĠĠĠĠĠĠĠĠĠĠĠĠ ĠĠĠĠĠĠĠ
cite p
Ġstr ucture
Ġel se
Ġdo es
Ġp e
le t
Ġmodel s
app a
ro ss
ym me
A s
nab la
Ġc re
ow er
a ke
Ġe very
S er
b y
Ġcon s
tit le
i o
k appa
in u
Ġsh own
le ss
ac ter
\ |
Ġte mp
w ith
Ġma t
in ter
enc es
Ġin cre
ro du
o st
s te
yn am
c omm
Ġa fter
la ce
st yle
Ġle t
c irc
B y
u lation
av a
Ġth ree
qu e
Ġn etwork
li ent
] ,
gra m
or ph
f ul
Ġid en
Ġerr or
t al
n b
Ġs ol
mb ox
e y
ical ly
Ġa g
ur ing
Ġb el
Ġper form
2 4
Ġfin al
od y
en ted
a ys
Ġ/ **
po sition
Ġma x
Ġthe m
Ġ right
Ġs ince
o per
ig in
s ing
} )$
f unction
Ġof f
( $
Ġproble m
str u
Ġsec ond
la t
or g
re am
il ter
la te
Ġh ad
Ġc ent
c ur
ti sf
\ %
m ark
ff ici
Ġs ection
) (
b it
ĠâĢ ľ
Ġl ong
Ġn ow
Ġparameter s
Ġre al
vi ous
Ġ| |
Ġpar t
n ode
Ġsta tic
c or
g r
Ġe d
o times
] ;
Ġdistribu tion
Ġne ed
a pa
lo b
ur ther
Ġ` `
6 0
ĠA s
}} {
ut o
Ġreg ion
Ġh and
" )
Ġf ile
Ġst ud
a in
3 3
}) ,
l ish
u ch
Ġ %
Ġappro ach
Ġpro b
i er
Ex ception
Ġgra ph
dot s
ic t
Ġfe ature
Ġto p
Ġra di
col or
non umber
C T
Ġcal c
Ġimp ort
and om
Ġ ent
en e
Ġy ear
A N
o v
lo cation
rr or
S igma
Ġin formation
Ġcur rent
b r
Ġw or
Ġbec ause
nb sp
\ [
6 4
ro p
ix ed
e e
Ġcon n
Ġma g
a mp
Ġma trix
Ġt rain
Ġ q
ur al
Ġeff ec
i j
Ġf a
i ties
s cript
w w
c er
g roup
p x
Ġde ter
cc ess
m m
Ġsa tisf
Ġter ms
n ess
ti ty
Ġf ound
I T
Ġp ri
C omp
la ck
od es
Ġ! =
Ġsim ilar
Ġad d
B u
Ġsa mple
Ġp r
00 0
Ġ// /
A t
de fin
Ġb ased
center ing
Ġn ode
Ġal low
ĠTh en
Ġin itial
Ġwh o
ys is
U n
Ġver y
Ġma in
are d
2 3
fer ence
si ve
re g
Ġ( $
{ -
Ġd er
ti ce
Ġpartic ular
.. .
ĠA l
Ġsu per
==== ====
str uct
Ġin put
Ġprov ide
ga in
en se
w ar
ĠS t
M E
Ġs um
d raw
wide tilde
t us
C O
ing s
er ature
ent ly
/ \
w ard
u di
Ġfunction s
ra te
si tive
Ġd i
ĠS tring
is tic
re ak
M e
re at
ĠĠĠĠ Ċ
Ġre spec
es e
Ġle ad
Ob ject
ation al
ro id
ver t
Ġp rivate
r c
if ied
if t
ĠH e
n g
u ration
~ ~
Ġt ak
g round
Ġf ind
tab ular
Ġc ould
Ġev en
() .
v ing
m on
Ġre du
Ġobtain ed
Ġman y
Ġpa per
Ġle vel
Ġle ar
Ġs olution
Ġa m
8 0
im um
l ink
ta tions
ic es
n t
ma trix
Ġequ ation
Ġdire ct
Ġm ust
} -
Ġr un
() );
Ġar g
Ġd ensity
Ġpre dic
Ġv al
ot ential
Ġ key
i or
Ġop tim
Ġma p
G et
Ġcorrespon ding
Con t
Ġvari able
ic ation
Ġsing le
Ġchar acter
Ġch o
Ġs equ
Ġh y
Ġob ject
Ġline ar
rac k
ff er
ma p
Ġexper im
ro ll
z eta
Ġshow s
Ġad dition
F ig
Ġp lan
olog y
an nel
ou p
Ġa ct
Ġa ction
Ġpa th
Ġde te
em ma
ver se
Ġ: =
sum mary
Ġc all
) {
con st
\ ]
d ate
E rror
o ck
Ġh ow
T est
pp er
Ġli ke
ĠTh ere
ĠL et
p ublic
Ġt yp
in dex
\ {
Ġe mp
pri me
Ġpo ints
Ġcon dition
Ġs cal
. _
a w
Ġin dic
} +
Ġc oun
i mple
Ġst and
Ġsta tes
Ġfin ite
in c
Ġconst ant
pa th
Ġd ue
mis sion
Ġa v
) =\
tiv ity
or ted
ĠE x
p ec
Ġ left
m odel
] .
u c
vel op
4 5
Ġappro xi
il s
ge bra
ĠThe orem
b ase
7 5
" ;
li es
id es
L A
ĠE q
u g
} =\
Ġex ist
Ġl ist
ind ow
Ġobser v
un c
Ġ& =
b ility
A l
iv al
R O
) }\
T E
S h
ot t
Ġbe ing
ĠH owever
F ile
Sta te
ch o
an ts
\! \!
b ed
Ġun i
Ġw ay
y ing
lic ation
P I
Ġh el
ual ly
ce pt
Ġor igin
th m
Ġpos sible
Ġd imension
la ble
o int
per ty
Ġcont inu
Ġrespec tively
l ist
Ġth ose
Ġh ere
{ (
H e
' );
Ġm on
Ġs yste
Ġpro of
m it
) ^{
ur l
di tions
htt p
Ġp lay
et s
el y
L L
C lass
Ġthe ory
Ġre ad
pro p
depend ent
y c
tern al
in s
2 7
9 9
K ey
} ]
ĠW h
ĠT o
ĉĉĉĉ ĉ
Ġ ge
Ġre f
ĠU ni
A C
Ġma ke
tic s
ver age
Ġint rodu
Ġa gain
lo t
Ġv ector
Ġbe h
Ġal gorithm
Ġr andom
Ġme an
R equ
o th
as on
un der
a pe
V iew
sp ect
Ġp otential
Ġmulti p
Ġp ower
Ġspec tr
Ġpro po
Ġf lu
lem ma
ser t
ant um
te mp
[ '
Ġre spon
om orph
P E
jec ts
O n
ĠS ta
; \
} |
Ġcalc ula
lob al
$ )
Ġpa ir
l ength
Ġwh at
i od
Ġph ase
si de
}_ \
er m
text width
i i
Ġanal ysis
u te
Ġla t
201 7
o ther
op le
() ,
9 0
l us
Ġwith in
Ġs ource
Ġi mage
Ġcomple x
Ġla st
Ġde ta
I t
ĠS ection
Ġran ge
2 8
Ġlim it
. </
i ly
I C
d t
cdot s
stru ction
}^ \
Ġev ent
se arch
O p
Ġbe fore
201 8
pa ck
ma ges
I f
Ġass oci
Ġt ri
ti s
}} (
Ġlo g
, -
lo ad
at ors
tribu te
Ġmethod s
E qu
L o
Ġv is
Ġpres ent
3 5
a us
Ġpre vious
Ġto tal
Ġt arget
a si
Ġs ymme
Ġter m
Ġkn ow
iv ed
Ġ/ >
our ces
T R
Ġdef ine
se qu
p os
Ġin dex
Ġ\ {
}) \
q quad
Q u
ĉ Ċ
l in
Ġl ength
Ġde g
' ]
s mall
Ġstr ong
l and
ĠFig ure
2 6
Ġd ynam
v ir
v ari
0 1
Ġh er
Ġcon fig
Ġra te
Ġcon text
W ith
" :
. ~
T ime
Ġb lock
201 6
row s
n av
no te
x space
0 5
Ġe lec
j s
20 20
"> </
` `
r on
u les
S I
P si
Ġdeter min
Ġstud y
^ +
Ġla y
Ġe t
is ter
an ces
Ġb as
N ode
f rom
ord in
Ġo cc
Ġ );
Ġch eck
Ġex ists
f ield
b or
f e
Ġproper ties
ole an
{ {\
math sf
ou ble
pd f
ĠA r
ag er
Ġs pa
m id
Ġde velop
Ġj ust
201 9
Ġwith out
Ġco de
Ġb oun
}^{ (
Ġver sion
u de
}\ ,
Ġb ase
Ġc lu
Ġcon ver
ĠN ew
Ġz ero
ith er
on al
Ġ text
) ]
ĠL emma
ar is
& =
M an
wide hat
Ġin stance
ct or
Ġcont rol
l ight
Ġc oup
201 5
til l
tical ly
k s
or ts
Ġprob ability
Ġperform ance
ch ed
st ar
Ġd uring
Ġus er
k ing
L e
w ise
r id
ent al
if y
e ps
Ġt ask
Ġcon ditions
Ġre main
Ġ enc
}\ \
si f
Ġne xt
/ **
Ġfor mu
u til
Ġlow er
app ro
Ġte ch
ĠR es
Ġin du
w n
19 8
es sion
ĠâĢ ĵ
In t
Ġv iew
ure s
an el
Ġ$ (\
Ġcal led
Ġ ?
c os
Ġn ormal
=" ../../
Ġm om
Ġout put
E vent
3 4
an c
ign ed
ĠN o
E lement
2 9
Ġs imp
Ġfra me
ne tic
cri ption
c up
oper ator
Ġass ert
oc ument
M A
Ġiden tif
Ġsyste ms
Ġ& \
us er
po int
7 0
sub set
Ġc irc
u pp
wh ich
Ġqu antum
Ġkn own
Ġoper ator
al ax
Ġ times
Ġop en
T ext
on ents
' :
o sition
Ġar ray
In fo
ott om
P ath
in put
pa ge
Ġc ar
g ed
Ġa uth
end s
lec ted
Ġm uch
Ġm y
Ġpo sitive
} :
Ġexp ected
Ġf our
[ ]
Ġsign ific
ag es
se ts
Ġw idth
me di
tr on
b ut
ur b
s cale
fo ot
ĠO n
ri de
la ted
sta te
Ġi mple
Ġpe ople
6 6
S e
Ġf am
}} {\
equ iv
ly ing
si an
ĠB y
Ġproper ty
e ffici
Con text
Ġsa id
or ding
Ġdisc us
Ġfact or
/ *
Ġc ases
Ġrequ ire
L O
Ġf il
Ġs imple
tr ue
d en
! --
Ġp op
Ġw rit
Ġsequ ence
A pp
Ġtemp erature
ile d
g ing
ap i
' t
Ġre le
las sif
ens or
d o
Ġch ange
ames pace
Ġal ong
Requ est
ai lable
Ġth us
Ġhigh er
Ġtrain ing
l ue
Ġequ ival
im al
lo at
cite t
Ġcont ra
o ff
Ġg u
=" +
201 4
Ġimport ant
Ġobser ved
ĠS h
Ġf ixed
] $
Ġassu me
Con fig
Ġ title
| ^
a ti
() )
} +\
li ed
+ +
Ġph ot
Ġt ake
In dex
ach e
" "
ind ent
um b
C ode
Ġmat ch
Ġstand ard
pp ing
v oid
4 8
Ġbeh av
Ġcon f
Ġy our
b ody
Ġpo sition
A B
Ġinter action
om in
N o
Ġev alu
h space
it or
Ġelement s
Ġch ang
Ġprodu ct
n eq
Ġf urther
us h
I I
Ġ} ,
i k
apa che
ĠĠĠĠĠĠĠĠ ĠĠĠĠ
il der
er n
Ġassoci ated
Ġpropo sed
are nt
d imension
O ver
ol l
co pe
ĠĠĠĠĠĠĠĠĠĠĠĠĠĠĠĠ ĠĠĠĠĠĠĠĠĠĠĠ
' $
( {\
Ġyear s
) -
Ġ/ *
Ġph ys
Ġf requ
Ġab s
Ġst udi
lic it
w ay
Ġ( !
A D
} -\
Ġs till
li p
Ġimp ro
olu tions
ĠE n
htt ps
A S
ĠU n
Ġre mo
M L
b lock
umer ate
te m
//// ////
Ġi de
Ġper iod
Ġse ver
foot note
U R
Ġsh e
Ġe ar
Ġset ting
.. ..
Ġcon tribu
W h
Ġst art
Ġma de
ĠL e
Ġqu an
F rom
v is
Ġsupp ort
Ġden ote
as ing
the orem
Ġs cale
p on
B e
cal l
al le
E D
Ġdif f
o h
A dd
Ġal gebra
5 5
ar g
ĠĠĠĠĠĠĠĠ ĠĠ
201 3
og le
Ġl ines
Ġ label
am s
s in
M ap
******** ********
th ing
Ġc lear
Ġre spect
if e
con fig
Ġback ground
3 6
Ġle ast
Ġsignific ant
Ġb reak
val id
Ser vice
M P
ser v
ter s
ĠA ss
Ġcom bin
k en
Ġbel ow
m ul
id er
Ġval id
O r
err or
Ġg alax
Ġapp ear
Ġa round
Ġ- \
s w
en umerate
op y
Ġf ields
lo y
ne xt
as sert
il li
F F
g ener
ti g
n et
Ar ray
o in
Ġin f
Ġse par
Ġdist ance
lo c
u i
Ġanal y
Ex p
ĠS ince
) }{
item ize
ed ge
oc us
Ġequ ations
00 00
Ġf ull
operator name
V er
Ġc ross
Ġ} );
Ġl ink
Ġcons ist
] \
t ra
s l
ol umn
m i
Ġ ke
he ad
u mp
3 8
I ON
O f
Ġcomple te
sp lit
Ġb in
Ġesti ma
w ord
da g
at tern
mer ic
olog ical
e v
Ġdef ault
sc r
Ġlear ning
Ġd own
ch eck
x y
Ġbound ary
Ġcomm un
tt p
w ays
v space
vir on
dis play
D es
Ġsp in
Ġn umer
re t
i ted
u age
h ip
om ial
Ġf ree
Ġfeature s
r ing
Ġeff ect
def ine
T able
Ġe ither
ran s
at er
De f
' ;
S ize
re p
Ġlo ss
M odel
( -
9 5
Ġinclu ding
Ġdo main
an y
Ġwe ight
res ult
Ġm ar
Ġrequ ired
Ġsim ula
âĢ ĵ
Ġcont ent
U T
Ġed ge
Ġf it
T r
Ġne ar
Ġb est
h er
Ġste p
en ded
Ġdescri bed
et urn
no indent
{ }
Ġex act
Ġde p
ig en
m d
comm and
Ġm ark
201 2
c l
Ġconsider ed
tic es
Ġa verage
D is
C H
) }$
st and
read y
ic y
Ġv el
w are
b ased
it ch
f ill
Ġcol or
tion al
Ġacc u
3 7
I S
\ ,\
ction s
ti o
ĠTh us
$ }
Ġn il
p y
Ġle ss
Ġimp lies
}} _
Ġinter est
Ġch annel
Ġre ce
mul tic
Ġcomp onent
Ġden o
ch ie
ta g
ob ject
3 9
Ġdefin ition
Ġgo od
R ec
ou se
def ault
n s
ust om
Ġl ight
c ing
ĠTh ese
vers ity
a il
dimension al
m y
4 4
r al
ĠM e
& &
ic on
Ġme ans
ref er
Ġsur face
Ġf low
Ġsever al
b s
ch ar
cre ate
\ }$
for med
H and
Ġb i
Ġl it
S ystem
r is
e ther
r ic
ste ad
over n
t ot
oc ity
ĠA pp
par t
yn c
Ġclo se
M essage
m ar
Ġin st
Ġc ri
ver sion
multic olumn
Ġco effici
da y
I G
Ġcol umn
6 5
qu ot
Ġgener ated
N N
## ##
r ary
Ġw rite
Ġexp ression
Ġset s
Th ere
Ġt able
g en
Ġav ailable
u ra
p ng
Ġun it
Ġa ff
Ġb and
ĠO b
b b
math scr
0 4
Ġ\ |
res h
n al
te q
p c
p or
Ġ= ==
um ents
0 2
3 1
mb ed
an e
ga tive
P i
a h
able d
Ġs pe
Ġmom ent
ate g
) {\
Ġcre ate
Ġc ell
ut ure
Ġa chie
F ield
A A
aris on
Ġlar ger
g t
ti tion
la in
appro x
ar s
Ġre fer
= '
ateg ory
if orm
Ġc lassif
0 8
ĠC omp
ĠA d
line ar
Ġcontain s
at ter
201 1
E T
C C
Ġa uto
m ulti
k n
sk ip
ec ess
text tt
ch an
Ġv ia
Ġext ra
con n
ĠA t
cho ol
S P
Ġs ide
) +
Ġla w
ang le
Ġp ers
Ġc ap
~ $
Ġrepres entation
I s
( (
me thod
Ġno te
Ġco ordin
mo oth
I tem
defin ed
st o
n ormal
Ġspec ific
Ġassu mp
olu me
Ġpro ve
Ġocc ur
} /
Ġ-- >
Ġj ava
Ġm is
l n
Ġrequ est
Ġc er
Ġs olutions
en u
g g
Ġh al
tr m
j or
Ð ¾
O ut
ĠM ore
us ing
Ġre lation
Ġvariable s
se teq
Ġrespon se
re ate
re en
pon se
Ġ _{
Ġequ al
ish ed
ĠS o
Ġit er
7 8
ĠT able
Ġ im
m entation
av ing
Ġh olds
Ġre cent
tex trm
Ġn at
en ame
Ġin clude
mo st
E E
Ġrela tions
Ġd iv
l t
Ġin dependent
Ġp ass
E S
ww w
ur ity
Ġpro te
tain er
m ic
0 6
}} }
le te
lo cal
l ar
201 0
Ġ} ;
Ġbet ter
d own
O T
P T
Ġmag netic
d oc
under line
Ġlo ok
th ough
Ġan other
rit er
Ġconst rain
In ter
Ġgiv es
Ġrela ted
th at
g ence
Ġ_ _
Ġqu es
Ġh om
ma tic
roll er
Ġorigin al
g l
div id
Ġwe ak
Ġesti mate
IN G
Ġch ild
c an
si te
t or
Ġthere fore
Ġd id
Ġ$\ {
me mber
du ct
f unc
tic le
] [
la tions
Ġinte gra
Ġse en
f alse
cur rent
ĠA meric
k et
^ -
Ġm ode
n ow
ĠS ec
et y
viron ment
I R
sub seteq
s tit
Ġhel p
Ġt urn
jec tive
p ort
Ġf ew
Col or
t le
] (
Ġf la
min us
i ble
Ġse arch
Ġcomp onents
pp ed
yn omial
con text
ec u
The ta
Ġw ave
U LL
al e
="../../ ../../
he ight
um an
ir d
f low
Ġal ready
ĠThere fore
fin ite
Ġg ive
lish ed
T D
in fo
Ġc or
k es
C ell
Ġser ies
Ġcan not
lu gin
ĠN ote
ĉĉĉĉ ĉĉ
m ore
Ġme di
Qu ery
) ,\
Ġclu ster
4 9
C omm
A ll
Ġreg ular
Ġre co
che me
la im
}^{ -
Ġi mages
t ual
Ġg lobal
Ġtran sition
si d
{ $
a de
Ġ$ |
S ince
O D
Ġs ay
} '
Re g
0 3
res sed
; &
a it
Ġ Ð
c ore
Th en
Ġspectr um
y mp
7 7
---------------- ----------------
sion s
> &
v ices
or th
l ong
Ġwh ether
Ã ©
Ġal ways
Ġl ang
Ġco st
< \
ex ample
st art
a f
and roid
pro d
M od
ĠC ol
Ġ( -
Ġmax imum
j ava
pack age
C o
}} _{
G L
6 8
En d
Ġne u
ist ory
Ġ\ ;
cont ent
n ed
end er
Ġaddition al
Ġs rc
Ġeffec tive
a z
C D
ĠP ar
Ġn ecess
n orm
S ec
Ġsu ccess
Ġdes ign
Ġvel ocity
Me thod
h as
Ġadd ress
Ġg reat
Ġbu il
Ġprovide d
bu g
A ss
Ġcoup ling
Ġs yn
ĠG et
ĠS et
Ġp ur
Ġmultip le
tation al
0 9
Ġop tions
ge ther
ce p
rac y
}} ,
o ot
^{ -\
L og
Ġb ro
a cc
Res ult
Ġcomm on
or ies
led ge
Man ager
gin e
al th
divid ual
Ġm essage
h and
Ġsh ort
ter ial
Ġh im
Res ponse
Ġdeg ree
om es
U N
Ġinv ol
Ġinte gr
Ġe igen
Pro perty
) |
le g
Ġo wn
O S
Ġdiffer ence
e V
Ġder iv
r ule
col umn
or iz
Ġpre c
b t
Ġb lack
en tion
Ġpro gram
Ð °
Ġthe orem
am il
F ra
0 7
ou d
inc ip
ict ure
set minus
di re
G roup
200 9
line width
Ġbo ol
ore d
Ġf ilter
Ġeff ici
Ġev olution
Ġst yle
S ub
Ġre ason
N ew
ph er
Ġfam ily
si tions
Ð µ
C lient
Ġwor ld
ĠĠĠ Ċ
Ġp lace
Ġeffec ts
in ally
ate ly
lim its
A P
und le
Ġme tric
r un
Ġ( $\
od ing
g n
Ġstar s
U ser
Ġexp ect
ĠS ystem
m es
Ġbas is
i res
om en
Ġme chan
Ġinv ari
dag ger
li ke
Ġob jects
Ġre search
a ir
Ġcontinu ous
Ġcomp ared
ĠG L
. âĢĿ
Ġin ves
sta tic
Ġdata set
6 7
iv en
par ameter
Ġat ta
M S
Ġspec ial
p ol
th es
ear ch
sub figure
N ote
A d
i ence
Ġge ome
* {
Ġare a
Ġs w
d b
w edge
Ġn odes
if f
Ġre str
c ase
ĠI s
Ġvari ous
ac es
An d
Ġsign al
> (
_ +
Ġla ter
4 7
V ert
Ġrela tive
Ġin equ
Ġ$ [
Ġagain st
9 8
ti z
emp ty
er nel
Ġh owever
to col
v an
Ġra tio
Ġdire ction
Ġpol ynomial
C all
P o
c lo
ĠAn d
Ġhy per
ol der
g ht
ith ub
N S
id ence
Ġev ents
Ġs k
we b
war ds
Ġlo c
200 8
Ġapp lied
B ar
Ġpres ented
omorph ism
ec h
\ }
in o
b lack
=" ../
g ment
20 21
e lement
de ed
Ġst d
ta ge
Ġno ise
Ġd ouble
Ġapp lic
F act
Ġp anel
Ġequival ent
T H
ĠC omm
au th
Ġre ach
kn own
Ġu pper
t urb
Over ride
Ġe mbed
le vel
ĠĠĠĠĠĠĠĠĠĠĠĠĠĠĠĠ Ġ
Ġa mp
qu are
ut ing
Ġc our
che ma
Ġ\ (
Ġsp ect
om ic
op lus
s up
Ġm ight
e ff
ty le
$ _
. "
il ities
Ġp la
ab s
j ection
Ġwh ose
EN T
Ġmo ve
Ġver tex
Ġf ar
C E
c ss
e f
U S
Ġst rate
L a
Ġin dividual
Ġtyp es
big g
es ts
Ġlay er
mod ule
Ġgroup s
iz ing
ho od
Re f
Ġcent er
( {
8 5
ok en
St ream
Ġflu x
iz es
c ast
Ġfrequ ency
umb ers
it er
Ġc l
Ġc yc
AT E
\ "
Ġ$ -
d ir
o ve
re es
Ġboun ded
Ġe mission
ou th
Ġes tab
Ġro le
la p
it al
en ari
Ġacc ording
A ME
ĠC ar
In put
ĠB ut
Ġbehav ior
ect ors
Ġd ia
Ġli k
Ġsta tis
mb ers
Ġs mooth
Ġhe ight
g ithub
P re
======== ========
Ġcon struct
Bu ilder
=" #
oll ary
di ent
Ġ ti
n amespace
Ġrepres ent
_{ (
Ġuni que
Ġcer tain
go ogle
Ġun cer
Ġd one
G ener
Ġth row
end ing
Ġne igh
sta ck
ĠUni versity
ĠS er
] )
align ed
ta tive
Ġexp licit
= {
Ġobserv ations
defin ition
_ *
i mage
_{ {\
ĠĠĠĠĠĠĠĠ ĠĠĠĠĠĠ
Ġexp an
amil ton
ic tion
w rite
P S
P h
Ġin stead
Ġs to
Ġh ence
C ount
E xt
Ġp ack
Ġoper ators
L ine
Ġpro file
ĠT r
Ġg row
ĠĠĠĠĠĠĠĠĠĠĠĠĠĠĠĠ ĠĠĠĠĠĠĠĠĠĠĠĠĠĠĠ
for ms
c r
Ġtech ni
Ġa x
Ġnat ural
s m
Ġdeta ils
; </
Ġclo sed
ĠC o
ĠA ll
4 2
. $
or n
Ġacc ount
F I
Ġde cre
Ġg as
ch ange
N ot
ĠThe y
Ġf ig
l or
ari es
' \
e vent
c orre
c ity
Ġf ocus
A G
Ġexp lo
op tions
v alues
b ul
Ġ il
ran ch
}} (\
Ġ }\
4 6
L T
Ġtr y
200 7
)\ ,
Ġen ough
Ġapp ly
Ġapproxi mation
Ġw ant
Ġsu ffici
F T
ĠB o
da p
= (
ĠWh en
text sc
me ta
Ġsymme try
ĠR o
alle l
ic ro
or ld
Ġf uture
Ġtak en
ĠP h
b ottom
u ss
Ġformu la
iz er
Sta tus
Ġme m
T rans
Ġp rac
_{ -
Ġg au
Ġsmall er
B o
app end
A M
en ti
qu ery
in ess
8 8
Ġre ference
Ġdirect ly
D ec
Ġh o
ac tive
Ġdis cre
Ġf ore
N et
Par ameter
t ure
Ġoptim al
Ġpri or
Ġa ble
Ġcur ve
V al
S U
ON T
c y
Ġto gether
Ġo pp
ma il
200 6
Ġ| \
E X
9 6
Ġin s
D ate
ide o
ĠPro position
Ġmat ter
re l
Ġv ir
) /
Ġun iform
P er
Ġext ension
Ġpo st
fra me
Ġdynam ics
or age
Ġcho ice
ial ly
H T
f s
con d
c ell
$ (
Ġacc ess
n ull
Ġimpro ve
,\ ,
rop y
Ġsatisf ies
S pec
col on
f irst
il i
Ġt ree
I M
en tif
enc ies
Ġmod ule
f act
B ase
Ġchang es
Ġp attern
u ary
ting s
Ġallow s
es ted
S upp
c lient
Ġbo olean
f it
mo ve
ĠN ULL
qu es
lic k
par a
e ded
Ġframe work
su pp
Ġam ong
Ġwrit ten
) }(
' _
E d
Ġgalax ies
Ġb order
e k
Ġw ar
\ '
Ġpro ject
Ġbec omes
) </
Ġprov ides
re ed
Ġcon struction
U til
Ġpro ced
ĠF e
Ġar bit
b a
d le
Ġbe gin
Ġpartic le
S C
Ġd on
Ġdetermin ed
Ġproble ms
Ġf un
: \
Ġ< <
Ġser vice
for all
B lock
aus sian
pr int
Ġpartic les
is ed
av es
ll ar
al k
ĠP re
ran ge
Ġver tices
Ġl ife
9 7
S tyle
Ġphys ical
Y PE
Ġelec tron
sub subsection
Ġac ross
Ġm er
Ġsample s
Ġs ite
Ġnumer ical
Ġapp lication
Ġconn ected
Ġorg an
Ġmar gin
but ton
Ġtran sp
Ġcompu te
B ut
Ġ( )
ĠC O
Ġ ]
Equ al
In stance
Ġs it
Ġre d
d ro
F e
per ties
os en
M M
Ġde mon
ĠD is
Ġunder stand
Ġt rack
P C
E C
Ġad j
Ġof ten
Ġregion s
l en
c tive
Ġh ard
Ġ- >
d x
Ġ ~
S p
Ġexperim ents
Ġconfig uration
s a
) ^{\
Ġen ti
Ġpr incip
Ġma ps
use d
t arget
Ġradi us
Ġre st
Ġcorre ct
an k
Ġsimula tions
Ġspectr al
n a
ĠB e
Ġarg ument
al og
ĠH ence
Ġma jor
Ġ ir
ic ense
Ġdiscus sed
Ġp lot
Ġun til
Ġs cheme
= -
Ð ¸
ol s
od er
d im
Ġg overn
op tion
Ġgau ge
Ġdis play
pa g
per p
Ġn uc
re mark
Ġan g
str ong
Ġcomp act
bo ok
c s
F irst
}$ -
ĠW ith
âĢ ľ
v ant
Op tions
m ine
in a
T oken
and s
Ġsc atter
Ñ Ĥ
Ġamp lit
Ġclass ical
z ero
) _{
N ow
ĠS e
Ġs ources
Ġco ver
Ġdescri ption
tri es
Ġhe ad
ch ild
un e
Ġcri tical
E q
Ġe asi
< !--
Ġ+ \
li b
ve x
ar ing
Ġra ther
Ġ row
Ġincre ase
I mage
Ġma terial
ĠO ne
ta ct
o graph
se lect
4 3
ma g
O per
Ġn umbers
5 7
al y
O ne
Ġcorrespon ds
oh n
co mple
our s
Ġlat tice
F unction
Ġso ft
oc ial
in te
20 00
p g
19 7
S ource
Ġg ame
ĠL ist
Ġincre asing
ific ation
Ġand roid
p matrix
ur y
c el
Ġth ink
Ġaccu racy
Ġto o
u sion
Ġinequ ality
Ġsc enari
Ġclass es
Ġmoment um
) ^{-
Ġup date
gorith ms
c at
g ies
Ġag ree
Ġd omin
ph p
Ġen vironment
ymp to
I L
tribu tes
5 8
gra ms
I mp
Ġs en
Ġ" ""
Ġcomp arison
Bu ffer
id den
Ġg round
c ases
Ġspa tial
Ġques tion
5 6
ite ct
Ġconstrain ts
Ġ item
Ġne gative
Ġstr uct
Ġresult ing
k ip
Ġman if
op en
re m
d l
Ġwork s
S O
pro perty
{ {
Ġrepres en
F ilter
ĠO r
Ġar ch
Ġpe ak
pro cess
ĠR ec
Ġapproxi mate
S D
re spon
Ġinter nal
ĠH amilton
ber t
200 5
Con n
Ġed ges
Ġf ul
, âĢĿ
Ġper formed
Ġc apa
o o
}^ *
Ġper turb
ri er
ide d
Ġdescri be
Ġbec ome
Ġcon ven
ĠC oun
ab ly
Ġintrodu ced
Comp onent
Ġwor ds
o od
des cription
ig ger
Ġdemon stra
Ġcoeffici ents
ĠĠĠĠĠĠĠĠ Ċ
f ont
Ġassump tion
c ord
" .
R I
ad ding
) }{\
At tribute
Ġcent ral
la sh
requ est
Ġlang uage
Ġde comp
ce ed
)\ \
j son
{ $\
us iness
ty p
pd ate
par se
ari ly
Ġmin imum
Ġder ived
Ġmeasure d
Ġmeasure ments
Ġoper ation
Ġt ensor
Ġnetwork s
R un
c ount
bul let
Ġdec ay
Ġneu tr
$ ).
O ff
M C
ding s
Ġspec ified
Ġin c
u ation
b i
Ġil lu
p tr
an ish
and id
f loat
d ist
f ilter
Ġauth or
Hand ler
Ġpar tial
Ġ+ =
st ream
.~ (\
\| _{
Ġw indow
l s
Ġqu ery
Ġch ain
Ġlo op
le y
Ġh ttp
mat ch
Ġse lect
}} ^
Ġscal ar
r u
4 1
Cont ent
b ound
in it
a ma
H ere
ĠUni ted
Ġfra ction
ĠC an
Ġcontribu tion
Ġpol ar
Ġp age
tric es
~~ ~~
Ġh aving
me q
Ġal most
Ġmo tion
o sed
\ _
su per
Ġinter pre
ĠMore over
ser ver
Ġdi ag
F A
olu te
s g
Ġexp lain
n um
Ġplan e
Ġre l
Ġemp loy
Ð ½
n umber
ĠD ata
ĠI N
ĠT est
Ġres ource
al t
Ġcorrespon d
N av
m ma
U E
} %
g ress
Ġmag n
sequ ence
ĠH ere
m t
s es
im ilar
Ġext ends
ĠL o
L ay
ous ly
T O
Ġerr ors
Ġp ut
si meq
Ġt w
Ġcalcula ted
' }
cre en
Ġinves tig
C ur
v ider
g ges
stra ct
Fact ory
I P
p le
Ġd ocument
Ġdete ction
Ġdistribu tions
Ġdeno tes
Ġro ot
Ġsim ulation
Ġpop ulation
in f
Ġnecess ary
Ġh app
Ġcompu ted
Ġthe ore
r up
l ines
For mat
Res ource
s rc
M eta
x ml
he ader
200 4
Ġse lected
urther more
b all
ĠAmeric an
is ted
A ction
u ro
ĠO ur
Ġv olume
| _{
N ext
RE F
f ree
} )$.
B ox
Ġcorre lation
)$ -
ER T
P r
ĠR eturn
Ġintegr al
g th
C P
Ġ= \
Ġsupp orted
Ġd raw
}} ^{
m ing
se mb
as y
Ġpre ss
Ġth ird
f il
6 9
is ms
Ġdiff ic
$ $\
il ib
D B
ra di
fo o
N umber
Ġsp lit
Ġin finite
ĠRe g
j av
Ġdepend s
Ġconn ection
tot ype
Ġlo cation
f a
um in
Ġconsist ent
ast er
Ġsh all
Ġc lient
Ġ( (
A cc
LA SS
Ġs ense
u k
ti k
Ġtech n
D O
Ġlead s
ho st
lo or
$ ^{-
map sto
Ġfa il
end ix
Ġatta ck
H el
li er
ĉĉĉĉ ĉĉĉĉ
G ra
h om
Ġbo ok
og ene
is ing
h ib
ĠC or
ance d
Ġal gorithms
Ġproced ure
fin ished
s ol
ri es
rodu ction
* /
Ġinter face
Ġinte ger
Ġc laim
fin ition
Ver sion
Fra me
u ter
resh old
O ur
illi on
Ġch osen
Ġo ld
Ġus es
b reak
ta te
Ġor bit
ĠQ u
Ġear ly
ash ed
pa rent
Ġs chool
Ġb ody
ren gth
able s
Ġlead ing
Ġrequ ires
Ġd ay
min i
Ġsol id
Fig ure
ĠP o
D F
Ġtak ing
end if
s cri
L ink
c d
L S
clu sion
Ġstudi es
ion s
Ġh uman
ma tions
id ing
Ġse lection
Ġk ernel
la st
Ġinvari ant
ĠM an
Tr ue
Ġbo x
ph ere
Ġstudi ed
Ġ&= &
Ar g
Ġhal f
( [
Ġre view
~ $\
Ġcol lection
Ġtak es
new command
Ġs ent
on y
} );
un it
Ġr ule
ob j
it ude
Ġexperim ental
Ġcur ves
Ġsimp ly
p res
mp ty
Ġh ome
T ask
Ġth rows
Ġsh ape
Ġh ar
Ġsu gges
Ġ{ @
R ow
Ġma kes
le ase
Ġrepres ents
ite ms
Ġ$ {
The orem
Ġexample s
Ġcho ose
bt n
P R
Ġtrans form
v o
Ġdisc uss
s igned
v olution
v ity
Ġd oc
) _
Ġsymme tric
Ġredu ced
N ull
P ol
$ {
ĠY ou
Ġpol icy
i ver
Ġ ensure
Ġprote cted
Ġm ention
Ġdepend ence
g u
Ġne eded
N O
Equ als
8 7
op t
on ly
Ġc ause
Ch ar
ref ix
Ġan gle
ĠS ch
ra g
Ġch all
pro position
ĠG aussian
p ush
Ġexpan sion
Ġmin im
ta sk
er a
Ġbel ie
Ġsub set
5 1
a a
Ġarbit rary
ck et
\ {\
Ġuse ful
M ore
p lan
ot o
Ġd ual
Def ault
ĠO p
ĠN one
v ector
Ġma trices
ĠS p
Ġ$ $
on ic
al i
Ġspect ra
refer ence
ĠF rom
Ch eck
Ġchar ge
stru cted
b lue
H E
od ot
Ġo ption
ĠRe f
Ġmem ory
Ġp ub
Ġfor mat
5 00
Ġat ten
se m
h el
5 9
Ġdeter mine
le an
ate gor
lic ity
Ġc are
un finished
Ġinclu ded
ilib ri
^{ +
im g
for mat
i ti
dition al
ix el
a uto
b old
Ñ Ģ
el se
Ġmod es
Th us
) },
p icture
P RO
Ġcharacter istic
Ġ ess
Ġst ream
Ġspa ces
Ġs ymbol
Ġintrodu ce
us ic
F ONT
Ġam ount
out put
Ġex ecu
en ch
Ġenti re
-- -
//////// ////////
$ ;
Ġtrans fer
sta tus
ĠG ener
Ġgener ate
lay er
bu ild
ĠC al
Ġh ost
Ġy ields
5 4
Ġprocess es
Out put
Ġad ded
s ue
p rivate
st ers
Ġpos si
Ġinterest ing
tr an
de g
ĠF irst
st d
Ġran k
or ds
Ġke ep
oc ation
Ġqu ad
z z
Ġbin ary
ĠSta tes
Wh en
Ġpair s
c f
Ð¾ Ð
Ġdis k
om s
Ġimp act
sh e
200 3
in ner
i um
Ġres olution
H owever
Ġp arent
Ġillu stra
Ġcre ated
r l
lic e
Ġcomp are
po st
up date
Ġm id
in ue
po se
ĠC ent
Ġas ympto
' (
re du
Ġac tive
Ġconver gence
ran t
5 2
Ġrele vant
W indow
Ġexperim ent
ag ed
Ġp ay
Ġbu ild
ĠS te
v ision
h bar
Ġon ce
omorph ic
L P
Ġc ount
ĠOb ject
thes is
Ġpres ence
C ase
V ER
Ġcompu tation
ad ing
_ -
c ref
Ġs s
IN T
ĠN e
str ucture
S c
m c
Ġc ut
tik z
ĠM ar
Ġre con
Ġal ign
Ġb ar
Ġspe ed
Ġme ta
Ġ ;
Ġste llar
no tation
P O
ĠHamilton ian
Ġapproach es
8 6
ri ed
" ]
m ented
Ġlar g
Ġle g
La bel
C om
con f
th en
Ġstructure s
C reate
le x
ar gs
h y
Ġd ate
Ġpar ts
tr ics
Ġfor ce
// /
Ġser ver
pro du
Ġt reat
display style
Ġfig ure
Ġme mbers
Ġco py
Ġgo ing
Ġquan ti
Ġsc ore
s ur
s cal
Ġestima tes
a ded
Ġst rength
Ġste ps
Ġincre ases
Ġprodu ction
Ġdec ision
$ ~
Ġst ra
ĠSta te
s ign
Ġarg uments
ve y
T ag
} &
S A
P age
Ġc ategory
b l
de c
Ġobser ve
i ous
Ġapplic ations
( &
ĠM ay
Ġal tern
Ġexact ly
ĠN ational
ĠM on
ĠA PI
res ults
> >
ar ds
ar p
Ġeasi ly
Ġv o
Ġlat ter
) +\
Ġinter val
Col umn
int y
Ġc andid
Ġt ag
Ġco re
yp es
ĠB u
N e
Ġarch itect
Ġh oriz
fin d
Ġknow ledge
} }$.
ds h
Ġit self
} }$,
Ġre n
Ġrep orted
el er
er al
mini page
Ġde ep
Ġne ver
ĠP ol
a o
Ġv ectors
u me
Ġa ut
R eturn
Ġsta tus
6 3
k er
Ġmeasure ment
}{ |
S ON
[ "
g an
ge ts
Ġdia gram
bu st
Ġw ord
8 9
Ġ url
Ġin ner
Ġstrate gy
) -\
ta inty
AB LE
L ength
t ree
medi ate
Ġcoordin ates
C S
Ġother wise
t x
Ġex cept
Ġcirc le
ĠâĢ Ķ
ilibri um
te ger
id get
so ft
Ġrep ort
Re ad
Ġle mma
ĠĠĠĠĠĠĠĠ ĠĠĠĠĊ
ic ial
in stance
Ġb ranch
in y
Ġn one
Ġiden tity
pre c
Ġfact ors
ĉĉ Ċ
v a
sh ow
Ġext ended
de p
Comm and
param s
Ġh old
Ġn orm
S tr
Ġclassif ication
ra p
Ġma king
q l
vers al
il la
E L
Ġp as
St art
} )$,
Ġf ive
_ .
R ight
dire ct
r ont
Ġwe b
6 2
ra int
f la
ri ef
Ġf ace
Ġre cor
bu f
Ġw ide
Ġh istory
Ġestima ted
al g
Ġco me
Ġg ap
Ġo sc
ou ght
ri ver
ĠS upp
Ġinteraction s
ĉ ĠĠĠ
Ġexist ence
an te
ec ause
Ġlik ely
en sive
B U
si ties
igh ted
ential ly
nav bar
5 3
Ġt or
s ystem
M B
Ġpers on
respon se
Ġremain s
und am
Ġdevelop ment
Ġb it
Ġis su
Ġsta ble
Col lection
se ud
p lace
A uth
ĠT ype
.... ....
es ti
Ġreturn s
Ġth ough
P P
tain s
Ġlink s
ĠG ra
Ġneed s
. /
ĠJ an
\ )
Ġ[ ]
We b
Ġconst raint
Ġstr ict
Ġful ly
ent ry
tif ication
row ser
Ġsatisf y
semb ly
M ax
b es
vari ant
ĉ Ġ
age ment
er man
an i
Ġpar tition
ĠM in
Ch ild
re me
Ġ$ |\
C L
Ġus ers
Ġgra dient
R em
iv ing
b its
ĠI I
Ġoptim ization
y l
it z
clo se
ĠS ee
Ġcomm and
Ġcol l
back s
$ ),
tif act
Ġsignificant ly
[ (
co ver
: }
Ġp ul
Ġgraph s
ol ve
Ñ ģ
Ġinf lu
u be
, "
n os
. )
ĠG e
Ġcontain ing
I F
) )$
Ġappro pri
T emp
lat form
Ġ$ .
Ġno tation
Ġexist ing
r s
Ġbel ong
Ġwh ole
N R
ser vice
C ON
Ġb lue
Ġpredic tion
Ġanal og
f aces
ĠTh at
less sim
Ġpro pag
Ġon es
ĠP e
U p
Ġtask s
Ġdistribu ted
las tic
Ġcons ists
9 4
Val id
u int
con tainer
ti ves
}$ )
" ).
UR L
i mages
Ġfor mation
ma ke
S u
Ġf ac
Ġemp ty
Cont roller
s cope
Ġc ustom
Ġvir tual
id ent
if fer
Ġte am
in ct
List ener
Ġdevelop ed
ĠD es
Ġax is
Ġtrans formation
ĠJ ohn
re move
Ġ ve
er ing
200 1
}( {\
ĠM a
mit ted
) }_{
S M
Ġg rid
Ġf ix
sid ent
con g
" ),
ont al
Ġv anish
8 4
ol ic
Ġe asy
or al
Ġdiffer ential
p lugin
\!\! \!\!
Ġscatter ing
âĢ Ķ
oun g
T P
ra tic
200 2
f loor
ĠE ng
Ġan ti
Ġboun ds
u ly
M ode
,\ \
Ġrep la
z ed
b ot
9 3
9 2
ĠI D
Ġop tical
Ġcon cer
Ġstate ment
al gebra
ĠP er
ĠH REF
Ġgovern ment
Ġc atch
r and
ĠS ci
Ġcoun ter
S o
op ic
on es
oun ter
&= &
model s
pro totype
fin al
Ġd r
u ations
Ġchild ren
Ġm orph
en ing
Ġgalax y
in ary
p ts
it ing
Con st
Ġl ib
Ġrelations hip
Ġra tes
Ġav oid
ber g
H z
Ġin side
Ġabs olute
is es
el i
so le
ĠA cc
Ġcon vex
}{ (
S L
Ġp ort
on ical
Ġan n
Int roduction
ĠC lass
Ġ! ==
$ };
Ġcon clude
Ġassu med
Ġinclu des
a ther
C A
Ġcour se
ing u
return s
Ġamplit ude
ĠC LASS
ogene ous
cc cc
p ass
h igh
ĠD o
x x
ĠA fter
b and
Ġbas ic
Ġoper ations
7 2
P oint
Ġmon th
M D
du cation
ip s
il er
A c
,\ ,\
g ments
k it
ĠF ran
Ġd ark
Ġcontra st
per im
Ġqu ark
s d
N AME
Ġ ...
ac y
Ġneigh bor
7 6
Ġide a
an a
S ection
Ġdep th
id s
Ġres on
de v
tab ility
ma ss
Ġma ch
iv es
ĠĠĠĠĠĠĠĠĠĠĠĠĠĠĠĠ ĠĠĠĠĠĠĠĠĠĠĠĠĠĠĠĠĠĠĠ
ess ages
There fore
ĠS he
Ġrestr ic
exp ected
ĠL icense
Ġsuccess ful
100 0
Ġauth ors
lay out
ĠS ub
ck now
Ġallow ed
O O
ĠV er
Add ress
erm al
) }}
as tic
Ġj ob
o site
Ġde vi
Ġre t
CO L
ĠE X
- $
th on
h box
**************** ****************
con s
Ġgo al
g ers
b ly
ec ts
ti li
T YPE
Ġre pe
Off set
Ġex ci
lo ts
Ġ[ \
W rite
Ġs ocial
f i
is try
Ġs light
Ġremo ve
m ode
Ġreg ime
Ġw ater
ed ia
Ġa dap
v alu
tri e
stit u
Ġfil m
U pdate
off set
ER R
G C
L ast
Ġbro ad
A V
Ġpress ure
Ġtra ject
ro un
it ory
pro ject
on ds
Ġmo lec
, $
Ġass ign
B ack
' ).
d f
is ation
Ġmass es
iz ations
Ġcontribu tions
Ġobserv ation
Ser ver
Ġimple mentation
Ġlevel s
Ġan sw
ch ron
But ton
Ġa ge
ynam ic
Ġ\ (\
: =
U I
Ġpres er
ymme tric
R L
Ġlay ers
u gh
uro pe
Ġk ind
ĠDe f
fer ences
c ome
< ?
Ġb usiness
f for
Ġis sue
ang ed
sh ould
Ġcommun ity
Ġ{ }
C ache
I O
ĠG u
N D
temp late
undam ental
ĠY ork
d frac
8 2
Ġth reshold
Ġd est
9 1
Ġact ually
Ġqu ality
Ġexp on
ur ch
Ġindu ced
ĠĠĠĠĠĠĠĠĠĠĠĠĠĠĠĠ ĠĠĠĠĠ
sequ ently
ĠS pec
Ġb ottom
at tr
\ }$.
tif y
Ġhy po
as cript
Ġdata sets
Ġs quare
Ġoff set
du al
Ġcalcula tions
U sing
t w
6 1
Ġp ixel
Ġprodu ced
Ġtechni ques
av y
cont rol
Ġy et
Ġform al
action s
Ġpol i
Se lect
Ġdiscus sion
u es
j o
Ġosc il
Ġuncer tainty
Ġb ul
] }
Ġform er
ma tically
}[ \
Ġb al
Ġmagn itude
Ġstar ting
ste p
Ġagree ment
] $.
Ġsub ject
B C
Ġang ular
Ġdeno ted
Ġbe am
Ġent ry
++ )
Ġrece ived
ist or
Pro vider
$ :
Ġsw itch
n d
Ġh ol
: "
D o
en tity
li de
k a
ĠN ow
al gorithm
s or
ĠH T
I V
ĠM odel
D ire
Ġ{ };
a fter
Ġp ure
Ġag ent
Ġ{ $
Ġor i
.. .,
Ġs ix
ter m
ĠM ark
Ġs low
F inally
Ġcalc ulation
ma s
bra ce
| |
Ġdete ct
M in
}\ ,\
Ġa way
Ġmin imal
ĠR em
D D
Ġl en
Ġdiscre te
in st
Â ł
Ġact ual
Ġt riv
Ġcomplex ity
an n
Ġscal ing
t rain
ĠIn ter
Ġrun ning
Ġi ma
ĠS c
Ġflu ct
ad o
) )\
al es
Ġlit erature
ga ted
`` `
Ġfor ms
m enu
Ġs us
en ess
ĠL i
s ample
ar ante
) --
Ġw in
Ġc aus
Ġlong er
ĠWh ile
3 00
Ġhe alth
Ġsa mp
Ġm es
^* $
T ra
da ted
F orm
W idth
Ġv ol
V is
A fter
Ġre dsh
Ġwork ing
Ġabs or
Ġren der
Ġtheore tical
Ġat temp
t frac
re la
Ġde vice
p atch
Ġcont inue
S te
is k
para graph
se ct
Ġmechan ism
Ġfile s
Ġbu ffer
ĠF inally
O P
' ),
if ically
Ġredu ce
big l
ch astic
Ġlim ited
Ġg ain
for ward
bo ard
c p
um ing
comm on
A PI
requ ire
Ġwh ite
Ġd ays
Ġad v
Ġent ropy
}} )
Ġlo ad
B undle
b matrix
di a
199 9
Ġ ^
Ġv ideo
Ġex ternal
ve e
Ġcoeffici ent
big r
Ġre ally
Ġre cord
T ypes
g ent
Ġgrow th
h a
Ġachie ve
ĠW orld
Ġindic ates
Exp ression
al let
Ġfe ed
pec ially
ĠG o
Ġsub group
Ġcombin ation
al ysis
Ġ ener
Ġweight s
Ġb ene
j ected
de t
ma ted
Ġsatisf ying
auth or
S H
$ &
ome try
ir al
ro ot
ĠE qu
Th ese
Ġma pping
Ġsta tion
ta x
C K
A b
Ġestab lish
Ġr ules
8 3
Ġde al
Ġn ature
empty set
] $,
in al
Ġlit tle
Ġus ually
F R
Ġover all
is s
M R
Ġhand le
\ ;
Ġro tation
T ree
En try
Ġsta ge
ne y
Ġw on
Ġatten tion
}} _{\
Un it
oun ded
d y
ĠW ar
Ġother s
un k
}) }
Ġ< !--
math op
Ġconf ir
Ġup on
Ġf lat
Ġqu asi
ud es
Ġdimension s
Ġk ine
Ġme mber
Ġaccu rate
7 4
Ġe lect
G B
$ _{
sem ble
to ken
re al
t wo
Ġprodu ce
7 9
er c
ial og
Ġradi o
: </
oun ts
Ġu int
op s
Ġappropri ate
ĠT e
Ġpr int
Ġqu e
oun ds
Con tainer
ig ation
tribu tion
Ġsh ift
Ġqu ite
tr iv
E M
Ġclu sters
Ġcap ture
st s
}} }\
Ġvis ual
Ġscal es
Ġpro ved
at ri
rac ted
Ġrepres ented
en um
Ġcalcula te
U rl
Ġgeome try
ec ute
ĠP a
S R
c lear
Ġn or
Ġesti mation
Ġin verse
Ġ\ ]
ati ves
ĠâĢ ĺ
P U
ome tric
po ints
ĠO F
Ġl and
Ġsing ular
w indow
R o
d r
Ġappear s
En tity
Ġre si
jav ascript
Ġb ig
os ity
Ġidentif y
Ġme tal
Ġto wards
Ġv ary
un g
im es
bo ol
a res
Ġcoun try
imilar ly
P ack
ĠE urope
Ġpro jection
Ġev idence
Config uration
Ġmeasure s
7 3
ĠF ile
Ġbehav i
Ġscenari o
u x
Ġth ick
Ġdiffic ult
( _
Ġne ural
Ġgener ation
ĠC ont
Ġstrong ly
v s
ul er
vis ed
Ġp ast
in ation
Ġremain ing
Ġidentif ied
He ader
wh ite
am ily
dic tion
E Q
Ġcall back
}} .
res ource
un i
Ġdeta iled
ul i
Ġgener ally
ĠU sing
n ers
Ġcoll ision
Ġide al
as ic
Ġex hib
cript or
% %
Ġpar allel
Ġob j
Ġm ix
L i
S ee
Ġsetting s
T I
Lay out
Lo cal
Ġstra ight
Ġe con
me m
n ap
d om
Ġrecent ly
b um
Ġth ermal
ĉĉĉĉ ĉĉĉ
T arget
bu ffer
[ -
, {\
Ġtemp late
Ġf loat
Ġredu ction
R ange
8 1
she et
Ġex ception
Ġde m
#### ####
ol ved
Ġ* *
Ġst ore
Ġj oin
c ar
ategor ies
] );
Ġtrain ed
M atch
| }{
Ġf ont
j oint
Ġdecomp osition
Ġgu arante
Ġar gs
Ġmention ed
Ġfunction al
Ġnuc le
Ġcoordin ate
Ġcom mu
Ġ ign
Ġis o
}) =
ad a
CO DE
ĠE d
I ST
ĠN S
ĠĠĠĠĠĠĠĠĠĠĠĠĠĠĠĠĠĠĠĠĠĠĠĠĠĠĠĠĠĠĠĠ ĠĠĠĠĠĠĠĠĠĠĠĠĠĠĠĠĠĠĠĠĠĠĠĠĠĠĠĠĠĠĠĠ
Ġr ing
Ġun its
ĠA ug
() ->
ĠD i
Ġcomp any
column width
Ġal though
ĠS T
v ature
Ġcyc le
d iff
Ġlarg est
al low
Ġm icro
Ġc li
ĠF urthermore
Ġloc ated
ro y
ĠReturn s
p id
Ġequ ilibrium
u ck
z on
Ġexper ience
en omen
Le vel
Ġe q
Ġc riter
Ġdist inct
Ġfor ward
Ġ\ !
Ġpri mary
}} ^{\
Ġsit uation
Ġconsider ing
i table
ula tions
Ġon line
Ġpro tocol
Mod ule
Ġout side
om an
ĠAr ray
f ect
Ġs ure
Ġro bust
i tions
M O
io ta
ula ted
c yc
Cont rol
] {\
ĠĠĠĠĠĠĠĠĠĠĠĠĠĠĠĠ ĠĠĠĠ
Ġen h
Ġevalu ation
Ġpro por
Pro cess
ĠB ri
si tivity
s ure
z ing
K E
Ġbuil t
ĠApp endix
ĠU S
Ġconst ants
b ur
part ment
Ġf all
Ġcon tact
Ġ ^{
an ti
Ġes pecially
pro to
Op en
Ġf undamental
de ta
ra ft
Ġat tribute
Ġsol ve
C R
Ġs tri
Ġcon structed
Ġreturn ed
ight s
Ġsamp ling
G R
script size
Ġc ity
Ġclear ly
a j
s table
C al
Ġsta ck
ã ģ
Ġreg ister
Ġf i
Ġm illion
Ġembed ding
ble m
y ond
Ġrepresen tations
ĠM o
Ġhas h
class es
ra pper
Ġp l
ste in
figure s
ter min
Ġto ken
tiz ation
Ġrep lace
su ch
Ġg en
}) ^
ĠO ct
X X
Re ferences
AT ION
b al
long rightarrow
F la
up le
c ache
ĠA dd
is sion
Ġcom es
ak ing
Ġmax imal
I m
for ce
He ight
Ġrela tively
ĠS u
T op
Pro of
Ġgreat er
Ġevalu ate
Ġsuffici ent
o ke
f ull
Ġmatch ing
L emma
ĠC l
S ch
N one
s y
Ġre mark
os ing
t un
Ġwh y
Ġc r
Z E
Ġestab lished
Ġver tical
Ġsimp l
se cond
G N
c us
w s
Inter face
t ml
Ġe p
199 8
ct x
S cript
g ian
sl ant
tric t
Ġsec tions
ĠB ar
ĠS chool
u tes
tif ic
P os
H ttp
^{ *
Ġma s
Ġsoft ware
Ġsuffici ently
re q
Ġpartic ip
Ġchall en
Ġtest s
Util s
Ġbec ame
p lot
equ al
ĠJan uary
Ġindic ate
Th at
Ġme et
Ġcomplete ly
) }_
comp onent
Res ults
Ġeffici ency
lo op
y ear
Ġdiffer ences
Ġunder lying
$ {\
7 1
Ġset up
Ġcontain ed
Ġprevious ly
ĠM arch
math it
tain ed
} |\
P osition
H ash
ĠEx p
Ġa im
Ġslight ly
triv ial
Ġdeta il
Ġmod ified
Par ams
: (
Ex ternal
\ }\
Ġphys ics
form al
Ġinflu ence
ch em
m n
Ġmanif old
}_{ -
multi row
Ġp seud
Ġcon cent
ch or
man n
\ }$,
P A
Q L
k y
h am
un ch
ap s
E mpty
R R
Ġdiag onal
ĠAl so
H ence
Ġissu es
udi o
Ġre ve
ap ter
ĠE ach
Ġlear n
Ġh ole
Ġexp ressed
ag ing
Ġaction s
Ġlim its
Ġmean ing
Ġf erm
Ġ> =
Ġ} {
Ġse ason
circ le
Ġtyp ical
Ġassump tions
ad ow
Th read
our nal
Ġbuil ding
> \
mag netic
ĠS ome
ist ration
\ |\
N E
Ġ Â
are n
tikz picture
ig gs
av el
g lobal
Ġmedi a
w ait
Ġm usic
AR T
Ġter min
V ari
wh ile
pr il
var theta
ĠS outh
Ġsome thing
Ġno vel
sub sec
="../../../../ ../
h ic
te mber
Ġc ry
tt ps
Ġph enomen
Ġsp an
Ġexplicit ly
Ġj oint
/ (
Ġapp lying
Ġcon du
Ġs ession
Ġdes ired
| }
][ ]{
pa ir
Ġstud ents
Ġs cope
âĢ ¦
}$ }
Ġsa ys
d ouble
ĠS ep
am l
for d
ph ys
Ġv ac
Pro perties
Le ft
ax is
=" -
Ġth ings
ch annel
Ġre call
en tic
per s
ĠAss ert
D i
ri ve
Ġhigh ly
ura tions
W ork
Ġn av
: =\
is ely
+ (
Ġphot on
ĠN ame
Ġser vices
& =\
ollow ing
Ġpro f
Ġof fer
ist ent
pro te
Ġdepend ing
> ,
in i
Ġpredic tions
ĠC reate
or i
Ġdi ver
V AL
Ġbe yond
Ġd ig
ĠT rans
ĠH ar
umin osity
ou rier
p op
o ber
Ġad van
} ~
g reg
Ġs m
ature s
}} =
Ġn ames
C an
Ġ* )
Ġname ly
Ġcon sequence
ti sh
ĠP r
Ġplay ers
Ġasympto tic
Ġcurrent ly
m os
j oin
Ġext reme
Ġh ttps
sk i
ce mber
om y
Ġde ath
Ġder ive
Ġderiv ative
la bor
Ġstatis tical
B A
cal led
f lu
Ġcompu tational
Ġe mer
b ing
Ġblock s
d ocument
Ġener gies
Ġ items
A ccess
G iven
Ġvari ation
me ds
Ġlabel s
le ge
Ġet c
F O
sh ip
am era
in ternal
Ġtop ological
ang ular
Ġnon linear
Ġto ol
Ġmark et
H O
) ).
Ġas k
Ġmach ine
meds kip
Conn ection
Ġoccur s
ĠJ uly
Ġpol y
typ es
Ġtriv ial
ĠJ une
Ġsta bility
M ulti
t iny
Ġcomm it
G e
k i
Ġtest ing
ĠL ag
Ġvari ety
D oc
Ġo dd
Ġd x
Ġelec tr
if ts
L ong
Ġex am
D ir
ĠĠĠĠĠĠĠĠĠĠĠĠĠĠĠĠ ĠĠ
Ġqu o
at ory
Ġb os
no tag
ST R
Ġse mi
Ġdete cted
M on
J son
Re ference
Ġ er
ren der
ib ration
ĠG erman
Ġi on
^{ (\
I ter
d ash
Or der
parameter s
b ib
Ġa ir
st ore
Ġpropo se
be fore
et ch
ĠIn deed
Ġachie ved
com ment
N on
Ġpredic ted
De finition
ĠIn tern
Ġd ust
di ag
Ġcon clu
ĠM y
Ġen gine
el ine
Ġprac tice
u it
ĠL a
L ocation
it ter
Ġent er
b p
Ġuncer tain
Ġext end
medi ately
}\ |
Ġprob ab
Ġ$ ,
ĠA ct
m ult
el low
ex ists
Ġ }}
Ġbi as
ĠL ie
one y
In teger
reed om
sh ot
Ġis omorphism
Ġor th
Ġare as
for mations
anc y
Ġar ticle
Ġarchitect ure
Ġcon j
4 00
Ġres ources
Ġcur vature
Ġtra ce
a ut
;\ ;\
h ash
Ġ math
= .
ult ure
de vice
Ġa pi
Call back
Ġprincip le
ĠA u
) })
Ġob jective
c a
COL OR
ther n
Ġcan onical
Ġc amp
entif ier
@ {
Ġt un
Ġb r
=" _
Ġx ml
Ġf ast
Ã ¡
" ))
Ġsum mar
i ra
Ġg ot
Ġlocal ly
Ġch em
ar tifact
Ġsee ms
Ġintegra tion
Ġchannel s
ser ved
ti ent
ĠO ther
P tr
m f
if ier
ci ble
c ro
ve mber
sh ape
Ġd riv
Ġelec tric
Ġc ache
Ġacc eler
Ġel lip
PE CT
Ġdynam ic
P e
B S
ati ble
C ore
Ġpub lished
ant om
ĠA f
no ther
Ġshow ed
C lo
Ġpath s
ĠL og
Ġst ory
AC K
P L
ier arch
ĠS w
c opy
Con sider
Ġmax im
Ġu tili
en n
en ed
Ġsto chastic
T e
C opy
Ġover ride
un ity
Ġcombin ed
il le
Ġeffici ent
p ite
Ġgeneral ized
s v
Ġlo t
Ġear lier
ĠM c
D A
X i
Ġ( {\
Ġvari ance
gg est
Ġon to
Ġs pher
E ach
Des cription
Ġproduct s
tiv ation
ĠC ity
" ));
lat or
Ġa ver
ench mark
Ġtransp ort
Ġf oot
ĠCh ar
do main
Ġe ffor
ĠN orth
back ground
ĠA pril
Ġhigh est
Ġtyp ically
ec tions
w ell
Set tings
ound ation
Ġcon cept
vari ance
) ),
eli hood
D M
Ġ$\ {\
re sp
ymme try
Ġsatisf ied
Parameter s
Ġansw er
cont inu
ĠSep tember
Ġh idden
Ġradi al
( -\
. \\
20 22
Ġcomp uting
Ġwhere as
Cur rent
Ġs ong
st ri
ĠAug ust
O ption
Ġd ashed
Ġcomp e
Ġexp ec
gener al
st ro
Ġ\ &
St ore
M app
util s
n n
si vely
Ġapproximate ly
% ;
Ġf ri
re ated
pro b
Ġpar ams
Ġc m
ur i
Ġdynam ical
avel ength
U M
ill s
Ġc at
lap se
Ġsu ff
et al
rop ic
ĠA c
OR T
Ġcommun ication
de bug
ula te
Ġplay er
Ext ension
S earch
ĠO R
Ġp adding
Ġtechni que
Ġm u
stit ute
Ġstar ted
Ġco inc
Ġhy dro
! ]
ĠD E
Gra ph
Ch ange
Ġun known
Supp ose
g reen
re w
ta mp
c il
m al
ĠDe cember
() :
S chema
Ġs ched
b et
; ->
Ġinvol ved
sel ves
D P
Ġfil ename
h ar
Ġsec urity
Ġdata base
S ession
Ġn et
25 5
Ġv io
Ġwe ek
en ta
ga ther
\% $
ms g
ĠRes earch
Ġr isk
Ġf av
ograph y
Ġob vious
Ġsequ ences
Ġdimension al
}{ *
op tim
Ġpo sitions
Ġin deed
inter face
D S
^* \
iction ary
ĠĠĠĠĠĠĠĠĠĠĠĠĠĠĠĠ ĠĠĠĠĠĠĠĠĠ
backs lash
con dition
Ġw aves
Ġdis per
trans form
Ġn amespace
ĠOct ober
Ġg l
og onal
ĠEx ception
C l
Ġbul k
D R
vi tational
Ġprec isely
h al
Ġgener ic
ject ure
Ġmas sive
ar c
)-- (
in itial
serv ation
h s
Ġneigh b
ĠO ff
Ġal bum
Ġcomp an
Ġcell s
la tes
Ġma sk
r d
S um
en v
Ġto ok
it le
Ġpack age
Ġeigen values
c ategory
Ġus ual
Ġfin ally
Ġpur pose
Ġdeg rees
Ġfollow ed
Ġdist ingu
Ġsh are
we ight
Ser ial
Ġc la
="../../../../ ../../
Oper ation
cor ollary
re a
C F
V ar
CT ION
^* (
25 6
K ind
G E
Ġco sm
Ġperiod ic
ĠH igh
po ch
More over
stra p
ĠT ra
b on
Ġright s
Ġac tivity
Ġwrit ing
atri x
ar ding
Imp l
ĠB ay
Ġim mediately
lar ge
Ġw omen
Ġcan cel
12 8
ĠG al
Ġdes igned
Ġradi ation
ĠCh eck
Ġs qu
rid ge
B R
Ġextra ct
Ġy ield
u ge
Ġth read
P ri
Ġredsh ift
a e
F ont
br id
Nav Bar
it ary
f n
Ġname d
ST ATE
ĠT ime
1 20
AL L
Ġd rop
) ^\
sh ort
Ġse man
ĠB G
Ġindic es
Ġdoes n
ĠS U
Ġre li
Ġver ify
Ġb undle
199 7
As ync
Ġun defined
Ġth ought
f ields
Ġimple mented
an o
H ost
ĠNo vember
pro duct
Ġte ll
Ġex clu
Ð »
Ġent ries
Ġpop ular
! \
leg ate
Co mple
ĠA b
by te
Ġunderstand ing
ad s
cri min
Ġ ::
Wh ile
P RE
ne gative
Ġsu ggest
Ġv i
M o
Ġquanti ties
Ġtreat ment
il bert
v ect
Ġs end
ran gian
or igin
v m
tic les
O M
k in
mat or
ir th
str al
Ġno tice
Ġshow ing
Ġg ames
row n
Ġremo ved
Ġspec ies
her ent
Ġinter section
su mp
Ġme trics
h older
v ents
Ġrela x
D L
D C
Ġre produ
Ġ" \
Temp late
Hand le
ch ain
cre te
de lete
Ġab und
S yn
Ġn um
- (
doc s
Ġa rm
Ġthrough out
ĠL O
Ġaltern ative
ag ue
D ocument
m en
scri pts
Ġacc re
Ġprocess ing
sp in
Ġconn ect
$. }
Ġpro ceed
199 6
C ar
Ġelect ro
Ġgra vity
Ġc ame
Ġ ,\
ĠG iven
ult ane
Ġfa iled
er ies
mon ic
par allel
Ġequival ence
Ġsu itable
Ġques tions
g re
Ex ample
Ġo uter
ran k
A p
ub ble
z h
u ff
Ġdete ctor
Ġf ill
15 0
a co
wh en
Ġparticular ly
ac tic
ĠI R
if ies
Ġ\ ,\
Ġpas sed
Ġnormal ized
Ġrele ased
footnote size
struct or
Ġexpon ential
Ġincre ased
mod ules
Ġl uminosity
artifact Id
Ġad op
( *
Ġthe ories
TE ST
text up
equ als
ĠG eV
N ames
down arrow
ĠCoun ty
anc el
th ere
Ġrun s
Ġhypo thesis
web kit
Ġper fect
k o
R ender
be led
Hel per
Ġw ays
P ort
F alse
Ġden se
Ġinvestig ate
ĠEX PECT
Ġent ang
Ġcl oud
RO M
cor por
v als
Ġreco ver
ĠSci ence
ĠĠ čĊ
S ign
| $
P H
Ġex change
Meta data
stack rel
p anel
Ġinter n
mod al
Ġcandid ate
ĠR ed
Ġcons tit
ph antom
Ġu til
j pg
Ġp ick
se p
s ince
M T
U LT
Ġac qu
Ġpolar ization
Ġint ensity
Ġstatis tics
Ġla te
Ġin depend
ra ct
k m
bold math
Ġiter ation
to ol
Ġfluct uations
as ons
Ġexpression s
br uary
i ent
| ^{
un ct
n etwork
s end
ist ance
Ġchang ed
Ġde lay
Ġde l
u um
st an
at t
Ġaff ect
Ġs izes
$ ^{
ĠCh ris
e ach
k ind
EX T
b order
file s
Ġby te
Ġp refer
Ġla ck
add ress
c ard
Ġrele ase
) [
ĠWe b
ou ch
a ff
Ġcontain er
*} [
Ġb rief
u id
b il
h fill
ã ĥ
' _{
el s
h ol
Ġf reedom
ĠĠĠĠ ĠĠĊ
ĠH is
IG N
Ġy oung
bo ot
12 3
Ġperturb ation
Ġuniform ly
T C
Ġequ ality
Ġass uming
v as
ERR OR
P a
p l
ib ility
V alues
Ġb all
to String
Ġp or
c ut
re et
ĠS uch
text color
ĠP ri
U ni
ĠR E
Ġt ar
_ ;
exp orts
Ġm i
oci ety
ĠW ork
ĠĠĠĠĠĠĠĠĠĠĠĠĠĠĠĠ ĠĠĠĠĠĠĠĠ
plan e
t an
Ġh ouse
Ġsh ared
ĠSupp ose
Ġg reen
Ġapp e
Par ser
M em
Ġw all
Ġun signed
Ġref lect
Ġexp ress
Ġbehavi our
p la
s quare
rep lace
ĠD ec
De vice
D own
Ġf ine
ul us
ĠR un
bel ian
z a
Ġpar ame
Ġcontra ct
frame work
Ġde li
g mentation
xt ure
b ind
b ilities
( :
Ġrepla ced
ar ith
ir ing
T ran
Ġevalu ated
) }.
HT ML
Ġhe avy
Ġw ait
Ġs ector
Ġag ents
IN E
m om
)} (\
group Id
Ġp en
Ġ ..
ĠAl though
h r
ii i
' ],
Ġv s
Ġfin ding
V ector
Ġcolumn s
In valid
uc ial
D eta
le v
tr ins
Ġin sp
Ġd ot
par ticle
Ġp i
is son
Ġconfig urations
S w
Ġc e
Ġpar se
) (\
s us
Ġad ding
V M
Ġquad ratic
s yn
ĠC om
Ġre ader
G S
C or
Ġinst ances
Ġt en
Ġre cur
Ġse m
v ol
Ġfor med
em an
Ġ( "
SI ON
Ġ[ '
anc ial
um entation
Ġte ach
Ġre ct
reg ion
Ġra pid
Q ue
ot ing
Ġve hic
str y
H S
mar gin
{ (\
the less
s ession
conn ection
En c
Ġre comm
Ġj et
Ġm ixed
F ields
ĠĠĠĠĠĠĠĠĠĠĠĠĠĠĠĠĠĠĠĠĠĠĠĠĠĠĠĠĠĠĠĠ ĠĠĠĠĠĠĠ
style sheet
Ġsepar ate
text sf
ing le
M ark
bo olean
ĠM od
Ġnuc lear
Ġcapa city
gr id
ol ing
ĠE ar
ĠEng lish
ĠP y
Ġtrans action
su ccess
function s
Ġpattern s
ver ti
Ġin fo
Ġm en
SE T
or ing
M ar
Ġe ducation
ĠS M
hand le
Ġcomp ar
supp ort
Ġf ront
ĠO ut
ra ys
redu cible
Ġprec ision
ĠMe thod
Ġcorre ction
~ (\
M enu
Ġle d
Ġcomp osition
l li
Ġvis ible
' ))
B ody
lon e
com ing
sing le
Ġs top
ĠH iggs
Ġ} )
Ġs creen
ĠEx ample
up arrow
is ot
ĠM ed
In st
AN D
ĠC E
Ġhel d
P D
ĠBG COLOR
lu ster
U s
Ġuncertain ties
Ġcharacter s
Ġbegin ning
L R
tot al
Ġplay ed
G ET
Ġcorre ctions
199 5
r ich
Ġocc up
d iffer
Ġad min
ot on
ir it
Ġde lete
Ġst ress
Ġquan tity
Ġ{ $\
Ġmo ving
si a
Ġcon volution
Ġexplain ed
ph ase
Ġc lean
M y
& &\
\| _
ĠEn d
sp ort
E rr
left arrow
ĠS O
Ġenc oding
H C
Ġro ugh
tif ied
Ġab ility
}. }
radi us
sc opic
Ġsh ock
1 10
Ġr ise
OR M
================ ================
ĠF ourier
ĠFe bruary
U se
? :
t n
b c
Pro ject
AT A
icro soft
tr al
Ġn ational
pa city
Ġp ush
Ġtrans mission
Ġ( '
\! \
Ġgra vitational
Ġtrans lation
__ __
Arg ument
=\ {
Ġfa ir
$\ \
Ġsupp ose
Ġsur vey
w in
spec ial
ap an
exp ort
Ġinv oke
in ted
Ġph ases
Ġiden tical
Ġsign als
n umer
B B
th ick
si mple
Ġno ted
Ġqu ick
ĠC our
Ġat tributes
P ass
ĠE rror
ĠK ing
App lication
ĠE xt
Ġgener ating
Ġin str
Ã ³
ĠS un
me an
Ġper mu
pro perties
d est
}$ \
N etwork
Ġde du
Ġimple ment
Ġli ve
Ġme t
R ed
Ġcoup led
Ġin fer
Ġby tes
$- $
sh ift
lim it
ĠĠĠĠĠĠĠĠĠĠĠĠĠĠĠĠ ĠĠĠĠĠĠ
ce il
Sta ck
b rack
c line
Ġhe ader
in variant
Ġthan k
Ġan om
C ref
$ ^
16 0
Ġen tity
$\ ,
> .
{ |
Ġinter ested
Ġhal o
H ER
vel oper
Ġexp and
ic o
` .
}) ^{
mult line
c lick
ĠG roup
vi ties
Ġgeome tric
ol ar
Ġpolynomial s
& #
Ar gs
or ity
Ġdiff usion
su be
ĠM ap
ĠD av
comple te
X ml
Ġ$ ^{
Ġformu lation
Ġhe at
Ġimport ance
ĠAf ric
the tic
Ġcon v
Ch annel
G o
Ġsim ultane
Ġto day
lo ss
ĠAl gorithm
Ġtop ology
n one
Par am
. $$
as c
Re ader
Ġw avelength
Ġpri me
Ġmid dle
ĠIn t
g gle
m its
} /\
Ġ\ |\
ak er
ĠCon sider
Ġ _{\
C M
p ub
low er
w ave
Pol icy
> ();
ir ical
Bo olean
ari ties
_{ +
d ical
EC K
Ġth er
Ġt ax
ir r
ã Ĥ
Ġno tion
Ġtr igger
ran e
ĠTr ue
r andom
Be fore
T itle
K e
Ġc ategories
B L
ĠCor ollary
ren ce
Ġmath e
Ġdevi ation
ĠC ON
u a
c ustom
Ġneighbor hood
bin om
Ġcom b
vir tual
De bug
By tes
Ġmis sing
ĠN ot
Ġre trie
lic ations
ĠD ire
Ġdepend ent
sum er
W riter
, ...,
ĠAu stral
co ord
Ġinput s
dis abled
Ġreco gn
if ying
ĠAcc ording
Ġs lo
ext ension
Ġadvan tage
Ġdo ing
sq l
Ġat oms
te e
Ġden sities
ĠR us
Ġpoli tical
im its
H as
Rec ord
reg ular
Ġ\ [
h an
al ities
ĠV alue
OR D
Ġ-- -
oci ation
spec tive
}^{ +
si bility
Ġsol ar
Ġt ren
ĠC H
Ġin it
pos itory
Ġdeg ener
Ġredu ces
reg ister
in clu
Ġis ot
U RE
] ^
ĠM ath
p k
ro ad
' >
c lip
B E
) >
ĠP lan
Ġro und
F C
Ġlo ck
lang uage
Ġfor ces
; <
po sed
ens ors
me asure
Ġmix ing
Ġun ion
Ġtran sitions
Ġh ierarch
um es
Ġexp lan
ad ers
ster ior
Ġhom ogeneous
mo ck
Ġte s
Ġbase line
Ġprofile s
S ym
Ġdescri bes
t ors
ĠJ SON
Ġgo es
clu ster
Ġsugges ts
Class es
re lated
Ġenc ode
erm i
$ '
man if
Ġfrequ encies
Ġsum mary
ad y
mid rule
Ġalgebra ic
Ġb right
ĠG reen
N um
at s
Ġbelie ve
Ġk m
Ġorth ogonal
Ġac cep
Ġanaly tic
&= &\
Ġneutr ino
con ver
M ain
Ġsol ving
ĠW est
Ġac cept
Ġscenari os
ĠM ich
In itial
end ar
stra int
is on
Ġdemonstra te
var rho
math tt
e lec
ra me
I B
or ter
' re
Ġbe gan
s chema
sump tion
app lication
Ñ ĥ
00 1
Ġ+ +
ĠF unction
Ġstraight forward
n ol
Ġra tional
ĠM ax
Ġnecess arily
Ġup d
Ġelectr ons
Ġnear ly
Ġorder s
Ġprov iding
ĠCent er
pos es
ĠB ra
qu ations
set tings
ing er
i ers
i ans
b ile
G eV
T ab
ĉĉĉ Ċ
Ġimpro ved
Ġplan et
ĠD M
Ġj av
Y ou
Ġge ts
rep res
S F
A uto
Ġgener ator
Ġrecon struction
Ġsta ted
Ġchem ical
Ġa mb
Ġat t
Ġp icture
ĠS an
Ġinst all
r ist
Data base
Ġvac uum
}^ +
in v
Ð° Ð
\ },
} >
Ġpossi bility
Ġin corpor
ĠBri tish
ang es
Ġ ),
Ġcorre lations
-------------------------------- --------------------------------
dic t
Ġb atch
199 0
g ni
Ġflu id
ĠN OT
="../../ ../
ĠLag rangian
ĠOp en
R ou
prop to
ur ally
Ġsc i
Dire ct
Ġfe el
Pro p
Ġe cho
Ġact s
n es
Ġra ise
sube quations
Ġdefin es
co in
tr ight
Ġ rows
ut or
Ġcause d
Ġreve al
Ġal loc
olog ies
f ocus
) &
w hat
s ch
a tively
A pi
Ġdire ctions
' .
E l
Ġassert Equals
ado op
ĠD ate
Ġexecu tion
Ġb ad
Ġl ies
Ġpropor tional
t rack
ĠR i
` ,
ĠW hat
Ġmedi um
Ġab stract
s ti
ad min
Ġadj ac
Ġd t
in ed
ot al
R oot
ĠU se
Ġreg ression
ho ver
}[ !
## #
Ġdefin itions
Ġup dated
h av
T S
Ġopp ort
ĠI O
Ġlim i
Ġinter mediate
| -
Ġm sg
Ġd ro
aw s
ip eline
}{ {\
r g
Ġst orage
] ]
Ġse gment
Ġabsor ption
Ġfla g
Ġsp read
Ġ ~\
T rack
ob s
Ġpar a
Ġin line
) _{\
Ġcontinu um
y a
\ }.
Ġo s
ou ra
leq slant
ti an
w rit
Ġtra de
f ol
Ġsub space
Ġdisper sion
Ġ< =
ĠB ase
W S
Ġlib rary
Ġ\ {\
Ġh istor
Ġdis crimin
Ġco s
trins ic
ren ch
ver b
ti vities
rom ise
Ġto wn
la w
De lete
Ġpro gress
z y
Ġhoriz ontal
r ong
Ġun less
Ġbeh ind
ĠGener al
En abled
Ġj us
Ġt rac
Ġinter act
D I
Ġexpec tation
Ġcar ried
Ġfit ting
chem es
Ã Ń
big cup
Ġderiv atives
b re
a ccess
z er
t ensor
medi a
ĠAmeric a
ed eral
tiv istic
ond on
Ġvalid ation
Ġte le
Ġfeed back
Ġmodel ing
M ock
Ġwe ighted
lan k
D IR
Ġme as
On ly
Ġdirect ory
OD O
By te
Ġen semble
j i
ni an
Ġde vices
R A
po le
Ġdis cover
)) )
ĠPre sident
Ġspect ro
Ġp riv
Ġsub section
Ph ys
ens es
Ġsepar ation
F S
Ġband s
ĠF oundation
) }$.
Ġe ver
Ġg lu
Style ID
Big g
ish ing
Ġp las
go ing
199 4
small skip
s en
Ġtrans verse
Ġc i
vi e
ra ted
ers on
co very
ing ton
s ome
Ġuni versal
ry p
ang uage
Ġcon duct
Ġtemperature s
Ġdecre ases
Ġper cent
O K
ex ception
im in
in line
Ass ert
mission s
il itary
ite s
cl oud
ĠI S
ie ce
ist ence
ure d
ĠE ast
form ance
iz able
[ $
in stein
Ġir reducible
' =
ĠR equ
An y
Ġin ference
SS ERT
\ [\
Ġp atch
0000 00
conn ect
Ġcompu ter
Ġmod ules
TR Y
v c
Ġrestr iction
tribu ted
ti os
Ġlow est
N A
ick er
ĠP ark
Ġmain ly
M a
Ġann oun
Ġe poch
w ner
\ }_{
d ensity
k l
ĠH ouse
Ġv alu
ta ted
tright arrow
Ġfail ure
Ġrandom ly
St orage
] =
and ard
Ġs ort
h ave
Pro position
la m
Que ue
W E
Ġoff icial
V ID
Ġcom ing
Ġman ner
n m
ĠEqu ation
Ġman agement
Ġtraject ory
Ġth ing
Ġorbit al
Ġstrict ly
ic ons
w rap
Ġrepresent ing
Ġb ur
Ġmo ck
ang er
AG E
O L
ĠDe finition
ä ¸
Ġcom ment
Ġpseud o
Ġsen sitivity
S im
ĠD r
Ġsimula ted
Ġdecre ase
ff ic
R ule
Ġwor th
P arent
Ġm essages
W ar
Ġj son
Ġl isted
s ys
AT H
Ġno thing
comple x
Ġrequire ments
pg f
ĠIntern ational
lic ated
for mu
H om
Ġtemp oral
Ġtra vel
pa re
}} ,\
sk y
prec ated
-- >
p adding
ĠO ver
" `
ma tical
ĠN etwork
Ġinterpre tation
Ġ' /
i us
Ob j
ĠH ow
ĠG R
ĠA m
EN D
ent er
con v
ĠSer vice
ĠA ir
ig ible
ĠS D
a ign
c b
Ġess ential
Ġrefer ences
Ġsite s
ĠI mp
}{ }
Ġdia grams
tiv ated
k ern
def n
Ġpr ice
u el
la b
f r
Ġ{ {
Ġlear ned
Ġco p
M F
Ġad vers
"" "
Ġvari ations
Ġcent ury
Ġass igned
Ġs ound
lus h
ul ty
no tations
C I
ens ing
sp e
ĠV ir
w ords
n y
per iod
key word
T ests
ser ve
Ġke ys
cal c
Ġb enchmark
Re p
ta ch
Ġpers onal
c le
ĠH ilbert
Ste p
h l
Ġreach ed
Ġmorph ism
text normal
N G
leg al
sequ ent
Ġcare er
Ġinv est
spec ts
Ġdist ances
Ã ¤
oc used
nap shot
Ġmonth s
D raw
ach ed
$ }}
Ġess entially
Ġass ess
if ted
Ġfam il
Ġgiv ing
S end
| _{\
ti le
Ġar c
Ġw ent
pd own
Ġopp osite
v or
conn ected
f ixed
_{ -\
Ġ( *
Ġd ra
Ġf le
ĠEurope an
c pp
Ġrefer red
18 0
__ (
ĠJ apan
la ting
co ordin
ĠCh ina
ock et
ĠP ublic
Ġnew s
st al
Ġreg ard
}) =\
ge x
in du
int ro
foo ter
Ġvis it
dition ally
h adoop
th read
depend ency
Ġto ols
t z
IT Y
Ġc a
^+ $
imp l
Des criptor
Ġlik elihood
Ġtr uth
d p
mi tive
Ġext racted
Ġchang ing
ir m
199 3
Ġt ang
Re v
Ġconver ges
y coord
Ġcont roller
w t
Ġbut ton
Ġpredic t
ĠC ur
Ġaccre tion
gener ate
stan tial
Ġchar ged
pro v
gra y
s ymmetric
^* _
Ġen able
Ġprob ably
new line
ĠS imilarly
ĠU RL
re st
Ġ\ }
Ġthem selves
{ .
Ġdiffer enti
) }$,
Ap J
ic ies
ĠSec ond
Ġrece ive
C ustom
b x
R ect
tain ing
f ony
FA ULT
tri angle
b d
Lo ad
y r
ad es
ĠA L
Ġc odes
ĠDe partment
}{* }{
Ġprec ise
N T
Ġr ig
Ġc ref
Ġadop ted
tr im
X T
ĠH ol
un signed
valu ed
Ġpro grams
Ġauto matically
ĠI P
Ġag greg
ĠH o
v dots
cknow led
p ower
ĠI m
Ġh ours
Ġuni qu
Ġcar ry
ĠL aw
ri a
f amily
ĠHT ML
Ġb irth
Ġtra ditional
oriz ontal
M I
Ġprincip al
le f
Ġorder ed
Ġg ran
cknow ledge
ta ting
Time out
Ġlook ing
Ġfamil ies
po lation
ĠW illi
Ġprobab ilities
ĠT ech
i med
Ġdomain s
\| ^
Ġmolec ular
Ġs chemes
Ġt urb
ĠCour t
ĉ čĊ
Ġat mos
Ġeigen value
ura ble
12 5
Ġ" /
Ġe lem
FI LE
w idget
Ġcomp lement
li k
iv il
Ġsign ature
Ġ Ã
_{ [
un ic
ĠB ecause
no v
Ġd a
res sive
E CT
ic ted
ĠĠĠĠĠĠĠĠĠĠĠĠĠĠĠĠ ĠĠĠĠĠĠĠĠĠĠ
ĠF in
di an
omorph isms
ynam ics
ĠC R
Ġcon clusion
Ġintegra ted
Ġs il
Ġcoun tries
S ome
ma tics
Ġsen sitive
Ġsimilar ly
P AR
ti p
J SON
ke ys
Ġbene f
ecu tion
Ġfin ancial
Ġturn s
ĠE vent
Ġrestric ted
qu o
Ġstrate gies
ĠRem ark
Ġcondition al
Ġle ave
F in
Ġmatch es
Rec all
B in
y es
Ġtechn ology
te ms
cus sion
Ġan i
Dis play
er ial
at tribute
Ġimprove ment
Ġphot ons
W hat
Ġat omic
Ġw ind
F a
L ock
c tic
ti ck
call back
=" /
ig ration
ĠU ser
uc lide
Ġor d
Ġw alk
ĠL ondon
Ġalgebra s
ra ise
ĠV al
es tern
Ġsur faces
Ġj ump
de te
' $.
f g
Ġcomp atible
y e
ok s
Ġstring s
ĠEq s
Ġse em
Ġori entation
| _
Ġre sid
Ġar t
ow ers
Ġlo st
P lugin
ti gated
ĠO per
Ġsyste matic
assert Equal
fin ed
B P
uclide an
cm d
ĠĠĠĠĠĠĠĠĠĠĠĠĠĠĠĠ ĠĠĠĠĠĠĠĠĠĠĠĠĠ
Ġb ring
an notation
Ġc y
T T
Ġanaly ze
an ks
Ġloc ations
se par
ĠW il
199 2
ar se
KE Y
de termin
c ross
b as
Ġsh ell
Ġsyn chron
type def
Ġep is
Ġmajor ity
ĠB el
t xt
e ven
Ġindic ated
Right arrow
Ġh it
Ġvary ing
over set
Ġcall s
} "
A ctive
Ġsimp licity
to ggle
D ialog
Ġhoriz on
ma sk
Ch anged
Ġimp ly
Ġv or
Ġtrans formations
Ġser ial
se lected
if orn
ĠCol lege
ar ded
ra t
Ġpar ty
Ġm ut
S ymbol
mom ent
Ġapplic able
y al
co q
her it
Ġ( .
Ġre asons
Ġsa f
T wo
iforn ia
Ġs at
not in
ĠA R
ro s
Ġmark ed
M atrix
ĠB oth
w orld
Ġmod ern
ĠN or
ĠGo ogle
Ġcosm ological
Ġra tios
Pack age
re size
O ther
Iter ator
Ġpo inter
_ ->
( !
//////////////// ////////////////
v ille
Ġc ard
Ġdire cted
Ġgeneral ization
Ġexplo re
Ġpo sterior
Ġpo or
cite alt
D T
Ġge odes
Char acter
c v
and ra
ie f
Ġd uration
Ġmaterial s
pro file
qu ark
ĠIn stitute
f lat
i as
Sec urity
U P
Ġin ser
Ġcomple ted
ĠE l
Ġdiv is
Ġemploy ed
Ġis omorphic
ĠF ROM
Ġhand ler
Ġsimilar ity
Ġb its
Ġiter ations
Ġdomin ant
Ġd b
Ġconf idence
ĠG od
G G
Ġunit ary
Ġdid n
\, {\
Ġsc ience
lection s
scripts cript
Ġreson ance
Ġcol lect
fin ity
Ġal t
pa y
i ke
AC E
c ounter
Ġindu stry
land s
Ġinstance of
| =
scriptscript style
F L
Ġsol ved
des c
k ens
ĠUn der
Ġintern ational
A E
Ġferm ion
} ~\
-> _
p u
t mp
Ġcandid ates
Ġra w
Ġsub stantial
im er
Ġp y
Ġs phere
Ġinvol ving
Ġlog arith
Ġinte gers
and er
Ġamplit udes
Ġlo ve
;\ ;
Ġcontra diction
corre spon
Ġoff ic
Ġf unc
25 0
Ġh tml
sur face
Reg ister
M sg
Ġcour t
Ġreason able
ĠG overn
alle st
}} )$
~~~~ ~~~~
Ġin struction
Ġcharacteristic s
Ġconn ections
loy ment
Ġt end
Ġesti mator
a el
Ġpre vent
ĠC ode
\ /
P ost
i ta
tri but
P lan
Ġch iral
ens us
ĠU V
MA X
; /
import ant
f d
ill ing
U ID
Ġstar ts
nol imits
Ġp iece
tig ht
Ġsugges ted
block List
_ ,
F urthermore
ĠB lack
Ġt rees
Ġtraject ories
entic ation
Ġneu tron
Ġcon formal
g al
Ġallow ing
Ñ ı
Ġfra mes
Ġse ven
Ġprac tical
bel ow
requ ency
Ġa p
Ġcho ices
ti tions
yste ms
Ġindu ction
Ġrequ ests
C lick
Ġc red
Ġco variance
der s
type of
Ġh ot
c en
Ġemp irical
ĠO f
plugin s
ĠH er
", "
Ġconsist ing
Me mber
T ER
d ashed
In it
Ġho pe
Ġor bits
ma terial
. *
ma ster
ree k
lear ning
G u
sto od
h ard
assert Equals
Ðµ Ð
Ġm oney
te sian
à ¤
Ġb l
Ġkine tic
s at
const ant
. }\
ly ph
Ġattemp t
e mail
Ġass er
us es
Ġpro pos
Ġentang lement
J ob
C N
\, ,
Con f
Ġevent ually
\!\! \!
ro me
G rid
Ġmost ly
ĠCoun cil
EN TRY
R ad
Pro xy
Ġc ub
Ġinclu sion
Ġsymbol s
} <
Ġpla ced
Not Null
av ed
}} =\
re y
comp onents
ĠV AL
Ġcluster ing
Sec ond
Ġcontrol s
Ġcr ucial
c ape
Ġs parse
qu id
........ ........
we ak
Ġwork ed
n ames
Ġinves tigated
A dap
Ġdefin ing
add r
ĠB er
ĠN ode
I con
In ternal
G P
mathbb m
ev ents
Ġfun ctor
Ġinter vals
Ġstud ent
ĠC opy
ĠK ey
Ġf its
) |\
@ "
h aps
SI ZE
ed s
te l
Ġapp arent
ĠU K
ol ver
Ġpri m
Ġpro ton
S cope
Ġaff ected
ĠT R
tri ang
or ary
\ -
Ġstation ary
que ue
ful ly
tran sition
Ġcon jecture
Ġgra du
at al
Ġser ved
Ġp latform
$ /
lec tive
ĠA GN
= -\
Ġperform ing
Ġcompan ies
Ġm ind
10 1
Ġque ue
Ġl ie
Ġspher ical
H o
Ġa ug
ine ar
Ġpixel s
amp ion
ĠA rm
)= (
ĠF ermi
id a
Ġsome times
st op
F loat
Mem ory
Q Q
Ġdistingu ish
Ġin valid
o om
33 33
Ġoutput s
pol y
F unc
b olic
sp ring
se q
Ġma ster
ur s
Ġf aster
is o
Ġbelong s
in os
, ~
Ġcoupling s
to ols
sub float
L java
' )$
Ġcol labor
ĠIn itial
at tle
Ġp aren
tit ude
W A
Ġrespon sible
ag nos
Ġn arrow
ĠS a
de ep
Ġaff ine
graph y
I E
Ġread ing
Sh ow
l m
Ġtop ic
Ġqu ar
es ter
ĠS ur
Ġtyp ename
Ġabs ence
Ġ$\ |
Ġillustra ted
an aly
k ov
Ġtechn ical
) ">
I tems
ĠN O
a sible
Ġin fra
ĠF alse
AR Y
Ġmo ved
d al
Ġdemonstra ted
[ :
am ent
Ġacc omp
B O
Ġco verage
Ġf ire
() ).
ĠCan ada
s ymbol
Ġcom ments
g i
Ġre normal
Ġexp lor
ib rary
ate ll
Ġrepe ated
Ġimp licit
Ġcat alog
Ġ& $
Ġ[ ];
() ));
C ap
Ġenh ance
sub stack
l floor
Ġprof ession
tri b
Ġla beled
Ġro om
, .
z en
con tains
Ġs cript
in sert
Big l
Ġpanel s
ĠT HE
A m
ist ing
' }\
Ġsc ene
ĠPo isson
t b
ar m
Ġfoot ball
by tes
Ġjav ax
() {
ĠCal ifornia
Ġeffec tively
Ġp refix
s ave
ver tex
ari al
sw itch
H R
ou l
Ġcol lected
Ġat om
Select or
Ġver sus
ul lable
dep th
h ed
config uration
Ġw atch
sc roll
F i
Ġconj ug
f c
r floor
F IG
II I
Ġpossi bly
pro blem
Ġimple ments
j k
es ian
Ġinst al
Ġpropag ation
Ġde le
b ounded
r b
Ġplot ted
ch anged
En um
pass word
hy per
h ome
arg ument
Ġapp lies
Ġh on
Ġmom ents
A v
& $
me tric
Ġc amera
la re
ĠS tr
Ġturb ul
Fla gs
ĠA uth
B it
Ġsuccessful ly
á ĥ
Ġsub sequent
' $,
Trans action
ĠQ CD
tiz ed
Ġecon omic
}_{ {\
fact or
P art
ĠT ask
Ġdem and
appro xi
ĠP al
Al though
Ġdecre asing
Log ger
et te
Ġb ary
err y
ab ove
in ction
math ds
Ġsub sets
Ġversion s
u ages
Ġdomin ated
C G
h u
Ġd u
h ere
Ġpur poses
Ġreg arding
Pro tocol
Ġembed ded
Ġindividual s
Ġp ull
f ail
Ġmes h
)) );
ĠA N
Ġpro mo
Ġth in
A F
{ %
am ond
Ġcomp aring
av en
Ġdes c
Ġbreak ing
r ift
v in
hel p
ĠS m
S Y
}\ ;
Ġbu ilder
Ġg ate
Ġcre ating
VER SION
spec ific
") ]
lu g
M u
Ġneutr al
al so
}) )
form ing
pro tocol
mu table
ar a
Ġen abled
Ġre action
P attern
Po ol
Ġs ave
Ġan isot
Ġnat urally
Ġcriter ia
e g
are st
ĠL y
i ma
Ġs y
U psilon
op ed
de comp
Ġsur roun
Ġcharacter ized
Ġ ĉ
boot strap
Ġcost s
ĠT wo
} &\
b ad
Ġn ight
C s
app ly
Ġsimultane ously
ĠC NN
di ents
tra ct
Ġrespec tive
Ġchall eng
p lus
Ġar ti
ĠD em
Comp arison
G lobal
Ġto ld
ok ie
Ġhapp ens
or ge
ĠS en
an ted
sp aces
wo od
Big r
Ġparame tr
Ġperturb ations
Ġj ud
Ġslo pe
Ġgener ators
ĠS im
Ġdec ays
ĠF rench
19 80
U V
ĠDi rac
ĠT ext
Ġf ib
B M
X ML
v olume
199 1
rup t
Ġ{ {\
Ġsur pr
Ġd ir
Ġwide ly
ti ents
H D
AA AA
ra se
Ġchallen ge
tra ce
sec urity
ĠĠĠĠĠĠĠĠĠĠĠĠĠĠĠĠ ĠĠĠĠĠĠĠĠĠĠĠĠ
Ġhigh light
Ġcon tribute
Ġsk y
T ABLE
Ġsuper con
Ġtri p
ult ra
S pace
Ġbal ance
l r
Ġso on
Ġse x
Element s
ĠPro gram
Ġsent ence
li ance
ĠH all
ĠC ap
Ġpro position
ĠAss ume
ash ington
ĠM ulti
. },
g ate
U L
Ġcompar able
Ġl iving
phys ical
Ġcre ation
Ġst ored
cc c
il t
Ġp lus
Ġdis joint
$ _{\
ph y
A meric
ĠS N
ed it
)} _{\
man ager
Ġsec onds
_ (
Ġro ute
Ġnormal ization
Ġsepar ated
Ġs ides
ex perim
W idget
Ġg rant
Ġinitial ly
J ava
Ġread s
Ġweak ly
un t
A ut
Ġuni verse
Ġadjac ent
id x
Ġfil ms
gra de
oci ties
St ar
id ers
Ġprodu ces
tab ly
TE D
To ol
h d
Ġmedi an
O F
ĠL ore
Ass ume
en gine
ut f
E vents
G M
at ural
au gh
ĠN umber
ĠI mage
Ġsta bil
u pper
Ġi o
Ac tivity
Ġdis e
Ġt reated
Ġsm allest
cep ts
tific ate
Ġspec ify
6 00
ĠH el
the ory
. __
i lo
Ġn orth
h idden
e lastic
ro te
im it
dis tribution
Ġa spects
d ens
ĠCh urch
Ġ" "
it on
Ġattack s
I A
Ġrough ly
ĠM or
li ography
Ġrecor ded
th rows
Ġget ting
av ity
ĠD en
ĠJ o
Ed it
Ġcriter ion
ĠĠĠĠĠĠĠĠĠĠĠĠĠĠĠĠĠĠĠĠĠĠĠĠĠĠĠĠĠĠĠĠ ĠĠĠĠĠĠĠĠĠĠĠ
da tab
entif ic
B bb
irr or
)} =
Ġhar monic
gener ated
w ill
Ġp lugin
Ġ$ [\
Re ce
ĠC ase
Ġindic ating
Ġang les
lo ok
Ġweb site
De pend
HER E
}) _{
Ġunder stood
set up
Ġtri ang
Sum mary
ĠRe public
Ġpro p
cri be
Ġrecor ds
Clo se
Ġseman tic
Ġequ als
Ġt al
cont roller
At tributes
Direct ory
] :
Ġrequire ment
Un der
Ġleg al
& -
Ġvanish es
Ġ} {\
Ġid x
Ġidentif ication
Ġscore s
Ġpro jects
v skip
os es
d omin
"> &
f l
Ġtes ted
ar ge
sh arp
ta il
gni tion
ec tive
Ġima gin
Ġw allet
ult ural
ĠHe alth
S cal
Ġcap ital
* \
Run time
Ġsc an
corre ct
}. \
Ġf ol
us ted
inst all
T A
Ġsplit ting
Ġlead ers
Ġm ilitary
Ġstrong er
p mb
clu sions
S ingle
i et
auto ref
lin ed
ser ies
i lation
pri mary
Ġt ab
ĠS I
Ġat tr
Ġcollision s
ign er
Name d
d ynamic
i pped
H igh
di alog
Ġquick ly
ĠPh ys
ĠDav id
ĠDef ault
ĠSt ar
) "
Ã ¼
F ull
Ġresi dual
J ECT
Ġed itor
++ ;
Ġa go
test s
\| _{\
ST AT
Ġn ative
Ġse gmentation
Ġact ing
Ġwhen ever
Ġc ast
ga cy
F ail
) |^
n il
bo ost
lo od
ĠMark ov
u ed
ap es
ĠT ran
ĠSu per
Ġbound aries
Ġex ceed
l g
bet ween
iter ator
Ġfri end
st on
==== ==
ĠVer sion
L I
ĠAn y
E V
j a
n p
velop ment
Ġto uch
Ġnon zero
P anel
Ġtra ffic
ren cy
c oun
De p
ret ch
Ġinvol ves
Ġpres ents
ra tions
A ni
Ġspec ifically
ĠT ODO
Ġlat ent
L oc
Ġf em
G en
w ik
Ġ$ $\
Ġmon itor
ĠIn dia
Ġdiv ided
Ġla ser
Ġp lots
NavBar Cell
M OD
tr igger
Ġign ore
il led
Ġpro jective
Window s
p attern
comp are
Ġe ast
Ġpaper s
}} }{
l ers
Ġide as
print f
h ref
Trans form
Bu ild
Ġdedu ce
u led
Ġexplan ation
Ġne gle
C luster
Ġspace time
Ġcon e
Ġb orn
gra d
Ġflow s
st orage
Ġext ent
Ġsupp orts
] ^{
Ġqu eries
LE CT
S V
Ġ% }
Ġad opt
sec u
Ġconf lic
sh ell
in dependent
A X
Ġg ave
cep tions
L in
ĠC P
s creen
ra d
Ġim m
ĠBo olean
ren ew
Ġacc es
sta ts
M edia
ang o
ch itz
Ġelectron ic
( .
ĠIn c
ĠU pdate
ub y
ĠN ext
Ġin trinsic
nt z
char acter
Frame work
Ġpol icies
id entifier
sp a
Ġfa ther
st ration
Ġf ood
oper ation
ven tion
Ġpla ys
est ing
in cre
le ep
ai ly
hom ology
Ġpul se
b g
Ġextreme ly
s ort
ĠEar th
Ġs on
s ig
an de
gl igible
> $
super vised
' }$
Ġn g
ec ho
= (\
sc ore
Ġplas ma
Ġlinear ly
Pro file
. (\
Ġsign ed
. [
Ġfinite ly
Ġsuff ices
Lo ader
\\ \\
rou ght
fla gs
Ġhapp en
ĠR ad
Ġma cro
uni que
Ġdiscus sions
en a
Ex pr
ine ment
ref ul
Ġrepresen tative
a ults
Ġcamp aign
Ġcon sole
Des c
Ġinst ant
ĠOn ly
ho ok
Ġex c
Ġtr ying
Ġany thing
ĠTech n
Ġexp onent
A nother
ab a
Ġinter ior
re h
Acc ording
Ġask ed
198 9
}} }$
ĠD uring
ĠS i
S imple
th ree
Ġro ots
pt on
Gener ic
inte gra
Ġre q
g iven
ĠO ption
Ġcirc uit
c oup
f x
Ġr ich
Ġoff ice
{ [
Ġstate ments
anc ing
IC E
bor n
ĠI II
Ġconcent ration
w p
Ġ$ <
CH ECK
@ {}
hand ler
%% %%
Ġtri angle
Ġman ager
ces sed
To String
Ġpen al
Ġfav or
Ġe ight
d z
W N
ell ing
a ver
C lear
C B
qu ote
N odes
Ġconstit u
aw a
Ġout per
p refix
Ġanalog ous
ĠS um
j query
Ġsecond ary
Ed itor
Com ment
Ġus age
D ouble
Ġj Query
Ġw rong
= $
F E
ill is
al loc
un iform
Ġt ail
Ġorgan ization
M ENT
Ġel imin
Ġdis si
Ġfi ber
Ġcontrol led
Ġcomp osed
Ġal one
Ġdescri bing
Ġindepend ently
ed itor
s cription
'] )
Ġ[ [
yc le
ĠF ield
use um
. '
Reg ion
}_ +
Ġanaly tical
Ġto ward
G r
Ġcontinu ed
p tions
}= (
}_{ (
ĠE uclidean
p b
! \!\!\!\!
$ --
ph one
meta data
Ġz one
Ġgener ality
Ġac tivities
H istory
Ġtype of
S N
Ġclose ly
ĠM ost
d k
). }
Ġsa fe
Ġ tim
ĠC re
}) -
Ġf n
dire ction
t ur
B H
ĠE ven
Ġv ic
Ġcorrect ly
Ġcomp licated
ĠL ong
M s
p otential
in ity
u v
Par se
rain ts
ne g
Ġpartial ly
Ġclassif ier
t c
ch er
$& $
Ex perim
}, {\
Fe ature
RI PT
Ġdis order
Ġs chema
Ġ }$
Ġellip tic
po ol
Ġqu ali
N OT
Const ants
Ġro bot
Ġover lap
dro pdown
Ġfour th
u lo
Ġd s
m ix
Ġextension s
Ġf ocused
=" "
Ġoption al
S imilarly
P s
* )
Ġdriv ing
Ġbo ard
t ty
Ġmove ment
O UT
li br
S G
ĠJ ames
ed er
Ġvel ocities
z one
child ren
N ULL
equ ence
ĠL android
}\ }$
( |
Ġquo tient
s b
Do main
) !
Ġse p
~ (
s ym
Ġsh arp
ĠM ag
od d
es ides
amp ling
Ġdraw n
it o
Ġcirc um
Ð º
ĠC all
Ġpro xy
Fa iled
Ġw ish
place ment
Ġgener ates
ta ck
Ġm us
y y
Ġmechan isms
Ġrel ig
ĠF urther
on om
Ġadj ust
ĠT V
Ġco herent
Ġme dical
ex ternal
b rief
get Name
an alysis
ĠG ets
en able
Ġintrodu ction
Ġre ward
) )$.
ĠW ashington
s n
Ġ ).
Ġper spective
lar ation
Ġs outh
c tivity
S ample
view s
ay lor
Ġmin utes
re c
Ġlaw s
ĠL ap
r f
UT F
ll ig
Adap ter
Ġ rac
ON E
v able
Ġgu ide
proto buf
Ġo pacity
ĠB r
Ġconstrain ed
sa fe
Ġpla ces
se y
Ġser ve
il ing
Ġro ad
Ġremo te
ĠNew s
By Id
Ġmeta data
\ }}
Ġ ^{\
ning s
Ġlog ic
Ġcirc ular
Ġexhib it
b atch
renew command
vari able
Ġcyc les
op es
Ġwrit er
Ġmin or
######## ########
jec tions
Ġspe ech
Ġtar gets
ud y
ips chitz
' )\
f old
o mas
BU G
un defined
Ġa ux
Ġsample d
ili ary
ĠP ost
Po inter
ou lo
Ġupd ates
is y
* {-
Ġchalleng ing
Ġindu ces
o pe
Ġran ges
her ence
Ġ tight
pher ic
optim al
ĠEng land
ĠS to
Ġca reful
P y
LE TE
Ġ{ '
Ġsus p
u fact
Ġintegr als
Ġorder ing
Ġrelax ation
IN D
Ġchallen ges
ĠMon te
Ġ( _
S W
Ġe mit
ĠV is
Lay er
File s
ĠV ol
d one
ĠM C
os sible
Ġan ni
S ocket
ol or
ĠLe ague
' ',
Ġw rote
viron ments
Ġconsist ency
LO G
ĠRec all
cyc le
Ġpo ss
no ise
Ġproper ly
stand ing
s mooth
Ġinc ident
Ġcover ing
under set
ar ticle
Ġin stitu
Ġexci ted
ĠPro ject
n odes
Ġsa w
ign ment
Ġde bug
Ġbene fit
ĠR ich
ĠA g
S pe
Ġdirect or
P op
ential s
Ġ ill
Ġde formation
ock er
ile s
an chor
Ġd ied
Ġd ie
Ġsur v
) }^
> ::
prote ct
ĠIn teger
ĠT ri
C V
Ġembed dings
Sc roll
serv ices
Ġabund ance
Ġpass ing
Ġmod ify
Ġm ul
ra tio
ĠCon fig
ĠS k
ne u
ĠI ts
test ing
Ġexci tation
ag o
Ġin finity
ch y
ĠIO Exception
Ġres olve
Ġenc oder
P ORT
g on
Ã ¶
b asic
Ġg rain
Ġcover ed
F N
j ust
Ġne ur
F P
Ġeffor t
Ġp ages
au x
Ġad mits
exp ression
Ġle aves
ĠC ong
Ke ys
Ġfilter s
Collection s
$ (\
tiv eness
id dle
ever theless
Ġpotential ly
Ġfa ils
Ġreco gnition
ific ations
Ø §
Vari able
Ġcon vert
, (
ula tor
ĠA ND
Ġcoup le
w er
ĠCon n
Ġin iti
ĠP ress
State ment
Acc ount
ph oton
Ġphot o
tr um
Ġb tn
ĠM r
Ġste ady
P ATH
R T
es h
display math
ĠUn ion
Ġp owers
oid al
}( -
P ER
Ġt alk
[ ]{
Ġcommun ic
ĠMe V
\, .
ĠB ro
ack son
Ġper forms
ĠH y
f ix
Ġnumer ically
ext ra
Ġo l
stand ard
ten ess
Ġcommon ly
H ow
Ġar ise
ĠT w
Mapp ing
ic a
at tributes
te in
Ġcl ub
g it
Ġ icon
" /
P Y
E ff
Ġinf lation
C ho
com bin
Pr int
RE AD
Ġdetermin es
Ġpermu tation
ane ous
ĠM er
Ġcal ibration
EE E
Ġevery thing
Ġal pha
Ġassign ment
ĠRe act
Ġinterpre ted
pro ps
tr l
t p
Ġpeak s
Rem ove
Ġread y
Ġ ri
ou thern
M ath
th an
Ġplay ing
Ġcol ors
Ġpro be
Ġtrans late
Ġillustra te
Ġhyper bolic
Ġconven tional
j et
mate ly
Ġsepar ately
L C
Ġho les
13 0
Ġmon ot
Ġdes pite
Ñ Į
Se lection
ig u
Ġbo ost
Ġ$- $
s ymmetry
fig s
h orizontal
Ġbrief ly
roun ds
ĠN GC
^{ [
me ter
ĠWh ite
re set
ĠS E
ĠU N
Ġv illa
Ġformal ism
ta tes
og en
Ġlimi tations
e per
deta ils
ĠRe ad
P refix
ĠV iew
ra b
sc ape
Ġa belian
ro le
Ġpotential s
Ġout come
Ġp ipeline
mp t
ST M
198 7
ines e
TE XT
Ġa wait
b en
ĠCar lo
S ER
P air
gra dient
Ġcorrespond ence
ar ity
ash ion
Ġl ives
}| ^
ot or
ĠReg ister
re v
A CT
Ġcorre lated
}$ ).
ari ant
8 00
Ġvehic le
ĠJ aco
Ġther mod
U SE
the me
cen tage
Ġgrow ing
Ġd war
Ġpriv acy
Ġto t
Ġ\ #
ĠL and
c laim
Ġclo sure
y er
Ġf o
Ġbro ken
ama zon
B ound
ĠI l
Ġinvestig ation
Ġen jo
Ġmathe matical
Ġcomple tion
P M
; }
Ġcondu cted
Ġrecomm end
comp act
Su ccess
Ġm m
Ġfin ds
Ġorgan ized
Ġconstruct or
ic ity
Ġeffor ts
o ta
ç ļ
ear ning
Ġlay out
ĠIs ra
Ġref lection
11 1
Tra ce
as sets
Ġb ud
Ġc tx
Ġcheck ed
Ġe mail
sol id
fe ature
ĠW rite
ĠFran ce
] _{
train ing
Ġguarante e
Ġcho osing
Ġhy brid
ĠH ash
Ġhe ter
Ġconfir med
Ġwork ers
çļ Ħ
Ġw anted
Ġcoun ts
Comm on
Ġsyn thetic
Ġpower ful
deg ree
V olume
ĠD on
ĠB ob
spec tively
der iv
= [
= {\
S a
198 8
mple ctic
Ġs atell
o cc
Ġchar ges
Ġend s
Ġenc oura
}) (
re cord
Ġconven ient
ec es
Ġperiod s
!\!\!\!\! \!\!\!
Ġas ync
Ġxml ns
equ ival
d v
ĠQ ue
Ġun stable
Ver tex
Ġaver aged
d c
Ġinstr ument
Ġappe ared
^ ^
bu ilder
ĠJ ava
x rightarrow
Ġreal istic
Ġch urch
ĠSpec ifically
Ġpub lish
ĠĠĠĠ ĠĊ
or tion
on omy
Ġrep orts
Ġpro mis
Ġstruct ural
coordin ate
group s
O B
j unit
Ġdisplay ed
F ix
Ġsec ret
ĠE instein
ĠTr ump
ĠThe ir
ft ware
Ġt mp
ĠIn stead
Ġra re
Gener al
T ri
}}\ ,
ĠLore ntz
Pro to
ĠP ub
Ġdefin ite
ĠH and
ĠS y
ĠSt reet
Ġsu ffer
A x
p icker
Ġpre sident
Ġinter sect
Ġ\ }$
pa per
ĠAss ociation
I MP
Ġformu las
cons istent
F ound
Ġsize of
S cale
Ġhad ron
,\ !\!\!\!\!\!\!\!
ĠP ort
on ym
ĠM at
}^{ (\
^- $
S ur
Ġmo ther
Ġclo ser
' (\
h ide
Ġutil ity
pre v
ĠR iver
re mo
Ġb re
S K
R AN
19 70
w est
Gener ator
go od
ou ds
err ors
di tive
Ġdetermin istic
writ ten
la tive
dist ance
He aders
Ġfla gs
S QL
Ġobserv able
sequ ences
}}\ \
code d
ta gs
At tr
Ġd y
par ts
)\ ,\
Ġdriv en
ĠC lear
Ġse gments
n def
Ġd river
Ġpro ves
ari an
erc ial
pi x
G O
sh adow
Ġhim self
Ġpol ice
S i
w as
Ġbin ding
Americ an
prote cted
re spectively
Ġappear ance
ĠF I
ĠPro cess
ec utor
Ġobserv ables
S he
Ġcaus es
ĠB H
ĠÐ ¿
Ġbos on
Ġview s
el t
K L
c li
mis sible
f ly
Ġannoun ced
Ġs ensor
Ġtren d
Ġde ad
oun ding
): =\
F low
in ds
uto ff
Ġapp end
log ger
ĠLo cal
rain ing
Ġhom ot
Ðµ Ð½
sim ilar
ren ts
-------- ----
Ġsp ent
W rapper
ator ial
bib liography
=" @
Ġinter ference
ĠU p
h skip
Ġfig ures
Ġcombin ations
Ġc lock
Ġ\\ [
Ġinvol ve
in er
com es
Ġg lob
N amespace
T otal
O PT
Ġj ournal
Pro ps
app ear
pa che
Ġregular ization
fil ename
ï ¼
Ġdiag nos
u zz
Sym fony
Ġdeli ver
p f
') );
N C
R C
ĠComp any
Ġen ga
' +
Con ver
Ab stract
ater ial
inu x
Ġsaf ety
Oper ator
ĠM al
Ġcop ies
Ġcon servation
P od
ul arities
Ġex it
AD D
ĠĠĠĠĠĠĠĠĠĠĠĠĠĠĠĠ ĠĠĠĠĠĠĠĠĠĠĠĠĠĠ
M at
12 7
Ġn omin
Ġ\, ,
stra te
lic ate
A re
Ġvanish ing
ĠE mp
con vex
ĠC ons
Ġc ra
org an
w a
}\ !
z es
if def
Ġen um
ĠT op
ĠCopy right
Ġinequ alities
deta il
w all
The y
n l
}} +
Ġre ci
Ġmag ne
Ġderiv ation
Ġloop s
H M
}} +\
Ġmo ves
p ot
Ġop in
Ġ{ "
Ġh um
ĠAustral ia
ob jects
pr ule
Ġ ],
ho le
ĠM ac
ess or
s lice
Ġb rought
D uration
C re
Ġd ou
center line
par ser
UR I
th rough
ti te
Ġmargin al
or bit
Ġ" ,
W R
Ġcommun ities
Ġpa tients
t f
Ġex cess
) ->
ub er
Id entifier
Ġinvari ance
ĉĉĉĉ ĉĉĉĉĉ
ograph ic
Ġgeodes ic
Ġsta ff
B F
U ri
Ġ= ========
Ġe lastic
u tation
' m
ĠL ab
me t
Ġlang uages
to prule
Ġfe asible
cri bed
ĠS yn
lef trightarrow
ĠIn dex
Ġvalid ate
st one
Ġra ce
Ġcirc les
Ġanom al
V E
Ġsome what
ĠGerman y
sa tisf
Ġdiver gence
Ġacc um
ĠAr ch
Ġsta y
s olution
t k
li e
Back ground
P G
d if
ĠA nother
si mu
Ġth reat
Ð ²
ta ges
om b
ĠIn put
Ġim mediate
Ġmultip lication
Rou te
TI ME
ac ing
c u
AL SE
) <
=" ">
Con dition
ven ue
Ġtrans mit
g ame
Ñ ĭ
Ġ( [
}] $
ĠE uler
min al
d rop
Ġfin ish
Ġv align
Ġho sp
re str
Ġe lection
ump tion
^ +\
Ġanaly zed
Ġpar am
re le
Ġtri ple
ser ial
ĠP art
if ndef
col lection
Ġrun time
ul ing
Ġli quid
rela x
Be gin
! [
process ing
big skip
Ġtrack ing
for ma
Ġp p
) ~\
198 6
Ġcent re
B r
f requency
gl s
Ġfle xi
Ġne gligible
Ġlet ter
Ġref ers
ĠZ e
Ġconsider ation
Ġdi ameter
[ {\
Ġalign ment
+ |
s un
Al so
web pack
Ġorigin ally
P ay
te ch
tab s
Ġo wner
Ġo k
EN SE
for tun
( __
Ġex ecute
}} -
ĠM L
Ġb rowser
les cope
Ed ge
Ġnav igation
Ġro un
R est
Ġpul s
Deta ils
Ġbook s
}\ )
T V
En gine
j d
S ync
la bility
Ġfore ach
Ġb rack
om ing
Ġcol our
Ġa udio
ĠPar ameter
B rowser
ĠD iv
graph s
Ġelement ary
ow ski
sh all
Ġmeet ing
Ġdest roy
. ");
in valid
ĠA lex
k ernel
ĉ ĠĠĠĠĠ
Ġhe art
}} }{\
ta s
eq q
Ġview ed
A li
make box
Ġn ation
Ġsymme tries
Ġtang ent
ut ter
Ġmetal licity
Ġre ly
ĠB an
Ġ )$
d ig
ore st
Ġcol lapse
temp erature
element s
Ġman ip
Ġiso lated
ct ors
Ġschool s
Ġanal ys
Ġen vironments
te en
R S
ag ent
Ġcyc lic
Str uct
Ġpar ser
Reg istry
Ġke pt
' -
ĠW HERE
f un
ht bp
ĠComm it
O C
Ġdepend encies
Ġparticip ants
p in
U B
Re pository
d ark
M er
j ango
ĠF orm
res ources
Sh ape
f ast
Ġrepla cing
Ġset t
war gs
P res
}$ ;
T x
Ġco oling
Ġpro to
pro vider
act or
Fig ures
Ġcenter ed
ide l
set length
an ded
j ar
od al
T imes
ĠBay esian
sta tes
Ġrela tivistic
res olution
ed u
ach ing
vel ope
Ġdec ided
re ct
5 12
N V
Ġmo vie
L en
}) }\
ch en
0 10
requ ired
ĠDis trict
Ġfraction al
Ġh und
Ġreal ized
Ġopport unity
si mp
Ġpro m
ex ecute
' ve
it ness
Ġoscil lations
over view
ĠP ath
ti ties
Ġcombin ing
~ {\
ĠWilli am
b ro
Ġdis trict
sh ared
D est
T F
Ġplan ning
) /\
e ks
Or igin
Ġhead ers
Ġfit ted
tic ip
ĠPa ul
Ġis n
Ġpass word
Ġ ultra
IT E
ĠRes ults
Ġco homology
IN S
ĠD ay
ill er
c lean
r ink
ĠP en
Ġres olved
Ġtw ice
Ġcont ents
enc ode
Ġre sp
=" ${
Ġdiscover ed
la ter
method s
art in
Ġoff ers
o ted
\' {
Ġdoc uments
F LA
Ġcos mic
}] \
FF FF
b rowser
Ġthan ks
198 4
ĠCh rist
Ġoper ating
Pro duct
ĠGe orge
Ġtor us
ĠCol or
ra s
d riv
ĠD ue
Ġ' <
brack et
Ġla test
re ci
}, \\
war m
Ġpo ol
Ġc ulture
Ġacceler ation
Ġtele vision
14 0
c lassif
pre dic
E P
Ġtri al
ĠM essage
Re al
Ġqu al
continu ous
ell er
rate gy
U LE
}} ^{(
la c
ĠM il
bo th
en ers
ĠC A
Ġin j
Ġ" <
Z h
Ġdig ital
rain ed
exp and
lo aded
al ing
Ġsh ear
tis tics
p q
Ġ" -
ĠW indow
stri al
Ġadvers arial
Ġopen ed
Ġs par
Ġbenef its
Ġprogram ming
l st
Ġro ck
HT TP
ĠT ex
Ġd rive
Ġcry stal
' ,\
Ġensure s
ry pt
sl ds
Ġencode d
Ġimagin ary
am i
ĠN AME
Pro gress
ĠGra ph
col lapse
ov a
( @
head ers
ex tern
Ġneighb ors
Ġ[ ],
ic en
J S
Ġre set
ar r
ĠB ig
ĠK e
TR UE
Ġtransp arent
inte ger
Ġac tivation
MA P
Ġr g
Ġre verse
T er
et ing
to gram
B ased
Method s
Ġl icense
ĠIn formation
oun ted
rg b
Ġins tability
D en
ist ra
ĠNew ton
P ub
Ġw ire
q q
Ser vices
Ġcross ing
ĠPar ty
e val
! !
Ġpack et
Syn tax
Th m
Ġb ra
Ġdot ted
Ġrece iver
p an
Ġqu bit
Ġconver sion
th rift
Ġconclu sions
ĠComm ission
at omic
ts d
ĠOb serv
t ar
serv ative
ĠGovern ment
g tr
198 5
: [
C ategory
ĠE ducation
cri tical
Ġcompu tations
LO CK
() </
B s
De legate
Ġturn ed
K S
Con clusion
Ġd ialog
en abled
our n
bibliography style
ĠRes ource
mic ro
/ {
Ġg ene
Ġachie ves
Ġproof s
ĠJ ew
Ġdiv ision
ach ine
mem ory
ĠW AR
Ġn a
on a
j ob
Ġfa ith
origin al
ĠM em
A gent
IC ENSE
Ġmanif olds
Ġmag net
v v
M is
w d
ma zon
big oplus
Ġpure ly
U D
Ġs l
c is
Ġpo inted
ĠA ction
ĠA ward
Ġaux iliary
Ġord inary
train ed
tribu tions
ĠL ou
Ġvari ant
Ġspe ak
as sembly
bottom rule
h ow
Ġvari ability
ĠVal id
Ġen ables
ar n
us ers
it t
t bl
y les
ĠE ner
Ġlog ger
] _
pol icy
ol ving
Ġce le
acc ount
Ġc avity
ĠH istory
Ġqu as
H P
clo sed
Ġexam ine
ĠH ttp
dis c
Ġne ither
Ġmo bile
Se lected
ur istic
Ġa spect
Ġintrodu cing
Ġentire ly
Ġprov ider
ĠS ociety
Sta ts
Ġpro jected
Ġu i
Ġmain tain
1 12
Q U
de cor
CO MP
N ormal
ĠCh inese
ad ian
Ġp ion
Ġper haps
Ġfin dings
}} _\
Ġtime out
Ġcub ic
Ġlocal ized
example s
ĠPro perty
w rapper
Ġs ociety
S equence
Ġpre par
Ġcor ner
ĠAs sembly
um my
ĠC ath
Ġferm ions
end or
script style
Ġima ging
qu antum
Ġar ises
au chy
hav ior
e a
Ġto ur
_{ {
ma tes
Ġlocal ization
Ġappear ing
Ġne arest
col head
Ġmolec ules
ht b
ĠB lock
M icrosoft
cho ose
par tition
se lection
ĠI E
ab c
ste llar
Ġf ederal
Ġal location
Ġvi ol
p latform
Ġp od
Ġf ight
ĠT E
L ower
index Of
sv g
Cl oud
effici ent
Ġprote ct
Ġ â
N umer
ist ant
el d
DB LP
Ġse ed
+ $
Ġmod ification
mb f
ME TH
Ġconver ge
cell color
inclu ding
v ectors
c are
Ġle ader
Ġde dic
Ġredu cing
/ .
Ġf usion
Ġlimit ing
Ġstand s
Ġfore ign
Pass word
$ }\
Ġcapture d
L anguage
Ġmod uli
}$ $
M ac
Ġla bor
P ublic
ĠT emp
IT ION
ĠS pace
vo ke
igh ter
b ecause
IV E
ĠB A
ĠHT TP
comm it
10 5
Ġcon cepts
text style
iti an
Man y
Ġc lar
Ġpop ulations
au ght
Ġdise ase
B al
load s
t body
C red
Ġparen ts
her ited
Ġe mo
SE LECT
Ñģ ÑĤ
ĠB al
ĠB ack
Ġ$ -\
Ġrestr ict
]{ ./
Ġbroad cast
Ġdep icted
B OO
pol ar
con j
ĠDef ine
sta ge
] }\
Ġth ous
D iv
Ġphenomen on
ari a
Auth or
ĠS C
i os
ĠCon sequently
Ġa ware
g overn
chi ve
Ġaccep ted
ĠA rt
Ġcontinu ity
Ġhol omorphic
rela tive
Ġdi pole
B ecause
ĠCO VID
Ġjoin ed
u ction
En umer
ra m
po sitive
Ġmer ge
Ġ est
Ġ\ :
ry ption
typ ename
ĠU I
correspon ding
Ġradi i
ĠB en
Ġhom omorphism
ly mp
ĠT imes
Ġsingular ity
l brace
Ġlarg ely
und les
S to
Ġw est
sta t
Ġhard ware
Ñ ĩ
B T
ĠB OO
_{ (\
if ting
" },
d n
oulo mb
re pe
co st
Ġclaim s
), (
Ġsur ve
Vis ible
Ġstud ying
Ġnull ptr
pla ys
force ment
ro om
ide os
Ġprov en
libr ary
th row
B I
ĠChris tian
Ġeffici ently
ĠMich ael
Ġeasi er
Ġt ends
In deed
ĠL at
Ġto kens
en berg
e mbed
Ġcol d
Ġcomp ression
z ure
com mu
ex act
End point
par tite
= &
Ġsub stitu
c n
METH OD
il istic
ĠMa jor
m ention
Ġcall ing
ĠP DF
Ġman ufact
ket ch
Ġcommu tative
ĠNo tice
f p
ĠGal actic
ga p
= }
Sh ort
Ġqu bits
Ġ= ======
(' #
ĠDem oc
fortun ately
b an
run time
Ġv an
v ideo
N P
Ġanni hi
ec olor
Ġclo s
">< !--
L M
r ig
big gr
Ġenti ties
are a
' ll
stit uting
}} )\
Ġg old
ĠG reat
}$ ),
big gl
Ġro ll
Ad min
da pt
Ġneighb our
No tice
Ġcon dens
Text ure
algorithm ic
eff ect
resize box
Bo ok
Ġe mb
Ġfri ends
graph ic
select or
{ "
B AR
Ġfin ished
Ġenh anced
DE LETE
Ġmat ched
Ġsh ifts
Ġn an
Ġsta ges
Ġmis sion
ĠIn dian
ĠPro f
var pi
tra ction
ĠR oman
cat en
Di agnos
er ve
Ġf oo
Ġdel ta
Ġexp os
Ġrapid ly
' }(
- {\
per turb
X Y
ĠS QL
Ġvol tage
ĠAfric a
ok ed
Ġhierarch y
ĠX ML
Pro gram
ĠG old
ĠV ari
}) {\
au di
Ġexp ort
(' .
moment um
EE EE
r pc
Ġsit uations
ĠOff ice
R a
Res ources
with out
H y
t l
Ġreach es
Ġc ivil
Ġp late
L U
Ġh ous
) },\
F ORM
Ġinteract ing
pa red
me tic
Ġoccur red
) ~
D iff
P ers
ari o
Ġcap t
time out
it ud
). $$
raise box
Ġpar ties
hal f
ati bility
Ġbu f
Ġinc ome
? >
k k
ĠF ix
S m
f b
fer red
ĠRequ est
ext end
Ġun ity
C RE
colon eqq
war ning
verti ble
] ^{\
vi a
er os
Ġf an
198 3
On ce
Ġsay ing
L INE
S ched
Ġprofession al
ĠM ary
Ġassert That
Ġc lip
Ġfact s
ĠM icrosoft
Ġ ulti
pro gress
}{ $\
Ġcomple tes
ĠT aylor
ĠW al
F ree
Ġsummar ized
******************************** ********************************
re ce
Ġd amp
ĠEner gy
Ġal le
differ ent
Ġpur ch
Ġcaus al
gtr sim
ga z
y an
Ġ[ "
m cite
x s
& +
od ies
): =
ĠĠĠĠĠĠĠ Ċ
Ġinstal led
ĠMin ister
B asic
Ġas sembly
la red
Ġnumer ous
B D
ab out
d at
Ġvari ational
u ma
M ask
Ġsqu ares
^{ *}
Z Z
manif old
Ġt a
Ġrelationship s
ĠM ain
riv al
ff ff
ĠWil son
p es
per son
Ġpar ity
pro xy
Ġexpan ded
@{ }}
B atch
is su
ĠOr der
F M
Ġopen ing
A I
. <
ad ap
ĠP RO
R ole
\\ \
H ome
; )
ON G
Ġdoc umentation
Ġobserv ational
}{ $
ĠS ource
Ġc um
r v
Ġplan ets
Ġkeep ing
RE G
under brace
secu tive
mid dle
ĠSm ith
Ġag reed
Ġcomb ine
ĠOther wise
ĠBo ard
u ted
sh al
erm itian
{ |\
Ġde b
ant ly
å ı
Return s
ĠS at
Ġre c
^{ {\
ma ps
Ġb ars
Ġsome one
nav List
] +
iz ers
ĠC a
Ġdual ity
; ">
bin ing
ol f
ĠP O
ula ting
Ġsp irit
() ))
Ġb ank
ĠT H
Ġtr ust
Ġver ified
lat tice
so cket
Ġ" $
Ġd rag
elec tron
ma k
check box
as ync
Ġpl ans
esti mate
Ġisot ropic
fra g
lo gin
comp iler
ĠC ho
user name
Ġdec oder
Ġtag s
L android
all classes
P UT
Ġhe av
q ed
G AN
Ġfil led
cur ve
Ġhydro gen
ent ric
di al
am er
Ġv ision
ĠA uto
Ġes cape
Ġcon figure
Ġreli able
ula tive
comp arison
ĠM ake
Ġm enu
De te
cent ury
Ġselect or
Ġarg ue
Ġex cell
ĠY oung
Ġclassif ied
Ġlength s
- $\
ir l
ac tivity
h aus
Ġbud get
Ġdis covery
supp orted
ex ec
ĠAd ditionally
I gn
EL D
Ġscal ed
ĠB ur
Ġobtain ing
Be an
IG HT
, }
Ġb low
ĠC PU
Ġw ife
bound ary
C at
ĠB ern
ĠL u
\" {
. ",
J oin
r brace
Ġgo als
G D
Ġaddress es
VAL UE
ĠAN Y
ro t
datab ase
es sel
Ġf mt
}$ :
sin h
m r
Ġdetermin ing
n or
Ġo pt
Ġcon c
Ġimp lied
Ġguarante es
Ġcomp reh
fra ction
Set ting
Ġf aces
Ã §
g lyph
ĠM any
Ġend point
00 2
con ditions
Sp an
Ġelectro magnetic
G s
ma y
EEEE FF
le ts
Ġimp ossible
ist an
Ġac tiv
ĠA gain
Ġco vers
Ġch ance
Ġminim ize
ce q
Ġdest ination
Ġtrans formed
Ġcomp ens
ĠD el
Ġpo se
Date Time
Ġloss es
Ġin d
ma ch
Ġam ounts
e lem
Ġtrack s
Ġregular ity
exp ect
ta min
}^{ *
Ġ' \
Ð ¼
con sider
f ound
ĠOn ce
os er
G A
ta t
w ang
ĠTh omas
Ġte ams
}; \
Ġnear by
Ġprim arily
$ =
Ġextra ction
bur g
exp r
Ġreco very
ĠS P
Ġ\| _{
Ġign ored
Ġoptim ized
Ġc md
Ġ? >
Ġsto ck
ĠSte p
+ }
Ġdes cent
n c
ĠĠĠĠĠĠĠĠĠĠĠĠĠĠĠĠĠĠĠĠĠĠĠĠĠĠĠĠĠĠĠĠ Ġ
la d
(' /
ev alu
ĠCon st
p ull
Imp ort
Ġpart ners
e es
F ind
In v
F ollowing
I ds
Ġc lick
lat ors
Ġexecu ted
Ġexpon entially
Fla g
cos ity
check ed
ac le
ĠĠĠĠĠĠĠĠĠĠĠĠĠĠĠĠ Ċ
ach es
DE FAULT
ĠE lement
ĠJ ournal
ĠAc ade
}} }}
Ġcl ouds
en es
multi p
ĠArray List
Ġ@ "
] \\
Ġch art
ig ens
Ġrobust ness
Ġint ended
Ġsurroun ding
ĠEn gine
pro j
Ġj ets
)} =\
f lex
con struct
ĠSec ret
depend ence
Ġb illion
ĠPro of
Ġp at
Ġover la
od ay
Ġst rain
Ġprov ision
| {\
cos h
ĉ ĠĠ
ĠM us
ĠP oint
i ant
RE Q
Ġrect angle
ĠB i
Ġsignific ance
b ian
os h
U C
Ġer g
Ġtr unc
L imit
ĠA T
Ġwe eks
ĠT ur
Ġs ti
Ġfact ory
qu ality
gr al
w ild
Ġgra dients
Ġb ins
Ġtable s
Ġw oman
Ġg rand
Ġexplo red
f m
fla g
in ing
ile vel
ĠJ ose
er g
ĠD O
Ġanalys es
mo z
ĠA SSERT
( $\
DE F
il ding
k t
Ġatta ched
< <
Ġjob s
198 2
Inter val
Ġconver ted
V ir
ter ms
ĠG W
10 2
Ġsum m
in to
Ġext ensive
valid ation
ma pping
ĠF ace
Ġlink ed
< !
H H
v ance
ĠS V
Ġatta ch
ĠY ear
Const ant
tr ine
ĠCE LL
Ġsy mplectic
Ġapproxi mations
Ġwor st
S uch
ĠF ollowing
Ġmi xture
}. $$
ĠR ob
Ġdecision s
ig roup
Ġh or
icen sed
} </
em ann
Ġcomm ercial
ĠM ex
Ġe th
Ġla unch
c ancel
Id entity
Ġreprodu ce
oun ting
Ġlook s
l b
Ġb us
ĠSt andard
Ġuniqu ely
Ġpri mitive
ĠA S
D ictionary
Ġan no
Ġ\, .
Ġband width
Ġdetect ors
ta tor
ore s
D IS
ĠG r
Ġle aving
s ame
Ġsimpl ified
inte lli
Ġsu cc
Ġcoinc ides
Ġconvolution al
Ġenc ounter
b ec
F n
op tional
Ġf ashion
oci ated
Ġinter polation
NavBar Font
7 00
driv en
p ic
ĠAfric an
ĠH en
s qu
Ġthick ness
)$ }
Ġgen us
Ġ$\ |\
', '
spring framework
indu ced
ma ven
IN FO
Ġquark s
a sion
Ġc utoff
}{ !
INT ER
Ġflux es
intelli j
Ġs ch
Ġl ists
| }{\
ta tively
Ġra ised
Ġcoun ting
ĠC e
pk g
h ouse
à ¸
eman nian
te gra
ĠL ipschitz
Ġd augh
Ġmod ular
ĠM usic
Ġacc ounts
aj ax
am ing
Ġconjug ate
Ġdevelop ing
Requ ired
ĠP age
}) :
Ġdetermin ation
ĠLO G
[ ->
Ġdegener ate
Ġlist ener
bin ary
ĠTex as
Ġpor tion
Ġasympto tically
Ġen v
ID TH
Ġchain s
Ġpro min
^* (\
Ġt uple
D b
ĠL ife
Ġle af
p ation
2 20
I EEE
Ġrig id
Ġb ubble
Ġn p
ne igh
formu la
Ġg over
Ġrep os
ĠCong ress
f our
Ġdis abled
00 5
ĠE very
Ġsc roll
f ire
)) =
Ġ' '
E SS
rac tive
Ġsing ularities
Ġepoch s
I mple
Ġin sert
Ġconnect ing
'' .
=\ "
Ġp sy
Ġlogarith mic
av ailable
on ce
Ġprior ity
}. $
ĠP ack
li ers
Ġar ticles
Ġremo ving
flu id
ĠS al
ĠB ol
Go ogle
66 66
inter pre
Ġresearch ers
Ġenvironment al
Ġdiscre p
m ouse
py thon
C AL
Ġf if
Ġrespon ses
id entif
lap sed
ĠG lobal
}) }{
PO ST
13 5
Ġchar set
Ġnucle i
res olve
Ġre ality
Ġno isy
F il
v p
Ġfor ced
c C
ch art
ym er
ĠG PU
Ġfac ili
Ġre member
M ove
ai lability
Valid ation
Ġequival ently
b our
load ing
Ġpres entation
ack now
hom ogeneous
oc o
* {\
R andom
ĠSh ow
Ġp ump
ĠS NR
ĠI V
L D
Ã³ n
ĠRo bert
cep ti
ak es
SS L
Ġapproxi mated
Ġnon trivial
onal d
Ġre lies
k h
Ġcon tribut
Ġsci entific
d m
ĠS pa
OR Y
ĠLe g
scale box
Gener ated
Hel p
F urther
rou te
10 24
z o
ĠC S
Ġcar bon
MO DE
Ġs ending
Ġcor por
Ġhomot opy
Ġcre ates
Ġol der
s cheme
}) ^{\
N ullable
B N
ang ing
^ *}
Ġph on
Ġcancel lation
Ġobser ver
G a
Ġ ];
ul ted
Ġdec ades
Ġper centage
W ait
Ġ ×
ĠT or
Ġsu c
NS String
Ġcon sumption
p ress
Ġadap tive
Ġmom enta
un ities
Ġconven tion
Ġdiffic ulty
Ġreveal ed
Ġi i
ss l
Ġhistor ical
ĠM ass
ĠA pache
re lation
Ġani mation
Ġre served
Ġmode led
ĠD ir
Ġenjo y
ou ts
f ar
tr ary
N a
itud inal
Ġcomm ands
col Last
mon th
Ġcontinu es
b lank
llig ence
] }$
p ed
AN T
il inear
play er
ta ke
Ġtran si
ore l
ĠV ector
'] ['
DE BUG
Ġphenomen a
c op
Ġst ories
des ign
lo ader
No tification
Ġsh apes
Ġre write
ĠD an
G T
ĠA I
form er
thes es
data set
fore ach
C ancel
ro tate
Ġsp ot
gra vity
Ġp in
Supp ort
Ġma pped
11 5
Ġ" ",
Ġvilla ge
Ġpro g
# {
al f
Ġassoci ation
mention ed
Ġde v
}\, ,
Ġhel ps
Ġh uge
S ql
E valu
Ġhelp ful
Ġrequ ested
Ġequ ipped
}) ^{-
Ġpro ps
3 60
uman n
Ġn ine
ri end
Argument Exception
198 1
ĠAn g
ever al
Ġ> >
Ġw al
par ame
Ġsta t
}} ^\
Ġcharacter ization
Ġsk ip
ĠB a
Ġap ilevel
Ġobtain s
ĠI L
Ġadap ted
NR AS
Ġs lice
ĠB ased
Ġplan ar
Ġa cknowled
en tations
ã Ģ
d on
ich let
la g
Ġcli ents
Ġtun nel
ĠC D
ĠN N
b ounds
ĠPro v
ĠCommit tee
l p
char ge
VAL ID
xy matrix
t uple
H ub
j Query
Ġvio lation
Ġm or
G aussian
be q
tain ers
Ex ecution
Ġdevi ations
er ed
fe ed
\\ [
Def ine
ĠN evertheless
Ġcon secutive
scal ar
Ġf lo
Ġform ally
Ġconcer ns
ri an
m k
M ag
Ġvari es
w ho
war z
Ġ[ -
An notation
ĠPe ter
H I
geq slant
d h
u an
con structor
ĠDe ep
ĠD R
Ġal ter
the o
Me mbers
cor r
s ync
Ġmultip lic
ĠG a
Ġb rain
Ġcon crete
ĠL ink
Ġ )\
ĠP R
Ġv ote
ĠCent ral
en o
Child ren
up s
ten tion
Ġ til
col First
ord an
Ġtrans actions
),\ \
ĠU s
ĠS W
% ,
ĠSo ftware
ran es
corre lation
Ġneutr inos
top ic
Con straint
ĠA D
ĠSI ZE
z ip
Ġa udi
ĠS pe
Ġphot ometric
vis ible
Ġf irm
r ust
ĠN av
hel per
Ġgra ded
diag onal
}{ -
ĠArm y
Ġb an
Ġdedic ated
valid ate
sign ature
M SE
u racy
Ġpropos al
men tations
Ġpreser ve
ĠCo mple
Ġs ys
ĠW ay
Ġcertain ly
B el
LA PI
e b
iel ding
Ġc lin
ec tivity
3 50
B inary
Fail ure
ĠDe velopment
CT YPE
ĠA lice
Ġrestric tions
Ġs we
Ġbro ther
ĠB est
Tag s
pres ent
Ġcompe tition
f ront
Ġan chor
Ġcla imed
ĠSc ot
Ġg ather
Ġori ented
T M
tif icial
ĠT er
ĠIsra el
Ġout flow
mer ge
aba tic
197 9
In f
Ġregister ed
d ynamics
sub ject
dis k
Ġcomp osite
F ace
Ġmod er
ĠCont rol
ad ic
Event Listener
Ġsong s
Ġar range
Ġmeas uring
ĠFor ce
ĠFig s
Ġpo le
Ġ\ "
lim inary
get Value
G ER
Ġleg is
in herit
D uring
19 60
ĠK ore
Ġmechan ics
)} }\
mp s
Ġdivis or
d river
Ġbox es
Ġsurpr ising
r arily
: `
w atch
ĠReg ion
Ġbright ness
Comp iler
ĠS ol
» ¿
N ative
Ġed it
Ð ´
F s
Ġsh aring
D river
ĠDire ctor
Su per
Ġconcer ning
Ġm ale
Ġmar ried
Ġexp orts
Ġconflic t
Ġbo ot
Ġidentif ier
ï »¿
Ġ_ ,
Ġp ref
ic ago
____ ____
@ {\
vel ocity
s ched
Sta tic
10 4
vious ly
}= -
r ceil
ab olic
Ġb g
F OR
Ġcur sor
Ġci tiz
Ġcut s
Ġop ts
Ġmechan ical
radi o
ch a
Ġc row
Ġac ade
Ġh our
ver tical
Ġeffec tiveness
O wn
op ts
inter val
ĠB S
R ate
ĠAn alysis
Ġradi ative
cont ents
p to
Al gorithm
Ġf er
pa ren
Ġad ditive
ĠBo ok
2 40
ĠRus sian
Error f
Ġas ymmetry
Ġke V
^* _{
ĠT O
all ery
con tact
Ġlo aded
Ġprefer red
An alysis
rep ort
w riter
ĠC oulomb
ĠN on
Ġboun ding
verse ly
Ġvalid ity
comp ute
Ġover view
Ġp lease
po inter
) )$,
Ġa stro
du ration
(" /
or a
Ġinsp ired
k g
S kip
at o
_{ |
ĠM S
Ġan ten
ĠR ight
r uby
ĠD oc
tr ical
d dot
.\ ]
S ame
Ġsupp ly
rup ted
period ic
}$ &
Ġcapa ble
Ġar ising
" ],
V I
D ATA
Re port
Ġconcer ned
id en
f ake
ĠH ome
){ $
Ġinitial ize
h n
CH AR
s r
ab i
Ġremain der
table s
ent y
ĠWe yl
Ð° Ð½
as sumption
it udes
Ġout comes
Ġ' ',
al go
Ġt x
Ġass umes
Ġt ension
Ġaccurate ly
ĠP at
). $
get Element
Ġdepend ency
C LASS
Ġdi versity
l ceil
-- \
alax y
lo v
Al low
Ġ\\ \
Ġcli mate
r ick
Ġsupp ressed
Ġepis ode
apa city
is set
ĠS ign
Ġg amma
gu ide
ĠM iss
ĠW he
u er
v dash
k ins
us form
con sole
ind ic
vari ate
+ {\
numer usform
ĠN a
M ed
it ar
ĠF ree
Ġd im
T L
"/ ></
Ġcomp ris
Ġk illed
ce eded
ar ma
Ġdr ift
idel ity
Ġanom aly
Ġre ver
ĠOut put
Ġimp osed
ish er
ĠR ock
oc aml
ĠR ic
V ideo
Th rough
ĠIs land
Mapp er
ĠC lo
ĠF lor
Ob jects
Test Case
... </
ti tive
Ġrecon structed
Ġconven ience
Ġimpro ves
Ġadv anced
L ie
}}{ (
Ã ¨
A rea
Ġ\ )
Ġarchitect ures
F D
M ouse
} '$
s is
ame l
M IN
ic ular
En ter
Ġpar titions
Ġpropor tion
ĠPy thon
Ġrequ iring
ss ue
Ġm al
Lo ok
trans late
$ ^\
c la
Ġsh ot
f lush
Ġde veloper
sc atter
In dic
g as
ĉĉĉĉ Ċ
Ġpair wise
99 99
Ġtext ure
) _\
S pa
Ġquanti tative
C ONT
En vironment
cent ral
_ );
d or
ti er
ol i
Ġnew ly
Ġm irror
Ġsummar ize
C NN
)$ $
print ln
| }\
ch anges
ĠAr g
op f
add le
$ ^{\
l vert
v ation
cl s
Ġatmos phere
Ġp le
Ġex erc
ĠRo ad
l ife
append ix
Ġm d
Ġdep loy
' ];
AT OR
{ }{
Ġn m
cri pts
Ġposs ess
Ġreg arded
Ġpa int
P layer
l c
Ġsp ins
ĠC up
Ġin nov
Ġe igens
Ġrg ba
> :
M NRAS
et ro
r ish
10 8
Ġobser ving
Ġlog ical
Ġcon vers
ĠSer ies
tur bed
Ġs in
ob serv
ou ter
ĠS imilar
IO Exception
ch ro
Ġwh om
ĠTechn ology
Ġexcell ent
Re lated
DO CTYPE
US ER
b us
ĠJ er
ĠL HC
Ch ain
ĠAd min
B Y
re lease
Ġro ut
ass ign
Ġidentif ying
I X
h olds
Ġpro cessed
sp i
no br
St rategy
Ġcharacter ize
Ġg rows
Ġexhib its
Ġsee k
Line ar
Ġi p
Ġsimple st
S ol
Ġadj oint
Ġ\ %
ĠSec urity
ob ile
Ġcoinc ide
cre ated
C er
g oto
unic ip
Ġexplor ation
th ese
Ġprote ction
Ġprov ing
Ġopin ion
ĠL ine
Ġg al
ĠC auchy
class ical
if i
ĠL ast
ĠD B
ict or
ĠOption al
ff ers
Ġmultip licity
Ġpre v
ere f
de generate
Ġso le
ri age
ĠĠĠĠĠĠĠĠ ĠĊ
Ġquan tization
N L
j e
Ġthe me
an sion
V ec
Ġad mit
~~ ~
F older
ĠR a
S k
Ġsimp ler
}$ ~
Ġvis cosity
Ġsqu ared
Me V
Over view
Ġspe aking
ffici ent
Ġcheck s
Ġ} (
order ed
or ation
Ġadv ance
STR ING
\ ).
\, $
Ġs up
fact ory
Ġproced ures
ĠS ocial
Ġconfir m
Ġinfer red
we ighted
ryp to
Ġv ideos
own er
ĠE ND
e igen
Ġse a
g ue
fe atures
Ġs b
> "
M ake
Ġnot ing
pend icular
Ġattemp ts
ĠM edia
is Empty
Ġp lain
' },
() ),
Ġtimes tamp
h ot
A bs
Con structor
Ġser ves
ĠB ill
Ġequ ally
)} ]
lin der
K K
Ġext inction
27 0
ĠOr igin
Ġprom ise
}) ,\
ĠB it
ĠC C
issu es
ass andra
oid s
esti val
R aw
Ġro les
In d
s ho
ĠS ets
ĠS am
ĠS earch
arg uments
aris ons
Ġro tational
gg reg
Ġ Î
ĠM u
comp ile
( (\
W allet
ĠU SA
Ġ ice
Ġmo tiv
Ġindepend ence
Ġf ake
U ES
ĠAss umption
Ġcon caten
^* ,
p ur
cons ist
Ġco arse
assert True
os c
Ġcont our
Con clusions
Ġ_ .
A SSERT
Ġsec ure
\ @
Wh ere
Ġra il
ĠH uman
ĠJ ust
Ġ' ';
Ġown ers
Equ ation
Ġinvari ants
Ġbranch es
Ġcal ib
Ġsh ifted
T w
Ġif f
Input Stream
air s
F uture
Ġcon sequences
face book
ĠN E
Ġlo ading
ĠL com
trans action
b one
tri p
Ġvari ants
Ġimprove ments
ra pped
Ġin coming
Ġreal ization
ap ed
' d
}} ;
Rem ote
Ġsk ew
Ġarbit rarily
tun ing
Ġsupercon duct
ĠH ill
ĠC lient
ĠCh ampion
ĠC he
Ġcri tic
govern or
Ġgover ning
M N
Ġwor se
de lay
ĠF il
Ġsh adow
Ġs ensors
con trib
_{\ {
w ater
Ġexclu ded
Ġevery one
Ġd ri
Ġfactor ization
Ani mation
Ġmo tivated
Ġpair ing
ck ets
Ġfrequ ently
Ġreason ing
Ġver ification
ĠW IT
Ġs ql
Ġ" ";
19 78
Ġann ual
no va
Q ual
Lo op
ĉ ĠĠĠĠĠĠĠ
Ġpar ad
Ġinter view
Render er
at ar
Ġfun ding
> )
] _{\
Ġfla vor
E mail
the ore
S ave
Ġcol lege
Ġ tit
ĠLou is
ĠSt art
19 77
ĠD u
se en
Ġs lot
: #
Ġs la
Ġmeas urable
Ġsum s
side bar
Ġrepe at
ĠFran cis
C orre
Ġs al
Ġar rive
Ġpa id
N ET
ĠCan adian
ith metic
ĠW estern
b est
lac ian
Dec l
sp irit
p n
Ġin jective
AN G
ĠRe trie
F W
Ġread only
In formation
Ġprior i
ĠAL IGN
Ġd ictionary
o la
Ġasser tion
ph rase
Ġaim s
Ġemp lo
Ġa dapt
our se
Ġregard less
J ohn
ĠCh ild
H ar
Ġf light
re ason
Ġprodu cing
Ġsatell ite
Ġtor sion
Serial izer
Ġan notation
Ġexperiment ally
in formation
Ġecon omy
dest roy
name d
Ġperturb ative
ap is
}\, .
ĠRe pres
V ol
li ament
Ġal igned
Ġhelp ed
B order
au ss
r k
Ġbec oming
)$ )
A cknowledge
Ġdis placement
St andard
p us
\% ,
Ġbranch ing
ĠL earning
lec tric
En v
ĠÐ ¸
Ð ¿
}) +
le ton
do or
)- (
Th row
all en
Ġconsider s
Ġd up
Ġsimpl ify
Ġ" %
Ġdetermin ant
scri be
Ġch apter
Named Cell
g est
Ġtri ed
ĠG rant
ĠH aw
AR D
Ġvehic les
G Hz
AR N
ĠC amp
S creen
irc raft
Ġd aily
res olved
in ality
Ġgu ess
P lay
Ġsh orter
over rightarrow
Ġe V
Cur sor
B ottom
Ġhe ating
sat z
Ġper missions
ĠVir gin
it tle
ĠSta tus
Ġ ray
19 2
war ded
ent ropy
ĠIl legal
ER S
$ ~\
Ð¾Ð ²
Ext ra
ĠT eV
Ġad missible
comm ons
Cor ollary
F UN
ĠB usiness
ĠC ustom
)$ ;
ĠMe an
Ġexp ensive
Ġvor tex
FI X
; "
Ġcomple teness
o y
Ġman aged
Ġfore cast
for Each
Ġvis ibility
Ġillustra tes
ĠQu ery
dis able
Ġfew er
ĠA mazon
Process or
Ġdi verse
os ted
Ġsupport ing
ĠCar tesian
ĠDes cription
ĠĠĠĠĠĠĠĠĠĠĠĠĠĠĠĠĠĠĠĠĠĠĠĠĠĠĠĠĠĠĠĠ ĠĠĠĠĠĠĠĠĠĠĠĠĠĠĠ
ĠRo yal
/ _
{ }\
Ġsign s
War ning
id entity
Ġlet ters
Ġaver aging
w al
R F
}, $
. """
as p
Ġfam ous
ĠL os
SI S
Ġin vertible
riter ia
ĠA v
D er
10 3
ĠB ell
Ġdec oup
ĠH D
Ġre ti
sp acing
=" $
ĠM useum
Al loc
co v
f ollow
ex it
Ġengine ering
o is
urb an
Ġa xi
ä »
G al
C md
Ġbar rier
Ġb ases
Ġdis ks
multi ple
ĠMan agement
Ġcol lective
x html
Ġex ec
Filter Database
Ġvir t
Ġsm art
udi es
sample s
Un known
ger y
}: \
W orld
mo bile
Ġsum mer
Ġmut ual
ba tim
reate st
Ġe ase
Ġs un
Ġadap tation
sign al
Ġadd ressed
Ġin version
Ġcalcula ting
n ative
ĠPol icy
Ġlife time
197 6
Ġ ul
ĠM ock
Ġturbul ence
ĠWAR RAN
ro magnetic
ĠĠĠĠĠĠĠĠĠĠĠĠĠĠĠĠĠĠĠĠĠĠĠĠĠĠĠĠĠĠĠĠ ĠĠ
)) ^
âĢĿ .
Ġpi eces
Ġre v
Ġpro jections
un ched
'] );
Ġpreser ves
reed y
equ ilibrium
ĠRes ponse
cf g
\ ),
dia gram
SC RIPT
Ġtot ally
ti a
ĠCar ol
Ġdif fe
ap os
A W
å Ī
Ġrenormal ization
Ġdemonstra tes
Ġinitial ization
Ġlong itudinal
th in
ĠO lymp
Ġpre tty
Ġad ds
F ocus
ĠI ter
em it
Ġins ight
ĠS H
Res olver
cal endar
ryp ted
Ġk inds
rele vant
st ances
Ġar row
^+ (
cur sor
pi p
Ġapp endix
AT TR
con straint
la ins
Ġv on
pend ing
ma ting
ip ment
sc opy
Ġfem ale
ORD ER
lat forms
ĠE con
Ġact or
or tation
b n
* }\
Ġpro x
}{ .
AN CE
g ar
Ġb ridge
FI ELD
gener ic
flu x
ĠH a
Ġhe uristic
Ġcur rents
d ue
t ouch
Y Y
ĠP M
mat ors
Ġorgan izations
% "
ĠP op
i en
enc ing
h old
Ġacces sible
R el
ani mation
B oth
to Be
Ġm s
ma ts
}\ |\
ĠI d
column s
v y
With out
Ġsurve ys
ĠD eta
., ][]{
Ġthere in
Ġgeneral ize
). \
ĠK en
B l
Add r
ration al
14 4
ĠUni verse
ĠFran k
Ġrecover ed
ad j
19 75
Ġtell s
Ġweak er
si lon
ĠN AV
Ġthere by
Ġn ested
oun tain
00 3
su cc
dec ay
Ġexpos ure
ĠS pr
Ġvo ice
)\ |_{
ij k
label s
Ġpenal ty
Enc oding
ĠS R
> '
Ġprobab ilistic
Y ear
es tion
go v
' }{
P OS
ĠF R
ĠAn ge
}} -\
que e
Ġro tating
Ġo be
sing ular
ig er
Ġext rem
Ġglu on
ĠC MB
f all
Ġenter ed
Ġoutper forms
lic es
Con tact
Ġb id
Ġresi du
B ra
Ġwar ning
p lots
C a
gra ded
Ġin correct
Comple te
int en
ĠS ect
Ġhand ling
c lone
}) }{\
Ġexci tations
E ar
col l
e eq
Ġintrodu ces
s ampling
Ġcont roll
ĠÐ ²
olog ically
| $.
Us age
e th
Fra gment
ĠB row
}\ |_{
. ;
pa ted
Ġabund ances
Ġform ing
algebra s
Ġdaugh ter
on ed
re land
Ġ" .
fol io
ĠR O
Ġs old
A ST
coup ling
s warm
ud ent
Ġseman tics
o sitions
aa aa
Con tains
Ġen umer
ree ment
ĠAustral ian
h h
Ġre in
Ġdissi pation
spec trum
: @"
Ġiden tities
Ġco herence
gaz ine
ri ers
LE D
Ġbelie ved
ĠCur rent
Ġaut omorphism
up silon
Ġtype def
ĠS imple
r n
G ame
Ġser ious
xt ures
B ounds
dot ted
b undle
Ġ rm
Ġhom ology
STAT US
Ġindic ator
and a
s tab
App end
Ġkernel s
S top
PRO C
W IN
z i
Group Name
}$ };
Ġe cc
ad oc
Ġa di
tific ations
ĠS ing
Ġarg ued
Ġguarante ed
Ġtriang les
c atch
Ġph one
Ġaff ects
l its
Ġintegra ting
ĠAn n
Ġformu lated
Ġtermin al
Ġexper i
M ost
ick s
Ġg iant
Ġar ri
phys ics
] ))
10 7
eff ective
ĠAb stract
Ġz eros
Tran sport
ran ts
f mt
g rounds
bas is
ut down
be an
hook rightarrow
ĠAcade my
Ġintegra ble
ĠP ower
ĠB ank
Ġs ends
wild fly
| ,
ĠM i
ourn als
Ġpre ce
Ġpa tient
'' $
at re
bo se
Ġdifferenti able
? }
CON FIG
! }
Ġfra gment
R PC
ĠRe al
Ġoffer ed
itect ure
P ut
ar ra
Ġwon der
p as
pro gram
check mark
Ġr ings
Ġcon tamin
ri e
Ġquar ter
D ue
en sively
pa ges
ĠComm on
Ġoscil lation
L ibrary
ques tion
Ġc ategor
Ġ' ./
Ġbegin s
ex cept
ĠAd S
Uni que
Ġdis patch
g p
10 9
Ġi ons
Ġtun ing
r vert
fil led
ĠRem ove
ĠJose ph
M c
ĠM ad
W ord
Ġstr ug
tic ular
Ġdimension less
Ġc f
r ons
lic enses
lic ense
Ġmass less
Ġmer ger
c mp
e ties
Ġsta tions
b ranch
ĠD OM
s ystems
Ġrepos itory
Sp lit
Ġremain ed
ĠTh rough
Ġtop ics
Ġthermod ynamic
Ġquali tative
ĠFlor ida
D em
Ġref lected
Ġsub graph
Ġs ight
RE SU
iffer ent
C ard
$ ]
Ġminim izing
el come
other wise
ĠBu ild
at om
Ġinitial ized
Ġrece iving
Group s
G LAPI
ĠComm and
Ġco variant
Ġcheck ing
lect or
Ġsimula te
rat ch
Ġt ro
Ġf re
Ġcomp liance
b os
Ġ> >>
oin ted
ma sh
string s
ĠApp lication
lik ely
Ob server
DO M
du c
Ġmonitor ing
** *
Ġdec ide
Ġ{ },
ce an
Ġpur su
{ #
} --\
om ite
Ġcontinuous ly
Ġmod ulation
Ġamp l
Ġenhance ment
Ġmorph isms
197 4
A SS
Ġsus cepti
Ġco q
Ġhe ar
17 5
Ġa part
Ġg un
I l
Ġevalu ating
Ġw itness
ĠJapan ese
10 6
Ġexpand ing
Z ero
ous tic
b v
Ġro b
Ġincre ment
ĠF ind
Ġamb igu
Ġsub sequently
B ind
Ġf elt
0000 0000
Ġpromis ing
p en
l is
lement ary
Rem ark
Se gment
M ay
Ġcent ers
get Id
ĠY our
P rivate
ĠL anguage
Ġwas n
k wargs
Ġt re
ĠI C
Ġaccomp an
Ġk pc
Ġpl ant
RE D
ĠF OR
B IT
Ġsubgroup s
ĠI den
h ab
ever y
Ġun able
read er
ĠChar les
}: =\
Not Found
Ġcorre cted
Ġmodel ling
Pro b
Ġc oding
Ġper mission
pre d
Ġhar mon
Pe ople
se ll
Ġdec oding
Ġ= &
{- }
s ent
100 00
or ough
Ġw ild
Ġslow ly
Bin ding
ĠRe fs
Ġto ler
omite mpty
W ORD
Ġo il
am ber
ĠG ame
ĠDiv ision
Ġ< -
M essages
Ġfilter ing
Ġc ris
}$ \\
ĠR ay
Err ors
De ep
Con sumer
Ġar rows
Cal c
B i
Ġc ities
ĠT om
' })
Ġd ip
Pro v
w ing
ĠCh icago
ĠWindow s
Ġmes on
D om
et o
bin ding
Ġsequ ential
direct ory
C la
Ġrece ives
Ġs aved
Ġinfra structure
. ][]{
, $$
ke ep
ĠSer vices
H tml
Ġext ending
Ġpre pared
ĠĠĠĠĠĠĠĠ ĠĠĊ
Ġlit er
Ġc od
conver gence
ĠSpec ial
Ġpar ton
Ġro tate
Ġpara graph
spec tral
Ġg lass
Ġsched ule
ask et
u uid
ĠR am
Ġobvious ly
/ "
ĠÐ ½
Ġissu ed
ĉĉ ĠĠĠ
Ġinvest ment
Ġper pendicular
Ġmethod ology
s z
. }}
un ing
ĠClear ly
ĠS F
ul ner
r ules
Ġin comp
Ġwait ing
MOD ULE
f ollowing
. (
000 1
Ġno tes
ĠL in
Ġa cknowledge
Nav igation
ĠRi emannian
Ġanomal ous
Ġclos est
ck s
Ġimp ose
Ġen velope
Ġall Classes
Ġreplace ment
lin ec
Ġiter ative
lic a
Ġpass es
m essages
âĢ ħ
Valid ator
FF ER
1 19
Ġco res
Ġv ice
b lob
high light
In ner
p ref
ĠB et
2 13
Ġ ----------------------------------------------------------------
Ġrelig ious
US Y
Ġ' %
Ġcon sumer
h ad
OR TED
Ġback ward
Ġredsh ifts
ĠR L
er ved
}= -\
ĠCath olic
imp lies
itz er
v let
Ġmagn itudes
lip se
11 4
197 3
spe ed
_ )
amilton ian
ĠC la
S B
ced ure
! (
ĠallClasses Link
Ġuniqu eness
re act
rag ma
Ġwin ning
Ġ Ñģ
ĠNAV BAR
Ġle pton
Ġbos ons
Ġmin i
Ġrespon d
Ġw ants
sub mit
Ġcon trary
ĠSp anish
. ]
Ġb are
* ,
t v
Ġhierarch ical
z ation
Ġestima ting
Ġmon omial
ro ve
ĠUn it
Ġe ye
Row s
class Name
ĠCon text
u rate
Dis cussion
Op tim
A ct
Ġover head
$\ %
Ġoptim ize
L arge
I Z
av g
Ġspecific ation
n am
ph ot
no align
12 2
repres entation
Ġ ig
ĠRe port
Ġdr ug
ĠM O
C ALL
ĠS FR
St ub
Ġout line
Ġdeath s
Ġinter fer
ĠPe ople
Ġd ots
Ġimp lications
ĠCol lection
ĠP lease
Ġ' .
ov ing
11 7
Ġres cal
Ġno tations
ĠSt ream
Ġ ens
Requ ire
ĠGe org
ĠG ood
ĠKing dom
ĠF rame
Ġpromin ent
RESU LT
gener ator
ĠFace book
ol o
Ġg ates
) *
Ġel if
ĠCh annel
che matic
Ġreg imes
w orth
Ġen ded
ip edia
de cre
Sh ould
b log
u u
="../../../../../../ ../
Ġacqu ired
Ġb old
r aries
> ;
E G
n atural
^+ _
ur er
.\ ,\
ĠC SS
Ġcompreh ensive
Ver ify
Ġev ident
)\ )
ĠL L
Ġprincip les
f etch
An aly
Str ucture
Ġread ily
UN D
C ast
ĠN AS
, +
ĠC F
ĠW IDTH
Ġsub jects
triang leq
up load
Ġb la
le e
F ixed
S en
T Y
NO DE
U ST
Ġb ond
E ven
Ġl ift
ĠRus sia
ĠL ibrary
P N
Ġnegle ct
B a
__ )
Cont ents
ab stract
MP L
yn chron
v anced
Ġco ol
12 4
ande mic
or ange
L em
Ġsh or
ĠJ es
Ġclass Name
Ġarti st
sc an
ĠM iddle
Ġdwar f
V AR
Ġvic tim
L IST
Par tition
Ġo mitted
su me
Ġphot os
Ġimpro ving
|\ ,
er ce
L Y
HE AD
Ġpr ison
do es
zh ang
at ern
ore ign
Ġfac ilities
L ight
\% )
incip al
Ġbelong ing
LO W
Ġcele bra
is ition
Ġg ender
Ġmod ifications
App endix
New ton
Ġ$ _
Ġspatial ly
Ġsent ences
de precated
Ġlog ging
I AL
Ġdef e
O m
ĠDir ichlet
Ġ& -
C enter
ak i
ĠM el
Ġrecogn ized
Q A
lim in
Ġconsider ations
Ġreve als
ac cept
V D
Ġg ray
ĠL ee
}}{ {\
scal ing
, '
Ġb undles
(" #
Ġnucle us
ke V
ne ar
Ġ ur
Ġcon ference
m v
Phys Rev
Ġpe ace
Ġcontra dic
Ġneur ons
Ġopp osed
le ading
ĠCl ub
f av
Ġv m
ĠR GB
b if
enari o
Ġteach er
man y
Ġb odies
D ig
al ed
si l
ĠA C
Ġch ose
Ġmod ulo
ma jor
ĠĠĠĠĠĠĠĠĠĠĠĠĠĠĠĠĠĠĠĠĠĠĠĠĠĠĠĠĠĠĠĠ ĠĠĠĠĠ
pre vious
T ok
Ġauthor ity
Ax is
section s
^* $.
tran sport
ke leton
ĠBan ach
Re lease
P lace
scal a
p riv
Ġch unk
Ġpay load
math rel
Ġar rays
in verse
at tach
,\,\ ,\,\
Ġcan cer
Ġpolar ized
u its
ĠRe view
the ast
ĠF ra
ĠThe ore
s lash
Ġt err
PRO JECT
Con sole
Ġcollabor ation
ome ter
n ecess
Ġdeal ing
Wh ite
qu et
m orph
Ġde vo
T i
ff f
L at
remark s
R GB
Ġbuil dings
ĠP res
pe ak
CO MM
P ower
Ġdiff ers
Ġreach ing
ĠP aris
ĠRes ult
Exp ected
ĠĠĠĠ čĊ
T erm
g ic
Ġcapa bilities
dire cted
ĠA rab
ma c
ss on
Ġanisot ropy
Ġsem igroup
> [
A udio
Lo gin
Ġfore st
g ency
Ġtrans forms
ĠCl oud
ut ch
ĠR ights
Ġb is
ati o
Arg uments
Ġarm s
Me an
ĠSupp ort
Sign ature
ĠRi emann
ĠS il
pro t
Ġover flow
H is
A u
tif ul
}^ -
ĠExp ression
Ġdamp ing
ĠM eta
ĠP an
Ġhapp ened
Ġm ur
ĠAnge les
ĠP ass
Ġinter po
Ġph ilo
n ight
Ġbirth s
Ġassoci ate
ĠC ross
ĠRich ard
ĠT own
fit ting
ĠB orel
C ounter
ge ometry
ad joint
Ġfla v
Ġm ic
Ġconcer n
per t
i ro
Ġadmin istration
p od
% )
A UT
Ġcor ollary
Ġperform ances
Ġarti sts
ĠL java
H L
f mf
Ġnon negative
}} |
Ġp c
Ġover come
cre d
om er
ci ent
Ġsuper vised
Ġs ales
ĠI reland
Ġswitch ing
ĠC L
Dis patch
ig an
ĠP FN
Ġb ind
197 2
c A
a verage
tis m
ĠDE FAULT
Ġphilo so
) }^{
tain ment
ĠÂ §
D ay
Ġd st
ĠDe lete
Ġcred it
link s
ĠBy te
prob ability
ĠPlan ck
]{ @{}
Ġcondu ctivity
. \,
ĠA M
&& &&
the y
ĠC ri
S can
G ate
Ġcon servative
ĠBe fore
us tice
Ġdiv ide
RE E
ĠL ay
produ ction
ĉĉĉĉ ĉĉĉĉĉĉ
Ġmay be
ĠMethod s
E u
Ġar tifact
qu bit
ira ble
me mbers
ura ted
Ġpart ner
Ġs ketch
ĠAnd roid
Ġp itch
Ġf older
qu an
Ġpar abolic
ĠM artin
Ġm ouse
Ġopport unities
ogene ity
ur ance
remo te
Diagnos tics
Ġmon o
j an
Ġcomp iler
Ġis land
re view
Ġdef end
Ġwall s
Ġin jection
}\ {
Ġconstruct ing
ĠE v
11 8
ĠJ ones
ĠR ou
Ġun like
ri al
ĠWith out
ĠR andom
ĠD C
Ġb ath
Ġb lood
Ġgreat ly
Ġreson ances
t m
ĠE V
Ġdes criptor
ĠConfig uration
par ticles
Ġpreser ving
Ġwork er
Ġpreser ved
Depend ency
æ ľ
ĠGL int
Extension s
S pr
ĠN P
Ġa de
con vert
Ġemp ha
wik i
DE X
Ġre actions
)}\ \
Sh ader
Ġm ig
la test
Ġtw ist
Ġsh ip
Ġ* ,
Dec laration
ph en
Ġth resh
ĠD A
r int
) ]{
al ian
Ġphot ometry
Ġinfinite ly
getElement ById
INS ERT
Ġo mit
Ġla pack
A cknowled
Ġpo les
Ġbal anced
Ġf etch
ĠM I
Ġar ithmetic
bal ance
Ġpr ices
Ġhe ard
Ġf s
Times tamp
jec tives
Sh ared
L ICENSE
PH P
times tamp
se mi
Vis ual
50 9
Ġconsist ently
task s
Ġf ounded
E sti
Lin q
Ġli ber
ine q
Ġmagne tization
Ġso cket
Ġran ging
Bo ol
N U
Ġspectro scopic
p lain
Ġfi la
enc oding
ict ures
z il
set ting
}=\ {
Ġ$ ^
Ġfra ctions
seud o
Ġoffic er
ah ler
til ity
onym ous
Ġle ak
ir s
AT ED
min imum
W ang
ĠP lay
Ġcon served
ĠB rown
ID E
ĠP A
ĠN et
Ġelec ted
Ġ ...,
Ġa fore
' ^
Ġoscil lator
ĠRe ference
) ",
pp ings
Ġa z
le in
Ġ{ (
ĠK o
Ġn ice
ynam ical
Pol y
ali as
11 6
ĠCre ates
Ġde partment
Ġturbul ent
d w
_+ $
in n
S elf
ab ric
}}( {\
Ġint en
dis patch
al la
ĠE M
{ -\
di ted
c as
Ġtw isted
Ġmo tions
b is
ak a
Ġfam ili
Ġabsolute ly
act ual
oc ia
ev olution
ĠSecret ary
V ICE
N I
rup tion
}^{ -\
ĠSD SS
Ġdis plays
O pt
Ðµ ÑĢ
ra tes
Ġthous ands
ĠS up
ĠF ederal
Ġb io
5 000
au tiful
Ġt ack
lin ation
Ġin gre
im als
}} }(
yn man
æ ĸ
\% .
ok ing
la ton
Ġbehavi ors
Ġprotocol s
Column s
T imer
iter al
ĠC orre
9 00
We ight
H u
Vir tual
cre ens
nu cle
Ġsol ver
Ġoper ate
Ġinfra red
Ġd ict
ĠA P
tz mann
Ġt ensors
ate ver
ð Ł
Ġear th
2 30
Ġn s
Ġinstruction s
Ġdiscrep ancy
T yp
lu x
illis ec
Ġvalu able
glyph icon
sq cup
11 3
ic ode
Ġc ultural
inter action
Ġl ens
le ted
S ite
Ġstand ards
ĠIntern et
ur is
Pre v
l ighted
ind ices
Ġin direct
Ġofficial s
ga uge
es is
ris on
ĠM D
approxi mation
Ġb urn
Sw itch
ol ves
ar di
Ġacc ord
L ag
At tach
D ynamic
Ġsubstantial ly
$ _\
go ti
IM IT
gin ation
Ġexp lains
Ġpre pare
Ġemploy ees
ĠJ e
Ð ·
Ġpo si
Dep th
ĠMex ico
alle y
B er
â Ķ
ed ges
Ph ase
Ġreson ant
Ġpoint ing
Ġevery where
F it
Ġda mage
Ġauto matic
ĠF uture
path s
W atch
al ert
Ġmeaning ful
Ġinter ests
AT CH
str ict
)^{ -\
inten ance
H older
Ġr id
Ġfac ility
Ġlit eral
Ġempha size
Conver ter
Ġan c
Ã £
od ic
nav igation
P latform
{- .
Ġbary on
Ġulti mately
S core
Ġexplo it
Ġsp orts
Ġra d
Ġh ex
)\ ;
ĠEn vironment
Ġsyn tax
Ġutili ze
ĠP l
ma ml
Ġphys ically
l int
de cl
G reen
s ity
MM ARY
ĠA ust
tabular newline
pix el
Ġme ant
Ġ`` `
da ys
Ġanaly tically
Ġsk ills
ĠS ED
19 50
(" %
Ġregion al
' _{\
um s
Ġpublic ation
Ġtheore ms
ma gn
Ġran king
E very
Ġion ization
^* $,
ĠEx perim
V V
Ab out
Ġany one
Ġcombin atorial
De v
ĠF ar
D r
)} +
Deta il
ti e
}} %
ĠP S
F inal
c lock
temp orary
Tran sition
et ary
is er
ĠTh read
ĠĠĠĠĠĠĠĠĠĠĠĠĠĠĠĠĠĠĠĠĠĠĠĠĠĠĠĠĠĠĠĠ ĠĠĠĠ
EN V
Ġtransfer red
Ġpredic tive
Ex ists
17 0
UR CE
Ġa u
Ġwar m
sum ing
tran sp
ĠB lo
2 10
Ġgra te
Ġreview s
ĠPro blem
âĢĿ ,
Ġiter ator
ver batim
Be en
12 6
re ds
ex istence
pro pag
t ration
bel l
Ġdele ted
= %
const rained
dis crete
xy gen
Ġannihi lation
or row
Me trics
inte gral
Ġa ward
Ġsp iral
ĠV e
IF AR
. }.
im uth
Ġbreak s
or ous
Ġmod al
ĠCor por
Ġar tificial
.* ;
L ow
Ġla unched
Ġcitiz ens
ĠS L
Ġglob ally
Ġs ell
Ġfair ly
od o
Us ers
Ġ} .
te ction
Conn ect
Ġv acc
ĠAmeric ans
ĠM A
n ic
Ġsa ke
ĠSer ver
Ġpossi bilities
li ve
Ġin er
Ġm otor
ĠC T
S eq
Ġpredic ts
å ®
Ġadvan tages
Ġal ias
P ixel
Ġincreasing ly
ad ded
12 1
Ġbin aries
Ġred und
Ġassert True
Ġbu y
Po ints
Ġminim ization
"> (
m x
Ġtechn ologies
st all
> ()
Ġlat tices
Ġtim ing
ĠZ h
ici ans
de m
l Vert
ĠT ree
pro c
Ġsupp osed
Ġindu ce
oth ing
å Ĳ
rela tivistic
Ġfluct uation
op ing
vari ables
Ġpoli tic
Ġpropag ator
ir us
Ġdis able
Ġw x
ĠC ore
Ġthink ing
un known
T uple
Copy right
ï¼ Į
T ouch
ĠVirgin ia
arc sec
st retch
h pp
TI ES
Al pha
ĠDes pite
ĠCent re
Ä ±
Ġax es
45 6
In struction
n r
medi um
AC H
Ġres ulted
Ġoper ated
Ġhosp ital
e el
Ġbu g
tr ically
ĠO S
qu ar
ĠT ag
er gy
Ġ( {
sh ips
c x
d ense
Ġcont ours
Ġtri m
ĠFigure s
Ġs ync
Ġt d
small matrix
repe at
TE GER
( ['
Ġk new
00 4
ps frag
ĠVAL IGN
Ġf loor
ĠB C
Ġmod ulus
ĠPar se
Ġreg istration
Ġag rees
ro ke
TR AN
Ġ era
Ġab use
ĠRe p
f older
Ġch ief
Ġch e
S imilar
i y
Ġ& =\
trans fer
Ġremark able
es ome
to s
asc ade
M aster
ma cro
com b
' ')
bur st
f an
g z
ĠW ill
Ġintegra te
al a
ĠI ll
di amond
Option al
Ġfun ds
Ġa ircraft
Ġsepar able
BU FFER
get Instance
list ing
NN s
Ġrecor ding
Z one
ign ore
Ġsearch es
T y
ys h
Ġtransi ent
M aterial
big cap
ĠJohn son
i pated
lim sup
ĠB lue
ĠL ake
| +
ĠC olumn
Ġconsider able
ĠC V
up les
ĠW ell
197 1
Ġe mitted
Ġt sd
Ġreflect s
Ġp andemic
r Vert
qu asi
Ġgraph ene
var sigma
G EN
Array List
u ous
ĠIt aly
{ },
os a
Set up
act ing
Ġob sta
Ġtrac es
Ġtren ds
Ġafore mentioned
me trics
lu a
n as
Ġclass ic
Ġl ived
ĠG Hz
Ġlat ency
Ġres istance
Ġcomputation ally
ĠH u
s ources
}} [
Ġplace holder
stri p
Ġfilter ed
Ġ| =
Ġsum mation
Ġcontra ction
ĠSci ences
n orth
ĠIN TO
B G
] ,\
D av
ç Ķ
Ġ' ''
ĠWARRAN TIES
to gether
Ġselect ing
Inst all
Ġas set
Ġinter faces
D imension
Ġcomm ission
Ġansw ers
multi put
API ENTRY
ĠI ran
=\ ,
en ger
Ġstri p
ab y
Re act
ĠPFN GL
te t
har monic
Task s
)\, ,
IN ST
ĠP ut
Ġpre liminary
Ġwavelength s
Ġstructure d
me l
Ġshe et
ĠD ouble
ĠJ son
En g
Ġsucc es
Ġman ually
Ġcomp arisons
Ġ' "
ĠG rand
lic ial
P romise
F oo
K M
cur rency
f v
oun der
Ġcon sequently
Ġsuggest ing
Ġsci enti
d st
Ġch ampion
De lay
ĠP hi
Ġpatch es
on o
Ġti dal
si bly
get Type
T or
un ov
ĠK E
log ging
amazon aws
Ġinstitu tions
Ġwindow s
inc ar
ĠF a
Li ke
j u
Ġoccup ied
ĠTw itter
re cur
Ġcompan ion
ut y
r ical
Ġtrunc ated
ĠK ar
j ax
q w
UN T
Ġpay ment
un cation
W I
Ġe le
Ġb attle
Ġrecomm ended
Ġp reference
Ġsyn thesis
ĠCh ange
vent ory
Ġevolution ary
ĠA tt
Enumer able
Ġvo cal
| <
be am
Ġper mit
en h
Pre vious
Ġkine matic
Ġinterpre t
cho ice
filter s
f ac
S ort
Ġdec lared
ĠC G
Run ner
ĠBOO ST
), $
i pher
ĠCon f
ĠĠĠĠĠĠĠĠĠĠĠĠĠĠĠĠĠĠĠĠĠĠĠĠĠĠĠĠĠĠĠĠ ĠĠĠĠĠĠ
ij ection
P b
Ġadmin istra
gan ization
Ġnegle cted
te le
ĠC as
j j
/ ">
Ġp latforms
ĠLab or
; |
)} +\
d jango
ĠF ro
Ġstore s
ĠLap lacian
Ġman age
App ro
p is
13 2
Ġpe er
ge o
ĠA ff
rt l
Ġesti mators
u ition
Ġg oto
create Element
Ġdef ect
Ġreal ize
Ðµ ÑĤ
ĠCont ent
ĠRec ords
Ġc lone
li ps
Ġsupp ress
19 68
Ġuni versity
ĠF ilter
]{ $
Ġ uri
s outh
ĠComp onent
h is
SP ACE
refer red
Ġper man
ĠW ik
Ġs n
cont ra
Ġquan tify
Ġser ving
ĠAr ts
Ġs ter
esting ly
Ġsee ing
g ressive
(' <
Ġecon om
ul se
ll ll
Ġsur jective
D u
d ocker
}{ (\
Const raints
ĠVir tual
Ġc as
Comm it
Ġatmos pheric
19 69
c it
Ġaggreg ate
}) \\
B est
" ].
Ġf ans
ob tained
)$ :
in der
ĠPh il
b ling
prec ision
ĠD ig
ĠH AL
Ġre ject
Ġden omin
Ġde legate
Id x
i tation
Ġcounter part
po sitions
e ast
Ġconn ectivity
par ty
Ġsex ual
Q CD
Com bining
Ġs orted
Ġexper t
Ġa w
Ġcustom er
Ġretrie ve
ĠM ur
Ġsto pping
Ġcard inality
ĠBu ffer
act ory
ta ur
Ġdro pped
Ġlimi tation
Ġs ymp
Output Stream
Ġfocus es
h istory
Ġhand s
i math
A g
T AG
^* )
Ġleg end
Ġsupp lied
Ġauto ma
Ġm igration
en vironment
rid ay
ther mal
d yn
v b
ch es
Ġde part
Me asure
V C
Ġ$( {\
fer m
Re ason
Ġparame tric
Acknowledge ments
Ġc ached
Ġaggreg ation
ĠD own
Ã£ o
Ġpack ages
w an
Ġcompe titive
Ġas ymmetric
es sed
Ġfe e
Ġfall s
onom ous
ĠWhe ther
bu ilt
Ġapp reci
lations hip
Ġfermion ic
ĠSU MMARY
3 20
gr u
Ġdistingu ished
D rag
ĠD im
per formance
Ġfor th
Ġour selves
R i
Ġv ast
ĉĉ Ġ
Ġgu itar
Ġassess ment
ong o
log o
ish op
Ġrecon struct
Ġan notations
Ġcomplement ary
Ġra ys
R et
th le
ĠE U
Model s
al and
ĠCH ECK
Ġmonot onic
Ġv ulner
ĠV o
ĠJ ordan
Example s
con struction
si tes
Ġvir us
ĠNe umann
} ",
) }}{
Ġs ectors
ĠGL enum
U CT
road cast
get Class
L icense
Ġat tributed
Ġcapa bility
Ġcons ensus
elastic search
con cat
Ġrela te
Ġs ink
Ġd anger
Ġcum ulative
Ġfamili ar
Ġg reatest
Ġor thon
Ġreturn ing
s tation
Ġcustom ers
}} /
con e
Am ount
Dire ction
Ġmo tivation
d B
)) }
Ġre jected
Ġhol ding
ut s
Ġs napshot
Ġar rival
Ġbelie f
Ġspa cing
Ex ecutor
Ġun changed
d rag
ĠIt alian
15 5
Ġmaxim ize
Ġoccur rence
ĠAm ong
}_{ +
table block
u tion
ad i
omm od
ob served
2 25
T ile
Ġfocus ing
o tic
K G
od ge
Ġcareful ly
z ier
ĠA la
CC ESS
lim ited
A MP
ok es
Ġdevo ted
%%%% %%%%
19 0
au g
ĠM atch
Ġmembers hip
Ġtimes cale
Ġre written
ran ce
,\ ;
Ġmolec ule
ĠâĢ ¦
la beled
Ġtri angular
F atal
ĠV an
ĠHen ry
ĠE li
^ -\
| ^{\
Ob serv
col sep
Ġreg ret
o e
Per mission
aw are
ĠC irc
}} ]
leg end
( ()
RA Y
Ġsen ior
ao tic
ĠIn di
Data set
RE SS
im od
Pre dic
ĠParameter s
B ro
re pository
Ġbg color
Ġsuperconduct ing
Ġcho fer
F G
Res et
Ġ Ø
Ġin set
k u
ab ilities
n of
ĠR ow
ote l
ĠSch r
L IN
/ $
LA S
Fe ed
B ad
Ġsuper ior
Ġremo val
Ġas sets
ĠAPI ENTRY
ĠH istor
em on
Ġex clude
ĠW ater
Ġsat uration
Se par
Ġneighbor ing
\ `
ĠY ang
cd n
der r
app ed
Ġacade mic
van ishing
Ġmultiplic ative
ĠW omen
Ġbi partite
ĠIm mutable
Ġp ending
( |\
v ct
ac ific
al p
Ġleaders hip
match es
Ġperfect ly
D rop
ĠH ubble
ĠG ib
ĠSur vey
Ġan satz
ĠM ont
Ġsp ont
Fra mes
k ar
th ird
ĠVAL UES
head ing
Ġbos onic
The me
Ġdis appear
Ġbase lines
A SE
Ġmi tig
IL ITY
ĠO N
pgf set
Control s
} ''
S napshot
Ġman us
ro bust
Ġre serv
Ġs ensing
D a
m q
ear t
al most
der son
Ġcompu tes
Con vert
Ġse es
Ġthread s
ĠF lo
ĠM atrix
ĠC os
Ġanisot ropic
ti st
Ġ} _{
S cheme
A ggreg
col lect
SS M
et c
Ġsh ares
war n
ĠI o
ĠAt lan
Ġdes tr
m ers
- }
In sert
CO M
ĠDen ote
v x
Ġsub spaces
Ġhum ans
Ġade qu
Pro blem
Per iod
ĠO ld
e le
us band
Ð¾Ð »
on ts
Ġ{ %
structure s
T X
refer ences
w art
Ġroun ds
Ġa head
Ġheav ily
on to
Ġst yles
down load
el le
ir ls
n at
Ġj unction
* (
Ad S
Sec ret
Ġflexi ble
Ġpsy ch
Ġremark s
Ġint ui
Mon th
Ġcy linder
Ġthrough put
o S
Ġdesign s
E s
En able
Ġco ach
ver ify
[] {\
Ġenga ge
Ġhand led
Ġcapt ures
linec ite
)= -
oc ab
ĠC at
it an
re si
Ġdef ense
ĠLo ad
fil ld
vi et
mod es
con clusion
Ġsta ts
ĠApp ro
tim er
)\, .
Ġbusiness es
Ġprece ding
ĠH am
ĠU RI
] =\
ur ies
fra mes
B reak
Ġvo la
ĠP C
Ġmanif est
d g
ĠLe ft
an notations
Ġwe alth
ĠR ule
Ġresid ents
sh ots
S em
Ign ore
filld raw
let ter
ĠCol umb
Ġthrow n
uk awa
ĠL P
FLA G
Ġanalog ue
audi o
Ġcra sh
ic ing
ĠDes ign
sk a
des cribe
Ġad verti
Ġprepar ation
Ġcomplex es
Ġc b
ĠCal c
AC CE
ĠTe am
limin aries
ĠTh ree
if iers
Ġconsider ably
me chan
or se
ĠG P
L ib
}$. }
40 4
sd k
Ġb igger
with in
ĠJ ul
ĠRes Net
M achine
Ġdraw ing
s tability
Î ¿
ĠH ard
con ds
ĠV ictor
Ġk ing
Ð° ÑĤ
ĠA ut
Ġutili zed
ni pp
Ġsub sequence
Ġcris is
ter ior
19 67
Ġvari eties
j ackson
Ġpar sed
Ar ch
can vas
ĠEn ter
Ġincorpor ate
de fer
AV E
Ġexam ined
Fe atures
Ġb ill
Ġrecur sive
ff ix
Ġend ing
AN N
n an
=\ !
W W
)} -
rm k
Ġ urban
ĠL ord
Ġprote in
Ġwe ather
ti ced
li bs
ra ting
r p
Ġ- =
ĠT ab
Ġhadron ic
PRO P
ul ties
F amily
)\ |
Ġnorm ally
T ex
pol ynomial
Eff ect
li u
as ympto
Ġdist ortion
ĠG en
Ġvari ed
Ġadv oc
R ules
ĠA ccess
R M
cript ors
Ġgran ted
){ $\
CD M
E v
per ture
vi ation
Me tric
Ġnucle on
ĠC er
ric tion
4 50
f aster
Ġh ide
14 5
G F
k pc
go og
as hi
Ġs addle
Ġindu strial
Ġmar riage
ĠWh ere
)}{ (
equival ent
re po
ĠAdd ress
tw itter
Ġst uff
Ġte lescope
D on
Ġle s
Ġimple mentations
Ġdown load
D ist
Ġp ed
ĠSun day
ĠM P
Ġnor thern
g lu
cm id
Sur face
in finite
rou ter
Ġdec ade
Ġig et
Ġref inement
Ġdec lare
Ġm unicip
}^{ {\
ĠL ight
am ount
}: =
XX XX
Ġjud ge
c ategories
Ġbrack et
Ġdiscre tization
Ġd oll
tool tip
( /
U pper
elec tric
Ġsub mit
g c
pres er
RE CT
Ġle x
Ġplan es
Ġs outhern
Ġa id
C irc
Ġgu id
ãĢ Ĥ
Ġown ed
Ġconclu des
dis cussion
Ġmark s
Ġ\ ,\,
Ġr is
ew ise
ĠF ort
ĠLi ke
am big
Ġt we
no thing
Ġmetal lic
Re pe
% "><
Ġte tra
ĠH as
ĠB Y
sc ss
k w
Ġapp ointed
r h
bi as
ĠRad io
Ġdep loyment
ĠComm unity
Ġ" >
Ġinser ted
Ġgap s
Ġpul ses
cmid rule
}^{ [
Man agement
Ġin herit
L F
H a
M ix
HO UT
AR B
de veloper
Ġexerc ise
igh th
illi ons
ĠĠĠĠĠĠĠĠĠĠĠĠĠĠĠĠ ĠĠĠĠĊ
Ġy ellow
v ary
;| &
vis it
sh are
get Message
alk er
SD K
Ġorthon ormal
ĠR F
min imal
ĠJ im
c assandra
ĠC M
Ġadi abatic
Ġexper ts
UE ST
-\ !
ud it
Ġclin ical
m g
on linecite
bo lev
13 4
De precated
f uture
Ġ' _
ĉĉ čĊ
ĠCO L
Exp ort
Ġpr on
W in
p ragma
LO C
ĠB esides
L u
ĠNor thern
pm od
Ġag ency
Ġco ast
Ġatt ractive
Ġac oustic
ĠS ize
/* !
Ġrob ots
Ġdegener acy
c D
Te X
G W
ĠW ood
GL enum
ick et
ĠP U
E mit
ĠS end
set counter
Ġprac tices
Ġsupp ression
ch est
Ġprodu cer
ĠBrow nian
ĠÂ £
ĠCarol ina
Ġneighbour hood
Ph one
Ġpro mpt
Ġwe ap
view port
Ġful fill
P lease
Ġjoint ly
33 3
can onical
mu st
ĠJew ish
Ġgal actic
Ġcomp ilation
i able
Ġ[ (
PRE FIX
BA SE
ĠC laim
Ġspec ifies
13 6
fa iled
AR RAY
Ġviol ence
Ġins ights
Mis sing
å ħ
Ġb ilinear
Ġre new
Ġexp onents
Ġpar k
Ġde mo
Î ±
Ġsol ves
on av
tex pr
. ',
Ġland scape
I p
ĠAd am
Label s
Av ailable
su fficient
Format ter
14 7
sh own
Ġecc entric
tern atively
Ġsole ly
Ġc us
) <\
)+ (
_* $
atern ion
to c
Ġaudi ence
Ġp al
ĠBu ilder
mod ified
Ġsus tain
16 5
Ġre ar
Ġvol umes
ir ds
Å ¡
Ġanalog y
g lob
ĠS ky
ĠClass es
is enberg
dif ference
Ġn u
\\\\ \\\\
vi an
ĠH E
tif ier
| $,
Dec imal
Ġshor test
Ġtemp lates
or ial
il de
ĠB re
Ġsign atures
Ġtrans mitted
Ġpermu tations
as is
}^* $
Sh arp
t ol
at z
temp t
Ġ& $\
ord on
bi ased
AP P
__ _
Ġfix ing
Ġpublic ly
g un
h ence
Supp orted
Ġ[ {
Ġexpec tations
R G
}) +\
Ġb ijection
Ġsyn thes
Lo cale
ĠGu ide
Ġmus ical
Ġend points
} <\
Ġbr ings
K n
Per formance
ĠR ail
Ġhis togram
Ġsmooth ing
A U
T aking
ian o
Are Equal
Ġaccord ance
Clear ly
Ġde eper
ost on
Ġcontext s
y u
Ġcry pto
Ġwidth s
Ġretrie val
Ġc ube
q a
ma king
, -\
Ġs ender
Check ed
amp lit
math ring
l ig
Ġext ensively
Numer ical
Ġknow s
Ġcomp atibility
Ġexperi ences
c ert
ĠRun time
Ġun likely
d dots
Ġw ider
Ġnor ms
Ġb if
Ġdiff use
Ġsh rink
12 9
T eV
T ensor
ĠF our
new s
{ +
ĠG ar
b j
DE s
Ġcommit ted
Ġcol ored
Ġlist ing
ĠPhys ics
ĠSt udies
UR N
ĠO P
Ġ-- ></
Ġme dic
Ġentang led
ĠP romise
A gain
Ġa ges
âĶ Ģ
Ġhypo theses
ĠT im
Ġco oper
} ],
b rane
B lack
me as
Pri ority
Ġ$( -
ep ler
ans as
z c
ĠIn d
Ġalloc ated
}) ]
enc oder
size i
P al
re gex
Ġstrength s
ĠG C
ĠP ak
ĠH on
ĠJ eff
Ġequ iv
ĠO k
ĠL ove
ĠD ar
exp ansion
sol r
: '
ĠOb ama
LA B
Ġp an
) &=
t u
Un iform
pi ent
\ ;\
Ġf resh
Experim ental
IC ATION
us r
Ġdis continu
ste ps
ben ius
the ir
in son
ici ous
di e
ta tors
16 8
sim al
ta rea
vis or
Ġser vers
ĠT a
Ġcircum stances
p ad
ĠZe aland
ur t
t own
k top
File Name
Match er
0 15
la ys
b ol
Ġb ott
gra dle
Ġtr ig
Ġ' -
Ser ies
determin ed
b id
And roid
ck er
Ġf ault
Ġkn ot
Ġspar sity
Ġloc us
Ġmonot one
O wner
ĠB asic
Ġde but
Ù Ħ
Ġcol on
Ġcopy right
Ġim g
g row
us ual
ĠL STM
ĠA ws
Ġfeature d
p al
Ġfif th
pre ceq
res on
B its
Ġy ielding
Ġj s
Ġmer ely
v ies
Ġo xygen
tr u
Ġequ ipment
g if
Ġauth entication
Ġremo ves
ĠSup reme
ou red
extension s
)= -\
ab ling
Ġillu stration
Ġst retch
Ġwrite s
Ġhous ing
commu tative
Ġcol le
Ġhel per
ä ½
ĠA B
A K
Ġax ial
sp ot
ĠÐ º
Ġmer ged
u ated
Ġacc ommod
Ġeigens tates
le xi
Ġlabel led
APIENTRY P
Ġread ers
Ġme mb
As sembly
Ġanaly zing
p unct
me tal
String Builder
" ];
Ġshe af
Ġgrain s
ĠA re
Ġmicro scopic
Ġon going
C oun
ĠT re
Ġparad ig
Ġf uel
un ication
t ow
con current
Ġsc enes
h yp
ĠP si
Ġcer tificate
^{- (
Ġbig gest
N orm
V s
Ġcla use
cept or
Ġoffic ers
o ss
S el
Ġaz imuth
ĠMe mber
] ).
K w
m ixed
Ġe m
Ġfor cing
s child
Ġd raft
Ġaug mentation
F ALSE
on i
Ġen rich
Ġre min
ĠJ ustice
ĠLog ger
Ġexperience d
ĠR el
N i
Ali as
K ernel
[ [
Ġexception al
Ġindex ed
Ġf ear
Ġex posed
se cre
Ch en
} ')
ĠS us
' }}
un te
ĠF re
ĠD ep
atter y
A ctions
ad or
Ġvis ited
Ġm and
oun ced
ĠA li
Ġocc asion
L ines
R ob
Ġdem oc
y o
get String
Ġal ert
< >();
V O
ĠF ALSE
Ġ" '
Mod ified
Comp ar
C ross
tis tical
h es
ĠS Y
ĠCh ern
AR G
Ġide als
ĠT i
Ob serve
Ġexecu tive
Ġir on
Ġh usband
Ġfill ing
Ġeigen vectors
Ġmu on
ĠDire ct
}= {\
LA Y
Ġpro totype
24 5
Ġphot ograph
ĠW ed
f w
Ġsp lits
ole t
Ġmach ines
nap shots
Ġe lev
Ġ$ %
it ons
Ġf id
date time
F un
Ġin ver
Ġh ab
Ġsuc ceed
Ġ( %
sh a
arch ive
O FF
neigh bor
Ġspan ning
Re lative
Ġcontribu tes
r x
Ġgovern ed
var s
W OR
su med
ĠMod ule
Ġtri als
Ġquad rup
Ġman ual
Ġsever e
Ġav ailability
ĠM en
cont inue
Ġoccur ring
display Name
Ġev olve
Bu f
est or
Ġfil tration
ĠE rr
ĠI tem
mat ter
text g
ĉ ĠĠĠĠ
Ġsp ring
Ġ' #
ne tes
ĠBri tain
at ers
ĠThe ory
Ġnav bar
ĠA sia
ĠD ocument
v g
Ġex ceptions
Ġa ria
ĠS ym
In tern
Ġbe autiful
Ġcoun ty
ld es
t ang
Ġmin ister
}) -\
@ \
Ġch air
P DF
s mash
em er
Ġint ra
IL D
LE MENT
pot ent
Ġhund reds
D s
Ġf idelity
Ġex emp
)}\ ,
ĠHand le
d up
P erson
ĠT ake
Ġcar s
mid t
ĠSer ial
Set s
Ġphon on
app ing
ĠSt an
Ġcaus ing
uber netes
Pro du
rop ical
, ...
19 65
R ank
Ġmark ets
Ge ometry
}} ^{-
Ġmoder ate
Ġf ellow
Ġle pt
de code
ĠP L
S mall
Ġst reet
Ġelimin ate
mcite default
Ġplan ned
D TD
Ġsh allow
no tify
\ },\
................ ................
Ġ. =
dd en
ot ent
ass ociated
i ors
Ġpers ons
Ġs leep
Ġb log
SP AN
Ġout lined
Ġrele vance
G ui
AAAA AAAA
Ġacknowled ges
tikz cd
ĠM IT
Ġrender ing
0 12
enc il
add Class
F B
ĠA ctive
D G
D id
(\ {
Ġlook ed
ĠMus lim
4 000
Ġdynam ically
K o
ĠST ART
Ġturn ing
Ġcosm ology
onav irus
pr ice
Auth entication
ĠS cal
con tainers
to pe
In tegra
Ġcent r
up dated
13 7
Table Row
ĠB ud
}) _
Pack et
Ġclassif y
Ġhal os
SO URCE
19 64
ĠN Y
Ġtr uly
ĠInitial ize
ink owski
ĠSw ed
de mo
Scal ar
Ġparameter ized
v r
et t
m kern
ĠS outhern
' |
t ory
pre pare
b ow
$\ {
yl van
ĠL I
ĠE W
Ġle ague
inclu des
c M
ol is
Ġg host
ĠE ff
ĠRic ci
EN ABLE
ĠJ ack
tili ties
se x
match ing
** /
Ġ( -\
pub lish
ĠSh ould
Ex ecute
Ġmor ning
da ble
pack et
\ (
K it
at tention
S ig
Ġlo se
Ġbu cket
s sec
Ġdomin ates
3 000
max imum
Ġpredic ate
th reshold
C oin
ge ometric
g ot
Ġpromo te
B ACK
az z
ĠO C
Cap ture
Ġb rane
Ġre tain
ur day
Ġteach ing
ide al
Ser vlet
perturb ative
Ġan tic
Ġcomp ac
RE S
ru it
Ġno tions
dor ff
con c
O cc
Ġar r
Ġgo ogle
T a
ĠProf essor
Ġcommit tee
ĠCon ference
sh ire
def i
I J
spa tial
acknow led
ch unk
ard en
En coded
ing ly
du ctor
Character Offset
Ġbur st
BOO L
Ġd og
later al
s phere
Serial ization
}{* }{\
Ġmur der
Ġacqu isition
tan h
y d
{( -
' ].
end point
ĠC ivil
od a
QQ QQ
Ġa ffor
Ġf und
run ning
ĠI F
Ġexceed s
ti ble
Ġformu late
BL IC
ĠLi ber
Ġpack ets
ĠWIT HOUT
Ġsuper nova
m ond
Ġtal king
Ġgain s
IN VALID
do i
lik elihood
ur ities
v endor
ER N
Ġdro ps
ĠV alues
d V
ĠF oot
Path s
Ġenc lo
S ep
pres entation
ĠPro p
ĠÐ ´
ĠPr ince
Ġpoli tics
/ {\
V S
}| $
Ġfor get
tool bar
normal ized
ul k
ri table
**************************************************************** ********
Ġaccept ance
Ġmain tained
i u
Ġtrans it
ab br
\| _\
ce ived
um ino
H ol
Ġcri me
in et
ĠF riday
Ġa warded
Ġconclu ded
ex ist
Ġdeli very
g m
Ġstream s
Ġun bounded
Ġadj usted
the ad
A zure
× ķ
Ġsched uled
block s
Run ning
Ġmo bility
ĠGeorg ia
th umb
Ġtemp orary
ap unov
Ġpro hib
Ġtrans lated
Ġquali tatively
bre ve
Ġ$ +
Ġt error
pr ise
Ġse mic
ular ity
ĠI mple
> %
Ġste ep
}= (\
Ġend ow
ar ound
ĠExample s
ĠStr ucture
ĠM AX
ra q
ĠP i
ĠV alley
ĠSe lect
Ġs ister
GL uint
Ġexp r
_+ (
sub script
ĠMa the
00 6
per cent
Ġfunction ality
ĠSen ate
au i
Dis k
Draw ing
ĠT ABLE
ire ct
Ġimplicit ly
\, (
Con sequently
Ġsub t
Ġcl s
}} },
Ch unk
Ġtra p
è ¯
2 80
ĠDe bug
================================ ================================
P ane
be th
ran ged
po i
Ġgra v
k j
ĠLa bel
Ġf ish
Ġinv oked
99 9
Ġsto pped
Ġill umin
hi o
coun try
sp arse
D ITION
is ations
Ġupd ating
Ġm ental
> =
Ġdescri ptions
Ġhund red
Ġtr uncation
n ice
ĠT aking
ĠN LO
tr uth
16 9
Ġtrip let
14 3
equiv ariant
Up load
c H
Den ote
== =
Ġmore over
ĠO x
Ġun d
Ġh its
yc lic
Ġdestroy ed
ction al
state ment
Ġquad ra
time line
mis s
experim ents
Ġper turbed
Ġs ig
ili pp
Ġcommunic ations
Ġdist urb
Ġ( `
br and
exp licit
Bit map
Ġrela ting
os able
le af
h p
} ',
Ġ ~~
ĠM is
ĠEx ecu
Fact or
ĠD CHECK
Ġcirc uits
Ġdeveloper s
Ġd z
en te
Ġle ver
equation s
and o
Ġprocess or
Ġuni vers
RE T
star ts
ĠL icensed
(" \
Ġs and
Ġl ensing
55 5
ĠD er
Ġti le
For ms
Ġl if
": "
\ &
se ed
an cer
Ġcol span
Ġimplement ing
ĠUn less
ĠS ingle
andid ate
ĠKE Y
our ney
Ġtriv ially
') ->
ä º
ĠL ow
get Attribute
ĠS ample
Ġcontinu ation
ro zen
ĠOrigin al
D one
Ġoper ational
Ġsu ite
} &=&
}}$ -
Ġsubstitu tion
X iv
P lot
ĠB E
^^ ^^
Ġclassif iers
Ġgradu ally
c L
19 66
Ġreport ing
consist ency
omes tic
ĠM ari
$ }.
pip eline
Ġch aotic
En ergy
al d
Ġspan ned
Can not
Ġrecogn ize
ĠComp ute
Supp ress
Ġcoun table
n f
ĠMin istry
ĠD L
ĠN C
uff le
Ġreserv o
combin ation
w ind
H A
I o
Ġanten na
) '
Ġg rey
ir k
u si
Ġhigh lighted
Ġ\ }$.
int roduction
Ġdiffic ulties
C r
C reated
ĠCon dition
Ġprint f
: &
Ġmat ters
U pd
Ġgener ative
asket ball
ĠIllegal ArgumentException
Ġ\ '
Acknowled gments
is a
Ġ# {
Ġsched uling
sw ap
Ġcounter parts
Ġincorpor ated
ldes igner
local host
W ill
ĠI T
_* \
Sa fe
Ġent ering
cccc cccc
Ġ ðŁ
Ġback grounds
cel ldesigner
rou ble
Ġuser name
Ġim mer
Ġstatis tically
Ġw idget
ĠIn du
Ġj o
Ġdec or
mark s
m ut
Ġb lob
se gment
im ent
ĠF ull
ĠĠĠĠĠĠĠĠĠĠĠĠĠĠĠĠĠĠĠĠĠĠĠĠĠĠĠĠĠĠĠĠ ĠĠĠĠĠĠĠĠĠ
ĠE valu
mo tion
o pacity
ex ecution
T ry
b ases
? âĢĿ
ĠC amb
ap t
ĉĉĉĉĉĉ Ċ
ynchron ous
U ses
mach ine
Ġsol di
re main
Ġo c
ĠC luster
s lide
ĠG reek
Ġsp end
Ġinte lligence
Ġb ag
CRE ATE
Ġcar rier
` )
\ }^
Ġinstr uments
Sp in
Ġaddition ally
z oom
Ġb rand
Ġint ent
I mages
Ġcor pus
Eu Script
$ },
un lock
Track er
ĠH ermitian
ĠSc ott
Zh ang
la h
new page
ec lipse
Con v
ib ling
g el
rit ing
BP ACK
K P
Ø ±
ref resh
Write Line
Ð¾Ð ´
v ac
ĠCh ief
R D
R V
Function s
exp lo
A ff
ĠM id
ĠCon vert
end ment
ĠW in
Ġnew spa
link ed
j ournals
Ġatt end
++ ++
ĠEngine ering
necess ary
pi e
R P
h size
Ġre current
Ġnomin al
ĠOper ation
æ ķ
ĠM N
ĠLap lace
In sp
lit eral
ĠK IND
ĠD ie
Ġ+ (
Ġsimp licial
ber n
Ġf lex
;\;\ ;\;\
Ġdes irable
min im
Ġor ange
ĠPa uli
m ier
ĠF A
art an
off s
ĠJes us
Ġdef aults
,- .
igh test
Ġout going
f riend
Ch anges
Ġdown stream
L iteral
es cape
vis ual
ex isting
Ġachie ving
Ġre venue
}{ |\
Ch art
c oc
s ight
ĠSpa in
- |
P ress
Has Been
ylvan ia
i tage
lo cale
ual ity
ĠTR UE
Ġsh oot
Ġvic inity
Ġ lying
Ġspectro scopy
Ġwh atever
Ġmes ons
B en
Ġe dition
Le f
Ġg ar
aus dorff
N ONE
}\ }
D istance
15 2
Ġsuper symmetric
id gets
neu tral
Ġfe et
si ded
Ġen for
ĠB ad
Ġ\ ;\;
int on
Ġcor ners
Ġsu dden
Ġdifferent ly
par k
no tes
on line
ĠSo viet
b idden
Ġbe ams
im ity
Ġmanus cript
Ġs i
cer tain
ĠOp tim
Spec ial
[ $\
tic ity
Ġresidu als
Ġ} ^{
ge ted
ro d
lassif ication
classif ication
high er
Th ree
re ach
ĠC ast
as te
Ġcondens ate
Hash Map
ok ies
Ġalbum s
Ġw rapper
Ġrep ul
defin ite
F ill
App lying
Ġsimultane ous
qu al
Ġfore ground
'' (
Ġsure ly
ĠT IM
Ġne ga
Ġfacili tate
eck er
13 3
I ME
Ġlo gin
Ġrespon sibility
Ġamb ient
Ġsing let
Ġcould n
Ġpiece wise
}) (\
she ets
imple mentation
Ġor acle
pro jection
co herent
ou g
list ener
Ġad vice
ĠG ames
integra tion
Ġ& #
ref lect
Ġsynchron ized
fin ing
ĠSto kes
, [
Ġtrigger ed
ĠCorpor ation
til s
LO AD
ĠĠĠĠĠĠĠĠĠĠĠĠĠĠĠĠĠĠĠĠĠĠĠĠĠĠĠĠĠĠĠĠ ĠĠĠĠĠĠĠĠ
Ġhost s
alt Color
LE S
Ġob jectives
Pri mary
Ġboot strap
Comp are
ĠĠĠĠĠĠĠĠĠĠĠĠĠĠĠĠĠĠĠĠĠĠĠĠĠĠĠĠĠĠĠĠ ĠĠĠĠĠĠĠĠĠĠĠĠĠĠĠĠĠĠĠ
He ad
ph e
Ġc s
de legate
00 7
Ġbi ological
Ġl ic
Cal endar
ĠH an
ag ger
Ġr hs
ĠIn valid
: $
Ġretrie ved
tit led
M esh
... )
ron ic
View Controller
ĠG T
lay ers
$. \\
P ush
Ġun expected
ĠL ater
dis tributed
writ ing
un ion
r times
13 8
ĠB oston
Ġstatis tic
add plot
Ġmin ima
CD ATA
Ġjoin ing
Ġdis ag
Ġv ict
ach el
Lo ading
Ġball s
ĠLand au
ĠTran sition
Ġstand ing
ĠS S
ir y
ĠC ard
it ors
conver ted
r w
ub es
ces sion
const raints
redu ced
| |\
ent ang
ĠPro perties
un ks
Work er
Ġsuff ix
HasBeen Set
Ġauthor ities
ic an
ĠKore a
la ps
Ġcan vas
SP AC
Ġgain ed
}\| _
ĠIn v
Ġthresh olds
ĠC are
D ot
_* (
ĠTE ST
14 6
Co ordin
Ġ' @
Ġfra ct
ĠArg ument
ĠModel s
ĠD al
depend encies
differ ential
s lo
c amel
ĠG it
}\ }_{
EX PORT
ĠAss uming
ĠT raining
\ #
ĠI ss
ent ries
Ġs tick
div ision
Ġscal ars
P atch
ĠS ystems
ĠMed ical
G RO
ble ms
O ld
Ġno table
ĠGL uint
IN DEX
ap y
Ġti p
Ġaccep table
r or
Ġh a
pa ces
Meta Data
th us
Ġencoura ge
Ġrender ed
out ing
Ġacc ounting
< -
ADD ING
Ġappro ved
Ġm iles
process or
Status Code
Rec ently
Ġ' ,
ĠEn tity
Ġpass age
ori ented
bes gue
P F
Ġelse where
Ġwire less
input s
Ex it
[-> ]
om o
ian a
. ''
normal size
ĠI rish
Ġconfigure d
c F
Ġconcent rated
Ġexclu sive
SS ION
Ġscatter ed
Ġ< \
Ġrest ore
Ġepis odes
al tern
Ġstream ing
draw able
star s
Ġrout ine
V e
i ation
ĠLat in
ĠLe vel
ĠC IFAR
ĠT yp
ĠN i
c ous
pro jects
ĠSe a
ĠC y
ĠVer ify
ĠE gy
_{ *
Ġbe ta
)) =\
S ide
13 1
ĠA ri
ĠIn ternal
ĠF amily
Ġslow er
Ġadvers ary
Ġreal izations
Ġfound ation
ĠImp ort
Ex ec
me ans
Ġdeb ate
Cont ract
bal anced
| (
co h
ĠTheore ms
Ġput ting
) &=\
at um
Ġcon fined
w i
O k
M al
b h
Ġro uting
ĠB ow
Ġne goti
Ġsub mitted
SU CCESS
Des pite
h our
Ï Ħ
22 4
Ġcollection s
20 8
DE D
Ġlook up
ĠF estival
ting ale
st ub
Ġpredic ting
M ass
ĠPar liament
>< !--
ext ended
ĠSh ort
S ty
Ġmin us
}' \
Ġlogarith m
C UR
() ">
G H
Ġdeliver ed
y ou
Ġcontribu ted
ĠM aterial
ĠV i
Ġmer ging
Ġs quee
Ġemer ging
EV ENT
ĠPo incar
ch apter
×ķ ×
Ġun supervised
å ¤
ag ers
Ġbif ur
ĠTh ose
ĠC ache
Comple tion
= >
Ġsearch ing
Ġemplo ying
ĠM aster
Ġcar ries
Ġvisual ization
Ġso ph
Ġtr ick
ĠB R
oriz on
spect ra
T opic
Ġlib raries
Code c
ĠUn fortunately
Ġjus tice
Ġs an
S l
Ġinst anti
H F
f ine
0 25
mathb in
Ġaug mented
Ġdo or
Ġis instance
Ġw ood
B lob
stru ctive
Ġc c
Ġimp lying
}\ ]
N F
Ġw rap
ĠS and
ĠOb serve
Ġ& &\
Ġ} ).
as m
corre lated
hed ral
Ġg one
Ġin ject
itor ies
Ġs ac
Ġro utes
us sian
ĠS ar
Ġcont ro
Ġdecomp osed
$ ^{+
P ADDING
13 9
l inux
ĠWilli ams
ĠS ession
ta ken
ĠG ro
Ġd ic
Dec oder
N Unit
d anger
Bu cket
Ġb on
(' ./
cap ture
decor ation
it ten
ĠM ove
)} )$
allow ed
Lef trightarrow
Ġlear ns
Evalu ation
ĠB la
Multi ple
ber ts
ST ART
Ġla s
Ġfra g
Al g
MB ER
Ġnav ig
Ġstudi o
Ġarri ved
Rece ived
" }
Ġdetect ing
F etch
Re lation
Ġle verage
pair s
Ġsub tle
ula tes
}[ (
Ġhe aring
ĠN ov
text ure
Ġvalu ed
ver sities
Ġdisc ip
. &
en ium
Ġg irl
20 5
ĠS af
~~~~~~~~ ~~~~~~~~
ĠBol tzmann
ch ester
}) /
b w
Ġb ol
p v
ĠPro du
ĠP rivate
tis tic
x sd
Ġon set
Test ing
}$ }\
ĠP la
ĠB ound
eq no
az ure
con ditional
be ing
ox y
hal o
second ary
Ch apter
ĠBra zil
J y
}) _{\
pay load
ns ylvania
textg reek
Ġat tract
/ )
Ġf inger
ĠP HP
cor ner
ĠAt tribute
ĠN ormal
ĠIn te
Ġinc lination
HO ME
Ġtunnel ing
abs olute
Ġsurv ival
B V
Ġdimension ality
Ġ\| _
mis sing
Ġwrit ers
C SS
ocia tive
Ġimp er
Ġsuper symmetry
Ho ok
Ġplanet ary
2 60
ly n
ĠF ire
ro tation
Ġtar geted
med y
Ġdef ects
Ġa perture
ĠP acific
ĠHash Map
Ġan imals
Ġe yes
dot sc
b ay
ĠL ittle
Ġa str
Ġbi ased
Ġaccording ly
illisec onds
ame d
Ġes cap
Ġth orough
Ġdep ic
ĠQu antum
Ġfe at
Ġcarry ing
Ġp t
TO M
han ded
ĠD IS
ĠI raq
\ :
ti ff
Ġiden tically
Ġbrack ets
Own Property
ath an
J an
Data Type
ĠF un
b ers
ĠT YPE
so id
Ġsub algebra
ĠE RR
se conds
Ġmin ing
Ġf riction
: %
}{! }{
S rc
Ġmain taining
Ġoccup ation
acknowled gments
faster xml
ĠT F
Ġmark er
T s
k ra
com ments
Ġcomp ressed
Ġval ence
T IM
Tr igger
Ġv oting
E mp
Cer tificate
0 11
oper ators
Ġinfluence d
ĠS Ne
Ġdesc end
ĠCon sole
Ġma ppings
N UM
Ġfun ctors
fra red
Ġpre sid
Ġelectr ical
ir med
brid ge
) ^{(
ĠJ ackson
ĠY ukawa
H AL
d td
ĠRe v
) ^*
Q R
Ġre lying
N s
ĠM et
Ġpropos als
ocab ul
ĠE C
' /
M g
P l
parame tric
B ridge
di am
par ticular
Mod ifier
ĠH opf
base line
ĠB on
ĠR G
ĠUn like
Ġgrate ful
Ġpa in
B ur
] ->
è ¿
who se
mu x
Ġscreen ing
ĠCh apter
if er
ĠN atural
Ġsing er
c rit
20 2
ĠF W
Ġcell padding
) &\
Ġin complete
res sible
00 8
M W
Ġdwar fs
Ġcon sum
Ñ Ĩ
Ġev olved
ĠHo sp
spec ified
Ġrepresen ta
Ġreli ability
int rodu
FA IL
ĠY es
Ġm ild
si e
B us
bra ket
Ġmon op
S n
value Of
Ġcomp ile
Dis tribution
h ex
lar ger
Block ly
un a
Ġhydro dynamic
Ġke eps
Ġ" )
ĠN ash
)/ (
ĠJo e
Enc oder
Ġ river
B et
}( (
Ġk ids
Ġclo sing
Ġt ube
exp on
ME SS
oh en
Ġfib ers
ĠDe v
Ġact ors
os cal
imp ro
ĠSt ra
clu ding
ves tig
prov ided
preser ving
Ġguid ance
ĠC u
ĠR est
ĠNAS A
Ġ mp
})- (\
ĠH I
Ġpost s
H ard
Lower Case
19 63
fra gment
secre t
Ġadd r
incre asing
bu cket
K B
w allet
Ġyou th
ĠH al
ĠFil m
O W
ĠCo q
Ġextrem al
ME M
Ġ" _
[ -\
Ġhapp y
j ump
Ġin herited
Ġs mo
g ro
ors hip
Ġexpan sions
oun ger
Par tial
Ġspe aker
ĠG auss
Ġp m
Ġe labor
Li u
Ġformula e
d ra
] ),
ĠY et
use t
es tab
ĠS A
yl ind
K T
Ġparadig m
ĠR ender
Ġcri minal
}\ !\
Ġass istance
x p
er tion
Ġcont in
Ġe duc
an es
Ġre semble
forma tive
Look up
Ġk ill
Ġde formations
)} ;
i ously
Ġan cient
Ġunder go
arg v
cp u
T ake
)\ }$
Ġ" #
Ġmacro scopic
Ġar cs
-------- --
ah n
ĠDate Time
âĢ ¢
od ers
$. \
or ption
ĠQue en
Ġd ates
Ġrep ly
M r
2 15
ĠS everal
mu tex
Ġcons texpr
Ġpuls ar
Ġm im
ĠB ORDER
ĠG rid
ĠEn c
AS H
b k
Gate way
Plan ck
tic a
Can vas
Dete ctor
umino sities
ĠMon day
Ġ" ${
Ġre fined
Ġbe at
le ave
un its
Ġno tification
Ġcap tion
look up
Ġhand les
aver aged
work s
Ġto urn
or ov
Ġint uition
Ġemp has
^{ '
T ilde
ys ql
Ä ģ
ĠC FT
pos sible
pre ad
| .
ĠM R
H er
el lip
sh op
ion ization
ĠE sti
h c
19 5
]( #
Ġconf usion
Ġsk in
ĠP ra
Through out
ĠGL sizei
IN IT
ĠPa per
le tion
ad am
in x
ĠFrancis co
ĠSch warz
\, $\
um ented
be havior
ĠMem ory
Imple mentation
ĠF isher
tif ies
sup set
ĠH art
I so
ĠZ end
D MA
lim inf
D ia
tr ino
) &=&
Ġinvestig ations
pack ages
cell s
o tes
S un
ĠAb out
ĠL uc
Ð¾ ÑĢ
ĠJer sey
ĠS mall
rain s
Spec ifically
o ved
ĠNS String
mu la
ĠÃ ł
Read y
20 3
bur gh
ĠT our
channel s
L B
S al
v k
Ġpla u
g f
Ġsp ort
Ġcommu te
V R
big wedge
Ġag ric
Ġreason ably
Ġgeome tries
analy tic
man agement
no tification
Ġsh aded
)$ \
\, ,\
Col l
L ang
go al
>( <
Ġdomin ate
decomp osition
ĠVis ual
Ġlet ting
Q C
TableRow Color
Ġplace ment
h m
ĠA DC
text backslash
Doc trine
O ri
st udy
Link ed
Ġencounter ed
ĠPr int
re verse
14 9
o ph
å Ĭ
size of
Ġpar sing
Sta ge
text subscript
W ARN
ang el
h asi
nof rame
Ġdis p
ĠSat urday
Re place
ĠW ho
tiv ate
re dsh
rr rr
Ġabs ent
Mon itor
ĠI sing
y aml
ĠMax well
clo sure
ĠT arget
AR CH
gener ation
B lue
te am
> `
] ['
ĠHe ad
SPAC ING
lec tron
ĠGener ated
in ject
vi ve
deriv ative
Ġpas sive
S an
ĠAlex ander
C ulture
R UN
Ġkine matics
separ ator
Ġref resh
tif ying
e u
Ġmy self
Ġauth entic
chro tron
ĠAuth or
30 4
18 5
ĠP ay
Ġparametr ization
################ ################
ta c
math ord
MA GE
Ġ\ }$,
C ent
Ġmin ute
Ġcomp ares
is si
ĠF und
o ft
dec lare
! </
Û Į
con figure
st als
rac ing
pp ler
19 40
il st
il ly
3 75
D ict
ĠAdmin istration
Ġfun ded
19 62
f air
Ġd ream
ino is
m or
el li
Ġcon gru
Ġsett lement
c ra
æ ĺ
}) )$
gra ined
Ġdevelop ments
' =\
Ġsw ap
Ġoverla pping
ĠK im
Ġdist inction
Ġhom es
p ing
ro gate
Ġg rew
Ġmulti variate
? "
ĠL S
Ġho ok
Ac cept
ĠDemoc ratic
p ure
For ce
Ġtra pped
ĠLeg end
P ic
ĠSec tions
re co
ĠN avy
mes h
Ġre gex
M id
rom an
urs day
}{ @{}
ĠL as
n able
google apis
} &=
F oundation
ĠName ly
ĠRetrie ved
redu ction
14 8
en ant
* >(
or ters
Ġc ro
Ġ" );
. -
x e
par ity
P ipeline
ĠPri me
No tes
ĠC r
ant ine
V A
ion e
y ang
Ġsh o
Ġco al
asp ect
Ġfre ely
Comp onents
ues day
ĠP ers
Back end
Ġsub tract
erial ize
row e
ll l
ĠT oken
Ġir relevant
ĠT ry
Ġaltern ating
ĠSa int
Ġres taur
Ġoptim ality
DE C
= ~
B ag
Ġstr ange
ĠĠĠĠĠĠĠĠĠĠĠĠĠĠĠĠĠĠĠĠĠĠĠĠĠĠĠĠĠĠĠĠ ĠĠĠĠĠĠĠĠĠĠ
ans wer
ĠTh ird
y z
WE BPACK
code c
ĠCons tit
Ġlist en
> {
Eng lish
ĠH es
B ay
ĠRec ently
Ġcell spacing
c trl
inu ous
i h
Ġre volution
del im
od rom
Table s
Ġup load
scatter ing
set Attribute
ong s
Ġco vari
Ġfa int
Ġconstruction s
W rap
op ens
\/ }
Valid ate
u z
Ġflexi bility
f lo
To ols
ĠW ord
tab len
T ech
Comp at
Oper ations
ĠCon struct
y ellow
Ġs ale
Rad ius
Ġdeploy ed
app le
ĠJ S
numer ical
g b
Ġidentif ies
ĠMajor ana
( []
B ERT
Ġconstit ute
ĠO hio
ĠD ark
iv ot
L and
Ġcontribut ing
A verage
nes day
Ġfaith ful
ific ant
ĠT OP
Ġt s
ad v
20 4
App ly
Ġhar m
C ost
N ON
se g
esti mated
ĠColumb ia
n x
or b
Ġw estern
ĠA rea
14 2
N GC
tab colsep
Ġexplan ations
pher ical
TE X
ĠF ellow
Ġal i
$ [
l ds
Ġ// !
w ould
ĠI SM
ĠM W
P W
Trans fer
Ġattemp ted
ĠT rack
} ].
Ġra m
tt en
L STM
+ (\
Ġ\ ;\
sub string
Ġinsp ection
'] ))
ysh ift
In cre
Ġatten ded
w ere
AR GET
over flow
parent Node
22 2
Ġplan ts
ren e
ĠFe ynman
J ust
) }}{\
Ġfla re
Ġprof essor
Ġ/* !
s ass
allen ge
ĠRou te
Ġtri es
> .</
ĠĠĠĠ ĉ
ĠRec ord
}) }$
Ġprogram me
ĠV ideo
ud ge
sw ing
Mark er
Ġf lip
IT LE
Ar rays
Ġch a
Ġan onymous
Ġrecommend ation
ti d
ĠD NA
f ib
_{ |\
ĠL R
Ġpers istent
C u
Ġy es
ĠU l
ĠM B
Int ent
Ġpartners hip
Ġflo ating
du mp
ĠU sed
Name Link
Ġhelp ing
ĠP as
ĠR h
T W
Ġver sa
Ġlabor atory
ul f
Ġmo vies
Ġappe al
Ġin jected
ĠF ac
Ġfile d
ĠS ymbol
Ġsuper position
ĠChampion ship
ĠS ET
Ġbro ader
Ġconvers ation
Mer ge
ĠPen nsylvania
au er
Ġent ers
K er
n od
ĠJ un
Re gex
ĠCELL PADDING
ĠCELL SPACING
Ġscienti sts
Ġ& +
ĠM E
Oper and
ĠPol i
Ġen em
Ġestablish ing
est ure
Ġd ash
es sibility
ĠF la
Ġtim er
ĠD NN
Ġno ticed
Ġsuscepti bility
Ġbi ases
al ong
U UID
STR UCT
temp oral
19 30
Ġinstant aneous
ĠK el
Ġfrequ ent
Ġl ands
ĠB ul
lst listing
y i
experim ental
WA RE
Ġspin or
Î µ
hi er
ĠU L
Ġs ought
ĠB ox
aw ay
Ġbeh ave
Hel lo
IE W
Ġ$< $
te p
Ġare n
he at
ĠSta t
âĶĢ âĶĢ
ĠN ative
ĉĉĉĉĉĉĉĉ ĉĉĉ
ĠW i
M Hz
des cribed
" ?>
ĠRepublic an
ferm ion
Ð¾ ÑĤ
c g
=" {{
Ġro tations
Type Def
c P
Ġ======= =
16 6
ĠJaco bian
c ube
| ^{-
] }(
D im
du ate
ĠMed ic
C RIPT
ĉĉĉĉĉ Ċ
vi o
k r
as ymp
di um
Ġtheore tically
Ġla g
REQ UEST
- )
Al t
__ ,
to grams
Ġpol ymer
Ġprov iders
Ġ$ ('#
ens en
Ġbas ically
D U
ad just
M pc
Ġalong side
Ġhosp it
ĠJ r
array stretch
M or
ĠA wards
Ġemp hasi
File Path
ĠJ on
ĠPh ase
stro ke
ĠMich igan
Ġhel icity
dist ingu
asi bility
Ġmut ually
ph an
Ġrela tes
Ġmon oton
Ġh ero
ĠDan iel
IMP ORTED
C laim
ĠD ictionary
ro b
u sive
Ġd uty
si x
Ġinter ven
ĠJ ob
Ġcalc ulus
Ġgeome trical
Ġsynchron ization
2 32
mak ec
ru gs
AT URE
sh aped
prov ide
ĠS USY
over ride
M ust
v t
ĠM pc
Ġcons ult
const ants
Ġdec laration
Ġoffer ing
Ġse mis
normal font
Ġreg ulations
ĠA sian
anc ies
Ġperman ent
O s
ĠS SL
Ġspec ifying
ti tem
ĠB ru
te ll
be ans
Ġwal ks
Ġdete ctions
c ue
pp i
M AC
Ġsub stituting
FUN CTION
S NR
Ġpro gen
Ġlabel ing
CL U
& +\
ĠG AN
ĠN othing
H amiltonian
Ġconj unction
Ġsp ur
Ġc ros
Ġp ip
ĠP H
eff ects
ĠC ra
FR AME
ul um
Ġ$ {{\
ĠJaco bi
to Equal
Ġparticip ate
Ġtun ed
ĠLe besgue
Ġb onds
Class Name
H ave
les c
ĠF C
Ġpi lot
Î ¹
R atio
gh an
Ġsucces sive
Ġor bif
cur l
ĠR R
ĠL inear
Ġlemma s
. ).
ĠR T
Ġdecre ased
ĠL arge
er en
Ġg it
col og
P ACK
Ġanno tated
F ake
Ġins urance
PD ATE
it ro
db c
16 7
co okie
Ġemission s
Down load
lation Token
ac ted
Ġevalu ations
Ġcommu tes
Ġ( +
ocabul ary
Ġcontradic ts
b ard
ĠM achine
Pe er
Sec onds
M X
b ench
Ġattack er
~ ,
ĠL ib
ĠWh y
15 6
çĶ ¨
T ar
N M
)] $
Ġspher es
}) \,
holder s
11 11
Ġarm y
Ġarrange ment
Ġto wer
ĠHe isenberg
Ġ$\ ,
^* $-
ir ically
bul k
L ab
ĠN L
RO OT
Ġrepresenta tives
Ġlo cale
ĠV iet
Ġheter ogeneous
+ |\
u dic
ĠM inkowski
G ood
n k
enti ment
ph oto
we ights
(" .
SI GN
Ġna ive
! "
ad ditional
Ġenc ryption
ĠB and
pher es
$ |
ĠTe le
r ides
ra ce
Ġdist ant
Ġd om
Fi xture
H K
Trans lation
Ġma gazine
Ġproton s
S ci
ec ycle
ĠScot land
] &
uck y
us age
Ġener ge
Ġ utter
C over
I ES
mat ched
A Y
St mt
Ġeducation al
Ġput s
Ġb ed
ĠI gn
Ġz oom
ori entation
OPT ION
Ġapp s
Ġmer gers
u f
+\ !
Ġcontamin ation
re direct
ure au
Ġacceler ated
rotate box
V P
Ġcomp iled
run ner
sl ider
C amera
ĠM ike
Ass ign
Ġ" ;
break ing
Ġd ump
M IT
co herence
ĠU AV
Menu Item
ĠN ull
cal es
oun ce
As set
Ġp ec
Ñ İ
Ġre mn
Ġrandom ized
af ka
Ġco ins
23 5
ĠWith in
pi pe
Ġnil potent
ĠPak istan
Ġc le
ĠPro duct
Ð¸ ÑĤ
Ġtrans lations
() [
k ine
ĠK al
gre gated
19 45
U A
}} )$.
ate st
x z
function al
\ >
Ġnone mpty
def aults
Ġro uter
stream ing
. ');
}- {\
' }(\
Ä į
Ġun ified
Ġfla sh
v ard
Ġtransp ortation
book s
ar ab
ĠD raw
Ġv essel
S ink
L ite
ĠR og
Ġimp urity
Ġpurch ase
Ġin her
Ġgood s
Ġrank ed
x f
)} -\
M illis
ĠP anel
Ġpri ors
ou sel
ĠSt ore
Ġneur on
Ġinclu sive
Ġequiv ariant
Ġo u
ĠTh ough
ĠH ub
/ (\
3 30
back end
Ġinser tion
sen sitive
box times
di ver
pa tive
ĠCON DITION
ĠCh air
Ġrecur sion
}, \,
15 8
}\ }$.
ent ally
BY TE
id ity
F LO
Ñ ħ
des criptor
Ġaut onomous
ĠD P
: -
S lice
Ġar chive
p et
> ${
ess aging
align at
FORM AT
v id
ĠIN TEGER
Ġprefer ences
Ġrelig ion
makec ell
to LowerCase
all s
Ġqu ench
Ġex terior
ver tices
c les
initial ize
redu ce
Ġle gacy
Ġsoph istic
ĠK n
var nothing
OT TOM
TEXT URE
on omic
Ġax ion
Ġtra ding
general ized
ari ate
P ending
15 7
Ġdenomin ator
En tries
Ġc ere
f its
ĠEast ern
Ġcontract s
L y
AS P
Ġr uled
jav ax
Ġpy thon
str ut
super script
C ity
ni k
Ġd omestic
ble s
Ġ- (
ĠData base
Ġsp ons
az y
b ranes
War nings
Ġsyste matically
14 1
dete ction
ĠA U
Ġtoler ance
M LE
. :
19 61
{$ {\
19 20
; ,
Sc ene
23 4
Ġdisc lo
pp ers
Y es
Ġtor ic
*}[ !
Ġfair ness
Ġabsor bed
Ġhar der
ock ey
ĠM ach
cover ed
Ġconj u
Ġsch olar
Ġsub traction
Ġens uring
ĠR V
render er
Ġn ur
EN CE
! =
Ġdou bt
Ġes tate
2 11
lic t
agnos tic
Ġfunction als
Ġinstrument al
u tational
rowe ak
d ynamical
Ġd il
ĠO nt
ĠOp tions
Ġt f
ĠG alaxy
hel lo
Ġsub strate
Ġdecomp ose
b ach
gr pc
Ġaff ili
i ration
ĠSpr ing
j us
Ġag encies
Ġma il
manif olds
W ave
Ù ħ
), $$
18 8
' )$.
in voke
ĠDeta ils
cs v
manif est
Ġl uminosities
Ġre lay
sc ene
ĠS ir
the mes
cur ves
Vis itor
Ġmask s
q p
ĠT ro
+ "
eman tic
../../ ../
ime ter
] )$
ĠF air
MA SK
H i
( `
Ġpoint wise
Ġweight ing
Ġhead s
T ODO
over lay
i pping
Ġdiscrimin ation
o led
Ġcontroll ing
ex c
P ref
divid ually
Ġconduct ance
Ġtermin ology
C lean
Ġin vi
bu la
Ġproceed s
ĠĠĠĠĠĠĠĠĠĠĠĠĠĠĠĠĠĠĠĠĠĠĠĠĠĠĠĠĠĠĠĠĠĠĠĠĠĠĠĠĠĠĠĠĠĠĠĠĠĠĠĠĠĠĠĠĠĠĠĠĠĠĠĠ ĠĠĠĠĠĠĠĠĠĠĠĠĠĠĠĠĠĠĠĠĠĠĠĠĠĠĠĠĠĠĠĠĠĠĠĠĠĠĠĠĠĠĠĠĠĠĠĠĠĠĠĠĠĠĠĠĠĠĠĠĠĠĠĠ
S ources
Ġrig orous
Access or
q r
ĠM ah
c E
um ni
Des ign
ĠLy apunov
] -
)] \
Gener ate
Sta t
Ġy ounger
ĠAn derson
ma trices
ĠString Builder
simu lation
utor ial
Ġra dical
à ¥
Ġn arra
Ġm ort
ĠB ERT
Up dated
diff usion
kn ow
CO UNT
NG TH
}' _
vary ing
hy dro
we ek
Ġrelax ed
W ell
reat er
le ad
Ġconver gent
Ġsee king
Red u
ang les
x b
AB ILITY
ĠM F
? (
c id
c ached
An chor
ĠOx ford
Ġimpact s
Ġfid ucial
Origin al
s amp
o ma
_ +\
Ñ ĸ
it ched
ĠP ur
ĠG O
Ġk ick
17 6
ĠV AR
uset ts
Wh y
C trl
par box
Ġch rom
A ug
C ri
ĠExt ension
amplit ude
Ù Ĩ
ach usetts
Ġpres cription
Ġpart ly
h uman
Ġ\ [\
Ġear ned
Ġcross es
for t
c ot
Ġre direct
ĠS em
ĠF low
Ġp lug
Ġop ens
h or
pop up
mm ar
phi a
k ers
P B
ĠL E
ser ving
Comple x
ĠExecu tive
ĠB in
Ġdr ink
Ġg enu
Ġsc ored
B an
\ }}\
ĠEmp ire
, ~\
ĠC ount
ti ous
U sed
Ġmemb rane
//////////////////////////////// ////////////////////////////////
ew is
pre tty
Ġm useum
Sta tistics
= &\
PT ION
N ER
stra ction
ĠSum mary
ĠCONDITION S
Ġlegis lation
Ġw inner
acc uracy
Ġex haus
Vari ant
Ġde code
ĠT y
ĠApp lying
w b
ro se
Ġat tor
Rou ter
e lect
d an
Ġpropag ating
Ġcod imension
ber ger
Ġauto mated
}( [
mon ot
Ġindu ctive
}} }_
OR S
ĠD a
He alth
Ġp our
Ġ&= &\
Ġhyper surface
Ġan imal
b urn
15 1
set Text
ĠL ive
T raining
ug u
Ġlist ening
ĠT urn
ĠT ensor
ĠBA SIS
E t
Ġin cur
Ġde formed
Ġnormal ize
mt x
k v
Ġ$ >
Ġc ensus
Ġowners hip
Ġw rapped
Ġyour self
R ic
ĠChrist mas
ch anging
;\;\ ;
Ġ ĉĉ
Ġiter ate
strate gy
s gn
ĠJava Script
m ms
ĠR ange
ext ract
Ġ ^{-
ag greg
Ġf lush
ylind rical
la ve
| >
Ġis ometry
Ġbo y
c raft
Ġdiagnos tic
re cor
ĠTe lescope
Å Ĥ
pro ton
Ġquo ted
{\ ,
Ġvo tes
We ak
append Child
Ġlong est
ula tory
Ġde als
ĠThe atre
Ġf ed
Ġaver ages
press ure
S ent
] ^-
Ġwill ing
ĠS K
Graph ics
der ived
âĢ¦ âĢ¦
s ocial
LE V
eps fig
Ġt y
Ġdri vers
Ġvict ory
re call
amer as
Con s
- (\
A WS
In stead
Ġto String
ĠM as
Ġmultip lied
istic s
}\, {\
Ġpres cribed
Ġpropag ate
Ġp unct
ĠP SF
17 2
ĠT oday
4 80
ĠIll inois
b ury
ĠĠĠĠĠĠĠĠĠĠĠĠĠĠĠĠĠĠĠĠĠĠĠĠĠĠĠĠĠĠĠĠ ĠĠĠĠĠĠĠĠĠĠĠĠ
c odes
Ġapparent ly
dir name
il arities
comp uted
}, {
Ġexplo sion
Ġsub stitute
Ġpr uning
Ġas king
to kens
Ġrepeated ly
æ Ī
[ {
c ision
ĠO ri
sto chastic
ĠMil ky
ĠK now
Ġorbit als
ĠFoot ball
q s
ĠF O
}^{ *}
Ġla mbda
ne ed
2 64
A H
Ġun e
M ich
}_{ [
Ġ/ \
Mar gin
MESS AGE
t re
] </
S PE
ĠNe ural
ĠF ixed
ress ing
ret val
{ ``
Re try
Ġextra po
Ġre vision
ĠT otal
ĠM Hz
ĠD I
G I
Ġcommit ment
j l
Ġe lections
Ġfall ing
be a
Ġmorph ology
em ission
A O
Ġl l
Ġ} ),
15 4
Su ite
Ġfix es
text sl
Ġpoly gon
Ġadjac ency
Ref lection
ĠB as
Block s
7 50
In jection
Ġprox imity
ĠD ifferent
Ġacqu ire
b end
Lo aded
Â °
B ri
Pos ted
ĠFro benius
tra ctor
Event Args
car bon
di ble
ymme tries
ĠPub lish
N ested
yn olds
ÑĢ Ð°Ð
B ranch
ar o
ĠSt udy
f box
Ġmultip lier
h base
attr s
s olutions
den sed
ĠMe asure
ĠS ched
^* _{\
ĠDe vice
Ġvol unte
' _\
a gain
s leep
Ġme ets
38 4
Ġen force
Ġcon form
ÐµÐ½ Ð¸
Cred entials
N at
\ })
xi ma
WOR K
fin itions
Ġcon temporary
C li
Ad ditional
Ġellip se
Ġho pping
Ġgeodes ics
Ġhous es
ĠA F
til lation
Ġco operation
Ġo x
ĠSp orts
ĠSt orage
Exp ect
Ġalle ged
{ }^
ĠObserv atory
ĠC ro
su c
Pay load
ĠSet ting
adap tive
Ġoff line
ĠSo bolev
U AL
ĠWe ek
Ġannoun ce
x c
2 12
_ [
ĠâĢ ¢
sub scribe
Ġint ention
Ġmodel led
@ {-
Spe ed
e ither
Ġkey word
Ġemploy ment
Ġsc oped
è ®
Ġin herent
nipp et
Ġris ks
C MD
Ġir re
ĠCon tainer
Ġsol iton
Ref resh
LO B
SH A
olog ist
Ġsc oring
Ġpos ted
Ġattr s
bar s
Ġinfinite simal
16 4
Experim ents
ar Xiv
List eners
te or
R ich
Ġdiv iding
\ (\
Ġbring ing
W he
Ġappropri ately
pos sibly
Co okie
Ġin homogeneous
Ġdec line
SER VER
l v
Ġ ly
riv ing
Ġbenchmark s
ly wood
In to
Ġoper ates
Ġastro physical
eder ation
gu ard
Te am
ĠS ite
Ġsymbol ic
2 75
] },
x u
ĠPol ice
Stack Trace
e o
Ġab and
rint f
Ġambigu ity
ĠW is
Ġmanip ulation
Î ½
] /
Ġt rouble
ĠK ong
bib item
pa gination
Ġvis cous
Ġcamp us
U Int
Ġv ec
Ġphenomen ological
Ġen abling
C tx
Ġc ascade
Key word
c z
ĠD FT
g cd
Ġoptim izer
Ġerg odic
W il
12 34
v n
ĠT ests
c amera
Ġartifact s
S td
t cp
Ġc ss
M AN
RO W
Ġbehav es
, &
ĠE m
al though
Ġpron ounced
Ġexplor ing
Ġpo e
Ġclar ity
Ġhel ium
}_ *
ĠR PC
ĠNetwork s
P t
}} &
Man aged
i Ã³n
Ġjump s
7 68
ĠPer formance
Ġmu tation
ter mine
Ġre cr
r in
Ġcur ved
ĠSet up
Ġparticip ation
Ġg reedy
end a
ĠMan ager
S ing
la tex
D ash
Ġan tis
Ġjus tified
Ġfra gments
Ġreview ed
ou lli
sp ark
Ġop tically
Ġachie vable
u ing
he v
ĠÂ ©
ĠR en
15 9
- {
sc ious
s al
Ġ($ (
Ġw ww
Ġis omorphisms
Ġend if
am an
Ġ Ã©
ma zing
Ġtemp or
__ .
th ur
WR ITE
ĠIn tel
ĠCE O
ĠSum mer
Ġlo sing
Ġeccentric ity
Ġf ron
ĠK illing
s ay
sur faces
)= {\
Ġ) ^
Ġdiffe omorphism
S everal
) })\
S lot
rr bracket
Ġshock s
pe g
Ġcre ative
/** */
fil er
decre asing
In line
ĠL ock
Ġacc ident
Ġcomb ines
}| ^{
Ġdem ands
Ġpri mes
ic er
ĠB at
D N
ch et
P unct
B LOCK
ĠAl low
riter ion
Sub scription
iv ariate
Ġt iny
p seudo
lec ular
<? >
- ">
19 59
Ġtext s
Ġvalu ation
Ġs me
ĠApp le
Ġj ourney
Ġro oted
Ġpec uli
Ġc ited
V o
ĠH z
ĠC I
Ġpo oling
product s
E F
ll bracket
W F
Ġcrow d
ĠC ub
ĠPol ish
Eq n
Dest roy
ĠChild ren
Ph oto
Ġwin ds
Å ¾
+ -
× Ļ
? </
J aco
h w
ĠHosp ital
AND LE
Ġhon est
Ġper mitted
Ġtw enty
Ġcoup les
ob servation
Reg istration
qu anti
Ġcon current
ĠEd ward
h op
ĠFe ature
ra ts
ay a
net t
ĠPU BLIC
ĠCo ast
Ġsti ff
æķ °
Ġp tr
Ġh ull
ul p
ĠB ang
% .
is sue
sec ure
}$ \,
alax ies
Ġimp osing
m ount
ĠH O
Ġgener ations
micro soft
ĠB io
OB JECT
Ġco in
Ass ociation
ĠU SE
Ġgra de
comp atible
SU B
aw esome
Ġstrug g
mark er
show s
E lem
n z
ĠL im
}/ {
Text View
E W
ren ces
) }_\
Ġa ster
ta kes
Ġdelay ed
redsh ift
* [
G it
15 00
, {
M V
clu sive
0 30
18 4
De fined
reg istry
ĠA sh
Al ignment
ĠS elf
Ġconf inement
Th reshold
si zed
Ġhyper parameters
elf are
Ġm illions
ĠK ent
Ġfail ures
ĠE P
ĠEd itor
Ã ±
Ed m
Ġmul tic
Ġprovision s
. ")
Ġre use
S FR
h fil
reg ions
Ġsugges tions
ĠT al
Ġsc ratch
ver si
Ġse asons
text superscript
mod ifier
Ġeigen functions
shall er
Ass uming
be zier
ĠN ations
ik i
Ġsee med
P en
L iving
R N
// !
E ST
}{ {
dete ct
Ġdesign ated
Ġfib re
FT WARE
, +\
T LS
tag on
Error Code
sur vey
o pp
Ġd B
domin ated
len eck
hic le
Ġparametr ized
n pm
Ġse at
og on
u da
Ġgrow n
R ay
enti ties
V el
ex change
L ife
Ad ditionally
schema s
Ġeigen vector
Ġdefinite ly
be en
ĠGener ate
i per
Ġaccompan ied
M n
ĠH ausdorff
2 16
mu lation
AB C
PA SS
ee a
c table
jec ta
Ġreprodu ced
Ġin dividually
ĠN ight
Ġresid ue
appro ach
Ġden oting
Ġspont aneous
n oc
An gle
Ġvor tices
Ġimportant ly
L com
Ġf ly
âĢ ĺ
Po isson
cyc les
us al
P in
ĠP T
Ġquas ars
el son
st yles
Ġdialog ue
ĠF M
oding er
Ġemer gency
Ma jor
p at
-------------------------------- ----------------
th al
Pr ice
! }\
ĠWed nesday
Ġquadra ture
Ġ" [
Ġsession s
Ġoff sets
row ave
S ect
j b
Ġle ct
19 6
Ġlinear ized
Ġgene tic
Ġsophistic ated
B st
ma de
Ġf ell
Dest ination
Ġf rust
ĠT uesday
Ġ' ')
ĠK epler
Ġw elcome
15 3
ĠW all
equival ence
te es
}) ^\
ĠW ang
se ver
B on
ad apter
Ġbuil ds
Ġrecur sively
Qu antum
custom er
' )}
i pe
Ġspeed s
ĠTh ursday
Ġma intenance
Ġcred entials
Ġsepar ating
L im
Ear ly
00 000
serv let
Ġemploy ee
Ġs oci
be it
P RI
Ġqu ote
roun ded
ĠMass achusetts
ĠB lu
}& =\
H W
Ġob sc
E O
small er
M ail
Ar row
Ch ris
inter acting
za beth
ag ues
ĠSym fony
28 8
Ġsp ending
F ast
con ven
pre view
w alk
- .
Ġ\ {(
ops is
Ġreg istry
in str
Ġhistor ic
-> ]
ĠF i
copy right
Ñ Ħ
ra ph
^- _
Ġp un
uni versal
CP U
enn is
sub Nav
Ġknow ing
circ led
UM N
{ })
Ġinter vention
Exp licit
hed ron
Ġc ash
Ġinter net
RE NT
c ourse
Ġstrate gic
C ov
pri ority
Ġsmooth ness
Ñ Ī
Ġfav our
Ġpoor ly
Ġpre domin
19 58
Ġpoly tope
be hav
Ġwork flow
Ġoptim um
p w
Sign al
N il
}. \\
Ġte x
li est
ch ap
Filter s
ĠGR B
L ee
P an
ĠL ang
String s
FFFF FF
ap or
lock ed
Ġb lank
Pop up
Po jo
l brack
Ġev olves
ĠFor mat
Y our
Be havior
ĠDig ital
ĠH ong
C ould
Ġ ÑĤ
Ã© e
ch rome
u j
Rep ly
}] $.
Sub ject
Sw ift
Ġshort ly
no ck
Ġb anks
Ġ( ``
Ġback bone
Ġsequ el
Ġra ting
ĠN umer
}| _{
station ary
Ġtimes cales
Ġno tify
N EXT
Q t
Ġev olving
Ġh older
fail ure
log ic
Ġcomp eting
f h
= #
M i
grad ation
Ġinf ection
y si
Ġteach ers
Ġh osted
Ġt aught
Requ ests
D ao
ag onal
Sched uler
cat alog
P icker
Ġ} }\
Ġsub scription
Comple ted
ĠJ oh
ab b
^- (
Ġinj ury
Dispatch er
Ġfeel ing
+ {
Ġre formu
pri or
Vis ibility
0 17
o z
An notations
Ġcall er
Al ert
PR L
Ġobe y
Ġst ub
}+ (
b ands
Rec ent
Ġ& :=
Ġ< ?
H aving
l k
Ġindex es
Ġinnov ation
ext ends
Ġsto ps
Ġqual ified
ĠGal ois
s an
Ġr ural
Ġfra gmentation
ĠA ge
s lot
ad van
interpre t
G IN
Ġazimuth al
ĠPol and
) ],
tr unc
Ġintersect s
ĠI MF
Ġemer gence
AME TER
MA IN
re ment
c B
vi olet
}^* \
AUT H
vec tive
hel pers
Ġutili zing
Ï ĥ
C apacity
Ġgran ts
ĠD aily
ĠS tyle
)=\ {
Ġd f
respon d
Ġcalib rated
. ";
Ġpion e
Ġexplo iting
Le g
Ġra in
Ġlist eners
D H
---- ---
w br
Ġadequ ate
Ġoptim izing
Ġun clear
og gle
Ġback end
local s
w avelength
omp son
Ġsyn chrotron
structure d
: @
aut y
mag ne
Ġinter active
E MA
Ġph rase
os phere
se man
per m
Y ang
el ve
20 6
ĠF P
Initial ize
18 7
Ġpublic ations
Clo sed
Ġfavor ite
, </
Ġc aught
app s
gin es
j am
}) )\
j p
ĠF ried
19 4
}+ {\
rac es
MS G
Ġframework s
Ġpriv ile
="@ +
ph ony
d S
theore tic
Ġre wards
o vian
ĠAn aly
Ġk id
ĠTo ol
c O
e h
" ])
19 57
ĠD ub
Ġtit les
He ap
Ġfit ness
ĠConn ection
r q
C hat
ĠI ma
Pres ent
ir ms
ĠF L
os si
Ġsh ut
ĠPh ilipp
triang ler
R IGHT
ival ent
ĠM HD
g ences
ĠB P
3 25
ou ville
ĠW ales
Ġdie lectric
2 17
Ġdo ctor
Qu estion
ed a
ĠTrans former
}} }(\
ĠPro tocol
ser tion
ĠGL float
Ġcell ular
hash Code
coordin ates
Ġhighlight s
Ġr s
du ality
LE NGTH
Ġcross over
Ġt uples
bf series
; %
Ã º
Rece ive
asympto tic
n ail
{ ,
> ../
ĠG re
quo ted
ch at
ech an
Ø ¯
). \]
Ġconn ects
S PI
ph on
ÐµÐ ´
depend s
U int
> -
l f
Ġcontinu ing
ach er
bo ss
Ġdecay ing
follow s
r ics
Ġab bre
\% }
Pri mitive
Ġad vis
umin ous
Ġexclu sively
Th an
effici ents
Ġt une
Ġsub scri
Ġmarket ing
ĠS on
er ts
ĠD NS
r ise
}[ {\
Ġad vent
Ġhyper plane
star ting
b R
b la
Ġcondition ed
po les
Ġintui tive
ĠB L
Ġaltern ate
Ġregular ly
Separ ator
ĠP E
Ġs el
Ġr u
al ph
Ġ( #
Ġblock chain
0 13
}. \]
Ġr ising
)= (\
esti mation
S printf
ĠSyn tax
="# ">
Ġima gine
Ġdec lar
Ġh aven
Ġth r
Ġemp irically
stats models
Ġc ylindrical
ap ore
Custom er
or ig
ĠFrame work
cal ling
Ġa imed
H am
P riv
ĠL ik
Ġdiscrimin ator
Ġdra s
40 1
al one
? ?
Ġen titled
ĠD utch
Ġhol ographic
Ġinten sities
ĠPack age
ĠN az
Ð¾Ð ¼
iz ard
ĠRE G
// ----------------------------------------------------------------
Ġass ist
Ġaccess key
b z
gni tive
She et
uzz y
clu sters
B ern
Ġde lays
align ment
Ġalpha bet
Z oom
Ġir regular
Ġplau sible
]{ $\
ĠP lace
up d
Ġcent roid
~ .
. âĢĻ
0 22
Ġestablish es
enn es
Ġsur vive
c ers
ĠRemark s
Ġ å
fol ding
Ġapp oint
Ġcorpor ate
sub scription
Ġtack le
df n
}^{ +\
20 7
ĠInter estingly
Ġs cripts
ĠC red
Ġbenef icial
Pers istent
Ġ(! (
ĠOC aml
cent ric
f lip
ĠF ood
ic z
Ġd rugs
Ġep ide
og ni
}' (
}, $$
Ġlept ons
Ġun usual
Ġmanufact uring
w u
ul s
Ġcoun cil
A tt
ds on
Ġsatell ites
ĠH or
20 9
W i
Ġcor onavirus
Emit ter
Ġcontext ual
Ġworld wide
Ġselect s
LEV EL
C are
temp lates
Con struct
= |
ta king
Re view
ĠPol y
Ġnon local
h on
mp ed
ĠB attle
ĠÐ¿ ÑĢ
ĠCamb ridge
N ational
Ġv ibration
Ġprov ince
Mu table
Ġre try
Ġmonoton ically
Sh are
Ġassign ments
ud ents
Cal led
Ġsuper gravity
Allow ed
Ġ\! \
th ew
C U
o ol
Ġs igma
Ġo d
E mbed
Ġiter atively
Ġa ds
ãģ ®
ĠS ql
lines kip
Ġco pi
f req
non atomic
ĠAg ency
Ġre m
Abs olute
19 56
Al ign
F ar
ĠK err
SE D
Ġpick ed
' ):
19 3
k b
Ġ$ *
J s
}\ {\
Ð¾Ð ±
Ġran ks
tab ilities
Ġin tr
ĠEn able
Dav id
Ġres olutions
al ways
post s
Ġfila ment
ĠClo se
ui tively
Ġgraph ical
ĠHamilton ians
+ }$
Ġport folio
ĠC oll
E r
g am
std lib
mon itor
E instein
Check er
Ġderiv ing
B W
TH ER
N OS
Ġsub system
ĠR S
ĠA ST
Ġadministra tive
Ġb lo
Ġf ruit
ĠE th
en ko
ile y
ĠN A
ĠLo ok
ĠSub section
Ġsat urated
Sta tes
'' \
place holder
we et
})$ -
respon sive
s ound
Ġelect roweak
16 2
Ġact ress
Ġ ../
in ecolor
odrom y
Ġc ameras
stitu tion
Ġrela tivity
requ ires
ĠComp ton
w ich
li a
Dec ode
scal ed
al o
)) _{
plan es
Ġsw im
, *
ex clude
ipher al
Ġ ut
op tical
P adding
B esides
ro tt
T im
c ub
le igh
Ġper ception
i vers
id ay
Ġcomp ound
Rece iver
Ġpos es
E LEMENT
f ive
n ested
Ġtransform er
ĠOlymp ics
I FI
Ġelectric ity
Ġfight ing
ĠW at
Ġthe sis
ex ci
spec ies
lo s
Ġde bt
cer tainty
triangler ight
) }^{\
H s
Ġcos ine
Ġt ropical
c T
ci ties
Ġg rounds
ĠO K
M iddle
00 9
Ġtrac ing
}\ }$,
Ġdig its
Ġcry stals
Ġcatalog ue
get Key
Ġmis s
u y
st y
Ġinv olution
Pa int
Con figure
SU PP
Ġconfir ms
` :
Ġch amber
Ġreservo ir
S CH
ĠOn line
Hy per
pro fit
Ġfeat uring
L earning
e vi
en table
Ġcur l
Mod al
M U
ĠS tation
ĠS olar
Ġvio lated
dial inecolor
Ġdate time
numer ic
Ġg lyph
Ġcut ting
hier arch
Ġlo ose
$ }{
Ġs lide
Ġt um
nice frac
}) |
des cr
an no
V T
2 90
ĠOnt ario
st derr
Ġquan tized
Ġinvestig ating
v f
lass ical
dest ination
Ġdra ma
Ġsim ilarities
^+ ,
T ube
p ond
Ġc fg
ĠR od
ĠConst ant
Ġcros sed
Ä ĩ
pro cal
}_{\ {
C os
Data Source
Par ty
po si
coll ision
pre vent
Ġredund ant
ĠHes sian
Ġmag ic
ĠSte ve
Ġtravel ing
Ġexplo ited
ĠD onald
ĠDav is
ĠV I
y ers
Ġtro ops
ma d
R ew
Ġsub script
{\ '
up iter
ĠĠĠĠĠĠĠĠĠĠĠĠĠĠĠĠĠĠĠĠĠĠĠĠĠĠĠĠĠĠĠĠ ĠĠĠĠĠĠĠĠĠĠĠĠĠĠ
Ġs lices
du ctivity
16 3
Log ging
Ġdedu ced
Ġp s
File System
ĠIs la
Ġcon verse
ĠDo es
Ġout liers
Ġopp osition
D up
ĠM T
Ġhouse holds
K D
Ġh air
ĠC ulture
dimension s
Ġmove ments
ĠE T
Ġj uris
19 55
ET H
Ġacces sed
ĠP layer
Ġimp lication
ĠHow ard
ĠC ox
tit udes
Ġil legal
Ġconjug ation
Ġmultip lying
For ward
p orts
ĠB OTTOM
Ġw inter
me try
ĠAnd rew
Ġaffect ing
Ġas ynchronous
Ġincorpor ating
ro g
Sim ulation
ĠV M
s ender
Ġen forcement
Ġ\ >
ou ri
Ġpre vents
Ġlo gs
k el
Sh adow
Ġd ry
Ġb ow
Ġintersection s
3 45
if ford
lu stration
; -
is tically
Ġjus tify
re ets
==== =
Ġf ibration
Ġsaf ely
ĠG ET
char ts
Ġtourn ament
own ed
at op
arab ic
ĠE D
En code
23 7
Ġun biased
18 9
it eness
Ġre act
aren cy
HO ST
[-> ,
esti mates
ga ble
d R
ar po
Ġw ins
ĠChris to
Ġlock ed
ĠB or
Equal To
Ġhouse hold
CL I
/ #
Ġconvex ity
Ġprim or
ge om
Ġfac ing
0 75
mm ode
Ġmathe matics
ĠBay es
F ROM
Ġstrong est
T ip
Ġendow ed
" </
ak ov
distingu ish
t one
Ġf ired
Ġcon es
ey ond
G LE
clu des
Ġwas te
Ġav o
c ould
op am
Ã© s
get Text
em is
ĠA V
An n
19 48
zon a
Ġinstal lation
es tri
Ġint ense
add EventListener
Im mutable
ag an
Ġtra dition
Ġneu ro
Ï ģ
AD C
Ġcol ours
jav adoc
ĠĠĠĠĠĠĠĠĠĠĠĠĠĠĠĠĠĠĠĠĠĠĠĠĠĠĠĠĠĠĠĠ ĠĠĠĠĠĠĠĠĠĠĠĠĠĠĠĠĠĠĠĠĠĠĠ
AR K
ro ut
K im
Ġadv ances
Inst ances
remove Class
Pub lish
Fig s
Ġtor que
] *
Ġchar ts
h ist
ĠR NN
ĠP D
MPL ATE
Predic ate
L ap
Java Script
Ġar ranged
end region
Phys ics
ĠPal est
C apa
Ġb asketball
Ġslo pes
ĠPub lished
Ġindic ation
Ġgu ard
Ġ' $
Ġcho oses
Ġ ))
Ġcomp la
window s
nos cript
ĠA stro
Ġcompact ness
ĠTable s
evalu ation
ĠTr ust
Ġmis match
Ġcorrect ness
& -\
Ġmis sed
Ġin formed
Ġpol l
" \
Vari ables
. ),
> }
Ġa apt
El se
ĠComp arison
& $\
bos on
date picker
17 4
Ġanomal ies
è ¡
Ġst roke
PAR AM
Ġemer ge
Debug ger
if rame
ĠM g
ĠSO FTWARE
Ġla b
17 7
Ġvi able
unic ations
Ġ" +
vers ary
ding er
Comp ilation
glu on
---- -
ex ecu
sl f
Ġwould n
Ġful filled
wide text
Ġmaxim ally
dis p
comp uter
Exp and
19 44
si zing
acc eler
radi ation
Ġiniti ated
lear n
if mmode
min or
mon y
Ġrecur rence
Ġprimor dial
Ġti ck
ec ke
Ġsoldi ers
ĠL ICENSE
B K
En t
L V
Ġblock ing
c S
ĠObserv able
p ick
ĠH ung
Ġs ed
2 33
Ġpro fit
ĠCon versely
enn y
ĠR ome
c apacity
ĠF ast
has OwnProperty
}}\ ,\
g ui
Ġmaxim izing
ĠConsider ing
Ġ à¤
Un til
Ġpopular ity
Ġ(! $
16 1
Ġmin ority
id ents
syn tax
Ġdanger ous
ĠCo oper
Ġweap ons
TR A
}. )
ĠDe veloper
Ġth erm
ĠF red
ST D
Ġe c
lu c
Ġinter stellar
S olution
') ).
Comp ute
Ġphys ic
s napshot
ĠM iller
Ġse g
ĠTemp late
ĠF oreign
(" <
Ġas c
m ime
Ġ} ^{\
en sitive
ĠB inary
> /
Ġour s
}}$ )
pe er
Reg ular
Ġb rown
ĠS ER
Ġin form
Ġup grade
Ġshe aves
0 24
ĠF r
: {\
Ġar ts
complex ity
[] [
ĠP erson
17 8
Ġsuffer ed
ĠA str
Ġexp ects
IM O
d in
Ġsimple x
Ġs ounds
sw er
H int
ĠC li
Ġconsum ers
e z
n h
ho ff
C he
m ol
Ġm il
Un able
Ġp ray
= {(
P V
Ġin spect
iz ability
ĠL F
Ġdiscuss ing
ĠH om
ĉĉĉĉĉĉĉĉ ĉĉĉĉ
acc urate
c aus
Ġs keleton
H V
H idden
36 5
first row
ĠAn ton
Ġqu iver
ac ion
Ġiso lation
ĠH odge
ĠH ur
observ ations
}\ ;\
Ġs eq
an non
Ġgradu ate
ĠGib bs
ĠTh anks
ire ctional
tex tarea
work er
^* )$
ĠĠĠĠĠĠĠĠĠĠĠĠĠĠĠĠĠĠĠĠĠĠĠĠĠĠĠĠĠĠĠĠ ĠĠĠĠĠĠĠĠĠĠĠĠĠ
Ġ"- //
30 1
Ġhon or
Ġbl ur
om ics
equ ality
g ger
}} }_{
ĠCon ver
Ġappro val
issi ppi
ĠM obile
Ġ' {
lat ure
chest ra
Fil ename
out ube
Ġ// -->
Ġface d
k le
ether lands
ĠData set
OL D
Ġb unch
ge ms
ĠO UT
cri ptions
}^* (
re vision
Ġphiloso phy
rom o
ĠH ou
cr umb
Man if
vo ice
Cat alog
an ni
ĠW igner
Ġreg ulation
Author ization
Ġg rpc
ĠLemma s
Ġf iction
Ġb attery
rep ly
Indic es
be at
By Name
PROP ERT
ç »
lat ory
is Array
mu tation
Ġminim izer
c R
Ġref ere
Ġgra sp
> ()</
b az
Ġs ali
Ġass istant
Ġexc iting
Ġinf ected
ĠLa ure
> ');
Id entif
Ġview ing
Max imum
ĠM SE
res ted
Ġrecommend ations
ENT S
BU TE
open api
Ġelimin ated
ĠAr ticle
la del
si di
\{ (
x a
ĠSet tings
ĠP DE
mar shal
el led
}\ |^
ĠInter face
ĠJe an
F our
ig a
Ġgu est
for th
17 1
Ġjud gment
Ġenc rypted
Ġbifur cation
ĠValid ate
B LE
Ġg a
ens tein
Ġdesign ing
ĠRo ss
Ġres is
st ries
Ġrun ner
ĠB BC
lic as
Ġp uzz
Ġeast ern
lan e
ĠCon jecture
Ġun seen
ula tors
Ġrect angular
}} )$,
Ad ded
Ġdis app
] }{
ti se
ĠIn tegra
l ists
ga ge
ĠL ar
Rad io
Conn ector
incre ment
feed back
} "/>
Ġe jecta
oun tains
ra it
Ġd ans
ĠIN T
Ass ignment
expon ential
( <
f onts
ĠGovern or
Ð ¹
in sp
ĠW ild
pa int
}}$ }
per mission
Ġvo ters
LIN K
Ġve ter
control led
ou theast
ĠH ay
p ow
ĠK ol
Ġde x
ĠH un
Ġbeh alf
ĠIn cre
Lo ss
ĠTor onto
Ġperson nel
Ġf abric
Ġanaly se
e ah
ĠP ic
ĠV en
bu ilding
vis ibility
Ġw a
:: $
s low
Ġ _\
Ġ' </
simp l
acknow ledge
ĠP riv
version s
Ġcontact s
ĠAd ditional
Ġhealth y
17 3
w en
Inter pre
) ].
: ]
RE AM
polar ized
k al
Ġdis connected
() `
Ġcolor ing
Sch warz
p tive
Ġrefer ring
Uni ted
Ġsur gery
S ender
Ġinc idence
ĠBlo ch
Ġw ra
ĠH R
Mod ules
F ire
co verage
Ġstri king
Ġcapt uring
ĠMod ern
ĠT ok
Ġre pair
ish es
de li
An g
_+ ^
BU ILD
ĠComp ared
parame tr
f k
ĠD G
eng ers
18 2
c od
Ġd ummy
pay ment
Ġbe ar
ĠL D
Ġarg v
ĠF inal
With in
Rec ur
pub lished
or acle
EN C
Ġavoid ing
Ġtrans lates
ĠNO TE
comp ass
d id
ĠS TR
ĠJew s
Ġc rack
ĠB orn
ĠD un
Ġ ^\
cccc c
------------ -
Ġavo ided
W illi
k ubernetes
s it
Ġg irls
Ġide mp
: **
tensor flow
Ex act
Co ord
ac l
I BUTE
S outh
ĠP AR
'' }
ĠK L
loc ations
^* =
$ |\
Des cribe
Ġlink ing
ĠEd ge
^{* }$
Ġf asc
Ġtran sitive
Ġ æ
,\ ,\,
w ire
ĠS till
ob jective
Ġin consistent
Ġdeep ly
ĠAt omic
ĠD S
Ġgovern ments
0 14
="# "
Ġla titude
Ġreference d
B and
Par ts
c apa
th a
40 5
Ġinflu ences
measure d
ĠS PI
aw t
Tag Name
External Task
ladel phia
cite alp
col ors
oot strap
Ġb lu
ĠF o
Ġregister s
Ġdes ire
Ġf old
U K
ĠImage Net
Ġs lots
Ġper c
Ġpartition ing
ĠLag range
ĠSta ck
MA G
ĠGra ss
experim ent
f ted
Ġpay ments
32 1
Ġguide lines
ar x
Ġsched uler
control s
Th rows
Ver tical
0 50
Ġd ance
cross ing
H ierarch
ĠV ar
Ġcour ses
L ip
ci i
ct ree
Ġellip tical
ok er
sc ience
Ġmon oidal
) ?
Ġingre dients
iel ded
ĠMC MC
19 54
magn itude
Ġintegr and
ĠIP v
ĠTh row
Ġindic ators
NE W
Ġcommunic ate
}/ {\
dec oder
Ġpush ed
ĠW H
v d
]{ .
Ġtrain s
); \
ĠA venue
x l
Ġfor mats
con volution
Ġvictim s
Ġsimpl ifies
Ġion ized
Ġl icensed
Ġco okie
ST O
Re presentation
ĠF orest
ra mid
ĠRe lease
=\ {\
Ġdiv ides
CON F
ĠL es
_{ [\
ĠH ost
dis per
Ġval ley
Ġch ip
can not
( @"
Cho ose
ch ant
} ]{
alla x
ar on
Ġno tably
Ġdoll ars
ni o
Ġminim izes
b right
.. .\
Ġy r
Ġde gradation
ĠMedic ine
ian ts
ry stal
occ ur
ĠCon structor
in frared
________ ________
ĠL ocation
measure ment
si ans
inter section
A CTION
ĠB ridge
ĠF ox
Ġsol o
ĠBu ilding
Ġsec re
si o
ĠCh ap
× ª
con clusions
Ġexec uting
IT H
ĠWik ipedia
Ġc au
Ġ" --
tric ts
^+ }
ĠP ear
max cdn
Ġextra polation
Ġ( <
Ġstri ke
q t
)\ |^
R en
Ġinte l
> ("
ĠDo ppler
E A
Ġex clusion
ĠP CA
sta tistics
b io
Ġd yn
command s
Ġcour ts
="../ _
Ġaddress ing
ĠW D
Par ticip
ĠSt ory
Ð½ Ð¾
Ġrein forcement
Ġa wards
\,\ ,
C amp
oper ations
ĠIn it
lic ates
Dis abled
}$ (
ĠR C
Ġe g
Ġdata bases
ĠEli zabeth
ĠRe volution
Ġrenormal ized
() }
ĠRequ ired
Am ong
Ġl in
Ġmultip ly
a belian
Ġpre mi
slash ed
P ad
re ll
Ġmonotonic ity
19 39
ogen ous
ĠCh en
Ġkn ots
Ġparticip ant
Ġpas sion
j ournal
Ġf d
Ġcal endar
pla ced
serial ize
ow a
ik es
Ġr c
ĠRe ynolds
ĠConstit ution
Ġn om
Ġcompens ation
pro g
ĠIs lands
)\ }_{
Uni versity
ex ceptions
Pro c
Indic ator
Ġfar m
Ġorbif old
User name
Ġutil s
E val
Sto kes
Per missions
Ġtermin ation
Typ ed
l ift
om ent
put y
ĠCh em
é Ģ
Ġlo ader
gather ed
ĠPri ze
Ġp lastic
N evertheless
ExternalTask Pojo
Ġp ictures
å Ń
ĠN V
Ġh align
Ġ )}
um ar
Ġobsta cle
Ġnewspa per
C odes
e ter
ĠA UT
ĠPh ot
.} ~\
ai lo
}) ).
Ġreflect ing
chem ical
Ġwal king
Ð» Ð¸
)) ^{
$ +$
coup led
0 100
Ġaut omorphisms
at tack
Ġrandom ness
}} ),
ĠB l
Ġosc illa
) &=&\
Ġk wargs
Ġback up
con jecture
ĠEcon omic
spec tives
ĠF act
Ex cel
Ġd jango
has er
Ġz ones
ĠĠĠĠĠĠĠĠ čĊ
ĠP sy
ĠS chema
lo be
Ġdiagnos tics
Transform er
Ġid s
ĠScot tish
Ġrare ly
Ġb at
Ġw ing
Rec ords
t ens
Ġp ad
}] $,
å ľ
Ġ$\ #
b enchmark
âĢ ĭ
urn ame
Ġins tabilities
_- $
Ġdepic ts
C as
co hol
ĠE mber
Qu an
ig e
H orizontal
Ġpop ulated
b ank
ĠRes ources
H ex
w x
g d
ĠS VM
Ġcur rency
Ġvirt ually
Ġs av
Ġensemble s
id o
Ġconcept ual
Cho ice
den oted
G old
19 52
Ġgu y
ĠF S
Ġterr itory
ĠFW HM
rop ies
Ġb ot
Ġsp ans
Star ting
ho ma
}{! }{\
pie ce
n umbers
\ ":
5 50
ak ed
Ġextract ing
ĠMy r
& (
sim ir
^+ _{
Ġimm ig
)} |
Read Only
Comp aring
ĠPro b
Ġoutper form
ĠS B
Ġbul ge
Ġreti red
P K
ĠBe ach
> )</
w r
Ġlo ved
Ġsol vable
Sh ift
^+ $,
DI RECT
row Color
Ġrever sed
Ġvocal s
Ġro bo
ĠW atch
30 2
Ġfe asibility
av oid
New s
ĠR u
Ġsuper vision
DO WN
V IEW
Ġn ic
---- --
Ġdisc s
Ġcomp ounds
RET URN
* .
}} :
Ġc lon
ĠSan ta
S at
18 3
ĠDo main
b at
Ġc ru
iz z
Ġemo tion
Ġvi rial
ran g
end ers
Ġref uge
ĠD ATA
ĠS itter
Ġcre w
tw ist
z ech
23 1
Ġrescal ing
[ (\
Expression s
8 50
Ġcondu ction
Ġf rozen
lo p
ia o
ĠAn th
G erman
Ġpe ers
Ġa mazing
N AL
po thesis
6 25
ul ly
Ġse eds
incip le
ĠBel ow
ĠN orm
type param
comple tion
H iggs
Ġ$[ -
S y
ri ends
Ø ª
ull er
3 40
ĠC ell
member NameLink
W T
network s
[ ];
jec tivity
ĠCoun try
ĠG ene
ST AR
Ġthous and
Ġany more
ne ural
B ol
_- (
i q
Ġre tained
Event Handler
NOS CRIPT
ĠG yr
quad ratic
Ġch ap
}, ~\
S il
si vity
ĠE R
Ġsta ke
ĠMean while
es sible
non linear
de velop
fact ors
W ords
ĠEar ly
Ġsmooth ly
Ġsp o
)( -
Thread ing
Ġdra matically
ĠEqu ations
Pre liminaries
P as
Cre ation
Ex change
ĠW ait
Ġstrug gle
mo id
B g
ĠT itle
Un its
Ġplate au
exp ec
h ill
ver ty
Ġconcent rations
ĠTrans form
ĠCom bining
ĠA ni
Col lector
M Q
Ġf m
Ġta ils
su ite
Ġher self
Ġb ic
bm od
Ġde ferred
pa que
ĠG B
Ġanaly sed
Ġiner tial
Ġco medy
ĠGener ic
S ys
ĠMo ore
ĠT an
og n
Ġdif fraction
Ġmon oid
Ġde t
Ġ& \\
lect ual
La TeX
Y M
all ing
} &=&\
ĠI mages
Ġwave function
care t
f u
Ġ\ |^
Ġf l
Ġrescal ed
pro cessed
TR ACT
t g
ĠP attern
Ġde precated
dim en
Z end
A J
bit coin
ĠIn stance
ĠO THER
rac tical
ĠP I
Par cel
arg min
aw n
Ġatt racted
Ġenga ged
Y S
h b
Over all
ĠAtlan tic
Ġdestr uction
T ick
Ġs entiment
FLO AT
ĠI MP
ĠQ String
Ġg r
Ġun labeled
Ð» Ñı
ĠOver all
Ġdise ases
w ick
Ġspecial ized
Ġtrip les
F oreign
syn chron
ĠĠĠ čĊ
Ġh un
Ġconven tions
Ġh ist
Ġgeneral izes
ĠR H
Qu ad
> ';
ĠDef ense
ĠMN IST
W P
Ġti ed
W est
17 9
vers arial
Ġdec imal
Link s
ĠAd ded
Multi p
Ġla d
Ġplugin s
C rypto
Ġ* _
exp lain
Ù Ī
Tra its
Type Name
ordin ary
Ġh i
co eff
Ġsingle ton
NotFound Exception
Re vision
3 80
Over lay
Cla use
19 53
there fore
C ss
T B
dis tributions
/ '
AS C
Ġpro test
trans formation
ĠG D
ak h
J o
}} |\
ĠE ric
de cess
Ġv ox
Ġhead ing
Ġsil ver
Ġn ano
Ġconstit utes
Ġcancellation Token
Ġf at
Ġrest ored
Ġbur sts
Ġm ountain
Over flow
Ġprac tically
1 200
ĠD MA
Ġinstitu tion
ĠMiss issippi
Q P
ĠCho ose
Ġpro poses
Ġass ociative
Ġacc ounted
ĠAn ti
Ġemo tional
Ġf urn
as set
ĠAd vanced
os hi
Ġs now
18 6
Sub stituting
WARN ING
Ġ" ")
Q T
Ġch ir
k p
Gra dient
ĠF loat
Ġbar riers
ĠE S
M AT
ĠC B
Ġaxi oms
Ġnumer ic
Ġdouble t
ĠS hi
row se
Ġharmon ics
in j
19 41
0 16
ĠS top
Ġsur rogate
ĠBer lin
T ARGET
Ġbl ind
ĠF ord
19 46
plan ar
Ġp b
A lex
M ills
ĠS ave
Ġco gnitive
Back up
t olu
c tives
Ġs oc
ĠA dap
Sh ell
ĠNS F
ĠK ansas
j boss
ĠM ust
Ġsk ill
Ġsymp t
for ge
Ġup coming
Ġac tivated
grow th
~ &
ĠV olume
name ly
LE N
ic ide
ĠIn dic
K EN
ĠD D
Ġsh ips
read crumb
In str
" +
F ront
ĠD oug
ch el
ĠAff airs
Ġper co
F IN
Ġleg iti
max imal
Ġt ens
ĠL IMIT
Ġpr inted
Ġh ub
f li
ĠF LA
Ġfac ulty
decomp osable
Py thon
g ree
{\ "
ĠC reated
dim s
O h
R X
ĠChar acter
4 75
Ġemer ged
| )
Ġa thle
Ġat tained
IF Y
ĠL ower
19 47
Ġsta ys
ĠTrans action
C lip
w so
ĠL inux
PRO TO
CC CC
ĠVictor ia
h dots
Ġfor bidden
cc er
[] []{
pop ulation
ĠB ush
Ð¾Ð ³
clu ded
MA SS
p zc
restr icted
ĠS quare
> ',
26 5
pp le
Ġpol aris
}| }
Ġaccep ts
A MS
Ġapproxi mating
ĠD ra
order ing
oxy gen
tele phony
Ġfurther more
Ġold est
Ġaware ness
Intern ational
rep orts
ĠA WS
us ta
ĠF E
tri bs
0 35
Ġret ro
Ġpi pe
ĠB road
ĠT M
ĠE r
Ġaccomp lish
qu is
Ġ/** <
Ġconcaten ation
A f
Ġout standing
{ ,}
ĠS oc
{ .}
Ġasympto tics
en z
es ta
ĠU E
ĠBo oks
0 20
ĠN um
Ġsu ited
18 1
J O
Ġ. /
Ġgo og
La unch
n P
des h
m og
sup seteq
}^+ $
Ġbelie fs
im ination
rac ies
ĠC ov
We ek
In voke
Ġinvest ors
separ ated
Ġ\| _{\
6 40
Web View
U PDATE
ĠM LP
gal actic
restr iction
Ġ/*! <
ĠCh rome
ĠMc C
Ġflav our
Ġad ult
Pro pag
Ġdissi pative
Sta ff
2 14
ĠAs ync
ĠĠ ĉ
ĠOff icial
Ġaltern atives
Ġre tail
ĠG TEST
)$ ).
A rr
æ Ĺ
>> >
tw isted
G uid
rac le
Ġcompu ters
ANN EL
19 00
Ġmain tains
Ġaut orest
S us
ĠBut ton
He ading
Ġcoordin ation
L ive
Ġbott leneck
23 8
op lan
thread s
p romise
Ġ\\ [-
Ġcha os
Ġc up
19 1
R B
st mt
ir t
ĠM DP
ĠSto ck
is ible
R eq
Ġemphas is
å ¼
min ute
Ġcollect ing
Pay ment
ĠLabor atory
< $
P ages
per f
Ġfin ance
UN K
ĠC ancel
Ġcol laps
Ġquas ar
Ġhand lers
Ġserial ized
Ġpro c
ĠR om
Ġex otic
19 51
PO INT
3 10
B AD
Ġm ine
tolu a
In te
Ġre po
Ġ" (
Ġwatch ing
xi om
ond o
Ġenc odes
Ġcli que
math pzc
å ¯
lin ing
teen th
">( </
Ge o
GRO UP
nes ota
Ġob lig
Ġqu iet
Ġx si
Ġhapp ening
Ġcovari ates
Ġexplain ing
ĠB O
ĠSe ason
ĠG ran
**** **/
ep ing
Phys ical
Ġed iting
Ġiso late
uc lear
T ax
util ity
ĠD or
Ġassign s
ĠSing apore
rop ol
ĠWh it
Ġpresent ing
Ġpeculi ar
Attach ment
Ġbelie ves
Suppress Warnings
S ound
sp er
d am
ĠPh oto
Ġc ult
Ġre lic
ĠCol lections
k an
encode d
Ġpo sitivity
get Data
Ġgrid s
Ġbase ball
ĠC ohen
Ġpay off
Ġsum ming
D ry
Ġsp oke
vi ate
Ġdi amond
/ [
Ġw ake
ĠMe mbers
ilibri a
ĉ ĠĠĠĠĠĠĠĠĠĠĠ
par sed
Ġdistribu te
Ġo cean
PAR AMETER
Ġpossess es
CON NE
as sump
b ary
Ġpro mp
SE C
l q
Ġwith draw
ine ma
Ext ended
Ġwh eel
Ġattach ment
Ġwh ilst
ĠOr ganization
T ITLE
ĠW ars
ris k
Ġin evi
Com bin
F r
Ġlo an
k d
Ġn odal
Ġcontroll ers
Ġref ine
Ġin hab
ĠSw itch
ĠSchwarz schild
Y au
in ian
qu a
Serial izable
(" -
ĠAl ternatively
H ANDLE
pe z
ther s
dis cus
Ġclu mp
Ġv ital
ĠE ss
22 1
K a
Ġre dd
ĠComple x
Ġsupp lementary
cur r
Ï Ģ
ĠCat alog
expand after
' }^
Ġme dal
ers tein
pro cedure
ĠV ice
Ġsub manifold
H ide
ĠNewton ian
ĠL ewis
Ġ' ../
Ġcons ent
fav icon
Ġto y
ĠD ocker
Ġcomb at
Ġdra matic
ĠThrough out
on ia
ar able
ĠN etherlands
ct l
top ology
ĠTransition al
ogon ality
Ġsta ting
SI M
bad ge
Ġconc ave
Ġear liest
ĠD ES
25 4
order s
roll ers
ĠĠĠĠĠĠĠĠĠĠĠĠ ĠĠĊ
Ġsuc ceeded
appro pri
g res
Ġvalid ated
Car tesian
R W
d type
ss s
Ġcopi ed
Ġaut oc
om al
Ġex tern
sub scri
Ġla id
Ġth ir
Ð½ Ñĭ
}, ...,
Ġaccum ulated
inter cal
ic ations
ro bot
imp licit
ter ed
tablen ote
Ġori entations
rep rene
A IN
es c
reg on
Rec on
Ġc ot
19 42
Ġf ounder
fe asible
analy tics
Ġpo verty
Ġinter rupt
Pro totype
' }$.
Ġrm s
j ets
Ġpar alle
log ical
Ġh ur
33 5
MP TY
Ġpers istence
approxi mate
Ġmeet ings
us ually
Ġg ro
ĠAir port
Ġin sufficient
Ġm ile
Ġ\; ,
Ġchem istry
ĠLink ed
Ġp orts
rit ten
tow ards
R outing
ĠX ml
Ġspread ing
t in
the m
orth ogonal
Ġaccomp lished
re li
t up
At trib
Object Meta
Ġ} ^
Ġhe ap
Par ticle
Ġto ggle
Ġpredic tor
ol id
ĠG i
50 1
satisf ies
& \\
Operation Exception
ĠR and
ug al
\% $.
O ps
style sheets
mo ving
ys on
Ġhis tograms
strong ly
Ġcompris es
bb on
ĠC i
determin istic
ĠHol y
Ġvis its
e poch
un es
ĠDe pend
Ar n
Ã¡ n
if ference
Ġspur ious
Ġin hib
COL UMN
Ġbroad ening
A RE
Ġgenu ine
/ %
Ġpre d
Ġre combination
LT ER
ĠSim on
Ġnonlinear ity
ĠMod al
> *
Ġsummar izes
$ ^+$
Ġagree ments
d og
24 7
bern ate
Ã ł
al led
Ġ! (
IN PUT
ĠTra de
,\ ]
Http Request
F ac
OP ER
Res earch
Ġmitig ate
ĠAri zona
v ic
con sin
Ġrail way
3 90
ĠH ST
8 000
}} [\
he alth
Ar tifact
c X
th ink
h it
or ms
ĠPri or
ĠHol lywood
V i
28 5
tific ates
Ġon click
ĠK a
hol m
oco mple
Ġl ifting
Ġany where
war ding
st ery
ti ans
gra v
ĠAf ghan
propag ation
pro files
Ġad mitted
Ġanten nas
ab r
Ġdiver gent
ant on
ĠSt one
Ġbary ons
Ġsurroun ded
Ġsp ike
as suming
Ġ+ +(
simu lations
Ġv ocabulary
por ter
Ġk ilo
LE X
Ġadop ting
] ^\
In clude
] ];
! \!
ex am
nucle on
Ġde e
Ġb ass
Ġh all
)\ }
Ġ[ $
Ġcontain ers
ump tions
ev in
Ġas semble
ext ype
N orth
aff ine
exp anded
y arn
So ft
Ġsub mission
Ġma xima
c riteria
The ore
Ġsuper fluid
Ġpass phrase
EX P
Ġprob es
Ġ( );
D ump
Dem o
' )$,
29 5
j q
Ġh int
ĠE N
ĠIn sp
O ct
th ose
Ġsh ifting
Ġad ults
b ag
Ġs sl
ke e
Ġuni versities
Ġdup licate
Ġthe ta
valid ator
)| $
Ġ um
Th ird
ĠC MD
ĠF ields
Ġdivis ors
Ġvulner able
in herited
frac tive
ĠC artan
Ġs elling
TE MPLATE
.~ (
\ )-
W H
ĠM AC
Ġdire ctive
Ġhealth care
ĠSD K
ti que
ri p
}( {
ĠH i
Ġgen es
Ġsurpr ise
Kn own
Ġdemon stration
3 15
Instance Of
ĠAcc ount
ĠIsla mic
s and
Ġd ies
C ID
ĠIsra eli
lesc opes
Ġat traction
pre diction
View s
Ġpull back
el la
un less
ĠBit coin
Sty les
x shift
Ġis lands
Ġgroup ed
lin ic
Ġden ied
ĠG er
ĉ ĠĊ
Ġ\ }_{
Ġfla res
isot ropic
Ġind ent
Ġtre ating
acc ording
Ġsub division
ob tain
rows ers
0000 000
19 49
Ġautoma ton
M obile
Ġstri de
Ġspecific ations
b A
flu ct
Dep loyment
ĠPhi ladelphia
Ġsp ots
Ġb ib
Ġsett led
j obs
ĠA x
star ted
e mb
In ject
read only
ĠT D
(' \
Ġsusp ension
Ġmic rowave
f red
ĠColor ado
Ġenjoy ed
g alaxy
aff ected
ĠD y
oci ate
C LE
ĠS ho
}$ '
ol ding
ore n
Ġmat roid
ĠEx change
or tions
Ġal umni
c G
Ġsu it
__ ["
Ġpartic ipated
Ġ) {
d ummy
Ġvirt ue
Ġadverti sing
L if
Ġm k
Ġstack ed
Consider ing
Ġfer romagnetic
V oid
v phantom
Ġab straction
Ġb esides
T oggle
ãĥ ¼
th y
Ġdig it
Ġsubt racted
Ġrecon c
Ġin formative
23 6
tun ed
Ġdou bly
get Property
zh ou
C y
di o
33 6
et ti
Ġd Ã©
Ġprote ins
Ġcategor ical
ti les
sample d
IS O
Ġs alt
f ish
() ]
r hs
Ġwar n
button s
C lock
Ġ ì
Ġalloc ate
Ġperiodic ity
qu ick
Ġag gregated
Ġnever theless
ĠÂ »
Ġinver ted
[ _
Ġqu aternion
col our
rect angle
Ġexclu ding
pro per
Ġpat ent
inner HTML
in berg
Ġ\; .
assert False
track ing
22 7
inter faces
Ġfluct u
Ġhash Code
Ġpuls ars
Ġk illing
Ġp ng
Ġt ur
tr ons
)} }$
L HC
comp utation
ĠP osition
22 6
Draw able
ex e
g mail
Ġauthor ized
Ġres ort
Ġalgorithm ic
Ġintegr ity
F ermi
so v
box ed
re ma
Ġge o
datab ind
^{\ ,
radi al
Byte Array
Ġpolitic ian
ĠB rowser
=- =-
Doc s
squ ares
c nt
ĠRe LU
' }),
s creens
ĠK K
ĠIo T
Ter min
Ġcentr ality
is ta
ĠSte phen
Ġpurch ased
g ives
od s
* }{
ĠT S
ges tion
pers istence
ev t
Tran sp
Ġ{ })
ĠÐ ·
std out
Ġsumm and
Ġregular ized
D ifferent
Ã ¢
i int
30 3
Ġh otel
L aw
Ġis ometric
Ġis set
Ġapproach ing
Co ins
Ġhad rons
Âł Âł
pr inter
lec tively
Ġd oping
lu sion
23 9
to on
pan ic
] >
ta sy
Ġst one
Ġre form
Ġmark ers
Ġdip lo
Ġingre dient
Ġrac es
Ġposi tively
AP PL
Ġreli ef
Observ able
Ġre connection
ĠS cript
log ue
ear ly
INST ANCE
Ġll vm
Ġmar tingale
Ġconflic ts
Ġrender er
v u
stall ine
Ġcor ona
ĠF ore
r us
ic it
CON ST
30 5
PC A
ar bit
ĠK ra
st ory
Ġun w
aaaa aaaa
Ġb ought
Ġar rested
lit z
ĠRes et
O H
ĠDe fa
ĠEgy pt
Ġf as
)$. }
olog ists
c rypto
Ġ& (
Ġsupp lement
ĠCh ain
k im
re lations
sc i
Ġconv ection
Dia gram
USE D
S hi
os cil
Ġfra ud
Ġrac ial
v w
h f
}) .}
lat in
Ġmedic ine
i ang
Ġm ounted
Ġadjust ment
NO WN
ĠBri an
ĠG ree
Ġsub category
Fin der
Ġavoid s
Ġs tim
Ġminim ized
I MAGE
thin space
ome tries
Ġpe tition
in side
ĠB run
ms kip
Ġrele ases
Ġi ii
Ar chive
Ġd w
Ġman aging
dep loy
Ġvio lations
( ",
sho ck
Ġre dis
ol y
ĠFI LE
ĠTo gether
Ġhard ly
at us
Con version
Ġpre val
ĠS lo
At tempt
Bo ard
Ġconcent rate
] \,
ĠAll en
transp arent
mark ed
IT S
effici ency
J D
Ġme ters
L ipschitz
22 8
ING S
0 27
cre ation
6 55
)$ ]
big vee
Ġvio lating
sw ift
Ġ Å
Ġpur sue
sub str
22 9
Ġconju gacy
ĠÐ ¼
Ġopin ions
Ġt ac
vari ety
Ġmal icious
aspect ratio
ĠP it
19 43
Ġellip soid
F ee
he ap
cyc lic
char ged
quar ters
in ations
Ġw elfare
ĠD id
Ġheight s
C AP
ĠB B
Ġor ig
Ġdifferenti ation
ĠD est
Ġface t
Ġpromo ted
Ġcross ings
ĠBro ok
}( -\
Ġac tively
Ġcall backs
ĠApp ly
Ġmet als
Comp osite
Ġrad ar
Ġ| ^
Ġdiscuss es
ĠB ose
R x
per form
ĠSt and
Eq s
Ġf li
R v
m ig
Ã ¥
Ġs napshots
ĠS ound
Ġshoot ing
=" //
U tilities
ff ee
Ġcontra s
Ġconduct ing
Ġsil icon
Ġaccommod ate
Ġpresid ential
as er
ĠEvalu ation
Ġvor ticity
Ġb acter
mix ing
Ġattor ney
ĠRam an
Ġpla cing
: \\
Ġ} ));
ĠX X
OP EN
Ġamong st
Res olution
Un lock
On line
Ġstart up
arpo on
pro blems
Ġpr icing
Te le
ĠAccording ly
Ġs aving
Di rac
Ġtriang ulation
y x
Ġn ations
ĠCal led
Ġoper and
c ence
Ġ till
ĠCOL SPAN
ol ars
combin ed
Ġre start
Ro tation
U i
define Property
Ġoscil lators
Ġcol linear
ul pt
center ed
, ''
s ong
ffff ff
C e
Res olve
Ra ises
con cept
Ġ\ }.
Ġ$ +$
ast ro
dic ation
Ġtend ency
Ġmask ed
IR ST
Ġcus p
Ġscan ning
achel or
c am
Ġfo cal
ĠD omin
Comm ands
M ULT
igen ous
DE VICE
inst ances
2 99
M ul
b X
}{ }{
algebra ic
J oint
{ }_
de velopment
Ġtop ologically
defin ecolor
ĠTur k
st udi
var kappa
'' _
3 70
Ġre serve
Ġtran sf
* -
Ġ" :
Inv ocation
TH E
ĠOff icer
ess ment
REQ UI
el ia
est ors
Ġ. \
Ġpro ud
ĠG M
Ġfree ze
ĠIter ator
' "
M icro
Ġm oral
Ġj e
Ġv ib
de gr
calc ulated
ĠSta ge
Pre view
Ġcon vective
ĠL ady
fin es
llig ent
worth y
Ġsu i
ĠPro file
24 6
ov ich
Ġcar ds
ĠC MS
Sub scri
Ġdemonstra ting
cep ted
}$ =
wh el
ST EM
ĠMulti ple
organ ization
Ġproble matic
C op
Ġmod ifying
ĠF er
4 95
Ġpos it
Im g
Ġ} (\
Ġ# #
it arian
ĠB oh
ĠO DE
Ġdecoup ling
d q
ĠDis ney
ĠSh ared
ĠS av
Ġres ol
A ctor
id ge
ĠS ong
$- $\
ou x
ac tivate
Ġan ne
P aren
conf irmed
Ġpen et
× Ķ
ĠR TC
Ġcomp ositions
Q UE
he ating
Json Property
oscal ar
L uc
L IB
symbol s
Ġre jection
cont ract
loy d
ĠA LL
Big gl
Ġoffic ially
Ġv en
Spr ing
n v
25 7
Ġ- &
Ġantis ymmetric
Ġd type
re action
Ġdecomp ositions
th s
ĠR ather
su it
Con ditional
ĠDu ke
| |_{
ĠRE AD
ĠQu estion
ogni tion
ĠDis play
k ed
Ġassoci ations
Ġbin omial
^ (
Ġread out
Ġthermod ynamics
F K
Ġf irms
gre y
N B
[ <
ri m
2 18
32 4
ĠMark et
Dec or
Ġweek end
Ġb orrow
field set
Ġpor tions
Ġcon ce
24 8
ĠR A
Ã ª
ne e
ĠAr gs
0 18
C lone
Ġattemp ting
Ġd imin
_{ _
to o
output s
Ġac id
ĠS GD
32 7
Ġe at
"> ,</
Ġ@ {
ID s
pol ymer
I ts
ĠÐ ±
Ġquar tic
AC HE
Ġview point
}\| _{\
ä¸ Ń
Ġ ,\\
id i
ĠFunction s
o auth
dete cted
ver bose
ĠH H
requ ests
Ġanti fer
Ġvacc ine
ĠR os
ĠSy d
ĠST AT
Ġdiscontinu ity
Input s
Ġasser tions
d E
Ġra ising
Ġen gines
}}{ {
}\ }\
az el
Ġcoun sel
Ġsit ting
hl js
Il legal
Ġreg ulatory
Ġemplo ys
C ube
Ġc av
FA I
Ġulti mate
ĠM ode
p referred
ĠKore an
ĠA rc
Def aults
Ġspeak ers
d os
k T
ĠF T
Ġlo ts
log s
cut s
ress or
F ore
Ġti les
Ġâ Ĩ
ill ary
Tok ens
ven ted
M ount
ĠS el
get Elements
ĠZh ang
OD Y
^{( -
Ġneighborhood s
Ġtang ential
ĠHy per
vers es
ATTR IBUTE
Ġpolitic ians
Ġcoun ted
ani mate
FO RE
Bel ow
ĠV L
is omorphism
Ġani mated
Ġtal ks
Ġpack ing
ÐµÐ ¼
Get Type
ĠMax imum
Ġ ub
Ġsc ans
}} )}
ĠV K
Ġref used
}\, (
Ne gative
Ġcooper ative
Ġpaint ing
Ġch at
Ġadap ter
Ġw aven
Match es
ĠL td
ĠT ai
url s
ĠState ment
ĠI r
Res p
A rm
e asy
ĠF an
ata ble
Un fortunately
Ġdefault Value
DO CK
Ġsix th
sh ader
ob server
en ix
sub fig
ĠĠĠĠĠĠĠĠĠĠĠĠĠĠĠĠĠĠĠĠĠĠĠĠĠĠĠĠĠĠĠĠ ĠĠĠĠĠĠĠĠĠĠĠĠĠĠĠĠ
per turbed
' }{\
h ub
-- ;
Ġpa ired
\,\ ,\
The ory
ĠN iger
vers ing
Ġestablish ment
25 8
ĠB ible
orre lation
Ġign oring
ĠCom ment
ĠValid ation
Ġop tics
Ġobser vers
y ard
Ġm ess
ĠV illa
)) (
corre ction
o les
ĠE nt
I ssue
ĠDe te
Ġaccum ulation
od b
ĠIs lam
Ġsmooth ed
Ġtrig gers
Ġgener ically
ĠSe lection
corre cted
vi tation
ĠU pon
Fatal f
] ^{-
s aved
con duct
Ġinter play
D ER
ĠA BC
qu it
ĠHe ader
"> "
p oll
Ġal ive
Ġbur den
] +\
over y
Ġmod est
rem um
ĠD ynamic
ĠValue Error
ID S
sp read
}$ }}
\! -\!
nov ation
co efficients
âĢĻ ,
Ġup stream
re cv
Ġtr uck
rece ive
ine quality
Ġdo cker
optim ization
$ )}
ĠP or
ra ther
Th anks
ĠE vents
Ġ" ./
Ġwave form
25 3
eto oth
Ġcondens ation
in stead
ĠB ureau
Or ganization
Process ing
h int
Ġre calling
ot ter
ser vers
30 7
SE CON
Ġa side
ta ctic
Ġgeneral ised
Ġreci pient
[] )
H B
Ġrep utation
Ġo wing
Hel pers
mas sive
Ġdivis ible
Ġa st
Ġd p
ĠB og
Ġsign ing
LE FT
Ġcla uses
}} }^{
Ġcommu tator
Ġ! !
ĠV a
Ġdri ves
l isted
Ġmonomial s
are to
pos it
R pc
Ġk a
ĠOb viously
Q N
ĠA zure
RE C
consider ed
e i
ĠP latform
M G
Ġsem icon
ĠS MB
ĠLe vi
ga ussian
Ġr uling
Res ize
Ġcharacter izing
}}, {\
en tative
ĠOr gan
ĠG A
Ġper ceived
Ġapplic ability
Ġ[ #
ĠDis tribution
Ġcoinc idence
D W
ĠC over
Ġbreak down
ĉĉĉ ĠĠĠ
ĠFirst ly
f eld
un def
con tribution
CH ANNEL
Ġdiver gences
ĠBern oulli
D ATE
Ġunivers ality
}= [
ĠComp uter
Ġparticip ating
ap id
Ġtell ing
ĠOlymp ic
Q M
C ut
Ġ} _
E B
Ġ Ø§
ĠR ate
Ġrapid ity
Ġtransmit ter
morph ism
he avy
}- (
"> &#
MA KE
Ġestablish ments
ĠExt ra
Ġconc ert
ĠP N
ynam ically
Ġeven ing
R u
ĠFI X
sched ule
60 1
Ġcelebra ted
s ymp
ext rac
ĠQ t
Ġassign ing
Ġsac r
um mer
Ġl ingu
Ġcent uries
26 2
b rew
ĠMin nesota
C FT
al lation
Ġc p
Ġin elastic
Ġm ount
c amp
AT T
Ġset Up
T K
ast ers
ch r
ĠL yn
get Logger
ke eper
D ark
i la
fl align
fin ish
Ġmon odromy
pi ents
amil ies
F ACE
Is Null
triangle left
tr ust
ass erstein
ĠCO M
8 75
ĠA mb
clo s
ag le
~ }
ĠSt udent
ar ticles
du st
Bo ost
ĠK lein
typ ed
Spe aker
4 20
ane ously
Bound ary
Ġpublish er
ĠU C
Ġkey words
Ġenem y
ac tivation
Ġvis iting
ĠAtt or
T ON
Ġiso spin
ber ry
ĠBe gin
STAT IC
ĠCl inton
ĠWis consin
ĠN ick
so ck
Ġsla ve
S ug
Ġd v
Ġiter ated
Bbb k
Numer ic
& {\
Ġorigin ating
s ph
in ery
st ock
Ġacc used
Ġquadrup ole
ĠNo tes
ur g
l uminosity
{ };
Ġinser ting
Ġ$ >$
(\ |
ĠM icro
Ġload s
ĠH ot
w f
fig ref
ĠHar vard
ĠU P
auth ors
ill en
Ġhome omorphism
Ġdefe ated
Ð Ł
ĠB ody
con cent
Let t
struction s
Or d
Ġgather ed
s orted
H uman
cap es
Ġcomm uting
ref n
)\ |_
] }{\
ENT ER
lor er
doc umentation
ĠGold en
W u
ĠViet nam
G K
h orizon
40 3
NAME SPACE
re cent
get Time
Ġfla tt
Ġti ssue
ĠFe b
Å į
Ġappear ances
ĠE ll
ac s
Ġsh ed
fill Color
Ġatten uation
j es
ĠSh ape
Sm ith
t ls
ma ker
Ġdes criptors
Ġiner tia
Ġbounded ness
Ġ$ ("#
ĠA k
ĠM n
ĠN FL
Ġconv ince
ĠT ar
ĠS TD
Ġle gs
Big gr
}} }^
Dis able
qu ant
ĠM es
rid ges
ĠDoc umentation
xx x
> {\
cccc cc
Dependency Injection
D iffer
Ġc aching
Ġth umb
Alloc ator
Ġpol lu
c rop
n om
ref ox
Ġ/// <
s ink
HEAD ER
ĠCl ark
ĠLay er
ĠS eq
Ġ\ },
ĠMo on
h ler
Ġto ugh
end i
ĠA verage
ĠCon v
Ġz ip
G i
N or
w idgets
Get String
L ess
Ñ ī
Ġcorre lator
Î ·
sc enario
pos al
â Ĩ
cover ing
] _\
Ġm illiseconds
}_{ (\
Ġro tated
ad get
sequ ential
per ience
28 6
Ġrestric ting
Con versely
30 6
22 3
Ġfe es
ĠB ottom
squ ared
suc ceq
S trip
Ġg y
G RE
ĠB reak
ab lation
Ġexp ense
ard o
Ġdisc arded
node Type
Coun try
Ġf iring
pdf string
Com ments
Ġformu lations
S dk
assert Raises
ĠO B
select font
Ġwave let
ĠG reg
Un like
IEEE eqnarray
el lo
ĠD W
z an
$. )
as ta
tex or
RO P
AD DR
Ġsome how
la unch
Ġsequ entially
loc ated
CK ET
************************************************************************ ****
Ġev al
ange vin
Ġme mo
Ġst reets
ĠDe ad
ĠRuntime Exception
Ar ticle
calc ulate
0 45
ĠH it
SY S
ĠDi agnostic
Ġexam ination
Star ted
ec tic
ĠP ier
IC AL
H ilbert
Ġcon test
texor pdfstring
ĠF ock
Ġcommu tation
Ġra ises
ĠMary land
Ġshould n
ĠERR OR
ĠCurrent ly
L G
ĠU pper
Do es
Ġtrack er
W itten
x r
Ġste el
vis ited
ĠRec ent
Ġcancel led
Na N
is i
ĠD rag
ak s
Ġany way
ellip tic
Ġsurprising ly
Ġleak age
m ysql
end o
ĠEn sure
Ġen orm
Any Ref
Ġnecess ity
ĠSci entific
; {\
Q S
eder ated
ĠR ose
mod ular
v l
Ġemer ges
Ġsympt oms
st en
Ġun directed
A rt
J J
U TE
ĠT X
PE G
Ġdee med
ĠM AP
ap ing
ma tive
Ġswitch es
bro ken
indic ator
ĠW R
A ge
ĠAg reement
Ġout break
& \!\!
ta ils
Scal ing
ma ils
ĠO regon
ĠTr igger
re store
ĠM ount
ur us
Ġc lic
}} }$.
Ġped estri
ĠD T
ĠL am
Ġbu ffers
itzer land
ides pread
Red irect
: \,
Col ors
Ġstabil izer
FLA GS
Ġe mu
Ġequ ilibria
prevent Default
3 12
Ġc able
): \
occ up
Ġro ads
Ġconstruct s
g ol
ili ation
Ġclar ify
comp osition
gu id
ĠF oo
/ }
mi tives
ta h
reat ment
Ġd S
kra ine
ĠA udio
Ġst orm
ĠSch ur
rol led
single ton
ĠV k
^{+ }
Ġgraph ics
filter ed
as ym
inter actions
ĠG ab
Ġla p
Ġobsta cles
ro ck
Ġsimula tor
supp orts
40 8
Bet ween
ĠD AG
ĠI de
0 26
ĠID s
T oday
Ġen compass
ĠSyd ney
c um
Ġimp ressive
H it
en ched
19 35
30 8
I refn
Min imum
Ġvisit ors
g alaxies
) ',
6 50
is cal
ĠIn fo
ĠInt roduction
ĠL ind
ĠH aving
Ġparameter ization
CONT RO
ĠIndi ana
Ġl ifted
Ġb ranes
om on
ey er
Ġtw in
L ater
is te
Ġlog istic
get Default
ens on
W L
Ġ| {\
ocomple te
ĠTran sp
ĠC lean
< >(
@{- }[
ĠO cean
Sub mit
T l
Ġlater al
Ġdiagnos is
en umer
ĠB ou
C AT
z ar
Ġcan ce
string ify
Ġme l
18 00
Ġcomple ting
24 3
amp ions
Ġaxi om
Ġrepul sive
ĠE OS
Ġcondition ing
ĠC orn
comp ared
Ġb b
on der
ĠP lugin
Ġcorre lators
Ġdete ctable
Ġpartition ed
GEN ER
ĠHigh er
ĠGa ia
Pro f
ĠCont roller
ĠL C
or di
Ġcy ber
ac ute
ĠAc tivity
ĠTran sport
Ġdis tricts
Ġdisorder ed
Ġbu mp
ĠCar l
ĠHar ris
ĠStar ting
P Q
c py
å Ľ
Ġair port
25 2
pro x
bu ffers
Ġpre condition
Un expected
scal es
ĠB ir
Ġdrop out
Ġgra ding
\% $,
Ġoscil latory
Ġmus icians
ĠTur key
Ã ¸
20 48
Ġco ales
Ġste m
Ġdepart ure
ni kov
ĠEn um
Long rightarrow
repres ent
termin al
Ġun necessary
ĠCon tact
Ġs chematic
D an
ĠDE BUG
ĠF F
tic ing
er or
wik ipedia
ĠRegion al
Ġ\, {\
ession al
Ġassert False
Ġdebug ging
4 60
Su ffix
Ġb omb
Ġimp l
Ġdirect ors
Ġquanti tatively
ri k
sta tistical
Ġlo s
66 7
ĠBOO L
' )=
ĠHou ston
b ys
Ġsub sidi
medi an
Al tern
si le
ĠB essel
M en
Y P
Ġv ent
} `
Ġh az
cal ib
P at
w l
Ġcolle agues
Ġsing les
: /
Ġengage ment
\ }^{
32 8
Ġ{ !
ĠR ank
SD L
Ġel imination
Ġbro ke
Ġneutr ons
ĠR HS
Map s
Ġsuffer ing
Ð½ Ð°
Str ong
Ġvola tility
ĠMem orial
Ġfila ments
RO C
se ason
lo ose
Ġinvi ted
Ori entation
decor ate
Ġtreat ments
es ium
Ġfore sts
(' ../
Ġpay ing
Ġ/ ></
Ġfem ales
Ġsustain able
W al
DIS ABLE
}[ ]
ph ic
ĠK h
)| ^{
Ġgradu ated
Ġc ab
set Value
K ar
estab lished
ĠK er
satisf ying
identif ied
_ -\
d ar
Ġat tain
Ġint rac
ĠFin ancial
Ġst y
iter ation
ĠB PS
Ph ot
Ġfinish es
stru c
_* (\
Ġin distinguish
cor o
ACCE SS
Ġg fx
Ġfe els
CO PY
H N
ag on
Ġblock ed
Ġgovern or
tech n
man ual
×Ļ ×
get Current
top ological
Throw able
E urope
Key board
| /
ĠM un
ĠR yan
Cur ve
ag u
ORM AL
U INT
t ension
con taining
C W
ĠE s
Ġexper tise
ĠAd ds
\\\\\\\\ \\\\\\\\
A mp
ense m
depend ing
mark et
Cur rency
Ġun safe
Ġti cket
24 4
Ġconstant ly
29 6
G rant
an other
Ġshow er
te o
ai ro
y ml
Ġproceed ing
ĠR ect
Ġte en
Ġoff ices
Ġ ].
Ġat tractor
Ġgroup ing
CA SE
Ġenerge tic
rom ov
ĠT ony
ĠSp ect
C oh
ang ers
[ ],
Ġsort ing
Loc ator
ĠW ard
Ġres cue
30 9
r put
ma pper
No tify
P lus
(" [
base lineskip
Ġbutton s
F ollow
Ġdomin ating
Ġgroup oid
IT ER
Mar shal
it ored
}/ (
Ġdoc s
Ġshell s
PROPERT Y
gra ding
Ġtermin ate
FAI LED
N u
as List
Ġburn ing
ĠGit Hub
ĠU T
uma bly
($ _
F lush
ĠRes pond
I de
ding ton
)\ |_{\
CP P
ĠDemoc rats
an im
Ġel igible
en space
Ġreprodu ces
Ġtax es
ĠCap ital
Ġs oul
Ġmaxim ization
Ġ\ @
ter rit
Ġwar nings
Ġ )$.
Ġd ial
ĠN an
Ġal cohol
end l
Sched ule
acknowledge ments
Ġun set
Ġconvers ations
Ġcontro versi
mit t
Ġ" ");
ĠYou Tube
ĠA pi
Ġref lections
p ion
s ap
Ġt body
Ġs lit
i w
ON LY
Ġtransp ose
Ð¾Ð º
Ġrestric ts
Ġencoura ged
Ġdocument ary
me th
normal ize
Ġsp ite
Ġclub s
IN LINE
Ġcomp oser
embed ding
ĠC WE
Ġwin ding
local ly
3333 3333
mak ers
( %
level s
Ġrecor dings
Ġglu ons
Ġdi laton
ĠHar ry
h k
ĠN IR
greg ation
ĠM enu
Ġun correlated
Fin ished
correspon d
App ear
ĠSwed en
x ref
ĠV or
Av g
tat tr
ĠProv ince
se ctor
19 37
t odo
in fer
hy brid
Ġexam ining
DEF IN
ĠCor ps
Pa per
in z
ra ses
Ġa mple
other mal
ĠCl ifford
Ġneighb ours
}}_{ {\
ned y
sk in
pr incipal
rece iver
ĠK os
ĠLo ss
ĠL MC
success ful
adam ard
: _
M arch
ĠFe atures
n ie
ert z
ĠCa simir
M il
Ġsh op
Ġgu ys
ĠSw ift
Ġlong itude
9 78
G UI
ĠS ide
Ġrep lica
-------- -
ax ial
allow s
Ġser iously
ennes see
$ ''
Ġpre ced
27 7
Ġproceed ings
Ġmonop ole
Ġchar m
ĠComp uting
Util ity
ĠType Error
un stable
Ġ ties
Ġbubble s
P ull
de leted
Ġ/ ><
ST REAM
pr ising
ĠInitial izes
ĠW el
Ġlaw yer
34 8
c out
ĠG h
d N
Ġre versal
Ġprogen itor
19 36
Ġintern ally
Ġtwe ets
b lo
IC S
J ames
b ord
Ġpul led
19 18
mog orov
for um
Ġfac ial
oc a
Ġthem es
ĠMay be
Ġelabor ate
b ic
Ġharmon y
æ ī
Ġro yal
tab End
R oman
Ġsti mu
Ġmunicip ality
Ġdis advan
ick ing
ĠCNN s
u ters
ĠCont ract
b ash
Ġsub class
C LO
ĠEq n
Ġev t
Ġcompact ly
Work flow
i our
b ubble
Ġde coherence
Ġb a
car ousel
Pro jection
33 7
Ġh ack
] ));
arch itecture
ba ma
E ducation
\!\! \
ĠD F
gra duate
Ġ[] *
Conver gence
Ġpropag ators
Ġwork space
ra ge
Ġreal m
b ine
Manif est
f re
Ġsusp ect
Ġde coded
ys cale
Ġla zy
ĠSu ccess
Ġso il
OFF SET
}} }$,
os ph
Ġsec ular
mon o
bar a
f ee
Ġw idespread
il ty
ĠD ist
0 60
Ġlad der
APPL ICATION
)\ ]
ĠCh andra
char set
Ġs ibling
ĠH RESULT
id ential
ĠM IN
D AT
Ġman agers
Ġboun ce
V B
the ight
Ð°Ð½ Ð¸
Ġan ticip
ĠDe ath
ome d
Ġsub tree
AT IVE
Ġthought s
pp y
Ġro oms
GG ER
similar ity
ti um
oc entric
file Name
Po sitive
Ġabsor bing
ĠRail way
27 9
Initial ized
Ġinv ocation
Ġconver ging
Ġemit ting
}) },
ĠWork s
The ir
ĠC ome
ĠD ream
ĠE E
av atar
Ġover whel
Ġu uid
C riteria
Ġf estival
Ġtrac table
{\ ,\
qu ire
Ġwor ry
XML Schema
Ġmultip let
ĠP ART
ĠHub bard
Pri or
Ġsoft max
- ,
DE SC
}~ (
19 38
Ġsatisf actory
}$ ~\
ĠS n
Ġgu ided
' }$,
I a
call s
ĠIs a
UL AR
Ġra tings
Ġunit arity
Ġvo ted
onom ical
x ff
be y
------------ --
State Exception
Ġsit uated
extrac ol
ĠB ranch
Spe ech
Ġoutflow s
Ġdiver ges
in dividual
Ġsome where
Ġalgebra ically
Ġdiscre tized
Ù ĩ
uc l
su gges
ĠAl loc
Ġperco lation
Ġ= -
ĠA belian
Ġcar riers
32 9
Ġmetallic ities
extracol sep
g lass
25 9
m h
Ġresource GroupName
Ġindu stries
Ġspher ically
Ġcompe te
Ġaccompan ying
z ag
ĠO li
IS A
Ġloc ate
ĠB atch
ĠVari able
H en
{ }$
be h
Ġsw itched
emp loy
ĠLorentz ian
ä» ¶
re try
, %
Ġexhib ited
labor ation
s pherical
ĠS ame
reg ression
* >
Ġb om
Ġpla tes
ĠD iff
integra ted
app y
(( (
Ġtransform ing
s x
in el
Ġtown s
Integra tion
ĠS DL
Ġper mits
Ġtra ced
" ][
') ^
ene z
Ġdemoc racy
Ġbr ighter
: .
Ġme d
ĠLe on
}$ &$
Ġgen re
Ġconstitu ent
w estern
ed ral
A ws
ĠOb jects
Ġfol iation
ĠW I
ĠPro tection
Ġad option
Ġ\! \!
measure ments
c xx
ul li
Conn ected
Ġbal ancing
Ġparse Int
Ġampl ification
3 64
bl ur
w c
to k
il ds
is Valid
n ets
t om
ĠT ax
t une
C ached
Ġ` $
ĠC zech
Ġengine er
st rength
ĠS ti
Ġper spectives
ĠA h
Ġclean up
Ġc lim
ĠÂ ·
ref lection
node Name
ĠC ONT
Ġcharacter izes
Ġinit With
ber ta
Ġborder s
Ġcongru ence
Ġmonth ly
ä¸ Ģ
ĉĉĉ čĊ
ĠI ce
Ex ecu
col s
Imple mented
]] ></
================================================================ ========
ĠT ypes
á »
ch ip
ĠĠĠĠĠĠĠĠĠĠĠ Ċ
Ġcal or
Ġsimpl ification
AS K
Ġnarra tive
studi ed
getElements By
| =\
ĠCO MP
$-- $
w y
Ġequ i
Ġtra pping
theore tical
ĠT CP
ass ignment
Ġc d
di table
for table
Ġde fer
A ir
B tn
ĠO sc
to f
Ġintel lectual
ĠM echan
Ġde leg
im an
i tations
Ġt on
ĠF ed
Ġat titude
ear n
' </
T an
ĠM ix
Ġhas n
Hand lers
NU MBER
fla vor
ĠSy ria
ĠC ME
N LO
ĠL ess
Ġo ps
Un ion
inherit doc
t rees
Ã ½
ĠDefa ults
ren ormal
to ctree
Con d
TO KEN
lis titem
ĠB LA
ĠĠĠĠĠĠĠĠĠĠĠĠĠĠĠĠĠĠĠĠĠĠĠĠĠĠĠĠĠĠĠĠ ĠĠĠĠĠĠĠĠĠĠĠĠĠĠĠĠĠ
Comp ile
qu eness
EN S
Ġquan tified
then Return
Ġheav ier
Upd ates
d ote
ps line
Ġimm igration
Ġpo set
w ig
)) {
Tw ig
ta p
)) :
ĠSh er
lo so
ER Y
list en
ĠT en
vari ants
la v
B lo
CLI ENT
ol in
Ġfail ing
d W
ag en
ĠS EC
ĠRo berts
Ġantic ipated
me ters
An swer
Ġredu ctions
ĠI a
ĠRed is
/ ******/
TO P
Ġpublish ing
ĠT I
ag g
ãĤ Ĵ
Ġdiscrimin ant
Ġincrement al
Tar gets
ap tic
Res tric
}| |
PR B
f ts
la x
=\ ;
Ġte lescopes
Ġinter cept
27 3
ab o
ĠAr thur
hu ang
Ġla ugh
Ġkey board
Ġco set
Ġar med
æĺ ¯
{\ #
ach ie
Ġtra iling
ĠR M
ĠPer iod
or ded
ĠN ation
66 6
J e
ĠB all
Ref s
f id
28 7
Ġrefere e
ĠAuth ors
f ocused
ĠF ake
TIME OUT
bour ne
Ġarrange ments
ĠB SD
Ġdesign er
Ġcon sumed
Ġclu mps
mag net
ĠE pis
LO CAL
Ġsuccess or
Ġann ulus
comp iled
Ġl ane
ac ent
ĠF all
process es
Ġover lay
Ġvola tile
cc i
Ġtr usted
}} }}\
q n
Ġd c
up ta
le ast
ĠArch itecture
ta tivity
si zes
ĠY O
C ycle
W ater
y outube
| \\
Ġlocal ity
tra ject
Ġplain tiff
Ġdis continuous
S b
ĠQu ar
D ie
ch ing
Ġl t
evalu ate
O DE
R Q
erm ite
ast y
De finitions
78 9
Ġdecoup led
Ġre named
he im
IN R
Mu tex
s lug
G PU
n ick
|| _
Ġenter tainment
Sample s
Ġther apy
PI C
re ve
24 2
> ";
Ġdevelop s
C lassification
Ġcompu table
LOB AL
S Z
big otimes
ym orph
ump y
ul ant
co ins
tis ation
ĠA bs
Ġremn ant
Ġal beit
comp ressed
Ġdemand ing
B IN
Sh ard
unit ary
conn ections
Ġl uminous
ref s
Ġs or
po or
Ġwor lds
CL UD
}$ ]
}} )^
ĠD iffer
ĠE mer
pro jective
B ounding
V L
AR M
ĠM ountain
ĠMat thew
Con tainers
ĠCheck s
m ia
Ġtop ologies
umin ate
correspon ds
Ġsup remum
it ol
ur ers
Ġutili zes
Ġfas test
M igration
CLUD ING
Ġhyper parameter
Ġsuff ers
Ġf undam
Ġ' )
Ġer up
rb an
per fect
Ġsh el
j ohn
Ne u
Ĥ ¬
ĠN u
print StackTrace
Ã§ Ã£o
)\ !
cat Desc
Par a
ĠHistor ic
Con struction
Ġsepar ator
ĠJ O
Et Al
24 9
ug by
Ġn eck
)) -
tor us
wart z
ĠM OD
B ell
Ġl n
Ġmand atory
F ran
ro tating
ĠS ie
Ġhalo es
K u
âĢĻ .
44 4
Ġc ata
ĠC CD
Ġpoly g
Ġh at
defin itions
Ġliber al
M usic
Ġw et
{\ |
resource GroupName
Ġprepar ing
\ }\\
key words
My r
b vec
un til
ho o
ĠAr gent
19 33
Ġenumer ation
appropri ate
ab und
Ġcor onal
V ote
; ]
Ġchampion ship
ct ype
Ġas ks
TH READ
ĠA gent
soft ware
QQQQ QQQQ
Dire ctive
Ass ertion
Ġpre decess
Ġnormal ised
Ġdiff usive
Ġver ifies
Ġsearch ed
orbit al
Ġpredomin antly
t um
ĠH S
ĠCon vention
Grid View
ma ble
i tive
Ġwe ar
Re po
CharacterOffset End
CharacterOffset Begin
b age
IC K
a side
ĠS ix
Ġdele tion
; "><
ric ulum
Base line
sp l
ĠTH IS
re spect
pro mpt
roll ing
Ġdefe at
ĠAuth ority
Ġdras tically
ropol itan
if false
ĠM ul
ĠSta tistics
$\% $
Get ter
SO s
Ġrestaur ant
Ġcor ruption
ĠPat rick
pur ple
ĠAttor ney
Ġs ens
ĠSta tic
Ġsol vers
ĠE L
v ich
Ġac yclic
å® ļ
Ġresemble s
Ġsemis imple
Ġco ded
su ffix
Cred ential
Ġtransf ers
q i
re ject
ener gies
Ġdi am
conj ug
g old
ç ½
col n
ĠP et
Ġrelation al
ĠP P
. {
80 2
ĠW inter
Ġsee ks
D ro
ĠW ol
Ġr t
cur vature
Ġport ray
Pro jects
log arith
Ġtra il
max im
ĠL A
M as
Ġrestric tive
Ġinflation ary
ĠO t
Ġinnov ative
ĠC N
tim ing
x C
Ġ= (
Ġcompac tification
G re
Th umb
Ġe dited
Ġinflu ential
%%%%%%%% %%%%%%%%
o si
Table Name
ch rom
ĠH ER
Ġprob able
Depend encies
lin eno
Field Value
ĠPre dic
Ġtit led
ĠS in
Ġ< ![
Ġfol k
m outh
Ġmagnet o
V an
Ġorigin s
ĠY ES
gr ic
! ");
E uler
F requency
Ġc rop
ĠH eart
Ġcar tesian
Ġviol ent
m rm
^{* }\
h dr
ĠP V
g ene
ĠB rand
j as
-------- ---
en kins
å º
)) ]
æĸ ĩ
UB LE
Ġs quad
ĠB ishop
mathb old
Ġpress ures
g ender
OUT PUT
Ġsc in
Requ ested
U r
Ġcons isted
Cont inu
Ġconfir mation
repres ented
Auth entic
allow break
CV PR
I r
Ġ$ }
ĠCal abi
Ġinsp iration
Ġd ama
Ġpre defined
ĠM ER
go als
Ġlear ner
26 3
6 000
Ġob s
Ġanc estor
Ġresis tivity
K now
f ew
Ġw id
ĠM ask
ectic ut
Ġbe auty
Ġjuris diction
Ġpro tot
ĠM SSM
ĠE oS
Ġiniti ative
Ġess ence
Ġcan on
Ġinter change
ĠSecond ly
ĠAT LAS
reco gn
G ar
ĠD yn
ig ator
ĠE uro
Ġprocess ors
Op ts
~ ~\
}) }.
Ġh ate
{- }\
oul der
Ġfavor able
Ġf u
Ġvis ually
ĠB urn
>< ![
il lo
Ġsub graphs
itro gen
ring e
Ġinstant on
it ants
ay ley
Ġs ad
pe ople
in ely
de ps
Ġ) );
Ġflu ids
29 8
ĠD ur
ors es
*} %
AN GE
Ġsemic lassical
ud o
Ġpri mal
28 9
Content Type
clip se
ono i
Ġill ness
Insp ector
Ġm ales
ĠA z
Int ro
Ġintegra bility
Ġheter ogeneity
ĠR an
Ġset Timeout
Ġrest oration
=" ./
28 4
arg max
Ġpur ple
Ġres um
rac tice
man aged
tor sion
Ġsl iding
ct an
app lications
Ġhor se
far cs
B ODY
RE L
read able
Ġexhib ition
ĠAPI s
recor ds
g pu
ĠTh ompson
ĉĉĉ Ġ
] -->
ÑĨ Ð¸
chro matic
ĠM art
Des erial
D K
ĠM ars
Ġst oring
R NN
st ress
19 34
ĠK ir
Experim ent
Call backs
Ġins ensitive
ĠTR AN
Ġsp ir
li ved
ĠG ate
Ġte mple
\! =\!
Ġho oks
ĠMa gazine
f lash
Ex ist
B io
) ");
xy z
) ";
Ġgeome trically
re search
Ġ[ {\
Ġexemp l
Ġw it
Ġl hs
Ġspirit ual
{ }{\
class path
AC S
32 6
ĠM oh
get Context
25 1
de e
sol ar
ĠD rop
^+ $.
B orn
ĠS G
Ġ( ;
W alk
ĠF actory
ĠO cc
P haser
Ġunit al
Ġstack s
out line
un ed
ĠB T
ĠZ ero
Ġdepth s
å Į
h owever
ĠS ymp
Ġauthor ization
ĠAm endment
}) ),
Ġoccur rences
query Selector
TO O
Ġ ic
comm unity
sh iv
29 7
Ġto mo
Log ical
$}} ;
ch iral
{ =
ay an
x d
26 7
Imp orts
Ġcon d
Ġsh utdown
tim odal
enc er
Ġ" </
Work space
initial ized
Ġent rance
pa use
Ġillumin ation
territ ory
au ge
fe fe
qu er
Circ le
Mix in
Ġmatch er
GR AM
Produ cer
ĠI mm
clear page
Ġdu ties
Ġb irds
c art
NE SS
ge b
Ð ±
ĠLi ouville
Ġsynchron ous
S lide
or able
No tation
Ġtal ent
left margin
ĠCast le
Ġmod alities
70 7
S AT
ĠR ole
Ġscal ability
ĠPre vious
v on
ol er
Ġ$\ {(
ĠP G
ĠB iden
ĠL ength
ĠQ ED
Number Of
Ġf ading
ĠC reek
. %
ru led
g ium
short cut
andid ates
S Q
Ġpre cession
Ġcon densed
den ote
I tal
ĠB erry
Ġstand ardi
= </
ĠR ES
Ġ' [
Ġcontract ing
Ġcompris ed
K V
Ġpar liament
fin der
ot ype
Ġcon scious
Ġb rowsers
Ġev il
Ġsusp ended
Ġforecast ing
W ITH
ĠC ategory
40 7
Ġpromo tion
er vation
mem Item
ĠN ature
new theorem
K h
Ġb aby
Ġre vised
ĠIn f
Res pon
Ġf lying
ss h
Ġen de
ĠCon struction
id ently
ĠIm Gui
Ù Ĭ
=" <?
Ġcri mes
on na
ĠE lectron
ĠN R
Ġro of
Ġgra mmar
b Z
Ġlegiti mate
Ġreci procal
C Y
ĠBe the
ĠMiss ouri
Ġreti rement
D IV
ĠT ennessee
4 35
er ver
Re lationship
ĠSen ior
Ġdefend ant
Ġp ra
dire ctive
F ourier
f olds
Î »
ĠO s
Ġse ats
Ġim balance
123 456
Ġresid ence
( [\
Ġe cos
ren d
s yste
border ed
Ġbre ath
osc ow
N LS
Ġ`` \
ĠRes erved
b eck
es pecially
h en
W ho
ĠD ick
Ġbus y
at ta
}\ \\
Ġ" \"
Ġ/ .
Ġincorpor ates
Ġf ranch
Ġin decomposable
Ġver b
oll ar
Ġma c
ĠGener ation
Ġb ench
Ġpre ci
T ak
le ans
Ġm arch
Ġo prot
Ġstabil ization
i at
ale ph
ĠPh D
}\, ,\
S ocial
k ill
as sume
0 33
s af
Th ough
Ġpar allax
dis cre
d ou
NO TE
Ġun lock
ĠD imension
t ns
id al
ĠT LS
ĠO ak
Match ing
Ġcompe tit
Ġroun ded
nod ata
as cii
Ġback wards
ĠI owa
Ġpre gn
Ġc ler
r ub
l times
Ġ\ `
Ġch ord
Ġbroad ly
D et
li on
ĠAd ams
impro ved
4 48
Ġtw elve
C ategories
rm s
Ġequ atorial
Ġsepar ates
ÑĢ Ñĥ
VER TEX
uck er
ĠHa ar
Se g
77 7
Ġcentral ized
D onald
Ġp et
Ġn ick
Ġvio late
Ġglu ing
)$ \\
ĠBet ween
K F
ĠU kraine
data sets
Fin ite
T urn
"> '
L ists
Ġp df
ĠC DF
ĠU tils
Ġprac tition
Ġalter ed
Ġspace times
E OF
ĠL LC
ĠP ick
^* )\
Ġtransp arency
_{ *}
Ġun resolved
la zy
ĠK han
Ġrepla ces
Ġr v
Ġmaxim izes
Ġal leg
ke ley
ĠDe termin
ograph ical
hed ra
bal ena
Ġdele ting
Ġvis itor
polar ization
central ized
ĠDie go
) ];
Â ©
Ġ Ñĥ
Ġk ink
ĠRay leigh
long mapsto
Ġbrother s
color box
hol omorphic
Ġhist ories
L ex
g host
as ser
Ġne g
Ġdoc umented
j unction
Ġg ay
}] _{
Ġob li
Ġfile Name
unt u
sta gram
32 3
29 4
ĠPo inter
æ į
ĠBo y
http Request
tig ation
Ġjournal ist
Ġstiff ness
an alog
ĠA DD
Ġen umerate
Ġformat ted
iti ze
"> $
}}{ }
p late
Ġchair man
Ġa uction
19 17
F lo
tes ted
Ġcompris ing
h ear
y on
High light
N H
Ġsupp lies
ĠB EC
Ġanalog ously
ĠM ilitary
lu stra
Ġj udic
Ġcub es
V ars
ĠLay out
Ġd imer
Ġqu ies
Ġj un
ĠP ad
Ġcom oving
sen sitivity
inter sect
subset neq
mechan ical
] ",
ĠHaw ai
z u
oun ters
con sumer
Ġp index
Ġun a
inc ial
rece ived
ãģ Ļ
continu ity
ck e
40 9
C MS
Ġsh aped
Con ditions
Re trie
ĠN ich
Ġtext ual
Ġnovel s
)$ };
we i
At omic
local ized
Ġthe atre
sh rink
Component Model
ĠSp lit
tri ple
38 6
ĠPe ace
!! !!
Ch ina
}_ -
ĠC am
Ġtra v
Ġprofession als
ĠJ ane
ĠĠĠĠĠĠĠĠĠĠĠĠĠĠĠĠĠĠĠĠĠĠĠĠĠĠĠĠĠĠĠĠ ĠĠĠĠĠĠĠĠĠĠĠĠĠĠĠĠĠĠ
Ġinc en
T aylor
ĠT C
REF ER
Rect angle
Ġarri ves
er on
ch n
Ġpro jec
ĠM M
ty pec
vi k
uk i
where as
Ġ| |\
work space
}] }
Match ers
Repe at
ĠFellow ship
Ġp ow
] (\
Ġwonder ful
quoted bl
\ })$
vari ation
Ġcollabor ative
Ġm outh
ĠG amma
host name
pos able
Di amond
Ġfriend ly
D TO
g w
Form er
")) );
Ġpre processing
M artin
Ġl ua
pro f
Sim ons
B eta
t bp
get Parent
ĠU INT
Spec ific
Col lect
Null Exception
Ġmention ing
ma tr
text quotedbl
Ġrep lication
Ġtag ged
Ġ ĉĊ
}| =
Mac ro
T ur
ĠA UC
Ġsynthes ized
r er
Ġchar ging
acc um
P AGE
Ġy ards
ne ys
Ġaccept ing
MLE lement
34 6
}\ ).
ĠF ail
F lat
ran ging
B or
c N
un ist
ĠV GG
Ġtra its
Ġp iano
Ch rome
ĠRo y
Ġdomin ance
ĠPriv acy
ĠC U
Ġ) ^{
etro it
recur sive
Ġe leg
ver sed
B usiness
S tri
WI SE
ĠV ER
oura ge
B ot
| _\
() "
Ġdraw s
Ġobe ys
ĠInd ones
32 2
ĠR MS
Ġ- {\
CO RE
Ġd g
meter y
domain s
ĠS r
Ġover rid
cer ning
Ġmim ic
a con
ou sed
Ġstack ing
S emantic
^* ,\
Clo sure
G ordon
Ġimp ression
, (\
N an
ĠHel p
Ġ\ $
Ġ* */
Ð°Ð º
ĠMor se
0 80
ic ed
back ward
Ġarg c
ĠM aria
'' '
C ert
9 80
ĠP ed
34 7
Pr incipal
) )\\
Ġorgan isation
source forge
ĠCall back
m illi
Bal ance
Ġ" {
o on
ĠG ordon
ADD RESS
ĠP NG
P reference
o val
Ġagric ultural
app lied
Spr ite
in tern
Ġre bel
Ġconjecture d
mk dir
cred entials
8 85
et ale
ĠSil ver
ĠDo ctor
Ġpush ing
Ġinter views
lem ented
SC A
Ġcol lapsed
Ġinterpre tations
S and
ik a
Ġoccasion ally
ÃŃ a
Ġsh ader
Ġab lation
ĠDes cribe
A belian
ĠL en
ĠAl bert
arc ia
d as
ĠSwed ish
un s
ĠK u
J M
Ġ: \
ĠI SO
rc l
de ll
Ġnumer ator
D ensity
ĠSw itzerland
ĠM rs
os pheric
it ure
nav Bar
ĠComp aring
lo gy
C OR
P ur
in th
Or g
Pro cedure
Ġsugges tion
ĠN LP
We yl
ĠAct ually
port folio
Ġprog ressive
coun ting
Ġcompens ate
FAIL URE
:=\ {
ĠNone theless
ĠCalc ulate
E volution
work ing
ĠEnvironment al
q view
' <
} *{
Ġb ran
K R
19 32
b rains
de ad
Ġrep orter
un if
iv ely
Ġne bula
inherit Doc
ç ±
Res Net
A wait
æ ł
Ġwork load
ĠTrans fer
F u
H an
19 29
ll vm
~$ {\
typ ically
ĠCON FIG
Ġstr uck
Ġthreat s
ĠEn try
Ġb ending
Diagnos tic
Ġorigin ate
ĠLeg is
i ar
}) --
Out Of
ge m
Ġdrop let
Ġhit ting
Ġexc iton
pro posed
ĠP ush
Ġch unks
? )
Ġ( ((
Ġh emis
En tities
prov ides
ĠD ialog
em o
Ġmesh es
ER O
! âĢĿ
no break
_+ ,
lexi ve
Ġt ank
ple x
ĠM s
Ġti e
Vel ocity
Ġbo ys
Ġsub systems
ou in
60 6
IG O
=" '
ĠW E
pro be
ĠMan chester
37 8
ĠCo ordin
ĠComp are
ĠQ R
}}$ \
Ġsubtract ing
ĠC ole
}( |
predic ate
Propag ation
ĠJ ay
work flow
match er
Ġoptim isation
Ðº Ð°
ĠLik ewise
le pton
Ġorth ogonality
Ġ }\\
AL LOW
Ġrepe ating
Ġbary onic
Hierarch y
ĠP atch
co vers
Ġfall back
Ġemphasi zed
D ual
( ',
4 40
Ġdirection al
igu ing
0 23
S trict
h ai
Sc enario
26 9
Ġex isted
re tt
re lationship
)-- (-
ĠSchool s
G ray
F lu
Ġpo sed
Ġsp oken
ĠE ver
ĠSp in
c V
Ġex changes
Value Type
ro ots
ian chi
Bal ancer
ĠWIT H
ĠJ udge
lo on
ĠE mpty
Ġattack ed
Ġcritic ism
ĠN am
-> }[
Print f
ĠAla bama
35 5
co ck
uniform ly
,\ {
ĠG S
Ġver bose
j ee
l hs
la homa
ĠAr chive
ĠOper ations
DE S
P TR
S ensor
29 3
un used
ator ies
W ire
ch t
Th elia
' }_
ĠIn iti
7 20
Ġout ward
Ġvisual ize
la u
ĠLi u
ĠLegend re
ĠApp e
Ġreci pe
ĠO pp
)] ^
Ġci tation
ĠEV ENT
B ob
PI O
has Next
ĠSa fe
amb ers
al gorithms
Ex isting
gener ating
ĠAnd re
Ð» ÑĮ
Ġepide mic
h ou
auth entication
ĠB us
Ġoscilla ting
c ounts
Ġhyper graph
ĠCorre spon
pag eref
i pt
box es
GR ect
$\ ;
c ibility
24 1
Ġtermin ated
Ġme V
Ġorigin ates
ĠMar shall
ĠC ru
Enc ryption
gra des
G ro
ĠK S
Ġent reprene
ĠAr k
ĠPo pe
ĠPart ners
ĠE FT
u table
Z ip
33 9
ĠConn ecticut
mu ch
O Auth
Ġs lip
ge on
up loads
26 8
44 3
pattern s
ĠBr ill
U uid
E ast
Ġse aled
Ġsamp ler
Ġes c
Track ing
pal ette
res ta
33 4
ĠTe mple
and al
ĠAfghan istan
j m
Ġass essed
Syn dication
Ġ Ñĩ
Ġafter wards
ermal ink
ĠF ather
ĠCO PY
G V
G ap
d it
ol ly
ga uss
Au stral
for ced
spec ially
ug ht
c if
{ ~
ĠR on
") ).
R ound
t ro
Ġl ifts
Ġpreser vation
Ġ( âĢľ
Ġpo ison
H or
Ġto x
SE SSION
c andidate
k x
Ġw aters
Ġgra ss
conf irm
f undamental
Ġon t
tex theight
Ġ\ ((
Ġun used
S parse
w ed
Ġper ipheral
ĠY an
Ġenorm ous
> ");
Ġlog ged
ĠS can
phon on
Ġfi xture
\ ^
inter mediate
split ting
H aw
Ġcur r
Ġutili zation
an th
Ġposs ession
Incre ment
Ġrac ing
Cred it
os ta
Ġsto od
ill ance
Conn ections
AR S
ĠNe ed
CONT ENT
w g
Ġrep lay
Ġste ms
ĠSh im
b ab
ĠL it
Dis covery
ĠM ETH
nu clear
domin ant
N d
Ġr ub
discus sed
Par allel
ĠMi ami
Ġautoma ta
qu iry
atell ite
ĠS imp
ĠGu ard
ren a
Ġid le
ĠDe la
tribut or
Ġtrack ed
I FT
ĠU TC
27 4
Ð½ Ð¸
3 13
Ġc ust
ĠTh er
Ġpack ed
Com bo
Ġdro pping
ĠAppro xi
ed ition
ici ties
Ġweek ly
Ġc ave
Ġdist inc
auth entic
Ġoccup ancy
Cre ator
ĠC ost
ĠV ery
Qu ick
SET T
Di ag
ĠG allery
B ib
ti sts
Ġsh ard
ĠU ri
50 5
semb ler
+ [
Ġun ambig
j math
Ġresid ential
Ġ\ *
EN SION
Ġwin ners
Ġten ant
Ġbur ied
s ensor
al ready
ĠC ab
Ġen th
Qu ote
ĠMar ine
Ter ms
Ġsubstitu ted
Sm art
produ ced
Ġdeli ber
Ġsupercon ductivity
ĠS core
Ġimp orted
H istor
34 4
ht p
So ftware
Ġh ockey
)] (
D X
ensem ble
ar dian
S tation
ĠE volution
Bu ilt
Ġsol itons
Ġag ed
In ser
y our
)} :
Ġmis sions
Ġderiv ations
P LA
sh ake
Ġam enable
Ġequal ities
posi ted
g allery
ul sion
Ġv a
Ġsch olars
V m
19 14
h g
Ġper f
block quote
ĠAss umptions
f ade
quark s
cluster ing
sp y
Ġex ecutor
36 8
ĠB UT
d uring
ĠH AVE
enc ia
] }}
^{ ++
ĠSol id
ĠR MSE
Id le
B IND
Ġen velop
Ġreg ards
pre ced
ç± »
ENABLE D
M gr
res sively
Ġ(- .
P ick
de b
lo ying
sm art
D to
is omorphic
Ġint ensive
pr ints
35 7
SI L
ĠSw iss
D ocker
\ }=
Ġpointer s
Ġreco vers
enta tives
Ġanni versary
Ġl ighter
ĠF lag
Ġi v
Ġthere of
ĠDec ision
Ch ars
ÑĢ Ð°
Ġpre trained
ĠAGN s
get User
bur sts
P references
ĠSte in
erc ise
Ġre size
O VER
FI LTER
hat tan
ste alth
mock ito
Ġdiscrimin ative
CO S
+\ |
fore ign
ĠF lu
28 1
Ġcatalog s
æ İ
ge odes
ĠUni versal
g ri
ro uting
Ġde alt
Ġch rome
Ġmu ons
[...]
