{
  "version": "1.0",
  "truncation": null,
  "padding": null,
  "added_tokens": [
    {
      "id": 0,
      "content": "[UNK]",
      "single_word": false,
      "lstrip": false,
      "rstrip": false,
      "normalized": false,
      "special": true
    }
  ],
  "normalizer": null,
  "pre_tokenizer": {
    "type": "Sequence",
    "pretokenizers": [
      {
        "type": "Digits",
        "individual_digits": false
      },
      {
        "type": "ByteLevel",
        "add_prefix_space": false,
        "trim_offsets": true,
        "use_regex": true
      }
    ]
  },
  "post_processor": null,
  "decoder": null,
  "model": {
    "type": "BPE",
    "dropout": null,
    "unk_token": "[UNK]",
    "continuing_subword_prefix": null,
    "end_of_word_suffix": null,
    "fuse_unk": false,
    "byte_fallback": false,
    "vocab": {
      "[UNK]": 0,
      "!": 1,
      "\"": 2,
      "#": 3,
      "$": 4,
      "%": 5,
      "&": 6,
      "'": 7,
      "(": 8,
      ")": 9,
      "*": 10,
      "+": 11,
      ",": 12,
      "-": 13,
      ".": 14,
      "/": 15,
      "0": 16,
      "1": 17,
      "2": 18,
      "3": 19,
      "4": 20,
      "5": 21,
      "6": 22,
      "7": 23,
      "8": 24,
      "9": 25,
      ":": 26,
      ";": 27,
      "<": 28,
      "=": 29,
      ">": 30,
      "?": 31,
      "@": 32,
      "A": 33,
      "B": 34,
      "C": 35,
      "D": 36,
      "E": 37,
      "F": 38,
      "G": 39,
      "H": 40,
      "I": 41,
      "J": 42,
      "K": 43,
      "L": 44,
      "M": 45,
      "N": 46,
      "O": 47,
      "P": 48,
      "Q": 49,
      "R": 50,
      "S": 51,
      "T": 52,
      "U": 53,
      "V": 54,
      "W": 55,
      "X": 56,
      "Y": 57,
      "Z": 58,
      "[": 59,
      "\\": 60,
      "]": 61,
      "^": 62,
      "_": 63,
      "`": 64,
      "a": 65,
      "b": 66,
      "c": 67,
      "d": 68,
      "e": 69,
      "f": 70,
      "g": 71,
      "h": 72,
      "i": 73,
      "j": 74,
      "k": 75,
      "l": 76,
      "m": 77,
      "n": 78,
      "o": 79,
      "p": 80,
      "q": 81,
      "r": 82,
      "s": 83,
      "t": 84,
      "u": 85,
      "v": 86,
      "w": 87,
      "x": 88,
      "y": 89,
      "z": 90,
      "{": 91,
      "|": 92,
      "}": 93,
      "~": 94,
      "¡": 95,
      "¢": 96,
      "£": 97,
      "¤": 98,
      "¥": 99,
      "¦": 100,
      "§": 101,
      "¨": 102,
      "©": 103,
      "ª": 104,
      "«": 105,
      "¬": 106,
      "®": 107,
      "¯": 108,
      "°": 109,
      "±": 110,
      "²": 111,
      "³": 112,
      "´": 113,
      "µ": 114,
      "¶": 115,
      "·": 116,
      "¸": 117,
      "¹": 118,
      "º": 119,
      "»": 120,
      "¼": 121,
      "½": 122,
      "¾": 123,
      "¿": 124,
      "Â": 125,
      "Ã": 126,
      "Ä": 127,
      "Å": 128,
      "Æ": 129,
      "Ç": 130,
      "È": 131,
      "É": 132,
      "Ê": 133,
      "Ë": 134,
      "Ì": 135,
      "Í": 136,
      "Î": 137,
      "Ï": 138,
      "Ð": 139,
      "Ñ": 140,
      "Ò": 141,
      "Ó": 142,
      "Ô": 143,
      "Õ": 144,
      "Ö": 145,
      "×": 146,
      "Ø": 147,
      "Ù": 148,
      "Ú": 149,
      "Û": 150,
      "Ü": 151,
      "Ý": 152,
      "Þ": 153,
      "ß": 154,
      "à": 155,
      "á": 156,
      "â": 157,
      "ã": 158,
      "ä": 159,
      "å": 160,
      "æ": 161,
      "ç": 162,
      "è": 163,
      "é": 164,
      "ê": 165,
      "ë": 166,
      "ì": 167,
      "í": 168,
      "î": 169,
      "ï": 170,
      "ð": 171,
      "ó": 172,
      "ô": 173,
      "Ā": 174,
      "ā": 175,
      "Ă": 176,
      "ă": 177,
      "Ą": 178,
      "ą": 179,
      "Ć": 180,
      "ć": 181,
      "Ĉ": 182,
      "ĉ": 183,
      "Ċ": 184,
      "ċ": 185,
      "Č": 186,
      "č": 187,
      "Ď": 188,
      "ď": 189,
      "Đ": 190,
      "đ": 191,
      "Ē": 192,
      "ē": 193,
      "Ĕ": 194,
      "ĕ": 195,
      "Ė": 196,
      "ė": 197,
      "Ę": 198,
      "ę": 199,
      "Ě": 200,
      "ě": 201,
      "Ĝ": 202,
      "ĝ": 203,
      "Ğ": 204,
      "ğ": 205,
      "Ġ": 206,
      "ġ": 207,
      "Ģ": 208,
      "ģ": 209,
      "Ĥ": 210,
      "ĥ": 211,
      "Ħ": 212,
      "ħ": 213,
      "Ĩ": 214,
      "ĩ": 215,
      "Ī": 216,
      "ī": 217,
      "Ĭ": 218,
      "ĭ": 219,
      "Į": 220,
      "į": 221,
      "İ": 222,
      "ı": 223,
      "Ĳ": 224,
      "ĳ": 225,
      "Ĵ": 226,
      "ĵ": 227,
      "Ķ": 228,
      "ķ": 229,
      "ĸ": 230,
      "Ĺ": 231,
      "ĺ": 232,
      "Ļ": 233,
      "ļ": 234,
      "Ľ": 235,
      "ľ": 236,
      "Ŀ": 237,
      "ŀ": 238,
      "Ł": 239,
      "ł": 240,
      "Ń": 241,
      "ĠĠ": 242,
      "th": 243,
      "in": 244,
      "ĠĠĠĠ": 245,
      "on": 246,
      "er": 247,
      "Ġa": 248,
      "Ġth": 249,
      "ti": 250,
      "re": 251,
      "en": 252,
      "Ġthe": 253,
      "al": 254,
      "or": 255,
      "Ġs": 256,
      "te": 257,
      "Ġ\\": 258,
      "Ġc": 259,
      "is": 260,
      "le": 261,
      "tion": 262,
      "ar": 263,
      "Ġo": 264,
      "an": 265,
      "Ġ$": 266,
      "es": 267,
      "Ġf": 268,
      "Ġw": 269,
      "Ġt": 270,
      "Ġp": 271,
      "ma": 272,
      "ĠĠĠ": 273,
      "ro": 274,
      "ĠĠĠĠĠĠĠĠ": 275,
      "Ġof": 276,
      "Ġin": 277,
      "de": 278,
      "ing": 279,
      "Ġb": 280,
      "ta": 281,
      "Ġan": 282,
      "se": 283,
      "la": 284,
      "ra": 285,
      "ic": 286,
      "ig": 287,
      "me": 288,
      "{\\": 289,
      "Ġand": 290,
      "at": 291,
      "it": 292,
      "Ġto": 293,
      "Ġd": 294,
      "el": 295,
      "st": 296,
      "ent": 297,
      "Ġre": 298,
      "Ġe": 299,
      "Ġn": 300,
      "ce": 301,
      "ou": 302,
      "Ġ(": 303,
      "Ġh": 304,
      "ed": 305,
      "ec": 306,
      "Ġis": 307,
      "ol": 308,
      "si": 309,
      "mp": 310,
      "_{": 311,
      "qu": 312,
      "ge": 313,
      "ch": 314,
      "čĊ": 315,
      "Ġm": 316,
      "Ġ=": 317,
      "lo": 318,
      "Ġ$\\": 319,
      "Th": 320,
      "tr": 321,
      "ĠĠĠĠĠĠĠ": 322,
      "un": 323,
      "ation": 324,
      "as": 325,
      "Ġfor": 326,
      "ur": 327,
      "math": 328,
      "ly": 329,
      "ve": 330,
      "ver": 331,
      "ter": 332,
      "il": 333,
      "id": 334,
      "end": 335,
      "ul": 336,
      "ss": 337,
      "um": 338,
      "ot": 339,
      "Ġcon": 340,
      "if": 341,
      "Ġ&": 342,
      "et": 343,
      "ith": 344,
      "ĉĉ": 345,
      "}\\": 346,
      "Ġg": 347,
      "Ġthat": 348,
      "ĠS": 349,
      "ted": 350,
      "}$": 351,
      "be": 352,
      "Ġv": 353,
      "^{": 354,
      "ht": 355,
      "ction": 356,
      "Ġon": 357,
      "ite": 358,
      "ph": 359,
      "om": 360,
      "cal": 361,
      ");": 362,
      "Ġ<": 363,
      "ĠĊ": 364,
      "The": 365,
      "am": 366,
      "ct": 367,
      "Ġbe": 368,
      "Ġ{": 369,
      "ad": 370,
      "ĠA": 371,
      "ĠC": 372,
      "Ġde": 373,
      "--": 374,
      "ure": 375,
      "ref": 376,
      "us": 377,
      "xt": 378,
      "Ġl": 379,
      "Ġpro": 380,
      "ow": 381,
      "ut": 382,
      "Ġwith": 383,
      "=\"": 384,
      "gin": 385,
      "Ġwh": 386,
      "ble": 387,
      "ĠI": 388,
      "pp": 389,
      "}}": 390,
      "ri": 391,
      "(\\": 392,
      "ight": 393,
      "Ġwe": 394,
      "sp": 395,
      "ame": 396,
      "Ġal": 397,
      "ub": 398,
      "ir": 399,
      "ine": 400,
      "20": 401,
      "ts": 402,
      "im": 403,
      "begin": 404,
      "od": 405,
      "ĠĠĠĠĠĠĠĠĠĠĠ": 406,
      "Ġma": 407,
      "</": 408,
      "ere": 409,
      "rac": 410,
      "Ġco": 411,
      "//": 412,
      "ate": 413,
      "Ġas": 414,
      "Ġby": 415,
      "Ġ*": 416,
      "per": 417,
      "ode": 418,
      "_{\\": 419,
      "ity": 420,
      ")$": 421,
      "and": 422,
      "Ġare": 423,
      "Ġex": 424,
      "di": 425,
      "ft": 426,
      "Ġ}": 427,
      "ĠF": 428,
      "ĠM": 429,
      "ck": 430,
      "ore": 431,
      "}{": 432,
      "ue": 433,
      "equ": 434,
      "der": 435,
      "tic": 436,
      "ĠP": 437,
      "frac": 438,
      "to": 439,
      "rom": 440,
      "},": 441,
      "text": 442,
      "Ġthis": 443,
      "ĠThe": 444,
      "mb": 445,
      "ment": 446,
      "pe": 447,
      "cite": 448,
      "ĠĠĠĠĠĠĠĠĠĠĠĠĠĠĠĠ": 449,
      "ĠB": 450,
      "right": 451,
      "ĠL": 452,
      "Ġor": 453,
      "li": 454,
      "ew": 455,
      "eq": 456,
      "bel": 457,
      "})": 458,
      "ase": 459,
      "iz": 460,
      "ĠR": 461,
      "up": 462,
      "ect": 463,
      "da": 464,
      "ess": 465,
      "Ġi": 466,
      "ĠH": 467,
      "Ġit": 468,
      "Ġat": 469,
      "ĠT": 470,
      "label": 471,
      "sion": 472,
      "ĠĠĠĠĠ": 473,
      "ĠD": 474,
      "mathb": 475,
      ",\\": 476,
      "for": 477,
      "lass": 478,
      "res": 479,
      "ist": 480,
      "ran": 481,
      "Ġme": 482,
      "ĠW": 483,
      "oun": 484,
      "Ġ\"": 485,
      "Ġfrom": 486,
      "tions": 487,
      "int": 488,
      "Ġ-": 489,
      "lu": 490,
      "ĠE": 491,
      "Ġsh": 492,
      "\">": 493,
      "ĠN": 494,
      "ign": 495,
      "ys": 496,
      "pa": 497,
      "In": 498,
      "left": 499,
      "fig": 500,
      "low": 501,
      "op": 502,
      "$,": 503,
      "our": 504,
      "par": 505,
      "$.": 506,
      "âĢ": 507,
      "00": 508,
      "rm": 509,
      "()": 510,
      "mathcal": 511,
      "ĠG": 512,
      "**": 513,
      "con": 514,
      "Ġch": 515,
      "Ġif": 516,
      "..": 517,
      "get": 518,
      "ff": 519,
      "Ġcomp": 520,
      "equation": 521,
      "iv": 522,
      "Ġst": 523,
      "urn": 524,
      "ome": 525,
      "ich": 526,
      "ds": 527,
      "Ġ+": 528,
      "}.": 529,
      "Ġsu": 530,
      "Ġcan": 531,
      "Ġun": 532,
      "the": 533,
      "use": 534,
      "ence": 535,
      "lic": 536,
      "Ġpar": 537,
      "ther": 538,
      "ke": 539,
      "ave": 540,
      "ga": 541,
      "ty": 542,
      "}(": 543,
      "all": 544,
      "ap": 545,
      "ort": 546,
      "tive": 547,
      "os": 548,
      "tri": 549,
      "unction": 550,
      "tial": 551,
      "}^": 552,
      "age": 553,
      "du": 554,
      "~\\": 555,
      "ers": 556,
      "}_": 557,
      "cc": 558,
      "est": 559,
      "ld": 560,
      "ary": 561,
      "line": 562,
      "ener": 563,
      "ile": 564,
      "pro": 565,
      "ant": 566,
      "ĠTh": 567,
      "Ġle": 568,
      "turn": 569,
      "Ġse": 570,
      "Ġsta": 571,
      "pha": 572,
      "mu": 573,
      "ach": 574,
      "201": 575,
      "Ġclass": 576,
      "alpha": 577,
      "are": 578,
      "able": 579,
      "tim": 580,
      "Ġwhich": 581,
      "ell": 582,
      "ata": 583,
      "----": 584,
      "av": 585,
      "),": 586,
      ").": 587,
      ")\\": 588,
      "til": 589,
      "ĠIn": 590,
      "Ġnot": 591,
      "fer": 592,
      "Ġhave": 593,
      "set": 594,
      "Ġob": 595,
      "==": 596,
      "ser": 597,
      "odel": 598,
      "Ġ'": 599,
      "psi": 600,
      "mple": 601,
      "ĠO": 602,
      "ang": 603,
      "oc": 604,
      "row": 605,
      "Ġdis": 606,
      "gra": 607,
      "ult": 608,
      "Ġres": 609,
      "ari": 610,
      "str": 611,
      "Ġy": 612,
      "ber": 613,
      "bu": 614,
      "ms": 615,
      "ill": 616,
      "ance": 617,
      "alue": 618,
      "ab": 619,
      "19": 620,
      "Ġfunction": 621,
      "co": 622,
      "Ġlo": 623,
      "tain": 624,
      "Ġapp": 625,
      "$\\": 626,
      "ĠĠĠĠĠĠĠĠĠĠĠĠĠĠĠ": 627,
      "ical": 628,
      "amma": 629,
      "fin": 630,
      "ype": 631,
      "clu": 632,
      "ide": 633,
      "ork": 634,
      "10": 635,
      "Ġr": 636,
      "_\\": 637,
      "Ġpo": 638,
      "Ġsp": 639,
      "ray": 640,
      "ens": 641,
      "mathbb": 642,
      "=\\": 643,
      "sub": 644,
      "Ġ\\\\": 645,
      "ong": 646,
      "Ġus": 647,
      "Ġwas": 648,
      "dot": 649,
      "Ġ[": 650,
      "vel": 651,
      "ding": 652,
      "}_{": 653,
      "po": 654,
      "cri": 655,
      "so": 656,
      "og": 657,
      "}^{": 658,
      "ho": 659,
      "act": 660,
      "igma": 661,
      "Ġk": 662,
      "ay": 663,
      "ĠU": 664,
      "ire": 665,
      "lation": 666,
      "Ġexp": 667,
      "Ġset": 668,
      "Ġne": 669,
      "pt": 670,
      "Ġuse": 671,
      "-\\": 672,
      "of": 673,
      "Ġ//": 674,
      "times": 675,
      "ies": 676,
      "ial": 677,
      "out": 678,
      "iel": 679,
      "Ġte": 680,
      "Ġreturn": 681,
      "time": 682,
      "ace": 683,
      "Ġall": 684,
      "ex": 685,
      "phi": 686,
      "Ġqu": 687,
      "Ġla": 688,
      "ac": 689,
      "^{\\": 690,
      "ion": 691,
      "Con": 692,
      "->": 693,
      "sum": 694,
      "ag": 695,
      "Ġhas": 696,
      "pi": 697,
      "mbda": 698,
      "ree": 699,
      "tring": 700,
      "ject": 701,
      "lambda": 702,
      "tes": 703,
      "ous": 704,
      "bf": 705,
      "Ġad": 706,
      "::": 707,
      "put": 708,
      "ĉĉĉĉ": 709,
      "Ġ{\\": 710,
      "Ġmodel": 711,
      "ated": 712,
      "lon": 713,
      "ack": 714,
      "ak": 715,
      "Ġdata": 716,
      "Ġinter": 717,
      "we": 718,
      "Ġper": 719,
      "umber": 720,
      "ents": 721,
      "idth": 722,
      "ory": 723,
      "ind": 724,
      "em": 725,
      "mathbf": 726,
      "bo": 727,
      "ould": 728,
      "Ġj": 729,
      "Ġra": 730,
      "tation": 731,
      "Ġone": 732,
      "ations": 733,
      "ource": 734,
      "Ġar": 735,
      "ular": 736,
      "wo": 737,
      "enc": 738,
      "Ġno": 739,
      "ard": 740,
      "section": 741,
      "ĠJ": 742,
      "psilon": 743,
      "align": 744,
      "ren": 745,
      "min": 746,
      "ors": 747,
      "own": 748,
      "Ġ</": 749,
      "ĠV": 750,
      "Ġ@": 751,
      "Ġpre": 752,
      "yste": 753,
      "omm": 754,
      "hat": 755,
      "over": 756,
      "app": 757,
      "sigma": 758,
      "sh": 759,
      "ollow": 760,
      "Ġass": 761,
      "ip": 762,
      "../": 763,
      "tribu": 764,
      "ans": 765,
      "Ġnew": 766,
      "ded": 767,
      "Ġev": 768,
      "bar": 769,
      "}{\\": 770,
      "Ġdo": 771,
      "olu": 772,
      "Ġdif": 773,
      "ublic": 774,
      "Ġ(\\": 775,
      "vi": 776,
      "ting": 777,
      "igh": 778,
      "beta": 779,
      "^{-": 780,
      "eta": 781,
      "ĠK": 782,
      "ties": 783,
      "Ġwill": 784,
      "ize": 785,
      "item": 786,
      "ne": 787,
      "irst": 788,
      "tilde": 789,
      "ast": 790,
      "\",": 791,
      "Ġfollow": 792,
      "Ġ/": 793,
      "mathrm": 794,
      "ll": 795,
      "ĠWe": 796,
      "Ġtwo": 797,
      "ual": 798,
      "Ġalso": 799,
      "ull": 800,
      "Ġsa": 801,
      "\\\\": 802,
      "12": 803,
      "Ġimp": 804,
      "*}": 805,
      "cre": 806,
      "+\\": 807,
      "gamma": 808,
      "ice": 809,
      "Ġ|": 810,
      "ps": 811,
      "col": 812,
      "yn": 813,
      "Ġcont": 814,
      "Ġequ": 815,
      "ption": 816,
      "del": 817,
      "Ġmo": 818,
      "ound": 819,
      "ics": 820,
      "und": 821,
      "no": 822,
      "(\"": 823,
      "Ġx": 824,
      "cent": 825,
      "theta": 826,
      "Ġbo": 827,
      "200": 828,
      "sed": 829,
      "xi": 830,
      "err": 831,
      "ection": 832,
      "thod": 833,
      "width": 834,
      "orre": 835,
      "tit": 836,
      "))": 837,
      "Ġsub": 838,
      "wh": 839,
      "'s": 840,
      "();": 841,
      "ix": 842,
      "',": 843,
      "]{": 844,
      "Ġsuch": 845,
      "var": 846,
      "Ġgener": 847,
      "Re": 848,
      "Ġ:": 849,
      "Ġhe": 850,
      "ield": 851,
      "array": 852,
      "figure": 853,
      "Ġver": 854,
      "ust": 855,
      "roup": 856,
      "gh": 857,
      "div": 858,
      "Ġtran": 859,
      "^\\": 860,
      "ark": 861,
      "one": 862,
      "ml": 863,
      "rho": 864,
      "Ġthere": 865,
      "delta": 866,
      "Ġtime": 867,
      "âĢĻ": 868,
      "imp": 869,
      "leq": 870,
      "form": 871,
      "lay": 872,
      "led": 873,
      "Ġ.": 874,
      "We": 875,
      "alu": 876,
      "orm": 877,
      "les": 878,
      "Ġwhere": 879,
      "tau": 880,
      ")}": 881,
      "Ġen": 882,
      "Ġconst": 883,
      "ature": 884,
      "Ġout": 885,
      "Ġrep": 886,
      "Ġour": 887,
      "cdot": 888,
      "sition": 889,
      "ator": 890,
      "mo": 891,
      "Ġline": 892,
      "Ġpa": 893,
      "ameter": 894,
      "essage": 895,
      "clude": 896,
      "lement": 897,
      "Ġdiffer": 898,
      "$-": 899,
      "uct": 900,
      "}$,": 901,
      "}$.": 902,
      "ok": 903,
      "ish": 904,
      "ear": 905,
      "def": 906,
      "ĠThis": 907,
      "Ġonly": 908,
      "ystem": 909,
      "Ġbet": 910,
      "tical": 911,
      "Ġstr": 912,
      "Ġcase": 913,
      "}(\\": 914,
      "name": 915,
      "Ġother": 916,
      "big": 917,
      "graph": 918,
      "eqref": 919,
      "Ġover": 920,
      "mation": 921,
      "--------": 922,
      "Ġvalue": 923,
      "Ġfin": 924,
      "Ġdes": 925,
      "****": 926,
      "Pro": 927,
      "spon": 928,
      "Ġthen": 929,
      "Ġname": 930,
      "Ġro": 931,
      "Ex": 932,
      "Ġab": 933,
      "Ġcorre": 934,
      "Ġcol": 935,
      "Ġeach": 936,
      "table": 937,
      "ces": 938,
      "ĠĠĠĠĠĠĠĠĠ": 939,
      "Ġany": 940,
      "Ġgiv": 941,
      "Ġ*/": 942,
      "pend": 943,
      "Ġint": 944,
      "span": 945,
      "ger": 946,
      "Ġreg": 947,
      "tab": 948,
      "oid": 949,
      "Ġtr": 950,
      "cap": 951,
      "ord": 952,
      "Ġph": 953,
      "Ġshow": 954,
      "sc": 955,
      "ĉĉĉ": 956,
      "partial": 957,
      "Ġso": 958,
      "ink": 959,
      "fty": 960,
      "></": 961,
      "ility": 962,
      "omega": 963,
      "infty": 964,
      "tex": 965,
      "Ġmore": 966,
      "Ġbut": 967,
      "nu": 968,
      "ved": 969,
      "Ġop": 970,
      "|\\": 971,
      "ose": 972,
      "ia": 973,
      "Ġu": 974,
      "dic": 975,
      "Ġacc": 976,
      "Ġfirst": 977,
      "Ġpublic": 978,
      "arrow": 979,
      "ĠĠĠĠĠĠĠĠĠĠĠĠĠĠĠĠĠĠĠ": 980,
      "Ġspec": 981,
      "ween": 982,
      "Ġsome": 983,
      "ER": 984,
      "ults": 985,
      "space": 986,
      "dition": 987,
      "11": 988,
      "Ġwhen": 989,
      "Del": 990,
      "this": 991,
      "ise": 992,
      "ally": 993,
      "ud": 994,
      "its": 995,
      "fore": 996,
      "Ġthan": 997,
      "emp": 998,
      "ample": 999,
      "art": 1000,
      "pace": 1001,
      "ince": 1002,
      "../../": 1003,
      "Name": 1004,
      "Ġ`": 1005,
      "ges": 1006,
      "Ġdef": 1007,
      "Ġtype": 1008,
      "work": 1009,
      "Ġnumber": 1010,
      "Delta": 1011,
      "Ġbetween": 1012,
      "('": 1013,
      "><": 1014,
      "Ġvari": 1015,
      "dex": 1016,
      "Ġits": 1017,
      "ension": 1018,
      "eqn": 1019,
      "sider": 1020,
      "rain": 1021,
      "====": 1022,
      "quad": 1023,
      "tif": 1024,
      "tric": 1025,
      "Ġget": 1026,
      "ĠâĢ": 1027,
      "fo": 1028,
      "Ġnon": 1029,
      "sf": 1030,
      "Ġ_": 1031,
      "ves": 1032,
      "eng": 1033,
      "Ġext": 1034,
      "sec": 1035,
      "ob": 1036,
      "ced": 1037,
      "Ġup": 1038,
      "Ġthese": 1039,
      "ula": 1040,
      "Ġusing": 1041,
      "Ġused": 1042,
      "sta": 1043,
      "Ġid": 1044,
      "ie": 1045,
      "Ġdefin": 1046,
      "Ġtheir": 1047,
      "fra": 1048,
      "16": 1049,
      "Ġwork": 1050,
      "Ġappro": 1051,
      "Type": 1052,
      "olds": 1053,
      "gle": 1054,
      "}[": 1055,
      "Ġes": 1056,
      "}}\\": 1057,
      "he": 1058,
      "mall": 1059,
      "Ġmethod": 1060,
      "Ġstate": 1061,
      "tern": 1062,
      "Ġrequ": 1063,
      "Ġ$(": 1064,
      "15": 1065,
      "olution": 1066,
      "ni": 1067,
      "ased": 1068,
      "\\,": 1069,
      "Ġcur": 1070,
      "For": 1071,
      "gy": 1072,
      "ON": 1073,
      "ulti": 1074,
      "orem": 1075,
      "Ġman": 1076,
      ")$.": 1077,
      "ze": 1078,
      "ib": 1079,
      "ization": 1080,
      "Ġgiven": 1081,
      "Ġhigh": 1082,
      "Ġgra": 1083,
      "lock": 1084,
      "ule": 1085,
      "include": 1086,
      "rt": 1087,
      "com": 1088,
      "su": 1089,
      "html": 1090,
      "Ġtrans": 1091,
      "tt": 1092,
      "cess": 1093,
      "ential": 1094,
      "sq": 1095,
      "riv": 1096,
      "ĠFor": 1097,
      "Ġeff": 1098,
      "ST": 1099,
      "Ġbeen": 1100,
      "Ġresult": 1101,
      "ton": 1102,
      "epsilon": 1103,
      "Ġunder": 1104,
      "center": 1105,
      "IN": 1106,
      "Ġcom": 1107,
      "Ġorder": 1108,
      "lec": 1109,
      "import": 1110,
      "Ġparameter": 1111,
      "rent": 1112,
      "De": 1113,
      "pm": 1114,
      "alues": 1115,
      "ning": 1116,
      "Ġsim": 1117,
      "Ġinto": 1118,
      "String": 1119,
      "$$": 1120,
      "Ġerr": 1121,
      "18": 1122,
      "ress": 1123,
      "Ġter": 1124,
      "elf": 1125,
      "main": 1126,
      "ĠX": 1127,
      "ote": 1128,
      "}_{\\": 1129,
      "ymb": 1130,
      "source": 1131,
      "ized": 1132,
      "Ġz": 1133,
      "alse": 1134,
      "13": 1135,
      "trans": 1136,
      "ount": 1137,
      "ond": 1138,
      "ĠRe": 1139,
      "return": 1140,
      "log": 1141,
      "ild": 1142,
      "mega": 1143,
      "ymbol": 1144,
      "Ġlar": 1145,
      "irc": 1146,
      "cript": 1147,
      "Ġhref": 1148,
      "type": 1149,
      "als": 1150,
      "Ġconsider": 1151,
      "Omega": 1152,
      "Ġpres": 1153,
      "lan": 1154,
      "ength": 1155,
      "Ġcal": 1156,
      "message": 1157,
      "trix": 1158,
      "Ġobtain": 1159,
      "where": 1160,
      "au": 1161,
      "key": 1162,
      "round": 1163,
      "Ġwere": 1164,
      "En": 1165,
      "Ġrela": 1166,
      "ever": 1167,
      "param": 1168,
      "Ġbec": 1169,
      "spec": 1170,
      "lang": 1171,
      "eck": 1172,
      "try": 1173,
      "Ġsame": 1174,
      "Ġ#": 1175,
      "Id": 1176,
      "Ġform": 1177,
      "Ġdifferent": 1178,
      "Ch": 1179,
      "textbf": 1180,
      "ration": 1181,
      "Ġpartic": 1182,
      "vice": 1183,
      "sel": 1184,
      "eqnarray": 1185,
      "ments": 1186,
      "Ġresults": 1187,
      "code": 1188,
      "Ġchar": 1189,
      "Ġobser": 1190,
      "Ġoper": 1191,
      "Ġself": 1192,
      "old": 1193,
      "14": 1194,
      "RE": 1195,
      ")$,": 1196,
      "^*": 1197,
      "ĠčĊ": 1198,
      "Ġfollowing": 1199,
      "25": 1200,
      "Res": 1201,
      "ĠY": 1202,
      "gor": 1203,
      "ĠFig": 1204,
      "man": 1205,
      "sqrt": 1206,
      "ied": 1207,
      "data": 1208,
      "Ġthey": 1209,
      "comp": 1210,
      "ian": 1211,
      "Ġ--": 1212,
      "Ġfact": 1213,
      "ĠCh": 1214,
      "arch": 1215,
      "Ġmay": 1216,
      "Ġ>": 1217,
      "ĠĠĊ": 1218,
      "Ġmod": 1219,
      "ax": 1220,
      "ific": 1221,
      "ected": 1222,
      "Ġser": 1223,
      "fter": 1224,
      "Ġprov": 1225,
      "ases": 1226,
      "Gamma": 1227,
      "To": 1228,
      "asure": 1229,
      "subsection": 1230,
      "umn": 1231,
      "wide": 1232,
      "ym": 1233,
      "che": 1234,
      "Ġsec": 1235,
      "Ġsc": 1236,
      "ĠĠĠĠĠĠĠĠĠĠĠĠĠĠĠĠĠĠĠĠĠĠĠĠĠĠĠĠĠĠĠĠ": 1237,
      "vely": 1238,
      "Ġ!": 1239,
      "ert": 1240,
      "lem": 1241,
      "pre": 1242,
      "exp": 1243,
      "vare": 1244,
      "ext": 1245,
      "Ġel": 1246,
      "olog": 1247,
      "varepsilon": 1248,
      "Ġpol": 1249,
      "Ġsign": 1250,
      "td": 1251,
      "AT": 1252,
      "ox": 1253,
      "sim": 1254,
      "dd": 1255,
      "graphics": 1256,
      "ĠIt": 1257,
      "ates": 1258,
      "ons": 1259,
      "val": 1260,
      "omp": 1261,
      "Ġfield": 1262,
      "rou": 1263,
      "Ġ)": 1264,
      "Ġli": 1265,
      "Ġcomm": 1266,
      "ĠQ": 1267,
      "caption": 1268,
      "ici": 1269,
      "hi": 1270,
      "action": 1271,
      "mat": 1272,
      "Ġcomple": 1273,
      "ots": 1274,
      "Ġsystem": 1275,
      "/>": 1276,
      "Ġrepres": 1277,
      "Sta": 1278,
      "bm": 1279,
      "}=": 1280,
      "mage": 1281,
      "^{(": 1282,
      "Ġ=>": 1283,
      "Ġanal": 1284,
      "Ġsee": 1285,
      "Ġend": 1286,
      "Ġ${\\": 1287,
      "includegraphics": 1288,
      "Ġac": 1289,
      "Ġfe": 1290,
      "cm": 1291,
      "}^{\\": 1292,
      "class": 1293,
      "cation": 1294,
      "Ġdistribu": 1295,
      ")=": 1296,
      "read": 1297,
      "sk": 1298,
      "dis": 1299,
      ".,": 1300,
      "ception": 1301,
      "raw": 1302,
      "Ġproper": 1303,
      "formation": 1304,
      "Ġtest": 1305,
      "ry": 1306,
      "Ġspace": 1307,
      "tively": 1308,
      "size": 1309,
      "ause": 1310,
      "Ġdire": 1311,
      "red": 1312,
      "yle": 1313,
      "rangle": 1314,
      "Ġyou": 1315,
      "ont": 1316,
      "very": 1317,
      "ange": 1318,
      "://": 1319,
      "ner": 1320,
      "energy": 1321,
      "tiv": 1322,
      "lect": 1323,
      "ault": 1324,
      "ass": 1325,
      "emph": 1326,
      "Ġ==": 1327,
      "\"/>": 1328,
      "iew": 1329,
      "Ġgo": 1330,
      "Ġhis": 1331,
      "Ġden": 1332,
      "Ġboth": 1333,
      "new": 1334,
      "Ġmeasure": 1335,
      "##": 1336,
      "umer": 1337,
      "son": 1338,
      "__": 1339,
      "Ġnull": 1340,
      "cale": 1341,
      "):": 1342,
      "Ġlow": 1343,
      "rightarrow": 1344,
      "Ġcorrespon": 1345,
      "17": 1346,
      "ector": 1347,
      "Ġ\\,": 1348,
      "etwork": 1349,
      "\\!": 1350,
      "imension": 1351,
      "ists": 1352,
      "ucture": 1353,
      "ath": 1354,
      "Ġvoid": 1355,
      "owever": 1356,
      "varphi": 1357,
      "gorith": 1358,
      "back": 1359,
      "Ġsupp": 1360,
      "gs": 1361,
      "Ġprodu": 1362,
      "vers": 1363,
      "geq": 1364,
      "rr": 1365,
      "Ġtrue": 1366,
      "non": 1367,
      "AR": 1368,
      "Ġgroup": 1369,
      "ensure": 1370,
      "ality": 1371,
      ".~\\": 1372,
      "St": 1373,
      "Ġmin": 1374,
      "ating": 1375,
      "ĠĠĠĠĠĠ": 1376,
      "Ġwould": 1377,
      "Ġwell": 1378,
      "Ġkn": 1379,
      "32": 1380,
      "med": 1381,
      "self": 1382,
      "LE": 1383,
      "ep": 1384,
      ".}": 1385,
      "file": 1386,
      "Ġvalues": 1387,
      "face": 1388,
      "Ġpoint": 1389,
      "List": 1390,
      "jec": 1391,
      "entation": 1392,
      "Ġproble": 1393,
      "};": 1394,
      "SS": 1395,
      "atch": 1396,
      "Ġvar": 1397,
      "proof": 1398,
      "Ġdec": 1399,
      "vec": 1400,
      "vent": 1401,
      "lit": 1402,
      "ĠPro": 1403,
      "chi": 1404,
      "ID": 1405,
      "pr": 1406,
      "mary": 1407,
      "bolds": 1408,
      "lection": 1409,
      "ten": 1410,
      "boldsymbol": 1411,
      "Ġdescri": 1412,
      "nel": 1413,
      "ick": 1414,
      "ling": 1415,
      "frak": 1416,
      "Data": 1417,
      "ole": 1418,
      "OR": 1419,
      "sible": 1420,
      "30": 1421,
      "rit": 1422,
      "&\\": 1423,
      "translation": 1424,
      "stra": 1425,
      "htt": 1426,
      "ency": 1427,
      "overline": 1428,
      "Ġelement": 1429,
      "199": 1430,
      "rough": 1431,
      "ames": 1432,
      "},\\": 1433,
      "ery": 1434,
      "100": 1435,
      "amb": 1436,
      "ĠAn": 1437,
      "ĠDe": 1438,
      "')": 1439,
      "pri": 1440,
      "Ġsmall": 1441,
      "ition": 1442,
      "Ġmost": 1443,
      "Ġabout": 1444,
      "ilar": 1445,
      "ive": 1446,
      "Big": 1447,
      "requ": 1448,
      "ument": 1449,
      "string": 1450,
      "50": 1451,
      "mber": 1452,
      "test": 1453,
      "âĢĿ": 1454,
      "Ġesti": 1455,
      "Ġprocess": 1456,
      "Ġinte": 1457,
      "itial": 1458,
      "[\\": 1459,
      "ormal": 1460,
      "ash": 1461,
      "Ġstar": 1462,
      "Ġste": 1463,
      "mathfrak": 1464,
      "ader": 1465,
      "Ġstring": 1466,
      "Ġfra": 1467,
      "yp": 1468,
      "top": 1469,
      "Ġsur": 1470,
      "Ġenergy": 1471,
      "}).": 1472,
      "Ġexample": 1473,
      "hline": 1474,
      "Ġmass": 1475,
      ")^": 1476,
      "Ġcompu": 1477,
      "Ġassu": 1478,
      "Ob": 1479,
      "stance": 1480,
      "Ġback": 1481,
      "bra": 1482,
      "Ar": 1483,
      "Ġinv": 1484,
      "Ġbu": 1485,
      "This": 1486,
      "Ġcontain": 1487,
      "ision": 1488,
      "''": 1489,
      "ster": 1490,
      "}}$": 1491,
      "pd": 1492,
      "arget": 1493,
      "ĠĠĠĠĠĠĠĠĠĠĠĠĠ": 1494,
      "ĠIf": 1495,
      "********": 1496,
      "Ġlim": 1497,
      "Ġmulti": 1498,
      "las": 1499,
      "value": 1500,
      "Ġran": 1501,
      "22": 1502,
      "Ġsing": 1503,
      "An": 1504,
      "rivate": 1505,
      "AL": 1506,
      "Ġtra": 1507,
      "ime": 1508,
      "go": 1509,
      "lim": 1510,
      "Ġdist": 1511,
      "Ġfalse": 1512,
      "EN": 1513,
      "ism": 1514,
      "ative": 1515,
      "ci": 1516,
      "\"><": 1517,
      "ines": 1518,
      "Ġbound": 1519,
      "Ġpos": 1520,
      "Ġlocal": 1521,
      "40": 1522,
      "oci": 1523,
      "ldots": 1524,
      "////": 1525,
      "Ġgeneral": 1526,
      "\");": 1527,
      "ero": 1528,
      "langle": 1529,
      "Ġdefined": 1530,
      "ough": 1531,
      "ask": 1532,
      "Ġsize": 1533,
      "view": 1534,
      "));": 1535,
      "ression": 1536,
      "lear": 1537,
      "add": 1538,
      "Ġshould": 1539,
      "ĠCon": 1540,
      "see": 1541,
      "Par": 1542,
      "ĠZ": 1543,
      "ints": 1544,
      "ambda": 1545,
      "mis": 1546,
      "uth": 1547,
      "Let": 1548,
      "des": 1549,
      "rite": 1550,
      "mod": 1551,
      "ensity": 1552,
      "Ġ&&": 1553,
      "21": 1554,
      "Ġexper": 1555,
      "rol": 1556,
      "Lambda": 1557,
      "box": 1558,
      "depend": 1559,
      "Ġdisc": 1560,
      "max": 1561,
      "ai": 1562,
      "bove": 1563,
      "Set": 1564,
      "bin": 1565,
      "play": 1566,
      "mer": 1567,
      "Ġwhile": 1568,
      "cted": 1569,
      "----------------": 1570,
      "not": 1571,
      "Ġorg": 1572,
      "Ġdepend": 1573,
      "order": 1574,
      "Ġclo": 1575,
      "Ġfollows": 1576,
      "ability": 1577,
      "ensuremath": 1578,
      "Ġabove": 1579,
      "Phi": 1580,
      "Ġthrough": 1581,
      "Ġ,": 1582,
      "ired": 1583,
      "Ġlarge": 1584,
      "nab": 1585,
      "ven": 1586,
      "DE": 1587,
      "Ġinclu": 1588,
      "mate": 1589,
      "Col": 1590,
      "gorithm": 1591,
      "ler": 1592,
      "Value": 1593,
      "onent": 1594,
      "cont": 1595,
      "SE": 1596,
      ".\\": 1597,
      "ields": 1598,
      "textit": 1599,
      "ĠĠĠĠĠĠĠĠĠĠĠĠĠĠĠĠĠĠĠĠĠĠĠ": 1600,
      "citep": 1601,
      "Ġstructure": 1602,
      "Ġelse": 1603,
      "Ġdoes": 1604,
      "Ġpe": 1605,
      "let": 1606,
      "Ġmodels": 1607,
      "appa": 1608,
      "ross": 1609,
      "ymme": 1610,
      "As": 1611,
      "nabla": 1612,
      "Ġcre": 1613,
      "ower": 1614,
      "ake": 1615,
      "Ġevery": 1616,
      "Ser": 1617,
      "by": 1618,
      "Ġcons": 1619,
      "title": 1620,
      "io": 1621,
      "kappa": 1622,
      "inu": 1623,
      "Ġshown": 1624,
      "less": 1625,
      "acter": 1626,
      "\\|": 1627,
      "Ġtemp": 1628,
      "with": 1629,
      "Ġmat": 1630,
      "inter": 1631,
      "ences": 1632,
      "Ġincre": 1633,
      "rodu": 1634,
      "ost": 1635,
      "ste": 1636,
      "ynam": 1637,
      "comm": 1638,
      "Ġafter": 1639,
      "lace": 1640,
      "style": 1641,
      "Ġlet": 1642,
      "circ": 1643,
      "By": 1644,
      "ulation": 1645,
      "ava": 1646,
      "Ġthree": 1647,
      "que": 1648,
      "Ġnetwork": 1649,
      "lient": 1650,
      "],": 1651,
      "gram": 1652,
      "orph": 1653,
      "ful": 1654,
      "Ġiden": 1655,
      "Ġerror": 1656,
      "tal": 1657,
      "nb": 1658,
      "Ġsol": 1659,
      "mbox": 1660,
      "ey": 1661,
      "ically": 1662,
      "Ġag": 1663,
      "uring": 1664,
      "Ġbel": 1665,
      "Ġperform": 1666,
      "24": 1667,
      "Ġfinal": 1668,
      "ody": 1669,
      "ented": 1670,
      "ays": 1671,
      "Ġ/**": 1672,
      "position": 1673,
      "Ġmax": 1674,
      "Ġthem": 1675,
      "Ġright": 1676,
      "Ġsince": 1677,
      "oper": 1678,
      "igin": 1679,
      "sing": 1680,
      "})$": 1681,
      "function": 1682,
      "Ġoff": 1683,
      "($": 1684,
      "Ġproblem": 1685,
      "stru": 1686,
      "Ġsecond": 1687,
      "lat": 1688,
      "org": 1689,
      "ream": 1690,
      "ilter": 1691,
      "late": 1692,
      "Ġhad": 1693,
      "Ġcent": 1694,
      "cur": 1695,
      "tisf": 1696,
      "\\%": 1697,
      "mark": 1698,
      "ffici": 1699,
      "Ġsection": 1700,
      ")(": 1701,
      "bit": 1702,
      "ĠâĢľ": 1703,
      "Ġlong": 1704,
      "Ġnow": 1705,
      "Ġparameters": 1706,
      "Ġreal": 1707,
      "vious": 1708,
      "Ġ||": 1709,
      "Ġpart": 1710,
      "node": 1711,
      "Ġstatic": 1712,
      "cor": 1713,
      "gr": 1714,
      "Ġed": 1715,
      "otimes": 1716,
      "];": 1717,
      "Ġdistribution": 1718,
      "Ġneed": 1719,
      "apa": 1720,
      "lob": 1721,
      "urther": 1722,
      "Ġ``": 1723,
      "60": 1724,
      "ĠAs": 1725,
      "}}{": 1726,
      "uto": 1727,
      "Ġregion": 1728,
      "Ġhand": 1729,
      "\")": 1730,
      "Ġfile": 1731,
      "Ġstud": 1732,
      "ain": 1733,
      "33": 1734,
      "}),": 1735,
      "lish": 1736,
      "uch": 1737,
      "Ġ%": 1738,
      "Ġapproach": 1739,
      "Ġprob": 1740,
      "ier": 1741,
      "Exception": 1742,
      "Ġgraph": 1743,
      "dots": 1744,
      "ict": 1745,
      "Ġfeature": 1746,
      "Ġtop": 1747,
      "Ġradi": 1748,
      "color": 1749,
      "nonumber": 1750,
      "CT": 1751,
      "Ġcalc": 1752,
      "Ġimport": 1753,
      "andom": 1754,
      "Ġent": 1755,
      "ene": 1756,
      "Ġyear": 1757,
      "AN": 1758,
      "ov": 1759,
      "location": 1760,
      "rror": 1761,
      "Sigma": 1762,
      "Ġinformation": 1763,
      "Ġcurrent": 1764,
      "br": 1765,
      "Ġwor": 1766,
      "Ġbecause": 1767,
      "nbsp": 1768,
      "\\[": 1769,
      "64": 1770,
      "rop": 1771,
      "ixed": 1772,
      "ee": 1773,
      "Ġconn": 1774,
      "Ġmag": 1775,
      "amp": 1776,
      "Ġmatrix": 1777,
      "Ġtrain": 1778,
      "Ġq": 1779,
      "ural": 1780,
      "Ġeffec": 1781,
      "ij": 1782,
      "Ġfa": 1783,
      "ities": 1784,
      "script": 1785,
      "ww": 1786,
      "cer": 1787,
      "group": 1788,
      "px": 1789,
      "Ġdeter": 1790,
      "ccess": 1791,
      "mm": 1792,
      "Ġsatisf": 1793,
      "Ġterms": 1794,
      "ness": 1795,
      "tity": 1796,
      "Ġfound": 1797,
      "IT": 1798,
      "Ġpri": 1799,
      "Comp": 1800,
      "lack": 1801,
      "odes": 1802,
      "Ġ!=": 1803,
      "Ġsimilar": 1804,
      "Ġadd": 1805,
      "Bu": 1806,
      "Ġsample": 1807,
      "Ġpr": 1808,
      "000": 1809,
      "Ġ///": 1810,
      "At": 1811,
      "defin": 1812,
      "Ġbased": 1813,
      "centering": 1814,
      "Ġnode": 1815,
      "Ġallow": 1816,
      "ĠThen": 1817,
      "Ġinitial": 1818,
      "Ġwho": 1819,
      "ysis": 1820,
      "Un": 1821,
      "Ġvery": 1822,
      "Ġmain": 1823,
      "ared": 1824,
      "23": 1825,
      "ference": 1826,
      "sive": 1827,
      "reg": 1828,
      "Ġ($": 1829,
      "{-": 1830,
      "Ġder": 1831,
      "tice": 1832,
      "Ġparticular": 1833,
      "...": 1834,
      "ĠAl": 1835,
      "Ġsuper": 1836,
      "========": 1837,
      "struct": 1838,
      "Ġinput": 1839,
      "Ġprovide": 1840,
      "gain": 1841,
      "ense": 1842,
      "war": 1843,
      "ĠSt": 1844,
      "ME": 1845,
      "Ġsum": 1846,
      "draw": 1847,
      "widetilde": 1848,
      "tus": 1849,
      "CO": 1850,
      "ings": 1851,
      "erature": 1852,
      "ently": 1853,
      "/\\": 1854,
      "ward": 1855,
      "udi": 1856,
      "Ġfunctions": 1857,
      "rate": 1858,
      "sitive": 1859,
      "Ġdi": 1860,
      "ĠString": 1861,
      "istic": 1862,
      "reak": 1863,
      "Me": 1864,
      "reat": 1865,
      "ĠĠĠĠĊ": 1866,
      "Ġrespec": 1867,
      "ese": 1868,
      "Ġlead": 1869,
      "Object": 1870,
      "ational": 1871,
      "roid": 1872,
      "vert": 1873,
      "Ġprivate": 1874,
      "rc": 1875,
      "ified": 1876,
      "ift": 1877,
      "ĠHe": 1878,
      "ng": 1879,
      "uration": 1880,
      "~~": 1881,
      "Ġtak": 1882,
      "ground": 1883,
      "Ġfind": 1884,
      "tabular": 1885,
      "Ġcould": 1886,
      "Ġeven": 1887,
      "().": 1888,
      "ving": 1889,
      "mon": 1890,
      "Ġredu": 1891,
      "Ġobtained": 1892,
      "Ġmany": 1893,
      "Ġpaper": 1894,
      "Ġlevel": 1895,
      "Ġlear": 1896,
      "Ġsolution": 1897,
      "Ġam": 1898,
      "80": 1899,
      "imum": 1900,
      "link": 1901,
      "tations": 1902,
      "ices": 1903,
      "nt": 1904,
      "matrix": 1905,
      "Ġequation": 1906,
      "Ġdirect": 1907,
      "Ġmust": 1908,
      "}-": 1909,
      "Ġrun": 1910,
      "());": 1911,
      "Ġarg": 1912,
      "Ġdensity": 1913,
      "Ġpredic": 1914,
      "Ġval": 1915,
      "otential": 1916,
      "Ġkey": 1917,
      "ior": 1918,
      "Ġoptim": 1919,
      "Ġmap": 1920,
      "Get": 1921,
      "Ġcorresponding": 1922,
      "Cont": 1923,
      "Ġvariable": 1924,
      "ication": 1925,
      "Ġsingle": 1926,
      "Ġcharacter": 1927,
      "Ġcho": 1928,
      "Ġsequ": 1929,
      "Ġhy": 1930,
      "Ġobject": 1931,
      "Ġlinear": 1932,
      "rack": 1933,
      "ffer": 1934,
      "map": 1935,
      "Ġexperim": 1936,
      "roll": 1937,
      "zeta": 1938,
      "Ġshows": 1939,
      "Ġaddition": 1940,
      "Fig": 1941,
      "Ġplan": 1942,
      "ology": 1943,
      "annel": 1944,
      "oup": 1945,
      "Ġact": 1946,
      "Ġaction": 1947,
      "Ġpath": 1948,
      "Ġdete": 1949,
      "emma": 1950,
      "verse": 1951,
      "Ġ:=": 1952,
      "summary": 1953,
      "Ġcall": 1954,
      "){": 1955,
      "const": 1956,
      "\\]": 1957,
      "date": 1958,
      "Error": 1959,
      "ock": 1960,
      "Ġhow": 1961,
      "Test": 1962,
      "pper": 1963,
      "Ġlike": 1964,
      "ĠThere": 1965,
      "ĠLet": 1966,
      "public": 1967,
      "Ġtyp": 1968,
      "index": 1969,
      "\\{": 1970,
      "Ġemp": 1971,
      "prime": 1972,
      "Ġpoints": 1973,
      "Ġcondition": 1974,
      "Ġscal": 1975,
      "._": 1976,
      "aw": 1977,
      "Ġindic": 1978,
      "}+": 1979,
      "Ġcoun": 1980,
      "imple": 1981,
      "Ġstand": 1982,
      "Ġstates": 1983,
      "Ġfinite": 1984,
      "inc": 1985,
      "Ġconstant": 1986,
      "path": 1987,
      "Ġdue": 1988,
      "mission": 1989,
      "Ġav": 1990,
      ")=\\": 1991,
      "tivity": 1992,
      "orted": 1993,
      "ĠEx": 1994,
      "pec": 1995,
      "Ġleft": 1996,
      "model": 1997,
      "].": 1998,
      "uc": 1999,
      "velop": 2000,
      "45": 2001,
      "Ġapproxi": 2002,
      "ils": 2003,
      "gebra": 2004,
      "ĠTheorem": 2005,
      "base": 2006,
      "75": 2007,
      "\";": 2008,
      "lies": 2009,
      "ides": 2010,
      "LA": 2011,
      "ĠEq": 2012,
      "ug": 2013,
      "}=\\": 2014,
      "Ġexist": 2015,
      "Ġlist": 2016,
      "indow": 2017,
      "Ġobserv": 2018,
      "unc": 2019,
      "Ġ&=": 2020,
      "bility": 2021,
      "Al": 2022,
      "ival": 2023,
      "RO": 2024,
      ")}\\": 2025,
      "TE": 2026,
      "Sh": 2027,
      "ott": 2028,
      "Ġbeing": 2029,
      "ĠHowever": 2030,
      "File": 2031,
      "State": 2032,
      "cho": 2033,
      "ants": 2034,
      "\\!\\!": 2035,
      "bed": 2036,
      "Ġuni": 2037,
      "Ġway": 2038,
      "ying": 2039,
      "lication": 2040,
      "PI": 2041,
      "Ġhel": 2042,
      "ually": 2043,
      "cept": 2044,
      "Ġorigin": 2045,
      "thm": 2046,
      "Ġpossible": 2047,
      "Ġdimension": 2048,
      "lable": 2049,
      "oint": 2050,
      "perty": 2051,
      "Ġcontinu": 2052,
      "Ġrespectively": 2053,
      "list": 2054,
      "Ġthose": 2055,
      "Ġhere": 2056,
      "{(": 2057,
      "He": 2058,
      "');": 2059,
      "Ġmon": 2060,
      "Ġsyste": 2061,
      "Ġproof": 2062,
      "mit": 2063,
      ")^{": 2064,
      "url": 2065,
      "ditions": 2066,
      "http": 2067,
      "Ġplay": 2068,
      "ets": 2069,
      "ely": 2070,
      "LL": 2071,
      "Class": 2072,
      "Ġtheory": 2073,
      "Ġread": 2074,
      "prop": 2075,
      "dependent": 2076,
      "yc": 2077,
      "ternal": 2078,
      "ins": 2079,
      "27": 2080,
      "99": 2081,
      "Key": 2082,
      "}]": 2083,
      "ĠWh": 2084,
      "ĠTo": 2085,
      "ĉĉĉĉĉ": 2086,
      "Ġge": 2087,
      "Ġref": 2088,
      "ĠUni": 2089,
      "AC": 2090,
      "Ġmake": 2091,
      "tics": 2092,
      "verage": 2093,
      "Ġintrodu": 2094,
      "Ġagain": 2095,
      "lot": 2096,
      "Ġvector": 2097,
      "Ġbeh": 2098,
      "Ġalgorithm": 2099,
      "Ġrandom": 2100,
      "Ġmean": 2101,
      "Requ": 2102,
      "oth": 2103,
      "ason": 2104,
      "under": 2105,
      "ape": 2106,
      "View": 2107,
      "spect": 2108,
      "Ġpotential": 2109,
      "Ġmultip": 2110,
      "Ġpower": 2111,
      "Ġspectr": 2112,
      "Ġpropo": 2113,
      "Ġflu": 2114,
      "lemma": 2115,
      "sert": 2116,
      "antum": 2117,
      "temp": 2118,
      "['": 2119,
      "Ġrespon": 2120,
      "omorph": 2121,
      "PE": 2122,
      "jects": 2123,
      "On": 2124,
      "ĠSta": 2125,
      ";\\": 2126,
      "}|": 2127,
      "Ġcalcula": 2128,
      "lobal": 2129,
      "$)": 2130,
      "Ġpair": 2131,
      "length": 2132,
      "Ġwhat": 2133,
      "iod": 2134,
      "Ġphase": 2135,
      "side": 2136,
      "}_\\": 2137,
      "erm": 2138,
      "textwidth": 2139,
      "ii": 2140,
      "Ġanalysis": 2141,
      "ute": 2142,
      "Ġlat": 2143,
      "2017": 2144,
      "other": 2145,
      "ople": 2146,
      "(),": 2147,
      "90": 2148,
      "lus": 2149,
      "Ġwithin": 2150,
      "Ġsource": 2151,
      "Ġimage": 2152,
      "Ġcomplex": 2153,
      "Ġlast": 2154,
      "Ġdeta": 2155,
      "It": 2156,
      "ĠSection": 2157,
      "Ġrange": 2158,
      "28": 2159,
      "Ġlimit": 2160,
      ".</": 2161,
      "ily": 2162,
      "IC": 2163,
      "dt": 2164,
      "cdots": 2165,
      "struction": 2166,
      "}^\\": 2167,
      "Ġevent": 2168,
      "search": 2169,
      "Op": 2170,
      "Ġbefore": 2171,
      "2018": 2172,
      "pack": 2173,
      "mages": 2174,
      "If": 2175,
      "Ġassoci": 2176,
      "Ġtri": 2177,
      "tis": 2178,
      "}}(": 2179,
      "Ġlog": 2180,
      ",-": 2181,
      "load": 2182,
      "ators": 2183,
      "tribute": 2184,
      "Ġmethods": 2185,
      "Equ": 2186,
      "Lo": 2187,
      "Ġvis": 2188,
      "Ġpresent": 2189,
      "35": 2190,
      "aus": 2191,
      "Ġprevious": 2192,
      "Ġtotal": 2193,
      "Ġtarget": 2194,
      "asi": 2195,
      "Ġsymme": 2196,
      "Ġterm": 2197,
      "Ġknow": 2198,
      "ived": 2199,
      "Ġ/>": 2200,
      "ources": 2201,
      "TR": 2202,
      "Ġdefine": 2203,
      "sequ": 2204,
      "pos": 2205,
      "Ġindex": 2206,
      "Ġ\\{": 2207,
      "})\\": 2208,
      "qquad": 2209,
      "Qu": 2210,
      "ĉĊ": 2211,
      "lin": 2212,
      "Ġlength": 2213,
      "Ġdeg": 2214,
      "']": 2215,
      "small": 2216,
      "Ġstrong": 2217,
      "land": 2218,
      "ĠFigure": 2219,
      "26": 2220,
      "Ġdynam": 2221,
      "vir": 2222,
      "vari": 2223,
      "01": 2224,
      "Ġher": 2225,
      "Ġconfig": 2226,
      "Ġrate": 2227,
      "Ġcontext": 2228,
      "With": 2229,
      "\":": 2230,
      ".~": 2231,
      "Time": 2232,
      "Ġblock": 2233,
      "2016": 2234,
      "rows": 2235,
      "nav": 2236,
      "note": 2237,
      "xspace": 2238,
      "05": 2239,
      "Ġelec": 2240,
      "js": 2241,
      "2020": 2242,
      "\"></": 2243,
      "``": 2244,
      "ron": 2245,
      "ules": 2246,
      "SI": 2247,
      "Psi": 2248,
      "Ġdetermin": 2249,
      "Ġstudy": 2250,
      "^+": 2251,
      "Ġlay": 2252,
      "Ġet": 2253,
      "ister": 2254,
      "ances": 2255,
      "Ġbas": 2256,
      "Node": 2257,
      "from": 2258,
      "ordin": 2259,
      "Ġocc": 2260,
      "Ġ);": 2261,
      "Ġcheck": 2262,
      "Ġexists": 2263,
      "field": 2264,
      "bor": 2265,
      "fe": 2266,
      "Ġproperties": 2267,
      "olean": 2268,
      "{{\\": 2269,
      "mathsf": 2270,
      "ouble": 2271,
      "pdf": 2272,
      "ĠAr": 2273,
      "ager": 2274,
      "Ġspa": 2275,
      "mid": 2276,
      "Ġdevelop": 2277,
      "Ġjust": 2278,
      "2019": 2279,
      "Ġwithout": 2280,
      "Ġcode": 2281,
      "Ġboun": 2282,
      "}^{(": 2283,
      "Ġversion": 2284,
      "ude": 2285,
      "}\\,": 2286,
      "Ġbase": 2287,
      "Ġclu": 2288,
      "Ġconver": 2289,
      "ĠNew": 2290,
      "Ġzero": 2291,
      "ither": 2292,
      "onal": 2293,
      "Ġtext": 2294,
      ")]": 2295,
      "ĠLemma": 2296,
      "aris": 2297,
      "&=": 2298,
      "Man": 2299,
      "widehat": 2300,
      "Ġinstance": 2301,
      "ctor": 2302,
      "Ġcontrol": 2303,
      "light": 2304,
      "Ġcoup": 2305,
      "2015": 2306,
      "till": 2307,
      "tically": 2308,
      "ks": 2309,
      "orts": 2310,
      "Ġprobability": 2311,
      "Ġperformance": 2312,
      "ched": 2313,
      "star": 2314,
      "Ġduring": 2315,
      "Ġuser": 2316,
      "king": 2317,
      "Le": 2318,
      "wise": 2319,
      "rid": 2320,
      "ental": 2321,
      "ify": 2322,
      "eps": 2323,
      "Ġtask": 2324,
      "Ġconditions": 2325,
      "Ġremain": 2326,
      "Ġenc": 2327,
      "}\\\\": 2328,
      "sif": 2329,
      "Ġnext": 2330,
      "/**": 2331,
      "Ġformu": 2332,
      "util": 2333,
      "Ġlower": 2334,
      "appro": 2335,
      "Ġtech": 2336,
      "ĠRes": 2337,
      "Ġindu": 2338,
      "wn": 2339,
      "198": 2340,
      "ession": 2341,
      "ĠâĢĵ": 2342,
      "Int": 2343,
      "Ġview": 2344,
      "ures": 2345,
      "anel": 2346,
      "Ġ$(\\": 2347,
      "Ġcalled": 2348,
      "Ġ?": 2349,
      "cos": 2350,
      "Ġnormal": 2351,
      "=\"../../": 2352,
      "Ġmom": 2353,
      "Ġoutput": 2354,
      "Event": 2355,
      "34": 2356,
      "anc": 2357,
      "igned": 2358,
      "ĠNo": 2359,
      "Element": 2360,
      "29": 2361,
      "Ġsimp": 2362,
      "Ġframe": 2363,
      "netic": 2364,
      "cription": 2365,
      "cup": 2366,
      "operator": 2367,
      "Ġassert": 2368,
      "ocument": 2369,
      "MA": 2370,
      "Ġidentif": 2371,
      "Ġsystems": 2372,
      "Ġ&\\": 2373,
      "user": 2374,
      "point": 2375,
      "70": 2376,
      "subset": 2377,
      "Ġcirc": 2378,
      "upp": 2379,
      "which": 2380,
      "Ġquantum": 2381,
      "Ġknown": 2382,
      "Ġoperator": 2383,
      "alax": 2384,
      "Ġtimes": 2385,
      "Ġopen": 2386,
      "Text": 2387,
      "onents": 2388,
      "':": 2389,
      "osition": 2390,
      "Ġarray": 2391,
      "Info": 2392,
      "ottom": 2393,
      "Path": 2394,
      "input": 2395,
      "page": 2396,
      "Ġcar": 2397,
      "ged": 2398,
      "Ġauth": 2399,
      "ends": 2400,
      "lected": 2401,
      "Ġmuch": 2402,
      "Ġmy": 2403,
      "Ġpositive": 2404,
      "}:": 2405,
      "Ġexpected": 2406,
      "Ġfour": 2407,
      "[]": 2408,
      "Ġsignific": 2409,
      "ages": 2410,
      "sets": 2411,
      "Ġwidth": 2412,
      "medi": 2413,
      "tron": 2414,
      "but": 2415,
      "urb": 2416,
      "scale": 2417,
      "foot": 2418,
      "ĠOn": 2419,
      "ride": 2420,
      "lated": 2421,
      "state": 2422,
      "Ġimple": 2423,
      "Ġpeople": 2424,
      "66": 2425,
      "Se": 2426,
      "Ġfam": 2427,
      "}}{\\": 2428,
      "equiv": 2429,
      "lying": 2430,
      "sian": 2431,
      "ĠBy": 2432,
      "Ġproperty": 2433,
      "effici": 2434,
      "Context": 2435,
      "Ġsaid": 2436,
      "ording": 2437,
      "Ġdiscus": 2438,
      "Ġfactor": 2439,
      "/*": 2440,
      "Ġcases": 2441,
      "Ġrequire": 2442,
      "LO": 2443,
      "Ġfil": 2444,
      "Ġsimple": 2445,
      "true": 2446,
      "den": 2447,
      "!--": 2448,
      "Ġpop": 2449,
      "Ġwrit": 2450,
      "Ġsequence": 2451,
      "App": 2452,
      "Ġtemperature": 2453,
      "iled": 2454,
      "ging": 2455,
      "api": 2456,
      "'t": 2457,
      "Ġrele": 2458,
      "lassif": 2459,
      "ensor": 2460,
      "do": 2461,
      "Ġchange": 2462,
      "amespace": 2463,
      "Ġalong": 2464,
      "Request": 2465,
      "ailable": 2466,
      "Ġthus": 2467,
      "Ġhigher": 2468,
      "Ġtraining": 2469,
      "lue": 2470,
      "Ġequival": 2471,
      "imal": 2472,
      "loat": 2473,
      "citet": 2474,
      "Ġcontra": 2475,
      "off": 2476,
      "Ġgu": 2477,
      "=\"+": 2478,
      "2014": 2479,
      "Ġimportant": 2480,
      "Ġobserved": 2481,
      "ĠSh": 2482,
      "Ġfixed": 2483,
      "]$": 2484,
      "Ġassume": 2485,
      "Config": 2486,
      "Ġtitle": 2487,
      "|^": 2488,
      "ati": 2489,
      "())": 2490,
      "}+\\": 2491,
      "lied": 2492,
      "++": 2493,
      "Ġphot": 2494,
      "Ġtake": 2495,
      "Index": 2496,
      "ache": 2497,
      "\"\"": 2498,
      "indent": 2499,
      "umb": 2500,
      "Code": 2501,
      "Ġmatch": 2502,
      "Ġstandard": 2503,
      "pping": 2504,
      "void": 2505,
      "48": 2506,
      "Ġbehav": 2507,
      "Ġconf": 2508,
      "Ġyour": 2509,
      "body": 2510,
      "Ġposition": 2511,
      "AB": 2512,
      "Ġinteraction": 2513,
      "omin": 2514,
      "No": 2515,
      "Ġevalu": 2516,
      "hspace": 2517,
      "itor": 2518,
      "Ġelements": 2519,
      "Ġchang": 2520,
      "Ġproduct": 2521,
      "neq": 2522,
      "Ġfurther": 2523,
      "ush": 2524,
      "II": 2525,
      "Ġ},": 2526,
      "ik": 2527,
      "apache": 2528,
      "ĠĠĠĠĠĠĠĠĠĠĠĠ": 2529,
      "ilder": 2530,
      "ern": 2531,
      "Ġassociated": 2532,
      "Ġproposed": 2533,
      "arent": 2534,
      "dimension": 2535,
      "Over": 2536,
      "oll": 2537,
      "cope": 2538,
      "ĠĠĠĠĠĠĠĠĠĠĠĠĠĠĠĠĠĠĠĠĠĠĠĠĠĠĠ": 2539,
      "'$": 2540,
      "({\\": 2541,
      "Ġyears": 2542,
      ")-": 2543,
      "Ġ/*": 2544,
      "Ġphys": 2545,
      "Ġfrequ": 2546,
      "Ġabs": 2547,
      "Ġstudi": 2548,
      "licit": 2549,
      "way": 2550,
      "Ġ(!": 2551,
      "AD": 2552,
      "}-\\": 2553,
      "Ġstill": 2554,
      "lip": 2555,
      "Ġimpro": 2556,
      "olutions": 2557,
      "ĠEn": 2558,
      "https": 2559,
      "AS": 2560,
      "ĠUn": 2561,
      "Ġremo": 2562,
      "ML": 2563,
      "block": 2564,
      "umerate": 2565,
      "tem": 2566,
      "////////": 2567,
      "Ġide": 2568,
      "Ġperiod": 2569,
      "Ġsever": 2570,
      "footnote": 2571,
      "UR": 2572,
      "Ġshe": 2573,
      "Ġear": 2574,
      "Ġsetting": 2575,
      "....": 2576,
      "Ġcontribu": 2577,
      "Wh": 2578,
      "Ġstart": 2579,
      "Ġmade": 2580,
      "ĠLe": 2581,
      "Ġquan": 2582,
      "From": 2583,
      "vis": 2584,
      "Ġsupport": 2585,
      "Ġdenote": 2586,
      "asing": 2587,
      "theorem": 2588,
      "Ġscale": 2589,
      "pon": 2590,
      "Be": 2591,
      "call": 2592,
      "alle": 2593,
      "ED": 2594,
      "Ġdiff": 2595,
      "oh": 2596,
      "Add": 2597,
      "Ġalgebra": 2598,
      "55": 2599,
      "arg": 2600,
      "ĠĠĠĠĠĠĠĠĠĠ": 2601,
      "2013": 2602,
      "ogle": 2603,
      "Ġlines": 2604,
      "Ġlabel": 2605,
      "ams": 2606,
      "sin": 2607,
      "Map": 2608,
      "****************": 2609,
      "thing": 2610,
      "Ġclear": 2611,
      "Ġrespect": 2612,
      "ife": 2613,
      "config": 2614,
      "Ġbackground": 2615,
      "36": 2616,
      "Ġleast": 2617,
      "Ġsignificant": 2618,
      "Ġbreak": 2619,
      "valid": 2620,
      "Service": 2621,
      "MP": 2622,
      "serv": 2623,
      "ters": 2624,
      "ĠAss": 2625,
      "Ġcombin": 2626,
      "ken": 2627,
      "Ġbelow": 2628,
      "mul": 2629,
      "ider": 2630,
      "Ġvalid": 2631,
      "Or": 2632,
      "error": 2633,
      "Ġgalax": 2634,
      "Ġappear": 2635,
      "Ġaround": 2636,
      "Ġ-\\": 2637,
      "sw": 2638,
      "enumerate": 2639,
      "opy": 2640,
      "Ġfields": 2641,
      "loy": 2642,
      "next": 2643,
      "assert": 2644,
      "illi": 2645,
      "FF": 2646,
      "gener": 2647,
      "tig": 2648,
      "net": 2649,
      "Array": 2650,
      "oin": 2651,
      "Ġinf": 2652,
      "Ġsepar": 2653,
      "Ġdistance": 2654,
      "loc": 2655,
      "ui": 2656,
      "Ġanaly": 2657,
      "Exp": 2658,
      "ĠSince": 2659,
      ")}{": 2660,
      "itemize": 2661,
      "edge": 2662,
      "ocus": 2663,
      "Ġequations": 2664,
      "0000": 2665,
      "Ġfull": 2666,
      "operatorname": 2667,
      "Ver": 2668,
      "Ġcross": 2669,
      "Ġ});": 2670,
      "Ġlink": 2671,
      "Ġconsist": 2672,
      "]\\": 2673,
      "tra": 2674,
      "sl": 2675,
      "olumn": 2676,
      "mi": 2677,
      "Ġke": 2678,
      "head": 2679,
      "ump": 2680,
      "38": 2681,
      "ION": 2682,
      "Of": 2683,
      "Ġcomplete": 2684,
      "split": 2685,
      "Ġbin": 2686,
      "Ġestima": 2687,
      "word": 2688,
      "dag": 2689,
      "attern": 2690,
      "meric": 2691,
      "ological": 2692,
      "ev": 2693,
      "Ġdefault": 2694,
      "scr": 2695,
      "Ġlearning": 2696,
      "Ġdown": 2697,
      "check": 2698,
      "xy": 2699,
      "Ġboundary": 2700,
      "Ġcommun": 2701,
      "ttp": 2702,
      "ways": 2703,
      "vspace": 2704,
      "viron": 2705,
      "display": 2706,
      "Des": 2707,
      "Ġspin": 2708,
      "Ġnumer": 2709,
      "ret": 2710,
      "ited": 2711,
      "uage": 2712,
      "hip": 2713,
      "omial": 2714,
      "Ġfree": 2715,
      "Ġfeatures": 2716,
      "ring": 2717,
      "Ġeffect": 2718,
      "define": 2719,
      "Table": 2720,
      "Ġeither": 2721,
      "rans": 2722,
      "ater": 2723,
      "Def": 2724,
      "';": 2725,
      "Size": 2726,
      "rep": 2727,
      "Ġloss": 2728,
      "Model": 2729,
      "(-": 2730,
      "95": 2731,
      "Ġincluding": 2732,
      "Ġdomain": 2733,
      "any": 2734,
      "Ġweight": 2735,
      "result": 2736,
      "Ġmar": 2737,
      "Ġrequired": 2738,
      "Ġsimula": 2739,
      "âĢĵ": 2740,
      "Ġcontent": 2741,
      "UT": 2742,
      "Ġedge": 2743,
      "Ġfit": 2744,
      "Tr": 2745,
      "Ġnear": 2746,
      "Ġbest": 2747,
      "her": 2748,
      "Ġstep": 2749,
      "ended": 2750,
      "Ġdescribed": 2751,
      "eturn": 2752,
      "noindent": 2753,
      "{}": 2754,
      "Ġexact": 2755,
      "Ġdep": 2756,
      "igen": 2757,
      "md": 2758,
      "command": 2759,
      "Ġmark": 2760,
      "2012": 2761,
      "cl": 2762,
      "Ġconsidered": 2763,
      "tices": 2764,
      "Ġaverage": 2765,
      "Dis": 2766,
      "CH": 2767,
      ")}$": 2768,
      "stand": 2769,
      "ready": 2770,
      "icy": 2771,
      "Ġvel": 2772,
      "ware": 2773,
      "based": 2774,
      "itch": 2775,
      "fill": 2776,
      "Ġcolor": 2777,
      "tional": 2778,
      "Ġaccu": 2779,
      "37": 2780,
      "IS": 2781,
      "\\,\\": 2782,
      "ctions": 2783,
      "tio": 2784,
      "ĠThus": 2785,
      "$}": 2786,
      "Ġnil": 2787,
      "py": 2788,
      "Ġless": 2789,
      "Ġimplies": 2790,
      "}}_": 2791,
      "Ġinterest": 2792,
      "Ġchannel": 2793,
      "Ġrece": 2794,
      "multic": 2795,
      "Ġcomponent": 2796,
      "Ġdeno": 2797,
      "chie": 2798,
      "tag": 2799,
      "object": 2800,
      "39": 2801,
      "Ġdefinition": 2802,
      "Ġgood": 2803,
      "Rec": 2804,
      "ouse": 2805,
      "default": 2806,
      "ns": 2807,
      "ustom": 2808,
      "Ġlight": 2809,
      "cing": 2810,
      "ĠThese": 2811,
      "versity": 2812,
      "ail": 2813,
      "dimensional": 2814,
      "my": 2815,
      "44": 2816,
      "ral": 2817,
      "ĠMe": 2818,
      "&&": 2819,
      "icon": 2820,
      "Ġmeans": 2821,
      "refer": 2822,
      "Ġsurface": 2823,
      "Ġflow": 2824,
      "Ġseveral": 2825,
      "bs": 2826,
      "char": 2827,
      "create": 2828,
      "\\}$": 2829,
      "formed": 2830,
      "Hand": 2831,
      "Ġbi": 2832,
      "Ġlit": 2833,
      "System": 2834,
      "ris": 2835,
      "ether": 2836,
      "ric": 2837,
      "stead": 2838,
      "overn": 2839,
      "tot": 2840,
      "ocity": 2841,
      "ĠApp": 2842,
      "part": 2843,
      "ync": 2844,
      "Ġclose": 2845,
      "Message": 2846,
      "mar": 2847,
      "Ġinst": 2848,
      "Ġcri": 2849,
      "version": 2850,
      "multicolumn": 2851,
      "Ġcoeffici": 2852,
      "day": 2853,
      "IG": 2854,
      "Ġcolumn": 2855,
      "65": 2856,
      "quot": 2857,
      "Ġgenerated": 2858,
      "NN": 2859,
      "####": 2860,
      "rary": 2861,
      "Ġwrite": 2862,
      "Ġexpression": 2863,
      "Ġsets": 2864,
      "There": 2865,
      "Ġtable": 2866,
      "gen": 2867,
      "Ġavailable": 2868,
      "ura": 2869,
      "png": 2870,
      "Ġunit": 2871,
      "Ġaff": 2872,
      "Ġband": 2873,
      "ĠOb": 2874,
      "bb": 2875,
      "mathscr": 2876,
      "04": 2877,
      "Ġ\\|": 2878,
      "resh": 2879,
      "nal": 2880,
      "teq": 2881,
      "pc": 2882,
      "por": 2883,
      "Ġ===": 2884,
      "uments": 2885,
      "02": 2886,
      "31": 2887,
      "mbed": 2888,
      "ane": 2889,
      "gative": 2890,
      "Pi": 2891,
      "ah": 2892,
      "abled": 2893,
      "Ġspe": 2894,
      "Ġmoment": 2895,
      "ateg": 2896,
      "){\\": 2897,
      "Ġcreate": 2898,
      "Ġcell": 2899,
      "uture": 2900,
      "Ġachie": 2901,
      "Field": 2902,
      "AA": 2903,
      "arison": 2904,
      "Ġlarger": 2905,
      "gt": 2906,
      "tition": 2907,
      "lain": 2908,
      "approx": 2909,
      "ars": 2910,
      "Ġrefer": 2911,
      "='": 2912,
      "ategory": 2913,
      "iform": 2914,
      "Ġclassif": 2915,
      "08": 2916,
      "ĠComp": 2917,
      "ĠAd": 2918,
      "linear": 2919,
      "Ġcontains": 2920,
      "atter": 2921,
      "2011": 2922,
      "ET": 2923,
      "CC": 2924,
      "Ġauto": 2925,
      "multi": 2926,
      "kn": 2927,
      "skip": 2928,
      "ecess": 2929,
      "texttt": 2930,
      "chan": 2931,
      "Ġvia": 2932,
      "Ġextra": 2933,
      "conn": 2934,
      "ĠAt": 2935,
      "chool": 2936,
      "SP": 2937,
      "Ġside": 2938,
      ")+": 2939,
      "Ġlaw": 2940,
      "angle": 2941,
      "Ġpers": 2942,
      "Ġcap": 2943,
      "~$": 2944,
      "Ġrepresentation": 2945,
      "Is": 2946,
      "((": 2947,
      "method": 2948,
      "Ġnote": 2949,
      "Ġcoordin": 2950,
      "mooth": 2951,
      "Item": 2952,
      "defined": 2953,
      "sto": 2954,
      "normal": 2955,
      "Ġspecific": 2956,
      "Ġassump": 2957,
      "olume": 2958,
      "Ġprove": 2959,
      "Ġoccur": 2960,
      "}/": 2961,
      "Ġ-->": 2962,
      "Ġjava": 2963,
      "Ġmis": 2964,
      "ln": 2965,
      "Ġrequest": 2966,
      "Ġcer": 2967,
      "Ġsolutions": 2968,
      "enu": 2969,
      "gg": 2970,
      "Ġhal": 2971,
      "trm": 2972,
      "jor": 2973,
      "Ð¾": 2974,
      "Out": 2975,
      "ĠMore": 2976,
      "using": 2977,
      "Ġrelation": 2978,
      "Ġvariables": 2979,
      "seteq": 2980,
      "Ġresponse": 2981,
      "reate": 2982,
      "reen": 2983,
      "ponse": 2984,
      "Ġ_{": 2985,
      "Ġequal": 2986,
      "ished": 2987,
      "ĠSo": 2988,
      "Ġiter": 2989,
      "78": 2990,
      "ĠTable": 2991,
      "Ġim": 2992,
      "mentation": 2993,
      "aving": 2994,
      "Ġholds": 2995,
      "Ġrecent": 2996,
      "textrm": 2997,
      "Ġnat": 2998,
      "ename": 2999,
      "Ġinclude": 3000,
      "most": 3001,
      "EE": 3002,
      "Ġrelations": 3003,
      "Ġdiv": 3004,
      "lt": 3005,
      "Ġindependent": 3006,
      "Ġpass": 3007,
      "ES": 3008,
      "www": 3009,
      "urity": 3010,
      "Ġprote": 3011,
      "tainer": 3012,
      "mic": 3013,
      "06": 3014,
      "}}}": 3015,
      "lete": 3016,
      "local": 3017,
      "lar": 3018,
      "2010": 3019,
      "Ġ};": 3020,
      "Ġbetter": 3021,
      "down": 3022,
      "OT": 3023,
      "PT": 3024,
      "Ġmagnetic": 3025,
      "doc": 3026,
      "underline": 3027,
      "Ġlook": 3028,
      "though": 3029,
      "Ġanother": 3030,
      "riter": 3031,
      "Ġconstrain": 3032,
      "Inter": 3033,
      "Ġgives": 3034,
      "Ġrelated": 3035,
      "that": 3036,
      "gence": 3037,
      "Ġ__": 3038,
      "Ġques": 3039,
      "Ġhom": 3040,
      "matic": 3041,
      "roller": 3042,
      "Ġoriginal": 3043,
      "gl": 3044,
      "divid": 3045,
      "Ġweak": 3046,
      "Ġestimate": 3047,
      "ING": 3048,
      "Ġchild": 3049,
      "can": 3050,
      "site": 3051,
      "tor": 3052,
      "Ġtherefore": 3053,
      "Ġdid": 3054,
      "Ġ$\\{": 3055,
      "member": 3056,
      "duct": 3057,
      "func": 3058,
      "ticle": 3059,
      "][": 3060,
      "lations": 3061,
      "Ġintegra": 3062,
      "Ġseen": 3063,
      "false": 3064,
      "current": 3065,
      "ĠAmeric": 3066,
      "ket": 3067,
      "^-": 3068,
      "Ġmode": 3069,
      "now": 3070,
      "ĠSec": 3071,
      "ety": 3072,
      "vironment": 3073,
      "IR": 3074,
      "subseteq": 3075,
      "stit": 3076,
      "Ġhelp": 3077,
      "Ġturn": 3078,
      "jective": 3079,
      "port": 3080,
      "Ġfew": 3081,
      "Color": 3082,
      "tle": 3083,
      "](": 3084,
      "Ġfla": 3085,
      "minus": 3086,
      "ible": 3087,
      "Ġsearch": 3088,
      "Ġcomponents": 3089,
      "pped": 3090,
      "ynomial": 3091,
      "context": 3092,
      "ecu": 3093,
      "Theta": 3094,
      "Ġwave": 3095,
      "ULL": 3096,
      "ale": 3097,
      "=\"../../../../": 3098,
      "height": 3099,
      "uman": 3100,
      "ird": 3101,
      "flow": 3102,
      "Ġalready": 3103,
      "ĠTherefore": 3104,
      "finite": 3105,
      "Ġgive": 3106,
      "lished": 3107,
      "TD": 3108,
      "info": 3109,
      "Ġcor": 3110,
      "kes": 3111,
      "Cell": 3112,
      "Ġseries": 3113,
      "Ġcannot": 3114,
      "lugin": 3115,
      "ĠNote": 3116,
      "ĉĉĉĉĉĉ": 3117,
      "more": 3118,
      "Ġmedi": 3119,
      "Query": 3120,
      "),\\": 3121,
      "Ġcluster": 3122,
      "49": 3123,
      "Comm": 3124,
      "All": 3125,
      "Ġregular": 3126,
      "Ġreco": 3127,
      "cheme": 3128,
      "laim": 3129,
      "}^{-": 3130,
      "Ġimages": 3131,
      "tual": 3132,
      "Ġglobal": 3133,
      "Ġtransition": 3134,
      "sid": 3135,
      "{$": 3136,
      "ade": 3137,
      "Ġ$|": 3138,
      "Since": 3139,
      "OD": 3140,
      "Ġsay": 3141,
      "}'": 3142,
      "Reg": 3143,
      "03": 3144,
      "ressed": 3145,
      ";&": 3146,
      "ait": 3147,
      "ĠÐ": 3148,
      "core": 3149,
      "Then": 3150,
      "Ġspectrum": 3151,
      "ymp": 3152,
      "77": 3153,
      "--------------------------------": 3154,
      "sions": 3155,
      ">&": 3156,
      "vices": 3157,
      "orth": 3158,
      "long": 3159,
      "Ġwhether": 3160,
      "Ã©": 3161,
      "Ġalways": 3162,
      "Ġlang": 3163,
      "Ġcost": 3164,
      "<\\": 3165,
      "example": 3166,
      "start": 3167,
      "af": 3168,
      "android": 3169,
      "prod": 3170,
      "Mod": 3171,
      "ĠCol": 3172,
      "Ġ(-": 3173,
      "Ġmaximum": 3174,
      "java": 3175,
      "package": 3176,
      "Co": 3177,
      "}}_{": 3178,
      "GL": 3179,
      "68": 3180,
      "End": 3181,
      "Ġneu": 3182,
      "istory": 3183,
      "Ġ\\;": 3184,
      "content": 3185,
      "ned": 3186,
      "ender": 3187,
      "Ġadditional": 3188,
      "Ġsrc": 3189,
      "Ġeffective": 3190,
      "az": 3191,
      "CD": 3192,
      "ĠPar": 3193,
      "Ġnecess": 3194,
      "norm": 3195,
      "Sec": 3196,
      "Ġsuccess": 3197,
      "Ġdesign": 3198,
      "Ġvelocity": 3199,
      "Method": 3200,
      "has": 3201,
      "Ġaddress": 3202,
      "Ġgreat": 3203,
      "Ġbuil": 3204,
      "Ġprovided": 3205,
      "bug": 3206,
      "Ass": 3207,
      "Ġcoupling": 3208,
      "Ġsyn": 3209,
      "ĠGet": 3210,
      "ĠSet": 3211,
      "Ġpur": 3212,
      "Ġmultiple": 3213,
      "tational": 3214,
      "09": 3215,
      "Ġoptions": 3216,
      "gether": 3217,
      "cep": 3218,
      "racy": 3219,
      "}},": 3220,
      "oot": 3221,
      "^{-\\": 3222,
      "Log": 3223,
      "Ġbro": 3224,
      "acc": 3225,
      "Result": 3226,
      "Ġcommon": 3227,
      "ories": 3228,
      "ledge": 3229,
      "Manager": 3230,
      "gine": 3231,
      "alth": 3232,
      "dividual": 3233,
      "Ġmessage": 3234,
      "hand": 3235,
      "Ġshort": 3236,
      "terial": 3237,
      "Ġhim": 3238,
      "Response": 3239,
      "Ġdegree": 3240,
      "omes": 3241,
      "UN": 3242,
      "Ġinvol": 3243,
      "Ġintegr": 3244,
      "Ġeigen": 3245,
      "Property": 3246,
      ")|": 3247,
      "leg": 3248,
      "Ġown": 3249,
      "OS": 3250,
      "Ġdifference": 3251,
      "eV": 3252,
      "Ġderiv": 3253,
      "rule": 3254,
      "column": 3255,
      "oriz": 3256,
      "Ġprec": 3257,
      "bt": 3258,
      "Ġblack": 3259,
      "ention": 3260,
      "Ġprogram": 3261,
      "Ð°": 3262,
      "Ġtheorem": 3263,
      "amil": 3264,
      "Fra": 3265,
      "07": 3266,
      "oud": 3267,
      "incip": 3268,
      "icture": 3269,
      "setminus": 3270,
      "dire": 3271,
      "Group": 3272,
      "2009": 3273,
      "linewidth": 3274,
      "Ġbool": 3275,
      "ored": 3276,
      "Ġfilter": 3277,
      "Ġeffici": 3278,
      "Ġevolution": 3279,
      "Ġstyle": 3280,
      "Sub": 3281,
      "Ġreason": 3282,
      "New": 3283,
      "pher": 3284,
      "Ġfamily": 3285,
      "sitions": 3286,
      "Ðµ": 3287,
      "Client": 3288,
      "Ġworld": 3289,
      "ĠĠĠĊ": 3290,
      "Ġplace": 3291,
      "Ġeffects": 3292,
      "inally": 3293,
      "ately": 3294,
      "limits": 3295,
      "AP": 3296,
      "undle": 3297,
      "Ġmetric": 3298,
      "run": 3299,
      "Ġ($\\": 3300,
      "oding": 3301,
      "gn": 3302,
      "Ġstars": 3303,
      "User": 3304,
      "Ġexpect": 3305,
      "ĠSystem": 3306,
      "mes": 3307,
      "Ġbasis": 3308,
      "ires": 3309,
      "omen": 3310,
      "Ġmechan": 3311,
      "Ġinvari": 3312,
      "dagger": 3313,
      "like": 3314,
      "Ġobjects": 3315,
      "Ġresearch": 3316,
      "air": 3317,
      "Ġcontinuous": 3318,
      "Ġcompared": 3319,
      "ĠGL": 3320,
      ".âĢĿ": 3321,
      "Ġinves": 3322,
      "static": 3323,
      "Ġdataset": 3324,
      "67": 3325,
      "iven": 3326,
      "parameter": 3327,
      "Ġatta": 3328,
      "MS": 3329,
      "Ġspecial": 3330,
      "pol": 3331,
      "thes": 3332,
      "earch": 3333,
      "subfigure": 3334,
      "Note": 3335,
      "Ad": 3336,
      "ience": 3337,
      "Ġgeome": 3338,
      "*{": 3339,
      "Ġarea": 3340,
      "Ġsw": 3341,
      "db": 3342,
      "wedge": 3343,
      "Ġnodes": 3344,
      "iff": 3345,
      "Ġrestr": 3346,
      "case": 3347,
      "ĠIs": 3348,
      "Ġvarious": 3349,
      "aces": 3350,
      "And": 3351,
      "Ġsignal": 3352,
      ">(": 3353,
      "_+": 3354,
      "Ġlater": 3355,
      "47": 3356,
      "Vert": 3357,
      "Ġrelative": 3358,
      "Ġinequ": 3359,
      "Ġ$[": 3360,
      "Ġagainst": 3361,
      "98": 3362,
      "tiz": 3363,
      "empty": 3364,
      "ernel": 3365,
      "Ġhowever": 3366,
      "tocol": 3367,
      "van": 3368,
      "Ġratio": 3369,
      "Ġdirection": 3370,
      "Ġpolynomial": 3371,
      "Call": 3372,
      "Po": 3373,
      "clo": 3374,
      "ĠAnd": 3375,
      "Ġhyper": 3376,
      "older": 3377,
      "ght": 3378,
      "ithub": 3379,
      "NS": 3380,
      "idence": 3381,
      "Ġevents": 3382,
      "Ġsk": 3383,
      "web": 3384,
      "wards": 3385,
      "Ġloc": 3386,
      "2008": 3387,
      "Ġapplied": 3388,
      "Bar": 3389,
      "Ġpresented": 3390,
      "omorphism": 3391,
      "ech": 3392,
      "\\}": 3393,
      "ino": 3394,
      "black": 3395,
      "=\"../": 3396,
      "gment": 3397,
      "2021": 3398,
      "element": 3399,
      "deed": 3400,
      "Ġstd": 3401,
      "tage": 3402,
      "Ġnoise": 3403,
      "Ġdouble": 3404,
      "Ġapplic": 3405,
      "Fact": 3406,
      "Ġpanel": 3407,
      "Ġequivalent": 3408,
      "TH": 3409,
      "ĠComm": 3410,
      "auth": 3411,
      "Ġreach": 3412,
      "known": 3413,
      "Ġupper": 3414,
      "turb": 3415,
      "Override": 3416,
      "Ġembed": 3417,
      "level": 3418,
      "ĠĠĠĠĠĠĠĠĠĠĠĠĠĠĠĠĠ": 3419,
      "Ġamp": 3420,
      "quare": 3421,
      "uting": 3422,
      "Ġcour": 3423,
      "chema": 3424,
      "Ġ\\(": 3425,
      "Ġspect": 3426,
      "omic": 3427,
      "oplus": 3428,
      "sup": 3429,
      "Ġmight": 3430,
      "eff": 3431,
      "tyle": 3432,
      "$_": 3433,
      ".\"": 3434,
      "ilities": 3435,
      "Ġpla": 3436,
      "abs": 3437,
      "jection": 3438,
      "Ġwhose": 3439,
      "ENT": 3440,
      "Ġmove": 3441,
      "Ġvertex": 3442,
      "Ġfar": 3443,
      "CE": 3444,
      "css": 3445,
      "ef": 3446,
      "US": 3447,
      "Ġstrate": 3448,
      "La": 3449,
      "Ġindividual": 3450,
      "Ġtypes": 3451,
      "bigg": 3452,
      "ests": 3453,
      "Ġlayer": 3454,
      "module": 3455,
      "Ġgroups": 3456,
      "izing": 3457,
      "hood": 3458,
      "Ref": 3459,
      "Ġcenter": 3460,
      "({": 3461,
      "85": 3462,
      "oken": 3463,
      "Stream": 3464,
      "Ġflux": 3465,
      "izes": 3466,
      "cast": 3467,
      "Ġfrequency": 3468,
      "umbers": 3469,
      "iter": 3470,
      "Ġcl": 3471,
      "Ġcyc": 3472,
      "ATE": 3473,
      "\\\"": 3474,
      "Ġ$-": 3475,
      "dir": 3476,
      "ove": 3477,
      "rees": 3478,
      "Ġbounded": 3479,
      "Ġemission": 3480,
      "outh": 3481,
      "Ġestab": 3482,
      "Ġrole": 3483,
      "lap": 3484,
      "ital": 3485,
      "enari": 3486,
      "Ġaccording": 3487,
      "AME": 3488,
      "ĠCar": 3489,
      "Input": 3490,
      "ĠBut": 3491,
      "Ġbehavior": 3492,
      "ectors": 3493,
      "Ġdia": 3494,
      "Ġlik": 3495,
      "Ġstatis": 3496,
      "mbers": 3497,
      "Ġsmooth": 3498,
      "Ġheight": 3499,
      "github": 3500,
      "Pre": 3501,
      "================": 3502,
      "Ġconstruct": 3503,
      "Builder": 3504,
      "=\"#": 3505,
      "ollary": 3506,
      "dient": 3507,
      "Ġti": 3508,
      "namespace": 3509,
      "Ġrepresent": 3510,
      "_{(": 3511,
      "Ġunique": 3512,
      "Ġcertain": 3513,
      "google": 3514,
      "Ġuncer": 3515,
      "Ġdone": 3516,
      "Gener": 3517,
      "Ġthrow": 3518,
      "ending": 3519,
      "Ġneigh": 3520,
      "stack": 3521,
      "ĠUniversity": 3522,
      "ĠSer": 3523,
      "])": 3524,
      "aligned": 3525,
      "tative": 3526,
      "Ġexplicit": 3527,
      "={": 3528,
      "Ġobservations": 3529,
      "definition": 3530,
      "_*": 3531,
      "image": 3532,
      "_{{\\": 3533,
      "ĠĠĠĠĠĠĠĠĠĠĠĠĠĠ": 3534,
      "Ġexpan": 3535,
      "amilton": 3536,
      "iction": 3537,
      "write": 3538,
      "PS": 3539,
      "Ph": 3540,
      "Ġinstead": 3541,
      "Ġsto": 3542,
      "Ġhence": 3543,
      "Count": 3544,
      "Ext": 3545,
      "Ġpack": 3546,
      "Ġoperators": 3547,
      "Line": 3548,
      "Ġprofile": 3549,
      "ĠTr": 3550,
      "Ġgrow": 3551,
      "ĠĠĠĠĠĠĠĠĠĠĠĠĠĠĠĠĠĠĠĠĠĠĠĠĠĠĠĠĠĠĠ": 3552,
      "forms": 3553,
      "cr": 3554,
      "Ġtechni": 3555,
      "Ġax": 3556,
      "Ġnatural": 3557,
      "sm": 3558,
      "Ġdetails": 3559,
      ";</": 3560,
      "Ġclosed": 3561,
      "ĠCo": 3562,
      "ĠAll": 3563,
      "42": 3564,
      ".$": 3565,
      "orn": 3566,
      "Ġaccount": 3567,
      "FI": 3568,
      "Ġdecre": 3569,
      "Ġgas": 3570,
      "change": 3571,
      "Not": 3572,
      "ĠThey": 3573,
      "Ġfig": 3574,
      "lor": 3575,
      "aries": 3576,
      "'\\": 3577,
      "event": 3578,
      "corre": 3579,
      "city": 3580,
      "Ġfocus": 3581,
      "AG": 3582,
      "Ġexplo": 3583,
      "options": 3584,
      "values": 3585,
      "bul": 3586,
      "Ġil": 3587,
      "ranch": 3588,
      "}}(\\": 3589,
      "Ġ}\\": 3590,
      "46": 3591,
      "LT": 3592,
      "Ġtry": 3593,
      "2007": 3594,
      ")\\,": 3595,
      "Ġenough": 3596,
      "Ġapply": 3597,
      "Ġapproximation": 3598,
      "Ġwant": 3599,
      "Ġsuffici": 3600,
      "FT": 3601,
      "ĠBo": 3602,
      "dap": 3603,
      "=(": 3604,
      "ĠWhen": 3605,
      "textsc": 3606,
      "meta": 3607,
      "Ġsymmetry": 3608,
      "ĠRo": 3609,
      "allel": 3610,
      "icro": 3611,
      "orld": 3612,
      "Ġfuture": 3613,
      "Ġtaken": 3614,
      "ĠPh": 3615,
      "bottom": 3616,
      "uss": 3617,
      "Ġformula": 3618,
      "izer": 3619,
      "Status": 3620,
      "Ġmem": 3621,
      "Trans": 3622,
      "Ġprac": 3623,
      "_{-": 3624,
      "Ġgau": 3625,
      "Ġsmaller": 3626,
      "Bo": 3627,
      "append": 3628,
      "AM": 3629,
      "enti": 3630,
      "query": 3631,
      "iness": 3632,
      "88": 3633,
      "Ġreference": 3634,
      "Ġdirectly": 3635,
      "Dec": 3636,
      "Ġho": 3637,
      "active": 3638,
      "Ġdiscre": 3639,
      "Ġfore": 3640,
      "Net": 3641,
      "Parameter": 3642,
      "ture": 3643,
      "Ġoptimal": 3644,
      "Ġprior": 3645,
      "Ġable": 3646,
      "Ġcurve": 3647,
      "Val": 3648,
      "SU": 3649,
      "ONT": 3650,
      "cy": 3651,
      "Ġtogether": 3652,
      "Ġopp": 3653,
      "mail": 3654,
      "2006": 3655,
      "Ġ|\\": 3656,
      "EX": 3657,
      "96": 3658,
      "Ġins": 3659,
      "Date": 3660,
      "ideo": 3661,
      "ĠProposition": 3662,
      "Ġmatter": 3663,
      "rel": 3664,
      "Ġvir": 3665,
      ")/": 3666,
      "Ġuniform": 3667,
      "Per": 3668,
      "Ġextension": 3669,
      "Ġpost": 3670,
      "frame": 3671,
      "Ġdynamics": 3672,
      "orage": 3673,
      "Ġchoice": 3674,
      "ially": 3675,
      "HT": 3676,
      "fs": 3677,
      "cond": 3678,
      "cell": 3679,
      "$(": 3680,
      "Ġaccess": 3681,
      "null": 3682,
      "Ġimprove": 3683,
      ",\\,": 3684,
      "ropy": 3685,
      "Ġsatisfies": 3686,
      "Spec": 3687,
      "colon": 3688,
      "first": 3689,
      "ili": 3690,
      "Ġtree": 3691,
      "IM": 3692,
      "entif": 3693,
      "encies": 3694,
      "Ġmodule": 3695,
      "fact": 3696,
      "Base": 3697,
      "Ġchanges": 3698,
      "Ġpattern": 3699,
      "uary": 3700,
      "tings": 3701,
      "Ġallows": 3702,
      "ested": 3703,
      "Supp": 3704,
      "client": 3705,
      "Ġboolean": 3706,
      "fit": 3707,
      "move": 3708,
      "ĠNULL": 3709,
      "ques": 3710,
      "lick": 3711,
      "para": 3712,
      "eded": 3713,
      "Ġframework": 3714,
      "supp": 3715,
      "Ġamong": 3716,
      "Ġwritten": 3717,
      ")}(": 3718,
      "'_": 3719,
      "Ed": 3720,
      "Ġgalaxies": 3721,
      "Ġborder": 3722,
      "ek": 3723,
      "Ġwar": 3724,
      "\\'": 3725,
      "Ġproject": 3726,
      "Ġbecomes": 3727,
      ")</": 3728,
      "Ġprovides": 3729,
      "reed": 3730,
      "Ġconstruction": 3731,
      "Util": 3732,
      "Ġproced": 3733,
      "ĠFe": 3734,
      "Ġarbit": 3735,
      "ba": 3736,
      "dle": 3737,
      "Ġbegin": 3738,
      "Ġparticle": 3739,
      "SC": 3740,
      "Ġdon": 3741,
      "Ġdetermined": 3742,
      "Ġproblems": 3743,
      "Ġfun": 3744,
      ":\\": 3745,
      "Ġ<<": 3746,
      "Ġservice": 3747,
      "forall": 3748,
      "Block": 3749,
      "aussian": 3750,
      "print": 3751,
      "Ġparticles": 3752,
      "ised": 3753,
      "aves": 3754,
      "llar": 3755,
      "alk": 3756,
      "ĠPre": 3757,
      "range": 3758,
      "Ġvertices": 3759,
      "Ġlife": 3760,
      "97": 3761,
      "Style": 3762,
      "Ġphysical": 3763,
      "YPE": 3764,
      "Ġelectron": 3765,
      "subsubsection": 3766,
      "Ġacross": 3767,
      "Ġmer": 3768,
      "Ġsamples": 3769,
      "Ġsite": 3770,
      "Ġnumerical": 3771,
      "Ġapplication": 3772,
      "Ġconnected": 3773,
      "Ġorgan": 3774,
      "Ġmargin": 3775,
      "button": 3776,
      "Ġtransp": 3777,
      "Ġcompute": 3778,
      "But": 3779,
      "Ġ()": 3780,
      "ĠCO": 3781,
      "Ġ]": 3782,
      "Equal": 3783,
      "Instance": 3784,
      "Ġsit": 3785,
      "Ġred": 3786,
      "dro": 3787,
      "Fe": 3788,
      "perties": 3789,
      "osen": 3790,
      "MM": 3791,
      "Ġdemon": 3792,
      "ĠDis": 3793,
      "Ġunderstand": 3794,
      "Ġtrack": 3795,
      "PC": 3796,
      "EC": 3797,
      "Ġadj": 3798,
      "Ġoften": 3799,
      "Ġregions": 3800,
      "len": 3801,
      "ctive": 3802,
      "Ġhard": 3803,
      "Ġ->": 3804,
      "dx": 3805,
      "Ġ~": 3806,
      "Sp": 3807,
      "Ġexperiments": 3808,
      "Ġconfiguration": 3809,
      "sa": 3810,
      ")^{\\": 3811,
      "Ġenti": 3812,
      "Ġprincip": 3813,
      "Ġmaps": 3814,
      "used": 3815,
      "target": 3816,
      "Ġradius": 3817,
      "Ġrest": 3818,
      "Ġcorrect": 3819,
      "ank": 3820,
      "Ġsimulations": 3821,
      "Ġspectral": 3822,
      "na": 3823,
      "ĠBe": 3824,
      "Ġargument": 3825,
      "alog": 3826,
      "ĠHence": 3827,
      "Ġmajor": 3828,
      "Ġir": 3829,
      "icense": 3830,
      "Ġdiscussed": 3831,
      "Ġplot": 3832,
      "Ġuntil": 3833,
      "Ġscheme": 3834,
      "=-": 3835,
      "Ð¸": 3836,
      "ols": 3837,
      "oder": 3838,
      "dim": 3839,
      "Ġgovern": 3840,
      "option": 3841,
      "Ġgauge": 3842,
      "Ġdisplay": 3843,
      "pag": 3844,
      "perp": 3845,
      "Ġnuc": 3846,
      "remark": 3847,
      "Ġang": 3848,
      "strong": 3849,
      "Ġcompact": 3850,
      "book": 3851,
      "cs": 3852,
      "First": 3853,
      "}$-": 3854,
      "ĠWith": 3855,
      "âĢľ": 3856,
      "vant": 3857,
      "Options": 3858,
      "mine": 3859,
      "ina": 3860,
      "Token": 3861,
      "ands": 3862,
      "Ġscatter": 3863,
      "ÑĤ": 3864,
      "Ġamplit": 3865,
      "Ġclassical": 3866,
      "zero": 3867,
      ")_{": 3868,
      "Now": 3869,
      "ĠSe": 3870,
      "Ġsources": 3871,
      "Ġcover": 3872,
      "Ġdescription": 3873,
      "tries": 3874,
      "Ġhead": 3875,
      "child": 3876,
      "une": 3877,
      "Ġcritical": 3878,
      "Eq": 3879,
      "Ġeasi": 3880,
      "<!--": 3881,
      "Ġ+\\": 3882,
      "lib": 3883,
      "vex": 3884,
      "aring": 3885,
      "Ġrather": 3886,
      "Ġrow": 3887,
      "Ġincrease": 3888,
      "Image": 3889,
      "Ġmaterial": 3890,
      "ĠOne": 3891,
      "tact": 3892,
      "ograph": 3893,
      "select": 3894,
      "43": 3895,
      "mag": 3896,
      "Oper": 3897,
      "Ġnumbers": 3898,
      "57": 3899,
      "aly": 3900,
      "One": 3901,
      "Ġcorresponds": 3902,
      "ohn": 3903,
      "comple": 3904,
      "ours": 3905,
      "Ġlattice": 3906,
      "Function": 3907,
      "Ġsoft": 3908,
      "ocial": 3909,
      "inte": 3910,
      "2000": 3911,
      "pg": 3912,
      "197": 3913,
      "Source": 3914,
      "Ġgame": 3915,
      "ĠList": 3916,
      "Ġincreasing": 3917,
      "ification": 3918,
      "Ġandroid": 3919,
      "pmatrix": 3920,
      "ury": 3921,
      "cel": 3922,
      "Ġthink": 3923,
      "Ġaccuracy": 3924,
      "Ġtoo": 3925,
      "usion": 3926,
      "Ġinequality": 3927,
      "Ġscenari": 3928,
      "Ġclasses": 3929,
      "Ġmomentum": 3930,
      ")^{-": 3931,
      "Ġupdate": 3932,
      "gorithms": 3933,
      "cat": 3934,
      "gies": 3935,
      "Ġagree": 3936,
      "Ġdomin": 3937,
      "php": 3938,
      "Ġenvironment": 3939,
      "ympto": 3940,
      "IL": 3941,
      "tributes": 3942,
      "58": 3943,
      "grams": 3944,
      "Imp": 3945,
      "Ġsen": 3946,
      "Ġ\"\"\"": 3947,
      "Ġcomparison": 3948,
      "Buffer": 3949,
      "idden": 3950,
      "Ġground": 3951,
      "cases": 3952,
      "Ġspatial": 3953,
      "Ġquestion": 3954,
      "56": 3955,
      "itect": 3956,
      "Ġconstraints": 3957,
      "Ġitem": 3958,
      "Ġnegative": 3959,
      "Ġstruct": 3960,
      "Ġresulting": 3961,
      "kip": 3962,
      "Ġmanif": 3963,
      "open": 3964,
      "rem": 3965,
      "dl": 3966,
      "Ġworks": 3967,
      "SO": 3968,
      "property": 3969,
      "{{": 3970,
      "Ġrepresen": 3971,
      "Filter": 3972,
      "ĠOr": 3973,
      "Ġarch": 3974,
      "Ġpeak": 3975,
      "process": 3976,
      "ĠRec": 3977,
      "Ġapproximate": 3978,
      "SD": 3979,
      "respon": 3980,
      "Ġinternal": 3981,
      "ĠHamilton": 3982,
      "bert": 3983,
      "2005": 3984,
      "Conn": 3985,
      "Ġedges": 3986,
      "Ġful": 3987,
      ",âĢĿ": 3988,
      "Ġperformed": 3989,
      "Ġcapa": 3990,
      "oo": 3991,
      "}^*": 3992,
      "Ġperturb": 3993,
      "rier": 3994,
      "ided": 3995,
      "Ġdescribe": 3996,
      "Ġbecome": 3997,
      "Ġconven": 3998,
      "ĠCoun": 3999,
      "ably": 4000,
      "Ġintroduced": 4001,
      "Component": 4002,
      "Ġwords": 4003,
      "ood": 4004,
      "description": 4005,
      "igger": 4006,
      "Ġdemonstra": 4007,
      "Ġcoefficients": 4008,
      "ĠĠĠĠĠĠĠĠĊ": 4009,
      "font": 4010,
      "Ġassumption": 4011,
      "cord": 4012,
      "\".": 4013,
      "RI": 4014,
      "adding": 4015,
      ")}{\\": 4016,
      "Attribute": 4017,
      "Ġcentral": 4018,
      "lash": 4019,
      "request": 4020,
      "Ġlanguage": 4021,
      "Ġdecomp": 4022,
      "ceed": 4023,
      ")\\\\": 4024,
      "json": 4025,
      "{$\\": 4026,
      "usiness": 4027,
      "typ": 4028,
      "pdate": 4029,
      "parse": 4030,
      "arily": 4031,
      "Ġminimum": 4032,
      "Ġderived": 4033,
      "Ġmeasured": 4034,
      "Ġmeasurements": 4035,
      "Ġoperation": 4036,
      "Ġtensor": 4037,
      "Ġnetworks": 4038,
      "Run": 4039,
      "count": 4040,
      "bullet": 4041,
      "Ġdecay": 4042,
      "Ġneutr": 4043,
      "$).": 4044,
      "Off": 4045,
      "MC": 4046,
      "dings": 4047,
      "Ġspecified": 4048,
      "Ġinc": 4049,
      "uation": 4050,
      "bi": 4051,
      "Ġillu": 4052,
      "ptr": 4053,
      "anish": 4054,
      "andid": 4055,
      "float": 4056,
      "dist": 4057,
      "filter": 4058,
      "Ġauthor": 4059,
      "Handler": 4060,
      "Ġpartial": 4061,
      "Ġ+=": 4062,
      "stream": 4063,
      ".~(\\": 4064,
      "\\|_{": 4065,
      "Ġwindow": 4066,
      "ls": 4067,
      "Ġquery": 4068,
      "Ġchain": 4069,
      "Ġloop": 4070,
      "ley": 4071,
      "Ġhttp": 4072,
      "match": 4073,
      "Ġselect": 4074,
      "}}^": 4075,
      "Ġscalar": 4076,
      "ru": 4077,
      "41": 4078,
      "Content": 4079,
      "bound": 4080,
      "init": 4081,
      "ama": 4082,
      "Here": 4083,
      "ĠUnited": 4084,
      "Ġfraction": 4085,
      "ĠCan": 4086,
      "Ġcontribution": 4087,
      "Ġpolar": 4088,
      "Ġpage": 4089,
      "trices": 4090,
      "~~~~": 4091,
      "Ġhaving": 4092,
      "meq": 4093,
      "Ġalmost": 4094,
      "Ġmotion": 4095,
      "osed": 4096,
      "\\_": 4097,
      "super": 4098,
      "Ġinterpre": 4099,
      "ĠMoreover": 4100,
      "server": 4101,
      "Ġdiag": 4102,
      "FA": 4103,
      "olute": 4104,
      "sg": 4105,
      "Ġexplain": 4106,
      "num": 4107,
      "Ġplane": 4108,
      "Ġrel": 4109,
      "Ġemploy": 4110,
      "Ð½": 4111,
      "number": 4112,
      "ĠData": 4113,
      "ĠIN": 4114,
      "ĠTest": 4115,
      "Ġresource": 4116,
      "alt": 4117,
      "Ġcorrespond": 4118,
      "Nav": 4119,
      "mma": 4120,
      "UE": 4121,
      "}%": 4122,
      "gress": 4123,
      "Ġmagn": 4124,
      "sequence": 4125,
      "ĠHere": 4126,
      "mt": 4127,
      "ses": 4128,
      "imilar": 4129,
      "Ġextends": 4130,
      "ĠLo": 4131,
      "Lay": 4132,
      "ously": 4133,
      "TO": 4134,
      "Ġerrors": 4135,
      "Ġput": 4136,
      "simeq": 4137,
      "Ġtw": 4138,
      "Ġcalculated": 4139,
      "'}": 4140,
      "creen": 4141,
      "Ġinvestig": 4142,
      "Cur": 4143,
      "vider": 4144,
      "gges": 4145,
      "stract": 4146,
      "Factory": 4147,
      "IP": 4148,
      "ple": 4149,
      "Ġdocument": 4150,
      "Ġdetection": 4151,
      "Ġdistributions": 4152,
      "Ġdenotes": 4153,
      "Ġroot": 4154,
      "Ġsimulation": 4155,
      "Ġpopulation": 4156,
      "inf": 4157,
      "Ġnecessary": 4158,
      "Ġhapp": 4159,
      "Ġcomputed": 4160,
      "Ġtheore": 4161,
      "rup": 4162,
      "lines": 4163,
      "Format": 4164,
      "Resource": 4165,
      "src": 4166,
      "Meta": 4167,
      "xml": 4168,
      "header": 4169,
      "2004": 4170,
      "Ġselected": 4171,
      "urthermore": 4172,
      "ball": 4173,
      "ĠAmerican": 4174,
      "isted": 4175,
      "Action": 4176,
      "uro": 4177,
      "ĠOur": 4178,
      "Ġvolume": 4179,
      "|_{": 4180,
      "Next": 4181,
      "REF": 4182,
      "free": 4183,
      "})$.": 4184,
      "Box": 4185,
      "Ġcorrelation": 4186,
      ")$-": 4187,
      "ERT": 4188,
      "Pr": 4189,
      "ĠReturn": 4190,
      "Ġintegral": 4191,
      "gth": 4192,
      "CP": 4193,
      "Ġ=\\": 4194,
      "Ġsupported": 4195,
      "Ġdraw": 4196,
      "}}^{": 4197,
      "ming": 4198,
      "semb": 4199,
      "asy": 4200,
      "Ġpress": 4201,
      "Ġthird": 4202,
      "fil": 4203,
      "69": 4204,
      "isms": 4205,
      "Ġdiffic": 4206,
      "$$\\": 4207,
      "ilib": 4208,
      "DB": 4209,
      "radi": 4210,
      "foo": 4211,
      "Number": 4212,
      "Ġsplit": 4213,
      "Ġinfinite": 4214,
      "ĠReg": 4215,
      "jav": 4216,
      "Ġdepends": 4217,
      "Ġconnection": 4218,
      "totype": 4219,
      "Ġlocation": 4220,
      "fa": 4221,
      "umin": 4222,
      "Ġconsistent": 4223,
      "aster": 4224,
      "Ġshall": 4225,
      "Ġclient": 4226,
      "Ġ((": 4227,
      "Acc": 4228,
      "LASS": 4229,
      "Ġsense": 4230,
      "uk": 4231,
      "tik": 4232,
      "Ġtechn": 4233,
      "DO": 4234,
      "Ġleads": 4235,
      "host": 4236,
      "loor": 4237,
      "$^{-": 4238,
      "mapsto": 4239,
      "Ġfail": 4240,
      "endix": 4241,
      "Ġattack": 4242,
      "Hel": 4243,
      "lier": 4244,
      "ĉĉĉĉĉĉĉĉ": 4245,
      "Gra": 4246,
      "hom": 4247,
      "Ġbook": 4248,
      "ogene": 4249,
      "ising": 4250,
      "hib": 4251,
      "ĠCor": 4252,
      "anced": 4253,
      "Ġalgorithms": 4254,
      "Ġprocedure": 4255,
      "finished": 4256,
      "sol": 4257,
      "ries": 4258,
      "roduction": 4259,
      "*/": 4260,
      "Ġinterface": 4261,
      "Ġinteger": 4262,
      "Ġclaim": 4263,
      "finition": 4264,
      "Version": 4265,
      "Frame": 4266,
      "uter": 4267,
      "reshold": 4268,
      "Our": 4269,
      "illion": 4270,
      "Ġchosen": 4271,
      "Ġold": 4272,
      "Ġuses": 4273,
      "break": 4274,
      "tate": 4275,
      "Ġorbit": 4276,
      "ĠQu": 4277,
      "Ġearly": 4278,
      "ashed": 4279,
      "parent": 4280,
      "Ġschool": 4281,
      "Ġbody": 4282,
      "rength": 4283,
      "ables": 4284,
      "Ġleading": 4285,
      "Ġrequires": 4286,
      "Ġday": 4287,
      "mini": 4288,
      "Ġsolid": 4289,
      "Figure": 4290,
      "ĠPo": 4291,
      "DF": 4292,
      "Ġtaking": 4293,
      "endif": 4294,
      "scri": 4295,
      "Link": 4296,
      "cd": 4297,
      "LS": 4298,
      "clusion": 4299,
      "Ġstudies": 4300,
      "ions": 4301,
      "Ġhuman": 4302,
      "mations": 4303,
      "iding": 4304,
      "Ġselection": 4305,
      "Ġkernel": 4306,
      "last": 4307,
      "Ġinvariant": 4308,
      "ĠMan": 4309,
      "True": 4310,
      "Ġbox": 4311,
      "phere": 4312,
      "Ġstudied": 4313,
      "Ġ&=&": 4314,
      "Arg": 4315,
      "Ġhalf": 4316,
      "([": 4317,
      "Ġreview": 4318,
      "~$\\": 4319,
      "Ġcollection": 4320,
      "Ġtakes": 4321,
      "newcommand": 4322,
      "Ġsent": 4323,
      "ony": 4324,
      "});": 4325,
      "unit": 4326,
      "Ġrule": 4327,
      "obj": 4328,
      "itude": 4329,
      "Ġexperimental": 4330,
      "Ġcurves": 4331,
      "Ġsimply": 4332,
      "pres": 4333,
      "mpty": 4334,
      "Ġhome": 4335,
      "Task": 4336,
      "Ġthrows": 4337,
      "Ġshape": 4338,
      "Ġhar": 4339,
      "Ġsugges": 4340,
      "Ġ{@": 4341,
      "Row": 4342,
      "Ġmakes": 4343,
      "lease": 4344,
      "Ġrepresents": 4345,
      "items": 4346,
      "Ġ${": 4347,
      "Theorem": 4348,
      "Ġexamples": 4349,
      "Ġchoose": 4350,
      "btn": 4351,
      "PR": 4352,
      "Ġtransform": 4353,
      "vo": 4354,
      "Ġdiscuss": 4355,
      "signed": 4356,
      "volution": 4357,
      "vity": 4358,
      "Ġdoc": 4359,
      ")_": 4360,
      "Ġsymmetric": 4361,
      "Ġreduced": 4362,
      "Null": 4363,
      "Pol": 4364,
      "${": 4365,
      "ĠYou": 4366,
      "Ġpolicy": 4367,
      "iver": 4368,
      "Ġensure": 4369,
      "Ġprotected": 4370,
      "Ġmention": 4371,
      "Ġdependence": 4372,
      "gu": 4373,
      "Ġneeded": 4374,
      "NO": 4375,
      "Equals": 4376,
      "87": 4377,
      "opt": 4378,
      "only": 4379,
      "Ġcause": 4380,
      "Char": 4381,
      "refix": 4382,
      "Ġangle": 4383,
      "ĠSch": 4384,
      "rag": 4385,
      "Ġchall": 4386,
      "proposition": 4387,
      "ĠGaussian": 4388,
      "push": 4389,
      "Ġexpansion": 4390,
      "Ġminim": 4391,
      "task": 4392,
      "era": 4393,
      "Ġbelie": 4394,
      "Ġsubset": 4395,
      "51": 4396,
      "aa": 4397,
      "Ġarbitrary": 4398,
      "cket": 4399,
      "\\{\\": 4400,
      "Ġuseful": 4401,
      "More": 4402,
      "plan": 4403,
      "oto": 4404,
      "Ġdual": 4405,
      "Default": 4406,
      "ĠOp": 4407,
      "ĠNone": 4408,
      "vector": 4409,
      "Ġmatrices": 4410,
      "ĠSp": 4411,
      "Ġ$$": 4412,
      "onic": 4413,
      "ali": 4414,
      "Ġspectra": 4415,
      "reference": 4416,
      "ĠFrom": 4417,
      "Check": 4418,
      "Ġcharge": 4419,
      "structed": 4420,
      "blue": 4421,
      "HE": 4422,
      "odot": 4423,
      "Ġoption": 4424,
      "ĠRef": 4425,
      "Ġmemory": 4426,
      "Ġpub": 4427,
      "Ġformat": 4428,
      "500": 4429,
      "Ġatten": 4430,
      "sem": 4431,
      "hel": 4432,
      "59": 4433,
      "Ġdetermine": 4434,
      "lean": 4435,
      "ategor": 4436,
      "licity": 4437,
      "Ġcare": 4438,
      "unfinished": 4439,
      "Ġincluded": 4440,
      "ilibri": 4441,
      "^{+": 4442,
      "img": 4443,
      "format": 4444,
      "iti": 4445,
      "ditional": 4446,
      "ixel": 4447,
      "auto": 4448,
      "bold": 4449,
      "ÑĢ": 4450,
      "else": 4451,
      "Ġmodes": 4452,
      "Thus": 4453,
      ")},": 4454,
      "picture": 4455,
      "PRO": 4456,
      "Ġcharacteristic": 4457,
      "Ġess": 4458,
      "Ġstream": 4459,
      "Ġspaces": 4460,
      "Ġsymbol": 4461,
      "Ġintroduce": 4462,
      "usic": 4463,
      "FONT": 4464,
      "Ġamount": 4465,
      "output": 4466,
      "Ġexecu": 4467,
      "ench": 4468,
      "Ġentire": 4469,
      "---": 4470,
      "////////////////": 4471,
      "$;": 4472,
      "Ġtransfer": 4473,
      "status": 4474,
      "ĠGener": 4475,
      "Ġgenerate": 4476,
      "layer": 4477,
      "build": 4478,
      "ĠCal": 4479,
      "Ġhost": 4480,
      "Ġyields": 4481,
      "54": 4482,
      "Ġprocesses": 4483,
      "Output": 4484,
      "Ġadded": 4485,
      "sue": 4486,
      "private": 4487,
      "sters": 4488,
      "Ġpossi": 4489,
      "Ġinteresting": 4490,
      "tran": 4491,
      "deg": 4492,
      "ĠFirst": 4493,
      "std": 4494,
      "Ġrank": 4495,
      "ords": 4496,
      "Ġkeep": 4497,
      "ocation": 4498,
      "Ġquad": 4499,
      "zz": 4500,
      "Ġbinary": 4501,
      "ĠStates": 4502,
      "When": 4503,
      "Ġpairs": 4504,
      "cf": 4505,
      "Ð¾Ð": 4506,
      "Ġdisk": 4507,
      "oms": 4508,
      "Ġimpact": 4509,
      "she": 4510,
      "2003": 4511,
      "inner": 4512,
      "ium": 4513,
      "Ġresolution": 4514,
      "However": 4515,
      "Ġparent": 4516,
      "Ġillustra": 4517,
      "Ġcreated": 4518,
      "rl": 4519,
      "lice": 4520,
      "Ġcompare": 4521,
      "post": 4522,
      "update": 4523,
      "Ġmid": 4524,
      "inue": 4525,
      "pose": 4526,
      "ĠCent": 4527,
      "Ġasympto": 4528,
      "'(": 4529,
      "redu": 4530,
      "Ġactive": 4531,
      "Ġconvergence": 4532,
      "rant": 4533,
      "52": 4534,
      "Ġrelevant": 4535,
      "Window": 4536,
      "Ġexperiment": 4537,
      "aged": 4538,
      "Ġpay": 4539,
      "Ġbuild": 4540,
      "ĠSte": 4541,
      "vision": 4542,
      "hbar": 4543,
      "Ġonce": 4544,
      "omorphic": 4545,
      "LP": 4546,
      "Ġcount": 4547,
      "ĠObject": 4548,
      "thesis": 4549,
      "Ġpresence": 4550,
      "Case": 4551,
      "VER": 4552,
      "Ġcomputation": 4553,
      "ading": 4554,
      "_-": 4555,
      "cref": 4556,
      "Ġss": 4557,
      "INT": 4558,
      "ĠNe": 4559,
      "structure": 4560,
      "Sc": 4561,
      "mc": 4562,
      "Ġcut": 4563,
      "tikz": 4564,
      "ĠMar": 4565,
      "Ġrecon": 4566,
      "Ġalign": 4567,
      "Ġbar": 4568,
      "Ġspeed": 4569,
      "Ġmeta": 4570,
      "Ġ;": 4571,
      "Ġstellar": 4572,
      "notation": 4573,
      "PO": 4574,
      "ĠHamiltonian": 4575,
      "Ġapproaches": 4576,
      "86": 4577,
      "ried": 4578,
      "\"]": 4579,
      "mented": 4580,
      "Ġlarg": 4581,
      "Ġleg": 4582,
      "Label": 4583,
      "Com": 4584,
      "conf": 4585,
      "then": 4586,
      "Ġstructures": 4587,
      "Create": 4588,
      "lex": 4589,
      "args": 4590,
      "hy": 4591,
      "Ġdate": 4592,
      "Ġparts": 4593,
      "trics": 4594,
      "Ġforce": 4595,
      "///": 4596,
      "Ġserver": 4597,
      "produ": 4598,
      "Ġtreat": 4599,
      "displaystyle": 4600,
      "Ġfigure": 4601,
      "Ġmembers": 4602,
      "Ġcopy": 4603,
      "Ġgoing": 4604,
      "Ġquanti": 4605,
      "Ġscore": 4606,
      "sur": 4607,
      "scal": 4608,
      "Ġestimates": 4609,
      "aded": 4610,
      "Ġstrength": 4611,
      "Ġsteps": 4612,
      "Ġincreases": 4613,
      "Ġproduction": 4614,
      "Ġdecision": 4615,
      "$~": 4616,
      "Ġstra": 4617,
      "ĠState": 4618,
      "sign": 4619,
      "Ġarguments": 4620,
      "vey": 4621,
      "Tag": 4622,
      "}&": 4623,
      "SA": 4624,
      "Page": 4625,
      "Ġcategory": 4626,
      "bl": 4627,
      "dec": 4628,
      "Ġobserve": 4629,
      "ious": 4630,
      "Ġapplications": 4631,
      "(&": 4632,
      "ĠMay": 4633,
      "Ġaltern": 4634,
      "Ġexactly": 4635,
      "ĠNational": 4636,
      "ĠMon": 4637,
      "ĠAPI": 4638,
      "results": 4639,
      ">>": 4640,
      "ards": 4641,
      "arp": 4642,
      "Ġeasily": 4643,
      "Ġvo": 4644,
      "Ġlatter": 4645,
      ")+\\": 4646,
      "Ġinterval": 4647,
      "Column": 4648,
      "inty": 4649,
      "Ġcandid": 4650,
      "Ġtag": 4651,
      "Ġcore": 4652,
      "ypes": 4653,
      "ĠBu": 4654,
      "Ne": 4655,
      "Ġarchitect": 4656,
      "Ġhoriz": 4657,
      "find": 4658,
      "Ġknowledge": 4659,
      "}}$.": 4660,
      "dsh": 4661,
      "Ġitself": 4662,
      "}}$,": 4663,
      "Ġren": 4664,
      "Ġreported": 4665,
      "eler": 4666,
      "eral": 4667,
      "minipage": 4668,
      "Ġdeep": 4669,
      "Ġnever": 4670,
      "ĠPol": 4671,
      "ao": 4672,
      "Ġvectors": 4673,
      "ume": 4674,
      "Ġaut": 4675,
      "Return": 4676,
      "Ġstatus": 4677,
      "63": 4678,
      "ker": 4679,
      "Ġmeasurement": 4680,
      "}{|": 4681,
      "SON": 4682,
      "[\"": 4683,
      "gan": 4684,
      "gets": 4685,
      "Ġdiagram": 4686,
      "bust": 4687,
      "Ġword": 4688,
      "89": 4689,
      "Ġurl": 4690,
      "Ġinner": 4691,
      "Ġstrategy": 4692,
      ")-\\": 4693,
      "tainty": 4694,
      "ABLE": 4695,
      "Length": 4696,
      "tree": 4697,
      "mediate": 4698,
      "Ġcoordinates": 4699,
      "CS": 4700,
      "Ġotherwise": 4701,
      "tx": 4702,
      "Ġexcept": 4703,
      "Ġcircle": 4704,
      "ĠâĢĶ": 4705,
      "ilibrium": 4706,
      "teger": 4707,
      "idget": 4708,
      "soft": 4709,
      "Ġreport": 4710,
      "Read": 4711,
      "Ġlemma": 4712,
      "ĠĠĠĠĠĠĠĠĠĠĠĠĊ": 4713,
      "icial": 4714,
      "instance": 4715,
      "Ġbranch": 4716,
      "iny": 4717,
      "Ġnone": 4718,
      "Ġidentity": 4719,
      "prec": 4720,
      "Ġfactors": 4721,
      "ĉĉĊ": 4722,
      "va": 4723,
      "show": 4724,
      "Ġextended": 4725,
      "dep": 4726,
      "Command": 4727,
      "params": 4728,
      "Ġhold": 4729,
      "Ġnorm": 4730,
      "Str": 4731,
      "Ġclassification": 4732,
      "rap": 4733,
      "Ġmaking": 4734,
      "ql": 4735,
      "versal": 4736,
      "illa": 4737,
      "EL": 4738,
      "Ġpas": 4739,
      "Start": 4740,
      "})$,": 4741,
      "Ġfive": 4742,
      "_.": 4743,
      "Right": 4744,
      "direct": 4745,
      "ront": 4746,
      "Ġweb": 4747,
      "62": 4748,
      "raint": 4749,
      "fla": 4750,
      "rief": 4751,
      "Ġface": 4752,
      "Ġrecor": 4753,
      "buf": 4754,
      "Ġwide": 4755,
      "Ġhistory": 4756,
      "Ġestimated": 4757,
      "alg": 4758,
      "Ġcome": 4759,
      "Ġgap": 4760,
      "Ġosc": 4761,
      "ought": 4762,
      "river": 4763,
      "ĠSupp": 4764,
      "Ġinteractions": 4765,
      "ĉĠĠĠ": 4766,
      "Ġexistence": 4767,
      "ante": 4768,
      "ecause": 4769,
      "Ġlikely": 4770,
      "ensive": 4771,
      "BU": 4772,
      "sities": 4773,
      "ighted": 4774,
      "entially": 4775,
      "navbar": 4776,
      "53": 4777,
      "Ġtor": 4778,
      "system": 4779,
      "MB": 4780,
      "Ġperson": 4781,
      "response": 4782,
      "Ġremains": 4783,
      "undam": 4784,
      "Ġdevelopment": 4785,
      "Ġbit": 4786,
      "Ġissu": 4787,
      "Ġstable": 4788,
      "Collection": 4789,
      "seud": 4790,
      "place": 4791,
      "Auth": 4792,
      "ĠType": 4793,
      "........": 4794,
      "esti": 4795,
      "Ġreturns": 4796,
      "Ġthough": 4797,
      "PP": 4798,
      "tains": 4799,
      "Ġlinks": 4800,
      "ĠGra": 4801,
      "Ġneeds": 4802,
      "./": 4803,
      "ĠJan": 4804,
      "\\)": 4805,
      "Ġ[]": 4806,
      "Web": 4807,
      "Ġconstraint": 4808,
      "Ġstrict": 4809,
      "Ġfully": 4810,
      "entry": 4811,
      "tification": 4812,
      "rowser": 4813,
      "Ġsatisfy": 4814,
      "sembly": 4815,
      "Max": 4816,
      "bes": 4817,
      "variant": 4818,
      "ĉĠ": 4819,
      "agement": 4820,
      "erman": 4821,
      "ani": 4822,
      "Ġpartition": 4823,
      "ĠMin": 4824,
      "Child": 4825,
      "reme": 4826,
      "Ġ$|\\": 4827,
      "CL": 4828,
      "Ġusers": 4829,
      "Ġgradient": 4830,
      "Rem": 4831,
      "iving": 4832,
      "bits": 4833,
      "ĠII": 4834,
      "Ġoptimization": 4835,
      "yl": 4836,
      "itz": 4837,
      "close": 4838,
      "ĠSee": 4839,
      "Ġcommand": 4840,
      "Ġcoll": 4841,
      "backs": 4842,
      "$),": 4843,
      "tifact": 4844,
      "Ġsignificantly": 4845,
      "[(": 4846,
      "cover": 4847,
      ":}": 4848,
      "Ġpul": 4849,
      "Ġgraphs": 4850,
      "olve": 4851,
      "Ñģ": 4852,
      "Ġinflu": 4853,
      "ube": 4854,
      ",\"": 4855,
      "nos": 4856,
      ".)": 4857,
      "ĠGe": 4858,
      "Ġcontaining": 4859,
      "IF": 4860,
      "))$": 4861,
      "Ġappropri": 4862,
      "Temp": 4863,
      "latform": 4864,
      "Ġ$.": 4865,
      "Ġnotation": 4866,
      "Ġexisting": 4867,
      "rs": 4868,
      "Ġbelong": 4869,
      "Ġwhole": 4870,
      "NR": 4871,
      "service": 4872,
      "CON": 4873,
      "Ġblue": 4874,
      "Ġprediction": 4875,
      "Ġanalog": 4876,
      "faces": 4877,
      "ĠThat": 4878,
      "lesssim": 4879,
      "Ġpropag": 4880,
      "Ġones": 4881,
      "ĠPe": 4882,
      "Up": 4883,
      "Ġtasks": 4884,
      "Ġdistributed": 4885,
      "lastic": 4886,
      "Ġconsists": 4887,
      "94": 4888,
      "Valid": 4889,
      "uint": 4890,
      "container": 4891,
      "tives": 4892,
      "}$)": 4893,
      "\").": 4894,
      "URL": 4895,
      "images": 4896,
      "Ġformation": 4897,
      "make": 4898,
      "Su": 4899,
      "Ġfac": 4900,
      "Ġempty": 4901,
      "Controller": 4902,
      "scope": 4903,
      "Ġcustom": 4904,
      "Ġvirtual": 4905,
      "ident": 4906,
      "iffer": 4907,
      "Ġteam": 4908,
      "inct": 4909,
      "Listener": 4910,
      "Ġdeveloped": 4911,
      "ĠDes": 4912,
      "Ġaxis": 4913,
      "Ġtransformation": 4914,
      "ĠJohn": 4915,
      "remove": 4916,
      "Ġve": 4917,
      "ering": 4918,
      "2001": 4919,
      "}({\\": 4920,
      "ĠMa": 4921,
      "mitted": 4922,
      ")}_{": 4923,
      "SM": 4924,
      "Ġgrid": 4925,
      "Ġfix": 4926,
      "sident": 4927,
      "cong": 4928,
      "\"),": 4929,
      "ontal": 4930,
      "Ġvanish": 4931,
      "84": 4932,
      "olic": 4933,
      "Ġeasy": 4934,
      "oral": 4935,
      "Ġdifferential": 4936,
      "plugin": 4937,
      "\\!\\!\\!\\!": 4938,
      "Ġscattering": 4939,
      "âĢĶ": 4940,
      "oung": 4941,
      "TP": 4942,
      "ratic": 4943,
      "2002": 4944,
      "floor": 4945,
      "ĠEng": 4946,
      "Ġanti": 4947,
      "Ġbounds": 4948,
      "uly": 4949,
      "Mode": 4950,
      ",\\\\": 4951,
      "Ġrepla": 4952,
      "zed": 4953,
      "bot": 4954,
      "93": 4955,
      "92": 4956,
      "ĠID": 4957,
      "Ġoptical": 4958,
      "Ġconcer": 4959,
      "Ġstatement": 4960,
      "algebra": 4961,
      "ĠPer": 4962,
      "ĠHREF": 4963,
      "Ġgovernment": 4964,
      "Ġcatch": 4965,
      "rand": 4966,
      "ĠSci": 4967,
      "Ġcounter": 4968,
      "So": 4969,
      "opic": 4970,
      "ones": 4971,
      "ounter": 4972,
      "&=&": 4973,
      "models": 4974,
      "prototype": 4975,
      "final": 4976,
      "Ġdr": 4977,
      "uations": 4978,
      "Ġchildren": 4979,
      "Ġmorph": 4980,
      "ening": 4981,
      "Ġgalaxy": 4982,
      "inary": 4983,
      "pts": 4984,
      "iting": 4985,
      "Const": 4986,
      "Ġlib": 4987,
      "Ġrelationship": 4988,
      "Ġrates": 4989,
      "Ġavoid": 4990,
      "berg": 4991,
      "Hz": 4992,
      "Ġinside": 4993,
      "Ġabsolute": 4994,
      "ises": 4995,
      "eli": 4996,
      "sole": 4997,
      "ĠAcc": 4998,
      "Ġconvex": 4999,
      "}{(": 5000,
      "SL": 5001,
      "Ġport": 5002,
      "onical": 5003,
      "Ġann": 5004,
      "Introduction": 5005,
      "ĠClass": 5006,
      "Ġ!==": 5007,
      "$};": 5008,
      "Ġconclude": 5009,
      "Ġassumed": 5010,
      "Ġincludes": 5011,
      "ather": 5012,
      "CA": 5013,
      "Ġcourse": 5014,
      "ingu": 5015,
      "returns": 5016,
      "Ġamplitude": 5017,
      "ĠCLASS": 5018,
      "ogeneous": 5019,
      "cccc": 5020,
      "pass": 5021,
      "high": 5022,
      "ĠDo": 5023,
      "xx": 5024,
      "ĠAfter": 5025,
      "band": 5026,
      "Ġbasic": 5027,
      "Ġoperations": 5028,
      "72": 5029,
      "Point": 5030,
      "Ġmonth": 5031,
      "MD": 5032,
      "ducation": 5033,
      "ips": 5034,
      "iler": 5035,
      "Ac": 5036,
      ",\\,\\": 5037,
      "gments": 5038,
      "kit": 5039,
      "ĠFran": 5040,
      "Ġdark": 5041,
      "Ġcontrast": 5042,
      "perim": 5043,
      "Ġquark": 5044,
      "sd": 5045,
      "NAME": 5046,
      "Ġ...": 5047,
      "acy": 5048,
      "Ġneighbor": 5049,
      "76": 5050,
      "Ġidea": 5051,
      "ana": 5052,
      "Section": 5053,
      "Ġdepth": 5054,
      "ids": 5055,
      "Ġreson": 5056,
      "dev": 5057,
      "tability": 5058,
      "mass": 5059,
      "Ġmach": 5060,
      "ives": 5061,
      "ĠĠĠĠĠĠĠĠĠĠĠĠĠĠĠĠĠĠĠĠĠĠĠĠĠĠĠĠĠĠĠĠĠĠĠ": 5062,
      "essages": 5063,
      "Therefore": 5064,
      "ĠShe": 5065,
      "Ġrestric": 5066,
      "expected": 5067,
      "ĠLicense": 5068,
      "Ġsuccessful": 5069,
      "1000": 5070,
      "Ġauthors": 5071,
      "layout": 5072,
      "ĠSub": 5073,
      "cknow": 5074,
      "Ġallowed": 5075,
      "OO": 5076,
      "ĠVer": 5077,
      "Address": 5078,
      "ermal": 5079,
      ")}}": 5080,
      "astic": 5081,
      "Ġjob": 5082,
      "osite": 5083,
      "Ġdevi": 5084,
      "Ġret": 5085,
      "COL": 5086,
      "ĠEX": 5087,
      "-$": 5088,
      "thon": 5089,
      "hbox": 5090,
      "********************************": 5091,
      "cons": 5092,
      "Ġgoal": 5093,
      "gers": 5094,
      "bly": 5095,
      "ects": 5096,
      "tili": 5097,
      "TYPE": 5098,
      "Ġrepe": 5099,
      "Offset": 5100,
      "Ġexci": 5101,
      "lots": 5102,
      "Ġ[\\": 5103,
      "Write": 5104,
      "Ġsocial": 5105,
      "fi": 5106,
      "istry": 5107,
      "Ġslight": 5108,
      "Ġremove": 5109,
      "mode": 5110,
      "Ġregime": 5111,
      "Ġwater": 5112,
      "edia": 5113,
      "Ġadap": 5114,
      "valu": 5115,
      "trie": 5116,
      "stitu": 5117,
      "Ġfilm": 5118,
      "Update": 5119,
      "offset": 5120,
      "ERR": 5121,
      "GC": 5122,
      "Last": 5123,
      "Ġbroad": 5124,
      "AV": 5125,
      "Ġpressure": 5126,
      "Ġtraject": 5127,
      "roun": 5128,
      "itory": 5129,
      "project": 5130,
      "onds": 5131,
      "Ġmolec": 5132,
      ",$": 5133,
      "Ġassign": 5134,
      "Back": 5135,
      "').": 5136,
      "df": 5137,
      "isation": 5138,
      "Ġmasses": 5139,
      "izations": 5140,
      "Ġcontributions": 5141,
      "Ġobservation": 5142,
      "Server": 5143,
      "Ġimplementation": 5144,
      "Ġlevels": 5145,
      "Ġansw": 5146,
      "chron": 5147,
      "Button": 5148,
      "Ġage": 5149,
      "ynamic": 5150,
      "Ġ\\(\\": 5151,
      ":=": 5152,
      "UI": 5153,
      "Ġpreser": 5154,
      "ymmetric": 5155,
      "RL": 5156,
      "Ġlayers": 5157,
      "ugh": 5158,
      "urope": 5159,
      "Ġkind": 5160,
      "ĠDef": 5161,
      "ferences": 5162,
      "come": 5163,
      "<?": 5164,
      "Ġbusiness": 5165,
      "ffor": 5166,
      "Ġissue": 5167,
      "anged": 5168,
      "should": 5169,
      "Ġcommunity": 5170,
      "Ġ{}": 5171,
      "Cache": 5172,
      "IO": 5173,
      "ĠGu": 5174,
      "ND": 5175,
      "template": 5176,
      "undamental": 5177,
      "ĠYork": 5178,
      "dfrac": 5179,
      "82": 5180,
      "Ġthreshold": 5181,
      "Ġdest": 5182,
      "91": 5183,
      "Ġactually": 5184,
      "Ġquality": 5185,
      "Ġexpon": 5186,
      "urch": 5187,
      "Ġinduced": 5188,
      "ĠĠĠĠĠĠĠĠĠĠĠĠĠĠĠĠĠĠĠĠĠ": 5189,
      "sequently": 5190,
      "ĠSpec": 5191,
      "Ġbottom": 5192,
      "attr": 5193,
      "\\}$.": 5194,
      "tify": 5195,
      "Ġhypo": 5196,
      "ascript": 5197,
      "Ġdatasets": 5198,
      "Ġsquare": 5199,
      "Ġoffset": 5200,
      "dual": 5201,
      "Ġcalculations": 5202,
      "Using": 5203,
      "tw": 5204,
      "61": 5205,
      "Ġpixel": 5206,
      "Ġproduced": 5207,
      "Ġtechniques": 5208,
      "avy": 5209,
      "control": 5210,
      "Ġyet": 5211,
      "Ġformal": 5212,
      "actions": 5213,
      "Ġpoli": 5214,
      "Select": 5215,
      "Ġdiscussion": 5216,
      "ues": 5217,
      "jo": 5218,
      "Ġoscil": 5219,
      "Ġuncertainty": 5220,
      "Ġbul": 5221,
      "]}": 5222,
      "Ġformer": 5223,
      "matically": 5224,
      "}[\\": 5225,
      "Ġbal": 5226,
      "Ġmagnitude": 5227,
      "Ġstarting": 5228,
      "step": 5229,
      "Ġagreement": 5230,
      "]$.": 5231,
      "Ġsubject": 5232,
      "BC": 5233,
      "Ġangular": 5234,
      "Ġdenoted": 5235,
      "Ġbeam": 5236,
      "Ġentry": 5237,
      "++)": 5238,
      "Ġreceived": 5239,
      "istor": 5240,
      "Provider": 5241,
      "$:": 5242,
      "Ġswitch": 5243,
      "nd": 5244,
      "Ġhol": 5245,
      ":\"": 5246,
      "Do": 5247,
      "entity": 5248,
      "lide": 5249,
      "ka": 5250,
      "ĠNow": 5251,
      "algorithm": 5252,
      "sor": 5253,
      "ĠHT": 5254,
      "IV": 5255,
      "ĠModel": 5256,
      "Dire": 5257,
      "Ġ{};": 5258,
      "after": 5259,
      "Ġpure": 5260,
      "Ġagent": 5261,
      "Ġ{$": 5262,
      "Ġori": 5263,
      "...,": 5264,
      "Ġsix": 5265,
      "term": 5266,
      "ĠMark": 5267,
      "Ġslow": 5268,
      "Finally": 5269,
      "Ġcalculation": 5270,
      "mas": 5271,
      "brace": 5272,
      "||": 5273,
      "Ġdetect": 5274,
      "Min": 5275,
      "}\\,\\": 5276,
      "Ġaway": 5277,
      "Ġminimal": 5278,
      "ĠRem": 5279,
      "DD": 5280,
      "Ġlen": 5281,
      "Ġdiscrete": 5282,
      "inst": 5283,
      "Âł": 5284,
      "Ġactual": 5285,
      "Ġtriv": 5286,
      "Ġcomplexity": 5287,
      "ann": 5288,
      "Ġscaling": 5289,
      "train": 5290,
      "ĠInter": 5291,
      "Ġrunning": 5292,
      "Ġima": 5293,
      "ĠSc": 5294,
      "Ġfluct": 5295,
      "ado": 5296,
      "))\\": 5297,
      "ales": 5298,
      "Ġliterature": 5299,
      "gated": 5300,
      "```": 5301,
      "Ġforms": 5302,
      "menu": 5303,
      "Ġsus": 5304,
      "eness": 5305,
      "ĠLi": 5306,
      "sample": 5307,
      "arante": 5308,
      ")--": 5309,
      "Ġwin": 5310,
      "Ġcaus": 5311,
      "Ġlonger": 5312,
      "ĠWhile": 5313,
      "300": 5314,
      "Ġhealth": 5315,
      "Ġsamp": 5316,
      "Ġmes": 5317,
      "^*$": 5318,
      "Tra": 5319,
      "dated": 5320,
      "Form": 5321,
      "Width": 5322,
      "Ġvol": 5323,
      "Vis": 5324,
      "After": 5325,
      "Ġredsh": 5326,
      "Ġworking": 5327,
      "Ġabsor": 5328,
      "Ġrender": 5329,
      "Ġtheoretical": 5330,
      "Ġattemp": 5331,
      "tfrac": 5332,
      "rela": 5333,
      "Ġdevice": 5334,
      "patch": 5335,
      "Ġcontinue": 5336,
      "Ste": 5337,
      "isk": 5338,
      "paragraph": 5339,
      "sect": 5340,
      "Ġmechanism": 5341,
      "Ġfiles": 5342,
      "Ġbuffer": 5343,
      "ĠFinally": 5344,
      "OP": 5345,
      "'),": 5346,
      "ifically": 5347,
      "Ġreduce": 5348,
      "bigl": 5349,
      "chastic": 5350,
      "Ġlimited": 5351,
      "Ġgain": 5352,
      "forward": 5353,
      "board": 5354,
      "cp": 5355,
      "uming": 5356,
      "common": 5357,
      "API": 5358,
      "require": 5359,
      "Ġwhite": 5360,
      "Ġdays": 5361,
      "Ġadv": 5362,
      "Ġentropy": 5363,
      "}})": 5364,
      "Ġload": 5365,
      "Bundle": 5366,
      "bmatrix": 5367,
      "dia": 5368,
      "1999": 5369,
      "Ġ^": 5370,
      "Ġvideo": 5371,
      "Ġexternal": 5372,
      "vee": 5373,
      "Ġcoefficient": 5374,
      "bigr": 5375,
      "Ġreally": 5376,
      "Ġrecord": 5377,
      "Types": 5378,
      "gent": 5379,
      "Ġgrowth": 5380,
      "ha": 5381,
      "Ġachieve": 5382,
      "ĠWorld": 5383,
      "Ġindicates": 5384,
      "Expression": 5385,
      "allet": 5386,
      "Ġfeed": 5387,
      "pecially": 5388,
      "ĠGo": 5389,
      "Ġsubgroup": 5390,
      "Ġcombination": 5391,
      "alysis": 5392,
      "Ġener": 5393,
      "Ġweights": 5394,
      "Ġbene": 5395,
      "jected": 5396,
      "det": 5397,
      "mated": 5398,
      "Ġsatisfying": 5399,
      "author": 5400,
      "SH": 5401,
      "$&": 5402,
      "ometry": 5403,
      "iral": 5404,
      "root": 5405,
      "ĠEqu": 5406,
      "These": 5407,
      "Ġmapping": 5408,
      "Ġstation": 5409,
      "tax": 5410,
      "CK": 5411,
      "Ab": 5412,
      "Ġestablish": 5413,
      "Ġrules": 5414,
      "83": 5415,
      "Ġdeal": 5416,
      "Ġnature": 5417,
      "emptyset": 5418,
      "]$,": 5419,
      "inal": 5420,
      "Ġlittle": 5421,
      "Ġusually": 5422,
      "FR": 5423,
      "Ġoverall": 5424,
      "iss": 5425,
      "MR": 5426,
      "Ġhandle": 5427,
      "\\;": 5428,
      "Ġrotation": 5429,
      "Tree": 5430,
      "Entry": 5431,
      "Ġstage": 5432,
      "ney": 5433,
      "Ġwon": 5434,
      "Ġattention": 5435,
      "}}_{\\": 5436,
      "Unit": 5437,
      "ounded": 5438,
      "dy": 5439,
      "ĠWar": 5440,
      "Ġothers": 5441,
      "unk": 5442,
      "})}": 5443,
      "Ġ<!--": 5444,
      "mathop": 5445,
      "Ġconfir": 5446,
      "Ġupon": 5447,
      "Ġflat": 5448,
      "Ġquasi": 5449,
      "udes": 5450,
      "Ġdimensions": 5451,
      "Ġkine": 5452,
      "Ġmember": 5453,
      "Ġaccurate": 5454,
      "74": 5455,
      "Ġelect": 5456,
      "GB": 5457,
      "$_{": 5458,
      "semble": 5459,
      "token": 5460,
      "real": 5461,
      "two": 5462,
      "Ġproduce": 5463,
      "79": 5464,
      "erc": 5465,
      "ialog": 5466,
      "Ġradio": 5467,
      ":</": 5468,
      "ounts": 5469,
      "Ġuint": 5470,
      "ops": 5471,
      "Ġappropriate": 5472,
      "ĠTe": 5473,
      "Ġprint": 5474,
      "Ġque": 5475,
      "ounds": 5476,
      "Container": 5477,
      "igation": 5478,
      "tribution": 5479,
      "Ġshift": 5480,
      "Ġquite": 5481,
      "triv": 5482,
      "EM": 5483,
      "Ġclusters": 5484,
      "Ġcapture": 5485,
      "sts": 5486,
      "}}}\\": 5487,
      "Ġvisual": 5488,
      "Ġscales": 5489,
      "Ġproved": 5490,
      "atri": 5491,
      "racted": 5492,
      "Ġrepresented": 5493,
      "enum": 5494,
      "Ġcalculate": 5495,
      "Url": 5496,
      "Ġgeometry": 5497,
      "ecute": 5498,
      "ĠPa": 5499,
      "SR": 5500,
      "clear": 5501,
      "Ġnor": 5502,
      "Ġestimation": 5503,
      "Ġinverse": 5504,
      "Ġ\\]": 5505,
      "atives": 5506,
      "ĠâĢĺ": 5507,
      "PU": 5508,
      "ometric": 5509,
      "points": 5510,
      "ĠOF": 5511,
      "Ġland": 5512,
      "Ġsingular": 5513,
      "window": 5514,
      "Ro": 5515,
      "dr": 5516,
      "Ġappears": 5517,
      "Entity": 5518,
      "Ġresi": 5519,
      "javascript": 5520,
      "Ġbig": 5521,
      "osity": 5522,
      "Ġidentify": 5523,
      "Ġmetal": 5524,
      "Ġtowards": 5525,
      "Ġvary": 5526,
      "ung": 5527,
      "imes": 5528,
      "bool": 5529,
      "ares": 5530,
      "Ġcountry": 5531,
      "imilarly": 5532,
      "Pack": 5533,
      "ĠEurope": 5534,
      "Ġprojection": 5535,
      "Ġevidence": 5536,
      "Configuration": 5537,
      "Ġmeasures": 5538,
      "73": 5539,
      "ĠFile": 5540,
      "Ġbehavi": 5541,
      "Ġscenario": 5542,
      "ux": 5543,
      "Ġthick": 5544,
      "Ġdifficult": 5545,
      "(_": 5546,
      "Ġneural": 5547,
      "Ġgeneration": 5548,
      "ĠCont": 5549,
      "Ġstrongly": 5550,
      "vs": 5551,
      "uler": 5552,
      "vised": 5553,
      "Ġpast": 5554,
      "ination": 5555,
      "Ġremaining": 5556,
      "Ġidentified": 5557,
      "Header": 5558,
      "white": 5559,
      "amily": 5560,
      "diction": 5561,
      "EQ": 5562,
      "Ġcallback": 5563,
      "}}.": 5564,
      "resource": 5565,
      "uni": 5566,
      "Ġdetailed": 5567,
      "uli": 5568,
      "Ġgenerally": 5569,
      "ĠUsing": 5570,
      "ners": 5571,
      "Ġcollision": 5572,
      "Ġideal": 5573,
      "asic": 5574,
      "Ġexhib": 5575,
      "criptor": 5576,
      "%%": 5577,
      "Ġparallel": 5578,
      "Ġobj": 5579,
      "Ġmix": 5580,
      "Li": 5581,
      "See": 5582,
      "Ġsettings": 5583,
      "TI": 5584,
      "Layout": 5585,
      "Local": 5586,
      "Ġstraight": 5587,
      "Ġecon": 5588,
      "mem": 5589,
      "nap": 5590,
      "dom": 5591,
      "Ġrecently": 5592,
      "bum": 5593,
      "Ġthermal": 5594,
      "ĉĉĉĉĉĉĉ": 5595,
      "Target": 5596,
      "buffer": 5597,
      "[-": 5598,
      ",{\\": 5599,
      "Ġtemplate": 5600,
      "Ġfloat": 5601,
      "Ġreduction": 5602,
      "Range": 5603,
      "81": 5604,
      "sheet": 5605,
      "Ġexception": 5606,
      "Ġdem": 5607,
      "########": 5608,
      "olved": 5609,
      "Ġ**": 5610,
      "Ġstore": 5611,
      "Ġjoin": 5612,
      "car": 5613,
      "ategories": 5614,
      "]);": 5615,
      "Ġtrained": 5616,
      "Match": 5617,
      "|}{": 5618,
      "Ġfont": 5619,
      "joint": 5620,
      "Ġdecomposition": 5621,
      "Ġguarante": 5622,
      "Ġargs": 5623,
      "Ġmentioned": 5624,
      "Ġfunctional": 5625,
      "Ġnucle": 5626,
      "Ġcoordinate": 5627,
      "Ġcommu": 5628,
      "Ġign": 5629,
      "Ġiso": 5630,
      "})=": 5631,
      "ada": 5632,
      "CODE": 5633,
      "ĠEd": 5634,
      "IST": 5635,
      "ĠNS": 5636,
      "ĠĠĠĠĠĠĠĠĠĠĠĠĠĠĠĠĠĠĠĠĠĠĠĠĠĠĠĠĠĠĠĠĠĠĠĠĠĠĠĠĠĠĠĠĠĠĠĠĠĠĠĠĠĠĠĠĠĠĠĠĠĠĠĠ": 5637,
      "Ġring": 5638,
      "Ġunits": 5639,
      "ĠAug": 5640,
      "()->": 5641,
      "ĠDi": 5642,
      "Ġcompany": 5643,
      "columnwidth": 5644,
      "Ġalthough": 5645,
      "ĠST": 5646,
      "vature": 5647,
      "Ġcycle": 5648,
      "diff": 5649,
      "Ġlargest": 5650,
      "allow": 5651,
      "Ġmicro": 5652,
      "Ġcli": 5653,
      "ĠFurthermore": 5654,
      "Ġlocated": 5655,
      "roy": 5656,
      "ĠReturns": 5657,
      "pid": 5658,
      "Ġequilibrium": 5659,
      "uck": 5660,
      "zon": 5661,
      "Ġexperience": 5662,
      "enomen": 5663,
      "Level": 5664,
      "Ġeq": 5665,
      "Ġcriter": 5666,
      "Ġdistinct": 5667,
      "Ġforward": 5668,
      "Ġ\\!": 5669,
      "Ġprimary": 5670,
      "}}^{\\": 5671,
      "Ġsituation": 5672,
      "Ġconsidering": 5673,
      "itable": 5674,
      "ulations": 5675,
      "Ġonline": 5676,
      "Ġprotocol": 5677,
      "Module": 5678,
      "Ġoutside": 5679,
      "oman": 5680,
      "ĠArray": 5681,
      "fect": 5682,
      "Ġsure": 5683,
      "Ġrobust": 5684,
      "itions": 5685,
      "MO": 5686,
      "iota": 5687,
      "ulated": 5688,
      "cyc": 5689,
      "Control": 5690,
      "]{\\": 5691,
      "ĠĠĠĠĠĠĠĠĠĠĠĠĠĠĠĠĠĠĠĠ": 5692,
      "Ġenh": 5693,
      "Ġevaluation": 5694,
      "Ġpropor": 5695,
      "Process": 5696,
      "ĠBri": 5697,
      "sitivity": 5698,
      "sure": 5699,
      "zing": 5700,
      "KE": 5701,
      "Ġbuilt": 5702,
      "ĠAppendix": 5703,
      "ĠUS": 5704,
      "Ġconstants": 5705,
      "bur": 5706,
      "partment": 5707,
      "Ġfall": 5708,
      "Ġcontact": 5709,
      "Ġ^{": 5710,
      "anti": 5711,
      "Ġespecially": 5712,
      "proto": 5713,
      "Open": 5714,
      "Ġfundamental": 5715,
      "deta": 5716,
      "raft": 5717,
      "Ġattribute": 5718,
      "Ġsolve": 5719,
      "CR": 5720,
      "Ġstri": 5721,
      "Ġconstructed": 5722,
      "Ġreturned": 5723,
      "ights": 5724,
      "Ġsampling": 5725,
      "GR": 5726,
      "scriptsize": 5727,
      "Ġcity": 5728,
      "Ġclearly": 5729,
      "aj": 5730,
      "stable": 5731,
      "Cal": 5732,
      "Ġstack": 5733,
      "ãģ": 5734,
      "Ġregister": 5735,
      "Ġfi": 5736,
      "Ġmillion": 5737,
      "Ġembedding": 5738,
      "blem": 5739,
      "yond": 5740,
      "Ġrepresentations": 5741,
      "ĠMo": 5742,
      "Ġhash": 5743,
      "classes": 5744,
      "rapper": 5745,
      "Ġpl": 5746,
      "stein": 5747,
      "figures": 5748,
      "termin": 5749,
      "Ġtoken": 5750,
      "tization": 5751,
      "Ġreplace": 5752,
      "such": 5753,
      "Ġgen": 5754,
      "})^": 5755,
      "ĠOct": 5756,
      "XX": 5757,
      "References": 5758,
      "ATION": 5759,
      "bal": 5760,
      "longrightarrow": 5761,
      "Fla": 5762,
      "uple": 5763,
      "cache": 5764,
      "ĠAdd": 5765,
      "ission": 5766,
      "Ġcomes": 5767,
      "aking": 5768,
      "Ġmaximal": 5769,
      "Im": 5770,
      "force": 5771,
      "Height": 5772,
      "Ġrelatively": 5773,
      "ĠSu": 5774,
      "Top": 5775,
      "Proof": 5776,
      "Ġgreater": 5777,
      "Ġevaluate": 5778,
      "Ġsufficient": 5779,
      "oke": 5780,
      "full": 5781,
      "Ġmatching": 5782,
      "Lemma": 5783,
      "ĠCl": 5784,
      "Sch": 5785,
      "None": 5786,
      "sy": 5787,
      "Ġremark": 5788,
      "osing": 5789,
      "tun": 5790,
      "Ġwhy": 5791,
      "Ġcr": 5792,
      "ZE": 5793,
      "Ġestablished": 5794,
      "Ġvertical": 5795,
      "Ġsimpl": 5796,
      "second": 5797,
      "GN": 5798,
      "cus": 5799,
      "ws": 5800,
      "Interface": 5801,
      "tml": 5802,
      "Ġep": 5803,
      "1998": 5804,
      "ctx": 5805,
      "Script": 5806,
      "gian": 5807,
      "slant": 5808,
      "trict": 5809,
      "Ġsections": 5810,
      "ĠBar": 5811,
      "ĠSchool": 5812,
      "utes": 5813,
      "tific": 5814,
      "Pos": 5815,
      "Http": 5816,
      "^{*": 5817,
      "Ġmas": 5818,
      "Ġsoftware": 5819,
      "Ġsufficiently": 5820,
      "req": 5821,
      "Ġparticip": 5822,
      "Ġchallen": 5823,
      "Ġtests": 5824,
      "Utils": 5825,
      "Ġbecame": 5826,
      "plot": 5827,
      "equal": 5828,
      "ĠJanuary": 5829,
      "Ġindicate": 5830,
      "That": 5831,
      "Ġmeet": 5832,
      "Ġcompletely": 5833,
      ")}_": 5834,
      "component": 5835,
      "Results": 5836,
      "Ġefficiency": 5837,
      "loop": 5838,
      "year": 5839,
      "Ġdifferences": 5840,
      "Ġunderlying": 5841,
      "${\\": 5842,
      "71": 5843,
      "Ġsetup": 5844,
      "Ġcontained": 5845,
      "Ġpreviously": 5846,
      "ĠMarch": 5847,
      "mathit": 5848,
      "tained": 5849,
      "}|\\": 5850,
      "Position": 5851,
      "Hash": 5852,
      "ĠExp": 5853,
      "Ġaim": 5854,
      "Ġslightly": 5855,
      "trivial": 5856,
      "Ġdetail": 5857,
      "Ġmodified": 5858,
      "Params": 5859,
      ":(": 5860,
      "External": 5861,
      "\\}\\": 5862,
      "Ġphysics": 5863,
      "formal": 5864,
      "Ġinfluence": 5865,
      "chem": 5866,
      "mn": 5867,
      "Ġmanifold": 5868,
      "}_{-": 5869,
      "multirow": 5870,
      "Ġpseud": 5871,
      "Ġconcent": 5872,
      "chor": 5873,
      "mann": 5874,
      "\\}$,": 5875,
      "PA": 5876,
      "QL": 5877,
      "ky": 5878,
      "ham": 5879,
      "unch": 5880,
      "aps": 5881,
      "Empty": 5882,
      "RR": 5883,
      "Ġdiagonal": 5884,
      "ĠAlso": 5885,
      "Hence": 5886,
      "Ġissues": 5887,
      "udio": 5888,
      "Ġreve": 5889,
      "apter": 5890,
      "ĠEach": 5891,
      "Ġlearn": 5892,
      "Ġhole": 5893,
      "Ġexpressed": 5894,
      "aging": 5895,
      "Ġactions": 5896,
      "Ġlimits": 5897,
      "Ġmeaning": 5898,
      "Ġferm": 5899,
      "Ġ>=": 5900,
      "Ġ}{": 5901,
      "Ġseason": 5902,
      "circle": 5903,
      "Ġtypical": 5904,
      "Ġassumptions": 5905,
      "adow": 5906,
      "Thread": 5907,
      "ournal": 5908,
      "Ġbuilding": 5909,
      ">\\": 5910,
      "magnetic": 5911,
      "ĠSome": 5912,
      "istration": 5913,
      "\\|\\": 5914,
      "NE": 5915,
      "ĠÂ": 5916,
      "aren": 5917,
      "tikzpicture": 5918,
      "iggs": 5919,
      "avel": 5920,
      "global": 5921,
      "Ġmedia": 5922,
      "wait": 5923,
      "Ġmusic": 5924,
      "ART": 5925,
      "Ġtermin": 5926,
      "Vari": 5927,
      "while": 5928,
      "pril": 5929,
      "vartheta": 5930,
      "ĠSouth": 5931,
      "Ġsomething": 5932,
      "Ġnovel": 5933,
      "subsec": 5934,
      "=\"../../../../../": 5935,
      "hic": 5936,
      "tember": 5937,
      "Ġcry": 5938,
      "ttps": 5939,
      "Ġphenomen": 5940,
      "Ġspan": 5941,
      "Ġexplicitly": 5942,
      "Ġjoint": 5943,
      "/(": 5944,
      "Ġapplying": 5945,
      "Ġcondu": 5946,
      "Ġsession": 5947,
      "Ġdesired": 5948,
      "|}": 5949,
      "][]{": 5950,
      "pair": 5951,
      "Ġstudents": 5952,
      "Ġscope": 5953,
      "âĢ¦": 5954,
      "}$}": 5955,
      "Ġsays": 5956,
      "double": 5957,
      "ĠSep": 5958,
      "aml": 5959,
      "ford": 5960,
      "phys": 5961,
      "Ġvac": 5962,
      "Properties": 5963,
      "Left": 5964,
      "axis": 5965,
      "=\"-": 5966,
      "Ġthings": 5967,
      "channel": 5968,
      "Ġrecall": 5969,
      "entic": 5970,
      "pers": 5971,
      "ĠAssert": 5972,
      "Di": 5973,
      "rive": 5974,
      "Ġhighly": 5975,
      "urations": 5976,
      "Work": 5977,
      "Ġnav": 5978,
      ":=\\": 5979,
      "isely": 5980,
      "+(": 5981,
      "Ġphoton": 5982,
      "ĠName": 5983,
      "Ġservices": 5984,
      "&=\\": 5985,
      "ollowing": 5986,
      "Ġprof": 5987,
      "Ġoffer": 5988,
      "istent": 5989,
      "prote": 5990,
      "Ġdepending": 5991,
      ">,": 5992,
      "ini": 5993,
      "Ġpredictions": 5994,
      "ĠCreate": 5995,
      "ori": 5996,
      "Ġdiver": 5997,
      "VAL": 5998,
      "Ġbeyond": 5999,
      "Ġdig": 6000,
      "ĠTrans": 6001,
      "ĠHar": 6002,
      "uminosity": 6003,
      "ourier": 6004,
      "pop": 6005,
      "ober": 6006,
      "Ġadvan": 6007,
      "}~": 6008,
      "greg": 6009,
      "Ġsm": 6010,
      "atures": 6011,
      "}}=": 6012,
      "Ġnames": 6013,
      "Can": 6014,
      "Ġ*)": 6015,
      "Ġnamely": 6016,
      "Ġconsequence": 6017,
      "tish": 6018,
      "ĠPr": 6019,
      "Ġplayers": 6020,
      "Ġasymptotic": 6021,
      "Ġcurrently": 6022,
      "mos": 6023,
      "join": 6024,
      "Ġextreme": 6025,
      "Ġhttps": 6026,
      "ski": 6027,
      "cember": 6028,
      "omy": 6029,
      "Ġdeath": 6030,
      "Ġderive": 6031,
      "Ġderivative": 6032,
      "labor": 6033,
      "Ġstatistical": 6034,
      "BA": 6035,
      "called": 6036,
      "flu": 6037,
      "Ġcomputational": 6038,
      "Ġemer": 6039,
      "bing": 6040,
      "Ġblocks": 6041,
      "document": 6042,
      "Ġenergies": 6043,
      "Ġitems": 6044,
      "Access": 6045,
      "Given": 6046,
      "Ġvariation": 6047,
      "meds": 6048,
      "Ġlabels": 6049,
      "lege": 6050,
      "Ġetc": 6051,
      "FO": 6052,
      "ship": 6053,
      "amera": 6054,
      "internal": 6055,
      "Ġtopological": 6056,
      "angular": 6057,
      "Ġnonlinear": 6058,
      "Ġtool": 6059,
      "Ġmarket": 6060,
      "HO": 6061,
      ")).": 6062,
      "Ġask": 6063,
      "Ġmachine": 6064,
      "medskip": 6065,
      "Connection": 6066,
      "Ġoccurs": 6067,
      "ĠJuly": 6068,
      "Ġpoly": 6069,
      "types": 6070,
      "Ġtrivial": 6071,
      "ĠJune": 6072,
      "Ġstability": 6073,
      "Multi": 6074,
      "tiny": 6075,
      "Ġcommit": 6076,
      "Ge": 6077,
      "ki": 6078,
      "Ġtesting": 6079,
      "ĠLag": 6080,
      "Ġvariety": 6081,
      "Doc": 6082,
      "Ġodd": 6083,
      "Ġdx": 6084,
      "Ġelectr": 6085,
      "ifts": 6086,
      "Long": 6087,
      "Ġexam": 6088,
      "Dir": 6089,
      "ĠĠĠĠĠĠĠĠĠĠĠĠĠĠĠĠĠĠ": 6090,
      "Ġquo": 6091,
      "atory": 6092,
      "Ġbos": 6093,
      "notag": 6094,
      "STR": 6095,
      "Ġsemi": 6096,
      "Ġdetected": 6097,
      "Mon": 6098,
      "Json": 6099,
      "Reference": 6100,
      "Ġer": 6101,
      "render": 6102,
      "ibration": 6103,
      "ĠGerman": 6104,
      "Ġion": 6105,
      "^{(\\": 6106,
      "Iter": 6107,
      "dash": 6108,
      "Order": 6109,
      "parameters": 6110,
      "bib": 6111,
      "Ġair": 6112,
      "store": 6113,
      "Ġpropose": 6114,
      "before": 6115,
      "etch": 6116,
      "ĠIndeed": 6117,
      "Ġachieved": 6118,
      "comment": 6119,
      "Non": 6120,
      "Ġpredicted": 6121,
      "Definition": 6122,
      "ĠIntern": 6123,
      "Ġdust": 6124,
      "diag": 6125,
      "Ġconclu": 6126,
      "ĠMy": 6127,
      "Ġengine": 6128,
      "eline": 6129,
      "Ġpractice": 6130,
      "uit": 6131,
      "ĠLa": 6132,
      "Location": 6133,
      "itter": 6134,
      "Ġenter": 6135,
      "bp": 6136,
      "Ġuncertain": 6137,
      "Ġextend": 6138,
      "mediately": 6139,
      "}\\|": 6140,
      "Ġprobab": 6141,
      "Ġ$,": 6142,
      "ĠAct": 6143,
      "mult": 6144,
      "ellow": 6145,
      "exists": 6146,
      "Ġ}}": 6147,
      "Ġbias": 6148,
      "ĠLie": 6149,
      "oney": 6150,
      "Integer": 6151,
      "reedom": 6152,
      "shot": 6153,
      "Ġisomorphism": 6154,
      "Ġorth": 6155,
      "Ġareas": 6156,
      "formations": 6157,
      "ancy": 6158,
      "Ġarticle": 6159,
      "Ġarchitecture": 6160,
      "Ġconj": 6161,
      "400": 6162,
      "Ġresources": 6163,
      "Ġcurvature": 6164,
      "Ġtrace": 6165,
      "aut": 6166,
      ";\\;\\": 6167,
      "hash": 6168,
      "Ġmath": 6169,
      "=.": 6170,
      "ulture": 6171,
      "device": 6172,
      "Ġapi": 6173,
      "Callback": 6174,
      "Ġprinciple": 6175,
      "ĠAu": 6176,
      ")})": 6177,
      "Ġobjective": 6178,
      "ca": 6179,
      "COLOR": 6180,
      "thern": 6181,
      "Ġcanonical": 6182,
      "Ġcamp": 6183,
      "entifier": 6184,
      "@{": 6185,
      "Ġtun": 6186,
      "Ġbr": 6187,
      "=\"_": 6188,
      "Ġxml": 6189,
      "Ġfast": 6190,
      "Ã¡": 6191,
      "\"))": 6192,
      "Ġsummar": 6193,
      "ira": 6194,
      "Ġgot": 6195,
      "Ġlocally": 6196,
      "Ġchem": 6197,
      "artifact": 6198,
      "Ġseems": 6199,
      "Ġintegration": 6200,
      "Ġchannels": 6201,
      "served": 6202,
      "tient": 6203,
      "ĠOther": 6204,
      "Ptr": 6205,
      "mf": 6206,
      "ifier": 6207,
      "cible": 6208,
      "cro": 6209,
      "vember": 6210,
      "shape": 6211,
      "Ġdriv": 6212,
      "Ġelectric": 6213,
      "Ġcache": 6214,
      "Ġacceler": 6215,
      "Ġellip": 6216,
      "PECT": 6217,
      "Ġdynamic": 6218,
      "Pe": 6219,
      "BS": 6220,
      "atible": 6221,
      "Core": 6222,
      "Ġpublished": 6223,
      "antom": 6224,
      "ĠAf": 6225,
      "nother": 6226,
      "Ġshowed": 6227,
      "Clo": 6228,
      "Ġpaths": 6229,
      "ĠLog": 6230,
      "Ġstory": 6231,
      "ACK": 6232,
      "PL": 6233,
      "ierarch": 6234,
      "ĠSw": 6235,
      "copy": 6236,
      "Consider": 6237,
      "Ġmaxim": 6238,
      "Ġutili": 6239,
      "enn": 6240,
      "ened": 6241,
      "Ġstochastic": 6242,
      "Te": 6243,
      "Copy": 6244,
      "Ġoverride": 6245,
      "unity": 6246,
      "Ġcombined": 6247,
      "ille": 6248,
      "Ġefficient": 6249,
      "pite": 6250,
      "Ġgeneralized": 6251,
      "sv": 6252,
      "Ġlot": 6253,
      "Ġearlier": 6254,
      "ĠMc": 6255,
      "DA": 6256,
      "Xi": 6257,
      "Ġ({\\": 6258,
      "Ġvariance": 6259,
      "ggest": 6260,
      "Ġonto": 6261,
      "Ġspher": 6262,
      "Each": 6263,
      "Description": 6264,
      "Ġproducts": 6265,
      "tivation": 6266,
      "ĠCity": 6267,
      "\"));": 6268,
      "lator": 6269,
      "Ġaver": 6270,
      "enchmark": 6271,
      "Ġtransport": 6272,
      "Ġfoot": 6273,
      "ĠChar": 6274,
      "domain": 6275,
      "Ġeffor": 6276,
      "ĠNorth": 6277,
      "background": 6278,
      "ĠApril": 6279,
      "Ġhighest": 6280,
      "Ġtypically": 6281,
      "ections": 6282,
      "well": 6283,
      "Settings": 6284,
      "oundation": 6285,
      "Ġconcept": 6286,
      "variance": 6287,
      ")),": 6288,
      "elihood": 6289,
      "DM": 6290,
      "Ġ$\\{\\": 6291,
      "resp": 6292,
      "ymmetry": 6293,
      "Ġsatisfied": 6294,
      "Parameters": 6295,
      "Ġanswer": 6296,
      "continu": 6297,
      "ĠSeptember": 6298,
      "Ġhidden": 6299,
      "Ġradial": 6300,
      "(-\\": 6301,
      ".\\\\": 6302,
      "2022": 6303,
      "Ġcomputing": 6304,
      "Ġwhereas": 6305,
      "Current": 6306,
      "Ġsong": 6307,
      "stri": 6308,
      "ĠAugust": 6309,
      "Option": 6310,
      "Ġdashed": 6311,
      "Ġcompe": 6312,
      "Ġexpec": 6313,
      "general": 6314,
      "stro": 6315,
      "Ġ\\&": 6316,
      "Store": 6317,
      "Mapp": 6318,
      "utils": 6319,
      "nn": 6320,
      "sively": 6321,
      "Ġapproximately": 6322,
      "%;": 6323,
      "Ġfri": 6324,
      "reated": 6325,
      "prob": 6326,
      "Ġparams": 6327,
      "Ġcm": 6328,
      "uri": 6329,
      "Ġdynamical": 6330,
      "avelength": 6331,
      "UM": 6332,
      "ills": 6333,
      "Ġcat": 6334,
      "lapse": 6335,
      "Ġsuff": 6336,
      "etal": 6337,
      "ropic": 6338,
      "ĠAc": 6339,
      "ORT": 6340,
      "Ġcommunication": 6341,
      "debug": 6342,
      "ulate": 6343,
      "Ġplayer": 6344,
      "Extension": 6345,
      "Search": 6346,
      "ĠOR": 6347,
      "Ġpadding": 6348,
      "Ġtechnique": 6349,
      "Ġmu": 6350,
      "stitute": 6351,
      "Ġstarted": 6352,
      "Ġcoinc": 6353,
      "Ġhydro": 6354,
      "!]": 6355,
      "ĠDE": 6356,
      "Graph": 6357,
      "Change": 6358,
      "Ġunknown": 6359,
      "Suppose": 6360,
      "green": 6361,
      "rew": 6362,
      "tamp": 6363,
      "cil": 6364,
      "mal": 6365,
      "ĠDecember": 6366,
      "():": 6367,
      "Schema": 6368,
      "Ġsched": 6369,
      "bet": 6370,
      ";->": 6371,
      "Ġinvolved": 6372,
      "selves": 6373,
      "DP": 6374,
      "Ġfilename": 6375,
      "har": 6376,
      "Ġsecurity": 6377,
      "Ġdatabase": 6378,
      "Session": 6379,
      "Ġnet": 6380,
      "255": 6381,
      "Ġvio": 6382,
      "Ġweek": 6383,
      "enta": 6384,
      "gather": 6385,
      "\\%$": 6386,
      "msg": 6387,
      "ĠResearch": 6388,
      "Ġrisk": 6389,
      "Ġfav": 6390,
      "ography": 6391,
      "Ġobvious": 6392,
      "Ġsequences": 6393,
      "Ġdimensional": 6394,
      "}{*": 6395,
      "optim": 6396,
      "Ġpositions": 6397,
      "Ġindeed": 6398,
      "interface": 6399,
      "DS": 6400,
      "^*\\": 6401,
      "ictionary": 6402,
      "ĠĠĠĠĠĠĠĠĠĠĠĠĠĠĠĠĠĠĠĠĠĠĠĠĠ": 6403,
      "backslash": 6404,
      "condition": 6405,
      "Ġwaves": 6406,
      "Ġdisper": 6407,
      "transform": 6408,
      "Ġnamespace": 6409,
      "ĠOctober": 6410,
      "Ġgl": 6411,
      "ogonal": 6412,
      "ĠException": 6413,
      "Cl": 6414,
      "Ġbulk": 6415,
      "DR": 6416,
      "vitational": 6417,
      "Ġprecisely": 6418,
      "hal": 6419,
      "Ġgeneric": 6420,
      "jecture": 6421,
      "Ġmassive": 6422,
      "arc": 6423,
      ")--(": 6424,
      "initial": 6425,
      "servation": 6426,
      "hs": 6427,
      "Ġneighb": 6428,
      "ĠOff": 6429,
      "Ġalbum": 6430,
      "Ġcompan": 6431,
      "Ġcells": 6432,
      "lates": 6433,
      "Ġmask": 6434,
      "rd": 6435,
      "Sum": 6436,
      "env": 6437,
      "Ġtook": 6438,
      "itle": 6439,
      "Ġpackage": 6440,
      "Ġeigenvalues": 6441,
      "category": 6442,
      "Ġusual": 6443,
      "Ġfinally": 6444,
      "Ġpurpose": 6445,
      "Ġdegrees": 6446,
      "Ġfollowed": 6447,
      "Ġdistingu": 6448,
      "Ġshare": 6449,
      "weight": 6450,
      "Serial": 6451,
      "Ġcla": 6452,
      "=\"../../../../../../": 6453,
      "Operation": 6454,
      "corollary": 6455,
      "rea": 6456,
      "CF": 6457,
      "Var": 6458,
      "CTION": 6459,
      "^*(": 6460,
      "256": 6461,
      "Kind": 6462,
      "GE": 6463,
      "Ġcosm": 6464,
      "Ġperiodic": 6465,
      "ĠHigh": 6466,
      "poch": 6467,
      "Moreover": 6468,
      "strap": 6469,
      "ĠTra": 6470,
      "bon": 6471,
      "Ġrights": 6472,
      "Ġactivity": 6473,
      "Ġwriting": 6474,
      "atrix": 6475,
      "arding": 6476,
      "Impl": 6477,
      "ĠBay": 6478,
      "Ġimmediately": 6479,
      "large": 6480,
      "Ġwomen": 6481,
      "Ġcancel": 6482,
      "128": 6483,
      "ĠGal": 6484,
      "Ġdesigned": 6485,
      "Ġradiation": 6486,
      "ĠCheck": 6487,
      "Ġsqu": 6488,
      "ridge": 6489,
      "BR": 6490,
      "Ġextract": 6491,
      "Ġyield": 6492,
      "uge": 6493,
      "Ġthread": 6494,
      "Pri": 6495,
      "Ġredshift": 6496,
      "ae": 6497,
      "Font": 6498,
      "brid": 6499,
      "NavBar": 6500,
      "itary": 6501,
      "fn": 6502,
      "Ġnamed": 6503,
      "STATE": 6504,
      "ĠTime": 6505,
      "120": 6506,
      "ALL": 6507,
      "Ġdrop": 6508,
      ")^\\": 6509,
      "short": 6510,
      "Ġseman": 6511,
      "ĠBG": 6512,
      "Ġindices": 6513,
      "Ġdoesn": 6514,
      "ĠSU": 6515,
      "Ġreli": 6516,
      "Ġverify": 6517,
      "Ġbundle": 6518,
      "1997": 6519,
      "Async": 6520,
      "Ġundefined": 6521,
      "Ġthought": 6522,
      "fields": 6523,
      "Ġimplemented": 6524,
      "ano": 6525,
      "Host": 6526,
      "ĠNovember": 6527,
      "product": 6528,
      "Ġtell": 6529,
      "Ġexclu": 6530,
      "Ð»": 6531,
      "Ġentries": 6532,
      "Ġpopular": 6533,
      "!\\": 6534,
      "legate": 6535,
      "Comple": 6536,
      "ĠAb": 6537,
      "byte": 6538,
      "Ġunderstanding": 6539,
      "ads": 6540,
      "crimin": 6541,
      "Ġ::": 6542,
      "While": 6543,
      "PRE": 6544,
      "negative": 6545,
      "Ġsuggest": 6546,
      "Ġvi": 6547,
      "Mo": 6548,
      "Ġquantities": 6549,
      "Ġtreatment": 6550,
      "ilbert": 6551,
      "vect": 6552,
      "Ġsend": 6553,
      "rangian": 6554,
      "origin": 6555,
      "vm": 6556,
      "ticles": 6557,
      "OM": 6558,
      "kin": 6559,
      "mator": 6560,
      "irth": 6561,
      "stral": 6562,
      "Ġnotice": 6563,
      "Ġshowing": 6564,
      "Ġgames": 6565,
      "rown": 6566,
      "Ġremoved": 6567,
      "Ġspecies": 6568,
      "herent": 6569,
      "Ġintersection": 6570,
      "sump": 6571,
      "Ġmetrics": 6572,
      "holder": 6573,
      "vents": 6574,
      "Ġrelax": 6575,
      "DL": 6576,
      "DC": 6577,
      "Ġreprodu": 6578,
      "Ġ\"\\": 6579,
      "Template": 6580,
      "Handle": 6581,
      "chain": 6582,
      "crete": 6583,
      "delete": 6584,
      "Ġabund": 6585,
      "Syn": 6586,
      "Ġnum": 6587,
      "-(": 6588,
      "docs": 6589,
      "Ġarm": 6590,
      "Ġthroughout": 6591,
      "ĠLO": 6592,
      "Ġalternative": 6593,
      "ague": 6594,
      "Document": 6595,
      "men": 6596,
      "scripts": 6597,
      "Ġaccre": 6598,
      "Ġprocessing": 6599,
      "spin": 6600,
      "Ġconnect": 6601,
      "$.}": 6602,
      "Ġproceed": 6603,
      "1996": 6604,
      "Car": 6605,
      "Ġelectro": 6606,
      "Ġgravity": 6607,
      "Ġcame": 6608,
      "Ġ,\\": 6609,
      "ĠGiven": 6610,
      "ultane": 6611,
      "Ġfailed": 6612,
      "eries": 6613,
      "monic": 6614,
      "parallel": 6615,
      "Ġequivalence": 6616,
      "Ġsuitable": 6617,
      "Ġquestions": 6618,
      "gre": 6619,
      "Example": 6620,
      "Ġouter": 6621,
      "rank": 6622,
      "Ap": 6623,
      "ubble": 6624,
      "zh": 6625,
      "uff": 6626,
      "Ġdetector": 6627,
      "Ġfill": 6628,
      "150": 6629,
      "aco": 6630,
      "when": 6631,
      "Ġparticularly": 6632,
      "actic": 6633,
      "ĠIR": 6634,
      "ifies": 6635,
      "Ġ\\,\\": 6636,
      "Ġpassed": 6637,
      "Ġnormalized": 6638,
      "Ġreleased": 6639,
      "footnotesize": 6640,
      "structor": 6641,
      "Ġexponential": 6642,
      "Ġincreased": 6643,
      "modules": 6644,
      "Ġluminosity": 6645,
      "artifactId": 6646,
      "Ġadop": 6647,
      "(*": 6648,
      "Ġtheories": 6649,
      "TEST": 6650,
      "textup": 6651,
      "equals": 6652,
      "ĠGeV": 6653,
      "Names": 6654,
      "downarrow": 6655,
      "ĠCounty": 6656,
      "ancel": 6657,
      "there": 6658,
      "Ġruns": 6659,
      "Ġhypothesis": 6660,
      "webkit": 6661,
      "Ġperfect": 6662,
      "ko": 6663,
      "Render": 6664,
      "beled": 6665,
      "Helper": 6666,
      "Ġways": 6667,
      "Port": 6668,
      "False": 6669,
      "Ġdense": 6670,
      "Ġinvestigate": 6671,
      "ĠEXPECT": 6672,
      "Ġentang": 6673,
      "Ġcloud": 6674,
      "ROM": 6675,
      "corpor": 6676,
      "vals": 6677,
      "Ġrecover": 6678,
      "ĠScience": 6679,
      "ĠĠčĊ": 6680,
      "Sign": 6681,
      "|$": 6682,
      "PH": 6683,
      "Ġexchange": 6684,
      "Metadata": 6685,
      "stackrel": 6686,
      "panel": 6687,
      "Ġintern": 6688,
      "modal": 6689,
      "Ġcandidate": 6690,
      "ĠRed": 6691,
      "Ġconstit": 6692,
      "phantom": 6693,
      "Ġutil": 6694,
      "jpg": 6695,
      "Ġpick": 6696,
      "sep": 6697,
      "since": 6698,
      "MT": 6699,
      "ULT": 6700,
      "Ġacqu": 6701,
      "Ġpolarization": 6702,
      "Ġintensity": 6703,
      "Ġstatistics": 6704,
      "Ġlate": 6705,
      "Ġindepend": 6706,
      "ract": 6707,
      "km": 6708,
      "boldmath": 6709,
      "Ġiteration": 6710,
      "tool": 6711,
      "Ġfluctuations": 6712,
      "asons": 6713,
      "Ġexpressions": 6714,
      "bruary": 6715,
      "ient": 6716,
      "|^{": 6717,
      "unct": 6718,
      "network": 6719,
      "send": 6720,
      "istance": 6721,
      "Ġchanged": 6722,
      "Ġdelay": 6723,
      "Ġdel": 6724,
      "uum": 6725,
      "stan": 6726,
      "att": 6727,
      "Ġaffect": 6728,
      "Ġsizes": 6729,
      "$^{": 6730,
      "ĠChris": 6731,
      "each": 6732,
      "kind": 6733,
      "EXT": 6734,
      "border": 6735,
      "files": 6736,
      "Ġbyte": 6737,
      "Ġprefer": 6738,
      "Ġlack": 6739,
      "address": 6740,
      "card": 6741,
      "Ġrelease": 6742,
      ")[": 6743,
      "ĠWeb": 6744,
      "ouch": 6745,
      "aff": 6746,
      "Ġcontainer": 6747,
      "*}[": 6748,
      "Ġbrief": 6749,
      "uid": 6750,
      "bil": 6751,
      "hfill": 6752,
      "ãĥ": 6753,
      "'_{": 6754,
      "els": 6755,
      "hol": 6756,
      "Ġfreedom": 6757,
      "ĠĠĠĠĠĠĊ": 6758,
      "ĠHis": 6759,
      "IGN": 6760,
      "Ġyoung": 6761,
      "boot": 6762,
      "123": 6763,
      "Ġperturbation": 6764,
      "Ġuniformly": 6765,
      "TC": 6766,
      "Ġequality": 6767,
      "Ġassuming": 6768,
      "vas": 6769,
      "ERROR": 6770,
      "Pa": 6771,
      "pl": 6772,
      "ibility": 6773,
      "Values": 6774,
      "Ġball": 6775,
      "toString": 6776,
      "Ġpor": 6777,
      "cut": 6778,
      "reet": 6779,
      "ĠSuch": 6780,
      "textcolor": 6781,
      "ĠPri": 6782,
      "Uni": 6783,
      "ĠRE": 6784,
      "Ġtar": 6785,
      "_;": 6786,
      "exports": 6787,
      "Ġmi": 6788,
      "ociety": 6789,
      "ĠWork": 6790,
      "ĠĠĠĠĠĠĠĠĠĠĠĠĠĠĠĠĠĠĠĠĠĠĠĠ": 6791,
      "plane": 6792,
      "tan": 6793,
      "Ġhouse": 6794,
      "Ġshared": 6795,
      "ĠSuppose": 6796,
      "Ġgreen": 6797,
      "Ġappe": 6798,
      "Parser": 6799,
      "Mem": 6800,
      "Ġwall": 6801,
      "Ġunsigned": 6802,
      "Ġreflect": 6803,
      "Ġexpress": 6804,
      "Ġbehaviour": 6805,
      "pla": 6806,
      "square": 6807,
      "replace": 6808,
      "ĠDec": 6809,
      "Device": 6810,
      "Down": 6811,
      "Ġfine": 6812,
      "ulus": 6813,
      "ĠRun": 6814,
      "belian": 6815,
      "za": 6816,
      "Ġparame": 6817,
      "Ġcontract": 6818,
      "framework": 6819,
      "Ġdeli": 6820,
      "gmentation": 6821,
      "xture": 6822,
      "bind": 6823,
      "bilities": 6824,
      "(:": 6825,
      "Ġreplaced": 6826,
      "arith": 6827,
      "iring": 6828,
      "Tran": 6829,
      "Ġevaluated": 6830,
      ")}.": 6831,
      "HTML": 6832,
      "Ġheavy": 6833,
      "Ġwait": 6834,
      "Ġsector": 6835,
      "Ġagents": 6836,
      "INE": 6837,
      "mom": 6838,
      ")}(\\": 6839,
      "groupId": 6840,
      "Ġpen": 6841,
      "Ġ..": 6842,
      "ĠAlthough": 6843,
      "hr": 6844,
      "iii": 6845,
      "'],": 6846,
      "Ġvs": 6847,
      "Ġfinding": 6848,
      "Vector": 6849,
      "Ġcolumns": 6850,
      "Invalid": 6851,
      "ucial": 6852,
      "Deta": 6853,
      "lev": 6854,
      "trins": 6855,
      "Ġinsp": 6856,
      "Ġdot": 6857,
      "particle": 6858,
      "Ġpi": 6859,
      "isson": 6860,
      "Ġconfigurations": 6861,
      "Sw": 6862,
      "Ġce": 6863,
      "Ġparse": 6864,
      ")(\\": 6865,
      "sus": 6866,
      "Ġadding": 6867,
      "VM": 6868,
      "Ġquadratic": 6869,
      "syn": 6870,
      "ĠCom": 6871,
      "Ġreader": 6872,
      "GS": 6873,
      "Cor": 6874,
      "Ġinstances": 6875,
      "Ġten": 6876,
      "Ġrecur": 6877,
      "Ġsem": 6878,
      "vol": 6879,
      "Ġformed": 6880,
      "eman": 6881,
      "Ġ(\"": 6882,
      "SION": 6883,
      "Ġ['": 6884,
      "ancial": 6885,
      "umentation": 6886,
      "Ġteach": 6887,
      "Ġrect": 6888,
      "region": 6889,
      "Ġrapid": 6890,
      "Que": 6891,
      "oting": 6892,
      "Ġvehic": 6893,
      "stry": 6894,
      "HS": 6895,
      "margin": 6896,
      "{(\\": 6897,
      "theless": 6898,
      "session": 6899,
      "connection": 6900,
      "Enc": 6901,
      "Ġrecomm": 6902,
      "Ġjet": 6903,
      "Ġmixed": 6904,
      "Fields": 6905,
      "ĠĠĠĠĠĠĠĠĠĠĠĠĠĠĠĠĠĠĠĠĠĠĠĠĠĠĠĠĠĠĠĠĠĠĠĠĠĠĠ": 6906,
      "stylesheet": 6907,
      "Ġseparate": 6908,
      "textsf": 6909,
      "ingle": 6910,
      "Mark": 6911,
      "boolean": 6912,
      "ĠMod": 6913,
      "Ġnuclear": 6914,
      "Ġcapacity": 6915,
      "grid": 6916,
      "oling": 6917,
      "ĠEar": 6918,
      "ĠEnglish": 6919,
      "ĠPy": 6920,
      "Ġtransaction": 6921,
      "success": 6922,
      "functions": 6923,
      "Ġpatterns": 6924,
      "verti": 6925,
      "Ġinfo": 6926,
      "Ġmen": 6927,
      "SET": 6928,
      "oring": 6929,
      "Mar": 6930,
      "Ġeducation": 6931,
      "ĠSM": 6932,
      "handle": 6933,
      "Ġcompar": 6934,
      "support": 6935,
      "Ġfront": 6936,
      "ĠOut": 6937,
      "rays": 6938,
      "reducible": 6939,
      "Ġprecision": 6940,
      "ĠMethod": 6941,
      "Ġcorrection": 6942,
      "~(\\": 6943,
      "Menu": 6944,
      "Ġled": 6945,
      "Ġcomposition": 6946,
      "lli": 6947,
      "Ġvisible": 6948,
      "'))": 6949,
      "Body": 6950,
      "lone": 6951,
      "coming": 6952,
      "single": 6953,
      "Ġstop": 6954,
      "ĠHiggs": 6955,
      "Ġ})": 6956,
      "Ġscreen": 6957,
      "ĠExample": 6958,
      "uparrow": 6959,
      "isot": 6960,
      "ĠMed": 6961,
      "Inst": 6962,
      "AND": 6963,
      "ĠCE": 6964,
      "Ġheld": 6965,
      "PD": 6966,
      "ĠBGCOLOR": 6967,
      "luster": 6968,
      "Us": 6969,
      "Ġuncertainties": 6970,
      "Ġcharacters": 6971,
      "Ġbeginning": 6972,
      "LR": 6973,
      "total": 6974,
      "Ġplayed": 6975,
      "GET": 6976,
      "Ġcorrections": 6977,
      "1995": 6978,
      "rich": 6979,
      "Ġoccup": 6980,
      "differ": 6981,
      "Ġadmin": 6982,
      "oton": 6983,
      "irit": 6984,
      "Ġdelete": 6985,
      "Ġstress": 6986,
      "Ġquantity": 6987,
      "Ġ{$\\": 6988,
      "Ġmoving": 6989,
      "sia": 6990,
      "Ġconvolution": 6991,
      "Ġexplained": 6992,
      "phase": 6993,
      "Ġclean": 6994,
      "My": 6995,
      "&&\\": 6996,
      "\\|_": 6997,
      "ĠEnd": 6998,
      "sport": 6999,
      "Err": 7000,
      "leftarrow": 7001,
      "ĠSO": 7002,
      "Ġencoding": 7003,
      "HC": 7004,
      "Ġrough": 7005,
      "tified": 7006,
      "Ġability": 7007,
      "}.}": 7008,
      "radius": 7009,
      "scopic": 7010,
      "Ġshock": 7011,
      "110": 7012,
      "Ġrise": 7013,
      "ORM": 7014,
      "================================": 7015,
      "ĠFourier": 7016,
      "ĠFebruary": 7017,
      "Use": 7018,
      "?:": 7019,
      "tn": 7020,
      "bc": 7021,
      "Project": 7022,
      "ATA": 7023,
      "icrosoft": 7024,
      "tral": 7025,
      "Ġnational": 7026,
      "pacity": 7027,
      "Ġpush": 7028,
      "Ġtransmission": 7029,
      "Ġ('": 7030,
      "\\!\\": 7031,
      "Ġgravitational": 7032,
      "Ġtranslation": 7033,
      "____": 7034,
      "Argument": 7035,
      "=\\{": 7036,
      "Ġfair": 7037,
      "$\\\\": 7038,
      "Ġsuppose": 7039,
      "Ġsurvey": 7040,
      "win": 7041,
      "special": 7042,
      "apan": 7043,
      "export": 7044,
      "Ġinvoke": 7045,
      "inted": 7046,
      "Ġphases": 7047,
      "Ġidentical": 7048,
      "Ġsignals": 7049,
      "numer": 7050,
      "BB": 7051,
      "thick": 7052,
      "simple": 7053,
      "Ġnoted": 7054,
      "Ġquick": 7055,
      "ĠCour": 7056,
      "Ġattributes": 7057,
      "Pass": 7058,
      "ĠError": 7059,
      "ĠKing": 7060,
      "Application": 7061,
      "ĠExt": 7062,
      "Ġgenerating": 7063,
      "Ġinstr": 7064,
      "Ã³": 7065,
      "ĠSun": 7066,
      "mean": 7067,
      "Ġpermu": 7068,
      "properties": 7069,
      "dest": 7070,
      "}$\\": 7071,
      "Network": 7072,
      "Ġdedu": 7073,
      "Ġimplement": 7074,
      "Ġlive": 7075,
      "Ġmet": 7076,
      "Red": 7077,
      "Ġcoupled": 7078,
      "Ġinfer": 7079,
      "Ġbytes": 7080,
      "$-$": 7081,
      "shift": 7082,
      "limit": 7083,
      "ĠĠĠĠĠĠĠĠĠĠĠĠĠĠĠĠĠĠĠĠĠĠ": 7084,
      "ceil": 7085,
      "Stack": 7086,
      "brack": 7087,
      "cline": 7088,
      "Ġheader": 7089,
      "invariant": 7090,
      "Ġthank": 7091,
      "Ġanom": 7092,
      "Cref": 7093,
      "$^": 7094,
      "160": 7095,
      "Ġentity": 7096,
      "$\\,": 7097,
      ">.": 7098,
      "{|": 7099,
      "Ġinterested": 7100,
      "Ġhalo": 7101,
      "HER": 7102,
      "veloper": 7103,
      "Ġexpand": 7104,
      "ico": 7105,
      "`.": 7106,
      "})^{": 7107,
      "multline": 7108,
      "click": 7109,
      "ĠGroup": 7110,
      "vities": 7111,
      "Ġgeometric": 7112,
      "olar": 7113,
      "Ġpolynomials": 7114,
      "&#": 7115,
      "Args": 7116,
      "ority": 7117,
      "Ġdiffusion": 7118,
      "sube": 7119,
      "ĠMap": 7120,
      "ĠDav": 7121,
      "complete": 7122,
      "Xml": 7123,
      "Ġ$^{": 7124,
      "Ġformulation": 7125,
      "Ġheat": 7126,
      "Ġimportance": 7127,
      "ĠAfric": 7128,
      "thetic": 7129,
      "Ġconv": 7130,
      "Channel": 7131,
      "Go": 7132,
      "Ġsimultane": 7133,
      "Ġtoday": 7134,
      "loss": 7135,
      "ĠAlgorithm": 7136,
      "Ġtopology": 7137,
      "none": 7138,
      "Param": 7139,
      ".$$": 7140,
      "asc": 7141,
      "Reader": 7142,
      "Ġwavelength": 7143,
      "Ġprime": 7144,
      "Ġmiddle": 7145,
      "ĠInt": 7146,
      "ggle": 7147,
      "mits": 7148,
      "}/\\": 7149,
      "Ġ\\|\\": 7150,
      "aker": 7151,
      "ĠConsider": 7152,
      "Ġ_{\\": 7153,
      "CM": 7154,
      "pub": 7155,
      "lower": 7156,
      "wave": 7157,
      "Policy": 7158,
      ">();": 7159,
      "irical": 7160,
      "Boolean": 7161,
      "arities": 7162,
      "_{+": 7163,
      "dical": 7164,
      "ECK": 7165,
      "Ġther": 7166,
      "Ġtax": 7167,
      "irr": 7168,
      "ãĤ": 7169,
      "Ġnotion": 7170,
      "Ġtrigger": 7171,
      "rane": 7172,
      "ĠTrue": 7173,
      "random": 7174,
      "Before": 7175,
      "Title": 7176,
      "Ke": 7177,
      "Ġcategories": 7178,
      "BL": 7179,
      "ĠCorollary": 7180,
      "rence": 7181,
      "Ġmathe": 7182,
      "Ġdeviation": 7183,
      "ĠCON": 7184,
      "ua": 7185,
      "custom": 7186,
      "Ġneighborhood": 7187,
      "binom": 7188,
      "Ġcomb": 7189,
      "virtual": 7190,
      "Debug": 7191,
      "Bytes": 7192,
      "Ġmissing": 7193,
      "ĠNot": 7194,
      "Ġretrie": 7195,
      "lications": 7196,
      "ĠDire": 7197,
      "Ġdependent": 7198,
      "sumer": 7199,
      "Writer": 7200,
      ",...,": 7201,
      "ĠAustral": 7202,
      "coord": 7203,
      "Ġinputs": 7204,
      "disabled": 7205,
      "Ġrecogn": 7206,
      "ifying": 7207,
      "ĠAccording": 7208,
      "Ġslo": 7209,
      "extension": 7210,
      "Ġadvantage": 7211,
      "Ġdoing": 7212,
      "sql": 7213,
      "Ġatoms": 7214,
      "tee": 7215,
      "Ġdensities": 7216,
      "ĠRus": 7217,
      "Ġpolitical": 7218,
      "imits": 7219,
      "Has": 7220,
      "Record": 7221,
      "regular": 7222,
      "Ġ\\[": 7223,
      "han": 7224,
      "alities": 7225,
      "ĠValue": 7226,
      "ORD": 7227,
      "Ġ---": 7228,
      "ociation": 7229,
      "spective": 7230,
      "}^{+": 7231,
      "sibility": 7232,
      "Ġsolar": 7233,
      "Ġtren": 7234,
      "ĠCH": 7235,
      "Ġinit": 7236,
      "pository": 7237,
      "Ġdegener": 7238,
      "Ġreduces": 7239,
      "register": 7240,
      "inclu": 7241,
      "Ġisot": 7242,
      "URE": 7243,
      "]^": 7244,
      "ĠMath": 7245,
      "pk": 7246,
      "road": 7247,
      "'>": 7248,
      "clip": 7249,
      "BE": 7250,
      ")>": 7251,
      "ĠPlan": 7252,
      "Ġround": 7253,
      "FC": 7254,
      "Ġlock": 7255,
      "language": 7256,
      "Ġforces": 7257,
      ";<": 7258,
      "posed": 7259,
      "ensors": 7260,
      "measure": 7261,
      "Ġmixing": 7262,
      "Ġunion": 7263,
      "Ġtransitions": 7264,
      "Ġhierarch": 7265,
      "umes": 7266,
      "Ġexplan": 7267,
      "aders": 7268,
      "sterior": 7269,
      "Ġhomogeneous": 7270,
      "mock": 7271,
      "Ġtes": 7272,
      "Ġbaseline": 7273,
      "Ġprofiles": 7274,
      "Sym": 7275,
      "Ġdescribes": 7276,
      "tors": 7277,
      "ĠJSON": 7278,
      "Ġgoes": 7279,
      "cluster": 7280,
      "Ġsuggests": 7281,
      "Classes": 7282,
      "related": 7283,
      "Ġencode": 7284,
      "ermi": 7285,
      "$'": 7286,
      "manif": 7287,
      "Ġfrequencies": 7288,
      "Ġsummary": 7289,
      "ady": 7290,
      "midrule": 7291,
      "Ġalgebraic": 7292,
      "Ġbright": 7293,
      "ĠGreen": 7294,
      "Num": 7295,
      "ats": 7296,
      "Ġbelieve": 7297,
      "Ġkm": 7298,
      "Ġorthogonal": 7299,
      "Ġaccep": 7300,
      "Ġanalytic": 7301,
      "&=&\\": 7302,
      "Ġneutrino": 7303,
      "conver": 7304,
      "Main": 7305,
      "Ġsolving": 7306,
      "ĠWest": 7307,
      "Ġaccept": 7308,
      "Ġscenarios": 7309,
      "ĠMich": 7310,
      "Initial": 7311,
      "endar": 7312,
      "straint": 7313,
      "ison": 7314,
      "Ġdemonstrate": 7315,
      "varrho": 7316,
      "mathtt": 7317,
      "elec": 7318,
      "rame": 7319,
      "IB": 7320,
      "orter": 7321,
      "'re": 7322,
      "Ġbegan": 7323,
      "schema": 7324,
      "sumption": 7325,
      "application": 7326,
      "Ñĥ": 7327,
      "001": 7328,
      "Ġ++": 7329,
      "ĠFunction": 7330,
      "Ġstraightforward": 7331,
      "nol": 7332,
      "Ġrational": 7333,
      "ĠMax": 7334,
      "Ġnecessarily": 7335,
      "Ġupd": 7336,
      "Ġelectrons": 7337,
      "Ġnearly": 7338,
      "Ġorders": 7339,
      "Ġproviding": 7340,
      "ĠCenter": 7341,
      "poses": 7342,
      "ĠBra": 7343,
      "quations": 7344,
      "settings": 7345,
      "inger": 7346,
      "iers": 7347,
      "ians": 7348,
      "bile": 7349,
      "GeV": 7350,
      "Tab": 7351,
      "ĉĉĉĊ": 7352,
      "Ġimproved": 7353,
      "Ġplanet": 7354,
      "ĠDM": 7355,
      "Ġjav": 7356,
      "You": 7357,
      "Ġgets": 7358,
      "repres": 7359,
      "SF": 7360,
      "Auto": 7361,
      "Ġgenerator": 7362,
      "Ġreconstruction": 7363,
      "Ġstated": 7364,
      "Ġchemical": 7365,
      "Ġamb": 7366,
      "Ġatt": 7367,
      "Ġpicture": 7368,
      "ĠSan": 7369,
      "Ġinstall": 7370,
      "rist": 7371,
      "Database": 7372,
      "Ġvacuum": 7373,
      "}^+": 7374,
      "inv": 7375,
      "Ð°Ð": 7376,
      "\\},": 7377,
      "}>": 7378,
      "Ġpossibility": 7379,
      "Ġincorpor": 7380,
      "ĠBritish": 7381,
      "anges": 7382,
      "Ġ),": 7383,
      "Ġcorrelations": 7384,
      "----------------------------------------------------------------": 7385,
      "dict": 7386,
      "Ġbatch": 7387,
      "1990": 7388,
      "gni": 7389,
      "Ġfluid": 7390,
      "ĠNOT": 7391,
      "=\"../../../": 7392,
      "ĠLagrangian": 7393,
      "ĠOpen": 7394,
      "Rou": 7395,
      "propto": 7396,
      "urally": 7397,
      "Ġsci": 7398,
      "Direct": 7399,
      "Ġfeel": 7400,
      "Prop": 7401,
      "Ġecho": 7402,
      "Ġacts": 7403,
      "nes": 7404,
      "Ġraise": 7405,
      "subequations": 7406,
      "Ġdefines": 7407,
      "coin": 7408,
      "tright": 7409,
      "Ġrows": 7410,
      "utor": 7411,
      "Ġcaused": 7412,
      "Ġreveal": 7413,
      "Ġalloc": 7414,
      "ologies": 7415,
      "focus": 7416,
      ")&": 7417,
      "what": 7418,
      "sch": 7419,
      "atively": 7420,
      "Api": 7421,
      "Ġdirections": 7422,
      "'.": 7423,
      "El": 7424,
      "ĠassertEquals": 7425,
      "adoop": 7426,
      "ĠDate": 7427,
      "Ġexecution": 7428,
      "Ġbad": 7429,
      "Ġlies": 7430,
      "Ġproportional": 7431,
      "track": 7432,
      "ĠRi": 7433,
      "`,": 7434,
      "ĠWhat": 7435,
      "Ġmedium": 7436,
      "Ġabstract": 7437,
      "sti": 7438,
      "admin": 7439,
      "Ġadjac": 7440,
      "Ġdt": 7441,
      "ined": 7442,
      "otal": 7443,
      "Root": 7444,
      "ĠUse": 7445,
      "Ġregression": 7446,
      "hover": 7447,
      "}[!": 7448,
      "###": 7449,
      "Ġdefinitions": 7450,
      "Ġupdated": 7451,
      "hav": 7452,
      "TS": 7453,
      "Ġopport": 7454,
      "ĠIO": 7455,
      "Ġlimi": 7456,
      "Ġintermediate": 7457,
      "|-": 7458,
      "Ġmsg": 7459,
      "Ġdro": 7460,
      "aws": 7461,
      "ipeline": 7462,
      "}{{\\": 7463,
      "rg": 7464,
      "Ġstorage": 7465,
      "]]": 7466,
      "Ġsegment": 7467,
      "Ġabsorption": 7468,
      "Ġflag": 7469,
      "Ġspread": 7470,
      "Ġ~\\": 7471,
      "Track": 7472,
      "obs": 7473,
      "Ġpara": 7474,
      "Ġinline": 7475,
      ")_{\\": 7476,
      "Ġcontinuum": 7477,
      "ya": 7478,
      "\\}.": 7479,
      "Ġos": 7480,
      "oura": 7481,
      "leqslant": 7482,
      "tian": 7483,
      "writ": 7484,
      "Ġtrade": 7485,
      "fol": 7486,
      "Ġsubspace": 7487,
      "Ġdispersion": 7488,
      "Ġ<=": 7489,
      "ĠBase": 7490,
      "WS": 7491,
      "Ġlibrary": 7492,
      "Ġ\\{\\": 7493,
      "Ġhistor": 7494,
      "Ġdiscrimin": 7495,
      "Ġcos": 7496,
      "trinsic": 7497,
      "rench": 7498,
      "verb": 7499,
      "tivities": 7500,
      "romise": 7501,
      "Ġtown": 7502,
      "law": 7503,
      "Delete": 7504,
      "Ġprogress": 7505,
      "zy": 7506,
      "Ġhorizontal": 7507,
      "rong": 7508,
      "Ġunless": 7509,
      "Ġbehind": 7510,
      "ĠGeneral": 7511,
      "Enabled": 7512,
      "Ġjus": 7513,
      "Ġtrac": 7514,
      "Ġinteract": 7515,
      "DI": 7516,
      "Ġexpectation": 7517,
      "Ġcarried": 7518,
      "Ġfitting": 7519,
      "chemes": 7520,
      "ÃŃ": 7521,
      "bigcup": 7522,
      "Ġderivatives": 7523,
      "bre": 7524,
      "access": 7525,
      "zer": 7526,
      "tensor": 7527,
      "media": 7528,
      "ĠAmerica": 7529,
      "ederal": 7530,
      "tivistic": 7531,
      "ondon": 7532,
      "Ġvalidation": 7533,
      "Ġtele": 7534,
      "Ġfeedback": 7535,
      "Ġmodeling": 7536,
      "Mock": 7537,
      "Ġweighted": 7538,
      "lank": 7539,
      "DIR": 7540,
      "Ġmeas": 7541,
      "Only": 7542,
      "Ġdirectory": 7543,
      "ODO": 7544,
      "Byte": 7545,
      "Ġensemble": 7546,
      "ji": 7547,
      "nian": 7548,
      "Ġdevices": 7549,
      "RA": 7550,
      "pole": 7551,
      "Ġdiscover": 7552,
      ")))": 7553,
      "ĠPresident": 7554,
      "Ġspectro": 7555,
      "Ġpriv": 7556,
      "Ġsubsection": 7557,
      "Phys": 7558,
      "enses": 7559,
      "Ġseparation": 7560,
      "FS": 7561,
      "Ġbands": 7562,
      "ĠFoundation": 7563,
      ")}$.": 7564,
      "Ġever": 7565,
      "Ġglu": 7566,
      "StyleID": 7567,
      "Bigg": 7568,
      "ishing": 7569,
      "Ġplas": 7570,
      "going": 7571,
      "1994": 7572,
      "smallskip": 7573,
      "sen": 7574,
      "Ġtransverse": 7575,
      "Ġci": 7576,
      "vie": 7577,
      "rated": 7578,
      "erson": 7579,
      "covery": 7580,
      "ington": 7581,
      "some": 7582,
      "Ġuniversal": 7583,
      "ryp": 7584,
      "anguage": 7585,
      "Ġconduct": 7586,
      "Ġtemperatures": 7587,
      "Ġdecreases": 7588,
      "Ġpercent": 7589,
      "OK": 7590,
      "exception": 7591,
      "imin": 7592,
      "inline": 7593,
      "Assert": 7594,
      "missions": 7595,
      "ilitary": 7596,
      "ites": 7597,
      "cloud": 7598,
      "ĠIS": 7599,
      "iece": 7600,
      "istence": 7601,
      "ured": 7602,
      "ĠEast": 7603,
      "formance": 7604,
      "izable": 7605,
      "[$": 7606,
      "instein": 7607,
      "Ġirreducible": 7608,
      "'=": 7609,
      "ĠRequ": 7610,
      "Any": 7611,
      "Ġinference": 7612,
      "SSERT": 7613,
      "\\[\\": 7614,
      "Ġpatch": 7615,
      "000000": 7616,
      "connect": 7617,
      "Ġcomputer": 7618,
      "Ġmodules": 7619,
      "TRY": 7620,
      "vc": 7621,
      "Ġrestriction": 7622,
      "tributed": 7623,
      "tios": 7624,
      "Ġlowest": 7625,
      "NA": 7626,
      "icker": 7627,
      "ĠPark": 7628,
      "Ġmainly": 7629,
      "Ma": 7630,
      "Ġannoun": 7631,
      "Ġepoch": 7632,
      "wner": 7633,
      "\\}_{": 7634,
      "density": 7635,
      "kl": 7636,
      "ĠHouse": 7637,
      "Ġvalu": 7638,
      "tated": 7639,
      "trightarrow": 7640,
      "Ġfailure": 7641,
      "Ġrandomly": 7642,
      "Storage": 7643,
      "]=": 7644,
      "andard": 7645,
      "Ġsort": 7646,
      "have": 7647,
      "Proposition": 7648,
      "lam": 7649,
      "Queue": 7650,
      "WE": 7651,
      "Ġofficial": 7652,
      "VID": 7653,
      "Ġcoming": 7654,
      "Ġmanner": 7655,
      "nm": 7656,
      "ĠEquation": 7657,
      "Ġmanagement": 7658,
      "Ġtrajectory": 7659,
      "Ġthing": 7660,
      "Ġorbital": 7661,
      "Ġstrictly": 7662,
      "icons": 7663,
      "wrap": 7664,
      "Ġrepresenting": 7665,
      "Ġbur": 7666,
      "Ġmock": 7667,
      "anger": 7668,
      "AGE": 7669,
      "OL": 7670,
      "ĠDefinition": 7671,
      "ä¸": 7672,
      "Ġcomment": 7673,
      "Ġpseudo": 7674,
      "Ġsensitivity": 7675,
      "Sim": 7676,
      "ĠDr": 7677,
      "Ġsimulated": 7678,
      "Ġdecrease": 7679,
      "ffic": 7680,
      "Rule": 7681,
      "Ġworth": 7682,
      "Parent": 7683,
      "Ġmessages": 7684,
      "War": 7685,
      "Ġjson": 7686,
      "Ġlisted": 7687,
      "sys": 7688,
      "ATH": 7689,
      "Ġnothing": 7690,
      "complex": 7691,
      "Ġrequirements": 7692,
      "pgf": 7693,
      "ĠInternational": 7694,
      "licated": 7695,
      "formu": 7696,
      "Hom": 7697,
      "Ġtemporal": 7698,
      "Ġtravel": 7699,
      "pare": 7700,
      "}},\\": 7701,
      "sky": 7702,
      "precated": 7703,
      "-->": 7704,
      "padding": 7705,
      "ĠOver": 7706,
      "\"`": 7707,
      "matical": 7708,
      "ĠNetwork": 7709,
      "Ġinterpretation": 7710,
      "Ġ'/": 7711,
      "ius": 7712,
      "Obj": 7713,
      "ĠHow": 7714,
      "ĠGR": 7715,
      "ĠAm": 7716,
      "END": 7717,
      "enter": 7718,
      "conv": 7719,
      "ĠService": 7720,
      "ĠAir": 7721,
      "igible": 7722,
      "ĠSD": 7723,
      "aign": 7724,
      "cb": 7725,
      "Ġessential": 7726,
      "Ġreferences": 7727,
      "Ġsites": 7728,
      "ĠImp": 7729,
      "}{}": 7730,
      "Ġdiagrams": 7731,
      "tivated": 7732,
      "kern": 7733,
      "defn": 7734,
      "Ġprice": 7735,
      "uel": 7736,
      "lab": 7737,
      "fr": 7738,
      "Ġ{{": 7739,
      "Ġlearned": 7740,
      "Ġcop": 7741,
      "MF": 7742,
      "Ġadvers": 7743,
      "\"\"\"": 7744,
      "Ġvariations": 7745,
      "Ġcentury": 7746,
      "Ġassigned": 7747,
      "Ġsound": 7748,
      "lush": 7749,
      "ulty": 7750,
      "notations": 7751,
      "CI": 7752,
      "ensing": 7753,
      "spe": 7754,
      "ĠVir": 7755,
      "words": 7756,
      "ny": 7757,
      "period": 7758,
      "keyword": 7759,
      "Tests": 7760,
      "serve": 7761,
      "Ġkeys": 7762,
      "calc": 7763,
      "Ġbenchmark": 7764,
      "Rep": 7765,
      "tach": 7766,
      "Ġpersonal": 7767,
      "cle": 7768,
      "ĠHilbert": 7769,
      "Step": 7770,
      "hl": 7771,
      "Ġreached": 7772,
      "Ġmorphism": 7773,
      "textnormal": 7774,
      "NG": 7775,
      "legal": 7776,
      "sequent": 7777,
      "Ġcareer": 7778,
      "Ġinvest": 7779,
      "spects": 7780,
      "Ġdistances": 7781,
      "Ã¤": 7782,
      "ocused": 7783,
      "napshot": 7784,
      "Ġmonths": 7785,
      "Draw": 7786,
      "ached": 7787,
      "$}}": 7788,
      "Ġessentially": 7789,
      "Ġassess": 7790,
      "ifted": 7791,
      "Ġfamil": 7792,
      "Ġgiving": 7793,
      "Send": 7794,
      "|_{\\": 7795,
      "tile": 7796,
      "Ġarc": 7797,
      "Ġwent": 7798,
      "pdown": 7799,
      "Ġopposite": 7800,
      "vor": 7801,
      "connected": 7802,
      "fixed": 7803,
      "_{-\\": 7804,
      "Ġ(*": 7805,
      "Ġdra": 7806,
      "Ġfle": 7807,
      "ĠEuropean": 7808,
      "cpp": 7809,
      "Ġreferred": 7810,
      "180": 7811,
      "__(": 7812,
      "ĠJapan": 7813,
      "lating": 7814,
      "coordin": 7815,
      "ĠChina": 7816,
      "ocket": 7817,
      "ĠPublic": 7818,
      "Ġnews": 7819,
      "stal": 7820,
      "Ġregard": 7821,
      "})=\\": 7822,
      "gex": 7823,
      "indu": 7824,
      "intro": 7825,
      "footer": 7826,
      "Ġvisit": 7827,
      "ditionally": 7828,
      "hadoop": 7829,
      "thread": 7830,
      "dependency": 7831,
      "Ġtools": 7832,
      "tz": 7833,
      "ITY": 7834,
      "Ġca": 7835,
      "^+$": 7836,
      "impl": 7837,
      "Descriptor": 7838,
      "Ġlikelihood": 7839,
      "Ġtruth": 7840,
      "dp": 7841,
      "mitive": 7842,
      "Ġextracted": 7843,
      "Ġchanging": 7844,
      "irm": 7845,
      "1993": 7846,
      "Ġtang": 7847,
      "Rev": 7848,
      "Ġconverges": 7849,
      "ycoord": 7850,
      "Ġcontroller": 7851,
      "wt": 7852,
      "Ġbutton": 7853,
      "Ġpredict": 7854,
      "ĠCur": 7855,
      "Ġaccretion": 7856,
      "generate": 7857,
      "stantial": 7858,
      "Ġcharged": 7859,
      "prov": 7860,
      "gray": 7861,
      "symmetric": 7862,
      "^*_": 7863,
      "Ġenable": 7864,
      "Ġprobably": 7865,
      "newline": 7866,
      "ĠSimilarly": 7867,
      "ĠURL": 7868,
      "rest": 7869,
      "Ġ\\}": 7870,
      "Ġthemselves": 7871,
      "{.": 7872,
      "Ġdifferenti": 7873,
      ")}$,": 7874,
      "ApJ": 7875,
      "icies": 7876,
      "ĠSecond": 7877,
      "Ġreceive": 7878,
      "Custom": 7879,
      "bx": 7880,
      "Rect": 7881,
      "taining": 7882,
      "fony": 7883,
      "FAULT": 7884,
      "triangle": 7885,
      "bd": 7886,
      "Load": 7887,
      "yr": 7888,
      "ades": 7889,
      "ĠAL": 7890,
      "Ġcodes": 7891,
      "ĠDepartment": 7892,
      "}{*}{": 7893,
      "Ġprecise": 7894,
      "NT": 7895,
      "Ġrig": 7896,
      "Ġcref": 7897,
      "Ġadopted": 7898,
      "trim": 7899,
      "XT": 7900,
      "ĠHol": 7901,
      "unsigned": 7902,
      "valued": 7903,
      "Ġprograms": 7904,
      "Ġautomatically": 7905,
      "ĠIP": 7906,
      "Ġaggreg": 7907,
      "ĠHo": 7908,
      "vdots": 7909,
      "cknowled": 7910,
      "power": 7911,
      "ĠIm": 7912,
      "Ġhours": 7913,
      "Ġuniqu": 7914,
      "Ġcarry": 7915,
      "ĠLaw": 7916,
      "ria": 7917,
      "family": 7918,
      "ĠHTML": 7919,
      "Ġbirth": 7920,
      "Ġtraditional": 7921,
      "orizontal": 7922,
      "MI": 7923,
      "Ġprincipal": 7924,
      "lef": 7925,
      "Ġordered": 7926,
      "Ġgran": 7927,
      "cknowledge": 7928,
      "tating": 7929,
      "Timeout": 7930,
      "Ġlooking": 7931,
      "Ġfamilies": 7932,
      "polation": 7933,
      "ĠWilli": 7934,
      "Ġprobabilities": 7935,
      "ĠTech": 7936,
      "imed": 7937,
      "Ġdomains": 7938,
      "\\|^": 7939,
      "Ġmolecular": 7940,
      "Ġschemes": 7941,
      "Ġturb": 7942,
      "ĠCourt": 7943,
      "ĉčĊ": 7944,
      "Ġatmos": 7945,
      "Ġeigenvalue": 7946,
      "urable": 7947,
      "125": 7948,
      "Ġ\"/": 7949,
      "Ġelem": 7950,
      "FILE": 7951,
      "widget": 7952,
      "Ġcomplement": 7953,
      "lik": 7954,
      "ivil": 7955,
      "Ġsignature": 7956,
      "ĠÃ": 7957,
      "_{[": 7958,
      "unic": 7959,
      "ĠBecause": 7960,
      "nov": 7961,
      "Ġda": 7962,
      "ressive": 7963,
      "ECT": 7964,
      "icted": 7965,
      "ĠĠĠĠĠĠĠĠĠĠĠĠĠĠĠĠĠĠĠĠĠĠĠĠĠĠ": 7966,
      "ĠFin": 7967,
      "dian": 7968,
      "omorphisms": 7969,
      "ynamics": 7970,
      "ĠCR": 7971,
      "Ġconclusion": 7972,
      "Ġintegrated": 7973,
      "Ġsil": 7974,
      "Ġcountries": 7975,
      "Some": 7976,
      "matics": 7977,
      "Ġsensitive": 7978,
      "Ġsimilarly": 7979,
      "PAR": 7980,
      "tip": 7981,
      "JSON": 7982,
      "keys": 7983,
      "Ġbenef": 7984,
      "ecution": 7985,
      "Ġfinancial": 7986,
      "Ġturns": 7987,
      "ĠEvent": 7988,
      "Ġrestricted": 7989,
      "quo": 7990,
      "Ġstrategies": 7991,
      "ĠRemark": 7992,
      "Ġconditional": 7993,
      "Ġleave": 7994,
      "Fin": 7995,
      "Ġmatches": 7996,
      "Recall": 7997,
      "Bin": 7998,
      "yes": 7999,
      "Ġtechnology": 8000,
      "tems": 8001,
      "cussion": 8002,
      "Ġani": 8003,
      "Display": 8004,
      "erial": 8005,
      "attribute": 8006,
      "Ġimprovement": 8007,
      "Ġphotons": 8008,
      "What": 8009,
      "Ġatomic": 8010,
      "Ġwind": 8011,
      "Fa": 8012,
      "Lock": 8013,
      "ctic": 8014,
      "tick": 8015,
      "callback": 8016,
      "=\"/": 8017,
      "igration": 8018,
      "ĠUser": 8019,
      "uclide": 8020,
      "Ġord": 8021,
      "Ġwalk": 8022,
      "ĠLondon": 8023,
      "Ġalgebras": 8024,
      "raise": 8025,
      "ĠVal": 8026,
      "estern": 8027,
      "Ġsurfaces": 8028,
      "Ġjump": 8029,
      "dete": 8030,
      "'$.": 8031,
      "fg": 8032,
      "Ġcompatible": 8033,
      "ye": 8034,
      "oks": 8035,
      "Ġstrings": 8036,
      "ĠEqs": 8037,
      "Ġseem": 8038,
      "Ġorientation": 8039,
      "|_": 8040,
      "Ġresid": 8041,
      "Ġart": 8042,
      "owers": 8043,
      "Ġlost": 8044,
      "Plugin": 8045,
      "tigated": 8046,
      "ĠOper": 8047,
      "Ġsystematic": 8048,
      "assertEqual": 8049,
      "fined": 8050,
      "BP": 8051,
      "uclidean": 8052,
      "cmd": 8053,
      "ĠĠĠĠĠĠĠĠĠĠĠĠĠĠĠĠĠĠĠĠĠĠĠĠĠĠĠĠĠ": 8054,
      "Ġbring": 8055,
      "annotation": 8056,
      "Ġcy": 8057,
      "TT": 8058,
      "Ġanalyze": 8059,
      "anks": 8060,
      "Ġlocations": 8061,
      "separ": 8062,
      "ĠWil": 8063,
      "1992": 8064,
      "arse": 8065,
      "KEY": 8066,
      "determin": 8067,
      "cross": 8068,
      "bas": 8069,
      "Ġshell": 8070,
      "Ġsynchron": 8071,
      "typedef": 8072,
      "Ġepis": 8073,
      "Ġmajority": 8074,
      "ĠBel": 8075,
      "txt": 8076,
      "even": 8077,
      "Ġindicated": 8078,
      "Rightarrow": 8079,
      "Ġhit": 8080,
      "Ġvarying": 8081,
      "overset": 8082,
      "Ġcalls": 8083,
      "}\"": 8084,
      "Active": 8085,
      "Ġsimplicity": 8086,
      "toggle": 8087,
      "Dialog": 8088,
      "Ġhorizon": 8089,
      "mask": 8090,
      "Changed": 8091,
      "Ġimply": 8092,
      "Ġvor": 8093,
      "Ġtransformations": 8094,
      "Ġserial": 8095,
      "selected": 8096,
      "iforn": 8097,
      "ĠCollege": 8098,
      "arded": 8099,
      "rat": 8100,
      "Ġparty": 8101,
      "Ġmut": 8102,
      "Symbol": 8103,
      "moment": 8104,
      "Ġapplicable": 8105,
      "yal": 8106,
      "coq": 8107,
      "herit": 8108,
      "Ġ(.": 8109,
      "Ġreasons": 8110,
      "Ġsaf": 8111,
      "Two": 8112,
      "ifornia": 8113,
      "Ġsat": 8114,
      "notin": 8115,
      "ĠAR": 8116,
      "ros": 8117,
      "Ġmarked": 8118,
      "Matrix": 8119,
      "ĠBoth": 8120,
      "world": 8121,
      "Ġmodern": 8122,
      "ĠNor": 8123,
      "ĠGoogle": 8124,
      "Ġcosmological": 8125,
      "Ġratios": 8126,
      "Package": 8127,
      "resize": 8128,
      "Other": 8129,
      "Iterator": 8130,
      "Ġpointer": 8131,
      "_->": 8132,
      "(!": 8133,
      "////////////////////////////////": 8134,
      "ville": 8135,
      "Ġcard": 8136,
      "Ġdirected": 8137,
      "Ġgeneralization": 8138,
      "Ġexplore": 8139,
      "Ġposterior": 8140,
      "Ġpoor": 8141,
      "citealt": 8142,
      "DT": 8143,
      "Ġgeodes": 8144,
      "Character": 8145,
      "cv": 8146,
      "andra": 8147,
      "ief": 8148,
      "Ġduration": 8149,
      "Ġmaterials": 8150,
      "profile": 8151,
      "quark": 8152,
      "ĠInstitute": 8153,
      "flat": 8154,
      "ias": 8155,
      "Security": 8156,
      "UP": 8157,
      "Ġinser": 8158,
      "Ġcompleted": 8159,
      "ĠEl": 8160,
      "Ġdivis": 8161,
      "Ġemployed": 8162,
      "Ġisomorphic": 8163,
      "ĠFROM": 8164,
      "Ġhandler": 8165,
      "Ġsimilarity": 8166,
      "Ġbits": 8167,
      "Ġiterations": 8168,
      "Ġdominant": 8169,
      "Ġdb": 8170,
      "Ġconfidence": 8171,
      "ĠGod": 8172,
      "GG": 8173,
      "Ġunitary": 8174,
      "Ġdidn": 8175,
      "\\,{\\": 8176,
      "Ġscience": 8177,
      "lections": 8178,
      "scriptscript": 8179,
      "Ġresonance": 8180,
      "Ġcollect": 8181,
      "finity": 8182,
      "Ġalt": 8183,
      "pay": 8184,
      "ike": 8185,
      "ACE": 8186,
      "counter": 8187,
      "Ġindustry": 8188,
      "lands": 8189,
      "Ġinstanceof": 8190,
      "|=": 8191,
      "scriptscriptstyle": 8192,
      "FL": 8193,
      "Ġsolved": 8194,
      "desc": 8195,
      "kens": 8196,
      "ĠUnder": 8197,
      "Ġinternational": 8198,
      "AE": 8199,
      "Ġfermion": 8200,
      "}~\\": 8201,
      "->_": 8202,
      "pu": 8203,
      "tmp": 8204,
      "Ġcandidates": 8205,
      "Ġraw": 8206,
      "Ġsubstantial": 8207,
      "imer": 8208,
      "Ġpy": 8209,
      "Ġsphere": 8210,
      "Ġinvolving": 8211,
      "Ġlogarith": 8212,
      "Ġintegers": 8213,
      "ander": 8214,
      "Ġamplitudes": 8215,
      "Ġlove": 8216,
      ";\\;": 8217,
      "Ġcontradiction": 8218,
      "correspon": 8219,
      "Ġoffic": 8220,
      "Ġfunc": 8221,
      "250": 8222,
      "Ġhtml": 8223,
      "surface": 8224,
      "Register": 8225,
      "Msg": 8226,
      "Ġcourt": 8227,
      "Ġreasonable": 8228,
      "ĠGovern": 8229,
      "allest": 8230,
      "}})$": 8231,
      "~~~~~~~~": 8232,
      "Ġinstruction": 8233,
      "Ġcharacteristics": 8234,
      "Ġconnections": 8235,
      "loyment": 8236,
      "Ġtend": 8237,
      "Ġestimator": 8238,
      "ael": 8239,
      "Ġprevent": 8240,
      "ĠCode": 8241,
      "\\/": 8242,
      "Post": 8243,
      "ita": 8244,
      "tribut": 8245,
      "Plan": 8246,
      "Ġchiral": 8247,
      "ensus": 8248,
      "ĠUV": 8249,
      "MAX": 8250,
      ";/": 8251,
      "important": 8252,
      "fd": 8253,
      "illing": 8254,
      "UID": 8255,
      "Ġstarts": 8256,
      "nolimits": 8257,
      "Ġpiece": 8258,
      "tight": 8259,
      "Ġsuggested": 8260,
      "blockList": 8261,
      "_,": 8262,
      "Furthermore": 8263,
      "ĠBlack": 8264,
      "Ġtrees": 8265,
      "Ġtrajectories": 8266,
      "entication": 8267,
      "Ġneutron": 8268,
      "Ġconformal": 8269,
      "gal": 8270,
      "Ġallowing": 8271,
      "Ñı": 8272,
      "Ġframes": 8273,
      "Ġseven": 8274,
      "Ġpractical": 8275,
      "below": 8276,
      "requency": 8277,
      "Ġap": 8278,
      "Ġchoices": 8279,
      "titions": 8280,
      "ystems": 8281,
      "Ġinduction": 8282,
      "Ġrequests": 8283,
      "Click": 8284,
      "Ġcred": 8285,
      "Ġcovariance": 8286,
      "ders": 8287,
      "typeof": 8288,
      "Ġhot": 8289,
      "cen": 8290,
      "Ġempirical": 8291,
      "ĠOf": 8292,
      "plugins": 8293,
      "ĠHer": 8294,
      "\",\"": 8295,
      "Ġconsisting": 8296,
      "Member": 8297,
      "TER": 8298,
      "dashed": 8299,
      "Init": 8300,
      "Ġhope": 8301,
      "Ġorbits": 8302,
      "material": 8303,
      ".*": 8304,
      "master": 8305,
      "reek": 8306,
      "learning": 8307,
      "Gu": 8308,
      "stood": 8309,
      "hard": 8310,
      "assertEquals": 8311,
      "ÐµÐ": 8312,
      "Ġmoney": 8313,
      "tesian": 8314,
      "à¤": 8315,
      "Ġbl": 8316,
      "Ġkinetic": 8317,
      "sat": 8318,
      "constant": 8319,
      ".}\\": 8320,
      "lyph": 8321,
      "Ġattempt": 8322,
      "email": 8323,
      "Ġasser": 8324,
      "uses": 8325,
      "Ġpropos": 8326,
      "Ġentanglement": 8327,
      "Job": 8328,
      "CN": 8329,
      "\\,,": 8330,
      "Conf": 8331,
      "Ġeventually": 8332,
      "\\!\\!\\!": 8333,
      "rome": 8334,
      "Grid": 8335,
      "Ġmostly": 8336,
      "ĠCouncil": 8337,
      "ENTRY": 8338,
      "Rad": 8339,
      "Proxy": 8340,
      "Ġcub": 8341,
      "Ġinclusion": 8342,
      "Ġsymbols": 8343,
      "}<": 8344,
      "Ġplaced": 8345,
      "NotNull": 8346,
      "aved": 8347,
      "}}=\\": 8348,
      "rey": 8349,
      "components": 8350,
      "ĠVAL": 8351,
      "Ġclustering": 8352,
      "Second": 8353,
      "Ġcontrols": 8354,
      "Ġcrucial": 8355,
      "cape": 8356,
      "Ġsparse": 8357,
      "quid": 8358,
      "................": 8359,
      "weak": 8360,
      "Ġworked": 8361,
      "names": 8362,
      "Ġinvestigated": 8363,
      "Adap": 8364,
      "Ġdefining": 8365,
      "addr": 8366,
      "ĠBer": 8367,
      "ĠNode": 8368,
      "Icon": 8369,
      "Internal": 8370,
      "GP": 8371,
      "mathbbm": 8372,
      "events": 8373,
      "Ġfunctor": 8374,
      "Ġintervals": 8375,
      "Ġstudent": 8376,
      "ĠCopy": 8377,
      "ĠKey": 8378,
      "Ġfits": 8379,
      ")|\\": 8380,
      "@\"": 8381,
      "haps": 8382,
      "SIZE": 8383,
      "eds": 8384,
      "tel": 8385,
      "Ġapparent": 8386,
      "ĠUK": 8387,
      "olver": 8388,
      "Ġprim": 8389,
      "Ġproton": 8390,
      "Scope": 8391,
      "Ġaffected": 8392,
      "ĠTR": 8393,
      "triang": 8394,
      "orary": 8395,
      "\\-": 8396,
      "Ġstationary": 8397,
      "queue": 8398,
      "fully": 8399,
      "transition": 8400,
      "Ġconjecture": 8401,
      "Ġgradu": 8402,
      "atal": 8403,
      "Ġserved": 8404,
      "Ġplatform": 8405,
      "$/": 8406,
      "lective": 8407,
      "ĠAGN": 8408,
      "=-\\": 8409,
      "Ġperforming": 8410,
      "Ġcompanies": 8411,
      "Ġmind": 8412,
      "101": 8413,
      "Ġqueue": 8414,
      "Ġlie": 8415,
      "Ġspherical": 8416,
      "Ho": 8417,
      "Ġaug": 8418,
      "inear": 8419,
      "Ġpixels": 8420,
      "ampion": 8421,
      "ĠArm": 8422,
      ")=(": 8423,
      "ĠFermi": 8424,
      "ida": 8425,
      "Ġsometimes": 8426,
      "stop": 8427,
      "Float": 8428,
      "Memory": 8429,
      "QQ": 8430,
      "Ġdistinguish": 8431,
      "Ġinvalid": 8432,
      "oom": 8433,
      "3333": 8434,
      "Ġoutputs": 8435,
      "poly": 8436,
      "Func": 8437,
      "bolic": 8438,
      "spring": 8439,
      "seq": 8440,
      "Ġmaster": 8441,
      "urs": 8442,
      "Ġfaster": 8443,
      "iso": 8444,
      "Ġbelongs": 8445,
      "inos": 8446,
      ",~": 8447,
      "Ġcouplings": 8448,
      "tools": 8449,
      "subfloat": 8450,
      "Ljava": 8451,
      "')$": 8452,
      "Ġcollabor": 8453,
      "ĠInitial": 8454,
      "attle": 8455,
      "Ġparen": 8456,
      "titude": 8457,
      "WA": 8458,
      "Ġresponsible": 8459,
      "agnos": 8460,
      "Ġnarrow": 8461,
      "ĠSa": 8462,
      "deep": 8463,
      "Ġaffine": 8464,
      "graphy": 8465,
      "IE": 8466,
      "Ġreading": 8467,
      "Show": 8468,
      "lm": 8469,
      "Ġtopic": 8470,
      "Ġquar": 8471,
      "ester": 8472,
      "ĠSur": 8473,
      "Ġtypename": 8474,
      "Ġabsence": 8475,
      "Ġ$\\|": 8476,
      "Ġillustrated": 8477,
      "analy": 8478,
      "kov": 8479,
      "Ġtechnical": 8480,
      ")\">": 8481,
      "Items": 8482,
      "ĠNO": 8483,
      "asible": 8484,
      "Ġinfra": 8485,
      "ĠFalse": 8486,
      "ARY": 8487,
      "Ġmoved": 8488,
      "dal": 8489,
      "Ġdemonstrated": 8490,
      "[:": 8491,
      "ament": 8492,
      "Ġaccomp": 8493,
      "BO": 8494,
      "Ġcoverage": 8495,
      "Ġfire": 8496,
      "()).": 8497,
      "ĠCanada": 8498,
      "symbol": 8499,
      "Ġcomments": 8500,
      "gi": 8501,
      "Ġrenormal": 8502,
      "Ġexplor": 8503,
      "ibrary": 8504,
      "atell": 8505,
      "Ġrepeated": 8506,
      "Ġimplicit": 8507,
      "Ġcatalog": 8508,
      "Ġ&$": 8509,
      "Ġ[];": 8510,
      "()));": 8511,
      "Cap": 8512,
      "Ġenhance": 8513,
      "substack": 8514,
      "lfloor": 8515,
      "Ġprofession": 8516,
      "trib": 8517,
      "Ġlabeled": 8518,
      "Ġroom": 8519,
      ",.": 8520,
      "zen": 8521,
      "contains": 8522,
      "Ġscript": 8523,
      "insert": 8524,
      "Bigl": 8525,
      "Ġpanels": 8526,
      "ĠTHE": 8527,
      "Am": 8528,
      "isting": 8529,
      "'}\\": 8530,
      "Ġscene": 8531,
      "ĠPoisson": 8532,
      "tb": 8533,
      "arm": 8534,
      "Ġfootball": 8535,
      "bytes": 8536,
      "Ġjavax": 8537,
      "(){": 8538,
      "ĠCalifornia": 8539,
      "Ġeffectively": 8540,
      "Ġprefix": 8541,
      "save": 8542,
      "vertex": 8543,
      "arial": 8544,
      "switch": 8545,
      "HR": 8546,
      "oul": 8547,
      "Ġcollected": 8548,
      "Ġatom": 8549,
      "Selector": 8550,
      "Ġversus": 8551,
      "ullable": 8552,
      "depth": 8553,
      "hed": 8554,
      "configuration": 8555,
      "Ġwatch": 8556,
      "scroll": 8557,
      "Fi": 8558,
      "Ġconjug": 8559,
      "fc": 8560,
      "rfloor": 8561,
      "FIG": 8562,
      "III": 8563,
      "Ġpossibly": 8564,
      "problem": 8565,
      "Ġimplements": 8566,
      "jk": 8567,
      "esian": 8568,
      "Ġinstal": 8569,
      "Ġpropagation": 8570,
      "Ġdele": 8571,
      "bounded": 8572,
      "rb": 8573,
      "Ġplotted": 8574,
      "changed": 8575,
      "Enum": 8576,
      "password": 8577,
      "hyper": 8578,
      "home": 8579,
      "argument": 8580,
      "Ġapplies": 8581,
      "Ġhon": 8582,
      "Ġmoments": 8583,
      "Av": 8584,
      "&$": 8585,
      "metric": 8586,
      "Ġcamera": 8587,
      "lare": 8588,
      "ĠStr": 8589,
      "Ġturbul": 8590,
      "Flags": 8591,
      "ĠAuth": 8592,
      "Bit": 8593,
      "Ġsuccessfully": 8594,
      "áĥ": 8595,
      "Ġsubsequent": 8596,
      "'$,": 8597,
      "Transaction": 8598,
      "ĠQCD": 8599,
      "tized": 8600,
      "Ġeconomic": 8601,
      "}_{{\\": 8602,
      "factor": 8603,
      "Part": 8604,
      "ĠTask": 8605,
      "Ġdemand": 8606,
      "approxi": 8607,
      "ĠPal": 8608,
      "Although": 8609,
      "Ġdecreasing": 8610,
      "Logger": 8611,
      "ette": 8612,
      "Ġbary": 8613,
      "erry": 8614,
      "above": 8615,
      "inction": 8616,
      "mathds": 8617,
      "Ġsubsets": 8618,
      "Ġversions": 8619,
      "uages": 8620,
      "Ġdominated": 8621,
      "CG": 8622,
      "hu": 8623,
      "Ġdu": 8624,
      "here": 8625,
      "Ġpurposes": 8626,
      "Ġregarding": 8627,
      "Protocol": 8628,
      "Ġembedded": 8629,
      "Ġindividuals": 8630,
      "Ġpull": 8631,
      "fail": 8632,
      "Ġmesh": 8633,
      ")));": 8634,
      "ĠAN": 8635,
      "Ġpromo": 8636,
      "Ġthin": 8637,
      "AF": 8638,
      "{%": 8639,
      "amond": 8640,
      "Ġcomparing": 8641,
      "aven": 8642,
      "Ġdesc": 8643,
      "Ġbreaking": 8644,
      "rift": 8645,
      "vin": 8646,
      "help": 8647,
      "ĠSm": 8648,
      "SY": 8649,
      "}\\;": 8650,
      "Ġbuilder": 8651,
      "Ġgate": 8652,
      "Ġcreating": 8653,
      "VERSION": 8654,
      "specific": 8655,
      "\")]": 8656,
      "lug": 8657,
      "Mu": 8658,
      "Ġneutral": 8659,
      "also": 8660,
      "}))": 8661,
      "forming": 8662,
      "protocol": 8663,
      "mutable": 8664,
      "ara": 8665,
      "Ġenabled": 8666,
      "Ġreaction": 8667,
      "Pattern": 8668,
      "Pool": 8669,
      "Ġsave": 8670,
      "Ġanisot": 8671,
      "Ġnaturally": 8672,
      "Ġcriteria": 8673,
      "eg": 8674,
      "arest": 8675,
      "ĠLy": 8676,
      "ima": 8677,
      "Ġsy": 8678,
      "Upsilon": 8679,
      "oped": 8680,
      "decomp": 8681,
      "Ġsurroun": 8682,
      "Ġcharacterized": 8683,
      "Ġĉ": 8684,
      "bootstrap": 8685,
      "Ġcosts": 8686,
      "ĠTwo": 8687,
      "}&\\": 8688,
      "bad": 8689,
      "Ġnight": 8690,
      "Cs": 8691,
      "apply": 8692,
      "Ġsimultaneously": 8693,
      "ĠCNN": 8694,
      "dients": 8695,
      "tract": 8696,
      "Ġrespective": 8697,
      "Ġchalleng": 8698,
      "plus": 8699,
      "Ġarti": 8700,
      "ĠDem": 8701,
      "Comparison": 8702,
      "Global": 8703,
      "Ġtold": 8704,
      "okie": 8705,
      "Ġhappens": 8706,
      "orge": 8707,
      "ĠSen": 8708,
      "anted": 8709,
      "spaces": 8710,
      "wood": 8711,
      "Bigr": 8712,
      "Ġparametr": 8713,
      "Ġperturbations": 8714,
      "Ġjud": 8715,
      "Ġslope": 8716,
      "Ġgenerators": 8717,
      "ĠSim": 8718,
      "Ġdecays": 8719,
      "ĠFrench": 8720,
      "1980": 8721,
      "UV": 8722,
      "ĠDirac": 8723,
      "ĠText": 8724,
      "Ġfib": 8725,
      "BM": 8726,
      "XML": 8727,
      "volume": 8728,
      "1991": 8729,
      "rupt": 8730,
      "Ġ{{\\": 8731,
      "Ġsurpr": 8732,
      "Ġdir": 8733,
      "Ġwidely": 8734,
      "tients": 8735,
      "HD": 8736,
      "AAAA": 8737,
      "rase": 8738,
      "Ġchallenge": 8739,
      "trace": 8740,
      "security": 8741,
      "ĠĠĠĠĠĠĠĠĠĠĠĠĠĠĠĠĠĠĠĠĠĠĠĠĠĠĠĠ": 8742,
      "Ġhighlight": 8743,
      "Ġcontribute": 8744,
      "Ġsky": 8745,
      "TABLE": 8746,
      "Ġsupercon": 8747,
      "Ġtrip": 8748,
      "ultra": 8749,
      "Space": 8750,
      "Ġbalance": 8751,
      "lr": 8752,
      "Ġsoon": 8753,
      "Ġsex": 8754,
      "Elements": 8755,
      "ĠProgram": 8756,
      "Ġsentence": 8757,
      "liance": 8758,
      "ĠHall": 8759,
      "ĠCap": 8760,
      "Ġproposition": 8761,
      "ĠAssume": 8762,
      "ashington": 8763,
      "ĠMulti": 8764,
      ".},": 8765,
      "gate": 8766,
      "UL": 8767,
      "Ġcomparable": 8768,
      "Ġliving": 8769,
      "physical": 8770,
      "Ġcreation": 8771,
      "Ġstored": 8772,
      "ccc": 8773,
      "ilt": 8774,
      "Ġplus": 8775,
      "Ġdisjoint": 8776,
      "$_{\\": 8777,
      "phy": 8778,
      "Americ": 8779,
      "ĠSN": 8780,
      "edit": 8781,
      ")}_{\\": 8782,
      "manager": 8783,
      "Ġseconds": 8784,
      "_(": 8785,
      "Ġroute": 8786,
      "Ġnormalization": 8787,
      "Ġseparated": 8788,
      "Ġsides": 8789,
      "experim": 8790,
      "Widget": 8791,
      "Ġgrant": 8792,
      "Ġinitially": 8793,
      "Java": 8794,
      "Ġreads": 8795,
      "Ġweakly": 8796,
      "unt": 8797,
      "Aut": 8798,
      "Ġuniverse": 8799,
      "Ġadjacent": 8800,
      "idx": 8801,
      "Ġfilms": 8802,
      "grade": 8803,
      "ocities": 8804,
      "Star": 8805,
      "iders": 8806,
      "Ġproduces": 8807,
      "tably": 8808,
      "TED": 8809,
      "Tool": 8810,
      "hd": 8811,
      "Ġmedian": 8812,
      "OF": 8813,
      "ĠLore": 8814,
      "Assume": 8815,
      "engine": 8816,
      "utf": 8817,
      "Events": 8818,
      "GM": 8819,
      "atural": 8820,
      "augh": 8821,
      "ĠNumber": 8822,
      "ĠImage": 8823,
      "Ġstabil": 8824,
      "upper": 8825,
      "Ġio": 8826,
      "Activity": 8827,
      "Ġdise": 8828,
      "Ġtreated": 8829,
      "Ġsmallest": 8830,
      "cepts": 8831,
      "tificate": 8832,
      "Ġspecify": 8833,
      "600": 8834,
      "ĠHel": 8835,
      "theory": 8836,
      ".__": 8837,
      "ilo": 8838,
      "Ġnorth": 8839,
      "hidden": 8840,
      "elastic": 8841,
      "rote": 8842,
      "imit": 8843,
      "distribution": 8844,
      "Ġaspects": 8845,
      "dens": 8846,
      "ĠChurch": 8847,
      "Ġ\"\"": 8848,
      "iton": 8849,
      "Ġattacks": 8850,
      "IA": 8851,
      "Ġroughly": 8852,
      "ĠMor": 8853,
      "liography": 8854,
      "Ġrecorded": 8855,
      "throws": 8856,
      "Ġgetting": 8857,
      "avity": 8858,
      "ĠDen": 8859,
      "ĠJo": 8860,
      "Edit": 8861,
      "Ġcriterion": 8862,
      "ĠĠĠĠĠĠĠĠĠĠĠĠĠĠĠĠĠĠĠĠĠĠĠĠĠĠĠĠĠĠĠĠĠĠĠĠĠĠĠĠĠĠĠ": 8863,
      "datab": 8864,
      "entific": 8865,
      "Bbb": 8866,
      "irror": 8867,
      ")}=": 8868,
      "Ġharmonic": 8869,
      "generated": 8870,
      "will": 8871,
      "Ġplugin": 8872,
      "Ġ$[\\": 8873,
      "Rece": 8874,
      "ĠCase": 8875,
      "Ġindicating": 8876,
      "Ġangles": 8877,
      "look": 8878,
      "Ġwebsite": 8879,
      "Depend": 8880,
      "HERE": 8881,
      "})_{": 8882,
      "Ġunderstood": 8883,
      "setup": 8884,
      "Ġtriang": 8885,
      "Summary": 8886,
      "ĠRepublic": 8887,
      "Ġprop": 8888,
      "cribe": 8889,
      "Ġrecords": 8890,
      "Close": 8891,
      "Ġsemantic": 8892,
      "Ġequals": 8893,
      "Ġtal": 8894,
      "controller": 8895,
      "Attributes": 8896,
      "Directory": 8897,
      "]:": 8898,
      "Ġrequirement": 8899,
      "Under": 8900,
      "Ġlegal": 8901,
      "&-": 8902,
      "Ġvanishes": 8903,
      "Ġ}{\\": 8904,
      "Ġidx": 8905,
      "Ġidentification": 8906,
      "Ġscores": 8907,
      "Ġprojects": 8908,
      "vskip": 8909,
      "oses": 8910,
      "domin": 8911,
      "\">&": 8912,
      "fl": 8913,
      "Ġtested": 8914,
      "arge": 8915,
      "sharp": 8916,
      "tail": 8917,
      "gnition": 8918,
      "ective": 8919,
      "Ġimagin": 8920,
      "Ġwallet": 8921,
      "ultural": 8922,
      "ĠHealth": 8923,
      "Scal": 8924,
      "Ġcapital": 8925,
      "*\\": 8926,
      "Runtime": 8927,
      "Ġscan": 8928,
      "correct": 8929,
      "}.\\": 8930,
      "Ġfol": 8931,
      "usted": 8932,
      "install": 8933,
      "TA": 8934,
      "Ġsplitting": 8935,
      "Ġleaders": 8936,
      "Ġmilitary": 8937,
      "Ġstronger": 8938,
      "pmb": 8939,
      "clusions": 8940,
      "Single": 8941,
      "iet": 8942,
      "autoref": 8943,
      "lined": 8944,
      "series": 8945,
      "ilation": 8946,
      "primary": 8947,
      "Ġtab": 8948,
      "ĠSI": 8949,
      "Ġattr": 8950,
      "Ġcollisions": 8951,
      "igner": 8952,
      "Named": 8953,
      "dynamic": 8954,
      "ipped": 8955,
      "High": 8956,
      "dialog": 8957,
      "Ġquickly": 8958,
      "ĠPhys": 8959,
      "ĠDavid": 8960,
      "ĠDefault": 8961,
      "ĠStar": 8962,
      ")\"": 8963,
      "Ã¼": 8964,
      "Full": 8965,
      "Ġresidual": 8966,
      "JECT": 8967,
      "Ġeditor": 8968,
      "++;": 8969,
      "Ġago": 8970,
      "tests": 8971,
      "\\|_{\\": 8972,
      "STAT": 8973,
      "Ġnative": 8974,
      "Ġsegmentation": 8975,
      "Ġacting": 8976,
      "Ġwhenever": 8977,
      "Ġcast": 8978,
      "gacy": 8979,
      "Fail": 8980,
      ")|^": 8981,
      "nil": 8982,
      "boost": 8983,
      "lood": 8984,
      "ĠMarkov": 8985,
      "ued": 8986,
      "apes": 8987,
      "ĠTran": 8988,
      "ĠSuper": 8989,
      "Ġboundaries": 8990,
      "Ġexceed": 8991,
      "lg": 8992,
      "between": 8993,
      "iterator": 8994,
      "Ġfriend": 8995,
      "ston": 8996,
      "======": 8997,
      "ĠVersion": 8998,
      "LI": 8999,
      "ĠAny": 9000,
      "EV": 9001,
      "ja": 9002,
      "np": 9003,
      "velopment": 9004,
      "Ġtouch": 9005,
      "Ġnonzero": 9006,
      "Panel": 9007,
      "Ġtraffic": 9008,
      "rency": 9009,
      "coun": 9010,
      "Dep": 9011,
      "retch": 9012,
      "Ġinvolves": 9013,
      "Ġpresents": 9014,
      "rations": 9015,
      "Ani": 9016,
      "Ġspecifically": 9017,
      "ĠTODO": 9018,
      "Ġlatent": 9019,
      "Loc": 9020,
      "Ġfem": 9021,
      "Gen": 9022,
      "wik": 9023,
      "Ġ$$\\": 9024,
      "Ġmonitor": 9025,
      "ĠIndia": 9026,
      "Ġdivided": 9027,
      "Ġlaser": 9028,
      "Ġplots": 9029,
      "NavBarCell": 9030,
      "MOD": 9031,
      "trigger": 9032,
      "Ġignore": 9033,
      "illed": 9034,
      "Ġprojective": 9035,
      "Windows": 9036,
      "pattern": 9037,
      "compare": 9038,
      "Ġeast": 9039,
      "Ġpapers": 9040,
      "}}}{": 9041,
      "lers": 9042,
      "Ġideas": 9043,
      "printf": 9044,
      "href": 9045,
      "Transform": 9046,
      "Build": 9047,
      "Ġdeduce": 9048,
      "uled": 9049,
      "Ġexplanation": 9050,
      "Ġnegle": 9051,
      "Cluster": 9052,
      "Ġspacetime": 9053,
      "Ġcone": 9054,
      "Ġborn": 9055,
      "grad": 9056,
      "Ġflows": 9057,
      "storage": 9058,
      "Ġextent": 9059,
      "Ġsupports": 9060,
      "]^{": 9061,
      "Ġqueries": 9062,
      "LECT": 9063,
      "SV": 9064,
      "Ġ%}": 9065,
      "Ġadopt": 9066,
      "secu": 9067,
      "Ġconflic": 9068,
      "shell": 9069,
      "independent": 9070,
      "AX": 9071,
      "Ġgave": 9072,
      "ceptions": 9073,
      "Lin": 9074,
      "ĠCP": 9075,
      "screen": 9076,
      "rad": 9077,
      "Ġimm": 9078,
      "ĠBoolean": 9079,
      "renew": 9080,
      "Ġacces": 9081,
      "stats": 9082,
      "Media": 9083,
      "ango": 9084,
      "chitz": 9085,
      "Ġelectronic": 9086,
      "(.": 9087,
      "ĠInc": 9088,
      "ĠUpdate": 9089,
      "uby": 9090,
      "ĠNext": 9091,
      "Ġintrinsic": 9092,
      "ntz": 9093,
      "character": 9094,
      "Framework": 9095,
      "Ġpolicies": 9096,
      "identifier": 9097,
      "spa": 9098,
      "Ġfather": 9099,
      "stration": 9100,
      "Ġfood": 9101,
      "operation": 9102,
      "vention": 9103,
      "Ġplays": 9104,
      "esting": 9105,
      "incre": 9106,
      "leep": 9107,
      "aily": 9108,
      "homology": 9109,
      "Ġpulse": 9110,
      "bg": 9111,
      "Ġextremely": 9112,
      "sort": 9113,
      "ĠEarth": 9114,
      "Ġson": 9115,
      "sig": 9116,
      "ande": 9117,
      "gligible": 9118,
      ">$": 9119,
      "supervised": 9120,
      "'}$": 9121,
      "Ġng": 9122,
      "echo": 9123,
      "=(\\": 9124,
      "score": 9125,
      "Ġplasma": 9126,
      "Ġlinearly": 9127,
      "Profile": 9128,
      ".(\\": 9129,
      "Ġsigned": 9130,
      ".[": 9131,
      "Ġfinitely": 9132,
      "Ġsuffices": 9133,
      "Loader": 9134,
      "\\\\\\\\": 9135,
      "rought": 9136,
      "flags": 9137,
      "Ġhappen": 9138,
      "ĠRad": 9139,
      "Ġmacro": 9140,
      "unique": 9141,
      "Ġdiscussions": 9142,
      "ena": 9143,
      "Expr": 9144,
      "inement": 9145,
      "reful": 9146,
      "Ġrepresentative": 9147,
      "aults": 9148,
      "Ġcampaign": 9149,
      "Ġconsole": 9150,
      "Desc": 9151,
      "Ġinstant": 9152,
      "ĠOnly": 9153,
      "hook": 9154,
      "Ġexc": 9155,
      "Ġtrying": 9156,
      "Ġanything": 9157,
      "ĠTechn": 9158,
      "Ġexponent": 9159,
      "Another": 9160,
      "aba": 9161,
      "Ġinterior": 9162,
      "reh": 9163,
      "According": 9164,
      "Ġasked": 9165,
      "1989": 9166,
      "}}}$": 9167,
      "ĠDuring": 9168,
      "ĠSi": 9169,
      "Simple": 9170,
      "three": 9171,
      "Ġroots": 9172,
      "pton": 9173,
      "Generic": 9174,
      "integra": 9175,
      "Ġreq": 9176,
      "given": 9177,
      "ĠOption": 9178,
      "Ġcircuit": 9179,
      "coup": 9180,
      "fx": 9181,
      "Ġrich": 9182,
      "Ġoffice": 9183,
      "{[": 9184,
      "Ġstatements": 9185,
      "ancing": 9186,
      "ICE": 9187,
      "born": 9188,
      "ĠIII": 9189,
      "Ġconcentration": 9190,
      "wp": 9191,
      "Ġ$<": 9192,
      "CHECK": 9193,
      "@{}": 9194,
      "handler": 9195,
      "%%%%": 9196,
      "Ġtriangle": 9197,
      "Ġmanager": 9198,
      "cessed": 9199,
      "ToString": 9200,
      "Ġpenal": 9201,
      "Ġfavor": 9202,
      "Ġeight": 9203,
      "dz": 9204,
      "WN": 9205,
      "elling": 9206,
      "aver": 9207,
      "Clear": 9208,
      "CB": 9209,
      "quote": 9210,
      "Nodes": 9211,
      "Ġconstitu": 9212,
      "awa": 9213,
      "Ġoutper": 9214,
      "prefix": 9215,
      "Ġanalogous": 9216,
      "ĠSum": 9217,
      "jquery": 9218,
      "Ġsecondary": 9219,
      "Editor": 9220,
      "Comment": 9221,
      "Ġusage": 9222,
      "Double": 9223,
      "ĠjQuery": 9224,
      "Ġwrong": 9225,
      "=$": 9226,
      "FE": 9227,
      "illis": 9228,
      "alloc": 9229,
      "uniform": 9230,
      "Ġtail": 9231,
      "Ġorganization": 9232,
      "MENT": 9233,
      "Ġelimin": 9234,
      "Ġdissi": 9235,
      "Ġfiber": 9236,
      "Ġcontrolled": 9237,
      "Ġcomposed": 9238,
      "Ġalone": 9239,
      "Ġdescribing": 9240,
      "Ġindependently": 9241,
      "editor": 9242,
      "scription": 9243,
      "'])": 9244,
      "Ġ[[": 9245,
      "ycle": 9246,
      "ĠField": 9247,
      "useum": 9248,
      ".'": 9249,
      "Region": 9250,
      "}_+": 9251,
      "Ġanalytical": 9252,
      "Ġtoward": 9253,
      "Gr": 9254,
      "Ġcontinued": 9255,
      "ptions": 9256,
      "}=(": 9257,
      "}_{(": 9258,
      "ĠEuclidean": 9259,
      "pb": 9260,
      "!\\!\\!\\!\\!": 9261,
      "$--": 9262,
      "phone": 9263,
      "metadata": 9264,
      "Ġzone": 9265,
      "Ġgenerality": 9266,
      "Ġactivities": 9267,
      "History": 9268,
      "Ġtypeof": 9269,
      "SN": 9270,
      "Ġclosely": 9271,
      "ĠMost": 9272,
      "dk": 9273,
      ").}": 9274,
      "Ġsafe": 9275,
      "Ġtim": 9276,
      "ĠCre": 9277,
      "})-": 9278,
      "Ġfn": 9279,
      "direction": 9280,
      "tur": 9281,
      "BH": 9282,
      "ĠEven": 9283,
      "Ġvic": 9284,
      "Ġcorrectly": 9285,
      "Ġcomplicated": 9286,
      "ĠLong": 9287,
      "Ms": 9288,
      "potential": 9289,
      "inity": 9290,
      "uv": 9291,
      "Parse": 9292,
      "raints": 9293,
      "neg": 9294,
      "Ġpartially": 9295,
      "Ġclassifier": 9296,
      "tc": 9297,
      "cher": 9298,
      "$&$": 9299,
      "Experim": 9300,
      "},{\\": 9301,
      "Feature": 9302,
      "RIPT": 9303,
      "Ġdisorder": 9304,
      "Ġschema": 9305,
      "Ġ}$": 9306,
      "Ġelliptic": 9307,
      "pool": 9308,
      "Ġquali": 9309,
      "NOT": 9310,
      "Constants": 9311,
      "Ġrobot": 9312,
      "Ġoverlap": 9313,
      "dropdown": 9314,
      "Ġfourth": 9315,
      "ulo": 9316,
      "Ġds": 9317,
      "mix": 9318,
      "Ġextensions": 9319,
      "Ġfocused": 9320,
      "=\"\"": 9321,
      "Ġoptional": 9322,
      "Similarly": 9323,
      "Ps": 9324,
      "*)": 9325,
      "Ġdriving": 9326,
      "Ġboard": 9327,
      "tty": 9328,
      "Ġmovement": 9329,
      "OUT": 9330,
      "libr": 9331,
      "SG": 9332,
      "ĠJames": 9333,
      "eder": 9334,
      "Ġvelocities": 9335,
      "zone": 9336,
      "children": 9337,
      "NULL": 9338,
      "equence": 9339,
      "ĠLandroid": 9340,
      "}\\}$": 9341,
      "(|": 9342,
      "Ġquotient": 9343,
      "sb": 9344,
      "Domain": 9345,
      ")!": 9346,
      "Ġsep": 9347,
      "~(": 9348,
      "sym": 9349,
      "Ġsharp": 9350,
      "ĠMag": 9351,
      "odd": 9352,
      "esides": 9353,
      "ampling": 9354,
      "Ġdrawn": 9355,
      "ito": 9356,
      "Ġcircum": 9357,
      "Ðº": 9358,
      "ĠCall": 9359,
      "Ġproxy": 9360,
      "Failed": 9361,
      "Ġwish": 9362,
      "placement": 9363,
      "Ġgenerates": 9364,
      "tack": 9365,
      "Ġmus": 9366,
      "yy": 9367,
      "Ġmechanisms": 9368,
      "Ġrelig": 9369,
      "ĠFurther": 9370,
      "onom": 9371,
      "Ġadjust": 9372,
      "ĠTV": 9373,
      "Ġcoherent": 9374,
      "Ġmedical": 9375,
      "external": 9376,
      "brief": 9377,
      "getName": 9378,
      "analysis": 9379,
      "ĠGets": 9380,
      "enable": 9381,
      "Ġintroduction": 9382,
      "Ġreward": 9383,
      "))$.": 9384,
      "ĠWashington": 9385,
      "sn": 9386,
      "Ġ).": 9387,
      "Ġperspective": 9388,
      "laration": 9389,
      "Ġsouth": 9390,
      "ctivity": 9391,
      "Sample": 9392,
      "views": 9393,
      "aylor": 9394,
      "Ġminutes": 9395,
      "rec": 9396,
      "Ġlaws": 9397,
      "ĠLap": 9398,
      "rf": 9399,
      "UTF": 9400,
      "llig": 9401,
      "Adapter": 9402,
      "Ġrac": 9403,
      "ONE": 9404,
      "vable": 9405,
      "Ġguide": 9406,
      "protobuf": 9407,
      "Ġopacity": 9408,
      "ĠBr": 9409,
      "Ġconstrained": 9410,
      "safe": 9411,
      "Ġplaces": 9412,
      "sey": 9413,
      "Ġserve": 9414,
      "iling": 9415,
      "Ġroad": 9416,
      "Ġremote": 9417,
      "ĠNews": 9418,
      "ById": 9419,
      "Ġmetadata": 9420,
      "\\}}": 9421,
      "Ġ^{\\": 9422,
      "nings": 9423,
      "Ġlogic": 9424,
      "Ġcircular": 9425,
      "Ġexhibit": 9426,
      "batch": 9427,
      "renewcommand": 9428,
      "variable": 9429,
      "Ġcycles": 9430,
      "opes": 9431,
      "Ġwriter": 9432,
      "Ġminor": 9433,
      "################": 9434,
      "jections": 9435,
      "Ġspeech": 9436,
      "Ġtargets": 9437,
      "udy": 9438,
      "ipschitz": 9439,
      "')\\": 9440,
      "fold": 9441,
      "omas": 9442,
      "BUG": 9443,
      "undefined": 9444,
      "Ġaux": 9445,
      "Ġsampled": 9446,
      "iliary": 9447,
      "ĠPost": 9448,
      "Pointer": 9449,
      "oulo": 9450,
      "Ġupdates": 9451,
      "isy": 9452,
      "*{-": 9453,
[...]
