#version: 0.2
Ġ Ġ
Ġ t
i n
h e
Ġ a
o n
e r
r e
Ġt he
a t
e n
o r
Ġ s
a l
a n
i s
ĠĠ ĠĠ
Ġ o
i t
e s
a r
e d
Ġ c
Ġ w
i on
Ġ f
Ġo f
Ġ in
n d
Ġ p
i c
Ġ b
l e
in g
r o
a s
Ġa nd
Ġ d
Ġ m
Ġ \
Ġt o
c t
e l
en t
e t
Ġ $
o u
i l
a m
s t
i g
o m
Ġ S
Ġ re
Ġ h
o l
at ion
Ġ T
r a
Ġ (
i m
Ġ C
Ġt h
Ġ n
Ġ A
Ġ e
o t
Ġ l
ĠĠ Ġ
i d
c e
i v
Ġ is
u r
ĠĠĠĠ ĠĠĠĠ
c h
u t
Ġ M
{ \
Ġf or
u s
u l
Ġ g
a d
o w
l y
Ġ on
e m
er s
Ġ B
2 0
Ġ I
u m
Ġ P
it h
a b
i r
q u
1 9
u n
Ġs t
is t
Ġa s
Ġb e
o d
Ġ H
s e
t er
a g
i f
a y
t h
Ġc on
Ġ v
Ġ R
Ġ F
Ġw ith
_ {
Ġth at
Ġ L
ĠT he
Ġ D
e g
Ġw as
Ġa l
en d
at h
an d
v er
Ġ Ċ
r i
Ġb y
e ct
he r
Ġ N
a c
Ġ G
Ġ W
Ġ$ \
Ġp ro
Ġa n
o p
re s
es t
h t
at e
o s
o c
č Ċ
a p
Ġ =
â Ģ
ro m
Ġ E
it y
e c
a v
e x
Ġa t
u p
u b
m ath
t a
Ġw h
p h
ct ion
Ġ &
ar t
Ġc om
e f
ĠĠĠĠ ĠĠĠ
Ġe x
Ġf rom
ig ht
i es
Ġ J
in e
al l
u re
o re
e p
e w
} \
Ġa re
es s
Ġ it
i al
or t
} $
r an
g e
u d
^ {
Ġ O
il l
Ġ "
Ġ or
p l
as s
b er
' s
i an
Ġ he
iv e
m a
m ent
re f
ĉ ĉ
am e
Ġw e
T he
p t
ic h
it e
u e
o g
i z
n t
at ed
a k
an t
Ġ U
Ġ K
l d
ou r
ar d
i p
20 1
ar y
Ġ <
in t
= "
o v
el l
} }
ex t
ul t
ic al
( \
ra c
Ġc h
Ġc l
i a
Ġ r
u nd
) ;
p er
c l
f t
ig n
âĢ ĵ
ag e
) ,
s p
- -
Ġp l
Ġs p
0 0
it ion
Ġ {
eg in
Ġs h
ĠI n
or m
b egin
Ġ us
Ġth is
Ġcom p
on g
Ġ le
ĠS t
u st
as t
c al
a re
Ġs e
_ {\
en s
u g
20 0
) $
Ġwh ich
f f
or d
Ġn ot
ac k
ation s
i re
d u
av e
Ġ V
p e
Ġ k
< /
) .
Ġ -
s o
} {
o st
p ro
en c
Ġh is
Ġ y
or k
e v
ĠĠĠĠĠĠĠĠ ĠĠĠĠĠĠĠĠ
Ġ |
a in
r m
a ce
ab le
ion s
t ext
t o
im e
en ce
t her
c c
e qu
is h
} ,
r ic
1 8
f rac
er e
Ġ un
ĠC h
Ġw he
I n
e q
/ /
an g
er v
as e
i b
l ow
e ar
id e
r ight
Ġ *
p ort
on d
Ġc an
il d
m er
Ġal so
r y
ab el
a ct
ou s
Ġa p
ur n
a ch
r u
t he
Ġh ave
Ġ }
en er
in d
Ġh as
ĠĠĠĠĠĠĠĠ ĠĠĠ
ter n
Ġw ere
Ġre s
ir st
o k
ic e
or y
f er
Ġa d
Ġ im
o ver
er m
i le
c ite
math b
l abel
ĠT h
f orm
et a
ow n
w o
e y
ou t
ou nd
om e
Ġp art
$ ,
Ġa b
Ġa r
at es
, \
r it
ol d
. .
$ .
Ġs u
re e
Ġ j
1 0
f ig
ro w
cl ud
equ ation
c on
ri b
ent s
Ġcon t
Ġ| |
am p
an ce
Ġon e
or s
ou nt
ta in
k s
math cal
ou ld
Ġm od
le ft
ub l
ĠĠĠĠ Ġ
ĠU n
19 9
Ġ if
} .
el y
res s
j ect
" >
Ġd e
Ġf irst
he d
} )
l i
Ġd is
ĠH e
Ġcl ass
Ġ +
w e
Ġal l
al ly
am b
} (
Ġ ro
at a
o b
Ġpl ay
ran s
ic s
Ġt wo
Ġo b
Ġ Y
ĠI t
ation al
un ction
Ġp er
o se
i el
} ^
Ġit s
n g
r ing
od e
p s
~ \
s s
ar k
c om
} _
l ine
Ġ qu
Ġthe ir
f ter
enc es
Ġb ut
l l
or n
c ent
ph a
o int
S t
Ġ âĢĵ
Ġe v
Ġh ad
d a
t urn
at er
Ġd ef
t e
Ġs c
y pe
iel d
i k
al pha
g et
Ġs y
ul ar
s um
Ġp re
Ġd es
ra d
Ġt e
l es
Ġs et
le ct
Ġm e
* *
im es
ra y
Ġo ther
i ed
) \
Ġin t
Ġn ew
Ġo ut
ra ph
is s
ut ion
ol low
an y
o ol
l and
$ \
s c
i x
s h
i o
ig h
Ġ '
Ġa g
a w
amb da
el ta
o ot
um ber
Ġo ver
Ġv al
oc k
as ed
1 2
on e
ic an
in al
Ġwh o
Ġw ork
Ġ up
Ġt ime
i e
on s
it ed
ic t
iz e
Ġfor m
Ġbe en
o f
Ġin ter
19 8
und er
E x
r am
Ġs ub
R ef
p os
am ma
c ed
iv ers
e op
h o
Ġf ollow
Ġf unction
er t
= =
Ġin d
em ber
_ \
at ive
s et
Ġc ol
ro up
m b
Ġb et
Ġwhe re
ubl ic
st em
ar am
res ent
( )
in ed
Ġcon st
u al
m u
Ġre g
s ub
Ġin clud
ing s
Ġ\ \
on t
eop le
Ġcon s
Ġcom m
Ġ en
w ard
et h
Ġ [
ig ma
Ġ her
1 6
an n
= \
d ot
il m
Ġy ear
Ġsu ch
-- --
Ġd ist
Ref er
Ġres ult
1 7
a x
Ġon ly
Ġd if
1 5
r al
if ic
Ġm ore
} _{
} ^{
a il
Ġre turn
in ce
mathb b
Refer ences
eg a
p r
Ġmod el
ug h
we en
ur ing
- \
Ġre l
le t
Ġin to
d er
o y
Ġex p
ro und
ar i
a us
Ġbe c
ol og
Ġw ill
Ġc o
Ġs up
Ġwhe n
mer ican
an s
Ġl oc
o x
Ġthe y
e ver
ĠTh is
ul l
Ġg ener
Ġthe n
" ,
Ġre c
e e
ph i
^ {\
le ment
ou g
Ġa cc
Ġd o
Ġ under
19 7
h at
Ġp r
re d
pt ion
ak e
v i
Ġ {\
Ġbet ween
ot h
el f
Ġp os
p ut
er y
at ing
ĠN ew
l ambda
c es
c k
re n
ĠC om
it ies
c he
ĠA l
Ġs im
ect ion
Ġthe re
Ġp ol
Ġs o
ĠĠĠĠĠĠĠĠ ĠĠĠĠĠĠĠ
Ġa fter
ru ct
âĢ Ļ
b f
Ġp h
id ent
ist s
Ġa ct
b all
o ok
w id
ĠM ar
p i
ab l
al ign
Ġth an
Ġpro v
ic k
Ġd ec
in s
Ġt rans
al s
i ent
le m
u res
Ġs ec
Ġl in
Ġsh ow
Ġof f
Ġ est
1 3
ĠW e
y s
Ġe qu
is e
Ġk n
Ġat t
ou n
1 4
Ġus ed
is ion
d ition
it s
Ġas s
ch ool
am es
ar g
is hed
at ure
c ol
n e
w ay
mathb f
at or
Ġin v
Ġdif fer
ar s
Ġpro du
il on
t s
id er
ad e
u es
ĠA r
our ce
2 1
il ity
Ġc or
Ġt ra
il y
t on
Ġn e
ov e
Ġst ud
b ar
se ction
l o
s igma
Ġs ome
Ġm at
Ġ .
19 6
Ġw ould
Ġ âĢ
or ld
ĠP ro
ap p
Ġsy stem
Ġn umber
Ġl ine
Ġ Z
Ġs erv
Ġf ilm
Ġ( \
ire ct
Ġs he
en g
Ġan y
Ġe ach
Ġ //
Ġd ata
- >
Ġsp ec
t t
m in
Ġb u
Ġg iv
p art
} {\
1 1
^{ -
oc i
y n
ou th
a ir
ĉĉ ĉĉ
b eta
w n
o h
ild e
g an
Ġp eople
as on
ib le
ro ugh
iz ed
tern al
h ip
c re
ivers ity
\ \
Ġo p
ow er
: :
e b
Ġn o
ap t
Ġ Q
Ġex t
Ġf e
ur y
ut e
is m
at t
Ġp oint
Ġ end
ep end
m all
Ġg o
Ġthe se
Ġre sp
Ġm ost
ĠF or
Ġin st
Ġn ame
Ġab out
2 5
ĠA merican
eth od
Ġe ff
n ing
g amma
Ġc ent
t y
ep s
Ġp ublic
+ \
v e
math rm
Ġ i
Ġ /
v al
as h
Ġd ev
em b
m an
ot e
v el
Ġo ur
Ġ< /
Ġ ent
Ġ ed
or th
* }
ar ray
2 2
oug h
i er
a h
Ġc ase
Ġm ay
r on
Ġo per
it em
Ġc ur
Ġre p
Ġs ing
r ho
at ic
^ \
Ġ ra
Ġf ound
ĠS h
us s
Ġs ign
Ġ x
Ġm an
em ent
er n
le ction
Ġpro b
wid th
T h
er r
d elta
Ġap pro
he re
19 4
.. /
Ġs ol
Ġus e
c ess
Ġw ell
) }
Ġth ree
3 0
it t
] {
iz ation
Ġth rough
Ġg roup
Ġ @
ra ct
Ġb l
a z
s y
al e
Ġs ame
Ġst ate
19 5
ĠC ol
the ta
v ar
Ġthe m
he n
k e
ric t
Ġsec ond
ĠI nd
Ġc all
u c
Ġ :
Ã ©
ion al
Ġag ain
le q
aram et
ta u
W e
Ġf ield
Ġf l
ow ever
Ġdiffer ent
$ -
s erv
c dot
ĠS p
fig ure
Ġpart ic
y le
Ġch ar
Ġm in
er ies
Ġb oth
s on
C on
Ġfollow ing
ĠL e
Ġv ari
a j
if e
pl ic
Ġn on
ĠA n
amp le
d ef
}$ ,
ĠUn ited
Ġs ur
}$ .
Ġd uring
ar ly
Ġ X
ical ly
Ġdes c
Ġt erm
P ro
Ġa m
ĠUn iversity
ect ed
Ġyear s
Â ł
ar row
b ig
Ġh im
oot ball
Ġa c
ir c
} (\
n u
ag es
Ġt r
re at
' ,
f or
Ġor der
aus e
Ġval ue
Ġh igh
ĠC l
re nt
el op
ic es
) )
m m
ou se
Ġper form
t imes
se c
Ġus ing
qu ad
Ġre qu
g y
m p
Ġgiv en
part ial
Ġf in
ĠC on
ut h
u ch
ment s
ĠD e
eq ref
Ġte am
ul ation
ur al
ran g
Ġre le
Ġg et
o id
n er
Ġwh ile
over n
Ġf am
Ġle ad
ĠA s
in es
Ġc re
Ġlin ks
Ġd et
Ġcons ider
t en
Ġd irect
om ega
Ġy ou
00 0
sp an
ire d
iv ed
Ġb ack
ot her
m l
ess age
2 4
( "
ar ch
in ing
p m
iv ely
ri pt
ch i
p le
C h
Ġar t
( );
b y
ĠS c
a u
us ic
in k
in a
as es
at her
t ilde
Ġm on
Ex ternal
cent er
ro ss
Ġplay ers
eq n
Ġdis c
iv er
ft y
o ber
Ġm ade
um n
in fty
Ġs mall
ay s
Ġbe ing
ers on
y p
| \
v ent
Ġ z
r id
ar ge
ĠE ng
ot s
Ġp op
Ġf act
w ork
as k
Ġkn own
f ore
ist ory
D elta
2 3
ot t
res p
f l
ro p
oh n
Ġw rit
d iv
Ġe m
. "
iv ing
r t
sp ace
. ,
Ġm ed
al ity
ik e
v ers
m e
le y
Ġt ype
olog y
b um
Ġm ethod
th s
Ġm any
are d
Ġc ount
ĠSt ates
ent ial
et s
Ġm ain
Ġap pe
he s
Ġst r
ĠĠĠĠĠĠĠĠ Ġ
o le
Ġl ater
Ġf our
> </
om en
el s
\ ,
ri x
5 0
iss ion
en n
og raph
t r
---- ----
Ġl ong
ĠS he
l ed
Ġst art
Ġeff ect
ĠĠ Ċ
C om
a id
ĠO n
" .
ĠI s
an ge
Ġor ig
if ied
Ġdev elop
Ġbe fore
enc y
ore m
Ġrec ord
Ġresult s
Ġ ran
i ew
t il
Ġs ince
Ġrep resent
c it
l ation
o od
x i
Ġb el
un e
ce pt
E R
i or
in clud
Ġ* /
ver y
Ġ$ (
Ġcont in
ĠC ount
ĠA d
Ġob tain
Ġb ir
an e
Ġ `
ag ue
Ġ el
e ad
Ġp aramet
l ang
ep t
Ġob serv
an c
Ġb ro
m od
Ġe lect
ist er
Ġse ason
} [
i qu
Ġinclud ing
Ġf ootball
19 3
)$ .
== ==
Ġad d
ar ri
> <
Ġm et
n ot
ĉĉ ĉ
Ġm ov
g ram
re t
w here
re ad
Ġdesc rib
Ġp resent
um ent
** **
} }\
ab ility
$ $
Ġb ound
ĠCom m
s q
Ġest abl
rib ut
Ġs eries
Ġr un
Ġap p
le x
Ġst ruct
Ġsup port
ag n
ect or
Ġ ,
s k
Ġal bum
form ation
Ġs chool
l og
Ġf inal
ĠF ran
iv es
Ġan al
a ction
iv al
Ġpro per
eps ilon
Ġb ased
Ġl arge
mb ol
b ack
ĠN ational
../ ../
ar n
ĠP h
ĠĠĠĠĠĠĠĠĠĠĠĠĠĠĠĠ ĠĠĠ
Ġt est
2 7
ĠJ ohn
s im
O m
eqn array
a i
ch n
ĠW orld
Ġl ist
Ġloc al
vi ew
Ġme as
ĠM ay
Ġd ep
b l
Ġagain st
Ġm ass
th is
Ġbu ild
Ġpro cess
I N
2 6
in c
Ġse e
Ġp res
u ro
âĢ Ŀ
} _{\
rib ution
2 8
ĠP l
Ġex per
et work
Ġn ow
le v
ak ing
S T
F or
ps i
cc ess
O n
ra w
ĠA ust
os s
Ġim p
Om ega
Ġbec ame
Ġse ver
at ch
es c
Ġm ult
ur ch
ĠE x
Ġ _
an u
Ġo wn
an k
ener gy
eng th
g er
Ġchar act
I t
Ġg u
Ġgener al
^ *
Ġre ce
u ally
i am
ĠF ig
Ġr ight
201 0
f ul
ur ther
ĠW ar
Ġop en
ol ution
Ġcon dition
t rans
Ġd r
Ġdes ign
P h
ĠA ss
it le
resp ond
Ġcon tain
Ġ rad
tern ational
am ed
um er
r and
Ġc ould
n ame
ĠC ar
O N
Ġ #
it al
vi ous
Ġresp ect
f ra
Ġin cre
)$ ,
Ġne ed
Ġl im
Ġto p
c er
p or
m ed
Ġbec ause
ĠY ork
Ġo pt
G amma
sq rt
Ġcall ed
col or
p ar
rac k
Ġs elf
Ġpos s
Ġfam ily
ĠB l
ver t
ĠB rit
ian s
a f
ht ml
1 00
Ġsp ace
ps ilon
ro du
c o
N ame
C l
ant s
ro l
( '
ĠCount y
ĠC an
201 5
ĠJ ul
4 0
Ġpro f
r ist
it ial
if y
u le
| -
Ġprob lem
201 6
overn ment
2 9
Ġd ue
201 7
re g
id ed
201 8
s ource
A R
text bf
a int
) :
od y
ĠS chool
sub section
Ġ err
Ġt em
Ġe very
Ġsing le
Ġst at
R es
emb ers
Ġre ma
Ġp ar
201 4
Ġs ong
r ation
is ed
Ġ$ {\
c m
om et
Ġcur rent
n ess
Ġre fer
ward s
re en
Ġh ref
i um
ĠN ov
ar ian
Ġun til
ac es
20 19
im ens
it ive
ĠG erm
is on
ĠS outh
pos ition
Ġde ath
b m
l er
201 1
201 2
en se
20 20
Ġal low
ers ion
v are
et y
Th is
ir d
201 3
Ġas sum
aj or
I d
c apt
um b
ith m
ĠA t
Ġ )
Ġf ind
right arrow
raph ics
ĠO r
Ġv ery
Ġsever al
} =
ug ust
i ence
Ġre st
Ġo cc
Ġpol it
Ġc are
ad d
at eg
v en
ĠG e
Ġ u
us e
Ġim port
p p
^{ (
Ġcomm un
i j
m essage
Ġh and
a ult
ĠH owever
il ar
vare psilon
ept ember
g round
d d
cl ass
Ġre m
Ġcor respond
T ype
Ġn ear
amp ions
A T
al se
Ġre f
im port
end ed
Ġs cal
Ġob ject
A s
st r
am ent
ĠC ent
Ġp ass
Ġal ong
Ġare a
}^ {\
id es
ce ption
ol v
capt ion
Ġle ft
pl ay
200 8
re m
rang le
ic a
Ġsh ould
or g
anu ary
n on
b orn
Ġ energy
Ġad dition
if t
il t
ct ober
t ab
) =
ar m
Ġst and
Ġe lement
Ġm usic
f ace
b old
a e
t d
ĠT e
i od
ist or
at ely
re qu
A l
Ġ ident
s elf
200 9
Ġl ast
ĠâĢ ľ
Ġ\ ,
S S
St ring
ĠMar ch
Ġw in
Ġwith in
Ġpro gram
Ġ čĊ
Ġ >
Ġl ike
g or
Ġch ild
er o
l ish
ĠP ar
l im
op t
Ġev ent
Ġc al
Ġest im
m ber
Ġev en
Ġor gan
iv ate
ĠA ugust
L ist
ĠS eptember
Ġp ower
Ġdo es
en e
Ġle vel
pr il
U n
om an
o ard
b s
eg raphics
Ġ --
includ egraphics
200 7
ĠP ol
Ġpro ject
ĠP r
Ġre al
s ide
Ġj ust
w h
y m
Ġex pl
Ġth ose
ĠI I
' '
b e
Ġoff ic
epend ent
200 6
le ge
at ors
d is
Ġl ife
Ġan n
ĠJ anuary
ap er
: //
Ġg ame
Ġmeas ure
em ph
ĠO ctober
ĠâĢ Ķ
am pl
T o
Ġab ove
t ype
Ġre ad
Ġint eg
Ġd en
re turn
Ġb and
com m
Ġa v
Ġc ap
ord ing
f ield
l ess
A r
Ġs um
Ġl arg
p on
Ġval ues
" /
e ed
I D
re am
ĠJ une
x im
Ġd i
Ġto t
ific ation
Ġre port
n ew
ce mber
var phi
Ġfor mer
c ode
Ġg ra
6 0
orm al
ĠA ll
it er
pos ed
Ġplay ed
Ġpro t
ens ity
ĠR ep
om in
Ġhe ad
ru ction
Ġs aid
Ġl aw
. ~\
R E
ĠW h
ĠJul y
se e
gor ithm
ar get
ĠAust ral
Ġcontin u
p aram
Ġs l
Ġpl ace
ĠĠĠĠĠĠĠĠĠĠĠĠĠĠĠĠ ĠĠĠĠĠĠĠĠĠĠĠĠĠĠĠĠ
re l
b le
op e
uth or
Ġa round
al th
Ġex ample
ff ic
ĠM in
ition s
ĠA pril
Ġd id
Ġrele ased
Ġhe l
ĠG u
l oc
Ġv is
Ġc he
as ter
A n
Ġcon n
at s
che s
ĠE uro
Ġt ri
3 2
19 0
Ġs at
Ġcharact er
i ous
av ing
ore d
ograph y
Ġs ize
ĠC al
id d
ac he
ge q
. }
ur g
fra k
n o
Ġg l
ĠA nd
ĠThe y
S ee
w ith
Ġb ook
t ing
ord s
Ġw on
ĠNov ember
ord er
ĠI f
im ent
Ġm ake
Ġe arly
ĠN orth
l ing
Ġpartic ular
Ġn etwork
Ġbir ths
Ġp ubl
t able
ĠC ity
sy mbol
ĠDe cember
Ġd er
Ġsim ilar
& \
Ġcomp ut
ĠR eg
o ad
ĠBrit ish
over line
un g
are nt
ur s
z e
Ġsp ect
ĠSt ate
"/ >
V al
od es
at ter
pro of
[ \
ef f
v ec
il it
Ġ !
ĠM an
du ct
Ġpre vious
Ġsh own
ak es
a im
Ġqu ant
ĠLe ague
Ġs ection
ref ore
cent ury
Ġwh at
Ġm ap
ampions hip
Ġtr ue
an ces
ĠĠĠĠ ĠĠ
in ess
ĠR es
Ġin formation
Ġw ay
H e
ap e
Ġw orld
st it
at ures
Ġtot al
.. .
Ġ= >
} ).
ens ure
Ġd em
) ^
eb ru
Ġc rit
Ġb as
B ig
c ul
}, \
r is
u k
Ġmodel s
Ġin itial
ĠS y
ebru ary
ro ll
Ġdescrib ed
Ġfollow s
Ġsu ccess
h am
op er
ra g
8 0
le ar
p ed
3 3
9 0
Ġbe h
20 00
ĠB e
eta il
ap an
Ġint rodu
Ġcl os
le g
t ime
Ġc ity
Ġh ig
4 5
# #
im al
Ġa ction
con t
Ġass oci
Ġd own
Ġpoint s
Ġdef ined
ac ed
f o
g in
o ff
al es
ial ly
mm et
c or
ix ed
our n
math frak
Ġl ow
Ġfilm s
200 5
} ;
ĠCan ad
ĠA f
Ġper iod
u age
bold symbol
sc ript
ĠW ill
Ġm embers
ist ic
ĠEuro pe
h line
b ra
Ġst ill
Ã ¡
ĠK ing
Ġ et
Ġte chn
in ation
Ġar g
Ġcomp et
ug g
lev ision
Ġt rad
Ġt yp
L ambda
yn am
ur b
Ġdet erm
t ies
un c
Ġen g
_ _
pl it
in o
Ġre du
or ph
Ġsh ort
Ġv ar
20 21
or ies
Ġp erson
i us
ri es
se qu
Ġm ajor
Ġw omen
C ol
Ġh ow
Ġl and
Ġpre d
} }$
Ġn ull
ĠS ec
Ġcare er
Ġshow s
ĠF ebruary
u ild
Ġle t
Ġterm s
lect ed
Ġm uch
Ġex ist
Ġcomp let
Ġg overnment
6 4
A merican
ress ion
Ġp ost
et ic
Ġinclud e
et er
ren ch
O R
L et
Ġm ust
Ġd iv
lang le
3 5
L E
ĠC o
em pt
us h
Ġc our
ht t
Ġ= =
st er
re ak
Ġd eg
200 4
S p
in ter
Ġst ring
r r
u x
" )
Ġstud y
on y
mb ox
ld ots
our ces
th ough
es e
ĠA fter
ra p
Ġh old
ĠP art
Ġm ark
Ġad v
l or
Ġb est
Ġt itle
al k
ex p
Ġn amed
Ġpop ulation
Ġto wn
Ġm ember
con st
ill ion
Ġdist ribution
Ġm ax
Ġk ey
Ġstruct ure
Ġreg ion
in ition
Ġp at
trans lation
us iness
Ġd epend
er ing
ri ption
Ġle g
d e
b ut
Ġst ates
ĠA rm
ys is
il es
d ay
ĠE d
Ġn ext
Ġinter est
k ey
app a
ĠU S
ĠS e
Ġcom b
Ġwith out
7 5
A L
an a
Ġestabl ished
ĠCh rist
cit ep
ir on
r um
ĠB y
ĠD ist
val ue
ra ft
t op
iv ity
Ġh ome
is f
Ġp o
Ġbe gan
Ġo ld
Ġa ff
Ġis s
Ġa ver
B y
Ph i
oc ial
Ġman ag
ĠS up
Ġloc ated
he ad
m ult
ict ion
Ġch ang
Ġt ake
olog ical
n abl
iqu e
Ġdisc uss
ot ential
Ġa ut
er ed
ent ion
ĠR e
Ġhe ld
Ġan other
Ġcl ub
Ġv oid
ĠEng lish
Ġcon f
st yle
Ġst yle
os p
ol l
Ġst ation
oun c
Ġappro xim
7 0
v es
ĠS w
Ġorig inal
Ġstr ong
av a
' )
ide o
ud e
b it
ĠB ar
Ġal ign
Ġs k
ĠH is
ĠW est
al f
ĠM c
Ġm agn
g es
ĠR ec
text it
Ġv ol
ĠH ar
Ġv ill
Ġre t
s f
. \
b ox
Ġe p
ent ly
ad em
18 9
Ġin f
e ak
ĠJ apan
id ual
w w
st ring
it her
A C
Ġc ar
se arch
Ġl a
ĠN o
Ġcomp on
k appa
ot imes
Ġt imes
Ġcomp any
Ġappe ar
Ġch o
S E
3 1
Ġs ide
i i
it or
Ġv ersion
Ġpos ition
r ite
Ġpr ivate
d ata
s er
re w
um an
ener al
Ġposs ible
m at
Ġpro m
Ġcor re
' t
end s
h old
Ġv iew
Ġme an
ĠE l
I nd
ond on
] ,
p d
ĠThe re
} )$
Ġto ok
Ġc ou
Ġfe ature
ot es
ĠC or
sub set
Ġd ensity
c irc
Ġrece ived
im um
Ġph ot
S h
\ %
le te
Ġthe ory
Ġimport ant
Ġd el
200 3
Ġj o
"> <
a ul
Ġf r
non umber
u ff
Ġse qu
ĠM ed
} ),
s l
Ġh istory
p ose
Ġf urther
Ġd ay
ĠAf ric
um e
ab les
D E
ĠT o
ed er
f ord
ran sp
Ġg ames
Ġth ird
Ġparamet ers
Ġkn ow
P l
ĠĠĠĠĠĠĠĠ ĠĠĠĠĠ
s ize
e k
Ġre pl
Ġph ys
il le
Ġh ouse
Ġran ge
Ġpubl ished
Ġal gorithm
Ġf alse
ic le
row n
re st
in ally
Ġbu ilt
Ġsign ific
Ġt urn
Ġf ull
O b
Ġs ep
Ġobtain ed
ĠThe n
ĠCol lege
Ġar ch
l in
Ġa ge
Ġf ive
nabl a
Ġre d
S igma
Ġel se
arri ed
ĠA b
ric k
Ġs ix
A N
\ |
Ġcont rol
ight s
P s
oc ument
Ġcomp lex
Ġprof ess
Ġinclud ed
Ġn ational
ensure math
Ġm y
ĠR uss
Ġserv ed
Ġinv est
Ġ` `
Ġl ang
on es
r ary
Ġcomp os
d om
Ġ id
6 5
Ġsat isf
n a
ind ow
E N
g o
Ġstand ard
200 2
Ġfunction s
ip le
Ġg raph
ĠS an
Ġc over
ĠE n
3 4
Ġperform ance
Ġp otential
ĠL ondon
Ġlim it
Ġm ot
u ck
oc us
Ġcent ury
Ġmat rix
Ġ enc
Ġ q
w ide
Ġed uc
Ġb orn
ĠThe se
\ !
Ġconsider ed
s up
Ġserv ice
Ġf ew
ampl es
al d
Ġp aper
ma x
ilit ary
ĠH igh
ĠY ou
D ata
Ġspec ies
Ġind ic
ĠA m
Ġw ar
A S
es tern
ĠF rench
cl us
ĠCh ampionship
ĠM e
ail able
u ation
ĠA ir
b r
p re
Ġro le
i et
Ġ& &
Ġe as
Ġp ort
way s
Ġs it
Ġw id
Ġcomm on
ob al
ĠWill iam
Ġerr or
al y
}} {
es p
200 1
Ġvari ous
et t
m ary
ur ation
Ġof ten
op h
dot s
I T
art ment
Ġam ong
) (
ounc il
Ġa uthor
Ġe lection
18 8
ing ton
Ġv ert
Ġhe re
Ġc amp
c ast
Ġchild ren
ĠCh ar
con om
Ġprodu ct
n ow
Ġl ess
Ġst ar
9 9
ut ions
Ġte levision
Ġp ath
ĠS ch
Ġrespect ively
Ġwrit ten
ol ic
ĠGerm an
Ġplay er
Ġc ross
Ġt ext
Ġgo od
iv idual
i ents
if f
Ġl ower
Ġspec ial
ĠDist rict
Ã ³
Ġsep ar
Ġmat ch
ly mp
Ġs w
i ber
A M
un ic
3 8
Ġ ide
Ġequ ation
Ġim pro
ay er
C O
Ġp ri
v iron
op s
Ġtra ining
4 8
Ġt arget
Ġsol ution
Ġm en
Ġsystem s
/ \
Ġd etail
re et
Ġinv olv
a ut
**** ****
-------- --------
Ġr ate
ĠH er
av y
wid et
Ġf ree
3 6
in ary
Ġconst ant
Ġaver age
Ġrel ations
Ġcons ist
ann el
i ev
Ġf ac
Ġap plic
Ġ( $
Ġf ore
i ef
Ġl ight
Ġl og
and om
pr ime
c ap
ĠAr t
\ [
Ġdif f
oug ht
ĠB ro
Ġbuild ing
ĠC up
Ġp air
Ġsignific ant
I I
sh ip
Ġappro ach
ĠH ouse
S c
ĠD av
ĠA ng
Ġb ase
Ġsup er
Ġatt ack
Ġa ir
ĠP res
Val ue
Ġcol l
Ġcorrespond ing
ug ht
center ing
ĠP ark
p oint
Ġch ange
Ġh owever
Ġd at
an ish
Ġpr im
widet ilde
Ġanal ysis
as ing
ĠO ne
ĠCom p
ab or
ĠL et
ul a
Ġh y
Ġf low
g roup
Ġw ater
ure d
ak en
pl oy
Ġev ents
n ode
Ġparamet er
~ ~
Ġc y
Ġ %
Ġs em
st and
at ural
// //
Ġs ource
ĠĠĠĠĠĠĠĠĠĠĠĠĠĠĠĠ ĠĠĠĠĠĠĠ
rid ge
m ar
fl u
ire ction
op y
{ -
Ġst atic
Ġcal cul
Ġc ases
is c
Ġfe atures
f unction
R e
our s
( $
al t
s cal
Ġle ast
t est
Ġc irc
M od
Ġb usiness
Ġb i
Ġcl aim
} -
Ġin put
oci ation
Ġtem per
I nt
erv ice
" );
re ed
3 7
ĠA ct
C ont
ĠM on
ĠĠĠĠ Ċ
Ġin c
Ġd ied
Ġph ase
ater ial
Ġn orth
199 9
Ġbec ome
Ġhig her
Ġprodu ction
3 9
F ig
ĠIn ternational
==== ====
ab ly
ĠL a
ĠQ u
Ġn eg
in n
w are
d raw
ĠPh il
id ence
Ġf ail
Ġa rm
ĠD ep
Ġd imens
is ing
chi ev
Ġwork s
it ect
Ġav ailable
Ġim age
Ġan t
r im
ac hed
th m
if orn
Ġf requ
ot ed
Ġcount ry
ut il
er a
Ġh aving
Ġl ength
ul es
5 5
Ã Ń
4 4
; \
Ġc er
Ġth us
ĠP er
ĠG l
L iving
ĠA g
tab ular
Ġind ependent
ĠC he
Ġg e
Ġp ract
att le
ro id
du c
Ġgroup s
199 0
Ġ/ **
ĠE q
on se
Ġvill age
ly ing
Ġro und
g l
Ġcondition s
Ġbl ack
iforn ia
u ed
Ġn ov
Ġh ost
r ig
B C
ra in
m ost
Ġann oun
og n
Ġt w
Ġe ither
ĠL em
ĠInd ian
oci ety
) );
ar a
f ile
oy al
ugg est
b b
c ur
Ġg en
fer ence
Ġprodu ced
ĠV al
s w
Ã ¼
Ġind ividual
o on
Ġl oss
0 1
ĠW hen
20 22
âĢ Ķ
Ġcon v
al ax
0 5
199 8
Ġhel p
\ {
b urg
I C
m ap
Ġs on
} +
iv en
ransp ort
z eta
r c
] ;
P eople
Ġcre ated
om b
or ge
Ġg row
Ġlin es
om ent
Ġassoci ated
Ġ& =
Ġn umer
ĠD iv
Ġs ent
u f
ĠEng land
ĠM ich
ĠR iver
Ġab s
Ġline ar
Ġmethod s
ut ure
om orph
i ol
ard s
Ġh istor
Ġs outh
Ġre search
ourn al
n b
ic o
Ġc ell
) =\
h ib
o ch
Ġe ar
Ġk ill
Ġn ode
Ġl ed
am a
b or
Ġestabl ish
ĠThe orem
Ġm er
Ġdevelop ment
land s
Ġre cent
A P
use um
lo ad
b ased
wh ich
Ġse en
Ġbe com
her n
E C
c y
nd er
Ġbel ow
il ter
st ate
ra ction
S et
s in
end ing
ĠCal ifornia
a ff
viron ment
Ġproper ty
Ġh om
4 9
Ex ception
Ġd om
ou ble
Ġg reat
Ġpos itive
H istory
Ġv ector
com p
Ġpro of
Ġs ite
ort s
} ]
ens ion
l ist
get her
Ġto gether
em s
ch an
ran t
Ġreg ular
Ġconst ruct
\ ]
Ġr andom
ib ility
Ġproper ties
Ġf ocus
Ġprov ide
ress ed
k n
Ġsy mmet
Ġf und
} =\
Ġc ult
Ġl abel
Ġa chiev
c le
e h
Ġc ost
ur ity
Ġin s
ĠA c
pl ies
W ith
Ob ject
Ġs uggest
I f
ĠAustral ia
) }\
c her
Ġcommun ity
Ġm illion
Ġg round
m on
rr or
Ġv ia
ĠPart y
d own
) ^{
ec ess
itt ed
itt le
ord in
iv il
{ (
Ġex ec
Ġs m
and er
ĠS ection
Ġdist rict
Ġpl an
ĠS ince
h a
Ġd ynam
c os
D ef
Ġmov ed
$ )
it ch
Ġfin ite
Ġpro posed
Ġc aus
Ġyou ng
Ġsur v
ĠA mer
6 6
Ġb o
min ist
Ġacc ount
L L
k en
pl ied
rib ute
Ġ( )
4 7
ĠSt ring
Ġh alf
Ġsh ip
Ġ// /
199 6
199 7
Ġeng ine
Ġan g
Ġdeath s
am il
Ġl ate
Ġset t
T est
p x
f oot
Ġrequ ire
ĠE ast
Ġcl ust
ĠT r
it z
Ġn ormal
Ġbeh av
Ġme ans
ac y
e ep
Ġl ook
ign ed
I m
ce ed
Ġv ideo
Ġacc ess
ĠW ith
N ew
Ġf ather
Ġm ale
ir t
Ġbro ad
ig en
ĠA ward
. ~
Ġem ploy
loc ation
m y
ĠL ist
read y
s ing
ar ies
Ġelement s
ĠR ev
g color
A t
Ġobserv ed
h an
Ġimp lement
Ġcon c
ult s
ĠO lymp
ell ow
Ġstart ed
ĉ Ċ
ĠCh urch
f rom
}^ \
qu e
Ġre view
il ities
ul ations
cdot s
ap pro
m ing
g en
Ġ ill
Ġt aken
Ġm iss
ĠB er
ag er
ĠInd ia
Ġrequ ired
}_ \
Ġac ross
9 5
v ed
Ġcl ose
Ġsc he
18 7
Ġs old
] .
Ġs ay
v an
em ents
a it
Ġf em
ac hes
nb sp
w ise
idd le
at us
K ey
Q u
ge bra
Ġmult i
Ġexp ected
ind ex
Ġc ame
198 0
ra int
ho od
l s
` `
ĠF irst
lem ma
ĠS im
s mall
Cl ass
g ed
ot a
A d
Ġback ground
ar ning
ĠB ut
ul ated
}\ ,
Ġw ant
} |
Ġconst ruction
Ġs ocial
Ġcou pl
Ġs er
G et
ĠArm y
Ġr at
av es
Ġ! =
Ġdeg ree
cc ording
Ġsur face
a el
c is
Ġb gcolor
ĠB el
Ġfact or
Ġdef ine
Ġqu est
Ġun it
oun ter
Ġrel ated
Ġa ward
m s
ĠFran ce
Ġt re
Ġannoun ced
Ġcon text
Ġd a
ĠR oman
^ +
r ated
I S
Ġprov ided
Ġoffic ial
Ġpolit ical
Ġlang uage
A fter
ort hern
Ġlarg er
Ġin ternational
Ġor g
Ġm em
Ġex ists
ĠC our
Ġcomp ar
Ġd irection
E D
{ {\
Ġp erm
med i
6 7
ott om
ĠAmer ica
Ġcontain s
at rix
ĠA p
ear ch
ĠEurope an
Ġl o
Ġz ero
Ġep is
id ing
}) \
Ġe mb
ribut ions
Ġg alax
Ġreport ed
k ing
ĠP ort
F rom
ĠC ouncil
Ġd est
A ll
ĠCanad a
199 5
Ġw ent
Ġh uman
k ed
q quad
ĠM al
text width
wide hat
ĠR ed
p ly
ĠA nt
ĠPres ident
re c
ic ol
Ġc ode
Ġact iv
p en
Ġf ig
( ).
Ġt rack
end er
um p
it te
d ate
p ath
Ġf ile
Ã ¶
A ss
k y
n ey
Ġpartic ip
iz ing
Ġreturn ed
Ġinter action
ĠH ol
Ġde but
i ation
i ers
Ġf ri
Ġbl ock
Ġdist ance
6 8
at ives
Ġrequ est
0 8
Ġequ ival
Ġperform ed
R ec
ist ics
stit ute
htt p
ic y
ĠTh om
ect s
Ps i
r d
Ġcon fig
Ġatt empt
ber g
Ġb reak
M an
Ġscal e
& =
Ġpred ict
u el
ro te
Ġquant um
Ġpolit ic
i res
b and
c up
Ġd ays
Ġab le
Ġexper iment
y a
Ġsequ ence
Ġbet ter
ĠP aul
Ġbe gin
u ra
}} (
() );
Ġaddition al
ĠR ober
Ġin flu
sk ip
Ġl ik
A A
Ġind ex
ber t
and id
ou d
Ġinvest ig
| |
m ark
F F
ĠM or
Ġf ixed
ĠP al
Ġm aterial
Ġwh ose
R O
x space
ther n
ĠF l
li ke
Ġ: =
ĠG eneral
kn own
ut es
Ġ\ {
ĠM ore
in st
, -
c ell
B l
g ress
ran ch
Ġst ory
Ġpop ular
Ġoper ator
Ġdevelop ed
e an
199 4
Ġstud ents
Ġm aking
Ġg ive
ĠJ ames
Ġfield s
St ate
ĠQ ue
unic ip
Ġprob ability
Ġsim ple
Ġst ep
ĠFig ure
e al
ĠS m
l ink
pro p
ic ro
Ġl iter
}^{ (
Ġev al
per ty
Ġcent ral
qu are
Ġb ody
ou thern
math sf
Ġc r
Ġy our
ĠS um
Ġwork ed
Ġinst ance
e in
Ġsp in
Ġal ready
ust om
eff ic
ect ions
Ġe conom
E n
" ;
Ġm oment
Ġapp oint
) ]
ĠD i
C C
d t
ĠM y
y ear
bs ite
E S
E rror
ĠF rom
p ublic
Ġserv ices
I M
ĠSt ud
Ġarch itect
ess ion
ree k
v ille
r un
199 2
Ġm ilitary
Ġh ard
ag o
L A
oun tain
Ġp ut
. _
al ian
y l
Ġcre ate
N ot
as c
Ġm arried
oc al
m id
Ġcol or
ĠR oyal
ur l
he l
R equ
Ġne igh
ĠGe orge
Ġtemper ature
Ġass ert
ed d
Ġinst ead
Ġ Ð
oc r
5 8
ĠS en
ĠSt reet
ĉĉĉĉ ĉ
sum mary
o e
ind ent
197 0
ic les
Ġintrodu ced
ill s
Ġcon duct
Ġn ever
Ġ$ (\
l ength
}\ \
Ġout put
Ġind ust
Ġclos ed
0 4
Ġanal y
ĠD em
Ġresp onse
ain ed
Ġpres ident
ĠAss ociation
Ġle arning
ri ate
[ '
ap s
Ġacc ording
rac y
Ġmult iple
Ġn atural
Ġra il
ĠR ich
Ġst ars
k a
if orm
Ġjo ined
Ġwork ing
row s
9 8
Ġlead ing
pd f
ĠDiv ision
cit et
199 3
ri an
ĠH all
Ġc apt
ĠB ra
S y
equ iv
0 7
Ġp ress
n ers
m ore
G e
ĠM od
plic it
ribut ed
ĠDav id
Ġd ocument
Ġ Ã
Ġex act
el oc
ĠM a
S e
um ents
Ġare as
Ġf ar
ib rary
ĠGerm any
ĠO b
. </
Ġw rote
Ġal ways
ack age
Ġgra du
A D
Ġdef e
( {\
ens or
Ġche ck
an i
an ies
d ist
er b
Ġs ample
Ġocc ur
Ġr ather
Ġother s
4 6
l a
ĠD ef
Ġassum e
ĠUn ion
Ġdi ag
k er
Ġf lo
Ġrec ogn
Ġar r
, "
0 2
5 7
ro y
Ġus er
r up
Ġm id
st ar
Ġm ag
d imens
Ġn ecess
Ġspec ific
oot h
ĠCh ina
Ġthe refore
ast ic
at ory
E T
Ġed ge
F orm
id a
itt ing
9 7
Ġar ray
n ote
Ġpresent ed
" :
Ġrad io
ash ington
Ġme et
ĠS o
all s
oper at
ĠI m
Ġcol lection
Ġv iol
Ġth ough
ĠD r
Ġ& \
0 3
umn i
as ons
ĠL ou
ut ive
ĠTh us
Ġon ce
0 6
f in
c hed
Ġp ur
ch ange
Ġf uture
on ic
Ġdirect or
T ime
ag ed
port s
} :
Ġbound ary
Ġgiv es
Ġcer tain
ĠSy stem
Ġch urch
ĠLem ma
Ġpr inc
it ar
operat orn
Ġcont ent
n av
ĠAustral ian
' ]
ĠD ev
Ġc ut
Ġbel iev
I s
Ġp arent
ra b
wo od
Ġcont ract
ens ive
Ġh on
4 2
Ġeffect s
comm and
Ġent ire
E qu
Ġcomm and
D e
199 1
g s
Ġof fer
at ively
itte e
ĠD uring
Ġgo al
ar ily
ĠP at
Ġt ry
Ġro ad
' );
operatorn ame
ĠC ont
Ġcent er
Ġme chan
ĠL aw
ĠBl ack
) {
Ġdat as
scal e
Ġsuccess ful
err or
Ġset s
Ġl ost
Ġdom ain
Ġp an
O r
Ġtrans fer
Ġst age
Ġnov el
] $
ĠCour t
Ġa way
al le
ĠG roup
Ġwe ight
O ver
ic ult
a ign
Ġexp ect
Ġsong s
in i
Ġeduc ation
ĠCent er
it ude
n el
Ġequ ations
S P
Ġcol umn
ist ry
ask et
Ġwe ek
u i
Ġcomp lete
Ġt reat
Ġwhe ther
ĠM ark
Ġpart y
Ġinclud es
Ġc ateg
Ġ rac
Ġopen ed
V iew
Ġprofess ional
Ġb en
ĠR ef
Ġsub ject
}} {\
ct or
Ġdirect ed
Ġre ason
Ġv eloc
il i
Ġk m
The re
S I
ĠN or
ĠM ary
.. ..
Ġrele ase
} +\
ĠAc adem
ish ing
l t
Ġval id
umb ers
Ġre v
arian t
ell ing
og le
Ġal though
( ),
Ġal most
iz es
Ġform ed
ugh ter
emb ly
' $
d en
o z
ĠE m
ref er
Ġcomplet ed
at al
Ġteam s
ew ork
Ġ und
Ġpri or
Ġd on
im ate
Ġc andid
) -
Ġtrad ition
es h
st ruct
ip p
L O
E vent
Ġcontinu ed
Ġm ight
ĠN e
Ġhe alth
ĠM ex
Ġt able
ĠM art
5 00
Ġcompon ent
Ġadd ed
9 6
F ile
b oard
Ġto o
4 3
d s
le vel
ar io
ĠPro v
Ġhold s
b ody
Ġden ote
u it
u z
ed ge
Ġcan not
all ed
Ġg as
~ $
Ġbas is
m it
Ġh or
t ic
T R
Ġg rad
n eq
vers e
} -\
Ġqu al
ĠG reen
j s
ĠM usic
w rit
Ġequ al
ĠH en
Ġso ft
Ġrecord ed
Ġchang es
on al
Ġtrans form
h space
om s
o res
Ġp aint
n s
f ill
ĠV ir
"> </
Ġeffect ive
du ction
ĠW ashington
ĠIn stitute
ĠDep artment
umer ate
Ġt en
mod el
T e
ram ework
Ġm ar
Ġdef inition
dis play
Ġmet ric
ĠComp any
Ġcomp ared
0 9
ens us
ĠB ay
Ġ- \
Ġc lear
us ed
F A
Ġen vironment
F ield
ĠR oad
Ġco ordin
Ġstud ies
st on
198 9
Ġbro ther
E lement
8 8
Ġl ive
196 0
ĠS ociety
esc ription
s el
r ast
ĠD on
ines e
en ed
li ament
d ag
Ð °
S ince
no indent
ĠIn ter
Ġwid th
Ġsu ff
Ġ ?
i os
r ide
led ge
Ġwe bsite
4 1
it es
Requ est
Ġsign ed
ou l
= #
A B
ĠAr ch
re y
Ġresp ons
$ }
Ġfr ont
ĠCl ub
5 6
ĠC ath
eder al
U T
T ext
pon ent
c ial
ri a
) }{
Ġc le
ad o
ole an
Ġd one
Ġv ers
Ġconst raint
198 8
Ġup per
h and
k i
Ġt aking
Ð ¾
Ġv ict
h y
ach ing
en umerate
' :
m en
| ^
Ġpart s
Ġrepresent ation
Ġac cept
=" ../../
] \
c an
l ight
ĠG ames
ta ct
n ce
Ġgl obal
ĠI nt
Ġpro p
Ġalbum s
dimens ional
. )
B uild
ĠCanad ian
O S
sp ec
al a
Ġro t
C D
Ġinter p
th at
Ġlarg est
U S
Ġen ough
( -
Ġw rite
enc ies
Ġre n
ans ion
im ents
M L
ĠS ing
Ġp ast
ol it
ĠP ress
ĠKing dom
Ġst re
Ġstr ateg
Ġw ife
ok e
ĠT own
est ival
Ġappe ared
Ġ );
Ġrel ation
Ġra ce
the orem
Ġrem ov
ĠV ol
Ġp ay
item ize
ĠIs land
ĠAfric an
Ġmax imum
Ġfor ce
p ace
b ound
ĠT V
Ġam ount
Ġwe ak
Ġreg ard
Ġcon ver
[ ]
sc r
ĠH istor
Ġincre ase
Ġmagn etic
ĠM iss
asket ball
Ġgener ated
Ġco effic
Ã ¤
Ġac qu
R ep
Ġdirect ly
Ġnot e
Ġact ive
ĠT ra
In fo
c ing
Ġtrans ition
Ġim plies
Ġass ist
ĠS am
Ġim ages
os en
Ġad minist
om ial
Ġoff ice
id s
Ġsmall er
ang le
Ġfound ed
Ġmark et
Ġp ers
Ġdiff icult
ĠC ong
ĠT ur
ict ure
op l
o o
ĠJ ack
) }$
ĠCl ass
Ġcompon ents
F ilm
in put
! --
is es
Ġs ources
Ġelect ed
Ġadd ress
I R
/ *
Ġfollow ed
Ġdem on
Ġear li
ul ly
Ġsub sequ
Ġprov ides
mult icol
ĠWh ile
Ġ/ >
. âĢĿ
Ġstud ied
M S
E ng
l ong
Ġfl u
vers ion
Ġm other
ov ers
Ġeff ic
ĠM et
el ine
Ġn uc
Ġmod ern
Ġfootball ers
ĠM ont
+ +
M A
ĠB est
ic on
ag s
Ġtyp es
Ġc e
ect ors
htt ps
v space
ffic ient
Ġc ast
ing u
h i
multicol umn
on a
ĠCent ral
198 7
Ġproblem s
Ġdesign ed
Ġal gebra
Ġcomp anies
7 7
Ġn ames
5 9
s plit
ĠAng el
Ġev olution
Ġp eak
ĠRober t
Ġmed ia
au ge
ĠJapan ese
ad a
Ġbecom es
A nd
Ġup on
un t
ous ly
ĠA lex
appro x
ĠC ons
he st
ac c
P ath
=" +
Ġad j
Ġappoint ed
Ġb ar
Ġrest rict
Ġus ually
Ġconst it
ru le
sh ire
r ate
enc ed
ĠG o
Ġrelations hip
ww w
Ġdisc over
x y
Ġwh ite
ĠAcadem y
Ġle arn
Ġse lected
P S
Ġs ound
A dd
\ ,\
ĠĠĠĠĠĠĠĠ ĠĠ
at form
Ġits elf
ĠM ad
Ġch annel
b our
bl ock
ĠThom as
us ing
Ġopt im
Ġle ague
Ġb ox
Ġt ask
ĠW il
Ġdiffer ence
Ġphys ical
ol ar
d ec
ĠC ap
Ġap plied
ĠRec ords
Ġsol utions
ĠAfric a
ĠT ex
en a
Ġelect ron
ĠRuss ian
ĠU K
Ġun its
omorph ism
tr ue
r ish
Ġex hib
N ode
Ġloc ation
d o
Ġst ri
}} _
ap i
ĠM useum
5 4
it ing
Ġd ouble
Ġe ight
Ġse arch
198 6
Ġe ast
V ert
U R
P i
Ġschool s
Com p
M ap
Ġprov e
Ġd raw
Ġhim self
amil ton
C H
ac ing
/ **
ĠL eg
k m
Ġmat ter
Ġs om
Ġus es
r as
Ġy ield
ĠG rand
Ġinvolv ed
ch o
Ġmon ths
Ġbir th
Ġag re
R eg
Ġh tt
Ġstruct ures
ĠG old
Ġsc en
ĠS l
if ier
ĠR ail
}} }
Ġobject s
Ġspect rum
Ġd omin
Ġal umni
u an
et urn
ac her
C T
Ġsupport ed
Ġm ove
Ġn umbers
Ġincre asing
ĠR ad
Ġh ous
r s
ra el
ĠIt alian
w est
Ġa ud
clus ion
Ġdef ault
Ġthrough out
ob ject
198 4
is ions
ĠC O
us p
Ġne ut
iz ations
Ġw est
Ġs ens
ant ic
ĠRep ublic
ĠE ar
ict or
overn or
A tt
ĠG reat
am ily
Ġt er
p c
ĠW estern
ĠSum mer
Ġro ck
Ġ esp
Ġh app
ĠĠĠĠĠĠĠĠ ĠĠĠĠ
ar ter
ĠSc ott
ĠZ eal
5 1
5 2
Ġorig in
Ġt akes
O T
Ġdec l
Con fig
Ġveloc ity
th let
ac ity
} /
in ct
S ec
T r
qu ot
ir m
Ġad apt
ĠOlymp ics
Ġunder stand
ĠM at
Ð µ
ĠJ ew
Ġ/ *
ec ially
ĠS al
Ġb order
Ġfor ces
t ra
8 7
ĠY ear
ĠVir gin
\ }$
Ġ\ ;
Ġun ique
ĠChrist ian
ĠZeal and
ĠThe refore
Ġallow ed
Ġplay ing
ĠD o
ĠF ilm
am s
Ex p
Con text
Ġright s
Ġl iving
Ġad opt
ect ive
pt ions
Ġcurrent ly
Ġsign al
P r
n es
N N
ar ing
ran ge
y ing
Ġb oard
Ġch all
Ġcamp aign
Ġm ention
198 5
Ġpol icy
ĠL and
t urb
Ġw ords
w ell
oc ks
ĠM ag
Ġthe orem
Ġcrit ical
S up
Ġf ire
Ġgu itar
Ġde al
& &
Ġreg ions
us ion
osp ital
Ġrepresent ed
E E
ĠChar les
math scr
ab s
ĠF ootball
S ervice
re land
Ind ex
ĠLou is
Ġj ud
{ }
ĠS aint
Ġvari ables
Ġcour t
Ġoper ations
Ġrat io
ĠMin ister
ĠT able
ed y
Ġrepl aced
ĠMich ael
Ġk eep
6 3
Ġdec re
Ġprevious ly
irc raft
A p
text tt
Ġf av
it a
d i
in os
p ing
w ord
O ut
Ġgo ing
6 9
Ġclass ical
Ġt ransport
g ing
Ġset ting
() )
pl ate
Ġl ay
us er
Ġe igen
Ġprim ary
Ġun ivers
Ġg ave
un k
b ook
line ar
g ence
Ġestim ate
g t
Ġst ated
P T
erv e
b o
r ame
Ġd ram
is ation
Ġrel ative
Ġda ughter
Ġrel ig
Ġ ess
^ -
w in
Ġout side
Ġ Â
Ġquest ion
az ine
v oid
Ġsp eed
Ar ray
ol f
g ent
5 3
Ġt ro
ec k
Ġre ve
Ġcom e
Ġ },
Ġs il
ĠN ot
re p
ĠM er
ĠM ac
ĠĠĠĠĠĠĠĠĠĠĠĠĠĠĠĠ ĠĠĠĠĠĠĠĠĠĠĠ
Ġ row
f lo
ollow ing
In st
Ġbehav ior
Ġf ight
ĠCar ol
) +
Ġcour se
ĠK ore
ĠTex as
Ġ\ |
con fig
ĠWh ite
ĠCh inese
Ġp e
un ity
d ev
or ing
Ġdeterm ined
Ġd ate
g rad
ĠT rans
Ġor d
ĠTh at
duc ation
is k
Ġallow s
Ġpat tern
ol s
Ġconn ected
Ġth ink
Ġ _{
W h
Ġde ep
O ne
Ġoper ation
Ġm akes
Ġill ust
ic ation
ĠS ub
is l
Ġal tern
us ical
aus s
ian t
ain s
Ġb ig
ĠP et
ap ache
E nd
con n
198 3
Ġrema ins
Ġpl aces
Ġl ittle
ĠCath olic
Ġlist ed
Ġepis ode
Ġequival ent
Ġdetail s
ĠT om
Ġto wards
Ġv er
i ences
Ġm ix
I G
Ġst op
Ġa x
Ġl atter
ĠS ur
l n
ĠN ote
app ing
v is
I ON
ri ef
u a
6 2
m d
Ġco ach
art s
as tern
ĠL at
Ġst ations
ĠĠĠ Ċ
i ra
O f
ar c
Ġj ournal
du ced
Ġcon clud
Ġbuild ings
p ng
f low
8 5
at re
n ames
6 1
Ġs eg
Ġcount ries
Ġdis play
S ub
id ents
alle l
Ġresult ing
n y
Ġcorre ct
Ġ( !
od ing
n et
ot ic
Ġbook s
Ġmed al
Ġpre c
erm an
ĠB ook
ro s
ro ad
ef ore
" "
b a
198 2
S ize
F C
ĠT or
Ġge omet
Ġacc om
195 0
T rans
b ul
ĠSec ond
Ġd am
Ġdemon str
Ġt rac
a ur
The ta
Ġto urn
Ġesp ecially
' ;
Ġt ree
Ġse ven
ag ing
ĠS ome
Ġr ule
ĠD an
N ote
Ġinst it
b t
p an
ĠD irect
Ġfrequ ency
T able
ĠSc ience
Ġro b
Ġ ir
a res
che ck
Ġeval u
z il
ify ing
pr int
Ġin sp
ĠJ ose
irt ual
Ġm unicip
Ġiss ue
B A
ĠPar is
f ess
he ight
Ġimp act
Ġfin ished
Ġdimens ion
air s
Ġk ind
Ð ¸
ub e
et her
Ġim medi
Ġorig inally
## ##
S C
Com m
Ġf it
rup t
s u
re me
ĠG od
Ġevent ually
Ġ( "
In ter
G roup
Ġp age
The n
Ġkill ed
Ġcho ice
ip s
t ical
ĠH amilton
Ġcon cept
res ult
Ġtra vel
}^{ -
Ġ-- >
H and
Ġrun ning
Ġto ur
ĠP o
Ġexp and
ar p
Ġit er
Ġgener ally
W hen
197 9
ĠDem ocr
Ġchar ge
Ġcharact ers
Ġc ivil
ĠB en
Ġg auge
ĠFran cis
ĠB ill
id ae
Ġw ord
ĠO ther
F L
subset eq
ĠA ccording
ĠD ay
n orm
om a
Ġlik ely
Ġ} );
] [
Ġstat us
Ġbel ong
Ġart ists
Ġfem ale
Ġext ended
< \
ĠSp ec
ĠF lor
big g
Ġf all
Ġexp ression
ok en
ma in
Ġiss ues
att ice
Ġclass es
il ed
w ar
Ġm ach
ĠSm ith
00 00
M P
pro d
ri al
ĠG ra
T E
yn omial
Ġpro ced
Ġan im
Ġw ave
re ater
ar r
N o
min us
ĠF ound
Mod el
b ase
ĠSp anish
7 8
Ġapplic ation
av al
\ '
Ġdec ision
Ġad m
ĠM ass
t itle
yn c
198 1
Ġlim ited
Ġre ached
ov iet
Ġt it
ĠSup er
ĠP eter
ish op
ĠS er
pl ace
Ġt ax
S U
Ġocc up
ĠH istory
ĠF ore
Ġder iv
ock ey
z a
Ġun iform
Ġgalax ies
} '
Ġrefer ence
text rm
Ġmod e
Ġin j
Ġder ived
ann ing
Ġv oc
Ġapproxim ately
t em
Ġw indow
//// ////
Ġmiss ing
Ġtrans l
Ġsu fficient
Ġj ob
pro t
under line
Ġ$\ {
plic ation
Ġd ed
Ġfl ux
Ġch arg
or age
ĠRich ard
ot o
omet imes
ĠW ork
ĠB o
Ġobserv ations
{ $
inal s
( (
ĠM el
Ġlead ers
an o
Ġvari able
ĠG et
m et
E d
Ġmain tain
ab ase
ĠO ff
ĠFran k
m ethod
Ġd rop
al o
=" #
ut ch
cur rent
Ġcons ists
ic ago
Ġrun s
ad es
C ode
Ġsc ore
ĠL os
foot note
Ġs en
ĠD el
U LL
ell ar
or ial
Ġsh all
ĠV ictor
c el
Ġwrit ing
Ġappe ars
Ġim m
Ġpol ice
Ġinteg ral
ĠI reland
_ +
Ġhig hest
Ġun cer
Ġneed ed
ta int
c ase
ĠT est
Ġexp ress
ĠGe org
aramet er
ĠJ ust
Ġfri end
cre te
Ġaut om
Ġfour th
ĠA pp
ric es
Ġ er
ell a
sh ift
Ġsy mbol
Ġinterp ret
roll er
Ġhe ight
ĠL ake
Ġlong er
uff er
r ont
Ġb ur
ĠP ublic
if old
******** ********
Ġpres ence
ol k
}} _{
Ġoper ators
Ġ( $\
ĠRes earch
Ġover all
ĠIs rael
Ġg old
Ġpr int
Ġgra v
Ġem ission
Ġex cept
Ġwrit er
Ġs af
d et
ĠR ob
pt y
i h
b uild
Ġstre ng
por ary
Ġwho le
Ġe mer
Ġev idence
F irst
anc ial
B ar
ĠP ri
Ġrema ined
197 8
Ġbeh ind
ĠD es
Ġpl aced
Ġneg ative
ass ert
197 6
197 2
Ġpolitic ian
Ġcomp act
C ell
ĠComm ission
Ġ$ |
Ġfam il
Ġpract ice
Ġper cent
Ġform s
d ro
C ount
8 9
c a
Ġex plicit
ap ter
Ġearli er
Ġnecess ary
M essage
Ä ģ
k et
ill a
Ġredu ced
ĠHen ry
Ġsm ooth
i as
Ġexp ansion
Ġb all
Ġhe nce
Ġfig ure
is her
dag ger
ig an
y r
ĠH ill
Ġn ight
ĠM il
ĠP enn
c ount
st ant
Ġth ought
as hed
ĠC amp
ric e
in it
Ġaward ed
Ġchang ed
Ġd ark
iz er
Ġd ig
S im
Ġapp ly
ir al
Ġpl ant
ind er
ĠO ut
ĠFor ce
Ġstart ing
h as
s m
ĠW omen
197 4
Ġch osen
b on
Ġa ircraft
Ġtra in
S O
Ġno ise
}} ,
y e
Ġsim ply
Ġv eh
Ġsymmet ry
L e
197 5
ĠVirgin ia
ann ed
ĠR ock
Ġcontinu ous
E arly
a ud
mer cial
Ġform ation
Ġm essage
Ġb ring
Ġbegin ning
Ġfamil ies
t es
U N
back ground
197 7
Ġdiag ram
ĠD u
Ġfeature d
u racy
Ġst aff
ĠP an
il s
ĠT er
o ice
in fo
und le
Ġs aw
ĠTe chn
Ġ$ -
Ã ¨
ou ri
Ġestablish ments
Ġav oid
Ġsc ient
Ġcompet ition
opl us
mp ire
Ġhy per
Ġart ist
L og
Ġsche me
Ġcur ve
ĠS un
Ġs ex
P C
ĠS ervice
def ault
S er
r at
set minus
ĠOr der
Ġlevel s
Ġcap ital
; "
ist an
Ġdiscuss ed
Ġc ustom
ĠSw ed
Ġestim ated
ell s
ffic ial
l ay
M C
cl es
e es
cre ate
T V
el t
en ing
Sp ec
iqu es
Ġsc reen
d r
O D
9 4
as ks
Ġnot ed
ĠE v
m es
ĠIt s
ir l
un ch
Ġopt ions
Ġs ense
it i
Ġin equ
ĠS et
Ġpartic les
Ġvol ume
P E
Ġdesc ription
ĠD en
C o
oc ation
in y
Ġrema ining
er ia
Ġneigh bor
Man ager
ec ause
ret ary
Ġclust er
ĠB ur
vent ion
Ġcrit ic
P I
Ġd u
196 8
ud d
âĢ ľ
ĠMex ico
Ġbroad cast
Ġm arg
Ġmot ion
Ġn ature
ĠChampionship s
Ġl ack
h ost
Ġknow ledge
ian ce
ic ense
^{ -\
Ġj ava
Ġc red
Ġdatas et
lang uage
ĠM us
ĠCong ress
Ġon line
val id
ri z
Ġs ch
Ġl ayer
Ġpartic le
B S
Ġsc atter
Ġ= ==
Sy stem
includ e
ut y
197 3
act ive
ul s
Ġw ide
oy s
Ġbound ed
Ġide a
are er
Ġcol lege
l am
empt y
9 3
ĠAl though
v ant
B e
Ġe ver
a o
IN G
and s
in em
N otes
ĠComm ittee
Ġst ream
Ã³ n
Ġpre m
Ġincre ased
w edge
\ }
ot ion
Ġpol ynomial
arian ce
ĠC ast
line width
abl ed
al ed
Ġh yp
] (
ug by
g g
Ġindust ry
Ġlead s
Ġc ounter
st ream
Ġhouse hold
ĠAt l
Ġvert ex
G L
Ġthe rm
ĠIt aly
Ġsc ored
T D
_{ (
li ent
Ġcont ribution
Ġ ens
C E
) |
Ġent er
Ġl oad
ĠAr ts
Ġse lect
ĠC D
we ight
ĠC re
ĠM o
Ġsing er
Ġin side
ol a
i pl
Ġplay s
9 2
ĠSc ot
ev ent
Ġread ing
j o
Ġin cor
Ġconn ection
Ġtourn ament
Ġr ules
A G
Ġperson al
p age
ĠCh icago
Ġexper iments
Ġse lection
ĠB rown
ĠT wo
* {
Ġn odes
pon se
ĠH ow
oc ol
ĠN avy
="../../ ../../
N S
8 6
Ð ½
ĠAngel es
rop y
c ond
Ġran k
idd en
Ġmean ing
= '
Ġ$ [
197 1
3 00
It em
Ġdec ided
ĠG overnment
Ġs amples
Ġsh ape
Ġmem ory
= {
at ur
Ġmin imum
E nt
Ġmin or
F urther
Ġsc ience
Ġb asketball
Ġar bit
Ġmap s
Ġsy n
ult ure
ĠO per
Ġagre ement
res ents
Ġn orm
Ġrec over
ian o
Ġmechan ism
C an
7 2
Ġche m
th ing
Ġn omin
l oy
Ġcol lect
Ġf raction
Ġliter ature
Ġf ramework
un s
i en
p ass
el er
ĠFlor ida
Ġapproxim ation
Ġben ef
Ġmov ement
Col or
ĠI ll
Ġra p
$ _
align ed
Ġst ra
il arly
Ġ_ _
Ġform ula
Ġa im
sel ves
Ġs quare
az z
Ġdest roy
Ġ esc
> &
Ä ĩ
m ission
194 0
ĠC ur
j ava
) /
is hes
Ġ( -
Ġa uth
Ġy et
196 9
M ed
os m
Ġconc ern
Ch ar
c ore
g ra
Ġant i
Ġemb edd
sk i
Ġin ternal
ĠF re
ĠK n
Eng lish
k o
Ġc op
Ġh ol
in ite
F T
Ġdescrib e
ch ild
lim its
act ory
auss ian
194 5
ĠD is
Ġpl ane
ĉĉĉĉ ĉĉ
Ġfr ame
g u
Ġmat ches
it ors
ren ce
ĠK h
Ġan c
_{ {\
ef ul
ĠF urther
Ġs low
ĠO ur
Ġf ill
st art
Ġcons erv
Ġh it
ĠU nder
rel ated
Ġsp ort
Ġcon sequ
Ġt im
Ġgrow th
col on
Ġsol id
Ġlead er
A pp
Ġp en
Ġtradition al
st ra
ent al
et te
sub figure
Ġun ion
Ġprodu ce
, âĢĿ
Ñ Ĥ
Ġrad ius
Ġb re
he m
Ġdynam ics
Ġsub set
_{ -
Ġcaus ed
Ġconstruct ed
Ġg ot
Ġwrit ers
Ġper turb
A ct
ĠF estival
Ġbro ught
Ġsh ift
r ich
Ġvari ety
\! \!
), \
Ġf if
Ġpress ure
Ġh ot
8 4
)\ ,
st ack
Ġg rand
im a
ian a
Ġex amples
re es
Ġqu ality
Ġcult ure
Ġparticular ly
9 1
S he
ab it
Ġc it
Ġcont rast
Ġcontin ue
Ġbl ue
mod ule
Ġmeasure d
ut ed
Ġf ully
$ (
Ġcoupl ing
at o
i ro
st atic
ĠK ar
def ine
196 7
ol ve
B ack
Ġs usp
col umn
Ġact ress
ĠO pen
k in
and a
Ġorgan ization
ĠP e
N et
tain er
7 6
Ġb ranch
Ġmon th
f e
Ġext ension
Ġdeterm ine
ev e
Ġnumer ical
4 00
ubl ican
_ *
Ġmon ey
ĠAss embly
Ġatt ention
ĠH ere
iv ial
n ormal
19 30
Ġfor ward
ĠRuss ia
Ġprof ile
cont ent
ĠProv ince
le ase
con s
Ġs rc
ul ed
ĠPar liament
or a
an ks
P R
f irst
Ġint ers
Ġarg ument
Ġpan el
fl ict
def inition
Ġcompar ison
se ud
at riate
rick et
ĠR em
Ġact or
Ġf ood
om ic
we b
Qu ery
ar ks
~ $\
olv ed
or al
Ġmanag ement
Ġf ace
Ġsl ight
Å į
Ġtrad e
P er
Ġvoc als
ch ar
Ġhe avy
D ec
196 4
sy l
Ġexper ience
Ġnetwork s
van ia
os ing
ĠAn n
ĠL ie
Ġ} ;
con text
) {\
======== ========
ann er
v ey
M ethod
O ther
ĠSp ace
ĠBra zil
Ġexp on
ic ated
uf act
Ġexist ing
Ġso on
ĠCarol ina
ect ing
Ġp urch
re al
ill er
om y
text sc
Ġb ank
Ġpol ar
Ġdiv ision
Ġident ity
ĠS oviet
Ġart icle
ern el
ĠW ales
b in
ĠII I
ĠĠĠĠĠĠĠĠĠĠĠĠĠĠĠĠ Ġ
Ġsp at
ĠSt ar
Ġpl atform
Ġmoment um
anc y
Ġ ~
ĠF in
Ġpass ed
ĠB r
Ġact ually
ction s
Ġwin ning
oll ary
P erson
ĠF orm
Ġst e
Ġuncer taint
ir ing
str ong
ĠO h
g ener
res hold
Ġspect ral
ĠPro position
Ġstud ent
Ġm ur
Ġimpro v
Ġsur round
Ġcon tact
Ġequ ip
unc hed
ĠHistor ic
ir it
Ġrep resents
ak er
C all
Ġl ove
m ann
C areer
Ġl attice
Ġelect ric
bl ack
elop ment
ĠM ount
eth ing
Ġe arn
it able
ĠReg ister
---------------- ----------------
ĠA wards
Ġs ometimes
ie ce
M ar
Ġ }\
reed om
Ġinflu ence
: \
Ġ| \
Ġexist ence
ĠT ime
val ues
ĠS eries
n ext
8 2
ell ed
Ġre pe
ad ium
B ut
ribut es
8 3
Ġv an
loc al
the n
Ġw ind
Ġdec om
I P
d eg
Ġrequ ires
re a
al i
Ġf arm
196 5
Ġam plit
Ġrepl ace
ĠF e
D uring
Ġmanag er
ĠL u
ĠB oard
Ġman ufact
Ñ Ģ
w an
Ġcom es
ĠD ec
Ġn il
= (
est s
em ic
ĠV er
Ġse asons
Ġc ore
Ġform at
Ġexperiment al
k l
Ġsim ulations
v a
Ġconfig uration
E q
an ced
Ġdis s
Ġro ute
ĠS il
Ġnew s
Ġac adem
Ġfail ed
Ġc a
N ow
Ġb rief
Ġeas ily
Ġproduct s
Ġprocess es
j a
Ġg rant
Film s
Ġneed s
im age
Ġmention ed
ap ers
Ġrail way
or ation
en ge
,\ ,
196 6
Ex t
Ġident ified
ĠO ver
os h
he mat
ĠH el
Ġrecent ly
Ġd ual
Res ult
Ġqu ick
ip al
ĠJose ph
Ġacc uracy
Ġopt imal
Ġj oint
Ġfact ors
Ġth row
Ġl at
8 1
Ġcontain ing
A b
I L
av en
ev en
Ġsim pl
ĠM ur
Ġ ult
go ogle
Ġmajor ity
Ġhigh ly
\ _
G B
Ġsatisf ies
Ġdist inct
in f
19 20
ag ement
Ġas p
) }(
ĠFound ation
ĠE mpire
Ġp ark
un ct
Ġconsist ent
Ġc ause
Ġsepar ate
Ġcateg ory
ĠM ost
Ġcoll abor
for ce
Ġatt ended
b an
ĠO l
Ġpr ison
end ix
ĠT our
Ġw oman
Ġmeasure ments
rodu ction
Ġsp ent
Ġvert ices
p ackage
Ġpo et
all ery
Ġprogram s
Ġre li
Ġc ensus
ers ey
D is
d b
' \
Ġarchitect ure
Ġce le
Ġ ...
Ġm iddle
Ġto day
ex ample
ĠH ence
Ġapplic ations
ĠNew s
os c
ans as
Ġch ampionship
Ġed ition
ĠI rish
ell i
u ge
syl vania
b ottom
ĠL iber
Ġfin ally
Ġsurv ey
Ġres olution
}} (\
7 3
Ġstud io
ĠâĢ ĺ
ib li
Ġn orthern
g n
Ġc opy
Ġs outhern
Ġdec ay
H owever
pt on
ĠMart in
ĠO ld
Ġcorrespond s
Ġappear ance
EN T
Ġf a
7 4
; &
sub subsection
c ss
Ġleg al
Ġcandid ate
Ġsh ot
ĠCol umb
Ġsoft ware
] )
\ "
f alse
7 9
F e
Ġf ast
as ion
ĠG r
. $
Ġph il
hes is
Ġc arried
Ġcho ose
$ ^{-
ĠL y
Ġprodu cer
stit ution
Ġinitial ly
R ead
w a
M M
Con n
ĠN ULL
Ġb ul
Ġr iver
= -
Ġmed ical
g reg
ĠHe alth
il er
ro t
ob ile
lo od
Ġgo als
C re
ĠH on
z ero
' _
Pro perty
ul ate
ĠYou ng
l ib
ĠB ase
Ġcalcul ated
ov a
Ġf ilter
Ġo ption
Ġb al
Ġcomp ute
Ã §
d oc
Ġend ed
Ġactiv ities
) _{
C A
Ġ\ (
l ig
am m
Ġus eful
) ^{\
ee k
ĠN orthern
Ġco ast
t rack
ĠT imes
Res ponse
Ġm icro
og ue
ĠA rab
Ġk ing
per p
ĠE ducation
N e
Ġbas ic
Ġcent re
Ġcon sum
P op
g raph
ĠP ac
ĠL ong
I V
Ġcon cent
.~ (\
aramet ers
Ġsec urity
Ġtechn ology
if ically
I F
Ġh ours
Ġon es
Ġre ach
Ġess ential
Ġsup p
f ree
Ġis land
Ġed ges
P art
Ġ+ \
Ġcon vert
Ġsit uation
Ġgen us
ĠW ood
ĠĠĠĠĠĠĠĠ ĠĠĠĠĠĠ
Ġsh are
sp eople
Ġcom ment
C he
Ġclass ification
Ġm usical
; </
ĠG al
J ohn
ĠS ir
et ime
Ġproced ure
Ġwh om
k ins
amp ion
Ġeconom ic
D F
Ġb ool
it ter
Ġnew sp
O per
ĠL ine
Ġrefer red
Ġinter view
Ġthem selves
Ġsem i
( {
ĠN ow
for all
ven ue
Ġcont ributions
ĠAl so
Ġed itor
ĠB ig
ĠF ort
at i
ĠB as
Ġtreat ment
on ly
C lient
b i
Ġent ry
Ġm ole
Ġfe ed
Ġassum ption
Ġcom mercial
s ime
st ein
in ity
Ġmost ly
}$ -
sime q
F l
ĠEng ine
{ $\
Ġsp orts
y mmet
al g
Ġfin ancial
ĠMore over
Ġcorre lation
ĠSp ain
l en
Ġform al
Ġerr ors
Ġconstraint s
ib ly
ĠG reek
Ġ ]
P re
7 1
r ons
ĠS k
ĠL ove
L ine
ĠU p
ith ub
} %
à ¤
ot ype
H ere
Ġdefe ated
ĠH aw
bul let
Ġopen ing
ĠF ield
Ġ ;
O M
> (
C S
Ġex am
Over ride
ĠS ocial
Ġstat ement
Ġs n
Ġter rit
Ġun known
ym pt
ĠM ax
Ġmain ly
od er
y les
Ġg reater
C P
ak a
ĠC ross
ĠIn c
Ġsignificant ly
id ers
ult ural
Ġcoeffic ients
ri p
H T
y an
ĠB ob
Ġassum ed
Ġpre vent
Ġsing les
ĠPenn sylvania
196 2
Ġnear ly
Ġte acher
aw a
Ġmod ule
Ġm ission
ĠL ee
196 3
Ġ&= &
Ġs ays
h ouse
ĠL ife
ĠT w
=" ../
b reak
Ġsp aces
Build er
Ġtyp ically
Ġst d
e lement
Ġs plit
f unc
B ox
ad y
z y
E M
Ġp ack
il ib
Ġde b
ĠJ ac
Ġch ief
Ġcomm ission
Ġla unched
C ur
Ġch ain
Ġdet ection
op en
ĠCh ief
Ġf ix
arri age
$ $\
d ir
if fer
st ract
as i
og ene
Ġsum mer
Ġstra ight
Ġar rang
Ġcomb ined
Ġpos itions
ĠW al
d im
ran ts
Ġappro p
E X
roll ed
Ġchall eng
Ġext ra
Ġus ers
Ġdis k
B ase
Ġremov ed
ĠPro fess
Ġw ood
ri um
Ġact ivity
Ġdepend s
f ect
Ġstrateg y
ing er
Ñ ģ
Ġdes p
Ġst eps
h om
194 4
Ġang le
Ġpl ot
epend ence
in et
Ġdis e
ĠCon n
ĠĠĠĠĠĠĠĠĠĠĠĠĠĠĠĠ ĠĠĠĠĠĠĠĠĠĠĠĠĠĠĠ
$ ).
ust er
Ġre b
Ġag ent
Ġinequ ality
Ġincor por
ĠR o
ser ver
u ations
) ^{-
ter m
Ġother wise
Ġoffic er
Ġtechn iques
Ġa mb
ĠB ank
Ġt ensor
ĠC am
Ġimmedi ately
Ġro om
Ġor b
Ġmag azine
names pace
action s
ĠJ o
res h
Ġcomplet ely
Ġth reat
Res ults
ent h
Ġsim ulation
f ont
eg er
Ġrele vant
j i
Ġown ed
Ġrel atively
Ġinterest ing
ĠUn ivers
AT E
c all
i ography
Ġden otes
c ases
ĠH ot
Ġscal ar
sy ch
Ġprop ag
U ser
Ġg reen
us band
Ġcur ves
Ġconf ir
un ior
out e
Ġr ates
air man
k es
ĠE r
Ġhtt p
i ency
Ġro ot
pro cess
St yle
Ġmin im
t x
ab ilities
ow ers
Ġm ixed
Ġpo or
ĠB attle
ost on
Ġpair s
Ġnumer ous
a a
g ithub
ot al
ĠTe am
St ream
Ġincre ases
Ġauth ors
ĠI ran
Ġdist ributions
ist ers
ĠE nd
mat rix
Ġgener ation
u ages
et ts
Ġdram a
Ġp ick
ĠP ost
In put
m as
ĠJ er
}^ *
Ġext ract
ĠR el
Ġdis p
s ur
Ġin n
n ull
c f
st o
ĠU k
ĠVal ley
r ical
Ġdist ributed
ĠDirect or
Ġf un
ament al
Ġqu ite
Ġfore st
Ġv ac
c s
Ġl ived
Ġb attle
H ead
it ation
M ore
Ð¾ Ð
Ġth ings
Ġbecom ing
O ff
A m
Ġprot ected
N A
ric s
Ġmin utes
Ġcap acity
Ġm aster
Ġvis ual
Ġ util
ĠL in
li e
ĠJ im
Ġrecord s
L S
Ġmod es
Ġp refer
n am
Ġcar ry
Ġinv ariant
esp ite
Ġin ner
ĠT im
d x
Ġent ered
196 1
i y
r ative
c ome
Ġre ally
em porary
Ġst ay
ig ation
per ties
ers e
opt ions
W ork
ic ity
ĠC amb
Ġthe ore
Ġlin k
Ġaction s
ĠP re
T H
est ed
Ġet c
ĠJ ud
Ġan sw
sk y
Ġfl at
ĠA tt
ind ing
Ġarm y
Ġshow ed
L P
Ġc orn
ol t
che n
ĠB ul
" ),
cont in
ĠC ivil
d ep
pm atrix
ĠSt ep
Ġsen ior
Ġsp read
ol y
e ks
A ust
so ft
S ource
Ġcommun ities
Ġappro aches
Ġmeet ing
Ġexact ly
qu ery
Ġext ends
c d
ĠP eople
Ġc ard
Ġh um
ĠS outhern
now led
Ġredu ce
ĠG en
ĠPl ay
Ġst ellar
Ġspec ified
Ġ= \
in ner
S w
Ġdr um
Ġr ing
f inal
Ġmov ing
Ġt or
rad e
ail y
Ġold er
ot ing
Ġcomb ination
ĠBrit ain
Ġcompos ed
p o
ar ant
Im age
Ġqu ad
Ġabs or
ĠF ri
Ġrespons ible
b ury
Ġbe g
)\ \
Ġcomput er
Ġsing ular
}} ^
ĠS ee
h ar
Ġintrodu ce
or ter
Ġindividual s
Ġb ottom
pro b
ell ig
Ġpol y
ĠR am
Ġor ient
194 2
sy stem
r or
Ġst able
Ġhor iz
Ġdepend ence
ach us
L T
ĠRad io
Ġfore ign
ĠJ ournal
l ad
Ġd ou
ĠP ak
ĠDemocr atic
H z
ĠO f
Ġsom ething
Ġspect ra
ĠEar th
A ccording
O ur
et ween
Ġpro gress
Ġf il
195 6
Ġm ut
R A
Ġreg ime
Ġres ource
Ġeas y
Ġpur pose
Ġle ave
ang er
el a
enn is
ĠL i
Y ear
display style
p ost
r l
Ġalgorithm s
ĠE ach
Ġb us
Ġbe y
omorph ic
Ġl ot
P ar
ĠO x
im in
Ġab ility
Ġfootball er
195 8
Ġcount y
ar ia
Ġf ederal
Ġit em
ĠF C
ĠC E
) }{\
en ame
ĠM r
Ġs ampl
ino is
a ver
Ġprov ed
Ġachiev ed
ĠH y
195 9
Ġann ual
ĠM en
il ation
Ġfor ced
gy pt
S D
Ġsp eak
Ġimpro ve
Ġcell s
Ġcl ient
ay a
Ġexp ressed
ĠL ord
ĠS ong
ific ations
A ction
ĠL ibrary
Ġc ru
" ).
Ġup date
Ġmach ine
194 8
burg h
new command
Ġfe el
Ġrelig ious
ann els
Ġup d
Ġse a
Ġv s
ĠOh io
Ġslight ly
ĠS ar
P os
Ġre comm
pos es
Ġbey ond
Fig ure
Ġst ore
Ġqu arter
U til
U E
ĠM em
Ġarbit rary
m ember
~~ ~~
ĠR h
Ġcomput ed
Ġact ual
ud es
Ġw alk
n eg
d l
ĠMich igan
Ġpres erv
^{ +
ĠCar l
{ {
act er
Ġc am
fin ished
Ġt un
Ġcal c
ĠAs ian
od ot
Ġh usband
ĠRep ublican
Ġelection s
Ġdep artment
ĠThe ir
ĠScot land
achus etts
} )$.
195 7
Ġrema in
ĠD utch
Ġop port
a fter
Ġinteraction s
R un
Ġspat ial
Ġc ry
ed s
ĠH ig
Ġhistor ical
ad or
Ġreg ister
1 000
G C
Å ¡
ĠJ ersey
Ġclaim ed
R el
M embers
Ġocc urs
Th us
) </
ĠJ an
ur t
Ġh arm
ĠS ol
R I
ĠOff ice
ĠCon ference
Ġl ies
D ate
Ġparent s
194 3
Ġto ld
m ond
ĠN etwork
Ġgener ate
W indow
193 9
Ġinteg er
Ġgalax y
Ġb ass
Ġ ensure
ĠEd ward
ĠPol and
ist ical
mult i
Ġra ised
ag raph
ad ow
en ant
Ġserv e
ĠJ ones
Ġpro min
Ġwe eks
ĠAs ia
Ġdes cent
Ġvict ory
Ġsit es
Ġn ative
ĠT op
Ġseg ment
Ġb it
at ers
Ġth reshold
s rc
ĠK ent
A ut
Ġtra ined
wh ile
Ġopt ical
ibli ography
Ġn ation
and roid
ult y
ĠT em
Ġex change
ic ks
ĠM ajor
Ġoper ated
il a
Ġstreng th
' }
194 1
Ġsymmet ric
Ġstat istics
ef t
Ġr isk
r ong
ir ls
P P
ĠS ta
ĠRep resent
F I
N ational
Ġadv ant
os oph
ĠB oth
i Äĩ
Ġar rest
cl os
l ock
)$ -
tain ment
Ġpar allel
Ġc osm
N R
Ġmeas ures
l ines
t arget
Ġpro ceed
Ġorder ed
S M
ars er
ay lor
ĠPac ific
Ġcit iz
C ar
Ġdev ice
im b
) _
Ġres ources
Ġb att
rib e
The se
ro ph
as y
c r
f it
Ġmeasure ment
Ġcontain ed
v est
Ġact ors
ĠG aussian
ĠQue en
Ġmur der
L a
Ġn ine
Ġe lev
Ġch art
Ġm ountain
Ġ ice
Ġship s
Ġw av
Ġp hen
Ġbo olean
Ġinc ome
St atus
194 6
Ġp ure
ĠĠĠĠĠĠĠĠ Ċ
ĠPro gram
ce an
Ġas ked
Ġ< <
Ġdesp ite
ĠC a
ĠCent re
rem ark
w er
\| _{
Ġcol on
Ġst rict
ĠJew ish
Ġf oot
Ġmat rices
Ġhy dro
f ort
s he
Ġs ociety
Ġp il
B rit
e en
ĠC ro
ol ute
T oken
Ġinter face
ĠM ah
Ġdep ict
Ġestim ates
tain ed
Ġc at
Ġtyp ical
Ġun iversity
Ġs quad
ĠA ut
d at
C L
Ġproject s
s g
Ġn am
Ġdiscuss ion
ard en
Ġrap id
Inst ance
Ġ Å
195 5
ĠE qu
Ġle aving
Ġv ary
_ -
E l
Ġpolitic ians
pro ject
Ġmov ie
195 2
Ġ eth
p y
u er
Ġqu ery
Ġtrac ks
a ug
Ġw estern
l aw
F unction
Ġcy cl
15 0
m iss
b as
T rack
Ġb ad
ĠM ountain
map sto
Ġcoordin ates
Ġgiv ing
let s
e z
Ġadopt ed
Ġserv ing
Ġl um
ĠD et
ĠB uild
: #
Ġdist ingu
Ġwh y
w rite
Ġg overn
ch ang
Ġlo op
Ġb inary
Ã ±
ã ĥ
ĠSh ow
Ġcon flict
A F
ad el
cl ient
Ġsubsequ ently
Ġstrong ly
l as
on ia
ĠGeorg ia
ent y
und red
Ġs ections
Ġm orph
og rap
ĠSp ring
H E
ĠMass achusetts
194 7
Ġre const
Ġg ain
ĠIll inois
urb an
< !--
ĠB ow
}} ^{
ĠP rem
ĠA z
ĠPro ject
ĠK ong
The orem
Ġ- >
ma il
ĠR eturn
ple te
Ġ$ $
Ġ$ {
Ġcomp are
Ġret ired
od ed
Ġon to
ou the
ĠHamilton ian
ĠRail way
Ġsett lement
Ġv ote
Ġcom ing
f act
ĠB ern
D B
Ġcy cle
Ġex ternal
Ġyield s
ĠR os
ĠPort ug
Ġse at
Ġtrans formation
$ ;
ĠJohn son
Ġreturn s
Ġt asks
ab il
Wh ile
Ġass igned
at ically
Ġrecord ing
ott ed
n umber
Ġeffic ient
M on
ĠWilliam s
m c
ph p
ĠE lect
Ġs qu
D ist
Ġturn ed
ilib rium
ĠM u
Ġprob ably
ĠB oston
ĠPhil ipp
Ġindic ates
Ġas ympt
Ġhel ped
Ġv on
Ġcover ed
Ġbeliev ed
Ġlaw s
G ener
n um
R em
aram s
ent ry
re ct
S ch
Ġobserv e
Ġsh oot
o ir
Ġman ifold
t ri
el d
| }
N ext
195 3
Ġwant ed
195 4
D on
ĠT ype
M et
p arent
Ġcom edy
R ed
por ation
Ġpart ies
Ġth ick
1 20
ond s
ound s
ĠI N
Ġdiscover ed
Ġatt ract
h bar
Ġd oc
C M
tern et
Ġ â
Ġm is
d es
ic ate
C ons
Ġass ign
sc he
pro position
ĠG ood
D ev
A rt
EC T
Ġpart ial
Ġnuc lear
Ġde ad
s ign
Ġacqu ired
Ġhyp ot
ĠG overnor
Ġclub s
ab eth
ON T
Ġprov iding
ĠThe atre
Ġnuc le
Ġand roid
f aces
ĠFrancis co
Ġoffic ers
M in
ĠPl aces
Ġaltern ative
Ġg rid
Ġdep th
Ġmass es
Ġsc ene
us c
op ic
G u
S ection
Ġbehav i
pos ite
ĠL ang
Ġsy nt
Ġl ives
ĠCo ast
Ġpre p
t ik
Ġfam ous
ĠB re
P oint
\ {\
Ġorgan izations
Ġconduct ed
Ġax is
ĠB al
se lect
Ġdem and
ĠE astern
Ġh op
St art
p ress
Ġsu c
igh ter
Ġse ems
Hand ler
ĠL uc
Ġ ign
Ġinter val
add ing
requ est
Ġv ectors
g r
Ġacc ur
Ġdetail ed
Ġmagn itude
ĠIn st
194 9
ap ed
ruct ure
arg s
ell er
Ġdifferent ial
Å Ĥ
R ight
W id
ran ce
Un ited
f s
S o
ĠIs lam
ĠHe ad
Ġc ities
ĠScott ish
Equ al
$ ~
Ġdiffer ences
S R
Ġs ister
ĠE gypt
Ġdiv ided
ĠSec retary
Ġf air
Ġref lect
il ing
v ector
Ġp ain
Ġse em
Ġprofess or
' (
Ġpro port
ograph ic
Ġw ays
Ġc ouncil
ĠD ata
if ies
ĠPr ince
it age
d escription
ion e
sc ill
Ġnear by
Ġmet al
ĠC y
Ġex ception
Ġoffer ed
v ing
ĠH ung
ĠOx ford
t ure
or ig
opt ion
on to
Ġcomput ation
p g
E m
Ġ rang
Ġgo es
Ġs ector
ĠDev elopment
Ġimplement ation
Ġhe art
oc cer
h box
ĠPol ish
Ġal t
P O
Ġfe at
Brit ish
y er
j av
} &
Ġsay ing
Ġquick ly
T O
ĠS and
Ġb rand
lection s
Ġf le
ĠB ang
Ġ" ""
Ġl if
Ġst ories
b ot
Ġlang uages
Ġreg ional
ĠP op
Ġpl ans
Ġsuc ceed
ĠSt an
Ġscatter ing
ER T
Ġdr ug
ĠS pe
) },
el i
ra wn
Ġobserv ation
Ġs s
Com ponent
ĠH am
Ġm useum
Ġg ap
Ġres erv
ric ts
ĠH a
pro perty
t wo
Ġapprop riate
un finished
Ġh ockey
stand ing
N av
al ysis
Ġindic ate
ĠSen ate
IN E
art ers
cher s
Ġc atch
Ġres on
195 1
ĠOb ject
m ass
ĠColumb ia
ĠM any
yp es
ĠR ay
as ure
Ġcirc le
}( {\
P A
ĠCh ild
cl aim
Ġconver gence
Ġext rem
emb le
Ġident ify
Ġcele br
Ġclust ers
Ġt alk
ant ry
Ġredu ction
ĠW ay
b re
ĠK e
ĠM iddle
ĠJ r
A c
ĠV an
Ġneighbor hood
Ġperson nel
N umber
ĠM ov
st one
Ġwork ers
if act
ĉĉĉĉ ĉĉĉĉ
Ġlet ter
Ġal leg
Ġex c
Ġsatisf y
ĠLat in
ic ine
D escription
Ġcl oud
) +\
Ġm arriage
Ġearn ed
ĠJ es
Ġsuggest ed
Y ou
ĠĠĠĠĠĠĠĠ ĠĠĠĠĊ
Ġre ject
Pro v
g a
ateg ory
Ġbe am
Res ource
Ġpart ition
S L
T P
s uch
Ġn one
l ers
Ġin form
Ġa st
ĠM id
Ġwe b
n i
h r
Ġarg uments
W rit
but ton
Ġconfir med
Ġfav or
O ptions
ad ata
ĠL ev
Ġphys ics
Ġachiev e
ĠWil son
N ull
tik z
al ities
eng er
R ev
M e
Bl ock
Ġv irtual
D em
ple x
V ID
Ġjo in
ĠEn ter
Ġb ridge
ont al
Ġtheore tical
Ġfri ends
wh ite
ĠBl ue
Ġwid ely
Ġp p
ĠSe a
D A
ib r
eb ug
ĠT re
Ġor th
Ġo scill
b ed
te en
che ster
Ġpr iv
sp ect
p ack
ĠH or
ĠL ab
c ks
ur ies
AM E
ĠSpec ial
Ġp seud
ĠC ard
Ġprim arily
ĠL ater
app end
s en
ĠC r
Ġnot ation
d el
ur i
Ġact ing
Ġdep art
ul er
Ġro ugh
Ġmunicip ality
l ap
Ġy outh
l ast
Ġsh ared
' .
Ġinst all
ip e
Ġeff orts
c ref
Ġw all
Ġh ospital
193 6
Ã¡ n
Ġmin imal
h u
ĠH ong
&= &
Ġreve aled
Ġr ise
p icture
ens ions
a is
Ġcle arly
ĠL ag
Ġw or
ĠW is
Ġrece ive
ze ch
or ough
ĠC reek
S che
ĠW all
en ess
Ġre form
Ġcompet ed
s ol
ĠR un
ĠBro ad
ail ed
anc ing
Ġiss ued
ĠMod el
Ġact s
) }_{
Ġide al
head er
c at
19 18
U s
th ur
itz er
Ġfund amental
| _{
Ġin iti
Ġrem ove
S ing
sh ow
Ġphen omen
ĠSt ation
un a
ul pt
Ġp urs
Ġ( (
Ġle aves
Ġcommon ly
ĠCor ps
Ġamplit ude
Ġl ibrary
am in
Ġf reedom
ĠAlex ander
Cont ent
Ġconc ert
ock et
ig a
Ġexpl ain
ĠL og
Ġsc ript
pd ate
S port
olog ist
Ġcre w
ed ia
Ġtest ing
D P
ĠCol or
M ax
Ġtri al
or i
pt r
ig ger
Ġfor t
M en
ul f
$ {
Ġh ar
ĠE p
( [
f ound
ĠF inally
} }$,
Ġf irm
ip age
ug in
Ġorgan ized
ĠS i
Ġdeg rees
}{ |
Ã £
Ġcult ural
) -\
Ġinst r
B uffer
ĠBel g
ĠFurther more
ph as
Ġ ener
193 8
}{ (
F ilter
v in
Ġanal og
}$ )
ogene ous
eder ation
Ġa wards
Ġdimens ions
$ ),
Ġepis odes
ĠS u
al so
ĠW ater
Ġgraph s
} )$,
ut ing
Ġmanag ed
min ipage
} }$.
Ġappear ances
Ġexec utive
Ġtransfer red
ro vers
ran e
Ġmed ian
Ġk ernel
D isc
ĠO p
S A
Ġpred iction
ĠKore a
-- -
Ġeas tern
Ġser ver
Ġ+ =
ĠG ame
bl ue
il ly
op her
d ney
u ous
ut enant
ĠSt and
Ġsecond ary
c ong
Ġrot ation
Ġc ricket
h or
Ġo il
writ er
Int roduction
erv ices
Ġmark ed
ograp her
ĠN ight
Ġc ov
Ġmass ive
Ġcalcul ations
Ġwin ner
Ġscal es
Ġth r
Ġfif th
Ġbase ball
Ġmarg in
Ġcre ation
t an
Ġmaterial s
Ġunderstand ing
H el
ĠVictor ia
ĠE st
Ġcompos ition
un it
Ġres ist
Ġf re
Ġg un
Ġv oice
Ġtherm al
ã Ĥ
Ġch annels
ig er
i ate
ic ens
ĠU r
ob j
Ġra re
Ġin duced
Ġflu ct
Ġsc hed
Ġd raft
E L
ĠJack son
[ (
ynam ic
ĠBer lin
ess ages
Ġdo ing
Ġlay ers
Ġtechn ique
Ġcalc ulation
193 7
Ġth rows
ol es
olog ies
ĠPl an
Ġhous es
ĠTechn ology
ĠSt e
ĠB u
Ġfl ag
oc ated
ĠA v
ĠÂ £
t ag
ĠAr gent
Ġp ix
uck y
R eturn
Ġvers ions
ĠL im
Ġgrad ient
ir us
Ġallow ing
res ults
ty p
Ġs al
ĠF er
h ing
ĠBro ok
s ort
ĠS und
com ing
ã ģ
M R
im g
ĠG ar
Ġshow ing
ĠCons erv
Ġlim its
are n
Tr ue
Ġtro ops
Ġf ine
Ġconclud e
p a
Ġmod ified
d y
Ġtest s
Ġcommun ication
am ber
ĠP y
G eneral
Ġimport ance
h igh
omet ric
g ies
orn ing
W ill
T ra
pro v
Ġn arrow
ĠC at
Ġord ers
Ġc arri
Ġf ellow
ĠD ar
ĠB ir
Ġattack s
ĠAnd rew
cc cc
ĠL ittle
Ġband s
z o
) )$
ee ch
C or
cal e
ru ck
ĠP en
ĠB ell
ĠF ar
Ġ$ |\
Ġd ial
ck nowled
Ġdel ay
ĠP oint
Ġto uch
ĠAd d
Ġang ular
ĠB C
ĠN one
Ġprinc ipal
Ġo dd
Ġs pl
st able
Ġint ended
dis c
Ġchem ical
Ġ\ &
ĠEl iz
) }}
Ġinstr ument
Ġprov ince
Ġsub group
ad er
x x
Ġoper ating
ĠJ ean
Ġ$ .
ic ed
Ġprogram ming
Ġconstit u
ig ration
u ated
Ġded icated
agn etic
ĉĉ Ċ
pos s
Ġprom oted
st ep
ĠE conom
ĠF our
se ct
s ch
Ġgu arant
M usic
T op
D S
ĠH ome
Ġpart ners
" |
ĠF ollowing
G N
ĠComm on
Ġrepresent ing
L abel
ĠOlymp ic
enn es
ĠIs lands
el se
ri ev
he t
j son
on ical
er c
Ġ ion
tain s
LA SS
ĠA ff
O C
n ic
f ind
ĠO nt
script style
ĠK en
Ġart icles
Ġres idents
Ġdise ase
: }
ĠC orn
* /
ĠB and
c ut
b ec
rop ical
O L
Ġassoci ation
ĠF ederal
} );
flo at
ĠB a
Ch ild
Ġem pty
Un iversity
ĠH uman
Person al
Ġexp atriate
ran k
I A
Ġdig ital
set s
Aust ral
Ġoptim ization
p resent
Ġit ems
Ġcou ple
Ġdepend ing
ĠH ospital
ĠIn f
F actory
m t
Ġnewsp aper
em et
ĠM ot
ĠP ubl
g ers
Ġf iles
Ġfunction al
Ġbl ocks
du le
Ġcapt ured
Ġwhere as
om er
ĠPol ice
Ġbu ff
Ġbeliev e
ĠSup reme
RE F
y o
Ġcon j
Ġhe at
i ec
A V
ma z
il bert
d esc
Ġass ess
Att ribute
Ġ[ \
ro om
Ġdescrib es
ĠO fficial
Ġh undred
Ġsub t
Ġm ill
ash ion
W orld
omet ry
L em
Ġor bit
D esc
Ġt al
Ġprinc iple
an ta
ĠT aylor
Ġenc ou
ĠW ild
Ġadminist ration
Ġs ession
ph ia
Ġown er
Ġown ers
Ġacadem ic
Ä į
Ġarr ived
ĠJust ice
Ġassist ant
Ġm ind
Ġre pro
ĠDan iel
P o
Ġb in
y es
\ ;
D D
m ma
ins on
Ar g
V ersion
ĠD er
ĠB BC
ĠV iet
c alled
,\ ,\
em an
Ġh ole
w atch
Ġterm in
Ġf rag
Ġtra ffic
ĠB oy
m itted
ĠPh ys
M y
ĠReg ion
R ow
E v
ac ent
ĠU N
pon ents
ĠMin istry
Ġvert ical
ĠB i
ĠN S
od ies
Ġpromin ent
Ġvis it
ort he
Ġsw itch
Ġquest ions
am i
Ġcon sec
F R
ether lands
Def ault
Ġcandid ates
" ]
- $
Ġp iece
Ġaccept ed
a ught
Ġgeomet ry
Ġtra ject
Ġinf inite
193 5
not es
em y
ver b
Ġapp arent
per or
Ġacc eler
pr ivate
, $
Ġhon or
p op
Ġp ra
Ġgradu ated
Ġconsider ing
it ivity
. /
Ġalong side
Ġc ert
Ġloc ations
Ġs ides
f ri
[ "
av ed
Ġpro pos
Ġper fect
ĠT ri
Ġlarg ely
C al
z h
The refore
ref ix
p ool
Ġl ie
adel phia
Ġ Î
ĠUS A
ĠJ oe
t frac
M B
p at
u v
Ġoff ers
Ġsum mar
Ġcharacter istic
19 14
Ġ ut
C R
sec ond
Ġcoeffic ient
Ġal one
] }
ĠMus lim
Ġbound s
ron ze
here nt
Y PE
ĠW hat
Ġcom pl
Ġscal ing
F inally
N O
Ġtrans lation
st atus
Ġeff ort
Ġb right
Ġdel iver
u ing
Ġcon d
c ular
ĠT od
Ġl abor
P olit
as er
19 19
Ġpro te
Ġ{ @
mod els
z er
Ġc ool
Ġre asons
Ġn av
ak i
ĠK enn
Ġimpro ved
Ġs ort
Ġaut o
ĠS ant
ĠPri ze
ellig ence
L oad
ĠKore an
app ed
H S
for ward
ĠSy dney
Ġanc ient
U sing
.... ....
Ġfeat uring
ĠV ill
Ġadvant age
Ġle tt
def ined
Ġsc ope
Ass ociation
ĠSc iences
Ġuncertaint y
v ari
Ġcomplex ity
Ġemploy ed
L ink
Ġag reed
Ġtre es
ĠGu ard
U p
T em
Ġexpon ential
ul i
C ast
ĠAn other
P L
medi ate
ud get
Ġd iam
âĢ ¦
Ã£ o
ar se
Ġoccur red
w eg
P age
pp ed
P ort
Ġmat hemat
est abl
flo or
ĠL ight
ĠPr ime
Ġ era
ĠReg iment
Ġlum inos
Ġeffic iency
ĠOnt ario
x ml
ĠL es
Ġsubsequ ent
Ġcoordin ate
% )
he tic
Ġcitiz ens
Ġsil ver
di ag
Ġdis crete
con sin
ap es
h ard
id el
Con st
19 17
Ġconv ex
ad ian
ĠS om
con f
go ing
Ġfig ures
$ :
ĠU sing
cl ose
Ġb omb
form at
ĠR ome
Ġtw ice
Ġs ure
V D
u um
ors hip
ĠJ eff
Ġem phas
ĠP ower
Ġel imin
sc ope
an th
Ġp et
B U
Ġperform ing
ch ron
Ġser ious
ĠA k
b uf
Ġex cit
Ġdecom position
II I
Ġmed ium
b el
Ġst orage
orn ey
Ġsold iers
Ã ¸
Ġqu e
Ġsuggest s
f ilter
script size
Ġeval uation
ĠTh ree
let on
ĠO s
Ġden oted
ĠB on
ĠWe b
ra ge
se ar
Ġtechn ical
ĠS T
bour ne
ĠB ecause
193 3
ĠProfess or
Ġin ject
19 29
et ch
ult ane
ĠJ on
Ġfac ilities
m eta
Ġp ull
C ase
Ġis ol
I O
ĠR ead
c ar
Ġro les
ĠM ain
^* $
Ġcre ating
Ġreport s
Ġnam ely
Ġgrow ing
ĠR aj
ĠB usiness
Ġus ual
ĠG ener
ĠCor poration
Ġcapt ure
ĠMed ia
}\ ,\
it ness
Ġth ous
f a
d ependent
ĠA venue
ol i
ĠL o
ĠAnt on
Ġinvolv ing
Ġk ept
ĠRev olution
ĠN ations
ĠQue ens
Ġt ag
bra ce
Ġa thlet
Ġadminist rative
Ġlist ing
Back ground
s i
Ġfail ure
if ts
Ġshe ll
ĠI D
Ã© e
ĠS ports
Ġt end
Ġn et
Ġsec ret
Ġexpl ained
row ser
Ġvari ation
Ġrem ark
Ġsc ulpt
all ow
Ġproject ion
Equ als
ĠR od
N D
exp ected
Ġloc ally
ĠSt at
al gorithm
Ġpart ner
Ġmin ister
ap pe
Ġexpand ed
ier arch
a uthor
Ġab und
Ġdatas ets
ĠAir port
ur er
ra ine
Ġreview s
por al
ĠR og
ĠRev iew
Ġent ropy
Ġin h
im er
p arameter
Ġun s
isl ative
Ġinteg ration
end if
ĠTor onto
olit an
Ġv en
Ġget s
W eb
out put
Ġp it
Ġwe ights
Ġcalcul ate
Ġinterest ed
$ {\
ĠA st
ner gy
ĠL ew
193 4
Ġadd ing
Ġpl anned
Ġsp irit
Ġpr ime
Ġscen ario
che stra
Ġengine ering
Ġl ab
s d
Ġb r
ĠOr gan
Ġcle an
per ial
19 10
Ġext end
Ġwe ap
19 28
b ro
Ġrepresent ations
) --
v ol
big l
D i
m osp
ĠO t
nav bar
os a
so le
c p
o or
j oy
Ġsol ve
ĠG er
Ġmot or
ĠCamb ridge
Ġim ag
Ġp sych
ut t
$ _{
Ġp rice
ĠB ab
1 10
ath an
( &
> >
Ġrob ust
Ġw orth
it led
Ġnot able
Ġserv es
uss ion
ĠP eak
ma k
t w
ef e
Comm and
Ġmusic ians
Ġfind ing
os l
Ġsub stant
on ed
S outh
D ep
ĠJac ob
m i
ĠEliz abeth
he nt
ol is
Ġcon ference
ĠComm unity
ak h
193 2
are t
ĉ Ġ
Ġclaim s
Ġplan et
Cre ate
p ush
25 0
ow a
Ġrec all
H is
ĠV en
Ġt ail
ĠTur k
Ġf erm
Ġsurround ing
, {\
se x
] $.
Ġco al
ĠN etherlands
ra q
Ġr ural
ĠA thlet
big r
ĠA cc
19 00
Ġco inc
ĠC ub
ĠN C
Ġinstit utions
Ġpol ic
pl ot
' re
Ġparticip ated
Cur rent
Ġ ^
ly n
Ġatt end
Ġconsist ing
iction ary
B o
i able
ĠT ok
ĠM ethod
Ġrepresent ative
d frac
hed ral
ren ew
ĠA sh
im ately
M ult
Ġtr ust
Ġp icture
Ġw ing
Ä ±
Ġg rew
S um
Ġg r
b al
ĠM aster
ĠS a
w ait
ĠStud ies
Ġir re
| }{
qu arters
Ġcor rel
Ġcharg ed
l an
ant om
Ġdet ected
z en
Ġpe ace
clus ions
rim inal
R L
Ġabs olute
Ġd ust
Ġsaf ety
Ġfl ight
Ġhand le
M at
,\ \
ĠB att
f old
j an
Ġoffic ially
ag on
ĠB rig
Form at
Pl ay
h ol
w ater
Ġsol o
plic ations
Ġwin ners
lement ary
Ġre sear
im ages
Ġdestroy ed
Ġb os
Ġpredict ed
Ġinc ident
ĠMed al
ĠK ey
S l
Ġe q
Ġe mp
ram es
ul y
Ġren amed
Ġconsequ ence
M E
P ost
Ġveh icle
Ġequ ilibrium
Ġcol lected
Ġst reet
est ic
Al though
ĠPak istan
su ccess
st d
up date
Ġlabel s
le ep
serv ice
ur ches
Ġstat istical
L ev
Ġregard ing
Ġop posite
h aps
L ast
ef ined
ĠComm and
IN T
Ġdev ices
lo op
ĠWis consin
se y
Ġdecl ared
Ġaff ected
ro g
Ġimplement ed
: =
Ġ\ !
og en
Ġsp ring
\ }$.
Ġle mma
ch or
ĠC irc
Ġm apping
ry pt
Ġf ont
ĠSwed ish
Ġflo or
ask a
ĠA D
Ġequip ment
) )\
Ġunder lying
eg o
Ġperm an
ad ing
193 1
Ġrad iation
ĠD espite
Ġthe ories
f rame
Ġfocus ed
19 27
Ġag greg
Ġl y
in ations
ĠB rad
Ġch ampion
19 22
ĠG ro
Ġr ugby
ri e
Ġsatisf ying
Ġcan cer
Ġstart s
t ree
ĠR en
Ġob vious
19 24
Ġdam age
Ġw ait
G erman
Ġnew ly
ĠMin nes
al ing
it ational
ĠR oute
bm atrix
ĠB ad
ĠStep hen
Ġb ill
j oint
d irect
th on
Ġdep loy
H L
Ġcall s
emet ery
B iography
ĠS uch
Ġpower ful
ĠMinnes ota
Ġcon vent
Ġsufficient ly
Cont roller
au x
Ġrac es
T C
al ion
ĠDu ke
Ġhe av
Ġhost ed
Ġsett ings
Ġneut r
Ġcont rovers
In ternational
Ġg irl
Ġprocess ing
ĉ ĠĠĠ
Ġw ild
S ome
ĠD isc
os is
act ic
it o
Ġst ability
Ġst ress
Ġrecogn ized
m ode
Ġinv erse
ĠF I
Ġsuccessful ly
ĠS ab
Ġnot ice
d f
Ġcontin ues
Ġf elt
ĠSan ta
c ard
Ġred shift
param s
Ġbeg ins
resp onse
] $,
T hat
Ġend s
Ġp al
ĠS erb
Ġv otes
b rid
Ġpar ish
Ġscient ific
Ġbe at
Ġexplicit ly
Ġl iber
Ġb lood
ĠCO VID
Ġind eed
reg on
Ġcon ven
renew command
ĠInd ust
Ġlook ing
$ &
Ġofficial s
Ġpl ants
ian g
q l
ĠP ass
Ġdimens ional
V ar
b en
M ay
ĠPhil adelphia
Ġhtt ps
Ġpen al
$ };
ĠM ike
amb ig
Ġd ance
Ã º
ĠF air
Ġsu itable
rit ical
Ġnot hing
Out put
rom e
G l
Ġrecogn ition
Ġj ourn
Ġro ll
Ġstr ugg
weg ian
Ġhous ing
Ġhistor ic
ĠSt adium
Ġresult ed
Ġleaders hip
ĠAd dition
Ġd ens
ĠL ady
Ġcompos er
ĠT y
Ġdoes n
ĠĠĠĠĠĠĠĠĠĠĠĠĠĠĠĠ ĠĠĠĠĠ
L ong
F rench
Ġag ric
Ġveh icles
Ð º
19 21
c i
osoph y
ĠFore st
ke ep
}[ \
}} _{\
ps on
Ġtit les
ap ore
19 26
ĠPrem ier
w ing
ĠI R
}} )
Ġp owers
P Y
ĠK ir
less sim
_ .
ĠCh ris
inst ance
ĠG L
19 25
ĠS her
Ġhousehold s
Ġperform ances
Ġw aves
D at
Ġs urn
19 12
Ġdat abase
Ġfind s
Ġinvestig ation
Ġdes ired
//////// ////////
Ġoff set
or gan
S ong
v ature
ron ic
ĠS em
un te
ĠK im
Ġs ales
ĠB ishop
O lymp
igh th
Ġsup erv
Ġp aid
tt p
O P
Add ress
Ġest ate
Ġinsp ired
AB LE
ĠEx ec
.. .,
A cc
og s
Id ent
Ġlearn ed
Ġcop ies
Ġpat ients
Ġsex ual
ta x
Ġvict im
Ġobject ive
\ )
Ġis omorphism
Ġc ars
ĠMed ical
V is
Ġ{ }
Ġag ents
Ġdid n
ĠB udd
it ory
plic ity
Ġrefer ences
F ONT
ĠR om
Ġmix ing
ĠN az
long rightarrow
Ġposs ibly
im ation
Ġsol ar
ĠC zech
ĠB ol
ist ent
ord an
art he
Ġvis ible
6 00
Ð »
Ġs end
Ġ\ ]
ER R
P RO
P ublic
Ġturn s
Ġspec ifically
Ġb illion
par agraph
Che ck
Ġevalu ate
Ġide as
Ġcr ime
Ġrepe ated
math op
ru it
19 23
ĠC as
Ġindust rial
m em
B O
i ota
Ġset up
W omen
ĠP ers
ĠCl ark
ĠV is
Ġdefe at
cre t
sc ape
ann a
Ġ urban
ad s
L ocal
ĠA li
ĠH and
Ġp iano
T S
con v
ond er
N on
ĠSwed en
ouri er
ĠH ay
Ġto ward
Ġdou b
Ġcamp us
p ower
ĠC P
icro soft
Ġnot es
y al
Ġdef end
ang ular
ag a
List ener
Ġestim ation
och astic
ict ures
Ġout er
ĠSur vey
Ġins ert
Ġne ural
ĠD oug
ĠV i
ĠAd minist
um es
Ġg ained
c lear
p et
Ġst ack
ĠE X
d iff
are st
Ġcomm ittee
point s
comm on
ĠAn th
ever al
C ON
N ov
Ġc m
ost er
Ġapp lying
ĠI V
Ġd iver
ĠW alk
Ġderiv ative
Ġre ct
Ġtry ing
asc ript
Ġto ol
Ġaccur ate
etail s
Se lect
ĠM ember
Ġpolit ics
form ance
D r
Ġfin ish
F ollowing
per iment
Ġla unch
Ġtemper atures
ast y
ĠCon f
v ee
y ard
w orth
ĠT rum
ĠL ind
outhe ast
T ask
Ġsequ ences
rop olitan
Ġmatch ing
Ġsp eech
f i
ĠMar sh
empty set
ĠK al
Ġdiag onal
Ġport ion
Ġinters ection
at on
ĠMc C
Ġposs ibility
Ġbehavi our
j e
}} }\
ang a
Ġdr ive
Ġcl imate
Ġt urb
Ġconst ants
ĠS quad
Ġrequire ments
Ġp ool
ĠW ars
à ¸
ell o
Ġtri ed
ĠTown ship
Ġsim ultane
Ġv ess
Ġthem e
A wards
Ġ url
Ġterrit ory
Ġmedal ists
Ġener gies
' ).
19 15
Ġansw er
oth ing
Ġnov els
;\ ;\
Ġbi as
i em
Ġin fl
ĠOr ig
Ġcer em
Ġm anner
pl ane
St at
Ġz one
se ason
clus ive
Ġpurch ased
d epend
19 16
ĠM ill
O p
Ġintrodu ction
ay out
Ġinter ior
Ġcont est
t iny
Ġt ells
U I
m ad
cis ely
Ġf iction
Ġpass ing
ĠM un
ĠG ree
l iving
var iant
^{ *
ĠMan agement
d est
ĠJ oh
Ġtit led
Ġmot iv
) })
S ON
ĠApp endix
Ġpattern s
Ġh idden
N ames
sh ould
Ġsur pr
ĠInd ones
Ġmax imal
M D
Ġengine er
Olymp ic
G R
et al
Ġadv anced
Ġref ers
Ġsom ew
riz ona
ĠBe ach
ĠS on
Ġget ting
an es
Ġresp ond
Ġdr iver
k h
bt n
at ible
ĠF inal
port ed
Ġsw im
Ġres ident
e lect
ĠH T
ĠD am
ĠH o
Ġclos ely
ĠM ap
Ġtown s
Ġpur poses
it ative
ik a
C ache
ĠGold en
ĠU s
sl ash
Ġpl anning
B B
form er
p ers
Ġb oy
}} ^{\
Ġra ise
Ġinvestig ate
Ġgrant ed
8 00
enn a
ĠMex ican
ĠOn ly
g est
ĠW inter
ta ch
Ġre action
du ce
L ength
F rame
m atch
Ġm iles
ĠE ll
ur ations
ĠE ven
ĠM ilitary
Ġl ock
Pro t
M ark
}} .
ĠIndian a
Val id
ann ot
ax is
and ra
}_{ -
v ard
Ġ$ ,
L eft
Ġex clud
) "
rop ic
gl obal
Ġsh ock
Ã ¢
R ad
ennes see
ex ec
pro to
Ġrad ial
Ġab and
Ġpredict ions
[ -
s at
Ġelectron ic
Ġpar liament
Ġpre par
% %
Ġrec ip
br as
ur st
Ġder ive
int on
Ġdynam ic
Off set
ch a
Ġfac ulty
16 0
Ġfac ility
al gebra
ĠI raq
D o
Ġembedd ing
rem ove
ĠK ansas
Ġat mosp
G o
O pen
Ġsecond s
ro sc
Ġsampl ing
R R
ĠW eek
ĠW at
Ġw rest
Ġbul k
ĠEngine ering
Ġran ked
ĠInd eed
Ġsum mary
Ġth in
ĠComm un
ĠS M
Ġcont rad
Ġluminos ity
id i
ĠH ard
Ġsub s
Ġcateg ories
g eneral
ord ers
Ġindic ated
Ġview s
Or der
op es
ig rants
F M
ĠF ox
ĠH un
Ġear th
ĠL icense
ist ed
ĠH an
Ġ{ $
][ ]{
ĠW in
ĠTur key
Ġfound er
er ior
Ġm ac
ĠAr thur
Ġen joy
Ġassum ptions
ĠO regon
ĠMar ia
Ġcolumn s
ĠĠĠĠĠĠĠĠĠĠĠĠĠĠĠĠ ĠĠĠĠĠĠĠĠĠĠĠĠĠĠĠĠĠĠĠ
om ot
Ġtop ological
Ġcost s
Ġlow est
ĠB ridge
Ġcont emporary
Ġn or
Ġtre nd
Ġbrief ly
Ġp le
Col umn
Ġint ensity
ta il
d rop
ĠCast le
Ġcall back
ĠPol it
ear s
ik i
Ġqu ark
if er
Ġprot ection
Ġident ical
Ġc overs
ĠT a
ĠH art
Ġbe aut
ĠPro t
iec es
on ym
we et
Ġsuff ered
Ġh abit
ĠD un
ĠDav is
D irect
ĠA h
Ġext ensive
}$ }
par ison
Ġfem ales
Ġl iqu
put e
Ġfrequ ently
ĠD ig
Ġadj acent
ire ment
}) }
st at
Ġw atch
Ġme ant
ens is
Ġcomput ing
ĠW el
Ġauthor ities
ĠSec urity
Ġto ols
Ġst one
ĠCol on
Ġth ing
12 8
Ġd rawn
Ġphot on
oc ese
Ġpath s
Ġcorn er
Ġconvert ed
sequ ently
Ġexpl o
o is
Ġl P
Ġdocument ary
l ife
T wo
form al
Ġtra ce
ĠK el
P D
}) =
math it
r ine
Ġcharg es
Ġcont rolled
ĠF ree
ast ers
ĠF ire
Ġpublic ation
Ġ{ };
ĠBar on
elli pt
in v
ĠMiss ouri
Ġsup ply
leg al
ĠS us
z i
Ġcaus es
Ġsepar ated
off set
ĠD own
Ġ< !--
ĠAtl antic
w s
ĠDes ign
ord on
m n
Ġcover age
ĠB ru
in itions
ĠAl f
ĠL abor
ĠB all
ic ular
19 13
og g
/ (
Ġadv ance
Ġ( {\
ĠB h
ĠH al
circ le
field s
ĠT al
Ġchall enge
Ġp ages
Ġin fer
r atic
Ġcomput ational
Ġquant ities
C ent
par se
ĠCol l
hen s
Ġj et
es ter
iffer ent
M ode
ĠB ack
ĠR a
ĠC LASS
Can adian
Sport speople
Ġc atal
Ġbro ken
Ġtrans mission
B ibliography
Ġd aily
Ex ec
ĠH REF
ĠO F
i Ã³n
re ll
pl om
iss ip
ĠR on
Ġent ries
Ġar c
ge bras
p ur
Ġauthor ity
Ġt aught
Ġdist ricts
ĠRepresent atives
ic ian
Ġattempt s
u y
lay out
Ġsch olar
Ġen h
Ġasp ects
ĠCap tain
< ?
ĠMar g
af e
Ġb ran
Ġconsec utive
Ġgrav ity
Q ue
Ġpl us
ĠF amily
ĠP it
ill ery
osc ow
ĠO ffic
Ġop in
Ġnon linear
ĠSt eve
ĠM unicip
Ġport ray
Ġcan cell
V ER
Ġsc oring
Ġ\ (\
Ġgener ic
^{ (\
ĠY our
Ġf ish
UR L
18 0
) }_
t i
w estern
ris is
Pop ulated
Sec ond
Ġf ell
ĠIn formation
ĠEx t
ul se
Ġar ts
Ġtr ivial
p res
P at
ĠM ic
Ġinst ruction
ad ed
`` `
I ST
f ull
Ġrel ax
Pro of
int eg
Ġflow s
en um
Ġse vent
Ġl osing
B L
' m
Ar ch
ĠW rit
os es
Ġasympt otic
ent ed
Ġst ock
Ġb ow
Ġyoung er
sh ot
ĠG allery
ĠCount ry
19 11
OR T
old er
Ġsp ons
Ġte aching
reg ular
Ġadj ust
ĠK er
in ction
Ġdynam ical
Ġhypot hesis
con tainer
} ~
ĠM oh
Ġdr iving
Ġb ra
sh ort
T ree
fig ures
Ġrough ly
Ġhand s
ĠG reg
we alth
ip eline
Ġmagn et
v o
Ġsatisf ied
Ġpre cisely
qu es
iss ions
Ġ[ ]
Ġv ice
Ġdisc rim
is er
Ġinter act
P arameter
Ġgeneral ized
S m
ĠP ier
Ġsat ell
ĠS ervices
eli hood
ĠT ai
jav ascript
ĠT ro
f ef
T ax
form s
Ġ il
Ġg overnor
Ġ rom
ĠTr ust
Ġarm s
}} =
Ġ! ==
ĠI d
Prov ider
Ġdevelop ing
Ġrest aur
Ġse ats
im ary
10 1
ater n
s ince
Ġjournal ist
ĠColor ado
D O
T ag
h s
E Q
Ġinteg rated
ĠG h
ition al
Ġcirc um
S ources
Ġconn ect
Ġenvironment al
K E
the less
is a
+ (
Ġpaint ing
ĠPhilipp ines
ÃŃ a
column width
E ach
Ġdef orm
ĠI l
Ġb undle
ĠAmerican s
ro ot
Ġf ashion
ĠBase ball
Ġrece iving
' ),
Ġp apers
Ġpolic ies
out s
: </
W hat
ĠL ive
ad i
ĠC all
ĠL eb
og ether
Ġv ariance
Ġr ig
ĠNor way
Ġflu id
inc ial
ĠMary land
b ell
Ġun able
Q L
h l
Ġp ackage
sub sec
off s
Ġextrem ely
v s
el ess
Ġentire ly
ĠF ederation
Ġag o
G iven
J apan
multi row
A ccess
\ }$,
Ġchang ing
Ġs ust
ir ty
Ġeconom y
ial og
ĠAr ray
ĠT ennessee
}) ^
Ġexec ution
\ }\
ism s
ub ble
Ġmax im
Ġinterpret ation
Ġlett ers
ĠBro ther
ĠL ore
n n
Ġsign als
Ġch airman
ant ly
ap l
arian ts
ues e
Ġdoc uments
ĠE u
Ġs ave
=" _
Ġcan onical
Ġser ial
ĠHigh way
ill ing
eng ths
Ġinj ury
ĠMem orial
Ġf ans
Ġc art
Ġcharacter istics
Ġtri p
in er
Ġdi agn
ap el
od s
Def inition
Ġc ab
Ġexpl an
iv als
ĠSing apore
ĠJew s
Ġesc ape
B E
20 23
B efore
f amily
Ġreturn ing
Ġ iron
Ġben ch
tikz picture
ĠA rea
Ġy ellow
ĠT el
B M
ra ined
H C
Ġpro pose
men u
} |\
Ġacc ident
ĠD ue
Ġb udget
Ġaff ect
requ ire
Ġopport unity
Ġ ^{
Lem ma
Ġ* *
190 8
ĠN ame
D R
Ġcur vature
f n
00 1
ly wood
Ġr ational
refer ence
H ar
Ã¼ r
am l
ĠF ellow
rac ks
Ġsome one
k g
ĠA PI
ob s
at iv
ĠOb serv
ĠR et
& =\
\ |\
com ponent
end ar
Ã© s
t ask
ou pl
Ġnomin ated
Ġmult ip
ĠR oss
up s
u ce
Ġdec ades
Ġd ie
// /
Ge ography
fef efe
C F
st ic
ĠO cean
ĠLew is
Ġop posed
et ies
ut her
Ġcon clusion
Ġb ronze
Ġsupport ing
Ġad vert
Ġpers p
Ġbur ied
CO L
H ence
ĠM ach
Ġcry st
h ire
> \
T arget
act or
Ġposs ess
e aking
ĠSl ov
Cons ider
++ )
includ ing
Ġtr uth
ĠD or
w indow
#### ####
Ġd ependent
Ġeduc ated
m outh
ĠRe al
ĠSt ock
W est
ĠM ult
Ġabs ence
D av
ĠS at
H O
B undle
ĠFre der
ĠConn ect
cont rol
Will iam
ĠK itt
T ypes
ah oma
Ġtw enty
ĠBook s
return s
ĠA rizona
Ġbuff er
ĠA uthor
L ocation
Ġvill ages
vi ation
ful ly
Ġjud ge
g reen
Config uration
Ġy ards
Ġequ ality
Ġb urn
m aster
Ġl ift
25 5
ĠJ unior
Ch rist
c over
rib ed
Ġdo ctor
Ġsh op
Ġ }{
Ġl ens
iven ess
ĠLe on
um in
ĠS av
Ġapproxim ate
Ġd ense
ĠFore ign
Ġte le
ĠSh ort
G S
B est
ce ived
ĠAff airs
() ->
Ġfe et
U pdate
ĠĠĠĠĠĠĠĠĠĠĠĠĠĠĠĠĠĠĠĠĠĠĠĠĠĠĠĠĠĠĠĠ ĠĠĠĠĠĠĠĠĠĠĠĠĠĠĠĠĠĠĠĠĠĠĠĠĠĠĠĠĠĠĠĠ
ound ed
prot otype
Ġunivers al
ĠĠĠĠĠĠĠĠĠĠĠĠĠĠĠĠ ĠĠĠĠ
s em
ĠN a
r ins
ag en
ut ies
itzer land
d ocument
and y
ĠM oscow
Ġp ieces
Ġeffect ively
Ġanim als
ĠS ky
^* \
Sc ript
Ġcl in
Ġarrest ed
Ġquant ity
Ġcam era
class es
ib ration
m ers
Ġfund ing
B ook
arthe ta
] {\
D es
Ġaud ience
sh ape
A g
Ġdesign ated
Ġind ependence
Ġin her
l arge
ari os
Ġop position
Ġtem plate
Ġcover ing
ĠCh annel
r ating
L eg
U rl
ambig uation
ic ut
Ġend ing
Ġs izes
ĠB et
ĠM ir
ĠM ath
Cont rol
ro ke
v artheta
Ġult imately
M ain
$\ \
ĠK han
ict ional
ĠUk raine
Ġfa ith
k ov
ĠMel bourne
yn asty
og ram
ĠH ou
aw n
r ations
Wid th
ĠM P
ĠA R
Ser ver
Ġd ivers
al let
Ġex ceed
ĠD E
Ġt ransp
Ġlo an
Ġco oper
er al
w hen
ĠSund ay
Ġstar ring
Ġd ashed
grad e
J son
he im
sl ant
Ġthe atre
Â °
Ġvers us
Ġaff ili
W rite
ĠB an
ript or
ĠV o
om ents
b u
ĠAr k
Ġneut ral
Ġsup ers
Ġr ich
$- $
iss on
Ġre ality
Ġdet ect
ĠS U
r g
Ġassum ing
Ġoccup ied
ĠGo ogle
ĠA ud
B I
Ġvis ited
Ġh all
Ġdeterm in
Ġdrop ped
olic y
ĠG iven
ĠMal ays
X X
AR T
Ġgl ass
Ġfluct uations
ing ly
up le
Ġtre ated
Pl ot
V ol
Austral ian
ĠHig gs
ĠH op
: =\
ĠAnd erson
ĠG i
ant on
tem plate
Ġinst alled
id ge
ĠM iller
Ġinter mediate
Ġencou rag
R uss
ĠSt r
ĠN Y
Ġw ins
ĠB ah
Ġsepar ation
B el
ob e
Ġexpress ions
CO DE
ipl es
ou ch
Ġj ump
Ġcons ult
ĠGl obal
B R
low er
ic ip
ĠA mb
att r
12 5
De ath
Ġmole cular
es ian
ĠPr inc
Ġadapt ed
Ġro yal
Ġto ken
w all
Ġarg ued
ĠC ab
ĠChar l
Ġarg s
Ġprem ier
ĠE nt
re nder
ĠT urn
ĠF und
ĠSpace watch
ĠM as
ĠL ow
ĠC ase
Ġcorre ctions
ĠJ os
ĠN on
Ġc row
Ġst ages
s v
ou red
ĠPhil ip
ymmet ric
col n
G A
Ġcharacter ized
Ġto wer
ot i
un es
sc ription
ous es
ĠChrist mas
Ġtra ins
Ġ( ,
re lation
P an
ĠKent ucky
kl ahoma
orthe ast
Ġsp ot
ĠL ocal
d on
ar o
Ġatt ribute
ĠB arn
ĠHol y
Ġdecre ase
ĠE th
Ġcorre ction
H on
But ton
pt o
Ġqu asi
N E
Ġk in
Ġappro ved
N C
oot st
z z
g ment
Ġ( ;
ĠF ile
ĠW ell
av or
cl ip
rain ian
Ġdef ense
Ġcomm ut
Ġsucceed ed
ĠAl bert
ph y
w orld
ot on
Ġf estival
Ġv ocal
Ġupd ated
L C
ĠN orm
Å «
M O
Ġacc ret
M T
W E
12 3
O rig
Ġfight ing
A nt
st an
Ġhigh light
Ġrac ing
od d
Ġgrav itational
Ġcrit ics
ym n
og onal
ĠTrum p
ir ical
L ayout
ĠViet nam
ĠT ransport
b p
v als
L ife
: "
**************** ****************
Ġstand s
Ġcol our
ĠAd am
Ġbre aking
Ġocc asion
V ideo
Ġ\ ,\
a uth
Ġdrum s
Ġproport ional
ĠEnter tainment
poss ible
l ook
Ġtr igger
Ġdomin ated
issip pi
st yles
Ġessential ly
Ġcap tain
Ġsix th
at in
Ġl en
ĠQueens land
eng ers
Ġn ob
li k
Sup pose
Ġm es
Ġex cess
med skip
ĠI owa
ootst rap
Ġformer ly
P H
Ġwav el
= .
\% $
us es
Ġis ot
Ġh alo
Ġph ases
ĉĉĉĉ ĉĉĉ
Ġan om
Ġregister ed
}\ |
Ġp and
ul ing
L i
ĠE vent
ing ham
ĠAust ria
( -\
Ġvac uum
H igh
Ġw alls
A E
v as
ĠB os
Ġbel ief
ĠE nergy
Ent ry
Ġdec or
Ġa ware
ab ama
Ġun less
Ġdep os
Ġdomin ant
Ġm ask
back slash
Te levision
Ġ ,\
Ġst ochastic
190 5
ch annel
Ġvari ations
ĠG ib
is ot
Ġre ar
if ul
u j
] );
rast ructure
Ġst orm
op le
Ġread er
rap per
g ar
ĠS D
Ġattempt ed
ra it
ĠS C
cl ine
18 90
ide os
math tt
not ag
dom ain
oth s
ĠD rag
ĠG rant
Ġprot ect
Ġrestrict ed
ri or
ĠĠĠĠĠĠĠĠĠĠĠĠĠĠĠĠ ĠĠ
R ail
p arameters
Ġco aches
is en
ĠD omin
w ich
Ġabsor ption
Ġdet ector
Ġcomm ander
ĠS oc
) ).
Ġold est
ĠGree ce
ag an
ict ed
ob serv
Pro ject
Ġp y
ĠF ront
clos ed
c ache
. \\
ĠSquad ron
Ġregard ed
ĠS ri
duc ible
Ġm orning
d am
Ġflo at
Ġext ent
id al
! \
olog ists
Z E
ĠLem mon
neg ative
Ġprodu cing
ĠL ike
Ġmanag ers
ey n
st ood
) ^\
ĠIn ternet
190 9
ĠM it
Ġw itness
ache lor
m o
T T
ure au
( _
if est
ĠGe V
b ool
ĠCon stitution
down arrow
dis ambiguation
an ia
Ġse ed
k it
ĠTh rough
á »
More over
Ġperturb ation
Ġcall ing
190 6
inst ein
plic ated
Ġaud io
p ol
ro it
Ġconserv ation
Ġgu est
Ġeigen values
ĠC atal
Ġgu ard
Ġcross ing
Ġconn ections
Ġpil ot
z ed
ĠAm ong
Ġk e
ĠHar ry
ow ski
Ġs ail
Ġnot ion
Ġcirc uit
ap se
ile y
Ñ ĥ
Ch ang
ĠSim on
ĠMod ern
Ġsched uled
T ransport
equ ations
Ġmon itor
g ency
ik h
ĠB alt
Ġle ct
Ġbal ance
Pro cess
Ġviol ence
P ol
ĠL ast
im p
ĠCon st
AT ION
hip s
ĠD C
Ġh ierarch
Ġdirection s
text color
Ġprot ocol
Ä ĥ
S H
S F
qu ant
ag h
Ġpre ced
190 7
Ġpl as
ubl in
ĠWh it
Ġv anish
Ġdemonstr ate
Ġf uel
the re
Ġm ales
rang ian
}{ *
Ġat oms
c oh
Ġpass es
ject ure
ph antom
ul us
Ġpain ter
Ġnecess arily
Ġs an
ĠT ony
re v
Ġany thing
ĠO tt
Ġillust rated
D C
ĠJ ordan
Ġequival ence
ĠTok yo
com plete
Ġb ought
Rec ord
Ġcoupl ed
Ġv ent
ii i
ĠF ame
ĠN ev
Ġperiod ic
Ġreconst ruction
Lev el
equ al
D M
l ar
ĠSw itzerland
Ġde leg
)-- (
ĠN ap
Ġsit uated
@ {
Ġhold ing
Ġwe alth
25 6
Ġprom otion
Ġfund s
p red
Ġb odies
ĠE P
ĠL iter
in th
Ġcont ribut
Ġprodu ces
Ġsk y
ĠSta ff
Ġhe ro
Ġpract ical
Ġin tern
Ġch arts
ĠHow ard
w ick
Ġt rib
ĠB at
Ġcont ributed
Un it
Ġsomew hat
Ġg ate
ul ating
Ġob j
Ġexper i
ĠB efore
anc er
s n
ĠC ape
Ġw rong
An other
\! \
on i
ĠR oy
ĠN ever
ic ians
el ve
ĠIn itial
ĠZ h
ĠMan chester
ĠS ym
b uffer
Ġth read
is or
ra v
Ġsch ol
Ġhead quarters
k ind
Ġgener ating
ag ues
X i
Ġd x
Ġdemonstr ated
Ġsp ac
ĠH om
Ġre nd
G en
Ġdi plom
Ã© t
ĠNor wegian
j ust
Ġso le
ĠW indow
Ġ$\ {\
Util s
m ont
ĠCom put
E uro
ĠC ost
ĠD om
ĠAg ain
Ġal ter
on omy
Ġres c
ĠH ur
ĠB or
ĠJ ane
Ġrepl acing
Ġent itled
ar ity
ov ed
ĠBill board
u int
R C
Ġprof iles
M ost
Ġprec ision
ĠTr ue
Ġm and
ac cess
ĠF ord
Ġevalu ated
Ġstandard s
ĠD a
Ġf olk
^* (
ant e
Ġc old
ĠReturn s
Ġ ),
~ (\
ĠC le
Ġneigh bour
Ġ( ),
Ġm el
B orn
190 4
ĠFor ces
Ġmusic ian
ph one
Ġind ices
F ont
Ġhistor ian
Ġref used
ett ings
F O
Ġsim ilarly
U nder
C ap
ĠK y
ilt ers
ĠCol omb
Ser ial
ĠEm peror
ĠR ights
Ġorb ital
Ġsy m
atur ally
eb ox
ug u
Ġn om
Ġper haps
ĠMag azine
ĠCh ile
bum s
Ġa ired
usc ript
ĠC H
St r
ate ur
inem a
ac le
bold math
ĠB run
ĠN ative
Ġcomm it
ĠM att
Ġre aching
s es
Ġperman ent
ĠS ound
N orth
S ign
con duct
Ġdom estic
Ġhor se
pro duct
ro ps
Ġ Ä
ĠO ak
d em
N G
Ġhe ard
C ref
Ġconfig urations
ist a
el le
ĠG R
Ġhoriz ontal
Ġs ac
ĠB urn
ivers ary
Ġl ists
Ġbrother s
Ġconstit ution
Ġcontinu um
Ġs un
Pos ition
ĠB eng
Ġm ount
on om
ĠC art
Ġdis establ
ĠEar l
ev al
ĠConnect icut
m al
Ġclass ified
Ġsett led
Ġt ell
ĠI S
ev in
ĠTurk ish
A f
Ġbenef it
S k
Ġshort ly
com b
Ġcomb at
Mod ule
H er
Ġdeg ener
) ),
ĠR ab
ĠN ick
ur is
S u
P ass
Ġc ache
Ġmer ged
Ġimprov ement
$ ^
r ase
V ill
Ġsupport s
in cess
up arrow
AC K
ĠR ose
ĠTe levision
He ight
Ġnormal ized
P res
Ġs and
ĠE ric
Ġinvolv es
ic ial
Ġfact ory
h ist
ĠW y
Ġevery thing
Ġelect rons
iam i
f iles
script scriptstyle
V ari
ys ical
Ġsing ers
and o
Head er
her ical
Ġsurn ame
es ides
Ġh our
Ġatt ached
Ġab stract
Ġa id
Ġunivers e
Ġqual ified
Ġredu ces
ĠAl abama
ĠS che
Ġdens ities
b urn
t or
ĠW olf
Ġly rics
od ox
m f
ers et
Ġemploy ees
Ġent ity
aw are
Ġrespect ive
Ġbound aries
arri er
Th read
ĠF red
Ġsport speople
t ers
Ġpand emic
Not able
ĠWal ter
ĠG ab
tt y
ĠMiss issippi
Ġsc ores
Ġent ang
el son
Ġmay or
Ġp ush
Ġch ance
ĠE s
Ġu int
Ġrecomm end
Ġcar bon
F ootball
ov ation
aw s
Q Q
13 0
Ġrelig ion
ĠN FL
ĠO klahoma
Ġs ons
Ġcollabor ation
Ġver ify
ĠReg ional
Ġpart ially
ene z
ĠK at
Ġf resh
Ġ ellipt
ĠB rian
Ġcompet itions
Ġsign ature
ink ing
uer to
let ed
ĠBuild ing
ĠM L
w as
Ġinst ances
ĠW ho
s quare
Ġad vers
Ġconcent ration
ĠLin coln
ĠL td
190 3
Ġheav ily
ĠExec utive
Pro perties
D own
Ġconsist ed
Ġ }}
ol ished
ship s
Ġmetric s
Ġalleg ed
Call back
force ment
Ġprogram me
190 1
Ġan not
; ->
Ġdef ines
Ġg irls
ref ect
ĠInf antry
t ex
ĠT an
me an
Ġconf idence
ĠSt ory
ar ithm
g han
Oper ation
Ġwin ter
ta h
en ia
Ġfrequ encies
E p
Ġt ick
r in
um a
cor ollary
Con tainer
ĠT en
Ġex pos
rid ges
Ġsur faces
ĠEn vironment
Ġext reme
=" -
ist ence
M c
Ġpresident ial
Ġcaus ing
ĠS ix
m ut
As ync
The y
Ġpop ulations
$. }
Ġthan k
ĠAl b
Ġinstit ution
Ġdirect ors
Ġtem ple
ĠSen ior
Ġch ose
R ange
ch ant
sy mmet
Ġag ree
ĠTh ird
igen ous
F inal
Ġc as
ĠP a
it udes
T A
ab ad
Ph il
ĠSt one
ĠF ourier
! ]
d ouble
n ight
Ġcomplet ion
Ġbro ke
Ġconclud ed
Ġs ought
ĠC ru
Ġex cell
Ġexhib ition
;" |
ard o
Ġconj ug
ĠJes us
ĠH ans
Ġform ally
Ġexec uted
ag u
H ow
ĠAss ert
tain ing
ind s
rep resent
G M
Ġincorpor ated
ĠC ode
Ġiter ation
190 2
f r
in itial
Ġm obile
ĠDi ego
ĠCre ate
ĠStand ard
e le
Ġconcern s
Ġsent ence
w ave
Ġscen es
Ġexpl ore
ub b
Ġsaf e
Ġpl ate
Ġbelong s
ĠE very
- (
ĠG ram
oc ate
Ġappear ing
E ducation
="../../../../ ../
Ġuniform ly
Ind ian
ĠN av
ä ¸
Ġf aced
iv a
ĠW he
Ġsens itive
Ġm art
Ġro of
ĠMar ine
Ġexper t
| ^{
Ġfound ing
ĠN aval
ĠP rix
ĠA ge
Inter face
Ġc riminal
N AME
u on
ap h
Ġliqu id
ow nt
y ers
ren e
Ġgeomet ric
Ġeduc ational
) [
Ġstudy ing
ĠChild ren
% .
ĠAb out
$ ^{
ĠOn ce
R S
Ġdiff usion
pl es
du ate
U M
ĠC op
ĠF ac
b order
Ġprom ote
ĠMar c
Ġinflu enced
Ġ ::
trans form
ot ter
H ttp
ol o
Ġk ick
Ġautom atically
res ource
Ent ity
ir cles
Ġmaintain ed
H om
Ġro ots
ĠL ank
St ud
Ġqu as
Ġlin ked
* \
iz able
Ġmet all
ĠH amp
od ge
Ġorient ation
ĠCommon wealth
Ġenc ounter
O ption
art ifact
ur ance
F S
b efore
Ġperiod s
. '
ĠLab our
Em pty
> ,
ex ists
Ġpolar ization
Ġtest ed
Ġsimultane ously
Ġp uls
iev al
r ator
Ġcontrol s
Ġprot est
er on
pro pto
util s
Ġmov es
ĠâĢ ł
ĠBul g
in variant
D raw
Ġinterest s
Ġcom ments
ĠCro at
Ġag ency
Ġf ought
ĠN AS
sup er
Ġdescrib ing
ĠAll en
foot notes
stack rel
Ġret irement
Ġoper a
N one
Ġcommission ed
in ces
Ġkill ing
ĠD ark
Ġscen arios
D ocument
\\ \\
ian ts
ĠG re
Ġoper ate
us hed
| $
Ġc odes
Ġe c
Ġresist ance
Ġp ed
enc ing
ĠJ am
ĠSup pose
St ep
ch t
ĠC er
{ |
St ar
ĠOffic er
Ġwe ather
ĠR ow
ĠV ice
Ġsymbol s
ĠF M
Ġenh ance
Cl ub
ĠCons ider
Ġl ake
Ġmodel ing
ĠR eb
ĠE c
ut or
Ġher self
ĠCo oper
Ġj azz
Ġb rain
ab y
Ġch urches
enn y
ograph ical
atur day
Ġl icens
ma ke
um ption
Ġvary ing
ĠAddition ally
text up
ĠD ream
Ġk il
l ayer
ĠF a
Ġcont ribute
ĠS ud
ĠN ich
ĠN ext
Ġparticip ants
o a
)} (\
Ġl icense
ret ch
ĠPortug uese
if iers
ur d
ĠHe art
Bl ack
ct x
Ġtrans itions
S earch
B P
Ġattack ed
ĠM oon
B ra
ĠInst ead
M ilitary
ĠJ ay
to ken
V AL
Ġcoll ision
osl av
inc or
ĠS quare
por ated
Ġcol ors
Ġliter ary
ĠB rand
ĠG P
Ġdr iven
Ġmet res
Ġhom ogeneous
Ġdist ances
Ġjo ining
Ġg ar
Ġinvest ment
Ġp un
par allel
footnotes ize
Ġf aster
Ġloss es
ĠC ON
Ġcor por
lad esh
Ġfill ed
b ad
h fill
$\ ,
ĠI r
put ation
rom ise
Ġ> =
T YPE
ĠArgent ina
&= &\
Ġanaly tic
Ġuncertaint ies
ĠTai wan
ĠQue bec
18 80
G r
ash i
U C
typ es
ĠD eb
Ġa head
Ġf lex
cul es
ĠS N
) (\
Ġimmedi ate
Ġclos er
Ġag ed
du ces
ocr atic
Ġinh abit
Ø §
D en
overs et
V ector
rins ic
{ (\
Ġair port
F amily
c raft
or ro
" ))
oc a
ram a
Ġc od
ĠO R
ĠIn n
Ã ¥
Ġst ead
Ġm essages
O K
Ġap art
left arrow
in burgh
Ġf itting
Ġm ist
dev ice
} /\
Ġover ride
ar ry
Ġtop ology
A ng
ĠG all
ĠEX P
' ve
mod ules
}$ \
Ġprote in
ĠComm unic
Ġs occer
struct ure
Ġd uration
ĠAdminist ration
Ġindic ating
Ġ( '
un n
Ġsup pose
Ġsche mes
Ġunder stood
Ġneutr ino
s a
ĠHou ston
ĠCh all
Ġro ut
ĠNC AA
Ġm oments
un ities
Ġtransl ated
Ġhot el
Ġtrans action
t im
Ġan imal
Ġgreat est
ĠSil ver
Ġd ates
ĠN ik
Ch ange
r ates
ĠMon te
Ġview ed
Ġweap ons
am ing
Ġphot o
Ġcent uries
ĠHon or
Ġdecre ases
ĠK az
g ather
h ave
anc ell
ĠMo ore
st op
Ġalgebra ic
ST ATE
ĠPat rick
Ġderiv atives
c ers
ĠSim ilarly
) }.
qu est
form ing
Ġd rag
cer ning
Ġquad ratic
Ġpropos al
Ġoff ices
PY G
styles he
Ġen able
C ore
Ġstrict ly
P arams
E P
S yn
Ġpublic ations
sp in
Ġg uns
jo in
' _{
Ġgener ator
er g
Ġh ope
Ġhas h
Ġcon vers
ĠG a
ok es
Ġprec ise
Conn ection
Ġsk ills
s end
Ġens emble
Ġchalleng es
v ia
Ġstring s
el and
Ġ ..
Ġt ang
d ied
al ia
ynam ics
Ġatt ributes
Ġt ennis
Ġass embly
Ġstraight forward
z ing
: (
ĠCh ampions
ĠPro duction
Ġsol ving
r Ã©
cy cl
Refer ence
Ġcontain er
Ġat omic
ĠRep ort
ĠF ace
Ġlaw yer
*} [
Ġb rown
L R
Ġfeed back
Ġform ulation
Ġv ideos
Ġstrateg ies
D ir
ĠM and
Ġdev iation
T im
ĠF inn
Ġin clusion
e ach
se p
ĠDo ctor
Ġm ent
iv ery
ĠBatt alion
ĠSw iss
ĠB ureau
Ġsur g
Ġrapid ly
Ġfound ation
ĠP as
ĠA le
M F
ĠC ra
l arg
Ġhum ans
C opy
Ġdef initions
Ġl es
ĠAn ne
ĠC ook
c opy
Ġworld wide
op ter
Ġd anger
en ance
Ġsens itivity
Ġin duct
Ġinvestig ated
Ġsystem atic
ĠP ope
rom agnetic
ĠBelg ium
ĠIsrael i
Ġrev olution
fin ite
Ġf er
Ġtra v
em ale
ĠIslam ic
c ross
v ect
us al
Î ±
ili ary
Ġpersp ective
r ison
w ill
Ġf ranch
est amp
ĠA re
Ġsp an
ĠRec ord
b its
ĠR ang
Ġo vers
ĠC emetery
ĠAnth ony
ĠY outh
Ġread y
Ġexpl os
Ġdiscover y
Ġreject ed
ak ed
D om
Ġdisp ersion
ĠN ag
ĠH ockey
Ġbenef its
re q
R oman
Ġpan els
Ġadapt ation
Ġb atter
ĠG ard
Ġs oci
I B
l u
Ġtem poral
Re ception
ay an
Ġcap able
G P
Ã ´
ĠA L
Ġstri ke
ĠUn it
st ore
ĠD ur
Ġprofess ion
Ġestablish ment
ĠG ordon
Ġprom pt
Ġm ock
Ġst ating
he red
Ð ²
ud a
Ġpol l
Ġdiagram s
ĠF erm
ĠDen mark
Ġdo or
ĠPal est
f ast
Ġkey board
g rid
Pro p
Ġste el
7 00
ol ver
Ġad vent
Ġdisplay ed
COL OR
Ġad ult
ant asy
Ġconvent ional
ĠD ick
no ise
D el
h ash
Ġv ision
Ġaccount s
Ġ rows
Ġrestrict ion
ĠS n
Ġcomm itted
Ġt el
ĠK am
Ġcru cial
ĠOr th
ro b
Exp atriate
d ensity
ĠI mm
ĠAl ber
Ġg ender
ist ant
ot ional
maz on
P tr
Ge V
st ates
ĠCol lection
Ġdis appe
Right arrow
Ġc risis
Ġpaint ings
ĠAnton io
ĠTem ple
Ġrelationship s
m arg
ĠLouis iana
ri k
l ate
ĠPh ill
Ġst adium
set t
Ġn arr
Ġqu ot
ĠK o
Ġpoet ry
cm d
Ġvol unte
Ġprep ared
Ġe ye
}^{ +
t n
G E
ativ istic
ator ial
ĠBrazil ian
Ġopin ion
Ġpres ents
ĠS el
Ġtrans verse
V M
rack et
ĠM S
Ġen emy
ĠM i
rad ius
M em
Ġconv olution
Ġr uled
Ġdec ade
Ġequip ped
com ment
Ġactress es
ss on
M ajor
D et
ĠTod ay
Ġ _{\
am ents
Ġexpect ation
ou stic
fri end
Ġt ight
$ '
ĠAl gorithm
Ġdesign s
az a
Ġt ack
el ian
Ġin aug
Ġe cho
Ġbusiness es
f inals
D L
Ġexhib it
Ġp ione
ĠT ext
Ġch apter
Ġres idual
Ġinv ited
1 13
U K
st ances
s ite
Ġre ward
189 8
Ġco ok
Ġcrit eria
ĠH u
f il
inter face
M al
pl an
ĠP age
ĠTer rit
g i
ĠS in
or ient
Ġident ification
be an
Ġcl er
i eg
ĠH erm
gra v
ĠA GN
Ġaccom pan
is lation
olv ing
get s
ĠDoug las
Ġclos ure
ĠS ign
) &
n ie
A v
Ġf itted
Ġhom es
che ll
H ost
Ġloc omot
ot te
ir ation
Ġweight ed
En c
chang ed
ĠBrig ade
P arameters
M I
Ġmod er
ol ation
ol id
R T
V er
Ġn um
Ġ ray
reg ion
Ġaband oned
Ġcomp ilation
ific ate
Ġt ropical
Ġanc est
ĠF le
ph ase
Ġv o
im ore
Ġf an
Ġh air
ch ain
ĠV ari
ĠD anish
Ġdiam eter
? :
Ġdis pl
Ġsp here
oc racy
I ter
Ġorth ogonal
Ġus age
Ac adem
Ġstand ing
Ġcorrel ations
Ġcompar able
Ġpolynomial s
Ġirre ducible
Ġcon version
AT A
b ey
ĠD al
Ġisol ated
ts burgh
han ced
Ġhigh way
Ġs ale
ĠLiber al
f ly
H ash
Ġhy brid
iss ance
r ub
Ġjob s
Ġv oted
Ġrequire ment
Ġ\ |\
Ġre in
Ġread s
Ġb an
writ ten
ĠEd inburgh
Ġg ene
hy thm
ic ide
h ab
S ym
ĠA ction
B as
Ġform ing
ren a
ĠLie utenant
e ast
artifact Id
ĠPl ayer
ist ration
Ġn aturally
ĠVill age
ĠB ry
ail and
AP I
Ġh uge
ĠEx press
\| _
er ion
m ag
Ġcy l
Ġman uscript
ĠArch itect
ĠD ublin
N T
Song s
}. }
S em
rupt ion
ĠD ak
In itial
INE AR
Ġint elligence
Ġrad i
ĠD at
ess ions
ĠM rs
Ġarr ival
Ġresear chers
ig ious
Ġc ub
ĠMe an
189 9
ĠP ap
Ġtarget s
ĠDon ald
Ġin it
et ry
hold er
iem ann
edd ing
Ä «
Ġch ampions
Ġst abil
Ġst ored
Ġbran ches
ah n
ĠHot el
over y
ĠHaw ai
Ġdo ct
ĠRober ts
U se
ĠN ig
="../../../../ ../../
ib ilities
j ar
1 15
L oc
ymmet ry
ĠN am
ĠE ag
Ġrat ios
Ġenc oding
mod al
n m
ĠR est
R ober
ĠP uerto
ĠHer itage
osp it
ĠI P
ĠCE O
c ategory
in ch
ĠIndones ia
Ġd oll
Ġt error
ĠAb d
w en
Build ings
ĠN umber
ĠV iew
K ind
================ ================
Ġpubl isher
Ġreason able
ĠStud ios
Ġsl ope
od a
ĠPortug al
iv ation
Ġt all
Ġr ival
Ġ$ ^{
ra ble
Ġcon vention
Ġcerem ony
Ġdomain s
Ġl aid
Ġtop ic
arg o
ĠEx ception
Ġreplace ment
ĠAl ice
ĠI mp
Ġne ither
ĠHar vard
\, {\
ĠR E
conn ection
ĠAss oci
Ġrem ember
level and
Ġne arest
Ġtouch down
ĠB G
Ġform ul
Ġdis order
s is
cond ition
ĠL am
ĠS port
Ġaccret ion
Ġsec ure
d ict
Ġelement ary
ĠDet roit
t ml
w t
Ġw arm
Ġinput s
] ^
ĠR ic
ul ator
all as
viron ments
ĠDis ney
L o
Ġre ign
av i
ĠP ed
ĠMc K
GB T
l on
ĠPl ace
AL L
ĠB uck
d ash
Ġm ir
ang o
U P
oc he
our se
ĠIn vest
ĠV in
_{ +
Ġr ating
ug ment
Ġbring ing
Ġs ell
orig inal
ĠM iami
ab et
Ġelect ro
ĠHol lywood
rand om
is ition
Ġent rance
Ñ ı
Ġcoll apse
l at
t otal
lim it
fo o
ĠÃ ī
ĠE arly
Ġst ores
Im pl
um ps
Ġsubject s
ĠB ou
Ã ł
Ġjust ice
Ġ\ [
gress ive
Ġv ariant
Ġindependent ly
Se lected
Ġ* )
ĠD VD
18 70
Ġpers ons
ub er
Ã «
Ġbo at
10 5
ĠInd ependent
ĠU l
part icle
Ġpass enger
ĠLeg islative
im its
ĠS O
ĠAf ghan
L in
ĠLag rangian
Form er
d ebug
14 0
ĠH as
ĠC ow
ĠHar ris
On ly
ĠR equ
Ġdr ivers
Ġperm ut
ĠM A
Ġstat ements
Ġaccom mod
Ġeng aged
) _{\
G reen
ĠR y
Ġis lands
uz z
g on
Ġd ip
ĠP C
Ġre new
Ġep och
M ich
Ġrang es
Ġfav our
Ġcommun ic
pos ing
Ġd ry
Ġfin ishing
ĠC ulture
Ġb low
M any
Ġmod ules
Ġmid field
Ġeng ines
Ġ es
d ale
ĠJ uan
Ġcompet e
Ġb ond
ĠSam uel
Ġpenal ty
Ġh its
ĠM C
S ettings
Ġfle et
Ġthous ands
s ong
ĠD M
ĠSh ar
conn ected
un ately
rap y
Ġtraject ory
ÃŃ n
") );
red ited
Ġcomp atible
Ġparticip ate
L ang
ren cy
leg es
ĠL anc
Ġl i
iam ond
Dav id
Ġsatell ite
bin om
ĠL ear
Ġd t
mer ce
=\ {
Ġdown load
small skip
189 5
Euro pe
ĠK a
Ġres erve
Ġbas eline
Ġsignific ance
ĠMed icine
b ind
Ġf ib
ĠArk ansas
n etwork
Ġca ref
ĠSup port
J o
Ġtransform ations
ig e
Ġv irt
Ġast ron
}) ^{
in ternal
an im
ort ion
ĠAn y
ĠMat the
j pg
group Id
Ġsy mp
Ġf ly
ĠB lo
ĠT ig
Ġa ux
Ġund efined
o i
. $$
Ġ-- -
ĠH ilbert
ra k
ĠH ills
ĠCont rol
ĠW ard
ĠIm perial
n umer
Ġstrong er
AN D
ĠU V
Ġrob ot
own ed
incor porated
w ho
Ġsever e
189 6
Ġextract ed
F alse
ĠN ob
Int eger
Ġra w
ĠN atural
Ġp arams
Ġconcern ed
U LT
Ġphil osophy
az ines
F lor
Ġinj ured
er ial
ĠL INEAR
art icle
f ather
Ġm ob
ĠL yn
Ġcounter part
ov es
ors es
est yle
ĠSoc orro
Ġsec retary
Ġcom ic
Ġcomp re
Ġpix el
g ate
1 12
Ġacc used
& &\
Ġre vers
ĠLa ure
Ġdistingu ish
ĠOr chestra
now ledge
Ġan th
ownt own
pre c
Ġwindow s
prob lem
as p
l oss
at ar
function s
Ġaccom pl
Ġv ot
Ġanim ated
Î ¿
ce il
Ġexperi enced
ĠFreder ick
Ġh ired
ann e
u h
Ġd ynasty
Ġdeliver ed
Ġferm ion
en ian
n ik
Ġclass ic
ĠU se
ĠFri ed
ane ous
Ġexplan ation
or f
ific ial
Ġrecord ings
m oment
u ct
Ġas k
Ġleg end
ĠF ern
spec ial
Ġcomp ris
O fficial
Ġrandom ly
Ġsub space
Ġphot ons
Ġdiscuss ions
ĠSo ft
pl us
ĠT ar
Ġpoint ed
l b
Ġp adding
or row
Ġcast le
% ,
ĠL as
ĠF il
Ġgradu ate
a ire
ĠSt ew
Ġbir ds
( :
in ian
iss ue
ĠN et
ro c
v m
cre en
Ġf alls
ĠB us
Ġun iqu
ut able
189 7
ĠF arm
en z
Ġrema inder
Ġcon crete
ĠL O
ĠAl an
Ġ ~\
Ġscient ists
ĠR ub
dist rict
ura ble
Ġsubstant ial
ĠDef ense
Ġmembers hip
Ġw ire
ĠS R
Ġreconst ruct
Ġinv asion
Ġcarry ing
Ġpract ices
p ot
Ġcho ices
Ġback ing
s ample
Ġro utes
Ġdis miss
HT ML
H D
n ol
Ġkeep ing
add ress
th rough
M ac
Exp ression
en v
sing le
Ġfac ilit
Ġin fo
ĠUk rainian
S ession
ĠC hen
is p
riev ed
end ment
ish ops
St ore
em en
Ġsol ved
ĠBow l
H as
Ġinst rum
Ġex erc
ST R
Ġinstrum ents
Ġstruct ural
Ġinhabit ants
Ġpercent age
Ġsub section
Ġsim ulated
' >
ĠAg ency
Nav Bar
ĠC are
ĠG irl
Ġj unior
c ert
m illion
Ġhapp en
ist ing
Ġf old
Ġpseud o
ĠA M
Ġin duction
Ġatt raction
Ġcent ers
eg et
ĠBang ladesh
ĠWalk er
ĠMay or
ĠCom b
ms g
Ġsee k
ĠA P
ab ric
mid rule
Ġres igned
l ass
\ },
a ired
Ap J
Ġpotential ly
Ġa cknowled
Ġ{ $\
Vill ages
It alian
Ġmin ing
ĠWindow s
Ġcomp ens
ĠPol icy
ĠT un
p erson
Ġn ick
ĠH ug
Ġx ml
ĠEx p
ĠM os
Ġtri es
Ġp up
al id
erm in
ill ed
enez uel
Ġm ort
cor respond
ĠD ate
ut s
Ġ\ {\
ĠR ap
Ġrec ur
Ġmechanism s
Ġkin etic
+ $
ird s
ot he
Ġv irus
ĠDig ital
Ġpurch ase
or er
et ing
Ġbig gest
hens ive
Ġf rames
Ġreson ance
W S
ĠEXP ECT
Ġground s
Ġrecover ed
ĠS everal
f all
sup port
Ġle af
ĠCor ollary
il st
Ġsup posed
th ick
Ġinf rastructure
Ġassist ance
ourn ament
Ġtw elve
uk i
var rho
Ġh al
Ġleg islation
Ġmin ute
Japan ese
Ġstri p
do or
ĠC R
Ġf iber
Ġmorph ism
ov ing
Ġd uty
ĠComm ander
med ia
ĠPet ers
Ġlat est
ĠMalays ia
at en
ish ment
ĠM ond
Ġdepict ed
Ġland s
C y
Ġarm ed
Col lection
Ġocc as
b ach
Ġinterpret ed
Ġanal ys
ĠGu ide
eg as
ĠD ave
bor ough
C K
F ound
in du
Ġdef ining
W A
Ġ" \
ĠF unction
ol ph
b c
f g
ap olis
H istor
Ġregular ly
ĠTh ailand
M ale
ost ic
ann y
ĠTra ining
ĠFin land
ĠAust rian
ick er
Ġmer ger
Ġcred it
Ġphot ograph
ĠSing h
u able
Med al
D T
is ations
Ġinter vals
ĠHistor ical
ph ony
ĠR yan
Ġac id
Ġplas ma
Ġhapp ens
Ġassoci ate
ĠB ox
Ġevery one
Ġfil ename
ĠP rad
Ġreg ression
et he
ĠĠ čĊ
ct ic
ĠLaw rence
S an
Ġlik elihood
ug ar
aint enance
Ġthan ks
ĠB uff
Th om
St ack
ĠJ ava
Ġch air
im it
ĠAtl anta
Ġincreasing ly
Ġcirc ular
Ġb ed
Ġf its
{ .
ĠT reat
d in
ĠChe ck
Ġinv oke
cast ing
() :
ĠMc G
Ġdec isions
E st
Ġgood s
ant i
ith uan
mult line
ĠĠĠĠ ĠĠĊ
}{ {\
her ic
ĠS aturday
Ġsign s
Ġconstitu ency
ib l
re tt
ĠR ol
) }$.
up l
rid ay
ĠS S
Ġseg ments
Ġhapp ened
188 9
ĠM anu
cl oud
u is
ĠOper ation
Style ID
ĠSc ient
Ġre aches
ĠC ensus
ĠF A
Ġcollection s
spec ific
u ction
Ġgrad e
Ġunivers ities
) >
over ty
ir i
Ġsim plicity
Ġcom plicated
ĠF all
Ġaver aged
ang el
189 3
equ als
mar ks
Ġearli est
Ġran king
ather ine
189 2
Ġpre v
b lem
as a
pro perties
H P
11 1
Rail way
Ġpra ised
Ġref uge
th an
ĠK evin
bl ast
Ġconn ecting
T itle
\ }.
Ġal gebras
Ġsimilar ity
Ġneg oti
Ġrespons ibility
ĠCommun ist
Ġpro position
Ġv eter
B bb
b etween
ĠĠĠĠĠĠĠĠĠĠĠĠĠĠĠĠ ĠĠĠĠĠĠĠĠĠ
Ġexp ed
Ġed ited
ĠIm age
Ġstop ped
Ġun us
or us
styleshe et
Ġsh ut
am an
Ġch iral
Ġj av
Ġb ishop
n est
Ġap plies
Ġimp ly
f ire
ra ise
g p
hand le
big cup
w ords
Ġjourn ey
ĠDe ath
pr ise
Ġaccompan ied
t b
Ġcondition al
Ġkey s
ĠP ur
P aul
J ames
text normal
de lete
} >
or ous
] =
Ð ´
g ments
Ġord inary
Sp ace
Ġm ental
Ġschol ars
ent er
Ġv ic
% ;
^+ $
b ridge
IG N
Ġbo ost
const ruct
ograph ics
ĠDep uty
_ ;
Ġneigh b
Ġmunicip al
ĠN E
ĠG arden
s ession
f ramework
ĠPe ace
Ġrem ote
189 4
Ġoper ates
B r
Ġconf irm
sp ring
Ġhost s
Ev ents
_{ -\
Ġoccup ation
ĠRes erve
1 17
Ġhoriz on
int end
Ã³ w
Ġroad s
Ġanaly ze
ĠAl ban
ĠĠĠĠĠĠĠĠĠĠĠĠĠĠĠĠ ĠĠĠĠĠĠ
Ġcoupl ings
n od
ĠR ound
ĠHung arian
Ġc ited
ac on
Ġcl ock
Ġeigen value
ĠSt art
Big g
un ing
Ġturb ul
rec ord
B ur
Ġin ference
Ġorb its
Pro duction
}[ !
Ġcrow d
Pro position
def n
lim inary
c ript
Ġmed icine
Ġsyn chron
}{ }
ĠU tah
ĠN ash
Ġasp ect
ri ed
appro xim
ĠS af
1 14
ug oslav
ĠM Ps
Ġfrag ment
Ġcompar ing
ĠMot or
ic i
Ġexper iences
ar ial
ĠNew ton
189 1
ĠN GC
roph y
ĠR ugby
' ll
ĠDe ad
ĠEq s
Ġgu ide
Ġeth nic
Dat abase
Ġredu cing
Ġf lying
Ġsp eaking
O pt
pan el
Ġtun nel
init ely
ort ed
new line
Ġhol es
Ġsmall est
Ġpost erior
ĠP ad
ĠP ear
ĠG on
Ġarrang ed
Ġarch ae
18 60
Ġpri est
I E
Ġloc ality
lem an
ug ins
sub equations
ĠT amil
tr ivial
lo at
Ġpartners hip
Ġpremier ed
dist ance
Work s
Ġres idence
cl ide
Ġconsider able
s eries
Ġreal ized
ĠJ un
Ġproper ly
t ed
ĠB art
Ġembedd ed
fl at
Å Ł
ĠA BC
Russ ian
Ġstation ary
Ġcosm ological
Ġf iled
Ġpri ze
Ġsche dule
, ...,
ĠR io
ine a
R ich
Ġunit ary
Ġk id
Ġnames pace
bar a
Ġcour ses
ĠVal ue
Ġvictim s
ĠHung ary
f ocus
ta ke
ol ly
N etwork
Ġass ault
Ġman ip
ra ce
ĠI ron
Ġabund ance
Ġacc um
requ ency
T ube
188 5
Ġhe ter
isl ature
ĠLang uage
F ix
Sy mbol
ol as
Ġagric ultural
S ur
Ġpr on
ĠAn na
n amed
Ġvol umes
ĠMont real
olv es
ĠOrth odox
Ġprodu cers
M arch
Ġj unction
Ġen abled
. :
An y
ĠSe ason
U r
H y
re place
ĠWel sh
Ġpass engers
th a
}} ,\
le ased
Ġc ircles
c ounter
pro file
1 16
p in
se par
ĠCh amber
ĠJoh ann
l m
ĠCh airman
F ran
Ġpat ient
ĠR ick
w ig
Ġhead er
Ġm us
á ĥ
ak ers
ro le
M er
Ġmathemat ical
e a
ĠR ace
pe ople
c are
ĠO ri
g ame
ĠRoman ia
B ody
Val ues
Ġat om
Ġatt ributed
e lection
el lect
Ġb atch
Ġw aters
ĠEqu ation
Ph ys
per iod
ĠL ib
ĠR ight
Ġdis contin
Ġcon cerning
Ġpar se
Sc ott
ĠThom pson
Ġres id
li ed
ver age
Ġen vironments
refect ure
Ġpreserv ed
Ġren ormal
Ġrecover y
Ġshoot ing
ass ador
Ġbelong ing
sc ious
Ġde lete
Ġa ugment
ĠAd vent
Ġsh ares
ĠDe ep
ĠCh ang
ject ion
Ġd war
Ġp ole
ĠOtt oman
Ġrece ption
es is
10 2
Ġsing ing
ĠSe attle
Ġv ort
ad ers
clide an
ip her
ĠV ideo
Ġvalid ation
r int
Ġw ants
âĢĿ .
ro se
Ġh un
ĠQ CD
Ġcolon ial
j u
Ġneut ron
ob a
ĠD ance
ĠE U
Ġd ies
Ġgener ators
resp ect
n one
Ġre nder
Ġdistingu ished
Ġsevent h
Ġex it
ĠN eb
Ġapplic able
Ġb inding
Ġrest ored
ĠPal ace
Ġval ley
A ugust
ĠB ush
Ġatt orney
cl ick
proto buf
ĠN OT
esc ope
ĠB ull
t ensor
Ġg ather
Ġmechan ical
ĠVi enna
ĠM ission
ĠRail road
ĠKn ight
Ġw ish
ond ition
ĠSh ah
Ġb ars
an ion
ĠC NN
Ġgrow s
Ġca ught
ĠT s
Ġm ilit
Ġadm itted
ĠWork s
is ode
Ġh am
ast e
Ġdesc end
ĠBru ce
Ap plication
oun ced
ual ity
ĠS yn
ĠJos Ã©
to String
ĠK on
n ia
ming ham
> .
Ġent ering
Ã ª
Ġdecre asing
Ġob st
ĠK ings
Ġlog arithm
ĠĠĠĠĠĠĠĠĠĠĠĠĠĠĠĠ ĠĠĠĠĠĠĠĠ
Ġcour ts
ĠB etween
st ud
ĠFerm i
AG E
ĠF al
f ol
ĠMa ur
ĠMor gan
ĠA T
Ġn a
EX T
ind ependent
Ġcol span
pr ison
P M
Ġre tained
play er
Ġsepar ately
leq slant
Ġn ortheast
ERR OR
re nd
Ġacc ord
iver pool
fra red
Ġra in
ĠMet ropolitan
g ow
amp s
Ġang les
Ġconserv ative
Sche ma
ĠB oys
Ġb reed
Ġste am
AC T
188 8
ĠAd ams
Ġinv ent
ĠT it
Ġtem porary
ĠKar l
Writ er
inem at
Ġsp herical
Ġplatform s
Ġhel ps
ĠAlf red
Ġp od
Ġnot ably
is ons
doc s
com es
Ġgreat ly
] ]
Ġdeb ate
| _{\
Ġpro hib
f ront
ĠPit tsburgh
Ġlog ic
Ġchalleng ing
ĠY ang
s ome
Ġd ict
ĠE rror
Ġcricket ers
ĠH ind
Ġsy nd
Ġj uris
Ġkn ew
ĠC S
k ar
u id
ĠPubl ishing
Ġw a
Ġin line
ul ner
Ġtr unc
u ary
Ġann iversary
Ġph one
;\ ;
Ġw arn
In valid
Ð ¼
ins ula
Ġprinc iples
}) =\
cy cle
Ġab use
ĠRuss ell
Ī Ĵ
ĠKel ly
Ġgeneral ization
Ġemp irical
Further more
im ir
Ġm it
ill o
ic he
ern ame
ĠMarg aret
ĠHamp shire
Class es
Ġcont roller
Ġsu it
Sum mary
as et
os ed
Ġs ud
Ġim plicit
Ġs ight
Ġcon formal
ĠCar lo
) }$,
uch y
ĠP un
Ġmar ine
( *
Ġcount s
P arent
Ġag encies
Ġowners hip
}\ ;
Ġwor st
Ġfranch ise
ĠW right
Ġsurv ived
ĠA y
ley ball
b d
Ġt ab
ĠCh ampion
th ree
rosc opic
at ivity
com plex
Ġgener a
k w
ok ed
Ġe yes
sc reen
Ġ\ }
ogg le
Ġby tes
Ġrecomm ended
ĠAg ric
Ġteacher s
Ġpeak s
l ined
ran ean
Ġround s
Ġopport unities
Ġb id
k ern
^* _
let ion
orn e
U psilon
Polit ical
M a
ĠM agn
ĠRog er
ĠN i
Ġinst ruct
Ġclust ering
ĠR ural
ĠC leveland
Hel per
ph an
ĠMountain s
h al
ic ons
Ġtri angle
Al so
ĠN elson
ĠD ie
Ġs ed
Ġconven ient
Ġre cept
Ġoffer ing
T ool
op ed
ĠN ar
v irtual
Ġint ent
C B
Ġconcept s
Ġrequest ed
Ġre con
periment al
i op
et ary
ock er
Ġan isot
Ġdiv isions
G ET
ĠM es
Ġpaint ers
an aly
og y
Ġsh arp
Ġt ank
sh aped
h ai
Ġl aser
Ġ} )
Ġmark ets
ag ger
Ġcompos ers
m el
ĠDe an
Ġb its
Ġis omorphic
k ens
ĠC rown
int ro
ĠCont in
ĠP ath
b one
b oth
g iven
or o
\ }_{
Ġinteg ers
Ġim possible
Ġvol t
Å ¾
Pl ace
Ġrestrict ions
Ġmy th
Ġdesign er
ĠAll iance
ov o
Tem plate
Ġdraw ing
Ġrail road
ĠL ower
Ġcan cel
ĠAust in
ĠE dd
Ġamount s
& $
ĠF ight
Ġpubl ishing
ĠEconom ic
Ġpl otted
' =
ĠS ac
n an
roll ing
Ġte en
Ġconsider ation
Ġm ig
"> &
Ġf ired
ĠW rest
ĠU lt
ĠBrother s
Ġreve als
ĠRef orm
Å Ħ
ĠChrist opher
ip ped
reg ister
I mp
Ġcomp lement
ĠV ersion
Ġout come
ĠS E
Ġland scape
pro fit
Ġsust ain
ĠChe m
Ġm ine
ĠCamp bell
o es
ĠE ver
ĠU E
Ġdivers e
ort on
Ġb oys
nt z
\| ^
18 65
Ġsum m
aut o
ho en
ĠTh ough
ĠKenn edy
r b
Ġse es
Ġs in
' ],
Ġsit uations
Ġhead s
il ine
Ġmet ers
Ġfe as
Ġperform s
M iss
ug s
ĠM icrosoft
ĠUp per
ĠDef inition
vious ly
Ġlook s
ordin ate
ĠAuthor ity
Ġlabel ed
al ph
Ġrun ner
ĠMar ie
3 60
Ġdam aged
Ġwith d
Ġfind ings
ĠĠĠĠĠĠĠĠĠĠĠĠĠĠĠĠĠĠĠĠĠĠĠĠĠĠĠĠĠĠĠĠ ĠĠĠĠĠĠĠ
10 4
cite alt
Ġpl ots
ĠBalt imore
ĠStew art
key s
$ _{\
v y
P RE
erb ai
Ġcustom ers
ar us
H M
um ed
T ab
Ġcond ens
Ġhydro gen
Ġspl itting
ĠT rade
Ġv oting
ĠN ep
conn ect
D iv
Ġs elling
ab out
188 7
Ġd og
ĠF el
ĠK an
er os
St and
IT Y
Ġestim ator
Ġjud ges
Med ia
p oly
_{ [
J une
Ġcent ered
M ag
Ġp ulse
ĠG irls
Com mon
Ġuns igned
ia h
ĠMa ine
Ġtri ple
ĉĉĉ Ċ
ĠV ik
Read er
oc y
Ġkn ock
\, ,
Ġdirect ory
old s
m iral
p ubl
' d
ĠE dition
b ishop
Ġathlet es
Ġconver ges
/ >
ĠCur rent
ĠBG COLOR
\ [\
w right
ĠOper a
b ow
text sf
Ġstre ets
ĠF ive
G G
ĠC A
Ġrac ial
Ġwhen ever
ĠT ask
ĠT am
Sh ort
Ġpro sec
Ġres ign
Ġamplit udes
Ġl it
ĠN ic
ĠMark ov
Ġs leep
Ġby te
tri angle
Ġprob abilities
vert ex
EC K
up per
D I
Ġap i
Ġcorrespond ence
urs or
Ġge odes
Ġdep uty
X T
U RE
nol imits
Ġp itch
ĠR iemann
ĠK u
Ġtop ics
Ġhard ware
R est
} ~\
ok a
pl ugin
ĠVol ume
Ġnorth west
i ated
ĠH it
il k
ĠF ull
Ġro oms
f ixed
Ġatmosp here
par a
ĠBrook lyn
r f
E rr
Ñ ĭ
ateg y
per ature
Ġfem in
Ġneg lig
ĠMarsh all
Ġm al
bo olean
lear ning
Ġre verse
ĠK l
[ $
ĠB ed
Ã¨ re
S pe
By te
ĠLeb an
' $.
ĠF ood
ĠG ray
Ġme ets
Ġdiscrim in
se a
Ġappe al
d ashed
G raph
ens ively
he rence
' ))
Ġprefer red
Rec all
Hand le
Ġdifficult y
ĠC arn
10 8
m ay
ev ens
ĠN eg
Ġmanufact uring
Ġhelp ing
ĠBl ock
. }\
ter ior
Ar gs
Ġresident ial
l ia
iv ated
ry st
h ome
ĠA N
aw ay
y ll
k t
ĠG ulf
C am
Ã© n
ĠPri or
nabl ed
ult an
h arm
Ġkil omet
ĠT ak
ĠAr n
Ġcov ariance
Af ric
Ġcompet itive
not in
aud i
ĠE mer
Ġ ).
Ġcontrad iction
Ġf ul
ĠG ran
ro v
com put
È Ļ
ol utions
le ans
Ġcool ing
v dots
ĠJ u
Ġdiss ip
Ġphenomen on
Or gan
v ance
Ġg ran
ĠD aily
Ġpopular ity
import ant
Ġtri ang
ĠCom ics
Ġn aval
Ġexpos ure
ĠA mazon
}{* }{
Ġpo inter
cl uster
Ġb anks
ĠA S
ĠO blast
B ecause
ĠT ol
st age
Ġpropag ation
sy m
Ex ample
ab i
um ing
Ġim prison
on ian
ĠSchool s
K n
Ġt ied
B en
Ġsk in
Ġdef ensive
D oc
bel ow
ĠDi rac
ĠH ell
rupt ed
Ġg iant
Ġ ri
Ġmov ements
Re lease
ig m
Ġar ise
umb ent
ĠD NA
ĠMet ro
Ġlay out
188 6
Ġ[ '
Dis play
back s
ĠPat ri
ĠYear s
ev a
ĠZ e
Ġelimin ated
ir ates
Ġin vert
ĠDak ota
Dev ice
L ater
ĠS P
d ers
id en
iz ers
Ġcompet ing
Ġany one
Ġex port
ĠU pon
Ġterm inal
Ġexc ited
ĠD allas
um ar
f our
sim ple
. (\
Ġven ues
N um
u ity
ĠCon vention
id ay
ĠGl as
ĠT ag
Ġc rown
}_{ {\
ail s
C I
ĠSystem s
u in
we ak
Ġexcell ent
Ġcl ients
Ġh ill
b ootstrap
Ġint rinsic
ĠF uture
ma king
e enth
i ac
list ed
M art
Ġg ang
Ġw at
ĠSar ah
G O
ĠP erson
ĠSen ator
ina e
18 64
Ġprison ers
Ġd ream
ĠPro cess
M ember
pp ing
ĠMur ray
apt ist
ĠPol y
inn ers
ĠMor ris
val ued
ap plication
i ere
188 4
Ġwavel ength
Ġst ood
P ool
Ġc av
ĠCent ury
M atch
Ġf ear
ĠO k
$ }}
iter ranean
ĠJ e
Ġb ary
J uly
or b
ĠPh ot
Test s
Ġorder ing
ab ove
Ġf aces
ĠC el
ĠV enezuel
ĠCap ital
ĠI O
R oot
h skip
Ġwhe el
Ġpix els
Ad dition
Ġaccess ible
el ines
A pi
Ġmarg inal
Ch annel
k ee
ĠP A
Ġover lap
ĠH end
ĠColon el
du cer
ma ker
Ġthe ater
Ġb ases
Men u
Sec urity
ĠPo isson
Ass ert
Ġstead y
j k
Ġemer gency
att ribute
A pril
ĠD ub
OR D
Ġst im
ĠHT ML
st ory
18 50
ou ver
Ġp ray
Ġrequest s
Ġ ĉ
ĠI ss
Ġext ensions
F ull
b olic
Ġconsum ption
Ġd uties
Ġprov ision
Ġassign ment
P rim
ĠR ud
ĠSec ret
de ep
Ġgl ob
Ġdebut ed
ov iÄĩ
Ġrestaur ant
S n
10 3
ch arge
Act ive
Ge orge
De lete
Ġre nt
over ning
marg in
Ġcritic ized
om p
Ġval ign
ast s
Ġrec urs
! !
ish ments
Ġp ot
P olicy
Arg ument
ibr aries
Ġeas ier
ĠRes ults
Ġut ility
ĠR an
Pro fess
onom ous
P rior
anc el
ĠC it
it ely
bound ed
Ġv acc
P aram
Ġcritic ism
ĠOr leans
j amin
V P
R ule
o om
Ġpublic ly
Ġactiv ist
fort unately
ĠNaz i
Ġjournal ists
Ġsuccess or
Ġpriv acy
Ġn an
ĠRob inson
M eta
h ow
Ġproject ive
ĠL iverpool
sq l
Ġcollect ive
d z
Ġhundred s
ĠCar ter
ĠC ass
}} =\
ĠPr incess
3 50
18 61
p ret
ĠInd ex
| =
et ition
ĠMov ement
ĠK it
> ();
sup p
Ġspac etime
Ġm outh
Ġref lection
ĠR ain
ĠJud ge
Ġal coh
O ctober
sequ ence
Ġorgan isation
Ġbu y
Ġassert Equals
p adding
Ġm m
ĠF ather
oid s
Ġreg iment
Ġst yles
ĠE ss
Ġco herent
R ob
ho ok
\ /
Ġcon e
Ġst eep
the ory
AC E
Ġ+ +
Ġs now
Ġwrit es
13 5
ĠOrgan ization
Ġdec line
des ign
OR M
Th rough
Ġr ivers
ĠO d
ĠL ane
ĠMunicip ality
Ġvan ishes
By tes
ĠAthlet ic
Ġf ruit
Ġn ations
mar ine
Ġaff ine
AN T
Ġturn ing
Ġcoll isions
Ġd ating
` .
Ġreal istic
H R
ĠA rena
} <
ev ents
ĠMad rid
Ġas sets
ĠPort land
Ġparticip ation
usal em
ĠC rit
Ġgr ass
? "
Ġprov incial
B er
Ġen hanced
ent ity
S ports
Ġhead ed
ul um
ĠUnivers e
Ġdis cret
ap shot
Ġs outheast
ĠGra ham
Ġp overty
ĠF r
R ect
ĠLank a
P al
Ġanalog ous
. },
Ġcut s
Ġrepresent atives
ĠP ut
int o
Ġexp ensive
Ġtraject ories
Rober t
= -\
Ġf usion
Ġg rey
ĠB ible
W R
ĠCon stant
Ġcred ited
Ġsud den
ĠT rib
Ġh ur
Ġstar red
du al
ĠN ord
Ġmix ture
Ġcom ed
per turb
oun sel
Ġpresent ation
10 7
os opher
ĠY an
ĠPrad esh
Ġdec ays
ex pl
m ock
Ġp aram
l ab
cc c
ro ve
duc ational
Ġsee ing
Bo olean
Ġl ib
Ġrece iver
en berg
Ġproject ed
188 1
S eptember
ĠT HE
)= (
Ġmem orial
ĠBir mingham
ĠAthlet ics
ĠM aj
Ġv eget
Ġf est
Ġeven ing
Ġiter ations
ĠFI FA
F ore
AT H
Ġtransform ed
ath y
Ġcho osing
Fe ature
ĠW oman
", "
Ġimprov ements
p otential
H ome
Ġsh aring
Ġinst ant
Ġm ile
' )$
Ġm o
' }\
h ill
ro d
aval ry
Ob serv
et on
b us
Ġo s
E lect
y stem
Ġfail s
ri el
ĠEv ans
Ġmole cules
Ġv ast
Ġvess els
re z
Met adata
Ġac oustic
ĠNever theless
ĠWe bsite
co in
ĠN ad
est im
Don ald
Ġdiv or
P ORT
Ġveloc ities
Ġsp arse
sp eed
M ock
Ġ& $
Ġpres erve
M ass
Ġfinal s
ĠS ax
F P
ot ten
ĠU RL
J anuary
Ġl engths
Ġw ounded
place ment
S N
S chool
Ġharm onic
at hered
ĠM ak
ex port
Ġoff ensive
ey er
ĠN ation
st s
Ġhe ar
ent ric
ĠB ud
ĠC ov
Ġpaint ed
Ġslow ly
Ġsouth west
ĠFrank lin
ial s
ĠK ur
A rm
Ġfocus es
dep th
ĠL P
Ġgradu ally
Ġinfl ation
v skip
Ġreli ef
18 62
se q
ĠT rad
by te
T own
h us
ellect ual
ĠS ite
ĠBern ard
iz ontal
R et
}} )$
Ġanim ation
depend ency
hy per
Sh ow
Ġnorm ally
188 2
ĠL ud
h alf
lect ic
Ġb on
Ġnormal ization
Dem ographics
it ime
li er
A cknowled
ĠH orn
ens es
c ustom
18 63
Ġcoupl es
ann on
Ġpres c
ĠYou Tube
ĠCh art
Ġweek ly
rep rene
s un
Ġanaly tical
Le ague
Ġforest s
ĠCat hedral
Ġinter ference
hent ication
sett ings
Ġ( *
SI ON
Ġnewsp apers
FF FF
Ġ{ {
Ġsw it
Ġdis joint
ĠT ournament
Ġpeak ed
nt il
ro ck
p ay
ub le
E nabled
Ġcy cles
Ġarr ive
Ġl ob
ĠStan ley
Ġexpon ent
m ate
ĠF riday
d p
Ġph on
Ġentang lement
Ġdec ide
Ġcatal og
Ġher itage
in line
ĠCar ib
ĠP i
op al
ĠConserv ative
Ġdisc ipl
Ġh ang
Ġadm its
au er
Ġc ous
T F
Ġcr ash
Ï Ħ
erv ised
iv an
P y
eop les
s yn
t own
ex ports
-- >
Ġcorrect ly
Ġun success
f iction
Ġc raft
Ġon going
Mult i
Ġres olved
ĠF ro
Ġhe aring
an alysis
Ġsynt hetic
Window s
ling ton
Ġlimit ations
M oths
) |\
Ġconsist ency
pr imary
ado op
Ġb rig
ĠU ser
, .
Ġhabit at
Ġdefe ating
Ġun stable
ĠA the
Ġad min
ĠB illy
Ġoutput s
t ically
Ġfact s
ĠP ictures
res ize
Ġdeterm ines
Ġrele g
ĠB omb
Ġ$- $
ric ane
Al umni
al is
Ġrec ru
Ġcon sole
vol ume
az e
ĠYork shire
Ġw el
ĠG ill
ut r
Ġtransport ation
Ġinv olve
Ġguarant ee
ĠBe at
ĠM ack
ĠB asketball
L I
K S
FA ULT
t ar
Ġvar ies
Ġintrodu cing
Ext ension
ĠR ico
ĠCarl os
Ġe lem
ĠM ong
le in
Ġres emb
ĠE sp
ij ing
D ebug
l ift
Ġd il
Ġarg ue
Ġst ruck
Ġm aintenance
mathbb m
188 3
Ġinst ability
hem atic
ĠS mall
om ing
Ġro se
Ġnav igation
ĠA qu
Ġclin ical
Ġcelebr ated
Ġc ards
ue z
ĠB aker
ĠL ock
Ġperm ission
Ġs ending
g h
ĠV ic
dist ribution
ĠT R
Re al
B i
Ġden ied
Ġfrequ ent
Ġt ie
ĠH ad
Ġg rown
Ġchild hood
ĠY ugoslav
b ib
}^ +
p us
Ġg one
et o
const ant
' ',
{ [
ins ert
ĠP ay
claim ed
Ġbusiness man
ly ph
Ġlong est
aly mp
N amed
Ġt ables
hat tan
á º
Ġ< =
ĠB ased
w rap
Ñ Į
Ġaim s
Ġcl ar
10 6
=" /
van ced
Ġp refix
ĠSt age
Ġtrad ing
c am
ig ate
P arser
Ġcoast al
ab a
p he
re ement
Ġpost ed
sh op
ught ers
-------------------------------- --------------------------------
uc lear
ĠJim my
Ġsign ing
Ġ$ <
Un ivers
J ust
Ġqual ifying
ho le
## #
J ew
Ġrequ iring
ham mad
Ġint ention
red it
Ġd ress
ĠT rophy
ĠN BA
c b
ĠY e
BU G
~~~~ ~~~~
Ġcrit erion
ĠL ithuan
w ang
Ġf ault
in ement
Ġnot ing
ou b
ĠLim ited
Ġart istic
Ġg arden
B F
ĠR and
W ar
p atch
! "
; /
ĠP ack
ur ers
EE E
Ġaux iliary
u ilt
Ġviol in
st ery
Ġsubset s
ĠB urg
ĠGu y
Ġun like
Ġprob e
Ġrang ing
ĠDef ence
f are
ĠP rom
Ġelect oral
Ġtri als
hol m
Ġperturb ations
th read
Ġd iversity
Char acter
Ġpo em
Ġsurround ed
em or
os ph
P e
c ussion
âĢĿ ,
Ġproced ures
g ray
St orage
ud son
st e
id ad
ĠNig eria
ot an
Ġso il
Ġcol le
Big l
ĠC opy
ra pped
Ġoper ational
Sp anish
Ġguitar ist
Ġmat ters
Ġpass age
Eng ine
}) _{
ĠP refecture
gener ated
ul u
center line
ĠFace book
187 8
ĠBroad way
Ġmon ot
Ġland ing
ĠE instein
ĠJ ason
Ġcircum stances
Ġp rices
Ġd y
Ġrec re
Ġex posed
eng ine
Ġlif etime
Europe an
Ġun ity
Ġsuper ior
Ġre tail
G s
Ġsurg ery
L and
Ġappro val
U L
Ġcomb ining
anc ouver
ĠJer usalem
Ġp ian
Ġo verse
ip art
Field s
add r
er as
ex ception
Ġque ue
Ġinflu ential
ĠW ang
v c
ĠChall enge
Ġconf ront
um ul
ĠHis pan
Ġs aved
Ġemploy ment
se lected
Ġcon jecture
. [
Ġ$ [\
Ġinv alid
u its
ĠDel hi
h over
ar on
Ġaff airs
Ġwith draw
ĠPr im
ĠJ SON
Ġl ose
G old
ĠAp ple
ge on
rec ated
Ġtown ship
' $,
id o
Big r
Ġrom antic
2 20
Ġequ als
ĠA C
B H
| _
ĠPro perty
rict ion
Ġenter tainment
Ġco hom
she ll
Ġch ains
Ġil legal
Ġres olve
Ġcre ates
Ġf ee
Ġb rick
Desc riptor
Ġpure ly
)} =
Ġmed ieval
oth y
F iles
Sing le
g ood
ĠS occer
ĠInd ians
Ġinstrument al
Ġcl imb
Ġexerc ise
display math
om on
Ġne ur
_ ->
ĠSerb ia
De cember
ĠNorm an
p air
Ġcontinu ing
p read
Ġoption al
F in
Ġo x
Ġmov ies
ĠI van
N or
Ġbos on
ĠG ary
ol ia
ĠM other
Ġm eta
Ġcomb inations
ĠSal v
Al bums
ĠAz erbai
col l
sub stack
Ġsem antic
Ġim aging
Ġmag azines
Ġcompre hensive
est one
Ġsegment ation
D espite
S eg
Ġmach ines
9 00
f ix
mon th
ĠGlas gow
SS ERT
Ġstay ed
Ġim posed
Ġintegral s
wid get
aps ed
Ġc up
IM E
ĠH um
ov ich
Ġspec ify
ĠSt ars
ĠThe ater
Ġadd ressed
ĠL GBT
ĠPolit ical
ĠD J
S al
A ir
Ġcommunic ations
Ġlat ent
ĠH D
Ġdest ination
Ġcomm une
Rec ip
ĠT ower
Ġsh orter
us k
Ġthere by
Ġdev oted
Ġv ariants
Ġp ipeline
} &\
ĠA ld
Ã Ł
Ġnomin ation
ĠW ing
Ġch rom
Ġshift ed
Pl an
Ġrece ives
ĠC ricket
187 6
12 7
Ġman age
og a
)} _{\
H en
10 9
le w
ĠBelg ian
R oute
Ġmiss ions
Person nel
; <
Ġelect rical
ad min
ix el
ak ia
Over view
Ġw ides
Ġbeaut iful
t re
sp i
man ifold
gra duate
ĠS hip
ĠT ob
child ren
le an
Ġre ly
hoen ix
Ġre venue
Ġweak ly
Ġwas n
ĠV I
ion ed
enc er
ĠBl ues
ĠJ azz
St ation
Î ½
Ġbe ar
foot er
Ġ{ {\
iv ia
ï ¼
bound s
18 75
Ġtext s
Ġb ath
Ġtherm od
Ġ' /
l ater
l ag
Ġarrang ement
Ass ume
block List
Ġda ughters
)) )
Ġref lected
Ġdrug s
od ec
P erm
equ ival
qu ir
ĠPro test
av el
Nov ember
Ġpred omin
Ġfew er
Ġen v
}) )
fact or
ĠOn line
i u
Ġexpl ains
Ġappoint ment
ĠB ranch
ĠConf eder
Ġprepar ation
clus ively
L ock
R ender
ĠAtt orney
Ġ urg
alax y
oper ator
O O
Ġillust rate
ĠMatthe w
B s
ĠJohn ny
ĠMil an
Ġis n
le e
item s
rist ol
J ob
Ġquot ient
ĠH ero
Ġsee king
Ġa f
ĠNev ada
Ġh ospit
ĠAfghan istan
Ġacqu isition
m und
Ġp atch
Ġapparent ly
Ġprov ider
Ġe g
Ġmin i
Ġfilm ed
Ġdel ivery
ed itor
let t
um ann
Ġnon zero
Ġacceler ation
Ġful fill
OD O
ĠW ind
ĠG un
ĠAp pe
Ġcol leges
erm ont
writ ers
cons istent
ĠTig ers
ĠF ab
Ġel ig
Ġhor ror
$ --
Ġc os
M o
Ġobtain ing
Ġplan ets
Î ¹
Ġch amber
Ġking dom
f ony
m ove
if le
m ill
Com parison
c ient
oid al
f ish
ick ing
Ġf ictional
Ġcount ies
it ud
T ur
Ġanaly zed
ĠF alse
Ġm sg
Ġt ens
ĠAss ume
ĠC her
Ġsusp ended
Ġmarket ing
C ho
Ġre putation
ĠD ocument
Ġfun ctor
st ad
Ġob lig
Ġconst rained
web kit
__ (
Ġext ending
Ġfam ili
ĠEx ample
Ġreli able
Ġgen re
Ġover l
b es
ĠT ab
tx t
. ),
ac o
Ġalign ment
ĠPier re
Ġdesc ript
p mb
D an
A uth
form ed
ĠDer by
Ġexpl ored
Ġexist ed
ĠWrest ling
ĠMit chell
ĠP os
Ġexpl oration
C N
Ġmeas uring
r aska
ĠB achelor
ĠGu inea
Ġtechn ologies
C ustom
ic ht
Ġgener ates
Ġanom al
elf are
X ml
Ġan nu
ĠP ot
Ġprint ed
Ġflow ers
Medal ists
Ġinvolv ement
au ra
] :
ĠT u
Ġr uling
Ġsuper conduct
Ġellipt ic
Ġfund ed
com ponents
W eek
or ia
Ġviol ation
call back
Ġmar ks
27 0
ut er
ir k
à ¥
uk a
Ġpo ets
Ġg ram
aster y
ĠSt ein
Ġthink ing
Mich ael
r h
U D
ail ability
Ġrelax ation
ĠT rack
Ġins urance
Ġgovern ments
ant ine
Ġcre ative
ĠRef er
Ġvis itors
ĠS F
Ġvess el
tri ang
ĠP ra
Ġannoun ce
IC E
M atrix
Ġline arly
ĠEgypt ian
ĠS I
h our
ag ram
Ġ$ $\
Ġsub div
Ġaim ed
ĠĠĠĠĠĠĠĠĠĠĠĠĠĠĠĠ ĠĠĠĠĠĠĠĠĠĠĠĠĠ
ĠMark et
Ġthous and
B N
ĠZ one
ĠI ce
ĠP il
j et
Ġattract ed
and al
ĠIn sp
ject ive
c z
Ġsp oken
Ġupd ates
Ġvis iting
Ġrele ases
ĠE lementary
sol id
Ġd ated
ĠTw itter
Ġconsequ ences
18 67
ĠStud io
Ġterrit ories
em ail
ĠSaint s
Ġ$\ |
stand ard
Ġte ach
ik o
ĠAl aska
Ġsm art
}^{ (\
........ ........
ĠEu clidean
] ^{
Ġunus ual
Ġthem es
dis abled
al actic
}, {\
F loat
Ġpotential s
h um
U V
Ġp sy
ch arg
Ġlist en
ĠChar lie
A lex
Ġw ider
Ġvolt age
C V
ĠL uther
im pl
xy gen
ĠRoman ian
n p
Ġwait ing
Ġne uro
Ġt ends
SE T
187 9
Ġexcit ation
ĠNov a
ĠLore ntz
Ġv erb
Ġass ass
Ġin g
sh arp
is y
Ġe mail
ĠAr g
Ġphot ography
Ġpart ly
tr im
Ġsp oke
Ġhistor ians
sim ilar
Ġexam ine
O ld
Ġran ks
Ġse ar
ĠK r
Ġcertain ly
} "
Ġf urn
d irection
Ġsubs idi
T otal
Ġev ident
in cre
ĠC ultural
Ġf oss
as m
Ġsub mitted
ĠWar ren
ĠF ine
per t
Ġcor related
Ġcosm ic
aut ore
work s
Ġpos it
D IR
Ġsp ending
Ġv ulner
cast le
ĠL ook
Ġperson ality
Chang ed
Ġwh ilst
c ov
Ġdecl ined
E ast
Ġautom atic
Ġenc oded
Ġtrack ing
Ġdef ence
Ġpre gn
=" "
leg ate
Ġded uce
Ġart ificial
Ġcr imes
Dist ribution
Ġexpand ing
op edia
olog ically
ĠPer u
Ġsu icide
RO M
Ġshe l
Ġmeet ings
il ty
Ġlo ops
Ġphot ographer
Ġbuild er
qu ote
li x
Ġch a
ĠE mb
ack s
ast rop
Ġen ables
D ue
/ .
Sim ilarly
ĠJ ama
ĠHawai i
Ġmon ument
L ou
Ġremov al
Ġsound track
ĠMat hemat
our t
Ã¶ r
Ġsub stit
ĠElect ric
ĠAlber ta
d ig
Ġrespons es
ĠAnd re
Ġwe ar
Ġin duces
cons ider
ist ically
h n
Ġtrans mit
Ġmunicip alities
L M
b est
ip er
me asure
ĠCarib bean
ĠMar s
ag ar
Ġportray ed
TE ST
ĠN icol
um s
Ġwides pread
ĠK os
ĠAss istant
Ġbeh alf
FI LE
187 1
Ġremov ing
c oupl
i at
1 18
Ġent ities
}} }$
Tax a
{ %
ĠF isher
Ġinj uries
Ġmathemat ics
Ġ }$
Ġemer ged
187 7
Ġnumer ically
ar ma
ĠCub a
Ġh ist
}= (
int ers
~ (
ĠMic hel
h aus
st ers
win ning
ĠWay ne
Ġel der
Ġfac ing
le ading
Ġcorpor ate
d ynamic
ĠA ccess
av ior
Ġestablish ing
Ġext ensively
Ġcontrovers y
Flor a
Ġfl ags
be h
Ġt y
ĠI an
Ġmiss ed
Ġformal ism
b oy
Ġchampionship s
ĠAlex and
Ġbench mark
="../../ ../
Ġsurv iving
Ob j
Ġb are
ĠSer ge
Ġf ishing
Que ue
m ates
ĠJ osh
Ġprov en
Ġsym pt
Ġmed als
Ġapp rec
Ġre act
Ġqu eries
ĠPar ish
ĠE ug
av an
ĠMan hattan
comp act
18 68
ĠSy ria
u art
sup ervised
` ,
ĠB ak
ĠGr iff
am o
ĠAnd y
loy d
Ġbut ton
ĠDef ault
Ġadv ice
ĠH indu
Ġ} {\
ĠTurn er
Ġs ensor
Ġdeploy ed
Ġimplement s
Ġc ref
Ġwork er
Thom as
ĠLear ning
B ased
}{ $
Ġsub stitute
Ġreg ulations
Ġman ifest
Ã ¦
E V
m ask
= (\
ĠR acing
187 2
Ġcancell ed
ĠN O
ĠSt orm
sub float
ĠPark er
ĠFinn ish
F ree
Ġbl og
ĠCon sequently
ĠRang ers
Hon ours
ey l
ok er
) *
S il
Ġs essions
d ifferent
n c
Ġg overning
sc ar
âĢ ¢
Ġwar ning
}( -
l floor
cent ral
Con f
In v
Ġ ^{\
24 0
h adoop
k k
Ġgen etic
ĠM embers
ĠL iving
Ġlook ed
Ġ icon
ĠBar ry
Ġsampl ed
Ġreport ing
p end
Ġp ref
Ġmountain s
E ff
J ack
> $
non ym
ĠĠĠĠĠĠĠĠĠĠĠĠĠĠĠĠ ĠĠĠĠĠĠĠĠĠĠ
ĠE ston
Ġconv icted
ĠMed iterranean
Ġval uable
he res
Ġ\, ,
Ġa wait
Ġag es
Ġthreat ened
ĠN ode
B ound
Ġr hythm
Ġreve al
d iction
e ch
Ġmut ual
ĠTra il
ĠL ad
ĠColomb ia
T om
Ġequ ally
Ġpo ems
Ġsuff ices
born e
ad ic
ĠAn alysis
ĠFle et
Ġcryst al
ac re
Ġmin isters
' }$
z es
Ġl ingu
ĠMu hammad
Ġout break
Ġclos ing
Ġbreak s
MA X
T or
Ġdeterm ining
ĠSp irit
r floor
Ġb old
Ġdeterm ination
ĠBar bara
}. \
Ġmechan ics
ar as
Com b
Ġdest ruction
Ġelse where
P AR
Ġas c
ĠFl ore
ĠB orough
Ġcon clusions
ampl ing
Ġbi ological
Ġexhib its
G rid
Ġj son
Sup er
Ġpro ton
g io
fol io
F low
ster dam
Ġderiv ation
Ġs ax
\, .
ĠV as
Ġout per
Ġt ur
ĠH old
qu er
ĠMin or
D ouble
et ta
ĠSong s
Ġf ilters
em ed
ĠColl ins
Ġo cean
Se ason
ation ally
ĠIran ian
Ġinf inity
Ġactiv ation
Ġshe ar
ard ed
On ce
inc inn
f x
187 4
ĠSerb ian
sec urity
D ialog
Ġor chestra
ĠSt ra
Ġan ten
ĠPhys ics
ĠU g
Ġm oth
Ġpar ad
Ġp ars
Aut o
Ġoccasion ally
Ġill ness
char acter
ĠB ron
er ver
Ġd owntown
ĠCh ron
ĠB ey
Ġsent enced
ĠRich mond
Ġdeal ing
N OT
ĠF reedom
trans ition
Ĩ Ĵ
Ġfall ing
ĉ čĊ
respect ively
Ġsynt hes
Ġdr ift
Ġh at
ke ley
Ġcele b
ĠM ess
un iform
}) -
Ġdeform ation
ul o
ĠN ature
Ġhierarch y
ĠC BS
ra ud
S cale
Ġformul as
ĠProfess ional
ĠCommunic ations
ĠS even
Ġinher ited
Ġstrugg le
is o
Ġtrans it
Ġcont ents
ot ton
Ġcontribut ing
Element s
ĠBen jamin
Ġvot ers
ĠN BC
ĠBe ijing
ab e
Ġelev en
ia o
Disc ography
Ġlimit ing
Cl ick
Ġm ic
L y
ĠVictor ian
ent i
ĠSpec ifically
Ġrig id
ĠEx pl
hib ition
qu al
Ġinstance of
Ġdifficult ies
Ġdepart ure
ĠS eg
ex cept
Ã¡ s
me as
ĠS z
d n
con tains
on na
writ ing
Ġh orses
00 2
m ix
Ġg ay
ĠMe V
ĠPer formance
ĠM eg
ĠU SS
B oth
). }
187 3
Ġgradu ating
i ors
Ġmod ify
Gl obal
18 66
Ġcarri er
Ġcontinu ity
ic z
ine e
Ġwood en
Pro file
ON E
ĠSte el
Rad io
Ġfin itely
Ġaggreg ate
Ġat tach
incinn ati
\| _{\
Ġexped ition
Ġad ults
our g
e cho
app oint
Ġparliament ary
ĠSoft ware
KE Y
ok ing
ass y
, ~
l g
im od
Ġneighb ors
m aterial
ow ed
P ackage
ic ing
Ġcon fer
Ñģ ÑĤ
Ġdispl ays
EN D
Ð½ Ð¸
ier ra
ĠO range
ĠV el
ĠAd miral
keep er
h ad
ĠG il
ops is
ent e
) )$.
ĠV ancouver
te am
l ights
Î µ
ari ate
c pp
ĠF alls
Ġfl av
Time out
Ġpick ed
Ġhom omorphism
Ġen vel
sp aces
Ġswim ming
ĠHe b
H F
Ġbir d
Ġde bt
ĠC F
T M
_{ {
her s
Ġaddress es
H A
cal cul
eff ect
Ġev olved
Ġphil osopher
D ay
ĠR ank
18 00
Ġspirit ual
ĠV a
sum er
Ġread ers
T ER
Ġpred ecess
Ġre actions
ĠL iga
te enth
ĠOb ama
M or
ha ust
L java
ĠF itz
y y
Ġlaw yers
ĠSpe ed
ur u
cel and
Ġannu ally
t oggle
ĠL eft
deg ree
ĠStud y
Ġcomp iled
Col l
Ġr is
v ideo
print f
Ġlicens ed
Ġcomb ine
. *
Ġadvert ising
Ident ity
Ġneglig ible
Ġprov es
Ġart illery
iv odes
ĠP O
Ġactiv ists
Ġcontrovers ial
Ġmon arch
end a
Ġwav ef
ĠV egas
Ġe ighth
Ġst em
h ang
config uration
grad ed
%% %%
Ġpay ment
F IG
Ġcons iders
Ġar ises
ĠAng l
n ed
Ġw orship
z one
acc ount
ĠW or
$ (\
ĠClass ic
Ġsuff ering
Ġp arser
Ġsp end
ĠCommission er
Ġlocal ized
left rightarrow
ĠB og
Ġbatt les
al am
Ġc ash
Ġel astic
p f
Ġ" /
ĠAl bum
Academ ic
ĠDemocr ats
ĠThe ory
B D
ĠG reater
ĠFran ces
) !
W F
lik ely
ĠE ff
Ġass emb
f requency
ĠB und
Ġwind s
Ġcon gress
Ġprot ests
ear ing
Ġex clusively
Ġdoub les
S am
uns igned
ab ul
amp ed
Ġr u
Ġfocus ing
Ġhand ling
n l
B T
pl ugins
Ġth irty
}} }{
ĠS V
N P
ĠJon athan
ĠM all
sh a
ig o
ich i
18 40
h ot
R ound
ĠĠĠĠ ĠĊ
el astic
v et
aj a
ĠAd vis
ĠT ib
Ġasympt ot
Wh ite
ĠArab ic
ĠP ant
ĠWith out
Ġ\ :
oph one
ĠPro p
f olk
t ry
ĠUr ban
ĠK ap
E very
Ġregard less
A ud
ĠUn like
F ebruary
) |^
ĠS r
qu et
Ġr ising
C ritical
G D
Ġart ifact
S i
Ġrow span
ĠTe le
ĠCl inton
rel ax
Ġrep air
AR Y
Ġenc oder
. ;
ĠT erm
ess ed
ĠHun ter
Th ree
ĠHar rison
Ġ ur
Def unct
Ġkind s
S V
Ġdist urb
Ġelev ation
m ac
Ġinn ov
Ġfor th
ak s
min ute
t is
Ġbe ach
ĠC ore
ar an
ow ell
Ġb arrier
Ġview ers
Ġsurpr ising
Ġgener ality
Ġto w
ĠSh a
ĠNeb raska
Ġdes ire
Ġden omin
Ġsequ el
s ys
em ploy
Ġhe ating
& -
Ġsh adow
Ġto ler
Ġneighbor ing
app y
ĠM ans
Ġcheck ed
ĠW a
ĠB ass
pl ates
Ġimprov ing
ĠWith in
ĠIs a
ow s
Ġp ump
Ġcor on
Ġact ed
Ġrest oration
Ġh ook
ĠJ enn
Ġconsum er
Ġnomin ations
Ġtra il
ela ide
c ost
Ġsquad ron
ĠT ree
Ġcompos ite
ĠE uler
comm unic
Ġam ateur
Ġamong st
bo ost
Ġv ir
ou ter
oth ic
al og
ĠW ed
Ġsuggest ing
ivodes hip
ĠP ic
ir th
Ġhand ler
Ġclos est
b urst
2 30
Ġm anga
__ __
b ecause
ĠE li
st ats
ĠSh ang
Ġdis abled
R oyal
Ġproport ion
G ame
type of
ĠG ot
ĠO ct
Ġh ip
Ġphenomen a
annot ation
Ġmod ification
und erset
hel p
^- $
ett i
Ġexper ts
ĠL apl
Ġcous in
om es
Ġlast ed
lar ation
ĠM ix
od ay
Ġadv oc
Ġclass ifier
hel m
Ġdisestabl ished
ĠOver all
Ġrad ical
Ġmer ge
Ġt ribe
Ġassess ment
g it
Ġcal ibration
Ġd ub
ĠM ake
ĠW here
Act ivity
ĠG arc
Ġcarri es
Ġd rew
we ep
ĠB ristol
amp a
ash a
os hi
}_{ (
res olution
ĠO pt
ĠP R
st ellar
Ġn g
Ġimag inary
ĠPl ant
Ġprior ity
18 69
op ing
K ing
ĠRem ark
ĠUE FA
m ir
L ie
Ġfair ly
ress ive
Ġrel ating
Ġarchitect ural
ĠV lad
Ġfriend ly
' )\
ed a
Sc ope
Ġearth qu
Ġcomm emor
Ġend emic
ĠTr inity
ĠD est
Ġsup ern
Ġsold ier
i est
rat io
Ġminor ity
imens ion
Ġhom ot
Ġmonitor ing
Ġhyper bolic
Ġre un
ĠEn cycl
Ġgu id
ĠBar cel
In s
ĠEx change
at che
ig ion
ĠWar ner
Ġencourag ed
Ġm as
mult ip
Ġh a
Ġg host
Ġinv ariance
Ġo xygen
ĠR u
Wid get
Ġc reat
ist ani
f d
ĠS audi
ĠMean while
h yp
sche ma
r us
ential s
Ġobserv able
Ġthe at
R a
Ġst retch
Ġelectric ity
tem perature
Ġg ray
Ġfamili ar
arg ument
U ID
Ed itor
d ing
( !
t z
ĠJ oy
Ġpe er
ĠNich olas
effic ient
Ġext raction
j or
ã Ģ
Ġan chor
ounc ill
Ġresc ue
Ġagric ulture
ĠG iants
Ġliber al
Ġsurv ive
ĠF u
Ġw allet
Ġw ine
h op
Ġn urs
Ġunder ground
Ġdise ases
Ġjourn als
V I
Ġprep are
Recip ients
ĠVo ivodeship
A z
iz z
Char les
ace ae
Ġreserv oir
r ically
ĠCh ange
ch itz
ĠS ource
ĠMun ich
}) (
aint s
Ġg ard
ĠTerrit ory
ĠMor oc
m atic
ĠSt re
ĠB ert
Ġab road
SI ZE
in us
con ver
Ġh tml
r ise
Iter ator
Ġsup plies
ĠBeng al
ph oton
ĠMach ine
L ike
d etail
ĠL an
at z
ĠA I
is ch
L iter
ĠW es
Ġind igenous
C a
Ġcooper ation
Trans action
Ġex clusive
ĠUnivers al
Acc ount
Afric an
D er
erv ation
Ġ" "
pos itory
ĠC oul
ĠFl ight
Ġin cl
Ġper cussion
Ġyoung est
Ġsurvey s
ĠB aptist
Fl ags
am pton
Ġsupport ers
ul p
Ġfor cing
}$ ).
ress es
Ġover view
s pl
Ġcomp ression
Ġpre liminary
re ction
h idden
ĠCl oud
ĠC u
Ġen forcement
ĠCharl otte
e lected
Ġsymmet ries
Mem ory
r ift
ĠRec all
Ġstrateg ic
f c
enn ial
add le
ign ment
Ġexclud ed
ĠB H
$& $
ĠFac ulty
}}\ ,
ĠIndust ry
A thlet
S end
}} +
Ġprot otype
g un
Ġpermut ation
P eter
ut ter
hold ers
est on
Ð¾Ð ²
ard ing
ĠOrig inal
Ġdon ated
min a
Ġmar ry
ĠC ole
Christ ian
F E
Ġmer chant
Ġafter wards
) }^
Ġleg s
const raint
ĠH unt
ĠO ption
iline ar
ĠTh ose
B egin
Ġenjoy ed
Ġcloud s
w he
Ġeffect iveness
Ġmulti plication
te chn
ins ky
M usical
ext ension
y ou
Com ment
ĠGh ana
b ie
ĠQu est
C s
M s
not ation
Ġsup plied
ĠY am
In it
ĠM ust
Ġlie utenant
ĠCh and
`` ``
ĠShe l
m usic
ĠL ink
ĠĠĠĠĠĠĠĠĠĠĠĠĠĠĠĠ ĠĠĠĠĠĠĠĠĠĠĠĠ
ĠR oll
Ġmir ror
Ġstat ue
ater al
i ya
lement s
Ġalcoh ol
ew ay
5 12
Ġign ored
Ġtravel ed
ĠM D
Ġm esh
}| ^
18 48
") ]
ph al
ĠCost a
ĠS earch
Ġmoder ate
Ġcub ic
O B
ĠP sych
A uthor
Log ger
ĠB enn
ĠCan al
ĠMuslim s
ĠSt evens
Ġiniti ated
tra ining
equ ate
Ġaccom p
Ġb orders
M ad
ĠS eb
ĠAm sterdam
ĠS ultan
M ill
Ġspeak er
p aper
17 0
H ol
Ġweek end
it ure
ĠAl tern
Ï ģ
ĠIn v
B al
ĠM ind
Ġferm ions
Run time
ĠH amb
it is
Bra zil
ĠD R
ĠC M
ĠCirc uit
Ġt ub
d ays
Ġinflu ences
Ġbroadcast ing
h ig
Ġbeg un
Ġcount ing
am er
ĠBuff alo
tra ce
Ġlocomot ives
it ol
Ġp ictures
ath on
ĠPh D
ol ut
ĠS ah
}\ }$
ĠY u
Ġcred its
C ert
ond o
per iments
Ġint ellectual
ips chitz
pass word
Ġcab inet
ĠS id
Ġcross ed
ik ip
ĠComput er
f eld
ĠD ays
o j
ĠBer g
Ġb ott
Ġc inema
P et
Ġb at
Ġg olf
em e
Ġcohom ology
ĠP hoenix
ĠD ra
s ig
f ail
sw itch
J SON
Ġobserv ables
rick eter
Ġbatter y
ĠTe ch
ĠMov ie
Ġd otted
os itory
r if
z eg
Ġthick ness
Ġpro xim
Ġdiver gence
Ġi i
Ġinteract ing
Ġclaim ing
Ġtor us
om atic
mak ers
itud inal
ĠCh apter
p b
ĠB orn
ak ov
sur face
erv ed
[ :
ĠAnt ar
Ġtang ent
Ġchar ter
ĠP DF
ĠCl are
Ġdev i
on ce
ĠSocial ist
inst all
build ing
Ġob server
S Y
man ager
ĠR ing
& #
c rit
ĠBarcel ona
Ġt ort
G overnment
ĠD raft
Ġcl ip
re ck
uck land
ĠLu is
Ġtem por
ĠK un
ĠM ol
Ġhon our
Ġwor se
ep he
Ġmount ed
Ġbring s
= $
ĠR ange
Ġab elian
amil ies
Ġven ue
J ac
Ġcomplet ing
O F
ĠL ions
Ġpro xy
Ġs oph
Ġf asc
ant um
ĠT as
Ġmod uli
set up
ĠRes ource
Ġvar ied
D est
Ġw ings
ai ro
Jew ish
uc le
ĠÃ ł
14 4
Ġc able
ĠKir k
p ine
Ġcateg or
=" ">
Ġpurs ue
ĠL ate
18 57
Ġrel ativistic
ix on
ĠOl iver
ens en
H ung
ĠPr ivate
Ġinc idents
Ġas ync
ĠV AL
ell ion
Ġsil ent
d c
Ġs oul
table block
[ ]{
Ġcard inal
Ġsqu ares
W in
b ane
Ġm igration
ĠLiter ature
s outh
Ġsh apes
Profess ional
ÑĢ Ð°
Ġexec ute
ĠF un
ed u
ag i
ook ie
Scott ish
e or
count ry
Ġdelay ed
Ġun cle
Ġl oyal
k an
om m
ĠSp ect
ĠVin cent
ĠP ont
M ont
que ue
ĠMond ay
at om
Ġsound s
ĠChrist ians
Ġlabor atory
ĠU pdate
Ġre plic
Ġdem olished
Ġembedd ings
ĠS ay
Ġw et
tra ined
t ot
ĠM ig
ĠM ason
olt z
Ġreported ly
Ġdecl ar
Ġr ings
Ġp or
em in
Ġtal ent
end ers
ta wa
text style
app ly
T erm
Ġas ks
Ġagre es
bas ic
Ġsh ifts
W N
u ke
Ġ io
uch i
Ġg allery
onym ous
st orage
ĠS now
Ġens ures
Ġadvers arial
ma xim
Ġphot os
cre p
ĠC ustom
sc roll
lement ation
D etails
ment ioned
18 59
Ġt ube
ed ed
Ġsc r
C ategory
S en
ĠT ogether
ĠK now
ĠG rey
Ġwrest ling
un ique
Ġign ore
Ġm emb
em ark
ĠG round
Ġvanish ing
ĠOper ations
Ġcav ity
Ġdist inction
@ "
Ġcomp ound
ĠSpring s
Ġorient ed
ĠH udson
qu ality
Ġprim itive
in her
Ġphys ician
over e
Ñ ĩ
ĠS ad
ber ry
autore f
Ġiniti ative
Ġscient ist
ĠArt ist
ĠN an
az on
um my
\ -
ag ers
in x
iv id
Cl uster
Ġtransl ate
ĠDi ocese
Rich ard
ic ious
ĠComm ons
Ġsh ore
Ġcas ual
Reg ion
Ġphys ically
-> _
em p
il iation
Ġtrib es
ĠArt illery
ĠC ob
ĠL is
igh bor
Ġgu ilty
Ġfeas ible
ut o
S W
}\ !
ĠMan ager
Ġt ension
assert Equal
Ġb ridges
Ġcap s
B ro
Ġcontinu ously
= [
s ave
ĠConst ruction
id x
Ġbright ness
ĠS ak
Ġinf antry
E val
she et
Ġinter cept
P ack
ĠJer ry
Ġhon ors
ri eve
ancell or
Ġoccas ions
on ies
Com put
Ġp in
O wn
12 2
q q
Film ography
4 50
CH ECK
Ġam pl
( |
o ons
Ġdes ert
Ġrad ii
12 1
Ġbo ats
d or
it on
Ġst rain
to ols
Ġtw in
Ġext inction
bra ham
as hes
15 00
Ġ )$
Cl ose
Ġcomp anion
= {\
en os
Ġd b
ate ver
inem atic
Ġjav ax
ors ion
ĠTreat y
ĠS A
_ ,
at omic
Ġjuris diction
M ath
apt ers
ĠSym phony
Ġin ternet
ĠT on
ikip edia
Ġa w
ĠRob in
Ġs alt
ĠJ a
g ements
ĠM idd
ĠB ris
F unc
Ġorgan isations
ann i
ont r
}$ ;
Ġdocument ation
Ġdanger ous
ĠC old
b n
Ġg ift
ĠMont ana
Ġreserv ed
ĠB uch
ĠNAS A
lap se
fra ction
Ġcustom er
it arian
Ġident ifying
Ġdem ands
Ġanalys es
Ġ{ '
Ġoscill ations
Ġsupp ressed
as ant
ĠCh air
Prot ocol
Ġcap abilities
war z
ĠP le
Ġqu art
ĠPr imary
d al
pos itive
ĠAd elaide
ĠCra ig
Ġt ip
M OD
V A
ab olic
res et
//////////////// ////////////////
ĠPro file
ex ternal
it ations
Ġfest ivals
Ġ( ).
Ġmart ial
group s
] _{
m ic
Ġd ot
, (
Ġout standing
U LE
Ġbeliev es
L ayer
Ġt um
Ġcomment ed
S ir
Ġhol omorphic
Ġb io
Ġent ers
ĠN HL
ĠCl ay
ĠPhilipp ine
Ġleg islative
symmet ric
Ġpers u
Ġp ose
Football ers
Ġtransp arent
18 30
ĠI C
Ġant icip
Ex pr
\!\! \!\!
u cc
Ġfl ed
at ri
Ġposs ession
Ġw ick
am ination
ĠL en
ap ing
comp are
ĠL ost
ir s
opt imal
Ġshe et
mid t
el o
() ).
ĠBy z
Sw ed
Ch inese
uls ion
ĠCh i
h aw
is i
Ġpack et
I con
Ġmer ely
Ġplay offs
ĠBer keley
Ġp ub
s b
Ġweap on
fl ags
clos ure
ET H
fe ature
Ġ\\ [
Ġmat ched
G allery
Ġco aching
Ġpet ition
Ġhapp y
Ġche cks
ĠSing les
Ġf unc
ys ics
g om
l ace
Ġvari ability
ĠF err
ĠM aced
Dec l
Ġcol ony
ĠBe h
@ {}
for ced
ĠGal actic
th y
Ġleg acy
G a
Ġinequ alities
Select or
s ens
Ġrecip ient
Ġsynt hesis
Ġatt ending
Spec ial
ĠBroad casting
Direct ory
ĠMer c
math ds
dr iven
t p
ush ing
Ġnucle i
ov an
Ġrare ly
em pl
Ġhel ic
N a
c ritical
In ternal
ĠP M
Ġreg istration
ĠTh or
correspond ing
ĠA ND
l r
ipp ing
M sg
ĠC ad
Ġorgan ised
ĠCh ap
chang es
Reg ister
hes es
Ġphotograph s
ĠGon z
ĠH ann
ĠFin ance
ential ly
Ġl ap
Ġpl ain
al ks
Des ign
an chor
ĠG ate
ĠT ang
ĠProt ection
ĠArt icle
Ġop ponents
Ġj ets
us cept
ĠN iger
ĠEth iop
Ġmotiv ated
ĠB lood
ĠS ep
im et
d etails
ract ed
ĠRepresent ative
ST M
ĠHer bert
iff s
Ġtot ally
Ġmanifold s
Ġload ed
Ġvari eties
ident ifier
Ġbox es
^ +\
V E
Ġsurv iv
ed it
to ol
Ġt orn
LE CT
ĠS L
Ġrel ay
st ation
Ġcross es
con j
Ġinstruction s
reprene ur
S equ
N L
id ency
ĠCont emporary
Ġg ates
ore l
at ra
it ual
Ġm ail
), (
S aint
em a
Ġk it
Ġsummar ized
Ġsl ave
ĠK ath
Ġchem istry
ol ition
iss ues
ij i
iv ities
Ġlocal ization
Ġsettlement s
s qu
Pro gram
qu arter
Ġregular ization
Ġmodel ed
Ġdevelop ments
ĠSim ilar
Ġre tain
ĠAthe ns
at ibility
Ġf ighter
ĠPy thon
Ġefficient ly
Ġten ure
Ġt act
Ġprem iere
Ġco ins
Ġput ting
Ġout comes
ar is
Ġinn ings
ĠB ird
T our
Ġgeodes ic
ĠPro blem
S QL
are a
Ġsympt oms
r ust
ĠAzerbai jan
Ġqual ify
Ġcont ested
Fig ures
Pro duct
und les
sh ifts
ĠD ictionary
arri ors
ib n
Ġcom ics
Ġ Ø
ph abet
Ġelect romagnetic
Ġm or
Ġdis put
Ġg all
Ġmanag ing
J ECT
we ek
- {\
Ġpost s
Ġ å
Ĥ ¬
ul ates
ĠK ol
P ers
ar l
ĠLeg end
ĠTechn ical
Ġdis ag
Sim ple
own er
Ġpar ks
ĠG rade
ĠBo olean
Ġdetermin istic
Ġneighbour hood
Ġparticip ating
Ġf antasy
Ġdwar f
Ġchar ity
Ġel abor
s or
âĢ ł
chi at
Ġco ff
ars ity
Ġf n
Ġaff ord
cont roller
rg b
ĠI celand
ĠR ey
() {
Ġtrans actions
Ġaltern ate
Ġ% }
Ġvol can
N V
Ġsimpl ified
ĠM ann
Ġpat rol
Ġaffili ated
sect s
Ġp eoples
Ġim plied
S B
==== ==
Ġdu o
Ġrepe at
P ower
d omin
Ġph rase
tr igger
Ġan ime
Ã± a
big gl
ĠT i
Ġinform ed
leg iate
ĠEd wards
K K
Ġch apel
ĠL loyd
ach i
drop down
\ }}
12 4
Ġind irect
Ġprom ising
Ġid x
L aw
co q
L ive
c est
ĠD ouble
Ġvis its
Ġmet adata
Ð ·
d ark
up t
i ology
B ad
Ġfraction al
ĠC row
Ġ[ ];
oc ols
ĠH ash
Ġorig ins
Ġmuseum s
$ /
Ġperm itted
ĠHol land
pro duction
clud e
Ġop acity
ex pr
inn ed
ĠCr ime
ĠB ath
Ġ ions
Ġb rowser
ĠCo al
Ġconsist ently
ĠS ide
r v
Ġd s
Ġor ange
Ġc ogn
Ġcompos itions
struct or
det erm
ĠI da
ĠM asters
Ġmaintain ing
}$ $
F rag
ĠK ra
ĠN y
Ġproof s
ĠJeff erson
ĠChristian ity
ĠF if
ij k
Ġband width
ĠM ut
)\ ,\
Ġtrans c
re leased
ĠPers ian
Ġover come
[ {\
met ric
Ġem igrants
c ule
th rows
is an
C G
exp ect
ĠB right
~ {\
Ġfin ance
Pr int
moment um
ig s
Ġr id
Ġaut omorphism
od ic
Ġform ations
top rule
ĠNor folk
LO G
Ġadd s
r n
ĠT ake
Ġs ends
Ġcontract s
Ġing red
B it
Ġ[ [
Bl ue
au kee
ĠPar alymp
ingu ished
ĠMar vel
ĠCroat ia
Ã¶ n
Ġcoal ition
Ġmetall icity
ĠH ope
ĠPen insula
}} ^{(
ĠGerm ans
Ġqu bit
ĠBudd hist
ĠM end
ĠP ast
ĠForm ula
atern al
Ġnarr ative
um i
Ġex haust
Ġcons ensus
######## ########
ĠInt elligence
Ident ifier
iss a
Ġman ual
ĠG raph
m iddle
ot ions
ĠG ay
sk a
ur as
Book s
ĠDe ut
ring ton
It ems
il ia
): =\
Ġaccord ance
Ġap artment
L ight
str ument
ĠHeb rew
Ġachiev es
ĠR at
with out
Ġf abric
" `
Ġadapt ive
Ġsole ly
Gener ic
Ġfeel ing
ac a
pat tern
ĠVenezuel a
Q ual
Ġo ct
Ġ\ #
ur ated
miss ions
ĠMag ic
18 58
Ġver ified
ĠC incinnati
18 55
++ ;
}] \
ĠTer ry
ĠDrag on
ĠM oz
ĠIn s
ff bb
Ġkeyboard s
Ġrel ies
Ġqu arks
Ä Ł
Ġbeaut y
C amp
Ġref ere
Ġviol ent
ĠA B
Ġsy nonym
Ġfarm ers
Ġd elta
ĠR eyn
h ou
Ġcom fort
Ġar ising
Ġout flow
ip per
arr ison
ĠP aper
Ġdef ending
Ġtr im
Ġer g
ĠEconom ics
18 54
00 5
Ġincor rect
ĠArgent ine
ĠF lo
Ġobserv ational
N ULL
o ft
ĠS Ã£o
Ġadmin ister
ev ille
Pan el
Ġt ies
web pack
Ġimm igrants
Stat ement
Ġas king
Ġrespond ed
Ġg ross
Ġdual ity
re ts
^{ [
Ġwe aring
Ġdou bt
ov sky
en burg
ĠS ask
b ibliography
vert ed
ĠC atherine
Ġengine ers
UT F
In f
ub a
IT E
ĠDel aware
Ġt et
f ac
)) );
Ġwalk ing
Not Null
) ~\
ĠB it
ĠGra ce
ri en
ĠA ber
Ġprom ise
Ġsurv ival
E conom
ar ta
Load er
I X
ĠAct or
th lete
Ġoccur ring
n ear
Ġg od
ĠAl ger
t mp
b x
' (\
re b
ĠH ugh
ĠA uckland
ĠV ermont
Ġaccur ately
Ġcommand s
ĠScient ific
in duced
Ġre ven
ĠHe avy
ĠThe od
ĠPeters burg
it ro
ĠIndust rial
K O
ĠC ox
Ġdis placement
vari able
iv ic
vel oc
Ġt ribut
ĠG T
Ġcontrad ict
Ab stract
ĠEd itor
Ġconsider ably
C rit
ĠB A
ul atory
ec ker
ĠW u
Ġconcert s
ĠL arry
Ġcivil ian
() ));
Ġpre tty
ri er
ut ton
'' .
E A
Ġann ih
th in
ull ivan
ĠC ant
ĠRel ations
' -
Ġf ro
Ġm oral
ag ent
key word
K L
h is
Ġdec ides
prot ect
Ð ¹
ç ļ
ĠC ou
l iter
Ed it
W here
n odes
ĠBulg aria
Ï ĥ
Ġtrad ed
hand ler
ro at
ĠD og
Po inter
w alk
Ġcopy right
big skip
Ġdis pute
O h
k u
Ġ ip
ĠV ector
Ġprov inces
it atively
bigg r
Ġseem ed
quant um
Ġinstall ation
Ġcommand ed
}] $
Pro xy
Ġj ury
Ġ rib
ĠCh o
Ġprote ins
VER SION
Ġabs ent
Ġport rait
T ABLE
I ll
Ġc argo
ĠAngl ican
Ġspecial ized
S everal
W il
] }\
Child ren
Ġgrand father
Ġexhib ited
Ġattempt ing
Ġcancell ation
ond a
Ġrecogn ize
Ġremark able
Ġsingular ity
az y
Ġcycl ic
Ġf at
Ġmin es
C ard
ĠG as
nes day
R ivers
DE BUG
ĠRog ers
ĠF R
En vironment
ĠKen ya
Ġdis ks
ĠB rew
ĠI F
Ġstream s
ĠL ion
fig s
Ġuncer tain
M W
col head
ĠDiv is
M el
Att ributes
2 13
Ch arts
ĠÐ ¿
17 5
f ilm
k ernel
Ġsec ured
ĠT ax
}} +\
Ã ī
Ġsub str
ĠPer ry
5 000
ĠAl ong
ew ise
Ġs ectors
Ġmod ular
eed s
w aukee
hor izontal
ass oci
Ġe le
Ġknow s
C ity
ĠJ ess
x rightarrow
om o
Ġop ponent
Pres ident
p arser
Ġalign ed
Ġed itions
ĠĠĠĠĠĠĠ Ċ
Ġo k
urs day
Sym fony
lin ec
A x
F ailed
Ġminim ize
_{ (\
lev ant
Ġer ected
Ġsubsidi ary
Ġassum es
Ġaver aging
orig in
osp el
ĠC ond
ĠH ob
former ly
hand ed
Ġconcent rated
P F
rag ue
sm ooth
h d
ĠP av
Ġcampaign s
akes pe
ĠDr ive
ĠA viation
omet er
] _
tem p
ĠStud ent
) /\
Ġsl ot
Ġ\ }$
Ġa ster
Ġinterview s
Ġelig ible
ĠC SS
b ing
NavBar Cell
ĠO il
Ġbi ography
}_ +
Ġrefer ring
ĠHispan ic
Ġdoll ars
Ġgovern ed
ric ks
Ġorigin ated
F our
Ġcont rary
' ,\
Ġconduct or
Ġf ake
Ġreb uilt
Ġrepro duce
Ġfavor ite
Ġdial ogue
7 50
H or
à ¦
Ġaff ects
ass ets
ĠSt even
J ose
ĠFin ancial
Ġconver ge
Ġspons ored
18 56
Ġmanufact urer
ĠEl li
Ġlab our
ĠB our
Pat tern
Ġuniqu ely
raise box
th row
b g
m agn
w p
ĠSt ill
f un
ĠL ux
B usiness
eff ective
Ġr ide
d if
Ġcond em
12 6
ant ics
process ing
19 2
Ġins ight
n il
i ot
t ures
* {-
ex act
Ġem otional
F uture
ĠArm enian
ĠF ix
Ġdiff ers
p olar
z ig
Ġall ocation
Ġvalid ity
ĠV iol
ĠKe ith
Ġreflect s
ĠB eck
F rank
18 52
pl atform
ĠR AF
Ġpreced ing
S ep
Ġf ir
Ġcon greg
Ġnucle us
Ġop ens
Ġrel ocated
Ġaccomp any
ol en
, '
l brace
ĠMunicip al
v v
ĠG ets
ĠW as
ĠInt eg
ac les
uck et
ĠP att
uc ks
S cal
Ġb aby
ĠNot ice
Ġparamet riz
ĠEnvironment al
Ġtarget ed
ĠCru z
á ¹
ĠS ox
re view
Ġto kens
Ġess ay
ĠG ang
2 10
amp ing
grav ity
av ailable
Ġscal ed
idel ity
å ı
st ration
Ġinaug ural
ĠH av
Ġdeg rad
Sche dule
Ġfor b
ĠP S
Ġmag ic
io let
ta ken
Ġbe et
Is rael
Ġcomput ations
Ġmat hematic
el ia
Ġdismiss ed
av irus
ĠMad ison
w art
spec ies
ov en
Ġgener ations
Ġsl a
ĠArch bishop
err ors
B a
Ġcurrent s
Ġtalk ing
G T
ĠY uk
ĠGl en
M ean
ĠP rice
Ġg amma
ĠCon fig
Ġwill ing
ĠAb bey
ĠWat son
ĠHig her
Ġst ops
Ġhelp ful
Ġcl othing
Ġdef ic
Ġb tn
N umer
ĠJ en
ĠMur phy
Ġtra p
Ġintrodu ces
Ġthe sis
ĠB av
D epend
ĠS W
M r
Ad apter
e u
h m
0000 00
Ġreconstruct ed
ĠCh apel
Ġrot ating
Ġinf ection
the se
ĠCamp aign
all ing
Ġobserv ing
h ref
m other
) ">
Ġin comp
Ġbl ind
Ġxml ns
Ġarrang ements
S ER
Ġpat ron
ĠEag les
o il
om pass
lig a
Ġconn ects
Ġp ip
ĠLabor atory
ĠHe in
P ay
Ġemer ging
h all
Ġ à¤
ĠAnt i
Con clusion
Ġflux es
Death s
Lang uage
Pr ivate
ĠN at
assert Equals
Ġprom oting
Ġw edding
ĠA x
eq q
I mm
E ven
Ġplan es
Ġl ibraries
Ġread ily
f und
F rance
Ġfl avor
Ġd im
Ġeconom ics
Ġal ert
X ML
A li
he ll
Ġaware ness
Su ccess
ĠPr uss
ces ter
Ġconjug ate
ĠFri ends
Ġdip ole
Ġn inth
Ġim perial
ĠW alt
Ġg ymn
Ġt on
Ġreview ed
P red
ĠP in
Ġident ities
Ġinsp iration
ĠD od
Ġvalid ate
Ind eed
ĠAp pro
Ġn eck
az i
ĠAng lo
Ġscholar ship
ĠT ODO
pro ps
Ġde emed
ur ities
ĠStan ford
Ġjoint ly
Ġcal endar
pl ier
Ġassist ed
Ġindust ries
ĠSh adow
Ġthe rapy
Sup port
Not ice
Const ants
ĠPun j
) <
s per
ĠĠĠĠĠĠĠĠĠĠĠĠĠĠĠĠĠĠĠĠĠĠĠĠĠĠĠĠĠĠĠĠ ĠĠĠĠĠĠĠĠĠĠĠ
Te am
Ġal ive
Ġint ens
Ġpar agraph
Ġfor wards
ĠNep al
B etween
ĠR ou
Ġexc av
iter ator
H ig
en o
S eries
akespe are
AL SE
ĠHen ri
Ġgra in
Ġdep ression
ĠÃ ģ
NR AS
en able
iz on
Ġdet ectors
Ġ$ -\
Ġencounter ed
Ġemploy ee
c aster
ĠN ak
in ery
Ġdiscrim ination
G rand
ĠBut ler
re ens
}}\ \
Ġj Query
oun ce
Ġnegoti ations
conv ex
ĠDen ver
by tes
Ġreason ing
$ }\
u u
ĠV ar
Ġev ac
ĠI T
Ġrev ised
Ġguid ance
Ġtrad itions
ic us
Ġmicro sc
ĠCong o
ryst al
m itt
Pl ayer
3 000
Ġdis crep
çļ Ħ
j query
ĠHor se
+ |
ty ped
ĠK in
Ġphot ometric
3 20
Ġc ricketer
ĠChe l
object s
Ġsubstant ially
Ġreg ulation
'] )
Sm ith
Ġim plications
Ġst ake
"/ ></
set length
ontr ivial
Ġke V
ĠÅ ł
ĠAcc ount
Ġp ushed
Ġ" [
Ġt ons
ĠJ oint
Ġamb ig
ag g
Ġwas te
}} }{\
prot ected
Ġapp end
sw ick
ĠB ond
ĠM Ã©
ĠO S
Ġrep orter
Ġs uscept
Ġb anned
Ġt ill
Ġhand led
Ġdefend ers
Ġb ins
& +
el in
g tr
Ġmod ifications
ac cept
Const raint
u ador
Ġtourn aments
Ġall iance
t ons
Ġrun ners
ĠArch ive
ran es
. ).
Ġ( _
Ġpro g
Ġmurder ed
S ocial
ĠS outheast
t racks
Ġsk i
ĠA round
Ġce ased
Ġear ning
S uch
ry ption
diag ram
az ar
Ġle agues
Ġtal ks
R ural
Ġr ub
cc entric
ĠIn stit
Ġra ising
ĠB S
ic ates
To String
ĠLe eds
fl ag
Ġfor g
Ġpl astic
ener ate
F ail
ĉĉĉĉ ĉĉĉĉĉ
B ul
Leg acy
gom ery
gl s
Ġto mb
ĠS or
ĠPro f
idel ines
Ġl ying
rad io
i w
Ð ¿
ars on
ut f
zh ou
Play ers
Ġl os
ĠL L
ht bp
ĠProduction s
ĠT H
Ġrepeated ly
Dom ain
olut ely
bu ilt
ent o
Ġmake up
iv o
ĠM ari
prot ocol
G ood
ĠC T
ce ive
ĠB ald
l ies
D utch
av ier
Col lections
Ġrad ar
bottom rule
ĠTre as
Ġstand ings
Ã¼ n
Ġisot ropic
ĠC hern
Ġr ated
Ġexam ined
Ġcoinc ides
M ot
Vol ume
ĠC L
ĠG ust
Ġs itting
Ġfl ights
log ger
Ġl ad
Ġcoinc ide
C r
14 5
) ~
ĠArab ia
im eter
Ġtravel ing
Ġexponential ly
ens on
ĠD ol
ĠPro of
y cl
ĠSt uart
Ġst roke
Ġconj unction
Ä Ļ
ST AT
Ġs av
D ig
O l
che m
c op
Ġin coming
ĠCon c
Ġa z
ĠD h
Ġtrac es
A I
Ġir regular
Ġtra ct
C apt
ĠLand roid
ro oms
Ġlearn s
ĠInd ependence
Ġappro ached
Ġdram atic
Ġneg lect
ĠT oy
ĠP el
ĠS H
Ġsp ots
ena issance
Ġpl acing
ĉ ĠĠĠĠĠ
Ġfast est
ĠK ay
Ġcou p
bl ing
A re
18 49
St ruct
}) }\
Ġguarant ees
Ġpal ace
Ġvic inity
ira ble
B ob
ĠRes ources
Ġinter fer
Ġ\, .
ĠC C
resize box
cor rect
h istor
ĠS uz
Par se
act eria
Ġplay wright
Ġsculpt ure
Ġfl ash
ĠL ett
ĠO cc
An n
pg f
Ġcommut ative
ĠLeban on
Ġob sc
pl ant
load ed
Ġsuperv ised
F emale
n ob
ach t
ĠRo om
Ġprov isions
ĠSh aw
P G
Ġsent ences
se en
ĠL A
Ġdemonstr ates
ĠStud ents
pend icular
M il
ĠS ey
Ġconstitution al
iz ard
Ġemphas is
at um
ĠM icro
ĠDemocr at
ĠFil ip
ĠLu ke
Ġc umul
ĠS ex
ĠWall ace
ans k
Sing les
AD D
flu id
ĠM ick
Ġexplos ion
Ġdegener ate
Ġc ul
ĠArchitect ure
18 51
G ra
Ġn p
Ġcont raction
12 9
ĠP od
ĠOt tawa
m art
n orth
ĠCopy right
. __
Ġdo ors
ain ing
ĠQu arter
Ġquant itative
^{ {\
ab c
L en
Ġtreat y
T reat
H a
Ġex terior
M aster
ber ger
v or
eg u
M ah
v ectors
}} -
big oplus
Ġf ract
eg al
ĠN ear
T w
isc opal
Ġth ir
Ġb om
à ¬
ĠS ou
und a
Ġleg it
ĠGuard ian
ĠLe o
dev elop
Trans form
ĠR alph
ĠAp ache
Ġproduction s
Ġbelong ed
w ind
Ġvol leyball
ĠN R
Ġsong writer
ĠSud an
J S
Ġb ishops
Ġspeak ers
em on
c ity
ĠAb u
d k
Ġse eds
Ġlist ener
ĠRet rieved
Ġenc ompass
h agen
Ġstream ing
agon ist
Ġh orn
ĠLe ader
ĠS ang
Key s
T ok
Comp anies
Ġm apped
ĠPhill ips
U B
ĠHar old
+ }
Ġsimpl est
\' {
RI PT
Ġdist ant
Ġrun time
ut a
end or
Ġch ron
Ġdevelop ers
IN D
at im
ĠBob by
Ġrest ore
T er
ache l
ĠY ale
orient ed
d ue
ĠMax well
ĠVen ice
the y
Ġf raud
M ex
ĠB un
Ġcommit ment
ĠEr nest
b atch
sup ported
Ġun likely
Ġrestaur ants
harm onic
ran o
ĠE mm
Ġdrum mer
ĠW i
ht b
ĠAl t
} </
ĠDef ine
R ay
us ers
â ĪĴ
Ġthr one
h in
. -
Ġsub graph
Ġpull ed
ind a
ĠF low
H H
Ġscatter ed
. (
ill es
Ġe ase
}$ ),
f ers
r brace
Ġbu ck
st own
Ġobtain s
ĠS QL
ĠD ir
ĠS alt
En ter
Ġ ],
duc ing
ĠHel en
Ġprocess ed
it ian
Ġc emetery
Ġpar ity
ĠPed ro
et ter
Ġth orough
Ġunsuccess ful
Ġa qu
ĠD B
ĠR oche
Ġm os
ĠWars aw
oc o
ĠBe aut
Ġret ro
^* (\
fra g
Ġguarant eed
Ġpass ion
ĠS ierra
am ep
bs erver
Ġt ruck
ac ional
}} }}
L ower
t c
Ġg athered
i ast
Ġapproxim ations
Ġsk etch
sat isf
$ ^{\
ist ance
g rim
Ġflo od
vis ible
Var id
am ic
Ġsimpl er
ex amples
ĠI gn
Tra ce
A gent
Ġcor ruption
Ġtr uly
Ġdis band
ig roup
Ġoverse as
st ance
Ġhonor ary
ĠAr c
Method s
Ġ[ ],
opt im
ark ed
P oly
p ull
get Name
ap est
ĠH em
By Id
ĠNe il
ĠE M
ĠForm er
Ġdraft ed
Ġreal ization
v ision
( $\
ĠR ivers
ne ut
P ER
Ġst ere
}, \\
Ġdepend encies
15 5
Ġass ists
F ac
Ġto ured
Ġrem n
m ount
Ġg rants
n as
Ġhospit als
Ġs isters
bibliography style
Ġvari ational
Ġswit ched
ex tern
ĠD ennis
f ar
ĠS elf
ĠL ov
Ġb ay
ĠFri end
Ġcut ting
ues day
P N
Ġcompet itors
ĠSus an
ĠArn old
Ġprov ing
Ġd ir
ĠR av
ĠD esc
Ġcompris es
Ġdiv ide
Ġ" ,
Ġcomp ounds
Ġorgan ic
v ars
isher s
D uration
at ial
a qu
Ġm arch
J ava
p iece
ĠSt ef
en abled
op ts
Ġh ide
ĠM ul
Ġin frared
Ġcamp s
sh ared
)$ $
Ġcomplet es
ĠU C
ĠHar vey
Ġconven ience
th ird
u ate
Ġt elling
ĠM uch
ĠA braham
Ġpop ulated
grad ient
Ġint u
ĠR aw
Ġe ccentric
ov ina
ĠAd vanced
Ġpropos als
ĠFlore nce
ĠW atch
act ing
ĠSy rian
ĠProtest ant
am ous
æ ľ
Ab out
Comm unes
em ies
ĠTh ai
ĠK rist
13 2
method s
Ġtradition ally
I rish
Ġgrad ients
Ġattract ive
ts d
ĠM ik
Cl oud
Ġ ell
reg ation
' }(
ĠAnn ual
in ated
ĠS oph
Ġmanufact urers
Ġint ense
Ġpriv ile
_ (
ĠCy cl
ĠR eed
Ġqu oted
Vari able
Ġw ard
Ġencou rage
Ġsh ield
ĠT ed
ar ound
ĠTh under
cle an
ĠConserv ation
T y
L D
Ġcl an
ĠBris bane
f ive
abl ing
Ġcap ability
Ġsem if
ĠLat ino
om i
Ġcert ified
g as
aur us
Ġw onder
h orn
TE XT
ack nowled
ĠM essage
ĠG y
Ġsp iral
G AN
Ġwithd rew
Ï Ĥ
ĠFor um
ĠSing le
Ġm amm
] ^{\
Ġbon us
Ġthere after
m ade
Ġret riev
ĠG ilbert
Ġcharacter ization
Rep ort
Ġinvestig ations
by ter
! [
L INE
à ®
t k
ĠB reak
Ġarr iving
18 47
C AR
Ġpower ed
ĠR idge
Cent ral
f b
Ġadvent ure
Ġs ang
cell color
ĠTas man
C red
fl ux
d one
ĠW ag
sh adow
he v
C ross
ĠAnd roid
Ġthr iller
or bit
Ġob ey
L at
l ip
ĠMal ay
ĠMe chan
g art
ab atic
Sh ape
s ay
Ġres et
ĠD O
ob i
Ġpat ent
Ġcyl ind
, }
al ter
18 53
ĠOther wise
M AP
on ing
ĠZh ang
| }{\
O UT
Ġbe ating
iss ible
ĠRev ival
is che
Ġr itual
Ġcons olid
ĠG W
H ER
N orm
Ġmoment a
Ġinc umbent
Ġc ounsel
Th m
Ġem peror
Ġassoci ations
Ġanom aly
Ġp ale
ish a
Ġfacilit ate
Ġs oc
Ġsp ins
Ġ ×
Ġinject ion
= &
ert on
){ $
ĠWell ington
Ġprof it
ĠShang hai
Pro ps
ĠEncycl opedia
T ex
Ġre q
ry s
H ouses
M apping
ĠF ighter
Ġm ild
Ġinter vention
ose x
ĠArch ives
atche wan
vel t
Vert ex
Rel ated
F i
00 3
un i
Ġsett lers
ĠWork ers
Ġtempor arily
ĠObserv atory
ĠBel arus
}; \
Ġm ess
Ġload ing
outhe astern
p q
}{ $\
Ġrec alled
Ġren ov
ĠInt eger
est imate
ĠB ach
Ġattraction s
r ators
Ġqu bits
Ġlog ical
g ap
Ġr um
Ġt ribute
Ġ' ''
ĠNot able
Ġev il
serv ices
tern oon
Ġper pendicular
Ġm i
ĠMult i
part y
ĠTib et
ĠSh akespeare
ĠMar x
en eg
Ġeg gs
Ġ( [
if def
Ġtem p
Ġde als
arch ive
av ia
Ġelimin ate
Ġhun ting
ĠS oul
Ġconsider ations
}} )\
Ġâ ĨĴ
ĠDat abase
cur ve
ethe less
Ġto uring
S ocket
im o
ĠD rum
Ġlong itudinal
met adata
Ġsupp lement
g ov
Ġpre st
ĠR ot
N ative
Ġth rown
ge o
An alysis
L ook
W AR
ĠCh a
ĠAl lied
Ġun expected
cos h
Ġadv is
Ġinterp olation
ter ms
veloc ity
2 25
r arily
." );
Ġar row
s ame
Ġtax es
IV E
ard i
ĠSy l
13 4
Ġrecogn ised
Ġevolution ary
ar ance
Ġcomput ers
Ġmin istry
Ġbig ger
ĠCoul omb
RE AD
Ġdecre ased
f eed
Ġcomb in
L ondon
Ġconflict s
ĠBaron et
Ġwealth y
ĠBrun swick
ic as
Ġlogarithm ic
ĠD elta
uck er
var pi
Ġconstruct or
ĠE sc
ĠB rid
Ġsingular ities
M NRAS
Ġvent ure
in formation
F B
F ictional
Ġcent res
Ġacqu ire
V C
f p
build er
lim ited
ĠK il
s olution
Ġintern ationally
ok u
Ġel dest
). $$
ĠSe an
ĠB esides
vers ely
ĠPart ners
ĠQ ual
Ġsusp ension
ĠReyn olds
Ġimpro ves
G al
gtr sim
^{ *}
Ġplay off
c n
-------- ----
Ġrobust ness
Ġb orough
ĠBulg arian
am y
ah an
row th
unc redited
Writ ers
}^{ *
Ġtype of
cho ose
ĠP ract
$ =
ĠT E
iv ariate
Ġtick et
ĠAut o
=" @
)} =\
r ink
Ġpass word
Ġcitiz en
* )
ĠColumb us
U SE
Ġdepart ments
Ġ" -
ĠCh an
Ġreal ize
Ġdisestabl ishments
iffer ential
ĠRay mond
ateg ories
N ormal
ĠLi u
min ster
Ġun con
Se lection
b os
ĠGreg ory
ĠHug hes
Ġsuff er
oc ene
ĠD rama
Cont in
re pe
Ġdecor ated
ub ert
Ã ½
Ur ban
Ġp lease
Ġsub urb
Ġdis aster
Ġmanufact ured
Ġpredomin antly
ĠJ ar
= }
Ġshall ow
Ġb oot
ĠM ort
ĠL ess
Ġmen u
W alk
Ġdesign ation
Ġtrend s
d v
ĠS ic
ĠM obile
ithm etic
P ATH
h ide
ĠT otal
ĠIO Exception
pro gram
ĠFran Ã§
S ervices
Ġsens ors
it ars
n ecess
ord ination
colon eqq
Ġconvers ation
ĠE mp
Ġn ontrivial
Ġab bre
Ġcaus al
Ġabsor bed
18 46
Ġfill ing
amb ers
ĠArt ists
Ġinter change
Ġc tx
Ġrat ings
ĠW ells
R ugby
m un
or ious
ir ts
ĠSt ore
ĠIn put
Ġdeploy ment
ĠAir lines
Ġb ind
ĠEdd ie
Ġfun eral
}) :
ro e
ĠM ills
Austral ia
over view
Fl ag
class ical
ĠW rite
]{ ./
Ġperm it
{ }\
ats u
ĠB ear
Ġgu ests
ĠN athan
Ġhomot opy
Ġcon scious
Ġall ocated
umb ai
AT O
Ġpit cher
F re
R ock
}. $
Ġshop ping
ĠNew castle
mak ebox
ent a
Ġcut off
Ġcolle agues
ĠFried rich
S un
Ġav ailability
abil istic
Ġinfer red
Rem ove
ĠĠĠĠĠĠĠĠĠĠĠĠĠĠĠĠ ĠĠĠĠĠĠĠĠĠĠĠĠĠĠ
Ġt anks
ĠR T
Ġnovel ist
Ġcyl inder
Ġconsequ ently
Pl ugin
Ġgu ess
Ġconf usion
Ġexam ination
F oot
Ġcorrect ed
Ġbal anced
names e
am azon
H I
ĠCom merce
ĠPaul o
s ized
ĠL ac
ĠCom plex
ĠTransport ation
le igh
Con ver
Ġoptim ized
Ġsymp lectic
Ġsl aves
it an
Te chn
Ġ= ========
}$ :
ĠO g
Ex amples
ĠConfeder ate
Ġbrand s
Ø ±
ord inary
> ()
Ġhe x
Ġatmosp heric
| {\
Ġres ort
ieg e
Ù Ħ
ĠAst ron
Ġ ul
Ġcert ificate
Ġal phabet
Ġhighlight ed
Oper ator
ar u
qu ark
] \\
rel ations
t rain
f air
b oys
ĠFilm s
Ġpreserv es
Ġpredecess or
h im
Rep ository
13 6
Ġdis appoint
Ġ[ "
il ateral
ĠP ick
Ġact ively
}\ ;\
M ur
ĠS oon
ĠM I
Ġcaref ully
Ġtrav elled
E G
sc atter
^ *}
Ġsc iences
Ġequival ently
Ġbranch ing
ĠR ah
Ġdisp ers
ff ield
ĠG or
int s
16 5
algorithm ic
Ġt rick
ĠScot ia
Ġf ur
Exec ution
Ġ" <
ĠM az
um m
ĠR osen
Ġfif teen
h art
Ġvis cos
Im port
x ym
Ġa ck
R ole
S ample
Z Z
Ġbirth day
t ics
l it
ĠB ened
Ġcry pt
ĠCroat ian
S oviet
Ġaccommod ate
L ittle
ĠKer ala
Ġf is
Ġin herent
Ġpair ing
Ġh ull
Ġdig it
f urt
Ġal le
Ġk pc
Bas ic
osoph ical
Ġpoint ing
Col lege
Ġsub marine
rel ative
ĠBay esian
Ġesc aped
c od
sp ort
C ulture
Ġstreng then
Ġimp ose
Ġquant ization
at ics
j ango
Ġbl ues
Ġutil ized
B rowser
Ġachiev ing
Ġac res
Ġto urs
' +
ĠE SP
ĠRh ode
Ġadvant ages
}{ !
ric ulum
ĠW ald
Ġbut ter
col lapse
Ġd ictionary
Ġstri king
pr us
E ducational
> :
der iv
Ġincorpor ate
ĠO scar
p u
ĠCard inals
test ing
d an
ĠCP U
Ġtim ber
lect ric
osp here
Ġl ic
Names pace
requ ired
Ġb ubble
Ġobvious ly
b rand
i ph
Ġearthqu ake
an che
m k
At l
n ov
ak u
Ġsize of
Ġswitch ing
) },\
): =
sin h
Ġas ymmetry
umb le
M ary
Ġl iv
w ent
Ġsk ill
ĠT O
Ġconstruct ing
ros so
ur se
L ove
Ġdef inite
isc her
Ġco in
Ġapproxim ated
inter pret
ĠManu el
sc ore
ĠH amm
h uman
ĠSt ream
Ġa er
- $\
Ġre organ
C at
ĠB eth
b rief
ĠNash ville
Q U
Ġup coming
se lection
ĠN A
ĠAn cient
ĠW onder
Ġhous ed
Ġscreen ing
ĠHamb urg
Ġwe bs
Ġfail ing
Ġbelief s
Ġs ke
ĠRes p
) _\
Ġarr ives
Ġb es
Ġgrad ed
ĠA ra
ĠW eyl
Ġweak er
w ild
St ats
ok o
ph ot
as is
\, $
ĠO wn
Ġinv ariants
Ġin hib
Ġphys ic
ID S
ĠPro duct
Ġb onds
ou x
Ġt ags
al ong
ap os
G Hz
cor relation
Ġdem ocracy
c v
t f
Ar gent
Ġland ed
ĠAm endment
att ices
Am ong
im s
\\\\ \\\\
e V
ĠGro ve
Ġro ster
Ġk ids
Ġmain stream
Ġexhib itions
1 19
ĠArm ed
Ġper ceived
on omic
res ources
ĠNap ole
cons ist
Ġto x
13 7
Lou is
ĠC ork
p refix
exec ute
ĠGab riel
)$ }
Ġimm igration
Ġhist ogram
ĠM orning
Ġeng agement
Ġenhance ment
ab we
ĠLeon ard
under brace
Ġmet ropolitan
Ġred shifts
Ġapprop ri
l ov
Ġdebut s
Ġal pha
w yn
at em
act ivity
diag onal
fil ename
Ġposs ibilities
Ġdiff e
ER S
Ġpo ison
DB LP
Ġdocument ed
q ed
Ġm ouse
Ġsurpr ise
arm s
En um
enc ia
ĠHit ler
}{ .
Ġrem arks
Ġattend ance
Ġfight ers
Ġover head
system s
}. $$
Ġc attle
Ġm ys
b org
Ġpreserv ing
a que
QQ QQ
ar ab
Ġtransl ations
Ġglob ally
Ġsynd rome
Ġinher it
B road
ĠL ex
ĠRequ est
Ġun clear
Ġunder go
osl ov
ĠRh odes
I reland
re lease
ust rated
Ġepoch s
Ġs hed
ĠAgric ulture
Ġsqu ared
M arg
Ġspec ification
out ing
Ġep id
Ġneutr inos
ose velt
Ġtel escope
Ġmethod ology
ch art
ĠR F
Ġconduct ing
ĠS oci
Ġa viation
Ġcons ent
ĠS olar
Ġn est
ĠMont gomery
ĠByz antine
Ï Ģ
Ġtri angular
ĠN N
aud io
Ġdevi ations
N odes
Ġc ave
Ġn inet
ĠDomin ican
Ã© r
ser ial
bound ary
Ġmonth ly
Ġst uff
ĠR ams
Ġcol ours
ĠSi eg
ĠB egin
ĠJ ak
bre aking
ĠV ict
St age
Ġent hus
Ġbehavi ors
d ra
ĠL ak
Reg ular
Ġend ors
Ġdr ink
f m
ers hire
Ġmod elling
et ics
ĠD iamond
Ġconserv ed
Ġvort ex
Ġperturb ative
am ation
ĠO m
be ing
ar in
Ġg ains
Ġturbul ence
ĠMar qu
Ġin ert
ĠLuc as
Hen ry
ĠP eng
L ee
New ton
Com par
mem ory
Ġdiplom atic
Ed ge
ĠBab y
Ġbatt alion
ĠG host
Ġread only
Ġaccount ing
CT ION
pre v
Ġrot ational
Ġt issue
Ġa thlete
ar th
Ġpubl ish
Ġcomplex es
Ġabund ances
G aussian
Ġ )\
ĠJ in
ĠF oot
ĠK id
18 45
ch ing
Ġexpect ations
Ã Ĺ
ac ian
Ġinteg rating
Ġcop per
ĠClark e
let ter
Ġaccept ance
ĠPalest ine
US A
ie u
xym atrix
as ia
ĠV ent
ĠCl if
Ġbos ons
Ġpoor ly
Ġ' '
Ġdescend ants
ĠEngine ers
ÅĤ aw
P resent
Ġtermin us
ĠâĢ ¢
the me
Ġexception al
ĠR us
ĠBas ic
Ġn ice
ĠCam eron
CO MP
Ġpol es
ĠGu ild
Ġsp ont
Ġarch ive
ĠT ong
}) ^{\
Ġlog ger
}} _\
ĠBl u
ĠÂ §
al in
Ġp our
ĠWil helm
Ġre write
fer m
Ġsum s
il o
Ġmon astery
hom ogeneous
L imit
Public ations
F W
ĠA j
Ġro cks
ĠC ec
he ro
. ",
ĠRevolution ary
ow der
ent in
}= -
Ġdistinct ive
sub ject
ĠP rest
Al gorithm
Ġleg islature
Ġmeas urable
elect ron
I ES
Ġprogress ive
ph ib
Ġprint ing
M N
Ġr uler
Ġkid n
ro us
Ġor che
ĠOt to
Ġd ots
Ġplan ar
j ud
K e
Ġadj oint
Ġfilm ing
Ġprefer ence
; }
ĠM O
Un incorporated
ĠWh y
quir y
w m
F ar
M ask
w al
P air
Ġcont our
itte es
Ġco res
Ġâ Ĥ¬
m apping
\ `
er i
Ġext rap
Ġasymptot ically
J an
Ġcalcul ating
Ġdeep er
}\, ,
ĠFran co
Ġp m
ott ingham
oy age
Ġobject ives
Ġout door
Ġcl ick
F act
Ġtext ure
13 3
amep lay
O PT
ĠYugoslav ia
st roke
col lection
b ank
imb abwe
ho e
Ġg raphics
comm ut
Ġport ions
he ng
Ġe V
ĠOut standing
Ġsum mit
j unit
p es
Ġradi ative
ath a
as ync
rac le
ĠP rague
com parison
Ġcompl iance
ĠCirc le
b at
Tax onomy
J ud
ĠPhil osophy
Ġmulti plic
on so
Ġansw ers
Ġdoct ors
Ġgen es
ĠN g
Ġs ou
J im
ĠF ind
', '
IG HT
Â ½
ĠK as
Ġform ulated
ĠPal mer
ĠSeb ast
13 1
ĠĠĠĠĠĠĠĠĠĠĠĠĠĠĠĠ Ċ
ĠR ule
Ġport s
Int eg
Ġgard ens
Transport ation
publ ished
C ities
Ġsuccess ive
Ġresign ation
ish i
ĠC raw
Ġtr ump
Reg istry
l p
ĠV II
Stand ard
flu ence
Ġanth rop
ĠV oice
t body
ĠMer it
ĠG amb
Ġregular ity
pro j
Ã© g
ĠFellow ship
Ġtw ist
P refix
play ing
end um
por ter
Ġproject ions
Ġtim ing
Ġviscos ity
ĠM aterial
Ġend point
ĠR enaissance
So ft
c ott
Ġf iring
st ed
ĠH aving
Ġaut onomous
An im
ĠWed nesday
Ġenvel ope
Ġcharacter ize
ĠS ob
ĠE ld
load s
Res earch
oe ing
U k
Ġlog o
ĠL oss
E r
ĠD y
Ġillust rates
song writer
ĉ ĠĠĠĠĠĠĠ
ĠFig s
ost ics
ĠEc uador
element s
( .
ĠTun is
st ock
ĠK ash
b ur
Ġcon g
ce q
Ġhe m
ĠD raw
Ġstop ping
ĠD ame
ĠB ears
ic ia
Ġab ilities
Ġme at
om ed
b rowser
I ts
14 7
Ġwrit ings
e eq
ĠS ony
sh i
Ġindic ator
ĠChe ster
d m
P ubl
ĠDivis iÃ³n
ad apt
ĠIsa ac
ĠMar io
Ġpri ests
Ġserious ly
E u
uss els
ĠL amb
head ers
sh all
ĠKaz akh
Ġt x
Ġvolunte ers
Ġsust ained
Ġ\| _{
ĠTom my
ĠG az
ator ies
Ġbank rupt
ĠF ast
S a
Ġor n
ĠK or
18 36
Ġcon figure
Ġen um
Ġdial ect
Ġneg lected
Ġc ad
Ġz ones
ĠBos nia
Ġqu iet
Ġb orrow
Ġno isy
W estern
Ġveter an
ĠA ires
ĠNorth west
ĠSask atchewan
Ġb one
Ġgold en
ĠN L
Ġe ject
ĠW ord
ĠM IT
Ġb alls
ĠHar bor
Î »
ust ers
ia z
oper ation
R F
Ġun ions
att ributes
ĠEn s
int eger
ĠJo an
ĠRon ald
n ell
ĠSh in
ĠMil waukee
We ight
co ordinate
Ġcaref ul
Ġw elfare
St op
Ġmass less
sl ice
TR UE
S ync
/ {
ol in
ĠT yp
book s
}) ^{-
ĠCo hen
ass er
Ġmagn itudes
Ġd upl
\\ \
Ġinduct ed
intend o
Con v
cor r
Ġsl opes
G reek
10 24
Ġinvest ors
Ġdec oder
Rev iew
ĠL oc
Ġem issions
ĠF ly
l ive
ĠS of
Ġf i
ĠKn ights
ah l
exp ression
Ġpro ps
Ġfactor ization
Ġeng age
P od
Ġmole cule
Text ure
ĠJ ung
ĠStock holm
D u
us a
Ġle x
Ġrect angle
ĠSt ories
Ġcan al
\\ [
ĠS uff
itect ure
Ġpsych ology
Ġexperiment ally
y u
re port
ĠMethod ist
Ġsummar ize
)) =
im en
vert ical
Ġrem ix
ha o
Ġf ert
13 8
W I
Col umb
Ġflex ible
: [
G er
e ur
I EEE
script ions
ĠCar r
ĠInter est
Ġmem or
Ġs ailed
M ENT
Ġelev ated
l ived
14 3
Ġim per
Ġdef ended
oc c
ĠEx amples
T ri
ĠPlay ers
ĠG alaxy
Ġdeep ly
e igen
Ġbus es
Ġen rolled
ĠDur ham
Gener ator
Ġmemb rane
} '$
ib a
+ {\
ĠLev el
ĠS NR
st ead
') );
Ġconstitu encies
he ld
all oc
Ġdetermin ant
Ġsc an
it ious
Ġr iding
ĠMc L
ĠAct ress
I gn
Ġhol iday
Ġbur st
Ġfarm ing
Ġcam eras
Ġsuperv ision
Ġcol ored
y pos
Ġburn ed
Ġs overe
Ġmaintain s
Ġharm on
ĠWeek ly
ur bs
t v
orthe astern
K A
or um
ĠF ish
Ġconf ined
Ġcorn ers
ub ern
ical s
k al
Ġbre ast
Ġmon op
ll er
ĠK ill
x pos
18 39
ĠSe lect
Ġun incorporated
X Y
bro ok
ĠH at
Jose ph
Addition al
Ġs ugar
Ġb oss
18 37
D iff
Ġout line
ĠSalv ador
ĠP and
Ġt idal
pr iv
ĠRead ing
it us
Ġsubgroup s
Ġinn ovation
ĠRefer ence
Ġtrans mitted
ĠP ent
Ġt one
ĠG olf
Named Cell
Ġbas in
Ġs ick
ar v
Ġfeel ings
ĠP red
H am
ĠB ag
Ġhistor ically
Ġevery where
) ->
Ġpron ounced
M ountain
Swed ish
ĠT all
ĠT rain
R andom
w y
ĠY a
ed o
Ġu i
ĠM umbai
ĠSaf ety
el ing
Ġcl ause
ĠPlan ck
unc an
ĠP RO
n atural
Ã ¯
Ġen emies
ĠB ras
ĠL com
Ġcan n
ick en
ĠEs sex
ĠSw an
Ġed itors
ĠÃ Ĺ
ĠSecond ary
ass embly
Ġcompens ation
Spec ies
w rapper
Ġc rop
}} ^\
Ġtun ing
Ġa u
ĠCo ach
ĠF lying
ĠPan ama
ĠOrig inally
Ġsimpl ify
Ġrefuge es
b is
ĠR af
f red
pred ict
f ollowing
ĠAh med
w d
Ġar rows
Ġdel iber
un ning
ĠW AR
ĠâĢ ¦
Ġsk ip
ĠD as
ic ator
ĠM atch
}$ &
ĠLiber ty
Ġutil ize
ĠDev on
ma ch
Ġsche ma
Ġadd itive
ĠE C
Ġqual itative
Ġfir ms
Ġprot ocols
Ġsearch ing
F ind
ĠV illa
ĠSp encer
33 33
umber land
Ġover w
He alth
ĠF lem
ĠRo osevelt
t l
ĠPer th
ĠCit iz
ĠI E
{ |\
ĠH im
Ġpl ates
eth yl
Ġ$\ |\
ĠJama ica
ĠDec ision
ĠVis ual
Ġray s
Ġt uple
zeg ovina
ĠR uth
Ġt ier
hy dro
Ġarbit rarily
ern els
ll a
ĠBro s
Ġsp ell
pro duced
ĠB R
t ags
ĠGrand e
e i
Ġinstit ute
ĠBenn ett
Ġf inger
arc sec
Ġnot iced
^* _{
ĠH ost
ad ier
ec ca
erv ing
Ġwatch ing
Ġmidfield er
a ude
Ġarg ues
Ġtra pped
Å Ľ
ĠIndones ian
Ġanomal ous
$ ~\
Ġpian ist
Ġmot ions
dis k
Ġrout ine
Ġwh atever
18 41
ĠE le
Ġathlet ics
Ġdepict s
Ġthermod ynamic
Th ird
ĠE ight
Ext ended
ov anni
ĠTra vel
Ġproxim ity
ĠK rish
Ġqual ification
b ird
ous ing
exp and
ĠHar per
ĠHop kins
Ġsoci eties
Ġb ag
li um
ĠA aron
Ġdescript ions
( __
Ġt enth
d ie
Ġst reak
dot ted
ĠF i
Ġcould n
equ ilibrium
MOD ULE
16 8
. <
ĠTh ursday
Ġdevelop er
Ġcler gy
Ġproceed s
im ination
Ġph osph
ordin ates
F il
Ġdown stream
ath i
W rapper
ĠD aw
L U
Filter Database
Ġexec ut
r ity
and ro
P ac
Ġannounce ment
ĠPrinc eton
en i
Ġun changed
Ġreleg ated
ĠLe aders
md c
f actory
ond e
ĠFe ature
el ly
Ġart work
RE G
ĠS ect
] +
Ġhead ers
Con clusions
Ġgl uon
aa aa
Ġinteg rate
ĠIda ho
ĠH az
x s
ĠL aura
Ġmidfield ers
Ġco at
Ġc iting
Ġdiv is
ĠS ul
Ġoccur rence
Ġartifact s
ol ine
Ġcollabor ated
g ie
Ġfrag ments
L uc
oun s
L ow
Ġlist ings
Ġtw isted
18 44
Ġdepend ency
Ġemphas ize
Ġevalu ating
ĠJac ques
Ġab oard
Ġtack le
und efined
Ġhom ology
asc ade
p rom
ong o
ac co
Ġaut hent
Ġrenormal ization
c u
ĠP aram
Ġtro uble
run ning
Ġrel ate
i ago
Ġd rops
ĠAss umption
A bs
Ġst range
ĠO ber
Ġcollect ing
Ġprofession als
Ġsk ew
ĠE ve
Ġmulti plicity
ĠMig uel
th al
Ġg ro
ail ing
{ "
cre ated
t oc
Ġed it
Ġb achelor
Ġauthor ized
Ġpark ing
ach ment
Ġcompris ing
18 20
ĠI o
ph ysical
ra h
Ġdepart ed
Ġcl im
Ġconclud es
p olicy
W W
Ġb eta
ri ke
ĠU I
Ġj u
Ġall oc
ĠCap itol
ol ics
abul ary
Ġsec ular
ĠCy prus
) )$,
le z
B ill
Ġstructure d
ĠDist inguished
Ġbroad er
Ġo mitted
Ġb undles
Ġsp ur
ugg ing
Ġke eps
_{ |
Ġpione er
Ġg ear
it ic
ĠD escription
ETH OD
ĠFour th
Ġa fore
ĠR O
alth ough
ĠCon v
æ ĸ
Ġr g
Ġall ies
ĠPr iv
Ġmotiv ation
ĠG and
Ġack nowledge
sche me
h h
ct rine
ĠF oster
ich let
ĠM old
ĠRe ich
Ġconvolution al
L arge
Dem ocratic
}) }{
inter action
~~ ~
Ġperfect ly
ĠD in
Ġinh ab
18 35
W ater
F ort
ĠB ody
}$ ~
Ġax es
ĠC inema
L android
ĠBu enos
Ġtravel s
ĠRepublican s
n at
Ġalt itude
ĠS ter
Ġst ick
M u
Ġsl ice
Ġadv ocate
Sc roll
B AR
US Y
Ġtour ism
Ġc oding
Go ogle
m any
Ġwe aken
ray s
Ġann ex
N I
G rad
ev olution
ern er
Ġn ephe
Ġal ias
ĠVal id
UR I
Ġent repreneur
A rea
Ġthreat s
om ar
Ġtor ped
Ġburn ing
b inding
ĠM ull
Com plete
Ġind oor
valid ate
Orig inal
Ġc ust
Ġhyp ers
ĠSt atus
}) +
Ġsp rint
ĠPl anning
ĠPr int
map s
Ġ= &
Ġco herence
ĠPolit ics
ĠT alk
ol or
Ġval ued
am ine
spect rum
est rian
ĠA w
Ġfoot age
Ġabs olutely
ĠC ert
Syn tax
M IN
Ġp c
Ġhand ed
\ @
emb ourg
ĠW inn
nd ef
00 4
Ġprogram mes
ari us
Ġt ape
orm s
nav List
lev ard
Def ine
A mb
ĠM usical
leg raph
St ructure
spi racy
ĠTe V
ĠThrough out
ĠK ate
ĠStat istics
rosc opy
Ġa uction
Ġrend ered
M Hz
Ġp ill
Ġsupp ress
bor o
P rom
Ġsever ely
Ġ( .
Ġdef ender
) ",
Ġcirc ulation
ĠN AME
Ġpsych ological
l ibrary
s r
al p
N ET
Ġnumber ed
\" {
ĠUg anda
ĠR aid
Ġsusp ected
Ġincre ment
ĠFa ith
ĠL arge
ta king
In formation
å ¤
15 2
ĠG Ã¶
B eh
Ġ= ======
maz ing
B ottom
-- \
ĠJ unction
Ġtriang les
Ġconf used
ĠA er
Ġin duce
ph inx
Ġal ien
Ġapp endix
Polit icians
ĠL ipschitz
ĠTod d
Ġcart oon
ari um
il ian
ever y
open hagen
ĠCab inet
Ġarchae ological
r ised
ma jor
arri ers
Me V
. ]
ex it
Ġcov ariant
Ġmill ions
ra z
Ġ ig
Ġpart itions
Ġair line
ĠD anny
Line ar
ĠPlan et
Ġrecommend ation
ä º
ot er
Ġdr inking
ing en
Ġdec k
Ġalleg ations
N U
ĠS creen
ik es
f ollow
C ost
ass umption
Ġexplo it
ĠB od
ess el
Ġres umed
Ġult ra
Pol ish
H amilton
Ġsp anning
18 38
ĠJust in
order ed
M id
Ġreform s
Ġv ow
ĠR andom
Ġaff air
Ġdiss olved
Ġreg imes
IN S
Ġimm ig
Ġafore mentioned
{- }
in ced
ĠL or
Ġsupp ression
sh ore
d ynamics
ĠMan it
Ġcho ir
Ġf aint
Ġgraph ic
18 43
sat z
ĠUn fortunately
ĠL HC
up d
Ġcult ures
nod enum
Ġcont ributes
con e
ĠY et
ĠProv incial
ill on
U pd
ae us
ĠLeg ion
Ġcon current
ap a
)$ )
ĠHer zegovina
I l
Ġsear ches
F D
Ġad mit
ĠAmb assador
er k
col lect
d ialog
o fficial
Ġsh ops
Ġaf ternoon
av ian
B us
Ġmeaning ful
Ġdeclar ation
Ġbel t
Ġcomplet eness
Ġarchitect ures
S at
S creen
sign ature
Ġnick name
Ġreserv es
Ġs a
* ,
Rep ublican
chi ef
Ġthere in
ĠVlad imir
Ge org
found ed
r k
us ername
ul ous
ĠV il
Ġhead ing
M ach
14 1
Pr inc
ox y
18 12
enti eth
@{ }}
V ir
Ġhealth care
ext end
iz a
ĠNe umann
Ġt ram
ĠY ellow
fore ach
Ġw alks
Ġvirt ually
ĠMoroc co
land o
Ġfre ely
Ġshel ter
ĠPar ks
ĠHT TP
um ped
itt en
Ġwavel engths
Ġs iege
Pl atform
Ġdeleg ate
Ġcur rency
ĠComp etition
Ġcompar isons
Mart in
Di agn
Ġw ww
ĠSom erset
Ġaccompl ished
Ġl oved
Ġcomm enced
Ġb racket
C le
L ead
un ivers
Ġh ills
ap or
b ers
Ġb is
Ġpair wise
ĠS FR
Ġselect or
Ġprevent ed
SE LECT
å ®
ĠInitial ly
S ound
g auge
14 8
Ġb ipart
valid ation
Ġs ung
ĠFran z
Ġp ist
Ġnovel ists
Ġc ow
T x
ĠSD SS
Ġmem oir
re ma
Ġc f
Ġexp ans
act ers
re ason
Sim ilar
ĠG ene
Ġhe ur
28 0
re ach
pro gress
be it
anim ous
Ġmod ulation
j ob
oc on
Ġpil ots
b undle
Ġs ake
}, $
Ġmes on
Ġa xi
ĠL iv
ess a
). $
man uel
integ ral
et e
M ove
ĠB ent
Ġw orn
Ġrecommend ations
string s
be k
im an
Ġlaws uit
load ing
the ore
Ġassert ion
Ġcounterpart s
ĠMaur ice
C ond
ĠInd ies
">< !--
ĠO w
Ġto ll
Ġinject ive
Ġper ception
Ġtour ist
dec l
; )
ĠT ir
ĠK umar
Ġ{ "
Ġ> >
vers al
Can ada
Ġab olished
Ġceleb ration
Ġmac ro
iff e
ĠM ock
ĠSus sex
Ġt ru
26 0
hel per
Pass word
opt ional
n or
> [
f amilies
Ġ\ )
ine es
Ġl akes
] }$
Ġsh ots
ben ch
Ġpro l
Ġas set
Ġsim plic
Ġsign atures
ĠPunj ab
Ġr iders
Ġboard s
ter bury
14 2
Ġtransform s
weight ed
ern ess
ĠPr ison
Through out
g us
z el
anc ers
Ġattack ing
Ġprov iders
Ġfoss il
Ġturbul ent
R ank
Ġr ice
D IS
Ġco arse
og o
it ary
Ġen act
Event Listener
Ġin complete
ĠPet e
Ġc rack
Ġenc ode
ĠV e
Ġbi ology
Ġc avalry
ĠEag le
Ġfle w
Ġh ub
r ceil
c ourse
Ġmer ch
Ġh unt
G H
18 42
Ġtime out
tr ation
T ags
Ġcont rolling
Ġcoff ee
Ġn m
ĠF olk
pr im
Ġv e
U AL
at io
all classes
Ġchalleng ed
H aw
Ġoscill ation
15 4
Ġfe els
IT ION
p her
ij a
ĠCa uchy
l ore
m ology
Ġver ification
typed ef
Res ources
Ġext inct
rack ets
in j
cl ock
scal ar
D etail
)} }\
Ġphil anth
ĠJul ian
PO ST
Sp an
ĠSp ider
ĠF ul
uis ine
res olved
ĠIn stitution
Ġback ward
Ġdissip ation
G F
Ġfound ers
Ġround ed
ĠM B
us ive
ash ire
ĠWrit ing
W C
ĠCub an
ĠRod rig
Ġcatal ogue
ĠS ett
ĠÐ ²
ĠSch olar
ole cular
Ġgu itars
20 2
ĠL if
C RE
K h
ĠSer ver
m aven
Ġar ithmetic
ĠShe ffield
rest rial
ĠCard inal
in as
ĠO st
e lem
m g
Ġd ogs
ĠP ul
Ġris ks
Ġvulner able
Ġo w
ĠK re
ĠSl av
stan bul
ĠAbd ul
ĠM E
ĠJohann es
Ġe mpire
ool s
Equ ation
ĠAng els
N orthern
Ġvers e
> ::
Ġpract ition
ĠG C
Ġbomb ing
op ened
Ġinv ersion
ot ypes
Ġ' <
O s
}\ )
Brazil ian
Ġmetall ic
sup set
Ġport folio
De legate
Ġg rate
Pro gress
Ġknow ing
ir med
oc hem
Ġg ent
Ġstud ios
W el
Ġen larg
Ġnull ptr
L ab
h p
Ġhealth y
scal ebox
Ġf ed
), \\
atter y
prov ider
Ġ Ã©
Ġprom ised
test s
Ġcontinu ation
C itations
on ne
Ġspect roscopic
Ġpay ing
Ġalter ed
Å Ļ
ĠPar ad
ĠN u
ĠN ancy
ĠRes ponse
Ġmay be
Ġunder graduate
Pre vious
B ern
Ġaccess ed
! }
Ġdeb ug
Hel p
ress ions
Ġcat hedral
Ġm im
ĠM ade
index Of
Ġh az
Ġpre val
Ġfore ach
ĠForm ation
ĠPear l
ro ute
ĠS old
ĠBudd h
Cent er
or ers
an ch
Ġgrad es
c ially
Ġl ights
K im
S to
ĠT uesday
unt ary
ĠK arn
Ġsim ulate
W ang
Ġconv inced
ol ith
ĠA ug
sp eaking
)$ ;
cho ice
Mod ern
, +
Ġrect angular
c ock
ĠAd v
=" ${
an z
ĠViet namese
Ġp ending
Ġcomp iler
Ġarchitect s
ra its
15 1
ĠM TV
16 9
Ġso ap
Ġimp ressive
found er
mer ge
}\, .
col span
l ceil
D eep
ĠIraq i
Ġconf ident
atin um
Ġs le
Ġfor ty
T L
ĠP ep
Ġw ake
Ġbrig ade
c ia
ĠK i
sv g
equival ent
ster ious
M us
ull ah
elect ric
Ġwire less
ĠC rist
ad r
V s
ĠA chiev
ibl ical
Ġen umer
Ġquarter back
Ġspeed s
3 30
ass o
hab ilit
Ġt mp
18 32
the ir
ĠAp ost
ĠHind i
ĠArm enia
D rag
T IME
represent ation
ast ics
Ġcheck ing
p al
ĠP aint
pr ises
., ][]{
ĠW id
ER N
Ġpen et
comp iler
As ian
ĠCorn wall
Ġmiss ile
ĠA ges
Ġimpact s
ht ra
l c
S ol
Ġflo ating
ĠBrook s
ĠPalest inian
ups ilon
ĠF L
ĠShort ly
Ġanisot ropy
Ġk ernels
Ġaccept able
F ellow
Ġadm issible
ĠL ok
Ã¡ nd
ĠP or
Date Time
Ġt orsion
13 9
ĠRiemann ian
Ġcitizens hip
ĠI SO
at ile
Ġachiev ement
Ġw ars
Ġpat ches
ĠF iction
ĠV eter
ĠDav ies
Ġs weet
Ġc ouncill
ĠEd ge
ĠGard ens
Ġg aps
ĠEx cell
rub y
EN SE
Ġillust ration
Ġd rove
Ch art
B ind
ĠS ets
ĠMarc us
b ian
ĠP icture
14 6
Ġide als
Ġhon est
End point
H op
Ġmob ility
the o
ĠS ig
ĠT arget
Ġcor ps
? >
Ġgradu ation
Ġj ail
ĠM ang
ĠR overs
Ġcomment ary
Ġamb assador
Ġneighbour ing
ĠM is
oy le
Ġconv ey
u o
ĠHe ights
ĠPres byter
Ġch apters
Ġinteg rable
Ġhigh lights
< !
ĠP resent
ĠC lear
Ġrefere e
do es
Ġinsp ection
ĠEvent ually
trans fer
sp ective
Ù Ĩ
period ic
ĠA SSERT
Ġpoly mer
l st
20 5
new s
al gebras
% "
B uff
emph is
con tact
ĠV ern
ĠSim ple
D s
acher s
B on
Ġex ports
ĠPak istani
j ack
ĠO z
ed ges
Base ball
Ġtermin ology
t m
en ario
Ġacadem y
( @
Ġvocal ist
Ġactiv ated
P aint
Ġpat ri
ĠHer ald
ĠA ub
Ġsub sc
Ġconduct ivity
Ġdist ribut
Al tern
Ġcelebr ate
pot ent
ĠN ottingham
\% ,
Ġrev ival
ĠGener ation
Ġman ages
'' $
Ġadminister ed
Ġconstant ly
LO CK
Ġconstit ute
g oto
p ub
)- (
Ġblock ed
check ed
Ġsh aped
es ar
ĠOak land
ed e
Ġb ull
20 8
Ġout lined
Ġfif ty
rosso ver
Ġcap ac
M ake
ĠCl in
Ġion ization
Ġexcit ations
ĠB elf
col Last
Sequ ence
g ue
Ġb ug
Ġform ats
sc ience
Ġplace ment
pl ots
Ġbox ing
mont on
Set ting
ĠWild life
ĠH us
Ġstr at
Ġdimension less
Ġneur ons
J ul
Ġ Ñģ
Ġv ital
Ġ ic
(' /
ĠH il
int rodu
ĠS ullivan
aver age
H ub
Vis ible
i ens
Ġpreserv ation
Ġinvert ible
rot ate
å ħ
ĠUr ugu
ĠCle arly
16 7
Ġe at
Ġt une
Ġgra ve
Ġsudden ly
ow ards
b eck
Ġun ified
ile vel
Ġpar a
ĠL oad
ĠEll is
ĠV irtual
Ġres iding
Const ruction
ĠL isa
Ġcivil ians
n ucle
ĠDes ert
ĠBlo om
Ġhost ing
Ġb read
Stat istics
ĠL akes
G reat
16 6
AM P
Ġphot ometry
ang ered
Ġacknowled ged
ĠEx ped
ĠTest ament
ĠMan ila
Ch ina
Y P
Ġb otan
ag in
ĠRe id
ĠO wen
ig ue
im ony
Ġminim izing
ĠI v
od o
add y
ras er
Ġput s
spring framework
ĠLeg islature
Ġselect ing
U ri
f itting
Ġinterp ol
p ic
Ġfit ness
bl ank
Ġevent ual
Ġdiv isor
Ġtribut ary
ag onal
d ependence
)) ^
form ula
Dev elopment
n ai
Ġare na
op a
ced ure
ĠGu ang
oc ent
ĠĠĠĠĠĠĠĠĠĠĠĠĠĠĠĠĠĠĠĠĠĠĠĠĠĠĠĠĠĠĠĠ Ġ
ĠCon cert
Ġper pet
aus es
ĠA ur
ĠSc ar
Ġaffili ate
Ġp ap
Ġr am
ĠAn im
ĠP orter
Ġeth n
w i
ĠJul ia
dimens ion
Ā Ā
ĠC openhagen
Ġc md
Ġred und
Ġflow er
Ġarray s
m oz
Ġun w
n h
Ġcasual ties
ĠAddition al
Ġperson ally
Ġconc aten
if iable
al ias
Ġ" ",
ap ur
p rior
Ġident ifier
ĠR ice
Ġagre ements
Ġc ant
et es
Ġwebs ites
Ġadopt ion
T oday
C ondition
' },
ĠBa iley
ĠGram my
ke V
Ġlog ging
ĠN as
anish ing
M SE
ĠChar ter
ev o
che l
ol lo
s ix
Ġif f
dec ay
es a
Ġjo ins
@ {\
ar ians
Ġfe es
ĠSt rong
at ta
Ġed iting
b eq
m r
15 6
^* ,
F K
Ġ ];
ĠCom edy
Ġsport ing
n is
Ġb ell
symmet ry
R o
( (\
ĠWest minster
Un known
ä »
er ie
En umer
EE EE
Ġrecip ients
b ay
Ġmy stery
Ġimprison ed
ĠMon th
âĢ ĺ
col First
Ġf ol
ĠIn ternal
ĠEd mund
ĠAl bums
Ġl ung
Ġdef ect
ex istence
Ġship ping
Ġpay ments
ĠCamp us
ĠÃ ĸ
Ġjud icial
Ġp unk
Ġant is
Ġr idge
A BC
ĠRail ways
W ait
}{ -
Ġun e
ĠG othic
clud ing
ig i
}}{ (
* }\
Ġv in
an ian
if i
ĠCol lect
Ġaddition ally
N B
Ġdem ocratic
Ġgain ing
ĠS ED
Ġachiev ements
Ġlab elled
Ġinsert ed
Ġpr ince
ĠGr ass
18 34
Ġrecru ited
cos ystem
S ame
d ens
in aries
Ġjud gment
N ever
Ð ±
Ġad i
ĠAn a
H o
c orn
Ġm ilk
Ġret reat
ĠZ imbabwe
ĠS cal
ĠT rip
eg an
Ġdraw s
ĠY es
Ġd imin
Ġstat s
Ġ\ %
ĠA A
15 7
ĠB Y
T yp
k el
ĠA ch
ĠAp plication
á ¸
ene ath
Ġatt itude
is ers
id ity
ĠP L
Athlet es
pl er
ne z
ibl ings
Ä ħ
| }\
ĠGl ou
ĠB orel
St e
pro xy
ĠSh ield
16 3
V V
Ġb er
ĠF actory
14 9
Inter val
B rown
ec a
ĠE lection
R oad
og an
ĠArch ae
Ġtrigger ed
ot yp
view s
ĠWood s
Ġperman ently
pe z
ve ill
d dot
Disc ussion
Ġpit ched
or ate
Ġdisband ed
Ġalleged ly
ad vant
Ġch ronic
m ot
rig ger
S G
Ġpl ugin
^+ _
Gener ated
pr ising
M icrosoft
ul ers
ik ing
Ġsequ ential
Ġbackground s
res olve
Ñ ħ
Ġvis ibility
B Y
are l
am as
Ġche ss
}} -\
Conn ect
ĠD ob
ark er
Ġour selves
.\ ]
"" "
RE Q
Ġlight ing
Ġun employ
R en
Ġf ram
ber y
sen al
ĠArray List
Ġqu een
ĠF inals
ke es
time out
Ġ( #
ĠC osm
Ġgl ac
Ġfollow ers
Ġball ot
Ġbreed ing
DE FAULT
Ġwid ow
Ġexcept ions
ĠSt op
ĠE state
ĠNiger ian
D b
Ġathlet ic
all a
Tur k
Ġsculpt or
A X
b racket
ĠAg reement
Ġconsum ers
ext ra
ĠSant iago
d g
ild a
Ġhierarch ical
Ġsc roll
Ġinf ected
}} ;
ĠGe off
ĠN ine
Ġst ret
ĠSh op
j Query
ĠM ine
ĠRe act
Ðµ Ð½
ĠVol unte
s z
ĠW orth
Ġestim ating
L iber
y ang
ig ator
ĠN eed
Ġpresent ing
ĠMathemat ics
ĠS aw
Ġ[ -
ĠMal ta
Ġ? >
ellig ent
ĠLore n
Ġhop es
i q
Ġdifferent ly
Ġgrand son
P a
ĠP lease
th us
ĠEm ma
ĠAdvis ory
ĠNob el
F OR
Ġbroadcast s
bo at
Ġreson ant
sh ops
ĠLithuan ia
l um
Con stant
aj ax
. ][]{
Ġmod est
An imation
ĠH arm
el ong
ĠD im
H ard
ĠIm port
Ġeditor ial
Sk ip
j in
ĠPo etry
S elf
zy me
Ġkilomet ers
R ot
ĠE g
ĠC MB
b inary
Ġfor get
ĠG ren
k ers
ĠN P
S mall
ct uary
IC ENSE
ep age
c as
ĠW ikipedia
ĠIn g
Ġpay load
Ġnorm s
ĠS qu
Ġel ite
erv es
Ġm oll
Ġj ew
run time
Head ers
ing o
Ind ia
Ġproceed ings
ri o
Return s
Ġfaith ful
ĠA G
ynam ical
ĠRichard son
ĠIs le
Ġred es
Not ification
ĠC ort
Ġco ached
Pro b
Ġimplement ing
15 8
geq slant
F s
del ay
Ġavoid ed
dr iver
Ġmer ging
ĠCel tic
Ġsoph istic
W at
Ġ\\ \
P ak
Ġlist ening
ĠEx hibition
With out
Ġb ats
aj i
Ġslow er
Ar thur
ĠAndrew s
w hat
Ġp ec
Ġfe ud
ĠW inds
Polit ics
Ġsc andal
Ġdr ives
ĠLanc ashire
Ġl ag
Ġen abling
Ġsub mit
Ġrec ruit
ĠD id
ĠH ttp
Ġnot ations
ĠCol umn
Frag ment
he art
22 4
Ġfriend ship
Ġcomed ian
ĠHol mes
ĠS weet
Ġcirc uits
Ġbl ank
ĠLou ise
H uman
Ġp ion
inf all
Ġconfer ences
m essages
l vert
ĠM W
Ġhousehold er
Ġcolon ies
ĠAb stract
Ġy ard
ĠAgain st
over ed
Ġcommun ist
o que
be am
Ġvo ices
ell ers
per ture
ĠT ampa
Ġde leted
ch y
Ġpropag ator
veill ance
numer us
ĉ ĠĠ
z t
Ġresear cher
Ġfavor able
Ġexecut ives
numerus form
Ġanten na
ust ration
Ġdesign ers
Music ians
es ome
ĠA u
ĠManit oba
oy d
Ġaud iences
Ġdef er
Ġsu ite
ĠClass ical
Ġnom inal
ot hes
Ġf atal
Ġfore cast
Ġuniqu eness
e o
HT TP
B ay
stit u
Ġsurviv ors
ĠBr ussels
cha ft
ĠF ROM
Ġdef ects
Ġrenew ed
tab s
Ġh itting
k top
ter y
Ġnephe w
Ġ æ
ĠR L
ĠParalymp ics
ĠH ass
ĠGl ass
ç Ķ
es ch
IM PORT
ĠU tt
F LA
Ġpack ages
Ġment ions
l icens
Ġt iny
ĠH ubble
Ġfl our
ien ne
Ġgu ards
load er
ĠHe aven
ident ity
Ġadjust ed
Ġpun ishment
Ġcontact s
VAL UE
h ra
Ġr ifle
Ġsem antics
Ġtim estamp
intend ent
h istory
ĠC ord
Ġfl ank
ad joint
ap is
av g
ent ropy
ĠD uncan
ĠSh im
Ġdemand ed
ĠP T
Ġgeneral ize
Ġtrans ient
Ġsh ar
Ġchar set
ĠKenn eth
Dan iel
ĠF eder
20 4
A st
ĠTrans it
ore n
Ġs weep
Ġbe aring
all i
ĠK eep
Ġprepar ing
Ġcount ed
Ġprec ip
W ashington
Ġvict ories
py thon
ĠV ers
ĠEm ploy
ĠRef s
ĠMont eneg
n Ã©e
Ġannot ation
T rad
w oman
h urst
ĠF ut
)\ ;
S ide
ĠAm y
ĠLeg al
R aw
un ov
B ir
Ġcoll apsed
Ġfilter ing
Ġspecial ist
j p
Ù ħ
pos al
15 3
ĠSol omon
ĠL abel
Ġz eros
ĠPh ase
ĠAl pha
ĠH alf
D a
ĠSim pson
ĠTw enty
Ġdivor ce
Ġcontext s
Ġtele phone
Ġgu idelines
Ġfall en
Ġnam ing
Pop ulation
on ial
S ave
ĠF ed
ĠCa uc
Ġlocomot ive
Ġcur ved
Ġch ore
p aramet
ett es
d uration
ĠT aking
ĠAll an
ĠBey ond
Ġreg ret
C zech
EEEE FF
Ġ& -
ĠW ant
u ced
contin uous
Ġd ancing
P UT
ĠC i
Ġth rew
ĠX ML
Ġincorpor ating
ah a
Ġsatell ites
ch air
In c
SS L
Ġd rain
ĠC ay
Ġh ind
dec om
$ ]
Ġant ib
Y Y
H K
ĠM R
15 9
ack er
p n
Ġas ide
ĠH aus
ĠSta kes
ĠP rec
ĠN acional
Ġcul min
Ġtheat rical
t uple
ĠC ut
Ġres cal
st ars
oot ing
Ġret rieve
aras htra
Ġown s
Ġep it
ĠL ot
Ġkn ee
ĠBat man
Ġsimilar ities
E nergy
un ion
din and
g rand
ĠC ele
Ġcon form
ins k
Ġoverw hel
arg uments
reed y
ĠU ntil
fe atures
Ġg alactic
Ġtem ples
A ff
ty pen
ĠIndian apolis
Ġun ve
ect ives
Ġc rops
Ġan onymous
Ġw ore
Ġstrong est
Ġle pton
ĠFig ures
} --\
Ġdemon stration
Ġre pository
ah u
ĠH ess
w ald
Cor ollary
ĠH ir
AN G
ĠPrinc ipal
Ġb if
part s
im uth
Ġaff ecting
ĠB iography
ĠL ip
ri ans
P ut
ĠPl ate
}\ |\
Ins ert
ĠD oc
Ġhon ours
t ransport
Ġad equate
Ġmain land
ĠBou levard
ch in
ĠAd S
Ġsuccess ion
Ġfle e
Ġspec imens
Ind ividual
ah ler
Ġrele vance
Ġanal ogue
C lear
ere k
ef ield
Ġtyp ed
T ake
pro ved
ID TH
J ean
] _{\
ĠH IV
Ġ" $
Ġwar fare
b ug
N atural
Ġf ate
f lix
ĠH ait
Ġtouchdown s
ric a
ivid ually
ific ant
ĠS ho
C NN
Ġinf initely
with in
| $.
an ions
ĠVal ent
Ġremember ed
k ip
Î ¼
Ġf ame
sp acing
Ġsp ir
Ġpsy chiat
bal ance
om ical
sup ers
Ġsem igroup
R ate
Ġ ibn
ĠH aven
Ġte eth
cont rib
ur c
Ġspat ially
part icular
Ġliter ally
en es
ĠP ink
I AL
arm ac
Ġd ans
Ġcomp rised
Ġmer gers
ĠC os
Ġsymbol ic
id y
D ictionary
Ġn ut
d h
pt s
Ġpolar ized
S erb
Ġm ath
21 1
l ic
duct ive
Ġlin king
Ġcur sor
ĠK urt
ĠR as
ĠCE LL
ĠCurrent ly
ĠAN Y
Ġmagnet ization
ĠT iger
ĠP owell
ĠEp isode
Ġb ol
Ġst er
Ġp ink
ĠC V
ĠCh oice
inher it
p kg
Ġconst rain
Ġoptim ize
Ġrevolution ary
gener ation
Ġvolunte er
dat abase
m pi
Ġens uring
Ġinnov ative
Ġvo iced
Ġ$ ^
Ġm a
oca ust
Ġoutper forms
20 3
Ġcomp lementary
app endix
Ġview ing
que z
le ys
ad j
ĠD eg
Ġreson ances
ab ol
ep ler
'' '
Ġp uzz
Ġbe ams
ĠN ATO
Ġcapt ures
ĠG ol
ins ki
ff ff
Ġa est
ĠMethod s
st en
Ġrefer endum
Ġpredict s
c ats
Ġsp acing
Ã¨ s
pre p
ĠGu ards
ĠMon ey
ĠK lein
ov i
ole v
Ġins ights
sing ular
ĠCan terbury
ĠArm strong
ĠMar in
v dash
() ))
Ġcre ator
rest rict
Ġexclud e
ĠOut put
' ];
ob tained
Ġpro to
W ood
l os
Ġs ql
ĠS hen
ĠC yr
ac iÃ³n
Ġdiscrep ancy
L ibrary
18 5
Ġmyth ology
Ġan ch
ĠMet al
Ġfermion ic
Ġp icks
enn ium
ĠAb b
Ġprison er
Ġsustain able
ĠN ormal
ĠCol in
ĠL t
Ġinvestig ating
ĠNad u
ass ign
M G
Ġt ent
am oto
al tern
b rane
ĠK om
Fe atures
Ġtrav elling
ĠX X
ĠSch r
eyn man
ess es
IN FO
u ine
NavBar Font
ĠF at
}: \
Ġexpl oring
Ġra id
Ġgra ins
t abl
ĠR ican
Ġbeat en
ĠH ale
Ġadminist rator
H ouse
ĠJ ob
n ut
che z
ĠPhys ical
Q CD
y i
ĠBl ake
Ġcap ita
Ġtrunc ated
C ath
B order
arri or
Ġon set
ce ased
ĠCont est
a uc
Ġs id
sc apes
ell ation
Ġreb ellion
Ġra bb
Ġshell s
ott i
Ġfunction ality
ĠG mina
ĠR ut
Ġtr ig
hard t
Ġsur pass
M unicip
Ġpurs ued
iling ual
Ġrecon c
ĠC av
, $$
observ ed
s al
Ġk inemat
mod ern
Ġsurn ames
» ¿
Ġcan on
Î ·
Ġimprison ment
zh ang
ĠCzech oslov
ĠG ent
Ġinter active
he imer
ac ular
pr inc
ĠPublic ations
Ġd ancer
Ġadv ances
ag le
al most
kins on
cond itions
Ġ} (
Ġem itted
Ġins u
Ġfre estyle
ĠK err
Ġm ature
od ia
A K
Hung arian
Ġdifferent iable
ĠFrank furt
at able
let te
dat aset
ge ometry
ther mal
Requ ired
typen ame
ist le
Ġdial og
D ATA
Bel g
L es
part ition
var iance
Ġfraction s
im mer
V ec
ĠI BM
ĠM ead
% ),
Ġcarri ers
U ntil
ĠEr n
Ch ief
ĠH off
set ting
un al
L ag
ug a
per formance
CT YPE
18 33
R G
ĠJ up
Pro to
Ġsp anned
ĠR ib
S om
Ġprob abilistic
ĠCl aim
Ġst olen
fl ush
Ġle ak
necess ary
Nov els
s ync
mark et
Ġspl its
}), \
le af
Ġst eal
P ier
im i
O rd
l attice
ĠH od
g overnment
ï »¿
ĠB row
ĠHend erson
. \,
ĠAlban ia
Ġas ymmetric
f lex
Ġmod ulo
run ner
Ġa erial
). \
no align
Ġsculpt ures
ĠMem ory
ographer s
Ġst y
)} ]
0000 0000
Ġstreng ths
Ã± o
c ass
ĠC lient
rac ing
App endix
Ġiter ative
ĠLud wig
ĠA V
Ġfre ight
ĠT ry
rit z
um ably
ĠLin ux
a ft
prop ag
ĠSpe aker
ĠM ales
ce ut
Ġle ver
ĠFern ando
; ">
Ġin scription
Ðµ ÑĢ
Ġvacc ine
ĠG ael
Ġdiplom at
ĠT ru
face book
Ġcon qu
oy a
ĠR S
ph ant
comm ons
ack ed
ĠTr in
ĠGer ald
Ġrend ering
Ġren owned
Ġperform ers
Ġfib ers
Ã© m
Ġret iring
establ ished
Ġh alt
cer to
Ġident ifies
Ġdomin ate
isen berg
Ġf ung
log in
rypt ed
Ġcomp ress
inc ar
Ġkill s
ĠF OR
Ġcogn itive
ĠF BI
B ean
Ġt ale
ad al
ĠPol l
Ġassert That
Ġb acteria
B asketball
... </
Ġk inematic
Ġrele asing
ĠFif th
Ġm s
Û Į
Ġisol ation
ĠLux embourg
Ġdis orders
Ġover look
pl ain
_{\ {
VAL ID
You ng
Ġprocess or
ab stract
ĠBel grade
. }}
Ġopt s
Ġlimit ation
ĠEv angel
Ġlens ing
amb a
aid en
ĠB anks
Ġby pass
F ocus
ĠW ool
ĠP iano
Ġmys elf
Ġm oon
Vis ual
}$ \\
ĠC ann
/ _
Ġrel ates
side bar
ur an
17 4
Ġbe ars
0 10
Ġnom inee
ĠExped ition
ĠSch warz
È Ľ
Ġamb ient
Ġharm ony
ĠW ak
Ġtransport ed
seud o
ĠBrad ley
A U
Ġdiscontin ued
otter y
ĠZ ag
Ġev olve
A gg
W ord
ĠA ri
col m
}= -\
Ġpredict ive
M iddle
Ġunder went
bas is
Ġtow ers
s an
Ġdiagn osis
^* $.
ogene ity
Ġc ube
Ġsuff ix
enz ie
Ġdies el
F ramework
ĠCh ase
op p
Ġprior i
Ġcumul ative
" ],
in ia
Ġp unct
il is
Ġleg isl
arma ceut
,\,\ ,\,\
ĠGl obe
st eps
Ġche st
ĠIn iti
Un ion
rel ativistic
ĠM ail
ĠL omb
ĠD ifferent
Ġpuls es
Ġdist ortion
Ġem otion
ĠT D
w ere
ĠCath olics
am ount
Ġless ons
th rift
Ġl ux
C art
ĠA part
ĠH ull
ĠHe at
18 31
abl o
Per formance
ĠG overn
Ġle pt
C andid
B G
Ġr ally
Ġg est
coupl ing
F ire
Jo in
ant le
Ġconsult ant
Ġlob by
Ġconnect ivity
is le
te ch
N i
tain ers
Ġ' \
g ender
v ary
label s
Ã¤ r
Ġmicrosc opic
Al t
ĠF act
}\ |_{
Id s
c atch
Ġquad rup
_ );
ĠW arriors
Ġsubstr ate
* {\
E SS
ĠK ab
ĠV ision
Ġaccompany ing
ĠW ick
Ġstat istic
Ġcr ashed
Ġut ter
Ġdub bed
000 1
ĠPlay Station
ĠE val
AS H
)\ |_{
ĠWork ing
ĠGu itar
ĠBened ict
E c
Z ero
Ġd amping
Ġman ually
ĠN intendo
23 5
' })
k ok
Ġp ace
Ġeduc ator
ĠB il
ĠB ran
math rel
Ġb rew
Ġtyp ename
cont ents
Ġsub stitution
ĠTan z
ĠG Hz
Ġsimultane ous
ĠNik ol
6 50
C irc
L ear
ps y
im plies
sm ith
ĠT ennis
Ġs ubl
) ]{
inter val
Ġemploy ing
_+ $
ĠP ars
per m
other wise
Ġadv isor
C hen
Argument Exception
Ġab st
ram id
Ġel imination
Ġspread ing
ĠV III
Ġdiscuss ing
p icker
ov al
Ġb out
Ġcan vas
Ġgu ided
am med
Ġen orm
ĠG auss
Ġbound ing
R P
stad t
5 50
Ġor al
roll ment
ĠI de
ĠQu art
å Ĳ
ĠI ter
s amples
ĠE k
ĠL eop
Ġautom ated
Ġnation ally
ĠGeorg ian
ĠL ar
Ġbeet le
00 8
Ġbin aries
ĠLes lie
Ġbar rel
un ar
amm ad
Ġpregn ant
m ouse
Bur ials
Ġdisappe ared
any on
whe el
sp ot
Ġmark ing
associ ated
P DF
ed i
ut z
Ġdiff use
S erv
Ġdev ast
high light
ĠH ave
Ġpray er
rang er
{ #
ĠOption al
A ST
Ġbre ath
g ins
ĠESP N
ic ism
ĠN ames
Ġcomb ines
Sp ring
ourn ey
ĠYan kees
if ndef
oc cup
Ġmem ories
g lyph
Ġmorph isms
Ġlater al
ĠGi ovanni
m agnetic
ĠEn c
ĠM BA
ĠGen eva
position s
2 17
ĠAh mad
ĠGP U
Ġthir teen
ĠE RA
Ġcur riculum
Ġsub stance
Ġref ined
Ġinv ented
ĠC e
row ing
hook rightarrow
ĠĠĠĠĠĠĠĠĠĠĠĠĠĠĠĠĠĠĠĠĠĠĠĠĠĠĠĠĠĠĠĠ ĠĠĠĠĠĠĠĠĠĠĠĠĠĠĠ
Z one
ĠB order
Ġjournal ism
ĠE ND
d B
ĠM uk
b log
Ġc uisine
ĠX I
Ġhop ed
Point s
oc aml
d eb
rac es
ĠC riminal
18 15
Dist rict
ĠLuc y
H u
Ġf Ã¼r
Ġsax ophone
Ġsla very
g ement
m ons
in ks
Ġon wards
ĠGib son
( --
IO Exception
L ists
ĠEngine er
ĠS ons
ĠB j
ĠEp iscopal
Ġmus cle
100 00
n ative
ĠT at
Ð¾Ð »
com pute
roll ers
att ed
q a
H ot
ĠField s
F G
pos able
ĠCr us
ĠBund es
I ce
Ġs aving
ill ation
oy e
Phys Rev
ĠKing ston
ĠG rad
Red uce
Ġdisc overs
dest roy
Ġnob le
em er
in valid
Ġanaly zing
charg ed
Ð ³
Ġcont ours
ograph ies
ĠLuther an
ĠP om
ex isting
ĠP Ã©
Ġmark er
cont rolled
ĠB ound
Man agement
Ġmot if
st re
ĠGu atem
ĠLiber ation
ĠChel sea
n ick
Ġd ressed
Ġmin eral
Ġsyn tax
ĠR i
Ġinitial ization
Ġneighborhood s
Ġapproach ing
ĠRoberts on
16 00
al one
Ġsat uration
ĠEmm y
ĠHe ath
Ġrel atives
ĠLett ers
ĠCommunic ation
ĠInsp ector
Ġtack les
Ġm il
Ġd ra
Ġprest igious
24 5
b ranch
Ch apter
ĠStr ateg
Ġprot agonist
atal og
Ġsett le
ab ases
ĠR GB
omet own
G erm
40 4
ĠLO G
W hy
amb o
Nor wegian
ĠH ey
Ġfluct uation
H aving
ĠWy oming
Ġk ings
Ġbur ial
p ent
t ick
Ġup graded
-> ]
approxim ation
ĠM iles
ĠBer ry
Ġe gg
" },
Ġmur ders
DO CTYPE
E th
Ġserv ers
en za
Ġra infall
as se
ĠB O
AN CE
Ġcomp atibility
ĠF emale
scal ing
Ġexceed s
ar ag
ĠOr lando
ĠTh ings
Ġ@ "
ĠR ush
ĠW IT
Ġener get
Ġsumm ation
ĠR achel
E mail
ĠW end
Ġrock et
Ġhe ir
ĠSw ift
Ġshort est
ĠAdvent ures
anc ies
ĠBurn s
exp ansion
ĠPop ular
Ġax ial
E t
Ġgather ing
ĠAb original
al an
ĠHur ricane
li o
aw i
Ġ$( {\
ounc ing
Ġnation wide
m embers
print ln
Ġlect ures
land ers
Ġrap per
ers en
ĠInd igenous
ĠPh oto
ĠInter ior
30 4
cy l
Ġl ig
Ġgener als
Ġcommun icate
ĠC G
ĠZ ero
Ġatt r
ut orial
ier i
ĠSh ir
p olit
app ings
B and
V ictor
ĠFl ag
Ã °
con c
}: =\
Ġbank ing
Port ug
M ix
t bl
ĠSt rat
Ġdesign ing
s ocket
or p
check box
ĠRol ling
Ġpresent er
Ġtheorem s
MO DE
Ġspect roscopy
Ġcapt uring
ĠSher iff
Ġterror ist
v b
Ä Ľ
Ġinter faces
ul ators
ĠTy ler
^* $,
Ġsix teen
ce iver
ĠB ec
comb ination
quest ion
B inary
m icro
be at
Rem ark
Ġback up
Ġdevelop s
oltz mann
ide a
multip ut
ĠAlban ian
Aud io
Ġcl ay
ĠF an
18 28
T s
rid or
Ġinitial ize
^+ (
check mark
Ġfix ing
ĠProgram me
B atch
Ġe cosystem
Ġbos onic
ĠEu rop
Ġthe or
ly mouth
ĠR ac
ĠF P
ĠIl legal
ĠSur rey
{ -\
ĠB oeing
Ġcor poration
sl ide
1 200
Ġbary on
v p
' _{\
ag ne
ĠG em
Ġsp ite
C U
Ġast roph
St atic
}}{ {\
L IN
Ġtorn ado
g overnor
18 25
ĠB ot
17 8
Ġrevers ed
w arning
second ary
ĠL ik
Ġle ase
ĠD um
99 9
ĠSI ZE
Ġre written
Sp ect
F ace
Ġa perture
ĠL av
Ġhead quarter
ID E
Ġsee ks
Ġpoll ution
ĠBry an
Ġimplement ations
ĠL LC
C LASS
Ġviol ations
Ġt ilt
Ġopin ions
Ġdoct rine
ĠBe ing
å Ī
ĠCom par
22 2
asc ar
ĠR ica
Ġdo zen
Str ategy
ĠD S
Rec ent
Ġreli ability
ĠC ancer
Ġj ack
} ''
im edia
ĠH es
Ġpre y
16 4
ĠAct ive
Ġend ings
esc u
ĠStaff ord
Ġre dd
00 6
Art icles
Ġexplain ing
Ġfa una
ĠNew port
Ġmorph ology
Ġconvent ions
s it
sp here
App end
3 75
R h
Ġtro ubl
ĠDev il
ĠD oll
Ġs iblings
Ġshould er
18 29
Ġkn ot
ĠT rent
Ġin ad
ĠT itle
A mer
ĠL odge
Con structor
Ġpass ive
ys on
Ġin cent
g al
Ġf reed
ĠS isters
Ġdepos its
ĠR iv
Ġdraw ings
> "
Ġhold er
Ġre bounds
column s
Ġtri ps
Ġacceler ated
Sp in
Dr iver
K it
ĠK iss
Ġsent iment
g ary
s elling
Ġt ile
erm ark
US ER
å Ń
iss et
Ġelabor ate
m ixed
ĠI sh
Ġsail ing
ĠDir ichlet
ĠP orts
ĠEug ene
Ġmet als
Ġpra ise
ĠEthiop ia
F n
Ġland mark
Ġch ip
V an
Ġpl ural
$ ^\
sign al
R am
ĠMax im
ĠOs lo
ĠM emphis
ian i
00 7
ad dition
j j
18 24
Ġwh it
ell ite
K B
ĠSer ie
Ġf riction
Ġcongress ional
ĠN othing
Ġserv ant
F ORM
refer red
Ġsaf ely
ĠCur tis
ĠDisc overy
Ġcell ular
comp ile
Ġm ad
Ġliter al
Ðµ ÑĤ
ĠHard y
Ġwat ched
U pon
ĠH ook
Con tact
\% .
design ated
- }
Ġmod ulus
Ġtens ors
ĠLind a
Ġmaxim ize
ĠWag ner
.. ."
r ina
Ġassemb led
y g
Ï ħ
d w
Ġlift ed
Ġinsu fficient
ĠPop ulation
Treat ies
hed ron
ĠCh ad
Ġd Ã©
ĠWrit ers
ĠCar roll
Al low
M ut
ust ain
ĠEston ia
Ġint ra
Ġanalog y
ĠFight ing
v ac
OR Y
Ġ" '
Map per
is Empty
Ġflo oding
d rag
){ $\
B rien
ĠS event
=\ !
ĠSup p
g ang
Ġpar abolic
to o
ĠInt roduction
ip zig
Ġback ed
Ġhon ored
Ġnucle on
Ġsupers ymmetry
18 14
cf c
on ey
Ġcor ollary
ĠFilip ino
ĠM otion
anc a
Ġtransmit ter
un ches
Âł Âł
Ġprevent ing
bre ve
Ġal umin
ph rase
taint y
Ġwrest ler
New s
vari ables
ic ode
Ġn od
uk u
Ġcor pus
resp ons
Ġex ile
Ġdes irable
Ġcle ared
ĠN AV
ĠTh an
ric ia
Ġdem o
c amp
as aki
Ġr h
Ġs b
ip eg
ĠAmer icas
|\ ,
s afe
Input Stream
v anishing
Ġd ish
ĠA ircraft
Ġaccording ly
Serial izer
over rightarrow
lass ical
C W
Ġimport ed
Ġspace craft
ch urch
St an
Ġ( +
iv ially
ĠI stanbul
Ġ" .
ĠBelf ast
Ġhard er
Ġdec oupl
Ġdel ays
Ġaggreg ation
ĠR egin
ĠO N
ĠÐ ¸
Ġdiscipl ine
s ided
mb f
ĠJenn ifer
Ġro uting
Valid ation
Ġpro sper
ĠSh ore
Ġsur render
$\ %
f u
r ar
ĠMod els
p aren
ta ine
Fore ign
oot s
Ġabbre vi
S hips
Ġan satz
ĠCom plete
ĠSh ould
ĠPer iod
Ġfour teen
ĠAchiev ement
T urn
w ould
ĠFer dinand
ew ard
BP ACK
b et
ĠCom pton
ĠD j
ĠH ab
ĠL enn
******************************** ********************************
Ġcombin atorial
Ġreb els
j ee
T a
20 6
Ġover flow
cess ion
ĠC IA
> )
ĠI g
Ġreflect ing
Ġadi abatic
Ġbu f
ĠSh i
osp ace
ĠSt yle
Ġnon negative
Ġmy sterious
Ġwrest lers
Ġb rackets
Ġfavour ite
Ġhon ey
Ġfilter ed
Ġte a
Ġany where
Ġcongreg ation
Object s
AS K
Ġhal os
Ġsophistic ated
Ġinter ven
Ġtri o
] ,\
ĠBas in
Fellow s
'] ['
Ġell ip
Ġl attices
im m
ĠCon text
ĠRe in
C u
M aterial
ros se
v ity
if ax
Econom y
triang leq
D G
Ġimp ression
ĠReg ulations
on n
Ġhypot heses
add ed
33 3
ord e
Ġult imate
se gment
Ġemer gence
ĠEm ily
L os
ard e
sh own
iev e
Ġpur ple
Ġfarm s
ĠC ome
Ġse ized
ĠJ i
ĠV at
Ph ot
Ġrg ba
og on
}} |
he y
ĠA way
ĠBud apest
ak o
Sc ience
ĠT ales
or ange
Ġh align
Ñģ Ðº
est e
Ġdi et
ĠNot re
ĠPresbyter ian
Ġs its
z ip
An aly
ĠLy on
ĠBuild er
Ġmanuscript s
v iv
Ġs ink
mathb in
ident ified
Ġgoal keeper
}\ {
Ġmin er
il ion
)\, ,
Up per
Ġnot ions
ĠConstant in
ract ing
ĠPro gress
ogn ition
Ġgu y
: `
}} %
Ġdiam ond
Ġanisot ropic
d ia
Stud ent
J er
ĠCh in
Ã¡ r
IF AR
ĠCont ent
V irtual
I sl
n r
ĠEd monton
Ġr ises
Ġquant ify
ĠQ ing
Ġpup ils
" ].
Ġas h
omorphism s
ian e
ne apolis
rib le
Us age
Ġconcent rations
ĠSm art
ĠSlov akia
med ium
t ol
Ġcal ib
Ġincl ination
ir ate
ta iled
Ag ain
I J
ĠSlov enia
Lo op
Ġpro c
small matrix
ul in
Ġup grade
Ġscreen writer
) ||
8 50
ĠW ol
ĠG ross
Ġr amp
)}\ \
ĠAlb any
$ _\
ĠAcadem ic
16 2
Ġat tained
Ġag gressive
ĠPubl ished
L ib
ĠK ad
CD M
Ġhelic opter
G ate
wh ose
Ġmer c
Ñ Ĩ
17 6
Ġter rain
Ġsort ed
ĠAntar ctic
m ust
Ġmon omial
ubb ard
Ġdec oding
Ġbusiness people
Ġthe ology
Ġ\ "
p ri
Ġpar as
Ġem ig
Ġbas ically
ĠP irates
Ġb icy
Ġst ones
Ġtend ency
Ġstation ed
ĠF raser
ĠGl enn
c ot
ĠS K
S K
^* )
ĠC apt
ĠAd rian
Ġcosm ology
17 2
yn chron
Ġinf in
18 10
Ġind ividually
D rop
Ġinter im
Ġc rim
Ġyield ing
ĠL ect
Ġminim ization
/ {\
Ġstri kes
ĠContin ental
gener ic
ĠElli ott
ĠM ink
ĠM ob
ĠH ern
ĠSu ccess
ĠB ever
In ner
ĠH els
ĠCal gary
w ik
Ġacknowled ges
an imation
Ġmed ic
ĠTri ple
ne um
Ġcoron avirus
B attle
Q t
ĠEx per
prob ability
ĠInter state
Ġout going
Ġflo ors
am ar
ĠC ell
Ġanaly tically
ĠBir th
h w
ĠD ale
Ġdomin ates
Ġpriv ately
\ ).
ĠK aren
Ġen zyme
Ġ! !
Ad minist
perturb ative
ĠD und
ĠML B
! ,
With in
sw orth
Ġmission ary
STR ING
J on
ĠColon ial
ĠBan ach
Ġremov es
ĠN otes
ĠW ait
sur ance
ĠK ang
Ġ ...,
at aka
vent ions
Ġret rieved
prec ision
Ġrot ate
Ġingred ients
Ġd ying
ĠM ale
ĠInd ividual
uff le
Ġhuman ity
Ġoscill ator
ĠC N
ĠTr uth
Ġcontract ed
ĠWes ley
Ġindex ed
N eg
w arn
Ġmand atory
| ,
Ġunder taken
section s
ĠA FC
Ġb eneath
ĠNetwork s
al go
ĠCorn ell
m ud
ĠBarn es
Ġfeed ing
r ud
M ount
Prim ary
}) }{\
A W
J ones
h pp
ĠCard iff
y on
m v
Ġiniti atives
Ġsol v
Ġaddress ing
Ġannih ilation
Ġm asks
ĠTasman ia
Ġc ock
sh an
p ages
Ġf ires
Ġen force
ĠChe ss
ĠF o
{- .
Ġch orus
histor ic
ho ff
ĠBrad ford
. }.
Ġ{ (
Ġf o
k le
ĠId ent
WE BPACK
30 1
ĠH i
Town s
ĠK ids
ĠMah arashtra
Ġde alt
Cont ents
ĠS Ã©
get Element
Group Name
neut ral
ri ent
yl an
Ġaugment ed
c ool
ro ught
Ġcon ce
Histor ic
i ary
ĠFran c
17 75
Ġexp ense
ĠS ever
End emic
d iam
ag ination
k pc
Ġs ad
ĠCarol ine
Ġcryst all
Ġcl one
ĠBur ton
Ġco q
T aking
Ġgra phe
P rem
Seg ment
Ġsing let
Ġsupers ymmetric
Ġt ar
Ap pro
ill iant
Ġ_ ,
ad ors
Ġcont amination
Ġnever theless
M ouse
ed uc
K er
18 26
Ġexpon ents
Ġsur jective
Ġdet erior
Ġs addle
Comp et
) }}{
Ġc rossover
ĠN urs
G W
ĠN uclear
Ġr ivals
Ġparticip ant
ir ie
air y
Ġw are
ag ain
Ġp ipe
ĠE ye
ĠLyn n
ĠLet ter
LO C
ĠBar b
ura i
S plit
sh al
Ġsw ord
ĠStart ing
Ph ase
ĠRem ove
pl oma
li u
CO M
Ġwe igh
D U
Ġcycl ing
au f
Ġless er
G od
ĠMar ÃŃa
Ġperm issions
pos er
ĠĠĠĠĠĠĠĠĠĠĠĠĠĠĠĠĠĠĠĠĠĠĠĠĠĠĠĠĠĠĠĠ ĠĠ
ym ph
ĠH R
Ġcon spiracy
ĠMor rison
ĠPal m
is ec
ff f
ĠBas il
ĠSant os
ĠĠĠĠ čĊ
Ġpod cast
ch at
ĠP sy
2 12
F older
w u
ign er
loy ment
Ġv ault
AR CH
ĠF antasy
fe at
le en
ĠCh uck
Ġliter acy
Ġdemand ing
ĠR ules
Ad min
Ġgram mar
s il
ĠDE FAULT
ĠI L
Ġlat ency
Ġh ometown
hen ce
Orig in
s phinx
ĠG rim
ĠE lement
ra f
pre vious
the m
ĠC ategory
ĠT roy
ount ers
Ġshe ep
Ġaltern ating
power ed
cest ershire
nt hesis
Ġv oyage
Ġplate au
Ġra pe
it Ã©
Ġs ulf
Ġlock ed
ĠGra duate
ĠAud io
ĠAssoci ate
Ġo wing
Ã§ Ã£o
Ġmathematic ian
Ã¡nd ez
cl ub
Ġe leg
UT C
Ġsubdiv ision
r vert
Ex perimental
rif ice
to ok
27 5
ĠM ing
G i
Ġprompt ed
spect ral
ut i
Ġpost pon
ĠUSS R
Ġbreak down
M useum
ð Ł
17 3
Ġconcept ual
Ġre he
Ġhad ronic
Ġrev ision
}^ -
ĠP u
ĠPubl ishers
Ġpres idency
Ġfis cal
ĠPl aza
Ġviol ated
Th ough
an mar
Ġdivor ced
Ġdec ent
Inst all
p it
Ġsimplic ial
as ympt
Ġbe er
ĠMc Donald
ĠA FL
D eb
Ġfore ground
Ġs ocket
ĠComb at
ant is
Ġhom osex
y cle
ĠU z
ĠA U
iers hip
Ġemer ge
Ġmon uments
Ġrom ance
ĠExcell ence
ĠD ew
Ġdi ocese
cd n
atern ity
ip ur
ĠB CE
ĠSy mbol
ĠE V
Ġpro gen
ĠSe oul
C ounter
ĠLapl acian
gener ate
__ _
Ġterrit orial
Trans ition
ĠBed ford
ĠN umer
Ġref inement
ĠPro perties
LE D
in verse
ĠE isen
ĠMar l
ĠFranÃ§ ois
ps line
Ġelectron ics
Ġdepict ing
z on
ĠSch midt
Ġâ ĪĴ
2 15
ĠF ay
(" /
Ġe ating
ĠG M
ĠRes ult
ĠHug o
23 4
Ġcl othes
ĠHead quarters
18 4
ĠS ed
ol an
B ounds
Ġsepar able
found land
rypt o
H ook
j d
p ars
Ġc ra
Ġlocal ities
Ġpost hum
) )}
Ġtrib al
W he
ĠC anyon
;\;\ ;\;\
C ultural
Ġplanet ary
ĠAn at
Start ing
ĠAgric ultural
rac use
ĠK end
in ject
ĠWe ather
res on
Ã§ a
st retch
Ġline up
ph on
ĠK w
16 1
), $
Ġjust ified
ĠEnter prise
Ġper ipher
ind ed
utt le
pl oad
ĠIn side
Part ition
Ġlett ing
Ġf ru
." ""
ĠGib bs
m eter
ĠK ot
ĠD NN
ĠCh al
in z
ik k
Ġen listed
Ġst aged
t ip
ĠK aw
x html
ĠEd gar
Ù Ī
Ġwid ths
Ġperform er
sh ots
Ġrecept or
ĠD ou
17 7
' }{
P b
f orth
l is
im ming
Ġpro ud
Ġcat aly
Ġlect urer
Ġp ent
Ġreg ulatory
.\ ,\
om al
L u
Ġpurs uit
E mb
ĠB oh
ĠJer emy
Ġto y
path s
E s
y c
V S
Ġcab in
= |
Ġn ights
sq cup
Valid ator
r p
en ic
ĠI X
ĠV iv
Ġpre t
ĠPl at
ĠB alk
ĠAnd rÃ©
Ġestim ators
ĠInter view
ĠMidd les
3 65
ĠL ep
trans action
ĠL az
emb les
Ġswim mers
Ġinteg rity
on ormal
ĠKazakh stan
ab is
The ir
18 21
Ġc otton
Ġimp lying
Ġfar mer
Ġutil izing
ĠC avalry
ĠCl ose
Ġdiagn ostic
Î º
Rep resent
Ġ< -
r ific
deg enerate
ĠG O
ĠAL IGN
ĠI z
op rano
ĠFer gus
Ġsp ans
ices ter
L F
Ġinhab ited
ĠRem ix
IMPORT ED
u ons
um en
J P
iber n
inst on
ir cl
20 9
ĠO ly
ĠUtt ar
K M
Ġant iqu
Ġord ained
od ium
ĠM oses
o S
Ġl ots
und ers
min imum
conver gence
# {
p ure
le ad
pl anes
S ar
18 01
gener ator
Ġw ishes
En v
Group s
Ġbad ly
Ġn ose
ĠQu antum
Ġbipart ite
ĠU nd
Ġtre as
ON G
atri ates
ĠU til
om ers
ĠAr ctic
K ar
t el
ĠSil va
ĠEll en
ĠH ousing
list ing
head ed
Ġwitness es
Ġf idelity
Ġaccept s
rob ust
Ġsub mission
sw arm
ĠN atal
att en
eg ie
ps frag
cles iast
ĠJane iro
R PC
Ġexpert ise
ĠNapole on
et z
ĠMar ion
select or
linec ite
ĠAlexand ria
en ot
Ġdegener acy
Ġwild life
th ood
Eff ect
get Value
ĠAg ent
ĠÐ ½
oub les
Ġig et
Ġprefer ences
Ġn ested
iel sen
ĠC B
Ġbankrupt cy
arv ae
Ġaut umn
Ġavoid ing
CO MM
Ø ¯
Ġsol ver
Ã ®
ar re
Ġp ounds
3 40
ĠPresident ial
Ġfail ures
Count ry
ĠSt okes
Ġop posing
Ġ\ ,\,
Ġinitial ized
Mod els
\% )
Ġlo ose
Ġseem ingly
Que en
DE F
ĠLiter ary
Ġreven ge
Ġthought s
ad h
ĠO P
ĠU FC
Ġsyn c
ĠWinds or
Ġsac red
Ep isode
W ell
] =\
ĠHol ocaust
Play ing
Ġpec uli
k r
Ġreason ably
et les
Ġafter math
Ġgen res
ĠWal sh
Ġassign ments
ĉĉĉĉ Ċ
ĠDirect ors
ĠCre ative
Ġsusp ect
ĠAber de
u ating
Ġarg uing
Ġresemb les
ĠH iro
Sw iss
... ]
Ġtransl ator
ĠW R
Sc hed
Ð° Ð½
f ootball
ĠD ong
Ġb le
ĠB E
Ġsens ing
a ine
Ġparad igm
Ġl as
ĠCom mercial
)} +
Ġoccas ional
read er
}{* }{\
I ss
b ol
}^{ -\
Ġadvert is
ĠK yle
big cap
Ġm d
oid es
ĠChem istry
(' .
Ġlegend ary
ag ascar
ic her
g ae
Ġm arri
id ian
cl one
UN D
3 80
ur ring
qu bit
Ġhur ricane
Ġel ong
Ġbul let
ĠMaced onia
Ġ$ +
ĠC W
ĠEv olution
ĠL ey
if a
m us
if les
Ġall Classes
ĠSac ram
ĠM N
3 25
Ġl ip
18 18
em i
ex ist
ens itive
ĠOther s
Ġentang led
ĠMy anmar
Ġrob ots
Ġproceed ed
Ġcomp ressed
Ġenter prise
p ole
Ġhar ass
m itting
ed ar
Ġru ins
ĠL java
Ġrest art
EL D
Ġf mt
ĠallClasses Link
t ens
Ġprohib ited
Ġwithd rawn
bi ased
ĠRic ci
p id
ĠD ow
Ġmin us
ĠMic he
Turk ish
B inding
Ġmod al
ĠChief s
Ġclass ify
Ch ris
17 90
ĠSc ript
}) \\
Ġtorped o
Ġp aired
ep pe
tabular newline
ok i
j ax
cal c
Rem ote
Ġprot ecting
ĠRab bi
l av
Acknowled gements
ink i
construct or
ract ive
ĠR az
18 22
4 80
A rab
NS String
ĠSab ha
n it
Ġs ew
ĠCoal ition
ĠCh ancellor
Ġroll ing
ap o
{ }{
Ġforb idden
Ġm ism
ĠLand au
Ġrank ings
mod es
ĠH MS
opl an
on linecite
ĠTel escope
ĠStef an
M arc
Ġinters ect
en ko
ĠP lymouth
aren cy
{ +
Ġess ays
ĠSol id
Ġthread s
Ġox id
The me
verb atim
Ã© l
Ġenc ounters
Ġaccept ing
ĠAssoci ated
ĠG A
ĠTh anks
Ġwork shop
con sole
Ġcomputation ally
ĠJul ius
Ġpresc ribed
Columb ia
po inter
t un
Ġtimes cale
ĠV ij
3 45
Ġtreat ments
ĠR out
ĠM ell
che t
pm od
Ġcust ody
ĠWhe ther
ĠS end
cp pm
Ġgraphe ne
st rict
Ġsched uling
ĠBav aria
ak k
Sh ould
? )
communic ations
Ġtra ff
Ph one
as an
n of
ĠR oth
Ġex empl
ĠMerc ury
Ġl ighter
ĠLanc aster
Ġcha otic
cppm ud
Ġthe olog
Ġp ig
ia e
ĠTh read
ĠD w
Ġhad ron
Ġscript s
Z hang
| <
Ġw reck
Ġb ore
icon duct
Ġsc ar
Ġd ock
ĠD epend
Ġflex ibility
Depend ency
Ġg amb
r ors
Ġdram atically
=\ ,
An notation
Ġpe ers
Pac ific
ĠD iana
Con sumer
Ġorigin ating
ĠY emen
ĠNap les
Ġretriev al
^ -\
D ynamic
cl air
rew s
ĠĠĠĠĠĠĠĠ ĠĠĊ
Ġleg ally
ĠQu ery
Ġprem ises
Ġaz imuth
N Y
Ġshe af
ĠLithuan ian
Ġsuperconduct ing
on st
const ruction
Ġsem ic
Ġdiagn osed
er cis
ort e
Ġdef initely
ĠMil ton
Ġin sects
ben ius
^ ^
Res p
do i
ĠR G
ash ing
ĠGriff ith
ĠCour se
ain ter
f box
] &
Ġexp atriates
ĠBel le
Ġfurn iture
ĠPrest on
id an
Ġv it
ĠSub sequently
ĠB eg
ĠRec ording
ĠBul ld
d ad
Ġkill er
Ġb rane
Ġgirl friend
l ated
Ġpack ets
ta ker
Ġhypers ur
T i
up ta
20 7
50 9
Ġc ro
Ġ> >>
Ġrespons ibilities
clip se
Ġ" %
Ġinc red
S outhern
ĠP erm
ĠMar cel
script s
Ġfound ations
)$ :
Ġwork shops
Ġheadquarter ed
raph ic
}=\ {
'] );
on el
Test Case
17 1
Ġdoctor ate
ik er
S ql
Ġoverl apping
Ġb apt
Ġcondem ned
ĠA bs
di ocese
f mt
itt ers
ĠS it
V O
t uning
ĠCraw ford
Ġtest imony
Ġ' ';
Ġdrop ping
ĠImp act
ak is
Ġtrac ed
K en
y x
Ġpl aint
Copy right
18 2
ourn als
ĠS equ
âĢĻ ,
ĠMar tha
eqn o
un known
Ġdiv iding
ĠRec ently
Ġlegit imate
lin ks
os ity
oc es
Fail ure
ĠV ale
Ġh o
Ġinters ections
Ġrecurs ive
top ic
Ġadvers ary
Ġb esides
A h
23 1
Ġmut ation
ĠInt el
ĠP ine
ĠD ud
m ile
mar ines
ĠChile an
/ "
ĠC od
Ġan ger
rid es
Ġvirt ue
ĠD L
gra ve
Ġab ortion
r ules
Comb ining
ĠJ S
)= -
Cl imate
ĠBul let
Ġco ordination
ing ale
Argent ine
Enc oding
Ġare n
Ġr ulers
is odes
ĠB rent
ĠE R
)}{ (
che ss
Ġsw ing
F a
ĠJo el
ist o
kw args
aff e
Ġkit chen
M X
Ġp iv
ba um
Dec laration
Ġtermin ated
ĠU t
Ġ{ },
Ġstep ped
ĠRaid ers
Ġcomm ittees
ĠMc N
cover ed
b ons
c ence
Ġb ills
ighth ouse
ĠRoman ized
Th row
ĠHar bour
ĠK ann
allow ed
log y
f ake
ĠNet flix
Ġconf inement
Ġs outheastern
Ġw ound
Ġindic ation
ĠChe ng
ĠRh ine
D id
ĠP ione
Ġam id
18 13
Arg uments
ĠH ank
Ġl ane
W ild
Ġg ods
ric ing
Run ner
Ġsup porter
Ġequ ity
n othing
à¤ ¾
Ġfemin ist
' ^
r ases
T I
Ġdis advant
\ ),
ĠTh ir
Null able
ORD ER
ou rable
ĠF O
Ġbenef icial
ĠSerge ant
Ġrelig ions
ĠF eb
C orn
Ġfin ishes
Ġge ographical
Ġveget ation
Ġadv ised
Ġro ok
ĠAdvent ure
Ġvin yl
p ref
Ġan xi
ĠLe ipzig
us ually
Ġdesc riptor
Ġbas elines
W arning
Ġto ugh
Ġimp ressed
p ixel
Ġsocial ist
m x
ov ic
)} +\
Ġconstruction s
Ã¼ ller
ott ing
ĠE t
ĠV ery
Ġspeak s
P ress
ĠDar win
ĠHonor ary
ĠRoche ster
18 3
ĠRos a
J ournal
and i
Ġsuggest ions
Ġs i
Ġbus y
l icense
ĠC rystal
ev es
Spe ed
ĠNAV BAR
rem arks
ram er
vi ol
Ġreal m
Germ any
RE SS
ant es
dec re
ĠBal let
Ġmultiplic ative
ĠMal colm
Ġt sd
ĠB ac
Ġbass ist
se at
ĠRich ards
Ġwould n
Ġbr ut
] ))
Ġre ass
Cal ifornia
for Each
Pro blem
Ġpermut ations
Ġv iable
ile e
Ġre print
> `
ĠP U
Ġtub es
F UN
W ho
Ġch lor
con serv
Ġpers istent
ĠChem ical
Ġrel uct
rend ered
ST AR
ĠH ert
4 000
Ġd inner
ov sk
G h
ĠK um
Ġconcent rate
99 99
Ġpract iced
wild fly
Ġfer ry
C ONT
ge ons
ron es
Ġf ran
Ġdynam ically
ract or
ĠG an
can onical
ĠH ood
Ġinterview ed
s chool
we ets
Rep l
Ġv ig
cept ions
enc ode
th reshold
lim inaries
Sh arp
Ġtransl ates
ĠPaul i
ĠSem inary
t ouch
z ier
ĠP arameters
ely n
Ġob s
Ġin clusive
Ġpl aus
w at
os o
Ð° ÑĤ
Ġtoler ance
ĠMin isters
Ġn ortheastern
Ġep ic
S ta
Ġd z
Ġ& =\
head ing
P lease
18 6
ĠMin neapolis
Ġv ibr
AP P
Ġstrugg led
ĠChron icle
Ġwithdraw al
Ġh i
ĠParliament ary
R ANT
sub mit
Ġen closed
ĠRel igion
ĠG ir
Ġloc us
na issance
Ġgovern ance
Ġin set
ĠP romise
Ġparamet ric
Ġsen ators
ĠC ool
tr l
ĠC ly
Ġlisten ers
ĠJohn s
Ġrefer enced
en ary
ĠR ather
ĠÄ Į
re act
Ġar cs
Ġsp y
Ġexcit ing
Ġexp elled
Ġrecur ring
Ġgrate ful
graph s
ĠAn aly
/* !
ĠR C
dis able
Comp iler
&& &&
ĉĉ Ġ
Ġaugment ation
)^{ -\
_* $
role um
ĠIn surance
Ġveter ans
Sep ar
f mf
al ert
ĠW inners
Serial ization
ĠAppe als
Ġexpans ions
ĠDem ocracy
spec ified
ĠM atrix
isp here
an an
sc hed
chang ing
ĠBor is
, [
Ġrelax ed
Ġwhe els
s ocial
Ġsepar ating
Ġesc ort
Ch icago
Ġninet eenth
ĠB ronze
ĠClif ford
ĠBuddh ism
ĠT F
ĠL ed
rop olis
Ġoff ense
ĠLog an
ĠM eyer
en vironment
Ġprop ri
ĠAlger ia
Ġd ancers
enc oding
Res olver
Ġpar ishes
habilit ation
p ix
> ;
Ġenorm ous
E astern
C ivil
ĠV ert
ĠInn ovation
ĠR oc
ĠIndust ries
amazon aws
c ourt
Ġst ems
Foot notes
ru ce
M ic
ill ary
Sc ot
ï¼ Į
ĠG rid
ĠM oss
Ġcom plications
Ġaccount ed
con current
Ġquestion ed
el ic
Te X
label ed
ob iography
B all
pl aced
ĠGram mar
b right
ĠK illing
ipl inary
Ġtick ets
ĠN LO
Ġneg ot
r ÃŃ
I Z
ĠTh ames
ĠJ ake
ĠBright on
ĠDev elop
Ġor acle
lim sup
fri ed
Ġinters ects
Ġtrump et
ĠMar ian
Ġdisc ount
Ġfro zen
Q A
Numer ical
Å ¿
Ġm all
int ell
in sp
Ġ} .
att ention
: @"
ĠAnd rea
Ġcritic ised
ĠEston ian
Ġemploy s
ĠA sc
Ġj umps
LA B
hold s
U nd
ĠT ropical
Ġreg ards
ah i
Err ors
ĠDep ression
Ġdef in
ĠBra h
) }^{
Ġpersonal ities
ĠD ynasty
Ġtre ating
ro tt
ĠM s
ow itz
Ġcollect or
Ġre lying
ĠK oh
op us
in ar
Ġest ates
ĠAn imal
AT ED
Ġ$ %
Ġsp heres
Ġap ilevel
ĠDe lete
ĠS Y
Ġtop ped
Ġfinal e
Ġcontest ants
M ov
Ġam mun
ĠH ond
ll ll
> '
Ġgrand mother
S ort
Ġnob ility
) '
ĠWAR RANT
ĠGael ic
ĠR up
ĠP omer
C as
en h
Ġm eth
ĠC airo
Israel i
Ġaband on
Ġpossess es
h ouses
SC RIPT
ĠAdd ress
ĠL S
Ġsmooth ing
ĠTreas ury
ĠJes se
]{ $
ĠTe h
ĠGR B
ĠF ont
ĉĉ ĠĠĠ
Att r
S on
Ġb arriers
Ar ts
Ġmonot one
Ġmonot onic
Ġm ansion
Ġro d
ĠCop a
ĠK Ã¶
AR B
ĠG ur
Ġwick ets
const rained
hig her
m orph
Qu est
ĠBang kok
ĠP iet
up les
f av
28 8
Ġqual itatively
Ġstat istically
ĠGust av
ĠPro ducer
Ġreve aling
à ´
Ġcar ved
Ġlo ans
Ġanticip ated
ĠG ospel
ĠMon roe
un ks
Rec ently
Ġdram at
analy tic
Run ning
Ġfold ed
leg end
ĠBol ivia
ĠSebast ian
Ġin ev
ĠFor bes
Ġmission aries
ĠL R
eb ook
j ournal
m ov
%%%% %%%%
Ġup set
ĠCl imate
t u
ĠNew man
Ġg odd
M ixed
C AC
al ions
ĠE y
ĠM T
ĠĠĠĠĠĠĠĠĠĠĠĠĠĠĠĠĠĠĠĠĠĠĠĠĠĠĠĠĠĠĠĠ ĠĠĠĠ
ĠPro gressive
Qu ant
L im
s P
Ġtem plates
ĠCow boys
âĢ ħ
? âĢĿ
olt ip
ion ic
Ġport raits
fill ed
Ġsu ited
A SSERT
ip es
ĠH E
22 6
Ġpresc ription
_* (
tw itter
ĠNew foundland
ze k
ĠMan or
ath am
dis crete
S eq
ant astic
w ings
)\ )
il ogy
ĠM Äģ
ĠL il
cl s
ĠBur ke
rell a
ercis es
ĠR id
Ġirre levant
s igned
Ġsub spaces
Sign ature
Ġpers ec
Ġel if
ĠMar co
ĠHein rich
Ġexplan ations
sem i
Ġterm ed
Ġhum or
Ġspec ifies
dep recated
ĠW inner
St ub
Ġend points
J y
Ġer upt
Cy cl
Ġcomp ares
Ġmore over
Ġg aug
ĠThom son
HER E
Ġammun ition
ĠErn st
d yn
m otion
Ġl ac
let cher
ĠGreen e
17 9
Col lect
Cle arly
is se
Ġund ers
ĠJud a
ĠSpring field
b v
ĠPsych ology
uls ive
ĉĉĉĉ ĉĉĉĉĉĉ
Dep th
ĠTheod ore
Ġtechn ological
Ġfil ament
en ers
ĠG it
ĠAp ollo
r ational
Ġsur f
to Be
v ens
I ran
ĠP otter
Ġillust rations
wart z
ĠV oc
ĠG B
m inton
Ġd ors
ĠLev i
Ġinstruct or
or ic
ĠW ings
intell ij
Ð¾ ÑĢ
Ġacadem ics
Ġannot ations
AM ES
bal anced
Ġsur veillance
Un iform
Mach ine
af a
Ġstory line
N GC
ĠHun ting
Ġd ella
O cc
Ġ$( '
Ġsouth western
Ġ( {
ad just
23 2
Ġgen uine
Ġsk et
Ġmilit ia
agn et
Ġsn apshot
Ġsal ary
ĠGarc ia
itro gen
he x
Ġadm ission
haus en
ĠBo hem
\ ;\
ĠHay es
Us es
ĠL ines
Ġapp rent
Ġadv ocated
Ġd w
ĠV id
ato es
ĠWinn ipeg
Ġimplicit ly
- )
at ro
Ġfix ture
ĠB io
18 27
et c
Ġ" ";
Ġper f
Ġdemonstr ating
Chang es
Ġcolon el
ĠDor othy
M essages
erv ille
commut ative
min imal
ogen ic
Ġspont aneous
Ġg arrison
L B
ĠS uk
Not Found
f uture
Ġdecl are
ĠHal ifax
ne ighbor
Ġsuggest ion
ain es
Ġmass acre
or get
Ġdeleg ates
Ġinvest ments
pe ak
)\, .
}} [
ĠBl air
loc ks
- ,
ĠP am
ĠIniti ative
Ġcont amin
part icles
Ġmotor cycle
ä ½
olog ne
ĠWe i
Ġlif estyle
ĠJam ie
ĠPant hers
G it
q i
Ġtrip let
ĠDen ote
ĠKos ovo
ĠB end
Ġim posing
enc il
In sp
-\ !
ĠS ent
Ġimm une
M ir
s ampling
amp ire
Ġam endment
g b
t ier
att ing
Ġsub scription
ĠC anton
ĠB in
ann ers
Option al
ass adors
Ġfil tration
Ġmanip ulation
A UT
Ġse al
Ġsol ves
}}( {\
Ġscreen play
any a
rog ate
ine q
Ġbur den
p rice
s ources
Ã¼ ck
PAR AM
b ranes
he nd
Ġsur geon
Ġbatt ing
ort ium
Ass embly
V R
ĠDra ke
} <\
ad v
}$ };
ess ing
Ġt iles
Uk rainian
ĠL ay
int roduction
et ric
18 23
ĠSouth west
ĠJ ets
SS M
Be etles
Ġsn ap
B ell
| &
Ġw rapped
Ġobserv ers
us hes
ir ling
stit uting
und o
Ġmut ually
=\ "
P romise
ref lect
pro c
Cath olic
ĠL ah
Ġcooper ative
Ġassass ination
ĠOr d
ĠJul ie
sp irit
Ġder ives
ĠReg ular
ĠT error
Sec ret
Ġdeleg ation
\ &
art e
ĠSt ructure
ast ed
Ġham let
per cent
Process or
ĠVict ory
Ġaver ages
ĠLouis ville
ĠDod gers
por ate
ru z
desc ribed
Ġcardinal ity
\ #
ĠS leep
uc a
clesiast ical
Id x
Al pha
ĠL it
ĠF W
26 4
| +
Ġeng ra
M i
Ġpro poses
omet ime
disc uss
th ouse
ĠS erv
Ġsubt le
ĠEmer gency
Ġdiscuss es
v t
)+ (
ĠB ren
ĠD awn
av in
50 1
G EN
at op
em por
} &=&
Ġwarn ed
sp ects
M ETHOD
Per iod
Ã µ
pl ays
mer cially
ĠRom ans
ĠL icens
mod ified
D IF
Ġrep ly
Ap pe
ici ary
ĠVari ous
Ġtour ists
Miss ing
as ive
ĠIm ages
Ġtor que
em ann
ĠR ever
18 16
ĠPl us
Ġcert ification
Ġcancel ed
ap on
RE T
alax ies
am on
Ġst ays
ĠBald win
Ġtrans fers
Ġblock ing
ĠÅ ģ
Ġlingu istic
Ġb ot
pro port
dor ff
K w
in ous
Ġm uon
18 08
Ġsystem atically
ĠMarsh al
Ġb acter
Ġle ar
ĠBro ck
ĠClass es
ĠSuper ior
keep ing
Ġincorpor ates
Ġup stream
,\ ;
clud ed
'' )
bl ob
Sl ov
Ġo mit
Ġv i
Ġg y
b rown
Ġtunnel ing
utr ition
ĠW W
ess ment
Ġaccum ulated
vent h
Ġsure ly
Ġemphas ized
ĠS tern
() </
Un like
ĠC lement
Ġeigen states
ĠMar ines
ĠW olver
Ġarm ies
ĠP ere
ĠD A
Ġdet ecting
Ġorgan ize
ĠF ra
ĠGu jar
Ġtw entieth
it he
Ġcondens ate
t ransp
ĠDay ton
Ġst iff
ry ing
ĠÂ ·
rom atic
ĠPal omar
Ġwel come
c ancel
ĠAr senal
ĠA F
Ġmanufact ure
}} }(
Ġph y
ĠCons ult
C odec
Ġheav ier
ĠMad agascar
ĠMar itime
ĠCl aude
ope z
ĠG ian
29 0
ĠCal cul
ĠB OO
Ġex clusion
Ġacc us
Ġs ab
ĠÄ Ĳ
B esides
Ġ" ...
Ġposit ively
Ġlik es
ĠPo incar
Ġflow n
T ile
R os
)\ |
Ġcon ceived
Ġarch ives
Ġcustom s
á Ģ
re li
R oy
Ġb lo
Exp ected
Ġwavef unction
( |\
s child
IR T
and ed
Ġgar ner
Ġcylind rical
3 10
ĠLeaders hip
Ed ward
ann ah
M as
ĠV eh
Ġguitar ists
Ġcommission er
Ġtrunc ation
D oug
ne ider
Ġattack er
ill i
Ġbal let
ĠBe a
ĠK ane
ĠCast ro
Ġbuild s
ĠF Ã©
Ġle verage
Ġsk ull
Ġa rose
ĠMc Car
Ġmo ist
er en
ĠP ub
}} ^{-
g z
Ġref uses
Ġlast ing
i ade
UR N
Ġdegrad ation
Ġpil grim
Y our
opter a
ĠJ ur
Ġqu it
ĠEuro vision
ĠHy dro
? }
n ational
Ġmet er
oph on
Ġs el
22 8
ĠPl atform
Ġl ord
ĠK od
st rip
ĠEm il
Stud io
Ġrig orous
Ġl arvae
comm it
da ughter
17 58
ĠAp plied
ĠZ en
ĠEd win
ĠS ession
Ġcomput es
Ġprev ents
Ġinfin ites
ĠAl g
Y es
22 7
integ ration
ron ics
ĠNS W
Ġf action
LO W
ph ys
Ġexp enses
ĠZ amb
un its
ĠA TP
Ġpres umably
Ġdam ages
ĠY uan
ĠN orton
ĠY osh
can vas
ĠSh ak
Ġquad r
ĠH I
Oper ations
' }}
ĠCom ment
tim estamp
em ption
Ġ[ (
Ġmet eor
M ike
Ġcr ust
E ll
ĠW IDTH
26 5
Ġrev ived
ĠR ao
ind ices
{( -
3 90
ĠSum mit
ãģ ®
FFFF FF
Ġim pl
Ġcontin ental
18 03
Ġac claim
ast ically
Ġcrit ically
Ġbroad caster
Nav igation
ĠB B
Ġnew er
ĠArm s
olith ic
ĠG ul
lo o
dis p
ĠRed s
ĠM ey
24 1
Ġn urse
ari at
inter est
Ġlack ing
ĠJ et
E W
Ġs or
() ),
NO DE
ĠTanz ania
col sep
C md
Rec ords
ĠE W
Ġcommand ing
OC K
y en
Ġb ilinear
}$. }
Ġcompl aint
ĠE du
55 5
y ellow
Ġfilm maker
Ġret ire
com par
Ġcast ing
}} /
link ed
ant o
ĠE D
con cat
ers hip
Ġac claimed
Ġphys icians
Ġspec imen
Part ial
p enter
Ġal beit
ev an
Ġb ones
it ated
Ġhigh ways
Ġcho oses
ĠA uth
ĠH its
22 3
Ġch ord
)} -
Ġt aste
23 8
Form s
uv ian
ĠCrit ics
un ting
Ġ| =
Ġres olutions
Ġsemif inals
Ġbif urc
ĠB har
Ġcryst als
ĠD OM
d ong
i ar
Ġloc als
Ġbeh ave
ĠSing er
ĠCharl eston
Ġn ond
ĠLyn ch
Ġ ~~
ad os
row ave
ĠConstitution al
ĠV or
ĠPar agu
Ġre min
Ġren ovation
ĠK E
)( -
ĠSer ial
ĠUrugu ay
Ġtact ics
d ar
d st
Ġteam mate
ad ia
ĠK ind
Ġn s
ĠH oll
F ri
F ish
por a
Ġbatter ies
Ġcon quest
Ġspons or
O x
V en
ĠJen kins
ĠFl ash
Ġboard ing
ĠT ank
ĠR he
Ġhapp ening
poss ibly
Arch itecture
Ġinvest ed
ĠPerson al
er ef
Ġbi ased
ĠC over
Ġv ib
18 06
disc ussion
Ġp t
B re
Ġs unk
ĠW aters
nob r
ĠV it
ĠW ong
ur red
Ġdiscret ization
b age
d ifferential
Ġd ash
Ġter restrial
2 16
Ġap olog
Ġcollabor ative
Ġgroup ed
DE X
B IT
ĠKenn y
direct ory
pon ential
Ġair ing
Ġf etch
ĠN in
ĠCor p
l ord
ĠH ers
/ ">
J oe
Ġpenal ties
) &=
p k
ĠQu int
ĠLeban ese
P V
eg en
tex cmd
Ġsub urbs
Ġorth onormal
og h
ĠJohn ston
, ...
Ġencourag ing
Ġcoordin ator
Ġcontribut or
0 25
Q R
ĠB erm
ch rot
al us
ĠF is
Ġpregn ancy
Ġequ iv
ĠCD P
me ans
P en
M ust
pres ident
Ġelder ly
con clusion
Ġmas cul
Å ĳ
Ġacc idents
ĠChap man
b ins
ĠElect ronic
ĠD ise
ĠMon ument
ĠHy per
Ġsail ors
! (
ĠT urb
p ark
al ore
Ġphilanth rop
n x
ĠL E
ri que
ra pe
ĠF uj
cur rency
ĠEv ents
Addition ally
ĠAtl as
ĠAnn ie
Ad S
Ġfort ress
Ġnick named
W inners
as ta
Ġdisc s
Ch ain
Ver ify
Ġp ul
ĠW I
licens es
Ġfin anc
AR G
Ġlik ed
Ġman or
n f
ing le
Ġ\ '
ĠPoint s
ex plicit
ĠM pc
Ġprom otional
Ġhot els
U ST
ĠMalays ian
}^{ {\
}) +\
L ines
Ġhar vest
_* \
ĠPatri ots
Ġg ameplay
ĠJ ourney
Ġdat abases
Ġf s
Ġhand ball
ĠE N
ĠD ylan
oh an
log o
ĠEst abl
22 9
Ġ$( -
)= -\
Be en
ĠS USY
Ġdirect ing
Ġsit com
30 3
Ġmach inery
ĠE ducational
18 19
imod al
Ġenlarg ed
E lections
Ġc usp
Ġsen ator
Ġprinc ip
Ext ensions
Ġcha os
Ġform ulate
PRO JECT
ĠSax ony
oc om
Ġbow l
ĠL ap
ct ica
23 7
fact uring
Ġbox er
Ġinaug urated
ĠConfig uration
Ġ umb
Ġl ith
à ¹
Ġunve iled
chrot ron
fl ies
ĠE yes
}{ (\
Ġdisp at
stud y
it als
tikz cd
P rec
ren ces
ĠSuff olk
| ^{\
}= {\
Ġwitness ed
der ived
ĠIss ue
Ġh int
and in
Ġam end
Tra ining
Mex ican
ced es
Amer ica
Ġtun ed
Ġaccident ally
bra him
l ot
ĠAr ist
ĠGuatem ala
Ġperturb ed
Ġrival ry
o ine
=" $
C ursor
D irection
Ġbi jection
b ias
ĠRes Net
ĠT ell
em it
H erm
Ġhand les
ong s
oul os
ĠProt ocol
Te V
Ġvisual ization
Ġrun way
ĠB ian
def i
Ġex otic
ri ot
ograph s
m and
Â »
Ġsm oot
} ],
Ġst air
}^* $
ĠR ig
Ġt u
Ġconscious ness
Ġde ceased
ĠCl ara
) <\
Ã ²
ĠCol ony
Ġtheore tically
c C
ĠMin i
ĠMonteneg ro
ĠSh an
Ġsub species
me chan
A k
RA Y
Ġextra ordinary
domin ated
24 8
Ġpolit ically
Ġor ch
Ġp el
ĠD ry
Ġpars ed
AA F
ĠL ords
Ġsy ll
ĠF ur
str ut
Ġ$ _
ab ar
ro ft
0 12
Cl aim
Over all
Ġte lev
sh are
ĠB iden
ĠAl leg
^{- (
h alo
l ane
ict ions
| $,
18 09
st a
ĠLaw s
estim ated
Ġreleg ation
ĠJup iter
ĠSc ots
)}\ ,
alo is
ĠAm ateur
Ġconsum ed
Ġin ches
ĠO C
ent on
FI X
ĠR V
Ġcross ings
Ġconv iction
O bserver
Ġem otions
im ag
Ġred ist
c ategories
ass is
hor se
ĠPorts mouth
press ure
Ġscreen ed
anc o
ĠH erman
Ġdon ations
W IN
ĠO rt
vis ual
ĠUl ster
pher d
j as
ĠQ atar
Ġport al
esp ecially
Te ams
ĠS ard
ĠL on
os ion
le ave
ĠP H
Ġsub marines
ĠBet ty
cal endar
Ġrep airs
An th
Ne ill
19 1
od rom
cl iffe
w itz
Ġtra vers
ĠMod ule
ĠGarc ÃŃa
ge ometric
Ġpropag anda
Ġdec ree
Tim estamp
set counter
ĠÂ «
rib es
Ġbu ying
ĠC risis
ur ally
Ġdis par
sh ine
HE AD
Ġphon on
or is
Ġsh ocks
function al
ott age
Ġdispl aced
Ġsup rem
Ġce iling
ĠAss uming
Ġrepro duced
A sh
Ġrev olt
R GB
e astern
cf g
Ġro oted
Ġcapt ion
Ax is
R ic
ĠSte phan
2 14
ĠLat via
Ġdis able
ĠAn imation
ĠAg u
G reg
Sc ore
Ġflow ering
$\ {
Art ists
ĠHop f
Ġto m
ĠCarn egie
Alex ander
Ġpeculi ar
t ile
ven ile
b red
z an
act ual
asc ular
f etch
L oss
Ġhe lium
Ġmamm als
Ġpredict ing
FF ER
gr pc
Ġc ens
g em
Ġend angered
el man
ĠD ynam
Ġcomm ute
s om
ĠBrown ian
[] {\
Ġstay ing
L Y
ĠNE AT
Ġobst acles
ĠI SM
mult iple
z ens
Ġsl ide
ĠDub ai
L icense
}{ |\
18 17
der r
y ield
24 7
isc ount
Ġexclud ing
P ic
ĠJ ag
ĠF est
Ġwalk ed
ast ings
11 11
H all
Ġ\ ;\
ĠCh andra
_+ (
ĠUs ed
op pler
> {
al bum
Ġsh r
Ġmin ima
F er
ĠC redit
ym es
ikh ail
ĠFergus on
rac ed
ring e
b end
ĠBel ow
Ġanth ology
O k
Ġch unk
ax ter
Ġpractition ers
Ġlect ure
ĠCub s
ĠAr d
Ġin tact
N ick
ĠE T
ĠSpec ies
ĠHerm itian
iz ational
Ġint elligent
ĠWhit ney
Ġancest or
Ġresid ue
Ġ ì
and ez
ĠKarn ataka
ĠS ept
Ġh ate
Ġsy s
B reak
ĠZ ion
18 1
Ġhe ct
ĠCam ero
ĠB rom
ary a
ĠSof ia
uz zy
ig nt
li ers
/ $
Ġam alg
rem ote
Ġreb el
Ġqu ote
ĠRock y
consist ency
Ġtrain er
Ġmes ons
ad oc
Ġap ps
IN ST
_ )
Add r
ĠVat ican
ud i
Ġestabl ishes
Ġspecific ations
c in
v id
Ġf ut
Ġpublisher s
c art
con vert
or ov
Ġapp ar
Ġreject ion
Ġserv ants
ing ers
ĠJosh ua
Ġ Âł
Ġobst acle
< <
ĠS ave
Ġup ris
Im ages
k j
m atter
C ALL
Ġiter ator
Ġadv ancing
Ġqu arters
Ġyour self
maxim um
Ä Ĺ
ĠP D
L AS
b h
ho o
Con tains
}: =
Ġil leg
Ġvac ant
B ang
Comput er
em ission
Ġoccup y
Ġnorth western
Ġinject ed
ĠGreat est
Ġhabit ats
ĠLis bon
cor related
18 05
Ġimportant ly
ĠHeavy weight
Ġkilomet res
C over
utt gart
Ġrein force
\, (
Ġmos que
ĠL ob
ĠSc out
Ġtum or
ffbb bb
Ġl ady
ES CO
Ġrail ways
Ñ Ī
Ġl anes
ĠR ole
io x
Ġperm its
Ġrecre ational
v ian
Ġhard ly
b il
ĠD P
tr uth
A u
he avy
Ġw age
Ġbom bs
ort ex
Ġaltern atives
P OS
ĠG lor
Ġev olving
ĠRec ent
ĠDo es
ell es
Ġaut hentication
F ALSE
N AS
ol ate
ĠBrun o
ĠPap ua
Ġpos es
yl on
ĠPan el
ĠJoh an
Ġinstitution al
Ġmist ake
Ġsw ap
id uc
ĠIs abel
ump y
Ġinv itation
n om
Ġf ights
ard ment
Ġcalcul us
ĠM aking
Ġcont ra
ĠB agh
red shift
Ġdist ribute
4 40
Ġadopt ing
J eff
ĠSp in
Ã¡ l
Ġinc idence
ast on
Ġtra iler
small er
Ġhar sh
struct ures
ĠO K
Con vert
head s
hu ang
Ġsubsequ ence
ĠM AC
ĠBeat les
T asks
ĠL ives
Ġh aven
ens ing
ign ore
F un
Ġun ited
Ġtet ra
Mountain s
}) ]
AR E
Ġphysic ist
3 70
ant ed
18 11
M anu
ext ended
Ex ists
ĠCol lections
ĠChurch ill
Ġdisput es
Ġres ides
Ġ{ %
17 98
Ġpol o
Ġdec is
Ġmon ks
18 07
Ġten or
as ium
ch us
pro f
down load
ĠH our
up load
arri e
Ġcler k
Ġint ensive
assert True
ĠBrown s
Tour ist
ĠF alk
ĠM am
it ches
Ġsuscept ibility
ĠKn ox
```` ````
M IT
il us
ĠStat istical
[ $\
on te
est ock
Ġvers a
sc ribe
cp u
Ġan arch
Ġopen ly
rm k
Ġmac roscopic
Ġtra ils
ĠMad h
pol ynomial
× Ļ
ĠLe icester
Ġmet re
os ely
}) _
Ġabund ant
E lection
F eed
ĠYuk awa
ĠG ates
ec om
Ġcon ject
ĠE aster
School s
Ġphil osophical
Ġh iding
Ġm aj
Ġcycl ists
Ġremn ants
Ġheur istic
Row s
nt hetic
ĠSch ol
Ġthrow ing
Ġstrugg les
f re
ĠInd o
gl ob
ĠNAS CAR
ĠPar se
s sec
y t
ĠW ander
w ara
Ġtra its
Ġhom eless
gu ard
Ġplant ed
ĠBre nd
Ġpast or
Ġexplo ited
qu o
K T
and e
Ġj oy
ĠWe bb
Ġshe ets
at tach
ast ro
Ġcount able
ĠÐ º
et imes
O H
v card
Ġparameter ized
Ġassess ed
H ong
ĠLapl ace
Ġout lets
Ġjust ify
Ġj s
m or
SE C
ĠTrib une
ĠB ug
ce ae
}| $
**** **
\!\! \!
ierarch y
ĠS ara
Ġmed all
Ġexcess ive
v x
n ets
Ġ\ ;\;
Ġmod elled
Ġdis charge
H tml
Ġcompl aints
r x
Ġm aternal
Ġevery day
end e
Ġsh rub
e ither
Ġatt en
C amb
ĠL al
ĠW on
Ġcomp ile
uit ively
ĠTour ism
Ġupd ating
Ġvol untary
c A
Ġs ender
Ġreg iments
app le
Ġy es
Ġpostpon ed
ĠSupport ing
Acknowled gments
ĠPrim era
on line
Ġm ood
S ix
ĠP all
cy cles
Observ e
Ġbuck et
met rics
ĠDeut sche
U ES
26 2
L IST
Ġl iver
Ġpre vention
lib s
S ite
Ġk iss
Ñ ĸ
sh aw
m ith
Ġres emble
T imer
Î ¯
N ear
ĠR ifle
Ġj ur
pre ced
ĠAut om
Ġgeomet rical
Sc ient
eps fig
sc hem
Ġrenov ated
Ġcom mercially
Ġ' .
Ġcare ers
0 11
ĠR ough
N s
ib ling
ĠBut ter
Ġnational ist
ĠD etails
17 00
ĠLad ies
ĠP arent
Ġfl ip
ĠL Ã©
Ġenc ryption
ĠSen ators
ĠEm irates
Ġsn ake
ĠÐ ´
ih ar
Ġly ric
ĠOl iv
Ġinform al
min im
Ġl oves
Ġmed i
Ġpromin ence
Mult iple
dif ference
F it
á ŀ
Ġoverwhel ming
W ORD
att y
os er
Ġfact ories
Ġemploy er
Ã©t ico
D ar
os i
ight ed
Ġdomin ance
f rames
Ġl oud
ord ial
]{ @{}
ĠTrans form
× ķ
ĠX V
Ġsurpr ised
Con sequently
ĠCl uster
St ates
="../../../../../../ ../
ĠV all
Ġorgan isms
ĠTre k
ĠHero es
Ġsh aded
refer ences
Ġhel per
' "
ĠC yp
ĠS ugar
ĠE ra
23 3
ĠB org
Ġconstit utes
ĠD art
Ġpred icate
ĠBalt ic
: -
ĠG ymn
Ad am
Ġdestroy ing
acknowled gments
Ġt rem
ĠH ack
A SS
ĠC and
RE E
================================ ================================
Pl aces
D ark
}( [
Ã¢ te
] ).
ĠK ob
40 1
ĠCor on
[...]
