{"[UNK]":0,"!":1,"\"":2,"#":3,"$":4,"%":5,"&":6,"'":7,"(":8,")":9,"*":10,"+":11,",":12,"-":13,".":14,"/":15,"0":16,"1":17,"2":18,"3":19,"4":20,"5":21,"6":22,"7":23,"8":24,"9":25,":":26,";":27,"<":28,"=":29,">":30,"?":31,"@":32,"A":33,"B":34,"C":35,"D":36,"E":37,"F":38,"G":39,"H":40,"I":41,"J":42,"K":43,"L":44,"M":45,"N":46,"O":47,"P":48,"Q":49,"R":50,"S":51,"T":52,"U":53,"V":54,"W":55,"X":56,"Y":57,"Z":58,"[":59,"\\":60,"]":61,"^":62,"_":63,"`":64,"a":65,"b":66,"c":67,"d":68,"e":69,"f":70,"g":71,"h":72,"i":73,"j":74,"k":75,"l":76,"m":77,"n":78,"o":79,"p":80,"q":81,"r":82,"s":83,"t":84,"u":85,"v":86,"w":87,"x":88,"y":89,"z":90,"{":91,"|":92,"}":93,"~":94,"¡":95,"¢":96,"£":97,"¤":98,"¥":99,"¦":100,"§":101,"¨":102,"©":103,"ª":104,"«":105,"¬":106,"®":107,"¯":108,"°":109,"±":110,"²":111,"³":112,"´":113,"µ":114,"¶":115,"·":116,"¸":117,"¹":118,"º":119,"»":120,"¼":121,"½":122,"¾":123,"¿":124,"Â":125,"Ã":126,"Ä":127,"Å":128,"Æ":129,"Ç":130,"È":131,"É":132,"Ê":133,"Ë":134,"Ì":135,"Í":136,"Î":137,"Ï":138,"Ð":139,"Ñ":140,"Ò":141,"Ó":142,"Ô":143,"Õ":144,"Ö":145,"×":146,"Ø":147,"Ù":148,"Ú":149,"Û":150,"Ü":151,"Ý":152,"Þ":153,"ß":154,"à":155,"á":156,"â":157,"ã":158,"ä":159,"å":160,"æ":161,"ç":162,"è":163,"é":164,"ê":165,"ë":166,"ì":167,"í":168,"î":169,"ï":170,"ð":171,"ò":172,"ó":173,"ô":174,"Ā":175,"ā":176,"Ă":177,"ă":178,"Ą":179,"ą":180,"Ć":181,"ć":182,"Ĉ":183,"ĉ":184,"Ċ":185,"ċ":186,"Č":187,"č":188,"Ď":189,"ď":190,"Đ":191,"đ":192,"Ē":193,"ē":194,"Ĕ":195,"ĕ":196,"Ė":197,"ė":198,"Ę":199,"ę":200,"Ě":201,"ě":202,"ĝ":203,"Ğ":204,"ğ":205,"Ġ":206,"ġ":207,"Ģ":208,"ģ":209,"Ĥ":210,"ĥ":211,"Ħ":212,"ħ":213,"Ĩ":214,"ĩ":215,"Ī":216,"ī":217,"Ĭ":218,"ĭ":219,"Į":220,"į":221,"İ":222,"ı":223,"Ĳ":224,"ĳ":225,"Ĵ":226,"ĵ":227,"Ķ":228,"ķ":229,"ĸ":230,"Ĺ":231,"ĺ":232,"Ļ":233,"ļ":234,"Ľ":235,"ľ":236,"Ŀ":237,"ŀ":238,"Ł":239,"ł":240,"Ń":241,"ĠĠ":242,"Ġt":243,"in":244,"he":245,"Ġa":246,"on":247,"er":248,"re":249,"Ġthe":250,"at":251,"en":252,"or":253,"Ġs":254,"al":255,"an":256,"is":257,"ĠĠĠĠ":258,"Ġo":259,"it":260,"es":261,"ar":262,"ed":263,"Ġc":264,"Ġw":265,"ion":266,"Ġf":267,"Ġof":268,"Ġin":269,"nd":270,"Ġp":271,"ic":272,"Ġb":273,"le":274,"ing":275,"ro":276,"as":277,"Ġand":278,"Ġd":279,"Ġm":280,"Ġ\\":281,"Ġto":282,"ct":283,"el":284,"ent":285,"et":286,"Ġ$":287,"ou":288,"il":289,"am":290,"st":291,"ig":292,"om":293,"ĠS":294,"Ġre":295,"Ġh":296,"ol":297,"ation":298,"ĠT":299,"ra":300,"Ġ(":301,"im":302,"ĠC":303,"Ġth":304,"Ġn":305,"ĠA":306,"Ġe":307,"ot":308,"Ġl":309,"ĠĠĠ":310,"id":311,"ce":312,"iv":313,"Ġis":314,"ur":315,"ĠĠĠĠĠĠĠĠ":316,"ch":317,"ut":318,"ĠM":319,"{\\":320,"Ġfor":321,"us":322,"ul":323,"Ġg":324,"ad":325,"ow":326,"ly":327,"Ġon":328,"em":329,"ers":330,"ĠB":331,"20":332,"ĠI":333,"um":334,"ĠP":335,"ith":336,"ab":337,"ir":338,"qu":339,"19":340,"un":341,"Ġst":342,"ist":343,"Ġas":344,"Ġbe":345,"od":346,"ĠH":347,"se":348,"ter":349,"ag":350,"if":351,"ay":352,"th":353,"Ġcon":354,"Ġv":355,"ĠR":356,"ĠF":357,"Ġwith":358,"_{":359,"Ġthat":360,"ĠL":361,"ĠThe":362,"ĠD":363,"eg":364,"Ġwas":365,"Ġal":366,"end":367,"ath":368,"and":369,"ver":370,"ĠĊ":371,"ri":372,"Ġby":373,"ect":374,"her":375,"ĠN":376,"ac":377,"ĠG":378,"ĠW":379,"Ġ$\\":380,"Ġpro":381,"Ġan":382,"op":383,"res":384,"est":385,"ht":386,"ate":387,"os":388,"oc":389,"čĊ":390,"ap":391,"Ġ=":392,"âĢ":393,"rom":394,"ĠE":395,"ity":396,"ec":397,"av":398,"ex":399,"Ġat":400,"up":401,"ub":402,"math":403,"ta":404,"Ġwh":405,"ph":406,"ction":407,"Ġ&":408,"art":409,"Ġcom":410,"ef":411,"ĠĠĠĠĠĠĠ":412,"Ġex":413,"Ġfrom":414,"ight":415,"ies":416,"ĠJ":417,"ine":418,"all":419,"ure":420,"ore":421,"ep":422,"ew":423,"}\\":424,"Ġare":425,"ess":426,"Ġit":427,"ial":428,"ort":429,"}$":430,"ran":431,"ge":432,"ud":433,"^{":434,"ĠO":435,"ill":436,"Ġ\"":437,"Ġor":438,"pl":439,"ass":440,"ber":441,"'s":442,"ian":443,"Ġhe":444,"ive":445,"ma":446,"ment":447,"ref":448,"ĉĉ":449,"ame":450,"Ġwe":451,"The":452,"pt":453,"ich":454,"ite":455,"ue":456,"og":457,"iz":458,"nt":459,"ated":460,"ak":461,"ant":462,"ĠU":463,"ĠK":464,"ld":465,"our":466,"ard":467,"ip":468,"201":469,"ary":470,"Ġ<":471,"int":472,"=\"":473,"ov":474,"ell":475,"}}":476,"ext":477,"ult":478,"ical":479,"(\\":480,"rac":481,"Ġch":482,"Ġcl":483,"ia":484,"Ġr":485,"und":486,");":487,"per":488,"cl":489,"ft":490,"ign":491,"âĢĵ":492,"age":493,"),":494,"sp":495,"--":496,"Ġpl":497,"Ġsp":498,"00":499,"ition":500,"Ġ{":501,"egin":502,"Ġsh":503,"ĠIn":504,"orm":505,"begin":506,"Ġus":507,"Ġthis":508,"Ġcomp":509,"ong":510,"Ġle":511,"ĠSt":512,"ust":513,"ast":514,"cal":515,"are":516,"Ġse":517,"_{\\":518,"ens":519,"ug":520,"200":521,")$":522,"Ġwhich":523,"ff":524,"ord":525,"Ġnot":526,"ack":527,"ations":528,"ire":529,"du":530,"ave":531,"ĠV":532,"pe":533,"Ġk":534,"</":535,").":536,"Ġ-":537,"so":538,"}{":539,"ost":540,"pro":541,"enc":542,"Ġhis":543,"Ġy":544,"ork":545,"ev":546,"ĠĠĠĠĠĠĠĠĠĠĠĠĠĠĠĠ":547,"Ġ|":548,"ain":549,"rm":550,"ace":551,"able":552,"ions":553,"text":554,"to":555,"ime":556,"ence":557,"ther":558,"cc":559,"equ":560,"ish":561,"},":562,"ric":563,"18":564,"frac":565,"ere":566,"Ġun":567,"ĠCh":568,"Ġwhe":569,"In":570,"eq":571,"//":572,"ang":573,"erv":574,"ase":575,"ib":576,"low":577,"ear":578,"ide":579,"right":580,"Ġ*":581,"port":582,"ond":583,"Ġcan":584,"ild":585,"mer":586,"Ġalso":587,"ry":588,"abel":589,"act":590,"ous":591,"Ġap":592,"urn":593,"ach":594,"ru":595,"the":596,"Ġhave":597,"Ġ}":598,"ener":599,"ind":600,"Ġhas":601,"ĠĠĠĠĠĠĠĠĠĠĠ":602,"tern":603,"Ġwere":604,"Ġres":605,"irst":606,"ok":607,"ice":608,"ory":609,"fer":610,"Ġad":611,"Ġim":612,"over":613,"erm":614,"ile":615,"cite":616,"mathb":617,"label":618,"ĠTh":619,"form":620,"eta":621,"own":622,"wo":623,"ey":624,"out":625,"ound":626,"ome":627,"Ġpart":628,"$,":629,"Ġab":630,"Ġar":631,"ates":632,",\\":633,"rit":634,"old":635,"..":636,"$.":637,"Ġsu":638,"ree":639,"Ġj":640,"10":641,"fig":642,"row":643,"clud":644,"equation":645,"con":646,"rib":647,"ents":648,"Ġcont":649,"Ġ||":650,"amp":651,"ance":652,"Ġone":653,"ors":654,"ount":655,"tain":656,"ks":657,"mathcal":658,"ould":659,"Ġmod":660,"left":661,"ubl":662,"ĠĠĠĠĠ":663,"ĠUn":664,"199":665,"Ġif":666,"}.":667,"ely":668,"ress":669,"ject":670,"\">":671,"Ġde":672,"Ġfirst":673,"hed":674,"})":675,"li":676,"Ġdis":677,"ĠHe":678,"Ġclass":679,"Ġ+":680,"we":681,"Ġall":682,"ally":683,"amb":684,"}(":685,"Ġro":686,"ata":687,"ob":688,"Ġplay":689,"rans":690,"ics":691,"Ġtwo":692,"Ġob":693,"ĠY":694,"ĠIt":695,"ational":696,"unction":697,"Ġper":698,"ose":699,"iel":700,"}^":701,"Ġits":702,"ng":703,"ring":704,"ode":705,"ps":706,"~\\":707,"ss":708,"ark":709,"com":710,"}_":711,"line":712,"Ġqu":713,"Ġtheir":714,"fter":715,"ences":716,"Ġbut":717,"ll":718,"orn":719,"cent":720,"pha":721,"oint":722,"St":723,"ĠâĢĵ":724,"Ġev":725,"Ġhad":726,"da":727,"turn":728,"ater":729,"Ġdef":730,"te":731,"Ġsc":732,"ype":733,"ield":734,"ik":735,"alpha":736,"get":737,"Ġsy":738,"ular":739,"sum":740,"Ġpre":741,"Ġdes":742,"rad":743,"Ġte":744,"les":745,"Ġset":746,"lect":747,"Ġme":748,"**":749,"imes":750,"ray":751,"Ġother":752,"ied":753,")\\":754,"Ġint":755,"Ġnew":756,"Ġout":757,"raph":758,"iss":759,"ution":760,"ollow":761,"any":762,"ool":763,"land":764,"$\\":765,"sc":766,"ix":767,"sh":768,"io":769,"igh":770,"Ġ'":771,"Ġag":772,"aw":773,"ambda":774,"elta":775,"oot":776,"umber":777,"Ġover":778,"Ġval":779,"ock":780,"ased":781,"12":782,"one":783,"ican":784,"inal":785,"Ġwho":786,"Ġwork":787,"Ġup":788,"Ġtime":789,"ie":790,"ons":791,"ited":792,"ict":793,"ize":794,"Ġform":795,"Ġbeen":796,"of":797,"Ġinter":798,"198":799,"under":800,"Ex":801,"ram":802,"Ġsub":803,"Ref":804,"pos":805,"amma":806,"ced":807,"ivers":808,"eop":809,"ho":810,"Ġfollow":811,"Ġfunction":812,"ert":813,"==":814,"Ġind":815,"ember":816,"_\\":817,"ative":818,"set":819,"Ġcol":820,"roup":821,"mb":822,"Ġbet":823,"Ġwhere":824,"ublic":825,"stem":826,"aram":827,"resent":828,"()":829,"ined":830,"Ġconst":831,"ual":832,"mu":833,"Ġreg":834,"sub":835,"Ġinclud":836,"ings":837,"Ġ\\\\":838,"ont":839,"eople":840,"Ġcons":841,"Ġcomm":842,"Ġen":843,"ward":844,"eth":845,"Ġ[":846,"igma":847,"Ġher":848,"16":849,"ann":850,"=\\":851,"dot":852,"ilm":853,"Ġyear":854,"Ġsuch":855,"----":856,"Ġdist":857,"Refer":858,"Ġresult":859,"17":860,"ax":861,"Ġonly":862,"Ġdif":863,"15":864,"ral":865,"ific":866,"Ġmore":867,"}_{":868,"}^{":869,"ail":870,"Ġreturn":871,"ince":872,"mathbb":873,"References":874,"ega":875,"pr":876,"Ġmodel":877,"ugh":878,"ween":879,"uring":880,"-\\":881,"Ġrel":882,"let":883,"Ġinto":884,"der":885,"oy":886,"Ġexp":887,"round":888,"ari":889,"aus":890,"Ġbec":891,"olog":892,"Ġwill":893,"Ġco":894,"Ġsup":895,"Ġwhen":896,"merican":897,"ans":898,"Ġloc":899,"ox":900,"Ġthey":901,"ever":902,"ĠThis":903,"ull":904,"Ġgener":905,"Ġthen":906,"\",":907,"Ġrec":908,"ee":909,"phi":910,"^{\\":911,"lement":912,"oug":913,"Ġacc":914,"Ġdo":915,"Ġunder":916,"197":917,"hat":918,"Ġpr":919,"red":920,"ption":921,"ake":922,"vi":923,"Ġ{\\":924,"Ġbetween":925,"oth":926,"elf":927,"Ġpos":928,"put":929,"ery":930,"ating":931,"ĠNew":932,"lambda":933,"ces":934,"ck":935,"ren":936,"ĠCom":937,"ities":938,"che":939,"ĠAl":940,"Ġsim":941,"ection":942,"Ġthere":943,"Ġpol":944,"Ġso":945,"ĠĠĠĠĠĠĠĠĠĠĠĠĠĠĠ":946,"Ġafter":947,"ruct":948,"âĢĻ":949,"bf":950,"Ġph":951,"ident":952,"ists":953,"Ġact":954,"ball":955,"ook":956,"wid":957,"ĠMar":958,"pi":959,"abl":960,"align":961,"Ġthan":962,"Ġprov":963,"ick":964,"Ġdec":965,"ins":966,"Ġtrans":967,"als":968,"ient":969,"lem":970,"ures":971,"Ġsec":972,"Ġlin":973,"Ġshow":974,"Ġoff":975,"Ġest":976,"13":977,"ĠWe":978,"ys":979,"Ġequ":980,"ise":981,"Ġkn":982,"Ġatt":983,"oun":984,"14":985,"Ġused":986,"ision":987,"dition":988,"its":989,"Ġass":990,"chool":991,"ames":992,"arg":993,"ished":994,"ature":995,"col":996,"ne":997,"way":998,"mathbf":999,"ator":1000,"Ġinv":1001,"Ġdiffer":1002,"ars":1003,"Ġprodu":1004,"ilon":1005,"ts":1006,"ider":1007,"ade":1008,"ues":1009,"ĠAr":1010,"ource":1011,"21":1012,"ility":1013,"Ġcor":1014,"Ġtra":1015,"ily":1016,"ton":1017,"Ġne":1018,"ove":1019,"Ġstud":1020,"bar":1021,"section":1022,"lo":1023,"sigma":1024,"Ġsome":1025,"Ġmat":1026,"Ġ.":1027,"196":1028,"Ġwould":1029,"ĠâĢ":1030,"orld":1031,"ĠPro":1032,"app":1033,"Ġsystem":1034,"Ġnumber":1035,"Ġline":1036,"ĠZ":1037,"Ġserv":1038,"Ġfilm":1039,"Ġ(\\":1040,"irect":1041,"Ġshe":1042,"eng":1043,"Ġany":1044,"Ġeach":1045,"Ġ//":1046,"Ġdata":1047,"->":1048,"Ġspec":1049,"tt":1050,"min":1051,"Ġbu":1052,"Ġgiv":1053,"part":1054,"}{\\":1055,"11":1056,"^{-":1057,"oci":1058,"yn":1059,"outh":1060,"air":1061,"ĉĉĉĉ":1062,"beta":1063,"wn":1064,"oh":1065,"ilde":1066,"gan":1067,"Ġpeople":1068,"ason":1069,"ible":1070,"rough":1071,"ized":1072,"ternal":1073,"hip":1074,"cre":1075,"iversity":1076,"\\\\":1077,"Ġop":1078,"ower":1079,"::":1080,"eb":1081,"Ġno":1082,"apt":1083,"ĠQ":1084,"Ġext":1085,"Ġfe":1086,"ury":1087,"ute":1088,"ism":1089,"att":1090,"Ġpoint":1091,"Ġend":1092,"epend":1093,"mall":1094,"Ġgo":1095,"Ġthese":1096,"Ġresp":1097,"Ġmost":1098,"ĠFor":1099,"Ġinst":1100,"Ġname":1101,"Ġabout":1102,"25":1103,"ĠAmerican":1104,"ethod":1105,"Ġeff":1106,"ning":1107,"gamma":1108,"Ġcent":1109,"ty":1110,"eps":1111,"Ġpublic":1112,"+\\":1113,"ve":1114,"mathrm":1115,"Ġi":1116,"Ġ/":1117,"val":1118,"ash":1119,"Ġdev":1120,"emb":1121,"man":1122,"ote":1123,"vel":1124,"Ġour":1125,"Ġ</":1126,"Ġent":1127,"Ġed":1128,"orth":1129,"*}":1130,"array":1131,"22":1132,"ough":1133,"ier":1134,"ah":1135,"Ġcase":1136,"Ġmay":1137,"ron":1138,"Ġoper":1139,"item":1140,"Ġcur":1141,"Ġrep":1142,"Ġsing":1143,"rho":1144,"atic":1145,"^\\":1146,"Ġra":1147,"Ġfound":1148,"ĠSh":1149,"uss":1150,"Ġsign":1151,"Ġx":1152,"Ġman":1153,"ement":1154,"ern":1155,"lection":1156,"Ġprob":1157,"width":1158,"Th":1159,"err":1160,"delta":1161,"Ġappro":1162,"here":1163,"194":1164,"../":1165,"Ġsol":1166,"Ġuse":1167,"cess":1168,"Ġwell":1169,")}":1170,"Ġthree":1171,"30":1172,"itt":1173,"]{":1174,"ization":1175,"Ġthrough":1176,"Ġgroup":1177,"Ġ@":1178,"ract":1179,"Ġbl":1180,"az":1181,"sy":1182,"ale":1183,"Ġsame":1184,"Ġstate":1185,"195":1186,"ĠCol":1187,"theta":1188,"var":1189,"Ġthem":1190,"hen":1191,"ke":1192,"rict":1193,"Ġsecond":1194,"ĠInd":1195,"Ġcall":1196,"uc":1197,"Ġ:":1198,"Ã©":1199,"ional":1200,"Ġagain":1201,"leq":1202,"aramet":1203,"tau":1204,"We":1205,"Ġfield":1206,"Ġfl":1207,"owever":1208,"Ġdifferent":1209,"$-":1210,"serv":1211,"cdot":1212,"ĠSp":1213,"figure":1214,"Ġpartic":1215,"yle":1216,"Ġchar":1217,"Ġmin":1218,"eries":1219,"Ġboth":1220,"son":1221,"Con":1222,"Ġfollowing":1223,"ĠLe":1224,"Ġvari":1225,"aj":1226,"ife":1227,"plic":1228,"Ġnon":1229,"ĠAn":1230,"ample":1231,"def":1232,"}$,":1233,"ĠUnited":1234,"Ġsur":1235,"}$.":1236,"Ġduring":1237,"arly":1238,"ĠX":1239,"ically":1240,"Ġdesc":1241,"Ġterm":1242,"Pro":1243,"Ġam":1244,"ĠUniversity":1245,"ected":1246,"Ġyears":1247,"Âł":1248,"arrow":1249,"big":1250,"Ġhim":1251,"ootball":1252,"Ġac":1253,"irc":1254,"}(\\":1255,"nu":1256,"ages":1257,"Ġtr":1258,"reat":1259,"',":1260,"for":1261,"Ġorder":1262,"ause":1263,"Ġvalue":1264,"Ġhigh":1265,"ĠCl":1266,"rent":1267,"elop":1268,"ices":1269,"))":1270,"mm":1271,"ouse":1272,"Ġperform":1273,"times":1274,"sec":1275,"Ġusing":1276,"quad":1277,"Ġrequ":1278,"gy":1279,"mp":1280,"Ġgiven":1281,"partial":1282,"Ġfin":1283,"ĠCon":1284,"uth":1285,"uch":1286,"ments":1287,"ĠDe":1288,"eqref":1289,"Ġteam":1290,"ulation":1291,"ural":1292,"rang":1293,"Ġrele":1294,"Ġget":1295,"oid":1296,"ner":1297,"Ġwhile":1298,"overn":1299,"Ġfam":1300,"Ġlead":1301,"ĠAs":1302,"ines":1303,"Ġcre":1304,"Ġlinks":1305,"Ġdet":1306,"Ġconsider":1307,"ten":1308,"Ġdirect":1309,"omega":1310,"Ġyou":1311,"000":1312,"span":1313,"ired":1314,"ived":1315,"Ġback":1316,"other":1317,"ml":1318,"essage":1319,"24":1320,"(\"":1321,"arch":1322,"ining":1323,"pm":1324,"ively":1325,"ript":1326,"chi":1327,"ple":1328,"Ch":1329,"Ġart":1330,"();":1331,"by":1332,"ĠSc":1333,"au":1334,"usic":1335,"ink":1336,"ina":1337,"ases":1338,"ather":1339,"tilde":1340,"Ġmon":1341,"External":1342,"center":1343,"ross":1344,"Ġplayers":1345,"eqn":1346,"Ġdisc":1347,"iver":1348,"fty":1349,"ober":1350,"Ġmade":1351,"umn":1352,"infty":1353,"Ġsmall":1354,"ays":1355,"Ġbeing":1356,"erson":1357,"yp":1358,"|\\":1359,"vent":1360,"Ġz":1361,"rid":1362,"arge":1363,"ĠEng":1364,"ots":1365,"Ġpop":1366,"Ġfact":1367,"work":1368,"ask":1369,"Ġknown":1370,"fore":1371,"istory":1372,"Delta":1373,"23":1374,"ott":1375,"resp":1376,"fl":1377,"rop":1378,"ohn":1379,"Ġwrit":1380,"div":1381,"Ġem":1382,".\"":1383,"iving":1384,"rt":1385,"space":1386,".,":1387,"Ġmed":1388,"ality":1389,"ike":1390,"vers":1391,"me":1392,"ley":1393,"Ġtype":1394,"ology":1395,"bum":1396,"Ġmethod":1397,"ths":1398,"Ġmany":1399,"ared":1400,"Ġcount":1401,"ĠStates":1402,"ential":1403,"ets":1404,"Ġmain":1405,"Ġappe":1406,"hes":1407,"Ġstr":1408,"ĠĠĠĠĠĠĠĠĠ":1409,"ole":1410,"Ġlater":1411,"Ġfour":1412,"></":1413,"omen":1414,"els":1415,"\\,":1416,"rix":1417,"50":1418,"ission":1419,"enn":1420,"ograph":1421,"tr":1422,"--------":1423,"Ġlong":1424,"ĠShe":1425,"led":1426,"Ġstart":1427,"Ġeffect":1428,"ĠĠĊ":1429,"Com":1430,"aid":1431,"ĠOn":1432,"\".":1433,"ĠIs":1434,"ange":1435,"Ġorig":1436,"ified":1437,"Ġdevelop":1438,"Ġbefore":1439,"ency":1440,"orem":1441,"Ġrecord":1442,"Ġresults":1443,"Ġran":1444,"iew":1445,"til":1446,"Ġsince":1447,"Ġrepresent":1448,"cit":1449,"lation":1450,"ood":1451,"xi":1452,"Ġbel":1453,"une":1454,"cept":1455,"ER":1456,"ior":1457,"includ":1458,"Ġ*/":1459,"very":1460,"Ġ$(":1461,"Ġcontin":1462,"ĠCount":1463,"ĠAd":1464,"Ġobtain":1465,"Ġbir":1466,"ane":1467,"Ġ`":1468,"ague":1469,"Ġel":1470,"ead":1471,"Ġparamet":1472,"lang":1473,"ept":1474,"Ġobserv":1475,"anc":1476,"Ġbro":1477,"mod":1478,"Ġelect":1479,"ister":1480,"Ġseason":1481,"}[":1482,"iqu":1483,"Ġincluding":1484,"Ġfootball":1485,"193":1486,")$.":1487,"====":1488,"Ġadd":1489,"arri":1490,"><":1491,"Ġmet":1492,"not":1493,"ĉĉĉ":1494,"Ġmov":1495,"gram":1496,"ret":1497,"where":1498,"read":1499,"Ġdescrib":1500,"Ġpresent":1501,"ument":1502,"****":1503,"}}\\":1504,"ability":1505,"$$":1506,"Ġbound":1507,"ĠComm":1508,"sq":1509,"Ġestabl":1510,"ribut":1511,"Ġseries":1512,"Ġrun":1513,"Ġapp":1514,"lex":1515,"Ġstruct":1516,"Ġsupport":1517,"agn":1518,"ector":1519,"Ġ,":1520,"sk":1521,"Ġalbum":1522,"formation":1523,"Ġschool":1524,"log":1525,"Ġfinal":1526,"ĠFran":1527,"ives":1528,"Ġanal":1529,"action":1530,"ival":1531,"Ġproper":1532,"epsilon":1533,"Ġbased":1534,"Ġlarge":1535,"mbol":1536,"back":1537,"ĠNational":1538,"../../":1539,"arn":1540,"ĠPh":1541,"ĠĠĠĠĠĠĠĠĠĠĠĠĠĠĠĠĠĠĠ":1542,"Ġtest":1543,"27":1544,"ĠJohn":1545,"sim":1546,"Om":1547,"eqnarray":1548,"ai":1549,"chn":1550,"ĠWorld":1551,"Ġlist":1552,"Ġlocal":1553,"view":1554,"Ġmeas":1555,"ĠMay":1556,"Ġdep":1557,"bl":1558,"Ġagainst":1559,"Ġmass":1560,"this":1561,"Ġbuild":1562,"Ġprocess":1563,"IN":1564,"26":1565,"inc":1566,"Ġsee":1567,"Ġpres":1568,"uro":1569,"âĢĿ":1570,"}_{\\":1571,"ribution":1572,"28":1573,"ĠPl":1574,"Ġexper":1575,"etwork":1576,"Ġnow":1577,"lev":1578,"aking":1579,"ST":1580,"For":1581,"psi":1582,"ccess":1583,"On":1584,"raw":1585,"ĠAust":1586,"oss":1587,"Ġimp":1588,"Omega":1589,"Ġbecame":1590,"Ġsever":1591,"atch":1592,"esc":1593,"Ġmult":1594,"urch":1595,"ĠEx":1596,"Ġ_":1597,"anu":1598,"Ġown":1599,"ank":1600,"energy":1601,"ength":1602,"ger":1603,"Ġcharact":1604,"It":1605,"Ġgu":1606,"Ġgeneral":1607,"^*":1608,"Ġrece":1609,"ually":1610,"iam":1611,"ĠFig":1612,"Ġright":1613,"2010":1614,"ful":1615,"urther":1616,"ĠWar":1617,"Ġopen":1618,"olution":1619,"Ġcondition":1620,"trans":1621,"Ġdr":1622,"Ġdesign":1623,"Ph":1624,"ĠAss":1625,"itle":1626,"respond":1627,"Ġcontain":1628,"Ġrad":1629,"ternational":1630,"amed":1631,"umer":1632,"rand":1633,"Ġcould":1634,"name":1635,"ĠCar":1636,"ON":1637,"Ġ#":1638,"ital":1639,"vious":1640,"Ġrespect":1641,"fra":1642,"Ġincre":1643,")$,":1644,"Ġneed":1645,"Ġlim":1646,"Ġtop":1647,"cer":1648,"por":1649,"med":1650,"Ġbecause":1651,"ĠYork":1652,"Ġopt":1653,"Gamma":1654,"sqrt":1655,"Ġcalled":1656,"color":1657,"par":1658,"rack":1659,"Ġself":1660,"Ġposs":1661,"Ġfamily":1662,"ĠBl":1663,"vert":1664,"ĠBrit":1665,"ians":1666,"af":1667,"html":1668,"100":1669,"Ġspace":1670,"psilon":1671,"rodu":1672,"co":1673,"Name":1674,"Cl":1675,"ants":1676,"rol":1677,"('":1678,"ĠCounty":1679,"ĠCan":1680,"2015":1681,"ĠJul":1682,"40":1683,"Ġprof":1684,"rist":1685,"itial":1686,"ify":1687,"ule":1688,"|-":1689,"Ġproblem":1690,"2016":1691,"overnment":1692,"29":1693,"Ġdue":1694,"2017":1695,"reg":1696,"ided":1697,"2018":1698,"source":1699,"AR":1700,"textbf":1701,"aint":1702,"):":1703,"ody":1704,"ĠSchool":1705,"subsection":1706,"Ġerr":1707,"Ġtem":1708,"Ġevery":1709,"Ġsingle":1710,"Ġstat":1711,"Res":1712,"embers":1713,"Ġrema":1714,"Ġpar":1715,"2014":1716,"Ġsong":1717,"ration":1718,"ised":1719,"Ġ${\\":1720,"cm":1721,"omet":1722,"Ġcurrent":1723,"ness":1724,"Ġrefer":1725,"wards":1726,"reen":1727,"Ġhref":1728,"ium":1729,"ĠNov":1730,"arian":1731,"Ġuntil":1732,"aces":1733,"2019":1734,"imens":1735,"itive":1736,"ĠGerm":1737,"ison":1738,"ĠSouth":1739,"position":1740,"Ġdeath":1741,"bm":1742,"ler":1743,"2011":1744,"2012":1745,"ense":1746,"2020":1747,"Ġallow":1748,"ersion":1749,"vare":1750,"ety":1751,"This":1752,"ird":1753,"2013":1754,"Ġassum":1755,"ajor":1756,"Id":1757,"capt":1758,"umb":1759,"ithm":1760,"ĠAt":1761,"Ġ)":1762,"Ġfind":1763,"rightarrow":1764,"raphics":1765,"ĠOr":1766,"Ġvery":1767,"Ġseveral":1768,"}=":1769,"ugust":1770,"ience":1771,"Ġrest":1772,"Ġocc":1773,"Ġpolit":1774,"Ġcare":1775,"add":1776,"ateg":1777,"ven":1778,"ĠGe":1779,"Ġu":1780,"use":1781,"Ġimport":1782,"pp":1783,"^{(":1784,"Ġcommun":1785,"ij":1786,"message":1787,"Ġhand":1788,"ault":1789,"ĠHowever":1790,"ilar":1791,"varepsilon":1792,"eptember":1793,"ground":1794,"dd":1795,"class":1796,"Ġrem":1797,"Ġcorrespond":1798,"Type":1799,"Ġnear":1800,"ampions":1801,"AT":1802,"alse":1803,"Ġref":1804,"import":1805,"ended":1806,"Ġscal":1807,"Ġobject":1808,"As":1809,"str":1810,"ament":1811,"ĠCent":1812,"Ġpass":1813,"Ġalong":1814,"Ġarea":1815,"}^{\\":1816,"ides":1817,"ception":1818,"olv":1819,"caption":1820,"Ġleft":1821,"play":1822,"2008":1823,"rem":1824,"rangle":1825,"ica":1826,"Ġshould":1827,"org":1828,"anuary":1829,"non":1830,"born":1831,"Ġenergy":1832,"Ġaddition":1833,"ift":1834,"ilt":1835,"ctober":1836,"tab":1837,")=":1838,"arm":1839,"Ġstand":1840,"Ġelement":1841,"Ġmusic":1842,"face":1843,"bold":1844,"ae":1845,"td":1846,"ĠTe":1847,"iod":1848,"istor":1849,"ately":1850,"requ":1851,"Al":1852,"Ġident":1853,"self":1854,"2009":1855,"Ġlast":1856,"ĠâĢľ":1857,"Ġ\\,":1858,"SS":1859,"String":1860,"ĠMarch":1861,"Ġwin":1862,"Ġwithin":1863,"Ġprogram":1864,"ĠčĊ":1865,"Ġ>":1866,"Ġlike":1867,"gor":1868,"Ġchild":1869,"ero":1870,"lish":1871,"ĠPar":1872,"lim":1873,"opt":1874,"Ġevent":1875,"Ġcal":1876,"Ġestim":1877,"mber":1878,"Ġeven":1879,"Ġorgan":1880,"ivate":1881,"ĠAugust":1882,"List":1883,"ĠSeptember":1884,"Ġpower":1885,"Ġdoes":1886,"ene":1887,"Ġlevel":1888,"pril":1889,"Un":1890,"oman":1891,"oard":1892,"bs":1893,"egraphics":1894,"Ġ--":1895,"includegraphics":1896,"2007":1897,"ĠPol":1898,"Ġproject":1899,"ĠPr":1900,"Ġreal":1901,"side":1902,"Ġjust":1903,"wh":1904,"ym":1905,"Ġexpl":1906,"Ġthose":1907,"ĠII":1908,"''":1909,"be":1910,"Ġoffic":1911,"ependent":1912,"2006":1913,"lege":1914,"ators":1915,"dis":1916,"Ġlife":1917,"Ġann":1918,"ĠJanuary":1919,"aper":1920,"://":1921,"Ġgame":1922,"Ġmeasure":1923,"emph":1924,"ĠOctober":1925,"ĠâĢĶ":1926,"ampl":1927,"To":1928,"Ġabove":1929,"type":1930,"Ġread":1931,"Ġinteg":1932,"Ġden":1933,"return":1934,"Ġband":1935,"comm":1936,"Ġav":1937,"Ġcap":1938,"ording":1939,"field":1940,"less":1941,"Ar":1942,"Ġsum":1943,"Ġlarg":1944,"pon":1945,"Ġvalues":1946,"\"/":1947,"eed":1948,"ID":1949,"ream":1950,"ĠJune":1951,"xim":1952,"Ġdi":1953,"Ġtot":1954,"ification":1955,"Ġreport":1956,"new":1957,"cember":1958,"varphi":1959,"Ġformer":1960,"code":1961,"Ġgra":1962,"60":1963,"ormal":1964,"ĠAll":1965,"iter":1966,"posed":1967,"Ġplayed":1968,"Ġprot":1969,"ensity":1970,"ĠRep":1971,"omin":1972,"Ġhead":1973,"ruction":1974,"Ġsaid":1975,"Ġlaw":1976,".~\\":1977,"RE":1978,"ĠWh":1979,"ĠJuly":1980,"see":1981,"gorithm":1982,"arget":1983,"ĠAustral":1984,"Ġcontinu":1985,"param":1986,"Ġsl":1987,"Ġplace":1988,"ĠĠĠĠĠĠĠĠĠĠĠĠĠĠĠĠĠĠĠĠĠĠĠĠĠĠĠĠĠĠĠĠ":1989,"rel":1990,"ble":1991,"ope":1992,"uthor":1993,"Ġaround":1994,"alth":1995,"Ġexample":1996,"ffic":1997,"ĠMin":1998,"itions":1999,"ĠApril":2000,"Ġdid":2001,"Ġreleased":2002,"Ġhel":2003,"ĠGu":2004,"loc":2005,"Ġvis":2006,"Ġche":2007,"aster":2008,"An":2009,"Ġconn":2010,"ats":2011,"ches":2012,"ĠEuro":2013,"Ġtri":2014,"32":2015,"190":2016,"Ġsat":2017,"Ġcharacter":2018,"ious":2019,"aving":2020,"ored":2021,"ography":2022,"Ġsize":2023,"ĠCal":2024,"idd":2025,"ache":2026,"geq":2027,".}":2028,"urg":2029,"frak":2030,"no":2031,"Ġgl":2032,"ĠAnd":2033,"ĠThey":2034,"See":2035,"with":2036,"Ġbook":2037,"ting":2038,"ords":2039,"Ġwon":2040,"ĠNovember":2041,"order":2042,"ĠIf":2043,"iment":2044,"Ġmake":2045,"Ġearly":2046,"ĠNorth":2047,"ling":2048,"Ġparticular":2049,"Ġnetwork":2050,"Ġbirths":2051,"Ġpubl":2052,"table":2053,"ĠCity":2054,"symbol":2055,"ĠDecember":2056,"Ġder":2057,"Ġsimilar":2058,"&\\":2059,"Ġcomput":2060,"ĠReg":2061,"oad":2062,"ĠBritish":2063,"overline":2064,"ung":2065,"arent":2066,"urs":2067,"ze":2068,"Ġspect":2069,"ĠState":2070,"\"/>":2071,"Val":2072,"odes":2073,"atter":2074,"proof":2075,"[\\":2076,"eff":2077,"vec":2078,"ilit":2079,"Ġ!":2080,"ĠMan":2081,"duct":2082,"Ġprevious":2083,"Ġshown":2084,"akes":2085,"aim":2086,"Ġquant":2087,"ĠLeague":2088,"Ġsection":2089,"refore":2090,"century":2091,"Ġwhat":2092,"Ġmap":2093,"ampionship":2094,"Ġtrue":2095,"ances":2096,"ĠĠĠĠĠĠ":2097,"iness":2098,"ĠRes":2099,"Ġinformation":2100,"Ġway":2101,"He":2102,"ape":2103,"Ġworld":2104,"stit":2105,"atures":2106,"Ġtotal":2107,"...":2108,"Ġ=>":2109,"}).":2110,"ensure":2111,"Ġdem":2112,")^":2113,"ebru":2114,"Ġcrit":2115,"Ġbas":2116,"Big":2117,"cul":2118,"},\\":2119,"ris":2120,"uk":2121,"Ġmodels":2122,"Ġinitial":2123,"ĠSy":2124,"ebruary":2125,"roll":2126,"Ġdescribed":2127,"Ġfollows":2128,"Ġsuccess":2129,"ham":2130,"oper":2131,"rag":2132,"80":2133,"lear":2134,"ped":2135,"33":2136,"90":2137,"Ġbeh":2138,"2000":2139,"ĠBe":2140,"etail":2141,"apan":2142,"Ġintrodu":2143,"Ġclos":2144,"leg":2145,"time":2146,"Ġcity":2147,"Ġhig":2148,"45":2149,"##":2150,"imal":2151,"Ġaction":2152,"cont":2153,"Ġassoci":2154,"Ġdown":2155,"Ġpoints":2156,"Ġdefined":2157,"aced":2158,"fo":2159,"gin":2160,"off":2161,"ales":2162,"ially":2163,"mmet":2164,"cor":2165,"ixed":2166,"ourn":2167,"mathfrak":2168,"Ġlow":2169,"Ġfilms":2170,"2005":2171,"};":2172,"ĠCanad":2173,"ĠAf":2174,"Ġperiod":2175,"uage":2176,"boldsymbol":2177,"script":2178,"ĠWill":2179,"Ġmembers":2180,"istic":2181,"ĠEurope":2182,"hline":2183,"bra":2184,"Ġstill":2185,"Ã¡":2186,"ĠKing":2187,"Ġet":2188,"Ġtechn":2189,"ination":2190,"Ġarg":2191,"Ġcompet":2192,"ugg":2193,"levision":2194,"Ġtrad":2195,"Ġtyp":2196,"Lambda":2197,"ynam":2198,"urb":2199,"Ġdeterm":2200,"ties":2201,"unc":2202,"Ġeng":2203,"__":2204,"plit":2205,"ino":2206,"Ġredu":2207,"orph":2208,"Ġshort":2209,"Ġvar":2210,"2021":2211,"ories":2212,"Ġperson":2213,"ius":2214,"ries":2215,"sequ":2216,"Ġmajor":2217,"Ġwomen":2218,"Col":2219,"Ġhow":2220,"Ġland":2221,"Ġpred":2222,"}}$":2223,"Ġnull":2224,"ĠSec":2225,"Ġcareer":2226,"Ġshows":2227,"ĠFebruary":2228,"uild":2229,"Ġlet":2230,"Ġterms":2231,"lected":2232,"Ġmuch":2233,"Ġexist":2234,"Ġcomplet":2235,"Ġgovernment":2236,"64":2237,"American":2238,"ression":2239,"Ġpost":2240,"etic":2241,"Ġinclude":2242,"eter":2243,"rench":2244,"OR":2245,"Let":2246,"Ġmust":2247,"Ġdiv":2248,"langle":2249,"35":2250,"LE":2251,"ĠCo":2252,"empt":2253,"ush":2254,"Ġcour":2255,"htt":2256,"Ġ==":2257,"ster":2258,"reak":2259,"Ġdeg":2260,"2004":2261,"Sp":2262,"inter":2263,"Ġstring":2264,"rr":2265,"ux":2266,"\")":2267,"Ġstudy":2268,"ony":2269,"mbox":2270,"ldots":2271,"ources":2272,"though":2273,"ese":2274,"ĠAfter":2275,"rap":2276,"Ġhold":2277,"ĠPart":2278,"Ġmark":2279,"Ġadv":2280,"lor":2281,"Ġbest":2282,"Ġtitle":2283,"alk":2284,"exp":2285,"Ġnamed":2286,"Ġpopulation":2287,"Ġtown":2288,"Ġmember":2289,"const":2290,"illion":2291,"Ġdistribution":2292,"Ġmax":2293,"Ġkey":2294,"Ġstructure":2295,"Ġregion":2296,"inition":2297,"Ġpat":2298,"translation":2299,"usiness":2300,"Ġdepend":2301,"ering":2302,"ription":2303,"Ġleg":2304,"de":2305,"but":2306,"Ġstates":2307,"ĠArm":2308,"ysis":2309,"iles":2310,"day":2311,"ĠEd":2312,"Ġnext":2313,"Ġinterest":2314,"key":2315,"appa":2316,"ĠUS":2317,"ĠSe":2318,"Ġcomb":2319,"Ġwithout":2320,"75":2321,"AL":2322,"ana":2323,"Ġestablished":2324,"ĠChrist":2325,"citep":2326,"iron":2327,"rum":2328,"ĠBy":2329,"ĠDist":2330,"value":2331,"raft":2332,"top":2333,"ivity":2334,"Ġhome":2335,"isf":2336,"Ġpo":2337,"Ġbegan":2338,"Ġold":2339,"Ġaff":2340,"Ġiss":2341,"Ġaver":2342,"By":2343,"Phi":2344,"ocial":2345,"Ġmanag":2346,"ĠSup":2347,"Ġlocated":2348,"head":2349,"mult":2350,"iction":2351,"Ġchang":2352,"Ġtake":2353,"ological":2354,"nabl":2355,"ique":2356,"Ġdiscuss":2357,"otential":2358,"Ġaut":2359,"ered":2360,"ention":2361,"ĠRe":2362,"Ġheld":2363,"Ġanother":2364,"Ġclub":2365,"Ġvoid":2366,"ĠEnglish":2367,"Ġconf":2368,"style":2369,"Ġstyle":2370,"osp":2371,"oll":2372,"Ġstation":2373,"ounc":2374,"Ġapproxim":2375,"70":2376,"ves":2377,"ĠSw":2378,"Ġoriginal":2379,"Ġstrong":2380,"ava":2381,"')":2382,"ideo":2383,"ude":2384,"bit":2385,"ĠBar":2386,"Ġalign":2387,"Ġsk":2388,"ĠHis":2389,"ĠWest":2390,"alf":2391,"ĠMc":2392,"Ġmagn":2393,"ges":2394,"ĠRec":2395,"textit":2396,"Ġvol":2397,"ĠHar":2398,"Ġvill":2399,"Ġret":2400,"sf":2401,".\\":2402,"box":2403,"Ġep":2404,"ently":2405,"adem":2406,"189":2407,"Ġinf":2408,"eak":2409,"ĠJapan":2410,"idual":2411,"ww":2412,"string":2413,"ither":2414,"AC":2415,"Ġcar":2416,"search":2417,"Ġla":2418,"ĠNo":2419,"Ġcompon":2420,"kappa":2421,"otimes":2422,"Ġtimes":2423,"Ġcompany":2424,"Ġappear":2425,"Ġcho":2426,"SE":2427,"31":2428,"Ġside":2429,"ii":2430,"itor":2431,"Ġversion":2432,"Ġposition":2433,"rite":2434,"Ġprivate":2435,"data":2436,"ser":2437,"rew":2438,"uman":2439,"eneral":2440,"Ġpossible":2441,"mat":2442,"Ġprom":2443,"Ġcorre":2444,"'t":2445,"ends":2446,"hold":2447,"Ġview":2448,"Ġmean":2449,"ĠEl":2450,"Ind":2451,"ondon":2452,"],":2453,"pd":2454,"ĠThere":2455,"})$":2456,"Ġtook":2457,"Ġcou":2458,"Ġfeature":2459,"otes":2460,"ĠCor":2461,"subset":2462,"Ġdensity":2463,"circ":2464,"Ġreceived":2465,"imum":2466,"Ġphot":2467,"Sh":2468,"\\%":2469,"lete":2470,"Ġtheory":2471,"Ġimportant":2472,"Ġdel":2473,"2003":2474,"Ġjo":2475,"\"><":2476,"aul":2477,"Ġfr":2478,"nonumber":2479,"uff":2480,"Ġsequ":2481,"ĠMed":2482,"}),":2483,"sl":2484,"Ġhistory":2485,"pose":2486,"Ġfurther":2487,"Ġday":2488,"ĠAfric":2489,"ume":2490,"ables":2491,"DE":2492,"ĠTo":2493,"eder":2494,"ford":2495,"ransp":2496,"Ġgames":2497,"Ġthird":2498,"Ġparameters":2499,"Ġknow":2500,"Pl":2501,"ĠĠĠĠĠĠĠĠĠĠĠĠĠ":2502,"size":2503,"ek":2504,"Ġrepl":2505,"Ġphys":2506,"ille":2507,"Ġhouse":2508,"Ġrange":2509,"Ġpublished":2510,"Ġalgorithm":2511,"Ġfalse":2512,"icle":2513,"rown":2514,"rest":2515,"inally":2516,"Ġbuilt":2517,"Ġsignific":2518,"Ġturn":2519,"Ġfull":2520,"Ob":2521,"Ġsep":2522,"Ġobtained":2523,"ĠThen":2524,"ĠCollege":2525,"Ġarch":2526,"lin":2527,"Ġage":2528,"Ġfive":2529,"nabla":2530,"Ġred":2531,"Sigma":2532,"Ġelse":2533,"arried":2534,"ĠAb":2535,"rick":2536,"Ġsix":2537,"AN":2538,"\\|":2539,"Ġcontrol":2540,"ights":2541,"Ps":2542,"ocument":2543,"Ġcomplex":2544,"Ġprofess":2545,"Ġincluded":2546,"Ġnational":2547,"ensuremath":2548,"Ġmy":2549,"ĠRuss":2550,"Ġserved":2551,"Ġinvest":2552,"Ġ``":2553,"Ġlang":2554,"ones":2555,"rary":2556,"Ġcompos":2557,"dom":2558,"Ġid":2559,"65":2560,"Ġsatisf":2561,"na":2562,"indow":2563,"EN":2564,"go":2565,"Ġstandard":2566,"2002":2567,"Ġfunctions":2568,"iple":2569,"Ġgraph":2570,"ĠSan":2571,"Ġcover":2572,"ĠEn":2573,"34":2574,"Ġperformance":2575,"Ġpotential":2576,"ĠLondon":2577,"Ġlimit":2578,"Ġmot":2579,"uck":2580,"ocus":2581,"Ġcentury":2582,"Ġmatrix":2583,"Ġenc":2584,"Ġq":2585,"wide":2586,"Ġeduc":2587,"Ġborn":2588,"ĠThese":2589,"\\!":2590,"Ġconsidered":2591,"sup":2592,"Ġservice":2593,"Ġfew":2594,"amples":2595,"ald":2596,"Ġpaper":2597,"max":2598,"ilitary":2599,"ĠHigh":2600,"ĠYou":2601,"Data":2602,"Ġspecies":2603,"Ġindic":2604,"ĠAm":2605,"Ġwar":2606,"AS":2607,"estern":2608,"ĠFrench":2609,"clus":2610,"ĠChampionship":2611,"ĠMe":2612,"ailable":2613,"uation":2614,"ĠAir":2615,"br":2616,"pre":2617,"Ġrole":2618,"iet":2619,"Ġ&&":2620,"Ġeas":2621,"Ġport":2622,"ways":2623,"Ġsit":2624,"Ġwid":2625,"Ġcommon":2626,"obal":2627,"ĠWilliam":2628,"Ġerror":2629,"aly":2630,"}}{":2631,"esp":2632,"2001":2633,"Ġvarious":2634,"ett":2635,"mary":2636,"uration":2637,"Ġoften":2638,"oph":2639,"dots":2640,"IT":2641,"artment":2642,"Ġamong":2643,")(":2644,"ouncil":2645,"Ġauthor":2646,"Ġelection":2647,"188":2648,"ington":2649,"Ġvert":2650,"Ġhere":2651,"Ġcamp":2652,"cast":2653,"Ġchildren":2654,"ĠChar":2655,"conom":2656,"Ġproduct":2657,"now":2658,"Ġless":2659,"Ġstar":2660,"99":2661,"utions":2662,"Ġtelevision":2663,"Ġpath":2664,"ĠSch":2665,"Ġrespectively":2666,"Ġwritten":2667,"olic":2668,"ĠGerman":2669,"Ġplayer":2670,"Ġcross":2671,"Ġtext":2672,"Ġgood":2673,"ividual":2674,"ients":2675,"iff":2676,"Ġlower":2677,"Ġspecial":2678,"ĠDistrict":2679,"Ã³":2680,"Ġsepar":2681,"Ġmatch":2682,"lymp":2683,"Ġsw":2684,"iber":2685,"AM":2686,"unic":2687,"38":2688,"Ġide":2689,"Ġequation":2690,"Ġimpro":2691,"ayer":2692,"CO":2693,"Ġpri":2694,"viron":2695,"ops":2696,"Ġtraining":2697,"48":2698,"Ġtarget":2699,"Ġsolution":2700,"Ġmen":2701,"Ġsystems":2702,"/\\":2703,"Ġdetail":2704,"reet":2705,"Ġinvolv":2706,"aut":2707,"********":2708,"----------------":2709,"Ġrate":2710,"ĠHer":2711,"avy":2712,"widet":2713,"Ġfree":2714,"36":2715,"inary":2716,"Ġconstant":2717,"Ġaverage":2718,"Ġrelations":2719,"Ġconsist":2720,"annel":2721,"iev":2722,"Ġfac":2723,"Ġapplic":2724,"Ġ($":2725,"Ġfore":2726,"ief":2727,"Ġlight":2728,"Ġlog":2729,"andom":2730,"prime":2731,"cap":2732,"ĠArt":2733,"\\[":2734,"Ġdiff":2735,"ought":2736,"ĠBro":2737,"Ġbuilding":2738,"ĠCup":2739,"Ġpair":2740,"Ġsignificant":2741,"II":2742,"ship":2743,"Ġapproach":2744,"ĠHouse":2745,"Sc":2746,"ĠDav":2747,"ĠAng":2748,"Ġbase":2749,"Ġsuper":2750,"Ġattack":2751,"Ġair":2752,"ĠPres":2753,"Value":2754,"Ġcoll":2755,"Ġcorresponding":2756,"ught":2757,"centering":2758,"ĠPark":2759,"point":2760,"Ġchange":2761,"Ġhowever":2762,"Ġdat":2763,"anish":2764,"Ġprim":2765,"widetilde":2766,"Ġanalysis":2767,"asing":2768,"ĠOne":2769,"ĠComp":2770,"abor":2771,"ĠLet":2772,"ula":2773,"Ġhy":2774,"Ġflow":2775,"group":2776,"Ġwater":2777,"ured":2778,"aken":2779,"ploy":2780,"Ġevents":2781,"node":2782,"Ġparameter":2783,"~~":2784,"Ġcy":2785,"Ġ%":2786,"Ġsem":2787,"stand":2788,"atural":2789,"////":2790,"Ġsource":2791,"ĠĠĠĠĠĠĠĠĠĠĠĠĠĠĠĠĠĠĠĠĠĠĠ":2792,"ridge":2793,"mar":2794,"flu":2795,"irection":2796,"opy":2797,"{-":2798,"Ġstatic":2799,"Ġcalcul":2800,"Ġcases":2801,"isc":2802,"Ġfeatures":2803,"function":2804,"Re":2805,"ours":2806,"($":2807,"alt":2808,"scal":2809,"Ġleast":2810,"test":2811,"Ġcirc":2812,"Mod":2813,"Ġbusiness":2814,"Ġbi":2815,"Ġclaim":2816,"}-":2817,"Ġinput":2818,"ociation":2819,"Ġtemper":2820,"Int":2821,"ervice":2822,"\");":2823,"reed":2824,"37":2825,"ĠAct":2826,"Cont":2827,"ĠMon":2828,"ĠĠĠĠĊ":2829,"Ġinc":2830,"Ġdied":2831,"Ġphase":2832,"aterial":2833,"Ġnorth":2834,"1999":2835,"Ġbecome":2836,"Ġhigher":2837,"Ġproduction":2838,"39":2839,"Fig":2840,"ĠInternational":2841,"========":2842,"ably":2843,"ĠLa":2844,"ĠQu":2845,"Ġneg":2846,"inn":2847,"ware":2848,"draw":2849,"ĠPhil":2850,"idence":2851,"Ġfail":2852,"Ġarm":2853,"ĠDep":2854,"Ġdimens":2855,"ising":2856,"chiev":2857,"Ġworks":2858,"itect":2859,"Ġavailable":2860,"Ġimage":2861,"Ġant":2862,"rim":2863,"ached":2864,"thm":2865,"iforn":2866,"Ġfrequ":2867,"oted":2868,"Ġcountry":2869,"util":2870,"era":2871,"Ġhaving":2872,"Ġlength":2873,"ules":2874,"55":2875,"ÃŃ":2876,"44":2877,";\\":2878,"Ġcer":2879,"Ġthus":2880,"ĠPer":2881,"ĠGl":2882,"Living":2883,"ĠAg":2884,"tabular":2885,"Ġindependent":2886,"ĠChe":2887,"Ġge":2888,"Ġpract":2889,"attle":2890,"roid":2891,"duc":2892,"Ġgroups":2893,"1990":2894,"Ġ/**":2895,"ĠEq":2896,"onse":2897,"Ġvillage":2898,"lying":2899,"Ġround":2900,"gl":2901,"Ġconditions":2902,"Ġblack":2903,"ifornia":2904,"ued":2905,"Ġnov":2906,"Ġhost":2907,"rig":2908,"BC":2909,"rain":2910,"most":2911,"Ġannoun":2912,"ogn":2913,"Ġtw":2914,"Ġeither":2915,"ĠLem":2916,"ĠIndian":2917,"ociety":2918,"));":2919,"ara":2920,"file":2921,"oyal":2922,"uggest":2923,"bb":2924,"cur":2925,"Ġgen":2926,"ference":2927,"Ġproduced":2928,"ĠVal":2929,"sw":2930,"Ã¼":2931,"Ġindividual":2932,"oon":2933,"Ġloss":2934,"01":2935,"ĠWhen":2936,"2022":2937,"âĢĶ":2938,"Ġconv":2939,"alax":2940,"05":2941,"1998":2942,"Ġhelp":2943,"\\{":2944,"burg":2945,"IC":2946,"map":2947,"Ġson":2948,"}+":2949,"iven":2950,"ransport":2951,"zeta":2952,"rc":2953,"];":2954,"People":2955,"Ġcreated":2956,"omb":2957,"orge":2958,"Ġgrow":2959,"Ġlines":2960,"oment":2961,"Ġassociated":2962,"Ġ&=":2963,"Ġnumer":2964,"ĠDiv":2965,"Ġsent":2966,"uf":2967,"ĠEngland":2968,"ĠMich":2969,"ĠRiver":2970,"Ġabs":2971,"Ġlinear":2972,"Ġmethods":2973,"uture":2974,"omorph":2975,"iol":2976,"ards":2977,"Ġhistor":2978,"Ġsouth":2979,"Ġresearch":2980,"ournal":2981,"nb":2982,"ico":2983,"Ġcell":2984,")=\\":2985,"hib":2986,"och":2987,"Ġear":2988,"Ġkill":2989,"Ġnode":2990,"Ġled":2991,"ama":2992,"bor":2993,"Ġestablish":2994,"ĠTheorem":2995,"Ġmer":2996,"Ġdevelopment":2997,"lands":2998,"Ġrecent":2999,"AP":3000,"useum":3001,"load":3002,"based":3003,"which":3004,"Ġseen":3005,"Ġbecom":3006,"hern":3007,"EC":3008,"cy":3009,"nder":3010,"Ġbelow":3011,"ilter":3012,"state":3013,"raction":3014,"Set":3015,"sin":3016,"ending":3017,"ĠCalifornia":3018,"aff":3019,"vironment":3020,"Ġproperty":3021,"Ġhom":3022,"49":3023,"Exception":3024,"Ġdom":3025,"ouble":3026,"Ġgreat":3027,"Ġpositive":3028,"History":3029,"Ġvector":3030,"comp":3031,"Ġproof":3032,"Ġsite":3033,"orts":3034,"}]":3035,"ension":3036,"list":3037,"gether":3038,"Ġtogether":3039,"ems":3040,"chan":3041,"rant":3042,"Ġregular":3043,"Ġconstruct":3044,"\\]":3045,"Ġrandom":3046,"ibility":3047,"Ġproperties":3048,"Ġfocus":3049,"Ġprovide":3050,"ressed":3051,"kn":3052,"Ġsymmet":3053,"Ġfund":3054,"}=\\":3055,"Ġcult":3056,"Ġlabel":3057,"Ġachiev":3058,"cle":3059,"eh":3060,"Ġcost":3061,"urity":3062,"Ġins":3063,"ĠAc":3064,"plies":3065,"With":3066,"Object":3067,"Ġsuggest":3068,"If":3069,"ĠAustralia":3070,")}\\":3071,"cher":3072,"Ġcommunity":3073,"Ġmillion":3074,"Ġground":3075,"mon":3076,"rror":3077,"Ġvia":3078,"ĠParty":3079,"down":3080,")^{":3081,"ecess":3082,"itted":3083,"ittle":3084,"ordin":3085,"ivil":3086,"{(":3087,"Ġexec":3088,"Ġsm":3089,"ander":3090,"ĠSection":3091,"Ġdistrict":3092,"Ġplan":3093,"ĠSince":3094,"ha":3095,"Ġdynam":3096,"cos":3097,"Def":3098,"Ġmoved":3099,"$)":3100,"itch":3101,"Ġfinite":3102,"Ġproposed":3103,"Ġcaus":3104,"Ġyoung":3105,"Ġsurv":3106,"ĠAmer":3107,"66":3108,"Ġbo":3109,"minist":3110,"Ġaccount":3111,"LL":3112,"ken":3113,"plied":3114,"ribute":3115,"Ġ()":3116,"47":3117,"ĠString":3118,"Ġhalf":3119,"Ġship":3120,"Ġ///":3121,"1996":3122,"1997":3123,"Ġengine":3124,"Ġang":3125,"Ġdeaths":3126,"amil":3127,"Ġlate":3128,"Ġsett":3129,"Test":3130,"px":3131,"foot":3132,"Ġrequire":3133,"ĠEast":3134,"Ġclust":3135,"ĠTr":3136,"itz":3137,"Ġnormal":3138,"Ġbehav":3139,"Ġmeans":3140,"acy":3141,"eep":3142,"Ġlook":3143,"igned":3144,"Im":3145,"ceed":3146,"Ġvideo":3147,"Ġaccess":3148,"ĠWith":3149,"New":3150,"Ġfather":3151,"Ġmale":3152,"irt":3153,"Ġbroad":3154,"igen":3155,"ĠAward":3156,".~":3157,"Ġemploy":3158,"location":3159,"my":3160,"ĠList":3161,"ready":3162,"sing":3163,"aries":3164,"Ġelements":3165,"ĠRev":3166,"gcolor":3167,"At":3168,"Ġobserved":3169,"han":3170,"Ġimplement":3171,"Ġconc":3172,"ults":3173,"ĠOlymp":3174,"ellow":3175,"Ġstarted":3176,"ĉĊ":3177,"ĠChurch":3178,"from":3179,"}^\\":3180,"que":3181,"Ġreview":3182,"ilities":3183,"ulations":3184,"cdots":3185,"appro":3186,"ming":3187,"gen":3188,"Ġill":3189,"Ġtaken":3190,"Ġmiss":3191,"ĠBer":3192,"ager":3193,"ĠIndia":3194,"Ġrequired":3195,"}_\\":3196,"Ġacross":3197,"95":3198,"ved":3199,"Ġclose":3200,"Ġsche":3201,"187":3202,"Ġsold":3203,"].":3204,"Ġsay":3205,"van":3206,"ements":3207,"ait":3208,"Ġfem":3209,"aches":3210,"nbsp":3211,"wise":3212,"iddle":3213,"atus":3214,"Key":3215,"Qu":3216,"gebra":3217,"Ġmulti":3218,"Ġexpected":3219,"index":3220,"Ġcame":3221,"1980":3222,"raint":3223,"hood":3224,"ls":3225,"``":3226,"ĠFirst":3227,"lemma":3228,"ĠSim":3229,"small":3230,"Class":3231,"ged":3232,"ota":3233,"Ad":3234,"Ġbackground":3235,"arning":3236,"ĠBut":3237,"ulated":3238,"}\\,":3239,"Ġwant":3240,"}|":3241,"Ġconstruction":3242,"Ġsocial":3243,"Ġcoupl":3244,"Ġser":3245,"Get":3246,"ĠArmy":3247,"Ġrat":3248,"aves":3249,"Ġ!=":3250,"Ġdegree":3251,"ccording":3252,"Ġsurface":3253,"ael":3254,"cis":3255,"Ġbgcolor":3256,"ĠBel":3257,"Ġfactor":3258,"Ġdefine":3259,"Ġquest":3260,"Ġunit":3261,"ounter":3262,"Ġrelated":3263,"Ġaward":3264,"ms":3265,"ĠFrance":3266,"Ġtre":3267,"Ġannounced":3268,"Ġcontext":3269,"Ġda":3270,"ĠRoman":3271,"^+":3272,"rated":3273,"IS":3274,"Ġprovided":3275,"Ġofficial":3276,"Ġpolitical":3277,"Ġlanguage":3278,"After":3279,"orthern":3280,"Ġlarger":3281,"Ġinternational":3282,"Ġorg":3283,"Ġmem":3284,"Ġexists":3285,"ĠCour":3286,"Ġcompar":3287,"Ġdirection":3288,"ED":3289,"{{\\":3290,"Ġperm":3291,"medi":3292,"67":3293,"ottom":3294,"ĠAmerica":3295,"Ġcontains":3296,"atrix":3297,"ĠAp":3298,"earch":3299,"ĠEuropean":3300,"Ġlo":3301,"Ġzero":3302,"Ġepis":3303,"iding":3304,"})\\":3305,"Ġemb":3306,"ributions":3307,"Ġgalax":3308,"Ġreported":3309,"king":3310,"ĠPort":3311,"From":3312,"ĠCouncil":3313,"Ġdest":3314,"All":3315,"ĠCanada":3316,"1995":3317,"Ġwent":3318,"Ġhuman":3319,"ked":3320,"qquad":3321,"ĠMal":3322,"textwidth":3323,"widehat":3324,"ĠRed":3325,"ply":3326,"ĠAnt":3327,"ĠPresident":3328,"rec":3329,"icol":3330,"Ġcode":3331,"Ġactiv":3332,"pen":3333,"Ġfig":3334,"().":3335,"Ġtrack":3336,"ender":3337,"ump":3338,"itte":3339,"date":3340,"path":3341,"Ġfile":3342,"Ã¶":3343,"Ass":3344,"ky":3345,"ney":3346,"Ġparticip":3347,"izing":3348,"Ġreturned":3349,"Ġinteraction":3350,"ĠHol":3351,"Ġdebut":3352,"iation":3353,"iers":3354,"Ġfri":3355,"Ġblock":3356,"Ġdistance":3357,"68":3358,"atives":3359,"Ġrequest":3360,"08":3361,"Ġequival":3362,"Ġperformed":3363,"Rec":3364,"istics":3365,"stitute":3366,"http":3367,"icy":3368,"ĠThom":3369,"ects":3370,"Psi":3371,"rd":3372,"Ġconfig":3373,"Ġattempt":3374,"berg":3375,"Ġbreak":3376,"Man":3377,"Ġscale":3378,"&=":3379,"Ġpredict":3380,"uel":3381,"rote":3382,"Ġquantum":3383,"Ġpolitic":3384,"ires":3385,"band":3386,"cup":3387,"Ġdays":3388,"Ġable":3389,"Ġexperiment":3390,"ya":3391,"Ġsequence":3392,"Ġbetter":3393,"ĠPaul":3394,"Ġbegin":3395,"ura":3396,"}}(":3397,"());":3398,"Ġadditional":3399,"ĠRober":3400,"Ġinflu":3401,"skip":3402,"Ġlik":3403,"AA":3404,"Ġindex":3405,"bert":3406,"andid":3407,"oud":3408,"Ġinvestig":3409,"||":3410,"mark":3411,"FF":3412,"ĠMor":3413,"Ġfixed":3414,"ĠPal":3415,"Ġmaterial":3416,"Ġwhose":3417,"RO":3418,"xspace":3419,"thern":3420,"ĠFl":3421,"like":3422,"Ġ:=":3423,"ĠGeneral":3424,"known":3425,"utes":3426,"Ġ\\{":3427,"ĠMore":3428,"inst":3429,",-":3430,"cell":3431,"Bl":3432,"gress":3433,"ranch":3434,"Ġstory":3435,"Ġpopular":3436,"Ġoperator":3437,"Ġdeveloped":3438,"ean":3439,"1994":3440,"Ġstudents":3441,"Ġmaking":3442,"Ġgive":3443,"ĠJames":3444,"Ġfields":3445,"State":3446,"ĠQue":3447,"unicip":3448,"Ġprobability":3449,"Ġsimple":3450,"Ġstep":3451,"ĠFigure":3452,"eal":3453,"ĠSm":3454,"link":3455,"prop":3456,"icro":3457,"Ġliter":3458,"}^{(":3459,"Ġeval":3460,"perty":3461,"Ġcentral":3462,"quare":3463,"Ġbody":3464,"outhern":3465,"mathsf":3466,"Ġcr":3467,"Ġyour":3468,"ĠSum":3469,"Ġworked":3470,"Ġinstance":3471,"ein":3472,"Ġspin":3473,"Ġalready":3474,"ustom":3475,"effic":3476,"ections":3477,"Ġeconom":3478,"En":3479,"\";":3480,"Ġmoment":3481,"Ġappoint":3482,")]":3483,"ĠDi":3484,"CC":3485,"dt":3486,"ĠMy":3487,"year":3488,"bsite":3489,"ES":3490,"Error":3491,"ĠFrom":3492,"public":3493,"Ġservices":3494,"IM":3495,"ĠStud":3496,"Ġarchitect":3497,"ession":3498,"reek":3499,"ville":3500,"run":3501,"1992":3502,"Ġmilitary":3503,"Ġhard":3504,"ago":3505,"LA":3506,"ountain":3507,"Ġput":3508,"._":3509,"alian":3510,"yl":3511,"Ġcreate":3512,"Not":3513,"asc":3514,"Ġmarried":3515,"ocal":3516,"mid":3517,"Ġcolor":3518,"ĠRoyal":3519,"url":3520,"hel":3521,"Requ":3522,"Ġneigh":3523,"ĠGeorge":3524,"Ġtemperature":3525,"Ġassert":3526,"edd":3527,"Ġinstead":3528,"ĠÐ":3529,"ocr":3530,"58":3531,"ĠSen":3532,"ĠStreet":3533,"ĉĉĉĉĉ":3534,"summary":3535,"oe":3536,"indent":3537,"1970":3538,"icles":3539,"Ġintroduced":3540,"ills":3541,"Ġconduct":3542,"Ġnever":3543,"Ġ$(\\":3544,"length":3545,"}\\\\":3546,"Ġoutput":3547,"Ġindust":3548,"Ġclosed":3549,"04":3550,"Ġanaly":3551,"ĠDem":3552,"Ġresponse":3553,"ained":3554,"Ġpresident":3555,"ĠAssociation":3556,"Ġlearning":3557,"riate":3558,"['":3559,"aps":3560,"Ġaccording":3561,"racy":3562,"Ġmultiple":3563,"Ġnatural":3564,"Ġrail":3565,"ĠRich":3566,"Ġstars":3567,"ka":3568,"iform":3569,"Ġjoined":3570,"Ġworking":3571,"rows":3572,"98":3573,"Ġleading":3574,"pdf":3575,"ĠDivision":3576,"citet":3577,"1993":3578,"rian":3579,"ĠHall":3580,"Ġcapt":3581,"ĠBra":3582,"Sy":3583,"equiv":3584,"07":3585,"Ġpress":3586,"ners":3587,"more":3588,"Ge":3589,"ĠMod":3590,"plicit":3591,"ributed":3592,"ĠDavid":3593,"Ġdocument":3594,"ĠÃ":3595,"Ġexact":3596,"eloc":3597,"ĠMa":3598,"Se":3599,"uments":3600,"Ġareas":3601,"Ġfar":3602,"ibrary":3603,"ĠGermany":3604,"ĠOb":3605,".</":3606,"Ġwrote":3607,"Ġalways":3608,"ackage":3609,"Ġgradu":3610,"AD":3611,"Ġdefe":3612,"({\\":3613,"ensor":3614,"Ġcheck":3615,"ani":3616,"anies":3617,"dist":3618,"erb":3619,"Ġsample":3620,"Ġoccur":3621,"Ġrather":3622,"Ġothers":3623,"46":3624,"la":3625,"ĠDef":3626,"Ġassume":3627,"ĠUnion":3628,"Ġdiag":3629,"ker":3630,"Ġflo":3631,"Ġrecogn":3632,"Ġarr":3633,",\"":3634,"02":3635,"57":3636,"roy":3637,"Ġuser":3638,"rup":3639,"Ġmid":3640,"star":3641,"Ġmag":3642,"dimens":3643,"Ġnecess":3644,"Ġspecific":3645,"ooth":3646,"ĠChina":3647,"Ġtherefore":3648,"astic":3649,"atory":3650,"ET":3651,"Ġedge":3652,"Form":3653,"ida":3654,"itting":3655,"97":3656,"Ġarray":3657,"note":3658,"Ġpresented":3659,"\":":3660,"Ġradio":3661,"ashington":3662,"Ġmeet":3663,"ĠSo":3664,"alls":3665,"operat":3666,"ĠIm":3667,"Ġcollection":3668,"Ġviol":3669,"Ġthough":3670,"ĠDr":3671,"Ġ&\\":3672,"03":3673,"umni":3674,"asons":3675,"ĠLou":3676,"utive":3677,"ĠThus":3678,"Ġonce":3679,"06":3680,"fin":3681,"ched":3682,"Ġpur":3683,"change":3684,"Ġfuture":3685,"onic":3686,"Ġdirector":3687,"Time":3688,"aged":3689,"ports":3690,"}:":3691,"Ġboundary":3692,"Ġgives":3693,"Ġcertain":3694,"ĠSystem":3695,"Ġchurch":3696,"ĠLemma":3697,"Ġprinc":3698,"itar":3699,"operatorn":3700,"Ġcontent":3701,"nav":3702,"ĠAustralian":3703,"']":3704,"ĠDev":3705,"Ġcut":3706,"Ġbeliev":3707,"Is":3708,"Ġparent":3709,"rab":3710,"wood":3711,"Ġcontract":3712,"ensive":3713,"Ġhon":3714,"42":3715,"Ġeffects":3716,"command":3717,"Ġentire":3718,"Equ":3719,"Ġcommand":3720,"De":3721,"1991":3722,"gs":3723,"Ġoffer":3724,"atively":3725,"ittee":3726,"ĠDuring":3727,"Ġgoal":3728,"arily":3729,"ĠPat":3730,"Ġtry":3731,"Ġroad":3732,"');":3733,"operatorname":3734,"ĠCont":3735,"Ġcenter":3736,"Ġmechan":3737,"ĠLaw":3738,"ĠBlack":3739,"){":3740,"Ġdatas":3741,"scale":3742,"Ġsuccessful":3743,"error":3744,"Ġsets":3745,"Ġlost":3746,"Ġdomain":3747,"Ġpan":3748,"Or":3749,"Ġtransfer":3750,"Ġstage":3751,"Ġnovel":3752,"]$":3753,"ĠCourt":3754,"Ġaway":3755,"alle":3756,"ĠGroup":3757,"Ġweight":3758,"Over":3759,"icult":3760,"aign":3761,"Ġexpect":3762,"Ġsongs":3763,"ini":3764,"Ġeducation":3765,"ĠCenter":3766,"itude":3767,"nel":3768,"Ġequations":3769,"SP":3770,"Ġcolumn":3771,"istry":3772,"asket":3773,"Ġweek":3774,"ui":3775,"Ġcomplete":3776,"Ġtreat":3777,"Ġwhether":3778,"ĠMark":3779,"Ġparty":3780,"Ġincludes":3781,"Ġcateg":3782,"Ġrac":3783,"Ġopened":3784,"View":3785,"Ġprofessional":3786,"Ġben":3787,"ĠRef":3788,"Ġsubject":3789,"}}{\\":3790,"ctor":3791,"Ġdirected":3792,"Ġreason":3793,"Ġveloc":3794,"ili":3795,"Ġkm":3796,"There":3797,"SI":3798,"ĠNor":3799,"ĠMary":3800,"....":3801,"Ġrelease":3802,"}+\\":3803,"ĠAcadem":3804,"ishing":3805,"lt":3806,"Ġvalid":3807,"umbers":3808,"Ġrev":3809,"ariant":3810,"elling":3811,"ogle":3812,"Ġalthough":3813,"(),":3814,"Ġalmost":3815,"izes":3816,"Ġformed":3817,"ughter":3818,"embly":3819,"'$":3820,"den":3821,"oz":3822,"ĠEm":3823,"refer":3824,"Ġcompleted":3825,"atal":3826,"Ġteams":3827,"ework":3828,"Ġund":3829,"Ġprior":3830,"Ġdon":3831,"imate":3832,"Ġcandid":3833,")-":3834,"Ġtradition":3835,"esh":3836,"struct":3837,"ipp":3838,"LO":3839,"Event":3840,"Ġcontinued":3841,"Ġmight":3842,"ĠNe":3843,"Ġhealth":3844,"ĠMex":3845,"Ġtable":3846,"ĠMart":3847,"500":3848,"Ġcomponent":3849,"Ġadded":3850,"96":3851,"File":3852,"board":3853,"Ġtoo":3854,"43":3855,"ds":3856,"level":3857,"ario":3858,"ĠProv":3859,"Ġholds":3860,"body":3861,"Ġdenote":3862,"uit":3863,"uz":3864,"edge":3865,"Ġcannot":3866,"alled":3867,"Ġgas":3868,"~$":3869,"Ġbasis":3870,"mit":3871,"Ġhor":3872,"tic":3873,"TR":3874,"Ġgrad":3875,"neq":3876,"verse":3877,"}-\\":3878,"Ġqual":3879,"ĠGreen":3880,"js":3881,"ĠMusic":3882,"writ":3883,"Ġequal":3884,"ĠHen":3885,"Ġsoft":3886,"Ġrecorded":3887,"Ġchanges":3888,"onal":3889,"Ġtransform":3890,"hspace":3891,"oms":3892,"ores":3893,"Ġpaint":3894,"ns":3895,"fill":3896,"ĠVir":3897,"\"></":3898,"Ġeffective":3899,"duction":3900,"ĠWashington":3901,"ĠInstitute":3902,"ĠDepartment":3903,"umerate":3904,"Ġten":3905,"model":3906,"Te":3907,"ramework":3908,"Ġmar":3909,"Ġdefinition":3910,"display":3911,"Ġmetric":3912,"ĠCompany":3913,"Ġcompared":3914,"09":3915,"ensus":3916,"ĠBay":3917,"Ġ-\\":3918,"Ġclear":3919,"used":3920,"FA":3921,"Ġenvironment":3922,"Field":3923,"ĠRoad":3924,"Ġcoordin":3925,"Ġstudies":3926,"ston":3927,"1989":3928,"Ġbrother":3929,"Element":3930,"88":3931,"Ġlive":3932,"1960":3933,"ĠSociety":3934,"escription":3935,"sel":3936,"rast":3937,"ĠDon":3938,"inese":3939,"ened":3940,"liament":3941,"dag":3942,"Ð°":3943,"Since":3944,"noindent":3945,"ĠInter":3946,"Ġwidth":3947,"Ġsuff":3948,"Ġ?":3949,"ios":3950,"ride":3951,"ledge":3952,"Ġwebsite":3953,"41":3954,"ites":3955,"Request":3956,"Ġsigned":3957,"oul":3958,"=#":3959,"AB":3960,"ĠArch":3961,"rey":3962,"Ġrespons":3963,"$}":3964,"Ġfront":3965,"ĠClub":3966,"56":3967,"ĠCath":3968,"ederal":3969,"UT":3970,"Text":3971,"ponent":3972,"cial":3973,"ria":3974,")}{":3975,"Ġcle":3976,"ado":3977,"olean":3978,"Ġdone":3979,"Ġvers":3980,"Ġconstraint":3981,"1988":3982,"Ġupper":3983,"hand":3984,"ki":3985,"Ġtaking":3986,"Ð¾":3987,"Ġvict":3988,"hy":3989,"aching":3990,"enumerate":3991,"':":3992,"men":3993,"|^":3994,"Ġparts":3995,"Ġrepresentation":3996,"Ġaccept":3997,"=\"../../":3998,"]\\":3999,"can":4000,"light":4001,"ĠGames":4002,"tact":4003,"nce":4004,"Ġglobal":4005,"ĠInt":4006,"Ġprop":4007,"Ġalbums":4008,"dimensional":4009,".)":4010,"Build":4011,"ĠCanadian":4012,"OS":4013,"spec":4014,"ala":4015,"Ġrot":4016,"CD":4017,"Ġinterp":4018,"that":4019,"Ġlargest":4020,"US":4021,"Ġenough":4022,"(-":4023,"Ġwrite":4024,"encies":4025,"Ġren":4026,"ansion":4027,"iments":4028,"ML":4029,"ĠSing":4030,"Ġpast":4031,"olit":4032,"ĠPress":4033,"ĠKingdom":4034,"Ġstre":4035,"Ġstrateg":4036,"Ġwife":4037,"oke":4038,"ĠTown":4039,"estival":4040,"Ġappeared":4041,"Ġ);":4042,"Ġrelation":4043,"Ġrace":4044,"theorem":4045,"Ġremov":4046,"ĠVol":4047,"Ġpay":4048,"itemize":4049,"ĠIsland":4050,"ĠAfrican":4051,"Ġmaximum":4052,"Ġforce":4053,"pace":4054,"bound":4055,"ĠTV":4056,"Ġamount":4057,"Ġweak":4058,"Ġregard":4059,"Ġconver":4060,"[]":4061,"scr":4062,"ĠHistor":4063,"Ġincrease":4064,"Ġmagnetic":4065,"ĠMiss":4066,"asketball":4067,"Ġgenerated":4068,"Ġcoeffic":4069,"Ã¤":4070,"Ġacqu":4071,"Rep":4072,"Ġdirectly":4073,"Ġnote":4074,"Ġactive":4075,"ĠTra":4076,"Info":4077,"cing":4078,"Ġtransition":4079,"Ġimplies":4080,"Ġassist":4081,"ĠSam":4082,"Ġimages":4083,"osen":4084,"Ġadminist":4085,"omial":4086,"Ġoffice":4087,"ids":4088,"Ġsmaller":4089,"angle":4090,"Ġfounded":4091,"Ġmarket":4092,"Ġpers":4093,"Ġdifficult":4094,"ĠCong":4095,"ĠTur":4096,"icture":4097,"opl":4098,"oo":4099,"ĠJack":4100,")}$":4101,"ĠClass":4102,"Ġcomponents":4103,"Film":4104,"input":4105,"!--":4106,"ises":4107,"Ġsources":4108,"Ġelected":4109,"Ġaddress":4110,"IR":4111,"/*":4112,"Ġfollowed":4113,"Ġdemon":4114,"Ġearli":4115,"ully":4116,"Ġsubsequ":4117,"Ġprovides":4118,"multicol":4119,"ĠWhile":4120,"Ġ/>":4121,".âĢĿ":4122,"Ġstudied":4123,"MS":4124,"Eng":4125,"long":4126,"Ġflu":4127,"version":4128,"Ġmother":4129,"overs":4130,"Ġeffic":4131,"ĠMet":4132,"eline":4133,"Ġnuc":4134,"Ġmodern":4135,"Ġfootballers":4136,"ĠMont":4137,"++":4138,"MA":4139,"ĠBest":4140,"icon":4141,"ags":4142,"Ġtypes":4143,"Ġce":4144,"ectors":4145,"https":4146,"vspace":4147,"fficient":4148,"Ġcast":4149,"ingu":4150,"hi":4151,"multicolumn":4152,"ona":4153,"ĠCentral":4154,"1987":4155,"Ġproblems":4156,"Ġdesigned":4157,"Ġalgebra":4158,"Ġcompanies":4159,"77":4160,"Ġnames":4161,"59":4162,"split":4163,"ĠAngel":4164,"Ġevolution":4165,"Ġpeak":4166,"ĠRobert":4167,"Ġmedia":4168,"auge":4169,"ĠJapanese":4170,"ada":4171,"Ġbecomes":4172,"And":4173,"Ġupon":4174,"unt":4175,"ously":4176,"ĠAlex":4177,"approx":4178,"ĠCons":4179,"hest":4180,"acc":4181,"Path":4182,"=\"+":4183,"Ġadj":4184,"Ġappointed":4185,"Ġbar":4186,"Ġrestrict":4187,"Ġusually":4188,"Ġconstit":4189,"rule":4190,"shire":4191,"rate":4192,"enced":4193,"ĠGo":4194,"Ġrelationship":4195,"www":4196,"Ġdiscover":4197,"xy":4198,"Ġwhite":4199,"ĠAcademy":4200,"Ġlearn":4201,"Ġselected":4202,"PS":4203,"Ġsound":4204,"Add":4205,"\\,\\":4206,"ĠĠĠĠĠĠĠĠĠĠ":4207,"atform":4208,"Ġitself":4209,"ĠMad":4210,"Ġchannel":4211,"bour":4212,"block":4213,"ĠThomas":4214,"using":4215,"Ġoptim":4216,"Ġleague":4217,"Ġbox":4218,"Ġtask":4219,"ĠWil":4220,"Ġdifference":4221,"Ġphysical":4222,"olar":4223,"dec":4224,"ĠCap":4225,"Ġapplied":4226,"ĠRecords":4227,"Ġsolutions":4228,"ĠAfrica":4229,"ĠTex":4230,"ena":4231,"Ġelectron":4232,"ĠRussian":4233,"ĠUK":4234,"Ġunits":4235,"omorphism":4236,"true":4237,"rish":4238,"Ġexhib":4239,"Node":4240,"Ġlocation":4241,"do":4242,"Ġstri":4243,"}}_":4244,"api":4245,"ĠMuseum":4246,"54":4247,"iting":4248,"Ġdouble":4249,"Ġeight":4250,"Ġsearch":4251,"1986":4252,"Ġeast":4253,"Vert":4254,"UR":4255,"Pi":4256,"Ġschools":4257,"Comp":4258,"Map":4259,"Ġprove":4260,"Ġdraw":4261,"Ġhimself":4262,"amilton":4263,"CH":4264,"acing":4265,"/**":4266,"ĠLeg":4267,"km":4268,"Ġmatter":4269,"Ġsom":4270,"Ġuses":4271,"ras":4272,"Ġyield":4273,"ĠGrand":4274,"Ġinvolved":4275,"cho":4276,"Ġmonths":4277,"Ġbirth":4278,"Ġagre":4279,"Reg":4280,"Ġhtt":4281,"Ġstructures":4282,"ĠGold":4283,"Ġscen":4284,"ĠSl":4285,"ifier":4286,"ĠRail":4287,"}}}":4288,"Ġobjects":4289,"Ġspectrum":4290,"Ġdomin":4291,"Ġalumni":4292,"uan":4293,"eturn":4294,"acher":4295,"CT":4296,"Ġsupported":4297,"Ġmove":4298,"Ġnumbers":4299,"Ġincreasing":4300,"ĠRad":4301,"Ġhous":4302,"rs":4303,"rael":4304,"ĠItalian":4305,"west":4306,"Ġaud":4307,"clusion":4308,"Ġdefault":4309,"Ġthroughout":4310,"object":4311,"1984":4312,"isions":4313,"ĠCO":4314,"usp":4315,"Ġneut":4316,"izations":4317,"Ġwest":4318,"Ġsens":4319,"antic":4320,"ĠRepublic":4321,"ĠEar":4322,"ictor":4323,"overnor":4324,"Att":4325,"ĠGreat":4326,"amily":4327,"Ġter":4328,"pc":4329,"ĠWestern":4330,"ĠSummer":4331,"Ġrock":4332,"Ġesp":4333,"Ġhapp":4334,"ĠĠĠĠĠĠĠĠĠĠĠĠ":4335,"arter":4336,"ĠScott":4337,"ĠZeal":4338,"51":4339,"52":4340,"Ġorigin":4341,"Ġtakes":4342,"OT":4343,"Ġdecl":4344,"Config":4345,"Ġvelocity":4346,"thlet":4347,"acity":4348,"}/":4349,"inct":4350,"Sec":4351,"Tr":4352,"quot":4353,"irm":4354,"Ġadapt":4355,"ĠOlympics":4356,"Ġunderstand":4357,"ĠMat":4358,"Ðµ":4359,"ĠJew":4360,"Ġ/*":4361,"ecially":4362,"ĠSal":4363,"Ġborder":4364,"Ġforces":4365,"tra":4366,"87":4367,"ĠYear":4368,"ĠVirgin":4369,"\\}$":4370,"Ġ\\;":4371,"Ġunique":4372,"ĠChristian":4373,"ĠZealand":4374,"ĠTherefore":4375,"Ġallowed":4376,"Ġplaying":4377,"ĠDo":4378,"ĠFilm":4379,"ams":4380,"Exp":4381,"Context":4382,"Ġrights":4383,"Ġliving":4384,"Ġadopt":4385,"ective":4386,"ptions":4387,"Ġcurrently":4388,"Ġsignal":4389,"Pr":4390,"nes":4391,"NN":4392,"aring":4393,"range":4394,"ying":4395,"Ġboard":4396,"Ġchall":4397,"Ġcampaign":4398,"Ġmention":4399,"1985":4400,"Ġpolicy":4401,"ĠLand":4402,"turb":4403,"Ġwords":4404,"well":4405,"ocks":4406,"ĠMag":4407,"Ġtheorem":4408,"Ġcritical":4409,"Sup":4410,"Ġfire":4411,"Ġguitar":4412,"Ġdeal":4413,"&&":4414,"Ġregions":4415,"usion":4416,"ospital":4417,"Ġrepresented":4418,"EE":4419,"ĠCharles":4420,"mathscr":4421,"abs":4422,"ĠFootball":4423,"Service":4424,"reland":4425,"Index":4426,"ĠLouis":4427,"Ġjud":4428,"{}":4429,"ĠSaint":4430,"Ġvariables":4431,"Ġcourt":4432,"Ġoperations":4433,"Ġratio":4434,"ĠMinister":4435,"ĠTable":4436,"edy":4437,"Ġreplaced":4438,"ĠMichael":4439,"Ġkeep":4440,"63":4441,"Ġdecre":4442,"Ġpreviously":4443,"ircraft":4444,"Ap":4445,"texttt":4446,"Ġfav":4447,"ita":4448,"di":4449,"inos":4450,"ping":4451,"word":4452,"Out":4453,"Ġgoing":4454,"69":4455,"Ġclassical":4456,"Ġtransport":4457,"ging":4458,"Ġsetting":4459,"())":4460,"plate":4461,"Ġlay":4462,"user":4463,"Ġeigen":4464,"Ġprimary":4465,"Ġunivers":4466,"Ġgave":4467,"unk":4468,"book":4469,"linear":4470,"gence":4471,"Ġestimate":4472,"gt":4473,"Ġstated":4474,"PT":4475,"erve":4476,"bo":4477,"rame":4478,"Ġdram":4479,"isation":4480,"Ġrelative":4481,"Ġdaughter":4482,"Ġrelig":4483,"Ġess":4484,"^-":4485,"win":4486,"Ġoutside":4487,"ĠÂ":4488,"Ġquestion":4489,"azine":4490,"void":4491,"Ġspeed":4492,"Array":4493,"olf":4494,"gent":4495,"53":4496,"Ġtro":4497,"eck":4498,"Ġreve":4499,"Ġcome":4500,"Ġ},":4501,"Ġsil":4502,"ĠNot":4503,"rep":4504,"ĠMer":4505,"ĠMac":4506,"ĠĠĠĠĠĠĠĠĠĠĠĠĠĠĠĠĠĠĠĠĠĠĠĠĠĠĠ":4507,"Ġrow":4508,"flo":4509,"ollowing":4510,"Inst":4511,"Ġbehavior":4512,"Ġfight":4513,"ĠCarol":4514,")+":4515,"Ġcourse":4516,"ĠKore":4517,"ĠTexas":4518,"Ġ\\|":4519,"config":4520,"ĠWhite":4521,"ĠChinese":4522,"Ġpe":4523,"unity":4524,"dev":4525,"oring":4526,"Ġdetermined":4527,"Ġdate":4528,"grad":4529,"ĠTrans":4530,"Ġord":4531,"ĠThat":4532,"ducation":4533,"isk":4534,"Ġallows":4535,"Ġpattern":4536,"ols":4537,"Ġconnected":4538,"Ġthink":4539,"Ġ_{":4540,"Wh":4541,"Ġdeep":4542,"One":4543,"Ġoperation":4544,"Ġmakes":4545,"Ġillust":4546,"ication":4547,"ĠSub":4548,"isl":4549,"Ġaltern":4550,"usical":4551,"auss":4552,"iant":4553,"ains":4554,"Ġbig":4555,"ĠPet":4556,"apache":4557,"End":4558,"conn":4559,"1983":4560,"Ġremains":4561,"Ġplaces":4562,"Ġlittle":4563,"ĠCatholic":4564,"Ġlisted":4565,"Ġepisode":4566,"Ġequivalent":4567,"Ġdetails":4568,"ĠTom":4569,"Ġtowards":4570,"Ġver":4571,"iences":4572,"Ġmix":4573,"IG":4574,"Ġstop":4575,"Ġax":4576,"Ġlatter":4577,"ĠSur":4578,"ln":4579,"ĠNote":4580,"apping":4581,"vis":4582,"ION":4583,"rief":4584,"ua":4585,"62":4586,"md":4587,"Ġcoach":4588,"arts":4589,"astern":4590,"ĠLat":4591,"Ġstations":4592,"ĠĠĠĊ":4593,"ira":4594,"Of":4595,"arc":4596,"Ġjournal":4597,"duced":4598,"Ġconclud":4599,"Ġbuildings":4600,"png":4601,"flow":4602,"85":4603,"atre":4604,"names":4605,"61":4606,"Ġseg":4607,"Ġcountries":4608,"Ġdisplay":4609,"Sub":4610,"idents":4611,"allel":4612,"Ġresulting":4613,"ny":4614,"Ġcorrect":4615,"Ġ(!":4616,"oding":4617,"net":4618,"otic":4619,"Ġbooks":4620,"Ġmedal":4621,"Ġprec":4622,"erman":4623,"ĠBook":4624,"ros":4625,"road":4626,"efore":4627,"\"\"":4628,"ba":4629,"1982":4630,"Size":4631,"FC":4632,"ĠTor":4633,"Ġgeomet":4634,"Ġaccom":4635,"1950":4636,"Trans":4637,"bul":4638,"ĠSecond":4639,"Ġdam":4640,"Ġdemonstr":4641,"Ġtrac":4642,"aur":4643,"Theta":4644,"Ġtourn":4645,"Ġespecially":4646,"';":4647,"Ġtree":4648,"Ġseven":4649,"aging":4650,"ĠSome":4651,"Ġrule":4652,"ĠDan":4653,"Note":4654,"Ġinstit":4655,"bt":4656,"pan":4657,"ĠDirect":4658,"Ġfrequency":4659,"Table":4660,"ĠScience":4661,"Ġrob":4662,"Ġir":4663,"ares":4664,"check":4665,"Ġevalu":4666,"zil":4667,"ifying":4668,"print":4669,"Ġinsp":4670,"ĠJose":4671,"irtual":4672,"Ġmunicip":4673,"Ġissue":4674,"BA":4675,"ĠParis":4676,"fess":4677,"height":4678,"Ġimpact":4679,"Ġfinished":4680,"Ġdimension":4681,"airs":4682,"Ġkind":4683,"Ð¸":4684,"ube":4685,"ether":4686,"Ġimmedi":4687,"Ġoriginally":4688,"####":4689,"SC":4690,"Comm":4691,"Ġfit":4692,"rupt":4693,"su":4694,"reme":4695,"ĠGod":4696,"Ġeventually":4697,"Ġ(\"":4698,"Inter":4699,"Group":4700,"Ġpage":4701,"Then":4702,"Ġkilled":4703,"Ġchoice":4704,"ips":4705,"tical":4706,"ĠHamilton":4707,"Ġconcept":4708,"result":4709,"Ġtravel":4710,"}^{-":4711,"Ġ-->":4712,"Hand":4713,"Ġrunning":4714,"Ġtour":4715,"ĠPo":4716,"Ġexpand":4717,"arp":4718,"Ġiter":4719,"Ġgenerally":4720,"When":4721,"1979":4722,"ĠDemocr":4723,"Ġcharge":4724,"Ġcharacters":4725,"Ġcivil":4726,"ĠBen":4727,"Ġgauge":4728,"ĠFrancis":4729,"ĠBill":4730,"idae":4731,"Ġword":4732,"ĠOther":4733,"FL":4734,"subseteq":4735,"ĠAccording":4736,"ĠDay":4737,"norm":4738,"oma":4739,"Ġlikely":4740,"Ġ});":4741,"][":4742,"Ġstatus":4743,"Ġbelong":4744,"Ġartists":4745,"Ġfemale":4746,"Ġextended":4747,"<\\":4748,"ĠSpec":4749,"ĠFlor":4750,"bigg":4751,"Ġfall":4752,"Ġexpression":4753,"oken":4754,"main":4755,"Ġissues":4756,"attice":4757,"Ġclasses":4758,"iled":4759,"war":4760,"Ġmach":4761,"ĠSmith":4762,"0000":4763,"MP":4764,"prod":4765,"rial":4766,"ĠGra":4767,"TE":4768,"ynomial":4769,"Ġproced":4770,"Ġanim":4771,"Ġwave":4772,"reater":4773,"arr":4774,"No":4775,"minus":4776,"ĠFound":4777,"Model":4778,"base":4779,"ĠSpanish":4780,"78":4781,"Ġapplication":4782,"aval":4783,"\\'":4784,"Ġdecision":4785,"Ġadm":4786,"ĠMass":4787,"title":4788,"ync":4789,"1981":4790,"Ġlimited":4791,"Ġreached":4792,"oviet":4793,"Ġtit":4794,"ĠSuper":4795,"ĠPeter":4796,"ishop":4797,"ĠSer":4798,"place":4799,"Ġtax":4800,"SU":4801,"Ġoccup":4802,"ĠHistory":4803,"ĠFore":4804,"Ġderiv":4805,"ockey":4806,"za":4807,"Ġuniform":4808,"Ġgalaxies":4809,"}'":4810,"Ġreference":4811,"textrm":4812,"Ġmode":4813,"Ġinj":4814,"Ġderived":4815,"anning":4816,"Ġvoc":4817,"Ġapproximately":4818,"tem":4819,"Ġwindow":4820,"////////":4821,"Ġmissing":4822,"Ġtransl":4823,"Ġsufficient":4824,"Ġjob":4825,"prot":4826,"underline":4827,"Ġ$\\{":4828,"plication":4829,"Ġded":4830,"Ġflux":4831,"Ġcharg":4832,"orage":4833,"ĠRichard":4834,"oto":4835,"ometimes":4836,"ĠWork":4837,"ĠBo":4838,"Ġobservations":4839,"{$":4840,"inals":4841,"((":4842,"ĠMel":4843,"Ġleaders":4844,"ano":4845,"Ġvariable":4846,"ĠGet":4847,"met":4848,"Ed":4849,"Ġmaintain":4850,"abase":4851,"ĠOff":4852,"ĠFrank":4853,"method":4854,"Ġdrop":4855,"alo":4856,"=\"#":4857,"utch":4858,"current":4859,"Ġconsists":4860,"icago":4861,"Ġruns":4862,"ades":4863,"Code":4864,"Ġscore":4865,"ĠLos":4866,"footnote":4867,"Ġsen":4868,"ĠDel":4869,"ULL":4870,"ellar":4871,"orial":4872,"Ġshall":4873,"ĠVictor":4874,"cel":4875,"Ġwriting":4876,"Ġappears":4877,"Ġimm":4878,"Ġpolice":4879,"Ġintegral":4880,"ĠIreland":4881,"_+":4882,"Ġhighest":4883,"Ġuncer":4884,"Ġneeded":4885,"taint":4886,"case":4887,"ĠTest":4888,"Ġexpress":4889,"ĠGeorg":4890,"arameter":4891,"ĠJust":4892,"Ġfriend":4893,"crete":4894,"Ġautom":4895,"Ġfourth":4896,"ĠApp":4897,"rices":4898,"Ġer":4899,"ella":4900,"shift":4901,"Ġsymbol":4902,"Ġinterpret":4903,"roller":4904,"Ġheight":4905,"ĠLake":4906,"Ġlonger":4907,"uffer":4908,"ront":4909,"Ġbur":4910,"ĠPublic":4911,"ifold":4912,"****************":4913,"Ġpresence":4914,"olk":4915,"}}_{":4916,"Ġoperators":4917,"Ġ($\\":4918,"ĠResearch":4919,"Ġoverall":4920,"ĠIsrael":4921,"Ġgold":4922,"Ġprint":4923,"Ġgrav":4924,"Ġemission":4925,"Ġexcept":4926,"Ġwriter":4927,"Ġsaf":4928,"det":4929,"ĠRob":4930,"pty":4931,"ih":4932,"build":4933,"Ġstreng":4934,"porary":4935,"Ġwhole":4936,"Ġemer":4937,"Ġevidence":4938,"First":4939,"ancial":4940,"Bar":4941,"ĠPri":4942,"Ġremained":4943,"1978":4944,"Ġbehind":4945,"ĠDes":4946,"Ġplaced":4947,"Ġnegative":4948,"assert":4949,"1976":4950,"1972":4951,"Ġpolitician":4952,"Ġcompact":4953,"Cell":4954,"ĠCommission":4955,"Ġ$|":4956,"Ġfamil":4957,"Ġpractice":4958,"Ġpercent":4959,"Ġforms":4960,"dro":4961,"Count":4962,"89":4963,"ca":4964,"Ġexplicit":4965,"apter":4966,"Ġearlier":4967,"Ġnecessary":4968,"Message":4969,"Äģ":4970,"ket":4971,"illa":4972,"Ġreduced":4973,"ĠHenry":4974,"Ġsmooth":4975,"ias":4976,"Ġexpansion":4977,"Ġball":4978,"Ġhence":4979,"Ġfigure":4980,"isher":4981,"dagger":4982,"igan":4983,"yr":4984,"ĠHill":4985,"Ġnight":4986,"ĠMil":4987,"ĠPenn":4988,"count":4989,"stant":4990,"Ġthought":4991,"ashed":4992,"ĠCamp":4993,"rice":4994,"init":4995,"Ġawarded":4996,"Ġchanged":4997,"Ġdark":4998,"izer":4999,"Ġdig":5000,"Sim":5001,"Ġapply":5002,"iral":5003,"Ġplant":5004,"inder":5005,"ĠOut":5006,"ĠForce":5007,"Ġstarting":5008,"has":5009,"sm":5010,"ĠWomen":5011,"1974":5012,"Ġchosen":5013,"bon":5014,"Ġaircraft":5015,"Ġtrain":5016,"SO":5017,"Ġnoise":5018,"}},":5019,"ye":5020,"Ġsimply":5021,"Ġveh":5022,"Ġsymmetry":5023,"Le":5024,"1975":5025,"ĠVirginia":5026,"anned":5027,"ĠRock":5028,"Ġcontinuous":5029,"Early":5030,"aud":5031,"mercial":5032,"Ġformation":5033,"Ġmessage":5034,"Ġbring":5035,"Ġbeginning":5036,"Ġfamilies":5037,"tes":5038,"UN":5039,"background":5040,"1977":5041,"Ġdiagram":5042,"ĠDu":5043,"Ġfeatured":5044,"uracy":5045,"Ġstaff":5046,"ĠPan":5047,"ils":5048,"ĠTer":5049,"oice":5050,"info":5051,"undle":5052,"Ġsaw":5053,"ĠTechn":5054,"Ġ$-":5055,"Ã¨":5056,"ouri":5057,"Ġestablishments":5058,"Ġavoid":5059,"Ġscient":5060,"Ġcompetition":5061,"oplus":5062,"mpire":5063,"Ġhyper":5064,"Ġartist":5065,"Log":5066,"Ġscheme":5067,"Ġcurve":5068,"ĠSun":5069,"Ġsex":5070,"PC":5071,"ĠService":5072,"default":5073,"Ser":5074,"rat":5075,"setminus":5076,"ĠOrder":5077,"Ġlevels":5078,"Ġcapital":5079,";\"":5080,"istan":5081,"Ġdiscussed":5082,"Ġcustom":5083,"ĠSwed":5084,"Ġestimated":5085,"ells":5086,"fficial":5087,"lay":5088,"MC":5089,"cles":5090,"ees":5091,"create":5092,"TV":5093,"elt":5094,"ening":5095,"Spec":5096,"iques":5097,"Ġscreen":5098,"dr":5099,"OD":5100,"94":5101,"asks":5102,"Ġnoted":5103,"ĠEv":5104,"mes":5105,"ĠIts":5106,"irl":5107,"unch":5108,"Ġoptions":5109,"Ġsense":5110,"iti":5111,"Ġinequ":5112,"ĠSet":5113,"Ġparticles":5114,"Ġvolume":5115,"PE":5116,"Ġdescription":5117,"ĠDen":5118,"Co":5119,"ocation":5120,"iny":5121,"Ġremaining":5122,"eria":5123,"Ġneighbor":5124,"Manager":5125,"ecause":5126,"retary":5127,"Ġcluster":5128,"ĠBur":5129,"vention":5130,"Ġcritic":5131,"PI":5132,"Ġdu":5133,"1968":5134,"udd":5135,"âĢľ":5136,"ĠMexico":5137,"Ġbroadcast":5138,"Ġmarg":5139,"Ġmotion":5140,"Ġnature":5141,"ĠChampionships":5142,"Ġlack":5143,"host":5144,"Ġknowledge":5145,"iance":5146,"icense":5147,"^{-\\":5148,"Ġjava":5149,"Ġcred":5150,"Ġdataset":5151,"language":5152,"ĠMus":5153,"ĠCongress":5154,"Ġonline":5155,"valid":5156,"riz":5157,"Ġsch":5158,"Ġlayer":5159,"Ġparticle":5160,"BS":5161,"Ġscatter":5162,"Ġ===":5163,"System":5164,"include":5165,"uty":5166,"1973":5167,"active":5168,"uls":5169,"Ġwide":5170,"oys":5171,"Ġbounded":5172,"Ġidea":5173,"areer":5174,"Ġcollege":5175,"lam":5176,"empty":5177,"93":5178,"ĠAlthough":5179,"vant":5180,"Be":5181,"Ġever":5182,"ao":5183,"ING":5184,"ands":5185,"inem":5186,"Notes":5187,"ĠCommittee":5188,"Ġstream":5189,"Ã³n":5190,"Ġprem":5191,"Ġincreased":5192,"wedge":5193,"\\}":5194,"otion":5195,"Ġpolynomial":5196,"ariance":5197,"ĠCast":5198,"linewidth":5199,"abled":5200,"aled":5201,"Ġhyp":5202,"](":5203,"ugby":5204,"gg":5205,"Ġindustry":5206,"Ġleads":5207,"Ġcounter":5208,"stream":5209,"Ġhousehold":5210,"ĠAtl":5211,"Ġvertex":5212,"GL":5213,"Ġtherm":5214,"ĠItaly":5215,"Ġscored":5216,"TD":5217,"_{(":5218,"lient":5219,"Ġcontribution":5220,"Ġens":5221,"CE":5222,")|":5223,"Ġenter":5224,"Ġload":5225,"ĠArts":5226,"Ġselect":5227,"ĠCD":5228,"weight":5229,"ĠCre":5230,"ĠMo":5231,"Ġsinger":5232,"Ġinside":5233,"ola":5234,"ipl":5235,"Ġplays":5236,"92":5237,"ĠScot":5238,"event":5239,"Ġreading":5240,"jo":5241,"Ġincor":5242,"Ġconnection":5243,"Ġtournament":5244,"Ġrules":5245,"AG":5246,"Ġpersonal":5247,"page":5248,"ĠChicago":5249,"Ġexperiments":5250,"Ġselection":5251,"ĠBrown":5252,"ĠTwo":5253,"*{":5254,"Ġnodes":5255,"ponse":5256,"ĠHow":5257,"ocol":5258,"ĠNavy":5259,"=\"../../../../":5260,"NS":5261,"86":5262,"Ð½":5263,"ĠAngeles":5264,"ropy":5265,"cond":5266,"Ġrank":5267,"idden":5268,"Ġmeaning":5269,"='":5270,"Ġ$[":5271,"1971":5272,"300":5273,"Item":5274,"Ġdecided":5275,"ĠGovernment":5276,"Ġsamples":5277,"Ġshape":5278,"Ġmemory":5279,"={":5280,"atur":5281,"Ġminimum":5282,"Ent":5283,"Ġminor":5284,"Further":5285,"Ġscience":5286,"Ġbasketball":5287,"Ġarbit":5288,"Ġmaps":5289,"Ġsyn":5290,"ulture":5291,"ĠOper":5292,"Ġagreement":5293,"resents":5294,"Ġnorm":5295,"Ġrecover":5296,"iano":5297,"Ġmechanism":5298,"Can":5299,"72":5300,"Ġchem":5301,"thing":5302,"Ġnomin":5303,"loy":5304,"Ġcollect":5305,"Ġfraction":5306,"Ġliterature":5307,"Ġframework":5308,"uns":5309,"ien":5310,"pass":5311,"eler":5312,"ĠFlorida":5313,"Ġapproximation":5314,"Ġbenef":5315,"Ġmovement":5316,"Color":5317,"ĠIll":5318,"Ġrap":5319,"$_":5320,"aligned":5321,"Ġstra":5322,"ilarly":5323,"Ġ__":5324,"Ġformula":5325,"Ġaim":5326,"selves":5327,"Ġsquare":5328,"azz":5329,"Ġdestroy":5330,"Ġesc":5331,">&":5332,"Äĩ":5333,"mission":5334,"1940":5335,"ĠCur":5336,"java":5337,")/":5338,"ishes":5339,"Ġ(-":5340,"Ġauth":5341,"Ġyet":5342,"1969":5343,"Med":5344,"osm":5345,"Ġconcern":5346,"Char":5347,"core":5348,"gra":5349,"Ġanti":5350,"Ġembedd":5351,"ski":5352,"Ġinternal":5353,"ĠFre":5354,"ĠKn":5355,"English":5356,"ko":5357,"Ġcop":5358,"Ġhol":5359,"inite":5360,"FT":5361,"Ġdescribe":5362,"child":5363,"limits":5364,"actory":5365,"aussian":5366,"1945":5367,"ĠDis":5368,"Ġplane":5369,"ĉĉĉĉĉĉ":5370,"Ġframe":5371,"gu":5372,"Ġmatches":5373,"itors":5374,"rence":5375,"ĠKh":5376,"Ġanc":5377,"_{{\\":5378,"eful":5379,"ĠFurther":5380,"Ġslow":5381,"ĠOur":5382,"Ġfill":5383,"start":5384,"Ġconserv":5385,"Ġhit":5386,"ĠUnder":5387,"related":5388,"Ġsport":5389,"Ġconsequ":5390,"Ġtim":5391,"Ġgrowth":5392,"colon":5393,"Ġsolid":5394,"Ġleader":5395,"App":5396,"Ġpen":5397,"Ġtraditional":5398,"stra":5399,"ental":5400,"ette":5401,"subfigure":5402,"Ġunion":5403,"Ġproduce":5404,",âĢĿ":5405,"ÑĤ":5406,"Ġradius":5407,"Ġbre":5408,"hem":5409,"Ġdynamics":5410,"Ġsubset":5411,"_{-":5412,"Ġcaused":5413,"Ġconstructed":5414,"Ġgot":5415,"Ġwriters":5416,"Ġperturb":5417,"Act":5418,"ĠFestival":5419,"Ġbrought":5420,"Ġshift":5421,"rich":5422,"Ġvariety":5423,"\\!\\!":5424,"),\\":5425,"Ġfif":5426,"Ġpressure":5427,"Ġhot":5428,"84":5429,")\\,":5430,"stack":5431,"Ġgrand":5432,"ima":5433,"iana":5434,"Ġexamples":5435,"rees":5436,"Ġquality":5437,"Ġculture":5438,"Ġparticularly":5439,"91":5440,"She":5441,"abit":5442,"Ġcit":5443,"Ġcontrast":5444,"Ġcontinue":5445,"Ġblue":5446,"module":5447,"Ġmeasured":5448,"uted":5449,"Ġfully":5450,"$(":5451,"Ġcoupling":5452,"ato":5453,"iro":5454,"static":5455,"ĠKar":5456,"define":5457,"1967":5458,"olve":5459,"Back":5460,"Ġsusp":5461,"column":5462,"Ġactress":5463,"ĠOpen":5464,"kin":5465,"anda":5466,"Ġorganization":5467,"ĠPe":5468,"Net":5469,"tainer":5470,"76":5471,"Ġbranch":5472,"Ġmonth":5473,"fe":5474,"Ġextension":5475,"Ġdetermine":5476,"eve":5477,"Ġnumerical":5478,"400":5479,"ublican":5480,"_*":5481,"Ġmoney":5482,"ĠAssembly":5483,"Ġattention":5484,"ĠHere":5485,"ivial":5486,"normal":5487,"1930":5488,"Ġforward":5489,"ĠRussia":5490,"Ġprofile":5491,"content":5492,"ĠProvince":5493,"lease":5494,"cons":5495,"Ġsrc":5496,"uled":5497,"ĠParliament":5498,"ora":5499,"anks":5500,"PR":5501,"first":5502,"Ġinters":5503,"Ġargument":5504,"Ġpanel":5505,"flict":5506,"definition":5507,"Ġcomparison":5508,"seud":5509,"atriate":5510,"ricket":5511,"ĠRem":5512,"Ġactor":5513,"Ġfood":5514,"omic":5515,"web":5516,"Query":5517,"arks":5518,"~$\\":5519,"olved":5520,"oral":5521,"Ġmanagement":5522,"Ġface":5523,"Ġslight":5524,"Åį":5525,"Ġtrade":5526,"Per":5527,"Ġvocals":5528,"char":5529,"Ġheavy":5530,"Dec":5531,"1964":5532,"syl":5533,"Ġexperience":5534,"Ġnetworks":5535,"vania":5536,"osing":5537,"ĠAnn":5538,"ĠLie":5539,"Ġ};":5540,"context":5541,"){\\":5542,"================":5543,"anner":5544,"vey":5545,"Method":5546,"Other":5547,"ĠSpace":5548,"ĠBrazil":5549,"Ġexpon":5550,"icated":5551,"ufact":5552,"Ġexisting":5553,"Ġsoon":5554,"ĠCarolina":5555,"ecting":5556,"Ġpurch":5557,"real":5558,"iller":5559,"omy":5560,"textsc":5561,"Ġbank":5562,"Ġpolar":5563,"Ġdivision":5564,"Ġidentity":5565,"ĠSoviet":5566,"Ġarticle":5567,"ernel":5568,"ĠWales":5569,"bin":5570,"ĠIII":5571,"ĠĠĠĠĠĠĠĠĠĠĠĠĠĠĠĠĠ":5572,"Ġspat":5573,"ĠStar":5574,"Ġplatform":5575,"Ġmomentum":5576,"ancy":5577,"Ġ~":5578,"ĠFin":5579,"Ġpassed":5580,"ĠBr":5581,"Ġactually":5582,"ctions":5583,"Ġwinning":5584,"ollary":5585,"Person":5586,"ĠForm":5587,"Ġste":5588,"Ġuncertaint":5589,"iring":5590,"strong":5591,"ĠOh":5592,"gener":5593,"reshold":5594,"Ġspectral":5595,"ĠProposition":5596,"Ġstudent":5597,"Ġmur":5598,"Ġimprov":5599,"Ġsurround":5600,"Ġcontact":5601,"Ġequip":5602,"unched":5603,"ĠHistoric":5604,"irit":5605,"Ġrepresents":5606,"aker":5607,"Call":5608,"Ġlove":5609,"mann":5610,"Career":5611,"Ġlattice":5612,"Ġelectric":5613,"black":5614,"elopment":5615,"ĠMount":5616,"ething":5617,"Ġearn":5618,"itable":5619,"ĠRegister":5620,"--------------------------------":5621,"ĠAwards":5622,"Ġsometimes":5623,"iece":5624,"Mar":5625,"Ġ}\\":5626,"reedom":5627,"Ġinfluence":5628,":\\":5629,"Ġ|\\":5630,"Ġexistence":5631,"ĠTime":5632,"values":5633,"ĠSeries":5634,"next":5635,"82":5636,"elled":5637,"Ġrepe":5638,"adium":5639,"But":5640,"ributes":5641,"83":5642,"Ġvan":5643,"local":5644,"then":5645,"Ġwind":5646,"Ġdecom":5647,"IP":5648,"deg":5649,"Ġrequires":5650,"rea":5651,"ali":5652,"Ġfarm":5653,"1965":5654,"Ġamplit":5655,"Ġreplace":5656,"ĠFe":5657,"During":5658,"Ġmanager":5659,"ĠLu":5660,"ĠBoard":5661,"Ġmanufact":5662,"ÑĢ":5663,"wan":5664,"Ġcomes":5665,"ĠDec":5666,"Ġnil":5667,"=(":5668,"ests":5669,"emic":5670,"ĠVer":5671,"Ġseasons":5672,"Ġcore":5673,"Ġformat":5674,"Ġexperimental":5675,"kl":5676,"Ġsimulations":5677,"va":5678,"Ġconfiguration":5679,"Eq":5680,"anced":5681,"Ġdiss":5682,"Ġroute":5683,"ĠSil":5684,"Ġnews":5685,"Ġacadem":5686,"Ġfailed":5687,"Ġca":5688,"Now":5689,"Ġbrief":5690,"Ġeasily":5691,"Ġproducts":5692,"Ġprocesses":5693,"ja":5694,"Ġgrant":5695,"Films":5696,"Ġneeds":5697,"image":5698,"Ġmentioned":5699,"apers":5700,"Ġrailway":5701,"oration":5702,"enge":5703,",\\,":5704,"1966":5705,"Ext":5706,"Ġidentified":5707,"ĠOver":5708,"osh":5709,"hemat":5710,"ĠHel":5711,"Ġrecently":5712,"Ġdual":5713,"Result":5714,"Ġquick":5715,"ipal":5716,"ĠJoseph":5717,"Ġaccuracy":5718,"Ġoptimal":5719,"Ġjoint":5720,"Ġfactors":5721,"Ġthrow":5722,"Ġlat":5723,"81":5724,"Ġcontaining":5725,"Ab":5726,"IL":5727,"aven":5728,"even":5729,"Ġsimpl":5730,"ĠMur":5731,"Ġult":5732,"google":5733,"Ġmajority":5734,"Ġhighly":5735,"\\_":5736,"GB":5737,"Ġsatisfies":5738,"Ġdistinct":5739,"inf":5740,"1920":5741,"agement":5742,"Ġasp":5743,")}(":5744,"ĠFoundation":5745,"ĠEmpire":5746,"Ġpark":5747,"unct":5748,"Ġconsistent":5749,"Ġcause":5750,"Ġseparate":5751,"Ġcategory":5752,"ĠMost":5753,"Ġcollabor":5754,"force":5755,"Ġattended":5756,"ban":5757,"ĠOl":5758,"Ġprison":5759,"endix":5760,"ĠTour":5761,"Ġwoman":5762,"Ġmeasurements":5763,"roduction":5764,"Ġspent":5765,"Ġvertices":5766,"package":5767,"Ġpoet":5768,"allery":5769,"Ġprograms":5770,"Ġreli":5771,"Ġcensus":5772,"ersey":5773,"Dis":5774,"db":5775,"'\\":5776,"Ġarchitecture":5777,"Ġcele":5778,"Ġ...":5779,"Ġmiddle":5780,"Ġtoday":5781,"example":5782,"ĠHence":5783,"Ġapplications":5784,"ĠNews":5785,"osc":5786,"ansas":5787,"Ġchampionship":5788,"Ġedition":5789,"ĠIrish":5790,"elli":5791,"uge":5792,"sylvania":5793,"bottom":5794,"ĠLiber":5795,"Ġfinally":5796,"Ġsurvey":5797,"Ġresolution":5798,"}}(\\":5799,"73":5800,"Ġstudio":5801,"ĠâĢĺ":5802,"ibli":5803,"Ġnorthern":5804,"gn":5805,"Ġcopy":5806,"Ġsouthern":5807,"Ġdecay":5808,"However":5809,"pton":5810,"ĠMartin":5811,"ĠOld":5812,"Ġcorresponds":5813,"Ġappearance":5814,"ENT":5815,"Ġfa":5816,"74":5817,";&":5818,"subsubsection":5819,"css":5820,"Ġlegal":5821,"Ġcandidate":5822,"Ġshot":5823,"ĠColumb":5824,"Ġsoftware":5825,"])":5826,"\\\"":5827,"false":5828,"79":5829,"Fe":5830,"Ġfast":5831,"asion":5832,"ĠGr":5833,".$":5834,"Ġphil":5835,"hesis":5836,"Ġcarried":5837,"Ġchoose":5838,"$^{-":5839,"ĠLy":5840,"Ġproducer":5841,"stitution":5842,"Ġinitially":5843,"Read":5844,"wa":5845,"MM":5846,"Conn":5847,"ĠNULL":5848,"Ġbul":5849,"Ġriver":5850,"=-":5851,"Ġmedical":5852,"greg":5853,"ĠHealth":5854,"iler":5855,"rot":5856,"obile":5857,"lood":5858,"Ġgoals":5859,"Cre":5860,"ĠHon":5861,"zero":5862,"'_":5863,"Property":5864,"ulate":5865,"ĠYoung":5866,"lib":5867,"ĠBase":5868,"Ġcalculated":5869,"ova":5870,"Ġfilter":5871,"Ġoption":5872,"Ġbal":5873,"Ġcompute":5874,"Ã§":5875,"doc":5876,"Ġended":5877,"Ġactivities":5878,")_{":5879,"CA":5880,"Ġ\\(":5881,"lig":5882,"amm":5883,"Ġuseful":5884,")^{\\":5885,"eek":5886,"ĠNorthern":5887,"Ġcoast":5888,"track":5889,"ĠTimes":5890,"Response":5891,"Ġmicro":5892,"ogue":5893,"ĠArab":5894,"Ġking":5895,"perp":5896,"ĠEducation":5897,"Ne":5898,"Ġbasic":5899,"Ġcentre":5900,"Ġconsum":5901,"Pop":5902,"graph":5903,"ĠPac":5904,"ĠLong":5905,"IV":5906,"Ġconcent":5907,".~(\\":5908,"arameters":5909,"Ġsecurity":5910,"Ġtechnology":5911,"ifically":5912,"IF":5913,"Ġhours":5914,"Ġones":5915,"Ġreach":5916,"Ġessential":5917,"Ġsupp":5918,"free":5919,"Ġisland":5920,"Ġedges":5921,"Part":5922,"Ġ+\\":5923,"Ġconvert":5924,"Ġsituation":5925,"Ġgenus":5926,"ĠWood":5927,"ĠĠĠĠĠĠĠĠĠĠĠĠĠĠ":5928,"Ġshare":5929,"speople":5930,"Ġcomment":5931,"Che":5932,"Ġclassification":5933,"Ġmusical":5934,";</":5935,"ĠGal":5936,"John":5937,"ĠSir":5938,"etime":5939,"Ġprocedure":5940,"Ġwhom":5941,"kins":5942,"ampion":5943,"Ġeconomic":5944,"DF":5945,"Ġbool":5946,"itter":5947,"Ġnewsp":5948,"Oper":5949,"ĠLine":5950,"Ġreferred":5951,"Ġinterview":5952,"Ġthemselves":5953,"Ġsemi":5954,"({":5955,"ĠNow":5956,"forall":5957,"venue":5958,"Ġcontributions":5959,"ĠAlso":5960,"Ġeditor":5961,"ĠBig":5962,"ĠFort":5963,"ati":5964,"ĠBas":5965,"Ġtreatment":5966,"only":5967,"Client":5968,"bi":5969,"Ġentry":5970,"Ġmole":5971,"Ġfeed":5972,"Ġassumption":5973,"Ġcommercial":5974,"sime":5975,"stein":5976,"inity":5977,"Ġmostly":5978,"}$-":5979,"simeq":5980,"Fl":5981,"ĠEngine":5982,"{$\\":5983,"Ġsports":5984,"ymmet":5985,"alg":5986,"Ġfinancial":5987,"ĠMoreover":5988,"Ġcorrelation":5989,"ĠSpain":5990,"len":5991,"Ġformal":5992,"Ġerrors":5993,"Ġconstraints":5994,"ibly":5995,"ĠGreek":5996,"Ġ]":5997,"Pre":5998,"71":5999,"rons":6000,"ĠSk":6001,"ĠLove":6002,"Line":6003,"ĠUp":6004,"ithub":6005,"}%":6006,"à¤":6007,"otype":6008,"Here":6009,"Ġdefeated":6010,"ĠHaw":6011,"bullet":6012,"Ġopening":6013,"ĠField":6014,"Ġ;":6015,"OM":6016,">(":6017,"CS":6018,"Ġexam":6019,"Override":6020,"ĠSocial":6021,"Ġstatement":6022,"Ġsn":6023,"Ġterrit":6024,"Ġunknown":6025,"ympt":6026,"ĠMax":6027,"Ġmainly":6028,"oder":6029,"yles":6030,"Ġgreater":6031,"CP":6032,"aka":6033,"ĠCross":6034,"ĠInc":6035,"Ġsignificantly":6036,"iders":6037,"ultural":6038,"Ġcoefficients":6039,"rip":6040,"HT":6041,"yan":6042,"ĠBob":6043,"Ġassumed":6044,"Ġprevent":6045,"Ġsingles":6046,"ĠPennsylvania":6047,"1962":6048,"Ġnearly":6049,"Ġteacher":6050,"awa":6051,"Ġmodule":6052,"Ġmission":6053,"ĠLee":6054,"1963":6055,"Ġ&=&":6056,"Ġsays":6057,"house":6058,"ĠLife":6059,"ĠTw":6060,"=\"../":6061,"break":6062,"Ġspaces":6063,"Builder":6064,"Ġtypically":6065,"Ġstd":6066,"element":6067,"Ġsplit":6068,"func":6069,"Box":6070,"ady":6071,"zy":6072,"EM":6073,"Ġpack":6074,"ilib":6075,"Ġdeb":6076,"ĠJac":6077,"Ġchief":6078,"Ġcommission":6079,"Ġlaunched":6080,"Cur":6081,"Ġchain":6082,"Ġdetection":6083,"open":6084,"ĠChief":6085,"Ġfix":6086,"arriage":6087,"$$\\":6088,"dir":6089,"iffer":6090,"stract":6091,"asi":6092,"ogene":6093,"Ġsummer":6094,"Ġstraight":6095,"Ġarrang":6096,"Ġcombined":6097,"Ġpositions":6098,"ĠWal":6099,"dim":6100,"rants":6101,"Ġapprop":6102,"EX":6103,"rolled":6104,"Ġchalleng":6105,"Ġextra":6106,"Ġusers":6107,"Ġdisk":6108,"Base":6109,"Ġremoved":6110,"ĠProfess":6111,"Ġwood":6112,"rium":6113,"Ġactivity":6114,"Ġdepends":6115,"fect":6116,"Ġstrategy":6117,"inger":6118,"Ñģ":6119,"Ġdesp":6120,"Ġsteps":6121,"hom":6122,"1944":6123,"Ġangle":6124,"Ġplot":6125,"ependence":6126,"inet":6127,"Ġdise":6128,"ĠConn":6129,"ĠĠĠĠĠĠĠĠĠĠĠĠĠĠĠĠĠĠĠĠĠĠĠĠĠĠĠĠĠĠĠ":6130,"$).":6131,"uster":6132,"Ġreb":6133,"Ġagent":6134,"Ġinequality":6135,"Ġincorpor":6136,"ĠRo":6137,"server":6138,"uations":6139,")^{-":6140,"term":6141,"Ġotherwise":6142,"Ġofficer":6143,"Ġtechniques":6144,"Ġamb":6145,"ĠBank":6146,"Ġtensor":6147,"ĠCam":6148,"Ġimmediately":6149,"Ġroom":6150,"Ġorb":6151,"Ġmagazine":6152,"namespace":6153,"actions":6154,"ĠJo":6155,"resh":6156,"Ġcompletely":6157,"Ġthreat":6158,"Results":6159,"enth":6160,"Ġsimulation":6161,"font":6162,"eger":6163,"Ġrelevant":6164,"ji":6165,"Ġowned":6166,"Ġrelatively":6167,"Ġinteresting":6168,"ĠUnivers":6169,"ATE":6170,"call":6171,"iography":6172,"Ġdenotes":6173,"cases":6174,"ĠHot":6175,"Ġscalar":6176,"sych":6177,"Ġpropag":6178,"User":6179,"Ġgreen":6180,"usband":6181,"Ġcurves":6182,"Ġconfir":6183,"unior":6184,"oute":6185,"Ġrates":6186,"airman":6187,"kes":6188,"ĠEr":6189,"Ġhttp":6190,"iency":6191,"Ġroot":6192,"process":6193,"Style":6194,"Ġminim":6195,"tx":6196,"abilities":6197,"owers":6198,"Ġmixed":6199,"Ġpoor":6200,"ĠBattle":6201,"oston":6202,"Ġpairs":6203,"Ġnumerous":6204,"aa":6205,"github":6206,"otal":6207,"ĠTeam":6208,"Stream":6209,"Ġincreases":6210,"Ġauthors":6211,"ĠIran":6212,"Ġdistributions":6213,"isters":6214,"ĠEnd":6215,"matrix":6216,"Ġgeneration":6217,"uages":6218,"etts":6219,"Ġdrama":6220,"Ġpick":6221,"ĠPost":6222,"Input":6223,"mas":6224,"ĠJer":6225,"}^*":6226,"Ġextract":6227,"ĠRel":6228,"Ġdisp":6229,"sur":6230,"Ġinn":6231,"null":6232,"cf":6233,"sto":6234,"ĠUk":6235,"ĠValley":6236,"rical":6237,"Ġdistributed":6238,"ĠDirector":6239,"Ġfun":6240,"amental":6241,"Ġquite":6242,"Ġforest":6243,"Ġvac":6244,"cs":6245,"Ġlived":6246,"Ġbattle":6247,"Head":6248,"itation":6249,"More":6250,"Ð¾Ð":6251,"Ġthings":6252,"Ġbecoming":6253,"Off":6254,"Am":6255,"Ġprotected":6256,"NA":6257,"rics":6258,"Ġminutes":6259,"Ġcapacity":6260,"Ġmaster":6261,"Ġvisual":6262,"Ġutil":6263,"ĠLin":6264,"lie":6265,"ĠJim":6266,"Ġrecords":6267,"LS":6268,"Ġmodes":6269,"Ġprefer":6270,"nam":6271,"Ġcarry":6272,"Ġinvariant":6273,"espite":6274,"Ġinner":6275,"ĠTim":6276,"dx":6277,"Ġentered":6278,"1961":6279,"iy":6280,"rative":6281,"come":6282,"Ġreally":6283,"emporary":6284,"Ġstay":6285,"igation":6286,"perties":6287,"erse":6288,"options":6289,"Work":6290,"icity":6291,"ĠCamb":6292,"Ġtheore":6293,"Ġlink":6294,"Ġactions":6295,"ĠPre":6296,"TH":6297,"ested":6298,"Ġetc":6299,"ĠJud":6300,"Ġansw":6301,"sky":6302,"Ġflat":6303,"ĠAtt":6304,"inding":6305,"Ġarmy":6306,"Ġshowed":6307,"LP":6308,"Ġcorn":6309,"olt":6310,"chen":6311,"ĠBul":6312,"\"),":6313,"contin":6314,"ĠCivil":6315,"dep":6316,"pmatrix":6317,"ĠStep":6318,"Ġsenior":6319,"Ġspread":6320,"oly":6321,"eks":6322,"Aust":6323,"soft":6324,"Source":6325,"Ġcommunities":6326,"Ġapproaches":6327,"Ġmeeting":6328,"Ġexactly":6329,"query":6330,"Ġextends":6331,"cd":6332,"ĠPeople":6333,"Ġcard":6334,"Ġhum":6335,"ĠSouthern":6336,"nowled":6337,"Ġreduce":6338,"ĠGen":6339,"ĠPlay":6340,"Ġstellar":6341,"Ġspecified":6342,"Ġ=\\":6343,"inner":6344,"Sw":6345,"Ġdrum":6346,"Ġring":6347,"final":6348,"Ġmoving":6349,"Ġtor":6350,"rade":6351,"aily":6352,"Ġolder":6353,"oting":6354,"Ġcombination":6355,"ĠBritain":6356,"Ġcomposed":6357,"po":6358,"arant":6359,"Image":6360,"Ġquad":6361,"Ġabsor":6362,"ĠFri":6363,"Ġresponsible":6364,"bury":6365,"Ġbeg":6366,")\\\\":6367,"Ġcomputer":6368,"Ġsingular":6369,"}}^":6370,"ĠSee":6371,"har":6372,"Ġintroduce":6373,"orter":6374,"Ġindividuals":6375,"Ġbottom":6376,"prob":6377,"ellig":6378,"Ġpoly":6379,"ĠRam":6380,"Ġorient":6381,"1942":6382,"system":6383,"ror":6384,"Ġstable":6385,"Ġhoriz":6386,"Ġdependence":6387,"achus":6388,"LT":6389,"ĠRadio":6390,"Ġforeign":6391,"ĠJournal":6392,"lad":6393,"Ġdou":6394,"ĠPak":6395,"ĠDemocratic":6396,"Hz":6397,"ĠOf":6398,"Ġsomething":6399,"Ġspectra":6400,"ĠEarth":6401,"According":6402,"Our":6403,"etween":6404,"Ġprogress":6405,"Ġfil":6406,"1956":6407,"Ġmut":6408,"RA":6409,"Ġregime":6410,"Ġresource":6411,"Ġeasy":6412,"Ġpurpose":6413,"Ġleave":6414,"anger":6415,"ela":6416,"ennis":6417,"ĠLi":6418,"Year":6419,"displaystyle":6420,"post":6421,"rl":6422,"Ġalgorithms":6423,"ĠEach":6424,"Ġbus":6425,"Ġbey":6426,"omorphic":6427,"Ġlot":6428,"Par":6429,"ĠOx":6430,"imin":6431,"Ġability":6432,"Ġfootballer":6433,"1958":6434,"Ġcounty":6435,"aria":6436,"Ġfederal":6437,"Ġitem":6438,"ĠFC":6439,"ĠCE":6440,")}{\\":6441,"ename":6442,"ĠMr":6443,"Ġsampl":6444,"inois":6445,"aver":6446,"Ġproved":6447,"Ġachieved":6448,"ĠHy":6449,"1959":6450,"Ġannual":6451,"ĠMen":6452,"ilation":6453,"Ġforced":6454,"gypt":6455,"SD":6456,"Ġspeak":6457,"Ġimprove":6458,"Ġcells":6459,"Ġclient":6460,"aya":6461,"Ġexpressed":6462,"ĠLord":6463,"ĠSong":6464,"ifications":6465,"Action":6466,"ĠLibrary":6467,"Ġcru":6468,"\").":6469,"Ġupdate":6470,"Ġmachine":6471,"1948":6472,"burgh":6473,"newcommand":6474,"Ġfeel":6475,"Ġreligious":6476,"annels":6477,"Ġupd":6478,"Ġsea":6479,"Ġvs":6480,"ĠOhio":6481,"Ġslightly":6482,"ĠSar":6483,"Pos":6484,"Ġrecomm":6485,"poses":6486,"Ġbeyond":6487,"Figure":6488,"Ġstore":6489,"Ġquarter":6490,"Util":6491,"UE":6492,"ĠMem":6493,"Ġarbitrary":6494,"member":6495,"~~~~":6496,"ĠRh":6497,"Ġcomputed":6498,"Ġactual":6499,"udes":6500,"Ġwalk":6501,"neg":6502,"dl":6503,"ĠMichigan":6504,"Ġpreserv":6505,"^{+":6506,"ĠCarl":6507,"{{":6508,"acter":6509,"Ġcam":6510,"finished":6511,"Ġtun":6512,"Ġcalc":6513,"ĠAsian":6514,"odot":6515,"Ġhusband":6516,"ĠRepublican":6517,"Ġelections":6518,"Ġdepartment":6519,"ĠTheir":6520,"ĠScotland":6521,"achusetts":6522,"})$.":6523,"1957":6524,"Ġremain":6525,"ĠDutch":6526,"Ġopport":6527,"after":6528,"Ġinteractions":6529,"Run":6530,"Ġspatial":6531,"Ġcry":6532,"eds":6533,"ĠHig":6534,"Ġhistorical":6535,"ador":6536,"Ġregister":6537,"1000":6538,"GC":6539,"Å¡":6540,"ĠJersey":6541,"Ġclaimed":6542,"Rel":6543,"Members":6544,"Ġoccurs":6545,"Thus":6546,")</":6547,"ĠJan":6548,"urt":6549,"Ġharm":6550,"ĠSol":6551,"RI":6552,"ĠOffice":6553,"ĠConference":6554,"Ġlies":6555,"Date":6556,"Ġparents":6557,"1943":6558,"Ġtold":6559,"mond":6560,"ĠNetwork":6561,"Ġgenerate":6562,"Window":6563,"1939":6564,"Ġinteger":6565,"Ġgalaxy":6566,"Ġbass":6567,"Ġensure":6568,"ĠEdward":6569,"ĠPoland":6570,"istical":6571,"multi":6572,"Ġraised":6573,"agraph":6574,"adow":6575,"enant":6576,"Ġserve":6577,"ĠJones":6578,"Ġpromin":6579,"Ġweeks":6580,"ĠAsia":6581,"Ġdescent":6582,"Ġvictory":6583,"Ġsites":6584,"Ġnative":6585,"ĠTop":6586,"Ġsegment":6587,"Ġbit":6588,"aters":6589,"Ġthreshold":6590,"src":6591,"ĠKent":6592,"Aut":6593,"Ġtrained":6594,"while":6595,"Ġoptical":6596,"ibliography":6597,"Ġnation":6598,"android":6599,"ulty":6600,"ĠTem":6601,"Ġexchange":6602,"icks":6603,"ĠMajor":6604,"Ġoperated":6605,"ila":6606,"Ġstrength":6607,"'}":6608,"1941":6609,"Ġsymmetric":6610,"Ġstatistics":6611,"eft":6612,"Ġrisk":6613,"rong":6614,"irls":6615,"PP":6616,"ĠSta":6617,"ĠRepresent":6618,"FI":6619,"National":6620,"Ġadvant":6621,"osoph":6622,"ĠBoth":6623,"iÄĩ":6624,"Ġarrest":6625,"clos":6626,"lock":6627,")$-":6628,"tainment":6629,"Ġparallel":6630,"Ġcosm":6631,"NR":6632,"Ġmeasures":6633,"lines":6634,"target":6635,"Ġproceed":6636,"Ġordered":6637,"SM":6638,"arser":6639,"aylor":6640,"ĠPacific":6641,"Ġcitiz":6642,"Car":6643,"Ġdevice":6644,"imb":6645,")_":6646,"Ġresources":6647,"Ġbatt":6648,"ribe":6649,"These":6650,"roph":6651,"asy":6652,"cr":6653,"fit":6654,"Ġmeasurement":6655,"Ġcontained":6656,"vest":6657,"Ġactors":6658,"ĠGaussian":6659,"ĠQueen":6660,"Ġmurder":6661,"La":6662,"Ġnine":6663,"Ġelev":6664,"Ġchart":6665,"Ġmountain":6666,"Ġice":6667,"Ġships":6668,"Ġwav":6669,"Ġphen":6670,"Ġboolean":6671,"Ġincome":6672,"Status":6673,"1946":6674,"Ġpure":6675,"ĠĠĠĠĠĠĠĠĊ":6676,"ĠProgram":6677,"cean":6678,"Ġasked":6679,"Ġ<<":6680,"Ġdespite":6681,"ĠCa":6682,"ĠCentre":6683,"remark":6684,"wer":6685,"\\|_{":6686,"Ġcolon":6687,"Ġstrict":6688,"ĠJewish":6689,"Ġfoot":6690,"Ġmatrices":6691,"Ġhydro":6692,"fort":6693,"she":6694,"Ġsociety":6695,"Ġpil":6696,"Brit":6697,"een":6698,"ĠCro":6699,"olute":6700,"Token":6701,"Ġinterface":6702,"ĠMah":6703,"Ġdepict":6704,"Ġestimates":6705,"tained":6706,"Ġcat":6707,"Ġtypical":6708,"Ġuniversity":6709,"Ġsquad":6710,"ĠAut":6711,"dat":6712,"CL":6713,"Ġprojects":6714,"sg":6715,"Ġnam":6716,"Ġdiscussion":6717,"arden":6718,"Ġrapid":6719,"Instance":6720,"ĠÅ":6721,"1955":6722,"ĠEqu":6723,"Ġleaving":6724,"Ġvary":6725,"_-":6726,"El":6727,"Ġpoliticians":6728,"project":6729,"Ġmovie":6730,"1952":6731,"Ġeth":6732,"py":6733,"uer":6734,"Ġquery":6735,"Ġtracks":6736,"aug":6737,"Ġwestern":6738,"law":6739,"Function":6740,"Ġcycl":6741,"150":6742,"miss":6743,"bas":6744,"Track":6745,"Ġbad":6746,"ĠMountain":6747,"mapsto":6748,"Ġcoordinates":6749,"Ġgiving":6750,"lets":6751,"ez":6752,"Ġadopted":6753,"Ġserving":6754,"Ġlum":6755,"ĠDet":6756,"ĠBuild":6757,":#":6758,"Ġdistingu":6759,"Ġwhy":6760,"write":6761,"Ġgovern":6762,"chang":6763,"Ġloop":6764,"Ġbinary":6765,"Ã±":6766,"ãĥ":6767,"ĠShow":6768,"Ġconflict":6769,"AF":6770,"adel":6771,"client":6772,"Ġsubsequently":6773,"Ġstrongly":6774,"las":6775,"onia":6776,"ĠGeorgia":6777,"enty":6778,"undred":6779,"Ġsections":6780,"Ġmorph":6781,"ograp":6782,"ĠSpring":6783,"HE":6784,"ĠMassachusetts":6785,"1947":6786,"Ġreconst":6787,"Ġgain":6788,"ĠIllinois":6789,"urban":6790,"<!--":6791,"ĠBow":6792,"}}^{":6793,"ĠPrem":6794,"ĠAz":6795,"ĠProject":6796,"ĠKong":6797,"Theorem":6798,"Ġ->":6799,"mail":6800,"ĠReturn":6801,"plete":6802,"Ġ$$":6803,"Ġ${":6804,"Ġcompare":6805,"Ġretired":6806,"oded":6807,"Ġonto":6808,"outhe":6809,"ĠHamiltonian":6810,"ĠRailway":6811,"Ġsettlement":6812,"Ġvote":6813,"Ġcoming":6814,"fact":6815,"ĠBern":6816,"DB":6817,"Ġcycle":6818,"Ġexternal":6819,"Ġyields":6820,"ĠRos":6821,"ĠPortug":6822,"Ġseat":6823,"Ġtransformation":6824,"$;":6825,"ĠJohnson":6826,"Ġreturns":6827,"Ġtasks":6828,"abil":6829,"While":6830,"Ġassigned":6831,"atically":6832,"Ġrecording":6833,"otted":6834,"number":6835,"Ġefficient":6836,"Mon":6837,"ĠWilliams":6838,"mc":6839,"php":6840,"ĠElect":6841,"Ġsqu":6842,"Dist":6843,"Ġturned":6844,"ilibrium":6845,"ĠMu":6846,"Ġprobably":6847,"ĠBoston":6848,"ĠPhilipp":6849,"Ġindicates":6850,"Ġasympt":6851,"Ġhelped":6852,"Ġvon":6853,"Ġcovered":6854,"Ġbelieved":6855,"Ġlaws":6856,"Gener":6857,"num":6858,"Rem":6859,"arams":6860,"entry":6861,"rect":6862,"Sch":6863,"Ġobserve":6864,"Ġshoot":6865,"oir":6866,"Ġmanifold":6867,"tri":6868,"eld":6869,"|}":6870,"Next":6871,"1953":6872,"Ġwanted":6873,"1954":6874,"Don":6875,"ĠType":6876,"Met":6877,"parent":6878,"Ġcomedy":6879,"Red":6880,"poration":6881,"Ġparties":6882,"Ġthick":6883,"120":6884,"onds":6885,"ounds":6886,"ĠIN":6887,"Ġdiscovered":6888,"Ġattract":6889,"hbar":6890,"Ġdoc":6891,"CM":6892,"ternet":6893,"Ġâ":6894,"Ġmis":6895,"des":6896,"icate":6897,"Cons":6898,"Ġassign":6899,"sche":6900,"proposition":6901,"ĠGood":6902,"Dev":6903,"Art":6904,"ECT":6905,"Ġpartial":6906,"Ġnuclear":6907,"Ġdead":6908,"sign":6909,"Ġacquired":6910,"Ġhypot":6911,"ĠGovernor":6912,"Ġclubs":6913,"abeth":6914,"ONT":6915,"Ġproviding":6916,"ĠTheatre":6917,"Ġnucle":6918,"Ġandroid":6919,"faces":6920,"ĠFrancisco":6921,"Ġofficers":6922,"Min":6923,"ĠPlaces":6924,"Ġalternative":6925,"Ġgrid":6926,"Ġdepth":6927,"Ġmasses":6928,"Ġscene":6929,"usc":6930,"opic":6931,"Gu":6932,"Section":6933,"Ġbehavi":6934,"posite":6935,"ĠLang":6936,"Ġsynt":6937,"Ġlives":6938,"ĠCoast":6939,"Ġprep":6940,"tik":6941,"Ġfamous":6942,"ĠBre":6943,"Point":6944,"\\{\\":6945,"Ġorganizations":6946,"Ġconducted":6947,"Ġaxis":6948,"ĠBal":6949,"select":6950,"Ġdemand":6951,"ĠEastern":6952,"Ġhop":6953,"Start":6954,"press":6955,"Ġsuc":6956,"ighter":6957,"Ġseems":6958,"Handler":6959,"ĠLuc":6960,"Ġign":6961,"Ġinterval":6962,"adding":6963,"request":6964,"Ġvectors":6965,"gr":6966,"Ġaccur":6967,"Ġdetailed":6968,"Ġmagnitude":6969,"ĠInst":6970,"1949":6971,"aped":6972,"ructure":6973,"args":6974,"eller":6975,"Ġdifferential":6976,"ÅĤ":6977,"Right":6978,"Wid":6979,"rance":6980,"United":6981,"fs":6982,"So":6983,"ĠIslam":6984,"ĠHead":6985,"Ġcities":6986,"ĠScottish":6987,"Equal":6988,"$~":6989,"Ġdifferences":6990,"SR":6991,"Ġsister":6992,"ĠEgypt":6993,"Ġdivided":6994,"ĠSecretary":6995,"Ġfair":6996,"Ġreflect":6997,"iling":6998,"vector":6999,"Ġpain":7000,"Ġseem":7001,"Ġprofessor":7002,"'(":7003,"Ġproport":7004,"ographic":7005,"Ġways":7006,"Ġcouncil":7007,"ĠData":7008,"ifies":7009,"ĠPrince":7010,"itage":7011,"description":7012,"ione":7013,"scill":7014,"Ġnearby":7015,"Ġmetal":7016,"ĠCy":7017,"Ġexception":7018,"Ġoffered":7019,"ving":7020,"ĠHung":7021,"ĠOxford":7022,"ture":7023,"orig":7024,"option":7025,"onto":7026,"Ġcomputation":7027,"pg":7028,"Em":7029,"Ġrang":7030,"Ġgoes":7031,"Ġsector":7032,"ĠDevelopment":7033,"Ġimplementation":7034,"Ġheart":7035,"occer":7036,"hbox":7037,"ĠPolish":7038,"Ġalt":7039,"PO":7040,"Ġfeat":7041,"British":7042,"yer":7043,"jav":7044,"}&":7045,"Ġsaying":7046,"Ġquickly":7047,"TO":7048,"ĠSand":7049,"Ġbrand":7050,"lections":7051,"Ġfle":7052,"ĠBang":7053,"Ġ\"\"\"":7054,"Ġlif":7055,"Ġstories":7056,"bot":7057,"Ġlanguages":7058,"Ġregional":7059,"ĠPop":7060,"Ġplans":7061,"Ġsucceed":7062,"ĠStan":7063,"Ġscattering":7064,"ERT":7065,"Ġdrug":7066,"ĠSpe":7067,")},":7068,"eli":7069,"rawn":7070,"Ġobservation":7071,"Ġss":7072,"Component":7073,"ĠHam":7074,"Ġmuseum":7075,"Ġgap":7076,"Ġreserv":7077,"ricts":7078,"ĠHa":7079,"property":7080,"two":7081,"Ġappropriate":7082,"unfinished":7083,"Ġhockey":7084,"standing":7085,"Nav":7086,"alysis":7087,"Ġindicate":7088,"ĠSenate":7089,"INE":7090,"arters":7091,"chers":7092,"Ġcatch":7093,"Ġreson":7094,"1951":7095,"ĠObject":7096,"mass":7097,"ĠColumbia":7098,"ĠMany":7099,"ypes":7100,"ĠRay":7101,"asure":7102,"Ġcircle":7103,"}({\\":7104,"PA":7105,"ĠChild":7106,"claim":7107,"Ġconvergence":7108,"Ġextrem":7109,"emble":7110,"Ġidentify":7111,"Ġcelebr":7112,"Ġclusters":7113,"Ġtalk":7114,"antry":7115,"Ġreduction":7116,"ĠWay":7117,"bre":7118,"ĠKe":7119,"ĠMiddle":7120,"ĠJr":7121,"Ac":7122,"ĠVan":7123,"Ġneighborhood":7124,"Ġpersonnel":7125,"Number":7126,"ĠMov":7127,"stone":7128,"Ġworkers":7129,"ifact":7130,"ĉĉĉĉĉĉĉĉ":7131,"Ġletter":7132,"Ġalleg":7133,"Ġexc":7134,"Ġsatisfy":7135,"ĠLatin":7136,"icine":7137,"Description":7138,"Ġcloud":7139,")+\\":7140,"Ġmarriage":7141,"Ġearned":7142,"ĠJes":7143,"Ġsuggested":7144,"You":7145,"ĠĠĠĠĠĠĠĠĠĠĠĠĊ":7146,"Ġreject":7147,"Prov":7148,"ga":7149,"ategory":7150,"Ġbeam":7151,"Resource":7152,"Ġpartition":7153,"SL":7154,"TP":7155,"such":7156,"Ġnone":7157,"lers":7158,"Ġinform":7159,"Ġast":7160,"ĠMid":7161,"Ġweb":7162,"ni":7163,"hr":7164,"Ġarguments":7165,"Writ":7166,"button":7167,"Ġconfirmed":7168,"Ġfavor":7169,"Options":7170,"adata":7171,"ĠLev":7172,"Ġphysics":7173,"Ġachieve":7174,"ĠWilson":7175,"Null":7176,"tikz":7177,"alities":7178,"enger":7179,"Rev":7180,"Me":7181,"Block":7182,"Ġvirtual":7183,"Dem":7184,"plex":7185,"VID":7186,"Ġjoin":7187,"ĠEnter":7188,"Ġbridge":7189,"ontal":7190,"Ġtheoretical":7191,"Ġfriends":7192,"white":7193,"ĠBlue":7194,"Ġwidely":7195,"Ġpp":7196,"ĠSea":7197,"DA":7198,"ibr":7199,"ebug":7200,"ĠTre":7201,"Ġorth":7202,"Ġoscill":7203,"bed":7204,"teen":7205,"chester":7206,"Ġpriv":7207,"spect":7208,"pack":7209,"ĠHor":7210,"ĠLab":7211,"cks":7212,"uries":7213,"AME":7214,"ĠSpecial":7215,"Ġpseud":7216,"ĠCard":7217,"Ġprimarily":7218,"ĠLater":7219,"append":7220,"sen":7221,"ĠCr":7222,"Ġnotation":7223,"del":7224,"uri":7225,"Ġacting":7226,"Ġdepart":7227,"uler":7228,"Ġrough":7229,"Ġmunicipality":7230,"lap":7231,"Ġyouth":7232,"last":7233,"Ġshared":7234,"'.":7235,"Ġinstall":7236,"ipe":7237,"Ġefforts":7238,"cref":7239,"Ġwall":7240,"Ġhospital":7241,"1936":7242,"Ã¡n":7243,"Ġminimal":7244,"hu":7245,"ĠHong":7246,"&=&":7247,"Ġrevealed":7248,"Ġrise":7249,"picture":7250,"ensions":7251,"ais":7252,"Ġclearly":7253,"ĠLag":7254,"Ġwor":7255,"ĠWis":7256,"Ġreceive":7257,"zech":7258,"orough":7259,"ĠCreek":7260,"Sche":7261,"ĠWall":7262,"eness":7263,"Ġreform":7264,"Ġcompeted":7265,"sol":7266,"ĠRun":7267,"ĠBroad":7268,"ailed":7269,"ancing":7270,"Ġissued":7271,"ĠModel":7272,"Ġacts":7273,")}_{":7274,"Ġideal":7275,"header":7276,"cat":7277,"1918":7278,"Us":7279,"thur":7280,"itzer":7281,"Ġfundamental":7282,"|_{":7283,"Ġiniti":7284,"Ġremove":7285,"Sing":7286,"show":7287,"Ġphenomen":7288,"ĠStation":7289,"una":7290,"ulpt":7291,"Ġpurs":7292,"Ġ((":7293,"Ġleaves":7294,"Ġcommonly":7295,"ĠCorps":7296,"Ġamplitude":7297,"Ġlibrary":7298,"amin":7299,"Ġfreedom":7300,"ĠAlexander":7301,"Content":7302,"Ġconcert":7303,"ocket":7304,"iga":7305,"Ġexplain":7306,"ĠLog":7307,"Ġscript":7308,"pdate":7309,"Sport":7310,"ologist":7311,"Ġcrew":7312,"edia":7313,"Ġtesting":7314,"DP":7315,"ĠColor":7316,"Max":7317,"Ġtrial":7318,"ori":7319,"ptr":7320,"igger":7321,"Ġfort":7322,"Men":7323,"ulf":7324,"${":7325,"Ġhar":7326,"ĠEp":7327,"([":7328,"found":7329,"ĠFinally":7330,"}}$,":7331,"Ġfirm":7332,"ipage":7333,"ugin":7334,"Ġorganized":7335,"ĠSi":7336,"Ġdegrees":7337,"}{|":7338,"Ã£":7339,"Ġcultural":7340,")-\\":7341,"Ġinstr":7342,"Buffer":7343,"ĠBelg":7344,"ĠFurthermore":7345,"phas":7346,"Ġener":7347,"1938":7348,"}{(":7349,"Filter":7350,"vin":7351,"Ġanalog":7352,"}$)":7353,"ogeneous":7354,"ederation":7355,"Ġawards":7356,"Ġdimensions":7357,"$),":7358,"Ġepisodes":7359,"ĠSu":7360,"also":7361,"ĠWater":7362,"Ġgraphs":7363,"})$,":7364,"uting":7365,"Ġmanaged":7366,"minipage":7367,"}}$.":7368,"Ġappearances":7369,"Ġexecutive":7370,"Ġtransferred":7371,"rovers":7372,"rane":7373,"Ġmedian":7374,"Ġkernel":7375,"Disc":7376,"ĠOp":7377,"SA":7378,"Ġprediction":7379,"ĠKorea":7380,"---":7381,"Ġeastern":7382,"Ġserver":7383,"Ġ+=":7384,"ĠGame":7385,"blue":7386,"illy":7387,"opher":7388,"dney":7389,"uous":7390,"utenant":7391,"ĠStand":7392,"Ġsecondary":7393,"cong":7394,"Ġrotation":7395,"Ġcricket":7396,"hor":7397,"Ġoil":7398,"writer":7399,"Introduction":7400,"ervices":7401,"Ġmarked":7402,"ographer":7403,"ĠNight":7404,"Ġcov":7405,"Ġmassive":7406,"Ġcalculations":7407,"Ġwinner":7408,"Ġscales":7409,"Ġthr":7410,"Ġfifth":7411,"Ġbaseball":7412,"Ġmargin":7413,"Ġcreation":7414,"tan":7415,"Ġmaterials":7416,"Ġunderstanding":7417,"Hel":7418,"ĠVictoria":7419,"ĠEst":7420,"Ġcomposition":7421,"unit":7422,"Ġresist":7423,"Ġfre":7424,"Ġgun":7425,"Ġvoice":7426,"Ġthermal":7427,"ãĤ":7428,"Ġchannels":7429,"iger":7430,"iate":7431,"icens":7432,"ĠUr":7433,"obj":7434,"Ġrare":7435,"Ġinduced":7436,"Ġfluct":7437,"Ġsched":7438,"Ġdraft":7439,"EL":7440,"ĠJackson":7441,"[(":7442,"ynamic":7443,"ĠBerlin":7444,"essages":7445,"Ġdoing":7446,"Ġlayers":7447,"Ġtechnique":7448,"Ġcalculation":7449,"1937":7450,"Ġthrows":7451,"oles":7452,"ologies":7453,"ĠPlan":7454,"Ġhouses":7455,"ĠTechnology":7456,"ĠSte":7457,"ĠBu":7458,"Ġflag":7459,"ocated":7460,"ĠAv":7461,"ĠÂ£":7462,"tag":7463,"ĠArgent":7464,"Ġpix":7465,"ucky":7466,"Return":7467,"Ġversions":7468,"ĠLim":7469,"Ġgradient":7470,"irus":7471,"Ġallowing":7472,"results":7473,"typ":7474,"Ġsal":7475,"ĠFer":7476,"hing":7477,"ĠBrook":7478,"sort":7479,"ĠSund":7480,"coming":7481,"ãģ":7482,"MR":7483,"img":7484,"ĠGar":7485,"Ġshowing":7486,"ĠConserv":7487,"Ġlimits":7488,"aren":7489,"True":7490,"Ġtroops":7491,"Ġfine":7492,"Ġconclude":7493,"pa":7494,"Ġmodified":7495,"dy":7496,"Ġtests":7497,"Ġcommunication":7498,"amber":7499,"ĠPy":7500,"General":7501,"Ġimportance":7502,"high":7503,"ometric":7504,"gies":7505,"orning":7506,"Will":7507,"Tra":7508,"prov":7509,"Ġnarrow":7510,"ĠCat":7511,"Ġorders":7512,"Ġcarri":7513,"Ġfellow":7514,"ĠDar":7515,"ĠBir":7516,"Ġattacks":7517,"ĠAndrew":7518,"cccc":7519,"ĠLittle":7520,"Ġbands":7521,"zo":7522,"))$":7523,"eech":7524,"Cor":7525,"cale":7526,"ruck":7527,"ĠPen":7528,"ĠBell":7529,"ĠFar":7530,"Ġ$|\\":7531,"Ġdial":7532,"cknowled":7533,"Ġdelay":7534,"ĠPoint":7535,"Ġtouch":7536,"ĠAdd":7537,"Ġangular":7538,"ĠBC":7539,"ĠNone":7540,"Ġprincipal":7541,"Ġodd":7542,"Ġspl":7543,"stable":7544,"Ġintended":7545,"disc":7546,"Ġchemical":7547,"Ġ\\&":7548,"ĠEliz":7549,")}}":7550,"Ġinstrument":7551,"Ġprovince":7552,"Ġsubgroup":7553,"ader":7554,"xx":7555,"Ġoperating":7556,"ĠJean":7557,"Ġ$.":7558,"iced":7559,"Ġprogramming":7560,"Ġconstitu":7561,"igration":7562,"uated":7563,"Ġdedicated":7564,"agnetic":7565,"ĉĉĊ":7566,"poss":7567,"Ġpromoted":7568,"step":7569,"ĠEconom":7570,"ĠFour":7571,"sect":7572,"sch":7573,"Ġguarant":7574,"Music":7575,"Top":7576,"DS":7577,"ĠHome":7578,"Ġpartners":7579,"\"|":7580,"ĠFollowing":7581,"GN":7582,"ĠCommon":7583,"Ġrepresenting":7584,"Label":7585,"ĠOlympic":7586,"ennes":7587,"ĠIslands":7588,"else":7589,"riev":7590,"het":7591,"json":7592,"onical":7593,"erc":7594,"Ġion":7595,"tains":7596,"LASS":7597,"ĠAff":7598,"OC":7599,"nic":7600,"find":7601,"ĠOnt":7602,"scriptstyle":7603,"ĠKen":7604,"Ġarticles":7605,"Ġresidents":7606,"Ġdisease":7607,":}":7608,"ĠCorn":7609,"*/":7610,"ĠBand":7611,"cut":7612,"bec":7613,"ropical":7614,"OL":7615,"Ġassociation":7616,"ĠFederal":7617,"});":7618,"float":7619,"ĠBa":7620,"Child":7621,"Ġempty":7622,"University":7623,"ĠHuman":7624,"Personal":7625,"Ġexpatriate":7626,"rank":7627,"IA":7628,"Ġdigital":7629,"sets":7630,"Austral":7631,"Ġoptimization":7632,"present":7633,"Ġitems":7634,"Ġcouple":7635,"Ġdepending":7636,"ĠHospital":7637,"ĠInf":7638,"Factory":7639,"mt":7640,"Ġnewspaper":7641,"emet":7642,"ĠMot":7643,"ĠPubl":7644,"gers":7645,"Ġfiles":7646,"Ġfunctional":7647,"Ġblocks":7648,"dule":7649,"Ġcaptured":7650,"Ġwhereas":7651,"omer":7652,"ĠPolice":7653,"Ġbuff":7654,"Ġbelieve":7655,"ĠSupreme":7656,"REF":7657,"yo":7658,"Ġconj":7659,"Ġheat":7660,"iec":7661,"AV":7662,"maz":7663,"ilbert":7664,"desc":7665,"Ġassess":7666,"Attribute":7667,"Ġ[\\":7668,"room":7669,"Ġdescribes":7670,"ĠOfficial":7671,"Ġhundred":7672,"Ġsubt":7673,"Ġmill":7674,"ashion":7675,"World":7676,"ometry":7677,"Lem":7678,"Ġorbit":7679,"Desc":7680,"Ġtal":7681,"Ġprinciple":7682,"anta":7683,"ĠTaylor":7684,"Ġencou":7685,"ĠWild":7686,"Ġadministration":7687,"Ġsession":7688,"phia":7689,"Ġowner":7690,"Ġowners":7691,"Ġacademic":7692,"Äį":7693,"Ġarrived":7694,"ĠJustice":7695,"Ġassistant":7696,"Ġmind":7697,"Ġrepro":7698,"ĠDaniel":7699,"Po":7700,"Ġbin":7701,"yes":7702,"\\;":7703,"DD":7704,"mma":7705,"inson":7706,"Arg":7707,"Version":7708,"ĠDer":7709,"ĠBBC":7710,"ĠViet":7711,"called":7712,",\\,\\":7713,"eman":7714,"Ġhole":7715,"watch":7716,"Ġtermin":7717,"Ġfrag":7718,"Ġtraffic":7719,"ĠBoy":7720,"mitted":7721,"ĠPhys":7722,"My":7723,"ĠRegion":7724,"Row":7725,"Ev":7726,"acent":7727,"ĠUN":7728,"ponents":7729,"ĠMinistry":7730,"Ġvertical":7731,"ĠBi":7732,"ĠNS":7733,"odies":7734,"Ġprominent":7735,"Ġvisit":7736,"orthe":7737,"Ġswitch":7738,"Ġquestions":7739,"ami":7740,"Ġconsec":7741,"FR":7742,"etherlands":7743,"Default":7744,"Ġcandidates":7745,"\"]":7746,"-$":7747,"Ġpiece":7748,"Ġaccepted":7749,"aught":7750,"Ġgeometry":7751,"Ġtraject":7752,"Ġinfinite":7753,"1935":7754,"notes":7755,"emy":7756,"verb":7757,"Ġapparent":7758,"peror":7759,"Ġacceler":7760,"private":7761,",$":7762,"Ġhonor":7763,"pop":7764,"Ġpra":7765,"Ġgraduated":7766,"Ġconsidering":7767,"itivity":7768,"./":7769,"Ġalongside":7770,"Ġcert":7771,"Ġlocations":7772,"Ġsides":7773,"fri":7774,"[\"":7775,"aved":7776,"Ġpropos":7777,"Ġperfect":7778,"ĠTri":7779,"Ġlargely":7780,"Cal":7781,"zh":7782,"Therefore":7783,"refix":7784,"pool":7785,"Ġlie":7786,"adelphia":7787,"ĠÎ":7788,"ĠUSA":7789,"ĠJoe":7790,"tfrac":7791,"MB":7792,"pat":7793,"uv":7794,"Ġoffers":7795,"Ġsummar":7796,"Ġcharacteristic":7797,"1914":7798,"Ġut":7799,"CR":7800,"second":7801,"Ġcoefficient":7802,"Ġalone":7803,"]}":7804,"ĠMuslim":7805,"Ġbounds":7806,"ronze":7807,"herent":7808,"YPE":7809,"ĠWhat":7810,"Ġcompl":7811,"Ġscaling":7812,"Finally":7813,"NO":7814,"Ġtranslation":7815,"status":7816,"Ġeffort":7817,"Ġbright":7818,"Ġdeliver":7819,"uing":7820,"Ġcond":7821,"cular":7822,"ĠTod":7823,"Ġlabor":7824,"Polit":7825,"aser":7826,"1919":7827,"Ġprote":7828,"Ġ{@":7829,"models":7830,"zer":7831,"Ġcool":7832,"Ġreasons":7833,"Ġnav":7834,"aki":7835,"ĠKenn":7836,"Ġimproved":7837,"Ġsort":7838,"Ġauto":7839,"ĠSant":7840,"ĠPrize":7841,"elligence":7842,"Load":7843,"ĠKorean":7844,"apped":7845,"HS":7846,"forward":7847,"ĠSydney":7848,"Ġancient":7849,"Using":7850,"........":7851,"Ġfeaturing":7852,"ĠVill":7853,"Ġadvantage":7854,"Ġlett":7855,"defined":7856,"Ġscope":7857,"Association":7858,"ĠSciences":7859,"Ġuncertainty":7860,"vari":7861,"Ġcomplexity":7862,"Ġemployed":7863,"Link":7864,"Ġagreed":7865,"Ġtrees":7866,"ĠGuard":7867,"Up":7868,"Tem":7869,"Ġexponential":7870,"uli":7871,"Cast":7872,"ĠAnother":7873,"PL":7874,"mediate":7875,"udget":7876,"Ġdiam":7877,"âĢ¦":7878,"Ã£o":7879,"arse":7880,"Ġoccurred":7881,"weg":7882,"Page":7883,"pped":7884,"Port":7885,"Ġmathemat":7886,"establ":7887,"floor":7888,"ĠLight":7889,"ĠPrime":7890,"Ġera":7891,"ĠRegiment":7892,"Ġluminos":7893,"Ġefficiency":7894,"ĠOntario":7895,"xml":7896,"ĠLes":7897,"Ġsubsequent":7898,"Ġcoordinate":7899,"%)":7900,"hetic":7901,"Ġcitizens":7902,"Ġsilver":7903,"diag":7904,"Ġdiscrete":7905,"consin":7906,"apes":7907,"hard":7908,"idel":7909,"Const":7910,"1917":7911,"Ġconvex":7912,"adian":7913,"ĠSom":7914,"conf":7915,"going":7916,"Ġfigures":7917,"$:":7918,"ĠUsing":7919,"close":7920,"Ġbomb":7921,"format":7922,"ĠRome":7923,"Ġtwice":7924,"Ġsure":7925,"VD":7926,"uum":7927,"orship":7928,"ĠJeff":7929,"Ġemphas":7930,"ĠPower":7931,"Ġelimin":7932,"scope":7933,"anth":7934,"Ġpet":7935,"BU":7936,"Ġperforming":7937,"chron":7938,"Ġserious":7939,"ĠAk":7940,"buf":7941,"Ġexcit":7942,"Ġdecomposition":7943,"III":7944,"Ġmedium":7945,"bel":7946,"Ġstorage":7947,"orney":7948,"Ġsoldiers":7949,"Ã¸":7950,"Ġque":7951,"Ġsuggests":7952,"filter":7953,"scriptsize":7954,"Ġevaluation":7955,"ĠThree":7956,"leton":7957,"ĠOs":7958,"Ġdenoted":7959,"ĠBon":7960,"ĠWeb":7961,"rage":7962,"sear":7963,"Ġtechnical":7964,"ĠST":7965,"bourne":7966,"ĠBecause":7967,"1933":7968,"ĠProfessor":7969,"Ġinject":7970,"1929":7971,"etch":7972,"ultane":7973,"ĠJon":7974,"Ġfacilities":7975,"meta":7976,"Ġpull":7977,"Case":7978,"Ġisol":7979,"IO":7980,"ĠRead":7981,"car":7982,"Ġroles":7983,"ĠMain":7984,"^*$":7985,"Ġcreating":7986,"Ġreports":7987,"Ġnamely":7988,"Ġgrowing":7989,"ĠRaj":7990,"ĠBusiness":7991,"Ġusual":7992,"ĠGener":7993,"ĠCorporation":7994,"Ġcapture":7995,"ĠMedia":7996,"}\\,\\":7997,"itness":7998,"Ġthous":7999,"fa":8000,"dependent":8001,"ĠAvenue":8002,"oli":8003,"ĠLo":8004,"ĠAnton":8005,"Ġinvolving":8006,"Ġkept":8007,"ĠRevolution":8008,"ĠNations":8009,"ĠQueens":8010,"Ġtag":8011,"brace":8012,"Ġathlet":8013,"Ġadministrative":8014,"Ġlisting":8015,"Background":8016,"si":8017,"Ġfailure":8018,"ifts":8019,"Ġshell":8020,"ĠID":8021,"Ã©e":8022,"ĠSports":8023,"Ġtend":8024,"Ġnet":8025,"Ġsecret":8026,"Ġexplained":8027,"rowser":8028,"Ġvariation":8029,"Ġremark":8030,"Ġsculpt":8031,"allow":8032,"Ġprojection":8033,"Equals":8034,"ĠRod":8035,"ND":8036,"expected":8037,"Ġlocally":8038,"ĠStat":8039,"algorithm":8040,"Ġpartner":8041,"Ġminister":8042,"appe":8043,"Ġexpanded":8044,"ierarch":8045,"author":8046,"Ġabund":8047,"Ġdatasets":8048,"ĠAirport":8049,"urer":8050,"raine":8051,"Ġreviews":8052,"poral":8053,"ĠRog":8054,"ĠReview":8055,"Ġentropy":8056,"Ġinh":8057,"imer":8058,"parameter":8059,"Ġuns":8060,"islative":8061,"Ġintegration":8062,"endif":8063,"ĠToronto":8064,"olitan":8065,"Ġven":8066,"Ġgets":8067,"Web":8068,"output":8069,"Ġpit":8070,"Ġweights":8071,"Ġcalculate":8072,"Ġinterested":8073,"${\\":8074,"ĠAst":8075,"nergy":8076,"ĠLew":8077,"1934":8078,"Ġadding":8079,"Ġplanned":8080,"Ġspirit":8081,"Ġprime":8082,"Ġscenario":8083,"chestra":8084,"Ġengineering":8085,"Ġlab":8086,"sd":8087,"Ġbr":8088,"ĠOrgan":8089,"Ġclean":8090,"perial":8091,"1910":8092,"Ġextend":8093,"Ġweap":8094,"1928":8095,"bro":8096,"Ġrepresentations":8097,")--":8098,"vol":8099,"bigl":8100,"Di":8101,"mosp":8102,"ĠOt":8103,"navbar":8104,"osa":8105,"sole":8106,"cp":8107,"oor":8108,"joy":8109,"Ġsolve":8110,"ĠGer":8111,"Ġmotor":8112,"ĠCambridge":8113,"Ġimag":8114,"Ġpsych":8115,"utt":8116,"$_{":8117,"Ġprice":8118,"ĠBab":8119,"110":8120,"athan":8121,"(&":8122,">>":8123,"Ġrobust":8124,"Ġworth":8125,"itled":8126,"Ġnotable":8127,"Ġserves":8128,"ussion":8129,"ĠPeak":8130,"mak":8131,"tw":8132,"efe":8133,"Command":8134,"Ġmusicians":8135,"Ġfinding":8136,"osl":8137,"Ġsubstant":8138,"oned":8139,"South":8140,"Dep":8141,"ĠJacob":8142,"mi":8143,"ĠElizabeth":8144,"hent":8145,"olis":8146,"Ġconference":8147,"ĠCommunity":8148,"akh":8149,"1932":8150,"aret":8151,"ĉĠ":8152,"Ġclaims":8153,"Ġplanet":8154,"Create":8155,"push":8156,"250":8157,"owa":8158,"Ġrecall":8159,"His":8160,"ĠVen":8161,"Ġtail":8162,"ĠTurk":8163,"Ġferm":8164,"Ġsurrounding":8165,",{\\":8166,"sex":8167,"]$.":8168,"Ġcoal":8169,"ĠNetherlands":8170,"raq":8171,"Ġrural":8172,"ĠAthlet":8173,"bigr":8174,"ĠAcc":8175,"1900":8176,"Ġcoinc":8177,"ĠCub":8178,"ĠNC":8179,"Ġinstitutions":8180,"Ġpolic":8181,"plot":8182,"'re":8183,"Ġparticipated":8184,"Current":8185,"Ġ^":8186,"lyn":8187,"Ġattend":8188,"Ġconsisting":8189,"ictionary":8190,"Bo":8191,"iable":8192,"ĠTok":8193,"ĠMethod":8194,"Ġrepresentative":8195,"dfrac":8196,"hedral":8197,"renew":8198,"ĠAsh":8199,"imately":8200,"Mult":8201,"Ġtrust":8202,"Ġpicture":8203,"Ġwing":8204,"Ä±":8205,"Ġgrew":8206,"Sum":8207,"Ġgr":8208,"bal":8209,"ĠMaster":8210,"ĠSa":8211,"wait":8212,"ĠStudies":8213,"Ġirre":8214,"|}{":8215,"quarters":8216,"Ġcorrel":8217,"Ġcharged":8218,"lan":8219,"antom":8220,"Ġdetected":8221,"zen":8222,"Ġpeace":8223,"clusions":8224,"riminal":8225,"RL":8226,"Ġabsolute":8227,"Ġdust":8228,"Ġsafety":8229,"Ġflight":8230,"Ġhandle":8231,"Mat":8232,",\\\\":8233,"ĠBatt":8234,"fold":8235,"jan":8236,"Ġofficially":8237,"agon":8238,"ĠBrig":8239,"Format":8240,"Play":8241,"hol":8242,"water":8243,"Ġsolo":8244,"plications":8245,"Ġwinners":8246,"lementary":8247,"Ġresear":8248,"images":8249,"Ġdestroyed":8250,"Ġbos":8251,"Ġpredicted":8252,"Ġincident":8253,"ĠMedal":8254,"ĠKey":8255,"Sl":8256,"Ġeq":8257,"Ġemp":8258,"rames":8259,"uly":8260,"Ġrenamed":8261,"Ġconsequence":8262,"ME":8263,"Post":8264,"Ġvehicle":8265,"Ġequilibrium":8266,"Ġcollected":8267,"Ġstreet":8268,"estic":8269,"Although":8270,"ĠPakistan":8271,"success":8272,"std":8273,"update":8274,"Ġlabels":8275,"leep":8276,"service":8277,"urches":8278,"Ġstatistical":8279,"Lev":8280,"Ġregarding":8281,"Ġopposite":8282,"haps":8283,"Last":8284,"efined":8285,"ĠCommand":8286,"INT":8287,"Ġdevices":8288,"loop":8289,"ĠWisconsin":8290,"sey":8291,"Ġdeclared":8292,"Ġaffected":8293,"rog":8294,"Ġimplemented":8295,":=":8296,"Ġ\\!":8297,"ogen":8298,"Ġspring":8299,"\\}$.":8300,"Ġlemma":8301,"chor":8302,"ĠCirc":8303,"Ġmapping":8304,"rypt":8305,"Ġfont":8306,"ĠSwedish":8307,"Ġfloor":8308,"aska":8309,"ĠAD":8310,"Ġequipment":8311,"))\\":8312,"Ġunderlying":8313,"ego":8314,"Ġperman":8315,"ading":8316,"1931":8317,"Ġradiation":8318,"ĠDespite":8319,"Ġtheories":8320,"frame":8321,"Ġfocused":8322,"1927":8323,"Ġaggreg":8324,"Ġly":8325,"inations":8326,"ĠBrad":8327,"Ġchampion":8328,"1922":8329,"ĠGro":8330,"Ġrugby":8331,"rie":8332,"Ġsatisfying":8333,"Ġcancer":8334,"Ġstarts":8335,"tree":8336,"ĠRen":8337,"Ġobvious":8338,"1924":8339,"Ġdamage":8340,"Ġwait":8341,"German":8342,"Ġnewly":8343,"ĠMinnes":8344,"aling":8345,"itational":8346,"ĠRoute":8347,"bmatrix":8348,"ĠBad":8349,"ĠStephen":8350,"Ġbill":8351,"joint":8352,"direct":8353,"thon":8354,"Ġdeploy":8355,"HL":8356,"Ġcalls":8357,"emetery":8358,"Biography":8359,"ĠSuch":8360,"Ġpowerful":8361,"ĠMinnesota":8362,"Ġconvent":8363,"Ġsufficiently":8364,"Controller":8365,"aux":8366,"Ġraces":8367,"TC":8368,"alion":8369,"ĠDuke":8370,"Ġheav":8371,"Ġhosted":8372,"Ġsettings":8373,"Ġneutr":8374,"Ġcontrovers":8375,"International":8376,"Ġgirl":8377,"Ġprocessing":8378,"ĉĠĠĠ":8379,"Ġwild":8380,"Some":8381,"ĠDisc":8382,"osis":8383,"actic":8384,"ito":8385,"Ġstability":8386,"Ġstress":8387,"Ġrecognized":8388,"mode":8389,"Ġinverse":8390,"ĠFI":8391,"Ġsuccessfully":8392,"ĠSab":8393,"Ġnotice":8394,"df":8395,"Ġcontinues":8396,"Ġfelt":8397,"ĠSanta":8398,"card":8399,"Ġredshift":8400,"params":8401,"Ġbegins":8402,"response":8403,"]$,":8404,"That":8405,"Ġends":8406,"Ġpal":8407,"ĠSerb":8408,"Ġvotes":8409,"brid":8410,"Ġparish":8411,"Ġscientific":8412,"Ġbeat":8413,"Ġexplicitly":8414,"Ġliber":8415,"Ġblood":8416,"ĠCOVID":8417,"Ġindeed":8418,"regon":8419,"Ġconven":8420,"renewcommand":8421,"ĠIndust":8422,"Ġlooking":8423,"$&":8424,"Ġofficials":8425,"Ġplants":8426,"iang":8427,"ql":8428,"ĠPass":8429,"Ġdimensional":8430,"Var":8431,"ben":8432,"May":8433,"ĠPhiladelphia":8434,"Ġhttps":8435,"Ġpenal":8436,"$};":8437,"ĠMike":8438,"ambig":8439,"Ġdance":8440,"Ãº":8441,"ĠFair":8442,"Ġsuitable":8443,"ritical":8444,"Ġnothing":8445,"Output":8446,"rome":8447,"Gl":8448,"Ġrecognition":8449,"Ġjourn":8450,"Ġroll":8451,"Ġstrugg":8452,"wegian":8453,"Ġhousing":8454,"Ġhistoric":8455,"ĠStadium":8456,"Ġresulted":8457,"Ġleadership":8458,"ĠAddition":8459,"Ġdens":8460,"ĠLady":8461,"Ġcomposer":8462,"ĠTy":8463,"Ġdoesn":8464,"ĠĠĠĠĠĠĠĠĠĠĠĠĠĠĠĠĠĠĠĠĠ":8465,"Long":8466,"French":8467,"Ġagric":8468,"Ġvehicles":8469,"Ðº":8470,"1921":8471,"ci":8472,"osophy":8473,"ĠForest":8474,"keep":8475,"}[\\":8476,"}}_{\\":8477,"pson":8478,"Ġtitles":8479,"apore":8480,"1926":8481,"ĠPremier":8482,"wing":8483,"ĠIR":8484,"}})":8485,"Ġpowers":8486,"PY":8487,"ĠKir":8488,"lesssim":8489,"_.":8490,"ĠChris":8491,"instance":8492,"ĠGL":8493,"1925":8494,"ĠSher":8495,"Ġhouseholds":8496,"Ġperformances":8497,"Ġwaves":8498,"Dat":8499,"Ġsurn":8500,"1912":8501,"Ġdatabase":8502,"Ġfinds":8503,"Ġinvestigation":8504,"Ġdesired":8505,"////////////////":8506,"Ġoffset":8507,"organ":8508,"Song":8509,"vature":8510,"ronic":8511,"ĠSem":8512,"unte":8513,"ĠKim":8514,"Ġsales":8515,"ĠBishop":8516,"Olymp":8517,"ighth":8518,"Ġsuperv":8519,"Ġpaid":8520,"ttp":8521,"OP":8522,"Address":8523,"Ġestate":8524,"Ġinspired":8525,"ABLE":8526,"ĠExec":8527,"...,":8528,"Acc":8529,"ogs":8530,"Ident":8531,"Ġlearned":8532,"Ġcopies":8533,"Ġpatients":8534,"Ġsexual":8535,"tax":8536,"Ġvictim":8537,"Ġobjective":8538,"\\)":8539,"Ġisomorphism":8540,"Ġcars":8541,"ĠMedical":8542,"Vis":8543,"Ġ{}":8544,"Ġagents":8545,"Ġdidn":8546,"ĠBudd":8547,"itory":8548,"plicity":8549,"Ġreferences":8550,"FONT":8551,"ĠRom":8552,"Ġmixing":8553,"ĠNaz":8554,"longrightarrow":8555,"Ġpossibly":8556,"imation":8557,"Ġsolar":8558,"ĠCzech":8559,"ĠBol":8560,"istent":8561,"ordan":8562,"arthe":8563,"Ġvisible":8564,"600":8565,"Ð»":8566,"Ġsend":8567,"Ġ\\]":8568,"ERR":8569,"PRO":8570,"Public":8571,"Ġturns":8572,"Ġspecifically":8573,"Ġbillion":8574,"paragraph":8575,"Check":8576,"Ġevaluate":8577,"Ġideas":8578,"Ġcrime":8579,"Ġrepeated":8580,"mathop":8581,"ruit":8582,"1923":8583,"ĠCas":8584,"Ġindustrial":8585,"mem":8586,"BO":8587,"iota":8588,"Ġsetup":8589,"Women":8590,"ĠPers":8591,"ĠClark":8592,"ĠVis":8593,"Ġdefeat":8594,"cret":8595,"scape":8596,"anna":8597,"Ġurban":8598,"ads":8599,"Local":8600,"ĠAli":8601,"ĠHand":8602,"Ġpiano":8603,"TS":8604,"conv":8605,"onder":8606,"Non":8607,"ĠSweden":8608,"ourier":8609,"ĠHay":8610,"Ġtoward":8611,"Ġdoub":8612,"Ġcampus":8613,"power":8614,"ĠCP":8615,"icrosoft":8616,"Ġnotes":8617,"yal":8618,"Ġdefend":8619,"angular":8620,"aga":8621,"Listener":8622,"Ġestimation":8623,"ochastic":8624,"ictures":8625,"Ġouter":8626,"ĠSurvey":8627,"Ġinsert":8628,"Ġneural":8629,"ĠDoug":8630,"ĠVi":8631,"ĠAdminist":8632,"umes":8633,"Ġgained":8634,"clear":8635,"pet":8636,"Ġstack":8637,"ĠEX":8638,"diff":8639,"arest":8640,"Ġcommittee":8641,"points":8642,"common":8643,"ĠAnth":8644,"everal":8645,"CON":8646,"Nov":8647,"Ġcm":8648,"oster":8649,"Ġapplying":8650,"ĠIV":8651,"Ġdiver":8652,"ĠWalk":8653,"Ġderivative":8654,"Ġrect":8655,"Ġtrying":8656,"ascript":8657,"Ġtool":8658,"Ġaccurate":8659,"etails":8660,"Select":8661,"ĠMember":8662,"Ġpolitics":8663,"formance":8664,"Dr":8665,"Ġfinish":8666,"Following":8667,"periment":8668,"Ġlaunch":8669,"Ġtemperatures":8670,"asty":8671,"ĠConf":8672,"vee":8673,"yard":8674,"worth":8675,"ĠTrum":8676,"ĠLind":8677,"outheast":8678,"Task":8679,"Ġsequences":8680,"ropolitan":8681,"Ġmatching":8682,"Ġspeech":8683,"fi":8684,"ĠMarsh":8685,"emptyset":8686,"ĠKal":8687,"Ġdiagonal":8688,"Ġportion":8689,"Ġintersection":8690,"aton":8691,"ĠMcC":8692,"Ġpossibility":8693,"Ġbehaviour":8694,"je":8695,"}}}\\":8696,"anga":8697,"Ġdrive":8698,"Ġclimate":8699,"Ġturb":8700,"Ġconstants":8701,"ĠSquad":8702,"Ġrequirements":8703,"Ġpool":8704,"ĠWars":8705,"à¸":8706,"ello":8707,"Ġtried":8708,"ĠTownship":8709,"Ġsimultane":8710,"Ġvess":8711,"Ġtheme":8712,"Awards":8713,"Ġurl":8714,"Ġterritory":8715,"Ġmedalists":8716,"Ġenergies":8717,"').":8718,"1915":8719,"Ġanswer":8720,"othing":8721,"Ġnovels":8722,";\\;\\":8723,"Ġbias":8724,"iem":8725,"Ġinfl":8726,"ĠOrig":8727,"Ġcerem":8728,"Ġmanner":8729,"plane":8730,"Stat":8731,"Ġzone":8732,"season":8733,"clusive":8734,"Ġpurchased":8735,"depend":8736,"1916":8737,"ĠMill":8738,"Op":8739,"Ġintroduction":8740,"ayout":8741,"Ġinterior":8742,"Ġcontest":8743,"tiny":8744,"Ġtells":8745,"UI":8746,"mad":8747,"cisely":8748,"Ġfiction":8749,"Ġpassing":8750,"ĠMun":8751,"ĠGree":8752,"living":8753,"variant":8754,"^{*":8755,"ĠManagement":8756,"dest":8757,"ĠJoh":8758,"Ġtitled":8759,"Ġmotiv":8760,")})":8761,"SON":8762,"ĠAppendix":8763,"Ġpatterns":8764,"Ġhidden":8765,"Names":8766,"should":8767,"Ġsurpr":8768,"ĠIndones":8769,"Ġmaximal":8770,"MD":8771,"Ġengineer":8772,"Olympic":8773,"GR":8774,"etal":8775,"Ġadvanced":8776,"Ġrefers":8777,"Ġsomew":8778,"rizona":8779,"ĠBeach":8780,"ĠSon":8781,"Ġgetting":8782,"anes":8783,"Ġrespond":8784,"Ġdriver":8785,"kh":8786,"btn":8787,"atible":8788,"ĠFinal":8789,"ported":8790,"Ġswim":8791,"Ġresident":8792,"elect":8793,"ĠHT":8794,"ĠDam":8795,"ĠHo":8796,"Ġclosely":8797,"ĠMap":8798,"Ġtowns":8799,"Ġpurposes":8800,"itative":8801,"ika":8802,"Cache":8803,"ĠGolden":8804,"ĠUs":8805,"slash":8806,"Ġplanning":8807,"BB":8808,"former":8809,"pers":8810,"Ġboy":8811,"}}^{\\":8812,"Ġraise":8813,"Ġinvestigate":8814,"Ġgranted":8815,"800":8816,"enna":8817,"ĠMexican":8818,"ĠOnly":8819,"gest":8820,"ĠWinter":8821,"tach":8822,"Ġreaction":8823,"duce":8824,"Length":8825,"Frame":8826,"match":8827,"Ġmiles":8828,"ĠEll":8829,"urations":8830,"ĠEven":8831,"ĠMilitary":8832,"Ġlock":8833,"Prot":8834,"Mark":8835,"}}.":8836,"ĠIndiana":8837,"Valid":8838,"annot":8839,"axis":8840,"andra":8841,"}_{-":8842,"vard":8843,"Ġ$,":8844,"Left":8845,"Ġexclud":8846,")\"":8847,"ropic":8848,"global":8849,"Ġshock":8850,"Ã¢":8851,"Rad":8852,"ennessee":8853,"exec":8854,"proto":8855,"Ġradial":8856,"Ġaband":8857,"Ġpredictions":8858,"[-":8859,"sat":8860,"Ġelectronic":8861,"Ġparliament":8862,"Ġprepar":8863,"%%":8864,"Ġrecip":8865,"bras":8866,"urst":8867,"Ġderive":8868,"inton":8869,"Ġdynamic":8870,"Offset":8871,"cha":8872,"Ġfaculty":8873,"160":8874,"Ġfacility":8875,"algebra":8876,"ĠIraq":8877,"Do":8878,"Ġembedding":8879,"remove":8880,"ĠKansas":8881,"Ġatmosp":8882,"Go":8883,"Open":8884,"Ġseconds":8885,"rosc":8886,"Ġsampling":8887,"RR":8888,"ĠWeek":8889,"ĠWat":8890,"Ġwrest":8891,"Ġbulk":8892,"ĠEngineering":8893,"Ġranked":8894,"ĠIndeed":8895,"Ġsummary":8896,"Ġthin":8897,"ĠCommun":8898,"ĠSM":8899,"Ġcontrad":8900,"Ġluminosity":8901,"idi":8902,"ĠHard":8903,"Ġsubs":8904,"Ġcategories":8905,"general":8906,"orders":8907,"Ġindicated":8908,"Ġviews":8909,"Order":8910,"opes":8911,"igrants":8912,"FM":8913,"ĠFox":8914,"ĠHun":8915,"Ġearth":8916,"ĠLicense":8917,"isted":8918,"ĠHan":8919,"Ġ{$":8920,"][]{":8921,"ĠWin":8922,"ĠTurkey":8923,"Ġfounder":8924,"erior":8925,"Ġmac":8926,"ĠArthur":8927,"Ġenjoy":8928,"Ġassumptions":8929,"ĠOregon":8930,"ĠMaria":8931,"Ġcolumns":8932,"ĠĠĠĠĠĠĠĠĠĠĠĠĠĠĠĠĠĠĠĠĠĠĠĠĠĠĠĠĠĠĠĠĠĠĠ":8933,"omot":8934,"Ġtopological":8935,"Ġcosts":8936,"Ġlowest":8937,"ĠBridge":8938,"Ġcontemporary":8939,"Ġnor":8940,"Ġtrend":8941,"Ġbriefly":8942,"Ġple":8943,"Column":8944,"Ġintensity":8945,"tail":8946,"drop":8947,"ĠCastle":8948,"Ġcallback":8949,"ĠPolit":8950,"ears":8951,"iki":8952,"Ġquark":8953,"ifer":8954,"Ġprotection":8955,"Ġidentical":8956,"Ġcovers":8957,"ĠTa":8958,"ĠHart":8959,"Ġbeaut":8960,"ĠProt":8961,"ieces":8962,"onym":8963,"weet":8964,"Ġsuffered":8965,"Ġhabit":8966,"ĠDun":8967,"ĠDavis":8968,"Direct":8969,"ĠAh":8970,"Ġextensive":8971,"}$}":8972,"parison":8973,"Ġfemales":8974,"Ġliqu":8975,"pute":8976,"Ġfrequently":8977,"ĠDig":8978,"Ġadjacent":8979,"irement":8980,"})}":8981,"stat":8982,"Ġwatch":8983,"Ġmeant":8984,"ensis":8985,"Ġcomputing":8986,"ĠWel":8987,"Ġauthorities":8988,"ĠSecurity":8989,"Ġtools":8990,"Ġstone":8991,"ĠColon":8992,"Ġthing":8993,"128":8994,"Ġdrawn":8995,"Ġphoton":8996,"ocese":8997,"Ġpaths":8998,"Ġcorner":8999,"Ġconverted":9000,"sequently":9001,"Ġexplo":9002,"ois":9003,"ĠlP":9004,"Ġdocumentary":9005,"life":9006,"Two":9007,"formal":9008,"Ġtrace":9009,"ĠKel":9010,"PD":9011,"})=":9012,"mathit":9013,"rine":9014,"Ġcharges":9015,"Ġcontrolled":9016,"ĠFree":9017,"asters":9018,"ĠFire":9019,"Ġpublication":9020,"Ġ{};":9021,"ĠBaron":9022,"ellipt":9023,"inv":9024,"ĠMissouri":9025,"Ġsupply":9026,"legal":9027,"ĠSus":9028,"zi":9029,"Ġcauses":9030,"Ġseparated":9031,"offset":9032,"ĠDown":9033,"Ġ<!--":9034,"ĠAtlantic":9035,"ws":9036,"ĠDesign":9037,"ordon":9038,"mn":9039,"Ġcoverage":9040,"ĠBru":9041,"initions":9042,"ĠAlf":9043,"ĠLabor":9044,"ĠBall":9045,"icular":9046,"1913":9047,"ogg":9048,"/(":9049,"Ġadvance":9050,"Ġ({\\":9051,"ĠBh":9052,"ĠHal":9053,"circle":9054,"fields":9055,"ĠTal":9056,"Ġchallenge":9057,"Ġpages":9058,"Ġinfer":9059,"ratic":9060,"Ġcomputational":9061,"Ġquantities":9062,"Cent":9063,"parse":9064,"ĠColl":9065,"hens":9066,"Ġjet":9067,"ester":9068,"ifferent":9069,"Mode":9070,"ĠBack":9071,"ĠRa":9072,"ĠCLASS":9073,"Canadian":9074,"Sportspeople":9075,"Ġcatal":9076,"Ġbroken":9077,"Ġtransmission":9078,"Bibliography":9079,"Ġdaily":9080,"Exec":9081,"ĠHREF":9082,"ĠOF":9083,"iÃ³n":9084,"rell":9085,"plom":9086,"issip":9087,"ĠRon":9088,"Ġentries":9089,"Ġarc":9090,"gebras":9091,"pur":9092,"Ġauthority":9093,"Ġtaught":9094,"Ġdistricts":9095,"ĠRepresentatives":9096,"ician":9097,"Ġattempts":9098,"uy":9099,"layout":9100,"Ġscholar":9101,"Ġenh":9102,"Ġaspects":9103,"ĠCaptain":9104,"<?":9105,"ĠMarg":9106,"afe":9107,"Ġbran":9108,"Ġconsecutive":9109,"Ġgravity":9110,"Que":9111,"Ġplus":9112,"ĠFamily":9113,"ĠPit":9114,"illery":9115,"oscow":9116,"ĠOffic":9117,"Ġopin":9118,"Ġnonlinear":9119,"ĠSteve":9120,"ĠMunicip":9121,"Ġportray":9122,"Ġcancell":9123,"VER":9124,"Ġscoring":9125,"Ġ\\(\\":9126,"Ġgeneric":9127,"^{(\\":9128,"ĠYour":9129,"Ġfish":9130,"URL":9131,"180":9132,")}_":9133,"ti":9134,"western":9135,"risis":9136,"Populated":9137,"Second":9138,"Ġfell":9139,"ĠInformation":9140,"ĠExt":9141,"ulse":9142,"Ġarts":9143,"Ġtrivial":9144,"pres":9145,"Pat":9146,"ĠMic":9147,"Ġinstruction":9148,"aded":9149,"```":9150,"IST":9151,"full":9152,"Ġrelax":9153,"Proof":9154,"integ":9155,"Ġflows":9156,"enum":9157,"Ġsevent":9158,"Ġlosing":9159,"BL":9160,"'m":9161,"Arch":9162,"ĠWrit":9163,"oses":9164,"Ġasymptotic":9165,"ented":9166,"Ġstock":9167,"Ġbow":9168,"Ġyounger":9169,"shot":9170,"ĠGallery":9171,"ĠCountry":9172,"1911":9173,"ORT":9174,"older":9175,"Ġspons":9176,"Ġteaching":9177,"regular":9178,"Ġadjust":9179,"ĠKer":9180,"inction":9181,"Ġdynamical":9182,"Ġhypothesis":9183,"container":9184,"}~":9185,"ĠMoh":9186,"Ġdriving":9187,"Ġbra":9188,"short":9189,"Tree":9190,"figures":9191,"Ġroughly":9192,"Ġhands":9193,"ĠGreg":9194,"wealth":9195,"ipeline":9196,"Ġmagnet":9197,"vo":9198,"Ġsatisfied":9199,"Ġprecisely":9200,"ques":9201,"issions":9202,"Ġ[]":9203,"Ġvice":9204,"Ġdiscrim":9205,"iser":9206,"Ġinteract":9207,"Parameter":9208,"Ġgeneralized":9209,"Sm":9210,"ĠPier":9211,"Ġsatell":9212,"ĠServices":9213,"elihood":9214,"ĠTai":9215,"javascript":9216,"ĠTro":9217,"fef":9218,"Tax":9219,"forms":9220,"Ġil":9221,"Ġgovernor":9222,"Ġrom":9223,"ĠTrust":9224,"Ġarms":9225,"}}=":9226,"Ġ!==":9227,"ĠId":9228,"Provider":9229,"Ġdeveloping":9230,"Ġrestaur":9231,"Ġseats":9232,"imary":9233,"101":9234,"atern":9235,"since":9236,"Ġjournalist":9237,"ĠColorado":9238,"DO":9239,"Tag":9240,"hs":9241,"EQ":9242,"Ġintegrated":9243,"ĠGh":9244,"itional":9245,"Ġcircum":9246,"Sources":9247,"Ġconnect":9248,"Ġenvironmental":9249,"KE":9250,"theless":9251,"isa":9252,"+(":9253,"Ġpainting":9254,"ĠPhilippines":9255,"ÃŃa":9256,"columnwidth":9257,"Each":9258,"Ġdeform":9259,"ĠIl":9260,"Ġbundle":9261,"ĠAmericans":9262,"root":9263,"Ġfashion":9264,"ĠBaseball":9265,"Ġreceiving":9266,"'),":9267,"Ġpapers":9268,"Ġpolicies":9269,"outs":9270,":</":9271,"What":9272,"ĠLive":9273,"adi":9274,"ĠCall":9275,"ĠLeb":9276,"ogether":9277,"Ġvariance":9278,"Ġrig":9279,"ĠNorway":9280,"Ġfluid":9281,"incial":9282,"ĠMaryland":9283,"bell":9284,"Ġunable":9285,"QL":9286,"hl":9287,"Ġpackage":9288,"subsec":9289,"offs":9290,"Ġextremely":9291,"vs":9292,"eless":9293,"Ġentirely":9294,"ĠFederation":9295,"Ġago":9296,"Given":9297,"Japan":9298,"multirow":9299,"Access":9300,"\\}$,":9301,"Ġchanging":9302,"Ġsust":9303,"irty":9304,"Ġeconomy":9305,"ialog":9306,"ĠArray":9307,"ĠTennessee":9308,"})^":9309,"Ġexecution":9310,"\\}\\":9311,"isms":9312,"ubble":9313,"Ġmaxim":9314,"Ġinterpretation":9315,"Ġletters":9316,"ĠBrother":9317,"ĠLore":9318,"nn":9319,"Ġsignals":9320,"Ġchairman":9321,"antly":9322,"apl":9323,"ariants":9324,"uese":9325,"Ġdocuments":9326,"ĠEu":9327,"Ġsave":9328,"=\"_":9329,"Ġcanonical":9330,"Ġserial":9331,"ĠHighway":9332,"illing":9333,"engths":9334,"Ġinjury":9335,"ĠMemorial":9336,"Ġfans":9337,"Ġcart":9338,"Ġcharacteristics":9339,"Ġtrip":9340,"iner":9341,"Ġdiagn":9342,"apel":9343,"ods":9344,"Definition":9345,"Ġcab":9346,"Ġexplan":9347,"ivals":9348,"ĠSingapore":9349,"ĠJews":9350,"Ġescape":9351,"BE":9352,"2023":9353,"Before":9354,"family":9355,"Ġreturning":9356,"Ġiron":9357,"Ġbench":9358,"tikzpicture":9359,"ĠArea":9360,"Ġyellow":9361,"ĠTel":9362,"BM":9363,"rained":9364,"HC":9365,"Ġpropose":9366,"menu":9367,"}|\\":9368,"Ġaccident":9369,"ĠDue":9370,"Ġbudget":9371,"Ġaffect":9372,"require":9373,"Ġopportunity":9374,"Ġ^{":9375,"Lemma":9376,"Ġ**":9377,"1908":9378,"ĠName":9379,"DR":9380,"Ġcurvature":9381,"fn":9382,"001":9383,"lywood":9384,"Ġrational":9385,"reference":9386,"Har":9387,"Ã¼r":9388,"aml":9389,"ĠFellow":9390,"racks":9391,"Ġsomeone":9392,"kg":9393,"ĠAPI":9394,"obs":9395,"ativ":9396,"ĠObserv":9397,"ĠRet":9398,"&=\\":9399,"\\|\\":9400,"component":9401,"endar":9402,"Ã©s":9403,"task":9404,"oupl":9405,"Ġnominated":9406,"Ġmultip":9407,"ĠRoss":9408,"ups":9409,"uce":9410,"Ġdecades":9411,"Ġdie":9412,"///":9413,"Geography":9414,"fefefe":9415,"CF":9416,"stic":9417,"ĠOcean":9418,"ĠLewis":9419,"Ġopposed":9420,"eties":9421,"uther":9422,"Ġconclusion":9423,"Ġbronze":9424,"Ġsupporting":9425,"Ġadvert":9426,"Ġpersp":9427,"Ġburied":9428,"COL":9429,"Hence":9430,"ĠMach":9431,"Ġcryst":9432,"hire":9433,">\\":9434,"Target":9435,"actor":9436,"Ġpossess":9437,"eaking":9438,"ĠSlov":9439,"Consider":9440,"++)":9441,"including":9442,"Ġtruth":9443,"ĠDor":9444,"window":9445,"########":9446,"Ġdependent":9447,"Ġeducated":9448,"mouth":9449,"ĠReal":9450,"ĠStock":9451,"West":9452,"ĠMult":9453,"Ġabsence":9454,"Dav":9455,"ĠSat":9456,"HO":9457,"Bundle":9458,"ĠFreder":9459,"ĠConnect":9460,"control":9461,"William":9462,"ĠKitt":9463,"Types":9464,"ahoma":9465,"Ġtwenty":9466,"ĠBooks":9467,"returns":9468,"ĠArizona":9469,"Ġbuffer":9470,"ĠAuthor":9471,"Location":9472,"Ġvillages":9473,"viation":9474,"fully":9475,"Ġjudge":9476,"green":9477,"Configuration":9478,"Ġyards":9479,"Ġequality":9480,"Ġburn":9481,"master":9482,"Ġlift":9483,"255":9484,"ĠJunior":9485,"Christ":9486,"cover":9487,"ribed":9488,"Ġdoctor":9489,"Ġshop":9490,"Ġ}{":9491,"Ġlens":9492,"iveness":9493,"ĠLeon":9494,"umin":9495,"ĠSav":9496,"Ġapproximate":9497,"Ġdense":9498,"ĠForeign":9499,"Ġtele":9500,"ĠShort":9501,"GS":9502,"Best":9503,"ceived":9504,"ĠAffairs":9505,"()->":9506,"Ġfeet":9507,"Update":9508,"ĠĠĠĠĠĠĠĠĠĠĠĠĠĠĠĠĠĠĠĠĠĠĠĠĠĠĠĠĠĠĠĠĠĠĠĠĠĠĠĠĠĠĠĠĠĠĠĠĠĠĠĠĠĠĠĠĠĠĠĠĠĠĠĠ":9509,"ounded":9510,"prototype":9511,"Ġuniversal":9512,"ĠĠĠĠĠĠĠĠĠĠĠĠĠĠĠĠĠĠĠĠ":9513,"sem":9514,"ĠNa":9515,"rins":9516,"agen":9517,"uties":9518,"itzerland":9519,"document":9520,"andy":9521,"ĠMoscow":9522,"Ġpieces":9523,"Ġeffectively":9524,"Ġanimals":9525,"ĠSky":9526,"^*\\":9527,"Script":9528,"Ġclin":9529,"Ġarrested":9530,"Ġquantity":9531,"Ġcamera":9532,"classes":9533,"ibration":9534,"mers":9535,"Ġfunding":9536,"Book":9537,"artheta":9538,"]{\\":9539,"Des":9540,"Ġaudience":9541,"shape":9542,"Ag":9543,"Ġdesignated":9544,"Ġindependence":9545,"Ġinher":9546,"large":9547,"arios":9548,"Ġopposition":9549,"Ġtemplate":9550,"Ġcovering":9551,"ĠChannel":9552,"rating":9553,"Leg":9554,"Url":9555,"ambiguation":9556,"icut":9557,"Ġending":9558,"Ġsizes":9559,"ĠBet":9560,"ĠMir":9561,"ĠMath":9562,"Control":9563,"roke":9564,"vartheta":9565,"Ġultimately":9566,"Main":9567,"$\\\\":9568,"ĠKhan":9569,"ictional":9570,"ĠUkraine":9571,"Ġfaith":9572,"kov":9573,"ĠMelbourne":9574,"ynasty":9575,"ogram":9576,"ĠHou":9577,"awn":9578,"rations":9579,"Width":9580,"ĠMP":9581,"ĠAR":9582,"Server":9583,"Ġdivers":9584,"allet":9585,"Ġexceed":9586,"ĠDE":9587,"Ġtransp":9588,"Ġloan":9589,"Ġcooper":9590,"eral":9591,"when":9592,"ĠSunday":9593,"Ġstarring":9594,"Ġdashed":9595,"grade":9596,"Json":9597,"heim":9598,"slant":9599,"Ġtheatre":9600,"Â°":9601,"Ġversus":9602,"Ġaffili":9603,"Write":9604,"ĠBan":9605,"riptor":9606,"ĠVo":9607,"oments":9608,"bu":9609,"ĠArk":9610,"Ġneutral":9611,"Ġsupers":9612,"Ġrich":9613,"$-$":9614,"isson":9615,"Ġreality":9616,"Ġdetect":9617,"ĠSU":9618,"rg":9619,"Ġassuming":9620,"Ġoccupied":9621,"ĠGoogle":9622,"ĠAud":9623,"BI":9624,"Ġvisited":9625,"Ġhall":9626,"Ġdetermin":9627,"Ġdropped":9628,"olicy":9629,"ĠGiven":9630,"ĠMalays":9631,"XX":9632,"ART":9633,"Ġglass":9634,"Ġfluctuations":9635,"ingly":9636,"uple":9637,"Ġtreated":9638,"Plot":9639,"Vol":9640,"Australian":9641,"ĠHiggs":9642,"ĠHop":9643,":=\\":9644,"ĠAnderson":9645,"ĠGi":9646,"anton":9647,"template":9648,"Ġinstalled":9649,"idge":9650,"ĠMiller":9651,"Ġintermediate":9652,"Ġencourag":9653,"Russ":9654,"ĠStr":9655,"ĠNY":9656,"Ġwins":9657,"ĠBah":9658,"Ġseparation":9659,"Bel":9660,"obe":9661,"Ġexpressions":9662,"CODE":9663,"iples":9664,"ouch":9665,"Ġjump":9666,"Ġconsult":9667,"ĠGlobal":9668,"BR":9669,"lower":9670,"icip":9671,"ĠAmb":9672,"attr":9673,"125":9674,"Death":9675,"Ġmolecular":9676,"esian":9677,"ĠPrinc":9678,"Ġadapted":9679,"Ġroyal":9680,"Ġtoken":9681,"wall":9682,"Ġargued":9683,"ĠCab":9684,"ĠCharl":9685,"Ġargs":9686,"Ġpremier":9687,"ĠEnt":9688,"render":9689,"ĠTurn":9690,"ĠFund":9691,"ĠSpacewatch":9692,"ĠMas":9693,"ĠLow":9694,"ĠCase":9695,"Ġcorrections":9696,"ĠJos":9697,"ĠNon":9698,"Ġcrow":9699,"Ġstages":9700,"sv":9701,"oured":9702,"ĠPhilip":9703,"ymmetric":9704,"coln":9705,"GA":9706,"Ġcharacterized":9707,"Ġtower":9708,"oti":9709,"unes":9710,"scription":9711,"ouses":9712,"ĠChristmas":9713,"Ġtrains":9714,"Ġ(,":9715,"relation":9716,"Pan":9717,"ĠKentucky":9718,"klahoma":9719,"ortheast":9720,"Ġspot":9721,"ĠLocal":9722,"don":9723,"aro":9724,"Ġattribute":9725,"ĠBarn":9726,"ĠHoly":9727,"Ġdecrease":9728,"ĠEth":9729,"Ġcorrection":9730,"Hon":9731,"Button":9732,"pto":9733,"Ġquasi":9734,"NE":9735,"Ġkin":9736,"Ġapproved":9737,"NC":9738,"ootst":9739,"zz":9740,"gment":9741,"Ġ(;":9742,"ĠFile":9743,"ĠWell":9744,"avor":9745,"clip":9746,"rainian":9747,"Ġdefense":9748,"Ġcommut":9749,"Ġsucceeded":9750,"ĠAlbert":9751,"phy":9752,"world":9753,"oton":9754,"Ġfestival":9755,"Ġvocal":9756,"Ġupdated":9757,"LC":9758,"ĠNorm":9759,"Å«":9760,"MO":9761,"Ġaccret":9762,"MT":9763,"WE":9764,"123":9765,"Orig":9766,"Ġfighting":9767,"Ant":9768,"stan":9769,"Ġhighlight":9770,"Ġracing":9771,"odd":9772,"Ġgravitational":9773,"Ġcritics":9774,"ymn":9775,"ogonal":9776,"ĠTrump":9777,"irical":9778,"Layout":9779,"ĠVietnam":9780,"ĠTransport":9781,"bp":9782,"vals":9783,"Life":9784,":\"":9785,"********************************":9786,"Ġstands":9787,"Ġcolour":9788,"ĠAdam":9789,"Ġbreaking":9790,"Ġoccasion":9791,"Video":9792,"Ġ\\,\\":9793,"auth":9794,"Ġdrums":9795,"Ġproportional":9796,"ĠEntertainment":9797,"possible":9798,"look":9799,"Ġtrigger":9800,"Ġdominated":9801,"issippi":9802,"styles":9803,"Ġessentially":9804,"Ġcaptain":9805,"Ġsixth":9806,"atin":9807,"Ġlen":9808,"ĠQueensland":9809,"engers":9810,"Ġnob":9811,"lik":9812,"Suppose":9813,"Ġmes":9814,"Ġexcess":9815,"medskip":9816,"ĠIowa":9817,"ootstrap":9818,"Ġformerly":9819,"PH":9820,"Ġwavel":9821,"=.":9822,"\\%$":9823,"uses":9824,"Ġisot":9825,"Ġhalo":9826,"Ġphases":9827,"ĉĉĉĉĉĉĉ":9828,"Ġanom":9829,"Ġregistered":9830,"}\\|":9831,"Ġpand":9832,"uling":9833,"Li":9834,"ĠEvent":9835,"ingham":9836,"ĠAustria":9837,"(-\\":9838,"Ġvacuum":9839,"High":9840,"Ġwalls":9841,"AE":9842,"vas":9843,"ĠBos":9844,"Ġbelief":9845,"ĠEnergy":9846,"Entry":9847,"Ġdecor":9848,"Ġaware":9849,"abama":9850,"Ġunless":9851,"Ġdepos":9852,"Ġdominant":9853,"Ġmask":9854,"backslash":9855,"Television":9856,"Ġ,\\":9857,"Ġstochastic":9858,"1905":9859,"channel":9860,"Ġvariations":9861,"ĠGib":9862,"isot":9863,"Ġrear":9864,"iful":9865,"uj":9866,"]);":9867,"rastructure":9868,"Ġstorm":9869,"ople":9870,"Ġreader":9871,"rapper":9872,"gar":9873,"ĠSD":9874,"Ġattempted":9875,"rait":9876,"ĠSC":9877,"cline":9878,"1890":9879,"ideos":9880,"mathtt":9881,"notag":9882,"domain":9883,"oths":9884,"ĠDrag":9885,"ĠGrant":9886,"Ġprotect":9887,"Ġrestricted":9888,"rior":9889,"ĠĠĠĠĠĠĠĠĠĠĠĠĠĠĠĠĠĠ":9890,"Rail":9891,"parameters":9892,"Ġcoaches":9893,"isen":9894,"ĠDomin":9895,"wich":9896,"Ġabsorption":9897,"Ġdetector":9898,"Ġcommander":9899,"ĠSoc":9900,")).":9901,"Ġoldest":9902,"ĠGreece":9903,"agan":9904,"icted":9905,"observ":9906,"Project":9907,"Ġpy":9908,"ĠFront":9909,"closed":9910,"cache":9911,".\\\\":9912,"ĠSquadron":9913,"Ġregarded":9914,"ĠSri":9915,"ducible":9916,"Ġmorning":9917,"dam":9918,"Ġfloat":9919,"Ġextent":9920,"idal":9921,"!\\":9922,"ologists":9923,"ZE":9924,"ĠLemmon":9925,"negative":9926,"Ġproducing":9927,"ĠLike":9928,"Ġmanagers":9929,"eyn":9930,"stood":9931,")^\\":9932,"ĠInternet":9933,"1909":9934,"ĠMit":9935,"Ġwitness":9936,"achelor":9937,"mo":9938,"TT":9939,"ureau":9940,"(_":9941,"ifest":9942,"ĠGeV":9943,"bool":9944,"ĠConstitution":9945,"downarrow":9946,"disambiguation":9947,"ania":9948,"Ġseed":9949,"kit":9950,"ĠThrough":9951,"á»":9952,"Moreover":9953,"Ġperturbation":9954,"Ġcalling":9955,"1906":9956,"instein":9957,"plicated":9958,"Ġaudio":9959,"pol":9960,"roit":9961,"Ġconservation":9962,"Ġguest":9963,"Ġeigenvalues":9964,"ĠCatal":9965,"Ġguard":9966,"Ġcrossing":9967,"Ġconnections":9968,"Ġpilot":9969,"zed":9970,"ĠAmong":9971,"Ġke":9972,"ĠHarry":9973,"owski":9974,"Ġsail":9975,"Ġnotion":9976,"Ġcircuit":9977,"apse":9978,"iley":9979,"Ñĥ":9980,"Chang":9981,"ĠSimon":9982,"ĠModern":9983,"Ġscheduled":9984,"Transport":9985,"equations":9986,"Ġmonitor":9987,"gency":9988,"ikh":9989,"ĠBalt":9990,"Ġlect":9991,"Ġbalance":9992,"Process":9993,"Ġviolence":9994,"Pol":9995,"ĠLast":9996,"imp":9997,"ĠConst":9998,"ATION":9999,"hips":10000,"ĠDC":10001,"Ġhierarch":10002,"Ġdirections":10003,"textcolor":10004,"Ġprotocol":10005,"Äĥ":10006,"SH":10007,"SF":10008,"quant":10009,"agh":10010,"Ġpreced":10011,"1907":10012,"Ġplas":10013,"ublin":10014,"ĠWhit":10015,"Ġvanish":10016,"Ġdemonstrate":10017,"Ġfuel":10018,"there":10019,"Ġmales":10020,"rangian":10021,"}{*":10022,"Ġatoms":10023,"coh":10024,"Ġpasses":10025,"jecture":10026,"phantom":10027,"ulus":10028,"Ġpainter":10029,"Ġnecessarily":10030,"Ġsan":10031,"ĠTony":10032,"rev":10033,"Ġanything":10034,"ĠOtt":10035,"Ġillustrated":10036,"DC":10037,"ĠJordan":10038,"Ġequivalence":10039,"ĠTokyo":10040,"complete":10041,"Ġbought":10042,"Record":10043,"Ġcoupled":10044,"Ġvent":10045,"iii":10046,"ĠFame":10047,"ĠNev":10048,"Ġperiodic":10049,"Ġreconstruction":10050,"Level":10051,"equal":10052,"DM":10053,"lar":10054,"ĠSwitzerland":10055,"Ġdeleg":10056,")--(":10057,"ĠNap":10058,"Ġsituated":10059,"@{":10060,"Ġholding":10061,"Ġwealth":10062,"256":10063,"Ġpromotion":10064,"Ġfunds":10065,"pred":10066,"Ġbodies":10067,"ĠEP":10068,"ĠLiter":10069,"inth":10070,"Ġcontribut":10071,"Ġproduces":10072,"Ġsky":10073,"ĠStaff":10074,"Ġhero":10075,"Ġpractical":10076,"Ġintern":10077,"Ġcharts":10078,"ĠHoward":10079,"wick":10080,"Ġtrib":10081,"ĠBat":10082,"Ġcontributed":10083,"Unit":10084,"Ġsomewhat":10085,"Ġgate":10086,"ulating":10087,"Ġobj":10088,"Ġexperi":10089,"ĠBefore":10090,"ancer":10091,"sn":10092,"ĠCape":10093,"Ġwrong":10094,"Another":10095,"\\!\\":10096,"oni":10097,"ĠRoy":10098,"ĠNever":10099,"icians":10100,"elve":10101,"ĠInitial":10102,"ĠZh":10103,"ĠManchester":10104,"ĠSym":10105,"buffer":10106,"Ġthread":10107,"isor":10108,"rav":10109,"Ġschol":10110,"Ġheadquarters":10111,"kind":10112,"Ġgenerating":10113,"agues":10114,"Xi":10115,"Ġdx":10116,"Ġdemonstrated":10117,"Ġspac":10118,"ĠHom":10119,"Ġrend":10120,"Gen":10121,"Ġdiplom":10122,"Ã©t":10123,"ĠNorwegian":10124,"just":10125,"Ġsole":10126,"ĠWindow":10127,"Ġ$\\{\\":10128,"Utils":10129,"mont":10130,"ĠComput":10131,"Euro":10132,"ĠCost":10133,"ĠDom":10134,"ĠAgain":10135,"Ġalter":10136,"onomy":10137,"Ġresc":10138,"ĠHur":10139,"ĠBor":10140,"ĠJane":10141,"Ġreplacing":10142,"Ġentitled":10143,"arity":10144,"oved":10145,"ĠBillboard":10146,"uint":10147,"RC":10148,"Ġprofiles":10149,"Most":10150,"Ġprecision":10151,"ĠTrue":10152,"Ġmand":10153,"access":10154,"ĠFord":10155,"Ġevaluated":10156,"Ġstandards":10157,"ĠDa":10158,"Ġfolk":10159,"^*(":10160,"ante":10161,"Ġcold":10162,"ĠReturns":10163,"Ġ),":10164,"~(\\":10165,"ĠCle":10166,"Ġneighbour":10167,"Ġ(),":10168,"Ġmel":10169,"Born":10170,"1904":10171,"ĠForces":10172,"Ġmusician":10173,"phone":10174,"Ġindices":10175,"Font":10176,"Ġhistorian":10177,"Ġrefused":10178,"ettings":10179,"FO":10180,"Ġsimilarly":10181,"Under":10182,"Cap":10183,"ĠKy":10184,"ilters":10185,"ĠColomb":10186,"Serial":10187,"ĠEmperor":10188,"ĠRights":10189,"Ġorbital":10190,"Ġsym":10191,"aturally":10192,"ebox":10193,"ugu":10194,"Ġnom":10195,"Ġperhaps":10196,"ĠMagazine":10197,"ĠChile":10198,"bums":10199,"Ġaired":10200,"uscript":10201,"ĠCH":10202,"Str":10203,"ateur":10204,"inema":10205,"acle":10206,"boldmath":10207,"ĠBrun":10208,"ĠNative":10209,"Ġcommit":10210,"ĠMatt":10211,"Ġreaching":10212,"ses":10213,"Ġpermanent":10214,"ĠSound":10215,"North":10216,"Sign":10217,"conduct":10218,"Ġdomestic":10219,"Ġhorse":10220,"product":10221,"rops":10222,"ĠÄ":10223,"ĠOak":10224,"dem":10225,"NG":10226,"Ġheard":10227,"Cref":10228,"Ġconfigurations":10229,"ista":10230,"elle":10231,"ĠGR":10232,"Ġhorizontal":10233,"Ġsac":10234,"ĠBurn":10235,"iversary":10236,"Ġlists":10237,"Ġbrothers":10238,"Ġconstitution":10239,"Ġcontinuum":10240,"Ġsun":10241,"Position":10242,"ĠBeng":10243,"Ġmount":10244,"onom":10245,"ĠCart":10246,"Ġdisestabl":10247,"ĠEarl":10248,"eval":10249,"ĠConnecticut":10250,"mal":10251,"Ġclassified":10252,"Ġsettled":10253,"Ġtell":10254,"ĠIS":10255,"evin":10256,"ĠTurkish":10257,"Af":10258,"Ġbenefit":10259,"Sk":10260,"Ġshortly":10261,"comb":10262,"Ġcombat":10263,"Module":10264,"Her":10265,"Ġdegener":10266,")),":10267,"ĠRab":10268,"ĠNick":10269,"uris":10270,"Su":10271,"Pass":10272,"Ġcache":10273,"Ġmerged":10274,"Ġimprovement":10275,"$^":10276,"rase":10277,"Vill":10278,"Ġsupports":10279,"incess":10280,"uparrow":10281,"ACK":10282,"ĠRose":10283,"ĠTelevision":10284,"Height":10285,"Ġnormalized":10286,"Pres":10287,"Ġsand":10288,"ĠEric":10289,"Ġinvolves":10290,"icial":10291,"Ġfactory":10292,"hist":10293,"ĠWy":10294,"Ġeverything":10295,"Ġelectrons":10296,"iami":10297,"files":10298,"scriptscriptstyle":10299,"Vari":10300,"ysical":10301,"Ġsingers":10302,"ando":10303,"Header":10304,"herical":10305,"Ġsurname":10306,"esides":10307,"Ġhour":10308,"Ġattached":10309,"Ġabstract":10310,"Ġaid":10311,"Ġuniverse":10312,"Ġqualified":10313,"Ġreduces":10314,"ĠAlabama":10315,"ĠSche":10316,"Ġdensities":10317,"burn":10318,"tor":10319,"ĠWolf":10320,"Ġlyrics":10321,"odox":10322,"mf":10323,"erset":10324,"Ġemployees":10325,"Ġentity":10326,"aware":10327,"Ġrespective":10328,"Ġboundaries":10329,"arrier":10330,"Thread":10331,"ĠFred":10332,"Ġsportspeople":10333,"ters":10334,"Ġpandemic":10335,"Notable":10336,"ĠWalter":10337,"ĠGab":10338,"tty":10339,"ĠMississippi":10340,"Ġscores":10341,"Ġentang":10342,"elson":10343,"Ġmayor":10344,"Ġpush":10345,"Ġchance":10346,"ĠEs":10347,"Ġuint":10348,"Ġrecommend":10349,"Ġcarbon":10350,"Football":10351,"ovation":10352,"aws":10353,"QQ":10354,"130":10355,"Ġreligion":10356,"ĠNFL":10357,"ĠOklahoma":10358,"Ġsons":10359,"Ġcollaboration":10360,"Ġverify":10361,"ĠRegional":10362,"Ġpartially":10363,"enez":10364,"ĠKat":10365,"Ġfresh":10366,"Ġellipt":10367,"ĠBrian":10368,"Ġcompetitions":10369,"Ġsignature":10370,"inking":10371,"uerto":10372,"leted":10373,"ĠBuilding":10374,"ĠML":10375,"was":10376,"Ġinstances":10377,"ĠWho":10378,"square":10379,"Ġadvers":10380,"Ġconcentration":10381,"ĠLincoln":10382,"ĠLtd":10383,"1903":10384,"Ġheavily":10385,"ĠExecutive":10386,"Properties":10387,"Down":10388,"Ġconsisted":10389,"Ġ}}":10390,"olished":10391,"ships":10392,"Ġmetrics":10393,"Ġalleged":10394,"Callback":10395,"forcement":10396,"Ġprogramme":10397,"1901":10398,"Ġannot":10399,";->":10400,"Ġdefines":10401,"Ġgirls":10402,"refect":10403,"ĠInfantry":10404,"tex":10405,"ĠTan":10406,"mean":10407,"Ġconfidence":10408,"ĠStory":10409,"arithm":10410,"ghan":10411,"Operation":10412,"Ġwinter":10413,"tah":10414,"enia":10415,"Ġfrequencies":10416,"Ep":10417,"Ġtick":10418,"rin":10419,"uma":10420,"corollary":10421,"Container":10422,"ĠTen":10423,"Ġexpos":10424,"ridges":10425,"Ġsurfaces":10426,"ĠEnvironment":10427,"Ġextreme":10428,"=\"-":10429,"istence":10430,"Mc":10431,"Ġpresidential":10432,"Ġcausing":10433,"ĠSix":10434,"mut":10435,"Async":10436,"They":10437,"Ġpopulations":10438,"$.}":10439,"Ġthank":10440,"ĠAlb":10441,"Ġinstitution":10442,"Ġdirectors":10443,"Ġtemple":10444,"ĠSenior":10445,"Ġchose":10446,"Range":10447,"chant":10448,"symmet":10449,"Ġagree":10450,"ĠThird":10451,"igenous":10452,"Final":10453,"Ġcas":10454,"ĠPa":10455,"itudes":10456,"TA":10457,"abad":10458,"Phil":10459,"ĠStone":10460,"ĠFourier":10461,"!]":10462,"double":10463,"night":10464,"Ġcompletion":10465,"Ġbroke":10466,"Ġconcluded":10467,"Ġsought":10468,"ĠCru":10469,"Ġexcell":10470,"Ġexhibition":10471,";\"|":10472,"ardo":10473,"Ġconjug":10474,"ĠJesus":10475,"ĠHans":10476,"Ġformally":10477,"Ġexecuted":10478,"agu":10479,"How":10480,"ĠAssert":10481,"taining":10482,"inds":10483,"represent":10484,"GM":10485,"Ġincorporated":10486,"ĠCode":10487,"Ġiteration":10488,"1902":10489,"fr":10490,"initial":10491,"Ġmobile":10492,"ĠDiego":10493,"ĠCreate":10494,"ĠStandard":10495,"ele":10496,"Ġconcerns":10497,"Ġsentence":10498,"wave":10499,"Ġscenes":10500,"Ġexplore":10501,"ubb":10502,"Ġsafe":10503,"Ġplate":10504,"Ġbelongs":10505,"ĠEvery":10506,"-(":10507,"ĠGram":10508,"ocate":10509,"Ġappearing":10510,"Education":10511,"=\"../../../../../":10512,"Ġuniformly":10513,"Indian":10514,"ĠNav":10515,"ä¸":10516,"Ġfaced":10517,"iva":10518,"ĠWhe":10519,"Ġsensitive":10520,"Ġmart":10521,"Ġroof":10522,"ĠMarine":10523,"Ġexpert":10524,"|^{":10525,"Ġfounding":10526,"ĠNaval":10527,"ĠPrix":10528,"ĠAge":10529,"Interface":10530,"Ġcriminal":10531,"NAME":10532,"uon":10533,"aph":10534,"Ġliquid":10535,"ownt":10536,"yers":10537,"rene":10538,"Ġgeometric":10539,"Ġeducational":10540,")[":10541,"Ġstudying":10542,"ĠChildren":10543,"%.":10544,"ĠAbout":10545,"$^{":10546,"ĠOnce":10547,"RS":10548,"Ġdiffusion":10549,"ples":10550,"duate":10551,"UM":10552,"ĠCop":10553,"ĠFac":10554,"border":10555,"Ġpromote":10556,"ĠMarc":10557,"Ġinfluenced":10558,"Ġ::":10559,"transform":10560,"otter":10561,"Http":10562,"olo":10563,"Ġkick":10564,"Ġautomatically":10565,"resource":10566,"Entity":10567,"ircles":10568,"Ġmaintained":10569,"Hom":10570,"Ġroots":10571,"ĠLank":10572,"Stud":10573,"Ġquas":10574,"Ġlinked":10575,"*\\":10576,"izable":10577,"Ġmetall":10578,"ĠHamp":10579,"odge":10580,"Ġorientation":10581,"ĠCommonwealth":10582,"Ġencounter":10583,"Option":10584,"artifact":10585,"urance":10586,"FS":10587,"before":10588,"Ġperiods":10589,".'":10590,"ĠLabour":10591,"Empty":10592,">,":10593,"exists":10594,"Ġpolarization":10595,"Ġtested":10596,"Ġsimultaneously":10597,"Ġpuls":10598,"ieval":10599,"rator":10600,"Ġcontrols":10601,"Ġprotest":10602,"eron":10603,"propto":10604,"utils":10605,"Ġmoves":10606,"ĠâĢł":10607,"ĠBulg":10608,"invariant":10609,"Draw":10610,"Ġinterests":10611,"Ġcomments":10612,"ĠCroat":10613,"Ġagency":10614,"Ġfought":10615,"ĠNAS":10616,"super":10617,"Ġdescribing":10618,"ĠAllen":10619,"footnotes":10620,"stackrel":10621,"Ġretirement":10622,"Ġopera":10623,"None":10624,"Ġcommissioned":10625,"inces":10626,"Ġkilling":10627,"ĠDark":10628,"Ġscenarios":10629,"Document":10630,"\\\\\\\\":10631,"iants":10632,"ĠGre":10633,"Ġoperate":10634,"ushed":10635,"|$":10636,"Ġcodes":10637,"Ġec":10638,"Ġresistance":10639,"Ġped":10640,"encing":10641,"ĠJam":10642,"ĠSuppose":10643,"Step":10644,"cht":10645,"ĠCer":10646,"{|":10647,"Star":10648,"ĠOfficer":10649,"Ġweather":10650,"ĠRow":10651,"ĠVice":10652,"Ġsymbols":10653,"ĠFM":10654,"Ġenhance":10655,"Club":10656,"ĠConsider":10657,"Ġlake":10658,"Ġmodeling":10659,"ĠReb":10660,"ĠEc":10661,"utor":10662,"Ġherself":10663,"ĠCooper":10664,"Ġjazz":10665,"Ġbrain":10666,"aby":10667,"Ġchurches":10668,"enny":10669,"ographical":10670,"aturday":10671,"Ġlicens":10672,"make":10673,"umption":10674,"Ġvarying":10675,"ĠAdditionally":10676,"textup":10677,"ĠDream":10678,"Ġkil":10679,"layer":10680,"ĠFa":10681,"Ġcontribute":10682,"ĠSud":10683,"ĠNich":10684,"ĠNext":10685,"Ġparticipants":10686,"oa":10687,")}(\\":10688,"Ġlicense":10689,"retch":10690,"ĠPortuguese":10691,"ifiers":10692,"urd":10693,"ĠHeart":10694,"Black":10695,"ctx":10696,"Ġtransitions":10697,"Search":10698,"BP":10699,"Ġattacked":10700,"ĠMoon":10701,"Bra":10702,"ĠInstead":10703,"Military":10704,"ĠJay":10705,"token":10706,"VAL":10707,"Ġcollision":10708,"oslav":10709,"incor":10710,"ĠSquare":10711,"porated":10712,"Ġcolors":10713,"Ġliterary":10714,"ĠBrand":10715,"ĠGP":10716,"Ġdriven":10717,"Ġmetres":10718,"Ġhomogeneous":10719,"Ġdistances":10720,"Ġjoining":10721,"Ġgar":10722,"Ġinvestment":10723,"Ġpun":10724,"parallel":10725,"footnotesize":10726,"Ġfaster":10727,"Ġlosses":10728,"ĠCON":10729,"Ġcorpor":10730,"ladesh":10731,"Ġfilled":10732,"bad":10733,"hfill":10734,"$\\,":10735,"ĠIr":10736,"putation":10737,"romise":10738,"Ġ>=":10739,"TYPE":10740,"ĠArgentina":10741,"&=&\\":10742,"Ġanalytic":10743,"Ġuncertainties":10744,"ĠTaiwan":10745,"ĠQuebec":10746,"1880":10747,"Gr":10748,"ashi":10749,"UC":10750,"types":10751,"ĠDeb":10752,"Ġahead":10753,"Ġflex":10754,"cules":10755,"ĠSN":10756,")(\\":10757,"Ġimmediate":10758,"Ġcloser":10759,"Ġaged":10760,"duces":10761,"ocratic":10762,"Ġinhabit":10763,"Ø§":10764,"Den":10765,"overset":10766,"Vector":10767,"rinsic":10768,"{(\\":10769,"Ġairport":10770,"Family":10771,"craft":10772,"orro":10773,"\"))":10774,"oca":10775,"rama":10776,"Ġcod":10777,"ĠOR":10778,"ĠInn":10779,"Ã¥":10780,"Ġstead":10781,"Ġmessages":10782,"OK":10783,"Ġapart":10784,"leftarrow":10785,"inburgh":10786,"Ġfitting":10787,"Ġmist":10788,"device":10789,"}/\\":10790,"Ġoverride":10791,"arry":10792,"Ġtopology":10793,"Ang":10794,"ĠGall":10795,"ĠEXP":10796,"'ve":10797,"modules":10798,"}$\\":10799,"Ġprotein":10800,"ĠCommunic":10801,"Ġsoccer":10802,"structure":10803,"Ġduration":10804,"ĠAdministration":10805,"Ġindicating":10806,"Ġ('":10807,"unn":10808,"Ġsuppose":10809,"Ġschemes":10810,"Ġunderstood":10811,"Ġneutrino":10812,"sa":10813,"ĠHouston":10814,"ĠChall":10815,"Ġrout":10816,"ĠNCAA":10817,"Ġmoments":10818,"unities":10819,"Ġtranslated":10820,"Ġhotel":10821,"Ġtransaction":10822,"tim":10823,"Ġanimal":10824,"Ġgreatest":10825,"ĠSilver":10826,"Ġdates":10827,"ĠNik":10828,"Change":10829,"rates":10830,"ĠMonte":10831,"Ġviewed":10832,"Ġweapons":10833,"aming":10834,"Ġphoto":10835,"Ġcenturies":10836,"ĠHonor":10837,"Ġdecreases":10838,"ĠKaz":10839,"gather":10840,"have":10841,"ancell":10842,"ĠMoore":10843,"stop":10844,"Ġalgebraic":10845,"STATE":10846,"ĠPatrick":10847,"Ġderivatives":10848,"cers":10849,"ĠSimilarly":10850,")}.":10851,"quest":10852,"forming":10853,"Ġdrag":10854,"cerning":10855,"Ġquadratic":10856,"Ġproposal":10857,"Ġoffices":10858,"PYG":10859,"styleshe":10860,"Ġenable":10861,"Core":10862,"Ġstrictly":10863,"Params":10864,"EP":10865,"Syn":10866,"Ġpublications":10867,"spin":10868,"Ġguns":10869,"join":10870,"'_{":10871,"Ġgenerator":10872,"erg":10873,"Ġhope":10874,"Ġhash":10875,"Ġconvers":10876,"ĠGa":10877,"okes":10878,"Ġprecise":10879,"Connection":10880,"Ġskills":10881,"send":10882,"Ġensemble":10883,"Ġchallenges":10884,"via":10885,"Ġstrings":10886,"eland":10887,"Ġ..":10888,"Ġtang":10889,"died":10890,"alia":10891,"ynamics":10892,"Ġattributes":10893,"Ġtennis":10894,"Ġassembly":10895,"Ġstraightforward":10896,"zing":10897,":(":10898,"ĠChampions":10899,"ĠProduction":10900,"Ġsolving":10901,"rÃ©":10902,"cycl":10903,"Reference":10904,"Ġcontainer":10905,"Ġatomic":10906,"ĠReport":10907,"ĠFace":10908,"Ġlawyer":10909,"*}[":10910,"Ġbrown":10911,"LR":10912,"Ġfeedback":10913,"Ġformulation":10914,"Ġvideos":10915,"Ġstrategies":10916,"Dir":10917,"ĠMand":10918,"Ġdeviation":10919,"Tim":10920,"ĠFinn":10921,"Ġinclusion":10922,"each":10923,"sep":10924,"ĠDoctor":10925,"Ġment":10926,"ivery":10927,"ĠBattalion":10928,"ĠSwiss":10929,"ĠBureau":10930,"Ġsurg":10931,"Ġrapidly":10932,"Ġfoundation":10933,"ĠPas":10934,"ĠAle":10935,"MF":10936,"ĠCra":10937,"larg":10938,"Ġhumans":10939,"Copy":10940,"Ġdefinitions":10941,"Ġles":10942,"ĠAnne":10943,"ĠCook":10944,"copy":10945,"Ġworldwide":10946,"opter":10947,"Ġdanger":10948,"enance":10949,"Ġsensitivity":10950,"Ġinduct":10951,"Ġinvestigated":10952,"Ġsystematic":10953,"ĠPope":10954,"romagnetic":10955,"ĠBelgium":10956,"ĠIsraeli":10957,"Ġrevolution":10958,"finite":10959,"Ġfer":10960,"Ġtrav":10961,"emale":10962,"ĠIslamic":10963,"cross":10964,"vect":10965,"usal":10966,"Î±":10967,"iliary":10968,"Ġperspective":10969,"rison":10970,"will":10971,"Ġfranch":10972,"estamp":10973,"ĠAre":10974,"Ġspan":10975,"ĠRecord":10976,"bits":10977,"ĠRang":10978,"Ġovers":10979,"ĠCemetery":10980,"ĠAnthony":10981,"ĠYouth":10982,"Ġready":10983,"Ġexplos":10984,"Ġdiscovery":10985,"Ġrejected":10986,"aked":10987,"Dom":10988,"Ġdispersion":10989,"ĠNag":10990,"ĠHockey":10991,"Ġbenefits":10992,"req":10993,"Roman":10994,"Ġpanels":10995,"Ġadaptation":10996,"Ġbatter":10997,"ĠGard":10998,"Ġsoci":10999,"IB":11000,"lu":11001,"Ġtemporal":11002,"Reception":11003,"ayan":11004,"Ġcapable":11005,"GP":11006,"Ã´":11007,"ĠAL":11008,"Ġstrike":11009,"ĠUnit":11010,"store":11011,"ĠDur":11012,"Ġprofession":11013,"Ġestablishment":11014,"ĠGordon":11015,"Ġprompt":11016,"Ġmock":11017,"Ġstating":11018,"hered":11019,"Ð²":11020,"uda":11021,"Ġpoll":11022,"Ġdiagrams":11023,"ĠFerm":11024,"ĠDenmark":11025,"Ġdoor":11026,"ĠPalest":11027,"fast":11028,"Ġkeyboard":11029,"grid":11030,"Prop":11031,"Ġsteel":11032,"700":11033,"olver":11034,"Ġadvent":11035,"Ġdisplayed":11036,"COLOR":11037,"Ġadult":11038,"antasy":11039,"Ġconventional":11040,"ĠDick":11041,"noise":11042,"Del":11043,"hash":11044,"Ġvision":11045,"Ġaccounts":11046,"Ġrows":11047,"Ġrestriction":11048,"ĠSn":11049,"Ġcommitted":11050,"Ġtel":11051,"ĠKam":11052,"Ġcrucial":11053,"ĠOrth":11054,"rob":11055,"Expatriate":11056,"density":11057,"ĠImm":11058,"ĠAlber":11059,"Ġgender":11060,"istant":11061,"otional":11062,"mazon":11063,"Ptr":11064,"GeV":11065,"states":11066,"ĠCollection":11067,"Ġdisappe":11068,"Rightarrow":11069,"Ġcrisis":11070,"Ġpaintings":11071,"ĠAntonio":11072,"ĠTemple":11073,"Ġrelationships":11074,"marg":11075,"ĠLouisiana":11076,"rik":11077,"late":11078,"ĠPhill":11079,"Ġstadium":11080,"sett":11081,"Ġnarr":11082,"Ġquot":11083,"ĠKo":11084,"Ġpoetry":11085,"cmd":11086,"Ġvolunte":11087,"Ġprepared":11088,"Ġeye":11089,"}^{+":11090,"tn":11091,"GE":11092,"ativistic":11093,"atorial":11094,"ĠBrazilian":11095,"Ġopinion":11096,"Ġpresents":11097,"ĠSel":11098,"Ġtransverse":11099,"VM":11100,"racket":11101,"ĠMS":11102,"Ġenemy":11103,"ĠMi":11104,"radius":11105,"Mem":11106,"Ġconvolution":11107,"Ġruled":11108,"Ġdecade":11109,"Ġequipped":11110,"comment":11111,"Ġactresses":11112,"sson":11113,"Major":11114,"Det":11115,"ĠToday":11116,"Ġ_{\\":11117,"aments":11118,"Ġexpectation":11119,"oustic":11120,"friend":11121,"Ġtight":11122,"$'":11123,"ĠAlgorithm":11124,"Ġdesigns":11125,"aza":11126,"Ġtack":11127,"elian":11128,"Ġinaug":11129,"Ġecho":11130,"Ġbusinesses":11131,"finals":11132,"DL":11133,"Ġexhibit":11134,"Ġpione":11135,"ĠText":11136,"Ġchapter":11137,"Ġresidual":11138,"Ġinvited":11139,"113":11140,"UK":11141,"stances":11142,"site":11143,"Ġreward":11144,"1898":11145,"Ġcook":11146,"Ġcriteria":11147,"ĠHu":11148,"fil":11149,"interface":11150,"Mal":11151,"plan":11152,"ĠPage":11153,"ĠTerrit":11154,"gi":11155,"ĠSin":11156,"orient":11157,"Ġidentification":11158,"bean":11159,"Ġcler":11160,"ieg":11161,"ĠHerm":11162,"grav":11163,"ĠAGN":11164,"Ġaccompan":11165,"islation":11166,"olving":11167,"gets":11168,"ĠDouglas":11169,"Ġclosure":11170,"ĠSign":11171,")&":11172,"nie":11173,"Av":11174,"Ġfitted":11175,"Ġhomes":11176,"chell":11177,"Host":11178,"Ġlocomot":11179,"otte":11180,"iration":11181,"Ġweighted":11182,"Enc":11183,"changed":11184,"ĠBrigade":11185,"Parameters":11186,"MI":11187,"Ġmoder":11188,"olation":11189,"olid":11190,"RT":11191,"Ver":11192,"Ġnum":11193,"Ġray":11194,"region":11195,"Ġabandoned":11196,"Ġcompilation":11197,"ificate":11198,"Ġtropical":11199,"Ġancest":11200,"ĠFle":11201,"phase":11202,"Ġvo":11203,"imore":11204,"Ġfan":11205,"Ġhair":11206,"chain":11207,"ĠVari":11208,"ĠDanish":11209,"Ġdiameter":11210,"?:":11211,"Ġdispl":11212,"Ġsphere":11213,"ocracy":11214,"Iter":11215,"Ġorthogonal":11216,"Ġusage":11217,"Academ":11218,"Ġstanding":11219,"Ġcorrelations":11220,"Ġcomparable":11221,"Ġpolynomials":11222,"Ġirreducible":11223,"Ġconversion":11224,"ATA":11225,"bey":11226,"ĠDal":11227,"Ġisolated":11228,"tsburgh":11229,"hanced":11230,"Ġhighway":11231,"Ġsale":11232,"ĠLiberal":11233,"fly":11234,"Hash":11235,"Ġhybrid":11236,"issance":11237,"rub":11238,"Ġjobs":11239,"Ġvoted":11240,"Ġrequirement":11241,"Ġ\\|\\":11242,"Ġrein":11243,"Ġreads":11244,"Ġban":11245,"written":11246,"ĠEdinburgh":11247,"Ġgene":11248,"hythm":11249,"icide":11250,"hab":11251,"Sym":11252,"ĠAction":11253,"Bas":11254,"Ġforming":11255,"rena":11256,"ĠLieutenant":11257,"east":11258,"artifactId":11259,"ĠPlayer":11260,"istration":11261,"Ġnaturally":11262,"ĠVillage":11263,"ĠBry":11264,"ailand":11265,"API":11266,"Ġhuge":11267,"ĠExpress":11268,"\\|_":11269,"erion":11270,"mag":11271,"Ġcyl":11272,"Ġmanuscript":11273,"ĠArchitect":11274,"ĠDublin":11275,"NT":11276,"Songs":11277,"}.}":11278,"Sem":11279,"ruption":11280,"ĠDak":11281,"Initial":11282,"INEAR":11283,"Ġintelligence":11284,"Ġradi":11285,"ĠDat":11286,"essions":11287,"ĠMrs":11288,"Ġarrival":11289,"Ġresearchers":11290,"igious":11291,"Ġcub":11292,"ĠMean":11293,"1899":11294,"ĠPap":11295,"Ġtargets":11296,"ĠDonald":11297,"Ġinit":11298,"etry":11299,"holder":11300,"iemann":11301,"edding":11302,"Ä«":11303,"Ġchampions":11304,"Ġstabil":11305,"Ġstored":11306,"Ġbranches":11307,"ahn":11308,"ĠHotel":11309,"overy":11310,"ĠHawai":11311,"Ġdoct":11312,"ĠRoberts":11313,"Use":11314,"ĠNig":11315,"=\"../../../../../../":11316,"ibilities":11317,"jar":11318,"115":11319,"Loc":11320,"ymmetry":11321,"ĠNam":11322,"ĠEag":11323,"Ġratios":11324,"Ġencoding":11325,"modal":11326,"nm":11327,"ĠRest":11328,"Rober":11329,"ĠPuerto":11330,"ĠHeritage":11331,"ospit":11332,"ĠIP":11333,"ĠCEO":11334,"category":11335,"inch":11336,"ĠIndonesia":11337,"Ġdoll":11338,"Ġterror":11339,"ĠAbd":11340,"wen":11341,"Buildings":11342,"ĠNumber":11343,"ĠView":11344,"Kind":11345,"================================":11346,"Ġpublisher":11347,"Ġreasonable":11348,"ĠStudios":11349,"Ġslope":11350,"oda":11351,"ĠPortugal":11352,"ivation":11353,"Ġtall":11354,"Ġrival":11355,"Ġ$^{":11356,"rable":11357,"Ġconvention":11358,"Ġceremony":11359,"Ġdomains":11360,"Ġlaid":11361,"Ġtopic":11362,"argo":11363,"ĠException":11364,"Ġreplacement":11365,"ĠAlice":11366,"ĠImp":11367,"Ġneither":11368,"ĠHarvard":11369,"\\,{\\":11370,"ĠRE":11371,"connection":11372,"ĠAssoci":11373,"Ġremember":11374,"leveland":11375,"Ġnearest":11376,"Ġtouchdown":11377,"ĠBG":11378,"Ġformul":11379,"Ġdisorder":11380,"sis":11381,"condition":11382,"ĠLam":11383,"ĠSport":11384,"Ġaccretion":11385,"Ġsecure":11386,"dict":11387,"Ġelementary":11388,"ĠDetroit":11389,"tml":11390,"wt":11391,"Ġwarm":11392,"Ġinputs":11393,"]^":11394,"ĠRic":11395,"ulator":11396,"allas":11397,"vironments":11398,"ĠDisney":11399,"Lo":11400,"Ġreign":11401,"avi":11402,"ĠPed":11403,"ĠMcK":11404,"GBT":11405,"lon":11406,"ĠPlace":11407,"ALL":11408,"ĠBuck":11409,"dash":11410,"Ġmir":11411,"ango":11412,"UP":11413,"oche":11414,"ourse":11415,"ĠInvest":11416,"ĠVin":11417,"_{+":11418,"Ġrating":11419,"ugment":11420,"Ġbringing":11421,"Ġsell":11422,"original":11423,"ĠMiami":11424,"abet":11425,"Ġelectro":11426,"ĠHollywood":11427,"random":11428,"isition":11429,"Ġentrance":11430,"Ñı":11431,"Ġcollapse":11432,"lat":11433,"total":11434,"limit":11435,"foo":11436,"ĠÃī":11437,"ĠEarly":11438,"Ġstores":11439,"Impl":11440,"umps":11441,"Ġsubjects":11442,"ĠBou":11443,"Ãł":11444,"Ġjustice":11445,"Ġ\\[":11446,"gressive":11447,"Ġvariant":11448,"Ġindependently":11449,"Selected":11450,"Ġ*)":11451,"ĠDVD":11452,"1870":11453,"Ġpersons":11454,"uber":11455,"Ã«":11456,"Ġboat":11457,"105":11458,"ĠIndependent":11459,"ĠUl":11460,"particle":11461,"Ġpassenger":11462,"ĠLegislative":11463,"imits":11464,"ĠSO":11465,"ĠAfghan":11466,"Lin":11467,"ĠLagrangian":11468,"Former":11469,"debug":11470,"140":11471,"ĠHas":11472,"ĠCow":11473,"ĠHarris":11474,"Only":11475,"ĠRequ":11476,"Ġdrivers":11477,"Ġpermut":11478,"ĠMA":11479,"Ġstatements":11480,"Ġaccommod":11481,"Ġengaged":11482,")_{\\":11483,"Green":11484,"ĠRy":11485,"Ġislands":11486,"uzz":11487,"gon":11488,"Ġdip":11489,"ĠPC":11490,"Ġrenew":11491,"Ġepoch":11492,"Mich":11493,"Ġranges":11494,"Ġfavour":11495,"Ġcommunic":11496,"posing":11497,"Ġdry":11498,"Ġfinishing":11499,"ĠCulture":11500,"Ġblow":11501,"Many":11502,"Ġmodules":11503,"Ġmidfield":11504,"Ġengines":11505,"Ġes":11506,"dale":11507,"ĠJuan":11508,"Ġcompete":11509,"Ġbond":11510,"ĠSamuel":11511,"Ġpenalty":11512,"Ġhits":11513,"ĠMC":11514,"Settings":11515,"Ġfleet":11516,"Ġthousands":11517,"song":11518,"ĠDM":11519,"ĠShar":11520,"connected":11521,"unately":11522,"rapy":11523,"Ġtrajectory":11524,"ÃŃn":11525,"\"));":11526,"redited":11527,"Ġcompatible":11528,"Ġparticipate":11529,"Lang":11530,"rency":11531,"leges":11532,"ĠLanc":11533,"Ġli":11534,"iamond":11535,"David":11536,"Ġsatellite":11537,"binom":11538,"ĠLear":11539,"Ġdt":11540,"merce":11541,"=\\{":11542,"Ġdownload":11543,"smallskip":11544,"1895":11545,"Europe":11546,"ĠKa":11547,"Ġreserve":11548,"Ġbaseline":11549,"Ġsignificance":11550,"ĠMedicine":11551,"bind":11552,"Ġfib":11553,"ĠArkansas":11554,"network":11555,"Ġcaref":11556,"ĠSupport":11557,"Jo":11558,"Ġtransformations":11559,"ige":11560,"Ġvirt":11561,"Ġastron":11562,"})^{":11563,"internal":11564,"anim":11565,"ortion":11566,"ĠAny":11567,"ĠMatthe":11568,"jpg":11569,"groupId":11570,"Ġsymp":11571,"Ġfly":11572,"ĠBlo":11573,"ĠTig":11574,"Ġaux":11575,"Ġundefined":11576,"oi":11577,".$$":11578,"Ġ---":11579,"ĠHilbert":11580,"rak":11581,"ĠHills":11582,"ĠControl":11583,"ĠWard":11584,"ĠImperial":11585,"numer":11586,"Ġstronger":11587,"AND":11588,"ĠUV":11589,"Ġrobot":11590,"owned":11591,"incorporated":11592,"who":11593,"Ġsevere":11594,"1896":11595,"Ġextracted":11596,"False":11597,"ĠNob":11598,"Integer":11599,"Ġraw":11600,"ĠNatural":11601,"Ġparams":11602,"Ġconcerned":11603,"ULT":11604,"Ġphilosophy":11605,"azines":11606,"Flor":11607,"Ġinjured":11608,"erial":11609,"ĠLINEAR":11610,"article":11611,"father":11612,"Ġmob":11613,"ĠLyn":11614,"Ġcounterpart":11615,"oves":11616,"orses":11617,"estyle":11618,"ĠSocorro":11619,"Ġsecretary":11620,"Ġcomic":11621,"Ġcompre":11622,"Ġpixel":11623,"gate":11624,"112":11625,"Ġaccused":11626,"&&\\":11627,"Ġrevers":11628,"ĠLaure":11629,"Ġdistinguish":11630,"ĠOrchestra":11631,"nowledge":11632,"Ġanth":11633,"owntown":11634,"prec":11635,"Ġwindows":11636,"problem":11637,"asp":11638,"loss":11639,"atar":11640,"functions":11641,"Ġaccompl":11642,"Ġvot":11643,"Ġanimated":11644,"Î¿":11645,"ceil":11646,"Ġexperienced":11647,"ĠFrederick":11648,"Ġhired":11649,"anne":11650,"uh":11651,"Ġdynasty":11652,"Ġdelivered":11653,"Ġfermion":11654,"enian":11655,"nik":11656,"Ġclassic":11657,"ĠUse":11658,"ĠFried":11659,"aneous":11660,"Ġexplanation":11661,"orf":11662,"ificial":11663,"Ġrecordings":11664,"moment":11665,"uct":11666,"Ġask":11667,"Ġlegend":11668,"ĠFern":11669,"special":11670,"Ġcompris":11671,"Official":11672,"Ġrandomly":11673,"Ġsubspace":11674,"Ġphotons":11675,"Ġdiscussions":11676,"ĠSoft":11677,"plus":11678,"ĠTar":11679,"Ġpointed":11680,"lb":11681,"Ġpadding":11682,"orrow":11683,"Ġcastle":11684,"%,":11685,"ĠLas":11686,"ĠFil":11687,"Ġgraduate":11688,"aire":11689,"ĠStew":11690,"Ġbirds":11691,"(:":11692,"inian":11693,"issue":11694,"ĠNet":11695,"roc":11696,"vm":11697,"creen":11698,"Ġfalls":11699,"ĠBus":11700,"Ġuniqu":11701,"utable":11702,"1897":11703,"ĠFarm":11704,"enz":11705,"Ġremainder":11706,"Ġconcrete":11707,"ĠLO":11708,"ĠAlan":11709,"Ġ~\\":11710,"Ġscientists":11711,"ĠRub":11712,"district":11713,"urable":11714,"Ġsubstantial":11715,"ĠDefense":11716,"Ġmembership":11717,"Ġwire":11718,"ĠSR":11719,"Ġreconstruct":11720,"Ġinvasion":11721,"Ġcarrying":11722,"Ġpractices":11723,"pot":11724,"Ġchoices":11725,"Ġbacking":11726,"sample":11727,"Ġroutes":11728,"Ġdismiss":11729,"HTML":11730,"HD":11731,"nol":11732,"Ġkeeping":11733,"address":11734,"through":11735,"Mac":11736,"Expression":11737,"env":11738,"single":11739,"Ġfacilit":11740,"Ġinfo":11741,"ĠUkrainian":11742,"Session":11743,"ĠChen":11744,"isp":11745,"rieved":11746,"endment":11747,"ishops":11748,"Store":11749,"emen":11750,"Ġsolved":11751,"ĠBowl":11752,"Has":11753,"Ġinstrum":11754,"Ġexerc":11755,"STR":11756,"Ġinstruments":11757,"Ġstructural":11758,"Ġinhabitants":11759,"Ġpercentage":11760,"Ġsubsection":11761,"Ġsimulated":11762,"'>":11763,"ĠAgency":11764,"NavBar":11765,"ĠCare":11766,"ĠGirl":11767,"Ġjunior":11768,"cert":11769,"million":11770,"Ġhappen":11771,"isting":11772,"Ġfold":11773,"Ġpseudo":11774,"ĠAM":11775,"Ġinduction":11776,"Ġattraction":11777,"Ġcenters":11778,"eget":11779,"ĠBangladesh":11780,"ĠWalker":11781,"ĠMayor":11782,"ĠComb":11783,"msg":11784,"Ġseek":11785,"ĠAP":11786,"abric":11787,"midrule":11788,"Ġresigned":11789,"lass":11790,"\\},":11791,"aired":11792,"ApJ":11793,"Ġpotentially":11794,"Ġacknowled":11795,"Ġ{$\\":11796,"Villages":11797,"Italian":11798,"Ġmining":11799,"ĠWindows":11800,"Ġcompens":11801,"ĠPolicy":11802,"ĠTun":11803,"person":11804,"Ġnick":11805,"ĠHug":11806,"Ġxml":11807,"ĠExp":11808,"ĠMos":11809,"Ġtries":11810,"Ġpup":11811,"alid":11812,"ermin":11813,"illed":11814,"enezuel":11815,"Ġmort":11816,"correspond":11817,"ĠDate":11818,"uts":11819,"Ġ\\{\\":11820,"ĠRap":11821,"Ġrecur":11822,"Ġmechanisms":11823,"Ġkinetic":11824,"+$":11825,"irds":11826,"othe":11827,"Ġvirus":11828,"ĠDigital":11829,"Ġpurchase":11830,"orer":11831,"eting":11832,"Ġbiggest":11833,"hensive":11834,"Ġframes":11835,"Ġresonance":11836,"WS":11837,"ĠEXPECT":11838,"Ġgrounds":11839,"Ġrecovered":11840,"ĠSeveral":11841,"fall":11842,"support":11843,"Ġleaf":11844,"ĠCorollary":11845,"ilst":11846,"Ġsupposed":11847,"thick":11848,"Ġinfrastructure":11849,"Ġassistance":11850,"ournament":11851,"Ġtwelve":11852,"uki":11853,"varrho":11854,"Ġhal":11855,"Ġlegislation":11856,"Ġminute":11857,"Japanese":11858,"Ġstrip":11859,"door":11860,"ĠCR":11861,"Ġfiber":11862,"Ġmorphism":11863,"oving":11864,"Ġduty":11865,"ĠCommander":11866,"media":11867,"ĠPeters":11868,"Ġlatest":11869,"ĠMalaysia":11870,"aten":11871,"ishment":11872,"ĠMond":11873,"Ġdepicted":11874,"Ġlands":11875,"Cy":11876,"Ġarmed":11877,"Collection":11878,"Ġoccas":11879,"bach":11880,"Ġinterpreted":11881,"Ġanalys":11882,"ĠGuide":11883,"egas":11884,"ĠDave":11885,"borough":11886,"CK":11887,"Found":11888,"indu":11889,"Ġdefining":11890,"WA":11891,"Ġ\"\\":11892,"ĠFunction":11893,"olph":11894,"bc":11895,"fg":11896,"apolis":11897,"Histor":11898,"Ġregularly":11899,"ĠThailand":11900,"Male":11901,"ostic":11902,"anny":11903,"ĠTraining":11904,"ĠFinland":11905,"ĠAustrian":11906,"icker":11907,"Ġmerger":11908,"Ġcredit":11909,"Ġphotograph":11910,"ĠSingh":11911,"uable":11912,"Medal":11913,"DT":11914,"isations":11915,"Ġintervals":11916,"ĠHistorical":11917,"phony":11918,"ĠRyan":11919,"Ġacid":11920,"Ġplasma":11921,"Ġhappens":11922,"Ġassociate":11923,"ĠBox":11924,"Ġeveryone":11925,"Ġfilename":11926,"ĠPrad":11927,"Ġregression":11928,"ethe":11929,"ĠĠčĊ":11930,"ctic":11931,"ĠLawrence":11932,"San":11933,"Ġlikelihood":11934,"ugar":11935,"aintenance":11936,"Ġthanks":11937,"ĠBuff":11938,"Thom":11939,"Stack":11940,"ĠJava":11941,"Ġchair":11942,"imit":11943,"ĠAtlanta":11944,"Ġincreasingly":11945,"Ġcircular":11946,"Ġbed":11947,"Ġfits":11948,"{.":11949,"ĠTreat":11950,"din":11951,"ĠCheck":11952,"Ġinvoke":11953,"casting":11954,"():":11955,"ĠMcG":11956,"Ġdecisions":11957,"Est":11958,"Ġgoods":11959,"anti":11960,"ithuan":11961,"multline":11962,"ĠĠĠĠĠĠĊ":11963,"}{{\\":11964,"heric":11965,"ĠSaturday":11966,"Ġsigns":11967,"Ġconstituency":11968,"ibl":11969,"rett":11970,"ĠRol":11971,")}$.":11972,"upl":11973,"riday":11974,"ĠSS":11975,"Ġsegments":11976,"Ġhappened":11977,"1889":11978,"ĠManu":11979,"cloud":11980,"uis":11981,"ĠOperation":11982,"StyleID":11983,"ĠScient":11984,"Ġreaches":11985,"ĠCensus":11986,"ĠFA":11987,"Ġcollections":11988,"specific":11989,"uction":11990,"Ġgrade":11991,"Ġuniversities":11992,")>":11993,"overty":11994,"iri":11995,"Ġsimplicity":11996,"Ġcomplicated":11997,"ĠFall":11998,"Ġaveraged":11999,"angel":12000,"1893":12001,"equals":12002,"marks":12003,"Ġearliest":12004,"Ġranking":12005,"atherine":12006,"1892":12007,"Ġprev":12008,"blem":12009,"asa":12010,"properties":12011,"HP":12012,"111":12013,"Railway":12014,"Ġpraised":12015,"Ġrefuge":12016,"than":12017,"ĠKevin":12018,"blast":12019,"Ġconnecting":12020,"Title":12021,"\\}.":12022,"Ġalgebras":12023,"Ġsimilarity":12024,"Ġnegoti":12025,"Ġresponsibility":12026,"ĠCommunist":12027,"Ġproposition":12028,"Ġveter":12029,"Bbb":12030,"between":12031,"ĠĠĠĠĠĠĠĠĠĠĠĠĠĠĠĠĠĠĠĠĠĠĠĠĠ":12032,"Ġexped":12033,"Ġedited":12034,"ĠImage":12035,"Ġstopped":12036,"Ġunus":12037,"orus":12038,"stylesheet":12039,"Ġshut":12040,"aman":12041,"Ġchiral":12042,"Ġjav":12043,"Ġbishop":12044,"nest":12045,"Ġapplies":12046,"Ġimply":12047,"fire":12048,"raise":12049,"gp":12050,"handle":12051,"bigcup":12052,"words":12053,"Ġjourney":12054,"ĠDeath":12055,"prise":12056,"Ġaccompanied":12057,"tb":12058,"Ġconditional":12059,"Ġkeys":12060,"ĠPur":12061,"Paul":12062,"James":12063,"textnormal":12064,"delete":12065,"}>":12066,"orous":12067,"]=":12068,"Ð´":12069,"gments":12070,"Ġordinary":12071,"Space":12072,"Ġmental":12073,"Ġscholars":12074,"enter":12075,"Ġvic":12076,"%;":12077,"^+$":12078,"bridge":12079,"IGN":12080,"Ġboost":12081,"construct":12082,"ographics":12083,"ĠDeputy":12084,"_;":12085,"Ġneighb":12086,"Ġmunicipal":12087,"ĠNE":12088,"ĠGarden":12089,"session":12090,"framework":12091,"ĠPeace":12092,"Ġremote":12093,"1894":12094,"Ġoperates":12095,"Br":12096,"Ġconfirm":12097,"spring":12098,"Ġhosts":12099,"Events":12100,"_{-\\":12101,"Ġoccupation":12102,"ĠReserve":12103,"117":12104,"Ġhorizon":12105,"intend":12106,"Ã³w":12107,"Ġroads":12108,"Ġanalyze":12109,"ĠAlban":12110,"ĠĠĠĠĠĠĠĠĠĠĠĠĠĠĠĠĠĠĠĠĠĠ":12111,"Ġcouplings":12112,"nod":12113,"ĠRound":12114,"ĠHungarian":12115,"Ġcited":12116,"acon":12117,"Ġclock":12118,"Ġeigenvalue":12119,"ĠStart":12120,"Bigg":12121,"uning":12122,"Ġturbul":12123,"record":12124,"Bur":12125,"Ġinference":12126,"Ġorbits":12127,"Production":12128,"}[!":12129,"Ġcrowd":12130,"Proposition":12131,"defn":12132,"liminary":12133,"cript":12134,"Ġmedicine":12135,"Ġsynchron":12136,"}{}":12137,"ĠUtah":12138,"ĠNash":12139,"Ġaspect":12140,"ried":12141,"approxim":12142,"ĠSaf":12143,"114":12144,"ugoslav":12145,"ĠMPs":12146,"Ġfragment":12147,"Ġcomparing":12148,"ĠMotor":12149,"ici":12150,"Ġexperiences":12151,"arial":12152,"ĠNewton":12153,"1891":12154,"ĠNGC":12155,"rophy":12156,"ĠRugby":12157,"'ll":12158,"ĠDead":12159,"ĠEqs":12160,"Ġguide":12161,"Ġethnic":12162,"Database":12163,"Ġreducing":12164,"Ġflying":12165,"Ġspeaking":12166,"Opt":12167,"panel":12168,"Ġtunnel":12169,"initely":12170,"orted":12171,"newline":12172,"Ġholes":12173,"Ġsmallest":12174,"Ġposterior":12175,"ĠPad":12176,"ĠPear":12177,"ĠGon":12178,"Ġarranged":12179,"Ġarchae":12180,"1860":12181,"Ġpriest":12182,"IE":12183,"Ġlocality":12184,"leman":12185,"ugins":12186,"subequations":12187,"ĠTamil":12188,"trivial":12189,"loat":12190,"Ġpartnership":12191,"Ġpremiered":12192,"distance":12193,"Works":12194,"Ġresidence":12195,"clide":12196,"Ġconsiderable":12197,"series":12198,"Ġrealized":12199,"ĠJun":12200,"Ġproperly":12201,"ted":12202,"ĠBart":12203,"Ġembedded":12204,"flat":12205,"ÅŁ":12206,"ĠABC":12207,"Russian":12208,"Ġstationary":12209,"Ġcosmological":12210,"Ġfiled":12211,"Ġprize":12212,"Ġschedule":12213,",...,":12214,"ĠRio":12215,"inea":12216,"Rich":12217,"Ġunitary":12218,"Ġkid":12219,"Ġnamespace":12220,"bara":12221,"Ġcourses":12222,"ĠValue":12223,"Ġvictims":12224,"ĠHungary":12225,"focus":12226,"take":12227,"olly":12228,"Network":12229,"Ġassault":12230,"Ġmanip":12231,"race":12232,"ĠIron":12233,"Ġabundance":12234,"Ġaccum":12235,"requency":12236,"Tube":12237,"1885":12238,"Ġheter":12239,"islature":12240,"ĠLanguage":12241,"Fix":12242,"Symbol":12243,"olas":12244,"Ġagricultural":12245,"Sur":12246,"Ġpron":12247,"ĠAnna":12248,"named":12249,"Ġvolumes":12250,"ĠMontreal":12251,"olves":12252,"ĠOrthodox":12253,"Ġproducers":12254,"March":12255,"Ġjunction":12256,"Ġenabled":12257,".:":12258,"Any":12259,"ĠSeason":12260,"Ur":12261,"Hy":12262,"replace":12263,"ĠWelsh":12264,"Ġpassengers":12265,"tha":12266,"}},\\":12267,"leased":12268,"Ġcircles":12269,"counter":12270,"profile":12271,"116":12272,"pin":12273,"separ":12274,"ĠChamber":12275,"ĠJohann":12276,"lm":12277,"ĠChairman":12278,"Fran":12279,"Ġpatient":12280,"ĠRick":12281,"wig":12282,"Ġheader":12283,"Ġmus":12284,"áĥ":12285,"akers":12286,"role":12287,"Mer":12288,"Ġmathematical":12289,"ea":12290,"ĠRace":12291,"people":12292,"care":12293,"ĠOri":12294,"game":12295,"ĠRomania":12296,"Body":12297,"Values":12298,"Ġatom":12299,"Ġattributed":12300,"election":12301,"ellect":12302,"Ġbatch":12303,"Ġwaters":12304,"ĠEquation":12305,"Phys":12306,"period":12307,"ĠLib":12308,"ĠRight":12309,"Ġdiscontin":12310,"Ġconcerning":12311,"Ġparse":12312,"Scott":12313,"ĠThompson":12314,"Ġresid":12315,"lied":12316,"verage":12317,"Ġenvironments":12318,"refecture":12319,"Ġpreserved":12320,"Ġrenormal":12321,"Ġrecovery":12322,"Ġshooting":12323,"assador":12324,"Ġbelonging":12325,"scious":12326,"Ġdelete":12327,"Ġaugment":12328,"ĠAdvent":12329,"Ġshares":12330,"ĠDeep":12331,"ĠChang":12332,"jection":12333,"Ġdwar":12334,"Ġpole":12335,"ĠOttoman":12336,"Ġreception":12337,"esis":12338,"102":12339,"Ġsinging":12340,"ĠSeattle":12341,"Ġvort":12342,"aders":12343,"clidean":12344,"ipher":12345,"ĠVideo":12346,"Ġvalidation":12347,"rint":12348,"Ġwants":12349,"âĢĿ.":12350,"rose":12351,"Ġhun":12352,"ĠQCD":12353,"Ġcolonial":12354,"ju":12355,"Ġneutron":12356,"oba":12357,"ĠDance":12358,"ĠEU":12359,"Ġdies":12360,"Ġgenerators":12361,"respect":12362,"none":12363,"Ġrender":12364,"Ġdistinguished":12365,"Ġseventh":12366,"Ġexit":12367,"ĠNeb":12368,"Ġapplicable":12369,"Ġbinding":12370,"Ġrestored":12371,"ĠPalace":12372,"Ġvalley":12373,"August":12374,"ĠBush":12375,"Ġattorney":12376,"click":12377,"protobuf":12378,"ĠNOT":12379,"escope":12380,"ĠBull":12381,"tensor":12382,"Ġgather":12383,"Ġmechanical":12384,"ĠVienna":12385,"ĠMission":12386,"ĠRailroad":12387,"ĠKnight":12388,"Ġwish":12389,"ondition":12390,"ĠShah":12391,"Ġbars":12392,"anion":12393,"ĠCNN":12394,"Ġgrows":12395,"Ġcaught":12396,"ĠTs":12397,"Ġmilit":12398,"Ġadmitted":12399,"ĠWorks":12400,"isode":12401,"Ġham":12402,"aste":12403,"Ġdescend":12404,"ĠBruce":12405,"Application":12406,"ounced":12407,"uality":12408,"ĠSyn":12409,"ĠJosÃ©":12410,"toString":12411,"ĠKon":12412,"nia":12413,"mingham":12414,">.":12415,"Ġentering":12416,"Ãª":12417,"Ġdecreasing":12418,"Ġobst":12419,"ĠKings":12420,"Ġlogarithm":12421,"ĠĠĠĠĠĠĠĠĠĠĠĠĠĠĠĠĠĠĠĠĠĠĠĠ":12422,"Ġcourts":12423,"ĠBetween":12424,"stud":12425,"ĠFermi":12426,"AGE":12427,"ĠFal":12428,"fol":12429,"ĠMaur":12430,"ĠMorgan":12431,"ĠAT":12432,"Ġna":12433,"EXT":12434,"independent":12435,"Ġcolspan":12436,"prison":12437,"PM":12438,"Ġretained":12439,"player":12440,"Ġseparately":12441,"leqslant":12442,"Ġnortheast":12443,"ERROR":12444,"rend":12445,"Ġaccord":12446,"iverpool":12447,"frared":12448,"Ġrain":12449,"ĠMetropolitan":12450,"gow":12451,"amps":12452,"Ġangles":12453,"Ġconservative":12454,"Schema":12455,"ĠBoys":12456,"Ġbreed":12457,"Ġsteam":12458,"ACT":12459,"1888":12460,"ĠAdams":12461,"Ġinvent":12462,"ĠTit":12463,"Ġtemporary":12464,"ĠKarl":12465,"Writer":12466,"inemat":12467,"Ġspherical":12468,"Ġplatforms":12469,"Ġhelps":12470,"ĠAlfred":12471,"Ġpod":12472,"Ġnotably":12473,"isons":12474,"docs":12475,"comes":12476,"Ġgreatly":12477,"]]":12478,"Ġdebate":12479,"|_{\\":12480,"Ġprohib":12481,"front":12482,"ĠPittsburgh":12483,"Ġlogic":12484,"Ġchallenging":12485,"ĠYang":12486,"some":12487,"Ġdict":12488,"ĠError":12489,"Ġcricketers":12490,"ĠHind":12491,"Ġsynd":12492,"Ġjuris":12493,"Ġknew":12494,"ĠCS":12495,"kar":12496,"uid":12497,"ĠPublishing":12498,"Ġwa":12499,"Ġinline":12500,"ulner":12501,"Ġtrunc":12502,"uary":12503,"Ġanniversary":12504,"Ġphone":12505,";\\;":12506,"Ġwarn":12507,"Invalid":12508,"Ð¼":12509,"insula":12510,"Ġprinciples":12511,"})=\\":12512,"cycle":12513,"Ġabuse":12514,"ĠRussell":12515,"ĪĴ":12516,"ĠKelly":12517,"Ġgeneralization":12518,"Ġempirical":12519,"Furthermore":12520,"imir":12521,"Ġmit":12522,"illo":12523,"iche":12524,"ername":12525,"ĠMargaret":12526,"ĠHampshire":12527,"Classes":12528,"Ġcontroller":12529,"Ġsuit":12530,"Summary":12531,"aset":12532,"osed":12533,"Ġsud":12534,"Ġimplicit":12535,"Ġsight":12536,"Ġconformal":12537,"ĠCarlo":12538,")}$,":12539,"uchy":12540,"ĠPun":12541,"Ġmarine":12542,"(*":12543,"Ġcounts":12544,"Parent":12545,"Ġagencies":12546,"Ġownership":12547,"}\\;":12548,"Ġworst":12549,"Ġfranchise":12550,"ĠWright":12551,"Ġsurvived":12552,"ĠAy":12553,"leyball":12554,"bd":12555,"Ġtab":12556,"ĠChampion":12557,"three":12558,"roscopic":12559,"ativity":12560,"complex":12561,"Ġgenera":12562,"kw":12563,"oked":12564,"Ġeyes":12565,"screen":12566,"Ġ\\}":12567,"oggle":12568,"Ġbytes":12569,"Ġrecommended":12570,"ĠAgric":12571,"Ġteachers":12572,"Ġpeaks":12573,"lined":12574,"ranean":12575,"Ġrounds":12576,"Ġopportunities":12577,"Ġbid":12578,"kern":12579,"^*_":12580,"letion":12581,"orne":12582,"Upsilon":12583,"Political":12584,"Ma":12585,"ĠMagn":12586,"ĠRoger":12587,"ĠNi":12588,"Ġinstruct":12589,"Ġclustering":12590,"ĠRural":12591,"ĠCleveland":12592,"Helper":12593,"phan":12594,"ĠMountains":12595,"hal":12596,"icons":12597,"Ġtriangle":12598,"Also":12599,"ĠNelson":12600,"ĠDie":12601,"Ġsed":12602,"Ġconvenient":12603,"Ġrecept":12604,"Ġoffering":12605,"Tool":12606,"oped":12607,"ĠNar":12608,"virtual":12609,"Ġintent":12610,"CB":12611,"Ġconcepts":12612,"Ġrequested":12613,"Ġrecon":12614,"perimental":12615,"iop":12616,"etary":12617,"ocker":12618,"Ġanisot":12619,"Ġdivisions":12620,"GET":12621,"ĠMes":12622,"Ġpainters":12623,"analy":12624,"ogy":12625,"Ġsharp":12626,"Ġtank":12627,"shaped":12628,"hai":12629,"Ġlaser":12630,"Ġ})":12631,"Ġmarkets":12632,"agger":12633,"Ġcomposers":12634,"mel":12635,"ĠDean":12636,"Ġbits":12637,"Ġisomorphic":12638,"kens":12639,"ĠCrown":12640,"intro":12641,"ĠContin":12642,"ĠPath":12643,"bone":12644,"both":12645,"given":12646,"oro":12647,"\\}_{":12648,"Ġintegers":12649,"Ġimpossible":12650,"Ġvolt":12651,"Å¾":12652,"Place":12653,"Ġrestrictions":12654,"Ġmyth":12655,"Ġdesigner":12656,"ĠAlliance":12657,"ovo":12658,"Template":12659,"Ġdrawing":12660,"Ġrailroad":12661,"ĠLower":12662,"Ġcancel":12663,"ĠAustin":12664,"ĠEdd":12665,"Ġamounts":12666,"&$":12667,"ĠFight":12668,"Ġpublishing":12669,"ĠEconomic":12670,"Ġplotted":12671,"'=":12672,"ĠSac":12673,"nan":12674,"rolling":12675,"Ġteen":12676,"Ġconsideration":12677,"Ġmig":12678,"\">&":12679,"Ġfired":12680,"ĠWrest":12681,"ĠUlt":12682,"ĠBrothers":12683,"Ġreveals":12684,"ĠReform":12685,"ÅĦ":12686,"ĠChristopher":12687,"ipped":12688,"register":12689,"Imp":12690,"Ġcomplement":12691,"ĠVersion":12692,"Ġoutcome":12693,"ĠSE":12694,"Ġlandscape":12695,"profit":12696,"Ġsustain":12697,"ĠChem":12698,"Ġmine":12699,"ĠCampbell":12700,"oes":12701,"ĠEver":12702,"ĠUE":12703,"Ġdiverse":12704,"orton":12705,"Ġboys":12706,"ntz":12707,"\\|^":12708,"1865":12709,"Ġsumm":12710,"auto":12711,"hoen":12712,"ĠThough":12713,"ĠKennedy":12714,"rb":12715,"Ġsees":12716,"Ġsin":12717,"'],":12718,"Ġsituations":12719,"Ġheads":12720,"iline":12721,"Ġmeters":12722,"Ġfeas":12723,"Ġperforms":12724,"Miss":12725,"ugs":12726,"ĠMicrosoft":12727,"ĠUpper":12728,"ĠDefinition":12729,"viously":12730,"Ġlooks":12731,"ordinate":12732,"ĠAuthority":12733,"Ġlabeled":12734,"alph":12735,"Ġrunner":12736,"ĠMarie":12737,"360":12738,"Ġdamaged":12739,"Ġwithd":12740,"Ġfindings":12741,"ĠĠĠĠĠĠĠĠĠĠĠĠĠĠĠĠĠĠĠĠĠĠĠĠĠĠĠĠĠĠĠĠĠĠĠĠĠĠĠ":12742,"104":12743,"citealt":12744,"Ġplots":12745,"ĠBaltimore":12746,"ĠStewart":12747,"keys":12748,"$_{\\":12749,"vy":12750,"PRE":12751,"erbai":12752,"Ġcustomers":12753,"arus":12754,"HM":12755,"umed":12756,"Tab":12757,"Ġcondens":12758,"Ġhydrogen":12759,"Ġsplitting":12760,"ĠTrade":12761,"Ġvoting":12762,"ĠNep":12763,"connect":12764,"Div":12765,"Ġselling":12766,"about":12767,"1887":12768,"Ġdog":12769,"ĠFel":12770,"ĠKan":12771,"eros":12772,"Stand":12773,"ITY":12774,"Ġestimator":12775,"Ġjudges":12776,"Media":12777,"poly":12778,"_{[":12779,"June":12780,"Ġcentered":12781,"Mag":12782,"Ġpulse":12783,"ĠGirls":12784,"Common":12785,"Ġunsigned":12786,"iah":12787,"ĠMaine":12788,"Ġtriple":12789,"ĉĉĉĊ":12790,"ĠVik":12791,"Reader":12792,"ocy":12793,"Ġknock":12794,"\\,,":12795,"Ġdirectory":12796,"olds":12797,"miral":12798,"publ":12799,"'d":12800,"ĠEdition":12801,"bishop":12802,"Ġathletes":12803,"Ġconverges":12804,"/>":12805,"ĠCurrent":12806,"ĠBGCOLOR":12807,"\\[\\":12808,"wright":12809,"ĠOpera":12810,"bow":12811,"textsf":12812,"Ġstreets":12813,"ĠFive":12814,"GG":12815,"ĠCA":12816,"Ġracial":12817,"Ġwhenever":12818,"ĠTask":12819,"ĠTam":12820,"Short":12821,"Ġprosec":12822,"Ġresign":12823,"Ġamplitudes":12824,"Ġlit":12825,"ĠNic":12826,"ĠMarkov":12827,"Ġsleep":12828,"Ġbyte":12829,"triangle":12830,"Ġprobabilities":12831,"vertex":12832,"ECK":12833,"upper":12834,"DI":12835,"Ġapi":12836,"Ġcorrespondence":12837,"ursor":12838,"Ġgeodes":12839,"Ġdeputy":12840,"XT":12841,"URE":12842,"nolimits":12843,"Ġpitch":12844,"ĠRiemann":12845,"ĠKu":12846,"Ġtopics":12847,"Ġhardware":12848,"Rest":12849,"}~\\":12850,"oka":12851,"plugin":12852,"ĠVolume":12853,"Ġnorthwest":12854,"iated":12855,"ĠHit":12856,"ilk":12857,"ĠFull":12858,"Ġrooms":12859,"fixed":12860,"Ġatmosphere":12861,"para":12862,"ĠBrooklyn":12863,"rf":12864,"Err":12865,"Ñĭ":12866,"ategy":12867,"perature":12868,"Ġfemin":12869,"Ġneglig":12870,"ĠMarshall":12871,"Ġmal":12872,"boolean":12873,"learning":12874,"Ġreverse":12875,"ĠKl":12876,"[$":12877,"ĠBed":12878,"Ã¨re":12879,"Spe":12880,"Byte":12881,"ĠLeban":12882,"'$.":12883,"ĠFood":12884,"ĠGray":12885,"Ġmeets":12886,"Ġdiscrimin":12887,"sea":12888,"Ġappeal":12889,"dashed":12890,"Graph":12891,"ensively":12892,"herence":12893,"'))":12894,"Ġpreferred":12895,"Recall":12896,"Handle":12897,"Ġdifficulty":12898,"ĠCarn":12899,"108":12900,"may":12901,"evens":12902,"ĠNeg":12903,"Ġmanufacturing":12904,"Ġhelping":12905,"ĠBlock":12906,".}\\":12907,"terior":12908,"Args":12909,"Ġresidential":12910,"lia":12911,"ivated":12912,"ryst":12913,"home":12914,"ĠAN":12915,"away":12916,"yll":12917,"kt":12918,"ĠGulf":12919,"Cam":12920,"Ã©n":12921,"ĠPrior":12922,"nabled":12923,"ultan":12924,"harm":12925,"Ġkilomet":12926,"ĠTak":12927,"ĠArn":12928,"Ġcovariance":12929,"Afric":12930,"Ġcompetitive":12931,"notin":12932,"audi":12933,"ĠEmer":12934,"Ġ).":12935,"Ġcontradiction":12936,"Ġful":12937,"ĠGran":12938,"rov":12939,"comput":12940,"ÈĻ":12941,"olutions":12942,"leans":12943,"Ġcooling":12944,"vdots":12945,"ĠJu":12946,"Ġdissip":12947,"Ġphenomenon":12948,"Organ":12949,"vance":12950,"Ġgran":12951,"ĠDaily":12952,"Ġpopularity":12953,"important":12954,"Ġtriang":12955,"ĠComics":12956,"Ġnaval":12957,"Ġexposure":12958,"ĠAmazon":12959,"}{*}{":12960,"Ġpointer":12961,"cluster":12962,"Ġbanks":12963,"ĠAS":12964,"ĠOblast":12965,"Because":12966,"ĠTol":12967,"stage":12968,"Ġpropagation":12969,"sym":12970,"Example":12971,"abi":12972,"uming":12973,"Ġimprison":12974,"onian":12975,"ĠSchools":12976,"Kn":12977,"Ġtied":12978,"Ben":12979,"Ġskin":12980,"Ġdefensive":12981,"Doc":12982,"below":12983,"ĠDirac":12984,"ĠHell":12985,"rupted":12986,"Ġgiant":12987,"Ġri":12988,"Ġmovements":12989,"Release":12990,"igm":12991,"Ġarise":12992,"umbent":12993,"ĠDNA":12994,"ĠMetro":12995,"Ġlayout":12996,"1886":12997,"Ġ['":12998,"Display":12999,"backs":13000,"ĠPatri":13001,"ĠYears":13002,"eva":13003,"ĠZe":13004,"Ġeliminated":13005,"irates":13006,"Ġinvert":13007,"ĠDakota":13008,"Device":13009,"Later":13010,"ĠSP":13011,"ders":13012,"iden":13013,"izers":13014,"Ġcompeting":13015,"Ġanyone":13016,"Ġexport":13017,"ĠUpon":13018,"Ġterminal":13019,"Ġexcited":13020,"ĠDallas":13021,"umar":13022,"four":13023,"simple":13024,".(\\":13025,"Ġvenues":13026,"Num":13027,"uity":13028,"ĠConvention":13029,"iday":13030,"ĠGlas":13031,"ĠTag":13032,"Ġcrown":13033,"}_{{\\":13034,"ails":13035,"CI":13036,"ĠSystems":13037,"uin":13038,"weak":13039,"Ġexcellent":13040,"Ġclients":13041,"Ġhill":13042,"bootstrap":13043,"Ġintrinsic":13044,"ĠFuture":13045,"making":13046,"eenth":13047,"iac":13048,"listed":13049,"Mart":13050,"Ġgang":13051,"Ġwat":13052,"ĠSarah":13053,"GO":13054,"ĠPerson":13055,"ĠSenator":13056,"inae":13057,"1864":13058,"Ġprisoners":13059,"Ġdream":13060,"ĠProcess":13061,"Member":13062,"pping":13063,"ĠMurray":13064,"aptist":13065,"ĠPoly":13066,"inners":13067,"ĠMorris":13068,"valued":13069,"application":13070,"iere":13071,"1884":13072,"Ġwavelength":13073,"Ġstood":13074,"Pool":13075,"Ġcav":13076,"ĠCentury":13077,"Match":13078,"Ġfear":13079,"ĠOk":13080,"$}}":13081,"iterranean":13082,"ĠJe":13083,"Ġbary":13084,"July":13085,"orb":13086,"ĠPhot":13087,"Tests":13088,"Ġordering":13089,"above":13090,"Ġfaces":13091,"ĠCel":13092,"ĠVenezuel":13093,"ĠCapital":13094,"ĠIO":13095,"Root":13096,"hskip":13097,"Ġwheel":13098,"Ġpixels":13099,"Addition":13100,"Ġaccessible":13101,"elines":13102,"Api":13103,"Ġmarginal":13104,"Channel":13105,"kee":13106,"ĠPA":13107,"Ġoverlap":13108,"ĠHend":13109,"ĠColonel":13110,"ducer":13111,"maker":13112,"Ġtheater":13113,"Ġbases":13114,"Menu":13115,"Security":13116,"ĠPoisson":13117,"Assert":13118,"Ġsteady":13119,"jk":13120,"Ġemergency":13121,"attribute":13122,"April":13123,"ĠDub":13124,"ORD":13125,"Ġstim":13126,"ĠHTML":13127,"story":13128,"1850":13129,"ouver":13130,"Ġpray":13131,"Ġrequests":13132,"Ġĉ":13133,"ĠIss":13134,"Ġextensions":13135,"Full":13136,"bolic":13137,"Ġconsumption":13138,"Ġduties":13139,"Ġprovision":13140,"Ġassignment":13141,"Prim":13142,"ĠRud":13143,"ĠSecret":13144,"deep":13145,"Ġglob":13146,"Ġdebuted":13147,"oviÄĩ":13148,"Ġrestaurant":13149,"Sn":13150,"103":13151,"charge":13152,"Active":13153,"George":13154,"Delete":13155,"Ġrent":13156,"overning":13157,"margin":13158,"Ġcriticized":13159,"omp":13160,"Ġvalign":13161,"asts":13162,"Ġrecurs":13163,"!!":13164,"ishments":13165,"Ġpot":13166,"Policy":13167,"Argument":13168,"ibraries":13169,"Ġeasier":13170,"ĠResults":13171,"Ġutility":13172,"ĠRan":13173,"Profess":13174,"onomous":13175,"Prior":13176,"ancel":13177,"ĠCit":13178,"itely":13179,"bounded":13180,"Ġvacc":13181,"Param":13182,"Ġcriticism":13183,"ĠOrleans":13184,"jamin":13185,"VP":13186,"Rule":13187,"oom":13188,"Ġpublicly":13189,"Ġactivist":13190,"fortunately":13191,"ĠNazi":13192,"Ġjournalists":13193,"Ġsuccessor":13194,"Ġprivacy":13195,"Ġnan":13196,"ĠRobinson":13197,"Meta":13198,"how":13199,"Ġprojective":13200,"ĠLiverpool":13201,"sql":13202,"Ġcollective":13203,"dz":13204,"Ġhundreds":13205,"ĠCarter":13206,"ĠCass":13207,"}}=\\":13208,"ĠPrincess":13209,"350":13210,"1861":13211,"pret":13212,"ĠIndex":13213,"|=":13214,"etition":13215,"ĠMovement":13216,"ĠKit":13217,">();":13218,"supp":13219,"Ġspacetime":13220,"Ġmouth":13221,"Ġreflection":13222,"ĠRain":13223,"ĠJudge":13224,"Ġalcoh":13225,"October":13226,"sequence":13227,"Ġorganisation":13228,"Ġbuy":13229,"ĠassertEquals":13230,"padding":13231,"Ġmm":13232,"ĠFather":13233,"oids":13234,"Ġregiment":13235,"Ġstyles":13236,"ĠEss":13237,"Ġcoherent":13238,"Rob":13239,"hook":13240,"\\/":13241,"Ġcone":13242,"Ġsteep":13243,"theory":13244,"ACE":13245,"Ġ++":13246,"Ġsnow":13247,"Ġwrites":13248,"135":13249,"ĠOrganization":13250,"Ġdecline":13251,"design":13252,"ORM":13253,"Through":13254,"Ġrivers":13255,"ĠOd":13256,"ĠLane":13257,"ĠMunicipality":13258,"Ġvanishes":13259,"Bytes":13260,"ĠAthletic":13261,"Ġfruit":13262,"Ġnations":13263,"marine":13264,"Ġaffine":13265,"ANT":13266,"Ġturning":13267,"Ġcollisions":13268,"Ġdating":13269,"`.":13270,"Ġrealistic":13271,"HR":13272,"ĠArena":13273,"}<":13274,"events":13275,"ĠMadrid":13276,"Ġassets":13277,"ĠPortland":13278,"Ġparticipation":13279,"usalem":13280,"ĠCrit":13281,"Ġgrass":13282,"?\"":13283,"Ġprovincial":13284,"Ber":13285,"Ġenhanced":13286,"entity":13287,"Sports":13288,"Ġheaded":13289,"ulum":13290,"ĠUniverse":13291,"Ġdiscret":13292,"apshot":13293,"Ġsoutheast":13294,"ĠGraham":13295,"Ġpoverty":13296,"ĠFr":13297,"Rect":13298,"ĠLanka":13299,"Pal":13300,"Ġanalogous":13301,".},":13302,"Ġcuts":13303,"Ġrepresentatives":13304,"ĠPut":13305,"into":13306,"Ġexpensive":13307,"Ġtrajectories":13308,"Robert":13309,"=-\\":13310,"Ġfusion":13311,"Ġgrey":13312,"ĠBible":13313,"WR":13314,"ĠConstant":13315,"Ġcredited":13316,"Ġsudden":13317,"ĠTrib":13318,"Ġhur":13319,"Ġstarred":13320,"dual":13321,"ĠNord":13322,"Ġmixture":13323,"Ġcomed":13324,"perturb":13325,"ounsel":13326,"Ġpresentation":13327,"107":13328,"osopher":13329,"ĠYan":13330,"ĠPradesh":13331,"Ġdecays":13332,"expl":13333,"mock":13334,"Ġparam":13335,"lab":13336,"ccc":13337,"rove":13338,"ducational":13339,"Ġseeing":13340,"Boolean":13341,"Ġlib":13342,"Ġreceiver":13343,"enberg":13344,"Ġprojected":13345,"1881":13346,"September":13347,"ĠTHE":13348,")=(":13349,"Ġmemorial":13350,"ĠBirmingham":13351,"ĠAthletics":13352,"ĠMaj":13353,"Ġveget":13354,"Ġfest":13355,"Ġevening":13356,"Ġiterations":13357,"ĠFIFA":13358,"Fore":13359,"ATH":13360,"Ġtransformed":13361,"athy":13362,"Ġchoosing":13363,"Feature":13364,"ĠWoman":13365,"\",\"":13366,"Ġimprovements":13367,"potential":13368,"Home":13369,"Ġsharing":13370,"Ġinstant":13371,"Ġmile":13372,"')$":13373,"Ġmo":13374,"'}\\":13375,"hill":13376,"rod":13377,"avalry":13378,"Observ":13379,"eton":13380,"bus":13381,"Ġos":13382,"Elect":13383,"ystem":13384,"Ġfails":13385,"riel":13386,"ĠEvans":13387,"Ġmolecules":13388,"Ġvast":13389,"Ġvessels":13390,"rez":13391,"Metadata":13392,"Ġacoustic":13393,"ĠNevertheless":13394,"ĠWebsite":13395,"coin":13396,"ĠNad":13397,"estim":13398,"Donald":13399,"Ġdivor":13400,"PORT":13401,"Ġvelocities":13402,"Ġsparse":13403,"speed":13404,"Mock":13405,"Ġ&$":13406,"Ġpreserve":13407,"Mass":13408,"Ġfinals":13409,"ĠSax":13410,"FP":13411,"otten":13412,"ĠURL":13413,"January":13414,"Ġlengths":13415,"Ġwounded":13416,"placement":13417,"SN":13418,"School":13419,"Ġharmonic":13420,"athered":13421,"ĠMak":13422,"export":13423,"Ġoffensive":13424,"eyer":13425,"ĠNation":13426,"sts":13427,"Ġhear":13428,"entric":13429,"ĠBud":13430,"ĠCov":13431,"Ġpainted":13432,"Ġslowly":13433,"Ġsouthwest":13434,"ĠFranklin":13435,"ials":13436,"ĠKur":13437,"Arm":13438,"Ġfocuses":13439,"depth":13440,"ĠLP":13441,"Ġgradually":13442,"Ġinflation":13443,"vskip":13444,"Ġrelief":13445,"1862":13446,"seq":13447,"ĠTrad":13448,"byte":13449,"Town":13450,"hus":13451,"ellectual":13452,"ĠSite":13453,"ĠBernard":13454,"izontal":13455,"Ret":13456,"}})$":13457,"Ġanimation":13458,"dependency":13459,"hyper":13460,"Show":13461,"Ġnormally":13462,"1882":13463,"ĠLud":13464,"half":13465,"lectic":13466,"Ġbon":13467,"Ġnormalization":13468,"Demographics":13469,"itime":13470,"lier":13471,"Acknowled":13472,"ĠHorn":13473,"enses":13474,"custom":13475,"1863":13476,"Ġcouples":13477,"annon":13478,"Ġpresc":13479,"ĠYouTube":13480,"ĠChart":13481,"Ġweekly":13482,"reprene":13483,"sun":13484,"Ġanalytical":13485,"League":13486,"Ġforests":13487,"ĠCathedral":13488,"Ġinterference":13489,"hentication":13490,"settings":13491,"Ġ(*":13492,"SION":13493,"Ġnewspapers":13494,"FFFF":13495,"Ġ{{":13496,"Ġswit":13497,"Ġdisjoint":13498,"ĠTournament":13499,"Ġpeaked":13500,"ntil":13501,"rock":13502,"pay":13503,"uble":13504,"Enabled":13505,"Ġcycles":13506,"Ġarrive":13507,"Ġlob":13508,"ĠStanley":13509,"Ġexponent":13510,"mate":13511,"ĠFriday":13512,"dp":13513,"Ġphon":13514,"Ġentanglement":13515,"Ġdecide":13516,"Ġcatalog":13517,"Ġheritage":13518,"inline":13519,"ĠCarib":13520,"ĠPi":13521,"opal":13522,"ĠConservative":13523,"Ġdiscipl":13524,"Ġhang":13525,"Ġadmits":13526,"auer":13527,"Ġcous":13528,"TF":13529,"Ġcrash":13530,"ÏĦ":13531,"ervised":13532,"ivan":13533,"Py":13534,"eoples":13535,"syn":13536,"town":13537,"exports":13538,"-->":13539,"Ġcorrectly":13540,"Ġunsuccess":13541,"fiction":13542,"Ġcraft":13543,"Ġongoing":13544,"Multi":13545,"Ġresolved":13546,"ĠFro":13547,"Ġhearing":13548,"analysis":13549,"Ġsynthetic":13550,"Windows":13551,"lington":13552,"Ġlimitations":13553,"Moths":13554,")|\\":13555,"Ġconsistency":13556,"primary":13557,"adoop":13558,"Ġbrig":13559,"ĠUser":13560,",.":13561,"Ġhabitat":13562,"Ġdefeating":13563,"Ġunstable":13564,"ĠAthe":13565,"Ġadmin":13566,"ĠBilly":13567,"Ġoutputs":13568,"tically":13569,"Ġfacts":13570,"ĠPictures":13571,"resize":13572,"Ġdetermines":13573,"Ġreleg":13574,"ĠBomb":13575,"Ġ$-$":13576,"ricane":13577,"Alumni":13578,"alis":13579,"Ġrecru":13580,"Ġconsole":13581,"volume":13582,"aze":13583,"ĠYorkshire":13584,"Ġwel":13585,"ĠGill":13586,"utr":13587,"Ġtransportation":13588,"Ġinvolve":13589,"Ġguarantee":13590,"ĠBeat":13591,"ĠMack":13592,"ĠBasketball":13593,"LI":13594,"KS":13595,"FAULT":13596,"tar":13597,"Ġvaries":13598,"Ġintroducing":13599,"Extension":13600,"ĠRico":13601,"ĠCarlos":13602,"Ġelem":13603,"ĠMong":13604,"lein":13605,"Ġresemb":13606,"ĠEsp":13607,"ijing":13608,"Debug":13609,"lift":13610,"Ġdil":13611,"Ġargue":13612,"Ġstruck":13613,"Ġmaintenance":13614,"mathbbm":13615,"1883":13616,"Ġinstability":13617,"hematic":13618,"ĠSmall":13619,"oming":13620,"Ġrose":13621,"Ġnavigation":13622,"ĠAqu":13623,"Ġclinical":13624,"Ġcelebrated":13625,"Ġcards":13626,"uez":13627,"ĠBaker":13628,"ĠLock":13629,"Ġpermission":13630,"Ġsending":13631,"gh":13632,"ĠVic":13633,"distribution":13634,"ĠTR":13635,"Real":13636,"Bi":13637,"Ġdenied":13638,"Ġfrequent":13639,"Ġtie":13640,"ĠHad":13641,"Ġgrown":13642,"Ġchildhood":13643,"ĠYugoslav":13644,"bib":13645,"}^+":13646,"pus":13647,"Ġgone":13648,"eto":13649,"constant":13650,"'',":13651,"{[":13652,"insert":13653,"ĠPay":13654,"claimed":13655,"Ġbusinessman":13656,"lyph":13657,"Ġlongest":13658,"alymp":13659,"Named":13660,"Ġtables":13661,"hattan":13662,"áº":13663,"Ġ<=":13664,"ĠBased":13665,"wrap":13666,"ÑĮ":13667,"Ġaims":13668,"Ġclar":13669,"106":13670,"=\"/":13671,"vanced":13672,"Ġprefix":13673,"ĠStage":13674,"Ġtrading":13675,"cam":13676,"igate":13677,"Parser":13678,"Ġcoastal":13679,"aba":13680,"phe":13681,"reement":13682,"Ġposted":13683,"shop":13684,"ughters":13685,"----------------------------------------------------------------":13686,"uclear":13687,"ĠJimmy":13688,"Ġsigning":13689,"Ġ$<":13690,"Univers":13691,"Just":13692,"Ġqualifying":13693,"hole":13694,"###":13695,"Jew":13696,"Ġrequiring":13697,"hammad":13698,"Ġintention":13699,"redit":13700,"Ġdress":13701,"ĠTrophy":13702,"ĠNBA":13703,"cb":13704,"ĠYe":13705,"BUG":13706,"~~~~~~~~":13707,"Ġcriterion":13708,"ĠLithuan":13709,"wang":13710,"Ġfault":13711,"inement":13712,"Ġnoting":13713,"oub":13714,"ĠLimited":13715,"Ġartistic":13716,"Ġgarden":13717,"BF":13718,"ĠRand":13719,"War":13720,"patch":13721,"!\"":13722,";/":13723,"ĠPack":13724,"urers":13725,"EEE":13726,"Ġauxiliary":13727,"uilt":13728,"Ġviolin":13729,"stery":13730,"Ġsubsets":13731,"ĠBurg":13732,"ĠGuy":13733,"Ġunlike":13734,"Ġprobe":13735,"Ġranging":13736,"ĠDefence":13737,"fare":13738,"ĠProm":13739,"Ġelectoral":13740,"Ġtrials":13741,"holm":13742,"Ġperturbations":13743,"thread":13744,"Ġdiversity":13745,"Character":13746,"Ġpoem":13747,"Ġsurrounded":13748,"emor":13749,"osph":13750,"Pe":13751,"cussion":13752,"âĢĿ,":13753,"Ġprocedures":13754,"gray":13755,"Storage":13756,"udson":13757,"ste":13758,"idad":13759,"ĠNigeria":13760,"otan":13761,"Ġsoil":13762,"Ġcolle":13763,"Bigl":13764,"ĠCopy":13765,"rapped":13766,"Ġoperational":13767,"Spanish":13768,"Ġguitarist":13769,"Ġmatters":13770,"Ġpassage":13771,"Engine":13772,"})_{":13773,"ĠPrefecture":13774,"generated":13775,"ulu":13776,"centerline":13777,"ĠFacebook":13778,"1878":13779,"ĠBroadway":13780,"Ġmonot":13781,"Ġlanding":13782,"ĠEinstein":13783,"ĠJason":13784,"Ġcircumstances":13785,"Ġprices":13786,"Ġdy":13787,"Ġrecre":13788,"Ġexposed":13789,"engine":13790,"Ġlifetime":13791,"European":13792,"Ġunity":13793,"Ġsuperior":13794,"Ġretail":13795,"Gs":13796,"Ġsurgery":13797,"Land":13798,"Ġapproval":13799,"UL":13800,"Ġcombining":13801,"ancouver":13802,"ĠJerusalem":13803,"Ġpian":13804,"Ġoverse":13805,"ipart":13806,"Fields":13807,"addr":13808,"eras":13809,"exception":13810,"Ġqueue":13811,"Ġinfluential":13812,"ĠWang":13813,"vc":13814,"ĠChallenge":13815,"Ġconfront":13816,"umul":13817,"ĠHispan":13818,"Ġsaved":13819,"Ġemployment":13820,"selected":13821,"Ġconjecture":13822,".[":13823,"Ġ$[\\":13824,"Ġinvalid":13825,"uits":13826,"ĠDelhi":13827,"hover":13828,"aron":13829,"Ġaffairs":13830,"Ġwithdraw":13831,"ĠPrim":13832,"ĠJSON":13833,"Ġlose":13834,"Gold":13835,"ĠApple":13836,"geon":13837,"recated":13838,"Ġtownship":13839,"'$,":13840,"ido":13841,"Bigr":13842,"Ġromantic":13843,"220":13844,"Ġequals":13845,"ĠAC":13846,"BH":13847,"|_":13848,"ĠProperty":13849,"riction":13850,"Ġentertainment":13851,"Ġcohom":13852,"shell":13853,"Ġchains":13854,"Ġillegal":13855,"Ġresolve":13856,"Ġcreates":13857,"Ġfee":13858,"Ġbrick":13859,"Descriptor":13860,"Ġpurely":13861,")}=":13862,"Ġmedieval":13863,"othy":13864,"Files":13865,"Single":13866,"good":13867,"ĠSoccer":13868,"ĠIndians":13869,"Ġinstrumental":13870,"Ġclimb":13871,"Ġexercise":13872,"displaymath":13873,"omon":13874,"Ġneur":13875,"_->":13876,"ĠSerbia":13877,"December":13878,"ĠNorman":13879,"pair":13880,"Ġcontinuing":13881,"pread":13882,"Ġoptional":13883,"Fin":13884,"Ġox":13885,"Ġmovies":13886,"ĠIvan":13887,"Nor":13888,"Ġboson":13889,"ĠGary":13890,"olia":13891,"ĠMother":13892,"Ġmeta":13893,"Ġcombinations":13894,"ĠSalv":13895,"Albums":13896,"ĠAzerbai":13897,"coll":13898,"substack":13899,"Ġsemantic":13900,"Ġimaging":13901,"Ġmagazines":13902,"Ġcomprehensive":13903,"estone":13904,"Ġsegmentation":13905,"Despite":13906,"Seg":13907,"Ġmachines":13908,"900":13909,"fix":13910,"month":13911,"ĠGlasgow":13912,"SSERT":13913,"Ġstayed":13914,"Ġimposed":13915,"Ġintegrals":13916,"widget":13917,"apsed":13918,"Ġcup":13919,"IME":13920,"ĠHum":13921,"ovich":13922,"Ġspecify":13923,"ĠStars":13924,"ĠTheater":13925,"Ġaddressed":13926,"ĠLGBT":13927,"ĠPolitical":13928,"ĠDJ":13929,"Sal":13930,"Air":13931,"Ġcommunications":13932,"Ġlatent":13933,"ĠHD":13934,"Ġdestination":13935,"Ġcommune":13936,"Recip":13937,"ĠTower":13938,"Ġshorter":13939,"usk":13940,"Ġthereby":13941,"Ġdevoted":13942,"Ġvariants":13943,"Ġpipeline":13944,"}&\\":13945,"ĠAld":13946,"ÃŁ":13947,"Ġnomination":13948,"ĠWing":13949,"Ġchrom":13950,"Ġshifted":13951,"Plan":13952,"Ġreceives":13953,"ĠCricket":13954,"1876":13955,"127":13956,"Ġmanage":13957,"oga":13958,")}_{\\":13959,"Hen":13960,"109":13961,"lew":13962,"ĠBelgian":13963,"Route":13964,"Ġmissions":13965,"Personnel":13966,";<":13967,"Ġelectrical":13968,"admin":13969,"ixel":13970,"akia":13971,"Overview":13972,"Ġwides":13973,"Ġbeautiful":13974,"tre":13975,"spi":13976,"manifold":13977,"graduate":13978,"ĠShip":13979,"ĠTob":13980,"children":13981,"lean":13982,"Ġrely":13983,"hoenix":13984,"Ġrevenue":13985,"Ġweakly":13986,"Ġwasn":13987,"ĠVI":13988,"ioned":13989,"encer":13990,"ĠBlues":13991,"ĠJazz":13992,"Station":13993,"Î½":13994,"Ġbear":13995,"footer":13996,"Ġ{{\\":13997,"ivia":13998,"ï¼":13999,"bounds":14000,"1875":14001,"Ġtexts":14002,"Ġbath":14003,"Ġthermod":14004,"Ġ'/":14005,"later":14006,"lag":14007,"Ġarrangement":14008,"Assume":14009,"blockList":14010,"Ġdaughters":14011,")))":14012,"Ġreflected":14013,"Ġdrugs":14014,"odec":14015,"Perm":14016,"equival":14017,"quir":14018,"ĠProtest":14019,"avel":14020,"November":14021,"Ġpredomin":14022,"Ġfewer":14023,"Ġenv":14024,"}))":14025,"factor":14026,"ĠOnline":14027,"iu":14028,"Ġexplains":14029,"Ġappointment":14030,"ĠBranch":14031,"ĠConfeder":14032,"Ġpreparation":14033,"clusively":14034,"Lock":14035,"Render":14036,"ĠAttorney":14037,"Ġurg":14038,"alaxy":14039,"operator":14040,"OO":14041,"Ġillustrate":14042,"ĠMatthew":14043,"Bs":14044,"ĠJohnny":14045,"ĠMilan":14046,"Ġisn":14047,"lee":14048,"items":14049,"ristol":14050,"Job":14051,"Ġquotient":14052,"ĠHero":14053,"Ġseeking":14054,"Ġaf":14055,"ĠNevada":14056,"Ġhospit":14057,"ĠAfghanistan":14058,"Ġacquisition":14059,"mund":14060,"Ġpatch":14061,"Ġapparently":14062,"Ġprovider":14063,"Ġeg":14064,"Ġmini":14065,"Ġfilmed":14066,"Ġdelivery":14067,"editor":14068,"lett":14069,"umann":14070,"Ġnonzero":14071,"Ġacceleration":14072,"Ġfulfill":14073,"ODO":14074,"ĠWind":14075,"ĠGun":14076,"ĠAppe":14077,"Ġcolleges":14078,"ermont":14079,"writers":14080,"consistent":14081,"ĠTigers":14082,"ĠFab":14083,"Ġelig":14084,"Ġhorror":14085,"$--":14086,"Ġcos":14087,"Mo":14088,"Ġobtaining":14089,"Ġplanets":14090,"Î¹":14091,"Ġchamber":14092,"Ġkingdom":14093,"fony":14094,"move":14095,"ifle":14096,"mill":14097,"Comparison":14098,"cient":14099,"oidal":14100,"fish":14101,"icking":14102,"Ġfictional":14103,"Ġcounties":14104,"itud":14105,"Tur":14106,"Ġanalyzed":14107,"ĠFalse":14108,"Ġmsg":14109,"Ġtens":14110,"ĠAssume":14111,"ĠCher":14112,"Ġsuspended":14113,"Ġmarketing":14114,"Cho":14115,"Ġreputation":14116,"ĠDocument":14117,"Ġfunctor":14118,"stad":14119,"Ġoblig":14120,"Ġconstrained":14121,"webkit":14122,"__(":14123,"Ġextending":14124,"Ġfamili":14125,"ĠExample":14126,"Ġreliable":14127,"Ġgenre":14128,"Ġoverl":14129,"bes":14130,"ĠTab":14131,"txt":14132,".),":14133,"aco":14134,"Ġalignment":14135,"ĠPierre":14136,"Ġdescript":14137,"pmb":14138,"Dan":14139,"Auth":14140,"formed":14141,"ĠDerby":14142,"Ġexplored":14143,"Ġexisted":14144,"ĠWrestling":14145,"ĠMitchell":14146,"ĠPos":14147,"Ġexploration":14148,"CN":14149,"Ġmeasuring":14150,"raska":14151,"ĠBachelor":14152,"ĠGuinea":14153,"Ġtechnologies":14154,"Custom":14155,"icht":14156,"Ġgenerates":14157,"Ġanomal":14158,"elfare":14159,"Xml":14160,"Ġannu":14161,"ĠPot":14162,"Ġprinted":14163,"Ġflowers":14164,"Medalists":14165,"Ġinvolvement":14166,"aura":14167,"]:":14168,"ĠTu":14169,"Ġruling":14170,"Ġsuperconduct":14171,"Ġelliptic":14172,"Ġfunded":14173,"components":14174,"Week":14175,"oria":14176,"Ġviolation":14177,"callback":14178,"Ġmarks":14179,"270":14180,"uter":14181,"irk":14182,"à¥":14183,"uka":14184,"Ġpoets":14185,"Ġgram":14186,"astery":14187,"ĠStein":14188,"Ġthinking":14189,"Michael":14190,"rh":14191,"UD":14192,"ailability":14193,"Ġrelaxation":14194,"ĠTrack":14195,"Ġinsurance":14196,"Ġgovernments":14197,"antine":14198,"Ġcreative":14199,"ĠRefer":14200,"Ġvisitors":14201,"ĠSF":14202,"Ġvessel":14203,"triang":14204,"ĠPra":14205,"Ġannounce":14206,"ICE":14207,"Matrix":14208,"Ġlinearly":14209,"ĠEgyptian":14210,"ĠSI":14211,"hour":14212,"agram":14213,"Ġ$$\\":14214,"Ġsubdiv":14215,"Ġaimed":14216,"ĠĠĠĠĠĠĠĠĠĠĠĠĠĠĠĠĠĠĠĠĠĠĠĠĠĠĠĠĠ":14217,"ĠMarket":14218,"Ġthousand":14219,"BN":14220,"ĠZone":14221,"ĠIce":14222,"ĠPil":14223,"jet":14224,"Ġattracted":14225,"andal":14226,"ĠInsp":14227,"jective":14228,"cz":14229,"Ġspoken":14230,"Ġupdates":14231,"Ġvisiting":14232,"Ġreleases":14233,"ĠElementary":14234,"solid":14235,"Ġdated":14236,"ĠTwitter":14237,"Ġconsequences":14238,"1867":14239,"ĠStudio":14240,"Ġterritories":14241,"email":14242,"ĠSaints":14243,"Ġ$\\|":14244,"standard":14245,"Ġteach":14246,"iko":14247,"ĠAlaska":14248,"Ġsmart":14249,"}^{(\\":14250,"................":14251,"ĠEuclidean":14252,"]^{":14253,"Ġunusual":14254,"Ġthemes":14255,"disabled":14256,"alactic":14257,"},{\\":14258,"Float":14259,"Ġpotentials":14260,"hum":14261,"UV":14262,"Ġpsy":14263,"charg":14264,"Ġlisten":14265,"ĠCharlie":14266,"Alex":14267,"Ġwider":14268,"Ġvoltage":14269,"CV":14270,"ĠLuther":14271,"impl":14272,"xygen":14273,"ĠRomanian":14274,"np":14275,"Ġwaiting":14276,"Ġneuro":14277,"Ġtends":14278,"SET":14279,"1879":14280,"Ġexcitation":14281,"ĠNova":14282,"ĠLorentz":14283,"Ġverb":14284,"Ġassass":14285,"Ġing":14286,"sharp":14287,"isy":14288,"Ġemail":14289,"ĠArg":14290,"Ġphotography":14291,"Ġpartly":14292,"trim":14293,"Ġspoke":14294,"Ġhistorians":14295,"similar":14296,"Ġexamine":14297,"Old":14298,"Ġranks":14299,"Ġsear":14300,"ĠKr":14301,"Ġcertainly":14302,"}\"":14303,"Ġfurn":14304,"direction":14305,"Ġsubsidi":14306,"Total":14307,"Ġevident":14308,"incre":14309,"ĠCultural":14310,"Ġfoss":14311,"asm":14312,"Ġsubmitted":14313,"ĠWarren":14314,"ĠFine":14315,"pert":14316,"Ġcorrelated":14317,"Ġcosmic":14318,"autore":14319,"works":14320,"Ġposit":14321,"DIR":14322,"Ġspending":14323,"Ġvulner":14324,"castle":14325,"ĠLook":14326,"Ġpersonality":14327,"Changed":14328,"Ġwhilst":14329,"cov":14330,"Ġdeclined":14331,"East":14332,"Ġautomatic":14333,"Ġencoded":14334,"Ġtracking":14335,"Ġdefence":14336,"Ġpregn":14337,"=\"\"":14338,"legate":14339,"Ġdeduce":14340,"Ġartificial":14341,"Ġcrimes":14342,"Distribution":14343,"Ġexpanding":14344,"opedia":14345,"ologically":14346,"ĠPeru":14347,"Ġsuicide":14348,"ROM":14349,"Ġshel":14350,"Ġmeetings":14351,"ilty":14352,"Ġloops":14353,"Ġphotographer":14354,"Ġbuilder":14355,"quote":14356,"lix":14357,"Ġcha":14358,"ĠEmb":14359,"acks":14360,"astrop":14361,"Ġenables":14362,"Due":14363,"/.":14364,"Similarly":14365,"ĠJama":14366,"ĠHawaii":14367,"Ġmonument":14368,"Lou":14369,"Ġremoval":14370,"Ġsoundtrack":14371,"ĠMathemat":14372,"ourt":14373,"Ã¶r":14374,"Ġsubstit":14375,"ĠElectric":14376,"ĠAlberta":14377,"dig":14378,"Ġresponses":14379,"ĠAndre":14380,"Ġwear":14381,"Ġinduces":14382,"consider":14383,"istically":14384,"hn":14385,"Ġtransmit":14386,"Ġmunicipalities":14387,"LM":14388,"best":14389,"iper":14390,"measure":14391,"ĠCaribbean":14392,"ĠMars":14393,"agar":14394,"Ġportrayed":14395,"TEST":14396,"ĠNicol":14397,"ums":14398,"Ġwidespread":14399,"ĠKos":14400,"ĠAssistant":14401,"Ġbehalf":14402,"FILE":14403,"1871":14404,"Ġremoving":14405,"coupl":14406,"iat":14407,"118":14408,"Ġentities":14409,"}}}$":14410,"Taxa":14411,"{%":14412,"ĠFisher":14413,"Ġinjuries":14414,"Ġmathematics":14415,"Ġ}$":14416,"Ġemerged":14417,"1877":14418,"Ġnumerically":14419,"arma":14420,"ĠCuba":14421,"Ġhist":14422,"}=(":14423,"inters":14424,"~(":14425,"ĠMichel":14426,"haus":14427,"sters":14428,"winning":14429,"ĠWayne":14430,"Ġelder":14431,"Ġfacing":14432,"leading":14433,"Ġcorporate":14434,"dynamic":14435,"ĠAccess":14436,"avior":14437,"Ġestablishing":14438,"Ġextensively":14439,"Ġcontroversy":14440,"Flora":14441,"Ġflags":14442,"beh":14443,"Ġty":14444,"ĠIan":14445,"Ġmissed":14446,"Ġformalism":14447,"boy":14448,"Ġchampionships":14449,"ĠAlexand":14450,"Ġbenchmark":14451,"=\"../../../":14452,"Ġsurviving":14453,"Obj":14454,"Ġbare":14455,"ĠSerge":14456,"Ġfishing":14457,"Queue":14458,"mates":14459,"ĠJosh":14460,"Ġproven":14461,"Ġsympt":14462,"Ġmedals":14463,"Ġapprec":14464,"Ġreact":14465,"Ġqueries":14466,"ĠParish":14467,"ĠEug":14468,"avan":14469,"ĠManhattan":14470,"compact":14471,"1868":14472,"ĠSyria":14473,"uart":14474,"supervised":14475,"`,":14476,"ĠBak":14477,"ĠGriff":14478,"amo":14479,"ĠAndy":14480,"loyd":14481,"Ġbutton":14482,"ĠDefault":14483,"Ġadvice":14484,"ĠHindu":14485,"Ġ}{\\":14486,"ĠTurner":14487,"Ġsensor":14488,"Ġdeployed":14489,"Ġimplements":14490,"Ġcref":14491,"Ġworker":14492,"Thomas":14493,"ĠLearning":14494,"Based":14495,"}{$":14496,"Ġsubstitute":14497,"Ġregulations":14498,"Ġmanifest":14499,"Ã¦":14500,"EV":14501,"mask":14502,"=(\\":14503,"ĠRacing":14504,"1872":14505,"Ġcancelled":14506,"ĠNO":14507,"ĠStorm":14508,"subfloat":14509,"ĠParker":14510,"ĠFinnish":14511,"Free":14512,"Ġblog":14513,"ĠConsequently":14514,"ĠRangers":14515,"Honours":14516,"eyl":14517,"oker":14518,")*":14519,"Sil":14520,"Ġsessions":14521,"different":14522,"nc":14523,"Ġgoverning":14524,"scar":14525,"âĢ¢":14526,"Ġwarning":14527,"}(-":14528,"lfloor":14529,"central":14530,"Conf":14531,"Inv":14532,
[...]
