#version: 0.2
Ġ t
i n
h e
Ġ a
Ġ Ġ
o n
r e
a t
e r
Ġt he
e n
Ġ s
o r
a l
i t
Ġ o
i s
a n
Ġ c
e s
a r
i on
Ġ w
e d
Ġ f
Ġ \
Ġo f
Ġ in
Ġ p
n d
Ġ b
l e
ĠĠ ĠĠ
i c
in g
Ġ $
r o
a s
Ġ d
Ġa nd
Ġ m
c t
Ġt o
e l
e t
i g
en t
o u
r a
i l
o m
s t
at ion
Ġt h
{ \
i m
Ġ re
a m
Ġ h
Ġ e
o l
o t
Ġ n
Ġ (
Ġ is
Ġ T
Ġ S
Ġ l
i d
c e
i v
Ġ C
Ġf or
Ġ A
u t
c h
s e
_ {
Ġ g
u r
u l
o w
q u
l y
a b
Ġ on
e g
at h
Ġ$ \
u m
ĠĠ Ġ
it h
Ġ M
u s
v er
e m
a d
Ġth at
č Ċ
Ġ I
Ġs t
Ġb e
Ġc on
ĠĠĠĠ ĠĠĠĠ
o d
m ath
en d
i r
Ġa s
2 0
u n
i f
Ġw ith
Ġ B
Ġ P
t er
g e
t a
a y
v e
ct ion
ig h
p h
Ġa l
Ġ Ċ
Ġw e
t h
is t
} \
Ġ &
Ġ F
ĠT he
Ġ H
Ġp ro
Ġa n
} $
^ {
u re
â Ģ
Ġb y
r i
er s
Ġ R
Ġ L
an d
Ġ v
he r
o s
p e
e x
Ġ D
m a
1 9
igh t
it y
at e
Ġ W
u p
Ġe x
a c
re f
a p
re s
Ġw h
ro m
Ġ =
Ġ N
Ġc om
Ġa re
Ġa t
u b
Ġd e
it e
Ġ G
es t
o re
c al
Ġw as
in e
( \
ar t
} }
o p
Ġ E
Ġ it
p l
eg in
i al
i es
Ġf rom
b egin
Ġs e
ra c
es s
f t
o c
an t
il l
) $
iv e
Ġ or
_ {\
u d
e w
a g
ex t
n t
Ġ r
p t
al l
T he
e re
i z
m ent
or t
} {
ic h
Ġ he
Ġ J
l d
in t
as s
a k
e q
Ġ O
ic al
o g
f rac
p er
el l
ul t
Ġth is
r an
, \
b er
Ġs h
at ed
} )
it ion
ig n
Ġ -
c l
20 1
or m
p s
ou r
e ct
ĠĠĠĠ ĠĠĠ
d e
Ġcom p
Ġc h
r m
u nd
e qu
a ve
c ite
t ext
u e
Ġ y
r ight
p ro
' s
Ġ le
en s
ar d
f f
ar y
Ġn ot
ab el
math b
0 0
Ġc l
ĉ ĉ
am e
Ġre s
ation s
i an
} ,
d u
Ġ K
Ġ U
a re
Ġc an
Ġwh ich
l abel
$ ,
Ġ k
Ġ "
$ .
ĠI n
on g
i p
as t
a ce
u st
t he
Ġp l
Ġ us
Ġin t
et a
c on
math cal
Ġh ave
ab le
Ġw he
equ ation
a ge
l ow
i a
} .
c c
) ,
u g
o st
im e
a v
le ft
i re
as e
or d
} (
s o
t her
Ġ <
a ct
i b
ac k
or k
Ġ un
a in
en er
id e
f ig
p ort
} ^
an g
Ġa p
20 0
a ch
Ġ im
Ġ V
ion s
~ \
f ere
} _
Ġ {
en ce
) .
r ic
ou s
ĠS t
Ġm od
Ġh as
f orm
Ġ âĢ
o v
am b
= "
Ġa b
ph a
c om
in d
r u
al pha
d a
. .
- -
1 0
I n
c es
) \
Ġs u
Ġ +
er m
Ġa d
âĢ Ļ
ĠT h
e ar
l ine
) ;
Ġal so
Ġal l
o ver
ou nd
s um
Ġs p
ol d
r y
w o
ro w
ou ld
ou t
Ġon e
el y
Ġo b
Ġp art
amb da
Ġh is
er v
u se
o k
Ġ |
ri b
ta in
ic e
el ta
ow n
Ġ j
i e
Ġcon t
ent s
re e
at es
ir st
$ \
s p
ĠĠĠĠĠĠĠĠ ĠĠĠĠĠĠĠĠ
pe ct
an ce
p le
cl ud
im es
or s
Ġd is
am ma
is h
or y
Ġm e
_ \
Ġ qu
i k
ran s
mathb b
ĠC h
w e
i le
Ġ if
< /
ic s
1 8
o se
Ġa r
= \
ar k
un ction
om e
Ġp er
al ly
} _{
Ġ\ \
Ġt wo
m b
Ġs y
d ot
m u
ig ma
} ^{
Ġwe re
ul ar
res s
m er
s ub
eg a
o f
- \
o int
Ġe v
c ent
ar i
ra y
h o
t o
ut ion
ter n
Ġb ut
^ {\
at a
Ġs et
ra ph
ol low
f in
ur n
re d
e p
ph i
Ġ ro
Ġ }
Ġo ut
Ġf irst
/ /
i el
l ambda
r it
o b
h at
Ġw ill
ou nt
j ect
Ġit s
Ġthe ir
l l
c he
n e
c k
Ġn e
Ġ en
on e
Ġmod el
Ġo ther
p os
Ġf ollow
Ġd if
um ber
Ġ {\
s et
1 2
Ġ Y
iel d
mathb f
Ġo ver
v el
b f
Ġf unction
Ġ up
on d
Ġcl ass
Ġt ime
Ġd es
t e
Ġv al
il on
w id
ĠĠĠĠĠĠĠĠ ĠĠĠ
s c
Ġs ub
Ġwhe re
i x
ĠI t
Ġsu ch
ĠW e
ps ilon
Ġb et
Ġfor m
l es
Ġres ult
Ġm ore
od e
le ct
Ġcon s
p i
ra m
st em
al ign
c re
se ction
ĠĠĠĠ Ġ
y s
d ition
c ed
s igma
i ed
iz e
fere n
Ġd o
at ure
Ġ ver
Ġs im
Ġm an
ation al
k s
t il
Ġ *
und er
Ġd ist
Ġon ly
Ġre l
res ent
at ive
Ġa g
^{ -
n g
Ġs o
ar g
Ġe qu
Ġg ener
Ġc o
f ter
Ġcon st
Ġ( \
R e
Ġl o
le m
b eta
ug h
Ġw ork
ĠU n
ub l
on s
Ġn ew
p art
Ġthe re
ĠH e
v i
19 9
ot h
Ġbe en
Ġc or
math rm
} {\
ic t
et h
Ġthe n
Ġ [
at er
Ġre g
Ġt rans
a x
pe c
is s
s s
as ed
Ġp re
Ġin ter
Ġt ra
ar am
+ \
Ġt e
Ġpl ay
Ġo ur
ĠS e
* }
Ġh ad
Ġthe y
o x
u al
we en
Ġsh ow
if ic
b ar
ĠTh is
g amma
Ġy ou
Ġth an
ing s
il d
Ġp os
âĢ ĵ
in ce
Ġc ol
Ġa cc
Ġp h
ro up
Ġs up
s h
Ġwhe n
p r
at or
Ġint o
] {
Ġan y
Ġwh o
Ġ| |
p end
g h
^ \
a w
Ġbet ween
1 5
i ent
ak e
l o
le q
Ġ ra
t t
he d
y pe
W e
) }
r ho
d elta
ĠâĢ ĵ
at ing
Ġs ome
the ta
Ġe ach
il ity
" >
ru ct
p ut
$ -
ol og
Ġg iv
oc k
Ġs c
\ \
an s
Ġf in
fig ure
is e
ro und
ar ray
1 6
Ġsy stem
ta u
r al
c dot
Ġ her
he re
wid th
c ess
}$ .
Ġcom m
}$ ,
an n
d er
Ġd ata
r t
it s
} (\
a il
Ġ under
Ġm at
it ies
1 1
r ing
b ig
Ġ x
eq ref
S t
Ġpro b
Ġp ol
it em
Ġin clud
on t
Ġp oint
u es
ou gh
o ve
w ard
id ent
l and
er t
Ġthe se
ib le
ĠR e
Ġ i
ap p
fere nt
Ġus ed
Ġg o
le t
Ġy ear
ab l
t imes
Ġs ol
Ġk n
i o
ot e
ap t
it ed
Ġn o
n u
ic k
Ġe ff
ft y
Ġp e
Ġof f
in fty
ment s
Ġc ase
Ġw ould
Ġs m
Ġ est
s y
o ol
Ġl ine
1 7
Ġ use
t urn
1 3
ul l
m in
ay s
Ġpro v
op le
om ega
Ġn umber
o ot
ar row
ik e
ro ugh
con d
c y
part ial
til de
Ġab out
pt ion
al s
Ġa ct
ĠF or
Ġp r
ist s
Ġin v
Ġf e
us s
ubl ic
1 4
Ġap pro
Ġst ud
c ol
Ġdif ferent
Ġex t
y n
ur ing
aram et
l i
Ġpro du
Ġ '
T h
el f
qu ad
iz ed
| \
iv ers
p m
ar s
ĠD e
ow er
Ġv ari
ere d
eth od
Ġn on
a ir
is m
v ar
em ber
iz ation
e ver
Ġa fter
eq n
m m
Ġm ay
or n
E x
mer ic
e y
in s
pl ic
19 8
Ġin d
D elta
Ġus ing
ar ch
Ġex p
ore m
* *
âĢ Ŀ
c a
am ple
il y
g et
Ġas s
Ġs ign
ction s
Ġ X
ĠC om
Ġre p
Ġs ame
an ge
f or
Ġs he
ĠA l
ĠP ro
Ġc ur
Ġpart ic
o y
Ġf il
Ġ Q
Ġf ield
2 5
Ġgiv en
id er
Ġm ost
Ġre c
ct or
en g
Ġt erm
se c
Ġde fin
feren ces
Ġw ell
Ġb l
Ġ Z
Ġo per
ical ly
it t
Ġf l
sp ace
Ġs pec
n ing
ĠN ew
am p
Ġo p
p ar
ad e
)$ .
v al
Ġfollow ing
x i
Ġl in
g y
ou n
ot s
ar ge
Ġ .
t on
Ġd et
Ġde f
Ġin st
Ġ$ (
s im
ir c
} }\
Ġthe m
Ġd ire
\ ,
per t
Ġ ent
h i
Ġst ate
ran g
Ġb oth
} [
iv ely
cent er
r on
oc i
O m
s erv
re n
Ġf act
Ġ z
ow ever
Ġs ur
n er
is ion
Ġth rough
2 1
Ġg roup
= =
Ġa m
ut e
3 0
e psilon
or ld
u ch
) )
em ent
in ed
ri x
$ $
as es
Ġm in
Ġre turn
Om ega
ra ct
s q
Ġor der
our ce
ĠA s
Ġg et
Ġob tain
o ok
Ġb ound
res p
w here
Ġ end
} _{\
as ure
Ġh igh
Ġp aramet
he n
Ġs ing
ic es
as h
Ġper form
at t
ion al
Ġ ed
Ġ čĊ
e e
n ot
Ġb u
-- --
ĉĉ ĉĉ
Ġth ree
Ġresult s
Ġdis c
in clud
Ġc ent
Ġdes c
19 7
ver y
Ġm ethod
as on
eqn array
ps i
Ġe le
^ *
Ġt r
2 2
. ,
Ġpe ople
Ġse cond
Ġsm all
G amma
)$ ,
Ġb ack
er n
am es
Ġe m
y p
ch ool
ab ility
is hed
Ġse e
er r
Ġan al
meric an
Ġst r
at ic
ang le
o h
ent ial
m an
Ġeff ect
Ġ :
Ġre qu
sq rt
ul ation
ĠF ig
Ġval ue
Ġf ound
" ,
Re ferences
al ity
Ġc all
w ork
b all
5 0
re at
a id
w n
Ġde c
Ġag ain
v are
form ation
ar ly
in k
raph ics
Ġwh ile
ruct ure
vare psilon
ĠĠĠĠĠĠĠĠ ĠĠĠĠĠĠĠ
f ore
ric t
ĠL e
an y
mb ol
ĠâĢ ľ
b m
ca use
ro ss
ener gy
sub section
resp ond
Ġs er
in ing
text bf
m s
Ġa c
Ġat t
a h
iv er
Ġle ad
Ġm ass
f ra
}^ {\
i er
re l
Ġdist rib
et s
Ġme asure
Ġs erv
f ul
l ed
Ġ /
vel op
right arrow
a u
Ġcon dition
re nt
Ġres pect
( )
Ġ$ {\
^{ (
ĠS h
ag es
} =
ff ic
ivers ity
eg raphics
) =
includ egraphics
apt ion
2 4
Ġsp ace
or th
de f
Ġob serv
in al
ot t
ur al
y le
Ġlo cal
ra d
l og
Ġa ut
Ġ\ ,
ĠĠ Ċ
m e
00 0
F or
Ġrep resent
en cy
Ġe very
tern al
Ġh im
um n
- >
ro p
Ġb el
Ġas sum
rang le
i qu
w ay
19 6
c m
Ġne ed
c aption
he s
Ġprob lem
b old
Ġn ow
Ġp resent
f l
Ġch ar
an k
Ġpro cess
ri pt
et ric
im ens
a z
if e
Ġcor respond
Ġs ince
ĠA n
ou th
} ,\
2 3
f er
em ph
ire d
olog y
ĠI nd
Ġbe ing
s on
Ġl ike
t en
Ġman y
Ġm ult
Ġn ame
a j
Ġyear s
pos ition
at her
Ġl ong
var phi
v ed
b y
u c
Ġcomp le
ant s
Ġ u
t ab
et work
al e
Ġc ould
Ġd en
b e
are d
ĠC l
ur y
Ġl arge
Ġd uring
ge q
v ent
o le
ro du
Ġp ublic
.. .
pro of
. ~\
n on
Ġ ,
g or
um er
Ġc re
Ġgener al
feren ce
en e
Ġar t
Ġo pt
if ied
Ġ `
ĠC on
Ġ energy
Ġcont in
vi ew
& \
Th is
over line
Ġf am
Ġl im
Ġcons ider
Ġf ind
el s
Ġest im
r id
Ġs cal
Ġad d
Ġm ain
an e
m od
ch i
' '
Ġpos s
if t
C on
ol ution
ra w
Ġr ight
Ġm on
Ġj ust
ĠC ol
Ġst art
Ġdesc rib
ak ing
Ġin cre
c o
it ive
4 0
o id
in es
Ġex per
k e
iv al
ver t
ut ions
ce pt
. }
iv ed
ot her
n ame
Ġe lect
Ġver y
iss ion
gor ith
ch n
Ġm ade
Ġbe cause
i or
Ġ< /
ur ther
fra k
Ġra d
ens ure
Ġre le
Ġdo es
ou se
ve c
b ers
I t
Ġfe ature
Ġst ructure
v en
n ess
sy mbol
ĠS c
) ^
Ġev en
o od
t r
Ġc al
Ġs aid
s k
P ro
r um
Ġ ve
re ad
Ġ //
Ġde velop
ag n
ers on
p ly
eng th
i j
Ġwh at
[ \
Ġt ype
Ġb ased
vi ous
ĠA merican
Ġap pe
Ġbe fore
.. /
Ġab ove
Ġre al
}) .
b l
ter s
Ġm ed
at eg
m ed
Ġto p
B ig
h ip
Ġint eg
Ġc ount
Ġs at
g er
bold symbol
c er
Ã ©
Ġt est
Ġte am
Ġsh ould
Ġcon tain
math frak
Ġsup port
Ġf our
il ar
Ġval ues
Ġkn own
h line
orm al
Ġs pect
l im
as k
over n
20 19
ens ity
201 8
am pl
Ġ ident
: :
A s
} }$
E R
Ġchar act
ĠUn iversity
L et
L ambda
ld ots
C h
Ġle t
Ġor ig
Ġp res
u ally
Ġp op
Ġw rit
v es
Ġfollow s
Ġpro pert
l ess
Ġqu ant
Ġr un
iv es
os s
Ġh and
Ġcomp ut
n abl
Ġd i
Ġsh own
g ram
l angle
Ġh ow
Ġg u
ĠO n
ref ore
Ġv i
' ,
g an
de pend
2 7
x im
if y
c or
p re
er o
it ial
Ġdire ct
or ph
w h
Ġt em
2 8
2 6
us ic
ap er
r ation
ĠA r
Ġde pend
e c
Ġal low
ĠUn ited
Ġw ay
se e
ĠA d
Ġex pl
in a
Ġm ap
Ġst and
Ġ @
app a
Ġl oc
Ġm ov
nabl a
1 00
t ing
201 7
S T
ver s
Ġdefin ed
ĠI f
b ra
iv ing
Ġd ue
Ġth ose
le y
P hi
ro l
h t
Ġ >
Ġmodel s
Ġm em
Ġ el
om en
Ġn etwork
pl it
at ch
Ġex ample
y m
p on
ac es
Ġsing le
cite p
id es
c ul
Ġs um
Ġop en
e b
im al
f ace
ar n
Ġst at
201 6
C om
Ġle vel
Ġre st
Ġinclud ing
m l
Ġpartic ular
ess age
a f
oh n
at ors
k appa
Ġad dition
. "
Ġp ower
Ġl ast
o ber
ĠE x
Ġim port
Ġdes ign
Ġre m
ĠI s
is f
Ġ err
Ġd r
Ġbe com
} )$
sub set
Ġin formation
ar ri
g es
er y
pos ed
b ack
Ġse ction
oot ball
ĠH owever
201 5
ect ed
s f
Ġre ad
i ence
w ith
ĠE ng
in c
ere st
re m
ot imes
yn am
Ġm ake
ord ing
d iv
2 9
Ġob ject
Ġm y
4 5
ist ory
Ġle ft
. \
Ġcur rent
p or
Ġdistrib ution
Â ł
id ed
it al
201 4
re qu
\ |
at ely
Ġsim ilar
ĠS he
gorith m
un e
Ġex pect
text it
Ġkn ow
Ġy our
Ġd er
Ġre du
6 0
Ġre ma
Ġterm s
pl ay
b s
Ġl ater
ys is
ific ation
c irc
Ġdet erm
Ġl ist
Ġplay ers
ĠP l
Ġa v
ĠS p
ir d
rac k
Ġlin ks
is ed
ĠĠĠĠĠĠĠĠ Ġ
u le
201 0
Ġser ies
Ġagain st
Ġshow s
Ġwith in
og raph
is on
Ġl ow
201 3
n o
Ġhe l
Ġb as
19 5
ensure math
op er
en n
od y
le ction
e ction
Ġg l
Ġg ra
Ġc he
: //
cc ess
Ġal ong
ĠP h
Ġm uch
ĠM ar
Ġcall ed
D e
S igma
ĠB e
Ġd om
ĠThe n
c ur
mb ox
\ %
e ps
201 2
Ġpoint s
Ġpro f
3 3
et ic
dot s
Ġto t
ver al
A R
eta il
Ġo cc
Ġl arg
et ry
i od
d is
t able
d d
non umber
s m
Ġs ize
Ġdisc uss
Ġa round
b le
Ġhe re
201 1
\ [
ist ic
Ġcontin u
Ġbu ild
Ġp ar
r and
im ent
A T
m ult
ure s
Ġsat isf
a ction
}} {
Ġc a
Ġcharact er
Ġbe h
ord s
Ġd id
I N
}) ,
ĉĉ ĉ
col or
en se
Ġcomm un
n ew
ĠCom m
t rans
Ġn ear
Ġv is
T o
( "
ak es
) :
Ġd own
il de
th s
Ġt ri
ot ential
Ġp red
Ġm ax
ix ed
sp an
re g
Ġh ig
S S
Ġre ce
' t
um ent
ol l
d ay
Ġ _
com m
ĠM ay
s ide
Ġint rodu
Ġin itial
O N
Ġ )
Ġch o
st r
} ;
p ose
Ġst ill
c ap
Ġfil m
e ad
Ġm agn
O n
in ation
( );
Ġh old
3 5
Ġver s
Ġparamet ers
Ġstud y
Ġest abl
b um
i um
Ġin du
et y
Ġs elf
g round
Ġse qu
Ġte chn
Ġmat rix
u ro
Ġfin al
Ġo wn
p ed
C l
at ter
Ġcl os
Ġs l
p d
Ġfam ily
Ġre port
ĠA nd
/ \
Ġobtain ed
ar m
Ġ #
wid et
ĠC ount
ĠSt ates
Ex ternal
Ġse ason
Ġp ass
e k
Ġ- -
ĠL et
le ar
od es
depend ent
Ġst ates
m p
Ġass oci
Ġb ro
A l
Ġcomp on
w ide
Ġse veral
Ġ q
Ġd eg
Ġint erest
3 2
Ġpre vious
Ġd ensity
c it
Ġt ake
i i
Ġappro xim
Ġs chool
p oint
Ġ et
h or
op t
{ -
> </
widet ilde
b ox
che d
ĠA t
Ġex ist
Ġg raph
at rix
Ġm ust
iv ity
Ġposs ible
ĠB l
19 4
or ies
\ !
b it
ĠT e
ur b
s er
ĠJ ohn
Ġpos ition
Ġsol ution
Ġfunction s
ward s
Ġ` `
Ġstr ong
Ġpro gram
Ġg ame
Ġtot al
Ġb est
ĠN ational
av ing
Ġequ ation
Ġcom b
200 9
> <
v an
u x
Ġme an
ĠF ran
al th
ĠT o
Ġd em
center ing
aj or
i ous
ĠR es
ĠĠĠĠ ĠĠ
ial ly
0 5
P s
Ġexp ress
200 8
Ġwith out
im um
ag ue
Ġre f
" .
Ġp aper
Ġcont rib
Ġthe ory
ĠC an
Ġm ark
F ig
Ġc rit
Ġc ap
al k
ug g
ĠA ll
se qu
Ġver t
Ġgo od
Ġst re
am ent
Ġw orld
ĠJ ul
ĠâĢ Ķ
Ġcomple x
ĠThe orem
Ġb and
pr ime
} -
Ġm et
../ ../
Ġc ou
ĠC ar
r ist
Ġcorrespond ing
Ġp otential
Ġev ent
Ġare a
ĠW orld
a i
Ġconst ant
Ġt yp
Ġlim it
overn ment
0 8
---- ----
a im
ĠA ust
ĠW h
s up
\ ]
ru ction
V ert
) =\
ĠG e
Ġp at
st yle
ud e
ent ion
iqu e
sc ript
an u
w w
ma x
em ma
er ing
che s
ang u
is ter
Ġrespect ively
tab ular
ĠĠĠĠĠĠĠĠĠĠĠĠĠĠĠĠ ĠĠĠĠĠĠĠĠĠĠĠĠĠĠĠĠ
B y
th m
ur ch
it le
Ġa ver
7 5
in ess
9 0
} +
\ {
Ġl aw
ab les
ian s
I I
Ġn ext
tern ational
20 20
th is
Ġpred ict
Ġph ot
and om
Ġreg ion
end ed
it her
l er
Ġp ost
Ġhe ad
om orph
Ġpl ace
Ġal bum
Ġdescrib ed
Ġanal ysis
con t
t s
Ġp air
con st
ĠC ent
Ġper iod
an ces
l ation
d raw
z eta
Ġun til
ad d
ĠB y
Ġf ootball
ampl es
Ġpro of
ĠThe y
Ġparamet er
ĠE q
ĠO r
Ġan n
Ġl ife
Ġpro ject
i am
cl ass
Ġappro ach
ore d
ra p
it er
Ġor gan
a ut
Ġd imens
} =\
s l
Ġlo ok
id d
Ġcal cul
200 7
Ġch ild
Ġr ate
Ġw in
Ġar g
an c
cl us
) ^{
== ==
r is
s elf
arg et
0 1
Ġs pe
olog ical
) }\
R E
Ġe as
Ġperform ance
Ġsign ific
a ult
Ġstand ard
Ġimport ant
3 6
Ġ( $
Ġprodu ct
or g
Ġc are
a e
ĠY ork
ĠN ov
Ġph ase
Ġd etail
l ing
Ġf urther
) (
t ime
A n
} ]
ĠS chool
8 0
Ġr ange
Ġt imes
en ces
i ents
Ġan other
Ġm om
Ġa ff
Ġ& =
ur s
our ces
o ard
o ff
Ġind ic
{ (
Ġb re
R es
as ter
ĠW ar
ht ml
Ġb ir
3 4
3 1
a int
** **
em pt
Ġinv est
per ature
Ġth ough
il t
Ġline ar
Ġph ys
ord er
ir on
200 6
Ġfin ite
c ame
Ġ ide
am ed
Ġf ull
Ġm usic
s cal
Ġb ook
ĠB rit
Ġtr ue
t op
re en
Ġt urn
Ġvi ew
ĠCount y
Ġch ang
al se
at s
Ġpol it
h tt
ri es
Ġsystem s
et er
Ġbe came
s ource
ĠP r
Ġcomp let
Ġl ight
ĠA p
ex p
ĠA ug
Ġf ew
}_ \
. ~
Ġcont rol
f ield
$ )
id ual
9 9
}^ \
Ġcons id
3 7
Ġc our
ic le
ro ll
ip le
ĠS outh
I f
w ays
; \
Ġim pro
Ġh al
i us
ĠSe ction
lect ed
Ġsh ort
Ġf ree
Ġrec ord
Ġve ctor
3 8
are nt
Ġl ower
Ġre d
Ġr andom
Ġd at
wide hat
cdot s
Ġs k
Ġsu ccess
Ġs ong
Ġs ide
Ġm ot
~ ~
Ġa ction
Ġp erson
Ġsy mm
ĠO ct
pl ies
Ġv ol
A S
} |
Ġap plic
th ough
U n
Ġle ast
in o
us iness
Ġis s
Ġl ess
Ġd el
Ġcondition s
erm an
Ġal gorithm
lem ma
Ġh y
u ation
ĠM an
Ġpro t
pt ember
Ġde ath
Ġre se
pl oy
ra g
ĠP ol
Ġp ath
a pe
Ġim age
z e
}) \
c ode
ple ment
Ġdif f
as ing
Ġ* /
Ġhig her
ffic ient
Ġc ar
Ġoff ic
6 4
om an
t ype
ĠĠĠĠĠĠĠĠĠĠĠĠĠĠĠĠ ĠĠĠ
un g
Ġf ram
q quad
text width
st it
Ġd ynam
}} (
H e
Ġinclud e
Ġc ross
t d
r ite
Ġat ta
Ġs ay
ce ption
Ġsignific ant
pr il
in ally
ail able
ĠM arch
e f
Ġcon f
Ġe arly
Ġd iv
Ġh ref
Ġl ength
) ]
anu ary
on al
c os
Ġch ange
0 4
ĠThe re
st and
ge bra
Ġk e
iv en
Ġtra ining
| -
ob al
ĠP ar
ac ed
os p
Ġ\ {
ĠS y
iv ate
le v
u k
Ġf requ
ch ie
ĠS up
ri ption
^ +
c up
oc us
3 9
Ġg e
A C
m essage
al ax
Ġpos itive
ĠM in
ĠThe se
du ct
Ġcons ist
Ġs om
{ {\
wh ich
in ter
Ġconsid ered
Ġwe ight
Ġerr or
ĠY ou
ĠG u
end s
ĠJul y
ĠJ une
Ġinv ol
Ġth us
& =
Ġl ay
Ġsup er
Ġg row
Ġse par
( '
Ġfor mer
b b
m ber
Ġtem perature
us h
ĠAug ust
Ġc ases
Ġm ajor
A N
p ress
Ġmethod s
o pe
al t
n ce
l ish
ill ion
um an
Ġcon n
ist or
Ġd ay
ĠE uro
f oot
le ge
es c
Ġs it
ĠSe ptember
ĠC o
I d
Ġ$ (\
O R
A L
ent ly
Ġdef ine
in ary
h old
Ġc irc
Ġan g
Ġen g
Ġst ar
he ad
Ġin put
ĠC al
Ġs em
Ġin dependent
Ġv ar
ĠAust ral
Ġex ists
Ġc y
e v
Ġn ormal
r ary
Ġfeature s
I D
Ġbel ow
Ġh ome
Ġn eg
200 5
p ing
Ġpropert ies
r r
}\ ,
amp ions
ab ly
Ġprob ability
Ġaver age
}^{ (
ar ning
ĠU S
en c
ĠFig ure
n ow
ĠL emma
angu age
N ame
Ġconst ra
20 00
Ġh om
Ġcor re
Ġle g
Ps i
ot es
ĠOct ober
Ġin s
Ġorig inal
Ġcol l
ograph y
math sf
Ġassoci ated
ĠJ anuary
Ġf low
oper ator
pro p
0 7
Ġobserv ed
ĠA pril
Ġw ant
Ġl og
h am
0 6
Ġab s
Ġequ ival
Ġw id
b r
oc ial
Ġk ey
ul a
re p
im port
ĠN o
Ġz ero
ĠSt ate
ce mber
al es
, -
Ġre cent
ĠA rt
uss ian
ĠC ity
if f
g l
Ġ= >
Ġfact or
port s
}\ \
il it
Ġo ld
m ost
w ed
A r
ĠN orth
pd f
Ġrel ations
ut ed
Ġappe ar
Ġw on
Ġlin es
ĠS ince
âĢ ľ
4 8
at ural
Ġp ubl
ĠR eg
Ġs ource
Ġsequ ence
Ġe ither
l or
Ġquant um
Ġl and
Ġn ode
v iron
st er
cit et
sm all
Ġl oss
Ġav ailable
Ġcomp et
E N
Ġc over
ĠB ut
Ġre pl
} +\
Ġmom ent
Ġse en
ition s
0 9
u ck
Ġmem bers
Ġpro posed
Ġbet ter
Ġmult i
Ġl a
s in
is ing
ord in
Ġvers ion
. âĢĿ
ide o
Ġe p
Ġprov ide
Ġ& \
Ġplay ed
' )
Ġcou pl
0 2
Ġbeh av
ne y
Ġc ell
Ġc ity
s ing
ig en
ĠC or
ut es
w ise
Ġman ag
ap pro
A M
Ġvari ous
b ased
Ġcl ust
Ġb i
ul ations
Ġqu est
Ġc ost
de fin
Ġassum e
T ype
ugg est
200 4
ĠNov ember
Ġme ans
Ġspec ial
er tain
h space
Ġs che
Ġn umer
Ġcomp ar
Ġrele ased
Ġpro m
it or
Ġcomm on
ĠEuro pe
Ġele ment
Ġa chie
ak en
ĠP art
iv idual
ĠF eb
Ġbl ack
Ġpl an
il le
L E
w are
Ġf ixed
9 5
ch an
L ist
ur ation
Ġsur face
Ġg overnment
# #
Ġsim ple
S ee
ĠW ill
] $
b or
Ġoper ator
Ġv ia
on y
id ence
ul es
I C
w it
ĠDe cember
Ġen c
ian ce
b orn
Ġe mb
6 5
Ġg reat
ener al
v ing
Ġr at
St ring
n ode
Ġconst ruct
ann el
ater ial
Ġth ird
Ġst ep
equ iv
Ġpop ulation
Ġcomp os
Ġam ong
ru ary
Ġdist ance
} :
Ġg ive
ĠA fter
Ġev al
c le
ĠM e
Ġp ri
ut ure
Ġele ments
m at
Ġhel p
ma p
operator name
pl ied
ĠA f
Ġh owever
Ġp o
p aram
Ġw omen
D E
| ^
d om
_ _
ap an
Ġg alax
Ġsp in
}} {\
Ġexper iment
ra ft
ĠM ore
Ġof ten
' $
d imens
Ġacc ount
0 3
Ġanal y
g o
Ġcomp any
n eq
an a
Ġex act
4 4
/ >
Ġd on
um e
ĠA ss
ari ant
ot ed
em s
ĠM c
Ġs uggest
ad a
our n
read y
ĠR ep
ib ility
our s
g ed
Ġan t
on es
x space
o cal
ĠE d
ĠBrit ish
s ize
b ut
) -
il es
} -\
Ġcl aim
ĠO ne
Ġre t
o ch
S h
Ġf ocus
Ġde v
ĠCh rist
Ġbound ary
val ue
Ġreg ular
S E
Ġden ote
ra ction
r ont
Ġt arget
the orem
ĠH am
Ġf ive
Ġexpect ed
Ġscal e
ac he
I nt
ind ent
5 5
Ġdi ag
Ġt ext
S e
ver se
( {\
n a
m id
$ }
Ġlarg er
re am
umer ate
re st
Ġun it
Ġl abel
ĠS ch
Ġf und
Ġequ ations
ĠW ith
sc r
Ġar ch
ĠK ing
Ġ es
Ġev ents
ic y
Ġcor rel
Ġp ract
st ar
g roup
Ġatta ck
Ġb eg
con om
itt le
Ġl ik
Ġre fer
Ġro le
get her
Ġto gether
sk ip
Ġin fl
ĠM ed
k et
ĠLe ague
Ġmat ch
20 21
Ġgroup s
u ff
Ġpropert y
Ġh aving
ĠI I
oc ation
7 0
en umerate
ĠB ar
Ġh ard
ed d
re turn
op y
ĠH ar
ĠFeb ruary
f unction
le x
Ġs ample
Ġrequ ire
ic ol
Ġ- \
Ġbecom e
Ġth ink
ĠS o
ĠTh us
A p
ir t
C ol
us ed
Ġpr im
Ġal ways
a ul
" />
o oth
Ġind ividual
Ġwrit ten
Ġrel ated
] ,
u ild
ind ow
l in
Ġst ation
oun c
Ġcl ose
Ġ ill
I nd
Ġg round
on ic
Ġt re
200 3
Ġal ign
pon se
com p
] \
Ġle arning
Ġt itle
ab or
Ġh istory
ens or
Ġgiv es
ĠE n
Ġf ore
ĉ Ċ
el oc
Ġto o
Ġloc ated
Ġto ok
Ġd ou
ren ch
f o
il ities
Ġs ix
viron ment
ho od
Ġserv ice
) }{
Ġb egin
Ġdat as
ie f
d ag
s plit
Ġb usiness
V al
trans lation
item ize
Ġinvest ig
m ary
Ġg ames
n ote
i ps
Ġw ater
Ġj o
Ġn ull
Ġinclud ed
row n
Ġp ort
cre t
ĠW est
Ġm ight
Ġestabl ished
ĠĠĠĠĠĠĠĠ ĠĠĠĠĠ
A P
om ial
Ġal ready
Ġac ross
I T
ens ion
if orm
Ġt aken
itt ing
c ell
ĠW hen
g en
Ġf ac
Ġdom ain
Ġaut hor
Ġdeg ree
P l
op s
m ore
Ġfield s
Ġed ge
Ġm ember
âĢ Ķ
es e
d ata
Ġto wn
omorph ism
Ġim plies
iz ing
C O
dimens ional
ict ion
Ġa ge
Ġap ply
Ġf ar
ult s
Ġt w
Ġres p
m y
med i
ast ic
ĠD ist
plic it
Ġfil ms
Ġrese arch
s w
Ġbir ths
) }$
4 9
~ $
( -
et t
Ġcare er
Ġche ck
cal l
Ġhe ld
v space
Ġv eloc
re w
oc ument
f ill
scal e
cent ury
Ġim p
Ġdefin ition
Ġm etric
al y
Ġh ouse
Ġco e
i ber
Ġ\ |
Ġcontain s
Ġcon ver
Ġacc ess
Ġb ase
Ġf ail
math scr
Ġ !
Ġback ground
h ib
Ġab le
Ġwork s
Ġconstra int
um b
Ġhal f
no indent
Ġn amed
op l
itt ed
r im
lev ision
ed er
ĠEng lish
se mb
r ant
du c
Ġf ig
Ġthe refore
200 2
Ġim plement
Ġrece ived
ĠH is
e ople
B C
Ġhold s
ac hes
Ġp an
le ment
r ated
ĠA rm
Ġre view
ite ct
Ã ¡
Ġp ut
u ed
ra in
ond on
Ġf alse
I S
Ġpro ve
end ing
og n
Ġset s
\ ,\
c ast
ĠJ apan
k n
m ark
Ġbeg an
ad em
Ġaddition al
al le
Ġg en
Ġen ough
rac y
\ }$
Ġacc ording
Ġst yle
Ġa ir
Ġrequ ired
arri ed
b ur
4 7
8 5
Ġel se
Ġbu ilt
f ord
) +
Ġind ex
ĠA ir
Ġwh ose
Ġchild ren
l ike
m ar
}} _
ct ors
Ġal gebra
av es
Ġc ertain
Ġsol utions
200 1
Ġwe ak
Ġne cess
Ġre ason
d own
Ġeffect s
d s
c her
p ol
Ġcon c
ott om
Ġst ring
ul ated
av y
Ġc ut
Ġc ateg
6 7
ĠP ark
Ġs qu
ish ing
Ġcl ub
Ġst ars
Ġc ode
Ġpre c
Ġnot e
re ed
k ey
ĠQ u
Ġn atural
Ġ _{
Ġor d
Ġthe orem
av a
S ince
Ġpr ivate
Ġs ent
ĠS an
ic ro
ĠAf ric
ure d
ac y
h a
Ġc amp
Ġprov ided
Ġmagn etic
th at
Ġm en
ĠE l
Ġprodu ction
lo ad
ĠA g
e ff
P i
ight s
Ġcon fig
ĠP res
Ġcon text
A merican
Ġpresent ed
at ively
t ic
Ġne igh
Ġgener ated
ĠH igh
Ġme chan
Ġbuild ing
ĠA meric
Ġv ill
& &
er a
Ġcomp ared
Ġbas is
y l
Ġopt im
Ġb o
line ar
i res
ĠD av
Ġp ress
Ġeff ic
Ġpubl ished
B e
Ġne ver
Ġem ploy
Ġout put
Ġcompon ent
ar ies
m ing
ard s
Ġprof ess
a ff
L e
ounc il
Ġbl ock
g ence
Ġf uture
Ġm aterial
id ing
em ents
Ġs ite
Ġed uc
a ugh
A A
ce ed
ĠM on
ĠS im
Ġmult iple
st ate
Ġequ al
Ġeffect ive
Ġe ar
Ġcount ry
Ġrel ation
Ġspect rum
9 8
Ġim ages
Ġw ar
appro x
n orm
M od
ĠĠĠĠ Ċ
ro id
il ton
Ġclos ed
Ġspec ies
}} }
ĠP er
text rm
Ġtrans form
Ġn ational
d t
Ġh uman
Ġspec ific
Ġh ost
Ġin f
C C
ĠâĢ ĺ
W ith
Ġdevelop ment
Ġh app
ĠCol lege
ĠR o
m on
Ġdif ference
Ġfl u
Ġsign al
Ġrepresent ation
b ul
^ -
P h
Ġestim ate
, âĢĿ
Ġco ordin
Ġm aking
Ġcompon ents
Ġa rm
Ġcan not
ist ics
Ġy ield
Ġgo ing
im ents
ĠL ondon
ĠThe refore
Ġw ave
f act
Ġcomple te
Ġr ather
r ig
Ġplay er
y ing
Ġcent ral
f rom
6 6
Ġro und
Ġconst ruction
ĠCh ampions
{ $
ĠCh ar
Ġcommun ity
Ġc le
Ġal most
mult icol
Ġro t
Ġwhe ther
i et
r s
g s
a ctions
ing ton
g ress
9 7
Ġwe ek
Ġde p
Ġdire ction
{ }
E S
ol ic
um bers
ĠH ouse
Ġe igen
ot a
ĠD ep
N N
b ound
ĠC he
subset eq
multicol umn
under line
c ing
Ġev olution
ĠN e
n ers
Ġ= =
ap s
g n
rid ge
Ġk ill
ĠH er
Ġperform ed
Ġinst ead
Ġyou ng
ĠB ro
Ġ: =
The n
Ġ %
ust om
ĠG l
text tt
A d
ĠS er
A t
it ude
Ġg as
ĠF irst
Ġstr ateg
ear ch
Ġst ory
E D
ĠA m
min us
S c
Ġ id
ict ure
Ġtrans ition
Ġinst ance
Ġprodu ced
Ġup per
S p
Ġm iss
ĠA b
ta ge
Ġb ig
iz es
" )
Ġ& &
ew ork
Ġv ideo
yn omial
ĠWill iam
Ġn ov
o on
Ġm illion
Ġexpl ain
Ġmax imum
ĠF rom
Ġne ut
The re
< \
6 8
es tern
Ġd ays
C D
un ic
ĠG a
Ġreport ed
O b
Ġr ank
Ġ$\ {
Ġmat ter
}^{ -
Ġcontinu ous
Ġrest rict
st ring
Ġgl obal
it ing
Ġus er
ilit ary
Ġa way
and id
The ta
Ġs ens
Ġd one
) ,\
Ġm er
ĠCom p
Ġvari ables
Ġc lear
Ġveloc ity
ut il
nd er
st e
Ġ$ |
Ġann oun
am a
Ġunder stand
N ew
ĠF rench
ĠA ng
Ġp ur
Ġh or
Ġbro ad
ut h
Ġt rack
Ġcol umn
Ġt ry
un c
Ġintrodu ced
oun ter
F rom
Ġf ri
Ġw rite
ĠT able
l ist
opl us
Ġex ec
is c
P S
ĠL a
kn own
Ġup d
l ong
ic ult
big g
com e
C T
at ives
Ġs ocial
Ġadd ress
Ġcol or
Ġc ult
um p
Ġv oid
] [
, "
clus ion
re t
ar a
9 6
] .
Ġl iter
Ġsmall er
b and
Ġdimens ion
Ġn uc
idd le
ourn al
Ġcent ury
Ġb orn
Ġap plied
m it
âĢ ¦
Ġpr inc
in ated
n ormal
I M
d ist
ĠN ote
Ġlead ing
i ation
Ġt aking
t ra
pro d
Ġt reat
set minus
Ġrat io
} '
ĠS m
O S
ta ct
om b
Ġge om
Ġcre ated
4 6
r ast
_ +
7 7
Ġon ce
Ġbre ak
ĠIn ternational
Ġval id
Ġent ire
foot note
au ge
Ġl anguage
v is
k ing
199 9
Ġserv ed
led ge
8 8
Ġelect ron
Ġun ique
Ġequival ent
Ġb ody
Ġact iv
Ġdem on
ĠV al
ĠM ark
att le
Ġle arn
ĠPh il
Ġso ft
l s
dis play
Ġincre ase
Ġpri or
ne ction
if old
Ġbel ie
Ġprov ides
Ġdet ect
ar ily
Ġbecom es
h y
ĠM ich
}} _{
"> <
ari o
r ate
Ġocc ur
Ġchang es
Ġc ame
l a
min ist
Ġproblem s
Ġsc en
l ight
os en
ber t
^{ -\
Ġin equ
Ġfrequ ency
Ġcom e
A ll
ĠDist rict
Ġset t
om s
Ġ\ ;
t est
Ġde cre
C ont
k y
i ew
Ġphys ical
n b
Ġdirect ly
199 8
ell ing
ĠT ra
Ġad j
oci ety
ĠA ct
4 2
D ata
Ġ( $\
Ġcho ice
u ra
Ġwid th
oci ation
} /
) |
Ġs ays
L L
ul ly
ve y
Ġeval u
le g
Ġf it
}} ,
ran ch
if orn
u it
ber g
ĠC up
Ġl ittle
Ġg rad
ĠT r
Ġinfl u
f lo
Ġm akes
Ġs ources
Ġen vironment
N ote
Ġke ep
Ġdevelop ed
U S
Ġme et
one y
ta int
e ed
Ġother s
I R
ou d
Ġcent er
Ġeng ine
Ġno ise
Ġquest ion
S et
Ġse arch
ric es
Ġdist rict
Ġcont ent
ĠG erman
Ġstart ed
or ge
Ġfl ux
wed ge
Ġ$ [
ĠM od
ell ow
ĠTh at
cc ording
alle l
* {
Ġwork ing
Ġam ount
) {\
Ġrel ative
Ġincre asing
Ġpol ynomial
y ear
qu e
l n
ĠĠĠ Ċ
Ġsm ooth
dag ger
htt p
iforn ia
k en
Ġdetail s
Ġres ponse
Ġw ords
ic les
erv ice
Ġder iv
Ġstud ies
Ġl ate
Ġst atic
att ice
\ }
Ġ row
Ġpe ak
Ġhe nce
Ġ Ð
ru le
Ġn umbers
Ġp ast
Ġd est
ĠĠĠĠĠĠĠĠĠĠĠĠĠĠĠĠ ĠĠĠĠĠĠĠ
( $
Ġset ting
Ġch annel
Ġl ed
Ġoper ators
Ġpartic ip
\ '
Ġconn ected
Ġreg ions
ot ic
Ġdeterm ined
Ġte levision
Ġp ay
Ġcrit ical
G e
Ġsub ject
Ġun iform
Ġarch itect
le vel
Ġc apt
Ġbound ed
Ġs w
ĠM y
her n
comm and
E T
t ical
Ġindu st
re et
Ġbehav ior
Ġsu fficient
Ġad van
Ġdiff icult
in n
A B
land s
Ġpro p
Ġun cer
ĠInd ian
ww w
M S
d en
ir rep
4 3
o e
ly mp
Ġn orth
ĠAustral ia
Ġtrans fer
ly ing
Ġcomp act
ĠA c
us ion
Ġallow s
mod el
Ġro b
at ory
Ġhe alth
v olution
Ġc r
Ã ³
Ġobserv ations
Ġc andid
ans ion
line width
ab s
Ġmark et
ind ex
Ġt akes
Ġ Â
Ġinteg ral
Ġobject s
Ġinter action
ĠI nt
ch ange
Ġatt empt
Ġcorre ct
Ġserv ices
199 0
) {
ĠD r
bul let
Ġa x
sh ip
Ġre ally
p x
b ook
Ġ$ -
$ _
p en
oll ary
P R
Ġv an
Ġe conom
A nd
r c
Ġin fin
d i
Ġsub set
Ġm ention
Ġstud ents
ens ive
A D
o res
is es
per p
Ġvi ol
Ġit er
r up
ill s
b re
Ġt able
ĠD i
Ġcur ve
sh ift
. )
ign ed
o ph
ell ar
s el
il i
dition al
ĠRe c
enc ies
Ġd ied
p ath
art ment
Ġw ent
Ġdiag ram
Ġtyp es
-------- --------
Ġch all
use um
Ġcre ate
ri ate
F F
htt ps
u racy
5 7
ĠAmeric a
Ġpro ced
r atic
Ġp ack
Ġrec ogn
_ *
5 00
f ile
Ġill ust
ĠC ont
ĠPres ident
ĠCal ifornia
bs ite
it es
Ġcon duct
Ġclass ical
Ġs on
8 7
Ġt ask
Ġin c
Ġ( -
O T
g ing
en ed
Ġcour se
hi ps
ĠPro position
Ġgra v
Ġinclud es
e le
Ġadd ed
ĠRep ublic
v ille
Ġsymm etry
j ection
th ing
Ġk ind
lim its
Ġst age
A fter
oc ks
ic o
Ġdemon str
el ine
.. ..
Ġpat tern
Ġsh ift
Ġcomp an
im ate
i ers
iv il
ĠEng land
5 6
// //
Ġreg ard
ĠInd ia
id s
ac hed
4 1
Ġrequ est
Ã Ń
h an
and er
B l
c an
in os
ag ed
Ġgo al
t urb
Ġoffic ial
a el
Ġstud ied
Ġexpress ion
is k
Ġh istor
as hed
end er
)\ ,
Ġpop ular
ĠSt ud
Ġem ission
Q u
**** ****
Ġs outh
am s
Ġcon clud
at al
Ġ und
ire ct
Ġs ense
_{ (
us ing
p ng
ĠE ast
I G
he l
Ġresult ing
) /
col on
x y
Ġapproxim ation
_{ -
" );
ĠD iv
Ġex plicit
as c
all s
Ġ\ (
20 22
pec ially
Ġm ix
cre te
Ġvert ex
' _
Ġpolit ical
Ġimp act
Ġar r
eth ing
ĠHam ilton
8 6
Ġp erm
b ody
Ġ| \
Ġpart s
iv ial
Ġep is
}} (\
it z
ĠT rans
199 7
ĠH ol
Ġestabl ish
Ġdynam ics
Ġ ess
Ġvari able
Ġde al
Ġits elf
Ġh tt
sub figure
Ġg auge
Ġemb edd
S up
en ing
ĠD es
k ed
ĠB el
Ġgalax ies
ĠO b
Ġpartic le
| |
Ġsu ff
stit ute
ĠB er
Ġfor ce
Ġare as
E E
ĠH ere
Ġs ound
Ġpartic les
um ents
t ed
Ġag re
d et
ĠC our
ĠM or
ĠR iver
199 6
Ġs old
Ġvill age
Ġsche me
_{ {\
Ġf em
Ġdatas et
ĠR oy
Ġspe ed
Ġdiscuss ed
S P
Ġus es
Ġb ox
Ġrem ov
rop y
Ġf un
O ne
r d
ip al
Ġp ref
Ġmap s
Ġmov ed
N ot
,\ ,
Val ue
defin ition
ma in
Ġ ir
ĠR ed
Ã ¼
) }(
Ġf ront
ĠO ur
Ġt ree
ĠP al
ĠPart y
Ġrad io
ĠD em
Ġ }\
a res
g ra
Ġf lo
align ed
in ct
O M
ar ing
}$ -
Ġac cept
Ġf ather
Ġopt imal
Ġper turb
u el
Ġmod e
Ġstructure s
Ġlik ely
Ġsatisf ies
ĠC ouncil
5 8
Ġm ag
p c
Ð ¾
n s
Ġar bit
Ġsuccess ful
Ġform ula
f it
Ġuncer taint
r un
and s
Ġannoun ced
Ġm ove
Ġal tern
Ġal though
Ġlay er
Ġthe rm
Ġs amples
ĠEurope an
vers ion
ri an
ĠG o
Ġg ain
Ġder ived
Ġsim ply
ĠA nt
Ġap p
nb sp
Ġsim ulations
cur ity
ĠP aul
Ġexper iments
Ġch ain
Ġm id
W hen
c ial
Ġl ive
Ġneg ative
Ġresp ons
ffic ients
Ġspect ral
u z
i os
St ate
li er
Ġpol ar
p ite
d o
ag er
k a
og le
ĠM al
Ġinter pre
Ġredu ced
==== ====
Ġc os
F il
Ġcoupl ing
Ġin ternational
Ġro ad
Ġh yp
rodu ction
ĉĉĉĉ ĉĉĉĉ
Ġmed ia
l ength
= (
h and
Ġd ark
ĠSt e
Ġmeasure d
ut ive
ĠC ons
is ation
' \
il arly
W h
ran ge
Ġexp on
ĠWh ile
Ġg ot
p an
ĠP ort
ing u
Ġsh all
P T
t y
) ^{\
] ;
ou l
Ġst op
Ġnumer ical
Ġwho le
l ocation
a ign
Ġp arent
l ink
Ġn orm
ĠSy stem
ĠD o
ĠTh om
Ġstre ng
P eople
L A
er ve
Ġpol icy
Ġd ocument
Ġcont ract
Ġclass es
ste in
ĠH ence
Ġrema ins
9 4
ad ian
as ons
L iving
N ow
Ġse lected
Ġdou ble
r at
Ġam plit
Ġf ile
in i
y a
ĠSt reet
L O
Ġpan el
Ġsupport ed
ro te
od ing
Ġre ference
Ġch osen
rr or
ĠCent er
ĠG eneral
a it
Ġre ve
Ġch arge
ic a
Ġmoment um
) _{
Ġre ach
d eg
Ġf av
it te
Ġob ser
Ġn odes
Ġrad ius
ĠCan ada
ur l
Ġneed ed
ĠJ ames
Ġapplic ation
Ġvert ices
ous ly
F T
ĠP e
k er
at us
ay er
ĠĠĠĠĠĠĠĠ ĠĠ
Ġcontrib ution
Ġsp at
Ġad apt
ĠDav id
empt y
ib rary
Ġlead s
for all
Ġwh ite
Ġ+ \
T e
Ġmot ion
Ġs eg
9 3
ĠR ober
Ġinequ ality
el i
ĠN ot
ĠG roup
Ġnov el
Ġa ward
pend ix
Ġpart y
Ġus ually
7 8
S I
ra b
Ġcompar ison
Ġm ale
Ġfram ework
ag ing
Ð °
st ack
ĠQ ue
199 5
\! \!
ĠRe f
Ġcommun ic
Ġl atter
M C
ac ing
ric k
v ol
ĠA ward
ar p
Ġpres ence
ĠP at
ĠS en
Ġact ive
pt ions
ĠFran ce
Ġnecess ary
Ġex hib
ol s
9 2
bl ack
ĠCh urch
Cl ass
198 0
oun tain
p ers
ĠL ist
Ġmeasure ments
err or
Ġacc uracy
id a
Ġl attice
Ġlarg est
I s
sub subsection
Ġloc ation
Ġp ers
at ur
H ere
Ġpres ident
ĠL aw
Ġch arg
Ġup on
s pec
Ġide a
Ġw ord
text sc
Ġfig ure
: \
Ġcorrespond s
7 6
Ġmin im
Ġexp ansion
199 4
ac c
5 2
ĠB ay
un ity
Ġl ost
Ġde ep
Ġm ach
Ġto wards
C H
iz ations
ch o
ok e
Ġim medi
ir m
sequ ently
Ġl at
in y
wo od
Ġmin imum
ir it
ify ing
ort hern
Ġsom ething
Ġassum ption
ĠG erm
Ġcon cept
Ġde cl
Ġwork ed
Ġf ace
E n
Ġout side
an i
Ġg re
5 4
Ġpl ane
Ġs cre
Ġde com
H istory
Ġdec ay
Ġj ob
Ġy et
ĠCh ina
app ing
Ġclust er
Ġvol ume
Ġb ene
ve x
b a
ac ity
Ġon line
ĠR ich
f ect
Ġad opt
= -
lo cal
P r
Ġcoe fficients
Ġb ar
res hold
) ^{-
Ġinterest ing
ther n
iqu es
ĠS um
Ġext ended
Ġmechan ism
che ck
.~ (\
pm atrix
Ġhy per
ĠP o
Ġnetwork s
5 1
Ġcol lection
Ġad m
ĠO lymp
ĠBl ack
he st
Ġla un
ĠH all
ub e
Ġrele ase
Ġun its
sum mary
Ġele ction
Ġcho ose
Ġact ually
E q
urther more
S im
Ġqu al
Ð µ
Ġ Ã
ag o
Ġwh y
n el
ad es
Ġiss ue
Ġa ud
Ġd raw
D F
Ġcomp ute
Ġes pecially
ym pt
Ġd ual
Ġrele v
M an
ĠF il
Ġk m
sim eq
Ex ception
Ġdis play
Ġdesign ed
M L
ĠMore over
d r
us es
M A
c ases
Ġeas ily
Ġh ol
Ġn ight
is ions
Ġsim ulation
Ġex amples
Ġf raction
Ġknow ledge
U T
ĠGe orge
ra z
S C
s ol
Ġlevel s
st o
Ġqu ality
Ġth ings
m es
Ġst ri
Ġdeath s
ĠU K
Ġbel ong
Ġed ges
$ ).
}^ *
ĠF l
an ish
P E
$ (
g color
ĠM a
w ell
Ġwe bsite
^{ +
Ġdescrib e
ou thern
rem ark
Ġ( )
or ing
T r
N et
ĠArm y
res ents
Ġform ed
T ime
Ġcalcul ated
z ero
Ġconsist ent
Ġaut om
` `
Ġsim pl
" ;
Ġs low
ĠT V
ic on
Ġallow ed
st on
Ġs af
gorith ms
S U
Ġin side
Ġconstraint s
it ar
ann ing
ĠG reen
O ur
ar c
Ġform ation
d ro
Ġreturn ed
Ġsh ape
Ġad v
Ġfollow ed
Ġc ustom
5 3
Ġw rote
Ġinvol ved
ĠSt ring
Ġst ra
pert y
plic ation
Ġl ot
Ġe ver
8 9
i en
an ks
199 2
Ġsp aces
Ġcorrel ation
Ġexperiment al
Ġper cent
Ġorig in
Ġd ed
ĠAss ociation
b our
Ob ject
ess ion
b oard
S y
Ġcom es
Ġav oid
Ġgrow th
\ "
Ġprocess es
w rit
)\ \
~ $\
w ar
} )$.
Ġlong er
G u
ĠR oman
f low
Ġ rac
T est
Ġt ensor
T R
Ġlim ited
M ore
at form
Ġcons ists
Ġoper ation
ist ry
Ġs us
Ġm ilitary
Ġestim ated
Ġp ie
Ġsc atter
) }{\
Ġrun ning
ĠĠĠĠĠĠĠĠ ĠĠĠĠ
= {
}} ^
j s
Ġro ck
sequ ence
The orem
ash ington
F orm
Ġmon ths
Ġ/ **
Ġoper ations
Ġiss ues
Ġdeterm ine
Ġgra du
og ene
De f
el er
Ġb it
Ġlo ve
Ġpro per
Ġden otes
Ġh on
Ġtrans port
Ġarg ument
$ ^{-
ro s
ĠDep artment
P C
8 4
Ġqu as
o o
Ġscal ar
Ġ// /
199 3
Ġeff ort
Ġproced ure
I m
Ġthrough out
Ġover all
ric e
Ġneed s
Ġb gcolor
$ $\
cl es
V iew
he ight
h om
Ġde b
Ġsl ight
Ġapplic ations
Ġass ert
Ġ ensure
Ġsy mbol
} %
Ġeas y
Ġrepresent ed
5 9
Ġuse ful
n es
Ġdet ection
Ġar ray
in put
Ġthough t
Ġappe ars
Ġr ule
Ġt en
Fig ure
Ġpress ure
7 2
Ã ¶
Ġres olution
S O
Ġneigh bor
Ġfe el
H owever
Ġac qu
Ġ= \
ĠN ow
Ġbl ue
et imes
ree k
Ġcur ves
{ $\
ĠUn ion
e an
)$ -
omorph ic
Ġprevious ly
Ġstart ing
al d
Ġdistrib utions
p ublic
F irst
B ut
ĠM art
Ġv ict
ri ef
Ġang le
e al
Ġcateg ory
al ian
il ib
iver se
ĠE m
Ġfact ors
le ase
Ġeduc ation
Ġdire ctor
Ġf ully
ern el
Ġ&= &
m c
itte e
Ġcompan ies
ant ic
Ġdesc ription
Ġgener ally
s u
Ġd ra
ĠCour t
und le
Ġinv ariant
Ġcont rast
Ġt rac
Ġbeh ind
ri a
Ġident ity
Ġn ature
pl ace
con s
Ġnew s
col umn
Ġrequ ires
in f
Ġexper ience
Ġrep resents
val ues
Ġs il
Ġdepend s
hes is
ul s
Ġform s
as ks
9 1
Ġpolit ic
Ġd ig
Ġap point
in v
Ġexist ence
m atrix
Ġdec ision
d im
ĠL ou
M N
Ġcont roll
Ġexact ly
6 3
esc ription
Ġfor ward
E C
i ency
Ġa im
E qu
Ġprim ary
O r
ove red
ĠIn stitute
ro y
in ant
Ġad minist
Ġ ...
00 00
re es
Ġto day
Ġev idence
}) ;
ĠS ub
N o
ou ri
ĠNew s
el es
f e
rib ute
ollow ing
ĠM at
ĠM usic
Ġsol id
Ġconn ect
Ġf all
Ġspect ra
Ġsc ore
Ġus ers
f ree
Ġf ire
p ack
Ġdirect ed
ĠGerm any
Ġqu ite
Ġteam s
G et
Ġon es
map sto
Ġmem ory
k m
ĠRes earch
n eg
g ent
Ġjo ined
ĠS ur
P ol
ĠS w
g in
d x
Ġe mer
à ¤
Ġst eps
) );
ĠC O
ĠIn ter
ac her
O ver
ĠSc ience
U R
Ġincre ases
197 0
T rans
al g
b o
t ri
Ġp age
n y
Ġmod ern
Ġcon tact
pro position
\| _{
ir al
ĠB o
Ġm ole
k i
Ġw indow
p aramet
Ġear lier
ĠRoy al
Ġsymm etric
8 2
b in
c ase
Ġaut h
Ġess ential
Ġcomput ed
l t
eder al
Ġmat rices
Ġs ampl
in st
Ġprof ile
r as
ic ity
Ġcontinu ed
Ġrecent ly
Ġal gorithms
Ġstrateg y
y mm
ĠCl ass
Ġdepend ence
Ġex cept
ĠAustral ian
pon ent
ĠI m
Ġatt ention
ĠRo ad
Ġcamp aign
Ġcurrent ly
Ġintrodu ce
ĠE ar
Ġr ates
Ġhim self
g g
se y
ĠJ ack
on a
Ġ ~
ĠN or
Ġdef e
ĠS ing
e es
Ġst ellar
Ġacc om
Ġpair s
Th us
Ġmod es
Ġb all
199 1
Ġqu ad
Ġra il
Ġsignificant ly
Ġfram e
ĠGa ussian
ĠDiv ision
ent al
Ġor g
am ily
Ġ! =
}} ^{
Ġan sw
f il
Ġd rop
Ġprofess ional
Ġse lection
sel ves
Ġsing ular
Ġconst it
Ġcomplet ed
ines e
Ġc ore
Ġart icle
( ).
Ġcon nection
Ġopen ed
Ġplay ing
Ġoff ice
Ġrecord ed
semb ly
g raph
Ġt ax
ĠAr ch
n av
Ġrelev ant
ĠSc ott
ĠD uring
Ġde part
u ations
Ġm arried
Ġtra vel
Ġliter ature
L S
Ġve h
Ġext ension
Ġpro te
Ġpract ice
Ġass ist
ress ion
il ies
6 2
ot o
ad o
K ey
Ġse lect
ri um
ĠF e
F A
Ġarbit rary
ĠW ashington
Ġra ce
I ON
ĠRober t
Ġt ell
Ġexp and
Ġh ot
Ġm other
Ġfor ces
Ġagre ement
pro b
7 4
v a
T able
ĠL eg
Ġprodu ce
$ ;
Ġdis k
qu ot
li ament
Ġsqu are
i ences
Ġsong s
Ġm is
_ -
ark s
ĠC ap
Ġfe ed
8 3
ak er
S ub
is hes
ri z
Ġestim ates
it able
m i
ĠS pec
Ġf ast
Ġf ill
ĠM ary
( (
H z
ut ing
Ġm icro
Ġconc ern
m ission
Ġyield s
6 1
Ġ$ $
tr ue
b i
ol ar
Ġproduct s
Ġcos m
Ġt ro
wit ch
Ð ¸
od ot
Ġcons erv
com ple
Ġst able
ĠA lex
E rror
Ġra p
n et
Ġthe ore
Ġd ate
Ġspat ial
E M
if ier
Ġas ympt
"> </
Ġd augh
cor por
est ival
A G
ĠA ut
ĠS ome
7 3
\ _
anc ial
Ġm arg
Ġrema ining
7 9
ĠW il
Ġc ast
Ġr ules
F C
S o
Ġmain tain
Ġbro ther
Ġche m
ĠAc adem
Ġe ight
ĠD ay
Ġb oard
Ġg ave
Ġconfig uration
B S
Ġor b
Ġth reshold
new command
ind er
re me
Ġhe ight
Ġconver gence
Ġclass ification
ĠH ow
$ ~
ĠS am
Ġstra ight
Ġvari ety
mult i
Ġj ud
Ġappro aches
ask et
Ġim m
Ġb ul
ĠW ork
Ġanal og
Ġman ifold
ĠComp any
se ud
ens us
Ġhor iz
y e
Ġtrans l
ri e
Ġprop ag
' (
\ {\
Ġstat ement
Ġpl ot
Ġc ounter
Ġw ide
ĠH en
) _
Ġdist inct
ĠM ex
8 1
ĠS ociety
Ġpol y
ĠP ress
Ġd am
ĠR uss
ad ing
ĠHamilton ian
r ons
Ġmeasure ment
Ġtra in
p ace
' }
ĠO ff
Ġch urch
Ġmention ed
Ġerr ors
ĠS l
Ġapproxim ately
Ġant i
el t
ag s
ta g
6 9
Ġm oney
Ġbas ic
3 00
ĠDe f
ĠG old
Ġl iving
ĠO ther
Ġident ified
Ġhig hest
Ġrepl aced
ĠV ol
re c
Ġinter actions
. </
bur g
Ġqu ick
Ġappe ared
ĠV ir
y r
Ġde but
Ġright s
ap ter
Ġf ix
Ġsit uation
Ġb ur
f ont
i h
k in
Ġrun s
ma il
ĠG ra
us er
Ġl ack
| _{
ĠR ad
Ġrelations hip
ĠJ ust
Ġre const
Ġst e
Ġt er
Ġext ract
Ġsign ed
Ġassum ed
irt ual
. $
ament al
Ġcour t
now led
Ġs ex
ag raph
ĠM et
Y ou
o ice
ex ample
Ġperson al
Ġcharact ers
" :
ĠMich ael
en ch
m ann
ĠCl ub
z er
Ġin ternal
ab ilities
ro t
ĠB est
the n
Ġext ra
Ġc am
ĠF ound
Ġcon cent
n ov
Ġcol lect
Ġtechn iques
Ġmean ing
7 1
st ant
Ġw ind
Ġw ife
O D
) +\
Ġm orph
ĠDem oc
Ġindust ry
Ġse ems
al a
o i
Ġst ated
198 9
Ġcontrib utions
Ġconstruct ed
Ġappro p
Ġincre ased
ĠB ook
osp ital
Ġsur v
if ically
Ġse em
ĠC ong
et ime
Ġre pe
en a
Ġn om
ĠChampions hip
t ik
Ġcomput ation
Ġlist ed
c ong
../../ ../../
am ely
Ġobser ve
un t
() );
et her
Ġin j
oc ol
} }$.
m ma
ar ter
Ġcon sum
ail y
Ġwrit ing
display style
u i
Ġpol ice
Ġform al
idd en
N e
s pect
Ġn ames
Ġcomm and
Ġs ure
Ġauth ors
p icture
ĉĉĉĉ ĉ
Ġsh ip
Ġhigh ly
Ġcomplet ely
L P
ob ile
Ġf ood
ĠM ad
not her
Ġth row
over y
ĠJ er
vent ion
min ip
E nd
ĠIs land
ĠTe chn
} &
ĠWh ite
c is
p p
Ġin ner
se ct
Ġcomb ination
ĠT ex
Ġj oint
Ġve ctors
} )$,
Ġ ult
b on
Ġmon th
o z
Ġelect ric
minip age
pro du
os ing
I P
ĠR em
} }$,
Ġopt ical
Ġco ach
st ra
ib ly
it a
Ġm essage
ĠPro v
C S
Ġr ing
er ia
sc ill
T ext
pr int
iz er
Ġfri end
R eg
Ġt or
Ġ ?
ĠL and
ĠM ag
Ġexist ing
F L
Ġdiscuss ion
umn i
] (
Ġtreat ment
ilib rium
! --
t em
Ġgalax y
Ġreve al
ĠT ur
Ġf ight
un k
w ord
Ġdifferent ial
Ġp ure
ir l
ĠM iss
ĠM ac
Ġprov ed
air s
u a
ĠL ie
w in
Ġw alk
Ġm ar
Ġeffic ient
ĠY ear
n ext
Ġtrans formation
ĠM er
Ġsh are
Ġb al
ĠW hat
ĠAfric a
. _
) -\
Ġimpro ve
ĠG ames
Ġb ranch
ĠAl so
Ġinteg er
Ġreg ime
v ement
Ġcoordin ates
tik z
Ġcomp are
re y
ar ant
C o
ob ject
reed om
ough t
Ġor ient
Ġto ur
Ġsatisf y
ul ate
( ))
Ġocc up
Ġvis ual
Ġlead ers
ĠCent ral
om ic
Ġs aw
T H
Ġres on
{ {
O f
198 8
Ġsy n
ĠCan adian
Ġfl at
c i
Ġcontain ing
Ġinter val
ol f
c el
ĠG od
ar r
Ġlin k
ĠG reat
g ener
}{ (
Ġparticular ly
h bar
ĠThom as
Ġbir th
Ġnot ation
ĠT own
ĠB ur
an o
Ġ/ >
S M
ĠO ut
Ġabs or
Ġc ry
ĠAfric an
Ġh it
h al
Ġbook s
con fig
u ge
ĠT om
ĠS al
Ã ¤
Ġh ours
Ġt alk
Ġchall eng
c d
Ġv ac
Ġb ring
Ġpl aces
it i
F e
ell i
Ġscatter ing
res ult
Ġcal c
Ġschool s
IN G
Ġtechn ology
Ġcount ries
ok en
Ġshow ed
duc ation
Ġse curity
Ġrel atively
ma gn
Ġhe avy
id ents
196 0
Ġo scill
c s
ud es
Ġbe y
) )$
bl ock
ed y
Ġcontin ue
Ġredu ce
[ (
Ġp ick
Ġre ached
Ġv s
The se
) },
ĠF in
Ġgener ation
ĠSe cond
Ġ$ |\
ĠK e
ĠJ ew
Ġse ven
Ġindu ced
ist ical
Ġepis ode
Ġhyp ot
p age
Ġw or
Ġm us
ĠD an
Ġbey ond
}$ )
b t
a ur
Ġaff ect
ĠJapan ese
Ġh ous
R equ
O ut
Ġmiss ing
ĠKing dom
' ]
= #
r ish
u an
p at
Ġcell s
$ ),
is her
M M
Ġex am
Ġdef ault
Ġgener ate
Ġslight ly
ĠM useum
B A
ĠA ccording
pl ate
he mat
W hat
Ġb ottom
it ch
Ġstreng th
ict or
Ġmass es
}( {\
we ight
Ġb r
&= &
ĠR ob
Ġgre ater
G C
g t
Ð ½
ĠG rand
198 7
Ġun ivers
z a
Ġnot ed
ad er
Ġpro gress
Ġt im
Ġp en
Ġc red
od er
re al
ĠD on
b el
}{ |
Ġbe am
Ġb inary
Ġet c
Ġc op
ip p
ĠAl though
k l
w est
ing er
ĠSup er
Ġ ]
' );
ĠE qu
f ort
ĠR ussian
ott ed
in em
Ñ Ĥ
Ġe ast
ir ing
Ġother wise
ogene ous
ĠC ath
Ġcirc le
Ġbegin ning
sk i
Ġcom ing
Ġinst all
Ġsem i
ch ar
t ot
Ġide al
Mod el
Ġevent ually
S pec
it ely
ma ge
Ġ{ $
Ġg overn
Ġamplit ude
asket ball
: }
Ġobserv ation
rough t
Ġto ld
ĠCh inese
N A
sy stem
Ġmeasure s
i ra
ĠO f
+ +
Ġpar allel
Ġper fect
Ġabs ol
Ġdid n
B uild
ĠG al
ĠMin ister
r ong
ĠS un
Ġj ournal
act ive
big l
ĠChrist ian
=" +
Ġnuc le
Ġb ad
c ular
Ġso on
C P
Ġrepl ace
Ġr isk
l am
ĠD el
Ġor th
Ġequ ip
) }_{
Ġw est
f ess
s ur
Ġconclud e
[ '
Ġrel ig
flo or
rib ution
Ġb rief
Ġmin imal
ri al
Ġfin ally
ann ed
en ge
il s
,\ \
A dd
Ġsoft ware
Ġfam ilies
Ġcle arly
S er
Ġp hen
Ġv ary
Ġread ing
Ġth ick
I V
Ġv ocal
Ġact ivity
ĠW estern
art s
B ar
Ġstrong ly
ĠD is
pt y
ĠTex as
L B
Ġcomb ined
l ig
Int roduction
h ing
C E
az ine
Ġkill ed
Ġmanag ement
g rad
T V
198 6
Ġmagn itude
Ġalbum s
et urn
big r
' re
ĠK ore
ĠAcadem y
m as
ĠH ig
Ġpl aced
Ġan im
Ġacc ur
ĠSm ith
Ġpredict ion
ĠP et
it ors
aw a
ĠIs ra
Ġgraph s
Ġpl atform
Ġ er
ab il
N S
E ng
ĠM us
The refore
Ġtra ditional
G B
cur rent
Ġg ap
es h
ĠCar ol
ram e
E d
F ile
Ġinflu ence
Ġst aff
Ġtra de
j o
Ġchang ed
Ġcom ment
Ġsc ient
Ġax is
less sim
Ġde vi
Ġl um
Ġdaugh ter
ĠHe alth
] {\
Ġon to
m en
P I
ann els
Ġro om
Ġ ener
Ġbound s
Ġmod ule
Ġle ague
ag ement
ĠM ont
Ġca use
- $
ĠD en
Ġred shift
Ġcon vex
g a
ĠT or
Ġstat us
A ss
f aces
Ġdecom position
ĠF ore
Ġo dd
r ich
( ),
Ġc ard
Ġfour th
Ġexpress ed
g ies
Ġg rid
ro ad
Ġnear ly
ĠRec ords
Ġ$ {
or age
Ġs ports
Ġdev ice
Ġag ent
Ġun ion
cc cc
Ġimmedi ately
ole an
ĠC D
at re
Ġgrad ient
ar se
C ons
for ce
Ġb order
T E
c ref
ĠH istor
Ġst rict
Ġredu ction
ĠU nder
Ġt un
Ġdistrib uted
M R
198 4
Ġmach ine
Ġident ify
~~ ~~
) }}
Ġop port
Ġcalcul ations
Ġth ing
re ct
ĠZ eal
d ate
in u
ĠB ill
ĠH ill
ot ion
ĠF inally
Ġarchitect ure
Ġthem selves
198 5
qu are
m ass
Ġtyp ically
th let
Ġinst it
ĠIt alian
op ic
ter m
ĠLou is
Ġs plit
Ġelect ed
P er
Ġle mma
f s
Ġca used
Ġdetail ed
Ġhtt p
ĠP ublic
Ġpart ition
Ġfound ed
Ġtheore tical
f irst
g u
ĠT wo
ĠE ach
b u
st ream
Ġdep th
Ġh arm
m d
Ġcy cle
Ġtyp ical
Ġm ut
Ġ_ _
Ġbehav i
ĠL at
Ġs en
Ġas pect
mer cial
Ġcandid ate
Ġoptim ization
Ġtherm al
Ġflu ct
D A
press ion
h box
ĠZeal and
pro cess
ĠB rown
con n
Ġp aint
Ġachie ved
ab ase
ind ing
b ottom
om a
## ##
Ġres ol
Ġk ernel
ot ing
re land
on ical
C A
Ġm ind
Ġg old
mod ule
script style
ĠIn st
Ġmin utes
Ġfil ter
h as
Ġpl ant
Ġcontain ed
Ġdoes n
Ġt asks
Ġpart ial
Ġdo ing
in ations
A ut
Ġsc ience
Ġg reen
P ath
Ġinst rum
c ount
lo od
b ase
p a
and a
Ġindic ates
F R
s uch
Ġfund amental
] $.
if ferent
i ant
Ġmov ing
F inally
Ġex cit
pt on
Ġw oman
Ġgu itar
Ġpr int
^* $
Ġdif ferences
ol a
Ġfunction al
Ġseg ment
le te
ĠChar les
Ġlo op
ĠJ ose
Ġc ov
ĠS ta
Ġplay s
u fact
M e
Ġinfin ite
Ġtem por
Ġinterpre t
Ġfem ale
c r
Ġden oted
$ _{
H E
ar iance
ĠR ail
ĠVir gin
Ġg rant
Ġin de
\ }$.
Ġtra ined
Ġm iddle
Ġprob ably
Col or
ĠB en
Ġlook ing
ic ago
N R
Ġab ility
S he
Ġc ivil
ĠF lor
Ġs n
G L
: =
est s
c ore
rup t
In ter
Ġupd ate
Ġsub group
Ġsepar ate
ĠSum mer
c f
S ch
ill a
Ġscal es
ĠP eter
Ġsatisf ying
Ġw ays
Ġang ular
Ġapprop riate
om etric
Ġpres erv
Ġc ru
ĠM ass
Ġse ctions
Ġappoint ed
irc raft
Ġcalc ulation
S D
ell ed
ap ers
= '
Ġdis crete
av el
Ġlay ers
Ñ Ģ
, $
Ġcon vert
Ġ util
] }
Ġro ot
v oid
Ġa mb
rum p
Ġc ele
s ch
Ġhy dro
Ġuncertaint y
ĠAn n
a o
ĠF ootball
Ġorig inally
Ġposition s
et te
P P
Ġbuild ings
I L
i pl
Ġachie ve
Ġrot ation
k o
r ide
T D
Ġtra ject
Ġpro port
4 00
ĠIt s
Ġgo es
Ġcap ital
Ġgiv ing
ĠF urthermore
ĠC ur
al ysis
ĠS ervice
Ġsur round
ĠS aint
ic an
Ġdimens ions
c z
Ġf air
ĠS et
Ġin sp
,\ ,\
Ġcomput er
Ġ- ->
Ġh ole
Ġfin ished
ĠFran cis
Ġbelie ve
Ġexpon ential
.. .,
}} _{\
Ġconsider ing
Ġopt ions
it ation
Ġex ternal
Ġdec ided
Ġmin or
E vent
M ap
it ivity
m ethod
$ :
Ġp ow
ire ctor
ĠRich ard
wh ile
Ġ[ \
ĠM o
ed s
198 3
d y
ĠB re
Ġent ropy
U N
ist an
Ġa ctions
Ġcoe fficient
\ )
Ġas ked
| }
Ġsom etimes
Ġc arried
\ ;
Ġp ix
Ġcomplex ity
yp es
ĠU sing
ar ian
ĠM el
Ġ },
ĠO pen
Ġindic ate
] $,
Ġst ay
ĠComm ission
t frac
Ġgu arant
en ess
Ġclust ers
ĠIn c
fin ition
Ġmov ement
Ġle ave
AT E
ĠSt ar
Ġt it
1 000
at ically
Ġext rem
bl ue
h ost
i as
Ġ\ ]
Ġb rought
ĠR ock
) )\
O C
ĠSc ot
Com m
Ġun known
Ġart ists
velop ment
Ġmass ive
Ġb ank
Ġ ;
here nt
Ġco ol
Ġocc urs
Ġcompet ition
L og
Ġpur pose
ĠG overnment
' :
M P
A b
Ġquest ions
ĠPar is
or ial
ĠH istory
as tern
Ġst ations
ĠO ver
Ġstre am
Ġcar ry
Ġd u
Wh ile
le ctions
g r
Ġoff er
v ature
pos es
ĠĠĠĠĠĠĠĠĠĠĠĠĠĠĠĠ ĠĠĠĠĠĠĠĠĠĠĠ
v in
Ġphen omen
v art
Ġeffic iency
F ield
ell a
S ection
Ġre comm
an cy
ĠO ffic
Ġphys ics
Ġfootball ers
Ġc opy
Ġcult ure
Ġcoll abor
in ner
ĠFran k
Ġconf ir
ect or
198 2
d frac
ĠT ime
Ġis omorphism
ĠFound ation
ĠL u
b as
di ag
Ġcon j
S R
N ode
abl ed
ĠL ake
In fo
i able
om y
Ġrema in
Ġnuc lear
U sing
r ical
l ap
t itle
t wo
ĠP an
Ar ray
b an
r or
Ġscal ing
Ind ex
][ ]{
Ġact ual
ĠC amp
I F
ĠM r
Ġto urn
Ġp urch
cal led
on ly
Ġaltern ative
ĠW omen
Ġh um
C or
Ġsit es
Ġch ampions
Ġp ark
}) }
N ext
y es
Ġob vious
ĠL os
}[ \
un ct
Ġlead er
Ġcap acity
Ġscen ario
Ġfin ancial
w a
Ġrap id
s he
av en
Ġshow ing
math op
for ward
is l
at o
Ġman ufact
ph ant
ul ed
A tt
Ġsy nt
}} )
Ġgeom etry
ĠA re
Ġsh ot
Ġlim its
ĠP ost
ĠSe e
res ults
S L
Ġmajor ity
}\ ,\
Ġass ign
Ġal umni
g reg
ven ue
j oy
Ġth reat
empty set
ve ctor
C he
Ġex change
Ġf ine
, {\
Ġsol ve
ĠL y
Ġdis e
ĠG r
ve re
Ġdist ingu
if ies
Ġpro ceed
ĠD u
sum e
C an
bra ce
che n
Ġsum mar
Ġ$ .
Ġo ption
) --
cl os
Ġmost ly
ck nowled
Ġ\ !
ĠF orm
ĠL ag
b ed
Ġpro jection
Ġneut r
197 9
ĠOlymp ics
ap i
e ks
st art
a ud
ĠM ost
t x
res h
H T
M ed
Ñ ģ
ĠSp ace
Ġsp read
O P
j oint
B ox
Ġ );
et al
Ġcommunic ation
}) =
d es
as er
Ġ ^{
Ġan c
Ġch annels
Ġdimens ional
Ġm ixed
ĠV ictor
ig an
a ver
Ġtechn ique
Ġin corpor
he ta
Ġlo ad
a us
Ġsufficient ly
Ġp seud
Ġdatas ets
Ġref lect
rel ated
Ġre call
Ġdepend ing
}_{ -
pect ed
Ġf a
Ġag o
Ġestim ation
long rightarrow
Ġs pl
com ing
Ġimplement ation
Ġwrit er
e ch
Ġdeg rees
och astic
ĠM em
s at
ĠM ax
fin ed
$ };
Ġmain ly
c ript
st ract
Ġart ist
Ġg rand
b uild
Ġunderstand ing
ol k
in ate
Ġeval uation
Ġlocal ly
raz il
Ġweight s
i ota
os h
ic ated
ill er
Ġhe art
ĠSp anish
ad y
15 0
ĠCath olic
p g
/ **
Ġprogram s
Ġget s
Ġst ress
d el
Ġstud ent
' m
Ġir re
In st
ĠI II
ĠM il
Ġg un
}} .
Ġpre vent
ch ang
ĠI reland
Ġus ual
Ġl ies
Ġcalcul ate
ĠP ri
or ation
198 1
Ġor bit
Ġp ain
a a
ĠD ata
Ġvari ation
ult ure
im age
19 50
ve e
Ġex c
az z
str ong
Ġse ctor
Ġrob ust
Ġm ur
Ġm unic
l ang
Ġremov ed
Ġ ion
Ġim ag
Ġde ad
Ġcrit ic
Ġf erm
Ġpo or
Ġget ting
M ar
Ġinter view
Ġstat istics
C ode
Ġacc eler
Ġinter face
em por
Ġw all
Ġw orth
" "
ĠR el
d l
sl ash
ut ch
D P
c at
Ġb in
ma z
) }_
cret ary
Ġrepresent ations
Ġequ ilibrium
onal d
Ġres ources
al gebra
plic ity
k es
ĠC re
con tain
Ġ\ (\
ĠCong ress
v ari
ont al
ĠB ig
Ġmat ches
tern et
ĠO per
Ġleg al
ĠFil m
Ġactiv ities
Ġ ign
Ġd ust
Ġs ch
Ġsub t
' ;
Requ est
}} ^{\
n ames
ific ations
Ġplan et
Ġmed ical
Ġcol lege
Ġprov iding
form ed
clus ions
atal og
}) ^
ouri er
y an
/ *
int eg
p ir
S ervice
ĠCh icago
Ġmax imal
1 20
Ġwant ed
so ft
bre ak
ĠHen ry
Ġwhere as
H S
Ġcharacter istic
Ġr ise
Ġmeet ing
ĠComm ittee
ri p
P A
ĠSe c
L emma
Ġrefer red
Ġn amely
ict ed
Ġf oot
O ther
ĠL i
ĠArt s
sh ire
ay lor
ĠFor ce
Ġcoordin ate
Ġst ability
Ġin verse
Ġb os
ĠĠĠĠĠĠĠĠ ĠĠĠĠĠĠ
form al
ĠN etwork
Ġrema ined
Ġfav or
def ault
il ed
ĠPro gram
Ð¾ Ð
ĠI ll
Ġmax im
Ġnot hing
Ġmod ified
ĠP eople
Ġneighbor hood
Ġf reedom
il bert
C M
ang er
Ġp rice
ĠP re
pos ite
Ġb right
Ġorgan ization
ĠS ol
ĠJ ac
R A
or ter
j e
av al
ĠB r
ĠU p
ĠP enn
Ġp ull
Ã ¨
Ġprinc iple
ĠB oard
vart heta
Ġstat istical
defin ed
ĠH el
Ġhe at
E lement
t es
ĠS M
Ġass ess
ĠAp pendix
Ġdem and
Ġcon sequence
Ġpass ed
Ġvert ical
s ign
ĠEar th
ĠFlor ida
bm atrix
l aw
ĠC am
-- -
Ġelect ro
ren ce
et ween
Ġinde ed
ach ing
( [
b ib
ĉĉ Ċ
Ġopen ing
ish op
Ġro ugh
197 6
Ġm apping
form s
ph ys
h ouse
ĠS T
G roup
Ġmed al
Ġs ort
is ely
Ġcompos ition
pos s
Ġsp ent
ĠE v
l ines
Ġlum inos
ĠC ast
Ġe arn
ĠS il
Ġ ^
197 8
Ġapply ing
I A
ĠK n
Ġent ry
D B
D M
ĠB ob
Pro of
ock ey
Ġdiag onal
}} }\
Ġmov ie
Re c
al gorithm
par agraph
p ass
Ġgrav it
olog ies
h ol
Ġcent re
f old
Ġinitial ly
st able
Ġsur vey
Ġinter section
Ġener gies
ĠMod el
ĠS k
ell ig
ĠV er
ĠS wed
ĠIt aly
val id
^{ *
Ġ â
Con fig
Ġtest ing
t iny
st ep
Ġsc ene
Ġlet ter
Ġappear ance
ib r
Ġsum mer
Ġfeature d
Ġquick ly
ynam ic
op en
ĠYou ng
P art
197 7
Ġr ang
Ġ ut
Ġturn ed
ĠG et
Ġpredict ed
Ġsampl ing
Ġ( "
Ġembedd ing
ian o
br as
de v
Ġmod ul
ran k
ĠE ducation
Ġassum ptions
C ar
Ġ }{
ic ks
Ġeconom ic
sk y
il er
Con text
Ġpre p
ĠO h
Ġbi as
/ (
ĠRuss ia
Ġco inc
Ġw atch
Sy stem
Ġrad iation
Ġcy cl
EN T
ad ow
id ae
Ġtr ivial
Ġa ircraft
j i
L T
Ġdr ug
ĠMex ico
197 4
197 2
ĠPar liament
not es
ĠAt l
Ġinteg ration
Ġh op
Ġphot on
i em
or al
S A
( {
Ġinterest ed
back ground
Res ults
ĠAng eles
H ence
C R
ĠT rump
Ġnon linear
sl ant
j a
ve ct
Ġwin ning
Ġsay ing
\ }\
R ight
ens ities
R el
cont ent
Ġdes ired
ig ation
Ġdet ected
ĠGe org
Ġcur vature
m osp
A ct
ult ane
Ġsur pr
//// ////
B ack
$ &
b al
st ructure
Ġchem ical
=" ../../../../
ĠVirgin ia
Ġg r
197 5
Ġadvan tage
Ġb rand
column width
ith m
ĠT est
act er
Ġevalu ate
pe ople
od ed
Ġrem ark
l ay
it iz
Ġderiv ative
P U
Ġit em
Ġar rang
ĠSt ep
n n
Ġne ural
t an
ĠT imes
ĠB oth
ĠM ur
Ġscre en
Ġmet al
Ġfri ends
S ize
m iss
orn ing
Ġform at
P re
ge bras
Ġfind ing
Ġwe eks
Ġ$ ,
v est
Ġconst ants
st atic
h aps
h ab
ĠInd eed
ĠW al
fl ict
ĠT er
Ġ( !
Ġunder lying
d at
Ġab und
ma ke
\ }$,
C ount
ĠB ank
Re f
Ġst ore
ov iet
ĠI N
ĠT our
Ġtop ological
ĠF estival
Ġsc ored
p ost
Ġext end
Ġgo als
ĠEng ine
Ġcou ple
Ġte acher
y les
Ġindividual s
Ġaward ed
Ġdes pite
ĠOr der
ĠT op
| }{
Ġexplain ed
: =\
de c
Ex t
Ġsequ ences
ĠĠĠĠĠĠĠĠĠĠĠĠĠĠĠĠ Ġ
Ġm ission
Ġc at
Ġtry ing
ap ache
Ġpie ce
ĠL ife
con dition
}$ }
avel ength
we b
Ġo w
M ethod
rop ic
sy ch
M em
T hat
or a
medi ate
un it
p o
Ġmorph ism
Ġs rc
Ġd iver
Ġquas i
t f
Ġhouse hold
L ine
Ġact s
ĠC E
Ġrespons ible
ĠK ar
ic ense
med skip
pl ot
und red
Ġbroad cast
F l
as ion
197 3
ĠSer ies
; &
ust er
Ġord ered
ĠE mp
er c
Ġfail ed
ĠMart in
n um
=" #
ib ration
Ġprocess ing
A ccording
a fter
ur t
ĠL in
ĠB i
Ġrad ial
ve red
Ġcom mercial
Ġsu itable
ran e
Ġsh ared
Ġre v
Ġqu ery
Ġpr iv
h ar
Ġh ope
Ġsol ar
all ery
Ch ar
Ġexplicit ly
ul er
Ġcomput ational
Ġasympt otic
C L
Ġcomput ing
Ġthe ories
ou ble
eli hood
ĠThe ir
Ġansw er
L o
^* \
}} =
ov a
Ġcont rad
= .
in fo
Ġdis pers
Ġel im
ĠJ an
& =\
Ġimpro ved
Ġqu e
ĠL ove
ru ck
ject ive
os c
Ġmanag er
E nt
Ġc m
Ġcan onical
Ġev ol
Ġarg uments
j ava
Ġbl ocks
196 8
Ġro ute
Ġatt ract
Ġsing er
Ġdev ices
ature s
ĠW ood
ĠC a
ĠB as
} |\
Ġmaterial s
Ġse c
Ġdi am
Ġv ote
Ġadopt ed
Ġadd ing
ĠJ o
Ġtourn ament
p y
Ġder ive
Ġproject s
Ġdel ay
Ġprec isely
$ {\
Ġimport ance
H ow
ĠL ong
Ġcon ven
ĠF ort
D R
Ġint ensity
ound s
J ohn
Ġt ail
Ġm aster
w an
Ġ });
Ġspec ified
Ġpredict ions
Ġgrav ity
sub sec
Ġfore st
ĠPl ay
ash ion
k ins
Ġex pert
Ġres ource
Ġinvestig ate
Ġqu ark
m itted
Ġlaw s
l anguage
ers ion
Ġp icture
M y
stit ution
Ġbene f
Ġdest roy
Ġdiv ision
ĠS ocial
G N
s che
ĠI R
} ~
c ut
Ġsuggest s
cre ate
ian a
Ġvar iance
It em
om in
> &
m n
ĠA wards
ĠOff ice
Sup pose
Ġst ruct
Ġgen us
x x
ens ions
Ġpolitic ian
Ġa st
Ġl ives
Ġsh oot
Ġj et
pre c
\ |\
Ġsatisf ied
Ġobject ive
Ä ģ
ĠL ine
il ation
Ġac adem
Ġw ood
Ġmed ium
Ġpat ients
Ġapp arent
figure s
S ec
Ġen joy
] )
Ġrel ax
dition ally
ĠO ld
H and
ur ations
Ġgeneral ized
un ch
ĠL ee
en ced
Ġband s
ad ium
st ruct
om etry
E arly
ĠScot land
magn etic
Ġoff ers
angu ages
Ġtest s
ĠPl an
+ (
d f
arri age
******** ********
A m
ial og
Ġord ers
P ost
Ġ/ *
Ġpl ans
Ġbul k
ent y
ĠTe am
G iven
ĠCarol ina
script size
Ġqu arter
T T
Ġdel iver
ĠS uch
Ġvis it
ri ed
Ġto ol
Ġparent s
he tic
197 1
Ġany thing
cher s
back slash
con text
ir ls
Ġdis s
Ġsuggest ed
m et
ĠH ot
Ġtre nd
ond er
pt o
Ġtra ffic
og onal
Ġt al
ob s
Ġaccur ate
h u
ĠD irector
D S
Ġcommun ities
Ġdynam ic
multi row
v s
Ġflu id
u um
il ing
pro t
Ġb undle
Ġf arm
ĠA rab
E L
ran sp
Ġcompos ed
196 9
Ġb asketball
ĠSh ow
ĠJ im
ĠJ un
Ġph il
ph as
Ġ ice
not ag
X i
ud get
Cons ider
set s
Ġabsol ute
Ġrec ords
Ã³ n
ĠP ac
ep end
Ġb attle
ĠE nd
d b
O L
Ġr an
igh ter
are er
as y
Ġsy m
act ic
Ġsome one
Ġmatch ing
in du
Ġex ception
pert ies
ĠPro fess
ĠS und
R em
ass ert
Ġcl oud
ĠH y
Ġser ve
flo at
Ġdescrib es
Ġhypot hesis
Ġwrit ers
Ġpr ime
ĠRe view
Ġis ol
circ le
ith ub
ud d
fin al
f alse
Ġed itor
Ġ( {\
Ġatt rib
Ġprot ect
ug by
Ġact or
Ġmot iv
Ġv oice
Ġequival ence
ĠCh ief
Ġw aves
sequ ent
D uring
Ġext ends
Ġd ashed
n c
Ġend ed
}) +
w rite
b rid
Ġdynam ical
ĠJose ph
plic ations
^* (
ĠT im
depend ence
D is
row s
Ġrece ive
Ġtre es
ateg ory
Ġco vered
lo op
}\ |
Ġth in
wit ter
Ġtr ig
M essage
C ur
d iff
ograph ic
Ġcon v
ok es
od d
Ġdig ital
al i
Ġsign als
ad s
^{ (\
Ġimplement ed
Ġpr ison
Ġcandid ates
Ġst ories
Ġlaun ched
par ison
pect ive
up s
cl aim
ĠO l
Ġcele br
li ography
tt y
Ġcle an
Ġs witch
og en
Ġreg ist
Ġh ar
Ġal one
er ior
f i
Ġd x
ful ly
ĠI ran
m ond
' ve
T ra
b ot
Ġnot ice
ner gy
Ġestablish ments
ĠB razil
m ember
phant om
ric ket
h igh
Ġpro pose
dis c
im a
L a
Ġch ief
Ġwe b
ĠChampions hips
sy l
ĠPro ject
he m
Ġwh om
[ -
ell er
se cond
fere d
t rack
Ġle aving
Ġre asons
c ss
Ġed ition
H C
Com p
N otes
Ġit ems
Ġquant ities
Ġres ist
wh ite
Ġallow ing
ak a
z z
R ep
Ġra re
cor ollary
Ġbehavi our
ĠHig gs
Ġmus ical
ac ent
ver b
ĠN avy
Ġl ift
ĠM ount
Ġal t
ĠJ ournal
Ġcharg ed
) })
in et
Ä ĩ
Ġapproxim ate
tikz picture
Ġst ochastic
ĠH on
w er
ĠC M
Ġat mosp
Ġdr ive
ĠF ield
Ġbe aut
d em
Ġser ious
Ġle aves
it ative
van ia
Ġattack s
Ġann ual
ĠA N
ro om
Ġnumer ous
Ġlabel s
C all
Ġsim ultane
Ġass igned
ĠIsra el
Ġ ,\
Eng lish
arri er
Ġmix ing
Ġ$\ {\
ĠG ood
Ġpattern s
g ers
196 7
[ ]
iss on
Ġbecom ing
Ġturn s
g eneral
Ġtrans mission
math it
Ġn ation
Ġf if
) ^\
cal e
Ġt end
def ine
ĠW ales
ĠVal ley
i ro
Ġn arrow
Ġout er
go ing
ĠDe velopment
More over
stand ing
Ġmagn et
Ġeigen values
ĠBe cause
Ġloc ations
Ġcateg ories
Ġfor ced
Ġen h
Ġn il
fl u
et ries
Ġs al
el a
I l
ĠÂ £
\% $
at i
let s
Ġem pty
G R
ĠE lect
ĠL iber
ĠAs sembly
A V
Ġis land
Ġpro pos
ĠI rish
erv ices
ce an
Ġold er
ip ality
Ġf rag
id el
Ġact ing
Ġdisc overed
ĠR am
Ġtechn ical
( -\
D es
Ġm ess
equ ations
Ġco ast
Ġspe ak
Ġdiv ided
Ġcomp at
Ġgener ic
pl ane
n umber
Ġr ational
! \
el d
mod els
Ġcapt ure
Ġreport s
Ġcom pl
us band
Ġrem ove
Ġb us
duc ible
ult ural
Ġtrac ks
Ġinvol ving
ĠCent re
tain ed
Ġthan k
S m
ro sc
G a
con f
pt ic
it an
Ġr iver
ĠS pe
Ġn one
Ġs ides
h ang
ild ren
ur ity
> \
Ġtrans lation
ust ain
Ġ} ;
Ġse a
Ġent er
Ġreturn s
u er
g ithub
ul y
Ġis ot
ard en
Ġres erv
sh ow
Ġag ents
Ġl ie
Ġwid ely
A rt
n ull
ĠL o
ct ic
id ers
text up
Ġmark ed
l ie
ĠT aylor
ĠN orthern
pack age
19 40
are n
Ġluminos ity
;\ ;\
Ġconfir med
S F
Ġdetect or
Ġmat hemat
ul se
ĠB usiness
Ġfluct uations
includ e
Ġs outhern
Ġe q
Ġtra ce
)-- (
1 10
Ġgrow ing
Ġposs ibility
ĠM ajor
Ġclaim ed
Ġk ing
Ġassum ing
Ġv irtual
Ġwork ers
Ġl ab
Ġjo in
196 4
Ġpath s
Ġf irm
Ġj ava
Ġse asons
Ġt urb
ĠJ ud
y er
ĠM ov
Ġra ised
Ġevery thing
ĠM en
Ġfore ign
Ġsen ior
ax is
ĠT re
Ġpart ners
ĠF red
ĠC ross
Ġstud io
alt y
Ġop posite
Ġconduct ed
se arch
Ġact ress
Ġlearn ed
ĠH or
ĠS pr
Ġvocal s
r l
E X
i y
ĠG iven
amp ion
Ġsp irit
aut o
Ġw a
ut y
d escription
Ġident ical
Ġf ederal
is ters
Ġenc ou
Ġ\ &
Ġman ner
19 45
Ġ eth
down arrow
' _{
uss ion
par allel
. \\
U l
Ġprinc ipal
E l
ĠL ibrary
Ġn orthern
Ġadj ust
\! \
F I
Ġpower ful
19 30
B M
ĠCol umb
ans as
ou pl
ER T
ĠJ ones
Ġexpl ore
Ġperturb ation
rang ian
ĠW ay
R R
Ġim ply
Ġto ols
fin ite
a ug
uff er
Ġre n
ĠGe V
semb le
b p
ĠD et
ch ron
Ġsaf ety
ap l
{ .
Ġstart s
neg ative
Ġcom ments
ĠSup pose
Ġem phas
Ġequ ality
Ġeffort s
Ġreveal ed
r ins
D ist
at ers
Ġden se
Ġh undred
Ġcorre ction
O W
ĠS oviet
us al
Ġro ll
P erson
es ian
ĠSp ain
g est
per iment
$- $
ĠS u
Ġnew sp
ĠS ar
| ^{
paramet er
Ġar rest
Ġpref er
Ġemploy ed
Ġto uch
ĠUS A
Ġhel ped
Ġn ine
Ġdise ase
l ock
196 5
; "
Ġoffic er
Ġsom ew
II I
od ies
syl vania
Ġtemperature s
Ġl if
Ġrepresent ing
ost on
r ative
Ġprodu cer
Ġcry st
es ter
P L
Ġuniform ly
196 6
point s
ĠG en
ĠB ern
Ġh idden
Ġveh icle
ject ure
M on
Ġn et
is ot
at iv
Ġregard ing
Ġexpl o
Ġgravit ational
t w
ar ma
Ġsh ock
U ser
ĠY our
ier arch
$. }
Ġs ched
Ġcomm ut
ener ate
Ġatt ended
ĠP ak
Ġcon vent
all ow
sy mm
empor ary
Ġs ociety
ph y
U E
Ġsub stant
Ġtri ang
Ġin iti
Ġperform ing
c ar
em ic
rel ation
ĠG overn
' ll
D o
Ġcl ient
Ġre ct
Ġsett ings
im its
ĠS ir
Ġ\ ,\
ĠC y
Ġser ver
m om
ĠF ourier
Ġded u
Ġtr uth
H om
Ġcost s
Å į
al so
Ã §
ĠProv ince
ĠE ven
~ (\
M ax
em b
M in
app ed
L i
Ġindic ated
Man ager
Ġnear by
roll er
ĠTechn ology
ĠH ome
ed ge
Ġinter act
stack rel
D isc
P op
T op
Ġpart ies
ic ed
n i
Ġcoupl ed
Ġsp ac
Ġc atch
ĠHistor ic
Ġw avelength
Ġsup pose
Ġs izes
}{ *
ĠDemoc ratic
Ġpolar ization
D C
ĠL ab
! ]
Ġst ack
rib e
G o
Ġf re
Ġm ountain
ĠRad io
Ġorgan ized
G l
Ġcon flict
Ġide as
opt ion
r ating
air man
Ġth r
ĠS om
Ġat oms
ii i
Ġke pt
Ġnot ion
in ity
B i
act ory
Ġmed ian
ap pe
Ġconsist ing
Ġposs ibly
Ġw rong
Ġperiod ic
ĠE u
l oc
co pe
ist ent
Ġter rit
h l
ist ed
Ġth ous
Ġpro min
Ġinc ident
Ġent ries
Ġhtt ps
ymm etric
Ġprot ected
Ġcol lected
Ġoper ating
Ġof fered
Ġcomm ission
ron ic
Ġo il
l arge
ĠCon ference
b ury
g ather
| $
ĠG ame
M T
A g
ĠG re
Ġh usband
ĠSt and
we et
ing ly
Ġconj ug
Ġl ived
Ġtri al
C re
ĠB ase
Ġp il
d oc
Ġme as
Ġhistor ical
ere nce
Ġm ill
Ġch art
pro v
ari os
Ġvers ions
Ġaff ected
cy cl
ĠPh ys
urb an
ĠA cc
ĠBrit ain
Ġl ibrary
Ġrequire ments
---------------- ----------------
Ġr ig
cont inu
ĠL ord
am ing
ĠEmp ire
Ġvac uum
25 0
; </
Ġsecond ary
Ġre action
Ġf elt
Ġlow est
{ |
Ġfam ous
Ġelectron ic
Ġar c
Ġcorre ctions
eff ect
Ġuncertaint ies
V D
ĠE r
Ġto ward
Ġtr ust
cl ine
ĠT ype
S ource
Ġown ed
reg ular
Ġquant ity
Ġchall enge
Ġpl us
clus ive
ench mark
Ġcam era
Ġ _{\
Ġind ices
Ġshe ll
Ġexpress ions
Ġresp ond
ĠE p
e vent
Ġinteg rated
ĠAs ia
c rit
Ġmarg in
Ġinvestig ation
ĠA v
h ard
Ġhal o
ject ed
ĠR un
Ġcommon ly
ĠGo ogle
com put
Ġin come
Ġaut o
Ġevalu ated
A ction
Ġmag azine
e lect
19 20
Ġdes cent
ĠScott ish
foot notes
Ġdr iving
n ol
ig ration
)} (\
Al though
Ġnecess arily
ĠB al
Ġag ree
ne ver
var rho
. /
press ed
Ġpol ic
\| _
Ġan om
ĠS and
ĠG reek
Ġl anguages
od ay
Ġp le
) </
ĠDe c
ĠM any
cl ip
D D
Ġdepend ent
Ġd oc
z y
Ġmole cular
er ies
ĠA M
Ġ= ==
Ġproport ional
os oph
S um
Ġgeom etric
Ġfl ag
C areer
Ġnormal ized
o ir
erv ised
Ġrelig ious
C al
ĠIs lam
Ġfeed back
Ġph ases
F urther
footnotes ize
ĠA tt
} /\
Res ult
Ġc itiz
m ode
ĠC amb
ĠBl ue
ĠJohn son
Ġent ered
) (\
Ġvict ory
ĠF C
Ġre produ
Ġb ond
ĠR ay
Ġvis ible
the re
Ġconfig urations
am m
B B
Ġrepe ated
Ġunivers al
ic ular
S ome
T C
I mage
ĠE ll
Ġfig ures
Pro perty
Ġ\ [
ĠS outhern
' .
enn is
it ness
Ġchang ing
) }.
mult line
Ġpow ers
ĠĠĠĠĠĠĠĠ Ċ
U s
Ġdepart ment
Ġc ensus
Ġsub sequent
ra ge
ad or
t z
Ġdemonstr ate
il a
P O
d ing
v als
hen s
Ġdire ctions
b ell
Ġcre ation
ĠB uild
u ing
ĉĉĉĉ ĉĉ
en ame
Ġessential ly
ran ce
Ġw ild
Ġdefe ated
Ġf itting
im ages
L ast
Ġredu ces
se lect
ĠV is
! !
u v
st one
Ġse at
ĠReg ister
ĠPenn sylvania
ot on
Ġarm y
Ġdra ma
P o
======== ========
ĠH a
Ġsepar ation
{ (\
ion e
Ġd rum
Ġfrequ encies
ĠF ace
ĠU k
ĠT em
av ed
Ġhand s
Ġanaly z
Ġs ales
Ġb ill
Ġl ens
Ġfil es
Ġele ctions
gy pt
ĠI D
Ġprof iles
Ġinter mediate
h fill
&= &\
Ġquad ratic
s pe
form ance
ino is
Ġb lood
Ġcon clusion
Ġrail way
c Q
ĠA nother
ic ine
ĠB ow
A F
u on
ĠMich igan
Ġgener ating
ĠD M
est ed
ĠP rem
t ure
The y
Ġdisc rim
Ġpolynomial s
ab y
Ġfail ure
bur gh
ĠCor por
196 3
}$ \
f unc
196 2
ĠB ra
ĠC ivil
ne ctions
im er
Ġex clud
l ik
Ġrese ar
Ġcre ating
Ġalgebra ic
Ġcount y
ĠL og
ĠDe v
Ġem pir
Ġpl as
Ġevery one
anc ing
Ġag greg
ĠWilliam s
Ġn ative
Ġst orage
Ġ$ ^{
Ġneutr ino
ĠĠ čĊ
Ġc ities
s en
os is
indow s
Ġanaly tic
z en
Ġbelie ved
Ġhand le
Ġlat est
ĠCar l
Ġhom ogeneous
Ġread er
Ġrec over
ĠMed ia
P aramet
Ġm es
Ġh ospital
inv ariant
atur ally
) [
Fil ms
ĠMan agement
ĠF ar
Ġspec ifically
Ġinter ior
ĠW in
ĠB attle
se p
ĠAir port
ĠB ell
Ġsk y
Ġset up
Ġtw ice
W ork
or i
ĠS ong
ult y
ad ed
ta il
ĠB ul
ĠPac ific
ain s
ĠEn ter
m em
Ġexpl an
Ġinterpret ation
ĠW ell
}. }
Ġconf idence
Ġelect rons
O per
Ġis n
Ġfocus ed
Ġg irl
ã Ĥ
ĠM u
Ġrepresent ative
Ġtop ology
Ġorth ogonal
Ġclaim s
og rap
$ ^{
Ġrec ording
Ġdiff usion
*} [
Ġvari ations
Ġprec ision
ĠV i
s i
Ġ- >
ad el
Ġch ance
- (
et ts
ub ble
Ġinst ant
Ge V
D i
g ar
Ġopport unity
ĠC ro
Ġd ensities
ĠJew ish
Ġdecre ase
at on
Ġre ferences
Ġextrem ely
ĠCor ollary
$ ^
ĠB or
in it
it age
Ġend s
qu ant
her ical
R ed
Ġacc ret
ĠM ethod
w ave
ĠWil son
< !--
T wo
Ġf ans
Ġcolumn s
ĠSpec ial
Ġdat abase
P os
}) ^{
Ġand roid
Ġoper ated
H ead
Ġorgan izations
Ġin fer
Ġcomple ment
n am
ĠB ol
s quare
Ġn or
ĠV an
Ġmom ents
im b
ĠP op
p arent
L C
k K
Ġcover age
ĠCons ider
Ġc atalog
=\ {
Ġ ur
iven ess
ĠG R
Ġun iversity
ay a
oth ing
ap es
Ġprogram ming
ĠS U
ri end
ic ate
m I
Cl ient
Ġiter ation
Ġfl av
Y i
ĠOh io
Ġp urs
ĠA R
Ġspe ech
Ġs end
ĠM ountain
Ġsub sequently
Ġb ra
In put
erm i
P M
Ġrecogn ition
O e
ĠĠĠĠĠĠĠĠĠĠĠĠĠĠĠĠ ĠĠĠĠĠĠĠĠĠĠĠĠĠĠĠ
& &\
at uring
ĠM ah
ĠQue en
low er
P D
Ġform ulation
ĠP ower
f a
Ġded icated
Ġcharacter istics
Ġal le
Ġcontroll ed
plic ated
T S
Ġsol ving
f ull
st ood
ur ies
Ġprim arily
ã ģ
Ġb illion
Ġmanag ed
text normal
text color
le ep
Ġk in
Ġcall s
on to
Ġabsor ption
Ġl iqu
Ġcharg es
ĠS i
Ġdou b
A ust
qu ery
Ġlaun ch
lo pe
ellig ence
Ġcontinu um
6 00
Ġcan cer
ĠB u
go ogle
Ġfind s
Ġaspect s
ĠD ou
ar ity
Ġins ert
ĠJ eff
ĠH uman
Ġc old
Ġart icles
e lement
Ġclos ely
P oint
Ġstraight forward
> (
ĠJer sey
ĠO F
ĠAs ian
Build er
N E
bin om
ĠC r
Ġst d
Ġcontin ues
Ġp uls
er g
du le
in stein
ĠM iddle
cl ose
ĠC ard
St ream
U LL
eng er
ĠT ro
@ {
ab eth
t arget
og ram
ĠO x
Ġvers us
he t
the less
os a
Ġorb ital
ed ia
Ġdevi ation
J Q
Ġb ridge
Ġtre ated
Ġsum mary
Ġse cret
Ġ> >
Ġadj acent
Ġm obile
Ġde ploy
Ġm orning
ĠS N
Ġintrodu ction
N ational
s g
up arrow
ĠG i
l ib
p op
pl an
Ġdom inant
G eneral
ĠL ore
Ġb att
Ġcorrel ations
Ġreconst ruction
Ġ elli
Ġop in
Ġstrict ly
196 1
M ay
Ġf le
ta ck
Ġoffic ers
Ġhoriz ontal
n m
Ġsub space
C ase
Ġc ert
Ġsim ilarly
ic ation
d ir
Ġcon volution
Ġv on
Ġacqu ired
ĠE conom
st at
Ġsing les
on ia
Ġtri ple
ĠO p
ĠL em
Ġwe ap
18 0
ĠM icro
Ġneut ral
Ġn av
ma g
sc ape
ars er
}^{ +
Ġsur faces
A E
Ġsp ot
if ul
A c
ĠB a
Ġcapt ured
e z
Ġsup ers
Ġb ass
ĠC R
ru ctions
ol es
if act
ĠCon n
ĠCo ast
ĠB oston
ĠW all
] ^
Ġsu c
ĠM id
, ...,
c lear
Ġirre ducible
ĠEd ward
B R
Ġrestrict ed
Ġpl anning
ĠW ild
ĠK ent
$\ \
f ound
pro duct
Ġtri ed
ent h
ĠK h
l ast
R un
Ġserv ing
Ġsens itivity
Ġlarg ely
Ġown ers
w ater
" ).
ĠFrancis co
ĠR h
Ġmet all
t ree
poss ible
Ġcl in
U p
ĠSen ate
Ġs ister
Ġcult ural
Ġsystem atic
Ġpract ical
ĠSt an
Ġdecre ases
Ġsche mes
g reen
pd ate
B ase
ĠW ater
ĠP oint
Ġprec ise
Ġint ended
ĠThe atre
uck y
r ates
are st
form ing
rid ay
Ġimpro vement
L ocal
D ate
N on
ĠRep resent
Ġabs ence
Ġeffect ively
rins ic
ĠSund ay
ird s
ig er
in als
Ġl abor
194 4
Ġtrans verse
ĠU N
Ġform ul
B L
ach us
. $$
S ing
M at
}{ {\
Ġmult ip
Ġprot ocol
pro pto
ins on
B O
12 8
_{ +
pon ents
ĠGeorg ia
Ġtrans itions
ĠComm unity
Ġp ool
ĠK en
aram s
Ġscen arios
y d
out e
M ult
Ġas k
angle ment
Ġc ouncil
ĠWe b
os es
ĠG ar
Ġderiv atives
Ġsens itive
s ince
Ġs quad
Ġh ierarch
Ġp ush
Ġdra wn
Ġt ang
ĠF ollowing
Ð »
add ing
Ġsc ript
Ġpack age
ub V
LB J
Ġres idual
Ġsuc ceed
atur day
16 0
Ġact ors
JQ Yi
Ġcon ference
d esc
Ul I
Y kK
iem ann
MN mI
oi ubV
tf Gu
cQ LBJ
YkK oiubV
YkKoiubV tfGu
JQYi UlI
ĠP R
h ire
I ST
ã ĥ
Ġb udget
Ġcover ing
ĠN ight
che ster
Ġsup ply
ru it
Ġd ie
Res ponse
ak i
and roid
YkKoiubVtfGu Oe
names pace
Ġmetric s
Ġdefin es
ĠAnd rew
Ġrough ly
ĠD aily
Ġflo or
Ġcirc uit
el ess
ĠC ase
ro g
Ġhigh light
ĠPhil ipp
ĠM ot
math tt
ĠIll inois
ĠT ri
d ash
Ġsuccessful ly
Ġenh ance
am ber
Pro position
Ġdispers ion
Ġcor ner
ĠIn formation
ĠN S
ĠK ong
Ġp aid
achus etts
big cup
d ens
ol i
ĠD ar
ar ithm
Ġf ashion
Ġcre w
Ġl ov
ca pe
Ġmodel ing
Ġdom inated
Ġbro ken
im g
ĠB ir
C F
ativ istic
Ġf aster
Qu ery
au x
Ġassoci ation
D r
ĠCom put
Ġreg ional
Å ¡
bold math
ĠS ervices
\ }.
=" ../
ĠS D
p res
ath an
ĠF our
ĠU s
Ġbre aking
et ch
com b
Ġrestrict ion
ĠSim ilarly
Ġ{ };
Ġpur poses
ch or
L abel
ĠD utch
Ġview s
Ġdemonstr ated
Ġexpect ation
ro b
W ill
ph p
Ġfor t
ĠHe ad
p ower
Ġd raft
Ġpre m
Ġpass ing
Ġsurround ing
rep resent
195 6
ĠLag rangian
ire ction
Ġex cess
Ġhe av
te en
ĠCol or
Ġp ages
Ġ Î
Ġdist ances
ĠSe cretary
G S
195 9
ĠP M
Ġveh icles
Ġcol on
$ '
ent ry
ĠH aw
ĠH ilbert
Ġd ip
Ġillust rated
ĠP ubl
Ġadminist ration
b ro
Y ear
Ġsepar ated
l en
Ġs un
w orld
ob serv
ph ia
H el
Ġw estern
Ġread y
Ġstr ugg
ĠE st
ph one
ĠH al
Ġpre par
ph ase
im ately
Ġsim ulated
Ġvary ing
s d
if er
g al
ĠJ on
Ġt ag
l ife
Ġres idents
in ction
pro perty
Ġconc ert
Ġz one
ĠD isc
ill ing
B rit
ex pected
ĠJ r
ĠM as
Ġcon sec
ynam ics
Ġbe at
Ġco ok
w hen
sc ope
Ġreview s
ra ise
an ced
Ġat omic
p ool
ĠN one
Ġ\ |\
left arrow
Ġf ib
L R
G A
he nt
ĠS ports
B E
Ġcharacter ized
ps on
Ġstre et
ĠB ang
p ot
195 8
) }$.
ĠB BC
E m
12 5
Ġlook s
def n
en ant
small skip
Ġcirc um
Ġhe ard
me asure
Ap J
u ated
^+ $
Ġt ransp
oc cer
ĠPol ice
$\ ,
Ġstrateg ies
Ġsat ell
ĠPol and
Ġport ion
ĠE gypt
sp irit
il ly
Ġdefin itions
Ġwin ner
) _{\
Ġaccept ed
ĠA ff
}[ !
Ġin clusion
00 1
Ġex cell
Ġbal ance
Le ft
a is
al ing
Ġper haps
Ġiss ued
\ [\
Ġpolitic ians
arg ets
or ig
St art
ĠA st
Ġf ellow
ĠJack son
Ġweight ed
G ener
Ġow ner
Ġbrief ly
cl ient
ĠJ es
ĠPr ince
Ġt ight
o is
Ġ }}
Ġsecond s
Ġc ir
Ġepis odes
sy m
P ar
IN E
ers et
aut hor
Ġfif th
% )
Ġm ac
ict ures
ĠWe ek
Ġflow s
k ern
Ġdam age
ou the
sh ort
Ġyou th
F unction
Ġ- --
Ġsc ope
cknowled g
Ġvict im
Ġperm ut
fin ished
m t
ic ip
nol imits
ĠJ oe
ĠBro ad
Ġre ality
) ).
ĠB C
est ic
Ġb ran
Ġbas eline
Ġm useum
Over ride
Ġtempor al
Ġc ars
M en
Ġb ool
Ġun less
ĠL ight
Ġtell s
Ġequip ment
Ġconcent ration
ĠM ult
ĠGovern or
leq slant
194 8
Ġlik elihood
ar ters
Ġtra p
ĠF ree
Ġp apers
ĠA sh
Ġbegin s
am in
Ġr ich
R eturn
}) =\
Ġprodu ces
Ġh uge
Ġ\ {\
Ġp p
Ġs port
Ġad vers
Ġpolic ies
Ġex ceed
sub equations
ĠAl gorithm
Ġpan els
ĠKore a
$ }}
og ether
Ġrad i
U til
m al
Ġbu y
ĠL ittle
er ry
Ġd og
Ġme ant
Ġcom edy
Ġa w
ord an
Se cond
10 1
Ġmon itor
ĠU r
195 7
Ġphot ons
Ġ ~\
Ġc odes
Ġver ify
Ġinvestig ated
A nother
B H
Ġa ware
Ġe mail
el se
Ġs ession
G M
f ind
Ġhapp en
am i
D em
Ġqu ot
} >
194 2
Ġs ave
d ney
p red
N av
}^ +
ĠB ack
Ġphot o
ĠE very
d ifferent
ock et
ce il
ĠP en
text sf
R L
Ġad vert
p ic
ĠTh ree
Ġc row
h s
Ġun iverse
Ġst ead
Ġb oy
Ġret ired
ĠRepublic an
T rack
ĠSt at
Ġcru cial
Ġsh ips
Ġsh op
ĠMus lim
Ġbu ff
Ġd aily
ĠSe a
cite alt
}} ,\
ĠDes ign
Ġentire ly
function s
Ġcor por
Ġpe ace
8 00
es ides
Ġcoll ision
\ },
Ġg ate
ĠMass achusetts
ĠSt ation
so le
sh ot
Ġofficial s
S ports
ĠQue ens
ĠM ike
ian g
oc ated
Ġexec utive
ĠE astern
Ġorient ation
Ġatt end
op es
Ġhapp ens
er ion
Ġ era
ide os
O ff
ex ists
Ġdiagram s
ĠW is
Ġ< <
ĠJac ob
Ġunder stood
un a
ĠDan iel
w t
Ġexpand ed
Ġbene fit
Ġfac ilities
D T
Ġsp here
Ġun iqu
19 39
ĠPort ug
prob lem
c ard
Ġm arriage
ĠP y
Ġd ro
ad i
ad ata
Ġany one
rom e
Ġgener ator
ĠT w
Ġinvol ves
ĠSc iences
Ġthan ks
Ġcop ies
Ġreson ance
row ser
" ),
ĠJust ice
R I
Ġpre tty
Ġrandom ly
Ġrespect ive
com es
Ġca uses
Ġfootball er
Ġrat ios
pro ject
Ġpro position
ugh t
Ġcho ices
Ġtraject ory
Ġfl ight
Ġarr ived
Ġcover s
Ġn aturally
olog ist
Ġengine ering
Ġinsp ired
ĠF und
Ġclos er
d ensity
Ġupd ated
lo ok
tr ivial
v o
ĠCh ris
ĠOn ly
Ġal gebras
ON T
ĠIn f
E ach
_{ -\
on ed
Ġdi agn
ĠĠĠĠĠĠĠĠĠĠĠĠĠĠĠĠĠĠĠĠĠĠĠĠĠĠĠĠĠĠĠĠ ĠĠĠĠĠĠĠĠĠĠĠĠĠĠĠĠĠĠĠĠĠĠĠĠĠĠĠĠĠĠĠĠ
Ġtransfer red
Ġsimultane ously
Ġrecomm end
let on
ot al
f n
Ġh ab
comple te
Ġco al
st ates
etail s
ap ed
Ġe yes
id al
Ġcol our
ap se
Ġis omorphic
Ġf lex
Ġdr iver
Ġcl imate
Ġreconst ruct
f ram
y o
z o
195 5
Ġadvan ced
al ities
un ately
\ }_{
b c
ic ens
Ġaccret ion
Ġp al
ĠLat in
ul f
ĉ Ġ
St atus
ĠI V
Ġunit ary
but ton
op her
cl ide
Ġinst ances
rim inal
ĠE nergy
ĠBro ok
b olic
ĠC H
Ġs ustain
eg er
L ong
ĠMon te
N umber
m eta
iz abeth
ĠAlex ander
rop ol
Ã ±
p resent
part icle
ĠB an
194 3
Ġclub s
em an
Ġconstit u
Ã ¢
arg s
Ġcontrib ute
Ġreason able
ĠMin istry
un ities
ap pend
Ġdomain s
Ġex pos
Ġp sych
Ġindu ction
ĠH ospital
ĠC le
Ġstrong er
ĠC at
un te
Ġear th
re ll
ĠD ig
) >
ograp her
Ġmot or
Ġf its
Ġsex ual
ĠCons erv
Ġst ock
Ġcosm ological
194 6
Ġgl ass
ĠEqu ation
Ġc ere
Ġfun ctor
195 2
Ġdevelop ing
ĠB oy
Ġexec ution
h r
om er
Ø §
Ġconver ges
b its
Ġbelong s
Ġscient ific
ĠL ater
im ation
ĠPr ime
j av
ĠC all
194 1
Ġprofess or
me an
D av
rack et
Ġpromin ent
Ġm iles
enn es
ĠH ong
ĠOr gan
F ollowing
Ġfin ish
Ġtest ed
f rame
E P
Mem bers
Ġsim plicity
ig u
et he
Ġoccur red
" ]
) }$,
rast ructure
Ġearn ed
B o
th ick
Ġv ir
ent ed
Ġ{ $\
Ġ\ }
script scriptstyle
Ġpres ents
Ġhous es
ĠB and
Ġsymbol s
ĠF ederal
| _
Ġag reed
et ies
ail ed
Ġsomew hat
| _{\
r ations
um es
Ġsc ores
Ġref ers
Ġenvironment al
Ġen semble
j ust
Ġpl anned
Un ited
Ġmov es
Ġl aser
Ġin nov
ĠColumb ia
Ġserv es
clide an
h ave
ĠU V
ĠC as
Un iversity
Bl ock
S H
ĠOx ford
r ants
_{ [
c oh
hed ral
v ements
ost er
Ġext ent
Ġtra dition
195 4
it ical
ow ski
th ur
an ta
Ġm ask
Ġfa ith
w atch
Ġp et
it ter
}{ }
A cc
Ġeconom y
Ġh our
AM E
Ġnot es
Ġfe aturing
Ġstand s
st rap
195 3
opt ions
Ġl ock
ĠPl aces
j pg
Ġferm ion
Ġeigen value
int on
Ġcon nections
rib ed
Ġdif fer
eder ation
ĠProfess or
Ġperson nel
Ġextract ed
Ġwas n
el ian
Ġcompat ible
Ġp ip
Ġbound aries
25 6
194 7
new line
port ed
Ġpie ces
S te
Ġa wards
ear s
it udes
F M
ĠA T
e ven
Ġanaly ze
ob j
ĠL im
Ġreg ression
Ġpers pective
ĠInd ust
' d
Ġb rain
ĠComm on
ĠAd d
Ġfund ing
ĠR og
ray s
Ġdr iven
W orld
Big g
Ġdisc over
Ġanal ys
P ort
Ð º
ĠR eturn
ĠN on
l ers
Ġpix el
W rit
ĠT am
se m
$ {
cul es
ra q
Ġposs ess
ĠN ext
cor respond
' $.
Ġext ensive
Ġp it
Ġro les
ĠRail way
Ġident ification
Ġsol ved
Ġpart ner
ĠG ro
12 3
Ġhoriz on
Ġinter vals
Ġan not
Ġoff set
in ating
Ġdo or
ul pt
Ġca ref
du ction
Ġb urn
ĠSup reme
Ġv en
ĠAg ain
ĠSt r
ĠFace book
ĠV ill
ĠJ ean
ĠH ung
Ġcon vers
Ġnew ly
ĠM ain
cor rect
clos ed
Ġtransform ations
ug in
ĠEq s
ĠCol l
Ġmod ules
oot strap
Ġpart ially
Ġse vere
Ġst abil
t i
ĠCorpor ation
ĠS C
ĠN C
ul ating
out s
ass um
K e
Ġ" ""
Ġchalleng es
ĠB rad
Ġanc ient
L ink
ik i
Ġdiv is
ĠBer lin
Sc ript
Ġpost erior
Ġchampions hip
ĠDe finition
ĠVictor ia
Ġin ference
D on
j k
Ġprote ction
ta ke
Ġro ots
Ġrest aur
: #
Re ad
X X
Ġ( (
ĠF re
p et
iction ary
ant ry
includ ing
Ġb enchmark
Ġsum m
Ġalong side
ĠS aturday
Ġp m
Ġext reme
mid rule
in er
han ced
ac le
ĠPo isson
ĠB on
Ġliqu id
mom ent
Ġacadem ic
ch ain
ĠW alk
ĠMed ical
Ġpolit ics
Ġaud ience
con duct
Ġempir ical
ĠStud ies
H L
are t
ou st
cur s
I O
Ġcr ime
Brit ish
ĠG ener
ĠK enn
194 9
Ġa head
Ġep och
ĠD own
Ġsaf e
sp in
M ark
Ġd ram
M F
Ġge odes
Ġexc ited
gl obal
ĠD ue
Ġw ants
^* _
U C
om et
âĢĿ .
Ġt ick
ĠM C
ĠM aster
B ook
Ġf an
ors hip
Ġdec ades
ĠPol ish
Ġsign ature
Ġconserv ation
ĠF riday
g ency
on se
is en
Ġestim ator
Ġcrit eria
ĠIs lands
m o
writ er
ĠA GN
Ġcitiz ens
Ġph one
\, {\
Ġread s
Ġdefin ing
Ġst ages
D escription
ĠMark ov
Ġb low
Ġhy brid
ĠRe v
not in
Ġ iron
Ġh ockey
Ġexp at
] =
Ġprob abilities
ĠN ever
ĠBel g
Ġs lope
w orth
ĠFore st
and ra
ura ble
tri ang
Ġleaders hip
Ġth read
ĠOb ject
rop ical
ze ch
ĠS her
ĠIn ternet
form er
se x
c p
Ġfe et
ĠAd minist
Ġstation ary
ĠR om
const ra
Ġamplit udes
Ġcompar able
ĠN Y
ĠSe curity
U nder
res pect
ra ctions
195 1
m f
Ġin dependence
ĠF amily
ST ATE
ĠF urther
h av
Ġcondition al
ĠP ass
Ġa ug
v dots
ĠO s
Ġc ub
adel phia
O V
ress ed
ĠK im
G r
eg o
V is
ig a
ris is
sh ape
ind s
ĠM arg
Ġautom atically
Ġsil ver
ĠR od
Ġcross ing
head er
Ġneut ron
ĠDes pite
de p
ĠSy dney
Ġbase ball
b d
ist ence
ann er
Ġco oper
an th
Ġmur der
Ġele v
ĠC orn
F urthermore
ĠF ire
ure r
ĠF air
Ġperform ances
S l
ĠO nt
Ġpl ate
Ġgeneral ization
Ġ Å
ĠW rit
d ashed
ĠH ard
F S
Ġconvent ional
ĠM P
ĠS em
Ġplas ma
ĠR en
Ġrequire ment
Ġaff ine
Ġembedd ed
conn ected
ĠInst ead
Ġpl ants
Pro v
Ġsimilar ity
ymm etry
ĠPak istan
Ġeas tern
ĠL ocal
Cur rent
ĠS a
Ġbenef its
Che ck
form at
Ġl iber
Ġindependent ly
ĠGl obal
ff ect
Ġdiscuss ions
ĠEx t
Ġrepl acing
s ort
\| ^
Ġcy l
Ġent anglement
ĠH un
ĠInd epend
ric s
her ic
Ġtro ops
S che
O p
up date
ob e
Ġhon or
val ued
Ġinput s
Ġsupport ing
l at
Ġinter pol
c ross
Ġarm s
ĠGu ard
Ġp erman
Ġfrequ ently
Ġd t
Ġcompar ing
int ro
Ġkn ew
Ġf iber
Ġhe ro
el le
}{* }{
or gan
sub stack
Ġte le
av ity
el ly
Ġes cape
Ġw ire
}} )$
D ep
Ġcov ariance
ĠC reek
ĠMc C
Ġw arm
Ġadv ance
on ym
Ġturb ul
Ġdecre asing
Ġgener ators
Ġparticip ants
Ph ys
Ġw ish
}} =\
ĠF ermi
ub b
Ġf resh
ĠUn ivers
ĠS at
ĠReg ion
ĠL ew
Ġch iral
ĠS us
Ġmin ister
Ġexhib it
d irect
Å Ĥ
ĠCl ark
ĠP C
Ġs ell
ir ror
it o
t or
Ġcoupl ings
fil ter
y al
ord ers
k h
C ent
ann a
ĠD E
Ġang les
ĠV iet
in dependent
ĠL ear
Ġv ort
ĠR iemann
Ġdescrib ing
ĠM ond
Ġen em
Ġproject ive
ĠAd am
B I
f r
Ġsold iers
per iod
Ġe ye
Ġmunic ipality
Ġsub section
Ġra ise
M usic
W id
ĠOlymp ic
int s
) ),
Ġc e
ipl es
Ġneigh bour
ĠAn y
ĠD C
sup er
Ġw itness
Ġcontrol s
af e
ur i
appro xim
N ov
Ġcont ro
D L
ĠAs sum
}) (
Ġcom plicated
ĠA ge
Ġpseud o
Ġlook ed
h ou
ĠL ast
Ġpl otted
ĠW ho
pr ivate
ĠB ad
ĠL abor
Ġkin etic
ra ble
Ġappear ances
Ġnewsp aper
Ġcontrad iction
com ponent
Ġsubset s
ĠN ether
Ġbo olean
Ġf old
Ġdoc uments
un finished
ĠT HE
U M
Ġharm onic
Ġstri p
et ing
Ġhapp ened
Ġhe ar
un ing
l floor
} <
Ġsent ence
Ġrecogn ized
Ġh ist
LA SS
Be fore
ĠC NN
Ġ urban
Ġap art
Ġat om
Ã £
com ment
b lem
con sin
' )$
iam ond
Ġkeep ing
Ġsub s
Ġindust rial
ell o
Ġp ulse
Ġc ricket
Ġco herent
St ep
man ifold
Ġinstit utions
| =
V ar
Ġthem e
19 36
Ġconcern s
Ġperiod s
Ġattempt s
Ġd ance
Ġrob ot
nav bar
Ġa thlet
RE F
ink ing
Ġtop ic
Ġimmedi ate
ĠOffic ial
w all
Ġisol ated
n ic
ĠL ive
ut or
requ est
Ġsp ring
Ġcustom ers
f amily
c over
Re call
Ġprov ince
ip art
l m
Right arrow
ra ine
Al so
Ġfram es
pl us
Ġsp herical
ĠPe ak
Ġ{ }
}\ ;
Ġdef ect
S N
r floor
;\ ;
Ġc art
Ġ$\ |
ĠT witter
ĠOn ce
ĠBe ach
ĠL ike
act or
Ġsol o
ta ges
Ġinteg ers
ĠAr gent
um ps
} ~\
Ġab stract
Ġdef ense
H ar
Ġv ision
T oken
ul ing
iss ions
Ġdistingu ish
Ġcon formal
ĠG rant
ere n
Ġfac ility
Ġlabel ed
ĠKore an
nt z
ĠSur vey
Ġclos ure
in ator
Ġm el
= -\
Ġsm art
Ġhol es
ĠW ed
ib ilities
Ġresult ed
ĠEx ec
Ġconven ient
Ġre nd
ĠĠĠĠĠĠĠĠ ĠĠĠĠĊ
R C
Ġg rew
Ġt argets
Ġt rib
Ġsmall est
irt y
Ġre ward
Big l
Ġfill ed
ĠN umber
ĠT y
ĠC irc
gra v
cont rol
ĠEl izabeth
math ds
g ray
at ivity
Ġj ump
Ġorb its
M c
augh t
Ġcons ult
ĠA venue
bour ne
l ayer
igh th
Re v
ĠH and
Ġrow s
B P
Aust ral
? âĢĿ
dom ain
Ġcar bon
ul ator
)= (
ĠR a
th on
Ġhous ing
ĠI S
Ġcol ors
ĠR aj
k ip
Ġex erc
Ġweak ly
Ġpropag ation
Ġan isot
get s
ĠTr ust
Cont ent
ĠTor onto
ĠCor ps
W E
Com ponent
ĠRe al
Ġspl itting
cy cle
ĠH ay
s n
B bb
Ġwhe never
ĠL uc
Ġmechanism s
out put
Ġconsec utive
Ġb ow
Ġbl og
Ġw ing
ĠV en
ĠM ic
du al
st atus
ĠF ox
ĠOr ig
ĠEngine ering
ord on
Ġpotential ly
Ġv otes
Ġdis joint
R ad
ĠN ations
Ġcoll isions
pl es
D en
Ġsupport s
\, ,
Ġanim als
ot i
Ġnot able
Back ground
a use
ĠA D
or ney
s rc
Ġsw im
Ġin n
Ġprodu cing
Ġf ell
S outh
Ġpl ots
ili ary
w ill
ment ation
Ġbel ief
G P
ĠR E
ĠQ CD
Ġsk ills
ut t
gra de
Ġf ish
ĠK ir
ane ous
our ney
M ain
Ġindic ating
O ptions
b etween
> >
comple x
H D
osoph y
Ġb odies
Ġm eta
Ġpat ient
}) _{
' }\
est abl
as i
Ġfe as
) |\
Ġview ed
c ategory
Ġclust ering
E v
Ä į
ĠI d
Ġprom oted
H is
it led
ĠW he
Ġse ed
) &
uz z
Ġd anger
in istic
Ġk ick
Ġre ar
Ġabund ance
ask a
ort he
ĠOnt ario
Ġre normal
Ġmess ages
j son
Big r
Ġassist ant
it ory
' $,
Ġsur ve
ple x
m atch
Ġcon e
ou red
Ġlog arithm
Ġd uration
ĠDi rac
Ġin vert
ĠM ach
Ġlet ters
l b
Ġprote in
Ġap plies
ĠS ant
Ġdiam eter
Ġcompet ed
ort ion
w ing
is a
Ġv ice
Ġdisplay ed
Ġpublic ation
R ow
if est
Ġf ul
Ġadapt ed
Ġb ary
up le
ĠD am
Ġf itted
ak ed
Ġ rom
Ġv ideos
over set
Ġdestroy ed
s v
co ordin
Ġelement ary
sequ ences
Ġ& $
19 18
K S
Ġjob s
x ml
u f
Ġent ertain
Ġcirc ular
cer ning
V M
ut enant
ĠSte ve
Ġstruct ural
N ull
Ġs and
r g
N C
w eg
edd ing
Ġres ident
re a
ĠNether lands
19 38
T em
Ġcomm it
Ġrapid ly
Ġcounter part
ĠPri ze
We b
Ġcan cell
w as
oid al
ĠR os
che stra
Ġw al
ĠMin nes
ĠAut hor
Ġf uel
Ġcol le
ap ore
per or
s ite
Ġstudy ing
st ruction
ĠS ab
t yp
Ġwin ners
ĠTh rough
Ġen able
Tr ue
Ġpoint ed
Ġchalleng ing
ab ove
Ġneigh b
? "
ann ot
w s
Ġtraject ories
Ġinj ury
Ġdiss ip
ch a
p ur
} &\
bound ed
ĠA ud
Ġdec ays
Ġint rinsic
ĠChrist mas
st d
ĠAs sume
ater n
Ġhistor ic
Ġappear ing
Ã¡ n
o or
C ref
De finition
resp onse
Ġexcell ent
Ġfin itely
Ġmod er
Ġret rie
ĠI raq
ur ance
As sume
Ġpeak s
Ġtit les
Ġher self
ĠB all
Ġcertain ly
Con n
Ġadm its
P age
il ine
ĠCamb ridge
Ġinvest ment
ĠT al
Ġd war
V ol
Ġb omb
ĠMinnes ota
ser ver
here nce
sh arp
e h
Ġpre ced
serv ice
Ġacc ident
Ġun able
k ers
ĠL es
Ġstandard s
rap y
* \
ĠR ome
Ġcap able
Ġne ither
Comm and
H am
. }\
ĠAre a
ver age
Ġd rag
ĠN a
Ġiter ations
ik a
Ġpop ulations
k ov
H O
ess el
ar ial
Ġperturb ations
mod ules
19 37
Ġw onder
Ġy ellow
su ccess
Ġ$ [\
ur g
lig ible
G en
Ġdef end
Ġout come
ow a
ĠD er
Ġlist ing
Ġclass ified
Ġspac etime
ron ze
G E
Ġf ont
Ġdedu ce
Ġdrop ped
phys ical
Ġw alls
requ ency
ĠT ok
maz on
Ġvan ishes
f ast
v y
or ough
the ory
Ġtem plate
A cknowledg
viron ments
Ġgain ed
H M
Ġr ural
ag a
i Äĩ
ĠF inal
ĠAn th
contain er
)} _{\
'' ,
ly wood
C ON
ĠM ill
$ _{\
Ġp y
Ġaccount s
Ġtri angle
Ġrece iving
Ġbig gest
Ġstead y
ĠDav is
ĠH op
us hed
od ge
mathbb m
Ġwe ather
he red
Att ribute
ar ia
P rop
ĠB ridge
U V
ĠH an
Ñ ĥ
AT ION
ĠC art
Ġhold ing
ĉĉĉĉĉĉĉĉ ĉĉĉĉĉĉĉĉ
tri angle
d rop
ĠAnt on
ĠAb out
h ow
ĠK al
ĠH o
ĠSan ta
Ġtr unc
d z
Ġcomm ittee
ĠCon f
ĠB ru
Ġdis cret
Ġag ric
= (\
Ġaud io
Ġconvert ed
Ġcall ing
now ledge
Ġso le
iz able
}_{ {\
Ġa ux
urs day
Ġl y
ast y
Ġexplan ation
we ak
per ial
Ġsp ons
Ġsp arse
T ag
pos ing
Ġoffic ially
& -
C ast
Ġsh arp
Ġenc oding
Ġmusic ians
Ġcomp re
l r
& $
c raft
ag ram
ĠW ars
T A
Def ault
Y PE
ĠC ub
Ġcorrespond ence
[ "
Ġco hom
Ġanalog ous
t b
Ġdown load
ĠĠĠĠĠĠĠĠĠĠĠĠĠĠĠĠ ĠĠ
Ġtri p
.... ....
Ġcool ing
Ġg irls
ce ived
Ġreal ized
Ġcir cles
Ġnormal ization
Ġcont est
Ġd oll
Ġend ing
off s
Ġ+ =
l oss
Ġh air
Ap p
ent ric
Ġf aces
Ġk inem
Pl ay
Ġconf irm
N O
er on
qu arters
}) )
Ġl osing
ĠPol icy
Ġhost ed
St at
id ge
M ost
Ġopin ion
bel ow
le e
ĠD un
force ment
st s
Ġlin ked
ĠN ULL
ud den
Ġmon ot
Ġequip ped
U psilon
inst ance
R S
Ġsepar ately
Ġdecl ared
U I
lear ning
: (
Ġcomplet ion
Ġhyper bolic
Ġemploy ees
Ġro ut
10 5
Ġch ampion
] ^{
Ġc arri
ĠH art
Ġanaly tical
Ġrang es
V ID
ĠS ky
t ensor
Ġregist ered
Ġbo ost
u y
ĠN E
Ġ$ <
Ġrelations hips
ĠE ric
Ġaver aged
ĠĠĠĠĠĠĠĠĠĠĠĠĠĠĠĠ ĠĠĠĠĠ
Ġhom ot
ĠS E
n ight
ĉ ĠĠĠ
Ġ$ $\
ger y
Ġest ate
Ġop posed
ĠL ady
f air
ĠM ap
Ġsc ulpt
Ġult imately
19 35
In ternational
ĠA k
cc c
Ġhel ps
Ġcon dens
Ġrac es
ĠRe volution
m ad
. },
Ġpriv acy
enn a
er al
riz ona
Ġprob e
Ġord inary
Ã£ o
Ġviol ence
ĠWis consin
Ġent ity
Ġinter ference
Ã© e
Ġp lease
ĠStep hen
Ġun s
Ġwor st
Ġexpon ent
qu es
Ġn an
comm on
Ġcrit erion
ĠE nt
Ġclass ic
Ġpix els
ĠJ ordan
or row
Ġre vers
' =
Ġstat ements
V ER
Ġb ars
ĠSt adium
B est
Ġcont emporary
Ġindu ces
k g
ĠF I
13 0
Ġeas ier
ĠE s
ĠS on
Ġl ists
b es
Ġpropos al
Ġp ed
Ġgu ide
fort unately
yn c
Ġrem ember
ch itz
Ġfund s
un s
rand om
Ġ} {\
b ug
Ġst ored
ĠA li
ĠCap tain
ple ctic
ry pt
sub float
}_ +
Ġinterpre ted
Ġloss es
Ġnon zero
Ġcho osing
Ġinter sect
L M
Ġreal istic
Ġauthor ities
K E
Ġatt ribute
Ġw ait
Ġprep ared
Ã ¸
) |^
Ġcoll apse
vi ation
t ically
ĠĠĠĠĠĠĠĠĠĠĠĠĠĠĠĠ ĠĠĠĠ
ĠK itt
Ġcollabor ation
ĠCount ry
Ġproper ly
ag en
Ġspect rosc
ĠPhil adelphia
res ol
th an
ak h
id i
Ġsign s
eng ers
ro ot
ĠT ai
Ġadminist rative
con c
ĠS P
Ġar ise
Ġg ene
l an
Ġinstrum ent
Ġyoung er
ĠEu clidean
g p
tain ment
ĠL ow
um ul
ĠComm and
Ġsuff ices
Ġconcern ed
ĠG ib
ĠAmeric ans
Ġresear chers
Ġmathemat ical
S i
ch annel
S ol
Ġw ins
Ġdep ict
Ġdis pl
Ġ ^{\
ĠP a
ĠBook s
ĠS che
Ex p
ref erence
Ġform ally
Ġfight ing
reg on
ĠD om
ues day
Ġredu cing
Ġp iano
Ġstre t
g rid
ho le
Ġatta ched
n etwork
ĠN AS
V ersion
Ġprom pt
ĠC P
ĠB rig
Ġregard ed
eles cope
ĠPrem ier
ĠSpr ing
Person al
param s
Ġover lap
Ġ{ {\
B el
und erset
Ġline arly
Ġdisc overy
M et
}}\ ,
p ush
Ġfind ings
Ġf iction
Ġab and
writ ten
nes day
isl ative
Ġman ip
od s
Ġcon jecture
Ġarg ued
th rough
Ġst one
19 00
Ġgradu ated
se ason
Ġjud ge
ĠK ey
Ġrec urs
Ġquot ient
P at
Ġref lection
in itial
ĠQueens land
place ment
Ġbeaut iful
Ä ±
hy per
AB LE
if iers
Equ al
l u
st yles
Ġsc oring
Ġinfl ation
Ġmarg inal
Ġte aching
Ġexpat riate
19 19
}= (
}} }{
uch y
G G
Ġb ed
ĠM ath
ou ch
Ġcomp ris
ĠAd ditionally
^{ [
R T
H igh
aw n
Ġhom omorphism
19 33
Ġsignific ance
fl at
ific ial
ĠMar sh
r ust
chang ed
Hand ler
Ġd im
pol y
Ġresist ance
ĠGold en
Ġsp an
)} =
Ġfac ilit
Ġhe ter
bt n
' }$
ĠCE O
Ġf er
Ġch a
Ġgu ess
os l
i pe
d ocument
\| _{\
Ġdis appe
19 14
$ --
Ġdesc ript
ĠP ers
Ġreach ing
ĠD ark
ĠSwed en
11 1
Ġdec isions
Ġinstall ed
Ġc ab
Ġcy cles
F P
ab et
Ġspe aking
im ary
F O
ĠSwed ish
H P
ĠL td
M E
Ġwe alth
ĠA thlet
A nt
Ġsec ure
Ġcred it
D ec
F actory
ic ial
Ġst orm
ed u
ĠH erm
Ġgrant ed
display math
Ġdefe at
ire ment
ĠC are
Ġdep icted
Ġc od
Ġim possible
Inst ance
AR T
l arg
em et
e ach
Ġne ur
paramet ers
se par
pt r
Ġch ose
og g
h d
Ġrec ur
Ġthrow s
Ð ²
) )$.
Ġhum ans
on i
ro ke
Ġ ens
ĠO t
Ġb its
ĠA L
Ġcal ibration
ure au
Ġne arest
Ġad vent
c u
f riend
asc ript
or b
lim it
Ġrank ed
y ard
Ġscen es
Ġmunic ipal
Ġasympt ot
on om
ĠIn vest
ound ed
}) -
ĠW inter
auto ref
ev in
Ġre tain
Ġde formation
d ouble
ĠAp ple
en um
Ġelli ptic
Ġsett lement
Ġgu ard
Ġorder ing
iv als
con v
Ġn ice
Be cause
ĠAl f
Ġlog ic
Ġsup posed
Ġbos on
Ġpol l
' ).
Ġv ot
Ġcut s
Ġparticip ated
S ON
ĠS O
Ġ }$
Sim ilarly
ĠDu ke
Ar g
Ġexpl os
ak s
p erson
Ġinf rastructure
ĠCar lo
m atic
is er
ien ced
ĠN GC
}. \
ser ies
ĠG er
Ġw el
Ġb atter
Ġt ack
Ġpass es
det erm
ĠA bb
Ġmole cules
ĠW el
Ġthous ands
Ġre aches
r in
ĠAnd erson
ast e
Ġillust rate
Ass ociation
r ase
Ġc as
ur ches
Ġveloc ities
ĠF R
ĠM A
Ġocc asion
ĠMe an
Ġt error
us cript
ĠIndian a
g ame
Ġs an
Ġg iant
Ġthink ing
fra red
Ġformal ism
ĠM S
end ar
ef e
Ġh all
19 28
19 29
ĠB att
pl er
th ree
Ġconstra ined
à ¸
Ġim plicit
equ ival
Ġcompre hens
tot al
be c
ĠSh ort
ĠReg iment
Ġterrit ory
ĠBe fore
g iven
Ġpurch ased
Ġen vironments
ĠOb serv
h n
{ [
Ġconsider ation
oust ic
pert urb
Ġsh aring
fra g
est ion
P ublic
field s
Ġm m
19 34
ib liography
ĠMond ay
}^{ (\
Ġg one
ĠM ember
Ġcon vention
ĠB H
~ (
19 10
ili ar
Ġvalid ation
ĠR oss
ĠR ights
T ER
Ġperform s
H er
Ġcosm ic
Ġcomp ens
ĠM oh
an alysis
ĠM it
O pen
Ġfew er
Ġcorrel ated
C N
Ġguarant ee
Ġs ight
ĠRes ults
14 0
e val
Ġm al
ennes see
ĠT urn
Ġart s
Ġb inding
Â °
vent h
L ay
Ġin hab
e fined
ang a
Ġprov en
Ġsee ing
ĠR ose
ĠPr inc
1 15
Ġs ensor
Ġin her
u able
Ġatmosp here
Ġvis ited
Ġprov es
Ġarrest ed
Fil ter
ĠR ight
C ell
ĠColor ado
s is
Ġintegral s
S u
Ġim aging
re v
. (\
Ġ[ ]
19 17
ĠTur key
Ġtrig ger
ips chitz
at en
emet ery
Ġra w
V er
Ġstand ing
c n
St ar
p otential
d est
19 32
^- $
T ask
Ġsuff ered
ĠG allery
Ġlat ent
weg ian
p air
ig rants
i ability
Ġre form
fin ement
Ġtrans mit
spec ific
p he
ĠSer b
Ġen hanced
s ample
b ad
var pi
Ġfound er
ĠN ick
ĠRem ark
Ġapplic able
$ (\
). }
Ġse ats
c are
Ġcamp us
s es
F ix
ĠA z
Ġn ob
O K
Ġsyn chron
Ġop position
ĠRe port
Ġauthor ity
ou ds
ĠLore ntz
ĠNew ton
Ġexcit ation
Ġp ot
Ġres c
Ġdr ift
I E
' ),
ant asy
v ard
Ġre fere
ic ian
ot ional
Ġform ing
Ġun stable
ĠH om
Ġsit uations
deg ree
G erman
sing le
Ġgener ality
1 12
T ree
ĠI P
}\ }$
Ġus age
ĠP age
ĠE X
Ġdesign s
ill ed
x rightarrow
ĠJ oh
ĠAl ice
Ġpres c
periment al
Ġv irt
Ġpotential s
al o
Ġhard ware
sat isf
Ġanalyz ed
ur d
st ud
om atic
ĠC zech
ĠG ree
ĠStand ard
Ġcent ered
Ġg ender
Ġoccup ied
Ġsatell ite
ĠI mage
Ġs we
Ġd ream
M O
Ġconnect ing
Ġconcept s
Ġhab it
E Q
F ONT
or ient
ĠN az
ĠC A
sh ould
Ġdo ctor
ĠD rag
Ġl es
ĠD onald
Ġgreat est
Ġs ale
ĠSt ock
Ġhousehold s
ĠC ost
}} }$
ĠO cean
* /
Ġappro ved
An y
m ut
Ġa id
Ġtor us
Out put
T P
Ġoutput s
\ /
ta x
Ġvari ant
w rap
ĠB ishop
Ġmechan ical
EE E
Ġreturn ing
Ġcomb inations
ĠLab our
Ġencou rag
Ġp un
ĠF ellow
Ġindu ct
}( -
ĠV iew
Dav id
Ġheav ily
ow nt
lay out
Ġab elian
m ic
I B
class es
\, .
OR T
Ġtherm od
Ġw rest
ĠT a
ly n
Ġpre mi
^ +\
Ġrelax ation
F rench
Ġdeterm ines
t ask
W omen
ĠR et
Ġp rices
un es
ĠAm ong
19 22
S ym
) !
m arg
iss ip
G s
Ġsubject s
ist ing
ĠCast le
el ines
Ġren amed
ĠL ind
or ous
Ġprogram me
Ġag ency
Ch rist
Ġnumer ically
rupt ion
ĠSt ory
7 00
Ġseg ments
ist ically
Ġr ugby
ĠInd ones
c us
Ġphenomen on
Ġpar ish
dist ribution
Ġpresent ation
Ġbusiness es
u j
Ġattrib utes
W est
fact or
Ġconsist ency
ĠOffic er
outhe ast
Ġs ac
ĠD or
Ġcomb ining
ho ok
en z
im od
Ġf estival
in ates
ut s
ĠM un
Ġcount s
as et
ĠS ign
k ish
ĠEn vironment
K L
ĠH D
c ounter
}| ^
Ġexpos ure
ĠS quad
25 5
Ġpercent age
Ġconsum ption
O pt
Ġinfin ity
Ġb atch
Ġca using
Ġdi pl
Ġalle ged
Ġt aught
comp act
ive red
Cont roller
Ġopport unities
Ġch apter
Ġac id
ĠCh annel
Ġto wer
' )\
q l
Q L
ĠB at
ĠE P
" |
Ġin tern
Ġpil ot
ffic ial
B as
Ġengine er
Ġtw enty
umer ical
Ġrec overy
ĠH ou
sol id
Ġcon crete
list ing
Ġm ount
Ġ ĉ
Ġfac ulty
oid s
âĢĿ ,
um a
Con tain
Ġproject ed
ari ate
ĠM iller
ant e
Ġy ards
ĠSing apore
Ġequ als
ism s
ĠE instein
Ġtrack ing
19 24
Ġoper ate
Ġupd ates
D et
up per
h ist
ropol itan
vious ly
B F
ĠLew is
al ion
r ine
ĠC ond
Ġintrodu cing
Ġnov els
Ġstr ings
ex ec
Ġdesign ated
an aly
ĠHar ry
Ġamount s
un iform
Ġut ility
Ġpar liament
Ġcrow d
Ġinst ability
Ġan imal
v ia
ov en
ĠW at
v skip
ĠA rizona
Ġsch olar
ĠP A
Ġm ere
Ġt ens
}, {\
Ġalign ment
Ġcompos er
ile y
Ġbuff er
du ctor
je ctions
Ġres id
ĠT oday
let ter
aw are
w ich
reg ion
Ġtit led
ĠBro ther
om ot
Ġad vis
Ġhapp y
19 27
ot ype
Ġpo et
Form at
Ġdocument ary
Ġdec ade
ut her
ar o
ĠC ode
Ġhot el
ck er
ĠMar ia
ĠF ord
ĠB rand
ĠC ru
Ġp ra
19 31
rad ius
ĠG L
Ġshe ar
t ex
ĠO regon
st an
ĠComm unic
ĠS av
Ġformul as
b rane
) }^
Ġd il
i ate
ĠMed al
Ġb ought
}_{ (
con ver
Res ource
Ġtown s
ĠR ic
ĠCh ildren
ĠF ac
Ġout per
no ise
Ġwor se
ĠM ilitary
ĠR oute
p ref
Ã º
Ġwin ter
Ġaccom pl
m aster
ere r
ut r
Ġan ten
cent ral
D at
g ood
Ġre in
Ġto ken
ĠChar l
v able
B uffer
ĠT ony
Ġm it
Ġm ent
ĠConn ect
as hi
ab i
à ¥
ĠE U
M I
Ġobserv ables
Ġsh ares
H ome
ott en
ĠBuild ing
ri or
ST M
Ġbran ches
Ġsched uled
E u
D el
#### ####
Ġre ly
Ġel astic
ĠP DF
Ġfact s
m ers
Ġfav our
cent ly
ĠC ook
ĠA P
Ġext ensions
Ġaccom mod
ĠSta ff
s a
Ar ch
sy nc
Ġj ets
Ġpen alty
Ġlo an
rac ks
ĠPhilipp ines
P an
and y
( |
ĠL apl
O rig
am l
Ġp ole
at ics
): =\
Ġinterest s
ul ner
AC K
ĠD ra
ĠAtl antic
Ġtrans action
respect ively
f g
Ġrese mb
ĠRe ad
ĠTh ursday
Ġplan ets
oc y
Ġslow ly
Ġ ..
Se lect
st ances
S ong
//////// ////////
Ġweap ons
Ġcon version
ĠTrans port
ĠE vent
Ġgener ates
iv ation
Ġsampl ed
Ġh un
Ġun ity
}$ ).
ĠAr thur
Ñ ı
ĠA mb
ĠHol y
re nd
sup ervised
Ġreve als
le ments
ĠAn alysis
ĠC ab
âĢ ĺ
Ġint elligence
f ly
w ick
St r
Ġsem antic
eb ox
Ġexp ensive
left rightarrow
Ġhas h
Ġsynt hetic
Ġmix ture
19 25
Ġstop ped
ivers ary
ĠC ON
Ġexam ine
Ġh its
Ġgrow s
N L
Ġk id
ov ing
ĠF ederation
}} +
col n
sp aces
Ġchain s
ĠK ansas
ol is
sim ple
B undle
ch ild
Ġgu est
equ al
Ġn arr
be fore
Ġsubstant ial
Ġdis order
ĠLe on
er os
Ġc risis
Ġcl ients
U K
Ġle af
Ġ$- $
ĠâĢ ¦
Ġm art
Cre ate
jav ascript
M a
ĠJew s
ĠCont rol
gl s
M D
Ġcap tain
Ġse es
ĠE uler
Ġk ids
S w
D om
Ġm and
Ġhydro gen
J o
Ġappe al
b oth
pol ar
spec ial
m etric
Ġacceler ation
Ġf alls
ĠK at
L ocation
Ġderiv ation
ĠMem orial
D esc
L in
al f
ak ers
ĠA PI
Ġdiver gence
Ġdec or
Ġarg ue
Ġc avity
Ġexper ienced
Ġdom estic
Ġoff ering
Ġadapt ation
al og
ĠJ am
Ġsurpr ising
Ġkill ing
Ġs udden
old er
iss ue
ĠT ennessee
Ġ\ #
)\ ,\
ĠSo ft
make box
Ġpermut ation
fig s
Ġs urn
ĠD at
C ap
J ust
ate ver
Ġprom ote
iline ar
re q
ple t
R o
Ġm ob
) /\
sup p
ĠMiss ouri
ĠSim on
osp it
is ons
p ie
Ġpurch ase
De v
g on
Ġst ores
Ġgovern or
ĠM att
alax y
wit zer
Ġpure ly
Ġneg ligible
19 12
L eg
Ġult ra
St yle
k it
ut ely
ĠP ier
Ġrac ing
ag ues
red it
Ġd y
ĠN av
S ign
Ġ< !--
] _{
ĠS ym
( &
P res
opt imal
Ġrema inder
is ition
Ġreplace ment
Ð ´
Ġinequ alities
Ġf ear
ĠA h
osc ow
dist ance
Ġvan ishing
ĠV o
Ġjournal ist
Ġcorrect ly
ĠS R
Ġknow s
Ġb ath
ĠMe V
ĠEx ample
b ow
W S
Ġdistrict s
19 21
Ġcontroll er
Ġser ial
in cess
, ~
Ġcon cerning
Ġvol unte
ĠF lo
Ġv ent
Ġc riminal
Will iam
n ik
Ġvol tage
ĠNor way
A ug
oc or
ual ity
10 2
Ġful fill
Ġtun nel
pr ise
Le vel
big oplus
M any
Ġcent ers
con nection
ĠN FL
Bi ography
ĠRe call
ĠT an
ain ed
Ġb an
ex pl
Ġincreasing ly
S em
ĠB lo
Ġcl ock
ĠFore ign
ĠDig ital
ĠN orm
Ġfem ales
olog ists
Ġcohom ology
ac cess
Ġmark ets
ĠB rian
ĠSpec ifically
ĠEnter tainment
19 23
Ġmer ger
Ġmin ute
ĠV ari
trans form
B s
Ġd iverse
D own
Ġ\ }$
ĠAff airs
Ġrec overed
it ud
Ġaut omorphism
Ġcl ip
ord ered
Ġanom al
roll ed
ĠD R
19 26
c oupl
mod al
A v
ab olic
Ġ ram
ĠS n
Ġtot ally
Bl ack
ĠF ood
}\ !
Ġas sembly
Ġdifficult y
P e
Ġs leep
Ġdeb ate
witzer land
Ġlo ops
Ġexper iences
ĠA mazon
F IG
Ġinvol ve
L ife
ĠH REF
Ġt ends
Pro ject
, (
const ruct
Ġ ille
gress ive
Ġattempt ed
ĠWed nesday
Ġrel iable
Ġa cknowled
Ġn a
Ġcryst al
on omy
Ġsche dule
Ġen ables
* {-
A ng
in us
ĠMag azine
ĠG ab
] _
U pdate
Ġca ught
ĠT uesday
Ġleg end
d if
= {\
Ġtalk ing
Ġmay be
ĠAp p
17 0
Ġ url
ĠCol on
ĠHigh way
Ġcomm itted
cont in
st op
Ġpract ices
}] $
et ary
cre asing
s ome
el son
Ġsee k
Ġsegment ation
Ġgeodes ic
\ }}
in ch
Ġembedd ings
Ġpaint ing
Ġdec ide
Ġ ),
Ġsu it
Ġarr ive
But ton
Ġconserv ative
c ov
Ġre verse
ĠP itt
cons istent
Com parison
ĠG h
i ot
Ġm ort
ig e
ĠC LASS
Ġrece iver
ĠMicro soft
ĠG reg
ĠGu ide
Ġhom es
Ġwa iting
ors ion
Ġcon clusions
az e
d on
is y
19 15
rem ove
Ġaux iliary
itect ure
d ynamic
Ġro of
ĠMary land
w ords
ĠDo ctor
w estern
Ġdel ivered
Ġmanifold s
Ġprefer red
Ġch airman
E st
oci ated
Ġhor se
ro it
Ġle ct
ag an
ĠPhil ip
tt p
Ġf ly
Ġf usion
ĠJun ior
Ġa f
Ex ample
Ġtra ins
Ġferm ions
ĠU se
ĠC S
Ġmaintain ed
Ġd a
Ġstri ke
hal f
ĠH ur
V ari
Ġcontrib uted
v as
Equ als
ra it
Ġassign ment
ĠB udd
Ġ\, ,
Ġra in
opy right
ĠS ound
center line
styles he
e ctions
ĠâĢ ¢
Ġcontinu ity
he im
ĠK han
f iles
S earch
col head
ĠJ ane
n one
Ġd ry
ĠMex ican
P N
A f
Ġsh ut
Ġimag inary
Ġse ar
L ength
Ġthe atre
Ġexec uted
P ack
@ {}
ĠN et
C V
Ġpost ed
ĠExec utive
Ġtang ent
Ġjo ining
Val id
Ġcomb at
Ġman uscript
ĠMal ays
Ġinv ariance
b urn
ĠAr k
' (\
O lymp
Ġdr ivers
ĠM oon
Ġarr ival
Ġst uff
19 16
W A
is ations
ĠSe ason
n as
Ġar ises
Ġf ault
ing ham
ĠS ri
we alth
ĠL iter
Ġclass ifier
g i
gh an
}} +\
f ixed
B r
id ay
ar on
Col umn
ĠA ction
az a
Ġb id
Ġmulti plication
3 60
du ate
Ġconclud ed
en ance
G D
iam i
ren ew
c ers
Ġshoot ing
ĠCh ap
Ġacc um
res ize
Ġperman ent
}}\ \
% .
Ġactiv ation
ĠOb ama
she ll
Ġw rap
ĠO R
Ġaff ili
Ġhol omorphic
ĠMan chester
Ġobserv able
! "
ĠF M
ĠBar on
d ra
o es
gl as
Ġimpro vements
Ġre new
V ideo
Ġprofess ion
ĠE th
Ġb rown
Ġd ialog
Ġ\\ [
Ġsup erv
cho ose
big skip
' ,\
ĠB ased
, .
Ġlimit ing
ĠPal est
Ġrelig ion
\' {
f ol
Ġab use
Ġjust ice
ist ant
Ġaccom pan
ik h
Ġterm inal
J apan
Ġincorpor ated
Ġproof s
Q ue
Ġgl ob
ĠD ream
B T
Ġsix th
ĠMel bourne
Ġad ult
Ġadv oc
d am
ĠM unic
}} -
ĠÂ »
und les
over s
off set
G ra
ĠCh all
Ġhel ping
}$ ;
ang ular
s un
Ð ¼
Ġbur ied
Ġrel ativistic
Ġweek end
ĠCo oper
Ġclin ical
_{ {
CO L
B D
. '
Ġlength s
Ġeven ing
de ep
requ ire
Ġcompet itive
ch arge
an es
O ct
Ġdem oc
a ire
ĠW indows
Ġaccess ible
Ġe c
C I
ĠCon sequently
ĠD NA
sup port
ĠUk raine
ail s
our se
Ġinstit ution
symm etric
Ġ{ @
enc ing
stand ard
Ġb are
k ind
Ġdis put
B U
ĠCom b
Ġbro ke
ĠDe ep
ĠDi ego
G O
on line
Ġs ought
Ġreg ister
conn ect
St ud
ĠF ront
Ġworld wide
od a
Ġrem ote
ampl ing
ĠUn iverse
Ġev ident
Ġsk in
Ġmodul i
f ef
Ġwindow s
Ġd otted
},\ \
Ã© s
u u
Ġin form
}{ $
ĠS quare
ĠB arn
ĠM L
ĠAdminist ration
Ġsymm etries
Ġj ourney
ĠSt one
ĠB ab
Ġneg oti
\ -
m ay
am ents
ĠB urn
r ator
Ġresol ved
bib liography
Ġregular ity
S W
A ccess
Ġdeg ener
rat io
10 4
rict ion
N orth
ĠI T
Ġph on
Ġpro ton
ĠA I
Ġoscill ations
ĉ čĊ
Ġfail s
inem a
Ġ$ -\
const ant
ĠP rom
E very
Ġs now
Ġd iversity
Can adian
Ġp atch
A wards
e en
\!\! \!\!
ourn als
E p
Ġrec ip
l iving
ill ery
Ġproced ures
Ġexhib ition
Ġmetall icity
Ġshort ly
ĠTh ird
19 13
ĠSup port
l ined
r ats
Ġcustom er
ĠTr ue
p f
ĠC rit
enn y
Ġexpl ored
l ad
Ġsym plectic
d or
ĠF er
Ġdeterm inistic
indu ced
Ġinflu enced
p aper
Ġb ases
g tr
i Ã³n
ore l
ä ¸
ion ed
ĠV ideo
Ġw at
Ġl ose
ic ide
ett y
ĉĉĉ Ċ
ick ing
fef efe
h arm
ene z
E uro
Ġg ather
ĠMod ern
Ġcarry ing
Ġequ ally
el ve
Ġin g
s qu
Ġp itch
par se
Ġvari ability
Or der
ĠĠĠĠ ĠĊ
be cause
ĠG ram
Ġturn ing
ĠNever theless
D O
Ġtransform ed
Ġa u
Ġf aced
_{ (\
Ġvar ies
ĠViet nam
j et
ific ate
h yp
ĠSt art
ee per
âĢ ¢
]{ ./
Ġf ol
ub er
sim ilar
Ch ang
Ġtop ics
ĠSen ior
Ġ )$
pro perties
Ġvill ages
ĠAll en
ous es
Ġmeas uring
Ġover l
Ġcon sequences
Ġap pre
Ġland scape
: </
Ġexplain s
Ġfavor ite
ĠS ix
ĠChe ck
Ġgreat ly
back s
Ġregular ization
l ab
se q
in th
ĠHe art
f our
Ġch arts
ĠT en
Ġacc ord
ss on
ĠLear ning
et ter
Ġun us
Ġanalys es
he res
ĠP ear
ĠI l
Ġmanag ers
ĠM and
oc a
ĠR yan
ĠSc ient
ic ians
m ont
Ġsuper conduct
List ener
C rit
Ġflo at
ĠP ack
Ġseem ed
p in
ĠU l
ĠS F
ĠS af
che ll
Ġnot ing
Ġaim s
Ġcomb ine
Ġmedal ists
ab out
ĠRepresent atives
Ġshift s
ĠPh ot
// /
Ġd ates
inc ial
cell color
Ġv ic
ĠN ash
Ġcom fort
end if
Paramet er
Ġenc oder
Ġbr ings
ĠTown ship
ĠM oscow
Sp ace
Ġparamet riz
sh ips
+ |
ry st
ĠB ah
Ġfeas ible
ĠL O
text style
t n
un ior
ĠMo ore
ÃŃ a
ĠBase ball
Ġdeliver y
ply ing
ĠF ull
at hered
Ġfil ters
ĠKent ucky
Ġtra v
ub le
rid ges
M ich
Ġacc used
T ax
HT ML
B N
C ond
ache lor
Ġm ental
Olymp ic
D I
AL L
Ġread ers
ĠL icense
k t
Ġde pos
Ġlocal ization
vert ex
Ġcould n
ph oton
ess ions
Pl ot
ĠWh y
Ġm esh
im it
r ison
; ->
Ġensure s
is lation
Ġst im
Ġhundred s
con j
ren cy
Ġpresident ial
w indow
20 23
ĠSystem s
tem perature
ter ior
Ġneighb ors
Ġhomot opy
char acter
do or
ĠSil ver
Ser ver
Lay out
ys elf
Ġfact ory
Ġair port
ym atrix
z i
ht bp
Ġv ast
ant i
s ys
ĠN atural
ĠI r
oun ced
}) }\
um ann
ĠI mm
Ġaddress ed
ad ers
st age
ĠI owa
ubl in
Ġmod ification
ab ama
v m
Ġde leg
Ġsqu ares
O h
Ġeduc ational
Ġsingular ity
Ġefficient ly
sc ious
="../../../../ ../
Ġpos it
ment ed
Ġd amp
Cont rol
ĠTra ining
Ġfound ation
Ġport ray
Ġdeterm ining
Ġdip ole
Ġtransl ated
13 5
b x
Ġcrit ics
Ġk il
ĠFred er
ĠHot el
ĠSpace watch
Ġe cho
sc ription
Ġpr on
Ġg ift
Ġb ins
is ode
set t
ont r
}] \
$ =
int o
tr im
Ġcollect ive
$ /
Ġrank ing
ĠR ow
Ġband width
Ġbring ing
M ode
Ġfam iliar
ĠS witzerland
Ġrestrict ions
F inal
Ind eed
Ġassoci ate
ĠM agn
M ac
Ġcomput ations
int end
Sum mary
ĠTh ough
ĠC ape
Ġg ar
ĠB alt
Pro cess
aut h
Ġd s
ap os
% ,
ĠGree ce
col l
ĠReg ional
T O
Ġlif etime
Ġtechn ologies
Ġprinc iples
) <
). $$
Ġste el
rel im
w ang
Ġinstrum ents
Ġmov ies
Rec ord
ard o
Ġfore cast
Ġrig id
il st
l as
ĠM i
ĠAN D
Ġrequ iring
Ġrespons ibility
ens ively
Ġr ating
Ġl icens
ĠN ig
ug ar
Ġqu eries
per iments
ĠY ang
Z E
ab ric
Ġref used
ĠB os
`` `
Ġold est
ĠJ ay
iz ers
Ġsh orter
Ġcheck ed
s ig
Ġcompos ite
iv a
~ {\
renew command
n ie
Ġremov ing
) ~\
Ġorient ed
}$ $
< ?
Ġrad ii
Ġconver ge
( _
S ources
Ġfraction al
ict ional
Ġthere by
put ation
Ġre volution
ĠLin coln
vers ely
ĠWh it
Ġgood s
Ġprom otion
ĠC op
Ġ à¤
ĠH as
tot ype
Ġelectro magnetic
T ube
Ġdual ity
R ob
ĠPat rick
Ġb ronze
Ġcomprehens ive
P G
sh op
Ġmarket ing
ic ut
ĠB run
Ġqu bit
t ypes
Ġag ed
3 50
ip ped
n p
ta h
ĠC ra
y ou
Ġcan cel
) "
Fig ures
Ġnom inated
H R
19 11
Ġtri es
Ġtr uly
ĠIsra eli
Ġrequest s
Ġin cl
ro d
f ront
Ġbelong ing
Ġpreserv ed
yn asty
Ġannoun ce
c ost
Ġhead s
S ur
f requency
g ate
F in
Ġcomp ression
ail ing
att ered
ah oma
q ed
F rame
op ed
Ġexpl oration
aint enance
ĠAr ray
Ġshift ed
ag u
Ġer g
Ġco aches
Ġlimit ations
ell s
Ġdeterm ination
ĠL ib
B ibliography
Ġpip eline
orthe ast
ac on
Ġsett led
Ġobtain ing
Ġconsider able
})+ (\
P arams
Ġeduc ated
j u
res olution
amb ig
ari ants
n ed
ĠV in
Ġpres erve
19 08
ch t
B ased
Ġre b
Ġvan ish
Ġt ables
sm ooth
Ph il
Ġcommut ative
}} }{\
ent ity
ĠS el
Ġ\| _{
R ober
Ġde let
ĠAl bert
Ġround s
ĠV ice
ĠComm un
ĠDe ath
ĠIn itial
P ass
all as
ĠIslam ic
Ġattack ed
Ġbrother s
b est
T arget
H ol
ur is
IG N
Z Z
Ġqu arks
big gl
Ġsh apes
l ass
Ġsp end
ownt own
ues e
): =
Ġachie ves
}} ^{(
w en
Fil m
Ġhe ating
Ġsit uated
Ġnucle i
m ony
10 6
x ymatrix
ĠR oll
lect ric
ĠDe ad
ĠRec ord
ĠN ik
vel ope
Ġbox es
ĠJes us
Ġ })
ens is
itud inal
om as
~~~~ ~~~~
p ow
ĠB ox
ĠB h
ĠTok yo
E s
ĠAg ency
Ġobserv ational
ĠF all
), (
Ġdrum s
pos itive
Ġpre lim
Ġinteract ing
G raph
}{ $\
aw ay
Ġt ruck
] ^{\
Ġv o
util s
ĠHow ard
ĠĠĠĠ ĠĠĊ
H on
Ġw arn
ĠL ank
T ypes
e fficient
Th rough
Ġsch ol
c ule
ĠP erson
Ġsound s
ĠPl ace
ĠCon stitution
eg et
ĠJ os
Ġscient ists
ĠP ut
ĠO pt
Ġpubl isher
eg as
Ġre jected
mb f
correspond ing
Ġent itled
Ġch ap
Com b
Ġr uled
Ġmer ged
ĠĠĠĠĠĠĠĠĠĠĠĠĠĠĠĠ ĠĠĠĠĠĠĠĠ
Ġparticip ate
ĠBay esian
bs erve
Ġfeel ing
and o
[ {\
Sports people
ĠN ap
l st
H A
f ire
Ġmembers hip
Ġm irror
mer ce
le ading
Add ress
Ġman age
Ġenem y
f all
ĠHou ston
Ġm ic
Ġplatform s
Pop ulated
Ġp od
Ġdistingu ished
C a
Ġout comes
Ġthick ness
ĠLa ure
ĠB ry
p mb
Ġmonitor ing
C y
p q
Ġl icense
Ġmay or
Ġsup plement
le in
Un it
con vex
Th m
im ated
tra ined
W rite
com position
ug s
r ically
moment um
continu ous
Ġte en
el and
De ath
ĠNot ice
Ã¼ r
Ġadvers arial
ke ep
Ġsummar ized
Ġreconstruct ed
add le
men u
ĠY outh
Ġun like
ce q
Ġext raction
re tt
Ġmur d
bigg r
ĠHar ris
re ement
Ġcl ouds
ar ry
Ġv ulner
ĠH u
Ġdis cre
ol o
Ġsequ ential
ĠT erm
Ġdraw ing
igen ous
ĠB uck
is ta
att r
Ġt all
st ore
Ġlocal ized
Ġhelp ful
Ù Ħ
Ġmechan ics
k k
Ġphot os
ĠL am
Ġexpand ing
kl ahoma
ĠOn line
Ġh am
Ġstar ring
ambig uation
K K
Ġl ake
Ġf ranch
10 8
Ġkind s
Ġfair ly
$& $
up l
E V
' >
ate ur
y ers
Ġmach ines
ĠGal actic
Ġj azz
Ġse p
Ġc ache
N P
it ics
ĠG all
Ġsup por
Ġim press
Ġext ending
ir ation
Ġca usal
) ~
ĠA C
Ġs oci
Ġexhib its
c as
Ġformer ly
ĠD ur
at in
crit ical
jo in
Ġj unction
Ġam pl
Ġm il
ĠDis ney
Ġpre v
Ġm ales
Ġphenomen a
' -
ĠS S
Ġhost s
ĠN ich
Ġann ih
ĠS ep
ĠCh ile
Ġval uable
xy gen
T M
ge red
prot ect
Ġinj ured
ma xim
H y
Ġconjug ate
m ix
ĠG ordon
dr iven
R AS
10 7
ĠAust ria
y stem
gtr sim
z ing
olog ically
Ġadv ice
Ġqual ified
ĠN OT
ateg y
ĠĠĠĠĠĠĠĠĠĠĠĠĠĠĠĠ ĠĠĠĠĠĠ
eq q
Ġrang ing
top rule
Ġm ine
Ġd ress
ĠD ave
ĠTem ple
Ġanc est
Ġsucceed ed
ĠK evin
Ġlist en
t im
Ġing red
Ġin it
ov ak
W hy
Ġs ending
Ġv oted
Ġly rics
}) ^{\
ĠK y
old s
Ġcount ing
Con clusion
Ġbo at
}$ ),
Ġbo ys
T F
l ights
Ġattrib uted
ĠF uture
ĠW y
Ġmod ular
st ellar
ĠHol lywood
Austral ian
] }\
o a
ĠP S
ud a
Ġcl ar
set length
Ġhead quarters
Ġac oustic
ĠT ext
Ġm ock
1 16
2 20
1 18
Ġst rain
Ġpar ad
ast s
ĠB S
Ġb ott
Ġc ro
Ġim posed
ĠM rs
bibliography style
D irect
ost ic
hes es
T ab
Ġins ight
u its
* }\
Ġlaw yer
al ph
ad ic
ve ctors
lik ely
Ġpers ons
Ġp ione
ĠMat the
Ġd ot
Ġmodel ed
Ġpublic ations
ah n
ĠPro of
ĠPro cess
bu f
Ġme ets
iv ariate
r f
Ġdetect ors
ĠT R
sy n
UR L
ĠN ative
Ġc ards
Ġconstit ution
Ġr ings
ĠD al
ĠN ame
Ġsh adow
Ġinv ited
b one
j an
Ġcommunic ations
ĠE arly
Ġp up
ul us
maz ing
ĠB eng
Ġdeal ing
Ġpartners hip
hor iz
h ig
ann y
ĠMed icine
ĠD a
Ġs elling
qu ark
is o
ĠS port
ĠLem mon
ch ing
um ping
d irection
C le
ick er
u is
U P
Ġout flow
ĠW here
e a
Ġmin ing
Ġrespons es
qu ality
Ġexerc ise
^* (\
Ġisot ropic
Ġre tail
T or
CO DE
ch ant
Ġ" \
c v
ĠD omin
Ġsh r
AN D
Ġon going
ĠF ile
M art
Ġmin i
ĠN ev
- $\
tra ining
) {$
ĠCol lection
ĠCO VID
uer to
war z
ment ioned
Ġast ron
r b
Ġfil ed
Ġassist ance
ĠS in
ĠR on
ĠD ate
ĠNor wegian
Ġcre ates
W B
Ġl aid
ĠH ans
ĠO ak
Ġmut ual
B oth
ĠFor ces
' }(
ĠR ub
ple te
ubl ished
rel ax
rap ol
Ġsub stit
Ġ{ {
ĠĠĠĠĠĠĠĠĠĠĠĠĠĠĠĠĠĠĠĠĠĠĠĠĠĠĠĠĠĠĠĠ ĠĠĠ
d p
Ġaut hent
F ont
Ġv eter
^{ *}
Ġoff ices
bu ilt
ht b
e ast
Ġrestaur ant
ontr ivial
ĠAn ne
N ames
ĠMar ine
U rl
Ġcomm ander
Ġsuper ior
Ġgu y
re du
ul i
Ġphot ograph
oc he
Ġint u
Ge ography
ĠL HC
ĠAnth ony
rain ian
}} ^\
Ġdest ination
el astic
Ġm outh
ĠL ook
ĠPh ill
Ġre venue
Ġstre ets
Ġimpro ving
In itial
ĠT O
10 3
Ġvari ants
ĠW olf
ĠP ed
ibr aries
a ired
arg o
Ġcoinc ides
ot te
Ġ* *
Ġput ting
ĠWal ter
Ġex it
own ed
Ġcompet e
Ġint ent
cur ve
quant um
^ *}
Ġapparent ly
li est
)} ,\
ĠSe veral
Ġvictim s
ex act
Ġrecomm ended
On ce
Ġminim ize
ok ed
Ġhierarch y
> $
Ġeng aged
ĠAl abama
ant um
Ġb anks
Ġcycl ic
ĠEm peror
ĠG ard
k w
Ġcontrad ict
ĠCol omb
Ġart ificial
}. $
ĠC oul
+ }
co in
im ir
Ġcub ic
19 05
Ġhe aring
c b
se a
ug u
Ġp ose
Ã ¥
Ġc raft
ĠD VD
ĠD ir
Ġdeg enerate
Ġent rance
Ġsimpl ified
S an
pend ed
tem plate
lem an
n an
ĠEx press
uk i
Ġviol ation
& +
ĠK am
L D
Ġm yself
ĠE lement
Ġref lected
ĠR equ
Ġin fo
ĠF ame
Ġsup pressed
U se
. ;
Ġroad s
Ġf ruit
ro se
Ġf ought
ĠC ulture
Ġal ter
return s
Ġt on
process ing
dep th
R ich
Ġteacher s
at ar
Ġuniqu ely
Ġf lying
Ġcre ative
Ġag es
Ġregular ly
Ġt ension
onom ous
vol ume
C am
Ġflux es
Ġinv oke
art icle
Ġre actions
Ġd ict
aw s
fra ction
Ġprepar ation
cos ity
scal ebox
Ġabsol utely
Ġobvious ly
Ġver ified
Ġsurve ys
B ur
raise box
st ery
ĠSquad ron
ograph ical
ĠWith out
cal cul
Ġs ons
issip pi
ĠM D
Ġch rom
Ġfor th
M o
cont rib
Ġg al
=" ../../
ER R
Ġke V
B orn
Ġlogarithm ic
Ġs wit
h skip
Ġpar ity
] ]
Ġvol umes
ĠMark et
W here
um in
Ġleg islation
Ġass ault
Ġapproxim ations
ail ability
ri k
Ġt ank
ĠA S
Ġ( ,
ov ed
Ġwrit es
Ġassess ment
ĠSw iss
__ __
ĠH ad
ut ies
Ġto ler
art ifact
Ġguarant ees
ag on
Ġm as
et o
hom ogeneous
W indow
Ġident ifying
Ġregard less
h ot
cl uster
Ġadapt ive
}. $$
Ġcomplet es
Ġrel ies
Ġexponential ly
pl o
sc ore
Ġtem ple
ma king
f ix
Ġexpert s
w p
ĠM iami
Ġmiss ed
Ġbreak s
ĠB ush
Ġent ering
ĠR ang
ĠL yn
Ġmusic ian
Ġb irds
ĠG irl
Pl an
ett ings
ĠC C
ew art
Ġob st
Ġmat ters
Ġaccur ately
Ġbright ness
ang led
p ay
H H
ĠPro blem
Ġch air
Wid th
)} =\
Ġover view
b ach
19 07
Ġeffect iveness
Ġr ival
}; \
Ġpo etry
ĠCro at
ic i
ig ious
ish ment
Pro perties
ĠD irect
En c
p us
Ġconsist ed
it atively
] \\
dev ice
ra ce
E ven
ĠT reat
M al
ĠAf ghan
Ġliter ary
Ġnorm ally
- {\
Ġmotiv ated
Ġre nt
n l
Ġh ang
Ġcr ash
Ġp ictures
Ġgra de
/ .
}} )\
ĠG W
Ġpublic ly
Ġenc oded
ĠF A
ĠPro du
Ġgre y
Ġoccup ation
Ġcharacter ization
ip her
+ $
Ġflav or
Ġo x
, }
^{ {\
)) =
ĠTe levision
Ġdrug s
ma ges
19 06
op ter
Ġke ys
Ġ\, .
'' .
Ġwhe el
Ġst ood
Ġprom ising
}} _\
ĠL as
Ġtrans it
Ġgrad ed
Ġins urance
Ġreprodu ce
in ian
D ue
Ġc ash
w ho
ir i
Ġw ww
ĠE dition
l brace
}$ \\
ĠK a
G reen
G al
ĠChe m
or bit
Ġst ating
v v
ĠB ureau
Ġd uty
ant on
Ġconsid ers
Ġwould n
ĠTur kish
ĠTai wan
Ġkey board
ĠWalk er
ĠK er
ĠHer itage
Å «
Ġall ocation
iv ated
Ġappre ci
ĠPl ayer
ic he
ĠT ake
ĠP ow
p atch
ĠSim ilar
med ia
Ġgrow n
ig m
_ .
Ġex posed
est yle
ok ing
ĠSing h
Ġfocus es
M arch
ĠW ol
Not ice
Ġdou bt
Ġar ising
ĠEar l
Ġs occer
P rodu
C ache
Pro t
D eb
ĠJ ava
Ġinst ruct
Ġsingular ities
t ml
ĠA le
Ġent ities
u in
Ġdirect ors
Ġgun s
ie val
++ )
Ġadj oint
ĠK ra
b ootstrap
Ġdist urb
dis ambiguation
e per
ĠS NR
ĠE ag
Ġc oun
C ore
av or
Ġdev oted
H I
oc ese
ĠZ e
g ue
Ġrece ives
Ġdis miss
Ġmanufact uring
**************** ****************
p b
Ġpass enger
Ex ec
9 00
ĠCh ild
Ġst adium
im ore
ĠCur rent
Ġsub graph
Ġdispl ays
19 09
Ġret irement
ĠP ot
ple ments
Ġresol ve
Ġt ropical
ĠK elly
Ġclos est
ob i
ĠS L
Ġcere mony
Ġaccompan ied
ĠN ag
DB LP
Ġocc as
ha ust
}) ^{-
C s
Ġ( ;
q q
al ed
ĠP as
ĠCh ang
ĠW ard
Ġpro spect
ĠDet roit
Ġcent uries
Ġqu bits
ĠF inn
ĠĠĠĠĠĠĠ Ċ
18 90
Ġinv ent
ll i
Ġes cap
ĠDef ense
N one
Ġsuggest ing
Ġbig ger
Ġag encies
ĠG un
Ġmark s
od ic
Ġpack et
abil istic
Ġmod ify
Ġasymptot ically
d v
ĠF a
Ġcom ic
Ġspec ify
MN RAS
ĠA ccess
Ġd ies
C ho
ear ing
ors es
ant ly
ĠAl an
l on
Ġm o
ĠC L
Ġas sets
Ġv oting
er ial
ĠF ried
Ġval ley
Ġsur gery
coordin ate
Ġobserv ing
ĠD ick
ar ation
Ġequival ently
w he
H F
Ġprov ing
ĠC hen
On ly
r arily
Ġen abled
Ga ussian
Ġemer gency
sc reen
Ġre act
with out
el lect
ĠC T
os ed
ĠUn it
ĠM ir
ĠP ath
Ġb arrier
ĠF unction
ĠR ound
Ġrepe at
Ġw ider
ab ad
ann on
ĠK az
Ġprot est
hold er
27 0
ĠAl bum
Ġphil osophy
Ġvari ational
Ġ! ==
Re al
ĠC ow
l ades
al ia
h ash
ĠIndepend ent
ĉĉĉĉ ĉĉĉ
ract ed
comm ut
ey ond
be an
J son
Ġin ternet
ĠB us
Ġtra ding
in burgh
ĠC os
Ġp ray
et ition
ĠConnect icut
}$ :
ĠDou glas
ĠS pect
od ox
}) }{
Ġpick ed
Ġg ray
ot he
ol ph
ploy ment
Ġradi ative
Ġ: :
Ġestablish ment
resize box
d ict
Ġl it
Ġsp ending
ĠK o
ĠL ipschitz
pro file
Ġro yal
Ġvari eties
fram ework
Prov ider
) _\
ph an
s ens
ĠB ou
ab atic
l ag
ĠAl b
Ġprim itive
ĠYou Tube
es is
Ġpro hib
12 7
ĠN N
Ġpair ing
T im
ta ken
Ġdis ks
coh ol
ĠH T
ĠSar ah
Ġt ip
Ġro utes
sh aped
s burgh
ĠPro p
Ġtri als
Ġoper a
S n
re pre
19 04
ĠVill age
Ġagre es
ĠK u
Ġadd s
Form er
bottom rule
=" -
Ġsy nd
ĠL P
Ġoper ational
r k
Ġkn ock
Ġwatch ing
v c
Ġcompet itions
} --
under brace
ĠCon c
ĠG arden
Ġaff ord
sin h
)$ }
in line
Ġsp ins
Ġeng ines
ĠO klahoma
G AN
J une
pro fit
Ġphys ically
24 0
Ġapproxim ated
P aul
um ar
Ġ\ )
ard ed
Ġperfect ly
Ġcour ses
marg in
van ced
F W
V AL
ĠP ay
Ġt um
Ġanom aly
ĠP ur
cc entric
d ed
R ail
Ġin hib
S pe
ars ity
V ill
k ar
ĠE mer
Ġtra il
Ġre cept
Ġman ifest
ĠF ri
Ġsing ers
Ġscal ed
Ent ity
ĠInd ex
ch arg
ĠR ick
ack nowled
ĠSm all
ĠH um
AG E
ic ons
Ġas king
Ġr is
qu ote
Ġoper ates
Ġcontinuous ly
r Ã©
rup ted
bound s
Ġc up
ĠP ad
Inter face
E ducation
AC E
inter face
Ġautom atic
Ġwalk ing
F amily
am ination
Ġquant itative
Ġfor cing
Ġdevi ations
Ġ )\
i ors
iss ible
pend icular
Ġn ontrivial
ay an
ĠTra de
Ġl en
Ġcol lections
sp ring
Ġc umul
Ġintrodu ces
Ab out
cor r
res ource
}= -
Ġo xygen
) )$,
Ġarrang ed
ab ul
Ġsee king
Ġmoment a
Ġmulti plic
Ġpro xim
ĠCommon wealth
ow ed
T I
Ġexclud ed
Ġinhab it
cre en
ĠMc G
repre ne
v irtual
er as
Ġmat ched
F E
J uly
Ġneutr inos
Ġcontain er
ateg ories
Ġres erve
ĠBill board
2 10
Ġref uge
cor relation
Ġrobust ness
j ar
cos h
Ġadd itive
Ġwh atever
Ġobtain s
Te levision
ĠE rror
D ir
ib l
\" {
) )}
}) :
ect ure
Ä ĥ
Ġsens ors
| {\
b order
$ }\
Ġhigh way
i ac
Ġbranch ing
ĠN ob
ĠArm en
ĠP ap
Des pite
Ġfocus ing
Ġdis placement
b ool
M us
Ġl ob
ĠMay or
Ġfrequ ent
5 12
ĠW ang
ĠG ene
par a
ĠArgent ina
am an
ĠThom pson
Ġmed icine
Euro pe
Ġa ired
Ġsn ap
aud i
R O
Contain er
Ġr ide
> ,
Ġpass age
* {\
os ph
l ate
ĠTe V
D raw
F ree
over ty
Ch ange
colon eqq
app oint
AP I
M or
{ |\
Ġm ig
Ġcircum stances
ĠH ills
en v
ic ing
ĠMat hemat
ĠC PU
Ġbut ton
Ġoptim ized
ĠCap ital
Ġch urches
Ġarg s
Ġaband oned
at ta
h us
{- }
Ġcap abilities
ĠInf antry
Ġsol it
ĠWe yl
Ġt ab
ĠD ublin
Ind ian
ĠE N
Ġcoinc ide
Ġs ends
e V
Ĥ ¬
opt im
const ruction
: "
Ġmet res
Ġ> =
ĠBelg ium
level and
hy thm
( $\
Ġhistor ian
I EEE
r brace
Ġimpro ves
J ames
G F
ap olis
\\ \
gener ated
Ġsp oke
Ī Ĵ
ĠAl ber
Ġaver aging
Ġ ray
Ġtw ist
Ġpri ze
or ne
se en
des ign
iver pool
Ġw ine
c ache
ĠI ron
ĠR ace
comp are
st ers
Ġdwar f
Ġb aby
ps hire
Ġcomp ilation
ĠL anguage
Ġground s
b n
ig roup
Ġsimpl er
f un
ĠF arm
Ġshe l
Ġreport ing
Ġadm itted
ĠE dd
@ {\
Ġb ag
Ġpass engers
ĠP ref
Ġext inction
w al
Ġrot ating
att ices
Ġa de
Ġpain ter
ee ps
ett i
ĠM os
m outh
ĠP ope
ĠB G
Ġrect angle
Ġt ennis
Ġis lands
b iz
="../../../../ ../../
iss ance
bl ing
ich let
Ġreal ize
G Hz
ĠI mp
Ġin ert
B er
Ġw aters
Ġcompet ing
spe ed
ĠD ub
Ġgrad ients
Ġbatter y
ĠR ab
}\, ,
tt ing
R ange
im p
Ġacqu isition
Ġro oms
Ġconsist ently
Ap plication
Ġp aram
Ġg host
10 9
F ull
Ġcommission ed
Ġover come
h h
M ass
Ġmeas urable
el o
R oman
Ġvot ers
ĠF le
Ġed ited
red ited
ens es
I ter
Ġb old
Ġassum es
o il
ij k
Ġconsum er
Ġremov al
P al
Ġfound ing
b us
ail and
establ ished
Ġmanufact ure
F ootball
O O
Ġcut off
Trans port
Ġinterpol ation
Ġelect rical
Ġex clusive
Ġfall ing
der iv
ĠT el
Ġident ities
d g
C K
Ġcateg or
Ġb on
igh bor
ĠO tt
iv id
ĠPro te
ĠP rix
ĠA BC
Ġ }(
s end
Ch ild
Ġreason ing
ĠSe attle
ĠK r
ho en
Ġdesc end
Ġcomb inator
ol ished
Ġcontro vers
i u
Ġaffect s
Ġgradu ally
ĠPe ace
ather ine
Ġconven ience
Ġmulti plicity
Ġt et
ĠAnton io
Ġfin ishing
Ġan th
ĠDef ine
ĠF ive
Ġpro sec
ĠP ra
cl oud
ĠLe ft
Ġnav igation
Ġt ied
g ment
Ġbi ological
Ġprelim inary
Ġmov ements
de bug
} '$
Ġse cretary
Ġi i
Ġwill ing
Ġsurn ame
ĠT ag
ĠMiss issippi
ĠL ang
Ġphot ometric
Ġcorpor ate
M ajor
Ġ Ä
Ġinv ariants
Ġvis itors
Ġdemonstr ates
Ġsum s
pro totype
19 03
rib utes
Ġre write
ĠM ol
the se
Ġ ions
diag ram
L ie
ĠCre ate
enez uel
Ġ$\ |\
imens ion
Ġsup ern
Ġalign ed
Pos ition
Ġweak er
the y
Ġare n
Ġin aug
Ġtrend s
Ġde put
H ash
ĠMor gan
ĠCh apter
Ġim plications
Ġsus cept
% ;
ĠLaw rence
Ġso ph
_{ |
Ġpost s
ĠT ar
ĠDen mark
ĠS ud
Ġg ro
r h
geq slant
Ñģ ÑĤ
ĠMc K
ĠFig s
Ġsynt hesis
ĠM anu
d ale
ĠAd vent
ro ck
Ġm aintenance
i ated
). $
Ġproport ion
ren a
ĠSam uel
ĠB art
ĠM ission
ĠS ite
oth s
Ġremark able
Ġmicro sc
Ġdanger ous
ĠB ull
styleshe et
IN T
Ġre plic
s ong
ul um
F eb
ĠRes erve
Ġant icip
Ġas ymmetry
Ġgu ilt
Ġillust rates
it ian
bor ough
ĠĠĠĠĠĠĠĠĠĠĠĠĠĠĠĠ ĠĠĠĠĠĠĠĠĠ
ĠQue bec
t oken
ĠReturn s
ĠEconom ic
Ġsub str
ĠBow l
Ġhist ogram
Ġarrang ement
b ridge
Ġvalid ity
Ġtw isted
Ġgradu ate
Ġsimpl est
A pril
ï ¼
vert ed
Ġcharacter ize
Ġread ily
f ocus
Ġ Ø
Ġpreserv es
ter y
ĠTh ose
Ġrepresent atives
Ġg ates
Ġsk ew
Ġc ited
Ġdesign er
Go ogle
D onald
algorithm ic
Ġreal ization
lev ant
Ġsus pect
ĠP uerto
Ġmoder ate
M s
ĠL ane
Ġdecl ine
pro to
R oy
ug ins
pl ier
19 02
ĠLouis iana
Ġfac ing
N AME
19 01
ent er
V P
oc ols
Ġcompan ion
ĠI ss
ĠG PU
ĠNC AA
ĠLiber al
ant ics
ĠOr th
Ġh ired
Ġpay ment
Me V
Ġco res
ĠN eg
Sc ott
Ġj unior
F OR
ĠN aval
to ol
ĠS A
}{ !
ĠD ak
}) ,\
ĠAl tern
GB T
Ġrequest ed
corpor ated
n ear
Ġrecord ings
ĠStud ios
COL OR
artifact Id
ra ud
L em
ĠDe an
au er
om eter
Ġtransport ation
i ar
Ġhyp ers
Ġcorrect ed
Ġentertain ment
}\ )
end ment
Not able
}} }}
Ġarm ed
Ġin jective
ater al
pan el
Paramet ers
bar a
Ġcl ick
Ġ\\ \
Ġevery where
Î ±
am ps
Ġb undles
Ent ry
] );
ma j
comp at
ĠCa uchy
ia h
Ġd ots
Th read
Ġprodu cers
sup set
ĠPortug al
AC T
M r
ups ilon
Ġs ke
Ġf at
S al
b ind
Ġh at
av ia
Rober t
ĠL anc
Ġhom ology
ĠHon or
pot ent
Ġsing ing
add ress
acknowled g
B ound
Ġtw elve
i eg
Ġfor get
Ġobser ver
play er
Ġann iversary
Ġign ore
ĠHar vard
Ġs in
ĠPro t
ard ing
Ġtal ks
l attice
ĠBru ce
a un
Ġlay out
Ġp adding
Ġfund ed
Ġspe aker
Ġshe et
Ġenhance ment
pl ant
ĠEd inburgh
Ġast ro
Ġre ign
s b
th in
id ance
Ġadvert ising
Aug ust
h ad
Ġille gal
Ġn ick
Ġh ospit
d ig
Ġhand ling
ĠEx pl
r n
Ġe V
ol as
ĠIndones ia
ĠL ower
or us
Ġperm ission
[ ->
Ġwas te
Ñ ĭ
$ ^{\
Ġdefin ite
ĠT H
Ġg arden
Ġh ill
Ġrot ational
ill o
ĠR est
Ġcarri es
ĠD ie
Ġo cean
] }$
S uch
st ation
ĠAll iance
K n
b ing
ĠStud y
A U
IC E
ĠT un
fl ux
ĠDemoc rats
Ñ Į
u h
vel oc
are a
Ġf olk
ĠTer rit
end or
Ġelse where
W al
Ġh ur
M ean
re nder
ut able
Ġext ensively
idel ity
Ġr id
f ather
Ġvari ed
ĠH ug
Ġplan ar
Post ed
Head er
y y
Ġk it
Ġqu art
im m
= }
ĠAd ams
S k
Ġv acc
ix el
E CT
Ġsynt hes
Ġunus ual
D ocument
Ġwe ar
ĠOr chestra
Ġsummar ize
end a
ĠB orel
com parison
ass ador
Ġdis ag
Ġarbit rarily
Ġ ).
Ġgr ass
Ġcont our
),\ \
Ġatmosp heric
Ġv eget
N etwork
Ġfranch ise
g ap
Config uration
i at
ĠG on
R F
sat z
ĠC emetery
Ġf ired
Ġcaref ully
ĠSy ria
plic ial
ĠAb d
Ġtouch down
)$ $
Ġfle et
Ġcl er
n amed
ĠVol ume
Ġsports people
ĠThe ory
ĠU tah
Ġen velope
Ġlong itudinal
W ell
ĠH ockey
ĠAnd roid
J ac
^* ,
Ġansw ers
G ame
ĠB uff
M ilitary
Ġnucle us
Ġcontinu ing
Ġr ising
Ġvis cosity
Com put
ha us
c am
Ġdisc ipl
Mult i
}}{ (
c ou
Ġaddress es
ĠF isher
Ġneighbor ing
Ġparticip ation
im eter
vari able
ĠPortug uese
Util s
P RE
Ġgu ys
Ġdiff e
Ġ ell
}} -\
Ġthous and
Ã ł
qu ir
Ġne ck
tr ation
Ġcurrent s
Ġexpect ations
Ġpopular ity
Ġcont rary
R M
Ġturbul ence
bound ary
Ġne uro
ĠMalays ia
fol io
ĠBatt alion
Ġch amber
Ġext rapol
Cl ub
Ġg ang
equ als
h op
diag onal
Ġmere ly
Ġprep are
elf are
\\ [
class ical
Ġg ram
or o
rel ations
Ġnot ably
Ġpoint ing
em pl
clus ively
~~ ~
Ġback ing
Ġd ial
Ġaim ed
{ %
M ag
ĠSt ill
ĠI C
d ynamics
Ġso il
Ġign ored
F ran
h ome
Ġpubl ishing
Ġc ot
Ġear liest
ĠJ ason
Oper ation
Ġg amma
Ġpro jections
row th
Ġno isy
te chn
it ro
ath y
ĠL A
Ġdefin itely
11 4
Ġc arrier
Ġenjoy ed
Ġguarant eed
tra ce
Ġanim ated
Ġro se
( (\
D iv
}$ ~
L and
M er
Ġal leg
T YPE
Th ree
B en
ĠRuss ell
ĠA B
@{ }}
14 4
ĠCl inton
L u
}, $
d ays
re ction
Ġpl astic
.\ ]
Ġland s
ĠAp pro
ang o
ator ial
Ġres ort
em en
Ġsubgroup s
Ġs aved
ĠY es
op ol
ĠC ustom
Ġfactor ization
ĠVal ue
Ġsurv ival
ma c
Ġad mit
ro le
Ġw arning
Ġ\ :
Ġconvolution al
ĠS earch
Ġexperiment ally
Ġattract ive
Ġdeg rad
t p
00 2
e eq
ĠBrazil ian
ĠM ars
ĠAuthor ity
it is
ap plication
Ã ´
d m
u int
val uation
Ġsym pt
Ġint ention
at z
ig ate
Ġdiff ers
Ġcomplet eness
Ġelim inated
ĠS ho
ĠF al
Ġgeom et
ma ker
ĠInt erest
pro j
Con clusions
17 5
in ternal
ĠPet ers
Ġpol es
Ġhon est
ĠCh airman
Ġsc r
)$ ;
ĠE ss
ĠSchool s
D an
ĠYear s
ĠD allas
ĠG il
Ġad ults
Ġmet ers
18 80
Ġa z
tern oon
Ġ ri
ĠH ell
Ġlong est
ĠCoul omb
ĠF ern
= [
F lor
is p
B re
Ġcall back
Ġs oul
ĠP i
Ġneighbour hood
Ġinv al
Ġop acity
Ġinst ructions
I X
b racket
Ġdef ensive
Ġpaint ings
ou ver
ĠBl ock
group Id
C B
C oll
ira ble
Ġsent ences
Ġthere in
Ġex haust
G T
Off set
new s
ĠB etween
ming ham
l ift
Ġmid field
ĠN O
period ic
og s
Ã «
Ġm ilit
an ia
Ġneg lect
L U
Ġmod ulation
Ġtransl ate
anc ell
Ġconvers ation
ĠWork s
onym ous
ĠComm ander
ast ro
Ġdissip ation
ĠAn na
en berg
m ate
ĠL INE
b oy
Ġamb igu
ĠFin land
Ġun likely
Ġoff ensive
iv an
ĠW atch
ĠBrig ade
f m
^* _{
St and
op ing
Ġrest ored
az ines
ch ment
ph ot
Con nection
hook rightarrow
ĠS ource
E t
Ġres idence
Ġl ying
Ġade qu
| }{\
H ig
b eq
Ġa xi
d in
Ġ( ),
ĠR y
F ound
IT Y
Ġlog ical
H as
mid t
Ġ( '
Ġhead ed
Ġlov ed
C NN
Ġsubstant ially
+ {\
Ġtempor ary
erv ed
ĠJ osh
Ġreflect s
at om
ak ov
Ġdec oder
Ġsp r
Ġre tained
Ġregist ration
2 30
r ceil
rib uted
as g
ĠK ings
M iss
Ġop ens
ĠAust in
r ise
ĠT ax
B a
qu et
)} }\
Ġyour self
ke ys
Ġunivers ities
ĠPol y
Ġob lig
ĠPal ace
ac ian
ĠJ uan
AT A
over ning
ST R
ĠC V
ĠSt ewart
Ġhead er
Ġdifficult ies
re view
Ġim pose
ĠCh o
tag on
ro v
Ġweek ly
h ai
Ġsurpr ise
h ill
Ġsurv ive
T itle
app y
Ġevol ved
S eg
Ġco ff
Ġind irect
Ġsus p
hand le
Re ference
Cl ick
inn ed
g as
= $
ol id
Ġst em
T otal
Ġinv asion
ĠN i
ok er
Ġpreserv ing
s olution
ern els
ĠS ac
Ġover ride
Ġor ange
ag ger
Ġbos ons
$ ~\
00 5
grav ity
Ġinteg rating
ĠB ud
d dot
ĠD anish
Ġtun ing
st ory
Ġde lete
ne cess
Ġdes ire
Ġque ue
ĠAtl anta
Ġf ake
G old
Ġco arse
ĠArk ansas
11 3
Ġper pendicular
Ġtal ent
ĠG irls
ĠMarg aret
ĠI ce
A I
Ġcoupl es
Ġm igration
Ġrel ay
Ġe ccentric
Ġconf ront
Ġinstrum ental
Rel ated
th a
ĠC F
ĠS yn
l g
ĠNAS A
Ġdeterm inant
Ġst ruck
hel p
Ġo ct
Ġposs ibilities
Ġfe els
Ġwork er
Ġn m
al gebras
the o
Ġemb od
X Y
)) )
ĠSch olar
Ġmod elling
}-- \
Ġquant ization
Ġinvert ible
effect ive
Ġdevelop ers
Ġadm issible
Cor ollary
M W
w i
Ġthe rapy
Ġdeb t
Ġste ep
ĠBang lades
ĠD ance
ut ors
ĠF ix
e igen
Ġexp ed
Ġgl uon
Ġrece ption
Ġleg s
k ee
b os
ĠW right
m illion
harm onic
\% ,
Ġf asc
Ġsqu ared
trans ition
ial s
Ġexam ined
A lex
L y
ĠS FR
Ġin jection
Ġsimpl ify
ĠS W
ĠR ap
ĠP un
d n
ĠN ature
Ġsp iral
Ġcalcul ating
Ġvort ex
G ood
com ponents
ĠTh ailand
um s
Ġemploy ment
ĠRog er
ĠC el
Ġwire less
ĠIm perial
au ra
re r
in x
Y es
ĠT ig
sur face
Ac adem
S V
Ġprior ity
ĠKenn edy
ĠS tage
Ġpass ion
Ġowners hip
m aterial
ĠRob inson
Ġmod ifications
Ġplan es
grad ed
t re
sec urity
Ġover head
l ceil
ĠM O
ĠAg ric
ĠSe cret
Ġjud ges
Ġcomplex es
Ġcour ts
Ġloc omot
Ġap pendix
f am
Ġst yles
fin als
Ġepoch s
ĠA qu
Ġs itting
Ġappro val
Ġc rown
Ġcritic ism
12 6
^+ (
Ġmy th
. -
ĠLie utenant
Oct ober
Ġconsider ably
N T
Ġcast le
Ġbal anced
ĠC hern
Ġtrans c
O fficial
Ġob j
H ttp
ĠB ed
Se lected
ourn ament
Ġu int
ĠM Ps
Ġa ck
Ġt orsion
in ces
}\, .
ĠY e
ab e
S yn
Ġqu iet
Ġs ake
Ġpair wise
Ġd ating
Ġprov ision
ew ise
ter ms
ĠCle arly
ĠMic hel
Ġf ro
U L
ĠM ake
Ġmar ine
D s
ey er
11 7
cons ist
ĠN eb
! âĢĿ
Ġsurround ed
Mich ael
Ġre ject
Ġadvan tages
Ġnot iced
Ġconsider ations
Ġpart ly
Ġdiv ide
[ ]{
ĠN elson
ro magnetic
ĠPer formance
Def ine
Ġt elling
el ic
d ue
ĠP os
elect ron
ĠR io
ĠCom ics
Ġtim ing
Ġ\ %
ct x
Ġn ations
Ġperturb ative
ĠPubl ishing
Ñ ĩ
Ġp ump
R a
Ġpull ed
iv acy
D ay
at im
Ġm ild
it ations
ke V
Ġhor ror
Ġdivis or
ĠDep uty
Ġpre gn
ĠRiemann ian
Ġinfer red
clos ure
ĠChrist opher
cons ider
4 50
ex pect
ram ework
arg ument
eg u
ge on
ia o
group s
Ġbeaut y
P y
Ġstr at
Ġswitch ing
st ance
Ġclos ing
j amin
Ġ( .
Ġsl ot
Ġbe ach
ms g
Ġmethod ology
le ased
assum ption
ellect ual
ĠE mb
ĠL iverpool
Ġrel ating
Sh ow
b ol
W in
Ġcap ability
Ġcon sole
ĠD O
Ġp and
Ġaccord ance
igh ters
Ġmag ic
eren ces
Ġb ol
Ġinj uries
ens en
Ġform ulated
Ġcontrib uting
Ġexception al
hav ior
Ġagric ultural
Ġcut ting
ĠM es
ĠL ink
ĠR F
oun ce
Ġcont ents
Ġp in
m ill
Ġdiam ond
z h
anc ouver
Ġart ifact
He ight
ĠR and
ext ension
ĠT ab
ir ms
Ġtarget ed
Ġpref ix
ĠN ation
Em pty
ocor ro
ĠC atal
] _{\
Ġsub mitted
Mod ule
12 4
12 1
Ġb ird
cess ion
ĠMur ray
Ġde eper
Ġcons ensus
Ġg rate
., ][]{
Ġar rows
ĠU ser
IM P
Sup er
ĠPhys ics
ou b
Ġfe e
Ġbe ar
ĠN ic
Ġdem ands
ma kers
plement ation
Ġte ach
ĠBo ys
s ame
Ġabund ances
M B
in formation
pl ots
ĠS ocorro
ever y
ort on
Ġt ie
Ġdoll ars
Ġt ube
ur c
Ġf urn
18 98
Ġse ctors
Med ia
hoen ix
s outh
d ied
ĠC ass
ver sy
ĠV ik
Ġgen etic
T L
Ġco herence
Ġour selves
Ġup coming
id ity
ĠLim ited
ĠG ray
ith uan
ĠMan ager
v dash
}\ |_{
Ġhe ur
ĠPlan ck
nt il
Ġan chor
Ġc oding
Ġprov ider
Ġse venth
iz z
s pl
equ ilibrium
ĠGra ham
weight ed
ĠO k
ĠP lease
Ġestabl ishing
ĠC ore
f c
Ġsequ el
integ ral
Ġfem in
aramet ers
Ġvis iting
ad apt
Ġorgan isation
Ser ial
Ġinteg rable
ĠR ain
Ġconstruct ing
Ġpar agraph
Ġwh ilst
Ġth orough
Ġ( +
ĠS I
Ġcomp ress
ĠAssum ption
' +
pl ates
Ġrad ical
Ġres ign
Ġcyl inder
m r
og a
Ġm apped
|\ ,
bas ic
ĠUp per
Ġinhabit ants
erv ing
S am
ĠW oman
t ry
Ġher itage
Ġde form
id en
u ct
)) ^
Ġtr im
ĠSt ars
ĠLeg end
ĠLINE AR
Ġschol ars
T ool
Ġtrans mitted
ĠSD SS
Ġpart itions
Ġrele ases
ĠFreder ick
V ector
| }\
ĠNig eria
ic z
de lete
() ->
Ġb ubble
De cl
Ġr anks
ĠM ess
ĠPitt sburgh
m ates
ĠKn ight
V I
hol m
Ev ents
Ġste am
Ġresident ial
M atch
18 99
ĠB A
es ome
Ġsole ly
Ġre putation
l c
ĠU E
Ġathlet es
'' $
ik ip
ĠCamp bell
Ġtriang les
ð Ł
us ive
H istor
in ality
idel ines
E ffect
Ġman ual
Ġeth nic
Ġst range
Ġrel ief
Ġa mazing
ut ter
k ens
ĠSoft ware
ĠSh ah
Se ptember
C at
Ġde als
system s
f und
not ation
Ġland ing
iv ities
ip ping
Ġcyl ind
ĠCh ange
Ġsup ervised
ĠCh amber
;" |
ĠHistor ical
Ġk eeps
Ġd elta
ĠK on
Ġin coming
t ered
Ġs ed
D IR
Gl obal
ÃŃ n
Ġt idal
ĠT rib
as m
g ov
Ġemer ging
AT H
D ER
Ġdam aged
U RE
i op
ĠB R
PR O
u ary
ot ions
Ġres igned
ĠUn like
Ġoccur ring
ĠO ri
Ġassert ion
Ġg ran
Ġfill ing
Ġthermod ynamic
and al
Ġrecogn ize
ov ich
Ġchild hood
Ġgain s
Ġcaref ul
ĠG alaxy
Ġ* )
ph ony
Ġs av
w ig
t ar
Ġe ase
}: \
work s
Ġinc red
d c
Ġsup press
Ġenc ounter
ĠS ect
Re ception
writ ing
as a
ĠC ensus
Ġcele b
ã Ģ
Ġredshift s
Ġm ile
Ġgen re
, +
Ġb alls
f ish
ĠInt eg
F ore
Ġcelebr ated
Ġrep air
ĠChall enge
b g
Ġtext s
Ġmorphism s
ĠU pon
ĠWe bsite
Ġprocess ed
ĠN P
ĠÃ ī
ĠM other
Ġem otional
Ġamong st
ym n
Ġmeet ings
Ġar row
cl ick
Ġdeploy ed
U LT
Ġevolution ary
ĠJ u
Ġin version
Ġmole cule
A ir
ï ¿
b en
S il
ĠB ag
In v
ĠBrook lyn
Equ ation
ĠS H
ĠMar ie
Ġneur ons
Ġactress es
en able
Ġprof it
H ost
mon th
Ġsign ing
the ore
ĠK now
umb ered
grad ient
Ex pat
ĠMov ie
18 97
miss ions
ar us
ex cept
ĠWith in
}^{ *
Ġindic ator
Ġglob ally
ir ates
Ġh ook
ĠCar ter
Ġt ub
ĠT ak
Ġwind s
par ing
ĠTra il
Ġy es
t own
nov ation
B G
ĠT rack
ĠR an
). \
ĠG ran
Ġuniqu eness
b ran
Ġleg isl
Ġevalu ating
}) }{\
Ġestim ating
ĠCent ury
& #
, $$
Ġ icon
ĠV ersion
ĠN BA
Ġindu ce
. ][]{
ik es
Ġin frared
ĠC leveland
ex amples
ĠJ e
Ġfriend ly
Ġrem arks
Ġmagn itudes
ĠCM B
Ġhealth y
ĠD J
c op
Ġent ers
Ä «
It alian
Ġb ipart
ĠH end
ĠK an
Sh ort
Ġqual itative
aps ed
ul atory
Ġin correct
ĠG ary
Ġin formed
ĠC rown
ĠCon vention
config uration
ĠB ible
Or gan
doc s
ĠAlf red
Ġcompl aint
dot ted
f b
Ġdevelop ments
us p
ĠE mm
Ġtrans actions
Ġgra in
ĠAd S
Ġas c
Ġdepend encies
f ollowing
Ġexcit ations
P H
[ $
Ġif f
| $.
Ġel abor
ok a
Ġlocal ity
ĠF r
claim ed
h our
W indows
Ġreserv oir
ĠM eg
Ġoscill ation
Ġk ernels
Ġbre ath
Ġ[ -
T om
rec ord
F s
f itting
ĠD ifferent
import ant
Japan ese
Expat riate
represent ation
Ġack nowledge
}$ &
Re view
Ġsurv ived
ogg le
ĠLeg islative
S ep
Ġg ay
Ġd ynasty
Ġarchitect ures
Ġreg imes
atter ing
ad joint
ĠG ulf
ĠW as
Ġcross ed
Ġrenormal ization
14 5
ĠOper a
ĠBalt imore
Ġinst ruction
ĠC u
D er
Ġin herent
S ever
ab a
Ġmotiv ation
C G
P rim
Ġbu ck
ĠJud ge
Ġconserv ed
Ġp arams
ĠMont real
ĠK il
ĠOther wise
im plies
Ġs essions
D u
Ġt elescope
18 95
ĠW a
Ġb at
Ġtrac es
Ġal ive
Ġcl im
ag ent
e u
ine q
e lection
s om
Ġprote ins
ikip edia
Ġv essel
Ġelectric ity
ort ed
US Y
Ġlabor atory
ĠL iving
Int eger
N a
I J
Ġstrugg le
web kit
m ove
ow s
C r
Ġexplo it
ĠTe ch
ĠGab ri
Ġcomp ound
ĠRef s
ĠUk rainian
W R
Ġconf ident
t ics
Ġsat ur
Ġcon sequently
ĠH ero
Ġcov ariant
ï¿ ½
ĠG ill
}} %
Ġsub stitute
S Y
Ġmass less
ĠE ffect
veloc ity
o om
t ies
ĠS eg
Ġsub div
dec ay
comm unic
y ll
ĠT ree
Ġreg ulations
Ġscre ening
Build ings
J ack
Ġund efined
p read
Ġph arma
Ġemer ged
D G
Ġstop ping
ĠAl ban
Ġpreced ing
ĠCommunic ations
n umer
New s
ĠPri or
W ang
Ġl ad
Ġbl ind
Ġf ract
ĠR ud
ĠPr incess
)- (
Ġforest s
ang el
ĠMean while
Ġsp ont
Con f
Ġas semb
s witch
ĠF L
Ġflex ible
L ike
Ġas ks
og raphics
ĠE M
tabular newline
ĠT ask
Ġconcent rated
)$ )
Ġpark ing
Ġwith draw
Ġaggreg ate
Ġle pton
Ðµ Ð½
Y ER
et on
Ġarch ae
ces ter
Ġal cohol
c opy
as hes
Ġex clusively
ĠB esides
an chor
Ġattract ed
z one
{ -\
ĠMarsh all
U B
. ]
Ġinfin itely
{- .
12 2
Ġgeneral ize
ĠFin ancial
Hel per
ĠOrgan ization
' ))
ĠV enezuel
Ġsim ulate
Ġmaintain ing
Com ment
ĠÐ ¿
F ind
ess els
ab c
ĠStan ley
ym p
ĠG P
lim ited
Wh ite
ann es
Ġbelie ves
E G
ĠN ep
ĠAd v
m iddle
Ġsc attered
ĠF un
cc a
Ġmeaning ful
W W
Ġrac ial
ĠMet ro
F G
Ġjournal ists
Ġutil ized
de als
R ussian
ĠT s
ir th
ĠW ind
ĠEd itor
IM E
ĠMax well
}: =\
19 0
Ġiter ative
se lected
A sync
in corporated
ĠAust rian
18 70
P AR
S chool
Ġh aven
Ġc able
o ft
Ġsl ice
ĠOper ation
\ @
ĠHam pshire
Ġdest ruction
ĠBan ach
ĠE le
p rom
ub s
ÑĢ Ð°
ĠMatthe w
ĠF ather
Ġj uris
ĠTam il
it ure
Ġev il
ĠW i
ĠP ic
Ġl ib
Ġr um
est imate
fe ature
Ġa fore
Ġf est
Ġminim izing
ĠC her
.\ ,\
at ial
ĠBl ues
bas is
ĠPro duct
abl ing
ĠCh ampion
uls ion
A re
Ġtransform s
rot ate
R ule
pan cy
Ġe g
un ique
ine a
ĠM aj
ĠLank a
ap pendix
ens on
S ettings
Ġt ur
reed y
Sing le
ĠM ack
Ġneg lected
St ore
ĠSen ator
Ġstrateg ic
Pro fess
Ġaccept ance
Ġd owntown
ĠR ot
osp here
ĠWel sh
Ġprint ed
sett ings
ob a
ne e
\ `
ĠG raph
Ġex terior
Ġsear ches
Ġaf ternoon
ĠM I
ov o
ĠL ock
3 20
Ġp overty
Ġutil ize
ĠEr n
id o
ĠI an
Ġbehavi ors
ĠAng el
pr ison
Ġill um
Ġsp ots
ĠCl oud
ĠAnd y
ĠI o
ĠY et
Ġmot ions
)\ |_{
ros so
W ar
Ġpra ised
an ne
Ġ rib
itz er
ĠA rena
ĠU pdate
s ession
Ġelim inate
Ġnot ations
E A
ĠP rad
no align
Ġg aps
P aram
-- >
\, $
Song s
O ption
Ġwe aring
Ġprom ise
Ġprot ocols
ĠBe ck
ĠMor ris
Ġsk etch
5 000
m icro
chang es
================ ================
Ġrel ate
Ġbeh alf
hold ers
Ġb om
act ing
G ET
Ge orge
Ġperson ality
ĠDir ichlet
As sum
' }{
ĠP aper
Ġb rowser
Ġsu icide
Ġst ick
. ),
Ġdise ases
ĠBir mingham
hat tan
Ġsuff er
Ġn um
_+ $
ĠH ope
ĠTra vel
A rm
form ula
_{\ {
r if
Ġz eros
Ġc ogn
S B
Ġim plied
Ġstructure d
ĠJon athan
á »
Over view
depend ency
ĠL en
ĠMet ropolitan
Ġrep orter
ĠMit chell
f ollow
R est
w ait
Ġinteg rate
ĠB aker
) ]{
Ġprob abilistic
rib utions
Ġmill ions
A x
ĠĠĠĠĠĠĠĠĠĠĠĠĠĠĠĠ ĠĠĠĠĠĠĠĠĠĠ
Disc ussion
Ġdimension less
em ail
Ġemphas ize
spect rum
Ġf abric
ĠV I
symm etry
Ġdef ic
Ġatt orney
ĠIndust ry
ber ry
Ġrec ru
J anuary
ern ame
ĠBrother s
ĠV egas
CD M
)} ]
ĠAr n
}\ |\
Ġcross es
m ot
Ġcommit ment
Ġmodul o
Ġel ig
Ġoccur rence
m ir
ish ops
ĠâĢ ł
Ġred und
cal ing
Ġdro ps
18 96
Ġabs ent
ithm etic
ent ropy
ĠH it
Ġb ot
Com mon
ĠMa ur
Ġjoint ly
ĠElect ric
nu cle
em e
Ġf ishing
Ġst ops
er red
sc ar
Ġdamp ing
( :
Ġincorpor ate
Ġpar abolic
c ustom
arc sec
ĠChar lie
an im
M ath
d etail
et ers
flu id
re ma
ĠCh art
ĠPro perty
ran ean
19 2
asg ow
ĠR ugby
Ġs weet
ic ious
EN D
sq cup
Ġbur st
Ġp ushed
13 7
ole v
Ġmem brane
Ġb if
ah ler
F lo
Ġver ification
T erm
Ġven ues
Ġdiv isions
rg b
Nov ember
Nav Bar
ev olution
K M
Ġencou rage
s r
O B
Ġsuff ering
ĠHung ary
$ ^\
foot er
hand ed
Aut hor
ij ing
ĠAfghan istan
Ġres um
Ġpat ches
ĠMot or
up t
}= -\
bur st
i est
ĠH old
le ans
Ġre vol
Ġreson ant
eng ine
em ale
Ġcompar isons
Ġdef ence
Work s
orn er
Ġknow ing
De cember
Ġinf ection
Ġgu idance
Ġafore mentioned
ĠPat ri
ph abet
Ġresc ue
itar ian
f are
Ġcol ored
ĠMa ine
ĠJim my
d ark
Ġ& -
ĠMad rid
Ġcontract s
R et
win ning
ur ious
Ġdepart ure
ĠĠĠĠĠĠĠĠĠĠĠĠĠĠĠĠĠĠĠĠĠĠĠĠĠĠĠĠĠĠĠĠ ĠĠĠĠĠĠĠ
Ġstream ing
im uth
Ġ rays
ert s
v ideo
ĠStud io
phys ics
Ġf inger
Ġreson ances
Ġad i
F alse
)}\ \
Ġfacilit ate
Ġt act
Ġinter fer
Ġr uling
ĠB ond
Ġsp oken
ĠEv ans
! }
Ġcon qu
ĠK it
Ġsup pression
Ġgen es
") );
Ġdis appoint
Ġdist inction
Ġfor g
Ġstay ed
Ġpo em
Ġden ied
Ġun expected
c od
Ġweap on
Ġj av
ĠG Hz
Ġanten na
Ġsuppor ters
ĠN ar
\ ).
ĠFrank lin
Ġanim ation
Ġreview ed
Ap pendix
or ry
ĠVi enna
Ġturbul ent
em ed
scal ar
Ġwavelength s
Ã© n
v ision
om on
Ġtheorem s
Ġf ractions
Ġcor ollary
Ġw ounded
ĠBe at
est one
ĠAss oci
c ity
ĠLe ban
uc lear
ĠRoman ia
Col lection
usal em
ĠArt icle
triang leq
b uffer
T ags
bor ne
Ġl ingu
Ġc asc
ĠPh oto
Ġgovern ments
Ġmes on
uch i
Ġsus pended
end ers
ins ula
ĠPol itical
Ġinvol vement
Ġexcit ing
Ġf rust
ĠHung arian
P F
Ġc rack
Ġw ides
l ov
ĠMem bers
Ġp sy
ĠN L
Ġcr imes
sche me
pred ict
Ġgener ations
Ġre nder
Ġpl ain
ĠK os
Ġsuccess or
H en
t c
ĠTe le
Ġsp anning
S en
ĠB og
N or
P ref
V C
Ġpe er
ĠDel hi
Ġdialog ue
Ġrom antic
ĠN ad
An n
ĠMountain s
list ed
Î ¿
Rem ark
Ġa ster
ed a
ĠN ord
ĠGu y
Ġmon omial
Ġvic inity
Ġcooper ation
Ġbound ing
P roduction
Ġfl ash
ĠFin ance
ace ae
ation ally
ug osl
ĠA y
Ġto m
Ġthe ater
. \,
produ ction
Ġcolon ial
ĠT ogether
Ġpri est
be ing
ĠHun ter
aver age
Ġex port
^* $.
3 000
Ã ª
Ġion ization
P erm
ĠO d
sum er
Ġconsum ers
Men u
Ġa pert
ĠComput er
omorphism s
Ġdist ant
pe ction
Ġt issue
Ġreserv ed
ed ing
Ġc f
Ġkil omet
all ing
Ġf antasy
other wise
S om
ilton ian
ĠOver all
f ar
Ġanomal ous
" ))
Ġc ous
Ġm or
he v
est amp
t ons
Ġdist ortion
b ian
al most
conver gence
Ġav ailability
Ġrun ner
ar ound
ĠCommun ist
Ġr u
Call back
Ġout standing
âĢĻ ,
ĠO bl
V V
t ures
FF FF
cast ing
Ġanisot ropy
B al
w right
ĠMov ement
O ld
om inant
Ġcomplement ary
ĠDak ota
Ġconstitu ency
Ġb is
dimens ion
st ration
Ġdifferent iable
ĠW rest
awa ii
Ġhierarch ical
' ],
Ġphot ographer
Ġdeput y
Ġcont raction
Ġspec ification
L ater
ĠV ancouver
Ġk pc
Ġpropos als
16 5
ĠMult i
Ġint ense
Ġconnect ivity
Ð ·
Ġn ortheast
ĠS audi
ĠB illy
pl ugin
Al bum
ĠBern ard
ĠMach ine
ĠC arn
ut o
Ġdiv or
Ġap artment
ĠY uk
ĠRel ations
Ġrare ly
Ġd eta
ĠDef ence
]{ $
Ġmagnet ization
s ized
Ġdec oding
= >
Ġnarr ative
G W
Ġimpress ive
Ġ esc
Å ¾
Ġdr ink
ĠSt ra
Ġcomp rom
re ck
ĠJ enn
ĠPark er
ul u
Ġcomm ands
Ġactiv ist
}) +\
ĠSte el
Ġ= &
ĠEx ception
f ac
Ġant ib
)\ ;
id ad
18 93
Ġinvest ors
umb ent
n ia
Sim ilar
13 2
ĠDr ive
}{ .
ynam ical
N G
Ġoutper forms
min ute
ĠHT ML
ba ij
ĠBanglades h
Ġcompris es
Ġaff airs
Ġpolar ized
in aries
sh a
AS E
ter min
Ġdirect ory
v p
Ġl ots
build ing
L ag
n odes
ivers al
U D
ush ing
ĠM obile
Ġadvent ure
ad j
Ġnon negative
Tem plate
Ġconj unction
H ER
raz y
à ¦
ĠAss istant
k u
ov es
ĠWar ren
B ro
F i
Ġsure ly
Ġrepeated ly
Phys Rev
Ġs ad
Th omas
Ġ\ ,\,
ĠAp pe
N orm
Ġprot otype
ck e
ĠIn s
Ġshe af
ĠS ex
ĠP il
ĠK ur
Ġtriang ular
ĠG as
2 25
Ġinvestig ations
acc ount
Ġconstra in
ĠA the
n orth
Ġthem es
Ġp or
Ã© t
Ġ$( {\
Ġcheck ing
lap se
S cale
ĠOr leans
ev ents
zer baij
f d
co q
un ov
Ġinflu ences
Ġart istic
CT ION
V ec
yn olds
ĠT ower
() :
ĠR at
ĠLe vel
Ġaware ness
Ġmer ge
us k
M atrix
Ġexplos ion
Ġd uties
Âł Âł
ĠUn fortunately
Pro b
^* )
. :
Ġg allery
}} ;
Ġb ishop
Ġsearch ing
Ġst ake
Ġconf usion
Ġcomput ers
Ġconduct ivity
en cer
vers al
ĠB ron
Ġpredict s
Ġsk ill
Ġmathemat ics
ĠS ob
Ġdelay ed
Vill ages
ve ction
pre ceq
Ġins ights
Ġcon sp
L ook
Ġg olf
Ġphot ography
tr ig
Ġcontrovers ial
* )
as ant
l vert
18 85
13 4
our t
Ġrail road
Ġr ub
âĢĻ .
b is
h p
um ped
00 3
| ,
Ġhighlight ed
Ġad s
Ġim per
18 60
M AP
Ġw et
gra duate
Ġphot ometry
7 50
ra ctor
ĠSch r
Af ric
Ġcom ed
Ġinter vention
Ġs ail
Ġob sc
d ers
ĠNe umann
Ġmetall ic
W il
Ġpar se
ĠPort land
ON E
Ġg overning
ret ch
Ġspat ially
Ġat tain
Ġcam eras
Ġoccasion ally
ĠJ azz
ethe less
ling ton
Ġfilter ing
Ġe at
Ġconc aten
Pol itical
ĠO S
ĠBar ry
ĠF ight
Ġdecre ased
Ġinnov ation
ĠF ine
ĠRail road
ĠEx change
ĠU g
Ġpaint ed
Ġval ued
ĠBroad way
ĠT i
Ġgra phe
Ġback ward
12 9
fair biz
fairbiz deals
c apt
Ġb ij
Ġprior i
15 5
Ġcomp ounds
ĠClass ic
{ }\
Ġvis its
arri ors
Dist ribution
re place
Ġswim ming
est im
F B
ĠSt ev
Ġachie ving
ric ane
Ġr ivers
Ġgu ests
Dev ice
}^ -
Ġillust ration
Id ent
Ġen forcement
Ġconclud es
ĠOrth odox
. (
Ġhe x
Ġuncer tain
Rail way
rosc opic
ĠT ob
ĠP ract
ryst al
op les
St ation
Ġdram atic
Ġaltern ate
Ġh ip
ry ption
de velop
ĠCon stant
Class es
un ning
z ed
we ek
condition s
Ĩ Ĵ
ĠSp irit
C ustom
Ġun changed
}} }(
il iation
18 94
Ġo s
L aw
^+ _
Ġkinem atic
ĠA pr
ut er
Ġserious ly
Ġtransp arent
qu al
Ġbary on
b rand
Ġstre ams
ĠStud ent
Ġtro uble
ĠFig ures
ir k
Ġspectrosc opic
Ġflow ers
Med al
Ġanalog ue
Ġsc an
Ð¾Ð ²
ley ball
H a
18 92
ib bean
ĠR ank
ĠAd vis
15 00
ĠR ural
f eld
Ġpro ud
D iff
Ph one
Ġto x
Ġmanag ing
Ph oto
Ġs alt
ps frag
$ _\
ig o
ĠA ld
ĠElement ary
S ession
c A
Ġto kens
Ġselect ing
ĠK ol
ĠBG COLOR
Ġt el
Ġpro xy
Ġoptim ize
? ?
}=\ {
Ġbrand s
Ġv essels
Ġel der
ĠCon struction
ĠDrag on
Ġlearn s
Ġspirit ual
f its
ache l
ĠSt orm
uk a
M ot
j j
big cap
Europe an
Ġle tting
Ġpeak ed
g it
Ġencourag ed
ĠH indu
Ġx ml
Ġbackground s
Ġinval id
for ced
Ġcompos ers
Ġwal ks
Ġcont ours
Ã¨ re
pr imary
iss a
13 6
, ...
E lect
Ġcl imb
apt ist
Val ues
ĠT E
Ġpand emic
Ġfin als
Ġc ul
ex istence
^* $,
Ġfrag ment
Feb ruary
Ġfor b
Ġax es
Ġprison ers
u art
Pre vious
f p
ĠLe v
Ġgovern ed
op al
ĠCl iff
Ġg od
ud son
ik o
S un
w alk
Ġto w
L java
ign er
Ġwides pread
ĠCont in
g auge
ĠGa uss
are r
h um
ĠRes ources
Ġpres um
Ġnorm s
ĠN am
ct rine
ĠS now
ĠProte ction
Ġleg acy
m ade
. }}
ĠB orn
Å Ł
Ġmen u
Q U
Ġra ising
Pol icy
Ġwe bs
Ġsh ield
in ology
tz mann
ogene ity
M icro
e or
ĠAcc ount
ĠS r
Ġbas ically
Ġmiss ions
Ġle pt
= &
ĠCl in
| <
K ing
Ġinflu ential
pie ce
ac les
ĠF ind
K O
Ġla ugh
L ou
Ġcap s
Ġiniti ative
}^{ [
Ġreg ulation
ex ception
ĠAtt orney
ĠR ico
oth y
Ġcheck s
method s
ins ert
Ġminor ity
Ġexp ans
Ġmac ro
iv ia
h ref
ĠConserv ative
ber ger
B ody
Ġb racket
an cer
Ġthough ts
Ġchem istry
) }}{
ma ps
Ġiniti ated
ĠS olar
iv ially
M eta
w hat
Ġan nu
Ġb eta
Ġestim ators
Ġleg it
Ġtw in
Ġsympt oms
ĠC ultural
orig inal
18 89
Ġl os
al go
equival ent
Ġby te
Ã³ w
Ġl ibraries
a qu
m g
Ġoscill ator
Ġappoint ment
ĠV erm
Ġsumm ation
ĠP sych
Ġmountain s
Ġb rick
ĠM ind
math ord
un ion
ĠU lt
ul ates
Ġent reprene
ĠH ind
Ġpremi ered
ĠZ one
Ġguilt y
Ġaccept able
Ø ±
it ime
r vert
yn man
E ar
de cess
man y
ĠPl ant
}( (
Ġfin ance
Ġgener a
Ġhe li
}{ -
Ù Ĩ
ly ph
t rain
ĠM ak
Ġill ness
Ġhabit at
Ġnorth west
Ġsup plies
0000 00
Ġim prison
$ ]
Ġthreat ened
p adding
Ġgraphe ne
at omic
con e
A SS
Ġrefer ring
ĠB ranch
Ġdiscre pancy
on ian
=" "
Ġo k
stit u
re z
f ony
ĠU RL
Ġcontrib utes
ĠKar l
Ġ$ ^
ĠSte in
Ġpuls es
ĠCl aim
iter ranean
Ġwel come
nabl ed
ĠW ing
ĠThe ater
Ġnewsp apers
Ġfermion ic
Ob serv
' _{\
)^{ -\
ins ky
cm d
18 91
Sever al
ĠGl asgow
K T
New ton
ĠOrig inal
over rightarrow
approxim ation
Ġsur jective
ĠB asketball
W F
\% .
L arge
oc ate
v ity
ĠColl ins
omin ator
ĠRo om
ĠB lood
Ġhigh lights
ric ks
t m
ĠS occer
Ġanaly tically
ke ley
Ġsepar able
ĠM ix
Ġsign atures
ĠD ocument
Ġas ymmetric
Ġunder go
C ard
Ġexec ute
Spec ial
Ġtrap ped
Ġby tes
Ġw edding
Ġfarm ers
horiz ontal
ĠP resent
ĠC ox
load s
check mark
Ġcombinator ial
Ġstreng ths
e enth
w art
Fe ature
ĠF ed
Ġven ue
ĠAlex and
ĠWay ne
ĠAl aska
Ġunder ground
H o
ac o
the ir
Ġpref erence
ĠP hoenix
} ''
ĠJer usalem
ĠC OM
C ross
st ats
âĢ ī
ĠMar vel
ĠAut o
Ġt iny
Ġl attices
t v
Ġt ill
comp ass
. }.
R ect
S tack
ĠG M
We ek
resol ved
Ġliber al
ha o
ĠT aking
ĠD ays
ĠMan hattan
Ġfre ely
b ishop
Ġimag ine
m el
pro gram
18 00
Ġcor ners
P arser
sch ild
Ġout line
ĠM aterial
ĠF OR
Ġview ers
18 88
Ġsat uration
Ġf raud
ount ered
ĠR u
inter pre
Ġide als
Ġcapt ures
ham mad
R oot
bib item
P lease
small matrix
Ġlab elled
f iction
}\ {
lim sup
ffic iency
ĠGi ants
g un
18 65
Ġfil ename
ĠSpe ed
c ient
Ad S
Ġmem orial
tx t
Ġt one
inc ar
ĠA u
Ġhand led
Ġtra ct
Re lease
Ġcritic ized
)} +
Ġstri king
}} |
ĠLabor atory
E rr
Ġd ated
cre ation
)\, ,
Ar gs
Ġrout ine
Ġorgan isations
Ġspeak ers
on na
Ġcompos itions
Ġm im
N OT
ĠP rice
Ġdecl ined
ig s
on ormal
Ġim plements
ol ia
L ight
Ex pression
le tt
ĠMuslim s
V s
ĠC BS
Ù ħ
n od
ĠT ournament
m und
contain s
Ġs hed
pm od
D oc
ĠAthlet ic
an ov
ob tained
Ġlens ing
] ,\
Ġpredict ive
al p
Ġpred ominant
Q CD
ur u
ĠF reedom
ish ments
Ġcoast al
ex port
Ġcon g
pr inc
Å Ħ
cal ling
OD U
Ġorgan ic
Ġanisot ropic
ĠC ou
Ġsim plicial
S ta
c ir
om at
rack ets
ĠPart ners
n atural
or se
ĠS z
ĠC arm
Ġan satz
inst all
w ind
Ġkn ot
Ġoption al
f erm
Ġar ithmetic
n il
Ġmount ed
Ġhypers ur
Ġre ven
I ll
ĠPr imary
Ġh ide
tikz cd
Ġshop ping
ĠY u
Ġexist ed
ĠP ictures
k ernel
im pro
J S
ĠRang ers
ĠH ubble
rel ativistic
Ġmodul us
ĠĠĠĠĠĠĠĠĠĠĠĠĠĠĠĠ ĠĠĠĠĠĠĠĠĠĠĠĠ
orient ed
Ġtack le
ĠK l
ĠCarl os
ick en
Ġem issions
Ġh ull
ac cept
ĠS ay
Ġquant ify
aramet er
Ġt ort
}$ };
Ġsup plied
Ġde ck
)$ :
ĠProfess ional
Ġcounterpart s
ĠN BC
Ġland mark
. âĢĻ
=" _
\ ),
Ġf irms
ĠF am
ther mal
rib le
ĠG round
im ath
aval ry
Ġput s
ĠBen jamin
Ġbond s
J P
Ġt une
H u
d k
Ġcoal ition
Ġh orses
rist ol
Ġrespond ed
itt en
ĠJos Ã©
ĠH orn
le igh
Ġabsor bed
van ishing
Ġconnect s
Ġdescript ions
pl ugins
ĠL GBT
ĠJ oy
ĠJ ess
Ġp ion
P ay
ĠC ricket
Ġnom ination
Ġsp okes
ĠR ing
ĠW ord
ĠR M
ĠPr im
L ee
P arent
ord ination
ĠP ant
F our
om ing
Ġbe ams
Ġevol ve
( .
Ġinstall ation
Ġminim ization
Ġb io
ĠSt re
Ġvir us
th read
Ġviol ent
L ear
P rior
ĠIn v
w hel
f ers
og ue
w ild
Ġking dom
Â Ģ
Ġs addle
er ver
Ġhol iday
Ġsudden ly
R N
ĠR acing
Ġelev ation
Ġg athered
ĠL ad
cal ar
Ġsuccess ive
] :
^{- (
13 3
ĠM ong
ain ing
Ġm eth
to String
ĠS hi
ĠDen ote
A ud
Ġw ake
ich i
Ġfib ers
^ -\
Ġcomp iled
ĠR L
ĠNorm an
ne ut
bre aking
pos itory
Ġn urs
p al
ĠC ov
Ġtrunc ated
th y
Ġsub spaces
os opher
In s
ÂĢ Â
M ad
Ġtrans ient
ĠS ED
ĠP L
] +
A uth
Ġo mitted
È Ļ
ĠC ant
ĠSaf ety
lo yd
ĠTh anks
IV E
d iamond
em or
ĠN icol
Ġobject ives
al ong
ĠOtt oman
Ġprov incial
Ġcatalog ue
ĠS elf
Ġout lined
ĠMar c
Ġrest oration
Ġadjust ed
B ay
book s
isen berg
Ġlo ading
m ask
Ġdeploy ment
ĠSe ven
Ġactiv ists
Ġb one
duc ational
Ġhard er
N i
ERR OR
ou ter
Ġover s
var iance
Ġlaw yers
Ġpurs ue
K A
Ġapprop ri
ass y
cast le
Ġcontro versy
is an
Ġf oss
sup ers
Im pl
Ġd ub
Ġ& =\
18 50
Field s
part y
Ġprov iders
Ġtr ump
T aking
ĠT u
Al gorithm
Ġb es
math ring
Ch apter
ĠJohn ny
} "
Ġsem antics
ĠColon el
E nabled
h m
Ġdefect s
E ast
ĠM all
T ur
ĠA ra
Ġpoly mer
Ġcompris ing
av ailable
Ġcoff ee
ir ts
Ġtens ors
ĠP red
ĠCh ron
Ġdepend ency
ina e
prob ability
pat tern
Ġparticip ating
Ġstar red
if le
}} [
Ġvalid ate
Ġenc ountered
Ġmonot onic
ĠB it
ĠB enn
Ġreg iment
Ġrun time
Ġwood en
ĠSt ore
V A
Ġcricket ers
id x
Ġtimes cale
ĠBar cel
Ġs outheast
Ġlist ening
Ġcopy right
ĠN ear
Ġhypot heses
ĠUr ban
Ġap ps
Writ er
)+ (\
r ity
C hen
w d
Ġbin aries
Ġris ks
F ace
z hang
over view
L at
Ġh ate
ex ports
ĠBar bara
; <
ĠCommission er
ann ah
Ġdis abled
J ew
K ar
in cre
Re ader
Ġsouth west
ult an
IN D
ta king
Ġf aint
ri er
Ġcap ac
Ġm oral
ĠO range
Ġw ings
Ġearth qu
Ġre fined
ĠJ SON
Ġcumul ative
Ġdo ors
p ons
Ġd rew
ĠM om
Ġir regular
k pc
ĠE ver
ĠL ithuan
ĠC er
Ġclaim ing
0 10
Ġsoph istic
N um
IF AR
ĠFI FA
ag ers
Ass ert
Ġqual ifying
Ġsil ent
Ġpay ing
O PT
ĠInd ians
Ġrob ots
Ġinterview s
Ġmaxim ize
m art
ĠO ption
ak u
Ġcount ies
Ġfluct uation
Ġdeep ly
ĠT ol
Ġprocess or
B ra
Ġmag azines
Ġlight s
iff s
Ġcancell ation
ook ie
Ġinsp iration
N Y
en ius
prop ag
do es
Ġexpon ents
set up
Ġanalyz ing
Arg ument
ph on
ĠNaz i
Ġcomplet ing
ĠMin or
s z
Ġproxim ity
ĠU SS
Ġass ass
}) \\
ord inary
Ġsem igroup
Rich ard
st ad
p n
{ #
Ġdaugh ters
ester day
o ons
## #
bal ance
c ussion
T ake
Ġcon gress
Ġreported ly
ĠSt okes
ol en
ĠLapl acian
Ġmed ieval
Ġb oss
Ġcal ib
hy dro
Ġto ugh
i ology
n ice
Ġcon fined
commut ative
Ġp ric
ro oms
v ir
ac re
Ġdifferent ly
V R
Pl ace
Ġe rect
ĠP ast
intend o
B TH
Ġst ere
ole cular
Ġp our
Ġslow er
Ġant is
J ECT
L oc
ĠAd vanced
18 87
sing ular
Ġse eds
Ġtravel ing
r aska
Eu Script
ie ve
ĠPh D
ĠSal v
che l
ath on
Ġpain ters
AR Y
Ġent hus
Ġt y
Ġsh ots
Con stra
ass ociated
13 8
ĠY am
Ġcol span
F ar
)} +\
Ed itor
pon ential
Ġshort est
online cite
ide al
ĠG ate
14 3
Ġtick et
Ġp unct
ER S
), $
ĠB rew
Ġanalog y
Ġd ictionary
Ġph rase
su cc
Ġt ies
or ia
Ag ain
Sy mbol
Int eg
her s
Ġfl ags
ĠB our
Ġc rop
SI ON
Rad io
ĠPrad esh
ĠInt elligence
ĠIn n
Ġsubstr ate
ĠI van
$\ %
M ur
erv es
Ġincre ment
ĠN an
ugg ing
hem atic
Ġ[ '
Ġrem n
) *
ond o
ĠAnt i
arri ers
Ġp ars
ore n
by te
PE CT
W rap
Ġbeg un
fo o
cel and
Ġcry pt
Act ive
ĠLe aders
ĠV ic
ĠBe ijing
h uman
YER WB
BTH YERWB
ed ed
}^{ -\
Ġhad ron
hen ce
Ġhead ing
ĠHar rison
il ateral
Ġannih ilation
Ġpl enty
Ġover se
Ġgr ants
N F
Ġfit ness
Ġre finement
Ġle ak
Ġout break
Ġsqu ee
Ġsub script
as ympt
Ġcred ited
Ġdiscrim ination
ĠRob in
ĠG T
ll a
ĠScient ific
P DF
Ġep id
f olk
m usic
Deb ug
Ġv oc
ĠAss ert
% %
C amp
Ġl i
( |\
ift y
rel ative
l ia
Ġw orship
Ġmy ster
ĠH R
Ġcancell ed
Ġg all
Ġlicens ed
deg enerate
Ġhy perp
' ^
ious ly
Ġload ed
Ġun success
rest rict
ĠCr ime
Ġmonot one
)\, .
ĠForm ula
Ġf ed
ĠTig ers
che t
Ġgra ins
t abl
ĠM ust
F low
ro at
=" /
In valid
Ġdeb uted
ĠP od
ĠS id
Ġtax es
anc el
se lection
n or
scal ing
Ġcirc uits
ol in
Ġwat ched
ĠTh ings
Ġhe m
ĠF ab
Ġfix ing
ĠCo hen
section s
av i
Ġcl othing
Cle arly
18 64
ĠEnvironment al
ĠYork shire
is i
ĠNev ada
rosso ver
Ġaz imuth
18 86
b v
ĠOper ations
ĠCat hedral
Ġme at
ĠF alse
ĠSerb ia
ĠChrist ians
ĠL arge
Ġint ra
Ġfil tration
az y
ĠV ar
Ġmet adata
p any
Ġpre decess
Ġviol in
P rom
ĠBo olean
clip se
Ġf o
Ġacqu ire
Act ivity
Ġincl ination
Ġsens ing
G H
ĠR andom
Ġ( [
ĠF itz
_{ *
Ġs ick
ĠCra ig
ap or
Ġguitar ist
ĠS ax
ĠComm ons
P ower
ĠA x
ĠAnn ual
o S
ĠStud ents
Ġdec ides
}} /
Ġsp acing
ĠTurn er
Ġcontroll ing
Ġm i
15 2
ĠL ud
Ġplanet ary
th us
ch ildren
Ġaddition ally
A pi
Ġv in
Ġthe sis
14 7
Ġbroad er
ĠF ly
Bl ue
1 19
m ock
Ġint ellectual
Ġth irty
ĠI L
Ġmob ility
ĠBarcel ona
ĠE li
Ġpropag ator
ĠFl ore
Ġax ial
Ġadi abatic
Ġrat ings
Comb ining
Ġsimultane ous
ĠD est
Ġcom ics
ĠCar ibbean
ĠG ot
arch y
ĠEx p
Ġbos onic
Ġsurv iving
J y
Ġhel ic
SS M
ops is
d al
Ġarchitect ural
d B
Ġpl acing
Ġamb ient
Acknowledg ements
Ġshall ow
ĠShe l
u ons
Ġlat ency
Ġb ull
P tr
Ġaut onomous
Ġnom inal
Through out
ĠT otal
Ġexpl oring
Ġt orn
Ġeng age
g io
ll ll
block List
Ġcolle ges
18 61
Ġbre ast
Ù Ĭ
Ġstat istic
Ġdocument ation
ind eq
Ġm uon
T i
Ġpoor ly
ou x
Ġchar ity
Ġl ap
ĠF alls
he ro
P ool
Ġcol ours
=" ">
d etails
Ġproceed s
Ġspeed s
Ġsuperconduct ing
ed it
D ouble
Ġany where
ust ers
Ġem itted
R ay
Ġmultiplic ative
D etails
che m
b atch
P Y
ist ance
verb atim
Ġcas ual
Ġnot ions
ĠB log
ĠIran ian
) }^{
ry ing
Ġemploy ee
ĠLiter ature
mar ine
Ġpron ounced
ĠĠĠĠĠĠĠĠĠĠĠĠĠĠĠĠ ĠĠĠĠĠĠĠĠĠĠĠĠĠ
Ġafter wards
ĠC row
ur st
ph al
int erest
-\ !
pr im
Ġf ictional
qu bit
Ġdegener acy
Ġun clear
Ġqu oted
Ġaccount ing
D ialog
n othing
28 0
Ġannu ally
i pro
observ ed
iv o
ĠHig her
per formance
ron es
Ġrecommend ations
> .
T ri
ĠNov a
ĠCam eron
et ics
p u
M el
18 75
Ġconv icted
L ock
ĠE ve
ement ia
ĠC ole
Ġcor ruption
Ġ( *
i q
L ow
Ġt uple
inter action
ae v
An alysis
ĠAlber ta
Ġsold ier
_* \
Ġemphas is
d iam
ent i
,\ ;
Ġphotograph s
L AS
Ð ¿
ass ign
coupl ing
X T
Ġeng agement
B ob
ĠM E
Ġcomputation ally
ine e
Ġb rig
Ġmonth ly
b ay
sh adow
ĠRober ts
Produ ct
ĠP oll
Ġinher ited
Ġab road
ĠJ en
Ġthrough put
s ided
u ce
] =\
Acc ount
rm k
cycl op
Ġhe ll
M Hz
ass er
S a
x t
ad min
ĠFor um
Ġrelev ance
Ġbif urc
Ġcard inality
ĠObserv atory
O s
P eter
Ġdec oupl
Ġcontinu ation
s it
ĠN at
ĠT on
18 63
Ġl ag
S G
ĠH awaii
ĠUnivers al
Y our
ĠM ans
dis k
Ġdown stream
K im
ant astic
d yn
Sp anish
Ch annel
ĠMunic ipality
spect ral
writ ers
ag ar
N ormal
) &=
B ul
ĠP le
in j
ĠAnd re
Ġmicrosc opic
s ave
ĠL uther
sq l
Ġagric ulture
ĠCharl otte
ow ards
ĠSh ang
Ġpar a
Ġquad rup
E nergy
&& &&
ĠPr ivate
ĠD id
ĠBelg ian
wid get
ĠB et
Ġdog s
Ġhealth care
os hi
M ill
Ġst roke
ĠH ave
Ġelli pt
ript or
Ġprot ests
T own
uck er
non ym
ĠI O
Ġ+ +
Ġsp anned
Ġrele g
In f
. ).
h over
v t
cer taint
ĠIs a
Ġsol ver
bi ased
ĠT OD
Q A
Met adata
ĠI F
Ġarrang ements
Ġattempt ing
Ġre written
ĠFran ces
Ġen code
ĠRich mond
ĠGre ater
ull ivan
inc inn
Ġmon ument
ĠL ost
ract ing
Ġsubs idi
Ġelect oral
Ġpo ems
ep he
u ine
P a
ĠS ad
Ġyield ing
Ġcosm ology
ĠA zerbaij
ĠG rey
ĠÃ ł
d iction
Ġloc us
l ive
Ġmanufact urer
ĠS ide
amp a
S end
C ity
ix on
ĠTechn ical
alth ough
ĠF is
Ġquad r
ĠF u
ĠPl anning
Ġspecial ized
ĠPier re
ĠAthlet ics
Ġequ iv
Ġn aval
00 4
Ġact ed
; /
Ġins pection
A u
ot er
ĠOl iver
Ġb ike
Ġdom inate
necess ary
ĠObl ast
Ġb orders
ĠSer ge
ast rop
Ġingred ients
ĠSte ven
Ġele ven
bour g
erv ation
ĠEgypt ian
ĠC old
Ġwal let
b undle
18 84
y u
ĠD ouble
Ġut ter
dor ff
ack s
Ġrestaur ants
sub ject
,\,\ ,\,\
? :
maj or
\% )
se mi
Ġstat istically
ĠDen ver
Ġr hythm
Ġbusiness man
Ġm ail
dis abled
Method s
\ },\
Ġal phabet
Ġharm on
Ġnucle on
p es
ĠZ hang
> ();
int rodu
Ġhop es
=\ !
Ġinter cept
l ater
22 4
)}{ (
ĠRepublic ans
ĠM ink
Ġsub sc
ĠF el
Ġop ponent
O F
ed itor
Ġimpact s
Ġon set
Ġcred its
Bo olean
v ary
Ġas ide
ĠO cc
nd um
Ġappro ached
R P
av g
ah a
bo olean
}}$ -
}$. }
Ġdefe ating
) <\
ĠMethod s
ĠD og
ĠCo al
ĠArch itecture
Hand le
ce ive
ĠH aving
Test s
Ġt rick
est on
Ġser vers
comb ination
Ġgrate ful
Ġb le
Ġop ponents
ĠPer u
ĠY ugosl
ĠLe ader
Ġacknowled ges
Ġfrag ments
ĠV el
m k
t ip
annot ation
Cond ition
Ġ{ (
Ġeigen states
um my
ĠH E
fin ing
with in
Ġcur ved
Ob j
ĠKir k
Ġorig ins
ap ing
Ġsub stitution
Ġdiff use
Ġengine ers
et erm
orig in
ic ates
Ġ ...,
Ġbipart ite
ĠChe l
Ġparamet ric
r ub
u ous
Ù Ī
ĠTro phy
} <\
_* (
incinn ati
Ġsing let
Ġcount able
Ġin line
Ġent angled
' },
l Vert
Ġc ube
res on
)+ (
constra ined
ĠF light
ĠHe b
yp ical
ta kes
r put
}: =
Ġs ax
ĠSaint s
el ing
W ho
ĠB ird
Ġstreng then
ĠE ston
ĠRe ynolds
ĠB omb
Ġens uring
Ġfe es
Ġinnov ative
col lapse
ĠGu inea
Ġ ðŁ
ĠPro test
Ġposs ession
N ever
g re
cho ice
Ġcampaign s
ĠFinn ish
Ġconstant ly
ĠWrest ling
Ġdes irable
duc ing
Ġle ver
Ġview ing
Ġdom inates
Ġfast est
Ġprom oting
}}( {\
Ġgal actic
ĠF ast
ass ets
Ġsound track
ĠBer g
ĠConf eder
ĠP el
Ġun con
anc ies
ĠM ason
ĠO N
Ġ< =
ĠMad ison
Ġg ard
ĠY ank
ier ra
ĠFac ulty
bre ve
clud ing
18 62
ad van
ĠM N
Ġmin us
ĠMu hammad
ster dam
Ġperm it
Ġwonder ful
Ġperm itted
Ġbatt les
Sm ith
Ġz ones
Ġhapp ening
uss ia
be it
sh own
am er
Ġun re
Ġar cs
Ġtransl ations
ĠT ib
)= -\
_* $
am o
ĠSh ar
Ab stract
math rel
pos able
sp ired
r v
ub ert
Ġcolle agues
ĠP ick
ĠVictor ian
Ed ge
Ġcon scious
ĠO il
rac le
ĠPro f
)= -
Ġc inema
ĠG C
}^{ {\
16 8
Ġfaith ful
pan ic
ĠWrit ing
Ġdiscret ization
ĠBe aut
z es
ent e
ill ation
ĠCh air
Ġrel iability
rt imes
Des ign
Ġflex ibility
Ġspectrosc opy
Ġsh ore
Ġp ian
18 81
Ġrem ind
Ġinv ention
Ġtext ure
)} -
Ġdoub les
Ġs ugar
Ġscient ist
ĠAl ong
. [
Ġin complete
b ank
ĠVin cent
Ġinc idents
Ġcont amination
ore r
Ġorgan ised
Ġreg ret
ĠCond ition
{ }{
Ġb rane
Ġtick ets
Ġp c
label ed
ĠMil an
Ġhad ronic
26 0
l ene
mult ip
ellig ent
ĠL an
Ġsk ip
}}{ {\
ĠTh or
iss ues
Ġuns igned
Ġv ital
-------------------------------- --------------------------------
ir s
Ġe ighth
Ġatt ending
Ġbirth day
ĠU C
F rank
ĠCl are
ĠMag ic
ag h
Ġpresc ription
ential s
Se ason
I con
b ane
Ġindust ries
Ġapert ure
Ð ¹
Ġcell ular
ĠD ol
om ed
Ġexhib ited
| +
A X
c C
h aw
Ġpen et
ill iant
Ġsusp ension
f eed
Le ague
ĠB achelor
en abled
L ive
Ġwebs ites
equiv ariant
$\ {
Ġfil med
M aster
ĠArch ives
cont roller
Ġemploy ing
Ġc reat
ĠBrown ian
Ġb ridges
3 30
ĠN ak
act eria
Ġcomb ines
Ġannounce ment
T a
d V
ĠJer ry
ĠSt ories
U ST
ĠM R
Ex amples
Ġimplement ing
Am ong
P ut
Ġprofession als
Ġan ime
Ġpow ered
text backslash
Ġbe er
- )
Ġth rown
Ġg ear
Ġaccommod ate
Ġt ape
Ġdr ives
Ġdis aster
Ġrad ar
ĠT oy
Ġbij ection
f ail
Ġinvestig ating
A BC
pol icy
r Vert
Ġj u
ĠB E
ĠV as
quir y
z ant
ĠC ert
load ed
Ġdevelop er
Ġdes ert
ĠSpr ings
ĠK err
hib ition
ĠJ ama
bran es
Ġn od
}{ (\
e ur
Ġob ey
f x
Te chn
on ing
Ġswit ched
or ption
un ed
ĠAnt ar
con clusion
Ġinter active
dat aset
ĠJ a
Ġsurv iv
Ġplace ment
ĠArab ia
me as
Ġpriv ile
D ig
10 24
in z
ĠR idge
u cc
ĠM is
ĠBeng al
ĉ ĠĠ
aster y
Ġaccom pany
Ġfl ights
Ġspl its
Ġthreat s
ams ung
b log
M oths
ĠD NN
' })
oc hem
US A
Ġorth onormal
Ġaltern ating
Ġover whel
Ġsl opes
Ã Ł
Ġmin isters
ĠPar ish
key word
MA X
ĠH ugh
18 82
Ġper ception
hed ron
Ġen compass
Ġdig it
raph ic
ĠSh adow
ĠEx amples
et ta
Ġlimit ation
Ġw elfare
ĠC e
Ġcon form
ĠSing le
Pres ident
ĠCamp aign
O U
ol ute
(\ {
ĠPh ase
\| _\
Ġburn ing
ĠSong s
Ï Ħ
ĠM W
13 1
St orage
ĠÂ ©
Ġde pression
Lo ad
t l
Ġ }_{
reg ister
Al umni
ass o
us ers
ĠK el
if iable
ĠPol itics
Ġwid ths
Ġmem or
ĠIndust rial
Ġh a
aj a
Ġb oot
ĠB es
ĠB right
ĠD B
ex ternal
it ual
oc ratic
ĠStat istics
Ġab bre
Ġdisappe ar
ele ments
Char acter
ĠG arc
sc ience
Ġj ournals
li u
Ġcelebr ate
ĠColomb ia
co herent
Con st
Ġt aste
ĠW or
to pe
ĠM ut
Ġc er
ĠMas ters
ri en
ĠN iger
)\ )
Ġbus y
ed ges
Ġlight ing
Ġbon us
ĠW u
ĠB ert
Ġmanufacture rs
\ ;\
be am
m ov
part icular
Ġcert ificate
ib n
) ">
29 4
ag onal
Ġsol ves
Ġsem ic
Ap pro
Ġam ateur
ir r
Ġvirt ually
ie v
em a
ĠJ oint
Ġcons ent
cle an
Ġinter faces
ĠL ion
Ġf ighter
ĠMed iterranean
Ġ\ ;\;
c ott
Ġs oc
ge ometric
Is ra
Ġpack ages
Ġcomment ed
Ġact ively
ĠV lad
Ġperson ally
ĠArt ist
v ac
c ence
Ġpass ive
K w
il ia
ĠParliament ary
ock er
, '
\ >
ical s
Ġvol can
Ġpo ets
load ing
trans fer
| $,
ounc ill
Ġj son
B usiness
av an
Ġpass word
ge o
Ġen abling
ĠR ange
pol ynomial
ĠCost a
Char les
Ġpl ates
C u
Ġarr ives
h all
Ġen umer
am ic
ĠM uch
Ġs ou
ĠO w
Ġun e
ĠBer keley
ĠB ris
Ġsmooth ing
]{ @{}
Ġg raphics
Ġcook ies
Ġsynd rome
g b
Ġsh ar
Ġfeel ings
ĠT it
G re
ĠM ann
Ġor chestra
Ġdisc ount
P et
og y
Ġsub sequence
Ġmunicipal ities
}^* $
s al
ĠWar ner
im pl
clud e
Ġcon vin
l um
def i
K h
Dis play
Ġ$( -
err ors
P red
Ġmore over
Pr int
Ġcous in
Ġmer gers
ĠCom plex
Te V
Ġd b
ific ant
Ġst iff
cl ock
c F
Ã ¦
ĠJ ere
ĠPref ecture
ĠEp isode
Ġrel ates
ç ļ
chi at
b inding
ĠB ristol
ĠH unt
Ġautom ated
ĠNeb raska
Ġc oc
ĠSch warz
Ġt ags
Ġterm inology
T s
iz ard
Ġhal os
Z hang
Ġport folio
ĠKen ya
| ^{\
col sep
b ie
ĠS uz
Ġas set
p arser
Ġrest ore
Ġpack ets
Ġche ap
ĠB ath
ĠJeff erson
ĠC ot
Ġf is
Ġdiscuss ing
count ry
ĠW es
Pack age
k an
18 5
to ols
ĠHerm itian
18 76
L I
Ġrelax ed
It s
ĠCh and
aus dorff
ĠNich olas
( *
v et
Ġd upl
T oday
Y M
n at
ĠMur phy
F D
ĠF W
ĠLand roid
in ance
id uc
ĠE c
Ġnames pace
Ġm sg
Ġg ross
16 6
Sche ma
Ġbas elines
, -\
Ġl ux
Ġcoun sel
ĠAst ron
C opy
ot hes
Ġ }^{
ĠR GB
ĠRes ource
AN T
Ġoccas ions
Ġdes k
Ġm oth
}) -\
ars on
l iter
ĠL STM
S at
ard i
Ġsp arsity
onic a
K ind
in ks
Ġh itting
ĠGra ce
Ġvulner able
Ġco ins
ash a
r ised
Ġp uzz
Ġwhere in
c ous
18 78
In ternal
Ġrecommend ation
B on
Ġdon ated
20 2
Ġ ic
Ġmy stery
ĠE ug
ĠK ate
Ġend point
Ġsophistic ated
Ġap pend
ĠRet rie
ĠSy rian
Ġatt raction
Sec urity
p seud
Ġall ocated
Ġsent enced
Ġâ Ĥ¬
ĠArch ive
Ġident ifies
g ie
Ġmed als
Ġener get
Dem ographics
x s
amb ers
tem p
P b
ep ing
Ġw ond
Ġconcent rations
I SE
ĠF low
Ġmain stream
Ġcollect ing
sp here
Ġchampions hips
j ack
ĠMer c
Ġpermut ations
Ġrev ised
ir re
Ġacceler ated
ĠLu ke
l ies
com press
exp ansion
oun ters
Ġdisput e
Ġ' /
Ġm oon
Ġout door
He alth
ĠN A
ian ces
Ġbut ter
Ġind igenous
vi o
Ġj ack
Ġcompens ation
we ets
ĠT alk
ĠPro duction
G overnment
Ġdo ctors
V E
}| $
Ġelig ible
ĠT ool
ovak ia
R G
Ġ\ '
bra ham
Ġph osph
mem ory
X iv
........ ........
Ġstret ch
Ġterrit ories
ĠHop f
Ġde emed
Ġbelief s
utr ition
ivid ually
Ġb orrow
H aving
ĠE sp
18 83
C W
15 4
N umerical
fl ag
y i
as p
S aint
Ġcon figure
13 9
}) /
Ġb ilinear
Ġpet ition
ibr ations
h idden
{ +
}) ]
min imum
So ft
fl ix
m itt
Ġvol at
Ġan onymous
Ġaccording ly
Ġexam ination
ĠPy thon
'' )
}} ^{-
wh ose
15 6
ĠD iamond
Ġportray ed
ĠSe lect
N I
om i
cycl ic
ĠR S
B ern
Ġcomput es
ĠAn aly
Ġau ction
ĠQ ual
Ġvis ibility
ĠGl en
J an
33 3
Ġaccompl ished
sm ash
chan ical
ĠCub a
b et
ĠF act
j ud
Ġprogress ive
Ġexped ition
Ġcomm une
ĠAr g
Ġconstit ute
R andom
Ġd ens
ĠFri ends
st retch
Ġaug mented
ik ing
ĠSm art
Ġp ace
Ġr ated
ĠRe ading
t oggle
Ġhon our
Ġal ert
O H
Ġcal endar
ĠG ay
ĠHor se
w ere
Ġpl aus
au kee
Ġdel iber
u ate
Ġun ified
Ġorig inated
Ġadequ ate
Ġimplement ations
ĠC ele
Ġco in
ĠB ass
var sigma
Ġmem ories
}\ ]
Ġeigen vectors
Ġdr inking
Pol y
d ie
Ġlik ed
m other
By te
14 6
gener ic
ĠSerb ian
4 000
bi as
Ġf riction
o j
Ġbi ased
A Y
Ġp arks
item s
ĠGon z
\ #
ĠFe ature
Ġdu o
ub a
Ġcoach ing
14 8
Ġstrong est
cos ystem
ĠC ad
un i
Ġliter ally
sect s
L ower
ing ale
Ġo mit
Ġem otion
ric ulum
f ive
23 5
15 9
part ition
ĠI celand
ĠCirc uit
Al tern
Ġtravel ed
S pect
Ġthe at
ĠArab ic
Ġj umps
ced ure
ag i
20 5
Ġfunction ality
ĠD raft
min imal
Ġimply ing
ĠR T
LO G
En ter
Ġconst ructions
Ġassoci ations
With out
ĠPro file
Ġtown ship
te am
t bl
th ird
sp ot
ĠN HL
Re cently
Ġpre val
Ġcompl iance
Ġsustain able
Ġimm igration
av ier
Ġflo ating
te ch
Ġed iting
ĠKe ith
ĠPer ry
cy l
ĠEd ge
app ly
r ational
ĠL ess
ĠH em
* (
r us
ĠCl ay
ĠTer ry
Ġspons ored
Ġbe ating
pe ak
Ex pr
Ġr iding
Ġfil tered
De lete
Ġh orn
ĠCh i
W he
i racy
Ġped est
S NR
Ġaug mentation
ĠRes Net
A K
rob enius
Ġrecip ient
S ocial
ĠE SP
__ (
Ġt ons
Ġcon dem
20 8
t is
ĠMod els
Ġlast ed
St ructure
Pro file
flu ence
ĠCan cer
Ġsp heres
ĠNe il
k el
Ġflo od
Ġman ually
ul ators
Roy al
Ġtun ed
Ġtra ded
cor related
constra int
del ay
v b
dis crete
continu ity
ĠRog ers
sol ved
Ġh urt
Ġh olog
ort s
akes pe
ĠL ions
it ic
Ġpay ments
Ġab ilities
Ġper ceived
)}\ ,
ĠBuff alo
Ġm ouse
Ġlik es
ĠM ig
çļ Ħ
T x
ĠF P
graph s
ĠIn stit
Ġ å
B ad
k j
M ock
a ft
t uning
ĠH udson
Î ¹
r ators
Ġpart on
Ġcryst all
Ġfail ing
t uple
15 8
O bserve
Ġcompet itors
Ġclass ify
l p
Ġcontext s
Ġsurpr ised
uck land
Per formance
Ġsec ured
mathb in
Ġvolunte ers
ĠS oul
ĠL loyd
Ġl ip
gar ia
ĠFle et
ĠB und
Pro blem
37 8
Ġpo inter
Ġexceed s
ĠS V
By tes
qu estion
Ġle x
Ġparliament ary
Ġdial ect
Ġcab inet
id ency
Ġhistor ians
re ach
IG HT
K er
equ ence
ĠK ath
Ġinitial ization
Ġh az
15 7
Ġc ow
ĠF ro
@ \
c P
ĠGh ana
J ul
ĠN y
18 67
Ġult imate
Album s
Ġatt itude
Den ote
compat ible
Ġbl ank
B V
on ce
Ġform ulate
ab ol
ĠAng l
18 79
Ġg ent
ĠSh op
Ġindex ed
M il
Ġbuild er
Ġyoung est
ĠC opyright
is ch
Ġfun ny
S pr
ta wa
ĠRic ci
h art
ho e
se g
ig ion
Ġexclud e
Ġd z
Ġdepict s
Ġrecurs ive
Ġm anga
Ġfl are
ark ed
14 2
Ġmer ging
pass word
ĠM ari
U ID
Ġport rait
ĠÐ ²
Ġperturb ed
ĠS ah
Ġdef ending
Ġun bounded
abul ary
h is
al ias
Ġte ch
Pan el
H K
ĠSh aw
ox y
ĠB aptist
g om
}= {\
Ġ ~~
18 74
pd ated
Person nel
Ġf idelity
Sp in
Ġ$ +
ĠG host
Ġb anned
ĠC ut
em ark
Res earch
ĠLi u
ĠM oz
_+ (
à ´
ist ani
Ġinn ings
az ar
am y
ij i
C AR
ĠHe avy
sk a
Ġess ay
oc co
18 77
ĠI mages
Ġsched uling
iv ic
H ard
SE T
Ġdiagn osis
R ic
Ġpremi ere
in verse
Ġsl ave
Ġcop per
ĠB O
){ $\
Ġ" "
magn et
Ġsatell ites
L ondon
ĠMathemat ics
ĠSw ift
Ġmaintain s
ĠC ell
14 9
Ġcommunic ate
Ġd inner
ĠI da
- }
)\ |
Ġrock s
Ġhar vest
ĠL ate
Ġbl ues
Ġminim a
Ġaw ait
Ġw ick
w aukee
TE ST
Ġmil k
M id
Ġev ac
Ġphil osopher
ĠEconom ics
ĠN HS
ĠC ob
ĠL ux
Ġdetect ing
lik elihood
osp el
ast ically
De ep
Ġnom inations
Ġgu idelines
ĠDat abase
ĠP O
integ er
Ġaffect ing
M u
24 5
Ġsp ir
oth ic
KE Y
ĠAm sterdam
ĠAg reement
ia z
uls ive
Ġwrest ling
Ed it
ĠT D
}_{ +
Ġqual itatively
as is
ĠRe cently
0 25
p aren
ĠK ay
E conom
'' (
Ġavoid ed
ĠLapl ace
w ould
Ġch ip
ag ain
Ġartifact s
ĠDo es
um i
fore ach
ĠG olf
be ck
B egin
Line ar
perturb ative
aur us
uit ively
ĠM end
ne ighbor
L ove
Ġcomm emor
D ifferent
{( -
ĠGuard ian
ĠEX PECT
ĠHol land
m itting
Ġsubt le
18 72
M ember
18 68
Ġpro gen
Ġpo ison
Ġsuggest ions
ĠPl us
ĠH ess
}) _
ĠL arry
Ġle verage
Ġdim in
Ġhospit als
P relim
Ġreason ably
Ġconduct ing
R en
Ex perimental
u id
ĠQu antum
Ġm os
pr ising
Ġsp ell
ĠWat son
ĠVenezuel a
ĠD L
akespe are
Ġb rackets
ce ut
v x
} &=&
acknowledg ments
con serv
Ġ ×
ĠC atherine
Con sequently
ue z
18 71
Ġtrig gered
ĠP H
DE s
z hou
ill ance
p el
Ġmorph ology
y ang
ĠH ob
ela ide
Ġed it
Ġbo ats
Ġcha otic
Ġfl ed
Ġm ad
ĠA U
per cent
Ġ Ñģ
ĠS ony
Ġsupers ymmetric
ĠP T
Ġdel ays
ĠBor ough
ĠB un
Ġcompat ibility
Ext ension
min im
as ters
ĠIndepend ence
Ġst er
R oute
ĠJust in
M pc
FA ULT
ĠB uch
Ġin set
Ġc ave
st ars
ĠEd wards
Ġvent ure
leg al
Ġcomm ute
Cent ral
Eng ine
ĠY a
it ious
Ġassist ed
Ġrect angular
co e
Ġeconom ics
exp and
Ġâ ĨĴ
Ġwalk ed
ar an
ĠL ot
Ġpresent ing
L ab
b ast
Ġsk i
spec ies
Crit ical
ĠTerrit ory
Ġimportant ly
Ġn ons
Ġper cussion
Ġconf used
test ing
Rec ip
Acknowledg ments
own er
=\ ,
ĠGr ass
Ġresidual s
Ġpat rol
ĠR G
ĠM orning
it ol
ĠAp plication
ĠNetwork s
Ġopin ions
ĠPo incar
Ġsomew here
Ġf iring
if th
st ock
T w
[ [
Î ½
Ġgold en
Ġrecur rent
Ġcur rency
Ġarray s
z t
ĠÂ ·
Ġ( -\
stit uting
ĠSym phony
qu asi
G rid
oper ation
th al
Ġarr iving
can onical
ul ous
ap unov
ĠRoman ian
J im
Ġ\ }$.
Ġadvan ces
N M
Ġhand ed
ĠL E
ĠA round
ĠWeek ly
ĠVerm ont
Ġwe aken
Ġsub algebra
ĠSt ructure
L uc
chang ing
16 7
hold s
H or
Ġextrem al
Ġretrie val
Ġinf ected
ĠCru z
P ER
Ġin ject
Ġ$< $
d dots
Medal ists
ut ton
Ġsm oot
! [
I ce
Ġhun ting
ĠTheorem s
######## ########
Ġjo ins
R ank
om es
he ll
Ġhydro dynamic
d w
Pl ayer
B it
N ET
+ (\
S ir
th row
Bas ic
ĠD P
atern al
Ġle mm
Ø§ ÙĦ
C ost
T ex
}} ]
pl iers
c ot
cal es
ot ypes
ĠMe asure
ind a
Ġtransmit ter
att ention
att ribute
Ġphon on
ant ed
R ound
` .
ĠP ont
==== ==
v r
az i
Te am
ĠI de
ma ch
) ^*
ĠCan al
Ġc of
ĠComp an
Ġcent res
Ġpredict ing
}\ !\
mod es
ĠSe an
Ġjav ax
15 3
gener ation
ĠInt el
Ġaggreg ation
00 7
Ġrot ate
Ġtr ivially
analy tic
Book s
ancell or
F ort
plement ary
Ġc argo
Ġinter change
p rior
Ġactiv ated
Ġcontact s
ph ones
s sec
Â ©
Ġ\ ;\
Ġpers u
Ġrefere ndum
ring ton
Ġtradition s
ĠT rain
st ead
F un
Ġb ay
ĠW rite
hig her
G i
vi ol
ĠTr inity
ho ff
up les
Pro gram
imod al
D est
v or
ĠPaul i
ĠDemoc rat
box times
Ġb ootstrap
ĠK un
t witter
Ad ditional
Th anks
Ġinfin ites
ĠThrough out
Ġplay offs
bra ket
Ġheur istic
pos al
ĠS ak
sche ma
16 9
redu ced
iduc ial
m orph
ĠC SS
Ġj ury
ubb ard
ID S
Sup port
st eps
Ġdynam ically
14 1
ĠS ou
Ġstat ue
ĠBl u
Q ual
ĠK rist
Ġob s
18 73
set counter
Ġtunnel ing
n h
Pr ivate
Ġbu ying
en os
plet ion
il o
Ġ$ %
Ġmes ons
Ġst rang
Ġsh aded
oc o
J ose
Ser ies
inter val
}[ (
Ġadvert is
Ġgradu ating
m iral
Ġm arch
te enth
Ġsymm et
con tact
K P
Ġcl ause
e lected
ĠVis ual
Ġtrunc ation
Ġout going
ats u
Ġany way
à¤ ¾
Ap plying
ĠLand au
Ġeg gs
Ġbel t
Ġsub mit
Ġphys ician
ĠGra de
}= (\
ĠAr c
ĠCont emporary
J ava
Ġl ic
Ġun ve
Ġfl ip
)/ (
Ġe ating
tan h
or ange
ĠM ort
Ġcon current
Ġannot ation
Aut o
Ġpredominant ly
al is
Ġp icks
s ampling
at ra
u ating
Ġcons olid
ĠM atch
Ġte a
ĠCroat ia
B rown
* ,
Ġqual ify
Us ers
th lete
}{ |\
h orn
cm id
Ġleg islative
Ġresid ue
G reat
Profess ional
k r
M ont
ĠL oss
ĠAssum ing
Ġin cent
ĠK illing
Ġcha os
ĠSh ould
ĠMay be
R ole
ĠLu is
ĠT ang
Afric an
ĠK lein
Ġcor pus
Flor a
B razil
im s
Ġimm igrants
ĠR aw
ĠGib bs
as ia
_ ;
ie u
Ġfavour ite
t ol
E W
ĠB ee
Cl ose
Ġshould er
[ :
ĠR oche
Ġany more
Ġexplain ing
Ġfoot age
C art
Ġtriple t
ĠL LC
ĠK ap
ĠJ up
18 40
Ġ[ (
ĠSus an
\, ,\
Ġ' '
ac co
disc ussion
$ }.
V S
ing ers
Ġre conc
cmid rule
G rad
Ġp ic
ĠL iga
Ġn ut
ess ed
ĠD ictionary
5 50
Ġinsert ed
Ġport ions
ĠN ormal
Ġincorpor ating
he ld
ah an
ous ing
Ġoverl apping
Ġun ions
Ġsuperv ision
pres erving
15 1
Ġsimilar ities
Ġend emic
ĠG rad
W el
ĠBre ak
Ġt ribe
)} )$
Ġfore ground
ĠMajor ana
A ff
qu er
is se
Ġpop ulated
ĠEth iop
Ġhost ing
Ġh ack
at tack
ĠRe ference
ach t
Ġutil izing
Ġdecom posed
Con tact
ular ity
Y Y
h on
c aster
Scott ish
: [
ĠBe ing
ĠEv ents
ĠEag les
Mart in
Ġdwar fs
æ ľ
ĠN intendo
Ġa qu
ĠN R
Ch inese
Ġfest ivals
om p
Ġmer chant
L ead
Ġdraw s
Ġatt en
Ġt ent
18 66
T W
Ġap par
op ting
Ġbroadcast ing
prot ocol
ĠMun ich
Ġdemoc racy
Ġexpans ions
C ategory
ĠL ik
Ġprepar ing
Ġcomp ares
Ġdeform ations
int roduction
ĠChristian ity
og on
b uck
S ample
F rag
ĠB oe
ose x
ator ies
Ġsus pic
Ġl ane
bell ion
ĠIs ing
' }}
Ġp ill
leg ate
Ġind ividually
Ph ot
Te X
ĠConserv ation
Ġdepart ments
ĠForm er
Rep ublic
Ġb unch
align at
Ġs aving
Ġvisual ization
ĠLe o
Ġs a
ĠA ber
Ġindic ation
="../../ ../
ĠI M
Ġprom ised
pect ives
Ġemer gence
at able
ĠStan ford
eg al
Ġ" /
j query
Ġres et
Ġc rossover
Ġal pha
ĠPh arma
Ġgen uine
b h
ĠSt uart
ĠN ode
Gamma c
H op
ĠV ery
Ġsu ite
ess ages
Ġthreshold s
Ġtet ra
X ml
sh ots
Ġhon ors
Ġthin ks
$ [
Ġch ron
Ġval ence
Ġm ath
act ivity
K B
Ġm amm
ight ed
ĠE T
Ġhop ing
ĠC incinnati
Ġsome how
Ġenem ies
ip se
\, (
Ġart illery
\ (
Ġarch ive
per ience
ĠO scar
Ġmod est
EX T
Ġscal ars
ogen ic
Ġto u
ĠB ach
p k
ĠS USY
Ġnegoti ations
nt hesis
tem por
Ġcogn itive
d ense
Ġc ock
ed ef
Ġcalcul us
Ġpro l
A li
)) =\
Ġrig orous
ĠM ade
H ub
ĠM s
Ġdismiss ed
Ġmut ually
Ġal ien
Ġtra ditionally
AR E
/ _
cre ts
bas eline
Ġlab our
app ings
ĠB aby
\ }^
il inx
ĠSt ef
Ġmart ial
h ide
Ġveter an
ĠB L
ĠAl t
Hon ours
ĠD ennis
Ġver b
Ġpre st
cal ed
Ġlin king
By Id
Trans action
Ġun w
ĠMunic ipal
m ount
Ġ\ >
Ġpe cul
ĠH at
Disc ography
Ġemer ge
ann i
ĠTreat y
ĠPhilipp ine
Vert ex
ĠUE FA
N GC
ĠSl oven
Ġjust ified
Ġd ivers
Ġg est
em on
ĠL ac
ext ra
J SON
e ah
Ġin ev
Ġcondens ate
Tax a
ĠK i
T our
w ire
ĠRes ponse
Jew ish
h ind
am ine
be a
ĠF IG
Christ ian
In it
B u
j l
ĠH amb
ĠNash ville
Academ ic
M ENT
Ġrefere e
w oman
â ĪĴ
Ġattack er
R ock
ĠRepresent ative
Ġsh aped
p ure
Ġdemon stration
ĠDe ut
ra h
om o
c ially
as ta
Ġr ally
object s
Ġm s
exp ression
b ird
ĠB ot
Ġident ically
ĠS ent
iv odes
augh ter
G rand
oc ent
ĠSh ip
Ġapproach ing
Ġsuper position
amp ed
or ious
aren cy
ĠFellow ship
ĠNep al
ingu ished
Ġhard ly
ov ld
Ġb tn
Ġto y
F H
Q Q
) &=\
j ab
cccc cccc
Ġdesign ing
Ġtour ism
Ġh tml
n r
uns igned
structure s
Ġcam ps
Ġcryst als
Chang ed
ĠV ent
ĠAbb ey
Ġspont aneous
pro ps
Ġpe oples
ĠSt rong
^* $-
Ġjuris diction
. *
b at
Ġreal izations
alt ies
tagon ist
ĠR osen
b ys
l it
Ġc ref
pg f
ĠW orth
requ ired
Ġcomfort able
ol ition
Su ccess
Ġsystem atically
Ġspin or
roll ing
Ġsymbol ic
Gener ic
Ġadopt ion
Ġsum mit
Ġt ribute
vert ical
Ġdemand ing
Ġdistinct ive
ĠT ed
Ġun c
Ġcert ified
$ },
ĠA aron
$. \
che z
bal anced
Ġcon ductor
b inary
ĠP in
Ġt anks
st re
ar ms
ov iÄĩ
ract ive
36 5
Ġlift ed
ĠS Ne
Reg ion
prot ected
ach i
Ġrot ations
ĠM ick
ĠV oice
ĠH ash
Al g
ĠL L
ĠMon th
ĠA ri
ar ab
ra v
Com pan
Ġins pect
st ability
ĠE C
Ġsent iment
ĠM B
ĠH IV
Â ®
Ġn g
pl ain
) &\
ĠGener ation
VER SION
ĠBol tzmann
ĠL S
00 6
valid ation
que ue
å ı
) &=&
ĠA viation
Ġj ail
}{* }{\
N D
arri or
ĠLeg al
ok u
th reshold
M ET
ĠM essage
Ġcy ber
ado op
Ġgener ative
var nothing
Ġst eal
sh i
Ġdocument ed
ac ular
disc uss
ro e
ef ault
ĠAb u
FI LE
Ġsustain ed
Ġen orm
" )]
Ġport s
' =\
g arian
Ġf r
ins ki
Ġl ung
Ġor acle
Ġsh ops
Ġ+ (
Ġele g
Ġsc iences
En vironment
A z
is or
y t
3 25
ĠQu arter
ĠTh under
Ġfib re
Ġgraph ic
Ġch ronic
Ġb read
ĠE W
Sim ple
Ġs ink
ĠWork ing
Ġlaws uit
Ġ ^{-
Ġc aption
add ed
Ġformul ae
c H
w u
Ġ< \
ĠT elescope
ĠH im
Inst ead
A meric
Stand ard
ĠR V
ĠL is
ask at
Dom ain
Ġb esides
ĠC ome
tr uth
Ġaffili ated
ĠA uckland
l ived
ĠEx cell
Ġtrib es
2 13
e ak
ram id
Ġconcert s
}^{ *}
ĠHel en
ĠMont ana
j p
ill es
ĠTransport ation
Ġin clusive
' |
Ġparameter ized
for th
rag ue
ĠJ ar
Ġlog o
Sm all
ield s
Ġcivil ian
set ting
ivodes hip
Ġceleb ration
U r
$. \\
res et
ish a
ĠN athan
ĠL R
ig g
elect ric
ĠIm port
ess a
Ġexpert ise
am ation
c x
ĠPr ivacy
different ial
n ell
ĠD elta
ĠMink owski
Ġland ed
ĠF iction
ĠPers ian
p ull
100 00
Ġend points
}) )$
Ġsu ited
he art
at io
Ġl iv
ĠTe acher
Ġgeomet rical
view s
Ġmus cle
ĠPlan et
ĠCom pton
Ġsquad ron
en o
ch ap
p ine
Ġp ink
Ġmanufact ured
ĠCom merce
Ġtheore tically
sign al
m atter
Ġsett lements
q a
Ġkit chen
Ġlo ose
", "
ĠNor folk
d one
ĠSy l
c in
ĠM ik
Ġseem ingly
Ġroll ing
sh ared
opl an
Ġdram atically
ODU LE
ĠStr ateg
ĠS QL
Ġcl arity
ĠHeb rew
ac a
Ġscholar ship
- |
ĠSe ctions
Ġmurd ered
A rea
c ategories
Ġfun eral
L ittle
ord ial
Ġche st
Ñ ĸ
Ġins u
ar u
Ġint rig
() {
Ġa er
Con struct
ĠT as
ant om
i ref
L ayer
Con ver
Ġaver ages
ĠBut ler
she et
up ta
Ġcomp ressed
K R
ĠM idd
f lex
cre ated
Ġmult ivariate
ĠS alt
iz on
Ġup grade
Ġparad igm
B ill
Ġbeh ave
ĠBlo om
$ ^{+
Ġcount ed
vis ible
ited efault
mc itedefault
ĠB ody
plan es
ĠWild life
} &=
ress es
ĠR ivers
Ġpresc ribed
ĠAthe ns
uss els
22 2
Li u
Ġcol ony
Ġten ure
Ġfro zen
Ġto urs
Ġe cosystem
map ping
ĠM ul
ĠCon fig
Ġvi able
20 3
ĠG ets
M ale
ip per
ort ex
pow ered
Ġs isters
Ġgeom etries
a ude
Ġre called
In formation
ĠĠĠĠĠĠĠĠĠĠĠĠĠĠĠĠ ĠĠĠĠĠĠĠĠĠĠĠĠĠĠ
17 6
ĠDef ault
Ġun cle
ĠMark eting
cont rolled
rob ust
Ġshow er
produ ced
ĠPhill ips
ĠSh akespeare
Ġgrand father
Ġcon ject
ĠFil ip
ah l
Ġpubl ish
L en
ĠL aura
Ġfun ctors
ang les
Ġc ad
Ġdem olished
Ġrecogn ised
S wed
ĠC IFAR
sc apes
ap prop
ĠK id
col lection
rypt ed
Ġimplicit ly
D a
W alk
ĠK ash
Ġj ew
Ġlocomot ives
R ot
Ġst ays
ol ly
Ġm ism
Ð° Ð½
Ġassert Equals
Ġpro s
Ġbenef icial
Ġ& $\
Ġdiscuss es
C ert
ĠBob by
p ip
al am
ĠCh a
Ġpat ent
st rict
w y
}\ }_{
)\ }$
ĠL isa
ĠAd elaide
enc ia
Ġre vis
ĠH I
row ave
Ġro ster
Ġisol ation
sub script
ĠHer z
isher s
Ġpod cast
Ġaccess ed
Ġintu ition
Ġv ib
bes gue
dot sc
ĠPr int
Ġirre levant
in creasing
ĠArch itect
emb ered
17 7
J ud
Ġpuls ar
ĠRe ed
Ġexplan ations
Ġy esterday
Ġt ilt
sup ported
ĠSob olev
Ch ina
Ġcult ures
Ġtempor arily
ur se
ĠVo ivodeship
ĠA ctor
Ġw ard
Ġsup erm
he imer
consist ency
Ġoverse as
18 48
Im port
c pp
ĠO bserve
ĠPubl ished
im o
ĠC FT
ĠM oney
Ph ase
Ġtor que
Ġa mm
}} },
ĠW onder
ta gs
Ġe lem
ĠM az
D epend
p ublished
Ġd ose
us a
)$ \
18 59
ist ration
iz a
Ġsub manifold
You ng
Ġconflict s
})- (\
ĠPalest inian
ĠP ere
per m
Ġj oy
ĠInst agram
Ġevol ving
Ġtele phone
y on
ĠD ire
Ġdiv iding
el ike
ĠAl ger
z c
I mp
Ġcor on
ĠSt ream
comput e
Ġtoler ance
it on
rot ron
Ġf ate
rad io
reg ation
2 11
e cho
n k
ĠG ang
m kern
18 69
ai ro
Ġavoid ing
h ift
ĠWork ers
ĠT M
Ġsh ocks
out ing
Ġblock ed
Ġn est
)] \
Ġinf antry
ĠLin ux
Ġless ons
e ref
3 75
stitu ency
ĠB eyond
ran o
Ġf ur
ĠW ag
m x
med ium
ĠAir lines
ĠNe ed
agn etic
A bs
_ +\
Ġ( {
Ġmuseum s
Ġb uses
}] ,
Ġlie utenant
hel m
Ġrandom ized
Ġsus pected
Ġse cular
23 4
ĠArn old
ish i
Ġ ul
Ġe arning
Ġcapt uring
ĠA F
ĠH az
ĠD raw
i ol
Ġn ic
Ġt ale
ra pe
A thlet
Ġthread s
Ġspread ing
Ġalt itude
ĠF ish
ĠLeban on
er k
ion ization
ĠN amely
AT O
L F
ĠR ule
umb ai
ĠS ales
big wedge
ĠM ario
ĠBroad casting
ab ases
Ġr itual
Ġinher it
Ġt ile
20 4
Ġen larg
ex periments
Ġ[ [
poss ibly
ac ency
Ġreflect ing
ĠBas ic
ĠAzerbaij an
d h
18 30
comp iler
Ġ% }
Ġro uting
Ġcl othes
ch rotron
Ġsw ing
row ing
land o
| |\
de composition
Ġalt ered
ĠF riend
Ġattack ing
000 1
ĠH i
aver aged
Ġp ale
Ġgu ided
)] $
Ġsevere ly
or ov
Ġro oted
le ad
Ġl iver
ĠDra ma
Ġfil ament
G allery
ad just
ĠSt ri
Log ger
ĠD y
Ġpush ing
Re port
Ġsee ks
| (
od rom
Th ird
ĠT odd
in ery
ĠS ox
Ġsuscept ibility
ĠHug hes
Ġ ],
Ġcan n
Ġsaf ely
run ning
Def unct
Ġconcept ual
Ġbr illiant
ĠL ov
Ġsepar ating
ĠShang hai
A W
pl atform
ff ield
ĠCol lect
ut a
Ġc usp
ĠBenn ett
Ġn inth
Ġ& +
Ġequ ilib
Ġp ul
ident ity
Que ue
V ir
~ ,
30 4
ubb les
st own
ĠG B
\ &
ĠM aced
18 57
ĠWell s
}) (\
Ġcan on
Ġatt ractions
Ġst uck
ĠR ah
( !
ew ard
Ġsupers ymmetry
Ġparametriz ation
Ġt weet
Ġim posing
Ġmin es
Ġcirc ulation
Ġconvent ions
ĠCh an
Ġboard s
Ġinaug ural
[ ]{\
ĠP or
//////////////// ////////////////
former ly
b k
ĠS ultan
ĠW ikipedia
ĠA G
de cor
Ġsy mp
;\;\ ;\;\
Sym fony
t u
ĠH ab
Ġs id
16 2
M ary
] }(
s ix
bo ys
ch art
ĠF err
Ġa est
Ġd ressed
ĠIn put
Ġfollow ers
J ob
ĠD od
Ġco at
ĠG ilbert
Ġex otic
ĠHar vey
[ $\
Ġneighborhood s
qu is
ĠBy zant
Ġresol utions
ĠK as
- ,
Ġall iance
cl ed
Ġpiece wise
m us
ĠD etails
th r
Ġed itions
Ġn ights
min a
ld er
Ġcomm utes
ĠN ott
ĠIn sur
OW N
z ig
M etric
ĠC redit
Ġfall en
Ġinstant aneous
N s
desc ribed
ĠFlore nce
b ranch
O l
ĠR R
}) _{\
Ġcitiz en
M arg
op pler
Ġinteg rity
O k
sm ith
M ake
Ġex empl
ĠKe pler
ĠAd ditional
cyclop edia
Ġbar rel
rotate box
T reat
t mp
16 4
Th ough
Ġt ar
ĠLe besgue
F iles
ĠCom ments
Î µ
Ġdis established
T y
+\ !
ĠSt op
Q C
Ġaddress ing
res a
Ġvo ices
ĠHer bert
C ov
Ġre pro
vent ions
Ġconfir ms
Ġdro ve
ĠA my
Mem ory
f ine
ĠK re
ĠB egin
Ġbi ases
Ġplate au
der ived
Ġc ust
tain ing
IT E
c ool
Ġadvers ary
@ "
Ġinduct ive
Ġpur ple
con verted
me ans
Ġpract ition
Ġall oc
att s
Ġreprodu ced
ĠDel aware
Ġkinem atics
ĠG O
99 9
H ung
per ate
ĠPlay ers
Ġb ench
ĠC itiz
h agen
6 50
C irc
Ġintersect s
Ġequiv ariant
M ex
Ġfor wards
I mm
ĠF O
Ġbare ly
ĠHe isenberg
3 40
Ġdet ections
Ġalleg ations
asc ular
B ERT
a que
F rance
ĠD eg
Q R
ĠS or
27 5
}' \
s elling
ĠFe ynman
Ã ī
ĠLeon ard
Recip ients
] ^-
Ġrend ering
semb les
ĠFil ms
Ġform ations
s amples
Ġ& &\
x p
ĠB ak
sh all
Ġat tained
Ġsubt raction
ĠE V
add y
P ic
Ġinc idence
os itory
AD D
ĠPeters burg
Ġtravel s
Ġearthqu ake
ĠH ost
rog ate
ost ics
Ġconvin ced
ĠLe vi
Ġkid n
l ic
ĠBudd hist
ull er
Ġb ug
Ġsubsidi ary
ĠGro ve
t k
Ġg aming
h im
18 4
Ġhand ler
arr ison
ĠMah ar
Ġrec ruit
Ġp aired
Plan ck
r p
ĠP ent
ere rs
est y
S ER
to o
ill ary
p ub
gom ery
Ġbi ology
Ġorbit als
n z
á º
imens ional
Ġsche ma
Ġtre asure
Ġpers istent
Ġacknowled ged
+ }$
ĠF BI
ĠD anny
B etween
Ġsp ite
part icles
irrep bar
pe at
Ġun em
ex ponential
Ġte eth
qu art
pi res
U SE
ĠR ou
Ġreg ulatory
Ġtreat ments
ĠBris bane
ĠMet al
Ġintersection s
plo ys
dif ference
ĠN LO
Ġprint ing
en ario
ĠZ ar
ert on
}\ }
sh ops
B W
cu ador
ag g
Ġbi ography
Ġdegrad ation
Ġhas n
em in
Ġpoint wise
tabl en
ĠCy cl
Ġelev ated
ĠL ex
S elf
_ ,
Mus ical
Ġmut ation
B esides
ĠN ancy
Ġentreprene ur
ĠD escription
P ress
x it
ĠP E
lass ical
Ġre dd
Ġfunction als
Ġass ists
Ġlift ing
Ch ildren
,- .
ĠAng lo
ĠA braham
im en
}( [
P resent
Ġg aug
ĠR achel
Ġerg odic
Ġcylind rical
Ġburn ed
ĠW W
cap s
Set ting
ĠP av
pe red
ov sky
cur ves
ĠM pc
Ġparticip ant
Ġgather ing
B ol
Ġim perial
p her
ĠE state
Ġreserv es
vel t
Ġexp ense
Ġdimensional ity
it ational
Jo in
ĠK ill
ĠSo on
ĠP rec
P ers
S cope
Ġmin istry
re port
ĠSi eg
m ust
Ġlock ed
Ġart work
S QL
osp heric
Ġhop ping
Ġr iders
Ġremov es
re ne
e i
Ġmac roscopic
Ä Ł
ad v
h size
Ġp ub
Ġwar rant
Ġcon ce
Ġax ion
ere nt
z el
part s
Ġprot ons
Ġdesign ers
` ,
Ġs i
Ġfair ness
Ġrun ners
Ġattend ance
in her
Ġen force
Ġtem plates
ess ment
inu ous
ĠH odge
Ġab st
Ġmis take
Ad ditionally
ĠF oster
[-> ]
ĠP D
min ster
eth yl
Ġinitial ized
oc aml
ĠL amb
fill draw
ell ers
ĠV ector
Ġclass ifiers
Ġpref erences
Ġcod imension
Ġmake up
new page
Ġvers a
ĠLe eds
Ġple asure
ĠAgain st
li ers
ĠC B
ĠPen insula
Ġelabor ate
am med
par ity
lim inf
ĠPar al
Ġelim ination
spect ra
Austral ia
ut f
Ġlabel ing
Tra ce
ĠCo ach
Ġalleged ly
Ġdecor ated
)= (\
ĠArt ists
Ġac res
Ġfavor able
16 3
Ġb ind
ĠImp act
Ġluminos ities
G er
Ġell ips
ĠY ale
s il
rr rr
ĠAgric ulture
h istor
ĠYuk awa
ĠP SF
2 12
b end
Ġb lo
Ġplay off
ĠN u
Ġto mb
Ġre lying
ĠB io
Ġrep ly
Ġdevelop s
Ġe ject
Ġd ash
RE AD
Ġnon empty
ĠWood s
ol lo
ĠA SS
Ġ }.
Ġcon vol
Ġmulti plied
rom atic
cal c
Ġman ages
ĠD ementia
gra ined
ĠS outheast
ĠUg anda
Ġcong ru
und efined
V an
Ġis ometry
ĠSing les
Â ½
P V
om ar
sh ore
arch ive
Ġinsu fficient
Ġn ested
ĠCom ment
Ġtransl ates
c D
Ġsax oph
Ġr ice
Ġbreak down
18 7
Me asure
Ham iltonian
} ')
Pr inc
coordin ates
G reek
man ager
Ġpract ically
Ġship ping
row eak
en vironment
Ġover look
Ġmon oton
prov ider
Ġprogram mes
ĠQu est
Ġconstitution al
c O
ĠArmen ian
re b
Ġtre ating
st en
18 9
Ġcont ested
Ġthere after
Ġcomp rised
Ġval uation
Ġkn ots
Ġdi et
rick eter
d ated
ĠU AV
ĠBul garia
Â »
Time out
ÑĢ Ðµ
Ġ\| _
It ems
le af
Cl oud
d rew
unc redited
ĠV e
he ng
ĠV irtual
de cl
m os
Left rightarrow
Ġposit ively
fill ed
Ġim pression
Ġed itors
curs or
ab stract
Ñ ħ
O UT
] )$
Ġcontradict s
ĠWhe ther
c M
8 50
or ic
hi er
Ġpoly tope
Ġrend ered
[ -\
play ing
Ġdefend ers
Ġf ibration
eg an
mon ot
Ġpreserv ation
0 12
Ġthr iller
Ġprov isions
S ervices
Ġmod elled
ĠFran co
Ġbul ge
ĠAst ro
am pton
Ġintu itive
Ġconver gent
n om
ĠK in
Ġund erest
trig ger
og an
\ :
Ġpsych ological
},\ ,
Ġachie vement
ĠOt tawa
Iter ator
it us
s ay
Ġqu ote
Ġmet als
do i
Cl uster
call back
Ġdo zen
ĠG y
Spec ifically
ut ives
ov an
Label s
Ġtend ency
ĠClark e
r ules
ĠB eth
Ġvis cous
Ġrel ativity
Ġwealth y
ĠInt roduction
ĠBer ry
s gn
ark er
20 6
Ġpri ors
Direct ory
W ater
Ġag gressive
Ġna ive
fl ags
Prot ocol
C opyright
Ã Ĺ
all ed
Ġprodu ctions
ĠM Hz
ĠJacob ian
=" @
Ġphys ic
] &
g rim
}) }$
Mod els
67 6
e ither
k al
Ġf uck
20 7
sp arse
Ġdisc s
es y
ĠR alph
ĠP ul
ĠProdu ctions
us c
Ġastro physical
Ġmed ic
W D
ĠB ear
Stat ement
ĠTib et
H uman
n f
Ġlater al
ĠIn iti
ĠE lection
Ġun fold
ingu ish
ĠR uth
00 8
) ^{(
Ġconduct ance
ĠR ules
ĠR AF
Ġsculpt ure
Ġp iv
Ġtourn aments
ĠPro b
Ġbuild s
ĠDi ocese
() ).
) }}{\
Re cent
0 11
Ġintern ationally
' )$.
Ġel ite
out ube
L iter
1 200
Ġf unc
ĠVal ent
Ġpossess es
ĠM IT
Over all
ĠG ust
ĠPerson al
c ro
18 8
A h
ĠSocial ist
G K
ĠB ald
ĠV AL
ĠWall ace
ern ess
M ah
em ission
Ġcarri ers
Ġ( ).
Ġse vent
log ger
17 4
mark et
osoph ical
prec ision
Ġthr one
Ġan ch
act ers
ĠK umar
Ã± a
charg ed
ĠD rum
C U
á ¹
less ly
D IS
ĠTh ai
Ġexc av
Ġper cept
33 33
Ġv it
ĠY ellow
Ġachie vable
Ġappar atus
ĠBel arus
Ġsem if
vis ual
EC K
ä º
ĠCirc le
v ark
ĠCong o
Ġind oor
Ġopt ically
Ġkeyboard s
Ġplaus ible
Ġcho oses
Ġtum or
id ation
Ġpat ron
ĠJul ia
diff usion
ĠDisc overy
Ġaccount ed
t racks
Ġansw ered
Ġmanip ulation
Ġall ies
ak ar
dom inated
function al
Ġst olen
c ourse
St op
), $$
Ġdest ro
im on
Ġchap el
Ġend owed
as ive
Ġbl ast
ir med
v d
pt s
ĠIn novation
Ġh ub
Ġcon finement
18 55
Ġh int
Cent er
Ġ&= &\
Ġt ram
Ġk nee
p unct
ĠD ise
ĠPan el
/ $
F K
m ixed
ĠC raw
Ġad min
T ABLE
et e
"> &
ens itive
ĠArt illery
Ġquarter back
Ġbelong ed
Ð ±
ĠR H
17 8
Ġy ard
n umerical
Ġexplo ited
ĠMil waukee
Ġl as
pr ises
= |
Ġround ed
Ġpal ace
Ġheli um
Ġper pet
ĠS old
Ġl ighter
Ġan xi
j ee
Ġbe et
ĠAn cient
ĠAt tack
ĠV ict
F ac
ĠCamp us
Ġrow span
Ġblock ing
Ġquas ars
Ġf atal
Ġal umin
paramet ric
Ġescap ed
Ġp ent
sc attering
\, $\
ĠSud an
j ob
ĠH av
}\| _
Ġ\\ &\
Ġannot ations
ĠS Ã£o
Ġdiffe omorphism
H ouse
Ġtrav elling
sc roll
Ġgraph ical
ĠA part
ĠF an
col lect
Ġrefuge es
en burg
ig ue
li ps
Ġjud gment
ĠF at
c G
$ |
Ġrec ipro
ĠAp plying
ov al
/ {\
as ury
Ġfin ishes
B K
E mail
The ir
Ġaff air
M ach
im an
L imit
g art
ĠCol umn
Ġpecul iar
q w
sen al
Ġ= ========
Ġcommand ed
p ole
Ġviol ated
ĠA w
ĠE D
st ed
Ġarg ues
fe atures
_{ |\
w ent
Ï ģ
stud y
| ^{-
ans k
p ixel
ĠS ierra
vari ables
bro ok
Ġexcept ions
leg iate
ee a
ĠComp etition
ĠChap el
ĠO wn
A J
ĠVen ice
Ġconcent rate
ĠM T
Ġep ic
ĠR ena
ĠCons ult
17 3
Ġpredecess or
j ournals
Ġg ras
Ġnever theless
Ġfarm ing
Ġre nov
20 9
Ġde formed
Orig inal
Ġerect ed
Ġmar ry
Ġwork shop
ĠHen ri
check ed
Ġhypersur face
or f
S ame
ĠRe id
ĠHar old
Ġdrum mer
it ars
Ġsl aves
ĠCre ative
Ġhuman ity
Ġcasc ade
n ick
un ar
^{ '
Ġor che
ĠPhil osophy
ĠProgram me
im ple
ĠD FT
pr us
ĠI SM
ĠA j
Ġi Phone
17 2
ĠPar ad
P ATH
3 45
L anguage
Ġform ats
Se lection
Ġvirt ue
}\ }$.
ol y
ĠSp encer
press ure
ĠM M
ĠK ids
18 58
E mb
Ġcon greg
ie ce
Ġcomment ary
Ġ\ [\
ĠThe od
n ob
ĠCont ent
Ġaud iences
ĠC ay
ĠC I
g age
ounc ing
al tern
ĠS askat
ĠC over
Ġam id
F uture
Int erest
Ġf iducial
ĠGreg ory
Football ers
Ġtour ist
Ġconjug ation
? }
ĠR C
red shift
ĠBl ake
ĠSp ider
c ub
- {
st roke
Ġmer ch
id ered
Ġth rew
ĠPet e
Ġsett le
; }
A gent
uff le
b org
d an
g z
Ġfeed ing
re lease
ps y
Ġimp urity
Ġdrop ping
Ġpoll ution
ĠM ine
ĠTre k
Ġdiagn ostic
Ġb acteria
Ġre built
M n
in ar
cy cles
Ġfif teen
Wid get
Ġre wards
ĠD h
Ġinstance of
! )
Ġtri ps
m or
Ġbene ath
Ġdie lectric
}\ ;\
ĠÅ ł
an che
ĠEdd ie
\ })
Ġprov inces
ĠSc ar
S port
? )
Ġsort ed
Ġviol ations
Ġcharg ing
ĠD ame
Ġappropri ately
Ġe uro
Ġor al
ok o
be k
R h
Ġfriend ship
ym ph
Ġcur s
Ġinfinites imal
Ġheter ogeneous
Ġdelet ed
Ġb icy
Ġfrag mentation
P ac
Ġsy nonym
ĠLuc as
dra wn
Ġaltern atives
in ous
ogn ition
Ġden ominator
ex plicit
build er
D uration
M ODULE
Ġs ang
17 1
c ert
Ġt iles
Ġshell s
Y ang
ĠR av
H ot
im als
Ġadvoc ate
ris k
Ġpre t
Ġpr imes
ĠId ent
ĠF antasy
ĠPed ro
Ġdef ender
/ (\
' _\
ĠGe or
Ġr ises
]{ $\
Ġrom ance
ĠM ail
Ġoff line
ST AT
Ġlemm as
c L
ch air
ĠG amb
Ġdecl are
Dist rict
sl ice
ian i
Ġbank ing
Ġdescend ants
K a
ĠM g
pl aced
e conom
st ab
serv ices
ĠSer ver
ĠNew castle
Ġsatur ated
sc ribe
Ġdifferent iation
Ġfore ver
ĠH z
Ġsub stance
& +\
Ġb arriers
Ġm ature
pro xy
Ġevalu ations
ĠÐ ½
Ġin ches
Ġmark ing
Ġp ist
Ġwe igh
Ġenter prise
Ġc attle
S ar
ĠR O
Ġshift ing
Ġwor ry
utr ino
Ġb ell
Ġfail ures
Ġvolunte er
hal o
Ġmod al
Desc riptor
ound ing
ens ing
p it
ĠHis panic
18 54
A st
ĠPhys ical
18 56
g ender
ist ered
contin ued
in finite
Ġpit cher
Ġsem icon
Ġbank rupt
ign ment
ĠDer by
D irector
or ters
t ogether
ices ter
ĠE volution
e as
n x
Ġdraft ed
+ |\
Ġde alt
leg end
ĠM ills
Ġow ing
l k
pref ix
Ġs aint
ĠS ang
Ġupd ating
sl ashed
ĠPal mer
ĠS creen
ad r
Ġchar m
osp in
Ġcart oon
ĠAngl ican
Ġestabl ishes
ĠGerm ans
om ical
, ~\
ĠL ay
Ġhar ass
ox ide
ott ing
ĠW id
Ġmark er
bor o
Ġin jected
ĠAm endment
or on
ĠG A
am ount
ĠCor p
f urt
Ġr idge
rest rial
Ġle agues
eps fig
ĠD A
Ġ Ã©
2 15
E O
bs erver
oding er
B AR
normal ized
Ġisomorphism s
Ï ĥ
ĠN ine
)= {\
M sg
Ġbe ars
R NA
'] )
ed i
ĠB ent
Col lections
Ġevol ves
Ġspecial ist
ĠPalest ine
ĠA A
Ġl ig
Ġeccentric ity
S K
Ġto uring
16 1
ĠV eter
ĠRetrie ved
ar Xiv
}' _
Ġproceed ings
Ġdemonstr ating
M g
Flo at
E ll
AM P
R ivers
ĠS uff
17 9
er ie
ĠBel ow
ĠG AN
Ġk iss
Ġem igrants
Ġf ighters
ĠHol mes
- (\
Ġopt imum
Ġshe aves
Can ada
Con struction
Ġspeak s
ĠSu ccess
id y
drop down
ĠLeaders hip
; )
Ġs le
Ġrel ocated
Film ography
Ġgain ing
ill on
Ġem otions
Ind ia
X ML
ĠA V
ĠG az
M apping
ĠF robenius
ĠMus ical
d ialog
28 8
ident ified
Ġn umbered
| >
Ġn ose
}$ }\
Ġun supervised
ĠH ausdorff
Ġchalleng ed
ĠLiber ty
ĠJenn ifer
re duction
Ġw ars
}- {\
Ġelectron ics
= &\
p ent
bl ank
ĠM Ã¼
ri ans
rac es
Ġment ions
ĠCel tic
Ġ$ }
Ġs its
ĠStr ategy
Ġbr ut
D id
y x
ĠDec ision
Z ero
hab ilit
B ottom
ĠColumb us
Ġanticip ated
nav List
B road
D b
b rowser
ĠRe lease
ĠFl ash
Ġdecom pose
ĠFour th
c amp
OC K
unc an
Ġanten nas
Ġsubstit uting
F red
R V
Ġcl an
ab we
Ġmon op
Ġsurprising ly
Ġlob by
m eter
ra k
25 2
ro us
all oc
ugg ed
Ġw orn
Ġ( @
ĠU TC
Fl ags
Ġr h
ll l
w yn
ott i
i ast
as sembly
Ġneighbour ing
S kip
ĠM n
E lements
Ġmat hematic
ĠGabri el
Ġoff ense
y z
Ġh ills
clud ed
ou lli
ib a
Ġp ounds
Ġmyster ious
Ġco ordination
Ġassign ments
Ø§ Ø
Oper ator
ocol ate
ĠArgent ine
P ak
un iversal
AS H
W atch
)} -\
b w
Ġf ocal
AS P
y alty
ro c
Ġd rain
Ġd ying
yp ically
Ġambigu ity
}^* \
as ets
, +\
Ġ$ >
Ġw ishes
Ġorb ifold
Ġpropag ating
D etail
Ġhel icity
vark appa
ex ist
Ġfl att
d iver
R am
Ġper ipher
Ã¡ s
Ġfulfill ed
}| ^{
ĠW D
Ġra pe
Ġweight ing
nt hetic
Ġag enda
class ification
ĠRod rig
d ynamical
ĠR us
Ġg a
Ġstat s
ĠWh ich
Ġunsuccess ful
Ġd ans
ĠT ong
Ġodd s
ĠCommunic ation
) })\
ĠA bs
ĠI E
ĠCon versely
ĠBat man
ĠInsur ance
Ġb en
Ġg y
Ġas ync
ant le
Ġtor ic
d id
4 80
Ġth ir
abet es
y k
Ġd ancing
ĠT es
Ġprevent ing
Ins ert
ĠR af
Ġpos es
determ ined
m ind
Ġp ipe
Ġprev ents
Ġim ped
Ġce ased
P ad
ocy cle
an ch
er re
al one
19 3
ĠHer ald
Col lege
tab s
rab ility
Ġdipl omatic
sv g
, [
Ġ( _
Ġhistor ically
ĠVi ol
Ġrevers ed
g f
ĠD aw
maxim um
ĠGu ild
trans l
ĠIll ust
Ġbifurc ation
m v
. ''
= ~
ĠC G
ĠCliff ord
B rowser
ĠL akes
Ġsp ans
Up per
Ġretrie ved
ĠF ighter
ĠCon tact
ĠMil ky
st ochastic
Ġ[ ];
F N
At l
ĠHard y
Ġazimuth al
z ens
Ġre un
Ġchar ter
ĠSim ple
ĠD S
Ġsw ord
ĠArch bishop
im ony
Ġsimple x
constra ints
ĠAct ive
vect ive
B Y
Ġre feren
deriv ative
Ġretrie ve
ĠS of
ĠMar x
F ramework
2 16
zy me
}$ \,
v on
}} )$.
ash ing
ĠX X
inter acting
Qu antum
Ġcoll apsed
ĠW er
Ġphenomen ological
NavBar Cell
ur bs
link ed
Hen ry
ĠReview s
Ġlov es
fra id
ĠW AR
Ġinteg rand
Ġstri kes
Ġc emetery
Ġequ ity
ĠS ullivan
Ġh o
Ġpick ing
itro gen
Select or
Ġgra ve
ari um
Ġcooper ative
r ific
Ġden oting
W OR
ĠV II
j m
n is
ul in
OM E
18 52
ber y
Ġpen al
ĠJo an
imb abwe
Ġenorm ous
ĠT arget
Ġl oud
em p
x z
ĠH TT
defin ite
Ġc inem
Ñ Ĩ
st orm
ell ation
vio let
On line
Dan iel
E r
ĠR ather
f red
ist le
Ġrepl ied
test s
ĠB Y
Ġincred ible
Ġtrib ut
Ġfl our
ĠS oci
}+ {\
n ar
ĠCom edy
Ġem ploys
Ġappreci ate
ĠGl ass
! (
Lo ader
on so
Ġflow er
ĠSol id
Ġt ips
Ġh oney
Ġenc ounters
am az
ĠB P
oc cup
Ġint elligent
Ġlegit imate
30 1
To String
B ell
J on
Ġsub mission
Hel p
Ġanth rop
ĠD oll
Ġpil ots
Ġdev ast
el ia
Ġforb idden
r ar
und a
Ġtra iler
ĠDe velop
Ġflav our
ĠC atalog
ĠCl imate
LE CT
Ġa thlete
Ġim plication
, {
ĠĠĠĠĠĠĠĠĠĠĠĠĠĠĠĠ Ċ
Ġfilm ing
ĠLeg ion
ĠE ight
Ġback up
ose velt
Ġap pl
Ġqu ench
ĠÐ ¸
Ġcalib rated
Ġabbre vi
oc on
}_ *
Ġjust ify
}{! }{
ĠM umbai
Ġnil potent
ĠStart ing
ac cur
I rish
Ġbehav es
^- (
Ġdis advan
array stretch
Ġre he
ac ional
][ '
Ġgard ens
Ġspecific ations
Ġless er
ĠV ision
ential ly
Ġmon oidal
P ublished
ĠI SO
With in
Ġsub urb
att y
pre p
Ġtrans fers
ĠPer th
at op
Ġb orough
ĠG or
' }(\
Ġprevent ed
ys on
Ġpro poses
leg raph
f u
Ġw ore
oy le
^* _{\
Ġanomal ies
y g
Ġbur sts
Mean while
Ġg reedy
Ġfle w
Ġchap ters
ph ic
ĠMar cus
ĠTom my
ĠW arriors
inv est
sw ick
Ġtransport ed
å ¤
pos it
Ġrock et
H an
h adoop
pre v
kins on
ĠS ic
sim ulation
An aly
ĠJul ian
Ġby pass
mod ified
Ġfac ial
Ġl ang
ĠEnter prise
Ag da
ĠOak land
Ġbas in
ce iver
the m
d ip
ĠI gn
Ġrem embered
ĠP icture
ĠLy apunov
Conn ect
as pect
Ġinf ect
od ium
ogen ous
Ġc rim
ĠRay mond
Di agram
18 2
spect or
lig a
18 49
ĠLat ino
ĠJ in
re call
ĠS qu
ff bb
VAL UE
Hig gs
ĠP and
Ġeditor ial
Ġinc umbent
40 4
Ġsmooth ness
Ġ\! \
ĠP eng
F oot
)} ;
Ġcollabor ative
ĠErn est
Ġto ll
Ġflu ores
Ġh ind
ĠIm pro
mult iple
ĠIda ho
A mb
ĠC inema
bor ig
thin space
enn ial
mat rices
Pro xy
outhe astern
) }_\
W ood
Ġsc andal
}+ (
f an
0 15
Ġr uler
by e
ĠIsa ac
Ġoptim ality
ry s
Ġcat aly
hard t
Ġconvers ations
N ative
}} &
Ġdis orders
ras er
Ġown s
Ġcross ings
Ġre organ
}_{ [
ev ol
}\, {\
h istory
ett es
Ġin homogeneous
ĠS weet
Ġparametriz ed
Ġt rem
ĠIo T
es ters
ap shot
Ġcro ps
L Y
p ion
tab colsep
Ġc iting
ĠSh a
ĠLet ter
Res ol
Ġcomp iler
ĠG ol
equival ence
Ġint ensities
B ER
] -
Ġassess ed
Assum ing
isc opal
Ġreveal ing
T ilde
am as
}) \,
we i
alax ies
bo at
d j
ĠR ams
Ġpsych ology
i w
ĠM F
ÑĢ Ð¸
Pat tern
ĠD oc
D ou
N atural
Ġcon verse
ĠHar bor
k b
Ġimm un
Ġdemoc ratic
Ġredund ant
at em
ĠSe pt
AT CH
Ġen sembles
show s
Ġcon vey
Ġso vere
Ġhop ed
ĠAmb assador
Ġsnap shot
T urn
air y
Ġfoss il
å ®
ĠArm ed
Ġback ed
Ġab oard
be at
0 50
up id
UT F
Ġwere n
Ġgu ards
Con v
prov ided
ĠCh oice
Ġstep ped
CO M
Ġgl ad
Ġdemand ed
u pe
Ġd B
Ġlog ging
Ġresear cher
Ġtalk ed
Ġc ob
oy age
Ġindic ators
Sche dule
match ing
B all
Ġc ant
Ġco q
Death s
Ġw orm
Ġl unch
23 2
names e
ĠDav ies
Ġneur on
Gu i
Å Ļ
ĠSe bast
Ġtreat y
ĠGal ois
web pack
sw arm
res ources
ĠCard inals
ĠOpt im
Ġtrac ed
F act
ĠKn ights
add plot
Ġresign ation
ĠF oot
Ġencourag ing
D utch
}} }_
C as
Ġ} }\
enc il
ĠRe form
oper ators
atter y
ĠTy ler
Play ers
ĠDe cl
{ ,
W estern
ĠF lying
Ġhead ers
F ailed
ĠJere my
F r
c ock
na issance
Ġgeodes ics
M G
ĠO g
add r
ĠWell ington
t ens
Ġvol unt
Ġorigin ating
ĠWars aw
ĠManu el
Ġm ood
ĠI BM
H erm
Ġre forms
23 1
ĠNorth west
ival ent
Ġrele asing
ĠNet flix
26 4
Ġagre ements
general ized
Ġbad ly
theore tic
l f
ĠS K
ex pr
Ġsc ar
appro ach
Ġquadr ature
Ġle ar
Ġpay load
om ers
Ġprec ip
Ġtail s
Lou is
Ch arts
18 51
22 7
ĠRev ival
ĠCurrent ly
^- _
irect ed
Ġdedu ced
Ġeng aging
Ġfor um
Ġwith drew
fin ity
in as
ak is
ah u
Pl ugin
R ate
Ð ³
Ġ" <
Ġjournal ism
Ġrecur rence
Ġvol leyball
Ġgrad es
Ch ris
S FR
à ®
IM O
Jose ph
Ġ _\
et own
Ġachie vements
ĠCroat ian
ol ine
Not Null
ĠColl abor
u ction
Ġn inet
Ġreg ards
Ġdesign ation
Ġsmooth ly
ra ment
Ġal arm
Ġal beit
Ġbl ur
R end
ateg or
found ed
Ġsong writer
Ġembod iment
vent ional
ten ess
ĠPer haps
Ġsurve illance
pro port
AN G
c ube
ph rase
supers cript
S tage
che wan
path s
P W
] },
ĠRe cent
Ġen v
Ġtarget ing
ĠH ass
un ks
ĠSh in
Ġwild life
P air
tempor al
C AL
is ible
ens pace
Ġcard inal
Ġm appings
Ġmiss ile
ĠAh med
Ġun biased
ĠÃ Ĺ
l os
). \]
Ġweak ness
follow s
< -
ĠT itle
ĠS aw
Ġstr and
ho o
T aylor
Ġad opting
ĠPark s
E F
Ġtim ber
ĠE sc
integ ration
Ġterror ist
per fect
Ġm asks
L android
Ġb ishops
Ġshe ets
Ġdecay ing
P od
ong o
18 6
( __
O rd
23 8
Compan ies
Ġsil icon
Ġcere mon
S ound
ĠH arm
type of
ĠBro s
Ġlux ury
Ġf antastic
Ġsc rap
Ġr ic
i ya
Ġlept ons
ĠScot ia
Ġca us
ap est
Ġ" [
ord ering
Ġstand ings
ac er
Ġmark ers
H OD
Ġhero es
Ã¶ r
Ġin ad
ĠC lear
Ġobst acle
ĠShe ffield
ĠP rest
ĠFa ith
F re
m tx
Ġbe aring
p ire
Ġas h
Ġspace craft
Ġf n
ĠR ol
Ġresemb les
g ro
Ġfix es
found er
Reg ular
ĠFried rich
o fficial
ĠSecond ary
Ġdef ended
ĠHar per
ĠPaul o
ĠD ale
el ong
th rows
Sc ience
Ġa viation
ĠE R
E instein
ĠInitial ly
Ġt enth
Ġare na
}{ @{}
ĠTh an
Ġsl ip
ĠZ ero
)=\ {
ĠSw an
ĠL ok
N AS
ra de
=" $
ĠK or
em er
itte es
Ġimm une
Ġauthor ized
A verage
ren ces
Ġpric ing
qu est
âĢ ĭ
30 5
Ġdat abases
ĠP erm
ĠA ur
ast ics
SI ZE
18 3
Com plete
ĠMem ory
ĠCon jecture
ĠÃ ģ
ĠN uclear
ĠEm ma
Ġtel esc
F ail
Ġkill er
ĠW R
ĠFran Ã§
Ġprotect ing
an z
ĠV illa
Ġel ong
Ġo c
ION S
us hes
ĠS witch
ĠK L
Ġl ady
Ġplay wright
Ġiniti atives
ĠEvent ually
Un like
Ġtrav elled
T B
Ġsk et
igu ous
ar in
ĠChel sea
Ġ{ '
uis ine
}) )\
ing o
Ġsm oke
Un ivers
ion ic
ampl itude
Ġexec utives
G od
v ens
RE S
ĠConfeder ate
Ad apter
face book
is che
ĠC W
Tra ining
Ġprem ium
r ases
ĠL C
ĠW alt
Ġexplo iting
Ġhous ed
norm als
Ġret reat
Ġingred ient
{\ ,
Ġd ex
ĠN H
im edia
ut z
Ġfis cal
Ġt ier
Ġf ifty
Ġdif fraction
** *
Ġdiscrim in
Ġy r
iff ith
comple t
as aki
ĠB ened
Ġen rolled
Ġwarn ed
resp ons
ĠBrook s
i ating
Ġsl ide
22 6
ĠEm ily
b ons
Ġep it
x u
Ã ½
ĠW ick
Vol ume
ru ce
ĠCom parison
3 80
ex isting
de en
hand ler
ĠPer iod
Ġtow ers
ĠP ink
}' (
iling ual
Ġto ured
ric hed
le arn
;\;\ ;
Ġn ond
I mages
Ġbur den
K it
Ġre pository
Ġheav ier
}. \\
_ ->
Ġf ung
Ġl akes
18 47
ari us
Ġour s
Ġback bone
29 0
ĠIn stitution
ab is
Ġres ur
lene ck
ĠB ound
and ro
! \!
m and
Ġinv olution
ĠMont gomery
he x
ĠO K
Ġadminist ered
Ġbul let
ĠE cuador
M ike
ĠJ ung
Ġwrap ped
ine es
Ġex clusion
Ġsoci eties
ĠRobert son
wrap per
Ġident ifier
Ġw av
ĠESP N
om al
Ġtra vers
ĠInterest ingly
3 10
st orage
song writer
cl iff
ĠIss ue
w avelength
">< !--
arp oon
g ical
m ol
ĠB av
Ġcondition ed
S ig
rid or
Ġph ones
any on
ĠD in
pro jection
ĠBr ussels
Ġsport ing
Ġd Ã©
ĠD esc
cell s
Ġrecurs ion
o ct
Ġre jection
Ġconstit utes
Ġstay ing
met adata
UR I
D H
We ight
Ġrem ix
ĠEag le
Ġ- (
Ġsub system
aj ax
Ġm g
ĠSpe aker
Ġscre ens
ur as
ĠP rague
ĠAl pha
Ġexhib itions
}& =\
ĠArm strong
Ġex ports
ell ite
anc ers
ĠV ert
ic ator
ĠMc L
Dat abase
{ "
26 5
ĠDiv is
Vis ual
In c
ĠComp ared
Ġb ills
ĠEll is
wild fly
F ollow
ic us
band s
rape ut
Ġch ord
Ġpol ym
Ġgram mar
Ġcl ique
Ġem peror
c ia
resol ve
Ġpray er
Ġd ir
S ync
Ġevery day
38 4
Ġer upt
Ġsur f
r z
rif ice
atin um
ĠGard ens
Ġelect roweak
ĠA ges
Ġim pressed
hent ication
ĠTOD O
L es
Ġc ricketer
qu oted
ull ah
ta ur
Ġsett lers
Ġsynchron ization
ĠC N
ĠL or
col Last
ĠB oh
Ġcre am
PR L
Ġsl ices
t oc
log ical
ĠO z
ĠJacob i
v ct
Ġs ung
Ke ys
ĠB ose
ĠDist ribution
n ut
Ġpe ers
Ġche ss
ĠK aren
M ix
Ġor n
Ġdet erior
Ġlegend ary
Res ources
st rip
be en
ĠM ead
ĠB rid
Ġair line
he at
âĢ¦ .
Ġeigen functions
pend ing
ĠVol unte
ĠPrinc eton
Ġtechn ological
ĠRh odes
od o
ig ator
ĠO C
rad iation
ĠSub section
c S
ĠB ears
/ {
c T
Ġdream s
B us
S ect
Ġassemb led
log y
Ã¶ n
H V
____ ____
U k
es pecially
g ences
ĠSh im
Ġobser vers
en eg
Ġwhe els
ie ck
Ġaccum ulated
ĠM Ã©
all classes
Ġsolit on
Ġenc ryption
Ġnovel ist
I Z
Ġkill s
ï »
ĠR oth
by tes
t ok
ĠM ob
et itive
fl ush
}] $.
ĠR A
22 3
Ġexpress ing
Start ing
Ġauthent ication
ĠG and
ĠRh ode
ĠSt yle
Ġrep ublic
ĠAll ied
ĠPal m
Ġamb assador
Ġp a
*}[ !
d S
ĠNe uro
ĠCart esian
Ġoverwhel ming
Ġpregn ant
ra its
'' \
Ġtimes cales
Ġsur pass
lev ard
ect ive
ring e
gl ass
am oto
ath a
ar re
ĠProtest ant
Ġt il
SE C
friend ly
sol utions
ul o
})$ -
ĠRo osevelt
Trans form
Ġhonor ary
Ġdiv ides
\ }}\
Ġfor ty
st ick
ĠF E
Ġque en
isp here
ere k
Ġpar as
all a
ĠF actory
head ers
Ġperm its
P en
min o
og o
Ġcur riculum
ĠT at
Ġreal m
Ġpat ri
ĠChe ster
ĠMethod ist
ç Ķ
wart z
ĠPo etry
' /
ext ended
Ġline up
ĠBul garian
. <
N eg
ll er
ĉĉ čĊ
ĠTun is
ĠPr ison
Ġprim ordial
Ġst ems
s chool
Ġen rich
fil m
ĠW IT
ĠMy r
ĠGR B
Ġra ises
ĠBur g
Ġl uck
T rump
n ai
Ġch ances
Ġ% \
Ġp arser
18 53
ĠAd miral
enc oder
ĠN om
Ġap i
16 00
ĠSch midt
ge ometry
Ġdis band
Bbb k
Ġ )^
ĠH ER
}. \]
Ġincorpor ates
ĠGrand e
Ġannot ated
ĠNott ingham
andid ate
Ġimm ers
ĠAp ache
l is
Ġbenchmark s
()) );
^* )$
Ġc razy
ĠS hen
ĠE ye
ĠCal cul
Ġsyn chrotron
Ġin consistent
ri o
Ġdoll ar
Ġcon duction
und ers
M ills
ĠVlad imir
av ian
ĠR NA
Ġ= ======
roid s
ĠAn a
ĠB ene
ĠConsider ing
ĠHal f
Ġobst acles
ä »
Ġj e
Ġen closed
Ġpoly gon
ĠPrinc ipal
~ .
ĠP ain
Ðµ ÑĤ
{$ {\
h b
}\ {\
ĠAltern atively
Ġxml ns
ĠInter view
ol ith
ĠIn side
ĠTechn ologies
Ġhist ories
larg er
ĠU ntil
ĠBrun swick
B an
ĠO wen
Ġqu iver
å ħ
pro gress
ĠNot able
acc uracy
Wrap per
Ġdep ths
ï» ¿
S oviet
ph ib
ian e
ĠB ERT
ĠC ork
Ġle an
ĠSt atus
ĠS B
g rowth
re ason
Ġbeat en
y ellow
2 17
M ove
p ark
s ocial
ĠD G
RE E
Sing les
ct uary
ĠV il
00 9
Ġconstruct or
ĠCy prus
Ġlect ure
Ġexpect s
in fl
F unc
id ays
ĠP it
Ġholog raphic
Ġsyn tax
Ġe gg
ĠN othing
K D
Ġaccept ing
Ġw age
Ġcivil ians
b rown
Ġsav ings
ĠDr ug
Ġlack ing
W ashington
ĠCh ase
ĠSp in
ĠPun jab
Ġmulti plier
22 8
Sh ape
Ġlinear ized
Ġmultip lying
ĠDub ai
ch apter
ĠL ip
ĠIndian apolis
Ġlif estyle
Ġlegisl ature
æ ĸ
Ġl ith
J D
t in
ĠSim pson
Ġpun ishment
Ġpione er
approp riate
ĠClass ical
ĠR aid
att ributes
ĠK ind
L HC
ĠU I
ee k
ĠRequ est
ph or
abel ian
ĠComput ing
Ġproblem atic
ĠR ice
55 5
Ġinvest ments
im i
Ġmet ropolitan
ĠD oppler
comm ons
Y S
par box
if fin
ĠByzant ine
S ave
ĠN as
O G
Ġ ^\
}) ^\
J ones
Ġz oom
un ate
Ġcon ferences
ĠCol in
g am
Û Į
Ġton ight
ĠH yp
ĠD j
Ä Ļ
_- $
Ġhum or
ĠS ett
}, $$
Ġexclud ing
Ġstrugg ling
ĠPro perties
ĠB row
++ ;
A H
col First
Ġadj acency
ĠD I
Ġre q
rac ing
Ġj er
H aw
ordin ate
Ġextra ordinary
normals ize
ĠN SF
Ġch at
en i
Ġlet s
ĠEll i
ĠH ubbard
ĠPop ulation
du ality
Ġem it
ĠCon v
Ġcolor ing
pre ced
Ġqual ification
Ġanalys ed
con cept
Ġvort ices
B and
en es
Ġren owned
m otion
Ġro d
ĠOr lando
Ġcle ared
Ġhyper plane
ĠYank ees
I reland
Ġdisappe ared
ic ism
Ġquas ar
Ġcon es
ĠRena issance
b z
Ar gent
L ip
Ġgl ac
ĠEs sex
f ake
ĠB anks
Ġcou p
ieg e
Ġevent ual
assert Equals
is ers
ĠT all
Ġdivor ce
" =>
U ntil
ĠRichard son
Ġi o
ĠL abel
pre vious
Ġdraw ings
ex periment
ath i
ĠB B
Ġun seen
Ġmin eral
Ġannih il
Ġang ry
Ġ\ {(
Ġ/ \
Ġlist ener
Ġball ot
aud io
Ġmidfield er
Ġvot er
Ġf ame
ĠSus sex
}. )
Comm unes
Ġshel ter
ĠWe ather
ĠAdvent ure
ĠMot ors
Ġrenew ed
ibl ings
ĠJup iter
the me
ĠO ber
0 33
Ġp ending
ĠHe aven
M ov
et able
ĠTas man
att ing
Ġpack ing
C red
ĠBry an
vary ing
whe el
interpre t
{ }^
ĠPow ell
av oid
for cing
AR D
Ġnecess ity
cd n
A sh
ĠB od
Ġopt ics
Ġaccompany ing
Ġpost er
Ġinsert ion
B ir
Ġp raise
NN s
ĠStock holm
ĠJ ob
Mod ern
or um
Ġpath way
ĠAud io
station ary
l label
Ġmult is
Ġthrow ing
in ters
text sl
MA SS
ĠLem mas
f ri
Ġwrit ings
log in
de creasing
Ġ rip
Ġup set
Ġmet er
ĠHe at
ĠT X
prov ide
ĠL if
ĠHy per
ĠH aven
g m
Ġhe ights
amp ire
ĠDes ert
AC S
ĠPear l
Ġb il
ĠExcell ence
Ġn p
ĠW inn
Ġfle e
ext end
Ġperman ently
ĠA ires
ĠW inds
ĠCon stituency
Ġscr atch
Ġm a
ĠĠĠĠĠĠĠĠĠĠĠĠĠĠĠĠĠĠĠĠĠĠĠĠĠĠĠĠĠĠĠĠ Ġ
m oz
ov ic
get Name
Ġcycl ing
Ġf ool
Ġdeb ris
_+ ^
Ġmic rowave
Ð¾Ð »
)) );
ĠLeg isl
m is
ĠDev on
Ġviol ating
ic ia
ĠC oun
ĠP U
I r
ĠS ul
Ġenerget ic
att i
Ġpress ures
Ġa erial
Ġh ung
Ġel dest
Y au
a very
Ex tra
con tr
Po isson
ĠCab inet
{ .}
ĠI MF
Ġsurviv ors
nice frac
ĠCom plete
Bel ow
od ers
Ġshould n
Ġinert ial
ap a
orth ogonal
Ġdiscipl ine
Ġinter stellar
let te
ĠCont ract
S us
Ġâ ĪĴ
ĠOrig inally
Ġre min
Sc roll
Ġimm ig
Ġ$ *
ex perimental
ft en
L V
Ġch ir
exp ress
Ġcompan ions
Ġrecept or
ul ers
ĠW igner
)) (
ĠâĢ Ļ
Ġre cycl
Ġwitness es
Ġanaly se
ĠB elf
ĠEn c
Ġempir ically
ĠS itter
Ġver se
ĠF ashion
ĠHit ler
L STM
Ġap olog
trans port
d R
ĠS ig
uz zy
Rep resent
s an
Ġprob es
Ġperform ers
Ġsuff ix
ĠMal ay
C ulture
oc ene
Ġport al
t ang
Ġg i
Ġmon astery
ĠSp ot
L INE
r ud
Ġp orn
assert Equal
small er
it icians
stan bul
q n
Ġpropag ate
he alth
ange red
effect s
Ġf ru
emph is
print f
ĠBoe ing
c art
', '
Ġv ig
Ġsuggest ion
ĠKer ala
Ġp ig
ĠStev ens
ĠA borig
* [
open hagen
tr unc
Ġexam ining
ĠEngine er
ORT ED
ĠBlo ch
Never theless
ĠC ec
J M
ov ina
th ose
ĠD D
Ġterm ination
cur ities
Ġn erv
Col umb
ĠTrans it
Ġs igma
ĠBarn es
Ġdeliver ing
ĠT iger
acc ording
h of
est e
Ġnob le
Ġnon local
ĠH S
intend ent
i ago
ow itz
lst listing
pl ays
ĠBa iley
Ġt ric
}[ {\
| .
}| _{
rac ies
Ġca ution
im ates
Ġsub marine
Ġt ong
Ġdecl aration
ĠFW HM
m ons
30 3
Ġcon gest
ond s
/ [
le z
ew ay
sp atial
ier i
... "
* }{
ĠB etter
ĠAng els
es se
Ġtri o
ĠAg ent
Ġmonoton ically
cur rence
Ġ{ "
ik ov
Ġarg uing
ĠHop kins
Ġgu itars
Ġn aming
ut ers
ĠCho ose
Ġl oses
Ġsuff ers
Ġsp o
Ġdepos its
Ġcompact ness
Ġframework s
Ġter rain
ĠK end
Ġcre ator
Ġmand atory
H i
ij a
^+ ,
Ġmem oir
ser ial
Ġrank ings
SS L
Ġtrans itive
ĠQu estion
arc s
ĠGra duate
orthe astern
Rem ove
ĠIndones ian
ĠBund es
Ġliter al
G ar
ĠN otes
ĠG ren
pe z
n os
ĠH ack
18 46
g iving
ĠK rish
Lear ning
Ġtub es
Ġhold er
Ġeigen vector
conj ug
_ (
ĠCh andra
Ġcul min
act ed
Ġro ok
22 9
h dots
Ġfeas ibility
g cd
aut om
ĠEx hibition
Ġup stream
b il
Ġpresum ably
St an
ĠInd ividual
W P
Vari able
Ġvoc abulary
ĠMc Donald
ON G
and ez
v n
ra ising
irection al
Ġ\ }$,
ĠMin i
F a
Ġfurther more
c atch
ort ium
Ġcontext ual
[ ][
Ġre combination
Ġpr ince
Ġlist ings
fil ename
cn fn
ĠBrad ley
' )}
Ġinitial ize
coupl ed
ĠL iv
Ġint ensive
ear ly
18 42
23 7
w ald
reg ions
ĠK om
ĉĉĉĉ Ċ
Ġ ip
Ġid em
opt ical
hyper ref
ĠNap ole
normal font
P arse
w ear
ĠU til
ĠBir th
q i
ĠR s
Ġred es
c ould
ĠM aking
en ko
ÅĤ aw
Ġstud ios
Ġdis solved
ĠSc i
Ġbre eding
ter bury
ĠP aram
det ection
ĠNiger ian
R ugby
ĠKaz akh
D rag
T ok
s ources
us on
ĠTr uth
Ġpurs uit
Ġautomorphism s
Â ·
Ġblock chain
}} }(\
ĠFR OM
ĠT S
ĠD ob
ĠMig uel
Ġtra dem
Ġrev ival
ibl ical
d N
Ġdec o
dist ributed
ĠZ h
ĠEngine ers
T X
ĠIraq i
mark s
Ġoccas ional
F ictional
ĠCom mercial
ĠDou g
Ã ¯
ĠCour se
ĠB ian
Ġwe ird
Ġper f
ĠArch ae
H ouses
Ġf ires
Ġpro c
ĠI g
s ent
um m
25 8
Ġextrapol ation
& -\
N U
st a
empor al
ä ½
ĠRe act
Ġsal ary
Ġs ulf
Ġb ubbles
ram es
S creen
ĠC riminal
K G
ĠB ottom
}} }_{
ast ed
ĠK hal
ĠA chie
) '
N ULL
ĠGe off
ĠS EC
ers en
ĠLe icester
W ord
mer ge
Ġaccept s
40 5
ĠNe ural
ĠSum mit
Ġcomplaint s
c ue
ĠLine ar
} ',
ĠG ov
col m
ĠMor se
R aw
Ġfar ms
ĠDur ham
ar is
Un fortunately
c orner
j in
Ġclean ing
ĠT ables
ĠK arn
ĠH ousing
ĠK yle
spec ified
ĠCon struct
Ġd oping
Ġo ve
ĠM ang
ron ics
3 15
Ġdom inance
chron ous
sens itive
adapt ive
Ġtal ented
Ġbomb ing
Fig s
Ġatta ch
Ġple ased
w iki
24 7
ou ville
Ġprom ises
Ġdepart ed
2 14
M ask
ĠJ unction
Ġcho ir
Ġt x
ĠC au
L iber
W ave
rot ation
ĠJama ica
Ġdis establ
Ġsuper con
Ġcan al
Ġaxi oms
B ank
ĠW ave
Ġlingu istic
s low
ĠN g
Ex pl
ĠM ale
Ġop posing
}}\ ,\
su fficient
Ex periments
Ġder iving
accur ate
Ġn ephe
ed o
Ġpr uning
il ian
Ġfol ks
ĠD ow
Ġcontract ed
widet ext
un certaint
ĠV eh
z k
ch at
ĠPop ular
ĠLind a
ot hesis
ced es
ĠAll an
M ountain
Ġmer c
Ġadjust ment
sp acing
Ġsol vable
Ġfil aments
f av
go al
Ġnation wide
f box
Sch warz
Ã© l
Ġsw ap
! }\
Y u
Ġlo yal
uck s
idd ing
ĠWest minster
18 20
ĠM iles
b right
ĠC ool
ĠB in
Al t
oul os
Ġcomprom ise
ĠHamb urg
ĠĠĠĠĠĠĠĠĠĠĠĠĠĠĠĠĠĠĠĠĠĠĠĠĠĠĠĠĠĠĠĠ ĠĠĠĠĠĠĠĠĠĠĠ
Ġmonotonic ity
U pon
ĠEn cyclopedia
Ġadv ised
Ġterm ed
ĠPan ama
Ġst yl
ĠSher iff
ĠO rt
Ġ" ,
ov anni
Ġsubdiv ision
as se
Ġvir ial
ĠImage Net
ng th
P ub
l ibrary
IN TER
Ġa fraid
ĠIR S
K o
w r
Ġs ailed
le ys
Ġconsp iracy
ĠAndrew s
ĠIniti ative
E valuation
Ġshe ep
Ġ$ {{\
bo ost
PRO JECT
he nd
ĠM uk
Ġcom plications
v f
Ġhe ated
ĠG yr
Ġab ortion
TH E
en ched
18 12
Ġtransp arency
ĠSalv ador
as ymp
ĠA er
25 7
observ ations
Ġfurn iture
restrict ed
ĠSaskat chewan
L ib
oy a
{- }\
esc u
c E
Ġpri ests
Ġlad der
ĠChar acter
ĠH od
iel sen
ĠHend erson
d uration
ĠR B
Ad am
ĠX ML
Ġbatt alion
Ġswit ches
Ġess ence
Ġaccum ulation
Ġkilomet ers
Ġdo i
OR Y
ik er
iter ator
it eness
ĠPro gress
ĠMed ic
Ġj am
fam ilies
all ax
19 1
ĠJoh ann
Ġre con
ĠJ S
Ġst y
Ġcor n
Ġresum ed
v id
Ġsuper gravity
H ave
Ġres iding
m obile
ĠN ATO
ĠW H
fig ref
Ġsear ched
Ġinert ia
ce ased
ĠD uncan
print s
ĠA way
18 1
Ġ Ø§ÙĦ
ir ling
ĠG ent
Ġexp enses
M ic
us ually
ĠMan it
sign ature
ĠAdvis ory
ult ra
Ġview point
Ġgradu ation
Ġcor ps
}}$ )
ĠS ustain
Ġp unk
au f
Ġun necessary
... ]
Ġpool ing
m oving
L G
s us
ore tical
Ġarchitect s
ĠRevolution ary
Ġw are
Ġsc roll
polar ized
- .
Ġcon vection
Ġneighb ours
ĠR ush
h urst
OR M
Ġch ore
ĠSom etimes
ag le
label s
ĠV a
Ġdon or
ĠSom erset
neut ral
/ "
Ġhyperp arameters
m og
J ournal
Ġmot if
an ian
}{ {
> :
Ġf ut
ĠF lem
Ġhand ful
Ġexpl ores
in frared
Ġinv ented
Ġdebut s
Ġun anim
}^{ +\
f uture
Ð° ÑĤ
Ġste ering
Ġmaxim ally
Ġdiver gent
ĠQ uality
ĠMe eting
Ġemer ges
Ġconfigure d
Ġeject a
M V
ĠI sh
align ment
ĠCl ient
Ġloc ate
> [
Ġadminist rator
ĠEmer gency
ĠGene va
Ġin cur
ĠPlay Station
Ġ( ``
umber land
ĠZ imbabwe
ĠCar r
ĠQu art
g rand
he avy
ĠL oc
de velopment
ĠMan ila
$ +$
Writ ers
ĠJac ques
Ġ" -
Ġmon arch
ĠFin als
Ġso ap
ĠHe ights
Red uce
& $\
W u
p icker
Ù ĩ
Ġm ist
Ã ®
Ġunder graduate
Ġworld s
Ġann ex
ĠW ire
andid ates
Ġtem p
-------- ----
Ġcorrect ness
Ġprogress ion
Ġconstitu ent
: $
ĠForm ation
ĠConc ert
} &=&\
am ura
Ġle ase
ĠIs le
Ġp ocket
Ġl anes
ĠF uk
Ġal i
com par
Ġunder taken
) }^{\
Ar thur
Qu ant
c ass
Ġ\ |^
Ġsm ile
ĠMor occo
! ,
pop ulation
tablen ot
ĠMor rison
% ),
ĠAct ress
ĠA ub
ĠL ar
Ġem pire
ĠT ampa
allow ed
Ġacadem y
Ġconvex ity
F ire
ĠF erg
Ġcan vas
ĠX box
Ġwav egu
Ġcook ing
ba um
Ġpl ug
rub y
Ġup graded
}) |
mod ern
s afe
Ġsimpl ifies
ĠH il
ĠV ern
Ġwitness ed
ĠY an
Rep ository
+ {
lo ve
Ġpurs ued
Ġdiscover s
ĠOption al
yl an
es ar
text subscript
Ġinst abilities
Ġpers pectives
ĠSol utions
ĠA ve
sim pl
Ġiter atively
ou cester
aj i
ĠYugosl avia
ĠT rad
Ġtom orrow
J eff
Ġd ancer
inos ity
ot ics
ĠN AME
Ġh ype
ĠR AM
23 9
ĠF ul
18 45
Con stant
prec ated
18 43
Ġcollabor ated
asympt otic
ĠIO Exception
im ag
Ġselect s
Ġaug ment
rit z
Ġpred icate
ĠHel p
Ġnick name
ĠMe chan
utt le
Ġ æ
J ean
Ġtri ples
Ġp ap
cross ing
ĠBay es
S ide
Ġs iege
lin ks
Ġcitizens hip
ĠAbd ul
ĠM otion
23 3
ĠCoal ition
ĠI ma
Ġ[ "
ĠOther s
ĠG S
ne um
Ġlo ans
4 20
M obile
Ġlat itude
Ġg amb
Ġtriang ulation
Ġsupern ova
ma ven
Omega f
24 8
ĉĉĉĉĉĉĉĉĉĉĉĉĉĉĉĉ ĉĉĉĉĉĉĉĉĉĉĉĉĉĉĉĉ
" ].
Ġthe or
ta k
ĠEqu ations
18 44
ĠAss ociated
Ġoptim izing
ĠB ib
ampl ed
Ġst ones
Ġwork shops
Ġext inct
40 1
h ler
Ġthere of
top ic
em bourg
Const ants
ĠC ategory
ID TH
v k
Ġb ab
p ri
Ġbl ame
Ġconc ave
) &=&\
ĠJ ake
ĠAcadem ic
Gener ated
Ġextract ing
enti eth
ĠOut standing
ien ne
C ities
bf series
position s
Ġdub bed
ĠSand ers
oca ust
ĠMC MC
c X
=\ {\
}\ }$,
' }^
Ġmort ality
Ġsub category
Ã© r
Ġret ro
ĠElect ronic
ĠL ak
Ġper col
Ġpre vention
att ed
ĠJam ie
ĠC rystal
^* =
Ġadm ission
Ġeth n
Ġjud g
Ġinduct ed
Ġprest igious
ax ter
Ġvis ually
f w
Ġemphas ized
Ġasymptot ics
Ï Ĥ
ĠE valuation
23 6
28 5
ĠFran z
un n
in de
ĠC av
Ġv ow
PO ST
ĠVari ous
ĠBos nia
edd y
Ġlift s
Ġdies el
mat r
er als
Ġc ouncill
Ġgovern ance
measure d
Ġrecru ited
on de
)) _{
ay ette
ĠInst rum
ĠMer it
Public ations
M i
ĠL com
B uff
Ġconsum ed
ropol is
all i
Ġgrid s
um ble
os ely
99 99
Ġconstitu encies
Ġreven ge
Ġsignal ing
ĠR iv
ĠCart an
Ġreleg ated
ump y
Ġm ud
Ġsl ots
Sh ould
Ġd ock
ĠN V
vert ices
B st
m cite
ĠB rain
ĠSta kes
18 37
Ġcr ust
I ES
v ae
G ro
ope z
ĠBu enos
r uled
Ġde cent
Ġload s
à¥ į
ĠG ross
S equence
id an
ĠDe al
." );
Ġtox ic
ĠLou ise
âĢ ²
Ġpos ed
Ġflow ing
ĠLet ters
Ch art
Ġf ingers
Ġdeterm in
Ġ }^{\
ĠOt to
Ġathlet ics
Ġdisestabl ishments
K N
ĠC anyon
Ġhot els
Ġen zyme
py thon
Ġfold ed
C ut
Ġstack ed
r ally
Run time
29 6
Att ributes
v phantom
ĠL D
Ġwave function
ĠHess ian
< !
Ġpl ugin
Ġconsult ant
ĠP aint
Ġmet ast
ĠSol omon
ĠN J
cons idered
Ġpian ist
p ad
18 39
Ġdis h
Ġmach inery
S plit
bl ocks
ĠSub sequently
g overnment
Ġathlet ic
p relim
al an
Ġ ig
ĠO m
Ġhelic opter
Ġposition ed
ceut ical
ĠM SE
ĠField s
Ġpit ched
ĠB il
fact ory
end ant
ur an
Ġsubject ed
Ġpsy chiat
ĠH P
observ ation
l ane
ĠDi pl
ĠH us
ĠPublic ations
Ġdoub let
ex cit
fer red
ĠLu cy
Transport ation
ps line
$ }{
Ġpro to
ĠĠĠĠĠĠĠĠĠĠĠĠĠĠĠĠĠĠĠĠĠĠĠĠĠĠĠĠĠĠĠĠ ĠĠ
And rew
Ġstrugg led
W a
Ġhand les
ĠPak istani
ĠP orter
Ġrel atives
Un incorporated
Ġprof its
Ġlog ger
Ġjud icial
ĠSchwarz schild
ĠPl ate
ju ana
Ġcust ody
ĠK K
Pol ish
ogen esis
4 60
den oted
ĠSh annon
Reg ister
{\ '
Ġ( #
y en
Ġspec ifies
equ ality
Ġfl ares
AT ED
ĠR ate
ĠK aw
curs ion
Ġtime out
') );
ĠMult iple
Ġb achelor
ĠN W
b R
os ion
ĠCap itol
Ġter rible
spring framework
Ġ )}
Ġflu ids
N odes
k le
t ick
Ġinform ative
h ra
c g
ma ck
Ġg ig
Ġfl ank
) ->
dis pers
ĠH off
Ġorient ations
Ñģ Ðº
ĠSt rat
ict ions
Ġwar fare
0 13
mm ode
à¤ °
Swed ish
{ }_
ay e
'' '
Ġrein forcement
B inding
cccc c
}} )$,
Ġion ized
0 14
ad os
Ġterm inus
allow break
Ġsh oes
que z
Wal let
ĠB ever
Ġsc anning
ĠJoh annes
ĠAssoci ate
Th ank
ig i
pro c
Ġharmon ics
ĠAp ost
gener ate
av in
w at
ĠN urs
Ġbott le
Ġprompt ed
V e
Ġb out
ĠB order
Ġclar ify
run time
ĠLag range
Ġinterpret ations
â Ħ
Ġm irr
Ġmon ster
Ġbroad ly
[ (\
Stat istics
Dep artment
Ġg rip
}] $,
ĠHind i
N B
the refore
ple ted
ĠCas imir
er i
spe aking
u o
ĠPart icip
Ġfood s
ot ers
Ġpull ing
Leg acy
Ġtorn ado
Ġm ice
ĠO H
ep per
. __
Ġpredict or
P unct
op ened
product ive
art icles
St okes
tt i
Ġcondition ing
Ġpack ed
Ġ>> >
ĠLithuan ia
ĠTo o
ĠP V
ĠV R
sh ock
eler ation
Ġvict ories
mont on
un known
Ġinstit ute
Ġcoinc idence
column s
Ġrear rang
Ġrecip ients
Ġalle vi
\{ (
Ġconfirm ation
x html
ĠAp plied
Vis ible
k im
ro ute
Ġj Query
Ġabund ant
ĠDev il
} ]{
Ġr ivals
g ary
h w
ĠB j
ex c
ĠD as
RE Q
ĠE g
ĠGib son
p ars
ĠWil helm
ĠHTT P
ĠS ets
Ġch icken
ID E
ĠS ize
ĠDist inguished
ch in
Ġman s
ĠC openhagen
Ġfound ers
Ġg ods
ĠL F
24 6
Com pat
$ |\
'' _
LE D
M arc
Text ure
ĠBudd h
cl one
bro ken
op p
Ġcat hedral
and i
V ictor
å Ī
ĠW end
m its
Ï Ģ
ĠHamilton ians
ĠOb viously
non linear
Ġgirl friend
ĠV ers
I sl
Ġne b
_- (
G h
ĠIn ternal
r ather
ust ering
Ġstre ak
Ġcab in
Ġh iding
18 35
inf all
ĠH ook
St ats
ĠEx perimental
Micro soft
Ġphil anth
it ively
ĠCorn wall
Ġpregn ancy
ĠW ant
Ġvacc ine
P ark
30 2
C lim
Ġ( âĢľ
ĠIn g
i ological
Ġdis connected
ĠHe ath
ex it
s uc
by ter
ĠTw enty
t body
Ġsem is
ĠC MS
ĠF ramework
Ġove rest
b age
Ġre calling
ĠP am
29 5
ph il
Ch ief
Ġwant ing
Ġaw esome
Ġch ips
ĠTh r
ĠWrit ers
Ġtact ics
be cca
^+ $,
Part icip
P B
le en
ĠP ok
ĠH ip
it ary
ort ions
Ġw reck
ĠP sy
Ġdivis ors
Ġp ile
RE D
D am
Ġk a
Ġenc odes
ĠAccording ly
df n
ĠE t
Ġch lor
ĠEx perience
od i
ĠR ut
Ġhang ing
Ġgrad ing
st rom
Ġre fin
p ix
Ġwid ow
te o
ĠUr ugu
D ark
et z
ĠEx ped
Ġaffili ate
A O
D ash
h fil
Ġcrit ically
&& &
ĠH ers
18 38
Ġac ute
ĠKe ep
rig ger
\ (\
Ġadvis or
C os
enn ium
50 1
Ġtour ists
Ġt weets
Ġis ometric
ĠPl atform
ĠAnd rea
ĠA ch
Ġgroup ed
ĠAn imal
Ã °
Ġ$[ -
Ġf ier
Ġmult ic
Ġsil ence
ĠB ras
Ch icago
Ġc ens
ir us
Ġsuccess ion
Dat aset
Ġ& \\
}$ (
Ġrandom ness
Ġfound ations
Ġb er
Ġprop ri
text superscript
Ġrece ivers
ane ously
As ian
7 20
n amely
Pro gress
18 36
ĠL M
ĠNS W
L im
Ġappe aling
sub t
Ġref lex
Ġic onic
J J
if mmode
les h
j b
ĠR oot
Ġpre y
,\ ,\,
hed ra
Ġprob able
B rien
ĠP DE
algebra ic
Ġwh is
Ġpull back
Ġinvest ed
chie f
Ġnom inee
iz za
Ġval ign
Ġw is
Dem ocratic
Ġwave let
Spec ies
em ption
ad ier
ĠB ran
re leased
Ġcr ashed
bos on
ĠL odge
Ġab rupt
ole y
ra f
Ġremin is
ref lect
De velopment
ĠT ennis
ur ally
Ġatta chment
ĠComb ining
Ġmaxim izing
sw ap
communic ations
Ġdec iding
f ried
wit z
Ġtransc ription
ts d
Ġoccup y
ĠBou levard
ra ges
Ġre bounds
oper ative
run ner
ĠF raser
Ġdig its
Ind ividual
rac ed
det ect
Cal ifornia
al in
Ġdeleg ate
Ġc uisine
ĠGl enn
ĠO P
ne ider
Tax onomy
mem bers
Aud io
ĠC ry
Ġhon ored
b eg
ĠInd igenous
37 0
ĠR onald
ĠF emale
ĠNewton ian
Ġg erm
ĠPear son
ros se
ST AR
Ġ| ^
Ġkick ed
Ġex changes
R u
ĠR ib
Ġcler gy
Ġenthus i
G ordon
ĠGram my
Ġevery body
Ġdon ations
proto buf
C op
Po inter
F ocus
Ġtransform ing
ĠPresident ial
ĠFl ag
Pass word
Ġin tact
IN S
ĠSant iago
enz ie
st ri
^ ^
ĠR ole
W at
b rief
ĠCh ad
Gener ator
â Ĩ
direct ed
keep ing
os i
Ġl ar
ĠH ank
ĠW ool
ĠG es
Ep isode
ed e
ĠViet namese
Ġfin ale
Ġcru ise
ĠT F
ĠAb stract
cent ric
Ġp t
ĠR ac
\!\! \!
amm ad
ĠP I
exec ute
qu ist
Ġtelesc opes
ĠMar in
load er
Ġdo zens
ĠÎ ¼
m ur
28 6
MO DE
Ġfund ament
Pl us
en za
am ous
ir ie
Ġminim izes
Ġscript s
Ġbe ings
ĠG PS
Ġv iral
ĠK urt
^+ }
assum ing
ĠÐ ¾
ĠPract ice
ĠAborig inal
cer tain
rag g
ĠDomin ican
4 95
Ġrevers al
Ġske leton
Ġs el
ĠN AV
Ġsp ark
Ġun incorporated
EE EE
Lo op
ĠE OS
Ġr ifle
24 3
B uck
ĠKenn eth
cl s
I AL
Ġred ist
E ducational
ĠH C
Ġtem ples
c B
con clusions
Ġquant ized
ut orial
ĠP ars
erm ost
he y
Ġs our
c ology
at um
k p
Ġ& :=
ma re
ill i
Ind epend
ĠC apt
R D
ĠP arent
ric ia
ract ical
Ge org
g ae
R AN
Ø ¯
ab lo
ĠInd ies
Ġund ers
p ages
AR CH
ĠC yr
ip olar
26 7
Ġcos ine
v ich
ol ics
se min
ĠSc ript
ĠA verage
)\ }_{
Ġexcess ive
Ġmit igate
N H
g ang
ct rl
gl ob
osp ace
M yr
ant o
)$ \\
con volution
aw i
ĠÂ ±
ĠTre asure
e lem
ĠN ames
UT C
Ġme al
Ġarchae ological
M as
Ġf reed
I gn
C over
Ġb ending
ĠCh uck
ĠM ell
Ġan ger
og l
Ġle ather
Ġover flow
ĠEd mund
}{! }{\
ĠT rent
ĠF ol
ler ight
ĠSur v
Ġk ings
ĠHur ricane
Ġrecurs ively
Ġrevolution ary
Ġres caled
33 5
Ġemb ry
quoted bl
Ġr ms
B or
ign e
Pro ps
Ġshock ed
g old
ĠMichel le
T er
ta iled
anda fter
I o
ĠF o
() </
Ġgra ce
Ġbox ing
satisf ies
ist inguish
exp andafter
Ġsupplement ary
aff ected
text quotedbl
Ġcast ing
ĠSh are
j ets
l ip
ĠB M
30 8
Point s
)$ ).
Ġgeneral izes
ĠF ollow
ob ic
ĠP om
Ġhome omorphism
ĠM eta
" `
H all
ĠP arameters
Ġfe ud
Ġreal izes
Ġhere in
eg ovina
? >
Ġ$\ ,
Ġpow der
F und
ast ing
Ġsum ming
Ġsub scription
ĠÐ º
Ġ' <
ĠDe b
Ġreb els
com posable
Ġtransform er
b les
ĠCub an
ĠWag ner
Ġvocal ist
nod ata
x ilinx
ĠS ame
ĠÐ ´
second ary
| )
qu as
Ġhom osex
ĠM atrix
ĠH ait
ĠG rim
aid en
sc an
Ġsl iding
ĠU nd
Ġgen ome
u ke
Ġgroup oid
Ã© g
Ġdispl aced
us ername
att en
odrom y
Ġcomm od
St ruct
ĠZ amb
cent ered
!! !!
te in
v g
ĠM LB
Ġam ple
Ġquestion ed
ĠT ell
Ġmed i
ĠP ine
Ġbroad ening
ogon ality
Com paring
Ġpost ing
ĠMov ies
Ġbr ighter
ĠRe ich
ĠCont est
Ġimprison ed
J oh
Ġsatisf action
Ġconjug acy
Ġcol linear
Fl ag
Ġfer til
G rant
orth y
in vol
'' }
she af
Ġatten uation
Ġharm ony
ĠInt eger
ĠAlexand ria
Un ion
ellow s
L am
Ġn itrogen
K en
Ġst ocks
iz ational
Ġimport ed
E th
m rm
ĠAut om
Ġsc ans
ĠU T
Ġdistrib ute
ĠProduct s
Prelim inaries
s uggest
ed uc
Ġhom eless
ĠT ick
Ġg ases
Ġout liers
Ġflo oding
UN D
Ġ$\ #
}( {
Ġtra ils
Ġleg ally
3 27
rell a
Ġb ones
H B
c ats
arg min
Ġch orus
ĠTri ple
D rop
Ġse ver
Ġrap per
ĉĉ Ġ
$ ^+$
Ġfree ze
Ġgen res
FOR M
Ġg ymn
ĠProv incial
gener ator
ĠC rist
ĠG othic
ĠTrans form
, *
ĠÃ ĸ
Ġcomed ian
Ġredu ctions
Ġtrust ed
Ġveter ans
il ion
Ġdiagn osed
4 40
Ġdiscrim inator
m pi
Ġd S
R od
Ġout s
ĠOut put
ĠAdd ress
ol an
ĠPoint s
sh are
Ġbroadcast s
ĠV ocal
Ġlaunch ing
ĠI a
G overn
M iddle
d q
d ar
Ġn oun
Ġl on
Ġsl it
Ġrestrict ing
Ġdissip ative
Ġin elastic
Ġassign s
Ġmal icious
ĠBel le
ĠM TV
Ġres caling
24 9
Ġign oring
J oe
Ġcomp rise
ĠTh ank
L os
Ġflo ors
ĠPot ter
Ġfol iation
un al
ĠMal ta
P UT
30 7
dr iver
ĠMaur ice
ĠTrans ition
Ġtra ff
ock ets
Ġse ized
Ġrel uct
Ġtrem end
ric a
LE S
ash ire
Ġdisc arded
n umbers
Ġb acter
ĠK ot
Ġbott leneck
Ġres il
Ġcomm enced
25 3
olog ic
Ġavoid s
ĠC ould
r ink
Ġbreak fast
Ġ um
Let ter
P rem
ob tain
A gg
Ġse al
pe x
print ln
ĠS oc
Ġsu cc
ĠBre xit
ĠWy oming
g c
}) ).
ĠP ool
Ġnation ally
Ġprem ises
inst ead
Ġepid emic
k ill
Ġp el
b ary
Ġre cre
ĠN atal
Ġ ub
ou rable
Ġwind ing
ĠTre asury
a uses
Ġs iblings
ĠHy dro
ad ditional
Ġst air
ĠTh ink
la us
de comp
ĠCal gary
Ġmis takes
sh ine
24 4
] }{\
ĠM atter
ss s
fact ors
Opt im
od ia
Ġsp ike
. ",
^+ _{
Ã¨ s
Ġafford able
Ġmut ations
Consider ing
ĠTan z
li qu
Pol itics
bul k
ĠL ines
Ġrespons ibilities
Ġsubt racted
W H
Ġen roll
gu ard
G erm
e ys
anu el
}\ |^
Ġprison er
ĠLyn n
ĠL t
pro ton
Ġprof ound
Ġsl avery
complex ity
U nd
ĠS G
Ġcor rupt
Ġcomm uting
}, ~\
ĠAr ctic
Ġtype of
}^* (
N V
11 11
Sim on
ĠCl ose
{ ,}
ĠH ir
Ġ" $
Ġv ibr
Ġdefic it
ĠSo ph
Pol iticians
cir cled
t ran
ĠS end
ĠBe a
ĠManit oba
18 41
ĠTr in
grad le
m ile
Ġthorough ly
t ransp
ta ch
ĠCar roll
Ġunder went
L oss
Ġs ailing
Ġquas ipart
Ġ il
ĠInvest ment
i encies
Ġin quiry
sur vey
ĠAp ollo
: -
ĠH app
Ġspect ro
45 6
in ion
Ġart ic
year s
j ac
ou in
com ed
ĠHe in
cont ents
Ġvo iced
ĠR ash
ogram s
Ġnerv ous
)} }$
Ġresemb le
ĠRoll ing
Ġs orry
ta ine
ĠU tt
Ġfav ored
Ġspec ially
Ġdel ivers
Ġant iqu
Ġm d
ĠM AC
ĠTrans former
Ġthermod ynamics
preced ented
gl uon
Ġmidfield ers
ĠMaterial s
Ġpen alties
Mult iple
ĠC ort
ĠManu fact
ĠT T
6 40
ĠJ i
AA AA
W L
h it
Ġc ig
Ġint ens
Ġpuls ars
ĠAd rian
Ġlast ing
\,\ ,
Ġpro tagonist
A k
g ives
: {\
Ġdetect able
af a
IS A
ĠLegisl ature
j ournal
ĠG em
Ġprocess ors
ĠGu itar
CT YPE
ĠChem ical
us form
Ġqu it
col ored
hu ang
Ġmask ed
ĠElli ott
is ure
Ġce iling
Ġrenormal ized
P ier
I ran
ĠL I
be havior
ĠNot re
F ive
.~ (
ĠComput e
ess ing
ĠM HD
od el
ide a
Ġtra its
Ġacc idents
, âĢĻ
uc le
Ġtheat rical
4 75
ĠM illion
Ġrest art
Ġorgan ize
)] .
ĠT error
ĠAdvent ures
rang er
Ġcasual ties
Ġ< -
ĠAd apt
Ġnonlinear ity
Ġnob ody
cal a
S on
Ġselect ive
Ġb end
Ġn s
ĠF ifth
ĠCh in
ĠAN Y
numer usform
W T
Ġ umb
Ġder ives
q s
[...]
