{
  "version": "1.0",
  "truncation": null,
  "padding": null,
  "added_tokens": [
    {
      "id": 0,
      "content": "[UNK]",
      "single_word": false,
      "lstrip": false,
      "rstrip": false,
      "normalized": false,
      "special": true
    }
  ],
  "normalizer": null,
  "pre_tokenizer": {
    "type": "Sequence",
    "pretokenizers": [
      {
        "type": "Digits",
        "individual_digits": false
      },
      {
        "type": "ByteLevel",
        "add_prefix_space": false,
        "trim_offsets": true,
        "use_regex": true
      }
    ]
  },
  "post_processor": null,
  "decoder": null,
  "model": {
    "type": "BPE",
    "dropout": null,
    "unk_token": "[UNK]",
    "continuing_subword_prefix": null,
    "end_of_word_suffix": null,
    "fuse_unk": false,
    "byte_fallback": false,
    "vocab": {
      "[UNK]": 0,
      "!": 1,
      "\"": 2,
      "#": 3,
      "$": 4,
      "%": 5,
      "&": 6,
      "'": 7,
      "(": 8,
      ")": 9,
      "*": 10,
      "+": 11,
      ",": 12,
      "-": 13,
      ".": 14,
      "/": 15,
      "0": 16,
      "1": 17,
      "2": 18,
      "3": 19,
      "4": 20,
      "5": 21,
      "6": 22,
      "7": 23,
      "8": 24,
      "9": 25,
      ":": 26,
      ";": 27,
      "<": 28,
      "=": 29,
      ">": 30,
      "?": 31,
      "@": 32,
      "A": 33,
      "B": 34,
      "C": 35,
      "D": 36,
      "E": 37,
      "F": 38,
      "G": 39,
      "H": 40,
      "I": 41,
      "J": 42,
      "K": 43,
      "L": 44,
      "M": 45,
      "N": 46,
      "O": 47,
      "P": 48,
      "Q": 49,
      "R": 50,
      "S": 51,
      "T": 52,
      "U": 53,
      "V": 54,
      "W": 55,
      "X": 56,
      "Y": 57,
      "Z": 58,
      "[": 59,
      "\\": 60,
      "]": 61,
      "^": 62,
      "_": 63,
      "`": 64,
      "a": 65,
      "b": 66,
      "c": 67,
      "d": 68,
      "e": 69,
      "f": 70,
      "g": 71,
      "h": 72,
      "i": 73,
      "j": 74,
      "k": 75,
      "l": 76,
      "m": 77,
      "n": 78,
      "o": 79,
      "p": 80,
      "q": 81,
      "r": 82,
      "s": 83,
      "t": 84,
      "u": 85,
      "v": 86,
      "w": 87,
      "x": 88,
      "y": 89,
      "z": 90,
      "{": 91,
      "|": 92,
      "}": 93,
      "~": 94,
      "¡": 95,
      "¢": 96,
      "£": 97,
      "¤": 98,
      "¥": 99,
      "¦": 100,
      "§": 101,
      "¨": 102,
      "©": 103,
      "ª": 104,
      "«": 105,
      "¬": 106,
      "®": 107,
      "¯": 108,
      "°": 109,
      "±": 110,
      "²": 111,
      "³": 112,
      "´": 113,
      "µ": 114,
      "¶": 115,
      "·": 116,
      "¸": 117,
      "¹": 118,
      "º": 119,
      "»": 120,
      "¼": 121,
      "½": 122,
      "¾": 123,
      "¿": 124,
      "Â": 125,
      "Ã": 126,
      "Ä": 127,
      "Å": 128,
      "Æ": 129,
      "Ç": 130,
      "È": 131,
      "É": 132,
      "Ê": 133,
      "Ë": 134,
      "Ì": 135,
      "Í": 136,
      "Î": 137,
      "Ï": 138,
      "Ð": 139,
      "Ñ": 140,
      "Ò": 141,
      "Ó": 142,
      "Ô": 143,
      "Õ": 144,
      "Ö": 145,
      "×": 146,
      "Ø": 147,
      "Ù": 148,
      "Ú": 149,
      "Û": 150,
      "Ü": 151,
      "Ý": 152,
      "Þ": 153,
      "ß": 154,
      "à": 155,
      "á": 156,
      "â": 157,
      "ã": 158,
      "ä": 159,
      "å": 160,
      "æ": 161,
      "ç": 162,
      "è": 163,
      "é": 164,
      "ê": 165,
      "ë": 166,
      "ì": 167,
      "í": 168,
      "î": 169,
      "ï": 170,
      "ð": 171,
      "ó": 172,
      "ô": 173,
      "Ā": 174,
      "ā": 175,
      "Ă": 176,
      "ă": 177,
      "Ą": 178,
      "ą": 179,
      "Ć": 180,
      "ć": 181,
      "Ĉ": 182,
      "ĉ": 183,
      "Ċ": 184,
      "ċ": 185,
      "Č": 186,
      "č": 187,
      "Ď": 188,
      "ď": 189,
      "Đ": 190,
      "đ": 191,
      "Ē": 192,
      "ē": 193,
      "Ĕ": 194,
      "ĕ": 195,
      "Ė": 196,
      "ė": 197,
      "Ę": 198,
      "ę": 199,
      "Ě": 200,
      "ě": 201,
      "Ĝ": 202,
      "ĝ": 203,
      "Ğ": 204,
      "ğ": 205,
      "Ġ": 206,
      "ġ": 207,
      "Ģ": 208,
      "ģ": 209,
      "Ĥ": 210,
      "ĥ": 211,
      "Ħ": 212,
      "ħ": 213,
      "Ĩ": 214,
      "ĩ": 215,
      "Ī": 216,
      "ī": 217,
      "Ĭ": 218,
      "ĭ": 219,
      "Į": 220,
      "į": 221,
      "İ": 222,
      "ı": 223,
      "Ĳ": 224,
      "ĳ": 225,
      "Ĵ": 226,
      "ĵ": 227,
      "Ķ": 228,
      "ķ": 229,
      "ĸ": 230,
      "Ĺ": 231,
      "ĺ": 232,
      "Ļ": 233,
      "ļ": 234,
      "Ľ": 235,
      "ľ": 236,
      "Ŀ": 237,
      "ŀ": 238,
      "Ł": 239,
      "ł": 240,
      "Ń": 241,
      "Ġt": 242,
      "in": 243,
      "he": 244,
      "Ġa": 245,
      "ĠĠ": 246,
      "on": 247,
      "re": 248,
      "at": 249,
      "er": 250,
      "Ġthe": 251,
      "en": 252,
      "Ġs": 253,
      "or": 254,
      "al": 255,
      "it": 256,
      "Ġo": 257,
      "is": 258,
      "an": 259,
      "Ġc": 260,
      "es": 261,
      "ar": 262,
      "ion": 263,
      "Ġw": 264,
      "ed": 265,
      "Ġf": 266,
      "Ġ\\": 267,
      "Ġof": 268,
      "Ġin": 269,
      "Ġp": 270,
      "nd": 271,
      "Ġb": 272,
      "le": 273,
      "ĠĠĠĠ": 274,
      "ic": 275,
      "ing": 276,
      "Ġ$": 277,
      "ro": 278,
      "as": 279,
      "Ġd": 280,
      "Ġand": 281,
      "Ġm": 282,
      "ct": 283,
      "Ġto": 284,
      "el": 285,
      "et": 286,
      "ig": 287,
      "ent": 288,
      "ou": 289,
      "ra": 290,
      "il": 291,
      "om": 292,
      "st": 293,
      "ation": 294,
      "Ġth": 295,
      "{\\": 296,
      "im": 297,
      "Ġre": 298,
      "am": 299,
      "Ġh": 300,
      "Ġe": 301,
      "ol": 302,
      "ot": 303,
      "Ġn": 304,
      "Ġ(": 305,
      "Ġis": 306,
      "ĠT": 307,
      "ĠS": 308,
      "Ġl": 309,
      "id": 310,
      "ce": 311,
      "iv": 312,
      "ĠC": 313,
      "Ġfor": 314,
      "ĠA": 315,
      "ut": 316,
      "ch": 317,
      "se": 318,
      "_{": 319,
      "Ġg": 320,
      "ur": 321,
      "ul": 322,
      "ow": 323,
      "qu": 324,
      "ly": 325,
      "ab": 326,
      "Ġon": 327,
      "eg": 328,
      "ath": 329,
      "Ġ$\\": 330,
      "um": 331,
      "ĠĠĠ": 332,
      "ith": 333,
      "ĠM": 334,
      "us": 335,
      "ver": 336,
      "em": 337,
      "ad": 338,
      "Ġthat": 339,
      "čĊ": 340,
      "ĠI": 341,
      "Ġst": 342,
      "Ġbe": 343,
      "Ġcon": 344,
      "ĠĠĠĠĠĠĠĠ": 345,
      "od": 346,
      "math": 347,
      "end": 348,
      "ir": 349,
      "Ġas": 350,
      "20": 351,
      "un": 352,
      "if": 353,
      "Ġwith": 354,
      "ĠB": 355,
      "ĠP": 356,
      "ter": 357,
      "ge": 358,
      "ta": 359,
      "ay": 360,
      "ve": 361,
      "ction": 362,
      "igh": 363,
      "ph": 364,
      "Ġal": 365,
      "ĠĊ": 366,
      "Ġwe": 367,
      "th": 368,
      "ist": 369,
      "}\\": 370,
      "Ġ&": 371,
      "ĠF": 372,
      "ĠThe": 373,
      "ĠH": 374,
      "Ġpro": 375,
      "Ġan": 376,
      "}$": 377,
      "^{": 378,
      "ure": 379,
      "âĢ": 380,
      "Ġby": 381,
      "ri": 382,
      "ers": 383,
      "ĠR": 384,
      "ĠL": 385,
      "and": 386,
      "Ġv": 387,
      "her": 388,
      "os": 389,
      "pe": 390,
      "ex": 391,
      "ĠD": 392,
      "ma": 393,
      "19": 394,
      "ight": 395,
      "ity": 396,
      "ate": 397,
      "ĠW": 398,
      "up": 399,
      "Ġex": 400,
      "ac": 401,
      "ref": 402,
      "ap": 403,
      "res": 404,
      "Ġwh": 405,
      "rom": 406,
      "Ġ=": 407,
      "ĠN": 408,
      "Ġcom": 409,
      "Ġare": 410,
      "Ġat": 411,
      "ub": 412,
      "Ġde": 413,
      "ite": 414,
      "ĠG": 415,
      "est": 416,
      "ore": 417,
      "cal": 418,
      "Ġwas": 419,
      "ine": 420,
      "(\\": 421,
      "art": 422,
      "}}": 423,
      "op": 424,
      "ĠE": 425,
      "Ġit": 426,
      "pl": 427,
      "egin": 428,
      "ial": 429,
      "ies": 430,
      "Ġfrom": 431,
      "begin": 432,
      "Ġse": 433,
      "rac": 434,
      "ess": 435,
      "ft": 436,
      "oc": 437,
      "ant": 438,
      "ill": 439,
      ")$": 440,
      "ive": 441,
      "Ġor": 442,
      "_{\\": 443,
      "ud": 444,
      "ew": 445,
      "ag": 446,
      "ext": 447,
      "nt": 448,
      "Ġr": 449,
      "pt": 450,
      "all": 451,
      "The": 452,
      "ere": 453,
      "iz": 454,
      "ment": 455,
      "ort": 456,
      "}{": 457,
      "ich": 458,
      "Ġhe": 459,
      "ĠJ": 460,
      "ld": 461,
      "int": 462,
      "ass": 463,
      "ak": 464,
      "eq": 465,
      "ĠO": 466,
      "ical": 467,
      "og": 468,
      "frac": 469,
      "per": 470,
      "ell": 471,
      "ult": 472,
      "Ġthis": 473,
      "ran": 474,
      ",\\": 475,
      "ber": 476,
      "Ġsh": 477,
      "ated": 478,
      "})": 479,
      "ition": 480,
      "ign": 481,
      "Ġ-": 482,
      "cl": 483,
      "201": 484,
      "orm": 485,
      "ps": 486,
      "our": 487,
      "ect": 488,
      "ĠĠĠĠĠĠĠ": 489,
      "de": 490,
      "Ġcomp": 491,
      "Ġch": 492,
      "rm": 493,
      "und": 494,
      "equ": 495,
      "ave": 496,
      "cite": 497,
      "text": 498,
      "ue": 499,
      "Ġy": 500,
      "right": 501,
      "pro": 502,
      "'s": 503,
      "Ġle": 504,
      "ens": 505,
      "ard": 506,
      "ff": 507,
      "ary": 508,
      "Ġnot": 509,
      "abel": 510,
      "mathb": 511,
      "00": 512,
      "Ġcl": 513,
      "ĉĉ": 514,
      "ame": 515,
      "Ġres": 516,
      "ations": 517,
      "ian": 518,
      "},": 519,
      "du": 520,
      "ĠK": 521,
      "ĠU": 522,
      "are": 523,
      "Ġcan": 524,
      "Ġwhich": 525,
      "label": 526,
      "$,": 527,
      "Ġk": 528,
      "Ġ\"": 529,
      "$.": 530,
      "ĠIn": 531,
      "ong": 532,
      "ip": 533,
      "ast": 534,
      "ace": 535,
      "ust": 536,
      "the": 537,
      "Ġpl": 538,
      "Ġus": 539,
      "Ġint": 540,
      "eta": 541,
      "con": 542,
      "mathcal": 543,
      "Ġhave": 544,
      "able": 545,
      "Ġwhe": 546,
      "equation": 547,
      "age": 548,
      "low": 549,
      "ia": 550,
      "}.": 551,
      "cc": 552,
      "),": 553,
      "ug": 554,
      "ost": 555,
      "ime": 556,
      "av": 557,
      "left": 558,
      "ire": 559,
      "ase": 560,
      "ord": 561,
      "}(": 562,
      "so": 563,
      "ther": 564,
      "Ġ<": 565,
      "act": 566,
      "ib": 567,
      "ack": 568,
      "ork": 569,
      "Ġun": 570,
      "ain": 571,
      "ener": 572,
      "ide": 573,
      "fig": 574,
      "port": 575,
      "}^": 576,
      "ang": 577,
      "Ġap": 578,
      "200": 579,
      "ach": 580,
      "Ġim": 581,
      "ĠV": 582,
      "ions": 583,
      "~\\": 584,
      "fere": 585,
      "}_": 586,
      "Ġ{": 587,
      "ence": 588,
      ").": 589,
      "ric": 590,
      "ous": 591,
      "ĠSt": 592,
      "Ġmod": 593,
      "Ġhas": 594,
      "form": 595,
      "ĠâĢ": 596,
      "ov": 597,
      "amb": 598,
      "=\"": 599,
      "Ġab": 600,
      "pha": 601,
      "com": 602,
      "ind": 603,
      "ru": 604,
      "alpha": 605,
      "da": 606,
      "..": 607,
      "--": 608,
      "10": 609,
      "In": 610,
      "ces": 611,
      ")\\": 612,
      "Ġsu": 613,
      "Ġ+": 614,
      "erm": 615,
      "Ġad": 616,
      "âĢĻ": 617,
      "ĠTh": 618,
      "ear": 619,
      "line": 620,
      ");": 621,
      "Ġalso": 622,
      "Ġall": 623,
      "over": 624,
      "ound": 625,
      "sum": 626,
      "Ġsp": 627,
      "old": 628,
      "ry": 629,
      "wo": 630,
      "row": 631,
      "ould": 632,
      "out": 633,
      "Ġone": 634,
      "ely": 635,
      "Ġob": 636,
      "Ġpart": 637,
      "ambda": 638,
      "Ġhis": 639,
      "erv": 640,
      "use": 641,
      "ok": 642,
      "Ġ|": 643,
      "rib": 644,
      "tain": 645,
      "ice": 646,
      "elta": 647,
      "own": 648,
      "Ġj": 649,
      "ie": 650,
      "Ġcont": 651,
      "ents": 652,
      "ree": 653,
      "ates": 654,
      "irst": 655,
      "$\\": 656,
      "sp": 657,
      "ĠĠĠĠĠĠĠĠĠĠĠĠĠĠĠĠ": 658,
      "pect": 659,
      "ance": 660,
      "ple": 661,
      "clud": 662,
      "imes": 663,
      "ors": 664,
      "Ġdis": 665,
      "amma": 666,
      "ish": 667,
      "ory": 668,
      "Ġme": 669,
      "_\\": 670,
      "Ġqu": 671,
      "ik": 672,
      "rans": 673,
      "mathbb": 674,
      "ĠCh": 675,
      "we": 676,
      "ile": 677,
      "Ġif": 678,
      "</": 679,
      "ics": 680,
      "18": 681,
      "ose": 682,
      "Ġar": 683,
      "=\\": 684,
      "ark": 685,
      "unction": 686,
      "ome": 687,
      "Ġper": 688,
      "ally": 689,
      "}_{": 690,
      "Ġ\\\\": 691,
      "Ġtwo": 692,
      "mb": 693,
      "Ġsy": 694,
      "dot": 695,
      "mu": 696,
      "igma": 697,
      "}^{": 698,
      "Ġwere": 699,
      "ular": 700,
      "ress": 701,
      "mer": 702,
      "sub": 703,
      "ega": 704,
      "of": 705,
      "-\\": 706,
      "oint": 707,
      "Ġev": 708,
      "cent": 709,
      "ari": 710,
      "ray": 711,
      "ho": 712,
      "to": 713,
      "ution": 714,
      "tern": 715,
      "Ġbut": 716,
      "^{\\": 717,
      "ata": 718,
      "Ġset": 719,
      "raph": 720,
      "ollow": 721,
      "fin": 722,
      "urn": 723,
      "red": 724,
      "ep": 725,
      "phi": 726,
      "Ġro": 727,
      "Ġ}": 728,
      "Ġout": 729,
      "Ġfirst": 730,
      "//": 731,
      "iel": 732,
      "lambda": 733,
      "rit": 734,
      "ob": 735,
      "hat": 736,
      "Ġwill": 737,
      "ount": 738,
      "ject": 739,
      "Ġits": 740,
      "Ġtheir": 741,
      "ll": 742,
      "che": 743,
      "ne": 744,
      "ck": 745,
      "Ġne": 746,
      "Ġen": 747,
      "one": 748,
      "Ġmodel": 749,
      "Ġother": 750,
      "pos": 751,
      "Ġfollow": 752,
      "Ġdif": 753,
      "umber": 754,
      "Ġ{\\": 755,
      "set": 756,
      "12": 757,
      "ĠY": 758,
      "ield": 759,
      "mathbf": 760,
      "Ġover": 761,
      "vel": 762,
      "bf": 763,
      "Ġfunction": 764,
      "Ġup": 765,
      "ond": 766,
      "Ġclass": 767,
      "Ġtime": 768,
      "Ġdes": 769,
      "te": 770,
      "Ġval": 771,
      "ilon": 772,
      "wid": 773,
      "ĠĠĠĠĠĠĠĠĠĠĠ": 774,
      "sc": 775,
      "Ġsub": 776,
      "Ġwhere": 777,
      "ix": 778,
      "ĠIt": 779,
      "Ġsuch": 780,
      "ĠWe": 781,
      "psilon": 782,
      "Ġbet": 783,
      "Ġform": 784,
      "les": 785,
      "Ġresult": 786,
      "Ġmore": 787,
      "ode": 788,
      "lect": 789,
      "Ġcons": 790,
      "pi": 791,
      "ram": 792,
      "stem": 793,
      "align": 794,
      "cre": 795,
      "section": 796,
      "ĠĠĠĠĠ": 797,
      "ys": 798,
      "dition": 799,
      "ced": 800,
      "sigma": 801,
      "ied": 802,
      "ize": 803,
      "feren": 804,
      "Ġdo": 805,
      "ature": 806,
      "Ġver": 807,
      "Ġsim": 808,
      "Ġman": 809,
      "ational": 810,
      "ks": 811,
      "til": 812,
      "Ġ*": 813,
      "under": 814,
      "Ġdist": 815,
      "Ġonly": 816,
      "Ġrel": 817,
      "resent": 818,
      "ative": 819,
      "Ġag": 820,
      "^{-": 821,
      "ng": 822,
      "Ġso": 823,
      "arg": 824,
      "Ġequ": 825,
      "Ġgener": 826,
      "Ġco": 827,
      "fter": 828,
      "Ġconst": 829,
      "Ġ(\\": 830,
      "Re": 831,
      "Ġlo": 832,
      "lem": 833,
      "beta": 834,
      "ugh": 835,
      "Ġwork": 836,
      "ĠUn": 837,
      "ubl": 838,
      "ons": 839,
      "Ġnew": 840,
      "part": 841,
      "Ġthere": 842,
      "ĠHe": 843,
      "vi": 844,
      "199": 845,
      "oth": 846,
      "Ġbeen": 847,
      "Ġcor": 848,
      "mathrm": 849,
      "}{\\": 850,
      "ict": 851,
      "eth": 852,
      "Ġthen": 853,
      "Ġ[": 854,
      "ater": 855,
      "Ġreg": 856,
      "Ġtrans": 857,
      "ax": 858,
      "pec": 859,
      "iss": 860,
      "ss": 861,
      "ased": 862,
      "Ġpre": 863,
      "Ġinter": 864,
      "Ġtra": 865,
      "aram": 866,
      "+\\": 867,
      "Ġte": 868,
      "Ġplay": 869,
      "Ġour": 870,
      "ĠSe": 871,
      "*}": 872,
      "Ġhad": 873,
      "Ġthey": 874,
      "ox": 875,
      "ual": 876,
      "ween": 877,
      "Ġshow": 878,
      "ific": 879,
      "bar": 880,
      "ĠThis": 881,
      "gamma": 882,
      "Ġyou": 883,
      "Ġthan": 884,
      "ings": 885,
      "ild": 886,
      "Ġpos": 887,
      "âĢĵ": 888,
      "ince": 889,
      "Ġcol": 890,
      "Ġacc": 891,
      "Ġph": 892,
      "roup": 893,
      "Ġsup": 894,
      "sh": 895,
      "Ġwhen": 896,
      "pr": 897,
      "ator": 898,
      "Ġinto": 899,
      "]{": 900,
      "Ġany": 901,
      "Ġwho": 902,
      "Ġ||": 903,
      "pend": 904,
      "gh": 905,
      "^\\": 906,
      "aw": 907,
      "Ġbetween": 908,
      "15": 909,
      "ient": 910,
      "ake": 911,
      "lo": 912,
      "leq": 913,
      "Ġra": 914,
      "tt": 915,
      "hed": 916,
      "ype": 917,
      "We": 918,
      ")}": 919,
      "rho": 920,
      "delta": 921,
      "ĠâĢĵ": 922,
      "ating": 923,
      "Ġsome": 924,
      "theta": 925,
      "Ġeach": 926,
      "ility": 927,
      "\">": 928,
      "ruct": 929,
      "put": 930,
      "$-": 931,
      "olog": 932,
      "Ġgiv": 933,
      "ock": 934,
      "Ġsc": 935,
      "\\\\": 936,
      "ans": 937,
      "Ġfin": 938,
      "figure": 939,
      "ise": 940,
      "round": 941,
      "array": 942,
      "16": 943,
      "Ġsystem": 944,
      "tau": 945,
      "ral": 946,
      "cdot": 947,
      "Ġher": 948,
      "here": 949,
      "width": 950,
      "cess": 951,
      "}$.": 952,
      "Ġcomm": 953,
      "}$,": 954,
      "ann": 955,
      "der": 956,
      "Ġdata": 957,
      "rt": 958,
      "its": 959,
      "}(\\": 960,
      "ail": 961,
      "Ġunder": 962,
      "Ġmat": 963,
      "ities": 964,
      "11": 965,
      "ring": 966,
      "big": 967,
      "Ġx": 968,
      "eqref": 969,
      "St": 970,
      "Ġprob": 971,
      "Ġpol": 972,
      "item": 973,
      "Ġinclud": 974,
      "ont": 975,
      "Ġpoint": 976,
      "ues": 977,
      "ough": 978,
      "ove": 979,
      "ward": 980,
      "ident": 981,
      "land": 982,
      "ert": 983,
      "Ġthese": 984,
      "ible": 985,
      "ĠRe": 986,
      "Ġi": 987,
      "app": 988,
      "ferent": 989,
      "Ġused": 990,
      "Ġgo": 991,
      "let": 992,
      "Ġyear": 993,
      "abl": 994,
      "times": 995,
      "Ġsol": 996,
      "Ġkn": 997,
      "io": 998,
      "ote": 999,
      "apt": 1000,
      "ited": 1001,
      "Ġno": 1002,
      "nu": 1003,
      "ick": 1004,
      "Ġeff": 1005,
      "fty": 1006,
      "Ġpe": 1007,
      "Ġoff": 1008,
      "infty": 1009,
      "ments": 1010,
      "Ġcase": 1011,
      "Ġwould": 1012,
      "Ġsm": 1013,
      "Ġest": 1014,
      "sy": 1015,
      "ool": 1016,
      "Ġline": 1017,
      "17": 1018,
      "Ġuse": 1019,
      "turn": 1020,
      "13": 1021,
      "ull": 1022,
      "min": 1023,
      "ays": 1024,
      "Ġprov": 1025,
      "ople": 1026,
      "omega": 1027,
      "Ġnumber": 1028,
      "oot": 1029,
      "arrow": 1030,
      "ike": 1031,
      "rough": 1032,
      "cond": 1033,
      "cy": 1034,
      "partial": 1035,
      "tilde": 1036,
      "Ġabout": 1037,
      "ption": 1038,
      "als": 1039,
      "Ġact": 1040,
      "ĠFor": 1041,
      "Ġpr": 1042,
      "ists": 1043,
      "Ġinv": 1044,
      "Ġfe": 1045,
      "uss": 1046,
      "ublic": 1047,
      "14": 1048,
      "Ġappro": 1049,
      "Ġstud": 1050,
      "col": 1051,
      "Ġdifferent": 1052,
      "Ġext": 1053,
      "yn": 1054,
      "uring": 1055,
      "aramet": 1056,
      "li": 1057,
      "Ġprodu": 1058,
      "Ġ'": 1059,
      "Th": 1060,
      "elf": 1061,
      "quad": 1062,
      "ized": 1063,
      "|\\": 1064,
      "ivers": 1065,
      "pm": 1066,
      "ars": 1067,
      "ĠDe": 1068,
      "ower": 1069,
      "Ġvari": 1070,
      "ered": 1071,
      "ethod": 1072,
      "Ġnon": 1073,
      "air": 1074,
      "ism": 1075,
      "var": 1076,
      "ember": 1077,
      "ization": 1078,
      "ever": 1079,
      "Ġafter": 1080,
      "eqn": 1081,
      "mm": 1082,
      "Ġmay": 1083,
      "orn": 1084,
      "Ex": 1085,
      "meric": 1086,
      "ey": 1087,
      "ins": 1088,
      "plic": 1089,
      "198": 1090,
      "Ġind": 1091,
      "Delta": 1092,
      "Ġusing": 1093,
      "arch": 1094,
      "Ġexp": 1095,
      "orem": 1096,
      "**": 1097,
      "âĢĿ": 1098,
      "ca": 1099,
      "ample": 1100,
      "ily": 1101,
      "get": 1102,
      "Ġass": 1103,
      "Ġsign": 1104,
      "ctions": 1105,
      "ĠX": 1106,
      "ĠCom": 1107,
      "Ġrep": 1108,
      "Ġsame": 1109,
      "ange": 1110,
      "for": 1111,
      "Ġshe": 1112,
      "ĠAl": 1113,
      "ĠPro": 1114,
      "Ġcur": 1115,
      "Ġpartic": 1116,
      "oy": 1117,
      "Ġfil": 1118,
      "ĠQ": 1119,
      "Ġfield": 1120,
      "25": 1121,
      "Ġgiven": 1122,
      "ider": 1123,
      "Ġmost": 1124,
      "Ġrec": 1125,
      "ctor": 1126,
      "eng": 1127,
      "Ġterm": 1128,
      "sec": 1129,
      "Ġdefin": 1130,
      "ferences": 1131,
      "Ġwell": 1132,
      "Ġbl": 1133,
      "ĠZ": 1134,
      "Ġoper": 1135,
      "ically": 1136,
      "itt": 1137,
      "Ġfl": 1138,
      "space": 1139,
      "Ġspec": 1140,
      "ning": 1141,
      "ĠNew": 1142,
      "amp": 1143,
      "Ġop": 1144,
      "par": 1145,
      "ade": 1146,
      ")$.": 1147,
      "val": 1148,
      "Ġfollowing": 1149,
      "xi": 1150,
      "Ġlin": 1151,
      "gy": 1152,
      "oun": 1153,
      "ots": 1154,
      "arge": 1155,
      "Ġ.": 1156,
      "ton": 1157,
      "Ġdet": 1158,
      "Ġdef": 1159,
      "Ġinst": 1160,
      "Ġ$(": 1161,
      "sim": 1162,
      "irc": 1163,
      "}}\\": 1164,
      "Ġthem": 1165,
      "Ġdire": 1166,
      "\\,": 1167,
      "pert": 1168,
      "Ġent": 1169,
      "hi": 1170,
      "Ġstate": 1171,
      "rang": 1172,
      "Ġboth": 1173,
      "}[": 1174,
      "ively": 1175,
      "center": 1176,
      "ron": 1177,
      "oci": 1178,
      "Om": 1179,
      "serv": 1180,
      "ren": 1181,
      "Ġfact": 1182,
      "Ġz": 1183,
      "owever": 1184,
      "Ġsur": 1185,
      "ner": 1186,
      "ision": 1187,
      "Ġthrough": 1188,
      "21": 1189,
      "Ġgroup": 1190,
      "==": 1191,
      "Ġam": 1192,
      "ute": 1193,
      "30": 1194,
      "epsilon": 1195,
      "orld": 1196,
      "uch": 1197,
      "))": 1198,
      "ement": 1199,
      "ined": 1200,
      "rix": 1201,
      "$$": 1202,
      "ases": 1203,
      "Ġmin": 1204,
      "Ġreturn": 1205,
      "Omega": 1206,
      "ract": 1207,
      "sq": 1208,
      "Ġorder": 1209,
      "ource": 1210,
      "ĠAs": 1211,
      "Ġget": 1212,
      "Ġobtain": 1213,
      "ook": 1214,
      "Ġbound": 1215,
      "resp": 1216,
      "where": 1217,
      "Ġend": 1218,
      "}_{\\": 1219,
      "asure": 1220,
      "Ġhigh": 1221,
      "Ġparamet": 1222,
      "hen": 1223,
      "Ġsing": 1224,
      "ices": 1225,
      "ash": 1226,
      "Ġperform": 1227,
      "att": 1228,
      "ional": 1229,
      "Ġed": 1230,
      "ĠčĊ": 1231,
      "ee": 1232,
      "not": 1233,
      "Ġbu": 1234,
      "----": 1235,
      "ĉĉĉĉ": 1236,
      "Ġthree": 1237,
      "Ġresults": 1238,
      "Ġdisc": 1239,
      "includ": 1240,
      "Ġcent": 1241,
      "Ġdesc": 1242,
      "197": 1243,
      "very": 1244,
      "Ġmethod": 1245,
      "ason": 1246,
      "eqnarray": 1247,
      "psi": 1248,
      "Ġele": 1249,
      "^*": 1250,
      "Ġtr": 1251,
      "22": 1252,
      ".,": 1253,
      "Ġpeople": 1254,
      "Ġsecond": 1255,
      "Ġsmall": 1256,
      "Gamma": 1257,
      ")$,": 1258,
      "Ġback": 1259,
      "ern": 1260,
      "ames": 1261,
      "Ġem": 1262,
      "yp": 1263,
      "chool": 1264,
      "ability": 1265,
      "ished": 1266,
      "Ġsee": 1267,
      "err": 1268,
      "Ġanal": 1269,
      "merican": 1270,
      "Ġstr": 1271,
      "atic": 1272,
      "angle": 1273,
      "oh": 1274,
      "ential": 1275,
      "man": 1276,
      "Ġeffect": 1277,
      "Ġ:": 1278,
      "Ġrequ": 1279,
      "sqrt": 1280,
      "ulation": 1281,
      "ĠFig": 1282,
      "Ġvalue": 1283,
      "Ġfound": 1284,
      "\",": 1285,
      "References": 1286,
      "ality": 1287,
      "Ġcall": 1288,
      "work": 1289,
      "ball": 1290,
      "50": 1291,
      "reat": 1292,
      "aid": 1293,
      "wn": 1294,
      "Ġdec": 1295,
      "Ġagain": 1296,
      "vare": 1297,
      "formation": 1298,
      "arly": 1299,
      "ink": 1300,
      "raphics": 1301,
      "Ġwhile": 1302,
      "ructure": 1303,
      "varepsilon": 1304,
      "ĠĠĠĠĠĠĠĠĠĠĠĠĠĠĠ": 1305,
      "fore": 1306,
      "rict": 1307,
      "ĠLe": 1308,
      "any": 1309,
      "mbol": 1310,
      "ĠâĢľ": 1311,
      "bm": 1312,
      "cause": 1313,
      "ross": 1314,
      "energy": 1315,
      "subsection": 1316,
      "respond": 1317,
      "Ġser": 1318,
      "ining": 1319,
      "textbf": 1320,
      "ms": 1321,
      "Ġac": 1322,
      "Ġatt": 1323,
      "ah": 1324,
      "iver": 1325,
      "Ġlead": 1326,
      "Ġmass": 1327,
      "fra": 1328,
      "}^{\\": 1329,
      "ier": 1330,
      "rel": 1331,
      "Ġdistrib": 1332,
      "ets": 1333,
      "Ġmeasure": 1334,
      "Ġserv": 1335,
      "ful": 1336,
      "led": 1337,
      "Ġ/": 1338,
      "velop": 1339,
      "rightarrow": 1340,
      "au": 1341,
      "Ġcondition": 1342,
      "rent": 1343,
      "Ġrespect": 1344,
      "()": 1345,
      "Ġ${\\": 1346,
      "^{(": 1347,
      "ĠSh": 1348,
      "ages": 1349,
      "}=": 1350,
      "ffic": 1351,
      "iversity": 1352,
      "egraphics": 1353,
      ")=": 1354,
      "includegraphics": 1355,
      "aption": 1356,
      "24": 1357,
      "Ġspace": 1358,
      "orth": 1359,
      "def": 1360,
      "Ġobserv": 1361,
      "inal": 1362,
      "ott": 1363,
      "ural": 1364,
      "yle": 1365,
      "Ġlocal": 1366,
      "rad": 1367,
      "log": 1368,
      "Ġaut": 1369,
      "Ġ\\,": 1370,
      "ĠĠĊ": 1371,
      "me": 1372,
      "000": 1373,
      "For": 1374,
      "Ġrepresent": 1375,
      "ency": 1376,
      "Ġevery": 1377,
      "ternal": 1378,
      "Ġhim": 1379,
      "umn": 1380,
      "->": 1381,
      "rop": 1382,
      "Ġbel": 1383,
      "Ġassum": 1384,
      "rangle": 1385,
      "iqu": 1386,
      "way": 1387,
      "196": 1388,
      "cm": 1389,
      "Ġneed": 1390,
      "caption": 1391,
      "hes": 1392,
      "Ġproblem": 1393,
      "bold": 1394,
      "Ġnow": 1395,
      "Ġpresent": 1396,
      "fl": 1397,
      "Ġchar": 1398,
      "ank": 1399,
      "Ġprocess": 1400,
      "ript": 1401,
      "etric": 1402,
      "imens": 1403,
      "az": 1404,
      "ife": 1405,
      "Ġcorrespond": 1406,
      "Ġsince": 1407,
      "ĠAn": 1408,
      "outh": 1409,
      "},\\": 1410,
      "23": 1411,
      "fer": 1412,
      "emph": 1413,
      "ired": 1414,
      "ology": 1415,
      "ĠInd": 1416,
      "Ġbeing": 1417,
      "son": 1418,
      "Ġlike": 1419,
      "ten": 1420,
      "Ġmany": 1421,
      "Ġmult": 1422,
      "Ġname": 1423,
      "aj": 1424,
      "Ġyears": 1425,
      "position": 1426,
      "ather": 1427,
      "Ġlong": 1428,
      "varphi": 1429,
      "ved": 1430,
      "by": 1431,
      "uc": 1432,
      "Ġcomple": 1433,
      "ants": 1434,
      "Ġu": 1435,
      "tab": 1436,
      "etwork": 1437,
      "ale": 1438,
      "Ġcould": 1439,
      "Ġden": 1440,
      "be": 1441,
      "ared": 1442,
      "ĠCl": 1443,
      "ury": 1444,
      "Ġlarge": 1445,
      "Ġduring": 1446,
      "geq": 1447,
      "vent": 1448,
      "ole": 1449,
      "rodu": 1450,
      "Ġpublic": 1451,
      "...": 1452,
      "proof": 1453,
      ".~\\": 1454,
      "non": 1455,
      "Ġ,": 1456,
      "gor": 1457,
      "umer": 1458,
      "Ġcre": 1459,
      "Ġgeneral": 1460,
      "ference": 1461,
      "ene": 1462,
      "Ġart": 1463,
      "Ġopt": 1464,
      "ified": 1465,
      "Ġ`": 1466,
      "ĠCon": 1467,
      "Ġenergy": 1468,
      "Ġcontin": 1469,
      "view": 1470,
      "&\\": 1471,
      "This": 1472,
      "overline": 1473,
      "Ġfam": 1474,
      "Ġlim": 1475,
      "Ġconsider": 1476,
      "Ġfind": 1477,
      "els": 1478,
      "Ġestim": 1479,
      "rid": 1480,
      "Ġscal": 1481,
      "Ġadd": 1482,
      "Ġmain": 1483,
      "ane": 1484,
      "mod": 1485,
      "chi": 1486,
      "''": 1487,
      "Ġposs": 1488,
      "ift": 1489,
      "Con": 1490,
      "olution": 1491,
      "raw": 1492,
      "Ġright": 1493,
      "Ġmon": 1494,
      "Ġjust": 1495,
      "ĠCol": 1496,
      "Ġstart": 1497,
      "Ġdescrib": 1498,
      "aking": 1499,
      "Ġincre": 1500,
      "co": 1501,
      "itive": 1502,
      "40": 1503,
      "oid": 1504,
      "ines": 1505,
      "Ġexper": 1506,
      "ke": 1507,
      "ival": 1508,
      "vert": 1509,
      "utions": 1510,
      "cept": 1511,
      ".}": 1512,
      "ived": 1513,
      "other": 1514,
      "name": 1515,
      "Ġelect": 1516,
      "Ġvery": 1517,
      "ission": 1518,
      "gorith": 1519,
      "chn": 1520,
      "Ġmade": 1521,
      "Ġbecause": 1522,
      "ior": 1523,
      "Ġ</": 1524,
      "urther": 1525,
      "frak": 1526,
      "Ġrad": 1527,
      "ensure": 1528,
      "Ġrele": 1529,
      "Ġdoes": 1530,
      "ouse": 1531,
      "vec": 1532,
      "bers": 1533,
      "It": 1534,
      "Ġfeature": 1535,
      "Ġstructure": 1536,
      "ven": 1537,
      "ness": 1538,
      "symbol": 1539,
      "ĠSc": 1540,
      ")^": 1541,
      "Ġeven": 1542,
      "ood": 1543,
      "tr": 1544,
      "Ġcal": 1545,
      "Ġsaid": 1546,
      "sk": 1547,
      "Pro": 1548,
      "rum": 1549,
      "Ġve": 1550,
      "read": 1551,
      "Ġ//": 1552,
      "Ġdevelop": 1553,
      "agn": 1554,
      "erson": 1555,
      "ply": 1556,
      "ength": 1557,
      "ij": 1558,
      "Ġwhat": 1559,
      "[\\": 1560,
      "Ġtype": 1561,
      "Ġbased": 1562,
      "vious": 1563,
      "ĠAmerican": 1564,
      "Ġappe": 1565,
      "Ġbefore": 1566,
      "../": 1567,
      "Ġabove": 1568,
      "Ġreal": 1569,
      "}).": 1570,
      "bl": 1571,
      "ters": 1572,
      "Ġmed": 1573,
      "ateg": 1574,
      "med": 1575,
      "Ġtop": 1576,
      "Big": 1577,
      "hip": 1578,
      "Ġinteg": 1579,
      "Ġcount": 1580,
      "Ġsat": 1581,
      "ger": 1582,
      "boldsymbol": 1583,
      "cer": 1584,
      "Ã©": 1585,
      "Ġtest": 1586,
      "Ġteam": 1587,
      "Ġshould": 1588,
      "Ġcontain": 1589,
      "mathfrak": 1590,
      "Ġsupport": 1591,
      "Ġfour": 1592,
      "ilar": 1593,
      "Ġvalues": 1594,
      "Ġknown": 1595,
      "hline": 1596,
      "ormal": 1597,
      "Ġspect": 1598,
      "lim": 1599,
      "ask": 1600,
      "overn": 1601,
      "2019": 1602,
      "ensity": 1603,
      "2018": 1604,
      "ampl": 1605,
      "Ġident": 1606,
      "::": 1607,
      "As": 1608,
      "}}$": 1609,
      "ER": 1610,
      "Ġcharact": 1611,
      "ĠUniversity": 1612,
      "Let": 1613,
      "Lambda": 1614,
      "ldots": 1615,
      "Ch": 1616,
      "Ġlet": 1617,
      "Ġorig": 1618,
      "Ġpres": 1619,
      "ually": 1620,
      "Ġpop": 1621,
      "Ġwrit": 1622,
      "ves": 1623,
      "Ġfollows": 1624,
      "Ġpropert": 1625,
      "less": 1626,
      "Ġquant": 1627,
      "Ġrun": 1628,
      "ives": 1629,
      "oss": 1630,
      "Ġhand": 1631,
      "Ġcomput": 1632,
      "nabl": 1633,
      "Ġdi": 1634,
      "Ġshown": 1635,
      "gram": 1636,
      "langle": 1637,
      "Ġhow": 1638,
      "Ġgu": 1639,
      "ĠOn": 1640,
      "refore": 1641,
      "Ġvi": 1642,
      "',": 1643,
      "gan": 1644,
      "depend": 1645,
      "27": 1646,
      "xim": 1647,
      "ify": 1648,
      "cor": 1649,
      "pre": 1650,
      "ero": 1651,
      "itial": 1652,
      "Ġdirect": 1653,
      "orph": 1654,
      "wh": 1655,
      "Ġtem": 1656,
      "28": 1657,
      "26": 1658,
      "usic": 1659,
      "aper": 1660,
      "ration": 1661,
      "ĠAr": 1662,
      "Ġdepend": 1663,
      "ec": 1664,
      "Ġallow": 1665,
      "ĠUnited": 1666,
      "Ġway": 1667,
      "see": 1668,
      "ĠAd": 1669,
      "Ġexpl": 1670,
      "ina": 1671,
      "Ġmap": 1672,
      "Ġstand": 1673,
      "Ġ@": 1674,
      "appa": 1675,
      "Ġloc": 1676,
      "Ġmov": 1677,
      "nabla": 1678,
      "100": 1679,
      "ting": 1680,
      "2017": 1681,
      "ST": 1682,
      "vers": 1683,
      "Ġdefined": 1684,
      "ĠIf": 1685,
      "bra": 1686,
      "iving": 1687,
      "Ġdue": 1688,
      "Ġthose": 1689,
      "ley": 1690,
      "Phi": 1691,
      "rol": 1692,
      "ht": 1693,
      "Ġ>": 1694,
      "Ġmodels": 1695,
      "Ġmem": 1696,
      "Ġel": 1697,
      "omen": 1698,
      "Ġnetwork": 1699,
      "plit": 1700,
      "atch": 1701,
      "Ġexample": 1702,
      "ym": 1703,
      "pon": 1704,
      "aces": 1705,
      "Ġsingle": 1706,
      "citep": 1707,
      "ides": 1708,
      "cul": 1709,
      "Ġsum": 1710,
      "Ġopen": 1711,
      "eb": 1712,
      "imal": 1713,
      "face": 1714,
      "arn": 1715,
      "Ġstat": 1716,
      "2016": 1717,
      "Com": 1718,
      "Ġlevel": 1719,
      "Ġrest": 1720,
      "Ġincluding": 1721,
      "ml": 1722,
      "Ġparticular": 1723,
      "essage": 1724,
      "af": 1725,
      "ohn": 1726,
      "ators": 1727,
      "kappa": 1728,
      "Ġaddition": 1729,
      ".\"": 1730,
      "Ġpower": 1731,
      "Ġlast": 1732,
      "ober": 1733,
      "ĠEx": 1734,
      "Ġimport": 1735,
      "Ġdesign": 1736,
      "Ġrem": 1737,
      "ĠIs": 1738,
      "isf": 1739,
      "Ġerr": 1740,
      "Ġdr": 1741,
      "Ġbecom": 1742,
      "})$": 1743,
      "subset": 1744,
      "Ġinformation": 1745,
      "arri": 1746,
      "ges": 1747,
      "ery": 1748,
      "posed": 1749,
      "back": 1750,
      "Ġsection": 1751,
      "ootball": 1752,
      "ĠHowever": 1753,
      "2015": 1754,
      "ected": 1755,
      "sf": 1756,
      "Ġread": 1757,
      "ience": 1758,
      "with": 1759,
      "ĠEng": 1760,
      "inc": 1761,
      "erest": 1762,
      "rem": 1763,
      "otimes": 1764,
      "ynam": 1765,
      "Ġmake": 1766,
      "ording": 1767,
      "div": 1768,
      "29": 1769,
      "Ġobject": 1770,
      "Ġmy": 1771,
      "45": 1772,
      "istory": 1773,
      "Ġleft": 1774,
      ".\\": 1775,
      "Ġcurrent": 1776,
      "por": 1777,
      "Ġdistribution": 1778,
      "Âł": 1779,
      "ided": 1780,
      "ital": 1781,
      "2014": 1782,
      "requ": 1783,
      "\\|": 1784,
      "ately": 1785,
      "Ġsimilar": 1786,
      "ĠShe": 1787,
      "gorithm": 1788,
      "une": 1789,
      "Ġexpect": 1790,
      "textit": 1791,
      "Ġknow": 1792,
      "Ġyour": 1793,
      "Ġder": 1794,
      "Ġredu": 1795,
      "60": 1796,
      "Ġrema": 1797,
      "Ġterms": 1798,
      "play": 1799,
      "bs": 1800,
      "Ġlater": 1801,
      "ysis": 1802,
      "ification": 1803,
      "circ": 1804,
      "Ġdeterm": 1805,
      "Ġlist": 1806,
      "Ġplayers": 1807,
      "ĠPl": 1808,
      "Ġav": 1809,
      "ĠSp": 1810,
      "ird": 1811,
      "rack": 1812,
      "Ġlinks": 1813,
      "ised": 1814,
      "ĠĠĠĠĠĠĠĠĠ": 1815,
      "ule": 1816,
      "2010": 1817,
      "Ġseries": 1818,
      "Ġagainst": 1819,
      "Ġshows": 1820,
      "Ġwithin": 1821,
      "ograph": 1822,
      "ison": 1823,
      "Ġlow": 1824,
      "2013": 1825,
      "no": 1826,
      "Ġhel": 1827,
      "Ġbas": 1828,
      "195": 1829,
      "ensuremath": 1830,
      "oper": 1831,
      "enn": 1832,
      "ody": 1833,
      "lection": 1834,
      "ection": 1835,
      "Ġgl": 1836,
      "Ġgra": 1837,
      "Ġche": 1838,
      "://": 1839,
      "ccess": 1840,
      "Ġalong": 1841,
      "ĠPh": 1842,
      "Ġmuch": 1843,
      "ĠMar": 1844,
      "Ġcalled": 1845,
      "De": 1846,
      "Sigma": 1847,
      "ĠBe": 1848,
      "Ġdom": 1849,
      "ĠThen": 1850,
      "cur": 1851,
      "mbox": 1852,
      "\\%": 1853,
      "eps": 1854,
      "2012": 1855,
      "Ġpoints": 1856,
      "Ġprof": 1857,
      "33": 1858,
      "etic": 1859,
      "dots": 1860,
      "Ġtot": 1861,
      "veral": 1862,
      "AR": 1863,
      "etail": 1864,
      "Ġocc": 1865,
      "Ġlarg": 1866,
      "etry": 1867,
      "iod": 1868,
      "dis": 1869,
      "table": 1870,
      "dd": 1871,
      "nonumber": 1872,
      "sm": 1873,
      "Ġsize": 1874,
      "Ġdiscuss": 1875,
      "Ġaround": 1876,
      "ble": 1877,
      "Ġhere": 1878,
      "2011": 1879,
      "\\[": 1880,
      "istic": 1881,
      "Ġcontinu": 1882,
      "Ġbuild": 1883,
      "Ġpar": 1884,
      "rand": 1885,
      "iment": 1886,
      "AT": 1887,
      "mult": 1888,
      "ures": 1889,
      "Ġsatisf": 1890,
      "action": 1891,
      "}}{": 1892,
      "Ġca": 1893,
      "Ġcharacter": 1894,
      "Ġbeh": 1895,
      "ords": 1896,
      "Ġdid": 1897,
      "IN": 1898,
      "}),": 1899,
      "ĉĉĉ": 1900,
      "color": 1901,
      "ense": 1902,
      "Ġcommun": 1903,
      "new": 1904,
      "ĠComm": 1905,
      "trans": 1906,
      "Ġnear": 1907,
      "Ġvis": 1908,
      "To": 1909,
      "(\"": 1910,
      "akes": 1911,
      "):": 1912,
      "Ġdown": 1913,
      "ilde": 1914,
      "ths": 1915,
      "Ġtri": 1916,
      "otential": 1917,
      "Ġpred": 1918,
      "Ġmax": 1919,
      "ixed": 1920,
      "span": 1921,
      "reg": 1922,
      "Ġhig": 1923,
      "SS": 1924,
      "Ġrece": 1925,
      "'t": 1926,
      "ument": 1927,
      "oll": 1928,
      "day": 1929,
      "Ġ_": 1930,
      "comm": 1931,
      "ĠMay": 1932,
      "side": 1933,
      "Ġintrodu": 1934,
      "Ġinitial": 1935,
      "ON": 1936,
      "Ġ)": 1937,
      "Ġcho": 1938,
      "str": 1939,
      "};": 1940,
      "pose": 1941,
      "Ġstill": 1942,
      "cap": 1943,
      "Ġfilm": 1944,
      "ead": 1945,
      "Ġmagn": 1946,
      "On": 1947,
      "ination": 1948,
      "();": 1949,
      "Ġhold": 1950,
      "35": 1951,
      "Ġvers": 1952,
      "Ġparameters": 1953,
      "Ġstudy": 1954,
      "Ġestabl": 1955,
      "bum": 1956,
      "ium": 1957,
      "Ġindu": 1958,
      "ety": 1959,
      "Ġself": 1960,
      "ground": 1961,
      "Ġsequ": 1962,
      "Ġtechn": 1963,
      "Ġmatrix": 1964,
      "uro": 1965,
      "Ġfinal": 1966,
      "Ġown": 1967,
      "ped": 1968,
      "Cl": 1969,
      "atter": 1970,
      "Ġclos": 1971,
      "Ġsl": 1972,
      "pd": 1973,
      "Ġfamily": 1974,
      "Ġreport": 1975,
      "ĠAnd": 1976,
      "/\\": 1977,
      "Ġobtained": 1978,
      "arm": 1979,
      "Ġ#": 1980,
      "widet": 1981,
      "ĠCount": 1982,
      "ĠStates": 1983,
      "External": 1984,
      "Ġseason": 1985,
      "Ġpass": 1986,
      "ek": 1987,
      "Ġ--": 1988,
      "ĠLet": 1989,
      "lear": 1990,
      "odes": 1991,
      "dependent": 1992,
      "Ġstates": 1993,
      "mp": 1994,
      "Ġassoci": 1995,
      "Ġbro": 1996,
      "Al": 1997,
      "Ġcompon": 1998,
      "wide": 1999,
      "Ġseveral": 2000,
      "Ġq": 2001,
      "Ġdeg": 2002,
      "Ġinterest": 2003,
      "32": 2004,
      "Ġprevious": 2005,
      "Ġdensity": 2006,
      "cit": 2007,
      "Ġtake": 2008,
      "ii": 2009,
      "Ġapproxim": 2010,
      "Ġschool": 2011,
      "point": 2012,
      "Ġet": 2013,
      "hor": 2014,
      "opt": 2015,
      "{-": 2016,
      "></": 2017,
      "widetilde": 2018,
      "box": 2019,
      "ched": 2020,
      "ĠAt": 2021,
      "Ġexist": 2022,
      "Ġgraph": 2023,
      "atrix": 2024,
      "Ġmust": 2025,
      "ivity": 2026,
      "Ġpossible": 2027,
      "ĠBl": 2028,
      "194": 2029,
      "ories": 2030,
      "\\!": 2031,
      "bit": 2032,
      "ĠTe": 2033,
      "urb": 2034,
      "ser": 2035,
      "ĠJohn": 2036,
      "Ġposition": 2037,
      "Ġsolution": 2038,
      "Ġfunctions": 2039,
      "wards": 2040,
      "Ġ``": 2041,
      "Ġstrong": 2042,
      "Ġprogram": 2043,
      "Ġgame": 2044,
      "Ġtotal": 2045,
      "Ġbest": 2046,
      "ĠNational": 2047,
      "aving": 2048,
      "Ġequation": 2049,
      "Ġcomb": 2050,
      "2009": 2051,
      "><": 2052,
      "van": 2053,
      "ux": 2054,
      "Ġmean": 2055,
      "ĠFran": 2056,
      "alth": 2057,
      "ĠTo": 2058,
      "Ġdem": 2059,
      "centering": 2060,
      "ajor": 2061,
      "ious": 2062,
      "ĠRes": 2063,
      "ĠĠĠĠĠĠ": 2064,
      "ially": 2065,
      "05": 2066,
      "Ps": 2067,
      "Ġexpress": 2068,
      "2008": 2069,
      "Ġwithout": 2070,
      "imum": 2071,
      "ague": 2072,
      "Ġref": 2073,
      "\".": 2074,
      "Ġpaper": 2075,
      "Ġcontrib": 2076,
      "Ġtheory": 2077,
      "ĠCan": 2078,
      "Ġmark": 2079,
      "Fig": 2080,
      "Ġcrit": 2081,
      "Ġcap": 2082,
      "alk": 2083,
      "ugg": 2084,
      "ĠAll": 2085,
      "sequ": 2086,
      "Ġvert": 2087,
      "Ġgood": 2088,
      "Ġstre": 2089,
      "ament": 2090,
      "Ġworld": 2091,
      "ĠJul": 2092,
      "ĠâĢĶ": 2093,
      "Ġcomplex": 2094,
      "ĠTheorem": 2095,
      "Ġband": 2096,
      "prime": 2097,
      "}-": 2098,
      "Ġmet": 2099,
      "../../": 2100,
      "Ġcou": 2101,
      "ĠCar": 2102,
      "rist": 2103,
      "Ġcorresponding": 2104,
      "Ġpotential": 2105,
      "Ġevent": 2106,
      "Ġarea": 2107,
      "ĠWorld": 2108,
      "ai": 2109,
      "Ġconstant": 2110,
      "Ġtyp": 2111,
      "Ġlimit": 2112,
      "overnment": 2113,
      "08": 2114,
      "--------": 2115,
      "aim": 2116,
      "ĠAust": 2117,
      "ĠWh": 2118,
      "sup": 2119,
      "\\]": 2120,
      "ruction": 2121,
      "Vert": 2122,
      ")=\\": 2123,
      "ĠGe": 2124,
      "Ġpat": 2125,
      "style": 2126,
      "ude": 2127,
      "ention": 2128,
      "ique": 2129,
      "script": 2130,
      "anu": 2131,
      "ww": 2132,
      "max": 2133,
      "emma": 2134,
      "ering": 2135,
      "ches": 2136,
      "angu": 2137,
      "ister": 2138,
      "Ġrespectively": 2139,
      "tabular": 2140,
      "ĠĠĠĠĠĠĠĠĠĠĠĠĠĠĠĠĠĠĠĠĠĠĠĠĠĠĠĠĠĠĠĠ": 2141,
      "By": 2142,
      "thm": 2143,
      "urch": 2144,
      "itle": 2145,
      "Ġaver": 2146,
      "75": 2147,
      "iness": 2148,
      "90": 2149,
      "}+": 2150,
      "\\{": 2151,
      "Ġlaw": 2152,
      "ables": 2153,
      "ians": 2154,
      "II": 2155,
      "Ġnext": 2156,
      "ternational": 2157,
      "2020": 2158,
      "this": 2159,
      "Ġpredict": 2160,
      "Ġphot": 2161,
      "andom": 2162,
      "Ġregion": 2163,
      "ended": 2164,
      "ither": 2165,
      "ler": 2166,
      "Ġpost": 2167,
      "Ġhead": 2168,
      "omorph": 2169,
      "Ġplace": 2170,
      "Ġalbum": 2171,
      "Ġdescribed": 2172,
      "Ġanalysis": 2173,
      "cont": 2174,
      "ts": 2175,
      "Ġpair": 2176,
      "const": 2177,
      "ĠCent": 2178,
      "Ġperiod": 2179,
      "ances": 2180,
      "lation": 2181,
      "draw": 2182,
      "zeta": 2183,
      "Ġuntil": 2184,
      "add": 2185,
      "ĠBy": 2186,
      "Ġfootball": 2187,
      "amples": 2188,
      "Ġproof": 2189,
      "ĠThey": 2190,
      "Ġparameter": 2191,
      "ĠEq": 2192,
      "ĠOr": 2193,
      "Ġann": 2194,
      "Ġlife": 2195,
      "Ġproject": 2196,
      "iam": 2197,
      "class": 2198,
      "Ġapproach": 2199,
      "ored": 2200,
      "rap": 2201,
      "iter": 2202,
      "Ġorgan": 2203,
      "aut": 2204,
      "Ġdimens": 2205,
      "}=\\": 2206,
      "sl": 2207,
      "Ġlook": 2208,
      "idd": 2209,
      "Ġcalcul": 2210,
      "2007": 2211,
      "Ġchild": 2212,
      "Ġrate": 2213,
      "Ġwin": 2214,
      "Ġarg": 2215,
      "anc": 2216,
      "clus": 2217,
      ")^{": 2218,
      "====": 2219,
      "ris": 2220,
      "self": 2221,
      "arget": 2222,
      "01": 2223,
      "Ġspe": 2224,
      "ological": 2225,
      ")}\\": 2226,
      "RE": 2227,
      "Ġeas": 2228,
      "Ġperformance": 2229,
      "Ġsignific": 2230,
      "ault": 2231,
      "Ġstandard": 2232,
      "Ġimportant": 2233,
      "36": 2234,
      "Ġ($": 2235,
      "Ġproduct": 2236,
      "org": 2237,
      "Ġcare": 2238,
      "ae": 2239,
      "ĠYork": 2240,
      "ĠNov": 2241,
      "Ġphase": 2242,
      "Ġdetail": 2243,
      "ling": 2244,
      "Ġfurther": 2245,
      ")(": 2246,
      "time": 2247,
      "An": 2248,
      "}]": 2249,
      "ĠSchool": 2250,
      "80": 2251,
      "Ġrange": 2252,
      "Ġtimes": 2253,
      "ences": 2254,
      "ients": 2255,
      "Ġanother": 2256,
      "Ġmom": 2257,
      "Ġaff": 2258,
      "Ġ&=": 2259,
      "urs": 2260,
      "ources": 2261,
      "oard": 2262,
      "off": 2263,
      "Ġindic": 2264,
      "{(": 2265,
      "Ġbre": 2266,
      "Res": 2267,
      "aster": 2268,
      "ĠWar": 2269,
      "html": 2270,
      "Ġbir": 2271,
      "34": 2272,
      "31": 2273,
      "aint": 2274,
      "****": 2275,
      "empt": 2276,
      "Ġinvest": 2277,
      "perature": 2278,
      "Ġthough": 2279,
      "ilt": 2280,
      "Ġlinear": 2281,
      "Ġphys": 2282,
      "order": 2283,
      "iron": 2284,
      "2006": 2285,
      "Ġfinite": 2286,
      "came": 2287,
      "Ġide": 2288,
      "amed": 2289,
      "Ġfull": 2290,
      "Ġmusic": 2291,
      "scal": 2292,
      "Ġbook": 2293,
      "ĠBrit": 2294,
      "Ġtrue": 2295,
      "top": 2296,
      "reen": 2297,
      "Ġturn": 2298,
      "Ġview": 2299,
      "ĠCounty": 2300,
      "Ġchang": 2301,
      "alse": 2302,
      "ats": 2303,
      "Ġpolit": 2304,
      "htt": 2305,
      "ries": 2306,
      "Ġsystems": 2307,
      "eter": 2308,
      "Ġbecame": 2309,
      "source": 2310,
      "ĠPr": 2311,
      "Ġcomplet": 2312,
      "Ġlight": 2313,
      "ĠAp": 2314,
      "exp": 2315,
      "ĠAug": 2316,
      "Ġfew": 2317,
      "}_\\": 2318,
      ".~": 2319,
      "Ġcontrol": 2320,
      "field": 2321,
      "$)": 2322,
      "idual": 2323,
      "99": 2324,
      "}^\\": 2325,
      "Ġconsid": 2326,
      "37": 2327,
      "Ġcour": 2328,
      "icle": 2329,
      "roll": 2330,
      "iple": 2331,
      "ĠSouth": 2332,
      "If": 2333,
      "ways": 2334,
      ";\\": 2335,
      "Ġimpro": 2336,
      "Ġhal": 2337,
      "ius": 2338,
      "ĠSection": 2339,
      "lected": 2340,
      "Ġshort": 2341,
      "Ġfree": 2342,
      "Ġrecord": 2343,
      "Ġvector": 2344,
      "38": 2345,
      "arent": 2346,
      "Ġlower": 2347,
      "Ġred": 2348,
      "Ġrandom": 2349,
      "Ġdat": 2350,
      "widehat": 2351,
      "cdots": 2352,
      "Ġsk": 2353,
      "Ġsuccess": 2354,
      "Ġsong": 2355,
      "Ġside": 2356,
      "Ġmot": 2357,
      "~~": 2358,
      "Ġaction": 2359,
      "Ġperson": 2360,
      "Ġsymm": 2361,
      "ĠOct": 2362,
      "plies": 2363,
      "Ġvol": 2364,
      "AS": 2365,
      "}|": 2366,
      "Ġapplic": 2367,
      "though": 2368,
      "Un": 2369,
      "Ġleast": 2370,
      "ino": 2371,
      "usiness": 2372,
      "Ġiss": 2373,
      "Ġless": 2374,
      "Ġdel": 2375,
      "Ġconditions": 2376,
      "erman": 2377,
      "Ġalgorithm": 2378,
      "lemma": 2379,
      "Ġhy": 2380,
      "uation": 2381,
      "ĠMan": 2382,
      "Ġprot": 2383,
      "ptember": 2384,
      "Ġdeath": 2385,
      "Ġrese": 2386,
      "ploy": 2387,
      "rag": 2388,
      "ĠPol": 2389,
      "Ġpath": 2390,
      "ape": 2391,
      "Ġimage": 2392,
      "ze": 2393,
      "})\\": 2394,
      "code": 2395,
      "plement": 2396,
      "Ġdiff": 2397,
      "asing": 2398,
      "Ġ*/": 2399,
      "Ġhigher": 2400,
      "fficient": 2401,
      "Ġcar": 2402,
      "Ġoffic": 2403,
      "64": 2404,
      "oman": 2405,
      "type": 2406,
      "ĠĠĠĠĠĠĠĠĠĠĠĠĠĠĠĠĠĠĠ": 2407,
      "ung": 2408,
      "Ġfram": 2409,
      "qquad": 2410,
      "textwidth": 2411,
      "stit": 2412,
      "Ġdynam": 2413,
      "}}(": 2414,
      "He": 2415,
      "Ġinclude": 2416,
      "Ġcross": 2417,
      "td": 2418,
      "rite": 2419,
      "Ġatta": 2420,
      "Ġsay": 2421,
      "ception": 2422,
      "Ġsignificant": 2423,
      "pril": 2424,
      "inally": 2425,
      "ailable": 2426,
      "ĠMarch": 2427,
      "ef": 2428,
      "Ġconf": 2429,
      "Ġearly": 2430,
      "Ġdiv": 2431,
      "Ġhref": 2432,
      "Ġlength": 2433,
      ")]": 2434,
      "anuary": 2435,
      "onal": 2436,
      "cos": 2437,
      "Ġchange": 2438,
      "04": 2439,
      "ĠThere": 2440,
      "stand": 2441,
      "gebra": 2442,
      "Ġke": 2443,
      "iven": 2444,
      "Ġtraining": 2445,
      "|-": 2446,
      "obal": 2447,
      "ĠPar": 2448,
      "aced": 2449,
      "osp": 2450,
      "Ġ\\{": 2451,
      "ĠSy": 2452,
      "ivate": 2453,
      "lev": 2454,
      "uk": 2455,
      "Ġfrequ": 2456,
      "chie": 2457,
      "ĠSup": 2458,
      "ription": 2459,
      "^+": 2460,
      "cup": 2461,
      "ocus": 2462,
      "39": 2463,
      "Ġge": 2464,
      "AC": 2465,
      "message": 2466,
      "alax": 2467,
      "Ġpositive": 2468,
      "ĠMin": 2469,
      "ĠThese": 2470,
      "duct": 2471,
      "Ġconsist": 2472,
      "Ġsom": 2473,
      "{{\\": 2474,
      "which": 2475,
      "inter": 2476,
      "Ġconsidered": 2477,
      "Ġweight": 2478,
      "Ġerror": 2479,
      "ĠYou": 2480,
      "ĠGu": 2481,
      "ends": 2482,
      "ĠJuly": 2483,
      "ĠJune": 2484,
      "Ġinvol": 2485,
      "Ġthus": 2486,
      "&=": 2487,
      "Ġlay": 2488,
      "Ġsuper": 2489,
      "Ġgrow": 2490,
      "Ġsepar": 2491,
      "('": 2492,
      "Ġformer": 2493,
      "bb": 2494,
      "mber": 2495,
      "Ġtemperature": 2496,
      "ush": 2497,
      "ĠAugust": 2498,
      "Ġcases": 2499,
      "Ġmajor": 2500,
      "AN": 2501,
      "press": 2502,
      "Ġmethods": 2503,
      "ope": 2504,
      "alt": 2505,
      "nce": 2506,
      "lish": 2507,
      "illion": 2508,
      "uman": 2509,
      "Ġconn": 2510,
      "istor": 2511,
      "Ġday": 2512,
      "ĠEuro": 2513,
      "foot": 2514,
      "lege": 2515,
      "esc": 2516,
      "Ġsit": 2517,
      "ĠSeptember": 2518,
      "ĠCo": 2519,
      "Id": 2520,
      "Ġ$(\\": 2521,
      "OR": 2522,
      "AL": 2523,
      "ently": 2524,
      "Ġdefine": 2525,
      "inary": 2526,
      "hold": 2527,
      "Ġcirc": 2528,
      "Ġang": 2529,
      "Ġeng": 2530,
      "Ġstar": 2531,
      "head": 2532,
      "Ġinput": 2533,
      "ĠCal": 2534,
      "Ġsem": 2535,
      "Ġindependent": 2536,
      "Ġvar": 2537,
      "ĠAustral": 2538,
      "Ġexists": 2539,
      "Ġcy": 2540,
      "ev": 2541,
      "Ġnormal": 2542,
      "rary": 2543,
      "Ġfeatures": 2544,
      "ID": 2545,
      "Ġbelow": 2546,
      "Ġhome": 2547,
      "Ġneg": 2548,
      "2005": 2549,
      "ping": 2550,
      "Ġproperties": 2551,
      "rr": 2552,
      "}\\,": 2553,
      "ampions": 2554,
      "ably": 2555,
      "Ġprobability": 2556,
      "Ġaverage": 2557,
      "}^{(": 2558,
      "arning": 2559,
      "ĠUS": 2560,
      "enc": 2561,
      "ĠFigure": 2562,
      "now": 2563,
      "ĠLemma": 2564,
      "anguage": 2565,
      "Name": 2566,
      "Ġconstra": 2567,
      "2000": 2568,
      "Ġhom": 2569,
      "Ġcorre": 2570,
      "Ġleg": 2571,
      "Psi": 2572,
      "otes": 2573,
      "ĠOctober": 2574,
      "Ġins": 2575,
      "Ġoriginal": 2576,
      "Ġcoll": 2577,
      "ography": 2578,
      "mathsf": 2579,
      "Ġassociated": 2580,
      "ĠJanuary": 2581,
      "Ġflow": 2582,
      "operator": 2583,
      "prop": 2584,
      "07": 2585,
      "Ġobserved": 2586,
      "ĠApril": 2587,
      "Ġwant": 2588,
      "Ġlog": 2589,
      "ham": 2590,
      "06": 2591,
      "Ġabs": 2592,
      "Ġequival": 2593,
      "Ġwid": 2594,
      "br": 2595,
      "ocial": 2596,
      "Ġkey": 2597,
      "ula": 2598,
      "rep": 2599,
      "import": 2600,
      "ĠNo": 2601,
      "Ġzero": 2602,
      "ĠState": 2603,
      "cember": 2604,
      "ales": 2605,
      ",-": 2606,
      "Ġrecent": 2607,
      "ĠArt": 2608,
      "ussian": 2609,
      "ĠCity": 2610,
      "iff": 2611,
      "gl": 2612,
      "Ġ=>": 2613,
      "Ġfactor": 2614,
      "ports": 2615,
      "}\\\\": 2616,
      "ilit": 2617,
      "Ġold": 2618,
      "most": 2619,
      "wed": 2620,
      "Ar": 2621,
      "ĠNorth": 2622,
      "pdf": 2623,
      "Ġrelations": 2624,
      "uted": 2625,
      "Ġappear": 2626,
      "Ġwon": 2627,
      "Ġlines": 2628,
      "ĠSince": 2629,
      "âĢľ": 2630,
      "48": 2631,
      "atural": 2632,
      "Ġpubl": 2633,
      "ĠReg": 2634,
      "Ġsource": 2635,
      "Ġsequence": 2636,
      "Ġeither": 2637,
      "lor": 2638,
      "Ġquantum": 2639,
      "Ġland": 2640,
      "Ġnode": 2641,
      "viron": 2642,
      "ster": 2643,
      "citet": 2644,
      "small": 2645,
      "Ġloss": 2646,
      "Ġavailable": 2647,
      "Ġcompet": 2648,
      "EN": 2649,
      "Ġcover": 2650,
      "ĠBut": 2651,
      "Ġrepl": 2652,
      "}+\\": 2653,
      "Ġmoment": 2654,
      "Ġseen": 2655,
      "itions": 2656,
      "09": 2657,
      "uck": 2658,
      "Ġmembers": 2659,
      "Ġproposed": 2660,
      "Ġbetter": 2661,
      "Ġmulti": 2662,
      "Ġla": 2663,
      "sin": 2664,
      "ising": 2665,
      "ordin": 2666,
      "Ġversion": 2667,
      ".âĢĿ": 2668,
      "ideo": 2669,
      "Ġep": 2670,
      "Ġprovide": 2671,
      "Ġ&\\": 2672,
      "Ġplayed": 2673,
      "')": 2674,
      "Ġcoupl": 2675,
      "02": 2676,
      "Ġbehav": 2677,
      "ney": 2678,
      "Ġcell": 2679,
      "Ġcity": 2680,
      "sing": 2681,
      "igen": 2682,
      "ĠCor": 2683,
      "utes": 2684,
      "wise": 2685,
      "Ġmanag": 2686,
      "appro": 2687,
      "AM": 2688,
      "Ġvarious": 2689,
      "based": 2690,
      "Ġclust": 2691,
      "Ġbi": 2692,
      "ulations": 2693,
      "Ġquest": 2694,
      "Ġcost": 2695,
      "defin": 2696,
      "Ġassume": 2697,
      "Type": 2698,
      "uggest": 2699,
      "2004": 2700,
      "ĠNovember": 2701,
      "Ġmeans": 2702,
      "Ġspecial": 2703,
      "ertain": 2704,
      "hspace": 2705,
      "Ġsche": 2706,
      "Ġnumer": 2707,
      "Ġcompar": 2708,
      "Ġreleased": 2709,
      "Ġprom": 2710,
      "itor": 2711,
      "Ġcommon": 2712,
      "ĠEurope": 2713,
      "Ġelement": 2714,
      "Ġachie": 2715,
      "aken": 2716,
      "ĠPart": 2717,
      "ividual": 2718,
      "ĠFeb": 2719,
      "Ġblack": 2720,
      "Ġplan": 2721,
      "ille": 2722,
      "LE": 2723,
      "ware": 2724,
      "Ġfixed": 2725,
      "95": 2726,
      "chan": 2727,
      "List": 2728,
      "uration": 2729,
      "Ġsurface": 2730,
      "Ġgovernment": 2731,
      "##": 2732,
      "Ġsimple": 2733,
      "See": 2734,
      "ĠWill": 2735,
      "]$": 2736,
      "bor": 2737,
      "Ġoperator": 2738,
      "Ġvia": 2739,
      "ony": 2740,
      "idence": 2741,
      "ules": 2742,
      "IC": 2743,
      "wit": 2744,
      "ĠDecember": 2745,
      "Ġenc": 2746,
      "iance": 2747,
      "born": 2748,
      "Ġemb": 2749,
      "65": 2750,
      "Ġgreat": 2751,
      "eneral": 2752,
      "ving": 2753,
      "Ġrat": 2754,
      "String": 2755,
      "node": 2756,
      "Ġconstruct": 2757,
      "annel": 2758,
      "aterial": 2759,
      "Ġthird": 2760,
      "Ġstep": 2761,
      "equiv": 2762,
      "Ġpopulation": 2763,
      "Ġcompos": 2764,
      "Ġamong": 2765,
      "ruary": 2766,
      "Ġdistance": 2767,
      "}:": 2768,
      "Ġgive": 2769,
      "ĠAfter": 2770,
      "Ġeval": 2771,
      "cle": 2772,
      "ĠMe": 2773,
      "Ġpri": 2774,
      "uture": 2775,
      "Ġelements": 2776,
      "mat": 2777,
      "Ġhelp": 2778,
      "map": 2779,
      "operatorname": 2780,
      "plied": 2781,
      "ĠAf": 2782,
      "Ġhowever": 2783,
      "Ġpo": 2784,
      "param": 2785,
      "Ġwomen": 2786,
      "DE": 2787,
      "|^": 2788,
      "dom": 2789,
      "__": 2790,
      "apan": 2791,
      "Ġgalax": 2792,
      "Ġspin": 2793,
      "}}{\\": 2794,
      "Ġexperiment": 2795,
      "raft": 2796,
      "ĠMore": 2797,
      "Ġoften": 2798,
      "'$": 2799,
      "dimens": 2800,
      "Ġaccount": 2801,
      "03": 2802,
      "Ġanaly": 2803,
      "go": 2804,
      "Ġcompany": 2805,
      "neq": 2806,
      "ana": 2807,
      "Ġexact": 2808,
      "44": 2809,
      "/>": 2810,
      "Ġdon": 2811,
      "ume": 2812,
      "ĠAss": 2813,
      "ariant": 2814,
      "oted": 2815,
      "ems": 2816,
      "ĠMc": 2817,
      "Ġsuggest": 2818,
      "ada": 2819,
      "ourn": 2820,
      "ready": 2821,
      "ĠRep": 2822,
      "ibility": 2823,
      "ours": 2824,
      "ged": 2825,
      "Ġant": 2826,
      "ones": 2827,
      "xspace": 2828,
      "ocal": 2829,
      "ĠEd": 2830,
      "ĠBritish": 2831,
      "size": 2832,
      "but": 2833,
      ")-": 2834,
      "iles": 2835,
      "}-\\": 2836,
      "Ġclaim": 2837,
      "ĠOne": 2838,
      "Ġret": 2839,
      "och": 2840,
      "Sh": 2841,
      "Ġfocus": 2842,
      "Ġdev": 2843,
      "ĠChrist": 2844,
      "Ġboundary": 2845,
      "value": 2846,
      "Ġregular": 2847,
      "SE": 2848,
      "Ġdenote": 2849,
      "raction": 2850,
      "ront": 2851,
      "Ġtarget": 2852,
      "theorem": 2853,
      "ĠHam": 2854,
      "Ġfive": 2855,
      "Ġexpected": 2856,
      "Ġscale": 2857,
      "ache": 2858,
      "Int": 2859,
      "indent": 2860,
      "55": 2861,
      "Ġdiag": 2862,
      "Ġtext": 2863,
      "Se": 2864,
      "verse": 2865,
      "({\\": 2866,
      "na": 2867,
      "mid": 2868,
      "$}": 2869,
      "Ġlarger": 2870,
      "ream": 2871,
      "umerate": 2872,
      "rest": 2873,
      "Ġunit": 2874,
      "Ġlabel": 2875,
      "ĠSch": 2876,
      "Ġfund": 2877,
      "Ġequations": 2878,
      "ĠWith": 2879,
      "scr": 2880,
      "Ġarch": 2881,
      "ĠKing": 2882,
      "Ġes": 2883,
      "Ġevents": 2884,
      "icy": 2885,
      "Ġcorrel": 2886,
      "Ġpract": 2887,
      "star": 2888,
      "group": 2889,
      "Ġattack": 2890,
      "Ġbeg": 2891,
      "conom": 2892,
      "ittle": 2893,
      "Ġlik": 2894,
      "Ġrefer": 2895,
      "Ġrole": 2896,
      "gether": 2897,
      "Ġtogether": 2898,
      "skip": 2899,
      "Ġinfl": 2900,
      "ĠMed": 2901,
      "ket": 2902,
      "ĠLeague": 2903,
      "Ġmatch": 2904,
      "2021": 2905,
      "Ġgroups": 2906,
      "uff": 2907,
      "Ġproperty": 2908,
      "Ġhaving": 2909,
      "ĠII": 2910,
      "ocation": 2911,
      "70": 2912,
      "enumerate": 2913,
      "ĠBar": 2914,
      "Ġhard": 2915,
      "edd": 2916,
      "return": 2917,
      "opy": 2918,
      "ĠHar": 2919,
      "ĠFebruary": 2920,
      "function": 2921,
      "lex": 2922,
      "Ġsample": 2923,
      "Ġrequire": 2924,
      "icol": 2925,
      "Ġ-\\": 2926,
      "Ġbecome": 2927,
      "Ġthink": 2928,
      "ĠSo": 2929,
      "ĠThus": 2930,
      "Ap": 2931,
      "irt": 2932,
      "Col": 2933,
      "used": 2934,
      "Ġprim": 2935,
      "Ġalways": 2936,
      "aul": 2937,
      "\"/>": 2938,
      "ooth": 2939,
      "Ġindividual": 2940,
      "Ġwritten": 2941,
      "Ġrelated": 2942,
      "],": 2943,
      "uild": 2944,
      "indow": 2945,
      "lin": 2946,
      "Ġstation": 2947,
      "ounc": 2948,
      "Ġclose": 2949,
      "Ġill": 2950,
      "Ind": 2951,
      "Ġground": 2952,
      "onic": 2953,
      "Ġtre": 2954,
      "2003": 2955,
      "Ġalign": 2956,
      "ponse": 2957,
      "comp": 2958,
      "]\\": 2959,
      "Ġlearning": 2960,
      "Ġtitle": 2961,
      "abor": 2962,
      "Ġhistory": 2963,
      "ensor": 2964,
      "Ġgives": 2965,
      "ĠEn": 2966,
      "Ġfore": 2967,
      "ĉĊ": 2968,
      "eloc": 2969,
      "Ġtoo": 2970,
      "Ġlocated": 2971,
      "Ġtook": 2972,
      "Ġdou": 2973,
      "rench": 2974,
      "fo": 2975,
      "ilities": 2976,
      "Ġsix": 2977,
      "vironment": 2978,
      "hood": 2979,
      "Ġservice": 2980,
      ")}{": 2981,
      "Ġbegin": 2982,
      "Ġdatas": 2983,
      "ief": 2984,
      "dag": 2985,
      "split": 2986,
      "Ġbusiness": 2987,
      "Val": 2988,
      "translation": 2989,
      "itemize": 2990,
      "Ġinvestig": 2991,
      "mary": 2992,
      "Ġgames": 2993,
      "note": 2994,
      "ips": 2995,
      "Ġwater": 2996,
      "Ġjo": 2997,
      "Ġnull": 2998,
      "Ġincluded": 2999,
      "rown": 3000,
      "Ġport": 3001,
      "cret": 3002,
      "ĠWest": 3003,
      "Ġmight": 3004,
      "Ġestablished": 3005,
      "ĠĠĠĠĠĠĠĠĠĠĠĠĠ": 3006,
      "AP": 3007,
      "omial": 3008,
      "Ġalready": 3009,
      "Ġacross": 3010,
      "IT": 3011,
      "ension": 3012,
      "iform": 3013,
      "Ġtaken": 3014,
      "itting": 3015,
      "cell": 3016,
      "ĠWhen": 3017,
      "gen": 3018,
      "Ġfac": 3019,
      "Ġdomain": 3020,
      "Ġauthor": 3021,
      "Ġdegree": 3022,
      "Pl": 3023,
      "ops": 3024,
      "more": 3025,
      "Ġfields": 3026,
      "Ġedge": 3027,
      "Ġmember": 3028,
      "âĢĶ": 3029,
      "ese": 3030,
      "data": 3031,
      "Ġtown": 3032,
      "omorphism": 3033,
      "Ġimplies": 3034,
      "izing": 3035,
      "CO": 3036,
      "dimensional": 3037,
      "iction": 3038,
      "Ġage": 3039,
      "Ġapply": 3040,
      "Ġfar": 3041,
      "ults": 3042,
      "Ġtw": 3043,
      "Ġresp": 3044,
      "my": 3045,
      "medi": 3046,
      "astic": 3047,
      "ĠDist": 3048,
      "plicit": 3049,
      "Ġfilms": 3050,
      "Ġresearch": 3051,
      "sw": 3052,
      "Ġbirths": 3053,
      ")}$": 3054,
      "49": 3055,
      "~$": 3056,
      "(-": 3057,
      "ett": 3058,
      "Ġcareer": 3059,
      "Ġcheck": 3060,
      "call": 3061,
      "Ġheld": 3062,
      "vspace": 3063,
      "Ġveloc": 3064,
      "rew": 3065,
      "ocument": 3066,
      "fill": 3067,
      "scale": 3068,
      "century": 3069,
      "Ġimp": 3070,
      "Ġdefinition": 3071,
      "Ġmetric": 3072,
      "aly": 3073,
      "Ġhouse": 3074,
      "Ġcoe": 3075,
      "iber": 3076,
      "Ġ\\|": 3077,
      "Ġcontains": 3078,
      "Ġconver": 3079,
      "Ġaccess": 3080,
      "Ġbase": 3081,
      "Ġfail": 3082,
      "mathscr": 3083,
      "Ġ!": 3084,
      "Ġbackground": 3085,
      "hib": 3086,
      "Ġable": 3087,
      "Ġworks": 3088,
      "Ġconstraint": 3089,
      "umb": 3090,
      "Ġhalf": 3091,
      "noindent": 3092,
      "Ġnamed": 3093,
      "opl": 3094,
      "itted": 3095,
      "rim": 3096,
      "levision": 3097,
      "eder": 3098,
      "ĠEnglish": 3099,
      "semb": 3100,
      "rant": 3101,
      "duc": 3102,
      "Ġfig": 3103,
      "Ġtherefore": 3104,
      "2002": 3105,
      "Ġimplement": 3106,
      "Ġreceived": 3107,
      "ĠHis": 3108,
      "eople": 3109,
      "BC": 3110,
      "Ġholds": 3111,
      "aches": 3112,
      "Ġpan": 3113,
      "lement": 3114,
      "rated": 3115,
      "ĠArm": 3116,
      "Ġreview": 3117,
      "itect": 3118,
      "Ã¡": 3119,
      "Ġput": 3120,
      "ued": 3121,
      "rain": 3122,
      "ondon": 3123,
      "Ġfalse": 3124,
      "IS": 3125,
      "Ġprove": 3126,
      "ending": 3127,
      "ogn": 3128,
      "Ġsets": 3129,
      "\\,\\": 3130,
      "cast": 3131,
      "ĠJapan": 3132,
      "kn": 3133,
      "mark": 3134,
      "Ġbegan": 3135,
      "adem": 3136,
      "Ġadditional": 3137,
      "alle": 3138,
      "Ġgen": 3139,
      "Ġenough": 3140,
      "racy": 3141,
      "\\}$": 3142,
      "Ġaccording": 3143,
      "Ġstyle": 3144,
      "Ġair": 3145,
      "Ġrequired": 3146,
      "arried": 3147,
      "bur": 3148,
      "47": 3149,
      "85": 3150,
      "Ġelse": 3151,
      "Ġbuilt": 3152,
      "ford": 3153,
      ")+": 3154,
      "Ġindex": 3155,
      "ĠAir": 3156,
      "Ġwhose": 3157,
      "Ġchildren": 3158,
      "like": 3159,
      "mar": 3160,
      "}}_": 3161,
      "ctors": 3162,
      "Ġalgebra": 3163,
      "aves": 3164,
      "Ġcertain": 3165,
      "Ġsolutions": 3166,
      "2001": 3167,
      "Ġweak": 3168,
      "Ġnecess": 3169,
      "Ġreason": 3170,
      "down": 3171,
      "Ġeffects": 3172,
      "ds": 3173,
      "cher": 3174,
      "pol": 3175,
      "Ġconc": 3176,
      "ottom": 3177,
      "Ġstring": 3178,
      "ulated": 3179,
      "avy": 3180,
      "Ġcut": 3181,
      "Ġcateg": 3182,
      "67": 3183,
      "ĠPark": 3184,
      "Ġsqu": 3185,
      "ishing": 3186,
      "Ġclub": 3187,
      "Ġstars": 3188,
      "Ġcode": 3189,
      "Ġprec": 3190,
      "Ġnote": 3191,
      "reed": 3192,
      "key": 3193,
      "ĠQu": 3194,
      "Ġnatural": 3195,
      "Ġ_{": 3196,
      "Ġord": 3197,
      "Ġtheorem": 3198,
      "ava": 3199,
      "Since": 3200,
      "Ġprivate": 3201,
      "Ġsent": 3202,
      "ĠSan": 3203,
      "icro": 3204,
      "ĠAfric": 3205,
      "ured": 3206,
      "acy": 3207,
      "ha": 3208,
      "Ġcamp": 3209,
      "Ġprovided": 3210,
      "Ġmagnetic": 3211,
      "that": 3212,
      "Ġmen": 3213,
      "ĠEl": 3214,
      "Ġproduction": 3215,
      "load": 3216,
      "ĠAg": 3217,
      "eff": 3218,
      "Pi": 3219,
      "ights": 3220,
      "Ġconfig": 3221,
      "ĠPres": 3222,
      "Ġcontext": 3223,
      "American": 3224,
      "Ġpresented": 3225,
      "atively": 3226,
      "tic": 3227,
      "Ġneigh": 3228,
      "Ġgenerated": 3229,
      "ĠHigh": 3230,
      "Ġmechan": 3231,
      "Ġbuilding": 3232,
      "ĠAmeric": 3233,
      "Ġvill": 3234,
      "&&": 3235,
      "era": 3236,
      "Ġcompared": 3237,
      "Ġbasis": 3238,
      "yl": 3239,
      "Ġoptim": 3240,
      "Ġbo": 3241,
      "linear": 3242,
      "ires": 3243,
      "ĠDav": 3244,
      "Ġpress": 3245,
      "Ġeffic": 3246,
      "Ġpublished": 3247,
      "Be": 3248,
      "Ġnever": 3249,
      "Ġemploy": 3250,
      "Ġoutput": 3251,
      "Ġcomponent": 3252,
      "aries": 3253,
      "ming": 3254,
      "ards": 3255,
      "Ġprofess": 3256,
      "aff": 3257,
      "Le": 3258,
      "ouncil": 3259,
      "Ġblock": 3260,
      "gence": 3261,
      "Ġfuture": 3262,
      "Ġmaterial": 3263,
      "iding": 3264,
      "ements": 3265,
      "Ġsite": 3266,
      "Ġeduc": 3267,
      "augh": 3268,
      "AA": 3269,
      "ceed": 3270,
      "ĠMon": 3271,
      "ĠSim": 3272,
      "Ġmultiple": 3273,
      "state": 3274,
      "Ġequal": 3275,
      "Ġeffective": 3276,
      "Ġear": 3277,
      "Ġcountry": 3278,
      "Ġrelation": 3279,
      "Ġspectrum": 3280,
      "98": 3281,
      "Ġimages": 3282,
      "Ġwar": 3283,
      "approx": 3284,
      "norm": 3285,
      "Mod": 3286,
      "ĠĠĠĠĊ": 3287,
      "roid": 3288,
      "ilton": 3289,
      "Ġclosed": 3290,
      "Ġspecies": 3291,
      "}}}": 3292,
      "ĠPer": 3293,
      "textrm": 3294,
      "Ġtransform": 3295,
      "Ġnational": 3296,
      "dt": 3297,
      "Ġhuman": 3298,
      "Ġspecific": 3299,
      "Ġhost": 3300,
      "Ġinf": 3301,
      "CC": 3302,
      "ĠâĢĺ": 3303,
      "With": 3304,
      "Ġdevelopment": 3305,
      "Ġhapp": 3306,
      "ĠCollege": 3307,
      "ĠRo": 3308,
      "mon": 3309,
      "Ġdifference": 3310,
      "Ġflu": 3311,
      "Ġsignal": 3312,
      "Ġrepresentation": 3313,
      "bul": 3314,
      "^-": 3315,
      "Ph": 3316,
      "Ġestimate": 3317,
      ",âĢĿ": 3318,
      "Ġcoordin": 3319,
      "Ġmaking": 3320,
      "Ġcomponents": 3321,
      "Ġarm": 3322,
      "Ġcannot": 3323,
      "istics": 3324,
      "Ġyield": 3325,
      "Ġgoing": 3326,
      "iments": 3327,
      "ĠLondon": 3328,
      "ĠTherefore": 3329,
      "Ġwave": 3330,
      "fact": 3331,
      "Ġcomplete": 3332,
      "Ġrather": 3333,
      "rig": 3334,
      "Ġplayer": 3335,
      "ying": 3336,
      "Ġcentral": 3337,
      "from": 3338,
      "66": 3339,
      "Ġround": 3340,
      "Ġconstruction": 3341,
      "ĠChampions": 3342,
      "{$": 3343,
      "ĠChar": 3344,
      "Ġcommunity": 3345,
      "Ġcle": 3346,
      "Ġalmost": 3347,
      "multicol": 3348,
      "Ġrot": 3349,
      "Ġwhether": 3350,
      "iet": 3351,
      "rs": 3352,
      "gs": 3353,
      "actions": 3354,
      "ington": 3355,
      "gress": 3356,
      "97": 3357,
      "Ġweek": 3358,
      "Ġdep": 3359,
      "Ġdirection": 3360,
      "{}": 3361,
      "ES": 3362,
      "olic": 3363,
      "umbers": 3364,
      "ĠHouse": 3365,
      "Ġeigen": 3366,
      "ota": 3367,
      "ĠDep": 3368,
      "NN": 3369,
      "bound": 3370,
      "ĠChe": 3371,
      "subseteq": 3372,
      "multicolumn": 3373,
      "underline": 3374,
      "cing": 3375,
      "Ġevolution": 3376,
      "ĠNe": 3377,
      "ners": 3378,
      "Ġ==": 3379,
      "aps": 3380,
      "gn": 3381,
      "ridge": 3382,
      "Ġkill": 3383,
      "ĠHer": 3384,
      "Ġperformed": 3385,
      "Ġinstead": 3386,
      "Ġyoung": 3387,
      "ĠBro": 3388,
      "Ġ:=": 3389,
      "Then": 3390,
      "Ġ%": 3391,
      "ustom": 3392,
      "ĠGl": 3393,
      "texttt": 3394,
      "Ad": 3395,
      "ĠSer": 3396,
      "At": 3397,
      "itude": 3398,
      "Ġgas": 3399,
      "ĠFirst": 3400,
      "Ġstrateg": 3401,
      "earch": 3402,
      "Ġstory": 3403,
      "ED": 3404,
      "ĠAm": 3405,
      "minus": 3406,
      "Sc": 3407,
      "Ġid": 3408,
      "icture": 3409,
      "Ġtransition": 3410,
      "Ġinstance": 3411,
      "Ġproduced": 3412,
      "Ġupper": 3413,
      "Sp": 3414,
      "Ġmiss": 3415,
      "ĠAb": 3416,
      "tage": 3417,
      "Ġbig": 3418,
      "izes": 3419,
      "\")": 3420,
      "Ġ&&": 3421,
      "ework": 3422,
      "Ġvideo": 3423,
      "ynomial": 3424,
      "ĠWilliam": 3425,
      "Ġnov": 3426,
      "oon": 3427,
      "Ġmillion": 3428,
      "Ġexplain": 3429,
      "Ġmaximum": 3430,
      "ĠFrom": 3431,
      "Ġneut": 3432,
      "There": 3433,
      "<\\": 3434,
      "68": 3435,
      "estern": 3436,
      "Ġdays": 3437,
      "CD": 3438,
      "unic": 3439,
      "ĠGa": 3440,
      "Ġreported": 3441,
      "Ob": 3442,
      "Ġrank": 3443,
      "Ġ$\\{": 3444,
      "Ġmatter": 3445,
      "}^{-": 3446,
      "Ġcontinuous": 3447,
      "Ġrestrict": 3448,
      "string": 3449,
      "Ġglobal": 3450,
      "iting": 3451,
      "Ġuser": 3452,
      "ilitary": 3453,
      "Ġaway": 3454,
      "andid": 3455,
      "Theta": 3456,
      "Ġsens": 3457,
      "Ġdone": 3458,
      "),\\": 3459,
      "Ġmer": 3460,
      "ĠComp": 3461,
      "Ġvariables": 3462,
      "Ġclear": 3463,
      "Ġvelocity": 3464,
      "util": 3465,
      "nder": 3466,
      "ste": 3467,
      "Ġ$|": 3468,
      "Ġannoun": 3469,
      "ama": 3470,
      "Ġunderstand": 3471,
      "New": 3472,
      "ĠFrench": 3473,
      "ĠAng": 3474,
      "Ġpur": 3475,
      "Ġhor": 3476,
      "Ġbroad": 3477,
      "uth": 3478,
      "Ġtrack": 3479,
      "Ġcolumn": 3480,
      "Ġtry": 3481,
      "unc": 3482,
      "Ġintroduced": 3483,
      "ounter": 3484,
      "From": 3485,
      "Ġfri": 3486,
      "Ġwrite": 3487,
      "ĠTable": 3488,
      "list": 3489,
      "oplus": 3490,
      "Ġexec": 3491,
      "isc": 3492,
      "PS": 3493,
      "ĠLa": 3494,
      "known": 3495,
      "Ġupd": 3496,
      "long": 3497,
      "icult": 3498,
      "bigg": 3499,
      "come": 3500,
      "CT": 3501,
      "atives": 3502,
      "Ġsocial": 3503,
      "Ġaddress": 3504,
      "Ġcolor": 3505,
      "Ġcult": 3506,
      "ump": 3507,
      "Ġvoid": 3508,
      "][": 3509,
      ",\"": 3510,
      "clusion": 3511,
      "ret": 3512,
      "ara": 3513,
      "96": 3514,
      "].": 3515,
      "Ġliter": 3516,
      "Ġsmaller": 3517,
      "band": 3518,
      "Ġdimension": 3519,
      "Ġnuc": 3520,
      "iddle": 3521,
      "ournal": 3522,
      "Ġcentury": 3523,
      "Ġborn": 3524,
      "Ġapplied": 3525,
      "mit": 3526,
      "âĢ¦": 3527,
      "Ġprinc": 3528,
      "inated": 3529,
      "normal": 3530,
      "IM": 3531,
      "dist": 3532,
      "ĠNote": 3533,
      "Ġleading": 3534,
      "iation": 3535,
      "Ġtaking": 3536,
      "tra": 3537,
      "prod": 3538,
      "Ġtreat": 3539,
      "setminus": 3540,
      "Ġratio": 3541,
      "}'": 3542,
      "ĠSm": 3543,
      "OS": 3544,
      "tact": 3545,
      "omb": 3546,
      "Ġgeom": 3547,
      "Ġcreated": 3548,
      "46": 3549,
      "rast": 3550,
      "_+": 3551,
      "77": 3552,
      "Ġonce": 3553,
      "Ġbreak": 3554,
      "ĠInternational": 3555,
      "Ġvalid": 3556,
      "Ġentire": 3557,
      "footnote": 3558,
      "auge": 3559,
      "Ġlanguage": 3560,
      "vis": 3561,
      "king": 3562,
      "1999": 3563,
      "Ġserved": 3564,
      "ledge": 3565,
      "88": 3566,
      "Ġelectron": 3567,
      "Ġunique": 3568,
      "Ġequivalent": 3569,
      "Ġbody": 3570,
      "Ġactiv": 3571,
      "Ġdemon": 3572,
      "ĠVal": 3573,
      "ĠMark": 3574,
      "attle": 3575,
      "Ġlearn": 3576,
      "ĠPhil": 3577,
      "Ġsoft": 3578,
      "ls": 3579,
      "display": 3580,
      "Ġincrease": 3581,
      "Ġprior": 3582,
      "nection": 3583,
      "ifold": 3584,
      "Ġbelie": 3585,
      "Ġprovides": 3586,
      "Ġdetect": 3587,
      "arily": 3588,
      "Ġbecomes": 3589,
      "hy": 3590,
      "ĠMich": 3591,
      "}}_{": 3592,
      "\"><": 3593,
      "ario": 3594,
      "rate": 3595,
      "Ġoccur": 3596,
      "Ġchanges": 3597,
      "Ġcame": 3598,
      "la": 3599,
      "minist": 3600,
      "Ġproblems": 3601,
      "Ġscen": 3602,
      "light": 3603,
      "osen": 3604,
      "bert": 3605,
      "^{-\\": 3606,
      "Ġinequ": 3607,
      "Ġfrequency": 3608,
      "Ġcome": 3609,
      "All": 3610,
      "ĠDistrict": 3611,
      "Ġsett": 3612,
      "oms": 3613,
      "Ġ\\;": 3614,
      "test": 3615,
      "Ġdecre": 3616,
      "Cont": 3617,
      "ky": 3618,
      "iew": 3619,
      "Ġphysical": 3620,
      "nb": 3621,
      "Ġdirectly": 3622,
      "1998": 3623,
      "elling": 3624,
      "ĠTra": 3625,
      "Ġadj": 3626,
      "ociety": 3627,
      "ĠAct": 3628,
      "42": 3629,
      "Data": 3630,
      "Ġ($\\": 3631,
      "Ġchoice": 3632,
      "ura": 3633,
      "Ġwidth": 3634,
      "ociation": 3635,
      "}/": 3636,
      ")|": 3637,
      "Ġsays": 3638,
      "LL": 3639,
      "ully": 3640,
      "vey": 3641,
      "Ġevalu": 3642,
      "leg": 3643,
      "Ġfit": 3644,
      "}},": 3645,
      "ranch": 3646,
      "iforn": 3647,
      "uit": 3648,
      "berg": 3649,
      "ĠCup": 3650,
      "Ġlittle": 3651,
      "Ġgrad": 3652,
      "ĠTr": 3653,
      "Ġinflu": 3654,
      "flo": 3655,
      "Ġmakes": 3656,
      "Ġsources": 3657,
      "Ġenvironment": 3658,
      "Note": 3659,
      "Ġkeep": 3660,
      "Ġdeveloped": 3661,
      "US": 3662,
      "Ġmeet": 3663,
      "oney": 3664,
      "taint": 3665,
      "eed": 3666,
      "Ġothers": 3667,
      "IR": 3668,
      "oud": 3669,
      "Ġcenter": 3670,
      "Ġengine": 3671,
      "Ġnoise": 3672,
      "Ġquestion": 3673,
      "Set": 3674,
      "Ġsearch": 3675,
      "rices": 3676,
      "Ġdistrict": 3677,
      "Ġcontent": 3678,
      "ĠGerman": 3679,
      "Ġstarted": 3680,
      "orge": 3681,
      "Ġflux": 3682,
      "wedge": 3683,
      "Ġ$[": 3684,
      "ĠMod": 3685,
      "ellow": 3686,
      "ĠThat": 3687,
      "ccording": 3688,
      "allel": 3689,
      "*{": 3690,
      "Ġworking": 3691,
      "Ġamount": 3692,
      "){\\": 3693,
      "Ġrelative": 3694,
      "Ġincreasing": 3695,
      "Ġpolynomial": 3696,
      "year": 3697,
      "que": 3698,
      "ln": 3699,
      "ĠĠĠĊ": 3700,
      "Ġsmooth": 3701,
      "dagger": 3702,
      "http": 3703,
      "ifornia": 3704,
      "ken": 3705,
      "Ġdetails": 3706,
      "Ġresponse": 3707,
      "Ġwords": 3708,
      "icles": 3709,
      "ervice": 3710,
      "Ġderiv": 3711,
      "Ġstudies": 3712,
      "Ġlate": 3713,
      "Ġstatic": 3714,
      "attice": 3715,
      "\\}": 3716,
      "Ġrow": 3717,
      "Ġpeak": 3718,
      "Ġhence": 3719,
      "ĠÐ": 3720,
      "rule": 3721,
      "Ġnumbers": 3722,
      "Ġpast": 3723,
      "Ġdest": 3724,
      "ĠĠĠĠĠĠĠĠĠĠĠĠĠĠĠĠĠĠĠĠĠĠĠ": 3725,
      "($": 3726,
      "Ġsetting": 3727,
      "Ġchannel": 3728,
      "Ġled": 3729,
      "Ġoperators": 3730,
      "Ġparticip": 3731,
      "\\'": 3732,
      "Ġconnected": 3733,
      "Ġregions": 3734,
      "otic": 3735,
      "Ġdetermined": 3736,
      "Ġtelevision": 3737,
      "Ġpay": 3738,
      "Ġcritical": 3739,
      "Ge": 3740,
      "Ġsubject": 3741,
      "Ġuniform": 3742,
      "Ġarchitect": 3743,
      "level": 3744,
      "Ġcapt": 3745,
      "Ġbounded": 3746,
      "Ġsw": 3747,
      "ĠMy": 3748,
      "hern": 3749,
      "command": 3750,
      "ET": 3751,
      "tical": 3752,
      "Ġindust": 3753,
      "reet": 3754,
      "Ġbehavior": 3755,
      "Ġsufficient": 3756,
      "Ġadvan": 3757,
      "Ġdifficult": 3758,
      "inn": 3759,
      "AB": 3760,
      "lands": 3761,
      "Ġprop": 3762,
      "Ġuncer": 3763,
      "ĠIndian": 3764,
      "www": 3765,
      "MS": 3766,
      "den": 3767,
      "irrep": 3768,
      "43": 3769,
      "oe": 3770,
      "lymp": 3771,
      "Ġnorth": 3772,
      "ĠAustralia": 3773,
      "Ġtransfer": 3774,
      "lying": 3775,
      "Ġcompact": 3776,
      "ĠAc": 3777,
      "usion": 3778,
      "Ġallows": 3779,
      "model": 3780,
      "Ġrob": 3781,
      "atory": 3782,
      "Ġhealth": 3783,
      "volution": 3784,
      "Ġcr": 3785,
      "Ã³": 3786,
      "Ġobservations": 3787,
      "Ġcandid": 3788,
      "ansion": 3789,
      "linewidth": 3790,
      "abs": 3791,
      "Ġmarket": 3792,
      "index": 3793,
      "Ġtakes": 3794,
      "ĠÂ": 3795,
      "Ġintegral": 3796,
      "Ġobjects": 3797,
      "Ġinteraction": 3798,
      "ĠInt": 3799,
      "change": 3800,
      "Ġattempt": 3801,
      "Ġcorrect": 3802,
      "Ġservices": 3803,
      "1990": 3804,
      "){": 3805,
      "ĠDr": 3806,
      "bullet": 3807,
      "Ġax": 3808,
      "ship": 3809,
      "Ġreally": 3810,
      "px": 3811,
      "book": 3812,
      "Ġ$-": 3813,
      "$_": 3814,
      "pen": 3815,
      "ollary": 3816,
      "PR": 3817,
      "Ġvan": 3818,
      "Ġeconom": 3819,
      "And": 3820,
      "rc": 3821,
      "Ġinfin": 3822,
      "di": 3823,
      "Ġsubset": 3824,
      "Ġmention": 3825,
      "Ġstudents": 3826,
      "ensive": 3827,
      "AD": 3828,
      "ores": 3829,
      "ises": 3830,
      "perp": 3831,
      "Ġviol": 3832,
      "Ġiter": 3833,
      "rup": 3834,
      "ills": 3835,
      "bre": 3836,
      "Ġtable": 3837,
      "ĠDi": 3838,
      "Ġcurve": 3839,
      "shift": 3840,
      ".)": 3841,
      "igned": 3842,
      "oph": 3843,
      "ellar": 3844,
      "sel": 3845,
      "ili": 3846,
      "ditional": 3847,
      "ĠRec": 3848,
      "encies": 3849,
      "Ġdied": 3850,
      "path": 3851,
      "artment": 3852,
      "Ġwent": 3853,
      "Ġdiagram": 3854,
      "Ġtypes": 3855,
      "----------------": 3856,
      "Ġchall": 3857,
      "useum": 3858,
      "Ġcreate": 3859,
      "riate": 3860,
      "FF": 3861,
      "https": 3862,
      "uracy": 3863,
      "57": 3864,
      "ĠAmerica": 3865,
      "Ġproced": 3866,
      "ratic": 3867,
      "Ġpack": 3868,
      "Ġrecogn": 3869,
      "_*": 3870,
      "500": 3871,
      "file": 3872,
      "Ġillust": 3873,
      "ĠCont": 3874,
      "ĠPresident": 3875,
      "ĠCalifornia": 3876,
      "bsite": 3877,
      "ites": 3878,
      "Ġconduct": 3879,
      "Ġclassical": 3880,
      "Ġson": 3881,
      "87": 3882,
      "Ġtask": 3883,
      "Ġinc": 3884,
      "Ġ(-": 3885,
      "OT": 3886,
      "ging": 3887,
      "ened": 3888,
      "Ġcourse": 3889,
      "hips": 3890,
      "ĠProposition": 3891,
      "Ġgrav": 3892,
      "Ġincludes": 3893,
      "ele": 3894,
      "Ġadded": 3895,
      "ĠRepublic": 3896,
      "ville": 3897,
      "Ġsymmetry": 3898,
      "jection": 3899,
      "thing": 3900,
      "Ġkind": 3901,
      "limits": 3902,
      "Ġstage": 3903,
      "After": 3904,
      "ocks": 3905,
      "ico": 3906,
      "Ġdemonstr": 3907,
      "eline": 3908,
      "....": 3909,
      "Ġpattern": 3910,
      "Ġshift": 3911,
      "Ġcompan": 3912,
      "imate": 3913,
      "iers": 3914,
      "ivil": 3915,
      "ĠEngland": 3916,
      "56": 3917,
      "////": 3918,
      "Ġregard": 3919,
      "ĠIndia": 3920,
      "ids": 3921,
      "ached": 3922,
      "41": 3923,
      "Ġrequest": 3924,
      "ÃŃ": 3925,
      "han": 3926,
      "ander": 3927,
      "Bl": 3928,
      "can": 3929,
      "inos": 3930,
      "aged": 3931,
      "Ġgoal": 3932,
      "turb": 3933,
      "Ġofficial": 3934,
      "ael": 3935,
      "Ġstudied": 3936,
      "Ġexpression": 3937,
      "isk": 3938,
      "Ġhistor": 3939,
      "ashed": 3940,
      "ender": 3941,
      ")\\,": 3942,
      "Ġpopular": 3943,
      "ĠStud": 3944,
      "Ġemission": 3945,
      "Qu": 3946,
      "********": 3947,
      "Ġsouth": 3948,
      "ams": 3949,
      "Ġconclud": 3950,
      "atal": 3951,
      "Ġund": 3952,
      "irect": 3953,
      "Ġsense": 3954,
      "_{(": 3955,
      "using": 3956,
      "png": 3957,
      "ĠEast": 3958,
      "IG": 3959,
      "hel": 3960,
      "Ġresulting": 3961,
      ")/": 3962,
      "colon": 3963,
      "xy": 3964,
      "Ġapproximation": 3965,
      "_{-": 3966,
      "\");": 3967,
      "ĠDiv": 3968,
      "Ġexplicit": 3969,
      "asc": 3970,
      "alls": 3971,
      "Ġ\\(": 3972,
      "2022": 3973,
      "pecially": 3974,
      "Ġmix": 3975,
      "crete": 3976,
      "Ġvertex": 3977,
      "'_": 3978,
      "Ġpolitical": 3979,
      "Ġimpact": 3980,
      "Ġarr": 3981,
      "ething": 3982,
      "ĠHamilton": 3983,
      "86": 3984,
      "Ġperm": 3985,
      "body": 3986,
      "Ġ|\\": 3987,
      "Ġparts": 3988,
      "ivial": 3989,
      "Ġepis": 3990,
      "}}(\\": 3991,
      "itz": 3992,
      "ĠTrans": 3993,
      "1997": 3994,
      "ĠHol": 3995,
      "Ġestablish": 3996,
      "Ġdynamics": 3997,
      "Ġess": 3998,
      "Ġvariable": 3999,
      "Ġdeal": 4000,
      "Ġitself": 4001,
      "Ġhtt": 4002,
      "subfigure": 4003,
      "Ġgauge": 4004,
      "Ġembedd": 4005,
      "Sup": 4006,
      "ening": 4007,
      "ĠDes": 4008,
      "ked": 4009,
      "ĠBel": 4010,
      "Ġgalaxies": 4011,
      "ĠOb": 4012,
      "Ġparticle": 4013,
      "||": 4014,
      "Ġsuff": 4015,
      "stitute": 4016,
      "ĠBer": 4017,
      "Ġforce": 4018,
      "Ġareas": 4019,
      "EE": 4020,
      "ĠHere": 4021,
      "Ġsound": 4022,
      "Ġparticles": 4023,
      "uments": 4024,
      "ted": 4025,
      "Ġagre": 4026,
      "det": 4027,
      "ĠCour": 4028,
      "ĠMor": 4029,
      "ĠRiver": 4030,
      "1996": 4031,
      "Ġsold": 4032,
      "Ġvillage": 4033,
      "Ġscheme": 4034,
      "_{{\\": 4035,
      "Ġfem": 4036,
      "Ġdataset": 4037,
      "ĠRoy": 4038,
      "Ġspeed": 4039,
      "Ġdiscussed": 4040,
      "SP": 4041,
      "Ġuses": 4042,
      "Ġbox": 4043,
      "Ġremov": 4044,
      "ropy": 4045,
      "Ġfun": 4046,
      "One": 4047,
      "rd": 4048,
      "ipal": 4049,
      "Ġpref": 4050,
      "Ġmaps": 4051,
      "Ġmoved": 4052,
      "Not": 4053,
      ",\\,": 4054,
      "Value": 4055,
      "definition": 4056,
      "main": 4057,
      "Ġir": 4058,
      "ĠRed": 4059,
      "Ã¼": 4060,
      ")}(": 4061,
      "Ġfront": 4062,
      "ĠOur": 4063,
      "Ġtree": 4064,
      "ĠPal": 4065,
      "ĠParty": 4066,
      "Ġradio": 4067,
      "ĠDem": 4068,
      "Ġ}\\": 4069,
      "ares": 4070,
      "gra": 4071,
      "Ġflo": 4072,
      "aligned": 4073,
      "inct": 4074,
      "OM": 4075,
      "aring": 4076,
      "}$-": 4077,
      "Ġaccept": 4078,
      "Ġfather": 4079,
      "Ġoptimal": 4080,
      "Ġperturb": 4081,
      "uel": 4082,
      "Ġmode": 4083,
      "Ġstructures": 4084,
      "Ġlikely": 4085,
      "Ġsatisfies": 4086,
      "ĠCouncil": 4087,
      "58": 4088,
      "Ġmag": 4089,
      "pc": 4090,
      "Ð¾": 4091,
      "ns": 4092,
      "Ġarbit": 4093,
      "Ġsuccessful": 4094,
      "Ġformula": 4095,
      "fit": 4096,
      "Ġuncertaint": 4097,
      "run": 4098,
      "ands": 4099,
      "Ġannounced": 4100,
      "Ġmove": 4101,
      "Ġaltern": 4102,
      "Ġalthough": 4103,
      "Ġlayer": 4104,
      "Ġtherm": 4105,
      "Ġsamples": 4106,
      "ĠEuropean": 4107,
      "version": 4108,
      "rian": 4109,
      "ĠGo": 4110,
      "Ġgain": 4111,
      "Ġderived": 4112,
      "Ġsimply": 4113,
      "ĠAnt": 4114,
      "Ġapp": 4115,
      "nbsp": 4116,
      "Ġsimulations": 4117,
      "curity": 4118,
      "ĠPaul": 4119,
      "Ġexperiments": 4120,
      "Ġchain": 4121,
      "Ġmid": 4122,
      "When": 4123,
      "cial": 4124,
      "Ġlive": 4125,
      "Ġnegative": 4126,
      "Ġrespons": 4127,
      "fficients": 4128,
      "Ġspectral": 4129,
      "uz": 4130,
      "ios": 4131,
      "State": 4132,
      "lier": 4133,
      "Ġpolar": 4134,
      "pite": 4135,
      "do": 4136,
      "ager": 4137,
      "ka": 4138,
      "ogle": 4139,
      "ĠMal": 4140,
      "Ġinterpre": 4141,
      "Ġreduced": 4142,
      "========": 4143,
      "Ġcos": 4144,
      "Fil": 4145,
      "Ġcoupling": 4146,
      "Ġinternational": 4147,
      "Ġroad": 4148,
      "Ġhyp": 4149,
      "roduction": 4150,
      "ĉĉĉĉĉĉĉĉ": 4151,
      "Ġmedia": 4152,
      "length": 4153,
      "=(": 4154,
      "hand": 4155,
      "Ġdark": 4156,
      "ĠSte": 4157,
      "Ġmeasured": 4158,
      "utive": 4159,
      "ĠCons": 4160,
      "isation": 4161,
      "'\\": 4162,
      "ilarly": 4163,
      "Wh": 4164,
      "range": 4165,
      "Ġexpon": 4166,
      "ĠWhile": 4167,
      "Ġgot": 4168,
      "pan": 4169,
      "ĠPort": 4170,
      "ingu": 4171,
      "Ġshall": 4172,
      "PT": 4173,
      "ty": 4174,
      ")^{\\": 4175,
      "];": 4176,
      "oul": 4177,
      "Ġstop": 4178,
      "Ġnumerical": 4179,
      "Ġwhole": 4180,
      "location": 4181,
      "aign": 4182,
      "Ġparent": 4183,
      "link": 4184,
      "Ġnorm": 4185,
      "ĠSystem": 4186,
      "ĠDo": 4187,
      "ĠThom": 4188,
      "Ġstreng": 4189,
      "People": 4190,
      "LA": 4191,
      "erve": 4192,
      "Ġpolicy": 4193,
      "Ġdocument": 4194,
      "Ġcontract": 4195,
      "Ġclasses": 4196,
      "stein": 4197,
      "ĠHence": 4198,
      "Ġremains": 4199,
      "94": 4200,
      "adian": 4201,
      "asons": 4202,
      "Living": 4203,
      "Now": 4204,
      "Ġselected": 4205,
      "Ġdouble": 4206,
      "rat": 4207,
      "Ġamplit": 4208,
      "Ġfile": 4209,
      "ini": 4210,
      "ya": 4211,
      "ĠStreet": 4212,
      "LO": 4213,
      "Ġpanel": 4214,
      "Ġsupported": 4215,
      "rote": 4216,
      "oding": 4217,
      "Ġreference": 4218,
      "Ġchosen": 4219,
      "rror": 4220,
      "ĠCenter": 4221,
      "ĠGeneral": 4222,
      "ait": 4223,
      "Ġreve": 4224,
      "Ġcharge": 4225,
      "ica": 4226,
      "Ġmomentum": 4227,
      ")_{": 4228,
      "Ġreach": 4229,
      "deg": 4230,
      "Ġfav": 4231,
      "itte": 4232,
      "Ġobser": 4233,
      "Ġnodes": 4234,
      "Ġradius": 4235,
      "ĠCanada": 4236,
      "url": 4237,
      "Ġneeded": 4238,
      "ĠJames": 4239,
      "Ġapplication": 4240,
      "Ġvertices": 4241,
      "ously": 4242,
      "FT": 4243,
      "ĠPe": 4244,
      "ker": 4245,
      "atus": 4246,
      "ayer": 4247,
      "ĠĠĠĠĠĠĠĠĠĠ": 4248,
      "Ġcontribution": 4249,
      "Ġspat": 4250,
      "Ġadapt": 4251,
      "ĠDavid": 4252,
      "empty": 4253,
      "ibrary": 4254,
      "Ġleads": 4255,
      "forall": 4256,
      "Ġwhite": 4257,
      "Ġ+\\": 4258,
      "Te": 4259,
      "Ġmotion": 4260,
      "Ġseg": 4261,
      "93": 4262,
      "ĠRober": 4263,
      "Ġinequality": 4264,
      "eli": 4265,
      "ĠNot": 4266,
      "ĠGroup": 4267,
      "Ġnovel": 4268,
      "Ġaward": 4269,
      "pendix": 4270,
      "Ġparty": 4271,
      "Ġusually": 4272,
      "78": 4273,
      "SI": 4274,
      "rab": 4275,
      "Ġcomparison": 4276,
      "Ġmale": 4277,
      "Ġframework": 4278,
      "aging": 4279,
      "Ð°": 4280,
      "stack": 4281,
      "ĠQue": 4282,
      "1995": 4283,
      "\\!\\!": 4284,
      "ĠRef": 4285,
      "Ġcommunic": 4286,
      "Ġlatter": 4287,
      "MC": 4288,
      "acing": 4289,
      "rick": 4290,
      "vol": 4291,
      "ĠAward": 4292,
      "arp": 4293,
      "Ġpresence": 4294,
      "ĠPat": 4295,
      "ĠSen": 4296,
      "Ġactive": 4297,
      "ptions": 4298,
      "ĠFrance": 4299,
      "Ġnecessary": 4300,
      "Ġexhib": 4301,
      "ols": 4302,
      "92": 4303,
      "black": 4304,
      "ĠChurch": 4305,
      "Class": 4306,
      "1980": 4307,
      "ountain": 4308,
      "pers": 4309,
      "ĠList": 4310,
      "Ġmeasurements": 4311,
      "error": 4312,
      "Ġaccuracy": 4313,
      "ida": 4314,
      "Ġlattice": 4315,
      "Ġlargest": 4316,
      "Is": 4317,
      "subsubsection": 4318,
      "Ġlocation": 4319,
      "Ġpers": 4320,
      "atur": 4321,
      "Here": 4322,
      "Ġpresident": 4323,
      "ĠLaw": 4324,
      "Ġcharg": 4325,
      "Ġupon": 4326,
      "spec": 4327,
      "Ġidea": 4328,
      "Ġword": 4329,
      "textsc": 4330,
      "Ġfigure": 4331,
      ":\\": 4332,
      "Ġcorresponds": 4333,
      "76": 4334,
      "Ġminim": 4335,
      "Ġexpansion": 4336,
      "1994": 4337,
      "acc": 4338,
      "52": 4339,
      "ĠBay": 4340,
      "unity": 4341,
      "Ġlost": 4342,
      "Ġdeep": 4343,
      "Ġmach": 4344,
      "Ġtowards": 4345,
      "CH": 4346,
      "izations": 4347,
      "cho": 4348,
      "oke": 4349,
      "Ġimmedi": 4350,
      "irm": 4351,
      "sequently": 4352,
      "Ġlat": 4353,
      "iny": 4354,
      "wood": 4355,
      "Ġminimum": 4356,
      "irit": 4357,
      "ifying": 4358,
      "orthern": 4359,
      "Ġsomething": 4360,
      "Ġassumption": 4361,
      "ĠGerm": 4362,
      "Ġconcept": 4363,
      "Ġdecl": 4364,
      "Ġworked": 4365,
      "Ġface": 4366,
      "En": 4367,
      "Ġoutside": 4368,
      "ani": 4369,
      "Ġgre": 4370,
      "54": 4371,
      "Ġplane": 4372,
      "Ġscre": 4373,
      "Ġdecom": 4374,
      "History": 4375,
      "Ġdecay": 4376,
      "Ġjob": 4377,
      "Ġyet": 4378,
      "ĠChina": 4379,
      "apping": 4380,
      "Ġcluster": 4381,
      "Ġvolume": 4382,
      "Ġbene": 4383,
      "vex": 4384,
      "ba": 4385,
      "acity": 4386,
      "Ġonline": 4387,
      "ĠRich": 4388,
      "fect": 4389,
      "Ġadopt": 4390,
      "=-": 4391,
      "local": 4392,
      "Pr": 4393,
      "Ġcoefficients": 4394,
      "Ġbar": 4395,
      "reshold": 4396,
      ")^{-": 4397,
      "Ġinteresting": 4398,
      "thern": 4399,
      "iques": 4400,
      "ĠSum": 4401,
      "Ġextended": 4402,
      "Ġmechanism": 4403,
      "check": 4404,
      ".~(\\": 4405,
      "pmatrix": 4406,
      "Ġhyper": 4407,
      "ĠPo": 4408,
      "Ġnetworks": 4409,
      "51": 4410,
      "Ġcollection": 4411,
      "Ġadm": 4412,
      "ĠOlymp": 4413,
      "ĠBlack": 4414,
      "hest": 4415,
      "Ġlaun": 4416,
      "ĠHall": 4417,
      "ube": 4418,
      "Ġrelease": 4419,
      "Ġunits": 4420,
      "summary": 4421,
      "Ġelection": 4422,
      "Ġchoose": 4423,
      "Ġactually": 4424,
      "Eq": 4425,
      "urthermore": 4426,
      "Sim": 4427,
      "Ġqual": 4428,
      "Ðµ": 4429,
      "ĠÃ": 4430,
      "ago": 4431,
      "Ġwhy": 4432,
      "nel": 4433,
      "ades": 4434,
      "Ġissue": 4435,
      "Ġaud": 4436,
      "Ġdraw": 4437,
      "DF": 4438,
      "Ġcompute": 4439,
      "Ġespecially": 4440,
      "ympt": 4441,
      "Ġdual": 4442,
      "Ġrelev": 4443,
      "Man": 4444,
      "ĠFil": 4445,
      "Ġkm": 4446,
      "simeq": 4447,
      "Exception": 4448,
      "Ġdisplay": 4449,
      "Ġdesigned": 4450,
      "ML": 4451,
      "ĠMoreover": 4452,
      "dr": 4453,
      "uses": 4454,
      "MA": 4455,
      "cases": 4456,
      "Ġeasily": 4457,
      "Ġhol": 4458,
      "Ġnight": 4459,
      "isions": 4460,
      "Ġsimulation": 4461,
      "Ġexamples": 4462,
      "Ġfraction": 4463,
      "Ġknowledge": 4464,
      "UT": 4465,
      "ĠGeorge": 4466,
      "raz": 4467,
      "SC": 4468,
      "sol": 4469,
      "Ġlevels": 4470,
      "sto": 4471,
      "Ġquality": 4472,
      "Ġthings": 4473,
      "mes": 4474,
      "Ġstri": 4475,
      "Ġdeaths": 4476,
      "ĠUK": 4477,
      "Ġbelong": 4478,
      "Ġedges": 4479,
      "$).": 4480,
      "}^*": 4481,
      "ĠFl": 4482,
      "anish": 4483,
      "PE": 4484,
      "$(": 4485,
      "gcolor": 4486,
      "ĠMa": 4487,
      "well": 4488,
      "Ġwebsite": 4489,
      "^{+": 4490,
      "Ġdescribe": 4491,
      "outhern": 4492,
      "remark": 4493,
      "Ġ()": 4494,
      "oring": 4495,
      "Tr": 4496,
      "Net": 4497,
      "ĠArmy": 4498,
      "resents": 4499,
      "Ġformed": 4500,
      "Time": 4501,
      "Ġcalculated": 4502,
      "zero": 4503,
      "Ġconsistent": 4504,
      "Ġautom": 4505,
      "``": 4506,
      "Ġsimpl": 4507,
      "\";": 4508,
      "Ġslow": 4509,
      "ĠTV": 4510,
      "icon": 4511,
      "Ġallowed": 4512,
      "ston": 4513,
      "Ġsaf": 4514,
      "gorithms": 4515,
      "SU": 4516,
      "Ġinside": 4517,
      "Ġconstraints": 4518,
      "itar": 4519,
      "anning": 4520,
      "ĠGreen": 4521,
      "Our": 4522,
      "arc": 4523,
      "Ġformation": 4524,
      "dro": 4525,
      "Ġreturned": 4526,
      "Ġshape": 4527,
      "Ġadv": 4528,
      "Ġfollowed": 4529,
      "Ġcustom": 4530,
      "53": 4531,
      "Ġwrote": 4532,
      "Ġinvolved": 4533,
      "ĠString": 4534,
      "Ġstra": 4535,
      "perty": 4536,
      "plication": 4537,
      "Ġlot": 4538,
      "Ġever": 4539,
      "89": 4540,
      "ien": 4541,
      "anks": 4542,
      "1992": 4543,
      "Ġspaces": 4544,
      "Ġcorrelation": 4545,
      "Ġexperimental": 4546,
      "Ġpercent": 4547,
      "Ġorigin": 4548,
      "Ġded": 4549,
      "ĠAssociation": 4550,
      "bour": 4551,
      "Object": 4552,
      "ession": 4553,
      "board": 4554,
      "Sy": 4555,
      "Ġcomes": 4556,
      "Ġavoid": 4557,
      "Ġgrowth": 4558,
      "\\\"": 4559,
      "Ġprocesses": 4560,
      "writ": 4561,
      ")\\\\": 4562,
      "~$\\": 4563,
      "war": 4564,
      "})$.": 4565,
      "Ġlonger": 4566,
      "Gu": 4567,
      "ĠRoman": 4568,
      "flow": 4569,
      "Ġrac": 4570,
      "Test": 4571,
      "Ġtensor": 4572,
      "TR": 4573,
      "Ġlimited": 4574,
      "More": 4575,
      "atform": 4576,
      "Ġconsists": 4577,
      "Ġoperation": 4578,
      "istry": 4579,
      "Ġsus": 4580,
      "Ġmilitary": 4581,
      "Ġestimated": 4582,
      "Ġpie": 4583,
      "Ġscatter": 4584,
      ")}{\\": 4585,
      "Ġrunning": 4586,
      "ĠĠĠĠĠĠĠĠĠĠĠĠ": 4587,
      "={": 4588,
      "}}^": 4589,
      "js": 4590,
      "Ġrock": 4591,
      "sequence": 4592,
      "Theorem": 4593,
      "ashington": 4594,
      "Form": 4595,
      "Ġmonths": 4596,
      "Ġ/**": 4597,
      "Ġoperations": 4598,
      "Ġissues": 4599,
      "Ġdetermine": 4600,
      "Ġgradu": 4601,
      "ogene": 4602,
      "Def": 4603,
      "eler": 4604,
      "Ġbit": 4605,
      "Ġlove": 4606,
      "Ġproper": 4607,
      "Ġdenotes": 4608,
      "Ġhon": 4609,
      "Ġtransport": 4610,
      "Ġargument": 4611,
      "$^{-": 4612,
      "ros": 4613,
      "ĠDepartment": 4614,
      "PC": 4615,
      "84": 4616,
      "Ġquas": 4617,
      "oo": 4618,
      "Ġscalar": 4619,
      "Ġ///": 4620,
      "1993": 4621,
      "Ġeffort": 4622,
      "Ġprocedure": 4623,
      "Im": 4624,
      "Ġthroughout": 4625,
      "Ġoverall": 4626,
      "rice": 4627,
      "Ġneeds": 4628,
      "Ġbgcolor": 4629,
      "$$\\": 4630,
      "cles": 4631,
      "View": 4632,
      "height": 4633,
      "hom": 4634,
      "Ġdeb": 4635,
      "Ġslight": 4636,
      "Ġapplications": 4637,
      "Ġassert": 4638,
      "Ġensure": 4639,
      "Ġsymbol": 4640,
      "}%": 4641,
      "Ġeasy": 4642,
      "Ġrepresented": 4643,
      "59": 4644,
      "Ġuseful": 4645,
      "nes": 4646,
      "Ġdetection": 4647,
      "Ġarray": 4648,
      "input": 4649,
      "Ġthought": 4650,
      "Ġappears": 4651,
      "Ġrule": 4652,
      "Ġten": 4653,
      "Figure": 4654,
      "Ġpressure": 4655,
      "72": 4656,
      "Ã¶": 4657,
      "Ġresolution": 4658,
      "SO": 4659,
      "Ġneighbor": 4660,
      "Ġfeel": 4661,
      "However": 4662,
      "Ġacqu": 4663,
      "Ġ=\\": 4664,
      "ĠNow": 4665,
      "Ġblue": 4666,
      "etimes": 4667,
      "reek": 4668,
      "Ġcurves": 4669,
      "{$\\": 4670,
      "ĠUnion": 4671,
      "ean": 4672,
      ")$-": 4673,
      "omorphic": 4674,
      "Ġpreviously": 4675,
      "Ġstarting": 4676,
      "ald": 4677,
      "Ġdistributions": 4678,
      "public": 4679,
      "First": 4680,
      "But": 4681,
      "ĠMart": 4682,
      "Ġvict": 4683,
      "rief": 4684,
      "Ġangle": 4685,
      "eal": 4686,
      "Ġcategory": 4687,
      "alian": 4688,
      "ilib": 4689,
      "iverse": 4690,
      "ĠEm": 4691,
      "Ġfactors": 4692,
      "lease": 4693,
      "Ġeducation": 4694,
      "Ġdirector": 4695,
      "Ġfully": 4696,
      "ernel": 4697,
      "Ġ&=&": 4698,
      "mc": 4699,
      "ittee": 4700,
      "Ġcompanies": 4701,
      "antic": 4702,
      "Ġdescription": 4703,
      "Ġgenerally": 4704,
      "su": 4705,
      "Ġdra": 4706,
      "ĠCourt": 4707,
      "undle": 4708,
      "Ġinvariant": 4709,
      "Ġcontrast": 4710,
      "Ġtrac": 4711,
      "Ġbehind": 4712,
      "ria": 4713,
      "Ġidentity": 4714,
      "Ġnature": 4715,
      "place": 4716,
      "cons": 4717,
      "Ġnews": 4718,
      "column": 4719,
      "Ġrequires": 4720,
      "inf": 4721,
      "Ġexperience": 4722,
      "Ġrepresents": 4723,
      "values": 4724,
      "Ġsil": 4725,
      "Ġdepends": 4726,
      "hesis": 4727,
      "uls": 4728,
      "Ġforms": 4729,
      "asks": 4730,
      "91": 4731,
      "Ġpolitic": 4732,
      "Ġdig": 4733,
      "Ġappoint": 4734,
      "inv": 4735,
      "Ġexistence": 4736,
      "matrix": 4737,
      "Ġdecision": 4738,
      "dim": 4739,
      "ĠLou": 4740,
      "MN": 4741,
      "Ġcontroll": 4742,
      "Ġexactly": 4743,
      "63": 4744,
      "escription": 4745,
      "Ġforward": 4746,
      "EC": 4747,
      "iency": 4748,
      "Ġaim": 4749,
      "Equ": 4750,
      "Ġprimary": 4751,
      "Or": 4752,
      "overed": 4753,
      "ĠInstitute": 4754,
      "roy": 4755,
      "inant": 4756,
      "Ġadminist": 4757,
      "Ġ...": 4758,
      "0000": 4759,
      "rees": 4760,
      "Ġtoday": 4761,
      "Ġevidence": 4762,
      "});": 4763,
      "ĠSub": 4764,
      "No": 4765,
      "ouri": 4766,
      "ĠNews": 4767,
      "eles": 4768,
      "fe": 4769,
      "ribute": 4770,
      "ollowing": 4771,
      "ĠMat": 4772,
      "ĠMusic": 4773,
      "Ġsolid": 4774,
      "Ġconnect": 4775,
      "Ġfall": 4776,
      "Ġspectra": 4777,
      "Ġscore": 4778,
      "Ġusers": 4779,
      "free": 4780,
      "Ġfire": 4781,
      "pack": 4782,
      "Ġdirected": 4783,
      "ĠGermany": 4784,
      "Ġquite": 4785,
      "Ġteams": 4786,
      "Get": 4787,
      "Ġones": 4788,
      "mapsto": 4789,
      "Ġmemory": 4790,
      "km": 4791,
      "ĠResearch": 4792,
      "neg": 4793,
      "gent": 4794,
      "Ġjoined": 4795,
      "ĠSur": 4796,
      "Pol": 4797,
      "ĠSw": 4798,
      "gin": 4799,
      "dx": 4800,
      "Ġemer": 4801,
      "à¤": 4802,
      "Ġsteps": 4803,
      "));": 4804,
      "ĠCO": 4805,
      "ĠInter": 4806,
      "acher": 4807,
      "Over": 4808,
      "ĠScience": 4809,
      "UR": 4810,
      "Ġincreases": 4811,
      "1970": 4812,
      "Trans": 4813,
      "alg": 4814,
      "bo": 4815,
      "tri": 4816,
      "Ġpage": 4817,
      "ny": 4818,
      "Ġmodern": 4819,
      "Ġcontact": 4820,
      "proposition": 4821,
      "\\|_{": 4822,
      "iral": 4823,
      "ĠBo": 4824,
      "Ġmole": 4825,
      "ki": 4826,
      "Ġwindow": 4827,
      "paramet": 4828,
      "Ġearlier": 4829,
      "ĠRoyal": 4830,
      "Ġsymmetric": 4831,
      "82": 4832,
      "bin": 4833,
      "case": 4834,
      "Ġauth": 4835,
      "Ġessential": 4836,
      "Ġcomputed": 4837,
      "lt": 4838,
      "ederal": 4839,
      "Ġmatrices": 4840,
      "Ġsampl": 4841,
      "inst": 4842,
      "Ġprofile": 4843,
      "ras": 4844,
      "icity": 4845,
      "Ġcontinued": 4846,
      "Ġrecently": 4847,
      "Ġalgorithms": 4848,
      "Ġstrategy": 4849,
      "ymm": 4850,
      "ĠClass": 4851,
      "Ġdependence": 4852,
      "Ġexcept": 4853,
      "ĠAustralian": 4854,
      "ponent": 4855,
      "ĠIm": 4856,
      "Ġattention": 4857,
      "ĠRoad": 4858,
      "Ġcampaign": 4859,
      "Ġcurrently": 4860,
      "Ġintroduce": 4861,
      "ĠEar": 4862,
      "Ġrates": 4863,
      "Ġhimself": 4864,
      "gg": 4865,
      "sey": 4866,
      "ĠJack": 4867,
      "ona": 4868,
      "Ġ~": 4869,
      "ĠNor": 4870,
      "Ġdefe": 4871,
      "ĠSing": 4872,
      "ees": 4873,
      "Ġstellar": 4874,
      "Ġaccom": 4875,
      "Ġpairs": 4876,
      "Thus": 4877,
      "Ġmodes": 4878,
      "Ġball": 4879,
      "1991": 4880,
      "Ġquad": 4881,
      "Ġrail": 4882,
      "Ġsignificantly": 4883,
      "Ġframe": 4884,
      "ĠGaussian": 4885,
      "ĠDivision": 4886,
      "ental": 4887,
      "Ġorg": 4888,
      "amily": 4889,
      "Ġ!=": 4890,
      "}}^{": 4891,
      "Ġansw": 4892,
      "fil": 4893,
      "Ġdrop": 4894,
      "Ġprofessional": 4895,
      "Ġselection": 4896,
      "selves": 4897,
      "Ġsingular": 4898,
      "Ġconstit": 4899,
      "Ġcompleted": 4900,
      "inese": 4901,
      "Ġcore": 4902,
      "Ġarticle": 4903,
      "().": 4904,
      "Ġconnection": 4905,
      "Ġopened": 4906,
      "Ġplaying": 4907,
      "Ġoffice": 4908,
      "Ġrecorded": 4909,
      "sembly": 4910,
      "graph": 4911,
      "Ġtax": 4912,
      "ĠArch": 4913,
      "nav": 4914,
      "Ġrelevant": 4915,
      "ĠScott": 4916,
      "ĠDuring": 4917,
      "Ġdepart": 4918,
      "uations": 4919,
      "Ġmarried": 4920,
      "Ġtravel": 4921,
      "Ġliterature": 4922,
      "LS": 4923,
      "Ġveh": 4924,
      "Ġextension": 4925,
      "Ġprote": 4926,
      "Ġpractice": 4927,
      "Ġassist": 4928,
      "ression": 4929,
      "ilies": 4930,
      "62": 4931,
      "oto": 4932,
      "ado": 4933,
      "Key": 4934,
      "Ġselect": 4935,
      "rium": 4936,
      "ĠFe": 4937,
      "FA": 4938,
      "Ġarbitrary": 4939,
      "ĠWashington": 4940,
      "Ġrace": 4941,
      "ION": 4942,
      "ĠRobert": 4943,
      "Ġtell": 4944,
      "Ġexpand": 4945,
      "Ġhot": 4946,
      "Ġmother": 4947,
      "Ġforces": 4948,
      "Ġagreement": 4949,
      "prob": 4950,
      "74": 4951,
      "va": 4952,
      "Table": 4953,
      "ĠLeg": 4954,
      "Ġproduce": 4955,
      "$;": 4956,
      "Ġdisk": 4957,
      "quot": 4958,
      "liament": 4959,
      "Ġsquare": 4960,
      "iences": 4961,
      "Ġsongs": 4962,
      "Ġmis": 4963,
      "_-": 4964,
      "arks": 4965,
      "ĠCap": 4966,
      "Ġfeed": 4967,
      "83": 4968,
      "aker": 4969,
      "Sub": 4970,
      "ishes": 4971,
      "riz": 4972,
      "Ġestimates": 4973,
      "itable": 4974,
      "mi": 4975,
      "ĠSpec": 4976,
      "Ġfast": 4977,
      "Ġfill": 4978,
      "ĠMary": 4979,
      "((": 4980,
      "Hz": 4981,
      "uting": 4982,
      "Ġmicro": 4983,
      "Ġconcern": 4984,
      "mission": 4985,
      "Ġyields": 4986,
      "61": 4987,
      "Ġ$$": 4988,
      "true": 4989,
      "bi": 4990,
      "olar": 4991,
      "Ġproducts": 4992,
      "Ġcosm": 4993,
      "Ġtro": 4994,
      "witch": 4995,
      "Ð¸": 4996,
      "odot": 4997,
      "Ġconserv": 4998,
      "comple": 4999,
      "Ġstable": 5000,
      "ĠAlex": 5001,
      "Error": 5002,
      "Ġrap": 5003,
      "net": 5004,
      "Ġtheore": 5005,
      "Ġdate": 5006,
      "Ġspatial": 5007,
      "EM": 5008,
      "ifier": 5009,
      "Ġasympt": 5010,
      "\"></": 5011,
      "Ġdaugh": 5012,
      "corpor": 5013,
      "estival": 5014,
      "AG": 5015,
      "ĠAut": 5016,
      "ĠSome": 5017,
      "73": 5018,
      "\\_": 5019,
      "ancial": 5020,
      "Ġmarg": 5021,
      "Ġremaining": 5022,
      "79": 5023,
      "ĠWil": 5024,
      "Ġcast": 5025,
      "Ġrules": 5026,
      "FC": 5027,
      "So": 5028,
      "Ġmaintain": 5029,
      "Ġbrother": 5030,
      "Ġchem": 5031,
      "ĠAcadem": 5032,
      "Ġeight": 5033,
      "ĠDay": 5034,
      "Ġboard": 5035,
      "Ġgave": 5036,
      "Ġconfiguration": 5037,
      "BS": 5038,
      "Ġorb": 5039,
      "Ġthreshold": 5040,
      "newcommand": 5041,
      "inder": 5042,
      "reme": 5043,
      "Ġheight": 5044,
      "Ġconvergence": 5045,
      "Ġclassification": 5046,
      "ĠHow": 5047,
      "$~": 5048,
      "ĠSam": 5049,
      "Ġstraight": 5050,
      "Ġvariety": 5051,
      "multi": 5052,
      "Ġjud": 5053,
      "Ġapproaches": 5054,
      "asket": 5055,
      "Ġimm": 5056,
      "Ġbul": 5057,
      "ĠWork": 5058,
      "Ġanalog": 5059,
      "Ġmanifold": 5060,
      "ĠCompany": 5061,
      "seud": 5062,
      "ensus": 5063,
      "Ġhoriz": 5064,
      "ye": 5065,
      "Ġtransl": 5066,
      "rie": 5067,
      "Ġpropag": 5068,
      "'(": 5069,
      "\\{\\": 5070,
      "Ġstatement": 5071,
      "Ġplot": 5072,
      "Ġcounter": 5073,
      "Ġwide": 5074,
      "ĠHen": 5075,
      ")_": 5076,
      "Ġdistinct": 5077,
      "ĠMex": 5078,
      "81": 5079,
      "ĠSociety": 5080,
      "Ġpoly": 5081,
      "ĠPress": 5082,
      "Ġdam": 5083,
      "ĠRuss": 5084,
      "ading": 5085,
      "ĠHamiltonian": 5086,
      "rons": 5087,
      "Ġmeasurement": 5088,
      "Ġtrain": 5089,
      "pace": 5090,
      "'}": 5091,
      "ĠOff": 5092,
      "Ġchurch": 5093,
      "Ġmentioned": 5094,
      "Ġerrors": 5095,
      "ĠSl": 5096,
      "Ġapproximately": 5097,
      "Ġanti": 5098,
      "elt": 5099,
      "ags": 5100,
      "tag": 5101,
      "69": 5102,
      "Ġmoney": 5103,
      "Ġbasic": 5104,
      "300": 5105,
      "ĠDef": 5106,
      "ĠGold": 5107,
      "Ġliving": 5108,
      "ĠOther": 5109,
      "Ġidentified": 5110,
      "Ġhighest": 5111,
      "Ġreplaced": 5112,
      "ĠVol": 5113,
      "rec": 5114,
      "Ġinteractions": 5115,
      ".</": 5116,
      "burg": 5117,
      "Ġquick": 5118,
      "Ġappeared": 5119,
      "ĠVir": 5120,
      "yr": 5121,
      "Ġdebut": 5122,
      "Ġrights": 5123,
      "apter": 5124,
      "Ġfix": 5125,
      "Ġsituation": 5126,
      "Ġbur": 5127,
      "font": 5128,
      "ih": 5129,
      "kin": 5130,
      "Ġruns": 5131,
      "mail": 5132,
      "ĠGra": 5133,
      "user": 5134,
      "Ġlack": 5135,
      "|_{": 5136,
      "ĠRad": 5137,
      "Ġrelationship": 5138,
      "ĠJust": 5139,
      "Ġreconst": 5140,
      "Ġste": 5141,
      "Ġter": 5142,
      "Ġextract": 5143,
      "Ġsigned": 5144,
      "Ġassumed": 5145,
      "irtual": 5146,
      ".$": 5147,
      "amental": 5148,
      "Ġcourt": 5149,
      "nowled": 5150,
      "Ġsex": 5151,
      "agraph": 5152,
      "ĠMet": 5153,
      "You": 5154,
      "oice": 5155,
      "example": 5156,
      "Ġpersonal": 5157,
      "Ġcharacters": 5158,
      "\":": 5159,
      "ĠMichael": 5160,
      "ench": 5161,
      "mann": 5162,
      "ĠClub": 5163,
      "zer": 5164,
      "Ġinternal": 5165,
      "abilities": 5166,
      "rot": 5167,
      "ĠBest": 5168,
      "then": 5169,
      "Ġextra": 5170,
      "Ġcam": 5171,
      "ĠFound": 5172,
      "Ġconcent": 5173,
      "nov": 5174,
      "Ġcollect": 5175,
      "Ġtechniques": 5176,
      "Ġmeaning": 5177,
      "71": 5178,
      "stant": 5179,
      "Ġwind": 5180,
      "Ġwife": 5181,
      "OD": 5182,
      ")+\\": 5183,
      "Ġmorph": 5184,
      "ĠDemoc": 5185,
      "Ġindustry": 5186,
      "Ġseems": 5187,
      "ala": 5188,
      "oi": 5189,
      "Ġstated": 5190,
      "1989": 5191,
      "Ġcontributions": 5192,
      "Ġconstructed": 5193,
      "Ġapprop": 5194,
      "Ġincreased": 5195,
      "ĠBook": 5196,
      "ospital": 5197,
      "Ġsurv": 5198,
      "ifically": 5199,
      "Ġseem": 5200,
      "ĠCong": 5201,
      "etime": 5202,
      "Ġrepe": 5203,
      "ena": 5204,
      "Ġnom": 5205,
      "ĠChampionship": 5206,
      "tik": 5207,
      "Ġcomputation": 5208,
      "Ġlisted": 5209,
      "cong": 5210,
      "../../../../": 5211,
      "amely": 5212,
      "Ġobserve": 5213,
      "unt": 5214,
      "());": 5215,
      "ether": 5216,
      "Ġinj": 5217,
      "ocol": 5218,
      "}}$.": 5219,
      "mma": 5220,
      "arter": 5221,
      "Ġconsum": 5222,
      "aily": 5223,
      "Ġwriting": 5224,
      "displaystyle": 5225,
      "ui": 5226,
      "Ġpolice": 5227,
      "Ġformal": 5228,
      "idden": 5229,
      "Ne": 5230,
      "spect": 5231,
      "Ġnames": 5232,
      "Ġcommand": 5233,
      "Ġsure": 5234,
      "Ġauthors": 5235,
      "picture": 5236,
      "ĉĉĉĉĉ": 5237,
      "Ġship": 5238,
      "Ġhighly": 5239,
      "Ġcompletely": 5240,
      "LP": 5241,
      "obile": 5242,
      "Ġfood": 5243,
      "ĠMad": 5244,
      "nother": 5245,
      "Ġthrow": 5246,
      "overy": 5247,
      "ĠJer": 5248,
      "vention": 5249,
      "minip": 5250,
      "End": 5251,
      "ĠIsland": 5252,
      "ĠTechn": 5253,
      "}&": 5254,
      "ĠWhite": 5255,
      "cis": 5256,
      "pp": 5257,
      "Ġinner": 5258,
      "sect": 5259,
      "Ġcombination": 5260,
      "ĠTex": 5261,
      "Ġjoint": 5262,
      "Ġvectors": 5263,
      "})$,": 5264,
      "Ġult": 5265,
      "bon": 5266,
      "Ġmonth": 5267,
      "oz": 5268,
      "Ġelectric": 5269,
      "minipage": 5270,
      "produ": 5271,
      "osing": 5272,
      "IP": 5273,
      "ĠRem": 5274,
      "}}$,": 5275,
      "Ġoptical": 5276,
      "Ġcoach": 5277,
      "stra": 5278,
      "ibly": 5279,
      "ita": 5280,
      "Ġmessage": 5281,
      "ĠProv": 5282,
      "CS": 5283,
      "Ġring": 5284,
      "eria": 5285,
      "scill": 5286,
      "Text": 5287,
      "print": 5288,
      "izer": 5289,
      "Ġfriend": 5290,
      "Reg": 5291,
      "Ġtor": 5292,
      "Ġ?": 5293,
      "ĠLand": 5294,
      "ĠMag": 5295,
      "Ġexisting": 5296,
      "FL": 5297,
      "Ġdiscussion": 5298,
      "umni": 5299,
      "](": 5300,
      "Ġtreatment": 5301,
      "ilibrium": 5302,
      "!--": 5303,
      "tem": 5304,
      "Ġgalaxy": 5305,
      "Ġreveal": 5306,
      "ĠTur": 5307,
      "Ġfight": 5308,
      "unk": 5309,
      "word": 5310,
      "Ġdifferential": 5311,
      "Ġpure": 5312,
      "irl": 5313,
      "ĠMiss": 5314,
      "ĠMac": 5315,
      "Ġproved": 5316,
      "airs": 5317,
      "ua": 5318,
      "ĠLie": 5319,
      "win": 5320,
      "Ġwalk": 5321,
      "Ġmar": 5322,
      "Ġefficient": 5323,
      "ĠYear": 5324,
      "next": 5325,
      "Ġtransformation": 5326,
      "ĠMer": 5327,
      "Ġshare": 5328,
      "Ġbal": 5329,
      "ĠWhat": 5330,
      "ĠAfrica": 5331,
      "._": 5332,
      ")-\\": 5333,
      "Ġimprove": 5334,
      "ĠGames": 5335,
      "Ġbranch": 5336,
      "ĠAlso": 5337,
      "Ġinteger": 5338,
      "Ġregime": 5339,
      "vement": 5340,
      "Ġcoordinates": 5341,
      "tikz": 5342,
      "Ġcompare": 5343,
      "rey": 5344,
      "arant": 5345,
      "Co": 5346,
      "object": 5347,
      "reedom": 5348,
      "ought": 5349,
      "Ġorient": 5350,
      "Ġtour": 5351,
      "Ġsatisfy": 5352,
      "ulate": 5353,
      "())": 5354,
      "Ġoccup": 5355,
      "Ġvisual": 5356,
      "Ġleaders": 5357,
      "ĠCentral": 5358,
      "omic": 5359,
      "Ġsaw": 5360,
      "TH": 5361,
      "Ġreson": 5362,
      "{{": 5363,
      "Of": 5364,
      "1988": 5365,
      "Ġsyn": 5366,
      "ĠCanadian": 5367,
      "Ġflat": 5368,
      "ci": 5369,
      "Ġcontaining": 5370,
      "Ġinterval": 5371,
      "olf": 5372,
      "cel": 5373,
      "ĠGod": 5374,
      "arr": 5375,
      "Ġlink": 5376,
      "ĠGreat": 5377,
      "gener": 5378,
      "}{(": 5379,
      "Ġparticularly": 5380,
      "hbar": 5381,
      "ĠThomas": 5382,
      "Ġbirth": 5383,
      "Ġnotation": 5384,
      "ĠTown": 5385,
      "ĠBur": 5386,
      "ano": 5387,
      "Ġ/>": 5388,
      "SM": 5389,
      "ĠOut": 5390,
      "Ġabsor": 5391,
      "Ġcry": 5392,
      "ĠAfrican": 5393,
      "Ġhit": 5394,
      "hal": 5395,
      "Ġbooks": 5396,
      "config": 5397,
      "uge": 5398,
      "ĠTom": 5399,
      "ĠSal": 5400,
      "Ã¤": 5401,
      "Ġhours": 5402,
      "Ġtalk": 5403,
      "Ġchalleng": 5404,
      "cd": 5405,
      "Ġvac": 5406,
      "Ġbring": 5407,
      "Ġplaces": 5408,
      "iti": 5409,
      "Fe": 5410,
      "elli": 5411,
      "Ġscattering": 5412,
      "result": 5413,
      "Ġcalc": 5414,
      "Ġschools": 5415,
      "ING": 5416,
      "Ġtechnology": 5417,
      "Ġcountries": 5418,
      "oken": 5419,
      "Ġshowed": 5420,
      "ducation": 5421,
      "Ġsecurity": 5422,
      "Ġrelatively": 5423,
      "magn": 5424,
      "Ġheavy": 5425,
      "idents": 5426,
      "1960": 5427,
      "Ġoscill": 5428,
      "cs": 5429,
      "udes": 5430,
      "Ġbey": 5431,
      "))$": 5432,
      "block": 5433,
      "edy": 5434,
      "Ġcontinue": 5435,
      "Ġreduce": 5436,
      "[(": 5437,
      "Ġpick": 5438,
      "Ġreached": 5439,
      "Ġvs": 5440,
      "These": 5441,
      ")},": 5442,
      "ĠFin": 5443,
      "Ġgeneration": 5444,
      "ĠSecond": 5445,
      "Ġ$|\\": 5446,
      "ĠKe": 5447,
      "ĠJew": 5448,
      "Ġseven": 5449,
      "Ġinduced": 5450,
      "istical": 5451,
      "Ġepisode": 5452,
      "Ġhypot": 5453,
      "page": 5454,
      "Ġwor": 5455,
      "Ġmus": 5456,
      "ĠDan": 5457,
      "Ġbeyond": 5458,
      "}$)": 5459,
      "bt": 5460,
      "aur": 5461,
      "Ġaffect": 5462,
      "ĠJapanese": 5463,
      "Ġhous": 5464,
      "Requ": 5465,
      "Out": 5466,
      "Ġmissing": 5467,
      "ĠKingdom": 5468,
      "']": 5469,
      "=#": 5470,
      "rish": 5471,
      "uan": 5472,
      "pat": 5473,
      "Ġcells": 5474,
      "$),": 5475,
      "isher": 5476,
      "MM": 5477,
      "Ġexam": 5478,
      "Ġdefault": 5479,
      "Ġgenerate": 5480,
      "Ġslightly": 5481,
      "ĠMuseum": 5482,
      "BA": 5483,
      "ĠAccording": 5484,
      "plate": 5485,
      "hemat": 5486,
      "What": 5487,
      "Ġbottom": 5488,
      "itch": 5489,
      "Ġstrength": 5490,
      "ictor": 5491,
      "Ġmasses": 5492,
      "}({\\": 5493,
      "weight": 5494,
      "Ġbr": 5495,
      "&=&": 5496,
      "ĠRob": 5497,
      "Ġgreater": 5498,
      "GC": 5499,
      "gt": 5500,
      "Ð½": 5501,
      "ĠGrand": 5502,
      "1987": 5503,
      "Ġunivers": 5504,
      "za": 5505,
      "Ġnoted": 5506,
      "ader": 5507,
      "Ġprogress": 5508,
      "Ġtim": 5509,
      "Ġpen": 5510,
      "Ġcred": 5511,
      "oder": 5512,
      "real": 5513,
      "ĠDon": 5514,
      "bel": 5515,
      "}{|": 5516,
      "Ġbeam": 5517,
      "Ġbinary": 5518,
      "Ġetc": 5519,
      "Ġcop": 5520,
      "ipp": 5521,
      "ĠAlthough": 5522,
      "kl": 5523,
      "west": 5524,
      "inger": 5525,
      "ĠSuper": 5526,
      "Ġ]": 5527,
      "');": 5528,
      "ĠEqu": 5529,
      "fort": 5530,
      "ĠRussian": 5531,
      "otted": 5532,
      "inem": 5533,
      "ÑĤ": 5534,
      "Ġeast": 5535,
      "iring": 5536,
      "Ġotherwise": 5537,
      "ogeneous": 5538,
      "ĠCath": 5539,
      "Ġcircle": 5540,
      "Ġbeginning": 5541,
      "ski": 5542,
      "Ġcoming": 5543,
      "Ġinstall": 5544,
      "Ġsemi": 5545,
      "char": 5546,
      "tot": 5547,
      "Ġideal": 5548,
      "Model": 5549,
      "Ġeventually": 5550,
      "Spec": 5551,
      "itely": 5552,
      "mage": 5553,
      "Ġ{$": 5554,
      "Ġgovern": 5555,
      "Ġamplitude": 5556,
      "asketball": 5557,
      ":}": 5558,
      "Ġobservation": 5559,
      "rought": 5560,
      "Ġtold": 5561,
      "ĠChinese": 5562,
      "NA": 5563,
      "system": 5564,
      "Ġmeasures": 5565,
      "ira": 5566,
      "ĠOf": 5567,
      "++": 5568,
      "Ġparallel": 5569,
      "Ġperfect": 5570,
      "Ġabsol": 5571,
      "Ġdidn": 5572,
      "Build": 5573,
      "ĠGal": 5574,
      "ĠMinister": 5575,
      "rong": 5576,
      "ĠSun": 5577,
      "Ġjournal": 5578,
      "active": 5579,
      "bigl": 5580,
      "ĠChristian": 5581,
      "=\"+": 5582,
      "Ġnucle": 5583,
      "Ġbad": 5584,
      "cular": 5585,
      "Ġsoon": 5586,
      "CP": 5587,
      "Ġreplace": 5588,
      "Ġrisk": 5589,
      "lam": 5590,
      "ĠDel": 5591,
      "Ġorth": 5592,
      "Ġequip": 5593,
      ")}_{": 5594,
      "Ġwest": 5595,
      "fess": 5596,
      "sur": 5597,
      "Ġconclude": 5598,
      "['": 5599,
      "Ġrelig": 5600,
      "floor": 5601,
      "ribution": 5602,
      "Ġbrief": 5603,
      "Ġminimal": 5604,
      "rial": 5605,
      "Ġfinally": 5606,
      "anned": 5607,
      "enge": 5608,
      "ils": 5609,
      ",\\\\": 5610,
      "Add": 5611,
      "Ġsoftware": 5612,
      "Ġfamilies": 5613,
      "Ġclearly": 5614,
      "Ser": 5615,
      "Ġphen": 5616,
      "Ġvary": 5617,
      "Ġreading": 5618,
      "Ġthick": 5619,
      "IV": 5620,
      "Ġvocal": 5621,
      "Ġactivity": 5622,
      "ĠWestern": 5623,
      "arts": 5624,
      "Bar": 5625,
      "Ġstrongly": 5626,
      "ĠDis": 5627,
      "pty": 5628,
      "ĠTexas": 5629,
      "LB": 5630,
      "Ġcombined": 5631,
      "lig": 5632,
      "Introduction": 5633,
      "hing": 5634,
      "CE": 5635,
      "azine": 5636,
      "Ġkilled": 5637,
      "Ġmanagement": 5638,
      "grad": 5639,
      "TV": 5640,
      "1986": 5641,
      "Ġmagnitude": 5642,
      "Ġalbums": 5643,
      "eturn": 5644,
      "bigr": 5645,
      "'re": 5646,
      "ĠKore": 5647,
      "ĠAcademy": 5648,
      "mas": 5649,
      "ĠHig": 5650,
      "Ġplaced": 5651,
      "Ġanim": 5652,
      "Ġaccur": 5653,
      "ĠSmith": 5654,
      "Ġprediction": 5655,
      "ĠPet": 5656,
      "itors": 5657,
      "awa": 5658,
      "ĠIsra": 5659,
      "Ġgraphs": 5660,
      "Ġplatform": 5661,
      "Ġer": 5662,
      "abil": 5663,
      "NS": 5664,
      "Eng": 5665,
      "ĠMus": 5666,
      "Therefore": 5667,
      "Ġtraditional": 5668,
      "GB": 5669,
      "current": 5670,
      "Ġgap": 5671,
      "esh": 5672,
      "ĠCarol": 5673,
      "rame": 5674,
      "Ed": 5675,
      "File": 5676,
      "Ġinfluence": 5677,
      "Ġstaff": 5678,
      "Ġtrade": 5679,
      "jo": 5680,
      "Ġchanged": 5681,
      "Ġcomment": 5682,
      "Ġscient": 5683,
      "Ġaxis": 5684,
      "lesssim": 5685,
      "Ġdevi": 5686,
      "Ġlum": 5687,
      "Ġdaughter": 5688,
      "ĠHealth": 5689,
      "]{\\": 5690,
      "Ġonto": 5691,
      "men": 5692,
      "PI": 5693,
      "annels": 5694,
      "Ġroom": 5695,
      "Ġener": 5696,
      "Ġbounds": 5697,
      "Ġmodule": 5698,
      "Ġleague": 5699,
      "agement": 5700,
      "ĠMont": 5701,
      "Ġcause": 5702,
      "-$": 5703,
      "ĠDen": 5704,
      "Ġredshift": 5705,
      "Ġconvex": 5706,
      "ga": 5707,
      "ĠTor": 5708,
      "Ġstatus": 5709,
      "Ass": 5710,
      "faces": 5711,
      "Ġdecomposition": 5712,
      "ĠFore": 5713,
      "Ġodd": 5714,
      "rich": 5715,
      "(),": 5716,
      "Ġcard": 5717,
      "Ġfourth": 5718,
      "Ġexpressed": 5719,
      "gies": 5720,
      "Ġgrid": 5721,
      "road": 5722,
      "Ġnearly": 5723,
      "ĠRecords": 5724,
      "Ġ${": 5725,
      "orage": 5726,
      "Ġsports": 5727,
      "Ġdevice": 5728,
      "Ġagent": 5729,
      "Ġunion": 5730,
      "cccc": 5731,
      "Ġimmediately": 5732,
      "olean": 5733,
      "ĠCD": 5734,
      "atre": 5735,
      "Ġgradient": 5736,
      "arse": 5737,
      "Cons": 5738,
      "force": 5739,
      "Ġborder": 5740,
      "TE": 5741,
      "cref": 5742,
      "ĠHistor": 5743,
      "Ġstrict": 5744,
      "Ġreduction": 5745,
      "ĠUnder": 5746,
      "Ġtun": 5747,
      "Ġdistributed": 5748,
      "MR": 5749,
      "1984": 5750,
      "Ġmachine": 5751,
      "Ġidentify": 5752,
      "~~~~": 5753,
      ")}}": 5754,
      "Ġopport": 5755,
      "Ġcalculations": 5756,
      "Ġthing": 5757,
      "rect": 5758,
      "ĠZeal": 5759,
      "date": 5760,
      "inu": 5761,
      "ĠBill": 5762,
      "ĠHill": 5763,
      "otion": 5764,
      "ĠFinally": 5765,
      "Ġarchitecture": 5766,
      "Ġthemselves": 5767,
      "1985": 5768,
      "quare": 5769,
      "mass": 5770,
      "Ġtypically": 5771,
      "thlet": 5772,
      "Ġinstit": 5773,
      "ĠItalian": 5774,
      "opic": 5775,
      "term": 5776,
      "ĠLouis": 5777,
      "Ġsplit": 5778,
      "Ġelected": 5779,
      "Per": 5780,
      "Ġlemma": 5781,
      "fs": 5782,
      "Ġcaused": 5783,
      "Ġdetailed": 5784,
      "Ġhttp": 5785,
      "ĠPublic": 5786,
      "Ġpartition": 5787,
      "Ġfounded": 5788,
      "Ġtheoretical": 5789,
      "first": 5790,
      "gu": 5791,
      "ĠTwo": 5792,
      "ĠEach": 5793,
      "bu": 5794,
      "stream": 5795,
      "Ġdepth": 5796,
      "Ġharm": 5797,
      "md": 5798,
      "Ġcycle": 5799,
      "Ġtypical": 5800,
      "Ġmut": 5801,
      "Ġ__": 5802,
      "Ġbehavi": 5803,
      "ĠLat": 5804,
      "Ġsen": 5805,
      "Ġaspect": 5806,
      "mercial": 5807,
      "Ġcandidate": 5808,
      "Ġoptimization": 5809,
      "Ġthermal": 5810,
      "Ġfluct": 5811,
      "DA": 5812,
      "pression": 5813,
      "hbox": 5814,
      "ĠZealand": 5815,
      "process": 5816,
      "ĠBrown": 5817,
      "conn": 5818,
      "Ġpaint": 5819,
      "Ġachieved": 5820,
      "abase": 5821,
      "inding": 5822,
      "bottom": 5823,
      "oma": 5824,
      "####": 5825,
      "Ġresol": 5826,
      "Ġkernel": 5827,
      "oting": 5828,
      "reland": 5829,
      "onical": 5830,
      "CA": 5831,
      "Ġmind": 5832,
      "Ġgold": 5833,
      "module": 5834,
      "scriptstyle": 5835,
      "ĠInst": 5836,
      "Ġminutes": 5837,
      "Ġfilter": 5838,
      "has": 5839,
      "Ġplant": 5840,
      "Ġcontained": 5841,
      "Ġdoesn": 5842,
      "Ġtasks": 5843,
      "Ġpartial": 5844,
      "Ġdoing": 5845,
      "inations": 5846,
      "Aut": 5847,
      "Ġscience": 5848,
      "Ġgreen": 5849,
      "Path": 5850,
      "Ġinstrum": 5851,
      "count": 5852,
      "lood": 5853,
      "base": 5854,
      "pa": 5855,
      "anda": 5856,
      "Ġindicates": 5857,
      "FR": 5858,
      "such": 5859,
      "Ġfundamental": 5860,
      "]$.": 5861,
      "ifferent": 5862,
      "iant": 5863,
      "Ġmoving": 5864,
      "Finally": 5865,
      "Ġexcit": 5866,
      "pton": 5867,
      "Ġwoman": 5868,
      "Ġguitar": 5869,
      "Ġprint": 5870,
      "^*$": 5871,
      "Ġdifferences": 5872,
      "ola": 5873,
      "Ġfunctional": 5874,
      "Ġsegment": 5875,
      "lete": 5876,
      "ĠCharles": 5877,
      "Ġloop": 5878,
      "ĠJose": 5879,
      "Ġcov": 5880,
      "ĠSta": 5881,
      "Ġplays": 5882,
      "ufact": 5883,
      "Me": 5884,
      "Ġinfinite": 5885,
      "Ġtempor": 5886,
      "Ġinterpret": 5887,
      "Ġfemale": 5888,
      "cr": 5889,
      "Ġdenoted": 5890,
      "$_{": 5891,
      "HE": 5892,
      "ariance": 5893,
      "ĠRail": 5894,
      "ĠVirgin": 5895,
      "Ġgrant": 5896,
      "Ġinde": 5897,
      "\\}$.": 5898,
      "Ġtrained": 5899,
      "Ġmiddle": 5900,
      "Ġprobably": 5901,
      "Color": 5902,
      "ĠBen": 5903,
      "Ġlooking": 5904,
      "icago": 5905,
      "NR": 5906,
      "Ġability": 5907,
      "She": 5908,
      "Ġcivil": 5909,
      "ĠFlor": 5910,
      "Ġsn": 5911,
      "GL": 5912,
      ":=": 5913,
      "ests": 5914,
      "core": 5915,
      "rupt": 5916,
      "Inter": 5917,
      "Ġupdate": 5918,
      "Ġsubgroup": 5919,
      "Ġseparate": 5920,
      "ĠSummer": 5921,
      "cf": 5922,
      "Sch": 5923,
      "illa": 5924,
      "Ġscales": 5925,
      "ĠPeter": 5926,
      "Ġsatisfying": 5927,
      "Ġways": 5928,
      "Ġangular": 5929,
      "Ġappropriate": 5930,
      "ometric": 5931,
      "Ġpreserv": 5932,
      "Ġcru": 5933,
      "ĠMass": 5934,
      "Ġsections": 5935,
      "Ġappointed": 5936,
      "ircraft": 5937,
      "Ġcalculation": 5938,
      "SD": 5939,
      "elled": 5940,
      "apers": 5941,
      "='": 5942,
      "Ġdiscrete": 5943,
      "avel": 5944,
      "Ġlayers": 5945,
      "ÑĢ": 5946,
      ",$": 5947,
      "Ġconvert": 5948,
      "Ġutil": 5949,
      "]}": 5950,
      "Ġroot": 5951,
      "void": 5952,
      "Ġamb": 5953,
      "rump": 5954,
      "Ġcele": 5955,
      "sch": 5956,
      "Ġhydro": 5957,
      "Ġuncertainty": 5958,
      "ĠAnn": 5959,
      "ao": 5960,
      "ĠFootball": 5961,
      "Ġoriginally": 5962,
      "Ġpositions": 5963,
      "ette": 5964,
      "PP": 5965,
      "Ġbuildings": 5966,
      "IL": 5967,
      "ipl": 5968,
      "Ġachieve": 5969,
      "Ġrotation": 5970,
      "ko": 5971,
      "ride": 5972,
      "TD": 5973,
      "Ġtraject": 5974,
      "Ġproport": 5975,
      "400": 5976,
      "ĠIts": 5977,
      "Ġgoes": 5978,
      "Ġcapital": 5979,
      "Ġgiving": 5980,
      "ĠFurthermore": 5981,
      "ĠCur": 5982,
      "alysis": 5983,
      "ĠService": 5984,
      "Ġsurround": 5985,
      "ĠSaint": 5986,
      "ican": 5987,
      "Ġdimensions": 5988,
      "cz": 5989,
      "Ġfair": 5990,
      "ĠSet": 5991,
      "Ġinsp": 5992,
      ",\\,\\": 5993,
      "Ġcomputer": 5994,
      "Ġ-->": 5995,
      "Ġhole": 5996,
      "Ġfinished": 5997,
      "ĠFrancis": 5998,
      "Ġbelieve": 5999,
      "Ġexponential": 6000,
      "...,": 6001,
      "}}_{\\": 6002,
      "Ġconsidering": 6003,
      "Ġoptions": 6004,
      "itation": 6005,
      "Ġexternal": 6006,
      "Ġdecided": 6007,
      "Ġminor": 6008,
      "Event": 6009,
      "Map": 6010,
      "itivity": 6011,
      "method": 6012,
      "$:": 6013,
      "Ġpow": 6014,
      "irector": 6015,
      "ĠRichard": 6016,
      "while": 6017,
      "Ġ[\\": 6018,
      "ĠMo": 6019,
      "eds": 6020,
      "1983": 6021,
      "dy": 6022,
      "ĠBre": 6023,
      "Ġentropy": 6024,
      "UN": 6025,
      "istan": 6026,
      "Ġactions": 6027,
      "Ġcoefficient": 6028,
      "\\)": 6029,
      "Ġasked": 6030,
      "|}": 6031,
      "Ġsometimes": 6032,
      "Ġcarried": 6033,
      "\\;": 6034,
      "Ġpix": 6035,
      "Ġcomplexity": 6036,
      "ypes": 6037,
      "ĠUsing": 6038,
      "arian": 6039,
      "ĠMel": 6040,
      "Ġ},": 6041,
      "ĠOpen": 6042,
      "Ġindicate": 6043,
      "]$,": 6044,
      "Ġstay": 6045,
      "ĠCommission": 6046,
      "tfrac": 6047,
      "Ġguarant": 6048,
      "eness": 6049,
      "Ġclusters": 6050,
      "ĠInc": 6051,
      "finition": 6052,
      "Ġmovement": 6053,
      "Ġleave": 6054,
      "ATE": 6055,
      "ĠStar": 6056,
      "Ġtit": 6057,
      "1000": 6058,
      "atically": 6059,
      "Ġextrem": 6060,
      "blue": 6061,
      "host": 6062,
      "ias": 6063,
      "Ġ\\]": 6064,
      "Ġbrought": 6065,
      "ĠRock": 6066,
      "))\\": 6067,
      "OC": 6068,
      "ĠScot": 6069,
      "Comm": 6070,
      "Ġunknown": 6071,
      "Ġartists": 6072,
      "velopment": 6073,
      "Ġmassive": 6074,
      "Ġbank": 6075,
      "Ġ;": 6076,
      "herent": 6077,
      "Ġcool": 6078,
      "Ġoccurs": 6079,
      "Ġcompetition": 6080,
      "Log": 6081,
      "Ġpurpose": 6082,
      "ĠGovernment": 6083,
      "':": 6084,
      "MP": 6085,
      "Ab": 6086,
      "Ġquestions": 6087,
      "ĠParis": 6088,
      "orial": 6089,
      "ĠHistory": 6090,
      "astern": 6091,
      "Ġstations": 6092,
      "ĠOver": 6093,
      "Ġstream": 6094,
      "Ġcarry": 6095,
      "Ġdu": 6096,
      "While": 6097,
      "lections": 6098,
      "gr": 6099,
      "Ġoffer": 6100,
      "vature": 6101,
      "poses": 6102,
      "ĠĠĠĠĠĠĠĠĠĠĠĠĠĠĠĠĠĠĠĠĠĠĠĠĠĠĠ": 6103,
      "vin": 6104,
      "Ġphenomen": 6105,
      "vart": 6106,
      "Ġefficiency": 6107,
      "Field": 6108,
      "ella": 6109,
      "Section": 6110,
      "Ġrecomm": 6111,
      "ancy": 6112,
      "ĠOffic": 6113,
      "Ġphysics": 6114,
      "Ġfootballers": 6115,
      "Ġcopy": 6116,
      "Ġculture": 6117,
      "Ġcollabor": 6118,
      "inner": 6119,
      "ĠFrank": 6120,
      "Ġconfir": 6121,
      "ector": 6122,
      "1982": 6123,
      "dfrac": 6124,
      "ĠTime": 6125,
      "Ġisomorphism": 6126,
      "ĠFoundation": 6127,
      "ĠLu": 6128,
      "bas": 6129,
      "diag": 6130,
      "Ġconj": 6131,
      "SR": 6132,
      "Node": 6133,
      "abled": 6134,
      "ĠLake": 6135,
      "Info": 6136,
      "iable": 6137,
      "omy": 6138,
      "Ġremain": 6139,
      "Ġnuclear": 6140,
      "Using": 6141,
      "rical": 6142,
      "lap": 6143,
      "title": 6144,
      "two": 6145,
      "ĠPan": 6146,
      "Array": 6147,
      "ban": 6148,
      "ror": 6149,
      "Ġscaling": 6150,
      "Index": 6151,
      "][]{": 6152,
      "Ġactual": 6153,
      "ĠCamp": 6154,
      "IF": 6155,
      "ĠMr": 6156,
      "Ġtourn": 6157,
      "Ġpurch": 6158,
      "called": 6159,
      "only": 6160,
      "Ġalternative": 6161,
      "ĠWomen": 6162,
      "Ġhum": 6163,
      "Cor": 6164,
      "Ġsites": 6165,
      "Ġchampions": 6166,
      "Ġpark": 6167,
      "})}": 6168,
      "Next": 6169,
      "yes": 6170,
      "Ġobvious": 6171,
      "ĠLos": 6172,
      "}[\\": 6173,
      "unct": 6174,
      "Ġleader": 6175,
      "Ġcapacity": 6176,
      "Ġscenario": 6177,
      "Ġfinancial": 6178,
      "wa": 6179,
      "Ġrapid": 6180,
      "she": 6181,
      "aven": 6182,
      "Ġshowing": 6183,
      "mathop": 6184,
      "forward": 6185,
      "isl": 6186,
      "ato": 6187,
      "Ġmanufact": 6188,
      "phant": 6189,
      "uled": 6190,
      "Att": 6191,
      "Ġsynt": 6192,
      "}})": 6193,
      "Ġgeometry": 6194,
      "ĠAre": 6195,
      "Ġshot": 6196,
      "Ġlimits": 6197,
      "ĠPost": 6198,
      "ĠSee": 6199,
      "results": 6200,
      "SL": 6201,
      "Ġmajority": 6202,
      "}\\,\\": 6203,
      "Ġassign": 6204,
      "Ġalumni": 6205,
      "greg": 6206,
      "venue": 6207,
      "joy": 6208,
      "Ġthreat": 6209,
      "emptyset": 6210,
      "vector": 6211,
      "Che": 6212,
      "Ġexchange": 6213,
      "Ġfine": 6214,
      ",{\\": 6215,
      "Ġsolve": 6216,
      "ĠLy": 6217,
      "Ġdise": 6218,
      "ĠGr": 6219,
      "vere": 6220,
      "Ġdistingu": 6221,
      "ifies": 6222,
      "Ġproceed": 6223,
      "ĠDu": 6224,
      "sume": 6225,
      "Can": 6226,
      "brace": 6227,
      "chen": 6228,
      "Ġsummar": 6229,
      "Ġ$.": 6230,
      "Ġoption": 6231,
      ")--": 6232,
      "clos": 6233,
      "Ġmostly": 6234,
      "cknowled": 6235,
      "Ġ\\!": 6236,
      "ĠForm": 6237,
      "ĠLag": 6238,
      "bed": 6239,
      "Ġprojection": 6240,
      "Ġneutr": 6241,
      "1979": 6242,
      "ĠOlympics": 6243,
      "api": 6244,
      "eks": 6245,
      "start": 6246,
      "aud": 6247,
      "ĠMost": 6248,
      "tx": 6249,
      "resh": 6250,
      "HT": 6251,
      "Med": 6252,
      "Ñģ": 6253,
      "ĠSpace": 6254,
      "Ġspread": 6255,
      "OP": 6256,
      "joint": 6257,
      "Box": 6258,
      "Ġ);": 6259,
      "etal": 6260,
      "Ġcommunication": 6261,
      "})=": 6262,
      "des": 6263,
      "aser": 6264,
      "Ġ^{": 6265,
      "Ġanc": 6266,
      "Ġchannels": 6267,
      "Ġdimensional": 6268,
      "Ġmixed": 6269,
      "ĠVictor": 6270,
      "igan": 6271,
      "aver": 6272,
      "Ġtechnique": 6273,
      "Ġincorpor": 6274,
      "heta": 6275,
      "Ġload": 6276,
      "aus": 6277,
      "Ġsufficiently": 6278,
      "Ġpseud": 6279,
      "Ġdatasets": 6280,
      "Ġreflect": 6281,
      "related": 6282,
      "Ġrecall": 6283,
      "Ġdepending": 6284,
      "}_{-": 6285,
      "pected": 6286,
      "Ġfa": 6287,
      "Ġago": 6288,
      "Ġestimation": 6289,
      "longrightarrow": 6290,
      "Ġspl": 6291,
      "coming": 6292,
      "Ġimplementation": 6293,
      "Ġwriter": 6294,
      "ech": 6295,
      "Ġdegrees": 6296,
      "ochastic": 6297,
      "ĠMem": 6298,
      "sat": 6299,
      "ĠMax": 6300,
      "fined": 6301,
      "$};": 6302,
      "Ġmainly": 6303,
      "cript": 6304,
      "stract": 6305,
      "Ġartist": 6306,
      "Ġgrand": 6307,
      "build": 6308,
      "Ġunderstanding": 6309,
      "olk": 6310,
      "inate": 6311,
      "Ġevaluation": 6312,
      "Ġlocally": 6313,
      "razil": 6314,
      "Ġweights": 6315,
      "iota": 6316,
      "osh": 6317,
      "icated": 6318,
      "iller": 6319,
      "Ġheart": 6320,
      "ĠSpanish": 6321,
      "ady": 6322,
      "150": 6323,
      "ĠCatholic": 6324,
      "pg": 6325,
      "/**": 6326,
      "Ġprograms": 6327,
      "Ġgets": 6328,
      "Ġstress": 6329,
      "del": 6330,
      "Ġstudent": 6331,
      "'m": 6332,
      "Ġirre": 6333,
      "Inst": 6334,
      "ĠIII": 6335,
      "ĠMil": 6336,
      "Ġgun": 6337,
      "}}.": 6338,
      "Ġprevent": 6339,
      "chang": 6340,
      "ĠIreland": 6341,
      "Ġusual": 6342,
      "Ġlies": 6343,
      "Ġcalculate": 6344,
      "ĠPri": 6345,
      "oration": 6346,
      "1981": 6347,
      "Ġorbit": 6348,
      "Ġpain": 6349,
      "aa": 6350,
      "ĠData": 6351,
      "Ġvariation": 6352,
      "ulture": 6353,
      "image": 6354,
      "1950": 6355,
      "vee": 6356,
      "Ġexc": 6357,
      "azz": 6358,
      "strong": 6359,
      "Ġsector": 6360,
      "Ġrobust": 6361,
      "Ġmur": 6362,
      "Ġmunic": 6363,
      "lang": 6364,
      "Ġremoved": 6365,
      "Ġion": 6366,
      "Ġimag": 6367,
      "Ġdead": 6368,
      "Ġcritic": 6369,
      "Ġferm": 6370,
      "Ġpoor": 6371,
      "Ġgetting": 6372,
      "Mar": 6373,
      "Ġinterview": 6374,
      "Ġstatistics": 6375,
      "Code": 6376,
      "Ġacceler": 6377,
      "Ġinterface": 6378,
      "empor": 6379,
      "Ġwall": 6380,
      "Ġworth": 6381,
      "\"\"": 6382,
      "ĠRel": 6383,
      "dl": 6384,
      "slash": 6385,
      "utch": 6386,
      "DP": 6387,
      "cat": 6388,
      "Ġbin": 6389,
      "maz": 6390,
      ")}_": 6391,
      "cretary": 6392,
      "Ġrepresentations": 6393,
      "Ġequilibrium": 6394,
      "onald": 6395,
      "Ġresources": 6396,
      "algebra": 6397,
      "plicity": 6398,
      "kes": 6399,
      "ĠCre": 6400,
      "contain": 6401,
      "Ġ\\(\\": 6402,
      "ĠCongress": 6403,
      "vari": 6404,
      "ontal": 6405,
      "ĠBig": 6406,
      "Ġmatches": 6407,
      "ternet": 6408,
      "ĠOper": 6409,
      "Ġlegal": 6410,
      "ĠFilm": 6411,
      "Ġactivities": 6412,
      "Ġign": 6413,
      "Ġdust": 6414,
      "Ġsch": 6415,
      "Ġsubt": 6416,
      "';": 6417,
      "Request": 6418,
      "}}^{\\": 6419,
      "names": 6420,
      "ifications": 6421,
      "Ġplanet": 6422,
      "Ġmedical": 6423,
      "Ġcollege": 6424,
      "Ġproviding": 6425,
      "formed": 6426,
      "clusions": 6427,
      "atalog": 6428,
      "})^": 6429,
      "ourier": 6430,
      "yan": 6431,
      "/*": 6432,
      "integ": 6433,
      "pir": 6434,
      "Service": 6435,
      "ĠChicago": 6436,
      "Ġmaximal": 6437,
      "120": 6438,
      "Ġwanted": 6439,
      "soft": 6440,
      "break": 6441,
      "ĠHenry": 6442,
      "Ġwhereas": 6443,
      "HS": 6444,
      "Ġcharacteristic": 6445,
      "Ġrise": 6446,
      "Ġmeeting": 6447,
      "ĠCommittee": 6448,
      "rip": 6449,
      "PA": 6450,
      "ĠSec": 6451,
      "Lemma": 6452,
      "Ġreferred": 6453,
      "Ġnamely": 6454,
      "icted": 6455,
      "Ġfoot": 6456,
      "Other": 6457,
      "ĠLi": 6458,
      "ĠArts": 6459,
      "shire": 6460,
      "aylor": 6461,
      "ĠForce": 6462,
      "Ġcoordinate": 6463,
      "Ġstability": 6464,
      "Ġinverse": 6465,
      "Ġbos": 6466,
      "ĠĠĠĠĠĠĠĠĠĠĠĠĠĠ": 6467,
      "formal": 6468,
      "ĠNetwork": 6469,
      "Ġremained": 6470,
      "Ġfavor": 6471,
      "default": 6472,
      "iled": 6473,
      "ĠProgram": 6474,
      "Ð¾Ð": 6475,
      "ĠIll": 6476,
      "Ġmaxim": 6477,
      "Ġnothing": 6478,
      "Ġmodified": 6479,
      "ĠPeople": 6480,
      "Ġneighborhood": 6481,
      "Ġfreedom": 6482,
      "ilbert": 6483,
      "CM": 6484,
      "anger": 6485,
      "Ġprice": 6486,
      "ĠPre": 6487,
      "posite": 6488,
      "Ġbright": 6489,
      "Ġorganization": 6490,
      "ĠSol": 6491,
      "ĠJac": 6492,
      "RA": 6493,
      "orter": 6494,
      "je": 6495,
      "aval": 6496,
      "ĠBr": 6497,
      "ĠUp": 6498,
      "ĠPenn": 6499,
      "Ġpull": 6500,
      "Ã¨": 6501,
      "Ġprinciple": 6502,
      "ĠBoard": 6503,
      "vartheta": 6504,
      "Ġstatistical": 6505,
      "defined": 6506,
      "ĠHel": 6507,
      "Ġheat": 6508,
      "Element": 6509,
      "tes": 6510,
      "ĠSM": 6511,
      "Ġassess": 6512,
      "ĠAppendix": 6513,
      "Ġdemand": 6514,
      "Ġconsequence": 6515,
      "Ġpassed": 6516,
      "Ġvertical": 6517,
      "sign": 6518,
      "ĠEarth": 6519,
      "ĠFlorida": 6520,
      "bmatrix": 6521,
      "law": 6522,
      "ĠCam": 6523,
      "---": 6524,
      "Ġelectro": 6525,
      "rence": 6526,
      "etween": 6527,
      "Ġindeed": 6528,
      "aching": 6529,
      "([": 6530,
      "bib": 6531,
      "ĉĉĊ": 6532,
      "Ġopening": 6533,
      "ishop": 6534,
      "Ġrough": 6535,
      "1976": 6536,
      "Ġmapping": 6537,
      "forms": 6538,
      "phys": 6539,
      "house": 6540,
      "ĠST": 6541,
      "Group": 6542,
      "Ġmedal": 6543,
      "Ġsort": 6544,
      "isely": 6545,
      "Ġcomposition": 6546,
      "poss": 6547,
      "Ġspent": 6548,
      "ĠEv": 6549,
      "lines": 6550,
      "Ġluminos": 6551,
      "ĠCast": 6552,
      "Ġearn": 6553,
      "ĠSil": 6554,
      "Ġ^": 6555,
      "1978": 6556,
      "Ġapplying": 6557,
      "IA": 6558,
      "ĠKn": 6559,
      "Ġentry": 6560,
      "DB": 6561,
      "DM": 6562,
      "ĠBob": 6563,
      "Proof": 6564,
      "ockey": 6565,
      "Ġdiagonal": 6566,
      "}}}\\": 6567,
      "Ġmovie": 6568,
      "Rec": 6569,
      "algorithm": 6570,
      "paragraph": 6571,
      "pass": 6572,
      "Ġgravit": 6573,
      "ologies": 6574,
      "hol": 6575,
      "Ġcentre": 6576,
      "fold": 6577,
      "Ġinitially": 6578,
      "stable": 6579,
      "Ġsurvey": 6580,
      "Ġintersection": 6581,
      "Ġenergies": 6582,
      "ĠModel": 6583,
      "ĠSk": 6584,
      "ellig": 6585,
      "ĠVer": 6586,
      "ĠSwed": 6587,
      "ĠItaly": 6588,
      "valid": 6589,
      "^{*": 6590,
      "Ġâ": 6591,
      "Config": 6592,
      "Ġtesting": 6593,
      "tiny": 6594,
      "step": 6595,
      "Ġscene": 6596,
      "Ġletter": 6597,
      "Ġappearance": 6598,
      "ibr": 6599,
      "Ġsummer": 6600,
      "Ġfeatured": 6601,
      "Ġquickly": 6602,
      "ynamic": 6603,
      "open": 6604,
      "ĠYoung": 6605,
      "Part": 6606,
      "1977": 6607,
      "Ġrang": 6608,
      "Ġut": 6609,
      "Ġturned": 6610,
      "ĠGet": 6611,
      "Ġpredicted": 6612,
      "Ġsampling": 6613,
      "Ġ(\"": 6614,
      "Ġembedding": 6615,
      "iano": 6616,
      "bras": 6617,
      "dev": 6618,
      "Ġmodul": 6619,
      "rank": 6620,
      "ĠEducation": 6621,
      "Ġassumptions": 6622,
      "Car": 6623,
      "Ġ}{": 6624,
      "icks": 6625,
      "Ġeconomic": 6626,
      "sky": 6627,
      "iler": 6628,
      "Context": 6629,
      "Ġprep": 6630,
      "ĠOh": 6631,
      "Ġbias": 6632,
      "/(": 6633,
      "ĠRussia": 6634,
      "Ġcoinc": 6635,
      "Ġwatch": 6636,
      "System": 6637,
      "Ġradiation": 6638,
      "Ġcycl": 6639,
      "ENT": 6640,
      "adow": 6641,
      "idae": 6642,
      "Ġtrivial": 6643,
      "Ġaircraft": 6644,
      "ji": 6645,
      "LT": 6646,
      "Ġdrug": 6647,
      "ĠMexico": 6648,
      "1974": 6649,
      "1972": 6650,
      "ĠParliament": 6651,
      "notes": 6652,
      "ĠAtl": 6653,
      "Ġintegration": 6654,
      "Ġhop": 6655,
      "Ġphoton": 6656,
      "iem": 6657,
      "oral": 6658,
      "SA": 6659,
      "({": 6660,
      "Ġinterested": 6661,
      "background": 6662,
      "Results": 6663,
      "ĠAngeles": 6664,
      "Hence": 6665,
      "CR": 6666,
      "ĠTrump": 6667,
      "Ġnonlinear": 6668,
      "slant": 6669,
      "ja": 6670,
      "vect": 6671,
      "Ġwinning": 6672,
      "Ġsaying": 6673,
      "\\}\\": 6674,
      "Right": 6675,
      "ensities": 6676,
      "Rel": 6677,
      "content": 6678,
      "Ġdesired": 6679,
      "igation": 6680,
      "Ġdetected": 6681,
      "ĠGeorg": 6682,
      "Ġcurvature": 6683,
      "mosp": 6684,
      "Act": 6685,
      "ultane": 6686,
      "Ġsurpr": 6687,
      "////////": 6688,
      "Back": 6689,
      "$&": 6690,
      "bal": 6691,
      "structure": 6692,
      "Ġchemical": 6693,
      "=\"../../../../": 6694,
      "ĠVirginia": 6695,
      "Ġgr": 6696,
      "1975": 6697,
      "Ġadvantage": 6698,
      "Ġbrand": 6699,
      "columnwidth": 6700,
      "ithm": 6701,
      "ĠTest": 6702,
      "acter": 6703,
      "Ġevaluate": 6704,
      "people": 6705,
      "oded": 6706,
      "Ġremark": 6707,
      "lay": 6708,
      "itiz": 6709,
      "Ġderivative": 6710,
      "PU": 6711,
      "Ġitem": 6712,
      "Ġarrang": 6713,
      "ĠStep": 6714,
      "nn": 6715,
      "Ġneural": 6716,
      "tan": 6717,
      "ĠTimes": 6718,
      "ĠBoth": 6719,
      "ĠMur": 6720,
      "Ġscreen": 6721,
      "Ġmetal": 6722,
      "Ġfriends": 6723,
      "Size": 6724,
      "miss": 6725,
      "orning": 6726,
      "Ġformat": 6727,
      "Pre": 6728,
      "gebras": 6729,
      "Ġfinding": 6730,
      "Ġweeks": 6731,
      "Ġ$,": 6732,
      "vest": 6733,
      "Ġconstants": 6734,
      "static": 6735,
      "haps": 6736,
      "hab": 6737,
      "ĠIndeed": 6738,
      "ĠWal": 6739,
      "flict": 6740,
      "ĠTer": 6741,
      "Ġ(!": 6742,
      "Ġunderlying": 6743,
      "dat": 6744,
      "Ġabund": 6745,
      "make": 6746,
      "\\}$,": 6747,
      "Count": 6748,
      "ĠBank": 6749,
      "Ref": 6750,
      "Ġstore": 6751,
      "oviet": 6752,
      "ĠIN": 6753,
      "ĠTour": 6754,
      "Ġtopological": 6755,
      "ĠFestival": 6756,
      "Ġscored": 6757,
      "post": 6758,
      "Ġextend": 6759,
      "Ġgoals": 6760,
      "ĠEngine": 6761,
      "Ġcouple": 6762,
      "Ġteacher": 6763,
      "yles": 6764,
      "Ġindividuals": 6765,
      "Ġawarded": 6766,
      "Ġdespite": 6767,
      "ĠOrder": 6768,
      "ĠTop": 6769,
      "|}{": 6770,
      "Ġexplained": 6771,
      ":=\\": 6772,
      "dec": 6773,
      "Ext": 6774,
      "Ġsequences": 6775,
      "ĠĠĠĠĠĠĠĠĠĠĠĠĠĠĠĠĠ": 6776,
      "Ġmission": 6777,
      "Ġcat": 6778,
      "Ġtrying": 6779,
      "apache": 6780,
      "Ġpiece": 6781,
      "ĠLife": 6782,
      "condition": 6783,
      "}$}": 6784,
      "avelength": 6785,
      "web": 6786,
      "Ġow": 6787,
      "Method": 6788,
      "ropic": 6789,
      "sych": 6790,
      "Mem": 6791,
      "That": 6792,
      "ora": 6793,
      "mediate": 6794,
      "unit": 6795,
      "po": 6796,
      "Ġmorphism": 6797,
      "Ġsrc": 6798,
      "Ġdiver": 6799,
      "Ġquasi": 6800,
      "tf": 6801,
      "Ġhousehold": 6802,
      "Line": 6803,
      "Ġacts": 6804,
      "ĠCE": 6805,
      "Ġresponsible": 6806,
      "ĠKar": 6807,
      "icense": 6808,
      "medskip": 6809,
      "plot": 6810,
      "undred": 6811,
      "Ġbroadcast": 6812,
      "Fl": 6813,
      "asion": 6814,
      "1973": 6815,
      "ĠSeries": 6816,
      ";&": 6817,
      "uster": 6818,
      "Ġordered": 6819,
      "ĠEmp": 6820,
      "erc": 6821,
      "Ġfailed": 6822,
      "ĠMartin": 6823,
      "num": 6824,
      "=\"#": 6825,
      "ibration": 6826,
      "Ġprocessing": 6827,
      "According": 6828,
      "after": 6829,
      "urt": 6830,
      "ĠLin": 6831,
      "ĠBi": 6832,
      "Ġradial": 6833,
      "vered": 6834,
      "Ġcommercial": 6835,
      "Ġsuitable": 6836,
      "rane": 6837,
      "Ġshared": 6838,
      "Ġrev": 6839,
      "Ġquery": 6840,
      "Ġpriv": 6841,
      "har": 6842,
      "Ġhope": 6843,
      "Ġsolar": 6844,
      "allery": 6845,
      "Char": 6846,
      "Ġexplicitly": 6847,
      "uler": 6848,
      "Ġcomputational": 6849,
      "Ġasymptotic": 6850,
      "CL": 6851,
      "Ġcomputing": 6852,
      "Ġtheories": 6853,
      "ouble": 6854,
      "elihood": 6855,
      "ĠTheir": 6856,
      "Ġanswer": 6857,
      "Lo": 6858,
      "^*\\": 6859,
      "}}=": 6860,
      "ova": 6861,
      "Ġcontrad": 6862,
      "=.": 6863,
      "info": 6864,
      "Ġdispers": 6865,
      "Ġelim": 6866,
      "ĠJan": 6867,
      "&=\\": 6868,
      "Ġimproved": 6869,
      "Ġque": 6870,
      "ĠLove": 6871,
      "ruck": 6872,
      "jective": 6873,
      "osc": 6874,
      "Ġmanager": 6875,
      "Ent": 6876,
      "Ġcm": 6877,
      "Ġcanonical": 6878,
      "Ġevol": 6879,
      "Ġarguments": 6880,
      "java": 6881,
      "Ġblocks": 6882,
      "1968": 6883,
      "Ġroute": 6884,
      "Ġattract": 6885,
      "Ġsinger": 6886,
      "Ġdevices": 6887,
      "atures": 6888,
      "ĠWood": 6889,
      "ĠCa": 6890,
      "ĠBas": 6891,
      "}|\\": 6892,
      "Ġmaterials": 6893,
      "Ġsec": 6894,
      "Ġdiam": 6895,
      "Ġvote": 6896,
      "Ġadopted": 6897,
      "Ġadding": 6898,
      "ĠJo": 6899,
      "Ġtournament": 6900,
      "py": 6901,
      "Ġderive": 6902,
      "Ġprojects": 6903,
      "Ġdelay": 6904,
      "Ġprecisely": 6905,
      "${\\": 6906,
      "Ġimportance": 6907,
      "How": 6908,
      "ĠLong": 6909,
      "Ġconven": 6910,
      "ĠFort": 6911,
      "DR": 6912,
      "Ġintensity": 6913,
      "ounds": 6914,
      "John": 6915,
      "Ġtail": 6916,
      "Ġmaster": 6917,
      "wan": 6918,
      "Ġ});": 6919,
      "Ġspecified": 6920,
      "Ġpredictions": 6921,
      "Ġgravity": 6922,
      "subsec": 6923,
      "Ġforest": 6924,
      "ĠPlay": 6925,
      "ashion": 6926,
      "kins": 6927,
      "Ġexpert": 6928,
      "Ġresource": 6929,
      "Ġinvestigate": 6930,
      "Ġquark": 6931,
      "mitted": 6932,
      "Ġlaws": 6933,
      "language": 6934,
      "ersion": 6935,
      "Ġpicture": 6936,
      "My": 6937,
      "stitution": 6938,
      "Ġbenef": 6939,
      "Ġdestroy": 6940,
      "Ġdivision": 6941,
      "ĠSocial": 6942,
      "GN": 6943,
      "sche": 6944,
      "ĠIR": 6945,
      "}~": 6946,
      "cut": 6947,
      "Ġsuggests": 6948,
      "create": 6949,
      "iana": 6950,
      "Ġvariance": 6951,
      "Item": 6952,
      "omin": 6953,
      ">&": 6954,
      "mn": 6955,
      "ĠAwards": 6956,
      "ĠOffice": 6957,
      "Suppose": 6958,
      "Ġstruct": 6959,
      "Ġgenus": 6960,
      "xx": 6961,
      "ensions": 6962,
      "Ġpolitician": 6963,
      "Ġast": 6964,
      "Ġlives": 6965,
      "Ġshoot": 6966,
      "Ġjet": 6967,
      "prec": 6968,
      "\\|\\": 6969,
      "Ġsatisfied": 6970,
      "Ġobjective": 6971,
      "Äģ": 6972,
      "ĠLine": 6973,
      "ilation": 6974,
      "Ġacadem": 6975,
      "Ġwood": 6976,
      "Ġmedium": 6977,
      "Ġpatients": 6978,
      "Ġapparent": 6979,
      "figures": 6980,
      "Sec": 6981,
      "Ġenjoy": 6982,
      "])": 6983,
      "Ġrelax": 6984,
      "ditionally": 6985,
      "ĠOld": 6986,
      "Hand": 6987,
      "urations": 6988,
      "Ġgeneralized": 6989,
      "unch": 6990,
      "ĠLee": 6991,
      "enced": 6992,
      "Ġbands": 6993,
      "adium": 6994,
      "struct": 6995,
      "ometry": 6996,
      "Early": 6997,
      "ĠScotland": 6998,
      "magnetic": 6999,
      "Ġoffers": 7000,
      "anguages": 7001,
      "Ġtests": 7002,
      "ĠPlan": 7003,
      "+(": 7004,
      "df": 7005,
      "arriage": 7006,
      "****************": 7007,
      "Am": 7008,
      "ialog": 7009,
      "Ġorders": 7010,
      "Post": 7011,
      "Ġ/*": 7012,
      "Ġplans": 7013,
      "Ġbulk": 7014,
      "enty": 7015,
      "ĠTeam": 7016,
      "Given": 7017,
      "ĠCarolina": 7018,
      "scriptsize": 7019,
      "Ġquarter": 7020,
      "TT": 7021,
      "Ġdeliver": 7022,
      "ĠSuch": 7023,
      "Ġvisit": 7024,
      "ried": 7025,
      "Ġtool": 7026,
      "Ġparents": 7027,
      "hetic": 7028,
      "1971": 7029,
      "Ġanything": 7030,
      "chers": 7031,
      "backslash": 7032,
      "context": 7033,
      "irls": 7034,
      "Ġdiss": 7035,
      "Ġsuggested": 7036,
      "met": 7037,
      "ĠHot": 7038,
      "Ġtrend": 7039,
      "onder": 7040,
      "pto": 7041,
      "Ġtraffic": 7042,
      "ogonal": 7043,
      "Ġtal": 7044,
      "obs": 7045,
      "Ġaccurate": 7046,
      "hu": 7047,
      "ĠDirector": 7048,
      "DS": 7049,
      "Ġcommunities": 7050,
      "Ġdynamic": 7051,
      "multirow": 7052,
      "vs": 7053,
      "Ġfluid": 7054,
      "uum": 7055,
      "iling": 7056,
      "prot": 7057,
      "Ġbundle": 7058,
      "Ġfarm": 7059,
      "ĠArab": 7060,
      "EL": 7061,
      "ransp": 7062,
      "Ġcomposed": 7063,
      "1969": 7064,
      "Ġbasketball": 7065,
      "ĠShow": 7066,
      "ĠJim": 7067,
      "ĠJun": 7068,
      "Ġphil": 7069,
      "phas": 7070,
      "Ġice": 7071,
      "notag": 7072,
      "Xi": 7073,
      "udget": 7074,
      "Consider": 7075,
      "sets": 7076,
      "Ġabsolute": 7077,
      "Ġrecords": 7078,
      "Ã³n": 7079,
      "ĠPac": 7080,
      "epend": 7081,
      "Ġbattle": 7082,
      "ĠEnd": 7083,
      "db": 7084,
      "OL": 7085,
      "Ġran": 7086,
      "ighter": 7087,
      "areer": 7088,
      "asy": 7089,
      "Ġsym": 7090,
      "actic": 7091,
      "Ġsomeone": 7092,
      "Ġmatching": 7093,
      "indu": 7094,
      "Ġexception": 7095,
      "perties": 7096,
      "ĠProfess": 7097,
      "ĠSund": 7098,
      "Rem": 7099,
      "assert": 7100,
      "Ġcloud": 7101,
      "ĠHy": 7102,
      "Ġserve": 7103,
      "float": 7104,
      "Ġdescribes": 7105,
      "Ġhypothesis": 7106,
      "Ġwriters": 7107,
      "Ġprime": 7108,
      "ĠReview": 7109,
      "Ġisol": 7110,
      "circle": 7111,
      "ithub": 7112,
      "udd": 7113,
      "final": 7114,
      "false": 7115,
      "Ġeditor": 7116,
      "Ġ({\\": 7117,
      "Ġattrib": 7118,
      "Ġprotect": 7119,
      "ugby": 7120,
      "Ġactor": 7121,
      "Ġmotiv": 7122,
      "Ġvoice": 7123,
      "Ġequivalence": 7124,
      "ĠChief": 7125,
      "Ġwaves": 7126,
      "sequent": 7127,
      "During": 7128,
      "Ġextends": 7129,
      "Ġdashed": 7130,
      "nc": 7131,
      "Ġended": 7132,
      "})+": 7133,
      "write": 7134,
      "brid": 7135,
      "Ġdynamical": 7136,
      "ĠJoseph": 7137,
      "plications": 7138,
      "^*(": 7139,
      "ĠTim": 7140,
      "dependence": 7141,
      "Dis": 7142,
      "rows": 7143,
      "Ġreceive": 7144,
      "Ġtrees": 7145,
      "ategory": 7146,
      "Ġcovered": 7147,
      "loop": 7148,
      "}\\|": 7149,
      "Ġthin": 7150,
      "witter": 7151,
      "Ġtrig": 7152,
      "Message": 7153,
      "Cur": 7154,
      "diff": 7155,
      "ographic": 7156,
      "Ġconv": 7157,
      "okes": 7158,
      "odd": 7159,
      "Ġdigital": 7160,
      "ali": 7161,
      "Ġsignals": 7162,
      "ads": 7163,
      "^{(\\": 7164,
      "Ġimplemented": 7165,
      "Ġprison": 7166,
      "Ġcandidates": 7167,
      "Ġstories": 7168,
      "Ġlaunched": 7169,
      "parison": 7170,
      "pective": 7171,
      "ups": 7172,
      "claim": 7173,
      "ĠOl": 7174,
      "Ġcelebr": 7175,
      "liography": 7176,
      "tty": 7177,
      "Ġclean": 7178,
      "Ġswitch": 7179,
      "ogen": 7180,
      "Ġregist": 7181,
      "Ġhar": 7182,
      "Ġalone": 7183,
      "erior": 7184,
      "fi": 7185,
      "Ġdx": 7186,
      "fully": 7187,
      "ĠIran": 7188,
      "mond": 7189,
      "'ve": 7190,
      "Tra": 7191,
      "bot": 7192,
      "Ġnotice": 7193,
      "nergy": 7194,
      "Ġestablishments": 7195,
      "ĠBrazil": 7196,
      "member": 7197,
      "phantom": 7198,
      "ricket": 7199,
      "high": 7200,
      "Ġpropose": 7201,
      "disc": 7202,
      "ima": 7203,
      "La": 7204,
      "Ġchief": 7205,
      "Ġweb": 7206,
      "ĠChampionships": 7207,
      "syl": 7208,
      "ĠProject": 7209,
      "hem": 7210,
      "Ġwhom": 7211,
      "[-": 7212,
      "eller": 7213,
      "second": 7214,
      "fered": 7215,
      "track": 7216,
      "Ġleaving": 7217,
      "Ġreasons": 7218,
      "css": 7219,
      "Ġedition": 7220,
      "HC": 7221,
      "Comp": 7222,
      "Notes": 7223,
      "Ġitems": 7224,
      "Ġquantities": 7225,
      "Ġresist": 7226,
      "white": 7227,
      "Ġallowing": 7228,
      "aka": 7229,
      "zz": 7230,
      "Rep": 7231,
      "Ġrare": 7232,
      "corollary": 7233,
      "Ġbehaviour": 7234,
      "ĠHiggs": 7235,
      "Ġmusical": 7236,
      "acent": 7237,
      "verb": 7238,
      "ĠNavy": 7239,
      "Ġlift": 7240,
      "ĠMount": 7241,
      "Ġalt": 7242,
      "ĠJournal": 7243,
      "Ġcharged": 7244,
      ")})": 7245,
      "inet": 7246,
      "Äĩ": 7247,
      "Ġapproximate": 7248,
      "tikzpicture": 7249,
      "Ġstochastic": 7250,
      "ĠHon": 7251,
      "wer": 7252,
      "ĠCM": 7253,
      "Ġatmosp": 7254,
      "Ġdrive": 7255,
      "ĠField": 7256,
      "Ġbeaut": 7257,
      "dem": 7258,
      "Ġserious": 7259,
      "Ġleaves": 7260,
      "itative": 7261,
      "vania": 7262,
      "Ġattacks": 7263,
      "Ġannual": 7264,
      "ĠAN": 7265,
      "room": 7266,
      "Ġnumerous": 7267,
      "Ġlabels": 7268,
      "Call": 7269,
      "Ġsimultane": 7270,
      "Ġassigned": 7271,
      "ĠIsrael": 7272,
      "Ġ,\\": 7273,
      "English": 7274,
      "arrier": 7275,
      "Ġmixing": 7276,
      "Ġ$\\{\\": 7277,
      "ĠGood": 7278,
      "Ġpatterns": 7279,
      "gers": 7280,
      "1967": 7281,
      "[]": 7282,
      "isson": 7283,
      "Ġbecoming": 7284,
      "Ġturns": 7285,
      "general": 7286,
      "Ġtransmission": 7287,
      "mathit": 7288,
      "Ġnation": 7289,
      "Ġfif": 7290,
      ")^\\": 7291,
      "cale": 7292,
      "Ġtend": 7293,
      "define": 7294,
      "ĠWales": 7295,
      "ĠValley": 7296,
      "iro": 7297,
      "Ġnarrow": 7298,
      "Ġouter": 7299,
      "going": 7300,
      "ĠDevelopment": 7301,
      "Moreover": 7302,
      "standing": 7303,
      "Ġmagnet": 7304,
      "Ġeigenvalues": 7305,
      "ĠBecause": 7306,
      "Ġlocations": 7307,
      "Ġcategories": 7308,
      "Ġforced": 7309,
      "Ġenh": 7310,
      "Ġnil": 7311,
      "flu": 7312,
      "etries": 7313,
      "Ġsal": 7314,
      "ela": 7315,
      "Il": 7316,
      "ĠÂ£": 7317,
      "\\%$": 7318,
      "ati": 7319,
      "lets": 7320,
      "Ġempty": 7321,
      "GR": 7322,
      "ĠElect": 7323,
      "ĠLiber": 7324,
      "ĠAssembly": 7325,
      "AV": 7326,
      "Ġisland": 7327,
      "Ġpropos": 7328,
      "ĠIrish": 7329,
      "ervices": 7330,
      "cean": 7331,
      "Ġolder": 7332,
      "ipality": 7333,
      "Ġfrag": 7334,
      "idel": 7335,
      "Ġacting": 7336,
      "Ġdiscovered": 7337,
      "ĠRam": 7338,
      "Ġtechnical": 7339,
      "(-\\": 7340,
      "Des": 7341,
      "Ġmess": 7342,
      "equations": 7343,
      "Ġcoast": 7344,
      "Ġspeak": 7345,
      "Ġdivided": 7346,
      "Ġcompat": 7347,
      "Ġgeneric": 7348,
      "plane": 7349,
      "number": 7350,
      "Ġrational": 7351,
      "!\\": 7352,
      "eld": 7353,
      "models": 7354,
      "Ġcapture": 7355,
      "Ġreports": 7356,
      "Ġcompl": 7357,
      "usband": 7358,
      "Ġremove": 7359,
      "Ġbus": 7360,
      "ducible": 7361,
      "ultural": 7362,
      "Ġtracks": 7363,
      "Ġinvolving": 7364,
      "ĠCentre": 7365,
      "tained": 7366,
      "Ġthank": 7367,
      "Sm": 7368,
      "rosc": 7369,
      "Ga": 7370,
      "conf": 7371,
      "ptic": 7372,
      "itan": 7373,
      "Ġriver": 7374,
      "ĠSpe": 7375,
      "Ġnone": 7376,
      "Ġsides": 7377,
      "hang": 7378,
      "ildren": 7379,
      "urity": 7380,
      ">\\": 7381,
      "Ġtranslation": 7382,
      "ustain": 7383,
      "Ġ};": 7384,
      "Ġsea": 7385,
      "Ġenter": 7386,
      "Ġreturns": 7387,
      "uer": 7388,
      "github": 7389,
      "uly": 7390,
      "Ġisot": 7391,
      "arden": 7392,
      "Ġreserv": 7393,
      "show": 7394,
      "Ġagents": 7395,
      "Ġlie": 7396,
      "Ġwidely": 7397,
      "Art": 7398,
      "null": 7399,
      "ĠLo": 7400,
      "ctic": 7401,
      "iders": 7402,
      "textup": 7403,
      "Ġmarked": 7404,
      "lie": 7405,
      "ĠTaylor": 7406,
      "ĠNorthern": 7407,
      "package": 7408,
      "1940": 7409,
      "aren": 7410,
      "Ġluminosity": 7411,
      ";\\;\\": 7412,
      "Ġconfirmed": 7413,
      "SF": 7414,
      "Ġdetector": 7415,
      "Ġmathemat": 7416,
      "ulse": 7417,
      "ĠBusiness": 7418,
      "Ġfluctuations": 7419,
      "include": 7420,
      "Ġsouthern": 7421,
      "Ġeq": 7422,
      "Ġtrace": 7423,
      ")--(": 7424,
      "110": 7425,
      "Ġgrowing": 7426,
      "Ġpossibility": 7427,
      "ĠMajor": 7428,
      "Ġclaimed": 7429,
      "Ġking": 7430,
      "Ġassuming": 7431,
      "Ġvirtual": 7432,
      "Ġworkers": 7433,
      "Ġlab": 7434,
      "Ġjoin": 7435,
      "1964": 7436,
      "Ġpaths": 7437,
      "Ġfirm": 7438,
      "Ġjava": 7439,
      "Ġseasons": 7440,
      "Ġturb": 7441,
      "ĠJud": 7442,
      "yer": 7443,
      "ĠMov": 7444,
      "Ġraised": 7445,
      "Ġeverything": 7446,
      "ĠMen": 7447,
      "Ġforeign": 7448,
      "Ġsenior": 7449,
      "axis": 7450,
      "ĠTre": 7451,
      "Ġpartners": 7452,
      "ĠFred": 7453,
      "ĠCross": 7454,
      "Ġstudio": 7455,
      "alty": 7456,
      "Ġopposite": 7457,
      "Ġconducted": 7458,
      "search": 7459,
      "Ġactress": 7460,
      "Ġlearned": 7461,
      "ĠHor": 7462,
      "ĠSpr": 7463,
      "Ġvocals": 7464,
      "rl": 7465,
      "EX": 7466,
      "iy": 7467,
      "ĠGiven": 7468,
      "ampion": 7469,
      "Ġspirit": 7470,
      "auto": 7471,
      "Ġwa": 7472,
      "uty": 7473,
      "description": 7474,
      "Ġidentical": 7475,
      "Ġfederal": 7476,
      "isters": 7477,
      "Ġencou": 7478,
      "Ġ\\&": 7479,
      "Ġmanner": 7480,
      "1945": 7481,
      "Ġeth": 7482,
      "downarrow": 7483,
      "'_{": 7484,
      "ussion": 7485,
      "parallel": 7486,
      ".\\\\": 7487,
      "Ul": 7488,
      "Ġprincipal": 7489,
      "El": 7490,
      "ĠLibrary": 7491,
      "Ġnorthern": 7492,
      "Ġadjust": 7493,
      "\\!\\": 7494,
      "FI": 7495,
      "Ġpowerful": 7496,
      "1930": 7497,
      "BM": 7498,
      "ĠColumb": 7499,
      "ansas": 7500,
      "oupl": 7501,
      "ERT": 7502,
      "ĠJones": 7503,
      "Ġexplore": 7504,
      "Ġperturbation": 7505,
      "rangian": 7506,
      "ĠWay": 7507,
      "RR": 7508,
      "Ġimply": 7509,
      "Ġtools": 7510,
      "finite": 7511,
      "aug": 7512,
      "uffer": 7513,
      "Ġren": 7514,
      "ĠGeV": 7515,
      "semble": 7516,
      "bp": 7517,
      "ĠDet": 7518,
      "chron": 7519,
      "Ġsafety": 7520,
      "apl": 7521,
      "{.": 7522,
      "Ġstarts": 7523,
      "negative": 7524,
      "Ġcomments": 7525,
      "ĠSuppose": 7526,
      "Ġemphas": 7527,
      "Ġequality": 7528,
      "Ġefforts": 7529,
      "Ġrevealed": 7530,
      "rins": 7531,
      "Dist": 7532,
      "aters": 7533,
      "Ġdense": 7534,
      "Ġhundred": 7535,
      "Ġcorrection": 7536,
      "OW": 7537,
      "ĠSoviet": 7538,
      "usal": 7539,
      "Ġroll": 7540,
      "Person": 7541,
      "esian": 7542,
      "ĠSpain": 7543,
      "gest": 7544,
      "periment": 7545,
      "$-$": 7546,
      "ĠSu": 7547,
      "Ġnewsp": 7548,
      "ĠSar": 7549,
      "|^{": 7550,
      "parameter": 7551,
      "Ġarrest": 7552,
      "Ġprefer": 7553,
      "Ġemployed": 7554,
      "Ġtouch": 7555,
      "ĠUSA": 7556,
      "Ġhelped": 7557,
      "Ġnine": 7558,
      "Ġdisease": 7559,
      "lock": 7560,
      "1965": 7561,
      ";\"": 7562,
      "Ġofficer": 7563,
      "Ġsomew": 7564,
      "III": 7565,
      "odies": 7566,
      "sylvania": 7567,
      "Ġtemperatures": 7568,
      "Ġlif": 7569,
      "Ġrepresenting": 7570,
      "oston": 7571,
      "rative": 7572,
      "Ġproducer": 7573,
      "Ġcryst": 7574,
      "ester": 7575,
      "PL": 7576,
      "Ġuniformly": 7577,
      "1966": 7578,
      "points": 7579,
      "ĠGen": 7580,
      "ĠBern": 7581,
      "Ġhidden": 7582,
      "Ġvehicle": 7583,
      "jecture": 7584,
      "Mon": 7585,
      "Ġnet": 7586,
      "isot": 7587,
      "ativ": 7588,
      "Ġregarding": 7589,
      "Ġexplo": 7590,
      "Ġgravitational": 7591,
      "tw": 7592,
      "arma": 7593,
      "Ġshock": 7594,
      "User": 7595,
      "ĠYour": 7596,
      "ierarch": 7597,
      "$.}": 7598,
      "Ġsched": 7599,
      "Ġcommut": 7600,
      "enerate": 7601,
      "Ġattended": 7602,
      "ĠPak": 7603,
      "Ġconvent": 7604,
      "allow": 7605,
      "symm": 7606,
      "emporary": 7607,
      "Ġsociety": 7608,
      "phy": 7609,
      "UE": 7610,
      "Ġsubstant": 7611,
      "Ġtriang": 7612,
      "Ġiniti": 7613,
      "Ġperforming": 7614,
      "car": 7615,
      "emic": 7616,
      "relation": 7617,
      "ĠGovern": 7618,
      "'ll": 7619,
      "Do": 7620,
      "Ġclient": 7621,
      "Ġrect": 7622,
      "Ġsettings": 7623,
      "imits": 7624,
      "ĠSir": 7625,
      "Ġ\\,\\": 7626,
      "ĠCy": 7627,
      "Ġserver": 7628,
      "mom": 7629,
      "ĠFourier": 7630,
      "Ġdedu": 7631,
      "Ġtruth": 7632,
      "Hom": 7633,
      "Ġcosts": 7634,
      "Åį": 7635,
      "also": 7636,
      "Ã§": 7637,
      "ĠProvince": 7638,
      "ĠEven": 7639,
      "~(\\": 7640,
      "Max": 7641,
      "emb": 7642,
      "Min": 7643,
      "apped": 7644,
      "Li": 7645,
      "Ġindicated": 7646,
      "Manager": 7647,
      "Ġnearby": 7648,
      "roller": 7649,
      "ĠTechnology": 7650,
      "ĠHome": 7651,
      "edge": 7652,
      "Ġinteract": 7653,
      "stackrel": 7654,
      "Disc": 7655,
      "Pop": 7656,
      "Top": 7657,
      "Ġparties": 7658,
      "iced": 7659,
      "ni": 7660,
      "Ġcoupled": 7661,
      "Ġspac": 7662,
      "Ġcatch": 7663,
      "ĠHistoric": 7664,
      "Ġwavelength": 7665,
      "Ġsuppose": 7666,
      "Ġsizes": 7667,
      "}{*": 7668,
      "ĠDemocratic": 7669,
      "Ġpolarization": 7670,
      "DC": 7671,
      "ĠLab": 7672,
      "!]": 7673,
      "Ġstack": 7674,
      "ribe": 7675,
      "Go": 7676,
      "Ġfre": 7677,
      "Ġmountain": 7678,
      "ĠRadio": 7679,
      "Ġorganized": 7680,
      "Gl": 7681,
      "Ġconflict": 7682,
      "Ġideas": 7683,
      "option": 7684,
      "rating": 7685,
      "airman": 7686,
      "Ġthr": 7687,
      "ĠSom": 7688,
      "Ġatoms": 7689,
      "iii": 7690,
      "Ġkept": 7691,
      "Ġnotion": 7692,
      "inity": 7693,
      "Bi": 7694,
      "actory": 7695,
      "Ġmedian": 7696,
      "appe": 7697,
      "Ġconsisting": 7698,
      "Ġpossibly": 7699,
      "Ġwrong": 7700,
      "Ġperiodic": 7701,
      "ĠEu": 7702,
      "loc": 7703,
      "cope": 7704,
      "istent": 7705,
      "Ġterrit": 7706,
      "hl": 7707,
      "isted": 7708,
      "Ġthous": 7709,
      "Ġpromin": 7710,
      "Ġincident": 7711,
      "Ġentries": 7712,
      "Ġhttps": 7713,
      "ymmetric": 7714,
      "Ġprotected": 7715,
      "Ġcollected": 7716,
      "Ġoperating": 7717,
      "Ġoffered": 7718,
      "Ġcommission": 7719,
      "ronic": 7720,
      "Ġoil": 7721,
      "large": 7722,
      "ĠConference": 7723,
      "bury": 7724,
      "gather": 7725,
      "|$": 7726,
      "ĠGame": 7727,
      "MT": 7728,
      "Ag": 7729,
      "ĠGre": 7730,
      "Ġhusband": 7731,
      "ĠStand": 7732,
      "weet": 7733,
      "ingly": 7734,
      "Ġconjug": 7735,
      "Ġlived": 7736,
      "Ġtrial": 7737,
      "Cre": 7738,
      "ĠBase": 7739,
      "Ġpil": 7740,
      "doc": 7741,
      "Ġmeas": 7742,
      "Ġhistorical": 7743,
      "erence": 7744,
      "Ġmill": 7745,
      "Ġchart": 7746,
      "prov": 7747,
      "arios": 7748,
      "Ġversions": 7749,
      "Ġaffected": 7750,
      "cycl": 7751,
      "ĠPhys": 7752,
      "urban": 7753,
      "ĠAcc": 7754,
      "ĠBritain": 7755,
      "Ġlibrary": 7756,
      "Ġrequirements": 7757,
      "--------------------------------": 7758,
      "Ġrig": 7759,
      "continu": 7760,
      "ĠLord": 7761,
      "aming": 7762,
      "ĠEmpire": 7763,
      "Ġvacuum": 7764,
      "250": 7765,
      ";</": 7766,
      "Ġsecondary": 7767,
      "Ġreaction": 7768,
      "Ġfelt": 7769,
      "Ġlowest": 7770,
      "{|": 7771,
      "Ġfamous": 7772,
      "Ġelectronic": 7773,
      "Ġarc": 7774,
      "Ġcorrections": 7775,
      "effect": 7776,
      "Ġuncertainties": 7777,
      "VD": 7778,
      "ĠEr": 7779,
      "Ġtoward": 7780,
      "Ġtrust": 7781,
      "cline": 7782,
      "ĠType": 7783,
      "Source": 7784,
      "Ġowned": 7785,
      "regular": 7786,
      "Ġquantity": 7787,
      "Ġchallenge": 7788,
      "Ġplus": 7789,
      "clusive": 7790,
      "enchmark": 7791,
      "Ġcamera": 7792,
      "Ġ_{\\": 7793,
      "Ġindices": 7794,
      "Ġshell": 7795,
      "Ġexpressions": 7796,
      "Ġrespond": 7797,
      "ĠEp": 7798,
      "event": 7799,
      "Ġintegrated": 7800,
      "ĠAsia": 7801,
      "crit": 7802,
      "Ġmargin": 7803,
      "Ġinvestigation": 7804,
      "ĠAv": 7805,
      "hard": 7806,
      "Ġhalo": 7807,
      "jected": 7808,
      "ĠRun": 7809,
      "Ġcommonly": 7810,
      "ĠGoogle": 7811,
      "comput": 7812,
      "Ġincome": 7813,
      "Ġauto": 7814,
      "Ġevaluated": 7815,
      "Action": 7816,
      "Ġmagazine": 7817,
      "elect": 7818,
      "1920": 7819,
      "Ġdescent": 7820,
      "ĠScottish": 7821,
      "footnotes": 7822,
      "Ġdriving": 7823,
      "nol": 7824,
      "igration": 7825,
      ")}(\\": 7826,
      "Although": 7827,
      "Ġnecessarily": 7828,
      "ĠBal": 7829,
      "Ġagree": 7830,
      "never": 7831,
      "varrho": 7832,
      "./": 7833,
      "pressed": 7834,
      "Ġpolic": 7835,
      "\\|_": 7836,
      "Ġanom": 7837,
      "ĠSand": 7838,
      "ĠGreek": 7839,
      "Ġlanguages": 7840,
      "oday": 7841,
      "Ġple": 7842,
      ")</": 7843,
      "ĠDec": 7844,
      "ĠMany": 7845,
      "clip": 7846,
      "DD": 7847,
      "Ġdependent": 7848,
      "Ġdoc": 7849,
      "zy": 7850,
      "Ġmolecular": 7851,
      "eries": 7852,
      "ĠAM": 7853,
      "Ġ===": 7854,
      "Ġproportional": 7855,
      "osoph": 7856,
      "Sum": 7857,
      "Ġgeometric": 7858,
      "Ġflag": 7859,
      "Career": 7860,
      "Ġnormalized": 7861,
      "oir": 7862,
      "ervised": 7863,
      "Ġreligious": 7864,
      "Cal": 7865,
      "ĠIslam": 7866,
      "Ġfeedback": 7867,
      "Ġphases": 7868,
      "Further": 7869,
      "footnotesize": 7870,
      "ĠAtt": 7871,
      "}/\\": 7872,
      "Result": 7873,
      "Ġcitiz": 7874,
      "mode": 7875,
      "ĠCamb": 7876,
      "ĠBlue": 7877,
      "ĠJohnson": 7878,
      "Ġentered": 7879,
      ")(\\": 7880,
      "Ġvictory": 7881,
      "ĠFC": 7882,
      "Ġreprodu": 7883,
      "Ġbond": 7884,
      "ĠRay": 7885,
      "Ġvisible": 7886,
      "there": 7887,
      "Ġconfigurations": 7888,
      "amm": 7889,
      "BB": 7890,
      "Ġrepeated": 7891,
      "Ġuniversal": 7892,
      "icular": 7893,
      "Some": 7894,
      "TC": 7895,
      "Image": 7896,
      "ĠEll": 7897,
      "Ġfigures": 7898,
      "Property": 7899,
      "Ġ\\[": 7900,
      "ĠSouthern": 7901,
      "'.": 7902,
      "ennis": 7903,
      "itness": 7904,
      "Ġchanging": 7905,
      ")}.": 7906,
      "multline": 7907,
      "Ġpowers": 7908,
      "ĠĠĠĠĠĠĠĠĊ": 7909,
      "Us": 7910,
      "Ġdepartment": 7911,
      "Ġcensus": 7912,
      "Ġsubsequent": 7913,
      "rage": 7914,
      "ador": 7915,
      "tz": 7916,
      "Ġdemonstrate": 7917,
      "ila": 7918,
      "PO": 7919,
      "ding": 7920,
      "vals": 7921,
      "hens": 7922,
      "Ġdirections": 7923,
      "bell": 7924,
      "Ġcreation": 7925,
      "ĠBuild": 7926,
      "uing": 7927,
      "ĉĉĉĉĉĉ": 7928,
      "ename": 7929,
      "Ġessentially": 7930,
      "rance": 7931,
      "Ġwild": 7932,
      "Ġdefeated": 7933,
      "Ġfitting": 7934,
      "images": 7935,
      "Last": 7936,
      "Ġreduces": 7937,
      "select": 7938,
      "ĠVis": 7939,
      "!!": 7940,
      "uv": 7941,
      "stone": 7942,
      "Ġseat": 7943,
      "ĠRegister": 7944,
      "ĠPennsylvania": 7945,
      "oton": 7946,
      "Ġarmy": 7947,
      "Ġdrama": 7948,
      "Po": 7949,
      "================": 7950,
      "ĠHa": 7951,
      "Ġseparation": 7952,
      "{(\\": 7953,
      "ione": 7954,
      "Ġdrum": 7955,
      "Ġfrequencies": 7956,
      "ĠFace": 7957,
      "ĠUk": 7958,
      "ĠTem": 7959,
      "aved": 7960,
      "Ġhands": 7961,
      "Ġanalyz": 7962,
      "Ġsales": 7963,
      "Ġbill": 7964,
      "Ġlens": 7965,
      "Ġfiles": 7966,
      "Ġelections": 7967,
      "gypt": 7968,
      "ĠID": 7969,
      "Ġprofiles": 7970,
      "Ġintermediate": 7971,
      "hfill": 7972,
      "&=&\\": 7973,
      "Ġquadratic": 7974,
      "spe": 7975,
      "formance": 7976,
      "inois": 7977,
      "Ġblood": 7978,
      "Ġconclusion": 7979,
      "Ġrailway": 7980,
      "cQ": 7981,
      "ĠAnother": 7982,
      "icine": 7983,
      "ĠBow": 7984,
      "AF": 7985,
      "uon": 7986,
      "ĠMichigan": 7987,
      "Ġgenerating": 7988,
      "ĠDM": 7989,
      "ested": 7990,
      "ĠPrem": 7991,
      "ture": 7992,
      "They": 7993,
      "Ġdiscrim": 7994,
      "Ġpolynomials": 7995,
      "aby": 7996,
      "Ġfailure": 7997,
      "burgh": 7998,
      "ĠCorpor": 7999,
      "1963": 8000,
      "}$\\": 8001,
      "func": 8002,
      "1962": 8003,
      "ĠBra": 8004,
      "ĠCivil": 8005,
      "nections": 8006,
      "imer": 8007,
      "Ġexclud": 8008,
      "lik": 8009,
      "Ġresear": 8010,
      "Ġcreating": 8011,
      "Ġalgebraic": 8012,
      "Ġcounty": 8013,
      "ĠLog": 8014,
      "ĠDev": 8015,
      "Ġempir": 8016,
      "Ġplas": 8017,
      "Ġeveryone": 8018,
      "ancing": 8019,
      "Ġaggreg": 8020,
      "ĠWilliams": 8021,
      "Ġnative": 8022,
      "Ġstorage": 8023,
      "Ġ$^{": 8024,
      "Ġneutrino": 8025,
      "ĠĠčĊ": 8026,
      "Ġcities": 8027,
      "sen": 8028,
      "osis": 8029,
      "indows": 8030,
      "Ġanalytic": 8031,
      "zen": 8032,
      "Ġbelieved": 8033,
      "Ġhandle": 8034,
      "Ġlatest": 8035,
      "ĠCarl": 8036,
      "Ġhomogeneous": 8037,
      "Ġreader": 8038,
      "Ġrecover": 8039,
      "ĠMedia": 8040,
      "Paramet": 8041,
      "Ġmes": 8042,
      "Ġhospital": 8043,
      "invariant": 8044,
      "aturally": 8045,
      ")[": 8046,
      "Films": 8047,
      "ĠManagement": 8048,
      "ĠFar": 8049,
      "Ġspecifically": 8050,
      "Ġinterior": 8051,
      "ĠWin": 8052,
      "ĠBattle": 8053,
      "sep": 8054,
      "ĠAirport": 8055,
      "ĠBell": 8056,
      "Ġsky": 8057,
      "Ġsetup": 8058,
      "Ġtwice": 8059,
      "Work": 8060,
      "ori": 8061,
      "ĠSong": 8062,
      "ulty": 8063,
      "aded": 8064,
      "tail": 8065,
      "ĠBul": 8066,
      "ĠPacific": 8067,
      "ains": 8068,
      "ĠEnter": 8069,
      "mem": 8070,
      "Ġexplan": 8071,
      "Ġinterpretation": 8072,
      "ĠWell": 8073,
      "}.}": 8074,
      "Ġconfidence": 8075,
      "Ġelectrons": 8076,
      "Oper": 8077,
      "Ġisn": 8078,
      "Ġfocused": 8079,
      "Ġgirl": 8080,
      "ãĤ": 8081,
      "ĠMu": 8082,
      "Ġrepresentative": 8083,
      "Ġtopology": 8084,
      "Ġorthogonal": 8085,
      "Ġclaims": 8086,
      "ograp": 8087,
      "$^{": 8088,
      "Ġrecording": 8089,
      "Ġdiffusion": 8090,
      "*}[": 8091,
      "Ġvariations": 8092,
      "Ġprecision": 8093,
      "ĠVi": 8094,
      "si": 8095,
      "Ġ->": 8096,
      "adel": 8097,
      "Ġchance": 8098,
      "-(": 8099,
      "etts": 8100,
      "ubble": 8101,
      "Ġinstant": 8102,
      "GeV": 8103,
      "Di": 8104,
      "gar": 8105,
      "Ġopportunity": 8106,
      "ĠCro": 8107,
      "Ġdensities": 8108,
      "ĠJewish": 8109,
      "Ġdecrease": 8110,
      "aton": 8111,
      "Ġreferences": 8112,
      "Ġextremely": 8113,
      "ĠCorollary": 8114,
      "$^": 8115,
      "ĠBor": 8116,
      "init": 8117,
      "itage": 8118,
      "Ġends": 8119,
      "quant": 8120,
      "herical": 8121,
      "Red": 8122,
      "Ġaccret": 8123,
      "ĠMethod": 8124,
      "wave": 8125,
      "ĠWilson": 8126,
      "<!--": 8127,
      "Two": 8128,
      "Ġfans": 8129,
      "Ġcolumns": 8130,
      "ĠSpecial": 8131,
      "Ġdatabase": 8132,
      "Pos": 8133,
      "})^{": 8134,
      "Ġandroid": 8135,
      "Ġoperated": 8136,
      "Head": 8137,
      "Ġorganizations": 8138,
      "Ġinfer": 8139,
      "Ġcomplement": 8140,
      "nam": 8141,
      "ĠBol": 8142,
      "square": 8143,
      "Ġnor": 8144,
      "ĠVan": 8145,
      "Ġmoments": 8146,
      "imb": 8147,
      "ĠPop": 8148,
      "parent": 8149,
      "LC": 8150,
      "kK": 8151,
      "Ġcoverage": 8152,
      "ĠConsider": 8153,
      "Ġcatalog": 8154,
      "=\\{": 8155,
      "Ġur": 8156,
      "iveness": 8157,
      "ĠGR": 8158,
      "Ġuniversity": 8159,
      "aya": 8160,
      "othing": 8161,
      "apes": 8162,
      "Ġprogramming": 8163,
      "ĠSU": 8164,
      "riend": 8165,
      "icate": 8166,
      "mI": 8167,
      "Client": 8168,
      "Ġiteration": 8169,
      "Ġflav": 8170,
      "Yi": 8171,
      "ĠOhio": 8172,
      "Ġpurs": 8173,
      "ĠAR": 8174,
      "Ġspeech": 8175,
      "Ġsend": 8176,
      "ĠMountain": 8177,
      "Ġsubsequently": 8178,
      "Ġbra": 8179,
      "Input": 8180,
      "ermi": 8181,
      "PM": 8182,
      "Ġrecognition": 8183,
      "Oe": 8184,
      "ĠĠĠĠĠĠĠĠĠĠĠĠĠĠĠĠĠĠĠĠĠĠĠĠĠĠĠĠĠĠĠ": 8185,
      "&&\\": 8186,
      "aturing": 8187,
      "ĠMah": 8188,
      "ĠQueen": 8189,
      "lower": 8190,
      "PD": 8191,
      "Ġformulation": 8192,
      "ĠPower": 8193,
      "fa": 8194,
      "Ġdedicated": 8195,
      "Ġcharacteristics": 8196,
      "Ġalle": 8197,
      "Ġcontrolled": 8198,
      "plicated": 8199,
      "TS": 8200,
      "Ġsolving": 8201,
      "full": 8202,
      "stood": 8203,
      "uries": 8204,
      "Ġprimarily": 8205,
      "ãģ": 8206,
      "Ġbillion": 8207,
      "Ġmanaged": 8208,
      "textnormal": 8209,
      "textcolor": 8210,
      "leep": 8211,
      "Ġkin": 8212,
      "Ġcalls": 8213,
      "onto": 8214,
      "Ġabsorption": 8215,
      "Ġliqu": 8216,
      "Ġcharges": 8217,
      "ĠSi": 8218,
      "Ġdoub": 8219,
      "Aust": 8220,
      "query": 8221,
      "Ġlaunch": 8222,
      "lope": 8223,
      "elligence": 8224,
      "Ġcontinuum": 8225,
      "600": 8226,
      "Ġcancer": 8227,
      "ĠBu": 8228,
      "google": 8229,
      "Ġfinds": 8230,
      "Ġaspects": 8231,
      "ĠDou": 8232,
      "arity": 8233,
      "Ġinsert": 8234,
      "ĠJeff": 8235,
      "ĠHuman": 8236,
      "Ġcold": 8237,
      "Ġarticles": 8238,
      "element": 8239,
      "Ġclosely": 8240,
      "Point": 8241,
      "Ġstraightforward": 8242,
      ">(": 8243,
      "ĠJersey": 8244,
      "ĠOF": 8245,
      "ĠAsian": 8246,
      "Builder": 8247,
      "NE": 8248,
      "binom": 8249,
      "ĠCr": 8250,
      "Ġstd": 8251,
      "Ġcontinues": 8252,
      "Ġpuls": 8253,
      "erg": 8254,
      "dule": 8255,
      "instein": 8256,
      "ĠMiddle": 8257,
      "close": 8258,
      "ĠCard": 8259,
      "Stream": 8260,
      "ULL": 8261,
      "enger": 8262,
      "ĠTro": 8263,
      "@{": 8264,
      "abeth": 8265,
      "target": 8266,
      "ogram": 8267,
      "ĠOx": 8268,
      "Ġversus": 8269,
      "het": 8270,
      "theless": 8271,
      "osa": 8272,
      "Ġorbital": 8273,
      "edia": 8274,
      "Ġdeviation": 8275,
      "JQ": 8276,
      "Ġbridge": 8277,
      "Ġtreated": 8278,
      "Ġsummary": 8279,
      "Ġsecret": 8280,
      "Ġ>>": 8281,
      "Ġadjacent": 8282,
      "Ġmobile": 8283,
      "Ġdeploy": 8284,
      "Ġmorning": 8285,
      "ĠSN": 8286,
      "Ġintroduction": 8287,
      "National": 8288,
      "sg": 8289,
      "uparrow": 8290,
      "ĠGi": 8291,
      "lib": 8292,
      "pop": 8293,
      "plan": 8294,
      "Ġdominant": 8295,
      "General": 8296,
      "ĠLore": 8297,
      "Ġbatt": 8298,
      "Ġcorrelations": 8299,
      "Ġreconstruction": 8300,
      "Ġelli": 8301,
      "Ġopin": 8302,
      "Ġstrictly": 8303,
      "1961": 8304,
      "May": 8305,
      "Ġfle": 8306,
      "tack": 8307,
      "Ġofficers": 8308,
      "Ġhorizontal": 8309,
      "nm": 8310,
      "Ġsubspace": 8311,
      "Case": 8312,
      "Ġcert": 8313,
      "Ġsimilarly": 8314,
      "ication": 8315,
      "dir": 8316,
      "Ġconvolution": 8317,
      "Ġvon": 8318,
      "Ġacquired": 8319,
      "ĠEconom": 8320,
      "stat": 8321,
      "Ġsingles": 8322,
      "onia": 8323,
      "Ġtriple": 8324,
      "ĠOp": 8325,
      "ĠLem": 8326,
      "Ġweap": 8327,
      "180": 8328,
      "ĠMicro": 8329,
      "Ġneutral": 8330,
      "Ġnav": 8331,
      "mag": 8332,
      "scape": 8333,
      "arser": 8334,
      "}^{+": 8335,
      "Ġsurfaces": 8336,
      "AE": 8337,
      "Ġspot": 8338,
      "iful": 8339,
      "Ac": 8340,
      "ĠBa": 8341,
      "Ġcaptured": 8342,
      "ez": 8343,
      "Ġsupers": 8344,
      "Ġbass": 8345,
      "ĠCR": 8346,
      "ructions": 8347,
      "oles": 8348,
      "ifact": 8349,
      "ĠConn": 8350,
      "ĠCoast": 8351,
      "ĠBoston": 8352,
      "ĠWall": 8353,
      "]^": 8354,
      "Ġsuc": 8355,
      "ĠMid": 8356,
      ",...,": 8357,
      "clear": 8358,
      "Ġirreducible": 8359,
      "ĠEdward": 8360,
      "BR": 8361,
      "Ġrestricted": 8362,
      "Ġplanning": 8363,
      "ĠWild": 8364,
      "ĠKent": 8365,
      "$\\\\": 8366,
      "found": 8367,
      "product": 8368,
      "Ġtried": 8369,
      "enth": 8370,
      "ĠKh": 8371,
      "last": 8372,
      "Run": 8373,
      "Ġserving": 8374,
      "Ġsensitivity": 8375,
      "Ġlargely": 8376,
      "Ġowners": 8377,
      "water": 8378,
      "\").": 8379,
      "ĠFrancisco": 8380,
      "ĠRh": 8381,
      "Ġmetall": 8382,
      "tree": 8383,
      "possible": 8384,
      "Ġclin": 8385,
      "Up": 8386,
      "ĠSenate": 8387,
      "Ġsister": 8388,
      "Ġcultural": 8389,
      "Ġsystematic": 8390,
      "Ġpractical": 8391,
      "ĠStan": 8392,
      "Ġdecreases": 8393,
      "Ġschemes": 8394,
      "green": 8395,
      "pdate": 8396,
      "Base": 8397,
      "ĠWater": 8398,
      "ĠPoint": 8399,
      "Ġprecise": 8400,
      "Ġintended": 8401,
      "ĠTheatre": 8402,
      "ucky": 8403,
      "rates": 8404,
      "arest": 8405,
      "forming": 8406,
      "riday": 8407,
      "Ġimprovement": 8408,
      "Local": 8409,
      "Date": 8410,
      "Non": 8411,
      "ĠRepresent": 8412,
      "Ġabsence": 8413,
      "Ġeffectively": 8414,
      "rinsic": 8415,
      "ĠSunday": 8416,
      "irds": 8417,
      "iger": 8418,
      "inals": 8419,
      "Ġlabor": 8420,
      "1944": 8421,
      "Ġtransverse": 8422,
      "ĠUN": 8423,
      "Ġformul": 8424,
      "BL": 8425,
      "achus": 8426,
      ".$$": 8427,
      "Sing": 8428,
      "Mat": 8429,
      "}{{\\": 8430,
      "Ġmultip": 8431,
      "Ġprotocol": 8432,
      "propto": 8433,
      "inson": 8434,
      "BO": 8435,
      "128": 8436,
      "_{+": 8437,
      "ponents": 8438,
      "ĠGeorgia": 8439,
      "Ġtransitions": 8440,
      "ĠCommunity": 8441,
      "Ġpool": 8442,
      "ĠKen": 8443,
      "arams": 8444,
      "Ġscenarios": 8445,
      "yd": 8446,
      "oute": 8447,
      "Mult": 8448,
      "Ġask": 8449,
      "anglement": 8450,
      "Ġcouncil": 8451,
      "ĠWeb": 8452,
      "oses": 8453,
      "ĠGar": 8454,
      "Ġderivatives": 8455,
      "Ġsensitive": 8456,
      "since": 8457,
      "Ġsquad": 8458,
      "Ġhierarch": 8459,
      "Ġpush": 8460,
      "Ġdrawn": 8461,
      "Ġtang": 8462,
      "ĠFollowing": 8463,
      "Ð»": 8464,
      "adding": 8465,
      "Ġscript": 8466,
      "Ġpackage": 8467,
      "ubV": 8468,
      "LBJ": 8469,
      "Ġresidual": 8470,
      "Ġsucceed": 8471,
      "aturday": 8472,
      "160": 8473,
      "Ġactors": 8474,
      "JQYi": 8475,
      "Ġconference": 8476,
      "desc": 8477,
      "UlI": 8478,
      "YkK": 8479,
      "iemann": 8480,
      "MNmI": 8481,
      "oiubV": 8482,
      "tfGu": 8483,
      "cQLBJ": 8484,
      "YkKoiubV": 8485,
      "YkKoiubVtfGu": 8486,
      "JQYiUlI": 8487,
      "ĠPR": 8488,
      "hire": 8489,
      "IST": 8490,
      "ãĥ": 8491,
      "Ġbudget": 8492,
      "Ġcovering": 8493,
      "ĠNight": 8494,
      "chester": 8495,
      "Ġsupply": 8496,
      "ruit": 8497,
      "Ġdie": 8498,
      "Response": 8499,
      "aki": 8500,
      "android": 8501,
      "YkKoiubVtfGuOe": 8502,
      "namespace": 8503,
      "Ġmetrics": 8504,
      "Ġdefines": 8505,
      "ĠAndrew": 8506,
      "Ġroughly": 8507,
      "ĠDaily": 8508,
      "Ġfloor": 8509,
      "Ġcircuit": 8510,
      "eless": 8511,
      "ĠCase": 8512,
      "rog": 8513,
      "Ġhighlight": 8514,
      "ĠPhilipp": 8515,
      "ĠMot": 8516,
      "mathtt": 8517,
      "ĠIllinois": 8518,
      "ĠTri": 8519,
      "dash": 8520,
      "Ġsuccessfully": 8521,
      "Ġenhance": 8522,
      "amber": 8523,
      "Proposition": 8524,
      "Ġdispersion": 8525,
      "Ġcorner": 8526,
      "ĠInformation": 8527,
      "ĠNS": 8528,
      "ĠKong": 8529,
      "Ġpaid": 8530,
      "achusetts": 8531,
      "bigcup": 8532,
      "dens": 8533,
      "oli": 8534,
      "ĠDar": 8535,
      "arithm": 8536,
      "Ġfashion": 8537,
      "Ġcrew": 8538,
      "Ġlov": 8539,
      "cape": 8540,
      "Ġmodeling": 8541,
      "Ġdominated": 8542,
      "Ġbroken": 8543,
      "img": 8544,
      "ĠBir": 8545,
      "CF": 8546,
      "ativistic": 8547,
      "Ġfaster": 8548,
      "Query": 8549,
      "aux": 8550,
      "Ġassociation": 8551,
      "Dr": 8552,
      "ĠComput": 8553,
      "Ġregional": 8554,
      "Å¡": 8555,
      "boldmath": 8556,
      "ĠServices": 8557,
      "\\}.": 8558,
      "=\"../": 8559,
      "ĠSD": 8560,
      "pres": 8561,
      "athan": 8562,
      "ĠFour": 8563,
      "ĠUs": 8564,
      "Ġbreaking": 8565,
      "etch": 8566,
      "comb": 8567,
      "Ġrestriction": 8568,
      "ĠSimilarly": 8569,
      "Ġ{};": 8570,
      "Ġpurposes": 8571,
      "chor": 8572,
      "Label": 8573,
      "ĠDutch": 8574,
      "Ġviews": 8575,
      "Ġdemonstrated": 8576,
      "Ġexpectation": 8577,
      "rob": 8578,
      "Will": 8579,
      "php": 8580,
      "Ġfort": 8581,
      "ĠHead": 8582,
      "power": 8583,
      "Ġdraft": 8584,
      "Ġprem": 8585,
      "Ġpassing": 8586,
      "Ġsurrounding": 8587,
      "represent": 8588,
      "1956": 8589,
      "ĠLagrangian": 8590,
      "irection": 8591,
      "Ġexcess": 8592,
      "Ġheav": 8593,
      "teen": 8594,
      "ĠColor": 8595,
      "Ġpages": 8596,
      "ĠÎ": 8597,
      "Ġdistances": 8598,
      "ĠSecretary": 8599,
      "GS": 8600,
      "1959": 8601,
      "ĠPM": 8602,
      "Ġvehicles": 8603,
      "Ġcolon": 8604,
      "$'": 8605,
      "entry": 8606,
      "ĠHaw": 8607,
      "ĠHilbert": 8608,
      "Ġdip": 8609,
      "Ġillustrated": 8610,
      "ĠPubl": 8611,
      "Ġadministration": 8612,
      "bro": 8613,
      "Year": 8614,
      "Ġseparated": 8615,
      "len": 8616,
      "Ġsun": 8617,
      "world": 8618,
      "observ": 8619,
      "phia": 8620,
      "Hel": 8621,
      "Ġwestern": 8622,
      "Ġready": 8623,
      "Ġstrugg": 8624,
      "ĠEst": 8625,
      "phone": 8626,
      "ĠHal": 8627,
      "Ġprepar": 8628,
      "phase": 8629,
      "imately": 8630,
      "Ġsimulated": 8631,
      "Ġvarying": 8632,
      "sd": 8633,
      "ifer": 8634,
      "gal": 8635,
      "ĠJon": 8636,
      "Ġtag": 8637,
      "life": 8638,
      "Ġresidents": 8639,
      "inction": 8640,
      "property": 8641,
      "Ġconcert": 8642,
      "Ġzone": 8643,
      "ĠDisc": 8644,
      "illing": 8645,
      "Brit": 8646,
      "expected": 8647,
      "ĠJr": 8648,
      "ĠMas": 8649,
      "Ġconsec": 8650,
      "ynamics": 8651,
      "Ġbeat": 8652,
      "Ġcook": 8653,
      "when": 8654,
      "scope": 8655,
      "Ġreviews": 8656,
      "raise": 8657,
      "anced": 8658,
      "Ġatomic": 8659,
      "pool": 8660,
      "ĠNone": 8661,
      "Ġ\\|\\": 8662,
      "leftarrow": 8663,
      "Ġfib": 8664,
      "LR": 8665,
      "GA": 8666,
      "hent": 8667,
      "ĠSports": 8668,
      "BE": 8669,
      "Ġcharacterized": 8670,
      "pson": 8671,
      "Ġstreet": 8672,
      "ĠBang": 8673,
      "pot": 8674,
      "1958": 8675,
      ")}$.": 8676,
      "ĠBBC": 8677,
      "Em": 8678,
      "125": 8679,
      "Ġlooks": 8680,
      "defn": 8681,
      "enant": 8682,
      "smallskip": 8683,
      "Ġcircum": 8684,
      "Ġheard": 8685,
      "measure": 8686,
      "ApJ": 8687,
      "uated": 8688,
      "^+$": 8689,
      "Ġtransp": 8690,
      "occer": 8691,
      "ĠPolice": 8692,
      "$\\,": 8693,
      "Ġstrategies": 8694,
      "Ġsatell": 8695,
      "ĠPoland": 8696,
      "Ġportion": 8697,
      "ĠEgypt": 8698,
      "spirit": 8699,
      "illy": 8700,
      "Ġdefinitions": 8701,
      "Ġwinner": 8702,
      ")_{\\": 8703,
      "Ġaccepted": 8704,
      "ĠAff": 8705,
      "}[!": 8706,
      "Ġinclusion": 8707,
      "001": 8708,
      "Ġexcell": 8709,
      "Ġbalance": 8710,
      "Left": 8711,
      "ais": 8712,
      "aling": 8713,
      "Ġperhaps": 8714,
      "Ġissued": 8715,
      "\\[\\": 8716,
      "Ġpoliticians": 8717,
      "argets": 8718,
      "orig": 8719,
      "Start": 8720,
      "ĠAst": 8721,
      "Ġfellow": 8722,
      "ĠJackson": 8723,
      "Ġweighted": 8724,
      "Gener": 8725,
      "Ġowner": 8726,
      "Ġbriefly": 8727,
      "client": 8728,
      "ĠJes": 8729,
      "ĠPrince": 8730,
      "Ġtight": 8731,
      "ois": 8732,
      "Ġ}}": 8733,
      "Ġseconds": 8734,
      "Ġcir": 8735,
      "Ġepisodes": 8736,
      "sym": 8737,
      "Par": 8738,
      "INE": 8739,
      "erset": 8740,
      "author": 8741,
      "Ġfifth": 8742,
      "%)": 8743,
      "Ġmac": 8744,
      "ictures": 8745,
      "ĠWeek": 8746,
      "Ġflows": 8747,
      "kern": 8748,
      "Ġdamage": 8749,
      "outhe": 8750,
      "short": 8751,
      "Ġyouth": 8752,
      "Function": 8753,
      "Ġ---": 8754,
      "Ġscope": 8755,
      "cknowledg": 8756,
      "Ġvictim": 8757,
      "Ġpermut": 8758,
      "finished": 8759,
      "mt": 8760,
      "icip": 8761,
      "nolimits": 8762,
      "ĠJoe": 8763,
      "ĠBroad": 8764,
      "Ġreality": 8765,
      ")).": 8766,
      "ĠBC": 8767,
      "estic": 8768,
      "Ġbran": 8769,
      "Ġbaseline": 8770,
      "Ġmuseum": 8771,
      "Override": 8772,
      "Ġtemporal": 8773,
      "Ġcars": 8774,
      "Men": 8775,
      "Ġbool": 8776,
      "Ġunless": 8777,
      "ĠLight": 8778,
      "Ġtells": 8779,
      "Ġequipment": 8780,
      "Ġconcentration": 8781,
      "ĠMult": 8782,
      "ĠGovernor": 8783,
      "leqslant": 8784,
      "1948": 8785,
      "Ġlikelihood": 8786,
      "arters": 8787,
      "Ġtrap": 8788,
      "ĠFree": 8789,
      "Ġpapers": 8790,
      "ĠAsh": 8791,
      "Ġbegins": 8792,
      "amin": 8793,
      "Ġrich": 8794,
      "Return": 8795,
      "})=\\": 8796,
      "Ġproduces": 8797,
      "Ġhuge": 8798,
      "Ġ\\{\\": 8799,
      "Ġpp": 8800,
      "Ġsport": 8801,
      "Ġadvers": 8802,
      "Ġpolicies": 8803,
      "Ġexceed": 8804,
      "subequations": 8805,
      "ĠAlgorithm": 8806,
      "Ġpanels": 8807,
      "ĠKorea": 8808,
      "$}}": 8809,
      "ogether": 8810,
      "Ġradi": 8811,
      "Util": 8812,
      "mal": 8813,
      "Ġbuy": 8814,
      "ĠLittle": 8815,
      "erry": 8816,
      "Ġdog": 8817,
      "Ġmeant": 8818,
      "Ġcomedy": 8819,
      "Ġaw": 8820,
      "ordan": 8821,
      "Second": 8822,
      "101": 8823,
      "Ġmonitor": 8824,
      "ĠUr": 8825,
      "1957": 8826,
      "Ġphotons": 8827,
      "Ġ~\\": 8828,
      "Ġcodes": 8829,
      "Ġverify": 8830,
      "Ġinvestigated": 8831,
      "Another": 8832,
      "BH": 8833,
      "Ġaware": 8834,
      "Ġemail": 8835,
      "else": 8836,
      "Ġsession": 8837,
      "GM": 8838,
      "find": 8839,
      "Ġhappen": 8840,
      "ami": 8841,
      "Dem": 8842,
      "Ġquot": 8843,
      "}>": 8844,
      "1942": 8845,
      "Ġsave": 8846,
      "dney": 8847,
      "pred": 8848,
      "Nav": 8849,
      "}^+": 8850,
      "ĠBack": 8851,
      "Ġphoto": 8852,
      "ĠEvery": 8853,
      "different": 8854,
      "ocket": 8855,
      "ceil": 8856,
      "ĠPen": 8857,
      "textsf": 8858,
      "RL": 8859,
      "Ġadvert": 8860,
      "pic": 8861,
      "ĠThree": 8862,
      "Ġcrow": 8863,
      "hs": 8864,
      "Ġuniverse": 8865,
      "Ġstead": 8866,
      "Ġboy": 8867,
      "Ġretired": 8868,
      "ĠRepublican": 8869,
      "Track": 8870,
      "ĠStat": 8871,
      "Ġcrucial": 8872,
      "Ġships": 8873,
      "Ġshop": 8874,
      "ĠMuslim": 8875,
      "Ġbuff": 8876,
      "Ġdaily": 8877,
      "ĠSea": 8878,
      "citealt": 8879,
      "}},\\": 8880,
      "ĠDesign": 8881,
      "Ġentirely": 8882,
      "functions": 8883,
      "Ġcorpor": 8884,
      "Ġpeace": 8885,
      "800": 8886,
      "esides": 8887,
      "Ġcollision": 8888,
      "\\},": 8889,
      "Ġgate": 8890,
      "ĠMassachusetts": 8891,
      "ĠStation": 8892,
      "sole": 8893,
      "shot": 8894,
      "Ġofficials": 8895,
      "Sports": 8896,
      "ĠQueens": 8897,
      "ĠMike": 8898,
      "iang": 8899,
      "ocated": 8900,
      "Ġexecutive": 8901,
      "ĠEastern": 8902,
      "Ġorientation": 8903,
      "Ġattend": 8904,
      "opes": 8905,
      "Ġhappens": 8906,
      "erion": 8907,
      "Ġera": 8908,
      "ideos": 8909,
      "Off": 8910,
      "exists": 8911,
      "Ġdiagrams": 8912,
      "ĠWis": 8913,
      "Ġ<<": 8914,
      "ĠJacob": 8915,
      "Ġunderstood": 8916,
      "una": 8917,
      "ĠDaniel": 8918,
      "wt": 8919,
      "Ġexpanded": 8920,
      "Ġbenefit": 8921,
      "Ġfacilities": 8922,
      "DT": 8923,
      "Ġsphere": 8924,
      "Ġuniqu": 8925,
      "1939": 8926,
      "ĠPortug": 8927,
      "problem": 8928,
      "card": 8929,
      "Ġmarriage": 8930,
      "ĠPy": 8931,
      "Ġdro": 8932,
      "adi": 8933,
      "adata": 8934,
      "Ġanyone": 8935,
      "rome": 8936,
      "Ġgenerator": 8937,
      "ĠTw": 8938,
      "Ġinvolves": 8939,
      "ĠSciences": 8940,
      "Ġthanks": 8941,
      "Ġcopies": 8942,
      "Ġresonance": 8943,
      "rowser": 8944,
      "\"),": 8945,
      "ĠJustice": 8946,
      "RI": 8947,
      "Ġpretty": 8948,
      "Ġrandomly": 8949,
      "Ġrespective": 8950,
      "comes": 8951,
      "Ġcauses": 8952,
      "Ġfootballer": 8953,
      "Ġratios": 8954,
      "project": 8955,
      "Ġproposition": 8956,
      "ught": 8957,
      "Ġchoices": 8958,
      "Ġtrajectory": 8959,
      "Ġflight": 8960,
      "Ġarrived": 8961,
      "Ġcovers": 8962,
      "Ġnaturally": 8963,
      "ologist": 8964,
      "Ġengineering": 8965,
      "Ġinspired": 8966,
      "ĠFund": 8967,
      "Ġcloser": 8968,
      "density": 8969,
      "Ġupdated": 8970,
      "look": 8971,
      "trivial": 8972,
      "vo": 8973,
      "ĠChris": 8974,
      "ĠOnly": 8975,
      "Ġalgebras": 8976,
      "ONT": 8977,
      "ĠInf": 8978,
      "Each": 8979,
      "_{-\\": 8980,
      "oned": 8981,
      "Ġdiagn": 8982,
      "ĠĠĠĠĠĠĠĠĠĠĠĠĠĠĠĠĠĠĠĠĠĠĠĠĠĠĠĠĠĠĠĠĠĠĠĠĠĠĠĠĠĠĠĠĠĠĠĠĠĠĠĠĠĠĠĠĠĠĠĠĠĠĠĠ": 8983,
      "Ġtransferred": 8984,
      "Ġsimultaneously": 8985,
      "Ġrecommend": 8986,
      "leton": 8987,
      "otal": 8988,
      "fn": 8989,
      "Ġhab": 8990,
      "complete": 8991,
      "Ġcoal": 8992,
      "states": 8993,
      "etails": 8994,
      "aped": 8995,
      "Ġeyes": 8996,
      "idal": 8997,
      "Ġcolour": 8998,
      "apse": 8999,
      "Ġisomorphic": 9000,
      "Ġflex": 9001,
      "Ġdriver": 9002,
      "Ġclimate": 9003,
      "Ġreconstruct": 9004,
      "fram": 9005,
      "yo": 9006,
      "zo": 9007,
      "1955": 9008,
      "Ġadvanced": 9009,
      "alities": 9010,
      "unately": 9011,
      "\\}_{": 9012,
      "bc": 9013,
      "icens": 9014,
      "Ġaccretion": 9015,
      "Ġpal": 9016,
      "ĠLatin": 9017,
      "ulf": 9018,
      "ĉĠ": 9019,
      "Status": 9020,
      "ĠIV": 9021,
      "Ġunitary": 9022,
      "button": 9023,
      "opher": 9024,
      "clide": 9025,
      "Ġinstances": 9026,
      "riminal": 9027,
      "ĠEnergy": 9028,
      "ĠBrook": 9029,
      "bolic": 9030,
      "ĠCH": 9031,
      "Ġsustain": 9032,
      "eger": 9033,
      "Long": 9034,
      "ĠMonte": 9035,
      "Number": 9036,
      "meta": 9037,
      "izabeth": 9038,
      "ĠAlexander": 9039,
      "ropol": 9040,
      "Ã±": 9041,
      "present": 9042,
      "particle": 9043,
      "ĠBan": 9044,
      "1943": 9045,
      "Ġclubs": 9046,
      "eman": 9047,
      "Ġconstitu": 9048,
      "Ã¢": 9049,
      "args": 9050,
      "Ġcontribute": 9051,
      "Ġreasonable": 9052,
      "ĠMinistry": 9053,
      "unities": 9054,
      "append": 9055,
      "Ġdomains": 9056,
      "Ġexpos": 9057,
      "Ġpsych": 9058,
      "Ġinduction": 9059,
      "ĠHospital": 9060,
      "ĠCle": 9061,
      "Ġstronger": 9062,
      "ĠCat": 9063,
      "unte": 9064,
      "Ġearth": 9065,
      "rell": 9066,
      "ĠDig": 9067,
      ")>": 9068,
      "ographer": 9069,
      "Ġmotor": 9070,
      "Ġfits": 9071,
      "Ġsexual": 9072,
      "ĠConserv": 9073,
      "Ġstock": 9074,
      "Ġcosmological": 9075,
      "1946": 9076,
      "Ġglass": 9077,
      "ĠEquation": 9078,
      "Ġcere": 9079,
      "Ġfunctor": 9080,
      "1952": 9081,
      "Ġdeveloping": 9082,
      "ĠBoy": 9083,
      "Ġexecution": 9084,
      "hr": 9085,
      "omer": 9086,
      "Ø§": 9087,
      "Ġconverges": 9088,
      "bits": 9089,
      "Ġbelongs": 9090,
      "Ġscientific": 9091,
      "ĠLater": 9092,
      "imation": 9093,
      "ĠPrime": 9094,
      "jav": 9095,
      "ĠCall": 9096,
      "1941": 9097,
      "Ġprofessor": 9098,
      "mean": 9099,
      "Dav": 9100,
      "racket": 9101,
      "Ġprominent": 9102,
      "Ġmiles": 9103,
      "ennes": 9104,
      "ĠHong": 9105,
      "ĠOrgan": 9106,
      "Following": 9107,
      "Ġfinish": 9108,
      "Ġtested": 9109,
      "frame": 9110,
      "EP": 9111,
      "Members": 9112,
      "Ġsimplicity": 9113,
      "igu": 9114,
      "ethe": 9115,
      "Ġoccurred": 9116,
      "\"]": 9117,
      ")}$,": 9118,
      "rastructure": 9119,
      "Ġearned": 9120,
      "Bo": 9121,
      "thick": 9122,
      "Ġvir": 9123,
      "ented": 9124,
      "Ġ{$\\": 9125,
      "Ġ\\}": 9126,
      "scriptscriptstyle": 9127,
      "Ġpresents": 9128,
      "Ġhouses": 9129,
      "ĠBand": 9130,
      "Ġsymbols": 9131,
      "ĠFederal": 9132,
      "|_": 9133,
      "Ġagreed": 9134,
      "eties": 9135,
      "ailed": 9136,
      "Ġsomewhat": 9137,
      "|_{\\": 9138,
      "rations": 9139,
      "umes": 9140,
      "Ġscores": 9141,
      "Ġrefers": 9142,
      "Ġenvironmental": 9143,
      "Ġensemble": 9144,
      "just": 9145,
      "Ġplanned": 9146,
      "United": 9147,
      "Ġmoves": 9148,
      "Ġlaser": 9149,
      "Ġinnov": 9150,
      "ĠColumbia": 9151,
      "Ġserves": 9152,
      "clidean": 9153,
      "have": 9154,
      "ĠUV": 9155,
      "ĠCas": 9156,
      "University": 9157,
      "Block": 9158,
      "SH": 9159,
      "ĠOxford": 9160,
      "rants": 9161,
      "_{[": 9162,
      "coh": 9163,
      "hedral": 9164,
      "vements": 9165,
      "oster": 9166,
      "Ġextent": 9167,
      "Ġtradition": 9168,
      "1954": 9169,
      "itical": 9170,
      "owski": 9171,
      "thur": 9172,
      "anta": 9173,
      "Ġmask": 9174,
      "Ġfaith": 9175,
      "watch": 9176,
      "Ġpet": 9177,
      "itter": 9178,
      "}{}": 9179,
      "Acc": 9180,
      "Ġeconomy": 9181,
      "Ġhour": 9182,
      "AME": 9183,
      "Ġnotes": 9184,
      "Ġfeaturing": 9185,
      "Ġstands": 9186,
      "strap": 9187,
      "1953": 9188,
      "options": 9189,
      "Ġlock": 9190,
      "ĠPlaces": 9191,
      "jpg": 9192,
      "Ġfermion": 9193,
      "Ġeigenvalue": 9194,
      "inton": 9195,
      "Ġconnections": 9196,
      "ribed": 9197,
      "Ġdiffer": 9198,
      "ederation": 9199,
      "ĠProfessor": 9200,
      "Ġpersonnel": 9201,
      "Ġextracted": 9202,
      "Ġwasn": 9203,
      "elian": 9204,
      "Ġcompatible": 9205,
      "Ġpip": 9206,
      "Ġboundaries": 9207,
      "256": 9208,
      "1947": 9209,
      "newline": 9210,
      "ported": 9211,
      "Ġpieces": 9212,
      "Ste": 9213,
      "Ġawards": 9214,
      "ears": 9215,
      "itudes": 9216,
      "FM": 9217,
      "ĠAT": 9218,
      "even": 9219,
      "Ġanalyze": 9220,
      "obj": 9221,
      "ĠLim": 9222,
      "Ġregression": 9223,
      "Ġperspective": 9224,
      "ĠIndust": 9225,
      "'d": 9226,
      "Ġbrain": 9227,
      "ĠCommon": 9228,
      "ĠAdd": 9229,
      "Ġfunding": 9230,
      "ĠRog": 9231,
      "rays": 9232,
      "Ġdriven": 9233,
      "World": 9234,
      "Bigg": 9235,
      "Ġdiscover": 9236,
      "Ġanalys": 9237,
      "Port": 9238,
      "Ðº": 9239,
      "ĠReturn": 9240,
      "ĠNon": 9241,
      "lers": 9242,
      "Ġpixel": 9243,
      "Writ": 9244,
      "ĠTam": 9245,
      "sem": 9246,
      "${": 9247,
      "cules": 9248,
      "raq": 9249,
      "Ġpossess": 9250,
      "ĠNext": 9251,
      "correspond": 9252,
      "'$.": 9253,
      "Ġextensive": 9254,
      "Ġpit": 9255,
      "Ġroles": 9256,
      "ĠRailway": 9257,
      "Ġidentification": 9258,
      "Ġsolved": 9259,
      "Ġpartner": 9260,
      "ĠGro": 9261,
      "123": 9262,
      "Ġhorizon": 9263,
      "Ġintervals": 9264,
      "Ġannot": 9265,
      "Ġoffset": 9266,
      "inating": 9267,
      "Ġdoor": 9268,
      "ulpt": 9269,
      "Ġcaref": 9270,
      "duction": 9271,
      "Ġburn": 9272,
      "ĠSupreme": 9273,
      "Ġven": 9274,
      "ĠAgain": 9275,
      "ĠStr": 9276,
      "ĠFacebook": 9277,
      "ĠVill": 9278,
      "ĠJean": 9279,
      "ĠHung": 9280,
      "Ġconvers": 9281,
      "Ġnewly": 9282,
      "ĠMain": 9283,
      "correct": 9284,
      "closed": 9285,
      "Ġtransformations": 9286,
      "ugin": 9287,
      "ĠEqs": 9288,
      "ĠColl": 9289,
      "Ġmodules": 9290,
      "ootstrap": 9291,
      "Ġpartially": 9292,
      "Ġsevere": 9293,
      "Ġstabil": 9294,
      "ti": 9295,
      "ĠCorporation": 9296,
      "ĠSC": 9297,
      "ĠNC": 9298,
      "ulating": 9299,
      "outs": 9300,
      "assum": 9301,
      "Ke": 9302,
      "Ġ\"\"\"": 9303,
      "Ġchallenges": 9304,
      "ĠBrad": 9305,
      "Ġancient": 9306,
      "Link": 9307,
      "iki": 9308,
      "Ġdivis": 9309,
      "ĠBerlin": 9310,
      "Script": 9311,
      "Ġposterior": 9312,
      "Ġchampionship": 9313,
      "ĠDefinition": 9314,
      "ĠVictoria": 9315,
      "Ġinference": 9316,
      "Don": 9317,
      "jk": 9318,
      "Ġprotection": 9319,
      "take": 9320,
      "Ġroots": 9321,
      "Ġrestaur": 9322,
      ":#": 9323,
      "Read": 9324,
      "XX": 9325,
      "Ġ((": 9326,
      "ĠFre": 9327,
      "pet": 9328,
      "ictionary": 9329,
      "antry": 9330,
      "including": 9331,
      "Ġbenchmark": 9332,
      "Ġsumm": 9333,
      "Ġalongside": 9334,
      "ĠSaturday": 9335,
      "Ġpm": 9336,
      "Ġextreme": 9337,
      "midrule": 9338,
      "iner": 9339,
      "hanced": 9340,
      "acle": 9341,
      "ĠPoisson": 9342,
      "ĠBon": 9343,
      "Ġliquid": 9344,
      "moment": 9345,
      "Ġacademic": 9346,
      "chain": 9347,
      "ĠWalk": 9348,
      "ĠMedical": 9349,
      "Ġpolitics": 9350,
      "Ġaudience": 9351,
      "conduct": 9352,
      "Ġempirical": 9353,
      "ĠStudies": 9354,
      "HL": 9355,
      "aret": 9356,
      "oust": 9357,
      "curs": 9358,
      "IO": 9359,
      "Ġcrime": 9360,
      "British": 9361,
      "ĠGener": 9362,
      "ĠKenn": 9363,
      "1949": 9364,
      "Ġahead": 9365,
      "Ġepoch": 9366,
      "ĠDown": 9367,
      "Ġsafe": 9368,
      "spin": 9369,
      "Mark": 9370,
      "Ġdram": 9371,
      "MF": 9372,
      "Ġgeodes": 9373,
      "Ġexcited": 9374,
      "global": 9375,
      "ĠDue": 9376,
      "Ġwants": 9377,
      "^*_": 9378,
      "UC": 9379,
      "omet": 9380,
      "âĢĿ.": 9381,
      "Ġtick": 9382,
      "ĠMC": 9383,
      "ĠMaster": 9384,
      "Book": 9385,
      "Ġfan": 9386,
      "orship": 9387,
      "Ġdecades": 9388,
      "ĠPolish": 9389,
      "Ġsignature": 9390,
      "Ġconservation": 9391,
      "ĠFriday": 9392,
      "gency": 9393,
      "onse": 9394,
      "isen": 9395,
      "Ġestimator": 9396,
      "Ġcriteria": 9397,
      "ĠIslands": 9398,
      "mo": 9399,
      "writer": 9400,
      "ĠAGN": 9401,
      "Ġcitizens": 9402,
      "Ġphone": 9403,
      "\\,{\\": 9404,
      "Ġreads": 9405,
      "Ġdefining": 9406,
      "Ġstages": 9407,
      "Description": 9408,
      "ĠMarkov": 9409,
      "Ġblow": 9410,
      "Ġhybrid": 9411,
      "ĠRev": 9412,
      "notin": 9413,
      "Ġiron": 9414,
      "Ġhockey": 9415,
      "Ġexpat": 9416,
      "]=": 9417,
      "Ġprobabilities": 9418,
      "ĠNever": 9419,
      "ĠBelg": 9420,
      "Ġslope": 9421,
      "worth": 9422,
      "ĠForest": 9423,
      "andra": 9424,
      "urable": 9425,
      "triang": 9426,
      "Ġleadership": 9427,
      "Ġthread": 9428,
      "ĠObject": 9429,
      "ropical": 9430,
      "zech": 9431,
      "ĠSher": 9432,
      "ĠInternet": 9433,
      "former": 9434,
      "sex": 9435,
      "cp": 9436,
      "Ġfeet": 9437,
      "ĠAdminist": 9438,
[...]
