#version: 0.2
Ġ t
i n
h e
Ġ a
o n
r e
Ġt he
e r
a t
Ġ Ġ
e n
Ġ s
o r
a l
i t
Ġ o
i s
a n
e s
Ġ c
a r
Ġ w
i on
e d
Ġ f
Ġo f
n d
Ġ in
Ġ p
Ġ \
Ġ b
i c
in g
l e
r o
Ġa nd
a s
Ġ $
Ġ d
Ġ m
Ġt o
c t
e l
e t
ĠĠ ĠĠ
i g
en t
o u
i l
r a
o m
s t
at ion
Ġt h
Ġ h
Ġ re
i m
o l
a m
Ġ e
{ \
Ġ T
o t
Ġ S
Ġ n
Ġ (
Ġ is
Ġ l
Ġ C
Ġ A
i d
c e
i v
Ġf or
c h
u t
u r
u s
Ġ g
l y
o w
_ {
u l
Ġ on
Ġ M
q u
a b
it h
u m
e g
e m
at h
Ġ I
a d
v er
2 0
s e
Ġs t
Ġ$ \
Ġth at
Ġb e
i r
Ġa s
Ġ B
Ġc on
Ġ P
u n
Ġw ith
o d
m ath
t er
en d
a y
i f
â Ģ
Ġ Ċ
Ġ H
g e
Ġa l
Ġ F
is t
v e
t h
ĠT he
t a
Ġw e
ig h
Ġp ro
er s
ct ion
Ġa n
Ġ R
p h
Ġb y
Ġ L
1 9
Ġ &
u re
} \
č Ċ
Ġ D
he r
an d
r i
o s
} $
^ {
Ġ W
Ġ v
it y
p p
ĠĠ Ġ
Ġw as
ĠĠĠĠ ĠĠĠĠ
t e
Ġ N
igh t
at e
Ġ G
a c
Ġw h
ro m
Ġe x
Ġa t
Ġc om
m a
Ġd e
Ġa re
o re
o p
Ġ E
es t
re s
o c
ar t
u b
in e
it e
p e
re f
i es
Ġ it
p t
Ġf rom
i al
} }
Ġs e
( \
il l
eg in
iv e
es s
al l
u d
an t
Ġ or
ra c
a g
b egin
u p
re n
Ġ =
T he
p l
e w
Ġ r
Ġ J
f t
x t
Ġ he
_ {\
) $
m ent
f e
c al
ic h
Ġ O
or t
i z
a k
l d
ic al
b er
at ed
} {
re d
el l
p er
o g
Ġ us
Ġs h
p s
ul t
in t
ig n
r an
Ġc h
ou r
ar d
' s
it ion
f rac
d e
Ġth is
or m
u nd
Ġ y
Ġcom p
e q
20 1
c l
Ġ le
i an
a ve
as s
Ġ K
, \
ar y
Ġ U
en s
r m
0 0
Ġ -
ĠI n
c ite
} )
Ġn ot
te xt
d u
ation s
Ġs u
e qu
Ġre s
r ight
u e
Ġp l
Ġwh ich
Ġc an
on g
math b
ab el
i a
Ġc l
Ġ k
as t
u st
am e
} ,
t he
a ce
id e
Ġ "
i p
Ġh ave
t o
l abel
o st
Ġw he
$ ,
c c
l ow
e ar
ou n
âĢ ĵ
s o
math cal
$ .
or k
t her
a in
ab le
) ,
et a
c on
a p
Ġ V
a v
Ġ un
equ ation
or d
a ge
u g
im e
i b
} .
20 0
a ct
as e
ac k
r ic
an g
Ġ im
a ch
en er
le ft
ou s
o v
ion s
fe ren
Ġa pp
} (
r u
en ce
Ġh as
f f
âĢ Ļ
} ^
f orm
c es
f ig
Ġa b
} _
a re
) .
Ġm od
Ġ |
I n
Ġal so
~ \
Ġh is
ĠS t
Ġa d
Ġs p
om e
ĠT h
e ct
er m
ph a
am b
r y
w o
i re
ol d
1 0
o ver
i e
ĠĠĠĠ ĠĠĠ
is h
Ġp art
ou nd
al pha
ĠC h
d a
el y
Ġon e
Ġal l
ĉ ĉ
ou ld
p ro
er v
ow n
ent s
1 8
ou t
Ġcon t
ir st
o k
) \
ro w
at es
l ine
re e
or s
ic e
an ce
in d
Ġo b
Ġwe re
cl ud
s um
ri b
m er
ta in
Ġd is
Ġ +
Ġ j
i k
or y
Ġm e
al ly
w e
amb da
Ġn e
Ġp er
el ta
ar k
Ġ qu
s p
im es
ic s
$ \
pe ct
Ġa r
o se
Ġt wo
i le
ter n
p le
c om
am ma
ul ar
res s
_ \
Ġs y
mathb b
c ent
Ġthe ir
Ġe v
Ġb ut
Ġ ro
} _{
} ^{
Ġ\ \
r it
Ġf irst
ar i
d ot
. .
= \
Ġit s
m u
ut ion
n e
o int
Ġo ut
ol low
Ġ {
ra ph
h o
Ġ Y
oun t
- \
ig ma
s ub
Ġt e
o f
ĠH e
k s
un ction
c he
Ġs et
e p
v el
o b
Ġo ther
l l
Ġ en
eg a
Ġw ill
ran s
i el
m b
ĠI t
ph i
^ {\
Ġo ver
Ġ if
h at
Ġmod el
Ġd es
f in
y s
on e
c a
Ġd if
ation al
b f
Ġf ollow
at a
ĠU n
Ġ <
on d
l ambda
Ġt ime
ĠĠĠĠĠĠĠĠ ĠĠĠĠĠĠĠĠ
Ġ| |
Ġ {\
Ġm ore
- -
Ġb et
p ort
c ed
Ġm an
j ect
ra y
l ic
Ġcon s
1 2
19 9
um ber
f ter
Ġwhe re
c re
le ct
pt ion
Ġs ub
i ed
l es
at er
iel d
ra m
Ġa g
ĠW e
Ġsu ch
at ure
Ġ âĢ
ug h
Ġw ork
Ġfor m
und er
mathb f
ur n
Ġpl ay
c k
d ition
as ed
Ġin t
at ive
Ġres ult
s s
Ġt ra
Ġh ad
Ġbe en
w id
al ign
res ent
il on
Ġ ver
Ġd ist
) ;
ĠS e
Ġ âĢĵ
Ġ up
on s
R e
i x
Ġd o
st em
Ġon ly
Ġre l
is s
Ġs im
ps ilon
ot h
Ġs o
t il
Ġf unction
Ġc o
se ction
pe c
e x
a pp
Ġre g
p art
Ġg ener
v i
= "
p i
if ic
Ġthe y
u al
p os
Ġp re
Ġwh o
Ġv al
ing s
or n
Ġn ew
Ġthe re
we en
iz e
Ġo ur
Ġin ter
a w
ic t
s igma
le m
Ġe qu
Ġa cc
il d
Ġthe n
} {\
et h
Ġc ol
Ġth an
ĠTh is
Ġin to
ar g
Ġ( \
^{ -
in ce
he d
g h
s c
Ġcon st
an s
Ġ ra
Ġsh ow
a x
o x
ol og
b eta
Ġwhe n
ak e
Ġp os
Ġbet ween
Ġp h
Ġdif feren
od e
Ġcl ass
1 5
Ġc or
s et
at ing
math rm
Ġs c
Ġ her
Ġcom m
+ \
* }
g amma
Ġin clud
il ity
Ġy ear
l and
ro up
b ar
p r
it ies
fe ct
Ġt rans
Ġl oc
Ġan y
s h
ro und
r al
w ard
Ġ under
1 6
Ġs ome
i ent
is e
us e
o ve
Ġe ach
Ġ }
it ed
o ok
Ġ [
Ġf in
Ġp ar
Ġp e
Ġsy stem
W e
] {
a il
the ta
) }
ru ct
op le
Ġof f
Ġy ou
ou gh
Ġp ol
an n
1 7
Ġg iv
^ \
le q
r ho
al s
id ent
fig ure
it s
d er
c ess
r on
\ \
d elta
i o
ĠR e
Ġk n
ur ing
o ol
Ġus ed
c dot
r t
iv ers
Ġthe se
oc k
Ġst ud
ro ugh
Ġ est
Ġg o
Ġm at
2 1
$ -
/ /
mer ic
Ġf e
ta u
Ġpro v
n g
t t
Ġpro b
Ġp oint
Ġd ata
u es
Ġre c
ib le
o ot
p ar
wid th
Ġa ct
ay s
ab l
}$ ,
Ġw ould
ĠD e
âĢ Ŀ
ar ray
Ġn o
}$ .
1 3
o y
Ġpro du
Ġab out
19 8
Ġs ol
ment s
Ġs m
} (\
ic k
Ġus e
eq ref
ist s
le t
em ber
b ig
us s
ĠA l
ik e
con d
Ġin v
Ġa fter
2 2
p ut
Ġ x
y n
1 4
Ġn umber
ot e
c y
f fect
ĠF or
Ġapp ro
ĠC om
it em
Ġf l
iz ed
Ġp a
Ġdifferen t
t imes
p end
n u
Ġas s
ar ch
e ver
< /
Ġp r
m in
ren t
1 1
ow er
Ġex t
he re
ĠN ew
il y
Ġv ari
is m
Ġl ine
ĠĠĠĠ Ġ
Ġc ase
part ial
s y
Ġf il
in s
ĠP ro
ft y
Ġ i
Ġm ost
Ġm ay
ar row
in fty
iz ation
Ġs he
c ol
t on
Ġb l
T h
at or
ad e
om ega
Ġn on
Ġs ign
am et
| \
til de
t y
am p
Ġ Z
n ing
m m
ction s
Ġex p
ub lic
ul l
feren ces
qu ad
Ġre p
Ġl in
Ġ Q
Ġw ell
Ġpart ic
Ġus ing
Ġs pec
Ġs ame
or ld
eth od
ct or
is ion
Ġthe m
Ġc ur
an ge
p m
oc i
er ing
D elta
ĠA n
Ġsu pp
ical ly
ff ic
sp ace
am ple
it t
Ġst r
Ġo per
Ġth rough
h i
ar ge
Ġt erm
f or
ir c
he n
eq n
en g
Ġd ire
Ġ *
Ġ X
19 7
Ġb oth
2 5
Ġfollow ing
g y
Ġf ield
Ġ ent
meric an
ĠL e
em ent
i er
Ġs ur
Ġgiv en
Ġre t
Ġd et
ĠĠĠĠĠĠĠĠ ĠĠĠ
ow ever
ch ool
in ed
Ġa m
Ġin st
v ar
Ġpe ople
Re ferences
el f
e y
se c
as on
ore m
Ġ ed
Ġh igh
w n
iv ely
Ġb u
ra ct
Ġde fin
Ġper form
E x
Ġst ate
Ġg roup
Ġm in
ot s
Ġc ent
3 0
x i
as es
Ġth ree
u ch
Ġt y
is hed
ion al
ran g
Ġs ing
} [
er t
b all
an y
} }\
ar s
o h
s im
ut e
er n
Ġf act
Ġe m
ĠâĢ ľ
)$ .
et s
S t
re at
\ ,
Ġdis c
as h
Ġ end
Ġse cond
s erv
. ,
Ġ z
Ġf ound
am es
vel op
Ġ$ (
on t
Ġor der
al ity
Ġin d
ivers ity
Ġa c
id er
e psilon
ĠA s
Ġresult s
ul ation
ver y
Ġag ain
Ġdes c
Ġe le
ic es
} _{\
$ $
Ġsm all
Ġob tain
Ġe ffect
Ġs erv
as ure
ar ly
Ġm ethod
ri x
u c
em b
2 3
o od
Ġde c
w here
Ġs er
a h
Ġb ack
ric t
or th
m an
v al
ab ility
Ġb ound
5 0
ent ial
Ġat t
in ing
O m
ro ss
at t
Ġle ad
Ġs a
n er
Ġ .
Ġwh ile
Ġan al
form ation
19 6
text bf
iv er
Ġ u
f ore
Ġpar amet
s q
w ork
Ġfil m
ps i
res p
ĠS h
al e
re st
Ġc all
ur al
Ġse e
Ġre qu
Om ega
if e
ou th
r ing
f l
^ *
ur y
l i
w ay
t en
ĠI nd
eqn array
f ul
)$ ,
Ġex per
in clud
ca use
ruct ure
Ġyear s
Ġ '
ot her
ĠF ig
Ġd uring
ag es
e e
ang le
p en
g et
Ġh im
at ic
2 4
mb ol
tern al
olog y
in al
a z
an k
sq rt
00 0
G amma
Ġa ut
a j
Ġman y
ener gy
Ġt r
Ġar t
b m
Ġc a
sub section
a u
re l
raph ics
ant s
Ġdist rib
Ġbe ing
Ġb el
v are
Ġrep resent
Ġm ass
at her
f er
ra d
i qu
Ġf am
ĠC ol
en cy
^{ (
a ir
Ġne ed
um n
Ġp resent
f ra
Ġex pl
vare psilon
Ã ©
m e
Ġres pect
ĠC l
v ed
resp ond
Ġme asure
) )
Ġs ince
in es
b old
Ġe very
i red
Ġ$ {\
n ot
ĠA merican
Ġcon dition
Ġpro cess
Ġm ult
Ġch ar
right arrow
Ġob serv
in k
Ġg et
el s
Ġprob lem
l ed
Ġm on
a red
Ġre le
Ġn ow
Ġde f
Ġl ong
Ġc re
Ġsp ace
en e
c m
}^ {\
ĠĠ Ċ
ith m
Ġcont in
Ġbe c
er r
Ġm ain
ch n
our ce
Ġl ike
r id
Ġm ade
Ġde velop
et work
ou se
Ġval ue
Ġc ould
Ġte am
iv ed
Ġl arge
F or
ca ption
" >
b y
} =
ĠC on
Ġ\ ,
eg raphics
includ egraphics
Ġret urn
le x
ers on
h ip
Ġfe ature
ot t
) =
Ġin cre
rang le
ĠUn iversity
Ġas sum
ro du
et ric
ra w
y le
ak ing
b e
Ġm ed
if ied
v ent
an e
Ġpro per
i or
ĠO n
vi ew
ro p
Ġgener al
ĠS c
im ens
Ġe lect
Ġst art
v en
" ,
ag n
ter s
over n
he s
g or
t ab
t s
Ġ čĊ
Ġcor respond
19 4
Th is
Ġin de
iss ion
Ġest im
Ġd en
Ġf ind
Ġp op
ce pt
ol ution
Ġ ,
Ġ energy
Ġc ount
Ġl im
Ġo pt
ut ions
iv al
Ġpos s
ur ther
Ġr ight
Ġdesc rib
k e
em ph
Ġbe fore
o le
g an
ĠUn ited
var phi
l og
Ġb ased
Ġf our
Ġkn own
Ġbe cause
Ġad d
* *
ge q
it ive
t ing
c er
Ġsupp ort
s k
Ġver y
Ġ :
Ġj ust
in a
g ram
s on
um er
iv es
os s
Ġev en
n on
Ġs cal
gor ithm
n ess
Ġor ig
Ġra d
. }
vi ous
. ~\
Ġsa id
de f
Ġd r
Ġloc al
ens ure
& \
' '
Ġst ructure
over line
Ġw rit
sy mbol
g er
pro of
il ar
us ic
ch i
Ġp res
iv ing
Ġdo es
Ġ ve
Ġd i
Ġwh at
u ally
} ,\
Ġp ublic
ĠA r
Ġinclud ing
Ġg u
B ig
o ber
at eg
Ġre al
Ġchar act
fra k
i j
r ation
Ġc al
) ^
Ġto p
oot ball
bold symbol
om en
Ġ ident
le y
2 7
as k
ĠA d
ĠE ng
oh n
Ġm ov
pos ition
v es
Ġ /
b l
m ed
Ġt est
th s
Â ł
i ence
Ġr un
am pl
ar n
A s
Ġab ove
2 8
Ġh ow
Ġdes ign
it al
Ġsh ould
h line
Ġint eg
Ġcon tain
Ġdire ct
Ġs at
re m
2 6
Ġ `
ist ory
ver t
er o
20 20
l ess
Ġv i
ri pt
.. .
I t
[ \
Ġal low
in c
re ad
ĠI s
ĠS he
Ġh and
Ġd ue
ar ri
ens ity
201 8
l o
Ġst and
Ġn ame
e b
Ġo pen
id es
ve c
Ġt em
c o
Ġlin ks
19 5
Ġth ose
re t
C h
if y
orm al
Ġplay ers
20 19
Ġl ater
ial ly
4 0
}) .
math frak
l im
Ġcont ro
id ed
x im
og raph
Ġcomp ut
m od
Ġcons ider
un e
Ġad dition
Ġn etwork
Ġval ues
Ġle vel
201 7
Ġser ies
ref ore
Ġre st
Ġfollow s
Ġo wn
Ġmodel s
ĠP h
1 00
Ġw ay
ĠM ar
Ġs pect
Ġsh own
ĠB e
ord ing
en n
ĠH owever
Ġsing le
w h
} }$
Ġin formation
ĠP l
l angle
Ġqu ant
Ġy our
Ġin it
Ġagain st
y m
ir d
ĠS p
201 6
Ġst at
Ġp ower
ac es
ar m
r um
Ġs um
is ed
. "
Ġre ma
Ġcomm un
L ambda
Ġim port
Ġl ast
Ġh y
g es
L et
H e
Ġde pend
Ġre m
im al
at ely
ld ots
Ġm ake
at ors
ĠSt ates
e c
se e
Ġpro f
Ġex ample
al th
ĠC ount
ĠCom m
ver al
Ġpartic ular
Ġa v
or ph
p or
2 9
r and
Ġse ason
ĠT e
et y
Ġle t
Ġs up
is on
Ġbu ild
ver s
u ro
n abl
ĠB l
Ex ternal
201 5
Ġle ft
Ġsim ilar
c ul
Ġcur rent
P hi
b ra
P ro
b um
Ġdefin ed
Ġd own
s f
Ġwith in
Ġg ra
ub l
ific ation
Ġal ong
Ġp red
Ġs chool
Ġre ce
-- --
Ġest abl
c or
rac k
Ġcall ed
ĠI f
Ġo cc
Ġre du
at ch
i od
te rest
Ġty pe
app a
201 4
Ġhe l
nabl a
text it
Ġkn ow
ure s
C on
Ġa round
b s
t r
Ġse ction
an u
cent er
\ |
Ġfam ily
ĠM ay
cc ess
Ġn ear
cite p
Ġre ad
Ġre port
Ġl ow
mb ox
Ġte chn
Ġf re
i um
is f
m ult
Ġv is
ys is
Ġb as
ak es
col or
ord s
yn am
Ġdistrib ution
Ġl arg
Ġm y
Ġstud y
Ġg l
Ġd id
ĠN ational
S T
Ġl ist
Ġb ro
s ide
Ġd om
ĠâĢ Ķ
Ġto t
Ġob ject
Ġm uch
if t
ĠE x
Ġbe h
im ent
eng th
Ġcontin u
ĠF ran
g g
f ace
Ġh ig
Ġd er
ĠJ ohn
Ġterm s
d ay
ar l
a i
Ġshow s
Ġdet erm
o id
Ġpoint s
pl it
ĠA nd
\ %
Ġse veral
er y
201 0
3 3
20 21
Ġcharact er
ĠC an
Ġt ri
Ġpro gram
ist ic
ĠA t
ĠĠĠĠĠĠĠĠ ĠĠĠĠĠĠĠ
Ġc he
c ur
Ġ el
} )$
op er
O n
ag ue
201 3
ensure math
sub set
ot imes
Ġin du
in ation
Ġg ame
k appa
ward s
Ġex pect
ĠW orld
w ith
ot ential
c irc
m p
Ġst ill
Ġint rodu
os ed
le ction
v an
" .
Ġdisc uss
6 0
um b
n o
C om
E R
ĉĉ ĉĉ
r ist
e k
201 2
Ġp at
aj or
et ic
b ack
Ġp ass
Ġs l
et ry
in ess
Ġal gorithm
Ġm ark
re g
. \
Ġ et
Ġapp ear
ur ch
feren ce
i ous
Ġver s
ĠR es
Ġd em
Ġare a
il de
3 5
Ġs ize
Ġw orld
ol l
ian s
pl ay
tern ational
pos ed
Ġass oci
com m
ĠA ll
201 1
Ġpre vious
h or
Ġb est
A n
Ġch o
overn ment
en se
} ;
ĠA ust
Ġf ootball
Ġres p
Ġh old
S igma
che d
Ġt ake
n ect
A l
ĠG e
ĠW h
20 22
Ġin terest
av ing
\ !
Ġ- -
dot s
eta il
od y
non umber
ffic ient
Ġ err
ĠC ent
Ġal bum
ĠThe n
Ġsat isf
Ġc are
ix ed
Ġor gan
or ies
ĠT o
Ġl ife
Ġhe re
}} {
Ġd eg
s u
ur b
Ġim p
ang u
pl ic
Ġc ap
Ġtot al
s m
d is
emb ers
ĠN ov
at ter
g round
= =
le ar
Ġun til
u le
Ġc rit
wid et
4 5
Ġm et
}) ,
A R
am ent
Ġre f
Ġcom b
ĠY ork
Ġm agn
{ -
ĠThe y
Ġfin al
che s
Ġex ist
a ction
e ction
ĠO r
end ed
Ġappro xim
e ps
al k
t able
ĠCount y
Ġw in
Ġwith out
Ġm ust
pend ent
iv ity
Ġm ax
Ġl aw
Ġobtain ed
Ġme an
Ġb ir
\ [
ĠS chool
ĠW ar
is ter
b le
Ġb and
w ide
Ġp ost
Ġbec ame
Ġstr ong
Ġg raph
widet ilde
D e
a im
Ġcont rib
Ġpl ace
Ġ >
Ġcon f
cent ering
Ġhel p
i am
Ġd ensity
Ġpos ition
9 0
Ġst ates
od es
Ġan n
n ew
3 2
Ġposs ible
Ġch ild
Ġparamet ers
an c
anu ary
ĠJ u
st r
Ġa ver
8 0
Ġmat rix
op e
) (
am ed
d raw
200 9
Ġp otential
Ġcomp on
Ġpa per
a e
| -
ent ion
} -
Ġse qu
ĠP r
Ġper iod
ru ction
Ġperform ance
A S
Ġsol ution
: //
Ġhe ad
Ġev ent
ĠA ug
ĠL et
Ġgo od
200 8
se qu
A T
us iness
p d
Ġexp ress
Ġpred ict
( )
P s
um ent
ĠB rit
o ard
Ġc ou
ĠS outh
im um
Ġfunction s
an ces
Ġpro ject
i ents
ore d
Ġcomp lex
iqu e
Ġsign ific
Ġinv est
u x
I N
c ap
t ies
T o
Ġde ath
r is
F ig
Ġpol it
en ces
ĠO ct
pl oy
pt ember
Ġs pe
a ps
Ġty p
l er
Ġimport ant
ĠB y
c it
7 5
Ġ q
Ġequ ation
b it
Ġm usic
m at
i i
Ġne xt
Ġrec ord
Ġreg ion
Ġb ook
id d
Ġs ong
ĠP ol
tab ular
/ \
olog ical
ud e
Ġthe ory
Ġp erson
Ġdescrib ed
Ġprodu ct
ĠA ss
ĠC ar
) :
I I
Ġanal ysis
Ġrespect ively
o or
e ad
ĠJ anuary
ir on
Ġappro ach
Ġoff ic
pp er
Ġ` `
id ual
erm an
it er
200 7
ĠM arch
Ġf urther
' t
ĠĠĠĠ ĠĠ
Ġph ot
Ġim pro
b ox
3 1
it her
' ,
Ġlim it
Ġl ook
Ġconst ant
pr il
ampl es
ab les
om an
Ġr ate
Ġt imes
Ġan other
cl us
Ġch ang
0 5
Ġstand ard
Ġe arly
Ġe as
m ber
Ġcorrespond ing
Ġc our
Ġsu ccess
3 6
ĠP ar
Ġc ar
ĠM in
and om
Ġl a
st it
ĠU S
il t
3 4
ri es
as ter
Ġph ys
200 6
in o
Ġcontro l
- >
un g
re am
th m
le v
ĠM an
ĠAug ust
Ġt urn
Ġsh ort
th ough
\ {
ĠSe ptember
Ġcomp let
Ġd el
ill ion
Ġf ull
ĠThe orem
ist or
) =\
Ġind ic
l ish
Ġth ough
d d
our ces
le ge
z e
Ġs k
ĠG u
ĠR ep
op t
l ing
Ġfor mer
ĠE uro
per ature
Ġtra ining
amp ions
du ct
ight s
a ut
Ġen g
Ġsystem s
e xt
i us
Ġ )
or g
Ġf ew
ĠOct ober
h t
em ma
Ġpa ir
re en
pr ime
e red
ce mber
Ġd etail
z eta
em pt
Ġd at
ic le
ĠC o
} +
Ġv ol
Ġre se
Ġ ide
Ġb re
Ġcal cul
ĠJ une
Ġsignific ant
oc ial
\ ]
Ġm ot
um an
Ġinclud e
Ġd imens
ĠC al
u ation
os p
Ġr ange
ac ed
Ġm ajor
Ġvi ew
s er
lect ed
ĠS te
Ġl ess
) }\
ip le
al es
9 9
Ġh al
. âĢĿ
at s
w ays
Ġd iv
Ġpro of
Ġat ta
Ġs ide
ail able
Ġh ome
) ^{
ograph y
ĠA pril
Ġinit ial
} ]
st yle
ma x
âĢ ľ
w w
ĠThe re
ĠJu ly
Ġ //
Ġl ower
Ġm ap
3 8
Ġg row
ĠN orth
Ġph ase
ch ie
f ield
Ġd ay
Ġm om
Ġapp lic
3 7
Ġparamet er
om orph
st and
us ed
t ime
0 1
ĠC ity
il it
Ġhig her
{ (
as ing
Ġo pp
} =\
ĠThe se
Ġle g
in ally
Ġp ubl
B y
ĠSt ate
ĠE q
Ġf ree
Ġw on
Ġ( $
ex p
Ġfeature s
ur s
ĠĠĠĠĠĠĠĠĠĠĠĠĠĠĠĠ ĠĠĠĠĠĠĠĠĠĠĠĠĠĠĠĠ
Ġline ar
Ġf ram
ĠAust ral
Ġl and
; \
Ġinv ol
ĠA rt
a f
ar ning
Ġch ange
Ġl o
Ġm embers
ĠNov ember
ĉĉ ĉ
Ġc ity
ide red
Ġs elf
Ġa ction
s l
s cal
Ġr andom
Ġ& =
Ġar g
O N
Ġs it
Ġt it
Ġre d
Ġle ast
o ff
Ġplay ed
Ġc irc
Ġc ross
: :
ĠDe cember
I D
U n
20 00
ad a
Ġc ases
ĠSe ction
angu age
Ġk e
Ġrele ased
Ġcons ist
Ġl ight
h am
Ġcons idered
ent ly
I f
ĠĠĠĠĠĠĠĠ Ġ
Ġcondition s
Ġc y
}^ \
et er
. ~
ĠR eg
Ġcomp et
l or
Ġl ay
Ġmethod s
iv en
3 9
Ġfin ite
cdot s
Ġaver age
b b
ĠEuro pe
u k
ĠW ill
t ic
h old
Ġman ag
Ġo ld
Ġe p
Ġve ctor
ob al
}_ \
Ġ @
Ġdif f
Ġfre qu
Ġsy mm
, -
7 0
Ġorig inal
b orn
Ġim age
Ġcol l
b ased
ĠF eb
200 5
arg et
ne y
Ġd ynam
$ )
Ġl oss
ess age
Ġs om
S ee
Ġf low
ot es
c os
ru ary
Ġpop ulation
} |
Ġtem perature
wide hat
com p
text width
ide o
ĠE n
ĠA f
ĠN o
iv idual
math sf
con st
Ġrel ations
Ġcomp any
}\ ,
Ġpos itive
end s
C l
v iron
Ġg e
Ġth us
Ġpro m
Ġg overnment
ĠC or
us h
Ġse par
on al
Ġp ath
il le
Ġav ailable
{ {\
Ġre cent
in ary
ly ing
}} (
ĠA fter
Ġn eg
~ ~
Ġc ost
Ġw omen
en c
ul a
lem ma
4 8
Ġprov ide
s elf
ap an
Ġs em
our n
con om
ĠP art
ab ly
Ġf oc
Ġpro posed
Ġre pl
n ow
ĠM e
Ġ< /
Ġam ong
200 4
t op
Ġs ay
uss ian
is ing
con t
Ġst ar
ĠM ed
r ary
Ġcomm on
q quad
ut ed
at ural
ord er
ĠS y
A N
Ġc over
g ed
i pp
Ġinde pendent
}) \
Ġsup er
Ġ\ {
Ġvari ous
wh ich
le ment
Ġassoci ated
Ġ es
S S
Ġcon nect
Ġh om
Ġth ird
y pe
st er
ge bra
ĠBrit ish
id ence
Ġbet ter
ĠCh rist
Ġbel ow
Ġw ant
an a
Ġb eg
Ġin s
Ġof ten
Ġen c
Ġ #
6 4
9 5
h space
Ġspec ial
^ +
ĠK ing
Ġab s
Ġin put
ĠB ut
Ġb i
Ġa chie
w ed
ra ft
ak en
ch an
sc ript
6 5
ĠFeb ruary
on es
Ġobserv ed
ater ial
ĠM c
ar ian
Ġb usiness
al ax
Ġp ri
}^{ (
b or
ener al
Ġmult i
ition s
ĠFig ure
s in
ran sp
ĠLe ague
Ġse en
m ost
ut ure
Ġproper ties
ĠE d
ĠA pp
v ing
Ġan g
Ġis s
Ġn ormal
Ġf ive
Ġdef ine
Ġbeh av
âĢ Ķ
Ġar ch
oun g
Ġvers ion
Ġg reat
er tain
ad d
m l
ut es
pd f
Ġbl ack
& =
on y
Ġe ither
Ġqu est
ĠI I
in ter
c up
Ġw id
Ġpro te
Ġc ell
Ġp ract
A C
f oot
Ps i
Ġlin es
Ġme ans
Ġcor re
Ġin fl
t rans
Ġg ames
d om
.. /
ĠS ince
it or
Ġs ource
our s
Ġconst ra
m s
Ġev al
Ġst ation
R E
Ġle arning
Ġprob ability
Ġh owever
ĠO ne
ra p
ĠS ch
) ]
Ġloc ated
ĠH ar
Ġz ero
Ġw ater
ren ch
ord in
ĠB ar
Ġind ividual
Ġrese arch
Ġfact or
Ġto wn
0 4
ab or
u ck
Ġex ists
d iv
Ġcomp ar
Ġal ign
u pp
n ode
Ġh istory
Ġbir ths
Ġtr ue
Ġto ok
Ġa ge
R es
e v
ĠW est
Ġf ore
Ġcare er
Ġro le
cent ury
ple ment
s up
Ġf ac
Ġ$ (\
Ġv ia
Ġn umer
Ġcou pl
Ġl ength
n a
ĠM ore
if f
Ġsu gg
Ġerr or
}\ \
Ġsugg est
ri ption
ĠP a
Ġequ ival
ort s
Ġpl an
oun c
ic ol
le te
ul ations
x space
Ġcl aim
te x
Ġfilm s
Ġ& \
c le
b r
Ġestabl ished
ie f
ĠL emma
Ġacc ount
ig en
Ġmom ent
Ġsur face
Ġf und
Ġac ross
Ġreg ular
l oc
Ġcl ust
Ġbec ome
es e
Ġm ember
200 3
lev ision
Ġs w
ĠP e
Ġl og
app ro
r ite
t i
Ġpr iv
Ġre fer
w ise
Ġn ode
Ġpr im
Ã ¡
Ġexper iment
sm all
ĠD ist
get her
Ġto gether
Ġj o
ĠL a
Ġk ey
ar ies
oper at
s ing
Ġinclud ed
h a
h tt
ad em
0 8
Ġn amed
at rix
Ġhe ld
ĠA rm
o ch
ĠW ith
sc r
Ġdat as
l ation
ĠH is
ed er
ĠEng lish
ot ed
a ult
i ps
ul es
Ġh ouse
Ġr at
Ġde b
Ġdist ance
itt le
Ġs che
| ^
Ġev ents
Ġs ix
Ġg ive
Ġsim ple
Ġaut hor
Ġconst ruct
ic y
Ġbeg an
Ġanal y
Ġe mb
g l
Ġgroup s
Ġh aving
Ġt re
Ġserv ice
viron ment
Ġquant um
he ad
ib ility
cl ass
Ġf ixed
operat orn
ann el
ra g
il ities
Ġde v
Ġbe com
Ġl ik
re w
ond on
ri e
5 5
Ġem ploy
Ġdet ect
l in
w are
ĠJ apan
ĠH am
operatorn ame
Ġwrit ten
Ġrece ived
Ġim pl
Ġh ard
Ġb egin
Ġ ill
Ġbu ilt
Ġpro p
0 7
ron t
Ġassum e
ĠY ou
il es
ĠS o
em s
Ġa ir
Ġl abel
es c
Ġsequ ence
4 4
ĠA m
sp an
read y
ac y
pro p
( {\
Ġin c
row n
ĠS an
ĠE l
Ġprof ess
Ġg round
re et
og n
) -
h ib
Ġchild ren
Ġd on
arri ed
b ur
ĠW hen
0 2
um e
ĠAf ric
Ġinvest ig
] $
A merican
Ġlarg er
Ġ _
ra ction
Ġrel ated
ite ct
c ast
Ġcl ub
al y
Ġacc ess
Ġele ments
ind ent
Ġed uc
} :
sk ip
ce ption
i ber
Ġwork s
200 2
Ġrequ ire
0 3
Ġmat ch
0 6
p oint
Ġsp in
Ġde p
ĠP ark
a int
Ġpubl ished
} +\
Ġoper ator
ĠM on
Ġp ur
ed d
}} {\
cit et
Ġre view
ho od
Ġexpect ed
equ iv
ra in
f ord
g en
Ġte xt
op s
ric k
a pe
m id
cre t
Ġt w
ĠCom p
A L
Ġcl ose
ver se
av y
I C
Ġele ment
Ġg en
Ġex act
f ill
ĠH igh
on se
Ġp ort
Ġal ways
Ġdi ag
d imens
Ġscal e
ĠA meric
iz ing
Ġc amp
t ical
Ġden ote
n eq
Ġdevelop ment
ict ion
S E
ac hes
Ġv ill
g o
O R
Ġapp l
Ġab le
ing ton
Ġspec ies
, âĢĿ
Ġt aken
Ġt arget
Ġbuild ing
r im
r ant
Ġed ge
Ġg alax
Ġprodu ction
0 9
med i
ĠQ u
ĉ Ċ
ĠCol lege
B C
Ġun it
Ġcommun ity
Ġst ep
ult s
Ġn ational
ĠA ir
de fin
' $
Ġd ou
Ġst yle
Ġbound ary
ĠCh ampions
Ġs ample
st ar
S e
200 1
} -\
itt ed
ari ant
Ġm en
Ġhal f
) }{
ĠR o
ĠD av
Ġdeg ree
Ġm ight
y l
ĠD ep
ic ro
ĠL ondon
4 9
c ell
m ark
Ġto o
Ġcount ry
rac y
Ġcor rel
on ic
math scr
Ġdom ain
i et
a pt
ĠA g
Ġs ens
Ġproper ty
Ġal ready
ounc il
o oth
Ġs ent
ĠTh us
ĠS er
Ġcon c
A M
Ġgiv es
A r
r ated
Ġequ ations
Ġw ar
ard s
Ġ- \
ish ing
Ġcon ver
es tern
em ents
el oc
m ore
Ġf ig
umer ate
Ġh uman
ĠP res
a ugh
Ġm aterial
end ing
Ġs ite
Ġim plement
the orem
Ġa rm
}} _
ure d
P l
ress ion
8 5
ĠP er
th is
4 7
v space
s w
ĠB ro
Ġacc ording
ur ation
Ġp ut
ĠH er
Ġaddition al
Ġf uture
Ġwe ight
Ġann oun
ĠWill iam
c ing
Ġhe alth
c her
Ġf ar
] \
itt ing
Ġp ress
id ing
Ġw ind
en umerate
if orm
Ġf ail
ĠH ouse
Ġeffect s
Ġext ens
Ġcontain s
( "
rid ge
Ġplay er
mult icol
Ġs ocial
um p
ilit ary
n ote
Ġme chan
Ġth ink
Ġm illion
ul ated
ĠN e
( );
6 6
un ic
Ġrequ ired
r r
Ġm aking
item ize
ĠG l
Ġfield s
multicol umn
l ike
Ġim ages
ĠRe c
k n
ĠC he
Ġcl os
Ġprov ided
h y
Ġc ertain
Ġc ult
Ġn atural
Ġn ov
ast ic
Ġd ays
Ġcomp ared
m ing
Ġb ase
no indent
ĠA ng
E N
$ }
Ġthe refore
Ġcent ury
) }$
er a
av es
scal e
d ag
om ial
ĠF rench
Ġopt im
Ġv eloc
Ġwe ek
Ġm etric
Ġwh ose
Ġprodu ced
ĠA b
s ize
Ġne cess
ourn al
Ġtit le
Ġsol utions
Ġimpl ies
---- ----
Ġv ideo
op y
Ġp an
Ġro und
Ġhold s
Ġpresent ed
ar a
dimens ional
Ġs qu
ce ed
ct ors
Ġmult iple
p re
i res
Ġne ver
Ġfoc us
Ġreport ed
Ġeffect ive
S h
Ġne igh
ist ics
9 8
Ġen ough
m on
Ġstr ateg
ĠâĢ ĺ
c is
at ively
ou d
Ġserv ed
Ġact iv
ransp ort
Ġc ut
Ġh ost
Ġconstra int
Ġst ars
P e
Ġre ason
ol ic
am a
Ġco e
ĠIn ternational
Ġb orn
Ġ\ |
Ġc ateg
ĠS im
ĠS m
Ġdefin ition
I nd
Ġle arn
al t
Ġk ill
n ers
ĠF irst
Ġspec ific
att le
( -
Ġbro ad
Ġset s
ot a
Ġt reat
9 7
omorph ism
r ig
A P
Ġm iss
\ ,\
Ġst ory
it z
Ġag re
p ol
Ġdist rict
im ents
N N
f act
Ġconst ruction
Ġc e
ore s
ĠPh il
Ġcent ral
o on
u ff
9 6
I S
st e
in ated
it ch
oci ety
ĠDist rict
oc ument
min ist
Ġpro ve
Ġb o
L E
Ġperform ed
ta ge
** **
âĢ ¦
al se
op l
m ar
S ince
\ }$
> </
ĠC O
I T
Ġal gebra
D E
ty pe
Ġr ather
al le
ear ch
~ $
Ġf ri
ĠM ich
if orn
Ġh app
Ġcl osed
Ġcre ated
Ġbas is
d own
ĠC up
4 6
}} }
Ġr ank
om b
ict ure
ĠF rom
Ġm em
is k
ĠG erman
Ġnot e
s ource
Ġwe ak
Ġc le
Ġcomp lete
Ġindu st
at ives
Ġmark et
The re
Ġunder stand
s plit
oci ation
n ame
Ġcomp os
u ild
Ġback ground
om s
A A
k ing
il i
ic ult
Ġt rack
199 9
Ġa way
Ġgener ated
Ġl anguage
Ġpartic ip
Ġp o
g ence
Ġcan not
Ġdifferen ce
iforn ia
Ã ³
am s
il ton
ma p
Ġco ordin
ĠS up
Ġwhe ther
Ġal most
Ġout put
idd le
ĠT ra
Ġte levision
Ġstud ents
a ctions
led ge
Ġintrodu ced
o e
a ff
e al
Ġc ame
Ġtrans form
Ġgl obal
Ġgo ing
Ġl ed
Ġexpl ain
it ing
and id
ell ow
Ġatta ck
Ġinfl u
Ġeng ine
Ġm er
Ġinst ead
Ġbl ock
8 8
Ġn orth
iz es
is c
umb ers
ve y
^ -
ĠInd ian
Ġne ut
) +
P i
ĠM ark
Ġincre ase
Ġl ate
Ġl iter
Ġset t
ĠThe refore
Ġrepresent ation
Ġlead ing
Ġserv ices
Ġrel ation
Ġg as
Ġdevelop ed
Ġequ al
land s
Ġstart ed
Ġcompon ents
C C
ĠA c
appro x
cc ording
Ġmagn etic
ĠA ct
P h
th at
l a
B e
ly mp
b and
Ġestim ate
r ast
Ġw ave
pp ed
ir t
Ġdire ction
Ġb ig
it ude
Ġdem on
Ġcompon ent
A t
or ge
Ġc ode
Ġcon text
ut h
Ġfl u
Ġpri or
Ġy ield
Ġwork ing
Ġso ft
te e
Ġad v
Ġme et
Ġother s
Ġbel ie
ott om
C O
nd er
C ol
Ġen vironment
Ġh or
at ory
line ar
Ġthe orem
6 7
Ġchang es
ĠV al
Ġ _{
L e
Ġro t
ber g
ir l
199 8
Ġex ec
id s
Ġent ire
ell ing
Ġa ff
Ġe conom
In t
ari o
Ġrest rict
ĠG a
Ġarch itect
Ġd ied
' )
y ing
Ġpr inc
her n
Ġstud ies
under line
199 0
* {
ru le
kn own
] ,
t d
Ġev olution
& &
ic les
Ġsign al
Ġpro t
im ate
Ġb ody
Ġon ce
o ph
Ġs on
ill s
ew ork
Ġt aking
oy al
Ġocc ur
Ġc lear
Ġche ck
ĠR iver
Ġprov ides
ĠCal ifornia
ĠInd ia
g roup
t urb
use um
ta ct
| |
m y
Ġu pper
Ġsy n
ĠSt ud
in n
oun ter
Ġp ay
ar ily
N ew
Ġmax imum
Ġch all
Ġspect rum
P S
b ound
qu e
one y
ht ml
> <
in de
7 7
sh ip
clus ion
an ish
Ġt ens
g ress
L ist
ac he
bs ite
Ġh istor
Ġinde x
ĠEng land
Ġappl ied
hi ps
val ue
Ġeval u
}} _{
Ġcontinu ous
st ate
Ġtrans ition
Ġsc en
Ġsmall er
Ġcom e
ĠT able
../ ../
The n
Ġd one
f unction
Ġad van
Ġproblem s
ĠD iv
text tt
y ear
Ġpop ular
ĠS w
Ġin f
ĠRep ublic
ĠD r
{ $
Ġcomp an
Ġs outh
Ġke ep
n ce
ĠM y
Ġdirect ly
}^{ -
Ġun ique
6 8
ber t
ĠT r
Ġca pt
ar th
Ġmat ter
Ġp ast
Ġrec ogn
ĠAmeric a
ran ch
Ġadd ress
Ġphys ical
The ta
E S
Ġup d
Ġatt empt
ul ly
Ġdiff icult
u ra
Ġvari ables
Ġveloc ity
Ġde cre
n orm
Ã Ń
Ġoffic ial
ĠĠ ĠĊ
A d
v olution
iv il
Ġ$\ {
Ġ\ ;
Ġm akes
Ġcon duct
Ġsub ject
W ith
ĠF l
k en
, "
S c
ĠM od
r s
Ġtrans fer
Ġincre asing
ĠTh at
ĠĠĠĠĠĠĠĠĠĠĠĠĠĠĠĠ ĠĠĠ
{ }
Ġw ent
Ġcent er
Ġpriv ate
v ille
et t
yn omial
) ,\
Ġcon fig
Ġe igen
Ġam ount
Ġtra dition
Ġg rad
it es
Ġbecom es
Ġimp act
V ert
ren ce
min us
ĠAustral ia
ĠE ast
h an
Ġl ittle
Ġelect ron
Ã ¼
C D
Ġannoun ced
Ġf em
ort un
and er
Ġ* /
text rm
Ġc r
en ed
au ge
k ed
4 2
S p
ĠD i
ac c
Ġrat io
ust om
Ġvill age
ic o
< \
r d
A fter
Ġe ff
Ġare as
199 6
big g
n ormal
k y
stit ute
all s
pro d
os en
Ġd est
Ġy oung
r ate
Ġad j
Ġinclud es
ro ll
Ġgo al
E D
Ġestabl ish
Ġmov ed
Ġ ut
Ġdimens ion
subset eq
Ġa ffect
199 7
F rom
s el
le g
Ġf ather
Ġval id
Ġcol umn
Ġc andid
Ġs old
ĠM a
ĠC ont
Ġn uc
ĠPres ident
ot ic
c an
ĠB er
Ġquest ion
Ġge om
ĠD es
t ra
p a
Ġse arch
ĠB el
Ġfrequ ency
ri ate
Ġst age
Ġcho ice
Ġw ords
Ġpe ak
Ġw rite
Ġvi ol
4 3
Ġcrit ical
Ġep is
ĠC our
l ong
foot note
O S
Ġallow s
p ly
Ġbehav ior
. )
comm and
ĠM or
Ġro b
Pe ople
Ġs ources
d en
5 7
Ġn umbers
G e
ic a
Ġpolit ical
ĠĠĠĠ Ċ
c ode
ĠH ol
m it
lo ad
line width
m essage
ĠEurope an
Ġequival ent
pec ially
Ġset ting
Ġdemon str
Ġus er
ic it
Ġt ry
us ion
ĠN ote
^{ -\
5 00
Ġt akes
g color
Ġbre ak
ric es
5 8
Ġreg ard
Ġadd ed
Ġs ays
ĠSt reet
Ġdetail s
Ġin ternational
d ist
ren g
ĠCh ar
n t
ct ed
ĠCan ada
u el
Ġ Ð
ĠP at
ans ion
f rom
} '
Ġ Â
g ing
ĠS erv
ad ian
ou l
a el
L iving
Ġ$ |
Ġcol or
dis play
Ġdatas et
ĠA ward
ĠPart y
Ġno ise
set minus
Ġar r
ĠP ort
Ġt ask
Ġa ward
Ġresp onse
opl us
Ġreg ions
A nd
Ġinst ance
ag ed
Ġcont ent
art ment
c ial
Ġm ale
}} ,
ac hed
4 1
Ġcour se
ĠCent er
I d
ĠD em
port s
ĠM al
Ġdeterm ined
b re
Ġconnect ed
pp ing
u racy
u ed
M S
Ġf it
ĠC ouncil
if old
Ġsm ooth
Ġm ention
Ġst e
le vel
r atic
Ġresp ons
T e
ĠP al
N ote
Ġ( -
Ġpart s
) |
ip al
Ġin equ
el ine
cur ity
Ġ( $\
Ġpro ced
A ll
en ing
Ġch annel
is es
ĠTh om
Ġill ust
Ġ: =
Ġsuccess ful
ĠBl ack
ta int
T ype
Ġro ad
p ite
il m
sub figure
ign ed
i ation
an i
p ot
Ġ ess
Ġb gcolor
Ġl ive
Ġ Ã
Ġm id
Ġ row
Ġtyp es
E C
and s
Ġun iform
ĠR ed
Ġstud ied
== ==
199 5
y a
Ġder iv
ch ange
end er
ĠPa ul
5 6
p ret
Ġnov el
ut ive
8 7
enc ies
Ġobject s
Ġrel ative
Ġinteg ral
} /
_ +
Ġs ound
Ġal though
ĠG eneral
Ġsu fficient
Ġun cer
ort hern
ĠCh urch
du c
wed ge
\ }
as ons
Ġcon ne
dag ger
Ġpol ynomial
ĠFran ce
Ġhy per
Ġmed ia
Ġh ref
in i
oun tain
Ġpat tern
198 0
Ġg re
ĠS en
Ġdeath s
ĠR ober
ro te
ĠC ons
ĠG erm
Ġfl ux
Ġg ain
Ġrad io
H istory
Ġus es
Ġobserv ations
in f
in os
ĠJ ames
Ġ$ [
Ġspe ed
Ġm ag
d i
Ġcon clud
b ook
ĠWh ile
alle l
Ġrele ase
ĠB ra
ĠG roup
ĠL aw
20 23
k a
Ġlik ely
as hed
\ '
_{ (
g ra
th ing
Ġcont ract
_ *
ro l
N ame
i ers
u z
Ġb ene
Ġinter action
Ġk m
Ġstr ing
ĠJ e
ar ing
ĠCh ina
a ign
Ġwork ed
Ġhe nce
Ġits elf
i os
] [
at form
l n
Ġclass ical
ĠO ur
Ġwid th
he l
Ġele ction
Ġs amples
id a
Ġbound ed
Ġoper ators
ĠG o
Ġcomp act
Ġresult ing
Ġpol icy
wo od
Ġcre ate
ĠDav id
Ġp erm
Ġre ve
ĠD o
Ġfor ce
Ġac cept
$ _
9 3
k ey
Ġ ir
Ġad apt
Ġde al
m ary
d s
Ġcur ve
ĠO lymp
ĠB ay
W hen
ther n
align ed
un n
Ġt able
k et
I M
W h
col on
Ġdiag ram
Ġa x
Ġit er
ĠArm y
Ġrem ov
ow s
l ight
Ġwe bsite
Ġk ind
Ġre ach
Ġp ack
c all
Ġf ront
Ġl ost
bl ack
Ġal tern
att ice
j ection
Ġon line
Ġde ep
Ġexper iments
Ġstructure s
at al
Ġus ually
O ne
199 4
Ġwh ite
htt ps
Ġla un
Ġin fin
Ġp ers
is ation
Ġ$ -
Ġdesign ed
ĠS um
ad es
8 6
Ġf av
Ġre ally
ĠR ich
I R
9 4
ri an
g s
Ġsymm etry
( '
im port
d ata
Ġs ense
ab s
Ġlarg est
Ġb ox
ou thern
ag o
Ġ und
ib rary
Ġrema ins
in ct
Ġ\ (
Ġg auge
arian ce
ing u
Ġgra v
k er
ĠR oman
Ġdiscuss ed
Ġemb edd
Ġmon ths
f it
ĠH all
Ġpres ident
d t
Ġel se
Ġp ref
r at
iz ations
] .
ĠAss ociation
cre te
Ġa ud
P R
Ġqu al
ĠQ ue
9 2
A D
b ul
er ve
c ks
Ġgra du
ĠDep artment
Ġ rac
Ġlay er
Ġneg ative
Ġexper ience
ra b
Ġfram ework
ell ar
Ġpart y
Ġexpress ion
oll ary
)\ ,
Ġcompan ies
he st
ree k
ag ing
F T
Ġpartic les
Ġapp ly
ĠPro position
ste in
ĠHe re
Ġm ilitary
Ġst reng
oc ks
Ġde cl
Ġver tex
ww w
Ġto wards
Ġes pecially
Ġex hib
ig ital
is ions
Ġup on
Ġse lected
Ġch arge
at ur
7 8
V al
ol s
Ġpartic le
Ġdynam ics
ĠGe orge
Ġcommun ic
ash ington
Ġsub set
Ġapproxim ation
Ġsupport ed
p an
us es
e ared
Ġopt imal
199 2
U S
st on
Ġeduc ation
}} (\
i en
a res
ĠHam ilton
p ng
M od
eth ing
Ġexpl icit
Ġs eg
\! \!
est s
Ġem ission
ĠT V
as c
Ġwho le
{ $\
Ġact ive
Ġredu ced
d ro
Ġneed ed
7 6
w a
or ing
Ġg ot
Ã ¶
Ġknow ledge
/ >
Ġvari able
Ġmechan ism
Ġthe rm
Ġsim ply
Ġout side
Ġs cre
Ġ| \
A pp
_{ {\
Ġlevel s
rodu ction
x y
ĠG reen
ify ing
mod el
_{ -
Ġqu ality
Ġform ula
Ġclass es
199 3
B l
sequ ently
ous ly
Ġd ocument
Ġfollow ed
Ġloc ation
Ġcon cept
us ing
Ġac qu
Ġapp oint
Ġsche me
um ents
al ian
Ġw rote
Ġper turb
al d
Ġt ree
s pec
ĠE m
el i
Ġteam s
Ġform ed
Ġor d
it tee
Ġch arg
Ġreturn ed
i ences
) }(
d et
lim its
Ġacc uracy
Ġm aps
5 1
oc al
Ġd ark
Ġpres ence
iv ial
ĠN ot
Ġm ach
Ġd raw
ac ity
Ġpolit ic
Ġder ived
Ġm ove
Ġl atter
eder al
Ġlead s
Ġd ra
Ġver t
Ġim medi
ir m
Ġad opt
M C
ĠL ou
Ġdire ctor
Ġad minist
Ġch ain
Ġun its
ac ing
Ġh tt
un c
g in
Ġra il
ist ry
N et
5 4
ran ge
an ks
Ġthrough out
Ġcol lection
Ġgalax ies
ĠĠĠĠĠĠĠĠ ĠĠĠĠĠ
ĠIn stitute
text sc
il arly
ĠM art
A B
Ġt en
Ġsp at
Ġinvol ved
Ġst ri
Ġh on
= (
Ġnetwork s
Ġaut om
ric e
ĠL ist
Ġpre c
Ġf ace
5 2
Ġnecess ary
ub e
Ġn ull
n es
Ġch osen
Ġl at
' _
Ġmot ion
Ġv ict
Ġapplic ation
9 1
Ġob ser
iqu es
Ġb ar
Ġ& &
E T
ĠGerm any
Ġprofess ional
Ġmeasure d
rop y
Ġcoupl ing
Ġiss ue
Ġdou ble
Ġexp ansion
Ġad m
Ġar bit
ol ar
Ġuncer taint
b a
Ġexp on
Ġgrow th
Ġw ord
Ġjo ined
ro s
ann ing
ĠDiv ision
ĠP o
Ġext ended
Ġcompar ison
197 0
Ġsh all
ĠCour t
) _{
Ġiss ues
defin ition
in y
re c
te red
,\ ,
ĠR oyal
Ġlim ited
Ġn ight
Ġfig ure
Ġsatisf ies
end ix
ĠUn ion
Ġnumer ical
Ġass ist
Ġcontinu ed
Ġcom es
) ^{\
ĠU K
ent al
Ġn orm
Ġover all
ĠS ur
ac her
Ġy et
S P
ĠD uring
Ð ¾
Ġde fe
Ġt ransport
ines e
Ġe mer
ant ic
b oard
Ġsc ore
Ġide a
Ġm arried
ĠV ir
Ġper cent
ĠF e
L L
ĠRes earch
ĠR uss
Ġ }\
on a
Ġprim ary
Ġcontrib ution
Ġpol ar
ffic ients
8 9
Ġrele v
' \
Ġ %
ĠO b
ĠB r
re p
Ġmod ern
Ġnew s
k i
Ġmin imum
Ġcorre ct
b o
sub subsection
Ġs us
Ġj ob
Ġc os
Ġv an
Ġlong er
amet er
Ġa im
Ġmin im
Ġprevious ly
Ġd ed
pl ace
Ġmod e
Ġoper ations
Ġus ers
Ġspect ral
Ġdec ision
Ġre ference
Ġallow ed
" )
v ol
arl ier
w ell
Ġmoment um
Ġfe el
E E
ed y
Ġbel ong
Ġpa rent
ret urn
Ġl ove
Ġinter pret
ĠRo ad
il s
C ont
et imes
Ġde part
ens ive
ĠB o
Ġp ie
w rit
ĠH ence
Ġorig in
Ġdec ay
av a
5 3
199 1
u it
Ġc ustom
Ġra ce
ĠSc ience
Ġsim ulations
de red
Ġf alse
ĠM at
Ġcomplet ed
Ġrad ius
Ġdirect ed
se y
= {
Ġst ra
Ġopen ed
Ġtra vel
Ġrecord ed
ĠW ashington
Ġestim ated
p ers
ĠAc adem
Ġoff ice
ĠF urther
S C
) /
Ġ id
Ġbeh ind
anc ial
Ġrepresent ed
ĠIn ter
Ġam plit
ĠComp any
ĠN or
ĠAustral ian
N ot
ĠM usic
for all
Ġcons ists
N ow
Ġ+ \
He re
Ġneed s
un t
pt ions
St ring
Ġev idence
Ġm other
Ġe ver
Ġo p
Ġn odes
Ġh ol
_ _
I s
Ġsim pl
Ġvert ices
Ġvol ume
" />
Ġth ings
Ġex amples
}$ -
ĠS ing
Ġpan el
Ġin side
il ies
as ks
Ġs il
ĠG ra
7 2
O ur
Ġf ire
Ġapplic ations
g n
ĠM ary
Ġpl ane
Ġcho ose
Ġwh y
Ġcurrent ly
Ġ ensure
ĠRe f
Ġn ature
ollow ing
bur g
Ġf ully
ĠS ociety
Ġprocess es
h and
iver se
al a
Ġfact ors
ar p
ĠP ress
Ġd augh
ove red
res ents
Ġl ot
ĠNew s
Ġgener ally
est ival
8 4
L O
Ġt ax
Ġform ation
ĠD ire
Ġbro ther
) ^{-
v is
Ġsong s
M A
ym pt
ar an
Ġconsist ent
Ġeas ily
}^ *
ens us
Ġdet ection
Ġexperiment al
Ġf ood
Ġf all
ĠJ ack
Ð °
) {\
Ġcon tact
5 9
S O
Ġrun ning
Ġinequ ality
Ġindust ry
= #
trans lation
Ġfor ward
Ġcamp aign
Ġim m
Ġs low
Ġr ule
E q
osp ital
Ġclust er
ay er
S I
ĠMore over
Ġsom ething
Ġact ually
Ġl iving
6 3
ask et
Ġproduct s
ro y
v a
ĠM ex
Ġatt ention
ĠL eg
ĠSy stem
Ġb oard
d eg
H owever
ĠIn t
ĠB est
m es
ĠT ex
b our
res hold
Ġch urch
Ġneigh bor
ĠC ap
Ġhim self
Ġacc om
rie f
Ġpl atform
Ġconst it
Ġbl ue
Ġstart ing
S im
Ġcorrespond s
app ing
Ġdeb ut
Ġappear s
Ġplay ing
Ġtra in
the n
i ency
ĠV ol
ĠH ow
st o
k m
n ov
Ġve h
c ases
ĠW ork
ir al
Ġt ro
F F
Ġassum ption
ma in
ĠS upp
Ġsy mbol
o ice
ĠAr ch
~ $\
ĠH en
Ġinterest ing
Ġm icro
Ġform s
Q u
om in
Ġb all
Ġt rac
Ġcomp ute
Ġcont rast
ar ter
g ent
ĠS ub
Ġmain tain
y mm
Ġpract ice
Ġpress ure
Ġthough t
Ġart icle
it ter
Ġsl ight
o o
Ġ( )
cl es
ĠChampions hip
ĠT rans
Ġoper ation
sh ift
Ġsh ape
Ġfor ces
Ġed ges
: \
Ġr isk
Fig ure
Ġapp eared
os ing
Ġdeterm ine
Ġmeasure ments
Ġincre ased
^{ +
Ġsignificant ly
ĠY ear
Ġd ual
ĠD ay
et her
Ġto day
Ġdescrib e
al g
Ġcoe fficients
c ome
P r
Ġ= >
it ar
l ist
ĠG old
} %
Ġeas y
Ġrequ ires
b on
ĠIs land
\| _{
Ġf raction
Ġcalcul ated
Ð µ
sel ves
umn i
M ore
ĠA lex
Ġ !
ĠN ow
Ġperson al
P T
P ar
ĠS am
Ġtreat ment
Ġe arlier
ĠM et
Ġd am
Ġproced ure
p ath
Ġl attice
Ġsim ulation
Ġro ck
pm atrix
Ġc ast
ĠS pec
ĠAfric a
ul s
ĠR ad
ak er
w ar
Ġw ife
ĠAng el
ĠJ er
ri a
fe red
= -
P C
ĠA ut
an o
Ġrep resents
Ġconc ern
ĠS ome
O b
Ġt er
8 2
Ġtechn ology
Ġexp and
Ġg ave
ĠB ook
Ġident ity
d r
ĠPro v
Ġstrateg y
re y
re es
Ġsign ed
Ġh ot
ĠM ag
Ġconstraint s
Ġhig hest
ĠWh ite
it a
Ġsur v
el t
8 3
ar c
ĠC ong
$ (
Ġrecent ly
Ġess ential
198 9
Ġcontro ll
S et
y e
ĠT ur
ro id
Ġliter ature
p c
t ik
ĠM iss
)\ \
6 2
ok e
r as
Ġright s
Ġco ach
O T
y p
}} ^
Ġr ates
Ġh ous
Ġdistrib utions
am ily
$ $\
Ġs ampl
z a
Ġcon sum
ĠĠĠĠĠĠĠĠ ĠĠ
el er
Ġin j
Ġlead ers
Ġuse ful
F L
7 4
ĠO ther
$ ).
6 1
Ġvari ety
Ġcorrel ation
ĠW il
8 1
Ġcount ries
og ene
Ġchall eng
ve x
Ġon es
Ġl ack
Ġden otes
Ġcol lect
Ġsp aces
ĠS l
Ġclass ification
per p
re me
) }{\
ĠDem oc
h ors
p ose
Ġw ide
st ack
le ase
.~ (\
b ody
Ġres olution
ĠCl ub
ĠB ur
ĠHe alth
Ġqu ick
ĠR ussian
Ġapproxim ately
ĠO ff
7 3
ĠTe chn
ĠCl ass
t est
ĠCan adian
it able
ĠM ac
ern el
Ġrelations hip
Ġalgorithm s
) {
Ġst eps
sim eq
ĠG ames
Ġprodu ce
ĠCent ral
ĠM er
w in
Ġschool s
Ġst ated
W hat
ĠM ad
z ero
ĠT own
Ġrepl aced
s ol
rem ark
Ġf un
Ġscal ar
F A
new command
id ents
Ġsh ift
Ġst atic
ad o
Ġcur ves
Ġc ore
st ant
Ġche m
re qu
Ġj ud
ĠD an
Ġdis play
Ġincre ases
vent ion
Ġcour t
ĠS al
Ġagre ement
Ġsc atter
il ib
ĠJ ust
Ġd ate
li ament
Ġp age
par am
198 8
Ġappro aches
og le
ĠThom as
Ġsqu are
ĠF ound
# #
ess ion
Ġmon th
Ġmem ory
F C
Ġan t
Ġbir th
Ġmean ing
ĠRober t
ou ri
i ew
Ġrelev ant
Ġm oney
Ġfe ed
ĠK e
Ġexist ence
ol f
ĠJ ew
Ġident ified
Ġto ur
f ile
Ġf ast
od ing
196 0
7 9
r ish
ri z
is her
D ata
ĠAfric an
6 9
n eg
duc ation
Ġan ti
Ġcateg ory
ĠKing dom
ĠG reat
Ġrema ining
Ġav oid
Ġm ar
ĠTex as
Ġse lect
A G
Ġst ream
is hes
Ġt ell
Ġcons erv
}} ^{
Ġdepend s
Ġqu ite
Ġsh are
ĠMich ael
St ate
tik z
Ġelect ric
Ġcons id
Ġc am
Ġfri end
} )$.
N e
D F
mult i
Ġintrodu ce
Ġb ur
Ġm ole
ĠF in
em ic
7 1
Ġimpro ve
ĠM useum
ĠG rand
pro du
ag er
Ġrun s
Ġhigh ly
w est
ĠJapan ese
Ġf ill
ĠSc ott
ough t
f low
h om
Ġdesc ription
Ġexact ly
Ġlist ed
ĠI m
Ġst aff
v ement
ĠCh inese
Ġang le
Ġcharact ers
Ġreve al
ĠG od
ri al
air s
Ġpol ice
ĠCar ol
y r
Ġprof ile
$ ^{-
Ġcon cent
Ġw est
i ra
ar r
The orem
Ġ= \
b in
er ia
Ġqu as
Ġtens or
Ġs aw
Ġse ven
P ol
Ġocc up
inde x
Ġr ules
Ġh ours
ĠC ath
Ġe ight
ĠT om
Ġex cept
bul let
if ically
emb ly
Ġvis ual
3 00
Ġarg ument
Ġc ounter
Ġse x
Ġpl aces
ĠW hat
asket ball
p icture
Ġsol id
S U
a ur
198 7
Ġcirc le
ĠAcadem y
M e
ian ce
k in
Ġg overn
Ġm us
Ġfram e
Ġsit uation
Ġbook s
com position
ab ilities
ark s
ict or
m ann
Ġe ast
Ġb ring
Ġse curity
Ġ ult
Ġin cor
à ¤
Ġm ix
Ġmanag ement
u ations
Ġj oint
m ission
ĠW estern
over y
Ġmention ed
F irst
Ġspat ial
E n
ĠĠĠĠĠĠĠĠ ĠĠĠĠ
sequ ence
Ġwrit ing
Ġc red
ress ed
Ġdom in
Ġstat ement
d o
ĠSe cond
ri um
S M
V ID
Ġinv ariant
con s
Ġestim ates
map sto
Ġj ournal
N o
Ġex am
Ġse lection
Ġsc ient
ot o
Ġcomput ed
Ġexist ing
ĠC a
az ine
Ġinst it
)$ -
Ġf ight
ĠSup er
ad ing
se ud
ĠVir gin
ind er
h u
ĠO ut
Ġdis e
Ġsing ular
in v
Ð ¸
Ġsymm etric
ĠD el
Th us
p id
Ġepis ode
O r
vers ion
Ġp en
ĠA ccording
N R
l ength
Ġparticular ly
Ġext ract
Ġmod es
Ġtechn iques
Ġb ul
ĠP et
ĠR ob
st ring
Ġre ached
ĠR ail
\ _
ĠH istor
ĠK ore
Ġconne ction
Ġfound ed
Ġpl ant
Ġd ro
Ġdist inct
Ġ&= &
Ġprop ag
a rent
Ġhor iz
err or
Ġstra ight
198 6
rough t
Ġextens ion
Ġcontin ue
Ġpa int
Ġthe ore
ĠM o
ĠChrist ian
C T
Ġc ry
Ġst able
Ġqu ad
Ġconstruct ed
.. ..
Ġext ra
en a
f ess
Ġshow ed
Ġsp orts
ir ing
Ġdepend ence
| _{
f ree
b i
Ġaut hors
Ġbas ic
Ġpair s
omorph ic
un k
ut ing
Ġalbum s
Ġevent ually
ĠRec ords
d im
Ġopp ortun
Ġredu ce
Ġnot ed
ĠAl though
L P
Ġfam ilies
ĠD on
un s
ĠMin ister
Ġspect ra
ĠF ore
st ra
ĠT or
display style
Ġcontrib utions
om a
Ġatt rib
Ġsc ience
od ot
C H
en ch
ĠLou is
Ġre pe
Ġv oid
Ġle ague
Ġmat rices
B A
c el
Ġb r
d x
Ġ ~
Ġdaugh ter
Ġhe avy
e ed
ĠM us
ĠL at
Ġe ffic
ĠZ eal
ĠFran cis
th let
Ġinter actions
Ġb al
F il
Ġappro p
Ġbegin ning
ĠIt alian
Ġtrans l
che ck
) _
b ut
col umn
t ri
g raph
re land
Ġth reshold
Ġe fficient
Ġmiss ing
Ġw alk
Ġelect ed
Ġtradition al
ro ad
L S
Ġas ympt
T r
Ġrequ est
mer cial
' (
Ġconver gence
Ġopp os
r ons
198 4
F urther
ul ate
i pl
ĠZeal and
Ġ= =
ĠGa ussian
ĠO f
Ġvis it
Ġyield s
Ġan im
B S
C o
Ġgener ation
Ġb it
B ut
ed om
Ġrel ig
irc raft
pro position
Ġanal og
\ "
ob ile
Ġsoft ware
Ġassum ed
E M
ĠChar les
Ġcomplet ely
Ġform al
Ġpl aced
pro b
Ġcomm and
Ġso on
Ġcell s
ĠL ie
ĠDe f
ca pe
ro t
em por
c ref
Ġdis k
htt p
198 5
E ng
ĠSm ith
ĠD u
ib ly
_ -
s pect
S o
en ge
Ġinflu ence
\ {\
( $
Ġb ranch
mat rix
Ġrel atively
sk i
ĠF lor
ĠT w
$ ;
Ġobser ve
Ġarbit rary
Ġg old
Ġappoint ed
ĠM ont
Ġse em
Ġf ile
ament al
m as
Ġcomb ination
g a
Ġm orph
ĠS a
Ġkill ed
Ġhe ight
I m
Ġgre ater
Ġmeasure s
ol a
Ġfem ale
Ġ$ $
Ġbe y
Ġcos m
Ġre const
Ġpl ot
Ġpat ients
p at
now led
ĠD is
Ġp ick
Ġn ames
Ġv s
Ġfour th
Ġst ellar
Ġor b
ĠC D
Ġun ivers
for ce
Ġcap ital
Ġbey ond
Ġarchitect ure
am ely
ug g
Ġh it
Ġse ems
ot ion
Ġin ner
Ġgu itar
Ġca used
in em
Ġpol y
Ġread ing
Ġr ing
r ich
et ime
com ple
Ġconfig uration
The se
N A
es h
ĠU nder
Ġcl oud
I G
u ge
b el
Ġto ld
Ġan sw
ann ed
m c
ap ter
Ġorig inally
ch o
ĠD en
i h
re al
Ġchang ed
Ġtra de
Ġact ivity
ĠP ublic
ag raph
ĠM ass
Ġbuild ings
Ġg irl
Ġ ens
} &
ĠSum mer
ĠJ ose
se ct
Ġcomp are
Ġabs or
Ġst ations
Ġs en
Ġw or
Ġdiscuss ion
Ã ¤
ed s
val ues
Ġro om
k l
he mat
ĠAl so
art s
$ ~
Ġmeasure ment
) },
ilib rium
ĠB ill
ing er
pot hes
Ġcomput ation
is l
Ġg reen
R O
Ġtrans formation
ĠC ur
ĠS aint
ĠL u
Ġre comm
Ġopt ical
Ġb rief
Ġv irt
ĠF ootball
Ġc ivil
ĠH ill
Ġcom ing
Ġerr ors
H z
Ġcoll abor
at re
e es
Ġag ent
Ġthem selves
ĠR em
ĠH istory
as tern
ic ago
we ight
s ur
) +\
Ġman ifold
ĠAn n
Ġp urch
ĠT wo
Ġin ternal
ĠB en
u fact
ist ical
Ġcontain ing
198 3
' }
od er
ĠE qu
S upp
Ġca use
Ġfootball ers
Ġtem por
Ġsa f
Ġab ility
Ġslight ly
{ {
h al
ĠL ake
Ġpredict ion
Ġt alk
Ġprov ed
Ġfin ancial
M an
ĠIs ra
Ġsem i
ist an
H E
Ġplay s
ell i
Ġrepl ace
Ġv ac
Ġth ick
Ġ ;
Ġve ctors
ĠG al
Ġw a
Ġal umni
ĠP eter
l ig
Ġce le
Ġstreng th
ap ers
ĠComm un
ud es
and a
ĠIn st
ĠIt s
ran e
Ġch ampions
Ġart ists
Ġcomb ined
Ġd u
Ġ ...
} )$,
Ġp hen
U T
if ier
) -\
ic ity
Ġtra ined
Ġfin ally
M P
I V
ot ing
iz er
ĠHamilton ian
ĠFran k
ĠH a
c ular
Ġfin ished
Ġacc ur
Ġmin utes
Ġin sp
Ġgener ate
Ġcult ure
} }$.
Ġnear ly
Ġp ure
z il
Ġreg ime
ig an
Ġet c
Ġto urn
Ġor ient
Ġcal c
z y
ĠO ffic
ĠRich ard
Ġlin k
Ġpre m
}{ |
ĠL os
ven ue
F orm
Ġdifferent ial
Ġident ify
ve re
Ġt asks
Ġt or
} }$,
h bar
k es
Ġman ufact
Ġst ay
ĠSer ies
ab il
Ġfl at
Ġ â
Ġc ard
S ub
ĠP an
or ial
ill a
c r
Ġw oman
M L
n et
) }_{
Ġcoordin ates
Ġmov ement
Ġtyp ically
Ġv ary
Ġsatisf y
Ġs ure
Ġb ank
198 2
Ġdec ided
ĠR ock
Ġw ays
}( {\
ĠL and
ĠM el
A ss
g u
idd en
Ġinst rum
G B
ĠB rown
C S
Ġsur round
Ġb rought
Ġm iddle
che n
e ks
ĠS ta
I P
De f
C ons
ĠComm ission
c ase
ex ample
ĠServ ice
Ġoptim ization
sc ill
ir it
Ġpar allel
Ġm arg
Ġb ottom
ur l
ĠĠĠĠĠĠĠĠĠĠĠĠĠĠĠĠ ĠĠĠĠĠĠĠ
ĠOlymp ics
ĠPar is
ud d
ter m
Ġoff er
ĠC amp
Ġinter val
Ġimmedi ately
Ġrec all
Ġper fect
vi ation
Ġsh ip
. $
l am
Ġsepar ate
) )$
Ġg rant
Ġexpress ed
T V
Ġn om
ĠO ver
}{ (
ag ement
ĠSp anish
Ġmed ical
Ġmin or
Ġprogram s
ell ed
Ġmach ine
Ġc ru
Ġsom etimes
Ġpro gress
he ight
Ġm unic
Y ou
ĠG r
l ink
c ong
Ġseg ment
Ġcompet ition
C P
Ġcap acity
Ġdifferen ces
Ġachie ved
Ġun ion
Ġobserv ation
Ġp ain
Ġcandid ate
Ġb inary
Ġsp read
ell a
velop ment
b an
ail y
om y
Ġres on
ĠW omen
Ġactiv ities
Ġother wise
k o
Ġgrad ient
ĠI reland
ip age
Ġcom ment
Ġas pect
ad er
ĠH ig
at us
Ġmov ing
ĠB re
et te
min ipage
Ġide al
bl ue
Ġcy cle
ĠCath olic
19 50
m ma
Ġachie ve
ĠO pen
Ġnot ation
ĠE ach
D A
197 9
ĠP enn
: }
und le
Ġv oc
Ã ¨
**** ****
ĠF ilm
S he
C E
Ġh arm
ul ed
Ġm ind
Ġindu ced
Ġgalax y
ĠA re
Ġscatter ing
Ġass ess
Ġa mb
on ent
Ġdep th
Ġmass es
Ġt im
Ġth reat
Ġart ist
Ġhy dro
Ġle ave
Ġstud ent
Ġa st
Ġmagn itude
ĠRuss ia
it ation
Ġconf ir
Ġut il
Ġc arried
Ġconclud e
Ġdid n
Ġlook ing
Ġstat us
ott ed
Ġbe am
ĠS un
}$ )
ĠV ictor
i ant
Ġf arm
qu are
ĠP ri
Ġo scill
$ ),
Ġbehav i
Ġredu ction
ult ure
Ġorgan ization
Ġinst all
Ġcle arly
Ġs n
Ġ$ |\
an cy
S R
Ġan c
Ġstrong ly
Ġas ked
S te
r ong
Ġabs ol
ĠM ost
Ġ er
Ġleg al
4 00
Ġon to
Ġrema ined
O ver
Ġgraph s
Com p
Wh ile
Ġlay ers
Ġp ark
av al
ĠVirgin ia
Ġdetail ed
ĠF inally
Ġmajor ity
om ic
Ġpur pose
Ġb ad
Ġs ch
h ing
ogene ous
Ġpre vent
Ġmin imal
F e
Ġlead er
[ (
ĠG overnment
Ġm ut
Ġg rid
The refore
v in
198 1
ma il
Ġcol lege
ĠSp ace
ut ch
Ġrema in
Int roduction
Ġb rand
Ġa ctions
Ġtyp ical
) }}
Ġinteg er
Ġs plit
Ġposition s
Ġsh ot
Ġquest ions
pr int
n y
Ġcrit ic
Ġ\ !
I ON
ĠP re
) --
Ġindic ates
ĠComm ittee
Ġf ix
less sim
ag s
ĠFlor ida
r ical
in put
-------- --------
n el
ĠCong ress
Ġf air
loc ation
Ġhouse hold
Ġincor por
ĠCO VID
ĠFound ation
ĠP ost
Ġg rand
ann els
oc ol
H ow
00 00
if feren
pt on
ic on
m ass
Ġsit es
g ener
Ġindividual s
Ġinter view
Ġc orn
Cl ass
,\ \
op ic
at o
ĠI ll
Ġpres erv
ĠAt l
ĠL y
Ð ½
Ġm ur
Ġdatas ets
Ġcomput er
U R
D P
Ġh um
ĠSt ar
Ġl if
Ġor th
ĠF orm
Ġtheore tical
ill er
ĠCh icago
Ġra pid
Ġpr int
Ġhy pothes
cc cc
Ġdo ing
Ġres ources
Ġamplit ude
M M
Ñ Ĥ
rel ated
$ };
Ġcar ry
Ġpro port
Ġl um
ĠJ an
b u
Ġwrit er
Ġbelie ve
Ġe arn
ock ey
ĠM il
Ġun known
Ġdistrib uted
C L
loc al
Ġsyn the
Ġmain ly
Ġo dd
ĠL i
ish op
Ġse ctions
ĠGe org
Ġhe art
Ġgo es
ta g
] (
h box
t frac
Ġv ar
C an
Ġcontain ed
s ch
e ch
Ġmost ly
ol k
ĠK n
Ġapprop riate
rib ution
Ġmed al
C A
ĠH y
it ely
i able
Ġ{ $
Ġprob ably
or ter
Ġex ternal
f aces
] }
le ctions
ĠHen ry
M R
Ġgiv ing
T S
Ġ ener
Ġeconom ic
Ġk ernel
ad y
Ġfeature d
Ġdem and
ĠAngel es
r c
ĠIn c
ĠFor ce
"> <
Ġeffic iency
&= &
ĠFurther more
n s
Ġprov iding
P P
Ġex cit
Ġunderstand ing
ĠT ime
197 6
Ġc ov
ĠM ax
Ġd igital
Ġnuc le
197 8
( (
Ġtherm al
fl oor
os c
E nd
Ġp rice
N S
ĠPro gram
act ive
Ġgo als
ĠO h
Ġcomplex ity
Ġocc urs
ĠB oard
cont in
v est
ĠB i
S ch
] {\
ĠI II
ĠMex ico
ĠArt s
Ġlo op
ĠIt aly
it ivity
or ation
Ġtra ject
ĠV er
Ġg ap
Ġax is
ĠL in
Ġconsid ering
Ġcalcul ations
Ġfunction al
Ġpart ition
Ġwe eks
Ġext rem
Ġindic ate
Ġm is
or al
sh ire
^* $
id ae
az z
cret ary
ĠC ast
h ouse
Ġem p
Ġst rict
pos es
wh ile
olog ies
197 2
esc ription
Ġtest ing
ĠS wed
h ab
Ġp ow
Ġaltern ative
Ġ[ \
P er
R eg
Ġpart ial
Ġdev ice
aw a
Ġm essage
ach ing
" ;
F inally
b t
m en
ĠS il
Ġbound s
ĠE v
Ġf if
] $.
Ġf ine
ĠB ig
st ream
pe ople
a per
// //
Ġse ctor
197 7
Ġfund amental
G C
Ġp oor
ĠE ducation
Ġeval uation
T able
Ġde composition
g reg
ĠC am
y an
c ript
197 4
Ġte acher
Ġdr ug
Ġref lect
197 5
s uch
ang er
ou ra
Ġa ircraft
r or
O ther
al ysis
Ġh ole
ĠS ol
ru pt
Ġsum mer
su pp
g rad
Ġst op
Ġdimens ions
ian a
ĠU k
Ġrefer red
ĠL ife
om etric
Ġsc ored
ic ated
Ġphen omen
Ġaward ed
Val ue
j o
Ġth ing
| }
\ )
ĠE mp
Ġexpon ential
Ġrob ust
Ġmass ive
or a
Ġuncertaint y
Ġcommunic ation
Ġhe at
ĠF estival
at ically
Ġmat ches
Ġmeet ing
- $
}\ ,\
Ġappear ance
ĠO per
Ġcalc ulation
~~ ~~
] ;
Ġc op
av en
Ġgu aran
Ġex change
ĠL ag
Ġflu ct
: =
Ñ Ģ
Ġden oted
it iz
ire ct
com ing
a o
Ġclust ers
u an
Ġfav or
Ġsp ent
Ġres ol
Ġcon vex
av el
d frac
y es
Ġopen ing
Ġwe ights
g ies
M ed
ian o
Ġestim ation
}} _{\
ĠEng ine
Ġg r
Ġrot ation
Ġde ad
S pec
Ġscal es
Ġac adem
ell ig
\ }$.
as ion
Ġass ert
I F
en ess
Ġquick ly
Ġdist ingu
Ġcom mercial
c f
or age
ov iet
al i
ic an
ĠPl ay
Ġre v
ĠO l
] $,
ĠB ank
ĠN etwork
j oy
Ġbroad cast
c d
Ġbene f
Ġinit ially
Ġcommun ities
ĠH el
Ġcent re
Ġro ot
I A
Ġdoes n
Ġphys ics
u a
ĠU sing
Ġscen ario
on ical
ĠT our
i ro
Ġwin ning
$ &
Ġimplement ation
j e
Ġle mma
ĠJ ac
ĠT er
ro ph
Ġqu arter
Ġshow ing
d es
Ġpro ceed
math op
il ed
1 000
Ġt rib
T R
Ġtechn ique
Ġl ies
Ġdis crete
$ :
ĠR el
ĠE arth
ĠM r
emb le
Ġnuc lear
Ġr ise
ib li
Ġsatisf ying
L a
Ġm ission
' re
bra ce
c s
Ġw orth
ĠC E
ĠT imes
Ä ģ
per ty
, {\
Ġsur vey
Ġtourn ament
it le
p g
Ġm ixed
row s
ĠCarol ina
ma z
ific ations
E qu
ĠU p
tern et
Ġstat istics
Ġ$ {
M ar
t wo
Ġp ix
A ccording
Ġfil ter
Ġpolitic ian
E arly
Ġwant ed
Ġc at
Ġproject s
ve e
un ct
ĠS ocial
Ġinfin ite
Ġne ural
Ġact ual
15 0
Ġdise ase
rr or
Ã³ n
197 3
p age
Ġcoe fficient
i xt
Ġass ign
Ġf oot
Ġsol ve
.. .,
196 8
oc ation
Ġoff ers
s is
ib r
are er
Ġdepend ing
ic ks
Ġpass ed
al gorithm
Ġremov ed
he m
P A
im a
Ġneut r
et al
Ġscal ing
ĠO ld
Ġsing er
o at
sy stem
ck nowled
Ġs pl
ens ion
Ġex c
) )\
S L
ĠB ob
Ġw atch
ĠThe ir
sy ch
Ġmaterial s
ay lor
` `
Ġlim its
stit ution
Ġsu ff
" );
ĠSc ot
Ġl ic
E d
ĠM ur
ind ing
as er
sy l
Ġco ol
if ies
Ġfore st
l ines
ab ase
Ġmulti plic
U sing
C or
Ġp seud
,\ ,\
ĠMart in
Ġdiv ision
N ext
ĠH aw
ar se
w an
Ġch annels
Ġget ting
Ġar rang
Ġturn ed
A b
ĠJ ournal
ĠB oth
C M
Ġang ular
Ġover l
Ġ\ (\
ĠDire ctor
n b
ĠOr der
ma ge
Ġmet al
Ġwhere as
di ag
Ġrepresent ations
Ġin form
r un
Ġdeg rees
ve red
Ġneighbor hood
Ġse c
Ġacc eler
ĠW al
Ġrespons ible
ĠL ine
J ohn
Ġsc ene
ĠB et
| }{
G et
ĠS M
Ġdes pite
O ut
Ġl ives
tikz picture
ang es
197 1
ĠA wards
Ġmod ule
}_{ -
Ġf a
Ġgeom etry
Ġw ood
ĠL ove
}[ \
Ġhtt ps
T ime
ot al
ĠJ o
ĠLe e
ĠJ ul
D uring
ad s
ad ium
ĠP ac
Ġag o
in ner
j a
Ġpro jection
ys et
van ia
Ġre n
und red
Ġfri ends
Ġestablish ments
Ġb asketball
Ġdis s
Ġ( "
Ġdep ict
ĠW ood
l aw
) })
f o
id ers
for ward
ĠM ount
Ġob vious
Ġim ag
u ous
ifferen t
Ġro ugh
ĠT op
at i
ĠAs sum
p ost
ĠB as
Ġsh ared
onal d
Ġprote ct
}} )
e f
big l
og ue
j oint
IN G
ĉĉĉĉ ĉ
Ġo ption
Ġ ion
Ġar ray
ĠY oung
Ġent ropy
rum p
in st
Ġstud io
v art
t w
z er
en ced
Ġvari ation
os h
empt yset
bre ak
Ġwind ow
Ġmov ie
sk y
Ġevalu ate
, $
Ġse a
Ġatt ract
Ġsum mar
Ġr an
Ġpr ison
Ġpart ners
Ġsampl ing
I L
b rid
ĠL ong
ĠBra zil
fin ition
N D
con dition
S ection
p x
ug by
Ġcharacter istic
196 9
Ġscre en
Ġcon j
ĠOff ice
Ġact or
Ġwrit ers
\ ;
Ġb right
R A
cher s
ur t
Ġw all
ĠPro fess
angu ages
Ġlaun ched
he ta
s he
Ġst ories
Ġro ute
Ġst ability
P U
arri age
ĠA rab
res h
b ed
Ġimport ance
ip ality
ent y
Ġupd ate
Ġmanag er
Ġpl ans
h ol
it ors
Ñ ģ
ĠN avy
ch ar
1 20
Ġg ets
he rent
res ults
Ġsub t
$ _{
back ground
H S
Ġus ual
k ins
N otes
Ġparent s
all ery
ĠSte p
ĠD ata
bm atrix
big r
ject ive
Ġcy cl
Ġchem ical
Ġdest roy
P E
Ġst ore
Ġed ition
ĠD ou
og en
p ublic
Ġst ress
ult ural
Ġend ed
v ature
Ġ\ ]
Ġadvan tage
Ġold er
= .
Ġfre edom
Ġser ve
Ġb order
Ġcoordin ate
Ġimpro ved
z z
clus ions
ĠRe view
ĠMod el
Ġrec ords
}} .
ĠSe e
Ġadopt ed
Ġor bit
Ġs al
Ġsufficient ly
Ġequ ilibrium
Ġim plic
Ġcalcul ate
Ġc opy
ĠCh ief
f irst
Ġco ast
Ġcompos ition
Ġres ist
Eng lish
Ġis omorphism
ĠTe am
Ġdimens ional
ĠS T
Ġprinc iple
Ġsh oot
G L
g r
Ġsub group
Ġph il
Ġp ull
ov a
j i
ph ant
Ġn amely
Ġr iver
ĠChampions hips
Ġstat istical
Ġis land
pro cess
Ġapp lying
ce an
Ġn ation
ĠPe ople
ner gy
ri ed
par agraph
Ġopt ions
us band
Ġwh om
Ġnumer ous
196 7
u i
Ġcou ple
ĠH ot
Ġpredict ed
pt o
Ġgen us
Ġ ^{
in du
ĠC re
O M
tr ue
ipp ed
B ar
p ace
ĠJose ph
ograph ic
Ġinterest ed
ans as
A ut
Ġobject ive
it an
Ġsay ing
ĠH on
l anguage
Ġmot iv
Ġor dered
ĠC arl
d y
Ġd ust
Ġtre nd
Ġfind ing
Ġ ice
g ar
ĠSe c
Ġconduct ed
a ver
Ġrece ive
e ff
Ġann ual
Ġmod ified
y stem
Ġ ]
S D
Ġt al
\ |\
Ġloc ally
Ġsaf ety
so ft
Ġel im
Ġco vered
b al
h as
b as
Ġinteg ration
long rightarrow
Ġ ign
Ġinter section
column width
ĠApp endix
ak a
Ġf ederal
cl aim
Ġact ress
Ġexplain ed
dis c
syl vania
fe fe
Ġbecom ing
Ġb attle
in et
t em
Ġent ry
Res ults
Ġcele br
ĠL iber
rick et
194 0
Ġch ief
P I
Ġrem ark
Ġwork ers
pos s
Ġdev ices
In ter
ĠS k
Ġsur pr
b ottom
orn ing
ĠR am
ĠB al
Ġin verse
ĠPar liament
ĠJ im
u um
P re
Ġpie ce
ĠVal ley
m iss
ĠI rish
ĠS et
Ġcomp osed
}) }
multi row
ĠF re
st ract
act er
h aps
och astic
ĠG re
if ts
Ġc m
Ġm aster
Ġmus ical
Ġm apping
Ġqu e
T rans
ĠL ibrary
h ar
Ġse asons
m ond
ash ion
Ġ eth
pect ive
il ing
Ġf erm
ĠC ross
194 5
ĠG ood
Ġplan et
Ġrad iation
t an
ult ane
Ġnot hing
ĠN orthern
$ {\
tain ed
ran k
Ġsy m
Ġen joy
T est
cur rent
ic ine
vert ed
][ ]{
p o
ĠPl an
Ġis ol
ĠCol umb
S er
sl ant
Ġn orthern
Ġsuggest s
Ġs outhern
ph as
Ġvoc als
Ġver tical
Ġpre p
ard en
Ġfail ed
196 4
Ġcon sequence
Ġinde ed
Ġeff orts
f ram
i as
Ġ/ **
not es
ĠW ales
Ġco inc
Ġk ing
Ġle aving
19 30
id el
Ġent er
al gebra
ĠE lect
Ġembedd ing
vart heta
form s
Ġo il
Ð¾ Ð
Ġfor ced
A m
Ġcon v
Ġadd ing
ĠĠĠĠĠĠĠĠ ĠĠĠĠĠĠ
D S
Ġsuggest ed
B uild
Ġev ol
pl ate
ĠSp ain
ĠC y
Ġdetect ed
Ġed itor
m osp
ĠT im
stand ing
}} }\
as y
Ġgrav it
D M
ĠS u
sequ ent
ĠS und
Ġcom pl
Ġdes ired
ound s
Ġra re
L emma
h ost
i ota
Ġunder lying
Ġlum inos
O f
figure s
; "
d ing
Ġal one
R S
on ly
f ont
Ġcl in
Ġassum ptions
er c
}) =
Ġprop ose
st able
Ġmax imal
medi ate
Ġb os
ĠB usiness
Ġbe aut
ibli ography
ad ed
t iny
Ġext end
os is
ĠJ un
Ġcomput ational
Ġh ar
pt y
Ġact s
f il
Ġreport s
196 5
R el
ĠS pr
l t
Ġcle an
Ġh ope
empor ary
Å į
it ative
ĠDe velopment
Ġord ers
Ġor g
il bert
ĠT est
ĠJ ud
) }_
br as
Ġconfir med
Ġwid ely
ĠG overn
ost on
Ġto ol
Ġinc ome
i em
p ack
Ġsen ior
at ers
ĠL o
Ġprocess ing
Ġbi as
Ġle aves
AT E
Ġinvestig ate
Ġtre es
Ġnon linear
h ang
ve ctor
ro om
ĠR et
b ot
ĠHistor ic
amet ers
Ġinit i
ĠW ind
Pro of
Ġcon ven
s en
Ġsol ar
\ }$,
ens ities
Ġdiag onal
Ġto ols
Ġallow ing
Ġpredict ions
pro duct
Ġb in
il ation
}$ }
Ġwe b
ĠS oviet
Ġbl ood
ature s
Ġatt ended
in ations
amp ion
ĠS pe
+ +
R ep
Ġdescrib es
i y
ĠSt ring
am m
Ä ĩ
Ġdynam ic
Ġgrow ing
Ġp icture
Ġass igned
Ġra ised
Ġaccur ate
Ob ject
Ġdel iver
script size
r ative
Ex ception
}} ^{\
Ġv oice
ĠM em
;\ ;\
lement ary
Ġtry ing
ĠAss embly
Ġ\ &
B ack
un ing
Ġf irm
Ġloc ations
ĠP ak
Com m
ĠProv ince
Ġnew sp
ĠA v
su ed
us al
Ġsu itable
s at
Ġtechn ical
Ġansw er
cis ely
Ġs ociety
Ġprodu cer
un ch
Ġdel ay
igh ter
ĠInd eed
Ġrail way
Ġv ote
int eg
Ġreveal ed
Ġdisc overed
let s
Ġclaim ed
Ġhistor ical
Ġfore ign
Ġcomput ing
ynam ic
K ey
ĠE conom
196 6
ĠUS A
x x
E L
Ġl ived
Ġderiv ative
Ġ$ .
ĠPenn sylvania
Ġatta cks
Ġen h
ĠJ ones
Ġmod ul
A rt
ĠEmp ire
Ġt end
Ġdiv ided
ĠF ield
Ġdr ive
go ing
pect ed
Ġspe ak
ĠPro ject
Ġtra ffic
Ġband s
ĠF ort
Ġcomm ission
19 20
ĠG reek
fin ed
w ord
Ġoffic er
Ġtest s
ge bras
Ġres erv
ĠM en
arri er
ĠY our
Ġser ious
Ġn ine
is ters
Ġhelp ed
Ġre asons
Ġtrac ks
ĠF red
ĠB attle
f old
Ġ }{
O C
Ġt ail
^{ *
ĠI ran
t rack
Ġh usband
Ġn arrow
m itted
in it
Ġter rit
Ġtr ivial
S F
Ġab und
)-- (
ĠTechn ology
& =\
script style
a fter
O P
ĠM ov
st ructure
con nect
y er
Ġcandid ates
Ġar rest
ĠE r
Ġapp arent
Ġdepart ment
Ġasympt otic
ĠCent re
Ġener gies
Ġeff ort
ĠAs ia
Ã §
ig ation
Ġ ^
ir us
P art
Ġag ents
Ġcost s
up s
B ox
erson al
Ġbl ocks
ĠCon ference
Ġcapt ure
er ior
p ed
Ġform at
Ġt ru
ut y
Ġmark ed
Ġb us
Ġorgan izations
Ġro ll
ĠMich igan
Ġlearn ed
ĠH or
ult y
Ġsequ ences
Ġcont rad
Ġdis pers
Ġmed ium
ĠW ay
Ġthe ories
ĠIsra el
Ġit ems
ĠS ir
ĠE nd
ĠF C
ĠPh ys
ĠT re
Ġof fered
Ġ// /
Ġpattern s
ear s
Ġcount y
V iew
Ġmax im
Ġexpl ore
Ġoper ating
Ġtr ust
ĠG en
text color
Ġtri al
ĠM any
H ence
}) ^
Ġconst ants
Ġinter face
p ass
Ġd iver
C areer
ul er
Ġrequire ments
Ġjo in
Ġown ed
ĠSh ow
te en
Ġm ountain
X i
ont al
ouri er
st ain
Ġconf lic
Ġdef ault
ĠD et
eli hood
ĠH ome
}) ;
c ore
Ġcol lected
\ }\
d em
tr ivial
urb an
Ġder ive
Ġpro min
Ġexplicit ly
Ġcl imate
D B
/ (
Ġmorph ism
Ġpro pos
Ġlabel s
ĠJohn son
u er
ĠS uch
Ġto uch
ĠBe cause
Ġs ides
Ġth r
Ġex ception
ĠRad io
} |\
ib ration
mod ule
[ -
) );
wh ite
: =\
call ed
. ;
D C
ĠR a
Ġh undred
Ġcur vature
^{ (\
Ġpower ful
ĠM ajor
Ġequ ip
Ġgeneral ized
Ġh ospital
Ġphot on
n um
ĠCh ild
ron ic
c ount
ĠPhil ipp
ĠT ri
ond er
not ag
ell er
Ġpart ies
Ġnot ice
re ct
Ġv ariance
b ury
ay a
ep end
T E
T ext
Ġlet ter
Ġc ensus
air man
ang ing
form al
Ġmag azine
os oph
}\ |
Ġmat hemat
v ari
Ġ$ ,
B i
Ġact ing
ĠB ern
S A
ĠS ar
ĠS outhern
de c
agn etic
b uild
est ed
Ġl ab
Ġcom plic
math it
Ġl anguages
Ġcommon ly
Ġsome one
bl ock
Ġimplement ed
b ell
Ġfam ous
de pendent
Ġrese ar
Ġc itiz
Ġbul k
ĠL ord
Ġem phas
Ġreg ist
ĠB a
rop ic
ĠB ow
Ġ ?
ĠAn t
f s
str ong
Ġdefe ated
sub sec
ino is
ĠPac ific
Ġmed ian
el a
ful ly
Ġtr uth
Ġst ruct
Ġp il
Ġemploy ed
Ġqu ark
Ġveh icle
Ġcharg ed
op es
==== ====
Ġa part
Ġc ities
Ġtop ological
-- -
Ġs ched
' m
Re c
w er
anc ing
ĠC amb
il a
Ġent ered
o z
ĠDemoc ratic
Ġnear by
am ing
od ies
j s
Ġdra ma
ĠOh io
ĠB or
Ġ( {\
Ġl ie
ra ine
U N
Ġpol ic
Ġdes cent
act ic
Ġcateg ories
st ep
Fil ms
Ġregard ing
ĠDe c
res ult
Ġinvol ving
} ~
ĠE ll
Ġdr um
ĉĉ Ċ
a a
Ġpre cisely
L A
Ġsatisf ied
ĠC ivil
G iven
196 3
s ign
Ġarm y
o ir
Ġvict ory
Ġsecond ary
Ġresp ond
O D
Ġturn s
pt ic
ĠS om
ĠJer sey
Ġrad ial
Ġd rop
+ (
ĠT rump
ĠBl ue
ac ent
bur gh
med skip
g ers
ĠG ame
ur ations
ĠB u
Ġsim ultane
Ġabsol ute
Ġaffect ed
par ison
math tt
D es
Ġbehavi our
enn is
Ġsign als
Ġadj ust
Ġprinc ipal
Ġany thing
Ġcan cer
Ġth ous
}} =
Ġm ill
E l
Ġse at
Ġpr ime
Ġrel ax
Mod el
Ġhypothes is
gy pt
Ġsub stant
h l
ĠB ul
Ġint ensity
x ford
Ġgrav ity
Ġtrans mission
Ġevery thing
Ġcan onical
il er
we et
ran ce
}{ *
defin ed
st one
ĠP rem
Ġorgan ized
1 10
Ġw ild
Ġj et
us er
ĠAs ian
Ġcon vent
E xt
ad or
uss ion
196 2
a ug
Ġtrans lation
ĠS and
Ġchall enge
C R
T ra
ĠB ase
ad el
ĠSt and
set s
et ts
ĠT em
Ġshe ll
erv ised
Ġdynam ical
Ġto ward
Ġexpl o
ĠM ountain
Ġoper ated
ĠA tt
ĠJew ish
iven ess
m n
im b
fl u
w ater
sl ash
Ġun iversity
ĠS ong
t es
ud get
Ġposs ibility
c ut
Ġapproxim ate
ax is
ĠMc C
Ġth in
Ġf elt
hen s
Ġmix ing
per iment
Ġred shift
op en
f i
Ġvirt ual
Ġperform ing
Ġrelig ious
ust er
ĠReg ister
Ġsim plic
ĠGeorg ia
ĠBrit ain
Ġtemperature s
ĠWilliam s
c ar
ct ic
ĠA cc
Ġman ner
Ġoppos ite
Ġat mosp
Ġst ochastic
Ġke pt
ro sc
Ġquant ities
sum mary
red uc
Ġsing les
ĠR os
et ries
Ġstart s
ĠEn ter
P op
B M
on to
od ay
it ness
T hat
) ^\
Ġquas i
ou pl
Ġb illion
ĠG et
ĠW ell
pend ence
ĠE ven
Ġded icated
Supp ose
Ġn ative
Ġ\ ,\
ĠC ard
ed ge
^* \
p ress
b ase
S m
ĠM ah
Ġfoc used
Ġact ors
A ust
M y
Ġarg uments
E rror
Ġst o
Ġcre ating
Ġele ctions
ĠT aylor
A E
More over
Ġbelie ved
al so
Ġm ess
Ġsu stain
Ġrepresent ing
ĠC r
Ġd ashed
ĠFrancis co
Ġflu id
Ġide as
el d
lo op
Ġrec ording
g eneral
Ġopportun ity
ĠW in
ĠEd ward
ĠSpec ial
ĠM u
ench mark
( -\
iv ate
ĠC M
Ġoffic ers
om etry
ĠH uman
Ġe q
pl ane
and emic
Ġvers ions
Ġout er
A dd
Ġ$\ {\
Ġb ill
rang ian
Ġmatch ing
ir ical
Ġs ales
dition ally
og rap
m et
it age
on ed
ach us
Ġinvestig ation
G u
ĠV an
ab eth
od d
\! \
Ġhand s
194 4
ĠL em
ĠK ent
Ġcult ural
g est
Ġsh ock
in ity
( ).
! \
b et
196 1
R ight
Ġtr ig
ĠDe v
Ġinc ident
ol es
ĠR ay
C he
Ġn et
Ġcontin ues
N ational
Ġprim arily
H C
ĠQue en
ĠB oston
ĠWil son
Ġb ridge
Al though
ĠW ater
Ġv acc
() );
ĠC ro
Ġart icles
bold math
d el
\% $
Ġdr iving
Ġsub sequently
Ġl ibrary
G N
Ġlaw s
Ġdetect or
Ġsub sequent
O L
Ġfig ures
in ate
ĠJ oe
ĠHig gs
od ed
Ġs ister
ĠM iddle
ĠÂ £
Ġl abor
Ġacqu ired
Ġf ans
og onal
clus ive
ur ies
Ġserv ing
n n
25 0
ĠCh arl
at uring
II I
ent h
ĠRep resent
Ġcam era
ĠPol ice
D isc
ĠS i
Ġres ource
Ġprogram ming
Ġr ational
or i
A F
Ġt urb
In st
z en
ĠScot land
s pe
og s
Ġre produ
ĠAn other
h igh
Ġb ass
qu ar
u ce
ĠG i
Ġf le
ĠV i
Ġclaim s
Ġequival ence
ĠIll inois
Ġw estern
% )
ĠSc iences
Ġp le
in als
fin ite
Ġw aves
ĠL ab
Ġident ical
Ġ! =
achus etts
ig ration
h fill
ird s
Ġsw itch
Ġpref er
Ġde ploy
Ġs ort
pl ot
Ġre ct
d iff
Ġsom ew
on ia
ob s
abl ed
F l
Ġindic ated
Ġre action
f ort
Ġres idents
S ome
Ġdemonstr ate
ver b
ĠR h
Ġd ial
ĠP ower
Ġhtt p
Ġ ,\
Ġpl us
ĠG iven
Ġown ers
m ethod
Ġluminos ity
Ġinter act
Ġdis app
Ġag greg
se cond
! ]
ĠMed ia
Ġreturn s
ellig ence
. \\
Ġg un
D R
ic ed
por ation
Ġcre ation
Ġlaun ch
Ġinteg rated
ĠL im
Ġden se
Ġrecogn ition
Ġdeterm in
Ġland s
ĠSen ate
Ġb ond
par ameter
P ost
ymm etric
T T
ĠCo ast
ari os
form ance
Ġs izes
Ġevalu ated
ĠPol and
Ġal le
equ ations
Ġconsist ing
Ġsp irit
Ġcharacter istics
Ġspec ified
ĠA st
ĠI N
ĠW all
is er
atur day
h ire
n am
t ed
Ġthan k
Ġanaly z
A p
ap se
Ġdisc rim
Ġreg ional
s che
iss on
eng er
ĠM id
Ġrem ove
Ġpen al
ĠB ell
ĠS oc
Ġch art
Ġsu c
ject ed
es ian
Ġlat est
ing ly
cal e
Ġposs ibly
Ġgener ic
=" +
ĠK h
ĠCommun ity
Ġassum ing
ole an
Ġsett ings
Ġpl anning
ob ject
c at
Ġmanag ed
ĠB ol
ĠIs lam
Ġr ig
ab y
Ġspec ifically
ist ent
ĠM ot
ĠD utch
IN E
am i
| ^{
Ġcol on
A ct
Ġb ra
195 8
R equ
ĠA R
Ġchang ing
L i
Ġlarg ely
ĠK ong
con f
i ate
" :
Ġpa id
a ul
Ġspe ech
Ġf rag
Ġrepresent ative
Ġcover age
C al
The y
h ard
Ġeigen values
ĠE u
reg ular
Ġc ouncil
Ġsupp ly
ou the
ĠSt an
Ã ¢
ĠF ace
ve ct
Ġpath s
ĠIn formation
ri end
sy mm
Ġelectron ic
du le
Ġb att
Ġrepe ated
ĠH al
ion e
ier arch
Ġit em
u v
ĠB ang
Ġsh ips
w ing
A V
195 9
Ġs quad
*} [
Ġb undle
Ġd aily
ig er
ang ed
e le
n av
Ġd oc
Ġcapt ured
ĠW ild
p ic
ĠF ollowing
Ġsuc ceed
ĠM as
ĠPr ince
F ield
ur ity
Ġperturb ation
ĠPort ug
cor ollary
Ġfl ight
D o
Ġassoci ation
Ġequip ment
Ġin nov
che ster
F R
Ġint ended
uck y
Ġfor t
ĠR ou
ph ia
Ġcoupl ed
Ġdi agn
195 6
ru it
cl ine
Ġtw ice
Ġlow est
ĠN ight
Ġpl as
Ġmagn et
ĠCol l
Ġis sued
Ġk in
ĠGovern or
Ġequ ality
ĠD own
Ġan om
ĠE st
194 2
. </
ĠF ar
B rit
Ġstr ugg
V D
Ġcomp at
L C
ĠGo ogle
Ġse cret
ĠJ r
Ġadminist ration
ĠE xt
am ber
re ll
tt y
e lect
n ol
ain s
ĠGe V
ĠB uild
194 8
om er
l s
S ec
ist ed
Ġveh icles
Ġcry st
Ġcomm ut
Ġunivers al
Ġfluct uations
op ed
Ġd ig
Ġl ens
itz er
ro g
ul se
6 00
Ġv on
ĠK en
am in
if ul
Ġdam age
> \
R em
Ġgravit ational
Ġdecre ase
Ġc ert
Ġfl oor
Ġfail ure
ĠJ es
the re
ĠE astern
Ġextrem ely
Ġcorre ctions
Ã ±
Ġme as
Ġconf idence
v s
Ġwe ap
at on
ĠE gypt
Col or
$. }
ian g
over s
Ġcre w
ĠServ ices
os es
phant om
ĠRail way
Ġcom edy
pl an
Ġfac ilities
ins on
S erv
195 7
neg ative
195 2
B B
ĠThe atre
ĠI R
text up
im age
ateg ory
Ġquant ity
id en
Ġdepend ent
Ġfind s
t own
Un ited
ĠMass achusetts
Ġcon ference
ĠSupp ose
Ġperiod ic
Ġtra ce
ĠHe ad
ta il
D ist
l ife
s es
Ġevery one
is ot
Ġmult ip
Ġpolitic ians
Ġend s
ap es
T wo
Ġar c
Ġl iqu
Ġaspect s
ĠAnd rew
ĠW is
C ur
( ))
fin al
b p
Ġh idden
Ġm obile
T C
Ġm useum
ĠB ir
ĠU r
Ġqu ery
M on
ii i
ĠJe ff
ĠP op
Ġclos ely
ĠSe a
rit ical
Ġn or
ĠB C
Ġnot ion
ĠD isc
Ġchalleng es
) (\
Ġrecomm end
Ġm es
ut en
W ill
Ġf ellow
Ġstrateg ies
ĠKore a
app ed
Ġreview s
ĠK a
ma ke
ĠRepublic an
foot notes
ĠF our
un it
Ġp p
ur g
ĠJack son
Ġsp ac
Ġinter ior
il ly
ĠC at
ic ular
com es
G l
ul f
Ġimpro vement
s em
Ġc ars
im ately
ĠF ederal
ig r
Ġinter mediate
Ġvac uum
reduc ible
l arge
an ta
ĠBro ad
Ġp ages
at as
Ġj ump
Ġw rong
est ic
ch ron
Ġeffect ively
olog ist
nb sp
con fig
Ġpolar ization
Ġh ab
p he
Ġfeed back
rid ay
19 39
the less
e ffect
)} (\
Ġb urn
footnotes ize
rop ical
194 3
Ch ar
Ġst orage
Ġpolic ies
Ġret ired
Ġfl av
Ġp ool
Ġyou th
Ġph ases
\| _
Ġintrodu ction
ĠL ight
Ġex clud
Ġinterpret ation
Ġredu ces
' ve
W ork
ĠBro ok
Ġcon clusion
Ġuniform ly
at iv
ĠWe ek
ĠO xford
ĠP en
ject ure
Ġengine ering
Ġcontroll ed
Ġmole cular
ĠS ports
u ated
ĠH ospital
ok en
A tt
Re f
ĠP ubl
E vent
Ġtri ed
T op
Ġvers us
G eneral
ad ow
Ġepis odes
As sum
Ġp andemic
Ġprofess or
Ġexec utive
Ġd raft
Ġs le
Ġch ance
Ġsp ort
ĠF er
Ġfl ag
Ġent ries
im its
per ties
ak i
Ġessential ly
Ġsurround ing
Ġfif th
Ġsupp ose
^* (
un a
if er
Ġnecess arily
Ġcom ments
ĠP oint
Ġenvironment al
Ġprof iles
Ġscient ific
r ins
Ġfootball er
Ġhigh light
Ġsp ot
ĠDan iel
Ġop in
ĠLat in
c i
ĠE nergy
Ġview s
Ġsuccessful ly
rast ructure
( {
Ġdou b
Ġis ot
Ġtre ated
Ġcorre ction
Ġw avel
ĠSund ay
Ġwin ner
194 6
Ġacadem ic
Ġdire ctions
L ine
S ports
Ġc old
Ġaccept ed
Cons ider
point s
Ġcharg es
ĠMin istry
Å ¡
Ġhe av
ps on
195 5
{ |
ĠTh ree
Ġgeom etric
Ġvict im
dition al
Ġdemonstr ated
Ġd x
atur ally
Ġag ree
Ġgener ating
Ġproport ional
ĠSe cretary
Ġco ok
ĠA M
iz abeth
Ġexpress ions
ro b
Ġconc ert
Ġadvan ced
ĠL ittle
ĠMan agement
form ed
l ik
ĠStud ies
ĠU N
}{ {\
194 1
em an
ĠK ar
Ġcorn er
ĠG irl
ĠCol or
ect or
var rho
Ġcon sec
Ġin fer
Ġcall s
Ġperson nel
eng ths
a us
v ements
Ġbu y
Ġad vert
Ġtri ang
' _{
Ġpur poses
Ġre ferences
ĠJ on
ide os
ĠColumb ia
{ (\
d f
rop ol
Ġenh ance
ĠJust ice
ĠSt ation
Ġatt end
Ġpre par
circ le
Ġclub s
ĠH ung
ers ion
"> </
ĠIn f
}$ \
P L
F ile
def ine
8 00
es ter
Ġown er
v als
op her
A c
Ġp sych
oth ing
Ġenc oura
Ġexpl an
Ġmetric s
on ym
ĠA ff
b ro
G a
ĠOr gan
Ġst ack
@ {
ĠAlex ander
f ound
ĠM icro
Ġbegin s
L o
are st
Ġneutr ino
s a
ĠH ong
ĠN a
Ġext ends
Ġabs ence
av ed
Ġiter ation
T H
Ġnormal ized
text normal
Ġneut ral
Ġconfig urations
Ġearn ed
Ġsup ers
Ġfrequ encies
Ġpow ers
Ġem pty
G roup
Ġsepar ation
Ġpl ants
ĠG ar
in stein
| $
Ġarr ived
Ġcon volution
Ġvari ations
Ġf ashion
Ġsat ell
Ġbas eline
ĠSt at
Ġtransfer red
Ġpe ace
Ġpract ical
Ġr ich
~ (\
Ġmot or
D em
ne ver
rel ation
Ġm ac
Ġhous es
ĠV is
ĠF und
Ġm arriage
ĠM ike
ĠC reek
194 7
Ġvis ible
Ġbe at
M in
st art
Ġdomin ant
Ġinsp ired
Ġp apers
ĠAl gorithm
ĠL ater
Ġ era
Ġofficial s
Ġst ock
Ġchampions hip
ad i
ath an
an ced
ĠWe b
Ġparticip ants
d ate
ens or
Ġ Î
Ġbene fit
Ġmon itor
Ġprec ision
C ount
ĠCom put
195 3
ĠA sh
ord an
ĠT ype
Ġdeg ener
ĠF ourier
ĠCons erv
Y ear
D is
Ġ\ |\
Ġbro ken
Ġex cell
Ġleaders hip
Ġad vers
Ġst reet
ĠDes ign
Ġde viation
Ġrough ly
Ġflow s
Ġp et
Ġex pos
ograp her
st ood
qu ot
Ġpass ing
Ġse vere
Ġrest aur
Ġsens itive
Ġz one
t z
Ġscen arios
au x
195 4
y o
Ġalong side
Ġanc ient
Ġpromin ent
oc ated
og ether
Ġl ov
Ġinst ant
Ġinteg r
M ethod
Ġn one
Ġst re
w ave
it ical
) }.
ĠF ree
H L
Ġre ality
12 8
fl oat
ĠP M
Ġdevelop ing
ris is
Ġtri ple
Ġexpand ed
( [
Ġa wards
rim inal
S um
o is
Ind ex
Ġdra wn
ost er
Ġtempor al
Ġm orning
w orld
M ap
ĠPol ish
Ġat oms
ĠM ult
18 0
$ ^
G M
ER T
Ġreconst ruction
qu ant
ĠF il
$\ \
Ġcomm it
Ġprote ction
el ess
D r
' .
Ġemploy ees
R R
Ġcover ing
on ents
un te
Ġsol ving
og ram
ĠAn ton
Ġcustom ers
enn es
low er
ĠV ill
G o
back slash
C ar
Ġhy brid
ĠMon te
ig a
n i
Ġca uses
Ġcirc um
ru ctions
Ġsens itivity
Ġb ran
ĠD M
om ent
Ġpl anned
Ġd ensities
g reen
$\ ,
Ġserv es
Ġsex ual
Ġalgebra ic
ĠN C
ĠM ethod
ar ithm
Ġadj acent
ĠScott ish
H T
Ġquad ratic
ĠJe an
Ġf er
p es
per t
Ġsum mary
Ġexper t
( ),
Ġmom ents
P M
t ario
ĠBer lin
Ġmodel ing
ĠProfess or
Ġoccur red
os a
Ġbenef its
n umber
194 9
Ġfund ing
ul pt
ma g
] )
Ġuncertaint ies
Ġform ulation
ch or
ant ry
ĠK im
Ġm iles
d ens
M embers
bin om
Ġ _{\
ot ype
ar ity
Ġconj ug
Ġexp at
Ġconstit u
Ġth row
left arrow
Ġabsor ption
Ġro les
Ġf ib
ĠS aturday
Ġf aster
e z
as te
Ġtell s
Ġprote cted
Ġh ockey
Ġc row
l ers
Ġeconom y
Ġb oy
n ames
] ^
ap ed
P D
Ġc atal
ĠB oy
Ġrestrict ed
Ġsa fe
Ġse ed
L T
Ġsur faces
ĠMed ical
et ies
ĠB BC
ĠJac ob
ĠInd ust
down arrow
stack rel
ent ed
Brit ish
ĠB ack
A g
st atic
ĠL ore
Ġ Å
ĠE very
Ġsc ores
her ical
ict ures
Ġme ant
in ction
ĠPl aces
C ref
M ay
' :
ill ing
th ur
ĠAr gent
Ġport ion
- (
Ġform ul
cl ip
g al
a ud
10 1
Ġp ush
se p
Ġdiff usion
Ġnew ly
Ġconcent ration
mod els
Ġbal ance
Ġbre aking
adel phia
Ġfe aturing
ĠVictor ia
Ġhom ogeneous
Ġelect rons
N E
Ġeas tern
re r
In fo
Ġbrief ly
Ġread y
Ġcharacter ized
Ġsim ilarly
ze ch
' );
Ġp al
Ġfe et
g ather
Ġread er
Ġinvestig ated
ĠB and
Ġhal o
ĠC ase
Å Ĥ
s i
Ġdom inated
poss ible
Ġcover s
Ġf itting
Ġas k
Ġlook s
Un iversity
Ġins ert
Ġcar bon
Ġp ra
Ġf lex
Ġh ierarch
Ġset up
M at
Ġsk y
Ġs end
Ġcru cial
195 1
Ġnot es
Ġcontinu um
Ġstraight forward
} /\
Ġtop ology
ĠBel g
mid rule
t or
ĠF amily
s quare
F ollowing
Ġhoriz ontal
' ll
Ġadv ance
}. }
ĠV iet
Ġextens ive
ĠF air
Ġ },
it o
re hens
Ġcontrol s
Ġacc ret
rap y
ĠU s
u ing
Ġupd ated
ĠK enn
w atch
Ġdecre ases
Ġillust rated
Ġweight ed
Ġe yes
W orld
ĠEngine ering
ĠRe v
Ġex cess
d ney
Ġmunic ipality
ĠC as
ĠUk raine
eder ation
form ing
Ġanim als
m i
Ġsepar ated
P ath
Ġinstit utions
: #
ĠMark et
ĠCh ris
$ ^{
Ġis n
ce il
Ġele v
G A
y les
Ġanaly tic
Ġhe ard
Ġres idual
ĠLag rangian
small skip
Ġind ices
! --
ĠC le
k h
m d
ĠB on
12 5
ĠPr ime
ĠPak istan
ixt ure
Ġpart ner
ĠSup reme
Ġfin ish
Ġt ransp
ĠUn ivers
Ġex ceed
Ġtest ed
Ġcolumn s
ĠMus lim
Ġcitiz ens
Ġtro ops
Ġgl ass
unn el
ol i
H om
Ġ{ $\
Ġagre ed
Ġcirc uit
Ġper haps
Ġprec ise
Ġaud ience
ugh t
An other
Ġhand le
Ġmet all
Ġcontrib ute
=" ../../
Ġpolynomial s
Ġ );
S ing
ĠAd am
Ġv en
ĠDes pite
ĠP ass
ĠN Y
ĠM ain
B I
Ġe arth
ĠCor ps
ĠR un
u on
Ġ/ >
ĠR en
mult line
}^ +
. _
&= &\
st ruct
Ġt ight
con sin
EN T
ynam ics
Ġentire ly
Ġstand s
inv ariant
ĠIs lands
ĠL ear
Ġref ers
Ġsc ript
Ġw arm
Ġser ver
R C
ĠSim ilarly
Ġ ur
ĠS ant
Ġsecond s
ĠW alk
Ġ{ };
es ides
Ġvary ing
Ġb udget
Ġh uge
ĠGu ard
ub ble
Ġderiv atives
. $$
E P
ĠAir port
Ġin clusion
up arrow
ĠA D
com put
& &\
ĠCor ollary
Ġdr iver
Ġlo ad
B O
ĠG ro
n ic
ĠGl obal
Ġcl ient
g ency
Ġreg ression
in er
Ġcop ies
Ġperform ances
Ġorth ogonal
an th
Ġp it
ĠSe curity
ot on
Ġdec ades
Ġhous ing
ĠS D
ĠĠĠĠĠĠĠĠĠĠĠĠĠĠĠĠĠĠĠĠĠĠĠĠĠĠĠĠĠĠĠĠ ĠĠĠĠĠĠĠĠĠĠĠĠĠĠĠĠĠĠĠĠĠĠĠĠĠĠĠĠĠĠĠĠ
ĠĠĠĠĠĠĠĠĠĠĠĠĠĠĠĠ Ġ
ĠMin nes
Ġsum m
Ġhon or
R L
writ er
ĠS C
ĠComm on
fe ction
Ġun iverse
p res
Ġindust rial
Ġpat ient
p resent
ĠAd minist
Ġtrans itions
ob e
ĠA venue
Ġfrequ ently
=\ {
ĠS U
form er
Ġrec over
t itle
Ġappear ances
um es
}) ^{
Ġh our
rom e
Ġbase ball
Ġp erman
Ġprodu ces
cy cl
ĠL ew
Ġinvol ves
p ool
ĠOn ly
Ġal t
Ġcol our
_{ +
Ġa thlet
Ġsystem atic
ĠFore st
ĠMinnes ota
let on
Ġdat abase
s ince
text sf
Ġclos er
Ġexpect ation
Ġsche mes
ĠM aster
Ġprote in
Ġ\ {\
$- $
h ou
ĠD C
Ġir reducible
pro pto
he im
ĠOn tario
ĠH ard
Ġprot ocol
Ġp uls
Ġa head
rom agnetic
Ġb or
ĠR od
Ġc odes
Ġrandom ly
Ġ elli
r l
ĠM arg
ĠB rad
ĠC orn
ĠS her
00 1
Ġb rain
Ġfac ility
hed ral
{ .
w orth
our ney
ĠI V
ĠT am
om et
ob serv
Ġpers pective
ĠH o
Ġcon vers
19 36
nol imits
, ...,
ĠTw itter
ĠN on
Ġpres ents
Ġd ram
Ġt ang
Ġ\ [
oun ger
Ġrad i
er ies
eg o
Ġsupport ing
Ġdefin es
l ock
Ġs un
Ġnewsp aper
ĠEl izabeth
ĠB an
p ur
par allel
Ġc ir
Ġf ish
Ġstrict ly
ĠSur vey
erm i
el esc
ĠO F
Ġst ead
rep resent
P O
Ġrecogn ized
Ġperm ut
ak h
Ã¡ n
Ġcr ime
Ġguaran te
Ġs oc
ĠReg ion
ĠKore an
ow a
val id
ĠF riday
N ode
Ġdef ense
Ġdist ances
Ġillust r
Ġg rew
ĠD er
leq slant
ĠSt r
Ġrespect ive
Ġresult ed
$ '
Ġb omb
ĠCon f
ric s
ĠOffic ial
Ġprov ince
ĠS us
k ern
Ġen em
st ic
Ġp ip
Ġrestrict ion
Ġfil es
is or
ĠR aj
Ġorb ital
Ġsub space
Ġarm s
Ġens emble
ĠPe ak
Ġdispers ion
ĠN ether
ĠR ome
ĠCl ark
ĠA T
Ġsk ills
Ġsil ver
Ġs ave
Ġext ent
Ġsimultane ously
Ġsub s
Ġinvest ment
ĠRe al
Ġpie ces
ymm etry
ĠR og
ĠS N
Ġs ession
ĠTor onto
out s
c oh
it i
Ġd ie
Ġprom oted
Ġmur der
Ġmanufact ure
Pro position
ĠO s
ort he
Ġf uel
w art
iem ann
ĠL og
l ay
ĠĠĠĠĠĠĠĠĠĠĠĠĠĠĠĠ ĠĠĠĠĠĠĠĠĠĠĠ
ĠN ext
Ġtraject ory
Ġsold iers
ĠE p
L og
Ġdomain s
ĠD ue
includ ing
ĠG er
Ġ urban
D on
ĠM C
Ġl iber
Ġd ance
Ġinst ances
ã ģ
or gan
ph ase
ĠT y
Ġag ric
Ġcho ices
p red
Ġm ask
ĠCor poration
Ġsupp l
| _
r ide
el ly
}[ !
u ction
F I
e rence
ĠL uc
Ġco al
Ġassist ant
19 18
\ }.
se x
ĠAg ain
Ġdiagram s
w rite
Ġsim ulated
ĠPro du
R I
Ġg ate
Ge V
Ġsp ring
ren cy
ĠM L
Ġ iron
19 38
Ġpolit ics
Ġs ell
com b
p op
f a
g t
M usic
ĠT ok
ĠOlymp ic
ĠG ener
ord ers
Ġcons ult
v o
Ġb enchmark
\ }_{
âĢĿ .
Aust ral
ĠBe ach
Ġfa ith
d ensity
ĠL abor
z o
Ġbound aries
Ġposs ess
Ġf ra
ĠD un
) _{\
ĠH un
ag a
Ġunder stood
ĠAn th
Ġanal ys
Ġe ye
Ġnot able
ch ain
R B
Ġrec ip
R ed
ab ove
Ġpan els
cknowled g
ipl es
ĠPri ze
ĠV en
Ġn aturally
}} ,\
Ġinj ury
d ash
ĠA ud
ĠP C
Ġcol le
Ġf resh
Ġbusiness es
Ġc atch
Ġres ident
F M
ow ski
rib ed
Ġconcern s
}{* }{
Ġany one
R et
T rack
ph one
Ġr ural
n m
lic ation
ĠN ever
Ġv ideos
Ġconserv ation
Ġconne ctions
Ġdoc uments
Ĥ ¬
Ġcompet ed
E X
ĠS at
Ġsimilar ity
Ã £
c lear
or ney
Ġstrong er
S outh
ĠM ond
re nd
Ġanaly ze
N ov
ĠChrist mas
ĠC irc
D i
ann a
Ġs ail
Ġphot o
Ġhapp en
ativ istic
th ick
Ġc ricket
w eg
c are
ers et
Ġgener ator
M ax
ask a
Ġthan ks
) }$.
ĠK ir
ĠEqu ation
Ġst ages
osoph y
Ġcorrel ations
Ġident ification
_{ [
Big g
Ġliqu id
Ġw ing
ink ing
U E
Ġan not
ap i
per or
ĠL ive
k ers
han ced
ul ating
Ä ±
uten ant
N on
Ġdr iven
Ġsomew hat
ĠD ar
P o
Ġhapp ens
ĠN ations
Ġreason able
Ġmin ister
ors hip
B est
ig inal
id al
ĠI D
Ġlik elihood
j ust
ĠFace book
Ġattempt s
Ġconvent ional
rins ic
Ġwin ners
Ġv ision
Ġver ify
y ard
Ġca ref
ĠR om
Ġep och
Ġd im
;\ ;
? âĢĿ
ortun ately
ĠTr ust
ta ges
Ġext reme
Ġmov es
ĠF ire
ĠT al
ĠInd epend
H is
ĠSan ta
ĠB ad
Ġun iqu
19 37
ra q
Ġorient ation
Â °
Ġro ots
Ġv ess
Ġsent ence
Ġin ference
}^{ +
ys ical
ĠB ridge
pro v
N O
N C
Ġdefin itions
Ġcoll ision
Ġst abil
ĠL ast
est abl
ĠW rit
Ġa ug
B H
Ġtrans verse
Ġhistor ic
ĠWis consin
S ource
Ġ ~\
Ã© e
pro te
Ġrac es
bour ne
Ġcrit eria
id i
M ult
it udes
ĠS ab
Ġextract ed
ĠM ic
Ġqu ot
ĠSy dney
' ]
f ull
Ġpl ate
Ð »
at he
ĠP y
m f
cont ent
im ages
all ow
as g
Ġhoriz on
arg ets
Ġf ell
Ġpro position
Ġadminist rative
ĠT HE
Ġpublic ation
Ġsymbol s
Ġbelong s
big cup
Ġtit les
Ġw itness
T D
quar ters
Ġneut ron
T A
ĠW ho
Ġpack age
Ġb low
Ġf an
Ġdo or
E nt
m al
ĠNether lands
Ġgain ed
Ġun less
ĠD am
Ġde fect
er ion
sub equations
D av
Se cond
ĠIn ternet
U nder
Ġsp here
ne ction
em et
ĠCamb ridge
ren e
Ġthem e
Ġconflic t
Ġph one
ĠInst ead
pl es
is a
ik a
Ġinput s
) [
Ġpart ially
Ġa p
H O
Ġent ertain
\ [\
Ġ$ ^{
ĠH ay
ĠTh rough
cul es
ĠPhil adelphia
ĠCE O
Ġexec ution
ron ze
ĠAb out
ĠRe volution
Ġn av
d l
ĠEx ec
Ġaff ili
Ġsc ulpt
int on
ur ance
Ġ rom
} >
cl ide
ĠE s
Ġb ow
Ġdestroy ed
Ġoffic ially
it led
isl ative
ĠL ike
Ġapp eal
ĠSt adium
Ġpost erior
ger y
Ġre ward
Ġemp irical
ĠAut hor
Ġt ick
Ġest ate
iam ond
f fered
augh t
iss ions
is en
Ġmechanism s
st at
Ġal gebras
Ġv otes
ap ore
Ġresear chers
Ġte aching
/ *
Ġreconst ruct
Ġaut o
Ġchalleng ing
H and
me asure
ith ub
om ot
pre c
Ġsol o
ĠDav is
Ġcompar able
ĠSte ve
Ġcomm ittee
bel ow
ul ing
ĠL es
ĠAmeric ans
d ire
Ġdef end
rack et
Ġco oper
Ap J
ĠS em
reg on
Ġ- --
ater n
force ment
}) =\
Ġreson ance
) >
ĠC all
\ },
Ġcor por
16 0
Ġb atter
che stra
Ġacc ident
ĠA k
par ameters
ĠW ars
Ġsw im
tain ment
h ave
Con text
\| ^
Ġrelations hips
Ġpriv acy
^+ $
_{ -\
ĠH ilbert
ĠB ru
Ġstandard s
per ial
Ġconsec utive
Ġl aser
igh th
ĠQue ens
ĠRep ort
if act
riz ona
Ġindu ction
inf o
Ġrequire ment
ĠK al
Ġy ellow
Ġc ub
def n
sy m
Ġsol ved
uz z
Ġwe ather
Ġrece iving
19 35
}{ }
Ð º
Ġestim ator
cl osed
clide an
ord on
Ġhost ed
Ġrepl acing
Ġmusic ians
Ġperiod s
Ġimp ly
ĠIn vest
Ġpotential ly
ã ĥ
empt y
C ast
Ġrat ios
ar ia
al ities
emet ery
B ook
k ov
Ġsimplic ity
ĠPr im
L M
int s
Ġclin ical
) }$,
Ġre ar
and y
ĠGold en
ĠB udd
el le
Ġc art
ĠB all
prob lem
act ory
Ġlet ters
=" #
ĠStep hen
ort ion
ĠJ os
comple te
ĠL ady
Ġcross ing
Ġplas ma
] =
B E
ĠU V
H ar
Ġsc ope
Ġphot ons
Ġkeep ing
ĠM P
ĠM ill
ant ly
Ġcollabor ation
Ġw ants
Ġelect ro
Ġhousehold s
Ġte le
ĠC H
Ex p
ĠPol icy
me an
ik i
Ġ\ }
con duct
Ġresist ance
ĠS on
C ase
p y
ĠOn ce
Ġd anger
Ġm eta
Ġbel ief
Ġun able
off s
Ġv ice
Ġes cape
Ġgradu ated
Ġexc ited
P ersonal
L R
ĠT ai
B bb
ell o
se ason
w hen
Ġauthor ities
Ġaccret ion
ret ch
[ '
Ġrob ot
d b
Ġpop ulations
ment ation
Ġat omic
Ġl y
ĠM ach
Ġl osing
Ġsupport s
Ġexpat riate
Requ est
S w
Ġimmedi ate
ĠDu ke
Ġfund s
Ġhel ps
Ġmunic ipal
Ġcont emporary
are t
Ġinter vals
Ġferm ion
Ġd ip
I mage
ast y
I ST
Ġch ampion
ĠG rant
ĠW inter
F S
w t
ĠC NN
Ġindependent ly
Ġadapt ed
et ch
S ystem
ar ial
Ġgu ide
ver age
Ġs ale
Ġin n
ir ty
Ġaccount s
Ġc as
ĠP ers
Ġab and
Ġsett lement
ien ced
Ä į
Ġclass ified
Ġsp ons
ĠS P
tain s
ili ary
ĠAre a
Ġlist ing
Ġdecl ared
U C
Ġret rie
Ġb odies
AS S
ĠB rig
Ġopportun ities
Ġneigh bour
Ġfe as
Ġprodu cing
Ġdro pped
lear ning
j pg
Ġfind ings
Ġdescrib ing
Ġfill ed
Ġrapid ly
Serv ice
Ġcamp us
Ġcompar ing
Ġsm art
g ets
19 00
Ġdiscuss ions
Ġexhib it
Ġult imately
ang a
function s
Ġinf rastructure
y al
ĠĠ čĊ
Ġsl ope
19 19
Ġl ift
" ).
Ġe mail
Ġy ounger
ĠC R
Ġlabel ed
' ;
ag en
Ġtop ic
K e
Ġconver ges
l m
ub b
ass um
ut t
Ġmod ules
Ġisol ated
Ġtransform ations
ĠF ox
Back ground
Ġstation ary
id ge
Ġm ist
Ġstruct ural
S ize
}}\ ,
ly wood
ĠDe finition
h av
ph y
Ġlook ed
19 14
) ).
19 33
Ġpurch ased
ch ild
ĠH art
Ġkn ew
al o
gra de
i Äĩ
ad ers
Ġcy l
ĠPrem ier
Ġcred it
Ġe ar
Ġparticip ated
Ġv ent
| _{\
19 17
Ġst one
Ġm ir
ain ed
Ġautom atically
p ower
be c
r g
ĠC ub
Ġf iction
amb ig
Ġgeneral ization
}} )$
In ternational
Ġcosm ological
Ġce rem
Ġw ish
ĠA maz
v oid
ĠO t
cer ning
ou red
Ġw alls
Ġloss es
Ġpix el
Ġrank ed
k ish
sp in
Ġview ed
ĠBook s
Ġwas n
appro xim
Further more
her ic
s g
ĠN S
al ing
Ġsc oring
Ġfram es
M D
Ġm el
19 10
de v
un es
ac le
Ġwin ter
ck er
Ġdefin ing
U p
Ġfound er
Ġan imal
Ġeigen value
ĠSwed ish
Ġmod er
g ithub
spec ial
Ã ¸
Ġopp osed
Ġviol ence
ist ence
Ġcol ors
12 3
qu es
Ã£ o
ĠA thlet
Ġaud io
er al
Ġsign ature
ib ilities
Ġcon verted
cur s
M ark
aut hor
def ault
ĠAnd erson
E ach
c ross
cor respond
ur ches
ĠT a
ĠD igital
Ġcomplic ated
19 28
$ }}
H D
Ġk ick
ch a
Ġh air
Ġphys ic
l ov
ĠCons ider
connect ed
Ġch a
ennes see
l oss
viron ments
19 29
Ġlin ked
Ġl es
h ot
Ġy ards
Ġso le
" ),
Ġt ag
Ġhold ing
Ġf iber
Ġcap able
part icle
G r
or b
ĠH and
yp es
Ġhapp ened
Ġen able
Ġhab it
Ġdi ameter
Ġinfl ation
ĠW he
Ġst orm
& $
Ġdec isions
ul ner
Ġch iral
ĠH an
u f
p onse
gra v
ĠSpr ing
ĠAd ditionally
Ġis omorphic
Ġcondition al
Ġdistingu ish
19 34
Ġsec ure
Ġstudy ing
Ġin hab
Ġfac ulty
Ġdefe at
Ġh ist
Re call
h r
Ġbig gest
Ġw el
ĠReg iment
oc y
rib e
Ġamplit udes
enn a
l arg
w as
ĠW el
ĠG ree
ĠN AS
Ġp ed
Ġexcell ent
Ġd ream
ĠT ro
* \
st ruction
Ġhe ter
Ġkin etic
ĠMe an
d esc
ĠCount ry
B R
Ġf ul
L ong
M en
Ġn il
w ind
Ġhe ro
m ad
ĠS to
m ode
l ang
ur i
Ġsub section
st s
ak ed
ĠâĢ ¦
ĠMar sh
Ġf its
H er
Ġout come
Ġbo ost
19 32
Ġcompat ible
Ġfac ilit
p mb
M ost
Ġexper iences
Ġread s
Ġinde pendence
b olic
ĠL ow
Ass ociation
now ledge
edd ing
Ġend ing
Ġgirl s
W rit
ra ys
us hed
ĠComm and
O per
ĠSwed en
******** ********
Ġcoupl ings
ot ional
Ġpre tty
p in
Ġw ire
ra it
ĠC L
Ġprem ie
ST ATE
ĠColor ado
cite alt
Ġcont est
ĠIndian a
cre en
res pect
Ġgener ators
ic ial
v dots
w all
is y
iv als
C ode
ĠS ky
Ġfl ood
Ġembedd ed
ĠI raq
M c
d ou
ĠE th
n ight
Ġc ab
19 24
Ġsur ve
int ro
Ġequ ipped
Ġd oll
per iod
! !
Ġw ins
} &\
Ġcon formal
ĠF inal
Ġdecre asing
ĠPr inc
ĠF I
} ~\
Ġher self
m o
Ġgrant ed
Ġt argets
Ġse ats
Ġfem ales
Ġdown load
Ġ-- >
outhe ast
= '
' $.
\, {\
Ġclust ering
Ġsu ffered
ip art
ĠM oh
ĠA bb
G R
C re
Ġpract ices
Ġindic ating
Ġpseud o
Ġterrit ory
C ent
vent h
Ġlog arithm
ĠCon nect
D D
Ġfight ing
Ġp m
Ġjob s
Ġconven ient
[ ]
Ġauthor ity
Ġcan cell
rib ute
ĠK ansas
ator ial
U psilon
Ġinter pol
Ġprob abilities
Ġhe ar
Ġhum ans
g ray
w ill
ĠC ost
angle ment
ag ram
val ued
Ġclass ic
Ġneigh b
Al so
ire ment
ĠJ ordan
ĠEq s
d ashed
ane ous
Ġren amed
Ġcounter part
Ġsign s
ser ies
Pl ay
sh ort
Ġdo ctor
ĠC zech
Ġappear ing
25 6
Ġart s
ĠBe fore
Ġg ender
à ¸
ĠO regon
ĠS che
Ġsmall est
Ġhol es
b lem
l ast
uff er
e ven
Ġ ..
ĠN az
Ġappl ies
se arch
G P
Ġpol l
um ps
Ġsch olar
" |
Ġpass es
Ġb ed
ĠCast le
Ġregard ed
i ated
sequ ences
Ġpre ced
ĠEn vironment
ĠB ishop
Ġs an
ab et
not in
t ically
B L
Con fig
Ġreach ing
Ġappro ved
lic k
ĠM S
Ġterm in
Ġd uration
Ġ( !
Ġstat ements
art ing
u y
ĠB att
Ġ }}
Ġiter ations
ĠPro te
d ifferent
aw n
G erman
Ġprep ared
ĠMiss ouri
L ast
tri ang
igr ants
Ġwe alth
ĠRes ults
ĠF ellow
Ġtown s
ut or
ĠAm ong
Ġrec overy
ĠSt ock
ĠMar ia
Ġtri p
ĠPo isson
Ġc arri
l av
ĠAn y
ĠN et
ĠO cean
Ġm and
. /
Ġf itted
r in
Ġad vent
at ta
ĠL ocal
Ġp ot
con text
v ard
eng ers
Ġredu cing
ĠI d
ort ed
ropol itan
on i
Ġ/ *
l ie
f riend
Ġhom es
ĠT urn
M T
Ġa id
r ust
Ġclos ure
el ian
cy cle
Ġjud ge
Ġpoint ed
Ġfun ctor
Ġcontrad iction
Ġcomp rehens
= -\
ĠG allery
ĠInd ones
Ġp rices
V er
ura ble
Ġexpos ure
erc ise
Ġb ary
mathbb m
ĠTur key
Ġarg ued
Ġc risis
Ġre nd
and ra
//// ////
F rench
le ments
ce ived
ev in
ud den
) |\
ple x
od ge
D escription
ific ial
ĠH ou
Ġbeaut iful
Ġthous ands
G S
Ġh all
ĠD ark
ic ate
m t
w estern
Ġsh aring
H ome
Ġengine er
weg ian
19 22
Ġge odes
Ġcall ing
on om
ĠE U
Ġgu ard
Ġsp herical
al ion
const ra
Ġocc asion
Ġspl itting
Be fore
Ġreturn ing
^* _
ĠH ur
c over
Ġa wa
Ġf old
inde pendent
Ġne ither
Ġdec ays
ĠM ilitary
Ġr ugby
as i
ĠMed al
19 27
act or
Ġac id
ĠR oss
Ġscen es
Ġopin ion
at ivity
m oment
ĠM ember
im ation
Ġnov els
ĠS ign
Ġunit ary
hen tic
um ul
Ġpropag ation
13 0
ri p
Ġvis ited
ĠAtl antic
Ġt ack
Ġcirc ular
Ġcomp ens
ĠF ac
e vent
Ġang les
Ġsubject s
Ġpropos al
ĠLew is
Ġpo et
fram e
Ġp iano
Ġtit led
ru ck
Ġdocument ary
Ġf estival
Ġinstrum ent
Ġch ose
Ã º
ĠL td
spec ific
en ance
Ġarrest ed
Ġdistrict s
ĠN E
cl os
c ard
ĠF ord
ĠA rizona
Ġdisc overy
Ġprom pt
ĠC are
Ġpercent age
S H
st ates
ĠM iller
su it
ĠK itt
Ġpl ots
E m
Ġexper ienced
ĉĉĉĉ ĉĉ
Ġaver aged
t ree
Ġeas ier
Ar ray
we b
. }\
Ġan isot
S up
ed nes
us cript
G en
' }\
Ġt aught
ĠW at
Ġinteg ers
Ġa ux
W omen
d ra
u able
/ **
ĠMed icine
U M
Ġpar ish
Ġoccup ied
ĠMark ov
ĠApp le
ĠJew s
}) _{
Ġreal ized
ism s
Ġtw enty
ex ists
Ġcomplet ion
ĠR ights
ĠS quad
ĠG ib
V ar
sub stack
ĠR iemann
19 31
ens es
It em
ĠF ermi
Ġl ists
ĠA z
Le ft
Ġs ac
Ġdisplay ed
ĠMond ay
ound ed
ĠSing apore
H am
Ġord inary
Ġd iverse
Ġn an
ĠRou te
ĠJ oh
script scriptstyle
ĠCap tain
Ġs and
ĠM un
Ġoper ate
Ġdisc over
ĠC ab
if est
S ong
Ġcon e
re a
ĠSt ory
Ch rist
s d
Ġpl otted
Ġform ally
Ġhot el
j k
Ġm al
Ġturb ul
Ġaff ine
âĢ ĺ
19 25
ĠK er
st an
ĠSh ort
Ġwor st
Ġmark ets
ĠAd d
ĠA h
the w
Ġen vironments
Ġtraject ories
19 21
ĠR ic
Ġre normal
s yn
Ġpeak s
du al
ass ert
}} =\
ĠE P
ĠT ennessee
osc ow
um a
n ull
Ġprogram me
Ġf aces
Ġlo an
Ã© s
il ine
ĠĠĠĠĠĠĠĠ Ċ
iction ary
Ġv ot
ĠA I
ĠDi rac
ed ia
ĠT oday
âĢĿ ,
Ġharm onic
ĠMem orial
P ublic
els on
ak s
ĠD om
aw are
ĠA mb
Ġexpl os
ĠP ier
Ġwhe never
Ġd t
etail s
Ġvari ant
Ġag ency
Ġcon dens
f ast
man ifold
osp it
ra ise
ĠQ CD
at ics
B el
19 12
ã Ĥ
or ous
Ġw rest
Ġin tern
Ġm it
Ġdis cret
D ep
Ġdom estic
Ġneg ot
Ġsh arp
he rence
g i
Ġmarg in
ol is
ĠAl f
Ġca using
P N
Ġa f
Ġprom ote
ĠTown ship
Ġprofess ion
19 26
Ġconcern ed
om atic
H igh
ĠBro ther
Ġperturb ations
' )$
Ġdis pl
Ġne ur
urs day
Ġorb its
Big l
rag on
requ ency
Ġlat ent
ĠK at
ive red
Ġs urn
R ad
ĠH op
ep ing
Ġmathemat ical
ne xt
ĠS av
Right arrow
Ġ$\ |
ex pected
Ġpurch ase
en z
Ġn arr
up le
) &
Ġra ise
ĠM it
ffic ial
bet ween
Ġtra ins
Ġcertain ly
ou stic
Ġatta ched
Ġg ene
\, ,
du ate
)} _{\
ĠAr thur
Ġre form
th rough
i ability
Ġ }{\
Bi ography
im g
ĠS E
col l
ym ph
Ġsepar ately
ly n
l u
S che
dom ain
Ġstead y
Ġto wer
h ow
Ġde vi
ĠR E
1 15
Ġmess ages
' d
B o
ĠD a
Ġdec ade
ĠN FL
Ġhard ware
is ition
ĠP ur
ile y
c u
Ġsp arse
E v
Ġm ob
Ġspe aking
i pe
Ġpaint ing
ĠA p
sc ope
Ġsched uled
Ġcoll isions
ĠSer b
M ain
} <
se lect
ĠSta ff
Ġr anges
ĠMary land
Ġro ut
| =
M F
19 23
Ġsignific ance
ar o
st ances
ĠP itt
ut her
ĠB rand
ĠChild ren
Ġs we
Ġcov ariance
ant asy
Ġelement ary
)= (
Ġgovern or
er g
Ġheav ily
W est
Ġconf irm
Ġdi pl
Ġinter ference
v y
pl us
) |^
Ġd war
B F
f ortunately
Ġm ount
G ener
p et
Ġproject ive
ĠC art
Ġp un
Ġre vers
C all
Ġoppos ition
ĠPhilipp ines
l ayer
ĠC ra
Ġplatform s
ann er
co ordin
ĠMag azine
Ġm ent
as hi
b c
ag ues
Ġpar liament
. },
ore f
Ġan tic
Ġm m
Ġregist ered
Ġat om
Ġn ob
R T
Ġsubset s
f alse
Ġjournal ist
ut il
Ġcoll apse
Ġgreat est
Ġsatell ite
Ġconsum ption
Ġpil ot
P ort
Ġsit uations
Ġsegment ation
Ġc av
ak ers
Ġab stract
sh ips
Ġinterest s
Ġdesign s
ĠI S
ĠT ransport
ok es
Ġman ip
M essage
ock et
Ġdif fer
olog ists
O lymp
r ine
A U
b es
ĠK ey
Ġbu ff
ure au
Ġcompos er
ĠAff airs
ĠComm unic
Ġdesc ript
Ġvalid ation
Ġoff ering
e h
de p
D T
Ġdis joint
ĠK han
Ġcho osing
itzer land
Ġpix els
ul ator
ĠEnter tainment
'' ,
Ġrec ur
Ġm ental
ĠC ru
ĠS ri
Ġpres c
or ient
ĠLe on
Ġrow s
op ing
ill ed
ĠM unic
ĠHigh way
Ġcorrespond ence
lig ible
Ste p
ĠD or
Ġdepict ed
ĠV o
el se
l floor
Ġc ro
ĠOb serv
Ġadapt ation
D I
cre ate
ĠCont rol
Ġaccom pl
Ġspac etime
Will iam
% .
Ġalle ged
P oint
Ġsee ing
Ġb ought
19 16
ĠG h
l an
Ġperform s
ĠN ick
Ġj ourney
Ġconcept s
O ff
u ity
Ġp ulse
ĠFore ign
Ġtechn ologies
oid al
' $,
Ġm ort
r floor
Ġcent ers
Ġrac ing
Ġinstit ution
Ġre new
ĠE ric
enc ing
Ġexplan ation
Ġnormal ization
Ġre in
el ines
Ġstand ing
pd ate
Ġre plic
ĠStand ard
ict ed
ĠT an
Ġthink ing
Ġanalyz ed
Ġd ry
Ġdec or
re v
Ġsu ffic
Ġtri angle
U s
Ġmarg inal
Ġre aches
Ġc oun
Ġshe l
Ġconsider ation
Big r
Ġg iant
Ġs ight
Ġp lease
19 15
P at
ĠF ood
w ich
ĠCol on
Ġabund ance
ues day
ipp ing
Ġsh ares
ednes day
A cknowledg
ip ation
Ġint elligence
ĠH erm
Ġadv oc
Ġout per
)} =
rosc opic
new line
ĠHar ry
fefe fe
ĠH om
Ġsh o
Ġreal istic
igen ous
ov en
ar ma
}\ !
ili ar
Ġ$ [\
Ġne arest
Ġinterpret ed
ma gn
Ġanaly tical
Ġproper ly
ĠOffic er
sup ervised
Ġsk in
ĠD ra
Ġ} ;
b ib
Ġint rinsic
nt z
Ġupd ates
Re v
Ġdeliver y
Ġincreasing ly
Ġim aging
at en
ĠĠĠĠĠĠĠĠĠĠĠĠĠĠĠĠ ĠĠĠĠ
or ters
includ e
Ġbran ches
N orth
ĠNew ton
th ree
" "
Ġvol unte
Ġvan ishes
ub er
V M
Ġcrit erion
Ġg ar
Be cause
writ ten
Ġsem antic
Ġwavel ength
if iers
Ġdesign ated
D ec
Ġen hanced
ĠExec utive
Ġpenal ty
Ġcontrib uted
Ġadm its
Ġcon crete
Ġcomm itted
E uro
ĠAr k
Ġcir cles
ĠM ir
k g
Ġattempt ed
iam i
Ġres c
u j
id ay
ĠA P
> >
ĠCh annel
ivers ary
Can adian
du ctor
Ġdr ivers
ut r
ĠF a
}\ ;
roll er
tri angle
10 5
Ġworld wide
M a
V is
ĠBar on
Ġoff set
Ġw al
ĠN orm
Ġconsist ency
i Ã³n
fe e
ĠS O
Ġro yal
l b
Ġgu est
ĠC atal
ĠM A
ĠMod ern
14 0
Ġmechan ical
Ġcool ing
bound ed
="../../ ../../
Ġar ise
ĠM att
s ort
ĠB h
l en
Ġcount s
Ġsupp osed
& -
ru ption
sup er
cl ose
Ġtr unc
ĠEu clidean
ĠCar lo
fin ished
ch itz
ĠC P
Ġanalog ous
ĠI owa
Ġp od
Ġbur ied
ĠF ederation
cent ral
Ġim possible
Ġd iversity
ĠB rian
Ġ });
pr ise
Ġcomb at
v ia
C a
ĠR ose
in cess
comple x
Ġmon ot
ĠJ ane
is ons
ĠB at
ST M
A ug
ĠD E
Ġdel ivered
Ġc riminal
Ġsche dule
Ġcy cles
ĠEn t
c ers
Ġinstall ed
Ġad ult
Ġweap ons
ĠM oscow
aut oref
Ġk inem
A cc
on omy
Ġaccom mod
Ġmanag ers
Ġsynthe tic
Assum e
J apan
al f
inc ial
}) )
Ġv ocal
Ġv ulner
Ġorder ing
c raft
Ġw onder
Ġhom ot
su ccess
irt ual
Ġtrack ing
tain ing
periment al
Ġcrow d
Ġoutput s
f unc
t b
Ġc od
ĠViet nam
7 00
## ##
Ġguaran tee
Ġperman ent
d oor
Ġch apter
Ġclass ifier
l iving
place ment
A wards
] ^{
d z
Re ad
p erson
v skip
ag an
ĠBuild ing
ut s
Ġs in
Ġ$ $\
d escription
ro it
Ġste el
d am
Ġded uce
ens is
Ġmole cules
r ase
Ġ ĉ
w ick
rac ks
ĠAssum e
Ġcent ered
11 1
Ġconnect ing
ho le
Res ult
Ġamount s
ing ham
sh ow
Ġillust rate
Ġst ores
Ġm ales
Ġconclud ed
Ġut ility
Ġexp ensive
per turb
Ġmaintain ed
Ġse p
Ġeduc ational
) ),
Ġexpon ent
f amily
B ra
@ {}
ĠNor way
ĠR oy
Olymp ic
ĠMex ican
d on
Ġpresent ation
iv ation
ĠC ook
cc c
red it
ĠC ode
m ic
Bl ack
' =
m ers
Cur rent
the ory
t arget
ÃŃ a
ard o
ill ery
Ġg one
Ġrem ember
}. \
ĠAdminist ration
Ġc of
rain ian
go ogle
roll ed
ĠJun ior
P rop
V ol
Ġco herent
Ġd il
ĠA ge
Ġsubstant ial
Ġweak ly
F unction
Ġcl ients
L ife
I O
Ġcon vention
Ġre ly
Ġb an
ĠB ab
iss ue
Ġapplic able
elesc ope
Ġb ars
ol o
Ġe c
m atic
Ġsee k
Ġb rown
Ġ ram
19 13
ear ing
Ġbro ke
ĠSim on
ch annel
T ube
col n
ab ama
d oc
sub float
con v
fra red
Ġ& $
Ġmarket ing
Ġsix th
Ar ch
Ġd a
we ak
mer ce
Ġaim s
H M
uch y
W S
b d
Ġk id
ĠAn alysis
Ġ{ {\
Ġform ing
we alth
Ġout comes
Ġt error
Ġref lection
Ġout l
ah oma
Ġtop ics
Ġcomb ining
ĠMal ays
~ (
ĠSen ior
B ase
Ġrel iable
in ch
ik h
Ġco hom
Ġch airman
K S
Ġ ille
Sim ilarly
ud a
Ġcorrel ated
Ġmedal ists
ĠRepresent atives
Ġen ables
St ar
n ie
ĠV ideo
Ġatmosp here
Ġle ct
Ġhelp ing
Ġm ixture
ues e
ist ically
um in
ĠLem mon
Ġsup erv
Ġh un
ĠI P
Ġth read
ĠG L
ĠP age
Ġveloc ities
over set
ĠGu ide
ĠAn ne
Ġjo ining
rand om
pol y
Ġres id
f r
Ġre con
ĠT ony
Ġline arly
Ġreve als
Ġst ored
at in
el ve
ĠAmaz on
H y
Ġcomp lement
re z
ist ant
pos it
Ġaccom pan
T M
Ġus age
Ġro of
L eg
ĠA GN
gh an
ĠB os
Ġphenomen on
ĠJ am
Ġsuffic es
C F
Ġcompet itive
et ary
ĠL iter
ren a
F ilm
ren ew
Ġnon zero
Ġincorpor ated
Ġrestrict ions
l ad
Ġ }$
iz able
he t
Ġf aced
Ø §
ĠAl ice
Ġme re
ĠReg ional
eg er
Ġst im
ĠD ream
1 12
Ġkill ing
ta ke
Ġn a
Ġg ather
an es
ĠAss oci
Ġd og
Ġra in
ir ation
Ġport ray
gl as
. (\
i ot
Ġf usion
urn s
ĠS ound
if ting
L ocal
Ġreplace ment
ĠSe ason
Ġsampl ed
Ġhydro gen
Ġprov es
ĠS quare
S i
Ġvill ages
f ol
Ġd ates
Ġcon jecture
ĠV ari
In put
ĠCh all
M any
ĠA L
ĠR ab
Ġthe atre
ĠMel bourne
Ġseg ments
ĠV in
im od
ĠBase ball
ĠG ab
E lement
ĠC A
Ġch arts
Ġcomp ris
ta h
Ġs ought
= (\
ĠP A
$ (\
{ [
ĠT en
Ġsto pped
kl ahoma
ĠTh ird
ĠGree ce
}) -
det erm
deg ree
Ġk ids
Ġlog ic
e lement
T ax
Ġcon cerning
19 08
Ġshort ly
ed ing
ĠKent ucky
oy d
Ġimplic it
D en
EE E
et o
ĠMan chester
Ġhyper bolic
Ġexam ine
Ġindu ces
Ġoverl ap
ĠSpace watch
ĠCo oper
Ġproced ures
th an
R un
Ġfav our
ud i
Ġnom inated
Ġarr ival
G E
gress ive
m etric
ous es
Ġbrother s
H el
Ġf ly
s n
re tt
O pen
Ġ\, ,
aint enance
ch anged
X X
Ġfore cast
os ition
Ġcon version
Ġrema inder
ict ional
Ġ$ <
Ġold est
Ġa er
est ion
\| _{\
ĠSw itzerland
Ġf alls
Ġhom omorphism
Ġbring ing
A f
v ens
Ġdis put
Ġintegral s
orthe ast
ipp i
p otential
ual ity
ips chitz
Ġgood s
Ġjust ice
Ġpartners hip
Ġent ity
Ġp ole
Ġstri ke
P res
ĠSpec ifically
B ibliography
ache lor
Ġprob e
Ġinfin ity
Ġrelig ion
Ġs udden
ĠB ah
Ġinflu enced
Ġman uscript
Ġimpro vements
Ġair port
Ġdifficult y
sh ape
Ġrec overed
Ġag ed
Ġsett led
eg et
Ġintrodu cing
ĠG ram
Ġb ath
Ġconstra ined
$& $
19 11
comp onent
ĠS n
ĠB ased
am an
St ud
ĠV iew
ple ctic
Ġquot ient
Ġfound ation
ourn als
b its
ress ive
Ġwor se
Ġscient ists
Ġaccess ible
ĠU l
h n
M E
Ġsp an
Ġh ur
ĠC ond
ĠAg ency
ĠDe ep
Ġrec urs
ĠTok yo
ĠT O
Ġtherm od
ĠW y
ĠMar c
no ise
ent ry
ĠLear ning
ch arge
}= (
U ser
ĠH D
Ġgrow s
inem a
$ _{\
Ġt unnel
je ctions
Ġp ump
ubl in
Ġcomb inations
Ġh a
C N
ĠB H
Ġinter sect
Ġanom al
Ġproject ed
Ġslow ly
Ġexhib ition
Ġprov en
Ġsh ut
iv a
Ġeduc ated
Ġstar ring
ap ache
ĠN av
G s
ĠSt one
Ġsens or
Ġs oci
ĠM ap
Ġattrib utes
itect ure
Ġful fill
unn y
U V
d ers
r ats
Ġasympt ot
ren ces
ic ide
Ġhor se
\ /
Ġfin itely
Ī Ĵ
Ġk il
h ist
ĠD NA
Ġcustom er
d if
ari ate
b oth
in th
Ġf ol
). }
}_ +
Ġembedd ings
C V
' }$
ĠF M
Ġwa it
Ġcut s
Ġenc oding
W ind
Ġapp rec
Ġse es
Ġcom fort
Ġquad r
Ġph on
Ġca ught
st ud
R o
Ġarg ue
Ġ ^{\
M ich
ĠDi ego
ĠN ig
^- $
sh arp
ĠâĢ ¢
) )$.
vious ly
ent ric
Ġent anglement
Ph ys
Ġshoot ing
p air
it ic
Ge ography
Ġgener ality
Ġcap tain
ĠF ull
Ġpost ed
Ġdis order
Ġbl og
ĠPh ot
ĠSil ver
Ñ ĥ
S ources
Ġb id
ar on
ab ric
enn y
Ġfact s
Ġleg end
Sports people
Ġattrib ute
ĠHou ston
ĠTra ining
Ġde formation
}_{ {\
ĠSupp ort
Ġformul as
Ġdiscrim in
ic ut
Dav id
Ġfl o
1 13
hy per
umer ical
er ick
Ġsu it
O rig
Ġb its
rid ges
D ate
ss on
Ġin her
Ġprom otion
Ġle af
Ġhapp y
ap el
ĠCom b
G ra
ĠRem ark
d ir
rad ius
% ,
is lation
de ep
, .
H on
Ġsch ol
ĠHol y
Ġmin ute
1 14
}( -
display math
indu ced
Ġconserv ative
cent ly
ate ur
Ġactiv ation
Ġrank ing
Ġgl ob
^ +\
field s
Ġs rc
k ee
ĠHe art
) !
Ġb atch
Ġparticip ate
Ġsyn chron
ĠD onald
ĠL ank
Ġb ronze
ĠR ight
Ġtrans mit
e val
AT ION
ĠY ang
ĠC ape
ĠK y
Ġre venue
Ġl ake
Ġun stable
Ġmembers hip
Ġenc oder
Ġannoun ce
\!\! \!\!
}} }{
Ġhead quarters
az a
Ġco aches
Ġformer ly
ĠR oll
Ġinst ability
ĠP DF
Ġv eter
center line
Ġcrit ics
V ideo
Ġref used
ens ed
Ġdrum s
Ġexec uted
Ġassess ment
yn asty
Ġra w
Ġa cknowled
Ġv o
yn c
De ath
De finition
Ġcl ock
ist ing
ĠAll en
Ġdeterm ines
Ġh its
ĠPat rick
G D
3 60
equ ival
ĠN ich
Ġj ava
Pop ulated
Ġdis contin
ess ions
Ġr u
---------------- ----------------
ĠAl i
ĠMo ore
ĠB lo
Ġassist ance
ĠM oon
Ġrem ote
it ial
oc a
und erset
Ġwind ows
Pl ot
ĠA ction
Ġtra v
fact or
Ġsit uated
ar ry
Ġstr ings
ĠJes us
ĠAust ria
ĠV ice
a ire
e re
ĠN ik
}_{ (
ĠE instein
Ġlands cape
Ġm esh
ĠR yan
Ġchain s
ĠRec all
is ations
Ġon going
Ġfavor ite
ĠTem ple
Man ager
ĠI mm
ĠAl bert
D O
Ġd y
Ġgreat ly
ĠTh ursday
ĠSo ft
b urn
Ġalign ment
O ct
z i
Ġent itled
ĠL ind
ĠH ans
Ġbr ings
ĠI r
Ġteacher s
Ġf ear
fin ement
am ents
ĠB arn
c oupl
Ġin g
Ġemer gency
ĠB ureau
ĠTur kish
u ct
com ment
math ds
ist a
ĠCon stitution
iss ippi
ĠĠĠĠĠĠĠĠĠĠĠĠĠĠĠĠ ĠĠ
Ġcollect ive
Ġstre ets
ĠO p
A ction
Ġf ault
S N
ĠR y
}} }$
Ġmin ing
M O
Ġs ons
Ġman age
Ġcomprehens ive
Ġaux iliary
atas et
Ġexpl ored
pack age
Ġl ose
Ġgu ess
}, {\
Ġp ron
Ġf ranch
Ġexplain s
Ġh am
ĠSc ient
ĠG all
tain er
Ġdem oc
Bl ock
r ison
Ġgener ates
E st
ĠN GC
ĠWh it
Ġvol tage
ene z
Ġj un
Ġcarry ing
, ~
V I
ĠDe ath
ĠN atural
an alysis
le e
ĠI mage
ver tex
ĠF ront
th on
Ġsucceed ed
Ph il
ĠS af
ĠI T
end ar
alax y
ie ce
Ġpotential s
ma king
Ġinvol ve
= {\
ook ing
Ġeffect iveness
ĠAl abama
w en
Ġarr ive
ĠB eng
az e
Ġattack ed
ĠAnth ony
Ġas sets
ĠD ur
Ġtro ub
ĠLa ure
}\ }$
Ġtem plate
J ust
u ced
renew command
g on
Ġweek end
ĠMar ine
s ample
$ --
Ġre volution
Ġs now
Ġm il
U K
ĠS ix
Ġpers ons
Ġoff ices
ĠDis ney
Ġsurpr ising
Ġpresident ial
Ġinstrum ents
Ġmonitor ing
Ġbos on
ĠMe V
ĠT uesday
à ¥
U L
con ver
Ġt all
Ġprinc iples
ĠC ov
ĠJ ay
Ġ\ #
ĠHar ris
Ġhundred s
ĠĠĠĠĠĠĠĠ ĠĠĠĠĊ
Ġsym pt
Ġab use
ĠS el
n ik
ri or
c p
Ġb inding
ur is
ĠG ard
N umber
Ġdec ide
ĠH u
ĠE arly
ot te
Ġb oot
oun ced
Ġnumer ically
mod ules
)\ ,\
L abel
M I
\ -
ĠHow ard
Ġt ends
gl obal
ĠE ag
ograph ical
ĠW ednesday
( |
Ġshe ar
hy thm
ĠM D
od a
C ap
Ġpubl isher
Ġacc um
Ġrespons ibility
Ex ample
Ġexper ts
ect ure
Ġfew er
Ġund e
ĠT reat
Ġformal ism
A ng
C ell
Ġun us
Ġt ropical
dist ance
Ġelli ptic
Ġ( (
ĠH as
om as
w ang
Ġm as
il st
Ð ²
B as
Ġr ating
Ġp atch
Austral ian
Ġ- >
Ġrelax ation
Ġ ri
ambig uation
ĠB ry
\, .
un iform
ex pl
Ġenem y
Ġin hib
sim ilar
Ġgra de
Ġadv ice
ĠG reg
ĠDo ctor
ĠChe m
ig e
Ġpure ly
and o
m aster
ym n
c ss
Ġcosm ic
ph p
* {-
g iven
ĠF arm
Ġtransl ated
h s
cons istent
aw ay
Ġeven ing
d or
ĠTh ough
Ġl engths
ĠOn line
ĠN ative
19 05
ĠK az
B P
Ġhead s
Ġexcit ation
G G
all as
Ġpublic ations
Ġassign ment
ĠCh ile
ĠE dition
ĠCol omb
ĠP as
Ġeng aged
sing le
W hy
ĠPl ace
Ġfeel ing
iline ar
ĠK o
che ll
ĠE arl
? "
Ġmer ged
Ġult ra
S ty
Ġenc oun
Ġun ity
ĠSystem s
ĠNever theless
Ġmultiplic ation
Ġrespons es
> &
Ġprefer red
ĠHot el
Ġn ice
opt imal
ĠQueens land
Ġp y
ĠĠĠĠĠĠĠĠĠĠĠĠĠĠĠĠ ĠĠĠĠĠ
er on
ĠD ick
ĠN ev
own ed
s ized
Ġv ast
l ights
ut ies
f ront
Ġcorrect ly
Ġrecomm ended
ab olic
ĠS port
Ġread ers
Ġbo at
ĠB ou
e an
EC T
Ġturn ing
Ġse ar
^{ [
ĠWind ows
Ġconstit ution
Ġfeas ible
Ġan ten
ĠLore ntz
Ġext raction
Ġf at
ampl ing
Ġcomm ander
Ġmay or
row ser
Ġto ken
ĠW a
ĠC S
e ast
ĠM iami
Ġacceler ation
ĠF uture
od ox
ag u
v able
Ġa ware
c ategory
ĠFor ces
ĠE C
cre asing
' )\
ĠD omin
f n
o a
ment ed
Ġcon clusions
R ober
r ations
Ġrestaur ant
un ed
Ñ ı
ĠMicro soft
ter ior
Ġre tail
Ġr uled
Ġfil ed
j ava
ĠW olf
ĠM and
f all
top rule
Ġregular ly
ĠC hen
ut ely
ĠM i
gl s
Ġconsider able
Ġpermut ation
Ġbelong ing
F O
Ġconsist ed
Ġpos it
ĠEconom ic
ĠC ulture
athe red
ad ata
oc he
Ġmulti pl
ol y
Ġcal ibration
ĠL ic
pro perty
AR T
Ġin fect
Ġast ron
Ġknow s
ro ke
E very
B ased
ĠDe ad
Ġwa iting
ple t
ĠCont in
}} ^{(
tra ined
fl at
Ġlaw yer
tr im
Ġch air
Ġla id
. '
or ro
lect ric
ĠR on
ĠY outh
18 90
respect ively
Ġass embly
Ġst d
Pro perty
Ġv ic
Ġ$- $
od s
Ġmer ch
N T
ĠLin coln
Ġanc est
M et
ĠK am
St at
ch t
Ġderiv ation
ĠEm peror
St ream
Ġrequ iring
Ġqual ified
Ġinv ited
J u
ĠP S
ĠR ick
ĠE mer
N L
Ġmanufact uring
Ġcontroll er
put ation
arg o
ĠF ame
i ac
Ġre fe
ry st
an aly
D el
GB T
Ġdeb ate
ĠM ath
ĠYou Tube
Ġvari ants
Ġmusic ian
ĠP R
Ġv aries
Ġneg ligible
c ov
Ġadvers arial
pa rent
Ġcre ative
19 09
ĠĠĠĠĠĠĠĠĠĠĠĠĠĠĠĠ ĠĠĠĠĠĠĠĠĠĠĠĠĠĠĠ
Ġinj ured
ĠD al
Ġassoci ate
ĠSw iss
ĠPal est
ĠSquad ron
g ood
ĠN one
Ġm outh
ĠS R
ĠE vent
Ġanalys es
Ġregular ization
Ġ{ }
ĠTe levision
ug u
Ġplan ets
at ar
ĠN ash
Ġpain ter
Ġso il
Å «
ĠCol lection
Ġb are
Ġphot os
ĠHol lywood
Ġphot ograph
ĠWh y
ĠP ed
Ġe gg
Com parison
y ers
Ġequ als
Ġent rance
Ġinv ariance
ĠO klahoma
es is
Ġp itch
Ġvan ishing
Ġcon sequences
K L
ot he
Ġser ial
s burgh
ĠL am
de pend
Ġefficient ly
Ġeng ines
Ġequ ally
ie val
x rightarrow
Ġg uns
dist ribution
G reen
ĠI l
ah n
, (
et he
per iments
se a
Ġmer ger
ĠMat thew
ra ble
Ġre cept
n or
ĠK evin
at abase
Ġval uable
li est
u pper
m ember
Ġtalk ing
ion ed
ĠHaw ai
Ġdirect ors
Ġinv ent
19 07
eq q
10 2
Ġloc omot
w ords
Ġly rics
Ġlic ense
ĠT erm
c ounter
h skip
Ġattrib uted
Ġret irement
st age
it ics
Ġsh r
our se
ĠWal ter
ĠSe veral
Ġacc ord
Ġw at
19 06
Ġnot ing
ĠU se
) }^
ig m
Ġsy nd
+ |
}$ ).
Ġhe lic
opt ion
ĠO ak
Ġaddress ed
ast s
it ud
cont rol
m atch
Ġex ercise
Ġfocus es
Ġsuper ior
ĠA le
Ġv oted
Ġfact ory
sim ple
1 17
ol id
Ġtransform ed
ĠNor wegian
Ġimpro ving
Ġmeas uring
Ġf ought
âĢ ¢
out put
Ġlo ops
ost ic
xy gen
ĠVill age
Ġliter ary
ĠArgent ina
}| ^
Ġneighb ors
Ġs elling
l ades
comp act
ĠRober ts
or tex
ul us
ĠK ra
re ement
ish ment
el and
Ġachie ves
ro d
ĠZ e
\' {
ĠIsra eli
oc ese
ad ic
ĠF A
r Ã©
Ġb irds
ĠLab our
Ġvictim s
W E
Ġb anks
ate ver
Ġo x
] _{
Ġrece iver
Ġre jected
f our
op ter
Ġpo etry
eg as
Ġev ident
Ġp ose
C I
Pro v
n etwork
Ġen velop
Ġlif etime
Ġc ards
Ġpreserv ed
ĠCon sequently
Ġcontinu ity
Ġch rom
Ġre verse
Build er
ĠP rom
Ġbatter y
ĠBr un
b one
Ġterm inal
set length
S y
Ġcent uries
R ail
ail and
ail ability
Ġsp end
Ġcomb ine
Ġtri als
F P
big skip
S k
rict ion
Ġfam iliar
Ġobserv ables
Ġv oting
Ġc ash
Ġ\ }$
ail ed
Ġf ruit
Ġde leg
Ġtri es
D own
dr iven
Ġthere by
Ġcompet e
Ġreport ing
ĠF all
Ġ( ;
Ġb ott
Ġal ter
Ġa w
Ġte en
Ġtem ple
b ow
ĠB ox
ĠG ordon
Ð ¼
Cl ient
10 4
ĠS ho
ather ine
ĠP ut
ĠEx press
B orn
Ġcour ses
ick ing
Ġleg islation
res ize
Ġwas te
ĠCap ital
Ġcloud s
ĠTai wan
ĠP ay
Ġacc used
sp aces
Ġent ering
Res ponse
Ġmov ies
Ġsh ifts
sol id
Ġtru ly
Ġt um
Te levision
Ġdrug s
ĠC ow
ĠIslam ic
Ġtra ding
H P
N P
E ducation
Ġag encies
19 04
Ġv irus
Ġ Ä
h d
ell s
Ġdraw ing
ac on
ov ing
onom ous
Ġsh op
Ġlimit ing
Ġr anging
t x
tem perature
sat isf
Ġdiver gence
ĠP rix
Ġextens ions
Ġshift ed
Ġre b
ĠP ow
j u
Euro pe
Ġsur gery
ĠD aily
ĠOr th
ĠPh ill
Ġj azz
ĠM rs
Ġt ank
Ġan th
Ġc raft
Ġseem ed
Ġar ises
$ {
S ur
e fficient
Ġvari ability
Ġsh orter
Ġkey board
B D
ĠC emetery
ĠRe ad
ĠDef ense
> (
an ia
Ġm ine
}) (
' (\
W A
ĠHer itage
d est
st rap
est yle
Ġcryst al
F inal
Ġround s
Ġfound ing
ĠCh o
un finished
Ġremov ing
rep rene
ĠAf ghan
Ġst ating
Ġinequ alities
): =\
et ing
ĠN ag
m em
Ġfraction al
ĠN ob
Ġestablish ment
ig ious
ry pt
Ġpro ton
stand ard
ĠP ot
ĠAl ber
ĠR ow
ĉĉĉĉ ĉĉĉĉ
ĠRec ord
im pl
st d
b ibliography
ĠMiss issippi
Ġexpl oration
ĠArm en
lim it
Ġobtain ing
Ġhelp ful
ug s
ĠF ried
Ġcor on
ĠS yn
D ou
Ġlocal ization
ic i
ĠL as
j et
int end
ĠR ub
ĠW ol
Ġvol umes
Ġis lands
Ġpip eline
Ġ( ,
Ġroad s
rel im
V ill
old s
Ġpar ad
Ġun like
Ġ )$
Ġinhab it
Ġsoc cer
ĠN O
et ition
l r
em p
im ore
ra ge
Ġtrans action
ĠD ak
level and
\ }}
Ġdetermin istic
Ġhe aring
ĠE uler
Ġpass enger
Ġl it
qu ality
ĠBow l
Ġcerem ony
ĠAl b
ĠP ap
ri k
Ġw arn
Ġexpand ing
ubl ished
fig s
ĠG arden
S an
so le
U LL
ay an
Ġpre lim
b ach
ibr aries
ou ch
ĠC T
ĠDet roit
) ~\
l ate
t otal
Fig ures
e per
Ġsymm etries
Ġr ival
al ed
Th rough
ang ers
Ġpres erve
ĠL yn
Ġlimit ations
Ġaccompan ied
ren ess
Ġimag inary
Ġsub sc
prote ct
Ġtang ent
e ach
ra ce
back s
Ġd ress
ĠA C
ĠLouis iana
symm etric
}^{ (\
S em
J o
Ġacqu isition
uer to
Ġand roid
or ough
ann y
Ind ian
ĠUn it
B N
B ur
}}\ \
Ġcommunic ations
Ġw aters
ĠR ound
be cause
Ġocc as
ĠD ave
Ġa ired
Ġj ets
G O
res olution
she ll
R ob
ĠS in
Ġcohom ology
Ġhost s
le ading
ram e
Ġhistor ian
Ġam pl
Ġmed icine
bu ilt
Ġobserv able
ĠAnton io
dis ambiguation
Ġdeterm ination
Ġ( ),
Ġpaint ings
s ome
Ġgrow n
ĠUn iverse
Form er
add ing
Ġcan cel
ĠF inn
3 50
ĠA ND
al ia
h arm
_{ {
ĠP ra
plic it
Ġins urance
Ġensure s
Ġch urches
C y
ĠW here
ĠConnect icut
Ġf lying
G AN
id ity
}] \
Ġaband oned
id ance
Ġex posed
ĠDou glas
bottom rule
j an
Ġs ed
ĠPro cess
tra ining
ant i
Ġtot ally
b ad
Ġab elian
g ame
bum s
Ġkind s
Ġcav ity
ath y
Ġsing ers
ol ph
t ot
Ġd uty
Ġmach ines
Ġcompet itions
ĠEx pl
13 5
l ab
Ġmat ters
ĠB uck
ĠEx ample
C ON
ap olis
}] $
al og
g ate
B T
Ġsound s
Ġro oms
Ġmodul i
Ġim posed
Ġgradu ate
left rightarrow
Ã¼ r
Ġdeterm ining
it ro
Ġv ir
' ,\
Ġpublic ly
Ġthe rapy
Ġ< <
pro fit
Ġbo ys
se par
ors ion
ol ished
ĠNC AA
Ġpay ment
},\ \
Ġac oustic
d ed
el lect
ĠK elly
Ġreg ister
Ġd otted
Ġphil osophy
Ġin fection
ĠL anguage
ĠL INE
Not able
B oth
pro ject
ari ants
qu ery
Ġt ables
u is
at tered
Ġoper ates
Qu ery
ĠStud y
H I
Ġb ool
olog ically
}) }\
Ġme ets
ĠOb ject
Ġint ent
Ġpre gn
D et
ĠG W
m ay
ang el
a use
Ġoper ational
Ġaff ord
ht bp
b est
iss ance
Ġsqu ares
ĠCro at
Ġh ospit
}$ ;
Ġpro spect
ĠNot ice
ĠInf antry
B r
Ġ\ :
}} _\
ĉ Ġ
Ġ\\ [
f requency
ĠS S
Ġob st
le in
Ġwe ar
Ġcap abilities
}} +
ĠBill board
Ġart ificial
iv ated
' -
Ġcommission ed
ĠN umber
Ġaut omorphism
Ġdistingu ished
Ġpro hib
ĠWalk er
9 00
ĠDen mark
Ġsummar ized
ĠM anu
Ġs oul
$ =
Ġel astic
P aul
k ar
f ind
ok ing
w ho
1 18
Ġfail s
Ġhigh way
ĠAd vent
Ġref uge
Ġdi am
Ġdis miss
Ġmin i
Ġsp ending
s un
Ġsuper conduct
S ign
IN T
Ġb arrier
Ġbox es
Ġcl ar
Ġ= ==
ĠH um
Ġsurn ame
Ġass ault
Ġing red
int o
Ġcre ates
Ġsee king
Ġwhe el
Ġtouch down
ĠL ib
Ġs i
v as
Ġsh apes
25 5
R ich
B er
ĠI mp
lem an
Ġro utes
19 03
Ġthick ness
ĠF isher
Ġins ight
ĠD VD
c ule
P an
ific ate
Ġ_ _
al ph
ĠN aval
Ġb ases
Ġcount ing
Ġdist urb
it is
ĠP ear
hal f
Ġt ennis
pr im
ĠYear s
colon eqq
Ä ĥ
Ġcom ic
ĠBelg ium
ĠHon or
ĠPortug uese
ĠMay or
Ġfair ly
Ġmiss ed
1 16
Ġst ood
ĠPortug al
Ġprepar ation
Ġmet res
c ost
Ġf ont
ob i
Ġcompos ite
M us
Ġres erve
Ġmanifold s
Ġresol ved
Ġm aintenance
Ġref lected
ĠW ard
M al
p ing
ĠTe xt
Ġoscill ations
Ġtor us
eb ox
ĠIndepend ent
Ġmir ror
19 01
ĠQue bec
im ir
m ut
Ġo cean
Ġhe ating
v c
l ib
oid s
sh op
ĠP ref
ĠB us
ul i
se q
Ġexhib its
Ġconsum er
Ġdetect ors
h us
l ass
Ġmechan ics
Ġin ternet
Ġinv asion
st ellar
F ootball
10 6
Ġemploy ee
ab out
ĠF ern
ĉ ĠĠĠ
Ġm o
ĠH ills
Ġsequ ential
er as
ĠStud ios
ĠA S
ail s
Ġsingular ity
Ch ild
ir i
ĠO tt
O pt
Ġj unction
iz ers
[ {\
Ġloc k
ĠAtl anta
ĠCommon wealth
ĠS F
const ant
E s
Ġv eget
Ġmod ification
opy right
A v
19 02
M ac
ul um
}} +\
Ġto ler
/ .
Ġd s
Ġprot est
um ar
}} -
Ġmod ular
ic ation
idel ines
ĠSing h
t ensor
10 3
d ale
ĠW ang
ro se
Ġp ray
ag on
ĠPl ayer
inc or
uk i
ĠH ad
ab ad
sh aped
Ġconver ge
big oplus
Ġoper a
in burgh
ĠT ar
_{ (\
Ġext ending
Ġput ting
rat io
ĠU tah
Ġprom ising
ĠWith out
S u
Ġcorpor ate
Ġinst ruct
Ġne uro
Ġst adium
i at
Ġground s
Ġident ifying
Ġover view
Con clusion
ĠLaw rence
coh ol
over ty
ĠD ublin
Ġdis cre
ĠCur rent
ĠJu an
ĠN i
Ġregard less
Ġvisit ors
Ġtrend s
um ann
ta ck
Ġoccup ation
f ire
18 80
Ġminim ize
Ġrel ativistic
Ġelect rical
Ġdecl ine
ĠP ack
names pace
R oman
ĠSoc orro
) /\
Ġ{ {
Ġ( +
M arch
Ġd ot
ĠSm all
Des pite
vert ible
Ġgr ass
sh ot
ps hire
Ġsub stit
ĠH ug
ey ond
Ġfac ing
Ġpass engers
Ġsw it
Ġad ults
Ġhol omorphic
z ing
ĠL P
lik ely
Ġd ies
os ph
Ġfrequ ent
ang ular
K E
Ġhomot opy
e en
ip her
on line
Ġautom atic
ĠI ma
co in
ĠAl an
M art
10 8
Ġmetall icity
Ġrecord ings
ĉĉĉ Ċ
Ind eed
Ġfil ters
Ġfor th
ment ioned
er os
ĠCon c
ĠBrazil ian
it ations
O p
s ite
Ġentertain ment
Ġgradu ally
ĠH ockey
An y
Ġdeal ing
init ial
Ġin aug
Ġcould n
vers ely
Ġadm itted
du e
Ġelect romagnetic
ĠLINE AR
Ġadvert ising
Ġfocus ing
Ġre actions
ha ust
im p
ĠP ope
ĠAg ric
Ġpre v
Ġnorm ally
Ġcons c
L in
Ġferm ions
D ue
ĠTra de
Ġsus pend
Ġtransport ation
ĠK ur
Ġag es
Ġd amp
alt imore
Ġmut ual
Ġdis establ
Ġarrang ed
ĠK u
f ather
o om
De v
Ġproof s
b ridge
Ġtrans it
itud inal
ph an
Ġcircum stances
Com b
E V
Ġphenomen a
Ġcatal og
im ated
Ġcol lections
Sc ript
resize box
Ġgeodes ic
in ian
Ġaccur ately
ab i
ĠPhil ip
m arg
ĠTh ailand
ĠR ace
ib l
ok ed
F in
c z
is ode
Ġfin ishing
Ġcomput ations
Ġcub ic
Ġo xygen
Ġadapt ive
g tr
S ym
ter y
ĠUk rainian
Ġw ider
ĠD anish
ĠAust in
ĠR ot
W id
ĠLiber al
st ery
Ġfle et
ĠT ake
2 20
ĠF le
as a
Ġfor cing
Ġkn ock
ĠF ri
E ven
Ġsports people
Ġdise ases
ĠT el
Ġval ley
raise box
ann ot
it ian
ĠRuss ell
N av
) <
ĠRes erve
war z
ĠS pect
Ġflav or
ĠG ene
) "
Ġt ied
ĠM os
ĠK arl
Ġpri ze
M ilitary
ĠA ccess
em pl
ĠO pt
ref erence
ĠThom pson
T O
ill o
be an
ĠE X
T im
a is
in ating
Ġw ine
au er
ĠK r
M ajor
Ġ ),
Ġh ired
k k
ĠAd ams
n ed
ĠOb ama
Ġsuggest ing
Ġgre y
Ġhas h
bibliography style
Ã ´
ann on
ĠAll iance
i ors
Ġst uff
Ġmov ements
av or
Ġc up
av irus
Ġrad ii
Ġc ited
Ġproport ion
Ġg arden
ĠMor gan
ĠB ush
On ce
fra ction
ĠHar vard
] ^{\
C am
Ġann ih
Ġre ign
emb les
Ġcast le
p us
F amily
ĠL O
var pi
Ġb on
Ġst rain
os lav
por ated
u its
add le
Ġoff ensive
roph y
Ġel ig
@{ }}
ĠF ive
ĠCh apter
) </
Ġint u
Ġbi ological
Ġde put
Ġs ending
Ġca usal
res ol
J ames
Ġmay be
or ig
Ġcateg or
ĠStr ateg
Cl ub
he res
ars ity
Ġr ings
ater al
Ġr ising
Ġa de
p q
ĠBatt alion
ĠB ull
Ġes cap
char acter
Ġvari eties
ĠL anc
ĠN ic
Ġf olk
Aug ust
Ġdef ensive
ys elf
ĠIndones ia
Ġweek ly
Ġunivers ities
em en
| }{\
~ {\
Ġ\| _{
Ġprodu cers
Ġ$ -\
ĠSe attle
ĠTe ch
ĠT ig
Ġcontro vers
Ġfranch ise
Ġdev oted
Ġtw elve
Ġdou bt
Ġtal ent
Ġconsid ers
Ġtens ion
r ically
Ġg ro
O h
ta x
ĠSim ilar
ĠL ink
Ġse cretary
Ġvot ers
H R
ĠB uff
Ġver ified
Ġmark s
ĠBang lades
i u
& +
d ynamic
.... ....
s ong
ho ok
). $$
ĠM ission
is ks
Ġn ick
Q ue
Ġn um
ĠĠĠĠĠĠĠĠĠĠĠĠĠĠĠĠ ĠĠĠĠĠĠĠĠ
f ly
ĠP ho
ĠM es
}$ $
Ġmag ic
T ransport
am ination
oc us
Ġremov al
ant ine
Ġviol ation
ĠA BC
ploy ment
s qu
og g
Ġcommut ative
Ġobserv ational
Ġapparent ly
s or
Ð ´
ĠTer rit
ĠC PU
Ġent ities
sm ooth
ge red
Ġqu eries
Ġcontinu ing
Ġpopular ity
Ġaim ed
ch arg
Ġre act
ĠD O
ĠĠĠĠĠĠ ĠĊ
ore l
Ġmodel ed
ĠA y
Ġlist en
ia o
5 12
Ġrel ies
M o
Ã© t
pro t
Ġwrit es
ĠAb d
Ġsimpl ified
ĠBet ween
or us
Ġover come
Ġinteract ing
Ġh o
Ġsp oke
c ritical
Ġv anish
ĠS ud
ĠSar ah
Ġjun ior
Ġrece ives
Ġconsist ently
Ġdesc end
ors es
Ġre nt
Ġagric ultural
ve ctors
ol as
iv ariate
ht b
dou ble
Ġcontinuous ly
ĠG on
> $
re cted
), (
Ġorient ed
H A
Ġcheck ed
ĠBay esian
p f
ul atory
ob j
ĠBl ock
Ġback ing
pol ar
ĠL ower
ĉ čĊ
ĠGal actic
g rid
Ġarm ed
d ied
Ġsurve ys
ĠTh ose
Ġ\, .
Ġmotiv ated
ĠW right
l brace
Ġcomp ression
Ġimpro ves
st ers
Ġdual ity
Ġparamet riz
Ġnot ably
v v
m r
ĠW atch
V ER
up date
end ment
sh ould
Ġres idence
] _
bar a
ĠG R
F lor
Ġbreak s
Ġemploy ment
Ġcr ash
E Q
ref n
Ġexp ed
ĠM O
iver pool
â Ĥ¬
Ġin cl
Ġste am
+ $
Ġsym plectic
comm on
ĠOr ig
DB LP
l ag
ĠBrig ade
cell color
Ġaut hentic
onym ous
ĠN eg
Ã ¥
Ġ à¤
ab ul
ĠI ron
Ġde let
Ġparticip ation
Ġmid field
iv acy
id o
Ġresident ial
ĠS ep
Ġuniqu ely
bs erve
cho ose
moment um
ĠL ang
Ġcl er
U til
ĠB iden
ĠI ss
old er
Ġdispl ays
Ġa maz
Ġc ot
Ġcontrad ict
C s
Ġsupp ressed
Ġp ione
M ass
correspond ing
m outh
Ġgen etic
Ġqu bit
reg ion
J anuary
Ġwalk ing
Ġstream ing
}{ !
Ġadd s
J une
< !--
I refn
Ġm emb
Ġl ob
Ġpick ed
col head
w he
Ġdr ift
Ġear liest
$ }\
Ġdisc ipl
; </
Ġquant itative
fil ter
ĠC ON
fol io
ĠMc K
K K
Sty le
Ġsing ing
ĠD ub
V ari
Ġun s
Ac adem
! "
)} ,\
Ġeth nic
Ġdesign er
Ġlocal ized
coordin ate
Ġdeb t
Ġg al
ĠWork s
^{ {\
Ġmar ine
ĠG PU
10 7
Ġsurv ival
ĠS ite
un ity
bor ough
ĠAuthor ity
h ai
}{ $\
k ens
L ie
Ġer g
Ġdip ole
Ġpro sec
Ġm ic
}} )\
w s
Ġcompet ing
ĠArk ansas
rib utions
j av
ĠJ ason
Ġk it
fin als
ĠH ell
ug in
rel ax
S ol
ĠK ings
des ign
E p
Ġclos est
Ġtempor ary
ĠMalays ia
Ġpass age
ĠPhys ics
com pos
ĠPe ace
ĠC oul
Ġm art
Ġsympt oms
Ġqu arks
Ġpred e
Ġband width
Ġann iversary
Ġdeg rad
con vex
Ġcycl ic
Re al
A pril
Ġrepresent atives
D an
ĠS hi
ant on
ĠPet ers
F ran
Ġb ag
Ġob lig
or o
á ĥ
Tr ue
Ġsup ern
Ġpar ity
Ġgrad ed
Ġhealth y
h ig
Ġsol it
Ġguarante es
ĠE ss
t re
ĠE dd
Ġmy th
pos itive
S pe
ard ed
Ġint ention
ym atrix
ial s
Ġun f
Ġmoder ate
serv ice
Ġas king
ĠEd inburgh
clos ure
ĠB S
ĠB art
ig ate
ĠPro blem
ĠMc G
S l
Ġrobust ness
H ol
}. $
ĠFin land
Ġc umul
Ġpost s
B et
W here
ort on
Ġs ke
f ish
ma ker
Ġf ired
Ġfund ed
ĠSam uel
ĠV I
Ġowners hip
Ġb aby
Ġno isy
van ced
Ġaffect s
Ġso ph
ĠC ensus
Ġp ictures
ĠDemoc rats
Che ck
Ġreconstruct ed
18 98
it atively
ĠĠĠĠ ĠĊ
ĠR an
m illion
Ġpro xim
oth s
ro ot
Ġhierarch y
Over ride
Ġtrig ger
ĠPitt sburgh
Ġk ee
Sc ott
Ġwatch ing
ĠD allas
Ġstrateg ic
Ġbright ness
Ġman ifest
Ġdanger ous
ĠHistor ical
ant um
Ġed ited
Ġmet ers
u ary
Ġex clusive
ĠL ane
Ġanim ated
^ *}
Ġcharacter ization
ĠAn na
Ġg ram
Ã «
Not ice
ass ador
NR AS
d irect
ĠM agn
Ġille gal
ĠOr chestra
ĠIm perial
Ġchild hood
] }\
ĠY e
ĠP ad
Ġcoinc ides
Ġnucle i
ĠD R
ĠP uerto
ĠT ag
clus ively
Ġf ract
iv id
ĠDe an
ĠN elson
Ġall ocation
in ces
equ al
}} }{\
Ġbig ger
H H
Ret urn
Ġfall ing
az ines
'' .
ĠN ep
] \\
p ush
Ġr ide
ĠF al
G F
am ps
quant um
w al
ĠD ance
l at
Ab out
ĠKenn edy
g ue
r n
Ġg ang
text style
Q L
l on
S yn
f an
ĠLie utenant
S a
ĠPro of
]{ ./
Ġleg isl
make box
process ing
th in
ic he
D L
l as
f ixed
. :
se en
) ~
Ġwill ing
Ġare n
======== ========
Ġident ities
~~~~ ~~~~
au ra
d ocument
ia h
27 0
F eb
h ad
ent er
Sum mary
Ġvari ed
k t
l vert
ĠK it
Ġreg ulations
algorithm ic
M B
Ġappro val
hold ers
Ġrot ating
Ġintrodu ces
c rit
u u
od ic
ĠS NR
ĠC leveland
con j
ir ms
ĠMar ie
Ġrest ored
* }\
Ġt on
ĠPer formance
enez uel
const ruct
rupt ed
ĠMic hel
G raph
M or
Ġprov ing
ĠLim ited
Ġinhabit ants
opt ions
ra ctions
scal ebox
}) ^{\
ĠCom ics
L and
red ited
Ġtra il
Ġactress es
Ġvacc ine
ma kers
r f
ple te
ĠE le
Ġneutr inos
Ġpubl ishing
ĠP i
ĠP un
ĠSchool s
ĠNig eria
n amed
abil istic
ow ed
Ġbuff er
Ġschol ars
Ġapproxim ations
ma xim
Ġabsol utely
Ġsynthe sis
under brace
ĠN ation
Ñ ĭ
Ġspe aker
): =
n an
par ams
spe ed
iv an
Ġb ins
pro perties
ig roup
- {\
i op
en um
}$ ),
nov ation
ourn ament
q ed
ĠCh a
ĠD ir
}. $$
Ġexponential ly
Ġimplic ations
ĠV ik
x ymatrix
Ġre tained
dep th
ĠCh airman
ĠâĢ ł
Ġsingular ities
ĠN eb
d in
ĠPubl ishing
Ġar ising
ĠÂ »
' }(
Ġexclud ed
big gl
ĠK an
P al
igh bor
Or der
Ġrect angle
ĠPal ace
Re ception
Ġphys ically
ĠC os
Ġg host
ĠS ac
S al
Ġsub graph
Pl an
ĠM ess
L ink
ĠR est
ĠPol y
T or
Me an
ĠSh ah
st ation
Ġdiam ond
Ġoptim ized
r brace
Ġsub mitted
Ġarrang ement
Ġrequ ests
ir ates
Ġindu ct
Ġsurround ed
W in
tag on
ri el
18 99
Ġobserv ing
ĠLeg islative
O fficial
" ]
and al
Ġdeploy ed
Ġem otional
b ug
ĠC ass
Ġex it
Ġm ilit
Ġro se
Ġvari ational
Ġc rown
ĠK now
Ġextens ively
Ex pat
ĠD ie
Ġscal ed
;" |
p ow
Ġg ates
\\ \
Ġgu idance
Ġelse where
Ġh ill
m eta
und les
Ġunus ual
ĠP ath
ĠCamp bell
Ġth rows
Ġ$\ |\
ĠChrist opher
Ġconsum ers
V ersion
)} =\
Ġrepe at
Ġathlet es
Ġdemonstr ates
}\ )
Ġbeaut y
ĠO k
Oct ober
Th m
St art
D onald
o ys
10 9
Ġexam ined
Ġbo olean
Ġcomplet es
Ġdest ination
ĠEx p
18 95
ĠCl oud
Ġaver aging
Ġgrad ients
ĠCh amber
Ġprelim inary
b n
Ġloc ality
Ġpass ion
Ġrel ief
Ġh at
Ġst em
Ġbe ar
Ġd ating
ĠMont real
is p
Ġdevelop ers
ĠThe ory
Ġke V
Ġrac ial
Ġade qu
C le
Ġrele ases
cos ity
Ġsus cept
Ġsens ors
ĠBe at
ĠBru ce
Ġpl astic
ot ions
St atus
oc ols
m or
A lex
V P
Expat riate
Ġm a
ellect ual
! âĢĿ
Ã ł
Ġcoupl es
Ju ly
+ }
og a
lev ant
bound s
Ġc ogn
Ġal leg
Ġse venth
ĠVol ume
O O
ĠN ame
{- }
ĠRob inson
}; \
ĠC rit
bigg r
ou ver
G old
ĠGirl s
Ġremark able
ĠDep uty
Ġcoll aps
Z Z
17 0
Ġmicro sc
Ġcritic ism
ĠH it
ĠLank a
ĠI C
Ġelectric ity
Ġrece ption
Ġvis iting
}$ :
cal cul
Ġst retch
T ag
18 97
Ġcomp ilation
Ġt ie
] ]
Ġsle ep
Ġdes ire
j amin
f g
Ġout break
Ġprep are
4 50
Ġthous and
Ġemer ging
re b
}{ $
Ġarbit r
sin h
Ġepoch s
e a
Ġdifficult ies
ith uan
og raphics
Ġcour ts
Ġenc oded
H istor
ĠSch olar
Ġ ions
18 70
ĠOrgan ization
im m
ĠPri or
Ġprov ision
ĠU pper
Ġmeet ings
P age
Ġlabor atory
We b
elf are
en ix
ll i
=" ../
Ġlay out
24 0
P Y
ĠG ulf
Ġhead ed
ĠSte wart
Ġyour self
le ans
ĠPr incess
ver sy
Ġconven ience
^{ *}
ĠKn ight
row th
cess ion
Ġreal ize
Ġobvious ly
Th ree
Ġher itage
ins ula
ĠN N
, }
ĠR ain
Ġsc r
ĠG P
Ġm yself
Ġf urn
ro ck
S W
Ġf est
Ġto x
A I
ĠS W
Cont rol
F ull
Ġn ations
ĠMa ur
U I
ge on
p read
ĠT i
end a
Ġcaref ully
ĠWe yl
Ġst ake
ex act
ĠB ed
ĠW oman
Ġstri p
ĠN BA
C ond
Ġas ymmetry
Ġch amber
app end
st ance
- $\
F ix
eg e
ph ys
ĠÃ ī
gtr sim
app y
iss ible
Ġagre es
ĠM ars
= }
F ree
Ġprim itive
^* (\
Ġregular ity
Ġb old
ĠA PI
ĠM ol
fra g
Ġconvers ation
}) ^{-
AM E
Ġhor ror
ract ed
Ġelim inated
Ġinvest ors
ĠG il
Ġvalid ity
Ġexpect ations
Ġex haust
Ġrec ru
ij k
}} ^\
Å Ł
bl ing
Ġm ile
s ens
Ġreprodu ce
ard ing
val uation
ass oci
gra duate
ÃŃ n
pr ivate
ab a
Ġflux es
Ġtarget ed
diag ram
Ġg ift
ine a
ar ation
Ġw ww
ĠL ipschitz
Ġsurv ive
Ġdam aged
ĠR T
ĠEr n
Ġfe els
Ĩ Ĵ
Ġdem ands
l st
Ġwith draw
H a
Ġs essions
Ġt ub
ĠU E
Ġisot ropic
Ġfe e
ĠIn terest
ĠBo ys
be red
Ġres igned
Mich ael
Ġext inction
Ġsus pect
ĠRog er
Ġcelebr ated
Ġd ynasty
Ġsp r
ĠO R
Rel ated
ĠN ature
AN D
Ġsurv ived
ĠCl in
cl ient
le ased
r vert
Ġsent ences
ed u
ĠT ak
Se ptember
Ġattract ive
Ġinstrum ental
Ġconjug ate
Ġr anks
Ġse ctors
18 96
ĠC rown
ĠDak ota
Ġclos ing
Ġm igration
Ġdegener ate
ĠF unction
n l
claim ed
ĠS earch
op a
i ar
n one
ĠE mb
resp onse
ĠComm ander
ĠG ran
It alian
ĠAust rian
pp ers
the y
ĠRail road
ĠB altimore
Ġj uris
ĠMarg aret
cos h
Ġsimpl er
w ig
Ġread ily
Ġte ach
M er
Ġtext s
Pre vious
ĠE mm
Ġobtain s
ĠA then
rane an
Ġinnov ation
Ġbranch ing
Ġbeh alf
s ys
ĠS L
Ġcl ip
ĠMad rid
Ġprote ins
il ty
m ate
Ġinform ed
tt ing
Ġt ip
w p
Cont ent
omin ations
Ġg ran
Ġcele b
sh ifts
Ġc ust
ĠB urn
comm ut
)$ $
Comp onent
Ġshe et
ĠFred erick
Ġemer ged
M NRAS
Ġdis placement
Ġcontrib uting
Ġgen re
ov ed
ĠElect ric
or ne
Ä «
Ġlogarithm ic
Ġenjoy ed
H F
Ġcoinc ide
ĠWe bsite
Ġlong est
Ġb ird
Ġcurrent s
Build ings
Ġapproxim ated
Ġpl ain
Ġarch ae
ĠSe cret
Ġfem in
Ġcons ensus
ĠS A
Ġen abled
pl ac
t im
Ġfor get
ĠApp ro
Ġc arrier
ĠK on
Ġr id
as ters
}$ };
L ay
ming ham
qu ark
Ġassum es
const ruction
+ {\
Ġup coming
ar us
Song s
k ind
J ac
Ġperm ission
Ġinj uries
Japan ese
ener ate
Ġex port
ro v
pend icular
St ation
ious ly
g ov
Ġind irect
eg u
Ġevery where
Ġpack et
Ġhand ling
Ġreflect s
ĠHung ary
ĠA rena
cur ve
ĠTr ue
ĠT R
Ġrecogn ize
Ġneighbor ing
ĠOr leans
Ġadvan tages
ĠHung arian
C ho
}} }}
s rc
rap ol
Ġperfect ly
Ġconvolution al
incor porated
ĠB ag
o il
igh ters
ĠLe ft
Ġre putation
Ġreason ing
Ġmere ly
m ill
im eter
ch ment
Ġ ray
ĠAl ban
ok er
Ġem issions
su fficient
ĠC u
ĠJud ge
Ġwh ilst
)$ }
Ġf asc
ĠC el
g ot
Ġevol ved
s b
Ġleg s
á »
w right
Ġf ro
ĠNAS A
Ġdwar f
ut ors
Ġbe ach
P erson
Ġg ray
Ġrad ical
Ġperson ality
ĠL iverpool
en berg
ĠPa per
Ġansw ers
[ ->
id ering
Ġresol ve
Ġcarri es
ac cess
Ġm ild
c arl
ab atic
grad ed
Ġthe ater
ĠSt ill
Ġanom aly
ĠAl tern
ov o
Ġpred omin
ĠMat hemat
Ġjud ges
Ġwe aring
_{ |
Ġmaintain ing
Ġdevelop ments
Sp ace
R ussian
ĠBrook lyn
ĠL GBT
Ġcommit ment
Rober t
Ġillustr ates
U P
C NN
Ġland ing
Ġart ifact
Ġasymptot ically
Ġalign ed
tern oon
c n
ĠWel sh
Ġt uning
ĠM Ps
ish ops
Ġnon trivial
r ise
Ġgovern ments
{ |\
Ġmat ched
Ġpra ised
Ġsp ins
Ġequival ently
ĠMountain s
ĠS tage
Ġdevi ations
ĠFin ancial
ĠD J
Ġpart ly
E F
ĠR io
}^ -
ew ise
n ear
Ġwind s
Ġfriend ly
Ġdis ks
ok a
Ġop ens
ĠOrth odox
ĠCent ury
Ġde eper
K n
)) =
Ġde pos
ĠUp on
De cember
ĠPat ri
ra ctor
}) }{
Ġaddress es
Ġadd itive
D u
ĠO ri
an te
Ġmod ify
ĠCon vention
Ġst ruck
the se
cc entric
Ġcompan ion
ĠMet ro
ĠBanglades h
Ġspec ify
Ġscre ening
Ġs av
Ġgu y
}} ;
ĠM other
ira ble
L u
oun ce
D om
geq slant
Ġpri est
Ġforest s
ĠCar ter
ĠMarsh all
r us
Ġmoment a
hol m
ĠN ar
mult ip
}) :
ĠW as
Ġstr at
Ġjournal ists
Ġinterpol ation
ĠM I
Ġlov ed
ĠAr n
Ġdiv isions
iz z
ĠY es
ĠChall enge
Ġw ides
ob a
Ġill ness
pr ison
Ġflex ible
ĠBrother s
Ġs ends
Ġcharacter ize
Ġbrand s
Ġp overty
ĠT rib
Ã© n
Ġadj oint
r v
om eter
anc ell
ĠUn like
Ġv ortex
Ġorgan isation
ĠG ill
Ġpair ing
Ġcut ting
Ġrel ating
M SE
ĠMet ropolitan
S am
Ġst yles
Ġas ks
ĠB ible
cor r
Ġw et
ĠP rad
Ġres ign
e lection
Ġsup ervised
T F
art icle
let ter
Ġencoura ge
ĠSen ator
ĠFrank lin
M icro
Ġsubstant ially
Ġir re
Ġ )\
ph oton
Ġf abric
ĠH end
Ġt et
Ġawa reness
ov ich
t urn
Ġt ube
effect ive
Ġinc red
Ġestabl ishing
Ġr isks
ĠA qu
ĠDire ct
Ġcl ick
Ġsimpl est
ĠHam pshire
Ġarchitect ures
ĠDel hi
en ame
ĠF ather
Ġstrugg le
Ġcont rary
ĠChe ck
Ġvess els
Ġamb ig
Ġins ights
Ġdis ag
Ġhabit at
ĠT ax
Ġqu bits
ne e
ĠC F
ĠSt ars
s v
Ġinvol vement
ĠMa ine
2 10
r ceil
ĠA N
n orth
Ġinter vention
s ale
Ġwh atever
ĠMean while
Ġdec oder
vel oc
te enth
Ġweak er
Ġd ots
Ġsurpr ise
ĠIndust ry
n ell
ĠCh ange
ic ing
Ġd ict
M r
Ġcon qu
ĠM ake
Ġmethod ology
ĠCh ampion
ĠG ary
ric ane
Ġp or
ĠJ ava
Ġrequest ed
Ġcon vert
Ġsole ly
L ocation
( $\
G al
ĠT rack
ĠR ugby
Ġattract ed
Ġdiv or
Ġcomb in
hom ogeneous
ĠLe ban
ĠL HC
Ġrep air
Ġinst ructions
opt im
Ġvess el
pa per
Ġsign ing
ul u
f m
Ġin jection
R a
ant ed
18 92
Ġprov ider
Ġhealth care
ĠĠĠĠĠĠĠĠĠĠĠĠĠĠĠĠ ĠĠĠĠĠĠ
f are
B U
ĠMan ager
Ġn urs
h our
. -
Ġwork er
Ġav ailability
I EEE
hold er
ty pes
Ġqu iet
Ġbl ind
Ġprison ers
ĠJoh ann
Ġexception al
Ġun likely
18 93
Ġtrans c
Ġnarr ative
l ceil
Ġor ange
Î ±
Ġex clusively
ateg ories
Ġprint ed
ĠM ind
p ref
anc ouver
Ġs itting
18 60
b ing
D esc
an ne
der iv
Ġatt orney
R F
}\, ,
Ġdial ogue
ĠMor ris
G T
Ġcont our
win ning
ĠGra ham
d rop
Ġthem es
Ġgain s
ey er
idel ity
Ġdoll ars
ĠInt eg
ĠVi enna
Ġsequ el
Ġdecre ased
h ill
is o
ĠR u
ĠOper ation
Out put
Ġpro jections
Ġcolon ial
ĠN ord
Ã³ w
St r
s olution
as m
at z
ĠI ce
B a
empor al
re ction
ĠH ind
Work s
Ġp urs
te chn
ĠO d
Com put
\" {
Ġpull ed
| {\
Ġne ck
ij ing
h h
ĠE sp
Ġ ell
supp ort
ĠH orn
e V
Ġn ortheast
Ġre vol
est one
Ġtr im
s outh
Ġt ab
ĠAd v
Vill ages
Ġhy pers
ĠBl ood
ens en
but ton
or bit
ĠO bl
Ġpo em
Ġwould n
Ġglob ally
Ġreal ization
S ever
aut o
Â ©
it ure
ĠMot or
ĠRoman ia
work s
ĠN ap
Ġsum s
ĠDef ine
Ġmod elling
Ġamong st
ĠShe l
m ix
ĠM eg
cc a
ĠWith in
cast ing
diag onal
q q
ĠC her
ĠR equ
Ġo ct
Ġd uties
Ġtrans actions
ĠTam il
ĠE ffect
Ġqual itative
j ar
Ġpreserv es
ress es
Ġflow ers
Ġradi ative
Ġenc ounter
Ġal cohol
Ġrail road
Ġen forcement
arg s
r b
r ator
}$ &
qu ir
Ġobser ver
AL L
Ġw ra
ang led
Ġprof it
L em
ĠG un
* {\
18 85
ER S
Ġbelie ves
Ġutil ize
Nov ember
ĠL l
ĠT ogether
Ġdefin itely
ĠCommun ist
ĠR and
list ed
Ġtal ks
Ġp ion
b oy
$ ^{\
Ġe cho
Inst ance
ĠE M
Or gan
B re
Ġenhance ment
ĠA B
ĠB aker
00 5
Ġbal anced
period ic
L oc
ĠAlf red
Ge orge
Ġste ep
f iles
Ġb ishop
Ġguarante ed
an chor
Ġneg lect
Ġregist ration
st op
Ġsub str
Ġsummar ize
P G
( (\
Ġs weet
) )$,
play er
Ġpaint ed
over ning
Ã¨ re
Ġdefin ite
dire ction
Ġout flow
Ġspirit ual
Ġkil omet
Ã ª
12 4
Ġadvent ure
Ġappoint ment
ĠJim my
ĠCharl ie
Wh ite
}= -
Ġconsider ably
)$ )
hat tan
ĠR ank
Rail way
ĠS eg
Ġlong itudinal
grav ity
Af ric
sur face
pro file
Ġprior ity
in formation
Ġform ulated
ĠEv ans
Ġintegr ating
T om
ation ally
Ġrom antic
re q
F i
Ġcoast al
\, $
Ġcontract s
Ġsuff ering
ĠPol itical
ĠC e
ĠStud io
ĠT ab
ĠK il
Ġ\\ \
Ġoccur ring
Ġmultiplic ity
Ġrig id
Le vel
with out
Ġb at
cons ist
Pro fess
Ġutil ized
D iv
Ġmeaning ful
ĠPrim ary
Ġatmosp heric
Ġcross ed
em ed
Ġsh adow
V A
Ġf ishing
Ġinst ruction
ĠMur ray
Ġphot ometric
ĠW rest
Ġwides pread
Ġcap ability
Ġstay ed
Ġdown town
ĠL en
18 89
ĠAd vis
Ġhist ogram
Ġtw ist
ĠMov ement
Ġr ivers
Ġfin ance
Ġiniti ative
ĠD ate
Ġst ick
ĠH ero
}\ |\
t ask
th a
cl uster
A ir
d ynamics
em e
r ating
Ġnucle us
ĠJos Ã©
Ġneighbour hood
Ġl ying
Ġs aved
ĠStan ley
ĠCommunic ations
ĠFin ance
ĠV egas
hand ed
Ġposs ibilities
Ġco arse
Ġreview ed
ĠM aj
M ag
class ical
Ġf oss
form at
ĠH old
Ġmeas urable
requ est
ĠAssum ption
ĠJ enn
Ġfra ud
Ġantic ip
Ġsp oken
Comm and
r ates
b ol
d ays
ĠCar ib
Ġrot ational
Ġreserv oir
Ġdeput y
ich let
ug oslav
apt ist
),\ \
Ġexperiment ally
d p
Ġde als
ĠF L
Ġdiff ers
S chool
Ġfacilit ate
Ġd rag
op les
m ir
12 7
Ġdiv isor
ĠT H
ant ics
ack nowled
ern els
r if
ĠR ud
17 5
Ġth orough
ud son
Ġpref e
Ġman ual
Ġconstitu ency
usal em
Ġport rait
on ian
Ġt issue
do i
Ġven ues
Ġsuccess or
ces ter
Ġn m
. ),
L y
Ġconsider ations
iter ranean
n ia
Ġcomp ound
re view
r k
sc ore
ĠTra il
} '$
R ow
ĠM embers
Ġsub stitute
r h
Ġmod ifications
t ics
Ġaccord ance
iv ia
n c
18 91
). $
be ing
Ġbre ath
Ġ rib
Ġb io
18 94
)\ |_{
Ġcl imb
Ġst range
ĠSt ra
pg f
c am
Ġconf ident
com parison
G W
i ology
Ġcut off
Ġt elling
Ġhom ology
i est
cos ystem
ups ilon
ĠEnvironment al
ĠTe V
^* ,
ĠM ack
S earch
C ross
ĠP O
b x
P ass
ĠAfghan istan
lic ations
Ġp sy
ĠC arn
Ġin ert
Ġquant ization
Ġart istic
)} }\
P a
Ġg amma
Ġjoint ly
L aw
Ġsuspend ed
Ġdelay ed
m ates
v ision
g as
ĠRes ources
assum ption
Ġplan ar
ĠL ock
Ġke ys
Ġmill ions
Ġc ous
j son
l ied
build ing
Ġnorth west
Ġjuris d
ĠOver all
Ġevalu ating
Europe an
J ack
us k
Ġnegot i
] }$
G ood
Ġcooper ation
or dered
Ġswitch ing
Ġt rick
Ġr uling
t ar
p ay
et on
Ġel der
ba ij
On ly
Ġour selves
Ġhon est
iz on
P et
mon th
$ ^\
P H
Ġan nu
ĠProte ction
) _\
Ġpremie red
Ġneur ons
ĠP lease
ĠE lementary
Ġactiv ist
Sup er
ce q
) {$
Ġan ne
Ġcr imes
ĠC C
ab e
Ġmiss ions
O ptions
k u
ĠMov ie
Ġnot iced
ĠP sych
Ġencoura ged
Ġc able
ĠLeg end
S uch
qu al
ĠP ic
A rm
Ġdest ruction
ĠHun ter
Ġe V
em ale
Ġcom ed
Ġres um
comp are
ĠPort land
L D
W ar
F ound
Ġel abor
Ġvis cosity
M W
ĠR ap
ĠFig s
ne cess
\% ,
Con clusions
Ġqu art
min ute
Pol itical
Ġsustain able
Ġgener a
zer baij
Ġden ied
ĠP rice
Ġaggreg ate
Ġsimpl ify
Med al
Ġaff airs
c ient
ĠP ract
Ġass emb
asg ow
d at
ĠPro duct
Ġtim ing
ĠInd ex
Ġorgan ic
Ġwe bs
Ġjud g
Ġarbitr arily
it ime
em or
ik es
Ġbehavi ors
sup ers
par amet
Ġt ur
ser ver
qu ote
ĠEd itor
ĠCa uchy
fl ux
Ġpark ing
I B
ĠW i
Ġtru ck
Ġsqu ared
Ġimp ose
Ġre write
Ġgener ations
Ġent reprene
oper ator
Ġenvelop e
Ġa ck
Ġdiv is
ĠB ud
Ġeng agement
f und
s ig
L ater
ĠSt orm
Ġm ail
ĠCl inton
ĠBe ck
B en
Ġkee ps
ĠTe le
Ġdepart ure
pot ent
gener ated
E u
iv ities
ĠV enezuel
ym p
ĠSp irit
Ġg rate
ak ov
ĠH indu
Ġf antasy
ĠB esides
Ġcyl ind
d v
ter ms
Ġabs ent
Ġp in
j or
ĠF r
Ġcorre cted
Ġmod ulation
Y PE
Ġsl ot
L ag
Ġcon sp
Ġcount ies
ley ball
Ġ ic
st ory
ĠR F
P rodu
e eq
ĠAtt orney
Ġdiv ide
Ġestim ating
}}{ (
rg b
Ġstream s
ĠBroad way
L ike
ĠCarl os
Ġi i
ĠL iving
d c
Ġsupp lement
Ġevolution ary
N or
ĠW ik
ĠI o
ush ing
ĠF ine
Å Ħ
Ġt act
Ġin herent
writ ing
ĠG raph
ĠG alaxy
ĠComput er
ĠPh D
at im
Ġc ul
ĠAnd roid
ĠĠĠĠ ĠĠĊ
ĠT ree
W ang
sec urity
Ġindic ator
cor relation
Ġincorpor ate
P roduction
Ġsp iral
' ),
}\ |_{
18 88
be fore
C K
ber ry
Ġe at
abl ing
Ġp ushed
ĠW ing
b en
ĠT ower
Ġout standing
\\ [
ĠEconom ics
ĠFI FA
Ġpol es
ä ¸
ĠI van
Ġas c
18 65
Ġexplo it
ĠJon athan
z h
V s
ĠA ld
Ġ& -
vol ume
g re
Ġstreng then
ur u
Ġcomp rom
Ġmountain s
Ġadm issible
ee per
Ġfarm ers
form ations
ent ity
Ġver ification
ĠAss istant
om at
Ġinflu ences
Ġcritic ized
12 1
ĠT ob
Ġr hythm
ĠL A
Ġinflu ential
ĠBl ues
Ġsuppl ies
ĠK os
Ġmount ed
el ic
b ian
Col umn
Ġsk ew
K ing
S il
Ġca ps
ĠR ural
Ġcompl aint
N G
ĠY et
ĠI an
ĠStud ent
Ġse eds
ĠThe ater
ĠF ind
ĠIn s
Ġinteg rate
Ġ* *
ish ments
ĠArt icle
Ġview ers
ĠG as
C oll
ĠY u
b us
Ġin vertible
Ġg olf
fill draw
head er
Ġvis its
Se lect
H ig
H en
m ont
7 50
ĠF ight
Post ed
equ ilibrium
ĠY uk
ĠOper a
Ġa fore
Ġrem ind
ĠCoul omb
pl er
f am
Ġfactor ization
id ad
ik o
Ġrare ly
Ġb ol
Ġ+ =
st ration
ĠJ azz
Ġim prison
2 30
con c
Ġl ingu
ro c
sc ar
comp onents
Ġent ers
Ġinv ariants
Ar g
^* _{
ĠGu y
am er
ĠAnd y
12 6
Ġan chor
h um
Ġpar agraph
St and
Ġweap on
F ore
Ġal ive
}, $
Ġprot ocols
Ġplan es
end ers
Ġt idal
Ġin jective
Ġphot ography
Ġmanag ing
li ers
Ġmotiv ation
ĠN ad
ĠBir mingham
Ġcaref ul
Ġm ock
M iss
comm unic
Ġreserv ed
Ġover head
Ġuncer tain
if le
ĠN am
Ġd ogs
Ġsk ill
uch i
Ġc ache
Ġmem orial
Ġto kens
ol ia
ĠP ictures
T otal
}$ ~
Ġdecl ined
an im
Ġdist inction
ph ysical
uls ion
ĠC er
14 4
Ġoutper forms
Ġign ored
Ġmathemat ics
Ġant ib
Ġcry pt
Ġprov incial
ĠD ays
bound ary
Ġcalcul ating
pro j
Ġco herence
N orm
f iction
ĠC ricket
Ġcl im
Ġphot ographer
Ġpair wise
D raw
Ġlearn s
E G
ĠB asketball
J ew
ĠMit chell
B ound
ĠB illy
â ĪĴ
)} ]
asg uns
carl asguns
ĠT s
ĠO range
ĠWay ne
ĠB ron
ĠEx change
un ning
ĠR acing
o i
ĠM aterial
}^{ *
ĠS r
Ġsp ots
ĠM ak
ens ing
ĠSoft ware
Ġw ounded
Ġreg iment
Ġprov iders
Ġswim ming
Ñ Į
ĠProfess ional
ĠBern ard
T P
aval ry
x ml
l attice
the o
ĠÂ ·
| }\
em a
Ġnewsp apers
ĠCon stant
Ġcompos ers
b os
Ġsub div
Ġconcent rated
ut ter
Ġpoint ing
Ġins pe
our t
Ġexcit ing
acknowled g
ĠE ver
Ġpeak ed
Ġre ject
Ġev il
inn ed
ed ed
Ġper pendicular
Ġad mit
sat z
he v
ĠPart ners
Ġperturb ative
ĠColon el
)- (
ĠS oul
Ġb rick
Ġoccasion ally
Ġimpact s
c ir
ĠP od
ĠS ource
ĠC ore
Me V
ĠG round
Ġachie ving
A ccess
om on
Ġhighlight ed
Ġack nowledge
S en
weight ed
el astic
o es
Ġcam eras
Ġgra in
plac ian
Ġanomal ous
T w
ĠP il
g ap
T I
Ġs ake
rib uted
Ġsu icide
Ġmass less
T ree
18 50
}) ,\
ĠB omb
{ }\
ĠV ic
Ġint ense
Ġgeom et
L ou
ĠP red
for ced
Ġhol iday
att ices
Ġfill ing
e or
Ġl ad
ĠRel ations
ĠSpe ed
Ġinfer red
Ġin frared
Ġhe ur
ĠPark er
Ġdef ence
Ġelim inate
F OR
Ġk ernels
New s
Ġminor ity
ever y
ĠM all
Å ¾
ĠRe yn
Re view
f eld
Ġs alt
imens ion
Ġobject ives
b racket
ĠAnn ual
ĠC ultural
Ġconstruct ing
Ġbos ons
Ġimp ressive
inst ance
Ġqual ifying
check mark
ix el
ĠJ a
Ġa xi
uc lear
Ġdaugh ters
ĠLe vel
Ġf irms
the sis
sup set
Ġdro ps
Ġking dom
Pro ject
T ask
)$ ;
qu et
Ġprot otype
Ġland mark
ĠOtt oman
B uffer
Ġmagn itudes
rel ations
he tic
pt ive
ĠSte el
pt r
~~ ~
.\ ]
Ġelig ible
Ġpreserv ing
ĠT ournament
18 00
Ġresc ue
ĠBar ry
Ġh orses
Ġapp endix
Ġinvestig ations
ut o
Th omas
ĠB R
Ġf inger
ĠUr ban
ĠConserv ative
Ġsk etch
osp here
Ġreg ulation
T em
ĠF u
ĠJohn ny
ĠH ope
Ġd ub
Ġthreat ened
Ġtw isted
, $$
mid t
; &
bor ne
Ġcof fee
ĠL ac
19 0
op al
Ġre cre
ad joint
Ġaf ternoon
ĠR O
ĠB og
Ġsto pping
Ġrenormal ization
t is
row ing
al gebras
Cor ollary
Ġfin als
Ġcyl inder
Ġprocess ed
18 87
ĠBar cel
ĠT u
ĠR L
Ġgen es
ethe less
Ġthere in
app endix
M N
Ġhigh lights
Ġthermod ynamic
' ).
ĠW u
Ġ[ -
b ishop
Ġstructure d
Ġm apped
new s
om ing
ĠSh a
os opher
Ġm or
ĠÃ ł
as ant
Ġr ub
Ġspeak ers
Ġc oding
Feb ruary
Con f
Ġgu ests
Ġ{ @
T L
Ġcomplex es
miss ions
Ġmole cule
par ing
Ġprom ise
ĠJer usalem
Ġl oyal
integ ral
ran es
Ġsuff er
Ġe ccentric
t n
ĠAl aska
G ame
ĠW I
ot an
D er
as hes
Ġamaz ing
m el
ĠF alls
at ial
oth y
Ġpain ters
Ġg ay
Ġsus p
Ġincor rect
ĠLabor atory
mathb in
Ġpat ches
Ġwire less
Ġrestaur ants
Ġcontrovers ial
__ __
Hand ler
ĠM ong
)) ^
ip edia
ĠSy ria
Ġe ase
ĠNev ada
Ġcross es
Ġcomp ounds
18 61
ĠInd ians
AB LE
ĠMar vel
ĠClass ic
lim ited
ĠB ond
eth yl
ĠAthlet ic
ĠR at
B G
ĠMax well
m und
p n
ĠHawai i
Ġh az
Ġep id
AC E
k ip
Ġturbul ence
ĠW or
ed a
ult an
Ġcon sequently
ĠT rophy
ĠB it
Ġh ip
ĠSl ov
pos ing
ĠMach ine
ph abet
ic z
st ock
Ġre tain
Ġex terior
È Ļ
}\, .
Ġ( .
Ġapart ment
C at
ak u
Ġd elta
ĠO pp
ĠSa udi
ĠB orel
im it
18 86
Ġsupp orters
ĠC hern
Ġfl ights
umb ent
Ġagric ulture
iss a
veloc ity
ĠFre edom
st atus
ĠStud ents
Ġcred ited
V E
os hi
Ġc reat
D s
ð Ł
Ġunder ground
G Hz
ĠD ifferent
ac les
Ġlog ical
[ ]{
Ġchem istry
F s
aw s
Ġdiagn osis
Ġcomplet eness
ĠSoc cer
U se
15 00
Sever al
sl ashed
dec ay
ur ated
rist ol
Ġcov ariant
T own
Ġindu ce
Ga ussian
Ġinnov ative
ĠU lt
part y
ou rag
F W
ĠSal v
te ch
est im
ĠC BS
ha o
S ON
Ġsho pping
Ġs outheast
T ur
Ġtra p
ĠP ant
hav ior
Ġpreced ing
3 000
Ġrecommend ations
Ġinterview s
Ġtrac es
Ġminim izing
Ġiniti ated
12 2
Ġrel ate
Ġn aval
che m
Ġpropos als
Ġpurs ue
ph ot
ro le
ĠS ect
Ġst ops
and roid
Ġd ated
N ull
Ġcompar isons
ĠPlan ck
Ġprofession als
Ġconf usion
pan cy
ĠDef ence
Ġin coming
Ġport folio
e u
Ġb ipart
r aska
Ġb alls
Ġbut ton
ĠB ranch
ĠBen jamin
Ġt orsion
Ġcolle ges
st ore
ĠMan hattan
Ġcricket ers
ĠColl ins
Ġun expected
ĠMunic ipality
00 3
Ġcorn ers
ĠNorm an
F G
Fil ter
Ġto w
Mult i
Ġw arning
O ld
ĠSe ven
$ ~\
Ġf rust
Ġrun ner
ha us
B s
ir th
ham mad
M s
Ġr um
ĠV ancouver
harm onic
class es
ac re
f its
Ġar row
m ade
ĠF ab
Ġnom ination
e ctions
Ġreg imes
ac o
ã Ģ
Ġindust ries
Ġsim ulate
uc ks
Ġsubs idi
ĠLe aders
Ġmed ieval
ĠDr ive
Ġgl uon
fl ix
Ġsouth west
}) +
ĠS elf
Ġmonth ly
Ġsh ots
Ex ec
Ġlaw yers
ĠInst agram
Ġmemb rane
Ġdif fe
Ġgu idelines
ĠCarib bean
Ġexist ed
]{ $
Ġemphas ize
Cre ate
ĠJ ess
g ression
her s
ĠTurn er
Ġtrans mitted
Ġsp ont
Ġmon op
ĠS ay
Ġapp s
Ġdifferent iable
e igen
Form at
Ġdist ant
Ġpro ud
ĠFac ulty
Ġparticip ating
ĠĠĠĠĠĠĠĠĠĠĠĠĠĠĠĠ ĠĠĠĠĠĠĠĠĠ
Ġaccept ance
b eq
V C
W al
Ġhierarch ical
E ast
ĠS or
Ġreported ly
Ġafore mentioned
ert s
L ear
ang o
arri ers
Ġrest oration
o ons
ĠCle arly
Ġc rack
Ġdisapp oint
Ã Ĥ
ĠV erm
ĠWar ren
ĠFl ore
h m
ĠZ one
Ġiter ative
Ġg ard
Ġign ore
g un
on na
Ñģ ÑĤ
ĠMult i
Ġgen u
Aut hor
Ġl ibraries
Ġsc attered
S to
'' $
Ġdeb uted
o ft
Ġw ings
Ġconnect ivity
ĠL ithuan
ĠCr ime
ĠC arm
AC K
E lect
Ġsear ches
ĠN P
duc ational
\ `
F actory
pan ic
ic ip
Ġoptim ize
Ġext rapol
U pdate
Ġrem arks
ĠMag ic
ĠBarcel ona
Ġs ick
c ussion
ĠG ray
ĠGl asgow
ro oms
Ġfor b
W ell
. ]
. âĢĻ
ĠOper ations
Ġwood en
d m
Ġexcit ations
ens ions
p b
Ġrepeated ly
Ġcomput ers
d dot
Ġ" ""
st ad
Sh ort
d ark
Ġcred its
ag ger
we ek
ĠLe v
Ġcy ber
E W
D ire
00 2
: (
ol in
ĠCat hedral
Ġ ).
ch anges
Ġqu ar
Ġrel ay
y y
Ġdetermin ant
Ġrespond ed
ĠCon struction
Ġover s
Ġtravel ing
ĠCh air
form ula
Ġleg it
Ġstar red
Ġnav igation
Ġsub mar
Ġoccur rence
Ġcontro versy
Ġannu ally
] _{\
ict ions
' +
par se
Ġknow ing
à ¦
^+ (
Ġar rows
ĠMil an
Ġeng age
Ġmob ility
ĠS now
ust ain
18 64
Def ault
contin uous
}{ .
Ġa z
Ġun success
dot ted
ĠY am
Ġc ra
N a
f itting
F our
Ġbeg un
ĠGre ater
Ġinsp iration
Ġcampaign s
Ġb undles
ĠNaz i
ĠPho enix
m iral
ig s
Ġdr ink
Ġpe er
ĠBe ijing
pl ain
ĠÐ ¿
Ù Ħ
ĠPro perty
ĠW ord
ĠInt elligence
ĠJ oy
ke ley
Te am
Ġcas ual
ov es
Ġguitar ist
A K
Pro perties
ĠPier re
is ers
L U
Ġpart itions
hook rightarrow
Ġprot ests
Ġvic inity
ĠP ast
Ġdo ors
}} -\
Ġg all
ĠT ol
Ġmorphism s
Un ivers
ĠR av
ĠR ico
atter ing
Ġviol ent
Ġneg lected
ent ropy
Ġad op
Ġexplos ion
Ġc ores
Ġuniqu eness
ĠPrad esh
us p
Def ine
ĠV as
Ġactiv ists
ĠCh ron
uk a
Ġph rase
ĠYork shire
v dash
w hel
ins ky
ir k
Ġdram atic
Sp anish
., ][]{
c v
Ġtw in
Ġind igenous
ros so
S om
z hang
ryst al
Ġs hed
Gl obal
Ġrele g
ĠSh ang
ĠRet urn
ĠS z
Ġcon g
ĠE li
at om
uck er
ĠN BC
Ġra ising
ier ra
ĠScient ific
Ġb orders
act ing
ina e
Ġy es
Ġb il
ĠBar bara
Ġf ake
18 84
Ġin version
ul ates
par a
Ġw edding
ĠC ant
ĠL ad
Ġlect ure
Ġconnect s
b v
Ġ }(
Ġval ued
mod al
ĠSaf ety
D ay
Ġnot ations
Ġven ue
M em
l ia
ich i
En c
.\ ,\
ĠLic ense
Â ½
Ġle ver
Ġim per
ĠC ox
orient ed
19 2
Ġsearch ing
ĠN at
Ġsubgroup s
Ġint ellectual
ĠTra vel
E ffect
bu f
ĠM ans
Ġc asc
Ġleg acy
Ġgeneral ize
Ġarchitect ural
B al
Ġb rig
Ġv ort
ĠOr iginal
ĠRiemann ian
Ġpres um
Ġp up
act eria
ĠGu inea
ĠA ra
Ġconserv ed
Ġsurv iving
Ġfl ash
hu a
Ġtransform s
Ġmag azines
Ġfe es
triang leq
ĠForm ula
s ame
Ġdeep ly
elect ron
3 20
h ome
Ñ ĩ
ĠEgypt ian
m ac
Ġcom ics
pro to
ĠF ly
Ġf ur
Ġgr ants
Ġpo ems
Ġf ictional
ĠB enn
ĠD ol
ĠB orn
ĠF itz
writ ers
Ġtick et
Ġthough ts
Ġclaim ing
al p
Ġe cosystem
ord inary
18 81
18 68
P ack
end or
non ym
| $.
14 5
cast le
ĠN icol
um s
ĠCommission er
cess or
un ov
ĠS H
Ġback ward
plement ation
ĠPh oto
Ġinstall ation
d n
Ġre ven
f ollowing
Ġass ass
ĠSer ge
l ies
ĠAcc ount
Ġphotograph s
Ġcol ored
Ġaltern ate
Ġabund ances
comp at
ap ters
}: \
|\ ,
Ġl os
ĠL ud
c b
, +
system s
Ġm oral
comp ass
Ġp our
ve ction
Ġselect ing
18 63
}- -\
Ġelev ation
est imate
bre aking
ĠSD SS
it arian
ex ec
Ã Ł
ĠP el
S n
Ġpar am
s eg
Ġg aps
ĠR ing
Ġ\ )
Ġbusiness man
A re
Ġoscill ation
Equ al
ĠCl iff
Ġwebs ites
s om
ĠM ust
ĠS olar
Ġtack le
Ġunder go
ĠK ol
Ġaccount ing
ĠN ULL
}} }(
f ers
Ġte ch
ĠObl ast
ĠZ hang
ĠF R
Ġcomplet ing
Ġliber al
C B
ĠU g
Ġp ric
18 82
no align
ĠRich mond
Ġt ies
u art
nav bar
id ation
ĠRepublic ans
rosc opy
ĠL an
Ġg athered
ĠL ook
Ġillust ration
Ġcontrib utes
f un
Ġcont ents
Ġpredict s
ry ing
ag ar
Ġinc idents
5 000
Ġ\ %
Se lected
n p
Ġprob abilistic
13 2
OR T
the ore
ent e
Ġcomm une
ĠMin or
Ġent hus
Ġsil ent
ĠCharl otte
Ġp ul
Ġt ill
ĠPl ant
T oken
Ġtroub le
produ ction
Ġover se
âĢ ī
Ġgovern ed
ĠSte ven
V R
ak ia
Ġfit ness
ĠOther wise
Ġop acity
Ġinf o
Ġt elescope
ĠF ix
Ġmot ions
ent i
ĠAlber ta
Ġcomp iled
ĠTig ers
15 5
Ġserious ly
Ġab road
t rain
Ġv in
lay out
Ġth irty
Ġdefe ating
ap or
ĠCh art
Ġcompos itions
Ġgu ys
Ġbound ing
Ġcancell ed
Ġconc aten
ĠR angers
ĠK l
Ġmon ument
Ġd rew
ÑĢ Ð°
H o
hem atic
ĠRo om
W il
ĠF lo
âĢĻ ,
Ġhospit als
=\ !
Ġsupp ression
ĠIn n
s pl
ass y
ĠO S
ĠHe b
ĠGi ants
\ @
et ics
Ġpre val
Ġsurv iv
Disc ussion
Ġposs ession
ĠAnd re
Res ource
ĠSerb ia
Ġdiss ipation
ĠSaint s
Ġbary on
ĠF am
Par ameter
ke V
ĠAthlet ics
M ad
Ġgu ilty
Ġrefer ring
\ ),
Ġb one
Ġlic ensed
ĠFinn ish
Ġsh ield
ĠRes erv
Ġpref erence
ord ination
ĠPref ecture
ĠS ax
ĠL uther
ast rop
ĠUn fortunately
Ġin sect
ack s
utr ition
all ing
Ġanisot ropy
im pro
Ph one
ĠHar rison
ĠBelg ian
ig o
Ġmon omial
Ġelect oral
ilton ian
ĠB ass
M ot
ĠMed iterranean
con e
Bl ue
Ġconj unction
Ġir regular
Ġv ital
Ġmanufacture rs
ĠE ug
ĠM ix
Ġorgan isations
ĠT otal
ĠS I
ĠWrest ling
ĠF el
ĠIs a
Ġred shifts
n od
ogene ity
Ġtra ct
Ġinteg rable
ĠAlex and
Ġbond s
K O
$ /
ĠS ad
AC T
ĠN ear
= [
Ġcl othing
n atural
P os
ĠD og
ĠNov a
Dist ribution
Ġk pc
as p
Ġexp ans
ric ks
Ġengine ers
Ġrecommend ation
ĠArab ic
Ġa pert
Ġl ots
Ġdial ect
Ġspecial ized
it ol
ĠJ ama
Ġconclud es
ro at
Ġ ×
We ek
Ġinv al
Sim ilar
Ġin fe
Att ribute
Ġdimension less
}$ \\
Ġacqu ire
Ġprom oting
Ġpolar ized
Ġmunicipal ities
ĠF ed
Ġme at
ĠUnivers al
ĠM obile
Ġdefect s
ch ing
18 76
13 4
ĠH R
ĠTechn ical
ache l
ĠA zerbaij
Ġg overning
ĠT ib
us ive
Ġexpl oring
Ġpredict ive
Ġes c
Dem ographics
over rightarrow
}{ -
Ġfilm ed
Ġwel come
are a
ond o
m icro
Ġdescript ions
Ġcon gress
Ġbur st
pl ots
Ġt iny
Ġg allery
Ġbre ast
Ġcook ies
Ġh ook
Ġint ra
Ġele ven
^* $.
ĠS ymph
Ġle pton
ur c
Ġdiscrim ination
Y es
h uman
ann ah
scal ar
Ġpo ets
Ġviol in
Ġide als
b oot
Pl ace
ĠC row
J an
W ho
ĠF act
Ġmanufacture r
ol en
18 75
Ġbroad er
ĠOl iver
Ġcolle agues
B ro
ĠT ask
App endix
Ġmes on
Ġthe sis
Ġh aven
Ðµ Ð½
bur st
ĠI da
18 62
C r
Ġt ort
ĠT un
ĠIn v
ĠBuff alo
}: =\
ĠCra ig
ĠCan cer
ĠP le
R ou
Ġpay ments
Equ ation
m aterial
is an
ick en
tra ce
Ġdep ression
Ġtriang les
hy dro
HT ML
Ġsynd rome
oc hem
in ality
ĠPar ish
in aries
ĠR S
Ġsudden ly
Ġg od
ĠKe ith
L arge
ĠC ert
Ġl ip
ĠI F
ĠPer u
Ġlab elled
L ee
-\ !
Ġste re
Ġsl ice
z ed
ĠB our
Ġaut onomous
ĠFran ces
Ġtown ship
Ġvulner able
Al umni
Ġfra ctions
Ġun clear
ine e
uss ia
is ch
ĠCost a
T ok
ĠS ob
aster y
Ġt one
ĠHig her
m iddle
inc inn
Ġp ian
Ġl ap
^+ _
Ġapprop ri
ta ken
Ġdeploy ment
cel and
Ġif f
ĠComm ons
Ġtax es
ĠRef s
ist ance
Cont in
it ual
) )}
Ġla ugh
Over view
Ġencoun tered
ial og
Ġpref ix
ĠKir k
ĸ Ī
ĠFig ures
ĠBeng al
p atch
represent ation
symm etry
RE F
Ġpay ing
ĠConf eder
18 83
ess el
Ġb es
B usiness
ĠIran ian
d iamond
Ġout door
l ater
Ġcompris es
_{\ {
ir s
Ġstri king
Ġterrit ories
it ially
ithm etic
ta king
Ġwal ks
Ġdown stream
ah ler
Ġconf ront
13 6
Ġopp onents
AG E
Rec ord
ĠAl ong
ĠC atherine
Ġorig ins
off set
ĠB rew
Ġrel iability
i w
Ġb ubble
sp ring
ĠSpr ings
ĠColomb ia
ĠH ave
Ġsound track
ĠAd vanced
M ode
el o
ĠP in
Ġfl oat
Ġspec ification
ill ance
ĠAn ti
ĠE ston
marg in
ic ious
Ġrep orter
Ġbatt les
Ġcomp lementary
ĠLiter ature
ĠSe x
ag ers
Ġcont raction
ber ger
ĠG arc
n as
arri ors
ĠCl a
s ay
Ġre un
Ġfilter ing
Ġtriang ular
Go ogle
conver gence
Ġra ys
ri en
incinn ati
il ia
ph al
. ).
22 5
Ġoutl ined
Ġion ization
Ġf ed
en ius
Ġconv icted
ri er
ĠY ugoslav
sch ild
umb le
Ġâ ĨĴ
pp e
arc sec
Ġcoal ition
T erm
ĠF ile
ĠD elta
Ġob sc
Ġsp anning
ĠW es
) }^{
ĠB achelor
ĠN OT
amp a
. }}
w alk
P eter
Ġpl acing
oped ia
ass er
Ġcounterpart s
Ġfeel ings
f ar
Ġsn aps
ĠCov id
itt en
spect rum
). \
ph on
y ll
ĠD est
Ġon set
le tt
ash a
the ir
ĠAl bum
ĠLi u
Ġb ull
ĠT aking
Ġopp onent
ĠV lad
Rich ard
re x
N etwork
Ġsh ore
ke ep
Com mon
Ġexhib ited
aj a
Ġpl ug
Ġcoach ing
Ġsimplic ial
Ġmetall ic
load s
Ġs or
ĠD iamond
Ġarrang ements
Ġimpl ied
iv o
Ġres ort
Ġscient ist
Ġem otion
Ġas set
Ġnorm s
Ġdec oding
T ab
Ġw ake
Ġportray ed
Ġj ournals
ĠK ath
Ġpl ates
ĠVal ue
impl ies
! }
}}{ {\
Ġexped ition
Ġg ross
}= -\
Ġestim ators
pres erv
Ġhe x
t m
ĠA F
Ġsoph istic
p any
K im
Ġl ux
Ġexam ination
ĠC ole
ĠH IV
et ta
ag h
Ġemphas is
ĠN an
_ .
Ġun changed
ĠMe chan
| ,
Rem ark
Ġens uring
Ġcapt ures
ĠN L
N i
Ġcons ent
ĠD raft
chi at
Ġabsor bed
Ġun e
Ġafter wards
Ġ& =\
an cer
Ġperm itted
m ot
Ġmon arch
Ġâ Ĥ¬
$ ]
Ġad i
approxim ation
k w
D eb
Ġch ronic
}) }{\
al ong
An n
Ġrem n
ĠH udson
B V
Ġannounce ment
Ġcompens ation
book s
el ing
ull ivan
Ġcontain er
P rior
ĠTh anks
ole v
Ġfast est
Ġpoor ly
Ġwavel engths
am o
ĠCl aim
Ġrat ings
18 78
om i
ĠNeb raska
ĠR idge
Ġsold ier
ĠG ot
Ġevol ve
Ġconstant ly
al go
ĠN iger
Ġconduct ivity
Ġinter cept
ĠS ide
g auge
ĠJ en
ĠSt art
Ġstreng ths
Ġsuppl ied
E nergy
Ġdec ides
Ġcheck ing
ĠGh ana
ĠSte in
ie ve
Ġbackground s
ex cept
le igh
Ġdig it
ĠKen ya
Ġh ub
ĠE c
L ength
h aw
)}\ \
Ġcirc uits
Ġspeed s
ix on
Ġmaxim ize
ric ulum
Ġdon ated
re nder
Ġpod cast
Ġcoun sel
b ie
con nection
Ġsp okes
* /
ĠD ragon
rot ate
ut er
Ġe ighth
ow ards
ĠO wn
ĠVictor ian
Ġassert ion
Des ign
ĠFor um
ar ound
ynam ical
Ġh op
re ck
ĠL ate
^ -\
Ġs ad
ĠChrist ians
12 9
Ġb eta
ĠPh ase
. ][]{
Ġadjust ed
Ġanten na
Ġconsc ious
\ ).
Ġthreat s
? ?
Ph oto
Ġj u
ĠPro f
ach i
ĠL arge
Ġm im
Te chn
13 3
Ġt orn
ter min
Ġper ceived
Ġcontroll ing
ĠA da
ĠL oss
ine q
ĠG rey
ĠP L
ma ps
Ġtra pped
Ġcap ac
om es
Ġcumul ative
ĠV el
f erm
Ġam ateur
) ]{
Ġatt ending
Ġt anks
Ġrev ised
ĠG ate
Ġaccept able
ress ing
Ġturbul ent
}} %
Ġle pt
on ing
Ġanalyz ing
ON T
it ory
Ġchampions hips
Rad io
{ %
ĠM ut
Se ason
asc ript
ĠNich olas
ĠJ oint
du ction
med ia
ĠT oy
tz mann
ĠP oll
og y
Ġor chestra
ĠC old
inc ar
sp ired
ĠFl ight
F rank
ĠM E
ly ph
ĠL ions
Al bums
Ġspect roscopic
Ġact ively
ĠCo al
Ġp arks
ĠMuslim s
Ġpro l
Ġb ij
ĠB aptist
Ġhard er
ĠJer ry
Char les
ĠCl ay
ta wa
ĠPr ivate
Ġrad ar
ster dam
Ġcoron avirus
im ath
Ġact ed
am ic
ole cular
ir ts
ĠMu hammad
Ġspat ially
ĠObserv atory
cl oud
16 5
Ġmem or
Ġhy p
{- .
Ġrout ine
Ġdiscre pancy
Ġpow ered
Ġinspe ction
M el
Ġthe at
ĠS id
Ġcal endar
ĠMas ters
Ġprior i
z hou
Lay out
d g
Ġg a
R oyal
_+ $
ĠF low
Ġdoub les
ev olution
Ġaddition ally
Ġan ime
k an
ĠW W
f ollow
ĠPro test
li u
Ġfre ely
Ġb le
1 19
te es
ĠD ise
ĠF O
}} [
Ġanim ation
S ocial
other wise
Ġc inema
Ġshall ow
ĠM uch
ĠN y
ĠN HL
ĠB ird
is i
Ġpl enty
Ġ$( {\
Le ague
ĠAut o
H u
Ġdist ortion
Ġde com
label ed
ĠArch itecture
Ġb ridges
Ġdifferent ly
ĠB right
Sh ow
ĠBan ach
Ġmin isters
um i
^* $,
Ġoccas ions
Â ±
ĠO il
Ġfermion ic
Ġpriv ile
Ġh ull
ĠP ick
Ġcous in
Ġcompl iance
}} |
Ġanalog ue
ĠT on
ĠSt ore
18 67
=\ ,
m g
ĠVin cent
D G
Ġb rowser
Ġconcent rations
ro e
F IG
Ġm ig
ĠRob in
ath on
ĠL ost
NN s
Sm ith
ĠArt ist
bas is
ĠAd S
Ġdisc ount
f olk
Ġw ick
Ġm i
ĠLe ader
Ġprogress ive
Ġd up
cl ed
Ġinfin itely
X Y
Ġproxim ity
ĠH aving
c op
ĠAr ray
}^{ -\
g io
Re lease
Ġrelev ance
om ed
T s
Ġlocomot ives
Ġhe li
]{ @{}
Ġautom ated
Ġearth qu
ĠSt ories
ounc ill
Ġpron ounced
ĠC ele
Ġflex ibility
hib ition
z es
ain ing
Ġs ax
it us
Ġhand led
Ġb racket
ĠSong s
Ġaccommod ate
ĠDir ichlet
âĢĻ .
ex istence
G re
ĠM ason
ling ton
ck e
ĠChe l
P rim
ĠAst ron
Ġdamp ing
ĠDen ver
Cont roller
Ġto ugh
ĠO cc
yn man
He ad
Ġpar abolic
ĠFri ends
Ġcont ours
iv ic
est on
ï ¿
v ity
re k
ical s
Ġleg islative
}}( {\
Ġl ights
nu cle
B ERT
18 79
C ity
Ġcomment ed
ĠReyn olds
Ġsusp ension
Ġadopt ion
Ġbut ter
ĠAnt ar
Ġl ung
ĠN A
eng u
Ġmodul o
Spec ial
i racy
Ġcor ollary
Ġb oss
Ġingred ients
ĠEx per
ĠSch r
//////// ////////
Ġres cal
Ġdis sol
ĠBe aut
Ġd ose
ĠG Hz
Ġbirth day
Person nel
st yles
Ġche cks
Ġput s
Ġde emed
Ġ ...,
Ġlast ed
I ll
Ġhistor ians
Ġsc an
Ġcol ours
rem ove
ĠIndust rial
al is
Ġyoung est
ĠF OR
ĠR ange
ĠL ess
ĠD id
ie v
ĠA x
Ġle tting
ĠP or
Ġvirt ually
ĠC ot
Ġt ape
Ġle ak
bas ic
ĠT alk
Ġover whel
Ġsem igroup
Ġc er
ro us
S un
ĠGon z
Ġcollect ing
18 73
Ġmy ster
Ġbas ically
associ ated
ĠK el
Ġco ins
C hen
Ð ·
group s
Ġmain stream
P y
ab ol
ĠMun ich
Ġg raphics
Ġorgan ised
C G
ĠM R
ĠC N
Ġsec ured
18 71
Wid th
Ġbon us
S B
Ġcelebr ate
Ġreson ant
a ft
id ency
Ġenc ourag
Am ong
ĠK ay
bra ham
Ġas ymmetric
Ġexpert ise
or ia
Ġb if
ty p
18 74
Ġdis aster
ĠWork ing
[ "
\% .
Ġparamet ric
13 7
Ġattempt ing
f ix
Ġper ception
Ġend emic
fram ework
. \,
ĠĠĠĠĠĠĠĠĠĠĠĠĠĠĠĠ ĠĠĠĠĠĠĠĠĠĠĠĠ
ĠCh i
port ed
Ġtrib e
ĠAthen s
ov iÄĩ
Ġmer ge
Ġphot ometry
Ġannih ilation
Ġred und
@ {\
Ġpropag ator
EN D
atern al
ĠM ann
oc co
oc ratic
ĠRog ers
ĠFle et
ĠBor ough
arm ac
ĠSt ri
Ð¾Ð ²
IF AR
ub a
Ġsumm ation
ex pect
Ġsens ing
Ġmed als
ĠCh and
Ev ents
sq cup
L AS
ĠPr ivacy
Med ia
ĠComp an
trans ition
ool s
Ġchar ity
G overnment
Ġpur su
ĠD rag
set t
ĠP erson
Ġimplement ing
Ġphysic ian
Ġplay offs
d al
as ympt
ĠĠĠĠĠĠĠĠĠĠĠĠĠĠĠĠĠĠĠĠĠĠĠĠĠĠĠĠĠĠĠĠ ĠĠĠ
Ġminim ization
Ġcol span
ĠG T
sk a
in z
ur st
prop ag
C amp
Ġ[ ]
ĠRes Net
ĠS FR
ĠWar ner
Ġaccom pany
ĠC ob
Ġconstra in
Pres ident
un i
ĠSte vens
Ġen abling
Ġ( '
ĠAl t
Ġdr ives
ĠH unt
Equ als
Ġque ue
ĠA U
anc ies
b ane
ĠD ocument
Ġhead ing
Ġh opes
ĠF un
g ie
18 77
Ġen compass
Ġsure ly
18 72
Ġburn ing
Ġp uzz
Ġcomm emor
arm s
Ġphil osopher
ï ¼
p iece
r Vert
Ġsign atures
IM E
AT A
bt n
Ġhon our
Ġob s
Ġc f
Ġsent enced
ĠF if
ĠIn stit
Ġdevelop er
ĠTh ings
Ġreson ances
Ġn ut
rib le
Ġquant ify
Ġcor ruption
D irect
ĠMer c
T ake
per formance
ĠCM B
In itial
ou p
Ġmil k
W R
ĠIma ges
ĠCamp aign
ĠEag les
ard i
ĠV ersion
d ig
Ġharm on
ap ing
ĠProdu ction
Q CD
Ġegg s
Ġgra phe
Ġhypothes es
A meric
Ġproceed s
Ġcogn itive
v m
ar ab
Ġal phabet
Ġmagnet ization
ĠB ristol
Z E
Ġp ace
Ġinfect ed
ad van
Ġev ac
h ash
ad j
Ġ= &
Ġstat istic
gar ia
P lease
Ġn od
ĠEd ge
Ġt une
Ġax es
Ġappro ached
ĠL arry
Ġhypers ur
u h
' _{\
Ġl ag
ĠĠĠĠĠĠĠĠĠĠĠĠĠĠĠĠ ĠĠĠĠĠĠĠĠĠĠ
13 8
ĠDemoc rat
che l
omorphism s
equival ent
ĠPro p
Ġm anga
L ive
Ġsk i
rack ets
ĠBer keley
ĠMont ana
Ġt ons
ĠP av
ĠAg reement
Ġtravel ed
ĠE ve
Ġdu o
y ou
Ġb is
Ġvolunte ers
T arget
Sing le
= $
al most
I E
Ġc ow
ĠCirc uit
' ^
Ġun con
Ġz ones
Ġslow er
ĠL ion
E conom
| ^{\
ot er
ĠEth iop
Ġpresc ription
q l
s we
Ġsuccess ive
de velop
Ġcon vin
u cc
de pendence
Al gorithm
Ġnon negative
ĠB ert
ĠK rist
ĠArch ives
;\;\ ;\;\
as ia
ĉĉĉĉ ĉĉĉ
ĠG RB
ĠRoman ian
O K
ĠGra ce
ĠG C
Ġbe ams
Ġdes ert
math ring
ĠNep al
Ġm os
h op
ĠE rror
Ġg ear
Ġser vers
ĠSing le
ĠCub a
Ġqual ify
Rec ip
asc ular
F low
l ive
Ġa u
Ġfest ivals
ĠCo hen
Ġfib ers
Ġsu gar
Ġz eros
rac le
H ard
Ġstat istically
Ġf aint
aver age
In v
Ġkn ot
De cl
. (
T oday
) }}{
\ >
Ġc argo
ĠM ort
Ġpar a
B ob
om o
}\ {
F D
ĠS ak
Ġconduct ing
Ġj ury
Ġsem antics
}=\ {
Is ra
Ġab ilities
sum er
Ġparliament ary
ĠHol land
Ġpremie re
ĠM ari
o pp
ĠS ah
oc ate
Ġcombin atorial
ĠLu is
ĠMethod s
ĠM W
Academ ic
k it
Ġm asks
L ight
ĠEd wards
U RE
W rite
ĠBy z
ĠRepresent ative
T ri
Ġbas elines
ĠM N
Ġvol can
y u
ars on
ĠHe avy
Ġf ighter
wind ow
Ġdef ending
v ideo
ĠNe umann
Medal ists
Ġbo ats
Ġsat uration
Ġcopy right
&& &&
flu id
r ised
s it
He alth
Ġco pper
g om
Ġadequ ate
Ġh ate
ellig ent
end if
Ġsp acing
ĠT es
Ġinter active
Ġess ay
ĠS uz
ib n
ER R
ass o
Ġkit chen
ust ers
Ġdisapp ear
}^{ [
Ġn ominations
Ġgra ins
Ġkinem atic
st ars
Ġcomb ines
in us
ĠB ris
iv odes
van ishing
Ġtheorem s
ĠGra de
Ġqu oted
Through out
< ?
ne red
Ġt aste
Ġdepend ency
ne ut
Ġpoly mer
Ġswit ched
Ġrob ots
Ġatt raction
ĠL ux
Ġbos onic
Ġper cussion
ĠU pdate
Ġeconom ics
ac a
Ġhapp ening
18 66
sc ription
Ġax ial
Ġco in
l ook
ĠC ut
Ġcompet itors
Ġimag ine
ĠR andom
ark ed
^* )
if iable
cons ider
_{ *
ĠV ent
rel ativistic
ĠGl en
sche me
( &
[ $
Com ment
Ġany where
Ġelli pt
Ġ< !--
ogen ic
D iff
Ġun ified
ob tained
T aking
ĠPer ry
bal ance
ĠBer g
T ags
ĠArab ia
gg ed
v ary
Ġdec oupl
ij i
Ġart illery
b g
ut ton
Ġpen et
ĠL iga
ops is
} ''
condition s
f ive
v et
Ġtra ded
vers al
Ġpo ison
Ġcab inet
m other
ĠN ak
ĠSm art
ĠLl oyd
am y
ï¿ ½
Ġsp ur
ĠP os
$ _\
ĠCom plex
Ġsub script
ĠM end
Ġdisput e
L ondon
Ġshe af
C AR
ĠUE FA
ĠRe ading
Ġexec ut
ĠArch ive
Ġcon ductor
R ay
ist ani
au kee
Ch inese
ab c
Jew ish
are r
N Y
Ġc ave
Ġgraphe ne
big cap
ela ide
ĠS ett
Ġanaly tically
K M
= &
b is
col sep
var iance
m usic
us c
c C
ĠV ar
ĠB ath
ĠTr inity
ĠNet flix
Ġbu ck
ancell or
h all
Ġar ithmetic
Ġwat ched
P ower
Ġcons olid
ĠS ony
Ġrecip ient
, ...
ther mal
w hat
Ġcon fined
tikz cd
Ġun re
ĠTer ry
S aint
ĠCan al
Res earch
F ont
Ġout line
h orn
Ġnom inal
B ay
f b
Ġem itted
ĠH ob
Ġamb ient
ivodes hip
ĠI L
Ġas ide
IC E
Ġtradition s
Ġemploy ing
rec ord
f ac
Ġbe ating
ll ll
ĠMon th
Ġvent ure
ĠMad ison
. }.
bo xt
ra pe
amb ers
ĠPl anning
Flor a
b ast
Ġcl ause
clud ing
Ġspons ored
Ã¡ s
flu ence
Ġartifact s
Ġdo ctors
ill ation
ct rine
IT Y
ĠM ig
N ever
var sigma
)\ ;
Ġle x
ibr ations
s ided
th al
oc o
ĠB und
ĠCont emporary
Ġpat rol
Ġsur jective
Ch ange
Ġassoci ations
\% )
f p
Ġfl ed
iv ially
ĠF ast
ub ert
Ġde ck
B us
pan el
Ġarr ives
Ġch ron
L ow
pe red
Ġh orn
ffic iency
ĠB uch
Hon ours
not ation
Ġgradu ating
M oths
Pro b
return s
ĠM atch
ag ent
C ritical
Ġorig inated
Ġsuperv ision
ĠQu arter
S ir
ag i
ĠStan ford
ot ypes
ĠJul ia
j j
Ġcon dem
ĠR oche
ĠB ear
Ġre fined
t uning
Ġfil t
Ġb anned
ig ion
che t
Ġut ter
ĠMur phy
' }{
on ential
Ġcomputation ally
ĠC V
Ġmicrosc opic
Ġpass ive
Ġinvestig ating
ens on
ĠK in
ĠFe ature
Ġaffect ing
coupl ing
Ġfluct uation
vent ions
ĠB A
Ġr ated
Ġ icon
ra v
$\ %
Ġlist ening
Ġ+ (
Comb ining
ĠConserv ation
But ton
T ypes
s creen
ĠD A
ĠSus an
Ġmake up
Tax a
ĠPro file
)+ (
alth ough
Ġscholar ship
ĠI celand
{ -\
ring ton
ĠH ubble
)\ )
Ġant is
ann i
Ġun c
Ġsol ver
ĠL STM
pect ives
Ġ$ ^
ĠMunic ipal
Ġassist ed
ot hes
Afric an
necess ary
pen cer
Ġhar vest
Ġph osph
18 40
b ank
Ġpers u
Ġdr inking
ov an
ĠC ad
)^{ -\
ĠAm sterdam
Ã ¦
Ġan satz
Al g
Ġass ists
ific ant
Ġ url
z one
ixt ures
im uth
prob ability
boxt imes
ĠL is
Ġperm it
ĠK un
Ġle verage
Ġcert ified
ĠSh ar
Ġan xi
K A
Ġtransl ate
Ġview ing
rib utes
De ep
ĠVo ivodeship
ĠCl imate
il o
Ġcent res
Ġbelief s
ĠPro t
Ġtrans ient
Ġpe oples
Ġequ iv
jo in
AS P
Phys Rev
k ernel
ĠDo es
Ġ Ø
Ġexpon ents
Ġstat ue
l Vert
ĠG ay
Ġl iv
av an
yp ical
Ġw elfare
ĠN R
M ur
th us
ract ing
AP I
18 69
)) )
| +
Ġinher ited
ĠSe an
Ä Ł
Ġreg ret
Z hang
ail ing
ST R
Ġdepend encies
Ġmin istry
Ġill um
CO L
Ġa qu
Ġtrib es
Ġele g
Ġm amm
att r
ĠTreat y
t p
ĠHer z
on ormal
Ġdomin ate
Ġmodul us
ID S
as is
Ġrun time
lim sup
l g
ĠT rain
ĠQ ual
isen berg
Ġ> =
J ose
Ġcell ular
ĠA round
h is
cl ing
Ġoscill ator
Ġlog o
Ġche ap
Ġre finement
K a
ĠM idd
Ġreg ulatory
Ġl iver
ore r
en os
ĠWat son
Ġbin aries
rosso ver
ĠGa uss
ĠPhilipp ine
ĠPl us
ĠH amb
E A
H ash
Ġe ating
Ġsy nonym
ĠCru z
F re
bi ased
Ġun cle
Ġbroadcast ing
Ġveter an
qu er
Ġincre ment
Ġtens ors
aur us
b ay
ĠSymph ony
ĠAn aly
Ġcatal ogue
Ġgrate ful
B undle
Ġperson ally
Ġsl opes
Ġfix ing
Ġpro xy
Un it
W W
ĠS ED
ace ae
/ {\
pr inc
Ġgold en
dimens ion
Ġab bre
f c
Ġcomm ands
Disc ography
ĠT ang
ill iant
ĠTerrit ory
fin ing
Ġ })
Ġd ivers
le ep
e als
ĠL aura
Ġhun ting
w aukee
v or
Ġisol ation
resol ved
Ġfilt ration
Ġadv is
I X
Ġretrie val
ce ut
Acknowledg ements
Ġcur ved
Ġs lic
)$ :
ĠSh aw
Ġadvan ces
ĠLu ke
Ġs addle
Ġd ictionary
Ġp ill
ĠL ot
Ġsophistic ated
14 7
am ount
Ġhad ronic
Ġanalog y
ĠTh under
Ġdes k
m kern
Ġatt itude
c M
ĠL LC
Ġin complete
cy l
AT O
}) \\
Ġelev ated
gener ation
ore n
Ġequ ity
Ġdes irable
hel m
men u
Ġdiss ip
in j
ĠSerb ian
Ġconstit ute
Ġwrest ling
Ġpredomin antly
00 4
Ã¼ n
Ag ain
I ts
ĠSch warz
Ġmerch ant
Ġdepict s
osp el
ĠLa placian
u ate
magn etic
Ġsatell ites
spec ies
Ġc ad
om p
ĠF ish
ĠV e
sing ular
ue z
Ġimm igrants
uck land
Ġb read
ul ators
ie u
21 3
Ġcontext s
Ġten ure
Ġanisot ropic
Ġdel iber
[ [
ar u
L ove
Ġdepart ments
Ġinter change
g arian
Ġg aming
ac co
min a
Ġg ent
Ġnot ions
z ig
Ġend ors
Ġult imate
ĠPen insula
ĠHor se
ĠM is
Ġast ero
reg ation
R ound
ĠF ro
Ġjurisd iction
ON E
m ove
ĠEx amples
arma ceut
be ck
ĠD L
Ġb rane
Ġr iding
Ġmuseum s
ĠDou ble
F ind
ĠK ate
Ã ī
Ġaggreg ation
ĠH at
pm od
az i
Ġpresent ing
18 48
ator ies
H as
th lete
Ġhon ors
Ġcommunic ate
Ġaccompl ished
ĠU ser
Ġun w
taint y
ĠJust in
R ock
Ġtrunc ated
ĠP ersonal
cur ities
scal ing
ĠR GB
Rep ublic
iff s
Ġinn ings
ys h
Ġlo aded
count ry
Ġarr iving
Ġsimilar ities
Ġsimultane ous
Ġin cent
Î ¿
ĠDel aware
ĠD ennis
our g
Ġcam ps
Ġcontinu ation
)} +
T our
iz a
)\, ,
Ġmem ories
Ġh ide
ĠWrit ing
] ,\
ĠComp etition
intend o
pr ising
ĠAr c
Ġcancell ation
pl ates
U D
Ġo mitted
M ah
Re ference
)= -
jav ascript
c od
Ġlimit ation
eg al
ram ework
Ġdem olished
ous ing
o j
rm k
( |\
it ious
ĠC redit
Ġapert ure
te am
art ifact
is cal
Ġmaintain s
ĠHeb rew
14 3
elect ric
Ġsh ar
oth ic
15 2
ae v
Ġhe m
Ġenem ies
Ġlo ading
s end
ĠE R
ant astic
rag ue
R ank
X T
ĠNe il
ĠGr ass
Bra zil
h art
ĠE SP
ag onal
ĠM ick
Ġdiff use
with in
trans fer
Ġdomin ates
commut ative
M ale
ik ing
Ġincorpor ating
ĠS alt
Add ress
tt p
ke ys
Ġlight ing
section s
Ġall iance
Ġbenef icial
ĠAgric ulture
Y our
Ġdistinct ive
13 9
H ung
Ġmorph ology
P red
Ġa uction
res ource
ĠEn cycl
bell ion
at ra
Ġind oor
B ern
Ġb ay
ĠInter view
st ead
^{- (
Ġfaith ful
Ġa mm
ĠBl u
Ex amples
{ }{
Ġpat ent
3 30
Ġmed ic
Ġaffili ated
ĠC incinnati
ĠTransport ation
ĠAb u
int rodu
ĠPol itics
Ġsc iences
Ġmen u
Ġtradition ally
M ont
ĠB io
Ġrec ruit
ĠB eth
Ġro ster
Ġsp arsity
ĠLeg al
Ġfrag ments
Ġtermin ology
N ames
Profess ional
)\ |
ĠDen ote
F rame
}^* $
ĠAng lo
ĠAd miral
Ġmy stery
cal ar
Ġsuperconduct ing
ĠH T
Ġtransp arent
Ġlat ency
Ġgraph ic
en o
be it
ĠWell s
st retch
al am
Ġspl its
Ġwe aken
sh ore
Ġdiscuss ing
ĠBre ak
Ġast roph
ĠI de
e enth
Ġyield ing
Ġsett lements
Ġtick ets
ĠVerm ont
F E
ess ed
Ġf iring
observ ed
Ġm oth
Ġp ale
Ġer u
Ġspect roscopy
Ġstrong est
verb atim
Ġmin us
clip se
ĠY a
Com pan
)}{ (
l c
Ġliter ally
Ġmonot onic
ĠR ena
Ġnegoti ations
g us
ĠS outheast
Ġdesign ing
import ant
Ġsub spaces
ĠSto kes
H or
{ #
Ġbus y
inter pret
Def unct
Ġaug mentation
_* $
13 1
Ġmur dered
Ġlie utenant
Ġ\ ,\,
p ine
ĠBut ler
ingu ished
posit ory
ĠG olf
ĠRic ci
vi o
ask at
15 6
Ġsubsidi ary
pro gram
ans k
ed e
Ġ }_{
Ġw orship
Ġfunction ality
Ġinf antry
y ang
ĠJ ar
Ġtempor arily
H ost
ĠD ig
av g
Ġdocument ation
Ġdim in
ĠCh an
Ġaug mented
am ine
Ġlaw suit
ia z
Ġr itual
Ġdocument ed
AR S
ĠE V
ĠAl ger
d B
ol ition
ĠC I
Ġsub mit
Ġcol ony
Ġcult ures
ĠImp act
ĠA viation
tabular newline
Ġped est
Ġcan n
}) +\
ink owski
Ġclass ify
S ha
Ġconcert s
Ġsh ops
Ġdel ays
Ġacknowled ges
Ġre written
av ier
IV E
5 50
Ġrest ore
Ġman ually
Ġbu ying
W N
0 10
Ġcivil ian
Ġr ice
Ġlens ing
Ġcompris ing
quir y
S wed
AS E
ĠBlo om
ĠNe ed
Ġdismiss ed
ĠPun j
Ġob ey
Ġtransl ations
Ġadi abatic
re ma
Ġdetect ing
Ġsp anned
Ġsub stitution
A thlet
Ġbel t
inter action
lic an
16 8
S V
ĠSy l
List ener
Ġdiscret ization
Ġcitiz en
Ġsustain ed
Ġj ack
ĠBudd hist
Ġcal ib
ĠBroad casting
Ġrel ates
R N
Ġpredict ing
requ ire
ic ian
Ġconf used
Ġmac ro
b order
w u
Ġpet ition
ur se
c ro
Ġl attices
grad ient
Ġprepar ing
^{ '
ach t
Ġp unct
**************** ****************
ivid ually
Ġsp ir
Ġshort est
Ġmus cle
ĠMe asure
Ġtrib ute
Ġsquad ron
Ġactiv ated
ai ro
ĠWork ers
in ternal
n ob
Ġinc idence
Book s
Ġoption al
hen ce
Ġwonder ful
G rand
ĠNetwork s
Ġst iff
ĠJ osh
ĠK err
Ġtimes cale
Ġtreat ments
Ġwalk ed
he ng
m itt
), $
Ġpermut ations
H aving
V ector
Ad S
Ġopin ions
ĠForm er
L at
Ġfail ing
h agen
18 57
ĠH ess
US Y
Ġdegener acy
Ġun ve
US A
constra ined
ĠB log
Ġto urs
Ġas p
ĠW orth
Ġsing let
S ep
â ĸĪ
ĠD rum
d k
fe ature
0000 00
b les
deg enerate
Ġsl ave
UR L
A BC
,\,\ ,\,\
ĠRes p
Ġcomfort able
k al
}$. }
Christ ian
ĠM az
ĠF ra
ĠC B
Ġcon sole
Ġpuls es
: </
Ġgrand father
i q
p se
Ġsmooth ing
Ġceleb ration
Cent ral
H K
Ġmanufact ured
ĠK ap
ĠK ash
or iginal
ĠT D
we re
st own
)} +\
Ġd ens
Ġh itting
Ġhost ing
ĠG y
Ġbij ection
Ġro cks
Ġed itions
Ġmultiplic ative
Ġp ic
Ex perimental
Ġpract ition
J ul
abul ary
W C
in cre
eg an
Ġcur rency
W he
Ġhad ron
ĠCroat ia
ĠFellow ship
Ġs isters
ĠA pr
cm id
ĠB ald
ĠHis panic
18 59
Ġbl ank
Ġb om
V V
ĠMah ar
ĠJ in
ĠVenezuel a
Ġl en
ĠJeff erson
Ġall ocated
Ġcirc ulation
ĠV a
pred ict
child ren
ĠB ee
ars er
18 30
sh a
Ġimm igration
Ġdemoc racy
M Hz
exp ansion
ĠMet al
Ġmart ial
o ided
ĠF err
V ec
pt ed
Ġtour ism
P DF
Ã± a
ĠShang hai
c A
Ġsent iment
Recip ients
28 0
ĠPlay ers
ĠPers ian
ĠB aby
Ġener get
ĠCh ap
Ġfollow ers
con clusion
ign er
ĠChristian ity
Ġe arning
}} ]
l iter
Ġfoot age
Ġplay off
) &=
Ġcou p
Ġj oy
ĠOt tawa
rick eter
Ġhand ed
Ġtum or
Ġj ew
Ġche st
Ġpl a
b ool
u ating
be am
ĠCond ition
Ġvol at
Ġsubstr ate
l um
Ġpro gen
Ġprint ing
Ġc ube
ĠAd elaide
ĠSl oven
re ach
ĠR ivers
s elling
Ch apter
Ġutil izing
ĠHel en
Ġaltern ating
ĠWild life
â Ħ
Ġ{ (
fore ach
ĠMod els
S at
Ġam id
ĠStat istics
Ġcont amination
D ocument
I J
he ro
akes pe
cmid rule
Ġloc us
am ation
Scott ish
ĠS ultan
p rom
do es
ĠGener ation
ĠM ade
Ġrecogn ised
R ange
26 0
Ġm uon
ĠAir lines
ys on
20 5
co e
Dev ice
ul ous
ĠB E
tem plate
ĠA ber
Ġl ib
ĠHer bert
Ġless ons
Ġt we
ĠGuard ian
Ġsol ves
ĠCre ate
Ġc ock
ĠE T
}^{ {\
Ġspread ing
ĠY ellow
Ġtext ure
rob enius
F ar
ĠT at
ĠK id
Ġplanet ary
Ġor al
ĠPhill ips
Ġvalid ate
d w
Ġbl ues
S pect
ĠP ont
comb ination
ul in
ĠCom merce
Ġenc ode
M il
f x
Ġpro s
ĠIn sur
rob ust
Ob serv
trans form
im s
ĠO scar
ĠLe o
Ġnucle on
Ġplace ment
Ġb ilinear
ish a
tagon ist
ok u
math rel
ge ometric
con tainer
Ġpack ets
abet es
Cle arly
ĠSt ream
Ġblock chain
G reat
Ġ âĢĻ
B on
c as
$ ^{+
ĠA ctor
Ġmonot one
Ġp c
}{ (\
small matrix
styles he
Ġgal actic
1 2022
ĠCh ang
c ially
he art
ĠD y
ĠG host
Ġp orts
m any
part icular
F ONT
New ton
ĠFil ip
ĠT E
es ome
M id
ĠH em
Ġcon greg
ĠH az
ĠIn itial
imod al
ĠH E
Ġhead er
Ġpre st
Ġcert ificate
Ġoverse as
ĠThrough out
ĠAbb ey
ce ive
in ks
ĠY ank
or ious
ĠV oice
Ġg est
Ġprov isions
Ġpl aus
Ġprom ised
Ġaccording ly
He ight
Ġcontact s
ĠSh ip
iz ontal
2 15
| <
ĠSt uart
sc apes
Ġdisestabl ished
ast ically
Ġdi et
n ice
)= -\
ĠN athan
ry ption
18 5
w ent
Q A
Ġrecall ed
he ld
Ġexec ute
i ya
ĠT ed
iss ues
Ġatt ractions
c in
pr ises
Ġfl are
eng ine
Ġp icks
Ġvo ices
ov sky
Ġkeyboard s
ĠM aced
ĠS ierra
s ampling
un ivers
gom ery
J im
e lected
Ġlik es
ple ments
DE s
v irtual
b ird
ou x
Per formance
ĠNash ville
t abl
ĠSo on
M atch
ĠF BI
PR O
Ġident ifies
H ER
Ġde comp
Ġsepar able
FF FF
ĠL S
ĠK as
á º
bo ys
ĠInt el
ĠBob by
ĠL ex
rest rict
ĠVis ual
Ġsus pic
ĠPlan et
Ġv ib
Ġdecor ated
Ġco at
)\, .
ĠÂ ©
Ġincl ination
ĠT as
Ġw ard
Ġ( @
Ġprefe rences
F rance
ĠR AF
Ġconflic ts
Ġentreprene ur
ĠArgent ine
Ġform ations
tem p
ĠP resent
res on
arr ison
G allery
Ġm arch
ĠW onder
ĠH ugh
Ġbipart ite
fer red
Mus ical
C ard
Ġwid ths
ĠM orning
ĠM ul
Ġcard inality
20 8
Ġac res
Ġd ans
Ã Ĺ
Ġt uned
ma ch
the m
t bl
isher s
Ġsched uling
M AP
Ġo k
ĠBe ing
Ġb ike
18 58
Ġfarm ing
su cc
ĠMo z
}: =
Ġin clusive
ose x
ĠIn novation
Ġinter faces
Ġal tered
Ġcont ested
Ġed iting
ĠFlore nce
ct x
ĠQu est
l ene
att ention
Al tern
Ġsee ks
produ ced
] =\
Ġcosm ology
b undle
hab ilit
App lication
ĠRe cently
Ġtourn aments
p her
uit ively
former ly
Ġm ouse
Ġexc av
Ġbar rel
Ġf riction
sh own
ĠAgain st
perturb ative
Ġcor pus
Ġvisual ization
ĠArn old
Ġd inner
ĠC ustom
)} -
Ġst ret
akespe are
Ġan onymous
Ġemer ge
P RE
ĠAzerbaij an
T reat
Ġfil tered
Ġjo ins
] +
Ġcharg ing
k pc
Ġform ulate
K w
Ġav oided
Ġacceler ated
Ġbi ography
W el
ĠCL ASS
ap unov
ĠV eter
K er
ĠL ov
An alysis
ĠFil ms
ĠL amb
24 5
Ġimportant ly
Ġm oon
ma jor
Ġsh aped
ĠThe od
ĠR C
y i
} <\
Ġen larg
h im
ĠIda ho
b k
ĠS ym
O s
Ġaccess ed
ĠEx cell
) {$\
ac ular
ad ows
A x
th ird
ĠGerm ans
Ġfrag ment
av ailable
Q U
ĠSocial ist
ad v
Ġc oc
leg iate
Ġst rang
Ch ina
Fe ature
Ġimm un
Int eg
k el
l it
ĠH ab
ĠProdu ctions
augh ter
ĠTib et
Ġgu ided
Ġpal ace
Ġanth rop
h ref
Re cently
dor ff
Ġflo ating
ĠA aron
O H
Ġsupers ymmetric
Ġinaug ural
ĠS ox
ĠF W
Ġ Ñģ
20 2
Ġdraw s
p seud
Ġreason ably
ĠIndepend ence
Ġt ent
16 7
P rom
Ġn inth
Ġmod est
ĠLeban on
m art
Ġshould er
}} ^{-
Ġso ap
Ġprocess or
ill es
ran o
m os
ĠS V
ĠK umar
Ġboard s
ĠDra ma
Ġrandom ized
Ġdemon stration
id y
ĠR osen
Ġpop ulated
Ġdefend ers
qu bit
Ġre built
ĠL R
ĠTe acher
aut h
Ġroll ing
S eg
d an
Â ®
Ġcomp ress
ĠC ell
Ġrect angular
ĠG M
}{* }{\
ch anging
ĠM oney
10 24
Ġimp lying
n ut
ĠF i
Ġdegrad ation
Ġfoss il
Ġch ip
vari able
d ataset
Ġprov inces
Ġsubt le
Ġattack er
_* \
ĠPar al
ell ers
Ġen orm
ig ue
AS H
und e
Ġiniti atives
ĠArmen ian
ĠCo ach
Ġall ies
pat tern
Ġenter prise
ĠA uckland
Ġprodu ctions
M u
ester day
ĠS ug
RO M
min imum
pl ant
ĠQu antum
Ġimm une
op ol
Ġcryst all
Ġcondens ate
L ittle
Ġexceed s
E t
n othing
c ott
Ġsum mit
ĠC itiz
Ġsh ipping
ox ide
ĠGe or
Ġapproach ing
Ġorth onormal
Ġoff ense
hy p
ron es
ĠÐ ²
Ġtriple t
rape ut
ĠHar vey
15 8
Ġpsych ological
,\ ;
Ġaud iences
ĠL E
Ġn est
Inter face
ĠJe rem
N umerical
14 2
min imal
ĠCam eron
Ġpat ron
Ġs s
Ġcha otic
Ġtor que
ah an
Ġshel ter
ĠB eyond
Ġcon vey
Ġemer gence
Ġst roke
Ġintern ationally
im er
im en
Ġatt en
Ġfun eral
Ġt ram
@ {-
v ac
00 7
Ġa est
rel ative
d ie
c F
ĠP ent
ĠRet urns
Ġ$( -
i ol
Ġsurpr ised
Ġto u
Ġhal os
Ġ Ï
ĠY ale
Ġbi ased
ĠBul garia
Ġn erv
ĠR oth
Ġth ir
Ġlift ed
S pr
// /
ps y
Ġt ale
wh ose
Ġsymbol ic
ĠHug hes
G H
ĠK ill
Ġb arriers
ĠTh ai
Ġquarter back
sh ops
Q ual
So ft
sp ot
In f
ĠWeek ly
ĠCh apel
ĠA braham
Ġh urt
Ġim perial
Ġun ions
Ġte a
Ġport ions
em in
Ã© l
ĠB L
ĠL ik
Ġsp ell
ĠB egin
ĠE ld
ĠO N
c aster
cycl ic
ĠB ody
ĠArch itect
ĠPeters burg
App ro
Ð ¿
Ġassess ed
R est
Ġsax oph
23 5
en burg
Ġd z
14 8
Ġland ed
ĠSt re
Ġar cs
Ġ$ +
ĠAd ditional
R en
ĠD od
ag g
u ons
Ġintegr ity
j ee
Ġfl ags
ĠU RL
Ġinter fer
s al
Ġphon on
ĠPy thon
online cite
Ġcomput es
Ġb acteria
ig g
Ġbe er
in terest
Ġto mb
Ġf ate
Ġin ev
ff bb
iz ard
me as
Ġrow span
ight ed
Ġbank rupt
Ġmer ging
B ul
Ġsus pected
22 4
D ir
Ġmin es
++ )
rell a
}{! }{
Ġbif urc
Ġvis ibility
bal anced
Ġh ang
im et
Ġexplain ing
us a
rit ic
un ique
16 2
Ġsevere ly
Ġb ench
ĠAn cient
ĠSing les
k j
Ġb uses
Ġ( ).
se lected
ĠLe eds
Pro cess
ĠLat ino
18 54
Ġo mit
Ġimplement ations
Ð ¹
Ġe rected
ĠG or
= |
Ġmet als
ĠL oc
spect ral
S port
s r
ĠS ent
Ġsu ite
ĠArt ists
ol ly
ĠHen ri
M ary
ur d
ĠSt rong
Ġgener ative
ĠDe ut
w oman
Ġr iders
ĠT it
ĠD B
ĠHop f
ĠL isa
Ġthr one
P ac
ex amples
ĠCirc le
c P
, -\
- }
Ġcommand ed
ĠV ict
$\ {
as ive
r ational
Ġoverl apping
000 1
Ġgenu ine
_* (
ĠGro ve
ĠSy rian
D a
Ġp ink
ĠDec ision
Ġb ind
16 6
Ġaddress ing
n umer
Ġlab our
Ġparad igm
ĠM ario
tr uth
ĠLa place
ĠR aw
emb ered
sem i
Ġsupers ymmetry
sh i
Ġwealth y
Ġparticip ant
em ail
ĠE state
Ġ" \
Ġthr iller
15 7
et erm
W ater
vere ign
Ent ity
b rane
Ġfor wards
Ġper pet
14 6
f d
an che
Ġcapt uring
m itting
ĠE lection
ĠCard inals
uss els
Li u
, '
J ud
T er
}) -\
ph ones
ĠG amb
ho e
Ġbelong ed
og on
ĠRe ed
Ġblock ed
h in
Ġcro ps
as ta
ĠF iction
hed ron
ĠD ictionary
vi ol
'' (
the tic
method s
ĠPo incar
ĠG A
ĠP ul
Ġto y
Ġperturb ed
I ter
Ġaltern atives
lic t
Ġmore over
Ġem otions
es ar
ac cept
Ġel ite
ĠH i
With out
K T
w ould
Ġad s
U r
] &
over view
et ti
Ġcon current
- )
Ġal ert
Austral ia
CD M
ĠÃ Ĺ
Ġpreserv ation
Ġj ail
Ġins pect
Ġd Ã©
{ +
ĠA er
Ġpro to
ĠG ust
Ġre nov
H uman
l ived
m orph
Y M
ĠR us
Th ird
Ġc attle
Ġsaf ely
ĠR ol
ĠB ak
K P
ĠD eg
all ed
ĠBur g
Ġdro ve
ĠS ales
Ġden omin
rt imes
at able
ab we
ĠK od
pos al
pre ceq
Ġinval id
Ġst eal
Ġneighborhood s
Film ography
Ġevol ving
Ġpart on
Ġconst ructions
Ġind ividually
Ġs aving
Bet ween
ing ers
sw ick
ĠGreg ory
Ġal ien
Ġcomp ares
ĠW ag
| $,
Ġde lete
Ġcl othes
j ud
ĠS pencer
con serv
Mart in
Ġgard ens
d ict
Ø ±
ĠR alph
I mp
ĠVal ent
ĠEdd ie
g rim
Ġemploy er
18 55
}= {\
ĠChe ster
ĠGab riel
Ġinvest ments
Ġburn ed
supers cript
ĠF P
ĠH im
Ġthere after
ĠBo olean
Ġdram atically
Ġmort ality
g age
Ġper cept
18 56
Ġrelax ed
Ġsuper position
Ad ditional
Ġd ressed
Ġsurve illance
ĠC ou
ĠEv ents
rog ate
Ġin ject
Ġcomp rised
14 1
Prov ider
Ġb rackets
Pro blem
Ġbi ology
ĠM B
ĠH P
Ġsy mp
math ord
Ġtravel s
Ġh ack
Ġi Phone
Ġth rown
mark et
}} /
Ġrun ners
she et
ĠD etails
Ġse vent
Ġhistor ically
ĠS askat
L ead
h ots
Ġhe ll
dis k
b end
Ġdis orders
Sp in
Ġaz imuth
ĠH av
ash ing
S ta
Ġattack ing
ĠIm port
ĠNor folk
Ġfib re
ced ure
ĠPal mer
Ġsculpt ure
ĠĠĠĠĠĠĠĠĠĠĠĠĠĠĠĠ ĠĠĠĠĠĠĠĠĠĠĠĠĠ
Ġver b
Ġeigen states
b ys
Ġlik ed
Ġrel ocated
cu ador
Ġacknowled ged
ĠF an
Ġexpans ions
Ser ies
) ^*
C u
N F
is cher
Ġarch ive
L ab
á ¹
ĠK or
Ġexclud e
Ġbank ing
T ER
ĠA G
ah a
ĠM ills
M ill
V ir
G er
S G
ĠS oci
Ġsub algebra
Ad ditionally
ĠN ormal
P relim
Ġd ish
ĠD atabase
Ġfavour ite
z el
Ġch apel
p ublished
ĠS ang
N one
ĠV ery
ĠBrown ian
ĠBris bane
W alk
ĠC opyright
}) ]
C ore
. [
ĠN ott
F ace
Ġrefuge es
C arl
Ġmat hematic
app lication
Ġconstitution al
M ember
sp here
Ġte eth
Ġtour ist
Ġgather ing
m ask
Th ough
c H
t u
vel t
C lick
stit uting
norm als
ry s
ĠDi ocese
Ġpresc ribed
ĠR ams
Ġtrig gered
ĠI M
ĠP D
h istor
Ġle agues
Ã¶ n
Ser ver
ĠWall ace
Ġfore ground
ĠM ik
Ġclass ifiers
per ate
}) (\
Ġadvoc ate
osoph ical
qu is
B rown
ĠS Ã£o
ĠP T
ĠFran co
Ġfavor able
\ :
Ġsuggest ions
F ac
Col lege
Ġwe igh
Ġrig orous
B u
ĠK lein
Ġlabel ing
oc ent
H aw
ed ges
Ġcon form
ĠE W
Ġtre asure
enc ia
d rew
14 9
ĠPhil osophy
um my
b rand
)}\ ,
Pol y
Ġseem ingly
Ġcat aly
' ))
T i
ĠNew castle
g art
Ġqual itatively
ĠBenn ett
In s
imb abwe
Ġc rop
X iv
ĠSt ructure
land o
ne ighbor
ag ain
to ol
Con sequently
ĠHar old
Ġpubl ish
ĠT odd
Ġint ens
umb ai
ĠVen ice
Ġcount ed
ĠPlay Station
se lection
emph is
Te V
xt on
Ġprec ip
Ġprogram mes
config uration
Ġy ard
ĠSu ccess
Ġconvin ced
Ġattend ance
Ġtunnel ing
v p
am med
Ġfro zen
b org
Ġreflect ing
Football ers
pol ynomial
Ġsc ra
ris k
im o
Ġcl an
c ot
Ġfriend ship
Ġpush ing
Ġbas in
ĠC FT
F un
ew ay
Ġpa ired
Ġsupp ress
Ġt uple
int roduction
Ġlin king
Ġart work
Â »
eg el
- |
ĠPaul i
Ġres emb
ĠWars aw
) *
Ġpack ages
Ph ot
U k
Ġag gressive
Ġspecial ist
add y
Pro t
Ġt ips
Ġaff air
ĠLuc as
Ġj umps
M ex
S ett
air y
}\ ]
\| _\
Ġlater al
Ġthrough put
Ġm ature
sub script
Ġdiscuss es
Ġavoid ing
Ġre nder
ish i
Ġair line
p al
Ġp iv
Ġem igrants
Ġmar ry
ab ases
uls ive
hig her
Ind ia
Ġdemand ing
Ġtoler ance
ĠG ilbert
ign ment
Ġbor row
N I
W a
ĠS ic
Ġfif teen
ĠJenn ifer
ĠN u
Ġdef ender
Ġ: :
Ġpur ple
a rency
multip ut
Ġen rolled
cont rolled
on ies
Ġinfin ites
ick er
c ity
, [
Ġor che
Ġfl ip
am l
ĠB oe
ĠF riend
R ivers
Ġm ad
Ġreserv es
bro ok
h ind
ern er
Id ent
att s
Ġc iting
Ġrecurs ive
dra wn
int ed
Ġsqu ee
Ġcalcul us
="../../../../ ../
Ġdevelop s
ĠO w
ĠSe lect
Ġtreat y
Par ameters
Ġw ars
Ġin ches
Ġn ons
,- .
ch oice
om ar
dis crete
cre ts
21 1
Ġalleged ly
Ġ( {
}{ @{}
Oper ation
ĠB ach
âĢ ħ
as ury
de bug
Ġmer gers
V S
h p
C ost
Ġm eth
load ed
en ario
Ġexplan ations
raph ic
Ġinter pre
O l
Ġ\ }$.
ĠSp ider
x s
ĠIm pro
Ġthreshold s
Ġ( -\
2 12
Ġmes ons
ĠHerm itian
Ġl oud
Ġ\ ;\;
00 6
to ken
Ġfall en
ah l
ĠA w
Ġn ights
Ġle mm
et e
ĠT M
Ġtrib ut
st en
ĠF oster
Ġcart oon
Ġw orn
C ache
ĠM s
bre ve
list ing
ĠSh ould
{( -
ĠCamp us
Ġhuman ity
Ġfeed ing
]{ $\
Ġcomment ary
) <\
Ġsoci eties
l ift
roll ing
Ġc emetery
Ġsub sequence
Ġso vereign
Ġple asure
pr us
Ġrefe ree
ab stract
ern ess
Ġminim a
Ġg ymn
O bserve
text superscript
ĠSh akespeare
s sec
B ad
g p
] :
`` `
Ġindic ation
3 75
18 52
Ġarg ues
ĠÃ ģ
ĠC op
ub s
15 4
plet ion
Ġdesign ers
Ġk nee
ĠPed ro
B ill
Ġdrum mer
Th read
SS M
row ave
Ġkid n
own er
ĠArt illery
Dan iel
Ġalt itude
Ġdis abled
ĠWell ington
d dots
A ud
U B
mem ory
Ġun bounded
Ġsystem atically
ĠWik ipedia
ĠEp isode
ĠGl ass
ĠMarket ing
el ia
Ġen force
zy me
ĠByz antine
ĠColumb us
Ġsem ic
l ap
im an
at omic
N um
Ġout going
ĠV II
og an
Ġce ased
ins ki
t f
Wind ow
z c
ĠG rad
less ly
ĠMathemat ics
Ġirre levant
Ġheur istic
ĠR ah
Ġsp heres
ari um
ĠLiber ty
Con nect
c us
Ġrecept or
18 49
rest rial
Ġwar rant
Ġt weet
cor related
h size
Reg ular
0 25
Ġs ink
ĠInsur ance
am pton
}\ }_{
ĠIn iti
ar in
Ġsub stance
ĠB av
sen al
ĠK rish
b atch
ĠR A
Ġsem if
wa it
\ }^
ol ine
ĠG az
Ġm g
ĠAm y
15 3
ca pt
ĠHar bor
app rop
ĠA part
P osition
Ġexp ense
Ġhous ed
em er
Ġagre ements
consist ency
ĠG ang
ĠTh or
Ġdescend ants
}_{ +
M aster
p it
Ġse cular
outhe astern
ess a
(\ {
Ġup grade
ĠG O
rom atic
Ġadminist ered
ĠHa us
dev ice
Ġcomm ute
ĠIsa ac
Ġed itors
App lying
N ormal
ĠBel arus
F B
Ġpoll ution
ĠS par
oc ene
ĠLand au
Ġresid ue
V AL
}{ |\
in ery
ĠS qu
Ġbor ough
ut a
ĠB ERT
Char acter
Ġaver ages
Ġachie vement
ĠGib bs
ĠKn ights
ad just
Ġsm oot
Ġre wards
id uc
Ġdraft ed
ĠEm ily
ic ians
ounc ing
enn ial
ĠArch bishop
Ġscal ars
ĠM eta
ĠPubl ished
6 50
Ġg aug
Death s
Ġconcept ual
T itle
ps frag
be k
Ġfac ial
ll a
Ġspin or
ĠCol lect
ab is
w y
Ġpost p
Ġlo ose
Ġbene ath
Ġdiagn ostic
ĠNorth west
- ,
and ro
Ġvolunte er
pl oys
Ġeigen vectors
Ġalleg ations
}) _
ĠBer ry
ĠRet rie
ill on
\ ;\
Ġp ist
Ġtr ump
Ġinsert ed
ĠDer by
Ġc inem
ĠK ids
er ie
Ġb ills
Ġsu ited
Ġunsuccess ful
ant om
on so
Ġthin ks
Sm all
and e
sub ject
Ġdiv iding
ĠS hen
gra ined
Ġpre t
min ster
iv ering
ur as
V an
Ġsomew here
in line
ĠP RO
iling ual
ĠEag le
Ġcha os
\ },\
Ġf idelity
Ġfl our
Ġpe cul
Ġbe et
Ġan ch
ĠA u
Ġre organ
Ġpers istent
Ġin sufficient
ĠM ine
Ġprede cessor
ĠD P
ĠJ ung
ĠCong o
boot strap
t uple
ĠS old
ĠNe uro
Ġgain ing
v ir
ac ional
normals ize
Ġd eta
est y
ĠV illa
Ġar rays
in ar
ĠH ost
Ġ ~~
Ġman ages
N M
s il
15 1
Ġent angled
$ },
dot sc
Ġelim ination
T a
Ġdesign ation
ĠErn est
Ġjust ified
g it
ĠF at
Ġob j
Ġdream s
b at
Ġtheore tically
Ġpregn ancy
AN T
âĦ ¢
rr rr
à¤ ¾
Ġcl arity
Ġadvers ary
ĠPhys ical
ĠClark e
Ġrecur rent
} &=&
Ġex empl
16 9
8 50
ĠMil waukee
16 4
Ġtend ency
per m
Ġconvers ations
A H
Ġm ism
pd ated
Ġinfe ctions
ĠK illing
Ġs ang
Ġpsych ology
ĠManu el
pe ak
part ition
Ġsymm et
Ġv it
Ġinitial ization
Ġlif ting
Ġpregn ant
ord ial
set up
() ->
ol ute
Ġtransmit ter
J y
}= (\
ĠBrook s
Ġvol leyball
Ġprevent ing
det ect
w i
I rish
ath i
ĠV ision
om ical
Ġcur riculum
red uced
Ġposit ively
found er
Ġun em
% ),
ĠB ene
Ġrec y
Ġspeak s
Ġdwar fs
ide al
ĠMem ory
Ġ' '
ĠF oot
Ġsong writer
Ġsp ite
Ent ry
Ġback bone
Ġc rossover
ra h
ĠAn imal
heim er
on ce
Ġb esides
az ar
Ù ħ
hold s
16 3
ract ive
ĠLeon ard
D utch
ĠCap itol
c opy
it ars
ĠB ent
18 53
w yn
ĠC IFAR
Ġsup erm
ĠRay mond
names e
ĠD raw
Ġtrunc ation
ĠLeaders hip
Ġro uting
Ġnum bered
Ġto uring
Ġab ortion
ĠS creen
Ġcarri ers
Ġf r
OR D
ĠC over
Ġvi able
ĠRe ference
Ġtri ps
At l
Ġf o
Inst ead
Ġst olen
18 47
Ġhard ly
if fe
Ġchar ter
Ġtre ating
ĠInd ies
ĠT ong
ĠC ome
Ġdynam ically
ĠP rest
cal es
ok o
ĠT elescope
ap est
Ġwork shop
\, $\
def i
ĠCommunic ation
s z
ĠE N
Ġstand ings
Ġgrad es
Ġb icy
Ġinc umbent
ĠPark s
R NA
Ġb ug
ess ment
Ġ( [
Ġa viation
Ġ\| _
Ġc ricketer
sw itch
Ġchalleng ed
Ġr ally
\ #
tab colsep
in ely
ĠF ighter
}- {\
sa fe
analy tic
B esides
e ak
}| $
Ġint rig
cl ock
J P
ĠWood s
Ġlux ury
Ġdev ast
Acknowledg ments
Ġanticip ated
ĠPet e
| (
Ġsup rem
Ġdo zen
et own
Ġh oping
Ġelabor ate
)$ \
ĠLin ux
Produ ct
ĠAng lican
ĠS ullivan
Ch arts
Ġrom ance
Q C
en ne
ĠS Ne
ubb ard
constra int
Ġbr illiant
Ġac ute
ĠEll is
b ers
c orn
ĠJ up
\, (
Ġevalu ations
M ath
Ġloc ked
R ic
Ġimplicit ly
Ġ$ %
for th
Ġflow er
Compan ies
P b
f ine
ff ield
L STM
st eps
Ġdemonstr ating
graph s
ĠL L
g ender
Ġfoc al
n at
Ġimp ression
Over all
Ġintu ition
ĠM T
ĠR uth
Ġeng aging
ch air
play ing
Con nection
\ &
18 51
Ġdis band
$ }.
r ors
che z
ĠN LO
> ,
ĠKaz akh
it ance
t v
Ġ\ '
[ ]{\
f urt
ĠP H
}\ !\
ĠN as
Ġim plements
Ġre feren
es y
st ability
Ġst uck
amp ed
different ial
Ġcollabor ative
ĠM Ã©
me ans
ext ension
Ġsuscept ibility
ĠM U
ĠB ears
min im
Ġsub mission
Con ver
t c
K B
tw itter
it ational
Ġw ore
ĠTom my
'' )
T y
ian i
inter face
Ġany more
ĠÅ ł
Ġr idge
und a
i ov
ĠG B
ĠLore n
t l
l ined
ĠB Y
Ġform ats
Ġparameter ized
Ġp ounds
Ġunder graduate
can onical
}) _{\
ĠGu ild
unt ary
Comm unes
Ġindex ed
plan es
Ġspont aneous
ĠN ancy
om al
ĠH ale
ast ics
ĠBol tzmann
en v
ĠAh med
Ġn inet
Ġd rain
ĠR af
ĠV irtual
unt ed
P ut
ĠS ustain
ark er
q w
ĠD anny
Ġem peror
ĠFour th
y on
mod es
ĠRod rig
Jose ph
W I
che wan
Pro te
disc ussion
ĠHar per
F red
ĠW inn
1 200
u pe
ĠG AN
$. \
ĠAn a
Ġsett lers
l f
ari us
)} )$
Ġal umin
Ġfilm ing
got ten
Ġsub urb
Ġex otic
ĠDe velop
Ġmot if
ĠInt roduction
ĠTheorem s
ĠSc ar
ĠC raw
ĠE volution
Ġcompat ibility
Ġf ighters
Ġprevent ed
Spec ifically
tan h
$. \\
Ed ge
ĠInd igenous
ĠPar ad
Ser ial
g ical
lik elihood
ĠD oll
ĠAssum ing
ĠKer ala
Ġr uler
ĠBrun swick
ices ter
17 6
na issance
m ixed
Par ams
ĠHit ler
pp ler
Ġshell s
Ġexecut ives
ex periments
( _
Den ote
compat ible
el ike
ĠMont gomery
P ref
Ġl ig
Ġmed i
ĠDiv is
Ġconfir ms
Ġed it
itro gen
Ù Ĩ
en able
Ġh ills
pa ren
A z
ĠA j
ĠE sc
Ġresear cher
Ġbe ars
Ġnever theless
Ġl i
Ġearthqu ake
z ier
er k
Con struction
ĠAll ied
Y oung
Ġblock ing
un ar
ĠFried rich
)) =\
Ġmut ation
b il
Ġep ic
Ġto ured
C art
x p
par ity
bor o
ĠHy per
Ġescap ed
Ġim posing
Ġpos es
ta ur
Ġdest ro
ĠSud an
Ġplay wright
Off set
Ġc ens
ĠI BM
Ġ> >
Ġwild life
The ir
oy le
w rap
Ġval ence
ĠJul ian
ĠW alt
Ġsc ar
Ġat tained
% ;
33 3
Ġun supervised
ic iency
Ġenthus i
ur bs
Ġannot ations
Ġball ot
Ġfair ness
Ġheter ogeneous
G reek
pol icy
ĠIn stitution
ĠHol mes
Ġf ibration
ĠSh adow
ĠP rague
{ }_
Ġf unny
up ta
ele ments
C ov
clud e
Ġtrav elled
Ġtr ivially
Ġcon ce
lig a
M sg
r ators
erv ation
ĠBas ic
}( (
new page
ĠMot ors
disc uss
ĠArm ed
Ġneighbour ing
ch ard
ĠP and
Ġoff line
Ġodd s
ĠS uff
ĠP apers
Ġbeh ave
ĠUS D
Ġtet ra
equiv ariant
lev ard
+\ !
Ġlif estyle
) &=\
Ġbi ases
Ġs its
Ġo wing
equ als
ĠX X
Ġmet ropolitan
Ph ase
atin um
Ġinduct ive
Ġcan al
ĠMarc us
St ructure
âĢ ĭ
Ġpric ing
W estern
ho ff
Ġsome how
Ġauthor ized
ne um
P ay
Î ½
ĠRe lease
bo at
15 9
Ġrele asing
v b
Ġth rew
ĠR ule
Ġsh or
ose velt
Ġcryst als
' >
Ġper ipher
Ġmin eral
ĠFa ith
17 7
Ġtele phone
Ġa thlete
ou ter
ĠCre ative
Ġl akes
Ġident ically
Ch annel
Ġco ordination
Ġsett le
Ġbare ly
=" -
larg er
Ġv iral
L es
prot otype
n h
n r
od rom
ak ar
ĠIll ust
Ġst ays
Ġeth n
Ġround ed
ett es
Ġmut ually
g iving
ip eline
Ġbreak down
f ilm
Ġsh ifting
)( -
ĠSe bast
cccc cccc
ĠB ened
set counter
ĠZ ar
ĠD ame
Ġtim ber
Lou is
Ġachie vements
Ġm s
ev ents
Ġgeom etries
p rior
00 8
Ġval uation
Ġdro pping
ins ert
any on
Ġdecom posed
ĠN intendo
Ar gent
swe red
Ġto ll
Ġp ipe
IM O
s ix
S ession
b inary
}^{ *}
Ġh olog
Ġown s
Hen ry
ĠRena issance
ĠVlad imir
Ġcall back
Ġeditor ial
ĠGard ens
av ia
Ġ Ã©
is che
Ġsepar ating
ĠPaul o
Ġment ions
ad r
23 4
Ġre forms
Ġn ose
ĠCons ult
Ġb en
ĠS ale
Ġmanip ulation
ĠESP N
Ġevery day
Ġvacc ines
ĠD aw
Ġbuild s
Ġwhe els
m us
{ }^
Ġresol utions
ĠIn itially
Ġ& $\
Ġtarget ing
ĠKe pler
ic ates
Ġwith drew
atas ets
Ġlegisl ature
Method s
R am
ĠD h
ĠSw ift
Ġg y
K h
3 80
C ategory
t ry
r ific
Ġviol ations
d ense
up les
ĠEn c
ath a
Ġt ier
ĠUg anda
t ens
Ġel dest
36 5
ĠS of
ĠB O
U rl
Ġg ras
ip se
L iter
open hagen
c ock
ĠHop kins
im als
az y
ĠAmb assador
Ġexhib itions
27 5
ig i
ĠPalest inian
à ®
Ġmult ivariate
Ġn ic
Ġret reat
Micro soft
G rad
Ġc rim
ogen ous
ĠRes ource
th reshold
Ġbre eding
ĠC SS
Ġcylind rical
ĠYuk awa
c ustom
ress ions
Ġindic ators
ĠApp lication
Ġconvent ions
Mean while
ĠJo an
ĠCur tis
f re
ĠCom edy
ail ure
) }}{\
ident ified
ber y
Par am
ĠR achel
ĠH arm
sm ith
ĠK L
)\ }$
Ġtrav elling
ed i
og o
Ġep it
Ġencoun ters
em ark
orig in
ĠChel sea
b uffer
ine es
Play ers
Ġincred ible
in verse
ound ing
preserv ing
ĠProgram me
charg ed
Ġweak ness
ĠM ull
Ġany way
arg ument
ĠReview s
t racks
Ġannot ation
ĠProtest ant
' })
ĠSh in
Ġsw ing
Ġch apters
an z
ĠCom pton
ĠB od
structure s
Ġd ancing
ocol ate
T X
un ting
to o
Ġdef ended
Ġlov es
leg end
Ġen umer
out ing
Ġformul ae
ar v
Ġpil ots
ĠM inkowski
ott i
t ope
hand le
d etails
Ġd ying
ĠBl ake
)] \
ĠRh ode
ĠI SO
Ġboot strap
Ġconcent rate
}[ (
in creasing
Ġin ad
S elf
Ġdipl omatic
L ower
Ġh oney
Ġal pha
app er
j ournals
Sing les
}\ }
pe z
21 4
ĠE D
Ġb ell
] );
Ġcomp ressed
Ġprotect ing
ĠRev ival
ĠSe ctions
arri or
Con v
$ [
Pro gram
Ġsh ocks
Ġ }^{
ĠL akes
ĠRe cent
IN D
add plot
ĠFe ynman
Ġintersection s
Ġsur pass
ĠFran Ã§
ĠO z
ĠBul garian
p ure
ĠS weet
id x
ĠB G
Ġgu ards
ĠBir th
r ases
t ons
Ġf ung
od ium
ield s
ĠIs ing
ĠI gn
H ouse
c ia
ĠC ork
ĠO wen
Ġupd ating
P ool
paramet ric
})- (\
on de
oc ur
Ġcomplic ations
ĠPro b
Ġproceed ings
der ived
or ange
Ġcan on
Te X
ĠC inema
T ex
Ġresidual s
ĠEn s
prim ary
Line ar
Ġrot ations
Ġelectron ics
Ġsc andal
Ġmist ake
Ġdemand ed
Ġnation wide
ĠA ur
ĠPr ison
Config uration
ri ans
spect or
Ġtrans fers
ĠF lying
ĠEnter prise
Ġm ath
ĠTh an
ĠMar x
Ġaccount ed
Ġenorm ous
ĠS K
Ġor acle
Ġd ys
ir ically
Re cent
Can ada
in as
un ion
Ġdisc s
Ġpract ically
co herent
ĠR G
ĠG and
Ġline up
Ġviol ated
Ġexplo ited
oc cup
ĠDur ham
k r
Orig inal
ĠSt arting
Ġmac roscopic
N AS
] )$
Ġrock et
ut able
ll er
res a
ist le
Ġcount able
Ġ< \
i ological
Ġr ic
ĠPl atform
id an
im ony
ĠR R
ph or
Ġl ighter
... ]
}) /
Ġpre vention
A st
en eg
Ġpro poses
or ov
l p
orm s
Ġmark ing
mb f
ĠSp ot
e conom
ĠL or
ox y
Th anks
S NR
Ġpuls ar
* ,
J on
end e
Ä Ļ
Ġsub manifold
Ġforb idden
}' \
rac es
Ġsl aves
B ol
Ġ$< $
d yn
est amp
ĠUn til
Ġb ishops
ic us
Ġbur den
Ġna ive
p ole
ol ith
dom in
ĠEs sex
Ġcong ru
Ġor n
Ġf atal
ĠPalest ine
song writer
ct uary
Ġhonor ary
Ġbl ast
ĠTy ler
W ashington
ĠD S
Ġequiv ariant
Ġcon ject
99 9
Cond ition
oy age
22 2
ĠAl pha
Ġencourag ing
i ago
ĠA chie
ĠAud io
ĠCurrent ly
Ġd ash
vis ual
Ġathlet ic
Ġrecon c
ĠSecond ary
ph ib
ĠO g
ca ps
Ġgra ve
ĠG ov
ĠTr uth
t emporal
Ġu int
isc opal
Ġb unch
bas eline
anc ers
Ġspecific ations
rot ron
Ġresign ation
en es
Ġr ises
16 1
osp heric
ĠPrinc ipal
n odes
ill ary
Ġ å
ĠConfeder ate
Ġf ru
Ġfail ures
Ġun fold
ĠSw an
Ġpun ishment
ah u
Ġsur f
valid ation
Ġv ow
~ ,
us ers
Ġan swered
ĠPrinc eton
A mb
rad iation
R andom
m ount
row eak
Ġcre am
Ġsustain ability
ĠColl abor
qu estion
ĠCh oice
Ġrend ering
Î ¹
Ġbe aring
@ \
ĠR ather
av i
Ġk iss
Ġrend ered
ĠN ATO
ĠAdvent ure
Ġch at
Ġmiss ile
ĠEngine ers
Ġtox ic
ĠCor on
stud y
Ġintu itive
ĠD oc
Ġad verse
Ġjournal ism
Ġre dd
Ġmyster ious
ced es
Ġtransl ates
ĠK i
Ġbr ut
oper ation
}( [
B road
ĠScot ia
all a
ĠC ann
Ġdet erior
Dist rict
c D
Ġwrit ings
Ã© r
_+ (
Ġqual ification
L im
ov al
18 8
Ġfle w
Ġplate au
b ons
Ġsurviv ors
ĠHal f
Ġver se
Ġlist ings
ĠBel ow
Ã ¯
ell ation
Ġque en
z ens
Bas ic
20 3
Ġr he
M arg
ĠA A
18 46
17 9
ij a
Ġgeomet rical
$ |
Ġback ed
ĠPow ell
Ġup set
Ġby pass
Ġrem embered
ĠNot able
Ġpat ri
Eng ine
ĠComp ared
Ġdivor ce
acknowledg ments
Ġcon vol
oper ative
Ġfif ty
it on
if fin
Ġlegit imate
Ġres il
ĠCour se
ib a
}) \,
Ġpione er
ĠA bs
ĠGrand e
Ġf isher
Ġab oard
}$ \,
: "
il ateral
Ġfin ishes
lass ical
ĠM umbai
ch rotron
},\ ,
Y ang
Ġtechn ological
n ai
Ġro oted
Ġtow ers
ĠEm ma
on ne
ra ment
Ã¶ r
cre ation
Ġ[ (
ĠAm endment
bes gue
Ġopt imum
Ġtransport ed
by e
es ters
Ġby tes
ĠHe at
Ġem ploys
ĠMus ical
ĠStock holm
ĠF antasy
ĠAdvis ory
t xt
ĠN uclear
ĠL iv
fe ed
Ġaffili ate
Ġkill er
Val id
ov ic
s ed
cle an
om ers
imens ional
En ter
F ictional
int ing
Ġvirt ue
Val ues
Ġfarm s
f red
umber land
he at
ĠY an
F lo
ĠR NA
Ġmet adata
Ġcomm utes
ĠWhe ther
C lim
Ġlocomot ive
Ġw age
fill ed
Ġwor ry
ĠEmer gency
ĠH I
3 25
Ġde alt
Ġstay ing
ag le
ogn ition
ĠOut standing
im i
Ġprem ium
ĠOak land
or f
ĠBro s
+ (\
p ent
Ġb er
I reland
Ġr ifle
ĠOt to
me chan
Ġrenew ed
ĠA ub
ĠO bserve
ĠÐ ¸
ĠEvent ually
ĠInd ividual
ĠPan ama
h b
18 45
ant o
Ġdis advan
Ġdisapp eared
u int
ra de
Rou te
atter y
orthe astern
ĠM ob
ac cur
Ñ ħ
por ate
ĠR ice
Ġmem oir
ĠH O
Ġcre ator
ĠDr ug
thin space
ĠDes ert
Ġpiece wise
ĠHamb urg
Ġsal ary
ĠId ent
Ġaer ial
Ġsh aded
D ifferent
17 4
Ġplaus ible
ĠS ul
Ġm ice
Ġprev ents
Supp ort
Transport ation
n umerical
ĠP f
Ġend point
)/ (
Ġdissol ved
Ġfor ty
Ġhas n
18 4
P ic
Mod ern
o fficial
In formation
Te ch
ĠPop ulation
ĠM IT
Ġ& &\
ĠN g
Ġmod elled
Ġsport ing
Ġro d
Ġevent ual
Ġsav ings
Ġs ung
}}$ -
AT H
18 7
Ġend points
Ġpath way
Ġscre ens
Ġassign ments
Ġfore ver
W atch
' },
hel p
am as
0 30
ĠB P
at em
ĠCom ment
and ed
Ġsubmar ine
Ġappropri ately
v d
Ġne phe
Ġreprodu ced
ĠIndones ian
ĠEX P
ĠH ass
Ġe igh
Pr ivate
Ġâ ĪĴ
Ġs ulf
ĠN amely
Ġdimensional ity
ĠNap ole
Ġw ishes
Ġl as
ĠĠĠĠĠĠĠĠĠĠĠĠĠĠĠĠ ĠĠĠĠĠĠĠĠĠĠĠĠĠĠ
ĠIss ue
W F
M atrix
in ous
ĠH REF
Ġsp ans
Ġdes erv
Ġextra ordinary
ĠCh ase
Ġorb ifold
A h
ast ro
ĠCab inet
f box
ĠE cuador
ĠZ imbabwe
H op
c O
ipl inary
ĠZ ero
' |
Ġreveal ing
B ir
ĠC ay
3 45
dom inated
ĠCy prus
Ġint elligent
ĠJama ica
)] $
ĠEncycl opedia
ion ic
ĠPer iod
ĠP icture
âĸĪ âĸĪ
ĠL ay
Ġintersect s
M eta
ĠCroat ian
ĠGe off
Ġcollaps ed
P ress
Ġh oped
S oviet
Ġcollabor ated
ĠL ands
Ġimm ers
m ind
m ans
n is
Ġin jected
20 7
ĠH odge
Ġperman ently
ĠHe ights
ĠN ine
}_ *
bar rel
Ġ! ==
ange red
P ublished
p ie
ĠRe form
& +\
inf all
agn et
Ġless er
cl ick
17 8
Ġmer c
[ $\
el ong
ĠHe isenberg
Ġhum or
W ood
ĠRo osevelt
Ġ& +
Ġachie vable
Ġt rem
^- (
Ġren owned
um m
ĠCont ent
Ġestabl ishes
function al
Ġdebut s
ĠT ru
Ġspace craft
ĠHard y
ĠT all
Ġste pped
o S
ĠRevolution ary
Dou ble
ĠB anks
utt le
ĠAcadem ic
Ġ( #
osp in
log y
ams ung
Ġcasc ade
Ġdet ections
Ġadvert is
n ick
pt s
ĠRe id
? :
Ġrem ix
ĠRichard son
Ġkinem atics
Ġgovern ance
anc el
ĠO ber
Ġadm ission
Â ·
#### ####
c ous
Ġorbit als
3 40
c ache
ĠDise ase
il ian
ĠMal ay
Ġstrugg ling
Ġlob by
Ġho pping
ĠOrig inally
ĠDav ies
K R
Ġcontext ual
n k
Ġkilomet ers
ub le
j in
Ġh ind
Ġvers a
let te
Ġprop ri
d etail
Ġp ap
ĠSalv ador
I ma
ĠI sh
cor rect
v t
Ġextrem al
20 4
Ġmon astery
Ġdat abases
B ody
ov ina
ĠDou g
ĠCon tact
poss ibly
Ġf ires
Ġqu ote
Ġwal let
ĠBat man
P AR
ra k
ogen esis
M g
F oot
Ġch ances
emb ourg
Ġexcept ions
Ġmidfield er
Ġad min
Ġl ane
Ġt enth
ĠHe aven
Ġen act
el in
m atter
Ġadop ting
Ġres et
establ ished
Ġse ver
T HE
P tr
ĠP om
Ġcontradict s
ĠL C
Ġstud ios
us hes
pre ced
Ġpray er
es te
Ġrel ativity
ĠWe ather
Ġo w
Ġr h
ĠAng els
IT E
ĠA ires
Ġcon ferences
ĠN H
Ġsk ip
Ġlegend ary
ĠTun is
Ġc s
g ary
Ġcho oses
ĠStrateg y
] }(
20 9
exp onential
Ġrot ate
ĠPer th
Ġgraph ical
ĠH ack
cal c
Ġch lor
Ġas h
en i
17 1
T YPE
Ġl ith
Writ ers
n il
at op
P resent
Ġst ems
wart z
ĠMan it
Ġnovel ist
Ġdiagn osed
ĠIn side
Ġtra iler
Ġlo ans
ĠG ol
sc attering
} &=
B it
part icles
N s
yp ically
' =\
ĠE ye
) &=&
ĠJ ob
de composition
Ġdirect ory
run ning
ĠS aw
Ġres embles
CL A
18 9
Ġrevers ed
ĠMig uel
Ġpar as
ĠClin ical
H ot
ĠU AV
fra id
Ġsat urated
ingu ish
Pol icy
pow ered
_ +\
Ġ( *
Ġare na
d V
Ġp adding
ĠQ uality
aver aged
ron ts
}) )$
Un like
le af
ac er
Ġexpl ores
Ġbuild er
compos able
Con tainer
C ities
Ġfer til
m ology
y t
Ġin set
ĠM ail
ĠCol in
Left rightarrow
ĠR ules
Ġst er
ĠH S
desc ribed
c amp
ott ing
ular ity
ĠP rec
ĠL ak
con tains
friend ly
ĠT itle
ĠTes la
n om
y x
ĠSaskat chewan
Ġmark ers
Ġbenchmark s
ĠI O
Ġframework s
Ġpit cher
ĠNiger ian
ĠBund es
ST AR
J K
St ore
ĠM emphis
tr ig
Ġquadr up
20 6
is ible
ĠR isk
hi er
Ġwarn ed
) &\
qu asi
ĠLeg isl
ĠR V
Ġpossess es
4 80
m ov
Ġre lying
Ġshow er
Sc ience
itic ians
Ġdepos its
m eter
sim pl
vent ional
), $$
Ġexp enses
ĠWy oming
a ired
En vironment
F uture
S ar
Ġpecul iar
c ourse
ĠM ale
uis ine
oca ust
uff le
Ġfrag mentation
Ġch ore
Ġassemb led
Ġemp ire
c ub
stit u
ĠO rt
he alth
ĠPear l
habilit ation
Ġp ent
Ġabbre vi
Ġvacc ination
od ers
em ia
condition al
ĠAv ailable
R ugby
Ġrank ings
ra its
im edia
Ġwarm ing
ibl ings
iduc ial
Ġreal izations
Ġhar ass
ĠLe vi
Col lection
Ġpro gression
ĠLeg ion
Ġ\ ;\
He ader
A uth
ĠK arn
ĠAct ress
m ons
Ġre ass
dif ference
Ġhydro dynamic
Ġrecip ients
id ays
ĠLe besgue
^* $-
ĠAss ert
Ġprot ons
ĠW D
ĠNe ural
Ð ±
Ġd ock
Ġt ar
ĠK ind
ĠV eh
aj i
Ġt ilt
ĠF robenius
Ġfood s
Ġcod imension
f u
le ad
array stretch
T ilde
ba um
enc il
ĠIo T
ĠY O
Ġsm oke
load ing
Ġobst acle
station ary
ion ization
Ġbul let
CT ION
Ġcul min
Ġcon finement
Ġsw ord
ĠPunj ab
ĠLy apunov
c ool
Ġpr ince
Ġres iding
18 12
ook ie
ĠH z
G ET
16 00
ĠVol unte
le f
ut ils
ĠPl ate
Col umb
Ġ( âĢľ
ĠF ul
ull ah
Ġreg ards
Ġpoint wise
ĠSob olev
Ġca ption
H erm
Ġbatt alion
text subscript
q a
th read
act ivity
hard t
ĠTas man
ĠArm strong
app ings
Ġp ig
ĠDe cl
pi res
stan bul
Ġmon oton
Ġdel ivering
Ġresum ed
rif ice
d ynamical
Ġdisestabl ishments
ID E
comp ress
ĠB rid
ell ite
TT P
F K
Ġche ss
ir atory
] ^-
t ml
ĠN urs
Ġpol ym
ĠEll i
0 12
Ġambig uity
ĠI SM
Ġred es
Ġobst acles
Ġp unk
cur ves
ĠSpe aker
T B
ch ant
ĠMethod ist
ĠG ross
Ġm ood
ĠC riminal
ĠCy ber
whe el
}} )$.
S tage
17 2
ope z
ĠWh ich
integ er
ĠM illion
Ġb achelor
ĠO m
ĠRh odes
Ġf ame
ram id
Ġpers pectives
F alse
Ġover ride
Child ren
J ones
ĠN otes
ĠPo etry
H ouses
N atural
ch in
ĠM ead
Ġph ones
Ġcivil ians
Ġint ensive
Plan ck
Ġde formations
Ġheli um
ĠP E
G od
Ġincorpor ates
at io
Ġconsp iracy
b inding
ĠIndian apolis
J e
Ġperform ers
Ġorigin ating
ess ential
ĠSol utions
r p
ĠSol id
S Y
[-> ]
Ch ief
al in
Ġn ested
Ġdies el
Tra ining
ĠK re
ĠP ink
ad ier
Ġres ur
Ġrecru ited
ĠCliff ord
Ġoverwhel ming
T urn
ers en
*}[ !
ĠG ur
ms g
ĠDisc overy
Ġrep ly
ern ame
Ġfound ers
23 1
Å Ľ
ant is
ĠMan ila
er als
Ex pl
Ġhot els
Ġport al
m om
an ian
Ab stract
ĠSus sex
L B
ĠC rist
Ġg amb
ing o
T aylor
}\| _
ĠPan el
Ġmultipl ied
Ġpri ors
v ark
inv est
Ġpe ers
Ed itor
, âĢĻ
P ers
ĠD ob
Ġamb assador
Public ations
Ġt ags
Ġhypersur face
ĠL ok
Ġdoll ar
ĠC openhagen
ĠL ar
fam ilies
K ar
ut z
With in
Ġmo ist
Ġequ ilib
Ch ris
Ġde ce
18 3
K ind
ĠMer it
uz zy
he ll
out ube
Ġdemoc ratic
en ic
Ġtra dem
ĠBry an
18 37
ow ers
ĠForm ation
}| ^{
Ġby te
ĠJacob ian
ug ging
ĠCom mercial
ĠLin da
R M
Ġunder went
gl ass
Sche ma
intend ent
Ġinfinites imal
ĠWil helm
Ġfle e
Ġapprec iate
}} },
Ġgre edy
b ranch
leg raph
ĠC areer
ili ation
Ġafford able
ang les
Ġsail ed
Ġell ips
Ġ($ (
ĠC av
inter val
ubb les
p ion
Ġunde rest
ĠAg ent
determ ined
O B
Ġro ok
( :
ĠH us
ĠOther s
le z
17 3
ras er
ĠB ound
Ġfl att
ĠAssoci ate
O PT
con verted
Ġen roll
Ġdepart ed
Ġpa ren
ĠEx ception
Ġgradu ation
Ġgram mar
pp y
ĠLet ter
Ġdiscipl ine
univers al
ĠO bs
Ġst a
ĠV ern
eqn o
cy cles
ateg y
rid or
ibl ical
ĠClass ical
ĠC ry
100 00
ĠCar r
N H
d h
Ġ[ [
Ġ ðŁ
ĠMor occo
Ġel ong
Ġag enda
Ġkill s
Tax onomy
ĠM g
iff ith
spect ra
ĠKa ren
Stand ard
Ġpar se
Ġrev ival
ĠMaterial s
Ġcook ing
a ffect
Ġsubstit uting
A da
r ub
que z
ĠBr ussels
ÑĢ Ðµ
ĠDun can
Ġchar m
ĠW ick
Util s
e ither
press ure
ĠG em
ĠSt yle
Ġsem icon
Ġadv ised
Ġreleg ated
ĠVi ol
ĠApp lying
P F
18 44
Ġheav ier
Ġtub es
os lov
in fl
ĠDist ribution
P V
Ġe ject
Ġdomin ance
ĠSher iff
Ù Ĭ
18 39
normal font
ĠA ges
acc ount
Ġparametriz ation
+ }$
Ġimp urity
Ð° Ð½
av ian
Ġen zyme
Sche dule
19 3
ĠRes ponse
en za
ĠCom ments
ĠSum mit
Ġinitial ized
kins on
im ple
ĠB row
oy a
ant le
Ġdifferent iation
ĠExcell ence
18 6
)} -\
Ġhaz ard
sc ience
Ġretrie ved
Ġquas ars
D ark
ĠNott ingham
in finite
ĠG ent
er ver
}) }$
Ġlack ing
ĠO DI
( *
ĠJ unction
ĠB in
uc as
ĠNob el
Ġext inct
arth y
Ġpick ing
Ġconsult ant
Ġstri kes
ÅĤ aw
act ers
F a
ĠF lem
P ad
-> ]
found ed
b ranes
Ġter rain
ĠMe eting
C as
ĠTrans former
ĠP it
Ġanne x
e i
ĠS EC
Ġbeat en
d iver
ed itor
Ġup graded
by ter
Int eger
deriv ative
ore sc
Ġpropag ating
Ġwitness es
Ġaccept ing
Ġinstant aneous
Ġs id
ĠE k
ĠEx hibition
Ġinstit ute
ĠBou levard
ĠV R
ĠCl are
Ġpur suit
ĠT rad
Ġtrac ed
spe aking
ĠS ou
em ission
ak is
ĠOr lando
Ġ\! \
Ġjudg ment
Ġsi ege
Å Ļ
ĠSl av
Act ive
ĠK hal
ĠV il
Pro file
Ġsk et
ĠBi ography
Ġcor ps
Ġnob le
ĠM old
ens pace
yl an
t ogether
Ġ ^{-
\/ }
Ġacadem y
Ġdie lectric
P arent
Ġt ile
ole y
b log
Ġimp ressed
Ġterror ist
Ġsurprising ly
-- >
28 8
Ġdub bed
| ^{-
ho o
ĠW id
Ġpost er
Em pty
}} }_
'' '
Ġfun ctors
Ġannot ated
Ġaccum ulated
Ã ½
con tact
clud ed
prec ision
Ġw are
ist ration
ier i
ĠMay be
f air
4 000
J S
Ġst ocks
Ġflood ing
ap a
it Ã©
ĠC ec
ĠW rite
Ġstre ak
ĠGra duate
sm ash
d iss
Ġre op
Ġb acter
ĠIs le
Ġgl ac
ĠM pc
ĠH ousing
ĠSim pson
ĠTrans it
ĠImage Net
Swed ish
Ġspec imens
var nothing
and ez
ĠBudd h
ĠJac ques
Wind ows
Ġf iscal
ĠP orter
ĠSt rat
add ress
Ġathlet ics
k ok
Ġd B
st ed
ĠN J
ĠP ain
ĠC lear
Pl ayer
ĠTan z
ĠCom parison
18 20
rac ing
Ġca us
Ġaccompany ing
Ġt iles
B ell
ar re
Ġg i
Ġstrugg led
Ġfulfill ed
18 2
ne apolis
Ġwar fare
Ġens embles
Ġcooper ative
ĠHT ML
Ġanomal ies
Ġinv ented
ta iled
E rr
ĠL ed
ĠD j
Ġfurn iture
=" _
J ean
all i
ĠHer ald
Ġre he
="../../../../ ../../
ĠT iger
olog ic
ĠM otion
Ġpri ests
Ġsil icon
enti eth
Ġt ong
Ġbatter ies
Ġmand atory
I mm
Ġcontract ed
' )$.
) ^{(
ĠSe pt
pl aced
ĠOpt im
ĠIraq i
ĠHind i
ĠD in
Ġsur ge
ĠR ut
ĠViet namese
Ġlemm as
Ġconstitu encies
Ġgu itars
Ġarchae ological
SE T
ĠComput ing
Ġen rich
rad io
be at
Ġluminos ities
{ ,
}\ }$.
Ġpra ise
an ol
ĠL if
}{ {
ĠBet ter
g rand
ie re
Ġeffic acy
ĠE ight
Ġmit igate
Ad am
ĠBr as
L F
lim inf
a very
Ġsolit on
Ġn aming
re pe
Ġimm ig
D oc
re rs
Ġclean ing
? }
ĠLou ise
Ġphenomen ological
Ġsubsc ription
ĠSom erset
Writ er
' }}
Ġ\ [\
Ġconscious ness
Ġwork shops
p ark
att i
A verage
Ġpur sued
bi as
Ġl ymph
ll l
\, ,\
ĠPop ular
Ġl ady
Ã¨ s
In terest
le en
Ġl unch
De velopment
ĠBu enos
ĠV ers
Ġpool ing
ĠIniti ative
Ġmet abol
Ġdraw ings
arch ive
ĠC i
ĠD as
ĠMaur ice
ĠM uk
R h
ĠDet ect
Ġnick name
ĠF actory
ĠA bor
F act
Z ero
ĠCon versely
ĠInvest ment
E ll
Ù Ī
ĠW arriors
ĠDev il
ĠEm ploy
Ġjud icial
m k
Ġtermin us
Ġrefe rend
Ġtalk ed
ĠChem istry
Ġic onic
os ion
ĠG ren
D IR
S ample
Ġbur sts
ir med
ĠB elf
Sett ings
ĠTw enty
ĠLe icester
G I
ign e
abl o
Ġopt ically
ĠAssoci ated
j p
er cis
ten ess
P ak
ĠH aven
AM P
ĠE OS
Ġfl ank
alax ies
ĠInvest ig
ĠM om
Ġsuper gravity
Ham iltonian
Ġbad ly
ri o
M ountain
Ġre bounds
ac iÃ³n
class ification
ĠTechn ologies
vio let
opl an
Ġconstit utes
Ġunde fined
Ġarg s
Ġmark er
A u
ĠR M
}$ }\
Ġinv oke
em on
Ġf i
as aki
ĠR i
ĠArch ae
R ot
et itive
ĠK yle
Ġphil anth
F ort
ur ally
O ption
Ġinter ventions
Ġexplo iting
- .
M ike
Ġd ump
ĠCom plete
ĠDi pl
ĠPublic ations
bib item
Ï ģ
IM P
h ma
ra pper
Ġdo i
Ġdeb ris
Ġund ers
ĠTri ple
ĠM Hz
? )
or ption
R ule
J eff
Ġfe ud
Ġend owed
A li
ĠGi ov
ĠM aking
Ġrel atives
ĠEx ped
Ġdecomp ose
Ġalle vi
Pol itics
Ġal beit
Ġra ises
R oot
ĠR he
Ġs li
N OT
W D
ĠSh op
ĠCon v
w ik
Ġste ering
on ial
re call
18 35
Im pl
ond s
AR D
Ġcho ir
MA X
utr ino
is le
Ġshe ets
ĠT ampa
ĠB il
Ġneur on
exp ression
Ġn ond
al tern
ĠI g
ot ics
Ġcon es
Ġsubt raction
Ġv ig
L I
au f
ĠManu fact
L iber
. ''
ĠC anyon
s amples
Ġweight ing
am on
Mod ule
ĠCel tic
Ġw ors
ĠB oh
ĠShe ffield
In c
z t
Ġb out
St an
Ġgame play
| |\
Ġin consistent
Ġsynchron ization
Ġd ancer
Ge org
Ġsuccess ion
product ive
ĠW ave
ĠHe ath
Ġjust ify
AC S
Ġarchitect s
Ġwitness ed
Ġx ml
Ob j
chie f
ed o
! ,
A bs
part s
ĠDist inguished
ma ils
Ġsynthe s
sh adow
ĠR onald
0 15
ĠCy cl
Ġoccas ional
L ock
er i
Ġex clusion
; }
u o
Ġbomb ing
Ġtour ists
ĠSh im
âĢ¦ ]
Ġperm its
curs or
am ous
sim ulation
Con stra
ft en
ĠProv incial
b ind
red uction
Ġexclud ing
observ ation
18 38
ĠSant iago
Ġre jection
ĠBa iley
Ġdep ths
ĠTh orn
ĠAndrew s
Ġpar ams
ĠAr ctic
Ġfeas ibility
ident ity
ĠPak istani
Ġaccum ulation
20 24
S ound
ter bury
ĠChem ical
Ġo s
Un incorporated
Ġcap ita
vect ive
st raction
ĠR ush
Ġc ant
ĠMy r
B an
am oto
ĠJacob i
e ah
Ġcross ings
ort ium
U LT
Ġg ases
big wedge
m v
Ġconver gent
ĠJ ake
Ġ< =
gener ic
i ary
Ġindu cted
Ġcon vection
ifferen ti
Ġdiffe omorphism
Ġp ub
Ġdenomin ator
ĠC oun
Ġ+ +
Ġkn ots
Ġrep ublic
Ġdisc overs
at um
ian e
edd y
Ġc avalry
Ġen closed
Vis ual
ĠBos nia
ĠKenn eth
Ġre min
w d
J un
aw i
Ġisomorphism s
Ġfre ight
tabl en
ĠBrad ley
ĠHend erson
R D
22 7
ĠQu art
ĠH ash
18 41
Ġinstitution al
Pr inc
ĠDomin ican
he avy
Con tact
AR Y
Ġdup lic
ĠF ashion
oc on
Ġst ones
ĠPal m
ĠP SF
min o
\! -\!
ĠK end
ĠH off
Ġpian ist
Spec ies
non linear
Ġdecay ing
Ġcler gy
C ert
Ġ\ {(
Ġretrie ve
Ġpsy chiat
and i
Ġhyper parameters
Ã ĥ
Ġcon figure
ac ency
Ġun incorporated
Ġvocal ist
Ġem it
Ġfil ament
oy e
ef ault
ĠAdvent ures
B rien
E instein
0 11
Ġden oting
general ized
ĠP sy
ĠCont est
Ġle an
s chool
Ġcot ton
Ġuns igned
ĠP I
Ex periments
Ġveter ans
ĠMin i
isp here
Q R
doc s
+ |\
}) ^\
in da
Exp ression
on ge
Ġst yl
d ia
Ġevol ves
}' _
print s
26 4
Ġconduct ance
ro cal
ul ers
od ia
ch y
Ġcomm enced
Ġsmooth ly
ercis es
ex ternal
Ġconjug ation
sign al
ĠT X
eps fig
ĠGl obe
ĠÐ ½
) })\
Ġabund ant
iz ational
Ġc ig
Ġtra ff
Ġun seen
B ER
Ġpro c
Ã© g
E mb
al one
Ġp ocket
}' (
Ġbroadcast s
ĠLu cy
Ġcle ared
Ġunder taken
ĠAr g
M V
ar is
preced ented
ĠJerem y
Ġanxi ety
ĠLithuan ia
h urst
Ġsimple x
N GC
ĠAbd ul
Ġtail s
g overnment
styleshe et
atta ck
Ġtem plates
ĠInterest ingly
Ġanalys ed
I l
Ġour s
Ġra bb
Assum ing
And rew
add ed
Ġvis cous
Ġthread s
ĠG es
ĠYugoslav ia
bf series
Ġerg odic
appro ach
Ġvoc abulary
[ -\
}, {
ĠCal gary
ĠHy dro
ĠB ran
Ġpre y
s an
Ġk a
Ġadv isor
Ġtrust ed
make cell
Ġman s
be cca
Ġnation ally
ĠC ool
Ġprof its
ed it
ĠF E
de cor
M arc
ĠT ales
ĠS B
iel sen
Ġ$ >
Ġselect s
ĠR ate
Ġemp irically
, +\
Ġexcess ive
Ġun anim
ĠĠĠĠĠĠĠĠĠĠĠĠĠĠĠĠĠĠĠĠĠĠĠĠĠĠĠĠĠĠĠĠ ĠĠĠĠĠĠĠ
ex ception
phys ics
ĠK aw
ol er
ĠArmen ia
ir ie
ĠW ald
COL OR
ĠA way
Ġbroad ly
b rown
ĠAll an
Ġtransform er
As ian
B egin
ĠRe ich
ĠCol umn
es pecially
ĠF emale
Ġopp osing
n x
}} }_{
Ġrecur rence
ol ics
ĠPer haps
ring e
Ġaug ment
Ġgeodes ics
at su
tt i
26 5
pro port
Ġcab in
er re
ĠWest minster
Up on
Ġrepl ied
ĠCoal ition
ou cester
Ġal arm
Ġflow ing
V ictor
Ġdead line
id ian
Ġis ometry
ou lli
ĠJohann es
Ġcr ust
18 36
ited efault
Ġis su
Ġscr atch
A sh
ĠMor rison
mc itedefault
Ġreal m
or um
Ġemploy ers
ĠD ale
Ex pr
ampl itude
enc oder
h istory
ĠK urt
ogg le
ĠBi ology
Lear ning
ĠÃ ĸ
Ġvict ories
Ġsac red
Ġprest igious
J oe
ĠF alse
Ġexpress ing
E ducational
Ġcycl ing
Ġrein forcement
s gn
i encing
ĠA verage
Ġun biased
pro jection
Ġoptim izing
accur ate
Ġw is
ĠHe in
ĠA V
Ġj er
2 16
Ġmain land
Ġpress ures
ĠC W
Ġapp ar
ur an
leg al
\ (
othe rapy
ential s
Ġemphas ized
m ust
ĠS ig
roph ic
Ġra pe
Ġcondition ed
S K
ĠC IA
Ġnecess ity
Ġmultipl ier
m otion
Ġh ung
Ġcat hedral
vark appa
Ġdelet ed
Ġpractition ers
q n
Men u
ew ard
33 33
zz o
v x
ric ia
Ġtal ented
Ġwe ren
ne ider
ĠMil ky
Ġcert ification
Ġ )^
ĠPract ice
Ġk ings
_{ |\
ire cted
ĠHel p
Ġanten nas
b h
Ġsl ip
Ġc ouncill
sp arse
ĠI RS
ĠIn g
ĠS USY
Ar thur
Ġrevolution ary
Ġbrig ade
U pper
ĠH od
On line
Ġhon ored
armaceut ical
ĠWe i
ĠFin als
re leased
ĠDub ai
J ournal
ĠLet ters
Ġde formed
ĠDev on
Ġmic rowave
Ġra infall
Ġ- (
object s
G erm
ĠMal ta
29 0
Ġarg uing
rapeut ic
qu in
ĠA ch
Ġrespons ibilities
ĠM iles
Ġbehav es
ĠGl enn
c ue
ire ction
Ġprompt ed
ĠN om
Ġcomprom ise
22 3
c ategories
} ')
}] ,
F ellow
ĠD esc
Ġj e
err ors
ron ics
enn ium
-- (
ĠH il
ĠP erm
vert ical
Ġremov es
Pol ish
Ġexam ining
ĠM ang
Ġrenew able
ĠS equ
Ġelect roweak
Ġtru cks
approp riate
D etails
ĠH ern
ud er
ĠWrit ers
Ġhe ated
}\ ;\
ĠGram my
ĠGene va
ĠX box
ĠSom etimes
pe x
Ġy esterday
Ġliter acy
/ $
ĠB ian
Hand le
Ġmyth ology
Ġtheat rical
th y
c ats
Ġb otan
23 8
g ae
Ġhelic ity
Ġap olog
ĠExper ience
> .
I con
Ġb ump
Ġmur ders
ĠFif th
ĠS ons
Ġn itrogen
by te
oul os
}^* \
G overn
en ko
Ġang ry
Ġeccentric ity
Ġdi abetes
del ay
ĠCh in
ĠW end
s ight
Ġret ro
Ġpit ched
Ġproblem atic
Ġt elesc
18 43
ĠSur v
Sim ple
! )
ast ed
Ġ" [
ĠFran z
ĠC rystal
ist ered
ra z
ĠEd mund
ex plicit
18 32
Ġd oping
Ġcrit ically
ĠFern ando
j l
e ref
St arting
ĠJ SON
Ġbl ur
0 75
j ournal
Ġhand ful
ĠEngine er
ĠE valuation
, ~\
An t
un cer
L os
Ġinvest ed
f mf
Ġdiscrimin ator
ĠGu ang
R P
nd ez
ĠE ST
B or
Ġs iblings
S cale
p ixel
ex ist
Ġstrugg les
ĠL M
bra ket
Ġsatisf action
ĠQu estion
P rem
Ġthe or
ĠBro ck
ĠMajor ana
prov ide
Ġst y
Ġshe ep
Ġexpect s
ĠS itter
Ġimplic ation
L ip
\ ;\;
ĠAt tack
}_{ [
Ġoptim ality
unc redited
ĠB M
Ġra id
vari ables
Ġse ized
ĠC ategory
Y P
ins k
Ġenerget ic
ĠG Ã¶
enz ie
Ġat tain
Ġf u
Ġingred ient
normal ized
ĠHaus dorff
P ier
Ġd ining
ĠÂ «
ĠW C
ĠM F
ord ering
ax ter
Ġdis rupt
ordin ate
t ran
Cal ifornia
alk eeper
Im port
M i
ĠCh ad
diff usion
un ition
ĠA ri
ĠD ow
ĠD FT
}, $$
ĠSub sequently
le arn
Ġlast ing
amm ad
B K
Ġl uck
mon ton
ĠR s
/ -
22 8
etric s
med ium
Ġhe ights
y ellow
il ion
Ġn g
M ic
in ters
ĠT arget
ĠQ atar
ĠSc i
N orthern
Ġflo ors
M pc
Ġra pper
ĠT ot
}+ {\
ĠW ool
ĠLe ad
W ord
Ġlinear ized
Ġtor ped
C opyright
Ġy r
Ġhe ir
Re ader
Cl oud
Lo ad
Ġfar mer
Ġdif fraction
^- _
ĠDe b
for cing
oura ble
ĠUr ugu
rotate box
Ġ* )
Ġpass word
Ġded uced
)= {\
ĠMc Donald
qu est
Ġnon empty
Ġcl ay
ook s
mat rices
ĉ ĠĠ
Ġpack ing
' _\
w ald
Ñ Ĩ
Ġgen res
ar ner
rit z
ĠB rain
Ġra p
be en
ĠCont ract
Ġimprison ed
Ġtra its
Ġtra ils
Ġhelic opter
Ġpr uning
Ġtransp arency
Americ a
Dem ocratic
IS A
k le
ĠEconom y
Ġe uro
Ġwid ow
Ġhist ories
eg ovina
ar ians
E valuation
Ġpro long
Ġposition ed
ĠTre asure
Ġprom ises
Ġcomed ian
Ġw ond
ric a
Ġme al
Sec urity
Ġvo iced
Ġastroph ysical
Ġterm ination
fe atures
pol lo
Ġinsect s
os i
iz za
ho f
Ġbox ing
Ġterm ed
ĠHur ricane
sol utions
d ated
Ġinter im
ival ent
Bel ow
ĠCar roll
hu ang
de comp
E th
Ġdon ations
Ġ\! \!
= &\
Ġpresum ably
ateg or
Ġint ensities
ĠL ines
o que
th ood
is se
ĠElect ronic
Ġvot er
30 4
ĠRail ways
Ġtri o
ÑĢ Ð¸
l ot
}+ (
Ġtouchdown s
Ġr ivals
ĠC yr
ĠCarol ine
Ġmach inery
g ences
23 2
Ġanaly se
B attle
inter acting
ĠCons idering
C ong
ar Xiv
ĠK om
Ġ\ |^
Ġess ence
ag in
22 6
G rid
Ġle ase
Ġinteg rand
ĠApp lied
ĠGib son
ĠR ib
ĠDivis iÃ³n
/ (\
c ies
22 9
Ġobser vers
Ġdiscontin ued
Leg acy
ocy cle
rac ies
Ġup stream
ĠZ h
Ġ }.
rac ed
re ak
ĠM atrix
- (\
Ġwork flow
anu el
ĠS G
ow itz
ĠK ang
coupl ed
ric hed
ĠChar acter
Ġre pository
Ġlo ads
ĠO P
ĠTour ism
Ġpublisher s
Ġshe aves
g f
Ġfunction als
ĠLes lie
proto buf
ĠEx perimental
g old
Ġnovel ists
Ġab normal
24 8
ĠConc ert
A ff
Ġsuff ers
Pac ific
Pop ulation
Never theless
Ġpow der
us ually
es se
Ġc ob
Ġch ord
ĠM ell
Con st
Pol iticians
Ġcomplaint s
18 42
prov ided
Ġapp rent
Ch arl
Ġax ion
iat ric
ĠLegisl ature
ĠW H
ĠP engu
ym es
23 3
Ġelder ly
ĠEug ene
ERR OR
ĠMar in
Ġle ts
ĠB B
Ġdis ability
Ġh anging
B and
Ï Ħ
nice frac
Ġg ods
Ġout liers
Ġg erm
Ġadminist rator
ĠBarn es
ript or
Ġinform ative
ĠF ol
Ġcomm od
em ption
ĠShort ly
19 1
ce iver
ext ended
Ġmidfield ers
we i
ĠL abel
$ +$
les h
ĠZ ag
ad al
ĠVari ous
Ġnephe w
st ats
par box
Ġcasual ties
ĠC risis
ĠSch midt
Ġworld s
Ġlaunch ing
{$ {\
H ub
0 50
a uc
ĠDe al
ĠPro gress
ĠCard inal
Ġab olished
_+ ^
Ġcitizens hip
Ġca f
ĠManit oba
I o
O F
Ġsubject ed
Ġn utrition
Ġdon or
av in
ĠW IT
Ġgroup ed
k im
Ġo c
Ġn erve
Ġall oc
ĠSub section
Ġbe ings
P erm
}\, {\
he nd
Ġon wards
ĠV or
Ġprison er
ens itive
ĠT ables
ĠR ash
Ġsignal ing
ore tical
ĠJ i
Ġgl obe
ĠFl ag
ĠFl ash
ĠÂ ±
Ġtact ics
Ġsail ing
st rict
Ġcon duction
ropol is
< -
M as
ĠD I
T an
ĠGal ois
ĠB order
ĠU tt
F N
ograph ies
Ġleg ally
Ġmut ations
Ġm all
n Ã©e
Dep artment
Ġex changes
vis ible
B all
H ttp
Ġsche ma
ĠP irates
Ġdis charge
Ġclass room
ĠSol omon
Ġcare ers
ĠML B
» ¿
Ġl oses
S tack
ĠL odge
Ġhyper plane
") );
) }_\
Ġb ones
Ġsmooth ness
Ġinsert ion
Ind ividual
Ġprim ordial
ĠA post
Ġprof ound
ĠF ay
Ġbehavior al
ol an
h fil
Ġcust ody
ĠCub an
x u
Ï Ĥ
Ġpenal ties
Ġbankrupt cy
: [
ĠW ant
^* _{\
ged y
ĠCh arg
Ġ} }\
pop ulation
Ġlingu istic
ash ire
Ġtorn ado
Ġtwe ets
Ġin cur
Ġtor ic
Ġrel uct
Ġthrow ing
orth y
Ġsupp lementary
ĠInst rum
j ack
ess ing
37 0
P en
Ġf antastic
ident ial
ĠInter ior
sh all
Ġfound ations
ada ptive
b right
inos ity
ĠT ir
Ġillustr ations
' }(\
de lete
ĠEthiop ia
Ġtem ples
Ġram p
Ġwra pped
s burg
la us
Ġcondition ing
g irl
maxim um
Ġtra vers
h ler
C itations
ph il
f ri
Ġinvent ory
Ġf ier
Ġplant ed
ER N
leg ate
ch apter
Ġsp ike
th ose
ĠCh uck
af a
bo olean
ĠTest ament
3 10
Clim ate
M ake
ĠW ake
Ġs our
Ġacceler ate
Ġaut umn
dist rict
align ment
ĠRep orts
Ġnav ig
ĠRetrie ved
he y
Ġvort ices
ĠK ot
Ġj av
Ġpos ed
ĠField s
Ġpredict or
ys ics
30 5
ĠAnd rea
ĠCart esian
R os
s ocial
24 6
ĠÐ ¾
Ġgrand son
re ra
Ġsculpt or
ĠWag ner
mon ot
Ġacc idents
Ġtack les
ĠRe in
Ġmet er
Ġbre ed
ĠO st
ĠAut om
orne ys
C ustom
ĠD awn
sc ious
Ġcl ump
){ };
ĠU til
per cent
to String
Ġpath ways
Ġnom inee
ĠSant os
% ).
Ġadjust ment
Ġcon verse
mod ern
Ġexper iencing
âĢ¦ .
ĠAgric ultural
M ach
ĠT C
ob ic
oe lectric
30 1
acc uracy
M ills
} "
ĠElli ott
ta k
ĠD NN
ĠSta kes
& -\
m and
ĠRoberts on
Ġsl ide
Ġ&= &\
ĠMin neapolis
ĠCorn wall
ĠL D
r q
v id
Ġm oll
AR E
ĠGer ald
: $
Ġcry pto
w ild
ĠFrank furt
arab ic
ï »¿
Ġun necessary
ĠSh ore
fl ush
Ġmet ast
ĠK oh
Ġsl ots
ĠAmeric as
\!\! \!
S ho
ĠK nowledge
Ġreven ge
Ġpro tagonist
arian ces
ust ering
Ġgirl friend
Ġdecl aration
ĠMult iple
Ġemer ges
w avel
Ġback up
Ðµ ÑĤ
ĠH ER
ĠR ac
ĠJ ur
Met adata
> :
ĠN othing
Ġtrib al
d ar
og l
hor izontal
Ġpropag ate
Ġpr imes
ĠT ell
ĠT ik
Ġhold er
Ġge ographical
ĠD ong
ear ly
ĠAl bums
Ġhom eless
Ġconstitu ent
ĠW R
pl ug
ĠN SF
Ġsupern ova
Ġcru ise
ĠMichel le
ĠSc ore
ĠAd rian
18 1
ĠC ord
Ø§ ÙĦ
h ra
ĠB ever
ĠHigh land
oding er
h idden
24 7
Ġmet eor
ĠLine ar
Ġ æ
Ġinterview ed
Ġtransform ing
ra ising
ĠJup iter
ĠTh r
mat ory
}[ {\
vary ing
ĠD ock
_{\ !
ian ces
text sl
P ark
r ina
Ġf iducial
G i
Ġret iring
Ġorgan isms
R u
g ang
p u
W ave
un ks
Ġca ution
Brazil ian
ip eg
Qu antum
ĠHerz egovina
" ))
ev ol
Ġfil ename
Ġce iling
Ġspec ially
cm d
ĠDire ctors
+ {
Ġlect ures
Ġac ids
Ġvulner ability
Ġbifurc ation
ĠT ennis
ard e
}. \\
Ġhousehold er
ographer s
Tem plate
ke eping
Ġc uisine
ĠB ose
Ġcor poration
opt ical
onic a
Ġdo zens
Ġdel ivers
ĠH ank
ĠV III
Ġn oun
Ġvis ually
ĠCal cul
u ke
Ġsc anning
ĠCle an
Ġin tact
as pect
Ġpreval ence
Ġdec iding
ass ets
ĠK ane
ĠTre k
central ized
Ġa fraid
st ochastic
Ġun precedented
Ġbow l
i ably
Ġaband on
app ly
Ġle ather
^+ ,
f ried
com fort
Ġcalib rated
ĠR ica
Ġex pend
ip ur
ĠSt op
Ġ ibn
p hen
amb a
ĠKing ston
acc ording
ĠLux embourg
R G
Ġin line
ĠPro perties
ĠAbor iginal
f oo
en vironment
ĠU C
ĠEll en
g ro
ĠJam ie
ĠSh annon
)= (\
Ġcolon ies
ĠR B
Ġaut obi
ĠCl aud
Ġpack ed
ĠFilip ino
= ~
Ġmon oidal
Ġmist akes
Ġveget ation
ĠAtl as
Ġslic es
38 4
Ġapp end
osp ace
T ests
ĠMov ies
Ġswit ches
Ġn urse
ĠA ve
Ġselect ive
L oss
a ine
Un fortunately
Ġthe rap
Ġple ased
ĠDo ppler
ĠTre asury
Ġconsum ed
Ġhar sh
ĠL ip
Ġreg ulated
Ġsuggest ion
Ġhe aling
Ġphysic ians
Ġaut h
ĠW ire
Ġart ic
ath olic
24 3
ir ling
23 7
ĠCh al
Ġprob able
Ġiter atively
m ile
ĠD iana
fin itely
ta ine
resp ons
ch art
os ity
)=\ {
ĠSte fan
Ġre med
ĠLyn n
Ġsm oking
andid ates
Ġrac ism
á ¸
ä º
em ann
F r
d S
Ġcal m
mon ary
Ġdisband ed
Ġ\ }$,
Ġnil potent
el en
it ively
Ġcre atures
ĠCr us
ĠRoll ing
Ġfund ament
ĠSp in
ura i
Bbb k
0 13
v r
per fect
ĠPa rent
( .
I ran
ĠT itan
ĠSw itch
de velopment
equ ality
C irc
ĠIn put
y z
vert ices
own ers
ĠBel le
~ .
ograph s
}| _{
log ical
Ġrece ivers
i per
equival ence
ne z
Ġcast ing
if a
A X
M ix
ĠMont eneg
00 9
Ġsix teen
ĠP on
Ġprohib ited
ĠD escription
Ġparametriz ed
Ġremin is
ĠHol ocaust
ĠPl aza
atern ity
Ġher b
N ET
\ }}\
iv ier
S equ
g m
Ġinv olution
ae us
i ast
Ġseason al
Ġbur ial
CO DE
Ġviol ating
Ġepid emic
ĠChe ng
Ġp el
Y S
ĠPoint s
Ð ³
ta ker
ĠN W
ĠM ing
ĠK ab
col m
D id
de creasing
Ġdam ages
ĠMax im
40 4
ĠG othic
artifact Id
p relim
Ġorgan ize
}} &
Ġsl iding
Ġbott le
ĠEmm y
ex periment
)} ;
Ġfin ale
ĠN acional
Ġloc ate
ed ly
ĠM M
Ġbi om
ĠPear son
ĠGu itar
ĠMerc ury
40 1
Ġnurs ing
an ium
ĠSo ph
ĠM atter
con cept
Ġsculpt ures
ĠM ales
ĠTr in
ĠBel grade
G h
Aut o
ĠBlo ch
Ġred ist
f oc
Ġflav our
Ġwithdraw al
ĠLe op
ĠM SE
ĠP ine
if les
arch y
IG N
ĠS ed
Ġinterpret ations
ĠP iano
Ġsyn chrotron
im ates
Ġpriv ately
math p
ly m
quar tered
v ich
Ġquas ar
ĠL ives
Ġpo inter
Ġcard inal
it he
Ġpropag anda
\ })
ĠH ull
Ġf ingers
ĠF ramework
| >
al an
Ġwhere in
Âł Âł
F ive
ĠL F
Ġsear ched
Ġsort ed
ĠZ amb
Ġreplic a
ĠCh andra
Ġh orm
ĠR AM
is ol
ĠL omb
Ġb ud
sh ows
Ġmon ster
determ in
ĠI v
ĠK iss
ĠCompan ies
le ys
det ection
Un til
en h
Ġf ut
Ġwork force
ĠBe a
ĠH app
Ġmultip lying
Ġres emble
ĠCon jecture
Ġstack ed
7 20
Spr ing
ĠT ick
Ġunve iled
Ġfol ks
Sy mbol
M iddle
it ches
Ġco h
Ġhom etown
2 21
Ġm appings
ĠF uk
ĠHay es
ĠC od
ĠN atal
ĠAct ive
Ġhero es
Ġfre ed
ĠA FC
Ġre vis
ot ers
Ġquadr ature
amp ire
âĢ ²
ĠBay es
communic ations
ĠH oll
Ġprior it
ĠH appy
B rand
Ġam ple
Ġimport ed
supp orted
F und
ĠAltern atively
ĠA CC
Ġtrans cript
reng th
ĠAccording ly
Ġse al
pl ays
Ġinter stellar
arc s
O k
^* )$
\% }
rypt ed
r ants
Ġcommun ist
Ġlens es
ĠB ot
Ġview point
ĠBas in
Var id
Hig gs
Ġe y
nod ata
= {(
ĠS ter
Ġreferend um
Q Q
Ġch icken
Ġfin ancing
pl ugin
CO M
follow s
Ġdispl aced
M ock
ĠBur ton
ort ions
ĠJo el
Ġlad der
re place
p k
ul o
Ġgen ome
Ġw av
Ġqual ities
I sl
T x
Ġto m
qu ist
ĠT ropical
Ġcoordin ator
Ġqu i
Ġin homogeneous
ĠGl oucester
con tr
Ġur ged
q i
25 3
ik er
ed ar
Qu ant
p adding
Ġthir teen
U ND
ĠV ector
{\ ,
18 34
RE E
Ste ve
Ġde x
yn chron
Ġgra ce
align at
mark s
Ġ il
Base ball
ĠW aters
ance ment
com par
Con struct
fin ity
Ġske leton
ĠB es
ge o
Ġneighb ours
ĠF ollow
ure r
comple t
Ġpros per
effect s
sens itive
Î µ
ĠR overs
pl ess
Ñģ Ðº
g am
found land
Ġastero id
}& =\
arting ale
ĠSh ir
ĠSim ple
Me asure
Set ting
Bel g
ĠO K
ĠJul ie
N AME
g d
Ġemb od
Ġserv ant
rot ation
Ġquestion ed
erm ost
29 5
Ġflu ids
Jo in
ĠGarc ia
Ġc ement
P aper
ult ra
ĠBaron et
ĠE L
Ġp ending
ĠK um
cent ric
Ġdig its
Ġfl ares
ĠH ood
ĠR oh
Ġch orus
ĠX I
M unic
ĠMor se
Ġlept ons
Ġredund ant
ĠH M
ĠHess ian
b age
Ġh iding
Ġprem ises
Ġfold ed
ĠB j
- {
ĠM TV
ĠM eyer
Ġnerv ous
ĠE isen
byter ian
un al
du ality
ĠCor p
odd ess
Ġdef icit
Ġgrad ing
Ġcongress ional
il ogy
4 95
Ġto b
ĠP V
Ġter rible
}\ |^
Ġhur ricane
ĠTreat ment
l ifting
sp atial
)) _{
role um
m oving
Cent er
g rowth
Ġsl avery
ĠJess ica
re port
gu y
id is
S us
and ing
Ġcompan ions
Ġqu ench
ĠDay ton
Ġre combination
cross ing
S ect
). \]
oper ators
Ġmotor cycle
ash tra
As ync
Ġtrem end
Ġb ore
Ġenc ryption
Stat istics
})$ -
Ġvin yl
K en
}\ }$,
}] $.
Ð¾Ð »
Ġrecurs ion
âĢ ³
}. \]
Ġout lets
Ġutil izes
Ġp upp
head ed
ĠLiter ary
By te
ĠGeorg ian
ĠFer gus
Ġchrom os
ĠTo o
Republic an
ast ing
}$ }}
Ġdis hes
## #
ĠI stanbul
ĠG yr
D igital
block List
ĠKe ep
Ġimag ery
Ġoptim izer
ĠPresident ial
Ġsubdiv ision
r z
Ġt il
Ġs ack
com ed
'' \
Ġwant ing
Mem ory
cell s
Ġfin anc
Ġm aj
ĠS cal
ĠH ubbard
IG HT
Ġtribut ary
30 8
Ġproduct ivity
W ild
Ġcomp ly
con formal
ĠEl se
idd ing
m ock
ĠB urns
ĠSil va
ĠPsych ology
Â Ń
ann ers
Ġanaly st
ĠChe ss
er red
cont roller
et able
ĠI MF
Ġf are
ĠL iz
Ġatta ch
ĠEston ia
neut ral
ĠNot re
ine z
plic ation
2 17
ul ent
Field s
ĠMus k
Ġsuff ix
f ocus
Ġb a
Ġco ached
u w
ysh ift
ĠX ML
ĠB un
st ri
ĠIn spector
sub fig
Ġbl ame
6 25
Ġ ĉĊ
ĠNew man
Ġcolor ing
Ġpup ils
C ulture
Ġforecast ing
;\;\ ;
Ġcomp elling
23 9
Ġsynthe sized
ĠR ole
Ġextract ing
Ġwork place
ad ays
Ġne b
ĠNon etheless
Ġv ox
fl ag
Ġmaxim izing
K it
ĠR oot
Ġse am
PR L
Ġazimuth al
Ġp orn
Ġearn ings
Ġscre ened
Ġfix es
din and
ĠCan terbury
S ame
sh ock
ogram s
Ġopen ly
Ġlock down
Dire ctor
Ġpost ing
l is
ut i
ad os
Ġoccup y
ĠSand ers
Nav Bar
af fe
ĠIn ternal
Rep resent
Ġpred icate
year s
ĠH ann
Ġm akers
st roke
}) )\
abel ian
W H
ĠKazakh stan
G ordon
am inated
SI ON
ĠRich ards
constra ints
g cd
RE S
F ollow
Ġfav ored
t in
ill i
Ġanaly tics
dire cted
ĠFight ing
end ors
ĠV it
ĠEvery thing
Ġgrand mother
mathp zc
m is
Ġtest imony
ĠT S
Ġch ir
ĠTh ank
Fig s
Ind epend
mod ified
K D
Ġt ap
ch at
Ġsp otted
50 1
Ġla pt
Ġemp ower
........ ........
os ely
ĠNad u
Ġant iqu
ĠI EEE
ĠK ad
ĠHe y
em i
ĠQ ing
restrict ed
up id
Ġk g
ĠLear n
Ġt ut
st a
Ġdomin ating
Ġnames pace
w ear
en ary
ĠG rowth
Ġswe ep
ĠJ et
Sc ient
n ational
Ġappeal ing
Sch warz
red shift
ĠContin ental
Ġinv ention
Ġcos ine
Ext ension
p unct
Ġqu it
C opy
t ang
Ġdecl are
Ġid em
ug a
Ġclimb ing
measure d
ĠBelf ast
an mar
Ġlack s
Ġmonoton ically
Ġc ats
ĠSte phan
Ġaccept s
col lect
28 5
Ġ umb
Ġsur gical
Ġincred ibly
asympt otic
B ank
H i
UT C
Ġtransc ription
ĠS ize
at aka
ĠRe y
Ġfree ze
Ġimpact ed
Ġsm ile
c x
ĠN V
late x
Ġsur render
ĠOs lo
st rom
Su ccess
ĠH ers
cccc c
c ould
Ġph y
A W
ad ors
ff er
Ġhom osex
ĠSchwarz schild
Ġder ives
N B
Ġsp o
as se
ans en
Ġprocess ors
] -
Art icles
ĠAh mad
Ġtimes cales
ĠChief s
Ġex ercises
Ġab rupt
ampl ed
li qu
theore tic
H an
18 15
Ġeduc ator
Athlet es
ĠBened ict
Ġcancel ed
ferm ion
bo ost
Ã± o
mult iple
Ġb eds
Ġcompact ness
Ġclar ify
Ġam endment
the ning
Ġadvis ory
J D
ĠO H
ĠF raser
ĠB ac
Ġopt ics
ĠRel igion
ĠAlban ia
Treat ies
Ġh ire
Ġg ly
Ġdistrib ute
lst listing
stad t
Ġru ins
Ġlog istic
am ar
che ss
Ġl anes
ĠC apt
ne ctions
ĠAr senal
ĠCho ose
}} )$,
ĠLanc ashire
ĠD iet
Ġdiv ides
coll apse
ve rest
ĠSur rey
C zech
conj ug
ĠC MS
ĠG rim
ant es
re lease
Ġ[ ...]
ĠProduct s
6 40
R ect
ĠJ ets
any a
is ure
ĠAd ult
gest ion
Germ any
Ġconfirm ation
ĠLem mas
Ġf ights
are l
da ugh
PC A
ĠExped ition
att ing
Ġpresent er
Ġgrid s
A k
Ġf ears
p ri
Ġfor um
18 33
Ġsil ence
Ġan ger
ĠN ode
f ony
: {\
ĠH ir
s low
de en
A rea
ĠT win
ĠB oot
ib an
ĠGr iffin
oresc ence
ĠT roy
ip es
Ġsac rifice
/ _
Ġpres idency
c ert
Ġhon ours
as ymp
Ġch ips
ĠR H
Ġpoly tope
, {
ĠT urb
ĠBl an
rament o
C rit
set ting
c ourt
fl align
ee k
I AL
ĠD um
Ġsp ark
Ġz oom
Ġcra zy
Ġb ats
Ġloc als
m og
ĠMar co
Ġreprodu ction
ĠS it
ĠM AC
ĠMy anmar
ĠSloven ia
J son
Ġsh irt
}}\ ,\
ĠYank ees
Ġre bellion
AN G
Ġrev ision
ray ed
Ġenlarg ed
30 3
in frared
l q
ĠA ircraft
Ġdivis ors
Ġafter math
33 5
ĠNew port
bm od
ĠE RA
! }\
ne ys
Ġ iv
ĠStand ards
ĠK K
ĠW A
ĠWind sor
et z
Ġ$ *
Ġneg atively
ĠL on
Ġdon ation
Ġenc odes
Ġaim ing
Ġsur rogate
Ġorient ations
à¥ į
Ġb ab
structure d
rit ies
ĠAntar ctic
Ġf Ã¼r
Ġstat s
Ġj am
Ġwhere by
ĠBur ke
97 8
} ]{
ok i
ĠJohn s
ĠC ash
ie ck
Ġoutper form
vi er
Ġ ub
Ġsc ans
iod iversity
Ġcost ly
& #
I r
Ġfour teen
}\ {\
Ġadvoc acy
Ġt u
Ġde position
Ġdepict ing
ĠBrand on
S und
Ġex ile
Ġdipl omat
Ġorigin ates
Ġbul ge
Ġre fin
curs ion
å ¤
ĠL az
t ip
at omy
^{( -
Ġquar ters
ĠRes taur
ĠLy on
W u
r ather
z on
ĠH C
Ġdr one
group Id
ĠMer cedes
Ġi OS
ĠBor is
ĠWor cester
Music ians
D est
ĠIn tern
am matory
ĠWes ley
Ch icago
Ġcr ashed
ĠAp ache
ane ously
ĠCath olics
Ġbr ighter
ĠB T
it as
ĠA gg
ex perimental
ĠPatri ots
Ġder iving
Ġpull ing
Ġdoub led
match ing
ĠZ ion
ĠWal sh
Ġph armac
andid ate
ĠJes se
4 75
ĠChar ter
Ġmag ical
Ġre taining
ĠC ould
Rep ort
Ġmask ed
Ġstake holders
ĠB ottom
Ġprem ier
Ġw ages
Ġg ig
asc ar
Ġannih il
ĠGiov anni
! \!
O wn
ĠF ur
Ġnew er
ĠZ en
ĠPubl ishers
) }^{\
> =
Ġw reck
av oid
Ġph rases
ĠClass ification
p ull
ĠG mina
ĠE aster
ĠT F
ext ra
Ġcelebr ity
Ġdisc arded
Ġ$ {{\
Ġout s
side red
st ick
ad h
oura ge
sur vey
ĠEv angel
' /
Ġm aker
Ġup grad
Ġimprison ment
m ol
Ġperform er
Ġmult is
Ġmal icious
o ct
col ored
ent on
Ġter restrial
ĠDemoc racy
ĠSlov akia
ram s
Ġminim izes
Ġcorpor ations
rac use
rab ility
w itz
ĠComb at
v ation
bro ken
V en
i eg
Com plete
Ġatten uation
ass is
Ġterm inated
Ġchemical s
as ible
An th
g ins
fl ies
H all
Ġst aged
Que en
an ic
18 31
ymm etries
of fee
Ġreal izes
S on
Ġdest inations
ir ate
ĠTh ink
ros se
Ġsystem ic
integ ration
Ġgi ants
Ġinert ial
j un
comm ission
Ġeigen vector
U U
Ġgo alkeeper
Ġeigen functions
Ġinform al
ax ial
li que
Ġproceed ed
Hung arian
ĠL it
Ġinst abilities
Ġsho es
L en
Ġs igma
3 15
ĠP am
ĠH els
)\ |_
W at
ra f
ĠGu ards
ur ate
ĠMc N
SE C
ĠL uck
Y au
ĠH iro
rop a
Ġsurn ames
ch urch
ĠSch ol
|| _{
ĠBre nd
Alex ander
P od
Ġwind ing
Ġion ized
Ġsh aft
sche ma
ĠSer ie
Ġflag ship
s us
Ġst om
link ed
ĠU z
art icles
ple ted
if ax
Ġasymptot ics
4 40
Ġend e
Ġfurther more
Ġpersonal ities
Ġsummar izes
ĠSing er
ĠL il
Ġfin est
d ip
ĠS tern
ĠD ro
E ss
J ECT
other mal
ĠF est
ĠV A
path s
Ġ& :=
R od
Port ug
he x
ust ed
18 10
Ġmob il
prote cted
Ġsimpl ifies
ĠS ara
ĠStat istical
ĠRoche ster
Ġwith drawn
Ġ( ``
Ġneut rons
ĠLud wig
zz i
cl air
Ġsn ake
Ġd ent
Ġcou rage
Ġjump ing
Ġalt ogether
mer cially
ĠSer ver
Ġboard ing
ĠLiber ation
ĠL t
Ġdiver gent
Ġcont ing
ĠWrit er
ĠM ilton
Ġrandom ness
ĠÃ ¢
Ġfer ry
Ġthorough ly
Ġcar b
M n
ĠW on
ĠSe oul
ĠMe h
ĠLag range
** *
cir cled
ĠBoe ing
ĠP CA
Ġhand les
Ġredu ctions
Ġcompar ative
Ġeth ical
develop ed
S ide
Ġg ifts
ia e
ĠProt ocol
ĠL ange
ĠIndust ries
ĠPro gressive
Ġkick ed
23 6
}. )
Ġmanuscript s
od o
ĠF olk
ide a
Class es
l ooking
Ġmorph ological
ĠAnn iversary
ĠLe ave
ĠFe atures
annot ation
Ġfemin ist
Ġtra uma
design ated
und ers
sh ine
ĠAl g
pp s
Ġdepos ited
}) |
Ġge ographic
ĠPot ter
ik ov
ĠB CE
ĠCzech oslov
Ġf ool
ĠTerm s
ĠM ask
board s
Ġfa una
ici ary
ĠR egin
ĠAchie vement
Ġb ot
Ġag ing
Ġpull back
Ġnetwork ing
() :
^+ $,
I ce
ĠMcC arthy
âĢĿ )
Ġdo ctrine
LE D
3 90
K o
ĠD w
Ġtob acco
ri ot
ĠSouth west
Ġhospit ality
ĠP ok
Ġshould n
ĠStrateg ic
4 60
rang er
F ire
band s
Ġinvest or
Ġbreak through
ĠM oses
Ġrecover ing
arv ae
R oy
im ming
ĠE S
g b
Ġsy ll
ex cit
hal o
ĠCl ose
ĠToy ota
N eg
ic ons
Ġl aps
vers arial
Ġauthentic ation
ĠLuther an
ĠCl aire
Ġlat itude
cite alp
sp irit
Ġassoci ates
Ġquas ipart
\{ (
È Ľ
ĠI X
D ataset
l if
ĠT error
ly mouth
ie ved
9 60
Ġm ud
ne ural
con n
Ġbl end
Ġnon local
Ġsk illed
le an
Ġstory line
Th ose
Ġeth ics
Ġharmon ics
Ġcl a
Ġret ire
r ar
In vest
ĠNS W
Ġaxi oms
s ent
ĠT ool
pothes is
ĠS isters
) '
ed uc
Ġassign s
0 80
Ġg rat
Ġde posit
24 4
Ġsever ity
Ġin quiry
ĠHead quarters
Hel per
P ur
ri ent
Ġen jo
observ ations
Ġmim ic
Ġpost al
Ġfru its
ĠD ylan
Ġdem o
L INE
ĠCele br
Ġw ound
qu ette
ĠPal omar
Ġsu cc
approxim ate
b ey
vi Äĩ
Ġaest hetic
R V
^+ _{
E U
Ġunem ployment
ĠG ul
Ġshock ed
Ġrear rang
Ġcol linear
Ġmer it
f usion
um en
ud ed
Ġremn ants
C red
Â ²
ĠM BA
Ġde cent
est ock
ĠNAS CAR
4 20
Ġun ited
ee a
reg ions
B ottom
ĠCow boys
on ium
ĠSuper ior
Ġmind s
ĠU FC
Ġdis connected
c L
Ġre actor
> [
Ã© m
item s
Ġmar sh
M useum
t mp
ĠBang kok
ĠComb ining
Ġcomp ass
æ ľ
it ated
op ath
erm ann
ĠSh are
ex port
d ong
Ġref lections
Ġcontroll ers
ĠFW HM
Ġke en
h ouses
B Y
Ġess ays
it ored
ĠR az
ĠG ates
Ġrestrict ing
den oted
ĠLouis ville
B W
g ive
eder ated
ĠGr iffith
Ġdoub let
Ġmand ate
Ġre vel
Ġnews letter
uc us
ĠBit coin
Ġ[ âĢ¦]
)\ |^
[...]
