{"[UNK]":0,"!":1,"\"":2,"#":3,"$":4,"%":5,"&":6,"'":7,"(":8,")":9,"*":10,"+":11,",":12,"-":13,".":14,"/":15,"0":16,"1":17,"2":18,"3":19,"4":20,"5":21,"6":22,"7":23,"8":24,"9":25,":":26,";":27,"<":28,"=":29,">":30,"?":31,"@":32,"A":33,"B":34,"C":35,"D":36,"E":37,"F":38,"G":39,"H":40,"I":41,"J":42,"K":43,"L":44,"M":45,"N":46,"O":47,"P":48,"Q":49,"R":50,"S":51,"T":52,"U":53,"V":54,"W":55,"X":56,"Y":57,"Z":58,"[":59,"\\":60,"]":61,"^":62,"_":63,"`":64,"a":65,"b":66,"c":67,"d":68,"e":69,"f":70,"g":71,"h":72,"i":73,"j":74,"k":75,"l":76,"m":77,"n":78,"o":79,"p":80,"q":81,"r":82,"s":83,"t":84,"u":85,"v":86,"w":87,"x":88,"y":89,"z":90,"{":91,"|":92,"}":93,"~":94,"¡":95,"¢":96,"£":97,"¤":98,"¥":99,"¦":100,"§":101,"¨":102,"©":103,"ª":104,"«":105,"¬":106,"®":107,"¯":108,"°":109,"±":110,"²":111,"³":112,"´":113,"µ":114,"¶":115,"·":116,"¸":117,"¹":118,"º":119,"»":120,"¼":121,"½":122,"¾":123,"¿":124,"Â":125,"Ã":126,"Ä":127,"Å":128,"Æ":129,"Ç":130,"È":131,"É":132,"Ê":133,"Ë":134,"Ì":135,"Í":136,"Î":137,"Ï":138,"Ð":139,"Ñ":140,"Ò":141,"Ó":142,"Ô":143,"Õ":144,"Ö":145,"×":146,"Ø":147,"Ù":148,"Ú":149,"Û":150,"Ü":151,"Ý":152,"Þ":153,"ß":154,"à":155,"á":156,"â":157,"ã":158,"ä":159,"å":160,"æ":161,"ç":162,"è":163,"é":164,"ê":165,"ë":166,"ì":167,"í":168,"î":169,"ï":170,"ð":171,"ó":172,"ô":173,"Ā":174,"ā":175,"Ă":176,"ă":177,"Ą":178,"ą":179,"Ć":180,"ć":181,"Ĉ":182,"ĉ":183,"Ċ":184,"ċ":185,"Č":186,"č":187,"Ď":188,"Đ":189,"đ":190,"Ē":191,"ē":192,"Ĕ":193,"Ė":194,"Ę":195,"ę":196,"Ě":197,"ě":198,"Ğ":199,"ğ":200,"Ġ":201,"ġ":202,"Ģ":203,"ģ":204,"Ĥ":205,"ĥ":206,"Ħ":207,"ħ":208,"Ĩ":209,"ĩ":210,"Ī":211,"ī":212,"Ĭ":213,"ĭ":214,"Į":215,"į":216,"İ":217,"ı":218,"Ĳ":219,"ĳ":220,"Ĵ":221,"ĵ":222,"Ķ":223,"ķ":224,"ĸ":225,"Ĺ":226,"ĺ":227,"Ļ":228,"ļ":229,"Ľ":230,"ľ":231,"Ŀ":232,"ŀ":233,"Ł":234,"ł":235,"Ń":236,"Ġt":237,"in":238,"he":239,"Ġa":240,"on":241,"re":242,"Ġthe":243,"er":244,"at":245,"ĠĠ":246,"en":247,"Ġs":248,"or":249,"al":250,"it":251,"Ġo":252,"is":253,"an":254,"es":255,"Ġc":256,"ar":257,"Ġw":258,"ion":259,"ed":260,"Ġf":261,"Ġof":262,"nd":263,"Ġin":264,"Ġp":265,"Ġ\\":266,"Ġb":267,"ic":268,"ing":269,"le":270,"ro":271,"Ġand":272,"as":273,"Ġ$":274,"Ġd":275,"Ġm":276,"Ġto":277,"ct":278,"el":279,"et":280,"ĠĠĠĠ":281,"ig":282,"ent":283,"ou":284,"il":285,"ra":286,"om":287,"st":288,"ation":289,"Ġth":290,"Ġh":291,"Ġre":292,"im":293,"ol":294,"am":295,"Ġe":296,"{\\":297,"ĠT":298,"ot":299,"ĠS":300,"Ġn":301,"Ġ(":302,"Ġis":303,"Ġl":304,"ĠC":305,"ĠA":306,"id":307,"ce":308,"iv":309,"Ġfor":310,"ch":311,"ut":312,"ur":313,"us":314,"Ġg":315,"ly":316,"ow":317,"_{":318,"ul":319,"Ġon":320,"ĠM":321,"qu":322,"ab":323,"ith":324,"um":325,"eg":326,"em":327,"ath":328,"ĠI":329,"ad":330,"ver":331,"20":332,"se":333,"Ġst":334,"Ġ$\\":335,"Ġthat":336,"Ġbe":337,"ir":338,"Ġas":339,"ĠB":340,"Ġcon":341,"ĠP":342,"un":343,"Ġwith":344,"od":345,"math":346,"ter":347,"end":348,"ay":349,"if":350,"âĢ":351,"ĠĊ":352,"ĠH":353,"ge":354,"Ġal":355,"ĠF":356,"ist":357,"ve":358,"th":359,"ĠThe":360,"ta":361,"Ġwe":362,"igh":363,"Ġpro":364,"ers":365,"ction":366,"Ġan":367,"ĠR":368,"ph":369,"Ġby":370,"ĠL":371,"19":372,"Ġ&":373,"ure":374,"}\\":375,"čĊ":376,"ĠD":377,"her":378,"and":379,"ri":380,"os":381,"}$":382,"^{":383,"ĠW":384,"Ġv":385,"ity":386,"pp":387,"ĠĠĠ":388,"Ġwas":389,"ĠĠĠĠĠĠĠĠ":390,"te":391,"ĠN":392,"ight":393,"ate":394,"ĠG":395,"ac":396,"Ġwh":397,"rom":398,"Ġex":399,"Ġat":400,"Ġcom":401,"ma":402,"Ġde":403,"Ġare":404,"ore":405,"op":406,"ĠE":407,"est":408,"res":409,"oc":410,"art":411,"ub":412,"ine":413,"ite":414,"pe":415,"ref":416,"ies":417,"Ġit":418,"pt":419,"Ġfrom":420,"ial":421,"}}":422,"Ġse":423,"(\\":424,"ill":425,"egin":426,"ive":427,"ess":428,"all":429,"ud":430,"ant":431,"Ġor":432,"rac":433,"ag":434,"begin":435,"up":436,"ren":437,"Ġ=":438,"The":439,"pl":440,"ew":441,"Ġr":442,"ĠJ":443,"ft":444,"xt":445,"Ġhe":446,"_{\\":447,")$":448,"ment":449,"fe":450,"cal":451,"ich":452,"ĠO":453,"ort":454,"iz":455,"ak":456,"ld":457,"ical":458,"ber":459,"ated":460,"}{":461,"red":462,"ell":463,"per":464,"og":465,"Ġus":466,"Ġsh":467,"ps":468,"ult":469,"int":470,"ign":471,"ran":472,"Ġch":473,"our":474,"ard":475,"'s":476,"ition":477,"frac":478,"de":479,"Ġthis":480,"orm":481,"und":482,"Ġy":483,"Ġcomp":484,"eq":485,"201":486,"cl":487,"Ġle":488,"ian":489,"ave":490,"ass":491,"ĠK":492,",\\":493,"ary":494,"ĠU":495,"ens":496,"rm":497,"00":498,"Ġ-":499,"ĠIn":500,"cite":501,"})":502,"Ġnot":503,"text":504,"du":505,"ations":506,"Ġsu":507,"equ":508,"Ġres":509,"right":510,"ue":511,"Ġpl":512,"Ġwhich":513,"Ġcan":514,"ong":515,"mathb":516,"abel":517,"ia":518,"Ġcl":519,"Ġk":520,"ast":521,"ust":522,"ame":523,"},":524,"the":525,"ace":526,"ide":527,"Ġ\"":528,"ip":529,"Ġhave":530,"to":531,"label":532,"ost":533,"Ġwhe":534,"$,":535,"cc":536,"low":537,"ear":538,"oun":539,"âĢĵ":540,"so":541,"mathcal":542,"$.":543,"ork":544,"ther":545,"ain":546,"able":547,"),":548,"eta":549,"con":550,"ap":551,"ĠV":552,"av":553,"Ġun":554,"equation":555,"ord":556,"age":557,"ug":558,"ime":559,"ib":560,"}.":561,"200":562,"act":563,"ase":564,"ack":565,"ric":566,"ang":567,"Ġim":568,"ach":569,"ener":570,"left":571,"ous":572,"ov":573,"ions":574,"feren":575,"Ġapp":576,"}(":577,"ru":578,"ence":579,"Ġhas":580,"ff":581,"âĢĻ":582,"}^":583,"form":584,"ces":585,"fig":586,"Ġab":587,"}_":588,"are":589,").":590,"Ġmod":591,"Ġ|":592,"In":593,"Ġalso":594,"~\\":595,"Ġhis":596,"ĠSt":597,"Ġad":598,"Ġsp":599,"ome":600,"ĠTh":601,"ect":602,"erm":603,"pha":604,"amb":605,"ry":606,"wo":607,"ire":608,"old":609,"10":610,"over":611,"ie":612,"ĠĠĠĠĠĠĠ":613,"ish":614,"Ġpart":615,"ound":616,"alpha":617,"ĠCh":618,"da":619,"ely":620,"Ġone":621,"Ġall":622,"ĉĉ":623,"ould":624,"pro":625,"erv":626,"own":627,"ents":628,"18":629,"out":630,"Ġcont":631,"irst":632,"ok":633,")\\":634,"row":635,"ates":636,"line":637,"ree":638,"ors":639,"ice":640,"ance":641,"ind":642,"Ġob":643,"Ġwere":644,"clud":645,"sum":646,"rib":647,"mer":648,"tain":649,"Ġdis":650,"Ġ+":651,"Ġj":652,"ik":653,"ory":654,"Ġme":655,"ally":656,"we":657,"ambda":658,"Ġne":659,"Ġper":660,"elta":661,"ark":662,"Ġqu":663,"sp":664,"imes":665,"ics":666,"$\\":667,"pect":668,"Ġar":669,"ose":670,"Ġtwo":671,"ile":672,"tern":673,"ple":674,"com":675,"amma":676,"ular":677,"ress":678,"_\\":679,"Ġsy":680,"mathbb":681,"cent":682,"Ġtheir":683,"Ġev":684,"Ġbut":685,"Ġro":686,"}_{":687,"}^{":688,"Ġ\\\\":689,"rit":690,"Ġfirst":691,"ari":692,"dot":693,"..":694,"=\\":695,"Ġits":696,"mu":697,"ution":698,"ne":699,"oint":700,"Ġout":701,"ollow":702,"Ġ{":703,"raph":704,"ho":705,"ĠY":706,"ount":707,"-\\":708,"igma":709,"sub":710,"Ġte":711,"of":712,"ĠHe":713,"ks":714,"unction":715,"che":716,"Ġset":717,"ep":718,"vel":719,"ob":720,"Ġother":721,"ll":722,"Ġen":723,"ega":724,"Ġwill":725,"rans":726,"iel":727,"mb":728,"ĠIt":729,"phi":730,"^{\\":731,"Ġover":732,"Ġif":733,"hat":734,"Ġmodel":735,"Ġdes":736,"fin":737,"ys":738,"one":739,"ca":740,"Ġdif":741,"ational":742,"bf":743,"Ġfollow":744,"ata":745,"ĠUn":746,"Ġ<":747,"ond":748,"lambda":749,"Ġtime":750,"ĠĠĠĠĠĠĠĠĠĠĠĠĠĠĠĠ":751,"Ġ||":752,"Ġ{\\":753,"Ġmore":754,"--":755,"Ġbet":756,"port":757,"ced":758,"Ġman":759,"ject":760,"ray":761,"lic":762,"Ġcons":763,"12":764,"199":765,"umber":766,"fter":767,"Ġwhere":768,"cre":769,"lect":770,"ption":771,"Ġsub":772,"ied":773,"les":774,"ater":775,"ield":776,"ram":777,"Ġag":778,"ĠWe":779,"Ġsuch":780,"ature":781,"ĠâĢ":782,"ugh":783,"Ġwork":784,"Ġform":785,"under":786,"mathbf":787,"urn":788,"Ġplay":789,"ck":790,"dition":791,"ased":792,"Ġint":793,"ative":794,"Ġresult":795,"ss":796,"Ġtra":797,"Ġhad":798,"Ġbeen":799,"wid":800,"align":801,"resent":802,"ilon":803,"Ġver":804,"Ġdist":805,");":806,"ĠSe":807,"ĠâĢĵ":808,"Ġup":809,"ons":810,"Re":811,"ix":812,"Ġdo":813,"stem":814,"Ġonly":815,"Ġrel":816,"iss":817,"Ġsim":818,"psilon":819,"oth":820,"Ġso":821,"til":822,"Ġfunction":823,"Ġco":824,"section":825,"pec":826,"ex":827,"app":828,"Ġreg":829,"part":830,"Ġgener":831,"vi":832,"=\"":833,"pi":834,"ific":835,"Ġthey":836,"ual":837,"pos":838,"Ġpre":839,"Ġwho":840,"Ġval":841,"ings":842,"orn":843,"Ġnew":844,"Ġthere":845,"ween":846,"ize":847,"Ġour":848,"Ġinter":849,"aw":850,"ict":851,"sigma":852,"lem":853,"Ġequ":854,"Ġacc":855,"ild":856,"Ġthen":857,"}{\\":858,"eth":859,"Ġcol":860,"Ġthan":861,"ĠThis":862,"Ġinto":863,"arg":864,"Ġ(\\":865,"^{-":866,"ince":867,"hed":868,"gh":869,"sc":870,"Ġconst":871,"ans":872,"Ġra":873,"Ġshow":874,"ax":875,"ox":876,"olog":877,"beta":878,"Ġwhen":879,"ake":880,"Ġpos":881,"Ġbetween":882,"Ġph":883,"Ġdifferen":884,"ode":885,"Ġclass":886,"15":887,"Ġcor":888,"set":889,"ating":890,"mathrm":891,"Ġsc":892,"Ġher":893,"Ġcomm":894,"+\\":895,"*}":896,"gamma":897,"Ġinclud":898,"ility":899,"Ġyear":900,"land":901,"roup":902,"bar":903,"pr":904,"ities":905,"fect":906,"Ġtrans":907,"Ġloc":908,"Ġany":909,"sh":910,"round":911,"ral":912,"ward":913,"Ġunder":914,"16":915,"Ġsome":916,"ient":917,"ise":918,"use":919,"ove":920,"Ġeach":921,"Ġ}":922,"ited":923,"ook":924,"Ġ[":925,"Ġfin":926,"Ġpar":927,"Ġpe":928,"Ġsystem":929,"We":930,"]{":931,"ail":932,"theta":933,")}":934,"ruct":935,"ople":936,"Ġoff":937,"Ġyou":938,"ough":939,"Ġpol":940,"ann":941,"17":942,"Ġgiv":943,"^\\":944,"leq":945,"rho":946,"als":947,"ident":948,"figure":949,"its":950,"der":951,"cess":952,"ron":953,"\\\\":954,"delta":955,"io":956,"ĠRe":957,"Ġkn":958,"uring":959,"ool":960,"Ġused":961,"cdot":962,"rt":963,"ivers":964,"Ġthese":965,"ock":966,"Ġstud":967,"rough":968,"Ġest":969,"Ġgo":970,"Ġmat":971,"21":972,"$-":973,"//":974,"meric":975,"Ġfe":976,"tau":977,"Ġprov":978,"ng":979,"tt":980,"Ġprob":981,"Ġpoint":982,"Ġdata":983,"ues":984,"Ġrec":985,"ible":986,"oot":987,"par":988,"width":989,"Ġact":990,"ays":991,"abl":992,"}$,":993,"Ġwould":994,"ĠDe":995,"âĢĿ":996,"array":997,"Ġno":998,"}$.":999,"13":1000,"oy":1001,"Ġprodu":1002,"Ġabout":1003,"198":1004,"Ġsol":1005,"ments":1006,"Ġsm":1007,"}(\\":1008,"ick":1009,"Ġuse":1010,"eqref":1011,"ists":1012,"let":1013,"ember":1014,"big":1015,"uss":1016,"ĠAl":1017,"ike":1018,"cond":1019,"Ġinv":1020,"Ġafter":1021,"22":1022,"put":1023,"Ġx":1024,"yn":1025,"14":1026,"Ġnumber":1027,"ote":1028,"cy":1029,"ffect":1030,"ĠFor":1031,"Ġappro":1032,"ĠCom":1033,"item":1034,"Ġfl":1035,"ized":1036,"Ġpa":1037,"Ġdifferent":1038,"times":1039,"pend":1040,"nu":1041,"Ġass":1042,"arch":1043,"ever":1044,"</":1045,"Ġpr":1046,"min":1047,"rent":1048,"11":1049,"ower":1050,"Ġext":1051,"here":1052,"ĠNew":1053,"ily":1054,"Ġvari":1055,"ism":1056,"Ġline":1057,"ĠĠĠĠĠ":1058,"Ġcase":1059,"partial":1060,"sy":1061,"Ġfil":1062,"ins":1063,"ĠPro":1064,"fty":1065,"Ġi":1066,"Ġmost":1067,"Ġmay":1068,"arrow":1069,"infty":1070,"ization":1071,"Ġshe":1072,"col":1073,"ton":1074,"Ġbl":1075,"Th":1076,"ator":1077,"ade":1078,"omega":1079,"Ġnon":1080,"Ġsign":1081,"amet":1082,"|\\":1083,"tilde":1084,"ty":1085,"amp":1086,"ĠZ":1087,"ning":1088,"mm":1089,"ctions":1090,"Ġexp":1091,"ublic":1092,"ull":1093,"ferences":1094,"quad":1095,"Ġrep":1096,"Ġlin":1097,"ĠQ":1098,"Ġwell":1099,"Ġpartic":1100,"Ġusing":1101,"Ġspec":1102,"Ġsame":1103,"orld":1104,"ethod":1105,"ctor":1106,"ision":1107,"Ġthem":1108,"Ġcur":1109,"ange":1110,"pm":1111,"oci":1112,"ering":1113,"Delta":1114,"ĠAn":1115,"Ġsupp":1116,"ically":1117,"ffic":1118,"space":1119,"ample":1120,"itt":1121,"Ġstr":1122,"Ġoper":1123,"Ġthrough":1124,"hi":1125,"arge":1126,"Ġterm":1127,"for":1128,"irc":1129,"hen":1130,"eqn":1131,"eng":1132,"Ġdire":1133,"Ġ*":1134,"ĠX":1135,"197":1136,"Ġboth":1137,"25":1138,"Ġfollowing":1139,"gy":1140,"Ġfield":1141,"Ġent":1142,"merican":1143,"ĠLe":1144,"ement":1145,"ier":1146,"Ġsur":1147,"Ġgiven":1148,"Ġret":1149,"Ġdet":1150,"ĠĠĠĠĠĠĠĠĠĠĠ":1151,"owever":1152,"chool":1153,"ined":1154,"Ġam":1155,"Ġinst":1156,"var":1157,"Ġpeople":1158,"References":1159,"elf":1160,"ey":1161,"sec":1162,"ason":1163,"orem":1164,"Ġed":1165,"Ġhigh":1166,"wn":1167,"ively":1168,"Ġbu":1169,"ract":1170,"Ġdefin":1171,"Ġperform":1172,"Ex":1173,"Ġstate":1174,"Ġgroup":1175,"Ġmin":1176,"ots":1177,"Ġcent":1178,"30":1179,"xi":1180,"ases":1181,"Ġthree":1182,"uch":1183,"Ġty":1184,"ished":1185,"ional":1186,"rang":1187,"Ġsing":1188,"}[":1189,"ert":1190,"ball":1191,"any":1192,"}}\\":1193,"ars":1194,"oh":1195,"sim":1196,"ute":1197,"ern":1198,"Ġfact":1199,"Ġem":1200,"ĠâĢľ":1201,")$.":1202,"ets":1203,"St":1204,"reat":1205,"\\,":1206,"Ġdisc":1207,"ash":1208,"Ġend":1209,"Ġsecond":1210,"serv":1211,".,":1212,"Ġz":1213,"Ġfound":1214,"ames":1215,"velop":1216,"Ġ$(":1217,"ont":1218,"Ġorder":1219,"ality":1220,"Ġind":1221,"iversity":1222,"Ġac":1223,"ider":1224,"epsilon":1225,"ĠAs":1226,"Ġresults":1227,"ulation":1228,"very":1229,"Ġagain":1230,"Ġdesc":1231,"Ġele":1232,"ices":1233,"}_{\\":1234,"$$":1235,"Ġsmall":1236,"Ġobtain":1237,"Ġeffect":1238,"Ġserv":1239,"asure":1240,"arly":1241,"Ġmethod":1242,"rix":1243,"uc":1244,"emb":1245,"23":1246,"ood":1247,"Ġdec":1248,"where":1249,"Ġser":1250,"ah":1251,"Ġback":1252,"rict":1253,"orth":1254,"man":1255,"val":1256,"ability":1257,"Ġbound":1258,"50":1259,"ential":1260,"Ġatt":1261,"ining":1262,"Om":1263,"ross":1264,"att":1265,"Ġlead":1266,"Ġsa":1267,"ner":1268,"Ġ.":1269,"Ġwhile":1270,"Ġanal":1271,"formation":1272,"196":1273,"textbf":1274,"iver":1275,"Ġu":1276,"fore":1277,"Ġparamet":1278,"sq":1279,"work":1280,"Ġfilm":1281,"psi":1282,"resp":1283,"ĠSh":1284,"ale":1285,"rest":1286,"Ġcall":1287,"ural":1288,"Ġsee":1289,"Ġrequ":1290,"Omega":1291,"ife":1292,"outh":1293,"ring":1294,"fl":1295,"^*":1296,"ury":1297,"li":1298,"way":1299,"ten":1300,"ĠInd":1301,"eqnarray":1302,"ful":1303,")$,":1304,"Ġexper":1305,"includ":1306,"cause":1307,"ructure":1308,"Ġyears":1309,"Ġ'":1310,"other":1311,"ĠFig":1312,"Ġduring":1313,"ages":1314,"ee":1315,"angle":1316,"pen":1317,"get":1318,"Ġhim":1319,"atic":1320,"24":1321,"mbol":1322,"ternal":1323,"ology":1324,"inal":1325,"az":1326,"ank":1327,"sqrt":1328,"000":1329,"Gamma":1330,"Ġaut":1331,"aj":1332,"Ġmany":1333,"energy":1334,"Ġtr":1335,"Ġart":1336,"bm":1337,"Ġca":1338,"subsection":1339,"au":1340,"rel":1341,"raphics":1342,"ants":1343,"Ġdistrib":1344,"Ġbeing":1345,"Ġbel":1346,"vare":1347,"Ġrepresent":1348,"Ġmass":1349,"ather":1350,"fer":1351,"rad":1352,"iqu":1353,"Ġfam":1354,"ĠCol":1355,"ency":1356,"^{(":1357,"air":1358,"Ġneed":1359,"umn":1360,"Ġpresent":1361,"fra":1362,"Ġexpl":1363,"varepsilon":1364,"Ã©":1365,"me":1366,"Ġrespect":1367,"ĠCl":1368,"ved":1369,"respond":1370,"Ġmeasure":1371,"))":1372,"Ġsince":1373,"ines":1374,"bold":1375,"Ġevery":1376,"ired":1377,"Ġ${\\":1378,"not":1379,"ĠAmerican":1380,"Ġcondition":1381,"Ġprocess":1382,"Ġmult":1383,"Ġchar":1384,"rightarrow":1385,"Ġobserv":1386,"ink":1387,"Ġget":1388,"els":1389,"Ġproblem":1390,"led":1391,"Ġmon":1392,"ared":1393,"Ġrele":1394,"Ġnow":1395,"Ġdef":1396,"Ġlong":1397,"Ġcre":1398,"Ġspace":1399,"ene":1400,"cm":1401,"}^{\\":1402,"ĠĠĊ":1403,"ithm":1404,"Ġcontin":1405,"Ġbec":1406,"err":1407,"Ġmain":1408,"chn":1409,"ource":1410,"Ġlike":1411,"rid":1412,"Ġmade":1413,"Ġdevelop":1414,"etwork":1415,"ouse":1416,"Ġvalue":1417,"Ġcould":1418,"Ġteam":1419,"ived":1420,"Ġlarge":1421,"For":1422,"caption":1423,"\">":1424,"by":1425,"}=":1426,"ĠCon":1427,"Ġ\\,":1428,"egraphics":1429,"includegraphics":1430,"Ġreturn":1431,"lex":1432,"erson":1433,"hip":1434,"Ġfeature":1435,"ott":1436,")=":1437,"Ġincre":1438,"rangle":1439,"ĠUniversity":1440,"Ġassum":1441,"rodu":1442,"etric":1443,"raw":1444,"yle":1445,"aking":1446,"be":1447,"Ġmed":1448,"ified":1449,"vent":1450,"ane":1451,"Ġproper":1452,"ior":1453,"ĠOn":1454,"view":1455,"rop":1456,"Ġgeneral":1457,"ĠSc":1458,"imens":1459,"Ġelect":1460,"Ġstart":1461,"ven":1462,"\",":1463,"agn":1464,"ters":1465,"overn":1466,"hes":1467,"gor":1468,"tab":1469,"ts":1470,"ĠčĊ":1471,"Ġcorrespond":1472,"194":1473,"This":1474,"Ġinde":1475,"ission":1476,"Ġestim":1477,"Ġden":1478,"Ġfind":1479,"Ġpop":1480,"cept":1481,"olution":1482,"Ġ,":1483,"Ġenergy":1484,"Ġcount":1485,"Ġlim":1486,"Ġopt":1487,"utions":1488,"ival":1489,"Ġposs":1490,"urther":1491,"Ġright":1492,"Ġdescrib":1493,"ke":1494,"emph":1495,"Ġbefore":1496,"ole":1497,"gan":1498,"ĠUnited":1499,"varphi":1500,"log":1501,"Ġbased":1502,"Ġfour":1503,"Ġknown":1504,"Ġbecause":1505,"Ġadd":1506,"**":1507,"geq":1508,"itive":1509,"ting":1510,"cer":1511,"Ġsupport":1512,"sk":1513,"Ġvery":1514,"Ġ:":1515,"Ġjust":1516,"ina":1517,"gram":1518,"son":1519,"umer":1520,"ives":1521,"oss":1522,"Ġeven":1523,"non":1524,"Ġscal":1525,"gorithm":1526,"ness":1527,"Ġorig":1528,"Ġrad":1529,".}":1530,"vious":1531,".~\\":1532,"Ġsaid":1533,"def":1534,"Ġdr":1535,"Ġlocal":1536,"ensure":1537,"&\\":1538,"''":1539,"Ġstructure":1540,"overline":1541,"Ġwrit":1542,"symbol":1543,"ger":1544,"proof":1545,"ilar":1546,"usic":1547,"chi":1548,"Ġpres":1549,"iving":1550,"Ġdoes":1551,"Ġve":1552,"Ġdi":1553,"Ġwhat":1554,"ually":1555,"},\\":1556,"Ġpublic":1557,"ĠAr":1558,"Ġincluding":1559,"Ġgu":1560,"Big":1561,"ober":1562,"ateg":1563,"Ġreal":1564,"Ġcharact":1565,"frak":1566,"ij":1567,"ration":1568,"Ġcal":1569,")^":1570,"Ġtop":1571,"ootball":1572,"boldsymbol":1573,"omen":1574,"Ġident":1575,"ley":1576,"27":1577,"ask":1578,"ĠAd":1579,"ĠEng":1580,"ohn":1581,"Ġmov":1582,"position":1583,"ves":1584,"Ġ/":1585,"bl":1586,"med":1587,"Ġtest":1588,"ths":1589,"Âł":1590,"ience":1591,"Ġrun":1592,"ampl":1593,"arn":1594,"As":1595,"Ġabove":1596,"28":1597,"Ġhow":1598,"Ġdesign":1599,"ital":1600,"Ġshould":1601,"hline":1602,"Ġinteg":1603,"Ġcontain":1604,"Ġdirect":1605,"Ġsat":1606,"rem":1607,"26":1608,"Ġ`":1609,"istory":1610,"vert":1611,"ero":1612,"2020":1613,"less":1614,"Ġvi":1615,"ript":1616,"...":1617,"It":1618,"[\\":1619,"Ġallow":1620,"inc":1621,"read":1622,"ĠIs":1623,"ĠShe":1624,"Ġhand":1625,"Ġdue":1626,"arri":1627,"ensity":1628,"2018":1629,"lo":1630,"Ġstand":1631,"Ġname":1632,"eb":1633,"Ġopen":1634,"ides":1635,"vec":1636,"Ġtem":1637,"co":1638,"Ġlinks":1639,"195":1640,"Ġthose":1641,"ret":1642,"Ch":1643,"ify":1644,"ormal":1645,"Ġplayers":1646,"2019":1647,"Ġlater":1648,"ially":1649,"40":1650,"}).":1651,"mathfrak":1652,"lim":1653,"Ġcontro":1654,"ided":1655,"xim":1656,"ograph":1657,"Ġcomput":1658,"mod":1659,"Ġconsider":1660,"une":1661,"Ġaddition":1662,"Ġnetwork":1663,"Ġvalues":1664,"Ġlevel":1665,"2017":1666,"Ġseries":1667,"refore":1668,"Ġrest":1669,"Ġfollows":1670,"Ġown":1671,"Ġmodels":1672,"ĠPh":1673,"100":1674,"Ġway":1675,"ĠMar":1676,"Ġspect":1677,"Ġshown":1678,"ĠBe":1679,"ording":1680,"enn":1681,"ĠHowever":1682,"Ġsingle":1683,"wh":1684,"}}$":1685,"Ġinformation":1686,"ĠPl":1687,"langle":1688,"Ġquant":1689,"Ġyour":1690,"Ġinit":1691,"Ġagainst":1692,"ym":1693,"ird":1694,"ĠSp":1695,"2016":1696,"Ġstat":1697,"Ġpower":1698,"aces":1699,"arm":1700,"rum":1701,"Ġsum":1702,"ised":1703,".\"":1704,"Ġrema":1705,"Ġcommun":1706,"Lambda":1707,"Ġimport":1708,"Ġlast":1709,"Ġhy":1710,"ges":1711,"Let":1712,"He":1713,"Ġdepend":1714,"Ġrem":1715,"imal":1716,"ately":1717,"ldots":1718,"Ġmake":1719,"ators":1720,"ĠStates":1721,"ec":1722,"see":1723,"Ġprof":1724,"Ġexample":1725,"alth":1726,"ĠCount":1727,"ĠComm":1728,"veral":1729,"Ġparticular":1730,"Ġav":1731,"orph":1732,"por":1733,"29":1734,"rand":1735,"Ġseason":1736,"ĠTe":1737,"ety":1738,"Ġlet":1739,"Ġsup":1740,"ison":1741,"Ġbuild":1742,"vers":1743,"uro":1744,"nabl":1745,"ĠBl":1746,"External":1747,"2015":1748,"Ġleft":1749,"Ġsimilar":1750,"cul":1751,"Ġcurrent":1752,"Phi":1753,"bra":1754,"Pro":1755,"bum":1756,"Ġdefined":1757,"Ġdown":1758,"sf":1759,"Ġwithin":1760,"Ġgra":1761,"ubl":1762,"ification":1763,"Ġalong":1764,"Ġpred":1765,"Ġschool":1766,"Ġrece":1767,"----":1768,"Ġestabl":1769,"cor":1770,"rack":1771,"Ġcalled":1772,"ĠIf":1773,"Ġocc":1774,"Ġredu":1775,"atch":1776,"iod":1777,"terest":1778,"Ġtype":1779,"appa":1780,"2014":1781,"Ġhel":1782,"nabla":1783,"textit":1784,"Ġknow":1785,"ures":1786,"Con":1787,"Ġaround":1788,"bs":1789,"tr":1790,"Ġsection":1791,"anu":1792,"center":1793,"\\|":1794,"Ġfamily":1795,"ĠMay":1796,"ccess":1797,"Ġnear":1798,"citep":1799,"Ġread":1800,"Ġreport":1801,"Ġlow":1802,"mbox":1803,"Ġtechn":1804,"Ġfre":1805,"ium":1806,"isf":1807,"mult":1808,"Ġvis":1809,"ysis":1810,"Ġbas":1811,"akes":1812,"color":1813,"ords":1814,"ynam":1815,"Ġdistribution":1816,"Ġlarg":1817,"Ġmy":1818,"Ġstudy":1819,"Ġgl":1820,"Ġdid":1821,"ĠNational":1822,"ST":1823,"Ġlist":1824,"Ġbro":1825,"side":1826,"Ġdom":1827,"ĠâĢĶ":1828,"Ġtot":1829,"Ġobject":1830,"Ġmuch":1831,"ift":1832,"ĠEx":1833,"Ġbeh":1834,"iment":1835,"ength":1836,"Ġcontinu":1837,"ĠFran":1838,"gg":1839,"face":1840,"Ġhig":1841,"Ġder":1842,"ĠJohn":1843,"Ġterms":1844,"day":1845,"arl":1846,"ai":1847,"Ġshows":1848,"Ġdeterm":1849,"oid":1850,"Ġpoints":1851,"plit":1852,"ĠAnd":1853,"\\%":1854,"Ġseveral":1855,"ery":1856,"2010":1857,"33":1858,"2021":1859,"Ġcharacter":1860,"ĠCan":1861,"Ġtri":1862,"Ġprogram":1863,"istic":1864,"ĠAt":1865,"ĠĠĠĠĠĠĠĠĠĠĠĠĠĠĠ":1866,"Ġche":1867,"cur":1868,"Ġel":1869,"})$":1870,"oper":1871,"On":1872,"ague":1873,"2013":1874,"ensuremath":1875,"subset":1876,"otimes":1877,"Ġindu":1878,"ination":1879,"Ġgame":1880,"kappa":1881,"wards":1882,"Ġexpect":1883,"ĠWorld":1884,"with":1885,"otential":1886,"circ":1887,"mp":1888,"Ġstill":1889,"Ġintrodu":1890,"osed":1891,"lection":1892,"van":1893,"\".":1894,"Ġdiscuss":1895,"60":1896,"umb":1897,"no":1898,"Com":1899,"ER":1900,"ĉĉĉĉ":1901,"rist":1902,"ek":1903,"2012":1904,"Ġpat":1905,"ajor":1906,"etic":1907,"back":1908,"Ġpass":1909,"Ġsl":1910,"etry":1911,"iness":1912,"Ġalgorithm":1913,"Ġmark":1914,"reg":1915,".\\":1916,"Ġet":1917,"Ġappear":1918,"urch":1919,"ference":1920,"ious":1921,"Ġvers":1922,"ĠRes":1923,"Ġdem":1924,"Ġarea":1925,"ilde":1926,"35":1927,"Ġsize":1928,"Ġworld":1929,"oll":1930,"ians":1931,"play":1932,"ternational":1933,"posed":1934,"Ġassoci":1935,"comm":1936,"ĠAll":1937,"2011":1938,"Ġprevious":1939,"hor":1940,"Ġbest":1941,"An":1942,"Ġcho":1943,"overnment":1944,"ense":1945,"};":1946,"ĠAust":1947,"Ġfootball":1948,"Ġresp":1949,"Ġhold":1950,"Sigma":1951,"ched":1952,"Ġtake":1953,"nect":1954,"Al":1955,"ĠGe":1956,"ĠWh":1957,"2022":1958,"Ġinterest":1959,"aving":1960,"\\!":1961,"Ġ--":1962,"dots":1963,"etail":1964,"ody":1965,"nonumber":1966,"fficient":1967,"Ġerr":1968,"ĠCent":1969,"Ġalbum":1970,"ĠThen":1971,"Ġsatisf":1972,"Ġcare":1973,"ixed":1974,"Ġorgan":1975,"ories":1976,"ĠTo":1977,"Ġlife":1978,"Ġhere":1979,"}}{":1980,"Ġdeg":1981,"su":1982,"urb":1983,"Ġimp":1984,"angu":1985,"plic":1986,"Ġcap":1987,"Ġtotal":1988,"sm":1989,"dis":1990,"embers":1991,"ĠNov":1992,"atter":1993,"ground":1994,"==":1995,"lear":1996,"Ġuntil":1997,"ule":1998,"Ġcrit":1999,"widet":2000,"45":2001,"Ġmet":2002,"}),":2003,"AR":2004,"ament":2005,"Ġref":2006,"Ġcomb":2007,"ĠYork":2008,"Ġmagn":2009,"{-":2010,"ĠThey":2011,"Ġfinal":2012,"ches":2013,"Ġexist":2014,"action":2015,"ection":2016,"ĠOr":2017,"ended":2018,"Ġapproxim":2019,"eps":2020,"alk":2021,"table":2022,"ĠCounty":2023,"Ġwin":2024,"Ġwithout":2025,"Ġmust":2026,"pendent":2027,"ivity":2028,"Ġmax":2029,"Ġlaw":2030,"Ġobtained":2031,"Ġmean":2032,"Ġbir":2033,"\\[":2034,"ĠSchool":2035,"ĠWar":2036,"ister":2037,"ble":2038,"Ġband":2039,"wide":2040,"Ġpost":2041,"Ġbecame":2042,"Ġstrong":2043,"Ġgraph":2044,"widetilde":2045,"De":2046,"aim":2047,"Ġcontrib":2048,"Ġplace":2049,"Ġ>":2050,"Ġconf":2051,"centering":2052,"Ġhelp":2053,"iam":2054,"Ġdensity":2055,"Ġposition":2056,"90":2057,"Ġstates":2058,"odes":2059,"Ġann":2060,"new":2061,"32":2062,"Ġpossible":2063,"Ġchild":2064,"Ġparameters":2065,"anc":2066,"anuary":2067,"ĠJu":2068,"str":2069,"Ġaver":2070,"80":2071,"Ġmatrix":2072,"ope":2073,")(":2074,"amed":2075,"draw":2076,"2009":2077,"Ġpotential":2078,"Ġcompon":2079,"Ġpaper":2080,"ae":2081,"|-":2082,"ention":2083,"}-":2084,"Ġsequ":2085,"ĠPr":2086,"Ġperiod":2087,"ruction":2088,"Ġperformance":2089,"AS":2090,"Ġsolution":2091,"://":2092,"Ġhead":2093,"Ġevent":2094,"ĠAug":2095,"ĠLet":2096,"Ġgood":2097,"2008":2098,"sequ":2099,"AT":2100,"usiness":2101,"pd":2102,"Ġexpress":2103,"Ġpredict":2104,"()":2105,"Ps":2106,"ument":2107,"ĠBrit":2108,"oard":2109,"Ġcou":2110,"ĠSouth":2111,"imum":2112,"Ġfunctions":2113,"ances":2114,"Ġproject":2115,"ients":2116,"ored":2117,"Ġcomplex":2118,"ique":2119,"Ġsignific":2120,"Ġinvest":2121,"ux":2122,"IN":2123,"cap":2124,"ties":2125,"To":2126,"Ġdeath":2127,"ris":2128,"Fig":2129,"Ġpolit":2130,"ences":2131,"ĠOct":2132,"ploy":2133,"ptember":2134,"Ġspe":2135,"aps":2136,"Ġtyp":2137,"ler":2138,"Ġimportant":2139,"ĠBy":2140,"cit":2141,"75":2142,"Ġq":2143,"Ġequation":2144,"bit":2145,"Ġmusic":2146,"mat":2147,"ii":2148,"Ġnext":2149,"Ġrecord":2150,"Ġregion":2151,"Ġbook":2152,"idd":2153,"Ġsong":2154,"ĠPol":2155,"tabular":2156,"/\\":2157,"ological":2158,"ude":2159,"Ġtheory":2160,"Ġperson":2161,"Ġdescribed":2162,"Ġproduct":2163,"ĠAss":2164,"ĠCar":2165,"):":2166,"II":2167,"Ġanalysis":2168,"Ġrespectively":2169,"oor":2170,"ead":2171,"ĠJanuary":2172,"iron":2173,"Ġapproach":2174,"Ġoffic":2175,"pper":2176,"Ġ``":2177,"idual":2178,"erman":2179,"iter":2180,"2007":2181,"ĠMarch":2182,"Ġfurther":2183,"'t":2184,"ĠĠĠĠĠĠ":2185,"Ġphot":2186,"Ġimpro":2187,"box":2188,"31":2189,"ither":2190,"',":2191,"Ġlimit":2192,"Ġlook":2193,"Ġconstant":2194,"pril":2195,"amples":2196,"ables":2197,"oman":2198,"Ġrate":2199,"Ġtimes":2200,"Ġanother":2201,"clus":2202,"Ġchang":2203,"05":2204,"Ġstandard":2205,"Ġearly":2206,"Ġeas":2207,"mber":2208,"Ġcorresponding":2209,"Ġcour":2210,"Ġsuccess":2211,"36":2212,"ĠPar":2213,"Ġcar":2214,"ĠMin":2215,"andom":2216,"Ġla":2217,"stit":2218,"ĠUS":2219,"ilt":2220,"34":2221,"ries":2222,"aster":2223,"Ġphys":2224,"2006":2225,"ino":2226,"Ġcontrol":2227,"->":2228,"ung":2229,"ream":2230,"thm":2231,"lev":2232,"ĠMan":2233,"ĠAugust":2234,"Ġturn":2235,"Ġshort":2236,"though":2237,"\\{":2238,"ĠSeptember":2239,"Ġcomplet":2240,"Ġdel":2241,"illion":2242,"Ġfull":2243,"ĠTheorem":2244,"istor":2245,")=\\":2246,"Ġindic":2247,"lish":2248,"Ġthough":2249,"dd":2250,"ources":2251,"lege":2252,"ze":2253,"Ġsk":2254,"ĠGu":2255,"ĠRep":2256,"opt":2257,"ling":2258,"Ġformer":2259,"ĠEuro":2260,"perature":2261,"Ġtraining":2262,"ampions":2263,"duct":2264,"ights":2265,"aut":2266,"Ġeng":2267,"Ġsystems":2268,"ext":2269,"ius":2270,"Ġ)":2271,"org":2272,"Ġfew":2273,"ĠOctober":2274,"ht":2275,"emma":2276,"Ġpair":2277,"reen":2278,"prime":2279,"ered":2280,"cember":2281,"Ġdetail":2282,"zeta":2283,"empt":2284,"Ġdat":2285,"icle":2286,"ĠCo":2287,"}+":2288,"Ġvol":2289,"Ġrese":2290,"Ġide":2291,"Ġbre":2292,"Ġcalcul":2293,"ĠJune":2294,"Ġsignificant":2295,"ocial":2296,"\\]":2297,"Ġmot":2298,"uman":2299,"Ġinclude":2300,"Ġdimens":2301,"ĠCal":2302,"uation":2303,"osp":2304,"Ġrange":2305,"aced":2306,"Ġmajor":2307,"Ġview":2308,"ser":2309,"lected":2310,"ĠSte":2311,"Ġless":2312,")}\\":2313,"iple":2314,"ales":2315,"99":2316,"Ġhal":2317,".âĢĿ":2318,"ats":2319,"ways":2320,"Ġdiv":2321,"Ġproof":2322,"Ġatta":2323,"Ġside":2324,"ailable":2325,"Ġhome":2326,")^{":2327,"ography":2328,"ĠApril":2329,"Ġinitial":2330,"}]":2331,"style":2332,"max":2333,"âĢľ":2334,"ww":2335,"ĠThere":2336,"ĠJuly":2337,"Ġ//":2338,"Ġlower":2339,"Ġmap":2340,"38":2341,"Ġgrow":2342,"ĠNorth":2343,"Ġphase":2344,"chie":2345,"field":2346,"Ġday":2347,"Ġmom":2348,"Ġapplic":2349,"37":2350,"Ġparameter":2351,"omorph":2352,"stand":2353,"used":2354,"time":2355,"01":2356,"ĠCity":2357,"ilit":2358,"Ġhigher":2359,"{(":2360,"asing":2361,"Ġopp":2362,"}=\\":2363,"ĠThese":2364,"Ġleg":2365,"inally":2366,"Ġpubl":2367,"By":2368,"ĠState":2369,"ĠEq":2370,"Ġfree":2371,"Ġwon":2372,"Ġ($":2373,"exp":2374,"Ġfeatures":2375,"urs":2376,"ĠĠĠĠĠĠĠĠĠĠĠĠĠĠĠĠĠĠĠĠĠĠĠĠĠĠĠĠĠĠĠĠ":2377,"Ġlinear":2378,"Ġfram":2379,"ĠAustral":2380,"Ġland":2381,";\\":2382,"Ġinvol":2383,"ĠArt":2384,"af":2385,"arning":2386,"Ġchange":2387,"Ġlo":2388,"Ġmembers":2389,"ĠNovember":2390,"ĉĉĉ":2391,"Ġcity":2392,"idered":2393,"Ġself":2394,"Ġaction":2395,"sl":2396,"scal":2397,"Ġrandom":2398,"Ġ&=":2399,"Ġarg":2400,"ON":2401,"Ġsit":2402,"Ġtit":2403,"Ġred":2404,"Ġleast":2405,"off":2406,"Ġplayed":2407,"Ġcirc":2408,"Ġcross":2409,"::":2410,"ĠDecember":2411,"ID":2412,"Un":2413,"2000":2414,"ada":2415,"Ġcases":2416,"ĠSection":2417,"anguage":2418,"Ġke":2419,"Ġreleased":2420,"Ġconsist":2421,"Ġlight":2422,"ham":2423,"Ġconsidered":2424,"ently":2425,"If":2426,"ĠĠĠĠĠĠĠĠĠ":2427,"Ġconditions":2428,"Ġcy":2429,"}^\\":2430,"eter":2431,".~":2432,"ĠReg":2433,"Ġcompet":2434,"lor":2435,"Ġlay":2436,"Ġmethods":2437,"iven":2438,"39":2439,"Ġfinite":2440,"cdots":2441,"Ġaverage":2442,"bb":2443,"ĠEurope":2444,"uk":2445,"ĠWill":2446,"tic":2447,"hold":2448,"Ġmanag":2449,"Ġold":2450,"Ġep":2451,"Ġvector":2452,"obal":2453,"}_\\":2454,"Ġ@":2455,"Ġdiff":2456,"Ġfrequ":2457,"Ġsymm":2458,",-":2459,"70":2460,"Ġoriginal":2461,"born":2462,"Ġimage":2463,"Ġcoll":2464,"based":2465,"ĠFeb":2466,"2005":2467,"arget":2468,"ney":2469,"Ġdynam":2470,"$)":2471,"Ġloss":2472,"essage":2473,"Ġsom":2474,"See":2475,"Ġflow":2476,"otes":2477,"cos":2478,"ruary":2479,"Ġpopulation":2480,"}|":2481,"Ġtemperature":2482,"widehat":2483,"comp":2484,"textwidth":2485,"ideo":2486,"ĠEn":2487,"ĠAf":2488,"ĠNo":2489,"ividual":2490,"mathsf":2491,"const":2492,"Ġrelations":2493,"Ġcompany":2494,"}\\,":2495,"Ġpositive":2496,"ends":2497,"Cl":2498,"viron":2499,"Ġge":2500,"Ġthus":2501,"Ġprom":2502,"Ġgovernment":2503,"ĠCor":2504,"ush":2505,"Ġsepar":2506,"onal":2507,"Ġpath":2508,"ille":2509,"Ġavailable":2510,"{{\\":2511,"Ġrecent":2512,"inary":2513,"lying":2514,"}}(":2515,"ĠAfter":2516,"Ġneg":2517,"~~":2518,"Ġcost":2519,"Ġwomen":2520,"enc":2521,"ula":2522,"lemma":2523,"48":2524,"Ġprovide":2525,"self":2526,"apan":2527,"Ġsem":2528,"ourn":2529,"conom":2530,"ĠPart":2531,"ably":2532,"Ġfoc":2533,"Ġproposed":2534,"Ġrepl":2535,"now":2536,"ĠMe":2537,"Ġ</":2538,"Ġamong":2539,"2004":2540,"top":2541,"Ġsay":2542,"ussian":2543,"ising":2544,"cont":2545,"Ġstar":2546,"ĠMed":2547,"rary":2548,"Ġcommon":2549,"qquad":2550,"uted":2551,"atural":2552,"order":2553,"ĠSy":2554,"AN":2555,"Ġcover":2556,"ged":2557,"ipp":2558,"Ġindependent":2559,"})\\":2560,"Ġsuper":2561,"Ġ\\{":2562,"Ġvarious":2563,"which":2564,"lement":2565,"Ġassociated":2566,"Ġes":2567,"SS":2568,"Ġconnect":2569,"Ġhom":2570,"Ġthird":2571,"ype":2572,"ster":2573,"gebra":2574,"ĠBritish":2575,"idence":2576,"Ġbetter":2577,"ĠChrist":2578,"Ġbelow":2579,"Ġwant":2580,"ana":2581,"Ġbeg":2582,"Ġins":2583,"Ġoften":2584,"Ġenc":2585,"Ġ#":2586,"64":2587,"95":2588,"hspace":2589,"Ġspecial":2590,"^+":2591,"ĠKing":2592,"Ġabs":2593,"Ġinput":2594,"ĠBut":2595,"Ġbi":2596,"Ġachie":2597,"wed":2598,"raft":2599,"aken":2600,"chan":2601,"script":2602,"65":2603,"ĠFebruary":2604,"ones":2605,"Ġobserved":2606,"aterial":2607,"ĠMc":2608,"arian":2609,"Ġbusiness":2610,"alax":2611,"Ġpri":2612,"}^{(":2613,"bor":2614,"eneral":2615,"Ġmulti":2616,"itions":2617,"ĠFigure":2618,"sin":2619,"ransp":2620,"ĠLeague":2621,"Ġseen":2622,"most":2623,"uture":2624,"Ġproperties":2625,"ĠEd":2626,"ĠApp":2627,"ving":2628,"Ġang":2629,"Ġiss":2630,"Ġnormal":2631,"Ġfive":2632,"Ġdefine":2633,"Ġbehav":2634,"âĢĶ":2635,"Ġarch":2636,"oung":2637,"Ġversion":2638,"Ġgreat":2639,"ertain":2640,"add":2641,"ml":2642,"utes":2643,"pdf":2644,"Ġblack":2645,"&=":2646,"ony":2647,"Ġeither":2648,"Ġquest":2649,"ĠII":2650,"inter":2651,"cup":2652,"Ġwid":2653,"Ġprote":2654,"Ġcell":2655,"Ġpract":2656,"AC":2657,"foot":2658,"Psi":2659,"Ġlines":2660,"Ġmeans":2661,"Ġcorre":2662,"Ġinfl":2663,"trans":2664,"Ġgames":2665,"dom":2666,"../":2667,"ĠSince":2668,"itor":2669,"Ġsource":2670,"ours":2671,"Ġconstra":2672,"ms":2673,"Ġeval":2674,"Ġstation":2675,"RE":2676,"Ġlearning":2677,"Ġprobability":2678,"Ġhowever":2679,"ĠOne":2680,"rap":2681,"ĠSch":2682,")]":2683,"Ġlocated":2684,"ĠHar":2685,"Ġzero":2686,"Ġwater":2687,"rench":2688,"ordin":2689,"ĠBar":2690,"Ġindividual":2691,"Ġresearch":2692,"Ġfactor":2693,"Ġtown":2694,"04":2695,"abor":2696,"uck":2697,"Ġexists":2698,"div":2699,"Ġcompar":2700,"Ġalign":2701,"upp":2702,"node":2703,"Ġhistory":2704,"Ġbirths":2705,"Ġtrue":2706,"Ġtook":2707,"Ġage":2708,"Res":2709,"ev":2710,"ĠWest":2711,"Ġfore":2712,"Ġcareer":2713,"Ġrole":2714,"century":2715,"plement":2716,"sup":2717,"Ġfac":2718,"Ġ$(\\":2719,"Ġvia":2720,"Ġnumer":2721,"Ġcoupl":2722,"Ġlength":2723,"na":2724,"ĠMore":2725,"iff":2726,"Ġsugg":2727,"Ġerror":2728,"}\\\\":2729,"Ġsuggest":2730,"ription":2731,"ĠPa":2732,"Ġequival":2733,"orts":2734,"Ġplan":2735,"ounc":2736,"icol":2737,"lete":2738,"ulations":2739,"xspace":2740,"Ġclaim":2741,"tex":2742,"Ġfilms":2743,"Ġ&\\":2744,"cle":2745,"br":2746,"Ġestablished":2747,"ief":2748,"ĠLemma":2749,"Ġaccount":2750,"igen":2751,"Ġmoment":2752,"Ġsurface":2753,"Ġfund":2754,"Ġacross":2755,"Ġregular":2756,"loc":2757,"Ġclust":2758,"Ġbecome":2759,"ese":2760,"Ġmember":2761,"2003":2762,"levision":2763,"Ġsw":2764,"ĠPe":2765,"Ġlog":2766,"appro":2767,"rite":2768,"ti":2769,"Ġpriv":2770,"Ġrefer":2771,"wise":2772,"Ġnode":2773,"Ġprim":2774,"Ã¡":2775,"Ġexperiment":2776,"small":2777,"ĠDist":2778,"gether":2779,"Ġtogether":2780,"Ġjo":2781,"ĠLa":2782,"Ġkey":2783,"aries":2784,"operat":2785,"sing":2786,"Ġincluded":2787,"ha":2788,"htt":2789,"adem":2790,"08":2791,"Ġnamed":2792,"atrix":2793,"Ġheld":2794,"ĠArm":2795,"och":2796,"ĠWith":2797,"scr":2798,"Ġdatas":2799,"lation":2800,"ĠHis":2801,"eder":2802,"ĠEnglish":2803,"oted":2804,"ault":2805,"ips":2806,"ules":2807,"Ġhouse":2808,"Ġrat":2809,"Ġdeb":2810,"Ġdistance":2811,"ittle":2812,"Ġsche":2813,"|^":2814,"Ġevents":2815,"Ġsix":2816,"Ġgive":2817,"Ġsimple":2818,"Ġauthor":2819,"Ġconstruct":2820,"icy":2821,"Ġbegan":2822,"Ġanaly":2823,"Ġemb":2824,"gl":2825,"Ġgroups":2826,"Ġhaving":2827,"Ġtre":2828,"Ġservice":2829,"vironment":2830,"Ġquantum":2831,"head":2832,"ibility":2833,"class":2834,"Ġfixed":2835,"operatorn":2836,"annel":2837,"rag":2838,"ilities":2839,"Ġdev":2840,"Ġbecom":2841,"Ġlik":2842,"rew":2843,"ondon":2844,"rie":2845,"55":2846,"Ġemploy":2847,"Ġdetect":2848,"lin":2849,"ware":2850,"ĠJapan":2851,"ĠHam":2852,"operatorname":2853,"Ġwritten":2854,"Ġreceived":2855,"Ġimpl":2856,"Ġhard":2857,"Ġbegin":2858,"Ġill":2859,"Ġbuilt":2860,"Ġprop":2861,"07":2862,"ront":2863,"Ġassume":2864,"ĠYou":2865,"iles":2866,"ĠSo":2867,"ems":2868,"Ġair":2869,"Ġlabel":2870,"esc":2871,"Ġsequence":2872,"44":2873,"ĠAm":2874,"span":2875,"ready":2876,"acy":2877,"prop":2878,"({\\":2879,"Ġinc":2880,"rown":2881,"ĠSan":2882,"ĠEl":2883,"Ġprofess":2884,"Ġground":2885,"reet":2886,"ogn":2887,")-":2888,"hib":2889,"Ġchildren":2890,"Ġdon":2891,"arried":2892,"bur":2893,"ĠWhen":2894,"02":2895,"ume":2896,"ĠAfric":2897,"Ġinvestig":2898,"]$":2899,"American":2900,"Ġlarger":2901,"Ġ_":2902,"raction":2903,"Ġrelated":2904,"itect":2905,"cast":2906,"Ġclub":2907,"aly":2908,"Ġaccess":2909,"Ġelements":2910,"indent":2911,"Ġeduc":2912,"}:":2913,"skip":2914,"ception":2915,"iber":2916,"Ġworks":2917,"2002":2918,"Ġrequire":2919,"03":2920,"Ġmatch":2921,"06":2922,"point":2923,"Ġspin":2924,"Ġdep":2925,"ĠPark":2926,"aint":2927,"Ġpublished":2928,"}+\\":2929,"Ġoperator":2930,"ĠMon":2931,"Ġpur":2932,"edd":2933,"}}{\\":2934,"citet":2935,"Ġreview":2936,"hood":2937,"Ġexpected":2938,"equiv":2939,"rain":2940,"ford":2941,"gen":2942,"Ġtext":2943,"ops":2944,"rick":2945,"ape":2946,"mid":2947,"cret":2948,"Ġtw":2949,"ĠComp":2950,"AL":2951,"Ġclose":2952,"verse":2953,"avy":2954,"IC":2955,"Ġelement":2956,"Ġgen":2957,"Ġexact":2958,"fill":2959,"ĠHigh":2960,"onse":2961,"Ġport":2962,"Ġalways":2963,"Ġdiag":2964,"dimens":2965,"Ġscale":2966,"ĠAmeric":2967,"izing":2968,"Ġcamp":2969,"tical":2970,"Ġdenote":2971,"neq":2972,"Ġdevelopment":2973,"iction":2974,"SE":2975,"aches":2976,"Ġvill":2977,"go":2978,"OR":2979,"Ġappl":2980,"Ġable":2981,"ington":2982,"Ġspecies":2983,",âĢĿ":2984,"Ġtaken":2985,"Ġtarget":2986,"Ġbuilding":2987,"rim":2988,"rant":2989,"Ġedge":2990,"Ġgalax":2991,"Ġproduction":2992,"09":2993,"medi":2994,"ĠQu":2995,"ĉĊ":2996,"ĠCollege":2997,"BC":2998,"Ġunit":2999,"Ġcommunity":3000,"Ġstep":3001,"ults":3002,"Ġnational":3003,"ĠAir":3004,"defin":3005,"'$":3006,"Ġdou":3007,"Ġstyle":3008,"Ġboundary":3009,"ĠChampions":3010,"Ġsample":3011,"star":3012,"Se":3013,"2001":3014,"}-\\":3015,"itted":3016,"ariant":3017,"Ġmen":3018,"Ġhalf":3019,")}{":3020,"ĠRo":3021,"ĠDav":3022,"Ġdegree":3023,"Ġmight":3024,"yl":3025,"ĠDep":3026,"icro":3027,"ĠLondon":3028,"49":3029,"cell":3030,"mark":3031,"Ġtoo":3032,"Ġcountry":3033,"racy":3034,"Ġcorrel":3035,"onic":3036,"mathscr":3037,"Ġdomain":3038,"iet":3039,"apt":3040,"ĠAg":3041,"Ġsens":3042,"Ġproperty":3043,"Ġalready":3044,"ouncil":3045,"ooth":3046,"Ġsent":3047,"ĠThus":3048,"ĠSer":3049,"Ġconc":3050,"AM":3051,"Ġgives":3052,"Ar":3053,"rated":3054,"Ġequations":3055,"Ġwar":3056,"ards":3057,"Ġ-\\":3058,"ishing":3059,"Ġconver":3060,"estern":3061,"ements":3062,"eloc":3063,"more":3064,"Ġfig":3065,"umerate":3066,"Ġhuman":3067,"ĠPres":3068,"augh":3069,"Ġmaterial":3070,"ending":3071,"Ġsite":3072,"Ġimplement":3073,"theorem":3074,"Ġarm":3075,"}}_":3076,"ured":3077,"Pl":3078,"ression":3079,"85":3080,"ĠPer":3081,"this":3082,"47":3083,"vspace":3084,"sw":3085,"ĠBro":3086,"Ġaccording":3087,"uration":3088,"Ġput":3089,"ĠHer":3090,"Ġadditional":3091,"Ġfuture":3092,"Ġweight":3093,"Ġannoun":3094,"ĠWilliam":3095,"cing":3096,"Ġhealth":3097,"cher":3098,"Ġfar":3099,"]\\":3100,"itting":3101,"Ġpress":3102,"iding":3103,"Ġwind":3104,"enumerate":3105,"iform":3106,"Ġfail":3107,"ĠHouse":3108,"Ġeffects":3109,"Ġextens":3110,"Ġcontains":3111,"(\"":3112,"ridge":3113,"Ġplayer":3114,"multicol":3115,"Ġsocial":3116,"ump":3117,"ilitary":3118,"note":3119,"Ġmechan":3120,"Ġthink":3121,"Ġmillion":3122,"ulated":3123,"ĠNe":3124,"();":3125,"66":3126,"unic":3127,"Ġrequired":3128,"rr":3129,"Ġmaking":3130,"itemize":3131,"ĠGl":3132,"Ġfields":3133,"multicolumn":3134,"like":3135,"Ġimages":3136,"ĠRec":3137,"kn":3138,"ĠChe":3139,"Ġclos":3140,"Ġprovided":3141,"hy":3142,"Ġcertain":3143,"Ġcult":3144,"Ġnatural":3145,"Ġnov":3146,"astic":3147,"Ġdays":3148,"Ġcompared":3149,"ming":3150,"Ġbase":3151,"noindent":3152,"ĠAng":3153,"EN":3154,"$}":3155,"Ġtherefore":3156,"Ġcentury":3157,")}$":3158,"era":3159,"aves":3160,"scale":3161,"dag":3162,"omial":3163,"ĠFrench":3164,"Ġoptim":3165,"Ġveloc":3166,"Ġweek":3167,"Ġmetric":3168,"Ġwhose":3169,"Ġproduced":3170,"ĠAb":3171,"size":3172,"Ġnecess":3173,"ournal":3174,"Ġtitle":3175,"Ġsolutions":3176,"Ġimplies":3177,"--------":3178,"Ġvideo":3179,"opy":3180,"Ġpan":3181,"Ġround":3182,"Ġholds":3183,"Ġpresented":3184,"ara":3185,"dimensional":3186,"Ġsqu":3187,"ceed":3188,"ctors":3189,"Ġmultiple":3190,"pre":3191,"ires":3192,"Ġnever":3193,"Ġfocus":3194,"Ġreported":3195,"Ġeffective":3196,"Sh":3197,"Ġneigh":3198,"istics":3199,"98":3200,"Ġenough":3201,"mon":3202,"Ġstrateg":3203,"ĠâĢĺ":3204,"cis":3205,"atively":3206,"oud":3207,"Ġserved":3208,"Ġactiv":3209,"ransport":3210,"Ġcut":3211,"Ġhost":3212,"Ġconstraint":3213,"Ġstars":3214,"Pe":3215,"Ġreason":3216,"olic":3217,"ama":3218,"Ġcoe":3219,"ĠInternational":3220,"Ġborn":3221,"Ġ\\|":3222,"Ġcateg":3223,"ĠSim":3224,"ĠSm":3225,"Ġdefinition":3226,"Ind":3227,"Ġlearn":3228,"alt":3229,"Ġkill":3230,"ners":3231,"ĠFirst":3232,"Ġspecific":3233,"attle":3234,"(-":3235,"Ġbroad":3236,"Ġsets":3237,"ota":3238,"Ġtreat":3239,"97":3240,"omorphism":3241,"rig":3242,"AP":3243,"Ġmiss":3244,"\\,\\":3245,"Ġstory":3246,"itz":3247,"Ġagre":3248,"pol":3249,"Ġdistrict":3250,"iments":3251,"NN":3252,"fact":3253,"Ġconstruction":3254,"Ġce":3255,"ores":3256,"ĠPhil":3257,"Ġcentral":3258,"oon":3259,"uff":3260,"96":3261,"IS":3262,"ste":3263,"inated":3264,"itch":3265,"ociety":3266,"ĠDistrict":3267,"ocument":3268,"minist":3269,"Ġprove":3270,"Ġbo":3271,"LE":3272,"Ġperformed":3273,"tage":3274,"****":3275,"âĢ¦":3276,"alse":3277,"opl":3278,"mar":3279,"Since":3280,"\\}$":3281,"></":3282,"ĠCO":3283,"IT":3284,"Ġalgebra":3285,"DE":3286,"type":3287,"Ġrather":3288,"alle":3289,"earch":3290,"~$":3291,"Ġfri":3292,"ĠMich":3293,"iforn":3294,"Ġhapp":3295,"Ġclosed":3296,"Ġcreated":3297,"Ġbasis":3298,"down":3299,"ĠCup":3300,"46":3301,"}}}":3302,"Ġrank":3303,"omb":3304,"icture":3305,"ĠFrom":3306,"Ġmem":3307,"isk":3308,"ĠGerman":3309,"Ġnote":3310,"source":3311,"Ġweak":3312,"Ġcle":3313,"Ġcomplete":3314,"Ġindust":3315,"atives":3316,"Ġmarket":3317,"There":3318,"Ġunderstand":3319,"split":3320,"ociation":3321,"name":3322,"Ġcompos":3323,"uild":3324,"Ġbackground":3325,"oms":3326,"AA":3327,"king":3328,"ili":3329,"icult":3330,"Ġtrack":3331,"1999":3332,"Ġaway":3333,"Ġgenerated":3334,"Ġlanguage":3335,"Ġparticip":3336,"Ġpo":3337,"gence":3338,"Ġcannot":3339,"Ġdifference":3340,"ifornia":3341,"Ã³":3342,"ams":3343,"ilton":3344,"map":3345,"Ġcoordin":3346,"ĠSup":3347,"Ġwhether":3348,"Ġalmost":3349,"Ġoutput":3350,"iddle":3351,"ĠTra":3352,"Ġtelevision":3353,"Ġstudents":3354,"actions":3355,"ledge":3356,"Ġintroduced":3357,"oe":3358,"aff":3359,"eal":3360,"Ġcame":3361,"Ġtransform":3362,"Ġglobal":3363,"Ġgoing":3364,"Ġled":3365,"Ġexplain":3366,"iting":3367,"andid":3368,"ellow":3369,"Ġattack":3370,"Ġinflu":3371,"Ġengine":3372,"Ġmer":3373,"Ġinstead":3374,"Ġblock":3375,"88":3376,"Ġnorth":3377,"izes":3378,"isc":3379,"umbers":3380,"vey":3381,"^-":3382,"ĠIndian":3383,"Ġneut":3384,")+":3385,"Pi":3386,"ĠMark":3387,"Ġincrease":3388,"Ġlate":3389,"Ġliter":3390,"Ġsett":3391,"ĠTherefore":3392,"Ġrepresentation":3393,"Ġleading":3394,"Ġservices":3395,"Ġrelation":3396,"Ġgas":3397,"Ġdeveloped":3398,"Ġequal":3399,"lands":3400,"Ġstarted":3401,"Ġcomponents":3402,"CC":3403,"ĠAc":3404,"approx":3405,"ccording":3406,"Ġmagnetic":3407,"ĠAct":3408,"Ph":3409,"that":3410,"la":3411,"Be":3412,"lymp":3413,"band":3414,"Ġestimate":3415,"rast":3416,"Ġwave":3417,"pped":3418,"irt":3419,"Ġdirection":3420,"Ġbig":3421,"itude":3422,"Ġdemon":3423,"Ġcomponent":3424,"At":3425,"orge":3426,"Ġcode":3427,"Ġcontext":3428,"uth":3429,"Ġflu":3430,"Ġprior":3431,"Ġyield":3432,"Ġworking":3433,"Ġsoft":3434,"tee":3435,"Ġadv":3436,"Ġmeet":3437,"Ġothers":3438,"Ġbelie":3439,"ottom":3440,"CO":3441,"nder":3442,"Col":3443,"Ġenvironment":3444,"Ġhor":3445,"atory":3446,"linear":3447,"Ġtheorem":3448,"67":3449,"Ġchanges":3450,"ĠVal":3451,"Ġ_{":3452,"Le":3453,"Ġrot":3454,"berg":3455,"irl":3456,"1998":3457,"Ġexec":3458,"ids":3459,"Ġentire":3460,"elling":3461,"Ġaff":3462,"Ġeconom":3463,"Int":3464,"ario":3465,"Ġrestrict":3466,"ĠGa":3467,"Ġarchitect":3468,"Ġdied":3469,"')":3470,"ying":3471,"Ġprinc":3472,"hern":3473,"Ġstudies":3474,"underline":3475,"1990":3476,"*{":3477,"rule":3478,"known":3479,"],":3480,"td":3481,"Ġevolution":3482,"&&":3483,"icles":3484,"Ġsignal":3485,"Ġprot":3486,"imate":3487,"Ġbody":3488,"Ġonce":3489,"oph":3490,"Ġson":3491,"ills":3492,"ework":3493,"Ġtaking":3494,"oyal":3495,"Ġoccur":3496,"Ġclear":3497,"Ġcheck":3498,"ĠRiver":3499,"Ġprovides":3500,"ĠCalifornia":3501,"ĠIndia":3502,"group":3503,"turb":3504,"useum":3505,"tact":3506,"||":3507,"my":3508,"Ġupper":3509,"Ġsyn":3510,"ĠStud":3511,"inn":3512,"ounter":3513,"Ġpay":3514,"arily":3515,"New":3516,"Ġmaximum":3517,"Ġchall":3518,"Ġspectrum":3519,"PS":3520,"bound":3521,"que":3522,"oney":3523,"html":3524,"><":3525,"inde":3526,"77":3527,"ship":3528,"clusion":3529,"anish":3530,"Ġtens":3531,"gress":3532,"List":3533,"ache":3534,"bsite":3535,"Ġhistor":3536,"Ġindex":3537,"ĠEngland":3538,"Ġapplied":3539,"hips":3540,"value":3541,"Ġevalu":3542,"}}_{":3543,"Ġcontinuous":3544,"state":3545,"Ġtransition":3546,"Ġscen":3547,"Ġsmaller":3548,"Ġcome":3549,"ĠTable":3550,"../../":3551,"Then":3552,"Ġdone":3553,"function":3554,"Ġadvan":3555,"Ġproblems":3556,"ĠDiv":3557,"texttt":3558,"year":3559,"Ġpopular":3560,"ĠSw":3561,"Ġinf":3562,"ĠRepublic":3563,"ĠDr":3564,"{$":3565,"Ġcompan":3566,"Ġsouth":3567,"Ġkeep":3568,"nce":3569,"ĠMy":3570,"Ġdirectly":3571,"}^{-":3572,"Ġunique":3573,"68":3574,"bert":3575,"ĠTr":3576,"Ġcapt":3577,"arth":3578,"Ġmatter":3579,"Ġpast":3580,"Ġrecogn":3581,"ĠAmerica":3582,"ranch":3583,"Ġaddress":3584,"Ġphysical":3585,"Theta":3586,"ES":3587,"Ġupd":3588,"Ġattempt":3589,"ully":3590,"Ġdifficult":3591,"ura":3592,"Ġvariables":3593,"Ġvelocity":3594,"Ġdecre":3595,"norm":3596,"ÃŃ":3597,"Ġofficial":3598,"ĠĠĠĊ":3599,"Ad":3600,"volution":3601,"ivil":3602,"Ġ$\\{":3603,"Ġ\\;":3604,"Ġmakes":3605,"Ġconduct":3606,"Ġsubject":3607,"With":3608,"ĠFl":3609,"ken":3610,",\"":3611,"Sc":3612,"ĠMod":3613,"rs":3614,"Ġtransfer":3615,"Ġincreasing":3616,"ĠThat":3617,"ĠĠĠĠĠĠĠĠĠĠĠĠĠĠĠĠĠĠĠ":3618,"{}":3619,"Ġwent":3620,"Ġcenter":3621,"Ġprivate":3622,"ville":3623,"ett":3624,"ynomial":3625,"),\\":3626,"Ġconfig":3627,"Ġeigen":3628,"Ġamount":3629,"Ġtradition":3630,"Ġgrad":3631,"ites":3632,"Ġbecomes":3633,"Ġimpact":3634,"Vert":3635,"rence":3636,"minus":3637,"ĠAustralia":3638,"ĠEast":3639,"han":3640,"Ġlittle":3641,"Ġelectron":3642,"Ã¼":3643,"CD":3644,"Ġannounced":3645,"Ġfem":3646,"ortun":3647,"ander":3648,"Ġ*/":3649,"textrm":3650,"Ġcr":3651,"ened":3652,"auge":3653,"ked":3654,"42":3655,"Sp":3656,"ĠDi":3657,"acc":3658,"Ġratio":3659,"ustom":3660,"Ġvillage":3661,"ico":3662,"<\\":3663,"rd":3664,"After":3665,"Ġeff":3666,"Ġareas":3667,"1996":3668,"bigg":3669,"normal":3670,"ky":3671,"stitute":3672,"alls":3673,"prod":3674,"osen":3675,"Ġdest":3676,"Ġyoung":3677,"rate":3678,"Ġadj":3679,"Ġincludes":3680,"roll":3681,"Ġgoal":3682,"ED":3683,"Ġestablish":3684,"Ġmoved":3685,"Ġut":3686,"Ġdimension":3687,"subseteq":3688,"Ġaffect":3689,"1997":3690,"From":3691,"sel":3692,"leg":3693,"Ġfather":3694,"Ġvalid":3695,"Ġcolumn":3696,"Ġcandid":3697,"Ġsold":3698,"ĠMa":3699,"ĠCont":3700,"Ġnuc":3701,"ĠPresident":3702,"otic":3703,"can":3704,"ĠBer":3705,"Ġquestion":3706,"Ġgeom":3707,"ĠDes":3708,"tra":3709,"pa":3710,"Ġsearch":3711,"ĠBel":3712,"Ġfrequency":3713,"riate":3714,"Ġstage":3715,"Ġchoice":3716,"Ġwords":3717,"Ġpeak":3718,"Ġwrite":3719,"Ġviol":3720,"43":3721,"Ġcritical":3722,"Ġepis":3723,"ĠCour":3724,"long":3725,"footnote":3726,"OS":3727,"Ġallows":3728,"ply":3729,"Ġbehavior":3730,".)":3731,"command":3732,"ĠMor":3733,"Ġrob":3734,"People":3735,"Ġsources":3736,"den":3737,"57":3738,"Ġnumbers":3739,"Ge":3740,"ica":3741,"Ġpolitical":3742,"ĠĠĠĠĊ":3743,"code":3744,"ĠHol":3745,"mit":3746,"load":3747,"linewidth":3748,"message":3749,"ĠEuropean":3750,"Ġequivalent":3751,"pecially":3752,"Ġsetting":3753,"Ġdemonstr":3754,"Ġuser":3755,"icit":3756,"Ġtry":3757,"usion":3758,"ĠNote":3759,"^{-\\":3760,"500":3761,"Ġtakes":3762,"gcolor":3763,"Ġbreak":3764,"rices":3765,"58":3766,"Ġregard":3767,"Ġadded":3768,"Ġsays":3769,"ĠStreet":3770,"Ġdetails":3771,"Ġinternational":3772,"dist":3773,"reng":3774,"ĠChar":3775,"nt":3776,"cted":3777,"ĠCanada":3778,"uel":3779,"ĠÐ":3780,"ĠPat":3781,"ansion":3782,"from":3783,"}'":3784,"ĠÂ":3785,"ging":3786,"ĠServ":3787,"adian":3788,"oul":3789,"ael":3790,"Living":3791,"Ġ$|":3792,"Ġcolor":3793,"display":3794,"Ġdataset":3795,"ĠAward":3796,"ĠParty":3797,"Ġnoise":3798,"setminus":3799,"Ġarr":3800,"ĠPort":3801,"Ġtask":3802,"Ġaward":3803,"Ġresponse":3804,"oplus":3805,"Ġregions":3806,"And":3807,"Ġinstance":3808,"aged":3809,"Ġcontent":3810,"artment":3811,"cial":3812,"Ġmale":3813,"}},":3814,"ached":3815,"41":3816,"Ġcourse":3817,"ĠCenter":3818,"Id":3819,"ĠDem":3820,"ports":3821,"ĠMal":3822,"Ġdetermined":3823,"bre":3824,"Ġconnected":3825,"pping":3826,"uracy":3827,"ued":3828,"MS":3829,"Ġfit":3830,"ĠCouncil":3831,"ifold":3832,"Ġsmooth":3833,"Ġmention":3834,"Ġste":3835,"level":3836,"ratic":3837,"Ġrespons":3838,"Te":3839,"ĠPal":3840,"Note":3841,"Ġ(-":3842,"Ġparts":3843,")|":3844,"ipal":3845,"Ġinequ":3846,"eline":3847,"curity":3848,"Ġ($\\":3849,"Ġproced":3850,"All":3851,"ening":3852,"Ġchannel":3853,"ises":3854,"ĠThom":3855,"Ġillust":3856,"Ġ:=":3857,"Ġsuccessful":3858,"ĠBlack":3859,"taint":3860,"Type":3861,"Ġroad":3862,"pite":3863,"ilm":3864,"subfigure":3865,"igned":3866,"iation":3867,"ani":3868,"pot":3869,"Ġess":3870,"Ġbgcolor":3871,"Ġlive":3872,"ĠÃ":3873,"Ġmid":3874,"Ġrow":3875,"Ġtypes":3876,"EC":3877,"ands":3878,"Ġuniform":3879,"ĠRed":3880,"Ġstudied":3881,"====":3882,"1995":3883,"ya":3884,"Ġderiv":3885,"change":3886,"ender":3887,"ĠPaul":3888,"56":3889,"pret":3890,"Ġnovel":3891,"utive":3892,"87":3893,"encies":3894,"Ġobjects":3895,"Ġrelative":3896,"Ġintegral":3897,"}/":3898,"_+":3899,"Ġsound":3900,"Ġalthough":3901,"ĠGeneral":3902,"Ġsufficient":3903,"Ġuncer":3904,"orthern":3905,"ĠChurch":3906,"duc":3907,"wedge":3908,"\\}":3909,"asons":3910,"Ġconne":3911,"dagger":3912,"Ġpolynomial":3913,"ĠFrance":3914,"Ġhyper":3915,"Ġmedia":3916,"Ġhref":3917,"ini":3918,"ountain":3919,"Ġpattern":3920,"1980":3921,"Ġgre":3922,"ĠSen":3923,"Ġdeaths":3924,"ĠRober":3925,"rote":3926,"ĠCons":3927,"ĠGerm":3928,"Ġflux":3929,"Ġgain":3930,"Ġradio":3931,"History":3932,"Ġuses":3933,"Ġobservations":3934,"inf":3935,"inos":3936,"ĠJames":3937,"Ġ$[":3938,"Ġspeed":3939,"Ġmag":3940,"di":3941,"Ġconclud":3942,"book":3943,"ĠWhile":3944,"allel":3945,"Ġrelease":3946,"ĠBra":3947,"ĠGroup":3948,"ĠLaw":3949,"2023":3950,"ka":3951,"Ġlikely":3952,"ashed":3953,"\\'":3954,"_{(":3955,"gra":3956,"thing":3957,"Ġcontract":3958,"_*":3959,"rol":3960,"Name":3961,"iers":3962,"uz":3963,"Ġbene":3964,"Ġinteraction":3965,"Ġkm":3966,"Ġstring":3967,"ĠJe":3968,"aring":3969,"ĠChina":3970,"aign":3971,"Ġworked":3972,"Ġhence":3973,"Ġitself":3974,"ios":3975,"][":3976,"atform":3977,"ln":3978,"Ġclassical":3979,"ĠOur":3980,"Ġwidth":3981,"hel":3982,"Ġelection":3983,"Ġsamples":3984,"ida":3985,"Ġbounded":3986,"Ġoperators":3987,"ĠGo":3988,"Ġcompact":3989,"Ġresulting":3990,"Ġpolicy":3991,"wood":3992,"Ġcreate":3993,"ĠDavid":3994,"Ġperm":3995,"Ġreve":3996,"ĠDo":3997,"Ġforce":3998,"Ġaccept":3999,"$_":4000,"93":4001,"key":4002,"Ġir":4003,"Ġadapt":4004,"Ġdeal":4005,"mary":4006,"ds":4007,"Ġcurve":4008,"ĠOlymp":4009,"ĠBay":4010,"When":4011,"thern":4012,"aligned":4013,"unn":4014,"Ġtable":4015,"ket":4016,"IM":4017,"Wh":4018,"colon":4019,"Ġdiagram":4020,"Ġax":4021,"Ġiter":4022,"ĠArmy":4023,"Ġremov":4024,"ows":4025,"light":4026,"Ġwebsite":4027,"Ġkind":4028,"Ġreach":4029,"Ġpack":4030,"call":4031,"Ġfront":4032,"Ġlost":4033,"black":4034,"Ġaltern":4035,"attice":4036,"jection":4037,"Ġonline":4038,"Ġdeep":4039,"Ġexperiments":4040,"Ġstructures":4041,"atal":4042,"Ġusually":4043,"One":4044,"1994":4045,"Ġwhite":4046,"https":4047,"Ġlaun":4048,"Ġinfin":4049,"Ġpers":4050,"isation":4051,"Ġ$-":4052,"Ġdesigned":4053,"ĠSum":4054,"ades":4055,"86":4056,"Ġfav":4057,"Ġreally":4058,"ĠRich":4059,"IR":4060,"94":4061,"rian":4062,"gs":4063,"Ġsymmetry":4064,"('":4065,"import":4066,"data":4067,"Ġsense":4068,"abs":4069,"Ġlargest":4070,"Ġbox":4071,"outhern":4072,"ago":4073,"Ġund":4074,"ibrary":4075,"Ġremains":4076,"inct":4077,"Ġ\\(":4078,"Ġgauge":4079,"ariance":4080,"ingu":4081,"Ġgrav":4082,"ker":4083,"ĠRoman":4084,"Ġdiscussed":4085,"Ġembedd":4086,"Ġmonths":4087,"fit":4088,"ĠHall":4089,"Ġpresident":4090,"dt":4091,"Ġelse":4092,"Ġpref":4093,"rat":4094,"izations":4095,"].":4096,"ĠAssociation":4097,"crete":4098,"Ġaud":4099,"PR":4100,"Ġqual":4101,"ĠQue":4102,"92":4103,"AD":4104,"bul":4105,"erve":4106,"cks":4107,"Ġgradu":4108,"ĠDepartment":4109,"Ġrac":4110,"Ġlayer":4111,"Ġnegative":4112,"Ġexperience":4113,"rab":4114,"Ġframework":4115,"ellar":4116,"Ġparty":4117,"Ġexpression":4118,"ollary":4119,")\\,":4120,"Ġcompanies":4121,"hest":4122,"reek":4123,"aging":4124,"FT":4125,"Ġparticles":4126,"Ġapply":4127,"ĠProposition":4128,"stein":4129,"ĠHere":4130,"Ġmilitary":4131,"Ġstreng":4132,"ocks":4133,"Ġdecl":4134,"Ġvertex":4135,"www":4136,"Ġtowards":4137,"Ġespecially":4138,"Ġexhib":4139,"igital":4140,"isions":4141,"Ġupon":4142,"Ġselected":4143,"Ġcharge":4144,"atur":4145,"78":4146,"Val":4147,"ols":4148,"Ġparticle":4149,"Ġdynamics":4150,"ĠGeorge":4151,"Ġcommunic":4152,"ashington":4153,"Ġsubset":4154,"Ġapproximation":4155,"Ġsupported":4156,"pan":4157,"uses":4158,"eared":4159,"Ġoptimal":4160,"1992":4161,"US":4162,"ston":4163,"Ġeducation":4164,"}}(\\":4165,"ien":4166,"ares":4167,"ĠHamilton":4168,"png":4169,"Mod":4170,"ething":4171,"Ġexplicit":4172,"Ġseg":4173,"\\!\\!":4174,"ests":4175,"Ġemission":4176,"ĠTV":4177,"asc":4178,"Ġwhole":4179,"{$\\":4180,"Ġactive":4181,"Ġreduced":4182,"dro":4183,"Ġneeded":4184,"76":4185,"wa":4186,"oring":4187,"Ġgot":4188,"Ã¶":4189,"Ġknowledge":4190,"/>":4191,"Ġvariable":4192,"Ġmechanism":4193,"Ġtherm":4194,"Ġsimply":4195,"Ġoutside":4196,"Ġscre":4197,"Ġ|\\":4198,"App":4199,"_{{\\":4200,"Ġlevels":4201,"roduction":4202,"xy":4203,"ĠGreen":4204,"ifying":4205,"model":4206,"_{-":4207,"Ġquality":4208,"Ġformula":4209,"Ġclasses":4210,"1993":4211,"Bl":4212,"sequently":4213,"ously":4214,"Ġdocument":4215,"Ġfollowed":4216,"Ġlocation":4217,"Ġconcept":4218,"using":4219,"Ġacqu":4220,"Ġappoint":4221,"Ġscheme":4222,"uments":4223,"alian":4224,"Ġwrote":4225,"Ġperturb":4226,"ald":4227,"Ġtree":4228,"spec":4229,"ĠEm":4230,"eli":4231,"Ġteams":4232,"Ġformed":4233,"Ġord":4234,"ittee":4235,"Ġcharg":4236,"Ġreturned":4237,"iences":4238,")}(":4239,"det":4240,"limits":4241,"Ġaccuracy":4242,"Ġmaps":4243,"51":4244,"ocal":4245,"Ġdark":4246,"Ġpresence":4247,"ivial":4248,"ĠNot":4249,"Ġmach":4250,"Ġdraw":4251,"acity":4252,"Ġpolitic":4253,"Ġderived":4254,"Ġmove":4255,"Ġlatter":4256,"ederal":4257,"Ġleads":4258,"Ġdra":4259,"Ġvert":4260,"Ġimmedi":4261,"irm":4262,"Ġadopt":4263,"MC":4264,"ĠLou":4265,"Ġdirector":4266,"Ġadminist":4267,"Ġchain":4268,"Ġunits":4269,"acing":4270,"Ġhtt":4271,"unc":4272,"gin":4273,"Ġrail":4274,"istry":4275,"Net":4276,"54":4277,"range":4278,"anks":4279,"Ġthroughout":4280,"Ġcollection":4281,"Ġgalaxies":4282,"ĠĠĠĠĠĠĠĠĠĠĠĠĠ":4283,"ĠInstitute":4284,"textsc":4285,"ilarly":4286,"ĠMart":4287,"AB":4288,"Ġten":4289,"Ġspat":4290,"Ġinvolved":4291,"Ġstri":4292,"Ġhon":4293,"=(":4294,"Ġnetworks":4295,"Ġautom":4296,"rice":4297,"ĠList":4298,"Ġprec":4299,"Ġface":4300,"52":4301,"Ġnecessary":4302,"ube":4303,"Ġnull":4304,"nes":4305,"Ġchosen":4306,"Ġlat":4307,"'_":4308,"Ġmotion":4309,"Ġvict":4310,"Ġapplication":4311,"91":4312,"Ġobser":4313,"iques":4314,"Ġbar":4315,"Ġ&&":4316,"ET":4317,"ĠGermany":4318,"Ġprofessional":4319,"Ġmeasured":4320,"ropy":4321,"Ġcoupling":4322,"Ġissue":4323,"Ġdouble":4324,"Ġexpansion":4325,"Ġadm":4326,"Ġarbit":4327,"olar":4328,"Ġuncertaint":4329,"ba":4330,"Ġexpon":4331,"Ġgrowth":4332,"Ġword":4333,"Ġjoined":4334,"ros":4335,"anning":4336,"ĠDivision":4337,"ĠPo":4338,"Ġextended":4339,"Ġcomparison":4340,"1970":4341,"Ġshall":4342,"ĠCourt":4343,")_{":4344,"Ġissues":4345,"definition":4346,"iny":4347,"rec":4348,"tered":4349,",\\,":4350,"ĠRoyal":4351,"Ġlimited":4352,"Ġnight":4353,"Ġfigure":4354,"Ġsatisfies":4355,"endix":4356,"ĠUnion":4357,"Ġnumerical":4358,"Ġassist":4359,"Ġcontinued":4360,"Ġcomes":4361,")^{\\":4362,"ĠUK":4363,"ental":4364,"Ġnorm":4365,"Ġoverall":4366,"ĠSur":4367,"acher":4368,"Ġyet":4369,"SP":4370,"ĠDuring":4371,"Ð¾":4372,"Ġdefe":4373,"Ġtransport":4374,"inese":4375,"Ġemer":4376,"antic":4377,"board":4378,"Ġscore":4379,"Ġidea":4380,"Ġmarried":4381,"ĠVir":4382,"Ġpercent":4383,"ĠFe":4384,"LL":4385,"ĠResearch":4386,"ĠRuss":4387,"Ġ}\\":4388,"ona":4389,"Ġprimary":4390,"Ġcontribution":4391,"Ġpolar":4392,"fficients":4393,"89":4394,"Ġrelev":4395,"'\\":4396,"Ġ%":4397,"ĠOb":4398,"ĠBr":4399,"rep":4400,"Ġmodern":4401,"Ġnews":4402,"ki":4403,"Ġminimum":4404,"Ġcorrect":4405,"bo":4406,"subsubsection":4407,"Ġsus":4408,"Ġjob":4409,"Ġcos":4410,"Ġvan":4411,"Ġlonger":4412,"ameter":4413,"Ġaim":4414,"Ġminim":4415,"Ġpreviously":4416,"Ġded":4417,"place":4418,"Ġmode":4419,"Ġoperations":4420,"Ġusers":4421,"Ġspectral":4422,"Ġdecision":4423,"Ġreference":4424,"Ġallowed":4425,"\")":4426,"vol":4427,"arlier":4428,"well":4429,"Ġmomentum":4430,"Ġfeel":4431,"EE":4432,"edy":4433,"Ġbelong":4434,"Ġparent":4435,"return":4436,"Ġlove":4437,"Ġinterpret":4438,"ĠRoad":4439,"ils":4440,"Cont":4441,"etimes":4442,"Ġdepart":4443,"ensive":4444,"ĠBo":4445,"Ġpie":4446,"writ":4447,"ĠHence":4448,"Ġorigin":4449,"Ġdecay":4450,"ava":4451,"53":4452,"1991":4453,"uit":4454,"Ġcustom":4455,"Ġrace":4456,"ĠScience":4457,"Ġsimulations":4458,"dered":4459,"Ġfalse":4460,"ĠMat":4461,"Ġcompleted":4462,"Ġradius":4463,"Ġdirected":4464,"sey":4465,"={":4466,"Ġstra":4467,"Ġopened":4468,"Ġtravel":4469,"Ġrecorded":4470,"ĠWashington":4471,"Ġestimated":4472,"pers":4473,"ĠAcadem":4474,"Ġoffice":4475,"ĠFurther":4476,"SC":4477,")/":4478,"Ġid":4479,"Ġbehind":4480,"ancial":4481,"Ġrepresented":4482,"ĠInter":4483,"Ġamplit":4484,"ĠCompany":4485,"ĠNor":4486,"ĠAustralian":4487,"Not":4488,"ĠMusic":4489,"forall":4490,"Ġconsists":4491,"Now":4492,"Ġ+\\":4493,"Here":4494,"Ġneeds":4495,"unt":4496,"ptions":4497,"String":4498,"Ġevidence":4499,"Ġmother":4500,"Ġever":4501,"Ġop":4502,"Ġnodes":4503,"Ġhol":4504,"__":4505,"Is":4506,"Ġsimpl":4507,"Ġvertices":4508,"Ġvolume":4509,"\"/>":4510,"Ġthings":4511,"Ġexamples":4512,"}$-":4513,"ĠSing":4514,"Ġpanel":4515,"Ġinside":4516,"ilies":4517,"asks":4518,"Ġsil":4519,"ĠGra":4520,"72":4521,"Our":4522,"Ġfire":4523,"Ġapplications":4524,"gn":4525,"ĠMary":4526,"Ġplane":4527,"Ġchoose":4528,"Ġwhy":4529,"Ġcurrently":4530,"Ġensure":4531,"ĠRef":4532,"Ġnature":4533,"ollowing":4534,"burg":4535,"Ġfully":4536,"ĠSociety":4537,"Ġprocesses":4538,"hand":4539,"iverse":4540,"ala":4541,"Ġfactors":4542,"arp":4543,"ĠPress":4544,"Ġdaugh":4545,"overed":4546,"resents":4547,"Ġlot":4548,"ĠNews":4549,"Ġgenerally":4550,"estival":4551,"84":4552,"LO":4553,"Ġtax":4554,"Ġformation":4555,"ĠDire":4556,"Ġbrother":4557,")^{-":4558,"vis":4559,"Ġsongs":4560,"MA":4561,"ympt":4562,"aran":4563,"Ġconsistent":4564,"Ġeasily":4565,"}^*":4566,"ensus":4567,"Ġdetection":4568,"Ġexperimental":4569,"Ġfood":4570,"Ġfall":4571,"ĠJack":4572,"Ð°":4573,"){\\":4574,"Ġcontact":4575,"59":4576,"SO":4577,"Ġrunning":4578,"Ġinequality":4579,"Ġindustry":4580,"=#":4581,"translation":4582,"Ġforward":4583,"Ġcampaign":4584,"Ġimm":4585,"Ġslow":4586,"Ġrule":4587,"Eq":4588,"ospital":4589,"Ġcluster":4590,"ayer":4591,"SI":4592,"ĠMoreover":4593,"Ġsomething":4594,"Ġactually":4595,"Ġliving":4596,"63":4597,"asket":4598,"Ġproducts":4599,"roy":4600,"va":4601,"ĠMex":4602,"Ġattention":4603,"ĠLeg":4604,"ĠSystem":4605,"Ġboard":4606,"deg":4607,"However":4608,"ĠInt":4609,"ĠBest":4610,"mes":4611,"ĠTex":4612,"bour":4613,"reshold":4614,"Ġchurch":4615,"Ġneighbor":4616,"ĠCap":4617,"Ġhimself":4618,"Ġaccom":4619,"rief":4620,"Ġplatform":4621,"Ġconstit":4622,"Ġblue":4623,"Ġstarting":4624,"Sim":4625,"Ġcorresponds":4626,"apping":4627,"Ġdebut":4628,"Ġappears":4629,"Ġplaying":4630,"Ġtrain":4631,"then":4632,"iency":4633,"ĠVol":4634,"ĠHow":4635,"sto":4636,"km":4637,"nov":4638,"Ġveh":4639,"cases":4640,"ĠWork":4641,"iral":4642,"Ġtro":4643,"FF":4644,"Ġassumption":4645,"main":4646,"ĠSupp":4647,"Ġsymbol":4648,"oice":4649,"ĠArch":4650,"~$\\":4651,"ĠHen":4652,"Ġinteresting":4653,"Ġmicro":4654,"Ġforms":4655,"Qu":4656,"omin":4657,"Ġball":4658,"Ġtrac":4659,"Ġcompute":4660,"Ġcontrast":4661,"arter":4662,"gent":4663,"ĠSub":4664,"Ġmaintain":4665,"ymm":4666,"Ġpractice":4667,"Ġpressure":4668,"Ġthought":4669,"Ġarticle":4670,"itter":4671,"Ġslight":4672,"oo":4673,"Ġ()":4674,"cles":4675,"ĠChampionship":4676,"ĠTrans":4677,"Ġoperation":4678,"shift":4679,"Ġshape":4680,"Ġforces":4681,"Ġedges":4682,":\\":4683,"Ġrisk":4684,"Figure":4685,"Ġappeared":4686,"osing":4687,"Ġdetermine":4688,"Ġmeasurements":4689,"Ġincreased":4690,"^{+":4691,"Ġsignificantly":4692,"ĠYear":4693,"Ġdual":4694,"ĠDay":4695,"ether":4696,"Ġtoday":4697,"Ġdescribe":4698,"alg":4699,"Ġcoefficients":4700,"come":4701,"Pr":4702,"Ġ=>":4703,"itar":4704,"list":4705,"ĠGold":4706,"}%":4707,"Ġeasy":4708,"Ġrequires":4709,"bon":4710,"ĠIsland":4711,"\\|_{":4712,"Ġfraction":4713,"Ġcalculated":4714,"Ðµ":4715,"selves":4716,"umni":4717,"More":4718,"ĠAlex":4719,"Ġ!":4720,"ĠNow":4721,"Ġpersonal":4722,"PT":4723,"Par":4724,"ĠSam":4725,"Ġtreatment":4726,"Ġearlier":4727,"ĠMet":4728,"Ġdam":4729,"Ġprocedure":4730,"path":4731,"Ġlattice":4732,"Ġsimulation":4733,"Ġrock":4734,"pmatrix":4735,"Ġcast":4736,"ĠSpec":4737,"ĠAfrica":4738,"uls":4739,"ĠRad":4740,"aker":4741,"war":4742,"Ġwife":4743,"ĠAngel":4744,"ĠJer":4745,"ria":4746,"fered":4747,"=-":4748,"PC":4749,"ĠAut":4750,"ano":4751,"Ġrepresents":4752,"Ġconcern":4753,"ĠSome":4754,"Ob":4755,"Ġter":4756,"82":4757,"Ġtechnology":4758,"Ġexpand":4759,"Ġgave":4760,"ĠBook":4761,"Ġidentity":4762,"dr":4763,"ĠProv":4764,"Ġstrategy":4765,"rey":4766,"rees":4767,"Ġsigned":4768,"Ġhot":4769,"ĠMag":4770,"Ġconstraints":4771,"Ġhighest":4772,"ĠWhite":4773,"ita":4774,"Ġsurv":4775,"elt":4776,"83":4777,"arc":4778,"ĠCong":4779,"$(":4780,"Ġrecently":4781,"Ġessential":4782,"1989":4783,"Ġcontroll":4784,"Set":4785,"ye":4786,"ĠTur":4787,"roid":4788,"Ġliterature":4789,"pc":4790,"tik":4791,"ĠMiss":4792,")\\\\":4793,"62":4794,"oke":4795,"ras":4796,"Ġrights":4797,"Ġcoach":4798,"OT":4799,"yp":4800,"}}^":4801,"Ġrates":4802,"Ġhous":4803,"Ġdistributions":4804,"amily":4805,"$$\\":4806,"Ġsampl":4807,"za":4808,"Ġconsum":4809,"ĠĠĠĠĠĠĠĠĠĠ":4810,"eler":4811,"Ġinj":4812,"Ġleaders":4813,"Ġuseful":4814,"FL":4815,"74":4816,"ĠOther":4817,"$).":4818,"61":4819,"Ġvariety":4820,"Ġcorrelation":4821,"ĠWil":4822,"81":4823,"Ġcountries":4824,"ogene":4825,"Ġchalleng":4826,"vex":4827,"Ġones":4828,"Ġlack":4829,"Ġdenotes":4830,"Ġcollect":4831,"Ġspaces":4832,"ĠSl":4833,"Ġclassification":4834,"perp":4835,"reme":4836,")}{\\":4837,"ĠDemoc":4838,"hors":4839,"pose":4840,"Ġwide":4841,"stack":4842,"lease":4843,".~(\\":4844,"body":4845,"Ġresolution":4846,"ĠClub":4847,"ĠBur":4848,"ĠHealth":4849,"Ġquick":4850,"ĠRussian":4851,"Ġapproximately":4852,"ĠOff":4853,"73":4854,"ĠTechn":4855,"ĠClass":4856,"test":4857,"ĠCanadian":4858,"itable":4859,"ĠMac":4860,"ernel":4861,"Ġrelationship":4862,"Ġalgorithms":4863,"){":4864,"Ġsteps":4865,"simeq":4866,"ĠGames":4867,"Ġproduce":4868,"ĠCentral":4869,"ĠMer":4870,"win":4871,"Ġschools":4872,"Ġstated":4873,"What":4874,"ĠMad":4875,"zero":4876,"ĠTown":4877,"Ġreplaced":4878,"sol":4879,"remark":4880,"Ġfun":4881,"Ġscalar":4882,"FA":4883,"newcommand":4884,"idents":4885,"Ġshift":4886,"Ġstatic":4887,"ado":4888,"Ġcurves":4889,"Ġcore":4890,"stant":4891,"Ġchem":4892,"requ":4893,"Ġjud":4894,"ĠDan":4895,"Ġdisplay":4896,"Ġincreases":4897,"vention":4898,"Ġcourt":4899,"ĠSal":4900,"Ġagreement":4901,"Ġscatter":4902,"ilib":4903,"ĠJust":4904,"Ġdate":4905,"liament":4906,"Ġpage":4907,"param":4908,"1988":4909,"Ġapproaches":4910,"ogle":4911,"ĠThomas":4912,"Ġsquare":4913,"ĠFound":4914,"##":4915,"ession":4916,"Ġmonth":4917,"Ġmemory":4918,"FC":4919,"Ġant":4920,"Ġbirth":4921,"Ġmeaning":4922,"ĠRobert":4923,"ouri":4924,"iew":4925,"Ġrelevant":4926,"Ġmoney":4927,"Ġfeed":4928,"ĠKe":4929,"Ġexistence":4930,"olf":4931,"ĠJew":4932,"Ġidentified":4933,"Ġtour":4934,"file":4935,"Ġfast":4936,"oding":4937,"1960":4938,"79":4939,"rish":4940,"riz":4941,"isher":4942,"Data":4943,"ĠAfrican":4944,"69":4945,"neg":4946,"ducation":4947,"Ġanti":4948,"Ġcategory":4949,"ĠKingdom":4950,"ĠGreat":4951,"Ġremaining":4952,"Ġavoid":4953,"Ġmar":4954,"ĠTexas":4955,"Ġselect":4956,"AG":4957,"Ġstream":4958,"ishes":4959,"Ġtell":4960,"Ġconserv":4961,"}}^{":4962,"Ġdepends":4963,"Ġquite":4964,"Ġshare":4965,"ĠMichael":4966,"State":4967,"tikz":4968,"Ġelectric":4969,"Ġconsid":4970,"Ġcam":4971,"Ġfriend":4972,"})$.":4973,"Ne":4974,"DF":4975,"multi":4976,"Ġintroduce":4977,"Ġbur":4978,"Ġmole":4979,"ĠFin":4980,"emic":4981,"71":4982,"Ġimprove":4983,"ĠMuseum":4984,"ĠGrand":4985,"produ":4986,"ager":4987,"Ġruns":4988,"Ġhighly":4989,"west":4990,"ĠJapanese":4991,"Ġfill":4992,"ĠScott":4993,"ought":4994,"flow":4995,"hom":4996,"Ġdescription":4997,"Ġexactly":4998,"Ġlisted":4999,"ĠIm":5000,"Ġstaff":5001,"vement":5002,"ĠChinese":5003,"Ġangle":5004,"Ġcharacters":5005,"Ġreveal":5006,"ĠGod":5007,"rial":5008,"airs":5009,"Ġpolice":5010,"ĠCarol":5011,"yr":5012,"Ġprofile":5013,"$^{-":5014,"Ġconcent":5015,"Ġwest":5016,"ira":5017,"arr":5018,"Theorem":5019,"Ġ=\\":5020,"bin":5021,"eria":5022,"Ġquas":5023,"Ġtensor":5024,"Ġsaw":5025,"Ġseven":5026,"Pol":5027,"Ġoccup":5028,"index":5029,"Ġrules":5030,"Ġhours":5031,"ĠCath":5032,"Ġeight":5033,"ĠTom":5034,"Ġexcept":5035,"bullet":5036,"ifically":5037,"embly":5038,"Ġvisual":5039,"300":5040,"Ġargument":5041,"Ġcounter":5042,"Ġsex":5043,"Ġplaces":5044,"ĠWhat":5045,"asketball":5046,"picture":5047,"Ġsolid":5048,"SU":5049,"aur":5050,"1987":5051,"Ġcircle":5052,"ĠAcademy":5053,"Me":5054,"iance":5055,"kin":5056,"Ġgovern":5057,"Ġmus":5058,"Ġframe":5059,"Ġsituation":5060,"Ġbooks":5061,"composition":5062,"abilities":5063,"arks":5064,"ictor":5065,"mann":5066,"Ġeast":5067,"Ġbring":5068,"Ġsecurity":5069,"Ġult":5070,"Ġincor":5071,"à¤":5072,"Ġmix":5073,"Ġmanagement":5074,"uations":5075,"Ġjoint":5076,"mission":5077,"ĠWestern":5078,"overy":5079,"Ġmentioned":5080,"First":5081,"Ġspatial":5082,"En":5083,"ĠĠĠĠĠĠĠĠĠĠĠĠ":5084,"sequence":5085,"Ġwriting":5086,"Ġcred":5087,"ressed":5088,"Ġdomin":5089,"Ġstatement":5090,"do":5091,"ĠSecond":5092,"rium":5093,"SM":5094,"VID":5095,"Ġinvariant":5096,"cons":5097,"Ġestimates":5098,"mapsto":5099,"Ġjournal":5100,"No":5101,"Ġexam":5102,"Ġselection":5103,"Ġscient":5104,"oto":5105,"Ġcomputed":5106,"Ġexisting":5107,"ĠCa":5108,"azine":5109,"Ġinstit":5110,")$-":5111,"Ġfight":5112,"ĠSuper":5113,"ading":5114,"seud":5115,"ĠVirgin":5116,"inder":5117,"hu":5118,"ĠOut":5119,"Ġdise":5120,"Ġsingular":5121,"inv":5122,"Ð¸":5123,"Ġsymmetric":5124,"ĠDel":5125,"Thus":5126,"pid":5127,"Ġepisode":5128,"Or":5129,"version":5130,"Ġpen":5131,"ĠAccording":5132,"NR":5133,"length":5134,"Ġparticularly":5135,"Ġextract":5136,"Ġmodes":5137,"Ġtechniques":5138,"Ġbul":5139,"ĠPet":5140,"ĠRob":5141,"string":5142,"Ġreached":5143,"ĠRail":5144,"\\_":5145,"ĠHistor":5146,"ĠKore":5147,"Ġconnection":5148,"Ġfounded":5149,"Ġplant":5150,"Ġdro":5151,"Ġdistinct":5152,"Ġ&=&":5153,"Ġpropag":5154,"arent":5155,"Ġhoriz":5156,"error":5157,"Ġstraight":5158,"1986":5159,"rought":5160,"Ġextension":5161,"Ġcontinue":5162,"Ġpaint":5163,"Ġtheore":5164,"ĠMo":5165,"ĠChristian":5166,"CT":5167,"Ġcry":5168,"Ġstable":5169,"Ġquad":5170,"Ġconstructed":5171,"....":5172,"Ġextra":5173,"ena":5174,"fess":5175,"Ġshowed":5176,"Ġsports":5177,"iring":5178,"Ġdependence":5179,"|_{":5180,"free":5181,"bi":5182,"Ġauthors":5183,"Ġbasic":5184,"Ġpairs":5185,"omorphic":5186,"unk":5187,"uting":5188,"Ġalbums":5189,"Ġeventually":5190,"ĠRecords":5191,"dim":5192,"Ġopportun":5193,"Ġreduce":5194,"Ġnoted":5195,"ĠAlthough":5196,"LP":5197,"Ġfamilies":5198,"ĠDon":5199,"uns":5200,"ĠMinister":5201,"Ġspectra":5202,"ĠFore":5203,"stra":5204,"ĠTor":5205,"displaystyle":5206,"Ġcontributions":5207,"oma":5208,"Ġattrib":5209,"Ġscience":5210,"odot":5211,"CH":5212,"ench":5213,"ĠLouis":5214,"Ġrepe":5215,"Ġvoid":5216,"Ġleague":5217,"Ġmatrices":5218,"BA":5219,"cel":5220,"Ġbr":5221,"dx":5222,"Ġ~":5223,"Ġdaughter":5224,"Ġheavy":5225,"eed":5226,"ĠMus":5227,"ĠLat":5228,"Ġeffic":5229,"ĠZeal":5230,"ĠFrancis":5231,"thlet":5232,"Ġinteractions":5233,"Ġbal":5234,"Fil":5235,"Ġapprop":5236,"Ġbeginning":5237,"ĠItalian":5238,"Ġtransl":5239,"check":5240,")_":5241,"but":5242,"column":5243,"tri":5244,"graph":5245,"reland":5246,"Ġthreshold":5247,"Ġefficient":5248,"Ġmissing":5249,"Ġwalk":5250,"Ġelected":5251,"Ġtraditional":5252,"road":5253,"LS":5254,"Ġasympt":5255,"Tr":5256,"Ġrequest":5257,"mercial":5258,"'(":5259,"Ġconvergence":5260,"Ġoppos":5261,"rons":5262,"1984":5263,"Further":5264,"ulate":5265,"ipl":5266,"ĠZealand":5267,"Ġ==":5268,"ĠGaussian":5269,"ĠOf":5270,"Ġvisit":5271,"Ġyields":5272,"Ġanim":5273,"BS":5274,"Co":5275,"Ġgeneration":5276,"Ġbit":5277,"But":5278,"edom":5279,"Ġrelig":5280,"ircraft":5281,"proposition":5282,"Ġanalog":5283,"\\\"":5284,"obile":5285,"Ġsoftware":5286,"Ġassumed":5287,"EM":5288,"ĠCharles":5289,"Ġcompletely":5290,"Ġformal":5291,"Ġplaced":5292,"prob":5293,"Ġcommand":5294,"Ġsoon":5295,"Ġcells":5296,"ĠLie":5297,"ĠDef":5298,"cape":5299,"rot":5300,"empor":5301,"cref":5302,"Ġdisk":5303,"http":5304,"1985":5305,"Eng":5306,"ĠSmith":5307,"ĠDu":5308,"ibly":5309,"_-":5310,"spect":5311,"So":5312,"enge":5313,"Ġinfluence":5314,"\\{\\":5315,"($":5316,"Ġbranch":5317,"matrix":5318,"Ġrelatively":5319,"ski":5320,"ĠFlor":5321,"ĠTw":5322,"$;":5323,"Ġobserve":5324,"Ġarbitrary":5325,"Ġgold":5326,"Ġappointed":5327,"ĠMont":5328,"Ġseem":5329,"Ġfile":5330,"amental":5331,"mas":5332,"Ġcombination":5333,"ga":5334,"Ġmorph":5335,"ĠSa":5336,"Ġkilled":5337,"Ġheight":5338,"Im":5339,"Ġgreater":5340,"Ġmeasures":5341,"ola":5342,"Ġfemale":5343,"Ġ$$":5344,"Ġbey":5345,"Ġcosm":5346,"Ġreconst":5347,"Ġplot":5348,"Ġpatients":5349,"pat":5350,"nowled":5351,"ĠDis":5352,"Ġpick":5353,"Ġnames":5354,"Ġvs":5355,"Ġfourth":5356,"Ġstellar":5357,"Ġorb":5358,"ĠCD":5359,"Ġunivers":5360,"force":5361,"Ġcapital":5362,"Ġbeyond":5363,"Ġarchitecture":5364,"amely":5365,"ugg":5366,"Ġhit":5367,"Ġseems":5368,"otion":5369,"Ġinner":5370,"Ġguitar":5371,"Ġcaused":5372,"inem":5373,"Ġpoly":5374,"Ġreading":5375,"Ġring":5376,"rich":5377,"etime":5378,"comple":5379,"Ġconfiguration":5380,"These":5381,"NA":5382,"esh":5383,"ĠUnder":5384,"Ġcloud":5385,"IG":5386,"uge":5387,"bel":5388,"Ġtold":5389,"Ġansw":5390,"anned":5391,"mc":5392,"apter":5393,"Ġoriginally":5394,"cho":5395,"ĠDen":5396,"ih":5397,"real":5398,"Ġchanged":5399,"Ġtrade":5400,"Ġactivity":5401,"ĠPublic":5402,"agraph":5403,"ĠMass":5404,"Ġbuildings":5405,"Ġgirl":5406,"Ġens":5407,"}&":5408,"ĠSummer":5409,"ĠJose":5410,"sect":5411,"Ġcompare":5412,"Ġabsor":5413,"Ġstations":5414,"Ġsen":5415,"Ġwor":5416,"Ġdiscussion":5417,"Ã¤":5418,"eds":5419,"values":5420,"Ġroom":5421,"kl":5422,"hemat":5423,"ĠAlso":5424,"arts":5425,"$~":5426,"Ġmeasurement":5427,")},":5428,"ilibrium":5429,"ĠBill":5430,"inger":5431,"pothes":5432,"Ġcomputation":5433,"isl":5434,"Ġgreen":5435,"RO":5436,"Ġtransformation":5437,"ĠCur":5438,"ĠSaint":5439,"ĠLu":5440,"Ġrecomm":5441,"Ġoptical":5442,"Ġbrief":5443,"Ġvirt":5444,"ĠFootball":5445,"Ġcivil":5446,"ĠHill":5447,"Ġcoming":5448,"Ġerrors":5449,"Hz":5450,"Ġcollabor":5451,"atre":5452,"ees":5453,"Ġagent":5454,"Ġthemselves":5455,"ĠRem":5456,"ĠHistory":5457,"astern":5458,"icago":5459,"weight":5460,"sur":5461,")+\\":5462,"Ġmanifold":5463,"ĠAnn":5464,"Ġpurch":5465,"ĠTwo":5466,"Ġinternal":5467,"ĠBen":5468,"ufact":5469,"istical":5470,"Ġcontaining":5471,"1983":5472,"'}":5473,"oder":5474,"ĠEqu":5475,"Supp":5476,"Ġcause":5477,"Ġfootballers":5478,"Ġtempor":5479,"Ġsaf":5480,"Ġability":5481,"Ġslightly":5482,"{{":5483,"hal":5484,"ĠLake":5485,"Ġprediction":5486,"Ġtalk":5487,"Ġproved":5488,"Ġfinancial":5489,"Man":5490,"ĠIsra":5491,"Ġsemi":5492,"istan":5493,"HE":5494,"Ġplays":5495,"elli":5496,"Ġreplace":5497,"Ġvac":5498,"Ġthick":5499,"Ġ;":5500,"Ġvectors":5501,"ĠGal":5502,"Ġwa":5503,"Ġalumni":5504,"ĠPeter":5505,"lig":5506,"Ġcele":5507,"Ġstrength":5508,"apers":5509,"ĠCommun":5510,"udes":5511,"anda":5512,"ĠInst":5513,"ĠIts":5514,"rane":5515,"Ġchampions":5516,"Ġartists":5517,"Ġcombined":5518,"Ġdu":5519,"Ġ...":5520,"})$,":5521,"Ġphen":5522,"UT":5523,"ifier":5524,")-\\":5525,"icity":5526,"Ġtrained":5527,"Ġfinally":5528,"MP":5529,"IV":5530,"oting":5531,"izer":5532,"ĠHamiltonian":5533,"ĠFrank":5534,"ĠHa":5535,"cular":5536,"Ġfinished":5537,"Ġaccur":5538,"Ġminutes":5539,"Ġinsp":5540,"Ġgenerate":5541,"Ġculture":5542,"}}$.":5543,"Ġnearly":5544,"Ġpure":5545,"zil":5546,"Ġregime":5547,"igan":5548,"Ġetc":5549,"Ġtourn":5550,"Ġorient":5551,"Ġcalc":5552,"zy":5553,"ĠOffic":5554,"ĠRichard":5555,"Ġlink":5556,"Ġprem":5557,"}{|":5558,"ĠLos":5559,"venue":5560,"Form":5561,"Ġdifferential":5562,"Ġidentify":5563,"vere":5564,"Ġtasks":5565,"Ġtor":5566,"}}$,":5567,"hbar":5568,"kes":5569,"Ġmanufact":5570,"Ġstay":5571,"ĠSeries":5572,"abil":5573,"Ġflat":5574,"Ġâ":5575,"Ġcard":5576,"Sub":5577,"ĠPan":5578,"orial":5579,"illa":5580,"cr":5581,"Ġwoman":5582,"ML":5583,"net":5584,")}_{":5585,"Ġcoordinates":5586,"Ġmovement":5587,"Ġtypically":5588,"Ġvary":5589,"Ġsatisfy":5590,"Ġsure":5591,"Ġbank":5592,"1982":5593,"Ġdecided":5594,"ĠRock":5595,"Ġways":5596,"}({\\":5597,"ĠLand":5598,"ĠMel":5599,"Ass":5600,"gu":5601,"idden":5602,"Ġinstrum":5603,"GB":5604,"ĠBrown":5605,"CS":5606,"Ġsurround":5607,"Ġbrought":5608,"Ġmiddle":5609,"chen":5610,"eks":5611,"ĠSta":5612,"IP":5613,"Def":5614,"Cons":5615,"ĠCommission":5616,"case":5617,"example":5618,"ĠService":5619,"Ġoptimization":5620,"scill":5621,"irit":5622,"Ġparallel":5623,"Ġmarg":5624,"Ġbottom":5625,"url":5626,"ĠĠĠĠĠĠĠĠĠĠĠĠĠĠĠĠĠĠĠĠĠĠĠ":5627,"ĠOlympics":5628,"ĠParis":5629,"udd":5630,"term":5631,"Ġoffer":5632,"ĠCamp":5633,"Ġinterval":5634,"Ġimmediately":5635,"Ġrecall":5636,"Ġperfect":5637,"viation":5638,"Ġship":5639,".$":5640,"lam":5641,"Ġseparate":5642,"))$":5643,"Ġgrant":5644,"Ġexpressed":5645,"TV":5646,"Ġnom":5647,"ĠOver":5648,"}{(":5649,"agement":5650,"ĠSpanish":5651,"Ġmedical":5652,"Ġminor":5653,"Ġprograms":5654,"elled":5655,"Ġmachine":5656,"Ġcru":5657,"Ġsometimes":5658,"Ġprogress":5659,"height":5660,"Ġmunic":5661,"You":5662,"ĠGr":5663,"link":5664,"cong":5665,"Ġsegment":5666,"Ġcompetition":5667,"CP":5668,"Ġcapacity":5669,"Ġdifferences":5670,"Ġachieved":5671,"Ġunion":5672,"Ġobservation":5673,"Ġpain":5674,"Ġcandidate":5675,"Ġbinary":5676,"Ġspread":5677,"ella":5678,"velopment":5679,"ban":5680,"aily":5681,"omy":5682,"Ġreson":5683,"ĠWomen":5684,"Ġactivities":5685,"Ġotherwise":5686,"ko":5687,"Ġgradient":5688,"ĠIreland":5689,"ipage":5690,"Ġcomment":5691,"Ġaspect":5692,"ader":5693,"ĠHig":5694,"atus":5695,"Ġmoving":5696,"ĠBre":5697,"ette":5698,"minipage":5699,"Ġideal":5700,"blue":5701,"Ġcycle":5702,"ĠCatholic":5703,"1950":5704,"mma":5705,"Ġachieve":5706,"ĠOpen":5707,"Ġnotation":5708,"ĠEach":5709,"DA":5710,"1979":5711,"ĠPenn":5712,":}":5713,"undle":5714,"Ġvoc":5715,"Ã¨":5716,"********":5717,"ĠFilm":5718,"She":5719,"CE":5720,"Ġharm":5721,"uled":5722,"Ġmind":5723,"Ġinduced":5724,"Ġgalaxy":5725,"ĠAre":5726,"Ġscattering":5727,"Ġassess":5728,"Ġamb":5729,"onent":5730,"Ġdepth":5731,"Ġmasses":5732,"Ġtim":5733,"Ġthreat":5734,"Ġartist":5735,"Ġhydro":5736,"Ġleave":5737,"Ġstudent":5738,"Ġast":5739,"Ġmagnitude":5740,"ĠRussia":5741,"itation":5742,"Ġconfir":5743,"Ġutil":5744,"Ġcarried":5745,"Ġconclude":5746,"Ġdidn":5747,"Ġlooking":5748,"Ġstatus":5749,"otted":5750,"Ġbeam":5751,"ĠSun":5752,"}$)":5753,"ĠVictor":5754,"iant":5755,"Ġfarm":5756,"quare":5757,"ĠPri":5758,"Ġoscill":5759,"$),":5760,"Ġbehavi":5761,"Ġreduction":5762,"ulture":5763,"Ġorganization":5764,"Ġinstall":5765,"Ġclearly":5766,"Ġsn":5767,"Ġ$|\\":5768,"ancy":5769,"SR":5770,"Ġanc":5771,"Ġstrongly":5772,"Ġasked":5773,"Ste":5774,"rong":5775,"Ġabsol":5776,"ĠMost":5777,"Ġer":5778,"Ġlegal":5779,"400":5780,"Ġonto":5781,"Ġremained":5782,"Over":5783,"Ġgraphs":5784,"Comp":5785,"While":5786,"Ġlayers":5787,"Ġpark":5788,"aval":5789,"ĠVirginia":5790,"Ġdetailed":5791,"ĠFinally":5792,"Ġmajority":5793,"omic":5794,"Ġpurpose":5795,"Ġbad":5796,"Ġsch":5797,"hing":5798,"ogeneous":5799,"Ġprevent":5800,"Ġminimal":5801,"Fe":5802,"Ġleader":5803,"[(":5804,"ĠGovernment":5805,"Ġmut":5806,"Ġgrid":5807,"Therefore":5808,"vin":5809,"1981":5810,"mail":5811,"Ġcollege":5812,"ĠSpace":5813,"utch":5814,"Ġremain":5815,"Introduction":5816,"Ġbrand":5817,"Ġactions":5818,"Ġtypical":5819,")}}":5820,"Ġinteger":5821,"Ġsplit":5822,"Ġpositions":5823,"Ġshot":5824,"Ġquestions":5825,"print":5826,"ny":5827,"Ġcritic":5828,"Ġ\\!":5829,"ION":5830,"ĠPre":5831,")--":5832,"Ġindicates":5833,"ĠCommittee":5834,"Ġfix":5835,"lesssim":5836,"ags":5837,"ĠFlorida":5838,"rical":5839,"input":5840,"----------------":5841,"nel":5842,"ĠCongress":5843,"Ġfair":5844,"location":5845,"Ġhousehold":5846,"Ġincorpor":5847,"ĠCOVID":5848,"ĠFoundation":5849,"ĠPost":5850,"Ġgrand":5851,"annels":5852,"ocol":5853,"How":5854,"0000":5855,"ifferen":5856,"pton":5857,"icon":5858,"mass":5859,"Ġsites":5860,"gener":5861,"Ġindividuals":5862,"Ġinterview":5863,"Ġcorn":5864,"Class":5865,",\\\\":5866,"opic":5867,"ato":5868,"ĠIll":5869,"Ġpreserv":5870,"ĠAtl":5871,"ĠLy":5872,"Ð½":5873,"Ġmur":5874,"Ġdatasets":5875,"Ġcomputer":5876,"UR":5877,"DP":5878,"Ġhum":5879,"ĠStar":5880,"Ġlif":5881,"Ġorth":5882,"ĠForm":5883,"Ġtheoretical":5884,"iller":5885,"ĠChicago":5886,"Ġrapid":5887,"Ġprint":5888,"Ġhypothes":5889,"cccc":5890,"Ġdoing":5891,"Ġresources":5892,"Ġamplitude":5893,"MM":5894,"ÑĤ":5895,"related":5896,"$};":5897,"Ġcarry":5898,"Ġproport":5899,"Ġlum":5900,"ĠJan":5901,"bu":5902,"Ġwriter":5903,"Ġbelieve":5904,"Ġearn":5905,"ockey":5906,"ĠMil":5907,"Ġunknown":5908,"Ġdistributed":5909,"CL":5910,"local":5911,"Ġsynthe":5912,"Ġmainly":5913,"Ġodd":5914,"ĠLi":5915,"ishop":5916,"Ġsections":5917,"ĠGeorg":5918,"Ġheart":5919,"Ġgoes":5920,"tag":5921,"](":5922,"hbox":5923,"tfrac":5924,"Ġvar":5925,"Can":5926,"Ġcontained":5927,"sch":5928,"ech":5929,"Ġmostly":5930,"olk":5931,"ĠKn":5932,"Ġappropriate":5933,"ribution":5934,"Ġmedal":5935,"CA":5936,"ĠHy":5937,"itely":5938,"iable":5939,"Ġ{$":5940,"Ġprobably":5941,"orter":5942,"Ġexternal":5943,"faces":5944,"]}":5945,"lections":5946,"ĠHenry":5947,"MR":5948,"Ġgiving":5949,"TS":5950,"Ġener":5951,"Ġeconomic":5952,"Ġkernel":5953,"ady":5954,"Ġfeatured":5955,"Ġdemand":5956,"ĠAngeles":5957,"rc":5958,"ĠInc":5959,"ĠForce":5960,"\"><":5961,"Ġefficiency":5962,"&=&":5963,"ĠFurthermore":5964,"ns":5965,"Ġproviding":5966,"PP":5967,"Ġexcit":5968,"Ġunderstanding":5969,"ĠTime":5970,"1976":5971,"Ġcov":5972,"ĠMax":5973,"Ġdigital":5974,"Ġnucle":5975,"1978":5976,"((":5977,"Ġthermal":5978,"floor":5979,"osc":5980,"End":5981,"Ġprice":5982,"NS":5983,"ĠProgram":5984,"active":5985,"Ġgoals":5986,"ĠOh":5987,"Ġcomplexity":5988,"Ġoccurs":5989,"ĠBoard":5990,"contin":5991,"vest":5992,"ĠBi":5993,"Sch":5994,"]{\\":5995,"ĠIII":5996,"ĠMexico":5997,"ĠArts":5998,"Ġloop":5999,"ĠItaly":6000,"itivity":6001,"oration":6002,"Ġtraject":6003,"ĠVer":6004,"Ġgap":6005,"Ġaxis":6006,"ĠLin":6007,"Ġconsidering":6008,"Ġcalculations":6009,"Ġfunctional":6010,"Ġpartition":6011,"Ġweeks":6012,"Ġextrem":6013,"Ġindicate":6014,"Ġmis":6015,"oral":6016,"shire":6017,"^*$":6018,"idae":6019,"azz":6020,"cretary":6021,"ĠCast":6022,"house":6023,"Ġemp":6024,"Ġstrict":6025,"poses":6026,"while":6027,"ologies":6028,"1972":6029,"escription":6030,"Ġtesting":6031,"ĠSwed":6032,"hab":6033,"Ġpow":6034,"Ġalternative":6035,"Ġ[\\":6036,"Per":6037,"Reg":6038,"Ġpartial":6039,"Ġdevice":6040,"awa":6041,"Ġmessage":6042,"aching":6043,"\";":6044,"Finally":6045,"bt":6046,"men":6047,"ĠSil":6048,"Ġbounds":6049,"ĠEv":6050,"Ġfif":6051,"]$.":6052,"Ġfine":6053,"ĠBig":6054,"stream":6055,"people":6056,"aper":6057,"////":6058,"Ġsector":6059,"1977":6060,"Ġfundamental":6061,"GC":6062,"Ġpoor":6063,"ĠEducation":6064,"Ġevaluation":6065,"Table":6066,"Ġdecomposition":6067,"greg":6068,"ĠCam":6069,"yan":6070,"cript":6071,"1974":6072,"Ġteacher":6073,"Ġdrug":6074,"Ġreflect":6075,"1975":6076,"such":6077,"anger":6078,"oura":6079,"Ġaircraft":6080,"ror":6081,"Other":6082,"alysis":6083,"Ġhole":6084,"ĠSol":6085,"rupt":6086,"Ġsummer":6087,"supp":6088,"grad":6089,"Ġstop":6090,"Ġdimensions":6091,"iana":6092,"ĠUk":6093,"Ġreferred":6094,"ĠLife":6095,"ometric":6096,"Ġscored":6097,"icated":6098,"Ġphenomen":6099,"Ġawarded":6100,"Value":6101,"jo":6102,"Ġthing":6103,"|}":6104,"\\)":6105,"ĠEmp":6106,"Ġexponential":6107,"Ġrobust":6108,"Ġmassive":6109,"ora":6110,"Ġuncertainty":6111,"Ġcommunication":6112,"Ġheat":6113,"ĠFestival":6114,"atically":6115,"Ġmatches":6116,"Ġmeeting":6117,"-$":6118,"}\\,\\":6119,"Ġappearance":6120,"ĠOper":6121,"Ġcalculation":6122,"~~~~":6123,"];":6124,"Ġcop":6125,"aven":6126,"Ġguaran":6127,"Ġexchange":6128,"ĠLag":6129,"Ġfluct":6130,":=":6131,"ÑĢ":6132,"Ġdenoted":6133,"itiz":6134,"irect":6135,"coming":6136,"ao":6137,"Ġclusters":6138,"uan":6139,"Ġfavor":6140,"Ġspent":6141,"Ġresol":6142,"Ġconvex":6143,"avel":6144,"dfrac":6145,"yes":6146,"Ġopening":6147,"Ġweights":6148,"gies":6149,"Med":6150,"iano":6151,"Ġestimation":6152,"}}_{\\":6153,"ĠEngine":6154,"Ġgr":6155,"Ġrotation":6156,"Ġdead":6157,"Spec":6158,"Ġscales":6159,"Ġacadem":6160,"ellig":6161,"\\}$.":6162,"asion":6163,"Ġassert":6164,"IF":6165,"eness":6166,"Ġquickly":6167,"Ġdistingu":6168,"Ġcommercial":6169,"cf":6170,"orage":6171,"oviet":6172,"ali":6173,"ican":6174,"ĠPlay":6175,"Ġrev":6176,"ĠOl":6177,"]$,":6178,"ĠBank":6179,"ĠNetwork":6180,"joy":6181,"Ġbroadcast":6182,"cd":6183,"Ġbenef":6184,"Ġinitially":6185,"Ġcommunities":6186,"ĠHel":6187,"Ġcentre":6188,"Ġroot":6189,"IA":6190,"Ġdoesn":6191,"Ġphysics":6192,"ua":6193,"ĠUsing":6194,"Ġscenario":6195,"onical":6196,"ĠTour":6197,"iro":6198,"Ġwinning":6199,"$&":6200,"Ġimplementation":6201,"je":6202,"Ġlemma":6203,"ĠJac":6204,"ĠTer":6205,"roph":6206,"Ġquarter":6207,"Ġshowing":6208,"des":6209,"Ġproceed":6210,"mathop":6211,"iled":6212,"1000":6213,"Ġtrib":6214,"TR":6215,"Ġtechnique":6216,"Ġlies":6217,"Ġdiscrete":6218,"$:":6219,"ĠRel":6220,"ĠEarth":6221,"ĠMr":6222,"emble":6223,"Ġnuclear":6224,"Ġrise":6225,"ibli":6226,"Ġsatisfying":6227,"La":6228,"Ġmission":6229,"'re":6230,"brace":6231,"cs":6232,"Ġworth":6233,"ĠCE":6234,"ĠTimes":6235,"Äģ":6236,"perty":6237,",{\\":6238,"Ġsurvey":6239,"Ġtournament":6240,"itle":6241,"pg":6242,"Ġmixed":6243,"rows":6244,"ĠCarolina":6245,"maz":6246,"ifications":6247,"Equ":6248,"ĠUp":6249,"ternet":6250,"Ġstatistics":6251,"Ġ${":6252,"Mar":6253,"two":6254,"Ġpix":6255,"According":6256,"Ġfilter":6257,"Ġpolitician":6258,"Early":6259,"Ġwanted":6260,"Ġcat":6261,"Ġprojects":6262,"vee":6263,"unct":6264,"ĠSocial":6265,"Ġinfinite":6266,"Ġneural":6267,"Ġactual":6268,"150":6269,"Ġdisease":6270,"rror":6271,"Ã³n":6272,"1973":6273,"page":6274,"Ġcoefficient":6275,"ixt":6276,"Ġassign":6277,"Ġfoot":6278,"Ġsolve":6279,"...,":6280,"1968":6281,"ocation":6282,"Ġoffers":6283,"sis":6284,"ibr":6285,"areer":6286,"Ġdepending":6287,"icks":6288,"Ġpassed":6289,"algorithm":6290,"Ġremoved":6291,"hem":6292,"PA":6293,"ima":6294,"Ġneutr":6295,"etal":6296,"Ġscaling":6297,"ĠOld":6298,"Ġsinger":6299,"oat":6300,"system":6301,"cknowled":6302,"Ġspl":6303,"ension":6304,"Ġexc":6305,"))\\":6306,"SL":6307,"ĠBob":6308,"Ġwatch":6309,"ĠTheir":6310,"sych":6311,"Ġmaterials":6312,"aylor":6313,"``":6314,"Ġlimits":6315,"stitution":6316,"Ġsuff":6317,"\");":6318,"ĠScot":6319,"Ġlic":6320,"Ed":6321,"ĠMur":6322,"inding":6323,"aser":6324,"syl":6325,"Ġcool":6326,"ifies":6327,"Ġforest":6328,"lines":6329,"abase":6330,"Ġmultiplic":6331,"Using":6332,"Cor":6333,"Ġpseud":6334,",\\,\\":6335,"ĠMartin":6336,"Ġdivision":6337,"Next":6338,"ĠHaw":6339,"arse":6340,"wan":6341,"Ġchannels":6342,"Ġgetting":6343,"Ġarrang":6344,"Ġturned":6345,"Ab":6346,"ĠJournal":6347,"ĠBoth":6348,"CM":6349,"Ġangular":6350,"Ġoverl":6351,"Ġ\\(\\":6352,"ĠDirector":6353,"nb":6354,"ĠOrder":6355,"mage":6356,"Ġmetal":6357,"Ġwhereas":6358,"diag":6359,"Ġrepresentations":6360,"Ġinform":6361,"run":6362,"Ġdegrees":6363,"vered":6364,"Ġneighborhood":6365,"Ġsec":6366,"Ġacceler":6367,"ĠWal":6368,"Ġresponsible":6369,"ĠLine":6370,"John":6371,"Ġscene":6372,"ĠBet":6373,"|}{":6374,"Get":6375,"ĠSM":6376,"Ġdespite":6377,"Out":6378,"Ġlives":6379,"tikzpicture":6380,"anges":6381,"1971":6382,"ĠAwards":6383,"Ġmodule":6384,"}_{-":6385,"Ġfa":6386,"Ġgeometry":6387,"Ġwood":6388,"ĠLove":6389,"}[\\":6390,"Ġhttps":6391,"Time":6392,"otal":6393,"ĠJo":6394,"ĠLee":6395,"ĠJul":6396,"During":6397,"ads":6398,"adium":6399,"ĠPac":6400,"Ġago":6401,"inner":6402,"ja":6403,"Ġprojection":6404,"yset":6405,"vania":6406,"Ġren":6407,"undred":6408,"Ġfriends":6409,"Ġestablishments":6410,"Ġbasketball":6411,"Ġdiss":6412,"Ġ(\"":6413,"Ġdepict":6414,"ĠWood":6415,"law":6416,")})":6417,"fo":6418,"iders":6419,"forward":6420,"ĠMount":6421,"Ġobvious":6422,"Ġimag":6423,"uous":6424,"ifferent":6425,"Ġrough":6426,"ĠTop":6427,"ati":6428,"ĠAssum":6429,"post":6430,"ĠBas":6431,"Ġshared":6432,"onald":6433,"Ġprotect":6434,"}})":6435,"ef":6436,"bigl":6437,"ogue":6438,"joint":6439,"ING":6440,"ĉĉĉĉĉ":6441,"Ġoption":6442,"Ġion":6443,"Ġarray":6444,"ĠYoung":6445,"Ġentropy":6446,"rump":6447,"inst":6448,"Ġstudio":6449,"vart":6450,"tw":6451,"zer":6452,"enced":6453,"Ġvariation":6454,"osh":6455,"emptyset":6456,"break":6457,"Ġwindow":6458,"Ġmovie":6459,"sky":6460,"Ġevaluate":6461,",$":6462,"Ġsea":6463,"Ġattract":6464,"Ġsummar":6465,"Ġran":6466,"Ġprison":6467,"Ġpartners":6468,"Ġsampling":6469,"IL":6470,"brid":6471,"ĠLong":6472,"ĠBrazil":6473,"finition":6474,"ND":6475,"condition":6476,"Section":6477,"px":6478,"ugby":6479,"Ġcharacteristic":6480,"1969":6481,"Ġscreen":6482,"Ġconj":6483,"ĠOffice":6484,"Ġactor":6485,"Ġwriters":6486,"\\;":6487,"Ġbright":6488,"RA":6489,"chers":6490,"urt":6491,"Ġwall":6492,"ĠProfess":6493,"anguages":6494,"Ġlaunched":6495,"heta":6496,"she":6497,"Ġstories":6498,"Ġroute":6499,"Ġstability":6500,"PU":6501,"arriage":6502,"ĠArab":6503,"resh":6504,"bed":6505,"Ġimportance":6506,"ipality":6507,"enty":6508,"Ġupdate":6509,"Ġmanager":6510,"Ġplans":6511,"hol":6512,"itors":6513,"Ñģ":6514,"ĠNavy":6515,"char":6516,"120":6517,"Ġgets":6518,"herent":6519,"results":6520,"Ġsubt":6521,"$_{":6522,"background":6523,"HS":6524,"Ġusual":6525,"kins":6526,"Notes":6527,"Ġparents":6528,"allery":6529,"ĠStep":6530,"ĠData":6531,"bmatrix":6532,"bigr":6533,"jective":6534,"Ġcycl":6535,"Ġchemical":6536,"Ġdestroy":6537,"PE":6538,"Ġstore":6539,"Ġedition":6540,"ĠDou":6541,"ogen":6542,"public":6543,"Ġstress":6544,"ultural":6545,"Ġended":6546,"vature":6547,"Ġ\\]":6548,"Ġadvantage":6549,"Ġolder":6550,"=.":6551,"Ġfreedom":6552,"Ġserve":6553,"Ġborder":6554,"Ġcoordinate":6555,"Ġimproved":6556,"zz":6557,"clusions":6558,"ĠReview":6559,"ĠModel":6560,"Ġrecords":6561,"}}.":6562,"ĠSee":6563,"Ġadopted":6564,"Ġorbit":6565,"Ġsal":6566,"Ġsufficiently":6567,"Ġequilibrium":6568,"Ġimplic":6569,"Ġcalculate":6570,"Ġcopy":6571,"ĠChief":6572,"first":6573,"Ġcoast":6574,"Ġcomposition":6575,"Ġresist":6576,"English":6577,"Ġisomorphism":6578,"ĠTeam":6579,"Ġdimensional":6580,"ĠST":6581,"Ġprinciple":6582,"Ġshoot":6583,"GL":6584,"gr":6585,"Ġsubgroup":6586,"Ġphil":6587,"Ġpull":6588,"ova":6589,"ji":6590,"phant":6591,"Ġnamely":6592,"Ġriver":6593,"ĠChampionships":6594,"Ġstatistical":6595,"Ġisland":6596,"process":6597,"Ġapplying":6598,"cean":6599,"Ġnation":6600,"ĠPeople":6601,"nergy":6602,"ried":6603,"paragraph":6604,"Ġoptions":6605,"usband":6606,"Ġwhom":6607,"Ġnumerous":6608,"1967":6609,"ui":6610,"Ġcouple":6611,"ĠHot":6612,"Ġpredicted":6613,"pto":6614,"Ġgenus":6615,"Ġ^{":6616,"indu":6617,"ĠCre":6618,"OM":6619,"true":6620,"ipped":6621,"Bar":6622,"pace":6623,"ĠJoseph":6624,"ographic":6625,"Ġinterested":6626,"ansas":6627,"Aut":6628,"Ġobjective":6629,"itan":6630,"Ġsaying":6631,"ĠHon":6632,"language":6633,"Ġmotiv":6634,"Ġordered":6635,"ĠCarl":6636,"dy":6637,"Ġdust":6638,"Ġtrend":6639,"Ġfinding":6640,"Ġice":6641,"gar":6642,"ĠSec":6643,"Ġconducted":6644,"aver":6645,"Ġreceive":6646,"eff":6647,"Ġannual":6648,"Ġmodified":6649,"ystem":6650,"Ġ]":6651,"SD":6652,"Ġtal":6653,"\\|\\":6654,"Ġlocally":6655,"Ġsafety":6656,"soft":6657,"Ġelim":6658,"Ġcovered":6659,"bal":6660,"has":6661,"bas":6662,"Ġintegration":6663,"longrightarrow":6664,"Ġign":6665,"Ġintersection":6666,"columnwidth":6667,"ĠAppendix":6668,"aka":6669,"Ġfederal":6670,"claim":6671,"Ġactress":6672,"Ġexplained":6673,"disc":6674,"sylvania":6675,"fefe":6676,"Ġbecoming":6677,"Ġbattle":6678,"inet":6679,"tem":6680,"Ġentry":6681,"Results":6682,"Ġcelebr":6683,"ĠLiber":6684,"ricket":6685,"1940":6686,"Ġchief":6687,"PI":6688,"Ġremark":6689,"Ġworkers":6690,"poss":6691,"Ġdevices":6692,"Inter":6693,"ĠSk":6694,"Ġsurpr":6695,"bottom":6696,"orning":6697,"ĠRam":6698,"ĠBal":6699,"Ġinverse":6700,"ĠParliament":6701,"ĠJim":6702,"uum":6703,"Pre":6704,"Ġpiece":6705,"ĠValley":6706,"miss":6707,"ĠIrish":6708,"ĠSet":6709,"Ġcomposed":6710,"})}":6711,"multirow":6712,"ĠFre":6713,"stract":6714,"acter":6715,"haps":6716,"ochastic":6717,"ĠGre":6718,"ifts":6719,"Ġcm":6720,"Ġmaster":6721,"Ġmusical":6722,"Ġmapping":6723,"Ġque":6724,"Trans":6725,"ĠLibrary":6726,"har":6727,"Ġseasons":6728,"mond":6729,"ashion":6730,"Ġeth":6731,"pective":6732,"iling":6733,"Ġferm":6734,"ĠCross":6735,"1945":6736,"ĠGood":6737,"Ġplanet":6738,"Ġradiation":6739,"tan":6740,"ultane":6741,"Ġnothing":6742,"ĠNorthern":6743,"${\\":6744,"tained":6745,"rank":6746,"Ġsym":6747,"Ġenjoy":6748,"Test":6749,"current":6750,"icine":6751,"verted":6752,"][]{":6753,"po":6754,"ĠPlan":6755,"Ġisol":6756,"ĠColumb":6757,"Ser":6758,"slant":6759,"Ġnorthern":6760,"Ġsuggests":6761,"Ġsouthern":6762,"phas":6763,"Ġvocals":6764,"Ġvertical":6765,"Ġprep":6766,"arden":6767,"Ġfailed":6768,"1964":6769,"Ġconsequence":6770,"Ġindeed":6771,"Ġefforts":6772,"fram":6773,"ias":6774,"Ġ/**":6775,"notes":6776,"ĠWales":6777,"Ġcoinc":6778,"Ġking":6779,"Ġleaving":6780,"1930":6781,"idel":6782,"Ġenter":6783,"algebra":6784,"ĠElect":6785,"Ġembedding":6786,"vartheta":6787,"forms":6788,"Ġoil":6789,"Ð¾Ð":6790,"Ġforced":6791,"Am":6792,"Ġconv":6793,"Ġadding":6794,"ĠĠĠĠĠĠĠĠĠĠĠĠĠĠ":6795,"DS":6796,"Ġsuggested":6797,"Build":6798,"Ġevol":6799,"plate":6800,"ĠSpain":6801,"ĠCy":6802,"Ġdetected":6803,"Ġeditor":6804,"mosp":6805,"ĠTim":6806,"standing":6807,"}}}\\":6808,"asy":6809,"Ġgravit":6810,"DM":6811,"ĠSu":6812,"sequent":6813,"ĠSund":6814,"Ġcompl":6815,"Ġdesired":6816,"ounds":6817,"Ġrare":6818,"Lemma":6819,"host":6820,"iota":6821,"Ġunderlying":6822,"Ġluminos":6823,"Of":6824,"figures":6825,";\"":6826,"ding":6827,"Ġalone":6828,"RS":6829,"only":6830,"font":6831,"Ġclin":6832,"Ġassumptions":6833,"erc":6834,"})=":6835,"Ġpropose":6836,"stable":6837,"Ġmaximal":6838,"mediate":6839,"Ġbos":6840,"ĠBusiness":6841,"Ġbeaut":6842,"ibliography":6843,"aded":6844,"tiny":6845,"Ġextend":6846,"osis":6847,"ĠJun":6848,"Ġcomputational":6849,"Ġhar":6850,"pty":6851,"Ġacts":6852,"fil":6853,"Ġreports":6854,"1965":6855,"Rel":6856,"ĠSpr":6857,"lt":6858,"Ġclean":6859,"Ġhope":6860,"emporary":6861,"Åį":6862,"itative":6863,"ĠDevelopment":6864,"Ġorders":6865,"Ġorg":6866,"ilbert":6867,"ĠTest":6868,"ĠJud":6869,")}_":6870,"bras":6871,"Ġconfirmed":6872,"Ġwidely":6873,"ĠGovern":6874,"oston":6875,"Ġtool":6876,"Ġincome":6877,"iem":6878,"pack":6879,"Ġsenior":6880,"aters":6881,"ĠLo":6882,"Ġprocessing":6883,"Ġbias":6884,"Ġleaves":6885,"ATE":6886,"Ġinvestigate":6887,"Ġtrees":6888,"Ġnonlinear":6889,"hang":6890,"vector":6891,"room":6892,"ĠRet":6893,"bot":6894,"ĠHistoric":6895,"ameters":6896,"Ġiniti":6897,"ĠWind":6898,"Proof":6899,"Ġconven":6900,"sen":6901,"Ġsolar":6902,"\\}$,":6903,"ensities":6904,"Ġdiagonal":6905,"Ġtools":6906,"Ġallowing":6907,"Ġpredictions":6908,"product":6909,"Ġbin":6910,"ilation":6911,"}$}":6912,"Ġweb":6913,"ĠSoviet":6914,"Ġblood":6915,"atures":6916,"Ġattended":6917,"inations":6918,"ampion":6919,"ĠSpe":6920,"++":6921,"Rep":6922,"Ġdescribes":6923,"iy":6924,"ĠString":6925,"amm":6926,"Äĩ":6927,"Ġdynamic":6928,"Ġgrowing":6929,"Ġpicture":6930,"Ġassigned":6931,"Ġraised":6932,"Ġaccurate":6933,"Object":6934,"Ġdeliver":6935,"scriptsize":6936,"rative":6937,"Exception":6938,"}}^{\\":6939,"Ġvoice":6940,"ĠMem":6941,";\\;\\":6942,"lementary":6943,"Ġtrying":6944,"ĠAssembly":6945,"Ġ\\&":6946,"Back":6947,"uning":6948,"Ġfirm":6949,"Ġlocations":6950,"ĠPak":6951,"Comm":6952,"ĠProvince":6953,"Ġnewsp":6954,"ĠAv":6955,"sued":6956,"usal":6957,"Ġsuitable":6958,"sat":6959,"Ġtechnical":6960,"Ġanswer":6961,"cisely":6962,"Ġsociety":6963,"Ġproducer":6964,"unch":6965,"Ġdelay":6966,"ighter":6967,"ĠIndeed":6968,"Ġrailway":6969,"Ġvote":6970,"integ":6971,"Ġrevealed":6972,"Ġdiscovered":6973,"lets":6974,"Ġclaimed":6975,"Ġhistorical":6976,"Ġforeign":6977,"Ġcomputing":6978,"ynamic":6979,"Key":6980,"ĠEconom":6981,"1966":6982,"ĠUSA":6983,"xx":6984,"EL":6985,"Ġlived":6986,"Ġderivative":6987,"Ġ$.":6988,"ĠPennsylvania":6989,"Ġattacks":6990,"Ġenh":6991,"ĠJones":6992,"Ġmodul":6993,"Art":6994,"ĠEmpire":6995,"Ġtend":6996,"Ġdivided":6997,"ĠField":6998,"Ġdrive":6999,"going":7000,"pected":7001,"Ġspeak":7002,"ĠProject":7003,"Ġtraffic":7004,"Ġbands":7005,"ĠFort":7006,"Ġcommission":7007,"1920":7008,"ĠGreek":7009,"fined":7010,"word":7011,"Ġofficer":7012,"Ġtests":7013,"gebras":7014,"Ġreserv":7015,"ĠMen":7016,"arrier":7017,"ĠYour":7018,"Ġserious":7019,"Ġnine":7020,"isters":7021,"Ġhelped":7022,"Ġreasons":7023,"Ġtracks":7024,"ĠFred":7025,"ĠBattle":7026,"fold":7027,"Ġ}{":7028,"OC":7029,"Ġtail":7030,"^{*":7031,"ĠIran":7032,"track":7033,"Ġhusband":7034,"Ġnarrow":7035,"mitted":7036,"init":7037,"Ġterrit":7038,"Ġtrivial":7039,"SF":7040,"Ġabund":7041,")--(":7042,"ĠTechnology":7043,"&=\\":7044,"scriptstyle":7045,"after":7046,"OP":7047,"ĠMov":7048,"structure":7049,"connect":7050,"yer":7051,"Ġcandidates":7052,"Ġarrest":7053,"ĠEr":7054,"Ġapparent":7055,"Ġdepartment":7056,"Ġasymptotic":7057,"ĠCentre":7058,"Ġenergies":7059,"Ġeffort":7060,"ĠAsia":7061,"Ã§":7062,"igation":7063,"Ġ^":7064,"irus":7065,"Part":7066,"Ġagents":7067,"Ġcosts":7068,"ups":7069,"Box":7070,"ersonal":7071,"Ġblocks":7072,"ĠConference":7073,"Ġcapture":7074,"erior":7075,"ped":7076,"Ġformat":7077,"Ġtru":7078,"uty":7079,"Ġmarked":7080,"Ġbus":7081,"Ġorganizations":7082,"Ġroll":7083,"ĠMichigan":7084,"Ġlearned":7085,"ĠHor":7086,"ulty":7087,"Ġsequences":7088,"Ġcontrad":7089,"Ġdispers":7090,"Ġmedium":7091,"ĠWay":7092,"Ġtheories":7093,"ĠIsrael":7094,"Ġitems":7095,"ĠSir":7096,"ĠEnd":7097,"ĠFC":7098,"ĠPhys":7099,"ĠTre":7100,"Ġoffered":7101,"Ġ///":7102,"Ġpatterns":7103,"ears":7104,"Ġcounty":7105,"View":7106,"Ġmaxim":7107,"Ġexplore":7108,"Ġoperating":7109,"Ġtrust":7110,"ĠGen":7111,"textcolor":7112,"Ġtrial":7113,"ĠMany":7114,"Hence":7115,"})^":7116,"Ġconstants":7117,"Ġinterface":7118,"pass":7119,"Ġdiver":7120,"Career":7121,"uler":7122,"Ġrequirements":7123,"Ġjoin":7124,"Ġowned":7125,"ĠShow":7126,"teen":7127,"Ġmountain":7128,"Xi":7129,"ontal":7130,"ourier":7131,"stain":7132,"Ġconflic":7133,"Ġdefault":7134,"ĠDet":7135,"elihood":7136,"ĠHome":7137,"});":7138,"core":7139,"Ġcollected":7140,"\\}\\":7141,"dem":7142,"trivial":7143,"urban":7144,"Ġderive":7145,"Ġpromin":7146,"Ġexplicitly":7147,"Ġclimate":7148,"DB":7149,"/(":7150,"Ġmorphism":7151,"Ġpropos":7152,"Ġlabels":7153,"ĠJohnson":7154,"uer":7155,"ĠSuch":7156,"Ġtouch":7157,"ĠBecause":7158,"Ġsides":7159,"Ġthr":7160,"Ġexception":7161,"ĠRadio":7162,"}|\\":7163,"ibration":7164,"module":7165,"[-":7166,"));":7167,"white":7168,":=\\":7169,"called":7170,".;":7171,"DC":7172,"ĠRa":7173,"Ġhundred":7174,"Ġcurvature":7175,"^{(\\":7176,"Ġpowerful":7177,"ĠMajor":7178,"Ġequip":7179,"Ġgeneralized":7180,"Ġhospital":7181,"Ġphoton":7182,"num":7183,"ĠChild":7184,"ronic":7185,"count":7186,"ĠPhilipp":7187,"ĠTri":7188,"onder":7189,"notag":7190,"eller":7191,"Ġparties":7192,"Ġnotice":7193,"rect":7194,"Ġvariance":7195,"bury":7196,"aya":7197,"epend":7198,"TE":7199,"Text":7200,"Ġletter":7201,"Ġcensus":7202,"airman":7203,"anging":7204,"formal":7205,"Ġmagazine":7206,"osoph":7207,"}\\|":7208,"Ġmathemat":7209,"vari":7210,"Ġ$,":7211,"Bi":7212,"Ġacting":7213,"ĠBern":7214,"SA":7215,"ĠSar":7216,"ĠSouthern":7217,"dec":7218,"agnetic":7219,"build":7220,"ested":7221,"Ġlab":7222,"Ġcomplic":7223,"mathit":7224,"Ġlanguages":7225,"Ġcommonly":7226,"Ġsomeone":7227,"block":7228,"Ġimplemented":7229,"bell":7230,"Ġfamous":7231,"dependent":7232,"Ġresear":7233,"Ġcitiz":7234,"Ġbulk":7235,"ĠLord":7236,"Ġemphas":7237,"Ġregist":7238,"ĠBa":7239,"ropic":7240,"ĠBow":7241,"Ġ?":7242,"ĠAnt":7243,"fs":7244,"strong":7245,"Ġdefeated":7246,"subsec":7247,"inois":7248,"ĠPacific":7249,"Ġmedian":7250,"ela":7251,"fully":7252,"Ġtruth":7253,"Ġstruct":7254,"Ġpil":7255,"Ġemployed":7256,"Ġquark":7257,"Ġvehicle":7258,"Ġcharged":7259,"opes":7260,"========":7261,"Ġapart":7262,"Ġcities":7263,"Ġtopological":7264,"---":7265,"Ġsched":7266,"'m":7267,"Rec":7268,"wer":7269,"ancing":7270,"ĠCamb":7271,"ila":7272,"Ġentered":7273,"oz":7274,"ĠDemocratic":7275,"Ġnearby":7276,"aming":7277,"odies":7278,"js":7279,"Ġdrama":7280,"ĠOhio":7281,"ĠBor":7282,"Ġ({\\":7283,"Ġlie":7284,"raine":7285,"UN":7286,"Ġpolic":7287,"Ġdescent":7288,"actic":7289,"Ġcategories":7290,"step":7291,"Films":7292,"Ġregarding":7293,"ĠDec":7294,"result":7295,"Ġinvolving":7296,"}~":7297,"ĠEll":7298,"Ġdrum":7299,"ĉĉĊ":7300,"aa":7301,"Ġprecisely":7302,"LA":7303,"Ġsatisfied":7304,"ĠCivil":7305,"Given":7306,"1963":7307,"sign":7308,"Ġarmy":7309,"oir":7310,"Ġvictory":7311,"Ġsecondary":7312,"Ġrespond":7313,"OD":7314,"Ġturns":7315,"ptic":7316,"ĠSom":7317,"ĠJersey":7318,"Ġradial":7319,"Ġdrop":7320,"+(":7321,"ĠTrump":7322,"ĠBlue":7323,"acent":7324,"burgh":7325,"medskip":7326,"gers":7327,"ĠGame":7328,"urations":7329,"ĠBu":7330,"Ġsimultane":7331,"Ġabsolute":7332,"Ġaffected":7333,"parison":7334,"mathtt":7335,"Des":7336,"Ġbehaviour":7337,"ennis":7338,"Ġsignals":7339,"Ġadjust":7340,"Ġprincipal":7341,"Ġanything":7342,"Ġcancer":7343,"Ġthous":7344,"}}=":7345,"Ġmill":7346,"El":7347,"Ġseat":7348,"Ġprime":7349,"Ġrelax":7350,"Model":7351,"Ġhypothesis":7352,"gypt":7353,"Ġsubstant":7354,"hl":7355,"ĠBul":7356,"Ġintensity":7357,"xford":7358,"Ġgravity":7359,"Ġtransmission":7360,"Ġeverything":7361,"Ġcanonical":7362,"iler":7363,"weet":7364,"rance":7365,"}{*":7366,"defined":7367,"stone":7368,"ĠPrem":7369,"Ġorganized":7370,"110":7371,"Ġwild":7372,"Ġjet":7373,"user":7374,"ĠAsian":7375,"Ġconvent":7376,"Ext":7377,"ador":7378,"ussion":7379,"1962":7380,"aug":7381,"Ġtranslation":7382,"ĠSand":7383,"Ġchallenge":7384,"CR":7385,"Tra":7386,"ĠBase":7387,"adel":7388,"ĠStand":7389,"sets":7390,"etts":7391,"ĠTem":7392,"Ġshell":7393,"ervised":7394,"Ġdynamical":7395,"Ġtoward":7396,"Ġexplo":7397,"ĠMountain":7398,"Ġoperated":7399,"ĠAtt":7400,"ĠJewish":7401,"iveness":7402,"mn":7403,"imb":7404,"flu":7405,"water":7406,"slash":7407,"Ġuniversity":7408,"ĠSong":7409,"tes":7410,"udget":7411,"Ġpossibility":7412,"cut":7413,"Ġapproximate":7414,"axis":7415,"ĠMcC":7416,"Ġthin":7417,"Ġfelt":7418,"hens":7419,"Ġmixing":7420,"periment":7421,"Ġredshift":7422,"open":7423,"fi":7424,"Ġvirtual":7425,"Ġperforming":7426,"Ġreligious":7427,"uster":7428,"ĠRegister":7429,"Ġsimplic":7430,"ĠGeorgia":7431,"ĠBritain":7432,"Ġtemperatures":7433,"ĠWilliams":7434,"car":7435,"ctic":7436,"ĠAcc":7437,"Ġmanner":7438,"Ġopposite":7439,"Ġatmosp":7440,"Ġstochastic":7441,"Ġkept":7442,"rosc":7443,"Ġquantities":7444,"summary":7445,"reduc":7446,"Ġsingles":7447,"ĠRos":7448,"etries":7449,"Ġstarts":7450,"ĠEnter":7451,"Pop":7452,"BM":7453,"onto":7454,"oday":7455,"itness":7456,"That":7457,")^\\":7458,"Ġquasi":7459,"oupl":7460,"Ġbillion":7461,"ĠGet":7462,"ĠWell":7463,"pendence":7464,"ĠEven":7465,"Ġdedicated":7466,"Suppose":7467,"Ġnative":7468,"Ġ\\,\\":7469,"ĠCard":7470,"edge":7471,"^*\\":7472,"press":7473,"base":7474,"Sm":7475,"ĠMah":7476,"Ġfocused":7477,"Ġactors":7478,"Aust":7479,"My":7480,"Ġarguments":7481,"Error":7482,"Ġsto":7483,"Ġcreating":7484,"Ġelections":7485,"ĠTaylor":7486,"AE":7487,"Moreover":7488,"Ġbelieved":7489,"also":7490,"Ġmess":7491,"Ġsustain":7492,"Ġrepresenting":7493,"ĠCr":7494,"Ġdashed":7495,"ĠFrancisco":7496,"Ġfluid":7497,"Ġideas":7498,"eld":7499,"loop":7500,"Ġrecording":7501,"general":7502,"Ġopportunity":7503,"ĠWin":7504,"ĠEdward":7505,"ĠSpecial":7506,"ĠMu":7507,"enchmark":7508,"(-\\":7509,"ivate":7510,"ĠCM":7511,"Ġofficers":7512,"ometry":7513,"ĠHuman":7514,"Ġeq":7515,"plane":7516,"andemic":7517,"Ġversions":7518,"Ġouter":7519,"Add":7520,"Ġ$\\{\\":7521,"Ġbill":7522,"rangian":7523,"Ġmatching":7524,"irical":7525,"Ġsales":7526,"ditionally":7527,"ograp":7528,"met":7529,"itage":7530,"oned":7531,"achus":7532,"Ġinvestigation":7533,"Gu":7534,"ĠVan":7535,"abeth":7536,"odd":7537,"\\!\\":7538,"Ġhands":7539,"1944":7540,"ĠLem":7541,"ĠKent":7542,"Ġcultural":7543,"gest":7544,"Ġshock":7545,"inity":7546,"().":7547,"!\\":7548,"bet":7549,"1961":7550,"Right":7551,"Ġtrig":7552,"ĠDev":7553,"Ġincident":7554,"oles":7555,"ĠRay":7556,"Che":7557,"Ġnet":7558,"Ġcontinues":7559,"National":7560,"Ġprimarily":7561,"HC":7562,"ĠQueen":7563,"ĠBoston":7564,"ĠWilson":7565,"Ġbridge":7566,"Although":7567,"ĠWater":7568,"Ġvacc":7569,"());":7570,"ĠCro":7571,"Ġarticles":7572,"boldmath":7573,"del":7574,"\\%$":7575,"Ġdriving":7576,"Ġsubsequently":7577,"Ġlibrary":7578,"GN":7579,"Ġlaws":7580,"Ġdetector":7581,"Ġsubsequent":7582,"OL":7583,"Ġfigures":7584,"inate":7585,"ĠJoe":7586,"ĠHiggs":7587,"oded":7588,"Ġsister":7589,"ĠMiddle":7590,"ĠÂ£":7591,"Ġlabor":7592,"Ġacquired":7593,"Ġfans":7594,"ogonal":7595,"clusive":7596,"uries":7597,"Ġserving":7598,"nn":7599,"250":7600,"ĠCharl":7601,"aturing":7602,"III":7603,"enth":7604,"ĠRepresent":7605,"Ġcamera":7606,"ĠPolice":7607,"Disc":7608,"ĠSi":7609,"Ġresource":7610,"Ġprogramming":7611,"Ġrational":7612,"ori":7613,"AF":7614,"Ġturb":7615,"Inst":7616,"zen":7617,"ĠScotland":7618,"spe":7619,"ogs":7620,"Ġreprodu":7621,"ĠAnother":7622,"high":7623,"Ġbass":7624,"quar":7625,"uce":7626,"ĠGi":7627,"Ġfle":7628,"ĠVi":7629,"Ġclaims":7630,"Ġequivalence":7631,"ĠIllinois":7632,"Ġwestern":7633,"%)":7634,"ĠSciences":7635,"Ġple":7636,"inals":7637,"finite":7638,"Ġwaves":7639,"ĠLab":7640,"Ġidentical":7641,"Ġ!=":7642,"achusetts":7643,"igration":7644,"hfill":7645,"irds":7646,"Ġswitch":7647,"Ġprefer":7648,"Ġdeploy":7649,"Ġsort":7650,"plot":7651,"Ġrect":7652,"diff":7653,"Ġsomew":7654,"onia":7655,"obs":7656,"abled":7657,"Fl":7658,"Ġindicated":7659,"Ġreaction":7660,"fort":7661,"Ġresidents":7662,"Some":7663,"Ġdemonstrate":7664,"verb":7665,"ĠRh":7666,"Ġdial":7667,"ĠPower":7668,"Ġhttp":7669,"Ġ,\\":7670,"Ġplus":7671,"ĠGiven":7672,"Ġowners":7673,"method":7674,"Ġluminosity":7675,"Ġinteract":7676,"Ġdisapp":7677,"Ġaggreg":7678,"second":7679,"!]":7680,"ĠMedia":7681,"Ġreturns":7682,"elligence":7683,".\\\\":7684,"Ġgun":7685,"DR":7686,"iced":7687,"poration":7688,"Ġcreation":7689,"Ġlaunch":7690,"Ġintegrated":7691,"ĠLim":7692,"Ġdense":7693,"Ġrecognition":7694,"Ġdetermin":7695,"Ġlands":7696,"ĠSenate":7697,"Ġbond":7698,"parameter":7699,"Post":7700,"ymmetric":7701,"TT":7702,"ĠCoast":7703,"arios":7704,"formance":7705,"Ġsizes":7706,"Ġevaluated":7707,"ĠPoland":7708,"Ġalle":7709,"equations":7710,"Ġconsisting":7711,"Ġspirit":7712,"Ġcharacteristics":7713,"Ġspecified":7714,"ĠAst":7715,"ĠIN":7716,"ĠWall":7717,"iser":7718,"aturday":7719,"hire":7720,"nam":7721,"ted":7722,"Ġthank":7723,"Ġanalyz":7724,"Ap":7725,"apse":7726,"Ġdiscrim":7727,"Ġregional":7728,"sche":7729,"isson":7730,"enger":7731,"ĠMid":7732,"Ġremove":7733,"Ġpenal":7734,"ĠBell":7735,"ĠSoc":7736,"Ġchart":7737,"Ġsuc":7738,"jected":7739,"esian":7740,"Ġlatest":7741,"ingly":7742,"cale":7743,"Ġpossibly":7744,"Ġgeneric":7745,"=\"+":7746,"ĠKh":7747,"ĠCommunity":7748,"Ġassuming":7749,"olean":7750,"Ġsettings":7751,"Ġplanning":7752,"object":7753,"cat":7754,"Ġmanaged":7755,"ĠBol":7756,"ĠIslam":7757,"Ġrig":7758,"aby":7759,"Ġspecifically":7760,"istent":7761,"ĠMot":7762,"ĠDutch":7763,"INE":7764,"ami":7765,"|^{":7766,"Ġcolon":7767,"Act":7768,"Ġbra":7769,"1958":7770,"Requ":7771,"ĠAR":7772,"Ġchanging":7773,"Li":7774,"Ġlargely":7775,"ĠKong":7776,"conf":7777,"iate":7778,"\":":7779,"Ġpaid":7780,"aul":7781,"Ġspeech":7782,"Ġfrag":7783,"Ġrepresentative":7784,"Ġcoverage":7785,"Cal":7786,"They":7787,"hard":7788,"Ġeigenvalues":7789,"ĠEu":7790,"regular":7791,"Ġcouncil":7792,"Ġsupply":7793,"outhe":7794,"ĠStan":7795,"Ã¢":7796,"ĠFace":7797,"vect":7798,"Ġpaths":7799,"ĠInformation":7800,"riend":7801,"symm":7802,"Ġelectronic":7803,"dule":7804,"Ġbatt":7805,"Ġrepeated":7806,"ĠHal":7807,"ione":7808,"ierarch":7809,"Ġitem":7810,"uv":7811,"ĠBang":7812,"Ġships":7813,"wing":7814,"AV":7815,"1959":7816,"Ġsquad":7817,"*}[":7818,"Ġbundle":7819,"Ġdaily":7820,"iger":7821,"anged":7822,"ele":7823,"nav":7824,"Ġdoc":7825,"Ġcaptured":7826,"ĠWild":7827,"pic":7828,"ĠFollowing":7829,"Ġsucceed":7830,"ĠMas":7831,"ĠPrince":7832,"Field":7833,"urity":7834,"Ġperturbation":7835,"ĠPortug":7836,"corollary":7837,"Ġflight":7838,"Do":7839,"Ġassociation":7840,"Ġequipment":7841,"Ġinnov":7842,"chester":7843,"FR":7844,"Ġintended":7845,"ucky":7846,"Ġfort":7847,"ĠRou":7848,"phia":7849,"Ġcoupled":7850,"Ġdiagn":7851,"1956":7852,"ruit":7853,"cline":7854,"Ġtwice":7855,"Ġlowest":7856,"ĠNight":7857,"Ġplas":7858,"Ġmagnet":7859,"ĠColl":7860,"Ġissued":7861,"Ġkin":7862,"ĠGovernor":7863,"Ġequality":7864,"ĠDown":7865,"Ġanom":7866,"ĠEst":7867,"1942":7868,".</":7869,"ĠFar":7870,"Brit":7871,"Ġstrugg":7872,"VD":7873,"Ġcompat":7874,"LC":7875,"ĠGoogle":7876,"Ġsecret":7877,"ĠJr":7878,"Ġadministration":7879,"ĠExt":7880,"amber":7881,"rell":7882,"tty":7883,"elect":7884,"nol":7885,"ains":7886,"ĠGeV":7887,"ĠBuild":7888,"1948":7889,"omer":7890,"ls":7891,"Sec":7892,"isted":7893,"Ġvehicles":7894,"Ġcryst":7895,"Ġcommut":7896,"Ġuniversal":7897,"Ġfluctuations":7898,"oped":7899,"Ġdig":7900,"Ġlens":7901,"itzer":7902,"rog":7903,"ulse":7904,"600":7905,"Ġvon":7906,"ĠKen":7907,"amin":7908,"iful":7909,"Ġdamage":7910,">\\":7911,"Rem":7912,"Ġgravitational":7913,"Ġdecrease":7914,"Ġcert":7915,"Ġfloor":7916,"Ġfailure":7917,"ĠJes":7918,"there":7919,"ĠEastern":7920,"Ġextremely":7921,"Ġcorrections":7922,"Ã±":7923,"Ġmeas":7924,"Ġconfidence":7925,"vs":7926,"Ġweap":7927,"aton":7928,"ĠEgypt":7929,"Color":7930,"$.}":7931,"iang":7932,"overs":7933,"Ġcrew":7934,"ĠServices":7935,"oses":7936,"phantom":7937,"ĠRailway":7938,"Ġcomedy":7939,"plan":7940,"Ġfacilities":7941,"inson":7942,"Serv":7943,"1957":7944,"negative":7945,"1952":7946,"BB":7947,"ĠTheatre":7948,"ĠIR":7949,"textup":7950,"image":7951,"ategory":7952,"Ġquantity":7953,"iden":7954,"Ġdependent":7955,"Ġfinds":7956,"town":7957,"United":7958,"ĠMassachusetts":7959,"Ġconference":7960,"ĠSuppose":7961,"Ġperiodic":7962,"Ġtrace":7963,"ĠHead":7964,"tail":7965,"Dist":7966,"life":7967,"ses":7968,"Ġeveryone":7969,"isot":7970,"Ġmultip":7971,"Ġpoliticians":7972,"Ġends":7973,"apes":7974,"Two":7975,"Ġarc":7976,"Ġliqu":7977,"Ġaspects":7978,"ĠAndrew":7979,"ĠWis":7980,"Cur":7981,"())":7982,"final":7983,"bp":7984,"Ġhidden":7985,"Ġmobile":7986,"TC":7987,"Ġmuseum":7988,"ĠBir":7989,"ĠUr":7990,"Ġquery":7991,"Mon":7992,"iii":7993,"ĠJeff":7994,"ĠPop":7995,"Ġclosely":7996,"ĠSea":7997,"ritical":7998,"Ġnor":7999,"ĠBC":8000,"Ġnotion":8001,"ĠDisc":8002,"Ġchallenges":8003,")(\\":8004,"Ġrecommend":8005,"Ġmes":8006,"uten":8007,"Will":8008,"Ġfellow":8009,"Ġstrategies":8010,"ĠKorea":8011,"apped":8012,"Ġreviews":8013,"ĠKa":8014,"make":8015,"ĠRepublican":8016,"footnotes":8017,"ĠFour":8018,"unit":8019,"Ġpp":8020,"urg":8021,"ĠJackson":8022,"Ġspac":8023,"Ġinterior":8024,"illy":8025,"ĠCat":8026,"icular":8027,"comes":8028,"Gl":8029,"ulf":8030,"Ġimprovement":8031,"sem":8032,"Ġcars":8033,"imately":8034,"ĠFederal":8035,"igr":8036,"Ġintermediate":8037,"Ġvacuum":8038,"reducible":8039,"large":8040,"anta":8041,"ĠBroad":8042,"Ġpages":8043,"atas":8044,"Ġjump":8045,"Ġwrong":8046,"estic":8047,"chron":8048,"Ġeffectively":8049,"ologist":8050,"nbsp":8051,"config":8052,"Ġpolarization":8053,"Ġhab":8054,"phe":8055,"Ġfeedback":8056,"riday":8057,"1939":8058,"theless":8059,"effect":8060,")}(\\":8061,"Ġburn":8062,"footnotesize":8063,"ropical":8064,"1943":8065,"Char":8066,"Ġstorage":8067,"Ġpolicies":8068,"Ġretired":8069,"Ġflav":8070,"Ġpool":8071,"Ġyouth":8072,"Ġphases":8073,"\\|_":8074,"Ġintroduction":8075,"ĠLight":8076,"Ġexclud":8077,"Ġinterpretation":8078,"Ġreduces":8079,"'ve":8080,"Work":8081,"ĠBrook":8082,"Ġconclusion":8083,"Ġuniformly":8084,"ativ":8085,"ĠWeek":8086,"ĠOxford":8087,"ĠPen":8088,"jecture":8089,"Ġengineering":8090,"Ġcontrolled":8091,"Ġmolecular":8092,"ĠSports":8093,"uated":8094,"ĠHospital":8095,"oken":8096,"Att":8097,"Ref":8098,"ĠPubl":8099,"Event":8100,"Ġtried":8101,"Top":8102,"Ġversus":8103,"General":8104,"adow":8105,"Ġepisodes":8106,"Assum":8107,"Ġpandemic":8108,"Ġprofessor":8109,"Ġexecutive":8110,"Ġdraft":8111,"Ġsle":8112,"Ġchance":8113,"Ġsport":8114,"ĠFer":8115,"Ġflag":8116,"Ġentries":8117,"imits":8118,"perties":8119,"aki":8120,"Ġessentially":8121,"Ġsurrounding":8122,"Ġfifth":8123,"Ġsuppose":8124,"^*(":8125,"una":8126,"ifer":8127,"Ġnecessarily":8128,"Ġcomments":8129,"ĠPoint":8130,"Ġenvironmental":8131,"Ġprofiles":8132,"Ġscientific":8133,"rins":8134,"Ġfootballer":8135,"Ġhighlight":8136,"Ġspot":8137,"ĠDaniel":8138,"Ġopin":8139,"ĠLatin":8140,"ci":8141,"ĠEnergy":8142,"Ġviews":8143,"Ġsuccessfully":8144,"rastructure":8145,"({":8146,"Ġdoub":8147,"Ġisot":8148,"Ġtreated":8149,"Ġcorrection":8150,"Ġwavel":8151,"ĠSunday":8152,"Ġwinner":8153,"1946":8154,"Ġacademic":8155,"Ġdirections":8156,"Line":8157,"Sports":8158,"Ġcold":8159,"Ġaccepted":8160,"Consider":8161,"points":8162,"Ġcharges":8163,"ĠMinistry":8164,"Å¡":8165,"Ġheav":8166,"pson":8167,"1955":8168,"{|":8169,"ĠThree":8170,"Ġgeometric":8171,"Ġvictim":8172,"ditional":8173,"Ġdemonstrated":8174,"Ġdx":8175,"aturally":8176,"Ġagree":8177,"Ġgenerating":8178,"Ġproportional":8179,"ĠSecretary":8180,"Ġcook":8181,"ĠAM":8182,"izabeth":8183,"Ġexpressions":8184,"rob":8185,"Ġconcert":8186,"Ġadvanced":8187,"ĠLittle":8188,"ĠManagement":8189,"formed":8190,"lik":8191,"ĠStudies":8192,"ĠUN":8193,"}{{\\":8194,"1941":8195,"eman":8196,"ĠKar":8197,"Ġcorner":8198,"ĠGirl":8199,"ĠColor":8200,"ector":8201,"varrho":8202,"Ġconsec":8203,"Ġinfer":8204,"Ġcalls":8205,"Ġpersonnel":8206,"engths":8207,"aus":8208,"vements":8209,"Ġbuy":8210,"Ġadvert":8211,"Ġtriang":8212,"'_{":8213,"Ġpurposes":8214,"Ġreferences":8215,"ĠJon":8216,"ideos":8217,"ĠColumbia":8218,"{(\\":8219,"df":8220,"ropol":8221,"Ġenhance":8222,"ĠJustice":8223,"ĠStation":8224,"Ġattend":8225,"Ġprepar":8226,"circle":8227,"Ġclubs":8228,"ĠHung":8229,"ersion":8230,"\"></":8231,"ĠInf":8232,"}$\\":8233,"PL":8234,"File":8235,"define":8236,"800":8237,"ester":8238,"Ġowner":8239,"vals":8240,"opher":8241,"Ac":8242,"Ġpsych":8243,"othing":8244,"Ġencoura":8245,"Ġexplan":8246,"Ġmetrics":8247,"onym":8248,"ĠAff":8249,"bro":8250,"Ga":8251,"ĠOrgan":8252,"Ġstack":8253,"@{":8254,"ĠAlexander":8255,"found":8256,"ĠMicro":8257,"Ġbegins":8258,"Lo":8259,"arest":8260,"Ġneutrino":8261,"sa":8262,"ĠHong":8263,"ĠNa":8264,"Ġextends":8265,"Ġabsence":8266,"aved":8267,"Ġiteration":8268,"TH":8269,"Ġnormalized":8270,"textnormal":8271,"Ġneutral":8272,"Ġconfigurations":8273,"Ġearned":8274,"Ġsupers":8275,"Ġfrequencies":8276,"Ġpowers":8277,"Ġempty":8278,"Group":8279,"Ġseparation":8280,"Ġplants":8281,"ĠGar":8282,"instein":8283,"|$":8284,"Ġarrived":8285,"Ġconvolution":8286,"Ġvariations":8287,"Ġfashion":8288,"Ġsatell":8289,"Ġbaseline":8290,"ĠStat":8291,"Ġtransferred":8292,"Ġpeace":8293,"Ġpractical":8294,"Ġrich":8295,"~(\\":8296,"Ġmotor":8297,"Dem":8298,"never":8299,"relation":8300,"Ġmac":8301,"Ġhouses":8302,"ĠVis":8303,"ĠFund":8304,"Ġmarriage":8305,"ĠMike":8306,"ĠCreek":8307,"1947":8308,"Ġvisible":8309,"Ġbeat":8310,"Min":8311,"start":8312,"Ġdominant":8313,"Ġinspired":8314,"Ġpapers":8315,"ĠAlgorithm":8316,"ĠLater":8317,"Ġera":8318,"Ġofficials":8319,"Ġstock":8320,"Ġchampionship":8321,"adi":8322,"athan":8323,"anced":8324,"ĠWeb":8325,"Ġparticipants":8326,"date":8327,"ensor":8328,"ĠÎ":8329,"Ġbenefit":8330,"Ġmonitor":8331,"Ġprecision":8332,"Count":8333,"ĠComput":8334,"1953":8335,"ĠAsh":8336,"ordan":8337,"ĠType":8338,"Ġdegener":8339,"ĠFourier":8340,"ĠConserv":8341,"Year":8342,"Dis":8343,"Ġ\\|\\":8344,"Ġbroken":8345,"Ġexcell":8346,"Ġleadership":8347,"Ġadvers":8348,"Ġstreet":8349,"ĠDesign":8350,"Ġdeviation":8351,"Ġroughly":8352,"Ġflows":8353,"Ġpet":8354,"Ġexpos":8355,"ographer":8356,"stood":8357,"quot":8358,"Ġpassing":8359,"Ġsevere":8360,"Ġrestaur":8361,"Ġsensitive":8362,"Ġzone":8363,"tz":8364,"Ġscenarios":8365,"aux":8366,"1954":8367,"yo":8368,"Ġalongside":8369,"Ġancient":8370,"Ġprominent":8371,"ocated":8372,"ogether":8373,"Ġlov":8374,"Ġinstant":8375,"Ġintegr":8376,"Method":8377,"Ġnone":8378,"Ġstre":8379,"wave":8380,"itical":8381,")}.":8382,"ĠFree":8383,"HL":8384,"Ġreality":8385,"128":8386,"float":8387,"ĠPM":8388,"Ġdeveloping":8389,"risis":8390,"Ġtriple":8391,"Ġexpanded":8392,"([":8393,"Ġawards":8394,"riminal":8395,"Sum":8396,"ois":8397,"Index":8398,"Ġdrawn":8399,"oster":8400,"Ġtemporal":8401,"Ġmorning":8402,"world":8403,"Map":8404,"ĠPolish":8405,"Ġatoms":8406,"ĠMult":8407,"180":8408,"$^":8409,"GM":8410,"ERT":8411,"Ġreconstruction":8412,"quant":8413,"ĠFil":8414,"$\\\\":8415,"Ġcommit":8416,"Ġprotection":8417,"eless":8418,"Dr":8419,"'.":8420,"Ġemployees":8421,"RR":8422,"Ġcovering":8423,"onents":8424,"unte":8425,"Ġsolving":8426,"ogram":8427,"ĠAnton":8428,"Ġcustomers":8429,"ennes":8430,"lower":8431,"ĠVill":8432,"Go":8433,"backslash":8434,"Car":8435,"Ġhybrid":8436,"ĠMonte":8437,"iga":8438,"ni":8439,"Ġcauses":8440,"Ġcircum":8441,"ructions":8442,"Ġsensitivity":8443,"Ġbran":8444,"ĠDM":8445,"oment":8446,"Ġplanned":8447,"Ġdensities":8448,"green":8449,"$\\,":8450,"Ġserves":8451,"Ġsexual":8452,"Ġalgebraic":8453,"ĠNC":8454,"ĠMethod":8455,"arithm":8456,"Ġadjacent":8457,"ĠScottish":8458,"HT":8459,"Ġquadratic":8460,"ĠJean":8461,"Ġfer":8462,"pes":8463,"pert":8464,"Ġsummary":8465,"Ġexpert":8466,"(),":8467,"Ġmoments":8468,"PM":8469,"tario":8470,"ĠBerlin":8471,"Ġmodeling":8472,"ĠProfessor":8473,"Ġoccurred":8474,"osa":8475,"Ġbenefits":8476,"number":8477,"1949":8478,"Ġfunding":8479,"ulpt":8480,"mag":8481,"])":8482,"Ġuncertainties":8483,"Ġformulation":8484,"chor":8485,"antry":8486,"ĠKim":8487,"Ġmiles":8488,"dens":8489,"Members":8490,"binom":8491,"Ġ_{\\":8492,"otype":8493,"arity":8494,"Ġconjug":8495,"Ġexpat":8496,"Ġconstitu":8497,"Ġthrow":8498,"leftarrow":8499,"Ġabsorption":8500,"Ġroles":8501,"Ġfib":8502,"ĠSaturday":8503,"Ġfaster":8504,"ez":8505,"aste":8506,"Ġtells":8507,"Ġprotected":8508,"Ġhockey":8509,"Ġcrow":8510,"lers":8511,"Ġeconomy":8512,"Ġboy":8513,"names":8514,"]^":8515,"aped":8516,"PD":8517,"Ġcatal":8518,"ĠBoy":8519,"Ġrestricted":8520,"Ġsafe":8521,"Ġseed":8522,"LT":8523,"Ġsurfaces":8524,"ĠMedical":8525,"eties":8526,"ĠBBC":8527,"ĠJacob":8528,"ĠIndust":8529,"downarrow":8530,"stackrel":8531,"ented":8532,"British":8533,"ĠBack":8534,"Ag":8535,"static":8536,"ĠLore":8537,"ĠÅ":8538,"ĠEvery":8539,"Ġscores":8540,"herical":8541,"ictures":8542,"Ġmeant":8543,"inction":8544,"ĠPlaces":8545,"Cref":8546,"May":8547,"':":8548,"illing":8549,"thur":8550,"ĠArgent":8551,"Ġportion":8552,"-(":8553,"Ġformul":8554,"clip":8555,"gal":8556,"aud":8557,"101":8558,"Ġpush":8559,"sep":8560,"Ġdiffusion":8561,"Ġnewly":8562,"Ġconcentration":8563,"models":8564,"Ġbalance":8565,"Ġbreaking":8566,"adelphia":8567,"Ġfeaturing":8568,"ĠVictoria":8569,"Ġhomogeneous":8570,"Ġelectrons":8571,"NE":8572,"Ġeastern":8573,"rer":8574,"Info":8575,"Ġbriefly":8576,"Ġready":8577,"Ġcharacterized":8578,"Ġsimilarly":8579,"zech":8580,"');":8581,"Ġpal":8582,"Ġfeet":8583,"gather":8584,"Ġreader":8585,"Ġinvestigated":8586,"ĠBand":8587,"Ġhalo":8588,"ĠCase":8589,"ÅĤ":8590,"si":8591,"Ġdominated":8592,"possible":8593,"Ġcovers":8594,"Ġfitting":8595,"Ġask":8596,"Ġlooks":8597,"University":8598,"Ġinsert":8599,"Ġcarbon":8600,"Ġpra":8601,"Ġflex":8602,"Ġhierarch":8603,"Ġsetup":8604,"Mat":8605,"Ġsky":8606,"Ġsend":8607,"Ġcrucial":8608,"1951":8609,"Ġnotes":8610,"Ġcontinuum":8611,"Ġstraightforward":8612,"}/\\":8613,"Ġtopology":8614,"ĠBelg":8615,"midrule":8616,"tor":8617,"ĠFamily":8618,"square":8619,"Following":8620,"Ġhorizontal":8621,"'ll":8622,"Ġadvance":8623,"}.}":8624,"ĠViet":8625,"Ġextensive":8626,"ĠFair":8627,"Ġ},":8628,"ito":8629,"rehens":8630,"Ġcontrols":8631,"Ġaccret":8632,"rapy":8633,"ĠUs":8634,"uing":8635,"Ġupdated":8636,"ĠKenn":8637,"watch":8638,"Ġdecreases":8639,"Ġillustrated":8640,"Ġweighted":8641,"Ġeyes":8642,"World":8643,"ĠEngineering":8644,"ĠRev":8645,"Ġexcess":8646,"dney":8647,"Ġmunicipality":8648,"ĠCas":8649,"ĠUkraine":8650,"ederation":8651,"forming":8652,"Ġanimals":8653,"mi":8654,"Ġseparated":8655,"Path":8656,"Ġinstitutions":8657,":#":8658,"ĠMarket":8659,"ĠChris":8660,"$^{":8661,"Ġisn":8662,"ceil":8663,"Ġelev":8664,"GA":8665,"yles":8666,"Ġanalytic":8667,"Ġheard":8668,"Ġresidual":8669,"ĠLagrangian":8670,"smallskip":8671,"Ġindices":8672,"!--":8673,"ĠCle":8674,"kh":8675,"md":8676,"ĠBon":8677,"125":8678,"ĠPrime":8679,"ĠPakistan":8680,"ixture":8681,"Ġpartner":8682,"ĠSupreme":8683,"Ġfinish":8684,"Ġtransp":8685,"ĠUnivers":8686,"Ġexceed":8687,"Ġtested":8688,"Ġcolumns":8689,"ĠMuslim":8690,"Ġcitizens":8691,"Ġtroops":8692,"Ġglass":8693,"unnel":8694,"oli":8695,"Hom":8696,"Ġ{$\\":8697,"Ġagreed":8698,"Ġcircuit":8699,"Ġperhaps":8700,"Ġprecise":8701,"Ġaudience":8702,"ught":8703,"Another":8704,"Ġhandle":8705,"Ġmetall":8706,"Ġcontribute":8707,"=\"../../":8708,"Ġpolynomials":8709,"Ġ);":8710,"Sing":8711,"ĠAdam":8712,"Ġven":8713,"ĠDespite":8714,"ĠPass":8715,"ĠNY":8716,"ĠMain":8717,"BI":8718,"Ġearth":8719,"ĠCorps":8720,"ĠRun":8721,"uon":8722,"Ġ/>":8723,"ĠRen":8724,"multline":8725,"}^+":8726,"._":8727,"&=&\\":8728,"struct":8729,"Ġtight":8730,"consin":8731,"ENT":8732,"ynamics":8733,"Ġentirely":8734,"Ġstands":8735,"invariant":8736,"ĠIslands":8737,"ĠLear":8738,"Ġrefers":8739,"Ġscript":8740,"Ġwarm":8741,"Ġserver":8742,"RC":8743,"ĠSimilarly":8744,"Ġur":8745,"ĠSant":8746,"Ġseconds":8747,"ĠWalk":8748,"Ġ{};":8749,"esides":8750,"Ġvarying":8751,"Ġbudget":8752,"Ġhuge":8753,"ĠGuard":8754,"ubble":8755,"Ġderivatives":8756,".$$":8757,"EP":8758,"ĠAirport":8759,"Ġinclusion":8760,"uparrow":8761,"ĠAD":8762,"comput":8763,"&&\\":8764,"ĠCorollary":8765,"Ġdriver":8766,"Ġload":8767,"BO":8768,"ĠGro":8769,"nic":8770,"ĠGlobal":8771,"Ġclient":8772,"gency":8773,"Ġregression":8774,"iner":8775,"Ġcopies":8776,"Ġperformances":8777,"Ġorthogonal":8778,"anth":8779,"Ġpit":8780,"ĠSecurity":8781,"oton":8782,"Ġdecades":8783,"Ġhousing":8784,"ĠSD":8785,"ĠĠĠĠĠĠĠĠĠĠĠĠĠĠĠĠĠĠĠĠĠĠĠĠĠĠĠĠĠĠĠĠĠĠĠĠĠĠĠĠĠĠĠĠĠĠĠĠĠĠĠĠĠĠĠĠĠĠĠĠĠĠĠĠ":8786,"ĠĠĠĠĠĠĠĠĠĠĠĠĠĠĠĠĠ":8787,"ĠMinnes":8788,"Ġsumm":8789,"Ġhonor":8790,"RL":8791,"writer":8792,"ĠSC":8793,"ĠCommon":8794,"fection":8795,"Ġuniverse":8796,"pres":8797,"Ġindustrial":8798,"Ġpatient":8799,"present":8800,"ĠAdminist":8801,"Ġtransitions":8802,"obe":8803,"ĠAvenue":8804,"Ġfrequently":8805,"=\\{":8806,"ĠSU":8807,"former":8808,"Ġrecover":8809,"title":8810,"Ġappearances":8811,"umes":8812,"})^{":8813,"Ġhour":8814,"rome":8815,"Ġbaseball":8816,"Ġperman":8817,"Ġproduces":8818,"cycl":8819,"ĠLew":8820,"Ġinvolves":8821,"pool":8822,"ĠOnly":8823,"Ġalt":8824,"Ġcolour":8825,"_{+":8826,"Ġathlet":8827,"Ġsystematic":8828,"ĠForest":8829,"ĠMinnesota":8830,"leton":8831,"Ġdatabase":8832,"since":8833,"textsf":8834,"Ġcloser":8835,"Ġexpectation":8836,"Ġschemes":8837,"ĠMaster":8838,"Ġprotein":8839,"Ġ\\{\\":8840,"$-$":8841,"hou":8842,"ĠDC":8843,"Ġirreducible":8844,"propto":8845,"heim":8846,"ĠOntario":8847,"ĠHard":8848,"Ġprotocol":8849,"Ġpuls":8850,"Ġahead":8851,"romagnetic":8852,"Ġbor":8853,"ĠRod":8854,"Ġcodes":8855,"Ġrandomly":8856,"Ġelli":8857,"rl":8858,"ĠMarg":8859,"ĠBrad":8860,"ĠCorn":8861,"ĠSher":8862,"001":8863,"Ġbrain":8864,"Ġfacility":8865,"hedral":8866,"{.":8867,"worth":8868,"ourney":8869,"ĠIV":8870,"ĠTam":8871,"omet":8872,"observ":8873,"Ġperspective":8874,"ĠHo":8875,"Ġconvers":8876,"1936":8877,"nolimits":8878,",...,":8879,"ĠTwitter":8880,"ĠNon":8881,"Ġpresents":8882,"Ġdram":8883,"Ġtang":8884,"Ġ\\[":8885,"ounger":8886,"Ġradi":8887,"eries":8888,"ego":8889,"Ġsupporting":8890,"Ġdefines":8891,"lock":8892,"Ġsun":8893,"Ġnewspaper":8894,"ĠElizabeth":8895,"ĠBan":8896,"pur":8897,"parallel":8898,"Ġcir":8899,"Ġfish":8900,"Ġstrictly":8901,"ĠSurvey":8902,"ermi":8903,"elesc":8904,"ĠOF":8905,"Ġstead":8906,"represent":8907,"PO":8908,"Ġrecognized":8909,"Ġpermut":8910,"akh":8911,"Ã¡n":8912,"Ġcrime":8913,"Ġguarante":8914,"Ġsoc":8915,"ĠRegion":8916,"ĠKorean":8917,"owa":8918,"valid":8919,"ĠFriday":8920,"Node":8921,"Ġdefense":8922,"Ġdistances":8923,"Ġillustr":8924,"Ġgrew":8925,"ĠDer":8926,"leqslant":8927,"ĠStr":8928,"Ġrespective":8929,"Ġresulted":8930,"$'":8931,"Ġbomb":8932,"ĠConf":8933,"rics":8934,"ĠOfficial":8935,"Ġprovince":8936,"ĠSus":8937,"kern":8938,"Ġenem":8939,"stic":8940,"Ġpip":8941,"Ġrestriction":8942,"Ġfiles":8943,"isor":8944,"ĠRaj":8945,"Ġorbital":8946,"Ġsubspace":8947,"Ġarms":8948,"Ġensemble":8949,"ĠPeak":8950,"Ġdispersion":8951,"ĠNether":8952,"ĠRome":8953,"ĠClark":8954,"ĠAT":8955,"Ġskills":8956,"Ġsilver":8957,"Ġsave":8958,"Ġextent":8959,"Ġsimultaneously":8960,"Ġsubs":8961,"Ġinvestment":8962,"ĠReal":8963,"Ġpieces":8964,"ymmetry":8965,"ĠRog":8966,"ĠSN":8967,"Ġsession":8968,"ĠToronto":8969,"outs":8970,"coh":8971,"iti":8972,"Ġdie":8973,"Ġpromoted":8974,"Ġmurder":8975,"Ġmanufacture":8976,"Proposition":8977,"ĠOs":8978,"orthe":8979,"Ġfuel":8980,"wart":8981,"iemann":8982,"ĠLog":8983,"lay":8984,"ĠĠĠĠĠĠĠĠĠĠĠĠĠĠĠĠĠĠĠĠĠĠĠĠĠĠĠ":8985,"ĠNext":8986,"Ġtrajectory":8987,"Ġsoldiers":8988,"ĠEp":8989,"Log":8990,"Ġdomains":8991,"ĠDue":8992,"including":8993,"ĠGer":8994,"Ġurban":8995,"Don":8996,"ĠMC":8997,"Ġliber":8998,"Ġdance":8999,"Ġinstances":9000,"ãģ":9001,"organ":9002,"phase":9003,"ĠTy":9004,"Ġagric":9005,"Ġchoices":9006,"pred":9007,"Ġmask":9008,"ĠCorporation":9009,"Ġsuppl":9010,"|_":9011,"ride":9012,"elly":9013,"}[!":9014,"uction":9015,"FI":9016,"erence":9017,"ĠLuc":9018,"Ġcoal":9019,"Ġassistant":9020,"1918":9021,"\\}.":9022,"sex":9023,"ĠAgain":9024,"Ġdiagrams":9025,"write":9026,"Ġsimulated":9027,"ĠProdu":9028,"RI":9029,"Ġgate":9030,"GeV":9031,"Ġspring":9032,"rency":9033,"ĠML":9034,"Ġiron":9035,"1938":9036,"Ġpolitics":9037,"Ġsell":9038,"comb":9039,"pop":9040,"fa":9041,"gt":9042,"Music":9043,"ĠTok":9044,"ĠOlympic":9045,"ĠGener":9046,"orders":9047,"Ġconsult":9048,"vo":9049,"Ġbenchmark":9050,"\\}_{":9051,"âĢĿ.":9052,"Austral":9053,"ĠBeach":9054,"Ġfaith":9055,"density":9056,"ĠLabor":9057,"zo":9058,"Ġboundaries":9059,"Ġpossess":9060,"Ġfra":9061,"ĠDun":9062,")_{\\":9063,"ĠHun":9064,"aga":9065,"Ġunderstood":9066,"ĠAnth":9067,"Ġanalys":9068,"Ġeye":9069,"Ġnotable":9070,"chain":9071,"RB":9072,"Ġrecip":9073,"Red":9074,"above":9075,"Ġpanels":9076,"cknowledg":9077,"iples":9078,"ĠPrize":9079,"ĠVen":9080,"Ġnaturally":9081,"}},\\":9082,"Ġinjury":9083,"dash":9084,"ĠAud":9085,"ĠPC":9086,"Ġcolle":9087,"Ġfresh":9088,"Ġbusinesses":9089,"Ġcatch":9090,"Ġresident":9091,"FM":9092,"owski":9093,"ribed":9094,"Ġconcerns":9095,"}{*}{":9096,"Ġanyone":9097,"Ret":9098,"Track":9099,"phone":9100,"Ġrural":9101,"nm":9102,"lication":9103,"ĠNever":9104,"Ġvideos":9105,"Ġconservation":9106,"Ġconnections":9107,"Ġdocuments":9108,"Ĥ¬":9109,"Ġcompeted":9110,"EX":9111,"ĠSat":9112,"Ġsimilarity":9113,"Ã£":9114,"clear":9115,"orney":9116,"Ġstronger":9117,"South":9118,"ĠMond":9119,"rend":9120,"Ġanalyze":9121,"Nov":9122,"ĠChristmas":9123,"ĠCirc":9124,"Di":9125,"anna":9126,"Ġsail":9127,"Ġphoto":9128,"Ġhappen":9129,"ativistic":9130,"thick":9131,"Ġcricket":9132,"weg":9133,"care":9134,"erset":9135,"Ġgenerator":9136,"Max":9137,"aska":9138,"Ġthanks":9139,")}$.":9140,"ĠKir":9141,"ĠEquation":9142,"Ġstages":9143,"osophy":9144,"Ġcorrelations":9145,"Ġidentification":9146,"_{[":9147,"Bigg":9148,"Ġliquid":9149,"Ġwing":9150,"inking":9151,"UE":9152,"Ġannot":9153,"api":9154,"peror":9155,"ĠLive":9156,"kers":9157,"hanced":9158,"ulating":9159,"Ä±":9160,"utenant":9161,"Non":9162,"Ġdriven":9163,"Ġsomewhat":9164,"ĠDar":9165,"Po":9166,"Ġhappens":9167,"ĠNations":9168,"Ġreasonable":9169,"Ġminister":9170,"orship":9171,"Best":9172,"iginal":9173,"idal":9174,"ĠID":9175,"Ġlikelihood":9176,"just":9177,"ĠFacebook":9178,"Ġattempts":9179,"Ġconventional":9180,"rinsic":9181,"Ġwinners":9182,"Ġvision":9183,"Ġverify":9184,"yard":9185,"Ġcaref":9186,"ĠRom":9187,"Ġepoch":9188,"Ġdim":9189,";\\;":9190,"?âĢĿ":9191,"ortunately":9192,"ĠTrust":9193,"tages":9194,"Ġextreme":9195,"Ġmoves":9196,"ĠFire":9197,"ĠTal":9198,"ĠIndepend":9199,"His":9200,"ĠSanta":9201,"ĠBad":9202,"Ġuniqu":9203,"1937":9204,"raq":9205,"Ġorientation":9206,"Â°":9207,"Ġroots":9208,"Ġvess":9209,"Ġsentence":9210,"Ġinference":9211,"}^{+":9212,"ysical":9213,"ĠBridge":9214,"prov":9215,"NO":9216,"NC":9217,"Ġdefinitions":9218,"Ġcollision":9219,"Ġstabil":9220,"ĠLast":9221,"establ":9222,"ĠWrit":9223,"Ġaug":9224,"BH":9225,"Ġtransverse":9226,"Ġhistoric":9227,"ĠWisconsin":9228,"Source":9229,"Ġ~\\":9230,"Ã©e":9231,"prote":9232,"Ġraces":9233,"bourne":9234,"Ġcriteria":9235,"idi":9236,"Mult":9237,"itudes":9238,"ĠSab":9239,"Ġextracted":9240,"ĠMic":9241,"Ġquot":9242,"ĠSydney":9243,"']":9244,"full":9245,"Ġplate":9246,"Ð»":9247,"athe":9248,"ĠPy":9249,"mf":9250,"content":9251,"images":9252,"allow":9253,"asg":9254,"Ġhorizon":9255,"argets":9256,"Ġfell":9257,"Ġproposition":9258,"Ġadministrative":9259,"ĠTHE":9260,"Ġpublication":9261,"Ġsymbols":9262,"Ġbelongs":9263,"bigcup":9264,"Ġtitles":9265,"Ġwitness":9266,"TD":9267,"quarters":9268,"Ġneutron":9269,"TA":9270,"ĠWho":9271,"Ġpackage":9272,"Ġblow":9273,"Ġfan":9274,"Ġdoor":9275,"Ent":9276,"mal":9277,"ĠNetherlands":9278,"Ġgained":9279,"Ġunless":9280,"ĠDam":9281,"Ġdefect":9282,"erion":9283,"subequations":9284,"Dav":9285,"Second":9286,"ĠInternet":9287,"Under":9288,"Ġsphere":9289,"nection":9290,"emet":9291,"ĠCambridge":9292,"rene":9293,"Ġtheme":9294,"Ġconflict":9295,"Ġphone":9296,"ĠInstead":9297,"ples":9298,"isa":9299,"ika":9300,"Ġinputs":9301,")[":9302,"Ġpartially":9303,"Ġap":9304,"HO":9305,"Ġentertain":9306,"\\[\\":9307,"Ġ$^{":9308,"ĠHay":9309,"ĠThrough":9310,"cules":9311,"ĠPhiladelphia":9312,"ĠCEO":9313,"Ġexecution":9314,"ronze":9315,"ĠAbout":9316,"ĠRevolution":9317,"Ġnav":9318,"dl":9319,"ĠExec":9320,"Ġaffili":9321,"Ġsculpt":9322,"inton":9323,"urance":9324,"Ġrom":9325,"}>":9326,"clide":9327,"ĠEs":9328,"Ġbow":9329,"Ġdestroyed":9330,"Ġofficially":9331,"itled":9332,"islative":9333,"ĠLike":9334,"Ġappeal":9335,"ĠStadium":9336,"Ġposterior":9337,"gery":9338,"Ġreward":9339,"Ġempirical":9340,"ĠAuthor":9341,"Ġtick":9342,"Ġestate":9343,"iamond":9344,"ffered":9345,"aught":9346,"issions":9347,"isen":9348,"Ġmechanisms":9349,"stat":9350,"Ġalgebras":9351,"Ġvotes":9352,"apore":9353,"Ġresearchers":9354,"Ġteaching":9355,"/*":9356,"Ġreconstruct":9357,"Ġauto":9358,"Ġchallenging":9359,"Hand":9360,"measure":9361,"ithub":9362,"omot":9363,"prec":9364,"Ġsolo":9365,"ĠDavis":9366,"Ġcomparable":9367,"ĠSteve":9368,"Ġcommittee":9369,"below":9370,"uling":9371,"ĠLes":9372,"ĠAmericans":9373,"dire":9374,"Ġdefend":9375,"racket":9376,"Ġcooper":9377,"ApJ":9378,"ĠSem":9379,"regon":9380,"Ġ---":9381,"atern":9382,"forcement":9383,"})=\\":9384,"Ġresonance":9385,")>":9386,"ĠCall":9387,"\\},":9388,"Ġcorpor":9389,"160":9390,"Ġbatter":9391,"chestra":9392,"Ġaccident":9393,"ĠAk":9394,"parameters":9395,"ĠWars":9396,"Ġswim":9397,"tainment":9398,"have":9399,"Context":9400,"\\|^":9401,"Ġrelationships":9402,"Ġprivacy":9403,"^+$":9404,"_{-\\":9405,"ĠHilbert":9406,"ĠBru":9407,"Ġstandards":9408,"perial":9409,"Ġconsecutive":9410,"Ġlaser":9411,"ighth":9412,"ĠQueens":9413,"ĠReport":9414,"ifact":9415,"rizona":9416,"Ġinduction":9417,"info":9418,"Ġrequirement":9419,"ĠKal":9420,"Ġyellow":9421,"Ġcub":9422,"defn":9423,"sym":9424,"Ġsolved":9425,"uzz":9426,"Ġweather":9427,"Ġreceiving":9428,"1935":9429,"}{}":9430,"Ðº":9431,"Ġestimator":9432,"closed":9433,"clidean":9434,"ordon":9435,"Ġhosted":9436,"Ġreplacing":9437,"Ġmusicians":9438,"Ġperiods":9439,"Ġimply":9440,"ĠInvest":9441,"Ġpotentially":9442,"ãĥ":9443,"empty":9444,"Cast":9445,"Ġratios":9446,"aria":9447,"alities":9448,"emetery":9449,"Book":9450,"kov":9451,"Ġsimplicity":9452,"ĠPrim":9453,"LM":9454,"ints":9455,"Ġclinical":9456,")}$,":9457,"Ġrear":9458,"andy":9459,"ĠGolden":9460,"ĠBudd":9461,"elle":9462,"Ġcart":9463,"ĠBall":9464,"problem":9465,"actory":9466,"Ġletters":9467,"=\"#":9468,"ĠStephen":9469,"ortion":9470,"ĠJos":9471,"complete":9472,"ĠLady":9473,"Ġcrossing":9474,"Ġplasma":9475,"]=":9476,"BE":9477,"ĠUV":9478,"Har":9479,"Ġscope":9480,"Ġphotons":9481,"Ġkeeping":9482,"ĠMP":9483,"ĠMill":9484,"antly":9485,"Ġcollaboration":9486,"Ġwants":9487,"Ġelectro":9488,"Ġhouseholds":9489,"Ġtele":9490,"ĠCH":9491,"Exp":9492,"ĠPolicy":9493,"mean":9494,"iki":9495,"Ġ\\}":9496,"conduct":9497,"Ġresistance":9498,"ĠSon":9499,"Case":9500,"py":9501,"ĠOnce":9502,"Ġdanger":9503,"Ġmeta":9504,"Ġbelief":9505,"Ġunable":9506,"offs":9507,"Ġvice":9508,"Ġescape":9509,"Ġgraduated":9510,"Ġexcited":9511,"Personal":9512,"LR":9513,"ĠTai":9514,"Bbb":9515,"ello":9516,"season":9517,"when":9518,"Ġauthorities":9519,"Ġaccretion":9520,"retch":9521,"['":9522,"Ġrobot":9523,"db":9524,"Ġpopulations":9525,"mentation":9526,"Ġatomic":9527,"Ġly":9528,"ĠMach":9529,"Ġlosing":9530,"Ġsupports":9531,"Ġexpatriate":9532,"Request":9533,"Sw":9534,"Ġimmediate":9535,"ĠDuke":9536,"Ġfunds":9537,"Ġhelps":9538,"Ġmunicipal":9539,"Ġcontemporary":9540,"aret":9541,"Ġintervals":9542,"Ġfermion":9543,"Ġdip":9544,"Image":9545,"asty":9546,"IST":9547,"Ġchampion":9548,"ĠGrant":9549,"ĠWinter":9550,"FS":9551,"wt":9552,"ĠCNN":9553,"Ġindependently":9554,"Ġadapted":9555,"etch":9556,"System":9557,"arial":9558,"Ġguide":9559,"verage":9560,"Ġsale":9561,"Ġinn":9562,"irty":9563,"Ġaccounts":9564,"Ġcas":9565,"ĠPers":9566,"Ġaband":9567,"Ġsettlement":9568,"ienced":9569,"Äį":9570,"Ġclassified":9571,"Ġspons":9572,"ĠSP":9573,"tains":9574,"iliary":9575,"ĠArea":9576,"Ġlisting":9577,"Ġdeclared":9578,"UC":9579,"Ġretrie":9580,"Ġbodies":9581,"ASS":9582,"ĠBrig":9583,"Ġopportunities":9584,"Ġneighbour":9585,"Ġfeas":9586,"Ġproducing":9587,"Ġdropped":9588,"learning":9589,"jpg":9590,"Ġfindings":9591,"Ġdescribing":9592,"Ġfilled":9593,"Ġrapidly":9594,"Service":9595,"Ġcampus":9596,"Ġcomparing":9597,"Ġsmart":9598,"gets":9599,"1900":9600,"Ġdiscussions":9601,"Ġexhibit":9602,"Ġultimately":9603,"anga":9604,"functions":9605,"Ġinfrastructure":9606,"yal":9607,"ĠĠčĊ":9608,"Ġslope":9609,"1919":9610,"Ġlift":9611,"\").":9612,"Ġemail":9613,"Ġyounger":9614,"ĠCR":9615,"Ġlabeled":9616,"';":9617,"agen":9618,"Ġtopic":9619,"Ke":9620,"Ġconverges":9621,"lm":9622,"ubb":9623,"assum":9624,"utt":9625,"Ġmodules":9626,"Ġisolated":9627,"Ġtransformations":9628,"ĠFox":9629,"Background":9630,"Ġstationary":9631,"idge":9632,"Ġmist":9633,"Ġstructural":9634,"Size":9635,"}}\\,":9636,"lywood":9637,"ĠDefinition":9638,"hav":9639,"phy":9640,"Ġlooked":9641,"1914":9642,")).":9643,"1933":9644,"Ġpurchased":9645,"child":9646,"ĠHart":9647,"Ġknew":9648,"alo":9649,"grade":9650,"iÄĩ":9651,"aders":9652,"Ġcyl":9653,"ĠPremier":9654,"Ġcredit":9655,"Ġear":9656,"Ġparticipated":9657,"Ġvent":9658,"|_{\\":9659,"1917":9660,"Ġstone":9661,"Ġmir":9662,"ained":9663,"Ġautomatically":9664,"power":9665,"bec":9666,"rg":9667,"ĠCub":9668,"Ġfiction":9669,"ambig":9670,"Ġgeneralization":9671,"}})$":9672,"International":9673,"Ġcosmological":9674,"Ġcerem":9675,"Ġwish":9676,"ĠAmaz":9677,"void":9678,"ĠOt":9679,"cerning":9680,"oured":9681,"Ġwalls":9682,"Ġlosses":9683,"Ġpixel":9684,"Ġranked":9685,"kish":9686,"spin":9687,"Ġviewed":9688,"ĠBooks":9689,"Ġwasn":9690,"approxim":9691,"Furthermore":9692,"heric":9693,"sg":9694,"ĠNS":9695,"aling":9696,"Ġscoring":9697,"Ġframes":9698,"MD":9699,"Ġmel":9700,"1910":9701,"dev":9702,"unes":9703,"acle":9704,"Ġwinter":9705,"cker":9706,"Ġdefining":9707,"Up":9708,"Ġfounder":9709,"Ġanimal":9710,"Ġeigenvalue":9711,"ĠSwedish":9712,"Ġmoder":9713,"github":9714,"special":9715,"Ã¸":9716,"Ġopposed":9717,"Ġviolence":9718,"istence":9719,"Ġcolors":9720,"123":9721,"ques":9722,"Ã£o":9723,"ĠAthlet":9724,"Ġaudio":9725,"eral":9726,"Ġsignature":9727,"ibilities":9728,"Ġconverted":9729,"curs":9730,"Mark":9731,"author":9732,"default":9733,"ĠAnderson":9734,"Each":9735,"cross":9736,"correspond":9737,"urches":9738,"ĠTa":9739,"ĠDigital":9740,"Ġcomplicated":9741,"1928":9742,"$}}":9743,"HD":9744,"Ġkick":9745,"cha":9746,"Ġhair":9747,"Ġphysic":9748,"lov":9749,"ĠConsider":9750,"connected":9751,"Ġcha":9752,"ennessee":9753,"loss":9754,"vironments":9755,"1929":9756,"Ġlinked":9757,"Ġles":9758,"hot":9759,"Ġyards":9760,"Ġsole":9761,"\"),":9762,"Ġtag":9763,"Ġholding":9764,"Ġfiber":9765,"Ġcapable":9766,"particle":9767,"Gr":9768,"orb":9769,"ĠHand":9770,"ypes":9771,"Ġhappened":9772,"Ġenable":9773,"Ġhabit":9774,"Ġdiameter":9775,"Ġinflation":9776,"ĠWhe":9777,"Ġstorm":9778,"&$":9779,"Ġdecisions":9780,"ulner":9781,"Ġchiral":9782,"ĠHan":9783,"uf":9784,"ponse":9785,"grav":9786,"ĠSpring":9787,"ĠAdditionally":9788,"Ġisomorphic":9789,"Ġconditional":9790,"Ġdistinguish":9791,"1934":9792,"Ġsecure":9793,"Ġstudying":9794,"Ġinhab":9795,"Ġfaculty":9796,"Ġdefeat":9797,"Ġhist":9798,"Recall":9799,"hr":9800,"Ġbiggest":9801,"Ġwel":9802,"ĠRegiment":9803,"ocy":9804,"ribe":9805,"Ġamplitudes":9806,"enna":9807,"larg":9808,"was":9809,"ĠWel":9810,"ĠGree":9811,"ĠNAS":9812,"Ġped":9813,"Ġexcellent":9814,"Ġdream":9815,"ĠTro":9816,"*\\":9817,"struction":9818,"Ġheter":9819,"Ġkinetic":9820,"ĠMean":9821,"desc":9822,"ĠCountry":9823,"BR":9824,"Ġful":9825,"Long":9826,"Men":9827,"Ġnil":9828,"wind":9829,"Ġhero":9830,"mad":9831,"ĠSto":9832,"mode":9833,"lang":9834,"uri":9835,"Ġsubsection":9836,"sts":9837,"aked":9838,"ĠâĢ¦":9839,"ĠMarsh":9840,"Ġfits":9841,"Her":9842,"Ġoutcome":9843,"Ġboost":9844,"1932":9845,"Ġcompatible":9846,"Ġfacilit":9847,"pmb":9848,"Most":9849,"Ġexperiences":9850,"Ġreads":9851,"Ġindependence":9852,"bolic":9853,"ĠLow":9854,"Association":9855,"nowledge":9856,"edding":9857,"Ġending":9858,"Ġgirls":9859,"Writ":9860,"rays":9861,"ushed":9862,"ĠCommand":9863,"Oper":9864,"ĠSweden":9865,"****************":9866,"Ġcouplings":9867,"otional":9868,"Ġpretty":9869,"pin":9870,"Ġwire":9871,"rait":9872,"ĠCL":9873,"Ġpremie":9874,"STATE":9875,"ĠColorado":9876,"citealt":9877,"Ġcontest":9878,"ĠIndiana":9879,"creen":9880,"respect":9881,"Ġgenerators":9882,"icial":9883,"vdots":9884,"wall":9885,"isy":9886,"ivals":9887,"Code":9888,"ĠSky":9889,"Ġflood":9890,"Ġembedded":9891,"ĠIraq":9892,"Mc":9893,"dou":9894,"ĠEth":9895,"night":9896,"Ġcab":9897,"1924":9898,"Ġsurve":9899,"intro":9900,"Ġequipped":9901,"Ġdoll":9902,"period":9903,"!!":9904,"Ġwins":9905,"}&\\":9906,"Ġconformal":9907,"ĠFinal":9908,"Ġdecreasing":9909,"ĠPrinc":9910,"ĠFI":9911,"}~\\":9912,"Ġherself":9913,"mo":9914,"Ġgranted":9915,"Ġtargets":9916,"Ġseats":9917,"Ġfemales":9918,"Ġdownload":9919,"Ġ-->":9920,"outheast":9921,"='":9922,"'$.":9923,"\\,{\\":9924,"Ġclustering":9925,"Ġsuffered":9926,"ipart":9927,"ĠMoh":9928,"ĠAbb":9929,"GR":9930,"Cre":9931,"Ġpractices":9932,"Ġindicating":9933,"Ġpseudo":9934,"Ġterritory":9935,"Cent":9936,"venth":9937,"Ġlogarithm":9938,"ĠConnect":9939,"DD":9940,"Ġfighting":9941,"Ġpm":9942,"Ġjobs":9943,"Ġconvenient":9944,"[]":9945,"Ġauthority":9946,"Ġcancell":9947,"ribute":9948,"ĠKansas":9949,"atorial":9950,"Upsilon":9951,"Ġinterpol":9952,"Ġprobabilities":9953,"Ġhear":9954,"Ġhumans":9955,"gray":9956,"will":9957,"ĠCost":9958,"anglement":9959,"agram":9960,"valued":9961,"Ġclassic":9962,"Ġneighb":9963,"Also":9964,"irement":9965,"ĠJordan":9966,"ĠEqs":9967,"dashed":9968,"aneous":9969,"Ġrenamed":9970,"Ġcounterpart":9971,"Ġsigns":9972,"series":9973,"Play":9974,"short":9975,"Ġdoctor":9976,"ĠCzech":9977,"Ġappearing":9978,"256":9979,"Ġarts":9980,"ĠBefore":9981,"Ġgender":9982,"à¸":9983,"ĠOregon":9984,"ĠSche":9985,"Ġsmallest":9986,"Ġholes":9987,"blem":9988,"last":9989,"uffer":9990,"even":9991,"Ġ..":9992,"ĠNaz":9993,"Ġapplies":9994,"search":9995,"GP":9996,"Ġpoll":9997,"umps":9998,"Ġscholar":9999,"\"|":10000,"Ġpasses":10001,"Ġbed":10002,"ĠCastle":10003,"Ġregarded":10004,"iated":10005,"sequences":10006,"Ġpreced":10007,"ĠEnvironment":10008,"ĠBishop":10009,"Ġsan":10010,"abet":10011,"notin":10012,"tically":10013,"BL":10014,"Config":10015,"Ġreaching":10016,"Ġapproved":10017,"lick":10018,"ĠMS":10019,"Ġtermin":10020,"Ġduration":10021,"Ġ(!":10022,"Ġstatements":10023,"arting":10024,"uy":10025,"ĠBatt":10026,"Ġ}}":10027,"Ġiterations":10028,"ĠProte":10029,"different":10030,"awn":10031,"German":10032,"Ġprepared":10033,"ĠMissouri":10034,"Last":10035,"triang":10036,"igrants":10037,"Ġwealth":10038,"ĠResults":10039,"ĠFellow":10040,"Ġtowns":10041,"utor":10042,"ĠAmong":10043,"Ġrecovery":10044,"ĠStock":10045,"ĠMaria":10046,"Ġtrip":10047,"ĠPoisson":10048,"Ġcarri":10049,"lav":10050,"ĠAny":10051,"ĠNet":10052,"ĠOcean":10053,"Ġmand":10054,"./":10055,"Ġfitted":10056,"rin":10057,"Ġadvent":10058,"atta":10059,"ĠLocal":10060,"Ġpot":10061,"context":10062,"vard":10063,"engers":10064,"Ġreducing":10065,"ĠId":10066,"orted":10067,"ropolitan":10068,"oni":10069,"Ġ/*":10070,"lie":10071,"friend":10072,"Ġhomes":10073,"ĠTurn":10074,"MT":10075,"Ġaid":10076,"rust":10077,"Ġclosure":10078,"elian":10079,"cycle":10080,"Ġjudge":10081,"Ġpointed":10082,"Ġfunctor":10083,"Ġcontradiction":10084,"Ġcomprehens":10085,"=-\\":10086,"ĠGallery":10087,"ĠIndones":10088,"Ġprices":10089,"Ver":10090,"urable":10091,"Ġexposure":10092,"ercise":10093,"Ġbary":10094,"mathbbm":10095,"ĠTurkey":10096,"Ġargued":10097,"Ġcrisis":10098,"Ġrend":10099,"andra":10100,"////////":10101,"French":10102,"lements":10103,"ceived":10104,"evin":10105,"udden":10106,")|\\":10107,"plex":10108,"odge":10109,"Description":10110,"ificial":10111,"ĠHou":10112,"Ġbeautiful":10113,"Ġthousands":10114,"GS":10115,"Ġhall":10116,"ĠDark":10117,"icate":10118,"mt":10119,"western":10120,"Ġsharing":10121,"Home":10122,"Ġengineer":10123,"wegian":10124,"1922":10125,"Ġgeodes":10126,"Ġcalling":10127,"onom":10128,"ĠEU":10129,"Ġguard":10130,"Ġspherical":10131,"alion":10132,"constra":10133,"Ġoccasion":10134,"Ġsplitting":10135,"Before":10136,"Ġreturning":10137,"^*_":10138,"ĠHur":10139,"cover":10140,"Ġawa":10141,"Ġfold":10142,"independent":10143,"Ġneither":10144,"Ġdecays":10145,"ĠMilitary":10146,"Ġrugby":10147,"asi":10148,"ĠMedal":10149,"1927":10150,"actor":10151,"Ġacid":10152,"ĠRoss":10153,"Ġscenes":10154,"Ġopinion":10155,"ativity":10156,"moment":10157,"ĠMember":10158,"imation":10159,"Ġnovels":10160,"ĠSign":10161,"Ġunitary":10162,"hentic":10163,"umul":10164,"Ġpropagation":10165,"130":10166,"rip":10167,"Ġvisited":10168,"ĠAtlantic":10169,"Ġtack":10170,"Ġcircular":10171,"Ġcompens":10172,"ĠFac":10173,"event":10174,"Ġangles":10175,"Ġsubjects":10176,"Ġproposal":10177,"ĠLewis":10178,"Ġpoet":10179,"frame":10180,"Ġpiano":10181,"Ġtitled":10182,"ruck":10183,"Ġdocumentary":10184,"Ġfestival":10185,"Ġinstrument":10186,"Ġchose":10187,"Ãº":10188,"ĠLtd":10189,"specific":10190,"enance":10191,"Ġarrested":10192,"Ġdistricts":10193,"ĠNE":10194,"clos":10195,"card":10196,"ĠFord":10197,"ĠArizona":10198,"Ġdiscovery":10199,"Ġprompt":10200,"ĠCare":10201,"Ġpercentage":10202,"SH":10203,"states":10204,"ĠMiller":10205,"suit":10206,"ĠKitt":10207,"Ġplots":10208,"Em":10209,"Ġexperienced":10210,"ĉĉĉĉĉĉ":10211,"Ġaveraged":10212,"tree":10213,"Ġeasier":10214,"Array":10215,"web":10216,".}\\":10217,"Ġanisot":10218,"Sup":10219,"ednes":10220,"uscript":10221,"Gen":10222,"'}\\":10223,"Ġtaught":10224,"ĠWat":10225,"Ġintegers":10226,"Ġaux":10227,"Women":10228,"dra":10229,"uable":10230,"/**":10231,"ĠMedicine":10232,"UM":10233,"Ġparish":10234,"Ġoccupied":10235,"ĠMarkov":10236,"ĠApple":10237,"ĠJews":10238,"})_{":10239,"Ġrealized":10240,"isms":10241,"Ġtwenty":10242,"exists":10243,"Ġcompletion":10244,"ĠRights":10245,"ĠSquad":10246,"ĠGib":10247,"Var":10248,"substack":10249,"ĠRiemann":10250,"1931":10251,"enses":10252,"Item":10253,"ĠFermi":10254,"Ġlists":10255,"ĠAz":10256,"Left":10257,"Ġsac":10258,"Ġdisplayed":10259,"ĠMonday":10260,"ounded":10261,"ĠSingapore":10262,"Ham":10263,"Ġordinary":10264,"Ġdiverse":10265,"Ġnan":10266,"ĠRoute":10267,"ĠJoh":10268,"scriptscriptstyle":10269,"ĠCaptain":10270,"Ġsand":10271,"ĠMun":10272,"Ġoperate":10273,"Ġdiscover":10274,"ĠCab":10275,"ifest":10276,"Song":10277,"Ġcone":10278,"rea":10279,"ĠStory":10280,"Christ":10281,"sd":10282,"Ġplotted":10283,"Ġformally":10284,"Ġhotel":10285,"jk":10286,"Ġmal":10287,"Ġturbul":10288,"Ġaffine":10289,"âĢĺ":10290,"1925":10291,"ĠKer":10292,"stan":10293,"ĠShort":10294,"Ġworst":10295,"Ġmarkets":10296,"ĠAdd":10297,"ĠAh":10298,"thew":10299,"Ġenvironments":10300,"Ġtrajectories":10301,"1921":10302,"ĠRic":10303,"Ġrenormal":10304,"syn":10305,"Ġpeaks":10306,"dual":10307,"assert":10308,"}}=\\":10309,"ĠEP":10310,"ĠTennessee":10311,"oscow":10312,"uma":10313,"null":10314,"Ġprogramme":10315,"Ġfaces":10316,"Ġloan":10317,"Ã©s":10318,"iline":10319,"ĠĠĠĠĠĠĠĠĊ":10320,"ictionary":10321,"Ġvot":10322,"ĠAI":10323,"ĠDirac":10324,"edia":10325,"ĠToday":10326,"âĢĿ,":10327,"Ġharmonic":10328,"ĠMemorial":10329,"Public":10330,"elson":10331,"aks":10332,"ĠDom":10333,"aware":10334,"ĠAmb":10335,"Ġexplos":10336,"ĠPier":10337,"Ġwhenever":10338,"Ġdt":10339,"etails":10340,"Ġvariant":10341,"Ġagency":10342,"Ġcondens":10343,"fast":10344,"manifold":10345,"ospit":10346,"raise":10347,"ĠQCD":10348,"atics":10349,"Bel":10350,"1912":10351,"ãĤ":10352,"orous":10353,"Ġwrest":10354,"Ġintern":10355,"Ġmit":10356,"Ġdiscret":10357,"Dep":10358,"Ġdomestic":10359,"Ġnegot":10360,"Ġsharp":10361,"herence":10362,"gi":10363,"Ġmargin":10364,"olis":10365,"ĠAlf":10366,"Ġcausing":10367,"PN":10368,"Ġaf":10369,"Ġpromote":10370,"ĠTownship":10371,"Ġprofession":10372,"1926":10373,"Ġconcerned":10374,"omatic":10375,"High":10376,"ĠBrother":10377,"Ġperturbations":10378,"')$":10379,"Ġdispl":10380,"Ġneur":10381,"ursday":10382,"Ġorbits":10383,"Bigl":10384,"ragon":10385,"requency":10386,"Ġlatent":10387,"ĠKat":10388,"ivered":10389,"Ġsurn":10390,"Rad":10391,"ĠHop":10392,"eping":10393,"Ġmathematical":10394,"next":10395,"ĠSav":10396,"Rightarrow":10397,"Ġ$\\|":10398,"expected":10399,"Ġpurchase":10400,"enz":10401,"Ġnarr":10402,"uple":10403,")&":10404,"Ġraise":10405,"ĠMit":10406,"fficial":10407,"between":10408,"Ġtrains":10409,"Ġcertainly":10410,"oustic":10411,"Ġattached":10412,"Ġgene":10413,"\\,,":10414,"duate":10415,")}_{\\":10416,"ĠArthur":10417,"Ġreform":10418,"through":10419,"iability":10420,"Ġ}{\\":10421,"Biography":10422,"img":10423,"ĠSE":10424,"coll":10425,"ymph":10426,"Ġseparately":10427,"lyn":10428,"lu":10429,"Sche":10430,"domain":10431,"Ġsteady":10432,"Ġtower":10433,"how":10434,"Ġdevi":10435,"ĠRE":10436,"115":10437,"Ġmessages":10438,"'d":10439,"Bo":10440,"ĠDa":10441,"Ġdecade":10442,"ĠNFL":10443,"Ġhardware":10444,"isition":10445,"ĠPur":10446,"iley":10447,"cu":10448,"Ġsparse":10449,"Ev":10450,"Ġmob":10451,"Ġspeaking":10452,"ipe":10453,"Ġpainting":10454,"ĠAp":10455,"scope":10456,"Ġscheduled":10457,"Ġcollisions":10458,"ĠSerb":10459,"Main":10460,"}<":10461,"select":10462,"ĠStaff":10463,"Ġranges":10464,"ĠMaryland":10465,"Ġrout":10466,"|=":10467,"MF":10468,"1923":10469,"Ġsignificance":10470,"aro":10471,"stances":10472,"ĠPitt":10473,"uther":10474,"ĠBrand":10475,"ĠChildren":10476,"Ġswe":10477,"Ġcovariance":10478,"antasy":10479,"Ġelementary":10480,")=(":10481,"Ġgovernor":10482,"erg":10483,"Ġheavily":10484,"West":10485,"Ġconfirm":10486,"Ġdipl":10487,"Ġinterference":10488,"vy":10489,"plus":10490,")|^":10491,"Ġdwar":10492,"BF":10493,"fortunately":10494,"Ġmount":10495,"Gener":10496,"pet":10497,"Ġprojective":10498,"ĠCart":10499,"Ġpun":10500,"Ġrevers":10501,"Call":10502,"Ġopposition":10503,"ĠPhilippines":10504,"layer":10505,"ĠCra":10506,"Ġplatforms":10507,"anner":10508,"coordin":10509,"ĠMagazine":10510,"Ġment":10511,"ashi":10512,"bc":10513,"agues":10514,"Ġparliament":10515,".},":10516,"oref":10517,"Ġantic":10518,"Ġmm":10519,"Ġregistered":10520,"Ġatom":10521,"Ġnob":10522,"RT":10523,"Ġsubsets":10524,"false":10525,"Ġjournalist":10526,"util":10527,"Ġcollapse":10528,"Ġgreatest":10529,"Ġsatellite":10530,"Ġconsumption":10531,"Ġpilot":10532,"Port":10533,"Ġsituations":10534,"Ġsegmentation":10535,"Ġcav":10536,"akers":10537,"Ġabstract":10538,"ships":10539,"Ġinterests":10540,"Ġdesigns":10541,"ĠIS":10542,"ĠTransport":10543,"okes":10544,"Ġmanip":10545,"Message":10546,"ocket":10547,"Ġdiffer":10548,"ologists":10549,"Olymp":10550,"rine":10551,"AU":10552,"bes":10553,"ĠKey":10554,"Ġbuff":10555,"ureau":10556,"Ġcomposer":10557,"ĠAffairs":10558,"ĠCommunic":10559,"Ġdescript":10560,"Ġvalidation":10561,"Ġoffering":10562,"eh":10563,"dep":10564,"DT":10565,"Ġdisjoint":10566,"ĠKhan":10567,"Ġchoosing":10568,"itzerland":10569,"Ġpixels":10570,"ulator":10571,"ĠEntertainment":10572,"'',":10573,"Ġrecur":10574,"Ġmental":10575,"ĠCru":10576,"ĠSri":10577,"Ġpresc":10578,"orient":10579,"ĠLeon":10580,"Ġrows":10581,"oping":10582,"illed":10583,"ĠMunic":10584,"ĠHighway":10585,"Ġcorrespondence":10586,"ligible":10587,"Step":10588,"ĠDor":10589,"Ġdepicted":10590,"ĠVo":10591,"else":10592,"lfloor":10593,"Ġcro":10594,"ĠObserv":10595,"Ġadaptation":10596,"DI":10597,"create":10598,"ĠControl":10599,"Ġaccompl":10600,"Ġspacetime":10601,"William":10602,"%.":10603,"Ġalleged":10604,"Point":10605,"Ġseeing":10606,"Ġbought":10607,"1916":10608,"ĠGh":10609,"lan":10610,"Ġperforms":10611,"ĠNick":10612,"Ġjourney":10613,"Ġconcepts":10614,"Off":10615,"uity":10616,"Ġpulse":10617,"ĠForeign":10618,"Ġtechnologies":10619,"oidal":10620,"'$,":10621,"Ġmort":10622,"rfloor":10623,"Ġcenters":10624,"Ġracing":10625,"Ġinstitution":10626,"Ġrenew":10627,"ĠEric":10628,"encing":10629,"Ġexplanation":10630,"Ġnormalization":10631,"Ġrein":10632,"elines":10633,"Ġstanding":10634,"pdate":10635,"Ġreplic":10636,"ĠStandard":10637,"icted":10638,"ĠTan":10639,"Ġthinking":10640,"Ġanalyzed":10641,"Ġdry":10642,"Ġdecor":10643,"rev":10644,"Ġsuffic":10645,"Ġtriangle":10646,"Us":10647,"Ġmarginal":10648,"Ġreaches":10649,"Ġcoun":10650,"Ġshel":10651,"Ġconsideration":10652,"Bigr":10653,"Ġgiant":10654,"Ġsight":10655,"Ġplease":10656,"1915":10657,"Pat":10658,"ĠFood":10659,"wich":10660,"ĠColon":10661,"Ġabundance":10662,"uesday":10663,"ipping":10664,"Ġshares":10665,"ednesday":10666,"Acknowledg":10667,"ipation":10668,"Ġintelligence":10669,"ĠHerm":10670,"Ġadvoc":10671,"Ġoutper":10672,")}=":10673,"roscopic":10674,"newline":10675,"ĠHarry":10676,"fefefe":10677,"ĠHom":10678,"Ġsho":10679,"Ġrealistic":10680,"igenous":10681,"oven":10682,"arma":10683,"}\\!":10684,"iliar":10685,"Ġ$[\\":10686,"Ġnearest":10687,"Ġinterpreted":10688,"magn":10689,"Ġanalytical":10690,"Ġproperly":10691,"ĠOfficer":10692,"supervised":10693,"Ġskin":10694,"ĠDra":10695,"Ġ};":10696,"bib":10697,"Ġintrinsic":10698,"ntz":10699,"Ġupdates":10700,"Rev":10701,"Ġdelivery":10702,"Ġincreasingly":10703,"Ġimaging":10704,"aten":10705,"ĠĠĠĠĠĠĠĠĠĠĠĠĠĠĠĠĠĠĠĠ":10706,"orters":10707,"include":10708,"Ġbranches":10709,"North":10710,"ĠNewton":10711,"three":10712,"\"\"":10713,"Ġvolunte":10714,"Ġvanishes":10715,"uber":10716,"VM":10717,"Ġcriterion":10718,"Ġgar":10719,"Because":10720,"written":10721,"Ġsemantic":10722,"Ġwavelength":10723,"ifiers":10724,"Ġdesignated":10725,"Dec":10726,"Ġenhanced":10727,"ĠExecutive":10728,"Ġpenalty":10729,"Ġcontributed":10730,"Ġadmits":10731,"Ġconcrete":10732,"Ġcommitted":10733,"Euro":10734,"ĠArk":10735,"Ġcircles":10736,"ĠMir":10737,"kg":10738,"Ġattempted":10739,"iami":10740,"Ġresc":10741,"uj":10742,"iday":10743,"ĠAP":10744,">>":10745,"ĠChannel":10746,"iversary":10747,"Canadian":10748,"ductor":10749,"Ġdrivers":10750,"utr":10751,"ĠFa":10752,"}\\;":10753,"roller":10754,"triangle":10755,"105":10756,"Ġworldwide":10757,"Ma":10758,"Vis":10759,"ĠBaron":10760,"Ġoffset":10761,"Ġwal":10762,"ĠNorm":10763,"Ġconsistency":10764,"iÃ³n":10765,"fee":10766,"ĠSO":10767,"Ġroyal":10768,"lb":10769,"Ġguest":10770,"ĠCatal":10771,"ĠMA":10772,"ĠModern":10773,"140":10774,"Ġmechanical":10775,"Ġcooling":10776,"bounded":10777,"=\"../../../../":10778,"Ġarise":10779,"ĠMatt":10780,"sort":10781,"ĠBh":10782,"len":10783,"Ġcounts":10784,"Ġsupposed":10785,"&-":10786,"ruption":10787,"super":10788,"close":10789,"Ġtrunc":10790,"ĠEuclidean":10791,"ĠCarlo":10792,"finished":10793,"chitz":10794,"ĠCP":10795,"Ġanalogous":10796,"ĠIowa":10797,"Ġpod":10798,"Ġburied":10799,"ĠFederation":10800,"central":10801,"Ġimpossible":10802,"Ġdiversity":10803,"ĠBrian":10804,"Ġ});":10805,"prise":10806,"Ġcombat":10807,"via":10808,"Ca":10809,"ĠRose":10810,"incess":10811,"complex":10812,"Ġmonot":10813,"ĠJane":10814,"isons":10815,"ĠBat":10816,"STM":10817,"Aug":10818,"ĠDE":10819,"Ġdelivered":10820,"Ġcriminal":10821,"Ġschedule":10822,"Ġcycles":10823,"ĠEnt":10824,"cers":10825,"Ġinstalled":10826,"Ġadult":10827,"Ġweapons":10828,"ĠMoscow":10829,"autoref":10830,"Ġkinem":10831,"Acc":10832,"onomy":10833,"Ġaccommod":10834,"Ġmanagers":10835,"Ġsynthetic":10836,"Assume":10837,"Japan":10838,"alf":10839,"incial":10840,"}))":10841,"Ġvocal":10842,"Ġvulner":10843,"Ġordering":10844,"craft":10845,"Ġwonder":10846,"Ġhomot":10847,"success":10848,"irtual":10849,"Ġtracking":10850,"taining":10851,"perimental":10852,"Ġcrowd":10853,"Ġoutputs":10854,"func":10855,"tb":10856,"Ġcod":10857,"ĠVietnam":10858,"700":10859,"####":10860,"Ġguarantee":10861,"Ġpermanent":10862,"door":10863,"Ġchapter":10864,"Ġclassifier":10865,"living":10866,"placement":10867,"Awards":10868,"]^{":10869,"dz":10870,"Read":10871,"person":10872,"vskip":10873,"agan":10874,"ĠBuilding":10875,"uts":10876,"Ġsin":10877,"Ġ$$\\":10878,"description":10879,"roit":10880,"Ġsteel":10881,"dam":10882,"Ġdeduce":10883,"ensis":10884,"Ġmolecules":10885,"rase":10886,"Ġĉ":10887,"wick":10888,"racks":10889,"ĠAssume":10890,"Ġcentered":10891,"111":10892,"Ġconnecting":10893,"hole":10894,"Result":10895,"Ġamounts":10896,"ingham":10897,"show":10898,"Ġillustrate":10899,"Ġstores":10900,"Ġmales":10901,"Ġconcluded":10902,"Ġutility":10903,"Ġexpensive":10904,"perturb":10905,"Ġmaintained":10906,"Ġsep":10907,"Ġeducational":10908,")),":10909,"Ġexponent":10910,"family":10911,"Bra":10912,"@{}":10913,"ĠNorway":10914,"ĠRoy":10915,"Olympic":10916,"ĠMexican":10917,"don":10918,"Ġpresentation":10919,"ivation":10920,"ĠCook":10921,"ccc":10922,"redit":10923,"ĠCode":10924,"mic":10925,"Black":10926,"'=":10927,"mers":10928,"Current":10929,"theory":10930,"target":10931,"ÃŃa":10932,"ardo":10933,"illery":10934,"Ġgone":10935,"Ġremember":10936,"}.\\":10937,"ĠAdministration":10938,"Ġcof":10939,"rainian":10940,"google":10941,"rolled":10942,"ĠJunior":10943,"Prop":10944,"Vol":10945,"Ġcoherent":10946,"Ġdil":10947,"ĠAge":10948,"Ġsubstantial":10949,"Ġweakly":10950,"Function":10951,"Ġclients":10952,"Life":10953,"IO":10954,"Ġconvention":10955,"Ġrely":10956,"Ġban":10957,"ĠBab":10958,"issue":10959,"Ġapplicable":10960,"elescope":10961,"Ġbars":10962,"olo":10963,"Ġec":10964,"matic":10965,"Ġseek":10966,"Ġbrown":10967,"Ġram":10968,"1913":10969,"earing":10970,"Ġbroke":10971,"ĠSimon":10972,"channel":10973,"Tube":10974,"coln":10975,"abama":10976,"doc":10977,"subfloat":10978,"conv":10979,"frared":10980,"Ġ&$":10981,"Ġmarketing":10982,"Ġsixth":10983,"Arch":10984,"Ġda":10985,"weak":10986,"merce":10987,"Ġaims":10988,"HM":10989,"uchy":10990,"WS":10991,"bd":10992,"Ġkid":10993,"ĠAnalysis":10994,"Ġ{{\\":10995,"Ġforming":10996,"wealth":10997,"Ġoutcomes":10998,"Ġterror":10999,"Ġreflection":11000,"Ġoutl":11001,"ahoma":11002,"Ġtopics":11003,"Ġcombining":11004,"ĠMalays":11005,"~(":11006,"ĠSenior":11007,"Base":11008,"Ġreliable":11009,"inch":11010,"ikh":11011,"Ġcohom":11012,"Ġchairman":11013,"KS":11014,"Ġille":11015,"Similarly":11016,"uda":11017,"Ġcorrelated":11018,"Ġmedalists":11019,"ĠRepresentatives":11020,"Ġenables":11021,"Star":11022,"nie":11023,"ĠVideo":11024,"Ġatmosphere":11025,"Ġlect":11026,"Ġhelping":11027,"Ġmixture":11028,"uese":11029,"istically":11030,"umin":11031,"ĠLemmon":11032,"Ġsuperv":11033,"Ġhun":11034,"ĠIP":11035,"Ġthread":11036,"ĠGL":11037,"ĠPage":11038,"Ġvelocities":11039,"overset":11040,"ĠGuide":11041,"ĠAnne":11042,"Ġjoining":11043,"random":11044,"poly":11045,"Ġresid":11046,"fr":11047,"Ġrecon":11048,"ĠTony":11049,"Ġlinearly":11050,"Ġreveals":11051,"Ġstored":11052,"atin":11053,"elve":11054,"ĠAmazon":11055,"Hy":11056,"Ġcomplement":11057,"rez":11058,"istant":11059,"posit":11060,"Ġaccompan":11061,"TM":11062,"Ġusage":11063,"Ġroof":11064,"Leg":11065,"ĠAGN":11066,"ghan":11067,"ĠBos":11068,"Ġphenomenon":11069,"ĠJam":11070,"Ġsuffices":11071,"CF":11072,"Ġcompetitive":11073,"etary":11074,"ĠLiter":11075,"rena":11076,"Film":11077,"renew":11078,"Ġnonzero":11079,"Ġincorporated":11080,"Ġrestrictions":11081,"lad":11082,"Ġ}$":11083,"izable":11084,"het":11085,"Ġfaced":11086,"Ø§":11087,"ĠAlice":11088,"Ġmere":11089,"ĠRegional":11090,"eger":11091,"Ġstim":11092,"ĠDream":11093,"112":11094,"Ġkilling":11095,"take":11096,"Ġna":11097,"Ġgather":11098,"anes":11099,"ĠAssoci":11100,"Ġdog":11101,"Ġrain":11102,"iration":11103,"Ġportray":11104,"glas":11105,".(\\":11106,"iot":11107,"Ġfusion":11108,"urns":11109,"ĠSound":11110,"ifting":11111,"Local":11112,"Ġreplacement":11113,"ĠSeason":11114,"Ġsampled":11115,"Ġhydrogen":11116,"Ġproves":11117,"ĠSquare":11118,"Si":11119,"Ġvillages":11120,"fol":11121,"Ġdates":11122,"Ġconjecture":11123,"ĠVari":11124,"Input":11125,"ĠChall":11126,"Many":11127,"ĠAL":11128,"ĠRab":11129,"Ġtheatre":11130,"ĠMelbourne":11131,"Ġsegments":11132,"ĠVin":11133,"imod":11134,"ĠBaseball":11135,"ĠGab":11136,"Element":11137,"ĠCA":11138,"Ġcharts":11139,"Ġcompris":11140,"tah":11141,"Ġsought":11142,"=(\\":11143,"ĠPA":11144,"$(\\":11145,"{[":11146,"ĠTen":11147,"Ġstopped":11148,"klahoma":11149,"ĠThird":11150,"ĠGreece":11151,"})-":11152,"determ":11153,"degree":11154,"Ġkids":11155,"Ġlogic":11156,"element":11157,"Tax":11158,"Ġconcerning":11159,"1908":11160,"Ġshortly":11161,"eding":11162,"ĠKentucky":11163,"oyd":11164,"Ġimplicit":11165,"Den":11166,"EEE":11167,"eto":11168,"ĠManchester":11169,"Ġhyperbolic":11170,"Ġexamine":11171,"Ġinduces":11172,"Ġoverlap":11173,"ĠSpacewatch":11174,"ĠCooper":11175,"Ġprocedures":11176,"than":11177,"Run":11178,"Ġfavour":11179,"udi":11180,"Ġnominated":11181,"Ġarrival":11182,"GE":11183,"gressive":11184,"metric":11185,"ouses":11186,"Ġbrothers":11187,"Hel":11188,"Ġfly":11189,"sn":11190,"rett":11191,"Open":11192,"Ġ\\,,":11193,"aintenance":11194,"changed":11195,"XX":11196,"Ġforecast":11197,"osition":11198,"Ġconversion":11199,"Ġremainder":11200,"ictional":11201,"Ġ$<":11202,"Ġoldest":11203,"Ġaer":11204,"estion":11205,"\\|_{\\":11206,"ĠSwitzerland":11207,"Ġfalls":11208,"Ġhomomorphism":11209,"Ġbringing":11210,"Af":11211,"vens":11212,"Ġdisput":11213,"Ġintegrals":11214,"ortheast":11215,"ippi":11216,"potential":11217,"uality":11218,"ipschitz":11219,"Ġgoods":11220,"Ġjustice":11221,"Ġpartnership":11222,"Ġentity":11223,"Ġpole":11224,"Ġstrike":11225,"Pres":11226,"ĠSpecifically":11227,"Bibliography":11228,"achelor":11229,"Ġprobe":11230,"Ġinfinity":11231,"Ġreligion":11232,"Ġsudden":11233,"ĠBah":11234,"Ġinfluenced":11235,"Ġmanuscript":11236,"Ġimprovements":11237,"Ġairport":11238,"Ġdifficulty":11239,"shape":11240,"Ġrecovered":11241,"Ġaged":11242,"Ġsettled":11243,"eget":11244,"Ġintroducing":11245,"ĠGram":11246,"Ġbath":11247,"Ġconstrained":11248,"$&$":11249,"1911":11250,"component":11251,"ĠSn":11252,"ĠBased":11253,"aman":11254,"Stud":11255,"ĠView":11256,"plectic":11257,"Ġquotient":11258,"Ġfoundation":11259,"ournals":11260,"bits":11261,"ressive":11262,"Ġworse":11263,"Ġscientists":11264,"Ġaccessible":11265,"ĠUl":11266,"hn":11267,"ME":11268,"Ġspan":11269,"Ġhur":11270,"ĠCond":11271,"ĠAgency":11272,"ĠDeep":11273,"Ġrecurs":11274,"ĠTokyo":11275,"ĠTO":11276,"Ġthermod":11277,"ĠWy":11278,"ĠMarc":11279,"noise":11280,"entry":11281,"ĠLearning":11282,"charge":11283,"}=(":11284,"User":11285,"ĠHD":11286,"Ġgrows":11287,"inema":11288,"$_{\\":11289,"Ġtunnel":11290,"jections":11291,"Ġpump":11292,"ublin":11293,"Ġcombinations":11294,"Ġha":11295,"CN":11296,"ĠBH":11297,"Ġintersect":11298,"Ġanomal":11299,"Ġprojected":11300,"Ġslowly":11301,"Ġexhibition":11302,"Ġproven":11303,"Ġshut":11304,"iva":11305,"Ġeducated":11306,"Ġstarring":11307,"apache":11308,"ĠNav":11309,"Gs":11310,"ĠStone":11311,"Ġsensor":11312,"Ġsoci":11313,"ĠMap":11314,"Ġattributes":11315,"itecture":11316,"Ġfulfill":11317,"unny":11318,"UV":11319,"ders":11320,"rats":11321,"Ġasymptot":11322,"rences":11323,"icide":11324,"Ġhorse":11325,"\\/":11326,"Ġfinitely":11327,"ĪĴ":11328,"Ġkil":11329,"hist":11330,"ĠDNA":11331,"Ġcustomer":11332,"dif":11333,"ariate":11334,"both":11335,"inth":11336,"Ġfol":11337,").}":11338,"}_+":11339,"Ġembeddings":11340,"CV":11341,"'}$":11342,"ĠFM":11343,"Ġwait":11344,"Ġcuts":11345,"Ġencoding":11346,"Wind":11347,"Ġapprec":11348,"Ġsees":11349,"Ġcomfort":11350,"Ġquadr":11351,"Ġphon":11352,"Ġcaught":11353,"stud":11354,"Ro":11355,"Ġargue":11356,"Ġ^{\\":11357,"Mich":11358,"ĠDiego":11359,"ĠNig":11360,"^-$":11361,"sharp":11362,"ĠâĢ¢":11363,"))$.":11364,"viously":11365,"entric":11366,"Ġentanglement":11367,"Phys":11368,"Ġshooting":11369,"pair":11370,"itic":11371,"Geography":11372,"Ġgenerality":11373,"Ġcaptain":11374,"ĠFull":11375,"Ġposted":11376,"Ġdisorder":11377,"Ġblog":11378,"ĠPhot":11379,"ĠSilver":11380,"Ñĥ":11381,"Sources":11382,"Ġbid":11383,"aron":11384,"abric":11385,"enny":11386,"Ġfacts":11387,"Ġlegend":11388,"Sportspeople":11389,"Ġattribute":11390,"ĠHouston":11391,"ĠTraining":11392,"Ġdeformation":11393,"}_{{\\":11394,"ĠSupport":11395,"Ġformulas":11396,"Ġdiscrimin":11397,"icut":11398,"David":11399,"Ġflo":11400,"113":11401,"hyper":11402,"umerical":11403,"erick":11404,"Ġsuit":11405,"Orig":11406,"Ġbits":11407,"ridges":11408,"Date":11409,"sson":11410,"Ġinher":11411,"Ġpromotion":11412,"Ġleaf":11413,"Ġhappy":11414,"apel":11415,"ĠComb":11416,"Gra":11417,"ĠRemark":11418,"dir":11419,"radius":11420,"%,":11421,"islation":11422,"deep":11423,",.":11424,"Hon":11425,"Ġschol":11426,"ĠHoly":11427,"Ġminute":11428,"114":11429,"}(-":11430,"displaymath":11431,"induced":11432,"Ġconservative":11433,"cently":11434,"ateur":11435,"Ġactivation":11436,"Ġranking":11437,"Ġglob":11438,"^+\\":11439,"fields":11440,"Ġsrc":11441,"kee":11442,"ĠHeart":11443,")!":11444,"Ġbatch":11445,"Ġparticipate":11446,"Ġsynchron":11447,"ĠDonald":11448,"ĠLank":11449,"Ġbronze":11450,"ĠRight":11451,"Ġtransmit":11452,"eval":11453,"ATION":11454,"ĠYang":11455,"ĠCape":11456,"ĠKy":11457,"Ġrevenue":11458,"Ġlake":11459,"Ġunstable":11460,"Ġmembership":11461,"Ġencoder":11462,"Ġannounce":11463,"\\!\\!\\!\\!":11464,"}}}{":11465,"Ġheadquarters":11466,"aza":11467,"Ġcoaches":11468,"Ġformerly":11469,"ĠRoll":11470,"Ġinstability":11471,"ĠPDF":11472,"Ġveter":11473,"centerline":11474,"Ġcritics":11475,"Video":11476,"Ġrefused":11477,"ensed":11478,"Ġdrums":11479,"Ġexecuted":11480,"Ġassessment":11481,"ynasty":11482,"Ġraw":11483,"Ġacknowled":11484,"Ġvo":11485,"ync":11486,"Death":11487,"Definition":11488,"Ġclock":11489,"isting":11490,"ĠAllen":11491,"Ġdetermines":11492,"Ġhits":11493,"ĠPatrick":11494,"GD":11495,"360":11496,"equival":11497,"ĠNich":11498,"Ġjava":11499,"Populated":11500,"Ġdiscontin":11501,"essions":11502,"Ġru":11503,"--------------------------------":11504,"ĠAli":11505,"ĠMoore":11506,"ĠBlo":11507,"Ġassistance":11508,"ĠMoon":11509,"Ġremote":11510,"itial":11511,"oca":11512,"underset":11513,"Ġwindows":11514,"Plot":11515,"ĠAction":11516,"Ġtrav":11517,"factor":11518,"Ġsituated":11519,"arry":11520,"Ġstrings":11521,"ĠJesus":11522,"ĠAustria":11523,"ĠVice":11524,"aire":11525,"ere":11526,"ĠNik":11527,"}_{(":11528,"ĠEinstein":11529,"Ġlandscape":11530,"Ġmesh":11531,"ĠRyan":11532,"Ġchains":11533,"ĠRecall":11534,"isations":11535,"Ġongoing":11536,"Ġfavorite":11537,"ĠTemple":11538,"Manager":11539,"ĠImm":11540,"ĠAlbert":11541,"DO":11542,"Ġdy":11543,"Ġgreatly":11544,"ĠThursday":11545,"ĠSoft":11546,"burn":11547,"Ġalignment":11548,"Oct":11549,"zi":11550,"Ġentitled":11551,"ĠLind":11552,"ĠHans":11553,"Ġbrings":11554,"ĠIr":11555,"Ġteachers":11556,"Ġfear":11557,"finement":11558,"aments":11559,"ĠBarn":11560,"coupl":11561,"Ġing":11562,"Ġemergency":11563,"ĠBureau":11564,"ĠTurkish":11565,"uct":11566,"comment":11567,"mathds":11568,"ista":11569,"ĠConstitution":11570,"issippi":11571,"ĠĠĠĠĠĠĠĠĠĠĠĠĠĠĠĠĠĠ":11572,"Ġcollective":11573,"Ġstreets":11574,"ĠOp":11575,"Action":11576,"Ġfault":11577,"SN":11578,"ĠRy":11579,"}}}$":11580,"Ġmining":11581,"MO":11582,"Ġsons":11583,"Ġmanage":11584,"Ġcomprehensive":11585,"Ġauxiliary":11586,"ataset":11587,"Ġexplored":11588,"package":11589,"Ġlose":11590,"Ġguess":11591,"},{\\":11592,"Ġpron":11593,"Ġfranch":11594,"Ġexplains":11595,"Ġham":11596,"ĠScient":11597,"ĠGall":11598,"tainer":11599,"Ġdemoc":11600,"Block":11601,"rison":11602,"Ġgenerates":11603,"Est":11604,"ĠNGC":11605,"ĠWhit":11606,"Ġvoltage":11607,"enez":11608,"Ġjun":11609,"Ġcarrying":11610,",~":11611,"VI":11612,"ĠDeath":11613,"ĠNatural":11614,"analysis":11615,"lee":11616,"ĠImage":11617,"vertex":11618,"ĠFront":11619,"thon":11620,"Ġsucceeded":11621,"Phil":11622,"ĠSaf":11623,"ĠIT":11624,"endar":11625,"alaxy":11626,"iece":11627,"Ġpotentials":11628,"making":11629,"Ġinvolve":11630,"={\\":11631,"ooking":11632,"Ġeffectiveness":11633,"ĠAlabama":11634,"wen":11635,"Ġarrive":11636,"ĠBeng":11637,"aze":11638,"Ġattacked":11639,"ĠAnthony":11640,"Ġassets":11641,"ĠDur":11642,"Ġtroub":11643,"ĠLaure":11644,"}\\}$":11645,"Ġtemplate":11646,"Just":11647,"uced":11648,"renewcommand":11649,"gon":11650,"Ġweekend":11651,"ĠMarine":11652,"sample":11653,"$--":11654,"Ġrevolution":11655,"Ġsnow":11656,"Ġmil":11657,"UK":11658,"ĠSix":11659,"Ġpersons":11660,"Ġoffices":11661,"ĠDisney":11662,"Ġsurprising":11663,"Ġpresidential":11664,"Ġinstruments":11665,"Ġmonitoring":11666,"Ġboson":11667,"ĠMeV":11668,"ĠTuesday":11669,"à¥":11670,"UL":11671,"conver":11672,"Ġtall":11673,"Ġprinciples":11674,"ĠCov":11675,"ĠJay":11676,"Ġ\\#":11677,"ĠHarris":11678,"Ġhundreds":11679,"ĠĠĠĠĠĠĠĠĠĠĠĠĊ":11680,"Ġsympt":11681,"Ġabuse":11682,"ĠSel":11683,"nik":11684,"rior":11685,"cp":11686,"Ġbinding":11687,"uris":11688,"ĠGard":11689,"Number":11690,"Ġdecide":11691,"ĠHu":11692,"ĠEarly":11693,"otte":11694,"Ġboot":11695,"ounced":11696,"Ġnumerically":11697,"modules":11698,")\\,\\":11699,"Label":11700,"MI":11701,"\\-":11702,"ĠHoward":11703,"Ġtends":11704,"global":11705,"ĠEag":11706,"ographical":11707,"ĠWednesday":11708,"(|":11709,"Ġshear":11710,"hythm":11711,"ĠMD":11712,"oda":11713,"Cap":11714,"Ġpublisher":11715,"Ġaccum":11716,"Ġresponsibility":11717,"Example":11718,"Ġexperts":11719,"ecture":11720,"Ġfewer":11721,"Ġunde":11722,"ĠTreat":11723,"Ġformalism":11724,"Ang":11725,"Cell":11726,"Ġunus":11727,"Ġtropical":11728,"distance":11729,"Ġelliptic":11730,"Ġ((":11731,"ĠHas":11732,"omas":11733,"wang":11734,"Ġmas":11735,"ilst":11736,"Ð²":11737,"Bas":11738,"Ġrating":11739,"Ġpatch":11740,"Australian":11741,"Ġ->":11742,"Ġrelaxation":11743,"Ġri":11744,"ambiguation":11745,"ĠBry":11746,"\\,.":11747,"uniform":11748,"expl":11749,"Ġenemy":11750,"Ġinhib":11751,"similar":11752,"Ġgrade":11753,"Ġadvice":11754,"ĠGreg":11755,"ĠDoctor":11756,"ĠChem":11757,"ige":11758,"Ġpurely":11759,"ando":11760,"master":11761,"ymn":11762,"css":11763,"Ġcosmic":11764,"php":11765,"*{-":11766,"given":11767,"ĠFarm":11768,"Ġtranslated":11769,"hs":11770,"consistent":11771,"away":11772,"Ġevening":11773,"dor":11774,"ĠThough":11775,"Ġlengths":11776,"ĠOnline":11777,"ĠNative":11778,"1905":11779,"ĠKaz":11780,"BP":11781,"Ġheads":11782,"Ġexcitation":11783,"GG":11784,"allas":11785,"Ġpublications":11786,"Ġassignment":11787,"ĠChile":11788,"ĠEdition":11789,"ĠColomb":11790,"ĠPas":11791,"Ġengaged":11792,"single":11793,"Why":11794,"ĠPlace":11795,"Ġfeeling":11796,"ilinear":11797,"ĠKo":11798,"chell":11799,"ĠEarl":11800,"?\"":11801,"Ġmerged":11802,"Ġultra":11803,"Sty":11804,"Ġencoun":11805,"Ġunity":11806,"ĠSystems":11807,"ĠNevertheless":11808,"Ġmultiplication":11809,"Ġresponses":11810,">&":11811,"Ġpreferred":11812,"ĠHotel":11813,"Ġnice":11814,"optimal":11815,"ĠQueensland":11816,"Ġpy":11817,"ĠĠĠĠĠĠĠĠĠĠĠĠĠĠĠĠĠĠĠĠĠ":11818,"eron":11819,"ĠDick":11820,"ĠNev":11821,"owned":11822,"sized":11823,"Ġvast":11824,"lights":11825,"uties":11826,"front":11827,"Ġcorrectly":11828,"Ġrecommended":11829,"abolic":11830,"ĠSport":11831,"Ġreaders":11832,"Ġboat":11833,"ĠBou":11834,"ean":11835,"ECT":11836,"Ġturning":11837,"Ġsear":11838,"^{[":11839,"ĠWindows":11840,"Ġconstitution":11841,"Ġfeasible":11842,"Ġanten":11843,"ĠLorentz":11844,"Ġextraction":11845,"Ġfat":11846,"ampling":11847,"Ġcommander":11848,"Ġmayor":11849,"rowser":11850,"Ġtoken":11851,"ĠWa":11852,"ĠCS":11853,"east":11854,"ĠMiami":11855,"Ġacceleration":11856,"ĠFuture":11857,"odox":11858,"agu":11859,"vable":11860,"Ġaware":11861,"category":11862,"ĠForces":11863,"ĠEC":11864,"creasing":11865,"')\\":11866,"ĠDomin":11867,"fn":11868,"oa":11869,"mented":11870,"Ġconclusions":11871,"Rober":11872,"rations":11873,"Ġrestaurant":11874,"uned":11875,"Ñı":11876,"ĠMicrosoft":11877,"terior":11878,"Ġretail":11879,"Ġruled":11880,"Ġfiled":11881,"java":11882,"ĠWolf":11883,"ĠMand":11884,"fall":11885,"toprule":11886,"Ġregularly":11887,"ĠChen":11888,"utely":11889,"ĠMi":11890,"gls":11891,"Ġconsiderable":11892,"Ġpermutation":11893,"Ġbelonging":11894,"FO":11895,"Ġconsisted":11896,"Ġposit":11897,"ĠEconomic":11898,"ĠCulture":11899,"athered":11900,"adata":11901,"oche":11902,"Ġmultipl":11903,"oly":11904,"Ġcalibration":11905,"ĠLic":11906,"property":11907,"ART":11908,"Ġinfect":11909,"Ġastron":11910,"Ġknows":11911,"roke":11912,"Every":11913,"Based":11914,"ĠDead":11915,"Ġwaiting":11916,"plet":11917,"ĠContin":11918,"}}^{(":11919,"trained":11920,"flat":11921,"Ġlawyer":11922,"trim":11923,"Ġchair":11924,"Ġlaid":11925,".'":11926,"orro":11927,"lectric":11928,"ĠRon":11929,"ĠYouth":11930,"1890":11931,"respectively":11932,"Ġassembly":11933,"Ġstd":11934,"Property":11935,"Ġvic":11936,"Ġ$-$":11937,"ods":11938,"Ġmerch":11939,"NT":11940,"ĠLincoln":11941,"Ġancest":11942,"Met":11943,"ĠKam":11944,"Stat":11945,"cht":11946,"Ġderivation":11947,"ĠEmperor":11948,"Stream":11949,"Ġrequiring":11950,"Ġqualified":11951,"Ġinvited":11952,"Ju":11953,"ĠPS":11954,"ĠRick":11955,"ĠEmer":11956,"NL":11957,"Ġmanufacturing":11958,"Ġcontroller":11959,"putation":11960,"argo":11961,"ĠFame":11962,"iac":11963,"Ġrefe":11964,"ryst":11965,"analy":11966,"Del":11967,"GBT":11968,"Ġdebate":11969,"ĠMath":11970,"ĠYouTube":11971,"Ġvariants":11972,"Ġmusician":11973,"ĠPR":11974,"Ġvaries":11975,"Ġnegligible":11976,"cov":11977,"Ġadversarial":11978,"parent":11979,"Ġcreative":11980,"1909":11981,"ĠĠĠĠĠĠĠĠĠĠĠĠĠĠĠĠĠĠĠĠĠĠĠĠĠĠĠĠĠĠĠ":11982,"Ġinjured":11983,"ĠDal":11984,"Ġassociate":11985,"ĠSwiss":11986,"ĠPalest":11987,"ĠSquadron":11988,"good":11989,"ĠNone":11990,"Ġmouth":11991,"ĠSR":11992,"ĠEvent":11993,"Ġanalyses":11994,"Ġregularization":11995,"Ġ{}":11996,"ĠTelevision":11997,"ugu":11998,"Ġplanets":11999,"atar":12000,"ĠNash":12001,"Ġpainter":12002,"Ġsoil":12003,"Å«":12004,"ĠCollection":12005,"Ġbare":12006,"Ġphotos":12007,"ĠHollywood":12008,"Ġphotograph":12009,"ĠWhy":12010,"ĠPed":12011,"Ġegg":12012,"Comparison":12013,"yers":12014,"Ġequals":12015,"Ġentrance":12016,"Ġinvariance":12017,"ĠOklahoma":12018,"esis":12019,"Ġpitch":12020,"Ġvanishing":12021,"Ġconsequences":12022,"KL":12023,"othe":12024,"Ġserial":12025,"sburgh":12026,"ĠLam":12027,"depend":12028,"Ġefficiently":12029,"Ġengines":12030,"Ġequally":12031,"ieval":12032,"xrightarrow":12033,"Ġguns":12034,"distribution":12035,"Green":12036,"ĠIl":12037,"ahn":12038,",(":12039,"ethe":12040,"periments":12041,"sea":12042,"Ġmerger":12043,"ĠMatthew":12044,"rable":12045,"Ġrecept":12046,"nor":12047,"ĠKevin":12048,"atabase":12049,"Ġvaluable":12050,"liest":12051,"upper":12052,"member":12053,"Ġtalking":12054,"ioned":12055,"ĠHawai":12056,"Ġdirectors":12057,"Ġinvent":12058,"1907":12059,"eqq":12060,"102":12061,"Ġlocomot":12062,"words":12063,"Ġlyrics":12064,"Ġlicense":12065,"ĠTerm":12066,"counter":12067,"hskip":12068,"Ġattributed":12069,"Ġretirement":12070,"stage":12071,"itics":12072,"Ġshr":12073,"ourse":12074,"ĠWalter":12075,"ĠSeveral":12076,"Ġaccord":12077,"Ġwat":12078,"1906":12079,"Ġnoting":12080,"ĠUse":12081,")}^":12082,"igm":12083,"Ġsynd":12084,"+|":12085,"}$).":12086,"Ġhelic":12087,"option":12088,"ĠOak":12089,"Ġaddressed":12090,"asts":12091,"itud":12092,"control":12093,"match":12094,"Ġexercise":12095,"Ġfocuses":12096,"Ġsuperior":12097,"ĠAle":12098,"Ġvoted":12099,"Ġfactory":12100,"simple":12101,"117":12102,"olid":12103,"Ġtransformed":12104,"ĠNorwegian":12105,"Ġimproving":12106,"Ġmeasuring":12107,"Ġfought":12108,"âĢ¢":12109,"output":12110,"Ġloops":12111,"ostic":12112,"xygen":12113,"ĠVillage":12114,"Ġliterary":12115,"ĠArgentina":12116,"}|^":12117,"Ġneighbors":12118,"Ġselling":12119,"lades":12120,"compact":12121,"ĠRoberts":12122,"ortex":12123,"ulus":12124,"ĠKra":12125,"reement":12126,"ishment":12127,"eland":12128,"Ġachieves":12129,"rod":12130,"ĠZe":12131,"\\'{":12132,"ĠIsraeli":12133,"ocese":12134,"adic":12135,"ĠFA":12136,"rÃ©":12137,"Ġbirds":12138,"ĠLabour":12139,"Ġvictims":12140,"WE":12141,"Ġbanks":12142,"atever":12143,"Ġox":12144,"]_{":12145,"Ġreceiver":12146,"Ġrejected":12147,"four":12148,"opter":12149,"Ġpoetry":12150,"egas":12151,"Ġevident":12152,"Ġpose":12153,"CI":12154,"Prov":12155,"network":12156,"Ġenvelop":12157,"Ġlifetime":12158,"Ġcards":12159,"Ġpreserved":12160,"ĠConsequently":12161,"Ġcontinuity":12162,"Ġchrom":12163,"Ġreverse":12164,"Builder":12165,"ĠProm":12166,"Ġbattery":12167,"ĠBrun":12168,"bone":12169,"Ġterminal":12170,"setlength":12171,"Sy":12172,"Ġcenturies":12173,"Rail":12174,"ailand":12175,"ailability":12176,"Ġspend":12177,"Ġcombine":12178,"Ġtrials":12179,"FP":12180,"bigskip":12181,"Sk":12182,"riction":12183,"Ġfamiliar":12184,"Ġobservables":12185,"Ġvoting":12186,"Ġcash":12187,"Ġ\\}$":12188,"ailed":12189,"Ġfruit":12190,"Ġdeleg":12191,"Ġtries":12192,"Down":12193,"driven":12194,"Ġthereby":12195,"Ġcompete":12196,"Ġreporting":12197,"ĠFall":12198,"Ġ(;":12199,"Ġbott":12200,"Ġalter":12201,"Ġaw":12202,"Ġteen":12203,"Ġtemple":12204,"bow":12205,"ĠBox":12206,"ĠGordon":12207,"Ð¼":12208,"Client":12209,"104":12210,"ĠSho":12211,"atherine":12212,"ĠPut":12213,"ĠExpress":12214,"Born":12215,"Ġcourses":12216,"icking":12217,"Ġlegislation":12218,"resize":12219,"Ġwaste":12220,"ĠCapital":12221,"Ġclouds":12222,"ĠTaiwan":12223,"ĠPay":12224,"Ġaccused":12225,"spaces":12226,"Ġentering":12227,"Response":12228,"Ġmovies":12229,"Ġshifts":12230,"solid":12231,"Ġtruly":12232,"Ġtum":12233,"Television":12234,"Ġdrugs":12235,"ĠCow":12236,"ĠIslamic":12237,"Ġtrading":12238,"HP":12239,"NP":12240,"Education":12241,"Ġagencies":12242,"1904":12243,"Ġvirus":12244,"ĠÄ":12245,"hd":12246,"ells":12247,"Ġdrawing":12248,"acon":12249,"oving":12250,"onomous":12251,"Ġshop":12252,"Ġlimiting":12253,"Ġranging":12254,"tx":12255,"temperature":12256,"satisf":12257,"Ġdivergence":12258,"ĠPrix":12259,"Ġextensions":12260,"Ġshifted":12261,"Ġreb":12262,"ĠPow":12263,"ju":12264,"Europe":12265,"Ġsurgery":12266,"ĠDaily":12267,"ĠOrth":12268,"ĠPhill":12269,"Ġjazz":12270,"ĠMrs":12271,"Ġtank":12272,"Ġanth":12273,"Ġcraft":12274,"Ġseemed":12275,"Ġarises":12276,"${":12277,"Sur":12278,"efficient":12279,"Ġvariability":12280,"Ġshorter":12281,"Ġkeyboard":12282,"BD":12283,"ĠCemetery":12284,"ĠRead":12285,"ĠDefense":12286,">(":12287,"ania":12288,"Ġmine":12289,"})(":12290,"'(\\":12291,"WA":12292,"ĠHeritage":12293,"dest":12294,"strap":12295,"estyle":12296,"Ġcrystal":12297,"Final":12298,"Ġrounds":12299,"Ġfounding":12300,"ĠCho":12301,"unfinished":12302,"Ġremoving":12303,"reprene":12304,"ĠAfghan":12305,"Ġstating":12306,"Ġinequalities":12307,"):=\\":12308,"eting":12309,"ĠNag":12310,"mem":12311,"Ġfractional":12312,"ĠNob":12313,"Ġestablishment":12314,"igious":12315,"rypt":12316,"Ġproton":12317,"standard":12318,"ĠPot":12319,"ĠAlber":12320,"ĠRow":12321,"ĉĉĉĉĉĉĉĉ":12322,"ĠRecord":12323,"impl":12324,"std":12325,"bibliography":12326,"ĠMississippi":12327,"Ġexploration":12328,"ĠArmen":12329,"limit":12330,"Ġobtaining":12331,"Ġhelpful":12332,"ugs":12333,"ĠFried":12334,"Ġcoron":12335,"ĠSyn":12336,"Dou":12337,"Ġlocalization":12338,"ici":12339,"ĠLas":12340,"jet":12341,"intend":12342,"ĠRub":12343,"ĠWol":12344,"Ġvolumes":12345,"Ġislands":12346,"Ġpipeline":12347,"Ġ(,":12348,"Ġroads":12349,"relim":12350,"Vill":12351,"olds":12352,"Ġparad":12353,"Ġunlike":12354,"Ġ)$":12355,"Ġinhabit":12356,"Ġsoccer":12357,"ĠNO":12358,"etition":12359,"lr":12360,"emp":12361,"imore":12362,"rage":12363,"Ġtransaction":12364,"ĠDak":12365,"leveland":12366,"\\}}":12367,"Ġdeterministic":12368,"Ġhearing":12369,"ĠEuler":12370,"Ġpassenger":12371,"Ġlit":12372,"quality":12373,"ĠBowl":12374,"Ġceremony":12375,"ĠAlb":12376,"ĠPap":12377,"rik":12378,"Ġwarn":12379,"Ġexpanding":12380,"ublished":12381,"figs":12382,"ĠGarden":12383,"San":12384,"sole":12385,"ULL":12386,"ayan":12387,"Ġprelim":12388,"bach":12389,"ibraries":12390,"ouch":12391,"ĠCT":12392,"ĠDetroit":12393,")~\\":12394,"late":12395,"total":12396,"Figures":12397,"eper":12398,"Ġsymmetries":12399,"Ġrival":12400,"aled":12401,"Through":12402,"angers":12403,"Ġpreserve":12404,"ĠLyn":12405,"Ġlimitations":12406,"Ġaccompanied":12407,"reness":12408,"Ġimaginary":12409,"Ġsubsc":12410,"protect":12411,"Ġtangent":12412,"each":12413,"race":12414,"backs":12415,"Ġdress":12416,"ĠAC":12417,"ĠLouisiana":12418,"symmetric":12419,"}^{(\\":12420,"Sem":12421,"Jo":12422,"Ġacquisition":12423,"uerto":12424,"Ġandroid":12425,"orough":12426,"anny":12427,"Indian":12428,"ĠUnit":12429,"BN":12430,"Bur":12431,"}}\\\\":12432,"Ġcommunications":12433,"Ġwaters":12434,"ĠRound":12435,"because":12436,"Ġoccas":12437,"ĠDave":12438,"Ġaired":12439,"Ġjets":12440,"GO":12441,"resolution":12442,"shell":12443,"Rob":12444,"ĠSin":12445,"Ġcohomology":12446,"Ġhosts":12447,"leading":12448,"rame":12449,"Ġhistorian":12450,"Ġampl":12451,"Ġmedicine":12452,"built":12453,"Ġobservable":12454,"ĠAntonio":12455,"disambiguation":12456,"Ġdetermination":12457,"Ġ(),":12458,"Ġpaintings":12459,"some":12460,"Ġgrown":12461,"ĠUniverse":12462,"Former":12463,"adding":12464,"Ġcancel":12465,"ĠFinn":12466,"350":12467,"ĠAND":12468,"alia":12469,"harm":12470,"_{{":12471,"ĠPra":12472,"plicit":12473,"Ġinsurance":12474,"Ġensures":12475,"Ġchurches":12476,"Cy":12477,"ĠWhere":12478,"ĠConnecticut":12479,"Ġflying":12480,"GAN":12481,"idity":12482,"}]\\":12483,"Ġabandoned":12484,"idance":12485,"Ġexposed":12486,"ĠDouglas":12487,"bottomrule":12488,"jan":12489,"Ġsed":12490,"ĠProcess":12491,"training":12492,"anti":12493,"Ġtotally":12494,"bad":12495,"Ġabelian":12496,"game":12497,"bums":12498,"Ġkinds":12499,"Ġcavity":12500,"athy":12501,"Ġsingers":12502,"olph":12503,"tot":12504,"Ġduty":12505,"Ġmachines":12506,"Ġcompetitions":12507,"ĠExpl":12508,"135":12509,"lab":12510,"Ġmatters":12511,"ĠBuck":12512,"ĠExample":12513,"CON":12514,"apolis":12515,"}]$":12516,"alog":12517,"gate":12518,"BT":12519,"Ġsounds":12520,"Ġrooms":12521,"Ġmoduli":12522,"Ġimposed":12523,"Ġgraduate":12524,"leftrightarrow":12525,"Ã¼r":12526,"Ġdetermining":12527,"itro":12528,"Ġvir":12529,"',\\":12530,"Ġpublicly":12531,"Ġtherapy":12532,"Ġ<<":12533,"profit":12534,"Ġboys":12535,"separ":12536,"orsion":12537,"olished":12538,"ĠNCAA":12539,"Ġpayment":12540,"},\\\\":12541,"Ġacoustic":12542,"ded":12543,"ellect":12544,"ĠKelly":12545,"Ġregister":12546,"Ġdotted":12547,"Ġphilosophy":12548,"Ġinfection":12549,"ĠLanguage":12550,"ĠLINE":12551,"Notable":12552,"Both":12553,"project":12554,"ariants":12555,"query":12556,"Ġtables":12557,"uis":12558,"attered":12559,"Ġoperates":12560,"Query":12561,"ĠStudy":12562,"HI":12563,"Ġbool":12564,"ologically":12565,"})}\\":12566,"Ġmeets":12567,"ĠObject":12568,"Ġintent":12569,"Ġpregn":12570,"Det":12571,"ĠGW":12572,"may":12573,"angel":12574,"ause":12575,"Ġoperational":12576,"Ġafford":12577,"htbp":12578,"best":12579,"issance":12580,"Ġsquares":12581,"ĠCroat":12582,"Ġhospit":12583,"}$;":12584,"Ġprospect":12585,"ĠNotice":12586,"ĠInfantry":12587,"Br":12588,"Ġ\\:":12589,"}}_\\":12590,"ĉĠ":12591,"Ġ\\\\[":12592,"frequency":12593,"ĠSS":12594,"Ġobst":12595,"lein":12596,"Ġwear":12597,"Ġcapabilities":12598,"}}+":12599,"ĠBillboard":12600,"Ġartificial":12601,"ivated":12602,"'-":12603,"Ġcommissioned":12604,"ĠNumber":12605,"Ġautomorphism":12606,"Ġdistinguished":12607,"Ġprohib":12608,"ĠWalker":12609,"900":12610,"ĠDenmark":12611,"Ġsummarized":12612,"ĠManu":12613,"Ġsoul":12614,"$=":12615,"Ġelastic":12616,"Paul":12617,"kar":12618,"find":12619,"oking":12620,"who":12621,"118":12622,"Ġfails":12623,"Ġhighway":12624,"ĠAdvent":12625,"Ġrefuge":12626,"Ġdiam":12627,"Ġdismiss":12628,"Ġmini":12629,"Ġspending":12630,"sun":12631,"Ġsuperconduct":12632,"Sign":12633,"INT":12634,"Ġbarrier":12635,"Ġboxes":12636,"Ġclar":12637,"Ġ===":12638,"ĠHum":12639,"Ġsurname":12640,"Ġassault":12641,"Ġingred":12642,"into":12643,"Ġcreates":12644,"Ġseeking":12645,"Ġwheel":12646,"Ġtouchdown":12647,"ĠLib":12648,"Ġsi":12649,"vas":12650,"Ġshapes":12651,"255":12652,"Rich":12653,"Ber":12654,"ĠImp":12655,"leman":12656,"Ġroutes":12657,"1903":12658,"Ġthickness":12659,"ĠFisher":12660,"Ġinsight":12661,"ĠDVD":12662,"cule":12663,"Pan":12664,"ificate":12665,"Ġ__":12666,"alph":12667,"ĠNaval":12668,"Ġbases":12669,"Ġcounting":12670,"Ġdisturb":12671,"itis":12672,"ĠPear":12673,"half":12674,"Ġtennis":12675,"prim":12676,"ĠYears":12677,"coloneqq":12678,"Äĥ":12679,"Ġcomic":12680,"ĠBelgium":12681,"ĠHonor":12682,"ĠPortuguese":12683,"ĠMayor":12684,"Ġfairly":12685,"Ġmissed":12686,"116":12687,"Ġstood":12688,"ĠPortugal":12689,"Ġpreparation":12690,"Ġmetres":12691,"cost":12692,"Ġfont":12693,"obi":12694,"Ġcomposite":12695,"Mus":12696,"Ġreserve":12697,"Ġmanifolds":12698,"Ġresolved":12699,"Ġmaintenance":12700,"Ġreflected":12701,"ĠWard":12702,"Mal":12703,"ping":12704,"ĠText":12705,"Ġoscillations":12706,"Ġtorus":12707,"ebox":12708,"ĠIndependent":12709,"Ġmirror":12710,"1901":12711,"ĠQuebec":12712,"imir":12713,"mut":12714,"Ġocean":12715,"Ġheating":12716,"vc":12717,"lib":12718,"oids":12719,"shop":12720,"ĠPref":12721,"ĠBus":12722,"uli":12723,"seq":12724,"Ġexhibits":12725,"Ġconsumer":12726,"Ġdetectors":12727,"hus":12728,"lass":12729,"Ġmechanics":12730,"Ġinternet":12731,"Ġinvasion":12732,"stellar":12733,"Football":12734,"106":12735,"Ġemployee":12736,"about":12737,"ĠFern":12738,"ĉĠĠĠ":12739,"Ġmo":12740,"ĠHills":12741,"Ġsequential":12742,"eras":12743,"ĠStudios":12744,"ĠAS":12745,"ails":12746,"Ġsingularity":12747,"Child":12748,"iri":12749,"ĠOtt":12750,"Opt":12751,"Ġjunction":12752,"izers":12753,"[{\\":12754,"Ġlock":12755,"ĠAtlanta":12756,"ĠCommonwealth":12757,"ĠSF":12758,"constant":12759,"Es":12760,"Ġveget":12761,"Ġmodification":12762,"opyright":12763,"Av":12764,"1902":12765,"Mac":12766,"ulum":12767,"}}+\\":12768,"Ġtoler":12769,"/.":12770,"Ġds":12771,"Ġprotest":12772,"umar":12773,"}}-":12774,"Ġmodular":12775,"ication":12776,"idelines":12777,"ĠSingh":12778,"tensor":12779,"103":12780,"dale":12781,"ĠWang":12782,"rose":12783,"Ġpray":12784,"agon":12785,"ĠPlayer":12786,"incor":12787,"uki":12788,"ĠHad":12789,"abad":12790,"shaped":12791,"Ġconverge":12792,"bigoplus":12793,"Ġopera":12794,"inburgh":12795,"ĠTar":12796,"_{(\\":12797,"Ġextending":12798,"Ġputting":12799,"ratio":12800,"ĠUtah":12801,"Ġpromising":12802,"ĠWithout":12803,"Su":12804,"Ġcorporate":12805,"Ġinstruct":12806,"Ġneuro":12807,"Ġstadium":12808,"iat":12809,"Ġgrounds":12810,"Ġidentifying":12811,"Ġoverview":12812,"Conclusion":12813,"ĠLawrence":12814,"cohol":12815,"overty":12816,"ĠDublin":12817,"Ġdiscre":12818,"ĠCurrent":12819,"ĠJuan":12820,"ĠNi":12821,"Ġregardless":12822,"Ġvisitors":12823,"Ġtrends":12824,"umann":12825,"tack":12826,"Ġoccupation":12827,"fire":12828,"1880":12829,"Ġminimize":12830,"Ġrelativistic":12831,"Ġelectrical":12832,"Ġdecline":12833,"ĠPack":12834,"namespace":12835,"Roman":12836,"ĠSocorro":12837,")/\\":12838,"Ġ{{":12839,"Ġ(+":12840,"March":12841,"Ġdot":12842,"ĠSmall":12843,"Despite":12844,"vertible":12845,"Ġgrass":12846,"shot":12847,"pshire":12848,"Ġsubstit":12849,"ĠHug":12850,"eyond":12851,"Ġfacing":12852,"Ġpassengers":12853,"Ġswit":12854,"Ġadults":12855,"Ġholomorphic":12856,"zing":12857,"ĠLP":12858,"likely":12859,"Ġdies":12860,"osph":12861,"Ġfrequent":12862,"angular":12863,"KE":12864,"Ġhomotopy":12865,"een":12866,"ipher":12867,"online":12868,"Ġautomatic":12869,"ĠIma":12870,"coin":12871,"ĠAlan":12872,"Mart":12873,"108":12874,"Ġmetallicity":12875,"Ġrecordings":12876,"ĉĉĉĊ":12877,"Indeed":12878,"Ġfilters":12879,"Ġforth":12880,"mentioned":12881,"eros":12882,"ĠConc":12883,"ĠBrazilian":12884,"itations":12885,"Op":12886,"site":12887,"Ġentertainment":12888,"Ġgradually":12889,"ĠHockey":12890,"Any":12891,"Ġdealing":12892,"initial":12893,"Ġinaug":12894,"Ġcouldn":12895,"versely":12896,"Ġadmitted":12897,"due":12898,"Ġelectromagnetic":12899,"ĠLINEAR":12900,"Ġadvertising":12901,"Ġfocusing":12902,"Ġreactions":12903,"haust":12904,"imp":12905,"ĠPope":12906,"ĠAgric":12907,"Ġprev":12908,"Ġnormally":12909,"Ġconsc":12910,"Lin":12911,"Ġfermions":12912,"Due":12913,"ĠTrade":12914,"Ġsuspend":12915,"Ġtransportation":12916,"ĠKur":12917,"Ġages":12918,"Ġdamp":12919,"altimore":12920,"Ġmutual":12921,"Ġdisestabl":12922,"Ġarranged":12923,"ĠKu":12924,"father":12925,"oom":12926,"Dev":12927,"Ġproofs":12928,"bridge":12929,"Ġtransit":12930,"itudinal":12931,"phan":12932,"Ġcircumstances":12933,"Comb":12934,"EV":12935,"Ġphenomena":12936,"Ġcatalog":12937,"imated":12938,"Ġcollections":12939,"Script":12940,"resizebox":12941,"Ġgeodesic":12942,"inian":12943,"Ġaccurately":12944,"abi":12945,"ĠPhilip":12946,"marg":12947,"ĠThailand":12948,"ĠRace":12949,"ibl":12950,"oked":12951,"Fin":12952,"cz":12953,"isode":12954,"Ġfinishing":12955,"Ġcomputations":12956,"Ġcubic":12957,"Ġoxygen":12958,"Ġadaptive":12959,"gtr":12960,"Sym":12961,"tery":12962,"ĠUkrainian":12963,"Ġwider":12964,"ĠDanish":12965,"ĠAustin":12966,"ĠRot":12967,"Wid":12968,"ĠLiberal":12969,"stery":12970,"Ġfleet":12971,"ĠTake":12972,"220":12973,"ĠFle":12974,"asa":12975,"Ġforcing":12976,"Ġknock":12977,"ĠFri":12978,"Even":12979,"Ġsportspeople":12980,"Ġdiseases":12981,"ĠTel":12982,"Ġvalley":12983,"raisebox":12984,"annot":12985,"itian":12986,"ĠRussell":12987,"Nav":12988,")<":12989,"ĠReserve":12990,"warz":12991,"ĠSpect":12992,"Ġflavor":12993,"ĠGene":12994,")\"":12995,"Ġtied":12996,"ĠMos":12997,"ĠKarl":12998,"Ġprize":12999,"Military":13000,"ĠAccess":13001,"empl":13002,"ĠOpt":13003,"reference":13004,"ĠThompson":13005,"TO":13006,"illo":13007,"bean":13008,"ĠEX":13009,"Tim":13010,"ais":13011,"inating":13012,"Ġwine":13013,"auer":13014,"ĠKr":13015,"Major":13016,"Ġ),":13017,"Ġhired":13018,"kk":13019,"ĠAdams":13020,"ned":13021,"ĠObama":13022,"Ġsuggesting":13023,"Ġgrey":13024,"Ġhash":13025,"bibliographystyle":13026,"Ã´":13027,"annon":13028,"ĠAlliance":13029,"iors":13030,"Ġstuff":13031,"Ġmovements":13032,"avor":13033,"Ġcup":13034,"avirus":13035,"Ġradii":13036,"Ġcited":13037,"Ġproportion":13038,"Ġgarden":13039,"ĠMorgan":13040,"ĠBush":13041,"Once":13042,"fraction":13043,"ĠHarvard":13044,"]^{\\":13045,"Cam":13046,"Ġannih":13047,"Ġreign":13048,"embles":13049,"Ġcastle":13050,"pus":13051,"Family":13052,"ĠLO":13053,"varpi":13054,"Ġbon":13055,"Ġstrain":13056,"oslav":13057,"porated":13058,"uits":13059,"addle":13060,"Ġoffensive":13061,"rophy":13062,"Ġelig":13063,"@{}}":13064,"ĠFive":13065,"ĠChapter":13066,")</":13067,"Ġintu":13068,"Ġbiological":13069,"Ġdeput":13070,"Ġsending":13071,"Ġcausal":13072,"resol":13073,"James":13074,"Ġmaybe":13075,"orig":13076,"Ġcategor":13077,"ĠStrateg":13078,"Club":13079,"heres":13080,"arsity":13081,"Ġrings":13082,"ateral":13083,"Ġrising":13084,"Ġade":13085,"pq":13086,"ĠBattalion":13087,"ĠBull":13088,"Ġescap":13089,"character":13090,"Ġvarieties":13091,"ĠLanc":13092,"ĠNic":13093,"Ġfolk":13094,"August":13095,"Ġdefensive":13096,"yself":13097,"ĠIndonesia":13098,"Ġweekly":13099,"Ġuniversities":13100,"emen":13101,"|}{\\":13102,"~{\\":13103,"Ġ\\|_{":13104,"Ġproducers":13105,"Ġ$-\\":13106,"ĠSeattle":13107,"ĠTech":13108,"ĠTig":13109,"Ġcontrovers":13110,"Ġfranchise":13111,"Ġdevoted":13112,"Ġtwelve":13113,"Ġdoubt":13114,"Ġtalent":13115,"Ġconsiders":13116,"Ġtension":13117,"rically":13118,"Ġgro":13119,"Oh":13120,"tax":13121,"ĠSimilar":13122,"ĠLink":13123,"Ġsecretary":13124,"Ġvoters":13125,"HR":13126,"ĠBuff":13127,"Ġverified":13128,"Ġmarks":13129,"ĠBanglades":13130,"iu":13131,"&+":13132,"dynamic":13133,"........":13134,"song":13135,"hook":13136,").$$":13137,"ĠMission":13138,"isks":13139,"Ġnick":13140,"Que":13141,"Ġnum":13142,"ĠĠĠĠĠĠĠĠĠĠĠĠĠĠĠĠĠĠĠĠĠĠĠĠ":13143,"fly":13144,"ĠPho":13145,"ĠMes":13146,"}$$":13147,"Ġmagic":13148,"Transport":13149,"amination":13150,"ocus":13151,"Ġremoval":13152,"antine":13153,"Ġviolation":13154,"ĠABC":13155,"ployment":13156,"squ":13157,"ogg":13158,"Ġcommutative":13159,"Ġobservational":13160,"Ġapparently":13161,"sor":13162,"Ð´":13163,"ĠTerrit":13164,"ĠCPU":13165,"Ġentities":13166,"smooth":13167,"gered":13168,"Ġqueries":13169,"Ġcontinuing":13170,"Ġpopularity":13171,"Ġaimed":13172,"charg":13173,"Ġreact":13174,"ĠDO":13175,"ĠĠĠĠĠĠĠĊ":13176,"orel":13177,"Ġmodeled":13178,"ĠAy":13179,"Ġlisten":13180,"iao":13181,"512":13182,"Ġrelies":13183,"Mo":13184,"Ã©t":13185,"prot":13186,"Ġwrites":13187,"ĠAbd":13188,"Ġsimplified":13189,"ĠBetween":13190,"orus":13191,"Ġovercome":13192,"Ġinteracting":13193,"Ġho":13194,"Ġspoke":13195,"critical":13196,"Ġvanish":13197,"ĠSud":13198,"ĠSarah":13199,"Ġjunior":13200,"Ġreceives":13201,"Ġconsistently":13202,"Ġdescend":13203,"orses":13204,"Ġrent":13205,"Ġagricultural":13206,"vectors":13207,"olas":13208,"ivariate":13209,"htb":13210,"double":13211,"Ġcontinuously":13212,"ĠGon":13213,">$":13214,"rected":13215,"),(":13216,"Ġoriented":13217,"HA":13218,"Ġchecked":13219,"ĠBayesian":13220,"pf":13221,"ulatory":13222,"obj":13223,"ĠBlock":13224,"Ġbacking":13225,"polar":13226,"ĠLower":13227,"ĉčĊ":13228,"ĠGalactic":13229,"grid":13230,"Ġarmed":13231,"died":13232,"Ġsurveys":13233,"ĠThose":13234,"Ġ\\,.":13235,"Ġmotivated":13236,"ĠWright":13237,"lbrace":13238,"Ġcompression":13239,"Ġimproves":13240,"sters":13241,"Ġduality":13242,"Ġparametriz":13243,"Ġnotably":13244,"vv":13245,"mr":13246,"ĠWatch":13247,"VER":13248,"update":13249,"endment":13250,"should":13251,"Ġresidence":13252,"]_":13253,"bara":13254,"ĠGR":13255,"Flor":13256,"Ġbreaks":13257,"Ġemployment":13258,"Ġcrash":13259,"EQ":13260,"refn":13261,"Ġexped":13262,"ĠMO":13263,"iverpool":13264,"âĤ¬":13265,"Ġincl":13266,"Ġsteam":13267,"+$":13268,"Ġsymplectic":13269,"common":13270,"ĠOrig":13271,"DBLP":13272,"lag":13273,"ĠBrigade":13274,"cellcolor":13275,"Ġauthentic":13276,"onymous":13277,"ĠNeg":13278,"Ã¥":13279,"Ġà¤":13280,"abul":13281,"ĠIron":13282,"Ġdelet":13283,"Ġparticipation":13284,"Ġmidfield":13285,"ivacy":13286,"ido":13287,"Ġresidential":13288,"ĠSep":13289,"Ġuniquely":13290,"bserve":13291,"choose":13292,"momentum":13293,"ĠLang":13294,"Ġcler":13295,"Util":13296,"ĠBiden":13297,"ĠIss":13298,"older":13299,"Ġdisplays":13300,"Ġamaz":13301,"Ġcot":13302,"Ġcontradict":13303,"Cs":13304,"Ġsuppressed":13305,"Ġpione":13306,"Mass":13307,"corresponding":13308,"mouth":13309,"Ġgenetic":13310,"Ġqubit":13311,"region":13312,"January":13313,"Ġwalking":13314,"Ġstreaming":13315,"}{!":13316,"Ġadds":13317,"June":13318,"<!--":13319,"Irefn":13320,"Ġmemb":13321,"Ġlob":13322,"Ġpicked":13323,"colhead":13324,"whe":13325,"Ġdrift":13326,"Ġearliest":13327,"$}\\":13328,"Ġdiscipl":13329,";</":13330,"Ġquantitative":13331,"filter":13332,"ĠCON":13333,"folio":13334,"ĠMcK":13335,"KK":13336,"Style":13337,"Ġsinging":13338,"ĠDub":13339,"Vari":13340,"Ġuns":13341,"Academ":13342,"!\"":13343,")},\\":13344,"Ġethnic":13345,"Ġdesigner":13346,"Ġlocalized":13347,"coordinate":13348,"Ġdebt":13349,"Ġgal":13350,"ĠWorks":13351,"^{{\\":13352,"Ġmarine":13353,"ĠGPU":13354,"107":13355,"Ġsurvival":13356,"ĠSite":13357,"unity":13358,"borough":13359,"ĠAuthority":13360,"hai":13361,"}{$\\":13362,"kens":13363,"Lie":13364,"Ġerg":13365,"Ġdipole":13366,"Ġprosec":13367,"Ġmic":13368,"}})\\":13369,"ws":13370,"Ġcompeting":13371,"ĠArkansas":13372,"ributions":13373,"jav":13374,"ĠJason":13375,"Ġkit":13376,"finals":13377,"ĠHell":13378,"ugin":13379,"relax":13380,"Sol":13381,"ĠKings":13382,"design":13383,"Ep":13384,"Ġclosest":13385,"Ġtemporary":13386,"ĠMalaysia":13387,"Ġpassage":13388,"ĠPhysics":13389,"compos":13390,"ĠPeace":13391,"ĠCoul":13392,"Ġmart":13393,"Ġsymptoms":13394,"Ġquarks":13395,"Ġprede":13396,"Ġbandwidth":13397,"Ġanniversary":13398,"Ġdegrad":13399,"convex":13400,"Ġcyclic":13401,"Real":13402,"April":13403,"Ġrepresentatives":13404,"Dan":13405,"ĠShi":13406,"anton":13407,"ĠPeters":13408,"Fran":13409,"Ġbag":13410,"Ġoblig":13411,"oro":13412,"áĥ":13413,"True":13414,"Ġsupern":13415,"Ġparity":13416,"Ġgraded":13417,"Ġhealthy":13418,"hig":13419,"Ġsolit":13420,"Ġguarantees":13421,"ĠEss":13422,"tre":13423,"ĠEdd":13424,"Ġmyth":13425,"positive":13426,"Spe":13427,"arded":13428,"Ġintention":13429,"ymatrix":13430,"ials":13431,"Ġunf":13432,"Ġmoderate":13433,"service":13434,"Ġasking":13435,"ĠEdinburgh":13436,"closure":13437,"ĠBS":13438,"ĠBart":13439,"igate":13440,"ĠProblem":13441,"ĠMcG":13442,"Sl":13443,"Ġrobustness":13444,"Hol":13445,"}.$":13446,"ĠFinland":13447,"Ġcumul":13448,"Ġposts":13449,"Bet":13450,"Where":13451,"orton":13452,"Ġske":13453,"fish":13454,"maker":13455,"Ġfired":13456,"Ġfunded":13457,"ĠSamuel":13458,"ĠVI":13459,"Ġownership":13460,"Ġbaby":13461,"Ġnoisy":13462,"vanced":13463,"Ġaffects":13464,"Ġsoph":13465,"ĠCensus":13466,"Ġpictures":13467,"ĠDemocrats":13468,"Check":13469,"Ġreconstructed":13470,"1898":13471,"itatively":13472,"ĠĠĠĠĠĊ":13473,"ĠRan":13474,"million":13475,"Ġproxim":13476,"oths":13477,"root":13478,"Ġhierarchy":13479,"Override":13480,"Ġtrigger":13481,"ĠPittsburgh":13482,"Ġkee":13483,"Scott":13484,"Ġwatching":13485,"ĠDallas":13486,"Ġstrategic":13487,"Ġbrightness":13488,"Ġmanifest":13489,"Ġdangerous":13490,"ĠHistorical":13491,"antum":13492,"Ġedited":13493,"Ġmeters":13494,"uary":13495,"Ġexclusive":13496,"ĠLane":13497,"Ġanimated":13498,"^*}":13499,"Ġcharacterization":13500,"ĠAnna":13501,"Ġgram":13502,"Ã«":13503,"Notice":13504,"assador":13505,"NRAS":13506,"direct":13507,"ĠMagn":13508,"Ġillegal":13509,"ĠOrchestra":13510,"ĠImperial":13511,"Ġchildhood":13512,"]}\\":13513,"ĠYe":13514,"ĠPad":13515,"Ġcoincides":13516,"Ġnuclei":13517,"ĠDR":13518,"ĠPuerto":13519,"ĠTag":13520,"clusively":13521,"Ġfract":13522,"ivid":13523,"ĠDean":13524,"ĠNelson":13525,"Ġallocation":13526,"inces":13527,"equal":13528,"}}}{\\":13529,"Ġbigger":13530,"HH":13531,"Return":13532,"Ġfalling":13533,"azines":13534,"''.":13535,"ĠNep":13536,"]\\\\":13537,"push":13538,"Ġride":13539,"ĠFal":13540,"GF":13541,"amps":13542,"quantum":13543,"wal":13544,"ĠDance":13545,"lat":13546,"About":13547,"ĠKennedy":13548,"gue":13549,"rn":13550,"Ġgang":13551,"textstyle":13552,"QL":13553,"lon":13554,"Syn":13555,"fan":13556,"ĠLieutenant":13557,"Sa":13558,"ĠProof":13559,"]{./":13560,"Ġlegisl":13561,"makebox":13562,"processing":13563,"thin":13564,"iche":13565,"DL":13566,"las":13567,"fixed":13568,".:":13569,"seen":13570,")~":13571,"Ġwilling":13572,"Ġaren":13573,"================":13574,"Ġidentities":13575,"~~~~~~~~":13576,"aura":13577,"document":13578,"iah":13579,"270":13580,"Feb":13581,"had":13582,"enter":13583,"Summary":13584,"Ġvaried":13585,"kt":13586,"lvert":13587,"ĠKit":13588,"Ġregulations":13589,"algorithmic":13590,"MB":13591,"Ġapproval":13592,"holders":13593,"Ġrotating":13594,"Ġintroduces":13595,"crit":13596,"uu":13597,"odic":13598,"ĠSNR":13599,"ĠCleveland":13600,"conj":13601,"irms":13602,"ĠMarie":13603,"Ġrestored":13604,"*}\\":13605,"Ġton":13606,"ĠPerformance":13607,"enezuel":13608,"construct":13609,"rupted":13610,"ĠMichel":13611,"Graph":13612,"Mor":13613,"Ġproving":13614,"ĠLimited":13615,"Ġinhabitants":13616,"options":13617,"ractions":13618,"scalebox":13619,"})^{\\":13620,"ĠComics":13621,"Land":13622,"redited":13623,"Ġtrail":13624,"Ġactresses":13625,"Ġvaccine":13626,"makers":13627,"rf":13628,"plete":13629,"ĠEle":13630,"Ġneutrinos":13631,"Ġpublishing":13632,"ĠPi":13633,"ĠPun":13634,"ĠSchools":13635,"ĠNigeria":13636,"named":13637,"abilistic":13638,"owed":13639,"Ġbuffer":13640,"Ġscholars":13641,"Ġapproximations":13642,"maxim":13643,"Ġabsolutely":13644,"Ġsynthesis":13645,"underbrace":13646,"ĠNation":13647,"Ñĭ":13648,"Ġspeaker":13649,"):=":13650,"nan":13651,"params":13652,"speed":13653,"ivan":13654,"Ġbins":13655,"properties":13656,"igroup":13657,"-{\\":13658,"iop":13659,"enum":13660,"}$),":13661,"novation":13662,"ournament":13663,"qed":13664,"ĠCha":13665,"ĠDir":13666,"}.$$":13667,"Ġexponentially":13668,"Ġimplications":13669,"ĠVik":13670,"xymatrix":13671,"Ġretained":13672,"depth":13673,"ĠChairman":13674,"ĠâĢł":13675,"Ġsingularities":13676,"ĠNeb":13677,"din":13678,"ĠPublishing":13679,"Ġarising":13680,"ĠÂ»":13681,"'}(":13682,"Ġexcluded":13683,"biggl":13684,"ĠKan":13685,"Pal":13686,"ighbor":13687,"Order":13688,"Ġrectangle":13689,"ĠPalace":13690,"Reception":13691,"Ġphysically":13692,"ĠCos":13693,"Ġghost":13694,"ĠSac":13695,"Sal":13696,"Ġsubgraph":13697,"Plan":13698,"ĠMess":13699,"Link":13700,"ĠRest":13701,"ĠPoly":13702,"Tor":13703,"Mean":13704,"ĠShah":13705,"station":13706,"Ġdiamond":13707,"Ġoptimized":13708,"rbrace":13709,"Ġsubmitted":13710,"Ġarrangement":13711,"Ġrequests":13712,"irates":13713,"Ġinduct":13714,"Ġsurrounded":13715,"Win":13716,"tagon":13717,"riel":13718,"1899":13719,"Ġobserving":13720,"ĠLegislative":13721,"Official":13722,"\"]":13723,"andal":13724,"Ġdeployed":13725,"Ġemotional":13726,"bug":13727,"ĠCass":13728,"Ġexit":13729,"Ġmilit":13730,"Ġrose":13731,"Ġvariational":13732,"Ġcrown":13733,"ĠKnow":13734,"Ġextensively":13735,"Expat":13736,"ĠDie":13737,"Ġscaled":13738,";\"|":13739,"pow":13740,"Ġgates":13741,"\\\\\\":13742,"Ġguidance":13743,"Ġelsewhere":13744,"Ġhill":13745,"meta":13746,"undles":13747,"Ġunusual":13748,"ĠPath":13749,"ĠCampbell":13750,"Ġthrows":13751,"Ġ$\\|\\":13752,"ĠChristopher":13753,"Ġconsumers":13754,"Version":13755,")}=\\":13756,"Ġrepeat":13757,"Ġathletes":13758,"Ġdemonstrates":13759,"}\\)":13760,"Ġbeauty":13761,"ĠOk":13762,"October":13763,"Thm":13764,"Start":13765,"Donald":13766,"oys":13767,"109":13768,"Ġexamined":13769,"Ġboolean":13770,"Ġcompletes":13771,"Ġdestination":13772,"ĠExp":13773,"1895":13774,"ĠCloud":13775,"Ġaveraging":13776,"Ġgradients":13777,"ĠChamber":13778,"Ġpreliminary":13779,"bn":13780,"Ġlocality":13781,"Ġpassion":13782,"Ġrelief":13783,"Ġhat":13784,"Ġstem":13785,"Ġbear":13786,"Ġdating":13787,"ĠMontreal":13788,"isp":13789,"Ġdevelopers":13790,"ĠTheory":13791,"ĠkeV":13792,"Ġracial":13793,"Ġadequ":13794,"Cle":13795,"Ġreleases":13796,"cosity":13797,"Ġsuscept":13798,"Ġsensors":13799,"ĠBeat":13800,"ĠBruce":13801,"Ġplastic":13802,"otions":13803,"Status":13804,"ocols":13805,"mor":13806,"Alex":13807,"VP":13808,"Expatriate":13809,"Ġma":13810,"ellectual":13811,"!âĢĿ":13812,"Ãł":13813,"Ġcouples":13814,"July":13815,"+}":13816,"oga":13817,"levant":13818,"bounds":13819,"Ġcogn":13820,"Ġalleg":13821,"Ġseventh":13822,"ĠVolume":13823,"OO":13824,"ĠName":13825,"{-}":13826,"ĠRobinson":13827,"};\\":13828,"ĠCrit":13829,"biggr":13830,"ouver":13831,"Gold":13832,"ĠGirls":13833,"Ġremarkable":13834,"ĠDeputy":13835,"Ġcollaps":13836,"ZZ":13837,"170":13838,"Ġmicrosc":13839,"Ġcriticism":13840,"ĠHit":13841,"ĠLanka":13842,"ĠIC":13843,"Ġelectricity":13844,"Ġreception":13845,"Ġvisiting":13846,"}$:":13847,"calcul":13848,"Ġstretch":13849,"Tag":13850,"1897":13851,"Ġcompilation":13852,"Ġtie":13853,"]]":13854,"Ġsleep":13855,"Ġdesire":13856,"jamin":13857,"fg":13858,"Ġoutbreak":13859,"Ġprepare":13860,"450":13861,"Ġthousand":13862,"Ġemerging":13863,"reb":13864,"}{$":13865,"Ġarbitr":13866,"sinh":13867,"Ġepochs":13868,"ea":13869,"Ġdifficulties":13870,"ithuan":13871,"ographics":13872,"Ġcourts":13873,"Ġencoded":13874,"Histor":13875,"ĠScholar":13876,"Ġions":13877,"1870":13878,"ĠOrganization":13879,"imm":13880,"ĠPrior":13881,"Ġprovision":13882,"ĠUpper":13883,"Ġmeetings":13884,"Page":13885,"Ġlaboratory":13886,"Web":13887,"elfare":13888,"enix":13889,"lli":13890,"=\"../":13891,"Ġlayout":13892,"240":13893,"PY":13894,"ĠGulf":13895,"Ġheaded":13896,"ĠStewart":13897,"Ġyourself":13898,"leans":13899,"ĠPrincess":13900,"versy":13901,"Ġconvenience":13902,"^{*}":13903,"ĠKnight":13904,"rowth":13905,"cession":13906,"Ġrealize":13907,"Ġobviously":13908,"Three":13909,"Ġheritage":13910,"insula":13911,"ĠNN":13912,",}":13913,"ĠRain":13914,"Ġscr":13915,"ĠGP":13916,"Ġmyself":13917,"Ġfurn":13918,"rock":13919,"SW":13920,"Ġfest":13921,"Ġtox":13922,"AI":13923,"ĠSW":13924,"Control":13925,"Full":13926,"Ġnations":13927,"ĠMaur":13928,"UI":13929,"geon":13930,"pread":13931,"ĠTi":13932,"enda":13933,"Ġcarefully":13934,"ĠWeyl":13935,"Ġstake":13936,"exact":13937,"ĠBed":13938,"ĠWoman":13939,"Ġstrip":13940,"ĠNBA":13941,"Cond":13942,"Ġasymmetry":13943,"Ġchamber":13944,"append":13945,"stance":13946,"-$\\":13947,"Fix":13948,"ege":13949,"phys":13950,"ĠÃī":13951,"gtrsim":13952,"appy":13953,"issible":13954,"Ġagrees":13955,"ĠMars":13956,"=}":13957,"Free":13958,"Ġprimitive":13959,"^*(\\":13960,"Ġregularity":13961,"Ġbold":13962,"ĠAPI":13963,"ĠMol":13964,"frag":13965,"Ġconversation":13966,"})^{-":13967,"AME":13968,"Ġhorror":13969,"racted":13970,"Ġeliminated":13971,"Ġinvestors":13972,"ĠGil":13973,"Ġvalidity":13974,"Ġexpectations":13975,"Ġexhaust":13976,"Ġrecru":13977,"ijk":13978,"}}^\\":13979,"ÅŁ":13980,"bling":13981,"Ġmile":13982,"sens":13983,"Ġreproduce":13984,"arding":13985,"valuation":13986,"associ":13987,"graduate":13988,"ÃŃn":13989,"private":13990,"aba":13991,"Ġfluxes":13992,"Ġtargeted":13993,"diagram":13994,"Ġgift":13995,"inea":13996,"aration":13997,"Ġwww":13998,"ĠLipschitz":13999,"Ġsurvive":14000,"Ġdamaged":14001,"ĠRT":14002,"ĠErn":14003,"Ġfeels":14004,"ĨĴ":14005,"Ġdemands":14006,"lst":14007,"Ġwithdraw":14008,"Ha":14009,"Ġsessions":14010,"Ġtub":14011,"ĠUE":14012,"Ġisotropic":14013,"Ġfee":14014,"ĠInterest":14015,"ĠBoys":14016,"bered":14017,"Ġresigned":14018,"Michael":14019,"Ġextinction":14020,"Ġsuspect":14021,"ĠRoger":14022,"Ġcelebrated":14023,"Ġdynasty":14024,"Ġspr":14025,"ĠOR":14026,"Related":14027,"ĠNature":14028,"AND":14029,"Ġsurvived":14030,"ĠClin":14031,"client":14032,"leased":14033,"rvert":14034,"Ġsentences":14035,"edu":14036,"ĠTak":14037,"September":14038,"Ġattractive":14039,"Ġinstrumental":14040,"Ġconjugate":14041,"Ġranks":14042,"Ġsectors":14043,"1896":14044,"ĠCrown":14045,"ĠDakota":14046,"Ġclosing":14047,"Ġmigration":14048,"Ġdegenerate":14049,"ĠFunction":14050,"nl":14051,"claimed":14052,"ĠSearch":14053,"opa":14054,"iar":14055,"none":14056,"ĠEmb":14057,"response":14058,"ĠCommander":14059,"ĠGran":14060,"Italian":14061,"ĠAustrian":14062,"ppers":14063,"they":14064,"ĠRailroad":14065,"ĠBaltimore":14066,"Ġjuris":14067,"ĠMargaret":14068,"cosh":14069,"Ġsimpler":14070,"wig":14071,"Ġreadily":14072,"Ġteach":14073,"Mer":14074,"Ġtexts":14075,"Previous":14076,"ĠEmm":14077,"Ġobtains":14078,"ĠAthen":14079,"ranean":14080,"Ġinnovation":14081,"Ġbranching":14082,"Ġbehalf":14083,"sys":14084,"ĠSL":14085,"Ġclip":14086,"ĠMadrid":14087,"Ġproteins":14088,"ilty":14089,"mate":14090,"Ġinformed":14091,"tting":14092,"Ġtip":14093,"wp":14094,"Content":14095,"ominations":14096,"Ġgran":14097,"Ġceleb":14098,"shifts":14099,"Ġcust":14100,"ĠBurn":14101,"commut":14102,")$$":14103,"Component":14104,"Ġsheet":14105,"ĠFrederick":14106,"Ġemerged":14107,"MNRAS":14108,"Ġdisplacement":14109,"Ġcontributing":14110,"Ġgenre":14111,"oved":14112,"ĠElectric":14113,"orne":14114,"Ä«":14115,"Ġlogarithmic":14116,"Ġenjoyed":14117,"HF":14118,"Ġcoincide":14119,"ĠWebsite":14120,"Ġlongest":14121,"Ġbird":14122,"Ġcurrents":14123,"Buildings":14124,"Ġapproximated":14125,"Ġplain":14126,"Ġarchae":14127,"ĠSecret":14128,"Ġfemin":14129,"Ġconsensus":14130,"ĠSA":14131,"Ġenabled":14132,"plac":14133,"tim":14134,"Ġforget":14135,"ĠAppro":14136,"Ġcarrier":14137,"ĠKon":14138,"Ġrid":14139,"asters":14140,"}$};":14141,"Lay":14142,"mingham":14143,"quark":14144,"Ġassumes":14145,"construction":14146,"+{\\":14147,"Ġupcoming":14148,"arus":14149,"Songs":14150,"kind":14151,"Jac":14152,"Ġpermission":14153,"Ġinjuries":14154,"Japanese":14155,"enerate":14156,"Ġexport":14157,"rov":14158,"pendicular":14159,"Station":14160,"iously":14161,"gov":14162,"Ġindirect":14163,"egu":14164,"Ġeverywhere":14165,"Ġpacket":14166,"Ġhandling":14167,"Ġreflects":14168,"ĠHungary":14169,"ĠArena":14170,"curve":14171,"ĠTrue":14172,"ĠTR":14173,"Ġrecognize":14174,"Ġneighboring":14175,"ĠOrleans":14176,"Ġadvantages":14177,"ĠHungarian":14178,"Cho":14179,"}}}}":14180,"src":14181,"rapol":14182,"Ġperfectly":14183,"Ġconvolutional":14184,"incorporated":14185,"ĠBag":14186,"oil":14187,"ighters":14188,"ĠLeft":14189,"Ġreputation":14190,"Ġreasoning":14191,"Ġmerely":14192,"mill":14193,"imeter":14194,"chment":14195,"Ġray":14196,"ĠAlban":14197,"oker":14198,"Ġemissions":14199,"sufficient":14200,"ĠCu":14201,"ĠJudge":14202,"Ġwhilst":14203,")$}":14204,"Ġfasc":14205,"ĠCel":14206,"got":14207,"Ġevolved":14208,"sb":14209,"Ġlegs":14210,"á»":14211,"wright":14212,"Ġfro":14213,"ĠNASA":14214,"Ġdwarf":14215,"utors":14216,"Ġbeach":14217,"Person":14218,"Ġgray":14219,"Ġradical":14220,"Ġpersonality":14221,"ĠLiverpool":14222,"enberg":14223,"ĠPaper":14224,"Ġanswers":14225,"[->":14226,"idering":14227,"Ġresolve":14228,"Ġcarries":14229,"access":14230,"Ġmild":14231,"carl":14232,"abatic":14233,"graded":14234,"Ġtheater":14235,"ĠStill":14236,"Ġanomaly":14237,"ĠAltern":14238,"ovo":14239,"Ġpredomin":14240,"ĠMathemat":14241,"Ġjudges":14242,"Ġwearing":14243,"_{|":14244,"Ġmaintaining":14245,"Ġdevelopments":14246,"Space":14247,"Russian":14248,"ĠBrooklyn":14249,"ĠLGBT":14250,"Ġcommitment":14251,"Robert":14252,"Ġillustrates":14253,"UP":14254,"CNN":14255,"Ġlanding":14256,"Ġartifact":14257,"Ġasymptotically":14258,"Ġaligned":14259,"ternoon":14260,"cn":14261,"ĠWelsh":14262,"Ġtuning":14263,"ĠMPs":14264,"ishops":14265,"Ġnontrivial":14266,"rise":14267,"Ġgovernments":14268,"{|\\":14269,"Ġmatched":14270,"Ġpraised":14271,"Ġspins":14272,"Ġequivalently":14273,"ĠMountains":14274,"ĠStage":14275,"Ġdeviations":14276,"ĠFinancial":14277,"ĠDJ":14278,"Ġpartly":14279,"EF":14280,"ĠRio":14281,"}^-":14282,"ewise":14283,"near":14284,"Ġwinds":14285,"Ġfriendly":14286,"Ġdisks":14287,"oka":14288,"Ġopens":14289,"ĠOrthodox":14290,"ĠCentury":14291,"Ġdeeper":14292,"Kn":14293,"))=":14294,"Ġdepos":14295,"ĠUpon":14296,"December":14297,"ĠPatri":14298,"ractor":14299,"})}{":14300,"Ġaddresses":14301,"Ġadditive":14302,"Du":14303,"ĠOri":14304,"ante":14305,"Ġmodify":14306,"ĠConvention":14307,"Ġstruck":14308,"these":14309,"ccentric":14310,"Ġcompanion":14311,"ĠMetro":14312,"ĠBangladesh":14313,"Ġspecify":14314,"Ġscreening":14315,"Ġsav":14316,"Ġguy":14317,"}};":14318,"ĠMother":14319,"irable":14320,"Lu":14321,"ounce":14322,"Dom":14323,"geqslant":14324,"Ġpriest":14325,"Ġforests":14326,"ĠCarter":14327,"ĠMarshall":14328,"rus":14329,"Ġmomenta":14330,"holm":14331,"ĠNar":14332,"multip":14333,"}):":14334,"ĠWas":14335,"Ġstrat":14336,"Ġjournalists":14337,"Ġinterpolation":14338,"ĠMI":14339,"Ġloved":14340,"ĠArn":14341,"Ġdivisions":14342,"izz":14343,"ĠYes":14344,"ĠChallenge":14345,"Ġwides":14346,"oba":14347,"Ġillness":14348,"prison":14349,"Ġflexible":14350,"ĠBrothers":14351,"Ġsends":14352,"Ġcharacterize":14353,"Ġbrands":14354,"Ġpoverty":14355,"ĠTrib":14356,"Ã©n":14357,"Ġadjoint":14358,"rv":14359,"ometer":14360,"ancell":14361,"ĠUnlike":14362,"Ġvortex":14363,"Ġorganisation":14364,"ĠGill":14365,"Ġpairing":14366,"Ġcutting":14367,"Ġrelating":14368,"MSE":14369,"ĠMetropolitan":14370,"Sam":14371,"Ġstyles":14372,"Ġasks":14373,"ĠBible":14374,"corr":14375,"Ġwet":14376,"ĠPrad":14377,"Ġresign":14378,"election":14379,"Ġsupervised":14380,"TF":14381,"article":14382,"letter":14383,"Ġencourage":14384,"ĠSenator":14385,"ĠFranklin":14386,"Micro":14387,"Ġsubstantially":14388,"Ġirre":14389,"Ġ)\\":14390,"photon":14391,"Ġfabric":14392,"ĠHend":14393,"Ġtet":14394,"Ġawareness":14395,"ovich":14396,"turn":14397,"Ġtube":14398,"effective":14399,"Ġincred":14400,"Ġestablishing":14401,"Ġrisks":14402,"ĠAqu":14403,"ĠDirect":14404,"Ġclick":14405,"Ġsimplest":14406,"ĠHampshire":14407,"Ġarchitectures":14408,"ĠDelhi":14409,"ename":14410,"ĠFather":14411,"Ġstruggle":14412,"Ġcontrary":14413,"ĠCheck":14414,"Ġvessels":14415,"Ġambig":14416,"Ġinsights":14417,"Ġdisag":14418,"Ġhabitat":14419,"ĠTax":14420,"Ġqubits":14421,"nee":14422,"ĠCF":14423,"ĠStars":14424,"sv":14425,"Ġinvolvement":14426,"ĠMaine":14427,"210":14428,"rceil":14429,"ĠAN":14430,"north":14431,"Ġintervention":14432,"sale":14433,"Ġwhatever":14434,"ĠMeanwhile":14435,"Ġdecoder":14436,"veloc":14437,"teenth":14438,"Ġweaker":14439,"Ġdots":14440,"Ġsurprise":14441,"ĠIndustry":14442,"nell":14443,"ĠChange":14444,"icing":14445,"Ġdict":14446,"Mr":14447,"Ġconqu":14448,"ĠMake":14449,"Ġmethodology":14450,"ĠChampion":14451,"ĠGary":14452,"ricane":14453,"Ġpor":14454,"ĠJava":14455,"Ġrequested":14456,"Ġconvert":14457,"Ġsolely":14458,"Location":14459,"($\\":14460,"Gal":14461,"ĠTrack":14462,"ĠRugby":14463,"Ġattracted":14464,"Ġdivor":14465,"Ġcombin":14466,"homogeneous":14467,"ĠLeban":14468,"ĠLHC":14469,"Ġrepair":14470,"Ġinstructions":14471,"optim":14472,
[...]
