#version: 0.2
Ġ Ġ
Ġ t
i n
h e
Ġ a
o n
e r
r e
Ġt he
a t
e n
o r
ĠĠ ĠĠ
a n
Ġ s
a l
i s
Ġ o
i t
e s
e d
a r
Ġ c
Ġ w
i on
Ġ f
Ġo f
Ġ in
n d
Ġ p
i c
Ġ b
l e
a s
in g
r o
Ġa nd
Ġ d
Ġ m
Ġt o
c t
en t
e l
e t
o u
Ġ \
i l
a m
s t
Ġ S
o m
i g
Ġ $
Ġ h
Ġ re
o l
Ġ T
Ġ C
Ġ (
at ion
Ġ A
ĠĠ Ġ
r a
Ġ n
i m
ĠĠĠĠ ĠĠĠĠ
Ġt h
Ġ l
o t
Ġ e
i d
c e
i v
u r
Ġ M
c h
Ġ is
u t
u s
Ġf or
a d
u l
Ġ B
Ġ g
er s
o w
Ġ P
e m
Ġ on
l y
2 0
Ġ I
1 9
{ \
i r
u m
u n
is t
it h
l a
Ġ H
Ġs t
Ġa s
o d
t er
q u
Ġb e
t h
Ġ R
s e
i f
Ġ F
Ġ v
g e
Ġw as
Ġ L
Ġ D
Ġc on
Ġw ith
ĠT he
an d
t a
Ġa l
Ġth at
v er
Ġ N
Ġ G
r i
Ġb y
p e
he r
at e
en d
Ġ W
at h
Ġ Ċ
_ {
o c
ct ion
Ġa n
ro m
o p
re s
Ġ =
e g
o s
h t
Ġ E
es t
Ġp ro
ĠĠĠĠ ĠĠĠ
â Ģ
a y
Ġa t
it y
u b
č Ċ
Ġd e
u p
a b
e x
a p
a v
Ġw h
Ġ$ \
a c
ar t
Ġ J
Ġc om
Ġf rom
e w
p h
al l
i es
m ath
Ġ "
Ġe x
in e
o re
es s
or t
ig ht
Ġ O
u re
Ġ &
' s
as s
Ġ it
r an
Ġs e
ĉ ĉ
u d
i al
a g
b er
Ġa re
p t
i an
Ġ he
am e
Ġ or
m ent
iv e
} \
Ġ <
u e
= "
il l
it e
) ;
n t
Ġ K
Ġ U
a k
i p
o g
e f
ic h
T he
} $
at ed
ou r
ar d
^ {
i z
- -
l d
re f
20 1
e ct
Ġ {
ar y
m a
i a
âĢ ĵ
an t
o v
in t
Ġw e
c l
ul t
Ġc h
u nd
p er
ex t
el l
ig n
) ,
Ġ r
20 0
Ġc l
ic al
ĠI n
ĠS t
on g
f t
it ion
p l
or m
< /
Ġs h
ra c
as t
u st
Ġ le
Ġcom p
u g
} }
Ġ us
a ge
ĠĠĠĠĠĠĠĠ ĠĠĠ
Ġth is
or d
c on
Ġ V
0 0
( \
i re
p ort
f f
k s
a re
c es
Ġwh ich
Ġh is
e p
/ /
en s
Ġ *
d u
o st
s o
Ġn ot
Ġre s
) .
eg in
Ġ k
ation s
Ġ |
is h
b egin
Ġ -
c al
1 8
ĠC h
av e
Ġ y
er e
Ġ }
la y
c c
t o
I n
p ro
t her
ur n
r ic
) $
m er
_ {\
im e
e ar
Ġ un
en ce
er v
id e
an g
a in
as e
Ġw he
t ext
r y
i b
ion s
il d
Ġal so
r m
l ow
e c
ter n
ou s
} {
ĠĠĠĠĠĠĠĠ ĠĠĠĠĠĠĠĠ
Ġw ere
r u
or k
Ġa p
a ct
ir st
a ch
e qu
ic e
in d
or y
ab le
Ġc an
i le
Ġh as
r ight
e y
ou t
} ,
f rac
e q
Ġa d
en er
ac k
Ġh ave
s p
ow n
r it
" >
f orm
er m
o ver
Ġ| |
c om
ĠĠĠĠ Ġ
ĠT h
Ġa r
Ġ im
f er
ou nd
a ce
w o
la b
ub l
o k
i e
c ite
at es
. .
Ġp art
ĠU n
ol d
re e
Ġ j
ou nt
t he
cl ud
am p
Ġa b
Ġcl ass
ran s
Ġ ro
ĠH e
19 9
Ġs u
an ce
ent s
Ġcon t
he d
or s
ri b
od e
Ġ if
math b
ta in
c k
Ġf irst
1 0
Ġon e
Ġp lay
res s
ou ld
l i
r ing
* *
et a
t urn
ation al
lab el
o b
ro w
Ġ Y
f ig
ĠI t
at a
j ect
w e
in al
n g
Ġd is
el y
t e
y pe
u al
Ġs p
, \
en ces
$ ,
Ġ âĢĵ
s s
f ter
g et
$ .
c ed
Ġ +
math cal
le ft
om e
Ġh ad
Ġal l
Ġit s
ic s
or n
Ġt wo
ar k
i el
S t
Ġp er
un ction
o se
at er
Ġthe ir
Ġm od
equ ation
Ġb ut
l l
Ġt e
Ġ '
} .
p s
Ġn ew
Ġo b
l es
Ġs c
am b
} )
e v
l and
c ent
i k
Ġd es
o ol
o int
le ct
Ġe v
ra d
re d
Ġ en
iel d
ic an
Ġ qu
oc k
is s
} (
i ed
Ġde f
an y
pe ct
Ġo ther
Ġs et
( )
ta b
-- --
} ^
o ot
E x
Ġo ut
on e
i o
ul ar
R ef
Ġwh o
it ed
Ġa g
i x
Ġs y
ig h
= =
Ġin t
as ed
19 8
ra ph
pe c
s h
} _
~ \
Ġas s
l ine
ubl ic
em ber
on d
on s
ol low
a w
Ġo ver
Ġm e
iv ers
ph a
Ġ up
ra y
op le
1 2
Ġre turn
im es
n e
er t
Ġv al
v el
Ref er
ic t
s c
d a
um ber
iz e
Ġbe en
ut ion
r am
Ġ her
Ġc ol
al pha
il m
Ġt ime
on t
Ġin clud
ro up
Refer ences
ing s
ar am
und er
w ard
Ġy ear
Ġcom m
in ed
ĠĠĠĠĠĠĠĠ ĠĠĠĠĠĠĠ
p os
Ġfor m
Ġ [
Ġin d
Ġs ub
at ive
" ,
) \
Ġin ter
mer ican
Ġcon s
Ġf unction
a il
1 7
s et
et h
1 6
ur ing
Ġb et
Ġf ollow
o y
e ople
st em
Ġcon st
Ġwhe re
o f
an n
res ent
r al
Ġre g
1 5
Ġp re
19 7
ĠS e
el ta
ug h
m b
le t
ro und
if ic
in ce
amb da
v i
Ġin to
$ \
ul l
p r
Ġl oc
ĠN ew
Ġon ly
pt ion
Ġre c
el f
an s
Ġv ar
h o
ĠC om
Ġd ist
c he
ol og
ĠM ar
Ġp r
b all
p ut
Ġm ore
Ġsu ch
Ġc o
ou g
we en
Ġw ork
v e
Ġres ult
ak e
Ġthe y
Ġs up
in s
le ment
Ġa fter
Ġwhe n
Ġp l
con d
Ġt rans
s ub
am ma
us e
er y
l o
ĠTh is
_ \
Ġ under
ic k
Ġd if
Ġa cc
ist s
re n
Ġp ol
Ġthe n
Ġ .
Ġa ct
m u
am es
d er
a x
ou n
ot h
o x
al s
ĠA l
Ġn e
mathb b
at ing
Ġof f
id ent
Ġd o
Ġre l
c re
Ġ //
Ġl in
Ġg ener
Ġbet ween
ch ool
Ġw ill
is hed
d ot
it ies
our ce
is ion
ru ct
Ġ\ \
ĠA r
= \
} ^{
} _{
Ġp os
Ġre p
Ġmod el
19 6
ad e
w ay
e e
t s
Ġs o
Ġthe re
2 1
ar g
- >
c ol
ig ma
i ent
t on
: :
e b
u res
Ġus ed
eg a
Ġs erv
Ġf ilm
at or
or ld
Ġpro du
1 3
Ġth an
tern al
il y
Ġk n
Ġp h
ou th
1 4
Ġb u
Ġs he
it s
- \
h at
ar s
Ġs im
is e
al ign
Ġsh ow
Ġn ame
ĠP ro
Ġbe c
ph i
y s
w n
ire ct
o h
Ġin v
Ġt ra
g an
ov e
le m
^ {\
Ġ Z
at ure
u es
Ġ /
ivers ity
ur y
ĉĉ ĉĉ
Ġw ould
h ip
Ġ< /
as on
t y
Ġad d
Ġ @
en g
Ġst ud
p i
Ġp eople
Ġs pec
oc i
Ġp ublic
s um
b f
ĠA merican
id th
p art
id er
Ġex p
l ambda
Ġ {\
ut e
Ġs ome
Ġ end
at t
Ġl ine
Ġo p
Ġn umber
Ġpro v
v al
c y
Ġe qu
il ity
ro ugh
1 1
a ir
y n
Ġdif fer
as h
or th
.. /
Ġf e
us s
em b
m an
Ã ©
Ġm at
ap p
Ġsy stem
Ġ Q
e ver
Ġan y
Ġ âĢ
b ar
t t
Ġin st
iz ed
Ġc ent
al ly
ow er
19 4
il on
Ġd ata
er n
ĠS h
Ġe ach
mathb f
Ġn o
Ġm ost
is m
ction s
i er
âĢ Ļ
Ġc or
Ġ ra
19 5
2 5
er r
ib le
Ġg o
m in
eth od
Ġab out
Ġg iv
ĠC ol
at ic
Ġex t
ar n
C on
Ġ ed
oug h
ĠF or
2 2
ĠL e
r on
Ġ es
Ġ ent
ap t
ĠI nd
al e
Ġ :
Ġf ound
ĠW e
Ġm an
em ent
P ro
o ok
Ġp oint
in n
Ġo per
Ġs ing
m all
' ,
se ction
Ġ i
ĠUn ited
Â ł
Ġc all
Ġth ree
Ġag ain
Ġm ay
3 0
ild e
er ies
Ġth rough
Ġc ur
Ġs ign
if e
a j
( );
oot ball
ot e
a z
( "
Ġthe se
Ġse cond
c ess
s igma
ĠUn iversity
ĠA n
Ġ( \
Ġe ff
Ġat t
it t
ric t
ra ct
Ġg roup
m l
^{ -
a h
Ġthe m
re nt
ou se
sp an
ĠD e
Ġd uring
Ġh im
k e
Ġw ell
Ġus e
u c
ion al
b eta
he n
Ġ x
v ar
T h
} {\
Ġyear s
Ġch ar
o id
) )
d ef
Ġc ase
ess age
m p
y le
s y
l ed
Ġt r
Ġte am
ep s
Ġs ame
over n
Ġc re
Ġlin ks
iz ation
ar ly
Ġst ate
Ġp la
Ġm in
Ġde c
ow ever
l in
it em
Ġb oth
Ġap pro
math rm
g amma
* }
g y
+ \
Ġre le
Ġfollow ing
Ex ternal
Ġdes c
Ġa c
Ġpro b
ĠC on
Ġs ur
Ġs ol
s on
d iv
re at
ut h
C h
Ġf am
\ \
p ar
et er
ic es
Ġval ue
Ġ X
ire d
Ġvar i
Ġre qu
---- ----
Ġa m
ir c
Ġplay ers
Ġg et
us ic
Ġpart ic
iv ed
Ġf ield
Ġper form
l ish
t en
o ber
in a
Ġo ur
Ġh igh
amp le
ĠS c
Ġdiffer ent
Ġar t
ar ray
ur al
Ġwh ile
Ġd irect
] {
Ġb ack
00 0
ĠA s
ical ly
Ġle ad
f or
> </
ĠE ng
ment s
Ġn on
ot her
b y
u ch
iv er
d elta
** **
s erv
ist ory
ul ation
Ġt erm
Ġm on
oh n
Ġm ade
le ction
. "
the ta
el s
v ent
ar ch
at her
pl ic
) }
ers on
^ \
en n
le q
b um
p on
um n
as k
r id
Ġt ype
le y
o o
2 4
ĠSt ates
Ġp op
Ġus ing
a use
iv ing
p le
ri pt
W e
Ġ* /
fig ure
c dot
Ġor der
r ho
ĠĠĠĠĠĠĠĠ Ġ
in ing
Ġkn own
ĉĉ ĉ
Ġbe ing
f ore
he re
Ġw rit
$ -
ta u
a u
m m
et s
l u
Ġl ater
Ġm ed
ĠS p
ro ss
" .
C om
Ġgiv en
ot t
}$ ,
Ġf inal
}$ .
th s
w idth
ĠS he
qu ad
E R
2 3
og raph
in es
Ġ ran
om en
ĠC ount
y p
ĠC l
t r
Ġy ou
ition s
Ġc ount
ers ion
} (\
ar row
Ġcons ider
b ig
ro p
ag es
l ation
ĠĠĠĠĠĠĠĠ ĠĠĠĠĠĠĠĠĠĠĠ
ĠI s
> <
Ġf our
olog y
Ġrec ord
Ġb ir
t il
un e
d d
eq ref
Ġap pe
ĠO n
t imes
iv ely
i ew
Ġse ason
Ġf ootball
ist er
19 3
Ġdis c
Ġm any
== ==
Ġm ain
as es
Ġs mall
ag ue
Ġd et
Ġbe fore
ar ge
Ġ el
al ity
Ġst art
ac he
ĠCom m
o od
ay s
ik e
../ ../
Ġf in
Ġor ig
vel op
e ad
c o
v ed
Ġ #
m e
Ġe m
th is
iss ion
Ġl ong
Ġde velop
5 0
ot s
an ge
Ġb ro
Ġinclud ing
Ġal bum
um ent
Ġst r
ĠF ran
( '
Ġm ov
ar ri
part ial
Ġm ethod
Ġin f
Ġ z
i or
Ġs eries
cent er
Ġes tab
if ied
n u
ft y
re ad
l ock
in fty
t ilde
. ,
I N
p aram
Ġr un
se c
ĠJ ohn
g ram
ĠW orld
Ġs ince
Ġs chool
ĠN ational
om ega
a id
an e
Ġf act
p m
Ġb el
en cy
N ame
Ġp aram
ce pt
Ġ _
Ġcont in
ĠM ay
Ġ `
sp ace
le v
ial ly
O N
Ġbec ame
a i
u ro
ĠA ust
are d
| \
Ġe lect
ĠP h
t rans
Ġl ist
Ġbu ild
vi ew
ran g
Ġagain st
Ġde p
cc ess
Ġrep resent
i qu
O n
il la
iv es
r t
Ġsup port
m od
it le
in clud
an k
ht ml
Ġap p
tern ational
l og
rib ut
s k
n ame
le x
an u
Ġdesc rib
Ġm et
ĠC an
T ype
ĠE x
ver y
c er
D elta
l ang
n ot
Ġeff ect
S T
ur ch
ra w
Ġt est
Ġre ce
ri x
i am
ĠC ar
am ed
ĠCount y
ak ing
Ġo wn
iv al
at ch
Ġb ased
ĠA ss
la ck
ch n
eq n
ĠĠ Ċ
ual ly
or ks
R es
s ource
ĠB rit
Ġp resent
2 8
Ġ ,
r and
2 7
form ation
Ġs elf
ĠW ar
g es
im port
Ġse ver
Ġop en
2 6
Ġdes ign
I t
Ġh ref
201 0
ian s
os s
Ġresult s
l oc
ore m
ĠJ ul
ad d
Ġg u
Ġloc al
Ġst ruct
Ġp res
x i
al se
I d
ep end
eng th
f ul
) :
Ġd r
ĠS chool
r ist
Ġfam ily
p or
i um
et w
m essage
A R
a f
g er
Ġcall ed
St ring
Ġchar act
| -
Ġpro per
in c
Ġcon d
um er
Ġ est
od y
ro l
Ġs ong
rac k
Ġg overn
a ult
Ġl arge
it al
ĠS outh
ce ption
emb ers
Ġde ath
ĠG erm
Ġr ight
ant s
Ġob tain
Ġb ound
Ġ$ (
Ġun til
A T
p ond
\ ,
mb ol
t d
ĠY ork
Ġ err
cl ass
Ġim p
Ġpro cess
n er
Ġn ow
ĠN ov
re turn
l er
b ack
ug ust
amp ions
F or
c ode
Ġcon tain
201 5
ward s
1 00
g or
} [
p p
r is
Ġpro f
ĠO r
m ed
are er
201 4
Ġpol it
Ġob serv
201 6
pt ember
b orn
or g
Ġex per
ĠA t
L ist
col or
} }\
ĠG e
201 8
C l
id ed
eps ilon
ĠA d
Ġm ult
201 7
)$ .
Ġp ar
aj or
2 9
w here
ir d
p lay
u le
if y
re en
ur ther
et y
Ġ )
201 1
Ġc ould
re t
in k
Ġan al
ĠC ent
um b
v ers
port s
ic a
20 19
g round
201 2
ct ober
vi ous
Ġse e
ab ility
tab le
ag n
iv ate
ver t
4 0
Ġre fer
Ġare a
anu ary
s elf
Ġst at
Ġgener al
Ġm usic
201 3
P h
v en
Ġcur rent
a e
ĠP ar
U n
Ġto p
il t
Ġan n
Ġsever al
Ġre ma
am ent
Ġp ass
is ed
a int
ist or
Ġin cre
Ġsing le
Ġbec ause
Ġre m
s q
ĠMar ch
r ation
t ype
re g
ĠA ugust
Ġme as
Ġcomm un
Ġbe com
ĠT e
$ $
et ers
/ >
rib ution
Ġd ue
ol ution
R E
Ġle ft
end ed
Ġo pt
Ġne ed
en se
re m
ĠSe ptember
ro du
Ġo cc
I D
Ġin it
Ġch ild
Ġh and
op t
ar m
f ace
m ber
Ġ rad
Ġ >
} _{\
o ard
Ġorig inal
pr il
Ġn ear
i ence
Ġal low
ent ial
om an
O m
ĠP ol
Ġm ass
Ġob ject
A r
Ġpos s
Ġev ent
S S
l ing
le ge
Ġal ong
ect ed
200 9
200 8
s im
Ġg ame
Ġor gan
Ġre st
ĠO ctober
Ġres pect
Ġoff ic
A l
Ġre f
ĠJ anuary
A s
ĠS y
Ġ !
Ġhe ad
Ġl im
Ġpro gram
um e
ĠP r
ps i
st r
20 20
ĠJ une
: //
id es
Ġt em
v es
Ġsp ace
an c
en e
Ġplay ed
ĠH owever
Ġl ife
Ġfor mer
n ess
Ġe very
ĠI I
text bf
i j
ce mber
Ġl ast
ĠAust ral
i od
re qu
re am
V al
Om ega
ĠJul y
ĠR e
on y
Ġim port
Ġprob lem
Ġrele ased
res pond
s ide
it er
Ġ u
Ġ --
200 7
at ely
f ield
i ous
ar get
" />
Ġst and
it ive
ener gy
c m
eqn array
ĠA pril
ĠĠĠĠĠĠĠĠĠĠĠĠĠĠĠĠ ĠĠĠĠĠĠĠĠĠĠĠĠĠĠĠĠ
200 6
19 0
ĠC al
ect or
^ *
S ee
at s
ĠG u
ĠE uro
)$ ,
il ar
ĠN orth
Ġbir ths
Th is
ĠF ig
Ġc ap
Ġsh ould
Ġre ad
ĠA ll
Ġwith in
Ġf ind
Ġv ery
ograph y
as ter
T o
t ing
Ġw on
o le
Ġadd ition
ĠW h
che s
l ess
âĢ Ŀ
_ _
Ġpla ce
n ew
ĠBrit ish
un g
es c
ĠNov ember
pos ition
Ġtr ue
Ġ= >
ĠC ity
uth or
ps ilon
o ad
Ġ ident
ord er
ord ing
ampions hip
cent ury
Ġe lement
ur g
id d
b s
G amma
ĠLe ague
A n
b m
u ed
3 2
ĠâĢ Ķ
z e
ĠSt ate
il it
ĠM an
Ġp ubl
ĠDe cember
Ġe arly
Ġp ower
ĠR eg
Ġb and
are nt
ore d
Ġa v
raph ics
Ġl aw
he s
b e
im ens
om et
ific ation
d is
ith m
Ġle vel
ord s
Ġd id
etw ork
ra k
Ġl ike
al th
ap an
C ol
Ġp rom
sq rt
ra g
Ġj ust
ĠThe y
sub section
at ors
o ff
av ing
w h
eb ru
com m
Ġv is
Ġc he
v an
Ġa round
Ġev en
c apt
Ġl arg
ebru ary
Ġg ra
un c
Ġhe l
H e
om in
Ġc ity
Ġcon f
ĠR es
b old
l ished
l im
in ter
Ġth ose
al es
Ġdo es
ĠA nd
ĠB e
l ight
Ġ= =
h am
b le
^{ (
v are
pos ed
Ġ$ {\
Ġest im
ch i
ĠK ing
ĠCan ad
er o
end s
Ġs um
Ġs ize
Ġcor respond
Ġn ull
Ġto t
c ur
st it
right arrow
ĠW ill
ro ll
Ġfilm s
Ġt ri
is on
ĠA f
am pl
" )
ĠE d
lev ision
Ġre al
Ġsu ccess
con t
ap er
u age
6 0
18 9
Ã ¡
200 0
ĠEuro pe
vare psilon
Ġcharact er
in ess
Ġs cal
p ed
capt ion
u ild
ĠĠĠĠ ĠĠ
Ġv oid
O R
Ġm embers
us h
a pe
l or
Ġm ake
du ct
od es
Ġs aid
our n
im ent
if t
L E
a ction
d e
ff ic
t ime
l ob
# #
ak es
A merican
ĠA rm
Ġcomp et
r r
Ġ\ ,
Ġst ring
Ġc areer
ren ch
Ġab ove
ĠR ep
trans lation
e ction
x im
}^ {\
Ġex ample
Ġw omen
orm al
Ġc al
ĠF ebruary
Ġen g
ru ction
ht t
Ġw orld
Ġ energy
Ġl and
Ġt rad
Ġto wn
ure d
Ġpre vious
8 0
Ġd en
} =
Ġex pect
Ġt itle
in o
op er
i us
k ey
200 5
es e
se e
eg raphics
includ egraphics
Ġd own
3 3
Ġm ajor
il s
Ġdescrib ed
Ġn amed
.. .
Ġd em
) =
at ures
Ġval ues
Ġm ember
ĠI f
ĠC o
Ġgovern ment
A L
Ġc rit
le g
Ġ čĊ
pon se
b ut
ra p
con st
ĠA fter
Ġp erson
ĠP art
Ġar g
st er
ĠM in
rang le
Ġper iod
lect ed
Ġp ost
re ak
Ġint eg
u k
Ġtot al
Ġsim ilar
Ġinclud e
gor ithm
200 4
Ġs at
at ter
Ġd iv
Ġpartic ular
20 21
al k
Ġcl os
an ces
Ġass oci
val ue
em ph
ri ption
Ġbe gan
ra ft
Ġpop ulation
ĠCh rist
sy mbol
la ce
Ġre port
Ġb as
6 4
Ġestab lished
Ġpro ject
Ġint rodu
Ġl ab
Ġk ey
w ith
ĠâĢ ľ
"> <
ri es
Ġst ill
Ġcomp let
ĠU S
il es
Ġwh at
' '
Ġcomp ut
em pt
ill ion
Ġpro t
Ġloc ated
Ġst yle
ĠD ist
Ġsh ort
Ġle g
ĠB ar
Ġin formation
n on
er ed
Ġhe ld
ef f
Ġm ark
Ġo ld
ĠS w
ur s
Ġm ap
Ġcl ub
Ġd er
epend ent
an a
Ġpoint s
Ġw ay
ens ure
Ġbe h
he ad
us iness
a us
ĠJ apan
la im
n o
t ies
Ġt yp
re l
ĠEng lish
ug g
Ġpr ivate
Ġh ome
Ġman ag
it or
in ation
Ġh ig
Ġte chn
th ough
ĠW est
Ġst ation
ĠH is
Ġat ta
ge q
ĠH ar
Ġd i
Ġc our
E N
av a
ix ed
ĠĠĠĠĠĠĠĠ ĠĠĠĠĠ
Ġf ac
var phi
} ;
im al
st ring
er ing
oun c
4 5
pl oy
Ġf alse
B ig
ĠS up
ĠM c
Ġl a
Ġp o
I nd
ar ian
b ject
Ġv illa
d ata
ens ity
s er
d ay
t op
R e
. ~\
Ġse ction
ad em
ĠA b
Ġn ext
our ces
ide o
le ar
' )
se qu
ress ion
f ord
Ġsh own
Ġb est
Ġa ut
f o
B y
& \
ist ic
pl it
Ġp at
**** ****
ict ion
3 5
Ġre t
Ġex ist
ond on
oc ial
pro of
ref ore
S h
re w
ur b
bold symbol
A C
over line
N ot
ĠB y
Ġfollow s
ir on
Ġl ow
row n
Ġrece ived
Ġc ar
Ġm uch
Ġh old
Ġto ok
Ġis s
a ul
-------- --------
Ġdef ined
c or
Ġv ersion
u ff
Ġh ouse
n ab
Ġre du
. }
' t
ent ion
Ġp red
ener al
Ġm ust
Ġg ames
Ġcomp any
c ul
Ġan other
f rak
Ġel se
Ġch ang
ar i
Ġal ign
Ġa ff
Ġmodel s
p re
Ġshow s
os p
Ġwith out
al f
il le
Ġn ational
Ġe p
Ġd eg
ed er
Ġs k
ĠC or
Ġj o
Ġle t
ĠAf ric
ĠM ed
}, \
Ġbu ilt
en c
ĠCol lege
Ġreg ion
7 5
oc ument
m at
iqu e
[ \
Ġh istory
Ġpubl ished
Ġd el
Ġs pect
ĠE l
Ġh ow
Ġcom b
D ata
200 3
A S
or ph
ĠS an
sc ript
Ġappe ar
ĠR uss
Ġs ide
Ġm ax
ĠR ec
Ġstud y
se arch
ĠN o
Ġpos ition
e k
) ^
Ġv ol
Ġ et
le te
yn am
s ize
r ite
Ġs pe
Ġserv ed
um an
Ġa ge
Ġprof ess
h old
Ġinter est
re st
3 1
w w
// //
Ġd ay
Ġs ix
Ġdet erm
arri ed
9 0
ric k
Ġth ird
Ġcent ury
in ition
i et
7 0
S e
] ,
} ).
S et
Ġb orn
ent ly
Ġa ver
iv ity
Ġf ive
Ġt ake
d ate
Ġp e
ĠL ondon
ĠA ir
ĠCh ampionship
ilit ary
Ġar ch
olog ical
ĠF rench
200 2
Ġv iew
ĠWill iam
Ġfe ature
g o
Ġle arn
ĠH igh
ĠThe re
ĠE n
Ġqu ant
Ġinclud ed
Ġl ang
on es
Ġterm s
es tern
200 1
id ual
h line
Ġserv ice
ĠA m
Ġ id
D E
al d
o pe
d om
Ġf r
Ġ& &
p x
Ġspec ies
m ary
I T
it her
b ox
mm et
y m
ing ton
ĠĠĠĠĠĠĠĠĠĠĠĠĠĠĠĠ ĠĠĠĠĠĠĠ
Ġed uc
ys is
ĠCh ar
Val ue
v ec
n a
c ast
ol l
math frak
Ġinv ol
un ic
et ic
Ġcont rol
A N
ol ic
r um
Ġte levision
Ġmult ip
Ġ/ **
op h
L et
Ġc amp
18 8
ĠGerm an
Ġt imes
L ambda
u ck
Ġt urn
ind ow
con om
} }$
le an
Ġplay er
ly mp
Ġcomp os
Ġst ates
ĠM e
ud e
ard s
Ã ³
Ġstr ong
" );
Ġm en
Ġchild ren
Ġdist ribution
b ra
ĠY ou
Ġappro xim
is f
Ġstruct ure
end ing
ld ots
r ary
re et
Ġf ull
oc us
ĠDist rict
ĠIt al
Ġro le
Ġp ort
Ġp ot
lang le
Ġf urther
ĠC up
Ġbe g
m ult
n ing
Ġc over
ic le
S E
ĠH ouse
ĠH er
op s
ounc il
ĠD av
b it
Ġt ext
Ġcomm on
ĠAr t
Ġa uthor
Ġerr or
s f
Ġof ten
erv ice
Ġperform ance
Ġimport ant
ĠA ng
Ph i
Ġch o
Ġmat ch
ur ation
ĠP ark
i ef
Ġam ong
rid ge
ĠS ch
C O
Ġbuild ing
A M
p ose
g s
ĠB ro
Ġran ge
ĠĠĠĠ Ċ
Ġst atic
ĠP res
a ut
Ġdisc uss
ĠM on
C ont
Ġw orks
b r
if f
Ġph ys
u ation
ail able
or ies
Ġinv est
6 5
Ġb ase
Ġb ook
oo ks
im um
w id
st yle
ĠT o
( $
Ġposs ible
Ġsign ific
Ġn etwork
Ġph ot
Ġvari ous
sh ip
Ġcomp on
app a
ĠCom p
Ġwrit ten
Ġa ir
Ġf ew
Ġw ar
Ġse qu
3 4
Ġc ou
i i
ĠThe se
Ġs w
Ġn orth
ug ht
Ġconsider ed
nab la
Ġs it
i ber
Ġmeas ure
Ġd ied
M od
Ġm y
ensure math
way s
Ġf ore
) );
inn ing
l ue
ct or
Ġt arget
ĠV al
f unction
oci ation
l ist
Ġ %
t est
] ;
av y
s up
Ex ception
Ġme an
al t
mb ox
Ġspec ial
==== ====
Ġp ri
c irc
Ġre d
Ã Ń
oug ht
L iving
op y
ab les
Ġm ot
c ap
text it
ĠPh il
cite p
ĠL a
) (
iv idual
ĠIn ternational
if orn
Ġw ater
Ġp ath
Ġkn ow
P s
f ile
n ow
ĠC he
n b
Ġa rm
Ġcomp lex
att le
oy al
S c
v iron
Ġl og
n ode
ĠP l
Ġvilla ge
C T
ampl es
w ide
Ġind ic
Ġe as
Ġl ight
Ġev ents
lob al
u f
ĠO ne
iforn ia
lo ad
ĠD iv
Ġa ction
ann el
ĠInd ian
\ |
Ġinit ial
9 9
Ġpr im
D e
Ã ¼
ar a
\ %
ro id
Ġal gorithm
rr or
ĠQ u
ma x
P eople
Ġann oun
Ġl ess
ĠP er
Ġtra ining
is c
199 9
20 22
r ig
Ġex pl
Ġb usiness
sub set
Ġcor re
199 0
} )$
Ġprodu ct
Ġf l
. \
our s
Ġ// /
er a
Ġs on
Ġm agn
cl us
Ġrel ations
ĠR iver
ul a
Ġparam eters
b urg
Ġin s
or ge
Ġse par
4 8
Ġc ross
Ġcount ry
O bject
Ġfunction s
Ġass um
g roup
ĠThe n
Ġf ail
Ġro und
Ġst ar
ĠA g
I nt
Ġc r
Ġgo od
ĠEng land
w are
ĠSt ring
3 8
use um
ater ial
Ġc laim
ate g
Ġc irc
an ish
k appa
ot imes
Ġs outh
Ġim pro
m ar
d raw
o on
Ġcre ated
ite ct
T est
Ġthe ory
H istory
Ġn ov
Ġ ide
Ġg raph
oci ety
Ġ Ð
ĠD ep
Ġobtain ed
Ġaver age
ĠM ich
Ġcon v
Ġsat isf
land s
3 6
ak en
âĢ Ķ
Ġk ill
Ġh owever
} ),
ra in
Ġd ensity
Ġg en
Ġprodu ced
Ġbecom e
ch ie
A P
Ġen c
Ġd eta
\ !
Ġf ree
re ed
Ġh ost
Ġ( )
ut ions
I I
og n
ĠCal ifornia
i ents
Ġ! =
Ġap plic
Ġl ower
om b
Ġp aper
ic o
Ġl ed
Ġin put
her n
Ġcons ist
Ġch ange
Ġh istor
Ġh aving
y l
com p
Ġsup er
Ġs em
nd er
am a
rib ute
S igma
at ural
Ġcon c
Ġt w
Ġs ent
Ġfe atures
et t
il ter
ul es
B C
s w
loc ation
ĠA ct
Ġd at
I C
Ġestab lish
Ġ q
K ey
m ap
Ġor g
Ġcon n
d f
p oint
Ġsignific ant
Ġav ailable
Ġlim it
4 4
Ġc ult
ĠPart y
W ith
at us
Ġf low
fer ence
ĠL ist
and er
is ing
ot ed
as ing
Ġh y
Ġsystem s
Ġs ource
ĠAustral ia
Ġ` `
Ġcond ition
Ġmov ed
Ġs ite
Ġhe re
Ġgroup s
p ace
5 5
lin k
st and
199 8
Ġdif f
id ence
ĠA c
du c
Ġp ract
Ġdist rict
Ġv ert
non umber
Ġprodu ction
ind ex
a ff
Ġrespect ively
ourn al
iv il
em s
ign ed
Ġ( $
}} {
Ġmat rix
m s
3 7
( ).
l s
in ary
st ate
ĠA mer
Ġdeath s
min ist
Ġdevelop ment
c her
Cl ass
and om
i ol
nb sp
h a
wid et
ĠT r
h ib
ĠW hen
Ġp air
Ġc er
D ef
dot s
m y
b or
qu e
Ġsh ip
Ġle ast
s cal
ec ut
Ġl ay
ĠE ast
Ġm ale
Ġind ividual
Ġf ather
s l
Ġk e
3 9
Ġin ternational
G et
ĠO lymp
Ġset t
ĠArm y
Ġeng ine
Ġhel p
ou ble
m on
Ġg e
\ [
ĠA ward
Ġan t
Ġr ate
m ost
Ġn ode
() );
Ġm illion
widet ilde
Ġl ate
Ġsol ution
Ġappro ach
Ġl oss
Ġim age
Ġcommun ity
Ġyou ng
Ġde v
ab ly
Ġs old
A t
6 6
ly ing
ĠB er
Ġre search
N ew
0 5
Ġb i
Ġc ell
Ġl ength
Ġc ases
it ch
{ -
ran t
] .
ell ow
c hed
Ġe ither
ight s
ag er
Ġconst ant
Ġstand ard
c it
viron ment
Ġb lack
Ġf em
g ed
k en
Ġparam eter
Ġn eg
Ġg row
Ġf requ
Ġm er
Ġanal ysis
r c
k n
Ġind ependent
ĠInd ia
ex p
Ġproper ty
Q u
18 7
Ġg reat
198 0
Ġm iss
F F
ĠB el
Ġhig her
Ġstart ed
b b
ut ure
center ing
ĠL et
Ġd a
ir t
ev el
itt le
o ch
e h
ugg est
get her
ĠCh urch
ĠFran ce
Ġto gether
Ġv ideo
ĠP ort
Ġc aus
Ġreg ular
ĠS ec
" ;
L L
E rror
d own
Ġconst ruct
Ġh alf
a it
Ġequ ation
Ġannoun ced
itt ed
199 6
Ġh om
Ġc ost
Ġf lu
Ġf ile
Ġc ame
ĠM al
Ġcorrespond ing
b ased
m ing
h an
a el
Ġd om
0 1
/ \
I S
Ġreturn ed
g color
Ġf ocus
A ss
ĠL em
Ġassoci ated
th m
ort hern
Ġth us
Ġacc ess
Ġa ward
ress ed
Ġrequ est
. _
4 9
199 7
htt p
Ġmethod s
ĠR oman
Ġback ground
Ġs er
ens ion
Ġf und
it z
ar ies
idd le
Ġe ar
per ty
p ath
ĠAmer ica
Ġpot ential
Ġbro ad
ac ks
Ġoffic ial
ĠR ed
Ġpolit ic
Ã ¶
ib ility
unic ip
Ġv ia
ut il
Ġse en
E n
v ing
c ing
ĠP al
A fter
Ġcond itions
Ġre cent
ot a
f rom
ĠR ev
M an
Ġg round
R O
ĠCanad a
Ġde but
ĠEurope an
end er
p en
g en
ĠW ith
ĠS im
c is
Ġn umer
tab ular
F ig
ĠC our
Ġa chie
cc ording
Ġsur v
y a
ce ed
Ġab s
ch an
A ll
ĠF irst
Ġbel ow
Ġd imens
Ġw ent
Ġpl an
ac es
Ġep is
Ġpolit ical
ĠA nt
ĠPres ident
n ey
ott om
Ġe lection
iv en
Ġprov ide
ĠH ol
it te
Ġlang uage
inc ip
pl ied
Ġs uggest
ust om
Ġrequ ire
ĠC ouncil
ĠTh om
ĠG overn
Ġem ploy
ĠR ober
u el
art ment
ĉĉĉĉ ĉ
Ġcal cul
Ġ: =
Ġre view
Ġb gcolor
ult s
Ġimp lement
4 7
ĠP aul
ĠG eneral
Ð ¾
St ate
F rom
E D
Ġrequ ired
ro te
} -
Ġc y
ac hed
ĠJ ames
ther n
Ġc ode
s in
ĠA p
Ġtem per
Ġac ross
n av
ĠS m
ĠQ ue
Ġf ri
sum mary
i ers
am il
le ctions
ord in
em ents
199 5
Ġpartic ip
Ġapp oint
read y
Ġatta ck
ear ch
Ġlin es
Ġph ase
ĠM or
Ġt aken
Ġd est
Ġact iv
F orm
stit ute
I f
E S
Ġ ill
Ġpop ular
ec ess
~ ~
Ġass ert
Ġs ocial
ou thern
c le
Ġs m
E T
[ '
Ġcon text
il ities
Ġatt empt
Ġt rack
ĠR oyal
pl ies
ul ated
p ublic
g ress
k ed
Ð °
ac y
ĠDiv ision
" :
v ille
ĠS um
Ġb reak
Ġcontin u
R equ
Ġpro posed
ĠGe orge
\ ]
ur l
ĠS ince
ition al
oun tain
ĠSt reet
Ġ/ >
ho od
il ed
ĠN e
Ġcl ose
Ġwork ed
id ing
Ġm em
Ġp erm
oc al
R ec
oun ter
ĠS en
V iew
A A
Ġb lock
Ġacc ount
Ġm arried
ĠThe orem
Ġm ilitary
l ength
Ġproper ties
Ġpos itive
y ear
Ġinf lu
ree k
Ġreport ed
in st
Ġad v
ess ion
om orph
wh ich
Ġst ory
199 4
\ {
Ġb ody
he l
Ġline ar
ache s
and id
Ġd ays
Ġpro of
u i
at ives
Ġexpect ed
um p
Ġserv ices
Ġprov ided
Ġr andom
Ġ Ã
C C
' );
| |
u x
r d
ĠR ich
197 0
Ġdep end
om ent
ra b
Ġl iter
Ġme ans
Ġw ant
p an
med i
Ġv ector
k y
Ġl o
ber g
ack age
L A
E qu
199 2
Ġcontain s
f oot
Ġt re
r un
ĠM y
ĠAss ociation
Ġdeg ree
; \
e an
ran ch
Ġdevelop ed
Ġcre ate
Ġelement s
ib rary
c os
} +
Ġstud ents
c ell
Ġun it
Ġh uman
) =\
Ġdef e
kn own
ĠD em
ire ction
6 7
I M
ber t
oc r
ĠL ou
T ime
ne ction
pr ime
O ver
Ġjo ined
Ġan g
' ]
Ġind ex
r ated
ĉ Ċ
Ġsc he
Ġn ormal
Ġcon fig
ĠSe ction
ĠM a
b and
ĠSt ud
Ġconst ruction
as c
A dd
ic y
ĠB ut
r im
S y
ut es
Ġperform ed
ag o
k a
Ġd ocument
Ġm aking
Ġs l
ĠDav id
Ġf lo
( ),
o e
ic ro
Ġarch itect
ĠD es
Ġcol or
Ġs ay
ĠUn ion
Ġinst ance
ill s
Ġra il
il i
ri an
Ġpres ident
{ (
Ġbeh av
. </
ist ics
ĠSy stem
Ġm aterial
w ise
Ġe mb
re c
e al
er b
m ark
ot es
Ġe conom
umn i
ĠGerm any
199 3
A d
6 8
ĠB ra
Ġrep la
z eta
Ġw rote
Ġf ig
Ġw in
}\ ,
ro y
P E
ĠH all
G e
T R
Ġrel ated
Ġind ust
"> </
Ð µ
F ile
9 5
id a
ĠAustral ian
. ~
p ly
I s
ou d
at al
Ġd ynam
ra int
} =\
iz ing
Ġth row
Ġcont ent
Ġcomm and
T rans
it ar
18 5
) ^{
ĠP at
Ġab le
Ġgra du
ash ington
og le
ĠF rom
i res
Ġp ut
, "
d t
Ġare as
Ġm ag
199 1
ĠE q
u ra
p ons
Ġsur face
err or
Ġus er
Ġm id
qu are
ig en
Ġ& =
T ext
ĠT rans
Ġcent ral
all s
Ġsy mmet
Ġqu est
Ġfin ite
ĠCh ina
Ġne ver
ĠD uring
Ġopen ed
ic on
ic ol
ic les
P l
Ġinvest ig
s mall
g in
} ]
li ke
pro p
Ġwh ose
Ġro ad
I ON
ri ate
Ġ );
Ġwork ing
ask et
Ġdirect or
ĠD r
ish ing
wo od
ra ction
itte e
r ide
Ġintrodu ced
j s
Ġl ost
Ġres ponse
Ġwe bs
Ġsong s
Ġprofess ional
ul ations
cdot s
s ing
ĠE m
Ġrec ogn
Ġaddition al
Ġcon duct
an i
b oard
Ġl ik
Ġlarg er
Ġdef ine
}^ \
emb ly
Ġinst ead
Ġh on
Ġc apt
as ons
Ġal ready
Ġcont ribut
ta ge
Ġbet ter
av es
ust er
ĠM od
a ign
ĠN or
Ġch urch
Ġnov el
Ġp arent
O r
ĠD ef
ĠCent er
ĠP e
Ġteam s
Ġ rac
Ġche ck
ĠC ont
Ġother s
Ġdist ance
Ġcomp an
Ġar r
Ġout put
m en
Ġcomp ar
A D
f in
Ġf la
esc ription
ĠD i
) }\
um ents
ist ry
ugh ter
n el
Ġt able
Ġex ists
r up
ĠG roup
ĠL aw
e ed
Ġm ar
Ġme et
Ġsuccess ful
ĠAc adem
Ġw idth
Ġne igh
ĠCour t
Ġcontin ued
ĠM ore
ĠM art
Ġmultip le
ge bra
Ġr at
ens ive
Ġcomplet ed
o z
Ġeduc ation
F ield
Ġrele ase
In fo
P ath
E vent
Ġlead ing
Ġpart y
Ġobserv ed
S p
ad o
Ġar ray
e in
Ġlab el
Ġt ry
Ġh ard
E lement
ed d
at ory
$ )
}_ \
ĠM ary
4 6
Ġof fer
N ode
oo lean
Ġbel ie
Ġon ce
li ament
Ġl ook
b ody
Ġclos ed
al ax
}} (
ĠB lack
Ġ ?
Ġwe ek
Ġequ ival
ĠM ac
! --
h space
196 0
Ġst ep
U T
Ġacc ording
ĠM ex
L O
Ġth ough
Ġcou pl
Ġcont ract
it es
ak er
sk ip
ateg ory
Ġexper iment
in i
ĠM usic
ĠPro v
Ġrecord ed
Ġst age
Ġocc ur
ĠH en
Ġro w
Ġv iol
../../ ../../
w rit
ĠM ark
Ġg ive
Ġdirect ed
Ġrad io
Ġp ur
text width
0 8
ag ed
Ġfield s
if orm
lem ma
B uild
wide hat
ĠComp any
inn er
Ġ und
ers hip
ĠR oad
4 2
ip p
n s
Ġz ero
P aram
Ġn atural
Ġbro ther
198 9
st on
in put
Ġt en
ens us
Ġdist ribut
ĠW ashington
b lock
c ks
Ġre v
ĠB ay
Ġcent er
Ġp ress
Ġsim ple
Requ est
Ġform ed
Ġtrans fer
ĠCl ub
ines e
ĠS ociety
Ġp aint
Ġ\ {
Ġsequ ence
0 7
ĠDep artment
math sf
Ġinclud es
) ]
ĠG l
Ġent ire
Ġadd ed
c up
0 2
Ġfact or
ĠD on
Ġc andid
M ap
Ġscal e
A nd
ĠG reen
ĠIn stitute
ĠCanad ian
ĠKing dom
pon ent
i en
Ġalbum s
Ġf ixed
Ġy our
Ġal though
Ġa way
com e
im ate
Ġcol umn
rad e
u z
` `
p ite
{ {\
rac y
/ **
Ġev al
ĠV ir
Ġsign ed
Ġspec ific
re y
ch ange
Con fig
Ġsub ject
^ +
ĠG ames
Ġr ather
Ġb order
F A
Ð ¸
m it
u it
all ed
ref er
8 8
Ġf ar
ell ing
es h
ĠIn ter
c ial
}) \
Ġoper ator
Ġlearn ing
T e
ĠIs land
us ed
=" +
ri a
, -
ar ily
tr ue
Ġdis play
Ps i
est ival
ĠT own
Ġl ive
en ed
m ore
ol it
q quad
Ġqu al
Ġwebs ite
f ill
l t
0 3
0 4
Ġb l
asket ball
ict or
Ġf uture
x space
198 8
k ing
Ġw ife
Ġco ach
S C
/ *
Ġc ut
h and
oot h
at rix
M L
ĠS ing
Ġt reat
The re
} |
ĠH istor
ĠFig ure
ens or
Con text
eder al
ĠV ol
ĠC ath
ĠC ons
d en
al a
Ġelect ed
' :
5 00
ast ic
g ing
Ġal ways
Ġra ce
st ruct
ec k
ar io
ĠJapan ese
F ilm
ĠAfric an
Ġfound ed
ĠCl ass
ok e
Ġappe ared
Ġhe alth
Ind ex
Ġb en
ram ew
ĠP ress
ĠT ur
plic it
Ġpresent ed
() )
ĠS am
ap pro
itt ing
Ġprob ability
Ġn ames
ĠAr ch
in it
le vel
Ġad minist
n ote
Ġfootball ers
r ate
p df
i os
Ġcer tain
ic ult
ap i
= #
Ġpri or
ĠĠĠĠĠĠĠĠ ĠĠĠĠ
Ġc ast
Ġcomp lete
Ġappoint ed
v oid
Ġde part
Ġin c
Ã ¤
inal ly
b l
Ġk m
ĠM et
Ġd on
& =
ĠĠĠĠĠĠĠĠĠĠĠĠĠĠĠĠ ĠĠĠĠĠĠĠĠĠĠĠ
Ġp an
o res
ĠM iss
Ġm other
A B
9 8
Ġgo al
ĠRober t
ĠT V
ĠRec ords
eff ic
Ġoff ice
Ġpr incip
E ng
at ively
us er
Ġn ecess
Ġm oment
Ġass ist
Ġfr ont
ĠI nt
x y
Ġal most
Ġval id
Ġsu ff
ĠS o
ĠCent ral
ĠM useum
U S
Ġdef ault
et urn
ĠAng el
[ ]
ĠT ra
Ġanal y
ĠR ef
Ġset s
9 7
ĠA lex
s el
ĠB est
ĠC ong
4 3
r ish
ad a
Ġv ict
Ġlarg est
Ġh or
htt ps
on a
Ġme chan
ĠC ap
ĠRuss ian
Ġv ers
}^{ (
Ġle ague
h y
Ġso ft
id s
ĠThom as
U R
O T
c an
Ġe ast
ĠS al
A tt
ian t
Ġst ars
Ġmod ern
Ġwhe ther
iz es
Ġc e
ĠR ail
ar ter
Ġal umni
Ġpred ict
Ġfollow ed
ĠAcadem y
ap ache
h i
ĠT ex
Ġrem ov
ĠG rand
198 7
Ġre n
if ier
Ġres pons
umb ers
om s
Ġp ay
at form
0 6
a ctions
. )
Ġchang es
Ġdom ain
li er
b t
Ġac qu
Ġto o
Ġ$ (\
ĠM ad
s pec
4 1
Ġact ive
vers e
ĠItal ian
mod el
Ġs ample
oper at
tt p
ob ject
Ġed ge
Ġw est
enc ies
m id
S ervice
ĠG o
Ġgiv es
scal e
Ġpart s
b our
Ġwe ight
ĠJ ew
S P
Ġen vironment
it ude
on ic
8 5
Ġmed ia
Ġbir th
u an
M A
ĠG reat
Ġb ar
d s
ĠSum mer
ed y
Ġthe refore
Ġhim self
un t
operat orn
ĠAfric a
Ġsub sequ
Ġc lear
ou l
Ġex act
Ġeffect s
Ġmark et
ramew ork
Ġdat as
}\ \
ĠG old
198 6
Ġdesign ed
ian ce
ĠLem ma
O ut
ĠF ilm
r as
t ic
ĠRep ublic
un k
ĠU K
Ġ} );
Ġwh ite
ro s
operatorn ame
w est
ĠOlymp ics
Ġcompan ies
en a
Ġh ous
Ġstud ies
Ġbound ary
ta ct
Ġp ast
al le
Ġfor ce
Ġschool s
Ġre ason
ĠL eg
I G
Ġe ight
ĠZ eal
m d
ĠW estern
Ġass ume
ĠChar les
C H
O f
Ġro ck
Ġadd ress
c el
ĠB l
Ġ/ *
198 4
pl ate
Ġ& \
ĠR ad
Ġtrans form
ind ent
ĠChrist ian
Ġm ight
ĠS aint
Ġhold s
con fig
th let
ĠI m
ĠSc ott
0 9
Ġex ecut
d imens
R eg
ant ic
r ast
Ar ray
Ġb ox
ĠZeal and
Ġs ound
Ġtemper ature
Ġt aking
is es
Ġbas is
ĠF ootball
Ġt er
ic ation
" "
Ġse lected
Ġf ire
Ġquant um
Ġ( !
Ġdi ag
Ġgu itar
f l
( {\
******** ********
I m
sc r
equ iv
Ġp ers
+ +
Ġreg ard
ĠD o
Ġg ain
Ġst ri
Ġd one
O S
ĠĠĠĠĠĠĠĠ ĠĠ
ĠM ont
ĠWh ile
Ġdef inition
Ġpro p
ĠCar ol
I P
ĠLou is
Ġmon ths
Ġcol lection
Ġun its
ĠE ar
Ġd irection
Ġconst it
ĠK ore
Ġsp in
//// ////
ĠVir gin
ra el
st ar
Ġus ually
7 7
198 5
cre t
Ġcan not
ĠTh us
Ġt ro
it ing
Ġloc ation
) -
k m
Ġin j
Ġcamp aign
Ġplay ing
Ġb o
C D
ĠY ear
osp ital
z a
Ġdisc over
n ames
el ine
he st
irc raft
ĠW il
c ount
am ily
az ine
re land
Ġa ud
ĠM at
} :
Ġcomp ared
ĠMin ister
Ġst re
led ge
S ince
Ġda ughter
Ġl iving
ww w
Ġfor ces
ĠM ag
Ġam ount
Ġ} ,
Ġs ports
d ist
H and
am s
Ġinvol ved
Ġup per
Ġcompon ent
Ġup on
Com m
Ġrelations hip
us ical
In ter
or ation
S ize
k i
pt ions
Ġequ al
ĠMich ael
Ġd raw
Ġg lobal
Ġthrough out
Ġw rite
ol f
Ġac cept
ĠL and
= '
b ound
G roup
M S
Ġd ouble
v is
ĠTex as
ing u
l ong
' ;
9 6
Ġus es
I R
re p
Ġex hib
ĠWh ite
cit et
Ġright s
ass ert
| ^
Ġg alax
l am
r s
her s
dis play
el oc
Ġ-- >
Ġen ough
Ġm unicip
ĠM er
Ġcurrent ly
) {
ed ge
Ġg ave
Ġbuild ings
ta g
def ine
Ġdirect ly
al y
Ġtyp es
In st
pr int
ĠCh inese
Ġm ove
Ġd ram
ict ure
che ck
Ġdiff icult
ch o
d o
Ġrepla ced
Ġb oard
] $
U p
( -
P r
as tern
qu ot
ol ar
ĠT om
Ġse arch
uff er
Ġincre ase
Ġprov ides
T able
ĠL ab
Ġco ordin
os en
t itle
Ġstud ied
Ġst ations
Ġits elf
Ġim ages
Ġsupport ed
ĠL at
Ġch annel
Ġro t
Ġad van
Ð ½
C ode
Ġallow ed
195 0
Ġmed al
Ġepis ode
198 3
Ġj ud
art s
Ġeffect ive
ans ion
ran ge
V ert
T r
} +\
Ġf ight
Ġto urn
Ġden ote
it a
im ents
ĠD an
erm an
Ġoper ations
on al
at re
r ame
w ord
iz ations
ĠN ot
E E
Ġcon ver
Ñ Ĥ
Ġdem on
w ell
ir m
duc ation
Ġrel ig
ach ing
Ġexp la
5 8
Ġd ate
g ent
M P
B ar
ac ity
Ġs il
erv e
irt ual
Ġad j
6 3
}} {\
ol s
n y
S up
Ġsmall er
s plit
Ġf av
Ġgener ated
Ġoper ation
Ġprim ary
i ra
Ġmet ric
ous ly
5 7
in ct
ĠA dd
roll er
S ub
Ġg as
z il
198 2
ef ore
ĠPar is
ĠCath olic
id ents
Ġb ooks
ro ad
Ġpla ces
f ess
id ae
Ġfin ished
is ions
comm and
ul ly
ar ing
Ġt ask
Ġmax imum
U N
Ġproblem s
ollow ing
Ġcour t
ĠT or
Ġstruct ures
Ġst ated
' $
ĠFran cis
Ġprevious ly
un ity
A p
Ġfem ale
Ġ Â
Ġequ ations
Ġkill ed
Ġto ur
Ġst op
Ġorig in
E nd
p ret
ĠS ub
Ġpe ak
p ing
Ġde al
ri ef
p at
b a
E d
Ġstat us
Ġrepresent ed
ĠD irect
pe ople
ok en
res ult
umer ate
us ing
Ġj ournal
n eq
Ġlist ed
Ġse ven
pec ially
ov ers
Ġconst raint
Ġrepresent ation
i ences
arg in
ov iet
om ial
C ount
Ġd am
Ġp age
Ġre ve
ĠD ay
Ġoriginal ly
ock ey
ĠJ ose
Ġap plied
197 9
tain er
or ing
ĠDem ocr
om a
ĠB ill
includ e
6 9
Ġ( "
Ġout side
Ġart ists
ĠS ur
Ġcharact ers
Ġm essage
} -\
f low
pro t
cre ate
It em
Ġs ources
Ġcount ries
Ġeff ic
Ġpol icy
ĠP lay
evel op
Ġad opt
Ġconc ern
Ġobject s
ang le
du ction
air s
ĠSm ith
Ġevent ually
Ġs om
Ġn umbers
ĠP eter
Ġrest rict
T E
n ce
ma ge
Ġc ivil
ĠRich ard
ish op
Ġt akes
y ing
av al
Ã ¨
ĠSp anish
Ġne ut
f lo
F C
Ġbecom es
ĠSe cond
ĠS ome
6 2
b ase
ĠP la
) }{
ĠG et
ĠG ra
et her
ĠF lor
Ġinst it
u a
t ra
Ġacc om
stand ing
Ġsc en
ĠSup er
Ġsign al
v a
rac ks
] \
ĠM el
Ġcompon ents
Ġv eloc
=" #
s u
Ġt it
Ġ- \
ĠF ore
ic ago
i ation
ĠS er
Ġincre asing
sh ire
Ġag re
Ġan im
uss ian
198 1
ĠM ass
Ġtrans port
Ġad apt
Ġd omin
Ġm ention
n et
c ase
is ation
Ġphys ical
ip s
Ġh app
Ġpolitic ian
inal s
W h
the orem
Ġim plies
ĠB en
b uild
Mod el
Ġal tern
Ñ Ģ
dimens ional
ffic ient
v space
is k
Ġopt im
Ġv oc
Ġnot e
def ault
ri al
F L
ĠC O
.. ..
ol k
d ag
en umerate
od ing
Ġst e
ĠA ccording
pt y
ĠV ictor
Ġto wards
yn c
6 1
t es
Ġch all
Ġpr int
th at
ĠO ff
Ġrel ation
ĠO ther
mult icol
ĠH istory
Ġeff ort
ĠL os
O ne
~ $
op l
Ġmiss ing
ĠSc ience
}} _
ut ch
ĠG a
rup t
ab ase
ĠD el
8 7
Ġ\ |
ĠFran k
Ġrema ined
L e
Ġwrit er
Ġn uc
Ġun ique
ĠS pec
Ġs en
Ġs ens
ĠI reland
multicol umn
math scr
ab led
ĠHen ry
ĠP enn
n ext
197 2
no indent
Ġset ting
ĠFor ce
ĠU p
Ġrun ning
ĠP ri
Ġhe ight
Ġtra vel
clus ion
197 6
Sy stem
Ġm ix
ur ity
S er
Ġun ivers
Ġpol ice
Ġke ep
r ont
Ġb ig
P I
Ġw ords
an o
M essage
Ġcom e
ĠT est
ad es
Ġre ached
ĠD u
197 8
Ġelect ron
Ġfri end
ĠF ound
Ġspe ed
ify ing
) }$
Ġy ield
Ġcour se
Ġm akes
Ġocc up
Ġrema ins
item ize
amil ton
Ġw indow
Ġpro ve
Ġco effic
omorph ism
Ġsy n
Col or
cur rent
ĠH ill
ĠF l
\ ,\
Ġtrans ition
Ġopt ions
s m
Ġl ittle
por ary
P i
ĠTh at
ub e
Ġor d
C ell
p ng
ĠJ ust
ĠR ob
ĠS ervice
Ġs us
Ġe arn
ap s
Ġj ava
Ġv er
N N
E arly
re me
Ġfour th
ĠComm ission
p c
ĠL ake
Ġal gebra
{ }
or ial
ĠG od
ĠR ock
; "
F irst
Ġes pecially
Ġestablish ments
E C
] (
Ġ= ==
Ġdiffer ence
Ä ģ
ig an
Ġexp and
ĠS et
Ġpat tern
( (
ind er
li ent
ĠT er
N o
ĠSw ed
Ġg l
E nt
197 4
$ }
Ġim medi
Ġrun s
Ġg old
Ġfeature d
Ġa ircraft
Ġd rop
Ġaward ed
Ġallow s
O D
Ġiss ue
g ence
Ġf all
Ġn il
L og
ĠO ffic
Ġ ess
ĠE mp
ot o
v ersion
IN G
omet imes
Ġpla ced
Ġl atter
Ġill ust
ĠIs rael
T D
in fo
ĠW al
197 7
Ġpl ant
ĠW omen
Ġwrit ing
## ##
Ġsol utions
5 1
w ar
un s
Ġim m
ĠC amp
oc ation
m ethod
Ġgener ally
Ġreg ions
197 5
ist an
Ġw ord
j o
is l
Ġrel ative
Ġpro te
ma in
Ġchang ed
Ġbel ong
a ur
lang uage
Ġrefer ence
ĠVirgin ia
Ġgo ing
Ġtrans l
ĠP an
mer cial
---------------- ----------------
Ġiss ues
Ġd u
act ive
ĠP ublic
Ġmain tain
ĠC re
Ġdec ision
Ġev olution
b on
us ion
ĠS ta
Ġm ach
M ar
back ground
ag ing
N S
Ġt ree
Ġart ist
Ġapproxim ately
Ġj ob
Ġsc ore
ĠO ut
ĠOr der
Ġb ur
Not es
U LL
Ġde cre
c ore
Ġcon cept
196 8
st ant
t em
ĠB ur
Ġdeta ils
Ġhouse hold
d i
Ġconn ected
val id
m et
he ight
Ġg rad
y e
Ġ} ;
Ġquest ion
Ġn ight
re ater
Ġthe orem
ell s
=" ../../../../
ĠP o
Ġr ule
ug by
il ies
Ġcrit ic
Ġbehav ior
Ġcompet ition
Ġcon clud
Ġs aw
con text
Ġad m
d ec
}} }
au ge
ĠThe refore
Ġcrit ical
i h
Ġpl ann
Ġs eg
Ġclass ical
& &
Ġbeh ind
Ġc ustom
Ġtra in
Ġmat ter
8 9
Ġresult ing
Ġ_ _
ĠL u
S pec
197 3
C E
Ġhig hest
Man ager
b ook
Ġsing er
ap ter
T V
ĠComm ittee
ĠChampionship s
Ã³ n
Ġmagn etic
Ġst aff
al ed
un ch
ĠB rown
iz er
Ġlim ited
Ġ er
ĠM il
00 00
Ġs ex
Ġbroad cast
anc ial
Ġdemon str
or age
W hen
Ġs ch
\ }$
we b
Ġtourn ament
Ġsc ored
} /
Ġd ed
a res
Ġimp act
ĠIt s
o ice
Ġb all
Ġext ended
f alse
Ġvari ables
C o
A G
st art
P S
ĠT able
j ava
ĠCh icago
Ġt ax
ru le
ev ent
Ġex cept
ĠItal y
ĠRes earch
line ar
^ -
Com p
Ġcorre ct
Ġcons ists
Ġcol lege
h ost
ĠD en
Ñ ģ
Ġa x
ĠM us
M ed
Ġ ir
Ġapplic ation
Ġcap ital
Ġestim ate
ir l
i as
ĠAr ts
] [
Ä ĩ
Ġro b
Ġd ig
ot ic
la v
Ġfam ilies
Ġclass es
Ġs af
C an
act ory
h as
ĠMex ico
b o
197 1
ĠTe chn
r ative
Ġwe ak
Ġb asketball
ric e
Ġin ternal
Ġlong er
du ced
5 9
Ġch arg
g t
st atic
Ġit er
Ġear lier
Ġsc reen
Ġpract ice
ic ense
cont ent
ar p
B e
Ġequival ent
ol a
ĠAngel es
ĠCong ress
Ġaut om
la p
er ia
ĠN ote
oy s
y r
c a
Ġbeg inning
Ġw id
5 6
idd en
Ġover all
ĠN avy
Ġe mer
Ġpre m
Ġsc ient
Ġappe ars
Ġspect rum
ĠSc ot
ĠM o
194 0
> &
Ġlik ely
B A
Ġper cent
ĠGe org
ud d
Ġdeterm ined
ĠO per
ĠS k
Ġread ing
Ġm ode
Ġl oad
ĠC ast
ab s
Ġc red
vent ion
194 5
P art
in f
ĠĠĠ Ċ
196 9
ĠAt l
Pro perty
Ġst ream
appro x
5 2
Ġv eh
ĠI ll
Ġp ie
el t
p age
n orm
Ġneed ed
Ġchar ge
in os
Ġdec ided
ĠSt ar
Ð¾ Ð
N ote
en ced
Ġrat io
ĠA pp
B ack
Ġform s
st ream
big g
Ġact ress
M ethod
ĠFlor ida
Qu ery
omet ry
ĠS un
Ġstart ing
Å į
Ġent er
Ġev idence
ot ion
Eng lish
and s
ĠF estival
) +
ĠK h
et te
l ov
we ight
Ġdest roy
ou ri
ĠC D
ab el
g u
Ġth ought
Ġse lect
ĠPar liament
alle l
ĠT wo
ĠGovern ment
under line
r at
Ġnot ed
5 4
ch ar
ĠK ar
EN T
S he
ĠK n
Ġde ep
S U
Ġch ain
Ġmov ement
d ev
S I
7 8
ult ure
S O
Res ult
Ġsy mbol
Ġcho ice
S im
ab it
Ġrema ining
t urb
ĠCarol ina
Ġwrit ers
Ġindust ry
Ġeval u
Ġh it
Ġplay s
he m
l en
* {
Ġmult i
etw orks
d oc
Ġfrequ ency
Ġc are
arian t
and a
ian o
Ġf if
Ġe ver
C re
196 7
Ġ ens
5 3
Ġb ring
app ing
ĠAl though
ect s
Ch ar
Ġlead er
Ġun iform
19 30
Ġmat ches
ĠAss embly
ĠC ur
ĠO pen
ian a
ĠW ales
Ġn omin
ĠS oviet
Ġincre ased
p ol
ĠD is
d ro
it ors
plic ation
Ġvari able
. âĢĿ
l n
Ġperson al
ĉĉĉĉ ĉĉ
ĠH amilton
yn omial
as hed
Ġdimens ion
ect ors
sy l
Ġveloc ity
ĠRuss ia
Ġwho le
Ġcult ure
Ġw ide
ri z
Ġav oid
ĠBra zil
im a
ch ild
Ġvoc als
Ġg rand
und le
Ġan c
Ġm ur
Ġexp ress
ĠE v
ĠReg ister
Ġs rc
Ġk ind
The n
Ġact or
Ġredu ced
U ser
196 4
cl es
Ġsc ience
ubl ican
Ġth ink
f unc
col umn
w in
Ġmin or
at o
A ct
ĠW eb
ith ub
R ep
Ġpro ced
C areer
uf act
Ġfig ure
van ia
op en
Ġexp ression
k er
ĠSec ret
Ġtrad itional
i ro
ĠF in
ĠProv ince
Ġin cor
im age
ĠHistor ic
B S
Ġstre ng
C all
Ġneigh bor
k o
======== ========
ĠA wards
unc hed
The ta
ĠG al
d r
Ġun ion
ĠU nder
Ġdiv ision
Ġbro ught
cre te
Ġ _{
Ġmon th
le ase
a o
ad ium
ent al
Ġb ank
ĠB o
ĠO h
oc ol
ren ce
] )
Ġp urch
ĠAn n
f e
Ġorgan ization
ul ed
Ġf it
P C
loc al
Res ponse
sk i
an ks
Ġestim ated
A pp
empt y
go ogle
Ġd ark
P er
in em
P T
Ġpres ence
F urther
az z
Ġpass ed
ĠH ow
as ks
text rm
p ackage
pect ed
or al
re a
t ical
Ã §
Ġlevel s
Ġder ived
Over ride
r ich
ĠF orm
Ġdesc ription
Ġcaus ed
w ork
he ast
ir al
Ġse asons
Ġc ounter
ill er
Ġnecess ary
min us
P erson
Ġrail way
e es
iqu es
C lient
Ġon line
Ġch osen
A F
in y
pro d
all ery
ĠO b
196 5
}^{ -
Ġin side
Ġmanag er
Ġant i
ot ype
Ġcol lect
Ġform at
Ġc op
Ġsu fficient
Ġman ufact
Ġde cl
Ġf ood
3 00
ĠI rish
Ġe igen
}} _{
Ġp en
e lement
Ġ\ ;
Film s
Ġp ark
Ġneg ative
R ead
Ġide a
196 6
Ġexp ansion
B ut
at ur
Ġvol ume
ĠR em
ĠB r
D uring
text tt
Ġtrad e
Ġliter ature
m es
ĠB oard
Ġch ampionship
Ġmem ory
n ect
ĠO ld
L ine
w an
Ġt im
ric es
m ann
Ġpl atform
Ġn ature
ĠEmp ire
ĠP et
Ġ$\ {
Ġf arm
H ead
b ul
f irst
ed s
ers ey
Ġf ace
evelop ment
b ottom
Ġw inning
Ġcon nection
ent ially
Ġso on
9 3
ĠV er
} '
Ġb ool
Ġun cer
Ġra p
P ar
ĠM ount
Ġpr ison
I L
ĠĠĠĠĠĠĠĠĠĠĠĠĠĠĠĠ Ġ
Ġvari ety
8 6
Ġmon ey
Ġro ute
9 4
Ġr ules
p ress
Ġh ot
19 20
ĠK e
ĠH el
=" ../
erv ation
Ġmean ing
Ġc ensus
O ther
; &
Ġdis p
ic ated
Ġsm ooth
Ġsim ply
O per
ĠT our
ec ause
Ġmanag ement
ĠSt ev
Ġran k
st ra
ĠT ime
v ement
ĠS il
Ġatt ended
9 2
Ġprodu cer
v ey
Ġparticular ly
g ithub
Ġv ac
Ġder iv
ans as
Ġl ack
Ġc it
ew idth
Ġpre c
Ġw ave
Ġfail ed
ĠM os
la g
Ġequ ip
ag ement
opt ions
Ġr iver
g ener
sel ves
Ġconstruct ed
Ġsur round
th ing
Ġed ition
Ġb ranch
Ġche m
C he
syl vania
Ġrec over
d b
Ġs ometimes
j a
str ong
Ġs ense
ĠII I
ĠB ase
Ġapp ly
ĠP ac
ĠS eries
c ss
Ġa im
ĠN orthern
Ġsh all
Ġhy per
g reg
Ġs outhern
Ġac adem
Ġex plicit
Ġlay er
Ġg ot
Ġsh ape
ĠMart in
}} ,
ĠH on
7 2
Ġsh ot
ĠO ver
w a
s ol
Ġn orthern
M C
Ġcontin ue
ĠJose ph
Ġed itor
ir ing
ta int
Ġinter pret
Ġstud io
P op
Ġb re
Ġm usical
ĠM ur
om y
ĠF ort
; </
Ġben ef
Ġc a
Ġse cur
ĠL iber
D is
B ase
al i
est s
Ġsp ent
\ '
os ing
Ġcontinu ous
Ġy et
Ġknow ledge
g n
if old
ĠT imes
Ġis land
Ġco ast
Ġse lection
Ġs quare
O M
Ġh yp
> (
b in
is hes
< \
subset eq
foot note
il er
Ġrep lace
as ion
Ġdefe ated
8 4
t rack
J ohn
Ġn orm
Ġprodu ce
ĠCol umb
ĠH aw
Ġk ing
Ġg auge
ĠL ong
Ġb lue
Ġend ed
Ġappear ance
( {
y les
ul s
ig a
ĠM ost
u racy
Ġce le
ob ile
ĠEng ine
Ġhe avy
Ġst d
Ġdatas et
Ġfor ward
Ġhe nce
re al
Ġw oman
en ing
Ġm iddle
ĠS ir
ĠL ie
l ic
{ $
ee k
Ġc opy
Ġmajor ity
G L
amp ion
Ġinteg ral
7 6
ĠL ine
ell ed
Ġin equ
av en
ĠSp ace
g ra
res ents
ĠSp ain
Ġst ra
Ġse cret
en ame
j ection
Ġstud ent
ir it
n ormal
Ġno ise
ĠYou ng
Ġfr ame
Ġform ation
os h
ĠD ev
Ġnew s
C ur
Ġexist ing
I V
per ties
Ġ( -
Ġoper ators
Ġs amples
ĠG ar
Ġcomp act
Ġwh om
Ġgrow th
names pace
ĠG r
rel ated
Ġnew sp
ĠL ove
ĠFound ation
ĠW ood
Ġa uth
Ġcol lab
d et
ig ation
lo od
Ġph il
196 2
d ir
ĠB as
Ġsche me
196 3
ĠB ig
ĠA rab
Ġsing les
Ġsol id
Ġart icle
S ource
pt on
ĠĠĠĠĠĠĠĠĠĠĠĠĠĠĠĠ ĠĠĠĠĠĠĠĠĠĠĠĠĠĠĠ
Ġf ully
re es
ĠĠĠĠĠĠĠĠ ĠĠĠĠĠĠ
Ġqu ality
Ġl ove
ĠF e
Ġcom mercial
Ġagre ement
out e
Ġo ption
ann er
Ġinflu ence
Ġter rit
Ġbound ed
Ġpol ynomial
Ġg rant
m ond
ac her
Ġelect ric
ĠC la
or a
Ġgen us
N et
AT E
St atus
lin ewidth
9 1
ĠG reek
" ).
Ġgo als
ult ural
Ġprogram s
T H
St ream
Ġinter action
the n
Ġprot ected
Ġinit ially
Ġsepar ate
Ġlead s
p ost
ĠF red
Ġmot ion
Ġ ;
Ġleg al
Ġent ry
Ġdiag ram
I F
Ġ$ |
Ġh ol
m ember
Ġqu ick
ĠNew s
u ge
en ge
Ġcent re
ĠF ield
ial og
ĠCh ief
N e
Ġcandid ate
A b
ĠPenn sylvania
ate gor
Ġobserv ations
at i
ĠPro fess
Ġatt ention
ib li
un ct
Ġw ood
ven ue
ĠH am
Ġpo et
ap ers
P R
Ġactiv ities
Ġfinal ly
i ography
stit ution
set minus
Ġident ity
ĠC am
Ġs low
ĠE ducation
Ġb rief
Ġproduct s
ĠB attle
Ġcur ve
In put
Ġsoft ware
ĠB ank
^{ -\
n ull
t x
Ġc rick
Ġla unched
Ġopen ing
Ġcon tact
194 4
= {
Ġre pe
Ġf ill
for ce
Ġmechan ism
p ass
st ack
h ouse
8 2
Ġf a
opl us
ĠC ross
Ġdescrib e
Ġmag azine
Ġexper iments
it able
ad y
Ġcon vert
Ġgra v
) |
in et
inn ers
Build er
Ġinter view
à ¤
ĠR o
D ate
un ior
Ġ ult
ĠL y
ĠH ot
al o
Ġdiscuss ed
Ġ( $\
Ġj oint
ĠL ife
$ _
il arly
col on
Ġ ...
Ġm ission
Ġh ttp
Ġc ause
arri age
y an
Ġown ed
Ġs light
ĠL ee
P re
Ġex amples
Ġsecur ity
ĠT w
Ġmed ical
g rad
Ġexper ience
k ins
ĠS a
g l
Ġcontain ing
D F
Ġarchitect ure
Ġch ief
ak a
c s
it ter
Ġv an
Ġn odes
Ġint ers
Ġarg ument
U til
Ġprof ile
omet ric
cl ient
on ly
Ġmin imum
G B
Ġcom ment
Ġc ategory
air man
se lect
p o
Ġre b
Ġcl uster
Ġc arried
Ġde b
Ġcomm ission
Ġh ours
ent h
Ġmap s
ĠJ ac
Ġrefer red
" ),
Ġmost ly
Ġext ension
Ġsum mer
z y
us band
Ġcol l
_ +
Ex t
ĠHe alth
Ġpress ure
Ġflu x
St yle
ĠTe am
he mat
_ *
ell ar
la h
ou b
4 00
ĠM ax
ĠS ocial
ĠB ob
m ission
Ġf ilter
att ice
ĠE r
ost on
\ }
ad ow
ĠT im
ov a
ĠF urther
Ġemb edd
Ġcont rast
Ġpartic les
os m
b reak
196 1
ON T
c all
ribut es
ĠJ o
eg er
Ġ ]
Ġvert ex
align ed
ĠVal ley
Ġform ula
) /
_{ (
mod ule
i Äĩ
Ġpre vent
I mage
. $
Ġdram a
et ts
Ġeconom ic
ĠC amb
od er
Ġto day
ĠL in
Ġhigh ly
sub figure
st ract
eth ing
Ġtechn ology
Ġs n
ĠJ im
ĠN ULL
) </
res h
7 9
ar ks
Ġident ified
Y ear
Ġcom es
ran ts
8 3
Ġb attle
Ġoffic er
Ġact ually
A ust
Ġ ~
ul ate
ĠJ er
m as
k in
Ġremov ed
ind ing
Ġdr um
Ġar rang
Ġcon sequ
S w
Ġmention ed
Ġl ived
Ġin sp
val ues
b ury
ĠU k
N A
app end
u ages
8 1
Ġn etworks
est ed
ĠO ur
reed om
Ġit em
Ġpan el
Ġdist inct
7 4
ĠP ost
qu ery
f ont
con s
lin es
Ġconfig uration
M M
se ud
Ġ$ [
Ġth reat
ĠC ivil
Ġent ered
ĠDirect or
Ġsymmet ry
sh ift
Ġrep resents
ri ev
ĠO l
res hold
L S
L T
em ic
Ġthem selves
Ġsub set
add ing
Ġdeterm ine
in ity
Ġpartic le
i y
aw a
opt ion
Ġsh ift
Ġcont ribution
Ġfin ancial
Ġfootball er
w edge
Ġun known
b lack
Ġsem i
sy ch
ĠG en
em porary
Ġarm y
Ġf ast
enn is
ist ers
H T
ĠS ol
t arget
ino is
Ġnumer ous
Ġc ore
Ġmain ly
ĠI ran
st ein
Ġse c
Ġrecent ly
Ġpl ane
P os
fin ished
g a
ĠDemocr atic
l ib
ĠBrit ain
ĠS outhern
Ġar bit
Ġm argin
ĠR el
dag ger
ri p
194 8
Ġfore st
_{ {\
ern el
ĠIn c
ĠS ar
U E
erv ed
194 2
ĠJ ud
Ġcount y
ĠL ibrary
Ġbecom ing
pro cess
ĠF C
195 8
Ġsen ior
Ġmod ule
195 6
Ġext ends
Ġneed s
Ġres ource
en ant
loc ks
ĠH ere
ach us
Ġthe rm
ar ia
ĠAl so
ĠOh io
Ġc le
A m
ing er
P lay
Ġl at
id ers
Ġre ach
Ġsc atter
Ġ$ -
7 3
Ġexist ence
Ġsh are
acks on
ĠEd ward
Ġro om
ĠB ul
Ġcon cent
195 9
Ġdis e
Ġa mb
Ġch art
Ġmin utes
b an
Ġold er
Ġrequ ires
ĠP eople
arn ing
ĠP ak
B ox
ĠBel g
Equ al
Ġapproxim ation
Ġtreat ment
ĠJ ack
el la
ĠMich igan
ĠO x
Ġrecord s
def inition
ĠPol and
ĠT ro
< !--
\! \!
ĠRad io
Ġb oolean
Ġ- >
roll ed
ip l
in ite
Ġp ick
Ġup date
$ (
Ġus ers
Ġs plit
Ġcompar ison
n am
arg s
Ġspec ified
Ġapplic ations
ef ul
Ġbas ic
ad or
Ġext ra
O ff
ĠSt ep
Ġb al
Å ¡
195 7
7 1
sk y
ex ample
Res ults
193 9
Ġf ramework
k et
and roid
is her
al g
M embers
ĠS ong
ĠR h
if ically
Ġnear ly
l ad
Ġincor por
el er
iv ial
Ġm icro
E X
ow ers
Ġin n
Ġh usband
Ġe lections
T oken
ĠCar l
ĠL ord
Ġc orn
N av
row s
S D
Ġm aster
achus etts
Ġimmedi ately
ĠâĢ ĺ
e ks
ib ly
Ġp ack
ĠM en
ang er
ĠAs ian
Ġmeas ured
Ġst ore
mat rix
Ġc ard
ĠM em
ĠC ro
ĠIn f
un n
us es
epend ence
Ġact ivity
Ġqu arter
Ġfor ced
ĠD utch
), \
Ġcl ient
Ġann ual
c f
Ġmur der
194 3
Ġf ederal
C ar
ate gy
la w
C ons
ĠJ ersey
r l
l ict
p arent
Ġro ot
ĠUn ivers
oll ary
Ġag ent
Ġrad ius
Ġs quad
s pect
Ġrele v
ric s
il ing
S ports
ail y
an cy
ĠH y
Ġdynam ics
ut y
Ġeas ily
Ġoper ated
Ġand roid
Ġmeet ing
at ial
ĠAs ia
B uffer
ĠB ook
ĠE nd
Ġvict ory
Ġb ass
d at
ell ig
Ġcompos ed
Ġdec ay
Ġtyp ically
)\ ,
burg h
\ "
Ġst ay
Ġcomb ined
et ime
Ġrelig ious
Ġg reater
ot al
ĠRep resent
ĠI N
Ġstat ement
Ġn ative
om ic
Ġb ul
B lock
che n
Ġsim pl
ĠJew ish
Ġindividual s
ĠRep ublican
Ġcommun ities
Ġb att
j i
Ġh um
but ton
Ġprocess es
Ġexperiment al
Ġlin k
ĠF ri
Ġpo or
Ġg reen
ĠN ow
ĠPac ific
or ter
194 1
Ġclass ification
ĠR am
N ational
r or
Ġse a
e ch
ĠScot land
Ġdepart ment
rop y
C P
Ġclaim ed
el a
Inst ance
Ġun iversity
ER T
N ow
at ers
ĠT op
r ical
ult y
ĠP re
E M
Ġgalax ies
ic ks
ĠR eturn
M on
ĠM ountain
im b
G ener
Ġem ission
195 2
ĠK ent
w er
Ġcol on
ay a
A ccording
ir ls
ĠQue en
lim its
ĠOff ice
Ġar rest
w rite
Ġcar ry
194 6
f inal
ĠL i
Ġacc uracy
ĠĠĠĠĠĠĠĠ Ċ
Ġex am
ad ata
Ġm ountain
Ġpos itions
ĠJ ones
M et
ĠH a
Ġpolitic ians
ard en
L ay
requ est
Ġsit uation
Ġopt imal
n umber
Ġreg ister
Ġm ixed
Ġper turb
Ġet c
Ġ\ (
P oint
Ġexp on
M en
Ġcomput er
ĠCent re
Ġconf ir
gy pt
Res ource
ĠT em
d l
ĠM r
Ġuncer taint
d eg
Ġfore ign
p y
Ġpol ar
il a
ĠCon ference
ĠIll inois
Ġra ised
Ġcap acity
ser ver
st one
ug in
Ġ" ""
ĠEar th
Ġ< <
Ġcoupl ing
ĠA z
Ġres olution
Ġ| \
ĠJ ournal
so ft
F e
B rit
Ġfact ors
Ġreturn s
195 5
l as
Ġle ave
ĠA ut
ĠP rem
h ar
Ġact ors
: #
ĠO f
Ġc am
= (
E m
Ġinter face
Ġsurv ey
ec ution
Ġvis ual
hes is
ĠM ajor
ph p
Ġform al
ĠPro position
: \
Ġd ual
Ġdes cent
Ġship s
A ut
}} (\
Ġexp at
ĠC E
ĠB ow
ter m
O ptions
tain ment
T rack
Ġse at
ell i
Ġhistor ical
Ġn ine
im in
Ġparent s
ĠPort ug
ĠPr ince
F T
ĠG L
194 7
f ree
ĠSh ow
ce an
Ġprom in
b i
Ġsett lement
_{ -
ĠRail way
eb ug
Ġw estern
as y
ĠM u
ĠD et
Ġspect ral
ĠT ype
ĠO bject
R el
C L
Ġf un
ĠMass achusetts
E l
Hand ler
Ġcl ust
Ġother wise
Ġsatisf ies
Ġe lev
Ġserv ing
Ġcho ose
Ġret ired
Ġsubsequ ently
Ġchall eng
Ġpol y
F I
s ur
r ons
Ġrespons ible
ĠFrancis co
Ex p
vi ation
195 4
a fter
Ġf ix
Ġp il
ris on
Ġw ind
ĠGovern or
ĠM ah
H owever
ect ing
Ġon es
Ġwe eks
ant ry
ef t
Ġdev ice
Ġ ice
Ġmov ing
Ġm ut
it ation
Ġp refer
ĠR os
ĠThe ir
C S
Ġrel atively
Ġnumer ical
,\ ,
ĠK ong
R A
ĠJ an
Ġus eful
Ġcomp ute
c ript
' \
Ġup d
Ġt racks
ad el
yp es
Ġdistribut ed
d es
U s
Ġmoment um
Ġqu e
s g
} %
Ġle aving
Ġcom edy
Cont ent
Ġm ole
ibli ography
Ġrecord ing
Ġin come
ĠSp ring
Ġconsist ent
Ġb ottom
Ġcontribut ions
195 3
j e
Ġpl ot
u er
St art
N umber
Ġl if
Ġt ag
os oph
ro t
Ġr ing
head er
Ġpro gress
C A
ĠW ork
ific ations
ĠC a
ur t
rodu ction
ĠB oston
Ġ }\
Ġsp aces
Ġfe ed
og rap
ĠWilliam s
h ire
Ġserv e
Ġstra ight
ĠPhil ipp
ot ing
un it
text sc
ph y
Ġerr ors
) _{
ĠB ern
Ġgener ation
Ġdec la
Ġab ility
g raph
j son
ĠB et
ent y
k es
' _
il ation
ĠHe ad
Ġsp read
Ġf oot
act er
Ġv s
ĠE lect
Ġcomplet ely
Ġsignificant ly
194 9
Ġ Å
ol t
~ $\
ĠGeorg ia
pro perty
ma il
V ersion
Ġs ays
urb an
g g
cont in
Ġ eth
Ġre comm
ĠL ang
un finished
Ġshow ed
ã ģ
H el
f ect
Ġorder ed
Ġassum ed
ĠPla ces
wh ite
ĠJohn son
Com ponent
n es
Ġmov ie
Ġf light
Ġdes pite
Ã ±
D ist
Ġvert ices
ĠB oth
Ġn one
Ġbelie ved
Ġed ges
v est
Ġmach ine
erv ices
Un ited
Ġcit iz
ĠH ence
ab eth
pro ject
Ġc atch
Ġv ote
d im
ĠH ung
ĠThe atre
A c
Ġact ual
R em
Ġsc ene
S ec
Ġsh oot
Ġproced ure
L a
Ġoffic ers
Ġs ister
ĠE ach
sub subsection
Ġstr ategy
R un
on ia
ay lor
Ġto ld
ĠCo ast
Pro v
Ġam plit
Ġcorrespond s
Ch ild
Ġclub s
l ers
D escription
Ġw alk
Ġtechn iques
1 000
T op
i ency
ĠB uild
oc cer
Ġl ies
) }(
Att ribute
Ġredu ce
Ġres ol
D B
T P
art ers
Ġ util
ĠE astern
Ġm useum
Ġsit u
Ġfe el
o ir
Ġhel ped
Ġc ru
Ġmunicip ality
Ġst eps
Ġappro p
Ġa ctions
ĠPro gram
Ġs ociety
Ġsu c
H E
195 1
Ġconstraint s
F unction
Ġ+ =
ĠOx ford
por ation
Ġturn ed
Ġass igned
E q
ĠB al
Ġdep ict
Ġthrow s
Ġh ockey
ers e
ĠSt an
Ġin ner
as i
pp ed
ĠIs lam
Ġb ad
ars er
ĠSen ate
ple te
ound s
Ġacqu ired
od ed
Ġas ked
D on
Å Ĥ
Ġachie ved
Ġinequ ality
) ^{\
}^ *
Ġprofess or
Brit ish
ran ce
ĠD ec
Ġcell s
A rt
ĠMore over
n um
Ġproject s
O P
it age
Ġdet ection
z ero
ĠSe e
Ġv on
ĠPro ject
ĠCor ps
ĠSecret ary
at uring
ĠSt e
}$ -
ĠC y
Ġt or
Ġf le
Ġsit es
ĠScott ish
Ġp ain
Ġcover ed
let s
IN E
ion e
ĠG ood
Ġfam ous
Ġd oc
tain ed
Ġc ities
Ġgiv ing
Ġconf lict
sec ut
r ong
m iss
x ml
Ġre li
j av
Ġrema in
M in
Ġ â
Ġauth ors
und red
for all
Ġf il
ab ilities
Ġpur pose
ri um
Ġs ampl
on to
Ġassum ption
Ġsim ulations
Ġperson nel
Ġprov ed
Ġex ception
ĠN one
Y PE
ar ant
= -
{ {
S M
Ġorgan izations
ĠB lue
ann els
rib e
Ġf raction
G u
Ġcalcul ated
Ġsuc ceed
Ġdiscover ed
ĠT re
y er
Ġpair s
D es
wh ile
l ast
Ġang le
ĠB re
Ġext ract
l ie
e z
Def ault
ĠS and
Ġres ources
cl os
pos es
ĠColumb ia
un a
Ġb it
âĢ ľ
Ġdep ends
Ġop port
AM E
Ġth ings
or b
Ġcoeffic ients
Ġslight ly
st o
M ore
c ases
m t
Ġimpro ve
Ġoffer ed
writ er
ĠH ig
L P
ĠCh ild
bt n
Ġconduct ed
Ġsc ript
ur i
Ġr ates
Ġcirc le
Ġtra ined
p a
Ġadopt ed
atal og
ition ally
h om
ã ĥ
H ere
tern et
Ġqu ery
Ġsim ulation
Ġlang uages
Ġb rand
ĠP op
Ġreg ional
Ġmin im
Ġstat istics
Ġincre ases
W rit
ĠĠĠĠĠĠĠĠ ĠĠĠĠĊ
Con st
ĠC ard
Ġas pect
if fer
ĠJ r
Ġprop ag
ĠM iddle
Ġexp ressed
ric ts
if act
Ġv irtual
Ġde ad
or ig
ĠLat in
ĠJ ean
Ġdr ug
ĠV an
Ġocc urs
Ġes c
ĠR ay
ruct ure
Ġqu ad
th ur
R ow
ĠD evelopment
ĠO k
ĠM any
Ġal t
Ġcomb ination
Ġwant ed
Ġnear by
Ġl attice
ĠW ay
ak ers
Ġbe y
n eg
S che
Ġsom ething
ĠC r
ĠM ov
Ġcy cl
193 6
F actory
ĠS pe
Ġearn ed
ol ute
ament al
Ġt ensor
ĠB ang
i able
) ^{-
ic ity
Ġmeasure ments
igh ter
ĠCol or
Ġpl ans
Ġcompet ed
ac ing
ĠF ar
ĠL og
ym pt
Ġdiv ided
t ings
N ext
Ġr isk
Ã £
* /
ĠC reek
ĠPol ish
Ġex ternal
Ġrelev ant
Ġcontain ed
ĠEn ter
ĠL ater
ĠE gypt
v ol
ry pt
te en
Ġpart ies
ĠS u
ut enant
A ction
Ġ+ \
ĠH or
ograph ic
Ġbeg in
ĠA tt
Ġsay ing
Ġfl at
F ilter
ĠBro ad
Ġqu ite
D em
eng er
c d
D esc
Ġst ories
ĠM id
f it
}} ^
Ġscal ar
Ġden otes
ĠSe a
ĠD ata
f aces
il ib
Ġcele br
pm atrix
or ough
Ġbey ond
ĠSt ation
Ġpro ceed
ĠG ame
eder ation
Ġan sw
19 18
O C
Ġl ibrary
ĠKore a
ĠE qu
ĠSpec ial
Ġex change
LA SS
Ġst able
Ġre const
Ġatt ract
Ġst rict
Ġmeas ures
Ġmet al
ĠJ es
" ]
Ġlaw s
ul pt
Ġlet ter
193 8
ref ix
ĠH ong
g ers
ĠAlex ander
sc he
Ġinst all
ad er
Ã¡ n
ĠBer lin
Ġl ot
c at
ze ch
15 0
sh ow
Ġrem ove
Ġhor iz
ent ry
{ $\
ur ies
ĠA v
R eturn
Ġpre p
Ġgener ate
d ney
Ġb ridge
Ġprob ably
ĠI D
ul f
Ġseg ment
Fig ure
S ing
ĠB a
ĠB u
) {\
ĠD ar
Ġm arriage
Ġser ver
la x
Ġcur ves
og ene
che ster
Ġappear ances
P ort
Ġl ives
Ġdistribut ions
Ġrap id
Ġy outh
ock et
O L
Ġprov iding
Ġappro aches
Ġconc ert
S L
Ġwe b
Ġa wards
RE F
Ġeas tern
Ġh arm
Tr ue
Ġfor t
d escription
W indow
pos ite
op ed
Ġinterest ing
Ġcom ing
el d
b as
, âĢĿ
ro vers
ĠW is
L ink
olog ist
Ġcre w
Ġ{ @
b ot
a a
ic ine
new command
f ind
Ġbu ff
H z
Equ als
Ġquick ly
D P
cher s
s en
Ġass ign
Ġfif th
Ġh ar
sy stem
ell er
d x
per p
Ar g
)\ \
Ġon to
ail ed
S R
Ġdist ingu
il ly
Ġhe art
h u
C al
Ġhous es
i ate
now led
N O
Ġfla g
Ġjo in
Ġor ient
Ġal leg
pt r
Wh ile
Ð »
Ġbase ball
Ġanal og
ĠK enn
Ġalgorithm s
[ "
Ġre form
Ġh ospital
Ġdis k
Ġm is
$ {
ev en
ĠN ight
Ġde com
Ġstreng th
ĠIn st
Ġprim arily
Ġre ally
Ġlo op
Ġreve aled
Ġintrodu ce
t ure
Ġfri ends
ib r
Ġtransfer red
p ush
M usic
Ġ ign
al ities
im er
h r
ĠVictor ia
Ġeas y
Ġexact ly
Ġit ems
c ar
Ġcult ural
Ġthe ore
Ġmanag ed
L oad
O b
Ġdep th
ĠE st
el i
} );
Ġe mp
ra wn
Ġdem and
ist ical
193 7
a ver
Ð º
ĠAr gent
ud es
am in
ang ed
per or
Ġtro ops
inn es
Ġwork ers
at ically
Ġfav or
Ġsus p
c r
m eta
ig ger
Ġn am
v in
ĠU r
Ġa st
Ġaut o
Ġv ary
Ġse ctions
ĠT ri
s rc
ig er
ĠOlymp ic
ĠAnd rew
ĠReg iment
Ġrece ive
ĠPol ice
Ġ( (
ĠL ittle
ect ive
Ġexecut ive
ĠH ospital
ĠB ir
if ies
Ġwid ely
c i
^{ +
Ġf iles
ul er
st atus
> >
Ġto uch
se cond
Ġaltern ative
Ġf re
$ ).
Ġpar allel
Ġp p
\| _{
ĠComm on
s ime
I A
Ġhy dro
ĠJ ackson
Ġexpat riate
p ack
ĠF er
F ONT
m ad
Ġprom oted
Ġf air
Ġdis s
Ġf irm
T em
Ġcommon ly
oc ated
Cre ate
s ign
ĠS und
Ġc ategor
Ġcorre lation
b uf
Ġd raft
im g
Ġgo es
Ġiss ued
Aust ral
ry st
sime q
ĠF our
ĠIs lands
Ġinteg er
d ep
ĠM ot
Ġsy nt
b acks
N R
act or
Ġm orph
itz er
Ġepis odes
ĠN etwork
am ber
ĠEl iz
Comm and
or i
Ġth r
f ound
re ct
Ġw inner
Ġo il
Ġg rid
Ġc at
W orld
nt ario
em et
rop ical
Ġth ick
nav bar
Ġle aves
.~ (\
Ġs al
end ix
innes ota
ĠH ome
Ġimplement ation
Ġprov ince
r ass
W eb
Ġp hen
Ġestim ates
Ġin form
ĠOffic ial
Ġsup p
C ast
Ġpart ial
Ġse ctor
Ġsc hed
Ä į
Ġcomput ed
ĠÂ £
Ġor b
ru ck
enn es
G eneral
Ġvers ions
ĠB and
ĠW ater
iction ary
p es
The se
D isc
Un iversity
Ġwh y
y o
ĠB C
Ġ ensure
ĠV iet
Ġinv ariant
D ec
pr ivate
Form at
Ġsing ular
1 20
t ik
Ä ±
ĠP oint
y mmet
ĠC orn
ĠO p
Ġf ellow
ĠC at
ple x
ma z
Ġorgan ized
Ġtyp ical
Ġmed ian
Ġcy cle
M ax
' .
ĠSt and
Ġneighbor hood
Ġreg ime
a ug
Ġv oice
end if
Ġact ing
an ta
O ur
} )$.
Ġth reshold
ĠK en
s he
R ev
$ $\
Ġlead ers
Ġint ended
Ġmod es
Ġb us
Ġc ouncil
Ġconfir med
ĠP ubl
A V
p ool
ron ze
}} ^{
ann ing
Ġeffort s
param s
) }{\
ĉ ĠĠĠ
Ġsh ared
Ġcre ation
N ull
h ol
M e
P ol
ont al
p op
Ġsuggest ed
Ġindic ates
ether lands
Ġs qu
a is
Ġsecond ary
ĠW ild
Ġcal c
AB LE
Ġtri al
ĠKore an
z o
P P
ag raph
Ġt asks
Ġse em
tain s
P age
Ġnewsp aper
" |
ig ration
flo at
ĠF ollowing
om er
s ort
uck y
ex pected
Ã© e
Y ou
W ill
Ġarbit rary
ĠJust ice
ĠMin istry
ran sp
S ch
Ġp urs
Ġown er
emb le
Ġmark ed
so le
T ag
Ã ¸
193 5
cl ose
$ ^{-
ĠA ff
Ġassist ant
Ġprogram ming
t ree
| }
Ġoper ating
Ġded icated
al so
19 19
ĠReg ion
Ġinst r
el se
L ast
an th
Ġn ation
ĠSy dney
Person al
ph ia
( [
ĠSup reme
ĠB BC
P o
ess ages
up date
Ġarg uments
as ure
Ġres idents
pon ents
s ite
Ġconstit u
N D
erv ative
omorph ic
orn ing
ian ts
Ã£ o
f s
Ġp ra
Ġb inary
Ġf ont
Ġref lect
ob j
P olit
ĠTechn ology
ĠWil son
ã Ĥ
Ġnuc lear
ĠL es
pro b
Ġarr ived
ĠPri ze
rem ark
Ġstrong ly
The orem
Ġcapt ured
R L
Ġatta cks
ef ined
Ġdiffer ences
ad ian
Ġs s
ony m
Ġs ort
Th us
w eg
Ġsold iers
p resent
Ġeffic ient
ins on
ĠR un
S o
y es
Ġgradu ated
Ġassoci ation
E L
Ġw ays
ĠP en
P A
bul let
ĠB oy
t ri
C or
Ass ociation
19 14
it ory
ic ed
Ġt un
p lace
ott ed
Ġsp atial
Ġsymmet ric
E v
b ec
z er
ĠDan iel
R ight
Ġhon or
. /
Ġart icles
//////// ////////
f ilter
ĠE conom
Back ground
h or
et ch
Ġdiscuss ion
T ra
Ġmaterial s
n ic
Ġalong side
ĠF ederal
ĠR og
Ġadminist ration
Ġinstr ument
Ġc osm
ĠS T
D D
Ġg un
d y
anc ing
v ector
Ġinter actions
Ġm ill
od ot
Ġt alk
Ġp ure
ĠProfess or
Ġext rem
Ġres ist
ĠL o
ĠN S
form at
ĠB i
al ion
let on
Ġn av
ĠT aylor
IN T
adel phia
Ġdepend ence
out put
Ġfe aturing
Ġpart n
em y
Ġallow ing
Ġcoordin ates
Ġb omb
\ _
193 3
ĠMus lim
ro om
ĠO ntario
p icture
V is
Ġra re
st d
C ase
ĠAir port
In it
ens ions
Ġpr iv
ĠA k
Ġ ut
s pe
Ġ= \
um ption
19 28
ĠS om
Ġrepresent ing
n i
Ġs ession
con f
ĠL ight
map sto
he t
Ġhyp ot
ĠB ell
Ġindic ate
Ġs port
ĠV illa
ĠO s
Ġaccept ed
Ġpromin ent
Ġse ems
Ġmat rices
Ġacadem ic
per ial
Ġtest ing
Cur rent
tik z
ĠH uman
Ġact s
Ġtest s
19 29
Ġin h
Ġadminist rative
ash ion
Ġpro pos
Ġanc ient
ĠS ant
row ser
al ysis
con tainer
Ġt al
am i
Out put
du le
Ġdig ital
Ġax is
Ġ$ $
olic y
ĠL ew
) _
ch or
ĠL ag
ĠJ eff
ak i
19 17
S outh
f ri
ĠB rig
co pe
i ated
ĠPr ime
ĠJ oe
Ġspect ra
Ġwe ap
ĠB att
es tab
Ġem pty
c ut
ĠR ome
' }
Ġro ugh
ĠB on
ĠN ations
ud io
% )
ĠR aj
ĠJ on
ĠB ab
Ġw all
bour ne
Ġident ify
ĠR od
Ġlist ing
h igh
ĠMod el
Ġdeta iled
b re
ĠK ey
)$ -
port ed
ĠM ain
Ġs la
con sin
193 4
che stra
mult i
Ġcomp are
Ġconver gence
ĠSc iences
ĠTh ree
Ġoccur red
Ġc ert
Ġag reed
Ġtrans formation
Ġn arrow
Ġsc ulpt
P L
Ġr ise
M D
Ġterm in
em an
ĠS ports
Ġdise ase
Ġsil ver
sc ope
C R
x x
Ġ era
Ġp it
Ġsw itch
Ġobserv e
h ing
ĠL uc
od ies
ĠQue ens
Ġw or
Ġvis it
Ġinter val
Ġachie ve
' ).
qu arters
s uch
ur er
ĠComm and
Ġ&= &
ĠCor poration
ĠD er
ath an
M y
ors hip
Ġ Î
Ġw av
Ġunder stand
ĠA venue
Ġa thlet
Ġcandid ates
b lue
Cont roller
Ġoff set
t an
D ev
d esc
P RO
a ught
ĠGu ard
ĠCamb ridge
ĠR oute
Ġenc ou
olit an
a uthor
Ġmod ified
ĠT od
Ġyield s
I O
Ġh undred
Ġv en
ann ot
er c
193 2
Ġsc ope
S ection
ĉĉ Ċ
~~ ~~
ĠE p
19 10
Ġmusic ians
D irect
ĠP ower
ic ate
ct u
su ccess
se x
B U
Ġacc ur
' (
ĠL im
ra q
T ask
ĠT ok
Ġlarg ely
ĠTor onto
w ater
z h
Ġ$ {
Ġas ympt
Ġtra ffic
ch ron
d el
ta ck
ph as
u ous
ellig ence
ra ine
ĠMed ia
ĠN etherlands
ĠRev olution
ĠG er
it o
ĠM innesota
ĠPl an
Ġcou ple
Ġbehav i
19 00
ĠGa ussian
isl ative
ĠA sh
à ¸
D at
ilib rium
ak h
Ġw inners
Ġlab or
olog ies
ĠTur k
ĠSwed ish
Ġdifferent ial
are t
T O
ĠUS A
old er
s ch
Ġmeasure ment
Ġf ine
l ig
Ġcl oud
Ġren amed
Ġapprop riate
ĠR ead
Ġcre ating
Ġplann ed
L abel
-- -
Ġnot able
ĠOr gan
S ON
arri er
all ow
V D
Ġle tt
Ġloc ations
st ep
Ġch annels
ĠDu ke
Ġshow ing
Ġfac ilities
f a
Ġs ides
ĠAnt on
ĠEliz abeth
Ġprincip al
Ġst ellar
com ing
q l
ĠAn other
19 24
Val id
S A
display style
Ġpart ition
m c
Ġpro port
Ġcommun ication
ask a
Ġr ural
ject ed
on ed
ta x
ĠIn it
ran e
ĠH T
Ġv ectors
inst ance
Ġexpand ed
Ġoffic ially
w ait
Ġro les
ĠE X
Ġoff ers
Ġparticip ated
ĠU N
se ct
t wo
ar c
Ġr ugby
Ġtw ice
ĠN C
Ġopt ical
H is
serv ice
St at
ĠM aster
) },
Ġdel iver
orn ey
D A
Ġdeg rees
Ġmin ister
ow a
th on
19 27
ĠA thlet
ynam ic
Ġreview s
Che ck
B iography
Ġpart ner
Ġre ports
Ġpar ish
Ġg rew
ĠSt adium
Ġrac es
it led
ĠMed al
Ġstr ateg
emet ery
Ġhand le
ĠS ab
b ro
ef e
ĠH and
L ength
$ ;
Ġphys ics
as er
ĠC ub
s i
la gs
ĠB ol
m itted
l an
ĠPak istan
o is
Ġsol o
G C
M ay
19 22
Ġide al
ĠA st
Ġpie ce
M B
o or
193 1
Ġredu ction
_ .
ac c
Ġtechn ique
ĠP ass
Ġv otes
sc ill
res ults
G erman
R ed
Ġw ing
Ġdestroy ed
Ġfig ures
V ID
ust ain
Ġf rag
Ġp al
Ġord ers
Ġcitiz ens
Ġengine ering
Ġman ifold
In ternational
// /
ro ot
Ġsubsequ ent
Ġfail ure
Ġl ie
Ġp sych
Ġl y
pro position
Ġb locks
M at
Ġal one
M ode
Ġp seud
s d
are n
ĠComm unity
Ġimport ance
ĠB ad
ut t
Ġmagn itude
Ġdescrib es
ĠB usiness
ĠS erb
ĠV en
weg ian
U I
men u
he nt
A cc
Ġs urn
Ġmass es
Ġdel ay
Ġp ull
P O
ĠG ener
est ic
Ġdecla red
Ġcont rovers
Ġ[ ]
mod els
Ġobserv ation
ĠR en
Ġsatisf y
\ {\
Ġd oub
ĠPh ys
Ġchem ical
ĠM ethod
Ġflo or
Ġinstit utions
ĠPrem ier
se y
Ã º
Ġcon ference
c ard
Ġhousehold s
Ġequip ment
ran k
f ort
off set
L ocal
ĠT ai
Ġtre es
rem ove
Ġdo ing
ĠB ridge
Ġch ampion
Ġperform ing
res ponse
ud get
Ġass ess
Ġde ploy
F rench
ri e
ra ge
Ġc lean
ĠSan ta
Ġserv es
Ġ{ }
Ġser ious
ro g
Ġcompos ition
Ġatt end
ĠB rad
ian g
pro to
Ġnuc le
ĠWis consin
Ġ< !--
ĠS quad
$ ~
Ġth ous
Ġmin imal
Ġke pt
Ġg ap
ub b
Ġgrow ing
ab il
ĠP y
c ref
ĠS us
V ER
Ġf reedom
h ard
Ġst reet
19 21
ly n
Ġlay ers
Ġbe am
ĉĉĉĉ ĉĉĉĉ
ac ent
he tic
Ġemploy ed
ĠF inally
19 25
ĠB ishop
_ -
ĠF air
Ġte acher
Ġband s
pro v
Ġsp ring
Ġun s
O lymp
Ġel imin
Ġcan cer
Ġd iam
im ation
ĠM ike
Ġnot ation
ur ches
Ġl ic
ĠS her
Ġphen omen
Ġres on
ĠDes pite
return s
ĠStep hen
Ġag ric
Ġex c
rom e
se ar
Ġ url
Ġp ix
ĠD oug
ĠĠĠĠĠĠĠĠĠĠĠĠĠĠĠĠ ĠĠĠĠĠĠĠĠĠĠĠĠĠĠĠĠĠĠĠ
eg o
( &
Ġco al
ĠA PI
op es
ĠStud ies
ap pe
Ġnew ly
hed ral
Ġs pl
| _{
Ġtrans lation
g r
Ġperm an
Ġgrad ient
um es
Ġhigh light
os a
Ġpe ace
d irect
Ġhost ed
Ġpol ic
y al
z en
Ġpl ants
H S
P ost
ĠA cc
Ġdep ending
Ġg irl
Se cond
u v
ĠJac ob
Ġre asons
19 12
ĠCl ark
Ġp et
Ġunder standing
ĠInd ust
Ġcle arly
w atch
P at
Ġhistor ic
j an
ĠG ro
Ġsurround ing
Ġfund amental
ĠO t
ĠMar sh
it ness
s or
Ġgu arant
ang a
prot otype
Sc ript
en ess
Ġapp arent
Col umn
Ġbelie ve
ĠFore st
ĠC irc
icro soft
ol is
reg on
con n
Ġpred iction
ĠL ady
Ġo scill
Ġimpro ved
19 23
Ġk ernel
ĠFurther more
not es
ĠB la
comm on
igh th
Ġtit les
w s
M E
Ġhe at
Ġu int
ĠK ir
} &
ĠA D
ĠC LASS
Ġcapt ure
19 26
Ġc ars
Ġm ind
Add ress
C ON
im ately
List ener
c over
k it
Ġoptim ization
) +\
Ġb ill
W omen
M R
ĠPhil adelphia
Ġbound s
Ġtechn ical
} )$,
ĠM ember
Ġn et
ĠSwed en
ĠHamilton ian
ĠH REF
ĠRev iew
ĠP ers
ĠĠĠĠĠĠĠĠĠĠĠĠĠĠĠĠ ĠĠĠĠ
og en
ĠMc C
ĠF re
im ages
ap ed
S ong
ĠH ay
amb ig
Ġcall s
ĠF I
M ult
Ġbeg ins
Ġd ance
P ublic
ĠW alk
Ser ver
Ġtheore tical
ic ial
pos s
on ical
ĠSt at
i pe
Ġmat hemat
av ed
c alled
Ġ\ !
Ġresult ed
ĠT y
Ġlim its
c ong
Ġdefe at
c ular
ĠC zech
d rop
Ġo dd
Ġtown s
ĠR om
Ġsp irit
or gan
Ġgalax y
} }$.
25 0
K E
st able
Ġperform ances
medi ate
Ġvert ical
Ġclaim s
Ġw ait
Ġdimens ions
Ġsuccessful ly
un te
Ġp rice
Ġmot or
Ġro ll
y ard
Ġsaf ety
Ġrecogn ized
j oy
cc cc
om ot
Ġis ol
ck nowled
Ġrepresent ative
ĠCh ris
ĠK im
Ġinvol ving
Ġw ild
lap se
Ġmedal ists
< ?
Ġdam age
Ġadvan tage
B O
S um
ram es
ner gy
N ames
Ġaff ili
im s
Ġshe ll
II I
Se lect
b el
ĠD am
c lear
ĠD isc
ĠK al
} }$,
ĠM ap
ĠMed ical
Ġbe at
O p
N on
ĠW hat
ĠC as
Olymp ic
Ġlead ership
out heast
d est
A ccess
p ur
Up date
Ġest ate
ap ore
Ġcompos er
Ġres pond
ell o
Ġhous ing
p g
m ass
A wards
Ġb lood
param eter
Ġf elt
Ġsett ings
ast y
Ġem phas
cal e
p ers
ĠV is
Ġcol lected
Ġindust rial
ĠPe ak
Ġofficial s
rop olitan
Ġre sear
rest ling
) -\
k h
ĠT al
Ġadd ing
m ers
b al
Ġrecogn ition
go ing
ul y
ps on
S ome
Ġnov els
Ġt ail
Ġp iano
19 16
Ġmass ive
Ġwhere as
Ġsex ual
Ġs ure
Ġcollab or
au x
N ov
ch a
Ġcon j
le ep
b rid
ens is
riz ona
ost er
Ġgain ed
il bert
ĠAd minist
T C
ann a
Ġs ales
oc ks
Ġpurch ased
w orth
H L
ĠS i
asc ript
ĠB ecause
ĠN az
ĠW eek
Ġl um
But ton
op her
ol es
Ġterrit ory
19 15
m i
L em
Ġhe av
osoph y
Ġfocus ed
ĠAn th
) )$
C ache
Ġinc ident
Ġcontin ues
Ġtit led
Ġget s
ĠTown ship
Ġveh icle
ĠW inter
ĠInd ones
Ġpolit ics
Ġre pro
enn a
l iving
ĠA R
ipl om
Ġs end
ĠIndian a
ĠR a
sc ape
ĠB udd
id el
Ġconclud e
UR L
ĠM ilitary
Ġfin ish
c ow
ill ery
A g
Ġ urban
Ġh idden
Ġrot ation
ĠAr thur
ĠI raq
Ġcer em
og g
put e
se ason
Ġstart s
ĠJ oh
Ġin duced
ennes see
ĠA li
Ġtr ust
[ (
ĠW ars
Ġpar liament
ĠG ree
Ġla unch
ĠOr ig
ru it
}( {\
Ġre ct
Ġcop ies
Ġt end
Ġinsp ired
lay out
ĠF ree
Ġdr iver
ĠF ire
6 00
Ġgraph s
Ġpr ime
Ġscient ific
ĠMiss ouri
ĠCon f
F R
' re
Ġthem e
t w
ĠBar on
Ġregard ing
v o
Ġdev ices
**************** ****************
ĠGold en
Ñ ĥ
Ġconsist ing
Ġper fect
Ġengine er
att r
Ġfem ales
Ġscatter ing
h bar
Ġcr ime
Ġnot es
Ġfunction al
Ġgrant ed
w ing
por al
ier arch
ĠTur key
int on
Ġj ourn
F ollowing
ĠCol on
1 10
ord an
ĠW el
Ġge ometry
Ġcharg ed
L ong
ĠK ansas
m em
Ġmed ium
ER R
ĠMex ican
Ġveh icles
Q ue
ĠM ill
Ġh ole
Ġend s
AP I
ĠL ev
ig rants
os is
uss ion
Ġsuggest s
Ġp aid
m ma
ĠCap tain
' ),
Ġdat abase
Ġquest ions
Ġsw im
}{ (
ĠH un
: </
Ã ¢
X X
ĠS on
flo or
ec ute
ĠV i
Ġstr ugg
ĠBe ach
Int roduction
ĠH al
ĠI V
u ing
) }_{
app ed
lement ary
Ġeffic iency
ik a
Ġra ise
ik i
Al though
O pen
ĠS em
Ġprocess ing
Ġpen al
leg al
: }
ĠM unicip
ad s
Ġcomplex ity
T ypes
ĠH an
Ġlab els
sh ould
u int
ĠH o
Can adian
l ot
Ġf iction
Ġprincip le
ĠE ll
Ġ{ $
T S
ĠL ind
G o
Ġpower ful
Ġst orage
ĠW at
ĠRepresent atives
Ġres ident
Ġfac ulty
}{ |
Ġinterest ed
ĠF inal
Ġm iles
Ġdr ive
ar se
ul i
Ġsum mar
Ġran ked
T arget
ogene ous
Ġv ess
Ġw orth
Ġcont est
Sports people
ript or
ĠM un
eta ils
ens es
al ing
Ġabs olute
for ward
t i
Ġsub stant
plic ations
Ġinvestig ation
W idth
Ġamplit ude
Ġb illion
ip age
p ot
ĠComm un
pect ive
Ġaff ected
tt ps
Ġcont emporary
Pro cess
Ġtri ed
Ġsub t
R ad
B ibliography
Ġ$ .
L ocation
ens ed
it ivity
}$ )
Ġimplement ed
: "
Ġb oy
Ġloc ally
Ġab and
D r
m osp
ĠPr im
Ġdocument ary
Ġt ells
Ġsuff ered
ĠU sing
Ġfind ing
CO L
Ġfound er
rap per
ĠEngine ering
ĠD own
Pop ulated
f rame
Ġex cit
T ax
ict ures
ĠR et
ĠU s
ult ane
Ġc ov
Ġexpla ined
ĠO regon
ĠMar ia
min ipage
ta il
ĠA h
Ġrem ark
Ġport ion
N E
v ard
ron ic
Ġext end
19 13
ist ent
ĠK el
ĠĠĠĠĠĠĠĠĠĠĠĠĠĠĠĠ ĠĠĠĠĠ
Ġcomm ittee
Ġcol le
D i
Ġconsider ing
The refore
Q L
ĠPol it
Off set
less sim
Ġl iber
Ġcon vent
M ark
Ġor bit
p et
ĠMan agement
agn etic
Ġdist ricts
ire ment
Ġbuff er
Ġsup erv
F rame
Ġadvan ced
d epend
ĠL icense
Ġh abit
ĠF ox
Ġtherm al
$ ),
ast ers
S H
ĠMar g
Ġdeta il
Con tainer
Ġinf inite
Ġcomput ational
Ġop posite
ĠM ic
=" ../../
Ġcharacter istic
$ };
op ic
ĠH ard
w estern
Ġst one
`` `
Ġ ener
id i
Ġdef end
Ġconv ex
Ġb in
qu es
end ar
Ġang ular
pr ise
Ġvis ible
ad ing
par se
Ge ography
Ġscal es
Ġspe ech
V ar
Ġ$ |\
S ources
Ġ! ==
L eft
ĠDav is
ĠB h
I B
g est
ne ctions
ord ers
Ġclust ers
Ġplan et
Or der
ĠCast le
D o
Ġag greg
Ġh ttps
8 00
Lay out
Ġ ion
z z
Ġc ool
Ġf ell
W E
Ġdoes n
Ġse ats
Rec ord
D O
C ent
Ġro ut
ag a
Ġacc eler
h aps
ĉ Ġ
Ã¼ r
ud i
Ġev ol
\ )
la in
Ġport ray
we alth
Ġp ool
ĠO F
ĠH art
rit ical
U sing
ĠAtl antic
ĠJew s
i Ã³n
Ġ* *
ĠI d
ic ian
U rl
Ġcalc ulation
Ġauthor ities
ear s
Ġp owers
( _
ĠAr ray
ĠStev e
Ġview s
ĠB all
Prov ider
Ġfind s
we et
Ġp icture
r ine
Ġcl imate
ord on
b en
ĠG allery
secut ive
cont rol
) "
ĠF ederation
ĠCount ry
oth ing
ĠP ier
Ġse vent
Ġim ag
ĠBro ok
ĠOn ly
Ġnam ely
lay er
Ġcomput ation
Ġeval uation
Ã© s
cl ip
form ance
Ġuncertaint y
Ġneut r
h s
Ġsp ons
H ar
19 11
ĠAl f
ĠR on
Ġnot hing
ann ed
Ġvari ation
Ġl osing
r ator
Ġsch olar
Ġf ish
Ġsc oring
Ġtra ject
l ife
ues e
ribut ed
p ower
Ġ il
Param eter
&= &
Ġref ers
ĠHigh way
ĠSec urity
Ġcorn er
Ġspec ifically
Ġposs ibly
Ġor th
Ġar ts
m ode
Ġpass ing
ĠD ig
Ġl en
Ġprote ction
T hat
ĠB ru
AR T
Ġcoordin ate
t ask
Ġfac ility
refer ence
he rent
Ġrob ust
out s
190 8
) }}
h box
Ġm apping
Ġz one
Ġscen ario
Ġser ial
Ġconvert ed
ĠT ennessee
at on
ĠColor ado
Ġattempt s
T ree
++ )
Ġrefer ences
Ġflo at
Ġdatas ets
W est
are st
Ġc overs
ĠSur vey
Ġy ards
g ies
ĠS lov
ĠW in
E Q
ĠDes ign
ing ham
Ġ[ \
Ġco inc
ĠLew is
an es
T wo
Ġins ert
m atch
ĠB ack
ĠP it
Ġb ow
w indow
ĠG h
form er
Ġatt ribute
ap es
Ġrec ip
R ange
] }
ĠPhilipp ines
Ġyoung er
ĠS D
Ġpre par
Ġjournal ist
Ġgovern or
ÃŃ a
Ġme ant
inc ial
ĠL ive
M T
Ġear th
ĠW rit
Ġb right
ater n
D ep
res ource
Ġb ronze
ĠF amily
Ġsecond s
Ġwe ights
ĠY our
Ġ rom
Ġc art
ĠBase ball
Ent ry
ud a
Ġcr im
lo op
di ag
Ġcalcul ations
Ġfrequ ently
jav ascript
f n
ĠM oh
Ġus ual
J apan
and ra
Cont rol
is er
d ocument
ĠI l
F inally
Ġc ab
Ġto ol
ĠMem orial
Ġp ages
Ġrepe ated
Ġpat ients
Ġden oted
Ġcall back
Ġadv ance
if ts
Ġrest aur
ĠMary land
sc ription
Ġpublic ation
is a
Ġt aught
ĠFred er
Ġsol ve
Ġide as
Ġlearn ed
if er
clus ive
Ġsup ply
Ġreturn ing
i ative
ĠS av
ĠNor way
ĠLe on
ĠO cean
st at
20 23
Ġtry ing
od s
point s
in ations
^* $
Ġintrodu ction
ang ular
ph ant
Ġst ock
ĠF ile
Ġpro jection
AT ION
ĠG re
Ġl ock
ĠR oss
Config uration
and y
Ġm ac
Oper ation
ĠD E
al gorithm
Ġch airman
M ain
Id ent
Ġto ward
ict ional
b ool
re nder
id ge
25 5
ĠAss ert
Ġlook ing
Pro t
Ġturn s
% ;
Ġsub s
Ġdis crete
def ined
Head er
}} _{\
, {\
ĠJ unior
ĠB ooks
arian ce
ĠK er
Ġauthor ity
Ġarm s
Ġad vert
al let
Ġobject ive
Ġcamp us
Ġag ents
Ġbur ied
P D
ĠSh ort
ĠLab or
ĠSt ock
I ST
m aster
Ġnomin ated
m ake
R S
ĠFore ign
Ġne ural
P an
Ġinter ior
Ġst ress
class es
Ġclos ely
lab le
g reen
ent ed
ambig uation
ĠA rizona
Ġpaint ing
Un it
Ġrece iving
u y
Ġsu itable
Ġext ensive
: =
ve e
iss ions
Ġun able
Ġp le
Ġvilla ges
B undle
up s
b at
=" _
Ġmix ing
Ġdes ired
f ef
ĠS ervices
- $
c p
B B
Ġlett ers
af e
Ġte aching
V ideo
am m
Ġeduc ated
ĠA rea
De ath
ecut ive
ĠMal ays
Ġbe aut
ĠMel bourne
un es
Ġrepresent ations
iv als
ang es
Ġtem plate
Ġcoeffic ient
ful ly
Ġhand s
Ġcolumn s
Ġout er
el le
ĠD or
ĠMos cow
Â °
Ġdesign ated
Ġplann ing
ĠN orm
ir ty
Ġstat istical
Ġinj ury
ĠEx t
, $
yn asty
ĠV o
V ol
iv ated
Ġcalcul ate
inter face
Ar ch
Ġdid n
Ġinteg ration
Ġrequire ments
Ġsatisf ying
Ġd aily
Ġacc ident
ol i
ĠD a
Ġcont rolled
Ġst ability
.. .,
ĠTr ust
Ġnot ice
Ġsh op
Inter face
ĠS uch
ĠIn formation
t frac
Ġarrest ed
M O
ĠSquad ron
off s
e en
Ġs ave
Ġget ting
Ġin her
Ġtw enty
ĠBro ther
Ġrec all
cy cl
E ach
H igh
Ġarg s
Ġcan cell
ĠF ellow
Ġadj acent
Ġre action
Ġcon secutive
Ġv ice
Ġbrief ly
Z E
j oint
Ġcaus es
Ġdo ctor
Ġinters ection
Å «
ce ived
u um
Ð ²
Ġunder lying
ĠC P
Ġ( ;
Austral ian
] );
Pl ot
ĠD rag
Ġjud ge
Ġthe atre
P ass
col n
Ġle mma
Ġy ellow
ĠSing apore
}\ ,\
W rite
Ġcategor ies
Ġcomp at
ĠM ir
f ull
s v
Ġcon ven
ĠCon nect
ĠAff airs
Ġw aves
B est
ond er
math op
ĠAmerican s
] $.
oper ation
f amily
ĠN a
\ }$.
ist ed
ly wood
ĠE s
ĠPhil ip
OR T
Pro ject
Ġsum mary
Ġdet ected
ĠE ven
Ġelectron ic
in er
ĠN ame
ĠC ab
ĠAust ria
Ġro yal
Ġf ans
Ġinst alled
field s
H C
N AME
Ġstar ring
Ġen joy
sh ot
Ġd rawn
T YPE
ĠS ri
D av
ĠS at
Ġcharg es
Ġestim ation
Ġrac ing
aw n
Ġpur poses
ĠInf antry
ĠJ os
Ġm anner
fef efe
Ġrad iation
ĠAnd erson
B efore
Ġf ashion
Ġcomp ris
Ġesc ape
Ġw atch
Ġconsequ ence
}} )
Ġp ackage
Ġlo an
Ġpredict ed
ad ed
ĠAr k
ĠE nt
Ġsom ew
Ġsub group
Ġprem ier
ort heast
Ġscal ing
$ :
D S
Ġ iron
R ail
Ġto wer
g ar
itzer land
$ &
v ements
Ġir re
ĠViet nam
ok ing
Ġsufficient ly
Ġpattern s
L eg
Ġthe ories
Ġto ols
Ġtra ins
' m
Ġh all
G en
Ġdynam ic
ĠSund ay
f old
ĠUk raine
N one
Ġend ing
Ġop posed
o a
du ce
Ġsepar ated
Ġb urn
ou red
Ġn ar
Ġt ransp
b ad
Ġt rac
ĠRe al
ĠReturn s
Ġn or
Ġenvironment al
Ġ\ (\
Ġdrum s
ĠM as
Ã© t
Ġcap tain
ograp her
Ġob j
i em
Ġsucceed ed
Ġent ries
ph ys
Ġ( ,
st yles
ĠCh annel
Ġv ocal
ĠM ult
k g
ĠEm peror
Ġeconom y
Will iam
leg ate
ous es
per iment
clus ions
Ġsim ultane
ĠAl bert
Ġbro ken
Ġf estival
lah oma
Ġop position
Ġdrop ped
ĠB arn
ĠQueens land
ĠA uthor
d on
Ġequ ilibrium
Ġb r
12 8
ĠM P
s em
ĠH ur
ĠA mb
tem plate
ĠT urn
16 0
ĠH ou
hen s
Ġcost s
ell ite
Ġexplicit ly
s ince
Ġsampl ing
ct x
Pro perties
ĠKent ucky
ris is
u ilt
10 1
O rig
Ġdevelop ing
Te levision
ism s
Ġcrit ics
S m
Ġ{ };
e lect
rain ian
Ġformer ly
ĠM iller
R C
bra ce
oc ese
Ġvis ited
iv ation
Ġte le
it ational
H on
d iff
ĠM ath
pp ing
Ġsequ ences
Ġindic ated
Ġapp lying
Ġw ins
S yn
}[ \
Ġcomm ander
he im
dis ambiguation
: (
Ġcomm ut
190 5
ĠChrist mas
st an
art he
Ġe q
ĠN ev
ĠEnter tainment
Ġd ust
Ġex clud
big l
Ġop in
ad i
er al
Ġsix th
ĠB an
r ating
Ġexpla in
st ic
ĠB os
et ween
et ies
ick er
ĠAd am
ĠCO VID
ĠS oc
Ġaud ience
Ġb ond
ok es
form s
Ġconn ect
Ġcover age
oot st
W ork
v as
ou ch
Ġb ran
Ġfight ing
Ġpl us
al ian
ĠL eb
b ell
ut her
Ġco aches
Ġob vious
h l
Ġat mosp
ak s
k ov
rum p
ip eline
Ġanim als
\ ;
Ġind ependence
ic ut
includ ing
ĠS ky
ĠG ib
Ġoccup ied
Ġsupport ing
ym n
L evel
% %
ĠS C
Ġpie ces
ĠI S
B L
R et
ĠF ord
189 0
ĠHol y
ĠM ach
in cess
erv es
L ife
D own
ĠB ah
ĠM it
ĠG i
z i
Ġult imately
Ġappro ved
Ġmatch ing
l ash
Ġtrans mission
F M
bm atrix
Ġcam era
lab ama
ĠB at
Ġd iver
He ight
w ick
ĠL ow
Ġd og
ĠN Y
ĠF und
Ñ ı
Ġocc asion
Ġchall enge
och astic
Ġn ob
ap el
Ġmanag ers
,\ \
big r
ut ils
Ent ity
ound ed
d ependent
Ġch arts
Ġregister ed
ro it
Ġtri p
Ġdr iving
Ġinv erse
ĠB or
t iny
ĠI owa
f lu
Ġevalu ate
Ġdec or
G R
ĠK han
par agraph
og ether
eng ers
ĠF ront
Ġ> =
H P
ic ip
Util s
190 6
Ġp adding
requ ire
Ġold est
S k
ĠW he
Ġfe et
Mod ule
D R
ĠGree ce
190 7
Ġth read
] $,
ĠD ue
Ġentire ly
) )\
Ġt urb
ph one
ĠT a
ĠSim on
com ponent
ĠT el
B M
Ġst ack
ĠC all
olog ists
empty set
Ġgl ass
ĠNor wegian
Ġs ustain
ĠR oy
ĠC ape
| }{
iss ip
Ġposs ibility
Ġind eed
ĠTrans port
Ġdec ades
Ġm ales
g eneral
Ġl iqu
ĠSe ver
ĠO tt
Ġhead quarters
A nt
ra it
Ġsol ar
Ġattempt ed
Ġb udget
190 9
ĠE vent
v s
Ch rist
ubl in
d frac
Ġf erm
ant e
N orth
ootst rap
Ġflow s
dis c
Ġfact ory
f i
ĠTok yo
U M
[ -
ĠN ap
con v
l at
Ġpolic ies
bum s
ĠF ame
ure au
ĠB alt
sequ ently
ax is
ä ¸
Ġis omorphism
Ġdoc uments
ĠD omin
Ġ ^
Ġp y
ĠR ose
w all
F O
Ġgu est
) --
âĢ ¦
N C
Ġre ar
Pos ition
ant on
Ġneg ot
ĠTr ue
Ġposs ess
Ġexpl o
Ġab und
es ter
ĠE th
ta h
Ġaspect s
ĠHar ry
Ġsome one
Ġ Ä
Ġcons ult
Ġd ivers
á »
ĠSta ff
ĠEar l
ĠArm en
Ġcall ing
ĠBill board
Ġpain ter
Refer ence
ĠN ative
Ġdimens ional
Ġinvestig ate
el ess
ache lor
Def inition
CO DE
ĠL ocal
() ->
ile y
ĠS M
ag an
Ġcl in
rast ructure
ate ur
w ich
Ġsp ot
ĠG lobal
h op
Ġdecom position
Ġident ical
ouri er
Ġtrad ition
ĠJ ane
Ġd iplom
E uro
ĉĉĉĉ ĉĉĉ
ĠCre ate
Ġadj ust
ref ect
ĠZ h
l ate
in itions
Ġmusic ian
ĠFor ces
Ġfund ing
ĠGo ogle
Ġsitu ated
}} .
Ġd ie
12 5
H ash
ĠAl b
p res
Ġrough ly
Ġbi as
Ġcirc um
ĠT ony
in th
Ġtre nd
f act
Ġdef ense
ene z
Ġs ail
Ġx ml
Ġsurn ame
Ġaccur ate
#### ####
Ġj et
="../../../../ ../
Ġn om
=" -
Ġprom otion
long rightarrow
Ġar c
ĠW all
Ġent ropy
Ġre nd
b efore
G S
ro ke
B E
Trans port
reg ular
ac hers
r ations
Ġse ed
to ken
Ġ ^{
Ġupd ated
Ġpass es
if est
l arge
Ġle ct
Ġre ality
stit ut
Ġpil ot
Ġ\ ]
}) }
d am
ar o
Ġchang ing
Ġextrem ely
Ġb os
par ison
Ġderiv ative
ĠB eng
Ġsched uled
ĠE ric
Ġread er
ĠE P
rib ed
F ont
) ).
" ))
D C
Ġhas h
ĠG ab
ĠSy m
ul ing
B orn
Ġv ir
Ġlow est
br as
190 4
Ġopport unity
Ġviol ence
ĠT an
ant ly
ĠCon stitution
el ve
Ġth in
ĠSw itzerland
ĠT en
Ġsign als
ĠL ike
it ative
Ġansw er
oth s
Ġarg ued
T A
Ġst orm
Ġm orning
ĠW indow
Em pty
Ġdisc rim
Ġto ken
Ġt rib
A f
D ocument
Ġmay or
Ġex ecution
ĠMod ern
ĠE u
uer to
Ġref used
S ign
}_{ -
Ġsett led
;\ ;\
Ġhistor ian
ict ed
Ġb ought
ĠIn ternet
18 0
R I
m n
ru ctions
ĠB urn
Not able
Ä ĥ
ĠK itt
$ _{
Ġsing ers
f iles
ĠWal ter
.... ....
Ġdis estab
g lobal
ĠĠĠĠĠĠĠĠĠĠĠĠĠĠĠĠĠĠĠĠĠĠĠĠĠĠĠĠĠĠĠĠ ĠĠĠĠĠĠĠĠĠĠĠĠĠĠĠĠĠĠĠĠĠĠĠĠĠĠĠĠĠĠĠĠ
Th read
m o
ĠN on
ĠBatt alion
Ġcomb at
ĠG reg
IG N
G N
Ġmer ged
ĠC ase
ĠW ell
Ġhor se
S u
Ġf uel
Ġs ons
C ap
Ġcomput ing
D raw
if ul
ĠS ound
Ġp apers
12 3
ĠL iter
Ġbul k
ĠCh ile
Ġhold ing
P res
ĠL ank
ĠL ore
ĠCol omb
ĠTurk ish
Ġres c
la c
Ġcont rad
Ġsch ol
ĠD un
Ġr ich
ĠApp endix
es ian
sh ort
Ġw alls
Ġsports people
Ġf olk
ĠN ick
Ġcover ing
h ash
ev in
r Ã©
Ġc row
ĠS ix
g ency
ic ians
L C
t ml
ĠMag azine
ĠL ast
ĠTh rough
Im pl
Ġc atalog
Ġadapt ed
ĠLin coln
ug u
Ġtr igger
Ġcontribut ed
k ind
ms g
the less
c opy
PE CT
Ġben ch
spec ial
O ffic
ĠK at
Ġgu ard
iv a
G A
Ġgener ic
he et
Ġm ount
ĠVal ue
put er
Ġassum ptions
ĠCon st
ĠAm ong
Ġhe ro
ar ation
en um
Ġdi agn
r in
ivers ary
Ġv ide
H er
ĠS che
ĠB run
inem a
Ġbrother s
um a
> ,
Ġpath s
ĠOb serv
Ġm el
Ġdom estic
um in
Ġbehavi our
Ġs an
v ature
Ġen h
b uffer
Ġconst ants
ut ies
cis ely
trans form
B el
Con nection
ol ished
li ed
art ifact
Param s
Ġover ride
En c
Ð ¼
Ġag o
Ġa ired
$ {\
Ġr ational
equ al
F ootball
i ota
let ed
Ġregard ed
Ġbel ief
tikz picture
ĠTe levision
O ption
Ġ ),
Ġqual ified
Ġoper a
am l
iven ess
Ġinteg rated
Ġd ens
ĠG rant
Ġcharacter istics
Ġtemper atures
Ġprot ect
b urn
Ġcirc uit
G P
ĠA labama
ĠL td
in ction
Ġtr uth
s at
n old
Ġexpl an
ĠW olf
Ġcol our
ĠCro at
Ġcompet itions
ra ined
ĠMan chester
ĠJ ordan
190 3
ag h
on i
C opy
ri or
Ġc as
r atic
Ġstand s
maz on
an ia
ur ations
Ġtem ple
ĠBuild ing
ĠD C
and o
Ġprodu cing
}) =
c raft
oc a
Ġdiag onal
ĠR ow
Ġly rics
rad ius
Ġeffect ively
Ġfa ith
ard o
dom ain
Ġ( ),
ĠB efore
ĠD om
Ø §
Ġth ing
Ġret riev
190 2
Ġperman ent
ĠF inn
ĠW y
lor a
ĠC ost
Ġj ump
od d
iffer ent
ĠOk lahoma
Ġexhib ition
Ð ´
Ġcor rel
Ġset up
at in
ĠInd eed
ag en
190 1
E ducation
ĠP ot
Ġst ages
ĠJ am
Ġaff ect
Ġg irls
c ache
Ġw inter
ed ia
Ġin fer
Ġlum inos
Ġmax imal
n ie
ĠH ans
Ġm and
Ġembedd ing
B R
pl ot
igen ous
Ch ange
Ġshort ly
Ġwe alth
Ġattack ed
ĠâĢ ł
s es
act ic
ĠReg ional
") );
et al
ill ing
Ġpresident ial
Ġaud io
Ġal ter
Ġtra ce
Ġro of
ĠW ind
S earch
ĠP a
Ġent itled
P olicy
ag ues
ge bras
Ġconsist ed
is or
Ġb odies
}} }\
Ġa ware
ĠCommon wealth
ire ctions
ĠN FL
ĠW orks
,\ ,\
ee per
ĠOffic er
ĠN aval
ial ize
Ġ( '
ĠE nergy
Ġtr ivial
25 6
Ġr ig
ok ed
ie val
AC K
Ã ¥
Ġalleg ed
ĠConnect icut
ist a
H O
Ġbro ke
l ins
n ight
Ġv ent
ur st
la ps
p erson
= .
Ġhypot hesis
Ind ian
Ġun less
ĠHow ard
B I
fig ures
M ilitary
ĠO R
eli hood
M ost
t im
ĠChild ren
Ġvers us
Ġder ive
ĠRec ord
ĠLem mon
Ġw itness
st ore
dev ice
rid ges
ĠSt one
ct ors
Ġl ake
Ġ* )
Ġpredict ions
Ġsh ock
K ind
ow ski
on omy
or ro
ĠDi ego
re q
Ġtre ated
ĠPortug uese
Ġabs ence
Ġsatisf ied
ĠK y
enn y
Ph il
ĠF ac
Pro of
Ġess ential
Ġatta ched
A E
ob s
ĠH om
Ġinh abit
up le
Ġint ensity
ĠN av
sh ape
ĠC ru
Ġre aching
() :
ĠLab our
ra v
g han
ic ular
j ar
F inal
int eg
Ġa id
ĠB rian
Ġrelig ion
Ġl ists
ĠC ode
um ed
pro duct
ĠG ram
ro ps
ĠM att
ch ant
ĠSen ior
ship s
w orld
Ġcon clusion
Ġconstit ution
ir ical
al gebra
Ġpre ced
c oh
Ġcommission ed
H ttp
D M
ĠS l
V er
Ġc m
ow nt
ĠD al
a uth
Ġm arg
ĠEx ecutive
Ġfund s
ĠBul g
eta il
Ġs and
Ġcontain er
Ġe c
pl ane
ĠT ext
ĠMar ine
Ġflu id
ĠA ge
M em
issip pi
e le
Ġpro pose
ĠAll en
Ġg ate
Ġex ceed
b order
% .
ĠS U
S te
W hat
ul se
V AL
ĠSt ory
du ate
}) ^
/ (
Ġmax im
Ġh our
j ust
}$ }
Ġp ush
in ces
Ġf resh
od ox
Cl ub
Ġdirect ors
ty pes
V illa
18 80
Ġc ache
Ġcon nections
Ġheav ily
St ore
Ġf ib
U nder
Ġneigh bour
id al
clos ed
Ġliter ary
Ġinter act
ĠC emetery
ĠN ich
Ġstand ards
ĠSpace watch
AN D
Call back
ĠTh ird
iam i
ĠQue bec
ĠĠĠĠĠĠĠĠĠĠĠĠĠĠĠĠ ĠĠ
el son
Ġs izes
ain ed
ĠN ik
Ġl i
ĠS quare
ĠM oon
ĠP rix
Ġcan onical
multi row
Ġcomm it
Ġkill ing
ac cess
ĠDo ctor
Ġf ought
Ġqu ark
Ġprogram me
param eters
ĠWh it
d ied
Ġweap ons
Ġcaus ing
ov ed
port ing
Ġcomplet ion
Lem ma
g i
H ost
ĠD ur
web kit
Ġinterpret ation
) }_
Col lection
Ġscen es
oy d
Ġfound ing
COL OR
Ġret irement
ĠH amp
ĠAn ne
var iant
Ġj azz
Ġunivers al
us cript
ĠD ream
Ġrepla cing
AT A
s end
ĠW ho
ĠPal est
Ġsupport s
aw are
F amily
ĠBrig ade
ĠD ark
ĠB rand
Ġatt ributes
ĠP as
Ġher self
Ġfac ed
ur is
Ġdet ect
ĠR ey
As ync
Ġso le
Ġag ed
ĠR ights
oc ate
n ol
ĠF a
ĠH op
ra ce
ĠNC AA
Ġhot el
\ |\
ĠB G
St ar
Ġt ennis
C F
rop ic
ĠH ockey
est amp
Ġmet res
Ġloc omot
ĠHou ston
column width
Ġneut ral
Ġrad ial
Ġpartn ership
ĠAb out
ap h
Ġ" /
pt ic
ĠF M
D om
ur ance
por ated
ĠAg ain
ĠN AS
ra ctions
r ase
Ġs ac
Ġ ::
ĠC H
ĠEn vironment
Ġs ought
Ġcharacter ized
Ġprot est
ch annel
;" |
Ġb undle
Ġgrav ity
Ġinstit ution
Ġprote in
d ebug
ĠArgent ina
Ġnon linear
z ed
Ġexecut ed
rom ise
. '
ul us
ĠMar c
ĠT rump
Ġinflu enced
ĠR ab
u j
Ġincorpor ated
Ġtop ological
Ġair port
t or
c ers
od ge
Ġkey board
Ġdepend ent
low er
og ram
put ation
in ternal
Ġg uns
ĠV ice
Ġasympt otic
C M
ĠPat rick
ĠIn n
\ }$,
Ġs occer
Ġm obile
ĠP ur
in v
Ġch ose
math it
atter y
Ġcollab oration
Ġmaintain ed
ĠMo ore
re ll
Ġd ense
ĠM i
Ġk il
G overn
Ġflu ctu
Ġch urches
ĠN ag
R T
Ġp ed
? :
G iven
Ġemploy ees
Ġtrans action
ĠP ope
Ġb rain
] {\
Re ception
ĠEx ception
Ġequ ality
Ġphot on
Ġent ity
ĠDoug las
ĠTai wan
Ġquant ities
Ġpre cisely
ĠHon or
st op
ĠTem ple
Ġgeneral ized
f oo
Ġinter mediate
inc or
Ġhead er
os lav
ĠV in
ĠC ON
Ġmon itor
ĠIslam ic
us hed
s n
ro sc
^{ *
Ġw rong
red ited
com plete
an ced
v or
Ġdomin ated
Ġconclud ed
pl es
ĠC op
ers et
cl ine
@ {
O K
ĠN ever
circ le
+ (
ĠJes us
C I
Ġg ar
d ouble
Ġs un
Ġany thing
ĠSw iss
Ġhe ard
Set tings
Exp ression
X i
Ġoff ices
D ir
ch ain
Ġcent uries
ĠSil ver
ing ly
ub ble
Ġprom ote
Ġrestrict ed
; ->
text color
Ġc ryst
ik h
Ġener gies
Ġresist ance
Ġapproxim ate
y ers
Ex pat
A ng
is en
Ġl es
Ġd ates
Ġoper ate
L i
ĠCh ampions
li k
Ġab stract
ĠG ard
Ġcons ervation
ĠE c
ar ry
ĠN OT
Ġcross ing
Ġeduc ational
m ont
ink ing
ĠLie utenant
ist ence
Ġaccom pan
ograph ical
Ġl icense
ĠMon te
ĠB ureau
ch t
ĠBelg ium
Expat riate
Ġ\ &
Ġsign ature
ĠR eb
ag u
not ag
Ġf ranch
ĠHe art
ĠD eb
ĠJ ay
ĠIsrael i
iss ance
Ġactress es
Men u
im p
ĠK az
ĠBrazil ian
Ġcrim inal
ĠI r
E p
ĠUn it
Ġ }}
ov ation
or ption
us al
ist ant
op ter
m ut
eng ths
ĠG ordon
C K
Ġm es
form al
ram a
Ġlaw yer
W orks
W S
Nav Bar
ĠC ra
ilt ers
atur day
script size
ĠEX PECT
ĠM L
ĠVilla ge
ĠCol lection
Ġsp ac
T im
Ġsy m
Ġclass ified
f ly
sup er
AL L
ĠHaw ai
B lack
Ġprodu ces
re nd
Ac adem
Ġpost er
H ence
INE AR
r ub
Ġcrick et
v ia
Ġdet ector
arthe ta
189 8
v m
force ment
v als
S em
poss ible
Ġm art
Dev ice
b p
ĠCh all
b ey
) ),
ĠB ry
v artheta
p red
jo in
ĠD anish
ĠPh ill
ab ad
C ore
R oman
Ġp un
ri k
Ã ´
Ġch ance
An other
f inals
ĠK am
M c
Ġf lex
Con n
M ajor
ĠHig gs
Ġbre aking
Ġparam s
S F
ĠComm unic
f ocus
Ġform ally
c ategory
tain ing
Ġass embly
Ġtransl ated
in burgh
ĠP uerto
ĠD at
Ġconcern s
Ġappear ing
U se
ĠDen mark
S ession
li est
Ġm essages
ĠTer rit
enc ing
ĠL am
J son
Ġestablish ment
Ġt ick
ĠAdminist ration
="../../../../ ../../
Ġre lax
ul ating
ĠD ate
arn er
Ġhigh way
Ġstri ke
Ġlin ked
ĠS el
w en
ĠY outh
Ġvar iance
Ġfil ename
ĠAnth ony
Ġd rag
ol o
OR D
b ind
Ġex cess
Ġm ask
f il
Ġdomin ant
ocr atic
Ġinterest s
}} ^{\
Ġh op
Ġ" \
Ġwe ather
ol ver
ash i
Ġprot ocol
& =\
l on
P tr
Ġ} {
Ġs oci
Ġext ent
lad esh
Ġen emy
Ġtouch down
Ġconcent ration
plic ated
w hen
Ġparticip ants
Ġpoet ry
Ġworld wide
rang ian
Ġsomew hat
artifact Id
Ġre jected
Ġess entially
Ġper haps
pr im
ĠA ction
ĠG iven
ĠS ud
be an
r ins
ĠStand ard
> \
Ġst ating
ĠAl ber
Ġcar bon
sl ant
Ġb rown
Cons ider
U P
Ġund efined
reg ion
ĠE ag
ab ric
ay an
Ġh ope
V ector
ĠI mm
iam ond
U LT
ĠOn ce
Ġjo ining
Ġsent ence
) })
Ġm ist
Ġfound ation
a ired
D el
( :
13 0
Ġch ampions
om ents
Ġag ency
ĠH u
mod al
const ruct
Ġtra v
Ġm ent
ĠK o
ĠO ak
ĠPortug al
ĠLouis iana
ĠC er
ĠEx press
en ance
Ġt ell
Ġst ores
ĠM and
Ġvari ations
Ġp ione
ĠHer itage
ĠInd ependent
n ers
Ġin aug
ne ver
ĠM rs
Ġn um
Ġsim plic
Ġa head
M ac
ĠHot el
Ġc old
Ġillust rated
Ġsk y
^{ (\
Ġpl ate
ĠD ick
Ġad ult
Ġad vent
qu est
Ġh ierarch
St ep
^* \
Ġbal ance
189 9
s ong
Ġh air
Ġdecre ase
][ ]{
Ġst adium
Ġex pos
Ġrecomm end
} ~
e ast
I ter
al id
im its
ari os
Ġc arri
ĠC ook
Ġste el
ĠL INEAR
Ġdeterm in
level and
} |\
inst ein
Ġenc ounter
cond ition
Ġnames pace
Ġpract ical
Se lected
ĠV iew
ĠSoc orro
Build ings
ĠAnton io
ĠD ublin
to String
) [
Ġre con
Ġencou rag
ĠR ub
Ġaband oned
Param eters
equ als
m outh
ang o
Ġbound aries
Pro p
ĠA L
\ }\
Ġst ochastic
Ġpart ially
iss on
Ġcast le
Ġsaf e
L ang
ren cy
U K
Ġquant ity
Ġbenef it
uz z
Ġpublic ations
ĠMiss issippi
Ġdemonstr ated
ĠD ak
ĠE very
Ġdemonstr ate
ĠF le
Ġan imal
Ġcur vature
ĠT ar
Ġt ropical
Ġsur g
M I
Ġrespect ive
ĠDet roit
Ġinv ited
im ore
Ġg ender
G ame
ĠÃ ī
Ġ( {\
Ġver ify
ien ced
com ment
Ġdynam ical
st ood
Ġh its
Ġde put
Ġinvol ves
Ġvide os
ĠIm perial
orig inal
ail and
Ġr ival
Ġanc est
ak ed
Ġsepar ation
Ġan not
Ġperiod s
ss on
ST R
Ġr uled
Int eger
ĠB uck
ant asy
ĠG P
Ġent rance
Ġin duct
ĠI P
{ |
ic ide
Ġt ab
Ġcomp ilation
Ġinst ances
el and
Song s
ĠPlay er
AG E
Ġcor por
7 00
}\ |
ul ator
ĠOr th
fri end
Ġre ign
Ġgreat est
Ġpaint ings
Ġg ene
od a
Ã «
Ġv oted
Ġk ick
Ġnot ion
res p
ĠJ uan
mod ules
Ġ$ ,
Ġd ry
ĠCon c
group Id
Ġbelong s
Ġdesign s
Ã ł
ĠF ace
Ġv o
Ġred shift
ĠAdd itionally
Ġexper t
ĠS ign
es ides
Ġassum ing
Ġstudy ing
sub sec
og onal
Ġsk ills
on om
ĠStud ios
Ġevery thing
Ser ial
Sup pose
}} =
by te
ĠOr chestra
D et
Ġcerem ony
Ġap art
am ing
ĠRober ts
ĠC art
Ġfill ed
B ody
Ġautom atically
w as
ĠN ig
Ġo vers
Ġex cell
hand le
Ġvol unte
189 6
ĠAb d
ar ity
ĠLeg islative
g rid
Ev ents
ts burgh
all as
de lete
neg ative
ĠN umber
med skip
Ġt all
h ab
ig ious
ĠK a
: =\
Ġsc ores
Ġcontrol s
ĠU l
% ,
Ġe cho
r g
================ ================
Ä «
enez uel
ĠN ext
Ġprom pt
Ġs ale
ĠL anc
E P
ĠLiber al
Ġcl er
in ch
189 7
Ġmid field
Ġequival ence
y g
Ġloss es
Ġreconst ruction
n n
ĠHar ris
Ġhum ans
ot on
FF FF
ĠB ou
Ġmagn et
Ġaccount s
ut s
M al
Ġen able
Ġexpress ions
189 5
Ġro ots
ĠFreder ick
if iers
he astern
at ar
d ale
Ġstring s
Ġdef ines
Sche ma
GB T
ĠTod ay
Form er
ĠB us
Ġint elligence
ĠP aram
ĠK ur
or ate
Ġis lands
ĠBow l
ĠS n
Ġread y
P arent
R R
ownt own
18 70
ex ists
ĠU tah
ĠN ar
Ġj av
ĠA le
script style
Ġmole cular
Euro pe
Ġfin ishing
ific ate
Ġcomm itted
che ll
Ġreplace ment
ĠIndones ia
Ġp and
Ġpol l
Ġrev olution
Ġb an
ot ional
ĠC ow
Ġinhabit ants
Ġs ell
Ġ icon
Ġhy brid
oc he
ou pl
ir ation
Ġe ye
Ġl aid
G M
cre en
Ġd anger
R ober
On ly
the re
Ġadapt ation
Ġinf o
Ġmembers hip
bor ough
iv ery
arg o
ĠWalk er
Ġd ashed
Ġimpro vement
Ġw ire
V ari
B ra
er on
Ġdr ivers
own ed
Ġhom es
ĠM A
ah n
iz able
Ġanim ated
Ġhoriz ontal
ĠCont rol
ĠInst ead
Ġinvest ment
ĠChe ck
rep lace
Ñ ĭ
ro c
ĠBudd h
Ġsim ilarly
f ather
Ġnecess arily
ĠA re
Ġres erve
Ġinj ured
incor porated
ĠD VD
w t
Ġdis appe
Ġpass enger
re lation
Ġunivers e
Ġd ynasty
Ġus age
ĠHar vard
am ents
L o
in ian
az ines
ph ony
Ġqu asi
Ġeng aged
ĠG irl
an im
Ġpropos al
Ġbo at
ERR OR
Ġd irections
add ress
ist ration
Ġfle et
m al
Ġdo or
ĠSo ft
Ġprofess ion
Ġprec ision
B as
ĠC hen
Ġgener ating
F S
Tem plate
hold er
ĠArch itect
is lation
Ġh ired
ĠF ern
ren a
ĠAl an
ĠP age
( *
pro perties
at he
z ing
ĠP lace
M ich
ess ions
ĠSam uel
Ġcap able
at ta
The y
Ġan om
Ġt error
Offic ial
ĠEd inburgh
Ġdec ade
Ġsecret ary
ĠP ap
t n
form ing
Ġback ing
Ġperiod ic
Ġexpl os
ot he
Ġan th
Ġcom ments
Ġenc oding
Ġt ack
ĠT ig
Dav id
Ġk in
Ġgrav itational
or er
Ġres igned
Ġdisplay ed
ĠSt ew
doc s
Ġp or
ĠRes erve
Ñ Į
Ġm us
ĠN am
ĠP ed
ĠL yn
More over
Ġpop ulations
ou stic
edd ing
Ġpers ons
f ramework
ĠHol lywood
Ġf er
ab y
' ve
l arg
ol id
ĠK u
Ġj unior
ĠU se
Ġimmedi ate
Ġpl as
Villa ges
ĠR y
ĠDon ald
Ġtest ed
ĠArk ansas
Hand le
ĠAf ghan
Ġconf idence
Ġin line
ĠSh ar
Japan ese
ct ic
Ġn ick
ie ce
}{ *
Ġc odes
ta ges
Ġ\ ,\
ourn ament
styles heet
ĠR ol
Ġrecord ings
ĠV ar
It alian
Ġf an
! \
ĠMe an
Ġph ases
Ġinv asion
Ġstand ing
Ġded u
Ġre nder
Ġcoupl ed
ĠE arly
ĠH ills
Ġd uration
s a
lo pe
T T
ang el
ĠF arm
ith uan
it als
M any
Ġmov es
Ġr ating
Ġcom ic
Ġh ur
Ġsubject s
ish ops
pl ugin
ĠComm ander
em en
\! \
Ġview ed
Ġre in
r ates
ĠC ulture
Ġast ron
ĠLa ure
Ġd oll
Ġeng ines
ret ch
Ġprep ared
duc ible
Ġvac uum
Ġsimultane ously
os es
un ities
atur ally
Rail way
Ġdescrib ing
ÃŃ n
Ġmetric s
ĠI mp
uk i
S an
ac on
ĠG arden
ĠAg ency
ĠMat the
ĠMalays ia
ĠF il
R ule
ĠGe V
A v
med ia
ird s
Ġsp an
ĠIn vest
equ ations
e ach
ex port
Ġindic ating
Ġcompet e
Ġevalu ated
ĠH ug
m illion
ĠFin land
ĠCE O
st ances
ĠR E
Ġdown load
Ġro utes
Ġexpon ential
Ġ[ '
Ġge ometric
C ond
Dat abase
or f
mer ce
Ġclos er
ab et
Ġluminos ity
ĠN ob
) ^\
Ġbir ds
d ict
Ġ$\ {\
U RE
Ġproport ional
ob serv
rec ord
ĠC ensus
Ġman uscript
Ġcol ors
IM E
Ap plication
ug ar
ĠM iami
math tt
Ġag ree
ĠUk rainian
ap olis
- (
ĠL as
con duct
et ric
ĠMay or
F ound
ĠI R
ver b
ĠT it
st e
] ]
dis abled
ig e
rap y
ĠH erm
Ġaccom mod
ĠMc K
cul es
ather ine
Ġocc as
d em
ĠAust rian
Ġparticip ate
ĠOper ation
Ġdiscover y
ors es
F alse
Ġm ock
ĠR ic
G E
Ġac id
Med al
H istor
ogg le
L in
Ġmunicip al
ST ATE
Ġbran ches
Ġequip ped
H as
ĠB lo
Ġdr iven
ĠR equ
Ġdis miss
' >
G ET
G a
ĠH as
c laim
k w
Ġre new
n umer
refect ure
Ġpra ised
h over
Ġiter ation
ĠT un
! ]
Ġleg end
f ix
ĠJ ava
com b
ĠDis ney
Ġacc used
ol ph
Ġdiam eter
Val ues
B l
Ġmod er
g ate
Ġind ices
Ġch apter
ĠP eters
Ġsur faces
\% $
ir i
Ġsup ers
ĠP ath
pl us
D IR
do or
W A
at iv
ĠĠĠĠĠĠĠĠĠĠĠĠĠĠĠĠ ĠĠĠĠĠĠĠĠĠ
ĠAss oci
ĠWindow s
Ġliqu id
188 9
ĠWel sh
Ġgradu ate
anc ell
ĠT ag
T itle
ĠT reat
ern ame
Ġext reme
ĠLaw rence
Ġbusiness es
Ġrapid ly
ub er
rupt ion
ĠBG COLOR
Ġgood s
Hel per
k l
Ġtri es
Ġwindow s
T ab
Ġredu ces
ĠĠĠĠ ĠĠĊ
Ġ+ +
Ġdeliver ed
Ġtw elve
Ġrelationship s
ĠCommun ist
Ġm ort
Ã³ w
ĠR yan
ĠM Ps
ĠAn y
ili ary
ĠSt r
Ġde lete
Ġsens itive
ĠTh ailand
ĠMed icine
sp ring
Ġnormal ized
gress ive
p ay
Ġfav our
Ġb ishop
ĠR ound
Ġfrequ encies
Ġrow s
Ġexp ed
Ġf aster
ill ed
ann y
ĠF A
cast ing
Ġen abled
w ho
cl oud
con nect
Ġcorre ctions
Ġwav el
H ow
189 4
Ġcommun ic
g ame
ĠT am
eg et
ip le
ĠĠĠĠĠĠĠĠĠĠĠĠĠĠĠĠĠĠĠĠĠĠĠĠĠĠĠĠĠĠĠĠ ĠĠĠĠĠĠĠ
Com mon
ug ins
ĠD ave
ĠDep uty
Ġarm ed
struct ure
' ],
Ġexper ienced
Ġeigen values
ĠN atural
Ġvary ing
Ġis ot
ĠPal ace
Ġland s
ĠF all
ĠFri ed
1 15
ĠR ap
o i
Ġinst rum
Ġinstrum ents
Ġcorre ction
Ġl ift
att ers
Ġap i
P lace
ent er
ĠSing h
Ġneutr ino
Ġpurch ase
P RE
189 3
L oc
oc racy
Ġjust ice
et ing
Ġarch ae
Ġ} )
Ġens emble
In valid
ĠGu ide
om as
AC E
T ool
189 2
ĠHistor ical
writ ten
=" "
ĠDef ense
ac le
Ġf ly
. \\
re v
ov es
en z
Ġsymbol s
AC T
Ġphil osophy
Ġv ision
Ġpenal ty
ĠOtt oman
Arg ument
cl ick
Ġ ..
l oss
( -\
Ph ys
KE Y
ĠR ugby
Ġcl ock
Ġcon vers
ĠT amil
S ym
h fill
ĠPe ace
Ġtarget s
Ġconvent ional
Ġperturb ation
Ġroad s
ĠHung ary
Ġaccom pl
Met adata
A ir
en v
Ġcont ribute
Ġresear chers
ĠHung arian
R oot
our se
Ġopin ion
phant om
ĠKenn edy
M arch
J o
ĠDe ath
Ġc risis
ol as
Ġsec ure
ĠMc G
Å Ł
H om
iss ue
Ġst ored
f ire
c ross
188 5
s is
Ġear liest
Ġra w
Ġref uge
lem an
ĠN ash
ĠW ard
Ġes cap
or us
Ġ ,\
Ġexpl ore
ĠB uff
D L
Ġsy mp
OR M
Ġclass ic
Ġthous ands
Ġbenef its
Ġstop ped
Ġarr ival
Ġconstitu ency
ĠDe ad
Ġphot ograph
ĠR ang
ĠB art
Ġgener ator
rep resent
ograph ics
Ġcon vention
Ã© n
ĠB ox
est yle
Ġground s
Ġunivers ities
b ridge
Ġch air
int end
Ġcol lections
Ġhost s
ĠM anu
Ġform ing
_ ;
s quare
it udes
Ġsat ellite
ĠP ear
Ġp up
P e
ĠEr n
pr ising
ass ador
ĠR ick
Ġregular ly
Ġv anish
Ġh am
ĠH in
sup port
reg ister
Ġb low
Writ er
Ġvar iant
Ġf lying
Ġby tes
Ġuniform ly
J ames
ĠM ond
ject ive
Ġinv oke
Ġst ead
Ġf alls
n amed
Ġdirect ory
or row
s ession
Ġc ub
Ġown ers
bl ast
N G
Ġisol ated
Ġin clusion
Ġcrit eria
18 60
ĠMont real
Ġpar se
S tack
re tt
bold math
ĠTra ining
is ot
Ġh uge
Ġpremier ed
Ġpers pective
u is
ĠC are
Ġv ot
aint enance
ĠBang ladesh
ĠSim ilarly
ĠSever al
wid get
R ich
ĠI ron
ĠCh airman
Ġt el
ĠLang uage
ator ial
bar a
P aul
Ã ª
Ġschol ars
Î ±
Ġphot o
pr ison
ĠV ersion
Ġinput s
ĠSup pose
Ġoper ates
S pace
ĠP rad
d ash
ploy ment
G raph
ĠAn na
ĠN et
Ġclos ure
Ġjob s
Ġtop ology
Ġsever e
e a
pl an
Ġg lob
Ġc od
foot notes
Ġd x
is ition
Ġed ited
Ġl ob
ap plication
Read er
S ur
ĠK evin
Ġcarry ing
D en
10 5
Ġbring ing
qu ant
Ġenh ance
cor ollary
Ġinf rastructure
ii i
lo at
Ġkey s
ĠR ace
Ġfluctu ations
d in
B ur
ĠRail road
Ġa er
j pg
n ik
Ġpri ze
ĠG on
il st
l ia
Ġv eter
Ġpand emic
ject ure
Ġbig gest
Ġcrick eters
Ġagric ultural
Ġg rade
Ġste am
Ġorient ation
Ġres idence
Ġmin ute
ĠĠĠĠĠĠĠĠĠĠĠĠĠĠĠĠ ĠĠĠĠĠĠĠĠ
e ctions
m argin
f all
Ġsee k
Ġrem ember
Ġrema inder
Ġpract ices
le ased
ĠJoh ann
pos ing
v irtual
ent ity
189 1
Ġt ight
ĠS R
res ol
Ġleg islation
& #
pan el
Ass ert
ev al
ĠM S
Ġeth nic
Ġprodu cers
ĠKel ly
Ġassist ance
Ġalgebra ic
ĠAl ice
ĠP ad
An y
Med ia
Ġconfig urations
ĠM C
c b
Sc ott
ĠDig ital
Ġassert Equals
ĠMet ropolitan
aut o
ĠAlf red
ĠV ideo
ĠSc ient
ĠVi enna
Ġby te
ib l
-------------------------------- --------------------------------
Ġm ilit
Ġun us
ug oslav
aw s
Ġp od
U C
Ġdeg ener
N um
V M
Ġd uty
Ġscient ists
t otal
ynam ics
Ġsevent h
hy thm
Ġpolar ization
ĠR ot
ĠF ourier
Ġunder stood
ĠM ission
ĠRoman ia
ĠCons ider
Ġaccompan ied
Ġne arest
Ġf itted
È Ļ
Ġchalleng es
^* (
Ġat oms
Ġa f
Ġc yl
Re lease
Ġrece ption
ĠI mage
ĠAtl anta
ĠAd vent
footnotes ize
Ġloc ality
im it
Ġcent ers
ĠI O
at ivity
14 0
Ġpercent age
ĠL O
ĠF al
Ġn ortheast
ĠB oys
Ġgener a
ĠAl ban
function s
E CT
e lection
Ġmodel ing
M atch
ol y
Ġuns igned
ĠS af
ĠB ush
w ave
R ussian
Ġperm ut
ĠMor gan
ĠL ear
> .
iver pool
is ations
ins ula
Ġprec ise
Ġb reed
Ġtop ic
Ġsh ut
L R
ĠPubl ishing
Ġassoci ate
Ġident ification
ĠE rror
Ġpan els
rack et
Ġfeed back
ĠSe attle
Ġconv ersion
C y
ĠS aturday
ual ity
ado op
Pro duction
ic i
Ġcolon ial
Ġcoll ision
ĠJos Ã©
Ġval ley
Ġvict ims
F ran
$. }
Ġdiv isions
Ġmed icine
Ġne ither
00 1
Ġpre v
ming ham
sc reen
Ġt ank
Ġrem ote
att ribute
B er
ĠH ind
Ġw aters
c ustom
Ġass ault
Ġran king
Ġrespons ibility
ch anged
Ġc rown
Ġmet all
Ġca ught
Ġinvestig ated
Ġw arm
Ġcred it
Ġrestrict ion
Ġarrang ed
ĠMarg aret
l ass
Ġexhib it
am an
al ia
ar ithm
ĠAd ams
ib ration
A ugust
ymmet ric
ĠK ings
ĠS P
g ather
ĠC rown
Ã¨ re
et he
Å ¾
pro file
Ġconj ug
ph ase
over y
Ġd ies
Ġsignific ance
ĠF ight
188 8
ĠN eb
Ġstrict ly
Ġmin ing
Ġdist ances
Ġstrateg ies
w ords
ĠRuss ell
Ġ( *
Ġad vers
ĠM icrosoft
key s
ĠMa ur
um ps
f ast
Ġv irt
}{ {\
ĠA M
ok a
Class es
> ();
Ġsup posed
Ġelect ro
g ow
var rho
over ty
Ġrequire ment
Ġsche mes
Ġcour ses
ol ia
Ġcomp ens
Ġb ed
ĠL ib
Ġfac ilit
ĠC leveland
text up
ph an
*} [
h ave
Ġk id
ĠC arn
b ach
By tes
ĠR io
ĠĠĠĠĠĠĠĠĠĠĠĠĠĠĠĠ ĠĠĠĠĠĠ
her ical
m f
erv oir
ĠS O
ĠSt art
ob a
Ġpres ents
Ġshoot ing
ine a
Sh ort
Ġpass engers
Polit ical
n one
or ient
ĠBe at
}$ \
il k
w ill
ir cles
Ġstat ements
hip s
Ġsol ving
Ġcol span
ĠJ un
Ġdesign er
ĠCh ampion
Ġd ialog
Ġabs orption
ill o
Ġdef initions
ed u
Ġd ial
Ġc oun
Ġa u
er ion
Ġcon crete
$\ ,
sy mmet
s eries
Ġdesc end
ĠN E
eg as
Ġnot ably
ĠCh amber
Ġinv ent
1 12
ĠA BC
ĠS N
' ll
rand om
ĠBet ween
import ant
cy cle
ĠM es
Ġsurv ived
ĠHT ML
text normal
ast e
Ġw rest
Ġrest ored
et ry
HT ML
Ġinst ruction
ĠAl gorithm
Ġelect rons
set tings
Ġwith d
as a
ĠK on
a ud
Ġprof iles
Ġlay out
ĠCo oper
Ġpri est
Ġkeep ing
Ġre tained
ĠA P
ĠSh ah
Ġconcern ed
ri ed
I mp
Ġm ob
ĠMountain s
Ġcru cial
Ġex erc
Ġbo ost
isl ature
ĠD NA
Ġ ray
ĠD M
du ces
Ġincreasing ly
T ube
Ġf ired
H R
B oolean
u id
M iss
Ġs we
N T
Ġfranch ise
Ī Ĵ
Ġtem poral
g ment
B P
orn e
D T
ĠAll iance
Ġvol umes
Ġderiv atives
n ia
Ġoccup ation
ĠMet ro
Ġown ership
con nection
ĠHamp shire
F ix
ĠG all
Ġran ges
Ġre vers
Ġde viation
Ġann iversary
Ġsubstant ial
rick et
Ġcompos ers
Ġf old
Ġcol lapse
Ġm ir
lim it
ug s
Ġdis order
ĠDe an
ley ball
Ġadm itted
b oolean
ĠP C
ib ilities
~ (\
## #
requ ency
Ġjourn ey
nol imits
Ġdam aged
ĠPr incess
conn ected
ip ped
Ġre ward
rid ay
ĠOrth odox
pt o
M er
d ig
Å Ħ
AT H
amp s
eb ox
Ġl ib
proto buf
ĠP un
Ġsing ing
) (\
Ġqu as
ĠAust in
Ġc ited
ĠThom pson
S l
ĠB ull
Ġsyn chron
w ig
ĠV enezuel
ĠCom ics
ke ep
sq l
h ai
nab led
Ġstruct ural
Ġscen arios
th a
ĠVol ume
R ender
Ġcont roller
C am
ĠMar ie
Ġacc ret
Ġrecover ed
D I
Ġde pos
Ġcrow d
Direct ory
Ġlat est
ĠMunicip ality
Ġsup pose
c ia
D ebug
fin ite
ĠD ance
ĠKn ight
Ġindependent ly
ĠAg ric
ĠOper a
ly ph
ĠJ u
Ġcompat ible
Ġsens itivity
Ġweight ed
Ġrun ner
Ġle af
Ġdepict ed
Ġm oments
ĠNew ton
P ool
ĠRog er
Ġ _{\
ĠPit tsburgh
' _{
i ac
ĠMa ine
ĠN ep
Ġsign s
Ġhapp ened
es is
Ġmod ules
st ory
ĠK an
{ (\
Ġquad ratic
Ġsche dule
ĠG irls
Ġf itting
ĠD ie
ro le
E rr
ro se
Ġsh ares
Ġsy nd
) }.
ĠPol icy
ordin ate
Ġra in
se p
end ment
on ian
Ġim prison
' ))
ĠB lock
Ġcomp la
ran ean
Ġread s
ĠK now
X ml
| $
se a
Ġpre t
Ġsp here
ĠA T
Ġsystem atic
| ^{
Ġabs orb
re hens
Ġst abil
J une
Ġorb ital
Ġval ign
Ġa ux
ĠB ed
P Y
Ġreconst ruct
Ġrail road
Ġh un
ĠPro du
Ġqu ot
el lect
av i
Ġpr on
Ġs in
18 65
ĠCon vention
ro b
ĠA y
Ġm ental
Ġb ra
ex ception
M a
ĠStew art
Ġf iled
ĠL ower
Ġpat ient
ĠT ak
ĠLag rangian
V I
D oc
Ġo s
ho en
Ġres ign
Ġdecre ases
Ġ< =
ĠV AL
Ġdeput y
Ġtem porary
ult an
viron ments
ĠRe port
E st
Ġa cknowled
Ġthan k
Ġt ang
Ġnorth west
Ġrequest ed
erb ai
h al
ĠBru ce
ov o
Ġpaint ers
Ġdomain s
ist ing
ĠU E
Ġexper iences
De lete
ra ble
th rough
ĠO d
Ġro oms
` .
ort on
Ġte en
rins ic
ĠAr g
ĠN i
Ġelement ary
Ġb oys
A pi
k ee
ta ke
han ced
Ġform ulation
ĠBalt imore
M eta
ĠG ulf
ĠV ik
ĠW right
Ġv ic
)-- (
at en
ĉĉĉ Ċ
Ġpres erved
Ġmar ine
Ġp uls
g rade
ĠM agn
ĠT s
Ġpubl ishing
f ront
Ġat omic
ific ial
ĠG ran
ir ates
Ġdec isions
let ion
ug ment
Ġmy th
Ġd ict
Ġrec ur
b ed
Ġuncertaint ies
Ġag encies
ang ing
par allel
\| _
ĠG R
ĠUp per
ĠL ap
og y
o ks
Ġm ine
Ġpoint ed
188 7
ĠF unction
ĠO ri
ibr aries
oun ced
Ġs elling
ĠBrother s
Dis play
ĠCont in
ĠE ver
ĠSen ator
ĠMarsh all
Ġgu ide
H y
188 6
Ġ elli
ĠH it
ĠInd ex
ar us
Desc riptor
ĠCur rent
P arser
Ġprison ers
Ġ\ |\
Ġf rames
Ġdef ensive
Ġw a
ĠS ac
Ġconsider able
Ġstre ets
ort ion
ĠChe m
Ġb anks
N etwork
Ġjud ges
Af ric
ĠG ray
s ample
Ġcour ts
rom agnetic
ĠS in
ura ble
erv ing
M F
Ġst yles
1 14
L ater
Ġbelong ing
Ġathlet es
Ġreg iment
ĠC atal
ĠCamp bell
Ar gs
ĠN elson
ĠChrist opher
im ir
ĠCh art
ĠColon el
m ag
ĠDe ep
Ġn aturally
erm in
Ġph one
ĠDak ota
o es
u able
Ġex it
m el
Ġplatform s
ĠJ SON
m iral
pro fit
Ġpopular ity
Ġrecomm ended
$ ^{
A pril
roll ing
ĠR ain
Ġstrong er
ĠCon stant
Ġround s
Ġhead s
Ġconn ecting
hib ition
Ġ ri
w right
le ans
="../../ ../
M ember
Ġresident ial
ia h
Ġent ering
Ġcounter part
left arrow
ĠT rade
ov iÄĩ
ĠM aj
O pt
Ġpolynomial s
pos itory
spec ific
ial s
$ ^
backs lash
n etwork
Sh ow
form ed
b ishop
ce il
ET H
ĠF ive
ĠH ell
Ġcontinu um
ĠD aily
Ġexpect ation
Ġtrans itions
Ġconv olution
ĠPro t
D iv
mar ks
Or gan
ĠCar ter
ĠMor ris
ĠR ural
T ER
S pe
ĠN ic
Ġatt orney
b d
Ġm al
Ġca ref
1 13
ĠL ane
Ġbas eline
ĠGl as
st ates
A uth
Ġhom ogeneous
se lected
ĠT ask
ed itor
let t
Ġven ues
Ġdens ities
Ġmet ers
b ow
Ġdebut ed
al ph
ĠTh ough
tag on
k ern
FA ULT
dist ance
EC K
p ubl
Ġg ather
ĠE U
stack rel
Ġcritic ized
small skip
Ġb its
Ġactiv ist
d ers
Ġre aches
og s
f r
sh aped
Ġorth ogonal
w orks
v c
Ġh alo
aval ry
} "
P al
is hers
i op
Ġstraight forward
Ġw arn
ĠYear s
Ġm it
le e
ĠO blast
p air
ou ver
Ġman ip
Ġe yes
id get
ins ert
Ġexplan ation
Ġdeb ate
b lem
Style ID
Ġdistingu ish
w rap
init ial
Ġgreat ly
n m
Ġatt ributed
Ġn aval
rec ated
Ġg ang
ĠF ull
Ġhapp en
ĠRob inson
c are
ĠS S
lim inary
ĠE mer
ĠC ass
b one
int s
Ġb id
ĠT rib
Ġanaly tic
Ġform ul
18 50
ev a
k ar
list ed
os ed
p adding
Ġmanufact uring
Ġsu it
Ġre cept
St and
Ġme ets
Ġoffer ing
10 2
ĠN ord
Ġfrag ment
ĠL iverpool
ane ous
as et
ĠEconom ic
h adoop
ĠLank a
Ġp itch
Ġh ill
ĠC R
ĠPat ri
h n
ĠU pon
Ġvalid ation
Ex ample
o om
IT Y
Ġoff ensive
Ġdistingu ished
ĠAuthor ity
ĠÐ ¿
ĠStan ley
Ġlog ic
Ġevery one
ĠA ud
Ġdiff usion
foot er
Ġpot entially
Ġ{ $\
ens ing
Ġen v
ĠD allas
j amin
18 61
ĠKar l
Ġspe aking
rag ment
Ġcompar able
Ġinst ruct
C ustom
Ġres id
Ġep och
ĠC it
Ġ ).
l b
ĠRef orm
co in
Ġdraw ing
)} (\
ĠB omb
ic ons
ĠH end
Ġcirc ular
Ðµ Ð½
C ref
P erm
188 4
um ar
ag ger
Ġcons ervative
18 64
p in
ĠR an
ĠG ill
ĠU RL
m und
Ġprov incial
e enth
Se ptember
ip her
ĠGra ham
Ġirre ducible
ĠS E
11 1
Ġst ood
or o
Ġmark ets
block List
ĠC el
hel p
ĠR ight
apt ist
i ere
S ION
ĠK it
ina e
ĠFrank lin
] ^
ĠP refecture
Ġres idual
ut able
J uly
ĠBern ard
umb ent
el ian
Ġj uris
Sum mary
Ġd ip
Ġacc um
Ġb atch
ĠA mazon
}^ +
Ġr ivers
Ġland scape
me an
Ġkn ock
AN T
Ġredu cing
Ġrac ial
Ġm ig
cent ral
St orage
Ġw ants
Ġdiagram s
Ġd uties
ĠC rit
R ect
ĠL l
O ctober
Ġcon sole
sing le
ĠSar ah
ail s
Ġmultip lic
ĠBrook lyn
Ġm o
ĠA rena
orks hire
Ġd ating
Ġtrans verse
Ġsimilar ity
Ġdis contin
)) )
Pro fess
Ñģ ÑĤ
Ġreason able
iter ranean
Ġc ards
gra v
mar ine
J ob
-- >
ĠOrgan ization
ĠC ond
Ġsuccess or
Ġt ied
iem ann
ud den
ip er
Ġconf irm
ast s
Ġcom ed
Ġs outheast
. $$
Ġsk in
ĠMov ement
D ialog
Ġn a
child ren
St r
Ġthan ks
} /\
b c
ĠF ood
1 17
Ġc la
Ġcred ited
usal em
Ġfinal s
Ġrestaur ant
b ootstrap
g ue
Ġte achers
ĠC le
Ġmem orial
ĠU lt
Ġstar red
ĠCent ury
ĠCar ib
Ġr u
* \
her ic
Ġneut ron
Ġent ang
ĠJud ge
Ġspe ak
Ġh al
ĠDef ence
Ġelimin ated
P rim
ter ior
188 1
ĠAthlet ic
. [
Ge orge
Ġseg ments
Rober t
Î ¿
ĠY an
red it
By te
iv an
th an
per t
Field s
Ġcan cel
Ġconcern ing
ĠBir mingham
Ġas k
Ġcho ices
iz ontal
Ġtun nel
&= &\
Ġm sg
ab out
Ġmechanism s
F ull
ĠS ax
Ġmov ements
Ġanim ation
Ġkn ew
ã Ģ
c am
ul u
Ġf iber
Ġl it
un ing
P ackage
Ġrequest s
Ġcritic ism
& &\
Ġse es
b its
t own
Ġpaint ed
Ġextract ed
}. }
un ately
ĠR ico
ĠM ong
Ġcompet itive
ĠPro cess
$ '
$\ \
S n
Ġrandom ly
$ /
ĠM ol
Ġpix el
Ġb rig
ĠMur ray
Ġdisc ip
10 4
Ġdef ining
SE T
et ary
Ġf ruit
ĠSe ason
Ġhel ps
ĠW ing
Ge V
ĠPri or
ĠT ournament
Ġposter ior
ĠW oman
[ $
Ġappe al
ĠLeb an
Ġj unction
Ġher itage
Dem ographics
m ay
Ġe lem
Sy mbol
ant i
Ġorgan isation
ir s
Ġcomp rehens
. :
M ag
Ġinv alid
Ġdisp ersion
Ġm outh
Ġfem in
Ġsouth west
ĠF ather
R oute
Ġjournal ists
Ġterm inal
ĠNorm an
is ode
l ater
ĠU ser
ĠCap ital
ĠRet riev
It ems
Ġf est
ĠP ay
Ġc ous
ter y
Ġhead ed
Ġbut ton
r n
um ing
Ġun success
188 2
z one
ĠSchool s
E nabled
ĠL ithuan
Ġrob ot
Ġint ent
Ġhelp ing
E lect
Ġv ul
ĠFI FA
ĠB asketball
ĠWeb site
Ġwhe el
t ar
J ew
A rm
Ġmechan ical
ock er
sc ious
id o
down arrow
Ġembedd ed
K n
in variant
Ġrece iver
Act ive
Ġdiscuss ions
L ab
ĠE dd
ĠCor ollary
ĠNaz i
Ġun iqu
Ġg ran
ĠR est
Ġdefe ating
_{ +
R est
ath y
it ime
Ġsim ulated
Ġhabit at
Ġrecover y
Ġproper ly
` ,
Ġg rass
X T
id ay
ost ic
Ġre verse
Ñ ĩ
G r
ĠA N
mult line
m ate
Ġs lope
Ġm ile
' d
ĠD ub
ĠP ut
ĠCons ervative
f iction
h ill
h us
U ID
ro v
ĠGu y
th ree
ĠPr incip
ĠY ang
] :
Ġord inary
ĠL P
Ġde leg
G reen
ĠPort land
Ġdiv or
Ġre nt
ON E
Ġhapp ens
ĠS tage
Ġmorph ism
Ġd ream
f ol
18 63
Ġ-- -
Ġreve als
ĠA S
18 62
up arrow
1 16
Ġn ations
pro pto
Ġtraject ory
writ ers
Al umni
rupt ed
Ġhol es
ĠR ud
ĠP i
Al bums
depend ency
nt il
Ġdivers e
Ġw ounded
ĠCat hedral
item s
ĠMad rid
C B
s b
? "
Ġcomm une
Ġap plies
Ġnewsp apers
ĠJim my
ro ve
ĠBroad way
ĠAthlet ics
ĠCarl os
Ġ\ [
Ġad min
Ġbusiness man
Ġhard ware
Ġhe ter
; <
Ġgrow s
Sp anish
Ġqual ifying
des ign
ĠS occer
ĠYou Tube
Ġmer ger
A SS
ĠZ e
! "
ne ur
ĠH orn
ught ers
Ġf ear
ĠW restling
Ġs now
f are
et on
Ġ' /
ÑĢ Ð°
uch y
Ġcompet ing
mid rule
Ġinterpret ed
per iod
Ġthe ater
Ġv eget
Ġab use
Ġs ight
G O
ri el
ĠT rad
Ġweek ly
Ġprefer red
Ġp refix
Ġreg ression
lot te
f ixed
in line
ĠOr leans
) >
mon th
Europe an
sp in
p he
Ch annel
Ġeven ing
ĠP erson
ĠBelg ian
Ġrele g
k t
ĠC S
ĠA the
p atch
Ġdecl ine
ĠS port
hat tan
Ġmed ieval
erm i
Ġg arden
Test s
Ġ\ {\
ĠW ang
ĠT ab
J anuary
anc el
Ġsmall est
ĠSerb ia
ĠE ss
ver age
om ing
vert ed
ĠA qu
bin om
ĠN eg
Ġj son
Ġland ing
c ient
OD O
onym ous
;\ ;
Ġinter vals
Ġpo em
T own
Ġsol ved
ĠPh ot
ev ents
Ġlabel ed
Ġg iant
Que ue
M art
U L
ĠEx p
W R
iz ers
Ġperm ission
ex ports
F lags
ĠY orkshire
if le
aw ay
ide an
Ġlik elihood
Ġprincip les
n an
ĠR AF
188 3
ĠB aker
hol m
if ting
_ ->
y ll
anc ouver
Ġc ot
=\ {
put ed
Ð¾Ð ²
Aut o
m aker
Ġs leep
op les
Ġil legal
Ġro se
th read
Ġnav igation
Ġmathemat ical
Ġguitar ist
Don ald
ĠS mall
á º
Ġaver aged
ĠI van
f ish
or ous
De cl
Ġpublic ly
Ġin ference
ĠFinn ish
onom ous
Ġw ish
ĠB illy
Ġopport unities
Ġcr ash
ĠJ e
Ġcons umption
F ore
C ity
s ome
EN D
cast le
en berg
ĠN ad
pre c
b us
est one
Ġrec ru
d ensity
Ġsub space
ĠT ob
Ġvess els
m ill
ov ing
ĠL ud
ur ers
R ob
S cope
Ġwrit es
Ġcoast al
c ounter
ĠV ic
Ġsepar ately
ĠG az
ĠM ack
Ġanal ys
com es
ot an
Ġwor st
ĠF alse
op al
oth y
Ġreson ance
Ġoper ational
} >
et ition
Ġp ray
ĠĠ čĊ
Ġb inding
Ġemer gency
annot ation
P AR
Ġb ars
iv ia
ĠR u
B en
K e
Ġacc ord
" `
ĠU V
ĠB enn
ro ck
Ġen vironments
Ġcom plicated
Ġw at
Ġwith draw
Ġnomin ation
Ġf ictional
Ġparticip ation
Ġsw it
Ġchild hood
og a
art icle
Ġtop ics
ĠSystem s
=" /
}) ^{
Ġrepresent atives
ĠPrad esh
Ġmag azines
ĠTro phy
ric ane
pan ic
Rec ip
s ys
Ġelect oral
ens ively
r aska
Ġreal ized
Ob j
ĠEv ans
appro xim
ĠJ ason
c ussion
In ternal
Ġconcept s
ĠR and
ak u
__ (
en ia
S ervices
f our
CT ION
Ġv oting
Cl ick
Ġc raft
Ġneigh b
Ġcelebr ated
Ġanaly ze
et o
ĠY ugoslav
id ad
Ġcl imb
ĠV I
ling ton
hent ication
ut ed
De cember
V P
ĠF uture
is ons
Ġplas ma
ĠN ation
m ock
Ġbu y
Ġsign ing
ro d
Ġart istic
Ġass ets
ann on
Person nel
Ġp ole
Ġp overty
ul um
Ġt ie
Ġst ruck
r us
ty ped
Ġtown ship
Ġamount s
Ġforest s
T F
\ },
187 8
E ast
Le ague
ĠJer usalem
th ick
Ġf ul
em ale
ĠAp ple
Ġal gebras
Ġcent ered
ĠC opy
ub le
ham mad
Ġtransform ations
tx t
M ass
ik o
ĠCar lo
ĠS yn
Ġb rick
ab i
Ġpeak ed
ij ing
Ġaff airs
Ġinter pol
Ġb ases
Ġfac es
Ġo verse
ens on
ak ia
cl idean
ĠS hip
Ġa ugment
com plex
Ġso il
y stem
Ġcompar ing
âĢĿ .
Ġac oustic
t ensor
Ġal coh
uns igned
v ideo
Ġsurround ed
ĠBl ues
Ġcustom ers
ĠT u
ĠA ld
P rior
h arm
ĠB ible
ĠB ud
ĠP rom
ap shot
, ...,
vious ly
Ð ·
N amed
Ġb on
ĠNig eria
Nov ember
Ġperform s
ĠS ite
Ġden ied
Ġapplic able
Ġda ughters
ĠMot or
ad min
ĠL GBT
Ġassign ment
Acc ount
\ }.
Ġemp irical
ativ istic
ĠRef er
ĠLim ited
Ġexpos ure
Ġd t
Ġany one
Con f
ĠB eck
Ġprov ision
cm d
Ġrom antic
ĠPro test
ct rine
ag on
Ġviol in
M ock
L ock
er as
ĠH um
3 60
ra pped
ĠChall enge
Ġp ian
table block
Ġm aintenance
Ġhundred s
r b
ĠL ock
al is
Ġestim ator
t oggle
ĠGlas gow
Ġimp ly
Ġreli ef
ĠTig ers
Ġnorm ally
Ġcondition al
h alf
Sing le
ĠAz erbai
ĠP ictures
ey er
ential s
text sf
ĠNev ada
rist ol
m oment
Ġfind ings
prob lem
TE ST
S chool
Ġg rown
Ġcomm em
Over view
oc y
Ġrec re
S eg
i ations
ĠD J
ellect ual
w p
Ġob st
Ġch amber
H D
aly mp
em ail
ĠPier re
ï ¼
le arning
Ġmiss ions
Ġin duction
call back
Ġex port
duc ational
Ġcoupl es
Ġint ention
th rows
bel ow
Ġchalleng ing
J ECT
sub equations
Ġfe as
st ad
ĠPol y
ĠC ricket
Ġtransport ation
M oths
G lobal
10 3
-> _
Pro position
ĠU SS
ic he
Ġaccess ible
st ery
c pp
Ġim possible
{ .
Ġl ooks
ĠG ary
N or
Ġmunicip alities
im pl
periment al
Ġsh arp
Ġpost ed
Ġstay ed
ĠC NN
athe red
Ed it
uk a
sh adow
Ġenter tainment
F l
) }$.
init ely
st age
ĠC F
Ġconf ront
@ "
Ġdifficult y
Medal ists
m ove
def n
Ġappoint ment
gra duate
ĠP ack
$- $
Ġsurg ery
FI LE
MA X
Ġre tail
187 6
Ġinstance of
ĠThe ater
hoen ix
s yn
Ġhand ler
os ph
Eng ine
Sup er
Ġmon ument
Ġstri p
Ġterrit ories
Ġinflu ential
B ased
Ġl aser
Ġs udden
Un ivers
ĠSt ars
h um
cont roller
iss ues
Ġappro val
Ġim plicit
Ġsem antic
à ¥
Ġc up
Ġimplement s
ymmet ry
}}\ ,
Ġgradu ally
gener ated
Ġb log
h our
ie ge
ĠWar ren
) _{\
t ex
Ġ$ ^{
ĠEd ition
ĠConf eder
Ġatmosp here
ĠV ari
B F
Ġcount ies
Ġking dom
fl at
Ġemploy ment
Ch anged
Al so
Ġcomp lement
Ġsitu ations
inem at
ĠM ak
sim ple
ĠC A
te ction
Ġc ircles
Ġlong est
Ġcolle ges
ĠAl aska
AS E
Ġs ed
ĠAfghan istan
up t
erm ont
il ine
Ġpo ets
Ġferm ion
Pat tern
St ation
ĠBar ry
Ġturn ing
Big g
W eek
18 75
ĠMit chell
Ġd ated
F ree
Ġd ress
ĠT ower
get s
ĠJohn ny
ĠB ranch
Ġbe ar
Ġtr unc
b oth
p read
Ġcount s
J ust
man ager
Ġfail s
Dist ribution
ĠJ azz
ĠN BA
ĠFl ore
f ac
ĠC ultural
Ġsusp ended
re z
Ġgener ators
Fe ature
ĠInd ians
}[ !
u art
', '
Ġst im
Ġs aved
Ġg lu
ĠH ero
og ue
ĠPar ish
] =
Ġoption al
Ġcorrel ations
Ġinter ference
ĠSt orm
Ġfocus es
Ġh tml
Ġpix els
us p
ĠEqu ation
Sec urity
Ġd war
j et
ĠF el
Ġass ass
Ġcorrespond ence
ĠDef ault
Ġrestrict ions
aster y
van ced
ĠD escription
ĠE ug
ĠMil an
and al
Ġsimplic ity
O ld
z ant
Ġcontinu ing
ou bt
Ġg rey
I con
ge on
h ow
ĠDel hi
187 9
ĠHawai i
ĠE ston
Ġrat ios
Ext ension
Tax a
Ġtri angle
m aterial
_{ [
Ġexp ensive
g it
eng ine
ĠCarib bean
L and
}{* }{
ort ex
re pre
an aly
Ġfilm ed
ĠN O
H ome
ĠF r
Ġrele ases
ĠT rack
l ined
18 67
ĠY e
iv odes
ĠElect ric
Ġv ast
d ated
ĠH ad
ĠDef inition
Ġtri ple
Ġf ee
Ġprint ed
", "
ĠM other
ĠB urg
Th rough
ĠSer ge
Ġinvol vement
}^{ +
F in
qu ir
ĠPolit ical
Mich ael
c z
Ġperson ality
drop down
Ġpseud o
Ġw ides
b olic
Ġmed als
) &
ĠH old
par a
ke ley
as m
ud son
big cup
st s
Ġhistor ians
ĠT HE
IC E
Ġinstrument al
J SON
Ġs ending
ĠF riday
ĠAtt orney
es cope
Ġpass age
Ġstation ary
Ġex posed
Ġ{ {
d p
_ ,
Ġtext s
os c
Ġchampionship s
Ġout come
oped ia
ar ial
Ġimpro vements
Reg ister
as p
ĠMic hel
ĠAss istant
F lora
ĠI an
Ġsp oken
ar on
B ecause
Ġhoriz on
Ġcontrovers y
S N
ĠA ccess
l g
ĠRoman ian
t re
Ġfla gs
ĠB achelor
\ [\
AR Y
ĠMatthe w
Ġpeak s
ĠG un
Ġflow ers
m aking
Ġh osp
187 1
Ġarrang ement
Ġsh aring
Ġ\ }
tr ivial
de ep
ĠChar lie
ĠWay ne
u its
int ro
' =
S end
Ġut ility
Ġgen re
p mb
ĠP ra
Ġdef ence
P M
h aus
ĠStud io
Ġinteg ers
Ġtri als
Ġexcell ent
3 50
B ook
Ġsu icide
Ġdecl ined
Ġv erb
ĠSal v
b etween
Ġfrequ ent
Ġg one
ĠI ce
Ġelect rical
P y
Ġcommunic ations
Ã Ł
D an
Re al
ĠF ine
T ur
Ġdrug s
Ġcom pl
}} ,\
Ġdest ination
ĠH ilbert
Ġvis itors
Ġtrad ing
9 00
ĠT R
Ġsubs idi
Hon ours
Ġmix ture
P ORT
ĠF alls
ick ing
Ġres emb
Pro file
ĠA C
ĠOn line
Ġins urance
10 7
Ġportray ed
Time out
^+ $
Ġpubl isher
S al
que ue
ĠL ad
Ġm eta
Ġsuper ior
G old
om on
ĠAlber ta
Ġcre ates
ĠNov a
Ġphot ons
Ġre putation
ĠDer by
ĠN icol
ĠGu inea
Ġc ounc
Ġ ur
ĠS I
ĠR acing
ĠPer u
C ategory
Ġw el
Ġp sy
ivodes hip
Ġne uro
Ġinst ant
Ġexist ed
ac o
ĠP A
\ }_{
ĠAp pe
ĠAnd y
ĠB orough
Ġf urn
ĠMark et
Ġon going
au ra
ĠP il
ĠE mb
ish ment
Ġque ue
Ap J
A z
j u
ops is
B ound
187 7
_{ -\
10 6
Ġsp r
ar r
ĠM eg
Ġdecre asing
ĠN ode
Ġmov ies
ĠD ocument
an ne
Ġconv icted
Ġl ose
g ood
ĠT ol
cc a
Ġd owntown
assert Equals
Ġphenomen on
ch arge
i u
ĠE lementary
Ġcollect ive
qu er
ĠI ss
Ġne ur
Ġspl itting
Ġt ables
p us
ĠĠĠĠĠĠĠĠĠĠĠĠĠĠĠĠ ĠĠĠĠĠĠĠĠĠĠĠĠĠ
int ers
ĠClass ic
Ġang les
ĠZ one
Ġel der
ĠMan hattan
h ome
ĠF ro
187 4
part icle
hem atic
Se ason
ab a
Ġo x
ĠG iants
A lex
W idget
v ect
Mem ory
18 68
Ġ( [
m ac
N OT
Ġhor ror
ĠF itz
Ġparliament ary
Th omas
" /
ĠLe ad
Ġ ~\
ir k
ich i
ent e
Ġgeneral ization
Ġexped ition
Ġsum m
Disc ography
u ity
ĠA ND
//////////////// ////////////////
Ġvess el
Ġsound track
SI ZE
z es
ĠRes ults
ĠHin du
ig ate
Ġch rom
ĠCol lins
il ty
ĠB ron
ĠEgypt ian
ĠBar bara
Ġshe l
cor respond
k ens
r f
ĠW a
ĠF ab
D ay
H en
our t
au er
Ġpresent ation
Ġmin i
F loat
f ony
Window s
ac re
s un
Ġwhe never
Ġsurv iving
ut er
Ġmarg inal
L ou
T otal
Des pite
ĠP av
ge x
Ġbuild er
ĠCh ap
st ers
Ġat om
ort ed
Academ ic
born e
inst all
Ġthem es
187 2
Ġconver ges
Ġcon e
Ġn an
ĠJ enn
ĠM ind
ĠPrim ary
Ġresol ve
Ġwood en
ĠC her
}) =\
le in
Ġcr imes
. __
ĠJ osh
Ġsquad ron
ĠO range
Ġunus ual
ra ud
st ats
Ġconsider ation
cel and
Ġsee ing
Ġmountain s
Rad io
Ġf ault
Ġcancell ed
ĠL iga
Ġre venue
ĠV ancouver
Ġrece ives
v y
BU G
ĠFle et
ĠVo ivodeship
Ġe g
Ġdec ide
Ġcircum stances
Ġjav ax
Ġclin ical
Ġ" "
ok er
ĠB O
Ã ¦
ĠÃ ł
ĠU g
bound s
cl uster
ĠGr iff
m ates
}{ }
RO M
ĠRang ers
ail ability
Ġpre gn
Ġpres erve
ĠCh ron
__ __
[ :
Ġdiscrim in
is p
ĠHun ter
Ġvis iting
ĠNeb raska
ĠColomb ia
B i
Ġg ay
ĠSerb ian
ag re
ĠT ree
val ued
spe ed
ĠV as
ĠSong s
Ġart illery
ĠVictor ian
Ġhe ar
leq slant
f g
Ġattract ed
ĠRich mond
ĠL uther
Ġdeploy ed
se par
Ġmon arch
Ġcut s
ĠSte el
Ġpo ems
Ġeas ier
res pect
Stat ement
Ġman age
Ġthreat ened
ov ich
te am
Ġdoub les
Ġinj uries
F ebruary
ut r
Ġf ishing
Ġhe aring
Ġmin isters
Ġannoun ce
sy m
Ġcre ative
ĠG il
Ġpro hib
Ġun like
ĠCommission er
int o
Ġwork er
g overn
Ġcl ients
ab ove
Ġge odes
ĠFace book
Ġslow ly
ĠBen jamin
clus ively
Ġmar ks
Ġswim ming
b es
ĠSaint s
oid s
187 3
i at
Ġsent enced
con tains
Ġdis abled
Ġatta ch
Ġor chestra
P ay
Ġphot ography
Ġran ks
Ġadv ice
Ġspec ify
ĠTra il
Ġr uling
Ġsee king
Ġp atch
Ġph on
In v
Ġmach ines
Ġwides pread
Ġthous and
Ed itor
\, {\
Ġemer ged
ĠAlex and
el ines
Further more
Ġw allet
com ponents
Ġaim ed
sh a
ind ependent
res ize
Ġf its
ign ment
\| ^
Ġcorrect ly
ĠFran ces
ĠJon athan
an cer
) }$,
ig ible
ed it
Ġmarket ing
ag ar
Ġp rices
Ġrequ iring
Ġpred omin
Ġtransform ed
ĠB und
assert Equal
ĠSoft ware
av an
ent i
te enth
ĠJ ama
ĠPark er
Ġarr ive
w he
our g
Ġoccasion ally
Ġ ĉ
Not Null
Ġmole cules
"> &
dep th
18 66
ĠArt illery
Ġlif etime
Ġcosm ological
S am
Ġn g
Ġl ap
{ %
lo ok
Ġis omorphic
cite alt
ĠMed iterranean
Ġaim s
ĠTe le
Ġgradu ating
Ġwh ilst
inc inn
Ġdesc ript
Ġe ighth
12 7
ĠMar s
Ġch iral
F P
Init ial
p u
| _
ĠS even
Ġm atters
ĠV a
Ġinher ited
Ġb ath
Ġb old
ĠK os
ce p
Ġlist en
ĠP ow
Ġdev oted
m ask
}} )$
ĠM ess
ĠB ey
Ġcl ar
Ġmeet ings
ĠProfess ional
Ġresol ved
ĠL iving
ĠAbd ul
Ġpl ots
Ġdec ays
Ġp ipeline
ĠMu hammad
e lected
t ry
Ã¡ s
stand ard
Ġsp herical
ier ra
w inning
sc ar
aut ore
U psilon
D ouble
ĠS eg
sp i
Ġsp oke
Ġsp ending
Ġkin etic
Ġran ging
Ġf oss
Ġm anga
ho le
M ill
ĠW or
Ġexerc ise
ur u
Ġmiss ed
Trans action
Ġwe ar
Ġlocomot ives
R oyal
ace ae
app y
Ġann ually
type of
ĠTurn er
ĠEx ample
Ġcont ents
Ġunit ary
10 8
Ġeigen value
ĠCl inton
Ġa wait
18 40
Ġgovern ments
b x
est im
j k
Ġcontrovers ial
Ġelev en
Ġs ax
Ġconven ient
T ABLE
ĠNever theless
Ġaccret ion
Ob serv
Ġbeaut iful
ĠC ov
Ġfund ed
Ġnot ing
elf are
Ġapparent ly
Ġg ram
to ols
ĠSt ein
S aint
G G
Ġsp arse
ast rop
ĠN ature
Ġpo inter
Ġwait ing
an chor
ĠE li
ident ifier
Ġend emic
Recip ients
v dots
Ġlic ensed
uc lear
Ġalign ment
B r
P ack
Ġremov al
Ġorder ing
Ġam ateur
Ð ¿
incinn ati
re ction
ĠUnivers e
K S
Ġiter ations
Ġprepar ation
D est
pass word
ĠM ix
L iter
10 9
Ġorb its
i ya
Ġt y
Ġvar iants
b est
ĠM ans
Ġcous in
Ġfun ctor
min a
sche ma
O F
build er
Ġd iversity
la ced
Ġsynt hetic
d n
du al
Ġpart ly
ĠG ets
ĠIran ian
ĠSh a
ĠF reedom
Def unct
ĠM all
Ġpropag ation
EX T
ĠY u
ic ht
Ġcomp iled
g ments
O wn
=" ">
os itory
ĠM ake
Ġc av
Ġm m
b oy
Ġext ensions
qu al
g ray
app ly
Char acter
ĠSp irit
id en
h idden
id x
ist ani
Ġadvert ising
Ġse p
ster dam
Ġphil os
at che
ĠCommunic ations
Ġcoupl ings
Ġte ach
ĠMat hemat
Ġcorpor ate
ĠP ant
ĠB ased
ĠK ap
Ġfac ing
ĠP os
Ġp ars
Ġsold ier
ĠP R
Ġrec urs
ĠMin or
Ġm oth
ĠC BS
Ġlog arithm
Ġre lay
Rec all
tr im
Ġinvol ve
er os
Ġlaw yers
Ġtrans mit
min ute
app oint
Ġcele b
ĠV el
Ġlimit ations
ĠG ot
Ġbeh alf
Ġhydro gen
Ġh ip
Ġe mail
á ĥ
ĠM embers
pl ugins
Ġupd ates
oph one
N P
Ġthe at
R ound
Ġdepart ure
Ġpro position
âĢĿ ,
d ashed
Ġactiv ists
B o
ĠD ol
Ġnomin ations
K ing
Big l
B it
") ]
ĠF u
Ġproject ed
Ġto w
ĠSup port
Ġass emb
pl er
oper ator
Ġoutput s
g art
add r
ETH OD
aj a
H M
Ġagric ulture
! [
ag ram
er g
ĠSt ra
Ġlie utenant
ĠUE FA
F iles
Ġg r
ĠH ash
ĠB ristol
Ġcho osing
ĠBe ijing
Ġresc ue
() {
Ġh orses
Wh ite
Ġmathemat ics
sec urity
ĠG reater
Ġaff ine
cel ona
Ġsh orter
18 00
or ia
Ġexpla ins
ex pect
Ġind igenous
Ġw ine
l ican
Ġsup plied
ĠH D
M atrix
ĠS z
Ġgen etic
ĠC ustom
Ġre un
f lags
ĠC ore
Ġdisestab lished
Ġacqu isition
Ġautom atic
E ff
Ġdel ivery
ou ter
Pro xy
ĠAd miral
Ġpartn ers
ĠP ic
ĠS r
Ġhand ling
sw itch
Ġcon gress
Ġad ults
ĠTerrit ory
Ġprot ests
ĠChar lotte
g io
Ġbir d
Ġvac c
Ġarchitect ural
Ġproced ures
/ .
Ġestablish ing
ĠBer g
ĠNich olas
Ġshift ed
we ak
Ġthere by
Ġful fill
ĠHar rison
ĠCub a
Ġp ref
Ġfew er
lect ic
Ġsym pt
ĠR iemann
ĠAl bum
, '
T om
Ġas c
Ġh a
Ġclos ing
M o
Ġw ider
Ġf unc
ĠO ption
b rew
Ġlast ed
ĠTr inity
ĠF light
ĠV egas
Ġill ness
Ġs essions
n p
us k
ĠĠĠĠĠĠĠĠĠĠĠĠĠĠĠĠ ĠĠĠĠĠĠĠĠĠĠ
w ang
In f
not ation
ĠV lad
count ry
hy per
Char les
Ġsub stitute
Ġstead y
Att ributes
t b
je ctions
xy gen
l ication
Ġrow span
ĠR ank
ĠTw itter
ĠBeng al
18 69
ĠIs a
Jew ish
er ver
Ġre act
Ġpred ecess
Ġcab inet
Ġan chor
S ever
Ġcon fer
Ġan ten
Ġcol laps
vert ex
Ġw arning
Ġintrodu cing
ĠKir k
v et
it ely
EE E
ine e
Afric an
m usic
Ġvar ies
Ġcomprehens ive
s ave
f olk
ĠSh ang
Ġ[ ];
Ġsub mitted
A thlet
uck land
ĠSpe ed
M usical
Ġinf lation
ig m
Ġvot ers
Ġb ag
A x
ĠDi rac
L java
13 5
G allery
âĢ ¢
M or
ra red
Ġamplit udes
Ġbatt les
Ġth irty
Ġ% }
Ð ¹
ent ric
Ġelev ation
C ritical
D ue
Ġtechn ologies
ĠSy ria
Ġf at
}) _{
Ġpick ed
g un
Ġpe er
ĠUr ban
Ġcoll isions
play er
! !
Ġde bt
typed ef
Ġar ise
IN S
ĠH unt
to ol
Ġb ind
Ġearth qu
F unc
fort unately
est on
ix el
Ġen hanced
up per
iz z
In s
E V
Ġspirit ual
am o
p f
ĠS ultan
rict ion
Ġfall ing
Ġo cean
B bb
hel m
Ġper cussion
CO MP
Ġclust ering
Ġaddress es
ĠMun ich
os hi
enn ial
Ġdest ruction
ne e
od ay
Cl uster
i w
T erm
ĠĠĠĠĠĠĠĠĠĠĠĠĠĠĠĠĠĠĠĠĠĠĠĠĠĠĠĠĠĠĠĠ ĠĠĠĠĠĠĠĠĠĠĠ
li x
ĠY am
se q
st ud
Ġreport ing
sc roll
m ir
ij i
S ta
ĠAnd re
em ed
t is
Ġtrack ing
S equ
Ġneg lig
is y
Ġsequ el
Ġcontrad iction
Ġ[ [
Ġadd ressed
Big r
ĠFac ulty
Select or
key word
trans ition
Ġsuff ering
it i
ĠL an
ash a
ĠGh ana
Ġbe ach
Pro duct
not in
ĠDemocr ats
l m
i ors
ed a
Ġcomb ining
Ġact ed
config uration
am pton
Ġst em
Ġw et
Ġl ingu
S il
} ~\
Ġw orship
ĠK un
H ung
Ġgovern ing
k an
tri angle
ĠS earch
ow s
H ol
em pl
Ġreal istic
ra ham
ĠW es
d al
Ġl engths
ĠArab ic
ĠQ CD
h ot
om p
ex cept
Ġguarant ee
ĠĠĠĠĠĠĠĠĠĠĠĠĠĠĠĠ ĠĠĠĠĠĠĠĠĠĠĠĠ
Ġequ als
p ine
Ġfriend ly
ĠUp date
ĠE sp
N L
Ġd rew
amil ies
lement s
ĠB og
ĠVin cent
ĠR ing
T or
Ġadm its
ĠG rey
ab ul
Ġvul ner
Ġarg ue
Ġmar ry
Key s
Ġext ensively
ela ide
ion ed
rate gy
ĠSt re
} &\
Log ger
um ul
ĠPl ant
Ġref lected
bound ed
Ġtra il
ĠSa udi
Pl an
ĠF isher
end a
ĠOb ama
vol ume
Ġd il
ĠG ate
ep he
Ġd y
h ad
ĠAd vis
ĠM D
ĠS id
Ġaux iliary
ĠW arner
Ġremov ing
Ġb ary
Ġc ref
Ġproject ive
Ġrest oration
C V
Ġencourag ed
Com ment
Ġis n
L ive
==== ==
d iction
Ġdis cret
B al
ab e
ĠK r
g iven
clip se
X ML
Ġinn ings
Ġunder ground
Ġyoung est
Ġdon ated
ĠM ust
() ));
En um
S QL
ĠL ay
Ġrep air
ĠJ a
& $
F IG
Ġmon ot
Ġabund ance
ĠS pect
ĠN BC
n il
u ke
18 48
Cl ose
ĠComm ons
et ta
ĠMark ov
. ),
ĠB ass
Ġcrit erion
ĠBuff alo
Ġcon formal
Ġsynt hes
$ }}
Govern ment
Ġtransp arent
VER SION
ĠCan al
Ġn urs
Ġext ending
sequ ence
ain s
Ġdem olished
' $.
ĠB ert
Ġpl otted
Ġprob abilities
ĠEn cycl
b rief
d ays
St ud
Sim ple
ĠD est
Ġamong st
s outh
Con struct
( !
ho ok
Com pan
Ġaggreg ate
Ġp ulse
ang les
Profess ional
Gener ic
Y P
d ing
ĠMuslim s
set s
Ġbi ological
an alysis
amp a
ĠUn like
Ġsup plies
ĠL ink
it ure
f ail
Ġmod ify
ĠC ot
ĠH ope
ĠB ris
ĠCirc uit
by tes
own er
Ġhon our
Ġinc idents
ĠOver all
ĠC ob
oth ic
h aw
erv ised
ĠOrig inal
th y
ass y
ĠLear ning
ook ie
b ie
ĠPer formance
Ġafter wards
ĠMean while
Ġinter cept
Ġw restling
ia o
ĠP ont
cc c
ĠAnt ar
b ane
Ġb attery
Ġg ard
u ct
l iga
ĠAd v
ĠCh a
ĠT ib
Ġobtain ing
ĠEx change
Ġab road
ix on
Scott ish
t mp
Ġcy cles
Ġwas n
Play er
nt z
Ġcontribut ing
ĠT erm
Ġex clusively
ĠJ oy
Ġtransl ate
ĠOl iver
ac count
ĠPhys ics
ĠMach ine
ĠH em
ĠB aptist
Const raint
writ ing
Const ants
Ġover lap
Ĩ Ĵ
ĠEq s
Ġg allery
ow ed
Ġim posed
C la
ro ph
ĠTreat y
O W
Ġto ler
Ġt ribe
Ġt ur
i ot
ĠR ange
ĠD ays
Ä Ł
) |\
Ġreg ulations
Pro to
ig s
ĠG round
Ġf usion
185 9
prim ary
ren ew
J ava
M sg
C ert
M ale
ph al
cur s
T IME
Ġclaim ing
A uthor
Ġg olf
Ġspect rosc
Ġse ar
ĠL ions
ar as
ber ry
Ġre ly
Col lections
Ġr g
ĠSing les
Ġanalog ous
Ï Ħ
. *
Ġde vi
Ġc ash
comm unic
Ġsupport ers
NavBar Cell
ref n
Ident ifier
U D
Ġharm onic
Lay er
ĠUnivers al
ĠLl oyd
Load er
ĠLiter ature
const ant
Ġstrugg le
Ġchar ter
Ġexpl ored
Ġpay ment
Ġmount ed
Des ign
ĠD raft
Ġpres c
Ġc os
B ro
Ġtravel ed
Ġsil ent
Ġenc oded
ĠSym phony
ed ed
fe ature
hand ler
ĠBer keley
pol y
iter ator
| _{\
Ġb orders
c est
Ġc inema
185 7
ĠP hoenix
ĠArmen ian
Ġdise ases
en cer
build ing
Ġturb ul
P ower
ic ing
Ġfam ili
Ġelse where
ĠCh ange
en os
ĠL eft
ĠPro file
H F
Ġoccas ions
Ġrad ical
Th ree
Ġsubset s
I refn
L y
On ce
Ġsub div
Ġplan ets
H A
ĠB uch
)) );
Ġsh ore
ĠCh and
Pan el
ann i
ch arg
Ġ( ).
sup p
Ġdifficult ies
ĠI F
ĠMov ie
ĠRetriev ed
Ġpriv acy
ell ion
S V
Ġpro xy
Ġh at
Ġc able
al am
Ġart ificial
Ġinf antry
Ġchain s
ĠH av
Ġprep are
Sw ed
ĠStud y
2 20
ig o
Ġweap on
Ġcool ing
Ġreported ly
c od
alax y
Ġref lection
Ġhon ors
av ior
() ).
arri ors
Ġco oper
Ġleg s
Film ography
Ġven ue
it is
ĠS ad
Ã¶ r
Ġdiss ip
Ġ ×
Ġdeterm ines
ĠHer z
ĠF ermi
ard ed
Ġsm art
y y
Ġwavel ength
P ers
Ġstat ue
}) )
Ġconsist ency
ĠLu is
j or
d z
Ġbreak s
Ġlook ed
ĠF err
requ ired
ĠPro p
Ġmer chant
B N
ĠCost a
Q ual
Pl ugin
ĠM ason
ĠC lay
ç ļ
Ġs ensor
ĠS ay
Ġpla in
Bra zil
Ġr ising
Ġvol tage
SC R
Ġsettlement s
d k
' }\
Ġcons umer
mult ip
Ġtraject ories
ĠJer ry
ĠChrist ians
Ġbroadcast ing
n ed
tr igger
ĠRepresent ative
ĠArt ist
ancell or
sol id
ĠIndust ry
O ST
Cl oud
ĠM ig
Ġcom ics
ik ip
Ġbeg un
t z
ĠCon fig
Ġadv oc
char acter
ĠL ate
Ġscient ist
ĠBy zant
ĠPo isson
ĠB it
Ġgener ates
ĠT on
o ons
Ġcov ariance
Ġen ables
ĠH amb
ĠL is
Ġcred its
Ġint rinsic
ST M
Ġelectric ity
Ġ å
ĠR idge
Ġout break
var i
ĠSh aw
ĠC ad
Ġmet adata
ĠMor oc
Ġnormal ization
Ġl oyal
Ġw ings
D etails
Ġc arrier
Î ¹
lace ment
prot ected
ĠCom puter
++ ;
ĠCl oud
qu ote
1 18
ha ust
ĠIn v
ĠC rim
ĠAm sterdam
_ (
ar an
Ġ urg
= -\
ĠM oz
ĠE ff
per ature
Ġprov ider
Ġsub section
En umer
Ġjourn als
print f
ĠIO Exception
Ġthink ing
Ġmeas uring
Ġdis joint
Football ers
Ġdes ire
Ġb io
iv ic
ath on
c ost
we ek
ĠAn alysis
Ġstrateg ic
Ġfest ivals
33 33
Ġc ul
M ad
f x
ĠCroat ia
f ar
ĠPr ivate
Ġin g
in her
Act ivity
he rence
Ġtrib es
Ġminor ity
Child ren
ĠEx pl
Ġag es
Ad apter
b n
ĠCh apter
Ġre plic
Ġdisplay s
ĠSpring s
id ency
Ġprob e
Ġren ormal
em in
ĠH ann
Ġun ity
Ġweek end
} <
Ġan isot
U V
Ġtem por
Pr int
' ',
C ho
Ġcas ual
Ġval uable
Ġdist urb
By Id
Ġco ins
Ġanaly tical
ograp hers
ta wa
c ule
ĠAb bey
ĠForm ula
Ġperturb ations
ĠN y
uss ia
Ġreve al
L M
il ia
ist ogram
En vironment
ĠWith in
Pro gram
ĠI celand
' )$
Reg ion
Ġrespons es
E conom
ĠPhilipp ine
Ġimp ress
ĠD ra
Ġs ke
L ight
ens en
ush ing
UT F
I X
r ise
Com parison
Ġcol ony
ip per
. }\
Ġman ifest
b ast
t ons
CH ECK
Rich ard
Ġexc ited
c ov
ĠTer ry
pro ps
ir th
Ġclos est
E very
Ġcoach ing
ĠVenezuel a
end ers
Element s
ĠEu clidean
ear ing
F E
Ġ$\ |
Ġposs ession
t ically
um my
ĠP sych
e or
Ġinit iated
Ġexpand ing
ĠD ictionary
sub stack
r h
Ġas ks
Ġparam et
Ġart ifact
Ġinn ov
Ch inese
am er
Ġimm igrants
Ġleg acy
ĠB ath
group s
res et
Ġdeal ing
S W
ĠS ah
ĠHe avy
Ġdocument ation
| =
N ULL
ĠSocial ist
us ers
Ġf ighter
be h
ĠP le
Ġup grad
is i
Ġb ridges
ett i
S i
ĠR oll
ad ic
Ġres ort
Ġexpl oration
Ġr is
in cre
Ġan ime
S Y
Ġex clusive
Ġapp rec
Ġenjoy ed
p aper
un ique
ĠA uckland
T our
Ġre ject
ĠOper ations
Ġf led
Ġch a
g ot
ĠG C
ĠM asters
Ġevol ved
ĠTh or
over e
Ġsp end
apt ers
ĠÐ ²
equ ival
Ġmart ial
ĠAl tern
qu arter
ĠT as
)= (
tra ce
ĠWith out
re ck
ĠHer bert
ĠAthe ns
B oth
Ġsurv ive
ĠDi ocese
Ġcomplet ing
ĠP el
Ġillust rate
ĠT ang
Ġent ities
Ġun cle
Ġaltern ate
ĠCra ig
ĠBar celona
P eter
Ġen forcement
Ġw ick
ĠGerm ans
ĠRes ource
ĠD ouble
co q
Ġneighbor ing
Ġem igrants
Ġint ellectual
Ġreli able
ĠBroad casting
ĠL en
Ġp ictures
ĉ čĊ
ĠPh D
IP T
ĠN HL
Ġmuseum s
ĠShe l
ĠC atherine
Ġexpon ent
ĠI da
ĠE instein
Ġt ends
Ġop ponents
ĠTe ch
ĠC old
r v
18 30
Syn tax
Ġfocus ing
Ġprior ity
T er
unc redited
Ġphys ician
Ġcomment ed
um i
ĠPro perty
ĠM ut
Ġacc laim
k u
uch i
ĠGon z
}\ ;
h ide
ĠMan ager
ĠL ost
Ġregard less
man ifold
ikip edia
Ġsh adow
fol io
Ġpat rol
Iter ator
Ġliber al
}} =\
ĠS ett
ĠHol land
. },
\, ,
pl ates
Ġsampl ed
ĠP or
sh all
comp at
^* _
Ġco hom
ĠMac ed
Ġviol ation
Ġcont ested
Ġpack et
Ġorgan ised
ĠT ODO
ul lable
Ġdes ert
str ument
ull ivan
Ġd b
em a
C ard
tab s
Ġten ure
d ue
lement ation
ĠB oolean
Ġconsequ ences
Ġap artment
oid al
Ġcross ed
Ġcarri es
ĠT ogether
ts d
Ġfor cing
ĠEd wards
ĠC u
ĠPer ry
K ar
a ire
un iform
Ġres erved
Ġsc r
f c
. ;
ĠCh i
ĠS ide
L ie
ĠM az
Ġvict im
Ġspe aker
L ike
ĠChristian ity
ĠB lood
Ġun stable
Ġmonitor ing
it ations
Ġev ident
Ġcheck ed
g om
Ġ& $
ĠAzerbai jan
) ">
Ġco operation
Ġbo ats
new line
Ã ī
qu et
ex pr
Ġgu ilty
ĠChe l
f d
Ġphotograph s
Ġrecip ient
cons istent
Ġload ed
olog ically
Ġf ilters
ĠJ ess
per turb
Ġvari eties
S ir
T M
chi at
Ġfact s
ĠAl ger
Ġhel ic
as ant
Ġt act
ĠF un
Ġinflu ences
G rid
Ġprov en
p b
Ġcomb inations
is ch
Ġmut ual
ĠPen insula
ĠAd elaide
ĠCr ime
ĠConst ruction
t ed
for ced
Ġdis sol
Ġassess ment
o j
ins ky
in us
Ġs oph
çļ Ħ
sk a
sh arp
Ġequ ally
f actor
12 1
ĠChar l
Ġplay offs
ĠDrag on
Ġlat ent
Ġmer ge
Ab stract
ĠL ion
ĠM idd
Ġprov es
Ġres p
24 0
Ġtrans it
as hes
Ġg ift
F low
Ġco ok
ĠB rew
Ġvan ishes
Ġpurs ue
ĠCon n
Ġimpro ving
Ġign ored
ĠIndust rial
ĠH ugh
Spec ial
Ġd ot
Ġprom ise
Ġactiv ation
var iable
ĠM end
te chn
Ġorgan isations
A cknowled
ex ternal
ov sky
ĠO pt
Right arrow
at ra
she ll
ĠThe ory
ĠCh air
el o
Î ½
Ġprot otype
ĠH udson
Ġ$ [\
Ġhyper bolic
Ġalcoh ol
ol ition
ĠRob in
Pr ivate
ĠN an
ĠS A
Ġ ip
th row
\ -
Ġste ep
re leased
Ġvol can
ra is
Ġspac etime
S cal
ĠS ource
O B
Ġtal ent
Ġo xygen
Ġview ers
Ġkeyboard s
Ġt ribut
185 8
phys ical
Ġ ],
leg iate
ĠS now
ut f
sect s
ĠD iamond
now ledge
Ġb are
Ġer ected
ĠRog ers
Ġign ore
ĠB ird
ĠF if
Ġt ip
met adata
Ġrel ating
Ġexhib its
the ory
W in
ĠO S
ĠMont ana
ĠPers ian
Ġpro spect
Ġxml ns
B ooks
b ib
Ġt ort
Ġ io
ribut ions
Ġanaly zed
Ġcap s
)} =
@ {}
Ġm u
Ġex ecute
Ġpos it
Ġm ail
Ġb rowser
Ġatt ending
Ġ} {\
ĠBulg aria
e cho
ub a
Ġprem iere
ri en
Ġdelay ed
od ore
u ated
Ã¶ n
Ġbench mark
Ġco herent
R ivers
ach i
en able
Ġcomb ine
J ac
Ġaffili ated
ĠW here
Ġinit iative
ĠT i
ch itz
ĠS Ã£o
Ġr hythm
ĠGl en
bo ost
ext ension
LO G
Ġp ub
Ġ( _
comp are
i ology
ĠA viation
ĠFin ance
Ġout standing
; /
Ġpar ad
ĠA GN
Ġnon zero
C rit
inn ed
Ġm ic
Ġcomp ound
* )
ĠC ole
B ul
Ġr id
ĠGra ce
en burg
eff ect
ingu ished
it arian
Vari able
ĠC row
ĠK ath
tab ility
f eld
Ġim aging
Ġs alt
d etails
ĠPro tection
Ġt ens
ul o
Ġg all
ĠDe ut
Ġ rib
Ġform ations
Mult i
Ġweak ly
ov an
ĠJeff erson
n c
Ġcon jecture
S ER
ring ton
are a
A li
ĠN iger
ĠO ct
W ar
Ġb ott
Ġk it
Ġcoal ition
B D
h m
St ruct
rag ue
it ro
Ġcertain ly
Ġsound s
B egin
ĠM ann
ĠAss ume
Ġtw in
ĠB av
)} _{\
' $,
F ail
atern al
M ENT
Ġche cks
Ġf antasy
Ġcivil ian
Ġfor th
AD D
Ã± a
Ġphot os
d c
ĠC L
ĠD og
Ch arts
tem p
Ġfarm ers
ĠArgent ine
al og
Ġb tn
ĠB orn
Ġpar ks
Ġs oul
Ġ Ñģ
ĠTechn ical
ur as
Death s
ĠW u
P ATH
Ġleg islative
Par se
Ġgu id
Ĥ ¬
B ad
Ġsuper conduct
on ce
bas ic
por ter
ĠKen ya
iss a
em e
pat tern
Ġdu o
Ġhierarch y
L en
Ġqual ify
r if
ĠSh adow
ĠAng lo
ĠBe h
ĠV ermont
clud e
Ġlo ops
Ġinf inity
former ly
Ġpure ly
ĠNAS A
Ġorig ins
Ġch apel
ĠNor folk
ĠL ux
Ġrel ocated
18 55
ta gs
h ref
Ġshe ar
ĠKe ith
En ter
Sim ilarly
sur face
Ġdef ending
um s
Ġre tain
u ador
on ies
B H
}. \
ĠMond ay
Ġmod ification
ĠSpec ifically
Ġdec ides
ĠCont emporary
ĠA x
ĠCon sequently
Ġst retch
Ġinst ructions
185 2
B usiness
ĠTh ose
ĠS ask
Ġres ervoir
D er
Ġsh apes
ĠMar vel
Ġsurv iv
Ġfair ly
Ass ume
renew command
Ġg ray
) |^
Ġed itions
ig ion
Te am
sim ilar
ces ter
ro at
Ġcommand s
Ġmechan ics
ĠDel aware
c rit
d ynamic
get Name
ĠH ob
Ġmat ched
Ġm as
ĠFil ip
R ole
ist ically
Ġinst ability
Ġhom ot
Ġcommand ed
z ig
S ol
ĠCons erv
Ġprote ins
Ġl ibraries
p refix
L aw
ĠC incinnati
Ġcub ic
Ġpe oples
185 4
ĠAng lican
M apping
Ġas ync
Ġent ers
hor izontal
Ġenc oder
\ /
Ġconstruct or
W F
ĠGe or
Lang uage
Ġg host
ic ious
Ġcl ip
ĠBuddh ist
it ual
ch art
add le
ĠPeters burg
o ft
Ġbi ography
el in
ub ern
~ (
Ġmin es
ĠInt elligence
Ġwind s
Ġhom omorphism
á ¹
Ġshe et
ips chitz
e u
Ġspons ored
17 0
Ġrespond ed
Ġre actions
ond a
B s
ut ter
Ġread ers
Vol ume
ĠArt icle
h skip
Ġconst rained
th lete
ĠK ol
Ġdanger ous
ĠHis panic
ĠR at
ĠHor se
Ġre ven
Ġden omin
& -
Ġgrand father
load ed
Ġbelie ves
Ġbl ind
Ġconcert s
in ement
Trans form
ĠC SS
ore l
ĠT oy
j query
Ġam pl
autore f
Ġre q
Ġvis its
Ġexam ine
h is
ai ro
ĠNep al
ĠP ast
4 50
Ġf asc
Ġop acity
Ġ" [
ĠL arry
ĠG ay
J ose
Ġ$ <
ĠF lo
Ġsegment ation
N odes
Â ½
om es
%% %%
Ġcons iders
om i
ĠN GC
V R
ĠStev en
Ġtrans c
Ġquot ient
Ġdeterm ining
r floor
ĠLeg end
ST AT
F ailed
Ġtype of
iz ard
ĠB ond
Ġg ymn
ĠP DF
Ġdem ands
F B
Ġb at
ĠA ctor
ĠW ed
Ġin duces
Ġn eck
ĠA ber
k k
Ġanom al
Ġreb uilt
ĠB our
}\ !
l floor
G s
le ading
ĠMag ic
Ġadmin ister
Ġmoder ate
M ath
O UT
G D
Ġmen u
ĠM ul
ĠDiv is
comp ass
Ã¼ n
it ud
C a
Ġtrad ed
I mm
ĠR av
IN D
Ġsuggest ing
Ġcrick eter
s ig
ĠPun j
ress es
Ġdist inction
S cale
15 00
ĠCru z
pl ant
equ ate
Ġop ponent
Ġsk i
ipp ing
Ġg od
Ġcl othing
hold ers
Ġim perial
B lue
Ġveloc ities
Ġf n
Ġin ternet
Prot ocol
Ġport rait
con ver
Ġmanufact urer
Po inter
sup ervised
ĠPar alymp
Christ ian
Ġinaug ural
d ark
Ġcor related
To String
Ġout per
arg ument
Ġmanag ing
; }
al ks
Ġp ump
ĠG lob
ĠHen ri
Ġn inth
l iter
~~~~ ~~~~
Ġcosm ic
Ġcompos itions
m oz
$ (\
ĠEag les
Ġr ings
en eg
Pro ps
Ġm igration
Play ers
Ġc ogn
ĠG rade
Ġparticip ating
Ġproport ion
ĠQu est
ov en
Ġ{ '
Ġjuris diction
p icker
> :
Ġtourn aments
Ġperm itted
b u
ĠD od
ĠAl ong
art z
Ġexc av
Ġwe aring
ĠRel ations
Ġsubsidi ary
Ġdismiss ed
Ġexper ts
ĠStan ford
om eters
Ġrep orter
Ġrare ly
Ġcontinu ity
el astic
ĠB right
Ġm esh
pl atform
Ġge omet
l ies
Ġpre liminary
27 0
ĠC ou
T x
re pe
Ġchem istry
W AR
Ġm or
lik ely
ĠB lu
ĠEth iop
Ġsuff ices
Ġformul as
Ġmurder ed
185 6
Ġal ert
Ġcross es
Ġ Ø
L ower
grad ient
Ġpost s
ĠP M
Ġengine ers
ar ma
Ġeffect iveness
Ġm emb
ĠI C
å ı
ot ions
fil ename
u in
Ġco ff
Pro gress
ena issance
ict s
ĠG as
Ġev ac
c aster
Ġlab our
Ġfor wards
M OD
deg ree
ĠL ook
Ġqu eries
ĠScient ific
M ont
+ $
pos itions
Ġspecial ized
ass ets
Ġmake up
Ġapp end
cons ider
ĠArch bishop
iv id
Ġel ab
F our
Ġlabor atory
Ġman ual
Ġinstall ation
ond o
Ġ$ $\
im od
Su ccess
P refix
r ust
ĠS ang
ĠCo al
Ġb arrier
v skip
Ġnar rative
Ġ ib
ĠFlore nce
Ġsympt oms
t body
Ġdefend ers
iv o
Ġc argo
Ġkind s
V C
Sche dule
Ġpat ron
ĠHe brew
Ġb anned
ph abet
ĠAut o
Ġpro g
Ġw edding
display math
ĠMunicip al
hand ed
repre neur
nd ef
ĠCamp aign
12 4
au kee
F ac
ĠMad ison
Ġviol ent
Ġover view
F rank
ĠS ak
ĠS ox
ĠG ust
ampl ing
Ġdedu ce
p olicy
ic z
p end
ric ks
Ġcompos ite
ĠBut ler
H ER
imens ion
ater al
d ialog
d irection
Comm unes
Ġtrans actions
B etween
Ġb om
Ġfamili ar
Ġsize of
Ġ" <
ĠLe ader
G rand
Ġpro xim
comp act
Ġt ies
LO CK
ĠA I
h in
ĠDen ver
Ġstream s
ĠR aw
F ar
Ġsla ve
ĠEconom ics
Ġbox es
oc o
Ġreg istration
Ġpal ace
Ġl os
Ġto mb
g on
ĠS ou
Ġce ased
ĠN ak
R a
'] )
Pres ident
ĠS uz
ĠV iol
Ġconduct or
M el
Ġcomp ression
Ġor ange
$ _{\
ac a
Ġtrad itions
Ġline arly
Rem ove
uck et
Ġprov inces
iff s
Ġvar ied
C amp
t ures
Ġthr one
U B
Ġearn ing
im o
ĠW as
ĠFri ends
sh ared
pre v
Ġp ose
Ġref ere
P ER
y ou
und a
ĠS outheast
ĠMur phy
Ġdis pute
osp el
Ġr ide
ĠÅ ł
T reat
ĠP in
ent o
Ġg ross
ri er
um ann
Ġm ouse
Com b
Ġsl ot
dist ribution
ip art
overs et
ĠEl li
ĠR ou
Ġchar ity
Ġmaintain ing
c ert
ff ff
Se lection
Ġo ct
ĠY ale
ĠHar old
D utch
}) -
B ob
Ġsec ured
ĠMoh am
est y
^ +\
Ġall ocation
ry ption
ut ton
Ġcap abilities
ĠW alt
p any
im an
us r
ĠĠĠĠĠĠĠĠĠĠĠĠĠĠĠĠ Ċ
. (\
l r
ĠC ox
Ġth rown
Ġvir us
ran o
Ġtherm od
is an
ĠM essage
Ġwalk ing
S a
ĠS alt
ĠG ilbert
Is rael
ĠU C
Ġdis band
Ġbring s
12 2
ol en
ĠCom b
Ġg ates
ari ate
Sing les
inc eton
Ġrepe at
Ġcustom er
w ild
Ġ\, ,
ie v
7 50
Rep ository
ĠS W
Ġfin itely
ĠÃ ģ
Ġrun ners
Ġe le
Ġacceler ation
m un
ĠWeek ly
ok u
Ġcond em
Ġt ension
ĠDr ive
up lic
Ġsche ma
i est
Ġr ub
ak ov
] ^{
tri ang
Ġb aby
ark ed
Ġfla v
Ġorigin ated
ĠHe in
clos ure
Ġlimit ing
ĠA round
K L
Ġwav ef
ĠL ov
. -
ĠMer c
out heastern
> $
Con ver
ĠLand roid
ĠM Ã©
Ġd elta
Ġexhib ited
ĠFin ancial
." );
K O
head ers
ul ates
Ġconn ects
ĠSus an
P red
Ġd ir
W rapper
ĠP rice
[ ]{
Ġ= ========
Ġneighbour hood
se lection
w rapper
Ġf ir
Ġincor rect
Ġexclud ed
14 4
ĠInd ependence
C red
P resent
Ġcl an
ĠAnt i
ĠS or
ĠTre as
Ġcampaign s
\!\! \!\!
Ä Ļ
Ġattempt ing
Ġsculpt ure
D uration
Ġtr im
Run time
Ġbeaut y
ĠD ennis
err ors
{ [
Ġsqu ares
Ġassist ed
Ġdoll ars
m other
Ġneighb ors
( __
ĠHig her
ĠEd itor
ĠEnvironment al
Ġinform ed
iline ar
ĠB ald
re ens
5 12
sub float
ic us
amp ed
Ġph rase
ĠCong o
Ġ ul
Ġaccom pany
ro e
r ift
Ġt ub
Ġmag ic
ars on
S eries
em p
Ġbe et
ab olic
ĠO il
Ġident ifying
qu is
Ġsur prising
IT E
Ġdrum mer
G ood
ĠS ic
la ces
ĠS oul
t k
log ger
Ġput ting
vel ope
Ġbelong ed
spec ies
me asure
ĠP S
ĠCy cl
A gent
j unit
Ġg al
akes pe
ĠJ oint
Ġv in
Ġt x
ĠO cc
Ġmultip lication
Ġclass ifier
Ġ ^{\
Ġfin ance
g h
Ġwithd rew
18 47
Ġf ro
185 1
Ġde formation
Ġrig id
w aukee
N a
ĠN at
H or
Ġm os
Ġcon greg
Ġscholar ship
I rish
ĠT H
Ġ{ {\
Ġle agues
ĠAb u
h ou
Ġnegot iations
Ġind irect
at omic
ache l
Ġstand ings
Ġto ured
Ġdevelop ments
ĠMe V
Ġfeel ing
f requency
ĠRo om
Ġmir ror
Ġt orn
script scriptstyle
gom ery
= [
ĠD h
uc ks
ryst al
ĠK ra
Ġvol leyball
Ġcontinu ously
ĠHel en
Ġbos on
E val
iv ities
18 49
Ġt ube
ff bb
Sever al
ey l
stit u
ce ive
ill es
m ix
Ġop ens
la re
op ing
Ġtyp ed
ĠS QL
ĠBris bane
ĠSt uart
Ġsus pect
ĠX ML
Ġhapp y
d or
Ġ }$
^- $
Ġal ive
ĠCh ang
= (\
sw ick
Ġall iance
ĠQu arter
Ġth ir
M aster
U SE
Ġprom oting
Ġdeterm ination
Ġplay wright
ĠErn est
Ġpotential s
ĠBob by
Ġrefer ring
ing en
Ġcopy right
Ġinterview s
ĠAr nold
ĠM icro
Ġcon clusions
. <
Ġb ishops
att ributes
ĠLu ke
Ø§ Ù
Ġelli ptic
at um
( --
re lease
ĠG raph
t c
Ġl ens
igh bor
me as
b uilt
, (
L at
cep table
ĠSy l
ĠProtest ant
s per
Ġch ron
* {-
ĠĠĠĠĠĠĠĠĠĠĠĠĠĠĠĠ ĠĠĠĠĠĠĠĠĠĠĠĠĠĠ
ĠV ill
ose x
ĠSch w
t f
Ġadd s
Ġr ated
m atic
et es
ĠFran Ã§
I E
p ull
ĠO wn
ĠW ol
ĠS ep
ĠArab ia
Ġprodu ctions
' }$
ĠSt ill
P H
Tra ce
ĠCopy right
Ġst ops
ĠWat son
st own
) !
LE CT
Ġex haust
ĠTh ai
h istor
Ġintegral s
ĠLat ino
Ġdisestab lish
Ġt um
ĠK ay
Ġ> >
om o
ĠJ ar
c oupl
Ġasympt ot
Ġaff ord
Ġp ushed
ĠLore ntz
Ġfeas ible
O PT
ĠD elta
ar is
ment ioned
Ð° Ð½
F ictional
ĠR ivers
oc ols
U r
Ġm oral
ĠC C
Ġeconom ics
Ġarrang ements
Ġsh ifts
Ġbu ck
$& $
ĠT ake
ch anges
ĠIn s
) )$.
ĠS F
ĠE mm
U LE
ĠPro duction
arch ive
Compan ies
Ġext raction
Ġcontract s
b g
ĠAl lied
el ia
Ġem peror
Ġcryst al
em on
Ġunsuccess ful
Ġhand led
Ġim plied
Ġess ay
Ġt ons
c ity
ĠM ick
Ġsub urb
c lean
Ġfavor ite
ĠNot able
ĠVen ice
ĠP od
M ex
Ġa qu
S ep
ĠProdu ctions
Ġunder ta
f ilm
Ġseem ed
ĠLe o
-------- ----
it ars
Ġwor se
185 3
t racks
miss ions
Ġde emed
ĠOt tawa
F rance
ĠT ax
ĠK rist
ĠDat abase
ans k
am az
ĠI gn
Ġsong writer
Ġmat hematic
, ~
ĠNe il
Ġw ard
L ondon
). }
Ġcard inal
ĠA B
}_{ (
ĠInt eg
ĠGuard ian
ĠLe eds
D ig
h ig
Ġj ury
Ġhonor ary
Ġmanufact urers
l ive
Ġgener ality
Ġformal ism
AL SE
Ġf raud
}= (
ĠArch ive
Ġcons ensus
ĠM ik
Ġtreat y
Names pace
ĠRem ark
ind a
ĠF R
, .
const ruction
object s
Ġb orough
Ġobserv able
ĠS oph
N umer
ĠI T
akespe are
rat io
Ġfast est
ĠF ix
t p
Ġbe ating
Ġthe rapy
EN TR
et e
ach t
ie u
it ol
ate ver
b ecause
M r
ĠW ag
Ġrest ore
us c
ĠPro f
D epend
ĠR alph
Ġrestaur ants
ĠBe aut
tagon ist
x s
Ġatt ractions
Im port
Ġphys ically
######## ########
Ġb es
ĠB ak
ĠS ierra
Ġconsist ently
ut a
Ġcompan ion
av ailable
ĠArt ists
ĠDemocr at
ĠLabor atory
const raint
tra ined
st ration
dr iven
om atic
ĠWars aw
oun ce
st orage
Ġpers u
ur ated
d one
â ĪĴ
Ġs ends
Ð ±
ĠPed ro
ĠR oche
Ġb ay
T ex
st ation
effic ient
ĠB ach
Ġwas te
n orth
ff ield
Ġdraft ed
ĠO g
ĠF ind
Ġrev ised
Ġinsp iration
und erset
}} }$
at z
min ster
Ġinf ection
IV E
Ġpermut ation
Ġra ising
Ġar ises
Ġembedd ings
ĠBaron et
ĠL ot
ĠB reak
v ars
ub ert
ex ecute
Ġall oc
Ġfl ash
ĠHar vey
Ġel igible
all ing
Method s
Ġcal endar
r ators
Ġj Query
Ġant icip
ĠSing le
am ation
ev ille
ar in
ĠĠĠĠ ĠĊ
Austral ia
Ġt on
omin ated
Ġrelax ation
ĠArchitect ure
= {\
ĠF low
Ġentang lement
Ġel dest
h agen
Ġmer ely
ĠF ighter
J S
ĠWork ers
o il
Ġren ov
Ġpla cing
r ically
Ġdialog ue
Ġaware ness
=" @
ert on
ul p
Ġdo ors
Ġindust ries
uls ion
( |
æ ľ
Ï ģ
Ġagre es
G al
act eria
Ġoverse as
test ing
op ts
Ġsup ern
Ġpro ton
Ġsett lers
') );
Ġs isters
Ġass ists
hes es
R ock
w ind
B T
ĠAr c
S oviet
Ġen um
ĠN athan
Ġphenomen a
ĠForm er
Ġem otional
ĠWell ington
Ġprim itive
Ġload ing
Cond ition
Ġderiv ation
ĠCh apel
Ġflight s
Ġpass word
ta ch
d ifferent
DE BUG
}( -
ĠCh o
Ġuncer tain
F ramework
Vert ex
in valid
prot ocol
war z
od ic
Te chn
Ġcancell ation
w alk
Ã© g
ĠN ear
mid t
Ġnumer ically
Ġp ale
Ġtarget ed
az e
Ġbatt alion
art et
ract ed
ĠS H
Ġt ill
h ang
S ocket
Ġ\ #
ĠG ang
Ġpet ition
}, {\
ĠS ex
col lapse
19 2
Ġas king
Ġc emetery
Sym fony
Ġdevelop ers
Ġcamp s
Ġt ruck
Ġs ang
}\ }$
az y
Ġsynt hesis
C r
Ġse eds
eth yl
ĠB ag
ĠL ett
ol ut
$ --
Ġd eter
ĠLeon ard
am ic
al ter
end or
uck er
Sc roll
Ġsole ly
av or
M ah
ĠT E
Ġf ake
W il
Ġtang ent
Ġmanufact ured
12 6
m itt
Ġpop ulated
S ocial
Ġcor ruption
names e
Ġ" ,
N orm
in ated
ĠP ick
Ġa w
ĠSt ore
ĠSim ilar
V E
Ġdisestablish ments
H a
isc opal
res olution
s qu
ĠLeban on
ĠSud an
Ġencounter ed
Ġbut ter
Ġtal ks
Ġens ures
ĠN R
ĠPhill ips
am ous
ag ent
H ouses
R ugby
Ġtrad itionally
ro oms
ĠFried rich
Gener ator
ĠRev ival
ul atory
az i
Ġcompet itors
ĠGreg ory
en o
vel t
Ġrg ba
Ġdepart ments
ĠM ort
part y
An n
Cent ral
am y
Ġ' <
Ġmot ivated
Ġob server
Ġt ribute
ĠInt eger
Ġthe sis
col Last
Ġst ere
RE AD
is che
ĠCroat ian
N ormal
Ġrecogn ize
n odes
ĠW ells
Ġhe ating
on na
if inals
he res
ĠR ah
Ġdef ic
Ġout comes
Ġgovern ed
V A
Ø ±
ey n
ĠHT TP
ĠTh under
zh ou
v ision
}) (
Ġst ake
us a
Ġplay off
Ġpre st
ĠPro blem
O h
Ġs aint
Ġc rypt
UR I
ĠShang hai
Ġd oubt
set up
ĠC M
he ll
Ġdepend encies
Ġneglig ible
Ġconcent rated
ĉ ĠĠĠĠĠ
ĠAp ache
Î µ
all oc
Ġdep ression
3 000
ĠD rum
Ġ$- $
St ats
}_{ {\
Ġreconstruct ed
W ORD
Ġto uring
bs erver
}} }{
ĠHug hes
K K
vis ible
atche wan
Ġu i
qu ality
Ġmodel ed
Ġoccur ring
Ġflo od
L D
in ery
Ġconstitution al
Ġinter change
Ġre organ
Ġthr iller
W alk
Ġthere after
2 30
h all
m ount
Ġres et
Ġs itting
ry s
M ur
il o
du cer
cal cul
nold s
Ġdeploy ment
center line
Ġadvent ure
Ġe ase
ats u
A rea
Ġpower ed
pro duction
ĠNew castle
Ġh orn
ĠBulg arian
2 10
Ġappro ached
ĠWal lace
Ġt et
ĠA er
Ġswit ched
cur sor
M s
F act
L imit
Ġf abric
P od
() </
Ġmin istry
ĠMal ay
ge o
ĠO m
Ġd otted
per iments
Ġwealth y
ĠQ ual
n as
Ġh ide
C RE
Ġcount ing
sup ported
T w
respect ively
ĠE SP
\| _{\
ĠL ac
ov ina
Ġwill ing
Ġpit cher
no ise
Ġp ip
^{ [
ĠAp pro
ĠCons ervation
Ġs av
C AR
F oot
ac ional
f urt
ĠR us
Ðµ ÑĢ
th ird
Ġsent ences
f ers
sp aces
Ġinher it
Ġrecogn ised
Ġt anks
N ative
ER S
Ġsurv ival
Ġ" -
ĠE C
he v
re view
pro gress
Ġgener ations
ĠFor um
ĠNap ole
Writ ers
D ictionary
om eter
Ġcompris es
ĠRes ources
ĠM ills
Ġd im
ĠArch ives
Ġspe akers
Ġinit i
Ġlocal ized
col lection
Ġlearn s
i ph
b rowser
Ġr um
M ot
Ġdiplom atic
Ġinter vention
Ġcert ified
Ġsupp ressed
\' {
ĠEngine ers
Ġdesign ation
Ġpull ed
Ġin cl
Ġrepeated ly
ĠM obile
Ġdiscrim ination
Ġinternational ly
Ġbon us
Ġing red
Dom ain
col First
Ã© r
Ġrun time
Ġefficient ly
b atch
ĠRay mond
Hel p
ens itive
> "
ĠJ en
5 000
ĠW atch
ĠEdd ie
Ġelect romagnetic
w yn
=" $
Ġpret ty
l ar
Ġprom ising
ĠJ in
ĠY uk
process ing
W N
Ġdiver gence
Ġtempor arily
Ġin vert
Ġtick et
Ġdeg rad
u cc
Ġcons olid
} </
Ġthick ness
ij k
ĠT ed
Ġsub str
B rowser
Ã ½
Ġconj unction
(' .
ĠS elf
ew ay
ĠBund es
tra ining
ĠStud ent
A re
Ġinc umbent
am ination
' )\
C ities
Ġinv ariance
Ġsp ots
Ġexcit ation
Ġex terior
ĠScot ia
Ġsub marine
Ġm arch
Ġescap ed
j ob
Ġhead ers
ĠEc uador
L ittle
Ġimag inary
Ġcloud s
ĠE sc
ĠG host
Ġel astic
urs day
Ġdecor ated
Ġamb ig
ĠG or
Sh ape
Ġrect angle
uss els
Ġorgan ic
d an
Ġc ad
em ies
ĠN g
ĠTas man
ers hire
Ġdetermin istic
ĠBenn ett
ĉ ĠĠĠĠĠĠĠ
ĠG olf
Ġrec alled
method s
Ġjoint ly
ĠBel arus
ĠConfeder ate
ĠB ear
Ġun con
pr us
ĠCard inals
M ean
ĠS oon
Ġshop ping
ĠR ams
ĠStud ents
Ġdram atic
olt z
ĠIs abel
Ar gent
Ġrad ar
check ed
b ooks
=" ${
Ġt elling
ĉ ĠĠĠĠ
Ġlog o
Ġfor b
if ndef
18 46
Ġj ets
ĠG T
Ġd ictionary
ĠJo an
ir ts
ĠPalest ine
ĠAnn ual
ĠRefer ence
Q U
Ġnovel ist
' -
Ġassoci ations
ott ingham
Tax onomy
pos itive
Ġalign ed
Ġcav ity
R ay
At l
Ġconsider ably
ĠDur ham
vert ical
d etail
m ade
um m
ĠBrun swick
Ġknow s
Ġover come
Ġc tx
ĠCom merce
ĠK ash
ber ger
ÅĤ aw
b org
Ġro ster
Ġg athered
Head ers
ĠAb raham
ĠRh ode
ĠAd vanced
it an
ish a
Ġr itual
ĠT ong
ĠSe an
Ġleg it
g ls
ĠEncycl opedia
Ġreg ulation
Ġg ro
ĠP aper
Ġp arser
ĠL ess
17 5
ĠKer ala
ar u
Ġabs ent
ex tern
Ġread only
Ġsh ield
ĠArm ed
Ġpl astic
Ġtravel ing
ĠK in
Ġsurvey s
ĠPal mer
Ġall ocated
it on
ĠPaul o
ĠM uch
Ġsummar ized
is o
ass oci
) }^
ĉĉĉĉ ĉĉĉĉĉ
umb le
B ottom
Ġf ract
Ġf ur
ĠClark e
Reg istry
Ġcitiz en
Transport ation
Ġob lig
Ġcohom ology
h orn
ma xim
Ġg raphics
Ġ ell
Ġreview ed
Ġhous ed
ubb ed
M AP
Ġimm igration
if def
ĠG y
leg raph
ard ing
ĠByzant ine
I gn
Ġarr iving
Sm ith
}} ^{(
Ġen compass
b ank
TR UE
W here
ĠSt ef
met ric
un i
Ġ à
L ove
ĠDev on
av ier
Ġdocument ed
Ġfun eral
n ear
C at
ist ance
opt imal
Ġtrav elled
ok o
ĠMer it
over view
ä º
Ġcomp ounds
ak ar
ar ance
Con stant
ĠZh ang
U ES
» ¿
amb ers
ĠSy rian
script ions
ĠManu el
Ġmod ular
e per
Ġphys ic
Ġstream ing
Bas ic
Ġbirth day
os lov
ap est
he ro
Ġemploy ee
Ñ ħ
SCR IPT
T ri
ĠW i
song writer
ĠW onder
Ġse ctors
Col lege
Ġaccord ance
l ift
ĠR enaissance
al in
Ġb oot
S ync
B ind
Ġphot ographer
E ar
Ġemphas is
aur us
N ET
m akers
Ġd s
Ġst rain
Ġtermin us
D IS
ĠNash ville
U ri
ĠS ey
Ġex ports
ic ia
ur se
ĠMe chan
ĠSh akespeare
Ġbl ues
Ġsimpl ified
ĠJ ung
Ġpreced ing
ĠLi u
ob i
F uture
Ġdis cre
Ġco in
Ġto urs
na issance
Text ure
Ġcon figure
Ġcond ens
Ġorient ed
em ark
ĠS oci
ĠB egin
Ġearthqu ake
Ġcomput ers
ĠC T
Ġfla vor
w ent
ĠAir lines
ĠD R
ew ise
}$ ).
ĠKn ights
orig in
co ordinate
ĠCh an
L ook
tern oon
big skip
ĠY a
Ġdebut s
Ġs oc
ĠK as
ĠE uler
ish i
ĠK il
spect or
arm s
comp iler
ĠC ork
ĠAl t
ch ing
in duced
with out
)\ ,\
nes day
ĠFilm s
enc ia
p arser
mathbb m
Ġanalys es
Ġ Ã©
Ġsla ves
Ġbre ast
ĠC hern
arian ts
ĠGro ve
s pl
Ġtot ally
Reg ular
Ġvalid ate
Ġhun ting
out ing
ĠS V
Ġ= ======
ĠB eth
oc ene
Ġmon astery
Ġregular ization
ĠRh odes
Ġfilm ing
B order
Ġcou p
Ġfif teen
Ġtim ber
A I
Ġeg gs
ĠF oot
Ġvent ure
ĠH at
ĠWil helm
er i
serv ices
Ġbrand s
p d
Ġhosp itals
d ra
ï »¿
ĠAn cient
Ã Ĺ
W estern
m iddle
Ġcent res
Ġadvers arial
Ġland ed
ID S
rig ger
ĠD ame
ĠB ened
Ġdef ended
ty p
Ġl ad
Ġun f
Ġgu ests
ue z
ĠGu ild
In formation
ĠCar r
Ġexhib itions
ĠB S
Public ations
B road
ĠM orning
Ġdis aster
ose velt
ĠAgric ulture
ĠCom plex
it us
Ġdr ift
S en
Ġprocess ed
Ġremark able
ĠIndones ian
p iece
ĠV ector
Ġmet ropolitan
uc le
ĠEd ge
Vis ual
ro ute
Ġm amm
on line
Ġn inet
) ->
P ubl
B AR
ĠMont gomery
ĠC ant
ĠAnd roid
at om
rad io
I ES
Ġun expected
ĠD esc
S ide
load ing
b oys
Ġ à¤
Rev iew
G F
Ġ\| _{
Ġhe x
v v
c n
ĠChe ster
Ġrel ies
ĠCam eron
ĠA ra
Ġkid n
ĠV II
Ġmod ifications
ĠR T
var pi
t ot
18 45
Ġemer ging
Ġpriv ile
ĠBab y
m r
Ġsum mit
Ġachie ves
So ft
iz on
Com plete
Ch art
Ġobserv ables
Ġprof it
ĠAct ress
Ġtem p
Ġir regular
itud inal
i ast
ĠP eng
run time
Ġper ceived
ĠComp an
ĠEs sex
Ġmain stream
opt im
ĠL ex
ant ics
Ġth orough
ĠTib et
ĠEn s
Ġencou rage
v able
\, .
Ġev il
Ġtra p
Ġminim ize
ĠP rague
Ġprov isions
Ġinequ alities
act ivity
Ġdiam ond
f lag
idel ines
Ġlocal ization
De legate
mem ory
Ġor n
Ġgra in
nav List
Ġaccur ately
Ġvanish ing
Ġo k
ĠV ent
Ġ\ }$
ĠHit ler
C ross
Ġfraction al
Ġr uler
Ġal le
ĠA ires
l ane
Ġa ster
ĠTransport ation
3 20
Leg acy
ĠO scar
SS L
Ġpro ps
ex amples
Ġcop per
ĠB H
Un incorporated
Ġtr ump
j ango
ĠD rama
et ter
Ġc attle
Ġassum es
ĠVal id
prot ect
ĠD y
I reland
ad ier
) ",
im eter
Ġdet ectors
Ġaff ects
ĠS ig
Ġsuperv ised
Ġpay load
web pack
st ance
isc her
Ġdiff ers
Fig ures
ĠK id
Ġto x
h im
Ġend ors
Ġpredecess or
b ird
Ġaccommod ate
Ġâ Ĥ¬
St op
Ġp our
ĠSh in
Ġexplos ion
top rule
ĠCo ach
g rim
as ync
g p
Ġdescend ants
Ġa viation
ĠL ic
Ġen code
. ",
at io
Ġadv is
Swed ish
Ġsc iences
Ġdis appoint
x rightarrow
Spec ies
Ġin hib
ic ator
Ġrat ings
Ġa thlete
ĠD B
eg al
g ie
Ġmonth ly
Ġab elian
Ġint ense
U k
ĠP ract
ĠRec all
la ve
Ġburn ed
Ï ĥ
Ġintrodu ces
Ġcal ibration
Ġarch ive
ĠMar io
ĠÐ ¸
Ġg rants
Ġreflect s
res ources
ĠStock holm
. ).
Ġ' '
Ġpubl ish
ic as
ĠCon struct
ĠGrand e
Not ification
Ġarr ives
inem atic
ĠTun is
set length
sv g
ĠH az
ĠW rite
ĠR osen
ab c
ĠSe bast
Pl atform
us ername
ĠF lying
osoph ical
asc ade
Ġresign ation
+ |
L ead
by ter
Ġcap ability
sc ore
ĠT otal
Ġgeodes ic
Ġor che
ĠS par
Const ruction
Ġcert ificate
pro gram
Hen ry
Ġpass ion
ĠG W
Res ources
Ġl ying
ĠY ellow
M ary
c ott
Ġfight ers
Ġgen es
as is
Ġm ess
> ::
C apt
Ġob sc
Ġspec ification
H ig
und les
(' #
ĠHar bor
Ġrot ating
Å Ļ
Ġde legate
Ġde ck
ph oton
f ive
Ġpl ugin
Ġdisp lacement
ĠW inn
14 5
math ds
P G
ĠMc L
Sequ ence
Ġsymmet ries
eq q
Ġdwar f
13 2
ĠP RO
M icrosoft
le igh
st ed
M u
Ġrem ix
Ġfail ing
Å Ľ
ill on
ĠFran co
ĠDomin ican
ĠW AR
s ay
s ized
ath i
ĠRe ed
ĠHamb urg
Ġent hus
Ġ æ
end um
sub ject
le w
ĠV ict
Ġlist ener
ĠOut standing
Ġsynd rome
d ie
Ġexam ined
Go ogle
Lou is
ext end
ĠPan ama
Ġinduct ed
Ed ge
Ġgard ens
Ġtext ure
Ġ[ ],
ric ulum
ĠDivis iÃ³n
Ġfore ach
TE XT
Ġp in
An im
ĠP rest
Ġaut omorphism
Ġfarm ing
f eed
Ġver ified
Ġtalk ing
F ind
........ ........
ĠSc ar
å ¤
Ġb la
ĠE ld
S tage
Ġme at
Ġsc roll
Ġro cks
Ġun incorporated
bl ank
Ġcoun sel
}| ^
' (\
i ref
ĠMethod ist
J ack
ĠP ent
Ġconver ge
umber land
Ġsusp ension
ĠR uth
pe ction
u ary
b ibliography
itte es
Ġcan al
Ġplan es
ĠC oul
18 20
act ers
cc entric
Ġac res
Ġconf usion
M il
Ġport s
Cont in
Ġn ephe
ĠL amb
Ġcon scious
Ġcl ick
he ld
Ġm ild
Ġsk ill
13 6
Ġconstitu encies
f lex
at em
ĠD raw
J im
ĠCP U
Ġ\ :
harm onic
pot ential
INS ERT
ĠB ears
ĠPr int
Ġpropos als
ĠI o
Ġr iding
ĠA SS
Ġr ice
F il
ĠW ald
Ġbelief s
all classes
Ġact ively
ĠOt to
N V
ĠF ly
lu x
Ġcut ting
Ġvic inity
ĠKaz akh
prov ider
ĠYugoslav ia
symmet ric
Ġattend ance
Ġen rolled
Ġann ih
ord ination
ĠTom my
Ġcolle agues
c ritical
ut o
Ġc md
Ġacqu ire
Ġpredomin antly
J ud
Ġvalid ity
ĠRevolution ary
c op
ĠSom erset
ir us
Ġfeel ings
ĠGab riel
Ex pr
13 4
log in
fill draw
Ġdial ect
I ll
f b
ent in
18 44
Ġident ities
rg b
Ġsk etch
Ġcommit ment
L ow
Ġt one
Ġs ugar
Ġar row
ad r
Ġconflict s
ĠIsa ac
Ġqu oted
ĠJac ques
}] $
Ġst roke
ĠM aterial
E ven
spring framework
S ql
eg u
ĠPolit ics
Ġtax es
pr ises
Ġab ilities
ĠV il
Ġperm it
ĠE le
) <
el ly
Ġl iv
ĠL oc
Ġcont rary
Jose ph
ac les
Ġid x
Qu ant
ĠI E
Ġguid ance
Ġtor us
quir y
Ġh ull
Ġaver aging
ĠSask atchewan
Ġt ram
ĠPhil osophy
ĠL aura
M W
Ġoscill ations
ĠO ber
side bar
ou x
Ġf iring
Ġscal ed
18 41
ĠCirc le
P N
orient ed
ard i
">< !--
Ġsur prise
Ġpo ison
sh i
ĠR af
w d
ĠDec ision
S un
Ġsupp lement
est imate
Ġout door
F ace
n ell
ĠAcc ount
Ġf is
Ġf ert
13 3
Ġport ions
B a
map s
Ġlog ical
ĠB ras
rel ative
und efined
ĠS lav
ĠCab inet
' ,\
Ġt mp
n od
AT O
ag i
Ġh ook
ĠH aving
F N
if ference
ex pl
Ġdistinct ive
oy age
index Of
Ġgold en
as ia
S ample
Ġlist ings
Ġmidfield er
Ġaff air
Ġal phabet
ĠM usical
ort heastern
Ġrend ered
ĠPlay ers
on ing
Ġobserv ing
Ġleg islature
Ġferm ions
Ġint ens
Ġproof s
Ġbas in
element s
ĠRead ing
ĠSt ories
Ġpro to
Stand ard
( @
Ġb one
ont r
): =\
Ġt ape
ĠSt atus
Ġed it
Ġast ro
ph ib
G reek
ab we
play ing
ĠB od
Ġav ailability
ust rated
Ġext inction
ĠÃ Ĺ
F K
Ġdecre ased
ĠRo osevelt
Ġsup press
l ived
Ġco at
ĠIda ho
ĠP and
Ġab bre
}^{ (\
ĠL oss
M ask
om ed
Ġn p
Ġshall ow
Ġcart oon
Ġanth rop
B ill
ĠPer th
ĠInit ial
ĠSw an
ĠIn put
el ing
l p
Ġtime out
ar ound
ĠL evel
ĠC ec
Ġh ub
ro us
18 37
cho ose
Ġhighlight ed
ĠF ish
Ġprint ing
fig s
G er
}}\ \
ond e
b urst
'' .
ĠS ul
ĠD anny
Ex ecut
Ġt ier
Pass word
Ġmanifold s
= }
ox y
ors ion
en abled
ĠArray List
g ements
M ountain
}) }\
emb ourg
IG HT
Ġann ex
12 9
= $
tem perature
ur bs
ĠFran z
18 38
Ġguarant eed
ĠMax well
Z Z
Ġbank rupt
ĠS of
Ġinvestig ations
umb ai
EE EE
W ait
ĠFri end
t ics
18 39
ĠCl if
Ġins ight
Ġfacilit ate
IT ION
ira ble
b ur
on so
ri ke
ex ec
Ġt enth
ex act
}} -
ed o
il ian
Ġal pha
Ġgu itars
Ġrefuge es
g tr
ĠL ak
ĠRequ est
ĠRon ald
Ġathlet ics
ol ly
h yp
Polit icians
opt ional
15 5
st roke
End point
Ġdist ant
Ġ )$
ick en
am ine
Sup port
Ġcollabor ated
ĠOther wise
l is
Col umb
Ġwrit ings
Ġdepart ed
D rag
å ħ
L INE
ra h
ĠDef ine
ĠBas ic
p q
ĠMan it
ht bp
Ġb orrow
ĠS uff
ĠT rain
Ġ[ "
Ġrem n
ĠLuc as
Ġs ailed
ĠColumb us
Ġcomplet es
P rom
ĠObserv atory
io let
Ġab oard
ĠFour th
Ġobserv ational
test s
Return s
å ®
ĠAmb assador
Ġin coming
Ġmidfield ers
Ġd Ã©
He alth
intend o
ĠBos nia
ĠDist inguished
Ġcaus al
ĠBu enos
ĠSt ream
ĠOrig inally
Ġsustain ed
Ġart work
Ġâ ĨĴ
Ġ ions
ĠÐ ½
M ach
ategor ies
) ~\
ĠSecond ary
Ġpione er
ia z
Ñ ĸ
at ics
Ġs iege
she et
f red
ov anni
ĠF oster
ĠS ony
sm ooth
) /\
Ġstreng then
Ab out
F ort
Ġ ];
Ġup coming
ĠL or
Ġinh ab
Ġstri king
Ġmod uli
w al
ĠK ate
sign ature
Ġsh ops
Ġhistor ically
left rightarrow
Ã ¯
Ġde als
Ġv ow
oe ing
ethe less
: [
X Y
Ġabsorb ed
ment al
H am
bor o
ĠCy prus
Com par
Ġsubstant ially
ho e
Ġdig it
Ġtrac es
ĠArmen ia
im en
h art
u pe
big oplus
st ock
ĠV oice
Ġrel ativistic
ĠMar x
Ġgain s
ĠAh med
Ġveter an
Ġreleg ated
Ġpian ist
ĠLiber ty
ij a
ĠVlad imir
et ics
Ġmaintain s
Ġun ions
la us
ĠSp encer
Ġin tern
10 24
sl ice
E G
E ducational
ie ve
/ {
\ }}
unc an
orm s
Ġcyl ind
Ġl akes
ĠG amb
B ean
Ġm apped
Ġexam ination
ash ire
) *
ĠNorth west
ĠS ullivan
Ġcult ures
il ateral
ath a
Ġinteract ing
che m
Ġtra ct
Ġscreen play
Ġpro secut
Ġprov ing
ĠShe ffield
Ġconduct ing
ĠA j
ab ling
Ġres umed
Ġun likely
Ġsingular ity
st ead
d m
Ġdevelop er
run ning
u u
16 5
Ġguarant ees
ĠMil waukee
imb abwe
Ġuniqu ely
D iff
ĠO w
Ġtour ism
ĠD aw
ĠK rish
ess a
Ġpsych ology
}] \
put ing
Ġpil ots
S creen
le z
Ġfir ms
ĠQu ant
ĠPy thon
ĠK ill
Ġmem or
check box
We ight
An imation
@{ }}
Ġtyp ename
ĠE ight
Ġelev ated
Ġall ies
Ġident ifier
Ġpar ity
ĠNot ice
Ġnick name
Pol ish
row th
eff ective
ĠUg anda
i ago
ĠD as
ĠRey nolds
Ġscatter ed
Ġattract ive
let ter
ĠC inema
ĠB un
eg ovina
Date Time
bro ok
ĠMig uel
(' /
m aven
ĠStat istics
bottom rule
Ġcommut ative
Ġ' \
ĠBro s
L ee
Ġprogress ive
Am ong
Ġneutr inos
ol ine
p olar
B us
Ñ Ĩ
Ġeng agement
Ġnucle us
Ġlog ger
Ġqu arks
Ġcur sor
Ġdr ink
H H
Ġarg ues
M Hz
ong o
Ġj u
C G
Ġcler gy
Ġsp ell
Ġa z
ĠSus sex
Ġhelp ful
Ġw orn
Ġ\\ [
ĠDav ies
Ġs overe
f p
ĠK om
Ġt rick
se en
p rom
Ġpark ing
ĠP red
Ġed itors
ĠLeg ion
Ġb oss
Ġt issue
Ġar ising
ĠSe lect
Ġdecl aration
Rel ated
ass embly
e ur
ob o
Ġeth n
I ts
Ġqual ification
Ġfoot age
Ġbright ness
() ))
exp and
Ġserious ly
Ġpat ent
Ġdiv ide
ĠEag le
ent on
anim ous
Ġcurrent s
ĠIraq i
ĠRes ponse
ĠF lem
an imation
ĠW ord
S port
% "
m art
ĠC raw
ĠPalest inian
RE G
Ġdip ole
ues day
ĠPunj ab
Ġelimin ate
ĠVis ual
Ġsoci eties
it ic
ot er
| }{\
ach ment
Ġarchae ological
Dem ocratic
ĠP att
r ity
ĠD ir
Ġfle w
g al
Ġim plications
open hagen
P air
Ġp ist
ord inary
Ex amples
t m
Ġread ily
f und
] _{
f rag
det erm
? >
Ġutil ized
i q
F ORM
comm ut
Ðµ ÑĤ
or um
A mb
Ġnucle i
1 19
d uration
ĠM IT
rac le
Ġrepro duce
J an
Ġpri ests
sh al
ĠJama ica
k al
ĠF at
trans fer
Ġb achelor
ĠD in
L I
ib a
th al
B eh
Ġselect or
T y
Ġcomput ations
ĠSch olar
Ġdemonstr ates
ĠGal actic
ac co
ĠN AME
Ġcompens ation
M ETHOD
publ ished
um ers
F red
ra z
Man agement
col span
ĠIn ternal
Ġcompl iance
Ġhomot opy
ator ies
Ġs ung
] +
Ġsp okes
18 12
v ectors
}$ ;
ĠAng els
C ulture
Ġband width
Ġbranch ing
Ġc iting
ost ics
EEEE FF
op a
Ġdeb ug
Ġbomb ing
ĠPro duct
ĠĠĠĠĠĠĠ Ċ
Ġmem oir
p her
ĠU I
W ater
Ġcho ir
18 42
Ġc umul
Ġtag s
Ġvolunte ers
Ġtravel s
as ta
N U
Ġeng age
ĠG ene
Ġvari ability
Ġprefer ence
ĠK i
l it
Ġcommem or
un ning
Ġsub sc
Ġb uses
ĠSaf ety
HT TP
olut ely
itect ure
e i
ĠC ut
Ġconvers ation
Ġs hed
en i
_{ {
Ġint u
ĠEx ped
Di agn
st ellar
ĠP rison
}} +
oc on
Ġmiss ile
ĠD O
lev ant
Ġnovel ists
D b
he ng
ĠS K
ĠJ unction
}_ +
Ġtour ist
ĠTra vel
Ġc ave
Ġg ear
Stat istics
ĠK re
J ean
ĠS old
Ġinj ection
Ġdissol ved
off icial
f amilies
Ġsk ip
ĠMaur ice
B Y
Add itional
con c
Ġcat hedral
ĠI BM
ry ing
ar v
Ġab olished
Ġb alls
og o
ĠDes ert
Ġer g
Ġbig ger
re lax
Ġalt itude
pro xy
), (
Ġprogram mes
Ġcycl ic
Ġs ou
cont rib
ĠO wen
ha o
Ġm ilk
Ġw elfare
ex it
18 32
ess es
Re port
Ġdisp ers
up load
Ġhol iday
ĠN A
Ġaccept ance
M ouse
Ġc rop
ĠB esides
op ened
n ov
ĠN ottingham
Ġsus cept
Ġh ills
ĠP aint
c u
ĠF ast
ĠFa ith
ĠH ass
Ġgraph ic
Ġbel t
ĠInd ies
are l
Ġadapt ive
L ibrary
Ġext inct
and ro
iz a
18 35
l ated
ri ot
get Value
Ġout line
ĠJul ian
Ġreason ing
E W
ĠS creen
}} _\
ĠUr ugu
' +
Mod ern
Ġtor ped
Ġhol omorphic
correspond ing
ĠCit iz
L u
the y
ĠK umar
S uch
ne ut
Ġdel iber
ĠFellow ship
Ġconven ience
Ġcyl inder
Ġtrans mitted
pro duced
G T
ĠIn stitution
Ġen emies
Ġun clear
ma ch
Ġcomm enced
ĠH im
ĠStev ens
'] ['
Ġaut onomous
Brazil ian
Ġm i
ĠC lin
ĠWest minster
Ġmer ch
13 7
R aw
ĠJohann es
Ġachie ving
Ġcl im
colon eqq
EN SE
stitut ing
ĠCo hen
ĠProv incial
ol ics
Ġannounce ment
18 43
B atch
F LA
be k
Ġlaws uit
man uel
ĠSer ver
P UT
or ers
Ġhe m
time out
Ġreform s
V ec
Ġcol ours
Ġpl ates
hel per
R andom
ĠInit ially
ĠF actory
Ġcoinc ide
ing o
ll er
Ġun e
ĠViet namese
ĠCE LL
r k
ĠL A
ĠSim ple
uk u
ĠAst ron
duc ing
Rep ublican
Ġf inger
Ġexception al
ter bury
ĠPear l
Ð ³
Ġsh r
cover ed
; ">
Ġp m
Ġqu iet
g lyph
Ġ{ "
iff e
ĠC lear
ä »
Ġto ll
che l
Ġtr uly
ĠHerz egovina
S ound
Ġnumber ed
Ġimm ig
lev ard
ĠTod d
ĠAb stract
Ġstud ios
ĠRe ich
Ġinter fer
Ġcam eras
in ced
ĠA w
ĠG Ã¶
ĠS L
cre ated
Ġsuff er
exp ression
ĠPr inceton
Ġsimpl er
ĠJust in
c us
Ġcor on
Not ice
ĠBay esian
Ġamb assador
ĠA aron
ĠM ade
ĠFe ature
Ġend point
Ġbrig ade
ĠK or
ĠEd mund
S ame
select or
ĠG es
Ġtim ing
ĠB ody
Ġdeep ly
G ui
Ġdo ctors
con tact
Ġmetall icity
Ġimprison ed
F ellow
ĠL isa
con sole
ĠV ern
land o
p n
ĠR overs
uis ine
Ġdef ender
Ġshel ter
Ġparamet riz
Ġthreat s
Ġatmosp heric
M ake
er k
B uff
ĠM old
con j
Named Cell
C N
ĠRail ways
< !
P ac
ĠRepublican s
g ov
ĠT alk
Ġhead ing
Res earch
Ġrad ii
l ibrary
Ġen act
print ln
Vis ible
A bs
F lag
ithm etic
ĠG alaxy
col lect
view s
high light
stan bul
at ile
moment um
18 36
Ġs a
mer ge
Ġover head
Ġindic ator
Ġp ap
Ġpar a
\\ \
hab ilit
Requ ired
Ġdem ocracy
ĠSalv ador
Ġgrad ed
ĠV e
16 8
b rand
Ġobject ives
ĠP ul
ar ians
ĠR aid
ĠR andom
Ind eed
Ġpit ched
g us
an ian
ç Ķ
ĠV irtual
ĠVAL UES
ĠR i
Ġcompris ing
Ġatt raction
0000 00
De ep
Ġb atter
grav ity
2 25
Ġevolution ary
Ġf mt
}} +\
Ġconf used
flu id
ol in
C itations
c ock
ĠS ter
ĠT yp
ĠMan ila
An alysis
Ġcoinc ides
US A
ĠL ok
Ġchalleng ed
_{ (\
ĠMal ta
ĠBro oks
ĠG and
ĠT O
Ġb ull
ĠRe act
Ġc avalry
Ġs ick
NavBar Font
ĠF olk
******************************** ********************************
f un
Ġcor ps
Ġacadem y
ĠN ancy
Ġquarter back
Orig inal
Ġaut hent
ĠCom edy
Ġsuccess ive
h uman
inter pret
w i
Ġc ant
Ġpr ince
Ġmon op
ĠMot ors
ĠM ine
Ġswitch ing
al ong
ĠAg re
Ġdisband ed
Ġunder go
Ġh align
= &
sat isf
Con clusion
enti eth
Ġb ell
}$ $
rais ebox
CH AR
chi ef
numer us
ĠH ttp
Ġattack ing
Argument Exception
ĠO z
k top
ĠShort ly
numerus form
im ination
Ä ħ
Ġcur rency
ĠBlo om
Ġtribut ary
Un known
Ġstop ping
Ġvocal ist
ĠMult i
St ructure
Ġsc an
found er
As ian
ext ra
aj ax
ĠPak istani
Ġarchitect s
n ecess
ig ue
Ġph osph
m ology
{ "
B ay
ĠS olar
M ove
Tag s
ĠPro of
atin um
en ian
RE Q
ben ch
Ġwe aken
D evelopment
Ã¨ s
ad ers
Ġs ql
ĠVol unte
rem arks
R ot
ĠD ob
Ġrot ational
b ay
ĠWood s
Filter Database
lect ric
resize box
Ġv e
ĠGe off
Ġstat s
t ol
diag ram
spi racy
re pository
Ġsus pected
Ġphil anth
ae us
S B
ĠF inals
F ragment
the me
Ġdr inking
Ġer upt
Ġlog ging
ID TH
Ġdual ity
Ġst reak
Sp ring
Ġrobust ness
"/ ></
og an
Ġdec oder
Ident ity
mathb in
ur d
13 1
ust ers
AM P
Ġtrend s
Th ird
M id
ĠPr iv
ĠEll is
Ġartifact s
ec a
Ġres erves
Ġt ru
Ġal ien
s z
ĠAp plication
Ġnull ptr
bibliography style
Ġhand ed
urs or
m g
Base ball
Ġc ow
ĠK l
w arning
oc hem
Ex ecution
Ġl ag
est rian
an z
iss ible
Ġimpro ves
ang ered
Form s
abul ary
_ );
Ġres iding
Ġpoint ing
ĠThrough out
nd ez
Ġst ick
Ġsens ors
ol lo
Ġn est
Ġp lease
Ġadv ocate
ĠLithuan ia
ĠB elf
Ġqu bit
. (
ĠA ges
ĠL oad
Ġso ap
zy me
ĠHop kins
Ġpar agraph
ht b
Ġy ard
col head
Ġpres erves
Ġep id
In ner
hy dro
Ġz ones
ĠCorn wall
ĠF ul
Al gorithm
ĠAl bums
Ġpoor ly
c ourse
Ġsever ely
Ġadvan tages
found ed
Ġconsequ ently
O k
amaz on
ĠCard inal
ien ne
Ġpron ounced
ĠForm ation
Ġexpect ations
Ġgrad ients
ĠCa uc
Ġlocomot ive
Ġt ut
ĠPet e
w y
Ġw onder
Ġneg lect
Ġare na
Ġprevent ed
conv ex
ĠHar per
Ġtack le
Ġmemb rane
Ġcaref ully
Ð¾Ð »
Ġs weet
ugg ing
ĠHer ald
PRO JECT
ellig ent
ĠComp etition
Ġr ifle
Ġscreen ing
Ġ" $
Ġceleb ration
ĠS ets
Ġconv inced
Ġtun ing
Inter val
h h
Ġatt r
resol ve
Ġp ending
Ġinstit ute
Ġdog s
ous ing
read er
ĠA ur
ĠB R
Ġhousehold er
ĠGard ens
ĠM TV
Ġincorpor ate
Ġcounc ill
Ġcharacter ization
q q
æ ĸ
Ġmole cule
Ġunder graduate
ine es
ĠLanc ashire
G reat
ĠN ine
Ġh unt
ĠM is
Ġto kens
Ï Ĥ
ast ics
Ġb otan
Ġcivil ians
Ġfound ers
Ġd rove
Ġau ction
ch y
P aint
av ia
C ounter
ĠC openhagen
b ian
Ġdepict s
ap is
din and
A udio
Ġcons ent
ĠPar ad
Ġk ids
Ġover la
ĠOak land
Ġadvert is
Ġb er
ra its
ĠWrit ing
im i
la ir
Ġinvest ors
ĠM atch
Ġins pect
ĠP resent
L ag
ail ing
dist rict
E u
n Ã©e
ĠPar ks
cur ve
idel ity
p al
Ġh az
spe aking
W I
ag ination
ĠGu ards
Ġind oor
L iber
Ġ$ -\
ĠM umbai
ĠEx amples
Ġvers e
ĠB ark
ĠBr ussels
Ġcon current
ik es
Ġapprop ri
ĠG ren
Ġreal ize
ĠChar ter
Ġfor ty
Ġfl ank
Ġcollect ing
Ġadminister ed
Ġharm on
vel oc
Ġdepend ency
}} }}
z ip
ontr ivial
ros so
emph is
lim ited
y u
Ġconstruct ing
ĠAndrew s
VAL UE
Ġsl ice
ĠK arn
ener ate
ĠEn c
Ġalleg ations
Ġsl opes
ĠRod rig
ĠR ice
Ġent repreneur
ĠHe ights
Ð° ÑĤ
15 2
ĠMoroc co
j in
Ġdescript ions
Ġb ins
i ens
Sk ip
Ġaccess ed
Ġover w
}, \\
Ġalter ed
er ie
R ank
Athlet es
ĠJul ia
quant um
vers ely
im on
anc ers
pre p
W el
Ġvari ational
s ame
ĠEx cell
del ay
ibl ical
im mer
Ġob ey
ĠBa iley
L android
ig i
ĠIs le
ĠH ost
Ġno isy
ĠManit oba
osp here
) ~
Object s
Ġprofession als
ĠI SO
Ġaf ternoon
ĠP icture
Ġnephe w
ri o
av ian
aj i
Ġquant itative
ĠÃ ĸ
Ġship ping
h d
ol ation
amp ing
cond itions
Ġc rops
R oad
ĠMarc us
Ġaffili ate
Ġbond s
es ar
intend ent
N orthern
á ¸
ĠH ir
int ell
m apping
A K
ig ator
C irc
Ġsport ing
Ġsh ots
ĠHol mes
Ġtyped ef
Set ting
om ar
Ġaccount ing
ĠC ert
ap os
Ġsuperv ision
Ġgra ve
00 5
ars ity
t rain
ĠEx hibition
t v
Ġtransl ations
Ġas ymmetry
Ġsymp lectic
ĠG ol
Ġwid ow
Ġproxim ity
ĠAm endment
h p
ac cept
ĠIn g
Ġpsych ological
ig roup
ĠG othic
T yp
Ġw ars
bo at
b inding
l st
Ġauthor ized
$ =
Ġexcept ions
Ġgo ogle
int eger
ĠMon th
D u
R UN
f actory
00 2
ibl ings
S at
ber y
Ġem issions
H o
ĠSp ider
Ġcla use
rel ations
Ġgrad es
Ġch apters
j ud
c as
DE FAULT
"" "
comm ons
link ed
Ġwatch ing
ĠPlan et
D rop
ort s
Ġc ust
cor rect
Ġpair ing
Ġe ccentric
Ġbehavi ors
ce iver
cy l
F W
k ernel
Ġtro uble
ĠGram my
Ġche ss
Music ians
Ġass et
o que
Ġst uff
ĠCub an
it ious
um ped
ĠSh ield
$ }\
Oper ator
ĠS aw
ĠC e
iffer ential
iv ariate
Ġm d
ke es
ĠArch ae
Ġliter al
S erv
w oman
Ġcirc ulation
Ġinterpol ation
h istory
ot ypes
Ġcomment ary
ĠM ock
Ġform ats
Ġmicro sc
i ating
g ap
Ġemp ire
Ġconjug ate
Ġapproxim ations
ob e
Ġen umer
ĠGl ou
Ġrem arks
u ate
R F
] _
ĉ ĠĠ
Ġcon g
mont on
; )
Ġman ages
H ub
Ġsum s
ĠEvent ually
ĠL akes
fore ach
sh ore
b is
Ġin herent
ĠSt op
ĠTw enty
text style
Ġmac ro
Ġprom ised
Ġsculpt or
Ġchar set
Con nect
Ġoptim ized
ĠWh y
ul ous
Can ada
Ġfollow ers
Ġphilos opher
ster ious
Ġcasual ties
M unicip
Ġdis ks
Ġrecru ited
ene ath
T imer
ordin ates
- {\
Ġbreed ing
Ġh ind
14 3
T ok
Ġair line
Al tern
Ġevent ual
ir med
Ġpract ition
Ġlight s
ĠX X
s olution
an che
Ġs le
ist o
pe z
string s
f m
& +
Ġfe ud
Ġcolon ies
V ir
Ġachie vements
ĠAp ost
Ġret reat
Ġwar fare
Ġg ent
Ġrecip ients
Ġ\, .
Ġactiv ated
I l
å Ĳ
Pop ulation
Ġfrag ments
Ġfif ty
ĠHind i
Ġtele phone
rub y
n ut
Ġw ake
Ġneighbour ing
ul ers
Mart in
byter ian
qu ark
ĠL arge
ah l
ĠG mina
ĠWild life
h on
Gener ated
Id s
F ocus
Ġboard s
cf c
es a
in as
CT YPE
ern ess
Ġrev ival
Ġb is
ĠT ool
Ġm a
}} )\
ern er
] ^{\
ĠL az
ah an
intell ij
13 8
Ġalleged ly
Ġj ail
Ġred es
Ġathlet ic
P ak
xy matrix
B on
l os
ical s
cons ist
S elf
PO ST
ĠConc ert
L es
z el
ĠF iction
ident ial
ĠAss umption
ild a
elect ric
s elling
ĠE lection
Ar thur
Ġglob ally
ĠGl ass
g oto
Ġgrand son
Polit ics
ĠM O
Ġexpon entially
}{ !
Ġsub graph
Ġsc andal
Ġburn ing
e lem
ne z
Ġ( #
th in
ĠM E
Ġde leted
Ġ Ù
it atively
Ġfoss il
Ġsuccess ion
oy le
IC ENSE
ĠN u
ell ites
Ġcol ored
ĠAn im
Ġdegener ate
Ġproceed s
ĠA chie
ĠAm y
J ul
Ġbi ology
Ġbroadcast s
bre aking
S erb
Ġcoff ee
Ġnam ing
ĠRichard son
ĠLore n
ĠIndian apolis
H ouse
ĠPo etry
ĠR ut
ma jor
cess ion
Ġcould n
ĠAll an
ĠSant iago
id y
or bit
Ass embly
Ġbar rel
ĠM ang
Ġanom aly
Ġco ached
VAL ID
Ġkil ometers
ter ms
Ġlight ing
Ġgradu ation
Ġen larg
Ġtri angular
Ġcomed ian
construct or
oy a
ĠĠĠĠĠĠĠĠĠĠĠĠĠĠĠĠĠĠĠĠĠĠĠĠĠĠĠĠĠĠĠĠ Ġ
Ġult ra
Ġper pet
ĠC yr
ĠW orth
ĠJ ob
Ġmain land
Ġsearch ing
W ord
). $$
H I
y st
arri ers
Ġperman ently
ĠSh op
n ob
b inary
sp ired
kw args
Ġtouchdown s
ĠExped ition
W ashington
dest roy
St rategy
}. $
ĠL L
ĠGr ass
n os
Ġde eper
Ġvict ories
t l
Ġrev ol
Ġc atal
Ġre pository
ĠH il
Ġcomp ress
L ists
m ouse
Ġed iting
Ġst range
M aterial
ĠMar in
n is
it ian
evel oper
Ġcomplex es
Valid ation
ĠF ut
ĠPl anning
Ġfe els
18 34
ĠLeg islature
ĠKenn eth
P et
Ġtem ples
valid ation
ĠV eter
( .
Ġw alks
SE LECT
ever y
Sec ret
ras er
ĠL t
ve ill
Ġobtain s
col l
Ġflex ible
ĠInter est
Ġment ions
n ative
ĠA ub
ĠPl ate
Ġacknowled ged
Ġhealth care
Ġb read
ĠAdd itional
ĠP L
Ġtel escope
] }\
ap a
ere k
Ġblock ed
od or
Ġfre estyle
b log
ĠC os
olt ip
Ġutil ize
18 15
ĠI v
ĠE state
ist le
Ġpro l
Ġbox ing
Ġcont rolling
ĠNob el
Int eg
App end
ĠLin ux
Ġform ulated
* ,
~ {\
Ġepoch s
ore n
the se
Ñģ Ðº
Ġfl our
r arily
Ġfill ing
Ġsh aped
Ġover flow
in formation
Ġadd itive
T rad
reg ation
Ġrot ate
ĠPow ell
ĠCon v
Ġconsider ations
ĠCr us
re ason
DB LP
ĠG ent
ĠB ran
Cent er
Ġaccompl ished
Ġp unk
... </
ĠE g
com pute
ĠAN Y
p ent
lock ed
ĠCel tic
Ġch ronic
N ullable
od o
ĠU tt
ĠIl legal
^* (\
Ġvis ibility
K it
Ġsp iral
Ġgu ards
ĠESP N
L uc
ĠK E
ĠAl pha
ĠGener ation
P ut
ĠL com
(" /
O s
ant om
Ġsurn ames
ĠNiger ian
ĠL iv
C lear
ĠF lag
] \\
Ġsimpl est
Ġib n
Ġcl ot
he art
Ġim per
py thon
ĠÐ º
Ġfle e
Ġsingular ities
S pan
Ġimp ose
Group s
Ġ" '
ĠCol lect
}; \
Ġle x
ell ers
W C
Ġperson ally
add y
Ġfriend ship
es ome
ĠLou ise
Ġgain ing
Ġtheat rical
: @"
Ġcorn ers
R ate
ĠT ennis
ag in
ĠH ale
Ġdecla re
Ġneur ons
m agn
tr ation
Ġcelebr ate
Ġsp ur
' }(
Ġsec ular
un ion
H aw
make box
Ġeditor ial
Ġcommun ist
n ai
i ator
n or
Ġdown stream
Ġrecommend ations
g ender
ĠN as
ĠBla ke
am as
Hung arian
F ire
it he
Nov els
ĠSim pson
}$ ),
Ġb eta
b os
-> ]
oca ust
ĠM ales
=\ "
Ġadopt ion
Ġdr ives
ĠK ot
Ġa ck
Ġque en
M IN
." ""
sen al
Ind ia
}\ )
ĠGu ang
21 1
Ã °
Ġbal anced
}} }{\
, }
pro j
Ġwire less
ĠWed nesday
[ {\
Ġ? >
Ġj ew
ĠG ael
Ġrout ine
ĠH us
ĠW arriors
B and
Ġpres ervation
ĠTh ursday
]{ ./
ĠB iography
Ġachie vement
ĠSta kes
ĠD uncan
Ġi i
Ġcap ita
q ed
ol ith
Ġun w
ĠSI ZE
G rad
Ġch ore
Ġw ore
Ġin scription
ĠS ho
ĠT at
ĠO P
que z
Ġspecial ist
Ġwe aker
lin ary
ĠCamp us
Ġdemand ed
Ġmethod ology
Ġtim estamp
S ave
ĠP orter
arri or
Ġvirt ually
ĠMathemat ics
Ġf ed
FFFF FF
Ġcomb in
Ġke eps
Construct or
Ġrefere e
new s
ĠW ak
Ġsurviv ors
Ġback ward
ĠTest ament
ĠM ull
Ġver ification
Ġrenew ed
Ġexecut ives
Ġb ug
) },\
ĠS weet
ĠR ush
ĠÐ ¾
ĠC rist
ĠT ir
}) ^{\
ĠMont eneg
Ġdiscontin ued
* }\
^{ *}
Ġatt itude
g ary
ph on
Ġel ite
per m
Ġ_ ,
pend icular
ĠR ule
ĠMon ey
Ð¾ ÑĢ
Ġf atal
With out
Ġillust rates
H ot
alth ough
cha ft
Ġansw ers
n l
Ġth rew
Ġflow er
ĠK ab
veill ance
L arge
g rand
ch in
ĠF BI
Ġcomp iler
en es
ĠE M
pr ised
Tur k
uzz le
Ġen velope
Ġb rew
Ġpro jections
sin h
Ġ Âł
ĠCzech oslov
DO CTYPE
IN FO
ĠN AV
Ġdiv is
Ġg amma
H ard
B ern
ĠCol in
alk eeper
ĠH arm
se ctions
ap ur
Ġbu f
ĠF ed
rest rial
ĠL odge
B rown
ĠFrank furt
Ġdesign ers
m k
{- }
Ġd ancer
Ġdef inite
ĠSol omon
ĠBrad ley
Ġst y
Ġprot ocols
Ġinn ovation
ĠS qu
K h
j iang
ĠDE FAULT
g ins
ep ing
Ġvo iced
Ġimpress ive
ĠR F
Ġpun ishment
Ġsudden ly
Ġput s
OM E
Ġnot iced
P ier
oc ent
Ġimprison ment
Ġpsy chiat
ch ard
Ġret iring
c ially
Ġlong itudinal
Ġmark er
kins on
STR ING
ĠOption al
U ntil
ĠW ool
ep age
å Ń
Ġsp anning
Ġpre val
Ġa xi
ĠN ormal
sl ashed
ĠGer ald
Ġre write
Dan iel
C md
Ġhost ing
+ }
R en
l brace
Ġown s
Ġpol es
'' '
Ġhon ours
Ã© m
li ers
Ġflo ating
rypt ed
Ch ina
È Ľ
ĠAn a
ĠS cal
Ġconstant ly
ac iÃ³n
Ġun ve
Ġpay ing
sl ide
Point s
ic ates
om m
d v
Ġb ats
Ġoccur rence
" ].
Ġmy stery
h urst
ĠT iger
ĠE ve
ĠP ink
28 0
NR AS
13 9
ĠA ri
Ġlist ening
ĠAgre ement
p ic
Ġd ots
ĠLes lie
Ġconv ey
L ib
eg an
Ch ief
Ġn ice
ĠF ROM
ass o
ĠR ican
ĠNad u
Ġcollaps ed
ĠAgain st
Ġrecommend ation
Ġpres erving
ad apt
Ex pect
ĠTrans it
Ġconclud es
Ġbe ars
Ġo w
comm it
N atural
gtr sim
Ġm im
s ync
be at
algorithm ic
Ġ$\ |\
Ġk nee
Ġfre ight
}{ $\
Ġapproxim ated
ĠLux embourg
Ġin ert
ĠB rid
D a
K im
Ġf ung
Ġvolunte er
ĠC atalog
Ġfall en
ran es
Ġresear cher
Ax is
ess ed
C ost
Ġtw ist
get Element
unt ary
form ula
Ġbl ank
W ood
s ix
Ġmur ders
ĠEm ma
Ġmill ions
ĠArm strong
ce ased
Ġdiplom at
Ġcul min
Ġt idal
Th m
Ġhealth y
Ġjo ins
B inary
sh ifts
ĠCan terbury
Ġbroad er
Sc hed
Ġtow ers
^{ {\
Ġris ks
Ġperform ers
Ġbeat en
MOD ULE
Ġd imin
ĠFern ando
Ins ert
Ġwh atever
un al
ĠT arget
abil istic
Ġprison er
Ġadminist rator
ĠZ imbabwe
order ed
ĠF L
ĠL if
Ġjud icial
Ġcaref ul
Ġt uple
in ia
Ġflux es
e o
ĠH od
ik ing
" ],
p rior
Ġpay ments
re port
bigg r
Bur ials
ĠASS ERT
Ġcitizens hip
ĠLO G
Ġval ued
ĠPrincip al
Ġspeed s
A st
T oday
18 31
ĠH ait
ĠHe aven
C zech
n h
ĠI sh
ph ot
Ġper ception
ĠEm ily
Ġpoly mer
ov i
sche me
whe el
Bel g
M ix
ĠBelg rade
Un ion
Ġinv ented
cos h
Ġcorrect ed
Ġstruct ured
ĠM uk
Ġrec ruit
ĠAb original
ĠFilip ino
G ra
oc aml
h ops
Ġretriev e
16 6
ĠR as
Ġin ject
ly m
Through out
eck er
Ġsear ches
ĠHend erson
eg el
m ic
Ġhyp ers
ĠEngine er
Ind ividual
Ġke V
ap or
}$ :
Ġrock et
Us age
Dist rict
ĠCurrent ly
H uman
ĠK urt
A X
ĠU ntil
cl one
A U
Ġd rain
ĠL ipschitz
ĠSt rong
ad van
Line ar
G AN
lin ks
ĠBou levard
Ġl ung
> [
ĠW ant
Ġposs ibilities
be it
INT ER
ĠGib son
ĠWy oming
Ġdisc overs
18 33
ĠCamb od
Ġrect angular
c ass
Ġin complete
ĠKing ston
ĠL ar
ĠCal gary
^ *}
ch air
ab ol
ĠM B
ĠC ele
Prim ary
Ġprocess or
ĠA ch
under brace
)} =\
ĠP irates
ern els
cer to
fore mentioned
be ing
Ret ention
14 2
ĠSm art
r ar
Ġun changed
Ġpat ches
_{ |
Ġsculpt ures
F n
Ġm ath
ess el
itt en
Ġdies el
att ed
3 30
Econom y
R M
Ġcan vas
Ġra bb
Ad minist
ĠPlay Station
ay er
Ġd rops
ow der
ĠY es
Ġm oll
ad al
ĠH es
ĠH aven
al ias
}) :
Ġn ontrivial
Ġinf rared
ass er
re ts
is Empty
ĠS NR
4 30
26 0
Ġdivor ce
i ab
ĉĉ ĠĠĠ
inter val
bigg l
ĠP ars
Ġf Ã¼r
ĠHe at
e eq
Al low
å Ī
col m
M ut
c v
Ġcon qu
Ġagre ements
ĠR M
ĠO st
Ġdef ect
Û Į
Ġra id
ys elf
Ġs b
el ong
ĠC av
ĠVal ent
ĠAb b
cont ents
com parison
if i
Ġplace ment
Ġtra pped
Ġconfer ences
Ġc rack
ĠN acional
Ġte eth
k ers
Ġe at
ĠD id
ĉĉĉĉ Ċ
% ),
ĠAh mad
Ġhe ir
ett es
Ġfre ely
Ġun em
if iable
Ġv ital
Ġrefer endum
Ġst olen
ĠHe ath
Ġpen et
h ra
Ġwebs ites
}} ^\
tain ers
ĠH alf
Ġreal ization
ĠB il
IO Exception
dat abase
Ġvulner able
ĠClass ical
Ä Ľ
ĠW eyl
Sh ould
Ġreb ellion
66 66
Ġlogarithm ic
): =
roll ers
design ated
Ġcheck ing
ĠMet al
ĠCh ase
gener ation
ĠAdvis ory
ĠD oc
Up per
ĠGen eva
oot ing
ĠF an
ĠNik ol
Ġvo ices
Ġo mitted
Ġleg isl
bound ary
F OR
Ġadj oint
S mall
let te
ap ing
Ġdraw s
W ang
ĠS ons
ĠGlob e
st eps
ri ans
14 7
c ats
ON G
ric a
Ġpack ages
14 8
ĠBry an
Ġunder went
Ġf ame
inf all
Ġspec imens
ĠR ib
aw i
Ġregular ity
Ġprepar ing
Error f
Ã¤ r
V s
ps y
ĠRe id
ĠL HC
Ġassert ion
ĠT ales
}. $$
Ġcons umers
ĠE ND
Ġsu ite
Ġarchitect ures
p kg
ĠD ale
m ot
ĠM am
Ġliter acy
B asketball
ĠPublic ations
Ġcre ator
Ġh istogram
}\, ,
fl ush
Ġcatalog ue
ev e
ĠFer dinand
ĠParalymp ics
Ġcounterpart s
I ce
ID E
21 3
Ġl oved
ack nowled
ict ions
Ġinteg rate
un ar
any on
Ġh ang
Ġh alt
Ġdevi ations
stad t
ĠEston ia
ed i
a ft
Ġequival ently
Ġren owned
ĠC lient
ĠD um
ĠNew port
St an
ĠW ait
B ir
pl oad
Ġinteg rating
Ï Ģ
pos al
NS String
Ġd ubbed
ĠF eder
amb a
assert True
Spe ed
Ġsp ont
Ġcharacter ize
Ġtransform s
b ug
Ġh itting
ĠB anks
Ġaud iences
Ġas p
ĠV ers
Ġp ill
Ġf s
le ys
der iv
ĠC ann
p ub
Treat ies
Î »
le af
Ġv ortex
ĠE RA
Ġhighlight s
ĠAdvent ures
Ġa forementioned
ĠD ow
m ith
C andid
Ġco arse
AN CE
à ¦
ĠL ip
Ġn ut
Ġtr ig
ĠX I
av el
c orn
Ġmod ulation
UT C
Art icles
ag le
Ġpurs ued
Ġanten na
Ġd ans
ur an
ĠH off
Ġdem ocratic
c atch
}) ^{-
OR Y
ĠC avalry
Ġrele asing
ĠTr in
S K
Ġwrest ler
Ġevery where
ĠBat man
< <
ĠCh oice
Ġfa una
che z
20 5
Ġr idge
Ġout flow
ov al
> '
Dr iver
G l
Ġprov iders
Ġd ancing
scal ar
Col on
LO C
Ġcr ashed
Ġlob by
Ġh opes
Ġide als
Sim ilar
ty pen
omet own
Ġmyth ology
Ġ< -
Nor wegian
Ġc oding
ĠS hen
Ġk ings
valid ate
ĠS event
Ġor al
Ġmot ivation
cf g
Ġrevolution ary
B IT
ĠC i
oy e
ĠStaff ord
sw arm
ĠSher iff
O l
Ġisot ropic
Ġrel ate
Ch ain
Ġt une
ĠT D
ĠLu cy
Ġrend ering
arm ac
rack ets
Jo in
ĠCont est
Ġexplo it
Ġremember ed
ĠYan kees
15 6
ĠLiber ation
ctu ary
Ġas h
il is
Ġgener als
ĠAnd ers
ĠLeg al
ĠA u
s r
Ġrap per
Ġsimpl ify
Al t
Ġl ux
ĠI de
g ard
Ġfe es
Ġcap ac
incip al
Ġcont our
Ġe leg
Ġcompar isons
Ġtermin ology
ĠTan z
k ip
Ġstr at
un ivers
aid en
Lo op
class ical
Ġan ch
C art
Ġmoment a
+ {\
S to
Ġd ra
ht ra
Port ug
Ġ" ",
Pre vious
Inst all
ĠTy ler
ĠLud wig
y ang
Ġopt s
ĠG em
ĠQu ery
: `
pr iv
ott i
ĠSh i
Ġinsert ed
Ġr am
Ġc lay
ĠContin ental
E mb
US ER
ĠLy on
5 50
Ġasymptot ically
ourn ey
Ġfavor able
Ġdiv isor
Ġobvious ly
Ġland mark
1 200
ĠW IT
Ġsp ir
Ġt ar
ipe g
he nd
ĠM iles
Ġillust ration
Ġm oon
Ġfore cast
maz ing
Ġsqu ared
inher it
re ne
ĠI g
MO DE
ur istic
Ġhom ology
Com pat
dis k
v ens
im ony
Ġmod elling
ĠP Ã©
ĠFif th
Ġcons erved
14 1
ug a
la ch
ag ers
ĠPh ase
Con v
Ġknow ing
r brace
ĠDev il
ĠRol ling
Ġsyn onym
ĠPhys ical
Ġhead quarter
Ġthir teen
ĠĠĠĠĠĠĠĠĠĠĠĠĠĠĠĠ ĠĠĠĠĊ
Ġsax ophone
C ath
Ġr iders
po inter
14 6
sup ers
ly mouth
ab lo
ĠQ ing
ĠConstant in
Ġw ww
Ġp icks
ow ards
ĠY et
Ġsp ins
ĠLe op
resol ved
ĠG rad
Ġsur render
Ã± o
Z ero
Ġan onymous
Ġc uisine
ĠC osm
m ons
Ġnom inee
set ting
Ġphot ometric
S plit
ĠN N
land ers
ĠR az
)$ }
mark et
V ictor
u h
- $\
ĠCont ent
ĠB order
à ®
ide a
veloc ity
Ġcontin uation
ĠN P
Ġby pass
Ġm ature
k el
k ok
s ocket
Ġdisappe ared
Ġpart itions
enn ium
ĠD oll
Ġper pendicular
comp ile
Ġa est
ĠPop ular
ĠGi ovanni
Ġr ally
000 1
Ġassert That
Ġupgrad ed
ĠD eg
Input Stream
lu ence
ĠCur tis
uplic ate
it Ã©
scal ebox
ĠHead quarters
Ġins pection
Ġtack les
ĠEmm y
ĠLett ers
W he
am oto
ĠBened ict
AS H
ĠCol umn
Ġdraw ings
Fellow s
or p
Ġcirc uits
Ġfor get
ag onal
15 3
ĠBar b
Ġcount ed
18 25
ĠTri ple
ta ine
ĠN ames
ĠS end
ĠC G
ĠSh ir
ĠNot re
D ATA
), \\
M ount
Ġserv ers
ĠT all
Ġche st
Ġ' ';
Ġ ig
ĠB ot
Ġinitial ize
Ġconf ined
Ġcalcul ating
.. ."
Z one
Ġbur st
ĠN intendo
Orig in
li o
ĠIm port
gener ate
Ġf ram
Ġperfect ly
Ġsimilar ities
ĠAct ive
ĠM ead
Ġen zyme
mod ern
ĠWag ner
sc apes
W arning
us ive
ĠB Y
ĠH i
Serial izer
b eck
ĠF OR
D ynamic
Ġpresent er
Ġb icy
Add r
Ġtrav elling
ph rase
Ġselect ing
Ġf ate
compat ible
ĠGu atem
ĠL enn
Ġal ias
Ġ_ .
ĠEv angel
op hers
air y
ah a
Ġmark ing
rel la
Ġray s
Ġst ret
ĠW ikipedia
18 28
ell ation
An notation
Ġkill s
M N
à ¬
pot ent
Ġbeet le
typen ame
Ġar rows
ĠT ampa
ĠCon text
\" {
ĠCh in
In c
ĠChe ss
ck er
= |
diag onal
Ġinter active
as se
Ġst er
Ġliter ally
Ġsoph istic
C ursor
p olit
Ġconstit ute
fe atures
ĠCath olics
Ġun ified
Ġport folio
ĠGeorg ian
M NRAS
St atic
Ġtransport ed
re ach
ĠBurn s
Ġbur ial
Ã§ Ã£o
rit z
Ġadv isor
ĠH ern
if les
ĠSt yle
m any
Ġpregn ant
. ]
Ġinfer red
ot yp
Ġpresent ing
con e
n atural
Ġs ake
Ġ> >>
M iddle
ĠL omb
ev o
Ġse ized
Ġ[ -
ĠGl enn
Ex ists
Ġin duce
ah u
evelop ed
Ġaer ial
ĠBey ond
arg uments
Ġm il
Ġvis cos
ĠSur rey
enz ie
wild fly
ĠK err
# {
Ġcompris ed
S om
Ġpro claim
H amilton
Ġon wards
Ġstation ed
ident ity
Ġmultiplic ity
he y
ĠH IV
ed e
ĠW end
}{ $
ĠBer ry
ĠC ord
Ġreb els
Ġp ipe
ce q
ins k
Ġhom osex
18 29
Ġwrest lers
om ical
Ġex ile
16 9
che ss
Ġemphas ize
dr iver
ĠMem ory
B inding
Ġabs olutely
down load
s an
Ġnational ly
m essages
Ġst eal
al an
Ad min
u ine
{ }\
g auge
Ġhold er
ĠJenn ifer
ÑĢ Ðµ
m ak
ip ur
ĠRem ove
iling ual
You ng
ser ial
ĠLuther an
Ġb out
res pons
qu in
ĠSlov akia
ĠMethod s
l ceil
duct ive
d ynamics
e V
Group Name
if ax
}) }{
ir ie
asc ar
grad le
Ġs iblings
cl ock
Y Y
A mer
ĠC ort
w ald
ipl oma
Ġprest igious
W W
ian ces
ĠTh ings
act ing
Ġsix teen
Test Case
I AL
Ġround ed
W ire
Ġqu bits
Ġs id
E nergy
ĠR iv
y c
Ġb ubble
ĠV III
PAR AM
15 4
Ġneg lected
ĠN ATO
g ang
p ie
esc u
ĠEug ene
I ss
row ing
ĠO N
Res olver
Ġar ithmetic
Rem ote
l ore
b ol
ĠAlban ia
" },
Ġac ceptable
B rien
ant le
ĠAL IGN
ĠĠĠĠĠĠĠĠĠĠĠĠĠĠĠĠĠĠĠĠĠĠĠĠĠĠĠĠĠĠĠĠ ĠĠĠĠ
Ã§ a
ĠOut put
ĠOs lo
Ġconsult ant
ĠFight ing
Ġas ide
pt s
Ġcan on
Att r
Ġrecon c
id ity
ĠC ay
Def ine
ĠColon ial
15 1
ĠChel sea
un ov
ĠN atal
Ph one
Ġh oped
Ġaccompany ing
r ceil
^ ^
18 24
Ġb acteria
Ġdis orders
Fe atures
Ġdepos its
S hips
ĠWrit ers
L os
Ġcl one
). $
sw orth
Ġeduc ator
cos ystem
ĠInter ior
ĠC ategory
Ġem ig
ne um
ĠH ey
ĠM ob
ĠI stanbul
Ġcut off
p ages
Valid ator
( $\
Ġh i
Ġtrigger ed
rac ing
Ġexperiment ally
Ġplan ar
Ġax es
Ġenhance ment
Ġsk ew
ĠHur ricane
ĠGu itar
ĠAmer icas
ĠM emphis
ier i
ĠA way
' ];
yl an
ĠH ess
hard t
Ġ ì
Ġsummar ize
16 7
Ġmeas urable
f etch
ĠT ru
system s
enc il
20 2
ole cular
DE F
Ġbank ing
m us
16 00
Ġen abling
Ġbusiness people
Part icip
Ġproceed ings
I EEE
ĠG rim
Ġt ale
G Hz
B g
am ount
Ġre bounds
Ġp ink
Ġfour teen
Ġball ot
L U
ĠBas il
z on
Ġst ones
Count ry
ĠT uesday
ĠStr ateg
ĠF emale
ĠâĢ ¢
Ġsuff ix
ĠBelf ast
Ġevalu ating
ab b
Ġfunction ality
Ġ" %
Ġpra ise
oid es
Ġnom inal
' },
Ġend ings
Ġs ocket
Ġcontact s
ĠAd rian
Ġless ons
Ġnob le
ĠCrim inal
power ed
sp acing
ĠFran c
ip zig
Ġ! !
Ġdemon stration
cl ed
Ġrel atives
ĠCap itol
ograph ies
ĠT rent
Ġarbit rarily
Ġall Classes
ĠSpe aker
ĠInd igenous
ura i
Ġsign atures
rid or
est e
Ġoverw hel
Ge org
ĠallClasses Link
ĠC od
C LASS
)) =
ac ular
ĠOr lando
ĠMic he
T I
Ġsim ulate
Ġannot ation
Ġsub mit
ĠP om
ass ign
Ġsla very
dis able
ĠK lein
ric ia
Ġprec ip
cd n
Ġsupp ression
N ever
\, $
ĠPro perties
ĠEp iscopal
Ġ )\
ar ag
ĠLind a
ĠNe ed
amb o
Ġsustain able
ĠCa uchy
ain ing
C le
EL D
Ġm s
em er
Ġsail ing
Ġnorm s
ĠR ac
l vert
Ġnation wide
utt le
Ġview ing
cl s
part s
L ev
m embers
ch at
ian i
100 00
ĠIn spector
to Be
ĠSt rat
ĠAlban ian
y i
ĠAn at
Ġbackground s
Ġcogn itive
ĠB ound
Ġimpact s
Ġkil omet
Per formance
Ġcur riculum
OC K
ĠAntar ctic
ad ors
Ġk ernels
Ġcur ved
R o
18 26
End emic
Ġmeaning ful
ĠCom bat
cor relation
Ġpro sec
ra f
ĠSlov enia
Ġmus cle
Render er
17 75
d rag
l Ã©
clud ing
Ġback ed
Ġincorpor ating
Ġcongress ional
ĠÐ ´
ĠFranÃ§ ois
oot s
C ALL
Ġsequ ential
t ip
} '$
Ġserv ant
Perm ission
Ġs i
ĠUn fortunately
| {\
ĠSer ie
Ġterror ist
Ġexp ans
al us
ĠA udio
load er
ĠCommunic ation
Ġinv ersion
Ġsur pass
ĠM ing
15 8
Ġavoid ed
)$ $
Ġel imination
il ion
ĠRoberts on
ĠN urs
ĠV ert
app ings
Ġcontribut es
Ġtransmit ter
b v
18 14
ĠR achel
vers al
Ġpray er
A BC
Ġassemb led
Ġfilter ing
ĠT ropical
s igned
ĠR C
ĠL av
T ile
Ġinv ariants
P a
Ġlect ures
W allet
Ġmer c
Ġlab elled
Ġdev ast
cho ice
Ġfit ness
ĠCh ad
Ġup grade
Ġco q
w arn
ĠSD SS
}$ };
Ġack nowledge
ĠEu rop
ĠTh an
ĠC apt
C ultural
Ġsyn tax
Ġinter faces
ĠA FC
ĠTe V
Histor ic
Ġt sd
Ġcle ared
ĠB ever
Ġimplement ing
im m
Ġt ent
ĠPro gress
Ġadvan ces
50 9
hom ogeneous
for Each
) )$,
ich let
put es
cal endar
) _\
U pon
iss et
ĠPal m
ĠCard iff
un known
Ġsymbol ic
Ġhierarch ical
up iter
T urn
ĠP iano
ĠR egin
estab lished
E mail
Ġsett le
Comp et
{ |\
18 10
f ollowing
ĠPlan ck
Ġfarm s
Ġle ase
P DF
ĠPop ulation
p id
Ġp s
ĠDe cl
ian e
ĠP lease
r ina
ĠP erm
Ġred und
cur rency
ne apolis
LE D
ĠAnd rÃ©
Fore ign
Ġconvolution al
Ġaccompl ish
Ġs aving
cest ershire
M useum
Ġhelic opter
Ġpro tagonist
in aries
Ġra pe
ĠP sy
column s
ĠMarsh al
Ġem otion
f ake
ad h
ff f
on ne
b ranch
Ġsort ed
ĠSw ift
Ġc f
ĠĠĠĠĠĠĠĠĠĠĠĠĠĠĠĠĠĠĠĠĠĠĠĠĠĠĠĠĠĠĠĠ ĠĠ
G erm
âĢ ł
S ite
Ġf ires
ĠP ep
Ġadm issible
Ġimport ed
f ollow
ĠW ick
E th
() ),
Ġback up
Us ers
ĠC ome
Ġl ig
ĠPres byterian
ros se
Ġthe or
ĠE k
}= -
Ġbe aring
Ġqual itative
V AR
Ġ" ";
ĠNAV BAR
Ġpre y
he imer
f erm
Ġad mit
ĠField s
ĠWork ing
F older
st en
gener ator
ar ab
dec ay
if a
ĠDisc overy
L im
b lob
ounc ing
Ġmin eral
ĠA part
histor ic
B attle
Ġaff ecting
ĠPer iod
atter ing
Ġinvestig ating
ï¼ Į
Ġl ac
\% ,
Me V
ĠH ab
ĠD j
ĠSu ccess
ĠParliament ary
Ġgo alkeeper
ĠF act
Ġgu idelines
H tml
ĠC over
ĠB A
! ,
rang er
D ark
y on
Ġ\ "
im ming
int rodu
Ġhon ored
Ġstrong est
ORD ER
ĠM ail
Ġdifferent ly
Process or
15 7
ĠCh al
P rem
ĠCar roll
R ules
ed ges
Ġdivor ced
ri ates
ĠMar ÃŃa
is le
ĠB orel
th us
Seg ment
ĠH ull
li um
ĠMar cel
R PC
iers hip
Ġter rain
Ġmetall ic
Ġdi et
ĠU z
Ġpost hum
ĠF raser
b ers
ĠC anyon
en ic
ĠB ee
ĠH els
Ġestim ating
Ġtri o
Ġra infall
RE E
w hat
ĠS Ã©
ĠI L
F i
Ġant is
f mt
face book
Ġt iny
Ġgu ess
al p
ubern etes
Ġflo ors
Ġident ifies
ab ases
( (\
am on
Ã¡ ndez
E SS
r vert
ile vel
dat aset
ĠTh read
ass umption
Ġline up
ĠI ter
H K
re ma
co le
}$ &
Ġinnov ative
ĠBas in
op rano
ĠBarn es
ĠV ale
ĠSh ould
ĠPubl ishers
ĠEthiop ia
ĠB CE
Ġperm issions
Ġsat ellites
J on
} --
ĠA ircraft
ĠH ave
ĠE ye
reed y
rend ered
ĠNapole on
ad v
Ġj ack
ĠAg ent
ĠK ang
Ġapp endix
ĠRem ix
A UT
ĠV ision
b undle
af a
med ium
oc cup
Ġd ish
V O
Cont ents
g as
d ia
Ġmay be
Ġmot if
Ġcot ton
ram id
20 8
ĠSil va
Ġl ip
Ġsw ord
Ġdeter ior
Ġell ip
Ġout lined
ĠCarol ine
Ġon set
per cent
ĠEd gar
B G
Ġshould er
Ġtra ff
Ġlocal ities
do es
ĠM W
ĠJ i
ss l
pi res
Ġte a
pos er
V ICE
Ġg est
Ġrad iative
integ ral
ivid ually
Ġmanuscript s
ĠL ect
18 21
Ġlater al
Ġinhab ited
Ġh ometown
Ġviscos ity
Ġen roll
O rd
T L
t uple
I sl
Ġdef ects
t el
ĠBav aria
v iv
Ġquant ization
re act
ĠS isters
Ġjournal ism
ĠA A
ce ut
ĠV at
Ġs ack
ĠD ew
Ġch orus
^* ,
Ġcapt uring
Ġtro ubl
Nav igation
~~ ~
Ġ" .
ĠHug o
x html
it ary
Ã¡ r
ĠInter state
att ices
trans action
Ġgather ing
ĠF ay
, +
Ġant ib
ups ilon
Ġspr int
. }}
Ġreg imes
V an
ĠPresident ial
Ġmy sterious
Pol y
Ġb eneath
Ġpriv ately
j Query
Ġd ressed
ĠB ac
phys ics
Ġcongreg ation
ĠĠĠĠĠĠĠĠĠĠĠĠĠĠĠĠĠĠĠĠĠĠĠĠĠĠĠĠĠĠĠĠ ĠĠĠĠĠĠĠĠĠĠĠĠĠĠĠ
ĠCan cer
Ġpur ple
Ġdesc riptor
osp ace
Row s
ĠD ud
ĠB oeing
em it
d h
S and
R h
Ġv it
found land
M us
aras htra
ĠH ack
Not Found
Ġaddition ally
ĠCour se
ĠProgram me
Ġinvert ible
ĠB j
arma ceut
× ķ
ĠT ot
sur ance
Ġsub stance
ĠAcadem ic
T ake
al one
Event Listener
C ONT
Ġmon uments
Ġmission ary
ASS ERT
equ ilibrium
Ġbe er
Ġman ually
ym ph
Ġisol ation
33 3
Ġswim mers
equival ent
al la
ĠK ad
ĠSe oul
ew ard
ess ment
ray s
Ġle ak
Ġd ock
Ġad equate
Ġsub scription
Ġlin king
Ġinter pre
Ġtw isted
ĠA ug
ĠM ale
Trans fer
Ġb undles
Ġarray s
Ġterrit orial
ĠM otion
ĠMax im
Ġf reed
t oc
ĠGra duate
Town s
Ġn ested
Ġreven ge
Play ing
c ot
}^ -
cont rolled
40 4
pan cy
anc a
le en
ĠBrad ford
)- (
vent ions
er ial
ĠEd monton
ed ar
AN G
ĠU t
ĠR L
}$ ~
Ġen listed
und ers
w ik
Ġrom ance
Ġelab orate
ĠĠĠĠĠĠĠĠ ĠĠĊ
Ġins u
Ġcapt ures
l c
ĠPla za
Ġr h
Ġrest art
ver ify
oub les
V irtual
ĠLyn n
Ġwat ched
ta iled
Ġneighborhood s
ĠR S
}}{ (
Ġpup ils
ĠUtt ar
Ġcomb ines
Ġens uring
Ġbound ing
be am
Ġaut umn
Ġpres idency
N i
Ġsh ar
contin uous
}\, .
sc ience
yn chron
s afe
ĠD im
Ġsy l
Ġexpl oring
Ġscreen writer
Ð¾Ð ´
ĠAchie vement
22 4
Ġâ ĪĴ
d g
AS P
ĠMor rison
Ġst aged
Comp iler
ĠBir th
Ġpro sper
Ġ\\ \
Ġmagn itudes
sup set
al ert
ir ate
ĠWes ley
sh an
17 90
Ġex ec
ĠK iss
ĠBed ford
in ks
ed uc
)) ^
Ã ®
W at
Ġp ace
top ic
at aka
Ġbos ons
ĠEll en
ĠH iro
F un
ĠInd ividual
Ġd ying
Ġhar ass
Ġs its
Ġ( .
ĠL ey
art e
n ick
B reak
i ary
)$ )
Ġco res
ĠV iv
ĠRes ult
for table
Ġr ivals
... ]
Enc oding
Ga ussian
ĠBud apest
r ules
Ġmed ic
stitut ed
Ġclot hes
ĠK aw
ĠSh im
Ġb racket
Ġmob ility
N Y
ices ter
the ore
Ġmem ories
Ġsp ite
Con tact
Ġdi ocese
p it
Fail ure
Ġprevent ing
ĠPubl ished
Ġspace craft
ĠSerge ant
m eter
ron ics
ar ium
ĠBel le
ĠBor is
and i
Ġadjust ed
ĠG ross
an mar
Ġb ol
Ġthere in
p ars
ĠAgric ultural
14 9
inst on
Dep th
Ġch ap
te ch
M ir
oun s
ĠCh uck
ĠC ell
sub mit
Ġf ol
represent ation
ĠM BA
ĠD und
}, $
f lix
| &
ĠEnter prise
Ġdetermin ant
rosso ver
Ġoscill ation
Ġtri angles
Sign ature
ĠLanc aster
att en
ĠR oc
Ġperturb ative
ĠIN TO
al ions
M G
Ġe gg
Ġminim izing
ĠH aus
Ġal umin
Ġanomal ous
ĠP romise
to ok
atern ity
Ġmot ions
Ġexpat riates
t bl
ĠUSS R
ĠSh ore
Ġpair wise
Ġfaith ful
rid es
Ġstri kes
Ġslow er
en ers
un ches
ĠHol ocaust
ĠBur ke
ĠH ood
ĠCom plete
ĠRe in
ab stract
Ġbe ams
b racket
ĠK ids
c amp
ĠMc N
ogn ition
ĠLiter ary
E c
dec om
ĠTh ir
Mach ine
/ "
ĠL LC
ĠE t
all i
ĠSab ha
en ario
ĠE val
Ġdo zen
J er
ĠD ong
og on
ĠNE AT
H op
Ġe ating
s it
Con clusions
ak o
d eb
st rict
Ġdepict ing
Ġg aps
ĠFig s
B ounds
Ġdevelop s
Ġord ained
Ġprompt ed
Ġc ock
Ġgu ided
ĠML B
18 18
ent a
ĠS ession
ĠWhe ther
Ġhon ey
Ġpar as
ĠC rystal
C hen
Ñ Ī
] }$
Ġwe igh
F D
b la
ĠH ert
dep recated
ĠKazakh stan
H u
ĠK yle
Ġunderta ken
Ġfar mer
× Ļ
ĠMy anmar
Ġshell s
HER E
\ `
^* _{
Ġf ru
ia e
Ġdiagn osis
ĠPl at
Ġinter im
ĠJane iro
$ ^{\
Ġfactor ization
Ġlect urer
ĠC ly
Âł Âł
Ch icago
cell color
V V
Ð½ Ð¸
ik k
C AC
Ġsee ks
dimens ion
ĠTasman ia
ĠLithuan ian
ENTR Y
Ġperform er
Ġtre as
Ġexpla ining
Ġs ulf
m x
ĠP lymouth
Ġexclud e
Ġwithd rawn
Ġwithdraw al
ĠElli ott
ĠC B
Ġopin ions
ĠChron icle
um ably
Th row
cor r
ĠAlb any
ĠAlger ia
f u
ĠCom par
\\ [
ust ration
Ġfavour ite
Ġmod est
ĠSant os
Ġh o
**** **
T i
ĠCub s
Ġscript s
ord e
con sum
Ġstat istic
Ġ ----------------------------------------------------------------
eg ie
ĠWe ather
'] );
U ST
ĠJer emy
charg ed
Ex pected
rac es
Ġdec oding
G W
ĠB alk
E astern
ĠD ifferent
aver age
15 9
Ġfeed ing
Sw iss
Ġ@ "
Cal ifornia
Sc ience
W ild
Ġp unct
Ġinf ected
âĢ ĺ
d dot
ĠA FL
anc ies
ĠM I
Ġfib ers
Ġcomplet eness
ĠN iel
ad joint
sat z
Ġconc aten
T s
Ġin ad
as aki
ĠChile an
ĠEx per
Ġtri ps
cept ions
Ġproceed ed
Ġfurn iture
rot ate
Ġcor poration
ĠD w
Ġrecept or
ĠIt em
Ph ase
Ġrem ind
Ġafter math
ĠNap les
Ġru ins
al gebras
16 3
ag ascar
ĠAdd ress
ĠBe ing
communic ations
ĠT roy
ch urch
UN D
ĠRh ine
Ġs outheastern
ĠH AL
Ġover lo
ĠCh ancellor
Ġinter ven
Ġoccas ional
ĠB ronze
Ġpar ishes
Ġmot iv
ĠWind sor
to o
CO M
pl ier
pro ved
tab les
(" #
ĠBur ton
18 22
Ġbul let
cl ub
ĠAber de
ĠAssoci ate
Ġp c
S ar
Ġcon ce
ĠK end
Ġpe ers
6 50
f ootball
op us
d ates
Ġheadquarter ed
Ġpoll ution
Î ·
Ġcompat ibility
ä ½
ut ing
ĠR ica
S outhern
20 4
Ġpro c
Que en
Ġthermod ynamic
ol an
ĠK ann
ĠIn side
] ))
Ġthe ology
St udio
ro ught
st rip
ĠExcell ence
Ġe V
Ġautom ated
Cl imate
ĠCoul omb
Ġw rapped
comm ission
ĠRec ording
Ġcon form
direct ory
ion ic
add ed
Ġparticip ant
ili ation
Ġjud gment
A rab
ĠRos a
r ud
F G
en za
Ġn s
ĠHonor ary
ĠCol l
Us es
ĠT aking
Ġdo ctrine
ĠMin isters
g ement
ĠR ules
et les
ific ant
ĠAr ctic
)} }\
ĠPro gressive
e igen
Ġn od
ex istence
weight ed
f itting
id an
Ġmass less
u ana
Ġsent iment
Ġw are
ĠT itle
ce ae
Ġde fer
an an
ĠHard y
AM ES
period ic
F s
necess ary
V S
geq slant
ĠAp ollo
Ġsen ators
Ġpurs uit
ĠBe a
Ġop posing
Ġcommun icate
ĠP rec
Ġdifferent iable
Argent ine
Ġabbre vi
ĠSc ript
v ary
the ir
er als
Ġless er
ĠDod gers
ok i
Ġen orm
Ġv ault
Qu est
Ġf ran
Ġag gressive
ĠChem ical
sc hem
AT TR
ar re
R ANT
, [
ut z
ĠI z
99 9
Run ner
ĠMc Donald
Ġcarri ers
p aces
Ġdis able
Ġdoctor ate
p ref
inter action
head ing
ĠK w
ĠConfig uration
Ġlift ed
Ġrevers ed
C s
as an
Ġin jective
ĠRich ards
Ġm arri
az ar
run ner
E t
Ġam mun
he x
un ks
Ġb le
ĠP D
Ġtransl ator
ĠPrest on
Ġw reck
Ġv oyage
Ġdiscip line
> ;
Ġro ok
Cons umer
ĠB ec
ighth ouse
Ġmotor cycle
Ġg ods
ĠE isen
18 01
Ġfinal e
head ed
Ġarm ies
ĠM eyer
20 3
ĠN uclear
Ġcontext s
lac ian
Ġrecur ring
)$ ;
Ġglu on
Ġtrunc ated
G ate
ul ators
the o
ĠD ynam
ĠV ij
IC ATION
pre vious
Ġco herence
17 6
Ġconvent ions
Ġmin us
Ġlock ed
l ord
u o
ĠJul ius
b eq
ik er
Ñ İ
lac ier
is odes
Ġg odd
Am ount
P ark
Ġr ises
Ġflo oding
Ã µ
Ġ' ',
Ġcritic ised
Ġcov ariant
ĠN L
Ġsup porter
ĠU P
F a
ĠW IDTH
ĠSpring field
18 03
ĠMidd les
Ġshe ep
18 13
The me
Ġkill er
Ġm eter
Ġfilter ed
ob iography
g ae
Cor ollary
ĠD OM
Ġs ew
ĠArm s
Ġdiscuss ing
Ġb ore
Ġtrib al
Ġc ro
ĠP am
ĠN othing
q a
ĠL ords
Ġch ip
Ġconnect ivity
16 4
ic ode
at able
hook rightarrow
sc hed
ĠCom mercial
ant is
Ġmes on
Ġdesign ing
ex isting
Ġvin yl
Ġarg uing
ĠÄ Į
Ge ometry
m ixed
ĠL on
ath am
ĠMar tha
ĠSch warz
Ġviol ations
ĠA G
Ph ot
ĠChem istry
ĠM atrix
rest rict
Ġoptim ize
Conver ter
Ġspl its
se gment
Ġcon spiracy
ĠZ ero
Ac cept
ĠB oh
ĠW inner
per ture
rac use
Ġhur ricane
> )
p ad
G od
Ġgar rison
ĠGael ic
ile e
Ġj e
ĠMal colm
habilit ation
Ġf o
am ar
im edia
ĠWinn ipeg
st re
ĠId ent
ĠEston ian
y ellow
ĠK ind
)\ |_{
Ġinterview ed
et z
ĠS ev
Ġnob ility
ĠL ah
Ġel if
ĠK aren
Ġle pton
Ġmorph isms
u uid
$ ~\
Ġthe olog
00 3
|\ ,
Ġanalog ue
th ouse
Rec ent
ĠP ret
ĠLet ter
Ġuniqu eness
Ġp ond
23 5
Ġammun ition
ĠDirect ors
pect ives
Ġcontract ed
Ġbre ath
Ġemploy ing
ĠWAR RANT
Ġrank ings
ent ropy
ĠClass es
Ġpersonal ities
id ian
Sh ared
c ourt
en ary
Equ ation
Ġinitial ization
ĠD S
any a
Map per
ĠD epend
m inton
Ġif f
Ġstory line
ĠY emen
C ivil
Ġgen res
um en
od ec
An aly
ĠMaced onia
Ġbankrupt cy
Columb ia
ĠF antasy
Ġsp y
Ġsy s
Ġturbul ence
ĠHar bour
ĠG an
fl ict
ĠR O
}} ;
ely n
mar ines
flu x
list ing
ins ki
ĠS ect
Ġg la
Ġcomp lementary
m ile
s ocial
part ition
ĠD ynasty
.\ ]
24 5
Cy cl
N eg
ĠHay es
Ġtorped o
Ġt ile
Ġse al
Ġm ad
Ġsl ide
Ġr ulers
ĠU til
ĠRoche ster
ĠC ool
Ġaltern ating
Ġch lor
Ġ' %
se at
ĠS erv
Turk ish
ĠGar c
r z
ur c
ĠB rent
ĠE V
="../../../../../../ ../
Ġpass ive
ass adors
Ġcons ort
Ġbad ly
Ġfis cal
ĠN in
Ġde alt
z ier
Ġto pped
ĠStart ing
Ġwick ets
Miss ing
Ġwhe els
au f
With in
H aving
Ġf action
Ġrel ates
spect rum
Ġep it
Ġsem antics
ĠFer gus
s ided
al most
Ġcondem ned
ĠVar ious
S ort
ad os
F UN
ĠMalays ian
Ġcolon el
ount ers
rib le
Ġany where
Ġimplement ations
Ġthread s
ĠSac ram
ĠNew man
Ġant iqu
Ġg rate
16 2
ĠMil ton
ep pe
Ġn ortheastern
per formance
ĠBul ld
pat cher
Ġgirl friend
Ġlisten ers
Ġv ort
Ġretriev ed
A mazon
atta ch
Ġinsu fficient
Ġworks hop
ĠRiemann ian
Ġrev ision
ĠAlexand ria
Ġn m
"> (
ĠNew foundland
aff e
l icense
tr l
ĠMar ion
Ġmass acre
Ġlegend ary
Ġn ose
ĠJohn s
ĠAnd rea
3 75
L IN
Ġmand atory
New s
st ick
Israel i
D etail
in x
Ġcumul ative
Mod els
Ġt orsion
Ġexcit ations
Ġz eros
pe x
ĠJes se
t ouch
Ġw ound
Ġb if
ĠN umer
_ )
ĠS uk
Ġdiff e
ĠR out
Ġimp ression
ĠInter view
ĠBright on
a udio
Ġm all
pos able
Ġsophistic ated
ĠE lement
Trans ition
refer red
ĠCorn ell
Ġapproach ing
o ine
}: \
Ġninet eenth
erm ark
Ġext rap
leg end
Ġpat ri
ak k
M ust
Ġup set
ĠMin neapolis
Ġaccept s
ho ff
ĠLe ipzig
Ġmer ging
Foot notes
L ines
s ources
Ġp ounds
os ity
Ġleg ally
M arg
ig raph
Ġbass ist
Start ing
G i
r Vert
Ġg amb
ĠCD P
Ġprohib ited
ĠGust av
ÐµÐ½ Ð¸
ĠH ag
ĠJ ake
Col lect
label s
ĠDe lete
got ten
ill iant
Ġpract iced
ĠCre ates
ĠGram mar
ĠF O
F ixed
ri ent
Un iform
Ġl as
Ġpack ets
ut i
Ġcar ved
Ġgram mar
ĠMe h
ract ing
Ġpolar ized
ad j
T a
Ġpost pon
Ġinteg rity
ĠRed s
Ġfer ry
uff le
ĠDor othy
lym pi
Ġe cosystem
ĠL ik
Ġcont raction
ĠHal ifax
Po jo
Ġmathematic ian
c ancel
Ġp aired
Ġremov es
Ġwitness es
Ġin sects
18 27
s amples
Ġw ishes
Ġtermin ated
ĠA sc
ĠB ug
Ġapp rent
Ġcustom s
ĠG ur
ĠOther s
Ġre ass
ĠFig ures
ĠBra h
Ġs or
ĠP ine
Ġmod al
ĠR ever
Ġfemin ist
ĠP T
ĠF o
Ġat tained
ym es
f uture
Ġle ver
ĠP u
ĠGP U
Ġroll ing
Ġsubgroup s
Ġiniti atives
Ġopen ly
Ġsac red
J P
r ors
pl ots
Ġelectron ics
Ġd inner
En v
Ġcon sec
Ġimp ressed
d yn
associ ated
ĠRel igion
rew s
v card
Ġ{ },
ĠJo el
S lov
Ġan xi
cal c
Ġsal ary
ĠY uan
ĠInt el
16 1
ĠAdvent ure
T asks
| }\
ĠN otes
Ġrel uct
en ko
A ff
C NN
sh are
Ġemer gence
Ġstrugg led
t ier
getElement ById
b et
Ġdem o
Ġper ipher
Ġwavel engths
Ġhuman ity
Per iod
Ġle pt
Ġoutper forms
j ee
Ġsp at
ato es
zh ang
tim estamp
ced ure
ta k
Ġdel la
Ġmission aries
ĠF ont
ĠU FC
ĠKE Y
ĠC airo
Al g
i eg
or ange
ĠD iana
ram er
ĠH R
Ġkit chen
Ġin cent
CD ATA
Ġassass ination
Ġdef in
Ġhum or
' })
ĠL il
ĠE y
Ġm eth
Ġest ates
Ġf ractions
at ro
Ø ¯
ĠCrit ics
Ġde form
Ġexp elled
ink i
gener ic
ĠCla ude
ĠM R
la ke
Ġgra ins
q i
rif ice
ĠDep ression
ĠSup p
Ġess ays
in z
Ġspread ing
ĠSebast ian
st ars
tw itter
ĠHeavy weight
ant es
pon ym
Ġ$ _
ard ment
Ġb ipart
Ġiter ative
D eb
ise cond
G h
ĠMar qu
Ġadv ised
Ġrenormal ization
ĠChe ng
Ġp ig
ĠC anton
j b
Ġrespons ibilities
H OME
IN ST
Ġdram at
Ġcab in
D OM
ge ometry
ĠPar agu
ĠHun ting
ĠK um
Ġen closed
ĠTr uth
ĠBal let
A h
Ġcontest ants
ĠĠĠĠĠĠĠĠĠĠĠĠĠĠĠĠĠĠĠĠĠĠĠĠĠĠĠĠĠĠĠĠ ĠĠĠĠĠ
ĠV id
ĠBuddh ism
n at
ĠH ook
Ġsc ar
Ġdemand ing
K er
Ġan ger
}\ |\
Ġp ec
ĠCl ose
over rightarrow
Ġgeneral ize
ell es
path s
{ }{
Ġt d
-\ !
Ġsouth western
Pac ific
RE D
Ġtour ists
ĠSuper ior
Ġbatt ing
I Z
Ġem itted
ĠCle arly
ĠAppe als
B all
et ches
ĠP ione
ab l
}^{ *
Ġenter prise
ious ly
ĠMerc ury
Ġ| =
Ġf aint
Ġs ad
N ING
Ġlo ose
Germ any
ĠTh ames
Ġexp ense
AT ED
class Name
Ġreli ability
O cc
ĠK Ã¶
J ones
itt ers
Ġcust ody
L ear
y t
Ù Ĭ
Ġprem ises
Ġcycl ing
se ed
Ġdomin ate
Ġsaf ely
Ġamb ient
ĠTe h
ab br
'' $
ĠSub sequently
Ġdrop ping
U BL
ĠC IA
att ing
Ġenc ounters
ge ons
Ġsp anned
arv ae
ĠP on
ĠW inners
ĠInt roduction
Ġesc ort
U pload
ĠL ines
ĠB end
ann ah
Part ition
rosc opic
Ġsk ull
ke V
ĠSt okes
Ġdel ays
clud ed
oh an
UN T
- }
get own
con vert
ĠG ul
ĠLank an
Ġdiagn osed
ou rable
Ð¾Ð ¼
ĠBol ivia
ĠIndust ries
Mon th
ĠT ry
ĠIn surance
ure a
Ġnot ations
dot ted
ĠÂ «
ĠMar ian
, $$
ĠP omer
AT CH
ĠC laim
Ġport al
Ġdeleg ation
is se
ĠBo hem
ĠUrugu ay
ĠG rid
Decl aration
Ã© d
22 2
ĠKn ox
U nd
r ÃŃ
repe at
US Y
ð Ł
ĠJam ie
Uk rainian
edd ed
quest ion
Ġmilit ia
ĠÂ »
E s
Î ¼
pe i
., ][]{
). \
ev es
Ġmo ist
Ar ts
r ases
Ġaggreg ation
Ġport raits
R am
20 6
al go
Eff ect
Ġsw ing
ro tt
ĠBang kok
al bum
ĠOr d
ĠG ian
ĠChief s
ĠC lement
Ġ' .
ĠBrown s
ĠD awn
ĠH ousing
vent h
ĠJ son
Rec ords
ru ce
sh ine
ogen ic
ĠH ond
Log in
Th ough
)} ]
ĠSol id
Ġ ...,
18 16
ĠBra ves
Ġwild life
18 23
Tim estamp
ĠG ir
ĠMos es
b il
inc ar
Ġred shifts
Ġn ights
sp ot
Ġreflect ing
ĠPant hers
g raphics
th ood
M as
ev ol
Ġoff ense
IP S
Ġpl ural
d ad
Con tains
K A
ident ified
P ot
8 50
Column s
bat im
ver batim
Tem p
trans port
ĠRaid ers
oph on
ĠBuild er
Ġshort est
Ð½ Ð°
=\ ,
item pty
Ã¼ ller
i ade
Ġguitar ists
Ġf etch
ĠMon ument
ĠLyn ch
ĠCoal ition
ĠTreas ury
Ġ' ./
Ġfound ations
W inners
er cis
ct uation
ĠCre ative
ĠMah arashtra
Ġsubstr ate
4 80
Ag greg
Ġquestion ed
Ġg arn
ĠGib bs
Car thy
ĠMar co
Ġworks hops
om itempty
ĠI X
}) +
Ġaccording ly
S on
ĠS it
ĠW olver
uc a
Ġtoler ance
Ġnever theless
ĠUl ster
ĠH its
Ġd ors
Ġge ographical
annot ations
O O
Ġb less
K B
ro ft
ĠS ed
ĠStef an
Run ning
ĠDay ton
with in
ĠErn st
Ġdeleg ates
ch us
Part y
ĠHein rich
ĠD ylan
Ġinitial ized
Ġham let
ĠWal sh
in verse
log y
E lections
oc es
Ġro d
c in
Ġillust rations
Ġprop ri
MM ARY
ĠCol lections
s chool
ĠÅ ģ
M icro
om ers
Ġsen ator
à¤ ¾
append ix
da ughter
Ġpredict s
ĠProt ocol
Ġind ividually
no align
ĠTre k
ĠD L
ĠE R
amp ire
ys on
J oe
m ust
New ton
ĠEm il
ĠTrib une
Ġult imate
HE AD
] _{\
ĠLog an
Ġl aps
ĠM Äģ
cl iffe
ad ia
bal ance
17 2
ho o
Draw ing
opter a
ĠImp act
Ġnick named
Ġabund ances
pt ical
P HP
ĠSouth west
Ġa mp
stit utes
Sh ader
Ġtend ency
D ash
Ġb apt
Ġam endment
ĠPla in
Ġcollect or
Ġl ighter
os ion
Ġep ic
) '
Ch ris
D ar
AA F
glyph icon
ast ed
nav igation
cles iast
Ġingred ients
18 06
Ġlimit ation
Ġsub species
N I
Ġmet als
Ġreal m
ĠC ounc
Ġcon quest
ĠEnt ry
seud o
ĠPal omar
2 12
Ġre print
ĠBeat les
Ġren ovation
Im ages
ĠRab bi
Ġb ills
Ġr amp
prop ag
ĠMod els
ĠNS W
Disc ussion
Ġab st
ĠUs ed
Ġanisot ropy
Ġcell ular
ĠMad agascar
Ġs ink
Ed ward
ĠMod ule
Ġcontin ental
ĠSch r
m kern
Ġlif estyle
B ank
ĠHy per
Ù Ī
ĠMon roe
Ġrob ots
Ġrev ived
Ġbus y
ĠM ell
ĠThe odore
act ual
Ġspe aks
ĠFl ash
w at
d ens
em i
| $.
ĠW on
Ġloc als
r ific
}\ |_{
ĠB har
m ud
ĠZ amb
ur ring
sign al
Ġveget ation
rog ate
Ġcomp ressed
M ic
j j
v r
ĠEmer gency
Ġhigh ways
Ġref ined
ĠDra ke
.\ ,\
Ġdissip ation
Ġtick ets
ĠC V
ĠPol l
triang leq
Ġrout ing
Ġc ube
I ran
ĠJohn ston
sm outh
Option al
ĠGu jar
symmet ry
Ġp el
ĠEp isode
Ġcomm ittees
Sep ar
Ġre he
Ġacadem ics
W arn
17 7
Ġgrand mother
W hy
m icro
ĠCol ony
Ġm ansion
ĠH MS
part icular
ĠWe i
Ġab ortion
ĠÄ Ĳ
Ġint ra
Be etles
;\;\ ;\;\
ĠGreat est
ĠCop a
Ġmanufact ure
ĠT ABLE
ÑĢ Ð¸
ĠNe umann
Ġb acter
y x
Ġtrans ient
log o
ĠBO OST
comp ress
á ŀ
th reshold
Ġkn ot
Ġadv ocated
Ġrelev ance
ĠPh oto
3 40
D id
ĠDar win
Ġstep ped
DE X
? }
Ġb ij
Ġorigin ating
Ġtorn ado
ĠS FR
ĠCraw ford
ĠSch midt
M X
Ġpropag anda
fri ed
Ġfin ishes
in ar
ĠW ings
aren cy
ĠA bs
ur ities
ve ction
n v
ĠGriff ith
od ium
/* !
P ress
omet ime
ĠÂ ·
erm o
Ġg a
Ġsur veillance
get Id
Ġfail ures
ĠJ ets
por a
ĠG ospel
Ġd ancers
Ġcom plications
def er
Ġflow n
Ġbuck et
h ouses
ĠV oc
) ||
ĠQ atar
ĠSum mit
W IN
Ġen force
The ir
Rem ark
Ch anges
^+ (
Ġ umb
al tern
Oper ations
ing ers
ĠR ifle
ĠTh anks
Ġhand ball
Ġeng ra
Ġprot ecting
Ġevol ve
ogene ity
ĠR oth
Ġveter ans
ic ism
ĠMin i
Ġox id
ad just
the m
p ark
Ġsched uling
l um
Ġmorph ology
m itting
ĠZ en
Ġdimension less
Ġutil izing
}-- \
C orn
ĠU nd
Ġbroad caster
Â »
C over
Ġl ord
Ġcommand ing
Ġequ ity
Ġanaly zing
A H
ant o
Arg uments
Ġaband on
lo o
ĠT ank
m ime
ass is
Ã ²
Ï ħ
includ es
Ġbr ut
f bb
ĠJud a
role um
Ġbary on
ĠZ ion
R oy
log ging
Ġcon ceived
Ġhot els
ĠG av
}}{ {\
j d
Ġv ig
ĠJ ur
F ish
n ational
M ixed
w u
pt iles
Al pha
Ġc ere
Ġh ack
ĠAn imal
az a
Ġl ith
Ġassign ments
Ġteam mate
Ġconcent rations
ĠEd win
Ap pro
eyn man
T ouch
m and
^+ _
ct ica
ĠG M
Ġsp acing
Ġdiscre pancy
Ġpar abolic
ĠRoman ized
Ġins ights
at tack
BU IL
Ġbow l
2 15
Ù Ĩ
ĠKos ovo
Ġm yself
ĠThom son
ĠMar itime
ĠSc out
ĠAm ateur
Ġc ra
ĠB ent
olog ne
ĠLat via
Ġsyn c
Ġcast ing
ĠBalt ic
ĠW aters
ĠAr senal
m ind
LA Y
b ons
other wise
Ġpod cast
g age
il ogy
ott ing
Ġinf initely
p k
ĠH appy
ĠK od
vi ol
Ġqu it
D oug
=\ !
ĠJul ie
Ġfort ress
Ġreson ant
ĠR he
ĠL ed
Ġpers istent
SO UR
Ġaccident ally
Ġinstruct or
^ -\
AS K
Ġbox er
ĠCharl eston
18 19
ĠKenn y
d w
Ġsit com
w ings
ĠT ul
v ity
Ġour selves
us hes
Ġsocial ist
Ġsimultane ous
ĠMA X
LO W
gu ard
ĠH ank
ĠCl imate
Ġserv ants
ĠProdu cer
Ġphilanth rop
ĠV ery
ip linary
17 3
$ ^\
m obile
sh ots
Ð» Ð¸
Ġresemb les
Ġsail ors
' "
ĠF uj
ĠAr d
! }
Pro blem
t u
ĠEv olution
E A
F eed
Ġinteg rable
ah ler
0 10
ĠP ere
ĠPatri ots
Ġunve iled
Ä Ĺ
R os
RA Y
18 17
us ually
ĠF alk
w iki
itro gen
Ġn urse
Ġref uses
Ġhar vest
AV E
Ġmon omial
rem ote
Ġun c
$ ]
ill i
Ġseem ingly
Ġret ire
Ġbatter ies
E r
ĠH erman
ib ling
ron es
Pro b
ercis es
w ere
re duce
3 65
li u
ĠMan or
Ġprom otional
A k
emb les
ĠDem ocracy
ĠRock y
s il
mer cially
Ġam id
Ġc ached
ĠAp plied
Ġinv oked
E F
P ur
ĠMar ines
il us
ĠP ool
}} -\
Ġdes irable
Ġair ing
ĠB in
ĠCl ara
ĠSing er
Ġindex ed
ic her
ov ic
Ġsur geon
Ġmon ks
Ġlo ans
/ ">
00 4
elect ron
Ġb rackets
get Instance
Ġmet re
W all
ĠTe legraph
.* ;
ĠB rom
mach ine
en code
ĠL java
18 09
Ġspec imen
ĠM oss
ĠEuro vision
Ġhard er
ĠVict ory
ĠN etworks
ĠCam ero
unn ers
or ic
b locks
ĠSax ony
Ġspectrosc opic
23 4
Ġgame play
Ġsem ifinals
ĠSem inary
T X
Ġl ots
ĠTanz ania
fl ies
Ġfermion ic
i ar
Ġo wing
30 4
ip es
Ġrun way
Ġrev olt
Ġ& -
Ġtrac ed
ĠGreen e
Ġsub stitution
FF ER
sd k
Ġinaug urated
Ġreg ulatory
Ġst ems
Depend ency
Ġs addle
Ch apter
Ġtw entieth
Ġt aste
Ġcancel ed
ĠFor bes
B re
an ch
bour g
Ð¾Ð ³
uv ian
un ting
art on
}} }(
Ġk pc
18 08
Ġv m
it as
Ġstreng ths
Ġmed all
enc oding
conver gence
oc om
Ġsimplic ial
17 4
Ġdis advan
ĠAnn ie
Ġhypot heses
st retch
ĠV or
Ġbreak down
ĠAn aly
ĠRef s
\ @
Ã¼ ck
Ep isode
ĠR up
ari at
nt on
sc an
Err ors
ĠDrag ons
ĠLouis ville
K en
ĠCh amp
ĠT error
Ġp ric
Ġs el
ĠO C
cp u
17 58
Ġviol ated
ĠâĢ ¦
ĠReg ular
Ġs ab
ĠK oh
18 2
rop olis
m ov
om al
Ġavoid ing
is ers
ev olution
ES CO
ĠCow boys
TR AN
Ġcryst all
haus en
> ()
ĠS tern
Ġdist ortion
approxim ation
F ri
ĠE aster
ĠF P
to oltip
Ġaugment ed
Amer ica
ĠW W
Ġreg iments
che t
U AL
Ġd iving
55 5
and in
get String
M ike
P romise
Ġacc us
IM PORT
allow ed
und o
Ġman or
g em
| ,
T imes
]{ @{}
; |&
Ġil leg
ĠConstitution al
30 1
Ġhabit ats
Ġmaxim ize
n ar
ong s
Ġrival ry
Ð ¶
Ġpol o
f orth
ig g
* {\
21 4
r pc
à ¹
vari ables
v ian
ĠG lor
Ġexpert ise
ĠSpeed way
e clipse
d ar
ĠK ane
ĠCon nection
Ġspec ifies
ĠAn imation
Ġ um
Ġb lo
unn els
Ġquad rup
ĠAtl as
AC CE
Ġp iv
Ġten or
Ġf older
Ġinters ections
ĠInn ovation
an us
ĠB erm
Rep resent
U A
Ã¢ te
M i
f rames
Ġp ul
Ġarch ives
ĠL Ã©
}), \
Ġconduct ivity
Ġphysic ist
Ġend angered
Cath olic
att i
ĠElect ronic
Ġte lev
}: =\
Ġestim ators
Ġpil grim
Mex ican
17 1
Ġreg ret
ĠSte phan
ĠSuff olk
( ()
Ġsub mission
){ $
Ð½ Ñĭ
ĠS equ
vis ual
ĠBla ir
t un
ĠB io
Ġflow ering
ĠGuatem ala
Ġex empl
an ium
Ġut ter
ĠLad ies
ĠMonteneg ro
Ġst iff
Ġre written
ĠBul let
en h
Ġreleg ation
row span
ãģ ®
Te ams
ĠExp ression
Ġpro gen
Ġplant ed
ĠWhit ney
sc ribe
y cle
Ġbal let
b k
Ġmod ulo
Ġtheorem s
Ġexceed s
Ġto y
20 7
W ho
Ġdirect ing
Ġharm ony
Alex ander
Ġbom bs
ĠS ize
n r
And roid
p enter
it ated
Ġc ens
ĠL R
Pre v
% ).
T ensor
ĠY osh
Ap pe
Ġder ives
Ġsp ans
ĠX V
Ġforb idden
Ġred irect
second ary
ĠL ep
ĠTour ism
em por
ĠRom ans
c mp
ĠT oo
17 8
Ġlast ing
P laces
V en
\ ),
ap prop
M essages
(" %
Ġhand les
hor se
ob ar
ĠBas el
Ġcor pus
n ets
18 4
d ong
ĠE yes
ĠBald win
Ġannih ilation
Mod ified
ĠPl atform
H older
ĠB agh
Ġmet eor
ract or
Ġprob abilistic
Ġbenef icial
Output Stream
ĠKu wait
g lob
- ,
ĠCarn egie
p ure
ĠS ard
ibr ations
27 5
Sc ore
fact uring
im ar
Ġvis itor
}$ \\
label ed
17 9
Ġ( +
Ġsub marines
External Task
ĠBet ty
ĠConstantin ople
Ġly ric
ĠP iet
olith ic
the l
ced es
neut ral
e astern
ĠD ry
ikh ail
Ġf lora
ĠC risis
Ġb ones
as ium
M os
Ġspons or
scal a
Ġsn ake
ici ary
Ġlegit imate
Ġfilm maker
æ ĺ
ĠF ra
ain es
Ã¨ ne
ĠInd o
^* $.
board s
av g
Ġap olog
Ġtri ang
b age
ubb ard
Ġconcept ual
Ġacc idents
ĠBut ter
Ġacceler ated
Ġf riction
ĠW er
Ġreve aling
Ġmos que
ine q
k le
Ġp i
Ġst air
os o
Ġprior i
STAT US
im plies
_+ $
v id
App endix
) ]{
Ġanth ology
ĠN orton
Ġturbul ent
Ġreson ances
ĠV it
ĠAssoci ated
ĠS ag
Ġacclaim ed
ĠF is
Ag ain
ĠA TP
Ġrep ly
Ġboard ing
im uth
00 000
Ġaddress ing
C u
bas is
ĠB eg
C as
Ġt u
Ġin set
Ne ill
n ucle
ĠM N
4 000
led on
Met rics
Ġretriev al
ĠNAS CAR
Ar c
d st
ĠC MB
de cl
Ġ} (
Arch itecture
oph ys
Ġblock ing
ĠGarc ÃŃa
ĠL ing
_{\ {
Pier re
20 9
arc sec
isc ount
Ġflex ibility
Ġtact ics
el ic
ĠCom ment
Ġel ong
S pect
Ġas ymmetric
Ġsol ver
Ġdram atically
com be
ten ham
J ournal
ist on
Ġvac ant
ĠSpec ies
Ġk iss
x f
All oc
Ġa perture
Ġ è
ĠA V
C roat
S ig
cl amation
Ġrail ways
ĠSof ia
Ġemer ge
ĠGriff in
ĠLe icester
yl on
ĠJ ag
e cca
Ġconst rain
Ġfro zen
ĠPar se
? )
Ġob s
( ['
Ġb rane
ĠH E
Ġpredict ive
D irection
ĠMur der
Ġrep airs
Ġfin anc
18 11
Tour ist
Ġco ordination
Array List
Ġax ial
Ġcommission er
Ġrenov ated
Ġrefer enced
ĠGar cia
Ġparam etric
Ġre lying
F ALSE
Ġfix ing
ul in
}} [
ash ing
T AG
Ġlat ency
e conom
ĠE du
Ġse aled
ud o
Be en
let cher
ĠJess ica
S eq
y en
}^{ -\
Ġvacc ine
ou k
ĠB ren
ĠOl iv
Ġplanet ary
ĠBrun o
ĠGeor ges
bra him
Ġad iab
ĠT rip
Ġhe ct
Ġspecific ations
Ġtrans fers
Ġpubl ishers
ĠInit iative
H ong
ĠW WE
Ġp ent
Ġun ited
ExternalTask Pojo
ĠS EC
ĠF ant
g z
Ġund ers
ast ings
Ġorgan ize
ĠPl us
Ġtreat ments
ih ar
ĠMid lands
K G
log ical
Ġde ceased
W D
process or
ĠSU MMARY
Ġmiss iles
Ġam alg
ĠB es
ĠR ag
ĠWeb b
ĠRic ci
ĠClif ford
A sh
Ġwitness ed
ĠF iji
ĠA F
duct or
utr ition
ta ker
ĠSup porting
ĠAg u
17 94
ĠJ et
Ġa rose
isp here
ĠH oll
LE MENT
Ġpro ud
ĠIss ue
Ġs unk
ĠKarn ataka
en vironment
Ã¨ res
Ġancest or
ĠS ara
l Vert
ĠHaw ks
Ġ} .
gra ve
ĠW ander
ad oc
qu o
UE ST
PRO P
ĠWrit er
ĠC N
omorphism s
LE TE
Ġrecurs ive
ĠN ixon
Ġb esides
ĠS ent
ol ate
ĠL af
og h
Ġnorth western
iform es
Q CD
ib us
Ġsub urbs
ĠM ey
0000 0000
ĠM ink
School s
\ ).
ĠB row
ograph s
ST AR
Ġqu arters
opl an
ion es
ĠJoh an
ĠS ugar
17 93
rt l
C op
v p
ba um
po i
ĠJ ourney
Ġphot ometry
ĠG A
Ġcontribut or
Ġcont ours
Ġaccept ing
Ġnew er
ĠSic ily
E ll
Ġup ris
Ġsat uration
E lection
Ġin tact
Ġconv iction
taint y
ĠF ur
Ġm aternal
ĠPoint s
b red
Ġt s
Ġtest imony
ĠI TV
}) }{\
Ġpen insula
ĠP O
ĠV k
ir ling
ĠCom ponent
Ġplate au
ĠÐ ¼
b rown
ĠMes a
Histor ical
le ad
ĠL al
sw ing
z ar
Ġdis puted
h pp
Ġtrain er
g re
ĠE ducational
ĠV eh
Ġcoordin ator
ĠGre ens
H ook
Ġb acks
Ġgen uine
ĠLead ership
Ġfac ade
Ġpregn ancy
ĠJosh ua
at u
Week ly
H ave
Ġthought s
23 7
ĠPr ussia
Ġion ization
Ġsumm ation
Ġpresc ribed
g c
ĠTerm inal
Ġanalog y
M obile
pher d
c io
Ġener get
ĠR GB
Sc ot
Ġkilomet res
Ġadm ission
Ġb ot
18 3
Ġcrit ically
l f
P lease
{ #
Ġspectrosc opy
C amb
Ġlect ure
refer ences
18 6
Re ason
ierarch y
Ġimm une
Ġlik es
F lor
Ġclass Name
Ġto ugh
comp let
ĠBu ilt
L iga
ĠW ave
sc ribed
por ate
ĠCla ire
Ġp ion
Ġ[ ...]
c red
ĠA U
}}( {\
Ġa ria
ow itz
ta ur
Ġnot ions
Organ izations
Mountain s
wh ose
Ġsens ing
Ġincorpor ates
Ġh int
ĠP itt
ĠReg ulations
Ġelder ly
Ġcert ification
and ez
ĠG ymn
arri e
ales e
Sur face
Â ²
Ġterm ed
ĠMar ri
}= -\
cap s
Ġtra ils
J eff
Ġemploy s
ĠD up
Ġlik ed
ffbb bb
30 3
ĠM s
An th
check mark
ĠT ian
ĠC and
R GB
Ġm asks
Ġse cre
Art ists
clesiast ical
ĠH ubble
ĠV ish
Ġoscill ator
Ġtor que
head s
con cat
Ġrein force
Ġres cal
Ġpast or
rep o
ĠS ave
ĠU TC
and ed
ĠM T
Ġenc ryption
OL D
ĠDub ai
18 04
Ġinv itation
d iamond
st a
rac ed
ĠM iy
F re
K M
Ġto b
ther mal
Ġrecre ational
coupl ing
z ens
En able
Ġf ights
Ġl arvae
Ġreview er
Ġmut ation
ĠKer ry
ur ally
ĠL it
Ġbu ying
um per
g reat
t ick
Ġl ane
ĠStat istical
ĠC ash
ĠVAL IGN
Ġ( {
Ġsu ited
script s
Ġlook up
Dep recated
B ool
ĠA uth
Ġspat ially
re ation
Ġpar ade
Ġpermut ations
ĠO rt
ĠAd S
ĠCast ro
s man
v dash
S ix
Ġl ady
Ġshe af
M anu
ĠJen kins
ass ic
asc ular
Ġtub es
c ategories
ĠPsych ology
em ption
ĠBre nd
Ġbas ically
min imum
Ġgroup ed
Com puter
Ġconscious ness
Ġl iver
ĠP ok
rag ma
Ġdiscuss es
ĠDir ichlet
art ime
W ell
b h
ĠChurch ill
Ġb arriers
Ġjust ified
Ġh iding
18 07
c M
ĠS ister
ri que
Ġenorm ous
ĠC lem
Con sole
Ġassert True
io x
ĠRe agan
sing ular
ĠHero es
ĠChap man
Cre ated
m otion
Ġannot ations
ĠLis bon
ĠSt alin
ĠCor p
Ġsal v
CON FIG
Ġhypers ur
prec ision
Ġfold ed
ĠSand ers
es que
ĠSc ots
Ġdep ot
CO MM
Ġdon ations
Ġyield ing
T rigger
d ependence
Ġorgan isms
ĠRun time
ĠR ip
Ġoverla pping
up ta
Ġprefer ences
ĠH our
Ã©t ico
O x
c ence
17 98
Ġin ches
Ġtra iler
ĠBy te
ĠQu artet
ĠG ates
ĠPot ter
Ign ore
ĠEv ents
Ġlett ing
Ġattach ment
ĠBro ck
ev iÄĩ
AT OR
ĠProv idence
18 05
Ġnon negative
N AS
Pack et
Ġmamm als
rit ic
Ġph y
Ġ ÑĤ
Ġdestroy ing
erv ille
Ġcollabor ative
ĠSh an
ãĥ ¼
B BC
Ġan arch
on ey
t ers
fill ed
ĠTrin idad
\% .
Ġbin aries
ĠR NA
Ġdemonstr ating
ĠFre eman
Ġwarn ed
man agement
est ock
ĠS ind
Ġstay ing
Ġf oo
G ER
Gen us
ĠT ell
ze k
ĠC raft
Ġmar ble
ĠLev i
Ġdisp atch
ĠM ask
Ġgu y
ĠLaw s
p lain
ĠG ott
Ġreb el
ĠH ul
Ġpolit ically
ĠSte am
Ġenlarg ed
ĠW ong
ĠCons ult
ãĢ Ĥ
n of
Ġout going
ĠSen ators
Ġaccount ed
Ġsubdiv ision
ĠB attery
Ġcont amination
yl um
ĠDr ug
AP P
I J
Serb ian
)}\ \
f ragment
G EN
ĠDeut sche
ĠMad h
Äģ n
op p
IC AL
ĠIn ner
ĠAberde en
r ational
ĠB AS
Ġcor ollary
Ġtechn ological
Ġfix ture
ighbor hood
keep ing
Ġm ud
ra pe
Ġsh rub
Sup ported
Ex perimental
ĠR ole
Ġfe ather
Ġvirt ue
Sw itch
Ġin clusive
ĠT ucker
Ġsuggest ion
app le
Char acters
ind e
mult iple
3 80
ĠL ives
Ġaut hentication
Ġsem igroup
Ġ\ %
Re pe
ĠST ART
ĠBegin ning
Ġ= &
ĠCo leman
ĠD erek
alt Color
in en
}{ .
var iance
Un like
Ġmach inery
ĠSw itch
Eng land
Aust rian
ĠQu int
ĠVat ican
St ates
ĠPrim era
Ġsynchron ized
B ridge
an as
j ah
ĠAl leg
Ġre dd
Ġv i
ans en
N ick
ag ain
RE SU
O bserver
ak is
Ġ' "
cl er
^* $,
S G
p ole
Ġcycl ists
s al
am en
Ġup stream
Ġbuild s
ĠW D
ĠParam eters
Ġdet ective
ĠHy dro
l int
oc ide
Ġj ur
. ][]{
)\ )
Ġcons umed
ĠM ilit
ĠD ul
26 4
Ġcare ers
æ ķ
Name Link
ro uter
ill ation
ĠWill ie
observ ed
ary a
Ġinstitution al
Ġpractition ers
rab ility
IF AR
D anish
Mar ie
Ġt ilt
Ġn avy
ĠD iet
ĠSy mbol
com par
Ġgovern ance
lic enses
sp here
Ġfl ip
Ġtransl ates
F rames
c art
23 1
Ġdiv iding
ip el
Ġfe at
th umb
Ġch unk
ĠSt ructure
Id x
udd y
Ġancest ry
ĠLe af
ĠV es
Ġfact ories
utt gart
Ġmicrosc opic
n ian
Ġem otions
Ġshe ets
Ġmar itime
agre b
g am
Ġre min
erv ous
end e
nt hesis
ĠV ick
Ġfla re
ĠPerson al
Ðº Ð°
Ġcr ust
Ġtre ating
akar ta
un til
Ġreg ards
| +
con current
Ġdis putes
×ķ ×
ĠD ock
ÃŃ s
17 92
Ġco oking
at as
Ġnurs ing
Ġpenal ties
ĠCambod ia
Ġsh aft
Ġphys icians
- )
ĠB ian
ĠLeban ese
Ġtru cks
sh aw
AC H
Ġdat abases
ĠTe en
Ġreal izes
A ctions
ĠS SL
Ġlack ing
ks and
B LOCK
hed ron
Ġcom mercially
Ġexplan ations
Ġ$( {\
ĠS ap
id ays
Ġsn apshot
ĠPort smouth
Ñ Ħ
and e
Ġclass ify
17 00
Ġdis ag
Ġj umps
Ġpred icate
ĠEm irates
ĠFer ry
ĠÅ Į
on ica
Ġd orm
Ġindic ation
ĠNet flix
n x
Ġs ender
ĠR ao
Copy right
ĠBulld ogs
ĠBel t
eta iled
ĠUlt imate
Ġposit ively
Ġcre am
Ġw rap
ma ha
17 80
Ġinvest ed
R od
ĠS Y
17 89
Test ing
z an
ĠWor cester
oltz mann
min o
Ġwalk ed
j ani
Ġinvest ments
ĠR iley
rom atic
Ġmer gers
commut ative
W P
Res et
Ä ĵ
elf th
ĠR ough
he ed
11 11
ĠEx tra
em ann
te br
ĠAst ro
Ġcons erv
inn aeus
K al
ag ne
Ġbos onic
Ste ve
Ġrel ie
Ġhom eless
ĠSal em
T ick
à ´
ans on
Ġem it
F actor
M ov
ĠPear son
ĠW inston
can vas
pe g
b ins
Prot ected
ĠB rain
Ġprev ents
ok k
ĠRaf ael
in ous
ĠG it
Ġar ist
ter min
ĠMad onna
XX XX
Ġmod ulus
Ġpossess es
Ġ- =
yg on
hen ce
Ġauth ored
g iving
ĠR ather
/ {\
d B
Ġc anton
od el
Ġeight een
Ġimplicit ly
u en
ĠMichel le
3 25
Ġexcess ive
Ġcombin atorial
Ġequ iv
Data Type
Ġconst ructions
ĠHigh land
di ocese
ĠH ers
Ġcompla ints
Ant i
df s
Ġsn ap
Ġd ys
Ġred ist
Ġce iling
c ool
Ġbas ement
Ġlong time
For ce
ĠHerm ann
K w
Ġd amping
Ġtra its
(' <
Ġswim mer
ab ar
âĢĻ ,
/ $
Ġv iable
Ġ& =\
t ec
Ext ended
Å ¼
Ġres emble
Ġcal ib
Ġcerem onies
Ġout lets
Ġdomin ates
Ġmanip ulation
fac ed
K R
he ries
lem en
not ify
Ġdec is
ĠBry ant
aw k
P en
R on
ast on
On line
van ishing
Ġexpon ents
Ġdescend ant
ĠS leep
Ġconfigure d
23 2
pl anes
ĠD rew
Ġfac ial
Ġap par
99 99
desc ribe
ray ed
aut s
ĠMy stery
ĠFergus on
get Type
Ġhon est
m or
ĠF eb
Ġk inematic
Ex port
exp ansion
4 40
Ġinters ects
ĠPap ua
Ġadv ancing
ert s
mod ified
CRE ATE
Ġfil tration
Y our
ign ore
Ġsk ating
Ġw x
}\ {
Ġmagnet ization
I SE
ast ro
Ġimp lying
Ġreplic a
K ernel
ocol ate
tikz cd
keep ers
ĠF ol
ain ter
ĠCount ies
Ġl anes
Ġdegrad ation
Ġlim estone
ob tained
Ġlin er
Ġrep lay
Ġnational ist
Ġm aj
Ġst yl
ib ia
Rel ations
ĠP ale
ĠPr ide
Ġcooper ative
L ord
ĠFel ix
Ġtrump et
th rift
Ġexp enses
Ġmob il
Z hang
ĠEst ab
ĠAnn iversary
Ġbatt alions
ĠGa uss
Ġhar sh
Ġc rossover
ĠS lam
fin ity
Ġdiagn ostic
Ġ" >
Ġpropag ator
Ġcler k
ĠL und
ĠP apers
Ġb lu
17 95
Ġd ent
ven ile
Ġemphas ized
Ġendors ed
L IST
K P
Ġparad igm
les h
ĠRaj a
add Class
w ara
50 1
Sc ient
Liter al
Ġin quiry
ĠJ al
Ġobserv ers
Vis itor
Ġmu on
. \,
Ġsm oke
Ġig et
od on
ĠY ok
der r
ĠRober to
Ġcrown ed
Ġclimb ing
v ine
Ġt iles
st ri
math ring
K T
R ace
ĠF ilter
Ġquad r
NO DE
Ġminim ization
Ġp ine
ĠJ S
Ġloc us
Ġchrom os
nt y
ĠCal cul
Ġemb arked
Ġscreen ed
Ġaccum ulated
la ge
ĠSup erman
ĠStrateg ic
Ġcont amin
Ġdisc ount
__ )
ĠBe au
Del ay
t uning
Ġnot ification
create Element
ĠF est
00 7
T aking
bi ased
Ġnav bar
Ġ" ${
s ent
Ġflag ship
L ICENSE
ĠBad en
Ġpars ed
G ar
Ġl oud
D ot
Å ĳ
Ġupd ating
R eb
O H
Ġspons orship
ĠBrand on
ĠC redit
ĠM ets
Ġinvent or
Ġdam ages
Ġin ev
ag ogue
Ð½ Ð¾
Ġcontest ant
put ational
Writ ing
] ).
scal ing
Tex as
C AP
T re
mod es
act ivated
ĠOri ental
m orph
ill as
ĠM orm
W OR
ĠPat ricia
18 02
ĠAut om
Ġper f
Ġurg ed
as ive
ib ald
law s
Ġencourag ing
Ġbutter fly
Ġsepar ating
BP ACK
ĠGaz ette
ĠJ as
FI X
AR G
Ġoccup y
Ġsub urban
ĠIm ages
ĠNe uro
Mult iple
Î º
Ġsh or
I p
ĠD re
ĠSh ak
Ġphil osophical
Ġancest ors
b right
Ġr ushing
ĠDo es
Conn or
ĠSacram ento
ynam ical
ĠLab el
Ġresc ued
ĠC yp
ĠA ce
ax ter
Sc ene
Ġthrow ing
ĠLeg acy
ĠCase y
Ġl oses
spec ified
ĠAr n
ĠBan ach
Ġlux ury
Ġstrugg les
F at
Ġ uri
ĠĠĠĠĠĠĠĠĠĠĠĠĠĠĠĠĠĠĠĠĠĠĠĠĠĠĠĠĠĠĠĠ ĠĠĠĠĠĠ
Ġpromin ence
K ore
Ext ensions
ĠJuda ism
ĠR oma
Ã© es
ĠSett lement
Ġhad ronic
k ill
Ġfav ored
Ê ¼
ĠM ou
Ġtens ors
Ġap ilevel
text ure
ĠEl is
Ġpostpon ed
os ely
Ġl over
SP AN
ĠD art
ĠSer ial
Phys ical
min imal
C ancel
ĠK ais
ĠM orton
ty mology
Ġincre ment
18 1
light s
B rand
ĠH undred
ĠVern on
æ Ī
Ġsc orer
ĠC off
ĠStre ets
S hip
r x
ra id
SE C
22 8
ugg ed
Ġlic ence
ĠRe lease
ĠKrish na
ĠO lympi
B ang
pres ident
ĠN ass
ĠPhill ies
Ġab olition
Ġqu ote
]( #
imb ledon
ĠB ard
Ġdec ree
ĠA CT
Ġinter rupted
ĠRel igious
er en
Ġst ays
Ar r
ĠBo at
ĠAr ist
FI ELD
Ġra ids
can onical
ĠR A
y am
ĠP arent
log en
ĠJ upiter
ĠJ ah
Ġterror ism
Ġb eds
Ġsubt le
S ax
Ġredes ign
Ġrook ie
ĠSant o
Ġbelie ving
im ath
ul la
ĠG Hz
Ġare n
Ã³ pez
ĠC ologne
ĠD ise
ĠHam mer
Ġh ate
Ġk inemat
B oston
d anger
as ympt
pro c
ĠInd oor
)) }
unc iation
[ [
Ġe uro
ĠOs aka
Ġ\ )
Ġdis agre
Ġdig its
Ġc c
ov sk
St ub
ĠH ew
Ġpres umably
Ġsuggest ions
Ġpreced ed
(" \
iz ational
Ġreason ably
ank ar
Ġpr incess
[...]
