{
  "version": "1.0",
  "truncation": null,
  "padding": null,
  "added_tokens": [
    {
      "id": 0,
      "content": "[UNK]",
      "single_word": false,
      "lstrip": false,
      "rstrip": false,
      "normalized": false,
      "special": true
    }
  ],
  "normalizer": null,
  "pre_tokenizer": {
    "type": "Sequence",
    "pretokenizers": [
      {
        "type": "Digits",
        "individual_digits": false
      },
      {
        "type": "ByteLevel",
        "add_prefix_space": false,
        "trim_offsets": true,
        "use_regex": true
      }
    ]
  },
  "post_processor": null,
  "decoder": null,
  "model": {
    "type": "BPE",
    "dropout": null,
    "unk_token": "[UNK]",
    "continuing_subword_prefix": null,
    "end_of_word_suffix": null,
    "fuse_unk": false,
    "byte_fallback": false,
    "vocab": {
      "[UNK]": 0,
      "!": 1,
      "\"": 2,
      "#": 3,
      "$": 4,
      "%": 5,
      "&": 6,
      "'": 7,
      "(": 8,
      ")": 9,
      "*": 10,
      "+": 11,
      ",": 12,
      "-": 13,
      ".": 14,
      "/": 15,
      "0": 16,
      "1": 17,
      "2": 18,
      "3": 19,
      "4": 20,
      "5": 21,
      "6": 22,
      "7": 23,
      "8": 24,
      "9": 25,
      ":": 26,
      ";": 27,
      "<": 28,
      "=": 29,
      ">": 30,
      "?": 31,
      "@": 32,
      "A": 33,
      "B": 34,
      "C": 35,
      "D": 36,
      "E": 37,
      "F": 38,
      "G": 39,
      "H": 40,
      "I": 41,
      "J": 42,
      "K": 43,
      "L": 44,
      "M": 45,
      "N": 46,
      "O": 47,
      "P": 48,
      "Q": 49,
      "R": 50,
      "S": 51,
      "T": 52,
      "U": 53,
      "V": 54,
      "W": 55,
      "X": 56,
      "Y": 57,
      "Z": 58,
      "[": 59,
      "\\": 60,
      "]": 61,
      "^": 62,
      "_": 63,
      "`": 64,
      "a": 65,
      "b": 66,
      "c": 67,
      "d": 68,
      "e": 69,
      "f": 70,
      "g": 71,
      "h": 72,
      "i": 73,
      "j": 74,
      "k": 75,
      "l": 76,
      "m": 77,
      "n": 78,
      "o": 79,
      "p": 80,
      "q": 81,
      "r": 82,
      "s": 83,
      "t": 84,
      "u": 85,
      "v": 86,
      "w": 87,
      "x": 88,
      "y": 89,
      "z": 90,
      "{": 91,
      "|": 92,
      "}": 93,
      "~": 94,
      "¡": 95,
      "¢": 96,
      "£": 97,
      "¤": 98,
      "¥": 99,
      "¦": 100,
      "§": 101,
      "¨": 102,
      "©": 103,
      "ª": 104,
      "«": 105,
      "¬": 106,
      "®": 107,
      "¯": 108,
      "°": 109,
      "±": 110,
      "²": 111,
      "³": 112,
      "´": 113,
      "µ": 114,
      "¶": 115,
      "·": 116,
      "¸": 117,
      "¹": 118,
      "º": 119,
      "»": 120,
      "¼": 121,
      "½": 122,
      "¾": 123,
      "¿": 124,
      "Â": 125,
      "Ã": 126,
      "Ä": 127,
      "Å": 128,
      "Æ": 129,
      "Ç": 130,
      "È": 131,
      "É": 132,
      "Ê": 133,
      "Ë": 134,
      "Ì": 135,
      "Í": 136,
      "Î": 137,
      "Ï": 138,
      "Ð": 139,
      "Ñ": 140,
      "Ò": 141,
      "Ó": 142,
      "Ô": 143,
      "Õ": 144,
      "Ö": 145,
      "×": 146,
      "Ø": 147,
      "Ù": 148,
      "Ú": 149,
      "Û": 150,
      "Ü": 151,
      "Ý": 152,
      "Þ": 153,
      "ß": 154,
      "à": 155,
      "á": 156,
      "â": 157,
      "ã": 158,
      "ä": 159,
      "å": 160,
      "æ": 161,
      "ç": 162,
      "è": 163,
      "é": 164,
      "ê": 165,
      "ë": 166,
      "ì": 167,
      "í": 168,
      "î": 169,
      "ï": 170,
      "ð": 171,
      "ó": 172,
      "ô": 173,
      "Ā": 174,
      "ā": 175,
      "Ă": 176,
      "ă": 177,
      "Ą": 178,
      "ą": 179,
      "Ć": 180,
      "ć": 181,
      "Ĉ": 182,
      "ĉ": 183,
      "Ċ": 184,
      "ċ": 185,
      "Č": 186,
      "č": 187,
      "Ď": 188,
      "ď": 189,
      "Đ": 190,
      "đ": 191,
      "Ē": 192,
      "ē": 193,
      "Ĕ": 194,
      "ĕ": 195,
      "Ė": 196,
      "ė": 197,
      "Ę": 198,
      "ę": 199,
      "Ě": 200,
      "ě": 201,
      "Ĝ": 202,
      "ĝ": 203,
      "Ğ": 204,
      "ğ": 205,
      "Ġ": 206,
      "ġ": 207,
      "Ģ": 208,
      "ģ": 209,
      "Ĥ": 210,
      "ĥ": 211,
      "Ħ": 212,
      "ħ": 213,
      "Ĩ": 214,
      "ĩ": 215,
      "Ī": 216,
      "ī": 217,
      "Ĭ": 218,
      "ĭ": 219,
      "Į": 220,
      "į": 221,
      "İ": 222,
      "ı": 223,
      "Ĳ": 224,
      "ĳ": 225,
      "Ĵ": 226,
      "ĵ": 227,
      "Ķ": 228,
      "ķ": 229,
      "ĸ": 230,
      "Ĺ": 231,
      "ĺ": 232,
      "Ļ": 233,
      "ļ": 234,
      "Ľ": 235,
      "ľ": 236,
      "Ŀ": 237,
      "ŀ": 238,
      "Ł": 239,
      "ł": 240,
      "Ń": 241,
      "ĠĠ": 242,
      "Ġt": 243,
      "in": 244,
      "he": 245,
      "Ġa": 246,
      "on": 247,
      "er": 248,
      "re": 249,
      "Ġthe": 250,
      "at": 251,
      "en": 252,
      "or": 253,
      "ĠĠĠĠ": 254,
      "an": 255,
      "Ġs": 256,
      "al": 257,
      "is": 258,
      "Ġo": 259,
      "it": 260,
      "es": 261,
      "ed": 262,
      "ar": 263,
      "Ġc": 264,
      "Ġw": 265,
      "ion": 266,
      "Ġf": 267,
      "Ġof": 268,
      "Ġin": 269,
      "nd": 270,
      "Ġp": 271,
      "ic": 272,
      "Ġb": 273,
      "le": 274,
      "as": 275,
      "ing": 276,
      "ro": 277,
      "Ġand": 278,
      "Ġd": 279,
      "Ġm": 280,
      "Ġto": 281,
      "ct": 282,
      "ent": 283,
      "el": 284,
      "et": 285,
      "ou": 286,
      "Ġ\\": 287,
      "il": 288,
      "am": 289,
      "st": 290,
      "ĠS": 291,
      "om": 292,
      "ig": 293,
      "Ġ$": 294,
      "Ġh": 295,
      "Ġre": 296,
      "ol": 297,
      "ĠT": 298,
      "ĠC": 299,
      "Ġ(": 300,
      "ation": 301,
      "ĠA": 302,
      "ĠĠĠ": 303,
      "ra": 304,
      "Ġn": 305,
      "im": 306,
      "ĠĠĠĠĠĠĠĠ": 307,
      "Ġth": 308,
      "Ġl": 309,
      "ot": 310,
      "Ġe": 311,
      "id": 312,
      "ce": 313,
      "iv": 314,
      "ur": 315,
      "ĠM": 316,
      "ch": 317,
      "Ġis": 318,
      "ut": 319,
      "us": 320,
      "Ġfor": 321,
      "ad": 322,
      "ul": 323,
      "ĠB": 324,
      "Ġg": 325,
      "ers": 326,
      "ow": 327,
      "ĠP": 328,
      "em": 329,
      "Ġon": 330,
      "ly": 331,
      "20": 332,
      "ĠI": 333,
      "19": 334,
      "{\\": 335,
      "ir": 336,
      "um": 337,
      "un": 338,
      "ist": 339,
      "ith": 340,
      "la": 341,
      "ĠH": 342,
      "Ġst": 343,
      "Ġas": 344,
      "od": 345,
      "ter": 346,
      "qu": 347,
      "Ġbe": 348,
      "th": 349,
      "ĠR": 350,
      "se": 351,
      "if": 352,
      "ĠF": 353,
      "Ġv": 354,
      "ge": 355,
      "Ġwas": 356,
      "ĠL": 357,
      "ĠD": 358,
      "Ġcon": 359,
      "Ġwith": 360,
      "ĠThe": 361,
      "and": 362,
      "ta": 363,
      "Ġal": 364,
      "Ġthat": 365,
      "ver": 366,
      "ĠN": 367,
      "ĠG": 368,
      "ri": 369,
      "Ġby": 370,
      "pe": 371,
      "her": 372,
      "ate": 373,
      "end": 374,
      "ĠW": 375,
      "ath": 376,
      "ĠĊ": 377,
      "_{": 378,
      "oc": 379,
      "ction": 380,
      "Ġan": 381,
      "rom": 382,
      "op": 383,
      "res": 384,
      "Ġ=": 385,
      "eg": 386,
      "os": 387,
      "ht": 388,
      "ĠE": 389,
      "est": 390,
      "Ġpro": 391,
      "ĠĠĠĠĠĠĠ": 392,
      "âĢ": 393,
      "ay": 394,
      "Ġat": 395,
      "ity": 396,
      "ub": 397,
      "čĊ": 398,
      "Ġde": 399,
      "up": 400,
      "ab": 401,
      "ex": 402,
      "ap": 403,
      "av": 404,
      "Ġwh": 405,
      "Ġ$\\": 406,
      "ac": 407,
      "art": 408,
      "ĠJ": 409,
      "Ġcom": 410,
      "Ġfrom": 411,
      "ew": 412,
      "ph": 413,
      "all": 414,
      "ies": 415,
      "math": 416,
      "Ġ\"": 417,
      "Ġex": 418,
      "ine": 419,
      "ore": 420,
      "ess": 421,
      "ort": 422,
      "ight": 423,
      "ĠO": 424,
      "ure": 425,
      "Ġ&": 426,
      "'s": 427,
      "ass": 428,
      "Ġit": 429,
      "ran": 430,
      "Ġse": 431,
      "ĉĉ": 432,
      "ud": 433,
      "ial": 434,
      "ag": 435,
      "ber": 436,
      "Ġare": 437,
      "pt": 438,
      "ian": 439,
      "Ġhe": 440,
      "ame": 441,
      "Ġor": 442,
      "ment": 443,
      "ive": 444,
      "}\\": 445,
      "Ġ<": 446,
      "ue": 447,
      "=\"": 448,
      "ill": 449,
      "ite": 450,
      ");": 451,
      "nt": 452,
      "ĠK": 453,
      "ĠU": 454,
      "ak": 455,
      "ip": 456,
      "og": 457,
      "ef": 458,
      "ich": 459,
      "The": 460,
      "}$": 461,
      "ated": 462,
      "our": 463,
      "ard": 464,
      "^{": 465,
      "iz": 466,
      "--": 467,
      "ld": 468,
      "ref": 469,
      "201": 470,
      "ect": 471,
      "Ġ{": 472,
      "ary": 473,
      "ma": 474,
      "ia": 475,
      "âĢĵ": 476,
      "ant": 477,
      "ov": 478,
      "int": 479,
      "Ġwe": 480,
      "cl": 481,
      "ult": 482,
      "Ġch": 483,
      "und": 484,
      "per": 485,
      "ext": 486,
      "ell": 487,
      "ign": 488,
      "),": 489,
      "Ġr": 490,
      "200": 491,
      "Ġcl": 492,
      "ical": 493,
      "ĠIn": 494,
      "ĠSt": 495,
      "ong": 496,
      "ft": 497,
      "ition": 498,
      "pl": 499,
      "orm": 500,
      "</": 501,
      "Ġsh": 502,
      "rac": 503,
      "ast": 504,
      "ust": 505,
      "Ġle": 506,
      "Ġcomp": 507,
      "ug": 508,
      "}}": 509,
      "Ġus": 510,
      "age": 511,
      "ĠĠĠĠĠĠĠĠĠĠĠ": 512,
      "Ġthis": 513,
      "ord": 514,
      "con": 515,
      "ĠV": 516,
      "00": 517,
      "(\\": 518,
      "ire": 519,
      "port": 520,
      "ff": 521,
      "ks": 522,
      "are": 523,
      "ces": 524,
      "Ġwhich": 525,
      "Ġhis": 526,
      "ep": 527,
      "//": 528,
      "ens": 529,
      "Ġ*": 530,
      "du": 531,
      "ost": 532,
      "so": 533,
      "Ġnot": 534,
      "Ġres": 535,
      ").": 536,
      "egin": 537,
      "Ġk": 538,
      "ations": 539,
      "Ġ|": 540,
      "ish": 541,
      "begin": 542,
      "Ġ-": 543,
      "cal": 544,
      "18": 545,
      "ĠCh": 546,
      "ave": 547,
      "Ġy": 548,
      "ere": 549,
      "Ġ}": 550,
      "lay": 551,
      "cc": 552,
      "to": 553,
      "In": 554,
      "pro": 555,
      "ther": 556,
      "urn": 557,
      "ric": 558,
      ")$": 559,
      "mer": 560,
      "_{\\": 561,
      "ime": 562,
      "ear": 563,
      "Ġun": 564,
      "ence": 565,
      "erv": 566,
      "ide": 567,
      "ang": 568,
      "ain": 569,
      "ase": 570,
      "Ġwhe": 571,
      "text": 572,
      "ry": 573,
      "ib": 574,
      "ions": 575,
      "ild": 576,
      "Ġalso": 577,
      "rm": 578,
      "low": 579,
      "ec": 580,
      "tern": 581,
      "ous": 582,
      "}{": 583,
      "ĠĠĠĠĠĠĠĠĠĠĠĠĠĠĠĠ": 584,
      "Ġwere": 585,
      "ru": 586,
      "ork": 587,
      "Ġap": 588,
      "act": 589,
      "irst": 590,
      "ach": 591,
      "equ": 592,
      "ice": 593,
      "ind": 594,
      "ory": 595,
      "able": 596,
      "Ġcan": 597,
      "ile": 598,
      "Ġhas": 599,
      "right": 600,
      "ey": 601,
      "out": 602,
      "},": 603,
      "frac": 604,
      "eq": 605,
      "Ġad": 606,
      "ener": 607,
      "ack": 608,
      "Ġhave": 609,
      "sp": 610,
      "own": 611,
      "rit": 612,
      "\">": 613,
      "form": 614,
      "erm": 615,
      "over": 616,
      "Ġ||": 617,
      "com": 618,
      "ĠĠĠĠĠ": 619,
      "ĠTh": 620,
      "Ġar": 621,
      "Ġim": 622,
      "fer": 623,
      "ound": 624,
      "ace": 625,
      "wo": 626,
      "lab": 627,
      "ubl": 628,
      "ok": 629,
      "ie": 630,
      "cite": 631,
      "ates": 632,
      "..": 633,
      "Ġpart": 634,
      "ĠUn": 635,
      "old": 636,
      "ree": 637,
      "Ġj": 638,
      "ount": 639,
      "the": 640,
      "clud": 641,
      "amp": 642,
      "Ġab": 643,
      "Ġclass": 644,
      "rans": 645,
      "Ġro": 646,
      "ĠHe": 647,
      "199": 648,
      "Ġsu": 649,
      "ance": 650,
      "ents": 651,
      "Ġcont": 652,
      "hed": 653,
      "ors": 654,
      "rib": 655,
      "ode": 656,
      "Ġif": 657,
      "mathb": 658,
      "tain": 659,
      "ck": 660,
      "Ġfirst": 661,
      "10": 662,
      "Ġone": 663,
      "Ġplay": 664,
      "ress": 665,
      "ould": 666,
      "li": 667,
      "ring": 668,
      "**": 669,
      "eta": 670,
      "turn": 671,
      "ational": 672,
      "label": 673,
      "ob": 674,
      "row": 675,
      "ĠY": 676,
      "fig": 677,
      "ĠIt": 678,
      "ata": 679,
      "ject": 680,
      "we": 681,
      "inal": 682,
      "ng": 683,
      "Ġdis": 684,
      "ely": 685,
      "te": 686,
      "ype": 687,
      "ual": 688,
      "Ġsp": 689,
      ",\\": 690,
      "ences": 691,
      "$,": 692,
      "ĠâĢĵ": 693,
      "ss": 694,
      "fter": 695,
      "get": 696,
      "$.": 697,
      "ced": 698,
      "Ġ+": 699,
      "mathcal": 700,
      "left": 701,
      "ome": 702,
      "Ġhad": 703,
      "Ġall": 704,
      "Ġits": 705,
      "ics": 706,
      "orn": 707,
      "Ġtwo": 708,
      "ark": 709,
      "iel": 710,
      "St": 711,
      "Ġper": 712,
      "unction": 713,
      "ose": 714,
      "ater": 715,
      "Ġtheir": 716,
      "Ġmod": 717,
      "equation": 718,
      "Ġbut": 719,
      "ll": 720,
      "Ġte": 721,
      "Ġ'": 722,
      "}.": 723,
      "ps": 724,
      "Ġnew": 725,
      "Ġob": 726,
      "les": 727,
      "Ġsc": 728,
      "amb": 729,
      "})": 730,
      "ev": 731,
      "land": 732,
      "cent": 733,
      "ik": 734,
      "Ġdes": 735,
      "ool": 736,
      "oint": 737,
      "lect": 738,
      "Ġev": 739,
      "rad": 740,
      "red": 741,
      "Ġen": 742,
      "ield": 743,
      "ican": 744,
      "Ġqu": 745,
      "ock": 746,
      "iss": 747,
      "}(": 748,
      "ied": 749,
      "Ġdef": 750,
      "any": 751,
      "pect": 752,
      "Ġother": 753,
      "Ġset": 754,
      "()": 755,
      "tab": 756,
      "----": 757,
      "}^": 758,
      "oot": 759,
      "Ex": 760,
      "Ġout": 761,
      "one": 762,
      "io": 763,
      "ular": 764,
      "Ref": 765,
      "Ġwho": 766,
      "ited": 767,
      "Ġag": 768,
      "ix": 769,
      "Ġsy": 770,
      "igh": 771,
      "==": 772,
      "Ġint": 773,
      "ased": 774,
      "198": 775,
      "raph": 776,
      "pec": 777,
      "sh": 778,
      "}_": 779,
      "~\\": 780,
      "Ġass": 781,
      "line": 782,
      "ublic": 783,
      "ember": 784,
      "ond": 785,
      "ons": 786,
      "ollow": 787,
      "aw": 788,
      "Ġover": 789,
      "Ġme": 790,
      "ivers": 791,
      "pha": 792,
      "Ġup": 793,
      "ray": 794,
      "ople": 795,
      "12": 796,
      "Ġreturn": 797,
      "imes": 798,
      "ne": 799,
      "ert": 800,
      "Ġval": 801,
      "vel": 802,
      "Refer": 803,
      "ict": 804,
      "sc": 805,
      "da": 806,
      "umber": 807,
      "ize": 808,
      "Ġbeen": 809,
      "ution": 810,
      "ram": 811,
      "Ġher": 812,
      "Ġcol": 813,
      "alpha": 814,
      "ilm": 815,
      "Ġtime": 816,
      "ont": 817,
      "Ġinclud": 818,
      "roup": 819,
      "References": 820,
      "ings": 821,
      "aram": 822,
      "under": 823,
      "ward": 824,
      "Ġyear": 825,
      "Ġcomm": 826,
      "ined": 827,
      "ĠĠĠĠĠĠĠĠĠĠĠĠĠĠĠ": 828,
      "pos": 829,
      "Ġform": 830,
      "Ġ[": 831,
      "Ġind": 832,
      "Ġsub": 833,
      "ative": 834,
      "\",": 835,
      ")\\": 836,
      "Ġinter": 837,
      "merican": 838,
      "Ġcons": 839,
      "Ġfunction": 840,
      "ail": 841,
      "17": 842,
      "set": 843,
      "eth": 844,
      "16": 845,
      "uring": 846,
      "Ġbet": 847,
      "Ġfollow": 848,
      "oy": 849,
      "eople": 850,
      "stem": 851,
      "Ġconst": 852,
      "Ġwhere": 853,
      "of": 854,
      "ann": 855,
      "resent": 856,
      "ral": 857,
      "Ġreg": 858,
      "15": 859,
      "Ġpre": 860,
      "197": 861,
      "ĠSe": 862,
      "elta": 863,
      "ugh": 864,
      "mb": 865,
      "let": 866,
      "round": 867,
      "ific": 868,
      "ince": 869,
      "ambda": 870,
      "vi": 871,
      "Ġinto": 872,
      "$\\": 873,
      "ull": 874,
      "pr": 875,
      "Ġloc": 876,
      "ĠNew": 877,
      "Ġonly": 878,
      "ption": 879,
      "Ġrec": 880,
      "elf": 881,
      "ans": 882,
      "Ġvar": 883,
      "ho": 884,
      "ĠCom": 885,
      "Ġdist": 886,
      "che": 887,
      "olog": 888,
      "ĠMar": 889,
      "Ġpr": 890,
      "ball": 891,
      "put": 892,
      "Ġmore": 893,
      "Ġsuch": 894,
      "Ġco": 895,
      "oug": 896,
      "ween": 897,
      "Ġwork": 898,
      "ve": 899,
      "Ġresult": 900,
      "ake": 901,
      "Ġthey": 902,
      "Ġsup": 903,
      "ins": 904,
      "lement": 905,
      "Ġafter": 906,
      "Ġwhen": 907,
      "Ġpl": 908,
      "cond": 909,
      "Ġtrans": 910,
      "sub": 911,
      "amma": 912,
      "use": 913,
      "ery": 914,
      "lo": 915,
      "ĠThis": 916,
      "_\\": 917,
      "Ġunder": 918,
      "ick": 919,
      "Ġdif": 920,
      "Ġacc": 921,
      "ists": 922,
      "ren": 923,
      "Ġpol": 924,
      "Ġthen": 925,
      "Ġ.": 926,
      "Ġact": 927,
      "mu": 928,
      "ames": 929,
      "der": 930,
      "ax": 931,
      "oun": 932,
      "oth": 933,
      "ox": 934,
      "als": 935,
      "ĠAl": 936,
      "Ġne": 937,
      "mathbb": 938,
      "ating": 939,
      "Ġoff": 940,
      "ident": 941,
      "Ġdo": 942,
      "Ġrel": 943,
      "cre": 944,
      "Ġ//": 945,
      "Ġlin": 946,
      "Ġgener": 947,
      "Ġbetween": 948,
      "chool": 949,
      "Ġwill": 950,
      "ished": 951,
      "dot": 952,
      "ities": 953,
      "ource": 954,
      "ision": 955,
      "ruct": 956,
      "Ġ\\\\": 957,
      "ĠAr": 958,
      "=\\": 959,
      "}^{": 960,
      "}_{": 961,
      "Ġpos": 962,
      "Ġrep": 963,
      "Ġmodel": 964,
      "196": 965,
      "ade": 966,
      "way": 967,
      "ee": 968,
      "ts": 969,
      "Ġso": 970,
      "Ġthere": 971,
      "21": 972,
      "arg": 973,
      "->": 974,
      "col": 975,
      "igma": 976,
      "ient": 977,
      "ton": 978,
      "::": 979,
      "eb": 980,
      "ures": 981,
      "Ġused": 982,
      "ega": 983,
      "Ġserv": 984,
      "Ġfilm": 985,
      "ator": 986,
      "orld": 987,
      "Ġprodu": 988,
      "13": 989,
      "Ġthan": 990,
      "ternal": 991,
      "ily": 992,
      "Ġkn": 993,
      "Ġph": 994,
      "outh": 995,
      "14": 996,
      "Ġbu": 997,
      "Ġshe": 998,
      "its": 999,
      "-\\": 1000,
      "hat": 1001,
      "ars": 1002,
      "Ġsim": 1003,
      "ise": 1004,
      "align": 1005,
      "Ġshow": 1006,
      "Ġname": 1007,
      "ĠPro": 1008,
      "Ġbec": 1009,
      "phi": 1010,
      "ys": 1011,
      "wn": 1012,
      "irect": 1013,
      "oh": 1014,
      "Ġinv": 1015,
      "Ġtra": 1016,
      "gan": 1017,
      "ove": 1018,
      "lem": 1019,
      "^{\\": 1020,
      "ĠZ": 1021,
      "ature": 1022,
      "ues": 1023,
      "Ġ/": 1024,
      "iversity": 1025,
      "ury": 1026,
      "ĉĉĉĉ": 1027,
      "Ġwould": 1028,
      "hip": 1029,
      "Ġ</": 1030,
      "ason": 1031,
      "ty": 1032,
      "Ġadd": 1033,
      "Ġ@": 1034,
      "eng": 1035,
      "Ġstud": 1036,
      "pi": 1037,
      "Ġpeople": 1038,
      "Ġspec": 1039,
      "oci": 1040,
      "Ġpublic": 1041,
      "sum": 1042,
      "bf": 1043,
      "ĠAmerican": 1044,
      "idth": 1045,
      "part": 1046,
      "ider": 1047,
      "Ġexp": 1048,
      "lambda": 1049,
      "Ġ{\\": 1050,
      "ute": 1051,
      "Ġsome": 1052,
      "Ġend": 1053,
      "att": 1054,
      "Ġline": 1055,
      "Ġop": 1056,
      "Ġnumber": 1057,
      "Ġprov": 1058,
      "val": 1059,
      "cy": 1060,
      "Ġequ": 1061,
      "ility": 1062,
      "rough": 1063,
      "11": 1064,
      "air": 1065,
      "yn": 1066,
      "Ġdiffer": 1067,
      "ash": 1068,
      "orth": 1069,
      "../": 1070,
      "Ġfe": 1071,
      "uss": 1072,
      "emb": 1073,
      "man": 1074,
      "Ã©": 1075,
      "Ġmat": 1076,
      "app": 1077,
      "Ġsystem": 1078,
      "ĠQ": 1079,
      "ever": 1080,
      "Ġany": 1081,
      "ĠâĢ": 1082,
      "bar": 1083,
      "tt": 1084,
      "Ġinst": 1085,
      "ized": 1086,
      "Ġcent": 1087,
      "ally": 1088,
      "ower": 1089,
      "194": 1090,
      "ilon": 1091,
      "Ġdata": 1092,
      "ern": 1093,
      "ĠSh": 1094,
      "Ġeach": 1095,
      "mathbf": 1096,
      "Ġno": 1097,
      "Ġmost": 1098,
      "ism": 1099,
      "ctions": 1100,
      "ier": 1101,
      "âĢĻ": 1102,
      "Ġcor": 1103,
      "Ġra": 1104,
      "195": 1105,
      "25": 1106,
      "err": 1107,
      "ible": 1108,
      "Ġgo": 1109,
      "min": 1110,
      "ethod": 1111,
      "Ġabout": 1112,
      "Ġgiv": 1113,
      "ĠCol": 1114,
      "atic": 1115,
      "Ġext": 1116,
      "arn": 1117,
      "Con": 1118,
      "Ġed": 1119,
      "ough": 1120,
      "ĠFor": 1121,
      "22": 1122,
      "ĠLe": 1123,
      "ron": 1124,
      "Ġes": 1125,
      "Ġent": 1126,
      "apt": 1127,
      "ĠInd": 1128,
      "ale": 1129,
      "Ġ:": 1130,
      "Ġfound": 1131,
      "ĠWe": 1132,
      "Ġman": 1133,
      "ement": 1134,
      "Pro": 1135,
      "ook": 1136,
      "Ġpoint": 1137,
      "inn": 1138,
      "Ġoper": 1139,
      "Ġsing": 1140,
      "mall": 1141,
      "',": 1142,
      "section": 1143,
      "Ġi": 1144,
      "ĠUnited": 1145,
      "Âł": 1146,
      "Ġcall": 1147,
      "Ġthree": 1148,
      "Ġagain": 1149,
      "Ġmay": 1150,
      "30": 1151,
      "ilde": 1152,
      "eries": 1153,
      "Ġthrough": 1154,
      "Ġcur": 1155,
      "Ġsign": 1156,
      "ife": 1157,
      "aj": 1158,
      "();": 1159,
      "ootball": 1160,
      "ote": 1161,
      "az": 1162,
      "(\"": 1163,
      "Ġthese": 1164,
      "Ġsecond": 1165,
      "cess": 1166,
      "sigma": 1167,
      "ĠUniversity": 1168,
      "ĠAn": 1169,
      "Ġ(\\": 1170,
      "Ġeff": 1171,
      "Ġatt": 1172,
      "itt": 1173,
      "rict": 1174,
      "ract": 1175,
      "Ġgroup": 1176,
      "ml": 1177,
      "^{-": 1178,
      "ah": 1179,
      "Ġthem": 1180,
      "rent": 1181,
      "ouse": 1182,
      "span": 1183,
      "ĠDe": 1184,
      "Ġduring": 1185,
      "Ġhim": 1186,
      "ke": 1187,
      "Ġwell": 1188,
      "Ġuse": 1189,
      "uc": 1190,
      "ional": 1191,
      "beta": 1192,
      "hen": 1193,
      "Ġx": 1194,
      "var": 1195,
      "Th": 1196,
      "}{\\": 1197,
      "Ġyears": 1198,
      "Ġchar": 1199,
      "oid": 1200,
      "))": 1201,
      "def": 1202,
      "Ġcase": 1203,
      "essage": 1204,
      "mp": 1205,
      "yle": 1206,
      "sy": 1207,
      "led": 1208,
      "Ġtr": 1209,
      "Ġteam": 1210,
      "eps": 1211,
      "Ġsame": 1212,
      "overn": 1213,
      "Ġcre": 1214,
      "Ġlinks": 1215,
      "ization": 1216,
      "arly": 1217,
      "Ġstate": 1218,
      "Ġpla": 1219,
      "Ġmin": 1220,
      "Ġdec": 1221,
      "owever": 1222,
      "lin": 1223,
      "item": 1224,
      "Ġboth": 1225,
      "Ġappro": 1226,
      "mathrm": 1227,
      "gamma": 1228,
      "*}": 1229,
      "gy": 1230,
      "+\\": 1231,
      "Ġrele": 1232,
      "Ġfollowing": 1233,
      "External": 1234,
      "Ġdesc": 1235,
      "Ġac": 1236,
      "Ġprob": 1237,
      "ĠCon": 1238,
      "Ġsur": 1239,
      "Ġsol": 1240,
      "son": 1241,
      "div": 1242,
      "reat": 1243,
      "uth": 1244,
      "Ch": 1245,
      "Ġfam": 1246,
      "\\\\": 1247,
      "par": 1248,
      "eter": 1249,
      "ices": 1250,
      "Ġvalue": 1251,
      "ĠX": 1252,
      "ired": 1253,
      "Ġvari": 1254,
      "Ġrequ": 1255,
      "--------": 1256,
      "Ġam": 1257,
      "irc": 1258,
      "Ġplayers": 1259,
      "Ġget": 1260,
      "usic": 1261,
      "Ġpartic": 1262,
      "ived": 1263,
      "Ġfield": 1264,
      "Ġperform": 1265,
      "lish": 1266,
      "ten": 1267,
      "ober": 1268,
      "ina": 1269,
      "Ġour": 1270,
      "Ġhigh": 1271,
      "ample": 1272,
      "ĠSc": 1273,
      "Ġdifferent": 1274,
      "Ġart": 1275,
      "array": 1276,
      "ural": 1277,
      "Ġwhile": 1278,
      "Ġdirect": 1279,
      "]{": 1280,
      "Ġback": 1281,
      "000": 1282,
      "ĠAs": 1283,
      "ically": 1284,
      "Ġlead": 1285,
      "for": 1286,
      "></": 1287,
      "ĠEng": 1288,
      "ments": 1289,
      "Ġnon": 1290,
      "other": 1291,
      "by": 1292,
      "uch": 1293,
      "iver": 1294,
      "delta": 1295,
      "****": 1296,
      "serv": 1297,
      "istory": 1298,
      "ulation": 1299,
      "Ġterm": 1300,
      "Ġmon": 1301,
      "ohn": 1302,
      "Ġmade": 1303,
      "lection": 1304,
      ".\"": 1305,
      "theta": 1306,
      "els": 1307,
      "vent": 1308,
      "arch": 1309,
      "ather": 1310,
      "plic": 1311,
      ")}": 1312,
      "erson": 1313,
      "^\\": 1314,
      "enn": 1315,
      "leq": 1316,
      "bum": 1317,
      "pon": 1318,
      "umn": 1319,
      "ask": 1320,
      "rid": 1321,
      "Ġtype": 1322,
      "ley": 1323,
      "oo": 1324,
      "24": 1325,
      "ĠStates": 1326,
      "Ġpop": 1327,
      "Ġusing": 1328,
      "ause": 1329,
      "iving": 1330,
      "ple": 1331,
      "ript": 1332,
      "We": 1333,
      "Ġ*/": 1334,
      "figure": 1335,
      "cdot": 1336,
      "Ġorder": 1337,
      "rho": 1338,
      "ĠĠĠĠĠĠĠĠĠ": 1339,
      "ining": 1340,
      "Ġknown": 1341,
      "ĉĉĉ": 1342,
      "Ġbeing": 1343,
      "fore": 1344,
      "here": 1345,
      "Ġwrit": 1346,
      "$-": 1347,
      "tau": 1348,
      "au": 1349,
      "mm": 1350,
      "ets": 1351,
      "lu": 1352,
      "Ġlater": 1353,
      "Ġmed": 1354,
      "ĠSp": 1355,
      "ross": 1356,
      "\".": 1357,
      "Com": 1358,
      "Ġgiven": 1359,
      "ott": 1360,
      "}$,": 1361,
      "Ġfinal": 1362,
      "}$.": 1363,
      "ths": 1364,
      "width": 1365,
      "ĠShe": 1366,
      "quad": 1367,
      "ER": 1368,
      "23": 1369,
      "ograph": 1370,
      "ines": 1371,
      "Ġran": 1372,
      "omen": 1373,
      "ĠCount": 1374,
      "yp": 1375,
      "ĠCl": 1376,
      "tr": 1377,
      "Ġyou": 1378,
      "itions": 1379,
      "Ġcount": 1380,
      "ersion": 1381,
      "}(\\": 1382,
      "arrow": 1383,
      "Ġconsider": 1384,
      "big": 1385,
      "rop": 1386,
      "ages": 1387,
      "lation": 1388,
      "ĠĠĠĠĠĠĠĠĠĠĠĠĠĠĠĠĠĠĠ": 1389,
      "ĠIs": 1390,
      "><": 1391,
      "Ġfour": 1392,
      "ology": 1393,
      "Ġrecord": 1394,
      "Ġbir": 1395,
      "til": 1396,
      "une": 1397,
      "dd": 1398,
      "eqref": 1399,
      "Ġappe": 1400,
      "ĠOn": 1401,
      "times": 1402,
      "ively": 1403,
      "iew": 1404,
      "Ġseason": 1405,
      "Ġfootball": 1406,
      "ister": 1407,
      "193": 1408,
      "Ġdisc": 1409,
      "Ġmany": 1410,
      "====": 1411,
      "Ġmain": 1412,
      "ases": 1413,
      "Ġsmall": 1414,
      "ague": 1415,
      "Ġdet": 1416,
      "Ġbefore": 1417,
      "arge": 1418,
      "Ġel": 1419,
      "ality": 1420,
      "Ġstart": 1421,
      "ache": 1422,
      "ĠComm": 1423,
      "ood": 1424,
      "ays": 1425,
      "ike": 1426,
      "../../": 1427,
      "Ġfin": 1428,
      "Ġorig": 1429,
      "velop": 1430,
      "ead": 1431,
      "co": 1432,
      "ved": 1433,
      "Ġ#": 1434,
      "me": 1435,
      "Ġem": 1436,
      "this": 1437,
      "ission": 1438,
      "Ġlong": 1439,
      "Ġdevelop": 1440,
      "50": 1441,
      "ots": 1442,
      "ange": 1443,
      "Ġbro": 1444,
      "Ġincluding": 1445,
      "Ġalbum": 1446,
      "ument": 1447,
      "Ġstr": 1448,
      "ĠFran": 1449,
      "('": 1450,
      "Ġmov": 1451,
      "arri": 1452,
      "partial": 1453,
      "Ġmethod": 1454,
      "Ġinf": 1455,
      "Ġz": 1456,
      "ior": 1457,
      "Ġseries": 1458,
      "center": 1459,
      "Ġestab": 1460,
      "ified": 1461,
      "nu": 1462,
      "fty": 1463,
      "read": 1464,
      "lock": 1465,
      "infty": 1466,
      "tilde": 1467,
      ".,": 1468,
      "IN": 1469,
      "param": 1470,
      "Ġrun": 1471,
      "sec": 1472,
      "ĠJohn": 1473,
      "gram": 1474,
      "ĠWorld": 1475,
      "Ġsince": 1476,
      "Ġschool": 1477,
      "ĠNational": 1478,
      "omega": 1479,
      "aid": 1480,
      "ane": 1481,
      "Ġfact": 1482,
      "pm": 1483,
      "Ġbel": 1484,
      "ency": 1485,
      "Name": 1486,
      "Ġparam": 1487,
      "cept": 1488,
      "Ġ_": 1489,
      "Ġcontin": 1490,
      "ĠMay": 1491,
      "Ġ`": 1492,
      "space": 1493,
      "lev": 1494,
      "ially": 1495,
      "ON": 1496,
      "Ġbecame": 1497,
      "ai": 1498,
      "uro": 1499,
      "ĠAust": 1500,
      "ared": 1501,
      "|\\": 1502,
      "Ġelect": 1503,
      "ĠPh": 1504,
      "trans": 1505,
      "Ġlist": 1506,
      "Ġbuild": 1507,
      "view": 1508,
      "rang": 1509,
      "Ġagainst": 1510,
      "Ġdep": 1511,
      "ccess": 1512,
      "Ġrepresent": 1513,
      "iqu": 1514,
      "On": 1515,
      "illa": 1516,
      "ives": 1517,
      "rt": 1518,
      "Ġsupport": 1519,
      "mod": 1520,
      "itle": 1521,
      "includ": 1522,
      "ank": 1523,
      "html": 1524,
      "Ġapp": 1525,
      "ternational": 1526,
      "log": 1527,
      "ribut": 1528,
      "sk": 1529,
      "name": 1530,
      "lex": 1531,
      "anu": 1532,
      "Ġdescrib": 1533,
      "Ġmet": 1534,
      "ĠCan": 1535,
      "Type": 1536,
      "ĠEx": 1537,
      "very": 1538,
      "cer": 1539,
      "Delta": 1540,
      "lang": 1541,
      "not": 1542,
      "Ġeffect": 1543,
      "ST": 1544,
      "urch": 1545,
      "raw": 1546,
      "Ġtest": 1547,
      "Ġrece": 1548,
      "rix": 1549,
      "iam": 1550,
      "ĠCar": 1551,
      "amed": 1552,
      "ĠCounty": 1553,
      "aking": 1554,
      "Ġown": 1555,
      "ival": 1556,
      "atch": 1557,
      "Ġbased": 1558,
      "ĠAss": 1559,
      "lack": 1560,
      "chn": 1561,
      "eqn": 1562,
      "ĠĠĊ": 1563,
      "ually": 1564,
      "orks": 1565,
      "Res": 1566,
      "source": 1567,
      "ĠBrit": 1568,
      "Ġpresent": 1569,
      "28": 1570,
      "Ġ,": 1571,
      "rand": 1572,
      "27": 1573,
      "formation": 1574,
      "Ġself": 1575,
      "ĠWar": 1576,
      "ges": 1577,
      "import": 1578,
      "Ġsever": 1579,
      "Ġopen": 1580,
      "26": 1581,
      "Ġdesign": 1582,
      "It": 1583,
      "Ġhref": 1584,
      "2010": 1585,
      "ians": 1586,
      "oss": 1587,
      "Ġresults": 1588,
      "loc": 1589,
      "orem": 1590,
      "ĠJul": 1591,
      "add": 1592,
      "Ġgu": 1593,
      "Ġlocal": 1594,
      "Ġstruct": 1595,
      "Ġpres": 1596,
      "xi": 1597,
      "alse": 1598,
      "Id": 1599,
      "epend": 1600,
      "ength": 1601,
      "ful": 1602,
      "):": 1603,
      "Ġdr": 1604,
      "ĠSchool": 1605,
      "rist": 1606,
      "Ġfamily": 1607,
      "por": 1608,
      "ium": 1609,
      "etw": 1610,
      "message": 1611,
      "AR": 1612,
      "af": 1613,
      "ger": 1614,
      "Ġcalled": 1615,
      "String": 1616,
      "Ġcharact": 1617,
      "|-": 1618,
      "Ġproper": 1619,
      "inc": 1620,
      "Ġcond": 1621,
      "umer": 1622,
      "Ġest": 1623,
      "ody": 1624,
      "rol": 1625,
      "Ġsong": 1626,
      "rack": 1627,
      "Ġgovern": 1628,
      "ault": 1629,
      "Ġlarge": 1630,
      "ital": 1631,
      "ĠSouth": 1632,
      "ception": 1633,
      "embers": 1634,
      "Ġdeath": 1635,
      "ĠGerm": 1636,
      "Ġright": 1637,
      "ants": 1638,
      "Ġobtain": 1639,
      "Ġbound": 1640,
      "Ġ$(": 1641,
      "Ġuntil": 1642,
      "AT": 1643,
      "pond": 1644,
      "\\,": 1645,
      "mbol": 1646,
      "td": 1647,
      "ĠYork": 1648,
      "Ġerr": 1649,
      "class": 1650,
      "Ġimp": 1651,
      "Ġprocess": 1652,
      "ner": 1653,
      "Ġnow": 1654,
      "ĠNov": 1655,
      "return": 1656,
      "ler": 1657,
      "back": 1658,
      "ugust": 1659,
      "ampions": 1660,
      "For": 1661,
      "code": 1662,
      "Ġcontain": 1663,
      "2015": 1664,
      "wards": 1665,
      "100": 1666,
      "gor": 1667,
      "}[": 1668,
      "pp": 1669,
      "ris": 1670,
      "Ġprof": 1671,
      "ĠOr": 1672,
      "med": 1673,
      "areer": 1674,
      "2014": 1675,
      "Ġpolit": 1676,
      "Ġobserv": 1677,
      "2016": 1678,
      "ptember": 1679,
      "born": 1680,
      "org": 1681,
      "Ġexper": 1682,
      "ĠAt": 1683,
      "List": 1684,
      "color": 1685,
      "}}\\": 1686,
      "ĠGe": 1687,
      "2018": 1688,
      "Cl": 1689,
      "ided": 1690,
      "epsilon": 1691,
      "ĠAd": 1692,
      "Ġmult": 1693,
      "2017": 1694,
      ")$.": 1695,
      "Ġpar": 1696,
      "ajor": 1697,
      "29": 1698,
      "where": 1699,
      "ird": 1700,
      "play": 1701,
      "ule": 1702,
      "ify": 1703,
      "reen": 1704,
      "urther": 1705,
      "ety": 1706,
      "Ġ)": 1707,
      "2011": 1708,
      "Ġcould": 1709,
      "ret": 1710,
      "ink": 1711,
      "Ġanal": 1712,
      "ĠCent": 1713,
      "umb": 1714,
      "vers": 1715,
      "ports": 1716,
      "ica": 1717,
      "2019": 1718,
      "ground": 1719,
      "2012": 1720,
      "ctober": 1721,
      "vious": 1722,
      "Ġsee": 1723,
      "ability": 1724,
      "table": 1725,
      "agn": 1726,
      "ivate": 1727,
      "vert": 1728,
      "40": 1729,
      "Ġrefer": 1730,
      "Ġarea": 1731,
      "anuary": 1732,
      "self": 1733,
      "Ġstat": 1734,
      "Ġgeneral": 1735,
      "Ġmusic": 1736,
      "2013": 1737,
      "Ph": 1738,
      "ven": 1739,
      "Ġcurrent": 1740,
      "ae": 1741,
      "ĠPar": 1742,
      "Un": 1743,
      "Ġtop": 1744,
      "ilt": 1745,
      "Ġann": 1746,
      "Ġseveral": 1747,
      "Ġrema": 1748,
      "ament": 1749,
      "Ġpass": 1750,
      "ised": 1751,
      "aint": 1752,
      "istor": 1753,
      "Ġincre": 1754,
      "Ġsingle": 1755,
      "Ġbecause": 1756,
      "Ġrem": 1757,
      "sq": 1758,
      "ĠMarch": 1759,
      "ration": 1760,
      "type": 1761,
      "reg": 1762,
      "ĠAugust": 1763,
      "Ġmeas": 1764,
      "Ġcommun": 1765,
      "Ġbecom": 1766,
      "ĠTe": 1767,
      "$$": 1768,
      "eters": 1769,
      "/>": 1770,
      "ribution": 1771,
      "Ġdue": 1772,
      "olution": 1773,
      "RE": 1774,
      "Ġleft": 1775,
      "ended": 1776,
      "Ġopt": 1777,
      "Ġneed": 1778,
      "ense": 1779,
      "rem": 1780,
      "ĠSeptember": 1781,
      "rodu": 1782,
      "Ġocc": 1783,
      "ID": 1784,
      "Ġinit": 1785,
      "Ġchild": 1786,
      "Ġhand": 1787,
      "opt": 1788,
      "arm": 1789,
      "face": 1790,
      "mber": 1791,
      "Ġrad": 1792,
      "Ġ>": 1793,
      "}_{\\": 1794,
      "oard": 1795,
      "Ġoriginal": 1796,
      "pril": 1797,
      "Ġnear": 1798,
      "ience": 1799,
      "Ġallow": 1800,
      "ential": 1801,
      "oman": 1802,
      "Om": 1803,
      "ĠPol": 1804,
      "Ġmass": 1805,
      "Ġobject": 1806,
      "Ar": 1807,
      "Ġposs": 1808,
      "Ġevent": 1809,
      "SS": 1810,
      "ling": 1811,
      "lege": 1812,
      "Ġalong": 1813,
      "ected": 1814,
      "2009": 1815,
      "2008": 1816,
      "sim": 1817,
      "Ġgame": 1818,
      "Ġorgan": 1819,
      "Ġrest": 1820,
      "ĠOctober": 1821,
      "Ġrespect": 1822,
      "Ġoffic": 1823,
      "Al": 1824,
      "Ġref": 1825,
      "ĠJanuary": 1826,
      "As": 1827,
      "ĠSy": 1828,
      "Ġ!": 1829,
      "Ġhead": 1830,
      "Ġlim": 1831,
      "Ġprogram": 1832,
      "ume": 1833,
      "ĠPr": 1834,
      "psi": 1835,
      "str": 1836,
      "2020": 1837,
      "ĠJune": 1838,
      "://": 1839,
      "ides": 1840,
      "Ġtem": 1841,
      "ves": 1842,
      "Ġspace": 1843,
      "anc": 1844,
      "ene": 1845,
      "Ġplayed": 1846,
      "ĠHowever": 1847,
      "Ġlife": 1848,
      "Ġformer": 1849,
      "ness": 1850,
      "Ġevery": 1851,
      "ĠII": 1852,
      "textbf": 1853,
      "ij": 1854,
      "cember": 1855,
      "Ġlast": 1856,
      "ĠAustral": 1857,
      "iod": 1858,
      "requ": 1859,
      "ream": 1860,
      "Val": 1861,
      "Omega": 1862,
      "ĠJuly": 1863,
      "ĠRe": 1864,
      "ony": 1865,
      "Ġimport": 1866,
      "Ġproblem": 1867,
      "Ġreleased": 1868,
      "respond": 1869,
      "side": 1870,
      "iter": 1871,
      "Ġu": 1872,
      "Ġ--": 1873,
      "2007": 1874,
      "ately": 1875,
      "field": 1876,
      "ious": 1877,
      "arget": 1878,
      "\"/>": 1879,
      "Ġstand": 1880,
      "itive": 1881,
      "energy": 1882,
      "cm": 1883,
      "eqnarray": 1884,
      "ĠApril": 1885,
      "ĠĠĠĠĠĠĠĠĠĠĠĠĠĠĠĠĠĠĠĠĠĠĠĠĠĠĠĠĠĠĠĠ": 1886,
      "2006": 1887,
      "190": 1888,
      "ĠCal": 1889,
      "ector": 1890,
      "^*": 1891,
      "See": 1892,
      "ats": 1893,
      "ĠGu": 1894,
      "ĠEuro": 1895,
      ")$,": 1896,
      "ilar": 1897,
      "ĠNorth": 1898,
      "Ġbirths": 1899,
      "This": 1900,
      "ĠFig": 1901,
      "Ġcap": 1902,
      "Ġshould": 1903,
      "Ġread": 1904,
      "ĠAll": 1905,
      "Ġwithin": 1906,
      "Ġfind": 1907,
      "Ġvery": 1908,
      "ography": 1909,
      "aster": 1910,
      "To": 1911,
      "ting": 1912,
      "Ġwon": 1913,
      "ole": 1914,
      "Ġaddition": 1915,
      "ĠWh": 1916,
      "ches": 1917,
      "less": 1918,
      "âĢĿ": 1919,
      "__": 1920,
      "Ġplace": 1921,
      "new": 1922,
      "ĠBritish": 1923,
      "ung": 1924,
      "esc": 1925,
      "ĠNovember": 1926,
      "position": 1927,
      "Ġtrue": 1928,
      "Ġ=>": 1929,
      "ĠCity": 1930,
      "uthor": 1931,
      "psilon": 1932,
      "oad": 1933,
      "Ġident": 1934,
      "order": 1935,
      "ording": 1936,
      "ampionship": 1937,
      "century": 1938,
      "Ġelement": 1939,
      "urg": 1940,
      "idd": 1941,
      "bs": 1942,
      "Gamma": 1943,
      "ĠLeague": 1944,
      "An": 1945,
      "bm": 1946,
      "ued": 1947,
      "32": 1948,
      "ĠâĢĶ": 1949,
      "ze": 1950,
      "ĠState": 1951,
      "ilit": 1952,
      "ĠMan": 1953,
      "Ġpubl": 1954,
      "ĠDecember": 1955,
      "Ġearly": 1956,
      "Ġpower": 1957,
      "ĠReg": 1958,
      "Ġband": 1959,
      "arent": 1960,
      "ored": 1961,
      "Ġav": 1962,
      "raphics": 1963,
      "Ġlaw": 1964,
      "hes": 1965,
      "be": 1966,
      "imens": 1967,
      "omet": 1968,
      "ification": 1969,
      "dis": 1970,
      "ithm": 1971,
      "Ġlevel": 1972,
      "ords": 1973,
      "Ġdid": 1974,
      "etwork": 1975,
      "rak": 1976,
      "Ġlike": 1977,
      "alth": 1978,
      "apan": 1979,
      "Col": 1980,
      "Ġprom": 1981,
      "sqrt": 1982,
      "rag": 1983,
      "Ġjust": 1984,
      "ĠThey": 1985,
      "subsection": 1986,
      "ators": 1987,
      "off": 1988,
      "aving": 1989,
      "wh": 1990,
      "ebru": 1991,
      "comm": 1992,
      "Ġvis": 1993,
      "Ġche": 1994,
      "van": 1995,
      "Ġaround": 1996,
      "Ġeven": 1997,
      "capt": 1998,
      "Ġlarg": 1999,
      "ebruary": 2000,
      "Ġgra": 2001,
      "unc": 2002,
      "Ġhel": 2003,
      "He": 2004,
      "omin": 2005,
      "Ġcity": 2006,
      "Ġconf": 2007,
      "ĠRes": 2008,
      "bold": 2009,
      "lished": 2010,
      "lim": 2011,
      "inter": 2012,
      "Ġthose": 2013,
      "ales": 2014,
      "Ġdoes": 2015,
      "ĠAnd": 2016,
      "ĠBe": 2017,
      "light": 2018,
      "Ġ==": 2019,
      "ham": 2020,
      "ble": 2021,
      "^{(": 2022,
      "vare": 2023,
      "posed": 2024,
      "Ġ${\\": 2025,
      "Ġestim": 2026,
      "chi": 2027,
      "ĠKing": 2028,
      "ĠCanad": 2029,
      "ero": 2030,
      "ends": 2031,
      "Ġsum": 2032,
      "Ġsize": 2033,
      "Ġcorrespond": 2034,
      "Ġnull": 2035,
      "Ġtot": 2036,
      "cur": 2037,
      "stit": 2038,
      "rightarrow": 2039,
      "ĠWill": 2040,
      "roll": 2041,
      "Ġfilms": 2042,
      "Ġtri": 2043,
      "ison": 2044,
      "ĠAf": 2045,
      "ampl": 2046,
      "\")": 2047,
      "ĠEd": 2048,
      "levision": 2049,
      "Ġreal": 2050,
      "Ġsuccess": 2051,
      "cont": 2052,
      "aper": 2053,
      "uage": 2054,
      "60": 2055,
      "189": 2056,
      "Ã¡": 2057,
      "2000": 2058,
      "ĠEurope": 2059,
      "varepsilon": 2060,
      "Ġcharacter": 2061,
      "iness": 2062,
      "Ġscal": 2063,
      "ped": 2064,
      "caption": 2065,
      "uild": 2066,
      "ĠĠĠĠĠĠ": 2067,
      "Ġvoid": 2068,
      "OR": 2069,
      "Ġmembers": 2070,
      "ush": 2071,
      "ape": 2072,
      "lor": 2073,
      "Ġmake": 2074,
      "duct": 2075,
      "odes": 2076,
      "Ġsaid": 2077,
      "ourn": 2078,
      "iment": 2079,
      "ift": 2080,
      "LE": 2081,
      "action": 2082,
      "de": 2083,
      "ffic": 2084,
      "time": 2085,
      "lob": 2086,
      "##": 2087,
      "akes": 2088,
      "American": 2089,
      "ĠArm": 2090,
      "Ġcompet": 2091,
      "rr": 2092,
      "Ġ\\,": 2093,
      "Ġstring": 2094,
      "Ġcareer": 2095,
      "rench": 2096,
      "Ġabove": 2097,
      "ĠRep": 2098,
      "translation": 2099,
      "ection": 2100,
      "xim": 2101,
      "}^{\\": 2102,
      "Ġexample": 2103,
      "Ġwomen": 2104,
      "ormal": 2105,
      "Ġcal": 2106,
      "ĠFebruary": 2107,
      "Ġeng": 2108,
      "ruction": 2109,
      "htt": 2110,
      "Ġworld": 2111,
      "Ġenergy": 2112,
      "Ġland": 2113,
      "Ġtrad": 2114,
      "Ġtown": 2115,
      "ured": 2116,
      "Ġprevious": 2117,
      "80": 2118,
      "Ġden": 2119,
      "}=": 2120,
      "Ġexpect": 2121,
      "Ġtitle": 2122,
      "ino": 2123,
      "oper": 2124,
      "ius": 2125,
      "key": 2126,
      "2005": 2127,
      "ese": 2128,
      "see": 2129,
      "egraphics": 2130,
      "includegraphics": 2131,
      "Ġdown": 2132,
      "33": 2133,
      "Ġmajor": 2134,
      "ils": 2135,
      "Ġdescribed": 2136,
      "Ġnamed": 2137,
      "...": 2138,
      "Ġdem": 2139,
      ")=": 2140,
      "atures": 2141,
      "Ġvalues": 2142,
      "Ġmember": 2143,
      "ĠIf": 2144,
      "ĠCo": 2145,
      "Ġgovernment": 2146,
      "AL": 2147,
      "Ġcrit": 2148,
      "leg": 2149,
      "ĠčĊ": 2150,
      "ponse": 2151,
      "but": 2152,
      "rap": 2153,
      "const": 2154,
      "ĠAfter": 2155,
      "Ġperson": 2156,
      "ĠPart": 2157,
      "Ġarg": 2158,
      "ster": 2159,
      "ĠMin": 2160,
      "rangle": 2161,
      "Ġperiod": 2162,
      "lected": 2163,
      "Ġpost": 2164,
      "reak": 2165,
      "Ġinteg": 2166,
      "uk": 2167,
      "Ġtotal": 2168,
      "Ġsimilar": 2169,
      "Ġinclude": 2170,
      "gorithm": 2171,
      "2004": 2172,
      "Ġsat": 2173,
      "atter": 2174,
      "Ġdiv": 2175,
      "Ġparticular": 2176,
      "2021": 2177,
      "alk": 2178,
      "Ġclos": 2179,
      "ances": 2180,
      "Ġassoci": 2181,
      "value": 2182,
      "emph": 2183,
      "ription": 2184,
      "Ġbegan": 2185,
      "raft": 2186,
      "Ġpopulation": 2187,
      "ĠChrist": 2188,
      "symbol": 2189,
      "lace": 2190,
      "Ġreport": 2191,
      "Ġbas": 2192,
      "64": 2193,
      "Ġestablished": 2194,
      "Ġproject": 2195,
      "Ġintrodu": 2196,
      "Ġlab": 2197,
      "Ġkey": 2198,
      "with": 2199,
      "ĠâĢľ": 2200,
      "\"><": 2201,
      "ries": 2202,
      "Ġstill": 2203,
      "Ġcomplet": 2204,
      "ĠUS": 2205,
      "iles": 2206,
      "Ġwhat": 2207,
      "''": 2208,
      "Ġcomput": 2209,
      "empt": 2210,
      "illion": 2211,
      "Ġprot": 2212,
      "Ġlocated": 2213,
      "Ġstyle": 2214,
      "ĠDist": 2215,
      "Ġshort": 2216,
      "Ġleg": 2217,
      "ĠBar": 2218,
      "Ġinformation": 2219,
      "non": 2220,
      "ered": 2221,
      "Ġheld": 2222,
      "eff": 2223,
      "Ġmark": 2224,
      "Ġold": 2225,
      "ĠSw": 2226,
      "urs": 2227,
      "Ġmap": 2228,
      "Ġclub": 2229,
      "Ġder": 2230,
      "ependent": 2231,
      "ana": 2232,
      "Ġpoints": 2233,
      "Ġway": 2234,
      "ensure": 2235,
      "Ġbeh": 2236,
      "head": 2237,
      "usiness": 2238,
      "aus": 2239,
      "ĠJapan": 2240,
      "laim": 2241,
      "no": 2242,
      "ties": 2243,
      "Ġtyp": 2244,
      "rel": 2245,
      "ĠEnglish": 2246,
      "ugg": 2247,
      "Ġprivate": 2248,
      "Ġhome": 2249,
      "Ġmanag": 2250,
      "itor": 2251,
      "ination": 2252,
      "Ġhig": 2253,
      "Ġtechn": 2254,
      "though": 2255,
      "ĠWest": 2256,
      "Ġstation": 2257,
      "ĠHis": 2258,
      "Ġatta": 2259,
      "geq": 2260,
      "ĠHar": 2261,
      "Ġdi": 2262,
      "Ġcour": 2263,
      "EN": 2264,
      "ava": 2265,
      "ixed": 2266,
      "ĠĠĠĠĠĠĠĠĠĠĠĠĠ": 2267,
      "Ġfac": 2268,
      "varphi": 2269,
      "};": 2270,
      "imal": 2271,
      "string": 2272,
      "ering": 2273,
      "ounc": 2274,
      "45": 2275,
      "ploy": 2276,
      "Ġfalse": 2277,
      "Big": 2278,
      "ĠSup": 2279,
      "ĠMc": 2280,
      "Ġla": 2281,
      "Ġpo": 2282,
      "Ind": 2283,
      "arian": 2284,
      "bject": 2285,
      "Ġvilla": 2286,
      "data": 2287,
      "ensity": 2288,
      "ser": 2289,
      "day": 2290,
      "top": 2291,
      "Re": 2292,
      ".~\\": 2293,
      "Ġsection": 2294,
      "adem": 2295,
      "ĠAb": 2296,
      "Ġnext": 2297,
      "ources": 2298,
      "ideo": 2299,
      "lear": 2300,
      "')": 2301,
      "sequ": 2302,
      "ression": 2303,
      "ford": 2304,
      "Ġshown": 2305,
      "Ġbest": 2306,
      "Ġaut": 2307,
      "fo": 2308,
      "By": 2309,
      "&\\": 2310,
      "istic": 2311,
      "plit": 2312,
      "Ġpat": 2313,
      "********": 2314,
      "iction": 2315,
      "35": 2316,
      "Ġret": 2317,
      "Ġexist": 2318,
      "ondon": 2319,
      "ocial": 2320,
      "proof": 2321,
      "refore": 2322,
      "Sh": 2323,
      "rew": 2324,
      "urb": 2325,
      "boldsymbol": 2326,
      "AC": 2327,
      "overline": 2328,
      "Not": 2329,
      "ĠBy": 2330,
      "Ġfollows": 2331,
      "iron": 2332,
      "Ġlow": 2333,
      "rown": 2334,
      "Ġreceived": 2335,
      "Ġcar": 2336,
      "Ġmuch": 2337,
      "Ġhold": 2338,
      "Ġtook": 2339,
      "Ġiss": 2340,
      "aul": 2341,
      "----------------": 2342,
      "Ġdefined": 2343,
      "cor": 2344,
      "Ġversion": 2345,
      "uff": 2346,
      "Ġhouse": 2347,
      "nab": 2348,
      "Ġredu": 2349,
      ".}": 2350,
      "'t": 2351,
      "ention": 2352,
      "Ġpred": 2353,
      "eneral": 2354,
      "Ġmust": 2355,
      "Ġgames": 2356,
      "Ġcompany": 2357,
      "cul": 2358,
      "Ġanother": 2359,
      "frak": 2360,
      "Ġelse": 2361,
      "Ġchang": 2362,
      "ari": 2363,
      "Ġalign": 2364,
      "Ġaff": 2365,
      "Ġmodels": 2366,
      "pre": 2367,
      "Ġshows": 2368,
      "osp": 2369,
      "Ġwithout": 2370,
      "alf": 2371,
      "ille": 2372,
      "Ġnational": 2373,
      "Ġep": 2374,
      "Ġdeg": 2375,
      "eder": 2376,
      "Ġsk": 2377,
      "ĠCor": 2378,
      "Ġjo": 2379,
      "Ġlet": 2380,
      "ĠAfric": 2381,
      "ĠMed": 2382,
      "},\\": 2383,
      "Ġbuilt": 2384,
      "enc": 2385,
      "ĠCollege": 2386,
      "Ġregion": 2387,
      "75": 2388,
      "ocument": 2389,
      "mat": 2390,
      "ique": 2391,
      "[\\": 2392,
      "Ġhistory": 2393,
      "Ġpublished": 2394,
      "Ġdel": 2395,
      "Ġspect": 2396,
      "ĠEl": 2397,
      "Ġhow": 2398,
      "Ġcomb": 2399,
      "Data": 2400,
      "2003": 2401,
      "AS": 2402,
      "orph": 2403,
      "ĠSan": 2404,
      "script": 2405,
      "Ġappear": 2406,
      "ĠRuss": 2407,
      "Ġside": 2408,
      "Ġmax": 2409,
      "ĠRec": 2410,
      "Ġstudy": 2411,
      "search": 2412,
      "ĠNo": 2413,
      "Ġposition": 2414,
      "ek": 2415,
      ")^": 2416,
      "Ġvol": 2417,
      "Ġet": 2418,
      "lete": 2419,
      "ynam": 2420,
      "size": 2421,
      "rite": 2422,
      "Ġspe": 2423,
      "Ġserved": 2424,
      "uman": 2425,
      "Ġage": 2426,
      "Ġprofess": 2427,
      "hold": 2428,
      "Ġinterest": 2429,
      "rest": 2430,
      "31": 2431,
      "ww": 2432,
      "////": 2433,
      "Ġday": 2434,
      "Ġsix": 2435,
      "Ġdeterm": 2436,
      "arried": 2437,
      "90": 2438,
      "rick": 2439,
      "Ġthird": 2440,
      "Ġcentury": 2441,
      "inition": 2442,
      "iet": 2443,
      "70": 2444,
      "Se": 2445,
      "],": 2446,
      "}).": 2447,
      "Set": 2448,
      "Ġborn": 2449,
      "ently": 2450,
      "Ġaver": 2451,
      "ivity": 2452,
      "Ġfive": 2453,
      "Ġtake": 2454,
      "date": 2455,
      "Ġpe": 2456,
      "ĠLondon": 2457,
      "ĠAir": 2458,
      "ĠChampionship": 2459,
      "ilitary": 2460,
      "Ġarch": 2461,
      "ological": 2462,
      "ĠFrench": 2463,
      "2002": 2464,
      "Ġview": 2465,
      "ĠWilliam": 2466,
      "Ġfeature": 2467,
      "go": 2468,
      "Ġlearn": 2469,
      "ĠHigh": 2470,
      "ĠThere": 2471,
      "ĠEn": 2472,
      "Ġquant": 2473,
      "Ġincluded": 2474,
      "Ġlang": 2475,
      "ones": 2476,
      "Ġterms": 2477,
      "estern": 2478,
      "2001": 2479,
      "idual": 2480,
      "hline": 2481,
      "Ġservice": 2482,
      "ĠAm": 2483,
      "Ġid": 2484,
      "DE": 2485,
      "ald": 2486,
      "ope": 2487,
      "dom": 2488,
      "Ġfr": 2489,
      "Ġ&&": 2490,
      "px": 2491,
      "Ġspecies": 2492,
      "mary": 2493,
      "IT": 2494,
      "ither": 2495,
      "box": 2496,
      "mmet": 2497,
      "ym": 2498,
      "ington": 2499,
      "ĠĠĠĠĠĠĠĠĠĠĠĠĠĠĠĠĠĠĠĠĠĠĠ": 2500,
      "Ġeduc": 2501,
      "ysis": 2502,
      "ĠChar": 2503,
      "Value": 2504,
      "vec": 2505,
      "na": 2506,
      "cast": 2507,
      "oll": 2508,
      "mathfrak": 2509,
      "Ġinvol": 2510,
      "unic": 2511,
      "etic": 2512,
      "Ġcontrol": 2513,
      "AN": 2514,
      "olic": 2515,
      "rum": 2516,
      "Ġtelevision": 2517,
      "Ġmultip": 2518,
      "Ġ/**": 2519,
      "oph": 2520,
      "Let": 2521,
      "Ġcamp": 2522,
      "188": 2523,
      "ĠGerman": 2524,
      "Ġtimes": 2525,
      "Lambda": 2526,
      "uck": 2527,
      "Ġturn": 2528,
      "indow": 2529,
      "conom": 2530,
      "}}$": 2531,
      "lean": 2532,
      "Ġplayer": 2533,
      "lymp": 2534,
      "Ġcompos": 2535,
      "Ġstates": 2536,
      "ĠMe": 2537,
      "ude": 2538,
      "ards": 2539,
      "Ã³": 2540,
      "Ġstrong": 2541,
      "\");": 2542,
      "Ġmen": 2543,
      "Ġchildren": 2544,
      "Ġdistribution": 2545,
      "bra": 2546,
      "ĠYou": 2547,
      "Ġapproxim": 2548,
      "isf": 2549,
      "Ġstructure": 2550,
      "ending": 2551,
      "ldots": 2552,
      "rary": 2553,
      "reet": 2554,
      "Ġfull": 2555,
      "ocus": 2556,
      "ĠDistrict": 2557,
      "ĠItal": 2558,
      "Ġrole": 2559,
      "Ġport": 2560,
      "Ġpot": 2561,
      "langle": 2562,
      "Ġfurther": 2563,
      "ĠCup": 2564,
      "Ġbeg": 2565,
      "mult": 2566,
      "ning": 2567,
      "Ġcover": 2568,
      "icle": 2569,
      "SE": 2570,
      "ĠHouse": 2571,
      "ĠHer": 2572,
      "ops": 2573,
      "ouncil": 2574,
      "ĠDav": 2575,
      "bit": 2576,
      "Ġtext": 2577,
      "Ġcommon": 2578,
      "ĠArt": 2579,
      "Ġauthor": 2580,
      "Ġerror": 2581,
      "sf": 2582,
      "Ġoften": 2583,
      "ervice": 2584,
      "Ġperformance": 2585,
      "Ġimportant": 2586,
      "ĠAng": 2587,
      "Phi": 2588,
      "Ġcho": 2589,
      "Ġmatch": 2590,
      "uration": 2591,
      "ĠPark": 2592,
      "ief": 2593,
      "Ġamong": 2594,
      "ridge": 2595,
      "ĠSch": 2596,
      "CO": 2597,
      "Ġbuilding": 2598,
      "AM": 2599,
      "pose": 2600,
      "gs": 2601,
      "ĠBro": 2602,
      "Ġrange": 2603,
      "ĠĠĠĠĊ": 2604,
      "Ġstatic": 2605,
      "ĠPres": 2606,
      "aut": 2607,
      "Ġdiscuss": 2608,
      "ĠMon": 2609,
      "Cont": 2610,
      "Ġworks": 2611,
      "br": 2612,
      "iff": 2613,
      "Ġphys": 2614,
      "uation": 2615,
      "ailable": 2616,
      "ories": 2617,
      "Ġinvest": 2618,
      "65": 2619,
      "Ġbase": 2620,
      "Ġbook": 2621,
      "ooks": 2622,
      "imum": 2623,
      "wid": 2624,
      "style": 2625,
      "ĠTo": 2626,
      "($": 2627,
      "Ġpossible": 2628,
      "Ġsignific": 2629,
      "Ġnetwork": 2630,
      "Ġphot": 2631,
      "Ġvarious": 2632,
      "ship": 2633,
      "Ġcompon": 2634,
      "appa": 2635,
      "ĠComp": 2636,
      "Ġwritten": 2637,
      "Ġair": 2638,
      "Ġfew": 2639,
      "Ġwar": 2640,
      "Ġsequ": 2641,
      "34": 2642,
      "Ġcou": 2643,
      "ii": 2644,
      "ĠThese": 2645,
      "Ġsw": 2646,
      "Ġnorth": 2647,
      "ught": 2648,
      "Ġconsidered": 2649,
      "nabla": 2650,
      "Ġsit": 2651,
      "iber": 2652,
      "Ġmeasure": 2653,
      "Ġdied": 2654,
      "Mod": 2655,
      "Ġmy": 2656,
      "ensuremath": 2657,
      "ways": 2658,
      "Ġfore": 2659,
      "));": 2660,
      "inning": 2661,
      "lue": 2662,
      "ctor": 2663,
      "Ġtarget": 2664,
      "ĠVal": 2665,
      "function": 2666,
      "ociation": 2667,
      "list": 2668,
      "Ġ%": 2669,
      "test": 2670,
      "];": 2671,
      "avy": 2672,
      "sup": 2673,
      "Exception": 2674,
      "Ġmean": 2675,
      "alt": 2676,
      "mbox": 2677,
      "Ġspecial": 2678,
      "========": 2679,
      "Ġpri": 2680,
      "circ": 2681,
      "Ġred": 2682,
      "ÃŃ": 2683,
      "ought": 2684,
      "Living": 2685,
      "opy": 2686,
      "ables": 2687,
      "Ġmot": 2688,
      "cap": 2689,
      "textit": 2690,
      "ĠPhil": 2691,
      "citep": 2692,
      "ĠLa": 2693,
      ")(": 2694,
      "ividual": 2695,
      "ĠInternational": 2696,
      "iforn": 2697,
      "Ġwater": 2698,
      "Ġpath": 2699,
      "Ġknow": 2700,
      "Ps": 2701,
      "file": 2702,
      "now": 2703,
      "ĠChe": 2704,
      "nb": 2705,
      "Ġarm": 2706,
      "Ġcomplex": 2707,
      "attle": 2708,
      "oyal": 2709,
      "Sc": 2710,
      "viron": 2711,
      "Ġlog": 2712,
      "node": 2713,
      "ĠPl": 2714,
      "Ġvillage": 2715,
      "CT": 2716,
      "amples": 2717,
      "wide": 2718,
      "Ġindic": 2719,
      "Ġeas": 2720,
      "Ġlight": 2721,
      "Ġevents": 2722,
      "lobal": 2723,
      "uf": 2724,
      "ĠOne": 2725,
      "ifornia": 2726,
      "load": 2727,
      "ĠDiv": 2728,
      "Ġaction": 2729,
      "annel": 2730,
      "ĠIndian": 2731,
      "\\|": 2732,
      "Ġinitial": 2733,
      "99": 2734,
      "Ġprim": 2735,
      "De": 2736,
      "Ã¼": 2737,
      "ara": 2738,
      "\\%": 2739,
      "roid": 2740,
      "Ġalgorithm": 2741,
      "rror": 2742,
      "ĠQu": 2743,
      "max": 2744,
      "People": 2745,
      "Ġannoun": 2746,
      "Ġless": 2747,
      "ĠPer": 2748,
      "Ġtraining": 2749,
      "isc": 2750,
      "1999": 2751,
      "2022": 2752,
      "rig": 2753,
      "Ġexpl": 2754,
      "Ġbusiness": 2755,
      "subset": 2756,
      "Ġcorre": 2757,
      "1990": 2758,
      "})$": 2759,
      "Ġproduct": 2760,
      "Ġfl": 2761,
      ".\\": 2762,
      "ours": 2763,
      "Ġ///": 2764,
      "era": 2765,
      "Ġson": 2766,
      "Ġmagn": 2767,
      "clus": 2768,
      "Ġrelations": 2769,
      "ĠRiver": 2770,
      "ula": 2771,
      "Ġparameters": 2772,
      "burg": 2773,
      "Ġins": 2774,
      "orge": 2775,
      "Ġsepar": 2776,
      "48": 2777,
      "Ġcross": 2778,
      "Ġcountry": 2779,
      "Object": 2780,
      "Ġfunctions": 2781,
      "Ġassum": 2782,
      "group": 2783,
      "ĠThen": 2784,
      "Ġfail": 2785,
      "Ġround": 2786,
      "Ġstar": 2787,
      "ĠAg": 2788,
      "Int": 2789,
      "Ġcr": 2790,
      "Ġgood": 2791,
      "ĠEngland": 2792,
      "ware": 2793,
      "ĠString": 2794,
      "38": 2795,
      "useum": 2796,
      "aterial": 2797,
      "Ġclaim": 2798,
      "ateg": 2799,
      "Ġcirc": 2800,
      "anish": 2801,
      "kappa": 2802,
      "otimes": 2803,
      "Ġsouth": 2804,
      "Ġimpro": 2805,
      "mar": 2806,
      "draw": 2807,
      "oon": 2808,
      "Ġcreated": 2809,
      "itect": 2810,
      "Test": 2811,
      "Ġtheory": 2812,
      "History": 2813,
      "Ġnov": 2814,
      "Ġide": 2815,
      "Ġgraph": 2816,
      "ociety": 2817,
      "ĠÐ": 2818,
      "ĠDep": 2819,
      "Ġobtained": 2820,
      "Ġaverage": 2821,
      "ĠMich": 2822,
      "Ġconv": 2823,
      "Ġsatisf": 2824,
      "lands": 2825,
      "36": 2826,
      "aken": 2827,
      "âĢĶ": 2828,
      "Ġkill": 2829,
      "Ġhowever": 2830,
      "}),": 2831,
      "rain": 2832,
      "Ġdensity": 2833,
      "Ġgen": 2834,
      "Ġproduced": 2835,
      "Ġbecome": 2836,
      "chie": 2837,
      "AP": 2838,
      "Ġenc": 2839,
      "Ġdeta": 2840,
      "\\!": 2841,
      "Ġfree": 2842,
      "reed": 2843,
      "Ġhost": 2844,
      "Ġ()": 2845,
      "utions": 2846,
      "II": 2847,
      "ogn": 2848,
      "ĠCalifornia": 2849,
      "ients": 2850,
      "Ġ!=": 2851,
      "Ġapplic": 2852,
      "Ġlower": 2853,
      "omb": 2854,
      "Ġpaper": 2855,
      "ico": 2856,
      "Ġled": 2857,
      "Ġinput": 2858,
      "hern": 2859,
      "Ġconsist": 2860,
      "Ġchange": 2861,
      "Ġhistor": 2862,
      "Ġhaving": 2863,
      "yl": 2864,
      "comp": 2865,
      "Ġsuper": 2866,
      "Ġsem": 2867,
      "nder": 2868,
      "ama": 2869,
      "ribute": 2870,
      "Sigma": 2871,
      "atural": 2872,
      "Ġconc": 2873,
      "Ġtw": 2874,
      "Ġsent": 2875,
      "Ġfeatures": 2876,
      "ett": 2877,
      "ilter": 2878,
      "ules": 2879,
      "BC": 2880,
      "sw": 2881,
      "location": 2882,
      "ĠAct": 2883,
      "Ġdat": 2884,
      "IC": 2885,
      "Ġestablish": 2886,
      "Ġq": 2887,
      "Key": 2888,
      "map": 2889,
      "Ġorg": 2890,
      "Ġconn": 2891,
      "df": 2892,
      "point": 2893,
      "Ġsignificant": 2894,
      "Ġavailable": 2895,
      "Ġlimit": 2896,
      "44": 2897,
      "Ġcult": 2898,
      "ĠParty": 2899,
      "With": 2900,
      "atus": 2901,
      "Ġflow": 2902,
      "ference": 2903,
      "ĠList": 2904,
      "ander": 2905,
      "ising": 2906,
      "oted": 2907,
      "asing": 2908,
      "Ġhy": 2909,
      "Ġsystems": 2910,
      "Ġsource": 2911,
      "ĠAustralia": 2912,
      "Ġ``": 2913,
      "Ġcondition": 2914,
      "Ġmoved": 2915,
      "Ġsite": 2916,
      "Ġhere": 2917,
      "Ġgroups": 2918,
      "pace": 2919,
      "55": 2920,
      "link": 2921,
      "stand": 2922,
      "1998": 2923,
      "Ġdiff": 2924,
      "idence": 2925,
      "ĠAc": 2926,
      "duc": 2927,
      "Ġpract": 2928,
      "Ġdistrict": 2929,
      "Ġvert": 2930,
      "nonumber": 2931,
      "Ġproduction": 2932,
      "index": 2933,
      "aff": 2934,
      "Ġrespectively": 2935,
      "ournal": 2936,
      "ivil": 2937,
      "ems": 2938,
      "igned": 2939,
      "Ġ($": 2940,
      "}}{": 2941,
      "Ġmatrix": 2942,
      "ms": 2943,
      "37": 2944,
      "().": 2945,
      "ls": 2946,
      "inary": 2947,
      "state": 2948,
      "ĠAmer": 2949,
      "Ġdeaths": 2950,
      "minist": 2951,
      "Ġdevelopment": 2952,
      "cher": 2953,
      "Class": 2954,
      "andom": 2955,
      "iol": 2956,
      "nbsp": 2957,
      "ha": 2958,
      "widet": 2959,
      "ĠTr": 2960,
      "hib": 2961,
      "ĠWhen": 2962,
      "Ġpair": 2963,
      "Ġcer": 2964,
      "Def": 2965,
      "dots": 2966,
      "my": 2967,
      "bor": 2968,
      "que": 2969,
      "Ġship": 2970,
      "Ġleast": 2971,
      "scal": 2972,
      "ecut": 2973,
      "Ġlay": 2974,
      "ĠEast": 2975,
      "Ġmale": 2976,
      "Ġindividual": 2977,
      "Ġfather": 2978,
      "sl": 2979,
      "Ġke": 2980,
      "39": 2981,
      "Ġinternational": 2982,
      "Get": 2983,
      "ĠOlymp": 2984,
      "Ġsett": 2985,
      "ĠArmy": 2986,
      "Ġengine": 2987,
      "Ġhelp": 2988,
      "ouble": 2989,
      "mon": 2990,
      "Ġge": 2991,
      "\\[": 2992,
      "ĠAward": 2993,
      "Ġant": 2994,
      "Ġrate": 2995,
      "most": 2996,
      "Ġnode": 2997,
      "());": 2998,
      "Ġmillion": 2999,
      "widetilde": 3000,
      "Ġlate": 3001,
      "Ġsolution": 3002,
      "Ġapproach": 3003,
      "Ġloss": 3004,
      "Ġimage": 3005,
      "Ġcommunity": 3006,
      "Ġyoung": 3007,
      "Ġdev": 3008,
      "ably": 3009,
      "Ġsold": 3010,
      "At": 3011,
      "66": 3012,
      "lying": 3013,
      "ĠBer": 3014,
      "Ġresearch": 3015,
      "New": 3016,
      "05": 3017,
      "Ġbi": 3018,
      "Ġcell": 3019,
      "Ġlength": 3020,
      "Ġcases": 3021,
      "itch": 3022,
      "{-": 3023,
      "rant": 3024,
      "].": 3025,
      "ellow": 3026,
      "ched": 3027,
      "Ġeither": 3028,
      "ights": 3029,
      "ager": 3030,
      "Ġconstant": 3031,
      "Ġstandard": 3032,
      "cit": 3033,
      "vironment": 3034,
      "Ġblack": 3035,
      "Ġfem": 3036,
      "ged": 3037,
      "ken": 3038,
      "Ġparameter": 3039,
      "Ġneg": 3040,
      "Ġgrow": 3041,
      "Ġfrequ": 3042,
      "Ġmer": 3043,
      "Ġanalysis": 3044,
      "rc": 3045,
      "kn": 3046,
      "Ġindependent": 3047,
      "ĠIndia": 3048,
      "exp": 3049,
      "Ġproperty": 3050,
      "Qu": 3051,
      "187": 3052,
      "Ġgreat": 3053,
      "1980": 3054,
      "Ġmiss": 3055,
      "FF": 3056,
      "ĠBel": 3057,
      "Ġhigher": 3058,
      "Ġstarted": 3059,
      "bb": 3060,
      "uture": 3061,
      "centering": 3062,
      "ĠLet": 3063,
      "Ġda": 3064,
      "irt": 3065,
      "evel": 3066,
      "ittle": 3067,
      "och": 3068,
      "eh": 3069,
      "uggest": 3070,
      "gether": 3071,
      "ĠChurch": 3072,
      "ĠFrance": 3073,
      "Ġtogether": 3074,
      "Ġvideo": 3075,
      "ĠPort": 3076,
      "Ġcaus": 3077,
      "Ġregular": 3078,
      "ĠSec": 3079,
      "\";": 3080,
      "LL": 3081,
      "Error": 3082,
      "down": 3083,
      "Ġconstruct": 3084,
      "Ġhalf": 3085,
      "ait": 3086,
      "Ġequation": 3087,
      "Ġannounced": 3088,
      "itted": 3089,
      "1996": 3090,
      "Ġhom": 3091,
      "Ġcost": 3092,
      "Ġflu": 3093,
      "Ġfile": 3094,
      "Ġcame": 3095,
      "ĠMal": 3096,
      "Ġcorresponding": 3097,
      "based": 3098,
      "ming": 3099,
      "han": 3100,
      "ael": 3101,
      "Ġdom": 3102,
      "01": 3103,
      "/\\": 3104,
      "IS": 3105,
      "Ġreturned": 3106,
      "gcolor": 3107,
      "Ġfocus": 3108,
      "Ass": 3109,
      "ĠLem": 3110,
      "Ġassociated": 3111,
      "thm": 3112,
      "orthern": 3113,
      "Ġthus": 3114,
      "Ġaccess": 3115,
      "Ġaward": 3116,
      "ressed": 3117,
      "Ġrequest": 3118,
      "._": 3119,
      "49": 3120,
      "1997": 3121,
      "http": 3122,
      "Ġmethods": 3123,
      "ĠRoman": 3124,
      "Ġbackground": 3125,
      "Ġser": 3126,
      "ension": 3127,
      "Ġfund": 3128,
      "itz": 3129,
      "aries": 3130,
      "iddle": 3131,
      "Ġear": 3132,
      "perty": 3133,
      "path": 3134,
      "ĠAmerica": 3135,
      "Ġpotential": 3136,
      "Ġbroad": 3137,
      "acks": 3138,
      "Ġofficial": 3139,
      "ĠRed": 3140,
      "Ġpolitic": 3141,
      "Ã¶": 3142,
      "ibility": 3143,
      "unicip": 3144,
      "Ġvia": 3145,
      "util": 3146,
      "Ġseen": 3147,
      "En": 3148,
      "ving": 3149,
      "cing": 3150,
      "ĠPal": 3151,
      "After": 3152,
      "Ġconditions": 3153,
      "Ġrecent": 3154,
      "ota": 3155,
      "from": 3156,
      "ĠRev": 3157,
      "Man": 3158,
      "Ġground": 3159,
      "RO": 3160,
      "ĠCanada": 3161,
      "Ġdebut": 3162,
      "ĠEuropean": 3163,
      "ender": 3164,
      "pen": 3165,
      "gen": 3166,
      "ĠWith": 3167,
      "ĠSim": 3168,
      "cis": 3169,
      "Ġnumer": 3170,
      "tabular": 3171,
      "Fig": 3172,
      "ĠCour": 3173,
      "Ġachie": 3174,
      "ccording": 3175,
      "Ġsurv": 3176,
      "ya": 3177,
      "ceed": 3178,
      "Ġabs": 3179,
      "chan": 3180,
      "All": 3181,
      "ĠFirst": 3182,
      "Ġbelow": 3183,
      "Ġdimens": 3184,
      "Ġwent": 3185,
      "Ġplan": 3186,
      "aces": 3187,
      "Ġepis": 3188,
      "Ġpolitical": 3189,
      "ĠAnt": 3190,
      "ĠPresident": 3191,
      "ney": 3192,
      "ottom": 3193,
      "Ġelection": 3194,
      "iven": 3195,
      "Ġprovide": 3196,
      "ĠHol": 3197,
      "itte": 3198,
      "Ġlanguage": 3199,
      "incip": 3200,
      "plied": 3201,
      "Ġsuggest": 3202,
      "ustom": 3203,
      "Ġrequire": 3204,
      "ĠCouncil": 3205,
      "ĠThom": 3206,
      "ĠGovern": 3207,
      "Ġemploy": 3208,
      "ĠRober": 3209,
      "uel": 3210,
      "artment": 3211,
      "ĉĉĉĉĉ": 3212,
      "Ġcalcul": 3213,
      "Ġ:=": 3214,
      "Ġreview": 3215,
      "Ġbgcolor": 3216,
      "ults": 3217,
      "Ġimplement": 3218,
      "47": 3219,
      "ĠPaul": 3220,
      "ĠGeneral": 3221,
      "Ð¾": 3222,
      "State": 3223,
      "From": 3224,
      "ED": 3225,
      "Ġrequired": 3226,
      "rote": 3227,
      "}-": 3228,
      "Ġcy": 3229,
      "ached": 3230,
      "ĠJames": 3231,
      "thern": 3232,
      "Ġcode": 3233,
      "sin": 3234,
      "ĠAp": 3235,
      "Ġtemper": 3236,
      "Ġacross": 3237,
      "nav": 3238,
      "ĠSm": 3239,
      "ĠQue": 3240,
      "Ġfri": 3241,
      "summary": 3242,
      "iers": 3243,
      "amil": 3244,
      "lections": 3245,
      "ordin": 3246,
      "ements": 3247,
      "1995": 3248,
      "Ġparticip": 3249,
      "Ġappoint": 3250,
      "ready": 3251,
      "Ġattack": 3252,
      "earch": 3253,
      "Ġlines": 3254,
      "Ġphase": 3255,
      "ĠMor": 3256,
      "Ġtaken": 3257,
      "Ġdest": 3258,
      "Ġactiv": 3259,
      "Form": 3260,
      "stitute": 3261,
      "If": 3262,
      "ES": 3263,
      "Ġill": 3264,
      "Ġpopular": 3265,
      "ecess": 3266,
      "~~": 3267,
      "Ġassert": 3268,
      "Ġsocial": 3269,
      "outhern": 3270,
      "cle": 3271,
      "Ġsm": 3272,
      "ET": 3273,
      "['": 3274,
      "Ġcontext": 3275,
      "ilities": 3276,
      "Ġattempt": 3277,
      "Ġtrack": 3278,
      "ĠRoyal": 3279,
      "plies": 3280,
      "ulated": 3281,
      "public": 3282,
      "gress": 3283,
      "ked": 3284,
      "Ð°": 3285,
      "acy": 3286,
      "ĠDivision": 3287,
      "\":": 3288,
      "ville": 3289,
      "ĠSum": 3290,
      "Ġbreak": 3291,
      "Ġcontinu": 3292,
      "Requ": 3293,
      "Ġproposed": 3294,
      "ĠGeorge": 3295,
      "\\]": 3296,
      "url": 3297,
      "ĠSince": 3298,
      "itional": 3299,
      "ountain": 3300,
      "ĠStreet": 3301,
      "Ġ/>": 3302,
      "hood": 3303,
      "iled": 3304,
      "ĠNe": 3305,
      "Ġclose": 3306,
      "Ġworked": 3307,
      "iding": 3308,
      "Ġmem": 3309,
      "Ġperm": 3310,
      "ocal": 3311,
      "Rec": 3312,
      "ounter": 3313,
      "ĠSen": 3314,
      "View": 3315,
      "AA": 3316,
      "Ġblock": 3317,
      "Ġaccount": 3318,
      "Ġmarried": 3319,
      "ĠTheorem": 3320,
      "Ġmilitary": 3321,
      "length": 3322,
      "Ġproperties": 3323,
      "Ġpositive": 3324,
      "year": 3325,
      "Ġinflu": 3326,
      "reek": 3327,
      "Ġreported": 3328,
      "inst": 3329,
      "Ġadv": 3330,
      "ession": 3331,
      "omorph": 3332,
      "which": 3333,
      "Ġstory": 3334,
      "1994": 3335,
      "\\{": 3336,
      "Ġbody": 3337,
      "hel": 3338,
      "Ġlinear": 3339,
      "aches": 3340,
      "andid": 3341,
      "Ġdays": 3342,
      "Ġproof": 3343,
      "ui": 3344,
      "atives": 3345,
      "Ġexpected": 3346,
      "ump": 3347,
      "Ġservices": 3348,
      "Ġprovided": 3349,
      "Ġrandom": 3350,
      "ĠÃ": 3351,
      "CC": 3352,
      "');": 3353,
      "||": 3354,
      "ux": 3355,
      "rd": 3356,
      "ĠRich": 3357,
      "1970": 3358,
      "Ġdepend": 3359,
      "oment": 3360,
      "rab": 3361,
      "Ġliter": 3362,
      "Ġmeans": 3363,
      "Ġwant": 3364,
      "pan": 3365,
      "medi": 3366,
      "Ġvector": 3367,
      "ky": 3368,
      "Ġlo": 3369,
      "berg": 3370,
      "ackage": 3371,
      "LA": 3372,
      "Equ": 3373,
      "1992": 3374,
      "Ġcontains": 3375,
      "foot": 3376,
      "Ġtre": 3377,
      "run": 3378,
      "ĠMy": 3379,
      "ĠAssociation": 3380,
      "Ġdegree": 3381,
      ";\\": 3382,
      "ean": 3383,
      "ranch": 3384,
      "Ġdeveloped": 3385,
      "Ġcreate": 3386,
      "Ġelements": 3387,
      "ibrary": 3388,
      "cos": 3389,
      "}+": 3390,
      "Ġstudents": 3391,
      "cell": 3392,
      "Ġunit": 3393,
      "Ġhuman": 3394,
      ")=\\": 3395,
      "Ġdefe": 3396,
      "known": 3397,
      "ĠDem": 3398,
      "irection": 3399,
      "67": 3400,
      "IM": 3401,
      "bert": 3402,
      "ocr": 3403,
      "ĠLou": 3404,
      "Time": 3405,
      "nection": 3406,
      "prime": 3407,
      "Over": 3408,
      "Ġjoined": 3409,
      "Ġang": 3410,
      "']": 3411,
      "Ġindex": 3412,
      "rated": 3413,
      "ĉĊ": 3414,
      "Ġsche": 3415,
      "Ġnormal": 3416,
      "Ġconfig": 3417,
      "ĠSection": 3418,
      "ĠMa": 3419,
      "band": 3420,
      "ĠStud": 3421,
      "Ġconstruction": 3422,
      "asc": 3423,
      "Add": 3424,
      "icy": 3425,
      "ĠBut": 3426,
      "rim": 3427,
      "Sy": 3428,
      "utes": 3429,
      "Ġperformed": 3430,
      "ago": 3431,
      "ka": 3432,
      "Ġdocument": 3433,
      "Ġmaking": 3434,
      "Ġsl": 3435,
      "ĠDavid": 3436,
      "Ġflo": 3437,
      "(),": 3438,
      "oe": 3439,
      "icro": 3440,
      "Ġarchitect": 3441,
      "ĠDes": 3442,
      "Ġcolor": 3443,
      "Ġsay": 3444,
      "ĠUnion": 3445,
      "Ġinstance": 3446,
      "ills": 3447,
      "Ġrail": 3448,
      "ili": 3449,
      "rian": 3450,
      "Ġpresident": 3451,
      "{(": 3452,
      "Ġbehav": 3453,
      ".</": 3454,
      "istics": 3455,
      "ĠSystem": 3456,
      "Ġmaterial": 3457,
      "wise": 3458,
      "Ġemb": 3459,
      "rec": 3460,
      "eal": 3461,
      "erb": 3462,
      "mark": 3463,
      "otes": 3464,
      "Ġeconom": 3465,
      "umni": 3466,
      "ĠGermany": 3467,
      "1993": 3468,
      "Ad": 3469,
      "68": 3470,
      "ĠBra": 3471,
      "Ġrepla": 3472,
      "zeta": 3473,
      "Ġwrote": 3474,
      "Ġfig": 3475,
      "Ġwin": 3476,
      "}\\,": 3477,
      "roy": 3478,
      "PE": 3479,
      "ĠHall": 3480,
      "Ge": 3481,
      "TR": 3482,
      "Ġrelated": 3483,
      "Ġindust": 3484,
      "\"></": 3485,
      "Ðµ": 3486,
      "File": 3487,
      "95": 3488,
      "ida": 3489,
      "ĠAustralian": 3490,
      ".~": 3491,
      "ply": 3492,
      "Is": 3493,
      "oud": 3494,
      "atal": 3495,
      "Ġdynam": 3496,
      "raint": 3497,
      "}=\\": 3498,
      "izing": 3499,
      "Ġthrow": 3500,
      "Ġcontent": 3501,
      "Ġcommand": 3502,
      "Trans": 3503,
      "itar": 3504,
      "185": 3505,
      ")^{": 3506,
      "ĠPat": 3507,
      "Ġable": 3508,
      "Ġgradu": 3509,
      "ashington": 3510,
      "ogle": 3511,
      "ĠFrom": 3512,
      "ires": 3513,
      "Ġput": 3514,
      ",\"": 3515,
      "dt": 3516,
      "Ġareas": 3517,
      "Ġmag": 3518,
      "1991": 3519,
      "ĠEq": 3520,
      "ura": 3521,
      "pons": 3522,
      "Ġsurface": 3523,
      "error": 3524,
      "Ġuser": 3525,
      "Ġmid": 3526,
      "quare": 3527,
      "igen": 3528,
      "Ġ&=": 3529,
      "Text": 3530,
      "ĠTrans": 3531,
      "Ġcentral": 3532,
      "alls": 3533,
      "Ġsymmet": 3534,
      "Ġquest": 3535,
      "Ġfinite": 3536,
      "ĠChina": 3537,
      "Ġnever": 3538,
      "ĠDuring": 3539,
      "Ġopened": 3540,
      "icon": 3541,
      "icol": 3542,
      "icles": 3543,
      "Pl": 3544,
      "Ġinvestig": 3545,
      "small": 3546,
      "gin": 3547,
      "}]": 3548,
      "like": 3549,
      "prop": 3550,
      "Ġwhose": 3551,
      "Ġroad": 3552,
      "ION": 3553,
      "riate": 3554,
      "Ġ);": 3555,
      "Ġworking": 3556,
      "asket": 3557,
      "Ġdirector": 3558,
      "ĠDr": 3559,
      "ishing": 3560,
      "wood": 3561,
      "raction": 3562,
      "ittee": 3563,
      "ride": 3564,
      "Ġintroduced": 3565,
      "js": 3566,
      "Ġlost": 3567,
      "Ġresponse": 3568,
      "Ġwebs": 3569,
      "Ġsongs": 3570,
      "Ġprofessional": 3571,
      "ulations": 3572,
      "cdots": 3573,
      "sing": 3574,
      "ĠEm": 3575,
      "Ġrecogn": 3576,
      "Ġadditional": 3577,
      "Ġconduct": 3578,
      "ani": 3579,
      "board": 3580,
      "Ġlik": 3581,
      "Ġlarger": 3582,
      "Ġdefine": 3583,
      "}^\\": 3584,
      "embly": 3585,
      "Ġinstead": 3586,
      "Ġhon": 3587,
      "Ġcapt": 3588,
      "asons": 3589,
      "Ġalready": 3590,
      "Ġcontribut": 3591,
      "tage": 3592,
      "Ġbetter": 3593,
      "aves": 3594,
      "uster": 3595,
      "ĠMod": 3596,
      "aign": 3597,
      "ĠNor": 3598,
      "Ġchurch": 3599,
      "Ġnovel": 3600,
      "Ġparent": 3601,
      "Or": 3602,
      "ĠDef": 3603,
      "ĠCenter": 3604,
      "ĠPe": 3605,
      "Ġteams": 3606,
      "Ġrac": 3607,
      "Ġcheck": 3608,
      "ĠCont": 3609,
      "Ġothers": 3610,
      "Ġdistance": 3611,
      "Ġcompan": 3612,
      "Ġarr": 3613,
      "Ġoutput": 3614,
      "men": 3615,
      "Ġcompar": 3616,
      "AD": 3617,
      "fin": 3618,
      "Ġfla": 3619,
      "escription": 3620,
      "ĠDi": 3621,
      ")}\\": 3622,
      "uments": 3623,
      "istry": 3624,
      "ughter": 3625,
      "nel": 3626,
      "Ġtable": 3627,
      "Ġexists": 3628,
      "rup": 3629,
      "ĠGroup": 3630,
      "ĠLaw": 3631,
      "eed": 3632,
      "Ġmar": 3633,
      "Ġmeet": 3634,
      "Ġsuccessful": 3635,
      "ĠAcadem": 3636,
      "Ġwidth": 3637,
      "Ġneigh": 3638,
      "ĠCourt": 3639,
      "Ġcontinued": 3640,
      "ĠMore": 3641,
      "ĠMart": 3642,
      "Ġmultiple": 3643,
      "gebra": 3644,
      "Ġrat": 3645,
      "ensive": 3646,
      "Ġcompleted": 3647,
      "oz": 3648,
      "Ġeducation": 3649,
      "Field": 3650,
      "Ġrelease": 3651,
      "Info": 3652,
      "Path": 3653,
      "Event": 3654,
      "Ġleading": 3655,
      "Ġparty": 3656,
      "Ġobserved": 3657,
      "Sp": 3658,
      "ado": 3659,
      "Ġarray": 3660,
      "ein": 3661,
      "Ġlabel": 3662,
      "Ġtry": 3663,
      "Ġhard": 3664,
      "Element": 3665,
      "edd": 3666,
      "atory": 3667,
      "$)": 3668,
      "}_\\": 3669,
      "ĠMary": 3670,
      "46": 3671,
      "Ġoffer": 3672,
      "Node": 3673,
      "oolean": 3674,
      "Ġbelie": 3675,
      "Ġonce": 3676,
      "liament": 3677,
      "Ġlook": 3678,
      "body": 3679,
      "Ġclosed": 3680,
      "alax": 3681,
      "}}(": 3682,
      "ĠBlack": 3683,
      "Ġ?": 3684,
      "Ġweek": 3685,
      "Ġequival": 3686,
      "ĠMac": 3687,
      "!--": 3688,
      "hspace": 3689,
      "1960": 3690,
      "Ġstep": 3691,
      "UT": 3692,
      "Ġaccording": 3693,
      "ĠMex": 3694,
      "LO": 3695,
      "Ġthough": 3696,
      "Ġcoupl": 3697,
      "Ġcontract": 3698,
      "ites": 3699,
      "aker": 3700,
      "skip": 3701,
      "ategory": 3702,
      "Ġexperiment": 3703,
      "ini": 3704,
      "ĠMusic": 3705,
      "ĠProv": 3706,
      "Ġrecorded": 3707,
      "Ġstage": 3708,
      "Ġoccur": 3709,
      "ĠHen": 3710,
      "Ġrow": 3711,
      "Ġviol": 3712,
      "../../../../": 3713,
      "writ": 3714,
      "ĠMark": 3715,
      "Ġgive": 3716,
      "Ġdirected": 3717,
      "Ġradio": 3718,
      "Ġpur": 3719,
      "textwidth": 3720,
      "08": 3721,
      "aged": 3722,
      "Ġfields": 3723,
      "iform": 3724,
      "lemma": 3725,
      "Build": 3726,
      "widehat": 3727,
      "ĠCompany": 3728,
      "inner": 3729,
      "Ġund": 3730,
      "ership": 3731,
      "ĠRoad": 3732,
      "42": 3733,
      "ipp": 3734,
      "ns": 3735,
      "Ġzero": 3736,
      "Param": 3737,
      "Ġnatural": 3738,
      "Ġbrother": 3739,
      "1989": 3740,
      "ston": 3741,
      "input": 3742,
      "Ġten": 3743,
      "ensus": 3744,
      "Ġdistribut": 3745,
      "ĠWashington": 3746,
      "block": 3747,
      "cks": 3748,
      "Ġrev": 3749,
      "ĠBay": 3750,
      "Ġcenter": 3751,
      "Ġpress": 3752,
      "Ġsimple": 3753,
      "Request": 3754,
      "Ġformed": 3755,
      "Ġtransfer": 3756,
      "ĠClub": 3757,
      "inese": 3758,
      "ĠSociety": 3759,
      "Ġpaint": 3760,
      "Ġ\\{": 3761,
      "Ġsequence": 3762,
      "07": 3763,
      "ĠDepartment": 3764,
      "mathsf": 3765,
      "Ġincludes": 3766,
      ")]": 3767,
      "ĠGl": 3768,
      "Ġentire": 3769,
      "Ġadded": 3770,
      "cup": 3771,
      "02": 3772,
      "Ġfactor": 3773,
      "ĠDon": 3774,
      "Ġcandid": 3775,
      "Map": 3776,
      "Ġscale": 3777,
      "And": 3778,
      "ĠGreen": 3779,
      "ĠInstitute": 3780,
      "ĠCanadian": 3781,
      "ĠKingdom": 3782,
      "ponent": 3783,
      "ien": 3784,
      "Ġalbums": 3785,
      "Ġfixed": 3786,
      "Ġyour": 3787,
      "Ġalthough": 3788,
      "Ġaway": 3789,
      "come": 3790,
      "imate": 3791,
      "Ġcolumn": 3792,
      "rade": 3793,
      "uz": 3794,
      "``": 3795,
      "pite": 3796,
      "{{\\": 3797,
      "racy": 3798,
      "/**": 3799,
      "Ġeval": 3800,
      "ĠVir": 3801,
      "Ġsigned": 3802,
      "Ġspecific": 3803,
      "rey": 3804,
      "change": 3805,
      "Config": 3806,
      "Ġsubject": 3807,
      "^+": 3808,
      "ĠGames": 3809,
      "Ġrather": 3810,
      "Ġborder": 3811,
      "FA": 3812,
      "Ð¸": 3813,
      "mit": 3814,
      "uit": 3815,
      "alled": 3816,
      "refer": 3817,
      "88": 3818,
      "Ġfar": 3819,
      "elling": 3820,
      "esh": 3821,
      "ĠInter": 3822,
      "cial": 3823,
      "})\\": 3824,
      "Ġoperator": 3825,
      "Ġlearning": 3826,
      "Te": 3827,
      "ĠIsland": 3828,
      "used": 3829,
      "=\"+": 3830,
      "ria": 3831,
      ",-": 3832,
      "arily": 3833,
      "true": 3834,
      "Ġdisplay": 3835,
      "Psi": 3836,
      "estival": 3837,
      "ĠTown": 3838,
      "Ġlive": 3839,
      "ened": 3840,
      "more": 3841,
      "olit": 3842,
      "qquad": 3843,
      "Ġqual": 3844,
      "Ġwebsite": 3845,
      "fill": 3846,
      "lt": 3847,
      "03": 3848,
      "04": 3849,
      "Ġbl": 3850,
      "asketball": 3851,
      "ictor": 3852,
      "Ġfuture": 3853,
      "xspace": 3854,
      "1988": 3855,
      "king": 3856,
      "Ġwife": 3857,
      "Ġcoach": 3858,
      "SC": 3859,
      "/*": 3860,
      "Ġcut": 3861,
      "hand": 3862,
      "ooth": 3863,
      "atrix": 3864,
      "ML": 3865,
      "ĠSing": 3866,
      "Ġtreat": 3867,
      "There": 3868,
      "}|": 3869,
      "ĠHistor": 3870,
      "ĠFigure": 3871,
      "ensor": 3872,
      "Context": 3873,
      "ederal": 3874,
      "ĠVol": 3875,
      "ĠCath": 3876,
      "ĠCons": 3877,
      "den": 3878,
      "ala": 3879,
      "Ġelected": 3880,
      "':": 3881,
      "500": 3882,
      "astic": 3883,
      "ging": 3884,
      "Ġalways": 3885,
      "Ġrace": 3886,
      "struct": 3887,
      "eck": 3888,
      "ario": 3889,
      "ĠJapanese": 3890,
      "Film": 3891,
      "ĠAfrican": 3892,
      "Ġfounded": 3893,
      "ĠClass": 3894,
      "oke": 3895,
      "Ġappeared": 3896,
      "Ġhealth": 3897,
      "Index": 3898,
      "Ġben": 3899,
      "ramew": 3900,
      "ĠPress": 3901,
      "ĠTur": 3902,
      "plicit": 3903,
      "Ġpresented": 3904,
      "())": 3905,
      "ĠSam": 3906,
      "appro": 3907,
      "itting": 3908,
      "Ġprobability": 3909,
      "Ġnames": 3910,
      "ĠArch": 3911,
      "init": 3912,
      "level": 3913,
      "Ġadminist": 3914,
      "note": 3915,
      "Ġfootballers": 3916,
      "rate": 3917,
      "pdf": 3918,
      "ios": 3919,
      "Ġcertain": 3920,
      "icult": 3921,
      "api": 3922,
      "=#": 3923,
      "Ġprior": 3924,
      "ĠĠĠĠĠĠĠĠĠĠĠĠ": 3925,
      "Ġcast": 3926,
      "Ġcomplete": 3927,
      "Ġappointed": 3928,
      "void": 3929,
      "Ġdepart": 3930,
      "Ġinc": 3931,
      "Ã¤": 3932,
      "inally": 3933,
      "bl": 3934,
      "Ġkm": 3935,
      "ĠMet": 3936,
      "Ġdon": 3937,
      "&=": 3938,
      "ĠĠĠĠĠĠĠĠĠĠĠĠĠĠĠĠĠĠĠĠĠĠĠĠĠĠĠ": 3939,
      "Ġpan": 3940,
      "ores": 3941,
      "ĠMiss": 3942,
      "Ġmother": 3943,
      "AB": 3944,
      "98": 3945,
      "Ġgoal": 3946,
      "ĠRobert": 3947,
      "ĠTV": 3948,
      "ĠRecords": 3949,
      "effic": 3950,
      "Ġoffice": 3951,
      "Ġprincip": 3952,
      "Eng": 3953,
      "atively": 3954,
      "user": 3955,
      "Ġnecess": 3956,
      "Ġmoment": 3957,
      "Ġassist": 3958,
      "Ġfront": 3959,
      "ĠInt": 3960,
      "xy": 3961,
      "Ġalmost": 3962,
      "Ġvalid": 3963,
      "Ġsuff": 3964,
      "ĠSo": 3965,
      "ĠCentral": 3966,
      "ĠMuseum": 3967,
      "US": 3968,
      "Ġdefault": 3969,
      "eturn": 3970,
      "ĠAngel": 3971,
      "[]": 3972,
      "ĠTra": 3973,
      "Ġanaly": 3974,
      "ĠRef": 3975,
      "Ġsets": 3976,
      "97": 3977,
      "ĠAlex": 3978,
      "sel": 3979,
      "ĠBest": 3980,
      "ĠCong": 3981,
      "43": 3982,
      "rish": 3983,
      "ada": 3984,
      "Ġvict": 3985,
      "Ġlargest": 3986,
      "Ġhor": 3987,
      "https": 3988,
      "ona": 3989,
      "Ġmechan": 3990,
      "ĠCap": 3991,
      "ĠRussian": 3992,
      "Ġvers": 3993,
      "}^{(": 3994,
      "Ġleague": 3995,
      "hy": 3996,
      "Ġsoft": 3997,
      "ids": 3998,
      "ĠThomas": 3999,
      "UR": 4000,
      "OT": 4001,
      "can": 4002,
      "Ġeast": 4003,
      "ĠSal": 4004,
      "Att": 4005,
      "iant": 4006,
      "Ġstars": 4007,
      "Ġmodern": 4008,
      "Ġwhether": 4009,
      "izes": 4010,
      "Ġce": 4011,
      "ĠRail": 4012,
      "arter": 4013,
      "Ġalumni": 4014,
      "Ġpredict": 4015,
      "Ġfollowed": 4016,
      "ĠAcademy": 4017,
      "apache": 4018,
      "hi": 4019,
      "ĠTex": 4020,
      "Ġremov": 4021,
      "ĠGrand": 4022,
      "1987": 4023,
      "Ġren": 4024,
      "ifier": 4025,
      "Ġrespons": 4026,
      "umbers": 4027,
      "oms": 4028,
      "Ġpay": 4029,
      "atform": 4030,
      "06": 4031,
      "actions": 4032,
      ".)": 4033,
      "Ġchanges": 4034,
      "Ġdomain": 4035,
      "lier": 4036,
      "bt": 4037,
      "Ġacqu": 4038,
      "Ġtoo": 4039,
      "Ġ$(\\": 4040,
      "ĠMad": 4041,
      "spec": 4042,
      "41": 4043,
      "Ġactive": 4044,
      "verse": 4045,
      "ĠItalian": 4046,
      "model": 4047,
      "Ġsample": 4048,
      "operat": 4049,
      "ttp": 4050,
      "object": 4051,
      "Ġedge": 4052,
      "Ġwest": 4053,
      "encies": 4054,
      "mid": 4055,
      "Service": 4056,
      "ĠGo": 4057,
      "Ġgives": 4058,
      "scale": 4059,
      "Ġparts": 4060,
      "bour": 4061,
      "Ġweight": 4062,
      "ĠJew": 4063,
      "SP": 4064,
      "Ġenvironment": 4065,
      "itude": 4066,
      "onic": 4067,
      "85": 4068,
      "Ġmedia": 4069,
      "Ġbirth": 4070,
      "uan": 4071,
      "MA": 4072,
      "ĠGreat": 4073,
      "Ġbar": 4074,
      "ds": 4075,
      "ĠSummer": 4076,
      "edy": 4077,
      "Ġtherefore": 4078,
      "Ġhimself": 4079,
      "unt": 4080,
      "operatorn": 4081,
      "ĠAfrica": 4082,
      "Ġsubsequ": 4083,
      "Ġclear": 4084,
      "oul": 4085,
      "Ġexact": 4086,
      "Ġeffects": 4087,
      "Ġmarket": 4088,
      "ramework": 4089,
      "Ġdatas": 4090,
      "}\\\\": 4091,
      "ĠGold": 4092,
      "1986": 4093,
      "Ġdesigned": 4094,
      "iance": 4095,
      "ĠLemma": 4096,
      "Out": 4097,
      "ĠFilm": 4098,
      "ras": 4099,
      "tic": 4100,
      "ĠRepublic": 4101,
      "unk": 4102,
      "ĠUK": 4103,
      "Ġ});": 4104,
      "Ġwhite": 4105,
      "ros": 4106,
      "operatorname": 4107,
      "west": 4108,
      "ĠOlympics": 4109,
      "Ġcompanies": 4110,
      "ena": 4111,
      "Ġhous": 4112,
      "Ġstudies": 4113,
      "Ġboundary": 4114,
      "tact": 4115,
      "Ġpast": 4116,
      "alle": 4117,
      "Ġforce": 4118,
      "Ġschools": 4119,
      "Ġreason": 4120,
      "ĠLeg": 4121,
      "IG": 4122,
      "Ġeight": 4123,
      "ĠZeal": 4124,
      "md": 4125,
      "ĠWestern": 4126,
      "Ġassume": 4127,
      "ĠCharles": 4128,
      "CH": 4129,
      "Of": 4130,
      "Ġrock": 4131,
      "Ġaddress": 4132,
      "cel": 4133,
      "ĠBl": 4134,
      "Ġ/*": 4135,
      "1984": 4136,
      "plate": 4137,
      "Ġ&\\": 4138,
      "ĠRad": 4139,
      "Ġtransform": 4140,
      "indent": 4141,
      "ĠChristian": 4142,
      "Ġmight": 4143,
      "ĠSaint": 4144,
      "Ġholds": 4145,
      "config": 4146,
      "thlet": 4147,
      "ĠIm": 4148,
      "ĠScott": 4149,
      "09": 4150,
      "Ġexecut": 4151,
      "dimens": 4152,
      "Reg": 4153,
      "antic": 4154,
      "rast": 4155,
      "Array": 4156,
      "Ġbox": 4157,
      "ĠZealand": 4158,
      "Ġsound": 4159,
      "Ġtemperature": 4160,
      "Ġtaking": 4161,
      "ises": 4162,
      "Ġbasis": 4163,
      "ĠFootball": 4164,
      "Ġter": 4165,
      "ication": 4166,
      "\"\"": 4167,
      "Ġselected": 4168,
      "Ġfire": 4169,
      "Ġquantum": 4170,
      "Ġ(!": 4171,
      "Ġdiag": 4172,
      "Ġguitar": 4173,
      "fl": 4174,
      "({\\": 4175,
      "****************": 4176,
      "Im": 4177,
      "scr": 4178,
      "equiv": 4179,
      "Ġpers": 4180,
      "++": 4181,
      "Ġregard": 4182,
      "ĠDo": 4183,
      "Ġgain": 4184,
      "Ġstri": 4185,
      "Ġdone": 4186,
      "OS": 4187,
      "ĠĠĠĠĠĠĠĠĠĠ": 4188,
      "ĠMont": 4189,
      "ĠWhile": 4190,
      "Ġdefinition": 4191,
      "Ġprop": 4192,
      "ĠCarol": 4193,
      "IP": 4194,
      "ĠLouis": 4195,
      "Ġmonths": 4196,
      "Ġcollection": 4197,
      "Ġunits": 4198,
      "ĠEar": 4199,
      "Ġdirection": 4200,
      "Ġconstit": 4201,
      "ĠKore": 4202,
      "Ġspin": 4203,
      "////////": 4204,
      "ĠVirgin": 4205,
      "rael": 4206,
      "star": 4207,
      "Ġusually": 4208,
      "77": 4209,
      "1985": 4210,
      "cret": 4211,
      "Ġcannot": 4212,
      "ĠThus": 4213,
      "Ġtro": 4214,
      "iting": 4215,
      "Ġlocation": 4216,
      ")-": 4217,
      "km": 4218,
      "Ġinj": 4219,
      "Ġcampaign": 4220,
      "Ġplaying": 4221,
      "Ġbo": 4222,
      "CD": 4223,
      "ĠYear": 4224,
      "ospital": 4225,
      "za": 4226,
      "Ġdiscover": 4227,
      "names": 4228,
      "eline": 4229,
      "hest": 4230,
      "ircraft": 4231,
      "ĠWil": 4232,
      "count": 4233,
      "amily": 4234,
      "azine": 4235,
      "reland": 4236,
      "Ġaud": 4237,
      "ĠMat": 4238,
      "}:": 4239,
      "Ġcompared": 4240,
      "ĠMinister": 4241,
      "Ġstre": 4242,
      "ledge": 4243,
      "Since": 4244,
      "Ġdaughter": 4245,
      "Ġliving": 4246,
      "www": 4247,
      "Ġforces": 4248,
      "ĠMag": 4249,
      "Ġamount": 4250,
      "Ġ},": 4251,
      "Ġsports": 4252,
      "dist": 4253,
      "Hand": 4254,
      "ams": 4255,
      "Ġinvolved": 4256,
      "Ġupper": 4257,
      "Ġcomponent": 4258,
      "Ġupon": 4259,
      "Comm": 4260,
      "Ġrelationship": 4261,
      "usical": 4262,
      "Inter": 4263,
      "oration": 4264,
      "Size": 4265,
      "ki": 4266,
      "ptions": 4267,
      "Ġequal": 4268,
      "ĠMichael": 4269,
      "Ġdraw": 4270,
      "Ġglobal": 4271,
      "Ġthroughout": 4272,
      "Ġwrite": 4273,
      "olf": 4274,
      "Ġaccept": 4275,
      "ĠLand": 4276,
      "='": 4277,
      "bound": 4278,
      "Group": 4279,
      "MS": 4280,
      "Ġdouble": 4281,
      "vis": 4282,
      "ĠTexas": 4283,
      "ingu": 4284,
      "long": 4285,
      "';": 4286,
      "96": 4287,
      "Ġuses": 4288,
      "IR": 4289,
      "rep": 4290,
      "Ġexhib": 4291,
      "ĠWhite": 4292,
      "citet": 4293,
      "Ġrights": 4294,
      "assert": 4295,
      "|^": 4296,
      "Ġgalax": 4297,
      "lam": 4298,
      "rs": 4299,
      "hers": 4300,
      "display": 4301,
      "eloc": 4302,
      "Ġ-->": 4303,
      "Ġenough": 4304,
      "Ġmunicip": 4305,
      "ĠMer": 4306,
      "Ġcurrently": 4307,
      "){": 4308,
      "edge": 4309,
      "Ġgave": 4310,
      "Ġbuildings": 4311,
      "tag": 4312,
      "define": 4313,
      "Ġdirectly": 4314,
      "aly": 4315,
      "Ġtypes": 4316,
      "Inst": 4317,
      "print": 4318,
      "ĠChinese": 4319,
      "Ġmove": 4320,
      "Ġdram": 4321,
      "icture": 4322,
      "check": 4323,
      "Ġdifficult": 4324,
      "cho": 4325,
      "do": 4326,
      "Ġreplaced": 4327,
      "Ġboard": 4328,
      "]$": 4329,
      "Up": 4330,
      "(-": 4331,
      "Pr": 4332,
      "astern": 4333,
      "quot": 4334,
      "olar": 4335,
      "ĠTom": 4336,
      "Ġsearch": 4337,
      "uffer": 4338,
      "Ġincrease": 4339,
      "Ġprovides": 4340,
      "Table": 4341,
      "ĠLab": 4342,
      "Ġcoordin": 4343,
      "osen": 4344,
      "title": 4345,
      "Ġstudied": 4346,
      "Ġstations": 4347,
      "Ġitself": 4348,
      "Ġimages": 4349,
      "Ġsupported": 4350,
      "ĠLat": 4351,
      "Ġchannel": 4352,
      "Ġrot": 4353,
      "Ġadvan": 4354,
      "Ð½": 4355,
      "Code": 4356,
      "Ġallowed": 4357,
      "1950": 4358,
      "Ġmedal": 4359,
      "Ġepisode": 4360,
      "1983": 4361,
      "Ġjud": 4362,
      "arts": 4363,
      "Ġeffective": 4364,
      "ansion": 4365,
      "range": 4366,
      "Vert": 4367,
      "Tr": 4368,
      "}+\\": 4369,
      "Ġfight": 4370,
      "Ġtourn": 4371,
      "Ġdenote": 4372,
      "ita": 4373,
      "iments": 4374,
      "ĠDan": 4375,
      "erman": 4376,
      "Ġoperations": 4377,
      "onal": 4378,
      "atre": 4379,
      "rame": 4380,
      "word": 4381,
      "izations": 4382,
      "ĠNot": 4383,
      "EE": 4384,
      "Ġconver": 4385,
      "ÑĤ": 4386,
      "Ġdemon": 4387,
      "well": 4388,
      "irm": 4389,
      "ducation": 4390,
      "Ġrelig": 4391,
      "aching": 4392,
      "Ġexpla": 4393,
      "58": 4394,
      "Ġdate": 4395,
      "gent": 4396,
      "MP": 4397,
      "Bar": 4398,
      "acity": 4399,
      "Ġsil": 4400,
      "erve": 4401,
      "irtual": 4402,
      "Ġadj": 4403,
      "63": 4404,
      "}}{\\": 4405,
      "ols": 4406,
      "ny": 4407,
      "Sup": 4408,
      "Ġsmaller": 4409,
      "split": 4410,
      "Ġfav": 4411,
      "Ġgenerated": 4412,
      "Ġoperation": 4413,
      "Ġprimary": 4414,
      "ira": 4415,
      "Ġmetric": 4416,
      "ously": 4417,
      "57": 4418,
      "inct": 4419,
      "ĠAdd": 4420,
      "roller": 4421,
      "Sub": 4422,
      "Ġgas": 4423,
      "zil": 4424,
      "1982": 4425,
      "efore": 4426,
      "ĠParis": 4427,
      "ĠCatholic": 4428,
      "idents": 4429,
      "Ġbooks": 4430,
      "road": 4431,
      "Ġplaces": 4432,
      "fess": 4433,
      "idae": 4434,
      "Ġfinished": 4435,
      "isions": 4436,
      "command": 4437,
      "ully": 4438,
      "aring": 4439,
      "Ġtask": 4440,
      "Ġmaximum": 4441,
      "UN": 4442,
      "Ġproblems": 4443,
      "ollowing": 4444,
      "Ġcourt": 4445,
      "ĠTor": 4446,
      "Ġstructures": 4447,
      "Ġstated": 4448,
      "'$": 4449,
      "ĠFrancis": 4450,
      "Ġpreviously": 4451,
      "unity": 4452,
      "Ap": 4453,
      "Ġfemale": 4454,
      "ĠÂ": 4455,
      "Ġequations": 4456,
      "Ġkilled": 4457,
      "Ġtour": 4458,
      "Ġstop": 4459,
      "Ġorigin": 4460,
      "End": 4461,
      "pret": 4462,
      "ĠSub": 4463,
      "Ġpeak": 4464,
      "ping": 4465,
      "Ġdeal": 4466,
      "rief": 4467,
      "pat": 4468,
      "ba": 4469,
      "Ed": 4470,
      "Ġstatus": 4471,
      "Ġrepresented": 4472,
      "ĠDirect": 4473,
      "people": 4474,
      "oken": 4475,
      "result": 4476,
      "umerate": 4477,
      "using": 4478,
      "Ġjournal": 4479,
      "neq": 4480,
      "Ġlisted": 4481,
      "Ġseven": 4482,
      "pecially": 4483,
      "overs": 4484,
      "Ġconstraint": 4485,
      "Ġrepresentation": 4486,
      "iences": 4487,
      "argin": 4488,
      "oviet": 4489,
      "omial": 4490,
      "Count": 4491,
      "Ġdam": 4492,
      "Ġpage": 4493,
      "Ġreve": 4494,
      "ĠDay": 4495,
      "Ġoriginally": 4496,
      "ockey": 4497,
      "ĠJose": 4498,
      "Ġapplied": 4499,
      "1979": 4500,
      "tainer": 4501,
      "oring": 4502,
      "ĠDemocr": 4503,
      "oma": 4504,
      "ĠBill": 4505,
      "include": 4506,
      "69": 4507,
      "Ġ(\"": 4508,
      "Ġoutside": 4509,
      "Ġartists": 4510,
      "ĠSur": 4511,
      "Ġcharacters": 4512,
      "Ġmessage": 4513,
      "}-\\": 4514,
      "flow": 4515,
      "prot": 4516,
      "create": 4517,
      "Item": 4518,
      "Ġsources": 4519,
      "Ġcountries": 4520,
      "Ġeffic": 4521,
      "Ġpolicy": 4522,
      "ĠPlay": 4523,
      "evelop": 4524,
      "Ġadopt": 4525,
      "Ġconcern": 4526,
      "Ġobjects": 4527,
      "angle": 4528,
      "duction": 4529,
      "airs": 4530,
      "ĠSmith": 4531,
      "Ġeventually": 4532,
      "Ġsom": 4533,
      "Ġnumbers": 4534,
      "ĠPeter": 4535,
      "Ġrestrict": 4536,
      "TE": 4537,
      "nce": 4538,
      "mage": 4539,
      "Ġcivil": 4540,
      "ĠRichard": 4541,
      "ishop": 4542,
      "Ġtakes": 4543,
      "ying": 4544,
      "aval": 4545,
      "Ã¨": 4546,
      "ĠSpanish": 4547,
      "Ġneut": 4548,
      "flo": 4549,
      "FC": 4550,
      "Ġbecomes": 4551,
      "ĠSecond": 4552,
      "ĠSome": 4553,
      "62": 4554,
      "base": 4555,
      "ĠPla": 4556,
      ")}{": 4557,
      "ĠGet": 4558,
      "ĠGra": 4559,
      "ether": 4560,
      "ĠFlor": 4561,
      "Ġinstit": 4562,
      "ua": 4563,
      "tra": 4564,
      "Ġaccom": 4565,
      "standing": 4566,
      "Ġscen": 4567,
      "ĠSuper": 4568,
      "Ġsignal": 4569,
      "va": 4570,
      "racks": 4571,
      "]\\": 4572,
      "ĠMel": 4573,
      "Ġcomponents": 4574,
      "Ġveloc": 4575,
      "=\"#": 4576,
      "su": 4577,
      "Ġtit": 4578,
      "Ġ-\\": 4579,
      "ĠFore": 4580,
      "icago": 4581,
      "iation": 4582,
      "ĠSer": 4583,
      "Ġincreasing": 4584,
      "shire": 4585,
      "Ġagre": 4586,
      "Ġanim": 4587,
      "ussian": 4588,
      "1981": 4589,
      "ĠMass": 4590,
      "Ġtransport": 4591,
      "Ġadapt": 4592,
      "Ġdomin": 4593,
      "Ġmention": 4594,
      "net": 4595,
      "case": 4596,
      "isation": 4597,
      "Ġphysical": 4598,
      "ips": 4599,
      "Ġhapp": 4600,
      "Ġpolitician": 4601,
      "inals": 4602,
      "Wh": 4603,
      "theorem": 4604,
      "Ġimplies": 4605,
      "ĠBen": 4606,
      "build": 4607,
      "Model": 4608,
      "Ġaltern": 4609,
      "ÑĢ": 4610,
      "dimensional": 4611,
      "fficient": 4612,
      "vspace": 4613,
      "isk": 4614,
      "Ġoptim": 4615,
      "Ġvoc": 4616,
      "Ġnote": 4617,
      "default": 4618,
      "rial": 4619,
      "FL": 4620,
      "ĠCO": 4621,
      "....": 4622,
      "olk": 4623,
      "dag": 4624,
      "enumerate": 4625,
      "oding": 4626,
      "Ġste": 4627,
      "ĠAccording": 4628,
      "pty": 4629,
      "ĠVictor": 4630,
      "Ġtowards": 4631,
      "ync": 4632,
      "61": 4633,
      "tes": 4634,
      "Ġchall": 4635,
      "Ġprint": 4636,
      "that": 4637,
      "ĠOff": 4638,
      "Ġrelation": 4639,
      "ĠOther": 4640,
      "multicol": 4641,
      "ĠHistory": 4642,
      "Ġeffort": 4643,
      "ĠLos": 4644,
      "One": 4645,
      "~$": 4646,
      "opl": 4647,
      "Ġmissing": 4648,
      "ĠScience": 4649,
      "}}_": 4650,
      "utch": 4651,
      "ĠGa": 4652,
      "rupt": 4653,
      "abase": 4654,
      "ĠDel": 4655,
      "87": 4656,
      "Ġ\\|": 4657,
      "ĠFrank": 4658,
      "Ġremained": 4659,
      "Le": 4660,
      "Ġwriter": 4661,
      "Ġnuc": 4662,
      "Ġunique": 4663,
      "ĠSpec": 4664,
      "Ġsen": 4665,
      "Ġsens": 4666,
      "ĠIreland": 4667,
      "multicolumn": 4668,
      "mathscr": 4669,
      "abled": 4670,
      "ĠHenry": 4671,
      "ĠPenn": 4672,
      "next": 4673,
      "1972": 4674,
      "noindent": 4675,
      "Ġsetting": 4676,
      "ĠForce": 4677,
      "ĠUp": 4678,
      "Ġrunning": 4679,
      "ĠPri": 4680,
      "Ġheight": 4681,
      "Ġtravel": 4682,
      "clusion": 4683,
      "1976": 4684,
      "System": 4685,
      "Ġmix": 4686,
      "urity": 4687,
      "Ser": 4688,
      "Ġunivers": 4689,
      "Ġpolice": 4690,
      "Ġkeep": 4691,
      "ront": 4692,
      "Ġbig": 4693,
      "PI": 4694,
      "Ġwords": 4695,
      "ano": 4696,
      "Message": 4697,
      "Ġcome": 4698,
      "ĠTest": 4699,
      "ades": 4700,
      "Ġreached": 4701,
      "ĠDu": 4702,
      "1978": 4703,
      "Ġelectron": 4704,
      "Ġfriend": 4705,
      "ĠFound": 4706,
      "Ġspeed": 4707,
      "ifying": 4708,
      ")}$": 4709,
      "Ġyield": 4710,
      "Ġcourse": 4711,
      "Ġmakes": 4712,
      "Ġoccup": 4713,
      "Ġremains": 4714,
      "itemize": 4715,
      "amilton": 4716,
      "Ġwindow": 4717,
      "Ġprove": 4718,
      "Ġcoeffic": 4719,
      "omorphism": 4720,
      "Ġsyn": 4721,
      "Color": 4722,
      "current": 4723,
      "ĠHill": 4724,
      "ĠFl": 4725,
      "\\,\\": 4726,
      "Ġtransition": 4727,
      "Ġoptions": 4728,
      "sm": 4729,
      "Ġlittle": 4730,
      "porary": 4731,
      "Pi": 4732,
      "ĠThat": 4733,
      "ube": 4734,
      "Ġord": 4735,
      "Cell": 4736,
      "png": 4737,
      "ĠJust": 4738,
      "ĠRob": 4739,
      "ĠService": 4740,
      "Ġsus": 4741,
      "Ġearn": 4742,
      "aps": 4743,
      "Ġjava": 4744,
      "Ġver": 4745,
      "NN": 4746,
      "Early": 4747,
      "reme": 4748,
      "Ġfourth": 4749,
      "ĠCommission": 4750,
      "pc": 4751,
      "ĠLake": 4752,
      "Ġalgebra": 4753,
      "{}": 4754,
      "orial": 4755,
      "ĠGod": 4756,
      "ĠRock": 4757,
      ";\"": 4758,
      "First": 4759,
      "Ġespecially": 4760,
      "Ġestablishments": 4761,
      "EC": 4762,
      "](": 4763,
      "Ġ===": 4764,
      "Ġdifference": 4765,
      "Äģ": 4766,
      "igan": 4767,
      "Ġexpand": 4768,
      "ĠSet": 4769,
      "Ġpattern": 4770,
      "((": 4771,
      "inder": 4772,
      "lient": 4773,
      "ĠTer": 4774,
      "No": 4775,
      "ĠSwed": 4776,
      "Ġgl": 4777,
      "Ent": 4778,
      "1974": 4779,
      "$}": 4780,
      "Ġimmedi": 4781,
      "Ġruns": 4782,
      "Ġgold": 4783,
      "Ġfeatured": 4784,
      "Ġaircraft": 4785,
      "Ġdrop": 4786,
      "Ġawarded": 4787,
      "Ġallows": 4788,
      "OD": 4789,
      "Ġissue": 4790,
      "gence": 4791,
      "Ġfall": 4792,
      "Ġnil": 4793,
      "Log": 4794,
      "ĠOffic": 4795,
      "Ġess": 4796,
      "ĠEmp": 4797,
      "oto": 4798,
      "version": 4799,
      "ING": 4800,
      "ometimes": 4801,
      "Ġplaced": 4802,
      "Ġlatter": 4803,
      "Ġillust": 4804,
      "ĠIsrael": 4805,
      "TD": 4806,
      "info": 4807,
      "ĠWal": 4808,
      "1977": 4809,
      "Ġplant": 4810,
      "ĠWomen": 4811,
      "Ġwriting": 4812,
      "####": 4813,
      "Ġsolutions": 4814,
      "51": 4815,
      "war": 4816,
      "uns": 4817,
      "Ġimm": 4818,
      "ĠCamp": 4819,
      "ocation": 4820,
      "method": 4821,
      "Ġgenerally": 4822,
      "Ġregions": 4823,
      "1975": 4824,
      "istan": 4825,
      "Ġword": 4826,
      "jo": 4827,
      "isl": 4828,
      "Ġrelative": 4829,
      "Ġprote": 4830,
      "main": 4831,
      "Ġchanged": 4832,
      "Ġbelong": 4833,
      "aur": 4834,
      "language": 4835,
      "Ġreference": 4836,
      "ĠVirginia": 4837,
      "Ġgoing": 4838,
      "Ġtransl": 4839,
      "ĠPan": 4840,
      "mercial": 4841,
      "--------------------------------": 4842,
      "Ġissues": 4843,
      "Ġdu": 4844,
      "active": 4845,
      "ĠPublic": 4846,
      "Ġmaintain": 4847,
      "ĠCre": 4848,
      "Ġdecision": 4849,
      "Ġevolution": 4850,
      "bon": 4851,
      "usion": 4852,
      "ĠSta": 4853,
      "Ġmach": 4854,
      "Mar": 4855,
      "background": 4856,
      "aging": 4857,
      "NS": 4858,
      "Ġtree": 4859,
      "Ġartist": 4860,
      "Ġapproximately": 4861,
      "Ġjob": 4862,
      "Ġscore": 4863,
      "ĠOut": 4864,
      "ĠOrder": 4865,
      "Ġbur": 4866,
      "Notes": 4867,
      "ULL": 4868,
      "Ġdecre": 4869,
      "core": 4870,
      "Ġconcept": 4871,
      "1968": 4872,
      "stant": 4873,
      "tem": 4874,
      "ĠBur": 4875,
      "Ġdetails": 4876,
      "Ġhousehold": 4877,
      "di": 4878,
      "Ġconnected": 4879,
      "valid": 4880,
      "met": 4881,
      "height": 4882,
      "Ġgrad": 4883,
      "ye": 4884,
      "Ġ};": 4885,
      "Ġquestion": 4886,
      "Ġnight": 4887,
      "reater": 4888,
      "Ġtheorem": 4889,
      "ells": 4890,
      "=\"../../../../": 4891,
      "ĠPo": 4892,
      "Ġrule": 4893,
      "ugby": 4894,
      "ilies": 4895,
      "Ġcritic": 4896,
      "Ġbehavior": 4897,
      "Ġcompetition": 4898,
      "Ġconclud": 4899,
      "Ġsaw": 4900,
      "context": 4901,
      "Ġadm": 4902,
      "dec": 4903,
      "}}}": 4904,
      "auge": 4905,
      "ĠTherefore": 4906,
      "Ġcritical": 4907,
      "ih": 4908,
      "Ġplann": 4909,
      "Ġseg": 4910,
      "Ġclassical": 4911,
      "&&": 4912,
      "Ġbehind": 4913,
      "Ġcustom": 4914,
      "Ġtrain": 4915,
      "Ġmatter": 4916,
      "89": 4917,
      "Ġresulting": 4918,
      "Ġ__": 4919,
      "ĠLu": 4920,
      "Spec": 4921,
      "1973": 4922,
      "CE": 4923,
      "Ġhighest": 4924,
      "Manager": 4925,
      "book": 4926,
      "Ġsinger": 4927,
      "apter": 4928,
      "TV": 4929,
      "ĠCommittee": 4930,
      "ĠChampionships": 4931,
      "Ã³n": 4932,
      "Ġmagnetic": 4933,
      "Ġstaff": 4934,
      "aled": 4935,
      "unch": 4936,
      "ĠBrown": 4937,
      "izer": 4938,
      "Ġlimited": 4939,
      "Ġer": 4940,
      "ĠMil": 4941,
      "0000": 4942,
      "Ġsex": 4943,
      "Ġbroadcast": 4944,
      "ancial": 4945,
      "Ġdemonstr": 4946,
      "orage": 4947,
      "When": 4948,
      "Ġsch": 4949,
      "\\}$": 4950,
      "web": 4951,
      "Ġtournament": 4952,
      "Ġscored": 4953,
      "}/": 4954,
      "Ġded": 4955,
      "ares": 4956,
      "Ġimpact": 4957,
      "ĠIts": 4958,
      "oice": 4959,
      "Ġball": 4960,
      "Ġextended": 4961,
      "false": 4962,
      "Ġvariables": 4963,
      "Co": 4964,
      "AG": 4965,
      "start": 4966,
      "PS": 4967,
      "ĠTable": 4968,
      "java": 4969,
      "ĠChicago": 4970,
      "Ġtax": 4971,
      "rule": 4972,
      "event": 4973,
      "Ġexcept": 4974,
      "ĠItaly": 4975,
      "ĠResearch": 4976,
      "linear": 4977,
      "^-": 4978,
      "Comp": 4979,
      "Ġcorrect": 4980,
      "Ġconsists": 4981,
      "Ġcollege": 4982,
      "host": 4983,
      "ĠDen": 4984,
      "Ñģ": 4985,
      "Ġax": 4986,
      "ĠMus": 4987,
      "Med": 4988,
      "Ġir": 4989,
      "Ġapplication": 4990,
      "Ġcapital": 4991,
      "Ġestimate": 4992,
      "irl": 4993,
      "ias": 4994,
      "ĠArts": 4995,
      "][": 4996,
      "Äĩ": 4997,
      "Ġrob": 4998,
      "Ġdig": 4999,
      "otic": 5000,
      "lav": 5001,
      "Ġfamilies": 5002,
      "Ġclasses": 5003,
      "Ġsaf": 5004,
      "Can": 5005,
      "actory": 5006,
      "has": 5007,
      "ĠMexico": 5008,
      "bo": 5009,
      "1971": 5010,
      "ĠTechn": 5011,
      "rative": 5012,
      "Ġweak": 5013,
      "Ġbasketball": 5014,
      "rice": 5015,
      "Ġinternal": 5016,
      "Ġlonger": 5017,
      "duced": 5018,
      "59": 5019,
      "Ġcharg": 5020,
      "gt": 5021,
      "static": 5022,
      "Ġiter": 5023,
      "Ġearlier": 5024,
      "Ġscreen": 5025,
      "Ġpractice": 5026,
      "icense": 5027,
      "content": 5028,
      "arp": 5029,
      "Be": 5030,
      "Ġequivalent": 5031,
      "ola": 5032,
      "ĠAngeles": 5033,
      "ĠCongress": 5034,
      "Ġautom": 5035,
      "lap": 5036,
      "eria": 5037,
      "ĠNote": 5038,
      "oys": 5039,
      "yr": 5040,
      "ca": 5041,
      "Ġbeginning": 5042,
      "Ġwid": 5043,
      "56": 5044,
      "idden": 5045,
      "Ġoverall": 5046,
      "ĠNavy": 5047,
      "Ġemer": 5048,
      "Ġprem": 5049,
      "Ġscient": 5050,
      "Ġappears": 5051,
      "Ġspectrum": 5052,
      "ĠScot": 5053,
      "ĠMo": 5054,
      "1940": 5055,
      ">&": 5056,
      "Ġlikely": 5057,
      "BA": 5058,
      "Ġpercent": 5059,
      "ĠGeorg": 5060,
      "udd": 5061,
      "Ġdetermined": 5062,
      "ĠOper": 5063,
      "ĠSk": 5064,
      "Ġreading": 5065,
      "Ġmode": 5066,
      "Ġload": 5067,
      "ĠCast": 5068,
      "abs": 5069,
      "Ġcred": 5070,
      "vention": 5071,
      "1945": 5072,
      "Part": 5073,
      "inf": 5074,
      "ĠĠĠĊ": 5075,
      "1969": 5076,
      "ĠAtl": 5077,
      "Property": 5078,
      "Ġstream": 5079,
      "approx": 5080,
      "52": 5081,
      "Ġveh": 5082,
      "ĠIll": 5083,
      "Ġpie": 5084,
      "elt": 5085,
      "page": 5086,
      "norm": 5087,
      "Ġneeded": 5088,
      "Ġcharge": 5089,
      "inos": 5090,
      "Ġdecided": 5091,
      "ĠStar": 5092,
      "Ð¾Ð": 5093,
      "Note": 5094,
      "enced": 5095,
      "Ġratio": 5096,
      "ĠApp": 5097,
      "Back": 5098,
      "Ġforms": 5099,
      "stream": 5100,
      "bigg": 5101,
      "Ġactress": 5102,
      "Method": 5103,
      "ĠFlorida": 5104,
      "Query": 5105,
      "ometry": 5106,
      "ĠSun": 5107,
      "Ġstarting": 5108,
      "Åį": 5109,
      "Ġenter": 5110,
      "Ġevidence": 5111,
      "otion": 5112,
      "English": 5113,
      "ands": 5114,
      "ĠFestival": 5115,
      ")+": 5116,
      "ĠKh": 5117,
      "ette": 5118,
      "lov": 5119,
      "weight": 5120,
      "Ġdestroy": 5121,
      "ouri": 5122,
      "ĠCD": 5123,
      "abel": 5124,
      "gu": 5125,
      "Ġthought": 5126,
      "Ġselect": 5127,
      "ĠParliament": 5128,
      "allel": 5129,
      "ĠTwo": 5130,
      "ĠGovernment": 5131,
      "underline": 5132,
      "rat": 5133,
      "Ġnoted": 5134,
      "54": 5135,
      "char": 5136,
      "ĠKar": 5137,
      "ENT": 5138,
      "She": 5139,
      "ĠKn": 5140,
      "Ġdeep": 5141,
      "SU": 5142,
      "Ġchain": 5143,
      "Ġmovement": 5144,
      "dev": 5145,
      "SI": 5146,
      "78": 5147,
      "ulture": 5148,
      "SO": 5149,
      "Result": 5150,
      "Ġsymbol": 5151,
      "Ġchoice": 5152,
      "Sim": 5153,
      "abit": 5154,
      "Ġremaining": 5155,
      "turb": 5156,
      "ĠCarolina": 5157,
      "Ġwriters": 5158,
      "Ġindustry": 5159,
      "Ġevalu": 5160,
      "Ġhit": 5161,
      "Ġplays": 5162,
      "hem": 5163,
      "len": 5164,
      "*{": 5165,
      "Ġmulti": 5166,
      "etworks": 5167,
      "doc": 5168,
      "Ġfrequency": 5169,
      "Ġcare": 5170,
      "ariant": 5171,
      "anda": 5172,
      "iano": 5173,
      "Ġfif": 5174,
      "Ġever": 5175,
      "Cre": 5176,
      "1967": 5177,
      "Ġens": 5178,
      "53": 5179,
      "Ġbring": 5180,
      "apping": 5181,
      "ĠAlthough": 5182,
      "ects": 5183,
      "Char": 5184,
      "Ġleader": 5185,
      "Ġuniform": 5186,
      "1930": 5187,
      "Ġmatches": 5188,
      "ĠAssembly": 5189,
      "ĠCur": 5190,
      "ĠOpen": 5191,
      "iana": 5192,
      "ĠWales": 5193,
      "Ġnomin": 5194,
      "ĠSoviet": 5195,
      "Ġincreased": 5196,
      "pol": 5197,
      "ĠDis": 5198,
      "dro": 5199,
      "itors": 5200,
      "plication": 5201,
      "Ġvariable": 5202,
      ".âĢĿ": 5203,
      "ln": 5204,
      "Ġpersonal": 5205,
      "ĉĉĉĉĉĉ": 5206,
      "ĠHamilton": 5207,
      "ynomial": 5208,
      "ashed": 5209,
      "Ġdimension": 5210,
      "ectors": 5211,
      "syl": 5212,
      "Ġvelocity": 5213,
      "ĠRussia": 5214,
      "Ġwhole": 5215,
      "Ġculture": 5216,
      "Ġwide": 5217,
      "riz": 5218,
      "Ġavoid": 5219,
      "ĠBrazil": 5220,
      "ima": 5221,
      "child": 5222,
      "Ġvocals": 5223,
      "Ġgrand": 5224,
      "undle": 5225,
      "Ġanc": 5226,
      "Ġmur": 5227,
      "Ġexpress": 5228,
      "ĠEv": 5229,
      "ĠRegister": 5230,
      "Ġsrc": 5231,
      "Ġkind": 5232,
      "Then": 5233,
      "Ġactor": 5234,
      "Ġreduced": 5235,
      "User": 5236,
      "1964": 5237,
      "cles": 5238,
      "Ġscience": 5239,
      "ublican": 5240,
      "Ġthink": 5241,
      "func": 5242,
      "column": 5243,
      "win": 5244,
      "Ġminor": 5245,
      "ato": 5246,
      "Act": 5247,
      "ĠWeb": 5248,
      "ithub": 5249,
      "Rep": 5250,
      "Ġproced": 5251,
      "Career": 5252,
      "ufact": 5253,
      "Ġfigure": 5254,
      "vania": 5255,
      "open": 5256,
      "Ġexpression": 5257,
      "ker": 5258,
      "ĠSecret": 5259,
      "Ġtraditional": 5260,
      "iro": 5261,
      "ĠFin": 5262,
      "ĠProvince": 5263,
      "Ġincor": 5264,
      "image": 5265,
      "ĠHistoric": 5266,
      "BS": 5267,
      "Ġstreng": 5268,
      "Call": 5269,
      "Ġneighbor": 5270,
      "ko": 5271,
      "================": 5272,
      "ĠAwards": 5273,
      "unched": 5274,
      "Theta": 5275,
      "ĠGal": 5276,
      "dr": 5277,
      "Ġunion": 5278,
      "ĠUnder": 5279,
      "Ġdivision": 5280,
      "Ġbrought": 5281,
      "crete": 5282,
      "Ġ_{": 5283,
      "Ġmonth": 5284,
      "lease": 5285,
      "ao": 5286,
      "adium": 5287,
      "ental": 5288,
      "Ġbank": 5289,
      "ĠBo": 5290,
      "ĠOh": 5291,
      "ocol": 5292,
      "rence": 5293,
      "])": 5294,
      "Ġpurch": 5295,
      "ĠAnn": 5296,
      "fe": 5297,
      "Ġorganization": 5298,
      "uled": 5299,
      "Ġfit": 5300,
      "PC": 5301,
      "local": 5302,
      "Response": 5303,
      "ski": 5304,
      "anks": 5305,
      "Ġestimated": 5306,
      "App": 5307,
      "empty": 5308,
      "google": 5309,
      "Ġdark": 5310,
      "Per": 5311,
      "inem": 5312,
      "PT": 5313,
      "Ġpresence": 5314,
      "Further": 5315,
      "azz": 5316,
      "Ġpassed": 5317,
      "ĠHow": 5318,
      "asks": 5319,
      "textrm": 5320,
      "package": 5321,
      "pected": 5322,
      "oral": 5323,
      "rea": 5324,
      "tical": 5325,
      "Ã§": 5326,
      "Ġlevels": 5327,
      "Ġderived": 5328,
      "Override": 5329,
      "rich": 5330,
      "ĠForm": 5331,
      "Ġdescription": 5332,
      "Ġcaused": 5333,
      "work": 5334,
      "heast": 5335,
      "iral": 5336,
      "Ġseasons": 5337,
      "Ġcounter": 5338,
      "iller": 5339,
      "Ġnecessary": 5340,
      "minus": 5341,
      "Person": 5342,
      "Ġrailway": 5343,
      "ees": 5344,
      "iques": 5345,
      "Client": 5346,
      "Ġonline": 5347,
      "Ġchosen": 5348,
      "AF": 5349,
      "iny": 5350,
      "prod": 5351,
      "allery": 5352,
      "ĠOb": 5353,
      "1965": 5354,
      "}^{-": 5355,
      "Ġinside": 5356,
      "Ġmanager": 5357,
      "Ġanti": 5358,
      "otype": 5359,
      "Ġcollect": 5360,
      "Ġformat": 5361,
      "Ġcop": 5362,
      "Ġsufficient": 5363,
      "Ġmanufact": 5364,
      "Ġdecl": 5365,
      "Ġfood": 5366,
      "300": 5367,
      "ĠIrish": 5368,
      "Ġeigen": 5369,
      "}}_{": 5370,
      "Ġpen": 5371,
      "element": 5372,
      "Ġ\\;": 5373,
      "Films": 5374,
      "Ġpark": 5375,
      "Ġnegative": 5376,
      "Read": 5377,
      "Ġidea": 5378,
      "1966": 5379,
      "Ġexpansion": 5380,
      "But": 5381,
      "atur": 5382,
      "Ġvolume": 5383,
      "ĠRem": 5384,
      "ĠBr": 5385,
      "During": 5386,
      "texttt": 5387,
      "Ġtrade": 5388,
      "Ġliterature": 5389,
      "mes": 5390,
      "ĠBoard": 5391,
      "Ġchampionship": 5392,
      "Ġmemory": 5393,
      "nect": 5394,
      "ĠOld": 5395,
      "Line": 5396,
      "wan": 5397,
      "Ġtim": 5398,
      "rices": 5399,
      "mann": 5400,
      "Ġplatform": 5401,
      "Ġnature": 5402,
      "ĠEmpire": 5403,
      "ĠPet": 5404,
      "Ġ$\\{": 5405,
      "Ġfarm": 5406,
      "Head": 5407,
      "bul": 5408,
      "first": 5409,
      "eds": 5410,
      "ersey": 5411,
      "Ġface": 5412,
      "evelopment": 5413,
      "bottom": 5414,
      "Ġwinning": 5415,
      "Ġconnection": 5416,
      "entially": 5417,
      "Ġsoon": 5418,
      "93": 5419,
      "ĠVer": 5420,
      "}'": 5421,
      "Ġbool": 5422,
      "Ġuncer": 5423,
      "Ġrap": 5424,
      "Par": 5425,
      "ĠMount": 5426,
      "Ġprison": 5427,
      "IL": 5428,
      "ĠĠĠĠĠĠĠĠĠĠĠĠĠĠĠĠĠ": 5429,
      "Ġvariety": 5430,
      "86": 5431,
      "Ġmoney": 5432,
      "Ġroute": 5433,
      "94": 5434,
      "Ġrules": 5435,
      "press": 5436,
      "Ġhot": 5437,
      "1920": 5438,
      "ĠKe": 5439,
      "ĠHel": 5440,
      "=\"../": 5441,
      "ervation": 5442,
      "Ġmeaning": 5443,
      "Ġcensus": 5444,
      "Other": 5445,
      ";&": 5446,
      "Ġdisp": 5447,
      "icated": 5448,
      "Ġsmooth": 5449,
      "Ġsimply": 5450,
      "Oper": 5451,
      "ĠTour": 5452,
      "ecause": 5453,
      "Ġmanagement": 5454,
      "ĠStev": 5455,
      "Ġrank": 5456,
      "stra": 5457,
      "ĠTime": 5458,
      "vement": 5459,
      "ĠSil": 5460,
      "Ġattended": 5461,
      "92": 5462,
      "Ġproducer": 5463,
      "vey": 5464,
      "Ġparticularly": 5465,
      "github": 5466,
      "Ġvac": 5467,
      "Ġderiv": 5468,
      "ansas": 5469,
      "Ġlack": 5470,
      "Ġcit": 5471,
      "ewidth": 5472,
      "Ġprec": 5473,
      "Ġwave": 5474,
      "Ġfailed": 5475,
      "ĠMos": 5476,
      "lag": 5477,
      "Ġequip": 5478,
      "agement": 5479,
      "options": 5480,
      "Ġriver": 5481,
      "gener": 5482,
      "selves": 5483,
      "Ġconstructed": 5484,
      "Ġsurround": 5485,
      "thing": 5486,
      "Ġedition": 5487,
      "Ġbranch": 5488,
      "Ġchem": 5489,
      "Che": 5490,
      "sylvania": 5491,
      "Ġrecover": 5492,
      "db": 5493,
      "Ġsometimes": 5494,
      "ja": 5495,
      "strong": 5496,
      "Ġsense": 5497,
      "ĠIII": 5498,
      "ĠBase": 5499,
      "Ġapply": 5500,
      "ĠPac": 5501,
      "ĠSeries": 5502,
      "css": 5503,
      "Ġaim": 5504,
      "ĠNorthern": 5505,
      "Ġshall": 5506,
      "Ġhyper": 5507,
      "greg": 5508,
      "Ġsouthern": 5509,
      "Ġacadem": 5510,
      "Ġexplicit": 5511,
      "Ġlayer": 5512,
      "Ġgot": 5513,
      "Ġshape": 5514,
      "ĠMartin": 5515,
      "}},": 5516,
      "ĠHon": 5517,
      "72": 5518,
      "Ġshot": 5519,
      "ĠOver": 5520,
      "wa": 5521,
      "sol": 5522,
      "Ġnorthern": 5523,
      "MC": 5524,
      "Ġcontinue": 5525,
      "ĠJoseph": 5526,
      "Ġeditor": 5527,
      "iring": 5528,
      "taint": 5529,
      "Ġinterpret": 5530,
      "Ġstudio": 5531,
      "Pop": 5532,
      "Ġbre": 5533,
      "Ġmusical": 5534,
      "ĠMur": 5535,
      "omy": 5536,
      "ĠFort": 5537,
      ";</": 5538,
      "Ġbenef": 5539,
      "Ġca": 5540,
      "Ġsecur": 5541,
      "ĠLiber": 5542,
      "Dis": 5543,
      "Base": 5544,
      "ali": 5545,
      "ests": 5546,
      "Ġspent": 5547,
      "\\'": 5548,
      "osing": 5549,
      "Ġcontinuous": 5550,
      "Ġyet": 5551,
      "Ġknowledge": 5552,
      "gn": 5553,
      "ifold": 5554,
      "ĠTimes": 5555,
      "Ġisland": 5556,
      "Ġcoast": 5557,
      "Ġselection": 5558,
      "Ġsquare": 5559,
      "OM": 5560,
      "Ġhyp": 5561,
      ">(": 5562,
      "bin": 5563,
      "ishes": 5564,
      "<\\": 5565,
      "subseteq": 5566,
      "footnote": 5567,
      "iler": 5568,
      "Ġreplace": 5569,
      "asion": 5570,
      "Ġdefeated": 5571,
      "84": 5572,
      "track": 5573,
      "John": 5574,
      "Ġnorm": 5575,
      "Ġproduce": 5576,
      "ĠColumb": 5577,
      "ĠHaw": 5578,
      "Ġking": 5579,
      "Ġgauge": 5580,
      "ĠLong": 5581,
      "Ġblue": 5582,
      "Ġended": 5583,
      "Ġappearance": 5584,
      "({": 5585,
      "yles": 5586,
      "uls": 5587,
      "iga": 5588,
      "ĠMost": 5589,
      "uracy": 5590,
      "Ġcele": 5591,
      "obile": 5592,
      "ĠEngine": 5593,
      "Ġheavy": 5594,
      "Ġstd": 5595,
      "Ġdataset": 5596,
      "Ġforward": 5597,
      "Ġhence": 5598,
      "real": 5599,
      "Ġwoman": 5600,
      "ening": 5601,
      "Ġmiddle": 5602,
      "ĠSir": 5603,
      "ĠLie": 5604,
      "lic": 5605,
      "{$": 5606,
      "eek": 5607,
      "Ġcopy": 5608,
      "Ġmajority": 5609,
      "GL": 5610,
      "ampion": 5611,
      "Ġintegral": 5612,
      "76": 5613,
      "ĠLine": 5614,
      "elled": 5615,
      "Ġinequ": 5616,
      "aven": 5617,
      "ĠSpace": 5618,
      "gra": 5619,
      "resents": 5620,
      "ĠSpain": 5621,
      "Ġstra": 5622,
      "Ġsecret": 5623,
      "ename": 5624,
      "jection": 5625,
      "Ġstudent": 5626,
      "irit": 5627,
      "normal": 5628,
      "Ġnoise": 5629,
      "ĠYoung": 5630,
      "Ġframe": 5631,
      "Ġformation": 5632,
      "osh": 5633,
      "ĠDev": 5634,
      "Ġnews": 5635,
      "Cur": 5636,
      "Ġexisting": 5637,
      "IV": 5638,
      "perties": 5639,
      "Ġ(-": 5640,
      "Ġoperators": 5641,
      "Ġsamples": 5642,
      "ĠGar": 5643,
      "Ġcompact": 5644,
      "Ġwhom": 5645,
      "Ġgrowth": 5646,
      "namespace": 5647,
      "ĠGr": 5648,
      "related": 5649,
      "Ġnewsp": 5650,
      "ĠLove": 5651,
      "ĠFoundation": 5652,
      "ĠWood": 5653,
      "Ġauth": 5654,
      "Ġcollab": 5655,
      "det": 5656,
      "igation": 5657,
      "lood": 5658,
      "Ġphil": 5659,
      "1962": 5660,
      "dir": 5661,
      "ĠBas": 5662,
      "Ġscheme": 5663,
      "1963": 5664,
      "ĠBig": 5665,
      "ĠArab": 5666,
      "Ġsingles": 5667,
      "Ġsolid": 5668,
      "Ġarticle": 5669,
      "Source": 5670,
      "pton": 5671,
      "ĠĠĠĠĠĠĠĠĠĠĠĠĠĠĠĠĠĠĠĠĠĠĠĠĠĠĠĠĠĠĠ": 5672,
      "Ġfully": 5673,
      "rees": 5674,
      "ĠĠĠĠĠĠĠĠĠĠĠĠĠĠ": 5675,
      "Ġquality": 5676,
      "Ġlove": 5677,
      "ĠFe": 5678,
      "Ġcommercial": 5679,
      "Ġagreement": 5680,
      "oute": 5681,
      "Ġoption": 5682,
      "anner": 5683,
      "Ġinfluence": 5684,
      "Ġterrit": 5685,
      "Ġbounded": 5686,
      "Ġpolynomial": 5687,
      "Ġgrant": 5688,
      "mond": 5689,
      "acher": 5690,
      "Ġelectric": 5691,
      "ĠCla": 5692,
      "ora": 5693,
      "Ġgenus": 5694,
      "Net": 5695,
      "ATE": 5696,
      "Status": 5697,
      "linewidth": 5698,
      "91": 5699,
      "ĠGreek": 5700,
      "\").": 5701,
      "Ġgoals": 5702,
      "ultural": 5703,
      "Ġprograms": 5704,
      "TH": 5705,
      "Stream": 5706,
      "Ġinteraction": 5707,
      "then": 5708,
      "Ġprotected": 5709,
      "Ġinitially": 5710,
      "Ġseparate": 5711,
      "Ġleads": 5712,
      "post": 5713,
      "ĠFred": 5714,
      "Ġmotion": 5715,
      "Ġ;": 5716,
      "Ġlegal": 5717,
      "Ġentry": 5718,
      "Ġdiagram": 5719,
      "IF": 5720,
      "Ġ$|": 5721,
      "Ġhol": 5722,
      "member": 5723,
      "Ġquick": 5724,
      "ĠNews": 5725,
      "uge": 5726,
      "enge": 5727,
      "Ġcentre": 5728,
      "ĠField": 5729,
      "ialog": 5730,
      "ĠChief": 5731,
      "Ne": 5732,
      "Ġcandidate": 5733,
      "Ab": 5734,
      "ĠPennsylvania": 5735,
      "ategor": 5736,
      "Ġobservations": 5737,
      "ati": 5738,
      "ĠProfess": 5739,
      "Ġattention": 5740,
      "ibli": 5741,
      "unct": 5742,
      "Ġwood": 5743,
      "venue": 5744,
      "ĠHam": 5745,
      "Ġpoet": 5746,
      "apers": 5747,
      "PR": 5748,
      "Ġactivities": 5749,
      "Ġfinally": 5750,
      "iography": 5751,
      "stitution": 5752,
      "setminus": 5753,
      "Ġidentity": 5754,
      "ĠCam": 5755,
      "Ġslow": 5756,
      "ĠEducation": 5757,
      "Ġbrief": 5758,
      "Ġproducts": 5759,
      "ĠBattle": 5760,
      "Ġcurve": 5761,
      "Input": 5762,
      "Ġsoftware": 5763,
      "ĠBank": 5764,
      "^{-\\": 5765,
      "null": 5766,
      "tx": 5767,
      "Ġcrick": 5768,
      "Ġlaunched": 5769,
      "Ġopening": 5770,
      "Ġcontact": 5771,
      "1944": 5772,
      "={": 5773,
      "Ġrepe": 5774,
      "Ġfill": 5775,
      "force": 5776,
      "Ġmechanism": 5777,
      "pass": 5778,
      "stack": 5779,
      "house": 5780,
      "82": 5781,
      "Ġfa": 5782,
      "oplus": 5783,
      "ĠCross": 5784,
      "Ġdescribe": 5785,
      "Ġmagazine": 5786,
      "Ġexperiments": 5787,
      "itable": 5788,
      "ady": 5789,
      "Ġconvert": 5790,
      "Ġgrav": 5791,
      ")|": 5792,
      "inet": 5793,
      "inners": 5794,
      "Builder": 5795,
      "Ġinterview": 5796,
      "à¤": 5797,
      "ĠRo": 5798,
      "Date": 5799,
      "unior": 5800,
      "Ġult": 5801,
      "ĠLy": 5802,
      "ĠHot": 5803,
      "alo": 5804,
      "Ġdiscussed": 5805,
      "Ġ($\\": 5806,
      "Ġjoint": 5807,
      "ĠLife": 5808,
      "$_": 5809,
      "ilarly": 5810,
      "colon": 5811,
      "Ġ...": 5812,
      "Ġmission": 5813,
      "Ġhttp": 5814,
      "Ġcause": 5815,
      "arriage": 5816,
      "yan": 5817,
      "Ġowned": 5818,
      "Ġslight": 5819,
      "ĠLee": 5820,
      "Pre": 5821,
      "Ġexamples": 5822,
      "Ġsecurity": 5823,
      "ĠTw": 5824,
      "Ġmedical": 5825,
      "grad": 5826,
      "Ġexperience": 5827,
      "kins": 5828,
      "ĠSa": 5829,
      "gl": 5830,
      "Ġcontaining": 5831,
      "DF": 5832,
      "Ġarchitecture": 5833,
      "Ġchief": 5834,
      "aka": 5835,
      "cs": 5836,
      "itter": 5837,
      "Ġvan": 5838,
      "Ġnodes": 5839,
      "Ġinters": 5840,
      "Ġargument": 5841,
      "Util": 5842,
      "Ġprofile": 5843,
      "ometric": 5844,
      "client": 5845,
      "only": 5846,
      "Ġminimum": 5847,
      "GB": 5848,
      "Ġcomment": 5849,
      "Ġcategory": 5850,
      "airman": 5851,
      "select": 5852,
      "po": 5853,
      "Ġreb": 5854,
      "Ġcluster": 5855,
      "Ġcarried": 5856,
      "Ġdeb": 5857,
      "Ġcommission": 5858,
      "Ġhours": 5859,
      "enth": 5860,
      "Ġmaps": 5861,
      "ĠJac": 5862,
      "Ġreferred": 5863,
      "\"),": 5864,
      "Ġmostly": 5865,
      "Ġextension": 5866,
      "Ġsummer": 5867,
      "zy": 5868,
      "usband": 5869,
      "Ġcoll": 5870,
      "_+": 5871,
      "Ext": 5872,
      "ĠHealth": 5873,
      "Ġpressure": 5874,
      "Ġflux": 5875,
      "Style": 5876,
      "ĠTeam": 5877,
      "hemat": 5878,
      "_*": 5879,
      "ellar": 5880,
      "lah": 5881,
      "oub": 5882,
      "400": 5883,
      "ĠMax": 5884,
      "ĠSocial": 5885,
      "ĠBob": 5886,
      "mission": 5887,
      "Ġfilter": 5888,
      "attice": 5889,
      "ĠEr": 5890,
      "oston": 5891,
      "\\}": 5892,
      "adow": 5893,
      "ĠTim": 5894,
      "ova": 5895,
      "ĠFurther": 5896,
      "Ġembedd": 5897,
      "Ġcontrast": 5898,
      "Ġparticles": 5899,
      "osm": 5900,
      "break": 5901,
      "1961": 5902,
      "ONT": 5903,
      "call": 5904,
      "ributes": 5905,
      "ĠJo": 5906,
      "eger": 5907,
      "Ġ]": 5908,
      "Ġvertex": 5909,
      "aligned": 5910,
      "ĠValley": 5911,
      "Ġformula": 5912,
      ")/": 5913,
      "_{(": 5914,
      "module": 5915,
      "iÄĩ": 5916,
      "Ġprevent": 5917,
      "Image": 5918,
      ".$": 5919,
      "Ġdrama": 5920,
      "etts": 5921,
      "Ġeconomic": 5922,
      "ĠCamb": 5923,
      "oder": 5924,
      "Ġtoday": 5925,
      "ĠLin": 5926,
      "Ġhighly": 5927,
      "subfigure": 5928,
      "stract": 5929,
      "ething": 5930,
      "Ġtechnology": 5931,
      "Ġsn": 5932,
      "ĠJim": 5933,
      "ĠNULL": 5934,
      ")</": 5935,
      "resh": 5936,
      "79": 5937,
      "arks": 5938,
      "Ġidentified": 5939,
      "Year": 5940,
      "Ġcomes": 5941,
      "rants": 5942,
      "83": 5943,
      "Ġbattle": 5944,
      "Ġofficer": 5945,
      "Ġactually": 5946,
      "Aust": 5947,
      "Ġ~": 5948,
      "ulate": 5949,
      "ĠJer": 5950,
      "mas": 5951,
      "kin": 5952,
      "Ġremoved": 5953,
      "inding": 5954,
      "Ġdrum": 5955,
      "Ġarrang": 5956,
      "Ġconsequ": 5957,
      "Sw": 5958,
      "Ġmentioned": 5959,
      "Ġlived": 5960,
      "Ġinsp": 5961,
      "values": 5962,
      "bury": 5963,
      "ĠUk": 5964,
      "NA": 5965,
      "append": 5966,
      "uages": 5967,
      "81": 5968,
      "Ġnetworks": 5969,
      "ested": 5970,
      "ĠOur": 5971,
      "reedom": 5972,
      "Ġitem": 5973,
      "Ġpanel": 5974,
      "Ġdistinct": 5975,
      "74": 5976,
      "ĠPost": 5977,
      "query": 5978,
      "font": 5979,
      "cons": 5980,
      "lines": 5981,
      "Ġconfiguration": 5982,
      "MM": 5983,
      "seud": 5984,
      "Ġ$[": 5985,
      "Ġthreat": 5986,
      "ĠCivil": 5987,
      "Ġentered": 5988,
      "ĠDirector": 5989,
      "Ġsymmetry": 5990,
      "shift": 5991,
      "Ġrepresents": 5992,
      "riev": 5993,
      "ĠOl": 5994,
      "reshold": 5995,
      "LS": 5996,
      "LT": 5997,
      "emic": 5998,
      "Ġthemselves": 5999,
      "Ġsubset": 6000,
      "adding": 6001,
      "Ġdetermine": 6002,
      "inity": 6003,
      "Ġparticle": 6004,
      "iy": 6005,
      "awa": 6006,
      "option": 6007,
      "Ġshift": 6008,
      "Ġcontribution": 6009,
      "Ġfinancial": 6010,
      "Ġfootballer": 6011,
      "wedge": 6012,
      "Ġunknown": 6013,
      "black": 6014,
      "Ġsemi": 6015,
      "sych": 6016,
      "ĠGen": 6017,
      "emporary": 6018,
      "Ġarmy": 6019,
      "Ġfast": 6020,
      "ennis": 6021,
      "isters": 6022,
      "HT": 6023,
      "ĠSol": 6024,
      "target": 6025,
      "inois": 6026,
      "Ġnumerous": 6027,
      "Ġcore": 6028,
      "Ġmainly": 6029,
      "ĠIran": 6030,
      "stein": 6031,
      "Ġsec": 6032,
      "Ġrecently": 6033,
      "Ġplane": 6034,
      "Pos": 6035,
      "finished": 6036,
      "ga": 6037,
      "ĠDemocratic": 6038,
      "lib": 6039,
      "ĠBritain": 6040,
      "ĠSouthern": 6041,
      "Ġarbit": 6042,
      "Ġmargin": 6043,
      "ĠRel": 6044,
      "dagger": 6045,
      "rip": 6046,
      "1948": 6047,
      "Ġforest": 6048,
      "_{{\\": 6049,
      "ernel": 6050,
      "ĠInc": 6051,
      "ĠSar": 6052,
      "UE": 6053,
      "erved": 6054,
      "1942": 6055,
      "ĠJud": 6056,
      "Ġcounty": 6057,
      "ĠLibrary": 6058,
      "Ġbecoming": 6059,
      "process": 6060,
      "ĠFC": 6061,
      "1958": 6062,
      "Ġsenior": 6063,
      "Ġmodule": 6064,
      "1956": 6065,
      "Ġextends": 6066,
      "Ġneeds": 6067,
      "Ġresource": 6068,
      "enant": 6069,
      "locks": 6070,
      "ĠHere": 6071,
      "achus": 6072,
      "Ġtherm": 6073,
      "aria": 6074,
      "ĠAlso": 6075,
      "ĠOhio": 6076,
      "Ġcle": 6077,
      "Am": 6078,
      "inger": 6079,
      "Play": 6080,
      "Ġlat": 6081,
      "iders": 6082,
      "Ġreach": 6083,
      "Ġscatter": 6084,
      "Ġ$-": 6085,
      "73": 6086,
      "Ġexistence": 6087,
      "Ġshare": 6088,
      "ackson": 6089,
      "ĠEdward": 6090,
      "Ġroom": 6091,
      "ĠBul": 6092,
      "Ġconcent": 6093,
      "1959": 6094,
      "Ġdise": 6095,
      "Ġamb": 6096,
      "Ġchart": 6097,
      "Ġminutes": 6098,
      "ban": 6099,
      "Ġolder": 6100,
      "Ġrequires": 6101,
      "ĠPeople": 6102,
      "arning": 6103,
      "ĠPak": 6104,
      "Box": 6105,
      "ĠBelg": 6106,
      "Equal": 6107,
      "Ġapproximation": 6108,
      "Ġtreatment": 6109,
      "ĠJack": 6110,
      "ella": 6111,
      "ĠMichigan": 6112,
      "ĠOx": 6113,
      "Ġrecords": 6114,
      "definition": 6115,
      "ĠPoland": 6116,
      "ĠTro": 6117,
      "<!--": 6118,
      "\\!\\!": 6119,
      "ĠRadio": 6120,
      "Ġboolean": 6121,
      "Ġ->": 6122,
      "rolled": 6123,
      "ipl": 6124,
      "inite": 6125,
      "Ġpick": 6126,
      "Ġupdate": 6127,
      "$(": 6128,
      "Ġusers": 6129,
      "Ġsplit": 6130,
      "Ġcomparison": 6131,
      "nam": 6132,
      "args": 6133,
      "Ġspecified": 6134,
      "Ġapplications": 6135,
      "eful": 6136,
      "Ġbasic": 6137,
      "ador": 6138,
      "Ġextra": 6139,
      "Off": 6140,
      "ĠStep": 6141,
      "Ġbal": 6142,
      "Å¡": 6143,
      "1957": 6144,
      "71": 6145,
      "sky": 6146,
      "example": 6147,
      "Results": 6148,
      "1939": 6149,
      "Ġframework": 6150,
      "ket": 6151,
      "android": 6152,
      "isher": 6153,
      "alg": 6154,
      "Members": 6155,
      "ĠSong": 6156,
      "ĠRh": 6157,
      "ifically": 6158,
      "Ġnearly": 6159,
      "lad": 6160,
      "Ġincorpor": 6161,
      "eler": 6162,
      "ivial": 6163,
      "Ġmicro": 6164,
      "EX": 6165,
      "owers": 6166,
      "Ġinn": 6167,
      "Ġhusband": 6168,
      "Ġelections": 6169,
      "Token": 6170,
      "ĠCarl": 6171,
      "ĠLord": 6172,
      "Ġcorn": 6173,
      "Nav": 6174,
      "rows": 6175,
      "SD": 6176,
      "Ġmaster": 6177,
      "achusetts": 6178,
      "Ġimmediately": 6179,
      "ĠâĢĺ": 6180,
      "eks": 6181,
      "ibly": 6182,
      "Ġpack": 6183,
      "ĠMen": 6184,
      "anger": 6185,
      "ĠAsian": 6186,
      "Ġmeasured": 6187,
      "Ġstore": 6188,
      "matrix": 6189,
      "Ġcard": 6190,
      "ĠMem": 6191,
      "ĠCro": 6192,
      "ĠInf": 6193,
      "unn": 6194,
      "uses": 6195,
      "ependence": 6196,
      "Ġactivity": 6197,
      "Ġquarter": 6198,
      "Ġforced": 6199,
      "ĠDutch": 6200,
      "),\\": 6201,
      "Ġclient": 6202,
      "Ġannual": 6203,
      "cf": 6204,
      "Ġmurder": 6205,
      "1943": 6206,
      "Ġfederal": 6207,
      "Car": 6208,
      "ategy": 6209,
      "law": 6210,
      "Cons": 6211,
      "ĠJersey": 6212,
      "rl": 6213,
      "lict": 6214,
      "parent": 6215,
      "Ġroot": 6216,
      "ĠUnivers": 6217,
      "ollary": 6218,
      "Ġagent": 6219,
      "Ġradius": 6220,
      "Ġsquad": 6221,
      "spect": 6222,
      "Ġrelev": 6223,
      "rics": 6224,
      "iling": 6225,
      "Sports": 6226,
      "aily": 6227,
      "ancy": 6228,
      "ĠHy": 6229,
      "Ġdynamics": 6230,
      "uty": 6231,
      "Ġeasily": 6232,
      "Ġoperated": 6233,
      "Ġandroid": 6234,
      "Ġmeeting": 6235,
      "atial": 6236,
      "ĠAsia": 6237,
      "Buffer": 6238,
      "ĠBook": 6239,
      "ĠEnd": 6240,
      "Ġvictory": 6241,
      "Ġbass": 6242,
      "dat": 6243,
      "ellig": 6244,
      "Ġcomposed": 6245,
      "Ġdecay": 6246,
      "Ġtypically": 6247,
      ")\\,": 6248,
      "burgh": 6249,
      "\\\"": 6250,
      "Ġstay": 6251,
      "Ġcombined": 6252,
      "etime": 6253,
      "Ġreligious": 6254,
      "Ġgreater": 6255,
      "otal": 6256,
      "ĠRepresent": 6257,
      "ĠIN": 6258,
      "Ġstatement": 6259,
      "Ġnative": 6260,
      "omic": 6261,
      "Ġbul": 6262,
      "Block": 6263,
      "chen": 6264,
      "Ġsimpl": 6265,
      "ĠJewish": 6266,
      "Ġindividuals": 6267,
      "ĠRepublican": 6268,
      "Ġcommunities": 6269,
      "Ġbatt": 6270,
      "ji": 6271,
      "Ġhum": 6272,
      "button": 6273,
      "Ġprocesses": 6274,
      "Ġexperimental": 6275,
      "Ġlink": 6276,
      "ĠFri": 6277,
      "Ġpoor": 6278,
      "Ġgreen": 6279,
      "ĠNow": 6280,
      "ĠPacific": 6281,
      "orter": 6282,
      "1941": 6283,
      "Ġclassification": 6284,
      "ĠRam": 6285,
      "National": 6286,
      "ror": 6287,
      "Ġsea": 6288,
      "ech": 6289,
      "ĠScotland": 6290,
      "Ġdepartment": 6291,
      "ropy": 6292,
      "CP": 6293,
      "Ġclaimed": 6294,
      "ela": 6295,
      "Instance": 6296,
      "Ġuniversity": 6297,
      "ERT": 6298,
      "Now": 6299,
      "aters": 6300,
      "ĠTop": 6301,
      "rical": 6302,
      "ulty": 6303,
      "ĠPre": 6304,
      "EM": 6305,
      "Ġgalaxies": 6306,
      "icks": 6307,
      "ĠReturn": 6308,
      "Mon": 6309,
      "ĠMountain": 6310,
      "imb": 6311,
      "Gener": 6312,
      "Ġemission": 6313,
      "1952": 6314,
      "ĠKent": 6315,
      "wer": 6316,
      "Ġcolon": 6317,
      "aya": 6318,
      "According": 6319,
      "irls": 6320,
      "ĠQueen": 6321,
      "limits": 6322,
      "ĠOffice": 6323,
      "Ġarrest": 6324,
      "write": 6325,
      "Ġcarry": 6326,
      "1946": 6327,
      "final": 6328,
      "ĠLi": 6329,
      "Ġaccuracy": 6330,
      "ĠĠĠĠĠĠĠĠĊ": 6331,
      "Ġexam": 6332,
      "adata": 6333,
      "Ġmountain": 6334,
      "Ġpositions": 6335,
      "ĠJones": 6336,
      "Met": 6337,
      "ĠHa": 6338,
      "Ġpoliticians": 6339,
      "arden": 6340,
      "Lay": 6341,
      "request": 6342,
      "Ġsituation": 6343,
      "Ġoptimal": 6344,
      "number": 6345,
      "Ġregister": 6346,
      "Ġmixed": 6347,
      "Ġperturb": 6348,
      "Ġetc": 6349,
      "Ġ\\(": 6350,
      "Point": 6351,
      "Ġexpon": 6352,
      "Men": 6353,
      "Ġcomputer": 6354,
      "ĠCentre": 6355,
      "Ġconfir": 6356,
      "gypt": 6357,
      "Resource": 6358,
      "ĠTem": 6359,
      "dl": 6360,
      "ĠMr": 6361,
      "Ġuncertaint": 6362,
      "deg": 6363,
      "Ġforeign": 6364,
      "py": 6365,
      "Ġpolar": 6366,
      "ila": 6367,
      "ĠConference": 6368,
      "ĠIllinois": 6369,
      "Ġraised": 6370,
      "Ġcapacity": 6371,
      "server": 6372,
      "stone": 6373,
      "ugin": 6374,
      "Ġ\"\"\"": 6375,
      "ĠEarth": 6376,
      "Ġ<<": 6377,
      "Ġcoupling": 6378,
      "ĠAz": 6379,
      "Ġresolution": 6380,
      "Ġ|\\": 6381,
      "ĠJournal": 6382,
      "soft": 6383,
      "Fe": 6384,
      "Brit": 6385,
      "Ġfactors": 6386,
      "Ġreturns": 6387,
      "1955": 6388,
      "las": 6389,
      "Ġleave": 6390,
      "ĠAut": 6391,
      "ĠPrem": 6392,
      "har": 6393,
      "Ġactors": 6394,
      ":#": 6395,
      "ĠOf": 6396,
      "Ġcam": 6397,
      "=(": 6398,
      "Em": 6399,
      "Ġinterface": 6400,
      "Ġsurvey": 6401,
      "ecution": 6402,
      "Ġvisual": 6403,
      "hesis": 6404,
      "ĠMajor": 6405,
      "php": 6406,
      "Ġformal": 6407,
      "ĠProposition": 6408,
      ":\\": 6409,
      "Ġdual": 6410,
      "Ġdescent": 6411,
      "Ġships": 6412,
      "Aut": 6413,
      "}}(\\": 6414,
      "Ġexpat": 6415,
      "ĠCE": 6416,
      "ĠBow": 6417,
      "term": 6418,
      "Options": 6419,
      "tainment": 6420,
      "Track": 6421,
      "Ġseat": 6422,
      "elli": 6423,
      "Ġhistorical": 6424,
      "Ġnine": 6425,
      "imin": 6426,
      "Ġparents": 6427,
      "ĠPortug": 6428,
      "ĠPrince": 6429,
      "FT": 6430,
      "ĠGL": 6431,
      "1947": 6432,
      "free": 6433,
      "ĠShow": 6434,
      "cean": 6435,
      "Ġpromin": 6436,
      "bi": 6437,
      "Ġsettlement": 6438,
      "_{-": 6439,
      "ĠRailway": 6440,
      "ebug": 6441,
      "Ġwestern": 6442,
      "asy": 6443,
      "ĠMu": 6444,
      "ĠDet": 6445,
      "Ġspectral": 6446,
      "ĠType": 6447,
      "ĠObject": 6448,
      "Rel": 6449,
      "CL": 6450,
      "Ġfun": 6451,
      "ĠMassachusetts": 6452,
      "El": 6453,
      "Handler": 6454,
      "Ġclust": 6455,
      "Ġotherwise": 6456,
      "Ġsatisfies": 6457,
      "Ġelev": 6458,
      "Ġserving": 6459,
      "Ġchoose": 6460,
      "Ġretired": 6461,
      "Ġsubsequently": 6462,
      "Ġchalleng": 6463,
      "Ġpoly": 6464,
      "FI": 6465,
      "sur": 6466,
      "rons": 6467,
      "Ġresponsible": 6468,
      "ĠFrancisco": 6469,
      "Exp": 6470,
      "viation": 6471,
      "1954": 6472,
      "after": 6473,
      "Ġfix": 6474,
      "Ġpil": 6475,
      "rison": 6476,
      "Ġwind": 6477,
      "ĠGovernor": 6478,
      "ĠMah": 6479,
      "However": 6480,
      "ecting": 6481,
      "Ġones": 6482,
      "Ġweeks": 6483,
      "antry": 6484,
      "eft": 6485,
      "Ġdevice": 6486,
      "Ġice": 6487,
      "Ġmoving": 6488,
      "Ġmut": 6489,
      "itation": 6490,
      "Ġprefer": 6491,
      "ĠRos": 6492,
      "ĠTheir": 6493,
      "CS": 6494,
      "Ġrelatively": 6495,
      "Ġnumerical": 6496,
      ",\\,": 6497,
      "ĠKong": 6498,
      "RA": 6499,
      "ĠJan": 6500,
      "Ġuseful": 6501,
      "Ġcompute": 6502,
      "cript": 6503,
      "'\\": 6504,
      "Ġupd": 6505,
      "Ġtracks": 6506,
      "adel": 6507,
      "ypes": 6508,
      "Ġdistributed": 6509,
      "des": 6510,
      "Us": 6511,
      "Ġmomentum": 6512,
      "Ġque": 6513,
      "sg": 6514,
      "}%": 6515,
      "Ġleaving": 6516,
      "Ġcomedy": 6517,
      "Content": 6518,
      "Ġmole": 6519,
      "ibliography": 6520,
      "Ġrecording": 6521,
      "Ġincome": 6522,
      "ĠSpring": 6523,
      "Ġconsistent": 6524,
      "Ġbottom": 6525,
      "Ġcontributions": 6526,
      "1953": 6527,
      "je": 6528,
      "Ġplot": 6529,
      "uer": 6530,
      "Start": 6531,
      "Number": 6532,
      "Ġlif": 6533,
      "Ġtag": 6534,
      "osoph": 6535,
      "rot": 6536,
      "Ġring": 6537,
      "header": 6538,
      "Ġprogress": 6539,
      "CA": 6540,
      "ĠWork": 6541,
      "ifications": 6542,
      "ĠCa": 6543,
      "urt": 6544,
      "roduction": 6545,
      "ĠBoston": 6546,
      "Ġ}\\": 6547,
      "Ġspaces": 6548,
      "Ġfeed": 6549,
      "ograp": 6550,
      "ĠWilliams": 6551,
      "hire": 6552,
      "Ġserve": 6553,
      "Ġstraight": 6554,
      "ĠPhilipp": 6555,
      "oting": 6556,
      "unit": 6557,
      "textsc": 6558,
      "phy": 6559,
      "Ġerrors": 6560,
      ")_{": 6561,
      "ĠBern": 6562,
      "Ġgeneration": 6563,
      "Ġdecla": 6564,
      "Ġability": 6565,
      "graph": 6566,
      "json": 6567,
      "ĠBet": 6568,
      "enty": 6569,
      "kes": 6570,
      "'_": 6571,
      "ilation": 6572,
      "ĠHead": 6573,
      "Ġspread": 6574,
      "Ġfoot": 6575,
      "acter": 6576,
      "Ġvs": 6577,
      "ĠElect": 6578,
      "Ġcompletely": 6579,
      "Ġsignificantly": 6580,
      "1949": 6581,
      "ĠÅ": 6582,
      "olt": 6583,
      "~$\\": 6584,
      "ĠGeorgia": 6585,
      "property": 6586,
      "mail": 6587,
      "Version": 6588,
      "Ġsays": 6589,
      "urban": 6590,
      "gg": 6591,
      "contin": 6592,
      "Ġeth": 6593,
      "Ġrecomm": 6594,
      "ĠLang": 6595,
      "unfinished": 6596,
      "Ġshowed": 6597,
      "ãģ": 6598,
      "Hel": 6599,
      "fect": 6600,
      "Ġordered": 6601,
      "Ġassumed": 6602,
      "ĠPlaces": 6603,
      "white": 6604,
      "ĠJohnson": 6605,
      "Component": 6606,
      "nes": 6607,
      "Ġmovie": 6608,
      "Ġflight": 6609,
      "Ġdespite": 6610,
      "Ã±": 6611,
      "Dist": 6612,
      "Ġvertices": 6613,
      "ĠBoth": 6614,
      "Ġnone": 6615,
      "Ġbelieved": 6616,
      "Ġedges": 6617,
      "vest": 6618,
      "Ġmachine": 6619,
      "ervices": 6620,
      "United": 6621,
      "Ġcitiz": 6622,
      "ĠHence": 6623,
      "abeth": 6624,
      "project": 6625,
      "Ġcatch": 6626,
      "Ġvote": 6627,
      "dim": 6628,
      "ĠHung": 6629,
      "ĠTheatre": 6630,
      "Ac": 6631,
      "Ġactual": 6632,
      "Rem": 6633,
      "Ġscene": 6634,
      "Sec": 6635,
      "Ġshoot": 6636,
      "Ġprocedure": 6637,
      "La": 6638,
      "Ġofficers": 6639,
      "Ġsister": 6640,
      "ĠEach": 6641,
      "subsubsection": 6642,
      "Ġstrategy": 6643,
      "Run": 6644,
      "onia": 6645,
      "aylor": 6646,
      "Ġtold": 6647,
      "ĠCoast": 6648,
      "Prov": 6649,
      "Ġamplit": 6650,
      "Ġcorresponds": 6651,
      "Child": 6652,
      "Ġclubs": 6653,
      "lers": 6654,
      "Description": 6655,
      "Ġwalk": 6656,
      "Ġtechniques": 6657,
      "1000": 6658,
      "Top": 6659,
      "iency": 6660,
      "ĠBuild": 6661,
      "occer": 6662,
      "Ġlies": 6663,
      ")}(": 6664,
      "Attribute": 6665,
      "Ġreduce": 6666,
      "Ġresol": 6667,
      "DB": 6668,
      "TP": 6669,
      "arters": 6670,
      "Ġutil": 6671,
      "ĠEastern": 6672,
      "Ġmuseum": 6673,
      "Ġsitu": 6674,
      "Ġfeel": 6675,
      "oir": 6676,
      "Ġhelped": 6677,
      "Ġcru": 6678,
      "Ġmunicipality": 6679,
      "Ġsteps": 6680,
      "Ġapprop": 6681,
      "Ġactions": 6682,
      "ĠProgram": 6683,
      "Ġsociety": 6684,
      "Ġsuc": 6685,
      "HE": 6686,
      "1951": 6687,
      "Ġconstraints": 6688,
      "Function": 6689,
      "Ġ+=": 6690,
      "ĠOxford": 6691,
      "poration": 6692,
      "Ġturned": 6693,
      "Ġassigned": 6694,
      "Eq": 6695,
      "ĠBal": 6696,
      "Ġdepict": 6697,
      "Ġthrows": 6698,
      "Ġhockey": 6699,
      "erse": 6700,
      "ĠStan": 6701,
      "Ġinner": 6702,
      "asi": 6703,
      "pped": 6704,
      "ĠIslam": 6705,
      "Ġbad": 6706,
      "arser": 6707,
      "ĠSenate": 6708,
      "plete": 6709,
      "ounds": 6710,
      "Ġacquired": 6711,
      "oded": 6712,
      "Ġasked": 6713,
      "Don": 6714,
      "ÅĤ": 6715,
      "Ġachieved": 6716,
      "Ġinequality": 6717,
      ")^{\\": 6718,
      "}^*": 6719,
      "Ġprofessor": 6720,
      "British": 6721,
      "rance": 6722,
      "ĠDec": 6723,
      "Ġcells": 6724,
      "Art": 6725,
      "ĠMoreover": 6726,
      "num": 6727,
      "Ġprojects": 6728,
      "OP": 6729,
      "itage": 6730,
      "Ġdetection": 6731,
      "zero": 6732,
      "ĠSee": 6733,
      "Ġvon": 6734,
      "ĠProject": 6735,
      "ĠCorps": 6736,
      "ĠSecretary": 6737,
      "aturing": 6738,
      "ĠSte": 6739,
      "}$-": 6740,
      "ĠCy": 6741,
      "Ġtor": 6742,
      "Ġfle": 6743,
      "Ġsites": 6744,
      "ĠScottish": 6745,
      "Ġpain": 6746,
      "Ġcovered": 6747,
      "lets": 6748,
      "INE": 6749,
      "ione": 6750,
      "ĠGood": 6751,
      "Ġfamous": 6752,
      "Ġdoc": 6753,
      "tained": 6754,
      "Ġcities": 6755,
      "Ġgiving": 6756,
      "Ġconflict": 6757,
      "secut": 6758,
      "rong": 6759,
      "miss": 6760,
      "xml": 6761,
      "Ġreli": 6762,
      "jav": 6763,
      "Ġremain": 6764,
      "Min": 6765,
      "Ġâ": 6766,
      "Ġauthors": 6767,
      "undred": 6768,
      "forall": 6769,
      "Ġfil": 6770,
      "abilities": 6771,
      "Ġpurpose": 6772,
      "rium": 6773,
      "Ġsampl": 6774,
      "onto": 6775,
      "Ġassumption": 6776,
      "Ġsimulations": 6777,
      "Ġpersonnel": 6778,
      "Ġproved": 6779,
      "Ġexception": 6780,
      "ĠNone": 6781,
      "YPE": 6782,
      "arant": 6783,
      "=-": 6784,
      "{{": 6785,
      "SM": 6786,
      "Ġorganizations": 6787,
      "ĠBlue": 6788,
      "annels": 6789,
      "ribe": 6790,
      "Ġfraction": 6791,
      "Gu": 6792,
      "Ġcalculated": 6793,
      "Ġsucceed": 6794,
      "Ġdiscovered": 6795,
      "ĠTre": 6796,
      "yer": 6797,
      "Ġpairs": 6798,
      "Des": 6799,
      "while": 6800,
      "last": 6801,
      "Ġangle": 6802,
      "ĠBre": 6803,
      "Ġextract": 6804,
      "lie": 6805,
      "ez": 6806,
      "Default": 6807,
      "ĠSand": 6808,
      "Ġresources": 6809,
      "clos": 6810,
      "poses": 6811,
      "ĠColumbia": 6812,
      "una": 6813,
      "Ġbit": 6814,
      "âĢľ": 6815,
      "Ġdepends": 6816,
      "Ġopport": 6817,
      "AME": 6818,
      "Ġthings": 6819,
      "orb": 6820,
      "Ġcoefficients": 6821,
      "Ġslightly": 6822,
      "sto": 6823,
      "More": 6824,
      "cases": 6825,
      "mt": 6826,
      "Ġimprove": 6827,
      "Ġoffered": 6828,
      "writer": 6829,
      "ĠHig": 6830,
      "LP": 6831,
      "ĠChild": 6832,
      "btn": 6833,
      "Ġconducted": 6834,
      "Ġscript": 6835,
      "uri": 6836,
      "Ġrates": 6837,
      "Ġcircle": 6838,
      "Ġtrained": 6839,
      "pa": 6840,
      "Ġadopted": 6841,
      "atalog": 6842,
      "itionally": 6843,
      "hom": 6844,
      "ãĥ": 6845,
      "Here": 6846,
      "ternet": 6847,
      "Ġquery": 6848,
      "Ġsimulation": 6849,
      "Ġlanguages": 6850,
      "Ġbrand": 6851,
      "ĠPop": 6852,
      "Ġregional": 6853,
      "Ġminim": 6854,
      "Ġstatistics": 6855,
      "Ġincreases": 6856,
      "Writ": 6857,
      "ĠĠĠĠĠĠĠĠĠĠĠĠĊ": 6858,
      "Const": 6859,
      "ĠCard": 6860,
      "Ġaspect": 6861,
      "iffer": 6862,
      "ĠJr": 6863,
      "Ġpropag": 6864,
      "ĠMiddle": 6865,
      "Ġexpressed": 6866,
      "ricts": 6867,
      "ifact": 6868,
      "Ġvirtual": 6869,
      "Ġdead": 6870,
      "orig": 6871,
      "ĠLatin": 6872,
      "ĠJean": 6873,
      "Ġdrug": 6874,
      "ĠVan": 6875,
      "Ġoccurs": 6876,
      "Ġesc": 6877,
      "ĠRay": 6878,
      "ructure": 6879,
      "Ġquad": 6880,
      "thur": 6881,
      "Row": 6882,
      "ĠDevelopment": 6883,
      "ĠOk": 6884,
      "ĠMany": 6885,
      "Ġalt": 6886,
      "Ġcombination": 6887,
      "Ġwanted": 6888,
      "Ġnearby": 6889,
      "Ġlattice": 6890,
      "ĠWay": 6891,
      "akers": 6892,
      "Ġbey": 6893,
      "neg": 6894,
      "Sche": 6895,
      "Ġsomething": 6896,
      "ĠCr": 6897,
      "ĠMov": 6898,
      "Ġcycl": 6899,
      "1936": 6900,
      "Factory": 6901,
      "ĠSpe": 6902,
      "Ġearned": 6903,
      "olute": 6904,
      "amental": 6905,
      "Ġtensor": 6906,
      "ĠBang": 6907,
      "iable": 6908,
      ")^{-": 6909,
      "icity": 6910,
      "Ġmeasurements": 6911,
      "ighter": 6912,
      "ĠColor": 6913,
      "Ġplans": 6914,
      "Ġcompeted": 6915,
      "acing": 6916,
      "ĠFar": 6917,
      "ĠLog": 6918,
      "ympt": 6919,
      "Ġdivided": 6920,
      "tings": 6921,
      "Next": 6922,
      "Ġrisk": 6923,
      "Ã£": 6924,
      "*/": 6925,
      "ĠCreek": 6926,
      "ĠPolish": 6927,
      "Ġexternal": 6928,
      "Ġrelevant": 6929,
      "Ġcontained": 6930,
      "ĠEnter": 6931,
      "ĠLater": 6932,
      "ĠEgypt": 6933,
      "vol": 6934,
      "rypt": 6935,
      "teen": 6936,
      "Ġparties": 6937,
      "ĠSu": 6938,
      "utenant": 6939,
      "Action": 6940,
      "Ġ+\\": 6941,
      "ĠHor": 6942,
      "ographic": 6943,
      "Ġbegin": 6944,
      "ĠAtt": 6945,
      "Ġsaying": 6946,
      "Ġflat": 6947,
      "Filter": 6948,
      "ĠBroad": 6949,
      "Ġquite": 6950,
      "Dem": 6951,
      "enger": 6952,
      "cd": 6953,
      "Desc": 6954,
      "Ġstories": 6955,
      "ĠMid": 6956,
      "fit": 6957,
      "}}^": 6958,
      "Ġscalar": 6959,
      "Ġdenotes": 6960,
      "ĠSea": 6961,
      "ĠData": 6962,
      "faces": 6963,
      "ilib": 6964,
      "Ġcelebr": 6965,
      "pmatrix": 6966,
      "orough": 6967,
      "Ġbeyond": 6968,
      "ĠStation": 6969,
      "Ġproceed": 6970,
      "ĠGame": 6971,
      "ederation": 6972,
      "Ġansw": 6973,
      "1918": 6974,
      "OC": 6975,
      "Ġlibrary": 6976,
      "ĠKorea": 6977,
      "ĠEqu": 6978,
      "ĠSpecial": 6979,
      "Ġexchange": 6980,
      "LASS": 6981,
      "Ġstable": 6982,
      "Ġreconst": 6983,
      "Ġattract": 6984,
      "Ġstrict": 6985,
      "Ġmeasures": 6986,
      "Ġmetal": 6987,
      "ĠJes": 6988,
      "\"]": 6989,
      "Ġlaws": 6990,
      "ulpt": 6991,
      "Ġletter": 6992,
      "1938": 6993,
      "refix": 6994,
      "ĠHong": 6995,
      "gers": 6996,
      "ĠAlexander": 6997,
      "sche": 6998,
      "Ġinstall": 6999,
      "ader": 7000,
      "Ã¡n": 7001,
      "ĠBerlin": 7002,
      "Ġlot": 7003,
      "cat": 7004,
      "zech": 7005,
      "150": 7006,
      "show": 7007,
      "Ġremove": 7008,
      "Ġhoriz": 7009,
      "entry": 7010,
      "{$\\": 7011,
      "uries": 7012,
      "ĠAv": 7013,
      "Return": 7014,
      "Ġprep": 7015,
      "Ġgenerate": 7016,
      "dney": 7017,
      "Ġbridge": 7018,
      "Ġprobably": 7019,
      "ĠID": 7020,
      "ulf": 7021,
      "Ġsegment": 7022,
      "Figure": 7023,
      "Sing": 7024,
      "ĠBa": 7025,
      "ĠBu": 7026,
      "){\\": 7027,
      "ĠDar": 7028,
      "Ġmarriage": 7029,
      "Ġserver": 7030,
      "lax": 7031,
      "Ġcurves": 7032,
      "ogene": 7033,
      "chester": 7034,
      "Ġappearances": 7035,
      "Port": 7036,
      "Ġlives": 7037,
      "Ġdistributions": 7038,
      "Ġrapid": 7039,
      "Ġyouth": 7040,
      "ocket": 7041,
      "OL": 7042,
      "Ġproviding": 7043,
      "Ġapproaches": 7044,
      "Ġconcert": 7045,
      "SL": 7046,
      "Ġweb": 7047,
      "Ġawards": 7048,
      "REF": 7049,
      "Ġeastern": 7050,
      "Ġharm": 7051,
      "True": 7052,
      "Ġfort": 7053,
      "description": 7054,
      "Window": 7055,
      "posite": 7056,
      "oped": 7057,
      "Ġinteresting": 7058,
      "Ġcoming": 7059,
      "eld": 7060,
      "bas": 7061,
      ",âĢĿ": 7062,
      "rovers": 7063,
      "ĠWis": 7064,
      "Link": 7065,
      "ologist": 7066,
      "Ġcrew": 7067,
      "Ġ{@": 7068,
      "bot": 7069,
      "aa": 7070,
      "icine": 7071,
      "newcommand": 7072,
      "find": 7073,
      "Ġbuff": 7074,
      "Hz": 7075,
      "Equals": 7076,
      "Ġquickly": 7077,
      "DP": 7078,
      "chers": 7079,
      "sen": 7080,
      "Ġassign": 7081,
      "Ġfifth": 7082,
      "Ġhar": 7083,
      "system": 7084,
      "eller": 7085,
      "dx": 7086,
      "perp": 7087,
      "Arg": 7088,
      ")\\\\": 7089,
      "Ġonto": 7090,
      "ailed": 7091,
      "SR": 7092,
      "Ġdistingu": 7093,
      "illy": 7094,
      "Ġheart": 7095,
      "hu": 7096,
      "Cal": 7097,
      "Ġhouses": 7098,
      "iate": 7099,
      "nowled": 7100,
      "NO": 7101,
      "Ġflag": 7102,
      "Ġjoin": 7103,
      "Ġorient": 7104,
      "Ġalleg": 7105,
      "ptr": 7106,
      "While": 7107,
      "Ð»": 7108,
      "Ġbaseball": 7109,
      "Ġanalog": 7110,
      "ĠKenn": 7111,
      "Ġalgorithms": 7112,
      "[\"": 7113,
      "Ġreform": 7114,
      "Ġhospital": 7115,
      "Ġdisk": 7116,
      "Ġmis": 7117,
      "${": 7118,
      "even": 7119,
      "ĠNight": 7120,
      "Ġdecom": 7121,
      "Ġstrength": 7122,
      "ĠInst": 7123,
      "Ġprimarily": 7124,
      "Ġreally": 7125,
      "Ġloop": 7126,
      "Ġrevealed": 7127,
      "Ġintroduce": 7128,
      "ture": 7129,
      "Ġfriends": 7130,
      "ibr": 7131,
      "Ġtransferred": 7132,
      "push": 7133,
      "Music": 7134,
      "Ġign": 7135,
      "alities": 7136,
      "imer": 7137,
      "hr": 7138,
      "ĠVictoria": 7139,
      "Ġeasy": 7140,
      "Ġexactly": 7141,
      "Ġitems": 7142,
      "car": 7143,
      "Ġcultural": 7144,
      "Ġtheore": 7145,
      "Ġmanaged": 7146,
      "Load": 7147,
      "Ob": 7148,
      "Ġdepth": 7149,
      "ĠEst": 7150,
      "eli": 7151,
      "});": 7152,
      "Ġemp": 7153,
      "rawn": 7154,
      "Ġdemand": 7155,
      "istical": 7156,
      "1937": 7157,
      "aver": 7158,
      "Ðº": 7159,
      "ĠArgent": 7160,
      "udes": 7161,
      "amin": 7162,
      "anged": 7163,
      "peror": 7164,
      "Ġtroops": 7165,
      "innes": 7166,
      "Ġworkers": 7167,
      "atically": 7168,
      "Ġfavor": 7169,
      "Ġsusp": 7170,
      "cr": 7171,
      "meta": 7172,
      "igger": 7173,
      "Ġnam": 7174,
      "vin": 7175,
      "ĠUr": 7176,
      "Ġast": 7177,
      "Ġauto": 7178,
      "Ġvary": 7179,
      "Ġsections": 7180,
      "ĠTri": 7181,
      "src": 7182,
      "iger": 7183,
      "ĠOlympic": 7184,
      "ĠAndrew": 7185,
      "ĠRegiment": 7186,
      "Ġreceive": 7187,
      "ĠPolice": 7188,
      "Ġ((": 7189,
      "ĠLittle": 7190,
      "ective": 7191,
      "Ġexecutive": 7192,
      "ĠHospital": 7193,
      "ĠBir": 7194,
      "ifies": 7195,
      "Ġwidely": 7196,
      "ci": 7197,
      "^{+": 7198,
      "Ġfiles": 7199,
      "uler": 7200,
      "status": 7201,
      ">>": 7202,
      "Ġtouch": 7203,
      "second": 7204,
      "Ġalternative": 7205,
      "Ġfre": 7206,
      "$).": 7207,
      "Ġparallel": 7208,
      "Ġpp": 7209,
      "\\|_{": 7210,
      "ĠCommon": 7211,
      "sime": 7212,
      "IA": 7213,
      "Ġhydro": 7214,
      "ĠJackson": 7215,
      "Ġexpatriate": 7216,
      "pack": 7217,
      "ĠFer": 7218,
      "FONT": 7219,
      "mad": 7220,
      "Ġpromoted": 7221,
      "Ġfair": 7222,
      "Ġdiss": 7223,
      "Ġfirm": 7224,
      "Tem": 7225,
      "Ġcommonly": 7226,
      "ocated": 7227,
      "Create": 7228,
      "sign": 7229,
      "ĠSund": 7230,
      "Ġcategor": 7231,
      "Ġcorrelation": 7232,
      "buf": 7233,
      "Ġdraft": 7234,
      "img": 7235,
      "Ġgoes": 7236,
      "Ġissued": 7237,
      "Austral": 7238,
      "ryst": 7239,
      "simeq": 7240,
      "ĠFour": 7241,
      "ĠIslands": 7242,
      "Ġinteger": 7243,
      "dep": 7244,
      "ĠMot": 7245,
      "Ġsynt": 7246,
      "backs": 7247,
      "NR": 7248,
      "actor": 7249,
      "Ġmorph": 7250,
      "itzer": 7251,
      "Ġepisodes": 7252,
      "ĠNetwork": 7253,
      "amber": 7254,
      "ĠEliz": 7255,
      "Command": 7256,
      "ori": 7257,
      "Ġthr": 7258,
      "found": 7259,
      "rect": 7260,
      "Ġwinner": 7261,
      "Ġoil": 7262,
      "Ġgrid": 7263,
      "Ġcat": 7264,
      "World": 7265,
      "ntario": 7266,
      "emet": 7267,
      "ropical": 7268,
      "Ġthick": 7269,
      "navbar": 7270,
      "Ġleaves": 7271,
      ".~(\\": 7272,
      "Ġsal": 7273,
      "endix": 7274,
      "innesota": 7275,
      "ĠHome": 7276,
      "Ġimplementation": 7277,
      "Ġprovince": 7278,
      "rass": 7279,
      "Web": 7280,
      "Ġphen": 7281,
      "Ġestimates": 7282,
      "Ġinform": 7283,
      "ĠOfficial": 7284,
      "Ġsupp": 7285,
      "Cast": 7286,
      "Ġpartial": 7287,
      "Ġsector": 7288,
      "Ġsched": 7289,
      "Äį": 7290,
      "Ġcomputed": 7291,
      "ĠÂ£": 7292,
      "Ġorb": 7293,
      "ruck": 7294,
      "ennes": 7295,
      "General": 7296,
      "Ġversions": 7297,
      "ĠBand": 7298,
      "ĠWater": 7299,
      "ictionary": 7300,
      "pes": 7301,
      "These": 7302,
      "Disc": 7303,
      "University": 7304,
      "Ġwhy": 7305,
      "yo": 7306,
      "ĠBC": 7307,
      "Ġensure": 7308,
      "ĠViet": 7309,
      "Ġinvariant": 7310,
      "Dec": 7311,
      "private": 7312,
      "Format": 7313,
      "Ġsingular": 7314,
      "120": 7315,
      "tik": 7316,
      "Ä±": 7317,
      "ĠPoint": 7318,
      "ymmet": 7319,
      "ĠCorn": 7320,
      "ĠOp": 7321,
      "Ġfellow": 7322,
      "ĠCat": 7323,
      "plex": 7324,
      "maz": 7325,
      "Ġorganized": 7326,
      "Ġtypical": 7327,
      "Ġmedian": 7328,
      "Ġcycle": 7329,
      "Max": 7330,
      "'.": 7331,
      "ĠStand": 7332,
      "Ġneighborhood": 7333,
      "Ġregime": 7334,
      "aug": 7335,
      "Ġvoice": 7336,
      "endif": 7337,
      "Ġacting": 7338,
      "anta": 7339,
      "Our": 7340,
      "})$.": 7341,
      "Ġthreshold": 7342,
      "ĠKen": 7343,
      "she": 7344,
      "Rev": 7345,
      "$$\\": 7346,
      "Ġleaders": 7347,
      "Ġintended": 7348,
      "Ġmodes": 7349,
      "Ġbus": 7350,
      "Ġcouncil": 7351,
      "Ġconfirmed": 7352,
      "ĠPubl": 7353,
      "AV": 7354,
      "pool": 7355,
      "ronze": 7356,
      "}}^{": 7357,
      "anning": 7358,
      "Ġefforts": 7359,
      "params": 7360,
      ")}{\\": 7361,
      "ĉĠĠĠ": 7362,
      "Ġshared": 7363,
      "Ġcreation": 7364,
      "Null": 7365,
      "hol": 7366,
      "Me": 7367,
      "Pol": 7368,
      "ontal": 7369,
      "pop": 7370,
      "Ġsuggested": 7371,
      "Ġindicates": 7372,
      "etherlands": 7373,
      "Ġsqu": 7374,
      "ais": 7375,
      "Ġsecondary": 7376,
      "ĠWild": 7377,
      "Ġcalc": 7378,
      "ABLE": 7379,
      "Ġtrial": 7380,
      "ĠKorean": 7381,
      "zo": 7382,
      "PP": 7383,
      "agraph": 7384,
      "Ġtasks": 7385,
      "Ġseem": 7386,
      "tains": 7387,
      "Page": 7388,
      "Ġnewspaper": 7389,
      "\"|": 7390,
      "igration": 7391,
      "float": 7392,
      "ĠFollowing": 7393,
      "omer": 7394,
      "sort": 7395,
      "ucky": 7396,
      "expected": 7397,
      "Ã©e": 7398,
      "You": 7399,
      "Will": 7400,
      "Ġarbitrary": 7401,
      "ĠJustice": 7402,
      "ĠMinistry": 7403,
      "ransp": 7404,
      "Sch": 7405,
      "Ġpurs": 7406,
      "Ġowner": 7407,
      "emble": 7408,
      "Ġmarked": 7409,
      "sole": 7410,
      "Tag": 7411,
      "Ã¸": 7412,
      "1935": 7413,
      "close": 7414,
      "$^{-": 7415,
      "ĠAff": 7416,
      "Ġassistant": 7417,
      "Ġprogramming": 7418,
      "tree": 7419,
      "|}": 7420,
      "Ġoperating": 7421,
      "Ġdedicated": 7422,
      "also": 7423,
      "1919": 7424,
      "ĠRegion": 7425,
      "Ġinstr": 7426,
      "else": 7427,
      "Last": 7428,
      "anth": 7429,
      "Ġnation": 7430,
      "ĠSydney": 7431,
      "Personal": 7432,
      "phia": 7433,
      "([": 7434,
      "ĠSupreme": 7435,
      "ĠBBC": 7436,
      "Po": 7437,
      "essages": 7438,
      "update": 7439,
      "Ġarguments": 7440,
      "asure": 7441,
      "Ġresidents": 7442,
      "ponents": 7443,
      "site": 7444,
      "Ġconstitu": 7445,
      "ND": 7446,
      "ervative": 7447,
      "omorphic": 7448,
      "orning": 7449,
      "iants": 7450,
      "Ã£o": 7451,
      "fs": 7452,
      "Ġpra": 7453,
      "Ġbinary": 7454,
      "Ġfont": 7455,
      "Ġreflect": 7456,
      "obj": 7457,
      "Polit": 7458,
      "ĠTechnology": 7459,
      "ĠWilson": 7460,
      "ãĤ": 7461,
      "Ġnuclear": 7462,
      "ĠLes": 7463,
      "prob": 7464,
      "Ġarrived": 7465,
      "ĠPrize": 7466,
      "remark": 7467,
      "Ġstrongly": 7468,
      "Theorem": 7469,
      "Ġcaptured": 7470,
      "RL": 7471,
      "Ġattacks": 7472,
      "efined": 7473,
      "Ġdifferences": 7474,
      "adian": 7475,
      "Ġss": 7476,
      "onym": 7477,
      "Ġsort": 7478,
      "Thus": 7479,
      "weg": 7480,
      "Ġsoldiers": 7481,
      "present": 7482,
      "Ġefficient": 7483,
      "inson": 7484,
      "ĠRun": 7485,
      "So": 7486,
      "yes": 7487,
      "Ġgraduated": 7488,
      "Ġassociation": 7489,
      "EL": 7490,
      "Ġways": 7491,
      "ĠPen": 7492,
      "PA": 7493,
      "bullet": 7494,
      "ĠBoy": 7495,
      "tri": 7496,
      "Cor": 7497,
      "Association": 7498,
      "1914": 7499,
      "itory": 7500,
      "iced": 7501,
      "Ġtun": 7502,
      "place": 7503,
      "otted": 7504,
      "Ġspatial": 7505,
      "Ġsymmetric": 7506,
      "Ev": 7507,
      "bec": 7508,
      "zer": 7509,
      "ĠDaniel": 7510,
      "Right": 7511,
      "Ġhonor": 7512,
      "./": 7513,
      "Ġarticles": 7514,
      "////////////////": 7515,
      "filter": 7516,
      "ĠEconom": 7517,
      "Background": 7518,
      "hor": 7519,
      "etch": 7520,
      "Ġdiscussion": 7521,
      "Tra": 7522,
      "Ġmaterials": 7523,
      "nic": 7524,
      "Ġalongside": 7525,
      "ĠFederal": 7526,
      "ĠRog": 7527,
      "Ġadministration": 7528,
      "Ġinstrument": 7529,
      "Ġcosm": 7530,
      "ĠST": 7531,
      "DD": 7532,
      "Ġgun": 7533,
      "dy": 7534,
      "ancing": 7535,
      "vector": 7536,
      "Ġinteractions": 7537,
      "Ġmill": 7538,
      "odot": 7539,
      "Ġtalk": 7540,
      "Ġpure": 7541,
      "ĠProfessor": 7542,
      "Ġextrem": 7543,
      "Ġresist": 7544,
      "ĠLo": 7545,
      "ĠNS": 7546,
      "format": 7547,
      "ĠBi": 7548,
      "alion": 7549,
      "leton": 7550,
      "Ġnav": 7551,
      "ĠTaylor": 7552,
      "INT": 7553,
      "adelphia": 7554,
      "Ġdependence": 7555,
      "output": 7556,
      "Ġfeaturing": 7557,
      "Ġpartn": 7558,
      "emy": 7559,
      "Ġallowing": 7560,
      "Ġcoordinates": 7561,
      "Ġbomb": 7562,
      "\\_": 7563,
      "1933": 7564,
      "ĠMuslim": 7565,
      "room": 7566,
      "ĠOntario": 7567,
      "picture": 7568,
      "Vis": 7569,
      "Ġrare": 7570,
      "std": 7571,
      "Case": 7572,
      "ĠAirport": 7573,
      "Init": 7574,
      "ensions": 7575,
      "Ġpriv": 7576,
      "ĠAk": 7577,
      "Ġut": 7578,
      "spe": 7579,
      "Ġ=\\": 7580,
      "umption": 7581,
      "1928": 7582,
      "ĠSom": 7583,
      "Ġrepresenting": 7584,
      "ni": 7585,
      "Ġsession": 7586,
      "conf": 7587,
      "ĠLight": 7588,
      "mapsto": 7589,
      "het": 7590,
      "Ġhypot": 7591,
      "ĠBell": 7592,
      "Ġindicate": 7593,
      "Ġsport": 7594,
      "ĠVilla": 7595,
      "ĠOs": 7596,
      "Ġaccepted": 7597,
      "Ġprominent": 7598,
      "Ġseems": 7599,
      "Ġmatrices": 7600,
      "Ġacademic": 7601,
      "perial": 7602,
      "Ġtesting": 7603,
      "Current": 7604,
      "tikz": 7605,
      "ĠHuman": 7606,
      "Ġacts": 7607,
      "Ġtests": 7608,
      "1929": 7609,
      "Ġinh": 7610,
      "Ġadministrative": 7611,
      "ashion": 7612,
      "Ġpropos": 7613,
      "Ġancient": 7614,
      "ĠSant": 7615,
      "rowser": 7616,
      "alysis": 7617,
      "container": 7618,
      "Ġtal": 7619,
      "ami": 7620,
      "Output": 7621,
      "dule": 7622,
      "Ġdigital": 7623,
      "Ġaxis": 7624,
      "Ġ$$": 7625,
      "olicy": 7626,
      "ĠLew": 7627,
      ")_": 7628,
      "chor": 7629,
      "ĠLag": 7630,
      "ĠJeff": 7631,
      "aki": 7632,
      "1917": 7633,
      "South": 7634,
      "fri": 7635,
      "ĠBrig": 7636,
      "cope": 7637,
      "iated": 7638,
      "ĠPrime": 7639,
      "ĠJoe": 7640,
      "Ġspectra": 7641,
      "Ġweap": 7642,
      "ĠBatt": 7643,
      "estab": 7644,
      "Ġempty": 7645,
      "cut": 7646,
      "ĠRome": 7647,
      "'}": 7648,
      "Ġrough": 7649,
      "ĠBon": 7650,
      "ĠNations": 7651,
      "udio": 7652,
      "%)": 7653,
      "ĠRaj": 7654,
      "ĠJon": 7655,
      "ĠBab": 7656,
      "Ġwall": 7657,
      "bourne": 7658,
      "Ġidentify": 7659,
      "ĠRod": 7660,
      "Ġlisting": 7661,
      "high": 7662,
      "ĠModel": 7663,
      "Ġdetailed": 7664,
      "bre": 7665,
      "ĠKey": 7666,
      ")$-": 7667,
      "ported": 7668,
      "ĠMain": 7669,
      "Ġsla": 7670,
      "consin": 7671,
      "1934": 7672,
      "chestra": 7673,
      "multi": 7674,
      "Ġcompare": 7675,
      "Ġconvergence": 7676,
      "ĠSciences": 7677,
      "ĠThree": 7678,
      "Ġoccurred": 7679,
      "Ġcert": 7680,
      "Ġagreed": 7681,
      "Ġtransformation": 7682,
      "Ġnarrow": 7683,
      "Ġsculpt": 7684,
      "PL": 7685,
      "Ġrise": 7686,
      "MD": 7687,
      "Ġtermin": 7688,
      "eman": 7689,
      "ĠSports": 7690,
      "Ġdisease": 7691,
      "Ġsilver": 7692,
      "scope": 7693,
      "CR": 7694,
      "xx": 7695,
      "Ġera": 7696,
      "Ġpit": 7697,
      "Ġswitch": 7698,
      "Ġobserve": 7699,
      "hing": 7700,
      "ĠLuc": 7701,
      "odies": 7702,
      "ĠQueens": 7703,
      "Ġwor": 7704,
      "Ġvisit": 7705,
      "Ġinterval": 7706,
      "Ġachieve": 7707,
      "').": 7708,
      "quarters": 7709,
      "such": 7710,
      "urer": 7711,
      "ĠCommand": 7712,
      "Ġ&=&": 7713,
      "ĠCorporation": 7714,
      "ĠDer": 7715,
      "athan": 7716,
      "My": 7717,
      "orship": 7718,
      "ĠÎ": 7719,
      "Ġwav": 7720,
      "Ġunderstand": 7721,
      "ĠAvenue": 7722,
      "Ġathlet": 7723,
      "Ġcandidates": 7724,
      "blue": 7725,
      "Controller": 7726,
      "Ġoffset": 7727,
      "tan": 7728,
      "Dev": 7729,
      "desc": 7730,
      "PRO": 7731,
      "aught": 7732,
      "ĠGuard": 7733,
      "ĠCambridge": 7734,
      "ĠRoute": 7735,
      "Ġencou": 7736,
      "olitan": 7737,
      "author": 7738,
      "Ġmodified": 7739,
      "ĠTod": 7740,
      "Ġyields": 7741,
      "IO": 7742,
      "Ġhundred": 7743,
      "Ġven": 7744,
      "annot": 7745,
      "erc": 7746,
      "1932": 7747,
      "Ġscope": 7748,
      "Section": 7749,
      "ĉĉĊ": 7750,
      "~~~~": 7751,
      "ĠEp": 7752,
      "1910": 7753,
      "Ġmusicians": 7754,
      "Direct": 7755,
      "ĠPower": 7756,
      "icate": 7757,
      "ctu": 7758,
      "success": 7759,
      "sex": 7760,
      "BU": 7761,
      "Ġaccur": 7762,
      "'(": 7763,
      "ĠLim": 7764,
      "raq": 7765,
      "Task": 7766,
      "ĠTok": 7767,
      "Ġlargely": 7768,
      "ĠToronto": 7769,
      "water": 7770,
      "zh": 7771,
      "Ġ${": 7772,
      "Ġasympt": 7773,
      "Ġtraffic": 7774,
      "chron": 7775,
      "del": 7776,
      "tack": 7777,
      "phas": 7778,
      "uous": 7779,
      "elligence": 7780,
      "raine": 7781,
      "ĠMedia": 7782,
      "ĠNetherlands": 7783,
      "ĠRevolution": 7784,
      "ĠGer": 7785,
      "ito": 7786,
      "ĠMinnesota": 7787,
      "ĠPlan": 7788,
      "Ġcouple": 7789,
      "Ġbehavi": 7790,
      "1900": 7791,
      "ĠGaussian": 7792,
      "islative": 7793,
      "ĠAsh": 7794,
      "à¸": 7795,
      "Dat": 7796,
      "ilibrium": 7797,
      "akh": 7798,
      "Ġwinners": 7799,
      "Ġlabor": 7800,
      "ologies": 7801,
      "ĠTurk": 7802,
      "ĠSwedish": 7803,
      "Ġdifferential": 7804,
      "aret": 7805,
      "TO": 7806,
      "ĠUSA": 7807,
      "older": 7808,
      "sch": 7809,
      "Ġmeasurement": 7810,
      "Ġfine": 7811,
      "lig": 7812,
      "Ġcloud": 7813,
      "Ġrenamed": 7814,
      "Ġappropriate": 7815,
      "ĠRead": 7816,
      "Ġcreating": 7817,
      "Ġplanned": 7818,
      "Label": 7819,
      "---": 7820,
      "Ġnotable": 7821,
      "ĠOrgan": 7822,
      "SON": 7823,
      "arrier": 7824,
      "allow": 7825,
      "VD": 7826,
      "Ġlett": 7827,
      "Ġlocations": 7828,
      "step": 7829,
      "Ġchannels": 7830,
      "ĠDuke": 7831,
      "Ġshowing": 7832,
      "Ġfacilities": 7833,
      "fa": 7834,
      "Ġsides": 7835,
      "ĠAnton": 7836,
      "ĠElizabeth": 7837,
      "Ġprincipal": 7838,
      "Ġstellar": 7839,
      "coming": 7840,
      "ql": 7841,
      "ĠAnother": 7842,
      "1924": 7843,
      "Valid": 7844,
      "SA": 7845,
      "displaystyle": 7846,
      "Ġpartition": 7847,
      "mc": 7848,
      "Ġproport": 7849,
      "Ġcommunication": 7850,
      "aska": 7851,
      "Ġrural": 7852,
      "jected": 7853,
      "oned": 7854,
      "tax": 7855,
      "ĠInit": 7856,
      "rane": 7857,
      "ĠHT": 7858,
      "Ġvectors": 7859,
      "instance": 7860,
      "Ġexpanded": 7861,
      "Ġofficially": 7862,
      "wait": 7863,
      "Ġroles": 7864,
      "ĠEX": 7865,
      "Ġoffers": 7866,
      "Ġparticipated": 7867,
      "ĠUN": 7868,
      "sect": 7869,
      "two": 7870,
      "arc": 7871,
      "Ġrugby": 7872,
      "Ġtwice": 7873,
      "ĠNC": 7874,
      "Ġoptical": 7875,
      "His": 7876,
      "service": 7877,
      "Stat": 7878,
      "ĠMaster": 7879,
      ")},": 7880,
      "Ġdeliver": 7881,
      "orney": 7882,
      "DA": 7883,
      "Ġdegrees": 7884,
      "Ġminister": 7885,
      "owa": 7886,
      "thon": 7887,
      "1927": 7888,
      "ĠAthlet": 7889,
      "ynamic": 7890,
      "Ġreviews": 7891,
      "Check": 7892,
      "Biography": 7893,
      "Ġpartner": 7894,
      "Ġreports": 7895,
      "Ġparish": 7896,
      "Ġgrew": 7897,
      "ĠStadium": 7898,
      "Ġraces": 7899,
      "itled": 7900,
      "ĠMedal": 7901,
      "Ġstrateg": 7902,
      "emetery": 7903,
      "Ġhandle": 7904,
      "ĠSab": 7905,
      "bro": 7906,
      "efe": 7907,
      "ĠHand": 7908,
      "Length": 7909,
      "$;": 7910,
      "Ġphysics": 7911,
      "aser": 7912,
      "ĠCub": 7913,
      "si": 7914,
      "lags": 7915,
      "ĠBol": 7916,
      "mitted": 7917,
      "lan": 7918,
      "ĠPakistan": 7919,
      "ois": 7920,
      "Ġsolo": 7921,
      "GC": 7922,
      "May": 7923,
      "1922": 7924,
      "Ġideal": 7925,
      "ĠAst": 7926,
      "Ġpiece": 7927,
      "MB": 7928,
      "oor": 7929,
      "1931": 7930,
      "Ġreduction": 7931,
      "_.": 7932,
      "acc": 7933,
      "Ġtechnique": 7934,
      "ĠPass": 7935,
      "Ġvotes": 7936,
      "scill": 7937,
      "results": 7938,
      "German": 7939,
      "Red": 7940,
      "Ġwing": 7941,
      "Ġdestroyed": 7942,
      "Ġfigures": 7943,
      "VID": 7944,
      "ustain": 7945,
      "Ġfrag": 7946,
      "Ġpal": 7947,
      "Ġorders": 7948,
      "Ġcitizens": 7949,
      "Ġengineering": 7950,
      "Ġmanifold": 7951,
      "International": 7952,
      "///": 7953,
      "root": 7954,
      "Ġsubsequent": 7955,
      "Ġfailure": 7956,
      "Ġlie": 7957,
      "Ġpsych": 7958,
      "Ġly": 7959,
      "proposition": 7960,
      "Ġblocks": 7961,
      "Mat": 7962,
      "Ġalone": 7963,
      "Mode": 7964,
      "Ġpseud": 7965,
      "sd": 7966,
      "aren": 7967,
      "ĠCommunity": 7968,
      "Ġimportance": 7969,
      "ĠBad": 7970,
      "utt": 7971,
      "Ġmagnitude": 7972,
      "Ġdescribes": 7973,
      "ĠBusiness": 7974,
      "ĠSerb": 7975,
      "ĠVen": 7976,
      "wegian": 7977,
      "UI": 7978,
      "menu": 7979,
      "hent": 7980,
      "Acc": 7981,
      "Ġsurn": 7982,
      "Ġmasses": 7983,
      "Ġdelay": 7984,
      "Ġpull": 7985,
      "PO": 7986,
      "ĠGener": 7987,
      "estic": 7988,
      "Ġdeclared": 7989,
      "Ġcontrovers": 7990,
      "Ġ[]": 7991,
      "models": 7992,
      "Ġobservation": 7993,
      "ĠRen": 7994,
      "Ġsatisfy": 7995,
      "\\{\\": 7996,
      "Ġdoub": 7997,
      "ĠPhys": 7998,
      "Ġchemical": 7999,
      "ĠMethod": 8000,
      "Ġfloor": 8001,
      "Ġinstitutions": 8002,
      "ĠPremier": 8003,
      "sey": 8004,
      "Ãº": 8005,
      "Ġconference": 8006,
      "card": 8007,
      "Ġhouseholds": 8008,
      "Ġequipment": 8009,
      "rank": 8010,
      "fort": 8011,
      "offset": 8012,
      "Local": 8013,
      "ĠTai": 8014,
      "Ġtrees": 8015,
      "remove": 8016,
      "Ġdoing": 8017,
      "ĠBridge": 8018,
      "Ġchampion": 8019,
      "Ġperforming": 8020,
      "response": 8021,
      "udget": 8022,
      "Ġassess": 8023,
      "Ġdeploy": 8024,
      "French": 8025,
      "rie": 8026,
      "rage": 8027,
      "Ġclean": 8028,
      "ĠSanta": 8029,
      "Ġserves": 8030,
      "Ġ{}": 8031,
      "Ġserious": 8032,
      "rog": 8033,
      "Ġcomposition": 8034,
      "Ġattend": 8035,
      "ĠBrad": 8036,
      "iang": 8037,
      "proto": 8038,
      "Ġnucle": 8039,
      "ĠWisconsin": 8040,
      "Ġ<!--": 8041,
      "ĠSquad": 8042,
      "$~": 8043,
      "Ġthous": 8044,
      "Ġminimal": 8045,
      "Ġkept": 8046,
      "Ġgap": 8047,
      "ubb": 8048,
      "Ġgrowing": 8049,
      "abil": 8050,
      "ĠPy": 8051,
      "cref": 8052,
      "ĠSus": 8053,
      "VER": 8054,
      "Ġfreedom": 8055,
      "hard": 8056,
      "Ġstreet": 8057,
      "1921": 8058,
      "lyn": 8059,
      "Ġlayers": 8060,
      "Ġbeam": 8061,
      "ĉĉĉĉĉĉĉĉ": 8062,
      "acent": 8063,
      "hetic": 8064,
      "Ġemployed": 8065,
      "ĠFinally": 8066,
      "1925": 8067,
      "ĠBishop": 8068,
      "_-": 8069,
      "ĠFair": 8070,
      "Ġteacher": 8071,
      "Ġbands": 8072,
      "prov": 8073,
      "Ġspring": 8074,
      "Ġuns": 8075,
      "Olymp": 8076,
      "Ġelimin": 8077,
      "Ġcancer": 8078,
      "Ġdiam": 8079,
      "imation": 8080,
      "ĠMike": 8081,
      "Ġnotation": 8082,
      "urches": 8083,
      "Ġlic": 8084,
      "ĠSher": 8085,
      "Ġphenomen": 8086,
      "Ġreson": 8087,
      "ĠDespite": 8088,
      "returns": 8089,
      "ĠStephen": 8090,
      "Ġagric": 8091,
      "Ġexc": 8092,
      "rome": 8093,
      "sear": 8094,
      "Ġurl": 8095,
      "Ġpix": 8096,
      "ĠDoug": 8097,
      "ĠĠĠĠĠĠĠĠĠĠĠĠĠĠĠĠĠĠĠĠĠĠĠĠĠĠĠĠĠĠĠĠĠĠĠ": 8098,
      "ego": 8099,
      "(&": 8100,
      "Ġcoal": 8101,
      "ĠAPI": 8102,
      "opes": 8103,
      "ĠStudies": 8104,
      "appe": 8105,
      "Ġnewly": 8106,
      "hedral": 8107,
      "Ġspl": 8108,
      "|_{": 8109,
      "Ġtranslation": 8110,
      "gr": 8111,
      "Ġperman": 8112,
      "Ġgradient": 8113,
      "umes": 8114,
      "Ġhighlight": 8115,
      "osa": 8116,
      "Ġpeace": 8117,
      "direct": 8118,
      "Ġhosted": 8119,
      "Ġpolic": 8120,
      "yal": 8121,
      "zen": 8122,
      "Ġplants": 8123,
      "HS": 8124,
      "Post": 8125,
      "ĠAcc": 8126,
      "Ġdepending": 8127,
      "Ġgirl": 8128,
      "Second": 8129,
      "uv": 8130,
      "ĠJacob": 8131,
      "Ġreasons": 8132,
      "1912": 8133,
      "ĠClark": 8134,
      "Ġpet": 8135,
      "Ġunderstanding": 8136,
      "ĠIndust": 8137,
      "Ġclearly": 8138,
      "watch": 8139,
      "Pat": 8140,
      "Ġhistoric": 8141,
      "jan": 8142,
      "ĠGro": 8143,
      "Ġsurrounding": 8144,
      "Ġfundamental": 8145,
      "ĠOt": 8146,
      "ĠMarsh": 8147,
      "itness": 8148,
      "sor": 8149,
      "Ġguarant": 8150,
      "anga": 8151,
      "prototype": 8152,
      "Script": 8153,
      "eness": 8154,
      "Ġapparent": 8155,
      "Column": 8156,
      "Ġbelieve": 8157,
      "ĠForest": 8158,
      "ĠCirc": 8159,
      "icrosoft": 8160,
      "olis": 8161,
      "regon": 8162,
      "conn": 8163,
      "Ġprediction": 8164,
      "ĠLady": 8165,
      "Ġoscill": 8166,
      "Ġimproved": 8167,
      "1923": 8168,
      "Ġkernel": 8169,
      "ĠFurthermore": 8170,
      "notes": 8171,
      "ĠBla": 8172,
      "common": 8173,
      "ighth": 8174,
      "Ġtitles": 8175,
      "ws": 8176,
      "ME": 8177,
      "Ġheat": 8178,
      "Ġuint": 8179,
      "ĠKir": 8180,
      "}&": 8181,
      "ĠAD": 8182,
      "ĠCLASS": 8183,
      "Ġcapture": 8184,
      "1926": 8185,
      "Ġcars": 8186,
      "Ġmind": 8187,
      "Address": 8188,
      "CON": 8189,
      "imately": 8190,
      "Listener": 8191,
      "cover": 8192,
      "kit": 8193,
      "Ġoptimization": 8194,
      ")+\\": 8195,
      "Ġbill": 8196,
      "Women": 8197,
      "MR": 8198,
      "ĠPhiladelphia": 8199,
      "Ġbounds": 8200,
      "Ġtechnical": 8201,
      "})$,": 8202,
      "ĠMember": 8203,
      "Ġnet": 8204,
      "ĠSweden": 8205,
      "ĠHamiltonian": 8206,
      "ĠHREF": 8207,
      "ĠReview": 8208,
      "ĠPers": 8209,
      "ĠĠĠĠĠĠĠĠĠĠĠĠĠĠĠĠĠĠĠĠ": 8210,
      "ogen": 8211,
      "ĠMcC": 8212,
      "ĠFre": 8213,
      "images": 8214,
      "aped": 8215,
      "Song": 8216,
      "ĠHay": 8217,
      "ambig": 8218,
      "Ġcalls": 8219,
      "ĠFI": 8220,
      "Mult": 8221,
      "Ġbegins": 8222,
      "Ġdance": 8223,
      "Public": 8224,
      "ĠWalk": 8225,
      "Server": 8226,
      "Ġtheoretical": 8227,
      "icial": 8228,
      "poss": 8229,
      "onical": 8230,
      "ĠStat": 8231,
      "ipe": 8232,
      "Ġmathemat": 8233,
      "aved": 8234,
      "called": 8235,
      "Ġ\\!": 8236,
      "Ġresulted": 8237,
      "ĠTy": 8238,
      "Ġlimits": 8239,
      "cong": 8240,
      "Ġdefeat": 8241,
      "cular": 8242,
      "ĠCzech": 8243,
      "drop": 8244,
      "Ġodd": 8245,
      "Ġtowns": 8246,
      "ĠRom": 8247,
      "Ġspirit": 8248,
      "organ": 8249,
      "Ġgalaxy": 8250,
      "}}$.": 8251,
      "250": 8252,
      "KE": 8253,
      "stable": 8254,
      "Ġperformances": 8255,
      "mediate": 8256,
      "Ġvertical": 8257,
      "Ġclaims": 8258,
      "Ġwait": 8259,
      "Ġdimensions": 8260,
      "Ġsuccessfully": 8261,
      "unte": 8262,
      "Ġprice": 8263,
      "Ġmotor": 8264,
      "Ġroll": 8265,
      "yard": 8266,
      "Ġsafety": 8267,
      "Ġrecognized": 8268,
      "joy": 8269,
      "cccc": 8270,
      "omot": 8271,
      "Ġisol": 8272,
      "cknowled": 8273,
      "Ġrepresentative": 8274,
      "ĠChris": 8275,
      "ĠKim": 8276,
      "Ġinvolving": 8277,
      "Ġwild": 8278,
      "lapse": 8279,
      "Ġmedalists": 8280,
      "<?": 8281,
      "Ġdamage": 8282,
      "Ġadvantage": 8283,
      "BO": 8284,
      "Sum": 8285,
      "rames": 8286,
      "nergy": 8287,
      "Names": 8288,
      "Ġaffili": 8289,
      "ims": 8290,
      "Ġshell": 8291,
      "III": 8292,
      "Select": 8293,
      "bel": 8294,
      "ĠDam": 8295,
      "clear": 8296,
      "ĠDisc": 8297,
      "ĠKal": 8298,
      "}}$,": 8299,
      "ĠMap": 8300,
      "ĠMedical": 8301,
      "Ġbeat": 8302,
      "Op": 8303,
      "Non": 8304,
      "ĠWhat": 8305,
      "ĠCas": 8306,
      "Olympic": 8307,
      "Ġleadership": 8308,
      "outheast": 8309,
      "dest": 8310,
      "Access": 8311,
      "pur": 8312,
      "Update": 8313,
      "Ġestate": 8314,
      "apore": 8315,
      "Ġcomposer": 8316,
      "Ġrespond": 8317,
      "ello": 8318,
      "Ġhousing": 8319,
      "pg": 8320,
      "mass": 8321,
      "Awards": 8322,
      "Ġblood": 8323,
      "parameter": 8324,
      "Ġfelt": 8325,
      "Ġsettings": 8326,
      "asty": 8327,
      "Ġemphas": 8328,
      "cale": 8329,
      "pers": 8330,
      "ĠVis": 8331,
      "Ġcollected": 8332,
      "Ġindustrial": 8333,
      "ĠPeak": 8334,
      "Ġofficials": 8335,
      "ropolitan": 8336,
      "Ġresear": 8337,
      "restling": 8338,
      ")-\\": 8339,
      "kh": 8340,
      "ĠTal": 8341,
      "Ġadding": 8342,
      "mers": 8343,
      "bal": 8344,
      "Ġrecognition": 8345,
      "going": 8346,
      "uly": 8347,
      "pson": 8348,
      "Some": 8349,
      "Ġnovels": 8350,
      "Ġtail": 8351,
      "Ġpiano": 8352,
      "1916": 8353,
      "Ġmassive": 8354,
      "Ġwhereas": 8355,
      "Ġsexual": 8356,
      "Ġsure": 8357,
      "Ġcollabor": 8358,
      "aux": 8359,
      "Nov": 8360,
      "cha": 8361,
      "Ġconj": 8362,
      "leep": 8363,
      "brid": 8364,
      "ensis": 8365,
      "rizona": 8366,
      "oster": 8367,
      "Ġgained": 8368,
      "ilbert": 8369,
      "ĠAdminist": 8370,
      "TC": 8371,
      "anna": 8372,
      "Ġsales": 8373,
      "ocks": 8374,
      "Ġpurchased": 8375,
      "worth": 8376,
      "HL": 8377,
      "ĠSi": 8378,
      "ascript": 8379,
      "ĠBecause": 8380,
      "ĠNaz": 8381,
      "ĠWeek": 8382,
      "Ġlum": 8383,
      "Button": 8384,
      "opher": 8385,
      "oles": 8386,
      "Ġterritory": 8387,
      "1915": 8388,
      "mi": 8389,
      "Lem": 8390,
      "Ġheav": 8391,
      "osophy": 8392,
      "Ġfocused": 8393,
      "ĠAnth": 8394,
      "))$": 8395,
      "Cache": 8396,
      "Ġincident": 8397,
      "Ġcontinues": 8398,
      "Ġtitled": 8399,
      "Ġgets": 8400,
      "ĠTownship": 8401,
      "Ġvehicle": 8402,
      "ĠWinter": 8403,
      "ĠIndones": 8404,
      "Ġpolitics": 8405,
      "Ġrepro": 8406,
      "enna": 8407,
      "living": 8408,
      "ĠAR": 8409,
      "iplom": 8410,
      "Ġsend": 8411,
      "ĠIndiana": 8412,
      "ĠRa": 8413,
      "scape": 8414,
      "ĠBudd": 8415,
      "idel": 8416,
      "Ġconclude": 8417,
      "URL": 8418,
      "ĠMilitary": 8419,
      "Ġfinish": 8420,
      "cow": 8421,
      "illery": 8422,
      "Ag": 8423,
      "Ġurban": 8424,
      "Ġhidden": 8425,
      "Ġrotation": 8426,
      "ĠArthur": 8427,
      "ĠIraq": 8428,
      "Ġcerem": 8429,
      "ogg": 8430,
      "pute": 8431,
      "season": 8432,
      "Ġstarts": 8433,
      "ĠJoh": 8434,
      "Ġinduced": 8435,
      "ennessee": 8436,
      "ĠAli": 8437,
      "Ġtrust": 8438,
      "[(": 8439,
      "ĠWars": 8440,
      "Ġparliament": 8441,
      "ĠGree": 8442,
      "Ġlaunch": 8443,
      "ĠOrig": 8444,
      "ruit": 8445,
      "}({\\": 8446,
      "Ġrect": 8447,
      "Ġcopies": 8448,
      "Ġtend": 8449,
      "Ġinspired": 8450,
      "layout": 8451,
      "ĠFree": 8452,
      "Ġdriver": 8453,
      "ĠFire": 8454,
      "600": 8455,
      "Ġgraphs": 8456,
      "Ġprime": 8457,
      "Ġscientific": 8458,
      "ĠMissouri": 8459,
      "ĠConf": 8460,
      "FR": 8461,
      "'re": 8462,
      "Ġtheme": 8463,
      "tw": 8464,
      "ĠBaron": 8465,
      "Ġregarding": 8466,
      "vo": 8467,
      "Ġdevices": 8468,
      "********************************": 8469,
      "ĠGolden": 8470,
      "Ñĥ": 8471,
      "Ġconsisting": 8472,
      "Ġperfect": 8473,
      "Ġengineer": 8474,
      "attr": 8475,
      "Ġfemales": 8476,
      "Ġscattering": 8477,
      "hbar": 8478,
      "Ġcrime": 8479,
      "Ġnotes": 8480,
      "Ġfunctional": 8481,
      "Ġgranted": 8482,
      "wing": 8483,
      "poral": 8484,
      "ierarch": 8485,
      "ĠTurkey": 8486,
      "inton": 8487,
      "Ġjourn": 8488,
      "Following": 8489,
      "ĠColon": 8490,
      "110": 8491,
      "ordan": 8492,
      "ĠWel": 8493,
      "Ġgeometry": 8494,
      "Ġcharged": 8495,
      "Long": 8496,
      "ĠKansas": 8497,
      "mem": 8498,
      "Ġmedium": 8499,
      "ERR": 8500,
      "ĠMexican": 8501,
      "Ġvehicles": 8502,
      "Que": 8503,
      "ĠMill": 8504,
      "Ġhole": 8505,
      "Ġends": 8506,
      "API": 8507,
      "ĠLev": 8508,
      "igrants": 8509,
      "osis": 8510,
      "ussion": 8511,
      "Ġsuggests": 8512,
      "Ġpaid": 8513,
      "mma": 8514,
      "ĠCaptain": 8515,
      "'),": 8516,
      "Ġdatabase": 8517,
      "Ġquestions": 8518,
      "Ġswim": 8519,
      "}{(": 8520,
      "ĠHun": 8521,
      ":</": 8522,
      "Ã¢": 8523,
      "XX": 8524,
      "ĠSon": 8525,
      "floor": 8526,
      "ecute": 8527,
      "ĠVi": 8528,
      "Ġstrugg": 8529,
      "ĠBeach": 8530,
      "Introduction": 8531,
      "ĠHal": 8532,
      "ĠIV": 8533,
      "uing": 8534,
      ")}_{": 8535,
      "apped": 8536,
      "lementary": 8537,
      "Ġefficiency": 8538,
      "ika": 8539,
      "Ġraise": 8540,
      "iki": 8541,
      "Although": 8542,
      "Open": 8543,
      "ĠSem": 8544,
      "Ġprocessing": 8545,
      "Ġpenal": 8546,
      "legal": 8547,
      ":}": 8548,
      "ĠMunicip": 8549,
      "ads": 8550,
      "Ġcomplexity": 8551,
      "Types": 8552,
      "ĠHan": 8553,
      "Ġlabels": 8554,
      "should": 8555,
      "uint": 8556,
      "ĠHo": 8557,
      "Canadian": 8558,
      "lot": 8559,
      "Ġfiction": 8560,
      "Ġprinciple": 8561,
      "ĠEll": 8562,
      "Ġ{$": 8563,
      "TS": 8564,
      "ĠLind": 8565,
      "Go": 8566,
      "Ġpowerful": 8567,
      "Ġstorage": 8568,
      "ĠWat": 8569,
      "ĠRepresentatives": 8570,
      "Ġresident": 8571,
      "Ġfaculty": 8572,
      "}{|": 8573,
      "Ġinterested": 8574,
      "ĠFinal": 8575,
      "Ġmiles": 8576,
      "Ġdrive": 8577,
      "arse": 8578,
      "uli": 8579,
      "Ġsummar": 8580,
      "Ġranked": 8581,
      "Target": 8582,
      "ogeneous": 8583,
      "Ġvess": 8584,
      "Ġworth": 8585,
      "Ġcontest": 8586,
      "Sportspeople": 8587,
      "riptor": 8588,
      "ĠMun": 8589,
      "etails": 8590,
      "enses": 8591,
      "aling": 8592,
      "Ġabsolute": 8593,
      "forward": 8594,
      "ti": 8595,
      "Ġsubstant": 8596,
      "plications": 8597,
      "Ġinvestigation": 8598,
      "Width": 8599,
      "Ġamplitude": 8600,
      "Ġbillion": 8601,
      "ipage": 8602,
      "pot": 8603,
      "ĠCommun": 8604,
      "pective": 8605,
      "Ġaffected": 8606,
      "ttps": 8607,
      "Ġcontemporary": 8608,
      "Process": 8609,
      "Ġtried": 8610,
      "Ġsubt": 8611,
      "Rad": 8612,
      "Bibliography": 8613,
      "Ġ$.": 8614,
      "Location": 8615,
      "ensed": 8616,
      "itivity": 8617,
      "}$)": 8618,
      "Ġimplemented": 8619,
      ":\"": 8620,
      "Ġboy": 8621,
      "Ġlocally": 8622,
      "Ġaband": 8623,
      "Dr": 8624,
      "mosp": 8625,
      "ĠPrim": 8626,
      "Ġdocumentary": 8627,
      "Ġtells": 8628,
      "Ġsuffered": 8629,
      "ĠUsing": 8630,
      "Ġfinding": 8631,
      "COL": 8632,
      "Ġfounder": 8633,
      "rapper": 8634,
      "ĠEngineering": 8635,
      "ĠDown": 8636,
      "Populated": 8637,
      "frame": 8638,
      "Ġexcit": 8639,
      "Tax": 8640,
      "ictures": 8641,
      "ĠRet": 8642,
      "ĠUs": 8643,
      "ultane": 8644,
      "Ġcov": 8645,
      "Ġexplained": 8646,
      "ĠOregon": 8647,
      "ĠMaria": 8648,
      "minipage": 8649,
      "tail": 8650,
      "ĠAh": 8651,
      "Ġremark": 8652,
      "Ġportion": 8653,
      "NE": 8654,
      "vard": 8655,
      "ronic": 8656,
      "Ġextend": 8657,
      "1913": 8658,
      "istent": 8659,
      "ĠKel": 8660,
      "ĠĠĠĠĠĠĠĠĠĠĠĠĠĠĠĠĠĠĠĠĠ": 8661,
      "Ġcommittee": 8662,
      "Ġcolle": 8663,
      "Di": 8664,
      "Ġconsidering": 8665,
      "Therefore": 8666,
      "QL": 8667,
      "ĠPolit": 8668,
      "Offset": 8669,
      "lesssim": 8670,
      "Ġliber": 8671,
      "Ġconvent": 8672,
      "Mark": 8673,
      "Ġorbit": 8674,
      "pet": 8675,
      "ĠManagement": 8676,
      "agnetic": 8677,
      "Ġdistricts": 8678,
      "irement": 8679,
      "Ġbuffer": 8680,
      "Ġsuperv": 8681,
      "Frame": 8682,
      "Ġadvanced": 8683,
      "depend": 8684,
      "ĠLicense": 8685,
      "Ġhabit": 8686,
      "ĠFox": 8687,
      "Ġthermal": 8688,
      "$),": 8689,
      "asters": 8690,
      "SH": 8691,
      "ĠMarg": 8692,
      "Ġdetail": 8693,
      "Container": 8694,
      "Ġinfinite": 8695,
      "Ġcomputational": 8696,
      "Ġopposite": 8697,
      "ĠMic": 8698,
      "=\"../../": 8699,
      "Ġcharacteristic": 8700,
      "$};": 8701,
      "opic": 8702,
      "ĠHard": 8703,
      "western": 8704,
      "Ġstone": 8705,
      "```": 8706,
      "Ġener": 8707,
      "idi": 8708,
      "Ġdefend": 8709,
      "Ġconvex": 8710,
      "Ġbin": 8711,
      "ques": 8712,
      "endar": 8713,
      "Ġangular": 8714,
      "prise": 8715,
      "Ġvisible": 8716,
      "ading": 8717,
      "parse": 8718,
      "Geography": 8719,
      "Ġscales": 8720,
      "Ġspeech": 8721,
      "Var": 8722,
      "Ġ$|\\": 8723,
      "Sources": 8724,
      "Ġ!==": 8725,
      "Left": 8726,
      "ĠDavis": 8727,
      "ĠBh": 8728,
      "IB": 8729,
      "gest": 8730,
      "nections": 8731,
      "orders": 8732,
      "Ġclusters": 8733,
      "Ġplanet": 8734,
      "Order": 8735,
      "ĠCastle": 8736,
      "Do": 8737,
      "Ġaggreg": 8738,
      "Ġhttps": 8739,
      "800": 8740,
      "Layout": 8741,
      "Ġion": 8742,
      "zz": 8743,
      "Ġcool": 8744,
      "Ġfell": 8745,
      "WE": 8746,
      "Ġdoesn": 8747,
      "Ġseats": 8748,
      "Record": 8749,
      "DO": 8750,
      "Cent": 8751,
      "Ġrout": 8752,
      "aga": 8753,
      "Ġacceler": 8754,
      "haps": 8755,
      "ĉĠ": 8756,
      "Ã¼r": 8757,
      "udi": 8758,
      "Ġevol": 8759,
      "\\)": 8760,
      "lain": 8761,
      "Ġportray": 8762,
      "wealth": 8763,
      "Ġpool": 8764,
      "ĠOF": 8765,
      "ĠHart": 8766,
      "ritical": 8767,
      "Using": 8768,
      "ĠAtlantic": 8769,
      "ĠJews": 8770,
      "iÃ³n": 8771,
      "Ġ**": 8772,
      "ĠId": 8773,
      "ician": 8774,
      "Url": 8775,
      "Ġcalculation": 8776,
      "Ġauthorities": 8777,
      "ears": 8778,
      "Ġpowers": 8779,
      "(_": 8780,
      "ĠArray": 8781,
      "ĠSteve": 8782,
      "Ġviews": 8783,
      "ĠBall": 8784,
      "Provider": 8785,
      "Ġfinds": 8786,
      "weet": 8787,
      "Ġpicture": 8788,
      "rine": 8789,
      "Ġclimate": 8790,
      "ordon": 8791,
      "ben": 8792,
      "ĠGallery": 8793,
      "secutive": 8794,
      "control": 8795,
      ")\"": 8796,
      "ĠFederation": 8797,
      "ĠCountry": 8798,
      "othing": 8799,
      "ĠPier": 8800,
      "Ġsevent": 8801,
      "Ġimag": 8802,
      "ĠBrook": 8803,
      "ĠOnly": 8804,
      "Ġnamely": 8805,
      "layer": 8806,
      "Ġcomputation": 8807,
      "Ġevaluation": 8808,
      "Ã©s": 8809,
      "clip": 8810,
      "formance": 8811,
      "Ġuncertainty": 8812,
      "Ġneutr": 8813,
      "hs": 8814,
      "Ġspons": 8815,
      "Har": 8816,
      "1911": 8817,
      "ĠAlf": 8818,
      "ĠRon": 8819,
      "Ġnothing": 8820,
      "anned": 8821,
      "Ġvariation": 8822,
      "Ġlosing": 8823,
      "rator": 8824,
      "Ġscholar": 8825,
      "Ġfish": 8826,
      "Ġscoring": 8827,
      "Ġtraject": 8828,
      "life": 8829,
      "uese": 8830,
      "ributed": 8831,
      "power": 8832,
      "Ġil": 8833,
      "Parameter": 8834,
      "&=&": 8835,
      "Ġrefers": 8836,
      "ĠHighway": 8837,
      "ĠSecurity": 8838,
      "Ġcorner": 8839,
      "Ġspecifically": 8840,
      "Ġpossibly": 8841,
      "Ġorth": 8842,
      "Ġarts": 8843,
      "mode": 8844,
      "Ġpassing": 8845,
      "ĠDig": 8846,
      "Ġlen": 8847,
      "Ġprotection": 8848,
      "That": 8849,
      "ĠBru": 8850,
      "ART": 8851,
      "Ġcoordinate": 8852,
      "task": 8853,
      "Ġfacility": 8854,
      "reference": 8855,
      "herent": 8856,
      "Ġrobust": 8857,
      "outs": 8858,
      "1908": 8859,
      ")}}": 8860,
      "hbox": 8861,
      "Ġmapping": 8862,
      "Ġzone": 8863,
      "Ġscenario": 8864,
      "Ġserial": 8865,
      "Ġconverted": 8866,
      "ĠTennessee": 8867,
      "aton": 8868,
      "ĠColorado": 8869,
      "Ġattempts": 8870,
      "Tree": 8871,
      "++)": 8872,
      "Ġreferences": 8873,
      "Ġfloat": 8874,
      "Ġdatasets": 8875,
      "West": 8876,
      "arest": 8877,
      "Ġcovers": 8878,
      "ĠSurvey": 8879,
      "Ġyards": 8880,
      "gies": 8881,
      "ĠSlov": 8882,
      "ĠWin": 8883,
      "EQ": 8884,
      "ĠDesign": 8885,
      "ingham": 8886,
      "Ġ[\\": 8887,
      "Ġcoinc": 8888,
      "ĠLewis": 8889,
      "anes": 8890,
      "Two": 8891,
      "Ġinsert": 8892,
      "match": 8893,
      "ĠBack": 8894,
      "ĠPit": 8895,
      "Ġbow": 8896,
      "window": 8897,
      "ĠGh": 8898,
      "former": 8899,
      "Ġattribute": 8900,
      "apes": 8901,
      "Ġrecip": 8902,
      "Range": 8903,
      "]}": 8904,
      "ĠPhilippines": 8905,
      "Ġyounger": 8906,
      "ĠSD": 8907,
      "Ġprepar": 8908,
      "Ġjournalist": 8909,
      "Ġgovernor": 8910,
      "ÃŃa": 8911,
      "Ġmeant": 8912,
      "incial": 8913,
      "ĠLive": 8914,
      "MT": 8915,
      "Ġearth": 8916,
      "ĠWrit": 8917,
      "Ġbright": 8918,
      "atern": 8919,
      "Dep": 8920,
      "resource": 8921,
      "Ġbronze": 8922,
      "ĠFamily": 8923,
      "Ġseconds": 8924,
      "Ġweights": 8925,
      "ĠYour": 8926,
      "Ġrom": 8927,
      "Ġcart": 8928,
      "ĠBaseball": 8929,
      "Entry": 8930,
      "uda": 8931,
      "Ġcrim": 8932,
      "loop": 8933,
      "diag": 8934,
      "Ġcalculations": 8935,
      "Ġfrequently": 8936,
      "javascript": 8937,
      "fn": 8938,
      "ĠMoh": 8939,
      "Ġusual": 8940,
      "Japan": 8941,
      "andra": 8942,
      "Control": 8943,
      "iser": 8944,
      "document": 8945,
      "ĠIl": 8946,
      "Finally": 8947,
      "Ġcab": 8948,
      "Ġtool": 8949,
      "ĠMemorial": 8950,
      "Ġpages": 8951,
      "Ġrepeated": 8952,
      "Ġpatients": 8953,
      "Ġdenoted": 8954,
      "Ġcallback": 8955,
      "Ġadvance": 8956,
      "ifts": 8957,
      "Ġrestaur": 8958,
      "ĠMaryland": 8959,
      "scription": 8960,
      "Ġpublication": 8961,
      "isa": 8962,
      "Ġtaught": 8963,
      "ĠFreder": 8964,
      "Ġsolve": 8965,
      "Ġideas": 8966,
      "Ġlearned": 8967,
      "ifer": 8968,
      "clusive": 8969,
      "Ġsupply": 8970,
      "Ġreturning": 8971,
      "iative": 8972,
      "ĠSav": 8973,
      "ĠNorway": 8974,
      "ĠLeon": 8975,
      "ĠOcean": 8976,
      "stat": 8977,
      "2023": 8978,
      "Ġtrying": 8979,
      "ods": 8980,
      "points": 8981,
      "inations": 8982,
      "^*$": 8983,
      "Ġintroduction": 8984,
      "angular": 8985,
      "phant": 8986,
      "Ġstock": 8987,
      "ĠFile": 8988,
      "Ġprojection": 8989,
      "ATION": 8990,
      "ĠGre": 8991,
      "Ġlock": 8992,
      "ĠRoss": 8993,
      "Configuration": 8994,
      "andy": 8995,
      "Ġmac": 8996,
      "Operation": 8997,
      "ĠDE": 8998,
      "algorithm": 8999,
      "Ġchairman": 9000,
      "Main": 9001,
      "Ident": 9002,
      "Ġtoward": 9003,
      "ictional": 9004,
      "bool": 9005,
      "render": 9006,
      "idge": 9007,
      "255": 9008,
      "ĠAssert": 9009,
      "Ġlooking": 9010,
      "Prot": 9011,
      "Ġturns": 9012,
      "%;": 9013,
      "Ġsubs": 9014,
      "Ġdiscrete": 9015,
      "defined": 9016,
      "Header": 9017,
      "}}_{\\": 9018,
      ",{\\": 9019,
      "ĠJunior": 9020,
      "ĠBooks": 9021,
      "ariance": 9022,
      "ĠKer": 9023,
      "Ġauthority": 9024,
      "Ġarms": 9025,
      "Ġadvert": 9026,
      "allet": 9027,
      "Ġobjective": 9028,
      "Ġcampus": 9029,
      "Ġagents": 9030,
      "Ġburied": 9031,
      "PD": 9032,
      "ĠShort": 9033,
      "ĠLabor": 9034,
      "ĠStock": 9035,
      "IST": 9036,
      "master": 9037,
      "Ġnominated": 9038,
      "make": 9039,
      "RS": 9040,
      "ĠForeign": 9041,
      "Ġneural": 9042,
      "Pan": 9043,
      "Ġinterior": 9044,
      "Ġstress": 9045,
      "classes": 9046,
      "Ġclosely": 9047,
      "lable": 9048,
      "green": 9049,
      "ented": 9050,
      "ambiguation": 9051,
      "ĠArizona": 9052,
      "Ġpainting": 9053,
      "Unit": 9054,
      "Ġreceiving": 9055,
      "uy": 9056,
      "Ġsuitable": 9057,
      "Ġextensive": 9058,
      ":=": 9059,
      "vee": 9060,
      "issions": 9061,
      "Ġunable": 9062,
      "Ġple": 9063,
      "Ġvillages": 9064,
      "Bundle": 9065,
      "ups": 9066,
      "bat": 9067,
      "=\"_": 9068,
      "Ġmixing": 9069,
      "Ġdesired": 9070,
      "fef": 9071,
      "ĠServices": 9072,
      "-$": 9073,
      "cp": 9074,
      "BB": 9075,
      "Ġletters": 9076,
      "afe": 9077,
      "Ġteaching": 9078,
      "Video": 9079,
      "amm": 9080,
      "Ġeducated": 9081,
      "ĠArea": 9082,
      "Death": 9083,
      "ecutive": 9084,
      "ĠMalays": 9085,
      "Ġbeaut": 9086,
      "ĠMelbourne": 9087,
      "unes": 9088,
      "Ġrepresentations": 9089,
      "ivals": 9090,
      "anges": 9091,
      "Ġtemplate": 9092,
      "Ġcoefficient": 9093,
      "fully": 9094,
      "Ġhands": 9095,
      "Ġcolumns": 9096,
      "Ġouter": 9097,
      "elle": 9098,
      "ĠDor": 9099,
      "ĠMoscow": 9100,
      "Â°": 9101,
      "Ġdesignated": 9102,
      "Ġplanning": 9103,
      "ĠNorm": 9104,
      "irty": 9105,
      "Ġstatistical": 9106,
      "Ġinjury": 9107,
      "ĠExt": 9108,
      ",$": 9109,
      "ynasty": 9110,
      "ĠVo": 9111,
      "Vol": 9112,
      "ivated": 9113,
      "Ġcalculate": 9114,
      "interface": 9115,
      "Arch": 9116,
      "Ġdidn": 9117,
      "Ġintegration": 9118,
      "Ġrequirements": 9119,
      "Ġsatisfying": 9120,
      "Ġdaily": 9121,
      "Ġaccident": 9122,
      "oli": 9123,
      "ĠDa": 9124,
      "Ġcontrolled": 9125,
      "Ġstability": 9126,
      "...,": 9127,
      "ĠTrust": 9128,
      "Ġnotice": 9129,
      "Ġshop": 9130,
      "Interface": 9131,
      "ĠSuch": 9132,
      "ĠInformation": 9133,
      "tfrac": 9134,
      "Ġarrested": 9135,
      "MO": 9136,
      "ĠSquadron": 9137,
      "offs": 9138,
      "een": 9139,
      "Ġsave": 9140,
      "Ġgetting": 9141,
      "Ġinher": 9142,
      "Ġtwenty": 9143,
      "ĠBrother": 9144,
      "Ġrecall": 9145,
      "cycl": 9146,
      "Each": 9147,
      "High": 9148,
      "Ġargs": 9149,
      "Ġcancell": 9150,
      "ĠFellow": 9151,
      "Ġadjacent": 9152,
      "Ġreaction": 9153,
      "Ġconsecutive": 9154,
      "Ġvice": 9155,
      "Ġbriefly": 9156,
      "ZE": 9157,
      "joint": 9158,
      "Ġcauses": 9159,
      "Ġdoctor": 9160,
      "Ġintersection": 9161,
      "Å«": 9162,
      "ceived": 9163,
      "uum": 9164,
      "Ð²": 9165,
      "Ġunderlying": 9166,
      "ĠCP": 9167,
      "Ġ(;": 9168,
      "Australian": 9169,
      "]);": 9170,
      "Plot": 9171,
      "ĠDrag": 9172,
      "Ġjudge": 9173,
      "Ġtheatre": 9174,
      "Pass": 9175,
      "coln": 9176,
      "Ġlemma": 9177,
      "Ġyellow": 9178,
      "ĠSingapore": 9179,
      "}\\,\\": 9180,
      "Write": 9181,
      "Ġcategories": 9182,
      "Ġcompat": 9183,
      "ĠMir": 9184,
      "full": 9185,
      "sv": 9186,
      "Ġconven": 9187,
      "ĠConnect": 9188,
      "ĠAffairs": 9189,
      "Ġwaves": 9190,
      "Best": 9191,
      "onder": 9192,
      "mathop": 9193,
      "ĠAmericans": 9194,
      "]$.": 9195,
      "operation": 9196,
      "family": 9197,
      "ĠNa": 9198,
      "\\}$.": 9199,
      "isted": 9200,
      "lywood": 9201,
      "ĠEs": 9202,
      "ĠPhilip": 9203,
      "ORT": 9204,
      "Project": 9205,
      "Ġsummary": 9206,
      "Ġdetected": 9207,
      "ĠEven": 9208,
      "Ġelectronic": 9209,
      "iner": 9210,
      "ĠName": 9211,
      "ĠCab": 9212,
      "ĠAustria": 9213,
      "Ġroyal": 9214,
      "Ġfans": 9215,
      "Ġinstalled": 9216,
      "fields": 9217,
      "HC": 9218,
      "NAME": 9219,
      "Ġstarring": 9220,
      "Ġenjoy": 9221,
      "shot": 9222,
      "Ġdrawn": 9223,
      "TYPE": 9224,
      "ĠSri": 9225,
      "Dav": 9226,
      "ĠSat": 9227,
      "Ġcharges": 9228,
      "Ġestimation": 9229,
      "Ġracing": 9230,
      "awn": 9231,
      "Ġpurposes": 9232,
      "ĠInfantry": 9233,
      "ĠJos": 9234,
      "Ġmanner": 9235,
      "fefefe": 9236,
      "Ġradiation": 9237,
      "ĠAnderson": 9238,
      "Before": 9239,
      "Ġfashion": 9240,
      "Ġcompris": 9241,
      "Ġescape": 9242,
      "Ġwatch": 9243,
      "Ġconsequence": 9244,
      "}})": 9245,
      "Ġpackage": 9246,
      "Ġloan": 9247,
      "Ġpredicted": 9248,
      "aded": 9249,
      "ĠArk": 9250,
      "ĠEnt": 9251,
      "Ġsomew": 9252,
      "Ġsubgroup": 9253,
      "Ġpremier": 9254,
      "ortheast": 9255,
      "Ġscaling": 9256,
      "$:": 9257,
      "DS": 9258,
      "Ġiron": 9259,
      "Rail": 9260,
      "Ġtower": 9261,
      "gar": 9262,
      "itzerland": 9263,
      "$&": 9264,
      "vements": 9265,
      "Ġirre": 9266,
      "ĠVietnam": 9267,
      "oking": 9268,
      "Ġsufficiently": 9269,
      "Ġpatterns": 9270,
      "Leg": 9271,
      "Ġtheories": 9272,
      "Ġtools": 9273,
      "Ġtrains": 9274,
      "'m": 9275,
      "Ġhall": 9276,
      "Gen": 9277,
      "Ġdynamic": 9278,
      "ĠSunday": 9279,
      "fold": 9280,
      "ĠUkraine": 9281,
      "None": 9282,
      "Ġending": 9283,
      "Ġopposed": 9284,
      "oa": 9285,
      "duce": 9286,
      "Ġseparated": 9287,
      "Ġburn": 9288,
      "oured": 9289,
      "Ġnar": 9290,
      "Ġtransp": 9291,
      "bad": 9292,
      "Ġtrac": 9293,
      "ĠReal": 9294,
      "ĠReturns": 9295,
      "Ġnor": 9296,
      "Ġenvironmental": 9297,
      "Ġ\\(\\": 9298,
      "Ġdrums": 9299,
      "ĠMas": 9300,
      "Ã©t": 9301,
      "Ġcaptain": 9302,
      "ographer": 9303,
      "Ġobj": 9304,
      "iem": 9305,
      "Ġsucceeded": 9306,
      "Ġentries": 9307,
      "phys": 9308,
      "Ġ(,": 9309,
      "styles": 9310,
      "ĠChannel": 9311,
      "Ġvocal": 9312,
      "ĠMult": 9313,
      "kg": 9314,
      "ĠEmperor": 9315,
      "Ġeconomy": 9316,
      "William": 9317,
      "legate": 9318,
      "ouses": 9319,
      "periment": 9320,
      "clusions": 9321,
      "Ġsimultane": 9322,
      "ĠAlbert": 9323,
      "Ġbroken": 9324,
      "Ġfestival": 9325,
      "lahoma": 9326,
      "Ġopposition": 9327,
      "Ġdropped": 9328,
      "ĠBarn": 9329,
      "ĠQueensland": 9330,
      "ĠAuthor": 9331,
      "don": 9332,
      "Ġequilibrium": 9333,
      "Ġbr": 9334,
      "128": 9335,
      "ĠMP": 9336,
      "sem": 9337,
      "ĠHur": 9338,
      "ĠAmb": 9339,
      "template": 9340,
      "ĠTurn": 9341,
      "160": 9342,
      "ĠHou": 9343,
      "hens": 9344,
      "Ġcosts": 9345,
      "ellite": 9346,
      "Ġexplicitly": 9347,
      "since": 9348,
      "Ġsampling": 9349,
      "ctx": 9350,
      "Properties": 9351,
      "ĠKentucky": 9352,
      "risis": 9353,
      "uilt": 9354,
      "101": 9355,
      "Orig": 9356,
      "Ġdeveloping": 9357,
      "Television": 9358,
      "isms": 9359,
      "Ġcritics": 9360,
      "Sm": 9361,
      "Ġ{};": 9362,
      "elect": 9363,
      "rainian": 9364,
      "Ġformerly": 9365,
      "ĠMiller": 9366,
      "RC": 9367,
      "brace": 9368,
      "ocese": 9369,
      "Ġvisited": 9370,
      "ivation": 9371,
      "Ġtele": 9372,
      "itational": 9373,
      "Hon": 9374,
      "diff": 9375,
      "ĠMath": 9376,
      "pping": 9377,
      "Ġsequences": 9378,
      "Ġindicated": 9379,
      "Ġapplying": 9380,
      "Ġwins": 9381,
      "Syn": 9382,
      "}[\\": 9383,
      "Ġcommander": 9384,
      "heim": 9385,
      "disambiguation": 9386,
      ":(": 9387,
      "Ġcommut": 9388,
      "1905": 9389,
      "ĠChristmas": 9390,
      "stan": 9391,
      "arthe": 9392,
      "Ġeq": 9393,
      "ĠNev": 9394,
      "ĠEntertainment": 9395,
      "Ġdust": 9396,
      "Ġexclud": 9397,
      "bigl": 9398,
      "Ġopin": 9399,
      "adi": 9400,
      "eral": 9401,
      "Ġsixth": 9402,
      "ĠBan": 9403,
      "rating": 9404,
      "Ġexplain": 9405,
      "stic": 9406,
      "ĠBos": 9407,
      "etween": 9408,
      "eties": 9409,
      "icker": 9410,
      "ĠAdam": 9411,
      "ĠCOVID": 9412,
      "ĠSoc": 9413,
      "Ġaudience": 9414,
      "Ġbond": 9415,
      "okes": 9416,
      "forms": 9417,
      "Ġconnect": 9418,
      "Ġcoverage": 9419,
      "ootst": 9420,
      "Work": 9421,
      "vas": 9422,
      "ouch": 9423,
      "Ġbran": 9424,
      "Ġfighting": 9425,
      "Ġplus": 9426,
      "alian": 9427,
      "ĠLeb": 9428,
      "bell": 9429,
      "uther": 9430,
      "Ġcoaches": 9431,
      "Ġobvious": 9432,
      "hl": 9433,
      "Ġatmosp": 9434,
      "aks": 9435,
      "kov": 9436,
      "rump": 9437,
      "ipeline": 9438,
      "Ġanimals": 9439,
      "\\;": 9440,
      "Ġindependence": 9441,
      "icut": 9442,
      "including": 9443,
      "ĠSky": 9444,
      "ĠGib": 9445,
      "Ġoccupied": 9446,
      "Ġsupporting": 9447,
      "ymn": 9448,
      "Level": 9449,
      "%%": 9450,
      "ĠSC": 9451,
      "Ġpieces": 9452,
      "ĠIS": 9453,
      "BL": 9454,
      "Ret": 9455,
      "ĠFord": 9456,
      "1890": 9457,
      "ĠHoly": 9458,
      "ĠMach": 9459,
      "incess": 9460,
      "erves": 9461,
      "Life": 9462,
      "Down": 9463,
      "ĠBah": 9464,
      "ĠMit": 9465,
      "ĠGi": 9466,
      "zi": 9467,
      "Ġultimately": 9468,
      "Ġapproved": 9469,
      "Ġmatching": 9470,
      "lash": 9471,
      "Ġtransmission": 9472,
      "FM": 9473,
      "bmatrix": 9474,
      "Ġcamera": 9475,
      "labama": 9476,
      "ĠBat": 9477,
      "Ġdiver": 9478,
[...]
