{"[UNK]":0,"!":1,"\"":2,"#":3,"$":4,"%":5,"&":6,"'":7,"(":8,")":9,"*":10,"+":11,",":12,"-":13,".":14,"/":15,"0":16,"1":17,"2":18,"3":19,"4":20,"5":21,"6":22,"7":23,"8":24,"9":25,":":26,";":27,"<":28,"=":29,">":30,"?":31,"@":32,"A":33,"B":34,"C":35,"D":36,"E":37,"F":38,"G":39,"H":40,"I":41,"J":42,"K":43,"L":44,"M":45,"N":46,"O":47,"P":48,"Q":49,"R":50,"S":51,"T":52,"U":53,"V":54,"W":55,"X":56,"Y":57,"Z":58,"[":59,"\\":60,"]":61,"^":62,"_":63,"`":64,"a":65,"b":66,"c":67,"d":68,"e":69,"f":70,"g":71,"h":72,"i":73,"j":74,"k":75,"l":76,"m":77,"n":78,"o":79,"p":80,"q":81,"r":82,"s":83,"t":84,"u":85,"v":86,"w":87,"x":88,"y":89,"z":90,"{":91,"|":92,"}":93,"~":94,"¡":95,"¢":96,"£":97,"¤":98,"¥":99,"¦":100,"§":101,"¨":102,"©":103,"ª":104,"«":105,"¬":106,"®":107,"¯":108,"°":109,"±":110,"²":111,"³":112,"´":113,"µ":114,"¶":115,"·":116,"¸":117,"¹":118,"º":119,"»":120,"¼":121,"½":122,"¾":123,"¿":124,"Â":125,"Ã":126,"Ä":127,"Å":128,"Æ":129,"Ç":130,"È":131,"É":132,"Ê":133,"Ë":134,"Ì":135,"Í":136,"Î":137,"Ï":138,"Ð":139,"Ñ":140,"Ò":141,"Ó":142,"Ô":143,"Õ":144,"Ö":145,"×":146,"Ø":147,"Ù":148,"Ú":149,"Û":150,"Ü":151,"Ý":152,"Þ":153,"ß":154,"à":155,"á":156,"â":157,"ã":158,"ä":159,"å":160,"æ":161,"ç":162,"è":163,"é":164,"ê":165,"ë":166,"ì":167,"í":168,"î":169,"ï":170,"ð":171,"ó":172,"ô":173,"Ā":174,"ā":175,"Ă":176,"ă":177,"Ą":178,"ą":179,"Ć":180,"ć":181,"Ĉ":182,"ĉ":183,"Ċ":184,"ċ":185,"Č":186,"č":187,"Ď":188,"ď":189,"Đ":190,"đ":191,"Ē":192,"ē":193,"Ĕ":194,"ĕ":195,"Ė":196,"ė":197,"Ę":198,"ę":199,"Ě":200,"ě":201,"Ĝ":202,"ĝ":203,"Ğ":204,"ğ":205,"Ġ":206,"ġ":207,"Ģ":208,"ģ":209,"Ĥ":210,"ĥ":211,"Ħ":212,"ħ":213,"Ĩ":214,"ĩ":215,"Ī":216,"ī":217,"Ĭ":218,"ĭ":219,"Į":220,"į":221,"İ":222,"ı":223,"Ĳ":224,"ĳ":225,"Ĵ":226,"ĵ":227,"Ķ":228,"ķ":229,"ĸ":230,"Ĺ":231,"ĺ":232,"Ļ":233,"ļ":234,"Ľ":235,"ľ":236,"Ŀ":237,"ŀ":238,"Ł":239,"ł":240,"Ń":241,"ĠĠ":242,"Ġt":243,"in":244,"he":245,"Ġa":246,"on":247,"er":248,"re":249,"Ġthe":250,"at":251,"en":252,"or":253,"ĠĠĠĠ":254,"an":255,"Ġs":256,"al":257,"is":258,"Ġo":259,"it":260,"es":261,"ed":262,"ar":263,"Ġc":264,"Ġw":265,"ion":266,"Ġf":267,"Ġof":268,"Ġin":269,"nd":270,"Ġp":271,"ic":272,"Ġb":273,"le":274,"as":275,"ing":276,"ro":277,"Ġand":278,"Ġd":279,"Ġm":280,"Ġto":281,"ct":282,"ent":283,"el":284,"et":285,"ou":286,"Ġ\\":287,"il":288,"am":289,"st":290,"ĠS":291,"om":292,"ig":293,"Ġ$":294,"Ġh":295,"Ġre":296,"ol":297,"ĠT":298,"ĠC":299,"Ġ(":300,"ation":301,"ĠA":302,"ĠĠĠ":303,"ra":304,"Ġn":305,"im":306,"ĠĠĠĠĠĠĠĠ":307,"Ġth":308,"Ġl":309,"ot":310,"Ġe":311,"id":312,"ce":313,"iv":314,"ur":315,"ĠM":316,"ch":317,"Ġis":318,"ut":319,"us":320,"Ġfor":321,"ad":322,"ul":323,"ĠB":324,"Ġg":325,"ers":326,"ow":327,"ĠP":328,"em":329,"Ġon":330,"ly":331,"20":332,"ĠI":333,"19":334,"{\\":335,"ir":336,"um":337,"un":338,"ist":339,"ith":340,"la":341,"ĠH":342,"Ġst":343,"Ġas":344,"od":345,"ter":346,"qu":347,"Ġbe":348,"th":349,"ĠR":350,"se":351,"if":352,"ĠF":353,"Ġv":354,"ge":355,"Ġwas":356,"ĠL":357,"ĠD":358,"Ġcon":359,"Ġwith":360,"ĠThe":361,"and":362,"ta":363,"Ġal":364,"Ġthat":365,"ver":366,"ĠN":367,"ĠG":368,"ri":369,"Ġby":370,"pe":371,"her":372,"ate":373,"end":374,"ĠW":375,"ath":376,"ĠĊ":377,"_{":378,"oc":379,"ction":380,"Ġan":381,"rom":382,"op":383,"res":384,"Ġ=":385,"eg":386,"os":387,"ht":388,"ĠE":389,"est":390,"Ġpro":391,"ĠĠĠĠĠĠĠ":392,"âĢ":393,"ay":394,"Ġat":395,"ity":396,"ub":397,"čĊ":398,"Ġde":399,"up":400,"ab":401,"ex":402,"ap":403,"av":404,"Ġwh":405,"Ġ$\\":406,"ac":407,"art":408,"ĠJ":409,"Ġcom":410,"Ġfrom":411,"ew":412,"ph":413,"all":414,"ies":415,"math":416,"Ġ\"":417,"Ġex":418,"ine":419,"ore":420,"ess":421,"ort":422,"ight":423,"ĠO":424,"ure":425,"Ġ&":426,"'s":427,"ass":428,"Ġit":429,"ran":430,"Ġse":431,"ĉĉ":432,"ud":433,"ial":434,"ag":435,"ber":436,"Ġare":437,"pt":438,"ian":439,"Ġhe":440,"ame":441,"Ġor":442,"ment":443,"ive":444,"}\\":445,"Ġ<":446,"ue":447,"=\"":448,"ill":449,"ite":450,");":451,"nt":452,"ĠK":453,"ĠU":454,"ak":455,"ip":456,"og":457,"ef":458,"ich":459,"The":460,"}$":461,"ated":462,"our":463,"ard":464,"^{":465,"iz":466,"--":467,"ld":468,"ref":469,"201":470,"ect":471,"Ġ{":472,"ary":473,"ma":474,"ia":475,"âĢĵ":476,"ant":477,"ov":478,"int":479,"Ġwe":480,"cl":481,"ult":482,"Ġch":483,"und":484,"per":485,"ext":486,"ell":487,"ign":488,"),":489,"Ġr":490,"200":491,"Ġcl":492,"ical":493,"ĠIn":494,"ĠSt":495,"ong":496,"ft":497,"ition":498,"pl":499,"orm":500,"</":501,"Ġsh":502,"rac":503,"ast":504,"ust":505,"Ġle":506,"Ġcomp":507,"ug":508,"}}":509,"Ġus":510,"age":511,"ĠĠĠĠĠĠĠĠĠĠĠ":512,"Ġthis":513,"ord":514,"con":515,"ĠV":516,"00":517,"(\\":518,"ire":519,"port":520,"ff":521,"ks":522,"are":523,"ces":524,"Ġwhich":525,"Ġhis":526,"ep":527,"//":528,"ens":529,"Ġ*":530,"du":531,"ost":532,"so":533,"Ġnot":534,"Ġres":535,").":536,"egin":537,"Ġk":538,"ations":539,"Ġ|":540,"ish":541,"begin":542,"Ġ-":543,"cal":544,"18":545,"ĠCh":546,"ave":547,"Ġy":548,"ere":549,"Ġ}":550,"lay":551,"cc":552,"to":553,"In":554,"pro":555,"ther":556,"urn":557,"ric":558,")$":559,"mer":560,"_{\\":561,"ime":562,"ear":563,"Ġun":564,"ence":565,"erv":566,"ide":567,"ang":568,"ain":569,"ase":570,"Ġwhe":571,"text":572,"ry":573,"ib":574,"ions":575,"ild":576,"Ġalso":577,"rm":578,"low":579,"ec":580,"tern":581,"ous":582,"}{":583,"ĠĠĠĠĠĠĠĠĠĠĠĠĠĠĠĠ":584,"Ġwere":585,"ru":586,"ork":587,"Ġap":588,"act":589,"irst":590,"ach":591,"equ":592,"ice":593,"ind":594,"ory":595,"able":596,"Ġcan":597,"ile":598,"Ġhas":599,"right":600,"ey":601,"out":602,"},":603,"frac":604,"eq":605,"Ġad":606,"ener":607,"ack":608,"Ġhave":609,"sp":610,"own":611,"rit":612,"\">":613,"form":614,"erm":615,"over":616,"Ġ||":617,"com":618,"ĠĠĠĠĠ":619,"ĠTh":620,"Ġar":621,"Ġim":622,"fer":623,"ound":624,"ace":625,"wo":626,"lab":627,"ubl":628,"ok":629,"ie":630,"cite":631,"ates":632,"..":633,"Ġpart":634,"ĠUn":635,"old":636,"ree":637,"Ġj":638,"ount":639,"the":640,"clud":641,"amp":642,"Ġab":643,"Ġclass":644,"rans":645,"Ġro":646,"ĠHe":647,"199":648,"Ġsu":649,"ance":650,"ents":651,"Ġcont":652,"hed":653,"ors":654,"rib":655,"ode":656,"Ġif":657,"mathb":658,"tain":659,"ck":660,"Ġfirst":661,"10":662,"Ġone":663,"Ġplay":664,"ress":665,"ould":666,"li":667,"ring":668,"**":669,"eta":670,"turn":671,"ational":672,"label":673,"ob":674,"row":675,"ĠY":676,"fig":677,"ĠIt":678,"ata":679,"ject":680,"we":681,"inal":682,"ng":683,"Ġdis":684,"ely":685,"te":686,"ype":687,"ual":688,"Ġsp":689,",\\":690,"ences":691,"$,":692,"ĠâĢĵ":693,"ss":694,"fter":695,"get":696,"$.":697,"ced":698,"Ġ+":699,"mathcal":700,"left":701,"ome":702,"Ġhad":703,"Ġall":704,"Ġits":705,"ics":706,"orn":707,"Ġtwo":708,"ark":709,"iel":710,"St":711,"Ġper":712,"unction":713,"ose":714,"ater":715,"Ġtheir":716,"Ġmod":717,"equation":718,"Ġbut":719,"ll":720,"Ġte":721,"Ġ'":722,"}.":723,"ps":724,"Ġnew":725,"Ġob":726,"les":727,"Ġsc":728,"amb":729,"})":730,"ev":731,"land":732,"cent":733,"ik":734,"Ġdes":735,"ool":736,"oint":737,"lect":738,"Ġev":739,"rad":740,"red":741,"Ġen":742,"ield":743,"ican":744,"Ġqu":745,"ock":746,"iss":747,"}(":748,"ied":749,"Ġdef":750,"any":751,"pect":752,"Ġother":753,"Ġset":754,"()":755,"tab":756,"----":757,"}^":758,"oot":759,"Ex":760,"Ġout":761,"one":762,"io":763,"ular":764,"Ref":765,"Ġwho":766,"ited":767,"Ġag":768,"ix":769,"Ġsy":770,"igh":771,"==":772,"Ġint":773,"ased":774,"198":775,"raph":776,"pec":777,"sh":778,"}_":779,"~\\":780,"Ġass":781,"line":782,"ublic":783,"ember":784,"ond":785,"ons":786,"ollow":787,"aw":788,"Ġover":789,"Ġme":790,"ivers":791,"pha":792,"Ġup":793,"ray":794,"ople":795,"12":796,"Ġreturn":797,"imes":798,"ne":799,"ert":800,"Ġval":801,"vel":802,"Refer":803,"ict":804,"sc":805,"da":806,"umber":807,"ize":808,"Ġbeen":809,"ution":810,"ram":811,"Ġher":812,"Ġcol":813,"alpha":814,"ilm":815,"Ġtime":816,"ont":817,"Ġinclud":818,"roup":819,"References":820,"ings":821,"aram":822,"under":823,"ward":824,"Ġyear":825,"Ġcomm":826,"ined":827,"ĠĠĠĠĠĠĠĠĠĠĠĠĠĠĠ":828,"pos":829,"Ġform":830,"Ġ[":831,"Ġind":832,"Ġsub":833,"ative":834,"\",":835,")\\":836,"Ġinter":837,"merican":838,"Ġcons":839,"Ġfunction":840,"ail":841,"17":842,"set":843,"eth":844,"16":845,"uring":846,"Ġbet":847,"Ġfollow":848,"oy":849,"eople":850,"stem":851,"Ġconst":852,"Ġwhere":853,"of":854,"ann":855,"resent":856,"ral":857,"Ġreg":858,"15":859,"Ġpre":860,"197":861,"ĠSe":862,"elta":863,"ugh":864,"mb":865,"let":866,"round":867,"ific":868,"ince":869,"ambda":870,"vi":871,"Ġinto":872,"$\\":873,"ull":874,"pr":875,"Ġloc":876,"ĠNew":877,"Ġonly":878,"ption":879,"Ġrec":880,"elf":881,"ans":882,"Ġvar":883,"ho":884,"ĠCom":885,"Ġdist":886,"che":887,"olog":888,"ĠMar":889,"Ġpr":890,"ball":891,"put":892,"Ġmore":893,"Ġsuch":894,"Ġco":895,"oug":896,"ween":897,"Ġwork":898,"ve":899,"Ġresult":900,"ake":901,"Ġthey":902,"Ġsup":903,"ins":904,"lement":905,"Ġafter":906,"Ġwhen":907,"Ġpl":908,"cond":909,"Ġtrans":910,"sub":911,"amma":912,"use":913,"ery":914,"lo":915,"ĠThis":916,"_\\":917,"Ġunder":918,"ick":919,"Ġdif":920,"Ġacc":921,"ists":922,"ren":923,"Ġpol":924,"Ġthen":925,"Ġ.":926,"Ġact":927,"mu":928,"ames":929,"der":930,"ax":931,"oun":932,"oth":933,"ox":934,"als":935,"ĠAl":936,"Ġne":937,"mathbb":938,"ating":939,"Ġoff":940,"ident":941,"Ġdo":942,"Ġrel":943,"cre":944,"Ġ//":945,"Ġlin":946,"Ġgener":947,"Ġbetween":948,"chool":949,"Ġwill":950,"ished":951,"dot":952,"ities":953,"ource":954,"ision":955,"ruct":956,"Ġ\\\\":957,"ĠAr":958,"=\\":959,"}^{":960,"}_{":961,"Ġpos":962,"Ġrep":963,"Ġmodel":964,"196":965,"ade":966,"way":967,"ee":968,"ts":969,"Ġso":970,"Ġthere":971,"21":972,"arg":973,"->":974,"col":975,"igma":976,"ient":977,"ton":978,"::":979,"eb":980,"ures":981,"Ġused":982,"ega":983,"Ġserv":984,"Ġfilm":985,"ator":986,"orld":987,"Ġprodu":988,"13":989,"Ġthan":990,"ternal":991,"ily":992,"Ġkn":993,"Ġph":994,"outh":995,"14":996,"Ġbu":997,"Ġshe":998,"its":999,"-\\":1000,"hat":1001,"ars":1002,"Ġsim":1003,"ise":1004,"align":1005,"Ġshow":1006,"Ġname":1007,"ĠPro":1008,"Ġbec":1009,"phi":1010,"ys":1011,"wn":1012,"irect":1013,"oh":1014,"Ġinv":1015,"Ġtra":1016,"gan":1017,"ove":1018,"lem":1019,"^{\\":1020,"ĠZ":1021,"ature":1022,"ues":1023,"Ġ/":1024,"iversity":1025,"ury":1026,"ĉĉĉĉ":1027,"Ġwould":1028,"hip":1029,"Ġ</":1030,"ason":1031,"ty":1032,"Ġadd":1033,"Ġ@":1034,"eng":1035,"Ġstud":1036,"pi":1037,"Ġpeople":1038,"Ġspec":1039,"oci":1040,"Ġpublic":1041,"sum":1042,"bf":1043,"ĠAmerican":1044,"idth":1045,"part":1046,"ider":1047,"Ġexp":1048,"lambda":1049,"Ġ{\\":1050,"ute":1051,"Ġsome":1052,"Ġend":1053,"att":1054,"Ġline":1055,"Ġop":1056,"Ġnumber":1057,"Ġprov":1058,"val":1059,"cy":1060,"Ġequ":1061,"ility":1062,"rough":1063,"11":1064,"air":1065,"yn":1066,"Ġdiffer":1067,"ash":1068,"orth":1069,"../":1070,"Ġfe":1071,"uss":1072,"emb":1073,"man":1074,"Ã©":1075,"Ġmat":1076,"app":1077,"Ġsystem":1078,"ĠQ":1079,"ever":1080,"Ġany":1081,"ĠâĢ":1082,"bar":1083,"tt":1084,"Ġinst":1085,"ized":1086,"Ġcent":1087,"ally":1088,"ower":1089,"194":1090,"ilon":1091,"Ġdata":1092,"ern":1093,"ĠSh":1094,"Ġeach":1095,"mathbf":1096,"Ġno":1097,"Ġmost":1098,"ism":1099,"ctions":1100,"ier":1101,"âĢĻ":1102,"Ġcor":1103,"Ġra":1104,"195":1105,"25":1106,"err":1107,"ible":1108,"Ġgo":1109,"min":1110,"ethod":1111,"Ġabout":1112,"Ġgiv":1113,"ĠCol":1114,"atic":1115,"Ġext":1116,"arn":1117,"Con":1118,"Ġed":1119,"ough":1120,"ĠFor":1121,"22":1122,"ĠLe":1123,"ron":1124,"Ġes":1125,"Ġent":1126,"apt":1127,"ĠInd":1128,"ale":1129,"Ġ:":1130,"Ġfound":1131,"ĠWe":1132,"Ġman":1133,"ement":1134,"Pro":1135,"ook":1136,"Ġpoint":1137,"inn":1138,"Ġoper":1139,"Ġsing":1140,"mall":1141,"',":1142,"section":1143,"Ġi":1144,"ĠUnited":1145,"Âł":1146,"Ġcall":1147,"Ġthree":1148,"Ġagain":1149,"Ġmay":1150,"30":1151,"ilde":1152,"eries":1153,"Ġthrough":1154,"Ġcur":1155,"Ġsign":1156,"ife":1157,"aj":1158,"();":1159,"ootball":1160,"ote":1161,"az":1162,"(\"":1163,"Ġthese":1164,"Ġsecond":1165,"cess":1166,"sigma":1167,"ĠUniversity":1168,"ĠAn":1169,"Ġ(\\":1170,"Ġeff":1171,"Ġatt":1172,"itt":1173,"rict":1174,"ract":1175,"Ġgroup":1176,"ml":1177,"^{-":1178,"ah":1179,"Ġthem":1180,"rent":1181,"ouse":1182,"span":1183,"ĠDe":1184,"Ġduring":1185,"Ġhim":1186,"ke":1187,"Ġwell":1188,"Ġuse":1189,"uc":1190,"ional":1191,"beta":1192,"hen":1193,"Ġx":1194,"var":1195,"Th":1196,"}{\\":1197,"Ġyears":1198,"Ġchar":1199,"oid":1200,"))":1201,"def":1202,"Ġcase":1203,"essage":1204,"mp":1205,"yle":1206,"sy":1207,"led":1208,"Ġtr":1209,"Ġteam":1210,"eps":1211,"Ġsame":1212,"overn":1213,"Ġcre":1214,"Ġlinks":1215,"ization":1216,"arly":1217,"Ġstate":1218,"Ġpla":1219,"Ġmin":1220,"Ġdec":1221,"owever":1222,"lin":1223,"item":1224,"Ġboth":1225,"Ġappro":1226,"mathrm":1227,"gamma":1228,"*}":1229,"gy":1230,"+\\":1231,"Ġrele":1232,"Ġfollowing":1233,"External":1234,"Ġdesc":1235,"Ġac":1236,"Ġprob":1237,"ĠCon":1238,"Ġsur":1239,"Ġsol":1240,"son":1241,"div":1242,"reat":1243,"uth":1244,"Ch":1245,"Ġfam":1246,"\\\\":1247,"par":1248,"eter":1249,"ices":1250,"Ġvalue":1251,"ĠX":1252,"ired":1253,"Ġvari":1254,"Ġrequ":1255,"--------":1256,"Ġam":1257,"irc":1258,"Ġplayers":1259,"Ġget":1260,"usic":1261,"Ġpartic":1262,"ived":1263,"Ġfield":1264,"Ġperform":1265,"lish":1266,"ten":1267,"ober":1268,"ina":1269,"Ġour":1270,"Ġhigh":1271,"ample":1272,"ĠSc":1273,"Ġdifferent":1274,"Ġart":1275,"array":1276,"ural":1277,"Ġwhile":1278,"Ġdirect":1279,"]{":1280,"Ġback":1281,"000":1282,"ĠAs":1283,"ically":1284,"Ġlead":1285,"for":1286,"></":1287,"ĠEng":1288,"ments":1289,"Ġnon":1290,"other":1291,"by":1292,"uch":1293,"iver":1294,"delta":1295,"****":1296,"serv":1297,"istory":1298,"ulation":1299,"Ġterm":1300,"Ġmon":1301,"ohn":1302,"Ġmade":1303,"lection":1304,".\"":1305,"theta":1306,"els":1307,"vent":1308,"arch":1309,"ather":1310,"plic":1311,")}":1312,"erson":1313,"^\\":1314,"enn":1315,"leq":1316,"bum":1317,"pon":1318,"umn":1319,"ask":1320,"rid":1321,"Ġtype":1322,"ley":1323,"oo":1324,"24":1325,"ĠStates":1326,"Ġpop":1327,"Ġusing":1328,"ause":1329,"iving":1330,"ple":1331,"ript":1332,"We":1333,"Ġ*/":1334,"figure":1335,"cdot":1336,"Ġorder":1337,"rho":1338,"ĠĠĠĠĠĠĠĠĠ":1339,"ining":1340,"Ġknown":1341,"ĉĉĉ":1342,"Ġbeing":1343,"fore":1344,"here":1345,"Ġwrit":1346,"$-":1347,"tau":1348,"au":1349,"mm":1350,"ets":1351,"lu":1352,"Ġlater":1353,"Ġmed":1354,"ĠSp":1355,"ross":1356,"\".":1357,"Com":1358,"Ġgiven":1359,"ott":1360,"}$,":1361,"Ġfinal":1362,"}$.":1363,"ths":1364,"width":1365,"ĠShe":1366,"quad":1367,"ER":1368,"23":1369,"ograph":1370,"ines":1371,"Ġran":1372,"omen":1373,"ĠCount":1374,"yp":1375,"ĠCl":1376,"tr":1377,"Ġyou":1378,"itions":1379,"Ġcount":1380,"ersion":1381,"}(\\":1382,"arrow":1383,"Ġconsider":1384,"big":1385,"rop":1386,"ages":1387,"lation":1388,"ĠĠĠĠĠĠĠĠĠĠĠĠĠĠĠĠĠĠĠ":1389,"ĠIs":1390,"><":1391,"Ġfour":1392,"ology":1393,"Ġrecord":1394,"Ġbir":1395,"til":1396,"une":1397,"dd":1398,"eqref":1399,"Ġappe":1400,"ĠOn":1401,"times":1402,"ively":1403,"iew":1404,"Ġseason":1405,"Ġfootball":1406,"ister":1407,"193":1408,"Ġdisc":1409,"Ġmany":1410,"====":1411,"Ġmain":1412,"ases":1413,"Ġsmall":1414,"ague":1415,"Ġdet":1416,"Ġbefore":1417,"arge":1418,"Ġel":1419,"ality":1420,"Ġstart":1421,"ache":1422,"ĠComm":1423,"ood":1424,"ays":1425,"ike":1426,"../../":1427,"Ġfin":1428,"Ġorig":1429,"velop":1430,"ead":1431,"co":1432,"ved":1433,"Ġ#":1434,"me":1435,"Ġem":1436,"this":1437,"ission":1438,"Ġlong":1439,"Ġdevelop":1440,"50":1441,"ots":1442,"ange":1443,"Ġbro":1444,"Ġincluding":1445,"Ġalbum":1446,"ument":1447,"Ġstr":1448,"ĠFran":1449,"('":1450,"Ġmov":1451,"arri":1452,"partial":1453,"Ġmethod":1454,"Ġinf":1455,"Ġz":1456,"ior":1457,"Ġseries":1458,"center":1459,"Ġestab":1460,"ified":1461,"nu":1462,"fty":1463,"read":1464,"lock":1465,"infty":1466,"tilde":1467,".,":1468,"IN":1469,"param":1470,"Ġrun":1471,"sec":1472,"ĠJohn":1473,"gram":1474,"ĠWorld":1475,"Ġsince":1476,"Ġschool":1477,"ĠNational":1478,"omega":1479,"aid":1480,"ane":1481,"Ġfact":1482,"pm":1483,"Ġbel":1484,"ency":1485,"Name":1486,"Ġparam":1487,"cept":1488,"Ġ_":1489,"Ġcontin":1490,"ĠMay":1491,"Ġ`":1492,"space":1493,"lev":1494,"ially":1495,"ON":1496,"Ġbecame":1497,"ai":1498,"uro":1499,"ĠAust":1500,"ared":1501,"|\\":1502,"Ġelect":1503,"ĠPh":1504,"trans":1505,"Ġlist":1506,"Ġbuild":1507,"view":1508,"rang":1509,"Ġagainst":1510,"Ġdep":1511,"ccess":1512,"Ġrepresent":1513,"iqu":1514,"On":1515,"illa":1516,"ives":1517,"rt":1518,"Ġsupport":1519,"mod":1520,"itle":1521,"includ":1522,"ank":1523,"html":1524,"Ġapp":1525,"ternational":1526,"log":1527,"ribut":1528,"sk":1529,"name":1530,"lex":1531,"anu":1532,"Ġdescrib":1533,"Ġmet":1534,"ĠCan":1535,"Type":1536,"ĠEx":1537,"very":1538,"cer":1539,"Delta":1540,"lang":1541,"not":1542,"Ġeffect":1543,"ST":1544,"urch":1545,"raw":1546,"Ġtest":1547,"Ġrece":1548,"rix":1549,"iam":1550,"ĠCar":1551,"amed":1552,"ĠCounty":1553,"aking":1554,"Ġown":1555,"ival":1556,"atch":1557,"Ġbased":1558,"ĠAss":1559,"lack":1560,"chn":1561,"eqn":1562,"ĠĠĊ":1563,"ually":1564,"orks":1565,"Res":1566,"source":1567,"ĠBrit":1568,"Ġpresent":1569,"28":1570,"Ġ,":1571,"rand":1572,"27":1573,"formation":1574,"Ġself":1575,"ĠWar":1576,"ges":1577,"import":1578,"Ġsever":1579,"Ġopen":1580,"26":1581,"Ġdesign":1582,"It":1583,"Ġhref":1584,"2010":1585,"ians":1586,"oss":1587,"Ġresults":1588,"loc":1589,"orem":1590,"ĠJul":1591,"add":1592,"Ġgu":1593,"Ġlocal":1594,"Ġstruct":1595,"Ġpres":1596,"xi":1597,"alse":1598,"Id":1599,"epend":1600,"ength":1601,"ful":1602,"):":1603,"Ġdr":1604,"ĠSchool":1605,"rist":1606,"Ġfamily":1607,"por":1608,"ium":1609,"etw":1610,"message":1611,"AR":1612,"af":1613,"ger":1614,"Ġcalled":1615,"String":1616,"Ġcharact":1617,"|-":1618,"Ġproper":1619,"inc":1620,"Ġcond":1621,"umer":1622,"Ġest":1623,"ody":1624,"rol":1625,"Ġsong":1626,"rack":1627,"Ġgovern":1628,"ault":1629,"Ġlarge":1630,"ital":1631,"ĠSouth":1632,"ception":1633,"embers":1634,"Ġdeath":1635,"ĠGerm":1636,"Ġright":1637,"ants":1638,"Ġobtain":1639,"Ġbound":1640,"Ġ$(":1641,"Ġuntil":1642,"AT":1643,"pond":1644,"\\,":1645,"mbol":1646,"td":1647,"ĠYork":1648,"Ġerr":1649,"class":1650,"Ġimp":1651,"Ġprocess":1652,"ner":1653,"Ġnow":1654,"ĠNov":1655,"return":1656,"ler":1657,"back":1658,"ugust":1659,"ampions":1660,"For":1661,"code":1662,"Ġcontain":1663,"2015":1664,"wards":1665,"100":1666,"gor":1667,"}[":1668,"pp":1669,"ris":1670,"Ġprof":1671,"ĠOr":1672,"med":1673,"areer":1674,"2014":1675,"Ġpolit":1676,"Ġobserv":1677,"2016":1678,"ptember":1679,"born":1680,"org":1681,"Ġexper":1682,"ĠAt":1683,"List":1684,"color":1685,"}}\\":1686,"ĠGe":1687,"2018":1688,"Cl":1689,"ided":1690,"epsilon":1691,"ĠAd":1692,"Ġmult":1693,"2017":1694,")$.":1695,"Ġpar":1696,"ajor":1697,"29":1698,"where":1699,"ird":1700,"play":1701,"ule":1702,"ify":1703,"reen":1704,"urther":1705,"ety":1706,"Ġ)":1707,"2011":1708,"Ġcould":1709,"ret":1710,"ink":1711,"Ġanal":1712,"ĠCent":1713,"umb":1714,"vers":1715,"ports":1716,"ica":1717,"2019":1718,"ground":1719,"2012":1720,"ctober":1721,"vious":1722,"Ġsee":1723,"ability":1724,"table":1725,"agn":1726,"ivate":1727,"vert":1728,"40":1729,"Ġrefer":1730,"Ġarea":1731,"anuary":1732,"self":1733,"Ġstat":1734,"Ġgeneral":1735,"Ġmusic":1736,"2013":1737,"Ph":1738,"ven":1739,"Ġcurrent":1740,"ae":1741,"ĠPar":1742,"Un":1743,"Ġtop":1744,"ilt":1745,"Ġann":1746,"Ġseveral":1747,"Ġrema":1748,"ament":1749,"Ġpass":1750,"ised":1751,"aint":1752,"istor":1753,"Ġincre":1754,"Ġsingle":1755,"Ġbecause":1756,"Ġrem":1757,"sq":1758,"ĠMarch":1759,"ration":1760,"type":1761,"reg":1762,"ĠAugust":1763,"Ġmeas":1764,"Ġcommun":1765,"Ġbecom":1766,"ĠTe":1767,"$$":1768,"eters":1769,"/>":1770,"ribution":1771,"Ġdue":1772,"olution":1773,"RE":1774,"Ġleft":1775,"ended":1776,"Ġopt":1777,"Ġneed":1778,"ense":1779,"rem":1780,"ĠSeptember":1781,"rodu":1782,"Ġocc":1783,"ID":1784,"Ġinit":1785,"Ġchild":1786,"Ġhand":1787,"opt":1788,"arm":1789,"face":1790,"mber":1791,"Ġrad":1792,"Ġ>":1793,"}_{\\":1794,"oard":1795,"Ġoriginal":1796,"pril":1797,"Ġnear":1798,"ience":1799,"Ġallow":1800,"ential":1801,"oman":1802,"Om":1803,"ĠPol":1804,"Ġmass":1805,"Ġobject":1806,"Ar":1807,"Ġposs":1808,"Ġevent":1809,"SS":1810,"ling":1811,"lege":1812,"Ġalong":1813,"ected":1814,"2009":1815,"2008":1816,"sim":1817,"Ġgame":1818,"Ġorgan":1819,"Ġrest":1820,"ĠOctober":1821,"Ġrespect":1822,"Ġoffic":1823,"Al":1824,"Ġref":1825,"ĠJanuary":1826,"As":1827,"ĠSy":1828,"Ġ!":1829,"Ġhead":1830,"Ġlim":1831,"Ġprogram":1832,"ume":1833,"ĠPr":1834,"psi":1835,"str":1836,"2020":1837,"ĠJune":1838,"://":1839,"ides":1840,"Ġtem":1841,"ves":1842,"Ġspace":1843,"anc":1844,"ene":1845,"Ġplayed":1846,"ĠHowever":1847,"Ġlife":1848,"Ġformer":1849,"ness":1850,"Ġevery":1851,"ĠII":1852,"textbf":1853,"ij":1854,"cember":1855,"Ġlast":1856,"ĠAustral":1857,"iod":1858,"requ":1859,"ream":1860,"Val":1861,"Omega":1862,"ĠJuly":1863,"ĠRe":1864,"ony":1865,"Ġimport":1866,"Ġproblem":1867,"Ġreleased":1868,"respond":1869,"side":1870,"iter":1871,"Ġu":1872,"Ġ--":1873,"2007":1874,"ately":1875,"field":1876,"ious":1877,"arget":1878,"\"/>":1879,"Ġstand":1880,"itive":1881,"energy":1882,"cm":1883,"eqnarray":1884,"ĠApril":1885,"ĠĠĠĠĠĠĠĠĠĠĠĠĠĠĠĠĠĠĠĠĠĠĠĠĠĠĠĠĠĠĠĠ":1886,"2006":1887,"190":1888,"ĠCal":1889,"ector":1890,"^*":1891,"See":1892,"ats":1893,"ĠGu":1894,"ĠEuro":1895,")$,":1896,"ilar":1897,"ĠNorth":1898,"Ġbirths":1899,"This":1900,"ĠFig":1901,"Ġcap":1902,"Ġshould":1903,"Ġread":1904,"ĠAll":1905,"Ġwithin":1906,"Ġfind":1907,"Ġvery":1908,"ography":1909,"aster":1910,"To":1911,"ting":1912,"Ġwon":1913,"ole":1914,"Ġaddition":1915,"ĠWh":1916,"ches":1917,"less":1918,"âĢĿ":1919,"__":1920,"Ġplace":1921,"new":1922,"ĠBritish":1923,"ung":1924,"esc":1925,"ĠNovember":1926,"position":1927,"Ġtrue":1928,"Ġ=>":1929,"ĠCity":1930,"uthor":1931,"psilon":1932,"oad":1933,"Ġident":1934,"order":1935,"ording":1936,"ampionship":1937,"century":1938,"Ġelement":1939,"urg":1940,"idd":1941,"bs":1942,"Gamma":1943,"ĠLeague":1944,"An":1945,"bm":1946,"ued":1947,"32":1948,"ĠâĢĶ":1949,"ze":1950,"ĠState":1951,"ilit":1952,"ĠMan":1953,"Ġpubl":1954,"ĠDecember":1955,"Ġearly":1956,"Ġpower":1957,"ĠReg":1958,"Ġband":1959,"arent":1960,"ored":1961,"Ġav":1962,"raphics":1963,"Ġlaw":1964,"hes":1965,"be":1966,"imens":1967,"omet":1968,"ification":1969,"dis":1970,"ithm":1971,"Ġlevel":1972,"ords":1973,"Ġdid":1974,"etwork":1975,"rak":1976,"Ġlike":1977,"alth":1978,"apan":1979,"Col":1980,"Ġprom":1981,"sqrt":1982,"rag":1983,"Ġjust":1984,"ĠThey":1985,"subsection":1986,"ators":1987,"off":1988,"aving":1989,"wh":1990,"ebru":1991,"comm":1992,"Ġvis":1993,"Ġche":1994,"van":1995,"Ġaround":1996,"Ġeven":1997,"capt":1998,"Ġlarg":1999,"ebruary":2000,"Ġgra":2001,"unc":2002,"Ġhel":2003,"He":2004,"omin":2005,"Ġcity":2006,"Ġconf":2007,"ĠRes":2008,"bold":2009,"lished":2010,"lim":2011,"inter":2012,"Ġthose":2013,"ales":2014,"Ġdoes":2015,"ĠAnd":2016,"ĠBe":2017,"light":2018,"Ġ==":2019,"ham":2020,"ble":2021,"^{(":2022,"vare":2023,"posed":2024,"Ġ${\\":2025,"Ġestim":2026,"chi":2027,"ĠKing":2028,"ĠCanad":2029,"ero":2030,"ends":2031,"Ġsum":2032,"Ġsize":2033,"Ġcorrespond":2034,"Ġnull":2035,"Ġtot":2036,"cur":2037,"stit":2038,"rightarrow":2039,"ĠWill":2040,"roll":2041,"Ġfilms":2042,"Ġtri":2043,"ison":2044,"ĠAf":2045,"ampl":2046,"\")":2047,"ĠEd":2048,"levision":2049,"Ġreal":2050,"Ġsuccess":2051,"cont":2052,"aper":2053,"uage":2054,"60":2055,"189":2056,"Ã¡":2057,"2000":2058,"ĠEurope":2059,"varepsilon":2060,"Ġcharacter":2061,"iness":2062,"Ġscal":2063,"ped":2064,"caption":2065,"uild":2066,"ĠĠĠĠĠĠ":2067,"Ġvoid":2068,"OR":2069,"Ġmembers":2070,"ush":2071,"ape":2072,"lor":2073,"Ġmake":2074,"duct":2075,"odes":2076,"Ġsaid":2077,"ourn":2078,"iment":2079,"ift":2080,"LE":2081,"action":2082,"de":2083,"ffic":2084,"time":2085,"lob":2086,"##":2087,"akes":2088,"American":2089,"ĠArm":2090,"Ġcompet":2091,"rr":2092,"Ġ\\,":2093,"Ġstring":2094,"Ġcareer":2095,"rench":2096,"Ġabove":2097,"ĠRep":2098,"translation":2099,"ection":2100,"xim":2101,"}^{\\":2102,"Ġexample":2103,"Ġwomen":2104,"ormal":2105,"Ġcal":2106,"ĠFebruary":2107,"Ġeng":2108,"ruction":2109,"htt":2110,"Ġworld":2111,"Ġenergy":2112,"Ġland":2113,"Ġtrad":2114,"Ġtown":2115,"ured":2116,"Ġprevious":2117,"80":2118,"Ġden":2119,"}=":2120,"Ġexpect":2121,"Ġtitle":2122,"ino":2123,"oper":2124,"ius":2125,"key":2126,"2005":2127,"ese":2128,"see":2129,"egraphics":2130,"includegraphics":2131,"Ġdown":2132,"33":2133,"Ġmajor":2134,"ils":2135,"Ġdescribed":2136,"Ġnamed":2137,"...":2138,"Ġdem":2139,")=":2140,"atures":2141,"Ġvalues":2142,"Ġmember":2143,"ĠIf":2144,"ĠCo":2145,"Ġgovernment":2146,"AL":2147,"Ġcrit":2148,"leg":2149,"ĠčĊ":2150,"ponse":2151,"but":2152,"rap":2153,"const":2154,"ĠAfter":2155,"Ġperson":2156,"ĠPart":2157,"Ġarg":2158,"ster":2159,"ĠMin":2160,"rangle":2161,"Ġperiod":2162,"lected":2163,"Ġpost":2164,"reak":2165,"Ġinteg":2166,"uk":2167,"Ġtotal":2168,"Ġsimilar":2169,"Ġinclude":2170,"gorithm":2171,"2004":2172,"Ġsat":2173,"atter":2174,"Ġdiv":2175,"Ġparticular":2176,"2021":2177,"alk":2178,"Ġclos":2179,"ances":2180,"Ġassoci":2181,"value":2182,"emph":2183,"ription":2184,"Ġbegan":2185,"raft":2186,"Ġpopulation":2187,"ĠChrist":2188,"symbol":2189,"lace":2190,"Ġreport":2191,"Ġbas":2192,"64":2193,"Ġestablished":2194,"Ġproject":2195,"Ġintrodu":2196,"Ġlab":2197,"Ġkey":2198,"with":2199,"ĠâĢľ":2200,"\"><":2201,"ries":2202,"Ġstill":2203,"Ġcomplet":2204,"ĠUS":2205,"iles":2206,"Ġwhat":2207,"''":2208,"Ġcomput":2209,"empt":2210,"illion":2211,"Ġprot":2212,"Ġlocated":2213,"Ġstyle":2214,"ĠDist":2215,"Ġshort":2216,"Ġleg":2217,"ĠBar":2218,"Ġinformation":2219,"non":2220,"ered":2221,"Ġheld":2222,"eff":2223,"Ġmark":2224,"Ġold":2225,"ĠSw":2226,"urs":2227,"Ġmap":2228,"Ġclub":2229,"Ġder":2230,"ependent":2231,"ana":2232,"Ġpoints":2233,"Ġway":2234,"ensure":2235,"Ġbeh":2236,"head":2237,"usiness":2238,"aus":2239,"ĠJapan":2240,"laim":2241,"no":2242,"ties":2243,"Ġtyp":2244,"rel":2245,"ĠEnglish":2246,"ugg":2247,"Ġprivate":2248,"Ġhome":2249,"Ġmanag":2250,"itor":2251,"ination":2252,"Ġhig":2253,"Ġtechn":2254,"though":2255,"ĠWest":2256,"Ġstation":2257,"ĠHis":2258,"Ġatta":2259,"geq":2260,"ĠHar":2261,"Ġdi":2262,"Ġcour":2263,"EN":2264,"ava":2265,"ixed":2266,"ĠĠĠĠĠĠĠĠĠĠĠĠĠ":2267,"Ġfac":2268,"varphi":2269,"};":2270,"imal":2271,"string":2272,"ering":2273,"ounc":2274,"45":2275,"ploy":2276,"Ġfalse":2277,"Big":2278,"ĠSup":2279,"ĠMc":2280,"Ġla":2281,"Ġpo":2282,"Ind":2283,"arian":2284,"bject":2285,"Ġvilla":2286,"data":2287,"ensity":2288,"ser":2289,"day":2290,"top":2291,"Re":2292,".~\\":2293,"Ġsection":2294,"adem":2295,"ĠAb":2296,"Ġnext":2297,"ources":2298,"ideo":2299,"lear":2300,"')":2301,"sequ":2302,"ression":2303,"ford":2304,"Ġshown":2305,"Ġbest":2306,"Ġaut":2307,"fo":2308,"By":2309,"&\\":2310,"istic":2311,"plit":2312,"Ġpat":2313,"********":2314,"iction":2315,"35":2316,"Ġret":2317,"Ġexist":2318,"ondon":2319,"ocial":2320,"proof":2321,"refore":2322,"Sh":2323,"rew":2324,"urb":2325,"boldsymbol":2326,"AC":2327,"overline":2328,"Not":2329,"ĠBy":2330,"Ġfollows":2331,"iron":2332,"Ġlow":2333,"rown":2334,"Ġreceived":2335,"Ġcar":2336,"Ġmuch":2337,"Ġhold":2338,"Ġtook":2339,"Ġiss":2340,"aul":2341,"----------------":2342,"Ġdefined":2343,"cor":2344,"Ġversion":2345,"uff":2346,"Ġhouse":2347,"nab":2348,"Ġredu":2349,".}":2350,"'t":2351,"ention":2352,"Ġpred":2353,"eneral":2354,"Ġmust":2355,"Ġgames":2356,"Ġcompany":2357,"cul":2358,"Ġanother":2359,"frak":2360,"Ġelse":2361,"Ġchang":2362,"ari":2363,"Ġalign":2364,"Ġaff":2365,"Ġmodels":2366,"pre":2367,"Ġshows":2368,"osp":2369,"Ġwithout":2370,"alf":2371,"ille":2372,"Ġnational":2373,"Ġep":2374,"Ġdeg":2375,"eder":2376,"Ġsk":2377,"ĠCor":2378,"Ġjo":2379,"Ġlet":2380,"ĠAfric":2381,"ĠMed":2382,"},\\":2383,"Ġbuilt":2384,"enc":2385,"ĠCollege":2386,"Ġregion":2387,"75":2388,"ocument":2389,"mat":2390,"ique":2391,"[\\":2392,"Ġhistory":2393,"Ġpublished":2394,"Ġdel":2395,"Ġspect":2396,"ĠEl":2397,"Ġhow":2398,"Ġcomb":2399,"Data":2400,"2003":2401,"AS":2402,"orph":2403,"ĠSan":2404,"script":2405,"Ġappear":2406,"ĠRuss":2407,"Ġside":2408,"Ġmax":2409,"ĠRec":2410,"Ġstudy":2411,"search":2412,"ĠNo":2413,"Ġposition":2414,"ek":2415,")^":2416,"Ġvol":2417,"Ġet":2418,"lete":2419,"ynam":2420,"size":2421,"rite":2422,"Ġspe":2423,"Ġserved":2424,"uman":2425,"Ġage":2426,"Ġprofess":2427,"hold":2428,"Ġinterest":2429,"rest":2430,"31":2431,"ww":2432,"////":2433,"Ġday":2434,"Ġsix":2435,"Ġdeterm":2436,"arried":2437,"90":2438,"rick":2439,"Ġthird":2440,"Ġcentury":2441,"inition":2442,"iet":2443,"70":2444,"Se":2445,"],":2446,"}).":2447,"Set":2448,"Ġborn":2449,"ently":2450,"Ġaver":2451,"ivity":2452,"Ġfive":2453,"Ġtake":2454,"date":2455,"Ġpe":2456,"ĠLondon":2457,"ĠAir":2458,"ĠChampionship":2459,"ilitary":2460,"Ġarch":2461,"ological":2462,"ĠFrench":2463,"2002":2464,"Ġview":2465,"ĠWilliam":2466,"Ġfeature":2467,"go":2468,"Ġlearn":2469,"ĠHigh":2470,"ĠThere":2471,"ĠEn":2472,"Ġquant":2473,"Ġincluded":2474,"Ġlang":2475,"ones":2476,"Ġterms":2477,"estern":2478,"2001":2479,"idual":2480,"hline":2481,"Ġservice":2482,"ĠAm":2483,"Ġid":2484,"DE":2485,"ald":2486,"ope":2487,"dom":2488,"Ġfr":2489,"Ġ&&":2490,"px":2491,"Ġspecies":2492,"mary":2493,"IT":2494,"ither":2495,"box":2496,"mmet":2497,"ym":2498,"ington":2499,"ĠĠĠĠĠĠĠĠĠĠĠĠĠĠĠĠĠĠĠĠĠĠĠ":2500,"Ġeduc":2501,"ysis":2502,"ĠChar":2503,"Value":2504,"vec":2505,"na":2506,"cast":2507,"oll":2508,"mathfrak":2509,"Ġinvol":2510,"unic":2511,"etic":2512,"Ġcontrol":2513,"AN":2514,"olic":2515,"rum":2516,"Ġtelevision":2517,"Ġmultip":2518,"Ġ/**":2519,"oph":2520,"Let":2521,"Ġcamp":2522,"188":2523,"ĠGerman":2524,"Ġtimes":2525,"Lambda":2526,"uck":2527,"Ġturn":2528,"indow":2529,"conom":2530,"}}$":2531,"lean":2532,"Ġplayer":2533,"lymp":2534,"Ġcompos":2535,"Ġstates":2536,"ĠMe":2537,"ude":2538,"ards":2539,"Ã³":2540,"Ġstrong":2541,"\");":2542,"Ġmen":2543,"Ġchildren":2544,"Ġdistribution":2545,"bra":2546,"ĠYou":2547,"Ġapproxim":2548,"isf":2549,"Ġstructure":2550,"ending":2551,"ldots":2552,"rary":2553,"reet":2554,"Ġfull":2555,"ocus":2556,"ĠDistrict":2557,"ĠItal":2558,"Ġrole":2559,"Ġport":2560,"Ġpot":2561,"langle":2562,"Ġfurther":2563,"ĠCup":2564,"Ġbeg":2565,"mult":2566,"ning":2567,"Ġcover":2568,"icle":2569,"SE":2570,"ĠHouse":2571,"ĠHer":2572,"ops":2573,"ouncil":2574,"ĠDav":2575,"bit":2576,"Ġtext":2577,"Ġcommon":2578,"ĠArt":2579,"Ġauthor":2580,"Ġerror":2581,"sf":2582,"Ġoften":2583,"ervice":2584,"Ġperformance":2585,"Ġimportant":2586,"ĠAng":2587,"Phi":2588,"Ġcho":2589,"Ġmatch":2590,"uration":2591,"ĠPark":2592,"ief":2593,"Ġamong":2594,"ridge":2595,"ĠSch":2596,"CO":2597,"Ġbuilding":2598,"AM":2599,"pose":2600,"gs":2601,"ĠBro":2602,"Ġrange":2603,"ĠĠĠĠĊ":2604,"Ġstatic":2605,"ĠPres":2606,"aut":2607,"Ġdiscuss":2608,"ĠMon":2609,"Cont":2610,"Ġworks":2611,"br":2612,"iff":2613,"Ġphys":2614,"uation":2615,"ailable":2616,"ories":2617,"Ġinvest":2618,"65":2619,"Ġbase":2620,"Ġbook":2621,"ooks":2622,"imum":2623,"wid":2624,"style":2625,"ĠTo":2626,"($":2627,"Ġpossible":2628,"Ġsignific":2629,"Ġnetwork":2630,"Ġphot":2631,"Ġvarious":2632,"ship":2633,"Ġcompon":2634,"appa":2635,"ĠComp":2636,"Ġwritten":2637,"Ġair":2638,"Ġfew":2639,"Ġwar":2640,"Ġsequ":2641,"34":2642,"Ġcou":2643,"ii":2644,"ĠThese":2645,"Ġsw":2646,"Ġnorth":2647,"ught":2648,"Ġconsidered":2649,"nabla":2650,"Ġsit":2651,"iber":2652,"Ġmeasure":2653,"Ġdied":2654,"Mod":2655,"Ġmy":2656,"ensuremath":2657,"ways":2658,"Ġfore":2659,"));":2660,"inning":2661,"lue":2662,"ctor":2663,"Ġtarget":2664,"ĠVal":2665,"function":2666,"ociation":2667,"list":2668,"Ġ%":2669,"test":2670,"];":2671,"avy":2672,"sup":2673,"Exception":2674,"Ġmean":2675,"alt":2676,"mbox":2677,"Ġspecial":2678,"========":2679,"Ġpri":2680,"circ":2681,"Ġred":2682,"ÃŃ":2683,"ought":2684,"Living":2685,"opy":2686,"ables":2687,"Ġmot":2688,"cap":2689,"textit":2690,"ĠPhil":2691,"citep":2692,"ĠLa":2693,")(":2694,"ividual":2695,"ĠInternational":2696,"iforn":2697,"Ġwater":2698,"Ġpath":2699,"Ġknow":2700,"Ps":2701,"file":2702,"now":2703,"ĠChe":2704,"nb":2705,"Ġarm":2706,"Ġcomplex":2707,"attle":2708,"oyal":2709,"Sc":2710,"viron":2711,"Ġlog":2712,"node":2713,"ĠPl":2714,"Ġvillage":2715,"CT":2716,"amples":2717,"wide":2718,"Ġindic":2719,"Ġeas":2720,"Ġlight":2721,"Ġevents":2722,"lobal":2723,"uf":2724,"ĠOne":2725,"ifornia":2726,"load":2727,"ĠDiv":2728,"Ġaction":2729,"annel":2730,"ĠIndian":2731,"\\|":2732,"Ġinitial":2733,"99":2734,"Ġprim":2735,"De":2736,"Ã¼":2737,"ara":2738,"\\%":2739,"roid":2740,"Ġalgorithm":2741,"rror":2742,"ĠQu":2743,"max":2744,"People":2745,"Ġannoun":2746,"Ġless":2747,"ĠPer":2748,"Ġtraining":2749,"isc":2750,"1999":2751,"2022":2752,"rig":2753,"Ġexpl":2754,"Ġbusiness":2755,"subset":2756,"Ġcorre":2757,"1990":2758,"})$":2759,"Ġproduct":2760,"Ġfl":2761,".\\":2762,"ours":2763,"Ġ///":2764,"era":2765,"Ġson":2766,"Ġmagn":2767,"clus":2768,"Ġrelations":2769,"ĠRiver":2770,"ula":2771,"Ġparameters":2772,"burg":2773,"Ġins":2774,"orge":2775,"Ġsepar":2776,"48":2777,"Ġcross":2778,"Ġcountry":2779,"Object":2780,"Ġfunctions":2781,"Ġassum":2782,"group":2783,"ĠThen":2784,"Ġfail":2785,"Ġround":2786,"Ġstar":2787,"ĠAg":2788,"Int":2789,"Ġcr":2790,"Ġgood":2791,"ĠEngland":2792,"ware":2793,"ĠString":2794,"38":2795,"useum":2796,"aterial":2797,"Ġclaim":2798,"ateg":2799,"Ġcirc":2800,"anish":2801,"kappa":2802,"otimes":2803,"Ġsouth":2804,"Ġimpro":2805,"mar":2806,"draw":2807,"oon":2808,"Ġcreated":2809,"itect":2810,"Test":2811,"Ġtheory":2812,"History":2813,"Ġnov":2814,"Ġide":2815,"Ġgraph":2816,"ociety":2817,"ĠÐ":2818,"ĠDep":2819,"Ġobtained":2820,"Ġaverage":2821,"ĠMich":2822,"Ġconv":2823,"Ġsatisf":2824,"lands":2825,"36":2826,"aken":2827,"âĢĶ":2828,"Ġkill":2829,"Ġhowever":2830,"}),":2831,"rain":2832,"Ġdensity":2833,"Ġgen":2834,"Ġproduced":2835,"Ġbecome":2836,"chie":2837,"AP":2838,"Ġenc":2839,"Ġdeta":2840,"\\!":2841,"Ġfree":2842,"reed":2843,"Ġhost":2844,"Ġ()":2845,"utions":2846,"II":2847,"ogn":2848,"ĠCalifornia":2849,"ients":2850,"Ġ!=":2851,"Ġapplic":2852,"Ġlower":2853,"omb":2854,"Ġpaper":2855,"ico":2856,"Ġled":2857,"Ġinput":2858,"hern":2859,"Ġconsist":2860,"Ġchange":2861,"Ġhistor":2862,"Ġhaving":2863,"yl":2864,"comp":2865,"Ġsuper":2866,"Ġsem":2867,"nder":2868,"ama":2869,"ribute":2870,"Sigma":2871,"atural":2872,"Ġconc":2873,"Ġtw":2874,"Ġsent":2875,"Ġfeatures":2876,"ett":2877,"ilter":2878,"ules":2879,"BC":2880,"sw":2881,"location":2882,"ĠAct":2883,"Ġdat":2884,"IC":2885,"Ġestablish":2886,"Ġq":2887,"Key":2888,"map":2889,"Ġorg":2890,"Ġconn":2891,"df":2892,"point":2893,"Ġsignificant":2894,"Ġavailable":2895,"Ġlimit":2896,"44":2897,"Ġcult":2898,"ĠParty":2899,"With":2900,"atus":2901,"Ġflow":2902,"ference":2903,"ĠList":2904,"ander":2905,"ising":2906,"oted":2907,"asing":2908,"Ġhy":2909,"Ġsystems":2910,"Ġsource":2911,"ĠAustralia":2912,"Ġ``":2913,"Ġcondition":2914,"Ġmoved":2915,"Ġsite":2916,"Ġhere":2917,"Ġgroups":2918,"pace":2919,"55":2920,"link":2921,"stand":2922,"1998":2923,"Ġdiff":2924,"idence":2925,"ĠAc":2926,"duc":2927,"Ġpract":2928,"Ġdistrict":2929,"Ġvert":2930,"nonumber":2931,"Ġproduction":2932,"index":2933,"aff":2934,"Ġrespectively":2935,"ournal":2936,"ivil":2937,"ems":2938,"igned":2939,"Ġ($":2940,"}}{":2941,"Ġmatrix":2942,"ms":2943,"37":2944,"().":2945,"ls":2946,"inary":2947,"state":2948,"ĠAmer":2949,"Ġdeaths":2950,"minist":2951,"Ġdevelopment":2952,"cher":2953,"Class":2954,"andom":2955,"iol":2956,"nbsp":2957,"ha":2958,"widet":2959,"ĠTr":2960,"hib":2961,"ĠWhen":2962,"Ġpair":2963,"Ġcer":2964,"Def":2965,"dots":2966,"my":2967,"bor":2968,"que":2969,"Ġship":2970,"Ġleast":2971,"scal":2972,"ecut":2973,"Ġlay":2974,"ĠEast":2975,"Ġmale":2976,"Ġindividual":2977,"Ġfather":2978,"sl":2979,"Ġke":2980,"39":2981,"Ġinternational":2982,"Get":2983,"ĠOlymp":2984,"Ġsett":2985,"ĠArmy":2986,"Ġengine":2987,"Ġhelp":2988,"ouble":2989,"mon":2990,"Ġge":2991,"\\[":2992,"ĠAward":2993,"Ġant":2994,"Ġrate":2995,"most":2996,"Ġnode":2997,"());":2998,"Ġmillion":2999,"widetilde":3000,"Ġlate":3001,"Ġsolution":3002,"Ġapproach":3003,"Ġloss":3004,"Ġimage":3005,"Ġcommunity":3006,"Ġyoung":3007,"Ġdev":3008,"ably":3009,"Ġsold":3010,"At":3011,"66":3012,"lying":3013,"ĠBer":3014,"Ġresearch":3015,"New":3016,"05":3017,"Ġbi":3018,"Ġcell":3019,"Ġlength":3020,"Ġcases":3021,"itch":3022,"{-":3023,"rant":3024,"].":3025,"ellow":3026,"ched":3027,"Ġeither":3028,"ights":3029,"ager":3030,"Ġconstant":3031,"Ġstandard":3032,"cit":3033,"vironment":3034,"Ġblack":3035,"Ġfem":3036,"ged":3037,"ken":3038,"Ġparameter":3039,"Ġneg":3040,"Ġgrow":3041,"Ġfrequ":3042,"Ġmer":3043,"Ġanalysis":3044,"rc":3045,"kn":3046,"Ġindependent":3047,"ĠIndia":3048,"exp":3049,"Ġproperty":3050,"Qu":3051,"187":3052,"Ġgreat":3053,"1980":3054,"Ġmiss":3055,"FF":3056,"ĠBel":3057,"Ġhigher":3058,"Ġstarted":3059,"bb":3060,"uture":3061,"centering":3062,"ĠLet":3063,"Ġda":3064,"irt":3065,"evel":3066,"ittle":3067,"och":3068,"eh":3069,"uggest":3070,"gether":3071,"ĠChurch":3072,"ĠFrance":3073,"Ġtogether":3074,"Ġvideo":3075,"ĠPort":3076,"Ġcaus":3077,"Ġregular":3078,"ĠSec":3079,"\";":3080,"LL":3081,"Error":3082,"down":3083,"Ġconstruct":3084,"Ġhalf":3085,"ait":3086,"Ġequation":3087,"Ġannounced":3088,"itted":3089,"1996":3090,"Ġhom":3091,"Ġcost":3092,"Ġflu":3093,"Ġfile":3094,"Ġcame":3095,"ĠMal":3096,"Ġcorresponding":3097,"based":3098,"ming":3099,"han":3100,"ael":3101,"Ġdom":3102,"01":3103,"/\\":3104,"IS":3105,"Ġreturned":3106,"gcolor":3107,"Ġfocus":3108,"Ass":3109,"ĠLem":3110,"Ġassociated":3111,"thm":3112,"orthern":3113,"Ġthus":3114,"Ġaccess":3115,"Ġaward":3116,"ressed":3117,"Ġrequest":3118,"._":3119,"49":3120,"1997":3121,"http":3122,"Ġmethods":3123,"ĠRoman":3124,"Ġbackground":3125,"Ġser":3126,"ension":3127,"Ġfund":3128,"itz":3129,"aries":3130,"iddle":3131,"Ġear":3132,"perty":3133,"path":3134,"ĠAmerica":3135,"Ġpotential":3136,"Ġbroad":3137,"acks":3138,"Ġofficial":3139,"ĠRed":3140,"Ġpolitic":3141,"Ã¶":3142,"ibility":3143,"unicip":3144,"Ġvia":3145,"util":3146,"Ġseen":3147,"En":3148,"ving":3149,"cing":3150,"ĠPal":3151,"After":3152,"Ġconditions":3153,"Ġrecent":3154,"ota":3155,"from":3156,"ĠRev":3157,"Man":3158,"Ġground":3159,"RO":3160,"ĠCanada":3161,"Ġdebut":3162,"ĠEuropean":3163,"ender":3164,"pen":3165,"gen":3166,"ĠWith":3167,"ĠSim":3168,"cis":3169,"Ġnumer":3170,"tabular":3171,"Fig":3172,"ĠCour":3173,"Ġachie":3174,"ccording":3175,"Ġsurv":3176,"ya":3177,"ceed":3178,"Ġabs":3179,"chan":3180,"All":3181,"ĠFirst":3182,"Ġbelow":3183,"Ġdimens":3184,"Ġwent":3185,"Ġplan":3186,"aces":3187,"Ġepis":3188,"Ġpolitical":3189,"ĠAnt":3190,"ĠPresident":3191,"ney":3192,"ottom":3193,"Ġelection":3194,"iven":3195,"Ġprovide":3196,"ĠHol":3197,"itte":3198,"Ġlanguage":3199,"incip":3200,"plied":3201,"Ġsuggest":3202,"ustom":3203,"Ġrequire":3204,"ĠCouncil":3205,"ĠThom":3206,"ĠGovern":3207,"Ġemploy":3208,"ĠRober":3209,"uel":3210,"artment":3211,"ĉĉĉĉĉ":3212,"Ġcalcul":3213,"Ġ:=":3214,"Ġreview":3215,"Ġbgcolor":3216,"ults":3217,"Ġimplement":3218,"47":3219,"ĠPaul":3220,"ĠGeneral":3221,"Ð¾":3222,"State":3223,"From":3224,"ED":3225,"Ġrequired":3226,"rote":3227,"}-":3228,"Ġcy":3229,"ached":3230,"ĠJames":3231,"thern":3232,"Ġcode":3233,"sin":3234,"ĠAp":3235,"Ġtemper":3236,"Ġacross":3237,"nav":3238,"ĠSm":3239,"ĠQue":3240,"Ġfri":3241,"summary":3242,"iers":3243,"amil":3244,"lections":3245,"ordin":3246,"ements":3247,"1995":3248,"Ġparticip":3249,"Ġappoint":3250,"ready":3251,"Ġattack":3252,"earch":3253,"Ġlines":3254,"Ġphase":3255,"ĠMor":3256,"Ġtaken":3257,"Ġdest":3258,"Ġactiv":3259,"Form":3260,"stitute":3261,"If":3262,"ES":3263,"Ġill":3264,"Ġpopular":3265,"ecess":3266,"~~":3267,"Ġassert":3268,"Ġsocial":3269,"outhern":3270,"cle":3271,"Ġsm":3272,"ET":3273,"['":3274,"Ġcontext":3275,"ilities":3276,"Ġattempt":3277,"Ġtrack":3278,"ĠRoyal":3279,"plies":3280,"ulated":3281,"public":3282,"gress":3283,"ked":3284,"Ð°":3285,"acy":3286,"ĠDivision":3287,"\":":3288,"ville":3289,"ĠSum":3290,"Ġbreak":3291,"Ġcontinu":3292,"Requ":3293,"Ġproposed":3294,"ĠGeorge":3295,"\\]":3296,"url":3297,"ĠSince":3298,"itional":3299,"ountain":3300,"ĠStreet":3301,"Ġ/>":3302,"hood":3303,"iled":3304,"ĠNe":3305,"Ġclose":3306,"Ġworked":3307,"iding":3308,"Ġmem":3309,"Ġperm":3310,"ocal":3311,"Rec":3312,"ounter":3313,"ĠSen":3314,"View":3315,"AA":3316,"Ġblock":3317,"Ġaccount":3318,"Ġmarried":3319,"ĠTheorem":3320,"Ġmilitary":3321,"length":3322,"Ġproperties":3323,"Ġpositive":3324,"year":3325,"Ġinflu":3326,"reek":3327,"Ġreported":3328,"inst":3329,"Ġadv":3330,"ession":3331,"omorph":3332,"which":3333,"Ġstory":3334,"1994":3335,"\\{":3336,"Ġbody":3337,"hel":3338,"Ġlinear":3339,"aches":3340,"andid":3341,"Ġdays":3342,"Ġproof":3343,"ui":3344,"atives":3345,"Ġexpected":3346,"ump":3347,"Ġservices":3348,"Ġprovided":3349,"Ġrandom":3350,"ĠÃ":3351,"CC":3352,"');":3353,"||":3354,"ux":3355,"rd":3356,"ĠRich":3357,"1970":3358,"Ġdepend":3359,"oment":3360,"rab":3361,"Ġliter":3362,"Ġmeans":3363,"Ġwant":3364,"pan":3365,"medi":3366,"Ġvector":3367,"ky":3368,"Ġlo":3369,"berg":3370,"ackage":3371,"LA":3372,"Equ":3373,"1992":3374,"Ġcontains":3375,"foot":3376,"Ġtre":3377,"run":3378,"ĠMy":3379,"ĠAssociation":3380,"Ġdegree":3381,";\\":3382,"ean":3383,"ranch":3384,"Ġdeveloped":3385,"Ġcreate":3386,"Ġelements":3387,"ibrary":3388,"cos":3389,"}+":3390,"Ġstudents":3391,"cell":3392,"Ġunit":3393,"Ġhuman":3394,")=\\":3395,"Ġdefe":3396,"known":3397,"ĠDem":3398,"irection":3399,"67":3400,"IM":3401,"bert":3402,"ocr":3403,"ĠLou":3404,"Time":3405,"nection":3406,"prime":3407,"Over":3408,"Ġjoined":3409,"Ġang":3410,"']":3411,"Ġindex":3412,"rated":3413,"ĉĊ":3414,"Ġsche":3415,"Ġnormal":3416,"Ġconfig":3417,"ĠSection":3418,"ĠMa":3419,"band":3420,"ĠStud":3421,"Ġconstruction":3422,"asc":3423,"Add":3424,"icy":3425,"ĠBut":3426,"rim":3427,"Sy":3428,"utes":3429,"Ġperformed":3430,"ago":3431,"ka":3432,"Ġdocument":3433,"Ġmaking":3434,"Ġsl":3435,"ĠDavid":3436,"Ġflo":3437,"(),":3438,"oe":3439,"icro":3440,"Ġarchitect":3441,"ĠDes":3442,"Ġcolor":3443,"Ġsay":3444,"ĠUnion":3445,"Ġinstance":3446,"ills":3447,"Ġrail":3448,"ili":3449,"rian":3450,"Ġpresident":3451,"{(":3452,"Ġbehav":3453,".</":3454,"istics":3455,"ĠSystem":3456,"Ġmaterial":3457,"wise":3458,"Ġemb":3459,"rec":3460,"eal":3461,"erb":3462,"mark":3463,"otes":3464,"Ġeconom":3465,"umni":3466,"ĠGermany":3467,"1993":3468,"Ad":3469,"68":3470,"ĠBra":3471,"Ġrepla":3472,"zeta":3473,"Ġwrote":3474,"Ġfig":3475,"Ġwin":3476,"}\\,":3477,"roy":3478,"PE":3479,"ĠHall":3480,"Ge":3481,"TR":3482,"Ġrelated":3483,"Ġindust":3484,"\"></":3485,"Ðµ":3486,"File":3487,"95":3488,"ida":3489,"ĠAustralian":3490,".~":3491,"ply":3492,"Is":3493,"oud":3494,"atal":3495,"Ġdynam":3496,"raint":3497,"}=\\":3498,"izing":3499,"Ġthrow":3500,"Ġcontent":3501,"Ġcommand":3502,"Trans":3503,"itar":3504,"185":3505,")^{":3506,"ĠPat":3507,"Ġable":3508,"Ġgradu":3509,"ashington":3510,"ogle":3511,"ĠFrom":3512,"ires":3513,"Ġput":3514,",\"":3515,"dt":3516,"Ġareas":3517,"Ġmag":3518,"1991":3519,"ĠEq":3520,"ura":3521,"pons":3522,"Ġsurface":3523,"error":3524,"Ġuser":3525,"Ġmid":3526,"quare":3527,"igen":3528,"Ġ&=":3529,"Text":3530,"ĠTrans":3531,"Ġcentral":3532,"alls":3533,"Ġsymmet":3534,"Ġquest":3535,"Ġfinite":3536,"ĠChina":3537,"Ġnever":3538,"ĠDuring":3539,"Ġopened":3540,"icon":3541,"icol":3542,"icles":3543,"Pl":3544,"Ġinvestig":3545,"small":3546,"gin":3547,"}]":3548,"like":3549,"prop":3550,"Ġwhose":3551,"Ġroad":3552,"ION":3553,"riate":3554,"Ġ);":3555,"Ġworking":3556,"asket":3557,"Ġdirector":3558,"ĠDr":3559,"ishing":3560,"wood":3561,"raction":3562,"ittee":3563,"ride":3564,"Ġintroduced":3565,"js":3566,"Ġlost":3567,"Ġresponse":3568,"Ġwebs":3569,"Ġsongs":3570,"Ġprofessional":3571,"ulations":3572,"cdots":3573,"sing":3574,"ĠEm":3575,"Ġrecogn":3576,"Ġadditional":3577,"Ġconduct":3578,"ani":3579,"board":3580,"Ġlik":3581,"Ġlarger":3582,"Ġdefine":3583,"}^\\":3584,"embly":3585,"Ġinstead":3586,"Ġhon":3587,"Ġcapt":3588,"asons":3589,"Ġalready":3590,"Ġcontribut":3591,"tage":3592,"Ġbetter":3593,"aves":3594,"uster":3595,"ĠMod":3596,"aign":3597,"ĠNor":3598,"Ġchurch":3599,"Ġnovel":3600,"Ġparent":3601,"Or":3602,"ĠDef":3603,"ĠCenter":3604,"ĠPe":3605,"Ġteams":3606,"Ġrac":3607,"Ġcheck":3608,"ĠCont":3609,"Ġothers":3610,"Ġdistance":3611,"Ġcompan":3612,"Ġarr":3613,"Ġoutput":3614,"men":3615,"Ġcompar":3616,"AD":3617,"fin":3618,"Ġfla":3619,"escription":3620,"ĠDi":3621,")}\\":3622,"uments":3623,"istry":3624,"ughter":3625,"nel":3626,"Ġtable":3627,"Ġexists":3628,"rup":3629,"ĠGroup":3630,"ĠLaw":3631,"eed":3632,"Ġmar":3633,"Ġmeet":3634,"Ġsuccessful":3635,"ĠAcadem":3636,"Ġwidth":3637,"Ġneigh":3638,"ĠCourt":3639,"Ġcontinued":3640,"ĠMore":3641,"ĠMart":3642,"Ġmultiple":3643,"gebra":3644,"Ġrat":3645,"ensive":3646,"Ġcompleted":3647,"oz":3648,"Ġeducation":3649,"Field":3650,"Ġrelease":3651,"Info":3652,"Path":3653,"Event":3654,"Ġleading":3655,"Ġparty":3656,"Ġobserved":3657,"Sp":3658,"ado":3659,"Ġarray":3660,"ein":3661,"Ġlabel":3662,"Ġtry":3663,"Ġhard":3664,"Element":3665,"edd":3666,"atory":3667,"$)":3668,"}_\\":3669,"ĠMary":3670,"46":3671,"Ġoffer":3672,"Node":3673,"oolean":3674,"Ġbelie":3675,"Ġonce":3676,"liament":3677,"Ġlook":3678,"body":3679,"Ġclosed":3680,"alax":3681,"}}(":3682,"ĠBlack":3683,"Ġ?":3684,"Ġweek":3685,"Ġequival":3686,"ĠMac":3687,"!--":3688,"hspace":3689,"1960":3690,"Ġstep":3691,"UT":3692,"Ġaccording":3693,"ĠMex":3694,"LO":3695,"Ġthough":3696,"Ġcoupl":3697,"Ġcontract":3698,"ites":3699,"aker":3700,"skip":3701,"ategory":3702,"Ġexperiment":3703,"ini":3704,"ĠMusic":3705,"ĠProv":3706,"Ġrecorded":3707,"Ġstage":3708,"Ġoccur":3709,"ĠHen":3710,"Ġrow":3711,"Ġviol":3712,"../../../../":3713,"writ":3714,"ĠMark":3715,"Ġgive":3716,"Ġdirected":3717,"Ġradio":3718,"Ġpur":3719,"textwidth":3720,"08":3721,"aged":3722,"Ġfields":3723,"iform":3724,"lemma":3725,"Build":3726,"widehat":3727,"ĠCompany":3728,"inner":3729,"Ġund":3730,"ership":3731,"ĠRoad":3732,"42":3733,"ipp":3734,"ns":3735,"Ġzero":3736,"Param":3737,"Ġnatural":3738,"Ġbrother":3739,"1989":3740,"ston":3741,"input":3742,"Ġten":3743,"ensus":3744,"Ġdistribut":3745,"ĠWashington":3746,"block":3747,"cks":3748,"Ġrev":3749,"ĠBay":3750,"Ġcenter":3751,"Ġpress":3752,"Ġsimple":3753,"Request":3754,"Ġformed":3755,"Ġtransfer":3756,"ĠClub":3757,"inese":3758,"ĠSociety":3759,"Ġpaint":3760,"Ġ\\{":3761,"Ġsequence":3762,"07":3763,"ĠDepartment":3764,"mathsf":3765,"Ġincludes":3766,")]":3767,"ĠGl":3768,"Ġentire":3769,"Ġadded":3770,"cup":3771,"02":3772,"Ġfactor":3773,"ĠDon":3774,"Ġcandid":3775,"Map":3776,"Ġscale":3777,"And":3778,"ĠGreen":3779,"ĠInstitute":3780,"ĠCanadian":3781,"ĠKingdom":3782,"ponent":3783,"ien":3784,"Ġalbums":3785,"Ġfixed":3786,"Ġyour":3787,"Ġalthough":3788,"Ġaway":3789,"come":3790,"imate":3791,"Ġcolumn":3792,"rade":3793,"uz":3794,"``":3795,"pite":3796,"{{\\":3797,"racy":3798,"/**":3799,"Ġeval":3800,"ĠVir":3801,"Ġsigned":3802,"Ġspecific":3803,"rey":3804,"change":3805,"Config":3806,"Ġsubject":3807,"^+":3808,"ĠGames":3809,"Ġrather":3810,"Ġborder":3811,"FA":3812,"Ð¸":3813,"mit":3814,"uit":3815,"alled":3816,"refer":3817,"88":3818,"Ġfar":3819,"elling":3820,"esh":3821,"ĠInter":3822,"cial":3823,"})\\":3824,"Ġoperator":3825,"Ġlearning":3826,"Te":3827,"ĠIsland":3828,"used":3829,"=\"+":3830,"ria":3831,",-":3832,"arily":3833,"true":3834,"Ġdisplay":3835,"Psi":3836,"estival":3837,"ĠTown":3838,"Ġlive":3839,"ened":3840,"more":3841,"olit":3842,"qquad":3843,"Ġqual":3844,"Ġwebsite":3845,"fill":3846,"lt":3847,"03":3848,"04":3849,"Ġbl":3850,"asketball":3851,"ictor":3852,"Ġfuture":3853,"xspace":3854,"1988":3855,"king":3856,"Ġwife":3857,"Ġcoach":3858,"SC":3859,"/*":3860,"Ġcut":3861,"hand":3862,"ooth":3863,"atrix":3864,"ML":3865,"ĠSing":3866,"Ġtreat":3867,"There":3868,"}|":3869,"ĠHistor":3870,"ĠFigure":3871,"ensor":3872,"Context":3873,"ederal":3874,"ĠVol":3875,"ĠCath":3876,"ĠCons":3877,"den":3878,"ala":3879,"Ġelected":3880,"':":3881,"500":3882,"astic":3883,"ging":3884,"Ġalways":3885,"Ġrace":3886,"struct":3887,"eck":3888,"ario":3889,"ĠJapanese":3890,"Film":3891,"ĠAfrican":3892,"Ġfounded":3893,"ĠClass":3894,"oke":3895,"Ġappeared":3896,"Ġhealth":3897,"Index":3898,"Ġben":3899,"ramew":3900,"ĠPress":3901,"ĠTur":3902,"plicit":3903,"Ġpresented":3904,"())":3905,"ĠSam":3906,"appro":3907,"itting":3908,"Ġprobability":3909,"Ġnames":3910,"ĠArch":3911,"init":3912,"level":3913,"Ġadminist":3914,"note":3915,"Ġfootballers":3916,"rate":3917,"pdf":3918,"ios":3919,"Ġcertain":3920,"icult":3921,"api":3922,"=#":3923,"Ġprior":3924,"ĠĠĠĠĠĠĠĠĠĠĠĠ":3925,"Ġcast":3926,"Ġcomplete":3927,"Ġappointed":3928,"void":3929,"Ġdepart":3930,"Ġinc":3931,"Ã¤":3932,"inally":3933,"bl":3934,"Ġkm":3935,"ĠMet":3936,"Ġdon":3937,"&=":3938,"ĠĠĠĠĠĠĠĠĠĠĠĠĠĠĠĠĠĠĠĠĠĠĠĠĠĠĠ":3939,"Ġpan":3940,"ores":3941,"ĠMiss":3942,"Ġmother":3943,"AB":3944,"98":3945,"Ġgoal":3946,"ĠRobert":3947,"ĠTV":3948,"ĠRecords":3949,"effic":3950,"Ġoffice":3951,"Ġprincip":3952,"Eng":3953,"atively":3954,"user":3955,"Ġnecess":3956,"Ġmoment":3957,"Ġassist":3958,"Ġfront":3959,"ĠInt":3960,"xy":3961,"Ġalmost":3962,"Ġvalid":3963,"Ġsuff":3964,"ĠSo":3965,"ĠCentral":3966,"ĠMuseum":3967,"US":3968,"Ġdefault":3969,"eturn":3970,"ĠAngel":3971,"[]":3972,"ĠTra":3973,"Ġanaly":3974,"ĠRef":3975,"Ġsets":3976,"97":3977,"ĠAlex":3978,"sel":3979,"ĠBest":3980,"ĠCong":3981,"43":3982,"rish":3983,"ada":3984,"Ġvict":3985,"Ġlargest":3986,"Ġhor":3987,"https":3988,"ona":3989,"Ġmechan":3990,"ĠCap":3991,"ĠRussian":3992,"Ġvers":3993,"}^{(":3994,"Ġleague":3995,"hy":3996,"Ġsoft":3997,"ids":3998,"ĠThomas":3999,"UR":4000,"OT":4001,"can":4002,"Ġeast":4003,"ĠSal":4004,"Att":4005,"iant":4006,"Ġstars":4007,"Ġmodern":4008,"Ġwhether":4009,"izes":4010,"Ġce":4011,"ĠRail":4012,"arter":4013,"Ġalumni":4014,"Ġpredict":4015,"Ġfollowed":4016,"ĠAcademy":4017,"apache":4018,"hi":4019,"ĠTex":4020,"Ġremov":4021,"ĠGrand":4022,"1987":4023,"Ġren":4024,"ifier":4025,"Ġrespons":4026,"umbers":4027,"oms":4028,"Ġpay":4029,"atform":4030,"06":4031,"actions":4032,".)":4033,"Ġchanges":4034,"Ġdomain":4035,"lier":4036,"bt":4037,"Ġacqu":4038,"Ġtoo":4039,"Ġ$(\\":4040,"ĠMad":4041,"spec":4042,"41":4043,"Ġactive":4044,"verse":4045,"ĠItalian":4046,"model":4047,"Ġsample":4048,"operat":4049,"ttp":4050,"object":4051,"Ġedge":4052,"Ġwest":4053,"encies":4054,"mid":4055,"Service":4056,"ĠGo":4057,"Ġgives":4058,"scale":4059,"Ġparts":4060,"bour":4061,"Ġweight":4062,"ĠJew":4063,"SP":4064,"Ġenvironment":4065,"itude":4066,"onic":4067,"85":4068,"Ġmedia":4069,"Ġbirth":4070,"uan":4071,"MA":4072,"ĠGreat":4073,"Ġbar":4074,"ds":4075,"ĠSummer":4076,"edy":4077,"Ġtherefore":4078,"Ġhimself":4079,"unt":4080,"operatorn":4081,"ĠAfrica":4082,"Ġsubsequ":4083,"Ġclear":4084,"oul":4085,"Ġexact":4086,"Ġeffects":4087,"Ġmarket":4088,"ramework":4089,"Ġdatas":4090,"}\\\\":4091,"ĠGold":4092,"1986":4093,"Ġdesigned":4094,"iance":4095,"ĠLemma":4096,"Out":4097,"ĠFilm":4098,"ras":4099,"tic":4100,"ĠRepublic":4101,"unk":4102,"ĠUK":4103,"Ġ});":4104,"Ġwhite":4105,"ros":4106,"operatorname":4107,"west":4108,"ĠOlympics":4109,"Ġcompanies":4110,"ena":4111,"Ġhous":4112,"Ġstudies":4113,"Ġboundary":4114,"tact":4115,"Ġpast":4116,"alle":4117,"Ġforce":4118,"Ġschools":4119,"Ġreason":4120,"ĠLeg":4121,"IG":4122,"Ġeight":4123,"ĠZeal":4124,"md":4125,"ĠWestern":4126,"Ġassume":4127,"ĠCharles":4128,"CH":4129,"Of":4130,"Ġrock":4131,"Ġaddress":4132,"cel":4133,"ĠBl":4134,"Ġ/*":4135,"1984":4136,"plate":4137,"Ġ&\\":4138,"ĠRad":4139,"Ġtransform":4140,"indent":4141,"ĠChristian":4142,"Ġmight":4143,"ĠSaint":4144,"Ġholds":4145,"config":4146,"thlet":4147,"ĠIm":4148,"ĠScott":4149,"09":4150,"Ġexecut":4151,"dimens":4152,"Reg":4153,"antic":4154,"rast":4155,"Array":4156,"Ġbox":4157,"ĠZealand":4158,"Ġsound":4159,"Ġtemperature":4160,"Ġtaking":4161,"ises":4162,"Ġbasis":4163,"ĠFootball":4164,"Ġter":4165,"ication":4166,"\"\"":4167,"Ġselected":4168,"Ġfire":4169,"Ġquantum":4170,"Ġ(!":4171,"Ġdiag":4172,"Ġguitar":4173,"fl":4174,"({\\":4175,"****************":4176,"Im":4177,"scr":4178,"equiv":4179,"Ġpers":4180,"++":4181,"Ġregard":4182,"ĠDo":4183,"Ġgain":4184,"Ġstri":4185,"Ġdone":4186,"OS":4187,"ĠĠĠĠĠĠĠĠĠĠ":4188,"ĠMont":4189,"ĠWhile":4190,"Ġdefinition":4191,"Ġprop":4192,"ĠCarol":4193,"IP":4194,"ĠLouis":4195,"Ġmonths":4196,"Ġcollection":4197,"Ġunits":4198,"ĠEar":4199,"Ġdirection":4200,"Ġconstit":4201,"ĠKore":4202,"Ġspin":4203,"////////":4204,"ĠVirgin":4205,"rael":4206,"star":4207,"Ġusually":4208,"77":4209,"1985":4210,"cret":4211,"Ġcannot":4212,"ĠThus":4213,"Ġtro":4214,"iting":4215,"Ġlocation":4216,")-":4217,"km":4218,"Ġinj":4219,"Ġcampaign":4220,"Ġplaying":4221,"Ġbo":4222,"CD":4223,"ĠYear":4224,"ospital":4225,"za":4226,"Ġdiscover":4227,"names":4228,"eline":4229,"hest":4230,"ircraft":4231,"ĠWil":4232,"count":4233,"amily":4234,"azine":4235,"reland":4236,"Ġaud":4237,"ĠMat":4238,"}:":4239,"Ġcompared":4240,"ĠMinister":4241,"Ġstre":4242,"ledge":4243,"Since":4244,"Ġdaughter":4245,"Ġliving":4246,"www":4247,"Ġforces":4248,"ĠMag":4249,"Ġamount":4250,"Ġ},":4251,"Ġsports":4252,"dist":4253,"Hand":4254,"ams":4255,"Ġinvolved":4256,"Ġupper":4257,"Ġcomponent":4258,"Ġupon":4259,"Comm":4260,"Ġrelationship":4261,"usical":4262,"Inter":4263,"oration":4264,"Size":4265,"ki":4266,"ptions":4267,"Ġequal":4268,"ĠMichael":4269,"Ġdraw":4270,"Ġglobal":4271,"Ġthroughout":4272,"Ġwrite":4273,"olf":4274,"Ġaccept":4275,"ĠLand":4276,"='":4277,"bound":4278,"Group":4279,"MS":4280,"Ġdouble":4281,"vis":4282,"ĠTexas":4283,"ingu":4284,"long":4285,"';":4286,"96":4287,"Ġuses":4288,"IR":4289,"rep":4290,"Ġexhib":4291,"ĠWhite":4292,"citet":4293,"Ġrights":4294,"assert":4295,"|^":4296,"Ġgalax":4297,"lam":4298,"rs":4299,"hers":4300,"display":4301,"eloc":4302,"Ġ-->":4303,"Ġenough":4304,"Ġmunicip":4305,"ĠMer":4306,"Ġcurrently":4307,"){":4308,"edge":4309,"Ġgave":4310,"Ġbuildings":4311,"tag":4312,"define":4313,"Ġdirectly":4314,"aly":4315,"Ġtypes":4316,"Inst":4317,"print":4318,"ĠChinese":4319,"Ġmove":4320,"Ġdram":4321,"icture":4322,"check":4323,"Ġdifficult":4324,"cho":4325,"do":4326,"Ġreplaced":4327,"Ġboard":4328,"]$":4329,"Up":4330,"(-":4331,"Pr":4332,"astern":4333,"quot":4334,"olar":4335,"ĠTom":4336,"Ġsearch":4337,"uffer":4338,"Ġincrease":4339,"Ġprovides":4340,"Table":4341,"ĠLab":4342,"Ġcoordin":4343,"osen":4344,"title":4345,"Ġstudied":4346,"Ġstations":4347,"Ġitself":4348,"Ġimages":4349,"Ġsupported":4350,"ĠLat":4351,"Ġchannel":4352,"Ġrot":4353,"Ġadvan":4354,"Ð½":4355,"Code":4356,"Ġallowed":4357,"1950":4358,"Ġmedal":4359,"Ġepisode":4360,"1983":4361,"Ġjud":4362,"arts":4363,"Ġeffective":4364,"ansion":4365,"range":4366,"Vert":4367,"Tr":4368,"}+\\":4369,"Ġfight":4370,"Ġtourn":4371,"Ġdenote":4372,"ita":4373,"iments":4374,"ĠDan":4375,"erman":4376,"Ġoperations":4377,"onal":4378,"atre":4379,"rame":4380,"word":4381,"izations":4382,"ĠNot":4383,"EE":4384,"Ġconver":4385,"ÑĤ":4386,"Ġdemon":4387,"well":4388,"irm":4389,"ducation":4390,"Ġrelig":4391,"aching":4392,"Ġexpla":4393,"58":4394,"Ġdate":4395,"gent":4396,"MP":4397,"Bar":4398,"acity":4399,"Ġsil":4400,"erve":4401,"irtual":4402,"Ġadj":4403,"63":4404,"}}{\\":4405,"ols":4406,"ny":4407,"Sup":4408,"Ġsmaller":4409,"split":4410,"Ġfav":4411,"Ġgenerated":4412,"Ġoperation":4413,"Ġprimary":4414,"ira":4415,"Ġmetric":4416,"ously":4417,"57":4418,"inct":4419,"ĠAdd":4420,"roller":4421,"Sub":4422,"Ġgas":4423,"zil":4424,"1982":4425,"efore":4426,"ĠParis":4427,"ĠCatholic":4428,"idents":4429,"Ġbooks":4430,"road":4431,"Ġplaces":4432,"fess":4433,"idae":4434,"Ġfinished":4435,"isions":4436,"command":4437,"ully":4438,"aring":4439,"Ġtask":4440,"Ġmaximum":4441,"UN":4442,"Ġproblems":4443,"ollowing":4444,"Ġcourt":4445,"ĠTor":4446,"Ġstructures":4447,"Ġstated":4448,"'$":4449,"ĠFrancis":4450,"Ġpreviously":4451,"unity":4452,"Ap":4453,"Ġfemale":4454,"ĠÂ":4455,"Ġequations":4456,"Ġkilled":4457,"Ġtour":4458,"Ġstop":4459,"Ġorigin":4460,"End":4461,"pret":4462,"ĠSub":4463,"Ġpeak":4464,"ping":4465,"Ġdeal":4466,"rief":4467,"pat":4468,"ba":4469,"Ed":4470,"Ġstatus":4471,"Ġrepresented":4472,"ĠDirect":4473,"people":4474,"oken":4475,"result":4476,"umerate":4477,"using":4478,"Ġjournal":4479,"neq":4480,"Ġlisted":4481,"Ġseven":4482,"pecially":4483,"overs":4484,"Ġconstraint":4485,"Ġrepresentation":4486,"iences":4487,"argin":4488,"oviet":4489,"omial":4490,"Count":4491,"Ġdam":4492,"Ġpage":4493,"Ġreve":4494,"ĠDay":4495,"Ġoriginally":4496,"ockey":4497,"ĠJose":4498,"Ġapplied":4499,"1979":4500,"tainer":4501,"oring":4502,"ĠDemocr":4503,"oma":4504,"ĠBill":4505,"include":4506,"69":4507,"Ġ(\"":4508,"Ġoutside":4509,"Ġartists":4510,"ĠSur":4511,"Ġcharacters":4512,"Ġmessage":4513,"}-\\":4514,"flow":4515,"prot":4516,"create":4517,"Item":4518,"Ġsources":4519,"Ġcountries":4520,"Ġeffic":4521,"Ġpolicy":4522,"ĠPlay":4523,"evelop":4524,"Ġadopt":4525,"Ġconcern":4526,"Ġobjects":4527,"angle":4528,"duction":4529,"airs":4530,"ĠSmith":4531,"Ġeventually":4532,"Ġsom":4533,"Ġnumbers":4534,"ĠPeter":4535,"Ġrestrict":4536,"TE":4537,"nce":4538,"mage":4539,"Ġcivil":4540,"ĠRichard":4541,"ishop":4542,"Ġtakes":4543,"ying":4544,"aval":4545,"Ã¨":4546,"ĠSpanish":4547,"Ġneut":4548,"flo":4549,"FC":4550,"Ġbecomes":4551,"ĠSecond":4552,"ĠSome":4553,"62":4554,"base":4555,"ĠPla":4556,")}{":4557,"ĠGet":4558,"ĠGra":4559,"ether":4560,"ĠFlor":4561,"Ġinstit":4562,"ua":4563,"tra":4564,"Ġaccom":4565,"standing":4566,"Ġscen":4567,"ĠSuper":4568,"Ġsignal":4569,"va":4570,"racks":4571,"]\\":4572,"ĠMel":4573,"Ġcomponents":4574,"Ġveloc":4575,"=\"#":4576,"su":4577,"Ġtit":4578,"Ġ-\\":4579,"ĠFore":4580,"icago":4581,"iation":4582,"ĠSer":4583,"Ġincreasing":4584,"shire":4585,"Ġagre":4586,"Ġanim":4587,"ussian":4588,"1981":4589,"ĠMass":4590,"Ġtransport":4591,"Ġadapt":4592,"Ġdomin":4593,"Ġmention":4594,"net":4595,"case":4596,"isation":4597,"Ġphysical":4598,"ips":4599,"Ġhapp":4600,"Ġpolitician":4601,"inals":4602,"Wh":4603,"theorem":4604,"Ġimplies":4605,"ĠBen":4606,"build":4607,"Model":4608,"Ġaltern":4609,"ÑĢ":4610,"dimensional":4611,"fficient":4612,"vspace":4613,"isk":4614,"Ġoptim":4615,"Ġvoc":4616,"Ġnote":4617,"default":4618,"rial":4619,"FL":4620,"ĠCO":4621,"....":4622,"olk":4623,"dag":4624,"enumerate":4625,"oding":4626,"Ġste":4627,"ĠAccording":4628,"pty":4629,"ĠVictor":4630,"Ġtowards":4631,"ync":4632,"61":4633,"tes":4634,"Ġchall":4635,"Ġprint":4636,"that":4637,"ĠOff":4638,"Ġrelation":4639,"ĠOther":4640,"multicol":4641,"ĠHistory":4642,"Ġeffort":4643,"ĠLos":4644,"One":4645,"~$":4646,"opl":4647,"Ġmissing":4648,"ĠScience":4649,"}}_":4650,"utch":4651,"ĠGa":4652,"rupt":4653,"abase":4654,"ĠDel":4655,"87":4656,"Ġ\\|":4657,"ĠFrank":4658,"Ġremained":4659,"Le":4660,"Ġwriter":4661,"Ġnuc":4662,"Ġunique":4663,"ĠSpec":4664,"Ġsen":4665,"Ġsens":4666,"ĠIreland":4667,"multicolumn":4668,"mathscr":4669,"abled":4670,"ĠHenry":4671,"ĠPenn":4672,"next":4673,"1972":4674,"noindent":4675,"Ġsetting":4676,"ĠForce":4677,"ĠUp":4678,"Ġrunning":4679,"ĠPri":4680,"Ġheight":4681,"Ġtravel":4682,"clusion":4683,"1976":4684,"System":4685,"Ġmix":4686,"urity":4687,"Ser":4688,"Ġunivers":4689,"Ġpolice":4690,"Ġkeep":4691,"ront":4692,"Ġbig":4693,"PI":4694,"Ġwords":4695,"ano":4696,"Message":4697,"Ġcome":4698,"ĠTest":4699,"ades":4700,"Ġreached":4701,"ĠDu":4702,"1978":4703,"Ġelectron":4704,"Ġfriend":4705,"ĠFound":4706,"Ġspeed":4707,"ifying":4708,")}$":4709,"Ġyield":4710,"Ġcourse":4711,"Ġmakes":4712,"Ġoccup":4713,"Ġremains":4714,"itemize":4715,"amilton":4716,"Ġwindow":4717,"Ġprove":4718,"Ġcoeffic":4719,"omorphism":4720,"Ġsyn":4721,"Color":4722,"current":4723,"ĠHill":4724,"ĠFl":4725,"\\,\\":4726,"Ġtransition":4727,"Ġoptions":4728,"sm":4729,"Ġlittle":4730,"porary":4731,"Pi":4732,"ĠThat":4733,"ube":4734,"Ġord":4735,"Cell":4736,"png":4737,"ĠJust":4738,"ĠRob":4739,"ĠService":4740,"Ġsus":4741,"Ġearn":4742,"aps":4743,"Ġjava":4744,"Ġver":4745,"NN":4746,"Early":4747,"reme":4748,"Ġfourth":4749,"ĠCommission":4750,"pc":4751,"ĠLake":4752,"Ġalgebra":4753,"{}":4754,"orial":4755,"ĠGod":4756,"ĠRock":4757,";\"":4758,"First":4759,"Ġespecially":4760,"Ġestablishments":4761,"EC":4762,"](":4763,"Ġ===":4764,"Ġdifference":4765,"Äģ":4766,"igan":4767,"Ġexpand":4768,"ĠSet":4769,"Ġpattern":4770,"((":4771,"inder":4772,"lient":4773,"ĠTer":4774,"No":4775,"ĠSwed":4776,"Ġgl":4777,"Ent":4778,"1974":4779,"$}":4780,"Ġimmedi":4781,"Ġruns":4782,"Ġgold":4783,"Ġfeatured":4784,"Ġaircraft":4785,"Ġdrop":4786,"Ġawarded":4787,"Ġallows":4788,"OD":4789,"Ġissue":4790,"gence":4791,"Ġfall":4792,"Ġnil":4793,"Log":4794,"ĠOffic":4795,"Ġess":4796,"ĠEmp":4797,"oto":4798,"version":4799,"ING":4800,"ometimes":4801,"Ġplaced":4802,"Ġlatter":4803,"Ġillust":4804,"ĠIsrael":4805,"TD":4806,"info":4807,"ĠWal":4808,"1977":4809,"Ġplant":4810,"ĠWomen":4811,"Ġwriting":4812,"####":4813,"Ġsolutions":4814,"51":4815,"war":4816,"uns":4817,"Ġimm":4818,"ĠCamp":4819,"ocation":4820,"method":4821,"Ġgenerally":4822,"Ġregions":4823,"1975":4824,"istan":4825,"Ġword":4826,"jo":4827,"isl":4828,"Ġrelative":4829,"Ġprote":4830,"main":4831,"Ġchanged":4832,"Ġbelong":4833,"aur":4834,"language":4835,"Ġreference":4836,"ĠVirginia":4837,"Ġgoing":4838,"Ġtransl":4839,"ĠPan":4840,"mercial":4841,"--------------------------------":4842,"Ġissues":4843,"Ġdu":4844,"active":4845,"ĠPublic":4846,"Ġmaintain":4847,"ĠCre":4848,"Ġdecision":4849,"Ġevolution":4850,"bon":4851,"usion":4852,"ĠSta":4853,"Ġmach":4854,"Mar":4855,"background":4856,"aging":4857,"NS":4858,"Ġtree":4859,"Ġartist":4860,"Ġapproximately":4861,"Ġjob":4862,"Ġscore":4863,"ĠOut":4864,"ĠOrder":4865,"Ġbur":4866,"Notes":4867,"ULL":4868,"Ġdecre":4869,"core":4870,"Ġconcept":4871,"1968":4872,"stant":4873,"tem":4874,"ĠBur":4875,"Ġdetails":4876,"Ġhousehold":4877,"di":4878,"Ġconnected":4879,"valid":4880,"met":4881,"height":4882,"Ġgrad":4883,"ye":4884,"Ġ};":4885,"Ġquestion":4886,"Ġnight":4887,"reater":4888,"Ġtheorem":4889,"ells":4890,"=\"../../../../":4891,"ĠPo":4892,"Ġrule":4893,"ugby":4894,"ilies":4895,"Ġcritic":4896,"Ġbehavior":4897,"Ġcompetition":4898,"Ġconclud":4899,"Ġsaw":4900,"context":4901,"Ġadm":4902,"dec":4903,"}}}":4904,"auge":4905,"ĠTherefore":4906,"Ġcritical":4907,"ih":4908,"Ġplann":4909,"Ġseg":4910,"Ġclassical":4911,"&&":4912,"Ġbehind":4913,"Ġcustom":4914,"Ġtrain":4915,"Ġmatter":4916,"89":4917,"Ġresulting":4918,"Ġ__":4919,"ĠLu":4920,"Spec":4921,"1973":4922,"CE":4923,"Ġhighest":4924,"Manager":4925,"book":4926,"Ġsinger":4927,"apter":4928,"TV":4929,"ĠCommittee":4930,"ĠChampionships":4931,"Ã³n":4932,"Ġmagnetic":4933,"Ġstaff":4934,"aled":4935,"unch":4936,"ĠBrown":4937,"izer":4938,"Ġlimited":4939,"Ġer":4940,"ĠMil":4941,"0000":4942,"Ġsex":4943,"Ġbroadcast":4944,"ancial":4945,"Ġdemonstr":4946,"orage":4947,"When":4948,"Ġsch":4949,"\\}$":4950,"web":4951,"Ġtournament":4952,"Ġscored":4953,"}/":4954,"Ġded":4955,"ares":4956,"Ġimpact":4957,"ĠIts":4958,"oice":4959,"Ġball":4960,"Ġextended":4961,"false":4962,"Ġvariables":4963,"Co":4964,"AG":4965,"start":4966,"PS":4967,"ĠTable":4968,"java":4969,"ĠChicago":4970,"Ġtax":4971,"rule":4972,"event":4973,"Ġexcept":4974,"ĠItaly":4975,"ĠResearch":4976,"linear":4977,"^-":4978,"Comp":4979,"Ġcorrect":4980,"Ġconsists":4981,"Ġcollege":4982,"host":4983,"ĠDen":4984,"Ñģ":4985,"Ġax":4986,"ĠMus":4987,"Med":4988,"Ġir":4989,"Ġapplication":4990,"Ġcapital":4991,"Ġestimate":4992,"irl":4993,"ias":4994,"ĠArts":4995,"][":4996,"Äĩ":4997,"Ġrob":4998,"Ġdig":4999,"otic":5000,"lav":5001,"Ġfamilies":5002,"Ġclasses":5003,"Ġsaf":5004,"Can":5005,"actory":5006,"has":5007,"ĠMexico":5008,"bo":5009,"1971":5010,"ĠTechn":5011,"rative":5012,"Ġweak":5013,"Ġbasketball":5014,"rice":5015,"Ġinternal":5016,"Ġlonger":5017,"duced":5018,"59":5019,"Ġcharg":5020,"gt":5021,"static":5022,"Ġiter":5023,"Ġearlier":5024,"Ġscreen":5025,"Ġpractice":5026,"icense":5027,"content":5028,"arp":5029,"Be":5030,"Ġequivalent":5031,"ola":5032,"ĠAngeles":5033,"ĠCongress":5034,"Ġautom":5035,"lap":5036,"eria":5037,"ĠNote":5038,"oys":5039,"yr":5040,"ca":5041,"Ġbeginning":5042,"Ġwid":5043,"56":5044,"idden":5045,"Ġoverall":5046,"ĠNavy":5047,"Ġemer":5048,"Ġprem":5049,"Ġscient":5050,"Ġappears":5051,"Ġspectrum":5052,"ĠScot":5053,"ĠMo":5054,"1940":5055,">&":5056,"Ġlikely":5057,"BA":5058,"Ġpercent":5059,"ĠGeorg":5060,"udd":5061,"Ġdetermined":5062,"ĠOper":5063,"ĠSk":5064,"Ġreading":5065,"Ġmode":5066,"Ġload":5067,"ĠCast":5068,"abs":5069,"Ġcred":5070,"vention":5071,"1945":5072,"Part":5073,"inf":5074,"ĠĠĠĊ":5075,"1969":5076,"ĠAtl":5077,"Property":5078,"Ġstream":5079,"approx":5080,"52":5081,"Ġveh":5082,"ĠIll":5083,"Ġpie":5084,"elt":5085,"page":5086,"norm":5087,"Ġneeded":5088,"Ġcharge":5089,"inos":5090,"Ġdecided":5091,"ĠStar":5092,"Ð¾Ð":5093,"Note":5094,"enced":5095,"Ġratio":5096,"ĠApp":5097,"Back":5098,"Ġforms":5099,"stream":5100,"bigg":5101,"Ġactress":5102,"Method":5103,"ĠFlorida":5104,"Query":5105,"ometry":5106,"ĠSun":5107,"Ġstarting":5108,"Åį":5109,"Ġenter":5110,"Ġevidence":5111,"otion":5112,"English":5113,"ands":5114,"ĠFestival":5115,")+":5116,"ĠKh":5117,"ette":5118,"lov":5119,"weight":5120,"Ġdestroy":5121,"ouri":5122,"ĠCD":5123,"abel":5124,"gu":5125,"Ġthought":5126,"Ġselect":5127,"ĠParliament":5128,"allel":5129,"ĠTwo":5130,"ĠGovernment":5131,"underline":5132,"rat":5133,"Ġnoted":5134,"54":5135,"char":5136,"ĠKar":5137,"ENT":5138,"She":5139,"ĠKn":5140,"Ġdeep":5141,"SU":5142,"Ġchain":5143,"Ġmovement":5144,"dev":5145,"SI":5146,"78":5147,"ulture":5148,"SO":5149,"Result":5150,"Ġsymbol":5151,"Ġchoice":5152,"Sim":5153,"abit":5154,"Ġremaining":5155,"turb":5156,"ĠCarolina":5157,"Ġwriters":5158,"Ġindustry":5159,"Ġevalu":5160,"Ġhit":5161,"Ġplays":5162,"hem":5163,"len":5164,"*{":5165,"Ġmulti":5166,"etworks":5167,"doc":5168,"Ġfrequency":5169,"Ġcare":5170,"ariant":5171,"anda":5172,"iano":5173,"Ġfif":5174,"Ġever":5175,"Cre":5176,"1967":5177,"Ġens":5178,"53":5179,"Ġbring":5180,"apping":5181,"ĠAlthough":5182,"ects":5183,"Char":5184,"Ġleader":5185,"Ġuniform":5186,"1930":5187,"Ġmatches":5188,"ĠAssembly":5189,"ĠCur":5190,"ĠOpen":5191,"iana":5192,"ĠWales":5193,"Ġnomin":5194,"ĠSoviet":5195,"Ġincreased":5196,"pol":5197,"ĠDis":5198,"dro":5199,"itors":5200,"plication":5201,"Ġvariable":5202,".âĢĿ":5203,"ln":5204,"Ġpersonal":5205,"ĉĉĉĉĉĉ":5206,"ĠHamilton":5207,"ynomial":5208,"ashed":5209,"Ġdimension":5210,"ectors":5211,"syl":5212,"Ġvelocity":5213,"ĠRussia":5214,"Ġwhole":5215,"Ġculture":5216,"Ġwide":5217,"riz":5218,"Ġavoid":5219,"ĠBrazil":5220,"ima":5221,"child":5222,"Ġvocals":5223,"Ġgrand":5224,"undle":5225,"Ġanc":5226,"Ġmur":5227,"Ġexpress":5228,"ĠEv":5229,"ĠRegister":5230,"Ġsrc":5231,"Ġkind":5232,"Then":5233,"Ġactor":5234,"Ġreduced":5235,"User":5236,"1964":5237,"cles":5238,"Ġscience":5239,"ublican":5240,"Ġthink":5241,"func":5242,"column":5243,"win":5244,"Ġminor":5245,"ato":5246,"Act":5247,"ĠWeb":5248,"ithub":5249,"Rep":5250,"Ġproced":5251,"Career":5252,"ufact":5253,"Ġfigure":5254,"vania":5255,"open":5256,"Ġexpression":5257,"ker":5258,"ĠSecret":5259,"Ġtraditional":5260,"iro":5261,"ĠFin":5262,"ĠProvince":5263,"Ġincor":5264,"image":5265,"ĠHistoric":5266,"BS":5267,"Ġstreng":5268,"Call":5269,"Ġneighbor":5270,"ko":5271,"================":5272,"ĠAwards":5273,"unched":5274,"Theta":5275,"ĠGal":5276,"dr":5277,"Ġunion":5278,"ĠUnder":5279,"Ġdivision":5280,"Ġbrought":5281,"crete":5282,"Ġ_{":5283,"Ġmonth":5284,"lease":5285,"ao":5286,"adium":5287,"ental":5288,"Ġbank":5289,"ĠBo":5290,"ĠOh":5291,"ocol":5292,"rence":5293,"])":5294,"Ġpurch":5295,"ĠAnn":5296,"fe":5297,"Ġorganization":5298,"uled":5299,"Ġfit":5300,"PC":5301,"local":5302,"Response":5303,"ski":5304,"anks":5305,"Ġestimated":5306,"App":5307,"empty":5308,"google":5309,"Ġdark":5310,"Per":5311,"inem":5312,"PT":5313,"Ġpresence":5314,"Further":5315,"azz":5316,"Ġpassed":5317,"ĠHow":5318,"asks":5319,"textrm":5320,"package":5321,"pected":5322,"oral":5323,"rea":5324,"tical":5325,"Ã§":5326,"Ġlevels":5327,"Ġderived":5328,"Override":5329,"rich":5330,"ĠForm":5331,"Ġdescription":5332,"Ġcaused":5333,"work":5334,"heast":5335,"iral":5336,"Ġseasons":5337,"Ġcounter":5338,"iller":5339,"Ġnecessary":5340,"minus":5341,"Person":5342,"Ġrailway":5343,"ees":5344,"iques":5345,"Client":5346,"Ġonline":5347,"Ġchosen":5348,"AF":5349,"iny":5350,"prod":5351,"allery":5352,"ĠOb":5353,"1965":5354,"}^{-":5355,"Ġinside":5356,"Ġmanager":5357,"Ġanti":5358,"otype":5359,"Ġcollect":5360,"Ġformat":5361,"Ġcop":5362,"Ġsufficient":5363,"Ġmanufact":5364,"Ġdecl":5365,"Ġfood":5366,"300":5367,"ĠIrish":5368,"Ġeigen":5369,"}}_{":5370,"Ġpen":5371,"element":5372,"Ġ\\;":5373,"Films":5374,"Ġpark":5375,"Ġnegative":5376,"Read":5377,"Ġidea":5378,"1966":5379,"Ġexpansion":5380,"But":5381,"atur":5382,"Ġvolume":5383,"ĠRem":5384,"ĠBr":5385,"During":5386,"texttt":5387,"Ġtrade":5388,"Ġliterature":5389,"mes":5390,"ĠBoard":5391,"Ġchampionship":5392,"Ġmemory":5393,"nect":5394,"ĠOld":5395,"Line":5396,"wan":5397,"Ġtim":5398,"rices":5399,"mann":5400,"Ġplatform":5401,"Ġnature":5402,"ĠEmpire":5403,"ĠPet":5404,"Ġ$\\{":5405,"Ġfarm":5406,"Head":5407,"bul":5408,"first":5409,"eds":5410,"ersey":5411,"Ġface":5412,"evelopment":5413,"bottom":5414,"Ġwinning":5415,"Ġconnection":5416,"entially":5417,"Ġsoon":5418,"93":5419,"ĠVer":5420,"}'":5421,"Ġbool":5422,"Ġuncer":5423,"Ġrap":5424,"Par":5425,"ĠMount":5426,"Ġprison":5427,"IL":5428,"ĠĠĠĠĠĠĠĠĠĠĠĠĠĠĠĠĠ":5429,"Ġvariety":5430,"86":5431,"Ġmoney":5432,"Ġroute":5433,"94":5434,"Ġrules":5435,"press":5436,"Ġhot":5437,"1920":5438,"ĠKe":5439,"ĠHel":5440,"=\"../":5441,"ervation":5442,"Ġmeaning":5443,"Ġcensus":5444,"Other":5445,";&":5446,"Ġdisp":5447,"icated":5448,"Ġsmooth":5449,"Ġsimply":5450,"Oper":5451,"ĠTour":5452,"ecause":5453,"Ġmanagement":5454,"ĠStev":5455,"Ġrank":5456,"stra":5457,"ĠTime":5458,"vement":5459,"ĠSil":5460,"Ġattended":5461,"92":5462,"Ġproducer":5463,"vey":5464,"Ġparticularly":5465,"github":5466,"Ġvac":5467,"Ġderiv":5468,"ansas":5469,"Ġlack":5470,"Ġcit":5471,"ewidth":5472,"Ġprec":5473,"Ġwave":5474,"Ġfailed":5475,"ĠMos":5476,"lag":5477,"Ġequip":5478,"agement":5479,"options":5480,"Ġriver":5481,"gener":5482,"selves":5483,"Ġconstructed":5484,"Ġsurround":5485,"thing":5486,"Ġedition":5487,"Ġbranch":5488,"Ġchem":5489,"Che":5490,"sylvania":5491,"Ġrecover":5492,"db":5493,"Ġsometimes":5494,"ja":5495,"strong":5496,"Ġsense":5497,"ĠIII":5498,"ĠBase":5499,"Ġapply":5500,"ĠPac":5501,"ĠSeries":5502,"css":5503,"Ġaim":5504,"ĠNorthern":5505,"Ġshall":5506,"Ġhyper":5507,"greg":5508,"Ġsouthern":5509,"Ġacadem":5510,"Ġexplicit":5511,"Ġlayer":5512,"Ġgot":5513,"Ġshape":5514,"ĠMartin":5515,"}},":5516,"ĠHon":5517,"72":5518,"Ġshot":5519,"ĠOver":5520,"wa":5521,"sol":5522,"Ġnorthern":5523,"MC":5524,"Ġcontinue":5525,"ĠJoseph":5526,"Ġeditor":5527,"iring":5528,"taint":5529,"Ġinterpret":5530,"Ġstudio":5531,"Pop":5532,"Ġbre":5533,"Ġmusical":5534,"ĠMur":5535,"omy":5536,"ĠFort":5537,";</":5538,"Ġbenef":5539,"Ġca":5540,"Ġsecur":5541,"ĠLiber":5542,"Dis":5543,"Base":5544,"ali":5545,"ests":5546,"Ġspent":5547,"\\'":5548,"osing":5549,"Ġcontinuous":5550,"Ġyet":5551,"Ġknowledge":5552,"gn":5553,"ifold":5554,"ĠTimes":5555,"Ġisland":5556,"Ġcoast":5557,"Ġselection":5558,"Ġsquare":5559,"OM":5560,"Ġhyp":5561,">(":5562,"bin":5563,"ishes":5564,"<\\":5565,"subseteq":5566,"footnote":5567,"iler":5568,"Ġreplace":5569,"asion":5570,"Ġdefeated":5571,"84":5572,"track":5573,"John":5574,"Ġnorm":5575,"Ġproduce":5576,"ĠColumb":5577,"ĠHaw":5578,"Ġking":5579,"Ġgauge":5580,"ĠLong":5581,"Ġblue":5582,"Ġended":5583,"Ġappearance":5584,"({":5585,"yles":5586,"uls":5587,"iga":5588,"ĠMost":5589,"uracy":5590,"Ġcele":5591,"obile":5592,"ĠEngine":5593,"Ġheavy":5594,"Ġstd":5595,"Ġdataset":5596,"Ġforward":5597,"Ġhence":5598,"real":5599,"Ġwoman":5600,"ening":5601,"Ġmiddle":5602,"ĠSir":5603,"ĠLie":5604,"lic":5605,"{$":5606,"eek":5607,"Ġcopy":5608,"Ġmajority":5609,"GL":5610,"ampion":5611,"Ġintegral":5612,"76":5613,"ĠLine":5614,"elled":5615,"Ġinequ":5616,"aven":5617,"ĠSpace":5618,"gra":5619,"resents":5620,"ĠSpain":5621,"Ġstra":5622,"Ġsecret":5623,"ename":5624,"jection":5625,"Ġstudent":5626,"irit":5627,"normal":5628,"Ġnoise":5629,"ĠYoung":5630,"Ġframe":5631,"Ġformation":5632,"osh":5633,"ĠDev":5634,"Ġnews":5635,"Cur":5636,"Ġexisting":5637,"IV":5638,"perties":5639,"Ġ(-":5640,"Ġoperators":5641,"Ġsamples":5642,"ĠGar":5643,"Ġcompact":5644,"Ġwhom":5645,"Ġgrowth":5646,"namespace":5647,"ĠGr":5648,"related":5649,"Ġnewsp":5650,"ĠLove":5651,"ĠFoundation":5652,"ĠWood":5653,"Ġauth":5654,"Ġcollab":5655,"det":5656,"igation":5657,"lood":5658,"Ġphil":5659,"1962":5660,"dir":5661,"ĠBas":5662,"Ġscheme":5663,"1963":5664,"ĠBig":5665,"ĠArab":5666,"Ġsingles":5667,"Ġsolid":5668,"Ġarticle":5669,"Source":5670,"pton":5671,"ĠĠĠĠĠĠĠĠĠĠĠĠĠĠĠĠĠĠĠĠĠĠĠĠĠĠĠĠĠĠĠ":5672,"Ġfully":5673,"rees":5674,"ĠĠĠĠĠĠĠĠĠĠĠĠĠĠ":5675,"Ġquality":5676,"Ġlove":5677,"ĠFe":5678,"Ġcommercial":5679,"Ġagreement":5680,"oute":5681,"Ġoption":5682,"anner":5683,"Ġinfluence":5684,"Ġterrit":5685,"Ġbounded":5686,"Ġpolynomial":5687,"Ġgrant":5688,"mond":5689,"acher":5690,"Ġelectric":5691,"ĠCla":5692,"ora":5693,"Ġgenus":5694,"Net":5695,"ATE":5696,"Status":5697,"linewidth":5698,"91":5699,"ĠGreek":5700,"\").":5701,"Ġgoals":5702,"ultural":5703,"Ġprograms":5704,"TH":5705,"Stream":5706,"Ġinteraction":5707,"then":5708,"Ġprotected":5709,"Ġinitially":5710,"Ġseparate":5711,"Ġleads":5712,"post":5713,"ĠFred":5714,"Ġmotion":5715,"Ġ;":5716,"Ġlegal":5717,"Ġentry":5718,"Ġdiagram":5719,"IF":5720,"Ġ$|":5721,"Ġhol":5722,"member":5723,"Ġquick":5724,"ĠNews":5725,"uge":5726,"enge":5727,"Ġcentre":5728,"ĠField":5729,"ialog":5730,"ĠChief":5731,"Ne":5732,"Ġcandidate":5733,"Ab":5734,"ĠPennsylvania":5735,"ategor":5736,"Ġobservations":5737,"ati":5738,"ĠProfess":5739,"Ġattention":5740,"ibli":5741,"unct":5742,"Ġwood":5743,"venue":5744,"ĠHam":5745,"Ġpoet":5746,"apers":5747,"PR":5748,"Ġactivities":5749,"Ġfinally":5750,"iography":5751,"stitution":5752,"setminus":5753,"Ġidentity":5754,"ĠCam":5755,"Ġslow":5756,"ĠEducation":5757,"Ġbrief":5758,"Ġproducts":5759,"ĠBattle":5760,"Ġcurve":5761,"Input":5762,"Ġsoftware":5763,"ĠBank":5764,"^{-\\":5765,"null":5766,"tx":5767,"Ġcrick":5768,"Ġlaunched":5769,"Ġopening":5770,"Ġcontact":5771,"1944":5772,"={":5773,"Ġrepe":5774,"Ġfill":5775,"force":5776,"Ġmechanism":5777,"pass":5778,"stack":5779,"house":5780,"82":5781,"Ġfa":5782,"oplus":5783,"ĠCross":5784,"Ġdescribe":5785,"Ġmagazine":5786,"Ġexperiments":5787,"itable":5788,"ady":5789,"Ġconvert":5790,"Ġgrav":5791,")|":5792,"inet":5793,"inners":5794,"Builder":5795,"Ġinterview":5796,"à¤":5797,"ĠRo":5798,"Date":5799,"unior":5800,"Ġult":5801,"ĠLy":5802,"ĠHot":5803,"alo":5804,"Ġdiscussed":5805,"Ġ($\\":5806,"Ġjoint":5807,"ĠLife":5808,"$_":5809,"ilarly":5810,"colon":5811,"Ġ...":5812,"Ġmission":5813,"Ġhttp":5814,"Ġcause":5815,"arriage":5816,"yan":5817,"Ġowned":5818,"Ġslight":5819,"ĠLee":5820,"Pre":5821,"Ġexamples":5822,"Ġsecurity":5823,"ĠTw":5824,"Ġmedical":5825,"grad":5826,"Ġexperience":5827,"kins":5828,"ĠSa":5829,"gl":5830,"Ġcontaining":5831,"DF":5832,"Ġarchitecture":5833,"Ġchief":5834,"aka":5835,"cs":5836,"itter":5837,"Ġvan":5838,"Ġnodes":5839,"Ġinters":5840,"Ġargument":5841,"Util":5842,"Ġprofile":5843,"ometric":5844,"client":5845,"only":5846,"Ġminimum":5847,"GB":5848,"Ġcomment":5849,"Ġcategory":5850,"airman":5851,"select":5852,"po":5853,"Ġreb":5854,"Ġcluster":5855,"Ġcarried":5856,"Ġdeb":5857,"Ġcommission":5858,"Ġhours":5859,"enth":5860,"Ġmaps":5861,"ĠJac":5862,"Ġreferred":5863,"\"),":5864,"Ġmostly":5865,"Ġextension":5866,"Ġsummer":5867,"zy":5868,"usband":5869,"Ġcoll":5870,"_+":5871,"Ext":5872,"ĠHealth":5873,"Ġpressure":5874,"Ġflux":5875,"Style":5876,"ĠTeam":5877,"hemat":5878,"_*":5879,"ellar":5880,"lah":5881,"oub":5882,"400":5883,"ĠMax":5884,"ĠSocial":5885,"ĠBob":5886,"mission":5887,"Ġfilter":5888,"attice":5889,"ĠEr":5890,"oston":5891,"\\}":5892,"adow":5893,"ĠTim":5894,"ova":5895,"ĠFurther":5896,"Ġembedd":5897,"Ġcontrast":5898,"Ġparticles":5899,"osm":5900,"break":5901,"1961":5902,"ONT":5903,"call":5904,"ributes":5905,"ĠJo":5906,"eger":5907,"Ġ]":5908,"Ġvertex":5909,"aligned":5910,"ĠValley":5911,"Ġformula":5912,")/":5913,"_{(":5914,"module":5915,"iÄĩ":5916,"Ġprevent":5917,"Image":5918,".$":5919,"Ġdrama":5920,"etts":5921,"Ġeconomic":5922,"ĠCamb":5923,"oder":5924,"Ġtoday":5925,"ĠLin":5926,"Ġhighly":5927,"subfigure":5928,"stract":5929,"ething":5930,"Ġtechnology":5931,"Ġsn":5932,"ĠJim":5933,"ĠNULL":5934,")</":5935,"resh":5936,"79":5937,"arks":5938,"Ġidentified":5939,"Year":5940,"Ġcomes":5941,"rants":5942,"83":5943,"Ġbattle":5944,"Ġofficer":5945,"Ġactually":5946,"Aust":5947,"Ġ~":5948,"ulate":5949,"ĠJer":5950,"mas":5951,"kin":5952,"Ġremoved":5953,"inding":5954,"Ġdrum":5955,"Ġarrang":5956,"Ġconsequ":5957,"Sw":5958,"Ġmentioned":5959,"Ġlived":5960,"Ġinsp":5961,"values":5962,"bury":5963,"ĠUk":5964,"NA":5965,"append":5966,"uages":5967,"81":5968,"Ġnetworks":5969,"ested":5970,"ĠOur":5971,"reedom":5972,"Ġitem":5973,"Ġpanel":5974,"Ġdistinct":5975,"74":5976,"ĠPost":5977,"query":5978,"font":5979,"cons":5980,"lines":5981,"Ġconfiguration":5982,"MM":5983,"seud":5984,"Ġ$[":5985,"Ġthreat":5986,"ĠCivil":5987,"Ġentered":5988,"ĠDirector":5989,"Ġsymmetry":5990,"shift":5991,"Ġrepresents":5992,"riev":5993,"ĠOl":5994,"reshold":5995,"LS":5996,"LT":5997,"emic":5998,"Ġthemselves":5999,"Ġsubset":6000,"adding":6001,"Ġdetermine":6002,"inity":6003,"Ġparticle":6004,"iy":6005,"awa":6006,"option":6007,"Ġshift":6008,"Ġcontribution":6009,"Ġfinancial":6010,"Ġfootballer":6011,"wedge":6012,"Ġunknown":6013,"black":6014,"Ġsemi":6015,"sych":6016,"ĠGen":6017,"emporary":6018,"Ġarmy":6019,"Ġfast":6020,"ennis":6021,"isters":6022,"HT":6023,"ĠSol":6024,"target":6025,"inois":6026,"Ġnumerous":6027,"Ġcore":6028,"Ġmainly":6029,"ĠIran":6030,"stein":6031,"Ġsec":6032,"Ġrecently":6033,"Ġplane":6034,"Pos":6035,"finished":6036,"ga":6037,"ĠDemocratic":6038,"lib":6039,"ĠBritain":6040,"ĠSouthern":6041,"Ġarbit":6042,"Ġmargin":6043,"ĠRel":6044,"dagger":6045,"rip":6046,"1948":6047,"Ġforest":6048,"_{{\\":6049,"ernel":6050,"ĠInc":6051,"ĠSar":6052,"UE":6053,"erved":6054,"1942":6055,"ĠJud":6056,"Ġcounty":6057,"ĠLibrary":6058,"Ġbecoming":6059,"process":6060,"ĠFC":6061,"1958":6062,"Ġsenior":6063,"Ġmodule":6064,"1956":6065,"Ġextends":6066,"Ġneeds":6067,"Ġresource":6068,"enant":6069,"locks":6070,"ĠHere":6071,"achus":6072,"Ġtherm":6073,"aria":6074,"ĠAlso":6075,"ĠOhio":6076,"Ġcle":6077,"Am":6078,"inger":6079,"Play":6080,"Ġlat":6081,"iders":6082,"Ġreach":6083,"Ġscatter":6084,"Ġ$-":6085,"73":6086,"Ġexistence":6087,"Ġshare":6088,"ackson":6089,"ĠEdward":6090,"Ġroom":6091,"ĠBul":6092,"Ġconcent":6093,"1959":6094,"Ġdise":6095,"Ġamb":6096,"Ġchart":6097,"Ġminutes":6098,"ban":6099,"Ġolder":6100,"Ġrequires":6101,"ĠPeople":6102,"arning":6103,"ĠPak":6104,"Box":6105,"ĠBelg":6106,"Equal":6107,"Ġapproximation":6108,"Ġtreatment":6109,"ĠJack":6110,"ella":6111,"ĠMichigan":6112,"ĠOx":6113,"Ġrecords":6114,"definition":6115,"ĠPoland":6116,"ĠTro":6117,"<!--":6118,"\\!\\!":6119,"ĠRadio":6120,"Ġboolean":6121,"Ġ->":6122,"rolled":6123,"ipl":6124,"inite":6125,"Ġpick":6126,"Ġupdate":6127,"$(":6128,"Ġusers":6129,"Ġsplit":6130,"Ġcomparison":6131,"nam":6132,"args":6133,"Ġspecified":6134,"Ġapplications":6135,"eful":6136,"Ġbasic":6137,"ador":6138,"Ġextra":6139,"Off":6140,"ĠStep":6141,"Ġbal":6142,"Å¡":6143,"1957":6144,"71":6145,"sky":6146,"example":6147,"Results":6148,"1939":6149,"Ġframework":6150,"ket":6151,"android":6152,"isher":6153,"alg":6154,"Members":6155,"ĠSong":6156,"ĠRh":6157,"ifically":6158,"Ġnearly":6159,"lad":6160,"Ġincorpor":6161,"eler":6162,"ivial":6163,"Ġmicro":6164,"EX":6165,"owers":6166,"Ġinn":6167,"Ġhusband":6168,"Ġelections":6169,"Token":6170,"ĠCarl":6171,"ĠLord":6172,"Ġcorn":6173,"Nav":6174,"rows":6175,"SD":6176,"Ġmaster":6177,"achusetts":6178,"Ġimmediately":6179,"ĠâĢĺ":6180,"eks":6181,"ibly":6182,"Ġpack":6183,"ĠMen":6184,"anger":6185,"ĠAsian":6186,"Ġmeasured":6187,"Ġstore":6188,"matrix":6189,"Ġcard":6190,"ĠMem":6191,"ĠCro":6192,"ĠInf":6193,"unn":6194,"uses":6195,"ependence":6196,"Ġactivity":6197,"Ġquarter":6198,"Ġforced":6199,"ĠDutch":6200,"),\\":6201,"Ġclient":6202,"Ġannual":6203,"cf":6204,"Ġmurder":6205,"1943":6206,"Ġfederal":6207,"Car":6208,"ategy":6209,"law":6210,"Cons":6211,"ĠJersey":6212,"rl":6213,"lict":6214,"parent":6215,"Ġroot":6216,"ĠUnivers":6217,"ollary":6218,"Ġagent":6219,"Ġradius":6220,"Ġsquad":6221,"spect":6222,"Ġrelev":6223,"rics":6224,"iling":6225,"Sports":6226,"aily":6227,"ancy":6228,"ĠHy":6229,"Ġdynamics":6230,"uty":6231,"Ġeasily":6232,"Ġoperated":6233,"Ġandroid":6234,"Ġmeeting":6235,"atial":6236,"ĠAsia":6237,"Buffer":6238,"ĠBook":6239,"ĠEnd":6240,"Ġvictory":6241,"Ġbass":6242,"dat":6243,"ellig":6244,"Ġcomposed":6245,"Ġdecay":6246,"Ġtypically":6247,")\\,":6248,"burgh":6249,"\\\"":6250,"Ġstay":6251,"Ġcombined":6252,"etime":6253,"Ġreligious":6254,"Ġgreater":6255,"otal":6256,"ĠRepresent":6257,"ĠIN":6258,"Ġstatement":6259,"Ġnative":6260,"omic":6261,"Ġbul":6262,"Block":6263,"chen":6264,"Ġsimpl":6265,"ĠJewish":6266,"Ġindividuals":6267,"ĠRepublican":6268,"Ġcommunities":6269,"Ġbatt":6270,"ji":6271,"Ġhum":6272,"button":6273,"Ġprocesses":6274,"Ġexperimental":6275,"Ġlink":6276,"ĠFri":6277,"Ġpoor":6278,"Ġgreen":6279,"ĠNow":6280,"ĠPacific":6281,"orter":6282,"1941":6283,"Ġclassification":6284,"ĠRam":6285,"National":6286,"ror":6287,"Ġsea":6288,"ech":6289,"ĠScotland":6290,"Ġdepartment":6291,"ropy":6292,"CP":6293,"Ġclaimed":6294,"ela":6295,"Instance":6296,"Ġuniversity":6297,"ERT":6298,"Now":6299,"aters":6300,"ĠTop":6301,"rical":6302,"ulty":6303,"ĠPre":6304,"EM":6305,"Ġgalaxies":6306,"icks":6307,"ĠReturn":6308,"Mon":6309,"ĠMountain":6310,"imb":6311,"Gener":6312,"Ġemission":6313,"1952":6314,"ĠKent":6315,"wer":6316,"Ġcolon":6317,"aya":6318,"According":6319,"irls":6320,"ĠQueen":6321,"limits":6322,"ĠOffice":6323,"Ġarrest":6324,"write":6325,"Ġcarry":6326,"1946":6327,"final":6328,"ĠLi":6329,"Ġaccuracy":6330,"ĠĠĠĠĠĠĠĠĊ":6331,"Ġexam":6332,"adata":6333,"Ġmountain":6334,"Ġpositions":6335,"ĠJones":6336,"Met":6337,"ĠHa":6338,"Ġpoliticians":6339,"arden":6340,"Lay":6341,"request":6342,"Ġsituation":6343,"Ġoptimal":6344,"number":6345,"Ġregister":6346,"Ġmixed":6347,"Ġperturb":6348,"Ġetc":6349,"Ġ\\(":6350,"Point":6351,"Ġexpon":6352,"Men":6353,"Ġcomputer":6354,"ĠCentre":6355,"Ġconfir":6356,"gypt":6357,"Resource":6358,"ĠTem":6359,"dl":6360,"ĠMr":6361,"Ġuncertaint":6362,"deg":6363,"Ġforeign":6364,"py":6365,"Ġpolar":6366,"ila":6367,"ĠConference":6368,"ĠIllinois":6369,"Ġraised":6370,"Ġcapacity":6371,"server":6372,"stone":6373,"ugin":6374,"Ġ\"\"\"":6375,"ĠEarth":6376,"Ġ<<":6377,"Ġcoupling":6378,"ĠAz":6379,"Ġresolution":6380,"Ġ|\\":6381,"ĠJournal":6382,"soft":6383,"Fe":6384,"Brit":6385,"Ġfactors":6386,"Ġreturns":6387,"1955":6388,"las":6389,"Ġleave":6390,"ĠAut":6391,"ĠPrem":6392,"har":6393,"Ġactors":6394,":#":6395,"ĠOf":6396,"Ġcam":6397,"=(":6398,"Em":6399,"Ġinterface":6400,"Ġsurvey":6401,"ecution":6402,"Ġvisual":6403,"hesis":6404,"ĠMajor":6405,"php":6406,"Ġformal":6407,"ĠProposition":6408,":\\":6409,"Ġdual":6410,"Ġdescent":6411,"Ġships":6412,"Aut":6413,"}}(\\":6414,"Ġexpat":6415,"ĠCE":6416,"ĠBow":6417,"term":6418,"Options":6419,"tainment":6420,"Track":6421,"Ġseat":6422,"elli":6423,"Ġhistorical":6424,"Ġnine":6425,"imin":6426,"Ġparents":6427,"ĠPortug":6428,"ĠPrince":6429,"FT":6430,"ĠGL":6431,"1947":6432,"free":6433,"ĠShow":6434,"cean":6435,"Ġpromin":6436,"bi":6437,"Ġsettlement":6438,"_{-":6439,"ĠRailway":6440,"ebug":6441,"Ġwestern":6442,"asy":6443,"ĠMu":6444,"ĠDet":6445,"Ġspectral":6446,"ĠType":6447,"ĠObject":6448,"Rel":6449,"CL":6450,"Ġfun":6451,"ĠMassachusetts":6452,"El":6453,"Handler":6454,"Ġclust":6455,"Ġotherwise":6456,"Ġsatisfies":6457,"Ġelev":6458,"Ġserving":6459,"Ġchoose":6460,"Ġretired":6461,"Ġsubsequently":6462,"Ġchalleng":6463,"Ġpoly":6464,"FI":6465,"sur":6466,"rons":6467,"Ġresponsible":6468,"ĠFrancisco":6469,"Exp":6470,"viation":6471,"1954":6472,"after":6473,"Ġfix":6474,"Ġpil":6475,"rison":6476,"Ġwind":6477,"ĠGovernor":6478,"ĠMah":6479,"However":6480,"ecting":6481,"Ġones":6482,"Ġweeks":6483,"antry":6484,"eft":6485,"Ġdevice":6486,"Ġice":6487,"Ġmoving":6488,"Ġmut":6489,"itation":6490,"Ġprefer":6491,"ĠRos":6492,"ĠTheir":6493,"CS":6494,"Ġrelatively":6495,"Ġnumerical":6496,",\\,":6497,"ĠKong":6498,"RA":6499,"ĠJan":6500,"Ġuseful":6501,"Ġcompute":6502,"cript":6503,"'\\":6504,"Ġupd":6505,"Ġtracks":6506,"adel":6507,"ypes":6508,"Ġdistributed":6509,"des":6510,"Us":6511,"Ġmomentum":6512,"Ġque":6513,"sg":6514,"}%":6515,"Ġleaving":6516,"Ġcomedy":6517,"Content":6518,"Ġmole":6519,"ibliography":6520,"Ġrecording":6521,"Ġincome":6522,"ĠSpring":6523,"Ġconsistent":6524,"Ġbottom":6525,"Ġcontributions":6526,"1953":6527,"je":6528,"Ġplot":6529,"uer":6530,"Start":6531,"Number":6532,"Ġlif":6533,"Ġtag":6534,"osoph":6535,"rot":6536,"Ġring":6537,"header":6538,"Ġprogress":6539,"CA":6540,"ĠWork":6541,"ifications":6542,"ĠCa":6543,"urt":6544,"roduction":6545,"ĠBoston":6546,"Ġ}\\":6547,"Ġspaces":6548,"Ġfeed":6549,"ograp":6550,"ĠWilliams":6551,"hire":6552,"Ġserve":6553,"Ġstraight":6554,"ĠPhilipp":6555,"oting":6556,"unit":6557,"textsc":6558,"phy":6559,"Ġerrors":6560,")_{":6561,"ĠBern":6562,"Ġgeneration":6563,"Ġdecla":6564,"Ġability":6565,"graph":6566,"json":6567,"ĠBet":6568,"enty":6569,"kes":6570,"'_":6571,"ilation":6572,"ĠHead":6573,"Ġspread":6574,"Ġfoot":6575,"acter":6576,"Ġvs":6577,"ĠElect":6578,"Ġcompletely":6579,"Ġsignificantly":6580,"1949":6581,"ĠÅ":6582,"olt":6583,"~$\\":6584,"ĠGeorgia":6585,"property":6586,"mail":6587,"Version":6588,"Ġsays":6589,"urban":6590,"gg":6591,"contin":6592,"Ġeth":6593,"Ġrecomm":6594,"ĠLang":6595,"unfinished":6596,"Ġshowed":6597,"ãģ":6598,"Hel":6599,"fect":6600,"Ġordered":6601,"Ġassumed":6602,"ĠPlaces":6603,"white":6604,"ĠJohnson":6605,"Component":6606,"nes":6607,"Ġmovie":6608,"Ġflight":6609,"Ġdespite":6610,"Ã±":6611,"Dist":6612,"Ġvertices":6613,"ĠBoth":6614,"Ġnone":6615,"Ġbelieved":6616,"Ġedges":6617,"vest":6618,"Ġmachine":6619,"ervices":6620,"United":6621,"Ġcitiz":6622,"ĠHence":6623,"abeth":6624,"project":6625,"Ġcatch":6626,"Ġvote":6627,"dim":6628,"ĠHung":6629,"ĠTheatre":6630,"Ac":6631,"Ġactual":6632,"Rem":6633,"Ġscene":6634,"Sec":6635,"Ġshoot":6636,"Ġprocedure":6637,"La":6638,"Ġofficers":6639,"Ġsister":6640,"ĠEach":6641,"subsubsection":6642,"Ġstrategy":6643,"Run":6644,"onia":6645,"aylor":6646,"Ġtold":6647,"ĠCoast":6648,"Prov":6649,"Ġamplit":6650,"Ġcorresponds":6651,"Child":6652,"Ġclubs":6653,"lers":6654,"Description":6655,"Ġwalk":6656,"Ġtechniques":6657,"1000":6658,"Top":6659,"iency":6660,"ĠBuild":6661,"occer":6662,"Ġlies":6663,")}(":6664,"Attribute":6665,"Ġreduce":6666,"Ġresol":6667,"DB":6668,"TP":6669,"arters":6670,"Ġutil":6671,"ĠEastern":6672,"Ġmuseum":6673,"Ġsitu":6674,"Ġfeel":6675,"oir":6676,"Ġhelped":6677,"Ġcru":6678,"Ġmunicipality":6679,"Ġsteps":6680,"Ġapprop":6681,"Ġactions":6682,"ĠProgram":6683,"Ġsociety":6684,"Ġsuc":6685,"HE":6686,"1951":6687,"Ġconstraints":6688,"Function":6689,"Ġ+=":6690,"ĠOxford":6691,"poration":6692,"Ġturned":6693,"Ġassigned":6694,"Eq":6695,"ĠBal":6696,"Ġdepict":6697,"Ġthrows":6698,"Ġhockey":6699,"erse":6700,"ĠStan":6701,"Ġinner":6702,"asi":6703,"pped":6704,"ĠIslam":6705,"Ġbad":6706,"arser":6707,"ĠSenate":6708,"plete":6709,"ounds":6710,"Ġacquired":6711,"oded":6712,"Ġasked":6713,"Don":6714,"ÅĤ":6715,"Ġachieved":6716,"Ġinequality":6717,")^{\\":6718,"}^*":6719,"Ġprofessor":6720,"British":6721,"rance":6722,"ĠDec":6723,"Ġcells":6724,"Art":6725,"ĠMoreover":6726,"num":6727,"Ġprojects":6728,"OP":6729,"itage":6730,"Ġdetection":6731,"zero":6732,"ĠSee":6733,"Ġvon":6734,"ĠProject":6735,"ĠCorps":6736,"ĠSecretary":6737,"aturing":6738,"ĠSte":6739,"}$-":6740,"ĠCy":6741,"Ġtor":6742,"Ġfle":6743,"Ġsites":6744,"ĠScottish":6745,"Ġpain":6746,"Ġcovered":6747,"lets":6748,"INE":6749,"ione":6750,"ĠGood":6751,"Ġfamous":6752,"Ġdoc":6753,"tained":6754,"Ġcities":6755,"Ġgiving":6756,"Ġconflict":6757,"secut":6758,"rong":6759,"miss":6760,"xml":6761,"Ġreli":6762,"jav":6763,"Ġremain":6764,"Min":6765,"Ġâ":6766,"Ġauthors":6767,"undred":6768,"forall":6769,"Ġfil":6770,"abilities":6771,"Ġpurpose":6772,"rium":6773,"Ġsampl":6774,"onto":6775,"Ġassumption":6776,"Ġsimulations":6777,"Ġpersonnel":6778,"Ġproved":6779,"Ġexception":6780,"ĠNone":6781,"YPE":6782,"arant":6783,"=-":6784,"{{":6785,"SM":6786,"Ġorganizations":6787,"ĠBlue":6788,"annels":6789,"ribe":6790,"Ġfraction":6791,"Gu":6792,"Ġcalculated":6793,"Ġsucceed":6794,"Ġdiscovered":6795,"ĠTre":6796,"yer":6797,"Ġpairs":6798,"Des":6799,"while":6800,"last":6801,"Ġangle":6802,"ĠBre":6803,"Ġextract":6804,"lie":6805,"ez":6806,"Default":6807,"ĠSand":6808,"Ġresources":6809,"clos":6810,"poses":6811,"ĠColumbia":6812,"una":6813,"Ġbit":6814,"âĢľ":6815,"Ġdepends":6816,"Ġopport":6817,"AME":6818,"Ġthings":6819,"orb":6820,"Ġcoefficients":6821,"Ġslightly":6822,"sto":6823,"More":6824,"cases":6825,"mt":6826,"Ġimprove":6827,"Ġoffered":6828,"writer":6829,"ĠHig":6830,"LP":6831,"ĠChild":6832,"btn":6833,"Ġconducted":6834,"Ġscript":6835,"uri":6836,"Ġrates":6837,"Ġcircle":6838,"Ġtrained":6839,"pa":6840,"Ġadopted":6841,"atalog":6842,"itionally":6843,"hom":6844,"ãĥ":6845,"Here":6846,"ternet":6847,"Ġquery":6848,"Ġsimulation":6849,"Ġlanguages":6850,"Ġbrand":6851,"ĠPop":6852,"Ġregional":6853,"Ġminim":6854,"Ġstatistics":6855,"Ġincreases":6856,"Writ":6857,"ĠĠĠĠĠĠĠĠĠĠĠĠĊ":6858,"Const":6859,"ĠCard":6860,"Ġaspect":6861,"iffer":6862,"ĠJr":6863,"Ġpropag":6864,"ĠMiddle":6865,"Ġexpressed":6866,"ricts":6867,"ifact":6868,"Ġvirtual":6869,"Ġdead":6870,"orig":6871,"ĠLatin":6872,"ĠJean":6873,"Ġdrug":6874,"ĠVan":6875,"Ġoccurs":6876,"Ġesc":6877,"ĠRay":6878,"ructure":6879,"Ġquad":6880,"thur":6881,"Row":6882,"ĠDevelopment":6883,"ĠOk":6884,"ĠMany":6885,"Ġalt":6886,"Ġcombination":6887,"Ġwanted":6888,"Ġnearby":6889,"Ġlattice":6890,"ĠWay":6891,"akers":6892,"Ġbey":6893,"neg":6894,"Sche":6895,"Ġsomething":6896,"ĠCr":6897,"ĠMov":6898,"Ġcycl":6899,"1936":6900,"Factory":6901,"ĠSpe":6902,"Ġearned":6903,"olute":6904,"amental":6905,"Ġtensor":6906,"ĠBang":6907,"iable":6908,")^{-":6909,"icity":6910,"Ġmeasurements":6911,"ighter":6912,"ĠColor":6913,"Ġplans":6914,"Ġcompeted":6915,"acing":6916,"ĠFar":6917,"ĠLog":6918,"ympt":6919,"Ġdivided":6920,"tings":6921,"Next":6922,"Ġrisk":6923,"Ã£":6924,"*/":6925,"ĠCreek":6926,"ĠPolish":6927,"Ġexternal":6928,"Ġrelevant":6929,"Ġcontained":6930,"ĠEnter":6931,"ĠLater":6932,"ĠEgypt":6933,"vol":6934,"rypt":6935,"teen":6936,"Ġparties":6937,"ĠSu":6938,"utenant":6939,"Action":6940,"Ġ+\\":6941,"ĠHor":6942,"ographic":6943,"Ġbegin":6944,"ĠAtt":6945,"Ġsaying":6946,"Ġflat":6947,"Filter":6948,"ĠBroad":6949,"Ġquite":6950,"Dem":6951,"enger":6952,"cd":6953,"Desc":6954,"Ġstories":6955,"ĠMid":6956,"fit":6957,"}}^":6958,"Ġscalar":6959,"Ġdenotes":6960,"ĠSea":6961,"ĠData":6962,"faces":6963,"ilib":6964,"Ġcelebr":6965,"pmatrix":6966,"orough":6967,"Ġbeyond":6968,"ĠStation":6969,"Ġproceed":6970,"ĠGame":6971,"ederation":6972,"Ġansw":6973,"1918":6974,"OC":6975,"Ġlibrary":6976,"ĠKorea":6977,"ĠEqu":6978,"ĠSpecial":6979,"Ġexchange":6980,"LASS":6981,"Ġstable":6982,"Ġreconst":6983,"Ġattract":6984,"Ġstrict":6985,"Ġmeasures":6986,"Ġmetal":6987,"ĠJes":6988,"\"]":6989,"Ġlaws":6990,"ulpt":6991,"Ġletter":6992,"1938":6993,"refix":6994,"ĠHong":6995,"gers":6996,"ĠAlexander":6997,"sche":6998,"Ġinstall":6999,"ader":7000,"Ã¡n":7001,"ĠBerlin":7002,"Ġlot":7003,"cat":7004,"zech":7005,"150":7006,"show":7007,"Ġremove":7008,"Ġhoriz":7009,"entry":7010,"{$\\":7011,"uries":7012,"ĠAv":7013,"Return":7014,"Ġprep":7015,"Ġgenerate":7016,"dney":7017,"Ġbridge":7018,"Ġprobably":7019,"ĠID":7020,"ulf":7021,"Ġsegment":7022,"Figure":7023,"Sing":7024,"ĠBa":7025,"ĠBu":7026,"){\\":7027,"ĠDar":7028,"Ġmarriage":7029,"Ġserver":7030,"lax":7031,"Ġcurves":7032,"ogene":7033,"chester":7034,"Ġappearances":7035,"Port":7036,"Ġlives":7037,"Ġdistributions":7038,"Ġrapid":7039,"Ġyouth":7040,"ocket":7041,"OL":7042,"Ġproviding":7043,"Ġapproaches":7044,"Ġconcert":7045,"SL":7046,"Ġweb":7047,"Ġawards":7048,"REF":7049,"Ġeastern":7050,"Ġharm":7051,"True":7052,"Ġfort":7053,"description":7054,"Window":7055,"posite":7056,"oped":7057,"Ġinteresting":7058,"Ġcoming":7059,"eld":7060,"bas":7061,",âĢĿ":7062,"rovers":7063,"ĠWis":7064,"Link":7065,"ologist":7066,"Ġcrew":7067,"Ġ{@":7068,"bot":7069,"aa":7070,"icine":7071,"newcommand":7072,"find":7073,"Ġbuff":7074,"Hz":7075,"Equals":7076,"Ġquickly":7077,"DP":7078,"chers":7079,"sen":7080,"Ġassign":7081,"Ġfifth":7082,"Ġhar":7083,"system":7084,"eller":7085,"dx":7086,"perp":7087,"Arg":7088,")\\\\":7089,"Ġonto":7090,"ailed":7091,"SR":7092,"Ġdistingu":7093,"illy":7094,"Ġheart":7095,"hu":7096,"Cal":7097,"Ġhouses":7098,"iate":7099,"nowled":7100,"NO":7101,"Ġflag":7102,"Ġjoin":7103,"Ġorient":7104,"Ġalleg":7105,"ptr":7106,"While":7107,"Ð»":7108,"Ġbaseball":7109,"Ġanalog":7110,"ĠKenn":7111,"Ġalgorithms":7112,"[\"":7113,"Ġreform":7114,"Ġhospital":7115,"Ġdisk":7116,"Ġmis":7117,"${":7118,"even":7119,"ĠNight":7120,"Ġdecom":7121,"Ġstrength":7122,"ĠInst":7123,"Ġprimarily":7124,"Ġreally":7125,"Ġloop":7126,"Ġrevealed":7127,"Ġintroduce":7128,"ture":7129,"Ġfriends":7130,"ibr":7131,"Ġtransferred":7132,"push":7133,"Music":7134,"Ġign":7135,"alities":7136,"imer":7137,"hr":7138,"ĠVictoria":7139,"Ġeasy":7140,"Ġexactly":7141,"Ġitems":7142,"car":7143,"Ġcultural":7144,"Ġtheore":7145,"Ġmanaged":7146,"Load":7147,"Ob":7148,"Ġdepth":7149,"ĠEst":7150,"eli":7151,"});":7152,"Ġemp":7153,"rawn":7154,"Ġdemand":7155,"istical":7156,"1937":7157,"aver":7158,"Ðº":7159,"ĠArgent":7160,"udes":7161,"amin":7162,"anged":7163,"peror":7164,"Ġtroops":7165,"innes":7166,"Ġworkers":7167,"atically":7168,"Ġfavor":7169,"Ġsusp":7170,"cr":7171,"meta":7172,"igger":7173,"Ġnam":7174,"vin":7175,"ĠUr":7176,"Ġast":7177,"Ġauto":7178,"Ġvary":7179,"Ġsections":7180,"ĠTri":7181,"src":7182,"iger":7183,"ĠOlympic":7184,"ĠAndrew":7185,"ĠRegiment":7186,"Ġreceive":7187,"ĠPolice":7188,"Ġ((":7189,"ĠLittle":7190,"ective":7191,"Ġexecutive":7192,"ĠHospital":7193,"ĠBir":7194,"ifies":7195,"Ġwidely":7196,"ci":7197,"^{+":7198,"Ġfiles":7199,"uler":7200,"status":7201,">>":7202,"Ġtouch":7203,"second":7204,"Ġalternative":7205,"Ġfre":7206,"$).":7207,"Ġparallel":7208,"Ġpp":7209,"\\|_{":7210,"ĠCommon":7211,"sime":7212,"IA":7213,"Ġhydro":7214,"ĠJackson":7215,"Ġexpatriate":7216,"pack":7217,"ĠFer":7218,"FONT":7219,"mad":7220,"Ġpromoted":7221,"Ġfair":7222,"Ġdiss":7223,"Ġfirm":7224,"Tem":7225,"Ġcommonly":7226,"ocated":7227,"Create":7228,"sign":7229,"ĠSund":7230,"Ġcategor":7231,"Ġcorrelation":7232,"buf":7233,"Ġdraft":7234,"img":7235,"Ġgoes":7236,"Ġissued":7237,"Austral":7238,"ryst":7239,"simeq":7240,"ĠFour":7241,"ĠIslands":7242,"Ġinteger":7243,"dep":7244,"ĠMot":7245,"Ġsynt":7246,"backs":7247,"NR":7248,"actor":7249,"Ġmorph":7250,"itzer":7251,"Ġepisodes":7252,"ĠNetwork":7253,"amber":7254,"ĠEliz":7255,"Command":7256,"ori":7257,"Ġthr":7258,"found":7259,"rect":7260,"Ġwinner":7261,"Ġoil":7262,"Ġgrid":7263,"Ġcat":7264,"World":7265,"ntario":7266,"emet":7267,"ropical":7268,"Ġthick":7269,"navbar":7270,"Ġleaves":7271,".~(\\":7272,"Ġsal":7273,"endix":7274,"innesota":7275,"ĠHome":7276,"Ġimplementation":7277,"Ġprovince":7278,"rass":7279,"Web":7280,"Ġphen":7281,"Ġestimates":7282,"Ġinform":7283,"ĠOfficial":7284,"Ġsupp":7285,"Cast":7286,"Ġpartial":7287,"Ġsector":7288,"Ġsched":7289,"Äį":7290,"Ġcomputed":7291,"ĠÂ£":7292,"Ġorb":7293,"ruck":7294,"ennes":7295,"General":7296,"Ġversions":7297,"ĠBand":7298,"ĠWater":7299,"ictionary":7300,"pes":7301,"These":7302,"Disc":7303,"University":7304,"Ġwhy":7305,"yo":7306,"ĠBC":7307,"Ġensure":7308,"ĠViet":7309,"Ġinvariant":7310,"Dec":7311,"private":7312,"Format":7313,"Ġsingular":7314,"120":7315,"tik":7316,"Ä±":7317,"ĠPoint":7318,"ymmet":7319,"ĠCorn":7320,"ĠOp":7321,"Ġfellow":7322,"ĠCat":7323,"plex":7324,"maz":7325,"Ġorganized":7326,"Ġtypical":7327,"Ġmedian":7328,"Ġcycle":7329,"Max":7330,"'.":7331,"ĠStand":7332,"Ġneighborhood":7333,"Ġregime":7334,"aug":7335,"Ġvoice":7336,"endif":7337,"Ġacting":7338,"anta":7339,"Our":7340,"})$.":7341,"Ġthreshold":7342,"ĠKen":7343,"she":7344,"Rev":7345,"$$\\":7346,"Ġleaders":7347,"Ġintended":7348,"Ġmodes":7349,"Ġbus":7350,"Ġcouncil":7351,"Ġconfirmed":7352,"ĠPubl":7353,"AV":7354,"pool":7355,"ronze":7356,"}}^{":7357,"anning":7358,"Ġefforts":7359,"params":7360,")}{\\":7361,"ĉĠĠĠ":7362,"Ġshared":7363,"Ġcreation":7364,"Null":7365,"hol":7366,"Me":7367,"Pol":7368,"ontal":7369,"pop":7370,"Ġsuggested":7371,"Ġindicates":7372,"etherlands":7373,"Ġsqu":7374,"ais":7375,"Ġsecondary":7376,"ĠWild":7377,"Ġcalc":7378,"ABLE":7379,"Ġtrial":7380,"ĠKorean":7381,"zo":7382,"PP":7383,"agraph":7384,"Ġtasks":7385,"Ġseem":7386,"tains":7387,"Page":7388,"Ġnewspaper":7389,"\"|":7390,"igration":7391,"float":7392,"ĠFollowing":7393,"omer":7394,"sort":7395,"ucky":7396,"expected":7397,"Ã©e":7398,"You":7399,"Will":7400,"Ġarbitrary":7401,"ĠJustice":7402,"ĠMinistry":7403,"ransp":7404,"Sch":7405,"Ġpurs":7406,"Ġowner":7407,"emble":7408,"Ġmarked":7409,"sole":7410,"Tag":7411,"Ã¸":7412,"1935":7413,"close":7414,"$^{-":7415,"ĠAff":7416,"Ġassistant":7417,"Ġprogramming":7418,"tree":7419,"|}":7420,"Ġoperating":7421,"Ġdedicated":7422,"also":7423,"1919":7424,"ĠRegion":7425,"Ġinstr":7426,"else":7427,"Last":7428,"anth":7429,"Ġnation":7430,"ĠSydney":7431,"Personal":7432,"phia":7433,"([":7434,"ĠSupreme":7435,"ĠBBC":7436,"Po":7437,"essages":7438,"update":7439,"Ġarguments":7440,"asure":7441,"Ġresidents":7442,"ponents":7443,"site":7444,"Ġconstitu":7445,"ND":7446,"ervative":7447,"omorphic":7448,"orning":7449,"iants":7450,"Ã£o":7451,"fs":7452,"Ġpra":7453,"Ġbinary":7454,"Ġfont":7455,"Ġreflect":7456,"obj":7457,"Polit":7458,"ĠTechnology":7459,"ĠWilson":7460,"ãĤ":7461,"Ġnuclear":7462,"ĠLes":7463,"prob":7464,"Ġarrived":7465,"ĠPrize":7466,"remark":7467,"Ġstrongly":7468,"Theorem":7469,"Ġcaptured":7470,"RL":7471,"Ġattacks":7472,"efined":7473,"Ġdifferences":7474,"adian":7475,"Ġss":7476,"onym":7477,"Ġsort":7478,"Thus":7479,"weg":7480,"Ġsoldiers":7481,"present":7482,"Ġefficient":7483,"inson":7484,"ĠRun":7485,"So":7486,"yes":7487,"Ġgraduated":7488,"Ġassociation":7489,"EL":7490,"Ġways":7491,"ĠPen":7492,"PA":7493,"bullet":7494,"ĠBoy":7495,"tri":7496,"Cor":7497,"Association":7498,"1914":7499,"itory":7500,"iced":7501,"Ġtun":7502,"place":7503,"otted":7504,"Ġspatial":7505,"Ġsymmetric":7506,"Ev":7507,"bec":7508,"zer":7509,"ĠDaniel":7510,"Right":7511,"Ġhonor":7512,"./":7513,"Ġarticles":7514,"////////////////":7515,"filter":7516,"ĠEconom":7517,"Background":7518,"hor":7519,"etch":7520,"Ġdiscussion":7521,"Tra":7522,"Ġmaterials":7523,"nic":7524,"Ġalongside":7525,"ĠFederal":7526,"ĠRog":7527,"Ġadministration":7528,"Ġinstrument":7529,"Ġcosm":7530,"ĠST":7531,"DD":7532,"Ġgun":7533,"dy":7534,"ancing":7535,"vector":7536,"Ġinteractions":7537,"Ġmill":7538,"odot":7539,"Ġtalk":7540,"Ġpure":7541,"ĠProfessor":7542,"Ġextrem":7543,"Ġresist":7544,"ĠLo":7545,"ĠNS":7546,"format":7547,"ĠBi":7548,"alion":7549,"leton":7550,"Ġnav":7551,"ĠTaylor":7552,"INT":7553,"adelphia":7554,"Ġdependence":7555,"output":7556,"Ġfeaturing":7557,"Ġpartn":7558,"emy":7559,"Ġallowing":7560,"Ġcoordinates":7561,"Ġbomb":7562,"\\_":7563,"1933":7564,"ĠMuslim":7565,"room":7566,"ĠOntario":7567,"picture":7568,"Vis":7569,"Ġrare":7570,"std":7571,"Case":7572,"ĠAirport":7573,"Init":7574,"ensions":7575,"Ġpriv":7576,"ĠAk":7577,"Ġut":7578,"spe":7579,"Ġ=\\":7580,"umption":7581,"1928":7582,"ĠSom":7583,"Ġrepresenting":7584,"ni":7585,"Ġsession":7586,"conf":7587,"ĠLight":7588,"mapsto":7589,"het":7590,"Ġhypot":7591,"ĠBell":7592,"Ġindicate":7593,"Ġsport":7594,"ĠVilla":7595,"ĠOs":7596,"Ġaccepted":7597,"Ġprominent":7598,"Ġseems":7599,"Ġmatrices":7600,"Ġacademic":7601,"perial":7602,"Ġtesting":7603,"Current":7604,"tikz":7605,"ĠHuman":7606,"Ġacts":7607,"Ġtests":7608,"1929":7609,"Ġinh":7610,"Ġadministrative":7611,"ashion":7612,"Ġpropos":7613,"Ġancient":7614,"ĠSant":7615,"rowser":7616,"alysis":7617,"container":7618,"Ġtal":7619,"ami":7620,"Output":7621,"dule":7622,"Ġdigital":7623,"Ġaxis":7624,"Ġ$$":7625,"olicy":7626,"ĠLew":7627,")_":7628,"chor":7629,"ĠLag":7630,"ĠJeff":7631,"aki":7632,"1917":7633,"South":7634,"fri":7635,"ĠBrig":7636,"cope":7637,"iated":7638,"ĠPrime":7639,"ĠJoe":7640,"Ġspectra":7641,"Ġweap":7642,"ĠBatt":7643,"estab":7644,"Ġempty":7645,"cut":7646,"ĠRome":7647,"'}":7648,"Ġrough":7649,"ĠBon":7650,"ĠNations":7651,"udio":7652,"%)":7653,"ĠRaj":7654,"ĠJon":7655,"ĠBab":7656,"Ġwall":7657,"bourne":7658,"Ġidentify":7659,"ĠRod":7660,"Ġlisting":7661,"high":7662,"ĠModel":7663,"Ġdetailed":7664,"bre":7665,"ĠKey":7666,")$-":7667,"ported":7668,"ĠMain":7669,"Ġsla":7670,"consin":7671,"1934":7672,"chestra":7673,"multi":7674,"Ġcompare":7675,"Ġconvergence":7676,"ĠSciences":7677,"ĠThree":7678,"Ġoccurred":7679,"Ġcert":7680,"Ġagreed":7681,"Ġtransformation":7682,"Ġnarrow":7683,"Ġsculpt":7684,"PL":7685,"Ġrise":7686,"MD":7687,"Ġtermin":7688,"eman":7689,"ĠSports":7690,"Ġdisease":7691,"Ġsilver":7692,"scope":7693,"CR":7694,"xx":7695,"Ġera":7696,"Ġpit":7697,"Ġswitch":7698,"Ġobserve":7699,"hing":7700,"ĠLuc":7701,"odies":7702,"ĠQueens":7703,"Ġwor":7704,"Ġvisit":7705,"Ġinterval":7706,"Ġachieve":7707,"').":7708,"quarters":7709,"such":7710,"urer":7711,"ĠCommand":7712,"Ġ&=&":7713,"ĠCorporation":7714,"ĠDer":7715,"athan":7716,"My":7717,"orship":7718,"ĠÎ":7719,"Ġwav":7720,"Ġunderstand":7721,"ĠAvenue":7722,"Ġathlet":7723,"Ġcandidates":7724,"blue":7725,"Controller":7726,"Ġoffset":7727,"tan":7728,"Dev":7729,"desc":7730,"PRO":7731,"aught":7732,"ĠGuard":7733,"ĠCambridge":7734,"ĠRoute":7735,"Ġencou":7736,"olitan":7737,"author":7738,"Ġmodified":7739,"ĠTod":7740,"Ġyields":7741,"IO":7742,"Ġhundred":7743,"Ġven":7744,"annot":7745,"erc":7746,"1932":7747,"Ġscope":7748,"Section":7749,"ĉĉĊ":7750,"~~~~":7751,"ĠEp":7752,"1910":7753,"Ġmusicians":7754,"Direct":7755,"ĠPower":7756,"icate":7757,"ctu":7758,"success":7759,"sex":7760,"BU":7761,"Ġaccur":7762,"'(":7763,"ĠLim":7764,"raq":7765,"Task":7766,"ĠTok":7767,"Ġlargely":7768,"ĠToronto":7769,"water":7770,"zh":7771,"Ġ${":7772,"Ġasympt":7773,"Ġtraffic":7774,"chron":7775,"del":7776,"tack":7777,"phas":7778,"uous":7779,"elligence":7780,"raine":7781,"ĠMedia":7782,"ĠNetherlands":7783,"ĠRevolution":7784,"ĠGer":7785,"ito":7786,"ĠMinnesota":7787,"ĠPlan":7788,"Ġcouple":7789,"Ġbehavi":7790,"1900":7791,"ĠGaussian":7792,"islative":7793,"ĠAsh":7794,"à¸":7795,"Dat":7796,"ilibrium":7797,"akh":7798,"Ġwinners":7799,"Ġlabor":7800,"ologies":7801,"ĠTurk":7802,"ĠSwedish":7803,"Ġdifferential":7804,"aret":7805,"TO":7806,"ĠUSA":7807,"older":7808,"sch":7809,"Ġmeasurement":7810,"Ġfine":7811,"lig":7812,"Ġcloud":7813,"Ġrenamed":7814,"Ġappropriate":7815,"ĠRead":7816,"Ġcreating":7817,"Ġplanned":7818,"Label":7819,"---":7820,"Ġnotable":7821,"ĠOrgan":7822,"SON":7823,"arrier":7824,"allow":7825,"VD":7826,"Ġlett":7827,"Ġlocations":7828,"step":7829,"Ġchannels":7830,"ĠDuke":7831,"Ġshowing":7832,"Ġfacilities":7833,"fa":7834,"Ġsides":7835,"ĠAnton":7836,"ĠElizabeth":7837,"Ġprincipal":7838,"Ġstellar":7839,"coming":7840,"ql":7841,"ĠAnother":7842,"1924":7843,"Valid":7844,"SA":7845,"displaystyle":7846,"Ġpartition":7847,"mc":7848,"Ġproport":7849,"Ġcommunication":7850,"aska":7851,"Ġrural":7852,"jected":7853,"oned":7854,"tax":7855,"ĠInit":7856,"rane":7857,"ĠHT":7858,"Ġvectors":7859,"instance":7860,"Ġexpanded":7861,"Ġofficially":7862,"wait":7863,"Ġroles":7864,"ĠEX":7865,"Ġoffers":7866,"Ġparticipated":7867,"ĠUN":7868,"sect":7869,"two":7870,"arc":7871,"Ġrugby":7872,"Ġtwice":7873,"ĠNC":7874,"Ġoptical":7875,"His":7876,"service":7877,"Stat":7878,"ĠMaster":7879,")},":7880,"Ġdeliver":7881,"orney":7882,"DA":7883,"Ġdegrees":7884,"Ġminister":7885,"owa":7886,"thon":7887,"1927":7888,"ĠAthlet":7889,"ynamic":7890,"Ġreviews":7891,"Check":7892,"Biography":7893,"Ġpartner":7894,"Ġreports":7895,"Ġparish":7896,"Ġgrew":7897,"ĠStadium":7898,"Ġraces":7899,"itled":7900,"ĠMedal":7901,"Ġstrateg":7902,"emetery":7903,"Ġhandle":7904,"ĠSab":7905,"bro":7906,"efe":7907,"ĠHand":7908,"Length":7909,"$;":7910,"Ġphysics":7911,"aser":7912,"ĠCub":7913,"si":7914,"lags":7915,"ĠBol":7916,"mitted":7917,"lan":7918,"ĠPakistan":7919,"ois":7920,"Ġsolo":7921,"GC":7922,"May":7923,"1922":7924,"Ġideal":7925,"ĠAst":7926,"Ġpiece":7927,"MB":7928,"oor":7929,"1931":7930,"Ġreduction":7931,"_.":7932,"acc":7933,"Ġtechnique":7934,"ĠPass":7935,"Ġvotes":7936,"scill":7937,"results":7938,"German":7939,"Red":7940,"Ġwing":7941,"Ġdestroyed":7942,"Ġfigures":7943,"VID":7944,"ustain":7945,"Ġfrag":7946,"Ġpal":7947,"Ġorders":7948,"Ġcitizens":7949,"Ġengineering":7950,"Ġmanifold":7951,"International":7952,"///":7953,"root":7954,"Ġsubsequent":7955,"Ġfailure":7956,"Ġlie":7957,"Ġpsych":7958,"Ġly":7959,"proposition":7960,"Ġblocks":7961,"Mat":7962,"Ġalone":7963,"Mode":7964,"Ġpseud":7965,"sd":7966,"aren":7967,"ĠCommunity":7968,"Ġimportance":7969,"ĠBad":7970,"utt":7971,"Ġmagnitude":7972,"Ġdescribes":7973,"ĠBusiness":7974,"ĠSerb":7975,"ĠVen":7976,"wegian":7977,"UI":7978,"menu":7979,"hent":7980,"Acc":7981,"Ġsurn":7982,"Ġmasses":7983,"Ġdelay":7984,"Ġpull":7985,"PO":7986,"ĠGener":7987,"estic":7988,"Ġdeclared":7989,"Ġcontrovers":7990,"Ġ[]":7991,"models":7992,"Ġobservation":7993,"ĠRen":7994,"Ġsatisfy":7995,"\\{\\":7996,"Ġdoub":7997,"ĠPhys":7998,"Ġchemical":7999,"ĠMethod":8000,"Ġfloor":8001,"Ġinstitutions":8002,"ĠPremier":8003,"sey":8004,"Ãº":8005,"Ġconference":8006,"card":8007,"Ġhouseholds":8008,"Ġequipment":8009,"rank":8010,"fort":8011,"offset":8012,"Local":8013,"ĠTai":8014,"Ġtrees":8015,"remove":8016,"Ġdoing":8017,"ĠBridge":8018,"Ġchampion":8019,"Ġperforming":8020,"response":8021,"udget":8022,"Ġassess":8023,"Ġdeploy":8024,"French":8025,"rie":8026,"rage":8027,"Ġclean":8028,"ĠSanta":8029,"Ġserves":8030,"Ġ{}":8031,"Ġserious":8032,"rog":8033,"Ġcomposition":8034,"Ġattend":8035,"ĠBrad":8036,"iang":8037,"proto":8038,"Ġnucle":8039,"ĠWisconsin":8040,"Ġ<!--":8041,"ĠSquad":8042,"$~":8043,"Ġthous":8044,"Ġminimal":8045,"Ġkept":8046,"Ġgap":8047,"ubb":8048,"Ġgrowing":8049,"abil":8050,"ĠPy":8051,"cref":8052,"ĠSus":8053,"VER":8054,"Ġfreedom":8055,"hard":8056,"Ġstreet":8057,"1921":8058,"lyn":8059,"Ġlayers":8060,"Ġbeam":8061,"ĉĉĉĉĉĉĉĉ":8062,"acent":8063,"hetic":8064,"Ġemployed":8065,"ĠFinally":8066,"1925":8067,"ĠBishop":8068,"_-":8069,"ĠFair":8070,"Ġteacher":8071,"Ġbands":8072,"prov":8073,"Ġspring":8074,"Ġuns":8075,"Olymp":8076,"Ġelimin":8077,"Ġcancer":8078,"Ġdiam":8079,"imation":8080,"ĠMike":8081,"Ġnotation":8082,"urches":8083,"Ġlic":8084,"ĠSher":8085,"Ġphenomen":8086,"Ġreson":8087,"ĠDespite":8088,"returns":8089,"ĠStephen":8090,"Ġagric":8091,"Ġexc":8092,"rome":8093,"sear":8094,"Ġurl":8095,"Ġpix":8096,"ĠDoug":8097,"ĠĠĠĠĠĠĠĠĠĠĠĠĠĠĠĠĠĠĠĠĠĠĠĠĠĠĠĠĠĠĠĠĠĠĠ":8098,"ego":8099,"(&":8100,"Ġcoal":8101,"ĠAPI":8102,"opes":8103,"ĠStudies":8104,"appe":8105,"Ġnewly":8106,"hedral":8107,"Ġspl":8108,"|_{":8109,"Ġtranslation":8110,"gr":8111,"Ġperman":8112,"Ġgradient":8113,"umes":8114,"Ġhighlight":8115,"osa":8116,"Ġpeace":8117,"direct":8118,"Ġhosted":8119,"Ġpolic":8120,"yal":8121,"zen":8122,"Ġplants":8123,"HS":8124,"Post":8125,"ĠAcc":8126,"Ġdepending":8127,"Ġgirl":8128,"Second":8129,"uv":8130,"ĠJacob":8131,"Ġreasons":8132,"1912":8133,"ĠClark":8134,"Ġpet":8135,"Ġunderstanding":8136,"ĠIndust":8137,"Ġclearly":8138,"watch":8139,"Pat":8140,"Ġhistoric":8141,"jan":8142,"ĠGro":8143,"Ġsurrounding":8144,"Ġfundamental":8145,"ĠOt":8146,"ĠMarsh":8147,"itness":8148,"sor":8149,"Ġguarant":8150,"anga":8151,"prototype":8152,"Script":8153,"eness":8154,"Ġapparent":8155,"Column":8156,"Ġbelieve":8157,"ĠForest":8158,"ĠCirc":8159,"icrosoft":8160,"olis":8161,"regon":8162,"conn":8163,"Ġprediction":8164,"ĠLady":8165,"Ġoscill":8166,"Ġimproved":8167,"1923":8168,"Ġkernel":8169,"ĠFurthermore":8170,"notes":8171,"ĠBla":8172,"common":8173,"ighth":8174,"Ġtitles":8175,"ws":8176,"ME":8177,"Ġheat":8178,"Ġuint":8179,"ĠKir":8180,"}&":8181,"ĠAD":8182,"ĠCLASS":8183,"Ġcapture":8184,"1926":8185,"Ġcars":8186,"Ġmind":8187,"Address":8188,"CON":8189,"imately":8190,"Listener":8191,"cover":8192,"kit":8193,"Ġoptimization":8194,")+\\":8195,"Ġbill":8196,"Women":8197,"MR":8198,"ĠPhiladelphia":8199,"Ġbounds":8200,"Ġtechnical":8201,"})$,":8202,"ĠMember":8203,"Ġnet":8204,"ĠSweden":8205,"ĠHamiltonian":8206,"ĠHREF":8207,"ĠReview":8208,"ĠPers":8209,"ĠĠĠĠĠĠĠĠĠĠĠĠĠĠĠĠĠĠĠĠ":8210,"ogen":8211,"ĠMcC":8212,"ĠFre":8213,"images":8214,"aped":8215,"Song":8216,"ĠHay":8217,"ambig":8218,"Ġcalls":8219,"ĠFI":8220,"Mult":8221,"Ġbegins":8222,"Ġdance":8223,"Public":8224,"ĠWalk":8225,"Server":8226,"Ġtheoretical":8227,"icial":8228,"poss":8229,"onical":8230,"ĠStat":8231,"ipe":8232,"Ġmathemat":8233,"aved":8234,"called":8235,"Ġ\\!":8236,"Ġresulted":8237,"ĠTy":8238,"Ġlimits":8239,"cong":8240,"Ġdefeat":8241,"cular":8242,"ĠCzech":8243,"drop":8244,"Ġodd":8245,"Ġtowns":8246,"ĠRom":8247,"Ġspirit":8248,"organ":8249,"Ġgalaxy":8250,"}}$.":8251,"250":8252,"KE":8253,"stable":8254,"Ġperformances":8255,"mediate":8256,"Ġvertical":8257,"Ġclaims":8258,"Ġwait":8259,"Ġdimensions":8260,"Ġsuccessfully":8261,"unte":8262,"Ġprice":8263,"Ġmotor":8264,"Ġroll":8265,"yard":8266,"Ġsafety":8267,"Ġrecognized":8268,"joy":8269,"cccc":8270,"omot":8271,"Ġisol":8272,"cknowled":8273,"Ġrepresentative":8274,"ĠChris":8275,"ĠKim":8276,"Ġinvolving":8277,"Ġwild":8278,"lapse":8279,"Ġmedalists":8280,"<?":8281,"Ġdamage":8282,"Ġadvantage":8283,"BO":8284,"Sum":8285,"rames":8286,"nergy":8287,"Names":8288,"Ġaffili":8289,"ims":8290,"Ġshell":8291,"III":8292,"Select":8293,"bel":8294,"ĠDam":8295,"clear":8296,"ĠDisc":8297,"ĠKal":8298,"}}$,":8299,"ĠMap":8300,"ĠMedical":8301,"Ġbeat":8302,"Op":8303,"Non":8304,"ĠWhat":8305,"ĠCas":8306,"Olympic":8307,"Ġleadership":8308,"outheast":8309,"dest":8310,"Access":8311,"pur":8312,"Update":8313,"Ġestate":8314,"apore":8315,"Ġcomposer":8316,"Ġrespond":8317,"ello":8318,"Ġhousing":8319,"pg":8320,"mass":8321,"Awards":8322,"Ġblood":8323,"parameter":8324,"Ġfelt":8325,"Ġsettings":8326,"asty":8327,"Ġemphas":8328,"cale":8329,"pers":8330,"ĠVis":8331,"Ġcollected":8332,"Ġindustrial":8333,"ĠPeak":8334,"Ġofficials":8335,"ropolitan":8336,"Ġresear":8337,"restling":8338,")-\\":8339,"kh":8340,"ĠTal":8341,"Ġadding":8342,"mers":8343,"bal":8344,"Ġrecognition":8345,"going":8346,"uly":8347,"pson":8348,"Some":8349,"Ġnovels":8350,"Ġtail":8351,"Ġpiano":8352,"1916":8353,"Ġmassive":8354,"Ġwhereas":8355,"Ġsexual":8356,"Ġsure":8357,"Ġcollabor":8358,"aux":8359,"Nov":8360,"cha":8361,"Ġconj":8362,"leep":8363,"brid":8364,"ensis":8365,"rizona":8366,"oster":8367,"Ġgained":8368,"ilbert":8369,"ĠAdminist":8370,"TC":8371,"anna":8372,"Ġsales":8373,"ocks":8374,"Ġpurchased":8375,"worth":8376,"HL":8377,"ĠSi":8378,"ascript":8379,"ĠBecause":8380,"ĠNaz":8381,"ĠWeek":8382,"Ġlum":8383,"Button":8384,"opher":8385,"oles":8386,"Ġterritory":8387,"1915":8388,"mi":8389,"Lem":8390,"Ġheav":8391,"osophy":8392,"Ġfocused":8393,"ĠAnth":8394,"))$":8395,"Cache":8396,"Ġincident":8397,"Ġcontinues":8398,"Ġtitled":8399,"Ġgets":8400,"ĠTownship":8401,"Ġvehicle":8402,"ĠWinter":8403,"ĠIndones":8404,"Ġpolitics":8405,"Ġrepro":8406,"enna":8407,"living":8408,"ĠAR":8409,"iplom":8410,"Ġsend":8411,"ĠIndiana":8412,"ĠRa":8413,"scape":8414,"ĠBudd":8415,"idel":8416,"Ġconclude":8417,"URL":8418,"ĠMilitary":8419,"Ġfinish":8420,"cow":8421,"illery":8422,"Ag":8423,"Ġurban":8424,"Ġhidden":8425,"Ġrotation":8426,"ĠArthur":8427,"ĠIraq":8428,"Ġcerem":8429,"ogg":8430,"pute":8431,"season":8432,"Ġstarts":8433,"ĠJoh":8434,"Ġinduced":8435,"ennessee":8436,"ĠAli":8437,"Ġtrust":8438,"[(":8439,"ĠWars":8440,"Ġparliament":8441,"ĠGree":8442,"Ġlaunch":8443,"ĠOrig":8444,"ruit":8445,"}({\\":8446,"Ġrect":8447,"Ġcopies":8448,"Ġtend":8449,"Ġinspired":8450,"layout":8451,"ĠFree":8452,"Ġdriver":8453,"ĠFire":8454,"600":8455,"Ġgraphs":8456,"Ġprime":8457,"Ġscientific":8458,"ĠMissouri":8459,"ĠConf":8460,"FR":8461,"'re":8462,"Ġtheme":8463,"tw":8464,"ĠBaron":8465,"Ġregarding":8466,"vo":8467,"Ġdevices":8468,"********************************":8469,"ĠGolden":8470,"Ñĥ":8471,"Ġconsisting":8472,"Ġperfect":8473,"Ġengineer":8474,"attr":8475,"Ġfemales":8476,"Ġscattering":8477,"hbar":8478,"Ġcrime":8479,"Ġnotes":8480,"Ġfunctional":8481,"Ġgranted":8482,"wing":8483,"poral":8484,"ierarch":8485,"ĠTurkey":8486,"inton":8487,"Ġjourn":8488,"Following":8489,"ĠColon":8490,"110":8491,"ordan":8492,"ĠWel":8493,"Ġgeometry":8494,"Ġcharged":8495,"Long":8496,"ĠKansas":8497,"mem":8498,"Ġmedium":8499,"ERR":8500,"ĠMexican":8501,"Ġvehicles":8502,"Que":8503,"ĠMill":8504,"Ġhole":8505,"Ġends":8506,"API":8507,"ĠLev":8508,"igrants":8509,"osis":8510,"ussion":8511,"Ġsuggests":8512,"Ġpaid":8513,"mma":8514,"ĠCaptain":8515,"'),":8516,"Ġdatabase":8517,"Ġquestions":8518,"Ġswim":8519,"}{(":8520,"ĠHun":8521,":</":8522,"Ã¢":8523,"XX":8524,"ĠSon":8525,"floor":8526,"ecute":8527,"ĠVi":8528,"Ġstrugg":8529,"ĠBeach":8530,"Introduction":8531,"ĠHal":8532,"ĠIV":8533,"uing":8534,")}_{":8535,"apped":8536,"lementary":8537,"Ġefficiency":8538,"ika":8539,"Ġraise":8540,"iki":8541,"Although":8542,"Open":8543,"ĠSem":8544,"Ġprocessing":8545,"Ġpenal":8546,"legal":8547,":}":8548,"ĠMunicip":8549,"ads":8550,"Ġcomplexity":8551,"Types":8552,"ĠHan":8553,"Ġlabels":8554,"should":8555,"uint":8556,"ĠHo":8557,"Canadian":8558,"lot":8559,"Ġfiction":8560,"Ġprinciple":8561,"ĠEll":8562,"Ġ{$":8563,"TS":8564,"ĠLind":8565,"Go":8566,"Ġpowerful":8567,"Ġstorage":8568,"ĠWat":8569,"ĠRepresentatives":8570,"Ġresident":8571,"Ġfaculty":8572,"}{|":8573,"Ġinterested":8574,"ĠFinal":8575,"Ġmiles":8576,"Ġdrive":8577,"arse":8578,"uli":8579,"Ġsummar":8580,"Ġranked":8581,"Target":8582,"ogeneous":8583,"Ġvess":8584,"Ġworth":8585,"Ġcontest":8586,"Sportspeople":8587,"riptor":8588,"ĠMun":8589,"etails":8590,"enses":8591,"aling":8592,"Ġabsolute":8593,"forward":8594,"ti":8595,"Ġsubstant":8596,"plications":8597,"Ġinvestigation":8598,"Width":8599,"Ġamplitude":8600,"Ġbillion":8601,"ipage":8602,"pot":8603,"ĠCommun":8604,"pective":8605,"Ġaffected":8606,"ttps":8607,"Ġcontemporary":8608,"Process":8609,"Ġtried":8610,"Ġsubt":8611,"Rad":8612,"Bibliography":8613,"Ġ$.":8614,"Location":8615,"ensed":8616,"itivity":8617,"}$)":8618,"Ġimplemented":8619,":\"":8620,"Ġboy":8621,"Ġlocally":8622,"Ġaband":8623,"Dr":8624,"mosp":8625,"ĠPrim":8626,"Ġdocumentary":8627,"Ġtells":8628,"Ġsuffered":8629,"ĠUsing":8630,"Ġfinding":8631,"COL":8632,"Ġfounder":8633,"rapper":8634,"ĠEngineering":8635,"ĠDown":8636,"Populated":8637,"frame":8638,"Ġexcit":8639,"Tax":8640,"ictures":8641,"ĠRet":8642,"ĠUs":8643,"ultane":8644,"Ġcov":8645,"Ġexplained":8646,"ĠOregon":8647,"ĠMaria":8648,"minipage":8649,"tail":8650,"ĠAh":8651,"Ġremark":8652,"Ġportion":8653,"NE":8654,"vard":8655,"ronic":8656,"Ġextend":8657,"1913":8658,"istent":8659,"ĠKel":8660,"ĠĠĠĠĠĠĠĠĠĠĠĠĠĠĠĠĠĠĠĠĠ":8661,"Ġcommittee":8662,"Ġcolle":8663,"Di":8664,"Ġconsidering":8665,"Therefore":8666,"QL":8667,"ĠPolit":8668,"Offset":8669,"lesssim":8670,"Ġliber":8671,"Ġconvent":8672,"Mark":8673,"Ġorbit":8674,"pet":8675,"ĠManagement":8676,"agnetic":8677,"Ġdistricts":8678,"irement":8679,"Ġbuffer":8680,"Ġsuperv":8681,"Frame":8682,"Ġadvanced":8683,"depend":8684,"ĠLicense":8685,"Ġhabit":8686,"ĠFox":8687,"Ġthermal":8688,"$),":8689,"asters":8690,"SH":8691,"ĠMarg":8692,"Ġdetail":8693,"Container":8694,"Ġinfinite":8695,"Ġcomputational":8696,"Ġopposite":8697,"ĠMic":8698,"=\"../../":8699,"Ġcharacteristic":8700,"$};":8701,"opic":8702,"ĠHard":8703,"western":8704,"Ġstone":8705,"```":8706,"Ġener":8707,"idi":8708,"Ġdefend":8709,"Ġconvex":8710,"Ġbin":8711,"ques":8712,"endar":8713,"Ġangular":8714,"prise":8715,"Ġvisible":8716,"ading":8717,"parse":8718,"Geography":8719,"Ġscales":8720,"Ġspeech":8721,"Var":8722,"Ġ$|\\":8723,"Sources":8724,"Ġ!==":8725,"Left":8726,"ĠDavis":8727,"ĠBh":8728,"IB":8729,"gest":8730,"nections":8731,"orders":8732,"Ġclusters":8733,"Ġplanet":8734,"Order":8735,"ĠCastle":8736,"Do":8737,"Ġaggreg":8738,"Ġhttps":8739,"800":8740,"Layout":8741,"Ġion":8742,"zz":8743,"Ġcool":8744,"Ġfell":8745,"WE":8746,"Ġdoesn":8747,"Ġseats":8748,"Record":8749,"DO":8750,"Cent":8751,"Ġrout":8752,"aga":8753,"Ġacceler":8754,"haps":8755,"ĉĠ":8756,"Ã¼r":8757,"udi":8758,"Ġevol":8759,"\\)":8760,"lain":8761,"Ġportray":8762,"wealth":8763,"Ġpool":8764,"ĠOF":8765,"ĠHart":8766,"ritical":8767,"Using":8768,"ĠAtlantic":8769,"ĠJews":8770,"iÃ³n":8771,"Ġ**":8772,"ĠId":8773,"ician":8774,"Url":8775,"Ġcalculation":8776,"Ġauthorities":8777,"ears":8778,"Ġpowers":8779,"(_":8780,"ĠArray":8781,"ĠSteve":8782,"Ġviews":8783,"ĠBall":8784,"Provider":8785,"Ġfinds":8786,"weet":8787,"Ġpicture":8788,"rine":8789,"Ġclimate":8790,"ordon":8791,"ben":8792,"ĠGallery":8793,"secutive":8794,"control":8795,")\"":8796,"ĠFederation":8797,"ĠCountry":8798,"othing":8799,"ĠPier":8800,"Ġsevent":8801,"Ġimag":8802,"ĠBrook":8803,"ĠOnly":8804,"Ġnamely":8805,"layer":8806,"Ġcomputation":8807,"Ġevaluation":8808,"Ã©s":8809,"clip":8810,"formance":8811,"Ġuncertainty":8812,"Ġneutr":8813,"hs":8814,"Ġspons":8815,"Har":8816,"1911":8817,"ĠAlf":8818,"ĠRon":8819,"Ġnothing":8820,"anned":8821,"Ġvariation":8822,"Ġlosing":8823,"rator":8824,"Ġscholar":8825,"Ġfish":8826,"Ġscoring":8827,"Ġtraject":8828,"life":8829,"uese":8830,"ributed":8831,"power":8832,"Ġil":8833,"Parameter":8834,"&=&":8835,"Ġrefers":8836,"ĠHighway":8837,"ĠSecurity":8838,"Ġcorner":8839,"Ġspecifically":8840,"Ġpossibly":8841,"Ġorth":8842,"Ġarts":8843,"mode":8844,"Ġpassing":8845,"ĠDig":8846,"Ġlen":8847,"Ġprotection":8848,"That":8849,"ĠBru":8850,"ART":8851,"Ġcoordinate":8852,"task":8853,"Ġfacility":8854,"reference":8855,"herent":8856,"Ġrobust":8857,"outs":8858,"1908":8859,")}}":8860,"hbox":8861,"Ġmapping":8862,"Ġzone":8863,"Ġscenario":8864,"Ġserial":8865,"Ġconverted":8866,"ĠTennessee":8867,"aton":8868,"ĠColorado":8869,"Ġattempts":8870,"Tree":8871,"++)":8872,"Ġreferences":8873,"Ġfloat":8874,"Ġdatasets":8875,"West":8876,"arest":8877,"Ġcovers":8878,"ĠSurvey":8879,"Ġyards":8880,"gies":8881,"ĠSlov":8882,"ĠWin":8883,"EQ":8884,"ĠDesign":8885,"ingham":8886,"Ġ[\\":8887,"Ġcoinc":8888,"ĠLewis":8889,"anes":8890,"Two":8891,"Ġinsert":8892,"match":8893,"ĠBack":8894,"ĠPit":8895,"Ġbow":8896,"window":8897,"ĠGh":8898,"former":8899,"Ġattribute":8900,"apes":8901,"Ġrecip":8902,"Range":8903,"]}":8904,"ĠPhilippines":8905,"Ġyounger":8906,"ĠSD":8907,"Ġprepar":8908,"Ġjournalist":8909,"Ġgovernor":8910,"ÃŃa":8911,"Ġmeant":8912,"incial":8913,"ĠLive":8914,"MT":8915,"Ġearth":8916,"ĠWrit":8917,"Ġbright":8918,"atern":8919,"Dep":8920,"resource":8921,"Ġbronze":8922,"ĠFamily":8923,"Ġseconds":8924,"Ġweights":8925,"ĠYour":8926,"Ġrom":8927,"Ġcart":8928,"ĠBaseball":8929,"Entry":8930,"uda":8931,"Ġcrim":8932,"loop":8933,"diag":8934,"Ġcalculations":8935,"Ġfrequently":8936,"javascript":8937,"fn":8938,"ĠMoh":8939,"Ġusual":8940,"Japan":8941,"andra":8942,"Control":8943,"iser":8944,"document":8945,"ĠIl":8946,"Finally":8947,"Ġcab":8948,"Ġtool":8949,"ĠMemorial":8950,"Ġpages":8951,"Ġrepeated":8952,"Ġpatients":8953,"Ġdenoted":8954,"Ġcallback":8955,"Ġadvance":8956,"ifts":8957,"Ġrestaur":8958,"ĠMaryland":8959,"scription":8960,"Ġpublication":8961,"isa":8962,"Ġtaught":8963,"ĠFreder":8964,"Ġsolve":8965,"Ġideas":8966,"Ġlearned":8967,"ifer":8968,"clusive":8969,"Ġsupply":8970,"Ġreturning":8971,"iative":8972,"ĠSav":8973,"ĠNorway":8974,"ĠLeon":8975,"ĠOcean":8976,"stat":8977,"2023":8978,"Ġtrying":8979,"ods":8980,"points":8981,"inations":8982,"^*$":8983,"Ġintroduction":8984,"angular":8985,"phant":8986,"Ġstock":8987,"ĠFile":8988,"Ġprojection":8989,"ATION":8990,"ĠGre":8991,"Ġlock":8992,"ĠRoss":8993,"Configuration":8994,"andy":8995,"Ġmac":8996,"Operation":8997,"ĠDE":8998,"algorithm":8999,"Ġchairman":9000,"Main":9001,"Ident":9002,"Ġtoward":9003,"ictional":9004,"bool":9005,"render":9006,"idge":9007,"255":9008,"ĠAssert":9009,"Ġlooking":9010,"Prot":9011,"Ġturns":9012,"%;":9013,"Ġsubs":9014,"Ġdiscrete":9015,"defined":9016,"Header":9017,"}}_{\\":9018,",{\\":9019,"ĠJunior":9020,"ĠBooks":9021,"ariance":9022,"ĠKer":9023,"Ġauthority":9024,"Ġarms":9025,"Ġadvert":9026,"allet":9027,"Ġobjective":9028,"Ġcampus":9029,"Ġagents":9030,"Ġburied":9031,"PD":9032,"ĠShort":9033,"ĠLabor":9034,"ĠStock":9035,"IST":9036,"master":9037,"Ġnominated":9038,"make":9039,"RS":9040,"ĠForeign":9041,"Ġneural":9042,"Pan":9043,"Ġinterior":9044,"Ġstress":9045,"classes":9046,"Ġclosely":9047,"lable":9048,"green":9049,"ented":9050,"ambiguation":9051,"ĠArizona":9052,"Ġpainting":9053,"Unit":9054,"Ġreceiving":9055,"uy":9056,"Ġsuitable":9057,"Ġextensive":9058,":=":9059,"vee":9060,"issions":9061,"Ġunable":9062,"Ġple":9063,"Ġvillages":9064,"Bundle":9065,"ups":9066,"bat":9067,"=\"_":9068,"Ġmixing":9069,"Ġdesired":9070,"fef":9071,"ĠServices":9072,"-$":9073,"cp":9074,"BB":9075,"Ġletters":9076,"afe":9077,"Ġteaching":9078,"Video":9079,"amm":9080,"Ġeducated":9081,"ĠArea":9082,"Death":9083,"ecutive":9084,"ĠMalays":9085,"Ġbeaut":9086,"ĠMelbourne":9087,"unes":9088,"Ġrepresentations":9089,"ivals":9090,"anges":9091,"Ġtemplate":9092,"Ġcoefficient":9093,"fully":9094,"Ġhands":9095,"Ġcolumns":9096,"Ġouter":9097,"elle":9098,"ĠDor":9099,"ĠMoscow":9100,"Â°":9101,"Ġdesignated":9102,"Ġplanning":9103,"ĠNorm":9104,"irty":9105,"Ġstatistical":9106,"Ġinjury":9107,"ĠExt":9108,",$":9109,"ynasty":9110,"ĠVo":9111,"Vol":9112,"ivated":9113,"Ġcalculate":9114,"interface":9115,"Arch":9116,"Ġdidn":9117,"Ġintegration":9118,"Ġrequirements":9119,"Ġsatisfying":9120,"Ġdaily":9121,"Ġaccident":9122,"oli":9123,"ĠDa":9124,"Ġcontrolled":9125,"Ġstability":9126,"...,":9127,"ĠTrust":9128,"Ġnotice":9129,"Ġshop":9130,"Interface":9131,"ĠSuch":9132,"ĠInformation":9133,"tfrac":9134,"Ġarrested":9135,"MO":9136,"ĠSquadron":9137,"offs":9138,"een":9139,"Ġsave":9140,"Ġgetting":9141,"Ġinher":9142,"Ġtwenty":9143,"ĠBrother":9144,"Ġrecall":9145,"cycl":9146,"Each":9147,"High":9148,"Ġargs":9149,"Ġcancell":9150,"ĠFellow":9151,"Ġadjacent":9152,"Ġreaction":9153,"Ġconsecutive":9154,"Ġvice":9155,"Ġbriefly":9156,"ZE":9157,"joint":9158,"Ġcauses":9159,"Ġdoctor":9160,"Ġintersection":9161,"Å«":9162,"ceived":9163,"uum":9164,"Ð²":9165,"Ġunderlying":9166,"ĠCP":9167,"Ġ(;":9168,"Australian":9169,"]);":9170,"Plot":9171,"ĠDrag":9172,"Ġjudge":9173,"Ġtheatre":9174,"Pass":9175,"coln":9176,"Ġlemma":9177,"Ġyellow":9178,"ĠSingapore":9179,"}\\,\\":9180,"Write":9181,"Ġcategories":9182,"Ġcompat":9183,"ĠMir":9184,"full":9185,"sv":9186,"Ġconven":9187,"ĠConnect":9188,"ĠAffairs":9189,"Ġwaves":9190,"Best":9191,"onder":9192,"mathop":9193,"ĠAmericans":9194,"]$.":9195,"operation":9196,"family":9197,"ĠNa":9198,"\\}$.":9199,"isted":9200,"lywood":9201,"ĠEs":9202,"ĠPhilip":9203,"ORT":9204,"Project":9205,"Ġsummary":9206,"Ġdetected":9207,"ĠEven":9208,"Ġelectronic":9209,"iner":9210,"ĠName":9211,"ĠCab":9212,"ĠAustria":9213,"Ġroyal":9214,"Ġfans":9215,"Ġinstalled":9216,"fields":9217,"HC":9218,"NAME":9219,"Ġstarring":9220,"Ġenjoy":9221,"shot":9222,"Ġdrawn":9223,"TYPE":9224,"ĠSri":9225,"Dav":9226,"ĠSat":9227,"Ġcharges":9228,"Ġestimation":9229,"Ġracing":9230,"awn":9231,"Ġpurposes":9232,"ĠInfantry":9233,"ĠJos":9234,"Ġmanner":9235,"fefefe":9236,"Ġradiation":9237,"ĠAnderson":9238,"Before":9239,"Ġfashion":9240,"Ġcompris":9241,"Ġescape":9242,"Ġwatch":9243,"Ġconsequence":9244,"}})":9245,"Ġpackage":9246,"Ġloan":9247,"Ġpredicted":9248,"aded":9249,"ĠArk":9250,"ĠEnt":9251,"Ġsomew":9252,"Ġsubgroup":9253,"Ġpremier":9254,"ortheast":9255,"Ġscaling":9256,"$:":9257,"DS":9258,"Ġiron":9259,"Rail":9260,"Ġtower":9261,"gar":9262,"itzerland":9263,"$&":9264,"vements":9265,"Ġirre":9266,"ĠVietnam":9267,"oking":9268,"Ġsufficiently":9269,"Ġpatterns":9270,"Leg":9271,"Ġtheories":9272,"Ġtools":9273,"Ġtrains":9274,"'m":9275,"Ġhall":9276,"Gen":9277,"Ġdynamic":9278,"ĠSunday":9279,"fold":9280,"ĠUkraine":9281,"None":9282,"Ġending":9283,"Ġopposed":9284,"oa":9285,"duce":9286,"Ġseparated":9287,"Ġburn":9288,"oured":9289,"Ġnar":9290,"Ġtransp":9291,"bad":9292,"Ġtrac":9293,"ĠReal":9294,"ĠReturns":9295,"Ġnor":9296,"Ġenvironmental":9297,"Ġ\\(\\":9298,"Ġdrums":9299,"ĠMas":9300,"Ã©t":9301,"Ġcaptain":9302,"ographer":9303,"Ġobj":9304,"iem":9305,"Ġsucceeded":9306,"Ġentries":9307,"phys":9308,"Ġ(,":9309,"styles":9310,"ĠChannel":9311,"Ġvocal":9312,"ĠMult":9313,"kg":9314,"ĠEmperor":9315,"Ġeconomy":9316,"William":9317,"legate":9318,"ouses":9319,"periment":9320,"clusions":9321,"Ġsimultane":9322,"ĠAlbert":9323,"Ġbroken":9324,"Ġfestival":9325,"lahoma":9326,"Ġopposition":9327,"Ġdropped":9328,"ĠBarn":9329,"ĠQueensland":9330,"ĠAuthor":9331,"don":9332,"Ġequilibrium":9333,"Ġbr":9334,"128":9335,"ĠMP":9336,"sem":9337,"ĠHur":9338,"ĠAmb":9339,"template":9340,"ĠTurn":9341,"160":9342,"ĠHou":9343,"hens":9344,"Ġcosts":9345,"ellite":9346,"Ġexplicitly":9347,"since":9348,"Ġsampling":9349,"ctx":9350,"Properties":9351,"ĠKentucky":9352,"risis":9353,"uilt":9354,"101":9355,"Orig":9356,"Ġdeveloping":9357,"Television":9358,"isms":9359,"Ġcritics":9360,"Sm":9361,"Ġ{};":9362,"elect":9363,"rainian":9364,"Ġformerly":9365,"ĠMiller":9366,"RC":9367,"brace":9368,"ocese":9369,"Ġvisited":9370,"ivation":9371,"Ġtele":9372,"itational":9373,"Hon":9374,"diff":9375,"ĠMath":9376,"pping":9377,"Ġsequences":9378,"Ġindicated":9379,"Ġapplying":9380,"Ġwins":9381,"Syn":9382,"}[\\":9383,"Ġcommander":9384,"heim":9385,"disambiguation":9386,":(":9387,"Ġcommut":9388,"1905":9389,"ĠChristmas":9390,"stan":9391,"arthe":9392,"Ġeq":9393,"ĠNev":9394,"ĠEntertainment":9395,"Ġdust":9396,"Ġexclud":9397,"bigl":9398,"Ġopin":9399,"adi":9400,"eral":9401,"Ġsixth":9402,"ĠBan":9403,"rating":9404,"Ġexplain":9405,"stic":9406,"ĠBos":9407,"etween":9408,"eties":9409,"icker":9410,"ĠAdam":9411,"ĠCOVID":9412,"ĠSoc":9413,"Ġaudience":9414,"Ġbond":9415,"okes":9416,"forms":9417,"Ġconnect":9418,"Ġcoverage":9419,"ootst":9420,"Work":9421,"vas":9422,"ouch":9423,"Ġbran":9424,"Ġfighting":9425,"Ġplus":9426,"alian":9427,"ĠLeb":9428,"bell":9429,"uther":9430,"Ġcoaches":9431,"Ġobvious":9432,"hl":9433,"Ġatmosp":9434,"aks":9435,"kov":9436,"rump":9437,"ipeline":9438,"Ġanimals":9439,"\\;":9440,"Ġindependence":9441,"icut":9442,"including":9443,"ĠSky":9444,"ĠGib":9445,"Ġoccupied":9446,"Ġsupporting":9447,"ymn":9448,"Level":9449,"%%":9450,"ĠSC":9451,"Ġpieces":9452,"ĠIS":9453,"BL":9454,"Ret":9455,"ĠFord":9456,"1890":9457,"ĠHoly":9458,"ĠMach":9459,"incess":9460,"erves":9461,"Life":9462,"Down":9463,"ĠBah":9464,"ĠMit":9465,"ĠGi":9466,"zi":9467,"Ġultimately":9468,"Ġapproved":9469,"Ġmatching":9470,"lash":9471,"Ġtransmission":9472,"FM":9473,"bmatrix":9474,"Ġcamera":9475,"labama":9476,"ĠBat":9477,"Ġdiver":9478,"Height":9479,"wick":9480,"ĠLow":9481,"Ġdog":9482,"ĠNY":9483,"ĠFund":9484,"Ñı":9485,"Ġoccasion":9486,"Ġchallenge":9487,"ochastic":9488,"Ġnob":9489,"apel":9490,"Ġmanagers":9491,",\\\\":9492,"bigr":9493,"utils":9494,"Entity":9495,"ounded":9496,"dependent":9497,"Ġcharts":9498,"Ġregistered":9499,"roit":9500,"Ġtrip":9501,"Ġdriving":9502,"Ġinverse":9503,"ĠBor":9504,"tiny":9505,"ĠIowa":9506,"flu":9507,"Ġevaluate":9508,"Ġdecor":9509,"GR":9510,"ĠKhan":9511,"paragraph":9512,"ogether":9513,"engers":9514,"ĠFront":9515,"Ġ>=":9516,"HP":9517,"icip":9518,"Utils":9519,"1906":9520,"Ġpadding":9521,"require":9522,"Ġoldest":9523,"Sk":9524,"ĠWhe":9525,"Ġfeet":9526,"Module":9527,"DR":9528,"ĠGreece":9529,"1907":9530,"Ġthread":9531,"]$,":9532,"ĠDue":9533,"Ġentirely":9534,"))\\":9535,"Ġturb":9536,"phone":9537,"ĠTa":9538,"ĠSimon":9539,"component":9540,"ĠTel":9541,"BM":9542,"Ġstack":9543,"ĠCall":9544,"ologists":9545,"emptyset":9546,"Ġglass":9547,"ĠNorwegian":9548,"Ġsustain":9549,"ĠRoy":9550,"ĠCape":9551,"|}{":9552,"issip":9553,"Ġpossibility":9554,"Ġindeed":9555,"ĠTransport":9556,"Ġdecades":9557,"Ġmales":9558,"general":9559,"Ġliqu":9560,"ĠSever":9561,"ĠOtt":9562,"Ġheadquarters":9563,"Ant":9564,"rait":9565,"Ġsolar":9566,"Ġattempted":9567,"Ġbudget":9568,"1909":9569,"ĠEvent":9570,"vs":9571,"Christ":9572,"ublin":9573,"dfrac":9574,"Ġferm":9575,"ante":9576,"North":9577,"ootstrap":9578,"Ġflows":9579,"disc":9580,"Ġfactory":9581,"fi":9582,"ĠTokyo":9583,"UM":9584,"[-":9585,"ĠNap":9586,"conv":9587,"lat":9588,"Ġpolicies":9589,"bums":9590,"ĠFame":9591,"ureau":9592,"ĠBalt":9593,"sequently":9594,"axis":9595,"ä¸":9596,"Ġisomorphism":9597,"Ġdocuments":9598,"ĠDomin":9599,"Ġ^":9600,"Ġpy":9601,"ĠRose":9602,"wall":9603,"FO":9604,"Ġguest":9605,")--":9606,"âĢ¦":9607,"NC":9608,"Ġrear":9609,"Position":9610,"anton":9611,"Ġnegot":9612,"ĠTrue":9613,"Ġpossess":9614,"Ġexplo":9615,"Ġabund":9616,"ester":9617,"ĠEth":9618,"tah":9619,"Ġaspects":9620,"ĠHarry":9621,"Ġsomeone":9622,"ĠÄ":9623,"Ġconsult":9624,"Ġdivers":9625,"á»":9626,"ĠStaff":9627,"ĠEarl":9628,"ĠArmen":9629,"Ġcalling":9630,"ĠBillboard":9631,"Ġpainter":9632,"Reference":9633,"ĠNative":9634,"Ġdimensional":9635,"Ġinvestigate":9636,"eless":9637,"achelor":9638,"Definition":9639,"CODE":9640,"ĠLocal":9641,"()->":9642,"iley":9643,"ĠSM":9644,"agan":9645,"Ġclin":9646,"rastructure":9647,"ateur":9648,"wich":9649,"Ġspot":9650,"ĠGlobal":9651,"hop":9652,"Ġdecomposition":9653,"Ġidentical":9654,"ourier":9655,"Ġtradition":9656,"ĠJane":9657,"Ġdiplom":9658,"Euro":9659,"ĉĉĉĉĉĉĉ":9660,"ĠCreate":9661,"Ġadjust":9662,"refect":9663,"ĠZh":9664,"late":9665,"initions":9666,"Ġmusician":9667,"ĠForces":9668,"Ġfunding":9669,"ĠGoogle":9670,"Ġsituated":9671,"}}.":9672,"Ġdie":9673,"125":9674,"Hash":9675,"ĠAlb":9676,"pres":9677,"Ġroughly":9678,"Ġbias":9679,"Ġcircum":9680,"ĠTony":9681,"inth":9682,"Ġtrend":9683,"fact":9684,"Ġdefense":9685,"enez":9686,"Ġsail":9687,"Ġxml":9688,"Ġsurname":9689,"Ġaccurate":9690,"########":9691,"Ġjet":9692,"=\"../../../../../":9693,"Ġnom":9694,"=\"-":9695,"Ġpromotion":9696,"longrightarrow":9697,"Ġarc":9698,"ĠWall":9699,"Ġentropy":9700,"Ġrend":9701,"before":9702,"GS":9703,"roke":9704,"BE":9705,"Transport":9706,"regular":9707,"achers":9708,"rations":9709,"Ġseed":9710,"token":9711,"Ġ^{":9712,"Ġupdated":9713,"Ġpasses":9714,"ifest":9715,"large":9716,"Ġlect":9717,"Ġreality":9718,"stitut":9719,"Ġpilot":9720,"Ġ\\]":9721,"})}":9722,"dam":9723,"aro":9724,"Ġchanging":9725,"Ġextremely":9726,"Ġbos":9727,"parison":9728,"Ġderivative":9729,"ĠBeng":9730,"Ġscheduled":9731,"ĠEric":9732,"Ġreader":9733,"ĠEP":9734,"ribed":9735,"Font":9736,")).":9737,"\"))":9738,"DC":9739,"Ġhash":9740,"ĠGab":9741,"ĠSym":9742,"uling":9743,"Born":9744,"Ġvir":9745,"Ġlowest":9746,"bras":9747,"1904":9748,"Ġopportunity":9749,"Ġviolence":9750,"ĠTan":9751,"antly":9752,"ĠConstitution":9753,"elve":9754,"Ġthin":9755,"ĠSwitzerland":9756,"ĠTen":9757,"Ġsignals":9758,"ĠLike":9759,"itative":9760,"Ġanswer":9761,"oths":9762,"Ġargued":9763,"TA":9764,"Ġstorm":9765,"Ġmorning":9766,"ĠWindow":9767,"Empty":9768,"Ġdiscrim":9769,"Ġtoken":9770,"Ġtrib":9771,"Af":9772,"Document":9773,"Ġmayor":9774,"Ġexecution":9775,"ĠModern":9776,"ĠEu":9777,"uerto":9778,"Ġrefused":9779,"Sign":9780,"}_{-":9781,"Ġsettled":9782,";\\;\\":9783,"Ġhistorian":9784,"icted":9785,"Ġbought":9786,"ĠInternet":9787,"180":9788,"RI":9789,"mn":9790,"ructions":9791,"ĠBurn":9792,"Notable":9793,"Äĥ":9794,"ĠKitt":9795,"$_{":9796,"Ġsingers":9797,"files":9798,"ĠWalter":9799,"........":9800,"Ġdisestab":9801,"global":9802,"ĠĠĠĠĠĠĠĠĠĠĠĠĠĠĠĠĠĠĠĠĠĠĠĠĠĠĠĠĠĠĠĠĠĠĠĠĠĠĠĠĠĠĠĠĠĠĠĠĠĠĠĠĠĠĠĠĠĠĠĠĠĠĠĠ":9803,"Thread":9804,"mo":9805,"ĠNon":9806,"ĠBattalion":9807,"Ġcombat":9808,"ĠGreg":9809,"IGN":9810,"GN":9811,"Ġmerged":9812,"ĠCase":9813,"ĠWell":9814,"Ġhorse":9815,"Su":9816,"Ġfuel":9817,"Ġsons":9818,"Cap":9819,"Ġcomputing":9820,"Draw":9821,"iful":9822,"ĠSound":9823,"Ġpapers":9824,"123":9825,"ĠLiter":9826,"Ġbulk":9827,"ĠChile":9828,"Ġholding":9829,"Pres":9830,"ĠLank":9831,"ĠLore":9832,"ĠColomb":9833,"ĠTurkish":9834,"Ġresc":9835,"lac":9836,"Ġcontrad":9837,"Ġschol":9838,"ĠDun":9839,"Ġrich":9840,"ĠAppendix":9841,"esian":9842,"short":9843,"Ġwalls":9844,"Ġsportspeople":9845,"Ġfolk":9846,"ĠNick":9847,"Ġcovering":9848,"hash":9849,"evin":9850,"rÃ©":9851,"Ġcrow":9852,"ĠSix":9853,"gency":9854,"icians":9855,"LC":9856,"tml":9857,"ĠMagazine":9858,"ĠLast":9859,"ĠThrough":9860,"Impl":9861,"Ġcatalog":9862,"Ġadapted":9863,"ĠLincoln":9864,"ugu":9865,"Ġtrigger":9866,"Ġcontributed":9867,"kind":9868,"msg":9869,"theless":9870,"copy":9871,"PECT":9872,"Ġbench":9873,"special":9874,"Offic":9875,"ĠKat":9876,"Ġguard":9877,"iva":9878,"GA":9879,"Ġgeneric":9880,"heet":9881,"Ġmount":9882,"ĠValue":9883,"puter":9884,"Ġassumptions":9885,"ĠConst":9886,"ĠAmong":9887,"Ġhero":9888,"aration":9889,"enum":9890,"Ġdiagn":9891,"rin":9892,"iversary":9893,"Ġvide":9894,"Her":9895,"ĠSche":9896,"ĠBrun":9897,"inema":9898,"Ġbrothers":9899,"uma":9900,">,":9901,"Ġpaths":9902,"ĠObserv":9903,"Ġmel":9904,"Ġdomestic":9905,"umin":9906,"Ġbehaviour":9907,"Ġsan":9908,"vature":9909,"Ġenh":9910,"buffer":9911,"Ġconstants":9912,"uties":9913,"cisely":9914,"transform":9915,"Bel":9916,"Connection":9917,"olished":9918,"lied":9919,"artifact":9920,"Params":9921,"Ġoverride":9922,"Enc":9923,"Ð¼":9924,"Ġago":9925,"Ġaired":9926,"${\\":9927,"Ġrational":9928,"equal":9929,"Football":9930,"iota":9931,"leted":9932,"Ġregarded":9933,"Ġbelief":9934,"tikzpicture":9935,"ĠTelevision":9936,"Option":9937,"Ġ),":9938,"Ġqualified":9939,"Ġopera":9940,"aml":9941,"iveness":9942,"Ġintegrated":9943,"Ġdens":9944,"ĠGrant":9945,"Ġcharacteristics":9946,"Ġtemperatures":9947,"Ġprotect":9948,"burn":9949,"Ġcircuit":9950,"GP":9951,"ĠAlabama":9952,"ĠLtd":9953,"inction":9954,"Ġtruth":9955,"sat":9956,"nold":9957,"Ġexplan":9958,"ĠWolf":9959,"Ġcolour":9960,"ĠCroat":9961,"Ġcompetitions":9962,"rained":9963,"ĠManchester":9964,"ĠJordan":9965,"1903":9966,"agh":9967,"oni":9968,"Copy":9969,"rior":9970,"Ġcas":9971,"ratic":9972,"Ġstands":9973,"mazon":9974,"ania":9975,"urations":9976,"Ġtemple":9977,"ĠBuilding":9978,"ĠDC":9979,"ando":9980,"Ġproducing":9981,"})=":9982,"craft":9983,"oca":9984,"Ġdiagonal":9985,"ĠRow":9986,"Ġlyrics":9987,"radius":9988,"Ġeffectively":9989,"Ġfaith":9990,"ardo":9991,"domain":9992,"Ġ(),":9993,"ĠBefore":9994,"ĠDom":9995,"Ø§":9996,"Ġthing":9997,"Ġretriev":9998,"1902":9999,"Ġpermanent":10000,"ĠFinn":10001,"ĠWy":10002,"lora":10003,"ĠCost":10004,"Ġjump":10005,"odd":10006,"ifferent":10007,"ĠOklahoma":10008,"Ġexhibition":10009,"Ð´":10010,"Ġcorrel":10011,"Ġsetup":10012,"atin":10013,"ĠIndeed":10014,"agen":10015,"1901":10016,"Education":10017,"ĠPot":10018,"Ġstages":10019,"ĠJam":10020,"Ġaffect":10021,"Ġgirls":10022,"cache":10023,"Ġwinter":10024,"edia":10025,"Ġinfer":10026,"Ġluminos":10027,"Ġmaximal":10028,"nie":10029,"ĠHans":10030,"Ġmand":10031,"Ġembedding":10032,"BR":10033,"plot":10034,"igenous":10035,"Change":10036,"Ġshortly":10037,"Ġwealth":10038,"Ġattacked":10039,"ĠâĢł":10040,"ses":10041,"actic":10042,"ĠRegional":10043,"\"));":10044,"etal":10045,"illing":10046,"Ġpresidential":10047,"Ġaudio":10048,"Ġalter":10049,"Ġtrace":10050,"Ġroof":10051,"ĠWind":10052,"Search":10053,"ĠPa":10054,"Ġentitled":10055,"Policy":10056,"agues":10057,"gebras":10058,"Ġconsisted":10059,"isor":10060,"Ġbodies":10061,"}}}\\":10062,"Ġaware":10063,"ĠCommonwealth":10064,"irections":10065,"ĠNFL":10066,"ĠWorks":10067,",\\,\\":10068,"eeper":10069,"ĠOfficer":10070,"ĠNaval":10071,"ialize":10072,"Ġ('":10073,"ĠEnergy":10074,"Ġtrivial":10075,"256":10076,"Ġrig":10077,"oked":10078,"ieval":10079,"ACK":10080,"Ã¥":10081,"Ġalleged":10082,"ĠConnecticut":10083,"ista":10084,"HO":10085,"Ġbroke":10086,"lins":10087,"night":10088,"Ġvent":10089,"urst":10090,"laps":10091,"person":10092,"=.":10093,"Ġhypothesis":10094,"Indian":10095,"Ġunless":10096,"ĠHoward":10097,"BI":10098,"figures":10099,"Military":10100,"ĠOR":10101,"elihood":10102,"Most":10103,"tim":10104,"ĠChildren":10105,"Ġversus":10106,"Ġderive":10107,"ĠRecord":10108,"ĠLemmon":10109,"Ġwitness":10110,"store":10111,"device":10112,"ridges":10113,"ĠStone":10114,"ctors":10115,"Ġlake":10116,"Ġ*)":10117,"Ġpredictions":10118,"Ġshock":10119,"Kind":10120,"owski":10121,"onomy":10122,"orro":10123,"ĠDiego":10124,"req":10125,"Ġtreated":10126,"ĠPortuguese":10127,"Ġabsence":10128,"Ġsatisfied":10129,"ĠKy":10130,"enny":10131,"Phil":10132,"ĠFac":10133,"Proof":10134,"Ġessential":10135,"Ġattached":10136,"AE":10137,"obs":10138,"ĠHom":10139,"Ġinhabit":10140,"uple":10141,"Ġintensity":10142,"ĠNav":10143,"shape":10144,"ĠCru":10145,"Ġreaching":10146,"():":10147,"ĠLabour":10148,"rav":10149,"ghan":10150,"icular":10151,"jar":10152,"Final":10153,"integ":10154,"Ġaid":10155,"ĠBrian":10156,"Ġreligion":10157,"Ġlists":10158,"ĠCode":10159,"umed":10160,"product":10161,"ĠGram":10162,"rops":10163,"ĠMatt":10164,"chant":10165,"ĠSenior":10166,"ships":10167,"world":10168,"Ġconclusion":10169,"Ġconstitution":10170,"irical":10171,"algebra":10172,"Ġpreced":10173,"coh":10174,"Ġcommissioned":10175,"Http":10176,"DM":10177,"ĠSl":10178,"Ver":10179,"Ġcm":10180,"ownt":10181,"ĠDal":10182,"auth":10183,"Ġmarg":10184,"ĠExecutive":10185,"Ġfunds":10186,"ĠBulg":10187,"etail":10188,"Ġsand":10189,"Ġcontainer":10190,"Ġec":10191,"plane":10192,"ĠText":10193,"ĠMarine":10194,"Ġfluid":10195,"ĠAge":10196,"Mem":10197,"issippi":10198,"ele":10199,"Ġpropose":10200,"ĠAllen":10201,"Ġgate":10202,"Ġexceed":10203,"border":10204,"%.":10205,"ĠSU":10206,"Ste":10207,"What":10208,"ulse":10209,"VAL":10210,"ĠStory":10211,"duate":10212,"})^":10213,"/(":10214,"Ġmaxim":10215,"Ġhour":10216,"just":10217,"}$}":10218,"Ġpush":10219,"inces":10220,"Ġfresh":10221,"odox":10222,"Club":10223,"Ġdirectors":10224,"types":10225,"Villa":10226,"1880":10227,"Ġcache":10228,"Ġconnections":10229,"Ġheavily":10230,"Store":10231,"Ġfib":10232,"Under":10233,"Ġneighbour":10234,"idal":10235,"closed":10236,"Ġliterary":10237,"Ġinteract":10238,"ĠCemetery":10239,"ĠNich":10240,"Ġstandards":10241,"ĠSpacewatch":10242,"AND":10243,"Callback":10244,"ĠThird":10245,"iami":10246,"ĠQuebec":10247,"ĠĠĠĠĠĠĠĠĠĠĠĠĠĠĠĠĠĠ":10248,"elson":10249,"Ġsizes":10250,"ained":10251,"ĠNik":10252,"Ġli":10253,"ĠSquare":10254,"ĠMoon":10255,"ĠPrix":10256,"Ġcanonical":10257,"multirow":10258,"Ġcommit":10259,"Ġkilling":10260,"access":10261,"ĠDoctor":10262,"Ġfought":10263,"Ġquark":10264,"Ġprogramme":10265,"parameters":10266,"ĠWhit":10267,"died":10268,"Ġweapons":10269,"Ġcausing":10270,"oved":10271,"porting":10272,"Ġcompletion":10273,"Lemma":10274,"gi":10275,"Host":10276,"ĠDur":10277,"webkit":10278,"Ġinterpretation":10279,")}_":10280,"Collection":10281,"Ġscenes":10282,"oyd":10283,"Ġfounding":10284,"COLOR":10285,"Ġretirement":10286,"ĠHamp":10287,"ĠAnne":10288,"variant":10289,"Ġjazz":10290,"Ġuniversal":10291,"uscript":10292,"ĠDream":10293,"Ġreplacing":10294,"ATA":10295,"send":10296,"ĠWho":10297,"ĠPalest":10298,"Ġsupports":10299,"aware":10300,"Family":10301,"ĠBrigade":10302,"ĠDark":10303,"ĠBrand":10304,"Ġattributes":10305,"ĠPas":10306,"Ġherself":10307,"Ġfaced":10308,"uris":10309,"Ġdetect":10310,"ĠRey":10311,"Async":10312,"Ġsole":10313,"Ġaged":10314,"ĠRights":10315,"ocate":10316,"nol":10317,"ĠFa":10318,"ĠHop":10319,"race":10320,"ĠNCAA":10321,"Ġhotel":10322,"\\|\\":10323,"ĠBG":10324,"Star":10325,"Ġtennis":10326,"CF":10327,"ropic":10328,"ĠHockey":10329,"estamp":10330,"Ġmetres":10331,"Ġlocomot":10332,"ĠHouston":10333,"columnwidth":10334,"Ġneutral":10335,"Ġradial":10336,"Ġpartnership":10337,"ĠAbout":10338,"aph":10339,"Ġ\"/":10340,"ptic":10341,"ĠFM":10342,"Dom":10343,"urance":10344,"porated":10345,"ĠAgain":10346,"ĠNAS":10347,"ractions":10348,"rase":10349,"Ġsac":10350,"Ġ::":10351,"ĠCH":10352,"ĠEnvironment":10353,"Ġsought":10354,"Ġcharacterized":10355,"Ġprotest":10356,"channel":10357,";\"|":10358,"Ġbundle":10359,"Ġgravity":10360,"Ġinstitution":10361,"Ġprotein":10362,"debug":10363,"ĠArgentina":10364,"Ġnonlinear":10365,"zed":10366,"Ġexecuted":10367,"romise":10368,".'":10369,"ulus":10370,"ĠMarc":10371,"ĠTrump":10372,"Ġinfluenced":10373,"ĠRab":10374,"uj":10375,"Ġincorporated":10376,"Ġtopological":10377,"Ġairport":10378,"tor":10379,"cers":10380,"odge":10381,"Ġkeyboard":10382,"Ġdependent":10383,"lower":10384,"ogram":10385,"putation":10386,"internal":10387,"Ġguns":10388,"ĠVice":10389,"Ġasymptotic":10390,"CM":10391,"ĠPatrick":10392,"ĠInn":10393,"\\}$,":10394,"Ġsoccer":10395,"Ġmobile":10396,"ĠPur":10397,"inv":10398,"Ġchose":10399,"mathit":10400,"attery":10401,"Ġcollaboration":10402,"Ġmaintained":10403,"ĠMoore":10404,"rell":10405,"Ġdense":10406,"ĠMi":10407,"Ġkil":10408,"Govern":10409,"Ġfluctu":10410,"Ġchurches":10411,"ĠNag":10412,"RT":10413,"Ġped":10414,"?:":10415,"Given":10416,"Ġemployees":10417,"Ġtransaction":10418,"ĠPope":10419,"Ġbrain":10420,"]{\\":10421,"Reception":10422,"ĠException":10423,"Ġequality":10424,"Ġphoton":10425,"Ġentity":10426,"ĠDouglas":10427,"ĠTaiwan":10428,"Ġquantities":10429,"Ġprecisely":10430,"ĠHonor":10431,"stop":10432,"ĠTemple":10433,"Ġgeneralized":10434,"foo":10435,"Ġintermediate":10436,"incor":10437,"Ġheader":10438,"oslav":10439,"ĠVin":10440,"ĠCON":10441,"Ġmonitor":10442,"ĠIslamic":10443,"ushed":10444,"sn":10445,"rosc":10446,"^{*":10447,"Ġwrong":10448,"redited":10449,"complete":10450,"anced":10451,"vor":10452,"Ġdominated":10453,"Ġconcluded":10454,"ples":10455,"ĠCop":10456,"erset":10457,"cline":10458,"@{":10459,"OK":10460,"ĠNever":10461,"circle":10462,"+(":10463,"ĠJesus":10464,"CI":10465,"Ġgar":10466,"double":10467,"Ġsun":10468,"Ġanything":10469,"ĠSwiss":10470,"Ġheard":10471,"Settings":10472,"Expression":10473,"Xi":10474,"Ġoffices":10475,"Dir":10476,"chain":10477,"Ġcenturies":10478,"ĠSilver":10479,"ingly":10480,"ubble":10481,"Ġpromote":10482,"Ġrestricted":10483,";->":10484,"textcolor":10485,"Ġcryst":10486,"ikh":10487,"Ġenergies":10488,"Ġresistance":10489,"Ġapproximate":10490,"yers":10491,"Expat":10492,"Ang":10493,"isen":10494,"Ġles":10495,"Ġdates":10496,"Ġoperate":10497,"Li":10498,"ĠChampions":10499,"lik":10500,"Ġabstract":10501,"ĠGard":10502,"Ġconservation":10503,"ĠEc":10504,"arry":10505,"ĠNOT":10506,"Ġcrossing":10507,"Ġeducational":10508,"mont":10509,"inking":10510,"ĠLieutenant":10511,"istence":10512,"Ġaccompan":10513,"ographical":10514,"Ġlicense":10515,"ĠMonte":10516,"ĠBureau":10517,"cht":10518,"ĠBelgium":10519,"Expatriate":10520,"Ġ\\&":10521,"Ġsignature":10522,"ĠReb":10523,"agu":10524,"notag":10525,"Ġfranch":10526,"ĠHeart":10527,"ĠDeb":10528,"ĠJay":10529,"ĠIsraeli":10530,"issance":10531,"Ġactresses":10532,"Menu":10533,"imp":10534,"ĠKaz":10535,"ĠBrazilian":10536,"Ġcriminal":10537,"ĠIr":10538,"Ep":10539,"ĠUnit":10540,"Ġ}}":10541,"ovation":10542,"orption":10543,"usal":10544,"istant":10545,"opter":10546,"mut":10547,"engths":10548,"ĠGordon":10549,"CK":10550,"Ġmes":10551,"formal":10552,"rama":10553,"Ġlawyer":10554,"Works":10555,"WS":10556,"NavBar":10557,"ĠCra":10558,"ilters":10559,"aturday":10560,"scriptsize":10561,"ĠEXPECT":10562,"ĠML":10563,"ĠVillage":10564,"ĠCollection":10565,"Ġspac":10566,"Tim":10567,"Ġsym":10568,"Ġclassified":10569,"fly":10570,"super":10571,"ALL":10572,"ĠHawai":10573,"Black":10574,"Ġproduces":10575,"rend":10576,"Academ":10577,"Ġposter":10578,"Hence":10579,"INEAR":10580,"rub":10581,"Ġcricket":10582,"via":10583,"Ġdetector":10584,"artheta":10585,"1898":10586,"vm":10587,"forcement":10588,"vals":10589,"Sem":10590,"possible":10591,"Ġmart":10592,"Device":10593,"bp":10594,"ĠChall":10595,"bey":10596,")),":10597,"ĠBry":10598,"vartheta":10599,"pred":10600,"join":10601,"ĠDanish":10602,"ĠPhill":10603,"abad":10604,"Core":10605,"Roman":10606,"Ġpun":10607,"rik":10608,"Ã´":10609,"Ġchance":10610,"Another":10611,"finals":10612,"ĠKam":10613,"Mc":10614,"Ġflex":10615,"Conn":10616,"Major":10617,"ĠHiggs":10618,"Ġbreaking":10619,"Ġparams":10620,"SF":10621,"ĠCommunic":10622,"focus":10623,"Ġformally":10624,"category":10625,"taining":10626,"Ġassembly":10627,"Ġtranslated":10628,"inburgh":10629,"ĠPuerto":10630,"ĠDat":10631,"Ġconcerns":10632,"Ġappearing":10633,"Use":10634,"ĠDenmark":10635,"Session":10636,"liest":10637,"Ġmessages":10638,"ĠTerrit":10639,"encing":10640,"ĠLam":10641,"Json":10642,"Ġestablishment":10643,"Ġtick":10644,"ĠAdministration":10645,"=\"../../../../../../":10646,"Ġrelax":10647,"ulating":10648,"ĠDate":10649,"arner":10650,"Ġhighway":10651,"Ġstrike":10652,"Ġlinked":10653,"ĠSel":10654,"wen":10655,"ĠYouth":10656,"Ġvariance":10657,"Ġfilename":10658,"ĠAnthony":10659,"Ġdrag":10660,"olo":10661,"ORD":10662,"bind":10663,"Ġexcess":10664,"Ġmask":10665,"fil":10666,"Ġdominant":10667,"ocratic":10668,"Ġinterests":10669,"}}^{\\":10670,"Ġhop":10671,"Ġ\"\\":10672,"Ġweather":10673,"olver":10674,"ashi":10675,"Ġprotocol":10676,"&=\\":10677,"lon":10678,"Ptr":10679,"Ġ}{":10680,"Ġsoci":10681,"Ġextent":10682,"ladesh":10683,"Ġenemy":10684,"Ġtouchdown":10685,"Ġconcentration":10686,"plicated":10687,"when":10688,"Ġparticipants":10689,"Ġpoetry":10690,"Ġworldwide":10691,"rangian":10692,"Ġsomewhat":10693,"artifactId":10694,"Ġrejected":10695,"Ġessentially":10696,"Ġperhaps":10697,"prim":10698,"ĠAction":10699,"ĠGiven":10700,"ĠSud":10701,"bean":10702,"rins":10703,"ĠStandard":10704,">\\":10705,"Ġstating":10706,"ĠAlber":10707,"Ġcarbon":10708,"slant":10709,"Ġbrown":10710,"Consider":10711,"UP":10712,"Ġundefined":10713,"region":10714,"ĠEag":10715,"abric":10716,"ayan":10717,"Ġhope":10718,"Vector":10719,"ĠImm":10720,"iamond":10721,"ULT":10722,"ĠOnce":10723,"Ġjoining":10724,"Ġsentence":10725,")})":10726,"Ġmist":10727,"Ġfoundation":10728,"aired":10729,"Del":10730,"(:":10731,"130":10732,"Ġchampions":10733,"oments":10734,"Ġagency":10735,"ĠHu":10736,"modal":10737,"construct":10738,"Ġtrav":10739,"Ġment":10740,"ĠKo":10741,"ĠOak":10742,"ĠPortugal":10743,"ĠLouisiana":10744,"ĠCer":10745,"ĠExpress":10746,"enance":10747,"Ġtell":10748,"Ġstores":10749,"ĠMand":10750,"Ġvariations":10751,"Ġpione":10752,"ĠHeritage":10753,"ĠIndependent":10754,"ners":10755,"Ġinaug":10756,"never":10757,"ĠMrs":10758,"Ġnum":10759,"Ġsimplic":10760,"Ġahead":10761,"Mac":10762,"ĠHotel":10763,"Ġcold":10764,"Ġillustrated":10765,"Ġsky":10766,"^{(\\":10767,"Ġplate":10768,"ĠDick":10769,"Ġadult":10770,"Ġadvent":10771,"quest":10772,"Ġhierarch":10773,"Step":10774,"^*\\":10775,"Ġbalance":10776,"1899":10777,"song":10778,"Ġhair":10779,"Ġdecrease":10780,"][]{":10781,"Ġstadium":10782,"Ġexpos":10783,"Ġrecommend":10784,"}~":10785,"east":10786,"Iter":10787,"alid":10788,"imits":10789,"arios":10790,"Ġcarri":10791,"ĠCook":10792,"Ġsteel":10793,"ĠLINEAR":10794,"Ġdetermin":10795,"leveland":10796,"}|\\":10797,"instein":10798,"Ġencounter":10799,"condition":10800,"Ġnamespace":10801,"Ġpractical":10802,"Selected":10803,"ĠView":10804,"ĠSocorro":10805,"Buildings":10806,"ĠAntonio":10807,"ĠDublin":10808,"toString":10809,")[":10810,"Ġrecon":10811,"Ġencourag":10812,"ĠRub":10813,"Ġabandoned":10814,"Parameters":10815,"equals":10816,"mouth":10817,"ango":10818,"Ġboundaries":10819,"Prop":10820,"ĠAL":10821,"\\}\\":10822,"Ġstochastic":10823,"Ġpartially":10824,"isson":10825,"Ġcastle":10826,"Ġsafe":10827,"Lang":10828,"rency":10829,"UK":10830,"Ġquantity":10831,"Ġbenefit":10832,"uzz":10833,"Ġpublications":10834,"ĠMississippi":10835,"Ġdemonstrated":10836,"ĠDak":10837,"ĠEvery":10838,"Ġdemonstrate":10839,"ĠFle":10840,"Ġanimal":10841,"Ġcurvature":10842,"ĠTar":10843,"Ġtropical":10844,"Ġsurg":10845,"MI":10846,"Ġrespective":10847,"ĠDetroit":10848,"Ġinvited":10849,"imore":10850,"Ġgender":10851,"Game":10852,"ĠÃī":10853,"Ġ({\\":10854,"Ġverify":10855,"ienced":10856,"comment":10857,"Ġdynamical":10858,"stood":10859,"Ġhits":10860,"Ġdeput":10861,"Ġinvolves":10862,"Ġvideos":10863,"ĠImperial":10864,"original":10865,"ailand":10866,"Ġrival":10867,"Ġancest":10868,"aked":10869,"Ġseparation":10870,"Ġannot":10871,"Ġperiods":10872,"sson":10873,"STR":10874,"Ġruled":10875,"Integer":10876,"ĠBuck":10877,"antasy":10878,"ĠGP":10879,"Ġentrance":10880,"Ġinduct":10881,"ĠIP":10882,"{|":10883,"icide":10884,"Ġtab":10885,"Ġcompilation":10886,"Ġinstances":10887,"eland":10888,"Songs":10889,"ĠPlayer":10890,"AGE":10891,"Ġcorpor":10892,"700":10893,"}\\|":10894,"ulator":10895,"ĠOrth":10896,"friend":10897,"Ġreign":10898,"Ġgreatest":10899,"Ġpaintings":10900,"Ġgene":10901,"oda":10902,"Ã«":10903,"Ġvoted":10904,"Ġkick":10905,"Ġnotion":10906,"resp":10907,"ĠJuan":10908,"modules":10909,"Ġ$,":10910,"Ġdry":10911,"ĠConc":10912,"groupId":10913,"Ġbelongs":10914,"Ġdesigns":10915,"Ãł":10916,"ĠFace":10917,"Ġvo":10918,"Ġredshift":10919,"ĠAdditionally":10920,"Ġexpert":10921,"ĠSign":10922,"esides":10923,"Ġassuming":10924,"Ġstudying":10925,"subsec":10926,"ogonal":10927,"Ġskills":10928,"onom":10929,"ĠStudios":10930,"Ġeverything":10931,"Serial":10932,"Suppose":10933,"}}=":10934,"byte":10935,"ĠOrchestra":10936,"Det":10937,"Ġceremony":10938,"Ġapart":10939,"aming":10940,"ĠRoberts":10941,"ĠCart":10942,"Ġfilled":10943,"Body":10944,"Ġautomatically":10945,"was":10946,"ĠNig":10947,"Ġovers":10948,"Ġexcell":10949,"handle":10950,"Ġvolunte":10951,"1896":10952,"ĠAbd":10953,"arity":10954,"ĠLegislative":10955,"grid":10956,"Events":10957,"tsburgh":10958,"allas":10959,"delete":10960,"negative":10961,"ĠNumber":10962,"medskip":10963,"Ġtall":10964,"hab":10965,"igious":10966,"ĠKa":10967,":=\\":10968,"Ġscores":10969,"Ġcontrols":10970,"ĠUl":10971,"%,":10972,"Ġecho":10973,"rg":10974,"================================":10975,"Ä«":10976,"enezuel":10977,"ĠNext":10978,"Ġprompt":10979,"Ġsale":10980,"ĠLanc":10981,"EP":10982,"ĠLiberal":10983,"Ġcler":10984,"inch":10985,"1897":10986,"Ġmidfield":10987,"Ġequivalence":10988,"yg":10989,"Ġlosses":10990,"Ġreconstruction":10991,"nn":10992,"ĠHarris":10993,"Ġhumans":10994,"oton":10995,"FFFF":10996,"ĠBou":10997,"Ġmagnet":10998,"Ġaccounts":10999,"uts":11000,"Mal":11001,"Ġenable":11002,"Ġexpressions":11003,"1895":11004,"Ġroots":11005,"ĠFrederick":11006,"ifiers":11007,"heastern":11008,"atar":11009,"dale":11010,"Ġstrings":11011,"Ġdefines":11012,"Schema":11013,"GBT":11014,"ĠToday":11015,"Former":11016,"ĠBus":11017,"Ġintelligence":11018,"ĠParam":11019,"ĠKur":11020,"orate":11021,"Ġislands":11022,"ĠBowl":11023,"ĠSn":11024,"Ġready":11025,"Parent":11026,"RR":11027,"owntown":11028,"1870":11029,"exists":11030,"ĠUtah":11031,"ĠNar":11032,"Ġjav":11033,"ĠAle":11034,"scriptstyle":11035,"Ġmolecular":11036,"Europe":11037,"Ġfinishing":11038,"ificate":11039,"Ġcommitted":11040,"chell":11041,"Ġreplacement":11042,"ĠIndonesia":11043,"Ġpand":11044,"Ġpoll":11045,"Ġrevolution":11046,"Ġban":11047,"otional":11048,"ĠCow":11049,"Ġinhabitants":11050,"Ġsell":11051,"Ġicon":11052,"Ġhybrid":11053,"oche":11054,"oupl":11055,"iration":11056,"Ġeye":11057,"Ġlaid":11058,"GM":11059,"creen":11060,"Ġdanger":11061,"Rober":11062,"Only":11063,"there":11064,"Ġadaptation":11065,"Ġinfo":11066,"Ġmembership":11067,"borough":11068,"ivery":11069,"argo":11070,"ĠWalker":11071,"Ġdashed":11072,"Ġimprovement":11073,"Ġwire":11074,"Vari":11075,"Bra":11076,"eron":11077,"Ġdrivers":11078,"owned":11079,"Ġhomes":11080,"ĠMA":11081,"ahn":11082,"izable":11083,"Ġanimated":11084,"Ġhorizontal":11085,"ĠControl":11086,"ĠInstead":11087,"Ġinvestment":11088,"ĠCheck":11089,"replace":11090,"Ñĭ":11091,"roc":11092,"ĠBuddh":11093,"Ġsimilarly":11094,"father":11095,"Ġnecessarily":11096,"ĠAre":11097,"Ġreserve":11098,"Ġinjured":11099,"incorporated":11100,"ĠDVD":11101,"wt":11102,"Ġdisappe":11103,"Ġpassenger":11104,"relation":11105,"Ġuniverse":11106,"Ġdynasty":11107,"Ġusage":11108,"ĠHarvard":11109,"aments":11110,"Lo":11111,"inian":11112,"azines":11113,"phony":11114,"Ġquasi":11115,"Ġengaged":11116,"ĠGirl":11117,"anim":11118,"Ġproposal":11119,"Ġboat":11120,"ERROR":11121,"Ġdirections":11122,"address":11123,"istration":11124,"Ġfleet":11125,"mal":11126,"Ġdoor":11127,"ĠSoft":11128,"Ġprofession":11129,"Ġprecision":11130,"Bas":11131,"ĠChen":11132,"Ġgenerating":11133,"FS":11134,"Template":11135,"holder":11136,"ĠArchitect":11137,"islation":11138,"Ġhired":11139,"ĠFern":11140,"rena":11141,"ĠAlan":11142,"ĠPage":11143,"(*":11144,"properties":11145,"athe":11146,"zing":11147,"ĠPlace":11148,"Mich":11149,"essions":11150,"ĠSamuel":11151,"Ġcapable":11152,"atta":11153,"They":11154,"Ġanom":11155,"Ġterror":11156,"Official":11157,"ĠEdinburgh":11158,"Ġdecade":11159,"Ġsecretary":11160,"ĠPap":11161,"tn":11162,"forming":11163,"Ġbacking":11164,"Ġperiodic":11165,"Ġexplos":11166,"othe":11167,"Ġanth":11168,"Ġcomments":11169,"Ġencoding":11170,"Ġtack":11171,"ĠTig":11172,"David":11173,"Ġkin":11174,"Ġgravitational":11175,"orer":11176,"Ġresigned":11177,"Ġdisplayed":11178,"ĠStew":11179,"docs":11180,"Ġpor":11181,"ĠReserve":11182,"ÑĮ":11183,"Ġmus":11184,"ĠNam":11185,"ĠPed":11186,"ĠLyn":11187,"Moreover":11188,"Ġpopulations":11189,"oustic":11190,"edding":11191,"Ġpersons":11192,"framework":11193,"ĠHollywood":11194,"Ġfer":11195,"aby":11196,"'ve":11197,"larg":11198,"olid":11199,"ĠKu":11200,"Ġjunior":11201,"ĠUse":11202,"Ġimmediate":11203,"Ġplas":11204,"Villages":11205,"ĠRy":11206,"ĠDonald":11207,"Ġtested":11208,"ĠArkansas":11209,"Handle":11210,"ĠAfghan":11211,"Ġconfidence":11212,"Ġinline":11213,"ĠShar":11214,"Japanese":11215,"ctic":11216,"Ġnick":11217,"iece":11218,"}{*":11219,"Ġcodes":11220,"tages":11221,"Ġ\\,\\":11222,"ournament":11223,"stylesheet":11224,"ĠRol":11225,"Ġrecordings":11226,"ĠVar":11227,"Italian":11228,"Ġfan":11229,"!\\":11230,"ĠMean":11231,"Ġphases":11232,"Ġinvasion":11233,"Ġstanding":11234,"Ġdedu":11235,"Ġrender":11236,"Ġcoupled":11237,"ĠEarly":11238,"ĠHills":11239,"Ġduration":11240,"sa":11241,"lope":11242,"TT":11243,"angel":11244,"ĠFarm":11245,"ithuan":11246,"itals":11247,"Many":11248,"Ġmoves":11249,"Ġrating":11250,"Ġcomic":11251,"Ġhur":11252,"Ġsubjects":11253,"ishops":11254,"plugin":11255,"ĠCommander":11256,"emen":11257,"\\!\\":11258,"Ġviewed":11259,"Ġrein":11260,"rates":11261,"ĠCulture":11262,"Ġastron":11263,"ĠLaure":11264,"Ġdoll":11265,"Ġengines":11266,"retch":11267,"Ġprepared":11268,"ducible":11269,"Ġvacuum":11270,"Ġsimultaneously":11271,"oses":11272,"unities":11273,"aturally":11274,"Railway":11275,"Ġdescribing":11276,"ÃŃn":11277,"Ġmetrics":11278,"ĠImp":11279,"uki":11280,"San":11281,"acon":11282,"ĠGarden":11283,"ĠAgency":11284,"ĠMatthe":11285,"ĠMalaysia":11286,"ĠFil":11287,"Rule":11288,"ĠGeV":11289,"Av":11290,"media":11291,"irds":11292,"Ġspan":11293,"ĠInvest":11294,"equations":11295,"each":11296,"export":11297,"Ġindicating":11298,"Ġcompete":11299,"Ġevaluated":11300,"ĠHug":11301,"million":11302,"ĠFinland":11303,"ĠCEO":11304,"stances":11305,"ĠRE":11306,"Ġdownload":11307,"Ġroutes":11308,"Ġexponential":11309,"Ġ['":11310,"Ġgeometric":11311,"Cond":11312,"Database":11313,"orf":11314,"merce":11315,"Ġcloser":11316,"abet":11317,"Ġluminosity":11318,"ĠNob":11319,")^\\":11320,"Ġbirds":11321,"dict":11322,"Ġ$\\{\\":11323,"URE":11324,"Ġproportional":11325,"observ":11326,"record":11327,"ĠCensus":11328,"Ġmanuscript":11329,"Ġcolors":11330,"IME":11331,"Application":11332,"ugar":11333,"ĠMiami":11334,"mathtt":11335,"Ġagree":11336,"ĠUkrainian":11337,"apolis":11338,"-(":11339,"ĠLas":11340,"conduct":11341,"etric":11342,"ĠMayor":11343,"Found":11344,"ĠIR":11345,"verb":11346,"ĠTit":11347,"ste":11348,"]]":11349,"disabled":11350,"ige":11351,"rapy":11352,"ĠHerm":11353,"Ġaccommod":11354,"ĠMcK":11355,"cules":11356,"atherine":11357,"Ġoccas":11358,"dem":11359,"ĠAustrian":11360,"Ġparticipate":11361,"ĠOperation":11362,"Ġdiscovery":11363,"orses":11364,"False":11365,"Ġmock":11366,"ĠRic":11367,"GE":11368,"Ġacid":11369,"Medal":11370,"Histor":11371,"oggle":11372,"Lin":11373,"Ġmunicipal":11374,"STATE":11375,"Ġbranches":11376,"Ġequipped":11377,"Has":11378,"ĠBlo":11379,"Ġdriven":11380,"ĠRequ":11381,"Ġdismiss":11382,"'>":11383,"GET":11384,"Ga":11385,"ĠHas":11386,"claim":11387,"kw":11388,"Ġrenew":11389,"numer":11390,"refecture":11391,"Ġpraised":11392,"hover":11393,"Ġiteration":11394,"ĠTun":11395,"!]":11396,"Ġlegend":11397,"fix":11398,"ĠJava":11399,"comb":11400,"ĠDisney":11401,"Ġaccused":11402,"olph":11403,"Ġdiameter":11404,"Values":11405,"Bl":11406,"Ġmoder":11407,"gate":11408,"Ġindices":11409,"Ġchapter":11410,"ĠPeters":11411,"Ġsurfaces":11412,"\\%$":11413,"iri":11414,"Ġsupers":11415,"ĠPath":11416,"plus":11417,"DIR":11418,"door":11419,"WA":11420,"ativ":11421,"ĠĠĠĠĠĠĠĠĠĠĠĠĠĠĠĠĠĠĠĠĠĠĠĠĠ":11422,"ĠAssoci":11423,"ĠWindows":11424,"Ġliquid":11425,"1889":11426,"ĠWelsh":11427,"Ġgraduate":11428,"ancell":11429,"ĠTag":11430,"Title":11431,"ĠTreat":11432,"ername":11433,"Ġextreme":11434,"ĠLawrence":11435,"Ġbusinesses":11436,"Ġrapidly":11437,"uber":11438,"ruption":11439,"ĠBGCOLOR":11440,"Ġgoods":11441,"Helper":11442,"kl":11443,"Ġtries":11444,"Ġwindows":11445,"Tab":11446,"Ġreduces":11447,"ĠĠĠĠĠĠĊ":11448,"Ġ++":11449,"Ġdelivered":11450,"Ġtwelve":11451,"Ġrelationships":11452,"ĠCommunist":11453,"Ġmort":11454,"Ã³w":11455,"ĠRyan":11456,"ĠMPs":11457,"ĠAny":11458,"iliary":11459,"ĠStr":11460,"Ġdelete":11461,"Ġsensitive":11462,"ĠThailand":11463,"ĠMedicine":11464,"spring":11465,"Ġnormalized":11466,"gressive":11467,"pay":11468,"Ġfavour":11469,"Ġbishop":11470,"ĠRound":11471,"Ġfrequencies":11472,"Ġrows":11473,"Ġexped":11474,"Ġfaster":11475,"illed":11476,"anny":11477,"ĠFA":11478,"casting":11479,"Ġenabled":11480,"who":11481,"cloud":11482,"connect":11483,"Ġcorrections":11484,"Ġwavel":11485,"How":11486,"1894":11487,"Ġcommunic":11488,"game":11489,"ĠTam":11490,"eget":11491,"iple":11492,"ĠĠĠĠĠĠĠĠĠĠĠĠĠĠĠĠĠĠĠĠĠĠĠĠĠĠĠĠĠĠĠĠĠĠĠĠĠĠĠ":11493,"Common":11494,"ugins":11495,"ĠDave":11496,"ĠDeputy":11497,"Ġarmed":11498,"structure":11499,"'],":11500,"Ġexperienced":11501,"Ġeigenvalues":11502,"ĠNatural":11503,"Ġvarying":11504,"Ġisot":11505,"ĠPalace":11506,"Ġlands":11507,"ĠFall":11508,"ĠFried":11509,"115":11510,"ĠRap":11511,"oi":11512,"Ġinstrum":11513,"Ġinstruments":11514,"Ġcorrection":11515,"Ġlift":11516,"atters":11517,"Ġapi":11518,"Place":11519,"enter":11520,"ĠSingh":11521,"Ġneutrino":11522,"Ġpurchase":11523,"PRE":11524,"1893":11525,"Loc":11526,"ocracy":11527,"Ġjustice":11528,"eting":11529,"Ġarchae":11530,"Ġ})":11531,"Ġensemble":11532,"Invalid":11533,"ĠGuide":11534,"omas":11535,"ACE":11536,"Tool":11537,"1892":11538,"ĠHistorical":11539,"written":11540,"=\"\"":11541,"ĠDefense":11542,"acle":11543,"Ġfly":11544,".\\\\":11545,"rev":11546,"oves":11547,"enz":11548,"Ġsymbols":11549,"ACT":11550,"Ġphilosophy":11551,"Ġvision":11552,"Ġpenalty":11553,"ĠOttoman":11554,"Argument":11555,"click":11556,"Ġ..":11557,"loss":11558,"(-\\":11559,"Phys":11560,"KEY":11561,"ĠRugby":11562,"Ġclock":11563,"Ġconvers":11564,"ĠTamil":11565,"Sym":11566,"hfill":11567,"ĠPeace":11568,"Ġtargets":11569,"Ġconventional":11570,"Ġperturbation":11571,"Ġroads":11572,"ĠHungary":11573,"Ġaccompl":11574,"Metadata":11575,"Air":11576,"env":11577,"Ġcontribute":11578,"Ġresearchers":11579,"ĠHungarian":11580,"Root":11581,"ourse":11582,"Ġopinion":11583,"phantom":11584,"ĠKennedy":11585,"March":11586,"Jo":11587,"ĠDeath":11588,"Ġcrisis":11589,"olas":11590,"Ġsecure":11591,"ĠMcG":11592,"ÅŁ":11593,"Hom":11594,"issue":11595,"Ġstored":11596,"fire":11597,"cross":11598,"1885":11599,"sis":11600,"Ġearliest":11601,"Ġraw":11602,"Ġrefuge":11603,"leman":11604,"ĠNash":11605,"ĠWard":11606,"Ġescap":11607,"orus":11608,"Ġ,\\":11609,"Ġexplore":11610,"ĠBuff":11611,"DL":11612,"Ġsymp":11613,"ORM":11614,"Ġclassic":11615,"Ġthousands":11616,"Ġbenefits":11617,"Ġstopped":11618,"Ġarrival":11619,"Ġconstituency":11620,"ĠDead":11621,"Ġphotograph":11622,"ĠRang":11623,"ĠBart":11624,"Ġgenerator":11625,"represent":11626,"ographics":11627,"Ġconvention":11628,"Ã©n":11629,"ĠBox":11630,"estyle":11631,"Ġgrounds":11632,"Ġuniversities":11633,"bridge":11634,"Ġchair":11635,"intend":11636,"Ġcollections":11637,"Ġhosts":11638,"ĠManu":11639,"Ġforming":11640,"_;":11641,"square":11642,"itudes":11643,"Ġsatellite":11644,"ĠPear":11645,"Ġpup":11646,"Pe":11647,"ĠErn":11648,"prising":11649,"assador":11650,"ĠRick":11651,"Ġregularly":11652,"Ġvanish":11653,"Ġham":11654,"ĠHin":11655,"support":11656,"register":11657,"Ġblow":11658,"Writer":11659,"Ġvariant":11660,"Ġflying":11661,"Ġbytes":11662,"Ġuniformly":11663,"James":11664,"ĠMond":11665,"jective":11666,"Ġinvoke":11667,"Ġstead":11668,"Ġfalls":11669,"named":11670,"Ġdirectory":11671,"orrow":11672,"session":11673,"Ġcub":11674,"Ġowners":11675,"blast":11676,"NG":11677,"Ġisolated":11678,"Ġinclusion":11679,"Ġcriteria":11680,"1860":11681,"ĠMontreal":11682,"Ġparse":11683,"Stack":11684,"rett":11685,"boldmath":11686,"ĠTraining":11687,"isot":11688,"Ġhuge":11689,"Ġpremiered":11690,"Ġperspective":11691,"uis":11692,"ĠCare":11693,"Ġvot":11694,"aintenance":11695,"ĠBangladesh":11696,"ĠSimilarly":11697,"ĠSeveral":11698,"widget":11699,"Rich":11700,"ĠIron":11701,"ĠChairman":11702,"Ġtel":11703,"ĠLanguage":11704,"atorial":11705,"bara":11706,"Paul":11707,"Ãª":11708,"Ġscholars":11709,"Î±":11710,"Ġphoto":11711,"prison":11712,"ĠVersion":11713,"Ġinputs":11714,"ĠSuppose":11715,"Ġoperates":11716,"Space":11717,"ĠPrad":11718,"dash":11719,"ployment":11720,"Graph":11721,"ĠAnna":11722,"ĠNet":11723,"Ġclosure":11724,"Ġjobs":11725,"Ġtopology":11726,"Ġsevere":11727,"ea":11728,"plan":11729,"Ġglob":11730,"Ġcod":11731,"footnotes":11732,"Ġdx":11733,"isition":11734,"Ġedited":11735,"Ġlob":11736,"application":11737,"Reader":11738,"Sur":11739,"ĠKevin":11740,"Ġcarrying":11741,"Den":11742,"105":11743,"Ġbringing":11744,"quant":11745,"Ġenhance":11746,"corollary":11747,"Ġinfrastructure":11748,"iii":11749,"loat":11750,"Ġkeys":11751,"ĠRace":11752,"Ġfluctuations":11753,"din":11754,"Bur":11755,"ĠRailroad":11756,"Ġaer":11757,"jpg":11758,"nik":11759,"Ġprize":11760,"ĠGon":11761,"ilst":11762,"lia":11763,"Ġveter":11764,"Ġpandemic":11765,"jecture":11766,"Ġbiggest":11767,"Ġcricketers":11768,"Ġagricultural":11769,"Ġgrade":11770,"Ġsteam":11771,"Ġorientation":11772,"Ġresidence":11773,"Ġminute":11774,"ĠĠĠĠĠĠĠĠĠĠĠĠĠĠĠĠĠĠĠĠĠĠĠĠ":11775,"ections":11776,"margin":11777,"fall":11778,"Ġseek":11779,"Ġremember":11780,"Ġremainder":11781,"Ġpractices":11782,"leased":11783,"ĠJohann":11784,"posing":11785,"virtual":11786,"entity":11787,"1891":11788,"Ġtight":11789,"ĠSR":11790,"resol":11791,"Ġlegislation":11792,"&#":11793,"panel":11794,"Assert":11795,"eval":11796,"ĠMS":11797,"Ġethnic":11798,"Ġproducers":11799,"ĠKelly":11800,"Ġassistance":11801,"Ġalgebraic":11802,"ĠAlice":11803,"ĠPad":11804,"Any":11805,"Media":11806,"Ġconfigurations":11807,"ĠMC":11808,"cb":11809,"Scott":11810,"ĠDigital":11811,"ĠassertEquals":11812,"ĠMetropolitan":11813,"auto":11814,"ĠAlfred":11815,"ĠVideo":11816,"ĠScient":11817,"ĠVienna":11818,"Ġbyte":11819,"ibl":11820,"----------------------------------------------------------------":11821,"Ġmilit":11822,"Ġunus":11823,"ugoslav":11824,"aws":11825,"Ġpod":11826,"UC":11827,"Ġdegener":11828,"Num":11829,"VM":11830,"Ġduty":11831,"Ġscientists":11832,"total":11833,"ynamics":11834,"Ġseventh":11835,"hythm":11836,"Ġpolarization":11837,"ĠRot":11838,"ĠFourier":11839,"Ġunderstood":11840,"ĠMission":11841,"ĠRomania":11842,"ĠConsider":11843,"Ġaccompanied":11844,"Ġnearest":11845,"Ġfitted":11846,"ÈĻ":11847,"Ġchallenges":11848,"^*(":11849,"Ġatoms":11850,"Ġaf":11851,"Ġcyl":11852,"Release":11853,"Ġreception":11854,"ĠImage":11855,"ĠAtlanta":11856,"ĠAdvent":11857,"footnotesize":11858,"Ġlocality":11859,"imit":11860,"Ġcenters":11861,"ĠIO":11862,"ativity":11863,"140":11864,"Ġpercentage":11865,"ĠLO":11866,"ĠFal":11867,"Ġnortheast":11868,"ĠBoys":11869,"Ġgenera":11870,"ĠAlban":11871,"functions":11872,"ECT":11873,"election":11874,"Ġmodeling":11875,"Match":11876,"oly":11877,"Ġunsigned":11878,"ĠSaf":11879,"ĠBush":11880,"wave":11881,"Russian":11882,"Ġpermut":11883,"ĠMorgan":11884,"ĠLear":11885,">.":11886,"iverpool":11887,"isations":11888,"insula":11889,"Ġprecise":11890,"Ġbreed":11891,"Ġtopic":11892,"Ġshut":11893,"LR":11894,"ĠPublishing":11895,"Ġassociate":11896,"Ġidentification":11897,"ĠError":11898,"Ġpanels":11899,"racket":11900,"Ġfeedback":11901,"ĠSeattle":11902,"Ġconversion":11903,"Cy":11904,"ĠSaturday":11905,"uality":11906,"adoop":11907,"Production":11908,"ici":11909,"Ġcolonial":11910,"Ġcollision":11911,"ĠJosÃ©":11912,"Ġvalley":11913,"Ġvictims":11914,"Fran":11915,"$.}":11916,"Ġdivisions":11917,"Ġmedicine":11918,"Ġneither":11919,"001":11920,"Ġprev":11921,"mingham":11922,"screen":11923,"Ġtank":11924,"Ġremote":11925,"attribute":11926,"Ber":11927,"ĠHind":11928,"Ġwaters":11929,"custom":11930,"Ġassault":11931,"Ġranking":11932,"Ġresponsibility":11933,"changed":11934,"Ġcrown":11935,"Ġmetall":11936,"Ġcaught":11937,"Ġinvestigated":11938,"Ġwarm":11939,"Ġcredit":11940,"Ġrestriction":11941,"Ġarranged":11942,"ĠMargaret":11943,"lass":11944,"Ġexhibit":11945,"aman":11946,"alia":11947,"arithm":11948,"ĠAdams":11949,"ibration":11950,"August":11951,"ymmetric":11952,"ĠKings":11953,"ĠSP":11954,"gather":11955,"ĠCrown":11956,"Ã¨re":11957,"ethe":11958,"Å¾":11959,"profile":11960,"Ġconjug":11961,"phase":11962,"overy":11963,"Ġdies":11964,"Ġsignificance":11965,"ĠFight":11966,"1888":11967,"ĠNeb":11968,"Ġstrictly":11969,"Ġmining":11970,"Ġdistances":11971,"Ġstrategies":11972,"words":11973,"ĠRussell":11974,"Ġ(*":11975,"Ġadvers":11976,"ĠMicrosoft":11977,"keys":11978,"ĠMaur":11979,"umps":11980,"fast":11981,"Ġvirt":11982,"}{{\\":11983,"ĠAM":11984,"oka":11985,"Classes":11986,">();":11987,"Ġsupposed":11988,"Ġelectro":11989,"gow":11990,"varrho":11991,"overty":11992,"Ġrequirement":11993,"Ġschemes":11994,"Ġcourses":11995,"olia":11996,"Ġcompens":11997,"Ġbed":11998,"ĠLib":11999,"Ġfacilit":12000,"ĠCleveland":12001,"textup":12002,"phan":12003,"*}[":12004,"have":12005,"Ġkid":12006,"ĠCarn":12007,"bach":12008,"Bytes":12009,"ĠRio":12010,"ĠĠĠĠĠĠĠĠĠĠĠĠĠĠĠĠĠĠĠĠĠĠ":12011,"herical":12012,"mf":12013,"ervoir":12014,"ĠSO":12015,"ĠStart":12016,"oba":12017,"Ġpresents":12018,"Ġshooting":12019,"inea":12020,"Short":12021,"Ġpassengers":12022,"Political":12023,"none":12024,"orient":12025,"ĠBeat":12026,"}$\\":12027,"ilk":12028,"will":12029,"ircles":12030,"Ġstatements":12031,"hips":12032,"Ġsolving":12033,"Ġcolspan":12034,"ĠJun":12035,"Ġdesigner":12036,"ĠChampion":12037,"Ġdialog":12038,"Ġabsorption":12039,"illo":12040,"Ġdefinitions":12041,"edu":12042,"Ġdial":12043,"Ġcoun":12044,"Ġau":12045,"erion":12046,"Ġconcrete":12047,"$\\,":12048,"symmet":12049,"series":12050,"Ġdescend":12051,"ĠNE":12052,"egas":12053,"Ġnotably":12054,"ĠChamber":12055,"Ġinvent":12056,"112":12057,"ĠABC":12058,"ĠSN":12059,"'ll":12060,"random":12061,"ĠBetween":12062,"important":12063,"cycle":12064,"ĠMes":12065,"Ġsurvived":12066,"ĠHTML":12067,"textnormal":12068,"aste":12069,"Ġwrest":12070,"Ġrestored":12071,"etry":12072,"HTML":12073,"Ġinstruction":12074,"ĠAlgorithm":12075,"Ġelectrons":12076,"settings":12077,"Ġwithd":12078,"asa":12079,"ĠKon":12080,"aud":12081,"Ġprofiles":12082,"Ġlayout":12083,"ĠCooper":12084,"Ġpriest":12085,"Ġkeeping":12086,"Ġretained":12087,"ĠAP":12088,"ĠShah":12089,"Ġconcerned":12090,"ried":12091,"Imp":12092,"Ġmob":12093,"ĠMountains":12094,"Ġcrucial":12095,"Ġexerc":12096,"Ġboost":12097,"islature":12098,"ĠDNA":12099,"Ġray":12100,"ĠDM":12101,"duces":12102,"Ġincreasingly":12103,"Tube":12104,"Ġfired":12105,"HR":12106,"Boolean":12107,"uid":12108,"Miss":12109,"Ġswe":12110,"NT":12111,"Ġfranchise":12112,"ĪĴ":12113,"Ġtemporal":12114,"gment":12115,"BP":12116,"orne":12117,"DT":12118,"ĠAlliance":12119,"Ġvolumes":12120,"Ġderivatives":12121,"nia":12122,"Ġoccupation":12123,"ĠMetro":12124,"Ġownership":12125,"connection":12126,"ĠHampshire":12127,"Fix":12128,"ĠGall":12129,"Ġranges":12130,"Ġrevers":12131,"Ġdeviation":12132,"Ġanniversary":12133,"Ġsubstantial":12134,"ricket":12135,"Ġcomposers":12136,"Ġfold":12137,"Ġcollapse":12138,"Ġmir":12139,"limit":12140,"ugs":12141,"Ġdisorder":12142,"ĠDean":12143,"leyball":12144,"Ġadmitted":12145,"boolean":12146,"ĠPC":12147,"ibilities":12148,"~(\\":12149,"###":12150,"requency":12151,"Ġjourney":12152,"nolimits":12153,"Ġdamaged":12154,"ĠPrincess":12155,"connected":12156,"ipped":12157,"Ġreward":12158,"riday":12159,"ĠOrthodox":12160,"pto":12161,"Mer":12162,"dig":12163,"ÅĦ":12164,"ATH":12165,"amps":12166,"ebox":12167,"Ġlib":12168,"protobuf":12169,"ĠPun":12170,"Ġsinging":12171,")(\\":12172,"Ġquas":12173,"ĠAustin":12174,"Ġcited":12175,"ĠThompson":12176,"Sl":12177,"ĠBull":12178,"Ġsynchron":12179,"wig":12180,"ĠVenezuel":12181,"ĠComics":12182,"keep":12183,"sql":12184,"hai":12185,"nabled":12186,"Ġstructural":12187,"Ġscenarios":12188,"tha":12189,"ĠVolume":12190,"Render":12191,"Ġcontroller":12192,"Cam":12193,"ĠMarie":12194,"Ġaccret":12195,"Ġrecovered":12196,"DI":12197,"Ġdepos":12198,"Ġcrowd":12199,"Directory":12200,"Ġlatest":12201,"ĠMunicipality":12202,"Ġsuppose":12203,"cia":12204,"Debug":12205,"finite":12206,"ĠDance":12207,"ĠKnight":12208,"Ġindependently":12209,"ĠAgric":12210,"ĠOpera":12211,"lyph":12212,"ĠJu":12213,"Ġcompatible":12214,"Ġsensitivity":12215,"Ġweighted":12216,"Ġrunner":12217,"Ġleaf":12218,"Ġdepicted":12219,"Ġmoments":12220,"ĠNewton":12221,"Pool":12222,"ĠRoger":12223,"Ġ_{\\":12224,"ĠPittsburgh":12225,"'_{":12226,"iac":12227,"ĠMaine":12228,"ĠNep":12229,"Ġsigns":12230,"Ġhappened":12231,"esis":12232,"Ġmodules":12233,"story":12234,"ĠKan":12235,"{(\\":12236,"Ġquadratic":12237,"Ġschedule":12238,"ĠGirls":12239,"Ġfitting":12240,"ĠDie":12241,"role":12242,"Err":12243,"rose":12244,"Ġshares":12245,"Ġsynd":12246,")}.":12247,"ĠPolicy":12248,"ordinate":12249,"Ġrain":12250,"sep":12251,"endment":12252,"onian":12253,"Ġimprison":12254,"'))":12255,"ĠBlock":12256,"Ġcompla":12257,"ranean":12258,"Ġreads":12259,"ĠKnow":12260,"Xml":12261,"|$":12262,"sea":12263,"Ġpret":12264,"Ġsphere":12265,"ĠAT":12266,"Ġsystematic":12267,"|^{":12268,"Ġabsorb":12269,"rehens":12270,"Ġstabil":12271,"June":12272,"Ġorbital":12273,"Ġvalign":12274,"Ġaux":12275,"ĠBed":12276,"PY":12277,"Ġreconstruct":12278,"Ġrailroad":12279,"Ġhun":12280,"ĠProdu":12281,"Ġquot":12282,"ellect":12283,"avi":12284,"Ġpron":12285,"Ġsin":12286,"1865":12287,"ĠConvention":12288,"rob":12289,"ĠAy":12290,"Ġmental":12291,"Ġbra":12292,"exception":12293,"Ma":12294,"ĠStewart":12295,"Ġfiled":12296,"ĠLower":12297,"Ġpatient":12298,"ĠTak":12299,"ĠLagrangian":12300,"VI":12301,"Doc":12302,"Ġos":12303,"hoen":12304,"Ġresign":12305,"Ġdecreases":12306,"Ġ<=":12307,"ĠVAL":12308,"Ġdeputy":12309,"Ġtemporary":12310,"ultan":12311,"vironments":12312,"ĠReport":12313,"Est":12314,"Ġacknowled":12315,"Ġthank":12316,"Ġtang":12317,"Ġnorthwest":12318,"Ġrequested":12319,"erbai":12320,"hal":12321,"ĠBruce":12322,"ovo":12323,"Ġpainters":12324,"Ġdomains":12325,"isting":12326,"ĠUE":12327,"Ġexperiences":12328,"Delete":12329,"rable":12330,"through":12331,"ĠOd":12332,"Ġrooms":12333,"`.":12334,"orton":12335,"Ġteen":12336,"rinsic":12337,"ĠArg":12338,"ĠNi":12339,"Ġelementary":12340,"Ġboys":12341,"Api":12342,"kee":12343,"take":12344,"hanced":12345,"Ġformulation":12346,"ĠBaltimore":12347,"Meta":12348,"ĠGulf":12349,"ĠVik":12350,"ĠWright":12351,"Ġvic":12352,")--(":12353,"aten":12354,"ĉĉĉĊ":12355,"Ġpreserved":12356,"Ġmarine":12357,"Ġpuls":12358,"grade":12359,"ĠMagn":12360,"ĠTs":12361,"Ġpublishing":12362,"front":12363,"Ġatomic":12364,"ificial":12365,"ĠGran":12366,"irates":12367,"Ġdecisions":12368,"letion":12369,"ugment":12370,"Ġmyth":12371,"Ġdict":12372,"Ġrecur":12373,"bed":12374,"Ġuncertainties":12375,"Ġagencies":12376,"anging":12377,"parallel":12378,"\\|_":12379,"ĠGR":12380,"ĠUpper":12381,"ĠLap":12382,"ogy":12383,"oks":12384,"Ġmine":12385,"Ġpointed":12386,"1887":12387,"ĠFunction":12388,"ĠOri":12389,"ibraries":12390,"ounced":12391,"Ġselling":12392,"ĠBrothers":12393,"Display":12394,"ĠContin":12395,"ĠEver":12396,"ĠSenator":12397,"ĠMarshall":12398,"Ġguide":12399,"Hy":12400,"1886":12401,"Ġelli":12402,"ĠHit":12403,"ĠIndex":12404,"arus":12405,"Descriptor":12406,"ĠCurrent":12407,"Parser":12408,"Ġprisoners":12409,"Ġ\\|\\":12410,"Ġframes":12411,"Ġdefensive":12412,"Ġwa":12413,"ĠSac":12414,"Ġconsiderable":12415,"Ġstreets":12416,"ortion":12417,"ĠChem":12418,"Ġbanks":12419,"Network":12420,"Ġjudges":12421,"Afric":12422,"ĠGray":12423,"sample":12424,"Ġcourts":12425,"romagnetic":12426,"ĠSin":12427,"urable":12428,"erving":12429,"MF":12430,"Ġstyles":12431,"114":12432,"Later":12433,"Ġbelonging":12434,"Ġathletes":12435,"Ġregiment":12436,"ĠCatal":12437,"ĠCampbell":12438,"Args":12439,"ĠNelson":12440,"ĠChristopher":12441,"imir":12442,"ĠChart":12443,"ĠColonel":12444,"mag":12445,"ĠDeep":12446,"Ġnaturally":12447,"ermin":12448,"Ġphone":12449,"ĠDakota":12450,"oes":12451,"uable":12452,"Ġexit":12453,"mel":12454,"Ġplatforms":12455,"ĠJSON":12456,"miral":12457,"profit":12458,"Ġpopularity":12459,"Ġrecommended":12460,"$^{":12461,"April":12462,"rolling":12463,"ĠRain":12464,"Ġstronger":12465,"ĠConstant":12466,"Ġrounds":12467,"Ġheads":12468,"Ġconnecting":12469,"hibition":12470,"Ġri":12471,"wright":12472,"leans":12473,"=\"../../../":12474,"Member":12475,"Ġresidential":12476,"iah":12477,"Ġentering":12478,"Ġcounterpart":12479,"leftarrow":12480,"ĠTrade":12481,"oviÄĩ":12482,"ĠMaj":12483,"Opt":12484,"Ġpolynomials":12485,"pository":12486,"specific":12487,"ials":12488,"$^":12489,"backslash":12490,"network":12491,"Show":12492,"formed":12493,"bishop":12494,"ceil":12495,"ETH":12496,"ĠFive":12497,"ĠHell":12498,"Ġcontinuum":12499,"ĠDaily":12500,"Ġexpectation":12501,"Ġtransitions":12502,"Ġconvolution":12503,"ĠProt":12504,"Div":12505,"marks":12506,"Organ":12507,"ĠCarter":12508,"ĠMorris":12509,"ĠRural":12510,"TER":12511,"Spe":12512,"ĠNic":12513,"Ġattorney":12514,"bd":12515,"Ġmal":12516,"Ġcaref":12517,"113":12518,"ĠLane":12519,"Ġbaseline":12520,"ĠGlas":12521,"states":12522,"Auth":12523,"Ġhomogeneous":12524,"selected":12525,"ĠTask":12526,"editor":12527,"lett":12528,"Ġvenues":12529,"Ġdensities":12530,"Ġmeters":12531,"bow":12532,"Ġdebuted":12533,"alph":12534,"ĠThough":12535,"tagon":12536,"kern":12537,"FAULT":12538,"distance":12539,"ECK":12540,"publ":12541,"Ġgather":12542,"ĠEU":12543,"stackrel":12544,"Ġcriticized":12545,"smallskip":12546,"Ġbits":12547,"Ġactivist":12548,"ders":12549,"Ġreaches":12550,"ogs":12551,"fr":12552,"shaped":12553,"Ġorthogonal":12554,"works":12555,"vc":12556,"Ġhalo":12557,"avalry":12558,"}\"":12559,"Pal":12560,"ishers":12561,"iop":12562,"Ġstraightforward":12563,"Ġwarn":12564,"ĠYears":12565,"Ġmit":12566,"lee":12567,"ĠOblast":12568,"pair":12569,"ouver":12570,"Ġmanip":12571,"Ġeyes":12572,"idget":12573,"insert":12574,"Ġexplanation":12575,"Ġdebate":12576,"blem":12577,"StyleID":12578,"Ġdistinguish":12579,"wrap":12580,"initial":12581,"Ġgreatly":12582,"nm":12583,"Ġattributed":12584,"Ġnaval":12585,"recated":12586,"Ġgang":12587,"ĠFull":12588,"Ġhappen":12589,"ĠRobinson":12590,"care":12591,"ĠSS":12592,"liminary":12593,"ĠEmer":12594,"ĠCass":12595,"bone":12596,"ints":12597,"Ġbid":12598,"ĠTrib":12599,"Ġanalytic":12600,"Ġformul":12601,"1850":12602,"eva":12603,"kar":12604,"listed":12605,"osed":12606,"padding":12607,"Ġmanufacturing":12608,"Ġsuit":12609,"Ġrecept":12610,"Stand":12611,"Ġmeets":12612,"Ġoffering":12613,"102":12614,"ĠNord":12615,"Ġfragment":12616,"ĠLiverpool":12617,"aneous":12618,"aset":12619,"ĠEconomic":12620,"hadoop":12621,"ĠLanka":12622,"Ġpitch":12623,"Ġhill":12624,"ĠCR":12625,"ĠPatri":12626,"hn":12627,"ĠUpon":12628,"Ġvalidation":12629,"Example":12630,"oom":12631,"ITY":12632,"Ġoffensive":12633,"Ġdistinguished":12634,"ĠAuthority":12635,"ĠÐ¿":12636,"ĠStanley":12637,"Ġlogic":12638,"Ġeveryone":12639,"ĠAud":12640,"Ġdiffusion":12641,"footer":12642,"Ġpotentially":12643,"Ġ{$\\":12644,"ensing":12645,"Ġenv":12646,"ĠDallas":12647,"jamin":12648,"1861":12649,"ĠKarl":12650,"Ġspeaking":12651,"ragment":12652,"Ġcomparable":12653,"Ġinstruct":12654,"Custom":12655,"Ġresid":12656,"Ġepoch":12657,"ĠCit":12658,"Ġ).":12659,"lb":12660,"ĠReform":12661,"coin":12662,"Ġdrawing":12663,")}(\\":12664,"ĠBomb":12665,"icons":12666,"ĠHend":12667,"Ġcircular":12668,"ÐµÐ½":12669,"Cref":12670,"Perm":12671,"1884":12672,"umar":12673,"agger":12674,"Ġconservative":12675,"1864":12676,"pin":12677,"ĠRan":12678,"ĠGill":12679,"ĠURL":12680,"mund":12681,"Ġprovincial":12682,"eenth":12683,"September":12684,"ipher":12685,"ĠGraham":12686,"Ġirreducible":12687,"ĠSE":12688,"111":12689,"Ġstood":12690,"oro":12691,"Ġmarkets":12692,"blockList":12693,"ĠCel":12694,"help":12695,"ĠRight":12696,"aptist":12697,"iere":12698,"SION":12699,"ĠKit":12700,"inae":12701,"ĠFranklin":12702,"]^":12703,"ĠPrefecture":12704,"Ġresidual":12705,"utable":12706,"July":12707,"ĠBernard":12708,"umbent":12709,"elian":12710,"Ġjuris":12711,"Summary":12712,"Ġdip":12713,"Ġaccum":12714,"Ġbatch":12715,"ĠAmazon":12716,"}^+":12717,"Ġrivers":12718,"Ġlandscape":12719,"mean":12720,"Ġknock":12721,"ANT":12722,"Ġreducing":12723,"Ġracial":12724,"Ġmig":12725,"central":12726,"Storage":12727,"Ġwants":12728,"Ġdiagrams":12729,"Ġduties":12730,"ĠCrit":12731,"Rect":12732,"ĠLl":12733,"October":12734,"Ġconsole":12735,"single":12736,"ĠSarah":12737,"ails":12738,"Ġmultiplic":12739,"ĠBrooklyn":12740,"Ġmo":12741,"ĠArena":12742,"orkshire":12743,"Ġdating":12744,"Ġtransverse":12745,"Ġsimilarity":12746,"Ġdiscontin":12747,")))":12748,"Profess":12749,"ÑģÑĤ":12750,"Ġreasonable":12751,"iterranean":12752,"Ġcards":12753,"grav":12754,"marine":12755,"Job":12756,"-->":12757,"ĠOrganization":12758,"ĠCond":12759,"Ġsuccessor":12760,"Ġtied":12761,"iemann":12762,"udden":12763,"iper":12764,"Ġconfirm":12765,"asts":12766,"Ġcomed":12767,"Ġsoutheast":12768,".$$":12769,"Ġskin":12770,"ĠMovement":12771,"Dialog":12772,"Ġna":12773,"children":12774,"Str":12775,"Ġthanks":12776,"}/\\":12777,"bc":12778,"ĠFood":12779,"117":12780,"Ġcla":12781,"Ġcredited":12782,"usalem":12783,"Ġfinals":12784,"Ġrestaurant":12785,"bootstrap":12786,"gue":12787,"Ġteachers":12788,"ĠCle":12789,"Ġmemorial":12790,"ĠUlt":12791,"Ġstarred":12792,"ĠCentury":12793,"ĠCarib":12794,"Ġru":12795,"*\\":12796,"heric":12797,"Ġneutron":12798,"Ġentang":12799,"ĠJudge":12800,"Ġspeak":12801,"Ġhal":12802,"ĠDefence":12803,"Ġeliminated":12804,"Prim":12805,"terior":12806,"1881":12807,"ĠAthletic":12808,".[":12809,"George":12810,"Ġsegments":12811,"Robert":12812,"Î¿":12813,"ĠYan":12814,"redit":12815,"Byte":12816,"ivan":12817,"than":12818,"pert":12819,"Fields":12820,"Ġcancel":12821,"Ġconcerning":12822,"ĠBirmingham":12823,"Ġask":12824,"Ġchoices":12825,"izontal":12826,"Ġtunnel":12827,"&=&\\":12828,"Ġmsg":12829,"about":12830,"Ġmechanisms":12831,"Full":12832,"ĠSax":12833,"Ġmovements":12834,"Ġanimation":12835,"Ġknew":12836,"ãĢ":12837,"cam":12838,"ulu":12839,"Ġfiber":12840,"Ġlit":12841,"uning":12842,"Package":12843,"Ġrequests":12844,"Ġcriticism":12845,"&&\\":12846,"Ġsees":12847,"bits":12848,"town":12849,"Ġpainted":12850,"Ġextracted":12851,"}.}":12852,"unately":12853,"ĠRico":12854,"ĠMong":12855,"Ġcompetitive":12856,"ĠProcess":12857,"$'":12858,"$\\\\":12859,"Sn":12860,"Ġrandomly":12861,"$/":12862,"ĠMol":12863,"Ġpixel":12864,"Ġbrig":12865,"ĠMurray":12866,"Ġdiscip":12867,"104":12868,"Ġdefining":12869,"SET":12870,"etary":12871,"Ġfruit":12872,"ĠSeason":12873,"Ġhelps":12874,"ĠWing":12875,"GeV":12876,"ĠPrior":12877,"ĠTournament":12878,"Ġposterior":12879,"ĠWoman":12880,"[$":12881,"Ġappeal":12882,"ĠLeban":12883,"Ġjunction":12884,"Ġheritage":12885,"Demographics":12886,"may":12887,"Ġelem":12888,"Symbol":12889,"anti":12890,"Ġorganisation":12891,"irs":12892,"Ġcomprehens":12893,".:":12894,"Mag":12895,"Ġinvalid":12896,"Ġdispersion":12897,"Ġmouth":12898,"Ġfemin":12899,"Ġsouthwest":12900,"ĠFather":12901,"Route":12902,"Ġjournalists":12903,"Ġterminal":12904,"ĠNorman":12905,"isode":12906,"later":12907,"ĠUser":12908,"ĠCapital":12909,"ĠRetriev":12910,"Items":12911,"Ġfest":12912,"ĠPay":12913,"Ġcous":12914,"tery":12915,"Ġheaded":12916,"Ġbutton":12917,"rn":12918,"uming":12919,"Ġunsuccess":12920,"1882":12921,"zone":12922,"ĠSchools":12923,"Enabled":12924,"ĠLithuan":12925,"Ġrobot":12926,"Ġintent":12927,"Ġhelping":12928,"Elect":12929,"Ġvul":12930,"ĠFIFA":12931,"ĠBasketball":12932,"ĠWebsite":12933,"Ġwheel":12934,"tar":12935,"Jew":12936,"Arm":12937,"Ġmechanical":12938,"ocker":12939,"scious":12940,"ido":12941,"downarrow":12942,"Ġembedded":12943,"Kn":12944,"invariant":12945,"Ġreceiver":12946,"Active":12947,"Ġdiscussions":12948,"Lab":12949,"ĠEdd":12950,"ĠCorollary":12951,"ĠNazi":12952,"Ġuniqu":12953,"Ġgran":12954,"ĠRest":12955,"Ġdefeating":12956,"_{+":12957,"Rest":12958,"athy":12959,"itime":12960,"Ġsimulated":12961,"Ġhabitat":12962,"Ġrecovery":12963,"Ġproperly":12964,"`,":12965,"Ġgrass":12966,"XT":12967,"iday":12968,"ostic":12969,"Ġreverse":12970,"Ñĩ":12971,"Gr":12972,"ĠAN":12973,"multline":12974,"mate":12975,"Ġslope":12976,"Ġmile":12977,"'d":12978,"ĠDub":12979,"ĠPut":12980,"ĠConservative":12981,"fiction":12982,"hill":12983,"hus":12984,"UID":12985,"rov":12986,"ĠGuy":12987,"three":12988,"ĠPrincip":12989,"ĠYang":12990,"]:":12991,"Ġordinary":12992,"ĠLP":12993,"Ġdeleg":12994,"Green":12995,"ĠPortland":12996,"Ġdivor":12997,"Ġrent":12998,"ONE":12999,"Ġhappens":13000,"ĠStage":13001,"Ġmorphism":13002,"Ġdream":13003,"fol":13004,"1863":13005,"Ġ---":13006,"Ġreveals":13007,"ĠAS":13008,"1862":13009,"uparrow":13010,"116":13011,"Ġnations":13012,"propto":13013,"Ġtrajectory":13014,"writers":13015,"Alumni":13016,"rupted":13017,"Ġholes":13018,"ĠRud":13019,"ĠPi":13020,"Albums":13021,"dependency":13022,"ntil":13023,"Ġdiverse":13024,"Ġwounded":13025,"ĠCathedral":13026,"items":13027,"ĠMadrid":13028,"CB":13029,"sb":13030,"?\"":13031,"Ġcommune":13032,"Ġapplies":13033,"Ġnewspapers":13034,"ĠJimmy":13035,"rove":13036,"ĠBroadway":13037,"ĠAthletics":13038,"ĠCarlos":13039,"Ġ\\[":13040,"Ġadmin":13041,"Ġbusinessman":13042,"Ġhardware":13043,"Ġheter":13044,";<":13045,"Ġgrows":13046,"Spanish":13047,"Ġqualifying":13048,"design":13049,"ĠSoccer":13050,"ĠYouTube":13051,"Ġmerger":13052,"ASS":13053,"ĠZe":13054,"!\"":13055,"neur":13056,"ĠHorn":13057,"ughters":13058,"Ġfear":13059,"ĠWrestling":13060,"Ġsnow":13061,"fare":13062,"eton":13063,"Ġ'/":13064,"ÑĢÐ°":13065,"uchy":13066,"Ġcompeting":13067,"midrule":13068,"Ġinterpreted":13069,"period":13070,"Ġtheater":13071,"Ġveget":13072,"Ġabuse":13073,"Ġsight":13074,"GO":13075,"riel":13076,"ĠTrad":13077,"Ġweekly":13078,"Ġpreferred":13079,"Ġprefix":13080,"Ġregression":13081,"lotte":13082,"fixed":13083,"inline":13084,"ĠOrleans":13085,")>":13086,"month":13087,"European":13088,"spin":13089,"phe":13090,"Channel":13091,"Ġevening":13092,"ĠPerson":13093,"ĠBelgian":13094,"Ġreleg":13095,"kt":13096,"ĠCS":13097,"ĠAthe":13098,"patch":13099,"Ġdecline":13100,"ĠSport":13101,"hattan":13102,"Ġmedieval":13103,"ermi":13104,"Ġgarden":13105,"Tests":13106,"Ġ\\{\\":13107,"ĠWang":13108,"ĠTab":13109,"January":13110,"ancel":13111,"Ġsmallest":13112,"ĠSerbia":13113,"ĠEss":13114,"verage":13115,"oming":13116,"verted":13117,"ĠAqu":13118,"binom":13119,"ĠNeg":13120,"Ġjson":13121,"Ġlanding":13122,"cient":13123,"ODO":13124,"onymous":13125,";\\;":13126,"Ġintervals":13127,"Ġpoem":13128,"Town":13129,"Ġsolved":13130,"ĠPhot":13131,"events":13132,"Ġlabeled":13133,"Ġgiant":13134,"Queue":13135,"Mart":13136,"UL":13137,"ĠExp":13138,"WR":13139,"izers":13140,"Ġpermission":13141,"exports":13142,"Flags":13143,"ĠYorkshire":13144,"ifle":13145,"away":13146,"idean":13147,"Ġlikelihood":13148,"Ġprinciples":13149,"nan":13150,"ĠRAF":13151,"1883":13152,"ĠBaker":13153,"holm":13154,"ifting":13155,"_->":13156,"yll":13157,"ancouver":13158,"Ġcot":13159,"=\\{":13160,"puted":13161,"Ð¾Ð²":13162,"Auto":13163,"maker":13164,"Ġsleep":13165,"oples":13166,"Ġillegal":13167,"Ġrose":13168,"thread":13169,"Ġnavigation":13170,"Ġmathematical":13171,"Ġguitarist":13172,"Donald":13173,"ĠSmall":13174,"áº":13175,"Ġaveraged":13176,"ĠIvan":13177,"fish":13178,"orous":13179,"Decl":13180,"Ġpublicly":13181,"Ġinference":13182,"ĠFinnish":13183,"onomous":13184,"Ġwish":13185,"ĠBilly":13186,"Ġopportunities":13187,"Ġcrash":13188,"ĠJe":13189,"Ġconsumption":13190,"Fore":13191,"City":13192,"some":13193,"END":13194,"castle":13195,"enberg":13196,"ĠNad":13197,"prec":13198,"bus":13199,"estone":13200,"Ġrecru":13201,"density":13202,"Ġsubspace":13203,"ĠTob":13204,"Ġvessels":13205,"mill":13206,"oving":13207,"ĠLud":13208,"urers":13209,"Rob":13210,"Scope":13211,"Ġwrites":13212,"Ġcoastal":13213,"counter":13214,"ĠVic":13215,"Ġseparately":13216,"ĠGaz":13217,"ĠMack":13218,"Ġanalys":13219,"comes":13220,"otan":13221,"Ġworst":13222,"ĠFalse":13223,"opal":13224,"othy":13225,"Ġresonance":13226,"Ġoperational":13227,"}>":13228,"etition":13229,"Ġpray":13230,"ĠĠčĊ":13231,"Ġbinding":13232,"Ġemergency":13233,"annotation":13234,"PAR":13235,"Ġbars":13236,"ivia":13237,"ĠRu":13238,"Ben":13239,"Ke":13240,"Ġaccord":13241,"\"`":13242,"ĠUV":13243,"ĠBenn":13244,"rock":13245,"Ġenvironments":13246,"Ġcomplicated":13247,"Ġwat":13248,"Ġwithdraw":13249,"Ġnomination":13250,"Ġfictional":13251,"Ġparticipation":13252,"Ġswit":13253,"Ġchildhood":13254,"oga":13255,"article":13256,"Ġtopics":13257,"ĠSystems":13258,"=\"/":13259,"})^{":13260,"Ġrepresentatives":13261,"ĠPradesh":13262,"Ġmagazines":13263,"ĠTrophy":13264,"ricane":13265,"panic":13266,"Recip":13267,"sys":13268,"Ġelectoral":13269,"ensively":13270,"raska":13271,"Ġrealized":13272,"Obj":13273,"ĠEvans":13274,"approxim":13275,"ĠJason":13276,"cussion":13277,"Internal":13278,"Ġconcepts":13279,"ĠRand":13280,"aku":13281,"__(":13282,"enia":13283,"Services":13284,"four":13285,"CTION":13286,"Ġvoting":13287,"Click":13288,"Ġcraft":13289,"Ġneighb":13290,"Ġcelebrated":13291,"Ġanalyze":13292,"eto":13293,"ĠYugoslav":13294,"idad":13295,"Ġclimb":13296,"ĠVI":13297,"lington":13298,"hentication":13299,"uted":13300,"December":13301,"VP":13302,"ĠFuture":13303,"isons":13304,"Ġplasma":13305,"ĠNation":13306,"mock":13307,"Ġbuy":13308,"Ġsigning":13309,"rod":13310,"Ġartistic":13311,"Ġassets":13312,"annon":13313,"Personnel":13314,"Ġpole":13315,"Ġpoverty":13316,"ulum":13317,"Ġtie":13318,"Ġstruck":13319,"rus":13320,"typed":13321,"Ġtownship":13322,"Ġamounts":13323,"Ġforests":13324,"TF":13325,"\\},":13326,"1878":13327,"East":13328,"League":13329,"ĠJerusalem":13330,"thick":13331,"Ġful":13332,"emale":13333,"ĠApple":13334,"Ġalgebras":13335,"Ġcentered":13336,"ĠCopy":13337,"uble":13338,"hammad":13339,"Ġtransformations":13340,"txt":13341,"Mass":13342,"iko":13343,"ĠCarlo":13344,"ĠSyn":13345,"Ġbrick":13346,"abi":13347,"Ġpeaked":13348,"ijing":13349,"Ġaffairs":13350,"Ġinterpol":13351,"Ġbases":13352,"Ġfaces":13353,"Ġoverse":13354,"enson":13355,"akia":13356,"clidean":13357,"ĠShip":13358,"Ġaugment":13359,"complex":13360,"Ġsoil":13361,"ystem":13362,"Ġcomparing":13363,"âĢĿ.":13364,"Ġacoustic":13365,"tensor":13366,"Ġalcoh":13367,"unsigned":13368,"video":13369,"Ġsurrounded":13370,"ĠBlues":13371,"Ġcustomers":13372,"ĠTu":13373,"ĠAld":13374,"Prior":13375,"harm":13376,"ĠBible":13377,"ĠBud":13378,"ĠProm":13379,"apshot":13380,",...,":13381,"viously":13382,"Ð·":13383,"Named":13384,"Ġbon":13385,"ĠNigeria":13386,"November":13387,"Ġperforms":13388,"ĠSite":13389,"Ġdenied":13390,"Ġapplicable":13391,"Ġdaughters":13392,"ĠMotor":13393,"admin":13394,"ĠLGBT":13395,"Ġassignment":13396,"Account":13397,"\\}.":13398,"Ġempirical":13399,"ativistic":13400,"ĠRefer":13401,"ĠLimited":13402,"Ġexposure":13403,"Ġdt":13404,"Ġanyone":13405,"Conf":13406,"ĠBeck":13407,"Ġprovision":13408,"cmd":13409,"Ġromantic":13410,"ĠProtest":13411,"ctrine":13412,"agon":13413,"Ġviolin":13414,"Mock":13415,"Lock":13416,"eras":13417,"ĠHum":13418,"360":13419,"rapped":13420,"ĠChallenge":13421,"Ġpian":13422,"tableblock":13423,"Ġmaintenance":13424,"Ġhundreds":13425,"rb":13426,"ĠLock":13427,"alis":13428,"Ġestimator":13429,"toggle":13430,"ĠGlasgow":13431,"Ġimply":13432,"Ġrelief":13433,"ĠTigers":13434,"Ġnormally":13435,"Ġconditional":13436,"half":13437,"Single":13438,"ĠAzerbai":13439,"ĠPictures":13440,"eyer":13441,"entials":13442,"textsf":13443,"ĠNevada":13444,"ristol":13445,"moment":13446,"Ġfindings":13447,"problem":13448,"TEST":13449,"School":13450,"Ġgrown":13451,"Ġcommem":13452,"Overview":13453,"ocy":13454,"Ġrecre":13455,"Seg":13456,"iations":13457,"ĠDJ":13458,"ellectual":13459,"wp":13460,"Ġobst":13461,"Ġchamber":13462,"HD":13463,"alymp":13464,"email":13465,"ĠPierre":13466,"ï¼":13467,"learning":13468,"Ġmissions":13469,"Ġinduction":13470,"callback":13471,"Ġexport":13472,"ducational":13473,"Ġcouples":13474,"Ġintention":13475,"throws":13476,"below":13477,"Ġchallenging":13478,"JECT":13479,"subequations":13480,"Ġfeas":13481,"stad":13482,"ĠPoly":13483,"ĠCricket":13484,"Ġtransportation":13485,"Moths":13486,"Global":13487,"103":13488,"->_":13489,"Proposition":13490,"ĠUSS":13491,"iche":13492,"Ġaccessible":13493,"stery":13494,"cpp":13495,"Ġimpossible":13496,"{.":13497,"Ġlooks":13498,"ĠGary":13499,"Nor":13500,"Ġmunicipalities":13501,"impl":13502,"perimental":13503,"Ġsharp":13504,"Ġposted":13505,"Ġstayed":13506,"ĠCNN":13507,"athered":13508,"Edit":13509,"uka":13510,"shadow":13511,"Ġentertainment":13512,"Fl":13513,")}$.":13514,"initely":13515,"stage":13516,"ĠCF":13517,"Ġconfront":13518,"@\"":13519,"Ġdifficulty":13520,"Medalists":13521,"move":13522,"defn":13523,"Ġappointment":13524,"graduate":13525,"ĠPack":13526,"$-$":13527,"Ġsurgery":13528,"FILE":13529,"MAX":13530,"Ġretail":13531,"1876":13532,"Ġinstanceof":13533,"ĠTheater":13534,"hoenix":13535,"syn":13536,"Ġhandler":13537,"osph":13538,"Engine":13539,"Super":13540,"Ġmonument":13541,"Ġstrip":13542,"Ġterritories":13543,"Ġinfluential":13544,"Based":13545,"Ġlaser":13546,"Ġsudden":13547,"Univers":13548,"ĠStars":13549,"hum":13550,"controller":13551,"issues":13552,"Ġapproval":13553,"Ġimplicit":13554,"Ġsemantic":13555,"à¥":13556,"Ġcup":13557,"Ġimplements":13558,"ymmetry":13559,"}}\\,":13560,"Ġgradually":13561,"generated":13562,"Ġblog":13563,"hour":13564,"iege":13565,"ĠWarren":13566,")_{\\":13567,"tex":13568,"Ġ$^{":13569,"ĠEdition":13570,"ĠConfeder":13571,"Ġatmosphere":13572,"ĠVari":13573,"BF":13574,"Ġcounties":13575,"Ġkingdom":13576,"flat":13577,"Ġemployment":13578,"Changed":13579,"Also":13580,"Ġcomplement":13581,"Ġsituations":13582,"inemat":13583,"ĠMak":13584,"simple":13585,"ĠCA":13586,"tection":13587,"Ġcircles":13588,"Ġlongest":13589,"Ġcolleges":13590,"ĠAlaska":13591,"ASE":13592,"Ġsed":13593,"ĠAfghanistan":13594,"upt":13595,"ermont":13596,"iline":13597,"Ġpoets":13598,"Ġfermion":13599,"Pattern":13600,"Station":13601,"ĠBarry":13602,"Ġturning":13603,"Bigg":13604,"Week":13605,"1875":13606,"ĠMitchell":13607,"Ġdated":13608,"Free":13609,"Ġdress":13610,"ĠTower":13611,"gets":13612,"ĠJohnny":13613,"ĠBranch":13614,"Ġbear":13615,"Ġtrunc":13616,"both":13617,"pread":13618,"Ġcounts":13619,"Just":13620,"manager":13621,"Ġfails":13622,"Distribution":13623,"ĠJazz":13624,"ĠNBA":13625,"ĠFlore":13626,"fac":13627,"ĠCultural":13628,"Ġsuspended":13629,"rez":13630,"Ġgenerators":13631,"Feature":13632,"ĠIndians":13633,"}[!":13634,"uart":13635,"','":13636,"Ġstim":13637,"Ġsaved":13638,"Ġglu":13639,"ĠHero":13640,"ogue":13641,"ĠParish":13642,"]=":13643,"Ġoptional":13644,"Ġcorrelations":13645,"Ġinterference":13646,"ĠStorm":13647,"Ġfocuses":13648,"Ġhtml":13649,"Ġpixels":13650,"usp":13651,"ĠEquation":13652,"Security":13653,"Ġdwar":13654,"jet":13655,"ĠFel":13656,"Ġassass":13657,"Ġcorrespondence":13658,"ĠDefault":13659,"Ġrestrictions":13660,"astery":13661,"vanced":13662,"ĠDescription":13663,"ĠEug":13664,"ĠMilan":13665,"andal":13666,"Ġsimplicity":13667,"Old":13668,"zant":13669,"Ġcontinuing":13670,"oubt":13671,"Ġgrey":13672,"Icon":13673,"geon":13674,"how":13675,"ĠDelhi":13676,"1879":13677,"ĠHawaii":13678,"ĠEston":13679,"Ġratios":13680,"Extension":13681,"Taxa":13682,"Ġtriangle":13683,"material":13684,"_{[":13685,"Ġexpensive":13686,"git":13687,"engine":13688,"ĠCaribbean":13689,"Land":13690,"}{*}{":13691,"ortex":13692,"repre":13693,"analy":13694,"Ġfilmed":13695,"ĠNO":13696,"Home":13697,"ĠFr":13698,"Ġreleases":13699,"ĠTrack":13700,"lined":13701,"1867":13702,"ĠYe":13703,"ivodes":13704,"ĠElectric":13705,"Ġvast":13706,"dated":13707,"ĠHad":13708,"ĠDefinition":13709,"Ġtriple":13710,"Ġfee":13711,"Ġprinted":13712,"\",\"":13713,"ĠMother":13714,"ĠBurg":13715,"Through":13716,"ĠSerge":13717,"Ġinvolvement":13718,"}^{+":13719,"Fin":13720,"quir":13721,"ĠPolitical":13722,"Michael":13723,"cz":13724,"Ġpersonality":13725,"dropdown":13726,"Ġpseudo":13727,"Ġwides":13728,"bolic":13729,"Ġmedals":13730,")&":13731,"ĠHold":13732,"para":13733,"keley":13734,"asm":13735,"udson":13736,"bigcup":13737,"sts":13738,"Ġhistorians":13739,"ĠTHE":13740,"ICE":13741,"Ġinstrumental":13742,"JSON":13743,"Ġsending":13744,"ĠFriday":13745,"ĠAttorney":13746,"escope":13747,"Ġpassage":13748,"Ġstationary":13749,"Ġexposed":13750,"Ġ{{":13751,"dp":13752,"_,":13753,"Ġtexts":13754,"osc":13755,"Ġchampionships":13756,"Ġoutcome":13757,"opedia":13758,"arial":13759,"Ġimprovements":13760,"Register":13761,"asp":13762,"ĠMichel":13763,"ĠAssistant":13764,"Flora":13765,"ĠIan":13766,"Ġspoken":13767,"aron":13768,"Because":13769,"Ġhorizon":13770,"Ġcontroversy":13771,"SN":13772,"ĠAccess":13773,"lg":13774,"ĠRomanian":13775,"tre":13776,"Ġflags":13777,"ĠBachelor":13778,"\\[\\":13779,"ARY":13780,"ĠMatthew":13781,"Ġpeaks":13782,"ĠGun":13783,"Ġflowers":13784,"making":13785,"Ġhosp":13786,"1871":13787,"Ġarrangement":13788,"Ġsharing":13789,"Ġ\\}":13790,"trivial":13791,"deep":13792,"ĠCharlie":13793,"ĠWayne":13794,"uits":13795,"intro":13796,"'=":13797,"Send":13798,"Ġutility":13799,"Ġgenre":13800,"pmb":13801,"ĠPra":13802,"Ġdefence":13803,"PM":13804,"haus":13805,"ĠStudio":13806,"Ġintegers":13807,"Ġtrials":13808,"Ġexcellent":13809,"350":13810,"Book":13811,"Ġsuicide":13812,"Ġdeclined":13813,"Ġverb":13814,"ĠSalv":13815,"between":13816,"Ġfrequent":13817,"Ġgone":13818,"ĠIce":13819,"Ġelectrical":13820,"Py":13821,"Ġcommunications":13822,"ÃŁ":13823,"Dan":13824,"Real":13825,"ĠFine":13826,"Tur":13827,"Ġdrugs":13828,"Ġcompl":13829,"}},\\":13830,"Ġdestination":13831,"ĠHilbert":13832,"Ġvisitors":13833,"Ġtrading":13834,"900":13835,"ĠTR":13836,"Ġsubsidi":13837,"Honours":13838,"Ġmixture":13839,"PORT":13840,"ĠFalls":13841,"icking":13842,"Ġresemb":13843,"Profile":13844,"ĠAC":13845,"ĠOnline":13846,"Ġinsurance":13847,"107":13848,"Ġportrayed":13849,"Timeout":13850,"^+$":13851,"Ġpublisher":13852,"Sal":13853,"queue":13854,"ĠLad":13855,"Ġmeta":13856,"Ġsuperior":13857,"Gold":13858,"omon":13859,"ĠAlberta":13860,"Ġcreates":13861,"ĠNova":13862,"Ġphotons":13863,"Ġreputation":13864,"ĠDerby":13865,"ĠNicol":13866,"ĠGuinea":13867,"Ġcounc":13868,"Ġur":13869,"ĠSI":13870,"ĠRacing":13871,"ĠPeru":13872,"Category":13873,"Ġwel":13874,"Ġpsy":13875,"ivodeship":13876,"Ġneuro":13877,"Ġinstant":13878,"Ġexisted":13879,"aco":13880,"ĠPA":13881,"\\}_{":13882,"ĠAppe":13883,"ĠAndy":13884,"ĠBorough":13885,"Ġfurn":13886,"ĠMarket":13887,"Ġongoing":13888,"aura":13889,"ĠPil":13890,"ĠEmb":13891,"ishment":13892,"Ġqueue":13893,"ApJ":13894,"Az":13895,"ju":13896,"opsis":13897,"Bound":13898,"1877":13899,"_{-\\":13900,"106":13901,"Ġspr":13902,"arr":13903,"ĠMeg":13904,"Ġdecreasing":13905,"ĠNode":13906,"Ġmovies":13907,"ĠDocument":13908,"anne":13909,"Ġconvicted":13910,"Ġlose":13911,"good":13912,"ĠTol":13913,"cca":13914,"Ġdowntown":13915,"assertEquals":13916,"Ġphenomenon":13917,"charge":13918,"iu":13919,"ĠElementary":13920,"Ġcollective":13921,"quer":13922,"ĠIss":13923,"Ġneur":13924,"Ġsplitting":13925,"Ġtables":13926,"pus":13927,"ĠĠĠĠĠĠĠĠĠĠĠĠĠĠĠĠĠĠĠĠĠĠĠĠĠĠĠĠĠ":13928,"inters":13929,"ĠClassic":13930,"Ġangles":13931,"ĠZone":13932,"Ġelder":13933,"ĠManhattan":13934,"home":13935,"ĠFro":13936,"1874":13937,"particle":13938,"hematic":13939,"Season":13940,"aba":13941,"Ġox":13942,"ĠGiants":13943,"Alex":13944,"Widget":13945,"vect":13946,"Memory":13947,"1868":13948,"Ġ([":13949,"mac":13950,"NOT":13951,"Ġhorror":13952,"ĠFitz":13953,"Ġparliamentary":13954,"Thomas":13955,"\"/":13956,"ĠLead":13957,"Ġ~\\":13958,"irk":13959,"ichi":13960,"ente":13961,"Ġgeneralization":13962,"Ġexpedition":13963,"Ġsumm":13964,"Discography":13965,"uity":13966,"ĠAND":13967,"////////////////////////////////":13968,"Ġvessel":13969,"Ġsoundtrack":13970,"SIZE":13971,"zes":13972,"ĠResults":13973,"ĠHindu":13974,"igate":13975,"Ġchrom":13976,"ĠCollins":13977,"ilty":13978,"ĠBron":13979,"ĠEgyptian":13980,"ĠBarbara":13981,"Ġshel":13982,"correspond":13983,"kens":13984,"rf":13985,"ĠWa":13986,"ĠFab":13987,"Day":13988,"Hen":13989,"ourt":13990,"auer":13991,"Ġpresentation":13992,"Ġmini":13993,"Float":13994,"fony":13995,"Windows":13996,"acre":13997,"sun":13998,"Ġwhenever":13999,"Ġsurviving":14000,"uter":14001,"Ġmarginal":14002,"Lou":14003,"Total":14004,"Despite":14005,"ĠPav":14006,"gex":14007,"Ġbuilder":14008,"ĠChap":14009,"sters":14010,"Ġatom":14011,"orted":14012,"Academic":14013,"borne":14014,"install":14015,"Ġthemes":14016,"1872":14017,"Ġconverges":14018,"Ġcone":14019,"Ġnan":14020,"ĠJenn":14021,"ĠMind":14022,"ĠPrimary":14023,"Ġresolve":14024,"Ġwooden":14025,"ĠCher":14026,"})=\\":14027,"lein":14028,"Ġcrimes":14029,".__":14030,"ĠJosh":14031,"Ġsquadron":14032,"ĠOrange":14033,"Ġunusual":14034,"raud":14035,"stats":14036,"Ġconsideration":14037,"celand":14038,"Ġseeing":14039,"Ġmountains":14040,"Radio":14041,"Ġfault":14042,"Ġcancelled":14043,"ĠLiga":14044,"Ġrevenue":14045,"ĠVancouver":14046,"Ġreceives":14047,"vy":14048,"BUG":14049,"ĠFleet":14050,"ĠVoivodeship":14051,"Ġeg":14052,"Ġdecide":14053,"Ġcircumstances":14054,"Ġjavax":14055,"Ġclinical":14056,"Ġ\"\"":14057,"oker":14058,"ĠBO":14059,"Ã¦":14060,"ĠÃł":14061,"ĠUg":14062,"bounds":14063,"cluster":14064,"ĠGriff":14065,"mates":14066,"}{}":14067,"ROM":14068,"ĠRangers":14069,"ailability":14070,"Ġpregn":14071,"Ġpreserve":14072,"ĠChron":14073,"____":14074,"[:":14075,"Ġdiscrimin":14076,"isp":14077,"ĠHunter":14078,"Ġvisiting":14079,"ĠNebraska":14080,"ĠColombia":14081,"Bi":14082,"Ġgay":14083,"ĠSerbian":14084,"agre":14085,"ĠTree":14086,"valued":14087,"speed":14088,"ĠVas":14089,"ĠSongs":14090,"Ġartillery":14091,"ĠVictorian":14092,"Ġhear":14093,"leqslant":14094,"fg":14095,"Ġattracted":14096,"ĠRichmond":14097,"ĠLuther":14098,"Ġdeployed":14099,"separ":14100,"Ġmonarch":14101,"Ġcuts":14102,"ĠSteel":14103,"Ġpoems":14104,"Ġeasier":14105,"respect":14106,"Statement":14107,"Ġmanage":14108,"Ġthreatened":14109,"ovich":14110,"team":14111,"Ġdoubles":14112,"Ġinjuries":14113,"February":14114,"utr":14115,"Ġfishing":14116,"Ġhearing":14117,"Ġministers":14118,"Ġannounce":14119,"sym":14120,"Ġcreative":14121,"ĠGil":14122,"Ġprohib":14123,"Ġunlike":14124,"ĠCommissioner":14125,"into":14126,"Ġworker":14127,"govern":14128,"Ġclients":14129,"above":14130,"Ġgeodes":14131,"ĠFacebook":14132,"Ġslowly":14133,"ĠBenjamin":14134,"clusively":14135,"Ġmarks":14136,"Ġswimming":14137,"bes":14138,"ĠSaints":14139,"oids":14140,"1873":14141,"iat":14142,"Ġsentenced":14143,"contains":14144,"Ġdisabled":14145,"Ġattach":14146,"Ġorchestra":14147,"Pay":14148,"Ġphotography":14149,"Ġranks":14150,"Ġadvice":14151,"Ġspecify":14152,"ĠTrail":14153,"Ġruling":14154,"Ġseeking":14155,"Ġpatch":14156,"Ġphon":14157,"Inv":14158,"Ġmachines":14159,"Ġwidespread":14160,"Ġthousand":14161,"Editor":14162,"\\,{\\":14163,"Ġemerged":14164,"ĠAlexand":14165,"elines":14166,"Furthermore":14167,"Ġwallet":14168,"components":14169,"Ġaimed":14170,"sha":14171,"independent":14172,"resize":14173,"Ġfits":14174,"ignment":14175,"\\|^":14176,"Ġcorrectly":14177,"ĠFrances":14178,"ĠJonathan":14179,"ancer":14180,")}$,":14181,"igible":14182,"edit":14183,"Ġmarketing":14184,"agar":14185,"Ġprices":14186,"Ġrequiring":14187,"Ġpredomin":14188,"Ġtransformed":14189,"ĠBund":14190,"assertEqual":14191,"ĠSoftware":14192,"avan":14193,"enti":14194,"teenth":14195,"ĠJama":14196,"ĠParker":14197,"Ġarrive":14198,"whe":14199,"ourg":14200,"Ġoccasionally":14201,"Ġĉ":14202,"NotNull":14203,"Ġmolecules":14204,"\">&":14205,"depth":14206,"1866":14207,"ĠArtillery":14208,"Ġlifetime":14209,"Ġcosmological":14210,"Sam":14211,"Ġng":14212,"Ġlap":14213,"{%":14214,"look":14215,"Ġisomorphic":14216,"citealt":14217,"ĠMediterranean":14218,"Ġaims":14219,"ĠTele":14220,"Ġgraduating":14221,"Ġwhilst":14222,"incinn":14223,"Ġdescript":14224,"Ġeighth":14225,"127":14226,"ĠMars":14227,"Ġchiral":14228,"FP":14229,"Initial":14230,"pu":14231,"|_":14232,"ĠSeven":14233,"Ġmatters":14234,"ĠVa":14235,"Ġinherited":14236,"Ġbath":14237,"Ġbold":14238,"ĠKos":14239,"cep":14240,"Ġlisten":14241,"ĠPow":14242,"Ġdevoted":14243,"mask":14244,"}})$":14245,"ĠMess":14246,"ĠBey":14247,"Ġclar":14248,"Ġmeetings":14249,"ĠProfessional":14250,"Ġresolved":14251,"ĠLiving":14252,"ĠAbdul":14253,"Ġplots":14254,"Ġdecays":14255,"Ġpipeline":14256,"ĠMuhammad":14257,"elected":14258,"try":14259,"Ã¡s":14260,"standard":14261,"Ġspherical":14262,"ierra":14263,"winning":14264,"scar":14265,"autore":14266,"Upsilon":14267,"Double":14268,"ĠSeg":14269,"spi":14270,"Ġspoke":14271,"Ġspending":14272,"Ġkinetic":14273,"Ġranging":14274,"Ġfoss":14275,"Ġmanga":14276,"hole":14277,"Mill":14278,"ĠWor":14279,"Ġexercise":14280,"uru":14281,"Ġmissed":14282,"Transaction":14283,"Ġwear":14284,"Ġlocomotives":14285,"Royal":14286,"aceae":14287,"appy":14288,"Ġannually":14289,"typeof":14290,"ĠTurner":14291,"ĠExample":14292,"Ġcontents":14293,"Ġunitary":14294,"108":14295,"Ġeigenvalue":14296,"ĠClinton":14297,"Ġawait":14298,"1840":14299,"Ġgovernments":14300,"bx":14301,"estim":14302,"jk":14303,"Ġcontroversial":14304,"Ġeleven":14305,"Ġsax":14306,"Ġconvenient":14307,"TABLE":14308,"ĠNevertheless":14309,"Ġaccretion":14310,"Observ":14311,"Ġbeautiful":14312,"ĠCov":14313,"Ġfunded":14314,"Ġnoting":14315,"elfare":14316,"Ġapparently":14317,"Ġgram":14318,"tools":14319,"ĠStein":14320,"Saint":14321,"GG":14322,"Ġsparse":14323,"astrop":14324,"ĠNature":14325,"Ġpointer":14326,"Ġwaiting":14327,"anchor":14328,"ĠEli":14329,"identifier":14330,"Ġendemic":14331,"Recipients":14332,"vdots":14333,"Ġlicensed":14334,"uclear":14335,"Ġalignment":14336,"Br":14337,"Pack":14338,"Ġremoval":14339,"Ġordering":14340,"Ġamateur":14341,"Ð¿":14342,"incinnati":14343,"rection":14344,"ĠUniverse":14345,"KS":14346,"Ġiterations":14347,"Ġpreparation":14348,"Dest":14349,"password":14350,"ĠMix":14351,"Liter":14352,"109":14353,"Ġorbits":14354,"iya":14355,"Ġty":14356,"Ġvariants":14357,"best":14358,"ĠMans":14359,"Ġcousin":14360,"Ġfunctor":14361,"mina":14362,"schema":14363,"OF":14364,"builder":14365,"Ġdiversity":14366,"laced":14367,"Ġsynthetic":14368,"dn":14369,"dual":14370,"Ġpartly":14371,"ĠGets":14372,"ĠIranian":14373,"ĠSha":14374,"ĠFreedom":14375,"Defunct":14376,"ĠMall":14377,"Ġpropagation":14378,"EXT":14379,"ĠYu":14380,"icht":14381,"Ġcompiled":14382,"gments":14383,"Own":14384,"=\"\">":14385,"ository":14386,"ĠMake":14387,"Ġcav":14388,"Ġmm":14389,"boy":14390,"Ġextensions":14391,"qual":14392,"gray":14393,"apply":14394,"Character":14395,"ĠSpirit":14396,"iden":14397,"hidden":14398,"idx":14399,"istani":14400,"Ġadvertising":14401,"Ġsep":14402,"sterdam":14403,"Ġphilos":14404,"atche":14405,"ĠCommunications":14406,"Ġcouplings":14407,"Ġteach":14408,"ĠMathemat":14409,"Ġcorporate":14410,"ĠPant":14411,"ĠBased":14412,"ĠKap":14413,"Ġfacing":14414,"ĠPos":14415,"Ġpars":14416,"Ġsoldier":14417,"ĠPR":14418,"Ġrecurs":14419,"ĠMinor":14420,"Ġmoth":14421,"ĠCBS":14422,"Ġlogarithm":14423,"Ġrelay":14424,"Recall":14425,"trim":14426,"Ġinvolve":14427,"eros":14428,"Ġlawyers":14429,"Ġtransmit":14430,"minute":14431,"appoint":14432,"Ġceleb":14433,"ĠVel":14434,"Ġlimitations":14435,"ĠGot":14436,"Ġbehalf":14437,"Ġhydrogen":14438,"Ġhip":14439,"Ġemail":14440,"áĥ":14441,"ĠMembers":14442,"plugins":14443,"Ġupdates":14444,"ophone":14445,"NP":14446,"Ġtheat":14447,"Round":14448,"Ġdeparture":14449,"Ġproposition":14450,"âĢĿ,":14451,"dashed":14452,"Ġactivists":14453,"Bo":14454,"ĠDol":14455,"Ġnominations":14456,"King":14457,"Bigl":14458,"Bit":14459,"\")]":14460,"ĠFu":14461,"Ġprojected":14462,"Ġtow":14463,"ĠSupport":14464,"Ġassemb":14465,"pler":14466,"operator":14467,"Ġoutputs":14468,"gart":14469,"addr":14470,"ETHOD":14471,"aja":14472,"HM":14473,"Ġagriculture":14474,"![":14475,"agram":14476,"erg":14477,"ĠStra":14478,"Ġlieutenant":14479,"ĠUEFA":14480,"Files":14481,"Ġgr":14482,"ĠHash":14483,"ĠBristol":14484,"Ġchoosing":14485,"ĠBeijing":14486,"Ġrescue":14487,"(){":14488,"Ġhorses":14489,"White":14490,"Ġmathematics":14491,"security":14492,"ĠGreater":14493,"Ġaffine":14494,"celona":14495,"Ġshorter":14496,"1800":14497,"oria":14498,"Ġexplains":14499,"expect":14500,"Ġindigenous":14501,"Ġwine":14502,"lican":14503,"Ġsupplied":14504,"ĠHD":14505,"Matrix":14506,"ĠSz":14507,"Ġgenetic":14508,"ĠCustom":14509,"Ġreun":14510,"flags":14511,"ĠCore":14512,"Ġdisestablished":14513,"Ġacquisition":14514,"Ġautomatic":14515,"Eff":14516,"Ġdelivery":14517,"outer":14518,"Proxy":14519,"ĠAdmiral":14520,"Ġpartners":14521,"ĠPic":14522,"ĠSr":14523,"Ġhandling":14524,"switch":14525,"Ġcongress":14526,"Ġadults":14527,"ĠTerritory":14528,"Ġprotests":14529,"ĠCharlotte":14530,"gio":14531,"Ġbird":14532,"Ġvacc":14533,"Ġarchitectural":14534,"Ġprocedures":14535,"/.":14536,"Ġestablishing":14537,"ĠBerg":14538,"ĠNicholas":14539,"Ġshifted":14540,"weak":14541,"Ġthereby":14542,"Ġfulfill":14543,"ĠHarrison":14544,"ĠCuba":14545,"Ġpref":14546,"Ġfewer":14547,"lectic":14548,"Ġsympt":14549,
[...]
