#version: 0.2
Ġ t
i n
h e
Ġ a
o n
e r
Ġ Ġ
r e
Ġt he
a t
e n
o r
Ġ s
a n
a l
Ġ o
i t
i s
e s
Ġ w
Ġ c
e d
a r
Ġ f
i on
Ġo f
n d
Ġ in
Ġ p
Ġ b
in g
i c
l e
r o
a s
Ġa nd
ĠĠ ĠĠ
Ġ m
Ġ d
Ġt o
o u
en t
c t
e l
Ġ \
e t
i l
Ġ h
o m
s t
a m
Ġ S
i g
Ġ $
Ġ re
Ġt h
Ġ T
o l
at ion
Ġ C
Ġ n
r a
Ġ e
Ġ A
Ġ l
i m
o t
Ġ (
i d
Ġ is
i v
c e
u r
u t
c h
Ġ M
Ġf or
Ġ g
u s
l y
o w
â Ģ
Ġ on
Ġ I
a d
u l
{ \
er s
Ġ B
Ġ P
it h
Ġb e
e m
i r
Ġs t
2 0
a y
u m
u n
t er
a b
Ġa s
q u
Ġ H
Ġth at
ĠĠ Ġ
v er
s e
Ġw ith
Ġ R
o d
Ġc on
Ġ F
i f
is t
a g
Ġ D
t h
ĠĠĠĠ ĠĠĠĠ
Ġ L
Ġa l
ĠT he
1 9
he r
an d
Ġa n
Ġ v
Ġ W
Ġw as
Ġp ro
en d
e g
Ġ N
_ {
Ġb y
a c
Ġ G
r i
v e
ig h
es t
o p
e ct
re s
at h
o s
Ġ E
Ġw h
at e
it y
ro m
Ġa t
p p
o c
Ġc om
Ġ Ċ
Ġ$ \
Ġd e
Ġ it
ar t
a in
Ġe x
o re
il l
Ġa re
i es
u b
e w
igh t
Ġf rom
č Ċ
Ġ J
p h
es s
p t
ct ion
u re
Ġ he
an t
m ath
or t
al l
e x
i al
in e
Ġ or
Ġ O
u d
Ġ &
a k
iv e
u p
e c
Ġ y
g e
Ġw e
m ent
l d
Ġ =
Ġ r
ou r
} \
T he
b er
^ {
} $
' s
n t
it e
o g
p l
ic h
ar d
Ġ U
at ed
Ġ K
as s
a p
el l
Ġc h
Ġs h
âĢ Ļ
re f
i z
u nd
i an
ic al
r an
am e
i a
ar y
u st
Ġs e
Ġ "
Ġth is
Ġs p
a ve
Ġp l
Ġ âĢ
Ġ le
u e
Ġ us
ul t
20 1
i p
c l
f f
as t
m a
ĠI n
f t
ra c
0 0
Ġn ot
ig n
or m
t a
it ion
Ġc l
on g
Ġcom p
ĠĠĠĠ ĠĠĠ
p er
e ar
} }
a re
u g
ag e
( \
Ġ k
ĠS t
s p
o st
f er
ex t
e p
ac k
a v
Ġ -
d u
ation s
en s
i re
) ,
in t
Ġwh ich
eg in
Ġ V
or d
b egin
or k
Ġh ave
o v
Ġs u
ĉ ĉ
Ġc an
en ce
t her
c al
s o
Ġh is
id e
c c
) $
Ġw he
_ {\
a ce
ab le
im e
er e
t o
ion s
Ġ un
Ġh as
en c
ou s
i b
o k
Ġcon t
20 0
) .
r y
ĠC h
ou t
r ic
Ġal l
as e
Ġa b
om e
Ġ <
an g
= "
on d
} {
a ct
is h
Ġa d
r u
r m
ou ld
Ġ im
a ch
in d
Ġal so
ic e
f rac
il d
e qu
i e
m er
Ġa pp
ĠT h
Ġ |
Ġ j
f orm
e q
Ġw ere
r ight
ol l
} ,
er v
1 8
) ;
i k
o ver
I n
Ġre s
en er
Ġ {
or y
ent s
ow n
ir st
Ġon e
t he
. .
Ġp art
- -
ou nd
ab el
ou nt
er m
w o
c ite
i le
re e
an ce
or s
ter n
t ext
el y
1 0
Ġthe ir
ar k
< /
ol d
at es
al ly
Ġa r
Ġb ut
Ġ ro
et a
Ġd is
res s
Ġ Y
r it
Ġy ou
cl ud
Ġm e
o se
ur n
math b
e y
p e
l abel
Ġo ut
l ic
Ġp er
am p
, \
o b
ro w
Ġit s
ri b
l l
$ ,
e f
Ġm od
Ġ qu
p ort
Ġw ill
w e
equ ation
Ġf irst
c om
$ .
ĠU n
he d
k s
ĠI t
Ġe v
ĠH e
c on
ĠĠĠĠĠĠĠĠ ĠĠĠĠĠĠĠĠ
v el
p ro
ic s
Ġt wo
Ġt e
âĢ ĵ
Ġm an
} )
le ft
Ġo ther
/ /
j ect
Ġs c
Ġh ad
f ter
Ġpl ay
math cal
Ġp re
Ġ if
p s
ation al
Ġwh o
Ġm ore
at er
Ġa g
on e
n g
ĠâĢ ĵ
s s
Ġn ew
t e
} .
Ġ up
ug h
Ġo b
f ig
ran s
} (
am b
Ġthe y
Ġw ork
Ġs y
Ġo ver
Ġd o
Ġd es
o ok
19 9
c ent
âĢ Ŀ
ra d
o int
Ġbe en
ak e
ul ar
ar i
Ġ +
a w
i el
Ġ| |
ing s
} ^
or n
le ct
Ġ her
Ġt ime
at a
is s
l es
} _
Ġ en
on s
o od
Ġ }
Ġy ear
l ine
im es
l i
v i
oll ow
ĠĠĠĠĠĠĠĠ ĠĠĠ
ph a
~ \
Ġas s
Ġs o
d a
Ġin t
Ġcon s
Ġin ter
und er
as ed
ut ion
Ġcl ass
Ġn e
Ġs et
Ġ *
e op
1 2
un ction
y s
o ol
Ġb et
enc es
an s
r am
g h
Ġin d
Ġde f
al pha
iel d
al s
c ed
i x
at ive
iv ers
eop le
Ġin to
) \
Ġcom m
ver y
l and
ra ph
Ġs ub
t ain
pt ion
ar g
oc k
Ġwhe n
Ġwhe re
ol og
Ġin clud
a il
R e
Ġa cc
Ġex p
it ed
ot h
a us
Ġd if
Ġon ly
if ic
Ġre g
od e
Ġf ollow
Ġth an
s h
st em
Ġthe re
Ġfor m
um ber
i ed
ra y
w ard
" >
ic t
h at
et h
Ġab out
el ta
amb da
Ġ [
o f
Ġsu ch
em ber
a pp
$ \
t t
at ing
ay s
res ent
mer ic
u al
ro up
s c
Ġbe c
ĠW e
ou gh
ro und
Ġre l
p r
o y
Ġof f
Ġk n
it ies
Ġo ur
i o
ur ing
ĠTh is
m b
Ġ under
ub lic
ĠĠĠĠ Ġ
ic k
on t
re d
Ġs ome
an n
am ma
1 5
Ġf l
a x
ik e
Ġan y
ro ugh
Ġre c
Ġa ct
we en
in ce
c k
Ġw ould
Ġv al
in al
ĠâĢ ľ
ĠC om
t y
Ġres ult
Ġd ist
id ent
Ġp h
20 2
1 6
m u
Ġa fter
_ \
iz e
ĠN ew
o ot
Ġthe n
Ġp os
r ing
o x
Ġc o
Ġst ud
e e
1 7
d er
c es
Ġre t
m s
le t
= \
is e
Ġs he
in ed
Ġg ener
Ġsh ow
Ġmod el
d ot
ig ma
Ġl oc
u res
r al
Ġbet ween
Ġf unction
Ġin v
re n
S t
Ġ\ \
Ġs ec
19 8
il ity
Ġcon st
p art
Ġs im
Ġp ol
Ġp r
h o
ar ch
mathb b
} _{
} ^{
s ub
or ld
Ġt rans
ad e
Ġat t
Ġc ol
ul l
Ġf e
Ġpro du
Ġf il
eg a
- \
ĠA l
c he
Ġpro v
ĠP ro
i ent
fer ences
o ve
ow er
Ġn o
it s
d ition
p os
n e
ment s
ect ion
Ġt ra
Ġp eople
c re
el f
Ġ {\
ist s
Ġ '
^ {\
il y
1 1
ph i
u es
Ġb l
Ġe qu
t s
ch ool
E x
Ġthe se
Ġus ed
Ġm ost
ru ct
at ure
l ambda
w n
Ġsy stem
1 3
ib le
p ar
Ġdif fer
id er
ĠA meric
b le
re at
ĠA r
in s
a ir
e ver
Ġre m
s et
Ġc or
1 4
t on
ab l
Ġm ay
in k
is ion
b f
Ġe ff
in es
ĠD e
a id
g et
am es
Ġb u
* *
em ent
Ġ est
an y
Ġ Z
Ġp ar
as on
Ġth rough
Ġsp ec
Ġm at
p ut
Ġe ach
Ġsu pp
Ġthe m
p i
g an
19 7
Ġre sp
oc i
is hed
Re ferences
ire ct
b all
Ġg iv
it t
Ġg o
Ġs m
o h
n ing
as h
Ġa m
Ġd ata
h ip
al ign
Ġs erv
Ġw ell
Ġp oint
il on
ou n
T h
iz ed
ivers ity
ĠF or
Ġ end
Ġa c
Ġ Q
Ġ ent
en g
ĠS h
b ar
Ġ ra
at or
Ġex t
a h
e v
Ġg et
y pe
Ġn umber
W e
an ge
Ġs ign
s igma
m an
if e
s um
Ġ( \
ra ct
Ġin st
us s
mathb f
Ġag ain
p le
Ġret urn
Ġus e
aus e
Ġl ine
he n
m in
3 0
Ġh im
2 5
vel op
Ġs ur
ut e
u ch
Ġs ol
ĠA n
Ġc ur
} {\
Ġyear s
^{ -
se ction
ild e
Ġ .
or th
Ġh ow
Ġb ack
b eta
er t
Ġm on
is m
Ġ ed
Ġc ent
ĠL e
er n
c ess
ot e
Ġth ree
w id
Ġv ari
u c
he re
y n
r on
ar s
Ġapp ro
" ,
Ġh igh
Ġdiffer ent
Ġf ound
Ġs er
i er
Ġo per
ic es
ur y
ou th
at t
Ġg roup
ĠI nd
Ġs ame
ep s
n er
Ġb oth
Ġre p
19 6
w ay
Ġ i
Ġc ase
+ \
-- --
iz ation
a z
Ġpart ic
ar ray
our ce
Ġc all
ical ly
al e
Ġm in
le ction
ĠS e
g amma
c ol
ion al
Ġl ike
( )
Ġsec ond
Ġch ar
Ġle ad
ĠC l
Ġs ing
ot her
ers on
a j
= =
Ġd uring
Ġst ate
Ġf in
* }
math rm
ut h
t en
Ġe m
re t
Ġy our
Ġte am
r ho
Ġs aid
p en
f l
em b
an k
ou se
\ \
ag es
Ġ x
Ġar t
Ġwh ile
Ġf am
eth od
s y
ar ly
Ġn on
tern al
iv er
^ \
Ġre qu
Ġc re
Ġde c
Ġ X
Ġbe ing
et s
vi ew
Ġus ing
et er
ro ss
olog y
Ġper form
ĠAmeric an
g y
d elta
Ġfollow ing
Ġman y
Ġt erm
ect ed
5 0
ĠS p
ant s
) }
Ġp ublic
00 0
at ic
ta u
over n
Ġdis c
at her
Ġst r
ak ing
ĠUn iversity
s on
Ġm ade
ur al
Ġse e
Ġf ield
f or
the ta
ĠS c
ĠA s
as es
f ore
re nt
Ġj ust
amp le
ĠC ol
v al
Ġm ed
Ġt r
form ation
. ,
ric t
Ġn ame
Ġor der
c dot
e b
le q
m m
ir c
ire d
Ġwh at
Ġne ed
Ġcons ider
Ġre le
Ã ©
$ -
ĠC on
Ġl ong
] {
Ġc ould
it em
2 4
Ġf act
Ġ /
Ġn ow
Ġst art
iv ely
Ġdes c
al ity
Ġde velop
ver t
Ġd et
Ġex per
ul ation
in a
Ġc ount
an c
part ial
Ġgiv en
ĠĠĠĠĠĠĠĠ ĠĠĠĠĠĠĠ
}$ ,
b ig
}$ .
r id
Ġd irect
ĠUn ited
ch n
Ġb el
qu ad
a u
ar row
Ġe very
are d
ent ial
ĠR e
n u
Ġbe fore
iv ed
ot s
fig ure
b y
Ġsm all
er r
l ed
} (\
19 4
w ork
he s
f ul
Ġeff ect
- >
v ent
us ic
g ram
2 1
eq n
Ġsupp ort
t imes
Ġm ain
t ing
o ber
eq ref
iv es
ar ge
iv ing
ĠI s
enc y
i ence
ce pt
Ġr ight
Ġp op
Ġad d
v ers
Ġg u
Ġm y
Ġ z
ĠA d
ft y
le y
Ġd r
v ed
Ġw rit
Ġcont in
2 2
y p
in ks
in fty
ĠB l
oh n
Ġ :
se c
s erv
om ega
el s
iss ion
ĠE ng
m e
d ef
Ġo wn
Ġm ov
.. .
ĠS he
om en
y le
ĉĉ ĉĉ
v ar
ĠO n
t ilde
al th
oot ball
p m
it al
ran g
i qu
Ġf our
i or
Ġinclud ing
ĠM ar
Ġs ince
Ġbec ause
2 3
en n
ist ory
d ay
ot t
ĠP h
Ġev en
. "
ĠH ow
ab ility
C h
ar n
in ing
Ġ very
Ġan al
an e
ĠP l
a f
re ad
wid th
P ro
if ied
Ġex pl
Ġde p
ĠCom m
th s
r t
er ing
Ġp resent
Ġkn own
Ġpro cess
Ġsh ould
o ad
res p
ĠE x
u ro
o le
un e
Ġc ar
| \
Ġagain st
og raph
le x
Â ł
Ġresult s
Ġr un
Ġe lect
Ġval ue
ff ic
Ġm ethod
Ġf ind
ri pt
Ġplay ers
v en
u ally
Ġ u
er y
Ġrec ord
ain s
I t
Ġin cre
e k
a pt
as k
ĠA nd
n ess
Ġv i
D elta
Ġm ake
o id
r and
Ġs l
Ġse ason
Ġd id
Ġor ig
Ġl inks
Ġdes ign
Ġhe l
19 5
Ġdo es
Th is
Ġo pen
Ġ< /
um n
m ed
r ation
Ġl ast
at ch
Ġl ater
Ġth ose
Ġm et
Ġp res
Ġs chool
Ġ //
Ġcomm un
x i
Ġw ay
m p
C on
Ġob tain
Ġrep resent
ro l
iv al
ĠM ay
ir d
ĠSt ates
in ess
Ġpar am
.. /
\ ,
ro p
et y
w here
os s
sp ace
ĠC ount
c er
Ġ @
ub l
E R
is ter
Ġ el
Ġbu ild
Ġme as
a i
Ġpos s
ĠJ an
le ment
vi ous
ction s
2 7
ĠâĢ Ķ
) )
Ġkn ow
Ġh and
n ot
ri x
Ġg ame
2 6
Ġt est
re l
Ġser ies
Ġb ased
m l
Ġchar act
Ġre port
Ġm ult
Ġw orld
Ġfil m
ag n
b um
cc ess
Ġloc al
Ġto p
c o
Ġre ce
eqn array
r is
$ $
Ġl ist
i um
et work
ĠC ar
at eg
t il
Ġpro per
20 20
2 8
k e
c a
ore m
Ġl arge
Ġre ad
Ġdesc rib
ĠJ ohn
Ġ ,
Ġse ver
ra w
Ġcon dition
Ġ$ (
b s
Ġpro f
Ġm ass
' ,
re en
Ex ternal
rib ut
)$ .
ener gy
i ous
Ġb ound
ur ther
ĠF ran
in c
P h
: //
Ġd own
ak es
Ġall ow
ep end
r ist
id es
Ġfam ily
: :
} }\
overn ment
ĠW orld
Ġpro ble
Ġst ruct
Ġst and
Ġre st
b l
ĠN ational
Ġl ife
ĠT e
202 2
g er
Ġim port
F or
um ent
ial ly
} [
en se
v es
id ed
Ġg l
Ġa v
s q
ag ue
tern ational
s k
eps ilon
Ġsp ace
i am
Ġt ype
C om
Ġre al
ar m
ps i
sp an
Ġl im
um er
h t
201 8
od y
4 0
Ġpro gram
p or
Ġa round
Ġst at
ĠA ll
1 00
âĢ ľ
Ġgener al
ĠĠ Ċ
Ġm ark
Ġm uch
rib ution
it ive
u ary
if y
Ġp ower
Ġc are
is ed
rac k
ur ch
ess age
Ġest abl
us iness
ĠC an
. âĢĿ
Ġb ro
Ġp ass
Ġresp ect
Ġle vel
Ġcur rent
20 19
" .
ĠC ent
I N
l ang
in clud
ĠR es
ĠA ss
ol ution
at ely
l ess
ĠN ov
s ide
Ġin formation
Ġch ild
ro du
al k
Ġv is
Ġhel p
ĠW h
Ġcall ed
2 9
Ġc he
201 7
Ġpro ject
O n
Ġp at
ĠA ust
S T
ian s
Ġor gan
ac es
ĠO r
Ġo pt
Ġw in
Ġan n
Ġ rad
ward s
m od
Ġst ill
ĠW ar
Ġd ue
ĠA t
Ġ ident
aj or
Ġpro t
O m
} _{\
Ġob serv
201 6
Ġad dition
emb ers
b e
Ġf ootball
ĠS chool
' t
A R
resp ond
Ġb ook
202 1
b ack
Ġte chn
19 3
Ġn ear
o ard
ĠY ork
up er
Ġpl ace
Ġal bum
Ġo cc
f ra
Ġt ake
O N
Ġle ft
d iv
en e
Ġal ong
Ġhe ad
s im
ĠM an
Ġt em
Ġwith in
ĠF ig
A s
Ġsing le
av ing
ĠThe y
mb ol
Ġb est
um e
Ġ energy
Ġl ook
Ġp erson
G amma
sq rt
Ġ #
Om ega
ĠY ou
ĠJ u
le m
Ġl aw
^ *
ĠCount y
)$ ,
ord ing
ur s
Ġin it
end ed
um b
Ġcon f
Ġt ri
us e
Ġre f
ps ilon
Ġsever al
201 0
> </
uth or
Ġv ers
Ġun til
Ġare a
ĠHow ever
> <
Ġf inal
om et
ĠO ct
Ġ$ {\
in ation
il ar
re g
Ġp ost
ĠA ug
Ġg ood
201 5
on y
os ed
w w
ĠI f
201 4
re m
Ġ `
Ġpol it
Ġd em
i od
ĠG e
Ġbec ame
Ġoff ic
t r
le v
A T
ĠR ep
ect or
am ed
Ġhe re
Ġb ir
ĠP r
Ġc al
at ors
ĠU S
ĠS outh
Ġde ath
ĠB rit
l og
pt ember
Ġm usic
Ġc our
Ġd i
eng th
ĠP ol
im ens
e ad
ap er
e ed
at s
ĠJan uary
end s
or ies
or g
pl ay
201 3
ill ion
Ġs cal
v are
Ġab ove
right arrow
Ġbe h
our n
Ġg ra
m ber
ĠM arch
Ġs um
ĠG u
om an
201 2
Ġs ong
am ent
ug g
ĠP ar
re am
ĉĉ ĉ
as ter
Ġin c
ĠB e
Ġcon n
Ġad v
^{ (
er o
vare psilon
pr il
Ġcor respond
f ace
Ġd ay
ĠE uro
Ġc ap
ord s
Ġapp ear
ĠG erm
} =
st r
Ġev ent
Ġmeas ure
Ġstud y
201 1
A n
Ġest im
l er
w h
it le
sub section
ĠM in
Ġim p
I D
a im
s elf
Ġ\ ,
) :
rang le
ore d
Ġin f
) =
( "
if t
Ġto t
ific ation
l ing
}^ {\
ition s
( );
Ġint eg
A l
un g
Ġd el
u le
Ġinter est
ĠS y
i j
6 0
Ġth ough
Ġre fer
l im
ce mber
Ġcharact er
et ers
le ge
ri es
Ġl arg
b m
raph ics
ĠSe ptember
Ġf re
g round
Ġm ust
text bf
Ġt rad
Ġex ample
id d
es c
Ġpartic ular
Ġh ome
che s
Ġinv est
Ġ et
Ġs elf
ch i
oc ial
Ġen g
du ct
op e
ĠAug ust
c m
eta il
ĠOct ober
Ġb as
Ġwith out
pl oy
Ġn ext
u ed
le ar
Ġis s
Ġe arly
ĠT o
Ġb re
is on
pl es
200 8
Ġs at
Ġ čĊ
Ġh ig
Ġn etwork
ĠJ une
Ġre du
il t
Ġle g
an ces
ir on
ist or
Ġan other
orm al
ĠSt ate
l ish
com m
im ent
a e
d d
Ġd en
at ures
it er
al es
ĠC ity
ĠC al
ĠF l
Ġc rit
Ġob ject
um an
n on
A S
amp ions
at ter
Ġsu ccess
200 9
g or
Ġo pp
st it
ht ml
ĠJu ly
ĠC o
ĠA pril
Ġl ow
es p
o or
ra g
---- ----
Ġpre vious
im al
Ġfor mer
d e
Ġs k
ĠN orth
âĢ Ķ
Ġle t
il it
Ġcomp any
Ġman ag
ĠI I
r um
Ġw ant
ca ption
Ġsh ort
ĠNov ember
col or
Ġsim ilar
Ġo ld
ain ed
t ab
Ġ >
ys is
g in
Ġw on
ĠDe cember
iv ity
3 3
Ġass oci
are nt
b old
Ġl and
Ġch ang
Ġpoint s
Ġa ff
t rans
in o
ic le
| -
Ġp ot
Ġm ar
i ents
Ġm ajor
Ġc ity
us h
ent ion
f ield
ens ure
os p
Ġf ull
Ġp ubl
Ġre se
R E
ref ore
Ġcomp ut
ĠM ed
Ġl a
x im
' '
n ew
Ġt urn
le g
ist ic
eg raphics
includ egraphics
Ġb and
ĠAust ral
Ġd om
Ġval ues
ĠĠĠĠĠĠĠĠ Ġ
H e
ail able
ĠF eb
Ġm embers
a ction
Ġb usiness
ens ity
../ ../
er ed
var phi
s er
Ġf ew
Ġdet erm
Ġg overnment
4 5
w ays
ĠEuro pe
se e
l ation
Ġprodu ct
Ġqu ant
8 0
Ġh old
c ul
ĠR eg
, âĢĿ
T o
9 0
U n
ĠA f
200 7
epend ent
ĠW ill
ri ed
Ġsh own
Ġint rodu
gor ith
st er
ĠB ut
Ġper iod
Ġtot al
ide o
t ies
em ph
ĠS ec
Ġimport ant
Ġ err
ru ary
Ġinclud e
ap e
b orn
ĠThe re
Ġw omen
Ġplay ed
Ġg row
z e
Ġh ref
ge q
Ġshow s
Ġcomp et
fra k
Ġpro b
Ġdisc uss
cent er
al f
u k
ĠN o
Ġs ection
op t
Ġcom b
ru ction
a ult
iv id
Ġproble m
Ġch o
ro ll
. ~\
u pp
ad d
Ġrele ased
ress ion
ograph y
** **
pos ition
h tt
over line
our ces
Ġk e
Ġd er
d is
ac ed
h am
i pp
B ig
) ^
w ith
200 6
iqu e
pro of
Ġsp ect
Ġmodel s
ur b
Ġterm s
Ġa ut
ĠP art
op er
Ġcomp let
t d
Ġvi ew
th is
& \
l in
. }
iv ate
ĠCan ad
ight s
Ġfollow s
ĠA b
Ġme an
Ġg reat
Ġstr ong
Ġe as
Ġpre d
Ġm ap
ĠCh rist
th ough
st and
Ġs ize
Ġex ist
olog ical
Ġ _
Ġs ay
3 5
ap an
et ic
yn am
o ff
Ġcont rol
Ġpro m
it or
Ġd on
B y
an a
od es
Ġposs ible
ĠB y
ĠE d
Ġv ol
ĠM c
Ġt yp
con om
ĠH ar
Ġt imes
n o
Ġd eg
Ġf r
or ph
it her
C l
Ġsign ific
ang u
Ġl ess
e ak
u ck
ve c
Ġs ide
s ource
}, \
3 2
u x
ra ft
ix ed
ard s
Ġdef ined
ĠFeb ruary
ĠâĢ ĺ
oc us
O R
Ġph ot
t ime
} ).
ĠBrit ish
Ġs it
lect ed
Ġdescrib ed
ce ption
se qu
math frak
ĠK ing
mm et
al se
ĠA fter
cl ass
Ġim pro
Ġf ree
em pt
ob al
ie f
ĠĠĠĠĠĠĠĠĠĠĠĠĠĠĠĠ ĠĠĠ
[ \
pl ic
on es
Ġc ou
v iron
sy mbol
Ġa ver
L et
Ġ )
Ġinv ol
Ġ= >
Ġ ide
arg et
Ġstruct ure
ur g
end ing
par am
Ġf urther
Ġch ange
ĠR ec
Ġe p
Ġk ey
con t
Ġav ailable
Ġc over
w are
Ġpot ential
== ==
S ee
a ugh
s m
Ġg ames
19 0
pl it
ent ly
lang le
m at
7 0
Ġreg ion
is f
A N
Ġw ater
Ġst ates
ĠC or
ĠB ar
3 1
Ġp ort
ĠLe ague
ampions hip
A C
ĠE n
n ame
Ġph ys
re w
w it
20 00
ud e
Ġto ok
ra p
Ġtr ue
is ing
b ox
Ġd iv
b ra
Ġ* /
cl us
Ġserv ice
Ġto wn
ĠW est
oun c
ict ion
Ġw ar
itt le
Ġh istory
Ġapp lic
Ġdist ribution
Ġth ink
Ġf ive
ain t
Ġan t
ab ly
Ġc amp
ex p
Ġcare er
7 5
ĠM e
m essage
Ġam ong
h line
u ation
ren ch
c hed
ed er
Ġperform ance
ab or
ld ots
Ġth ird
ĠThe se
ord er
our s
ad em
Ġde b
ĠR uss
n abl
ut ions
a ul
} }$
Ġh ouse
Ġf ac
bold symbol
ak en
Ġm ax
Ġm ember
Ġchild ren
mb ox
A L
n ow
Ġorig inal
Ġof ten
Ġj o
Ġar g
he ad
Ġm ot
l oc
Ġre cent
Ġspec ial
Ġa ge
ĠA pp
g es
ĠH is
Ġpop ulation
( '
app a
L ambda
es e
Ġd etail
ĠA rm
âĢ ¦
Ġa uthor
Ġc oll
Ġhe ld
Ġpos ition
Ġa ction
200 5
Ġh y
er tain
Ġprof ess
Ġ enc
Ġsignific ant
i us
Ph i
ran sp
ut ure
Ġl ight
ĠA m
il le
Ġs ix
h old
ĠE l
ĠAf ric
op h
ater ial
w ide
ĠD ist
a ut
pos ed
Ġc ell
id ence
Ġle ast
Ġhe alth
in ition
Ã ¡
ot imes
9 9
Ġc ost
cent ury
al d
Ġr ange
re et
Ġrese arch
Ġfil ms
A meric
Ġed uc
Ġbir ths
I d
y l
b r
lev ision
im um
Ġbe gan
on se
ab les
Ġf ore
f ord
ĠEng lish
it ing
Ġqu est
ip le
ond on
Ġp ract
A r
Ġa ir
ic y
S h
ĠJ apan
Ġro le
Ġcomp lex
Ġn amed
Ġbet ter
ener al
Ġind ic
Ġfe ature
Ġwe ek
re st
N ame
ĠThe n
ĠG l
p d
nabl a
Ġcount ry
ĠP res
Ġappro xim
ĠA g
fer ence
E S
Ġm en
Ġatt ack
ĠH igh
n a
on ent
Ġcl ub
6 4
L ist
Ġrece ived
ĠO ne
ib r
as ing
Ġf und
Ġacc ess
Ġvers ion
Ġcomm on
sc ript
Ġrel ations
Ġm agn
Ġbec ome
ri ption
Ġm om
ĠP ark
E N
Ġb i
ur ity
ĠCom p
Ġp aper
Ġac ross
ĠW ith
Ġse qu
ĠS ch
c ast
Ġin fl
le te
y m
Ġin s
Ġind ivid
Ġloc ated
t able
Ġprov ide
Ġre pl
i i
Ġcommun ity
Ġanal ysis
Ġthe ory
s f
b it
S p
viron ment
I f
Ġr ate
ort s
3 4
Ġestabl ished
in ally
R es
Ġsystem s
ow s
ric k
Ġc r
ĠM on
row n
200 4
k appa
im port
non umber
ot es
} ;
ra in
Ġcl aim
ĠAr t
Ġt itle
m ult
Ġvari ous
gorith m
Ġobtain ed
em s
ac y
al y
ĠD av
Ġn ational
il es
he l
Ġp ri
Ġann oun
Ġh aving
Ġto o
i ber
Ġ- -
d om
in ter
ure d
c ode
u ff
. \
Ġsat isf
get her
Ġre d
Ġto gether
T ype
ch ie
a ff
Americ an
Ġdif f
Ġinclud ed
3 6
Ġst yle
Ġappro ach
o on
} )$
Ġdevelop ment
Ġconsider ed
ĠL et
Ġsol ution
Ġp ath
ing ton
P s
Ġpubl ished
ĠCol lege
Ġp ut
ty pe
Ġyou ng
ĠA ir
Ġf ocus
m ost
at ural
u ild
Ġst ation
Ġm illion
Ġse en
ip s
st yle
} ),
Ġfe atures
ĠĠĠĠĠĠĠĠĠĠĠĠĠĠĠĠ ĠĠĠĠĠĠĠĠĠĠĠĠĠĠĠĠ
I C
Ġc ross
Ġl ower
Ġc ult
ĠS er
Ġhig her
ĠQ u
Ġg en
if f
ounc il
Ġbu ilt
op s
Ġh ard
Ġd ays
og n
Ġv ill
Ġc ases
Ġbuild ing
Ġre view
ĠCh ar
Ġass um
i et
ĠH ouse
Ġst ory
Ġal ign
Ġde v
Ġne ver
le ments
Ġar ch
ĠL ondon
ugg est
c irc
cite p
read y
Ġc irc
Ġev ents
Ġd ensity
Ġb o
h ib
Ġaver age
ĠH er
am ples
/ >
s l
\ |
Ġs ocial
ĠD ep
Ġs uper
Ġ q
4 8
ourn al
Ġl angu
Ġpl an
Ġgo ing
Ġe ar
oc ument
in ary
3 8
ilit ary
Ġacc ount
ĠĠĠĠ ĠĠ
ĠW hen
Ġfunction s
sub set
ĠP er
A M
ĠA ct
Ġse par
P l
Ġparam eters
Ġhow ever
n ers
c her
text it
ust om
Ġme ans
E C
ĠL a
Ġt re
S igma
Ġe lection
Ġcondition s
Ġpr im
Ġst ar
Ġtra ining
b ased
ĠB ro
Ġg r
Ġv ar
I T
es tern
ĠWill iam
Ġs om
e h
Ġh app
Ġf ri
Ġem ploy
Ġinit ial
Ġind ust
Ġl ik
Ġs ite
Ġf ar
Ġspec ies
ain ing
ul es
con st
6 5
ensure math
Ġl og
Ġm ight
Ġm aking
Ġof fer
ĠS w
Ġstud ents
Ġn eg
id th
Ġal ways
9 5
er a
t op
Ġconst ant
il ities
ib ility
Ġh uman
Ġwrit ten
Ġstand ard
al t
g o
r ite
Ġbl ack
Ġab le
Ġmat rix
Ġmat ch
Ġt ext
Ġs uggest
}} {
Ġv ideo
Ġcons ist
ĠA ng
Ġg ive
iv en
) (
k ey
Ġequ ation
Ġh om
Ġe ither
\ %
Ġk ill
0 5
Ġg raph
Ġtem per
ĠS m
Ġbel ow
v ing
Ġprodu ction
St ring
ir l
I S
Ġa rm
ĠIn ternational
ĠC O
Ġl oss
ch an
Ġc y
com p
Ġplay er
Ġt w
Ġrespect ively
du c
ĠF rench
av y
Ġh alf
ĠS o
Ġmark et
Ġ` `
E D
" />
et t
I nd
Ġb orn
Ġwork s
pp er
Ġcon c
Ġp air
3 7
ly ing
Ġab s
ec ess
Ġb ig
Ġf ail
200 3
Ġs ent
r or
Ġgroup s
ĠC he
ul a
d raw
ear ch
Ġlim it
if orn
Ġc ame
and om
C ol
itt ed
un ic
F ig
rid ge
Ġv ia
\ [
Ġh ost
e al
Ġfre qu
ish ing
ap s
wid et
Ġal ready
ay er
0 1
att le
am a
c or
Ġs em
Ġme et
Ġ vert
Ġpr ivate
oci ety
B C
Ġcent ury
ress ed
ĠPh il
c y
Ġcal cul
Ġl ength
ect s
_ _
g ed
Ġserv ed
Ġ Â
ĠM ich
iforn ia
c le
u f
ar a
Ġs ays
s w
Ġassoci ated
ic ro
200 2
op y
Ġs ource
Ġph ase
Ġwork ing
b or
Ġact iv
Ġa chie
g l
Ġg e
Ġrequ ire
widet ilde
ĠT r
Ġex c
dot s
V al
ĠS an
/ \
200 1
ill s
4 4
ĠV al
Ġbe com
Ġind ependent
ann el
is c
Ġcom e
em ents
Ġf uture
I I
bs ite
Ġserv ices
Ġg round
Ġa way
ĠM ore
Ġcorrespond ing
, "
Ġm iss
l oad
Ġro und
ret urn
\ !
Ġb ase
u el
Ġt aken
Ġstart ed
ĠD r
Ġpos itive
min ist
Ġp ay
re c
um p
ma x
Ġc aus
Ġt reat
Ġbel ie
5 5
ot ed
Ġel se
3 9
ĠA c
ĠDist rict
Ġn ov
Ġe conom
ĠCh ampionship
ĠGerm an
N ew
n ey
oci ation
Ġd at
Ġm aterial
ac hed
Ġcl ose
Ġinvest ig
ct or
Ġd ou
Ġp ress
trans lation
or ge
ut es
Ġ( $
m ing
Ġf alse
S S
ĠSt ud
Ġt arget
ĠInd ian
o ch
ple ment
ĠC up
Ġp ast
Ġt ry
Ġ ill
{ -
av es
ĠInd ia
z eta
A P
ĠRep ublic
Ġcre ated
g en
Ġeng ine
Ġreport ed
Ġpartic ip
Ġth us
H ow
pr ime
Ġw ind
Ġb en
ĠCal ifornia
Ġd imens
ransp ort
Ġl ed
ĠM y
om b
Ġim age
Ġp o
in ated
ĠM ark
h ood
ĠPres ident
Ġc ertain
ort un
ir t
ĠAmeric a
ian ce
Ġreg ular
Ġcontin u
ar ies
Ġte levision
o e
ic a
Ġl ate
Ġm er
y ear
Ġs on
ar ing
C O
id ing
Ã ³
L E
r ig
ell ing
is k
Ġother s
oy al
ĠS erv
Ġw ent
Ġmom ent
202 3
' )
Ġrequ ired
th ing
} +
val ue
nd er
c os
med i
ĠTh at
Ġ !
Ġoffic ial
th m
m on
# #
s cal
ur ation
Ġl ittle
Ġre ally
av a
Ġd ied
Ġcor re
Ġl ines
v an
land s
" )
ffic ient
ic o
} -
Ġe mb
ly mp
Ġacc ording
idd le
ul ations
Ġan g
ĠL em
id s
wh ich
Ġprodu ced
Ġparam eter
Ġrel ated
ce ed
18 8
a el
an ies
Ġc apt
Ġb ody
sh ip
Ġpro of
use um
Ġerr or
Ġbeh av
cent ering
] ,
d own
Ġprov ided
i res
Ġn ormal
om orph
Ġd ynam
ec ut
Ġdep end
iv il
ol ic
Ġmethod s
Ġke ep
on ents
Ġn umer
Ġproper ty
p oint
Ġp erm
\ ]
Ġbe gin
\ {
Ġcont ent
Ġsur face
c ap
Ġn orth
iz ing
ĠF irst
il i
im ate
Ġannoun ced
Ġf ig
ic les
b b
The re
Ġon ce
at ives
Ġas k
ĠE q
ens ion
ac hes
Ġh istor
Ġen ough
Ġcl os
ac c
) =\
h a
in n
ĠR iver
ĠD iv
and er
Ġr andom
Ġexp ected
W h
ĠC ont
Ġl o
4 9
Ġt rack
ĠEng land
] .
4 7
Ġproper ties
Ġc ut
at ory
; \
0 8
it te
Ġs old
ot a
ou d
ĠI m
Ġline ar
ar ning
6 6
Ġpro posed
Ġbro ad
Ġag re
Ġunder stand
Ġn ull
Ã Ń
end er
m ark
ĠE ast
S c
Ġd ire
Ġ& =
ĠS ince
n own
ac he
s ize
art ment
ĠH am
ĠF rom
Ġsc he
Ġm em
ĠAustral ia
ĠC our
m ar
s ing
Ġf em
g ress
s in
Ġd est
her n
Ġmed ia
ĠS ection
ult s
f o
Ġl ive
) }\
ig en
0 7
cc ording
Ġpolit ical
ĠS im
e le
ĠR ed
eth ing
Ġh tt
tab ular
Ġpop ular
it ect
A t
Ġset t
Ġinfl u
Ġin put
Ġre ason
oun ter
Ġf ather
ĠD em
Ġsy mmet
Ġin ternational
Ġsim ple
Ġmult i
Ġpro p
ta ct
ĠThe orem
A ll
Ġg ot
ist ics
ĠG o
r ated
W ith
Ġc le
199 9
ĠIn stit
al ax
Ġs w
ĠB er
Ġconst ruct
Ġbre ak
Ġen vironment
E T
} =\
Ġe lements
ens ive
l ike
Ġv ector
Ġanal y
ĠĠĠĠĠĠĠĠ ĠĠĠĠĠ
ĠP ort
~ ~
oc r
Ġp ur
l o
ĠCent er
it es
ĠS en
Ġaddition al
ww w
qu e
Ġr ather
m y
Ġare as
ĠA nt
D e
c is
b ook
ord in
Ġs outh
and id
a ign
Ġb ar
ĠCanad a
Ġspec ific
ect ions
Ġn ecess
Ġr at
ell ow
Ġent ire
ul ated
Ġatt empt
Ġe lement
Ġwhe ther
v ille
Ġst re
199 0
Ġobserv ed
Ġpred ict
Ġs ound
ĠPart y
ic ult
ĠBl ack
all s
Ġdeg ree
Ġfin ite
Ã ¼
en ed
ĠP at
itt ing
at form
) ^{
Ġlangu age
Ġal most
Ġs ens
li ed
Ġa ward
o res
Ġvill age
ĠP al
ĠEurope an
Ġcour se
Ġev al
Ġmov ed
w ise
y a
Ġdevelop ed
Ġexper ience
L e
Ġfact or
ve y
Ġn atural
ĠL aw
Ġro ad
f oot
d ata
f unction
Ġwh ose
est s
ĠB el
Ġal gorithm
Ġwe bsite
Ġd one
A d
Ġvi ol
i ew
Ġcre ate
and s
ĠSt reet
{ (
an ish
Ġle arn
m ary
Ġch all
Ġrec ogn
Ġexper iment
om s
Ġstr ateg
I nt
18 9
Ġ id
Ġs af
ĠC ouncil
Ġl abel
A fter
Ġchang es
Ġbl ock
ĠA ward
199 8
ĠG roup
Ġl iter
Ġm akes
Ġst ring
Ġex act
Ġz ero
g roup
Ġ= =
ge bra
Ġep is
Ġc lear
ĠM or
Ġmon ths
Ġrele ase
ul ly
Ġfe el
Ġla un
ĠP aul
Ġcon duct
ĠM al
ĠCh ina
ra b
ro te
Ġresp ons
Ġeffect s
Ġt aking
il m
Ġlarg er
Ġle arning
k y
rac y
A A
0 4
ast ic
Ġfr ont
$ )
a ur
P eople
Ġgl obal
Ġsub ject
Ġun it
Ġche ck
Ġlead ing
0 6
Ġmult iple
Ġim plement
ĠJ ames
Ġh on
cdot s
Ġscal e
I m
am s
A nd
qu are
r im
st ate
ro id
L iving
Ġso ft
Ġl ove
Ġme chan
Ġ Ã
e ff
Ġequ ival
Ġc ode
Ġcont ribut
ĠDav id
ber g
C C
ĠD i
U S
pl ing
ĠR ober
0 9
led ge
Ġp an
"> <
htt ps
Ġback ground
} ]
Ġexp ect
ĠN e
wide hat
Ġresp onse
Ġup d
ĠG eneral
Ġcomp lete
Ġn ode
Ġm ale
O b
ĠC ons
Ġcomp os
Ġdist rict
ĠN ot
Ġadd ed
Ġc ustom
ĠTh om
Ġincre ase
}\ ,
as c
Ġperform ed
4 6
}_ \
Ġh or
e es
f in
Ġwork ed
Ġpres ident
A D
Ġne igh
Ġinclud es
ra int
Ġst ep
Ġinst ead
Ġk ind
Ġm id
Ġimp act
Ġconst ruction
Ġgiv es
}^ \
ĠNew s
q quad
Ġcent ral
ĠT ra
. ~
ec k
Ġth ings
Ġpart y
7 8
ĠFran ce
m ore
Ġtemper ature
S e
ĠT V
ec ially
Ġcomp anies
ĠH ol
} |
wo od
Ġa ud
Ġdeath s
R O
h an
ĠI nt
ĠE m
Ġdef ine
ĠD o
op p
ar ter
Ġsom ething
ĠD on
Ġquant um
sm all
ĠM od
Ġv oid
ag o
ed d
ig ital
Ġar r
itte e
Ġdist ance
0 2
Ġcol lection
C ont
Ġl ost
st ring
i ers
ĠCh urch
Ġcl ust
ĠDep artment
ĠU K
Ġpri or
Ġl ot
ott om
& =
e in
Ġf av
M od
d en
Ġestabl ish
Ġw ords
Ġstud ies
as ons
ree k
Ġj ob
Ġfl ow
k en
Ġ rac
ur rent
ort hern
. )
on ic
ou l
199 7
ra ction
Ps i
Ġocc ur
Ġcont ract
Ġex ists
oc al
ther n
ibr ary
y ing
Ġcont ains
^ +
{ {\
Ġr ank
Ġp arent
5 00
ĠR ich
}) \
ut il
Ġtrad ition
ra z
Ġnew s
Ġeduc ation
c ial
u it
id a
ber t
b and
lem ma
Ġe ver
Ġcol or
Ġsuccess ful
199 6
Ġp e
Ġam ount
rad e
Ġcomp ared
ad es
, -
Ġde al
Ġn ight
Ġde cl
n es
Ġm ag
k nown
eder al
Ġre v
Ġf ixed
ĠArm y
ĠS um
Ġm ilitary
Ġfield s
u ra
H istory
ash ington
p re
F rom
ess ion
}} (
ĠIn ter
M S
Ġst age
ari o
Ġcan not
l ist
Ġc ateg
Ġdiff icult
rib ute
ag ed
Ġcent er
Ġsequ ence
r ast
Ġd ocument
ĠO lymp
app ro
ĠQ ue
m it
ar ily
umb ers
le ase
Ġquest ion
D ata
ran ch
Ġteam s
ou thern
Ġrelations hip
Ġwe ight
Ġprov ides
un n
Ġp ric
ĠAss ociation
n b
Ġac cept
l or
Ġ esp
u z
Ġpresent ed
at ively
Ġto day
r d
ak er
0 3
Ġadd ress
6 8
is es
Ġim pl
st on
og le
Ġg as
d t
ist ry
Ġcl osed
c up
D E
Ġeffect ive
ic ol
Ġon line
Ġus er
ĠL ist
Ġoper ator
a ctions
ĠGe orge
Ġ& &
Ġcont ext
Ġdist ribut
un t
Ġreg ard
ign ed
B l
c it
O S
ĠH all
i ences
Ġw rote
Ġthe refore
t ic
ag er
Ġsp in
f rom
at al
ri ate
n ode
an i
W hat
Ġgo al
Ġintrodu ced
Ġpr inc
) ]
Ġprob ability
Ġ %
Ġc andid
Ġapp oint
ag ram
Ġp ers
Ġdeb ut
l a
l ight
Ġeff ic
Ġindust ry
Ġindivid ual
L L
ref er
c ing
Ġgra du
ĠM art
ach ing
Ġdem on
198 0
g color
Ġf ood
ĠCour t
a it
Ġ ver
Ġmat ter
Ġtrans fer
ĠFig ure
li er
4 2
7 7
ĠB r
ri an
ĠG reen
Ġcomp ar
it ar
Ġbas is
ol ar
an ks
R ec
Ġ\ {
pp ed
un c
ĠB o
Ġt akes
Ġdirect or
I s
ĠHe alth
ok e
Ġup on
ip al
um ents
sk ip
anc ial
ect ive
Ġp ack
Ġv ict
Ġnov el
port s
5 8
if orm
P S
ĠM ount
199 5
Ġ und
Ġun ique
ĉ Ċ
Ġwh ite
ir m
Ġprofess ional
ĠInstit ute
Ġs up
E r
ĠR oman
htt p
b oard
B A
Ġwh y
Ġo p
ĠD ef
p x
Ġoff ice
Ġm ove
iz es
Ġt able
ĠG r
Ġpol icy
al ian
Ġre ve
ĠO b
Ġsol utions
ag ing
( {\
b re
ĠTh us
m ap
ĠĠĠĠĠĠĠĠĠĠĠĠĠĠĠĠ ĠĠĠĠĠĠĠ
Ġlik ely
ĠL ou
p ly
Ġt en
pro p
Ġl ink
Ġcamp aign
ch ange
e an
osp ital
-------- --------
m id
ĠR oyal
}^{ (
Ġreturn ed
il ton
ind ent
ĠSy stem
math sf
Ġass ume
al le
us ed
Ġass ist
ines e
Ġf ight
in i
text width
**** ****
Ã ¶
e ared
199 4
Ġiss ues
vers e
st ar
f ile
Ġf ire
Ġb gcolor
Ġdisc over
Ġim m
Ġy et
Com p
ĠGerm any
Ġproble ms
a res
Ġpolit ic
ĠUn ion
ĠWh ile
) -
Ġg alax
le vel
d imens
}\ \
ĠDiv ision
Ġse arch
Ġ$ (\
W hen
ĠW ashington
Ġesp ecially
Ġal though
G e
k a
ĠĠĠĠ Ċ
us p
Ġt ax
4 3
Ġits elf
Ġdesign ed
Ġs ample
Ġtrans form
Ġm other
6 7
Ġst e
n s
Ġac qu
Ġjo ined
Ġphys ical
ĠR oad
Ġcor rel
Ġed ge
i os
o oth
Ġcom es
ĠO ff
ari ant
Ġmon ey
equ iv
Ġst ri
Ġ ess
Ġtra vel
Ġdire ction
9 8
g ing
Ġind ex
A ss
Ġbound ary
pd f
all ed
ĠB est
ac her
ict ure
Ġdirect ly
Ġben ef
Ġsu ff
Ġperson al
Ġbeh ind
Ġhim self
ĠM usic
ous ly
Ġmon th
Ġfl u
ĠLem ma
ĠD ay
Ġ( )
Ġde part
A pp
Ġl iving
f ill
Ġset s
ĠS ing
Ġf ace
I M
ĠB ay
P ar
Ġad j
re y
ĠV ol
Ġright s
Ġper cent
Ġb oard
ĠW hat
ew ork
Ġcontin ued
en ing
Ġqu al
Ġthrough out
Ġfor ce
Ġmar ried
Ġplay ing
ĠRes earch
V ID
Ġin sp
un k
Ġra ce
F F
ĠJ ack
Ġthough t
Q u
Ġequ ations
5 7
er ve
Ġout side
Ġdiffer ence
it ude
n ov
Ġpart s
ov ed
Ġlead ers
M an
o ice
Ġst ars
Ġwho le
Ġmod ern
Ġdef e
Ġinvol ved
ĠY ear
Ġnot e
is ions
ed y
| ^
enc ies
ol s
Ġarch itect
enc ed
Ġra il
Ġincre asing
ĠM r
ĠB ook
ĠM at
p ath
Ġm ention
( $
ĠComp any
ĠM ary
n ote
Ġcon fig
ma il
Ġopen ed
loc ation
Ġtechn ology
or ing
ĠAr ch
el ves
ra el
Ġdel iver
Ġad minist
ĠAc adem
Ġf all
on al
i ation
ĠT ex
4 1
ed ge
ĠP ress
Ġhold s
h space
Ġcurrent ly
ĠW ork
199 2
O T
Ġpl atform
Val ue
Ġb ox
T e
à ¤
} :
ĠV ir
Ġd ate
Ġrad io
Ġst aff
est ival
B ut
Ġf ile
Ġlarg est
Y ou
ro y
h i
on a
Ġf ram
ann ing
S ince
t est
Ġ Ð
I ON
Ġbro ther
Ġequ al
Ġe mer
C D
th at
ĠD uring
he st
Ġin j
il ies
Ġn uc
5 6
an o
ĠN or
ĠJ ust
Ġd augh
ĠD irect
ĠCl ub
197 0
Ġrequ est
Ġact ive
Ġcour t
nb sp
Ġst atic
Ġcomplet ed
Ġrest rict
Ġs ex
ask et
clus ion
Ġim ages
} +\
Ġout put
Ġd raw
ĠSc ience
Ġcount ries
Ġp age
Ġ& \
x y
| |
D ef
ĠAustral ian
ĠS ociety
ĠS am
it z
O ne
Ġdetail s
N ot
Ġn umbers
] $
at ur
Ġart icle
Ġfollow ed
Ġsp eed
Ġus ually
Ġdef inition
Ġw rite
Ġopp ortun
iz ations
Ġinst ance
Ġus es
Ġs il
ĠA lex
el oc
Ġproduct s
Ġiss ue
199 3
ĠM ex
ĠAng el
oper at
Ġk m
}} {\
Ġcrit ical
ĠR ev
Ġ- \
E n
id ents
ĠM et
Ġbecom es
Ġact ually
t ra
Ġw ife
ĠAfric a
Ġt ro
el t
Ġsong s
Ġtyp es
im ents
al a
Ġcol umn
operat orn
ad o
b urg
Ġd am
Ġneed ed
Ġpol ice
Ġtrans ition
Ġde ep
S et
h y
Ġsc en
Ġelect ron
ĠC ong
ad a
ell s
Ġex hib
Ġfri end
r c
Ġlevel s
Ġsh all
ĠIs land
b ody
ĠL eg
operatorn ame
Ġmet ric
ĠG old
" );
u als
scal e
Ġneed s
5 9
Ġto wards
g s
Ġro t
o z
Ġr isk
Ġto ur
Ġval id
Ġallow s
d ag
Ġch urch
ĠS l
Ġc ast
Ġh ous
Ġt er
' $
Ġb ring
ĠTe chn
ĠWh ite
b ound
Ġdec ision
ot o
oc ks
Ġim medi
Ġacc om
Ġqu ality
pl ace
Ġvis it
Ġch arg
ĠM iss
en a
re qu
at us
cit et
ub e
el ine
em ic
Ġs ources
Ġloc ation
Ġrecord ed
ĠO ur
ĠE ar
Ġj ud
Ġbook s
os en
ov ers
uf act
Ġform ed
Ġro ck
ran ge
Ġcomp onents
x space
ĠT own
ĠM ag
( -
Ġv eh
Ġdirect ed
// //
Ġdemon str
Ġgrow th
8 8
w rit
ĠCl ass
ĠRuss ian
err or
Ġmax imum
Ġden ote
Ġpat ients
Ġopt im
ĠM er
ĠPro v
Ġallow ed
no indent
b on
Ġs ense
Ġg ave
dimens ional
ĠAfric an
ĠD es
Ġqu ick
op l
) {
Ġcommun ic
Ġsmall er
Ġpro ve
Ġl at
Ġh ours
} -\
A B
ĠS ub
Ġinter p
Ġw ave
ĠM ad
] ;
Ġe ight
is ation
Ġmanag ement
in st
Ġcomp onent
Ġschool s
ol f
Ġpat tern
ĠS ur
Ġal tern
ĠS ome
y e
l ong
Ġlong er
S P
Ġcho ice
n ce
Ġsign ed
G et
ĠMich ael
re p
Ġsur v
Ġdat as
Ġsign al
in it
Ġto ld
umn i
Ġcon v
ant ic
Ġu pper
Ġrun ning
ĠH en
ec ial
Ġev idence
ĠT rans
ĠT ur
ĠG od
Ġconst raint
n eq
I R
am ily
\ ,\
f ect
Ġcontin ue
Ġfor ward
Ġc red
Ġh ot
Ġs aw
Ġco ordin
Ġide a
Ġapp lied
ĠM us
ens us
Ġde cre
Ġprim ary
Ġgener ated
Ġb all
Ġm us
Ġy ield
om ial
Ġcon tact
o o
Ġro w
umer ate
ough t
Ġcon cept
duc ation
ri a
ac ity
ĠTex as
Ġsh are
ĠR ad
Ġb it
d ro
Ġapplic ation
ĠRober t
Ġapp eared
ind ex
ĠG ames
Ġev olution
Ġl ay
ĠM ac
ĠF in
c ome
Ġm ix
li ament
ol it
Ġconc ern
Ġwrit ing
199 1
ac ing
w ell
Ġtreat ment
at rix
Ġv eloc
Ġt alk
F L
Ġb r
in ct
9 6
ĠD is
Ġcon ver
) }{
ot ic
Ġrem ains
Ġin du
Ġun ivers
Ġrepresent ation
Ġw ord
ĠO ut
Ġp ain
ĠB en
ĠG reat
ing u
ĠT om
l ink
Ġch annel
Ġt ransport
k i
ĠCent ral
Ġad m
Ġse lected
ĠG rand
emb ly
b o
Ġex ecut
ĠCh inese
9 7
Ġrel ation
Cl ass
Ġaut om
cer tain
$ }
Ġprevious ly
the orem
ri al
Ġad apt
Ġg irl
ĠF ound
ĠCar ol
Ġsec urity
Ġset ting
ro s
Ġbehav ior
Ġsim ply
ans ion
ri ef
Ġinst it
ĠS al
ĠH ere
ify ing
5 1
Ġbir th
ĠCanad ian
Ġsc reen
O r
Ġoper ations
ĠThom as
m en
Ġm ach
Ġstre ng
H E
us ion
] \
c ell
om in
Ġlim ited
Ġmain tain
Ġun its
en umerate
re ater
Ġ ir
ĠJ ew
Ġdis play
Ġp eak
ĠDem ocr
air s
Ġincre ased
) }$
Ġpl ant
ĠSt e
Ġimpl ies
5 4
Ġco e
c el
F il
Ġd ark
omet imes
ag s
Ġconst it
f ess
5 2
ĠD el
ĉĉĉĉ ĉ
ur l
Ġal gebra
b our
Ġknow ledge
Ġh it
Ġf it
s up
os ing
ĠW il
Ġcorre ct
Ġdeterm ined
Ġw oman
Ġfor ces
ĠM useum
ĠM ont
Ġp ark
Ġpract ice
rough t
ĠD an
F A
Ġstud ied
v is
sc r
ĠJapan ese
Ġcharact ers
ĠP ublic
ĠSc ott
ĠThe refore
Ġso on
Ġsupport ed
vent ion
Ġd ram
ri er
b ut
ag ement
et her
Ġj ournal
Ġan im
Ġpl aces
==== ====
Ġsub sequ
ĠKing dom
ic on
i ra
Ġse ven
Ġnecess ary
Ex ception
ent al
Ġne ut
7 6
Ġmagn etic
Ġdis e
au ge
Ġor d
er ia
Ġexp ression
I G
d ist
Ġ: =
ĠC ath
az ine
Ġconn ected
asket ball
Ġus ers
ic it
N N
Ġg overn
.. ..
item ize
is her
Ġdid n
w in
ĠW estern
" ;
Ġc ele
& &
ict or
ĠO ther
V iew
= #
ĠCO VID
Ġill ust
Ġeval u
ĠAn n
Ġear lier
U T
198 9
] [
Ġpro ced
ĠS uper
Ġd ed
ĠK ore
Ġpre c
Ġ/ **
Ġdou ble
Ġa im
Ġs ure
ĠO f
ĠMin ister
Ġl ack
h and
ĠE v
ir it
196 0
5 3
Ġw idth
re me
Ġt ask
M A
om a
ĠI r
Ġsc ient
) );
Ġin side
ĠR ob
Ġchar ge
u ge
Ġro b
}} _
ĠAcadem y
p ose
ĠChrist ian
v ant
ĠF ore
Ġrecent ly
Ġover all
Ġhe art
r ate
d o
r ont
Ġ _{
it a
U R
Ġwe ak
z a
Ġexp and
O ver
Ġrel ig
N A
Ġb rand
Ġn ames
ĠIs rael
N o
St ate
ĠN ow
Ġad opt
ĠSm ith
Ġstart ing
dis play
Ġstruct ures
Ġh ol
198 8
j s
mer cial
at re
Ġdom ain
Ġreve al
Ġrem ain
th let
ĠG ra
Ġcomm and
ĠD ec
d s
ĠVir gin
K ey
v space
Ġdaugh ter
ĠFl or
Ġs en
Ġn ature
S E
Ġreg ions
ob ile
Ġspect rum
ĠSt ring
Ġse em
Ġm ount
Ġcol lect
Ġst ra
ar r
w est
ar p
Ġepis ode
Ġro om
Ġrat io
u a
t ers
alle l
Ġfam ilies
Ġcult ure
The n
Ġcom ing
Ġcont ain
C H
I P
Ġvari ables
Ġread ing
it ation
ĠL at
ang le
Ġestim ate
ec ause
z er
Ġst ated
Ġth ing
Ð °
Ġfound ed
Ġlook ing
Ġav oid
p ublic
ĠLou is
ĠA re
F orm
Ġf un
il s
mult icol
c an
Ġchall eng
}} }
Ġt rac
Ġp urch
Ġequival ent
Ġsc ore
Ġche m
ĠT able
ĠT or
Ġle ague
appro x
ruct ure
a o
Ġpres ence
ĠServ ice
Ġcon clud
ĠC amp
vers ion
ĠIt alian
E E
l ength
Ġs usp
Ġb ur
y r
Ġelect ed
Ġqu ite
ect ors
Ġw alk
multicol umn
ĠH istor
Ġkill ed
ers ion
Ġfem ale
per ty
Ġfin ancial
Ġw ide
d i
ĠComm un
e ks
v est
B S
Ġst ay
ef ore
ĠB ill
Ġsc ience
P r
it ch
ms elves
Ġant i
Er ror
Ġeas y
ĠB i
Ġdoes n
Ġresult ing
) +
Ġrel ative
Ġhig hest
Ġc ivil
Ġobject s
M C
t urb
ĠRec ords
Ġredu ced
Ġfrequ ency
Ob ject
ab s
Ġgener ally
g ence
Ġg rad
ur t
ĠChar les
Ġpress ure
Ġcom ment
IN G
ap ter
Ġw est
ir ing
S y
Ġappear s
Ġco ach
F C
ĠH istory
is ms
P i
Ġp ick
Ġg old
M ar
Ġe ast
7 9
Ġalbum s
Ġan sw
Ġcap ital
" :
Ġe igen
7 2
Ġ\ |
ĠFran cis
anc y
Ġs eg
Ġfig ure
Ġexp ress
ollow ing
ro ad
6 9
b t
Ġapp ly
Ġappoint ed
Ġthe mselves
L O
is l
ie ce
ĠComm ission
ail y
Ġm ind
ant a
Ġart ists
\ }$
ann ed
E ng
Ġatt ention
Ġ er
Ġman ufact
ic ago
Ġoper ation
Ġm icro
ens or
Ġmean ing
Ġclass ical
erm an
Ġmin utes
Ġact ivity
ĠN ote
ĠL and
or por
Ġ// /
ma z
Ã ¤
Ġr ules
Ġform s
re land
Ġdo ing
Ġth row
Ġf ast
en ge
Ġt ree
s plit
3 00
Ġrec over
Ġge omet
Ġchang ed
ĠJ ose
Ġneg ative
in y
Ġrepresent ed
Ġh yp
Ġt it
ĠH ill
h ing
Ġst ream
Ð ¾
Ġlist ed
ĠR ock
under line
and a
Ġl atter
A G
I L
M P
ĠSum mer
por ary
Ġpre m
Ġleg al
Ġstud ent
Ġpr int
ĠC D
Ġbegin ning
ĠS upp
Ġinter view
Ġrun s
S ec
Ġf ill
t ical
ĠW omen
' re
^ -
8 5
Ġhy per
Ġb ank
Ġf ully
Ġcell s
Ġb ad
ol a
ĠP ost
Ġstat us
Ġw or
C T
Ġmed ical
Ġ ...
Ġr ule
u i
ĠA ccording
ĠB re
rum p
mod el
ĠM ass
Ġre ached
"> </
math scr
T ime
Ġth reat
p ack
Ġ\ ;
ĠF ootball
d r
in os
et te
Ġor g
velop ment
Ġd u
Ġocc up
ĠPar is
Ġvari ety
M L
ĠR ail
Ġb rought
. </
Ġw id
v ement
j oy
ĠG overnment
6 3
Ġbel ong
Ġtradition al
198 7
irt ual
n orm
irc raft
Ġc ry
Ġv an
text rm
Ġactiv ities
Ġstud io
ĠSec ond
Ġcoll abor
ĠZ eal
m ission
ing er
for ce
ĠE r
a ud
as tern
comm and
Ġsoft ware
ĠM el
m es
Ġext ended
Ġevent ually
ĠO ffic
( ).
Ġsp eak
Ġre comm
l am
Ġgu itar
Ġrefer ence
g ent
ell a
b ur
or ial
Ġrepl aced
Ġveloc ity
ĠSt ar
Ġparticular ly
Ġex am
Ġfe ed
n av
k m
Ġhtt ps
S C
ĠP eter
Ġsh ip
Ġsu fficient
S he
ir al
cl es
N ote
l t
ĠL ake
sy ch
Ġ â
ĠZeal and
S O
Ġno ise
Ġask ed
ĠL os
ĠFran k
Ġtra in
Ġh um
ist an
Ġbuild ings
d ec
Ġas p
Ġp en
Ġoper ators
S o
ĠRuss ia
Ġa x
Ġun certain
qu ot
Ġart ist
ĠRich ard
Ġdec ided
ult ure
Ġmiss ing
Ġag o
~ $
6 2
Ġg un
ĠP o
198 6
Ġmod e
iqu es
st ant
Ġ! =
F irst
T R
Ġsm ooth
ĠB ur
Ġfin ished
el er
Ġcont roll
Ġse ems
Ġfour th
7 4
ĠO pen
pr int
Ġun iform
ĠO ver
Ġinterp ret
ĠU k
Ġorgan ization
Ġsit uation
s u
Ġdimens ion
sh ire
ir us
ĠComm ittee
The ta
ul let
r ong
Ġeas ily
Ġto urn
ĠHam ilton
ĠB rown
ĠU nder
Ġpl aced
S ub
Ġthe orem
Ġmov ement
ru le
Ġhigh ly
yn omial
Ġvol ume
Ġlead er
Ġelect ric
Ġex cept
ri z
Ġb order
Ġc ause
n ormal
U N
l n
ĠB oard
Ġapplic ations
ĠD u
Ġorig in
Ġess ential
Ġe arn
Ġder iv
Ġw atch
ef ul
k ing
wit ch
an ced
Ġcompet ition
A b
Ġfact ors
6 1
Ġinterest ing
Ġwe eks
Ġbelie ve
Ġg auge
esc ription
pt ions
cre te
}^{ -
Ġd igital
} /
Ġal umni
w ar
Ġcol lege
Ġwrit er
Ġstat ement
ot ion
Ġclass es
Ġinter action
198 4
Ġapproxim ately
Ġneigh bor
ĠP e
Ġlead s
m as
aus s
Ġtrad e
Ġ ult
ĠT er
Ġsh ot
ĠT wo
Ġexp ansion
in em
P R
Ġget ting
ig an
ect ing
Ġ ens
us ing
Ġorig inally
if old
Ġdiscuss ed
Ġtrans l
Ġs ch
p ace
ĠGe org
Ġfootball ers
Ġprodu ce
F T
Ġsol id
Ġre ach
ĠIn c
Ġcho ose
Ġbl ue
Ġst op
line ar
` `
it able
Ġnot ed
ang er
Ġqu arter
p an
ĠCong ress
ĠPro gram
198 5
* {
Ġb al
Ġw ays
ĠC ap
wit ter
() );
I V
uth ors
ib ly
ĠL ife
=" +
Ġprogram s
Ġcons erv
art s
Ġst ations
app ing
Ġprob ably
ĠF e
}} _{
Ġch osen
Ġra p
Ġc ard
S erv
ĠF ilm
O ur
7 3
ĠV ictor
Ġab ility
ter m
Ġopp os
ĠFlor ida
Ġc ounter
Ġon es
S U
ar ian
Ġopt ions
ĠR em
Ġmeet ing
) {\
< \
Ġplay s
Ġcon cent
ĠIt s
Ġse lection
ĠS k
R equ
al o
ud d
Ġeconom ic
ĠP enn
Ġimpro ve
ill a
N ow
Ġsl ow
Ġg rand
ad y
raz il
Ġv s
. _
ol k
ret ary
ed om
Ġm ur
ĠAt l
Ġmot ion
ĠK e
ĠOlymp ics
ĠD en
ĠCath olic
Ġse lect
dag ger
und le
Ġcons ists
i as
ĠAl though
Ġconn ection
Ġwant ed
Ġagre ement
ĠM ost
Ġshow ed
P C
ĠSer ies
as hed
ĠSp anish
Ġsl ight
ĠAr ts
Ġnear ly
ĠI ll
T V
B e
ĠIn st
Ġcaus ed
Ġcon sequ
T r
it iz
Ġ ?
big g
Ġ ensure
} '
Ġr ates
Ġl oad
Ġfin ally
Ġcontinu ous
Ġext ra
ĠP ri
Ġm arg
Ġident ified
Ġprocess es
7 1
Ġt im
Ġgr ant
Ġsum mer
Ġle ave
Ġpre vent
Ð µ
os h
ill er
Ġestim ated
ĠP an
Ġd ro
act ive
i h
ĠS un
ĠB ig
Ġvari able
Ġdeterm ine
ĠCh icago
w ord
^{ -\
[ '
Ġac adem
ul s
Ġn om
con n
ren ce
Ä ģ
Ġfri ends
Ġ$\ {
C o
Ġs ometimes
Ġthe rm
ĠI reland
Ġfav or
Ġgo als
C an
Ġder ived
Ġm iddle
sum mary
Ġ$ |
Ġl ic
ĠRe view
b an
ven ue
id ers
av al
Ġde ad
ut ch
Ġexist ing
Ġform ation
Ġfl ux
Ġsy mbol
Ġg reen
Ġl ives
Ġfram ework
m et
Ġs n
ock ey
foot note
! --
h ouse
Ġre pe
T est
Ġsche me
Ġhouse hold
8 9
Ġin equ
av en
Ġs amples
R eg
Ġhe avy
is hes
ĠR ef
ĠT ime
E O
Ġm essage
ĠPl ay
omorph ism
Ġrem aining
n el
ĠAngel es
_ +
Ġan c
i en
Ġc op
ĠE ducation
M ore
ĠC ast
n ames
Ġsp orts
ĠP re
u racy
ĠG en
at o
Ġc am
Ġass ert
Ġcrit ic
ĠFor ce
ĠU p
Ġident ity
H ere
o om
ĠB ank
ĠG et
ul ate
Ġhe nce
Ġexpl icit
g n
Ġpan el
r ary
res ents
p at
M ed
Ġcomplet ely
Ġg reater
sk i
ĠM o
i ant
E d
Ġmin imum
Ġhe ight
\ '
Ġsur round
ĠVirgin ia
Ġdr ug
Ġn orm
Ġcomp act
ell ig
res h
ĠS up
i ency
Ġobserv ations
Ġc ore
19 50
or al
ĠJ ournal
ĠO h
Com m
Ġmov ie
ĠDirect or
pro d
tern et
as ks
ĠS il
Ġmem ory
min us
Ġgra v
Ġrem ained
{ $
198 3
y es
O D
' );
Ġcur ve
b a
Ġquest ions
Ġbe y
Ġstrateg y
Ġrequ ires
ĠO per
ch o
E qu
d et
R ep
Ġsh ape
opl us
ĠFound ation
w a
g ra
S er
ĠF orm
on om
Ġdes p
Ġpart ners
198 2
n et
ĠO l
Ġbey ond
ĠF urther
ow ers
ark s
Ġ esc
Ġet c
sp ec
ĠH el
che ck
Ġpric e
Ġper fect
Ġmin or
Ġsignificant ly
r un
ap ers
Ġsp read
Ġp aint
{ }
Ġm unic
or age
ĠCarol ina
Ġmention ed
m ain
Ġinflu ence
Ġp refer
y an
us er
Ġstra ight
Ġs quare
O ut
Ġfeature d
Ġl ayer
ĠM a
w edge
Ġcont ribution
j o
ĠT op
ĠOr der
idd en
Ġen joy
n ext
ĠSp ace
ĠM il
re es
ĠT our
Ġb rief
ĠT rump
p ng
Ġnetwork s
k et
Ġproject s
B ar
att ice
Ġoff ers
et urn
or ter
ĠĠĠ Ċ
ĠR el
az z
Ġsp ent
n y
ĠMex ico
Ġres ources
ĠF estival
Ġin ternal
Ġm is
Ġform ula
' ]
ul ed
ĠIt aly
Ġindivid uals
T E
oc ol
Ġass ess
ĠHen ry
v a
Ġmeasure d
Ġsymmet ry
du ction
Ġliter ature
ĠS ocial
Ġb us
S im
he m
Ġpl ans
in put
\ }
k er
ĠS und
B uild
ĠĠĠĠĠĠĠĠ ĠĠ
_{ (
Ġt al
as ion
es h
=" ../../
Ġsp ort
ĠT imes
}} ,
Ġpol ynomial
ĠC re
Ġexper iments
Ġf arm
Ġst ories
Ġmap s
Ġc orn
ĠP et
Ġaward ed
ĠOff ice
Ġappro p
Ġpartic les
Ġit er
Ġo ption
subset eq
ic ine
Ġmajor ity
Ġcommun ities
Ġdi agram
ov iet
ĠEx p
Ġsy n
ent y
Ġimmedi ately
c ase
Ġex amples
ell ar
Ġdesc ription
Ġopen ing
Ġdem and
Ġbas ic
Ġgo es
T ext
orn ing
Ġcom mercial
Ġpre p
Ġsc ored
A dd
F ile
g u
Ġte acher
h ab
In ter
Ġm ission
ĠL ove
Ġdescrib e
Ġredu ce
ĠEng ine
) |
ĠSw ed
b in
Ġcar ry
_{ {\
9 3
Ġv oc
T S
Ġmed al
Ġcompar ison
Ġexact ly
197 9
Ã ¨
os m
How ever
ad ium
Ġpass ed
9 4
l ig
il arly
ol ved
we ight
Ġ( $\
augh t
Ġa ircraft
ed s
Ġc ru
if ier
og ue
Ġparent s
Ġf if
Ġpartic le
Ġdynam ics
Ġsh oot
b i
Ġpro te
9 2
O f
Ġar bit
ĠĠĠĠĠĠĠĠ ĠĠĠĠ
Ġcateg ory
ĠE mp
Ð ¸
Ġa mb
Ġpro gress
ic ks
Ġsc atter
Ġbe aut
T able
ĠA wards
Ġrep resents
Ġcont rast
ĠJ o
Ġdise ase
Ġrele vant
ru pt
Ġsay ing
ĠK n
Ġsh ift
ĠK ar
i ro
ic ated
r as
Ġcele br
Ġar ray
Ġbound ed
Ġp oor
r ich
Ġus eful
Ġmov ing
ian a
or a
ar ant
iz er
ĠV er
ish op
Ġprof ile
Ġ$ -
ell ed
p c
Ġbe g
im a
Ġpl ane
+ +
Ġgiv ing
Ġnot hing
Ġquick ly
ĠA tt
4 00
lim its
ĠS ol
ĠY our
ar c
Ġrepl ace
8 6
Ġn ation
ĠTe am
oc ation
ab ilities
id ae
as y
Ġw ood
hes is
198 1
ĠK h
Ġc at
il ed
if ically
ĠSc ot
re al
ĠP eople
Ġj oint
Ġwin ning
os c
Ġbroad cast
ic an
ĠJ ul
Ġmoment um
ĠI N
Ġf oot
ew idth
Ġre b
Ġ/ >
Ġconf ir
m ann
ĠPro fess
Ġst eps
ian o
ĠM ur
in ner
it ors
ab ase
text tt
ĠL u
Ġpur pose
Ġsome one
Ġm ole
k o
} %
ĠMart in
ev en
Ġf air
in f
Ġgalax ies
p ass
con s
Ġm ut
ĠL ee
Ġsit es
ĠC am
Ġturn ed
ot ing
ĠAl so
ĠM ain
Ġsepar ate
im b
O P
Ġcap acity
or ation
ĠL ong
Ġdis s
Ġh op
Ġdef ault
Ġ- ->
Ġsaf ety
ĠYou ng
Ġ( -
Ġconsist ent
ĠO ld
ĠW ood
ĠB usiness
rop y
_ *
Ġlaun ched
Ġexperiment al
Ġwork ers
Ġ( "
Ġmanag er
Ġc a
T rans
Ġ$ [
tr ue
Ġsing er
Ġtourn ament
ĠG ood
Ġprov iding
D F
Ġtry ing
Ġw orth
Ġpol ar
Ġadv ant
Ġgener ation
set minus
Ġcar ried
und red
ĠH aw
197 2
Ġsp aces
ĠH ot
ĠA P
C E
Ġf ederal
Ġn odes
k in
197 6
Ġdist inct
ĠL ie
p ost
Ġapproxim ation
Ġfr ame
r at
Ġcom pl
)\ ,
V ert
Ġold er
Ġrece ive
g t
ĠCh ief
st ra
Ġcomput er
Ġem ission
Ġb attle
ĠA ut
Ġexist ence
ĠPro ject
ĠP ac
Ġf a
pl ate
C L
ĠW ind
un ch
Ġl if
), \
Ġ }\
ĠB et
st ream
197 8
ad ing
bl ock
Wh ile
D A
iv ial
ĠH y
Ġst ore
Ġcandid ate
8 7
Ġclust er
C S
Ġsim pl
ĠA rab
ig r
$ _
ult ural
are er
Ġevery thing
Ġann ual
O ther
w an
Ġmeas ures
Ġres olution
197 7
Ġpolitic ian
Ġend ed
oll ary
Ã³ n
Ġmost ly
Ġb asketball
I A
J ohn
197 4
the n
abl ed
g g
Ġcons um
Ġemb edd
Ġbl ood
ĠM ax
Ġc opy
Ġdev ice
E arly
c ond
Ġun ion
olog ies
Ġ ~
F urther
ĠL i
ĠVal ley
k ins
ĠEar th
he ight
E nd
ro om
8 4
Ġpr ison
Ġper turb
G B
Ġact or
Ġwrit ers
Ġvert ex
ĠD ou
Ġed itor
Ġpl ot
Ġco ast
u an
lin ewidth
ĠII I
ĠH on
P er
ĠJ un
Ġdiv ision
j a
D on
Ġch ain
8 2
h ost
197 5
Ġdom in
Ġrespons ible
Ġcomb ined
Ġa uthors
pl ed
in ite
Ġsub set
( ),
con fig
Ġint ers
ob ject
Ġopt imal
ĠB as
Ġdest roy
Ġcou pling
N e
Ġconstruct ed
Ġdatas et
ĠS aint
Ġwh om
Ġarg ument
Ġed ition
bl ack
Ġcl in
Ġrecord s
u ations
Ġsy nt
) /
ĠN avy
anc ing
ond er
Ġse a
Ġfail ed
s ur
st ein
Ġf ix
at i
st ack
Ġacc uracy
Ġdesp ite
b ase
The se
ri age
ers ey
Ġin form
d eg
he mat
sy l
all ery
ĠDe velopment
ans as
Ġnumer ical
Ġany thing
ĠD ata
00 00
f ree
r ame
Ġcou ple
ound s
_{ -
Ġmat ches
and emic
A tt
Ġd ual
r ide
mat rix
ĠB razil
ĠThe ir
us band
Ġt ru
Ġproced ure
Ġcalcul ated
Ġs al
il er
P re
so ft
196 8
ĠN etwork
P ath
) }(
os is
R A
Ġsc ene
9 1
Ġlaw s
Ġ eth
Ġget s
ear s
Ġb ranch
Ġser ious
al i
com ing
cher s
ĠT est
Ġvis ual
res hold
t em
Ġm aster
197 3
at ial
Ġext ension
Ġv ac
P art
ĠSh ow
,\ ,
ĠB ob
ad er
rel ated
Ġch ief
Ġincre ases
def inition
N S
pp ing
ole an
Ġser ve
Ġsh ared
E L
Ġsen ior
ĠT re
E vent
t itle
Ġa ctions
che n
Ġv ote
C ar
od ing
Ġh arm
ĠJ im
Ġcent re
Ġhtt p
ĠF re
ĠL iber
Ġcomb ination
Ġappear ance
se ud
Ġv oice
f e
rodu ction
Ġ\ (
align ed
Ġph il
Ġtyp ically
esp ite
ard en
pro t
h aps
Ġent er
Ġbecom ing
Ġr an
8 3
auss ian
Ġother wise
Ġro ute
ĠW ales
ent h
ĠL y
Ġpr iv
Ġpol y
Ġtechn iques
ĠJose ph
Ġthe ore
Ġr ing
ind ing
ĠCon n
Ġcont aining
ĠPar liament
Ġmeasure ments
van ia
ce an
Ġrad ius
A ccording
Ġinc ome
Ġrel atively
ult y
m ond
ĠS pr
Ġs ociety
C P
C ons
ĠA v
Ġag ent
ĠI ran
Ġ ;
ro t
Ġreport s
ĠPro position
' m
Ġeff orts
Ġdec ay
Ġrap id
Ġstreng th
Ġam plit
ĠH ence
ĠE lect
k l
p ol
Ġestablish ments
r ical
ra ine
Ġsur pr
Ġv acc
Ġdiscuss ion
Ġ| \
Ġact ress
197 1
Ġar rest
ug by
d ate
ĠE conom
ĠCol umb
' :
Ġfore ign
D uring
Ġb ottom
ĠL ibrary
Ġ+ \
Ġent ry
Ġenc ou
] (
ĠUn ivers
Ġmus ical
ok en
Ġatt ract
P E
ĠE nd
Ġform al
c ript
ric es
Ġar rang
In st
Ġref lect
Ġob ser
Ġsim ulations
Ġmaterial s
lang u
ĠChampionship s
Ġcan cer
Ġis land
ĠS ee
Ġinteg ral
f it
ĠMore over
ffic ients
M y
res ult
Ġhy dro
l ines
Ġh ospital
Ġh ar
wh ile
F l
G L
Ġmach ine
Ġk ing
= (
Ġr iver
Ġs ector
ĠT im
ĠCh ild
ĠJ ac
Ġse asons
in ity
Ġunderstand ing
Ġto uch
ut y
end ix
er ry
Ġext rem
C A
at ers
' \
Ġdep ends
Ġinc orpor
ĠG overn
Ġabs ol
ak ers
8 1
ĠUS A
Ġs am
Ġoffic er
pt on
Ġ ice
Ġhelp ed
Ġarchitect ure
he ast
E M
h ar
Ġpro pos
ĠF ield
S upp
rid ay
Ġf irm
Ġon to
Ġmur der
' _
Ġf raction
ĠJ ud
Ġident ify
ig ation
Ġopportun ity
ash ion
Ġcl imate
g ener
amp ion
Ġim ag
stand ing
Ġ&= &
Ġfore st
Ġp hen
ament al
Ġt ell
$ (
Ġinit ially
o at
Ġcontribut ions
ĠE ach
col on
P ost
ĠC ross
196 9
ĠS ar
; "
ay lor
Serv ice
Ġpo et
Ġp ull
ĠA N
Ġevery one
al g
em porary
ĠN orthern
ck now
Requ est
in et
Ind ex
Ġorgan izations
O M
Ġext ract
Ġreg ister
= -
Ġslight ly
Ġwe b
Ġsatisf ies
Ġsem i
ĠS u
Ġc ool
ĠCent re
Ġinit i
Ġth r
. ;
l ies
in v
Ġresp ond
Ġun known
Ġra ised
ost on
ad r
ĠL ine
sh ift
Ġo il
od ay
Ġfor ced
Eng lish
B ack
N et
N otes
Ġnumer ous
A ct
Ġrem oved
Ġcl oud
ust ain
}} (\
aw a
ak a
Ġgrow ing
Ġres ist
Ġf ans
T hat
Ġlat est
y er
ĠS et
Ġact ual
ĠTechn ology
Ġspect ral
ĠAss embly
ĠE qu
Ġwind ow
ĠIr ish
or b
ĠL in
Ã §
langu age
Ġtest ing
Ġdr ive
ĠSt ep
ri e
er em
Ġcorrespond s
194 0
ĠG al
Ġpos itions
c ount
Ġfl at
pt y
es ter
cont ent
Ġconstraint s
Ġexp ressed
ĠJohn son
sub figure
et ime
Ġ util
ud get
Ġle aving
iss ions
n am
Ġmain ly
M ap
syl vania
ip ality
ĠM ov
ell i
ĠF ort
ĠAs ia
ĠL ord
ind er
Ġth ick
og ene
Ġcomm ission
Ġcon vert
gorith ms
Ġrefer red
Ġc itiz
Ġter rit
back ground
Ġs outhern
Mod el
p age
vi ation
Ġal leg
Ġl attice
Ġf elt
Ġinst all
In fo
Ġhor iz
Ġr ise
erv ed
Ġed ges
) _{
Ġb illion
A m
Ġst able
N ext
Ġdepart ment
ĠS oviet
ro ph
Ġoffer ed
ĠGo ogle
og s
196 7
ĠH ome
T D
ograph ic
Ä ĩ
194 5
d x
Ġal one
Ġcle an
Ġh usband
g rad
for all
ym pt
ĠS ta
Ġcorrel ation
Ġatt ended
Ġlet ter
Ð ½
F ield
ip ment
ĠB u
Ġvert ices
Ġappro aches
ĠJ ones
Ġjo in
z ero
Ġprop ag
Ġreveal ed
: \
S R
Ġprodu cer
Ġp iece
Ġeffic ient
Ġm ixed
Ġang le
= {
ĠSp ain
a ver
Fig ure
ĠG ame
P A
Ġex change
Ġl ived
r ative
Ġcle arly
E q
ĠM en
Ġassum ption
tt y
Ġform at
Ġdif ferences
ĠR am
15 0
t es
ern el
Ġapprop riate
f irst
c ore
ĠS ir
19 30
N ode
) ^{\
fl ow
Ġs ales
ot al
Ġn orthern
Ġdet ection
Ġupd ate
}$ -
C ount
un ct
j i
Ġch ampionship
ĠM em
Ġnew sp
ĠCon ference
Ġmin im
s en
Ġfil ter
epend ence
c ases
ĠT ri
ific ations
per p
Ġintrodu ce
Ġs qu
Ġs plit
ang es
st ruct
Ġconfig uration
Ġaltern ative
Ġcover ed
Ġtr ust
urb an
\! \!
as ure
ĠC y
) ^{-
ov a
if fer
ĠB oth
il ing
Ġpart ies
we et
Ġw ild
Ġscal ar
l ay
g reg
ĠF ace
act er
erson al
Ġsur vey
Ġun iversity
air man
Ġsim ulation
ers e
ĠCar l
ann els
Ġcost s
s upp
Ġpro ceed
Ġth ous
ĠP ak
Ġinequ ality
Ġp le
al ysis
Ġhand s
' ;
Ch ar
n eg
st ract
ol t
ĠĠĠĠĠĠĠĠĠĠĠĠĠĠĠĠ ĠĠĠĠĠĠĠĠĠĠĠ
ĠF red
Ġw a
Con text
z y
h om
Ġeff ort
Ġb ill
G roup
H S
ic ity
Ġf ine
m d
ĠÂ £
Ġh ope
Ġ );
Ġcount y
ric s
Ġhistor ical
=" #
\ "
at ically
ĠProv ince
Ġprov ed
g est
Ġor ient
ap i
ĠMed ia
ĠDemocr atic
h as
Ġachie ved
Ġt or
ist ical
ĠS outhern
i y
Ġachie ve
C he
M M
Ġn ine
t rack
O L
f ort
ĠEmp ire
Ġc ities
Ġvoc als
og en
/ **
Ġp andemic
Ġassum ed
196 4
Ġh undred
b uild
Ġdetail ed
Ġinter actions
Ġp ure
ist ers
I F
Ġpart ner
M e
Ġtri al
Ġcoe fficients
ĠSp ecial
Ġcomp ute
Ġra re
val ues
' ve
Ġb ul
v oid
Ġro ll
Ġown ed
s ime
Ġfam ous
Ġclass ification
ino is
as i
ĠS and
Ġlaun ch
ĠM any
sime q
Å į
Col or
Ġj ourn
r ons
ra ge
ĠSund ay
Ġacc ur
os oph
ĠE ll
Ġ Î
Ġp oll
Ġ ign
s he
ĠEn ter
ĠP rem
ĠMich igan
Ġconf lic
ĠPl an
im in
el a
Ġc ook
Ġcal c
Ġshow ing
Ġnuc lear
ĠPenn sylvania
Ġcy cle
Ġdram a
{ $\
Ġtrans formation
Ġin ner
Ġvict ory
ĠU r
/ *
Ġin nov
Ġmag azine
ĠRad io
ĠA cc
am m
Ġis n
sub subsection
Ġmod es
Ġse at
u er
il ib
if ul
ĠPhil ipp
ĠD et
( (
ib li
Ġc ensus
D ec
Ġerr ors
() )
ĠW ay
ĠC oll
ĠH ig
Ġhe at
Ġconduct ed
ĠC ivil
it age
ri end
ĠServ ices
ĠB ow
ĠDe v
196 5
enn is
Ġpar allel
Ġ ut
H and
Ñ Ĥ
ab y
S L
str ong
ĠE p
gy pt
c r
Ġent ered
Ġm ill
ay a
.~ (\
S M
c ular
Ġrelig ious
}^ *
rib e
ĠHistor ic
ur ies
Ñ Ģ
Ġbehav i
EN T
Ġestim ates
loc al
1 000
196 6
in fo
col umn
opp ing
il a
Ġown ers
ĠPac ific
Ġstr ugg
Ġv ary
ĠT em
Ġw all
Ġ} );
ĠW ater
ony m
Ġpair s
go ing
ĠOh io
l aw
ĠC r
C areer
ĠG reek
Ġdistribut ions
ud es
ad or
Ġclaim ed
ran ce
Ġredu ction
S A
y mmet
ĠWilliam s
ell er
Ġor b
ĠIs lam
Ġcur ves
ĠW al
Ġp urs
Ġmechan ism
Ġconfir med
Ġcre ating
Ġp il
Ġl ies
Ġa part
19 20
Ġtyp ical
sec ut
ra it
Ġmet al
Ġoffic ers
er c
stit ution
ĠReg ister
Ġe mail
Ġoper ating
W ork
ĠBl ue
S I
let s
ĠO F
we b
ĠC amb
og rap
new command
ĠHe ad
Ġmass ive
ĠH uman
b ury
ĠB ase
Ġqu e
bre ak
Ġ( !
c ks
ĠCommun ity
ve x
ĠS ong
Ġdistribut ed
L a
Ġit ems
Ġrail way
$ $\
p ower
atur day
ĠMan agement
ner gy
ĠSen ate
Con n
f aces
Ġ },
Ġdev ices
Ġmeasure ment
Ġdefe ated
ĠM ah
Ġarm y
Ġex ternal
S D
Ġclaim s
cont in
Ġden otes
Ġm ess
ĠBrit ain
ar ia
Ġre asons
Ġcommunic ation
Ġres idents
Ġinterest ed
ĠP ower
def ault
Ġtre nd
igh ter
Ġgener ate
Ġt ensor
ĠPol ice
Ġpower ful
ĠQue en
Ġob vious
Ġtra ffic
ri um
p a
Ġl abor
Ġsing ular
st o
$ ).
Ġal gorithms
he t
T H
orn ey
ris on
}} ^
ĠU N
^{ +
Ex p
od ies
ĠPh ys
ellig ence
ĠB attle
et ts
ĠC a
ĠFrancis co
Ġveh icle
Ġchem ical
C R
ul f
s ch
c ar
ag onal
% )
ig ration
Ġo dd
Ġb att
A rt
Ġocc urs
Ġelection s
ĠCor por
Ġdiscover ed
ĠG ar
Ġm orph
ĠAs ian
Ġcy cl
Ġf le
ĠB ern
Ġseg ment
Ġcult ural
Ġstrong ly
Ġp sych
Ġex ec
R el
Ġs ections
ĠSt and
D o
n amed
P ol
E l
ĠWe ek
ipp ed
M on
E nt
b ullet
mod ule
st art
ĠJ ersey
ran k
ĠW in
Ġ= \
Ġst rict
cl aim
Ġcontin ues
m ethod
Ġinv ariant
ĠA ff
Ġp aid
ĠGeorg ia
Con fig
ĠH or
w er
Ġtrac ks
ĠB uild
Ġcont ained
ch ar
ad el
ĠV an
Ġto ols
ru it
) }{\
Ġsp irit
id el
Ġd aily
el d
Ġd oc
Ġth reshold
am ing
H z
Ġdr um
ĠO x
om ic
uck y
Ġpol ic
Th us
Ġdepend ence
ab eth
omorph ic
c ur
bur gh
Ġmod ule
ĠF riday
P L
ĠJew ish
ĠR os
Ġbu y
Ġrese ar
am in
Ġfre edom
ĠB oston
Ġmanag ed
âĢĿ .
[ ]
ĠK ent
ĠM u
ip e
Ġrest aur
Ġke pt
ĠChar l
ĠL ab
Ġdis k
at uring
ab il
d es
ĠJ oe
Ġstat istics
ran e
Ġro ot
Ġre const
ee ch
Ġst ress
Ġarbit rary
L og
ĠCo ast
ĠR h
sk y
Ġrequire ments
ĠK en
T op
Ġle aves
P op
Ġd rop
pm atrix
b ottom
p g
Ġallow ing
ĠV i
a ug
ĠP M
Ġc osm
Ġs ort
ĠM iddle
ject ion
Ġsymmet ric
Ġgen us
Ġreg ime
ĠL im
b as
A ust
ĠC ard
Ġadvant age
Ġimport ance
on ly
ĠU s
Ġn ative
Ġwe ap
Ġprot ected
ex ample
Ġc ert
os ure
Ġide al
P T
names pace
ĠC ro
Ġch ance
F e
Ġg ain
Ġadminist ration
Ġtechn ical
Ġ$ $
ĠS pe
ĠIll inois
display style
Ġro ugh
ap ed
ĠW all
Fil ms
Ġnuc le
D is
Ġansw er
ott ed
ird s
Ġserv ing
ĠThe atre
ach us
pos s
\| _{
Ġyield s
Ġcre w
Ġw rong
c s
Ġequ ipment
ĠF ar
Ġs ister
ĠS ports
} )$.
ra wn
Ġtra ined
Ġgu arant
ph as
ĠD isc
ĠIn formation
Ġneighbor hood
R ef
d im
Ġsing les
le ep
Ġindic ate
est ic
clus ive
e z
Ġsc hed
Ġpro min
Ġsp atial
Ġdist ingu
ĠS T
ang ing
Ġdep th
ĠM ajor
a fter
art ers
ed ia
ris is
ĠL uc
)\ \
Ġsec ret
ĠR o
h bar
196 2
******** ********
op en
od er
Ġ ]
Ġcomp osed
1 20
Ġhyp ot
Ġattack s
Ġcustom ers
g raph
Ġm orning
Ġfl oor
Ġreg ional
Ġc rick
Ġofficial s
$ ^{-
ĠSc iences
ĠGl obal
Ġex ception
i ate
eng er
Ġded icated
Ġorder ed
u ing
c d
ĠE ven
ĠSec retary
Ġregard ing
ĠA M
ag on
i pl
Ġsupp ly
Ġide as
D P
E lement
Ġimpro ved
Ġp icture
o ir
Ġsuggest ed
Ġiss ued
O C
m itted
. $
y les
ĠM id
Ġart icles
196 3
ig er
Ġcont est
ĠH ospital
t ri
ĠG irl
C ode
on to
ĠB al
' ll
" "
ec es
du ced
Ġpro port
ĠK ong
S ize
st one
N R
ĠScot land
pos es
ĠG i
tain er
AT E
L P
ĠN ight
B i
Ġacadem ic
Ġcon ference
Ġc atch
Ġapp arent
Ġto ward
are n
achus etts
ic ed
Ġact ors
Ġcirc le
Ġexecut ive
he tic
el i
if ies
ĠM ond
Ġadopt ed
ag raph
Ġinteg r
act ory
ĠM ot
Ġrecord ing
The y
ĠEd ward
ĠP ubl
Ġbelie ved
B ox
Ġspect ra
{ {
as er
ĠW ild
Ġfind ing
Ġcall s
ĠJ r
ĠF ederal
G u
Ġyou th
ĠMark et
Ġl ibrary
ĠSe a
Ġcol on
rem ark
Ġs rc
em ble
N ational
en ess
Ġemploy ees
ĠRepublic an
ta il
' }
Ġloc ations
It em
ĠB ang
Ġdis p
ot ype
Ġacc eler
ĠAnd rew
Ġtest s
ĠBel g
f il
Ġc ouncil
sp eople
Ġdifferent ial
ict ed
is er
Ġas ympt
Ġde com
Ġis ol
Ġa p
du le
Ġindic ates
ust er
Ġleaders hip
Ġa st
Ġb oy
Ġmat rices
ĠSt an
Ġact ing
ĠOr gan
Ġpe ace
Ġs quad
sy stem
ĠWe b
S ome
Ġac id
ion e
Ġchall enge
Ġatt end
Ġcomp are
ron ic
Ġv irtual
ĠCol or
g ency
ĠUk raine
Ġfunction al
Ġhe ard
text sc
Ġwid ely
ol ve
ĠPr ince
ĠF C
che ster
hen s
Ġphen omen
)$ -
on ed
Ġn et
ĠJ eff
Ġc ars
Ġrem ov
Ġsp ot
Ġto ol
Ġtechn ique
ĠJ es
ĠMed ical
D r
ĠRep resent
ĠP op
ple te
Ġn one
S ch
Ġres ource
ĠH a
Ġd raft
ĠM icro
yn c
h box
Ġch annels
Ġw estern
Ġle tt
ĠJ on
Ġt asks
l s
Ġfund amental
Ġit em
on ia
; &
ĠGovern or
194 4
b rid
os es
Ġexpl ained
Ġdis app
Ġdam age
Ġconsider ing
Ġt end
in er
Ġbe at
ĠE gypt
Ġadd ing
g ers
Ġimplement ation
lic ation
il ly
Ġass ign
Ġown er
Ġeffic iency
l ock
Ġcor por
Ġre pro
="../../ ../../
Ġdeg rees
Ġres on
Ġg ap
Ġobser ve
Ġfocus ed
it ness
Ã ¢
Ġlo op
196 1
Ñ ģ
Ġres id
}} ^{
Ġre tain
c urrent
ĠB ecause
ĠB ra
Ġtre es
ilib rium
Ġman ifold
Ġpl anning
Ġcandid ates
H T
l ife
od d
ĠJust ice
## ##
Ġdel ay
s uch
ĠD utch
c f
Ġinvestig ation
h u
ĠInd ust
Ġcomput ed
st atic
Ġsh ips
m osp
Ġinter face
Ġfac ilities
ĠT witter
_ -
ol es
//// ////
Ġst ellar
am ely
Ġst reet
ĠF il
Ġb ass
Ġacqu ired
ĠF ree
ĠT aylor
rap y
Ġd ial
Ġmot or
ĠIn f
ĠV is
> &
Ġst ock
Ġcom edy
Ġint ended
Par am
ĠDan iel
li ent
Ġs end
Ġopt ical
Ġoper ated
Sy stem
Ġa ware
Ġpl ants
pro position
Ġdiv ided
ĠR ay
ĠF und
ĠC reek
or ough
Ġre form
Ġch art
ĠKore a
v in
Ġenvironment al
Ġsu c
Ġop in
Ġnot ice
Ġass igned
Ġcoordin ates
j ava
Ġm useum
ĠE st
map sto
Ġeconom y
Ġdep ending
C M
Ġmass es
Ġany one
ĠPort ug
Ġact s
ĠF inally
Ġp p
Ġsol ar
Ġrem ember
ĠE very
d l
Ġnear by
g r
ac hel
ĠHamilton ian
Ġord ers
ĠF our
oc cer
Ġtri ed
E X
Ġvict im
M ay
Ġprofess or
A c
W ill
G l
f ound
Ġfor t
Ġsex ual
Ġl ab
G o
L S
Ġinter val
ĉĉĉĉ ĉĉ
ĠJack son
ĠW is
ĠL o
Ã ±
un a
w ater
ĠC at
ĠE astern
C all
te en
Ġor th
) _
Ġfe et
ĠG aussian
AS S
d oc
Ġveh icles
Ġstart s
Ġp et
r s
ap ache
ith ub
ĠL ag
row s
Ġpolitic ians
Ġinst r
c ut
' (
Ġf ellow
ĠSt at
Ġb ridge
Ġdi agn
ĠMass achusetts
av ed
ins on
sc ill
Ġp i
ĠDes ign
Ġcom ments
Ġe yes
Ġad vert
out e
Ġs ides
Ġsaf e
Ġb right
Y ear
un te
ath an
Ġmin imal
u ous
uff er
ĠA sh
on ential
ĠF amily
Ar ray
Ġus ual
ĠM aster
Ġover l
B rit
Ġprot ection
Ġcre ation
ĠSec urity
ĠBro ok
ĠS i
il ation
ost er
Ġreturn s
ĠB ir
re ct
D B
Ġinstr ument
Res ults
Ġprot ect
ric e
ut en
sp ect
ĠProfess or
Ġwin ner
EC T
&= &
Ġprim arily
Ġadj ust
ĠFace book
Ġs pl
The orem
Ġs ave
Ġa wards
Ġh ab
l ow
Ex t
Ġcol lected
Im age
Ġsk ills
m c
ro vers
cknow led
Ġmed ium
ĠMus lim
Ġsuggest s
Ġsuc ceed
am ber
ĠWil son
Ġen h
ĠH ong
Ġread y
Ġobserv ation
ĠChrist mas
lic k
Ġindu ced
t x
Ġlook s
195 9
ĠMin istry
ograp her
Ġlangu ages
ad s
G C
$ ;
ĠCh ris
Ġmark ed
ic ip
ĠS aturday
Ġsatisf y
k es
ĠPol and
Ġs witch
def ine
ĠFurther more
ang ed
195 6
M essage
Ġprocess ing
Ġfl ight
195 8
s ol
Ġp ages
pt o
Ġaff ected
Ġgalax y
ĠB ack
ĠMod el
ĠCons erv
iz abeth
ĠU sing
act or
\ _
Ġphys ics
U ser
Ġearn ed
Ġa head
m ma
ide os
Ġtri p
ĠL ight
op her
ĠBro ad
z en
Ġlim its
\ {\
ĠK im
}( {\
od ot
ĠL ittle
ĠStud ies
c at
Ġatt ribut
Ġaud ience
c are
Ġsubsequ ently
c ss
194 2
ĠM ike
Ġem phas
ass ert
Un ited
Ġarr ived
Ġt ail
Ġplan et
b al
Ġm iles
Ġwhere as
Ġexpl ain
Ġlearn ed
Ġbe am
pro cess
p icture
Ġrecomm end
Ġb ra
ĠP oint
Sp ec
roll er
av el
Ġfund ing
ĠColumb ia
ĠLat in
| _{
olog ist
ĠT HE
C re
Ġc ov
Ġre ality
it ivity
Ġg rid
val id
ph p
ĠD ar
ul pt
ĠPr ime
Ġsecond ary
Ġfl ag
Ġinvest ment
Ġd iam
Ġclub s
Ġview s
Ġreview s
A F
ĠPro t
Ġpart ial
ĠA D
or i
in ations
cre ate
ĠR un
Ġb udget
Ġtr uth
ĠD own
194 8
Ġfail ure
Ġmar riage
Ġorgan ized
ple x
f old
Ġf rag
rom e
Ġim plic
ĠâĢ ¦
Ġanim als
urs day
Ġfig ures
Ġbusiness es
P P
im ately
d y
t wo
Ġperson nel
Ġinteg er
Ġn arrow
ĠB a
ĠV ill
b el
t ure
Ġ ener
Ġd ig
L ast
ateg ory
Ġcommon ly
Ġcompos ition
d ev
ent ed
Ġme ant
Ġh uge
Ġturn s
maz on
Ġcitiz ens
Ġj ava
Ġret ired
S ource
Ġcom plic
Ġm obile
if er
Ġhous es
ty p
Ġmarg in
ĠTh ree
Ġdes cent
ĠL og
sc ape
y o
Ġpat ient
} &
Ġrem ark
Ġsom ew
Ġanal og
ĠB oy
Ġrem ove
d b
con text
ĠAd minist
Ġanc ient
m ass
ĠA uthor
Ġcomput ation
Ġo scill
Ġv ectors
Ġconver gence
M ethod
Ġcon d
Ġpre par
op ic
ĠSt ation
Ġpl us
lection s
om y
Ð¾ Ð
ĠA R
g a
rast ructure
ond s
Ġqu adr
ful ly
Ġinc ident
Ġmagn itude
Ġassoci ation
Ġdr iving
ĠOx ford
Ġcr ime
g ies
Ġalong side
S m
ict ures
195 7
mult i
! !
Ġchalleng es
193 9
ig ger
im age
Ġcon j
ibli ography
ĠK ey
Ġ/ *
Ġcar bon
$ ~
Ġh ole
Un iversity
Ġscatter ing
g ithub
Ġp it
Ġmod ified
Ġv en
el ess
n umber
Ġcharg ed
ĠC EO
se y
ĠN Y
Ġn av
Ġt ick
Ġb inary
Ġf resh
Ġcl ient
ĠAlex ander
ad ow
ĠK enn
t ik
ĠB ell
ĠAn other
ĠL ive
Ġpl anned
Ġexper i
Ġ ion
) +\
Ġpers p
Ġdescrib es
up s
ĠC L
am i
Ġconn ect
Ġbeg ins
Ġb rain
l ers
if ts
Ġ era
d ney
Ġtherm al
Ġph one
[ (
D em
ĠS om
ub b
Ġmed ian
Ġexper t
Ġhous ing
ĠB rad
Ġadv anced
or ig
Ġl ock
Ġvers ions
b ec
t an
ing ly
Ġinsp ired
Ġaccept ed
Ġsub t
Ġpred iction
ĠB BC
Ġax is
Ġp al
ric ts
Ġcons ult
oth ing
Ġeval uation
Ġlarg ely
= '
D S
Ġconclud e
Ġsp eech
Ġtheore tical
ĠSup reme
Ġfe aturing
Ġcamp us
Ġfootball er
Ġl ie
? âĢĿ
dis c
M R
Ġf ashion
ĠW ell
25 0
Ġepis odes
ĠR om
ĠBer lin
L ine
ynam ic
Ġcam era
ak i
Ġtw ice
Ġdevelop ing
Ġc row
ĠRep ort
Ġind eed
Ġspec ified
ed nes
ant ry
D ist
Ġd ivers
Ġpolic ies
à ®
Ġinj ury
ap se
Ġmon itor
Ġhon or
ĠR en
Ġs ession
ĠC orn
Ġsc ript
ogene ous
ĠO nt
an th
194 3
Ġfif th
ro g
A ut
ap es
a a
ĠP en
ĠPol icy
se ct
Ġal t
ĠP ass
Ġp seud
Ġear th
ĠT w
per ties
Ġst orage
ĠAb out
enn es
Ġscient ific
Ġag ree
194 1
Ġcon ven
ĠF ire
ĠW ho
ĠĠĠĠĠĠĠĠ ĠĠĠĠĠĠ
Ġagre ed
ĠV iet
Ġt ells
se arch
Ġsub stant
Man ager
Ġc old
Ġpre tty
ĠW alk
Ġengine ering
A V
ĠAd d
ĠN C
Ġent ertain
Ġro les
Ġdimens ions
ont al
bl ue
~ $\
Ġbenef its
ens es
anc er
Ġnot es
ĠH ung
195 2
R em
194 6
Ġen em
Ġde ploy
T C
Ġv on
Ġend s
Ġprote in
x x
f inal
Ġinteg ration
Ġ} ;
Ġflu ct
Ġlay ers
ĠScott ish
Ġpolit ics
Ġprinc iple
Ġre action
) },
Ġp ush
U s
195 5
w ing
Ġinstit utions
Ġnot ation
W orld
C al
ur er
ul i
here nt
ph ia
} )$,
Ġinvol ving
Ġ Å
Ġprogram ming
ĠA p
Ġ rom
ĠSt r
Ġamplit ude
Ġoccur red
th ur
ph one
eder ation
Ġa thlet
Ġcorn er
ĠPol it
ĠCon f
r r
Ġpattern s
Ġbenef it
Ġopportun ities
Ġdr iver
Ġco al
( {
Ġcalc ulation
Ġw ants
ĠVictor ia
fl u
wh ite
D isc
| }
ĠB ul
Ġl iber
Ġl um
ĠC P
Ġsol ve
id en
Ġf ell
f alse
Ġn or
ĠS M
Ġcalcul ations
) -\
Ġfind s
Ġprinc ipal
agn etic
Ġrot ation
ob s
ĠB on
Ġp ra
Ġext ends
R esp
Ġexc ell
c alled
Ġpart ition
O W
or row
Ġs un
) )$
ĠC ur
Ġuncertain ty
b ot
Ġcapt ure
Ġindust rial
Ġf uel
od ed
ĠI D
Ġfil es
ra q
ĠBe ach
Ġro ut
Ġspec ifically
Ġr ich
ĠF air
includ e
ĠB C
Ġsh ock
194 7
C or
ak h
Ġb urn
---------------- ----------------
Ġper haps
c ong
} }$,
ur ance
' .
ors hip
d el
ult ane
s ign
Ġwas n
Ġhe ar
fin ished
Ġposs ibly
adel phia
on ical
ĠRe al
ann a
Ġe ye
ĠL ew
Ġextrem ely
ic ation
Ġbase ball
ĠAmeric ans
pd ate
Ġman ner
ev ent
Ġj ump
Ġ$ {
Ġscal es
u ated
Ġfin ish
d ir
F R
ĠIs lands
Ġh our
lement ary
b ro
ĠC apt
ens ions
Int roduction
z z
Ġcon vers
Ġprov ince
S ection
ĠRail way
ues day
L T
Ġb atter
M embers
ednes day
IN E
ĠComm on
Ġchang ing
ĠT am
Ġa w
ĠS a
F inally
ĠA k
oc ated
p ot
ĠW rit
Ġst ability
al so
Ġperform ing
Ġtro ops
ĠM ethod
ĠS ant
om er
Ġdec ades
ĠR od
Ġd ance
195 3
iven ess
U E
ĠS her
} }$.
Ġat mosp
ĠGu ard
tik z
Ġgl ass
Ġag ents
Ġdo or
195 4
Al though
6 00
Ġh ockey
Ġvert ical
Ġg rew
ĠB and
Ġaut o
S w
ĠIn vest
em an
ill ing
Ġadv ance
ĠL ater
U sing
L C
p o
G eneral
sc he
Ġpen al
Ġfac ility
ap ore
Ġdef ense
Ġvari ation
Ġrepresent ing
ject ed
let on
B I
ĠAd dition
1 10
ĠPl aces
Ġoptim ization
H ome
ĠE nergy
Ġ= ==
Ġs ustain
Ġd anger
omet ric
Ġhe ro
Ġl iqu
Ĥ ¬
Ġrec all
Ġp lease
Ġre li
Ġcover age
el ly
Ã £
H ead
Ġkn ew
ze ch
ĠA st
Ġthan k
E m
}{ |
ĠMond ay
Ġclust ers
ĠTr ust
V D
Ġhapp en
Ġcomm it
ĠĠĠĠĠĠĠĠĠĠĠĠĠĠĠĠ Ġ
for ward
J an
st ep
Ġw aves
; </
ĠCor ps
m ember
Ġcomm ittee
Ġsurround ing
ĠT ype
Ġclin ical
form ance
Ġcomplex ity
Ġcapt ured
ĠAir port
ĠEngine ering
ĠR aj
âĢĿ ,
Ġfund s
Ġhe av
opt ion
con sin
Ġsp ring
Ġgeomet ry
Ġencou rag
Ġperm an
h ire
}\ ,\
Ġd ie
M en
Ġeas tern
}{ (
Brit ish
ĠCorpor ation
Ġserv es
Ġband s
Ġoppos ite
Ġmin ister
Ġscen ario
N ov
a is
Ġf ish
Ġe lev
L A
h ang
il bert
194 9
Ġrob ust
Ġcred it
ĠJ ean
Ġpr ime
Ġviol ence
ether lands
or gan
Ġmot iv
Å ¡
row ser
Ġsubsequ ent
Ġexp at
Ġstand ards
Ġacc ident
S ong
Ġf an
Ġc reat
ur i
The refore
Ġtransfer red
Ġhapp ened
Ġt ag
ã ĥ
ĠL ike
R S
ĠOnt ario
eg o
ĠR E
ol is
ĠKore an
ĠCl ark
L em
ĠL ast
ĠAn th
st able
ĠR og
ev in
he nt
) }_{
Ġelectron ic
Ġcon vent
D ate
Ġemploy ed
Ġtrans mission
l en
" ).
) --
ĠF ollowing
ac ent
ĠMin nes
Ġsold iers
T rack
Ġpur poses
ĠPak istan
Ġp ool
pack age
Ġ urban
ve ctor
Ġsuccessful ly
Ġext end
Ġk ernel
ĠC as
h igh
Ġres ident
D av
Ġposs ibility
ord ers
< !--
int eg
Ġmount ain
Ġrad iation
ĠS U
ĠEl izabeth
Ġd ream
act ic
d at
u um
Ġaff ect
Ġdynam ic
$ ),
] )
Ġloc ally
w atch
Ġaccur ate
Ġstat istical
Ġpartners hip
out s
Ġshe ll
reg on
h r
ĠAr gent
ĠEx per
ord an
ĠI S
Ġag ric
big l
ian g
cal e
Ġand roid
ĠSy dney
Ġsupport ing
}$ )
f ont
~~ ~~
ig a
Ġqu ery
ĠTor onto
Ġrepe ated
ĠMinnes ota
M in
Ġinf inite
ĠA ud
Ġr ural
ĠL abor
os a
Ġtre ated
ĠApp le
con f
=" ../
ct ors
ĠN et
ĠA venue
Ġ$ |\
ĠMc C
ip age
Ã¡ n
Ġab und
O ff
$ {\
Ġgraph s
Ġgrad ient
F I
Ġasp ects
Ġrecogn ition
writ er
Ġpromin ent
âĢ ĺ
Ġsy m
he im
n ull
Ġb omb
ĠM arg
rop ical
ĠOffic ial
: }
ĠSt adium
Ġexpand ed
Ġw arm
ant ly
app ed
Ġcharg es
ĠPol ish
fl oor
Ġcharacter istic
p ool
Ġcirc um
uss ion
Ġtrans lation
ou ri
Ġnew ly
ik i
Ġsu itable
T P
ly wood
Ġir re
Ġem p
ow a
ail ed
ĠE U
Ġjourn ey
min ipage
Ġbl ocks
Ġarg uments
: #
ĠF ox
ã ģ
195 1
Ġnewsp aper
ĠOn ly
Ġhigh light
int on
ĠG ro
Ġn amely
B ase
Ġp ix
Ġp owers
Ġb in
ĠS anta
ĠS af
Ġconstit u
u v
Ġappear ances
Ġobject ive
ĠĠĠĠĠĠĠĠ Ċ
Ġdat abase
Ġest ate
ch ild
Ġrecogn ized
Ġang ular
ĠH ard
Ġtem por
Res ult
Ġmat hemat
v ements
) </
yp es
Ġassist ant
w orth
Å Ĥ
Ġdoc uments
T ra
- $
cl ose
ĠOlymp ic
H el
Ġc e
Ġcoordin ate
ol i
O per
Â °
clus ions
ĠV en
Ġunder lying
Ġbig gest
H L
Qu ery
ri ev
Ġimplement ed
, $
Ġbal ance
Ġco inc
go ogle
8 00
ĠB ad
cc cc
big r
Ġrepresent ative
ĠN ations
ell o
ob e
ecut ive
Ġsil ver
Ġindic ated
Ġbeaut iful
ĠH un
Ġbro ken
Ġcoe fficient
v o
n i
U LL
ĠO t
osoph y
Ġsub group
Ġn il
is a
m iss
Ġ il
Ġsc ulpt
ĠFore st
it ative
" ),
Ġconflic t
Ġclos ely
Ġhand le
ul er
ĠL ind
it o
E W
ĠS uch
Ġcont rovers
Ġcaus es
Ġser ver
M usic
ly n
H is
) }}
Ġcharacter istics
ĠPri ze
Ġparticip ants
ĠC irc
ĠT y
ink ing
D C
S port
Ġpi eces
ĠN a
ĠTh ursday
Ġb ow
ĠT al
D M
Ġ\ (\
ĠD espite
Ġexpl ore
medi ate
Ġf iction
Ġphot o
ut t
um es
ask a
bour ne
ĠH and
Ġhistor ic
Ġscal ing
Ġcateg ories
Ġcon cer
ock et
Ġc art
p op
re hens
Ġpass ing
ĠT ok
Ġconcern s
Ġdef end
Ġt ransp
ĠR a
c all
ĠA li
ĠL ear
Ġin n
R ight
Ġinvestig ate
n ic
W rit
Ġm ist
Ġg ar
Ġ_ _
Ġauthor ities
B est
T wo
Ġv otes
Ġport ion
Ġv ideos
ĠAre a
Ġpredict ed
Ġw el
Ġexp onential
un it
Ġthem e
Ġentire ly
Ġcontroll ed
Ġz one
ĠC all
19 18
\ )
ĠSp ec
ĠM ill
Ġthe ories
Pro perty
B M
ĠG ener
ĠP ers
ĠReg ion
Ġd oll
Ġgirl s
ĠN ick
e aking
are t
Ġte aching
Ġupd ated
Ġtit les
Ġprom oted
S ing
Ġbound s
in als
riz ona
Ġwe ather
em eter
ĠCom put
os ition
Aust ral
, {\
com es
Ġinteg rated
Ġra ise
ĠAnt on
Ġc risis
Ġwin ners
ast ers
h ard
Ġevalu ate
w rite
Re ad
ĠSte ve
et al
tain ment
Ġsm art
r ant
E v
og ether
ĠMed icine
Ġf lex
i em
193 6
ĠM ic
Ġtra ject
uten ant
Ġjob s
ĠF er
l ast
P o
ph ant
Ġprot est
ĠIn it
Ġem pty
av or
ĠĠĠĠĠĠĠĠĠĠĠĠĠĠĠĠ ĠĠĠĠĠĠĠĠĠĠĠĠĠĠĠ
Ġcalcul ate
ĠOr ig
Ġc overs
ĠR ome
Ġ ^
Ġ[ \
Ġsecond s
ĠIn ternet
Ġh idden
Ġsett ings
def ined
B ook
Ġperform ances
Ġv ent
Ġappro ved
Ġsol o
Ġdis crete
res ults
S che
Ġv irus
Ġintrodu ction
Ġmunic ipality
Ġk ick
Ġsp ons
script style
Ġte le
Ġoffic ially
ps on
\ ;
ĠD am
P M
Ġlook ed
ĠE th
ĠEn vironment
S outh
add ing
it led
Ġabsol ute
Ġdet ected
ik a
Ġsum mar
ren e
ri p
ĠWis consin
ĠD er
Ġsatisf ying
Ġconsequ ence
Ġrec ip
Ġapp eal
Ġbehavi our
$ _{
Ġsur g
II I
per or
ru ck
Ġcompet ed
Ġl y
Ġapp lying
ĠM ult
an es
Ġfrequ ently
Ġfac ulty
h ol
Ġt urb
Ġcon vex
ĠBook s
ĠK ir
Ġfa ith
ĠP C
Ġch ampion
C lient
ĠS em
ĠR on
n um
as p
erv es
Ġpack age
j av
Ġw ing
D R
re ll
ĠI V
Ã£ o
. &
au x
H ar
Ġsup erv
a uthor
Ġresult ed
d ep
ĠN etherlands
Ġv ision
ier arch
Ġl osing
ĠB all
ĠC are
f riend
s at
Ġv ess
d f
-- -
Ġy ards
B O
init ely
Ġwin ter
Ġle mma
qu ery
Ġproject ion
Ġsim ultane
e en
w ind
ĠQue ens
Ġgu ide
Ġs ell
ĠRev olution
se x
Over ride
ĠH ay
ĠR eturn
Ġs and
ĠPhil adelphia
Ġag ency
oun s
193 8
ĠP age
Ġinter ior
Ġpublic ation
Ġden oted
ĠC ub
enc ing
,\ \
ĠD C
w eg
y ard
at on
Ġexper iences
s es
ĠW ars
t frac
er al
Ġrac es
P olit
ĠM P
Ġarm s
ĠF inal
Ġfight ing
ĠSpr ing
se ason
ist ed
per ial
Ġdou b
ire ment
ĠA G
uz z
ĠRe ad
ĠS at
Ġport rait
.. .,
qu arters
ĠI raq
m i
ar iance
Ġrece iving
Ġcont emporary
c oh
Ġ- >
v ol
Ġher self
l ik
aw n
Ġm apping
Ġdestroy ed
ĠCamb ridge
ĠL es
if act
m ic
Ġdecl ared
======== ========
Ġan imal
not es
ĠS us
Ġp m
ĠL ady
v ari
Ġtemper atures
i ples
t arget
s ort
ĠP eak
Ġdes ired
n ight
Ġthan ks
ain e
rit ical
ad ian
Ġun less
Ġext ensive
R ed
Ġhost ed
Ġauthor ity
Ġent ropy
Ġexpl o
poss ible
ron ze
ĠW inter
Ġad vent
ever al
y th
G ener
Ġs ale
ag a
Ġadminist rative
ang a
Ġb ed
Ġc erem
ON T
T ube
ĠO regon
" |
ĠS ab
or ption
math op
ast y
ĠAg ain
ĠR ights
ĠB rand
Ġfound er
ĠSta ff
Ġvis ible
s id
S um
ĠE nt
m ad
ĠStep hen
ĠN S
Ġw onder
ĠN on
Ġhold ing
j an
ĠF ood
Ġrepresent ations
Ġinter act
ĠW el
Ġeffect ively
Ġcollabor ation
r l
Ġaff ili
ĠDav is
ĠGold en
f a
Ġconf idence
Ġdown load
Ġprofess ion
l ib
Ġequ ilibrium
Ġpract ices
ĠO p
ĠA h
Ġk ids
: =
ĠT a
Ġsw im
Ġor bit
Ġar ts
un finished
Ġc ab
ĠPrem ier
s g
U p
y al
Ġvers us
ou ston
isl ative
ĠM att
Ġhel ps
Ġd ust
Ġ ^{
193 7
Ġsec ure
ĠW ednesday
$ :
ir ty
p resent
ĠT uesday
Ġh air
Ġyoung er
Ġgradu ated
Ġcry st
less sim
u y
M ax
Ġm ental
us hed
ĠC le
Ġcall ing
P oint
ist ent
ef e
ĠW at
C ast
Ġbi as
Pl ay
Ġmulti plic
St ream
ĠB ridge
ĠColor ado
ter ed
Ġse ats
Ġnot able
In ternational
Ġconsist ing
ĠTur k
includ ing
E P
ĠMar sh
Ġrel ax
us es
cre t
ĠDu ke
ER S
St art
ot ional
c ref
ĠTh rough
D escription
ĠS on
leg al
v ature
c over
force ment
Ġthink ing
olit an
Ġhousehold s
ble m
Ġd rawn
Ġ[ -
Ġre ar
ĠH o
ĠCount ry
ĠSing apore
Ġg ained
Ġthous ands
ĠT oday
Ġ iron
ve e
opp ed
Ġstand s
h or
Ġattempt s
P ort
Ġs an
> >
igr ants
che stra
' d
Ġoffer ing
ater n
Ġprep ared
Ġm ac
Ġcomm ut
Ġab and
ent ry
Ġw ins
ĠSt ory
Ġmix ing
Ġc atal
c i
ang ular
Ġn arr
Ġst orm
ĠC H
st ruction
Ġneut r
] }
^* $
Ä ±
et ch
Ġr ig
st ic
Ġlist ing
ant asy
i ated
P D
i Äĩ
B R
Ġw itness
ic ian
d ependent
ĠW he
) )\
exp ected
iffer ent
Ġm and
M ark
Ġag greg
Ġcomp at
Ġc m
omet ry
Ġcr im
Ġco oper
Ġpurch ased
Ġcop ies
Ġsufficient ly
z ed
P ersonal
Ġsam pling
Ġsequ ences
ul ating
] $.
Ġst one
ĉĉ Ċ
Ġb os
Ġw ish
Ġstrateg ies
ĠD igital
Ġex clud
Ġfeed back
ĠReg iment
i ary
f i
Ġmusic ians
Ġdimens ional
sec ond
ch ron
pt ic
Ġsch olar
er ies
M et
ĠL ocal
Ġparticip ated
h ow
ĠâĢ ¢
Ġresist ance
ĠF ord
Ġcover ing
Ġf erm
Ġst d
ain ts
ĠL td
ĠM ember
U til
ud den
s i
O pen
R un
Ġdefe at
Ġdatas ets
Ġjud ge
Ġend ing
Ġdo ctor
Ġestim ation
ĠB ol
Ġben ch
ĠG reg
Ġun able
est abl
if est
$ };
Ġposs ess
Ġult imately
ĠF ac
and roid
Ã ¸
ĠSt ock
Ġint ensity
Ġwe ights
Ġenh ance
}) }
Ã© e
ar ity
Ġexplicit ly
\ }$.
ĠA mazon
19 17
long rightarrow
Ġhot el
Ġg one
pl ane
Ġj et
> (
ĠS ign
etail s
w orld
ad i
Ġlow est
ennes see
eli hood
it ory
Ġdro pped
ĠT urn
ĠC ase
Ġwe alth
19 19
ĠA thlet
Ġarrest ed
ĠInd eed
eng ers
C ent
un es
b et
ad ed
Ġhapp y
Ġp ed
M at
ak ed
Ġflu id
Ġexpl an
193 5
Ġprogram me
m n
Ġpurch ase
Ġgrant ed
ch a
ĠB ru
Ġout er
Ġgu ard
ord on
C urrent
se lect
Ġmark ets
Ġw al
Res ource
Ġp apers
Resp onse
e lect
ru ctions
Ġbre aking
ĠF I
j oint
et ies
Ġdocument ary
k h
An other
b en
Ġfl ood
Ġtest ed
}} _{\
Ġcomp ris
Ġsc ope
ĠK ansas
Ġdecom position
Ġ$ .
id ay
Ġcon clusion
}[ \
Ġm el
H C
Ġre ferences
ĠB att
ĠM oh
Ġmom ents
ĠI d
ill ed
enn a
Ġe q
emeter y
Ġsum mary
ĠOb ject
Ġsc oring
Ġdom estic
Ġpric es
ag en
ĠChild ren
ĠInd ones
Ġlett ers
Ġbul k
ortun ately
Ġabs ence
i able
unn el
Ġsee ing
B L
Build er
ĠSwed en
Ġderiv ative
ĠM ach
L abel
ĠTur key
ĠAn y
G A
Ġm ort
ĠC M
Ġg ene
Ġclass ic
R L
Ġdemonstr ated
Ġclos er
ot he
19 14
igh th
In put
it ational
ĠJac ob
ĠT ro
Ġne ural
Ġresear chers
ast e
ens ed
at in
ĠC ost
Ġc as
R C
Ġhapp ens
form s
Ġm ent
Ġterrit ory
Pro v
Ġcomput ing
Ġcomm itted
Ġinf rastructure
Ġqu ark
Ġpre cis
Ġconcent ration
Ġpract ical
Ġexperi enced
ar se
ĠHar ry
ĠG h
Ġd iver
Ġassum ptions
ĠSur vey
ĠAtl antic
Ġneg ot
sc ope
Ġopin ion
ort ed
ĠN ext
ĠS D
Ġhab it
Ġf ib
ĠComm and
ĠOn ce
circ le
osp it
pro ject
du ate
F ollowing
Ġbl og
j ust
ic ular
Ġtra ce
Ġpersp ective
Ġinstit ution
um a
ĠEx t
R eturn
ĠH an
p arent
st ood
ĠB rig
b at
Ġregister ed
Ġw ait
Ġsuff ered
R I
Ġident ical
Ġex ceed
D ep
$ {
ĠG er
Ġbel ief
ĠIndian a
ĠMar ia
ĠN one
ĠR et
ĠAd am
Ġfavor ite
N on
i ota
Ġsett lement
Ġext ent
Ġcertain ly
Ġsign als
Ġmarket ing
Ġy ellow
but ton
sh ow
ĠN az
Ġv ice
Ġcont rad
Ġlo an
AT ION
ys et
end ar
Ġexpat riate
och astic
19 00
N umber
}) ^
ĠM iller
Ġmax im
al ing
Ġrelationship s
ĠB udd
Ġinv erse
Ġhom es
Ġhum ans
secut ive
}) =
Ġaccount s
W ind
Ġp ref
ri or
Ġocc asion
ur ches
ĠGu ide
Ġcontrol s
Ä į
ĠA rizona
Ġk id
Ġsat ell
Ġinters ection
b ell
Ġp ul
ĠM ilitary
ĠO cean
Ġp ip
,\ ,\
ĠP ot
ov en
T A
ĠMount ain
}} )
ĠH op
Ġin hab
Ġsupport s
Ġfill ed
are st
m o
Ġb odies
Ġmunic ipal
Ġalleg ed
;\ ;\
ition al
ĠL ow
L ink
rag on
Ġreturn ing
Ġt aught
d frac
t w
Ġexcell ent
ipp ing
the re
Ġf ear
Ġ\ !
arg ets
Ġconc ert
Ġprecis ely
cl ient
Ġimpro vement
ow nt
ĠSwed ish
ĠPr im
Ġa id
Ġaud io
U M
off s
ph y
Ġmatch ing
Ġ{ $
19 29
Ġdec isions
pro v
Ġp iano
ĠAnd erson
Ġref ers
ĠS ky
Ġsatisf ied
f s
Ġp un
Ġst ack
Ġt ight
10 1
Ġgrav ity
W omen
N av
ĠEx ecutive
Ġkeep ing
Ġesc ape
ce ived
Ġd og
ĠH art
Wh y
Ġg ender
Ġlabel s
] $,
Ġf ra
Ġener gies
v ard
Ġsched uled
Ġf aster
Ġdisc rim
ĠLew is
S te
Ġb ool
Ġt error
Ġbu ff
T Y
Ġdef in
ĠA z
Ġdi agonal
P ublic
ag ues
Ass ociation
re a
opt ions
ĠG ree
ĠA mb
Ġd ens
Ġst ages
Ġdemonstr ate
r ine
Ġtw enty
so le
r ations
193 3
Ġh all
rop ic
g ar
f unc
Ġca ref
Ġin tern
ch or
Ġprom ote
Ġcrim inal
Ġmole cular
Ġrank ed
Ġconst ants
bt n
requ est
ĠN FL
Ġread er
ĠB h
Back ground
Ġcom fort
arg s
Ġnecess arily
ou ble
the less
ĠR oss
ĠK now
M ost
ĠComm unic
hed ral
19 28
iv als
Comp onent
Ġp od
ĠE ric
ĠR est
Ġcol our
ĠK al
out heast
ou red
ĠG allery
Ġres c
ok es
angu age
ĠAff airs
Ġw alls
h ou
ĠOffic er
ĠApp endix
j e
ĠN AS
ile y
Ġtit led
Ġfem ales
ĠS C
I O
193 4
Ġre ct
Ġex cess
R uss
A ction
ic ial
Ġ( {\
Ġhelp ing
B o
ĠWh y
Ġ\ &
ĠGr ant
Ġadv oc
Ġs ac
16 0
ul ing
Ġse ed
ĠS av
% .
ĠMiss ouri
el le
st ances
the w
ĠC ru
erc ise
empt yset
Ġn ob
19 10
ĠP it
ĠM A
ĠMem orial
Ġar c
Ġworld wide
Ġmax imal
weg ian
Ġrough ly
Ġpredict ions
ĠYou Tube
Ġsepar ated
Ch rist
Ġf estival
$ &
rib ed
D i
Ġdeliver ed
Ġnov els
os l
Ġv ot
ĠCont rol
d escription
m ers
ĠC zech
and ra
Ġsh ares
}} .
Ġsh aring
Ġannoun ce
Ġw rest
P O
Ġdecre ase
Ġso le
med skip
Ġsub stit
Ġinst alled
ĠH al
pl om
d on
ĠV iew
iam i
form al
ĠPr inc
Ġpath s
G erman
Ġliqu id
ul ner
P at
t ag
al gebra
Ġdepend ent
Ġvol unte
Ġdeliver y
ĠFore ign
od ge
ĠN ever
sequ ently
ĠSe ason
b u
^{ *
ĠJ oh
Ġ< <
al ion
Ġ }{
Ġsc ores
Ġgu est
H O
Ġins ert
A p
Ġdet ect
ĠT ai
Ġb ought
mod els
F rench
ĠMag azine
Ġrad ial
osc ow
ou rier
sh ips
S l
ĠBro ther
D T
Ġgovern or
" ]
Ġbrief ly
d irect
ĠM ir
Ġtr ivial
ĠC A
br as
Ġneut ral
ĠT ransport
ĠK at
ĠB efore
Ġinterpret ation
ist ration
Ġunivers al
ĠCapt ain
M ult
Ġtown s
Ġint elligence
Ġjust ice
unn y
Ġfl ows
Ġessential ly
ĠMed al
F unction
Ġsh ut
is or
Ġcont ribute
Ġ\ ]
18 0
Ġb an
Ġdec ade
su ccess
ĠR oute
Ġmin ute
g eneral
B B
ĠEnter tainment
193 2
Ġinterest s
rain ian
Ġun s
ar ma
F O
ĠSupp ort
h l
Ġjournal ist
in ction
Ġs izes
Ġsever e
ur d
Ġhor se
Ġquant ities
pro perty
es ides
Ġo vers
all ow
ĠC ode
Ġpl ate
Ġgreat est
W est
ĠSh ort
ivers ary
Ġre new
um in
el se
us cript
ĠL ic
A cc
Ġoppos ition
Ġth in
pr ise
% ,
Ġpost ed
Ġstand ing
ĠO s
ĠD ark
ĠJ er
Ġsomew hat
A g
ic ians
Ġm es
ĠT ennessee
ĠK han
Ġse vent
Ġre named
Ġen able
Ġk in
ann er
Ġlink ed
Ġcon secutive
edd ing
par agraph
ĠH om
Ġhy brid
un s
ĠCh annel
Ã º
ab et
z o
ĠLe on
Ġhypot hesis
Ġrac ing
Ġent ries
and y
[ -
c raft
param eter
ĠDon ald
Ġemer gency
ur ations
Ġad ult
Ġpar liament
bra ce
v art
Ø §
ĠC ab
d oor
Ġmov es
Ġd ry
ĠPhilipp ines
N C
form ed
193 1
U nder
Ġprot ocol
ĠMary land
ra ined
atur ally
Ġcan onical
Ġcrow d
c lear
Ġconn ections
ta ch
Ġengine er
Ġb ran
g reen
ĠJ am
Comm and
Ġt ack
D D
Ġr ational
Dav id
Ġre cept
ĠJew s
par ison
im ation
Ġplatform s
ĠK a
C ase
Ġscen es
qu es
Ġsupp osed
Ġweap ons
H er
Ġb undle
rop olitan
Ġlum inos
ã Ĥ
he ta
form at
Bl ock
im g
Ġpl as
l arge
ĠM un
Ġvis ited
es ign
à ¥
ĠT el
Ġterm in
Ġder ive
ĠAr thur
ĠDis ney
ĠB ab
ren cy
ĠCast le
Ġgeneral ized
og y
Ġoff set
Ġprodu cing
12 5
eg er
ound ed
Ġsign s
Ġsk y
az a
ĠL iter
ĠC ook
ĠB ishop
I ST
es ian
Ġexc ited
reg ular
ĠInst ead
M T
ĠB rian
ĠJ ordan
Ġfil ed
Ġnon linear
][ ]{
ic ide
ĠD om
Cont ent
Ġgener ic
w all
ĠMal ays
Ġg ate
id ge
Ġadj acent
om ot
Ġfind ings
. /
ili ar
ir ation
ĠV ideo
un ing
Ġequ ality
L ong
A nt
Ġsee k
ĠM as
ĠSer b
Ġs leep
| }{
Ġconserv ation
19 27
/ (
Ġcustom er
point s
B E
ĠP ier
Ġf old
W E
head er
ĠD ue
t iny
Ġcomb at
Ġc ro
ĠCol on
red it
Ġopp osed
ĠM it
t ree
] {\
ee k
}} ^{\
Ġweek end
19 24
ge bras
H igh
Ġshoot ing
19 22
ĠConn ect
ĠMod ern
ic ate
Pro of
D irect
V is
ure au
G R
ĠSen ior
ĠA I
ĠA ge
Ġcru cial
ffic ial
ut ed
Ġcrit eria
Ch ild
Ġenc ounter
Ġpar ish
oc racy
igen ous
Cons ider
in cess
ĠF ront
Ġtop ological
Ġtalk ing
ist ant
G en
St atus
Ġcomput ational
ĠRes p
Ġunivers e
Ġimmedi ate
Ġmod er
ĠHigh way
ĠBuild ing
ro sc
ĠD or
ĠI mm
Ġdist ricts
r ish
Ġcur vature
Ġst ret
ĠPh ot
Ġsens itive
mer ce
ĠT ony
c ard
ram ework
Ġcap able
}} }\
ĠS che
ĠDe ath
Ġdr ivers
ĠB an
Ġcl ients
Ġprop ose
f ind
Ġle ct
Ġbring ing
Ġdr iven
in ch
Ġr ugby
ĠViet nam
Ġquant ity
ĠAN D
ĠB at
H ence
os ph
Ġtechn ologies
Ġtop ic
S ty
G iven
ĠD NA
app end
Che ck
av irus
ĠAm ong
Ġcompos er
ĠC art
ĠPal est
ak s
wit zer
Ġaccom pl
Ġext reme
ari os
Ġro yal
Ġapp rec
Ġs urn
Ġeduc ational
R R
m ake
ĠM S
ib ilities
col n
B undle
19 21
Ġconvert ed
it ations
Ġphot on
Ġinvol ves
Ġpain ting
C ell
is ition
Ġm ask
Ġsk in
st an
Ġcre ative
ĠS ound
ĠS quad
Ġasympt otic
ĠH ouston
f rame
L i
ĠAss oci
u ction
al gorithm
12 8
w estern
ĠJun ior
rehens ive
Ġevalu ated
Ġre nt
ru ption
Ġpriv acy
ĠF ederation
script size
ou ch
ĠL ore
pr ivate
amb ig
ro ke
l ook
Ġeas ier
Ġcirc uit
[ "
p ur
Ġpres ents
Ġcharacter ized
ĠS n
ĠS P
o is
Ġin fer
ort ion
ĠAdminist ration
Ġs we
w ich
âĢ ¢
Ġdire ctions
om ent
ten ance
Ġf ly
ĠAl f
19 12
ĠWind ows
iss ue
Ġfeel ing
) }_
d iff
ĠM ap
Ġoper ate
Ġw ire
E uro
Ġe c
Ġdeterm in
B efore
is lation
ĠA ction
Ġbo ost
Ġm al
ut her
Ġst ores
l iving
ĠTown ship
Ġconcern ed
ĠS ix
ĠAr k
op es
Ġvar iance
Ġvac uum
Ġmagn et
Hand ler
witzer land
ĠCh all
ab ama
ĠB arn
ĠI owa
ar on
ow ski
Ġre tail
inem a
ĠA L
serv ice
J apan
Ġs now
Ġst ead
ĠR eb
ĠM L
J ust
Ġexhib ition
Ġrestrict ed
Lem ma
ĠG iven
olog ists
Ġfac ilit
A ug
li x
Ġmult ip
Ġ ,\
ĠD ream
Ġpil ot
Ġstri ke
s rc
ĠU se
ĠP rom
Ġthe atre
ĠR yan
fl oat
sl ash
Ð º
ĠHe art
Ġl it
ĠI T
ĠM oon
Ġsepar ation
lay out
M c
Ġsym pt
Ġadv ice
a ire
at iv
af e
ill ery
ub ble
Ġra in
ch ain
et ing
u able
Ġdynam ical
iss on
Ġrestaur ant
Ġcan cell
Ġin clusion
Ġdivers e
Ġv eter
N orth
Ġexpress ions
Ġpop ulations
Bi ography
}} =
19 26
Ġis omorphism
T oken
Sec ond
T em
Ġch apter
Ġlic ense
Ġf ont
Ġfav our
Ġf aced
Ġkill ing
b p
c oll
19 25
ress ive
Ġeven ing
c ers
Ġpass es
Ġsent ence
Ġperman ent
A U
Ġrespect ive
ro it
Ġnot ion
Ġrem ote
bm atrix
Ġmov ies
d esc
Ġbro ke
Ġsur faces
Ġf at
ĠM unic
ĠM oscow
Ġstat ements
Ġcl ick
D Y
Ġdomin ant
ĠB urn
ÃŃ a
ĠMex ican
ĠT erm
ate ver
ĠReg ional
Ġc aught
ĠC ov
ĠSim on
Ġrecover y
Ġl ift
Ġcaus ing
O ct
r ins
ov es
Ġg ather
m al
Ġind ependence
i Ã³n
ĠT en
pl ot
\ }\
Ġro of
Ġelect ro
Ġcorre ction
f ull
ĠMan chester
ĠU l
ĠOn line
}_{ -
} |\
: =\
ĠF ull
Ġunder stood
ul us
ag an
Ġs ail
Ġtro ub
ĠS ri
Ġknow s
} ~
p res
ad ata
19 23
ĠW olf
Ġembedd ing
Will iam
Ġst opped
L ife
ĠN orm
Ġsim plic
Ġpotential ly
ar o
St at
ĠR oy
ir ical
en ame
Ġrapid ly
Ġbo olean
ĠK y
iction ary
ag u
Ġrespons ibility
t i
AM E
E ach
Ġun f
Ġste el
O lymp
ĠGe V
Ġassist ance
ess ions
Ġmanag ers
ad ers
cl osed
n old
Ġcontribut ed
ic ious
ĠKent ucky
Ġreg ul
Ġsubject s
Ġc ash
Ġbur ied
ĠS quare
Ġmess ages
pro b
ĠE P
ĠG ib
Ġpropos al
em i
m eta
Ġs udden
ĠJ ane
v als
Ġman age
ER T
Ġb ond
Ġre aching
Ġm eta
Ġv eg
han ced
Ġsub sc
> \
oc y
empt y
Ġdesign ated
p et
ĠN ig
Ġpost er
Ġanal ys
Ġsche dule
Ġv irt
ĠMe an
opy right
Ġwor st
Song s
Ġcou pled
Bl ack
erv ation
Ġparticip ate
w ick
ĠS oc
F M
St ud
ĠR ose
Ġvari ations
nav bar
P res
on avirus
Ġe le
R ad
Ġd ense
eng ths
Ġexp osure
St ar
f ast
Ġaccom mod
Ġexec ution
ant e
ĠMel bourne
ĠT an
ug in
Ġprodu ces
N O
ĠChe m
lo op
Ġsp end
Ð »
d am
ĠG re
? "
Ġv ocal
Ġl ists
( [
Ġa f
M ich
Ġch ose
ĠCons ider
vart heta
Ġapproxim ate
et ry
put ation
we alth
og g
Ġdom inated
Ġph ases
Ġcorre ctions
z ing
Ġrelig ion
Ġassum ing
OR T
fig ures
ĠHot el
Ã¼ r
Ġs ought
Ġprem ier
Ã© s
Ġscient ists
Ġreason able
ĠDe ad
e lement
oy d
l ie
ag h
ual ity
ific ial
ĠB ah
Ġc ards
ah oma
Ġautom atically
A f
ĠH as
Ġloss es
Ġpre ced
ĠBase ball
ĠSo ft
Ġinvestig ated
Ġsp eaking
Ġred shift
Ġdis put
ik h
ax is
Ġd ates
aw are
ĠA T
Ġdec or
Ġin hib
gh an
M ain
Ġre venue
S H
gl as
Ġsign ature
Ġm ob
rac ks
ĠH ur
Ġfluct uations
rang ian
Ġcolumn s
ĠNor way
ĠHol y
\ }$,
v s
Ġheav ily
Ġprom pt
ant um
Ġhe aring
Ġre nd
ĠV eg
ĠD E
Ġn ut
ĠDi ego
Ġw at
form er
a ired
ĠE vent
Ġ$ ,
Ġinter mediate
inst ein
Ġcho ices
Ġt argets
Ġgood s
ĠR ight
âĢ ī
form ing
Ġcol ors
Ġ" ""
ĠV ice
Ġro ots
Ġch airman
A wards
og onal
Ġprof iles
Ġre ward
Ġincreasing ly
st s
Ġto wer
up date
19 16
ĠCo oper
Ar ch
Ġattempt ed
Ġperiod s
L eg
Ġsup ers
Ġgener ating
Ġillust rated
Ġatt ached
ĠF ellow
maz ing
ens is
+ (
& =\
ĠSil ver
ĠTok yo
rep rene
ĠMicro soft
00 1
Ġdet ector
ĠSt one
inc ial
u j
Ġne ither
ĠC R
is en
ĠB alt
cont rol
ire ction
P RO
ous es
19 15
ĠG P
Ġre in
Ġphot os
ĠFred er
Ġcould n
g ment
id al
Ġredu ces
Ġthrow s
s ince
ĠN ev
ĠRepresent atives
Ġn ice
ĠR oll
Ġdesign s
achel or
L ocal
Ġconvent ional
ĠP ay
er on
sl ant
Ġon going
ĠPl ace
Can adian
es is
og ram
ry pt
p y
m t
Ġsix th
ta h
el ve
Ġsp ac
roll ed
ĠHol lywood
}$ }
u cl
Ġh its
Ġis ot
Ġ ri
duc ible
w as
K E
^{ (\
Ġbr ings
f ol
Ġarg ued
onym ous
im ages
Al so
Ġsh op
Ġass ets
7 00
Ġenem y
Ġsch ol
comm on
ĠG ab
\% $
st at
column width
Ġvill ages
et ary
Ġm ales
Ġshe l
Ġjo ining
Ġl ose
H on
Ġrev olution
Ġtra ins
Ġdiscover y
Ġv o
ee per
M O
kl ahoma
b urn
m ode
ĠI P
Ġadapt ed
ov ing
ĠHig gs
ĠAg ency
tikz picture
Ġst uff
Ġcour ses
Ġl es
B el
ib ration
ĠPat rick
ĠJes us
ys elf
Ġset up
ĠCon stitution
Ġm it
ĠAl bert
Ġtru ly
Ġcomp ens
Ġout come
cul es
Ġbrother s
ĠAll en
ĠC ape
V ideo
ĠMar c
g i
Ġm ir
enn y
ash i
Ġoccup ied
ĠE mer
ys ical
f ef
Ġequival ence
ĠR ey
Ġmechan isms
X X
Ġeigen values
Ġel im
ĠM iami
l an
Ġm il
ed u
ĠB os
Ġtr igger
ic ut
neg ative
Ġpercent age
ĠF all
Ġstudy ing
Ġpan els
ĠE dition
Ġport ray
ol o
con duct
ĠSt art
Ġj un
Ġbo at
Ġf ranch
Ġde pos
el son
at he
Ġth read
Ġwa iting
ast s
on i
Ġexper ts
12 3
F S
Ġdep ict
A E
Ġmay be
Ġsimultane ously
T ag
ĠV o
Ġoff ices
Ġinst ant
ĠMo ore
s d
Ġstrong er
Ġh ierarch
Ġrequire ment
Ġteacher s
ĠSy m
fef efe
Ġpresident ial
Ġatt orney
Ġst im
ra ce
. \\
F ilm
U I
ĠAnth ony
Ġqu asi
ĠP ack
Ġst ochastic
Ġnom inated
Ġseem ed
AR T
L oad
Ġneigh bour
Ġtra v
19 13
ut ies
O rig
Ġh un
pro duct
Ġcross ing
Ġ urg
ĠEconom ic
Ġold est
ver age
ĠP S
Ġchalleng ing
Ġregard ed
Ġb anks
Ġexpl os
ĠN ULL
P age
d epend
Ġstar ring
ĠL ank
Ġair port
ĠC ulture
Ī Ĵ
ĠHar ris
Ġt ang
iv a
ii i
Ġread ers
Ġsens itivity
Ġprom otion
Ġbo ys
ĠP a
Ġlaw yer
Ġs elling
ĠS witzerland
ĠC hen
ol y
Ġyour self
Ġsupp ose
Ġin ternet
Ġref used
ownt own
r ase
Le ft
Ġ[- ]
Ġcapt ain
Ġupd ates
ĠAl abama
Olymp ic
Ġag encies
ĠMon te
l ights
Ġw arn
Ġdeb ate
m aster
ĠCol lection
Ġleg end
ĠG ard
Ġ+ =
Ġfound ation
ĠHow ard
à ¸
ĠIsrael i
Ġne uro
p ush
y ers
rep resent
ene z
Ab out
Ġmaintain ed
ĠTh ird
ĠC atal
Ġmedal ists
Ġv ulner
iment al
Inst ance
Ġc raft
Ġcrit ics
Ġbound aries
More over
T ax
ur is
w hen
ac le
Ġt rib
d est
Supp ose
Ġclass ified
ð Ł
M any
Ġs oci
ĠDo ctor
IN T
Ġins urance
ĠT reat
p ed
Ġrad i
ĠJ os
w ave
ues e
ĠGree ce
^* \
y cl
. '
& -
ĠB ox
Ġco aches
ict ional
ĠD un
ĠAddition ally
th rough
s quare
ĠB or
ĠD ate
k ov
Ġ( (
ĠIslam ic
Ġmed icine
Ġproport ional
ĠI l
Ġhundred s
f ront
x ml
19 11
Ġo x
ĠJ ay
Ġman uscript
y stem
gress ive
ĠB ry
Ġreport ing
ĠD aily
ĠStand ard
Ġeng aged
Ġ à¤
ort heast
in th
ĠÂ »
Ġdis pl
int end
Ġinv ited
Ġan om
ĠM C
ĉĉĉĉ ĉĉĉĉ
Ġconf irm
Ġsur ve
o a
ĠK itt
Ġsy mp
ĠLin coln
ĠH u
over y
Ġmanufact uring
l ad
ĠEx pl
an ia
ĠCap ital
ĠK evin
ĠP ed
$- $
E very
Ġag ed
m ont
} );
ĠE s
Ġlist en
Ġd a
ĠN ich
Ġinst ances
ĠL as
ot on
ap el
Ph il
Ġt all
f amily
Ġredu cing
fin ite
Ġpoint ed
st atus
Ġsound s
Ġd x
is ot
B en
ĠP ut
Ġsim ilarly
ĠN ative
Ġinfl ation
Ġident ification
Ġeduc ated
J u
Ġfact ory
Ġent itled
Ġleg islation
Ġb ronze
Ġisol ated
asc ript
ĠAl ber
ĠE c
d em
ĠI R
not ag
multi row
ĠY outh
Ġg iant
X i
sub sec
Ġinj ured
bold math
ob j
ĠM and
Ġgun s
Ġcomplet ion
rid ges
Ġview ed
Ġprec ise
ub er
Post ed
ug ar
Ġte en
viron ments
ynam ics
aw ay
ĠM ath
Ġqual ified
E p
ĠBar on
Ġtop ics
arg o
( -\
ear ing
Ġsystem atic
ĠCont in
Ġch air
Ġd iversity
ĠSystem s
ĠS port
ef ined
v y
Ġsu it
v ia
Ġsurg ery
ĠQueens land
Ġdi plom
ĠH ans
ubl in
Ġm m
ipp i
Ġin her
ĠA ccess
est ed
Ġk il
Ġex ercise
or ous
ĠH T
Ġpers ons
all as
U K
\ |\
p red
Ġn aturally
ist a
Ġt um
13 0
Ġm ine
Ġbatter y
ĠN av
ch ant
Ġl ake
ff ee
Ġshort ly
Tr ue
H om
Ġmodel ing
ĠB iden
ĠG ram
od a
math it
ĠWh it
)-- (
ĠB ureau
i at
Ġacc used
Ġso il
Ġgeomet ric
ĠMr s
Ġconclud ed
w ill
Ġim possible
ut ely
We b
Ġconstit ution
H P
Ġsp ending
Ġgu ess
Ġaff ord
ane ous
rel ation
Ġrecomm ended
Ġhoriz ontal
k g
ĠSc ient
ĠHaw ai
ĠS O
Ġcent ers
B ibliography
Ġassess ment
Ġded u
yn asty
ra ys
In it
sp ecial
n ie
ou stic
ar ith
Ġd uration
ES S
ĠB eng
ymmet ric
ĠG all
ar ry
Ġexp ensive
Ġex port
text up
ĠF uture
Ġf aces
Ġret irement
d rop
Ġformer ly
Ġaccess ible
w ho
Ġd ashed
Ġvisit ors
Ġab use
De ath
Ġpart ially
Ġm outh
ĠF a
ĠAust ria
Ġare n
ĠW y
n n
Ġgrav itational
Ġr ating
N ull
Ġc odes
Ġluminos ity
Ġsett led
Ġde leg
co in
ĠCol omb
Ġpresent ation
Ġs ight
uer to
sh ot
script scriptstyle
at ar
ĠMat thew
ĠC ond
op le
Ġwe ar
Ġrepl acing
il st
Ġhead quarters
ĠD omin
Ġdiscuss ions
ĠTra ining
par allel
Ġ$\ {\
ĠLab our
Ġf olk
eb ug
ĠAP I
ĠMar ine
param s
Ġ es
ĠI mp
j u
Ġdrug s
ĠChe ck
J o
190 8
i ot
Ġrestrict ions
ĠVill age
D own
um ps
j pg
ens ing
RE F
}\ |
Ġland scape
s is
Equ al
ard o
) ^\
ĠG a
Ġb rown
Ġequ ipped
Ġphot ograph
ject ive
ann ot
Ġse es
Ġorient ation
Ġf alls
Ġ ..
ĠS N
Ġinflu enced
l ades
Ġattack ed
z i
od s
onom y
V ol
us al
ĠR ub
equ ations
G S
Ġhard ware
Ġreconst ruction
Ġb irds
Ġvary ing
pl us
ĠHer itage
Ġpay ment
Ġwas te
Ġperiod ic
b es
Ġsub sid
Ġvictim s
Ġprec ision
Ġout comes
) })
Ġdec ide
G M
AC K
Ġly rics
Ġf ruit
j son
Ġpublic ations
um ption
le e
ĠAn ne
G P
Î ±
Ġl aid
Ġass ault
Ġv oted
Ġw avel
D O
Ġad ults
Pre vious
Ġs ons
ĠO ak
Ġliter ary
ĠF arm
Ġmetric s
spec ific
ĠCh ile
Ġvacc ine
G O
phant om
ĠO R
Ġmay or
Ġscen arios
Ġs oul
B uffer
) [
Ġregular ly
Ġfrequ encies
Ġg rade
S ON
Ġcon crete
com plete
cor ollary
Ġpolar ization
= .
Ġmembers hip
ubl ished
ri ers
Ġcorpor ate
Ġr u
s uper
Sport speople
T O
ĠE arly
ed ition
Ġstre ets
Or der
B P
stack rel
Ġreve als
Ġcomplic ated
Ġentertain ment
h ave
ĠE ag
Ġcarry ing
Ġind ices
Ġdisplay ed
Ġp itch
Ġexpl ains
ĠDef ense
S ign
ĠN ik
Ġperturb ation
er g
Ġa cknowled
V ersion
ĠOb ama
ific ate
Ġpass ion
and o
ig ious
~ (\
ĠL ook
M arch
Ġasp ect
Ġinv ent
ĠT ext
Ġsol ving
- (
AL L
ter y
Ġcomm ander
Ġf ought
ot te
Ġdef ines
G r
L ay
Ġthe rapy
i ac
ĠS ep
Ġtem ple
r ator
Ġreal ized
Ġcompet itive
Ġm art
ĠE ff
ocr atic
ĠW atch
re ement
ĠT O
Ġstraight forward
Ġinf ection
Ġdescrib ing
ct ic
ĠF A
ĠV in
Ġatmosp here
Ġsee king
al ed
Ġwatch ing
Ġl i
ĠTe ch
is ode
Ġdeg ener
Ġdrum s
w en
sh ort
Def ault
S ources
ram a
Ġtal ent
Ġstrict ly
Ġhead s
el lect
Ġpenal ty
Ġturn ing
ĠBr un
is ations
Ġgradu ate
ĠF ame
g ame
t or
Ġa er
Ge ography
ol ly
Ġm yself
ĠRober ts
Ġsit uations
ĠTurk ish
ish ment
ĠTai wan
AN D
Sty le
ri k
Ġf iber
Ġconfig urations
Ġser ial
et ric
O ptions
Ġdou bt
pro fit
che ll
resp onse
Ġwor se
ĠFor ces
Ġ _{\
Ġch arts
ĠE ver
Ġpubl isher
Ġpoet ry
Ġabs orption
Ġh a
ĠTh ough
g rade
ĠK am
Ġel imin
Ġarr ival
25 6
Pop ulated
Austral ian
el and
T ask
Ġfam iliar
Ġbelong s
ate ur
ĠG L
ĠD ick
l u
ĠN atural
Ġcompet e
St ep
Ġab stract
Re v
Ġcerem ony
Ġun us
iss ippi
Ġv ast
ĠR ab
GB T
ol id
Ġconj ug
Ġmusic ian
Ġver ify
ĠĠĠĠĠĠĠĠ ĠĠĠĠĊ
Ġderiv atives
Ġdirect ors
Ġproper ly
Ġacc ret
ĠP A
ĠRec ord
Ġstruct ural
H D
Ġe at
Cont roller
m em
our se
ĠC E
ĠR ound
id ance
Ġent ity
s a
idel ines
An y
L ocation
Ġp uls
M E
Ġ{ };
Ġaccom pan
! \
Fil ter
Ġsucceed ed
Ġat oms
ĠTe levision
ĠE X
P an
Ġreplace ment
Ġad vers
Ġappear ing
r in
Ġfac ing
ograph ical
ĠL ang
ĠG ordon
! "
Q ue
in ian
back slash
Ġh am
Ġw ww
ĠWal ter
Ġel ig
.& .&
ĠN umber
Ġmat ters
Ġexhib it
refer ence
m atch
ĠO klahoma
Ġsy nd
st e
Ġgener ator
Ġd rag
T im
Ġro oms
ab ad
U C
Ġtrad ing
Ġpre gn
st ery
ploy ment
ist ence
Ġelect rons
ĠD al
Ġsignific ance
ĠNor wegian
ie val
her ical
S u
ouns el
Ġuniform ly
Ġincorpor ated
pl an
ĠRes ults
st ud
k ind
ĠWalk er
amp s
ĠD ak
{ |
ĠD ur
Ġread s
ol ving
Ġb id
Ġsche mes
ĠB ush
Ġroad s
ĠTem ple
Ġh alo
Ġst adium
Ġmet all
Ġw ine
Ġdiam eter
ä ¸
Ġcl imb
Ġd ress
Ġsit uated
ov ak
com b
ĠC ow
rom agnetic
el ian
t ed
S ym
aw s
ĠD a
ĠF ile
tain ed
Ġc ub
| ^{
ĠG arden
ĠUk rainian
Ġst ored
\! \
ĠR ic
ĠExp ress
ss on
ĠAuthor ity
^* (
Ġf itting
Ġacc ord
V er
ph ase
Ġst ood
Ġc yl
Ġamount s
Ġass embly
fil ter
$. }
ĠD M
Ġdom ains
it udes
ĠMot or
S k
Se lect
Ġgu y
ann y
sh ould
) ).
Ġindic ating
Ġform ulation
sy mmet
ĠCl in
ĠSpace watch
ĠH amp
ĠSim ilarly
Ġconsum ption
ĠEm peror
Ġd uty
ab ric
ĠPh ill
ĠL ev
is p
ra ble
V I
ĠM D
op ter
G E
it ter
Ġcent uries
Ġus age
Ġalgebra ic
Ġw aters
Ġp ray
Ġt on
ĠConnect icut
Ġprinc iples
! ]
Ġmin ing
Pro t
Ġob lig
Ġmonitor ing
Ġtrans action
R ober
ĉ Ġ
Ġent rance
Ġl oved
_{ +
f ire
Å «
Ġh ospit
Ġapplic able
ĠLa ure
m outh
iv acy
Ġnormal ized
F actory
Ġwhe el
Ġj azz
ors es
ser ver
Ġ( ),
Ġkn ock
coh ol
ambig uation
Ġcol le
h fill
Ġproced ures
ur ers
)} (\
.... ....
Ġgrow n
F P
ĠI ss
ap olis
ent ity
ĠAf ghan
Att ribute
rins ic
az e
Ġd ies
Ġsympt oms
f all
ig e
Ġfl o
Ġh ist
ĠW here
est ion
Ġtrans verse
ĠL ink
li est
Ġman ip
ĠR ow
&= &\
st d
ĠMc K
ĠNC AA
Ġdefin itions
re tt
al ia
Ġvari ant
Ġinc red
Ġqu ot
ĠR equ
Ġcomp rehensive
Ġsubstant ial
ĠK er
ann e
ĠBow l
ĠSing h
ĠArm en
D esc
A ng
tt p
! âĢĿ
u h
let ed
Ġint ent
ĠS in
q l
Ġre vers
Ġf lying
Ġadapt ation
Ġquadr atic
' ).
Ġp ione
Ġexecut ed
ĠL yn
ĠSt ew
Ġdanger ous
er ion
yth on
Ġexplan ation
inv ariant
Ġabs orb
Ġcom ic
Ġcons umer
Ġpost s
ĠAtl anta
ĠM i
Ġocc as
ĠD ave
ura ble
Ġfact s
ĠR ick
ĠT rade
Cre ate
ĠL am
Ġvol t
ĠAn alysis
Ġen vironments
est yle
Ġsp oke
Q L
it ro
over ty
ĠB uck
Ġord inary
Ġput ting
Ġsatell ite
Ġform ally
Ġdis miss
ĠSw iss
Ġinst rum
k ern
text color
con tainer
Ġinstrum ents
ĠF ourier
Ġ }}
u on
it is
Ġgr ass
Ġfe els
end ment
ject ure
o i
iam ond
Ġaim s
T T
ĠH old
oc ese
Ġr ival
Ġk it
Jan uary
Ġt ank
ĠK elly
Ġestablish ment
BA G
ail and
D el
14 0
Ġre plic
Ġ\ ,\
Ġsc r
v as
Ġmiss ed
ut ing
ĠLem mon
iem ann
ĠDemocr ats
ug s
Ġuncertain ties
ug u
uk i
ĠAnton io
av i
Ġdist ances
d ale
Ġb ath
ĠA S
jav ascript
or ient
ĠH erm
W A
sh op
b ed
Ġn an
ĠT rad
Ġsp here
Ġexpect ation
Ġs occer
ĠF le
ang ers
cy cl
ĠV ari
Ġdecre ases
h us
Ġb aby
Ġb inding
be an
Ġmechan ical
pt r
190 5
v ity
ex per
Ġv oting
N E
back s
ch t
Ġsh arp
D en
g ather
L R
Euro pe
am ents
ĠB us
ĠO tt
hip s
Ġplas ma
U pdate
iv ation
ack s
im ore
Ġconsider ation
im p
ĠDet roit
ĠA le
ĠAd vent
aud i
ĠStud y
ĠF M
Ġbas eline
ĠEar l
Ġde viation
men u
ĠAg ric
is ks
oc a
Ġref uge
or ro
ĠP ur
Ġst abil
Ġrestrict ion
Ġcompat ible
itect ure
P aul
Ġour s
ĠRes erve
Ġtri es
cl ip
F eb
ĠT H
ĠArgent ina
ĠT it
Ġkey board
ĉ ĠĠĠ
Ã© t
b ad
Ġtop ology
Ġtransl ated
Ġc ir
Ġb ars
Ġmod ules
ers et
leg es
ĠSupp ose
ĠK it
Ġpain ter
ter ior
Ġf ul
t im
Ġmain tenance
Ġdens ities
Ġtri als
ĠP as
A ccess
Ġinv asion
ol ph
th an
Ġhom ogeneous
ĠSar ah
Ġconcept s
Ġres erve
Ġanc est
1 15
ĠInd ependent
field s
om as
ĠH ockey
Ġdiff usion
Ġaband oned
ĠDou glas
Ġra w
ĠStr ateg
ĠBo ys
R ail
Ind ian
on na
ĠR ace
18 90
ac cess
l arg
Ġan not
AB LE
ĠK l
ĠG R
Ġ( ,
Ġcompet itions
Ġcoll ision
ĠN ag
Ġre jected
10 5
Ġl aser
me an
E ducation
Ġfound ing
Ġwind ows
s ite
& &\
ĠAl bum
ĠR y
ĠC urrent
ĠMay or
Pl ot
ĠIndones ia
ĠS E
iz able
h s
Ġhost s
Ġtempor al
Ġr ide
ol ation
ĠN ob
sy m
Ġsymbol s
DY BAG
Ġhoriz on
Ġask ing
@ {
ĠInf antry
ĠS el
Ġanaly tic
Ġconcer ning
ĠYear s
xy gen
D et
Ġslow ly
ĠB ou
un ity
Ġanaly ze
Ġadvert ising
ili ary
| $
p erson
Ġinvest ors
out put
ĠN OT
com put
Ġapp lies
ĠC ON
ĠK az
190 9
Ġr uled
Ġtouch down
ar ation
ĠCh ampions
ĠN ame
A pril
Ġpass enger
Ġb on
Ġhistor ian
Ġexp osed
ud a
Ġindependent ly
level and
Ġf ee
ac on
f ly
) (\
in burgh
Ġveg et
Ġtra il
Ġappro val
Ġ$ ^{
ather ine
Ġneutr ino
190 7
ob serv
ph an
ĠH ills
O h
ativ istic
ed ing
d ocument
ĠCro at
Ġhealth y
k it
r ates
Ġs in
ĠD VD
ĠĠĠĠĠĠĠĠĠĠĠĠĠĠĠĠĠĠĠĠĠĠĠĠĠĠĠĠĠĠĠĠ ĠĠĠĠĠĠĠĠĠĠĠĠĠĠĠĠĠĠĠĠĠĠĠĠĠĠĠĠĠĠĠĠ
f ather
Ġdraw ing
ĠB uff
ĠAl b
off set
qu ir
Ġinhab it
ol ves
ot ten
Sc ript
Ä «
ex ists
Ġbrand s
Ġsp an
i est
ator ial
Ġconven ient
Ġil legal
}{ *
Ġoper a
oid s
ĠCon c
Ġiter ation
Ġtrans itions
mod al
class es
art icle
od ox
her ic
But ton
B ecause
1 12
Ġconsist ed
ĠSquad ron
Ġwould n
ĠK o
Ġclos ure
{ (\
B orn
ĠAd v
Ġadm itted
ĠPortug al
Ġmer ged
Aug ust
J une
w ords
st ers
b efore
end a
M us
Ġt ennis
ĠY e
Ġlog ic
Ġme ets
ve ct
ig ate
Ġch a
oun ced
Ġwrit es
) "
om p
Ġst ick
Ġeng ines
ĠF ern
ĠUn it
Ġcut s
Ġhol es
Ġp ictures
Ġwill ing
ĠA C
Ġch urches
Ġphil osophy
ĠMor gan
ĠB ull
Te levision
Ġens emble
Ġform ing
ĠC op
ĠP ear
down arrow
Ġcompar able
ok ing
Ġcircum stances
pl ings
Ġemploy ment
Ġacc um
* /
Ġcl ock
I B
Ġ< !--
190 6
S an
R ich
ĠD at
ĠHar vard
Ġacqu isition
ĠF ive
conn ected
Ġto ken
ĠF ri
ĠAb b
dis ambiguation
ĠN aval
Ġconserv ative
: </
function s
Ġinf o
in ces
Ġent ang
ĠPe ace
Ġconn ecting
ĠPro p
Ġcoll apse
ĠM ission
ĠAl ice
M r
J son
Ġprov en
Ġbran ches
am an
ĠE sp
c ription
Ge V
$ ^{
Ġdeb t
Ġneigh b
cre en
Ġpri ze
F ONT
St r
ĠL ib
ruct ed
Ġcollect ive
ĠStud ios
Ġne ur
ĠL anguage
ĠL anc
Ġun iqu
Ġfle et
Ġde put
}$ \
Ġarm ed
writ ten
Ġweek ly
Ġhe ter
Ġvot ers
or ia
ĠP uerto
Ġ( ;
Ġreli able
C ON
h ist
ail ability
ĠOb serv
n ik
Ġan th
Ġcontinu um
Ġtransport ation
Ñ ĥ
Ġg arden
Ġsing ers
ĠDe an
B U
) }.
Ġent ering
$ ^
Ġorth ogonal
ĠAust in
Col umn
ut s
Ġr ising
ĠS R
ist ing
j ar
mult line
M al
se a
ĠN ash
Ġcommission ed
ĠLouis iana
Ġhigh way
oth s
Ġrel ief
comp onent
Ġin aug
H am
ĠMalays ia
Ġ- --
ĠGirl s
ts burgh
ry st
Ġaut hent
b c
ĠC ra
ĠAb d
ĠLim ited
if ting
ĠAnd roid
cl ine
Ġh ired
Ġform ul
ok ed
ĠMiss issippi
i eg
F inal
Ġa ired
Ġval uable
ail s
Ġoff ensive
ren a
ep ing
Ġbe ar
Ġdesign er
Ġro utes
if iers
ĠP rix
ah n
ĠCommon wealth
au ra
Ġfor th
Ġsh r
Ġelement ary
Ġle af
ĠTr ue
ĠNig eria
' _{
n m
P ass
ch anged
Ġorb ital
Ġjun ior
ĠCh airman
o es
ĠLaw rence
Ġparticip ation
Ġpass engers
Ġunivers ities
Ġcr ash
ĠSe attle
Ġ elli
Ġbl ow
D ev
ym n
Ġdef ensive
Form er
ĠBelg ium
W here
ĠFin ancial
em en
ver b
J ames
ĠP lease
ĠHon or
ĠF inn
c ou
ĠE mb
tain s
pl er
Ġchild hood
\| _
g ov
Ġdesc ript
ĠS ud
Ġr anges
ĠVeg as
ĠP ap
Ġb ott
Ġweight ed
Ġp y
Ġen hanced
Ġrespons es
Ġpolynomial s
f n
ĠAll iance
ĠBang lades
Ġst ating
ob by
ĠP ath
Ġg ift
b ul
oc he
app y
ĠW ang
Ġh ur
u is
Ġapparent ly
Ġat omic
Ġsum m
ib l
Ġp ump
cy cle
B N
ĠY ang
Ġirre ducible
ect ure
Ġlik elihood
Ġfranch ise
Ġcontinu ing
Ġconvers ation
Ġdisc ipl
Ġcon vention
ĠMan ager
ĠU tah
ĠPl ayer
Ġf asc
Ġhor ror
r Ã©
Ġinj uries
C am
Ar g
Ġh al
ĠPhil ip
b ow
Ġf itted
ĠSm all
ĠH ug
O p
Ġpro hib
rack et
A v
ibr aries
Ġrank ing
Ġcon version
ĠLag rangian
ol ished
Ġsurn ame
ĠBill board
ĠAl an
st ructure
O K
Val id
Ġbeaut y
du ce
ĠC emetery
Ġdise ases
ĠLear ning
190 4
ĠF erm
Ġsurpr ising
Ġfin ishing
Ġconsum ers
bar a
ĠDen mark
Ġbut ton
Ġcorrel ations
Ġembedd ed
Ġf ired
3 60
Ġland s
ĠH oll
Don ald
ch arge
Ġb are
orig inal
Ġ Ä
Ġcommunic ations
ost ic
Ġ{ }
T ree
Ġt el
c ross
ĠM os
Ġwalk ing
ĠB art
Ġcommit ment
Ġprodu cers
Ġwh atever
Ġassoci ate
Ġdes ire
ĠC ustom
Ġa mazing
ĠS earch
ĠN ic
Ä ĥ
Ġmid field
ĠT ake
ĠO k
) ),
Ġatt ribute
ĠJu an
ĠD ublin
om ing
hold ers
Ġpr on
ĠJ osh
Pro ject
Le vel
ay an
R ow
Ġreg ulations
Ġmeet ings
Ġdistingu ish
Ġstrateg ic
iss ance
ĠS everal
hy thm
ĠMc G
up arrow
11 1
Ġconsequ ences
ĠH um
V M
Ġf ault
ĠF ried
Ġpre v
Ġprefer red
ul um
ĠQue bec
f act
Ġinnov ation
Ġdef ining
Ġpubl ishing
Ġaccompan ied
V ar
Ġin g
Ġann iversary
Ġwhen ever
Ġdecl ine
ĠSam uel
Ġre aches
Ġsp r
Ġhydro gen
pro pto
Ġground s
Ġgreat ly
Ġt ropical
}. }
im its
Ġcl er
att r
ph ony
Ġfor g
ĠL INE
fol io
Ġup coming
Ġpaint ings
Ġcrick et
Ġtot ally
ĠPortug uese
Ġant icip
Ġcomp aring
} /\
Ġextract ed
Ġowners hip
Ġrecover ed
gl obal
ow ed
V ari
ir i
Ġo cean
Ġgen etic
ir ms
ab out
V ill
b ach
B bb
ĠS ite
Ġdef initely
er as
up le
ĠTer rit
Ġres idence
et ition
ut ation
Ġfore cast
ro c
Ġre ign
Ġreg ression
param eters
Ġsec retary
}) ^{
enez uel
re v
ro ot
Ġcounter part
ĠP ho
ĠP sych
ĠOr th
Ġcele b
â Ĥ¬
Ju ly
ĠBul g
Ġcirc ular
D I
text sf
ob i
$\ ,
Ġ\ [
Out put
K e
ĠP ope
Ġimpro vements
Ġconsider able
ĠSec ret
Ġad min
Ġsol ved
Ġcollection s
{ .
Ġsing ing
Ġal ter
f r
ĠW ard
av ia
Ġathlet es
ĠDe ep
Ġn ick
F ootball
ĠT s
ĠM eg
anc ell
ĠP R
ĠSchool s
ĠTh ose
ĠS ac
Ġdisp ersion
B et
ĠOrgan ization
ĠC ole
190 3
S ur
ĠSh ah
ĠP ra
ang el
Ġsurv ival
Ġis lands
Ġdiagram s
ĠT ag
w s
Ġindu ction
Ġe cho
ia h
190 1
ĠInst agram
iver pool
F amily
c ategory
ĠCor ollary
tern oon
Ġher itage
ĠEd inburgh
Ġmov ements
Ġex clusive
Oct ober
S earch
ett ings
Ġrat ios
Ġbe ach
Ġn urs
U L
Ġoper ational
ial og
Ġcre ates
ĠN BA
ĠCL ASS
Ġrandom ly
ass ador
B as
ant on
i op
Ġ{ @
T ransport
Ġf its
< ?
Ġd il
nov ation
ĠTh ailand
small skip
d ensity
ath y
U P
Ġagric ultural
Ġt unnel
Ġin duct
ĠPro cess
y ou
ĠE N
Ġro se
Ġreson ance
m aking
ch annel
Ġch ampions
l on
Ġcons c
Ġarr ive
ĠO d
ĠCh ange
Ġre act
ĠC NN
as m
Ġmet res
M ilitary
Ġtem porary
List ener
Ġmar ine
Ġtransform ations
Ġg ang
ĠT ar
10 2
ĠIm age
Ġstri p
Ġsl ope
ou ver
Rec ord
Ġtal ks
Ã ¥
Ġtem plate
Ġa ug
Ġfocus es
get s
ĠK ings
l ined
Ġoper ates
ĠH ilbert
Not able
Ġed ited
M F
f lix
ul u
Ġround s
Ġc ited
Ġdifficult y
ĠPh oto
Ġdis order
se p
ĠAd ams
ĠWork s
New s
Ġcan cel
en ix
ĠN E
ĠC S
Ġcour ts
ĠE V
ĠD allas
ĠM ort
Ġinput s
Ġresident ial
re nd
place ment
Ġt ied
S am
H y
Ġguarant ee
Ġsub mitted
Ġd ip
ĠT ax
Ġb oot
al ities
Ġrob ot
Mich ael
p rec
ĠM ake
Ġperm ission
Ġbench mark
n ol
ĠBrazil ian
Â ©
. $$
Ġvis iting
h al
ĠAn na
Ġprepar ation
ĠE ss
Ġprep are
ĠB ased
Ġmy th
Add ress
Ġem otional
ĠT R
D at
Ġne arest
Ġast ron
ĠRuss ell
e ast
$\ \
190 2
' ),
}^{ +
Ġenjoy ed
i ere
Ġsim ulated
] ^
ind ependent
ĠLiber al
Ġstr ings
Ġful fill
ol as
st op
Ġimpro ving
ĠS S
Ġtrack ing
Ġtw elve
Ġstrugg le
c p
ĠL A
Ġfew er
erv ing
Form at
p ay
Ġsustain able
ĠN ature
Ġgl ob
1 17
cond ition
3 50
ĠArk ansas
ĠCh apter
Ph oto
ĠT ig
th ick
Ġn ations
s v
alax y
ĠThom pson
Ġpick ed
Ġt y
Ġpublic ly
hold er
Ġimp ly
ill o
ĠAtt orney
Ġrac ial
ĠPal ace
, ...,
d ers
*} [
ĠJ ason
sp in
Ġqu as
le tt
gra duate
ĠJ e
pr im
um ar
Ġut ility
Ġa ux
ĠBet ween
Ġst ake
H A
ĠBatt alion
Ġ url
Ġrecord ings
ĠLic ense
Ġch iral
or us
ĠPro duct
im pl
ĠI ron
Ġmach ines
Ġs itting
ĠW right
Ġval ley
Ġn a
ĠIndust ry
Ġcap abilities
Cl ub
Ġd ating
Ġstead y
bin om
=\ {
M ac
// /
Ġprov ision
ĠN i
% ;
Ġdoll ars
l ower
ĠD ub
ĠSoc orro
et o
Ġsport speople
f ortunately
ĠR ain
van ced
ĠLINE AR
ĠĠĠĠĠĠĠĠĠĠĠĠĠĠĠĠ ĠĠĠĠĠ
n ed
Ġdis establ
Ġadd s
ĠCar ter
ĠM aur
B ur
Ġhead ed
f iles
ĠBru ce
Ġgrow s
sc reen
Ġpl astic
ĠR at
Ġadd ressed
Ġcho osing
ĠHistor ical
re nder
Ġseg ments
ĠF ight
Ġgu idance
M D
Ġre ly
ĠBe at
$ '
ial s
Ġill ness
De cember
st ates
Ġsub space
Ġfram es
ir ates
Ġsimplic ity
ĠA BC
bor ough
Ġnarr ative
m ay
18 80
ĠR an
ymmet ry
ĠPubl ishing
ent er
foot notes
Se ptember
Ġmorph ism
F ull
ĠH ell
ĠDep uty
Ex per
Ġs ending
F lor
ann on
G reen
Ġc od
Ġkind s
s em
cor respond
H R
Ġag es
N P
ĠM agn
Ġprov ider
Ġrec ru
Ġinter vals
Ġanaly zed
Ġte ach
Ġpro ud
Ġt elling
ĠP ract
Ġcount s
ourn ament
Ġhe lic
is ons
et he
Ġwe aring
as a
ĠU V
m oment
Ġvol umes
Ġtrend s
D espite
ater al
lect ic
Ġc av
//////// ////////
Ġf est
rem ove
Ã ´
Ġgener ators
an im
Ac adem
ĠD anish
red ited
ĠChrist opher
Ġsepar ately
Ġconf ront
ĠD J
ey ond
ĠIn s
Ġprote ins
Ġen forcement
Ġp ole
ĠM ars
athe red
$ }}
Ġre con
ĠG un
B D
ĠPr incess
Ġ ur
M ajor
Ġm ilit
st yles
Ġcomp an
Ġrequest ed
ĠStud ents
mod ules
Ġfe as
E ven
Ġbuff er
Ġbi ological
Ġgovern ments
az ines
Big g
Ġint ention
ĠM ess
Equ als
u ity
ĠP eters
fl at
e ch
Ġen ables
Ġf er
ip her
Ð ²
Ġabsol utely
Ġfall ing
Ġstream ing
iv ated
) _{\
Ġnorm ally
Ġsmall est
Ġhealth care
Ġ ~\
ĠH it
Ġtraject ory
Ġr isks
Ġgen re
Ġsuper ior
ĠBe h
Ġaim ed
ĠP un
at ivity
st ore
Ġpopular ity
ucl ide
M I
fin als
Ġrele ases
9 00
elf are
ĠVol ume
Ġman ifest
( &
ĠEd itor
Ġsurpr ise
Ġhon est
ens ively
Ġschol ars
M art
footnotes ize
il ty
ĠD O
th a
Ġturb ul
Ġarg ue
or f
ĠIm perial
set t
CO L
}{ {\
\ },
D an
ĠNew ton
requ ency
ul ator
Ġphenomen on
ĠD ance
th ree
Ġinform ed
Ġs ed
U se
Ġbelie ves
Ġrow s
ĠCamp bell
ĠN ation
Ġgu ys
do i
ro se
part icle
ĠM ind
Ġmark s
st ance
s n
E st
um s
ĠFin land
Ġent reprene
. âĢĻ
ĠN eg
Ġattribut es
_ .
Ġm ile
Ġdest ination
Ġanim ated
k ee
ĠCl inton
Ġm ail
resp ect
ĠW as
ĠSch olar
ĠM es
Ġre verse
ĠC rit
Ġferm ion
ĠM O
iz z
m el
or er
left arrow
B H
he astern
Ġdeal ing
ĠF el
ĠKenn edy
Ġbig ger
ĠN elson
end if
Ġrequ ests
10 4
cent ral
inst ance
Ġear liest
e a
ĠWe bsite
Ġexam ine
Ġmathemat ical
ĠV ik
Ġthous and
Ġre putation
Ġcl ar
Ġremain der
Lay out
Ġmin i
Ġleg isl
Ġabund ance
ĠN eed
ort ex
ic he
ser ies
Ġr id
and al
ER R
Ġm o
L ength
Ġst ruck
V P
ch ing
Ġinvol ve
Ġto x
ĠBl ock
t own
ĠH orn
Ġf urn
25 5
anc ouver
Ġmill ions
Ġang les
D L
13 5
Ġelect rical
rec ord
Nov ember
ĠStew art
ĠPat ri
Ġarrang ed
A uthor
Ġo xygen
Ġfem in
m illion
Ġc up
Ġsens or
Ġhol iday
W S
h ai
ĠL ane
Ph one
\ }.
Ġ* *
K S
Ġex it
ĠPro du
Ġunder t
Ġposter ior
ĠN eb
Ġbelong ing
supp ort
Ġmole cules
ĠH ind
Ġinterpret ed
ateg ories
ĠJ ava
new s
Ġfair ly
Ġfrag ment
ĠRes ources
g ate
ab olic
Ġreal istic
Ġste am
ĠDel hi
Ġcritic ism
Ġ ),
ĠPh D
P al
d ash
itar ian
appro xim
bet ween
) }$.
ĠF ro
ĠĠĠĠĠĠĠĠĠĠĠĠĠĠĠĠ ĠĠĠĠ
Ġterm inal
AC T
Ġfrequ ent
he rence
Ġbeh alf
10 3
m ag
Ġob j
Ġconv olution
ĠF isher
ĠKn ight
Ġ ic
ĠFreder ick
j k
Ġwith draw
ĠAl gorithm
Ġequ ally
omin ations
ot ions
Ġcool ing
Ġvolt age
Ġsign ing
Ġh at
ist ically
ĠĠ čĊ
ĠInd ex
uclide an
} >
ĠC leveland
ĠBrig ade
win ning
en z
ĠIn sp
Ġd t
C I
ĠOr chestra
Ġc rown
roph y
ĠComm ander
im ir
ĠW oman
ĠB eck
ĠH REF
j amin
b ridge
Ġcondition al
ĠSen ator
d ict
Ġd ict
Ġjud ges
Ġcorrespond ence
Ġs essions
Ġh ill
Ġdis contin
Ġactiv ation
Ġback ing
R oman
ĠJ enn
Ġrec re
ĠLie utenant
ĠM embers
l ayer
Ġm emb
Ġattribut ed
ĠP rad
ĠRob inson
Ġqu iet
Ġaware ness
Ġr anging
Ġw ider
Ġtru ck
erv oir
\ /
Ġeth nic
Ġemp irical
og a
ĠP y
ĠG on
m ate
Ġiniti ative
ĠF al
ĠB ed
Ġemploy ee
ha ust
ig m
ĠD ie
B ased
old er
com ment
Ġint ellect
Ġlabel ed
Ġorgan isation
Def inition
he et
ĠPer formance
Ġfriend ly
Ġs av
Ġe g
P ack
Ġsimilar ity
Ad dition
ĠC arn
in du
ce il
Ġcompet ing
ĠZ e
Ġaccret ion
Ġbre ath
l ate
ri el
Ġdep icted
claim ed
vious ly
Ġp overty
ĠAd vis
ming ham
ĠCh amber
O fficial
ĠMain e
b its
Ġoccup ation
Ġs aved
ĠN ap
ĠSt ill
Ġrepresent atives
ĠM aj
let ter
Ġinhabit ants
Th rough
ĠEnvironment al
n est
t ics
re ens
ĠN ep
Ã ł
Ġstation ary
Ġkin etic
Ġdecre asing
Russ ian
ĠTra il
ho le
g on
Ġmag ic
Ġs weet
Sc ott
Ġsurv ive
Ġac oustic
Ġb ag
Ġrestaur ants
Ġte ch
Ġj uris
Ġeng agement
Ġal gebras
var rho
Ġland ing
ĠPart ners
Ġmet ers
ĠLank a
Ġar ise
Ġencou rage
ĠC rown
ĠM other
Ġg ram
R ob
tem plate
Ġjournal ists
âĢĻ .
l at
le ans
ordin ate
Ġart ificial
Ã «
On ce
med ia
Ġunit ary
1 18
ĠF ind
Ġmix ture
F ran
Ġun like
Ġto ler
Ġem issions
h our
ge on
Ġdam aged
Ġh aven
S pe
st rap
) >
ĠH ero
Ġ( @
`` `
Ġexpand ing
ĠL iving
Ġenc oding
ÃŃ n
ĠL ower
ĠY es
Ġspeak er
ĠCent ury
P erson
Ġwe bs
Ġre actions
ass y
ĠMar ie
P G
ĠC ou
L oc
Ġsurv ived
En c
ĠPol y
ĠP ad
âĢĻ ,
ro d
Ġcast le
ĠFin ance
all ing
M ode
lik ely
Further more
ĠRog er
ĠH ad
Ġunus ual
Ġmer ger
N ames
C ache
Ġexc iting
ĠChall enge
ĠCar lo
b oth
;\ ;
Ġdistingu ished
ĠF ather
Ġaver aged
uc lear
Ġpix el
Ġal cohol
Ġgu ests
Ġinvol vement
_{ -\
Con st
ĠCon vention
Ġf ishing
it ure
ĠDak ota
ang o
Ġpres erved
Ġflow ers
ĠTra vel
Ġregard less
d ied
T ypes
ĠC ancer
mon th
Med ia
k t
\, {\
p ers
Ġs us
Ġing red
Ġpro position
ĠL l
ran ean
H istor
ro ck
W ell
10 6
in duced
ĠTe le
Ġst yles
omorph isms
;" |
st age
sh arp
ĠM Ps
ĠCl oud
=" -
Ġd uties
Ġperson ality
Ġpeak s
Ġreg istration
ĠT rib
ĠUnivers e
Ġm ic
s ong
e lection
Ġb ird
ur ities
Ġcook ies
] =
ĠBanglades h
l b
Pro position
Ĩ Ĵ
ĠBl ood
en um
Ġlog arith
R T
Ġim aging
Ġrequ iring
Ġremov al
l oss
Ġres ign
W in
ĠÃ ī
ag ger
Ġsuff ering
end ers
Re ception
Pro p
N L
ĠA qu
Ġcou plings
Ġt ur
le ased
Ġw ra
ov o
Ġsevent h
sp eed
Ġs oph
i ors
Ġlif etime
ĠWel sh
Ġshe et
ĠC ensus
Ġ\ {\
ĠC ore
Ob j
Ġthough ts
Ġins ight
ĠL O
Ġat om
um ed
Ġcosm ological
ĠBalt imore
r ating
b olic
ĠR io
ĠĠĠĠĠĠĠĠĠĠĠĠĠĠĠĠ ĠĠĠĠĠĠĠĠĠĠĠĠĠĠĠĠĠĠĠ
Ġconf ident
f ish
f our
dom ain
Ġfin ance
ĠEq s
sing le
ra ctions
b ai
ĠAr ray
Ġtransform ed
Ġin ference
Ġkey s
Sp ace
Ġcomp lement
Ġwel come
Ġappoint ment
Japan ese
Ġprofession als
k ar
ant i
Ġloc omot
ĠWith out
ĠCommunic ations
Ġcy cles
con v
Ġrece ption
189 8
Ġinter ference
w ig
s ample
Ġprov iders
Ġfarm ers
ĉĉĉĉ ĉĉĉ
d in
ĠStud ent
play er
ĠFrank lin
ev al
Ġfl av
Ġthe ater
m ates
ĠHamp shire
ĠT ak
n ia
ĠAss istant
Ġcontain er
Ġpseud o
Ġaf ternoon
ĠProt ection
ĠN ar
ey er
Ġeigen value
E lect
um ing
ĠStud io
Ġdist urb
onom ous
tr ivial
ĠSp irit
Ġfund ed
an alysis
ĠK an
d ouble
enc er
Ġfl oat
clus ively
18 99
ĠO pp
T ags
á »
Ġfocus ing
ĠMor ris
ĠN O
ĠMet ro
ĠMov ie
reg ion
Ġpull ed
Ġcor onavirus
="../../../../ ../
ĠPolit ical
Ġt ables
w he
ĠL iverpool
Ġch amber
Ġcir cles
Ġwh ilst
ĠJud ge
ĠRepublic ans
ab i
Ġnegot i
e ach
ĠL GBT
ĠPar am
w p
Ġarch ae
ĠPl ant
equ al
Ġemer ging
ĠA y
Ġtri ple
Ġinnov ative
M a
Ġpo em
ĠMarsh all
Ġep och
G ood
typ es
ine ar
ĠElect ric
Ġprof it
requ ire
Rober t
Ġdevelop ers
Ġexpl oration
inc orpor
equ ate
Ġimp ressive
. (\
t re
Ġch ains
Ġal ive
Ġcut ting
ĠI C
B r
ab ul
Ġbreak s
Ġd ogs
Ġch rom
Ġcelebr ated
L o
h ot
Ġactress es
id ity
ĠR iemann
b one
Ġmanag ing
ol ver
ĠDef inition
ĠB it
W ar
Ġintrodu cing
Ġaug ment
pe ople
Ġpl ots
Ġs wit
Ġsu icide
Ġhand ling
Ġas ks
ĠOr leans
^+ $
l m
Î ¿
Ġop ens
1 16
em ed
un ning
Ġphot ons
__ __
ĠT rack
ĠG ary
Ġen abled
ĠBrook lyn
s ome
or o
Ġout break
ĠMarg aret
nt il
) }$,
Ġneg lig
ĠB aker
Ġpra ised
ith uan
Ġout standing
Ġt ie
ĠAcc ount
ĠGra ham
Ġant ib
ĠPit tsburgh
ĠSaf ety
IG N
Ġres erved
c ounter
Ġis omorphic
iv ia
ĠE le
UR L
ĠMic hel
ob a
p read
Ġnot ably
ĠG ulf
Ġexpect ations
Ġj unction
ra v
Ġdis cret
c od
Ġfra ud
ĠP ref
ab ove
f are
Ġphot ographer
Ġclos ing
A lex
b oy
ĠGu y
Ġanalys es
Ġse ar
Ġde vi
Ġ[ ]
Ġperform s
Ġweap on
Ġev ident
Ġart istic
Ġelig ible
ĠA rena
Ġsp herical
ro le
Ġcomp ilation
D om
Ġ\ }
A re
w t
Con tainer
Ġrep air
ĠC el
}) =\
Ent ry
Ġgen es
sh aped
Ġrest ored
ĠEqu ation
ĠW rest
ap ing
Ġdem ands
m arg
Ġc ache
Ġtri angle
Ġs ke
Ġpod cast
ĠLeg islative
Ex pat
h ome
ĠH end
Ġ{ $\
ĠP i
Ġsold ier
Ġrom antic
ĠR ot
Ġmarg inal
ĠOper ation
h arm
Ġ\ |\
Ġsupp lies
ĠS ource
Ġhelp ful
Ġelectric ity
Ġrece ives
++ )
Ġt issue
C ap
ĠG ill
riev ed
Ġd ynasty
ĠHung ary
Ġadm its
Ġden ied
Ġthem es
Ġorgan ic
ister ed
g ow
g ments
Ġaddress es
b uf
rad ius
def n
F ree
Ġsub section
ar us
ĠÂ ©
Ġn eck
ĠPri or
ine a
ĠCh ampion
ĠG ran
Feb ruary
Ġadvent ure
Ġactiv ist
ĠMont real
f ocus
Ġsupport ers
ĠC ass
Ġb its
U rl
}^ +
ĠP od
A ir
Ġelse where
ĠJim my
at ics
Ġres igned
S chool
Ġb ases
It alian
Ġpar ad
Ġcr imes
math tt
Ġb old
ĠQ CD
18 70
Ġdiv or
ĠMur ray
Expat riate
Ġrem ind
Ġdr ink
ĠV I
ij ing
Go ogle
ĠMad rid
ĠK u
Ġdisapp oint
ĠV enezuel
r g
oid al
al ph
ĠP rice
ex ec
Ġcon formal
ĠĠĠĠĠĠĠĠĠĠĠĠĠĠĠĠ ĠĠ
ĠVi enna
ST ATE
ĠS audi
Ġreg ulation
Ġm ock
g ood
Param eter
iz ers
Ġg ay
ch arg
F rame
eop les
E V
ĠT ol
Ġgeneral ization
Ġfor get
Ġretain ed
On ly
ĠH ave
r us
cos ystem
Ġpul se
Ġrece iver
ĠTam il
ĠSt age
Ġrad ical
sh ape
ĠPort land
F ound
B oth
Ġpl ain
b order
ĠSoft ware
Ġpres erve
ur u
int o
b est
ides pread
Ġanaly tical
Pro cess
om es
ins ula
Ġcontroll er
Ġdeterm ination
ograph ics
ĠCommun ist
Ġgradu ally
ĠR ugby
L ike
ĠSt orm
ig g
qu ality
ue z
per iod
ĠSt ore
rupt ed
Ġrecogn ize
ĠO pt
n etwork
ĠP DF
Ġencourag ed
ĠCov id
Ġre normal
Ġproject ed
W idth
ber ry
F ix
pr ison
Ġan nu
Ġf antasy
le in
ĠS H
Ġsh orter
ĠEx change
u its
Ġreal ize
Ġsurround ed
ĠDr ive
C V
ĠKar l
Ġcon sp
ley ball
ĠH D
dist ance
we ek
Ġamong st
Ġdiv isions
. -
Ġt ab
trans form
ĠArt icle
Ġcon e
Ġven ues
ok er
T arget
Ġph osph
W ho
Ap J
ĠI ce
ic ing
Ġsuggest ing
prot otype
Ġd y
Ġl ots
ĠBrother s
ĠSt ars
. :
par se
iv an
ik ip
ĠAlber ta
Th ree
ĠStan ley
Ġco ffee
ĠU pper
Ġpre lim
b d
Ġcorrect ly
}[ !
est one
Ġr uling
ĠMount ains
Ġsusp ended
F ont
m ir
Ġpri est
ĠMov ement
nol imits
Ġorb its
Ge orge
Ġan isot
Ġtarget ed
Pro fess
ĠWar ren
Ġw edding
Ġdesc end
Ġinterview s
Ġvess els
Ġprior ity
ĠJon athan
G ame
big cup
_{ [
ĠFac ulty
ï ¼
Ġsh opping
val ued
Ġstay ed
à ¦
Ġconver ges
**************** ****************
Ġdef ence
Ġd owntown
Ġthere by
C lick
Ser ver
s or
Re view
ĠN ord
M icro
D raw
Ġwar ning
Ġspl itting
Ġsyn chron
Ġcoll isions
per ature
g rid
189 6
re ts
Cont rol
Ġmir ror
\ [\
= -\
ĠAust rian
Ġref lection
Ġlay out
ok a
em ale
le ading
pol y
Ġfe es
Ġc able
ĠW a
Ġpropag ation
Ġel der
D ay
Ġr um
Y es
est im
leq slant
work s
Ġdeput y
Ġcom ed
ĠR ap
Ġmount ains
IC E
L in
ĠEconom ics
\ }_{
189 7
ribut es
ĠY u
Ù Ħ
ĠCharl ie
Af ric
r h
Ġestim ator
Ġamplit udes
mid rule
d z
w al
Ġcolon ial
Ġr anks
Ġeffect iveness
e per
J ack
Ġprint ed
Ġinstall ation
Ġemer ged
T om
Ġ })
Ġrel ating
ĠCar ib
Ph ys
Ñ ı
ĠThe ater
Ġcent ered
t ask
Ġindust ries
S al
as hes
Ġvalid ation
Ġcatal og
Ġbl ind
f ony
ĠS ex
ĠE instein
Ġge odes
lim it
ĠN am
ĠFerm i
ĠL P
Ġcry pt
ĠPo isson
Ġneut ron
ip er
be ing
D ocument
Ġassign ment
T F
18 95
ĠLe aders
sc ar
St ation
th y
Ġobvious ly
op ed
Ġd war
Z E
Ġin vert
Ġapp s
Ġaff airs
Ġfeel ings
Ġelim inated
S uper
ĠO ri
ul ative
st ory
t otal
Ġc ogn
pro file
Ġde als
Ġautom atic
Ġfail s
Ġto w
Ġl oyal
Ġs ick
ess ed
Ġr ivers
ĠAfghan istan
Work s
Ġt ens
Ġam pl
Ġleg acy
Ġfun ctor
ĠL ock
B re
sub equations
usal em
uch y
f am
Ġres emb
M ag
as ant
Ġla ugh
Ġt act
ĠShe l
Ġview ers
Ġlimit ations
det erm
cl osure
ens on
Ġspirit ual
ord ered
ĠF alls
raz y
Ġw et
c am
ĠCom ics
Ġeng age
ĠOper a
Build ings
Ġsynt hetic
ush ing
Ġco herent
es ome
Ġpro be
r b
ĠSt ev
10 8
M iss
ĠB ible
iter ranean
ĠUp on
u in
Ġim posed
Ġref lected
ĠF unction
ĠC ultural
Ġmeas uring
ĠV ancouver
ĠAlf red
ĠAnd y
new line
Ġcomb ining
Ġ icon
Ġg host
ĠK on
Ġpl enty
Ġinst ructions
Ġinst ruction
ĠClass ic
Ġlabor atory
Ġresc ue
Ġcon qu
Ġansw ers
Ġ: :
Ġob st
Ġvari ants
ĠT ower
ĠNAS A
ĠU g
Ġb rowser
ĠDi rac
eth yl
ĠJoh ann
Ġwork er
om m
Ġcou ples
ĠHun ter
Ġg rey
Ġpass age
ut o
Ġinteg ers
Ġharm onic
fra red
Ġc ous
art ifact
S en
Ġb ary
ĠM ack
Ġpaint ed
Ġaccord ance
ĠRel ations
S ports
ivid ual
Ġme at
Ġf oss
oun ce
P N
Ġm or
Ġcoast al
ĠUr ban
Ġpark ing
s end
el ines
Ġprom ise
U RE
P os
r ors
Ð ´
Ġg olf
Ġev il
ĠĠĠĠ ĠĠĊ
ĠE lementary
F ind
ĠP ant
zer bai
row th
Ġarrang ement
Ġc ul
h alf
d ays
ex pl
rand om
ĠInt eg
uc ks
Ġdev oted
ish ops
Ġtext s
Ġvess el
ĠD ays
incorpor ated
T M
t n
Big l
Ġtr unc
Ġf irms
F i
Ġl ux
Ġpos it
Ġpip eline
Ġto ugh
ham mad
m aterial
ĠNever theless
ro b
Ġres olved
rick et
return s
olog ically
L and
Ġcryst al
AC E
ar ial
C F
c ient
P e
Util s
ĠLe ft
Ġwith d
ĠT ob
G old
ĠAl tern
ikip edia
Ġdec ays
à ¯
Or gan
ĠÂ ·
n umer
ĠLe ban
an aly
ik es
Ġt ip
Ġw idespread
ĠO bl
if le
Ġfl ower
ĠSt re
er ts
ĠNet flix
ĠD id
Ġv ic
dev ice
Ġconstitu ency
M o
10 7
ĠProfess ional
ro oms
wind ow
ĠB orn
ĠMet ropolitan
ĠNev ada
Ġnot ing
ĠRoman ia
() ->
ro v
ling ton
Ã ª
ĠR and
Ġtick et
ĠS F
ĠP aper
it ely
ĠC u
Ġke eps
Ġmoder ate
Ġsh ots
ious ly
list ed
L ook
Con f
Ġent hus
Ġst em
om on
ir k
act eria
ĠFre edom
our t
Ġt ends
t ar
ĠO range
tain ing
it ud
ol utions
Ġdest ruction
au er
ĠAnn ual
Gl obal
}} ,\
born e
min ute
Ġdispl ays
b oot
Ġst rain
esc ope
cite alt
Ġint rinsic
n an
em or
dr iven
ĠY et
init ial
M ass
Ġf ol
Ġb il
t witter
Ġpl otted
}\ ;
}{ }
Ġgu idelines
Ġmem orial
sp ring
ĠHawai i
ĠCre ate
M er
Ġreview ed
ric ane
ĠF am
G G
Ġvis its
ab a
Ġkil omet
ĠR oom
? ?
ĠP ast
y ll
ĠU E
Ġw ounded
O pt
ĠC her
Ġh ook
Ġlong est
Big r
h ill
Ġinter vention
ĠGl as
ĠBir mingham
ĠEv ans
nt z
ct rine
Ġexpl ored
et on
ĠM ak
e enth
l ass
ĠJ ess
Ġf ro
Ġforest s
f iction
ĠPhys ics
Ġleg s
t urn
bel ow
p in
ĠApp ro
T ER
Ġscreen ing
Ġs ad
Ġp ushed
ĠMar vel
ĠArch ives
Ġsp oken
Ġcrit erion
jo in
ĠT ogether
Ġwebs ites
Ġex haust
Ġdeterm ines
U psilon
ĠConserv ative
ĠThe ory
ĠR ural
Ġup grad
ĠS A
Ġprot ests
ST R
ĠP il
ĠE dd
Ġlaw yers
ĠKen ya
ĠR ud
10 9
ĠComput er
Ġ! ==
ĠO wn
Ġmonth ly
Ġdo ors
hat tan
Ġpremier ed
c ache
Ġcomb ine
Ġarg s
Ġours elves
ĠR ank
S N
Ġcount ies
v ision
W eek
ĠT oy
let ion
Ġhabit at
AG E
P lease
F in
ĠHung arian
it ime
A rm
ĠA ld
Europe an
Ġdecl ined
Ġprob abilities
Ġex clusively
Ġproport ion
Ġn ortheast
Ġc os
Ġviol ation
ĠBern ard
Ġun ity
Ġpe er
oth y
du al
Ġbre ast
Ġs alt
ly ph
ĠCr ime
Å Ł
ĠAl ban
| _{\
Ġcons ent
el ing
Ġrespond ed
u ct
ĠK ra
Ġcomb inations
Ġremov ing
the ory
Ġshift ed
Ġre ven
Ġserious ly
d ashed
Right arrow
Ġg all
ik o
Ġphot ography
ĠN ad
Sche ma
Ġt ension
hy per
ĠMit chell
Ġover view
St and
Ġapart ment
Ġcolle agues
Ġcontrad iction
ĠW ing
Ï Ħ
ĠK ur
ĠSy ria
Ġthreat ened
ĠReturn s
ĠB illy
ĠPro f
Ġprom ising
pot ential
Ġl ad
ia o
ĠR ico
Ġl engths
Ġperfect ly
on ian
w right
. },
Ġreported ly
Ġactiv ists
Ġtroub le
F ore
lear ning
res ource
ĠI an
C ref
em ail
Ġmen u
util s
Ġdevelop ments
Ġvar ies
: (
ond a
Se lected
b us
ĠPr ivacy
ot ton
I X
r ise
text normal
re q
ĠSt ein
chi at
ĠOtt oman
Ġout door
Ã© n
Ġnormal ization
Ġorder ing
189 2
ĠB ud
N T
T ests
oc hem
apt ist
Ġcaref ully
inc inn
v able
ĠBroad way
Ġiter ations
Polit ical
Ġover come
uk a
Ġclust ering
Ent ity
L M
id ad
Ġtax es
verse as
Â ®
ol ia
ĠFI FA
Ġh ip
se par
} <
p ret
Ġsk ill
ĠG ray
av ior
ĠVal ue
ish ments
stand ard
ĠRail road
Ġhospit als
t ically
not in
( _
Ġprison ers
Ġcred its
ĠC er
Ġprov es
bound s
ĠP ictures
ĠAd m
Ġdeploy ed
Ġmer ely
Ġh orses
ĠS now
it i
ĠIn v
Ġcar ries
Ev ents
Ġult ra
Ġhas h
ĠU ser
Ġnav igation
ĠJ azz
IT Y
Ġdeterm ining
Sh ort
Ġanalog ous
W H
Ġannounce ment
des ign
ĠF OR
Ġspac etime
Ġoverl ap
ĠF r
o il
ĠV erm
Ġspect rosc
ĠMark ov
> ,
P H
Ġent ities
Ġmechan ics
Ġcorrel ated
F OR
Ġp atch
Ġs ectors
ĠF ine
ĠV ersion
Ġst range
Ġres olve
Al bum
Ġdial ogue
f ixed
Ġpay ing
Ġcontract s
Prov ider
Ġcooper ation
^* _
á ¹
Ex ample
Y our
ĠB asketball
Pro perties
Ġcelebr ate
188 9
part y
Ġperturb ations
Ġb io
Ġtrans actions
Ġpay ments
av an
Pro duction
Ġl en
cel ona
rict ion
)= (
Ġcon sole
Ġb atch
incinn ati
18 60
Ġgu ilty
ĠU pdate
ol en
189 3
Ġdiss ip
ug osl
EE E
Ġconsist ency
ĠMean while
Ġb ishop
Ġ> =
N one
189 4
am ination
em ark
ĠPark er
ĠS occer
ud son
Ġrecommend ations
ab ol
Ġrail road
Rail way
B T
I E
ev a
H as
ĠW or
al id
Ġd ated
Ġopp onent
ing ham
conn ection
o ys
ip art
ĠJos Ã©
ĠCarl os
ĠAg reement
Ġven ue
ã Ģ
Sh ow
S ettings
P osition
Ġdiscrim in
ĠB omb
Ġat tach
m atic
Ġdifficult ies
Ġexam ined
com plex
Ġagric ulture
) &
Ġb oss
id o
ĠInt elligence
ĠSt ra
ool s
Ġconsist ently
ut ter
Ġim prison
Ġcol leges
ĠPho enix
' $.
Ġorgan isations
Ġrec urs
ac o
ĠN at
writ ing
Ã¨ re
Ġb le
ĠD og
ĠCh air
Ġdepart ure
Ġy es
ĠM aterial
ick er
ĠS ay
ĠColl ins
ĠAG N
ĠB rew
Ġinflu ential
un ed
C oll
Ġmiss ions
z es
ĠAl aska
ĠR acing
ĠT ask
Ġdep ression
key s
Ġp adding
Vill ages
Ġdis ag
Ġanim ation
bound ed
er os
Off set
iss a
cl ick
Ġfl ash
Ġwavel ength
w hel
Ġcon clusions
Wh ite
ĠJer usalem
bl ing
Ġpix els
ĠZ one
g un
ĠR ing
Ġident ifying
Ġj u
man ifold
ĠT ournament
Ġcontrovers ial
' =
\, ,
cons ider
ĠA pr
ĠCh ron
Ġcontribut ing
ion ed
Ġinsp iration
ĠSt ories
Ġviol ent
Ġpred omin
Ġmaintain ing
Ġcheck ed
189 1
ĠA the
her s
M ean
Ġc um
Ġillust rate
Ġ} {\
pro perties
ĠOrig inal
b ool
ĠC rim
Ġm oral
Ġpure ly
ĠGr iff
ĠSpe ed
ĠH ope
Ġimplic it
Ġext ending
r aska
ig s
Ġt rick
Ġm igration
Ġgener ations
m f
O ld
ĠOrth odox
Ġnorth west
Ġinstrument al
Ġinst ruct
Re al
Ġking dom
Ġf inger
E Q
Ġpurs ue
int ro
ac re
L ou
ĠAthlet ic
Ġbox es
| _
rist ol
Med al
int ers
' )$
Ġun expected
Ġm i
as et
TY PE
over ning
| =
Ġremark able
ĠM all
Ġrun ner
Ġproject ive
Ġl ens
ĠM ong
Ġph on
ĠC T
ĠP oll
ĠS eg
Ġdecre ased
Ġoccasion ally
M or
Ġd im
ĠSp ect
ĠCommission er
] );
duc ational
Ġf abric
ĠG ot
pro to
Ġtri ang
Ġun stable
ĠDef ence
em pl
ĠMat hemat
aval ry
i u
Ġattract ed
Ġsuccess or
Ġco ord
Ġrare ly
Ġexp onent
ult an
Ġobtain ing
ĠBen jamin
Ġcritic ized
ation ally
Sum mary
Ġresid ual
n c
Ġass emb
Ġl ib
ĠMuslim s
Ġb rick
ĠJohn ny
Ġt ill
Ġâ Ĥ¬
Ġestabl ishing
Ġswim ming
Ġth orough
ĠG il
Ġnom ination
ĠâĢ ł
ĠB G
ĠBar bara
ĠJ oy
. ),
Ġ{ {
Ġgener ates
H ttp
ress es
Ġcas ual
Ġimplic ations
Ġev olved
Ġlic ensed
per turb
Ġposs ession
Ġphys ically
ĠL ad
k w
em a
2 20
Ġvan ishes
j et
& $
Ġpart ly
it ol
' }\
d ing
188 5
g ression
Ġen velop
B F
ĠD ocument
Ġbeg un
Ġcampaign s
Ch ange
ars er
ĠComm ons
Ġneighb ors
styles heet
Ġnewsp apers
Ġrep orter
ĠBl ues
ĠCarib bean
He ight
pro blem
ĠCh o
she ll
Ġnot iced
Ġfin als
t b
ĠD ra
Ġsub div
Pl ace
ĠColon el
T oday
m ade
}} =\
load s
ot an
\| ^
W rite
ĠD est
ed a
â ĪĴ
Ġdeep ly
Ġhe ating
ĠT ree
K ing
D iv
Ġinst ability
ag ers
mathbb m
arm ac
Ġins ights
own ed
Ġfr ust
ĠF err
ĠWay ne
Ġmed ieval
ĠIn n
Ġr ub
ard ed
Ġsh ifts
Ġaff ine
} ~\
}{* }{
188 8
ĠBroad cast
Ġav ailability
ry ing
IV E
Ġ rib
Ġe cosystem
om atic
ir th
os opher
ĠC ert
ri ors
Ġqual ifying
V ER
hol m
ĠNorm an
L ater
Ġf ract
ĠE li
' ',
, .
Ġab road
ĠP ic
Ġe ase
Ġ ^{\
Ġparam et
S W
Ġan ten
ĠM ust
M W
ĠU lt
Ġsac r
Ġclaim ing
CO DE
b n
Ġknow ing
Ġparticip ating
m akers
Ġd rew
R est
oc ols
sub stack
$ /
) |\
ĠCh a
Ġcar rier
ĠG round
L aw
ĠSte el
Ġg ard
ĠS id
Ġra ising
Ġtherm od
g iven
Ġtraject ories
Ġmanufact urer
Ġdaugh ters
Com mon
m und
Ġh ate
ĠY am
Ġsp ots
rib le
Ġport folio
ĠB ranch
ick en
ard ing
Ġacceler ation
ĠM obile
Ġ ðŁ
ĠD ragon
Ġlim iting
Ġep id
ant ed
Ġprov incial
Ġinter fer
Ġrepe at
Ġsudden ly
abl ing
B usiness
ra ise
ĠS even
Ġcompos ers
}} )$
P ORT
Ġlist ening
Ġr ings
Ġt ub
ĠFor um
Ġhigh lights
oc ent
ĠP erson
Ġass ass
sc ription
Ġattract ive
ĠB ron
Ġsequ el
sy chiat
Ġmut ual
Ġg od
C le
ĠInd ians
the y
Ġunder ground
Ġannu ally
Ġliber al
ĠNaz i
Rec all
sim ple
S F
is an
ab e
ug ins
umb ent
ĠS oul
Ġext ensions
ĠN BC
24 0
T otal
Ġleg it
o ft
uc le
ĠMag ic
Ġcol span
S il
T own
Ġwood en
ĠC hel
Ġloc ality
t ml
Ġcov ariance
ra ham
Th omas
Ġf usion
ov ich
Ġth irty
ĠBe ijing
RO M
Ġk inem
Ġcont ents
ĠWith in
Ġ Ø
Ġimpact s
Ġcomp ound
Ġsem antic
Ġn aval
c z
Ġcontrovers y
ick ing
iv ities
am ic
Config uration
op al
artifact Id
m ill
Ġun likely
Ġspeak ers
Ġaux iliary
Ġhop es
T ok
ant astic
Ġg ran
ĠE uclidean
J ew
ĠC BS
Ġgener a
ĠLiter ature
Ġt ort
ĠCharl otte
T ur
ĠCl imate
U V
Ġvari ed
Å Ħ
Ġde eper
Ġhapp ening
pan ic
b ecause
Ġsynt hesis
ĠTh ings
Ġfl ights
ĠR u
b ian
p ress
Ġad s
Un ivers
Un it
ĠPl us
Ġsubset s
z h
ist ance
Ġprom oting
Ġcross ed
á ĥ
p ref
ĠSal v
H en
us k
Ġs ust
Ġcred ited
ĠF L
Ġco hom
Mod ule
cons istent
ĠIran ian
Ġmanufact urers
Ð ¼
Ġexist ed
Inter face
bre aking
AT H
in ternal
ĠG C
ĠT u
ĠGh ana
em in
Ġcomp rom
}. \
Ġsil ent
' $,
ĠI da
Ġchem istry
E ast
Î ¹
Ġconstant ly
ĠMunic ipality
l ia
Ġint ense
Ġopp onents
Ġdelay ed
ow ell
ĠH unt
e or
ĠF itz
ĠPr ivate
Ġmag azines
Ġfor cing
Ġmod ification
ĠS ax
pan el
Ġbar rier
v skip
ĠMu hammad
ĠN icol
ren ew
Ġan xi
Ġre ject
sp ective
lic ations
A cknowled
ĠTurn er
T itle
Ġsubstit ute
k ens
ival ent
Ġpo ems
="../../../../ ../../
ĠO S
Ġste ep
ĠP el
Ġl ights
ĠLe vel
Ġweak ly
=" /
N or
Ġclos est
Ġprelim inary
n one
Ġc rack
Ġindu ces
Ġphotograph s
Ġto m
ann ah
Ġoutput s
Ġm ild
B er
doc s
ier ra
Ġdis joint
D ue
Ġt one
ut r
o ons
M ount
Ġsub mar
ĠUnivers al
C ho
)} =
App lication
Ġv ital
Ġexhib its
ĠO il
ĠMan hattan
Ġâ ĨĴ
, ~
Ġminor ity
Ġcoll aps
ĠTig ers
b ib
enn ial
om i
ĠW ord
ĠN iger
ĠG as
Ġsp arse
cc c
amp a
Ġsynd rome
}_{ {\
ĠPl anning
d p
ĠBuff alo
Ġcons iders
Ser ial
ĠCon stant
ĠE C
C ond
qu is
re z
ĠS elf
Ġund efined
Ġde formation
Ġcompl iance
c ov
Ġsynt hes
ĠTh anks
D es
ĠMil an
Ġtrans it
ĠEx ample
}\ !
ĠMon th
)} _{\
18 65
ĠIs a
deg ree
ĠMach ine
ĠC redit
A ud
Ġdes ert
it ects
ĠW u
Ġplan ets
tri angle
Ġmulti pl
Ġquot ient
N etwork
eng ine
Ġbatt les
Pres ident
G s
eg u
s ession
Ġg ear
ĠGi ants
Ġany where
Ġevery where
. }\
in ement
h um
ra pe
Ġdebut ed
ĠFle et
ke ley
R ange
Ġf ake
Ġp ic
ĠPrim ary
Ġcloud s
ĠBar ry
ĠLabor atory
Ġas c
E ff
$ _{\
Ġ$\ |
ĠF u
Ġrec ur
ĠOper ations
AP I
itud inal
Ġwonder ful
Ġg ro
ĠL uther
M em
ĠDo es
ĠOver all
Ġrest oration
Ġdis aster
Ġch ronic
u int
Ġf ur
ĠV ic
P RE
Ġsupp lement
He alth
Ġsurv iv
Ġor ange
Ġtick ets
Ġaccom p
C ore
Ġ âĢĻ
Ġcomp ounds
comm unic
Ã³ w
ĠS L
ut er
et ta
ĠSh ang
Ġp or
ĠPro perty
uth ored
ĠCra ig
hy dro
ĠD rag
Ġcrick eters
ĠWork ing
Ġcal endar
T or
ill iant
Ġs outheast
al is
Sim ilarly
ĠV ent
Ġreflect s
Ġdram atic
ĠRich mond
4 50
Å ¾
Conn ection
ric ks
ĠD ise
ĠPrad esh
ĠS aints
Ġatt ending
Ġbirth day
te chn
~ (
Ġthreat s
l ab
u art
Ġalign ment
ĠT ab
ĠB achelor
de ep
ĠCat hedral
ĠLe ader
Ġb one
Ġcontinu ity
ĠK r
Ġperm itted
ĠUn like
Ġconst rained
ĠFl ore
Ġflex ible
ĠG alaxy
ester day
b ishop
Ġre un
OR D
k n
is ers
ĠC F
ord inary
}) )
ĠK os
M s
il ia
ĠC ele
Ġexpert ise
Î ½
group Id
Ġdiagn osis
to ken
ĠMin or
Ġtr im
Ġsouth west
Ġre nder
ĠGlas gow
Ġtw in
v dots
Ġtrans mit
Ġco aching
ĠG ate
Ass ume
V E
Ġsole ly
plic it
on ing
Ġmy ster
Ġefficient ly
Ġx ml
Ġcomplet ing
hor iz
An n
18 50
ar an
ĠL ess
ĠW i
Ġl ying
Ġterrit ories
ĠCamp aign
am l
Ġvulner able
he res
Ġin sect
ot hes
ig o
Ġhyper bolic
Ġcon gress
ĠS ide
ĠL ithuan
h aw
Ġext ensively
ĠPar ish
ul o
Ġb orders
em p
Ġcl othing
ĠBe aut
conn ect
ĠWrest ling
Ġcom ics
ous ing
set s
Ġcosm ic
ĠAnt i
ĠInter est
ic ons
const ant
ĠHar rison
cl oud
Ġpark s
iss ues
Ġf ictional
Ġcav ity
Ġpotential s
h ash
Ġsh apes
ĠCon struction
17 0
ph al
188 7
Head er
Ġc ounsel
ĠE ug
ĠB right
Ġsub mit
Ġsuper conduct
ĠG reater
}) -
Ġp in
Ġst ops
t ex
ĠRe ading
ster dam
}_{ (
Ġcontinu ously
Ġind irect
Ġfl avor
ĠNot ice
ĠMed iterranean
}, {\
ey l
Ġpaint ers
ĠOl iver
ĠEgypt ian
Ġd ose
Wind ow
at en
Ġp up
Ġwind s
igr ant
Ġh az
ĠMe V
Ġwat ched
Ġelect oral
Ġimag ine
H ash
Ġg aming
Ġscient ist
Ġline arly
Ġfil med
ĠPolit ics
L D
u ke
p aper
w ang
ag ar
Ġan ime
Ġpriv ile
Ġinflu ences
Ġbusiness man
Ġcancell ed
Ġb ull
ĠCh art
M ad
Ġmus cle
or ry
ĠP in
ĠCon sequently
Sp ecial
iv o
ĠB enn
Ġdo ctors
ĠL ud
Ġg ent
ĠD R
ĠCost a
Ġ$ $\
h n
Ġdedu ce
ĠM ans
ed it
Ġsuff er
ĠI van
Ġagre es
Ġel abor
Ġput s
In s
Ġc inema
Ġdefe ating
Ġens ures
ub s
ĠJ a
Ġ{ {\
T ab
over e
Re lease
Ġaff ects
c ule
sat isf
ĠTechn ical
=" _
11 3
ĠAss ume
#### ####
Ġinf inity
ĠYork shire
M B
Ġrelax ation
r ust
f actor
ĠT alk
Ġcon jecture
Ġar ises
ag i
Rel ated
intend o
Ġl ap
Ġg al
ĠIndust rial
ina e
f ramework
Ġhead er
p us
ens en
ĠBar celona
U D
ĠA zerbai
ĠO cc
R et
T I
sp aces
dep th
Ġparam s
= {\
ass oci
ern ame
t ures
Ġo k
Ġcopy right
ĠPer u
ĠAlex and
Ġg allery
d iction
hib ition
ĠSh a
ak u
ĠSpec ifically
ĠColomb ia
h ad
ĠS olar
W al
ĠT i
ur se
ol in
ĠPier re
ĠS I
G raph
Ġrele g
18 00
Ġdeg rad
onom ic
ĠS yn
ash a
en berg
Ġengine ers
ĠKir k
ĠRob in
r f
Ġequ als
Ġlat ent
Ġw ings
ĠC C
Ġun success
eff ect
Ġcall back
Ġg athered
Ġp ace
ĠS ad
Ġb rig
Ġcons ensus
v ideo
Ġthick ness
id ency
) |^
Ġanom al
L ear
Ġ( '
Ġmon ument
Ġexam ination
ĠL ost
ro at
Ġret ro
iff s
ĠPro duction
Ġimm igration
Ġinc idents
ĠChrist ians
ĠL en
Ġt ies
Ġformul as
ĠN ear
ine e
ĠArt ist
overs et
re ction
ĠJ en
Ġcompos ite
Ġphenomen a
ĠC ricket
Ġtravel ing
. [
uck er
Ġcap s
i ology
m issions
188 6
Oper ation
12 7
l floor
Ġp ian
Ġv ibr
Ġt ube
> $
Ġbus y
] ]
Ġde lete
ĠAnd re
Ġg ross
Ġsub str
om ed
Ġformal ism
ĠS W
ĠL LC
Ġfil ters
Ġorient ed
eb ox
Ġstar red
Ġdem ocracy
ĠC row
cast le
th al
ett i
Ġgr ants
st ad
; ->
m ut
Ġvari eties
book s
ĠHe b
Ġw ond
Ġin cl
in formation
Ġmemb rane
c ussion
ĠPr int
I ter
Ġchar ity
Ġbu ck
erv ised
we ak
is cal
ĠCo al
Ġexclud ed
pos itive
ĠArab ia
h op
Ġ }$
Ġexc itation
Ġveloc ities
dist ribution
ĠTh or
Se ason
ĠTre as
ĠBl og
ĠSerb ia
Ġmon ot
B ro
H ost
ER E
Ġsound track
ĠSm art
z one
Ġpro ton
ĠPro test
for ced
Ġph rase
ĠSong s
ĠMer c
ĠB A
Ġsup ern
ĠSt even
Ġmotiv ated
11 4
ĠNeb raska
Ġsurve ys
Ġsam pled
Ġcomfort able
c in
Ġpred ecess
Ġstreng then
Ġguitar ist
Ġh unt
Ġs oc
ĠAthlet ics
ĠEr ror
Ġaggreg ate
amp ed
is y
B s
ĠT on
G F
lim ited
Ġperm it
Ġsh ore
D ir
er en
ĠN an
Ġhead ing
Ġign ored
ĉĉĉ Ċ
iz a
ĠSer ge
Ġ ).
ĠS ev
ĠM ix
im eter
ĠPro of
Ġtown ship
ĠM asters
Ġsl ot
Ġjourn als
$ --
\| _{\
ari ate
Pl an
Sp anish
Ġexception al
it on
ew ay
ĠSpr ings
add le
ĠIm ages
Ġsegment ation
Ġviol in
ĠS r
Ġnon zero
O ption
Ġimag inary
am er
ast rop
Ġm anga
Ġse eds
ĠWar ner
Ġass et
ĠFran ces
ĠM uch
HT ML
Ġfacilit ate
ct x
ĠB ass
Ġconv icted
ĠG arc
188 4
ĠScient ific
re view
Ġover whel
Ġqu eries
ĠH indu
tri ang
u u
be h
ogg le
og an
ĠGu inea
ĠBelg ian
Ġext raction
ĠF ab
Ġj ets
l as
Sym fony
r floor
ill ance
Ġregul atory
Ġequ ity
] ^{
inter face
Ġcam eras
Ġcomput ers
ĠS uz
Ġperson ally
V AL
in cre
C ur
mult ip
Ġasympt ot
ĠK ash
ric ulum
ryst al
V A
foot er
Ġvent ure
Ġact ively
op ing
C a
pos ing
AT A
m other
18 61
ĠZ hang
Ġb anned
ĠG T
Ġpeak ed
ov iÄĩ
Rich ard
et e
import ant
Ġbu ying
big skip
f ers
p he
Ġcateg or
Ġam id
ĠAut o
l ag
ĠL ot
Com put
im od
cel and
Ġintegr als
Ġinv oke
Dec l
COL OR
ĠVin cent
Ġglob ally
ĠS z
d ifferent
ment ioned
Ġ$ <
Ġstri king
re ck
di ag
ph ys
p ing
È Ļ
ĠA B
ĠM ason
Ġsurv iving
Ġche cks
Ġmount ed
st ation
Ġcount ing
Ġr hythm
Ġcap ability
ON E
Ġb orrow
Ġsec ured
Ġm os
ĠB E
s un
asc ular
ix el
b ind
ix on
Ġinn ings
upp er
ĠÂ §
u ilt
S ession
ĠArab ic
Ġent ers
ĠFri ends
' }$
ol ine
Ġu int
Ġcub ic
18 64
ĠCom b
sequ ence
um ann
Ġmain stream
Ġtim ing
Ġrecept or
Ġoccas ions
Ġp ose
ich i
E ar
h uman
Ġt iny
ĠT rophy
Ġdr inking
i ative
ĠJ ama
writ ers
Ġl ung
Ġact ed
Ġaccur ately
Ġconsc ious
Ġpre val
ĠC old
Ġg re
Ġentang lement
AR S
Th read
Ġrepeated ly
apt ers
188 1
. ]
Ġshe ar
Ġl ingu
P eter
t ry
Ġsuff ices
ĠB ond
on line
he ro
. ).
ĠD raft
ĠDen ver
me as
Ġlab our
Em pty
ĠJ erry
ĠL an
Ġvolunte ers
c ost
C ity
Ġmathemat ics
Ġver ified
ew ise
ĠLeg end
Ġign ore
Ġthe at
qu arter
Ġlo ops
ta wa
ĠLi u
A I
Men u
ath on
Ġcoal ition
Ġlik es
Ġv ir
atern al
Ġcompens ation
g io
ract ed
ĠB R
Ġdon ated
Ġcomp iled
Ġb at
Ġ" \
Ġcl ip
Ã Ł
she et
Ġe ighth
ĠF R
Ġadvant ages
Ġbos on
ĠLore ntz
C ross
Ġg ray
ĠNe uro
h aus
C amp
w alk
ĠGon z
ĠSh ould
N Y
ĠV el
M el
ra h
che m
Ġc ow
ĠV lad
Ġinvestig ations
Ġst roke
am ine
ĠC incinnati
ic i
ir ts
ĠBl oom
ĠK ay
Ġmod ify
Ġhom ot
Ġload ed
ĠIn sur
Ġarchitect ural
ĠImp act
Ġsus cept
ĠF un
N AME
b uffer
ĠConf eder
= (\
Ġsp ark
display math
ĠNov a
}= (
ll i
Ġmem or
S G
et ics
ĠP ick
Ġt aste
ĠH IV
st ration
Ġpower ed
ĠPref ecture
os hi
AS E
Ġj ew
aly mp
ĠP RO
S i
Ġind igenous
u cc
Ġveter an
un iform
ĠC ell
Ġhierarch y
ĠRem ark
Ġg ains
ĠI L
ĠB ird
J ac
Ġde emed
L im
om eter
ĠAd vanced
igh bor
Ġearth qu
Ġh ide
pd ated
D esign
Ġm g
v c
Ġdocument ation
Ġtransp arent
ĠC ad
Ġcous in
L ive
Ġg raphics
Ġsh adow
Al umni
ĠL ions
ant ine
as ia
Ġess ay
Ġemphas is
ro us
K K
ĠB ristol
S n
al og
Char les
Ġl ip
Ġg ates
Ġarrang ements
ĠForm ula
ĠR angers
Ġj oy
Ġin jection
Ġs a
Ġwal let
Ġnumer ically
Is rael
ic ul
F E
ĠNich olas
ĠP le
Ġiniti ated
Ġbon us
p ine
Ġliter ally
co q
ĠW W
Ġsusp ension
Ġdist inction
Ġreg iment
Ġtang ent
w art
abet es
end or
Ġout per
au kee
inn ed
k k
hem atic
aj a
Ġmin isters
Ġhun ting
A Y
eff ective
ĠL aura
Ġmem ories
Ġabs ent
aut o
( :
Ġ$- $
ĠN HL
ĠHig her
char acter
de lete
ĠCl ay
ĠT otal
Ġun con
Ġover ride
7 50
ĠFinn ish
C y
ĠS ah
Ġdu o
ellig ent
Ġgra in
in ating
Ġpo ets
or rect
Re ference
Ġneighbor ing
Ġcal ibration
ĠR ange
ĠF if
ops is
est on
W R
F rank
Com parison
Ġman ual
Col lection
Ġtack le
Ġsupp lied
F our
ĠObl ast
Ġtour ism
ira ble
ĠR ou
/ .
ac co
ĠVictor ian
ĠAn aly
ĠPer ry
ĠM ut
ĠMad ison
ĠMon ey
] _{
Ġfil mm
18 63
ĠO N
Ġimm un
Ġn um
Ġelev ation
cept ions
ri en
ĠK il
iv ic
ĠWrit ing
ĠJust in
ical s
ĠY ank
ent e
Ġc argo
Ġf ert
agon ist
ĠEth iop
Ġdec ides
Ġderiv ation
Ġleg islative
ĠAnt ar
ĠE ston
Ġspec ify
) !
ai ro
Ġscholar ship
Ġfin itely
Ġ ĉ
Ġland mark
Ġl iv
Ġres ort
Ġw ake
$ (\
Ġsh ield
}} }$
P rior
ow der
j or
ĠK rist
ĠCub a
ob b
respect ively
}) _{
Ġmat ched
" ))
Ġphys ician
Ġelli ptic
188 2
Ġcond em
Ġd eter
Ġr iding
Ġdef ending
Ġmeaning ful
ĠK ath
ĠN GC
Ġd inner
qu et
Ġd ot
188 3
Ġoccur ring
ounc ill
center line
oc ate
() :
ĠFl ight
â Ħ
add ress
Sec urity
Ġl os
Ġj ury
Pl ayer
S ocial
Ġs ends
G a
Ġst ere
Ġe ating
Ġattempt ing
P I
ĠO bs
Ġn ominations
ĠLl oyd
ĠW es
oph one
Ġrom ance
s per
Ġdis abled
Hel per
Ġele ven
Ġl iver
Ġse p
Ġan chor
w ait
sim ilar
Ġinv ariance
ple ments
Te chn
c rit
Ġmultiplic ation
Ġt ons
Ġr it
ĠY ugosl
ij k
renew command
ĠW orth
} &\
ĠG rey
ĠGra ce
L at
Le ague
ĠM ari
ĠCh and
ĠM end
Ġorig ins
ĠCru z
ĠBl u
) )$.
Dem ographics
l p
Ġsent enced
' -
ĠAl ong
Ġintrodu ces
Ġbas ically
Ġhe ll
Ġcor ruption
Ġfeas ible
ĠB og
aster y
or ious
I con
Ġab ilities
Ġinteract ing
ĠF act
augh ter
Ġmil k
marg in
Ġpropos als
d ynamic
Ġmy stery
Ġcomment ed
Ġl ibraries
Ġt anks
C AR
& #
qu al
Ġportray ed
p air
ĠD elta
Ġposs ibilities
ĠH aving
ĠM ann
Ġcontrad ict
ĠĠĠĠĠĠĠĠĠĠĠĠĠĠĠĠ ĠĠĠĠĠĠĠĠ
ĠGuard ian
Ġtravel ed
Ġeg gs
ĠMor oc
ĠB O
Ġde ck
K ind
Ġgr ate
Ġstream s
Ġcaref ul
ad ic
Ġrel ay
Ġrefer ring
he w
ĠH udson
Ġguarant eed
Ġin comp
\, .
18 62
ĠÃ ł
Ġenem ies
Ġbut ter
v irtual
Ġcompet itors
12 2
Ġm esh
Ġcab inet
i racy
Ġcont rary
Ġexp edition
ĠSe an
app lication
ĠCh i
r ically
Ġvan ishing
ĠL ux
ak ov
Ġmon arch
D IR
ĠC ant
ĠEd wards
ĠT un
Ġcur rency
f requency
Ġche ap
Ġrev ised
\ }}
Ġgener ality
quir y
Res earch
f g
ĠLeg al
Ġbe er
ac les
Ġcan n
Ġs ax
27 0
Ġwire less
Ġrec ruit
Ġelect romagnetic
M atch
Ġens uring
ĠSus an
G overnment
ick ets
Ġlaws uit
Ġab elian
left rightarrow
ĠAm sterdam
ĠArch itecture
se q
Ġex terior
ed ed
Ġj ack
Ġc oc
ĠB aby
ĠL ion
Ġdepart ments
Ġdisput e
ra pper
Ġobserv ables
sett ings
ĠB ath
K n
Ġad mit
Ġimm igrants
ĠB S
w aukee
f und
Ġ$ [\
Ġpat ent
Ġsent ences
Ã ¦
re port
Ġdemonstr ates
ĠM orning
Ġo ct
Ġafter wards
, '
C at
Ġintellect ual
k an
Ġaltern ate
s am
Ġcompan ion
Ġa qu
l ive
15 00
ĠL ate
R oyal
F ar
ch anges
ĠB urg
Im pl
Ġlocal ization
ĠBeng al
me asure
d ebug
Ġart ifact
Ġsens ors
Ġor chestra
Ġsqu ares
12 1
ic z
T erm
2 30
ie ve
ĠD od
Ġdiscrim ination
ĠP red
is ch
Ġrel ies
Rad io
Ġm ouse
Ġfast est
ĠMont ana
Ġh int
12 4
es y
ms g
ĠSing le
Ġceleb ration
Ġall ocation
s ized
Ġyoung est
Ġhistor ians
Ġr ated
ur st
}| ^
Ġoption al
Ġcomm emor
Ġel astic
Ġm as
ĠLu is
Ġas ide
ĠP ersonal
n ecess
ancell or
Ġdes k
Ġhon our
Ġcond ens
18 78
Î µ
ĠS ony
f ix
ĠP ul
P arent
Over view
FF FF
on ies
d or
prot ect
sol id
ĠQu arter
ĠV eter
Ġint ens
rac le
Ġspecial ized
Ġelimin ate
Ġar ising
A K
ĠDemocr at
Ġhighlight ed
ce ut
Ġdis cre
ĠĠĠĠĠĠĠĠĠĠĠĠĠĠĠĠ ĠĠĠĠĠĠ
Ġsusp ect
EN D
ĠT ib
ĠKe ith
ribut ions
ail ing
Ġb ullet
Ġres ervoir
Ġaccept ance
ĠJ oint
ĠK el
g ie
pl ain
Param eters
ĠBer g
Ġprem iere
17 5
Ġqual ify
Ġsearch ing
Ġcomp ression
ĠB aptist
ĠMur phy
Ġf ighter
h ook
Ġobject ives
g ray
Ġtransl ate
ĠH R
res ize
ch itz
Ġminim ize
L ie
Ġneglig ible
im m
ĠC ox
qu ant
s ay
Ġd s
th lete
Ġam ateur
+ |
const ruct
Ġrecip ient
Ġi Phone
Ġdevelop er
Ã¶ r
Ġpar agraph
Ġsupp ressed
ĠB uch
ens itive
Â ·
). }
cl uster
Ġaccomp any
Ġpro l
ential s
Ġprov isions
Id ent
anc el
Ġwal ks
t ot
ĠB our
ĠL arry
Ġt orn
ĠBer keley
olt z
R a
B ody
Exp ression
Ġinequ alities
Ġsh ipping
orient ed
Ġmed als
' )\
Ġs ugar
Ġparliament ary
ĠR O
Ġexpl oring
Ġplay offs
Ġcert ified
ĠA round
comp act
arma ceut
Ġbo ats
ĠF oot
Ġadopt ion
ĠPro file
Ġcharacter ization
Ġprogress ive
ĠRog ers
ĠSim ilar
am o
Ġsurpr ised
ĠAl t
om o
Ġconsider ably
Ġhe m
S em
ĠCl are
^- $
ĠHT ML
in ery
e fficient
ĠU RL
ĠR ivers
vert ex
ĠV as
ĠAb u
}_ +
Ġquant itative
Ġs hed
Ġb ridges
Ġmed ic
Ġdoub les
ĠG olf
Ġpl ates
m art
hel p
Ġbe ating
Ġlight ing
ĠTer ry
Ġprot ocols
D oc
p iece
Nav Bar
P rim
b ast
ĠG ay
child ren
ir s
Ġconven ience
equ als
ĠE SP
St ack
M ont
Mult i
ĠR idge
c b
18 76
}} +
ĠF iction
Ġmod uli
Ġentreprene ur
ĠN y
uls ion
H ol
Ch inese
N G
] _
Ġcult ures
Ġsymmet ries
ull ivan
Ġspons ored
f eld
Ġsh ops
Ġuniqu ely
m usic
ĠLu ke
Ġfil ename
val uation
) }^
Ch ina
b ie
ĠB orough
Ġorgan ised
Ġtrad itions
Ġcou p
sec urity
Ġless ons
Ġprocess ed
st ock
Ed itor
Ġqu art
th in
Ġc ock
as is
Ġrat ings
Ġchampionship s
Ġw elfare
ĠA x
urs or
Ġsk i
Ġh urt
Ġacqu ire
Ġiniti atives
ia z
Ġobserv able
ins ky
Ġg overning
Ġlast ed
sup ervised
Ġt ribe
> .
v ance
en v
ĠWork ers
ĠG host
block List
ovak ia
ĠUn fortunately
Dist ribution
ĠMun ich
Ġj av
Ġenc oded
Ġvari ability
Ġread ily
Ġlog o
L ondon
Ġth rown
{ [
ĠAgain st
ĠB und
az i
Ġstat ue
sp irit
ĠJeff erson
âĢ ĭ
ĠEag les
Ġpl acing
ela ide
ĠK i
row ing
ĠC opyright
Ġun w
K ar
hand le
Ġthe sis
Ġphil osopher
h skip
itz er
ips chitz
", "
hand ed
Ġp ill
Cont in
l ater
war z
Supp ort
res olution
web kit
Ġincred ible
Ġco ins
IN D
Ġro ster
L ove
P ower
Ġrout ine
f olk
op edia
ĠB H
Ġpet ition
S everal
ĠK ate
Ġt et
ĠF ed
m ac
ĠE ld
Ġ ions
te am
ĠW alt
p adding
ect ives
Ġart illery
ĠK un
ik ing
duc ing
is i
Ġim per
Ġvo ices
ĠE T
de velop
ĠPubl ished
Ġdirect ory
Ġdr ift
Ġdi et
Ġgraph ic
ĠCirc uit
Ġa uction
Ġd up
Ġneighbour hood
ential ly
w hat
Sing le
od ic
Ġb es
2 10
h ig
ĠHe avy
ĠDou ble
p mb
P rom
ĠBe ing
ĠN ort
18 75
ĠAdm iral
ĠK id
um i
}}\ ,
rel ax
ig ion
Ġsubstant ially
Ġwalk ed
Ġexhib ited
sur face
dis abled
Ġkit chen
Ġh ack
Ġdel ight
ĠVerm ont
D ou
}} }{
Ġhost ing
M ill
Ġpre st
Ġnucle i
Ġob sc
ĠArch ive
AT O
Bl ue
Ġpo ison
Ġvirt ually
e als
P tr
Ġfl ed
ĠInter view
at z
ĠSh aw
Ġto urs
Ġtw ist
cal cul
Ï ģ
Ġint u
gener ated
Ġpoint ing
te enth
Ġte a
Ġmicro sc
ĠCont emporary
Ġident ities
G ET
ĠE lection
ĠE uler
Ġcop per
ams ung
14 4
lev ant
ĠBut ler
( |
c ritical
Ġwrest ling
g om
ub a
Ġdr ives
M oths
d ig
Ġ& $
hab ilit
Ġconj unction
Ġfest ivals
ov an
Ġh ang
)\ ,\
tem perature
id i
Ġv it
Ind eed
ĠRepresent ative
Ġer g
Ġmunicipal ities
Ġfill ing
Ġs le
Book s
b ane
ec ution
Ñ Į
Ġnegoti ations
ĠMe chan
Ñ ĭ
L y
AR Y
oper ator
sen al
ĠA aron
Ġinc orrect
N OT
rape ut
}\ }$
ph abet
ĠEv ents
Ġconf usion
Ġappro ached
ĠG rade
Ġdel iber
Ġconcent rations
As ync
Ġdist ant
oth ic
ĠCh an
ul ates
Ġimm une
Ġd ivid
o j
Ġgradu ating
ars on
ĠP O
^{ [
ĠC oul
ore f
Ġplan es
Ġpref ix
im s
* \
ĠAgric ulture
âĦ ¢
ĠTransport ation
R ock
amb ers
Ġachie ving
P ay
ace ae
ist ani
ĠQ ual
Ġm amm
p atch
Ġmod ular
Ġstr at
Ġt ribute
ĠE M
18 68
Rec ip
ĠW onder
Ġm arch
Ġp eoples
Ġst opping
Ġass ists
make box
Ġ )$
Afric an
F IG
. (
Ġun ve
Ġcharg ing
ĠC urt
Ġfoot age
Ġrel ativistic
Ġassoci ations
comp onents
d if
Ġend ors
Ġprot otype
ran es
18 79
osp el
av ier
m itt
ĠB ear
Ġfit ness
ĠBre ak
Ġb read
ole cular
ĠT ang
18 77
sh a
ĠP resent
ot er
Ġun cle
Album s
land o
Ġcross es
ĠQu est
ĠTerrit ory
Ġconcent rated
ĠForm er
Ġprepar ing
Ġp uzz
ard i
W il
ĠSh ar
Ġ* )
ind a
ĠF O
Ġeconom ics
Academ ic
Ġsn ap
Ġinvest ments
Ġten ure
ĠNe il
ĠRe lease
g age
12 6
Ġnucle us
}( -
Ġaccount ing
ĠConserv ation
ĠCo ach
ĠC ome
ĠL is
Ġexec ute
Ġaver aging
Ġpsych ological
Ġcohom ology
Ġf unny
Ġdig it
Ġpar a
no ise
Ġ å
power ed
ĠNep al
fra ction
Act ive
^ +\
pos itions
Ġ\, ,
18 67
Ġadapt ive
g al
ĠC over
ĠDel aware
om pass
Ġpubl ish
ĠH ost
t ensor
ĠH im
ĠP L
ĠL isa
Ġper ceived
Ġinf ected
ĠFe ature
ĠL iga
ĠH amb
Ġoff ense
Ġem otion
Ġhand led
Ġro cks
J ose
y y
ĠF ast
umb ai
ĠApp lication
ĠSe lect
Ġfollow ers
C K
Fe ature
E conom
qu antum
Ġwar rant
Ġcitiz en
pp ers
Ġw orship
ĠM oz
Ġrem arks
ĠK in
d n
rat io
ĠF BI
Ã¡ s
G reat
ĠIn novation
ĠT ed
Ġlux ury
Ġhon ors
Ġev ac
Ġband width
Ġaud iences
Ġgold en
ish a
ĠV oice
ĠDe b
}^{ (\
Ġmuseum s
H F
Ġbelief s
c ott
Ġear ning
W atch
ĠD iamond
count ry
ĉ čĊ
ĠB Y
Ġlik ed
Ġdetermin istic
Ġmart ial
Ġt ut
ond o
ars ity
d al
c ustom
Ġal le
Ġth inks
ĠM idd
ach i
Ġreason ing
Ġenter prise
amp ing
Ġalign ed
Ġjuris diction
nold s
Ġmod ifications
und erset
~ {\
t z
ĠS alt
ĠB ris
Ġinter active
Ġrest ore
se lected
Ġactiv ated
Te am
it ious
3 000
ring ton
ĠD oc
fer red
uch i
ar ms
Ġdisc ount
ĠMarket ing
Ġsimpl ified
Ġqu arks
b ers
}$ $
Ġr ice
qu er
Ġ( +
ĠA viation
Ġcons olid
Ġmake up
Ġbr illiant
Person nel
Ġhas n
Ġh orn
und les
b ank
opt imal
W he
Ġpro secut
bl og
math ds
Ġque ue
r ift
el o
ĠC atherine
ac ular
18 71
Ġhar vest
ĠWat son
Ġmin istry
ethe less
d irection
ĠI celand
se en
ĠM ick
c opy
vol ume
ell ion
uck land
cknow ledge
ĠFil ip
Ġb acteria
Ġcert ificate
h is
ĠM ol
Ġdro ps
Ġin herent
Ġb onds
U LT
Ġconn ects
T our
ent o
ĠN athan
ber ger
ĠFil ms
Ġo verseas
ĠK ids
Rep ublic
ĠCam eron
In v
Ġstret ch
Ġdismiss ed
li ers
Ġt ale
Ġsummar ized
S ir
Ġburn ing
Ġox id
ĠJ ar
Call back
ĠTr inity
Ġult imate
depend ency
Ġhard er
da pt
ĠF ish
V C
Ġfail ing
Int eger
ĠA er
Par ams
B al
Ġspeed s
Ġmanifold s
e u
ĠHor se
") );
Ġvalid ity
R NA
Ġbroad er
ĠCom plex
ul in
Ġtrad ed
Ġal ert
ĠB egin
akes pe
Ind ia
ĠVenezuel a
ĠM ade
D er
Ġprom ised
Ġo s
ĠL oss
Ġatt itude
Ġun clear
Ġs isters
ĠCan al
K L
m ix
Ġfraction al
## #
Ġmethod ology
' (\
en os
ors ion
Ġimpro ves
Ġd otted
Ġm oon
ĠB esides
ok u
correspond ing
Ġb ind
Ġh itting
Ġsymp lectic
p end
ce ive
ĠĠĠĠĠĠĠĠĠĠĠĠĠĠĠĠ ĠĠĠĠĠĠĠĠĠ
Ġcap ac
Ġa est
ac a
Ġguarant ees
g ements
ĠPhilipp ine
ĠJ in
Ġelev ated
Ġt ips
at ra
ĠO scar
ĠTh under
W el
ĠM ig
al am
ĠR ah
Ġhop ing
ID S
qu ote
ĠM E
Ġmodel ed
ĠPun j
h all
ĠSym phony
Ġadv is
Ġexplos ion
r ators
pos itory
Ġshould er
ĠJ erem
ij i
ĠN ak
ĠD ol
ĠA ra
am y
St ore
akespe are
he v
con ver
Ġdeploy ment
ach t
U k
b rand
R ay
C ustom
Ġpres c
Ġfavour ite
Ġingred ients
text style
Ġcomm une
ĠInsur ance
Ġdiver gence
2 25
Ġgrand father
Ġst er
ĠTreat y
Ġperm utation
qu ark
big gl
C r
Ġcurrent s
Ġtreat ments
ugh t
rang er
Ġcommunic ate
ĠM aced
ĠH at
ar ound
ĠS oon
ph oton
ĠRoman ian
Ġmort ality
ĠB ert
ke ep
J ul
ĠCom merce
Ġencounter ed
ĠEx ception
ĠI F
5 12
Ġconsider ations
Ġrad ar
f ar
Ġdiv ide
ĠC itiz
Ġapprop ri
ĠSerb ian
Ġrot ating
}$ ).
Ġlocal ized
Ġche st
e o
Ġcl othes
il o
Ġor al
N orm
Ġpack et
En ter
um m
ĠChristian ity
Ġcol ony
ĠRec all
Ġferm ions
it ic
ress ing
18 74
Ġdo i
Ġb alls
ick et
symmet ric
Ï ĥ
othe rapy
18 72
Ġdis placement
Ġpers u
in us
ĠJ SON
est amp
Ġst eal
ex port
ĠDe velop
Com b
ene ath
ask at
ym ph
Ġcard inal
Ġincorpor ate
Ġinv alid
' ],
Ġload ing
Init ial
M ah
Ġv anish
ĠN R
Ġcl im
Ġb eta
Ġarr ives
ĠCroat ia
18 40
Ġfor b
own er
Ġac res
================ ================
ock er
Ġtrac es
ĠPlay ers
Ġopin ions
sh ops
ĠA ber
Ġaffili ated
ĠComp etition
ĠSt ream
Ġc ust
ur ated
ĠK ap
vent ions
Ġmer chant
Ġver ification
sp ort
Ġswitch ing
Ġmurder ed
ĠTe acher
Ġutil ized
ĠWeek ly
v or
Ġinher ited
app er
Ġa cknowledge
Ġtor us
hes es
with out
Flor a
Ġprov ing
f ive
ĠEp isode
Ġin ches
ĠIda ho
ĠS outheast
Ġreconst ructed
Ġscatter ed
Ġcompris es
ĠGl en
Ġsee ks
Ġeng aging
ĠHoll and
ĠH az
Ġm ines
ĠStan ford
N a
Ġin cent
ĠC ut
S ET
Ġpoll ution
em e
Ġbl ank
pr ises
ĠCh ang
Medal ists
Ġsubsid iary
Ġs ake
Ġb ike
ĠW ag
tr im
Ġ( âĢľ
B ound
ĠT rain
Sm ith
rag ue
v et
Ġ\ :
$& $
ont r
m aker
Ġext inction
Ġbank ing
B Y
Ġhand ed
] :
T ake
ĠN intendo
Ġprim itive
Ġenc oder
us ers
Ġm ice
ĠCo hen
it us
Ġ> >
Ġrepro duce
v m
): =\
ol ition
ĠS old
}{ $
Ġcomm ands
eg al
ĠS ales
ph ones
Ġdis orders
ĠJenn ifer
Ġp our
ĠR aw
ĠR T
Ġlong itudinal
P ER
Ġl oud
Ġbright ness
="../../ ../
Ġv e
vert ed
Ġlog ical
p q
are a
Ġcivil ian
Ġneur ons
xim ity
ĠP ain
Ġsum mit
Ġprem ium
Ġr ally
bo ys
bas ic
ĠAct or
ĠInit ial
w i
Ġview ing
Ġland ed
ĠE state
ĠSt ef
Ġbehavi ors
ĠMethod s
L ight
Ġt weet
Ġsp ont
sk a
Ġmanufact ured
Ġl oves
Ġend emic
Ġpreced ing
Ġoscill ations
ĠD ig
M ary
ĠM ik
he ll
ĠS oph
load ed
Ġdual ity
Ġmon op
Ġintern ationally
Ġin line
Ġgeodes ic
ĠCh ap
Ġaccommod ate
p f
Ġtrib es
ĠCamp us
Ġatmosp heric
u pt
Ġco at
Ġobser ver
group s
Ġconcer ts
Ġcent res
Ġs aving
ĠY a
Ġsett lements
Tax a
Ġm ad
Ġboard s
Hon ours
Ġd elta
ĠS creen
Ġ\\ [
M N
spec ies
ĠEx cell
) /\
Ġ ray
ev ents
Ġann ih
ubb ed
ĠS hip
ram es
ï ¿
Ġpat rol
ĠMult i
d ue
Ġc ave
Ġp ounds
ed itor
Ġall iance
Ġneg lect
Ġrecogn ised
ĠHis panic
Ġper cussion
ĠA F
Ġobserv ational
ac cept
-- >
Ġal ien
Ġac ute
Ġrel ate
ĠDe ut
Ġplace ment
á º
ann i
Ġbal anced
aut oref
p rom
Ġmer ch
ĠBG COLOR
Ġch ron
13 2
ĠCol lect
ĠB ody
ĠL ex
m ount
n ear
G T
ell ers
less ly
Christ ian
T ex
Ġed iting
Jew ish
ĠP ont
ĠY uk
ĠAv ailable
Ġg est
ĠK ol
Ġsquad ron
H a
Ġprint ing
Ġquarter back
the se
Ġb om
ĠAr nold
str ument
ĠOt tawa
ĠAd elaide
14 5
'' .
ĠI de
ERS ION
ĠAn im
iz ard
Ġfun eral
Ġmotiv ation
Ġassist ed
ĠUE FA
Ġclass ifier
Ġinteg rate
Ġdocument ed
p es
B razil
bigg r
Profess ional
sh ore
ERR OR
Ġproof s
Ġm oth
Ġconnect ivity
ig rated
ĠAir lines
ĠE sc
ĠS ultan
ĠS ak
ĠMunic ipal
ĠC hern
}} -
S un
Ġenc ompass
Ġthr iller
Ġco in
Ġsingular ity
at om
ĠHer z
Ġcy ber
US A
Ġt ape
he ld
by te
Ġsculpt ure
Ġhom omorphism
he art
H or
re ach
}) (
IM E
ĠPl atform
) <
ab is
G rand
ĠCons ult
' ))
G N
ĠCom ment
B ill
Ġcamp s
Ġint ra
I ll
J ECT
tra ined
ĠHar vey
to String
Ġfarm ing
ĠMax well
Ġinf antry
ĠG M
Ġpre t
zy me
ĠM s
ĠRes ource
Ġcompos itions
Ġsc iences
ĠM I
B it
pl ant
Ġobserv ing
Ġtum or
Ġup grade
mid t
Ġsoph istic
Ġplay off
ĠHeb rew
Ġconf used
J ud
ĠY ellow
3 20
ĠP os
pos al
Ġp ale
ĠD rama
F re
Ø ±
Ġdiff ers
ĠPers ian
gom ery
j ud
Ġin coming
ap or
ĠB io
i ya
Ġw ard
Ġb ay
Ġintegr ity
Ġhol omorphic
ĠCont ent
Cent ral
ĠL E
ĠPen insula
ĠPhill ips
Tem plate
Ġconstitution al
Writ er
ogen ic
k u
Ġj ail
ĠF riend
Ġcollect ing
15 5
in line
ĠCom ments
Ġatt ractions
Ġz ones
Ġpen et
h im
Ġf ed
X T
ell ows
acc ount
d c
Ġart work
Ġconduct ing
ĠH ob
ĠB eyond
t ons
ĠH ugh
ex ception
Ġch ip
Ġarr iving
ĠStat istics
}$ ;
ĠK ill
Ġmob ility
Ġcontroll ing
ĠNash ville
Ġm asks
$ =
s ys
ĠVal ent
ib n
\' {
ĠLe o
Ġcogn itive
ĠSp ot
Ġlie utenant
av ailable
ĠF at
ot ypes
Ġnob le
Ġtradition ally
h h
Ù ħ
Ġattend ance
ĠPalest inian
M aster
Ġed itions
ĠH em
ĠF antasy
ern ess
ĠW H
ins ert
Ġalleg ations
18 73
ribut ed
ĠTh ai
Ġsl ave
found er
build ing
ĠL oc
Ġamb ig
b ek
ĠD ennis
Ġinf ections
moment um
Ġdistinct ive
im mer
Ġaccept able
ĠS ustain
1 19
ĠCy cl
C ritical
S uch
w oman
sh all
ĠB ag
ey n
J im
Ġtempor arily
ĠP av
Ã± a
ĠAl ger
ĠAthe ns
Ġsimpl er
ingu ished
ĠAzerbai jan
Ġdet ectors
Ġprogram mes
V ector
Ġwealth y
Ġspecial ist
u ate
K O
P ublished
ĠM ul
ĠG raph
Ġdifferent ly
ĠAr c
ash ing
tx t
Ġalleged ly
R ule
m g
ĠT odd
Ġfl ags
18 66
Ġbar rel
F alse
Ġen abling
en burg
Ġed itors
Ġgrad ed
R ound
D etails
c n
M eta
Ġjo ins
el ia
Ġsk etch
u ine
Am ong
ĠS ierra
ut ton
tra ce
ĠBob by
W C
à¤ ¾
Ġsomew here
ĠR av
Ġper pet
[ $
g it
Ġtra iler
Ġgovern ed
Ġsust ained
5 000
L ead
Disc ography
ĠPlan et
ĠMah ar
Ġadjust ed
ĠT es
ĠInd igenous
Ġcell ular
ĠIm pro
ĠF ix
Ġdisp ers
in ced
Ġcheck ing
ĠHel en
ĠB ec
18 56
Ġorig inated
S at
Ġimp ose
Ġcycl ic
c est
Ġval ued
Ġad equate
Ġinaug ural
, âĢĻ
e lected
ĠR C
Ġbroadcast ing
Ġqu bit
{ %
}}\ \
Ġsub stance
ĠS or
Ġtra ct
Ġm eth
Ġaccompl ished
Ġc attle
@ {}
ĠPh ase
Ġattack ing
Ġfall en
fig s
Ġdem olished
Ġpass word
l iter
Ġf iring
Ġb ills
ĠPhil osophy
Ġcol ours
Ġscal ed
p olar
13 4
S V
N um
ĠI O
Ġqu oted
Com ment
ter ms
pp e
ĠSu ccess
air y
ĠLeaders hip
s pl
Ġassum es
const raint
w ent
ĠB eth
us ive
h over
ĠI o
ĠH ab
}} +\
ĠSc ar
ĠT as
Ġ ×
ĠUg anda
âĢ¦ ]
H ung
ie u
ĠAb raham
Ġregular ization
harm onic
Ġdro ve
: "
sub float
Ġburn ed
en o
ĠV ar
Ġen orm
Ġunder go
S yn
ĠH av
Ġt une
ĠL amb
ĠD eg
Ġle ver
, (
Ser ies
ĠShang hai
Ġcomment ary
Ġcyl inder
b les
Ġar row
Ġfre ely
Ġn inth
ĠR oche
ĠSt uart
M ot
Ġb ins
am med
un ique
b ird
Ġhuman ity
Ġlearn s
Ġdes per
Ġevery day
Class es
Ġtourn aments
ĠG ene
ĠP ent
Ġbus es
ĠĠĠĠ ĠĊ
ĠY ale
Ġcontest ed
ĠHug hes
Ã Ĺ
Ġdev ast
ent ric
ad min
' ,\
Ġachie ves
Ġch ances
ari ants
F rance
Ġbi ography
C ategory
Ġspeak s
ĠB ald
Ġpar se
ST M
Ġjoint ly
; /
ĠSy rian
Ġsusp ected
> ();
oc ur
ĠLe eds
}] $
s ig
Ġel ite
Ġsp ell
ry ption
b os
Ġutil ize
ĠAss ert
{ +
18 69
ĠMay be
Ġob ey
Ġrecommend ation
an che
f m
ĠHer bert
ourn ey
Val ues
ĠM B
Ġmist ake
M ale
Ġkid n
out ing
Ġper ception
Ġfoss il
Ġdream s
is o
Ġcyl ind
ĠF ly
Ġall ies
) ~\
add y
trans ition
hel m
ĠM ine
ar u
ĠE ve
Pol icy
Ġtreat y
Ġa ster
B a
ha o
Sw ed
ing ers
Ġevolution ary
ĠR alph
ĠArt ists
re place
h yp
met ric
par a
az y
ĠCon tact
C opyright
plement ation
er k
Ġg amma
Ġke V
Ġconver ge
ĠCP U
ĠS ey
Ġte eth
ĠInd ependence
ĠR achel
ĠAn imal
Ġpre vention
Ġcoinc ides
Ġf ate
ĠEn cycl
ï¿ ½
18 59
Ġbel t
Ġcomplet es
Ġfunction ality
Ġcommut ative
ĠPro blem
ĠIm port
Ġ\ #
Ġwor ry
ĠRon ald
e ur
Ġd ish
U ST
Ġal umin
Ġsc an
our g
Ġdefend ers
bu ilt
Ġdiscre p
Ġin ject
F ace
Ġpoor ly
Ġprefer ence
rie ve
Z Z
Eng ine
gra vity
Ġadvoc ate
Ġenthus i
tra ining
ĠWall ace
isher s
ĠA uckland
S ep
Ġdwar f
A thlet
est imate
ĠAm endment
Ġh ub
G H
ron es
ĠGl ass
Not ice
ĠW ells
Ġlif estyle
ĠLiber ty
d etails
ĠPalest ine
Ġlo ans
Ġswit ched
Ġbur st
Ġby te
i ref
ĠM atch
ĠCre ative
Ġim perial
Ġport s
Ġim plements
ĠSl oven
Ġpal ace
ĠRe ed
Ch annel
Ġtrans mitted
bro ok
ah a
ut a
00 5
Ġover head
Ġatt raction
ex act
ĠR ams
ri o
Ġaff ecting
ĠB ears
F ac
Ġy esterday
Ġd rain
if ice
Ġtra p
Ġpar ity
P ress
w rap
io x
ĠAddition al
D ouble
ator ies
Ġind oor
anc ers
| {\
In f
R oute
ĠS ox
Ġflex ibility
Ġproject ions
ry s
el astic
Ġfriend ship
Ġfore ver
Ġpack ages
ĠMil waukee
Ġag gressive
Ġ$ -\
_{ (\
ĠLeban on
Ù Ĩ
ish i
ĠS ho
Ġstructure d
ĠProdu ctions
s it
pl ugin
ex ports
G al
Ġconv inced
Ġf atal
ph ysical
M ember
ist le
Ġto ll
ĠG ov
roll ing
Ġvacc ines
Ġroll ing
18 48
Ġtra pped
Ġpair ing
C rit
ĠSh akespeare
Ġir regular
pl ugins
ĠV irtual
ĠBudd hist
ĠEd ge
Ġintegr ating
Ġpract ition
ĠArmen ian
ĠAm y
ĠO w
L ittle
Ġrad ii
ĠMe eting
Ġcon greg
ĠK umar
Ġinvestig ating
Ġstrugg ling
B ad
Q U
ĠAbb ey
Ġmetall icity
ĠM az
um my
Ġto kens
Ġpush ing
Ġdraw s
d ark
Ġdo zen
ĠGro ve
Ġvic inity
ĠFlore nce
ĠSy l
ĠV ict
ĠM ario
Ġserv ers
ĠA w
Ġpro xy
Ġvolunte er
ĠP att
Pro duct
it atively
iv ariate
Ġpat ron
at ile
C ard
M OD
Ġe leg
Ġcorn ers
}^{ *
Ġconflic ts
E s
Ġwe igh
Ġcoinc ide
Ġparamet riz
ht bp
G D
Ġenhance ment
ĠTh an
Ġembedd ings
Ġvacc ination
ĠR F
Ġmet abol
od ore
Ġbi ology
Ñģ ÑĤ
Ġpregn ant
Ġres erves
12 9
k ip
ĠHar per
ĠSud an
ah an
ĠM R
Ġflux es
eck er
ĠM ills
Ġsubsc ription
aren cy
U r
ĠResp onse
O bs
inst all
Ġr iders
pl ates
Ġep ic
leg iate
ĠB ak
), (
ah l
ook ie
ç ļ
Re ader
Ġimpl ied
Ġoverl ook
set length
Ġsal ary
Ġsimpl est
ĠRey nolds
Ġmod elling
sm ooth
Ġoptim ized
ach ment
x rightarrow
ĠN A
st own
Ġgather ing
ent i
Ġtour ist
Ġ[ '
Ġdesign ers
Recip ients
ĠArt illery
co ordinate
te ch
ĠĠĠĠĠĠĠĠĠĠĠĠĠĠĠĠĠĠĠĠĠĠĠĠĠĠĠĠĠĠĠĠ ĠĠĠĠĠĠĠ
Ġp icks
w ild
itte es
ĠÃ Ĺ
g us
* {-
c apt
ĠClin ical
ĠS ter
Ġlocomot ives
q q
Ġby tes
ĠG ust
\ -
c aster
ĠGal actic
S pr
C apt
em on
ĠCh apel
Ġagre ements
Ġsustain ability
Hand le
re leased
iss ible
m un
Ġisol ation
Ġoccur rence
Ġcon vey
Ġun em
Ġdiscuss ing
ig ue
vers ely
Ġconjug ate
Ġcon g
Ġbr ut
con j
Dev ice
ET H
Ġline up
Ġpath way
Ġpresent ing
Ġabsorb ed
ĠL ac
s outh
Ä Ł
G allery
clud e
Ðµ Ð½
}{ $\
L ee
Ã ī
ĠMed ic
Ġrec ycl
Ġmar ry
Ġaut onomous
ĠMar x
Ġexc av
ĠRod rig
Ġdip ole
ĠE mm
d an
ol ence
)) )
uss els
min ster
U B
ur ate
Con clusion
as ive
ĠSocial ist
ĠR osen
ose x
Ġ ell
Ġwild life
V ERSION
ĠG W
ess ment
Ġre nov
Ġprodu ctions
ex cept
Def unct
Ġdis ks
[ {\
ĠNor folk
Ġindic ator
Pr int
ĠColumb us
S eg
Con tact
ari um
ĠS Ã£o
ear ance
vel t
Ġdisestabl ished
Ġany way
ĠO m
z hou
Ġm ood
ĠD aw
ced es
b is
; <
Ġshall ow
ov sky
Ġrec alled
ĠVo iv
& +
ĠNorth west
he alth
Ġwe aker
Ġrefuge es
Ġbank rupt
Ġst olen
}] \
ĠB rid
ĠCom edy
ĠReview s
a qu
' >
% ),
13 6
Ġth rew
Ġin ert
ĠM umbai
ĠAn cient
l it
Ġre nown
ĠS oci
Ġsh aped
Ġauthor ized
Ġcorrect ed
13 8
ĠGerm ans
ipp er
enc ia
}, \\
Ġy ard
^{ {\
Ġs id
ĠS urg
ĠL arge
ĠM ail
ĠBir th
Ġfl our
Ġag enda
lect ric
der iv
n l
c ano
s elling
Ġaff air
Ġgrate ful
Ġlett ing
in ar
Ġcat aly
ĠR ena
ĠSi eg
Ġprov inces
W ater
on ce
d ie
18 57
Ġimplement ing
cho ose
Ġcomput ations
ĠEmer gency
Scott ish
Ġv iral
Ġafford able
it ian
ener ate
Mus ical
idel ity
Ġst uck
Ġautom ated
b ibliography
ĠS ent
N F
act ing
ĠO g
Ġprot ecting
d ra
b x
18 30
Ġenvelop e
ros so
AN T
ĠCirc le
ĠGener ation
M ur
ĠF an
P ool
Ġn ose
rec ated
ĠH ousing
Ġcol ored
Ġkn ee
ĠBy z
Fig ures
ĠL ay
) ~
ĠN ancy
h orn
ĠLeon ard
ĠPeters burg
u ador
ĠCap itol
$ ^\
Te ch
Ġmoment a
Ġseem ingly
i ov
ĠG ilbert
ĠPark s
ĠLat ino
S aint
g rim
ĠD oll
Ġon set
Ġrig id
pro duction
Ġcontribut es
Austral ia
Ġchar ter
P ac
De lete
mark et
ond e
ÑĢ Ð°
). $$
Ġsure ly
. *
Ġm ature
Ġdef inite
Ġachie vement
Ab stract
t c
Ġdescript ions
Ġjournal ism
Ġstri kes
Ġexp enses
Ġpoly mer
f b
am ation
C B
m etic
ĠS askat
e ah
Ġrun ners
ans k
s qu
Ġsp ir
}) }\
Ph ot
k al
m iddle
Ġindu ce
ĠBel arus
h agen
pred ict
( *
ĠI gn
os itory
ore n
Ġun ions
Ġobtain s
Bet ween
Ġreal ization
friend ly
ĠB ach
ess a
ĠCommunic ation
ed o
} "
Ġpro ximity
ontr ivial
Ġ< =
Ġpregn ancy
f urt
cm d
Ġf ung
ĠW inn
Rep ort
ĠE R
H H
ĠG amb
lic an
Ġcart oon
Ġsome how
c op
Ġsaf ely
nt hesis
ĠV ery
Ġ( *
Ġproceed s
ĠS K
Ġp ist
ox y
Ð¾Ð ²
S B
th ird
Ġgard ens
Ġn est
un ting
st ellar
00 2
ĠHar old
Ġad op
Ñ ĩ
Ġ\ }$
ĠAg ent
flu ence
ĠT E
sin h
aus es
Ġen rolled
ĠSing les
Ġnation wide
13 7
Ġeditor ial
ĠF alse
M ex
ĠHe in
Ġhistor ically
ĠDat abase
ad vant
ĠV ision
in j
Ġg ymn
Y PE
Ġshel ter
ces ter
ĠPar ad
Ġn ic
Ġf antastic
Dan iel
Ġto mb
ĠBroadcast ing
ant ics
Ġp ink
Ġtravel s
ĠSe pt
odes hip
Ġtele phone
Ġg aps
Wind ows
former ly
Ġc inem
Ġth ir
ĠInt el
out ube
ps y
sw ick
z ig
Ġchalleng ed
Ġt ent
}. $
Ġexponential ly
ĠS NR
ef ully
ĠVen ice
Ġfif teen
config uration
Ġgovern ance
Ġform ations
16 5
Ġac ids
ĠN N
c ity
ĠSp encer
Ġblock ed
ĠEX P
horiz ontal
Ġbuild er
aur us
Ġevalu ating
im en
Ġab ortion
N AS
ats u
Ġassess ed
Ġadmin istered
ill es
Ġmer ge
D ebug
Ġin clusive
ĠAh med
Ġpredomin antly
Ġ )\
ie v
id ays
Ġapprec iate
ou x
Ġsum s
cur ve
Ġbl ues
Ġsl ice
T reat
Ġhe x
ran o
ĠH alf
Ġem otions
Ġd ancing
Ġfilm ing
ĠWh ich
ĠTy ler
ĠF oster
L iter
Ġsp ins
osoph ical
ĠG az
ĠGab riel
ed ly
13 3
Ġsc reens
s yn
Ġtalk ed
Ġa thlete
P erm
Ġto uring
g art
Ġout lined
- {\
oe ing
Ġbranch ing
\!\! \!\!
am pton
is ible
ĠH ub
Ġb ubble
Ġtw isted
, ...
Ġadm ission
S end
So ft
Ġbe et
Ġrem n
Ġair line
Ġple asure
}} _\
big oplus
Ġnames pace
N ever
ĠCl aim
Can ada
Acc ount
ff ield
Ġdevi ations
Ġtr ump
ĠJ ung
e very
imens ion
Ġadvers arial
Ġman ages
Ġtri ps
ĠD rum
l ift
Ġsp at
Ġd ying
Ġle ak
it an
ĠSh op
ĠBenn ett
I mm
a uc
ĠPar alymp
Col lege
sc ribe
fra id
Ġfeed ing
h istor
ĠS EC
N umer
ĠG A
Ġimp ression
Ġpat ri
ĠEdd ie
Ġh ills
ĠInvest ment
r k
ĠD ictionary
ht b
ph ot
osp here
Ġarch ive
ĠPed ro
Ġic onic
Ġa z
ĠS ou
Ġcharacter ize
ĠHel p
itt en
Ġs its
Pro gram
Ġconduct or
Ġqu bits
En vironment
Ġmole cule
ĠFellow ship
-------------------------------- --------------------------------
ĠESP N
Ġexecut ives
P AR
çļ Ħ
Ġcro ps
ĠBulg aria
W alk
im o
h art
top rule
Ġharm on
sp ects
Ġlogarith mic
ĠR AF
class ical
ĠVoiv odeship
not ation
Ġhar ass
associ ated
cos h
Ġpres erving
Ġt ap
R oot
ĠWhe ther
G AN
Ġany more
] ^{\
Ġmaintain s
ĠD anny
cor rect
ic iency
ac ial
Ġadv ances
ĠTre k
Ġconsequ ently
ĠY O
st ats
Ġinsp ection
Ġcommand ed
Ġs overe
ĠGreg ory
ĠÃ ģ
ad ows
Ġc ad
er ver
Ġcur riculum
ĠOr lando
ar am
ri ke
ber y
Ġd ys
Dis play
B ay
Ġed it
Ġaddress ing
us c
atter ing
D epend
ro e
ĠInstit ution
Ġall ocated
rel ations
ĠO z
Ġf iscal
ĠE ight
Ġmyster ious
P DF
W W
å ı
I ts
ĠT D
ounc ing
ĠSt rong
oot ing
Ġkill er
s b
Ġal tered
Ġtarget ing
ve ctors
Ġn ights
fe ature
Ġtest im
Ext ension
Ġsub mission
Ġvis cos
ĠC V
Ġsuperv ised
ugg ing
Ġthr one
ĠDi ocese
Ġs s
ĠFour th
Ġarg ues
ĠK re
v v
boot strap
Ġc oding
ĠS ang
iffer ential
ĠWild life
Ġch apel
min a
ĠDec ision
comp are
Ġball ot
ll a
ian ces
Ġkeyboard s
Ġm im
ĠLin ux
Ġl obby
n atural
ast ics
Ġal pha
be it
z ens
Ġhomot opy
ĠR aid
Ġch at
Ġqual itative
Ġspread ing
Ġa viation
ec a
Ġsurve illance
annot ation
ĠD ame
ok o
Ġcut off
Ġw orn
cc entric
ĠAn a
ĠS hen
P ad
ĠMan uel
ys on
$ }\
ab we
Ġsp iral
Ġsupp ression
E nabl
ĠEm ma
Ġexp ans
est rian
ĠCong o
Lou is
ĠBay esian
Ġpsych ology
Ġaccess ed
Ġwork shop
ĠWood s
Ġdegener ate
any on
B ob
process ing
At l
ĠA part
Ġillust rates
= [
ĠC inema
un i
Ġanticip ated
anc ies
pr ising
Ġd imin
Ġt ribut
Ġer ected
Ġcancell ation
Ġle agues
)$ $
Ġa u
ec ca
19 2
Ġuns igned
or ic
m ock
ĠW ald
In valid
ĠCar r
Ġg aining
Ġconvers ations
l g
gra v
Ġb eneath
ĠJ ob
Pro file
t k
Ġexp ense
ĠGard ens
if iable
in ate
if ford
ĠPet e
names e
er ie
Ġj son
Ġcaus al
Ġreli ability
Addition al
Ġown s
ĠRh ode
Ġw eren
ĠSum mit
{\ '
ĠG ets
m ove
s ed
Ġsw ing
S cale
ĠM ull
Ġ+ +
ĠP H
ah u
Ġcatal ogue
Ġgu ided
Ġdraft ed
- $\
Ġrel ocated
ĠLuc as
G erm
M atrix
Ġe uro
St orage
ĠA j
iz on
Ġup set
Ġthere after
bor o
Ġdrum mer
Ġacknowled ged
ĠM is
end um
ĠAng lo
Ġsu ite
ĠTom my
}$ :
ĠSe bast
~~~~ ~~~~
und a
ĠMont gomery
Ġanom aly
Ġc emetery
Ġsubt le
per t
in is
Ġgrad ients
Ġs ang
ĠC SS
ĠChe ster
ĠMet al
Child ren
Ġback ed
M id
Ġfor wards
an ch
ĠP eng
ĠP apers
od ium
}} }{\
ĠEag le
ĠPhys ical
Ġut ter
ĠR ules
14 3
necess ary
Ġsp ur
Ġmod est
E A
over rightarrow
vel oc
Ġrot ational
ĠP D
Ġcompris ing
Ġsingular ities
ĠBet ter
ĠÃ ¢
Ġcreat or
? :
Ġop acity
Ġred und
Ġcook ing
Ġbackground s
Ġlegend ary
K im
Ġdeliver ing
^* (\
Ġexplo it
202 4
Ġra pe
Ġv in
Micro soft
am az
Ġwarn ed
n p
ĠFa ith
uis ine
h in
Ġcl ause
ĠPr uss
L ow
ĠMc L
ail ure
Ġ( ).
Ġresear cher
Ġpres erves
Ġs ulf
p al
Ġsoci eties
ĠJul ia
\\ \
EX T
Ġsear ches
ĠR us
Ġearthqu ake
Ġcomb in
Ġadj oint
0000 00
Ġisot ropic
Ġg amb
ĠT aking
Ġsc andal
G ra
par ing
Ġret reat
abil istic
unt ary
ĠD raw
bo olean
ĠS weet
Ġin ev
H aving
ĠEll is
ĠAst ron
ag ent
q ed
Ġk iss
ĠOther wise
Ġf o
M ake
Ġbelong ed
O l
ĠDr ug
d m
ĠP rison
ĠD y
ĠDer by
ĠO ption
ĠArgent ine
R ivers
): =
ĠT itle
æ ľ
Ġ( #
ot yp
ĠR s
Ġsh ar
ĠMus ical
ĠBris bane
l st
}\ )
Ġcomb ines
a uth
18 58
Ġdef ender
Bo olean
ose velt
imb abwe
Ġm ath
ig roup
ĠClark e
ĠA ub
ocol ate
ĠY an
Ġanxi ety
Âł Âł
Ġa fore
ow ing
n ell
sq l
con vex
the ir
Ġspec ification
ĠEr nest
Ġh o
18 54
Char acter
18 55
Ġin frared
en able
pro duced
ĠEm ploy
}} ^{(
Ġdemand ing
Ġn m
ĠG O
s olution
al ong
cont roller
i ab
Ġl ady
Ġesc aped
Ġpron ounced
Ġproceed ings
ĠHar bor
Ġlo ose
Ġsophistic ated
lic t
ĠL ov
R en
habilit ation
Ġl unch
ĠD ifferent
ĠAcadem ic
ĠHen ri
Ġconserv ed
Ġtext ure
ĠÐ ¿
Ġfol ks
ĠR uth
C N
P arser
Ġd ots
Ġce ased
Ġc ref
f c
Ġem igrants
T ri
n orth
Ġpredecess or
ex ternal
D id
ress ions
Q ual
Ġab oard
+ {\
)} =\
Ġstay ing
d v
Ġpit cher
ĠR isk
ĠIsa ac
ĠG and
ast ed
ed ef
Ġadd itive
f eed
Ġsever ely
Pr ivate
Ġw ars
ul se
f un
Ġb unch
ĠM T
Film ography
Ġqu ote
Ġdef ended
ĠP arent
ting ham
ĠGr ass
Ġconsp iracy
w yn
Ġpol es
Ġm apped
Ġal phabet
33 33
ĠS qu
ĠP rest
ĠX box
ĠArm ed
Th anks
ĠR S
Ġt ier
ĠDise ase
' }(
l ov
Ġlock ed
m agn
Ġl ag
Ġcompar isons
Ġreb uilt
to ol
Ġstreng ths
Ġexhib itions
fra g
ĠJo an
H op
Ġor che
X Y
R ect
ĠC I
Ġachie vements
s witch
Ġsur f
Ġport ions
g ender
Ġprec ip
p her
ĠT ong
ĠBro s
Ġneg lected
ĠEnter prise
n or
Ġextra ordinary
A pi
ĠPaul o
ĠIss ue
T HE
Ġque en
ĠNew castle
ĠW eyl
ĠEm ily
Ġc rop
ĠAdvis ory
Ġn ep
ĠL odge
Ð ·
ĠW ikipedia
Ġl akes
Ġapproxim ations
C opy
m ind
_{ {
Ġdoll ar
ĠL ed
Â ½
ĠVis ual
ĠL akes
it ars
H ouse
ĠP ink
p ublished
Ġfight ers
Ġanth rop
Mean while
B eh
ĠS ic
oc o
Ġprevent ing
Ġplay wright
Ġconstit ute
H uman
ĠP and
Ġpar as
ath i
orn e
Ġstand ings
Ġcompl aint
itro gen
ipl inary
th read
ust ers
att ribute
atin um
Ġc iting
Ġadv ised
ĠM Ã¼
Ġfif ty
Ġturbul ence
ĠLe ave
r arily
Ġl ig
Ġcalcul ating
Ġrenown ed
ĠD ir
im er
fl ux
Ġselect ing
Ġh ind
scal ebox
ĠR L
e eq
Ġch lor
Ġdiplom atic
Ġhard ly
ĠPal mer
}) ^{-
Ð ¹
h m
ĠG ang
d k
Im port
Ġconclud es
Ġbare ly
C ert
Ġout line
ĠWe ather
M ath
ĠN urs
In formation
O wn
prim ary
ĠW als
Ġvalid ate
act ivity
ĠK as
it ance
ud ed
ac er
Ġtim ber
Ġph ones
Ġmem oir
l r
Ġfrag ments
ĠB ent
Th ough
Ġsett le
Ġf isher
M il
+ $
Ġmac ro
ĠPlay Station
ĠJul ian
Ġpop ulated
oc c
Ġunder graduate
heim er
build er
ĠCont ract
ĠProgram me
ĠHop kins
Ġe gg
Ġlater al
Ġch apters
le igh
Ġsurviv ors
W id
ĠN ATO
be at
Ġmiss ile
Ġb acter
Ġcomplex es
bo at
ĠR af
ĠV eh
AR D
âĢ¦ .
Play ers
Ġrep ly
ĠT yp
item s
Ġradi ative
st ed
clud ing
J S
Ġst ocks
}. $$
ĠD h
Ġf ru
Ġas ymmetry
S a
Ġremember ed
S ar
Ġan ger
Ġbenef icial
che z
Ġconstruct ing
Ġgrad es
F oot
Ġinter change
Ġblock chain
Ã ¯
Ġ\, .
Ġsem if
T ool
ore l
14 7
ĠCh oice
p b
Ġemploy ers
ĠChel sea
, }
a que
Ġprevent ed
du cer
J on
ĠK ind
Ġev olve
Ġp ub
ĠN as
emph is
ĠD esc
Ġasymptot ically
pend icular
em ia
ĠDisc overy
Ġcon ce
Ġhop ed
ĠRay mond
Ġrep ublic
Ġinstitution al
LO G
Ã¶ n
d etail
ĠN g
Hen ry
? )
oy age
ĠSt op
OD O
and ed
ĠQ uality
Ġ" /
ĠC ann
alth ough
at ible
Ġmin eral
f d
Ġrow span
ĠG or
Ġsong writer
m icro
bound ary
ĠBrook s
Football ers
Ġtox ic
$ ^{\
13 1
Ġple ased
che wan
Ġab bre
Ġdest ro
leg raph
ific ant
pr us
az ar
ĠAr ctic
}$ ),
ĠBl ake
New ton
Ġafore mentioned
Ġprocess or
ĠH E
out heastern
' +
ut ral
ript or
z el
MA X
gener ation
ĠTr uth
Ġathlet ic
W estern
an chor
L ock
M ENT
20 8
pl atform
ur as
ĠV e
p it
16 8
ĠEx amples
y d
Ġodd s
Ġn inet
he ng
Ġlift ed
Enabl ed
ĠGu ild
Ġgen uine
ĠAssoci ate
a ft
ed i
play ing
Ġste pped
cons ist
}} )\
ĠCard inals
ur bs
ĠBrun swick
Ġp ig
Ġe ccentric
ĠExper ience
ĠM Ã©
Ġas h
Ġ' /
Ġsp anning
T er
ĠC raw
Ġcontact s
g tr
Ġvol leyball
Ġreform s
j query
Ġequival ently
Ġi i
IG HT
D ialog
flu id
col head
sh ifts
ĠK aren
ĠN othing
ess el
sc apes
ĠDe al
Ġhum or
Ï Ĥ
Ġdem ocratic
Ġre n
ĠCrim inal
ĠT ru
g irl
ĠV illa
resize box
bibliography style
Ġinc umbent
Ġdecor ated
Ġpost p
ĠRe ference
iat ric
Ġt rem
pass word
ĠIn side
ĠN H
system s
E mail
Ġn ontrivial
Ġtrav elled
ĠStrateg y
B road
Ġre write
Ġcre am
ĠAmb assador
ĠS ale
ĠB av
var pi
hom ogeneous
ĠHit ler
Ġrele asing
Ġb orough
i ens
Ġfood s
Jose ph
Ġform ulated
Ġflo ating
L arge
ĠR ule
ĠN J
Ġemphas ize
ĠH arm
Ġd ressed
Ġar rows
ĠR NA
Ġlegisl ature
Ġem peror
]{ ./
Ġan onymous
H ig
P et
ĠBat man
ĠRe form
y u
Aut o
Ġenorm ous
! )
] }\
ĠAll ah
Ġv ortex
ari us
P ers
Ġwe aken
Ġen zyme
Ġint rig
KE Y
m r
ĠC osm
] \\
Ġno isy
P ut
ne ver
sche ma
ĠT at
Ġbas in
Ġbar riers
ĠOak land
ĠPract ice
Ġrenew ed
ĠA chie
s al
Ġt uning
F s
n as
ar in
=" ">
opt im
Ġwithd rew
oca ust
Ġhot els
c amp
Ġ[ âĢ¦]
Ġdown stream
ĠTib et
R o
ir atory
ĠC ec
Ġviscos ity
Ġn erv
or bit
is che
ark er
en za
Ġmet adata
ĠEngine ers
Ġsign atures
Ġexpl aining
ĠSol utions
I rish
}= -
H ard
Ġcl an
ĠT iger
Ġd ining
Ch ief
oper ative
ĠCor p
Ġst up
N D
ĠV ern
ĠFran co
im an
is cher
ĠH us
ĠT all
Ġhon ey
P ref
ĠWell ington
ĠU ntil
ag g
A h
Ġfor ty
og o
Ġsk ew
26 0
ĠFig s
Ġdel ays
Ġtal ented
Ġillust ration
Ġcry pto
Ġv ig
Ġunsuccess ful
Ġw ore
Ġre organ
ĠArch bishop
Ġcon figure
F rag
ol ute
Ġpil ots
Ġrock et
O B
Ġdi abetes
L ab
st ead
ĠCh ase
IT H
3 30
Ġor n
Ġexperiment ally
h idden
Ġsuccess ive
}) :
Ġfle w
Ġconf ined
ĠDef ine
P resent
Ġdemon stration
Ġres il
Ġhous ed
Ġsl ower
Ġregular ity
ere k
Ã© r
V R
Ġstrong est
Ġ( .
di agram
Ġcrick eter
b inding
^{ *}
ĠObserv atory
Ġfar ms
ĠC ob
Ham ilton
wid get
reg ation
man uel
Ġco res
ĠR andom
Ġf ame
d ynamics
ĠBi ology
ĠDes ert
ic us
ĠCour se
ĠTechn ologies
Comp anies
Ġint elligent
Ġpass ive
ĠR oth
f ilm
ĠDiv is
ĠSpe aker
Ġrobust ness
D utch
ĠK rish
ip eline
ĠJ ak
Ġfound ers
Ġrecip ients
Ġun changed
Ġep it
M sg
Ġsport ing
I mp
Ġt we
}) ^{\
ĠN L
Ġsm oke
Ġâ ĪĴ
ĠRh odes
Ġimportant ly
Ġsc ar
Ġstat s
Ġsl opes
e i
ĠP icture
13 9
O H
ĠS witch
ĠP rague
to o
ĠR ice
Ġsub urb
ĠZ ero
Ġrele vance
Ġcomplic ations
Ġform ats
in x
ĠSw an
ĠKer ala
Ġw are
Ġcon form
ffic iency
Cl ose
ĠL HC
Ġacc idents
Ġphys ic
A li
Ġsw ord
D u
Ù Ī
Ġterror ist
Mart in
err ors
ĠIll ust
unc an
Ġbatter ies
Ġdiscuss es
Ġdivor ce
ĠPear l
ĠWars aw
Ġst y
ack now
ĠUS S
ieg e
Ġresign ation
Ġsl aves
ĠGra duate
Ġhyp ers
Ġ( [
ĠPer iod
Ġcollabor ative
ess ing
ĠS part
Ġc ere
con tains
C s
ne apolis
ĠDur ham
ĠPrinc ipal
X ml
~~ ~
Ġra ys
Ġneutr inos
ĠRo osevelt
ir med
c v
or um
Ġsav ings
Ġper f
ĠM ob
Ġw ishes
ĠN ine
Ch ris
ĠVlad imir
ĠM om
ĠMarc us
By te
ang ered
ĠÅ ł
Ġtrav elling
ĠC anyon
Th m
pt s
ĠVol unte
t oggle
Ġjud gment
ign ment
Ġqu ad
ar v
ĠĠĠĠĠĠĠĠĠĠĠĠĠĠĠĠ ĠĠĠĠĠĠĠĠĠĠ
Ġw ound
ĠCab inet
ĠAdvent ure
ĠDef ault
Ġcirc ulation
ĠĠĠĠĠĠĠĠĠĠĠĠĠĠĠĠ ĠĠĠĠĠĠĠĠĠĠĠĠ
` .
Ch arts
Ġadvert is
Ġdesign ation
Ġpe ers
ĠB anks
Ġgra ve
ĠN otes
Ġsk ip
14 6
Ġcount ed
Su ccess
ĠH ass
j ack
stit u
L java
Ġgl obe
bottom rule
ĠC ord
Ġmat hematic
ĠAct ress
ab c
ĠBas ic
S Y
ull ah
f ollowing
reg ister
R ender
and ro
Ġapproxim ated
Ġsimpl ify
Ġpun ishment
Ġpray er
ĠRena issance
Ġsuggest ions
Ġperturb ative
Â »
elect ric
DB LP
IT E
Ġencourag ing
ĠPo etry
Ġmes on
e igen
b org
app rop
Ġbre eding
S cal
ĠP ython
__ (
ol and
ĠG y
Â Ń
T y
ĠM illion
Ġbe ars
p ent
pat tern
Ġh ull
ĠS uff
18 52
Ġper pendicular
ĠLet ter
ĠP erm
ab ases
Ġin complete
Th ird
Ġp ap
ick ed
oc ene
Ġel dest
ing en
ĠCurrent ly
atter y
an z
Ġshould n
ĠKn ights
Ġh alt
Ġwrit ings
Ġsett lers
ath a
ar re
ugg ed
s ame
ĠM IT
ĠO wen
Ġsuperv ision
Ġf ires
ĠSher iff
ĠL iv
ĠS of
ĠC lear
ĠN EW
sp ot
ĠMc Donald
g ement
Ġansw ered
ĠZ h
U LE
âĢ ¯
18 49
ĠMal ay
Ġp orn
Ġbe aring
b undle
M ock
ill on
Ġdis ability
Ġdecl are
Ġmeas urable
ĠC B
C lim
S up
Ġwork shops
Death s
Ġcov ariant
ĠS ett
ibl ings
Ġeth n
ne um
ĠCom mercial
M ike
Ġmidfield er
Ġn g
m ask
ĠP rec
S QL
ĠSc i
al in
)) =
Ġbur den
L uc
ĠHol mes
Ge org
Ġalt itude
Ġcon ferences
ĠId ent
20 5
f ollow
ow ards
orig in
ĠB ened
om ar
ĠF lying
Ar gs
Ġavoid ed
xy matrix
ĠKe ep
28 0
duct ive
18 51
Ġdis band
E nergy
script ions
vis ible
Ġl in
lig a
Ġb ol
ĠE ye
ĠC ry
serv ices
Ġb ell
ĠM W
Ġw is
Ġmer c
Ġinfer red
te in
ĠK or
Ġle an
= }
ĠKaz akh
ĠFried rich
n ai
Ed it
ĠS aw
Met adata
ĠW ant
ĠO K
ĠLeg isl
ĠBo olean
AM P
ĠS cal
ĠD j
ĠV II
ith metic
ĠK yle
un ar
por al
ĠCh arg
les h
Ġen act
leg ate
You ng
Ġfle e
2 15
Ġl uck
ĠSh adow
Ä Ļ
ĠProduct s
Ġsubstr ate
Ġr am
In ternal
Ġmet ropolitan
Ġdepend encies
pro j
g as
inter est
Ġto ured
ĠT ampa
ch anging
o fficial
ĠCol in
Ġquant ization
ĠInit iative
Hel p
ĠThrough out
sc ience
Ġdepos its
Ġb tn
Ġveter ans
\ `
)$ }
Ġapproach ing
Sche dule
ol an
Ġpres ervation
Ġret riev
Ġwork force
Ġcal ibr
B on
ĠSur v
ĠMig uel
rosso ver
Ġsummar ize
ĠTh ank
Ġa xi
Ġamb assador
c ially
t racks
Ġcounterpart s
s ave
I AL
ron ics
Ġmet als
Ġsubmar ine
Ġsub graph
ĠInt roduction
em ption
Ġc razy
W ashington
Ġhonor ary
\" {
ad apt
F ollow
Ch apter
ĠGrand e
Ġmass less
Ġrend ered
Ġemploy er
Ġver b
ĠRev ival
ĠR ush
ov ina
By tes
ION S
ĠA ri
g iving
ĠB row
Ġext rap
raise box
Ġjav ax
ĠI M
Ġdetermin ant
rack ets
c ourse
m ons
Ġthere in
ĠEvery thing
Dep artment
Ġwork place
Ġperman ently
14 2
Ġpione er
Ġhand ler
Jo in
pre ced
Ġp sychiat
Ġrecon c
Ġwe ird
ĠL ak
Ġtom orrow
18 5
H ot
ĠH ack
oll o
ĠDav ies
Ġs ou
Ġnorm s
Ġare na
aw i
ĠF ighter
Ġimp ressed
Ġback ward
... ]
Ġdiv isor
sat z
D est
ac ional
iz za
on so
h ref
P red
ĠAll ied
Ġaddition ally
Ġinc idence
6 50
Ġdemand ed
ĠBry an
arch ive
ĠSh in
9 78
Ġ[ [
oy le
Ġb icy
18 53
Ġcha os
Ġen roll
Ġdies el
ĠMathemat ics
Ġun e
Ġtransl ations
Ġp iv
um ble
ĠJ ake
B rown
F red
ĠEXP ECT
b g
ĠLear n
) )$,
up iter
2 24
ĠSecond ary
c ert
ĠNiger ian
th row
) },\
Ġh ung
isc opal
Ġident ifies
Stat ement
ĠPal m
represent ation
Ġle verage
ĠMoroc co
c pp
Ġstre ak
ĠProtest ant
Ġl ov
let te
Ġgradu ation
n is
ĠN P
ast ing
ĠFran Ã§
Ġant is
T ABLE
Ġoptim ize
e cho
ĠE D
Al tern
à¯ į
Ġprefer ences
Car thy
Ġ' '
t v
Ġapp end
n ut
Ġa fraid
Ġsur ge
s ided
Ġreb uild
ĠMethod ist
B G
18 47
Ġvari ational
Ġrac ism
ĠNap ole
ĠT arget
Act ivity
in as
Ġcontin uation
rac es
vi o
lev ard
}; \
um ably
Ġpra ise
\\ [
ĠS ullivan
ĠEx hibition
ym es
^ *}
ĠM ang
ĠMaterial s
Ġdiagn osed
= $
cont rolled
Ġdram atically
di agonal
ĠBit coin
Ġun ified
}) }{
rab ility
us hes
Ġdesign ing
add r
Ġemp ire
Ġemer ge
ĠConfeder ate
ĠB order
V ir
ĠCle arly
n od
AT ED
S K
Ġcivil ians
a very
A z
sc ore
Ġacceler ated
ĠThe ore
Ġgl uon
Ġang ry
Ġgu ards
Pan el
Ġfurn iture
Ġaw ait
ĠA A
Ġun cover
act ers
H o
ib a
Ġre op
Ġb undles
ibl ical
e V
ado op
ĠP T
con e
ĠRe id
Ġb racket
key word
bur st
Ġincred ibly
ĠRep orts
ĠS ob
Ġviol ations
Sy mbol
Ġin ad
Ġlegit imate
Ġtransform s
ub le
f red
Â ±
ĠC ork
che l
Ġdiam ond
Ġcare ers
S om
Ġtr ig
ĠNot able
Ġcapt ures
ur istic
ĠF ul
t rain
Ġnovel ist
k ers
s chool
V s
Ġplan ar
Ġc er
Ġdevelop s
ateg y
k el
Ġapp endix
A x
ĠSh i
Ġdro pping
ĠU nd
Through out
ĠCh ad
gtr sim
ĠJerem y
T rad
song writer
ĠB ullet
Ġstrugg les
Sm all
Ġprest igious
Ġcan al
H aw
M arg
ĠTun is
ĠS ul
Ġprop ri
n il
Ġclean ing
ĠPlan ck
W ang
Ġdiscipl ine
u id
An alysis
Ġthermod ynamic
Cl oud
ĉ ĠĠĠĠ
Ġbos ons
Ġadv isor
ĠChem istry
Ġrespons ibilities
ĠV ers
J SON
ĠL if
Ġb ug
ĠHer ald
St ruct
Ġvis ibility
load ing
Ġcompl aints
m itting
Ġp unct
Ġt idal
ĠH ash
AR E
b ay
ost ics
ĠG rad
Ġvers e
Pack age
Ġr ic
l ived
Ù Ĭ
ĠM essage
Ġtechn ological
g ue
Ġlist ings
Ġh tml
con tact
Ġcycl ing
ĠChem ical
rapeut ic
ĠM aking
Label s
Ġwant ing
Ġst ones
Ġexc it
Ag ain
ĠN om
ĠPop ular
am as
ĠM iles
ĠWar riors
Ġrel ates
ĠDub ai
Ġdiss olved
M u
abul ary
ĠEc uador
ĠScot ia
Ġe V
ĠC ould
ĠD A
ant om
Ex pl
ĠTerm s
acknow led
at em
ĠHamb urg
s z
ĠOut standing
Orig inal
ĠAtt ack
Ġmand atory
prot ected
ĠG ren
ĠAng els
ĠN uclear
Ġme al
Ġp unk
ĠA ve
Ġgame play
ĠDou g
ĠPrinc eton
ĠEs sex
ĠC N
el ong
ĠAb original
Ġmot ions
Ġdisapp eared
ĠL ik
Ġstud ios
cle an
asc ade
T w
Ġsubgroup s
ĠCa uc
NR AS
inf all
14 9
Sc ope
Ġaltern atives
S ta
}{ !
Ġle ase
i ph
Ġr amp
ext ension
il ian
Ġdiagn ostic
( $\
oot s
14 1
Ġb ishops
Ġbe ams
Ġrun time
Ġch ore
ĠOther s
ĠPunj ab
ch air
âĢĿ )
H ub
Ġinv ariants
Ġt ram
Ġad verse
re b
ĠMan ufact
le en
fo o
ĠToy ota
ĠHe aven
Ġco herence
Ġjud icial
ĠTe V
ĠB il
Ġcompris ed
ct uary
Ġmaxim ize
L ayer
ĠPer th
ĠA ur
Ġper ipher
Ġconsult ant
Ġr ifle
pl ac
Ġhon ored
C G
M apping
ateg or
Ġb is
ĠTas man
vari able
ĠRet rieved
Ġnurs ing
ĠI SO
15 2
he nd
Ġcert ification
ĠV il
ĠF olk
utt le
ĠStock holm
T s
Ġperform ers
Ġ }(
ĠD escription
)} }\
Ġcab in
ol ith
ĠC rist
{ |\
en i
Ġpredict ive
Ġrob ots
Ġoverwhel ming
18 46
Ġre bounds
cor relation
Ġo w
Pol y
stan bul
Ġreg imes
ĠOt to
ĠBulg arian
s ix
Ġtri angular
rac ing
ott i
Ġartifact s
pro gram
Ġamb ient
er cis
ĠR A
Ġrect angle
armaceut ical
Ġres et
ĠCom plete
H I
t f
Ġb out
ĠI g
c ence
ĠMan it
F K
cl ock
ĠCoul omb
Ġw age
Ġf uck
ĠH app
Ġprof its
Ġstrugg led
ĠAng lican
ĠH ey
Ġclass room
ĠSp ider
ĠRevolution ary
Mod ern
the ore
Ġanten na
ĠK lein
Ġbeat en
}, $
H ave
Ġreason ably
Ġs lic
ov al
G reek
Ġr uler
eq q
ĠHe at
Ġg ly
Ġnumber ed
Ġanaly zing
C ities
` ,
op a
J ob
veloc ity
Ġdon ations
Ġmod ulation
Ġhelic opter
Ġturbul ent
whe el
V i
ĠBa iley
Ġexpl ores
g ap
ĠL ipschitz
ris k
Ġqual ification
ve ction
Ġrel atives
Ġdecl aration
inter pret
MS E
* {\
Ġwhe els
d dot
Ġphot ometric
J ournal
fore ach
ĠB rain
In c
Ġf ier
Ġvi able
ĠEn s
G od
kins on
ins ki
Ġfavor able
c ies
") ]
Ġcru ise
Ġmetall ic
B ern
J un
r n
Ġprom ises
Ġelectron ics
P a
i ago
ili ation
I ES
ĠShe ffield
RE E
yl an
ĠD B
Field s
ra its
O s
vert ical
Ass ert
Ġs ew
Ġb achelor
Ġre ass
ĠExcell ence
Ġinter cept
P Y
W ood
ĠEconom y
Ġcirc uits
Ġneighborhood s
er i
Ġs ung
Ġpro c
av in
Ġinstit ute
ĠLeg ion
a ude
sh i
){ $
Ġfaith ful
ĠD as
Ġcont our
Ġsec ular
Ġdepict s
ĠAl pha
}} ^\
Ġins u
ett es
ĠV A
ĠI BM
14 8
ĠH aven
ĠSand ers
est e
Ġd ictionary
Ġpri ests
Ġpack ed
Ġbreak down
ce q
us a
Ġtour ists
, +
Ġun anim
Ġrenormal ization
Ġn od
Ġpro sper
Ġdescend ants
im edia
Ġsqu ared
Ġaccept ing
c ock
ph ib
ĠEv olution
Ġcar b
Ġcul min
ĠK arn
intend ent
oper ation
Ġassert ion
Me V
p n
ĠSol omon
Ar gent
ed ges
am ous
Ġprot agonist
5 50
Ġaffili ate
Con clusions
ĠE L
ĠRe ich
Ġlimit ation
ce ased
Ġindic ation
Ġacadem y
Ġparticip ant
Ġweak ness
Ġlock down
ĠI v
it ary
Ġam ino
Ġle ather
Ġap olog
aver age
C ost
Ġp upp
ä º
ĠTan z
Car l
Sing les
Ġde form
å ¤
Ġrecru ited
l brace
S ound
m ot
ĠC IA
all a
ĠAss umption
exp ect
Ġl on
m ans
Ġr h
Ã Ĥ
ĠPer haps
Ġp ec
the me
G aussian
| }{\
Ġtre ating
en eg
ĠIndones ian
Ġtel escope
Ġbuild s
ew ard
Ġback up
Ġincre ment
_{ |
ho o
U ID
es a
ĠAr senal
st eps
Ġcar riers
ĠP owell
Ġt enth
Ġrem ix
ig ator
Ġarbit rarily
Ġtrigger ed
ĠAssoci ated
Ġl ane
Ġnut r
ĠR ole
Col umb
Int eg
per formance
ĠSaskat chewan
equ ilibrium
ĠBi ography
ble ms
Ġi OS
ĠS ect
at omic
ĠB od
ĠC risis
Ġh ire
15 8
ĠPan ama
Ġelder ly
Ï Ģ
Ġhero es
Ġkill s
Ġsp okes
ĠBos nia
ĠF ashion
Ġann ex
ĠLet ters
Ġf ut
Ġearn ings
Ġdead line
Ġdec oder
Ġsurg ical
E G
ĠC rystal
nt ax
ern els
A rea
ĠJ ourney
Ġpric ing
Ġmultiplic ity
)$ )
open hagen
ll er
ĠF emale
ap a
ĠHe ights
Ġemb ark
Ġ\| _{
ĠSw ift
ĠYank ees
Ġb esides
Pro b
ts d
Ġment ions
S oviet
A mb
Ġsp ite
ĠF actory
Ġpro gression
Ġsup erm
charg ed
ĠComp anies
ĠMer it
Ġpredict s
ĠL ives
Ġmark er
Ġfib ers
le z
ĠTw enty
ĠS V
Ġle ts
ern er
ĠSh ield
g overnment
Ġdepart ed
ĠL or
Ġan ch
Ġcomplet eness
ĠL it
ĠCon st
ĠAbd ul
Ġt ags
ĠOrig inally
p olit
B egin
omet own
as se
The ir
Sim ple
Ġthrow ing
Ġcollabor ated
Ġpart itions
m ak
ĠIraq i
com parison
ĠJac ques
ĠCy prus
C art
Ġen larg
Ġbl ame
ĠC e
ĠL ok
ĠIn ternal
Ġcum ulative
Ġlink ing
ov ic
Ġbatt alion
Ð ¿
Ġp ipe
ĠBr ussels
Ġob s
Ġdomin ate
} '$
spect rum
m any
t p
m ology
ĠM ead
ing o
n st
Method s
ra ising
ĠCroat ian
pot ent
Sim ilar
ĠAr g
Ġadm issible
Ġhist ogram
Ġb ipart
Ġfactor ization
ercis es
Ġrefer ee
Ġsent iment
Ġtransport ed
ĠRoberts on
ch ief
man ager
ĠWest minster
}}{ (
Ġl apt
ĠDirect ors
ĠU P
att ices
int rodu
F lo
Ġb ats
By Id
Ġter rible
ess es
ib e
Ġsur pass
Arg ument
D iff
olog ic
algorithm ic
Ġle x
ers hire
Ġd ash
Ġl as
h p
ers hip
ast ro
Ġcomp lementary
d ated
bat im
G rid
ĠSt yle
L ower
g auge
ĠJess ica
ĠD I
ĠAb stract
P ak
ĠArm strong
). $
16 7
Spec ies
Ġb er
Ġhe aling
16 6
ma jor
ĠIndian apolis
el in
W F
Ġliter acy
ĠSalv ador
ĠD im
Ġmark ing
ĠChar acter
ch y
36 5
ĠC ool
he y
Ex amples
w d
De velopment
ĠMin i
rest rial
g lyph
Ġabund ances
Ġs ailed
Ġc ant
sc ious
Ġfilter ing
Sc ience
^* ,
Ġdepend ency
Ġfra ctions
ĠPod cast
Ġkilomet ers
Ġr ises
oy a
ĠTo o
ĠT ennis
ĠĠĠĠĠĠĠ Ċ
Ġinteg rable
}\, ,
es ar
Ġincorpor ating
th us
Ġexperi encing
Ġpolar ized
pt a
Ġex ports
ĠC areer
Ġwarm ing
coll apse
n ucle
Sh ould
Ġphil anth
R oad
ount ers
ĠNetwork s
Ġtri o
ĠGl obe
Ġcur ved
ĠEncycl opedia
Ġdebut s
Ġ ul
L iber
Ġf u
ĠLe ad
() {
y on
ĠB L
ex amples
found ed
gl s
f x
Ġpurs uit
ĠBrad ley
V an
ĠSus sex
l attice
ass o
Ġreflect ing
Ġbad ly
arg ument
w ere
ĠE ST
Ġion ization
supp orted
b v
-- \
ĠG ent
Ġt ar
ĠViet namese
Ġref ined
Cal ifornia
ĠD ale
Ob serv
ĠF ollow
rad io
ĠTreas ury
ĠH ait
al go
Ġshe ep
sm ith
= &
Ġd ump
by e
.&.& .&.&
unc redited
ĠConc ert
ad ier
ĠEvent ually
IS E
Ġdisc overs
Ġcust ody
Ġsim ulate
pol icy
Ġutil izing
á ¸
Ġund ers
Bas ic
Ġreven ge
Ġinvest ed
b eq
Ġevery body
um ph
Ġpat ches
Ġrevolution ary
em er
ĠW ol
It ems
ric ia
tr igger
Ġgirl friend
Ġtoler ance
ĠM ale
Ġch icken
ĠS ometimes
Ġend point
ĠStev ens
Ġfro zen
c ro
S ol
Ġtru cks
S ex
l vert
Ã ½
Ġro d
ĠEmb assy
O k
i q
ĠIs le
Ġdis rupt
With out
Ġcal m
K A
De ep
f lex
Ġcle ared
Ġ Ã©
ĠStand ards
Ġflood ing
Ġm a
ĠO ber
Ġcryst all
ĠM eta
preced ented
Ġunder went
Ġhom ology
Ġrepl ied
ed e
que ue
at ility
Const raint
ec onomic
Ġsimilar ities
Ġless er
ar ians
ĠS amsung
ĠIn cre
Ġcont amination
ĠO st
[ ]{
h on
ut ers
ĠM atter
L es
ir ie
fl ag
Ġpur ple
rest rict
Ġhierarch ical
d g
ĠA bs
Ġg ig
ĠSt atus
ĠZ imbabwe
Ġtrans c
emb ourg
Cent er
Ġto b
pt ons
ring e
aj i
AS H
Ġd b
F iles
Ġpro sec
Ġtra ils
}} }}
ĠSch r
F uture
F D
Ġm aj
Ġinter faces
ĠCont est
N ormal
ĠT ell
ĠEngine er
_ ;
ar ab
Ġl ith
Ġm eter
mat ory
ĠP orter
Ġres umed
Ġpro spect
ĠHind i
Ġsh oes
ĠC i
Ġfor um
u o
ĠF ras
run ning
Ġanal ogue
Ġstat istically
Ġby pass
rac ed
av ian
ĠO P
Ġ" [
Count ry
% %
Fl ow
ĠNot tingham
ĠJama ica
Ġinterp olation
ĠL t
ig i
Ġdo zens
ĠT ik
ĠLind a
Ġnick name
ĠI sh
ast ically
Ġmon astery
F ort
c as
J oe
sub ject
ĠCle an
in sp
), \\
ĠByz antine
Ġs ink
ogen esis
Ġdes irable
Part icip
Stand ard
[ :
at ta
ĠEthiop ia
od ia
Ch anged
ĠRichard son
Ġev olving
ĠA way
ess ages
multip ut
sch ild
15 7
Ġto y
ĠLore n
z yn
on ial
ĠD etails
Ġnation ally
under brace
15 6
Ġem power
Writ ers
app ly
en es
Ġgent le
Ġp owder
weight ed
Ġmind s
ĠKash mir
ĠCon fig
Ġepoch s
ĠPl aza
Ġtre as
b ol
Ġst ays
}} -\
ĠKenn eth
Ġt ong
Ġbox ing
ĠAud io
p ag
m aps
c u
ĠMin neapolis
ĠPublic ations
Ġp ending
Ġn urse
ĠW end
Ġsl ide
com fort
iff e
Î ¼
Ġspec imens
Ġindivid ually
fl ows
ag le
Ġavoid ing
Ġm ere
ĠSim pson
ĠColl abor
w ear
V ictor
Ġm sg
Ġleg ally
Ġtermin ology
Ġinf ect
Ġmut ation
ĠWil helm
rosc opic
Transport ation
cor r
ĠQ atar
Ġter rain
ĠCa uchy
Ġanisot ropy
18 45
ĠArmen ia
ĠAut om
C hen
Ġ" "
Ġenc ounters
ĠR ut
Ġtrans fers
Ġc uisine
Ġv ow
ĠA ires
Ġarch itects
ogene ity
b rowser
ĠH appy
Ġcomm enced
ĠDev il
J eff
ĠPro gress
Ġh anging
Ġwar fare
2 13
G overn
ĠTour ism
Ġoccas ional
Ġnerv ous
Ġc ens
Ġsignal ing
d ens
pg f
f re
Ã ĥ
Ġ ],
Ġde alt
ĠV a
que z
Ġ$\ |\
r ub
Ġout lets
Ġt orsion
amp ire
abl o
ev olution
Ġdel ivers
Ġf aint
Ġlab elled
Ġb ab
eg an
Ġannoun ces
Ġexc itations
ĠT ry
ĠAndrew s
ĠRiemann ian
rid or
F ictional
00 3
y t
b eck
Ġp aired
å ®
ch in
ĠPot ter
Sh are
ĠGen eva
ĠGe off
Ġaccording ly
Ġro ok
ĠPart icip
Ġpl ug
W D
ĠTrans it
ill ary
ant le
Ġexcept ions
Ġinv ented
om al
Ġpost ing
N I
T aking
Ġl ighter
ĠEll i
Ġhom eless
Ġcomp ass
ut able
==== ==
ĠChe v
ĠC av
Reg ular
Ġtend ency
Ġkn ot
Ġmed i
Ġcomed ian
Ġdef ects
L ag
Ġtrad emark
ĠN ormal
Ġen force
iz ational
stit ute
20 4
ip se
ĠSh are
p ub
ĠH i
Ġcor ps
ich let
Ġconstitu encies
en ic
Id entity
Ġreveal ing
ag ain
ĠM old
r brace
ass umption
er als
re ason
is ors
ho e
ob ic
F G
ol ics
Ġgu itars
Ġpian ist
ĠCele br
R ank
ĠCoal ition
Ġres iding
Ġcelebr ity
Ġrank ings
Ġfre ight
RE AD
Ġtact ics
S to
et erm
ĠK w
{- }
Ġle pton
Ġcont raction
B ER
Ġestim ating
Ġkid ney
cell color
do es
Ġmin us
ĠBurn s
ar is
ĠA ges
un ivers
c ats
Ġs iege
ant is
Ġdraw ings
ĠAgric ultural
G Hz
sp eaking
ĠInd ies
t aking
æ ĸ
ĠMan ila
M NRAS
ĠM emphis
Ġtra uma
end ors
im i
Ġtrans ient
ĠB ound
x s
Ġathlet ics
ĠBrand on
Ġcoord ination
Ġassemb led
ĠR iv
ĠÂ ±
Ġc ig
ĠG em
ĠB ran
Ġinv ersion
orm s
k now
ĠFl ash
ĠHend erson
ĠArch ae
method s
15 3
c orn
Ġconc urrent
Load er
Ġlaunch ing
âĢ ł
IN FO
Conn ect
sl o
f itting
int age
inc ar
ĠN ode
ĠK ang
Ġgl ad
I reland
Ġse am
Ġtrans cription
Ġra infall
ĠDist ribution
un ion
ĠPresident ial
Que ue
ĠC os
ab b
ĠLou ise
enti eth
y ang
ĠB in
Ġtrust ed
ĠK urt
F ire
iling ual
ĠJam ie
Ġdial ect
ĠP itt
Ġinter im
20 3
Ġtriang les
Ġdegrad ation
resp ons
ĠR ather
15 1
Ġche ss
Ġelim ination
ort ium
Ġmot if
Def ine
Ġmo ist
ĠC ategory
ian i
Ġco arse
Ġcou rage
umber land
p u
fer m
å Ń
Ġa per
Ġrandom ized
And rew
Th ank
ĠBr as
. __
ans om
Ġde leted
Ġrect angular
enz ie
ĠH ood
pt ical
ĠWy oming
n om
å ħ
Ġbow l
Ġcourt esy
al gebras
Ġneighbour ing
R ugby
Ġpr ince
ĠM N
eg ovina
"> &
Ġcho ir
to ols
ĠCh in
uck et
15 4
en abled
Ġbomb ing
m ile
ĠG B
part icular
trans fer
Ġarchitect ures
Ġco h
tem p
mark s
om ers
Ġreconst ruct
ĠWrit ers
b ys
Ġdis advant
Ġfin ancing
=" @
ĠD ow
ĠForm ation
B rand
j ournal
CL A
Ġevent ual
ĠTes la
Ġcomp ly
Ġpres cription
A BC
res olved
ĠPut in
ex istence
Î »
Public ations
18 37
M att
od or
16 9
Ġgram mar
L anguage
Ġp ocket
Ġpath ways
Ġemb od
w y
Ġtor que
H u
ĠT X
Ġemer gence
ĠGram my
Ġreleg ated
Iter ator
Ġc otton
ĠW ire
ĠLuc y
Ã© g
ĠReg ulations
Ġdis hes
C ong
ĠD in
ĠDist inguished
Ġinsert ed
Ġtouchdown s
Polit ics
R ole
Ġpit ched
Ġtrans cript
Ġsac red
ĠCh uck
w ould
% ).
im pro
] }$
Ġcl ay
qu est
ĠTh ink
ĠJo el
mont on
Ġconcept ual
ag ne
dec l
Ġwra pped
Ġelabor ate
A gent
ĠFran z
Ġlat ency
Ġmist akes
.\ ]
Ġdiff e
ĠChief s
Ġener get
ep age
ĠUS D
Ġopp osing
ĠSim ple
Ġnom inee
ap est
ĠMichel le
Ġman s
Ġmag ical
Trans action
S elf
re lease
Ġfinal e
][ '
ĠRom ance
Ġbi om
Ġrev ival
o qu
Ġpro ps
Ġport al
Ġflo ors
Ġd ad
ĠJ i
ĠApp lied
ĠInit ially
Ġton ight
j ee
ĠF DA
f ri
exp ression
Ġst unning
rit ies
Ġhold er
st en
ĠA post
Ġgen res
Ġcrypt ocur
Ġs iblings
st roke
Ġd ock
ĠE t
ah ler
Ġconscious ness
ĠJohann es
ĠT ales
Ġse ized
50 1
Ġfix ing
Ġv ort
Ġinter ventions
Ġhand ful
Ġtow ers
r ceil
Ġr ivals
colon eqq
Ġvict ories
Ġpersp ectives
M AP
ĠN FT
ĠFig ures
Ġce iling
Ġc avalry
Ġcler gy
Ġcontext s
ĠML B
ac iÃ³n
unt ed
Ġreg ulated
Ġurg ed
ĠRequ est
Ġse al
m ov
Ġso ap
ict ions
ĠL eop
by ter
ogn ition
ĠH off
ĠProv incial
Ġinterview ed
Ġmorph ology
Ġdisestabl ishments
I sl
J P
Ġide als
form ula
ĠLaw s
ĠPak istani
Ġwitness ed
am oto
_{\ {
ĠCub an
ĠBou levard
ĠPsych ology
Ġaccompany ing
v dash
ĠAct ive
ĠTreat ment
FA ULT
Ġ\\ \
Ġra ises
ĠMod els
ass er
r v
Ġcollaps ed
ĠC openhagen
Ġ& -
rypt ed
Ġst iff
le ys
is ive
Ġeth ical
web pack
Ġpo inter
ĠH ir
ĠMus k
Ø§ ÙĦ
ĠPro b
Ġcitizens hip
ĠHe ath
il ion
38 8
ĠIndust ries
ĠG OP
Ġtermin us
s il
Dat abase
ur an
geq slant
the o
Ġprof ound
A st
)} ]
Ġperm its
Ġinduct ed
Ġg ods
Ġf ears
ra k
Ġfar mer
og ical
is le
log ger
at um
)- (
Ġk ernels
drop down
Î ·
ĠBer ry
ĠAll an
ĠFl ag
ĠGu ang
y g
Ġhol idays
b ial
Ġsil ence
ĠLegisl ature
ĠFrank furt
ĠSer ver
ĠStart ing
ĠB ever
Ġdec ou
1 200
)$ ;
equ ivalent
Ġmand ate
18 12
d ependence
Ġmon omial
ĠM otion
Ġundert aken
Ġb if
St age
ĠCurt is
Ġreg ards
H ouses
ĠA id
Ġlack ing
Comm unes
al one
Ġupgrad ed
Ġsens ing
Ġdef ect
Ġo mitted
ord e
Ġemploy ing
Ġpre view
Ġcreat ures
/ "
Ġsm ile
}) +
Ġf unc
Ġar ithmetic
bal ance
st re
Ġconduct ivity
ĠPatri ots
Ġmagn itudes
M ov
( !
I J
alk eeper
ĠG Hz
pl oys
Ġk ings
ĠAnd rea
Ġarchae ological
Ġn aming
Ġen v
ab stract
Ġtra ged
ĠC ay
ĠAdvent ures
ĠSol id
f its
Ġb otan
p ic
ĠGl enn
ch art
ĠP am
n ick
ĠPl ate
Ã§ Ã£o
Ġminim izing
Ġsatell ites
s burg
ul ers
Ġcapt uring
Ġeffic acy
Ġadminist rator
| }\
Ġsl avery
Ġposit ively
Ġra pper
D eb
ĠCorn wall
ĠP irates
atern ity
is ure
Ġgra ins
no align
Q CD
we i
itt ers
ident ial
Ġax es
Ġtob acco
ĠD uncan
Ġcl arity
Ġsu ited
Å Ľ
ĠDec l
Ġpick ing
h ide
ma xim
}} %
Ġuniqu eness
comm ut
On line
Ġrel uct
Ġdimension less
- )
ur c
Ġun fold
ĠGib son
Ġoscill ation
ynam ical
Ġinvert ible
Ġlast ing
}= -\
Ġrecept ors
co e
Ġproduct ivity
Ġtem ples
( (\
Ġ um
Ġra id
j j
ĠQu antum
ĠMerc ury
med ium
Ġcrit ically
T urn
Ad apter
Ġtransp arency
bl ank
ĠCon cer
P rem
Time out
Ġnom inal
elect ron
Ġround ed
ff icking
Ġnews letter
ly mouth
s el
k le
ĠBu enos
ĠMer cedes
Ġtheat rical
Ġunve iled
ĠMem ory
ur red
Ġeth ics
ĠG rowth
ĠMaur ice
-> ]
}: \
ĠRest aur
period ic
Ġdeter ior
Ġal arm
ope z
ĠGi ov
ĠPop ulation
18 44
Ġsculpt ures
Ġhe li
Ġs our
ĠL ar
17 6
ĠGu ards
Ġaer ial
Ġanomal ous
Ġd ubbed
Ġcasual ties
ĠYugosl avia
Ġmon ster
j ob
Ġsub stitution
ĠSom erset
Ġprompt ed
Ġd ent
Ġm aid
ĠF lem
ĠX X
C NN
am matory
Ġoblig ations
ç Ķ
role um
ĠTh r
AD D
Ep isode
C ulture
Ġb ones
Ġh iring
gl ass
I EEE
Ġext inct
Ġun lock
ĠH aus
ĠWag ner
and i
rel ativistic
Ġp el
ĠTri ple
ĠH ern
per cent
ĠM uk
^* _{
ĠLyn n
Ġde cent
TE ST
N ick
n odes
Leg acy
Ġinvent ory
Ġinsu fficient
ri ans
fam ilies
Ġgl uc
N atural
l c
ĠC ort
ul g
* )
J ava
K M
Ġsupp ress
Ġtack les
Ġc ris
Ġfre ed
Ġwitness es
g ary
ell ular
ff ff
OM E
ĠK err
Ġpair wise
ol ate
ap ur
ed ar
ion ic
ĠT error
ik er
ĠDev on
ian e
Ġprison er
y i
ĠP f
Ġsimultane ous
rg b
E ducational
ĠQ ing
amm ad
ol er
c ia
com ed
oc cup
ĠU I
Ġvirt ue
l ceil
Ġw ors
16 2
Ġpr ide
P ATH
Ġl ymph
As ian
ĠHol ocaust
check mark
ri ent
Ġin jective
ĠAh mad
Ġcolon ies
Ġpresc ribed
Ġreg ret
ĠG ross
Ġillust rations
Ġwid ow
ĠH od
in her
ĠV acc
Ġstat istic
Clim ate
ĠN u
r ases
ou ter
am on
ĠW ak
}$ &
im ag
ĠSch warz
ass ets
Ġimport ed
Ġwor ried
col lection
symmet ry
Ġtestim ony
33 3
h adoop
Ģ Â
IN S
Ġcor on
Ġc f
ĠSh ore
ĠA U
ĠSt ructure
Ġfl ank
)) ^
Ġwithdraw al
Ġhaz ard
) _\
Rec ent
ĠCl aud
Ġf ights
th ood
Ġint ensive
Ġloc als
........ ........
ro tt
Ġre wards
Ġman ually
Ġrenew able
V V
Ġ$ ^
ĠFilip ino
ĠC ash
Ġs ack
ĠC lick
ĠJes se
ĠA u
Per formance
ĠBaron et
A sh
Ġ ip
ĠW R
iver y
ri ages
Ġsuccess ion
ft en
sc roll
ĠJ unction
m us
over view
Ġbott le
an ium
20 6
ĠTr in
rit z
ĠPan el
ĠHerz egovina
pl aced
ĠClass ical
ij a
Serv ices
Ġworld s
Ġpropag anda
Ġaccommod ation
)\ |_{
ĠBarn es
ĠIn g
18 20
G I
Ġhar sh
ĠHur ricane
un al
Ġmut ations
clip se
- ,
f p
k ok
ĠC yr
rel im
Ġshell s
ĠN HS
ĠHy per
() ).
art a
Ġstart up
Ġn itrogen
ĠPre vention
Ġm akers
Ġanalog y
Ġ[ ];
App ro
Ġt uned
ĠN atal
ĠS equ
Ġe y
Ġreal m
u ating
ĠA ch
Ġbary on
ĠK ab
Down load
A mazon
ĠDem ocracy
Ġif f
. <
B rowser
We ight
Ar thur
Dem ocratic
Ġpurs ued
ĠS ever
Ġmotor cycle
F ive
Ġam end
ĠÂ «
ĠĠĠĠĠĠĠĠĠĠĠĠĠĠĠĠ ĠĠĠĠĠĠĠĠĠĠĠĠĠ
Ġdat abases
Ġqu it
l ore
Ġbreak fast
Ġprohib ited
16 3
the m
22 2
Swed ish
ud s
ograph ies
Ġprot ective
Ġattack er
$ ~\
v ac
Ġre he
ĠEff ect
15 9
ĠCel tic
mod ern
ĠMov ies
D igital
h urst
ĠE g
Ġh iding
ĠF eder
ĠMc Carthy
Ġsequ ential
ĠSant iago
ced ure
at able
=" "
Con struction
Ġdis par
Ġph armac
ĠEl se
ĠDomin ican
ir ate
Ġk g
}\, .
ip ur
ĠP ok
J ean
ien ne
and ez
scal ar
Ġlaun ches
ĠR M
arm acy
ĠGP U
Ġd ir
et itive
ĠInter ior
os y
Ġinvest ing
al most
ĠK iss
ul k
ĠG othic
}$ \\
ĠMor rison
Ġcorpor ation
S equ
requ ired
ash ire
ĠDown load
ĠS ons
U CT
Ġmain land
FI LE
e lements
Ġn ons
ĠNe umann
I l
ell ite
Ġnot ations
ob tained
EC K
Ġl ucky
Ġgra ce
Â ĢÂ
ĠP or
ĠH ann
any a
Pr inc
Ġsan ctions
ĠFif th
ed uc
b age
Ġc ouncill
ĠFin als
Ġun incorporated
ÅĤ aw
Ġra bb
CO VID
Ġdis charge
Ġinsect s
10 16
ĠUr ugu
App endix
D a
ĠW E
ild a
impl ies
ĠAnd ers
tab s
call back
os ity
fill ed
Ġsatisf action
E th
r ar
Ġbe ings
ordin ates
ĠH P
ĠAmeric as
look ing
U ntil
23 5
g rand
16 00
Ġdemonstr ating
ĠW on
ĠBas in
w ald
Ġmur ders
\ ).
osp ace
Ġsqu ee
Ġpartnership s
ĠBu y
Ġsh ifting
Ġrefer endum
Ġfac ial
Ġz eros
L I
ĠSD SS
bas is
ĠCon v
Ch icago
B us
Ġrend ering
s an
small matrix
Direct or
duct or
Ġaut umn
Ġrevers ed
hard t
ĠRec ently
Ġres cal
ĠChar ter
Ġarg uing
ĠMon itor
omin ator
Ġpract ically
I ran
Ġmorph isms
T a
ĠElect ronic
ĠB oeing
18 43
Ġreport ers
Ġprob abilistic
as an
Ġcomm od
3 75
ĠÎ ¼
Ġvo iced
Ġreson ant
St op
Ġexcess ive
en ue
ĠF o
ĠMar in
AR N
Ġclimb ing
Ġdon ation
Ġsubdiv ision
Ġimprison ed
18 41
al an
ĠBudd h
ĠManit oba
S und
Ġinf initely
ĠD S
os i
ĠRec ent
Ġserv ant
RE D
r ina
id x
Ġr idge
Ġun precedented
ut f
udd y
din and
ĠCarol ine
ĠW rite
ĠG ive
] +
L en
ĠLithuan ia
r ud
18 39
^+ _
cl os
Ġtra its
\, $
ĠRec on
Ġnob ody
c ue
Ġli ability
| ,
ĠSl av
Ġwavel engths
Ġinter ven
ad joint
C u
Ġchemical s
Ġlect ures
M ach
ĠD awn
Art icles
17 8
Ġex empl
pro port
Ġdist ortion
establ ished
Ġbel oved
ĠEll en
Ġpers istent
b atch
col Last
pref ix
et z
Ġfail ures
Ġaut omorphism
E ll
UN D
ĠTre nd
M ic
US Y
ĠVis it
P od
Ġout s
B rien
ĠP ere
Ġexclud e
L os
ĠM TV
s ocial
an ol
}\ |_{
Ġ= &
S ample
Ġg ifts
Ġoscill ator
ĠH ook
Ġam endment
2 12
Ġjust ified
Log ger
ĠA V
Ġke en
grad ient
ĠFern ando
ĠÃ ĸ
andid ates
ĠDivis iÃ³n
S ave
Ġthe rap
with in
Ġf riction
16 4
se lection
rot ate
d h
] _{\
j in
ĠB elf
Ġblock ing
Ġgeneral ize
Ġsymbol ic
ĠSant os
C red
Ġviol ated
Ġdissip ation
ĠD ob
=" $
Ġanaly st
ĠNob el
ac ier
pe z
Disc ussion
ĠDod gers
ĠJul ie
Ġh orm
ĠKnow ledge
K h
Ġt err
Ġrout ing
head ed
Ġparad igm
S ide
N orthern
ĠMe et
Ġnever theless
d one
ĠW WE
Ġperform er
ĠK end
IP T
ĠGer ald
ĠCal gary
ĠLes lie
ant o
Ġgrand mother
iod iversity
Ġpress ures
Cor ollary
Ġgot ten
ĠN ames
Ġfe ver
Ġpropag ator
ĠW id
Ġc ater
ĠT ir
le af
Ġl oses
ĠSte phan
j p
Ġphys icians
Ġinstance of
Ġdr inks
Mem ory
Ġw ages
Ġdam ages
Ġsail ing
18 35
Ġbrig ade
it Ã©
ĠCl ose
ug a
Ġcorpor ations
3 25
ĠL ip
pr inc
ĠW inner
Ġsur render
Ġb eds
Do es
Ġindic ators
Pro xy
Pol ish
c ot
Ġkick ed
dot ted
col span
Ġm all
ĠMe h
ĠNot re
ĠHol iday
Ġem itted
Ġre lying
Ġanaly tics
Ġmidfield ers
Ġe lem
ĠK oh
Ġnon profit
B ank
nd ez
ric a
l ot
set up
refer red
plac ian
contin uous
ighbor hood
D uration
N EW
ram id
Ġcap ita
Res ources
Ġb ore
ch at
Ġad iab
Ġcreat ivity
ĠH ale
Ġdup lic
col First
St an
ĠF ay
00 4
Ġsp otted
con c
ĠMic he
ma re
k ernel
=" ${
n r
ĠU C
Ġauthent ic
Ġsmart phone
oc on
ĠAlbum s
D etail
ch oice
ĠSt rat
'' $
Ġthe or
\% ,
ĠD iana
Ġconvolution al
ĠS ave
ĠM BA
ident ified
ĠCard inal
ĠBel ow
ĠD um
ĠS ig
Ġint im
or p
Ġcan on
Ġ æ
ĠCons umer
ĠAd ult
ĠStrateg ic
ä »
ĠRoll ing
ĠN I
Ġsuggest ion
Ġtrem end
math rel
P ubl
st ars
Ġl over
}$ ~
ĠV it
ĠField s
ĠM eyer
Ġpres idency
Ġ% }
ĠSur rey
Ġp ion
P ier
V ec
Ġprotest ers
ĠIn tern
Ġal ike
rel ative
18 36
ĠAnn iversary
ram ento
ĠG Ã¶
b ons
Ġab olished
Ġquestion ed
ros se
ĠU TC
ĠCar roll
ĠInsp ector
18 42
pos ite
. }}
ĠA CT
l ane
arr ass
K it
im ming
ph or
Ġsup rem
Ġspectrosc opy
ic iary
b rane
ol ated
Ġmark ers
Ġj umps
Ġfin anc
x t
Ġd Ã©
Ġpre y
ĠÐ ²
cre ated
col m
Ġspecific ations
Un incorporated
* ,
ĠD ong
24 5
M Hz
Ġst om
l ap
() ));
Ġex ercises
Ġimpact ed
Ġcomp elling
ther mal
Ġmanufact ure
Ġcongress ional
ĠS QL
ur ally
p ark
ĠT rent
if a
Ġimm ers
ĠH yp
L u
Ġsk illed
Ġaccount ed
30 1
Ġsche ma
ĠElli ott
F W
Tax onomy
Ġh ometown
55 5
Ġrev ision
Pac ific
hand ler
f ac
Ġp H
Polit icians
Ġd ancer
sup set
Ġamb itious
K B
Ġaut obi
Ġharm ony
A uth
Com plete
o que
Ġqu arters
face book
Over all
Ġadvoc acy
Ġprem ises
Ġall oc
ĠD L
Ġf are
! [
ul atory
Ð° Ð½
Ġrit ual
l ord
T L
Ġas ymmetric
Å Ļ
Ġre vel
h istory
ĠF est
Ġshort est
ĠU tt
act s
ĠEd mund
Ġg onna
ĠW ave
Ġnep hew
Ġf oster
_ ,
Ġfasc inating
ĠP ars
Ġin tact
Ġf ool
à¥ į
à¤ °
K en
un ov
Base ball
Ġshe ets
Ġpenal ties
ĠK illing
18 38
ret ch
Ġill um
Direct ory
ter bury
Ġhypot heses
Ġforg otten
* }\
Ġt u
ar ag
Ġpar abolic
Ġemail s
Ġ ì
Ġtrunc ated
h ouses
Ġw reck
Ġdead ly
Ġbroadcast s
ific ates
enn ium
Ġcomprom ise
ae us
Ġin quiry
Ġtor ped
|\ ,
R h
ju ana
Ġspont aneous
Ġqual ities
Ġacknowled ges
Ed ge
ĠIn put
Ġinvest or
p ull
ĠWrit er
! }
Ġvocal ist
N ative
I LL
ill ation
pl oma
n ational
Ġbre ach
ut ory
E U
ĠY emen
ĠPro perties
aff e
Ġiter ative
, $$
g ang
os ion
ĠHigh land
Ġoffer ings
Ġst yl
Ġexp ects
Ġconvent ions
Ġrig orous
Ġc rossover
ĠEug ene
ĠS ara
g re
ĠBright on
ote chn
Ġpeace ful
d ou
ĠG ates
16 1
ĠMar l
@{ }}
Ġsurprising ly
'' '
) ^*
ra ining
Ġpurch asing
C ath
Ġpl ural
ari ous
cond itions
Ġo wing
Ġnot ions
St ructure
40 1
Ġvin yl
Ġmach inery
cou pling
Ġfin ishes
ĠBur ke
10 24
Ġge ographic
UT F
Ġdiscrep ancy
ole v
Ġdifferent iable
ĠFight ing
Ġsp anned
ĠRel igion
Ġopen ly
print s
v ary
ĠS FR
ĠF ROM
ĠMc N
hook rightarrow
ĠLog an
ign er
Ġbos onic
^+ (
en ia
ĠE k
sh ared
ĠNS W
att ing
integ ral
ĠW aters
Ġrelax ed
c ass
es se
ĠW A
Americ a
Ġsat uration
pos able
Ġcan vas
Ġc ord
ĠC ities
Ġgu ides
FOR M
Ã± o
ĠAd rian
N i
tt i
Ġdest inations
23 4
print f
Ġreb ellion
ĠFras er
Ġmicrosc opic
Ġexpress ing
Prot ocol
Ġdiscontin ued
){ $\
ĠChe ng
Ġpublisher s
Ġpec uli
ĠCy ber
M obile
ic ion
ID E
Ste ve
Ġlog ging
Lear n
ES CO
Select or
ĠL il
ĠMal ta
Ġst rang
Ġmod ulo
Ġshow er
ĠZ ar
var iance
c yl
Ġorgan isms
ĠUs ed
al and
quarter ed
if les
oy e
Ġstake holders
Ġcr ashed
Ġbankrupt cy
ad os
ĠNew port
ĠShort ly
ĠU t
Ġsp acing
)\ ;
ĠProgram s
Ġspat ially
J ones
il ogy
ell ation
A bs
In vest
ĠN in
Ġpuls es
amaz on
ff bb
ĠSte am
Ġsh aft
Ġche ese
Ġpractition ers
Ġbur ial
4 80
ĠT ank
Ġcontract ed
Ġassert Equals
id y
Ġgr at
S ix
Ġw r
link ed
). \
Ġred shifts
Ġterror ism
ĠV AL
ĠCon struct
Ġs orry
ĠAn at
Ġsem antics
assert Equals
@ "
N ET
av our
Ġaest hetic
Ġmyth ology
approxim ation
Ġret ire
Ġpreval ence
board s
R andom
Wh ich
Ġgra phe
g ae
Ġmob il
ash tra
Ġspons or
Ġfl ip
Ġsched uling
vers al
Ù İ
an mar
Ġn it
Ġpriv ately
Th ose
Ġ ibn
ĠG rim
Ġshe af
Y Y
Ġpro long
Ġconcent rate
ĠS leep
18 32
da ugh
ĠCl aire
Ġmet eor
Ġconc aten
Ġcelebr ating
ĠD epend
AN CE
ĠS ed
d iam
AC H
ĠHun ting
th rows
at io
ract ing
ĠEmm y
ĠE RA
Ġjust ify
ok esp
Ġposition ed
\ ),
Ġscr atch
uls ive
cd n
C ategories
Ġcast ing
Ġw it
ĠSil va
communic ations
G W
l f
Ġch orus
Ġsm oking
dec ay
ĠC od
Con struct
ĠAd S
Republic an
in fl
Ġk pc
! ,
ad al
ĠR egin
Ġnovel ists
Ġcr imin
Rec ently
B ottom
ĠH ess
ine es
3 40
ograph s
sche me
ol ent
ĠGreen e
Ġhousehold er
Ġfore ground
Equ ation
Ġp ension
ph on
og on
exec ute
Ġaband on
ĠF ra
con sum
ĠF ur
uns igned
Ġquant ify
ĠChe ss
ographer s
ier i
Ġspect acular
ĠM ink
Ġc ats
Tur k
Ġf Ã¼r
ig ating
Ġacc us
ourn als
ĠRaid ers
ot ics
ĠWind sor
ĠI E
eed s
Art icle
ĠSh ir
est ock
au f
Ġmod al
approp riate
ĠS it
Ġr ush
., ][]{
Ġgrand son
oltz mann
NavBar Cell
. ][]{
il ateral
vi er
Ġmanuscript s
ĠZ amb
ĠFl oyd
Ġprev ents
Ġseason al
Con ver
E c
p ad
v ation
der ived
ĠRic ci
ĠF ocus
B AR
Ġex otic
G reg
Ġm ud
Ġchar m
ĠB ot
ĠJ ets
li pped
Ġpassion ate
ĠI stanbul
ĠW ool
s r
Ġca ution
... "
G er
Un ion
prop ag
ne z
-------- ----
isen berg
g ic
v t
} --\
Tra ce
che t
other wise
d ia
ĠCom bat
Ġbuy ers
ĠGarc ia
Ġconv ince
ĠAss essment
W ild
vent ional
ut z
}: =\
Ġpull ing
Ġre pository
ĠJosh ua
Ġgen ome
) )}
ĠR az
Ġflag ship
27 5
Ġabund ant
Ġobst acles
Ġunem ployment
ĠC raft
Ġexceed s
Ġgradu ates
ong o
ĠMy anmar
99 9
Line ar
Rep ository
Ġvis itor
Ġthir teen
ĠKing ston
ĠT roy
Germ any
Ġresp ected
dimens ion
Ġcustom s
list ing
Reg ion
Ġtrib al
ĠS cre
S ER
ĠR ise
ĠD ew
over ed
ĠRef s
ĠContin ental
row ave
ĠCom ing
Ġsacr ifice
Ġn ort
ĠQu art
ĠBur ton
Ġrub ber
ĠSouth west
Ġpersonal ities
Ġr ider
Ġpl aus
30 4
Up on
P y
Ø§ Ø
Ġenc ode
2 11
or ange
-\ !
Ġcompat ibility
as aki
ad j
Ġresp iratory
arc sec
ï »
ad h
ĠL ED
ins k
Ġend e
Ġfluct uation
Ġgal actic
if i
17 3
ĠVeter ans
ĠP lymouth
uk u
ur ring
ĠBrad ford
Ġ umb
ĠA FC
Wid get
T i
ĠL L
17 4
ĠRail ways
ĠD iet
ĠFor bes
ĠLe vi
ĠK aw
Ġge ographical
ĠR ee
M aterial
Ġorgan ize
Ġcoordin ator
f u
Ã¨ s
ĠK ot
w u
Ġf erry
Ġb rackets
esp ecially
) ">
Ġcancel ed
ĠB rent
T en
idd ing
ĠRe in
ed ged
pen ame
ĠR he
Ġprior i
ĠUlt imate
ĠJ upiter
sh ine
ĠZ el
ĠLanc ashire
Ġdifferent iation
ĠGeorg ian
ĠPoint s
ĠC ounsel
ĠBrad y
ĠF ut
ĠQu estion
Ġd ans
Ġafter math
ĠDra ke
Ġadvoc ates
amb a
ĠG ol
ĠBar b
andid ate
With in
ĠBen ef
Ġen umer
Ġconfir ms
Ġvot er
ĠGib bs
Ġs addle
ĠLyn ch
Ġestim ators
ĠL on
Ġun ited
Ġout going
Ġclin ic
ĠLiter ary
Ġ= ========
are l
ĠGl ou
Ġa pi
Ġs au
W ord
ĠGu atem
Ġphys i
Ġb ust
B ra
ĠBor is
ETH OD
Ġfound ations
Ġre de
Ġeduc ator
Ġmer ging
v on
IS S
omet ime
ĠM ental
Ġwel comed
âĢ¦ âĢ¦
)) );
Ġdomin ates
8 50
aj ax
Ġrot ate
ĠLux embourg
ew ater
und ers
Ġco ached
Û Į
Ġe ager
Ġspace craft
ĠNad u
M iddle
im uth
ĠO rt
Ġexcell ence
ĠX I
Ġgr asp
Brazil ian
Ġp ent
{ }\
ĠU FC
Stat istics
Ġconsult ation
Ġas ync
17 2
Ch art
c ool
ĠH S
Ġtheore ms
es que
ou rable
Ġil leg
ma ch
Ġreb els
Ġreson ances
Ġru ins
Ġsix teen
z ier
B ir
AN G
Ġd amping
Ġconsum ed
Ġaltern ating
ĠH onda
Ġout flow
qu estion
aint ed
Ġax ial
Ġn erve
Ġsc roll
cess ion
ĠPr ide
rell a
can ic
Ġf ingers
//////////////// ////////////////
Ġalumin um
3 10
r ants
ĠF P
in ion
Ġaugment ed
Ġprior it
ĠLink ed
work ing
) ]{
ĠG aza
ĠFe atures
b ands
ĠCr us
ï» ¿
ĠL ines
Ġdem o
year s
Ġsubject ed
ound ing
Ġcryst als
Ġmagnet ization
ĠM ell
ĠB B
ĠV ert
sh adow
ĠZ ag
ĠZ en
l um
Ġdiff use
| $.
ĠR B
Ġbl end
ke V
Ġpup ils
ĠE ducational
Ġcomm ittees
Ġdisband ed
ut ations
Ġnew er
Ġfil ing
Ġbre ed
ato es
ices ter
Ġfilter ed
Ġapp ar
Ġdist ribute
Ġret iring
y en
ev o
Ġthreat ening
Ġspl its
Ġveget ation
B esides
ĠK ane
ov i
Ġto pped
ra pped
pre p
sup ers
ass is
ĠCard iff
Ġnucle on
Ġd iving
ĠP iano
Ġplant ed
) }^{
R on
H M
17 7
or ate
ĠH ubble
Ġs ne
ĠR ica
ĠHard y
Ġfermion ic
Ġsec rets
Ġcha otic
F und
Ġadvent ures
id ation
Ġpredict ing
Part y
G rad
Ġd os
ad ors
ĠSt okes
Ġgo alkeeper
Ġsh irt
ĠAsh ley
Ġd ign
AN S
Ġfru its
Ġem ploys
stud y
ĠE DT
ĠHy dro
Ġ Ñģ
Ġess ays
Ġf t
MOD ULE
H ey
ĠMar tha
F N
Ġl ang
Ġd oses
ĠJohn s
ura i
ĠF E
Ġ$( {\
Ġsculpt or
Ġst ems
ĠSh im
Ġmanip ulation
000 1
Ġexp onents
ĠCow boys
res et
20 7
Bel g
ĠL enn
Ġhad n
l ated
Ġdeleg ate
ĠD rew
ĠTest ament
Ġremov es
A ff
u ons
am ar
od i
ĠRem ember
Ġg y
Ġpres umably
Ġess ence
3 70
Addition ally
w iki
Ġadv ancing
wh ose
Ġaw esome
le an
Ġgraphe ne
OR Y
ĠBeaut y
ip es
F B
ĠWe i
Ġbin aries
Ġcor ollary
Ġac claimed
ĠInt o
Ġtim eline
Gener ic
C itations
v d
Ġdepos it
er ial
Ġbound ing
ĠF ramework
Ġpro gen
ount ain
Ġinstruct or
ĠLy on
ow itz
anth a
Ġrep airs
Ġsc rew
v ens
Ġinf in
ari at
Ġb ags
ĠNY C
Ġsax ophone
ĠWals h
ĠP ub
ĠRec re
inter action
18 7
ĠAntar ctic
x html
. ",
ia e
okesp erson
Ġam mun
ĠM oss
Ġexplan ations
Ġ io
mb f
t mp
Ġh i
Key s
Ġste ering
ĠL R
ĠĠĠĠĠĠĠĠĠĠĠĠĠĠĠĠ Ċ
ĠMur der
U pdated
ĠP ine
Ġun necessary
n h
Ġvac ation
m ust
ĠWin ners
Ġloc us
und efined
roph ic
Ġreven ues
}{ -
col lect
ĠP Ã©
ĠL oad
ĠLeg acy
Inst ead
ĠL ah
ĠZ ach
ĠGu itar
b il
t elling
ĠH ours
ĠZ ion
Ġresid ue
ĠMar co
Ġfil t
n at
ip eg
cont rib
asc ar
rib ers
20 9
ĠW ould
Sc ient
Ġfin est
arv ae
est y
K R
hent ication
ĠRich ards
ĠC W
ĠC lient
Ġsp y
ĠColon ial
t ake
ĠStaff ord
ĠM ales
.\ ,\
Tex as
ver batim
\ @
Ġal beit
ĠMar ion
Ġan satz
ĠCorn ell
Ġt issues
Ġmod ulus
cy cles
ĠHealth care
Ġthread s
S creen
18 4
Ġinv itation
Ġhon ours
Ġm aker
l is
ĠB ren
e er
Que en
it ated
Ġme als
Ġroll ed
Ġhe ated
Ġtribut ary
ract ive
ĠAs k
ben ch
T yp
3 80
om ical
Ġre written
Ġret rieve
Ġcommun ist
Ġpossess es
Ġon wards
ĠL az
E lements
ĠS Y
part s
Ġsur jective
ĠLanc aster
ĉ ĠĠĠĠĠ
Ġfemin ist
Ġmer gers
ĠR id
rol ogy
Ð ±
=\ ,
anc a
Ġflow ing
Ġrac ist
Ġsumm ation
ĠCath olics
ĠM ing
Ã °
Ġde port
Ġhad ron
]{ $
Ġwis dom
Ġst aged
ĠTanz ania
ind ic
ours es
Ġspr int
E u
ĠAp ache
Ġconsult ing
perturb ative
Ġes cal
ĠStef an
app endix
Ġacadem ics
ass embly
Ġyield ing
ĠT rial
id ian
ĠH our
ĠCh ancellor
g ard
Ġlect ure
0 10
Ġab normal
Ġsupp orter
Ġcann abis
m k
C irc
ĠS ession
17 9
en vironment
op ath
Ġlong time
pre v
Ġt ender
Ġhad ronic
,\ ;
wart z
D s
Ġcor rupt
Al t
ĠK om
Ġen jo
ĠMat rix
ĠS ugar
object s
es ch
ĠR overs
ĠOcc up
ĠGu jar
Ġassign ments
en ary
ĠB orel
Ġab st
ely n
Ġsc ream
Ġat tained
fl ags
eyn man
E mb
j un
Cl uster
p rice
ĠP oss
Ġammun ition
Ġdec iding
ĠâĢ Ŀ
ĠCustom er
ĠFer gus
che ss
ĠSing er
Ġhol y
ĠE aster
Ġam ended
ĠExp edition
ĠMax im
Ġpack aging
dec om
ĠCitiz ens
S on
22 8
Ġnon negative
Ġinform al
ĠT M
Ad am
ĠV R
}) }{\
Ġche er
all i
ĠEston ia
byter ian
P ark
Ġc her
ib an
ĠLiber ation
ĠCorpor ate
ubb ard
Spr ing
O G
AL SE
17 1
scal ing
van ishing
ĠR out
e as
Ġg odd
Ġpresent er
Ġhom osex
S ync
Ġtransl ates
Ġemb arrass
ru ce
18 34
2 16
ĠEv angel
An im
Ġoutper forms
( --
Ñ ĸ
Ġag ing
}}{ {\
oc aml
Ġshow case
ĠOpp ortun
' }{
ĠSc ore
ĠT ODO
r vert
Ġimag ination
@ {\
Ï ħ
An th
B V
ĠPro ceed
ul ent
ĠJ obs
ĠBl air
ĠR oc
ic ism
ho ff
ĠIm ag
/ {
le ad
Ġj oke
Ġth roat
SI ZE
p seud
OP T
ĠD w
ĠEth ics
Ġconst rain
Ġresemb les
ĠH els
q a
ogen ous
on ormal
ĠAchie vement
ĠK erry
40 4
Un like
Pl us
ph rase
nt hetic
Ġco q
Ġpoll s
ĠReb ecca
R ot
Ġaccident ally
ĠG ur
Ġb ump
Ġatt en
Ġorgan izing
Ġspectrosc opic
p ages
v id
Ġinn ocent
ĠFer dinand
Ġbe ats
the ning
Ġsyn onym
sv g
ro ve
um en
ĠIss ues
type of
ĠRock y
CO M
Ġle ar
de en
ĠP om
own ers
Ġu pt
head s
i ast
ĠMy stery
ĠSch ol
Ġcombin atorial
ent ropy
Ġless on
Ġprior ities
Ġc ement
ĠStat ement
X ML
ot ive
cl air
ven ile
art icles
Ġpropos es
Ġsoc io
ĠNov el
ĠHug o
at aka
Ġd ive
Ġstup id
Ġn em
Ġdial og
Ġimprison ment
Ġannih ilation
ĠR oh
ĠCM B
ad dition
IM PORT
ĠTe en
Ġde comp
ut i
Aud io
in ous
h aul
ĠK ad
Ġsupers ymmetry
prot ocol
c ourt
orth y
ly m
ĠResp ons
d eb
angu ages
ile e
ĠHero es
Russ ia
ĠD ylan
ĠL S
Ġpolit ically
Ġbehavior al
Ġast roph
' },
ra f
ĠRes ort
Ġ\ )
Ġdo ctrine
Ġknock ed
Ġnurs es
Ġt ear
ig raph
Ġpos es
Ġrent al
Ġres ume
Ġconfirm ation
valid ation
ĠR R
Ġsp o
Ġp neum
ĠF resh
w at
En um
" ].
Ġen z
F ood
ĠP U
ĠĠĠĠĠĠĠĠĠĠĠĠĠĠĠĠ ĠĠĠĠĠĠĠĠĠĠĠĠĠĠ
nav List
ĠB MW
Ġover night
Ġfour teen
Ġnetwork ing
Ġproduct ive
Ġnecess ity
Ġpurs uing
G ar
Ġn ar
ĠAdminist rative
s om
____ ____
min imum
ĠJohn ston
Ġcontin ent
Ġfilt ration
pl anes
T aylor
ath am
K a
P ot
Ġwrest ler
Ġte lev
Ġepid emic
Ġm s
Ġnav igate
ĠMar qu
ĠL omb
ĠP eg
ĠL uck
N M
ĠMe asure
const ruction
Ġenjoy ing
rac use
Ġemphas ized
O O
Ġplanet ary
Ġl ob
Ġterrit orial
Ġcreat ors
ĠB end
m eter
Ġt a
ĠS end
ĠSu ite
Ad minist
Ġj am
ĠTri p
_+ $
Ġt ired
Ġhe aven
Z hang
ĠJeff rey
E t
ad ia
_ ->
Ġaccept s
Ġinv ention
Ġd ancers
ĠP ool
ram er
Col lections
Start ing
Ġsl ip
ĠBel le
ĠSt akes
Ġim posing
Ġjump ing
ĠM ilton
Ġsuper hero
x it
ec o
ĠB P
ĠV iv
Ġref uses
ĠA LL
R ic
Ġr ushing
Ġoff line
)} +
ĠSc ript
Ġund erm
Phys Rev
S EC
ĠDep ression
th ouse
Ġabbre vi
Ġre jection
Rem ark
Ġex changes
ĠSe oul
Dist rict
ĠE A
ray ed
ĠC reat
ĠV III
Ġcooper ative
Ġpack ets
Ġproceed ed
18 2
Ġapp rent
ĠA ircraft
Ġstory line
pher d
ĠK ub
ĠPant hers
Ġp ine
ĠS B
Ġmon uments
C zech
log in
Ġmiss iles
ĠEv il
{ #
an ian
ĠScholar ship
b racket
Ġdeleg ation
Ġg reet
Ġm aternal
ĠB M
Ġlif ting
)+ (
Ġrel ie
l ich
ĠS ED
Ġsh it
en ko
li o
Ġ\ %
ĠB j
Ġcar ved
Set ting
Ġadvis ory
ĠBre nd
} </
f orth
Ġjew el
F riday
ĠPro gressive
Ġanaly tically
ĠH il
ĠR i
ĠC ave
$ ]
i ating
in z
Ġsepar ating
C ov
Trans form
Ġl anes
Ġconstruct or
ĠB oh
30 3
Ġincorpor ates
ĠR AM
Ġsimplic ial
Ġdomin ance
ĠS isters
ĠBened ict
}), \
cha ft
Ġannot ation
yn chron
ĠChron icle
ĠP u
Ġcomp ress
{ }{
Ġbi ased
An aly
thin space
ĠSebast ian
ĠC ritical
isp here
ra j
ĠSloven ia
ĠH ip
ĠL av
ĠCh at
ST AT
26 4
ĠU z
ER N
ĠDay ton
ĠR ac
em it
Ġadjust ment
ĠO slo
by tes
ĠÎ ±
Ġirre levant
d ad
l ibrary
Ġphot ometry
Ġm oll
Ġcur ious
ex isting
up loads
ĠAl leg
K P
ĠA CC
Ġsu cc
c ategor
Ġheav ier
sm outh
ĠBed ford
Ġheart s
ak o
vi Äĩ
Ġlisten ers
Ġaver ages
T rump
ĠM aid
Al gorithm
ĠAnn ie
an an
ĠEd gar
Ġthe rapeutic
ĠS ame
eg ie
et ed
ĠN umer
Ġstar ter
Ġgener als
Ġretail ers
ĠA sc
T X
f air
er ick
Ġcontribut or
Ġkinem atic
Ġbl ast
Ġnew est
Ġro oted
Ġaggreg ation
ĠE yes
ĠR as
sing ular
Ġshock ed
at op
Ġdef icit
Fl ags
Ġdiplom at
Ġcontact ed
Ġrest art
F a
p ure
ĠPo incar
iv ially
exp ansion
ĠRoche ster
ĠH ull
Ã© m
Ġbeh ave
Ġrook ie
ĠApp lications
ĠMont eneg
Ġdis abilities
Ġunder way
P air
ĠProt ocol
Ġdisput es
as ympt
Ġlength y
ĠI z
ĠH iro
b inary
ill i
att ack
t el
ĠPaul i
dat aset
Ġtraged y
' })
St ill
ĠNAS CAR
ĠTe h
sign ature
Ġsp ike
Vol ume
C W
18 3
se at
Ġfa una
Ġsh ocks
ĠCol umn
ĠCar bon
n Ã©e
B and
Ġmother s
R os
rom atic
le ases
Ġen closed
ĠAm anda
ic ia
ĠI X
Ġcomp ares
ĠTrib une
Ġserv ants
d og
ĠB ac
Ġbom bs
L U
Ġforb idden
ĠNew man
Ġarch ives
i otic
ĠS ag
ĠE mail
Ġpay load
}}( {\
Ġentertain ing
Ġrecre ational
)\ )
uz zy
Ġhuman itarian
Ġload s
}\ |\
Pat tern
un ches
Ã¡ r
Ġsem igroup
}{ .
ak is
ĠB udget
}$ };
Ġsing let
ĠEd monton
m embers
n ob
Dom ain
R am
Ġb rane
ĠSc out
integ er
comb ination
}} |
observ ed
Ġdestro ying
ĠAdd ress
Ġanisot ropic
Ġpos ed
n othing
Pass word
Ġsuperconduct ing
Ġde er
ĠInter state
ĠPubl ishers
I Z
he x
US E
ighth ouse
Ġsn ake
if ax
D ar
Ä ħ
en ario
ĠG auss
Ġaper ture
Ġdivid ing
Ġbroad ly
al p
Ġimag ery
Ġaud it
ĠC and
Ġhe ir
Ġca ption
ĠKazakh stan
is odes
Ġsp ans
Ġind ie
Ġsp are
yl on
C as
Â ²
Ġp av
Ġann oy
ĠArt icles
Ġtub es
Ġhapp iness
t ags
ing ale
Ġto ile
al ore
Ġsuscept ibility
pro gress
Ġprol ifer
. }.
Ġorigin ating
R N
math ord
Ġpro spects
Ġeduc ators
V S
ĠBas il
Ġg i
Ġlack s
F ederal
ĠB alk
Ġint imate
ĠNik ol
section s
oph il
label ed
** *
ĠCol lections
K T
Ġs ab
Ġtorn ado
Ġe ars
ĠL ey
Ġcomm ute
hen ce
ĠDir ichlet
ad just
m agnetic
Ġf ran
Ġconv iction
ĠEnt ry
ĠD P
ĠAtl as
O F
ĠHay es
ĠCert ificate
Ġex ile
Ġtrac ed
ĠR um
ang an
un ks
ĠRos a
Ġmemor able
ĠGiov anni
B uff
ĠN acional
ĠM am
ĠB rief
Ġtet ra
Ġvisual ization
ĠW ords
design ated
4 000
18 33
text g
Ġhand les
del ay
â Ĩ
iers hip
Ġce ase
od o
Ġc af
ba um
Ġprom otes
ĠBelg rade
G h
ĠCan terbury
Ar ts
fin ity
{ -\
Ġo ak
Athlet es
b ug
us ername
ups ilon
Ġin scription
Ġsk ull
ri ot
Ġpar ade
Ġsacr ific
Ġadop ting
Ġsystem atically
Ġliter al
to k
Ġup stream
Ġfe ud
Ġsepar able
ĠCl ifford
Ġexam ining
Vari able
m h
p enter
sh own
Ġcommission er
ĠLuther an
ĠTe ams
Ġadiab atic
W at
Ġart ic
Ġwh it
Ġoverl apping
Ġ$ %
Ġwood s
ĠOpt im
st orage
rit is
Ġdispl aced
= |
am inated
Ġen rich
Ġdet ecting
k j
Ġautom ation
Ġcosm ology
ĠK um
triang leq
stad t
B rian
Ġloyal ty
ir ling
18 6
Ġexp end
it he
ĠI EEE
ĠProdu cer
Ġc ra
ĠG am
Ġfunction ing
ent on
Ġdec oding
ine z
Ġparam etric
iel sen
or ers
Ġcont ing
ĠAdv ance
os o
w rapper
Ġt ears
res ources
Ġtens ors
Ġprom otional
mem ory
ĠM oses
00 7
min ent
histor ic
Ġshort age
ĠHall ow
Ġcont ours
Ġfort une
ĠBro ck
PO ST
PRO JECT
ĠT ool
w ire
ĠL iz
Ġsh ame
Ġloc ate
ear ly
ĠParalymp ics
Ġv oyage
rop olis
d j
Ġmut ually
Ġt ales
ĠHar bour
Ġex clusion
dist rict
Ġwithd rawn
Ġm uon
'] )
em ann
ĠH ank
ĠP ione
pl ots
ĠArm s
ĠP P
sp orts
ĠL uk
Ġsurn ames
Ġlist ener
l ar
ext ra
add ed
clud ed
Ġ[ ...]
Music ians
Cle arly
Ġwhe at
Ġgar ner
ĠWe bb
ĠJ et
Ġph y
y ards
ĠT ucker
ĠS ize
ink i
Ġc it
^ -\
A X
Ġl aps
ce iver
lo o
Ġflu ores
ĠVari ous
UR I
ock ets
ĠCl ara
Ġadvers ary
be am
Ġsleep ing
Ġcor pus
L ib
r ational
ain es
ĠV ander
Ġindex ed
check box
Ġtong ue
Ġimp lying
Ġxml ns
Ġclass ify
Ġenc ryption
ĠEm irates
N eg
Ġgar age
n ings
Î º
Ġrecruit ment
- .
Ġb arg
Ġcost ume
ĠHead quarters
c atch
Ġkn ife
ur face
ĠFor ward
ĠSl ovakia
Ġn u
C ivil
ĠGriff ith
Ġg ases
Ġexclud ing
ĠCond ition
ĠD ud
Ġ{ (
Ġpract iced
sp here
Ġcalc ium
Ġst ance
Ġcondem ned
A rab
gu ard
ĠUl tra
Desc riptor
Ġappropri ately
Par se
ĠL C
ĠCraw ford
R od
\% )
ĠAlb any
Ġdoub led
22 3
n x
Ġs odium
Ġboard ing
Ġaccum ulation
Ġthorough ly
ad ays
ĠN W
' _{\
v p
ch urch
ne ider
Ġexpans ions
ĠE valuation
Ġemb race
F un
ĠP E
C ultural
L AS
ĠCub s
F unc
ĠM ey
d ar
ĠSum mary
ĠEp iscopal
ĠG ael
Ġde ceased
Ġher b
Ã§ a
Ġs orts
Ġdirect ing
ĠHold ings
ĠH ort
el man
unic ipal
Ġ? >
uk h
ĠPrest on
opl an
Ġrecur ring
os ome
Ġun t
Ġlight weight
m and
Ġscript s
ĠS aid
ĠF ear
ta iled
ĠDar win
] ,\
2 14
clud es
bb ed
Ġsupers ymmetric
ĠA TP
ĠCal cul
om ore
ĠG PS
Ġinf ant
ĠG ian
Ġhold ers
Med ical
ĠBang kok
ĠLud wig
Ġenjo ys
00 6
found land
Ġb ail
Ġend angered
Ġtransmit ter
Ġbes ide
d w
m obile
Ġ\ ,\,
Ġre lic
prob ability
Ġsen ator
Ġdepict ing
ĠWes ley
Ġboy friend
lass ical
Ġ[ (
t body
Ġacceler ate
ĠBel t
Ad S
prov ider
Ġthe ft
Ġdeb ris
ĠKy iv
ĠSh annon
st ick
ct ica
; }
C orn
ĠK ick
ĠSch midt
ĠBund es
to ok
ĠAp ollo
il is
mer cially
Ġche f
ĠB har
ĠSpring field
ĠĠĠĠĠĠĠĠĠĠĠĠĠĠĠĠĠĠĠĠĠĠĠĠĠĠĠĠĠĠĠĠ ĠĠĠĠĠĠĠĠĠĠĠ
Ġlocomot ive
qu in
Ġant iqu
Ġ\ '
Ġvol untary
ĠKn ox
ĠD erek
Att ributes
Ġbeet le
Ident ifier
^* $.
Ġv endors
| ^{\
Ġdivor ced
D ynamic
ĠMin isters
ĠBan ach
Ġm igr
Ġar rays
ï¼ Į
Ġimplement ations
I ce
fl ies
Ġt ile
Ġincl ination
ĠC avalry
in vest
o op
Ġstom ach
ĠEx tra
dis k
}} [
Ġcollect or
ram s
To String
Ġsur geon
ĠR ising
ĠMaced onia
Ġ ...,
Ġbas ement
ren cies
Ġcalcul us
c ir
å Ĳ
ĠCond itions
ident ity
ĠB CE
ĠG ul
ĠAlexand ria
ĠFran c
bi ased
st rip
Ġn ond
ĠO H
Ġlog ger
Ġc and
ĠMon ica
Ġbatt ing
Ġtem p
ĠSuper ior
() </
Ġstation ed
Ġceleb rities
Ġhur ricane
Ġel ong
Ġcho oses
ul ators
g p
ĠS ister
Ġmass acre
Ġd ors
45 6
ĠKenn y
Ġalt ogether
wit z
Ġcon ceived
Ġ" -
23 1
Sp ect
proto buf
M useum
ĠW ong
Ġj e
Ã¤ r
Ġ" ,
ĠMon roe
ec hes
enc il
fl ight
Ġbreak through
t u
Ġd w
Ġ( _
Ġfilmm aker
p ole
ĠSec urities
Ġdark ness
Ġsen ators
Ġst air
ĠR ever
ĠG ir
ĠAnd rÃ©
Ġreal izes
typ edef
ĠPhot ography
t abl
ĠGriff in
18 1
Ġres olutions
ĠSac ramento
ĠW ings
oun ces
ĠMult iple
Ġfre estyle
z hang
Ñ ħ
ĠW ine
Ġspir its
ĠStat istical
Ġint ake
ĠB ey
cl er
ĠMar cel
R F
it als
Ġbe aches
Ġref use
Ġminim ization
i ol
ĠL abel
ĠUS B
Ġcongreg ation
Ġp ays
ĠZ oo
Ġdet ective
ĠTh ing
18 31
ĠBut ter
ine q
ĠRec ording
ri pp
oc ide
Ġlov ely
ĠEvery one
Ġv ine
Ġsk et
Ġ= ======
ann ers
function al
Ġaccum ulated
Ġcom merce
hold s
B all
ant es
ĠH annah
Ġsort ed
Ġend ings
Ġapart ments
Ġcontest ants
Ð ³
Ġg am
get Name
Ġscreen ed
A k
Ġexpect ing
Ġsm oot
Ġlad ies
Ġhist ories
Ġauthent ication
Pop ulation
ĠSat urn
estim ated
set counter
Ġz oom
', '
P aint
Ġprivile ge
ĠCzech osl
ĠCh al
Ġport raits
Z ero
ĠE y
Ex pr
Ġox ide
Ġmans ion
| <
Ã µ
ĠE ra
ec urity
rog ate
Ġthe ology
ĠSer ie
Ġapplic ants
; ">
re pe
Ġqu otes
comm ission
Ġmar sh
Ġsp heres
Ant i
el ic
Ġpartner ed
ok i
22 9
Port ug
Ġhead quartered
ĠV ij
Ġfund ament
ĠR ate
Ġinv ite
t ests
part ition
Ġsuff ix
ĠTerm inal
ĠSt ruct
IS A
tabular newline
daugh ter
S outhern
p ubl
}} }(
Ġcard iac
Ġaccompl ish
Ġdon or
Ġharass ment
Ġb row
Ġbed room
App le
Ġfib re
Ġthrough put
ĠBul ld
it as
t oc
all classes
Ġsol ves
ĠMar ÃŃa
ĠR ash
ĠLouis ville
)$ :
const rained
test ing
ĠT ropical
âĢ ²
view s
Li u
Ġsever ity
ĠPartners hip
ĠC ult
ĠR iley
Rem ove
orph ism
ĠPear son
ploy ed
Ġinters ections
Ġfulfill ed
ĠE b
ta x
P b
18 15
c art
Ġref inement
Ġworth y
L ED
cent ric
29 0
Ġ[ "
ott age
Ġp c
ah i
con serv
ÑĢ Ðµ
Ġre habilitation
ĠG an
ap os
Ġform ulate
Ġbelie ving
ser ial
ĠEv idence
ĠBas el
ubb les
ĠBelf ast
ĠD und
ment ation
Ġsem icon
Ġconstit utes
ĠBrown ian
Ġf n
ĠB ian
conver gence
iox ide
oun ge
Ġpop ul
sq cup
ĠH BO
Pro gress
ro let
SE L
++ ;
esign er
ĠBud apest
pro ps
Hung arian
Ġse ating
Po inter
Ġsec urities
Pol ice
in itions
is se
ĠSpec ies
ĠCart esian
ĠD up
ĠWork shop
Ġassass ination
Ġre dd
uc hed
Ġpeculi ar
Ġupd ating
olph ins
Ind ividual
us ually
sl ice
log en
M ix
et us
Ġr ats
Ġpol ym
n ar
Ġdrain age
Ġdep ths
Ġvill ain
car bon
ig nt
ĠEff ects
ri que
ĠV ick
)} +\
ĠJ ur
M ask
ĠLe af
ĠQu ick
cel ld
Tra ining
z t
Ġl attices
Ġwrest lers
Nor wegian
">< !--
\ :
att ed
am ount
um per
U pper
Ġl ord
ĠPl at
op rano
ĠParliament ary
Ġdiscipl ines
RE Q
ĠM AC
let cher
) *
ĠWhit ney
Cond ition
ĠParad ise
Ġn as
ĠM ile
if ully
ograp hed
m ol
ĠProject s
Ġcrow ds
ĠP rep
Ġstra ins
Wel come
ĠUtt ar
ĠB eg
af a
H i
P en
n ice
f ried
Ġcat hedral
ĠSustain able
Ġa wa
ĠD ust
Ph ase
ĠS ach
Ã ®
Ġencourag es
ĠMal colm
Ġign or
Ġplate au
Fore ign
M ond
m ixed
ĠReg ular
Ġcrimin als
ĠHor ror
Ġinhab ited
Ġcook ie
ĠNapole on
ĠC ul
og l
Orig inally
ĠAd vert
o ct
Ġfl ies
ĠHT TP
ĠK le
Ġlo os
Ġtrain er
m v
or get
Ġterm ination
Ġins isted
ĠLad ies
Ġv ault
Ġlic ence
> :
ĠAN Y
h ra
pl ess
ĠCase y
Ġst int
Ġoccup y
al tern
sw arm
avor ite
ĠC airo
ĠW ick
ĉĉĉĉ ĉĉĉĉĉ
celld esigner
ĠH ear
Ġl arvae
OC K
F ocus
ĠY uan
ass adors
Ġspec imen
ĠBu ilt
Ġpro spective
ex pr
Ġattach ment
}= {\
ĠH z
r up
Ġat tain
ĠGreat est
op us
CD M
' ^
S aturday
Ġrec urrent
Ġmit igate
lem en
w arn
Ġbit ter
Ġselect ive
ĠR ally
Ġn aked
ĠBeh ind
Ġex empt
ĠAltern ative
Ġt ilt
ĠM ets
}\ {
Ġfl att
Ġph rases
f ootball
ĠA SS
Ġdem ographic
ĠExper imental
Ġexplo ited
Ġrein force
B asketball
C U
Ġcre ature
ĠF uj
ident ifier
Ġment or
Ġsystem ic
ĠN AME
Ġch ips
}=\ {
30 5
) }}{
ĠLand au
cf c
ĠG rid
Ġec ological
Ġpro g
)= -\
Ġcru el
Ġsub spaces
ĠMar itime
Ġwid ths
% "
^{- (
Ġhospit ality
icul ous
Inst all
E F
Q A
z on
Sk ip
=\ !
\% .
ochem ical
Ġinnov ations
b h
Gener ator
Exper imental
R oy
Ġrem ed
Ġcylind rical
Ġg aug
ĠV ector
Ġcle ver
Bel ow
ĠCole man
F ailed
M i
Ġst ir
ĠSp in
str ings
ĠW olver
Er r
ĠQu inn
ne ath
ĠNic ole
B attle
Ġeleg ant
ĠH its
ĠF ork
Ġte aches
Ġswe pt
Ġ" <
ĠP ray
ag ascar
ĠRev enue
ĠUs ers
Ġsear ched
Ġcr ust
Israel i
ĠChap man
ĠK ob
ĠTh ir
Ġout let
Ġproblem atic
18 25
Ġcollect ively
y cle
ĠVict ory
Ġemb ry
path y
Ġlect urer
Ġrecre ation
M IN
ck er
unn els
Ġphil osophical
ĠOffic ers
Ġveget ables
Ġobserv ers
AR CH
ĠAlban ian
c ous
ĠRes ult
^* $,
Ġcont ra
ari juana
assert Equal
Ġst ressed
ge o
. \,
K W
art e
ĠSher man
Ġterm inated
ĠRes olution
Ġvol cano
Ġresc ued
ĠL af
Ġfl aw
Ġterm ed
ĠEld er
Ġp ier
ĠH ers
Ġr het
pl ays
Comb ining
È Ľ
å Ī
Ġcl ips
ĠFre eman
hor se
Ġre q
Ġsp okesperson
Ġeng ra
Ġland scapes
Ġspec ially
ĠS ure
Ġc ube
ke eping
Ġse aled
Ġdis ruption
ĠG ospel
b rief
ĠC lement
Ġpil grim
ĠMes a
g m
st rom
r il
C AL
k on
ps frag
Ġd ragon
ĠPart ner
Ġlit igation
ĠR ican
Comm unity
ĠCom ic
ĠInd ividual
Ġinfect ious
K er
ĠUS SR
p rior
Ġaim ing
ĠPet erson
18 28
Nov els
Ñģ Ðº
Ġapprec iated
R ate
Ġbre w
hig her
? >
Ġhe d
}{ (\
'' )
L Y
ĠS ens
23 2
ox ic
b right
ĠC ly
w ara
att ributes
Ġsynt ax
ĠT ouch
I gn
\ ;\
), $
Ġdes erve
Ġsur rend
ĠL opez
ĠX ia
ĠBet ty
Ġretain ing
ĠR andy
Ġvacc inated
Ġp ond
ere f
na issance
+ }
< !
ood y
Ġbuck et
Ġmed ication
ĠB le
Return s
Ġtremend ous
ĠD owntown
b ins
Ġs aves
av g
Ġsl ots
check ed
D ark
Ġfact ories
Ġb apt
Ġrepro duced
G irl
N ULL
deg enerate
Ġappeal ing
ĠS eth
ĠCon cept
ĠPal omar
AT CH
t l
Ġc arn
st orm
Ġhe ights
ip zig
ĠV ale
ĠB ast
ĠB oss
ĠCharl eston
ĠIo T
Histor ic
Ã© l
ĠT ut
Ġcr ude
bra him
;\;\ ;\;\
ĠSurg ery
ĠX ML
}^{ -\
Ġharm ful
ĠHallow een
ĠD ry
ON G
yl um
g reat
part icles
comp iler
ne utral
Ġmore over
Ġval uation
ĠB ronze
ĠF eed
Î ²
act ivated
ĠTra vis
Ġhabit ats
bers ecurity
ĠCD C
d ialog
g z
ys ics
ĠG DP
sl ide
Ġinsp ire
et es
Ġsy ll
4 25
ĠMon ument
oid es
)= -
ĠMar ian
Se lection
S and
Ġr ulers
ide a
H all
ĠGo ing
à¥ ĩ
Ġp unch
Te X
Ġimm unity
O cc
Ġw rap
ĠSup erv
[...]
