{"[UNK]":0,"!":1,"\"":2,"#":3,"$":4,"%":5,"&":6,"'":7,"(":8,")":9,"*":10,"+":11,",":12,"-":13,".":14,"/":15,"0":16,"1":17,"2":18,"3":19,"4":20,"5":21,"6":22,"7":23,"8":24,"9":25,":":26,";":27,"<":28,"=":29,">":30,"?":31,"@":32,"A":33,"B":34,"C":35,"D":36,"E":37,"F":38,"G":39,"H":40,"I":41,"J":42,"K":43,"L":44,"M":45,"N":46,"O":47,"P":48,"Q":49,"R":50,"S":51,"T":52,"U":53,"V":54,"W":55,"X":56,"Y":57,"Z":58,"[":59,"\\":60,"]":61,"^":62,"_":63,"`":64,"a":65,"b":66,"c":67,"d":68,"e":69,"f":70,"g":71,"h":72,"i":73,"j":74,"k":75,"l":76,"m":77,"n":78,"o":79,"p":80,"q":81,"r":82,"s":83,"t":84,"u":85,"v":86,"w":87,"x":88,"y":89,"z":90,"{":91,"|":92,"}":93,"~":94,"¡":95,"¢":96,"£":97,"¤":98,"¥":99,"¦":100,"§":101,"¨":102,"©":103,"ª":104,"«":105,"¬":106,"®":107,"¯":108,"°":109,"±":110,"²":111,"³":112,"´":113,"µ":114,"¶":115,"·":116,"¸":117,"¹":118,"º":119,"»":120,"¼":121,"½":122,"¾":123,"¿":124,"Â":125,"Ã":126,"Ä":127,"Å":128,"Æ":129,"Ç":130,"È":131,"É":132,"Ê":133,"Ë":134,"Ì":135,"Í":136,"Î":137,"Ï":138,"Ð":139,"Ñ":140,"Ò":141,"Ó":142,"Ô":143,"Õ":144,"Ö":145,"×":146,"Ø":147,"Ù":148,"Ú":149,"Û":150,"Ü":151,"Ý":152,"Þ":153,"ß":154,"à":155,"á":156,"â":157,"ã":158,"ä":159,"å":160,"æ":161,"ç":162,"è":163,"é":164,"ê":165,"ë":166,"ì":167,"í":168,"î":169,"ï":170,"ð":171,"ñ":172,"ó":173,"ô":174,"Ā":175,"ā":176,"Ă":177,"ă":178,"Ą":179,"ą":180,"Ć":181,"ć":182,"Ĉ":183,"ĉ":184,"Ċ":185,"ċ":186,"Č":187,"č":188,"Đ":189,"Ē":190,"ē":191,"Ĕ":192,"ĕ":193,"ė":194,"Ę":195,"ę":196,"Ě":197,"ě":198,"ğ":199,"Ġ":200,"ġ":201,"Ģ":202,"ģ":203,"Ĥ":204,"ĥ":205,"Ħ":206,"ħ":207,"Ĩ":208,"ĩ":209,"Ī":210,"ī":211,"Ĭ":212,"ĭ":213,"Į":214,"į":215,"İ":216,"ı":217,"Ĳ":218,"ĳ":219,"Ĵ":220,"ĵ":221,"Ķ":222,"ķ":223,"ĸ":224,"Ĺ":225,"ĺ":226,"Ļ":227,"ļ":228,"Ľ":229,"ľ":230,"Ŀ":231,"ŀ":232,"Ł":233,"ł":234,"Ń":235,"Ġt":236,"in":237,"he":238,"Ġa":239,"on":240,"er":241,"ĠĠ":242,"re":243,"Ġthe":244,"at":245,"en":246,"or":247,"Ġs":248,"an":249,"al":250,"Ġo":251,"it":252,"is":253,"es":254,"Ġw":255,"Ġc":256,"ed":257,"ar":258,"Ġf":259,"ion":260,"Ġof":261,"nd":262,"Ġin":263,"Ġp":264,"Ġb":265,"ing":266,"ic":267,"le":268,"ro":269,"as":270,"Ġand":271,"ĠĠĠĠ":272,"Ġm":273,"Ġd":274,"Ġto":275,"ou":276,"ent":277,"ct":278,"el":279,"Ġ\\":280,"et":281,"il":282,"Ġh":283,"om":284,"st":285,"am":286,"ĠS":287,"ig":288,"Ġ$":289,"Ġre":290,"Ġth":291,"ĠT":292,"ol":293,"ation":294,"ĠC":295,"Ġn":296,"ra":297,"Ġe":298,"ĠA":299,"Ġl":300,"im":301,"ot":302,"Ġ(":303,"id":304,"Ġis":305,"iv":306,"ce":307,"ur":308,"ut":309,"ch":310,"ĠM":311,"Ġfor":312,"Ġg":313,"us":314,"ly":315,"ow":316,"âĢ":317,"Ġon":318,"ĠI":319,"ad":320,"ul":321,"{\\":322,"ers":323,"ĠB":324,"ĠP":325,"ith":326,"Ġbe":327,"em":328,"ir":329,"Ġst":330,"20":331,"ay":332,"um":333,"un":334,"ter":335,"ab":336,"Ġas":337,"qu":338,"ĠH":339,"Ġthat":340,"ĠĠĠ":341,"ver":342,"se":343,"Ġwith":344,"ĠR":345,"od":346,"Ġcon":347,"ĠF":348,"if":349,"ist":350,"ag":351,"ĠD":352,"th":353,"ĠĠĠĠĠĠĠĠ":354,"ĠL":355,"Ġal":356,"ĠThe":357,"19":358,"her":359,"and":360,"Ġan":361,"Ġv":362,"ĠW":363,"Ġwas":364,"Ġpro":365,"end":366,"eg":367,"ĠN":368,"_{":369,"Ġby":370,"ac":371,"ĠG":372,"ri":373,"ve":374,"igh":375,"est":376,"op":377,"ect":378,"res":379,"ath":380,"os":381,"ĠE":382,"Ġwh":383,"ate":384,"ity":385,"rom":386,"Ġat":387,"pp":388,"oc":389,"Ġcom":390,"ĠĊ":391,"Ġ$\\":392,"Ġde":393,"Ġit":394,"art":395,"ain":396,"Ġex":397,"ore":398,"ill":399,"Ġare":400,"ies":401,"ub":402,"ew":403,"ight":404,"Ġfrom":405,"čĊ":406,"ĠJ":407,"ph":408,"ess":409,"pt":410,"ction":411,"ure":412,"Ġhe":413,"ant":414,"math":415,"ort":416,"all":417,"ex":418,"ial":419,"ine":420,"Ġor":421,"ĠO":422,"ud":423,"Ġ&":424,"ak":425,"ive":426,"up":427,"ec":428,"Ġy":429,"ge":430,"Ġwe":431,"ment":432,"ld":433,"Ġ=":434,"Ġr":435,"our":436,"}\\":437,"The":438,"ber":439,"^{":440,"}$":441,"'s":442,"nt":443,"ite":444,"og":445,"pl":446,"ich":447,"ard":448,"ĠU":449,"ated":450,"ĠK":451,"ass":452,"ap":453,"ell":454,"Ġch":455,"Ġsh":456,"âĢĻ":457,"ref":458,"iz":459,"und":460,"ian":461,"ical":462,"ran":463,"ame":464,"ia":465,"ary":466,"ust":467,"Ġse":468,"Ġ\"":469,"Ġthis":470,"Ġsp":471,"ave":472,"Ġpl":473,"ĠâĢ":474,"Ġle":475,"ue":476,"Ġus":477,"ult":478,"201":479,"ip":480,"cl":481,"ff":482,"ast":483,"ma":484,"ĠIn":485,"ft":486,"rac":487,"00":488,"Ġnot":489,"ign":490,"orm":491,"ta":492,"ition":493,"Ġcl":494,"ong":495,"Ġcomp":496,"ĠĠĠĠĠĠĠ":497,"per":498,"ear":499,"}}":500,"are":501,"ug":502,"age":503,"(\\":504,"Ġk":505,"ĠSt":506,"sp":507,"ost":508,"fer":509,"ext":510,"ep":511,"ack":512,"av":513,"Ġ-":514,"du":515,"ations":516,"ens":517,"ire":518,"),":519,"int":520,"Ġwhich":521,"egin":522,"ĠV":523,"ord":524,"begin":525,"ork":526,"Ġhave":527,"ov":528,"Ġsu":529,"ĉĉ":530,"Ġcan":531,"ence":532,"ther":533,"cal":534,"so":535,"Ġhis":536,"ide":537,"cc":538,")$":539,"Ġwhe":540,"_{\\":541,"ace":542,"able":543,"ime":544,"ere":545,"to":546,"ions":547,"Ġun":548,"Ġhas":549,"enc":550,"ous":551,"ib":552,"ok":553,"Ġcont":554,"200":555,").":556,"ry":557,"ĠCh":558,"out":559,"ric":560,"Ġall":561,"ase":562,"Ġab":563,"ome":564,"Ġ<":565,"ang":566,"=\"":567,"ond":568,"}{":569,"act":570,"ish":571,"Ġad":572,"ru":573,"rm":574,"ould":575,"Ġim":576,"ach":577,"ind":578,"Ġalso":579,"ice":580,"frac":581,"ild":582,"equ":583,"ie":584,"mer":585,"Ġapp":586,"ĠTh":587,"Ġ|":588,"Ġj":589,"form":590,"eq":591,"Ġwere":592,"right":593,"oll":594,"},":595,"erv":596,"18":597,");":598,"ik":599,"over":600,"In":601,"Ġres":602,"ener":603,"Ġ{":604,"ory":605,"ents":606,"own":607,"irst":608,"Ġone":609,"the":610,"..":611,"Ġpart":612,"--":613,"ound":614,"abel":615,"ount":616,"erm":617,"wo":618,"cite":619,"ile":620,"ree":621,"ance":622,"ors":623,"tern":624,"text":625,"ely":626,"10":627,"Ġtheir":628,"ark":629,"</":630,"old":631,"ates":632,"ally":633,"Ġar":634,"Ġbut":635,"Ġro":636,"eta":637,"Ġdis":638,"ress":639,"ĠY":640,"rit":641,"Ġyou":642,"clud":643,"Ġme":644,"ose":645,"urn":646,"mathb":647,"ey":648,"pe":649,"label":650,"Ġout":651,"lic":652,"Ġper":653,"amp":654,",\\":655,"ob":656,"row":657,"Ġits":658,"rib":659,"ll":660,"$,":661,"ef":662,"Ġmod":663,"Ġqu":664,"port":665,"Ġwill":666,"we":667,"equation":668,"Ġfirst":669,"com":670,"$.":671,"ĠUn":672,"hed":673,"ks":674,"ĠIt":675,"Ġev":676,"ĠHe":677,"con":678,"ĠĠĠĠĠĠĠĠĠĠĠĠĠĠĠĠ":679,"vel":680,"pro":681,"ics":682,"Ġtwo":683,"Ġte":684,"âĢĵ":685,"Ġman":686,"})":687,"left":688,"Ġother":689,"//":690,"ject":691,"Ġsc":692,"Ġhad":693,"fter":694,"Ġplay":695,"mathcal":696,"Ġpre":697,"Ġif":698,"ps":699,"ational":700,"Ġwho":701,"Ġmore":702,"ater":703,"Ġag":704,"one":705,"ng":706,"ĠâĢĵ":707,"ss":708,"Ġnew":709,"te":710,"}.":711,"Ġup":712,"ugh":713,"Ġob":714,"fig":715,"rans":716,"}(":717,"amb":718,"Ġthey":719,"Ġwork":720,"Ġsy":721,"Ġover":722,"Ġdo":723,"Ġdes":724,"ook":725,"199":726,"cent":727,"âĢĿ":728,"rad":729,"oint":730,"Ġbeen":731,"ake":732,"ular":733,"ari":734,"Ġ+":735,"aw":736,"iel":737,"Ġ||":738,"ings":739,"}^":740,"orn":741,"lect":742,"Ġher":743,"Ġtime":744,"ata":745,"iss":746,"les":747,"}_":748,"Ġen":749,"ons":750,"ood":751,"Ġ}":752,"Ġyear":753,"line":754,"imes":755,"li":756,"vi":757,"ollow":758,"ĠĠĠĠĠĠĠĠĠĠĠ":759,"pha":760,"~\\":761,"Ġass":762,"Ġso":763,"da":764,"Ġint":765,"Ġcons":766,"Ġinter":767,"under":768,"ased":769,"ution":770,"Ġclass":771,"Ġne":772,"Ġset":773,"Ġ*":774,"eop":775,"12":776,"unction":777,"ys":778,"ool":779,"Ġbet":780,"ences":781,"ans":782,"ram":783,"gh":784,"Ġind":785,"Ġdef":786,"alpha":787,"ield":788,"als":789,"ced":790,"ix":791,"ative":792,"ivers":793,"eople":794,"Ġinto":795,")\\":796,"Ġcomm":797,"very":798,"land":799,"raph":800,"Ġsub":801,"tain":802,"ption":803,"arg":804,"ock":805,"Ġwhen":806,"Ġwhere":807,"olog":808,"Ġinclud":809,"ail":810,"Re":811,"Ġacc":812,"Ġexp":813,"ited":814,"oth":815,"aus":816,"Ġdif":817,"Ġonly":818,"ific":819,"Ġreg":820,"ode":821,"Ġfollow":822,"Ġthan":823,"sh":824,"stem":825,"Ġthere":826,"Ġform":827,"umber":828,"ied":829,"ray":830,"ward":831,"\">":832,"ict":833,"hat":834,"eth":835,"Ġabout":836,"elta":837,"ambda":838,"Ġ[":839,"of":840,"Ġsuch":841,"ember":842,"app":843,"$\\":844,"tt":845,"ating":846,"ays":847,"resent":848,"meric":849,"ual":850,"roup":851,"sc":852,"Ġbec":853,"ĠWe":854,"ough":855,"round":856,"Ġrel":857,"pr":858,"oy":859,"Ġoff":860,"Ġkn":861,"ities":862,"Ġour":863,"io":864,"uring":865,"ĠThis":866,"mb":867,"Ġunder":868,"ublic":869,"ĠĠĠĠĠ":870,"ick":871,"ont":872,"red":873,"Ġsome":874,"ann":875,"amma":876,"15":877,"Ġfl":878,"ax":879,"ike":880,"Ġany":881,"rough":882,"Ġrec":883,"Ġact":884,"ween":885,"ince":886,"ck":887,"Ġwould":888,"Ġval":889,"inal":890,"ĠâĢľ":891,"ĠCom":892,"ty":893,"Ġresult":894,"Ġdist":895,"ident":896,"Ġph":897,"202":898,"16":899,"mu":900,"Ġafter":901,"_\\":902,"ize":903,"ĠNew":904,"oot":905,"Ġthen":906,"Ġpos":907,"ring":908,"ox":909,"Ġco":910,"Ġstud":911,"ee":912,"17":913,"der":914,"ces":915,"Ġret":916,"ms":917,"let":918,"=\\":919,"ise":920,"Ġshe":921,"ined":922,"Ġgener":923,"Ġshow":924,"Ġmodel":925,"dot":926,"igma":927,"Ġloc":928,"ures":929,"ral":930,"Ġbetween":931,"Ġfunction":932,"Ġinv":933,"ren":934,"St":935,"Ġ\\\\":936,"Ġsec":937,"198":938,"ility":939,"Ġconst":940,"part":941,"Ġsim":942,"Ġpol":943,"Ġpr":944,"ho":945,"arch":946,"mathbb":947,"}_{":948,"}^{":949,"sub":950,"orld":951,"Ġtrans":952,"ade":953,"Ġatt":954,"Ġcol":955,"ull":956,"Ġfe":957,"Ġprodu":958,"Ġfil":959,"ega":960,"-\\":961,"ĠAl":962,"che":963,"Ġprov":964,"ĠPro":965,"ient":966,"ferences":967,"ove":968,"ower":969,"Ġno":970,"its":971,"dition":972,"pos":973,"ne":974,"ments":975,"ection":976,"Ġtra":977,"Ġpeople":978,"cre":979,"elf":980,"Ġ{\\":981,"ists":982,"Ġ'":983,"^{\\":984,"ily":985,"11":986,"phi":987,"ues":988,"Ġbl":989,"Ġequ":990,"ts":991,"chool":992,"Ex":993,"Ġthese":994,"Ġused":995,"Ġmost":996,"ruct":997,"ature":998,"lambda":999,"wn":1000,"Ġsystem":1001,"13":1002,"ible":1003,"par":1004,"Ġdiffer":1005,"ider":1006,"ĠAmeric":1007,"ble":1008,"reat":1009,"ĠAr":1010,"ins":1011,"air":1012,"ever":1013,"Ġrem":1014,"set":1015,"Ġcor":1016,"14":1017,"ton":1018,"abl":1019,"Ġmay":1020,"ink":1021,"ision":1022,"bf":1023,"Ġeff":1024,"ines":1025,"ĠDe":1026,"aid":1027,"get":1028,"ames":1029,"Ġbu":1030,"**":1031,"ement":1032,"Ġest":1033,"any":1034,"ĠZ":1035,"Ġpar":1036,"ason":1037,"Ġthrough":1038,"Ġspec":1039,"Ġmat":1040,"put":1041,"Ġeach":1042,"Ġsupp":1043,"Ġthem":1044,"pi":1045,"gan":1046,"197":1047,"Ġresp":1048,"oci":1049,"ished":1050,"References":1051,"irect":1052,"ball":1053,"Ġgiv":1054,"itt":1055,"Ġgo":1056,"Ġsm":1057,"oh":1058,"ning":1059,"ash":1060,"Ġam":1061,"Ġdata":1062,"hip":1063,"align":1064,"Ġserv":1065,"Ġwell":1066,"Ġpoint":1067,"ilon":1068,"oun":1069,"Th":1070,"ized":1071,"iversity":1072,"ĠFor":1073,"Ġend":1074,"Ġac":1075,"ĠQ":1076,"Ġent":1077,"eng":1078,"ĠSh":1079,"bar":1080,"Ġra":1081,"ator":1082,"Ġext":1083,"ah":1084,"ev":1085,"Ġget":1086,"ype":1087,"Ġnumber":1088,"We":1089,"ange":1090,"Ġsign":1091,"sigma":1092,"man":1093,"ife":1094,"sum":1095,"Ġ(\\":1096,"ract":1097,"Ġinst":1098,"uss":1099,"mathbf":1100,"Ġagain":1101,"ple":1102,"Ġreturn":1103,"Ġuse":1104,"ause":1105,"Ġline":1106,"hen":1107,"min":1108,"30":1109,"Ġhim":1110,"25":1111,"velop":1112,"Ġsur":1113,"ute":1114,"uch":1115,"Ġsol":1116,"ĠAn":1117,"Ġcur":1118,"}{\\":1119,"Ġyears":1120,"^{-":1121,"section":1122,"ilde":1123,"Ġ.":1124,"orth":1125,"Ġhow":1126,"Ġback":1127,"beta":1128,"ert":1129,"Ġmon":1130,"ism":1131,"Ġed":1132,"Ġcent":1133,"ĠLe":1134,"ern":1135,"cess":1136,"ote":1137,"Ġthree":1138,"wid":1139,"Ġvari":1140,"uc":1141,"here":1142,"yn":1143,"ron":1144,"ars":1145,"Ġappro":1146,"\",":1147,"Ġhigh":1148,"Ġdifferent":1149,"Ġfound":1150,"Ġser":1151,"ier":1152,"Ġoper":1153,"ices":1154,"ury":1155,"outh":1156,"att":1157,"Ġgroup":1158,"ĠInd":1159,"Ġsame":1160,"eps":1161,"ner":1162,"Ġboth":1163,"Ġrep":1164,"196":1165,"way":1166,"Ġi":1167,"Ġcase":1168,"+\\":1169,"----":1170,"ization":1171,"az":1172,"Ġpartic":1173,"array":1174,"ource":1175,"Ġcall":1176,"ically":1177,"ale":1178,"Ġmin":1179,"lection":1180,"ĠSe":1181,"gamma":1182,"col":1183,"ional":1184,"Ġlike":1185,"()":1186,"Ġsecond":1187,"Ġchar":1188,"Ġlead":1189,"ĠCl":1190,"Ġsing":1191,"other":1192,"erson":1193,"aj":1194,"==":1195,"Ġduring":1196,"Ġstate":1197,"Ġfin":1198,"*}":1199,"mathrm":1200,"uth":1201,"ten":1202,"Ġem":1203,"ret":1204,"Ġyour":1205,"Ġteam":1206,"rho":1207,"Ġsaid":1208,"pen":1209,"fl":1210,"emb":1211,"ank":1212,"ouse":1213,"\\\\":1214,"ages":1215,"Ġx":1216,"Ġart":1217,"Ġwhile":1218,"Ġfam":1219,"ethod":1220,"sy":1221,"arly":1222,"Ġnon":1223,"ternal":1224,"iver":1225,"^\\":1226,"Ġrequ":1227,"Ġcre":1228,"Ġdec":1229,"ĠX":1230,"Ġbeing":1231,"ets":1232,"view":1233,"Ġusing":1234,"eter":1235,"ross":1236,"ology":1237,"Ġperform":1238,"ĠAmerican":1239,"gy":1240,"delta":1241,"Ġfollowing":1242,"Ġmany":1243,"Ġterm":1244,"ected":1245,"50":1246,"ĠSp":1247,"ants":1248,")}":1249,"Ġpublic":1250,"000":1251,"atic":1252,"tau":1253,"overn":1254,"Ġdisc":1255,"ather":1256,"Ġstr":1257,"aking":1258,"ĠUniversity":1259,"son":1260,"Ġmade":1261,"ural":1262,"Ġsee":1263,"Ġfield":1264,"for":1265,"theta":1266,"ĠSc":1267,"ĠAs":1268,"ases":1269,"fore":1270,"rent":1271,"Ġjust":1272,"ample":1273,"ĠCol":1274,"val":1275,"Ġmed":1276,"Ġtr":1277,"formation":1278,".,":1279,"rict":1280,"Ġname":1281,"Ġorder":1282,"cdot":1283,"eb":1284,"leq":1285,"mm":1286,"irc":1287,"ired":1288,"Ġwhat":1289,"Ġneed":1290,"Ġconsider":1291,"Ġrele":1292,"Ã©":1293,"$-":1294,"ĠCon":1295,"Ġlong":1296,"]{":1297,"Ġcould":1298,"item":1299,"24":1300,"Ġfact":1301,"Ġ/":1302,"Ġnow":1303,"Ġstart":1304,"ively":1305,"Ġdesc":1306,"ality":1307,"Ġdevelop":1308,"vert":1309,"Ġdet":1310,"Ġexper":1311,"ulation":1312,"ina":1313,"Ġcount":1314,"anc":1315,"partial":1316,"Ġgiven":1317,"ĠĠĠĠĠĠĠĠĠĠĠĠĠĠĠ":1318,"}$,":1319,"big":1320,"}$.":1321,"rid":1322,"Ġdirect":1323,"ĠUnited":1324,"chn":1325,"Ġbel":1326,"quad":1327,"au":1328,"arrow":1329,"Ġevery":1330,"ared":1331,"ential":1332,"ĠRe":1333,"nu":1334,"Ġbefore":1335,"ived":1336,"ots":1337,"figure":1338,"by":1339,"Ġsmall":1340,"err":1341,"led":1342,"}(\\":1343,"194":1344,"work":1345,"hes":1346,"ful":1347,"Ġeffect":1348,"->":1349,"vent":1350,"usic":1351,"gram":1352,"21":1353,"eqn":1354,"Ġsupport":1355,"times":1356,"Ġmain":1357,"ting":1358,"ober":1359,"eqref":1360,"ives":1361,"arge":1362,"iving":1363,"ĠIs":1364,"ency":1365,"ience":1366,"cept":1367,"Ġright":1368,"Ġpop":1369,"Ġadd":1370,"vers":1371,"Ġgu":1372,"Ġmy":1373,"Ġz":1374,"ĠAd":1375,"fty":1376,"ley":1377,"Ġdr":1378,"ved":1379,"Ġwrit":1380,"Ġcontin":1381,"22":1382,"yp":1383,"inks":1384,"infty":1385,"ĠBl":1386,"ohn":1387,"Ġ:":1388,"sec":1389,"serv":1390,"omega":1391,"els":1392,"ission":1393,"ĠEng":1394,"me":1395,"def":1396,"Ġown":1397,"Ġmov":1398,"...":1399,"ĠShe":1400,"omen":1401,"yle":1402,"ĉĉĉĉ":1403,"var":1404,"ĠOn":1405,"tilde":1406,"alth":1407,"ootball":1408,"pm":1409,"ital":1410,"rang":1411,"iqu":1412,"Ġfour":1413,"ior":1414,"Ġincluding":1415,"ĠMar":1416,"Ġsince":1417,"Ġbecause":1418,"23":1419,"enn":1420,"istory":1421,"day":1422,"ott":1423,"ĠPh":1424,"Ġeven":1425,".\"":1426,"ĠHow":1427,"ability":1428,"Ch":1429,"arn":1430,"ining":1431,"Ġvery":1432,"Ġanal":1433,"ane":1434,"ĠPl":1435,"af":1436,"read":1437,"width":1438,"Pro":1439,"ified":1440,"Ġexpl":1441,"Ġdep":1442,"ĠComm":1443,"ths":1444,"rt":1445,"ering":1446,"Ġpresent":1447,"Ġknown":1448,"Ġprocess":1449,"Ġshould":1450,"oad":1451,"resp":1452,"ĠEx":1453,"uro":1454,"ole":1455,"une":1456,"Ġcar":1457,"|\\":1458,"Ġagainst":1459,"ograph":1460,"lex":1461,"Âł":1462,"Ġresults":1463,"Ġrun":1464,"Ġelect":1465,"Ġvalue":1466,"ffic":1467,"Ġmethod":1468,"Ġfind":1469,"ript":1470,"Ġplayers":1471,"ven":1472,"ually":1473,"Ġu":1474,"ery":1475,"Ġrecord":1476,"ains":1477,"It":1478,"Ġincre":1479,"ek":1480,"apt":1481,"ask":1482,"ĠAnd":1483,"ness":1484,"Ġvi":1485,"Delta":1486,"Ġmake":1487,"oid":1488,"rand":1489,"Ġsl":1490,"Ġseason":1491,"Ġdid":1492,"Ġorig":1493,"Ġlinks":1494,"Ġdesign":1495,"Ġhel":1496,"195":1497,"Ġdoes":1498,"This":1499,"Ġopen":1500,"Ġ</":1501,"umn":1502,"med":1503,"ration":1504,"Ġlast":1505,"atch":1506,"Ġlater":1507,"Ġthose":1508,"Ġmet":1509,"Ġpres":1510,"Ġschool":1511,"Ġ//":1512,"Ġcommun":1513,"xi":1514,"Ġway":1515,"mp":1516,"Con":1517,"Ġobtain":1518,"Ġrepresent":1519,"rol":1520,"ival":1521,"ĠMay":1522,"ird":1523,"ĠStates":1524,"iness":1525,"Ġparam":1526,"../":1527,"\\,":1528,"rop":1529,"ety":1530,"where":1531,"oss":1532,"space":1533,"ĠCount":1534,"cer":1535,"Ġ@":1536,"ubl":1537,"ER":1538,"ister":1539,"Ġel":1540,"Ġbuild":1541,"Ġmeas":1542,"ai":1543,"Ġposs":1544,"ĠJan":1545,"lement":1546,"vious":1547,"ctions":1548,"27":1549,"ĠâĢĶ":1550,"))":1551,"Ġknow":1552,"Ġhand":1553,"not":1554,"rix":1555,"Ġgame":1556,"26":1557,"Ġtest":1558,"rel":1559,"Ġseries":1560,"Ġbased":1561,"ml":1562,"Ġcharact":1563,"Ġreport":1564,"Ġmult":1565,"Ġworld":1566,"Ġfilm":1567,"agn":1568,"bum":1569,"ccess":1570,"Ġlocal":1571,"Ġtop":1572,"co":1573,"Ġrece":1574,"eqnarray":1575,"ris":1576,"$$":1577,"Ġlist":1578,"ium":1579,"etwork":1580,"ĠCar":1581,"ateg":1582,"til":1583,"Ġproper":1584,"2020":1585,"28":1586,"ke":1587,"ca":1588,"orem":1589,"Ġlarge":1590,"Ġread":1591,"Ġdescrib":1592,"ĠJohn":1593,"Ġ,":1594,"Ġsever":1595,"raw":1596,"Ġcondition":1597,"Ġ$(":1598,"bs":1599,"Ġprof":1600,"Ġmass":1601,"',":1602,"reen":1603,"External":1604,"ribut":1605,")$.":1606,"energy":1607,"ious":1608,"Ġbound":1609,"urther":1610,"ĠFran":1611,"inc":1612,"Ph":1613,"://":1614,"Ġdown":1615,"akes":1616,"Ġallow":1617,"epend":1618,"rist":1619,"ides":1620,"Ġfamily":1621,"::":1622,"}}\\":1623,"overnment":1624,"ĠWorld":1625,"Ġproble":1626,"Ġstruct":1627,"Ġstand":1628,"Ġrest":1629,"bl":1630,"ĠNational":1631,"Ġlife":1632,"ĠTe":1633,"2022":1634,"ger":1635,"Ġimport":1636,"For":1637,"ument":1638,"ially":1639,"}[":1640,"ense":1641,"ves":1642,"ided":1643,"Ġgl":1644,"Ġav":1645,"sq":1646,"ague":1647,"ternational":1648,"sk":1649,"epsilon":1650,"Ġspace":1651,"iam":1652,"Ġtype":1653,"Com":1654,"Ġreal":1655,"arm":1656,"psi":1657,"span":1658,"Ġlim":1659,"umer":1660,"ht":1661,"2018":1662,"ody":1663,"40":1664,"Ġprogram":1665,"por":1666,"Ġaround":1667,"Ġstat":1668,"ĠAll":1669,"100":1670,"âĢľ":1671,"Ġgeneral":1672,"ĠĠĊ":1673,"Ġmark":1674,"Ġmuch":1675,"ribution":1676,"itive":1677,"uary":1678,"ify":1679,"Ġpower":1680,"Ġcare":1681,"ised":1682,"rack":1683,"urch":1684,"essage":1685,"Ġestabl":1686,"usiness":1687,"ĠCan":1688,".âĢĿ":1689,"Ġbro":1690,"Ġpass":1691,"Ġrespect":1692,"Ġlevel":1693,"Ġcurrent":1694,"2019":1695,"\".":1696,"ĠCent":1697,"IN":1698,"lang":1699,"includ":1700,"ĠRes":1701,"ĠAss":1702,"olution":1703,"ately":1704,"less":1705,"ĠNov":1706,"side":1707,"Ġinformation":1708,"Ġchild":1709,"rodu":1710,"alk":1711,"Ġvis":1712,"Ġhelp":1713,"ĠWh":1714,"Ġcalled":1715,"29":1716,"Ġche":1717,"2017":1718,"Ġproject":1719,"On":1720,"Ġpat":1721,"ĠAust":1722,"ST":1723,"ians":1724,"Ġorgan":1725,"aces":1726,"ĠOr":1727,"Ġopt":1728,"Ġwin":1729,"Ġann":1730,"Ġrad":1731,"wards":1732,"mod":1733,"Ġstill":1734,"ĠWar":1735,"Ġdue":1736,"ĠAt":1737,"Ġident":1738,"ajor":1739,"Ġprot":1740,"Om":1741,"}_{\\":1742,"Ġobserv":1743,"2016":1744,"Ġaddition":1745,"embers":1746,"be":1747,"Ġfootball":1748,"ĠSchool":1749,"'t":1750,"AR":1751,"respond":1752,"Ġbook":1753,"2021":1754,"back":1755,"Ġtechn":1756,"193":1757,"Ġnear":1758,"oard":1759,"ĠYork":1760,"uper":1761,"Ġplace":1762,"Ġalbum":1763,"Ġocc":1764,"fra":1765,"Ġtake":1766,"ON":1767,"Ġleft":1768,"div":1769,"ene":1770,"Ġalong":1771,"Ġhead":1772,"sim":1773,"ĠMan":1774,"Ġtem":1775,"Ġwithin":1776,"ĠFig":1777,"As":1778,"Ġsingle":1779,"aving":1780,"ĠThey":1781,"mbol":1782,"Ġbest":1783,"ume":1784,"Ġenergy":1785,"Ġlook":1786,"Ġperson":1787,"Gamma":1788,"sqrt":1789,"Ġ#":1790,"Omega":1791,"ĠYou":1792,"ĠJu":1793,"lem":1794,"Ġlaw":1795,"^*":1796,"ĠCounty":1797,")$,":1798,"ording":1799,"urs":1800,"Ġinit":1801,"ended":1802,"umb":1803,"Ġconf":1804,"Ġtri":1805,"use":1806,"Ġref":1807,"psilon":1808,"Ġseveral":1809,"2010":1810,"></":1811,"uthor":1812,"Ġvers":1813,"Ġuntil":1814,"Ġarea":1815,"ĠHowever":1816,"><":1817,"Ġfinal":1818,"omet":1819,"ĠOct":1820,"Ġ${\\":1821,"ination":1822,"ilar":1823,"reg":1824,"Ġpost":1825,"ĠAug":1826,"Ġgood":1827,"2015":1828,"ony":1829,"osed":1830,"ww":1831,"ĠIf":1832,"2014":1833,"rem":1834,"Ġ`":1835,"Ġpolit":1836,"Ġdem":1837,"iod":1838,"ĠGe":1839,"Ġbecame":1840,"Ġoffic":1841,"tr":1842,"lev":1843,"AT":1844,"ĠRep":1845,"ector":1846,"amed":1847,"Ġhere":1848,"Ġbir":1849,"ĠPr":1850,"Ġcal":1851,"ators":1852,"ĠUS":1853,"ĠSouth":1854,"Ġdeath":1855,"ĠBrit":1856,"log":1857,"ptember":1858,"Ġmusic":1859,"Ġcour":1860,"Ġdi":1861,"ength":1862,"ĠPol":1863,"imens":1864,"ead":1865,"aper":1866,"eed":1867,"ats":1868,"ĠJanuary":1869,"ends":1870,"ories":1871,"org":1872,"play":1873,"2013":1874,"illion":1875,"Ġscal":1876,"vare":1877,"Ġabove":1878,"rightarrow":1879,"Ġbeh":1880,"ourn":1881,"Ġgra":1882,"mber":1883,"ĠMarch":1884,"Ġsum":1885,"ĠGu":1886,"oman":1887,"2012":1888,"Ġsong":1889,"ament":1890,"ugg":1891,"ĠPar":1892,"ream":1893,"ĉĉĉ":1894,"aster":1895,"Ġinc":1896,"ĠBe":1897,"Ġconn":1898,"Ġadv":1899,"^{(":1900,"ero":1901,"varepsilon":1902,"pril":1903,"Ġcorrespond":1904,"face":1905,"Ġday":1906,"ĠEuro":1907,"Ġcap":1908,"ords":1909,"Ġappear":1910,"ĠGerm":1911,"}=":1912,"str":1913,"Ġevent":1914,"Ġmeasure":1915,"Ġstudy":1916,"2011":1917,"An":1918,"Ġestim":1919,"ler":1920,"wh":1921,"itle":1922,"subsection":1923,"ĠMin":1924,"Ġimp":1925,"ID":1926,"aim":1927,"self":1928,"Ġ\\,":1929,"):":1930,"rangle":1931,"ored":1932,"Ġinf":1933,")=":1934,"(\"":1935,"ift":1936,"Ġtot":1937,"ification":1938,"ling":1939,"}^{\\":1940,"itions":1941,"();":1942,"Ġinteg":1943,"Al":1944,"ung":1945,"Ġdel":1946,"ule":1947,"Ġinterest":1948,"ĠSy":1949,"ij":1950,"60":1951,"Ġthough":1952,"Ġrefer":1953,"lim":1954,"cember":1955,"Ġcharacter":1956,"eters":1957,"lege":1958,"ries":1959,"Ġlarg":1960,"bm":1961,"raphics":1962,"ĠSeptember":1963,"Ġfre":1964,"ground":1965,"Ġmust":1966,"textbf":1967,"Ġtrad":1968,"Ġexample":1969,"idd":1970,"esc":1971,"Ġparticular":1972,"Ġhome":1973,"ches":1974,"Ġinvest":1975,"Ġet":1976,"Ġself":1977,"chi":1978,"ocial":1979,"Ġeng":1980,"duct":1981,"ope":1982,"ĠAugust":1983,"cm":1984,"etail":1985,"ĠOctober":1986,"Ġbas":1987,"Ġwithout":1988,"ploy":1989,"Ġnext":1990,"ued":1991,"lear":1992,"Ġiss":1993,"Ġearly":1994,"ĠTo":1995,"Ġbre":1996,"ison":1997,"ples":1998,"2008":1999,"Ġsat":2000,"ĠčĊ":2001,"Ġhig":2002,"Ġnetwork":2003,"ĠJune":2004,"Ġredu":2005,"ilt":2006,"Ġleg":2007,"ances":2008,"iron":2009,"istor":2010,"Ġanother":2011,"ormal":2012,"ĠState":2013,"lish":2014,"comm":2015,"iment":2016,"ae":2017,"dd":2018,"Ġden":2019,"atures":2020,"iter":2021,"ales":2022,"ĠCity":2023,"ĠCal":2024,"ĠFl":2025,"Ġcrit":2026,"Ġobject":2027,"uman":2028,"non":2029,"AS":2030,"ampions":2031,"atter":2032,"Ġsuccess":2033,"2009":2034,"gor":2035,"Ġopp":2036,"stit":2037,"html":2038,"ĠJuly":2039,"ĠCo":2040,"ĠApril":2041,"Ġlow":2042,"esp":2043,"oor":2044,"rag":2045,"--------":2046,"Ġprevious":2047,"imal":2048,"Ġformer":2049,"de":2050,"Ġsk":2051,"ĠNorth":2052,"âĢĶ":2053,"Ġlet":2054,"ilit":2055,"Ġcompany":2056,"Ġmanag":2057,"ĠII":2058,"rum":2059,"Ġwant":2060,"caption":2061,"Ġshort":2062,"ĠNovember":2063,"color":2064,"Ġsimilar":2065,"Ġold":2066,"ained":2067,"tab":2068,"Ġ>":2069,"ysis":2070,"gin":2071,"Ġwon":2072,"ĠDecember":2073,"ivity":2074,"33":2075,"Ġassoci":2076,"arent":2077,"bold":2078,"Ġland":2079,"Ġchang":2080,"Ġpoints":2081,"Ġaff":2082,"trans":2083,"ino":2084,"icle":2085,"|-":2086,"Ġpot":2087,"Ġmar":2088,"ients":2089,"Ġmajor":2090,"Ġcity":2091,"ush":2092,"ention":2093,"field":2094,"ensure":2095,"osp":2096,"Ġfull":2097,"Ġpubl":2098,"Ġrese":2099,"RE":2100,"refore":2101,"Ġcomput":2102,"ĠMed":2103,"Ġla":2104,"xim":2105,"''":2106,"new":2107,"Ġturn":2108,"leg":2109,"istic":2110,"egraphics":2111,"includegraphics":2112,"Ġband":2113,"ĠAustral":2114,"Ġdom":2115,"Ġvalues":2116,"ĠĠĠĠĠĠĠĠĠ":2117,"He":2118,"ailable":2119,"ĠFeb":2120,"Ġmembers":2121,"action":2122,"Ġbusiness":2123,"ensity":2124,"../../":2125,"ered":2126,"varphi":2127,"ser":2128,"Ġfew":2129,"Ġdeterm":2130,"Ġgovernment":2131,"45":2132,"ways":2133,"ĠEurope":2134,"see":2135,"lation":2136,"Ġproduct":2137,"Ġquant":2138,"80":2139,"Ġhold":2140,"cul":2141,"ĠReg":2142,",âĢĿ":2143,"To":2144,"90":2145,"Un":2146,"ĠAf":2147,"2007":2148,"ependent":2149,"ĠWill":2150,"ried":2151,"Ġshown":2152,"Ġintrodu":2153,"gorith":2154,"ster":2155,"ĠBut":2156,"Ġperiod":2157,"Ġtotal":2158,"ideo":2159,"ties":2160,"emph":2161,"ĠSec":2162,"Ġimportant":2163,"Ġerr":2164,"ruary":2165,"Ġinclude":2166,"ape":2167,"born":2168,"ĠThere":2169,"Ġwomen":2170,"Ġplayed":2171,"Ġgrow":2172,"ze":2173,"Ġhref":2174,"geq":2175,"Ġshows":2176,"Ġcompet":2177,"frak":2178,"Ġprob":2179,"Ġdiscuss":2180,"center":2181,"alf":2182,"uk":2183,"ĠNo":2184,"Ġsection":2185,"opt":2186,"Ġcomb":2187,"ruction":2188,"ault":2189,"ivid":2190,"Ġproblem":2191,"Ġcho":2192,"roll":2193,".~\\":2194,"upp":2195,"add":2196,"Ġreleased":2197,"ression":2198,"ography":2199,"****":2200,"position":2201,"htt":2202,"overline":2203,"ources":2204,"Ġke":2205,"Ġder":2206,"dis":2207,"aced":2208,"ham":2209,"ipp":2210,"Big":2211,")^":2212,"with":2213,"2006":2214,"ique":2215,"proof":2216,"Ġspect":2217,"Ġmodels":2218,"urb":2219,"Ġterms":2220,"Ġaut":2221,"ĠPart":2222,"oper":2223,"Ġcomplet":2224,"td":2225,"Ġview":2226,"this":2227,"&\\":2228,"lin":2229,".}":2230,"ivate":2231,"ĠCanad":2232,"ights":2233,"Ġfollows":2234,"ĠAb":2235,"Ġmean":2236,"Ġgreat":2237,"Ġstrong":2238,"Ġeas":2239,"Ġpred":2240,"Ġmap":2241,"ĠChrist":2242,"though":2243,"stand":2244,"Ġsize":2245,"Ġexist":2246,"ological":2247,"Ġ_":2248,"Ġsay":2249,"35":2250,"apan":2251,"etic":2252,"ynam":2253,"off":2254,"Ġcontrol":2255,"Ġprom":2256,"itor":2257,"Ġdon":2258,"By":2259,"ana":2260,"odes":2261,"Ġpossible":2262,"ĠBy":2263,"ĠEd":2264,"Ġvol":2265,"ĠMc":2266,"Ġtyp":2267,"conom":2268,"ĠHar":2269,"Ġtimes":2270,"no":2271,"Ġdeg":2272,"Ġfr":2273,"orph":2274,"ither":2275,"Cl":2276,"Ġsignific":2277,"angu":2278,"Ġless":2279,"eak":2280,"uck":2281,"vec":2282,"Ġside":2283,"source":2284,"},\\":2285,"32":2286,"ux":2287,"raft":2288,"ixed":2289,"ards":2290,"Ġdefined":2291,"ĠFebruary":2292,"ĠâĢĺ":2293,"ocus":2294,"OR":2295,"Ġphot":2296,"time":2297,"}).":2298,"ĠBritish":2299,"Ġsit":2300,"lected":2301,"Ġdescribed":2302,"ception":2303,"sequ":2304,"mathfrak":2305,"ĠKing":2306,"mmet":2307,"alse":2308,"ĠAfter":2309,"class":2310,"Ġimpro":2311,"Ġfree":2312,"empt":2313,"obal":2314,"ief":2315,"ĠĠĠĠĠĠĠĠĠĠĠĠĠĠĠĠĠĠĠ":2316,"[\\":2317,"plic":2318,"ones":2319,"Ġcou":2320,"viron":2321,"symbol":2322,"Ġaver":2323,"Let":2324,"Ġ)":2325,"Ġinvol":2326,"Ġ=>":2327,"Ġide":2328,"arget":2329,"Ġstructure":2330,"urg":2331,"ending":2332,"param":2333,"Ġfurther":2334,"Ġchange":2335,"ĠRec":2336,"Ġep":2337,"Ġkey":2338,"cont":2339,"Ġavailable":2340,"Ġcover":2341,"ware":2342,"Ġpotential":2343,"====":2344,"See":2345,"augh":2346,"sm":2347,"Ġgames":2348,"190":2349,"plit":2350,"ently":2351,"langle":2352,"mat":2353,"70":2354,"Ġregion":2355,"isf":2356,"AN":2357,"Ġwater":2358,"Ġstates":2359,"ĠCor":2360,"ĠBar":2361,"31":2362,"Ġport":2363,"ĠLeague":2364,"ampionship":2365,"AC":2366,"ĠEn":2367,"name":2368,"Ġphys":2369,"rew":2370,"wit":2371,"2000":2372,"ude":2373,"Ġtook":2374,"rap":2375,"Ġtrue":2376,"ising":2377,"box":2378,"Ġdiv":2379,"bra":2380,"Ġ*/":2381,"clus":2382,"Ġservice":2383,"Ġtown":2384,"ĠWest":2385,"ounc":2386,"iction":2387,"Ġwar":2388,"ittle":2389,"Ġhistory":2390,"Ġapplic":2391,"Ġdistribution":2392,"Ġthink":2393,"Ġfive":2394,"aint":2395,"Ġant":2396,"ably":2397,"Ġcamp":2398,"exp":2399,"Ġcareer":2400,"75":2401,"ĠMe":2402,"message":2403,"Ġamong":2404,"hline":2405,"uation":2406,"rench":2407,"ched":2408,"eder":2409,"Ġperformance":2410,"abor":2411,"ldots":2412,"Ġthird":2413,"ĠThese":2414,"order":2415,"ours":2416,"adem":2417,"Ġdeb":2418,"ĠRuss":2419,"nabl":2420,"utions":2421,"aul":2422,"}}$":2423,"Ġhouse":2424,"Ġfac":2425,"boldsymbol":2426,"aken":2427,"Ġmax":2428,"Ġmember":2429,"Ġchildren":2430,"mbox":2431,"AL":2432,"now":2433,"Ġoriginal":2434,"Ġoften":2435,"Ġjo":2436,"Ġarg":2437,"head":2438,"Ġmot":2439,"loc":2440,"Ġrecent":2441,"Ġspecial":2442,"Ġage":2443,"ĠApp":2444,"ges":2445,"ĠHis":2446,"Ġpopulation":2447,"('":2448,"appa":2449,"Lambda":2450,"ese":2451,"Ġdetail":2452,"ĠArm":2453,"âĢ¦":2454,"Ġauthor":2455,"Ġcoll":2456,"Ġheld":2457,"Ġposition":2458,"Ġaction":2459,"2005":2460,"Ġhy":2461,"ertain":2462,"Ġprofess":2463,"Ġenc":2464,"Ġsignificant":2465,"ius":2466,"Phi":2467,"ransp":2468,"uture":2469,"Ġlight":2470,"ĠAm":2471,"ille":2472,"Ġsix":2473,"hold":2474,"ĠEl":2475,"ĠAfric":2476,"oph":2477,"aterial":2478,"wide":2479,"ĠDist":2480,"aut":2481,"posed":2482,"Ġcell":2483,"idence":2484,"Ġleast":2485,"Ġhealth":2486,"inition":2487,"Ã¡":2488,"otimes":2489,"99":2490,"Ġcost":2491,"century":2492,"ald":2493,"Ġrange":2494,"reet":2495,"Ġresearch":2496,"Ġfilms":2497,"Americ":2498,"Ġeduc":2499,"Ġbirths":2500,"Id":2501,"yl":2502,"br":2503,"levision":2504,"imum":2505,"Ġbegan":2506,"onse":2507,"ables":2508,"Ġfore":2509,"ford":2510,"ĠEnglish":2511,"iting":2512,"Ġquest":2513,"iple":2514,"ondon":2515,"Ġpract":2516,"Ar":2517,"Ġair":2518,"icy":2519,"Sh":2520,"ĠJapan":2521,"Ġrole":2522,"Ġcomplex":2523,"Ġnamed":2524,"Ġbetter":2525,"eneral":2526,"Ġindic":2527,"Ġfeature":2528,"Ġweek":2529,"rest":2530,"Name":2531,"ĠThen":2532,"ĠGl":2533,"pd":2534,"nabla":2535,"Ġcountry":2536,"ĠPres":2537,"Ġapproxim":2538,"ĠAg":2539,"ference":2540,"ES":2541,"Ġmen":2542,"Ġattack":2543,"ĠHigh":2544,"na":2545,"onent":2546,"Ġclub":2547,"64":2548,"List":2549,"Ġreceived":2550,"ĠOne":2551,"ibr":2552,"asing":2553,"Ġfund":2554,"Ġaccess":2555,"Ġversion":2556,"Ġcommon":2557,"script":2558,"Ġrelations":2559,"Ġmagn":2560,"Ġbecome":2561,"ription":2562,"Ġmom":2563,"ĠPark":2564,"EN":2565,"Ġbi":2566,"urity":2567,"ĠComp":2568,"Ġpaper":2569,"Ġacross":2570,"ĠWith":2571,"Ġsequ":2572,"ĠSch":2573,"cast":2574,"Ġinfl":2575,"lete":2576,"ym":2577,"Ġins":2578,"Ġindivid":2579,"Ġlocated":2580,"table":2581,"Ġprovide":2582,"Ġrepl":2583,"ii":2584,"Ġcommunity":2585,"Ġanalysis":2586,"Ġtheory":2587,"sf":2588,"bit":2589,"Sp":2590,"vironment":2591,"If":2592,"Ġrate":2593,"orts":2594,"34":2595,"Ġestablished":2596,"inally":2597,"Res":2598,"Ġsystems":2599,"ows":2600,"rick":2601,"Ġcr":2602,"ĠMon":2603,"rown":2604,"2004":2605,"kappa":2606,"import":2607,"nonumber":2608,"otes":2609,"};":2610,"rain":2611,"Ġclaim":2612,"ĠArt":2613,"Ġtitle":2614,"mult":2615,"Ġvarious":2616,"gorithm":2617,"Ġobtained":2618,"ems":2619,"acy":2620,"aly":2621,"ĠDav":2622,"Ġnational":2623,"iles":2624,"hel":2625,"Ġpri":2626,"Ġannoun":2627,"Ġhaving":2628,"Ġtoo":2629,"iber":2630,"Ġ--":2631,"dom":2632,"inter":2633,"ured":2634,"code":2635,"uff":2636,".\\":2637,"Ġsatisf":2638,"gether":2639,"Ġred":2640,"Ġtogether":2641,"Type":2642,"chie":2643,"aff":2644,"American":2645,"Ġdiff":2646,"Ġincluded":2647,"36":2648,"Ġstyle":2649,"Ġapproach":2650,"oon":2651,"})$":2652,"Ġdevelopment":2653,"Ġconsidered":2654,"ĠLet":2655,"Ġsolution":2656,"Ġpath":2657,"ington":2658,"Ps":2659,"Ġpublished":2660,"ĠCollege":2661,"Ġput":2662,"type":2663,"Ġyoung":2664,"ĠAir":2665,"Ġfocus":2666,"most":2667,"atural":2668,"uild":2669,"Ġstation":2670,"Ġmillion":2671,"Ġseen":2672,"ips":2673,"style":2674,"}),":2675,"Ġfeatures":2676,"ĠĠĠĠĠĠĠĠĠĠĠĠĠĠĠĠĠĠĠĠĠĠĠĠĠĠĠĠĠĠĠĠ":2677,"IC":2678,"Ġcross":2679,"Ġlower":2680,"Ġcult":2681,"ĠSer":2682,"Ġhigher":2683,"ĠQu":2684,"Ġgen":2685,"iff":2686,"ouncil":2687,"Ġbuilt":2688,"ops":2689,"Ġhard":2690,"Ġdays":2691,"ogn":2692,"Ġvill":2693,"Ġcases":2694,"Ġbuilding":2695,"Ġreview":2696,"ĠChar":2697,"Ġassum":2698,"iet":2699,"ĠHouse":2700,"Ġstory":2701,"Ġalign":2702,"Ġdev":2703,"Ġnever":2704,"lements":2705,"Ġarch":2706,"ĠLondon":2707,"uggest":2708,"circ":2709,"citep":2710,"ready":2711,"Ġcirc":2712,"Ġevents":2713,"Ġdensity":2714,"Ġbo":2715,"hib":2716,"Ġaverage":2717,"ĠHer":2718,"amples":2719,"/>":2720,"sl":2721,"\\|":2722,"Ġsocial":2723,"ĠDep":2724,"Ġsuper":2725,"Ġq":2726,"48":2727,"ournal":2728,"Ġlangu":2729,"Ġplan":2730,"Ġgoing":2731,"Ġear":2732,"ocument":2733,"inary":2734,"38":2735,"ilitary":2736,"Ġaccount":2737,"ĠĠĠĠĠĠ":2738,"ĠWhen":2739,"Ġfunctions":2740,"subset":2741,"ĠPer":2742,"AM":2743,"ĠAct":2744,"Ġsepar":2745,"Pl":2746,"Ġparameters":2747,"Ġhowever":2748,"ners":2749,"cher":2750,"textit":2751,"ustom":2752,"Ġmeans":2753,"EC":2754,"ĠLa":2755,"Ġtre":2756,"Sigma":2757,"Ġelection":2758,"Ġconditions":2759,"Ġprim":2760,"Ġstar":2761,"Ġtraining":2762,"based":2763,"ĠBro":2764,"Ġgr":2765,"Ġvar":2766,"IT":2767,"estern":2768,"ĠWilliam":2769,"Ġsom":2770,"eh":2771,"Ġhapp":2772,"Ġfri":2773,"Ġemploy":2774,"Ġinitial":2775,"Ġindust":2776,"Ġlik":2777,"Ġsite":2778,"Ġfar":2779,"Ġspecies":2780,"aining":2781,"ules":2782,"const":2783,"65":2784,"ensuremath":2785,"Ġlog":2786,"Ġmight":2787,"Ġmaking":2788,"Ġoffer":2789,"ĠSw":2790,"Ġstudents":2791,"Ġneg":2792,"idth":2793,"Ġalways":2794,"95":2795,"era":2796,"top":2797,"Ġconstant":2798,"ilities":2799,"ibility":2800,"Ġhuman":2801,"Ġwritten":2802,"Ġstandard":2803,"alt":2804,"go":2805,"rite":2806,"Ġblack":2807,"Ġable":2808,"Ġmatrix":2809,"Ġmatch":2810,"Ġtext":2811,"Ġsuggest":2812,"}}{":2813,"Ġvideo":2814,"Ġconsist":2815,"ĠAng":2816,"Ġgive":2817,"iven":2818,")(":2819,"key":2820,"Ġequation":2821,"Ġhom":2822,"Ġeither":2823,"\\%":2824,"Ġkill":2825,"05":2826,"Ġgraph":2827,"Ġtemper":2828,"ĠSm":2829,"Ġbelow":2830,"ving":2831,"Ġproduction":2832,"String":2833,"irl":2834,"IS":2835,"Ġarm":2836,"ĠInternational":2837,"ĠCO":2838,"Ġloss":2839,"chan":2840,"Ġcy":2841,"comp":2842,"Ġplayer":2843,"Ġtw":2844,"Ġrespectively":2845,"duc":2846,"ĠFrench":2847,"avy":2848,"Ġhalf":2849,"ĠSo":2850,"Ġmarket":2851,"Ġ``":2852,"ED":2853,"\"/>":2854,"ett":2855,"Ind":2856,"Ġborn":2857,"Ġworks":2858,"pper":2859,"Ġconc":2860,"Ġpair":2861,"37":2862,"lying":2863,"Ġabs":2864,"ecess":2865,"Ġbig":2866,"Ġfail":2867,"2003":2868,"Ġsent":2869,"ror":2870,"Ġgroups":2871,"ĠChe":2872,"ula":2873,"draw":2874,"earch":2875,"Ġlimit":2876,"iforn":2877,"Ġcame":2878,"andom":2879,"Col":2880,"itted":2881,"unic":2882,"Fig":2883,"ridge":2884,"Ġvia":2885,"\\[":2886,"Ġhost":2887,"eal":2888,"Ġfrequ":2889,"ishing":2890,"aps":2891,"widet":2892,"Ġalready":2893,"ayer":2894,"01":2895,"attle":2896,"ama":2897,"cor":2898,"Ġsem":2899,"Ġmeet":2900,"Ġvert":2901,"Ġprivate":2902,"ociety":2903,"BC":2904,"Ġcentury":2905,"ressed":2906,"ĠPhil":2907,"cy":2908,"Ġcalcul":2909,"Ġlength":2910,"ects":2911,"__":2912,"ged":2913,"Ġserved":2914,"ĠÂ":2915,"ĠMich":2916,"ifornia":2917,"cle":2918,"uf":2919,"ara":2920,"Ġsays":2921,"sw":2922,"Ġassociated":2923,"icro":2924,"2002":2925,"opy":2926,"Ġsource":2927,"Ġphase":2928,"Ġworking":2929,"bor":2930,"Ġactiv":2931,"Ġachie":2932,"gl":2933,"Ġge":2934,"Ġrequire":2935,"widetilde":2936,"ĠTr":2937,"Ġexc":2938,"dots":2939,"Val":2940,"ĠSan":2941,"/\\":2942,"2001":2943,"ills":2944,"44":2945,"ĠVal":2946,"Ġbecom":2947,"Ġindependent":2948,"annel":2949,"isc":2950,"Ġcome":2951,"ements":2952,"Ġfuture":2953,"II":2954,"bsite":2955,"Ġservices":2956,"Ġground":2957,"Ġaway":2958,"ĠMore":2959,"Ġcorresponding":2960,",\"":2961,"Ġmiss":2962,"load":2963,"Ġround":2964,"return":2965,"\\!":2966,"Ġbase":2967,"uel":2968,"Ġtaken":2969,"Ġstarted":2970,"ĠDr":2971,"Ġpositive":2972,"minist":2973,"Ġpay":2974,"rec":2975,"ump":2976,"max":2977,"Ġcaus":2978,"Ġtreat":2979,"Ġbelie":2980,"55":2981,"oted":2982,"Ġelse":2983,"39":2984,"ĠAc":2985,"ĠDistrict":2986,"Ġnov":2987,"Ġeconom":2988,"ĠChampionship":2989,"ĠGerman":2990,"New":2991,"ney":2992,"ociation":2993,"Ġdat":2994,"Ġmaterial":2995,"ached":2996,"Ġclose":2997,"Ġinvestig":2998,"ctor":2999,"Ġdou":3000,"Ġpress":3001,"translation":3002,"orge":3003,"utes":3004,"Ġ($":3005,"ming":3006,"Ġfalse":3007,"SS":3008,"ĠStud":3009,"Ġtarget":3010,"ĠIndian":3011,"och":3012,"plement":3013,"ĠCup":3014,"Ġpast":3015,"Ġtry":3016,"Ġill":3017,"{-":3018,"aves":3019,"ĠIndia":3020,"zeta":3021,"AP":3022,"ĠRepublic":3023,"Ġcreated":3024,"gen":3025,"Ġengine":3026,"Ġreported":3027,"Ġparticip":3028,"Ġthus":3029,"How":3030,"prime":3031,"Ġwind":3032,"Ġben":3033,"ĠCalifornia":3034,"Ġdimens":3035,"ransport":3036,"Ġled":3037,"ĠMy":3038,"omb":3039,"Ġimage":3040,"Ġpo":3041,"inated":3042,"ĠMark":3043,"hood":3044,"ĠPresident":3045,"Ġcertain":3046,"ortun":3047,"irt":3048,"ĠAmerica":3049,"iance":3050,"Ġregular":3051,"Ġcontinu":3052,"aries":3053,"Ġtelevision":3054,"oe":3055,"ica":3056,"Ġlate":3057,"Ġmer":3058,"year":3059,"Ġson":3060,"aring":3061,"CO":3062,"iding":3063,"Ã³":3064,"LE":3065,"rig":3066,"elling":3067,"isk":3068,"Ġothers":3069,"oyal":3070,"ĠServ":3071,"Ġwent":3072,"Ġmoment":3073,"2023":3074,"')":3075,"Ġrequired":3076,"thing":3077,"}+":3078,"value":3079,"nder":3080,"cos":3081,"medi":3082,"ĠThat":3083,"Ġ!":3084,"Ġofficial":3085,"thm":3086,"mon":3087,"##":3088,"scal":3089,"uration":3090,"Ġlittle":3091,"Ġreally":3092,"ava":3093,"Ġdied":3094,"Ġcorre":3095,"Ġlines":3096,"van":3097,"lands":3098,"\")":3099,"fficient":3100,"ico":3101,"}-":3102,"Ġemb":3103,"lymp":3104,"Ġaccording":3105,"iddle":3106,"ulations":3107,"Ġang":3108,"ĠLem":3109,"ids":3110,"which":3111,"Ġproduced":3112,"Ġparameter":3113,"Ġrelated":3114,"ceed":3115,"188":3116,"ael":3117,"anies":3118,"Ġcapt":3119,"Ġbody":3120,"ship":3121,"Ġproof":3122,"useum":3123,"Ġerror":3124,"Ġbehav":3125,"centering":3126,"],":3127,"down":3128,"Ġprovided":3129,"ires":3130,"Ġnormal":3131,"omorph":3132,"Ġdynam":3133,"ecut":3134,"Ġdepend":3135,"ivil":3136,"olic":3137,"Ġmethods":3138,"Ġkeep":3139,"onents":3140,"Ġnumer":3141,"Ġproperty":3142,"point":3143,"Ġperm":3144,"\\]":3145,"Ġbegin":3146,"\\{":3147,"Ġcontent":3148,"Ġsurface":3149,"cap":3150,"Ġnorth":3151,"izing":3152,"ĠFirst":3153,"ili":3154,"imate":3155,"Ġannounced":3156,"Ġfig":3157,"icles":3158,"bb":3159,"There":3160,"Ġonce":3161,"atives":3162,"Ġask":3163,"ĠEq":3164,"ension":3165,"aches":3166,"Ġhistor":3167,"Ġenough":3168,"Ġclos":3169,"acc":3170,")=\\":3171,"ha":3172,"inn":3173,"ĠRiver":3174,"ĠDiv":3175,"ander":3176,"Ġrandom":3177,"Ġexpected":3178,"Wh":3179,"ĠCont":3180,"Ġlo":3181,"49":3182,"Ġtrack":3183,"ĠEngland":3184,"].":3185,"47":3186,"Ġproperties":3187,"Ġcut":3188,"atory":3189,";\\":3190,"08":3191,"itte":3192,"Ġsold":3193,"ota":3194,"oud":3195,"ĠIm":3196,"Ġlinear":3197,"arning":3198,"66":3199,"Ġproposed":3200,"Ġbroad":3201,"Ġagre":3202,"Ġunderstand":3203,"Ġnull":3204,"ÃŃ":3205,"ender":3206,"mark":3207,"ĠEast":3208,"Sc":3209,"Ġdire":3210,"Ġ&=":3211,"ĠSince":3212,"nown":3213,"ache":3214,"size":3215,"artment":3216,"ĠHam":3217,"ĠFrom":3218,"Ġsche":3219,"Ġmem":3220,"ĠAustralia":3221,"ĠCour":3222,"mar":3223,"sing":3224,"Ġfem":3225,"gress":3226,"sin":3227,"Ġdest":3228,"hern":3229,"Ġmedia":3230,"ĠSection":3231,"ults":3232,"fo":3233,"Ġlive":3234,")}\\":3235,"igen":3236,"07":3237,"ccording":3238,"Ġpolitical":3239,"ĠSim":3240,"ele":3241,"ĠRed":3242,"ething":3243,"Ġhtt":3244,"tabular":3245,"Ġpopular":3246,"itect":3247,"At":3248,"Ġsett":3249,"Ġinflu":3250,"Ġinput":3251,"Ġreason":3252,"ounter":3253,"Ġfather":3254,"ĠDem":3255,"Ġsymmet":3256,"Ġinternational":3257,"Ġsimple":3258,"Ġmulti":3259,"Ġprop":3260,"tact":3261,"ĠTheorem":3262,"All":3263,"Ġgot":3264,"istics":3265,"ĠGo":3266,"rated":3267,"With":3268,"Ġcle":3269,"1999":3270,"ĠInstit":3271,"alax":3272,"Ġsw":3273,"ĠBer":3274,"Ġconstruct":3275,"Ġbreak":3276,"Ġenvironment":3277,"ET":3278,"}=\\":3279,"Ġelements":3280,"ensive":3281,"like":3282,"Ġvector":3283,"Ġanaly":3284,"ĠĠĠĠĠĠĠĠĠĠĠĠĠ":3285,"ĠPort":3286,"~~":3287,"ocr":3288,"Ġpur":3289,"lo":3290,"ĠCenter":3291,"ites":3292,"ĠSen":3293,"Ġadditional":3294,"www":3295,"que":3296,"Ġrather":3297,"my":3298,"Ġareas":3299,"ĠAnt":3300,"De":3301,"cis":3302,"book":3303,"ordin":3304,"Ġsouth":3305,"andid":3306,"aign":3307,"Ġbar":3308,"ĠCanada":3309,"Ġspecific":3310,"ections":3311,"Ġnecess":3312,"Ġrat":3313,"ellow":3314,"Ġentire":3315,"ulated":3316,"Ġattempt":3317,"Ġelement":3318,"Ġwhether":3319,"ville":3320,"Ġstre":3321,"1990":3322,"Ġobserved":3323,"Ġpredict":3324,"Ġsound":3325,"ĠParty":3326,"icult":3327,"ĠBlack":3328,"alls":3329,"Ġdegree":3330,"Ġfinite":3331,"Ã¼":3332,"ened":3333,"ĠPat":3334,"itting":3335,"atform":3336,")^{":3337,"Ġlanguage":3338,"Ġalmost":3339,"Ġsens":3340,"lied":3341,"Ġaward":3342,"ores":3343,"Ġvillage":3344,"ĠPal":3345,"ĠEuropean":3346,"Ġcourse":3347,"Ġeval":3348,"Ġmoved":3349,"wise":3350,"ya":3351,"Ġdeveloped":3352,"Ġexperience":3353,"Le":3354,"Ġfactor":3355,"vey":3356,"Ġnatural":3357,"ĠLaw":3358,"Ġroad":3359,"foot":3360,"data":3361,"function":3362,"Ġwhose":3363,"ests":3364,"ĠBel":3365,"Ġalgorithm":3366,"Ġwebsite":3367,"Ġdone":3368,"Ad":3369,"Ġviol":3370,"iew":3371,"Ġcreate":3372,"ands":3373,"ĠStreet":3374,"{(":3375,"anish":3376,"Ġlearn":3377,"mary":3378,"Ġchall":3379,"Ġrecogn":3380,"Ġexperiment":3381,"oms":3382,"Ġstrateg":3383,"Int":3384,"189":3385,"Ġid":3386,"Ġsaf":3387,"ĠCouncil":3388,"Ġlabel":3389,"After":3390,"Ġchanges":3391,"Ġblock":3392,"ĠAward":3393,"1998":3394,"ĠGroup":3395,"Ġliter":3396,"Ġmakes":3397,"Ġstring":3398,"Ġexact":3399,"Ġzero":3400,"group":3401,"Ġ==":3402,"gebra":3403,"Ġepis":3404,"Ġclear":3405,"ĠMor":3406,"Ġmonths":3407,"Ġrelease":3408,"ully":3409,"Ġfeel":3410,"Ġlaun":3411,"ĠPaul":3412,"Ġconduct":3413,"ĠMal":3414,"ĠChina":3415,"rab":3416,"rote":3417,"Ġrespons":3418,"Ġeffects":3419,"Ġtaking":3420,"ilm":3421,"Ġlarger":3422,"Ġlearning":3423,"ky":3424,"racy":3425,"AA":3426,"04":3427,"astic":3428,"Ġfront":3429,"$)":3430,"aur":3431,"People":3432,"Ġglobal":3433,"Ġsubject":3434,"Ġunit":3435,"Ġcheck":3436,"Ġleading":3437,"06":3438,"Ġmultiple":3439,"Ġimplement":3440,"ĠJames":3441,"Ġhon":3442,"cdots":3443,"Ġscale":3444,"Im":3445,"ams":3446,"And":3447,"quare":3448,"rim":3449,"state":3450,"roid":3451,"Living":3452,"Ġsoft":3453,"Ġlove":3454,"Ġmechan":3455,"ĠÃ":3456,"eff":3457,"Ġequival":3458,"Ġcode":3459,"Ġcontribut":3460,"ĠDavid":3461,"berg":3462,"CC":3463,"ĠDi":3464,"US":3465,"pling":3466,"ĠRober":3467,"09":3468,"ledge":3469,"Ġpan":3470,"\"><":3471,"https":3472,"Ġbackground":3473,"}]":3474,"Ġexpect":3475,"ĠNe":3476,"widehat":3477,"Ġresponse":3478,"Ġupd":3479,"ĠGeneral":3480,"Ġcomplete":3481,"Ġnode":3482,"Ġmale":3483,"Ob":3484,"ĠCons":3485,"Ġcompos":3486,"Ġdistrict":3487,"ĠNot":3488,"Ġadded":3489,"Ġcustom":3490,"ĠThom":3491,"Ġincrease":3492,"}\\,":3493,"asc":3494,"Ġperformed":3495,"46":3496,"}_\\":3497,"Ġhor":3498,"ees":3499,"fin":3500,"Ġworked":3501,"Ġpresident":3502,"AD":3503,"Ġneigh":3504,"Ġincludes":3505,"raint":3506,"Ġstep":3507,"Ġinstead":3508,"Ġkind":3509,"Ġmid":3510,"Ġimpact":3511,"Ġconstruction":3512,"Ġgives":3513,"}^\\":3514,"ĠNews":3515,"qquad":3516,"Ġcentral":3517,"ĠTra":3518,".~":3519,"eck":3520,"Ġthings":3521,"Ġparty":3522,"78":3523,"ĠFrance":3524,"more":3525,"Ġtemperature":3526,"Se":3527,"ĠTV":3528,"ecially":3529,"Ġcompanies":3530,"ĠHol":3531,"}|":3532,"wood":3533,"Ġaud":3534,"Ġdeaths":3535,"RO":3536,"han":3537,"ĠInt":3538,"ĠEm":3539,"Ġdefine":3540,"ĠDo":3541,"opp":3542,"arter":3543,"Ġsomething":3544,"ĠDon":3545,"Ġquantum":3546,"small":3547,"ĠMod":3548,"Ġvoid":3549,"ago":3550,"edd":3551,"igital":3552,"Ġarr":3553,"ittee":3554,"Ġdistance":3555,"02":3556,"Ġcollection":3557,"Cont":3558,"Ġlost":3559,"string":3560,"iers":3561,"ĠChurch":3562,"Ġclust":3563,"ĠDepartment":3564,"ĠUK":3565,"Ġprior":3566,"Ġlot":3567,"ottom":3568,"&=":3569,"ein":3570,"Ġfav":3571,"Mod":3572,"den":3573,"Ġestablish":3574,"Ġwords":3575,"Ġstudies":3576,"asons":3577,"reek":3578,"Ġjob":3579,"Ġflow":3580,"ken":3581,"Ġrac":3582,"urrent":3583,"orthern":3584,".)":3585,"onic":3586,"oul":3587,"1997":3588,"raction":3589,"Psi":3590,"Ġoccur":3591,"Ġcontract":3592,"Ġexists":3593,"ocal":3594,"thern":3595,"ibrary":3596,"ying":3597,"Ġcontains":3598,"^+":3599,"{{\\":3600,"Ġrank":3601,"Ġparent":3602,"500":3603,"ĠRich":3604,"})\\":3605,"util":3606,"Ġtradition":3607,"raz":3608,"Ġnews":3609,"Ġeducation":3610,"cial":3611,"uit":3612,"ida":3613,"bert":3614,"band":3615,"lemma":3616,"Ġever":3617,"Ġcolor":3618,"Ġsuccessful":3619,"1996":3620,"Ġpe":3621,"Ġamount":3622,"rade":3623,"Ġcompared":3624,"ades":3625,",-":3626,"Ġdeal":3627,"Ġnight":3628,"Ġdecl":3629,"nes":3630,"Ġmag":3631,"known":3632,"ederal":3633,"Ġrev":3634,"Ġfixed":3635,"ĠArmy":3636,"ĠSum":3637,"Ġmilitary":3638,"Ġfields":3639,"ura":3640,"History":3641,"ashington":3642,"pre":3643,"From":3644,"ession":3645,"}}(":3646,"ĠInter":3647,"MS":3648,"Ġstage":3649,"ario":3650,"Ġcannot":3651,"list":3652,"Ġcateg":3653,"Ġdifficult":3654,"ribute":3655,"aged":3656,"Ġcenter":3657,"Ġsequence":3658,"rast":3659,"Ġdocument":3660,"ĠOlymp":3661,"appro":3662,"ĠQue":3663,"mit":3664,"arily":3665,"umbers":3666,"lease":3667,"Ġquestion":3668,"Data":3669,"ranch":3670,"Ġteams":3671,"outhern":3672,"Ġrelationship":3673,"Ġweight":3674,"Ġprovides":3675,"unn":3676,"Ġpric":3677,"ĠAssociation":3678,"nb":3679,"Ġaccept":3680,"lor":3681,"Ġesp":3682,"uz":3683,"Ġpresented":3684,"atively":3685,"Ġtoday":3686,"rd":3687,"aker":3688,"03":3689,"Ġaddress":3690,"68":3691,"ises":3692,"Ġimpl":3693,"ston":3694,"ogle":3695,"Ġgas":3696,"dt":3697,"istry":3698,"Ġclosed":3699,"cup":3700,"DE":3701,"Ġeffective":3702,"icol":3703,"Ġonline":3704,"Ġuser":3705,"ĠList":3706,"Ġoperator":3707,"actions":3708,"ĠGeorge":3709,"Ġ&&":3710,"Ġcontext":3711,"Ġdistribut":3712,"unt":3713,"Ġregard":3714,"igned":3715,"Bl":3716,"cit":3717,"OS":3718,"ĠHall":3719,"iences":3720,"Ġwrote":3721,"Ġtherefore":3722,"tic":3723,"ager":3724,"Ġspin":3725,"from":3726,"atal":3727,"riate":3728,"node":3729,"ani":3730,"What":3731,"Ġgoal":3732,"Ġintroduced":3733,"Ġprinc":3734,")]":3735,"Ġprobability":3736,"Ġ%":3737,"Ġcandid":3738,"Ġappoint":3739,"agram":3740,"Ġpers":3741,"Ġdebut":3742,"la":3743,"light":3744,"Ġeffic":3745,"Ġindustry":3746,"Ġindividual":3747,"LL":3748,"refer":3749,"cing":3750,"Ġgradu":3751,"ĠMart":3752,"aching":3753,"Ġdemon":3754,"1980":3755,"gcolor":3756,"Ġfood":3757,"ĠCourt":3758,"ait":3759,"Ġver":3760,"Ġmatter":3761,"Ġtransfer":3762,"ĠFigure":3763,"lier":3764,"42":3765,"77":3766,"ĠBr":3767,"rian":3768,"ĠGreen":3769,"Ġcompar":3770,"itar":3771,"Ġbasis":3772,"olar":3773,"anks":3774,"Rec":3775,"Ġ\\{":3776,"pped":3777,"unc":3778,"ĠBo":3779,"Ġtakes":3780,"Ġdirector":3781,"Is":3782,"ĠHealth":3783,"oke":3784,"Ġupon":3785,"ipal":3786,"uments":3787,"skip":3788,"ancial":3789,"ective":3790,"Ġpack":3791,"Ġvict":3792,"Ġnovel":3793,"ports":3794,"58":3795,"iform":3796,"PS":3797,"ĠMount":3798,"1995":3799,"Ġund":3800,"Ġunique":3801,"ĉĊ":3802,"Ġwhite":3803,"irm":3804,"Ġprofessional":3805,"ĠInstitute":3806,"Ġsup":3807,"Er":3808,"ĠRoman":3809,"http":3810,"board":3811,"BA":3812,"Ġwhy":3813,"Ġop":3814,"ĠDef":3815,"px":3816,"Ġoffice":3817,"Ġmove":3818,"izes":3819,"Ġtable":3820,"ĠGr":3821,"Ġpolicy":3822,"alian":3823,"Ġreve":3824,"ĠOb":3825,"Ġsolutions":3826,"aging":3827,"({\\":3828,"bre":3829,"ĠThus":3830,"map":3831,"ĠĠĠĠĠĠĠĠĠĠĠĠĠĠĠĠĠĠĠĠĠĠĠ":3832,"Ġlikely":3833,"ĠLou":3834,"ply":3835,"Ġten":3836,"prop":3837,"Ġlink":3838,"Ġcampaign":3839,"change":3840,"ean":3841,"ospital":3842,"----------------":3843,"mid":3844,"ĠRoyal":3845,"}^{(":3846,"Ġreturned":3847,"ilton":3848,"indent":3849,"ĠSystem":3850,"mathsf":3851,"Ġassume":3852,"alle":3853,"used":3854,"Ġassist":3855,"inese":3856,"Ġfight":3857,"ini":3858,"textwidth":3859,"********":3860,"Ã¶":3861,"eared":3862,"1994":3863,"Ġissues":3864,"verse":3865,"star":3866,"file":3867,"Ġfire":3868,"Ġbgcolor":3869,"Ġdiscover":3870,"Ġimm":3871,"Ġyet":3872,"Comp":3873,"ĠGermany":3874,"Ġproblems":3875,"ares":3876,"Ġpolitic":3877,"ĠUnion":3878,"ĠWhile":3879,")-":3880,"Ġgalax":3881,"level":3882,"dimens":3883,"}\\\\":3884,"ĠDivision":3885,"Ġsearch":3886,"Ġ$(\\":3887,"When":3888,"ĠWashington":3889,"Ġespecially":3890,"Ġalthough":3891,"Ge":3892,"ka":3893,"ĠĠĠĠĊ":3894,"usp":3895,"Ġtax":3896,"43":3897,"Ġitself":3898,"Ġdesigned":3899,"Ġsample":3900,"Ġtransform":3901,"Ġmother":3902,"67":3903,"Ġste":3904,"ns":3905,"Ġacqu":3906,"Ġjoined":3907,"Ġphysical":3908,"ĠRoad":3909,"Ġcorrel":3910,"Ġedge":3911,"ios":3912,"ooth":3913,"Ġcomes":3914,"ĠOff":3915,"ariant":3916,"Ġmoney":3917,"equiv":3918,"Ġstri":3919,"Ġess":3920,"Ġtravel":3921,"Ġdirection":3922,"98":3923,"ging":3924,"Ġindex":3925,"Ass":3926,"Ġboundary":3927,"pdf":3928,"alled":3929,"ĠBest":3930,"acher":3931,"icture":3932,"Ġdirectly":3933,"Ġbenef":3934,"Ġsuff":3935,"Ġpersonal":3936,"Ġbehind":3937,"Ġhimself":3938,"ĠMusic":3939,"ously":3940,"Ġmonth":3941,"Ġflu":3942,"ĠLemma":3943,"ĠDay":3944,"Ġ()":3945,"Ġdepart":3946,"App":3947,"Ġliving":3948,"fill":3949,"Ġsets":3950,"ĠSing":3951,"Ġface":3952,"IM":3953,"ĠBay":3954,"Par":3955,"Ġadj":3956,"rey":3957,"ĠVol":3958,"Ġrights":3959,"Ġpercent":3960,"Ġboard":3961,"ĠWhat":3962,"ework":3963,"Ġcontinued":3964,"ening":3965,"Ġqual":3966,"Ġthroughout":3967,"Ġforce":3968,"Ġmarried":3969,"Ġplaying":3970,"ĠResearch":3971,"VID":3972,"Ġinsp":3973,"unk":3974,"Ġrace":3975,"FF":3976,"ĠJack":3977,"Ġthought":3978,"Qu":3979,"Ġequations":3980,"57":3981,"erve":3982,"Ġoutside":3983,"Ġdifference":3984,"itude":3985,"nov":3986,"Ġparts":3987,"oved":3988,"Ġleaders":3989,"Man":3990,"oice":3991,"Ġstars":3992,"Ġwhole":3993,"Ġmodern":3994,"Ġdefe":3995,"Ġinvolved":3996,"ĠYear":3997,"Ġnote":3998,"isions":3999,"edy":4000,"|^":4001,"encies":4002,"ols":4003,"Ġarchitect":4004,"enced":4005,"Ġrail":4006,"Ġincreasing":4007,"ĠMr":4008,"ĠBook":4009,"ĠMat":4010,"path":4011,"Ġmention":4012,"($":4013,"ĠCompany":4014,"ĠMary":4015,"note":4016,"Ġconfig":4017,"mail":4018,"Ġopened":4019,"location":4020,"Ġtechnology":4021,"oring":4022,"ĠArch":4023,"elves":4024,"rael":4025,"Ġdeliver":4026,"Ġadminist":4027,"ĠAcadem":4028,"Ġfall":4029,"onal":4030,"iation":4031,"ĠTex":4032,"41":4033,"edge":4034,"ĠPress":4035,"Ġholds":4036,"hspace":4037,"Ġcurrently":4038,"ĠWork":4039,"1992":4040,"OT":4041,"Ġplatform":4042,"Value":4043,"Ġbox":4044,"Te":4045,"à¤":4046,"}:":4047,"ĠVir":4048,"Ġdate":4049,"Ġradio":4050,"Ġstaff":4051,"estival":4052,"But":4053,"Ġfile":4054,"Ġlargest":4055,"You":4056,"roy":4057,"hi":4058,"ona":4059,"Ġfram":4060,"anning":4061,"Since":4062,"test":4063,"ĠÐ":4064,"ION":4065,"Ġbrother":4066,"Ġequal":4067,"Ġemer":4068,"CD":4069,"that":4070,"ĠDuring":4071,"hest":4072,"Ġinj":4073,"ilies":4074,"Ġnuc":4075,"56":4076,"ano":4077,"ĠNor":4078,"ĠJust":4079,"Ġdaugh":4080,"ĠDirect":4081,"ĠClub":4082,"1970":4083,"Ġrequest":4084,"Ġactive":4085,"Ġcourt":4086,"nbsp":4087,"Ġstatic":4088,"Ġcompleted":4089,"Ġrestrict":4090,"Ġsex":4091,"asket":4092,"clusion":4093,"Ġimages":4094,"}+\\":4095,"Ġoutput":4096,"Ġdraw":4097,"ĠScience":4098,"Ġcountries":4099,"Ġpage":4100,"Ġ&\\":4101,"xy":4102,"||":4103,"Def":4104,"ĠAustralian":4105,"ĠSociety":4106,"ĠSam":4107,"itz":4108,"One":4109,"Ġdetails":4110,"Not":4111,"Ġnumbers":4112,"]$":4113,"atur":4114,"Ġarticle":4115,"Ġfollowed":4116,"Ġspeed":4117,"Ġusually":4118,"Ġdefinition":4119,"Ġwrite":4120,"Ġopportun":4121,"izations":4122,"Ġinstance":4123,"Ġuses":4124,"Ġsil":4125,"ĠAlex":4126,"eloc":4127,"Ġproducts":4128,"Ġissue":4129,"1993":4130,"ĠMex":4131,"ĠAngel":4132,"operat":4133,"Ġkm":4134,"}}{\\":4135,"Ġcritical":4136,"ĠRev":4137,"Ġ-\\":4138,"En":4139,"idents":4140,"ĠMet":4141,"Ġbecomes":4142,"Ġactually":4143,"tra":4144,"Ġwife":4145,"ĠAfrica":4146,"Ġtro":4147,"elt":4148,"Ġsongs":4149,"Ġtypes":4150,"iments":4151,"ala":4152,"Ġcolumn":4153,"operatorn":4154,"ado":4155,"burg":4156,"Ġdam":4157,"Ġneeded":4158,"Ġpolice":4159,"Ġtransition":4160,"Ġdeep":4161,"Set":4162,"hy":4163,"Ġscen":4164,"Ġelectron":4165,"ĠCong":4166,"ada":4167,"ells":4168,"Ġexhib":4169,"Ġfriend":4170,"rc":4171,"Ġlevels":4172,"Ġshall":4173,"ĠIsland":4174,"body":4175,"ĠLeg":4176,"operatorname":4177,"Ġmetric":4178,"ĠGold":4179,"\");":4180,"uals":4181,"scale":4182,"Ġneeds":4183,"59":4184,"Ġtowards":4185,"gs":4186,"Ġrot":4187,"oz":4188,"Ġrisk":4189,"Ġtour":4190,"Ġvalid":4191,"Ġallows":4192,"dag":4193,"Ġchurch":4194,"ĠSl":4195,"Ġcast":4196,"Ġhous":4197,"Ġter":4198,"'$":4199,"Ġbring":4200,"ĠTechn":4201,"ĠWhite":4202,"bound":4203,"Ġdecision":4204,"oto":4205,"ocks":4206,"Ġimmedi":4207,"Ġaccom":4208,"Ġquality":4209,"place":4210,"Ġvisit":4211,"Ġcharg":4212,"ĠMiss":4213,"ena":4214,"requ":4215,"atus":4216,"citet":4217,"ube":4218,"eline":4219,"emic":4220,"Ġsources":4221,"Ġlocation":4222,"Ġrecorded":4223,"ĠOur":4224,"ĠEar":4225,"Ġjud":4226,"Ġbooks":4227,"osen":4228,"overs":4229,"ufact":4230,"Ġformed":4231,"Ġrock":4232,"range":4233,"Ġcomponents":4234,"xspace":4235,"ĠTown":4236,"ĠMag":4237,"(-":4238,"Ġveh":4239,"Ġdirected":4240,"////":4241,"Ġdemonstr":4242,"Ġgrowth":4243,"88":4244,"writ":4245,"ĠClass":4246,"ĠRussian":4247,"error":4248,"Ġmaximum":4249,"Ġdenote":4250,"Ġpatients":4251,"Ġoptim":4252,"ĠMer":4253,"ĠProv":4254,"Ġallowed":4255,"noindent":4256,"bon":4257,"Ġsense":4258,"Ġgave":4259,"dimensional":4260,"ĠAfrican":4261,"ĠDes":4262,"Ġquick":4263,"opl":4264,"){":4265,"Ġcommunic":4266,"Ġsmaller":4267,"Ġprove":4268,"Ġlat":4269,"Ġhours":4270,"}-\\":4271,"AB":4272,"ĠSub":4273,"Ġinterp":4274,"Ġwave":4275,"ĠMad":4276,"];":4277,"Ġeight":4278,"isation":4279,"Ġmanagement":4280,"inst":4281,"Ġcomponent":4282,"Ġschools":4283,"olf":4284,"Ġpattern":4285,"ĠSur":4286,"Ġaltern":4287,"ĠSome":4288,"ye":4289,"long":4290,"Ġlonger":4291,"SP":4292,"Ġchoice":4293,"nce":4294,"Ġsigned":4295,"Get":4296,"ĠMichael":4297,"rep":4298,"Ġsurv":4299,"Ġdatas":4300,"Ġsignal":4301,"init":4302,"Ġtold":4303,"umni":4304,"Ġconv":4305,"antic":4306,"Ġupper":4307,"Ġrunning":4308,"ĠHen":4309,"ecial":4310,"Ġevidence":4311,"ĠTrans":4312,"ĠTur":4313,"ĠGod":4314,"Ġconstraint":4315,"neq":4316,"IR":4317,"amily":4318,"\\,\\":4319,"fect":4320,"Ġcontinue":4321,"Ġforward":4322,"Ġcred":4323,"Ġhot":4324,"Ġsaw":4325,"Ġcoordin":4326,"Ġidea":4327,"Ġapplied":4328,"ĠMus":4329,"ensus":4330,"Ġdecre":4331,"Ġprimary":4332,"Ġgenerated":4333,"Ġball":4334,"Ġmus":4335,"Ġyield":4336,"omial":4337,"Ġcontact":4338,"oo":4339,"Ġrow":4340,"umerate":4341,"ought":4342,"Ġconcept":4343,"ducation":4344,"ria":4345,"acity":4346,"ĠTexas":4347,"Ġshare":4348,"ĠRad":4349,"Ġbit":4350,"dro":4351,"Ġapplication":4352,"ĠRobert":4353,"Ġappeared":4354,"index":4355,"ĠGames":4356,"Ġevolution":4357,"Ġlay":4358,"ĠMac":4359,"ĠFin":4360,"come":4361,"Ġmix":4362,"liament":4363,"olit":4364,"Ġconcern":4365,"Ġwriting":4366,"1991":4367,"acing":4368,"well":4369,"Ġtreatment":4370,"atrix":4371,"Ġveloc":4372,"Ġtalk":4373,"FL":4374,"Ġbr":4375,"inct":4376,"96":4377,"ĠDis":4378,"Ġconver":4379,")}{":4380,"otic":4381,"Ġremains":4382,"Ġindu":4383,"Ġunivers":4384,"Ġrepresentation":4385,"Ġword":4386,"ĠOut":4387,"Ġpain":4388,"ĠBen":4389,"ĠGreat":4390,"ingu":4391,"ĠTom":4392,"link":4393,"Ġchannel":4394,"Ġtransport":4395,"ki":4396,"ĠCentral":4397,"Ġadm":4398,"Ġselected":4399,"ĠGrand":4400,"embly":4401,"bo":4402,"Ġexecut":4403,"ĠChinese":4404,"97":4405,"Ġrelation":4406,"Class":4407,"Ġautom":4408,"certain":4409,"$}":4410,"Ġpreviously":4411,"theorem":4412,"rial":4413,"Ġadapt":4414,"Ġgirl":4415,"ĠFound":4416,"ĠCarol":4417,"Ġsecurity":4418,"Ġsetting":4419,"ros":4420,"Ġbehavior":4421,"Ġsimply":4422,"ansion":4423,"rief":4424,"Ġinstit":4425,"ĠSal":4426,"ĠHere":4427,"ifying":4428,"51":4429,"Ġbirth":4430,"ĠCanadian":4431,"Ġscreen":4432,"Or":4433,"Ġoperations":4434,"ĠThomas":4435,"men":4436,"Ġmach":4437,"Ġstreng":4438,"HE":4439,"usion":4440,"]\\":4441,"cell":4442,"omin":4443,"Ġlimited":4444,"Ġmaintain":4445,"Ġunits":4446,"enumerate":4447,"reater":4448,"Ġir":4449,"ĠJew":4450,"Ġdisplay":4451,"Ġpeak":4452,"ĠDemocr":4453,"airs":4454,"Ġincreased":4455,")}$":4456,"Ġplant":4457,"ĠSte":4458,"Ġimplies":4459,"54":4460,"Ġcoe":4461,"cel":4462,"Fil":4463,"Ġdark":4464,"ometimes":4465,"ags":4466,"Ġconstit":4467,"fess":4468,"52":4469,"ĠDel":4470,"ĉĉĉĉĉ":4471,"url":4472,"Ġalgebra":4473,"bour":4474,"Ġknowledge":4475,"Ġhit":4476,"Ġfit":4477,"sup":4478,"osing":4479,"ĠWil":4480,"Ġcorrect":4481,"Ġdetermined":4482,"Ġwoman":4483,"Ġforces":4484,"ĠMuseum":4485,"ĠMont":4486,"Ġpark":4487,"Ġpractice":4488,"rought":4489,"ĠDan":4490,"FA":4491,"Ġstudied":4492,"vis":4493,"scr":4494,"ĠJapanese":4495,"Ġcharacters":4496,"ĠPublic":4497,"ĠScott":4498,"ĠTherefore":4499,"Ġsoon":4500,"Ġsupported":4501,"vention":4502,"Ġdram":4503,"rier":4504,"but":4505,"agement":4506,"ether":4507,"Ġjournal":4508,"Ġanim":4509,"Ġplaces":4510,"========":4511,"Ġsubsequ":4512,"ĠKingdom":4513,"icon":4514,"ira":4515,"Ġseven":4516,"Ġnecessary":4517,"Exception":4518,"ental":4519,"Ġneut":4520,"76":4521,"Ġmagnetic":4522,"Ġdise":4523,"auge":4524,"Ġord":4525,"eria":4526,"Ġexpression":4527,"IG":4528,"dist":4529,"Ġ:=":4530,"ĠCath":4531,"azine":4532,"Ġconnected":4533,"asketball":4534,"Ġusers":4535,"icit":4536,"NN":4537,"Ġgovern":4538,"....":4539,"itemize":4540,"isher":4541,"Ġdidn":4542,"win":4543,"ĠWestern":4544,"\";":4545,"Ġcele":4546,"&&":4547,"ictor":4548,"ĠOther":4549,"View":4550,"=#":4551,"ĠCOVID":4552,"Ġillust":4553,"Ġevalu":4554,"ĠAnn":4555,"Ġearlier":4556,"UT":4557,"1989":4558,"][":4559,"Ġproced":4560,"ĠSuper":4561,"Ġded":4562,"ĠKore":4563,"Ġprec":4564,"Ġ/**":4565,"Ġdouble":4566,"Ġaim":4567,"Ġsure":4568,"ĠOf":4569,"ĠMinister":4570,"Ġlack":4571,"hand":4572,"ĠEv":4573,"irit":4574,"1960":4575,"53":4576,"Ġwidth":4577,"reme":4578,"Ġtask":4579,"MA":4580,"oma":4581,"ĠIr":4582,"Ġscient":4583,"));":4584,"Ġinside":4585,"ĠRob":4586,"Ġcharge":4587,"uge":4588,"Ġrob":4589,"}}_":4590,"ĠAcademy":4591,"pose":4592,"ĠChristian":4593,"vant":4594,"ĠFore":4595,"Ġrecently":4596,"Ġoverall":4597,"Ġheart":4598,"rate":4599,"do":4600,"ront":4601,"Ġ_{":4602,"ita":4603,"UR":4604,"Ġweak":4605,"za":4606,"Ġexpand":4607,"Over":4608,"Ġrelig":4609,"NA":4610,"Ġbrand":4611,"Ġnames":4612,"ĠIsrael":4613,"No":4614,"State":4615,"ĠNow":4616,"Ġadopt":4617,"ĠSmith":4618,"Ġstarting":4619,"display":4620,"Ġstructures":4621,"Ġhol":4622,"1988":4623,"js":4624,"mercial":4625,"atre":4626,"Ġdomain":4627,"Ġreveal":4628,"Ġremain":4629,"thlet":4630,"ĠGra":4631,"Ġcommand":4632,"ĠDec":4633,"ds":4634,"ĠVirgin":4635,"Key":4636,"vspace":4637,"Ġdaughter":4638,"ĠFlor":4639,"Ġsen":4640,"Ġnature":4641,"SE":4642,"Ġregions":4643,"obile":4644,"Ġspectrum":4645,"ĠString":4646,"Ġseem":4647,"Ġmount":4648,"Ġcollect":4649,"Ġstra":4650,"arr":4651,"west":4652,"arp":4653,"Ġepisode":4654,"Ġroom":4655,"Ġratio":4656,"ua":4657,"ters":4658,"allel":4659,"Ġfamilies":4660,"Ġculture":4661,"Then":4662,"Ġcoming":4663,"Ġcontain":4664,"CH":4665,"IP":4666,"Ġvariables":4667,"Ġreading":4668,"itation":4669,"ĠLat":4670,"angle":4671,"Ġestimate":4672,"ecause":4673,"zer":4674,"Ġstated":4675,"Ġthing":4676,"Ð°":4677,"Ġfounded":4678,"Ġlooking":4679,"Ġavoid":4680,"public":4681,"ĠLouis":4682,"ĠAre":4683,"Form":4684,"Ġfun":4685,"ils":4686,"multicol":4687,"can":4688,"Ġchalleng":4689,"}}}":4690,"Ġtrac":4691,"Ġpurch":4692,"Ġequivalent":4693,"Ġscore":4694,"Ġchem":4695,"ĠTable":4696,"ĠTor":4697,"Ġleague":4698,"approx":4699,"ructure":4700,"ao":4701,"Ġpresence":4702,"ĠService":4703,"Ġconclud":4704,"ĠCamp":4705,"version":4706,"ĠItalian":4707,"EE":4708,"length":4709,"Ġsusp":4710,"Ġbur":4711,"yr":4712,"Ġelected":4713,"Ġquite":4714,"ectors":4715,"Ġwalk":4716,"multicolumn":4717,"ĠHistor":4718,"Ġkilled":4719,"ersion":4720,"Ġfemale":4721,"perty":4722,"Ġfinancial":4723,"Ġwide":4724,"di":4725,"ĠCommun":4726,"eks":4727,"vest":4728,"BS":4729,"Ġstay":4730,"efore":4731,"ĠBill":4732,"Ġscience":4733,"Pr":4734,"itch":4735,"mselves":4736,"Ġanti":4737,"Error":4738,"Ġeasy":4739,"ĠBi":4740,"Ġdoesn":4741,"Ġresulting":4742,")+":4743,"Ġrelative":4744,"Ġhighest":4745,"Ġcivil":4746,"Ġobjects":4747,"MC":4748,"turb":4749,"ĠRecords":4750,"Ġreduced":4751,"Ġfrequency":4752,"Object":4753,"abs":4754,"Ġgenerally":4755,"gence":4756,"Ġgrad":4757,"urt":4758,"ĠCharles":4759,"Ġpressure":4760,"Ġcomment":4761,"ING":4762,"apter":4763,"Ġwest":4764,"iring":4765,"Sy":4766,"Ġappears":4767,"Ġcoach":4768,"FC":4769,"ĠHistory":4770,"isms":4771,"Pi":4772,"Ġpick":4773,"Ġgold":4774,"Mar":4775,"Ġeast":4776,"79":4777,"Ġalbums":4778,"Ġansw":4779,"Ġcapital":4780,"\":":4781,"Ġeigen":4782,"72":4783,"Ġ\\|":4784,"ĠFrancis":4785,"ancy":4786,"Ġseg":4787,"Ġfigure":4788,"Ġexpress":4789,"ollowing":4790,"road":4791,"69":4792,"bt":4793,"Ġapply":4794,"Ġappointed":4795,"Ġthemselves":4796,"LO":4797,"isl":4798,"iece":4799,"ĠCommission":4800,"aily":4801,"Ġmind":4802,"anta":4803,"Ġartists":4804,"\\}$":4805,"anned":4806,"Eng":4807,"Ġattention":4808,"Ġer":4809,"Ġmanufact":4810,"icago":4811,"Ġoperation":4812,"Ġmicro":4813,"ensor":4814,"Ġmeaning":4815,"Ġclassical":4816,"erman":4817,"Ġminutes":4818,"Ġactivity":4819,"ĠNote":4820,"ĠLand":4821,"orpor":4822,"Ġ///":4823,"maz":4824,"Ã¤":4825,"Ġrules":4826,"Ġforms":4827,"reland":4828,"Ġdoing":4829,"Ġthrow":4830,"Ġfast":4831,"enge":4832,"Ġtree":4833,"split":4834,"300":4835,"Ġrecover":4836,"Ġgeomet":4837,"Ġchanged":4838,"ĠJose":4839,"Ġnegative":4840,"iny":4841,"Ġrepresented":4842,"Ġhyp":4843,"Ġtit":4844,"ĠHill":4845,"hing":4846,"Ġstream":4847,"Ð¾":4848,"Ġlisted":4849,"ĠRock":4850,"underline":4851,"anda":4852,"Ġlatter":4853,"AG":4854,"IL":4855,"MP":4856,"ĠSummer":4857,"porary":4858,"Ġprem":4859,"Ġlegal":4860,"Ġstudent":4861,"Ġprint":4862,"ĠCD":4863,"Ġbeginning":4864,"ĠSupp":4865,"Ġinterview":4866,"Ġruns":4867,"Sec":4868,"Ġfill":4869,"tical":4870,"ĠWomen":4871,"'re":4872,"^-":4873,"85":4874,"Ġhyper":4875,"Ġbank":4876,"Ġfully":4877,"Ġcells":4878,"Ġbad":4879,"ola":4880,"ĠPost":4881,"Ġstatus":4882,"Ġwor":4883,"CT":4884,"Ġmedical":4885,"Ġ...":4886,"Ġrule":4887,"ui":4888,"ĠAccording":4889,"ĠBre":4890,"rump":4891,"model":4892,"ĠMass":4893,"Ġreached":4894,"\"></":4895,"mathscr":4896,"Time":4897,"Ġthreat":4898,"pack":4899,"Ġ\\;":4900,"ĠFootball":4901,"dr":4902,"inos":4903,"ette":4904,"Ġorg":4905,"velopment":4906,"Ġdu":4907,"Ġoccup":4908,"ĠParis":4909,"Ġvariety":4910,"ML":4911,"ĠRail":4912,"Ġbrought":4913,".</":4914,"Ġwid":4915,"vement":4916,"joy":4917,"ĠGovernment":4918,"63":4919,"Ġbelong":4920,"Ġtraditional":4921,"1987":4922,"irtual":4923,"norm":4924,"ircraft":4925,"Ġcry":4926,"Ġvan":4927,"textrm":4928,"Ġactivities":4929,"Ġstudio":4930,"ĠSecond":4931,"Ġcollabor":4932,"ĠZeal":4933,"mission":4934,"inger":4935,"force":4936,"ĠEr":4937,"aud":4938,"astern":4939,"command":4940,"Ġsoftware":4941,"ĠMel":4942,"mes":4943,"Ġextended":4944,"Ġeventually":4945,"ĠOffic":4946,"().":4947,"Ġspeak":4948,"Ġrecomm":4949,"lam":4950,"Ġguitar":4951,"Ġreference":4952,"gent":4953,"ella":4954,"bur":4955,"orial":4956,"Ġreplaced":4957,"Ġvelocity":4958,"ĠStar":4959,"Ġparticularly":4960,"Ġexam":4961,"Ġfeed":4962,"nav":4963,"km":4964,"Ġhttps":4965,"SC":4966,"ĠPeter":4967,"Ġship":4968,"Ġsufficient":4969,"She":4970,"iral":4971,"cles":4972,"Note":4973,"lt":4974,"ĠLake":4975,"sych":4976,"Ġâ":4977,"ĠZealand":4978,"SO":4979,"Ġnoise":4980,"Ġasked":4981,"ĠLos":4982,"ĠFrank":4983,"Ġtrain":4984,"Ġhum":4985,"istan":4986,"Ġbuildings":4987,"dec":4988,"Ġasp":4989,"Ġpen":4990,"Ġoperators":4991,"So":4992,"ĠRussia":4993,"Ġax":4994,"Ġuncertain":4995,"quot":4996,"Ġartist":4997,"ĠRichard":4998,"Ġdecided":4999,"ulture":5000,"Ġmissing":5001,"Ġago":5002,"~$":5003,"62":5004,"Ġgun":5005,"ĠPo":5006,"1986":5007,"Ġmode":5008,"iques":5009,"stant":5010,"Ġ!=":5011,"First":5012,"TR":5013,"Ġsmooth":5014,"ĠBur":5015,"Ġfinished":5016,"eler":5017,"Ġcontroll":5018,"Ġseems":5019,"Ġfourth":5020,"74":5021,"ĠOpen":5022,"print":5023,"Ġuniform":5024,"ĠOver":5025,"Ġinterpret":5026,"ĠUk":5027,"Ġorganization":5028,"Ġsituation":5029,"su":5030,"Ġdimension":5031,"shire":5032,"irus":5033,"ĠCommittee":5034,"Theta":5035,"ullet":5036,"rong":5037,"Ġeasily":5038,"Ġtourn":5039,"ĠHamilton":5040,"ĠBrown":5041,"ĠUnder":5042,"Ġplaced":5043,"Sub":5044,"Ġtheorem":5045,"Ġmovement":5046,"rule":5047,"Ġhighly":5048,"ynomial":5049,"Ġvolume":5050,"Ġleader":5051,"Ġelectric":5052,"Ġexcept":5053,"riz":5054,"Ġborder":5055,"Ġcause":5056,"normal":5057,"UN":5058,"ln":5059,"ĠBoard":5060,"Ġapplications":5061,"ĠDu":5062,"Ġorigin":5063,"Ġessential":5064,"Ġearn":5065,"Ġderiv":5066,"Ġwatch":5067,"eful":5068,"king":5069,"witch":5070,"anced":5071,"Ġcompetition":5072,"Ab":5073,"Ġfactors":5074,"61":5075,"Ġinteresting":5076,"Ġweeks":5077,"Ġbelieve":5078,"Ġgauge":5079,"escription":5080,"ptions":5081,"crete":5082,"}^{-":5083,"Ġdigital":5084,"}/":5085,"Ġalumni":5086,"war":5087,"Ġcollege":5088,"Ġwriter":5089,"Ġstatement":5090,"otion":5091,"Ġclasses":5092,"Ġinteraction":5093,"1984":5094,"Ġapproximately":5095,"Ġneighbor":5096,"ĠPe":5097,"Ġleads":5098,"mas":5099,"auss":5100,"Ġtrade":5101,"Ġult":5102,"ĠTer":5103,"Ġshot":5104,"ĠTwo":5105,"Ġexpansion":5106,"inem":5107,"PR":5108,"Ġgetting":5109,"igan":5110,"ecting":5111,"Ġens":5112,"using":5113,"Ġoriginally":5114,"ifold":5115,"Ġdiscussed":5116,"Ġtransl":5117,"Ġsch":5118,"pace":5119,"ĠGeorg":5120,"Ġfootballers":5121,"Ġproduce":5122,"FT":5123,"Ġsolid":5124,"Ġreach":5125,"ĠInc":5126,"Ġchoose":5127,"Ġblue":5128,"Ġstop":5129,"linear":5130,"``":5131,"itable":5132,"Ġnoted":5133,"anger":5134,"Ġquarter":5135,"pan":5136,"ĠCongress":5137,"ĠProgram":5138,"1985":5139,"*{":5140,"Ġbal":5141,"Ġways":5142,"ĠCap":5143,"witter":5144,"());":5145,"IV":5146,"uthors":5147,"ibly":5148,"ĠLife":5149,"=\"+":5150,"Ġprograms":5151,"Ġconserv":5152,"arts":5153,"Ġstations":5154,"apping":5155,"Ġprobably":5156,"ĠFe":5157,"}}_{":5158,"Ġchosen":5159,"Ġrap":5160,"Ġcard":5161,"Serv":5162,"ĠFilm":5163,"Our":5164,"73":5165,"ĠVictor":5166,"Ġability":5167,"term":5168,"Ġoppos":5169,"ĠFlorida":5170,"Ġcounter":5171,"Ġones":5172,"SU":5173,"arian":5174,"Ġoptions":5175,"ĠRem":5176,"Ġmeeting":5177,"){\\":5178,"<\\":5179,"Ġplays":5180,"Ġconcent":5181,"ĠIts":5182,"Ġselection":5183,"ĠSk":5184,"Requ":5185,"alo":5186,"udd":5187,"Ġeconomic":5188,"ĠPenn":5189,"Ġimprove":5190,"illa":5191,"Now":5192,"Ġslow":5193,"Ġgrand":5194,"ady":5195,"razil":5196,"Ġvs":5197,"._":5198,"olk":5199,"retary":5200,"edom":5201,"Ġmur":5202,"ĠAtl":5203,"Ġmotion":5204,"ĠKe":5205,"ĠOlympics":5206,"ĠDen":5207,"ĠCatholic":5208,"Ġselect":5209,"dagger":5210,"undle":5211,"Ġconsists":5212,"ias":5213,"ĠAlthough":5214,"Ġconnection":5215,"Ġwanted":5216,"Ġagreement":5217,"ĠMost":5218,"Ġshowed":5219,"PC":5220,"ĠSeries":5221,"ashed":5222,"ĠSpanish":5223,"Ġslight":5224,"ĠArts":5225,"Ġnearly":5226,"ĠIll":5227,"TV":5228,"Be":5229,"ĠInst":5230,"Ġcaused":5231,"Ġconsequ":5232,"Tr":5233,"itiz":5234,"Ġ?":5235,"bigg":5236,"Ġensure":5237,"}'":5238,"Ġrates":5239,"Ġload":5240,"Ġfinally":5241,"Ġcontinuous":5242,"Ġextra":5243,"ĠPri":5244,"Ġmarg":5245,"Ġidentified":5246,"Ġprocesses":5247,"71":5248,"Ġtim":5249,"Ġgrant":5250,"Ġsummer":5251,"Ġleave":5252,"Ġprevent":5253,"Ðµ":5254,"osh":5255,"iller":5256,"Ġestimated":5257,"ĠPan":5258,"Ġdro":5259,"active":5260,"ih":5261,"ĠSun":5262,"ĠBig":5263,"Ġvariable":5264,"Ġdetermine":5265,"ĠChicago":5266,"word":5267,"^{-\\":5268,"['":5269,"Ġacadem":5270,"uls":5271,"Ġnom":5272,"conn":5273,"rence":5274,"Äģ":5275,"Ġfriends":5276,"Ġ$\\{":5277,"Co":5278,"Ġsometimes":5279,"Ġtherm":5280,"ĠIreland":5281,"Ġfavor":5282,"Ġgoals":5283,"Can":5284,"Ġderived":5285,"Ġmiddle":5286,"summary":5287,"Ġ$|":5288,"Ġlic":5289,"ĠReview":5290,"ban":5291,"venue":5292,"iders":5293,"aval":5294,"Ġdead":5295,"utch":5296,"Ġexisting":5297,"Ġformation":5298,"Ġflux":5299,"Ġsymbol":5300,"Ġgreen":5301,"Ġlives":5302,"Ġframework":5303,"met":5304,"Ġsn":5305,"ockey":5306,"footnote":5307,"!--":5308,"house":5309,"Ġrepe":5310,"Test":5311,"Ġscheme":5312,"Ġhousehold":5313,"89":5314,"Ġinequ":5315,"aven":5316,"Ġsamples":5317,"Reg":5318,"Ġheavy":5319,"ishes":5320,"ĠRef":5321,"ĠTime":5322,"EO":5323,"Ġmessage":5324,"ĠPlay":5325,"omorphism":5326,"Ġremaining":5327,"nel":5328,"ĠAngeles":5329,"_+":5330,"Ġanc":5331,"ien":5332,"Ġcop":5333,"ĠEducation":5334,"More":5335,"ĠCast":5336,"names":5337,"Ġsports":5338,"ĠPre":5339,"uracy":5340,"ĠGen":5341,"ato":5342,"Ġcam":5343,"Ġassert":5344,"Ġcritic":5345,"ĠForce":5346,"ĠUp":5347,"Ġidentity":5348,"Here":5349,"oom":5350,"ĠBank":5351,"ĠGet":5352,"ulate":5353,"Ġhence":5354,"Ġexplicit":5355,"gn":5356,"Ġpanel":5357,"rary":5358,"resents":5359,"pat":5360,"Med":5361,"Ġcompletely":5362,"Ġgreater":5363,"ski":5364,"ĠMo":5365,"iant":5366,"Ed":5367,"Ġminimum":5368,"Ġheight":5369,"\\'":5370,"Ġsurround":5371,"ĠVirginia":5372,"Ġdrug":5373,"Ġnorm":5374,"Ġcompact":5375,"ellig":5376,"resh":5377,"ĠSup":5378,"iency":5379,"Ġobservations":5380,"Ġcore":5381,"1950":5382,"oral":5383,"ĠJournal":5384,"ĠOh":5385,"Comm":5386,"Ġmovie":5387,"ĠDirector":5388,"prod":5389,"ternet":5390,"asks":5391,"ĠSil":5392,"Ġmemory":5393,"minus":5394,"Ġgrav":5395,"Ġremained":5396,"{$":5397,"1983":5398,"yes":5399,"OD":5400,"');":5401,"Ġcurve":5402,"ba":5403,"Ġquestions":5404,"Ġbey":5405,"Ġstrategy":5406,"Ġrequires":5407,"ĠOper":5408,"cho":5409,"Equ":5410,"det":5411,"Rep":5412,"Ġshape":5413,"oplus":5414,"ĠFoundation":5415,"wa":5416,"gra":5417,"Ser":5418,"ĠForm":5419,"onom":5420,"Ġdesp":5421,"Ġpartners":5422,"1982":5423,"net":5424,"ĠOl":5425,"Ġbeyond":5426,"ĠFurther":5427,"owers":5428,"arks":5429,"Ġesc":5430,"Ġetc":5431,"spec":5432,"ĠHel":5433,"check":5434,"Ġprice":5435,"Ġperfect":5436,"Ġminor":5437,"Ġsignificantly":5438,"run":5439,"apers":5440,"Ġspread":5441,"Ġpaint":5442,"{}":5443,"Ġmunic":5444,"orage":5445,"ĠCarolina":5446,"Ġmentioned":5447,"main":5448,"Ġinfluence":5449,"Ġprefer":5450,"yan":5451,"user":5452,"Ġstraight":5453,"Ġsquare":5454,"Out":5455,"Ġfeatured":5456,"Ġlayer":5457,"ĠMa":5458,"wedge":5459,"Ġcontribution":5460,"jo":5461,"ĠTop":5462,"ĠOrder":5463,"idden":5464,"Ġenjoy":5465,"next":5466,"ĠSpace":5467,"ĠMil":5468,"rees":5469,"ĠTour":5470,"Ġbrief":5471,"ĠTrump":5472,"png":5473,"Ġnetworks":5474,"ket":5475,"Ġprojects":5476,"Bar":5477,"attice":5478,"Ġoffers":5479,"eturn":5480,"orter":5481,"ĠĠĠĊ":5482,"ĠRel":5483,"azz":5484,"Ġspent":5485,"ny":5486,"ĠMexico":5487,"Ġresources":5488,"ĠFestival":5489,"Ġinternal":5490,"Ġmis":5491,"Ġformula":5492,"']":5493,"uled":5494,"ĠItaly":5495,"Ġindividuals":5496,"TE":5497,"ocol":5498,"Ġassess":5499,"ĠHenry":5500,"va":5501,"Ġmeasured":5502,"Ġsymmetry":5503,"duction":5504,"Ġliterature":5505,"ĠSocial":5506,"Ġbus":5507,"Sim":5508,"hem":5509,"Ġplans":5510,"input":5511,"\\}":5512,"ker":5513,"ĠSund":5514,"Build":5515,"ĠĠĠĠĠĠĠĠĠĠ":5516,"_{(":5517,"Ġtal":5518,"asion":5519,"esh":5520,"=\"../../":5521,"Ġsport":5522,"ĠTimes":5523,"}},":5524,"Ġpolynomial":5525,"ĠCre":5526,"Ġexperiments":5527,"Ġfarm":5528,"Ġstories":5529,"Ġmaps":5530,"Ġcorn":5531,"ĠPet":5532,"Ġawarded":5533,"ĠOffice":5534,"Ġapprop":5535,"Ġparticles":5536,"Ġiter":5537,"Ġoption":5538,"subseteq":5539,"icine":5540,"Ġmajority":5541,"Ġcommunities":5542,"Ġdiagram":5543,"oviet":5544,"ĠExp":5545,"Ġsyn":5546,"enty":5547,"Ġimmediately":5548,"case":5549,"Ġexamples":5550,"ellar":5551,"Ġdescription":5552,"Ġopening":5553,"Ġdemand":5554,"Ġbasic":5555,"Ġgoes":5556,"Text":5557,"orning":5558,"Ġcommercial":5559,"Ġprep":5560,"Ġscored":5561,"Add":5562,"File":5563,"gu":5564,"Ġteacher":5565,"hab":5566,"Inter":5567,"Ġmission":5568,"ĠLove":5569,"Ġdescribe":5570,"Ġreduce":5571,"ĠEngine":5572,")|":5573,"ĠSwed":5574,"bin":5575,"Ġcarry":5576,"_{{\\":5577,"93":5578,"Ġvoc":5579,"TS":5580,"Ġmedal":5581,"Ġcomparison":5582,"Ġexactly":5583,"1979":5584,"Ã¨":5585,"osm":5586,"However":5587,"adium":5588,"Ġpassed":5589,"94":5590,"lig":5591,"ilarly":5592,"olved":5593,"weight":5594,"Ġ($\\":5595,"aught":5596,"Ġaircraft":5597,"eds":5598,"Ġcru":5599,"ifier":5600,"ogue":5601,"Ġparents":5602,"Ġfif":5603,"Ġparticle":5604,"Ġdynamics":5605,"Ġshoot":5606,"bi":5607,"Ġprote":5608,"92":5609,"Of":5610,"Ġarbit":5611,"ĠĠĠĠĠĠĠĠĠĠĠĠ":5612,"Ġcategory":5613,"ĠEmp":5614,"Ð¸":5615,"Ġamb":5616,"Ġprogress":5617,"icks":5618,"Ġscatter":5619,"Ġbeaut":5620,"Table":5621,"ĠAwards":5622,"Ġrepresents":5623,"Ġcontrast":5624,"ĠJo":5625,"Ġdisease":5626,"Ġrelevant":5627,"rupt":5628,"Ġsaying":5629,"ĠKn":5630,"Ġshift":5631,"ĠKar":5632,"iro":5633,"icated":5634,"ras":5635,"Ġcelebr":5636,"Ġarray":5637,"Ġbounded":5638,"Ġpoor":5639,"rich":5640,"Ġuseful":5641,"Ġmoving":5642,"iana":5643,"ora":5644,"arant":5645,"izer":5646,"ĠVer":5647,"ishop":5648,"Ġprofile":5649,"Ġ$-":5650,"elled":5651,"pc":5652,"Ġbeg":5653,"ima":5654,"Ġplane":5655,"++":5656,"Ġgiving":5657,"Ġnothing":5658,"Ġquickly":5659,"ĠAtt":5660,"400":5661,"limits":5662,"ĠSol":5663,"ĠYour":5664,"arc":5665,"Ġreplace":5666,"86":5667,"Ġnation":5668,"ĠTeam":5669,"ocation":5670,"abilities":5671,"idae":5672,"asy":5673,"Ġwood":5674,"hesis":5675,"1981":5676,"ĠKh":5677,"Ġcat":5678,"iled":5679,"ifically":5680,"ĠScot":5681,"real":5682,"ĠPeople":5683,"Ġjoint":5684,"Ġwinning":5685,"osc":5686,"Ġbroadcast":5687,"ican":5688,"ĠJul":5689,"Ġmomentum":5690,"ĠIN":5691,"Ġfoot":5692,"ewidth":5693,"Ġreb":5694,"Ġ/>":5695,"Ġconfir":5696,"mann":5697,"ĠProfess":5698,"Ġsteps":5699,"iano":5700,"ĠMur":5701,"inner":5702,"itors":5703,"abase":5704,"texttt":5705,"ĠLu":5706,"Ġpurpose":5707,"Ġsomeone":5708,"Ġmole":5709,"ko":5710,"}%":5711,"ĠMartin":5712,"even":5713,"Ġfair":5714,"inf":5715,"Ġgalaxies":5716,"pass":5717,"cons":5718,"Ġmut":5719,"ĠLee":5720,"Ġsites":5721,"ĠCam":5722,"Ġturned":5723,"oting":5724,"ĠAlso":5725,"ĠMain":5726,"Ġseparate":5727,"imb":5728,"OP":5729,"Ġcapacity":5730,"oration":5731,"ĠLong":5732,"Ġdiss":5733,"Ġhop":5734,"Ġdefault":5735,"Ġ-->":5736,"Ġsafety":5737,"ĠYoung":5738,"Ġ(-":5739,"Ġconsistent":5740,"ĠOld":5741,"ĠWood":5742,"ĠBusiness":5743,"ropy":5744,"_*":5745,"Ġlaunched":5746,"Ġexperimental":5747,"Ġworkers":5748,"Ġ(\"":5749,"Ġmanager":5750,"Ġca":5751,"Trans":5752,"Ġ$[":5753,"true":5754,"Ġsinger":5755,"Ġtournament":5756,"ĠGood":5757,"Ġproviding":5758,"DF":5759,"Ġtrying":5760,"Ġworth":5761,"Ġpolar":5762,"Ġadvant":5763,"Ġgeneration":5764,"setminus":5765,"Ġcarried":5766,"undred":5767,"ĠHaw":5768,"1972":5769,"Ġspaces":5770,"ĠHot":5771,"ĠAP":5772,"CE":5773,"Ġfederal":5774,"Ġnodes":5775,"kin":5776,"1976":5777,"Ġdistinct":5778,"ĠLie":5779,"post":5780,"Ġapproximation":5781,"Ġframe":5782,"rat":5783,"Ġcompl":5784,")\\,":5785,"Vert":5786,"Ġolder":5787,"Ġreceive":5788,"gt":5789,"ĠChief":5790,"stra":5791,"Ġcomputer":5792,"Ġemission":5793,"Ġbattle":5794,"ĠAut":5795,"Ġexistence":5796,"ĠProject":5797,"ĠPac":5798,"Ġfa":5799,"plate":5800,"CL":5801,"ĠWind":5802,"unch":5803,"Ġlif":5804,"),\\":5805,"Ġ}\\":5806,"ĠBet":5807,"stream":5808,"1978":5809,"ading":5810,"block":5811,"While":5812,"DA":5813,"ivial":5814,"ĠHy":5815,"Ġstore":5816,"Ġcandidate":5817,"87":5818,"Ġcluster":5819,"CS":5820,"Ġsimpl":5821,"ĠArab":5822,"igr":5823,"$_":5824,"ultural":5825,"areer":5826,"Ġeverything":5827,"Ġannual":5828,"Other":5829,"wan":5830,"Ġmeasures":5831,"Ġresolution":5832,"1977":5833,"Ġpolitician":5834,"Ġended":5835,"ollary":5836,"Ã³n":5837,"Ġmostly":5838,"Ġbasketball":5839,"IA":5840,"John":5841,"1974":5842,"then":5843,"abled":5844,"gg":5845,"Ġconsum":5846,"Ġembedd":5847,"Ġblood":5848,"ĠMax":5849,"Ġcopy":5850,"Ġdevice":5851,"Early":5852,"cond":5853,"Ġunion":5854,"ologies":5855,"Ġ~":5856,"Further":5857,"ĠLi":5858,"ĠValley":5859,"kins":5860,"ĠEarth":5861,"height":5862,"End":5863,"room":5864,"84":5865,"Ġprison":5866,"Ġperturb":5867,"GB":5868,"Ġactor":5869,"Ġwriters":5870,"Ġvertex":5871,"ĠDou":5872,"Ġeditor":5873,"Ġplot":5874,"Ġcoast":5875,"uan":5876,"linewidth":5877,"ĠIII":5878,"ĠHon":5879,"Per":5880,"ĠJun":5881,"Ġdivision":5882,"ja":5883,"Don":5884,"Ġchain":5885,"82":5886,"host":5887,"1975":5888,"Ġdomin":5889,"Ġresponsible":5890,"Ġcombined":5891,"Ġauthors":5892,"pled":5893,"inite":5894,"Ġsubset":5895,"(),":5896,"config":5897,"Ġinters":5898,"object":5899,"Ġoptimal":5900,"ĠBas":5901,"Ġdestroy":5902,"Ġcoupling":5903,"Ne":5904,"Ġconstructed":5905,"Ġdataset":5906,"ĠSaint":5907,"Ġwhom":5908,"Ġargument":5909,"Ġedition":5910,"black":5911,"Ġclin":5912,"Ġrecords":5913,"uations":5914,"Ġsynt":5915,")/":5916,"ĠNavy":5917,"ancing":5918,"onder":5919,"Ġsea":5920,"Ġfailed":5921,"sur":5922,"stein":5923,"Ġfix":5924,"ati":5925,"stack":5926,"Ġaccuracy":5927,"Ġdespite":5928,"base":5929,"These":5930,"riage":5931,"ersey":5932,"Ġinform":5933,"deg":5934,"hemat":5935,"syl":5936,"allery":5937,"ĠDevelopment":5938,"ansas":5939,"Ġnumerical":5940,"Ġanything":5941,"ĠData":5942,"0000":5943,"free":5944,"rame":5945,"Ġcouple":5946,"ounds":5947,"_{-":5948,"Ġmatches":5949,"andemic":5950,"Att":5951,"Ġdual":5952,"ride":5953,"matrix":5954,"ĠBrazil":5955,"ĠTheir":5956,"usband":5957,"Ġtru":5958,"Ġprocedure":5959,"Ġcalculated":5960,"Ġsal":5961,"iler":5962,"Pre":5963,"soft":5964,"1968":5965,"ĠNetwork":5966,"Path":5967,")}(":5968,"osis":5969,"RA":5970,"Ġscene":5971,"91":5972,"Ġlaws":5973,"Ġeth":5974,"Ġgets":5975,"ears":5976,"Ġbranch":5977,"Ġserious":5978,"ali":5979,"coming":5980,"chers":5981,"ĠTest":5982,"Ġvisual":5983,"reshold":5984,"tem":5985,"Ġmaster":5986,"1973":5987,"atial":5988,"Ġextension":5989,"Ġvac":5990,"Part":5991,"ĠShow":5992,",\\,":5993,"ĠBob":5994,"ader":5995,"related":5996,"Ġchief":5997,"Ġincreases":5998,"definition":5999,"NS":6000,"pping":6001,"olean":6002,"Ġserve":6003,"Ġshared":6004,"EL":6005,"Ġsenior":6006,"ĠTre":6007,"Event":6008,"title":6009,"Ġactions":6010,"chen":6011,"Ġvote":6012,"Car":6013,"oding":6014,"Ġharm":6015,"ĠJim":6016,"Ġcentre":6017,"Ġhttp":6018,"ĠFre":6019,"ĠLiber":6020,"Ġcombination":6021,"Ġappearance":6022,"seud":6023,"Ġvoice":6024,"fe":6025,"roduction":6026,"Ġ\\(":6027,"aligned":6028,"Ġphil":6029,"Ġtypically":6030,"espite":6031,"arden":6032,"prot":6033,"haps":6034,"Ġenter":6035,"Ġbecoming":6036,"Ġran":6037,"83":6038,"aussian":6039,"Ġotherwise":6040,"Ġroute":6041,"ĠWales":6042,"enth":6043,"ĠLy":6044,"Ġpriv":6045,"Ġpoly":6046,"Ġtechniques":6047,"ĠJoseph":6048,"Ġtheore":6049,"Ġring":6050,"inding":6051,"ĠConn":6052,"Ġcontaining":6053,"ĠParliament":6054,"Ġmeasurements":6055,"vania":6056,"cean":6057,"Ġradius":6058,"According":6059,"Ġincome":6060,"Ġrelatively":6061,"ulty":6062,"mond":6063,"ĠSpr":6064,"Ġsociety":6065,"CP":6066,"Cons":6067,"ĠAv":6068,"Ġagent":6069,"ĠIran":6070,"Ġ;":6071,"rot":6072,"Ġreports":6073,"ĠProposition":6074,"'m":6075,"Ġefforts":6076,"Ġdecay":6077,"Ġrapid":6078,"Ġstrength":6079,"Ġamplit":6080,"ĠHence":6081,"ĠElect":6082,"kl":6083,"pol":6084,"Ġestablishments":6085,"rical":6086,"raine":6087,"Ġsurpr":6088,"Ġvacc":6089,"Ġdiscussion":6090,"Ġ|\\":6091,"Ġactress":6092,"1971":6093,"Ġarrest":6094,"ugby":6095,"date":6096,"ĠEconom":6097,"ĠColumb":6098,"':":6099,"Ġforeign":6100,"During":6101,"Ġbottom":6102,"ĠLibrary":6103,"Ġ+\\":6104,"Ġentry":6105,"Ġencou":6106,"](":6107,"ĠUnivers":6108,"Ġmusical":6109,"oken":6110,"Ġattract":6111,"PE":6112,"ĠEnd":6113,"Ġformal":6114,"cript":6115,"rices":6116,"Ġarrang":6117,"Inst":6118,"Ġreflect":6119,"Ġobser":6120,"Ġsimulations":6121,"Ġmaterials":6122,"langu":6123,"ĠChampionships":6124,"Ġcancer":6125,"Ġisland":6126,"ĠSee":6127,"Ġintegral":6128,"fit":6129,"ĠMoreover":6130,"fficients":6131,"My":6132,"result":6133,"Ġhydro":6134,"lines":6135,"Ġhospital":6136,"Ġhar":6137,"while":6138,"Fl":6139,"GL":6140,"Ġmachine":6141,"Ġking":6142,"=(":6143,"Ġriver":6144,"Ġsector":6145,"ĠTim":6146,"ĠChild":6147,"ĠJac":6148,"Ġseasons":6149,"inity":6150,"Ġunderstanding":6151,"Ġtouch":6152,"uty":6153,"endix":6154,"erry":6155,"Ġextrem":6156,"CA":6157,"aters":6158,"'\\":6159,"Ġdepends":6160,"Ġincorpor":6161,"ĠGovern":6162,"Ġabsol":6163,"akers":6164,"81":6165,"ĠUSA":6166,"Ġsam":6167,"Ġofficer":6168,"pton":6169,"Ġice":6170,"Ġhelped":6171,"Ġarchitecture":6172,"heast":6173,"EM":6174,"har":6175,"Ġpropos":6176,"ĠField":6177,"Supp":6178,"riday":6179,"Ġfirm":6180,"Ġonto":6181,"Ġmurder":6182,"'_":6183,"Ġfraction":6184,"ĠJud":6185,"Ġidentify":6186,"igation":6187,"Ġopportunity":6188,"ashion":6189,"Ġclimate":6190,"gener":6191,"ampion":6192,"Ġimag":6193,"standing":6194,"Ġ&=&":6195,"Ġforest":6196,"Ġphen":6197,"amental":6198,"Ġtell":6199,"$(":6200,"Ġinitially":6201,"oat":6202,"Ġcontributions":6203,"ĠEach":6204,"colon":6205,"Post":6206,"ĠCross":6207,"1969":6208,"ĠSar":6209,";\"":6210,"aylor":6211,"Service":6212,"Ġpoet":6213,"Ġpull":6214,"ĠAN":6215,"Ġeveryone":6216,"alg":6217,"emporary":6218,"ĠNorthern":6219,"cknow":6220,"Request":6221,"inet":6222,"Index":6223,"Ġorganizations":6224,"OM":6225,"Ġextract":6226,"Ġregister":6227,"=-":6228,"Ġslightly":6229,"Ġweb":6230,"Ġsatisfies":6231,"Ġsemi":6232,"ĠSu":6233,"Ġcool":6234,"ĠCentre":6235,"Ġiniti":6236,"Ġthr":6237,".;":6238,"lies":6239,"inv":6240,"Ġrespond":6241,"Ġunknown":6242,"Ġraised":6243,"oston":6244,"adr":6245,"ĠLine":6246,"shift":6247,"Ġoil":6248,"oday":6249,"Ġforced":6250,"English":6251,"Back":6252,"Net":6253,"Notes":6254,"Ġnumerous":6255,"Act":6256,"Ġremoved":6257,"Ġcloud":6258,"ustain":6259,"}}(\\":6260,"awa":6261,"aka":6262,"Ġgrowing":6263,"Ġresist":6264,"Ġfans":6265,"That":6266,"Ġlatest":6267,"yer":6268,"ĠSet":6269,"Ġactual":6270,"ĠTechnology":6271,"Ġspectral":6272,"ĠAssembly":6273,"ĠEqu":6274,"Ġwindow":6275,"ĠIrish":6276,"orb":6277,"ĠLin":6278,"Ã§":6279,"language":6280,"Ġtesting":6281,"Ġdrive":6282,"ĠStep":6283,"rie":6284,"erem":6285,"Ġcorresponds":6286,"1940":6287,"ĠGal":6288,"Ġpositions":6289,"count":6290,"Ġflat":6291,"pty":6292,"ester":6293,"content":6294,"Ġconstraints":6295,"Ġexpressed":6296,"ĠJohnson":6297,"subfigure":6298,"etime":6299,"Ġutil":6300,"udget":6301,"Ġleaving":6302,"issions":6303,"nam":6304,"Ġmainly":6305,"Map":6306,"sylvania":6307,"ipality":6308,"ĠMov":6309,"elli":6310,"ĠFort":6311,"ĠAsia":6312,"ĠLord":6313,"inder":6314,"Ġthick":6315,"ogene":6316,"Ġcommission":6317,"Ġconvert":6318,"gorithms":6319,"Ġreferred":6320,"Ġcitiz":6321,"Ġterrit":6322,"background":6323,"Ġsouthern":6324,"Model":6325,"page":6326,"viation":6327,"Ġalleg":6328,"Ġlattice":6329,"Ġfelt":6330,"Ġinstall":6331,"Info":6332,"Ġhoriz":6333,"Ġrise":6334,"erved":6335,"Ġedges":6336,")_{":6337,"Ġbillion":6338,"Am":6339,"Ġstable":6340,"Next":6341,"Ġdepartment":6342,"ĠSoviet":6343,"roph":6344,"Ġoffered":6345,"ĠGoogle":6346,"ogs":6347,"1967":6348,"ĠHome":6349,"TD":6350,"ographic":6351,"Äĩ":6352,"1945":6353,"dx":6354,"Ġalone":6355,"Ġclean":6356,"Ġhusband":6357,"grad":6358,"forall":6359,"ympt":6360,"ĠSta":6361,"Ġcorrelation":6362,"Ġattended":6363,"Ġletter":6364,"Ð½":6365,"Field":6366,"ipment":6367,"ĠBu":6368,"Ġvertices":6369,"Ġapproaches":6370,"ĠJones":6371,"Ġjoin":6372,"zero":6373,"Ġpropag":6374,"Ġrevealed":6375,":\\":6376,"SR":6377,"Ġproducer":6378,"Ġpiece":6379,"Ġefficient":6380,"Ġmixed":6381,"Ġangle":6382,"={":6383,"ĠSpain":6384,"aver":6385,"Figure":6386,"ĠGame":6387,"PA":6388,"Ġexchange":6389,"Ġlived":6390,"rative":6391,"Ġclearly":6392,"Eq":6393,"ĠMen":6394,"Ġassumption":6395,"tty":6396,"Ġformat":6397,"Ġdifferences":6398,"ĠRam":6399,"150":6400,"tes":6401,"ernel":6402,"Ġappropriate":6403,"first":6404,"core":6405,"ĠSir":6406,"1930":6407,"Node":6408,")^{\\":6409,"flow":6410,"Ġsales":6411,"otal":6412,"Ġnorthern":6413,"Ġdetection":6414,"Ġupdate":6415,"}$-":6416,"Count":6417,"unct":6418,"ji":6419,"Ġchampionship":6420,"ĠMem":6421,"Ġnewsp":6422,"ĠConference":6423,"Ġminim":6424,"sen":6425,"Ġfilter":6426,"ependence":6427,"cases":6428,"ĠTri":6429,"ifications":6430,"perp":6431,"Ġintroduce":6432,"Ġsqu":6433,"Ġsplit":6434,"anges":6435,"struct":6436,"Ġconfiguration":6437,"Ġalternative":6438,"Ġcovered":6439,"Ġtrust":6440,"urban":6441,"\\!\\!":6442,"asure":6443,"ĠCy":6444,")^{-":6445,"ova":6446,"iffer":6447,"ĠBoth":6448,"iling":6449,"Ġparties":6450,"weet":6451,"Ġwild":6452,"Ġscalar":6453,"lay":6454,"greg":6455,"ĠFace":6456,"acter":6457,"ersonal":6458,"Ġsurvey":6459,"Ġuniversity":6460,"airman":6461,"Ġsimulation":6462,"erse":6463,"ĠCarl":6464,"annels":6465,"Ġcosts":6466,"supp":6467,"Ġproceed":6468,"Ġthous":6469,"ĠPak":6470,"Ġinequality":6471,"Ġple":6472,"alysis":6473,"Ġhands":6474,"';":6475,"Char":6476,"neg":6477,"stract":6478,"olt":6479,"ĠĠĠĠĠĠĠĠĠĠĠĠĠĠĠĠĠĠĠĠĠĠĠĠĠĠĠ":6480,"ĠFred":6481,"Ġwa":6482,"Context":6483,"zy":6484,"hom":6485,"Ġeffort":6486,"Ġbill":6487,"Group":6488,"HS":6489,"icity":6490,"Ġfine":6491,"md":6492,"ĠÂ£":6493,"Ġhope":6494,"Ġ);":6495,"Ġcounty":6496,"rics":6497,"Ġhistorical":6498,"=\"#":6499,"\\\"":6500,"atically":6501,"ĠProvince":6502,"Ġproved":6503,"gest":6504,"Ġorient":6505,"api":6506,"ĠMedia":6507,"ĠDemocratic":6508,"has":6509,"Ġachieved":6510,"Ġtor":6511,"istical":6512,"ĠSouthern":6513,"iy":6514,"Ġachieve":6515,"Che":6516,"MM":6517,"Ġnine":6518,"track":6519,"OL":6520,"fort":6521,"ĠEmpire":6522,"Ġcities":6523,"Ġvocals":6524,"ogen":6525,"/**":6526,"Ġpandemic":6527,"Ġassumed":6528,"1964":6529,"Ġhundred":6530,"build":6531,"Ġdetailed":6532,"Ġinteractions":6533,"Ġpure":6534,"isters":6535,"IF":6536,"Ġpartner":6537,"Me":6538,"Ġtrial":6539,"Ġcoefficients":6540,"ĠSpecial":6541,"Ġcompute":6542,"Ġrare":6543,"values":6544,"'ve":6545,"Ġbul":6546,"void":6547,"Ġroll":6548,"Ġowned":6549,"sime":6550,"Ġfamous":6551,"Ġclassification":6552,"inois":6553,"asi":6554,"ĠSand":6555,"Ġlaunch":6556,"ĠMany":6557,"simeq":6558,"Åį":6559,"Color":6560,"Ġjourn":6561,"rons":6562,"rage":6563,"ĠSunday":6564,"Ġaccur":6565,"osoph":6566,"ĠEll":6567,"ĠÎ":6568,"Ġpoll":6569,"Ġign":6570,"she":6571,"ĠEnter":6572,"ĠPrem":6573,"ĠMichigan":6574,"Ġconflic":6575,"ĠPlan":6576,"imin":6577,"ela":6578,"Ġcook":6579,"Ġcalc":6580,"Ġshowing":6581,"Ġnuclear":6582,"ĠPennsylvania":6583,"Ġcycle":6584,"Ġdrama":6585,"{$\\":6586,"Ġtransformation":6587,"Ġinner":6588,"Ġvictory":6589,"ĠUr":6590,"/*":6591,"Ġinnov":6592,"Ġmagazine":6593,"ĠRadio":6594,"ĠAcc":6595,"amm":6596,"Ġisn":6597,"subsubsection":6598,"Ġmodes":6599,"Ġseat":6600,"uer":6601,"ilib":6602,"iful":6603,"ĠPhilipp":6604,"ĠDet":6605,"((":6606,"ibli":6607,"Ġcensus":6608,"Dec":6609,"Ġerrors":6610,"())":6611,"ĠWay":6612,"ĠColl":6613,"ĠHig":6614,"Ġheat":6615,"Ġconducted":6616,"ĠCivil":6617,"itage":6618,"riend":6619,"ĠServices":6620,"ĠBow":6621,"ĠDev":6622,"1965":6623,"ennis":6624,"Ġparallel":6625,"Ġut":6626,"Hand":6627,"ÑĤ":6628,"aby":6629,"SL":6630,"strong":6631,"ĠEp":6632,"gypt":6633,"cr":6634,"Ġentered":6635,"Ġmill":6636,"aya":6637,".~(\\":6638,"SM":6639,"cular":6640,"Ġreligious":6641,"}^*":6642,"ribe":6643,"ĠHistoric":6644,"uries":6645,"ÑĢ":6646,"Ġbehavi":6647,"ENT":6648,"Ġestimates":6649,"local":6650,"1000":6651,"1966":6652,"info":6653,"column":6654,"opping":6655,"ila":6656,"Ġowners":6657,"ĠPacific":6658,"Ġstrugg":6659,"Ġvary":6660,"ĠTem":6661,"Ġwall":6662,"Ġ});":6663,"ĠWater":6664,"onym":6665,"Ġpairs":6666,"going":6667,"ĠOhio":6668,"law":6669,"ĠCr":6670,"Career":6671,"ĠGreek":6672,"Ġdistributions":6673,"udes":6674,"ador":6675,"Ġclaimed":6676,"rance":6677,"Ġreduction":6678,"SA":6679,"ymmet":6680,"ĠWilliams":6681,"eller":6682,"Ġorb":6683,"ĠIslam":6684,"Ġcurves":6685,"ĠWal":6686,"Ġpurs":6687,"Ġmechanism":6688,"Ġconfirmed":6689,"Ġcreating":6690,"Ġpil":6691,"Ġlies":6692,"Ġapart":6693,"1920":6694,"Ġtypical":6695,"secut":6696,"rait":6697,"Ġmetal":6698,"Ġofficers":6699,"erc":6700,"stitution":6701,"ĠRegister":6702,"Ġemail":6703,"Ġoperating":6704,"Work":6705,"ĠBlue":6706,"SI":6707,"lets":6708,"ĠOF":6709,"web":6710,"ĠCamb":6711,"ograp":6712,"newcommand":6713,"ĠHead":6714,"Ġmassive":6715,"ĠHuman":6716,"bury":6717,"ĠBase":6718,"Ġque":6719,"break":6720,"Ġ(!":6721,"cks":6722,"ĠCommunity":6723,"vex":6724,"ĠSong":6725,"Ġdistributed":6726,"La":6727,"Ġitems":6728,"Ġrailway":6729,"$$\\":6730,"power":6731,"aturday":6732,"ĠManagement":6733,"nergy":6734,"ĠSenate":6735,"Conn":6736,"faces":6737,"Ġ},":6738,"Ġdevices":6739,"Ġmeasurement":6740,"Ġdefeated":6741,"ĠMah":6742,"Ġarmy":6743,"Ġexternal":6744,"SD":6745,"Ġclaims":6746,"contin":6747,"Ġdenotes":6748,"Ġmess":6749,"ĠBritain":6750,"aria":6751,"Ġreasons":6752,"Ġcommunication":6753,"Ġresidents":6754,"Ġinterested":6755,"ĠPower":6756,"default":6757,"Ġtrend":6758,"ighter":6759,"Ġgenerate":6760,"Ġtensor":6761,"ĠPolice":6762,"Ġpowerful":6763,"ĠQueen":6764,"Ġobvious":6765,"Ġtraffic":6766,"rium":6767,"pa":6768,"Ġlabor":6769,"Ġsingular":6770,"sto":6771,"$).":6772,"Ġalgorithms":6773,"het":6774,"TH":6775,"orney":6776,"rison":6777,"}}^":6778,"ĠUN":6779,"^{+":6780,"Exp":6781,"odies":6782,"ĠPhys":6783,"elligence":6784,"ĠBattle":6785,"etts":6786,"ĠCa":6787,"ĠFrancisco":6788,"Ġvehicle":6789,"Ġchemical":6790,"CR":6791,"ulf":6792,"sch":6793,"car":6794,"agonal":6795,"%)":6796,"igration":6797,"Ġodd":6798,"Ġbatt":6799,"Art":6800,"Ġoccurs":6801,"Ġelections":6802,"ĠCorpor":6803,"Ġdiscovered":6804,"ĠGar":6805,"Ġmorph":6806,"ĠAsian":6807,"Ġcycl":6808,"Ġfle":6809,"ĠBern":6810,"Ġsegment":6811,"Ġcultural":6812,"Ġstrongly":6813,"Ġpsych":6814,"Ġexec":6815,"Rel":6816,"Ġsections":6817,"ĠStand":6818,"Do":6819,"named":6820,"Pol":6821,"El":6822,"ĠWeek":6823,"ipped":6824,"Mon":6825,"Ent":6826,"bullet":6827,"module":6828,"start":6829,"ĠJersey":6830,"rank":6831,"ĠWin":6832,"Ġ=\\":6833,"Ġstrict":6834,"claim":6835,"Ġcontinues":6836,"method":6837,"Ġinvariant":6838,"ĠAff":6839,"Ġpaid":6840,"ĠGeorgia":6841,"Config":6842,"ĠHor":6843,"wer":6844,"Ġtracks":6845,"ĠBuild":6846,"Ġcontained":6847,"char":6848,"adel":6849,"ĠVan":6850,"Ġtools":6851,"ruit":6852,")}{\\":6853,"Ġspirit":6854,"idel":6855,"Ġdaily":6856,"eld":6857,"Ġdoc":6858,"Ġthreshold":6859,"aming":6860,"Hz":6861,"Ġdrum":6862,"ĠOx":6863,"omic":6864,"ucky":6865,"Ġpolic":6866,"Thus":6867,"Ġdependence":6868,"abeth":6869,"omorphic":6870,"cur":6871,"burgh":6872,"Ġmodule":6873,"ĠFriday":6874,"PL":6875,"ĠJewish":6876,"ĠRos":6877,"Ġbuy":6878,"Ġresear":6879,"amin":6880,"Ġfreedom":6881,"ĠBoston":6882,"Ġmanaged":6883,"âĢĿ.":6884,"[]":6885,"ĠKent":6886,"ĠMu":6887,"ipe":6888,"Ġrestaur":6889,"Ġkept":6890,"ĠCharl":6891,"ĠLab":6892,"Ġdisk":6893,"aturing":6894,"abil":6895,"des":6896,"ĠJoe":6897,"Ġstatistics":6898,"rane":6899,"Ġroot":6900,"Ġreconst":6901,"eech":6902,"Ġstress":6903,"Ġarbitrary":6904,"Log":6905,"ĠCoast":6906,"ĠRh":6907,"sky":6908,"Ġrequirements":6909,"ĠKen":6910,"Top":6911,"Ġleaves":6912,"Pop":6913,"Ġdrop":6914,"pmatrix":6915,"bottom":6916,"pg":6917,"Ġallowing":6918,"ĠVi":6919,"aug":6920,"ĠPM":6921,"Ġcosm":6922,"Ġsort":6923,"ĠMiddle":6924,"jection":6925,"Ġsymmetric":6926,"Ġgenus":6927,"Ġregime":6928,"ĠLim":6929,"bas":6930,"Aust":6931,"ĠCard":6932,"Ġadvantage":6933,"Ġimportance":6934,"only":6935,"ĠUs":6936,"Ġnative":6937,"Ġweap":6938,"Ġprotected":6939,"example":6940,"Ġcert":6941,"osure":6942,"Ġideal":6943,"PT":6944,"namespace":6945,"ĠCro":6946,"Ġchance":6947,"Fe":6948,"Ġgain":6949,"Ġadministration":6950,"Ġtechnical":6951,"Ġ$$":6952,"ĠSpe":6953,"ĠIllinois":6954,"displaystyle":6955,"Ġrough":6956,"aped":6957,"ĠWall":6958,"Films":6959,"Ġnucle":6960,"Dis":6961,"Ġanswer":6962,"otted":6963,"irds":6964,"Ġserving":6965,"ĠTheatre":6966,"achus":6967,"poss":6968,"\\|_{":6969,"Ġyields":6970,"Ġcrew":6971,"Ġwrong":6972,"cs":6973,"Ġequipment":6974,"ĠFar":6975,"Ġsister":6976,"ĠSports":6977,"})$.":6978,"rawn":6979,"Ġtrained":6980,"Ġguarant":6981,"phas":6982,"ĠDisc":6983,"ĠInformation":6984,"Ġneighborhood":6985,"Ref":6986,"dim":6987,"Ġsingles":6988,"leep":6989,"Ġindicate":6990,"estic":6991,"clusive":6992,"ez":6993,"Ġsched":6994,"Ġpromin":6995,"Ġspatial":6996,"Ġdistingu":6997,"ĠST":6998,"anging":6999,"Ġdepth":7000,"ĠMajor":7001,"after":7002,"arters":7003,"edia":7004,"risis":7005,"ĠLuc":7006,")\\\\":7007,"Ġsecret":7008,"ĠRo":7009,"hbar":7010,"1962":7011,"****************":7012,"open":7013,"oder":7014,"Ġ]":7015,"Ġcomposed":7016,"120":7017,"Ġhypot":7018,"Ġattacks":7019,"Ġcustomers":7020,"graph":7021,"Ġmorning":7022,"Ġfloor":7023,"Ġregional":7024,"Ġcrick":7025,"Ġofficials":7026,"$^{-":7027,"ĠSciences":7028,"ĠGlobal":7029,"Ġexception":7030,"iate":7031,"enger":7032,"Ġdedicated":7033,"Ġordered":7034,"uing":7035,"cd":7036,"ĠEven":7037,"ĠSecretary":7038,"Ġregarding":7039,"ĠAM":7040,"agon":7041,"ipl":7042,"Ġsupply":7043,"Ġideas":7044,"DP":7045,"Element":7046,"Ġimproved":7047,"Ġpicture":7048,"oir":7049,"Ġsuggested":7050,"Ġissued":7051,"OC":7052,"mitted":7053,".$":7054,"yles":7055,"ĠMid":7056,"Ġarticles":7057,"1963":7058,"iger":7059,"Ġcontest":7060,"ĠHospital":7061,"tri":7062,"ĠGirl":7063,"Code":7064,"onto":7065,"ĠBal":7066,"'ll":7067,"\"\"":7068,"eces":7069,"duced":7070,"Ġproport":7071,"ĠKong":7072,"Size":7073,"stone":7074,"NR":7075,"ĠScotland":7076,"poses":7077,"ĠGi":7078,"tainer":7079,"ATE":7080,"LP":7081,"ĠNight":7082,"Bi":7083,"Ġacademic":7084,"Ġconference":7085,"Ġcatch":7086,"Ġapparent":7087,"Ġtoward":7088,"aren":7089,"achusetts":7090,"iced":7091,"Ġactors":7092,"Ġcircle":7093,"Ġexecutive":7094,"hetic":7095,"eli":7096,"ifies":7097,"ĠMond":7098,"Ġadopted":7099,"agraph":7100,"Ġintegr":7101,"actory":7102,"ĠMot":7103,"Ġrecording":7104,"They":7105,"ĠEdward":7106,"ĠPubl":7107,"Ġbelieved":7108,"Box":7109,"Ġspectra":7110,"{{":7111,"aser":7112,"ĠWild":7113,"Ġfinding":7114,"Ġcalls":7115,"ĠJr":7116,"ĠFederal":7117,"Gu":7118,"Ġyouth":7119,"ĠMarket":7120,"Ġlibrary":7121,"ĠSea":7122,"Ġcolon":7123,"remark":7124,"Ġsrc":7125,"emble":7126,"National":7127,"eness":7128,"Ġemployees":7129,"ĠRepublican":7130,"tail":7131,"'}":7132,"Ġlocations":7133,"Item":7134,"ĠBang":7135,"Ġdisp":7136,"otype":7137,"Ġacceler":7138,"ĠAndrew":7139,"Ġtests":7140,"ĠBelg":7141,"fil":7142,"Ġcouncil":7143,"speople":7144,"Ġdifferential":7145,"icted":7146,"iser":7147,"Ġasympt":7148,"Ġdecom":7149,"Ġisol":7150,"Ġap":7151,"dule":7152,"Ġindicates":7153,"uster":7154,"Ġleadership":7155,"Ġast":7156,"Ġboy":7157,"Ġmatrices":7158,"ĠStan":7159,"Ġacting":7160,"ĠOrgan":7161,"Ġpeace":7162,"Ġsquad":7163,"system":7164,"ĠWeb":7165,"Some":7166,"Ġacid":7167,"ione":7168,"Ġchallenge":7169,"Ġattend":7170,"Ġcompare":7171,"ronic":7172,"Ġvirtual":7173,"ĠColor":7174,"gency":7175,"ĠUkraine":7176,"Ġfunctional":7177,"Ġheard":7178,"textsc":7179,"Ġwidely":7180,"olve":7181,"ĠPrince":7182,"ĠFC":7183,"chester":7184,"hens":7185,"Ġphenomen":7186,")$-":7187,"oned":7188,"Ġnet":7189,"ĠJeff":7190,"Ġcars":7191,"Ġremov":7192,"Ġspot":7193,"Ġtool":7194,"Ġtechnique":7195,"ĠJes":7196,"ĠMedical":7197,"Dr":7198,"ĠRepresent":7199,"ĠPop":7200,"plete":7201,"Ġnone":7202,"Sch":7203,"Ġresource":7204,"ĠHa":7205,"Ġdraft":7206,"ĠMicro":7207,"ync":7208,"hbox":7209,"Ġchannels":7210,"Ġwestern":7211,"Ġlett":7212,"ĠJon":7213,"Ġtasks":7214,"ls":7215,"Ġfundamental":7216,"Ġitem":7217,"onia":7218,";&":7219,"ĠGovernor":7220,"1944":7221,"brid":7222,"oses":7223,"Ġexplained":7224,"Ġdisapp":7225,"Ġdamage":7226,"Ġconsidering":7227,"Ġtend":7228,"iner":7229,"Ġbeat":7230,"ĠEgypt":7231,"Ġadding":7232,"gers":7233,"Ġimplementation":7234,"lication":7235,"illy":7236,"Ġassign":7237,"Ġowner":7238,"Ġefficiency":7239,"lock":7240,"Ġcorpor":7241,"Ġrepro":7242,"=\"../../../../":7243,"Ġdegrees":7244,"Ġreson":7245,"Ġgap":7246,"Ġobserve":7247,"Ġfocused":7248,"itness":7249,"Ã¢":7250,"Ġloop":7251,"1961":7252,"Ñģ":7253,"Ġresid":7254,"}}^{":7255,"Ġretain":7256,"current":7257,"ĠBecause":7258,"ĠBra":7259,"Ġtrees":7260,"ilibrium":7261,"Ġmanifold":7262,"Ġplanning":7263,"Ġcandidates":7264,"HT":7265,"life":7266,"odd":7267,"ĠJustice":7268,"####":7269,"Ġdelay":7270,"such":7271,"ĠDutch":7272,"cf":7273,"Ġinvestigation":7274,"hu":7275,"ĠIndust":7276,"Ġcomputed":7277,"static":7278,"Ġships":7279,"mosp":7280,"Ġinterface":7281,"Ġfacilities":7282,"ĠTwitter":7283,"_-":7284,"oles":7285,"////////":7286,"Ġstellar":7287,"amely":7288,"Ġstreet":7289,"ĠFil":7290,"Ġbass":7291,"Ġacquired":7292,"ĠFree":7293,"ĠTaylor":7294,"rapy":7295,"Ġdial":7296,"Ġmotor":7297,"ĠInf":7298,"ĠVis":7299,">&":7300,"Ġstock":7301,"Ġcomedy":7302,"Ġintended":7303,"Param":7304,"ĠDaniel":7305,"lient":7306,"Ġsend":7307,"Ġoptical":7308,"Ġoperated":7309,"System":7310,"Ġaware":7311,"Ġplants":7312,"proposition":7313,"Ġdivided":7314,"ĠRay":7315,"ĠFund":7316,"ĠCreek":7317,"orough":7318,"Ġreform":7319,"Ġchart":7320,"ĠKorea":7321,"vin":7322,"Ġenvironmental":7323,"Ġsuc":7324,"Ġopin":7325,"Ġnotice":7326,"Ġassigned":7327,"Ġcoordinates":7328,"java":7329,"Ġmuseum":7330,"ĠEst":7331,"mapsto":7332,"Ġeconomy":7333,"Ġdepending":7334,"CM":7335,"Ġmasses":7336,"Ġanyone":7337,"ĠPortug":7338,"Ġacts":7339,"ĠFinally":7340,"Ġpp":7341,"Ġsolar":7342,"Ġremember":7343,"ĠEvery":7344,"dl":7345,"Ġnearby":7346,"gr":7347,"achel":7348,"ĠHamiltonian":7349,"Ġorders":7350,"ĠFour":7351,"occer":7352,"Ġtried":7353,"EX":7354,"Ġvictim":7355,"May":7356,"Ġprofessor":7357,"Ac":7358,"Will":7359,"Gl":7360,"found":7361,"Ġfort":7362,"Ġsexual":7363,"Ġlab":7364,"Go":7365,"LS":7366,"Ġinterval":7367,"ĉĉĉĉĉĉ":7368,"ĠJackson":7369,"ĠWis":7370,"ĠLo":7371,"Ã±":7372,"una":7373,"water":7374,"ĠCat":7375,"ĠEastern":7376,"Call":7377,"teen":7378,"Ġorth":7379,")_":7380,"Ġfeet":7381,"ĠGaussian":7382,"ASS":7383,"doc":7384,"Ġvehicles":7385,"Ġstarts":7386,"Ġpet":7387,"rs":7388,"apache":7389,"ithub":7390,"ĠLag":7391,"rows":7392,"Ġpoliticians":7393,"Ġinstr":7394,"cut":7395,"'(":7396,"Ġfellow":7397,"ĠStat":7398,"Ġbridge":7399,"Ġdiagn":7400,"ĠMassachusetts":7401,"aved":7402,"inson":7403,"scill":7404,"Ġpi":7405,"ĠDesign":7406,"Ġcomments":7407,"Ġeyes":7408,"Ġadvert":7409,"oute":7410,"Ġsides":7411,"Ġsafe":7412,"Ġbright":7413,"Year":7414,"unte":7415,"athan":7416,"Ġminimal":7417,"uous":7418,"uffer":7419,"ĠAsh":7420,"onential":7421,"ĠFamily":7422,"Array":7423,"Ġusual":7424,"ĠMaster":7425,"Ġoverl":7426,"Brit":7427,"Ġprotection":7428,"Ġcreation":7429,"ĠSecurity":7430,"ĠBrook":7431,"ĠSi":7432,"ilation":7433,"oster":7434,"Ġreturns":7435,"ĠBir":7436,"rect":7437,"DB":7438,"Ġinstrument":7439,"Results":7440,"Ġprotect":7441,"rice":7442,"uten":7443,"spect":7444,"ĠProfessor":7445,"Ġwinner":7446,"ECT":7447,"&=&":7448,"Ġprimarily":7449,"Ġadjust":7450,"ĠFacebook":7451,"Ġspl":7452,"Theorem":7453,"Ġsave":7454,"Ġawards":7455,"Ġhab":7456,"low":7457,"Ext":7458,"Ġcollected":7459,"Image":7460,"Ġskills":7461,"mc":7462,"rovers":7463,"cknowled":7464,"Ġmedium":7465,"ĠMuslim":7466,"Ġsuggests":7467,"Ġsucceed":7468,"amber":7469,"ĠWilson":7470,"Ġenh":7471,"ĠHong":7472,"Ġready":7473,"Ġobservation":7474,"ĠChristmas":7475,"lick":7476,"Ġinduced":7477,"tx":7478,"Ġlooks":7479,"1959":7480,"ĠMinistry":7481,"ographer":7482,"Ġlanguages":7483,"ads":7484,"GC":7485,"$;":7486,"ĠChris":7487,"Ġmarked":7488,"icip":7489,"ĠSaturday":7490,"Ġsatisfy":7491,"kes":7492,"ĠPoland":7493,"Ġswitch":7494,"define":7495,"ĠFurthermore":7496,"anged":7497,"1956":7498,"Message":7499,"Ġprocessing":7500,"Ġflight":7501,"1958":7502,"sol":7503,"Ġpages":7504,"pto":7505,"Ġaffected":7506,"Ġgalaxy":7507,"ĠBack":7508,"ĠModel":7509,"ĠConserv":7510,"izabeth":7511,"ĠUsing":7512,"actor":7513,"\\_":7514,"Ġphysics":7515,"User":7516,"Ġearned":7517,"Ġahead":7518,"mma":7519,"ideos":7520,"Ġtrip":7521,"ĠLight":7522,"opher":7523,"ĠBroad":7524,"zen":7525,"Ġlimits":7526,"\\{\\":7527,"ĠKim":7528,"}({\\":7529,"odot":7530,"ĠLittle":7531,"ĠStudies":7532,"cat":7533,"Ġattribut":7534,"Ġaudience":7535,"care":7536,"Ġsubsequently":7537,"css":7538,"1942":7539,"ĠMike":7540,"Ġemphas":7541,"assert":7542,"United":7543,"Ġarrived":7544,"Ġtail":7545,"Ġplanet":7546,"bal":7547,"Ġmiles":7548,"Ġwhereas":7549,"Ġexplain":7550,"Ġlearned":7551,"Ġbeam":7552,"process":7553,"picture":7554,"Ġrecommend":7555,"Ġbra":7556,"ĠPoint":7557,"Spec":7558,"roller":7559,"avel":7560,"Ġfunding":7561,"ĠColumbia":7562,"ĠLatin":7563,"|_{":7564,"ologist":7565,"ĠTHE":7566,"Cre":7567,"Ġcov":7568,"Ġreality":7569,"itivity":7570,"Ġgrid":7571,"valid":7572,"php":7573,"ĠDar":7574,"ulpt":7575,"ĠPrime":7576,"Ġsecondary":7577,"Ġflag":7578,"Ġinvestment":7579,"Ġdiam":7580,"Ġclubs":7581,"Ġviews":7582,"Ġreviews":7583,"AF":7584,"ĠProt":7585,"Ġpartial":7586,"ĠAD":7587,"ori":7588,"inations":7589,"create":7590,"ĠRun":7591,"Ġbudget":7592,"Ġtruth":7593,"ĠDown":7594,"1948":7595,"Ġfailure":7596,"Ġmarriage":7597,"Ġorganized":7598,"plex":7599,"fold":7600,"Ġfrag":7601,"rome":7602,"Ġimplic":7603,"ĠâĢ¦":7604,"Ġanimals":7605,"ursday":7606,"Ġfigures":7607,"Ġbusinesses":7608,"PP":7609,"imately":7610,"dy":7611,"two":7612,"Ġpersonnel":7613,"Ġinteger":7614,"Ġnarrow":7615,"ĠBa":7616,"ĠVill":7617,"bel":7618,"ture":7619,"Ġener":7620,"Ġdig":7621,"Last":7622,"ategory":7623,"Ġcommonly":7624,"Ġcomposition":7625,"dev":7626,"ented":7627,"Ġmeant":7628,"Ġhuge":7629,"Ġturns":7630,"mazon":7631,"Ġcitizens":7632,"Ġjava":7633,"Ġretired":7634,"Source":7635,"Ġcomplic":7636,"Ġmobile":7637,"ifer":7638,"Ġhouses":7639,"typ":7640,"Ġmargin":7641,"ĠThree":7642,"Ġdescent":7643,"ĠLog":7644,"scape":7645,"yo":7646,"Ġpatient":7647,"}&":7648,"Ġremark":7649,"Ġsomew":7650,"Ġanalog":7651,"ĠBoy":7652,"Ġremove":7653,"db":7654,"context":7655,"ĠAdminist":7656,"Ġancient":7657,"mass":7658,"ĠAuthor":7659,"Ġcomputation":7660,"Ġoscill":7661,"Ġvectors":7662,"Ġconvergence":7663,"Method":7664,"Ġcond":7665,"Ġprepar":7666,"opic":7667,"ĠStation":7668,"Ġplus":7669,"lections":7670,"omy":7671,"Ð¾Ð":7672,"ĠAR":7673,"ga":7674,"rastructure":7675,"onds":7676,"Ġquadr":7677,"fully":7678,"Ġincident":7679,"Ġmagnitude":7680,"Ġassociation":7681,"Ġdriving":7682,"ĠOxford":7683,"Ġcrime":7684,"gies":7685,"Ġalongside":7686,"Sm":7687,"ictures":7688,"1957":7689,"multi":7690,"!!":7691,"Ġchallenges":7692,"1939":7693,"igger":7694,"image":7695,"Ġconj":7696,"ibliography":7697,"ĠKey":7698,"Ġ/*":7699,"Ġcarbon":7700,"$~":7701,"Ġhole":7702,"University":7703,"Ġscattering":7704,"github":7705,"Ġpit":7706,"Ġmodified":7707,"Ġven":7708,"eless":7709,"number":7710,"Ġcharged":7711,"ĠCEO":7712,"sey":7713,"ĠNY":7714,"Ġnav":7715,"Ġtick":7716,"Ġbinary":7717,"Ġfresh":7718,"Ġclient":7719,"ĠAlexander":7720,"adow":7721,"ĠKenn":7722,"tik":7723,"ĠBell":7724,"ĠAnother":7725,"ĠLive":7726,"Ġplanned":7727,"Ġexperi":7728,"Ġion":7729,")+\\":7730,"Ġpersp":7731,"Ġdescribes":7732,"ups":7733,"ĠCL":7734,"ami":7735,"Ġconnect":7736,"Ġbegins":7737,"Ġbrain":7738,"lers":7739,"ifts":7740,"Ġera":7741,"dney":7742,"Ġthermal":7743,"Ġphone":7744,"[(":7745,"Dem":7746,"ĠSom":7747,"ubb":7748,"Ġmedian":7749,"Ġexpert":7750,"Ġhousing":7751,"ĠBrad":7752,"Ġadvanced":7753,"orig":7754,"Ġlock":7755,"Ġversions":7756,"bec":7757,"tan":7758,"ingly":7759,"Ġinspired":7760,"Ġaccepted":7761,"Ġsubt":7762,"Ġprediction":7763,"ĠBBC":7764,"Ġaxis":7765,"Ġpal":7766,"ricts":7767,"Ġconsult":7768,"othing":7769,"Ġevaluation":7770,"Ġlargely":7771,"='":7772,"DS":7773,"Ġconclude":7774,"Ġspeech":7775,"Ġtheoretical":7776,"ĠSupreme":7777,"Ġfeaturing":7778,"Ġcampus":7779,"Ġfootballer":7780,"Ġlie":7781,"?âĢĿ":7782,"disc":7783,"MR":7784,"Ġfashion":7785,"ĠWell":7786,"250":7787,"Ġepisodes":7788,"ĠRom":7789,"ĠBerlin":7790,"Line":7791,"ynamic":7792,"Ġcamera":7793,"aki":7794,"Ġtwice":7795,"Ġdeveloping":7796,"Ġcrow":7797,"ĠReport":7798,"Ġindeed":7799,"Ġspecified":7800,"ednes":7801,"antry":7802,"Dist":7803,"Ġdivers":7804,"Ġpolicies":7805,"à®":7806,"Ġinjury":7807,"apse":7808,"Ġmonitor":7809,"Ġhonor":7810,"ĠRen":7811,"Ġsession":7812,"ĠCorn":7813,"Ġscript":7814,"ogeneous":7815,"ĠOnt":7816,"anth":7817,"1943":7818,"Ġfifth":7819,"rog":7820,"Aut":7821,"apes":7822,"aa":7823,"ĠPen":7824,"ĠPolicy":7825,"sect":7826,"Ġalt":7827,"ĠPass":7828,"Ġpseud":7829,"Ġearth":7830,"ĠTw":7831,"perties":7832,"Ġstorage":7833,"ĠAbout":7834,"ennes":7835,"Ġscientific":7836,"Ġagree":7837,"1941":7838,"Ġconven":7839,"ĠFire":7840,"ĠWho":7841,"ĠĠĠĠĠĠĠĠĠĠĠĠĠĠ":7842,"Ġagreed":7843,"ĠViet":7844,"Ġtells":7845,"search":7846,"Ġsubstant":7847,"Manager":7848,"Ġcold":7849,"Ġpretty":7850,"ĠWalk":7851,"Ġengineering":7852,"AV":7853,"ĠAdd":7854,"ĠNC":7855,"Ġentertain":7856,"Ġroles":7857,"Ġdimensions":7858,"ontal":7859,"blue":7860,"~$\\":7861,"Ġbenefits":7862,"enses":7863,"ancer":7864,"Ġnotes":7865,"ĠHung":7866,"1952":7867,"Rem":7868,"1946":7869,"Ġenem":7870,"Ġdeploy":7871,"TC":7872,"Ġvon":7873,"Ġends":7874,"Ġprotein":7875,"xx":7876,"final":7877,"Ġintegration":7878,"Ġ};":7879,"Ġfluct":7880,"Ġlayers":7881,"ĠScottish":7882,"Ġpolitics":7883,"Ġprinciple":7884,"Ġreaction":7885,")},":7886,"Ġpush":7887,"Us":7888,"1955":7889,"wing":7890,"Ġinstitutions":7891,"Ġnotation":7892,"World":7893,"Cal":7894,"urer":7895,"uli":7896,"herent":7897,"phia":7898,"})$,":7899,"Ġinvolving":7900,"ĠÅ":7901,"Ġprogramming":7902,"ĠAp":7903,"Ġrom":7904,"ĠStr":7905,"Ġamplitude":7906,"Ġoccurred":7907,"thur":7908,"phone":7909,"ederation":7910,"Ġathlet":7911,"Ġcorner":7912,"ĠPolit":7913,"ĠConf":7914,"rr":7915,"Ġpatterns":7916,"Ġbenefit":7917,"Ġopportunities":7918,"Ġdriver":7919,"Ġcoal":7920,"({":7921,"Ġcalculation":7922,"Ġwants":7923,"ĠVictoria":7924,"flu":7925,"white":7926,"Disc":7927,"|}":7928,"ĠBul":7929,"Ġliber":7930,"Ġlum":7931,"ĠCP":7932,"Ġsolve":7933,"iden":7934,"Ġfell":7935,"false":7936,"Ġnor":7937,"ĠSM":7938,"Ġcalculations":7939,")-\\":7940,"Ġfinds":7941,"Ġprincipal":7942,"agnetic":7943,"Ġrotation":7944,"obs":7945,"ĠBon":7946,"Ġpra":7947,"Ġextends":7948,"Resp":7949,"Ġexcell":7950,"called":7951,"Ġpartition":7952,"OW":7953,"orrow":7954,"Ġsun":7955,"))$":7956,"ĠCur":7957,"Ġuncertainty":7958,"bot":7959,"Ġcapture":7960,"Ġindustrial":7961,"Ġfuel":7962,"oded":7963,"ĠID":7964,"Ġfiles":7965,"raq":7966,"ĠBeach":7967,"Ġrout":7968,"Ġspecifically":7969,"Ġrich":7970,"ĠFair":7971,"include":7972,"ĠBC":7973,"Ġshock":7974,"1947":7975,"Cor":7976,"akh":7977,"Ġburn":7978,"--------------------------------":7979,"Ġperhaps":7980,"cong":7981,"}}$,":7982,"urance":7983,"'.":7984,"orship":7985,"del":7986,"ultane":7987,"sign":7988,"Ġwasn":7989,"Ġhear":7990,"finished":7991,"Ġpossibly":7992,"adelphia":7993,"onical":7994,"ĠReal":7995,"anna":7996,"Ġeye":7997,"ĠLew":7998,"Ġextremely":7999,"ication":8000,"Ġbaseball":8001,"ĠAmericans":8002,"pdate":8003,"Ġmanner":8004,"event":8005,"Ġjump":8006,"Ġ${":8007,"Ġscales":8008,"uated":8009,"Ġfinish":8010,"dir":8011,"FR":8012,"ĠIslands":8013,"Ġhour":8014,"lementary":8015,"bro":8016,"ĠCapt":8017,"ensions":8018,"Introduction":8019,"zz":8020,"Ġconvers":8021,"Ġprovince":8022,"Section":8023,"ĠRailway":8024,"uesday":8025,"LT":8026,"Ġbatter":8027,"Members":8028,"ednesday":8029,"INE":8030,"ĠCommon":8031,"Ġchanging":8032,"ĠTam":8033,"Ġaw":8034,"ĠSa":8035,"Finally":8036,"ĠAk":8037,"ocated":8038,"pot":8039,"ĠWrit":8040,"Ġstability":8041,"also":8042,"Ġperforming":8043,"Ġtroops":8044,"ĠMethod":8045,"ĠSant":8046,"omer":8047,"Ġdecades":8048,"ĠRod":8049,"Ġdance":8050,"1953":8051,"iveness":8052,"UE":8053,"ĠSher":8054,"}}$.":8055,"Ġatmosp":8056,"ĠGuard":8057,"tikz":8058,"Ġglass":8059,"Ġagents":8060,"Ġdoor":8061,"1954":8062,"Although":8063,"600":8064,"Ġhockey":8065,"Ġvertical":8066,"Ġgrew":8067,"ĠBand":8068,"Ġauto":8069,"Sw":8070,"ĠInvest":8071,"eman":8072,"illing":8073,"Ġadvance":8074,"ĠLater":8075,"Using":8076,"LC":8077,"po":8078,"General":8079,"sche":8080,"Ġpenal":8081,"Ġfacility":8082,"apore":8083,"Ġdefense":8084,"Ġvariation":8085,"Ġrepresenting":8086,"jected":8087,"leton":8088,"BI":8089,"ĠAddition":8090,"110":8091,"ĠPlaces":8092,"Ġoptimization":8093,"Home":8094,"ĠEnergy":8095,"Ġ===":8096,"Ġsustain":8097,"Ġdanger":8098,"ometric":8099,"Ġhero":8100,"Ġliqu":8101,"Ĥ¬":8102,"Ġrecall":8103,"Ġplease":8104,"Ġreli":8105,"Ġcoverage":8106,"elly":8107,"Ã£":8108,"Head":8109,"Ġknew":8110,"zech":8111,"ĠAst":8112,"Ġthank":8113,"Em":8114,"}{|":8115,"ĠMonday":8116,"Ġclusters":8117,"ĠTrust":8118,"VD":8119,"Ġhappen":8120,"Ġcommit":8121,"ĠĠĠĠĠĠĠĠĠĠĠĠĠĠĠĠĠ":8122,"forward":8123,"Jan":8124,"step":8125,"Ġwaves":8126,";</":8127,"ĠCorps":8128,"member":8129,"Ġcommittee":8130,"Ġsurrounding":8131,"ĠType":8132,"Ġclinical":8133,"formance":8134,"Ġcomplexity":8135,"Ġcaptured":8136,"ĠAirport":8137,"ĠEngineering":8138,"ĠRaj":8139,"âĢĿ,":8140,"Ġfunds":8141,"Ġheav":8142,"option":8143,"consin":8144,"Ġspring":8145,"Ġgeometry":8146,"Ġencourag":8147,"Ġperman":8148,"hire":8149,"}\\,\\":8150,"Ġdie":8151,"Men":8152,"Ġeastern":8153,"}{(":8154,"British":8155,"ĠCorporation":8156,"Ġserves":8157,"Ġbands":8158,"Ġopposite":8159,"Ġminister":8160,"Ġscenario":8161,"Nov":8162,"ais":8163,"Ġfish":8164,"Ġelev":8165,"LA":8166,"hang":8167,"ilbert":8168,"1949":8169,"Ġrobust":8170,"Ġcredit":8171,"ĠJean":8172,"Ġprime":8173,"Ġviolence":8174,"etherlands":8175,"organ":8176,"Ġmotiv":8177,"Å¡":8178,"rowser":8179,"Ġsubsequent":8180,"Ġexpat":8181,"Ġstandards":8182,"Ġaccident":8183,"Song":8184,"Ġfan":8185,"Ġcreat":8186,"uri":8187,"Therefore":8188,"Ġtransferred":8189,"Ġhappened":8190,"Ġtag":8191,"ãĥ":8192,"ĠLike":8193,"RS":8194,"ĠOntario":8195,"ego":8196,"ĠRE":8197,"olis":8198,"ĠKorean":8199,"ĠClark":8200,"Lem":8201,"ĠLast":8202,"ĠAnth":8203,"stable":8204,"ĠRog":8205,"evin":8206,"hent":8207,")}_{":8208,"Ġelectronic":8209,"Ġconvent":8210,"Date":8211,"Ġemployed":8212,"Ġtransmission":8213,"len":8214,"\").":8215,")--":8216,"ĠFollowing":8217,"acent":8218,"ĠMinnes":8219,"Ġsoldiers":8220,"Track":8221,"Ġpurposes":8222,"ĠPakistan":8223,"Ġpool":8224,"package":8225,"Ġurban":8226,"vector":8227,"Ġsuccessfully":8228,"Ġextend":8229,"Ġkernel":8230,"ĠCas":8231,"high":8232,"Ġresident":8233,"Dav":8234,"Ġpossibility":8235,"orders":8236,"<!--":8237,"integ":8238,"Ġmountain":8239,"Ġradiation":8240,"ĠSU":8241,"ĠElizabeth":8242,"Ġdream":8243,"actic":8244,"dat":8245,"uum":8246,"Ġaffect":8247,"Ġdynamic":8248,"$),":8249,"])":8250,"Ġlocally":8251,"watch":8252,"Ġaccurate":8253,"Ġstatistical":8254,"Ġpartnership":8255,"outs":8256,"Ġshell":8257,"regon":8258,"hr":8259,"ĠArgent":8260,"ĠExper":8261,"ordan":8262,"ĠIS":8263,"Ġagric":8264,"bigl":8265,"iang":8266,"cale":8267,"Ġandroid":8268,"ĠSydney":8269,"Ġsupporting":8270,"}$)":8271,"font":8272,"~~~~":8273,"iga":8274,"Ġquery":8275,"ĠToronto":8276,"Ġrepeated":8277,"ĠMinnesota":8278,"Min":8279,"Ġinfinite":8280,"ĠAud":8281,"Ġrural":8282,"ĠLabor":8283,"osa":8284,"Ġtreated":8285,"ĠApple":8286,"conf":8287,"=\"../":8288,"ctors":8289,"ĠNet":8290,"ĠAvenue":8291,"Ġ$|\\":8292,"ĠMcC":8293,"ipage":8294,"Ã¡n":8295,"Ġabund":8296,"Off":8297,"${\\":8298,"Ġgraphs":8299,"Ġgradient":8300,"FI":8301,"Ġaspects":8302,"Ġrecognition":8303,"writer":8304,"Ġprominent":8305,"âĢĺ":8306,"Ġsym":8307,"heim":8308,"null":8309,"Ġbomb":8310,"ĠMarg":8311,"ropical":8312,"ĠOfficial":8313,":}":8314,"ĠStadium":8315,"Ġexpanded":8316,"Ġwarm":8317,"antly":8318,"apped":8319,"Ġcharges":8320,"ĠPolish":8321,"floor":8322,"Ġcharacteristic":8323,"pool":8324,"Ġcircum":8325,"ussion":8326,"Ġtranslation":8327,"ouri":8328,"Ġnewly":8329,"iki":8330,"Ġsuitable":8331,"TP":8332,"lywood":8333,"Ġirre":8334,"Ġemp":8335,"owa":8336,"ailed":8337,"ĠEU":8338,"Ġjourney":8339,"minipage":8340,"Ġblocks":8341,"Ġarguments":8342,":#":8343,"ĠFox":8344,"ãģ":8345,"1951":8346,"Ġnewspaper":8347,"ĠOnly":8348,"Ġhighlight":8349,"inton":8350,"ĠGro":8351,"Ġnamely":8352,"Base":8353,"Ġpix":8354,"Ġpowers":8355,"Ġbin":8356,"ĠSanta":8357,"ĠSaf":8358,"Ġconstitu":8359,"uv":8360,"Ġappearances":8361,"Ġobjective":8362,"ĠĠĠĠĠĠĠĠĊ":8363,"Ġdatabase":8364,"Ġestate":8365,"child":8366,"Ġrecognized":8367,"Ġangular":8368,"ĠHard":8369,"Ġtempor":8370,"Result":8371,"Ġmathemat":8372,"vements":8373,")</":8374,"ypes":8375,"Ġassistant":8376,"worth":8377,"ÅĤ":8378,"Ġdocuments":8379,"Tra":8380,"-$":8381,"close":8382,"ĠOlympic":8383,"Hel":8384,"Ġce":8385,"Ġcoordinate":8386,"oli":8387,"Oper":8388,"Â°":8389,"clusions":8390,"ĠVen":8391,"Ġunderlying":8392,"Ġbiggest":8393,"HL":8394,"Query":8395,"riev":8396,"Ġimplemented":8397,",$":8398,"Ġbalance":8399,"Ġcoinc":8400,"google":8401,"800":8402,"ĠBad":8403,"cccc":8404,"bigr":8405,"Ġrepresentative":8406,"ĠNations":8407,"ello":8408,"obe":8409,"ecutive":8410,"Ġsilver":8411,"Ġindicated":8412,"Ġbeautiful":8413,"ĠHun":8414,"Ġbroken":8415,"Ġcoefficient":8416,"vo":8417,"ni":8418,"ULL":8419,"ĠOt":8420,"osophy":8421,"Ġsubgroup":8422,"Ġnil":8423,"isa":8424,"miss":8425,"Ġil":8426,"Ġsculpt":8427,"ĠForest":8428,"itative":8429,"\"),":8430,"Ġconflict":8431,"Ġclosely":8432,"Ġhandle":8433,"uler":8434,"ĠLind":8435,"ito":8436,"EW":8437,"ĠSuch":8438,"Ġcontrovers":8439,"Ġcauses":8440,"Ġserver":8441,"Music":8442,"lyn":8443,"His":8444,")}}":8445,"Ġcharacteristics":8446,"ĠPrize":8447,"Ġparticipants":8448,"ĠCirc":8449,"ĠTy":8450,"inking":8451,"DC":8452,"Sport":8453,"Ġpieces":8454,"ĠNa":8455,"ĠThursday":8456,"Ġbow":8457,"ĠTal":8458,"DM":8459,"Ġ\\(\\":8460,"ĠDespite":8461,"Ġexplore":8462,"mediate":8463,"Ġfiction":8464,"Ġphoto":8465,"utt":8466,"umes":8467,"aska":8468,"bourne":8469,"ĠHand":8470,"Ġhistoric":8471,"Ġscaling":8472,"Ġcategories":8473,"Ġconcer":8474,"ocket":8475,"Ġcart":8476,"pop":8477,"rehens":8478,"Ġpassing":8479,"ĠTok":8480,"Ġconcerns":8481,"Ġdefend":8482,"Ġtransp":8483,"ĠRa":8484,"call":8485,"ĠAli":8486,"ĠLear":8487,"Ġinn":8488,"Right":8489,"Ġinvestigate":8490,"nic":8491,"Writ":8492,"Ġmist":8493,"Ġgar":8494,"Ġ__":8495,"Ġauthorities":8496,"Best":8497,"Two":8498,"Ġvotes":8499,"Ġportion":8500,"Ġvideos":8501,"ĠArea":8502,"Ġpredicted":8503,"Ġwel":8504,"Ġexponential":8505,"unit":8506,"Ġtheme":8507,"Ġentirely":8508,"Ġcontrolled":8509,"Ġzone":8510,"ĠCall":8511,"1918":8512,"\\)":8513,"ĠSpec":8514,"ĠMill":8515,"Ġtheories":8516,"Property":8517,"BM":8518,"ĠGener":8519,"ĠPers":8520,"ĠRegion":8521,"Ġdoll":8522,"Ġgirls":8523,"ĠNick":8524,"eaking":8525,"aret":8526,"Ġteaching":8527,"Ġupdated":8528,"Ġtitles":8529,"Ġpromoted":8530,"Sing":8531,"Ġbounds":8532,"inals":8533,"rizona":8534,"Ġweather":8535,"emeter":8536,"ĠComput":8537,"osition":8538,"Austral":8539,",{\\":8540,"comes":8541,"Ġintegrated":8542,"Ġraise":8543,"ĠAnton":8544,"Ġcrisis":8545,"Ġwinners":8546,"asters":8547,"hard":8548,"Ġevaluate":8549,"write":8550,"Read":8551,"ĠSteve":8552,"etal":8553,"tainment":8554,"Ġsmart":8555,"rant":8556,"Ev":8557,"ogether":8558,"ĠMedicine":8559,"Ġflex":8560,"iem":8561,"1936":8562,"ĠMic":8563,"Ġtraject":8564,"utenant":8565,"Ġjobs":8566,"ĠFer":8567,"last":8568,"Po":8569,"phant":8570,"Ġprotest":8571,"ĠInit":8572,"Ġempty":8573,"avor":8574,"ĠĠĠĠĠĠĠĠĠĠĠĠĠĠĠĠĠĠĠĠĠĠĠĠĠĠĠĠĠĠĠ":8575,"Ġcalculate":8576,"ĠOrig":8577,"Ġcovers":8578,"ĠRome":8579,"Ġ^":8580,"Ġ[\\":8581,"Ġseconds":8582,"ĠInternet":8583,"Ġhidden":8584,"Ġsettings":8585,"defined":8586,"Book":8587,"Ġperformances":8588,"Ġvent":8589,"Ġapproved":8590,"Ġsolo":8591,"Ġdiscrete":8592,"results":8593,"Sche":8594,"Ġvirus":8595,"Ġintroduction":8596,"Ġmunicipality":8597,"Ġkick":8598,"Ġspons":8599,"scriptstyle":8600,"Ġtele":8601,"Ġofficially":8602,"pson":8603,"\\;":8604,"ĠDam":8605,"PM":8606,"Ġlooked":8607,"ĠEth":8608,"ĠEnvironment":8609,"South":8610,"adding":8611,"itled":8612,"Ġabsolute":8613,"Ġdetected":8614,"ika":8615,"Ġsummar":8616,"rene":8617,"rip":8618,"ĠWisconsin":8619,"ĠDer":8620,"Ġsatisfying":8621,"Ġconsequence":8622,"Ġrecip":8623,"Ġappeal":8624,"Ġbehaviour":8625,"$_{":8626,"Ġsurg":8627,"III":8628,"peror":8629,"ruck":8630,"Ġcompeted":8631,"Ġly":8632,"Ġapplying":8633,"ĠMult":8634,"anes":8635,"Ġfrequently":8636,"Ġfaculty":8637,"hol":8638,"Ġturb":8639,"Ġconvex":8640,"ĠBooks":8641,"ĠKir":8642,"Ġfaith":8643,"ĠPC":8644,"Ġchampion":8645,"Client":8646,"ĠSem":8647,"ĠRon":8648,"num":8649,"asp":8650,"erves":8651,"Ġpackage":8652,"jav":8653,"Ġwing":8654,"DR":8655,"rell":8656,"ĠIV":8657,"Ã£o":8658,".&":8659,"aux":8660,"Har":8661,"Ġsuperv":8662,"author":8663,"Ġresulted":8664,"dep":8665,"ĠNetherlands":8666,"Ġvision":8667,"ierarch":8668,"Ġlosing":8669,"ĠBall":8670,"ĠCare":8671,"friend":8672,"sat":8673,"Ġvess":8674,"df":8675,"---":8676,"Ġyards":8677,"BO":8678,"initely":8679,"Ġwinter":8680,"Ġlemma":8681,"query":8682,"Ġprojection":8683,"Ġsimultane":8684,"een":8685,"wind":8686,"ĠQueens":8687,"Ġguide":8688,"Ġsell":8689,"ĠRevolution":8690,"sex":8691,"Override":8692,"ĠHay":8693,"ĠReturn":8694,"Ġsand":8695,"ĠPhiladelphia":8696,"Ġagency":8697,"ouns":8698,"1938":8699,"ĠPage":8700,"Ġinterior":8701,"Ġpublication":8702,"Ġdenoted":8703,"ĠCub":8704,"encing":8705,",\\\\":8706,"ĠDC":8707,"weg":8708,"yard":8709,"aton":8710,"Ġexperiences":8711,"ses":8712,"ĠWars":8713,"tfrac":8714,"eral":8715,"Ġraces":8716,"Polit":8717,"ĠMP":8718,"Ġarms":8719,"ĠFinal":8720,"Ġfighting":8721,"ĠSpring":8722,"season":8723,"isted":8724,"perial":8725,"Ġdoub":8726,"irement":8727,"ĠAG":8728,"uzz":8729,"ĠRead":8730,"ĠSat":8731,"Ġportrait":8732,"...,":8733,"quarters":8734,"ĠIraq":8735,"mi":8736,"ariance":8737,"Ġreceiving":8738,"Ġcontemporary":8739,"coh":8740,"Ġ->":8741,"vol":8742,"Ġherself":8743,"lik":8744,"awn":8745,"Ġmapping":8746,"Ġdestroyed":8747,"ĠCambridge":8748,"ĠLes":8749,"ifact":8750,"mic":8751,"Ġdeclared":8752,"================":8753,"Ġanimal":8754,"notes":8755,"ĠSus":8756,"Ġpm":8757,"ĠLady":8758,"vari":8759,"Ġtemperatures":8760,"iples":8761,"target":8762,"sort":8763,"ĠPeak":8764,"Ġdesired":8765,"night":8766,"Ġthanks":8767,"aine":8768,"ritical":8769,"adian":8770,"Ġunless":8771,"Ġextensive":8772,"Red":8773,"Ġhosted":8774,"Ġauthority":8775,"Ġentropy":8776,"Ġexplo":8777,"possible":8778,"ronze":8779,"ĠWinter":8780,"Ġadvent":8781,"everal":8782,"yth":8783,"Gener":8784,"Ġsale":8785,"aga":8786,"Ġadministrative":8787,"anga":8788,"Ġbed":8789,"Ġcerem":8790,"ONT":8791,"Tube":8792,"ĠOregon":8793,"\"|":8794,"ĠSab":8795,"orption":8796,"mathop":8797,"asty":8798,"ĠAgain":8799,"ĠRights":8800,"ĠBrand":8801,"Ġfounder":8802,"ĠStaff":8803,"Ġvisible":8804,"sid":8805,"Sum":8806,"ĠEnt":8807,"mad":8808,"ĠStephen":8809,"ĠNS":8810,"Ġwonder":8811,"ĠNon":8812,"Ġholding":8813,"jan":8814,"ĠFood":8815,"Ġrepresentations":8816,"Ġinteract":8817,"ĠWel":8818,"Ġeffectively":8819,"Ġcollaboration":8820,"rl":8821,"Ġaffili":8822,"ĠDavis":8823,"ĠGolden":8824,"fa":8825,"Ġconfidence":8826,"Ġdownload":8827,"Ġprofession":8828,"lib":8829,"Ġequilibrium":8830,"Ġpractices":8831,"ĠOp":8832,"ĠAh":8833,"Ġkids":8834,":=":8835,"ĠTa":8836,"Ġswim":8837,"Ġorbit":8838,"Ġarts":8839,"unfinished":8840,"Ġcab":8841,"ĠPremier":8842,"sg":8843,"Up":8844,"yal":8845,"Ġversus":8846,"ouston":8847,"islative":8848,"ĠMatt":8849,"Ġhelps":8850,"Ġdust":8851,"Ġ^{":8852,"1937":8853,"Ġsecure":8854,"ĠWednesday":8855,"$:":8856,"irty":8857,"present":8858,"ĠTuesday":8859,"Ġhair":8860,"Ġyounger":8861,"Ġgraduated":8862,"Ġcryst":8863,"lesssim":8864,"uy":8865,"Max":8866,"Ġmental":8867,"ushed":8868,"ĠCle":8869,"Ġcalling":8870,"Point":8871,"istent":8872,"efe":8873,"ĠWat":8874,"Cast":8875,"Ġbias":8876,"Play":8877,"Ġmultiplic":8878,"Stream":8879,"ĠBridge":8880,"ĠColorado":8881,"tered":8882,"Ġseats":8883,"Ġnotable":8884,"International":8885,"Ġconsisting":8886,"ĠTurk":8887,"including":8888,"EP":8889,"ĠMarsh":8890,"Ġrelax":8891,"uses":8892,"cret":8893,"ĠDuke":8894,"ERS":8895,"Start":8896,"otional":8897,"cref":8898,"ĠThrough":8899,"Description":8900,"ĠSon":8901,"legal":8902,"vature":8903,"cover":8904,"forcement":8905,"Ġthinking":8906,"olitan":8907,"Ġhouseholds":8908,"blem":8909,"Ġdrawn":8910,"Ġ[-":8911,"Ġrear":8912,"ĠHo":8913,"ĠCountry":8914,"ĠSingapore":8915,"Ġgained":8916,"Ġthousands":8917,"ĠToday":8918,"Ġiron":8919,"vee":8920,"opped":8921,"Ġstands":8922,"hor":8923,"Ġattempts":8924,"Port":8925,"Ġsan":8926,">>":8927,"igrants":8928,"chestra":8929,"'d":8930,"Ġoffering":8931,"atern":8932,"Ġprepared":8933,"Ġmac":8934,"Ġcommut":8935,"Ġaband":8936,"entry":8937,"Ġwins":8938,"ĠStory":8939,"Ġmixing":8940,"Ġcatal":8941,"ci":8942,"angular":8943,"Ġnarr":8944,"Ġstorm":8945,"ĠCH":8946,"struction":8947,"Ġneutr":8948,"]}":8949,"^*$":8950,"Ä±":8951,"etch":8952,"Ġrig":8953,"stic":8954,"Ġlisting":8955,"antasy":8956,"iated":8957,"PD":8958,"iÄĩ":8959,"BR":8960,"Ġwitness":8961,"ician":8962,"dependent":8963,"ĠWhe":8964,"))\\":8965,"expected":8966,"ifferent":8967,"Ġmand":8968,"Mark":8969,"Ġaggreg":8970,"Ġcompat":8971,"Ġcm":8972,"ometry":8973,"Ġcrim":8974,"Ġcooper":8975,"Ġpurchased":8976,"Ġcopies":8977,"Ġsufficiently":8978,"zed":8979,"Personal":8980,"Ġsampling":8981,"Ġsequences":8982,"ulating":8983,"]$.":8984,"Ġstone":8985,"ĉĉĊ":8986,"Ġbos":8987,"Ġwish":8988,"Ġstrategies":8989,"ĠDigital":8990,"Ġexclud":8991,"Ġfeedback":8992,"ĠRegiment":8993,"iary":8994,"fi":8995,"Ġmusicians":8996,"Ġdimensional":8997,"second":8998,"chron":8999,"ptic":9000,"Ġscholar":9001,"eries":9002,"Met":9003,"ĠLocal":9004,"Ġparticipated":9005,"how":9006,"ĠâĢ¢":9007,"Ġresistance":9008,"ĠFord":9009,"Ġcovering":9010,"Ġferm":9011,"Ġstd":9012,"aints":9013,"ĠLtd":9014,"ĠMember":9015,"Util":9016,"udden":9017,"si":9018,"Open":9019,"Run":9020,"Ġdefeat":9021,"Ġdatasets":9022,"Ġjudge":9023,"Ġending":9024,"Ġdoctor":9025,"Ġestimation":9026,"ĠBol":9027,"Ġbench":9028,"ĠGreg":9029,"Ġunable":9030,"establ":9031,"ifest":9032,"$};":9033,"Ġpossess":9034,"Ġultimately":9035,"ĠFac":9036,"android":9037,"Ã¸":9038,"ĠStock":9039,"Ġintensity":9040,"Ġweights":9041,"Ġenhance":9042,"})}":9043,"Ã©e":9044,"arity":9045,"Ġexplicitly":9046,"\\}$.":9047,"ĠAmazon":9048,"1917":9049,"longrightarrow":9050,"Ġhotel":9051,"Ġgone":9052,"plane":9053,"Ġjet":9054,">(":9055,"ĠSign":9056,"etails":9057,"world":9058,"adi":9059,"Ġlowest":9060,"ennessee":9061,"elihood":9062,"itory":9063,"Ġdropped":9064,"ĠTurn":9065,"ĠCase":9066,"Ġwealth":9067,"1919":9068,"ĠAthlet":9069,"Ġarrested":9070,"ĠIndeed":9071,"engers":9072,"Cent":9073,"unes":9074,"bet":9075,"aded":9076,"Ġhappy":9077,"Ġped":9078,"Mat":9079,"aked":9080,"Ġfluid":9081,"Ġexplan":9082,"1935":9083,"Ġprogramme":9084,"mn":9085,"Ġpurchase":9086,"Ġgranted":9087,"cha":9088,"ĠBru":9089,"Ġouter":9090,"Ġguard":9091,"ordon":9092,"Current":9093,"select":9094,"Ġmarkets":9095,"Ġwal":9096,"Resource":9097,"Ġpapers":9098,"Response":9099,"elect":9100,"ructions":9101,"Ġbreaking":9102,"ĠFI":9103,"joint":9104,"eties":9105,"Ġdocumentary":9106,"kh":9107,"Another":9108,"ben":9109,"Ġflood":9110,"Ġtested":9111,"}}_{\\":9112,"Ġcompris":9113,"Ġscope":9114,"ĠKansas":9115,"Ġdecomposition":9116,"Ġ$.":9117,"iday":9118,"Ġconclusion":9119,"}[\\":9120,"Ġmel":9121,"HC":9122,"Ġreferences":9123,"ĠBatt":9124,"ĠMoh":9125,"Ġmoments":9126,"ĠId":9127,"illed":9128,"enna":9129,"Ġeq":9130,"emetery":9131,"Ġsummary":9132,"ĠObject":9133,"Ġscoring":9134,"Ġdomestic":9135,"Ġprices":9136,"agen":9137,"ĠChildren":9138,"ĠIndones":9139,"Ġletters":9140,"Ġbulk":9141,"ortunately":9142,"Ġabsence":9143,"iable":9144,"unnel":9145,"Ġseeing":9146,"BL":9147,"Builder":9148,"ĠSweden":9149,"Ġderivative":9150,"ĠMach":9151,"Label":9152,"ĠTurkey":9153,"ĠAny":9154,"GA":9155,"Ġmort":9156,"ĠCM":9157,"Ġgene":9158,"Ġclassic":9159,"RL":9160,"Ġdemonstrated":9161,"Ġcloser":9162,"othe":9163,"1914":9164,"ighth":9165,"Input":9166,"itational":9167,"ĠJacob":9168,"ĠTro":9169,"Ġneural":9170,"Ġresearchers":9171,"aste":9172,"ensed":9173,"atin":9174,"ĠCost":9175,"Ġcas":9176,"RC":9177,"Ġhappens":9178,"forms":9179,"Ġment":9180,"Ġterritory":9181,"Prov":9182,"Ġcomputing":9183,"Ġcommitted":9184,"Ġinfrastructure":9185,"Ġquark":9186,"Ġprecis":9187,"Ġconcentration":9188,"Ġpractical":9189,"Ġexperienced":9190,"arse":9191,"ĠHarry":9192,"ĠGh":9193,"Ġdiver":9194,"Ġassumptions":9195,"ĠSurvey":9196,"ĠAtlantic":9197,"Ġnegot":9198,"scope":9199,"Ġopinion":9200,"orted":9201,"ĠNext":9202,"ĠSD":9203,"Ġhabit":9204,"Ġfib":9205,"ĠCommand":9206,"ĠOnce":9207,"circle":9208,"ospit":9209,"project":9210,"duate":9211,"Following":9212,"Ġblog":9213,"just":9214,"icular":9215,"Ġtrace":9216,"Ġperspective":9217,"Ġinstitution":9218,"uma":9219,"ĠExt":9220,"Return":9221,"ĠHan":9222,"parent":9223,"stood":9224,"ĠBrig":9225,"bat":9226,"Ġregistered":9227,"Ġwait":9228,"Ġsuffered":9229,"RI":9230,"Ġidentical":9231,"Ġexceed":9232,"Dep":9233,"${":9234,"ĠGer":9235,"Ġbelief":9236,"ĠIndiana":9237,"ĠMaria":9238,"ĠNone":9239,"ĠRet":9240,"ĠAdam":9241,"Ġfavorite":9242,"Non":9243,"iota":9244,"Ġsettlement":9245,"Ġextent":9246,"Ġcertainly":9247,"Ġsignals":9248,"Ġmarketing":9249,"Ġyellow":9250,"button":9251,"show":9252,"ĠNaz":9253,"Ġvice":9254,"Ġcontrad":9255,"Ġloan":9256,"ATION":9257,"yset":9258,"endar":9259,"Ġexpatriate":9260,"ochastic":9261,"1900":9262,"Number":9263,"})^":9264,"ĠMiller":9265,"Ġmaxim":9266,"aling":9267,"Ġrelationships":9268,"ĠBudd":9269,"Ġinverse":9270,"Ġhomes":9271,"Ġhumans":9272,"secutive":9273,"})=":9274,"Ġaccounts":9275,"Wind":9276,"Ġpref":9277,"rior":9278,"Ġoccasion":9279,"urches":9280,"ĠGuide":9281,"Ġcontrols":9282,"Äį":9283,"ĠArizona":9284,"Ġkid":9285,"Ġsatell":9286,"Ġintersection":9287,"bell":9288,"Ġpul":9289,"ĠMilitary":9290,"ĠOcean":9291,"Ġpip":9292,",\\,\\":9293,"ĠPot":9294,"oven":9295,"TA":9296,"ĠMountain":9297,"}})":9298,"ĠHop":9299,"Ġinhab":9300,"Ġsupports":9301,"Ġfilled":9302,"arest":9303,"mo":9304,"Ġbodies":9305,"Ġmunicipal":9306,"Ġalleged":9307,";\\;\\":9308,"itional":9309,"ĠLow":9310,"Link":9311,"ragon":9312,"Ġreturning":9313,"Ġtaught":9314,"dfrac":9315,"tw":9316,"Ġexcellent":9317,"ipping":9318,"there":9319,"Ġfear":9320,"Ġ\\!":9321,"argets":9322,"Ġconcert":9323,"Ġprecisely":9324,"client":9325,"Ġimprovement":9326,"ownt":9327,"ĠSwedish":9328,"ĠPrim":9329,"Ġaid":9330,"Ġaudio":9331,"UM":9332,"offs":9333,"phy":9334,"Ġmatching":9335,"Ġ{$":9336,"1929":9337,"Ġdecisions":9338,"prov":9339,"Ġpiano":9340,"ĠAnderson":9341,"Ġrefers":9342,"ĠSky":9343,"Ġsatisfied":9344,"fs":9345,"Ġpun":9346,"Ġstack":9347,"Ġtight":9348,"101":9349,"Ġgravity":9350,"Women":9351,"Nav":9352,"ĠExecutive":9353,"Ġkeeping":9354,"Ġescape":9355,"ceived":9356,"Ġdog":9357,"ĠHart":9358,"Why":9359,"Ġgender":9360,"Ġlabels":9361,"]$,":9362,"Ġfra":9363,"Ġenergies":9364,"vard":9365,"Ġscheduled":9366,"Ġfaster":9367,"Ġdiscrim":9368,"ĠLewis":9369,"Ste":9370,"Ġbool":9371,"Ġterror":9372,"Ġbuff":9373,"TY":9374,"Ġdefin":9375,"ĠAz":9376,"Ġdiagonal":9377,"Public":9378,"agues":9379,"Association":9380,"rea":9381,"options":9382,"ĠGree":9383,"ĠAmb":9384,"Ġdens":9385,"Ġstages":9386,"Ġdemonstrate":9387,"rine":9388,"Ġtwenty":9389,"sole":9390,"rations":9391,"1933":9392,"Ġhall":9393,"ropic":9394,"gar":9395,"func":9396,"Ġcaref":9397,"Ġintern":9398,"chor":9399,"Ġpromote":9400,"Ġcriminal":9401,"Ġmolecular":9402,"Ġranked":9403,"Ġconstants":9404,"btn":9405,"request":9406,"ĠNFL":9407,"Ġreader":9408,"ĠBh":9409,"Background":9410,"Ġcomfort":9411,"args":9412,"Ġnecessarily":9413,"ouble":9414,"theless":9415,"ĠRoss":9416,"ĠKnow":9417,"Most":9418,"ĠCommunic":9419,"hedral":9420,"1928":9421,"ivals":9422,"Component":9423,"Ġpod":9424,"ĠEric":9425,"ĠRest":9426,"Ġcolour":9427,"ĠKal":9428,"outheast":9429,"oured":9430,"ĠGallery":9431,"Ġresc":9432,"okes":9433,"anguage":9434,"ĠAffairs":9435,"Ġwalls":9436,"hou":9437,"ĠOfficer":9438,"ĠAppendix":9439,"je":9440,"ĠNAS":9441,"iley":9442,"Ġtitled":9443,"Ġfemales":9444,"ĠSC":9445,"IO":9446,"1934":9447,"Ġrect":9448,"Ġexcess":9449,"Russ":9450,"Action":9451,"icial":9452,"Ġ({\\":9453,"Ġhelping":9454,"Bo":9455,"ĠWhy":9456,"Ġ\\&":9457,"ĠGrant":9458,"Ġadvoc":9459,"Ġsac":9460,"160":9461,"uling":9462,"Ġseed":9463,"ĠSav":9464,"%.":9465,"ĠMissouri":9466,"elle":9467,"stances":9468,"thew":9469,"ĠCru":9470,"ercise":9471,"emptyset":9472,"Ġnob":9473,"1910":9474,"ĠPit":9475,"ĠMA":9476,"ĠMemorial":9477,"Ġarc":9478,"Ġworldwide":9479,"Ġmaximal":9480,"wegian":9481,"Ġroughly":9482,"Ġpredictions":9483,"ĠYouTube":9484,"Ġseparated":9485,"Christ":9486,"Ġfestival":9487,"$&":9488,"ribed":9489,"Di":9490,"Ġdelivered":9491,"Ġnovels":9492,"osl":9493,"Ġvot":9494,"ĠControl":9495,"description":9496,"mers":9497,"ĠCzech":9498,"andra":9499,"Ġshares":9500,"}}.":9501,"Ġsharing":9502,"Ġannounce":9503,"Ġwrest":9504,"PO":9505,"Ġdecrease":9506,"Ġsole":9507,"medskip":9508,"Ġsubstit":9509,"Ġinstalled":9510,"ĠHal":9511,"plom":9512,"don":9513,"ĠView":9514,"iami":9515,"formal":9516,"ĠPrinc":9517,"Ġpaths":9518,"German":9519,"Ġliquid":9520,"ulner":9521,"Pat":9522,"tag":9523,"algebra":9524,"Ġdependent":9525,"Ġvolunte":9526,"Ġdelivery":9527,"ĠForeign":9528,"odge":9529,"ĠNever":9530,"sequently":9531,"ĠSeason":9532,"bu":9533,"^{*":9534,"ĠJoh":9535,"Ġ<<":9536,"alion":9537,"Ġ}{":9538,"Ġscores":9539,"Ġguest":9540,"HO":9541,"Ġinsert":9542,"Ap":9543,"Ġdetect":9544,"ĠTai":9545,"Ġbought":9546,"models":9547,"French":9548,"ĠMagazine":9549,"Ġradial":9550,"oscow":9551,"ourier":9552,"ships":9553,"Sl":9554,"ĠBrother":9555,"DT":9556,"Ġgovernor":9557,"\"]":9558,"Ġbriefly":9559,"direct":9560,"ĠMir":9561,"Ġtrivial":9562,"ĠCA":9563,"bras":9564,"Ġneutral":9565,"ĠTransport":9566,"ĠKat":9567,"ĠBefore":9568,"Ġinterpretation":9569,"istration":9570,"Ġuniversal":9571,"ĠCaptain":9572,"Mult":9573,"Ġtowns":9574,"Ġintelligence":9575,"Ġjustice":9576,"unny":9577,"Ġflows":9578,"Ġessentially":9579,"ĠMedal":9580,"Function":9581,"Ġshut":9582,"isor":9583,"Ġcontribute":9584,"Ġ\\]":9585,"180":9586,"Ġban":9587,"Ġdecade":9588,"success":9589,"ĠRoute":9590,"Ġminute":9591,"general":9592,"BB":9593,"ĠEntertainment":9594,"1932":9595,"Ġinterests":9596,"rainian":9597,"Ġuns":9598,"arma":9599,"FO":9600,"ĠSupport":9601,"hl":9602,"Ġjournalist":9603,"inction":9604,"Ġsizes":9605,"Ġsevere":9606,"urd":9607,"Ġhorse":9608,"Ġquantities":9609,"property":9610,"esides":9611,"Ġovers":9612,"allow":9613,"ĠCode":9614,"Ġplate":9615,"Ġgreatest":9616,"West":9617,"ĠShort":9618,"iversary":9619,"Ġrenew":9620,"umin":9621,"else":9622,"uscript":9623,"ĠLic":9624,"Acc":9625,"Ġopposition":9626,"Ġthin":9627,"prise":9628,"%,":9629,"Ġposted":9630,"Ġstanding":9631,"ĠOs":9632,"ĠDark":9633,"ĠJer":9634,"Ġsomewhat":9635,"Ag":9636,"icians":9637,"Ġmes":9638,"ĠTennessee":9639,"ĠKhan":9640,"Ġsevent":9641,"Ġrenamed":9642,"Ġenable":9643,"Ġkin":9644,"anner":9645,"Ġlinked":9646,"Ġconsecutive":9647,"edding":9648,"paragraph":9649,"ĠHom":9650,"Ġhybrid":9651,"uns":9652,"ĠChannel":9653,"Ãº":9654,"abet":9655,"zo":9656,"ĠLeon":9657,"Ġhypothesis":9658,"Ġracing":9659,"Ġentries":9660,"andy":9661,"[-":9662,"craft":9663,"parameter":9664,"ĠDonald":9665,"Ġemergency":9666,"urations":9667,"Ġadult":9668,"Ġparliament":9669,"brace":9670,"vart":9671,"Ø§":9672,"ĠCab":9673,"door":9674,"Ġmoves":9675,"Ġdry":9676,"ĠPhilippines":9677,"NC":9678,"formed":9679,"1931":9680,"Under":9681,"Ġprotocol":9682,"ĠMaryland":9683,"rained":9684,"aturally":9685,"Ġcanonical":9686,"Ġcrowd":9687,"clear":9688,"Ġconnections":9689,"tach":9690,"Ġengineer":9691,"Ġbran":9692,"green":9693,"ĠJam":9694,"Command":9695,"Ġtack":9696,"DD":9697,"Ġrational":9698,"David":9699,"Ġrecept":9700,"ĠJews":9701,"parison":9702,"imation":9703,"Ġplatforms":9704,"ĠKa":9705,"Case":9706,"Ġscenes":9707,"ques":9708,"Ġsupposed":9709,"Ġweapons":9710,"Her":9711,"Ġbundle":9712,"ropolitan":9713,"Ġluminos":9714,"ãĤ":9715,"heta":9716,"format":9717,"Block":9718,"img":9719,"Ġplas":9720,"large":9721,"ĠMun":9722,"Ġvisited":9723,"esign":9724,"à¥":9725,"ĠTel":9726,"Ġtermin":9727,"Ġderive":9728,"ĠArthur":9729,"ĠDisney":9730,"ĠBab":9731,"rency":9732,"ĠCastle":9733,"Ġgeneralized":9734,"ogy":9735,"Ġoffset":9736,"Ġproducing":9737,"125":9738,"eger":9739,"ounded":9740,"Ġsigns":9741,"Ġsky":9742,"aza":9743,"ĠLiter":9744,"ĠCook":9745,"ĠBishop":9746,"IST":9747,"esian":9748,"Ġexcited":9749,"regular":9750,"ĠInstead":9751,"MT":9752,"ĠBrian":9753,"ĠJordan":9754,"Ġfiled":9755,"Ġnonlinear":9756,"][]{":9757,"icide":9758,"ĠDom":9759,"Content":9760,"Ġgeneric":9761,"wall":9762,"ĠMalays":9763,"Ġgate":9764,"idge":9765,"Ġadjacent":9766,"omot":9767,"Ġfindings":9768,"./":9769,"iliar":9770,"iration":9771,"ĠVideo":9772,"uning":9773,"Ġequality":9774,"Long":9775,"Ant":9776,"Ġseek":9777,"ĠMas":9778,"ĠSerb":9779,"Ġsleep":9780,"|}{":9781,"Ġconservation":9782,"1927":9783,"/(":9784,"Ġcustomer":9785,"points":9786,"BE":9787,"ĠPier":9788,"Ġfold":9789,"WE":9790,"header":9791,"ĠDue":9792,"tiny":9793,"Ġcombat":9794,"Ġcro":9795,"ĠColon":9796,"redit":9797,"Ġopposed":9798,"ĠMit":9799,"tree":9800,"]{\\":9801,"eek":9802,"}}^{\\":9803,"Ġweekend":9804,"1924":9805,"gebras":9806,"High":9807,"Ġshooting":9808,"1922":9809,"ĠConnect":9810,"ĠModern":9811,"icate":9812,"Proof":9813,"Direct":9814,"Vis":9815,"ureau":9816,"GR":9817,"ĠSenior":9818,"ĠAI":9819,"ĠAge":9820,"Ġcrucial":9821,"fficial":9822,"uted":9823,"Ġcriteria":9824,"Child":9825,"Ġencounter":9826,"Ġparish":9827,"ocracy":9828,"igenous":9829,"Consider":9830,"incess":9831,"ĠFront":9832,"Ġtopological":9833,"Ġtalking":9834,"istant":9835,"Gen":9836,"Status":9837,"Ġcomputational":9838,"ĠResp":9839,"Ġuniverse":9840,"Ġimmediate":9841,"Ġmoder":9842,"ĠHighway":9843,"ĠBuilding":9844,"rosc":9845,"ĠDor":9846,"ĠImm":9847,"Ġdistricts":9848,"rish":9849,"Ġcurvature":9850,"Ġstret":9851,"ĠPhot":9852,"Ġsensitive":9853,"merce":9854,"ĠTony":9855,"card":9856,"ramework":9857,"Ġcapable":9858,"}}}\\":9859,"ĠSche":9860,"ĠDeath":9861,"Ġdrivers":9862,"ĠBan":9863,"Ġclients":9864,"Ġpropose":9865,"find":9866,"Ġlect":9867,"Ġbringing":9868,"Ġdriven":9869,"inch":9870,"Ġrugby":9871,"ĠVietnam":9872,"Ġquantity":9873,"ĠAND":9874,"ĠBat":9875,"Hence":9876,"osph":9877,"Ġtechnologies":9878,"Ġtopic":9879,"Sty":9880,"Given":9881,"ĠDNA":9882,"append":9883,"Check":9884,"avirus":9885,"ĠAmong":9886,"Ġcomposer":9887,"ĠCart":9888,"ĠPalest":9889,"aks":9890,"witzer":9891,"Ġaccompl":9892,"Ġextreme":9893,"arios":9894,"Ġroyal":9895,"Ġapprec":9896,"Ġsurn":9897,"Ġeducational":9898,"RR":9899,"make":9900,"ĠMS":9901,"ibilities":9902,"coln":9903,"Bundle":9904,"1921":9905,"Ġconverted":9906,"itations":9907,"Ġphoton":9908,"Ġinvolves":9909,"Ġpainting":9910,"Cell":9911,"isition":9912,"Ġmask":9913,"Ġskin":9914,"stan":9915,"Ġcreative":9916,"ĠSound":9917,"ĠSquad":9918,"Ġasymptotic":9919,"ĠHouston":9920,"frame":9921,"Li":9922,"ĠAssoci":9923,"uction":9924,"algorithm":9925,"128":9926,"western":9927,"ĠJunior":9928,"rehensive":9929,"Ġevaluated":9930,"Ġrent":9931,"ruption":9932,"Ġprivacy":9933,"ĠFederation":9934,"scriptsize":9935,"ouch":9936,"ĠLore":9937,"private":9938,"ambig":9939,"roke":9940,"look":9941,"Ġeasier":9942,"Ġcircuit":9943,"[\"":9944,"pur":9945,"Ġpresents":9946,"Ġcharacterized":9947,"ĠSn":9948,"ĠSP":9949,"ois":9950,"Ġinfer":9951,"ortion":9952,"ĠAdministration":9953,"Ġswe":9954,"wich":9955,"âĢ¢":9956,"Ġdirections":9957,"oment":9958,"tenance":9959,"Ġfly":9960,"ĠAlf":9961,"1912":9962,"ĠWindows":9963,"issue":9964,"Ġfeeling":9965,")}_":9966,"diff":9967,"ĠMap":9968,"Ġoperate":9969,"Ġwire":9970,"Euro":9971,"Ġec":9972,"Ġdetermin":9973,"Before":9974,"islation":9975,"ĠAction":9976,"Ġboost":9977,"Ġmal":9978,"uther":9979,"Ġstores":9980,"living":9981,"ĠTownship":9982,"Ġconcerned":9983,"ĠSix":9984,"ĠArk":9985,"opes":9986,"Ġvariance":9987,"Ġvacuum":9988,"Ġmagnet":9989,"Handler":9990,"witzerland":9991,"ĠChall":9992,"abama":9993,"ĠBarn":9994,"ĠIowa":9995,"aron":9996,"owski":9997,"Ġretail":9998,"inema":9999,"ĠAL":10000,"service":10001,"Japan":10002,"Ġsnow":10003,"Ġstead":10004,"ĠReb":10005,"ĠML":10006,"Just":10007,"Ġexhibition":10008,"Ġrestricted":10009,"Lemma":10010,"ĠGiven":10011,"ologists":10012,"Ġfacilit":10013,"Aug":10014,"lix":10015,"Ġmultip":10016,"Ġ,\\":10017,"ĠDream":10018,"Ġpilot":10019,"Ġstrike":10020,"src":10021,"ĠUse":10022,"ĠProm":10023,"Ġtheatre":10024,"ĠRyan":10025,"float":10026,"slash":10027,"Ðº":10028,"ĠHeart":10029,"Ġlit":10030,"ĠIT":10031,"ĠMoon":10032,"Ġseparation":10033,"layout":10034,"Mc":10035,"Ġsympt":10036,"Ġadvice":10037,"aire":10038,"ativ":10039,"afe":10040,"illery":10041,"ubble":10042,"Ġrain":10043,"chain":10044,"eting":10045,"uable":10046,"Ġdynamical":10047,"isson":10048,"Ġrestaurant":10049,"Ġcancell":10050,"Ġinclusion":10051,"Ġdiverse":10052,"Ġveter":10053,"North":10054,"Ġexpressions":10055,"Ġpopulations":10056,"Biography":10057,"}}=":10058,"1926":10059,"Ġisomorphism":10060,"Token":10061,"Second":10062,"Tem":10063,"Ġchapter":10064,"Ġlicense":10065,"Ġfont":10066,"Ġfavour":10067,"Ġfaced":10068,"Ġkilling":10069,"bp":10070,"coll":10071,"1925":10072,"ressive":10073,"Ġevening":10074,"cers":10075,"Ġpasses":10076,"Ġsentence":10077,"Ġpermanent":10078,"AU":10079,"Ġrespective":10080,"roit":10081,"Ġnotion":10082,"Ġremote":10083,"bmatrix":10084,"Ġmovies":10085,"desc":10086,"Ġbroke":10087,"Ġsurfaces":10088,"Ġfat":10089,"ĠMunic":10090,"ĠMoscow":10091,"Ġstatements":10092,"Ġclick":10093,"DY":10094,"Ġdominant":10095,"ĠBurn":10096,"ÃŃa":10097,"ĠMexican":10098,"ĠTerm":10099,"atever":10100,"ĠRegional":10101,"Ġcaught":10102,"ĠCov":10103,"ĠSimon":10104,"Ġrecovery":10105,"Ġlift":10106,"Ġcausing":10107,"Oct":10108,"rins":10109,"oves":10110,"Ġgather":10111,"mal":10112,"Ġindependence":10113,"iÃ³n":10114,"ĠTen":10115,"plot":10116,"\\}\\":10117,"Ġroof":10118,"Ġelectro":10119,"Ġcorrection":10120,"full":10121,"ĠManchester":10122,"ĠUl":10123,"ĠOnline":10124,"}_{-":10125,"}|\\":10126,":=\\":10127,"ĠFull":10128,"Ġunderstood":10129,"ulus":10130,"agan":10131,"Ġsail":10132,"Ġtroub":10133,"ĠSri":10134,"Ġknows":10135,"}~":10136,"pres":10137,"adata":10138,"1923":10139,"ĠWolf":10140,"Ġembedding":10141,"William":10142,"Ġstopped":10143,"Life":10144,"ĠNorm":10145,"Ġsimplic":10146,"Ġpotentially":10147,"aro":10148,"Stat":10149,"ĠRoy":10150,"irical":10151,"ename":10152,"Ġrapidly":10153,"Ġboolean":10154,"ĠKy":10155,"ictionary":10156,"agu":10157,"Ġresponsibility":10158,"ti":10159,"AME":10160,"Each":10161,"Ġunf":10162,"Ġsteel":10163,"Olymp":10164,"ĠGeV":10165,"Ġassistance":10166,"essions":10167,"Ġmanagers":10168,"aders":10169,"closed":10170,"nold":10171,"Ġcontributed":10172,"icious":10173,"ĠKentucky":10174,"Ġregul":10175,"Ġsubjects":10176,"Ġcash":10177,"Ġburied":10178,"ĠSquare":10179,"Ġmessages":10180,"prob":10181,"ĠEP":10182,"ĠGib":10183,"Ġproposal":10184,"emi":10185,"meta":10186,"Ġsudden":10187,"ĠJane":10188,"vals":10189,"Ġmanage":10190,"ERT":10191,"Ġbond":10192,"Ġreaching":10193,"Ġmeta":10194,"Ġveg":10195,"hanced":10196,"Ġsubsc":10197,">\\":10198,"ocy":10199,"empty":10200,"Ġdesignated":10201,"pet":10202,"ĠNig":10203,"Ġposter":10204,"Ġanalys":10205,"Ġschedule":10206,"Ġvirt":10207,"ĠMean":10208,"opyright":10209,"Ġworst":10210,"Songs":10211,"Ġcoupled":10212,"Black":10213,"ervation":10214,"Ġparticipate":10215,"wick":10216,"ĠSoc":10217,"FM":10218,"Stud":10219,"ĠRose":10220,"Ġvariations":10221,"navbar":10222,"Pres":10223,"onavirus":10224,"Ġele":10225,"Rad":10226,"Ġdense":10227,"engths":10228,"Ġexposure":10229,"Star":10230,"fast":10231,"Ġaccommod":10232,"Ġexecution":10233,"ante":10234,"ĠMelbourne":10235,"ĠTan":10236,"ugin":10237,"Ġproduces":10238,"NO":10239,"ĠChem":10240,"loop":10241,"Ġspend":10242,"Ð»":10243,"dam":10244,"ĠGre":10245,"?\"":10246,"Ġvocal":10247,"Ġlists":10248,"([":10249,"Ġaf":10250,"Mich":10251,"Ġchose":10252,"ĠConsider":10253,"vartheta":10254,"Ġapproximate":10255,"etry":10256,"putation":10257,"wealth":10258,"ogg":10259,"Ġdominated":10260,"Ġphases":10261,"Ġcorrections":10262,"zing":10263,"Ġreligion":10264,"Ġassuming":10265,"ORT":10266,"figures":10267,"ĠHotel":10268,"Ã¼r":10269,"Ġsought":10270,"Ġpremier":10271,"Ã©s":10272,"Ġscientists":10273,"Ġreasonable":10274,"ĠDead":10275,"element":10276,"oyd":10277,"lie":10278,"agh":10279,"uality":10280,"ificial":10281,"ĠBah":10282,"Ġcards":10283,"ahoma":10284,"Ġautomatically":10285,"Af":10286,"ĠHas":10287,"Ġlosses":10288,"Ġpreced":10289,"ĠBaseball":10290,"ĠSoft":10291,"Ġinvestigated":10292,"Ġspeaking":10293,"Ġredshift":10294,"Ġdisput":10295,"ikh":10296,"axis":10297,"Ġdates":10298,"aware":10299,"ĠAT":10300,"Ġdecor":10301,"Ġinhib":10302,"ghan":10303,"Main":10304,"Ġrevenue":10305,"SH":10306,"glas":10307,"Ġsignature":10308,"Ġmob":10309,"racks":10310,"ĠHur":10311,"Ġfluctuations":10312,"rangian":10313,"Ġcolumns":10314,"ĠNorway":10315,"ĠHoly":10316,"\\}$,":10317,"vs":10318,"Ġheavily":10319,"Ġprompt":10320,"antum":10321,"Ġhearing":10322,"Ġrend":10323,"ĠVeg":10324,"ĠDE":10325,"Ġnut":10326,"ĠDiego":10327,"Ġwat":10328,"former":10329,"aired":10330,"ĠEvent":10331,"Ġ$,":10332,"Ġintermediate":10333,"instein":10334,"Ġchoices":10335,"Ġtargets":10336,"Ġgoods":10337,"ĠRight":10338,"âĢī":10339,"forming":10340,"Ġcolors":10341,"Ġ\"\"\"":10342,"ĠVice":10343,"Ġroots":10344,"Ġchairman":10345,"Awards":10346,"ogonal":10347,"Ġprofiles":10348,"Ġreward":10349,"Ġincreasingly":10350,"sts":10351,"Ġtower":10352,"update":10353,"1916":10354,"ĠCooper":10355,"Arch":10356,"Ġattempted":10357,"Ġperiods":10358,"Leg":10359,"Ġsupers":10360,"Ġgenerating":10361,"Ġillustrated":10362,"Ġattached":10363,"ĠFellow":10364,"mazing":10365,"ensis":10366,"+(":10367,"&=\\":10368,"ĠSilver":10369,"ĠTokyo":10370,"reprene":10371,"ĠMicrosoft":10372,"001":10373,"Ġdetector":10374,"ĠStone":10375,"incial":10376,"uj":10377,"Ġneither":10378,"ĠCR":10379,"isen":10380,"ĠBalt":10381,"control":10382,"irection":10383,"PRO":10384,"ouses":10385,"1915":10386,"ĠGP":10387,"Ġrein":10388,"Ġphotos":10389,"ĠFreder":10390,"Ġcouldn":10391,"gment":10392,"idal":10393,"Ġreduces":10394,"Ġthrows":10395,"since":10396,"ĠNev":10397,"ĠRepresentatives":10398,"Ġnice":10399,"ĠRoll":10400,"Ġdesigns":10401,"achelor":10402,"Local":10403,"Ġconventional":10404,"ĠPay":10405,"eron":10406,"slant":10407,"Ġongoing":10408,"ĠPlace":10409,"Canadian":10410,"esis":10411,"ogram":10412,"rypt":10413,"py":10414,"mt":10415,"Ġsixth":10416,"tah":10417,"elve":10418,"Ġspac":10419,"rolled":10420,"ĠHollywood":10421,"}$}":10422,"ucl":10423,"Ġhits":10424,"Ġisot":10425,"Ġri":10426,"ducible":10427,"was":10428,"KE":10429,"^{(\\":10430,"Ġbrings":10431,"fol":10432,"Ġargued":10433,"onymous":10434,"images":10435,"Also":10436,"Ġshop":10437,"Ġassets":10438,"700":10439,"Ġenemy":10440,"Ġschol":10441,"common":10442,"ĠGab":10443,"\\%$":10444,"stat":10445,"columnwidth":10446,"Ġvillages":10447,"etary":10448,"Ġmales":10449,"Ġshel":10450,"Ġjoining":10451,"Ġlose":10452,"Hon":10453,"Ġrevolution":10454,"Ġtrains":10455,"Ġdiscovery":10456,"Ġvo":10457,"eeper":10458,"MO":10459,"klahoma":10460,"burn":10461,"mode":10462,"ĠIP":10463,"Ġadapted":10464,"oving":10465,"ĠHiggs":10466,"ĠAgency":10467,"tikzpicture":10468,"Ġstuff":10469,"Ġcourses":10470,"Ġles":10471,"Bel":10472,"ibration":10473,"ĠPatrick":10474,"ĠJesus":10475,"yself":10476,"Ġsetup":10477,"ĠConstitution":10478,"Ġmit":10479,"ĠAlbert":10480,"Ġtruly":10481,"Ġcompens":10482,"Ġoutcome":10483,"cules":10484,"Ġbrothers":10485,"ĠAllen":10486,"ĠCape":10487,"Video":10488,"ĠMarc":10489,"gi":10490,"Ġmir":10491,"enny":10492,"ashi":10493,"Ġoccupied":10494,"ĠEmer":10495,"ysical":10496,"fef":10497,"Ġequivalence":10498,"ĠRey":10499,"Ġmechanisms":10500,"XX":10501,"Ġeigenvalues":10502,"Ġelim":10503,"ĠMiami":10504,"lan":10505,"Ġmil":10506,"edu":10507,"ĠBos":10508,"Ġtrigger":10509,"icut":10510,"negative":10511,"Ġpercentage":10512,"ĠFall":10513,"Ġstudying":10514,"Ġpanels":10515,"ĠEdition":10516,"Ġportray":10517,"olo":10518,"conduct":10519,"ĠStart":10520,"Ġjun":10521,"Ġboat":10522,"Ġfranch":10523,"Ġdepos":10524,"elson":10525,"athe":10526,"Ġthread":10527,"Ġwaiting":10528,"asts":10529,"oni":10530,"Ġexperts":10531,"123":10532,"FS":10533,"Ġdepict":10534,"AE":10535,"Ġmaybe":10536,"Ġsimultaneously":10537,"Tag":10538,"ĠVo":10539,"Ġoffices":10540,"Ġinstant":10541,"ĠMoore":10542,"sd":10543,"Ġstronger":10544,"Ġhierarch":10545,"Ġrequirement":10546,"Ġteachers":10547,"ĠSym":10548,"fefefe":10549,"Ġpresidential":10550,"Ġattorney":10551,"Ġstim":10552,"race":10553,".\\\\":10554,"Film":10555,"UI":10556,"ĠAnthony":10557,"Ġquasi":10558,"ĠPack":10559,"Ġstochastic":10560,"Ġnominated":10561,"Ġseemed":10562,"ART":10563,"Load":10564,"Ġneighbour":10565,"Ġtrav":10566,"1913":10567,"uties":10568,"Orig":10569,"Ġhun":10570,"product":10571,"Ġcrossing":10572,"Ġurg":10573,"ĠEconomic":10574,"Ġoldest":10575,"verage":10576,"ĠPS":10577,"Ġchallenging":10578,"Ġregarded":10579,"Ġbanks":10580,"Ġexplos":10581,"ĠNULL":10582,"Page":10583,"depend":10584,"Ġstarring":10585,"ĠLank":10586,"Ġairport":10587,"ĠCulture":10588,"ĪĴ":10589,"ĠHarris":10590,"Ġtang":10591,"iva":10592,"iii":10593,"Ġreaders":10594,"Ġsensitivity":10595,"Ġpromotion":10596,"Ġboys":10597,"ĠPa":10598,"Ġlawyer":10599,"Ġselling":10600,"ĠSwitzerland":10601,"ĠChen":10602,"oly":10603,"Ġyourself":10604,"Ġsuppose":10605,"Ġinternet":10606,"Ġrefused":10607,"owntown":10608,"rase":10609,"Left":10610,"Ġ[-]":10611,"Ġcaptain":10612,"Ġupdates":10613,"ĠAlabama":10614,"Olympic":10615,"Ġagencies":10616,"ĠMonte":10617,"lights":10618,"Ġwarn":10619,"Ġdebate":10620,"master":10621,"ĠCollection":10622,"Ġlegend":10623,"ĠGard":10624,"Ġ+=":10625,"Ġfoundation":10626,"ĠHoward":10627,"à¸":10628,"ĠIsraeli":10629,"Ġneuro":10630,"push":10631,"yers":10632,"represent":10633,"enez":10634,"About":10635,"Ġmaintained":10636,"ĠThird":10637,"ĠCatal":10638,"Ġmedalists":10639,"Ġvulner":10640,"imental":10641,"Instance":10642,"Ġcraft":10643,"Ġcritics":10644,"Ġboundaries":10645,"Moreover":10646,"Tax":10647,"uris":10648,"when":10649,"acle":10650,"Ġtrib":10651,"dest":10652,"Suppose":10653,"Ġclassified":10654,"ðŁ":10655,"Many":10656,"Ġsoci":10657,"ĠDoctor":10658,"INT":10659,"Ġinsurance":10660,"ĠTreat":10661,"ped":10662,"Ġradi":10663,"ĠJos":10664,"wave":10665,"uese":10666,"ĠGreece":10667,"^*\\":10668,"ycl":10669,".'":10670,"&-":10671,"ĠBox":10672,"Ġcoaches":10673,"ictional":10674,"ĠDun":10675,"ĠAdditionally":10676,"through":10677,"square":10678,"ĠBor":10679,"ĠDate":10680,"kov":10681,"Ġ((":10682,"ĠIslamic":10683,"Ġmedicine":10684,"Ġproportional":10685,"ĠIl":10686,"Ġhundreds":10687,"front":10688,"xml":10689,"1911":10690,"Ġox":10691,"ĠJay":10692,"Ġmanuscript":10693,"ystem":10694,"gressive":10695,"ĠBry":10696,"Ġreporting":10697,"ĠDaily":10698,"ĠStandard":10699,"Ġengaged":10700,"Ġà¤":10701,"ortheast":10702,"inth":10703,"ĠÂ»":10704,"Ġdispl":10705,"intend":10706,"Ġinvited":10707,"Ġanom":10708,"ĠMC":10709,"ĉĉĉĉĉĉĉĉ":10710,"Ġconfirm":10711,"Ġsurve":10712,"oa":10713,"ĠKitt":10714,"Ġsymp":10715,"ĠLincoln":10716,"ĠHu":10717,"overy":10718,"Ġmanufacturing":10719,"lad":10720,"ĠExpl":10721,"ania":10722,"ĠCapital":10723,"ĠKevin":10724,"ĠPed":10725,"$-$":10726,"Every":10727,"Ġaged":10728,"mont":10729,"});":10730,"ĠEs":10731,"Ġlisten":10732,"Ġda":10733,"ĠNich":10734,"Ġinstances":10735,"ĠLas":10736,"oton":10737,"apel":10738,"Phil":10739,"Ġtall":10740,"family":10741,"Ġreducing":10742,"finite":10743,"Ġpointed":10744,"status":10745,"Ġsounds":10746,"Ġdx":10747,"isot":10748,"Ben":10749,"ĠPut":10750,"Ġsimilarly":10751,"ĠNative":10752,"Ġinflation":10753,"Ġidentification":10754,"Ġeducated":10755,"Ju":10756,"Ġfactory":10757,"Ġentitled":10758,"Ġlegislation":10759,"Ġbronze":10760,"Ġisolated":10761,"ascript":10762,"ĠAlber":10763,"ĠEc":10764,"dem":10765,"ĠIR":10766,"notag":10767,"multirow":10768,"ĠYouth":10769,"Ġgiant":10770,"Xi":10771,"subsec":10772,"Ġinjured":10773,"boldmath":10774,"obj":10775,"ĠMand":10776,"Ġguns":10777,"Ġcompletion":10778,"ridges":10779,"Ġviewed":10780,"Ġprecise":10781,"uber":10782,"Posted":10783,"ugar":10784,"Ġteen":10785,"vironments":10786,"ynamics":10787,"away":10788,"ĠMath":10789,"Ġqualified":10790,"Ep":10791,"ĠBaron":10792,"Ġtopics":10793,"argo":10794,"(-\\":10795,"earing":10796,"Ġsystematic":10797,"ĠContin":10798,"Ġchair":10799,"Ġdiversity":10800,"ĠSystems":10801,"ĠSport":10802,"efined":10803,"vy":10804,"Ġsuit":10805,"via":10806,"Ġsurgery":10807,"ĠQueensland":10808,"Ġdiplom":10809,"ĠHans":10810,"ublin":10811,"Ġmm":10812,"ippi":10813,"Ġinher":10814,"ĠAccess":10815,"ested":10816,"Ġkil":10817,"Ġexercise":10818,"orous":10819,"ĠHT":10820,"Ġpersons":10821,"allas":10822,"UK":10823,"\\|\\":10824,"pred":10825,"Ġnaturally":10826,"ista":10827,"Ġtum":10828,"130":10829,"Ġmine":10830,"Ġbattery":10831,"ĠNav":10832,"chant":10833,"Ġlake":10834,"ffee":10835,"Ġshortly":10836,"True":10837,"Hom":10838,"Ġmodeling":10839,"ĠBiden":10840,"ĠGram":10841,"oda":10842,"mathit":10843,"ĠWhit":10844,")--(":10845,"ĠBureau":10846,"iat":10847,"Ġaccused":10848,"Ġsoil":10849,"Ġgeometric":10850,"ĠMrs":10851,"Ġconcluded":10852,"will":10853,"Ġimpossible":10854,"utely":10855,"Web":10856,"Ġconstitution":10857,"HP":10858,"Ġspending":10859,"Ġguess":10860,"Ġafford":10861,"aneous":10862,"relation":10863,"Ġrecommended":10864,"Ġhorizontal":10865,"kg":10866,"ĠScient":10867,"ĠHawai":10868,"ĠSO":10869,"Ġcenters":10870,"Bibliography":10871,"Ġassessment":10872,"Ġdedu":10873,"ynasty":10874,"rays":10875,"Init":10876,"special":10877,"nie":10878,"oustic":10879,"arith":10880,"Ġduration":10881,"ESS":10882,"ĠBeng":10883,"ymmetric":10884,"ĠGall":10885,"arry":10886,"Ġexpensive":10887,"Ġexport":10888,"textup":10889,"ĠFuture":10890,"Ġfaces":10891,"Ġretirement":10892,"drop":10893,"Ġformerly":10894,"Ġaccessible":10895,"who":10896,"Ġdashed":10897,"Ġvisitors":10898,"Ġabuse":10899,"Death":10900,"Ġpartially":10901,"Ġmouth":10902,"ĠFa":10903,"ĠAustria":10904,"Ġaren":10905,"ĠWy":10906,"nn":10907,"Ġgravitational":10908,"Ġrating":10909,"Null":10910,"Ġcodes":10911,"Ġluminosity":10912,"Ġsettled":10913,"Ġdeleg":10914,"coin":10915,"ĠColomb":10916,"Ġpresentation":10917,"Ġsight":10918,"uerto":10919,"shot":10920,"scriptscriptstyle":10921,"atar":10922,"ĠMatthew":10923,"ĠCond":10924,"ople":10925,"Ġwear":10926,"Ġreplacing":10927,"ilst":10928,"Ġheadquarters":10929,"ĠDomin":10930,"Ġdiscussions":10931,"ĠTraining":10932,"parallel":10933,"Ġ$\\{\\":10934,"ĠLabour":10935,"Ġfolk":10936,"ebug":10937,"ĠAPI":10938,"ĠMarine":10939,"params":10940,"Ġes":10941,"ĠImp":10942,"ju":10943,"Ġdrugs":10944,"ĠCheck":10945,"Jo":10946,"1908":10947,"iot":10948,"Ġrestrictions":10949,"ĠVillage":10950,"Down":10951,"umps":10952,"jpg":10953,"ensing":10954,"REF":10955,"}\\|":10956,"Ġlandscape":10957,"sis":10958,"Equal":10959,"ardo":10960,")^\\":10961,"ĠGa":10962,"Ġbrown":10963,"Ġequipped":10964,"Ġphotograph":10965,"jective":10966,"annot":10967,"Ġsees":10968,"Ġorientation":10969,"Ġfalls":10970,"Ġ..":10971,"ĠSN":10972,"Ġinfluenced":10973,"lades":10974,"Ġattacked":10975,"zi":10976,"ods":10977,"onomy":10978,"Vol":10979,"usal":10980,"ĠRub":10981,"equations":10982,"GS":10983,"Ġhardware":10984,"Ġreconstruction":10985,"Ġbirds":10986,"Ġvarying":10987,"plus":10988,"ĠHeritage":10989,"Ġpayment":10990,"Ġwaste":10991,"Ġperiodic":10992,"bes":10993,"Ġsubsid":10994,"Ġvictims":10995,"Ġprecision":10996,"Ġoutcomes":10997,")})":10998,"Ġdecide":10999,"GM":11000,"ACK":11001,"Ġlyrics":11002,"Ġfruit":11003,"json":11004,"Ġpublications":11005,"umption":11006,"lee":11007,"ĠAnne":11008,"GP":11009,"Î±":11010,"Ġlaid":11011,"Ġassault":11012,"Ġvoted":11013,"Ġwavel":11014,"DO":11015,"Ġadults":11016,"Previous":11017,"Ġsons":11018,"ĠOak":11019,"Ġliterary":11020,"ĠFarm":11021,"Ġmetrics":11022,"specific":11023,"ĠChile":11024,"Ġvaccine":11025,"GO":11026,"phantom":11027,"ĠOR":11028,"Ġmayor":11029,"Ġscenarios":11030,"Ġsoul":11031,"Buffer":11032,")[":11033,"Ġregularly":11034,"Ġfrequencies":11035,"Ġgrade":11036,"SON":11037,"Ġconcrete":11038,"complete":11039,"corollary":11040,"Ġpolarization":11041,"=.":11042,"Ġmembership":11043,"ublished":11044,"riers":11045,"Ġcorporate":11046,"Ġru":11047,"super":11048,"Sportspeople":11049,"TO":11050,"ĠEarly":11051,"edition":11052,"Ġstreets":11053,"Order":11054,"BP":11055,"stackrel":11056,"Ġreveals":11057,"Ġcomplicated":11058,"Ġentertainment":11059,"have":11060,"ĠEag":11061,"Ġcarrying":11062,"Ġindices":11063,"Ġdisplayed":11064,"Ġpitch":11065,"Ġexplains":11066,"ĠDefense":11067,"Sign":11068,"ĠNik":11069,"Ġperturbation":11070,"erg":11071,"Ġacknowled":11072,"Version":11073,"ĠObama":11074,"ificate":11075,"Ġpassion":11076,"ando":11077,"igious":11078,"~(\\":11079,"ĠLook":11080,"March":11081,"Ġaspect":11082,"Ġinvent":11083,"ĠText":11084,"Ġsolving":11085,"-(":11086,"ALL":11087,"tery":11088,"Ġcommander":11089,"Ġfought":11090,"otte":11091,"Ġdefines":11092,"Gr":11093,"Lay":11094,"Ġtherapy":11095,"iac":11096,"ĠSep":11097,"Ġtemple":11098,"rator":11099,"Ġrealized":11100,"Ġcompetitive":11101,"Ġmart":11102,"ĠEff":11103,"ocratic":11104,"ĠWatch":11105,"reement":11106,"ĠTO":11107,"Ġstraightforward":11108,"Ġinfection":11109,"Ġdescribing":11110,"ctic":11111,"ĠFA":11112,"ĠVin":11113,"Ġatmosphere":11114,"Ġseeking":11115,"aled":11116,"Ġwatching":11117,"Ġli":11118,"ĠTech":11119,"isode":11120,"Ġdegener":11121,"Ġdrums":11122,"wen":11123,"short":11124,"Default":11125,"Sources":11126,"rama":11127,"Ġtalent":11128,"Ġstrictly":11129,"Ġheads":11130,"ellect":11131,"Ġpenalty":11132,"Ġturning":11133,"ĠBrun":11134,"isations":11135,"Ġgraduate":11136,"ĠFame":11137,"game":11138,"tor":11139,"Ġaer":11140,"Geography":11141,"olly":11142,"Ġmyself":11143,"ĠRoberts":11144,"Ġsituations":11145,"ĠTurkish":11146,"ishment":11147,"ĠTaiwan":11148,"AND":11149,"Style":11150,"rik":11151,"Ġfiber":11152,"Ġconfigurations":11153,"Ġserial":11154,"etric":11155,"Options":11156,"Ġdoubt":11157,"profit":11158,"chell":11159,"response":11160,"Ġworse":11161,"ĠForces":11162,"Ġ_{\\":11163,"Ġcharts":11164,"ĠEver":11165,"Ġpublisher":11166,"Ġpoetry":11167,"Ġabsorption":11168,"Ġha":11169,"ĠThough":11170,"grade":11171,"ĠKam":11172,"Ġelimin":11173,"Ġarrival":11174,"256":11175,"Populated":11176,"Australian":11177,"eland":11178,"Task":11179,"Ġfamiliar":11180,"Ġbelongs":11181,"ateur":11182,"ĠGL":11183,"ĠDick":11184,"lu":11185,"ĠNatural":11186,"Ġcompete":11187,"Step":11188,"Ġabstract":11189,"Rev":11190,"Ġceremony":11191,"Ġunus":11192,"issippi":11193,"Ġvast":11194,"ĠRab":11195,"GBT":11196,"olid":11197,"Ġconjug":11198,"Ġmusician":11199,"Ġverify":11200,"ĠĠĠĠĠĠĠĠĠĠĠĠĊ":11201,"Ġderivatives":11202,"Ġdirectors":11203,"Ġproperly":11204,"Ġaccret":11205,"ĠPA":11206,"ĠRecord":11207,"Ġstructural":11208,"HD":11209,"Ġeat":11210,"Controller":11211,"mem":11212,"ourse":11213,"ĠCE":11214,"ĠRound":11215,"idance":11216,"Ġentity":11217,"sa":11218,"idelines":11219,"Any":11220,"Location":11221,"Ġpuls":11222,"ME":11223,"Ġ{};":11224,"Ġaccompan":11225,"!\\":11226,"Filter":11227,"Ġsucceeded":11228,"Ġatoms":11229,"ĠTelevision":11230,"ĠEX":11231,"Pan":11232,"Ġreplacement":11233,"Ġadvers":11234,"Ġappearing":11235,"rin":11236,"Ġfacing":11237,"ographical":11238,"ĠLang":11239,"ĠGordon":11240,"!\"":11241,"Que":11242,"inian":11243,"backslash":11244,"Ġham":11245,"Ġwww":11246,"ĠWalter":11247,"Ġelig":11248,".&.&":11249,"ĠNumber":11250,"Ġmatters":11251,"Ġexhibit":11252,"reference":11253,"match":11254,"ĠOklahoma":11255,"Ġsynd":11256,"ste":11257,"Ġgenerator":11258,"Ġdrag":11259,"Tim":11260,"Ġrooms":11261,"abad":11262,"UC":11263,"Ġtrading":11264,"Ġpregn":11265,"stery":11266,"ployment":11267,"istence":11268,"Ġelectrons":11269,"ĠDal":11270,"Ġsignificance":11271,"ĠNorwegian":11272,"ieval":11273,"herical":11274,"Su":11275,"ounsel":11276,"Ġuniformly":11277,"Ġincorporated":11278,"plan":11279,"ĠResults":11280,"stud":11281,"kind":11282,"ĠWalker":11283,"amps":11284,"ĠDak":11285,"{|":11286,"ĠDur":11287,"Ġreads":11288,"olving":11289,"Ġbid":11290,"Ġschemes":11291,"ĠBush":11292,"Ġroads":11293,"ĠTemple":11294,"Ġhalo":11295,"Ġstadium":11296,"Ġmetall":11297,"Ġwine":11298,"Ġdiameter":11299,"ä¸":11300,"Ġclimb":11301,"Ġdress":11302,"Ġsituated":11303,"ovak":11304,"comb":11305,"ĠCow":11306,"romagnetic":11307,"elian":11308,"ted":11309,"Sym":11310,"aws":11311,"ĠDa":11312,"ĠFile":11313,"tained":11314,"Ġcub":11315,"|^{":11316,"ĠGarden":11317,"ĠUkrainian":11318,"Ġstored":11319,"\\!\\":11320,"ĠRic":11321,"ĠExpress":11322,"sson":11323,"ĠAuthority":11324,"^*(":11325,"Ġfitting":11326,"Ġaccord":11327,"Ver":11328,"phase":11329,"Ġstood":11330,"Ġcyl":11331,"Ġamounts":11332,"Ġassembly":11333,"filter":11334,"$.}":11335,"ĠDM":11336,"Ġdomains":11337,"itudes":11338,"ĠMotor":11339,"Sk":11340,"Select":11341,"Ġguy":11342,"anny":11343,"should":11344,")).":11345,"Ġindicating":11346,"Ġformulation":11347,"symmet":11348,"ĠClin":11349,"ĠSpacewatch":11350,"ĠHamp":11351,"ĠSimilarly":11352,"Ġconsumption":11353,"ĠEmperor":11354,"Ġduty":11355,"abric":11356,"ĠPhill":11357,"ĠLev":11358,"isp":11359,"rable":11360,"VI":11361,"ĠMD":11362,"opter":11363,"GE":11364,"itter":11365,"Ġcenturies":11366,"Ġusage":11367,"Ġalgebraic":11368,"Ġwaters":11369,"Ġpray":11370,"Ġton":11371,"ĠConnecticut":11372,"Ġprinciples":11373,"!]":11374,"Ġmining":11375,"Prot":11376,"Ġoblig":11377,"Ġmonitoring":11378,"Ġtransaction":11379,"Rober":11380,"ĉĠ":11381,"Ġentrance":11382,"Ġloved":11383,"_{+":11384,"fire":11385,"Å«":11386,"Ġhospit":11387,"Ġapplicable":11388,"ĠLaure":11389,"mouth":11390,"ivacy":11391,"Ġnormalized":11392,"Factory":11393,"Ġwheel":11394,"Ġjazz":11395,"orses":11396,"server":11397,"Ġ(),":11398,"Ġknock":11399,"cohol":11400,"ambiguation":11401,"Ġcolle":11402,"hfill":11403,"Ġprocedures":11404,"urers":11405,")}(\\":11406,"........":11407,"Ġgrown":11408,"FP":11409,"ĠIss":11410,"apolis":11411,"entity":11412,"ĠAfghan":11413,"Attribute":11414,"rinsic":11415,"aze":11416,"Ġdies":11417,"Ġsymptoms":11418,"fall":11419,"ige":11420,"Ġflo":11421,"Ġhist":11422,"ĠWhere":11423,"estion":11424,"Ġtransverse":11425,"ĠLink":11426,"liest":11427,"Ġmanip":11428,"ĠRow":11429,"&=&\\":11430,"std":11431,"ĠMcK":11432,"ĠNCAA":11433,"Ġdefinitions":11434,"rett":11435,"alia":11436,"Ġvariant":11437,"Ġincred":11438,"Ġquot":11439,"ĠRequ":11440,"Ġcomprehensive":11441,"Ġsubstantial":11442,"ĠKer":11443,"anne":11444,"ĠBowl":11445,"ĠSingh":11446,"ĠArmen":11447,"Desc":11448,"Ang":11449,"ttp":11450,"!âĢĿ":11451,"uh":11452,"leted":11453,"Ġintent":11454,"ĠSin":11455,"ql":11456,"Ġrevers":11457,"Ġflying":11458,"Ġadaptation":11459,"Ġquadratic":11460,"').":11461,"Ġpione":11462,"Ġexecuted":11463,"ĠLyn":11464,"ĠStew":11465,"Ġdangerous":11466,"erion":11467,"ython":11468,"Ġexplanation":11469,"invariant":11470,"Ġabsorb":11471,"Ġcomic":11472,"Ġconsumer":11473,"Ġposts":11474,"ĠAtlanta":11475,"ĠMi":11476,"Ġoccas":11477,"ĠDave":11478,"urable":11479,"Ġfacts":11480,"ĠRick":11481,"ĠTrade":11482,"Create":11483,"ĠLam":11484,"Ġvolt":11485,"ĠAnalysis":11486,"Ġenvironments":11487,"estyle":11488,"Ġspoke":11489,"QL":11490,"itro":11491,"overty":11492,"ĠBuck":11493,"Ġordinary":11494,"Ġputting":11495,"Ġsatellite":11496,"Ġformally":11497,"Ġdismiss":11498,"ĠSwiss":11499,"Ġinstrum":11500,"kern":11501,"textcolor":11502,"container":11503,"Ġinstruments":11504,"ĠFourier":11505,"Ġ}}":11506,"uon":11507,"itis":11508,"Ġgrass":11509,"Ġfeels":11510,"endment":11511,"jecture":11512,"oi":11513,"iamond":11514,"Ġaims":11515,"TT":11516,"ĠHold":11517,"ocese":11518,"Ġrival":11519,"Ġkit":11520,"January":11521,"Ġtank":11522,"ĠKelly":11523,"Ġestablishment":11524,"BAG":11525,"ailand":11526,"Del":11527,"140":11528,"Ġreplic":11529,"Ġ\\,\\":11530,"Ġscr":11531,"vas":11532,"Ġmissed":11533,"uting":11534,"ĠLemmon":11535,"iemann":11536,"ĠDemocrats":11537,"ugs":11538,"Ġuncertainties":11539,"ugu":11540,"uki":11541,"ĠAntonio":11542,"avi":11543,"Ġdistances":11544,"dale":11545,"Ġbath":11546,"ĠAS":11547,"javascript":11548,"orient":11549,"ĠHerm":11550,"WA":11551,"shop":11552,"bed":11553,"Ġnan":11554,"ĠTrad":11555,"Ġsphere":11556,"Ġexpectation":11557,"Ġsoccer":11558,"ĠFle":11559,"angers":11560,"cycl":11561,"ĠVari":11562,"Ġdecreases":11563,"hus":11564,"Ġbaby":11565,"Ġbinding":11566,"bean":11567,"Ġmechanical":11568,"ptr":11569,"1905":11570,"vity":11571,"exper":11572,"Ġvoting":11573,"NE":11574,"backs":11575,"cht":11576,"Ġsharp":11577,"Den":11578,"gather":11579,"LR":11580,"Europe":11581,"aments":11582,"ĠBus":11583,"ĠOtt":11584,"hips":11585,"Ġplasma":11586,"Update":11587,"ivation":11588,"acks":11589,"imore":11590,"Ġconsideration":11591,"imp":11592,"ĠDetroit":11593,"ĠAle":11594,"ĠAdvent":11595,"audi":11596,"ĠStudy":11597,"ĠFM":11598,"Ġbaseline":11599,"ĠEarl":11600,"Ġdeviation":11601,"menu":11602,"ĠAgric":11603,"isks":11604,"oca":11605,"Ġrefuge":11606,"orro":11607,"ĠPur":11608,"Ġstabil":11609,"Ġrestriction":11610,"Ġcompatible":11611,"itecture":11612,"Paul":11613,"Ġours":11614,"ĠReserve":11615,"Ġtries":11616,"clip":11617,"Feb":11618,"ĠTH":11619,"ĠArgentina":11620,"ĠTit":11621,"Ġkeyboard":11622,"ĉĠĠĠ":11623,"Ã©t":11624,"bad":11625,"Ġtopology":11626,"Ġtranslated":11627,"Ġcir":11628,"Ġbars":11629,"Ġmodules":11630,"erset":11631,"leges":11632,"ĠSuppose":11633,"ĠKit":11634,"Ġpainter":11635,"terior":11636,"Ġful":11637,"tim":11638,"Ġmaintenance":11639,"Ġdensities":11640,"Ġtrials":11641,"ĠPas":11642,"Access":11643,"Ġinvasion":11644,"olph":11645,"than":11646,"Ġhomogeneous":11647,"ĠSarah":11648,"Ġconcepts":11649,"Ġreserve":11650,"Ġancest":11651,"115":11652,"ĠIndependent":11653,"fields":11654,"omas":11655,"ĠHockey":11656,"Ġdiffusion":11657,"Ġabandoned":11658,"ĠDouglas":11659,"Ġraw":11660,"ĠStrateg":11661,"ĠBoys":11662,"Rail":11663,"Indian":11664,"onna":11665,"ĠRace":11666,"1890":11667,"access":11668,"larg":11669,"Ġannot":11670,"ABLE":11671,"ĠKl":11672,"ĠGR":11673,"Ġ(,":11674,"Ġcompetitions":11675,"Ġcollision":11676,"ĠNag":11677,"Ġrejected":11678,"105":11679,"Ġlaser":11680,"mean":11681,"Education":11682,"Ġfounding":11683,"Ġwindows":11684,"site":11685,"&&\\":11686,"ĠAlbum":11687,"ĠRy":11688,"ĠCurrent":11689,"ĠMayor":11690,"Plot":11691,"ĠIndonesia":11692,"ĠSE":11693,"izable":11694,"hs":11695,"Ġhosts":11696,"Ġtemporal":11697,"Ġride":11698,"olation":11699,"ĠNob":11700,"sym":11701,"Ġsymbols":11702,"DYBAG":11703,"Ġhorizon":11704,"Ġasking":11705,"@{":11706,"ĠInfantry":11707,"ĠSel":11708,"Ġanalytic":11709,"Ġconcerning":11710,"ĠYears":11711,"xygen":11712,"Det":11713,"Ġslowly":11714,"ĠBou":11715,"unity":11716,"Ġanalyze":11717,"Ġadvertising":11718,"iliary":11719,"|$":11720,"person":11721,"Ġinvestors":11722,"output":11723,"ĠNOT":11724,"comput":11725,"Ġapplies":11726,"ĠCON":11727,"ĠKaz":11728,"1909":11729,"Ġruled":11730,"Ġtouchdown":11731,"aration":11732,"ĠChampions":11733,"ĠName":11734,"April":11735,"Ġpassenger":11736,"Ġbon":11737,"Ġhistorian":11738,"Ġexposed":11739,"uda":11740,"Ġindependently":11741,"leveland":11742,"Ġfee":11743,"acon":11744,"fly":11745,")(\\":11746,"inburgh":11747,"Ġveget":11748,"Ġtrail":11749,"Ġapproval":11750,"Ġ$^{":11751,"atherine":11752,"Ġneutrino":11753,"1907":11754,"observ":11755,"phan":11756,"ĠHills":11757,"Oh":11758,"ativistic":11759,"eding":11760,"document":11761,"ĠCroat":11762,"Ġhealthy":11763,"kit":11764,"rates":11765,"Ġsin":11766,"ĠDVD":11767,"ĠĠĠĠĠĠĠĠĠĠĠĠĠĠĠĠĠĠĠĠĠĠĠĠĠĠĠĠĠĠĠĠĠĠĠĠĠĠĠĠĠĠĠĠĠĠĠĠĠĠĠĠĠĠĠĠĠĠĠĠĠĠĠĠ":11768,"father":11769,"Ġdrawing":11770,"ĠBuff":11771,"ĠAlb":11772,"offset":11773,"quir":11774,"Ġinhabit":11775,"olves":11776,"otten":11777,"Script":11778,"Ä«":11779,"exists":11780,"Ġbrands":11781,"Ġspan":11782,"iest":11783,"atorial":11784,"Ġconvenient":11785,"Ġillegal":11786,"}{*":11787,"Ġopera":11788,"oids":11789,"ĠConc":11790,"Ġiteration":11791,"Ġtransitions":11792,"modal":11793,"classes":11794,"article":11795,"odox":11796,"heric":11797,"Button":11798,"Because":11799,"112":11800,"Ġconsisted":11801,"ĠSquadron":11802,"Ġwouldn":11803,"ĠKo":11804,"Ġclosure":11805,"{(\\":11806,"Born":11807,"ĠAdv":11808,"Ġadmitted":11809,"ĠPortugal":11810,"Ġmerged":11811,"August":11812,"June":11813,"words":11814,"sters":11815,"before":11816,"enda":11817,"Mus":11818,"Ġtennis":11819,"ĠYe":11820,"Ġlogic":11821,"Ġmeets":11822,"vect":11823,"igate":11824,"Ġcha":11825,"ounced":11826,"Ġwrites":11827,")\"":11828,"omp":11829,"Ġstick":11830,"Ġengines":11831,"ĠFern":11832,"ĠUnit":11833,"Ġcuts":11834,"Ġholes":11835,"Ġpictures":11836,"Ġwilling":11837,"ĠAC":11838,"Ġchurches":11839,"Ġphilosophy":11840,"ĠMorgan":11841,"ĠBull":11842,"Television":11843,"Ġensemble":11844,"Ġforming":11845,"ĠCop":11846,"ĠPear":11847,"downarrow":11848,"Ġcomparable":11849,"oking":11850,"Ġcircumstances":11851,"plings":11852,"Ġemployment":11853,"Ġaccum":11854,"*/":11855,"Ġclock":11856,"IB":11857,"Ġ<!--":11858,"1906":11859,"San":11860,"Rich":11861,"ĠDat":11862,"ĠHarvard":11863,"Ġacquisition":11864,"ĠFive":11865,"connected":11866,"Ġtoken":11867,"ĠFri":11868,"ĠAbb":11869,"disambiguation":11870,"ĠNaval":11871,"Ġconservative":11872,":</":11873,"functions":11874,"Ġinfo":11875,"inces":11876,"Ġentang":11877,"ĠPeace":11878,"Ġconnecting":11879,"ĠProp":11880,"Ġcollapse":11881,"ĠMission":11882,"ĠAlice":11883,"Mr":11884,"Json":11885,"Ġproven":11886,"Ġbranches":11887,"aman":11888,"ĠEsp":11889,"cription":11890,"GeV":11891,"$^{":11892,"Ġdebt":11893,"Ġneighb":11894,"creen":11895,"Ġprize":11896,"FONT":11897,"Str":11898,"ĠLib":11899,"ructed":11900,"Ġcollective":11901,"ĠStudios":11902,"Ġneur":11903,"ĠLanguage":11904,"ĠLanc":11905,"Ġuniqu":11906,"Ġfleet":11907,"Ġdeput":11908,"}$\\":11909,"Ġarmed":11910,"written":11911,"Ġweekly":11912,"Ġheter":11913,"Ġvoters":11914,"oria":11915,"ĠPuerto":11916,"Ġ(;":11917,"Ġreliable":11918,"CON":11919,"hist":11920,"ailability":11921,"ĠObserv":11922,"nik":11923,"Ġanth":11924,"Ġcontinuum":11925,"Ġtransportation":11926,"Ñĥ":11927,"Ġgarden":11928,"Ġsingers":11929,"ĠDean":11930,"BU":11931,")}.":11932,"Ġentering":11933,"$^":11934,"Ġorthogonal":11935,"ĠAustin":11936,"Column":11937,"uts":11938,"Ġrising":11939,"ĠSR":11940,"isting":11941,"jar":11942,"multline":11943,"Mal":11944,"sea":11945,"ĠNash":11946,"Ġcommissioned":11947,"ĠLouisiana":11948,"Ġhighway":11949,"oths":11950,"Ġrelief":11951,"component":11952,"Ġinaug":11953,"Ham":11954,"ĠMalaysia":11955,"Ġ---":11956,"ĠGirls":11957,"tsburgh":11958,"ryst":11959,"Ġauthent":11960,"bc":11961,"ĠCra":11962,"ĠAbd":11963,"ĠLimited":11964,"ifting":11965,"ĠAndroid":11966,"cline":11967,"Ġhired":11968,"Ġformul":11969,"oked":11970,"ĠMississippi":11971,"ieg":11972,"Final":11973,"Ġaired":11974,"Ġvaluable":11975,"ails":11976,"Ġoffensive":11977,"rena":11978,"eping":11979,"Ġbear":11980,"Ġdesigner":11981,"Ġroutes":11982,"ifiers":11983,"ĠPrix":11984,"ahn":11985,"ĠCommonwealth":11986,"aura":11987,"Ġforth":11988,"Ġshr":11989,"Ġelementary":11990,"Ġleaf":11991,"ĠTrue":11992,"ĠNigeria":11993,"'_{":11994,"nm":11995,"Pass":11996,"changed":11997,"Ġorbital":11998,"Ġjunior":11999,"ĠChairman":12000,"oes":12001,"ĠLawrence":12002,"Ġparticipation":12003,"Ġpassengers":12004,"Ġuniversities":12005,"Ġcrash":12006,"ĠSeattle":12007,"Ġelli":12008,"Ġblow":12009,"Dev":12010,"ymn":12011,"Ġdefensive":12012,"Former":12013,"ĠBelgium":12014,"Where":12015,"ĠFinancial":12016,"emen":12017,"verb":12018,"James":12019,"ĠPlease":12020,"ĠHonor":12021,"ĠFinn":12022,"cou":12023,"ĠEmb":12024,"tains":12025,"pler":12026,"Ġchildhood":12027,"\\|_":12028,"gov":12029,"Ġdescript":12030,"ĠSud":12031,"Ġranges":12032,"ĠVegas":12033,"ĠPap":12034,"Ġbott":12035,"Ġweighted":12036,"Ġpy":12037,"Ġenhanced":12038,"Ġresponses":12039,"Ġpolynomials":12040,"fn":12041,"ĠAlliance":12042,"ĠBanglades":12043,"Ġstating":12044,"obby":12045,"ĠPath":12046,"Ġgift":12047,"bul":12048,"oche":12049,"appy":12050,"ĠWang":12051,"Ġhur":12052,"uis":12053,"Ġapparently":12054,"Ġatomic":12055,"Ġsumm":12056,"ibl":12057,"Ġpump":12058,"cycle":12059,"BN":12060,"ĠYang":12061,"Ġirreducible":12062,"ecture":12063,"Ġlikelihood":12064,"Ġfranchise":12065,"Ġcontinuing":12066,"Ġconversation":12067,"Ġdiscipl":12068,"Ġconvention":12069,"ĠManager":12070,"ĠUtah":12071,"ĠPlayer":12072,"Ġfasc":12073,"Ġhorror":12074,"rÃ©":12075,"Ġinjuries":12076,"Cam":12077,"Arg":12078,"Ġhal":12079,"ĠPhilip":12080,"bow":12081,"Ġfitted":12082,"ĠSmall":12083,"ĠHug":12084,"Op":12085,"Ġprohib":12086,"racket":12087,"Av":12088,"ibraries":12089,"Ġranking":12090,"Ġconversion":12091,"ĠLagrangian":12092,"olished":12093,"Ġsurname":12094,"ĠBillboard":12095,"ĠAlan":12096,"structure":12097,"OK":12098,"Valid":12099,"Ġbeauty":12100,"duce":12101,"ĠCemetery":12102,"Ġdiseases":12103,"ĠLearning":12104,"1904":12105,"ĠFerm":12106,"Ġsurprising":12107,"Ġfinishing":12108,"Ġconsumers":12109,"bara":12110,"ĠDenmark":12111,"Ġbutton":12112,"Ġcorrelations":12113,"Ġembedded":12114,"Ġfired":12115,"360":12116,"Ġlands":12117,"ĠHoll":12118,"Donald":12119,"charge":12120,"Ġbare":12121,"original":12122,"ĠÄ":12123,"Ġcommunications":12124,"ostic":12125,"Ġ{}":12126,"Tree":12127,"Ġtel":12128,"cross":12129,"ĠMos":12130,"Ġwalking":12131,"ĠBart":12132,"Ġcommitment":12133,"Ġproducers":12134,"Ġwhatever":12135,"Ġassociate":12136,"Ġdesire":12137,"ĠCustom":12138,"Ġamazing":12139,"ĠSearch":12140,"ĠNic":12141,"Äĥ":12142,"Ġmidfield":12143,"ĠTake":12144,"ĠOk":12145,")),":12146,"Ġattribute":12147,"ĠJuan":12148,"ĠDublin":12149,"oming":12150,"holders":12151,"Ġpron":12152,"ĠJosh":12153,"Project":12154,"Level":12155,"ayan":12156,"Row":12157,"Ġregulations":12158,"Ġmeetings":12159,"Ġdistinguish":12160,"Ġstrategic":12161,"issance":12162,"ĠSeveral":12163,"hythm":12164,"ĠMcG":12165,"uparrow":12166,"111":12167,"Ġconsequences":12168,"ĠHum":12169,"VM":12170,"Ġfault":12171,"ĠFried":12172,"Ġprev":12173,"Ġpreferred":12174,"ulum":12175,"ĠQuebec":12176,"fact":12177,"Ġinnovation":12178,"Ġdefining":12179,"Ġpublishing":12180,"Ġaccompanied":12181,"Var":12182,"Ġing":12183,"Ġanniversary":12184,"Ġwhenever":12185,"Ġdecline":12186,"ĠSamuel":12187,"Ġreaches":12188,"Ġspr":12189,"Ġhydrogen":12190,"propto":12191,"Ġgrounds":12192,"Ġgreatly":12193,"Ġtropical":12194,"}.}":12195,"imits":12196,"Ġcler":12197,"attr":12198,"phony":12199,"Ġforg":12200,"ĠLINE":12201,"folio":12202,"Ġupcoming":12203,"Ġpaintings":12204,"Ġcricket":12205,"Ġtotally":12206,"ĠPortuguese":12207,"Ġanticip":12208,"Ġcomparing":12209,"}/\\":12210,"Ġextracted":12211,"Ġownership":12212,"Ġrecovered":12213,"global":12214,"owed":12215,"Vari":12216,"iri":12217,"Ġocean":12218,"Ġgenetic":12219,"irms":12220,"about":12221,"Vill":12222,"bach":12223,"Bbb":12224,"ĠSite":12225,"Ġdefinitely":12226,"eras":12227,"uple":12228,"ĠTerrit":12229,"Ġresidence":12230,"etition":12231,"utation":12232,"Ġforecast":12233,"roc":12234,"Ġreign":12235,"Ġregression":12236,"parameters":12237,"Ġsecretary":12238,"})^{":12239,"enezuel":12240,"rev":12241,"root":12242,"Ġcounterpart":12243,"ĠPho":12244,"ĠPsych":12245,"ĠOrth":12246,"Ġceleb":12247,"âĤ¬":12248,"July":12249,"ĠBulg":12250,"Ġcircular":12251,"DI":12252,"textsf":12253,"obi":12254,"$\\,":12255,"Ġ\\[":12256,"Output":12257,"Ke":12258,"ĠPope":12259,"Ġimprovements":12260,"Ġconsiderable":12261,"ĠSecret":12262,"Ġadmin":12263,"Ġsolved":12264,"Ġcollections":12265,"{.":12266,"Ġsinging":12267,"Ġalter":12268,"fr":12269,"ĠWard":12270,"avia":12271,"Ġathletes":12272,"ĠDeep":12273,"Ġnick":12274,"Football":12275,"ĠTs":12276,"ĠMeg":12277,"ancell":12278,"ĠPR":12279,"ĠSchools":12280,"ĠThose":12281,"ĠSac":12282,"Ġdispersion":12283,"Bet":12284,"ĠOrganization":12285,"ĠCole":12286,"1903":12287,"Sur":12288,"ĠShah":12289,"ĠPra":12290,"angel":12291,"Ġsurvival":12292,"Ġislands":12293,"Ġdiagrams":12294,"ĠTag":12295,"ws":12296,"Ġinduction":12297,"Ġecho":12298,"iah":12299,"1901":12300,"ĠInstagram":12301,"iverpool":12302,"Family":12303,"category":12304,"ĠCorollary":12305,"ternoon":12306,"Ġheritage":12307,"ĠEdinburgh":12308,"Ġmovements":12309,"Ġexclusive":12310,"October":12311,"Search":12312,"ettings":12313,"Ġratios":12314,"Ġbeach":12315,"Ġnurs":12316,"UL":12317,"Ġoperational":12318,"ialog":12319,"Ġcreates":12320,"ĠNBA":12321,"ĠCLASS":12322,"Ġrandomly":12323,"assador":12324,"Bas":12325,"anton":12326,"iop":12327,"Ġ{@":12328,"Transport":12329,"Ġfits":12330,"<?":12331,"Ġdil":12332,"novation":12333,"ĠThailand":12334,"smallskip":12335,"density":12336,"athy":12337,"UP":12338,"Ġagricultural":12339,"Ġtunnel":12340,"Ġinduct":12341,"ĠProcess":12342,"you":12343,"ĠEN":12344,"Ġrose":12345,"Ġresonance":12346,"making":12347,"channel":12348,"Ġchampions":12349,"lon":12350,"Ġconsc":12351,"Ġarrive":12352,"ĠOd":12353,"ĠChange":12354,"Ġreact":12355,"ĠCNN":12356,"asm":12357,"Ġmetres":12358,"Military":12359,"Ġtemporary":12360,"Listener":12361,"Ġmarine":12362,"Ġtransformations":12363,"Ġgang":12364,"ĠTar":12365,"102":12366,"ĠImage":12367,"Ġstrip":12368,"Ġslope":12369,"ouver":12370,"Record":12371,"Ġtalks":12372,"Ã¥":12373,"Ġtemplate":12374,"Ġaug":12375,"Ġfocuses":12376,"gets":12377,"ĠKings":12378,"lined":12379,"Ġoperates":12380,"ĠHilbert":12381,"Notable":12382,"Ġedited":12383,"MF":12384,"flix":12385,"ulu":12386,"Ġrounds":12387,"Ġcited":12388,"Ġdifficulty":12389,"ĠPhoto":12390,"Ġdisorder":12391,"sep":12392,"ĠAdams":12393,"ĠWorks":12394,"News":12395,"Ġcancel":12396,"enix":12397,"ĠNE":12398,"ĠCS":12399,"Ġcourts":12400,"ĠEV":12401,"ĠDallas":12402,"ĠMort":12403,"Ġinputs":12404,"Ġresidential":12405,"rend":12406,"placement":12407,"Ġtied":12408,"Sam":12409,"Hy":12410,"Ġguarantee":12411,"Ġsubmitted":12412,"Ġdip":12413,"ĠTax":12414,"Ġboot":12415,"alities":12416,"Ġrobot":12417,"Michael":12418,"prec":12419,"ĠMake":12420,"Ġpermission":12421,"Ġbenchmark":12422,"nol":12423,"ĠBrazilian":12424,"Â©":12425,".$$":12426,"Ġvisiting":12427,"hal":12428,"ĠAnna":12429,"Ġpreparation":12430,"ĠEss":12431,"Ġprepare":12432,"ĠBased":12433,"Ġmyth":12434,"Address":12435,"Ġemotional":12436,"ĠTR":12437,"Dat":12438,"Ġnearest":12439,"Ġastron":12440,"ĠRussell":12441,"east":12442,"$\\\\":12443,"1902":12444,"'),":12445,"}^{+":12446,"Ġenjoyed":12447,"iere":12448,"Ġsimulated":12449,"]^":12450,"independent":12451,"ĠLiberal":12452,"Ġstrings":12453,"Ġfulfill":12454,"olas":12455,"stop":12456,"Ġimproving":12457,"ĠSS":12458,"Ġtracking":12459,"Ġtwelve":12460,"Ġstruggle":12461,"cp":12462,"ĠLA":12463,"Ġfewer":12464,"erving":12465,"Format":12466,"pay":12467,"Ġsustainable":12468,"ĠNature":12469,"Ġglob":12470,"117":12471,"condition":12472,"350":12473,"ĠArkansas":12474,"ĠChapter":12475,"Photo":12476,"ĠTig":12477,"thick":12478,"Ġnations":12479,"sv":12480,"alaxy":12481,"ĠThompson":12482,"Ġpicked":12483,"Ġty":12484,"Ġpublicly":12485,"holder":12486,"Ġimply":12487,"illo":12488,"ĠAttorney":12489,"Ġracial":12490,"ĠPalace":12491,",...,":12492,"ders":12493,"*}[":12494,"ĠJason":12495,"spin":12496,"Ġquas":12497,"lett":12498,"graduate":12499,"ĠJe":12500,"prim":12501,"umar":12502,"Ġutility":12503,"Ġaux":12504,"ĠBetween":12505,"Ġstake":12506,"HA":12507,"ĠBattalion":12508,"Ġurl":12509,"Ġrecordings":12510,"ĠLicense":12511,"Ġchiral":12512,"orus":12513,"ĠProduct":12514,"impl":12515,"ĠIron":12516,"Ġmachines":12517,"Ġsitting":12518,"ĠWright":12519,"Ġvalley":12520,"Ġna":12521,"ĠIndustry":12522,"Ġcapabilities":12523,"Club":12524,"Ġdating":12525,"Ġsteady":12526,"binom":12527,"=\\{":12528,"Mac":12529,"///":12530,"Ġprovision":12531,"ĠNi":12532,"%;":12533,"Ġdollars":12534,"lower":12535,"ĠDub":12536,"ĠSocorro":12537,"eto":12538,"Ġsportspeople":12539,"fortunately":12540,"ĠRain":12541,"vanced":12542,"ĠLINEAR":12543,"ĠĠĠĠĠĠĠĠĠĠĠĠĠĠĠĠĠĠĠĠĠ":12544,"ned":12545,"Ġdisestabl":12546,"Ġadds":12547,"ĠCarter":12548,"ĠMaur":12549,"Bur":12550,"Ġheaded":12551,"files":12552,"ĠBruce":12553,"Ġgrows":12554,"screen":12555,"Ġplastic":12556,"ĠRat":12557,"Ġaddressed":12558,"Ġchoosing":12559,"ĠHistorical":12560,"render":12561,"Ġsegments":12562,"ĠFight":12563,"Ġguidance":12564,"MD":12565,"Ġrely":12566,"ĠBeat":12567,"$'":12568,"ials":12569,"Ġillness":12570,"December":12571,"states":12572,"Ġsubspace":12573,"Ġframes":12574,"irates":12575,"Ġsimplicity":12576,"ĠABC":12577,"borough":12578,"Ġnarrative":12579,"may":12580,"1880":12581,"ĠRan":12582,"ymmetry":12583,"ĠPublishing":12584,"enter":12585,"footnotes":12586,"September":12587,"Ġmorphism":12588,"Full":12589,"ĠHell":12590,"ĠDeputy":12591,"Exper":12592,"Ġsending":12593,"Flor":12594,"annon":12595,"Green":12596,"Ġcod":12597,"Ġkinds":12598,"sem":12599,"correspond":12600,"HR":12601,"Ġages":12602,"NP":12603,"ĠMagn":12604,"Ġprovider":12605,"Ġrecru":12606,"Ġintervals":12607,"Ġanalyzed":12608,"Ġteach":12609,"Ġproud":12610,"Ġtelling":12611,"ĠPract":12612,"Ġcounts":12613,"ournament":12614,"Ġhelic":12615,"isons":12616,"ethe":12617,"Ġwearing":12618,"asa":12619,"ĠUV":12620,"moment":12621,"Ġvolumes":12622,"Ġtrends":12623,"Despite":12624,"ateral":12625,"lectic":12626,"Ġcav":12627,"////////////////":12628,"Ġfest":12629,"remove":12630,"Ã´":12631,"Ġgenerators":12632,"anim":12633,"Academ":12634,"ĠDanish":12635,"redited":12636,"ĠChristopher":12637,"Ġseparately":12638,"Ġconfront":12639,"ĠDJ":12640,"eyond":12641,"ĠIns":12642,"Ġproteins":12643,"Ġenforcement":12644,"Ġpole":12645,"ĠMars":12646,"athered":12647,"$}}":12648,"Ġrecon":12649,"ĠGun":12650,"BD":12651,"ĠPrincess":12652,"Ġur":12653,"Major":12654,"Ġmilit":12655,"styles":12656,"Ġcompan":12657,"Ġrequested":12658,"ĠStudents":12659,"modules":12660,"Ġfeas":12661,"Even":12662,"Ġbuffer":12663,"Ġbiological":12664,"Ġgovernments":12665,"azines":12666,"Bigg":12667,"Ġintention":12668,"ĠMess":12669,"Equals":12670,"uity":12671,"ĠPeters":12672,"flat":12673,"ech":12674,"Ġenables":12675,"Ġfer":12676,"ipher":12677,"Ð²":12678,"Ġabsolutely":12679,"Ġfalling":12680,"Ġstreaming":12681,"ivated":12682,")_{\\":12683,"Ġnormally":12684,"Ġsmallest":12685,"Ġhealthcare":12686,"Ġ~\\":12687,"ĠHit":12688,"Ġtrajectory":12689,"Ġrisks":12690,"Ġgenre":12691,"Ġsuperior":12692,"ĠBeh":12693,"Ġaimed":12694,"ĠPun":12695,"ativity":12696,"store":12697,"Ġpopularity":12698,"uclide":12699,"MI":12700,"finals":12701,"Ġreleases":12702,"900":12703,"elfare":12704,"ĠVolume":12705,"Ġmanifest":12706,"(&":12707,"ĠEditor":12708,"Ġsurprise":12709,"Ġhonest":12710,"ensively":12711,"Ġscholars":12712,"Mart":12713,"footnotesize":12714,"ilty":12715,"ĠDO":12716,"tha":12717,"Ġturbul":12718,"Ġargue":12719,"orf":12720,"ĠImperial":12721,"sett":12722,"COL":12723,"}{{\\":12724,"\\},":12725,"Dan":12726,"ĠNewton":12727,"requency":12728,"ulator":12729,"Ġphenomenon":12730,"ĠDance":12731,"three":12732,"Ġinformed":12733,"Ġsed":12734,"Use":12735,"Ġbelieves":12736,"Ġrows":12737,"ĠCampbell":12738,"ĠNation":12739,"Ġguys":12740,"doi":12741,"rose":12742,"particle":12743,"ĠMind":12744,"Ġmarks":12745,"stance":12746,"sn":12747,"Est":12748,"ums":12749,"ĠFinland":12750,"Ġentreprene":12751,".âĢĻ":12752,"ĠNeg":12753,"Ġattributes":12754,"_.":12755,"Ġmile":12756,"Ġdestination":12757,"Ġanimated":12758,"kee":12759,"ĠClinton":12760,"Ġmail":12761,"respect":12762,"ĠWas":12763,"ĠScholar":12764,"ĠMes":12765,"Ġreverse":12766,"ĠCrit":12767,"Ġfermion":12768,"ĠMO":12769,"izz":12770,"mel":12771,"orer":12772,"leftarrow":12773,"BH":12774,"heastern":12775,"Ġdealing":12776,"ĠFel":12777,"ĠKennedy":12778,"Ġbigger":12779,"ĠNelson":12780,"endif":12781,"Ġrequests":12782,"104":12783,"central":12784,"instance":12785,"Ġearliest":12786,"ea":12787,"ĠWebsite":12788,"Ġexamine":12789,"Ġmathematical":12790,"ĠVik":12791,"Ġthousand":12792,"Ġreputation":12793,"Ġclar":12794,"Ġremainder":12795,"Layout":12796,"Ġmini":12797,"Ġlegisl":12798,"Ġabundance":12799,"ĠNeed":12800,"ortex":12801,"iche":12802,"series":12803,"Ġrid":12804,"andal":12805,"ERR":12806,"Ġmo":12807,"Length":12808,"Ġstruck":12809,"VP":12810,"ching":12811,"Ġinvolve":12812,"Ġtox":12813,"ĠBlock":12814,"town":12815,"ĠHorn":12816,"Ġfurn":12817,"255":12818,"ancouver":12819,"Ġmillions":12820,"Ġangles":12821,"DL":12822,"135":12823,"Ġelectrical":12824,"record":12825,"November":12826,"ĠStewart":12827,"ĠPatri":12828,"Ġarranged":12829,"Author":12830,"Ġoxygen":12831,"Ġfemin":12832,"million":12833,"Ġcup":12834,"Ġsensor":12835,"Ġholiday":12836,"WS":12837,"hai":12838,"ĠLane":12839,"Phone":12840,"\\}.":12841,"Ġ**":12842,"KS":12843,"Ġexit":12844,"ĠProdu":12845,"Ġundert":12846,"Ġposterior":12847,"ĠNeb":12848,"Ġbelonging":12849,"support":12850,"Ġmolecules":12851,"ĠHind":12852,"Ġinterpreted":12853,"ategories":12854,"ĠJava":12855,"news":12856,"Ġfairly":12857,"Ġfragment":12858,"ĠResources":12859,"gate":12860,"abolic":12861,"Ġrealistic":12862,"Ġsteam":12863,"ĠDelhi":12864,"Ġcriticism":12865,"Ġ),":12866,"ĠPhD":12867,"Pal":12868,"dash":12869,"itarian":12870,"approxim":12871,"between":12872,")}$.":12873,"ĠFro":12874,"ĠĠĠĠĠĠĠĠĠĠĠĠĠĠĠĠĠĠĠĠ":12875,"Ġterminal":12876,"ACT":12877,"Ġfrequent":12878,"herence":12879,"Ġbehalf":12880,"103":12881,"mag":12882,"Ġobj":12883,"Ġconvolution":12884,"ĠFisher":12885,"ĠKnight":12886,"Ġic":12887,"ĠFrederick":12888,"jk":12889,"Ġwithdraw":12890,"ĠAlgorithm":12891,"Ġequally":12892,"ominations":12893,"otions":12894,"Ġcooling":12895,"Ġvoltage":12896,"Ġsigning":12897,"Ġhat":12898,"istically":12899,"ĠĠčĊ":12900,"ĠIndex":12901,"uclidean":12902,"}>":12903,"ĠCleveland":12904,"ĠBrigade":12905,"winning":12906,"enz":12907,"ĠInsp":12908,"Ġdt":12909,"CI":12910,"ĠOrchestra":12911,"Ġcrown":12912,"rophy":12913,"ĠCommander":12914,"imir":12915,"ĠWoman":12916,"ĠBeck":12917,"ĠHREF":12918,"jamin":12919,"bridge":12920,"Ġconditional":12921,"ĠSenator":12922,"dict":12923,"Ġdict":12924,"Ġjudges":12925,"Ġcorrespondence":12926,"Ġsessions":12927,"Ġhill":12928,"Ġdiscontin":12929,"Ġactivation":12930,"Ġbacking":12931,"Roman":12932,"ĠJenn":12933,"Ġrecre":12934,"ĠLieutenant":12935,"ĠMembers":12936,"layer":12937,"Ġmemb":12938,"Ġattributed":12939,"ĠPrad":12940,"ĠRobinson":12941,"Ġquiet":12942,"Ġawareness":12943,"Ġranging":12944,"Ġwider":12945,"Ġtruck":12946,"ervoir":12947,"\\/":12948,"Ġethnic":12949,"Ġempirical":12950,"oga":12951,"ĠPy":12952,"ĠGon":12953,"mate":12954,"Ġinitiative":12955,"ĠFal":12956,"ĠBed":12957,"Ġemployee":12958,"haust":12959,"igm":12960,"ĠDie":12961,"Based":12962,"older":12963,"comment":12964,"Ġintellect":12965,"Ġlabeled":12966,"Ġorganisation":12967,"Definition":12968,"heet":12969,"ĠPerformance":12970,"Ġfriendly":12971,"Ġsav":12972,"Ġeg":12973,"Pack":12974,"Ġsimilarity":12975,"Addition":12976,"ĠCarn":12977,"indu":12978,"ceil":12979,"Ġcompeting":12980,"ĠZe":12981,"Ġaccretion":12982,"Ġbreath":12983,"late":12984,"riel":12985,"Ġdepicted":12986,"claimed":12987,"viously":12988,"Ġpoverty":12989,"ĠAdvis":12990,"mingham":12991,"ĠChamber":12992,"Official":12993,"ĠMaine":12994,"bits":12995,"Ġoccupation":12996,"Ġsaved":12997,"ĠNap":12998,"ĠStill":12999,"Ġrepresentatives":13000,"ĠMaj":13001,"letter":13002,"Ġinhabitants":13003,"Through":13004,"ĠEnvironmental":13005,"nest":13006,"tics":13007,"reens":13008,"ĠNep":13009,"Ãł":13010,"Ġstationary":13011,"Ġkinetic":13012,"Ġdecreasing":13013,"Russian":13014,"ĠTrail":13015,"hole":13016,"gon":13017,"Ġmagic":13018,"Ġsweet":13019,"Scott":13020,"Ġsurvive":13021,"Ġacoustic":13022,"Ġbag":13023,"Ġrestaurants":13024,"Ġtech":13025,"Ġjuris":13026,"Ġengagement":13027,"Ġalgebras":13028,"varrho":13029,"Ġlanding":13030,"ĠPartners":13031,"Ġmeters":13032,"ĠLanka":13033,"Ġarise":13034,"Ġencourage":13035,"ĠCrown":13036,"ĠMother":13037,"Ġgram":13038,"Rob":13039,"template":13040,"Ġjournalists":13041,"âĢĻ.":13042,"lat":13043,"leans":13044,"ordinate":13045,"Ġartificial":13046,"Ã«":13047,"Once":13048,"media":13049,"Ġunitary":13050,"118":13051,"ĠFind":13052,"Ġmixture":13053,"Fran":13054,"Ġunlike":13055,"Ġtoler":13056,"Ġemissions":13057,"hour":13058,"geon":13059,"Ġdamaged":13060,"Ġhaven":13061,"Spe":13062,"strap":13063,")>":13064,"ĠHero":13065,"Ġ(@":13066,"```":13067,"Ġexpanding":13068,"ĠLiving":13069,"Ġencoding":13070,"ÃŃn":13071,"ĠLower":13072,"ĠYes":13073,"Ġspeaker":13074,"ĠCentury":13075,"Person":13076,"Ġwebs":13077,"Ġreactions":13078,"assy":13079,"ĠMarie":13080,"PG":13081,"ĠCou":13082,"Loc":13083,"Ġsurvived":13084,"Enc":13085,"ĠPoly":13086,"ĠPad":13087,"âĢĻ,":13088,"rod":13089,"Ġcastle":13090,"ĠFinance":13091,"alling":13092,"Mode":13093,"likely":13094,"Furthermore":13095,"ĠRoger":13096,"ĠHad":13097,"Ġunusual":13098,"Ġmerger":13099,"Names":13100,"Cache":13101,"Ġexciting":13102,"ĠChallenge":13103,"ĠCarlo":13104,"both":13105,";\\;":13106,"Ġdistinguished":13107,"ĠFather":13108,"Ġaveraged":13109,"uclear":13110,"Ġpixel":13111,"Ġalcohol":13112,"Ġguests":13113,"Ġinvolvement":13114,"_{-\\":13115,"Const":13116,"ĠConvention":13117,"Ġfishing":13118,"iture":13119,"ĠDakota":13120,"ango":13121,"Ġpreserved":13122,"Ġflowers":13123,"ĠTravel":13124,"Ġregardless":13125,"died":13126,"Types":13127,"ĠCancer":13128,"month":13129,"Media":13130,"kt":13131,"\\,{\\":13132,"pers":13133,"Ġsus":13134,"Ġingred":13135,"Ġproposition":13136,"ĠLl":13137,"ranean":13138,"Histor":13139,"rock":13140,"Well":13141,"106":13142,"induced":13143,"ĠTele":13144,"Ġstyles":13145,"omorphisms":13146,";\"|":13147,"stage":13148,"sharp":13149,"ĠMPs":13150,"ĠCloud":13151,"=\"-":13152,"Ġduties":13153,"Ġpersonality":13154,"Ġpeaks":13155,"Ġregistration":13156,"ĠTrib":13157,"ĠUniverse":13158,"Ġmic":13159,"song":13160,"election":13161,"Ġbird":13162,"urities":13163,"Ġcookies":13164,"]=":13165,"ĠBangladesh":13166,"lb":13167,"Proposition":13168,"ĨĴ":13169,"ĠBlood":13170,"enum":13171,"Ġlogarith":13172,"RT":13173,"Ġimaging":13174,"Ġrequiring":13175,"Ġremoval":13176,"loss":13177,"Ġresign":13178,"Win":13179,"ĠÃī":13180,"agger":13181,"Ġsuffering":13182,"enders":13183,"Reception":13184,"Prop":13185,"NL":13186,"ĠAqu":13187,"Ġcouplings":13188,"Ġtur":13189,"leased":13190,"Ġwra":13191,"ovo":13192,"Ġseventh":13193,"speed":13194,"Ġsoph":13195,"iors":13196,"Ġlifetime":13197,"ĠWelsh":13198,"Ġsheet":13199,"ĠCensus":13200,"Ġ\\{\\":13201,"ĠCore":13202,"Obj":13203,"Ġthoughts":13204,"Ġinsight":13205,"ĠLO":13206,"Ġatom":13207,"umed":13208,"Ġcosmological":13209,"ĠBaltimore":13210,"rating":13211,"bolic":13212,"ĠRio":13213,"ĠĠĠĠĠĠĠĠĠĠĠĠĠĠĠĠĠĠĠĠĠĠĠĠĠĠĠĠĠĠĠĠĠĠĠ":13214,"Ġconfident":13215,"fish":13216,"four":13217,"domain":13218,"Ġfinance":13219,"ĠEqs":13220,"single":13221,"ractions":13222,"bai":13223,"ĠArray":13224,"Ġtransformed":13225,"Ġinference":13226,"Ġkeys":13227,"Space":13228,"Ġcomplement":13229,"Ġwelcome":13230,"Ġappointment":13231,"Japanese":13232,"Ġprofessionals":13233,"kar":13234,"anti":13235,"Ġlocomot":13236,"ĠWithout":13237,"ĠCommunications":13238,"Ġcycles":13239,"conv":13240,"Ġreception":13241,"1898":13242,"Ġinterference":13243,"wig":13244,"sample":13245,"Ġproviders":13246,"Ġfarmers":13247,"ĉĉĉĉĉĉĉ":13248,"din":13249,"ĠStudent":13250,"player":13251,"ĠFranklin":13252,"eval":13253,"Ġflav":13254,"Ġtheater":13255,"mates":13256,"ĠHampshire":13257,"ĠTak":13258,"nia":13259,"ĠAssistant":13260,"Ġcontainer":13261,"Ġpseudo":13262,"Ġafternoon":13263,"ĠProtection":13264,"ĠNar":13265,"eyer":13266,"Ġeigenvalue":13267,"Elect":13268,"uming":13269,"ĠStudio":13270,"Ġdisturb":13271,"onomous":13272,"trivial":13273,"ĠSpirit":13274,"Ġfunded":13275,"analysis":13276,"ĠKan":13277,"double":13278,"encer":13279,"Ġfloat":13280,"clusively":13281,"1899":13282,"ĠOpp":13283,"Tags":13284,"á»":13285,"Ġfocusing":13286,"ĠMorris":13287,"ĠNO":13288,"ĠMetro":13289,"ĠMovie":13290,"region":13291,"Ġpulled":13292,"Ġcoronavirus":13293,"=\"../../../../../":13294,"ĠPolitical":13295,"Ġtables":13296,"whe":13297,"ĠLiverpool":13298,"Ġchamber":13299,"Ġcircles":13300,"Ġwhilst":13301,"ĠJudge":13302,"ĠRepublicans":13303,"abi":13304,"Ġnegoti":13305,"each":13306,"ĠLGBT":13307,"ĠParam":13308,"wp":13309,"Ġarchae":13310,"ĠPlant":13311,"equal":13312,"Ġemerging":13313,"ĠAy":13314,"Ġtriple":13315,"Ġinnovative":13316,"Ma":13317,"Ġpoem":13318,"ĠMarshall":13319,"Ġepoch":13320,"Good":13321,"types":13322,"inear":13323,"ĠElectric":13324,"Ġprofit":13325,"require":13326,"Robert":13327,"Ġdevelopers":13328,"Ġexploration":13329,"incorpor":13330,"equate":13331,"Ġimpressive":13332,".(\\":13333,"tre":13334,"Ġchains":13335,"Ġalive":13336,"Ġcutting":13337,"ĠIC":13338,"Br":13339,"abul":13340,"Ġbreaks":13341,"Ġdogs":13342,"Ġchrom":13343,"Ġcelebrated":13344,"Lo":13345,"hot":13346,"Ġactresses":13347,"idity":13348,"ĠRiemann":13349,"bone":13350,"Ġmanaging":13351,"olver":13352,"ĠDefinition":13353,"ĠBit":13354,"War":13355,"Ġintroducing":13356,"Ġaugment":13357,"people":13358,"Ġplots":13359,"Ġswit":13360,"Ġsuicide":13361,"Ġhandling":13362,"Ġasks":13363,"ĠOrleans":13364,"^+$":13365,"lm":13366,"Î¿":13367,"Ġopens":13368,"116":13369,"emed":13370,"unning":13371,"Ġphotons":13372,"____":13373,"ĠTrack":13374,"ĠGary":13375,"Ġenabled":13376,"ĠBrooklyn":13377,"some":13378,"oro":13379,"Ġoutbreak":13380,"ĠMargaret":13381,"ntil":13382,")}$,":13383,"Ġneglig":13384,"ĠBaker":13385,"Ġpraised":13386,"ithuan":13387,"Ġoutstanding":13388,"Ġtie":13389,"ĠAccount":13390,"ĠGraham":13391,"Ġantib":13392,"ĠPittsburgh":13393,"ĠSafety":13394,"IGN":13395,"Ġreserved":13396,"counter":13397,"Ġisomorphic":13398,"ivia":13399,"ĠEle":13400,"URL":13401,"ĠMichel":13402,"oba":13403,"pread":13404,"Ġnotably":13405,"ĠGulf":13406,"Ġexpectations":13407,"Ġjunction":13408,"rav":13409,"Ġdiscret":13410,"cod":13411,"Ġfraud":13412,"ĠPref":13413,"above":13414,"fare":13415,"Ġphotographer":13416,"Ġclosing":13417,"Alex":13418,"boy":13419,"ĠGuy":13420,"Ġanalyses":13421,"Ġsear":13422,"Ġdevi":13423,"Ġ[]":13424,"Ġperforms":13425,"Ġweapon":13426,"Ġevident":13427,"Ġartistic":13428,"Ġeligible":13429,"ĠArena":13430,"Ġspherical":13431,"role":13432,"Ġcompilation":13433,"Dom":13434,"Ġ\\}":13435,"Are":13436,"wt":13437,"Container":13438,"Ġrepair":13439,"ĠCel":13440,"})=\\":13441,"Entry":13442,"Ġgenes":13443,"shaped":13444,"Ġrestored":13445,"ĠEquation":13446,"ĠWrest":13447,"aping":13448,"Ġdemands":13449,"marg":13450,"Ġcache":13451,"Ġtriangle":13452,"Ġske":13453,"Ġpodcast":13454,"ĠLegislative":13455,"Expat":13456,"home":13457,"ĠHend":13458,"Ġ{$\\":13459,"ĠPi":13460,"Ġsoldier":13461,"Ġromantic":13462,"ĠRot":13463,"Ġmarginal":13464,"ĠOperation":13465,"harm":13466,"Ġ\\|\\":13467,"Ġsupplies":13468,"ĠSource":13469,"Ġhelpful":13470,"Ġelectricity":13471,"Ġreceives":13472,"++)":13473,"Ġtissue":13474,"Cap":13475,"ĠGill":13476,"rieved":13477,"Ġdynasty":13478,"ĠHungary":13479,"Ġadmits":13480,"Ġdenied":13481,"Ġthemes":13482,"Ġorganic":13483,"istered":13484,"gow":13485,"gments":13486,"Ġaddresses":13487,"buf":13488,"radius":13489,"defn":13490,"Free":13491,"Ġsubsection":13492,"arus":13493,"ĠÂ©":13494,"Ġneck":13495,"ĠPrior":13496,"inea":13497,"ĠChampion":13498,"ĠGran":13499,"February":13500,"Ġadventure":13501,"Ġactivist":13502,"ĠMontreal":13503,"focus":13504,"Ġsupporters":13505,"ĠCass":13506,"Ġbits":13507,"Url":13508,"}^+":13509,"ĠPod":13510,"Air":13511,"Ġelsewhere":13512,"ĠJimmy":13513,"atics":13514,"Ġresigned":13515,"School":13516,"Ġbases":13517,"Italian":13518,"Ġparad":13519,"Ġcrimes":13520,"mathtt":13521,"Ġbold":13522,"ĠQCD":13523,"1870":13524,"Ġdivor":13525,"ĠMurray":13526,"Expatriate":13527,"Ġremind":13528,"Ġdrink":13529,"ĠVI":13530,"ijing":13531,"Google":13532,"ĠMadrid":13533,"ĠKu":13534,"Ġdisappoint":13535,"ĠVenezuel":13536,"rg":13537,"oidal":13538,"alph":13539,"ĠPrice":13540,"exec":13541,"Ġconformal":13542,"ĠĠĠĠĠĠĠĠĠĠĠĠĠĠĠĠĠĠ":13543,"ĠVienna":13544,"STATE":13545,"ĠSaudi":13546,"Ġregulation":13547,"Ġmock":13548,"good":13549,"Parameter":13550,"izers":13551,"Ġgay":13552,"charg":13553,"Frame":13554,"eoples":13555,"EV":13556,"ĠTol":13557,"Ġgeneralization":13558,"Ġforget":13559,"Ġretained":13560,"Only":13561,"ĠHave":13562,"rus":13563,"cosystem":13564,"Ġpulse":13565,"Ġreceiver":13566,"ĠTamil":13567,"ĠStage":13568,"Ġradical":13569,"shape":13570,"ĠPortland":13571,"Found":13572,"Both":13573,"Ġplain":13574,"border":13575,"ĠSoftware":13576,"Ġpreserve":13577,"uru":13578,"into":13579,"best":13580,"idespread":13581,"Ġanalytical":13582,"Process":13583,"omes":13584,"insula":13585,"Ġcontroller":13586,"Ġdetermination":13587,"ographics":13588,"ĠCommunist":13589,"Ġgradually":13590,"ĠRugby":13591,"Like":13592,"ĠStorm":13593,"igg":13594,"quality":13595,"uez":13596,"period":13597,"ĠStore":13598,"rupted":13599,"Ġrecognize":13600,"ĠOpt":13601,"network":13602,"ĠPDF":13603,"Ġencouraged":13604,"ĠCovid":13605,"Ġrenormal":13606,"Ġprojected":13607,"Width":13608,"berry":13609,"Fix":13610,"prison":13611,"Ġannu":13612,"Ġfantasy":13613,"lein":13614,"ĠSH":13615,"Ġshorter":13616,"ĠExchange":13617,"uits":13618,"Ġrealize":13619,"Ġsurrounded":13620,"ĠDrive":13621,"CV":13622,"ĠKarl":13623,"Ġconsp":13624,"leyball":13625,"ĠHD":13626,"distance":13627,"week":13628,"Ġamongst":13629,"Ġdivisions":13630,".-":13631,"Ġtab":13632,"transform":13633,"ĠArticle":13634,"Ġcone":13635,"Ġvenues":13636,"oker":13637,"Target":13638,"Ġphosph":13639,"Who":13640,"ApJ":13641,"ĠIce":13642,"icing":13643,"Ġsuggesting":13644,"prototype":13645,"Ġdy":13646,"Ġlots":13647,"ĠBrothers":13648,"ĠStars":13649,".:":13650,"parse":13651,"ivan":13652,"ikip":13653,"ĠAlberta":13654,"Three":13655,"ĠStanley":13656,"Ġcoffee":13657,"ĠUpper":13658,"Ġprelim":13659,"bd":13660,"Ġcorrectly":13661,"}[!":13662,"estone":13663,"Ġruling":13664,"ĠMountains":13665,"Ġsuspended":13666,"Font":13667,"mir":13668,"Ġpriest":13669,"ĠMovement":13670,"nolimits":13671,"Ġorbits":13672,"George":13673,"Ġanisot":13674,"Ġtargeted":13675,"Profess":13676,"ĠWarren":13677,"Ġwedding":13678,"Ġdescend":13679,"Ġinterviews":13680,"Ġvessels":13681,"Ġpriority":13682,"ĠJonathan":13683,"Game":13684,"bigcup":13685,"_{[":13686,"ĠFaculty":13687,"ï¼":13688,"Ġshopping":13689,"valued":13690,"Ġstayed":13691,"à¦":13692,"Ġconverges":13693,"********************************":13694,"Ġdefence":13695,"Ġdowntown":13696,"Ġthereby":13697,"Click":13698,"Server":13699,"sor":13700,"Review":13701,"ĠNord":13702,"Micro":13703,"Draw":13704,"Ġwarning":13705,"Ġsplitting":13706,"Ġsynchron":13707,"Ġcollisions":13708,"perature":13709,"grid":13710,"1896":13711,"rets":13712,"Control":13713,"Ġmirror":13714,"\\[\\":13715,"=-\\":13716,"ĠAustrian":13717,"Ġreflection":13718,"Ġlayout":13719,"oka":13720,"emale":13721,"leading":13722,"poly":13723,"Ġfees":13724,"Ġcable":13725,"ĠWa":13726,"Ġpropagation":13727,"Ġelder":13728,"Day":13729,"Ġrum":13730,"Yes":13731,"estim":13732,"leqslant":13733,"works":13734,"Ġdeputy":13735,"Ġcomed":13736,"ĠRap":13737,"Ġmountains":13738,"ICE":13739,"Lin":13740,"ĠEconomics":13741,"\\}_{":13742,"1897":13743,"ributes":13744,"ĠYu":13745,"ÙĦ":13746,"ĠCharlie":13747,"Afric":13748,"rh":13749,"Ġestimator":13750,"Ġamplitudes":13751,"midrule":13752,"dz":13753,"wal":13754,"Ġcolonial":13755,"Ġranks":13756,"Ġeffectiveness":13757,"eper":13758,"Jack":13759,"Ġprinted":13760,"Ġinstallation":13761,"Ġemerged":13762,"Tom":13763,"Ġ})":13764,"Ġrelating":13765,"ĠCarib":13766,"Phys":13767,"Ñı":13768,"ĠTheater":13769,"Ġcentered":13770,"task":13771,"Ġindustries":13772,"Sal":13773,"ashes":13774,"Ġvalidation":13775,"Ġcatalog":13776,"Ġblind":13777,"fony":13778,"ĠSex":13779,"ĠEinstein":13780,"Ġgeodes":13781,"limit":13782,"ĠNam":13783,"ĠFermi":13784,"ĠLP":13785,"Ġcrypt":13786,"ĠPoisson":13787,"Ġneutron":13788,"iper":13789,"being":13790,"Document":13791,"Ġassignment":13792,"TF":13793,"1895":13794,"ĠLeaders":13795,"scar":13796,"Station":13797,"thy":13798,"Ġobviously":13799,"oped":13800,"Ġdwar":13801,"ZE":13802,"Ġinvert":13803,"Ġapps":13804,"Ġaffairs":13805,"Ġfeelings":13806,"Ġeliminated":13807,"Super":13808,"ĠOri":13809,"ulative":13810,"story":13811,"total":13812,"Ġcogn":13813,"profile":13814,"Ġdeals":13815,"Ġautomatic":13816,"Ġfails":13817,"Ġtow":13818,"Ġloyal":13819,"Ġsick":13820,"essed":13821,"Ġrivers":13822,"ĠAfghanistan":13823,"Works":13824,"Ġtens":13825,"Ġampl":13826,"Ġlegacy":13827,"Ġfunctor":13828,"ĠLock":13829,"Bre":13830,"subequations":13831,"usalem":13832,"uchy":13833,"fam":13834,"Ġresemb":13835,"Mag":13836,"asant":13837,"Ġlaugh":13838,"Ġtact":13839,"ĠShel":13840,"Ġviewers":13841,"Ġlimitations":13842,"determ":13843,"closure":13844,"enson":13845,"Ġspiritual":13846,"ordered":13847,"ĠFalls":13848,"razy":13849,"Ġwet":13850,"cam":13851,"ĠComics":13852,"Ġengage":13853,"ĠOpera":13854,"Buildings":13855,"Ġsynthetic":13856,"ushing":13857,"Ġcoherent":13858,"esome":13859,"Ġprobe":13860,"rb":13861,"ĠStev":13862,"108":13863,"Miss":13864,"ĠBible":13865,"iterranean":13866,"ĠUpon":13867,"uin":13868,"Ġimposed":13869,"Ġreflected":13870,"ĠFunction":13871,"ĠCultural":13872,"Ġmeasuring":13873,"ĠVancouver":13874,"ĠAlfred":13875,"ĠAndy":13876,"newline":13877,"Ġcombining":13878,"Ġicon":13879,"Ġghost":13880,"ĠKon":13881,"Ġplenty":13882,"Ġinstructions":13883,"Ġinstruction":13884,"ĠClassic":13885,"Ġlaboratory":13886,"Ġrescue":13887,"Ġconqu":13888,"Ġanswers":13889,"Ġ::":13890,"Ġobst":13891,"Ġvariants":13892,"ĠTower":13893,"ĠNASA":13894,"ĠUg":13895,"Ġbrowser":13896,"ĠDirac":13897,"ethyl":13898,"ĠJohann":13899,"Ġworker":13900,"omm":13901,"Ġcouples":13902,"ĠHunter":13903,"Ġgrey":13904,"Ġpassage":13905,"uto":13906,"Ġintegers":13907,"Ġharmonic":13908,"frared":13909,"Ġcous":13910,"artifact":13911,"Sen":13912,"Ġbary":13913,"ĠMack":13914,"Ġpainted":13915,"Ġaccordance":13916,"ĠRelations":13917,"Sports":13918,"ividual":13919,"Ġmeat":13920,"Ġfoss":13921,"ounce":13922,"PN":13923,"Ġmor":13924,"Ġcoastal":13925,"ĠUrban":13926,"Ġparking":13927,"send":13928,"elines":13929,"Ġpromise":13930,"URE":13931,"Pos":13932,"rors":13933,"Ð´":13934,"Ġgolf":13935,"Ġevil":13936,"ĠĠĠĠĠĠĊ":13937,"ĠElementary":13938,"Find":13939,"ĠPant":13940,"zerbai":13941,"rowth":13942,"Ġarrangement":13943,"Ġcul":13944,"half":13945,"days":13946,"expl":13947,"random":13948,"ĠInteg":13949,"ucks":13950,"Ġdevoted":13951,"ishops":13952,"Ġtexts":13953,"Ġvessel":13954,"ĠDays":13955,"incorporated":13956,"TM":13957,"tn":13958,"Bigl":13959,"Ġtrunc":13960,"Ġfirms":13961,"Fi":13962,"Ġlux":13963,"Ġposit":13964,"Ġpipeline":13965,"Ġtough":13966,"hammad":13967,"material":13968,"ĠNevertheless":13969,"rob":13970,"Ġresolved":13971,"ricket":13972,"returns":13973,"ologically":13974,"Land":13975,"Ġcrystal":13976,"ACE":13977,"arial":13978,"CF":13979,"cient":13980,"Pe":13981,"Utils":13982,"ĠLeft":13983,"Ġwithd":13984,"ĠTob":13985,"Gold":13986,"ĠAltern":13987,"ikipedia":13988,"Ġdecays":13989,"à¯":13990,"Organ":13991,"ĠÂ·":13992,"numer":13993,"ĠLeban":13994,"analy":13995,"ikes":13996,"Ġtip":13997,"Ġwidespread":13998,"ĠObl":13999,"ifle":14000,"Ġflower":14001,"ĠStre":14002,"erts":14003,"ĠNetflix":14004,"ĠDid":14005,"Ġvic":14006,"device":14007,"Ġconstituency":14008,"Mo":14009,"107":14010,"ĠProfessional":14011,"rooms":14012,"window":14013,"ĠBorn":14014,"ĠMetropolitan":14015,"ĠNevada":14016,"Ġnoting":14017,"ĠRomania":14018,"()->":14019,"rov":14020,"lington":14021,"Ãª":14022,"ĠRand":14023,"Ġticket":14024,"ĠSF":14025,"ĠPaper":14026,"itely":14027,"ĠCu":14028,"Ġkeeps":14029,"Ġmoderate":14030,"Ġshots":14031,"iously":14032,"listed":14033,"Look":14034,"Conf":14035,"Ġenthus":14036,"Ġstem":14037,"omon":14038,"irk":14039,"acteria":14040,"ĠFreedom":14041,"ourt":14042,"Ġtends":14043,"tar":14044,"ĠOrange":14045,"taining":14046,"itud":14047,"olutions":14048,"Ġdestruction":14049,"auer":14050,"ĠAnnual":14051,"Global":14052,"}},\\":14053,"borne":14054,"minute":14055,"Ġdisplays":14056,"boot":14057,"Ġstrain":14058,"escope":14059,"citealt":14060,"Ġintrinsic":14061,"nan":14062,"emor":14063,"driven":14064,"ĠYet":14065,"initial":14066,"Mass":14067,"Ġfol":14068,"Ġbil":14069,"twitter":14070,"Ġplotted":14071,"}\\;":14072,"}{}":14073,"Ġguidelines":14074,"Ġmemorial":14075,"spring":14076,"ĠHawaii":14077,"ĠCreate":14078,"Mer":14079,"Ġreviewed":14080,"ricane":14081,"ĠFam":14082,"GG":14083,"Ġvisits":14084,"aba":14085,"Ġkilomet":14086,"ĠRoom":14087,"??":14088,"ĠPast":14089,"yll":14090,"ĠUE":14091,"Ġwounded":14092,"Opt":14093,"ĠCher":14094,"Ġhook":14095,"Ġlongest":14096,"Bigr":14097,"hill":14098,"Ġintervention":14099,"ĠGlas":14100,"ĠBirmingham":14101,"ĠEvans":14102,"ntz":14103,"ctrine":14104,"Ġexplored":14105,"eton":14106,"ĠMak":14107,"eenth":14108,"lass":14109,"ĠJess":14110,"Ġfro":14111,"Ġforests":14112,"fiction":14113,"ĠPhysics":14114,"Ġlegs":14115,"turn":14116,"below":14117,"pin":14118,"ĠAppro":14119,"TER":14120,"Ġscreening":14121,"Ġsad":14122,"Ġpushed":14123,"ĠMarvel":14124,"ĠArchives":14125,"Ġspoken":14126,"Ġcriterion":14127,"join":14128,"ĠTogether":14129,"Ġwebsites":14130,"Ġexhaust":14131,"Ġdetermines":14132,"Upsilon":14133,"ĠConservative":14134,"ĠTheory":14135,"ĠRural":14136,"Ġupgrad":14137,"ĠSA":14138,"Ġprotests":14139,"STR":14140,"ĠPil":14141,"ĠEdd":14142,"Ġlawyers":14143,"ĠKenya":14144,"ĠRud":14145,"109":14146,"ĠComputer":14147,"Ġ!==":14148,"ĠOwn":14149,"Ġmonthly":14150,"Ġdoors":14151,"hattan":14152,"Ġpremiered":14153,"cache":14154,"Ġcombine":14155,"Ġargs":14156,"Ġourselves":14157,"ĠRank":14158,"SN":14159,"Ġcounties":14160,"vision":14161,"Week":14162,"ĠToy":14163,"letion":14164,"Ġhabitat":14165,"AGE":14166,"Please":14167,"Fin":14168,"ĠHungarian":14169,"itime":14170,"Arm":14171,"ĠAld":14172,"European":14173,"Ġdeclined":14174,"Ġprobabilities":14175,"Ġexclusively":14176,"Ġproportion":14177,"Ġnortheast":14178,"Ġcos":14179,"Ġviolation":14180,"ĠBernard":14181,"Ġunity":14182,"Ġpeer":14183,"othy":14184,"dual":14185,"Ġbreast":14186,"Ġsalt":14187,"lyph":14188,"ĠCrime":14189,"ÅŁ":14190,"ĠAlban":14191,"|_{\\":14192,"Ġconsent":14193,"eling":14194,"Ġresponded":14195,"uct":14196,"ĠKra":14197,"Ġcombinations":14198,"Ġremoving":14199,"theory":14200,"Ġshifted":14201,"Ġreven":14202,"Ġseriously":14203,"dashed":14204,"Rightarrow":14205,"Ġgall":14206,"iko":14207,"Ġphotography":14208,"ĠNad":14209,"Schema":14210,"Ġtension":14211,"hyper":14212,"ĠMitchell":14213,"Ġoverview":14214,"Stand":14215,"Ġapartment":14216,"Ġcolleagues":14217,"Ġcontradiction":14218,"ĠWing":14219,"ÏĦ":14220,"ĠKur":14221,"ĠSyria":14222,"Ġthreatened":14223,"ĠReturns":14224,"ĠBilly":14225,"ĠProf":14226,"Ġpromising":14227,"potential":14228,"Ġlad":14229,"iao":14230,"ĠRico":14231,"Ġlengths":14232,"Ġperfectly":14233,"onian":14234,"wright":14235,".},":14236,"Ġreportedly":14237,"Ġactivists":14238,"Ġtrouble":14239,"Fore":14240,"learning":14241,"resource":14242,"ĠIan":14243,"Cref":14244,"email":14245,"Ġmenu":14246,"utils":14247,"Ġdevelopments":14248,"Ġvaries":14249,":(":14250,"onda":14251,"Selected":14252,"bus":14253,"ĠPrivacy":14254,"otton":14255,"IX":14256,"rise":14257,"textnormal":14258,"req":14259,"ĠStein":14260,"chiat":14261,"ĠOttoman":14262,"Ġoutdoor":14263,"Ã©n":14264,"Ġnormalization":14265,"Ġordering":14266,"1892":14267,"ĠBud":14268,"NT":14269,"Tests":14270,"ochem":14271,"aptist":14272,"Ġcarefully":14273,"incinn":14274,"vable":14275,"ĠBroadway":14276,"Ġiterations":14277,"Political":14278,"Ġovercome":14279,"uka":14280,"Ġclustering":14281,"Entity":14282,"LM":14283,"idad":14284,"Ġtaxes":14285,"verseas":14286,"Â®":14287,"olia":14288,"ĠFIFA":14289,"Ġhip":14290,"separ":14291,"}<":14292,"pret":14293,"Ġskill":14294,"ĠGray":14295,"avior":14296,"ĠValue":14297,"ishments":14298,"standard":14299,"ĠRailroad":14300,"Ġhospitals":14301,"tically":14302,"notin":14303,"(_":14304,"Ġprisoners":14305,"Ġcredits":14306,"ĠCer":14307,"Ġproves":14308,"bounds":14309,"ĠPictures":14310,"ĠAdm":14311,"Ġdeployed":14312,"Ġmerely":14313,"Ġhorses":14314,"ĠSnow":14315,"iti":14316,"ĠInv":14317,"Ġcarries":14318,"Events":14319,"Ġultra":14320,"Ġhash":14321,"ĠUser":14322,"Ġnavigation":14323,"ĠJazz":14324,"ITY":14325,"Ġdetermining":14326,"Short":14327,"Ġanalogous":14328,"WH":14329,"Ġannouncement":14330,"design":14331,"ĠFOR":14332,"Ġspacetime":14333,"Ġoverlap":14334,"ĠFr":14335,"oil":14336,"ĠVerm":14337,"Ġspectrosc":14338,"ĠMarkov":14339,">,":14340,"PH":14341,"Ġentities":14342,"Ġmechanics":14343,"Ġcorrelated":14344,"FOR":14345,"Ġpatch":14346,"Ġsectors":14347,"ĠFine":14348,"ĠVersion":14349,"Ġstrange":14350,"Ġresolve":14351,"Album":14352,"Ġdialogue":14353,"fixed":14354,"Ġpaying":14355,"Ġcontracts":14356,"Provider":14357,"Ġcooperation":14358,"^*_":14359,"á¹":14360,"Example":14361,"Your":14362,"ĠBasketball":14363,"Properties":14364,"Ġcelebrate":14365,"1889":14366,"party":14367,"Ġperturbations":14368,"Ġbio":14369,"Ġtransactions":14370,"Ġpayments":14371,"avan":14372,"Production":14373,"Ġlen":14374,"celona":14375,"riction":14376,")=(":14377,"Ġconsole":14378,"Ġbatch":14379,"incinnati":14380,"1860":14381,"Ġguilty":14382,"ĠUpdate":14383,"olen":14384,"1893":14385,"Ġdissip":14386,"ugosl":14387,"EEE":14388,"Ġconsistency":14389,"ĠMeanwhile":14390,"Ġbishop":14391,"Ġ>=":14392,"None":14393,"1894":14394,"amination":14395,"emark":14396,"ĠParker":14397,"ĠSoccer":14398,"udson":14399,"Ġrecommendations":14400,"abol":14401,"Ġrailroad":14402,"Railway":14403,"BT":14404,"IE":14405,"eva":14406,"Has":14407,"ĠWor":14408,"alid":14409,"Ġdated":14410,"Ġopponent":14411,"ingham":14412,"connection":14413,"oys":14414,"ipart":14415,"ĠJosÃ©":14416,"ĠCarlos":14417,"ĠAgreement":14418,"Ġvenue":14419,"ãĢ":14420,"Show":14421,"Settings":14422,"Position":14423,"Ġdiscrimin":14424,"ĠBomb":14425,"Ġattach":14426,"matic":14427,"Ġdifficulties":14428,"Ġexamined":14429,"complex":14430,"Ġagriculture":14431,")&":14432,"Ġboss":14433,"ido":14434,"ĠIntelligence":14435,"ĠStra":14436,"ools":14437,"Ġconsistently":14438,"utter":14439,"Ġimprison":14440,"Ġcolleges":14441,"ĠPhoenix":14442,"'$.":14443,"Ġorganisations":14444,"Ġrecurs":14445,"aco":14446,"ĠNat":14447,"writing":14448,"Ã¨re":14449,"Ġble":14450,"ĠDog":14451,"ĠChair":14452,"Ġdeparture":14453,"Ġyes":14454,"ĠMaterial":14455,"icker":14456,"ĠSay":14457,"ĠCollins":14458,"ĠAGN":14459,"ĠBrew":14460,"Ġinfluential":14461,"uned":14462,"Coll":14463,"Ġmissions":14464,"zes":14465,"ĠAlaska":14466,"ĠRacing":14467,"ĠTask":14468,"Ġdepression":14469,"keys":14470,"Ġpadding":14471,"Villages":14472,"Ġdisag":14473,"Ġanimation":14474,"bounded":14475,"eros":14476,"Offset":14477,"issa":14478,"click":14479,"Ġflash":14480,"Ġwavelength":14481,"whel":14482,"Ġconclusions":14483,"White":14484,"ĠJerusalem":14485,"bling":14486,"Ġpixels":14487,"ĠZone":14488,"gun":14489,"ĠRing":14490,"Ġidentifying":14491,"Ġju":14492,"manifold":14493,"ĠTournament":14494,"Ġcontroversial":14495,"'=":14496,"\\,,":14497,"consider":14498,"ĠApr":14499,"ĠChron":14500,"Ġcontributing":14501,"ioned":14502,
[...]
