#version: 0.2
Ġ Ġ
ĠĠ ĠĠ
i n
e r
Ġ t
o n
Ġ a
h e
r e
a t
ĠĠ Ġ
s t
o r
e n
ĠĠĠĠ ĠĠĠĠ
a n
a l
Ġt he
a r
l e
i t
Ġ c
i on
e d
e s
i s
Ġ s
Ġ o
Ġ f
i c
r o
in g
Ġ w
a s
Ġ p
Ġ in
e t
n d
Ġ b
c t
a m
Ġo f
ĠĠĠĠ ĠĠĠ
en t
d e
o u
Ġ m
Ġ =
i l
e l
Ġ re
Ġa nd
Ġ n
Ġt o
ĉ ĉ
Ġ (
o m
Ġ S
u r
) ;
Ġ h
o l
c e
Ġ d
Ġ <
Ġ C
u t
i d
Ġ {
at ion
i m
Ġ T
= "
Ġ A
s e
- -
i g
Ġt h
a d
t h
l o
i v
a g
i f
e x
c h
Ġ *
ĠĠĠĠĠĠĠĠ ĠĠĠ
u l
/ /
u n
< /
p e
o t
e m
r a
Ġ v
Ġ M
at e
u e
Ġ l
er s
u m
i st
c k
u s
p t
Ġ st
Ġ I
č Ċ
as s
a b
Ġ }
am e
Ġ P
Ġ "
Ġ g
Ġf or
Ġ is
Ġ B
t r
t er
i r
a y
ct ion
l y
Ġ R
Ġ on
it h
Ġ D
Ġc on
" >
u b
e w
2 0
( )
an d
ĠĠĠĠĠĠĠĠ ĠĠĠĠĠĠĠĠ
ĠĠĠĠ Ġ
Ġ H
* *
h t
o d
l ass
1 9
Ġb e
or t
Ġ L
ur n
r i
Ġ e
v er
o w
Ġ F
Ġa s
re s
ag e
a p
Ġ N
es s
u p
a v
en d
o p
Ġ de
o de
Ġ G
n t
t urn
e st
l i
ou r
Ġw as
e ct
Ġ E
Ġ $
q u
ro m
-- --
y pe
Ġw ith
ex t
Ġ W
â Ģ
= =
Ġa l
ĠT he
s p
Ġ '
in e
m ent
c on
ar t
a in
g et
Ġa n
Ġb y
l ic
Ġ if
ab le
Ġp ro
i z
it y
p ort
Ġw h
i le
ul t
Ġ O
o s
al l
Ġth at
Ġc lass
k e
ĠĠĠĠĠĠĠĠ ĠĠĠĠĠĠĠ
o re
a c
er t
Ġc om
a ck
o c
Ġth is
Ġ or
Ġ J
Ġa t
. .
pt ion
Ġ //
Ġ it
I n
in t
Ġre turn
er e
an s
0 0
- >
an g
i es
Ġf rom
R e
b er
at a
at h
i al
ar y
ig ht
st r
Ġ U
Ġ r
Ġ ex
al ue
iv e
: :
u re
Ġs e
or m
o g
an t
f f
i p
' s
Ġ @
j ect
as e
Ġ he
ĉĉ ĉĉ
a st
il l
or d
un ction
l d
Ġ Ċ
C on
i re
" ,
at ed
ar d
Ġ< /
) ,
c om
u nd
a re
Ġ \
i b
Ġc h
ar am
p l
o v
ub lic
i a
Ġ &
Ġ -
u g
re f
Ġ K
S t
ig n
Ġ y
a ce
our ce
ou t
Ġa re
Ġ |
( "
Ġt r
.. /
( );
t o
Ġ /
p ro
im e
c l
it ion
in d
Ġ lo
Ġn ew
ic e
o st
E x
on g
Ġ V
) .
u d
Ġ [
er v
p er
âĢ ĵ
p h
Ġ le
Ġ* /
ul l
s et
a ct
ĠI n
Ġp l
el f
a k
p ut
20 1
---- ----
il d
s s
ic h
tr ing
Ġ +
' ,
p le
Ġn ot
u st
or k
T he
Ġs h
o k
f er
en c
m l
Ġa r
or y
** **
th er
c ri
ĠS t
it e
i an
d d
er r
ess age
v ent
c c
iz e
el l
Ġcon t
b ject
g e
Ġ j
f orm
s h
an ce
ro w
s o
Ġn ame
e g
q ue
e f
res s
Ġ :
d iv
Ġf unction
sp an
im port
Ġ .
> </
Ġ us
en s
ou nt
Ġre s
ĠĠĠĠĠĠĠĠ ĠĠĠĠĠĠĠĠĠĠĠ
th is
Ġp ublic
ĉĉ ĉ
on e
i el
( '
== ==
20 0
Ġst r
ic al
e ar
is h
lo w
ĠC h
av e
ĠĠĠĠĠĠĠĠ Ġ
Ġh is
e c
in k
i de
ter n
N ame
Ġ un
c he
t e
iel d
o id
Ġ| |
t ext
p p
Ġ _
P ro
> <
1 8
a il
Ġv ar
p aram
n ame
en ce
a ch
l l
u se
d u
f t
ra y
) )
ĠT h
../ ../
T ype
in al
E R
ow n
re turn
Ġ k
en er
e p
Ġde f
ir st
o ol
i ew
et h
m er
Ġwh ich
ou ld
at or
f ig
ation s
Ġw e
c al
S tring
Ġh as
a x
le ct
O N
Ġin t
p r
ke y
re e
Ġ #
p on
he n
t p
ht ml
en g
r y
le s
I N
r it
ro up
ou nd
o b
Ġs et
Ġ !
que st
ou s
al se
I d
pe c
le ment
ic t
e v
Ġt ype
n e
u al
Ġh ref
i x
Ġw ere
m essage
y st
Ġc an
er y
i o
Ġp r
s ource
Ġg et
1 0
am es
ar k
at ch
o ver
Ġv alue
er m
c ol
at ic
Ġal so
le d
ac he
ent s
c ode
e b
ĠU n
f o
at es
t ype
tr ans
c re
Ġ ro
yst em
n g
R es
Ġb o
lo ck
R E
ing s
Ġ= >
C om
t d
o int
ol d
ar g
Ġa b
em ber
u ild
a ult
ce ption
p ert
eth od
l ation
/ >
Ġh ave
Ġo ut
de f
s er
L ist
Ġ= =
b o
Ġs elf
Ġ Y
on t
f ter
Ġcon st
Ġc ol
Ġ el
e y
Ġcom p
ĠH e
ad d
S T
Ġpl ay
_ _
C h
Ġn ull
u ct
c lass
om e
# #
ode l
cri pt
is s
" />
um ber
Ġf irst
Ġ im
at er
Ġ up
a ke
Ġv oid
ion s
ur re
ap p
Ġb ut
pe ct
ut e
Ġp art
Ġas s
v al
ĠI t
Ġd is
t on
or s
Ġd o
Ġ err
a w
19 9
A r
ic k
Ġon e
am p
n c
Ġ i
ang e
A T
w o
Ġ âĢĵ
v ar
{ \
) );
Ġal l
Ġ end
an n
ic s
qu al
Ġd ata
ption s
s on
str ing
1 2
ĠA r
enc es
erv ice
: //
ation al
ad er
**** ****
i e
Ġh ad
o ck
1 6
Ġd es
Ġl ine
Ġs u
v el
ers ion
Ġit s
it le
iv ate
he d
Ġ `
ro und
O R
Ġ id
s um
an y
con t
-------- --------
b ack
m s
c ation
Ġt e
I D
trans lation
Ġa dd
Ġthe ir
as k
Ġwh o
L E
r r
um ent
tern al
ig h
i ed
) :
ĠĠĠĠĠĠĠĠĠĠĠĠĠĠĠĠ ĠĠĠĠĠĠĠ
Ġf alse
ar ch
c o
Ġw ill
y le
y p
eng th
tr ib
l ine
Ġp re
Ġ >
// //
âĢ Ļ
Ġo ver
" );
m a
Ġtr ue
ov e
Ġ )
urre nt
de x
ab el
Con t
le ction
V alue
"> <
w e
d ata
l and
Ġy ou
D ata
Ġor g
Ġel se
ht tp
A R
an c
re ad
Ġcom m
if ic
Ġp er
Ġa g
as h
Ġ/ **
it ed
Ġstr ing
Re fer
a de
ic an
or n
T h
Ġ und
Ġf il
p os
s elf
ire ct
u de
t em
Ġin cl
u le
Ġc re
Ġw ork
Ġres ult
Ġt ime
ĠC om
u es
A L
Ġw hen
c ess
S e
f ile
v alue
cc ess
c ent
Ġo ther
at ive
an ag
con d
li ent
ĠĠĠĠĠĠĠĠ ĠĠĠĠĠ
E N
Ġ& &
op le
or g
S et
" )
o le
T o
C ol
o f
av a
is hed
} ,
Ġa p
. _
id th
Ġh er
pert y
Ġt est
Ġs up
] ;
as ed
Ġs p
in ed
E rr
g r
in s
Ġs pec
Ex ception
1 5
qu ire
er n
p x
ra ph
Ġ// /
Ġt wo
Ġin st
is e
Ġbe en
O bject
ĠTh is
Ġ en
ĠĠĠĠĠĠĠĠĠĠĠĠĠĠĠĠ ĠĠĠĠĠĠĠĠĠĠĠĠĠĠĠĠ
Ġof f
el y
Ġ! =
u ff
Ġy ear
y m
Ġv al
==== ====
19 8
ĠĠĠĠ ĠĠ
1 7
w ard
Ġin ter
ut h
ĠS e
Ġt ra
S S
Ġs ub
m ary
ar get
on s
3 2
ĠN ew
Ġre g
( $
Ġa d
d er
Ġf inal
t est
_ {
p re
at us
d ate
Ġa ct
r ight
Refer ences
i er
e ople
Ġc l
T est
iv ers
ĠP ro
o ot
n b
Ġa fter
y s
w ork
Ġa pp
re am
Ġin to
m in
Ġst atic
od y
ur ing
ag es
Ġn e
it s
Ġf ile
Ġm ore
Ġre c
G et
ug h
ĠS tring
Ġthe y
Ġm e
A t
ĠA l
Ġ use
Ġl ist
w n
at ing
w ay
am ple
Ġs o
() .
Err or
o se
le t
re n
' )
1 1
D E
t il
Ġfor m
Ġus ed
Ġs c
Ġ ra
nb sp
Ġon ly
v e
Ġ âĢ
is ion
ul ar
C T
an k
K ey
ĠC on
are nt
mer ican
Ġ %
() );
v id
b ut
U n
Ġpr ivate
T r
n ew
Ġp os
Ġn o
Ġtr ans
t he
at ure
p ar
] ,
ĠS h
19 7
v iew
sum mary
s ize
2 5
um n
S E
b all
Ġch ar
Q u
I T
Ġ x
ou g
p s
f unction
b le
i ous
p ress
lo cation
' );
res ent
ist s
Ġc o
1 4
Ġre m
a z
Ġ --
F ile
ol low
lo g
he ck
Ġb ack
pl ay
I nd
c a
it em
i k
r u
re d
Ġo bject
Ġ ext
Ġe vent
Ġund er
et er
or ld
t s
b ar
Ġ key
Ġ em
Ġ$ \
r ame
l er
Ġn umber
str uct
r c
E n
C lass
E vent
l ay
ro ll
ch ool
H e
ra ct
p ace
. </
b r
ar n
et a
Ġan y
ol og
ut il
ĠE x
Ġ ent
M E
1 3
Ġs er
Ġg o
in ce
it ies
l ink
p en
Ġc ase
m ath
" ;
I m
ur l
ĠR e
f ace
n ot
ĠA n
as on
Ġb et
at t
a h
b y
il y
l ist
[ '
u res
ind ow
A N
Ġp ol
u i
Ġincl ud
ic es
Ġ qu
iz ed
b e
Ġs he
un c
er ed
ĉĉĉĉ ĉ
ib le
() ,
a ir
2 2
in dex
in es
al s
Ġwh ere
oc ument
em ent
lo ad
f or
B y
Ġ Z
Ġthe n
p ublic
a ction
} }
in ter
19 6
w w
1 00
U L
Ġc all
ro id
/ **
Ġth ere
2 1
C O
Ġl ink
f ore
ro l
t ime
ou n
Ġ );
m on
ĠC ol
ou se
Ġp eople
oc i
in n
Ġst art
od ule
ment s
/ *
g o
Ġf e
f ield
E lement
iv er
con st
Ġab out
ist r
j s
g er
we en
ord er
' ]
o h
c es
Ġf ollow
Ġar g
" :
r ite
ot t
if y
S h
ĠD e
ar s
3 0
N ode
Ã ©
Ġ/ *
V iew
Ġo b
Ġpro du
ĠL e
Ġo per
ur y
p ath
m e
Ġw ould
g round
Ġa c
Ġm ethod
ro ugh
Ġk n
O n
ivers ity
re g
cri ption
m y
s ub
tr y
uff er
m p
T ime
d is
Ġm ay
et s
Ġ ?
p end
pon se
a pt
ou th
ut ion
l ish
l ength
v oid
y n
"> </
ĠĠĠĠ Ċ
if ied
t a
Ġf ound
le ft
sh ip
ĠI nd
ign ed
t tp
ĠA s
In fo
Ġass ert
R O
Re quest
ess ion
P ath
ole an
v en
m an
anag er
Ġ ed
re ak
Ġg ener
Ġre l
ist er
Ġr un
Ġf ield
il ity
Ġth an
A n
al e
N ot
Ġt itle
ri de
port s
n av
Ġth row
s cript
r ic
Ind ex
us h
5 0
ur ation
a j
P E
Con fig
l ang
Ġ/ >
m d
or th
pon ent
col or
t op
p ack
Ġerr or
Ġs ome
i ent
op y
s c
Ġg roup
P aram
T ext
ĠA merican
D ef
m and
ain er
' :
Ġbet ween
c ed
ce pt
A C
Ġc al
lo b
Ġar ray
. "
it ial
Ġin v
Ġc urrent
E qual
a f
Ġp aram
l abel
Ar ray
if e
F ield
() )
6 4
I nt
Ġst ate
A dd
I ON
Ġc ent
19 4
it t
Ġcon s
M ap
} ;
] .
id ent
T E
Ġ( !
Ġag ain
Â ł
Ġ} ,
t able
ames pace
en se
f l
Ġ: =
Con text
cl ude
trib ute
g roup
A s
Ġsh ould
T R
b ers
over n
! --
P I
ra p
Ġd irect
o ther
Ġm in
Ġe st
us er
r on
are d
Ġth rough
Ġp h
ap i
st ance
St ate
h er
i ke
Ġm ost
Ġst ud
ers on
2 4
S ervice
A l
Ġl ong
Ġb uild
Ġsu ch
00 0
e k
oug h
Ġ} );
Ġh im
Ġwh ile
Ġ= ==
Ġre quest
Ġd if
=" ../../
on d
Ġre p
` `
W ith
Ġs erv
re m
I tem
al ly
Ġa m
Ġ X
Ġat t
it or
ect ed
L A
con fig
c le
******** ********
Ġse cond
Ġre sp
og le
ĠT r
Ġsh ow
^ {
m ed
ĠUn ited
C ode
Ġte am
//// ////
iv ed
iz ation
ant s
ist ory
' ;
Ex ternal
ain s
Ġh and
O ver
Ġd uring
ap ache
ect or
im es
Ġre le
pt y
ass ert
ĠF or
Ġd r
Ġf l
Ġw rit
ĠUn iversity
ĠĠĠĠĠĠĠĠĠĠĠĠĠĠĠĠ ĠĠĠĠĠĠĠĠĠĠĠ
eg in
Ġbe fore
Ġlink s
il ter
Ġs ize
qu ot
ra w
Ġyear s
oot ball
Ġdef ault
Ġp ass
F orm
F or
Ġs ing
yp es
Ġh igh
ro p
} \
Ġe lement
at s
" .
o od
D e
ĠI f
O r
Ġg r
o ok
Ġ Q
w ord
S ize
ĠF r
S ystem
=" +
2 3
u f
' t
Ġre quire
ĠI s
Ġa cc
y nc
Ġex pect
Ġn il
it er
} $
t t
def ine
l ished
+ +
iv en
Ġthe m
et ers
enc y
m ap
" "
val id
tr ue
in a
iv ing
H and
U R
d es
in put
res ult
am ily
o ff
D es
Ġm em
n ode
lect ed
et urn
gr am
f ul
t en
us ic
Ġar t
ate g
uth or
Ġus ing
Ġcom ple
us s
m all
pl ate
lo se
Ġex p
am ed
I C
ĠS c
o bject
ir t
able d
Ġrec ord
cre ate
[ ]
ver t
ĠO n
Ġre ad
Ġp oint
e ver
Ġ_ _
w idth
in clude
Ġm ed
Ġlo cal
w h
ic on
o y
og raph
le g
Ġth ree
V al
B uild
Ġplay ers
19 5
Ġa ut
def ault
b s
ne ction
Ġs ystem
Ġ} ;
Ġd ist
Ġbe ing
O f
Res ult
ĠE ng
ig inal
ĠM ar
ow er
Qu ery
err or
M essage
Ġp ar
Ġs ame
Ġ-- >
Ġt ext
Ġne ed
oh n
Ġm ade
pro t
.. .
re at
o x
m b
od es
## ##
Ġ import
ay s
is m
Ġe ach
b egin
} )
âĢ Ŀ
Ġp op
b um
vel op
lo at
a id
3 3
Ġd et
= '
ag s
o o
iv es
en n
id d
le te
Ġo wn
Ġw ell
en u
iss ion
re ate
Ġsup port
ot e
f rom
Ġbe g
b lock
( \
F F
A D
form ation
Ġs im
ĠR es
U p
U T
an e
t itle
t ing
Ġr ight
p oint
th s
se arch
ust om
Ġstr uct
Ġm odel
http s
ĠP h
ut es
lic ation
L O
ath er
ĠS he
ra c
n er
Ġ u
Ġj ava
ition s
et work
M A
ens ion
ĠSt ates
bo x
I s
Ġch ild
st art
end s
ar ly
Ġm ain
---------------- ----------------
ur s
Ġst yle
Ġcon fig
le y
t ings
Ġl ater
Ġ z
Ġt arget
Ġde c
ĠA ss
UL L
un e
O ut
ur al
co pe
ount y
ro ss
p art
ag ue
Ġus er
M odel
l p
Ġo ptions
Ġl ast
Ġbo th
u age
i um
f unc
ĠW e
ile d
v ersion
Ġfil m
a i
act ory
Ġ( )
in fo
u str
S er
Ġm on
ĠC l
Ġdif fer
pert ies
Ġfollow ing
e vent
L og
c ated
ĠG et
Ġs ign
m odel
m ember
Ġy our
lo s
Ġm ov
Ġthe se
ou ble
Ġt em
ĉĉĉĉ ĉĉ
Ġpro t
Ġv ersion
t es
Ġse ason
Ġcont ent
il t
G roup
el s
ĠO r
ĠP r
Ġlo g
Ġc or
M anager
L oc
Ġb ir
I G
Ġre ce
Ġo pen
Ġper form
st ate
om en
Re g
M L
Ġp ath
Ġh ttp
ou nc
d t
w it
en ame
Ġre f
Ġb r
am b
b ody
4 0
In ter
C H
Ġc heck
com p
Ġcre ate
Ġb ase
istr ict
m it
Ġn ode
olog y
Ġs ur
c all
Ġf ootball
Ġkn own
ff ect
ical ly
IN G
ok en
E D
he ad
Ġm any
2 7
Ġ Ð
press ion
a it
Ġcal led
Ġm ake
ĠĠĠĠĠĠĠĠ ĠĠĠĠ
Ġin dex
ĠA t
Ġinst ance
Ġb ro
w eb
Ġle ft
Pro perty
N ew
2 8
che s
ĠS ystem
b ase
Ġb ool
Ġb reak
C all
Ġcont ext
Ġde velop
ĠM ay
l t
Ġinclud ing
u ch
Ġg iven
E T
con text
o ptions
s ide
Res ponse
m od
Ġs rc
b ed
A B
Ġc ode
> &
ĠW h
f in
Ġpro cess
Ġto p
C lient
p or
Ġcont in
A pp
C ell
Ġor der
roll er
lob al
u ck
Ar g
Ġal bum
ĠĠĠĠĠĠĠĠ ĠĠ
cont ent
Ġre fer
2 6
s k
i or
ow ever
Ġpro vid
ol ic
ĠW orld
ra ck
ar i
Ġm od
Ġin put
Ġf our
Ġap pe
======== ========
I S
ĠC an
Ġn on
u ro
Ġagain st
o ption
ual ly
Ġs chool
our ces
k en
ar ray
Ġm et
ĠJ ohn
um e
m ethod
p i
um ents
T able
ain ed
U N
nd er
g t
ar ri
C ount
Ġser ies
pl ace
d oc
an sp
ific ation
D is
ast er
r al
um er
act er
j ava
F rom
U ser
Ġb lock
p an
Ġre t
n ext
Ġn ow
us ing
c ore
at ri
ĠN ational
f alse
Ġal low
l ing
tern ational
o ad
t n
Ġl ike
ĠR eg
ac es
Ġit em
="../../ ../../
a u
ul ation
if t
M P
o in
it al
d own
end er
an u
le ss
ur ch
Over ride
pack age
if ier
Ġst d
c ount
e ch
r ag
Ġdo es
; &
D O
ĠL ist
cal e
Ġest ab
go ogle
2 9
> (
im it
Ġb el
M ethod
as es
Ġe ver
d b
ĠC ar
Ġj ust
ĠB r
Ð °
v ision
Ġin d
U til
c ame
ict ion
Ġm ust
Ġn ext
Ġ ,
b ol
Ġun til
Ġbe came
ot ype
de v
Ġg overn
ott om
en e
Ġm an
T D
che ck
Col or
ĠC ounty
Ġc are
i ev
a ut
Ġm y
Ð ¾
Tr ans
Ġv is
ĠP ar
Ġhe ad
m ax
St atus
c ss
l ack
Ġc oun
Ġle ad
St ream
v ious
ĠS et
P l
} {
In put
A ll
c ast
che d
Build er
ĠâĢ ľ
Ġs ol
b b
q l
_ {\
u k
ĠY ork
] )
pr int
Ġc ould
T oken
C E
Ġs ince
E nd
arg in
ction s
c urrent
Ġtr y
in ation
st atic
eg er
EN T
ĠB rit
ith ub
ĠJ ul
ww w
ĠN ov
but ton
n o
ĠG r
ore d
re t
i ence
ann el
ĠW ar
v ed
n et
Ġf in
ĠS chool
Ġm atch
a pe
li am
8 0
ic a
Ġpart ic
ir d
ca use
Ð µ
irt ual
A S
Ġs ervice
Ġm ax
Ġval ues
T H
e lement
Ġm essage
ail s
ustr al
ĠA d
ĠĠ Ċ
Ġs ource
Ġor iginal
Ġs ong
ent ial
Ġg u
al th
a e
Ġm ark
Ġt erm
amp ion
=" #
ar ge
lo y
ĠP l
Ġ< <
ĠN ULL
Ġpos ition
n amespace
ĠG e
du ct
c lient
d om
ĠS outh
U S
Ġt able
Ġbe cause
; </
Ġpl ace
im age
i ans
qu ery
Ġdes cri
6 0
$ .
Th is
li b
Ġback ground
h as
anu ary
at ab
ĠA nd
Ġd ocument
P r
on y
Ġsu ccess
Ġf amily
Ġbo olean
ide o
de pend
se e
Ġde ath
ire d
ition al
end ed
w are
A ME
our n
ug ust
g ithub
Ġg ame
ĠW est
ym bol
al ign
b uild
d a
00 00
O ptions
19 3
ĠC al
on se
n ull
C l
Ġcol or
201 0
l ight
erm an
st yle
Ġb ased
ĠC ent
] (
h and
lic k
pt ember
In stance
| -
in c
re quest
ir on
d ay
Ġo ur
ward s
Ġap pro
I L
c ord
Ġv iew
N ull
Ġ enc
o ber
ail able
ak ing
ri but
Ġresp onse
Ġse ver
Ġvar i
id er
m ber
ĠâĢ Ķ
E S
oc us
I P
ĠO ct
( (
Ġp ub
Ġd id
P os
Ġpro gram
s w
and roid
lect or
ĠB e
O T
Ġp rom
aj or
201 4
ur ity
Y PE
Ġpol it
Ġa v
Ġpro ject
Ġb order
Ġf ind
D ate
e q
r ist
ĠĠĠĠĠĠĠĠĠĠĠĠĠĠĠĠ ĠĠĠĠĠĠĠĠĠĠĠĠĠĠĠ
201 5
Im age
d ir
201 6
arg s
in ess
ar m
s up
al k
Ġcomm un
id get
G ener
Ġan n
Ġw on
Ġm usic
Ġdiffer ent
Ġare a
v is
et y
ib r
Ġdis c
ĠY ou
S ub
ff ic
Ġsing le
ic ense
m et
se ction
ist or
Ġo ld
Ġp o
Ġp ost
Ġrep resent
Ġo cc
ĠW il
=" ../
Ġd own
ĠT est
ĠA ll
E X
Ġle vel
ĠE n
B lock
O per
ĠM arch
g ress
Ġp res
ĠJ anuary
e qu
ON T
ĠG u
Ġs aid
St yle
A nd
A d
iv al
S ource
se mb
ang ed
B ase
pr il
B e
P ar
Ġl ife
str u
anc es
u ilt
ult ip
f r
Ġm ap
om an
s erv
ĠA ugust
Ġp ort
E d
ple ment
Ġt ri
ref er
ĠSe ptember
Ġin itial
Ġorg an
le m
Ġincl ude
ĠĠĠĠĠĠĠĠĠĠĠĠĠĠĠĠ Ġ
Ġbo ok
S tr
Ex t
Ġoff ic
lo c
Ġ+ =
* /
orm al
} .
Ġin formation
R un
9 9
ix ed
Ġcomm and
Ġs mall
un g
Re f
Ã ¡
w ith
ĠSt ate
u les
Ġwh at
Ġw idth
A ss
Ġc a
add ing
com e
ĠB o
che ma
Hand ler
ear ch
h old
201 1
o pt
le ge
n ect
rit er
t x
b l
Com ponent
ak es
r un
ser ver
f rac
) </
ĠOct ober
Ġ" ""
is on
L ine
or age
201 2
Ġc r
Ġout put
b orn
in it
ay out
201 3
ph a
e e
atab ase
< !--
prot otype
ir c
Res ource
ce mber
( {
Ġrele ased
ĠJ une
c ite
ug in
D I
201 7
ĠA ustral
a iled
Ġo p
$ ,
t arget
ev el
i od
ph p
row s
al t
le x
ch ild
At tribute
Def ault
i us
ĠU S
Ġex ample
ain ing
Ġpro perty
Cont ent
Se e
S c
at ter
l in
ain t
Ġp arent
ĠR eturn
i que
ĠJul y
Ġp resent
j son
B uffer
Ġplay ed
ad ata
Ġand roid
Ġl ang
ĠN o
app end
Ġlo w
F unction
ĠE d
t al
er o
ĠA pril
he ight
at tern
B ar
p arent
us iness
pt r
al es
Ġex ec
T O
un k
Ġwith in
v iron
ache d
Ġw orld
iv ity
6 6
ĠP ol
Ġfor mer
u ed
Ġever y
lo t
ĠN orth
19 0
. ,
um b
A ct
ur g
he ader
n s
ar r
u c
x y
Ġsever al
Ġ eng
uro pe
ĠC ity
O ff
Ġc le
ou d
F A
200 8
ĠNov ember
200 9
Ð ¸
ograph y
n ing
Ġs k
201 8
N S
Ġle t
Ġ ->
is ed
av ing
r m
ĠI m
at ures
ra ft
Ġl a
ĠR ep
Ġadd ress
C K
cre en
V ersion
act ive
end if
ic ro
Ġa ccess
F ilter
ĠO bject
b f
U E
N o
x ml
4 5
ĠĠĠĠĠĠĠĠ ĠĠĠĠĠĠ
F actory
W e
F I
l s
ĠC o
Ġl aw
ĠDe cember
S P
Ġhe lp
p age
ther n
ĠA dd
Ġbir ths
om et
se c
Ġm ember
ad a
n ess
m ark
a im
ator s
Ġp erson
9 0
[ "
pro perty
ampion ship
Ġal ign
Ġn ear
rame work
pect ed
St art
um p
E L
m odule
wit ch
p ush
vid er
ĠLe ague
ord s
ĠThe y
ĠS er
fin ished
iv ely
Ġ url
c er
op en
Ġid ent
ĠBrit ish
b ug
Ġmem bers
Ġc ity
u x
at ely
e qual
trib utes
g y
op er
l ast
Ġde v
cent ury
Ġr ange
ard s
al y
f low
A ction
ac ed
eb ru
il it
s pec
ĠM in
t ab
ĠS p
20 20
Ġe arly
port ed
e ad
b tn
Equal s
ang es
ater ial
Ġal ong
Ġse e
ebru ary
Ġcon f
} );
\ \
op s
ol ume
Ġval id
Ñ Ĥ
cent er
ĠI I
ef ore
s rc
Ġsh ort
ch ar
Ġ{ @
N umber
Ġthrow s
Com p
T ask
Ġd iv
Ġa round
ĠG ener
H el
Ġn amed
200 7
Ġpos s
Com mand
ra in
read y
ap an
st it
Tr ue
200 6
th ing
20 19
Ġst and
Ġin cre
pos ition
l en
Ġc ap
G L
s g
iz er
st atus
an ch
am a
Ġdis play
Ġe ven
ust er
Ġh ost
P oint
st er
7 5
an a
w rite
O L
ure d
20 00
Ġcont rol
l a
Ġ( (
L ink
im ary
H T
S pec
ob j
stru ction
R ow
r ad
C reate
Ġh ow
ab ility
he s
ef ined
h am
W indow
atri x
c ase
ĠP art
Ġwith out
ot s
re quire
F l
ord ing
Ð ½
Ġth ose
ĠK ing
( &
j av
Ġ( $
Ġpro f
Ġh ome
re st
un finished
Ġresult s
end ing
Ġle g
N av
Ġcall back
E m
AT E
h ost
3 5
r l
f e
re en
A P
oc ial
semb ly
Ġin s
Ġfil ms
P h
Ġl ength
ic le
ial og
Ġpre vious
ĠE urope
_ .
ĠM ed
Ġis s
B ut
) {
O S
Ġl and
Ġp age
y les
Ġc lient
Ġw omen
p ost
id ge
y l
Ġ es
Ġc ount
s igned
ĉ ĠĠĠ
b uf
Ġ! ==
ren ch
Ġt yp
Ġprot ected
//////// ////////
p c
Ġst ill
Ġex ist
us ed
pr ivate
Ġe ffect
Ġexpect ed
Ġd ue
at form
P art
ĉ Ċ
Ġd ay
Ġw ay
er a
ĠF ebruary
Ġcomp et
V ER
Ġcare er
v ers
Ġre al
Ġv ery
ĠS up
at tr
le vision
row ser
ĠC lass
id es
Ġa ction
viron ment
ill ion
y nt
in ition
oc ol
ĠĠĠĠĠĠĠĠ Ċ
i ag
or ies
f ind
way s
ĠC ont
A G
ol ution
RE F
ĠB y
Ġw ant
Ġf ore
C heck
ug g
L ength
Ġcre ated
Ġc our
d o
Ch ar
d l
z e
Ġgovern ment
ansp ort
Ġpro v
n own
Ġrequire d
Ġs s
f irst
ateg ory
Ġl abel
f ont
st d
" ),
al f
20 21
arn ing
LA SS
Ġc ar
" ).
Ġan other
Ġrece ived
Re ad
A merican
" ]
Ch ild
Ġlo ad
ĠA fter
ref ix
lection s
Ġass oci
ĠN one
Ġdes ign
C C
List ener
O P
Ġto wn
se lect
ĠI N
in ary
ith er
ĠI nt
le ase
m o
Ġl arge
AB LE
t ed
so ft
Ġcomp any
3 1
on es
Ġchar acter
Con st
$ {
Ġto tal
ad o
ch n
Ġav ailable
ĠB ar
Ġsup er
Ġm ajor
in o
Out put
return s
ne y
ĠM an
5 5
ĠT o
Ġst atus
m t
Ġchild ren
3 4
Ġs ide
Ġtra ck
P RO
Ġb and
ĠTh ere
S ON
lo cal
b ottom
Ã ³
ĠCh rist
f ilter
Ġcon d
Ġh ere
Ġim age
Ġreturn ed
Ġim p
Form at
il er
Ġ[ ]
ĠR ec
ur ther
W h
n a
und le
Val id
struct or
I M
Ġhe ight
Ġreg ion
rem ove
p loy
Ġf r
re w
ĠT e
L abel
Ġcol umn
Ñ Ģ
P age
20 22
ĠM c
i et
T YPE
es e
ĠH owever
Ġbeg an
Ġhe ld
D ep
IN T
F ONT
equ ation
cont ainer
B U
Ġlo ok
Ġb uilt
// /
E E
st ream
Ġro le
Ġcl ub
Ġbe st
b it
P re
Ġf ull
Ġch ange
im ation
7 0
h ip
ĠEng lish
ĠR ob
200 5
Ġext ends
p y
m enu
++ )
3 9
Ġh istory
ot o
UR L
Ġc ell
ĠV al
ist ry
ĠH igh
des cription
nav bar
g ener
ER R
Ġm odule
Ġr ad
er g
ĠA b
ib ility
W eb
Ġs um
Ġspec ified
Ġb ody
str ong
Ġo ption
Ġo pt
ibr ary
Ġre st
ra ce
Ġevent s
Ġpr int
ĠA ct
ro y
Ġm at
Ġv ill
C ON
ĠCom m
Ġe qu
Ġres ource
Ġestab lished
Ġn um
Ġw indow
M et
up date
ĠH is
form at
im um
if f
ĠD es
Ġlo cated
ri or
M em
math cal
Cont roller
: "
os s
Ġst at
ĠJ apan
M ode
, \
Ġto ok
Ġf act
on ly
and om
Ġp ower
it ory
m eta
ed er
0 1
Ġex per
O D
param s
Ġm argin
o ke
ĠĠĠĠĠĠĠĠ ĠĠĠĠĊ
il le
ĠCh ar
n umber
Ġob j
R eturn
] );
olic y
it es
200 4
n ow
ut ure
3 6
sp ace
A M
Ã Ń
Ġt ake
v es
a ff
able s
Ġa uthor
re ct
Ġh ouse
u ccess
om ic
um an
Ġplay er
ĉĉĉĉ ĉĉĉĉ
S C
Ġde st
ĠD ef
un ic
ER T
Ġbe h
dis play
c d
g le
Ġe p
re l
U I
ĠCom p
ĠE X
so le
im g
A A
to ol
ond on
Ġ et
ip p
qu ence
ent ry
Ġc atch
out put
U s
ack age
li ed
Ġc opy
C ache
im al
Ġg ames
ĠG L
ĠL icense
it ive
ing ton
m em
ĠG o
s l
ip al
ĠC or
he et
l or
p ng
th ers
al pha
re et
amb da
c or
> >
) $
ig ation
Off set
pro ject
Ġn ational
( _
Col umn
Ġd on
d r
T P
Ġpub lished
4 4
off set
ĠR uss
od ing
idd en
Ġm uch
res ponse
ch ange
Ġinclud ed
Ġde l
li p
im ent
But ton
Ġp e
ud io
u id
} (
Ġm anag
S up
st ract
Ġfe ature
Ġs pe
**************** ****************
our s
Ġl arg
Ġwe ek
Ġar r
r am
Ġdist ribut
com m
Ser ver
in stance
Ġpop ulation
Ġst ation
bo ard
k it
W idth
ann ot
ĠCol lege
n um
m ar
H E
A ut
B ack
Ġper iod
op h
bo ok
Ġar ch
t ag
in ing
ĠPh il
N O
he ther
de l
Ġup date
s ervice
ĠA ir
inn er
Ġdef ined
Ð¾ Ð
Ġn etwork
f ord
Ġkn ow
he l
Ġd om
c lose
in st
Ġin ternal
ial ly
Ġform at
Ġl en
ĠE ast
3 8
at al
T em
Ġa ge
Ġb l
Add ress
I t
er ing
, "
Ġ ke
ap s
r ing
tem pt
idd le
ĠS w
inn ing
ens or
Ġc amp
Ġs ix
Ġserv ed
lay out
I f
u int
fer ence
L ayout
Ġu int
if act
Cont ainer
Up date
c ell
< ?
ĠP ark
ĠCh ampionship
N AME
Ġt ask
ac y
Ġd ouble
ĠL a
ĠB l
he m
' ).
res pon
ĠF rench
Ġm ag
ĠL ondon
c el
i j
pro cess
ultip le
Ġaut o
Ġth ird
ig ger
I Z
ilit ary
Ġal ready
Ġser ver
Pro vider
Ġ< !--
il ar
d f
. $
U M
ly mp
as cript
ap er
ĠWil liam
3 7
Ġs ite
ug ht
Ġdescri bed
f inal
200 1
ro du
o ice
yn am
ĠD istrict
Ġcent ury
H istory
Ġb as
ra int
Ġgener al
i ef
row n
Ġte chn
Ġb usiness
og n
Ã ¼
im ate
Ġf ive
ry pt
ĠA PI
Ġde pend
Ġreturn s
p o
nt ity
ig r
Ġ$ (
4 8
18 9
el se
Ñ ģ
Ġspec ies
oug ht
Ġparam eter
cript or
ĠAr t
ĠB ro
Ġqu ery
ĠD av
am il
un it
Ġappe ar
ult ure
T ypes
U rl
ex ec
Ġarg s
Ġt urn
Ġl ate
18 8
Ġb orn
h a
= \
Ġbuild ing
ĠM e
rap per
ounc il
d et
th ough
ĠAr ray
F irst
ĠP er
c an
ight s
ĠA mer
back ground
Ġ ]
Ġc los
ĠD is
T arget
ĠH ar
ĠW hen
Ġgo od
ou ch
Ġspec ial
att le
ct x
ĠReturn s
ex pected
tem plate
oci ation
ĠT ype
ĠH REF
al let
ac ity
C ase
s i
Ġim plement
ĠH ouse
Ġc ustom
R em
arri ed
Ġcom put
C L
Ġa ir
Ġcon nection
Ġs ent
ĠM on
Ġf re
Ġinter face
A fter
el ine
ĠĠĠĠĠĠĠĠĠĠĠĠĠĠĠĠ ĠĠĠĠĠĠĠĠĠĠĠĠĠĠĠĠĠĠĠ
est ed
Ġd istrict
I O
col umn
ã ģ
`` `
de st
Ġf ac
200 3
b ool
B o
B ox
ent ion
Ġde cl
le vel
Ġd ate
Ġad v
Ġf ont
He ader
apt er
ĠP res
app ing
ĠAss ert
al ys
Ġst ream
P er
Ġt imes
ĠG erman
Ġsp ace
A cc
ĠI D
Ġm en
ĠC up
t yp
Ġte levision
L ast
ĠC LASS
~ \
Ġpoint s
Ġe ither
b ind
ĠF ile
ro ot
} _
ig in
F e
A ccess
sh ould
b a
Ġw ater
ep s
g ing
ĠH T
Config uration
CO L
ent ly
Ġlang uage
par se
s ol
âĢ Ķ
En try
Ġ row
pro to
Call back
a ul
Ġc ur
M S
Ġwrit ten
M od
ĠU p
} ^
ĠN or
sh ow
w indow
ĠH er
Pro cess
old er
D et
? :
m atch
Ġb ound
pon ents
am ent
p ass
D ev
util s
im ple
Param s
D el
g en
Ġprovid ed
ft ware
Util s
W rite
f loat
Ġf ail
T ag
Inter face
ay er
u ation
6 5
s m
J son
ĠA c
R ange
Ġa nt
Un it
Ġoper ation
T ree
200 2
UL T
r t
ult i
ĠS ch
Ġ* *
Ġc over
O b
Ġro und
ĠD ep
al d
ĠIn ternational
iss ing
F rame
Ġ Qu
ir m
if orn
s v
ourn al
ens ions
() ->
W ork
Ġn one
Ġoff set
ex p
ĠA m
jav ascript
M ax
cle ar
itt ed
id ual
V is
Ġf ew
af e
He ight
ĠD r
( [
ic o
cl ud
Ġf ree
Ġcomp os
st and
#### ####
CO DE
Ġ qual
D B
' ),
o sp
Ġm ode
Ġc ert
) \
Ġpro ble
ex ample
p ly
ĉ Ġ
L oad
k a
Ġ{ }
id ed
ĠD iv
ĠN ot
iforn ia
: </
Ġv ideo
ol ved
ing le
ĠR ed
Ġelement s
l ate
ol l
ess ages
Ġeng ine
ab or
Ġp ut
ĠS an
Ġc rit
am l
Ġ q
Ġn orth
ra de
Ġc lose
Ġf loat
6 7
qu ad
c ache
Ġv irtual
Ġg l
Re cord
Ġadd ed
ire ction
Ġw rite
t ask
i res
Ġd ied
com mon
ĠInd ian
M in
r id
Ġof ten
Ġab ove
Ġin it
P ort
ĠD o
refer ence
Ġstart ed
Ġcoun try
k nown
Ġg en
Ġcom b
am ma
O ST
ĉĉĉĉ ĉĉĉ
gr ad
ĠQ ue
get her
ĠA pp
Ġm ove
Ġparam eters
ol ve
alys is
Ġfile s
ĠIn ter
L iving
Ġe lect
que ue
~ ~
pos ed
) (
Ġgr ad
U P
ce ed
Ġind ic
itt le
ĠE l
Ġs on
M odule
P eople
b uffer
ĠM ich
lic e
d s
K E
Param eter
ounc ed
T op
ĠA g
ĠS o
Ġvill age
ynt ax
p m
Ġ> =
or ge
Ġb uffer
P C
ĠO ne
Con nection
Ġre search
ĠR iver
ĠP ort
" ))
Ġle ss
ut able
Ġtr ad
d ocument
N D
Ġam ong
ĠS ub
j e
st yles
Em pty
w ise
Ġw ar
Ġwork s
ar a
icro soft
Ġv er
Cont rol
Ġn av
A PI
Ġd a
d at
Ex ec
i ol
E ng
r s
Ġatt ack
B undle
ĠC reate
to ken
Ġfil ter
Ġprodu ct
Th read
min istr
ar row
Ġse arch
eg a
V AL
Oper ation
s cope
Ġn ames
ĠCal ifornia
oci ety
Ġcon c
land s
h o
Ġacc ount
Ġse c
a use
c ul
ĠR ev
y ear
N ext
Ġ( "
ch o
ĠEng land
S ec
Ġh old
i ers
ĠB ut
Ġ Ã
G e
Ġf ri
t ml
ĠS k
w ait
PE CT
b urg
E ntity
trib ut
m u
M ed
Set tings
Ġmov ed
ist ic
m ic
Ġarg uments
Ġ* )
Ġs outh
ĠI r
Ġinst ead
O pen
V E
B C
fo ot
Ġcol lection
ak en
Ġw hether
H ash
Ġdevelop ment
K ind
ock et
g raph
fo o
Ġund efined
use um
ig ma
ri es
199 9
ST R
Ġt ypes
Ġcommun ity
ĠW ith
a uthor
Ġob t
ĠAustral ia
Ġsim ilar
Ġcont ains
ĠThe se
Ġn ov
med i
D ocument
is ing
t ree
Ġent ry
O ption
D ec
Ġle d
ar ies
Des cription
Ġp at
Ġx ml
m ain
d ict
lay er
7 7
s d
res ource
L I
Ġe qual
Ġlo cation
b or
t y
T I
g l
H ttp
Ġparam s
Pos ition
Ġposs ible
Ġvar ious
ot ion
id s
ĠR oy
Ġv ol
Ġp erm
p atch
com mand
Ġpartic ular
] [
199 0
N one
lic it
A g
ic ation
Ġh istor
ver se
4 9
Ġb g
ĠĠĠĠĠĠĠĠĠĠĠĠĠĠĠĠ ĠĠĠĠĠ
Loc ation
Ġpro perties
ã ĥ
L o
Ã ¶
ĠW eb
che du
ĠM y
Ġp ay
Ġrem ove
ot al
Ġh aving
ession al
Ġserv ices
. /
ĠTr ans
ĠA p
Ġrele ase
L evel
an el
Ġro ot
Ġt w
ĠPart y
Ġs w
Q L
Ġbe come
ĠE m
ĠO F
ub e
es h
% ;
Ġse par
im ages
k s
Ġre du
S H
Ex pression
A b
Ġact ive
Ġat tempt
em pty
he nt
M atch
Ġspec ific
Pro perties
Col lection
ad ian
ĠN e
Ġcl aim
Ġl i
av es
i i
ĠInd ia
ĠO lymp
el low
Ġint rodu
ef t
Ġed u
Ġm illion
> ,
8 8
ex ports
Ġa ff
ak er
Ġrem ov
Ġd one
IZ E
Ġd oc
in ternal
AT ION
ill s
it ect
F O
ĠRep ublic
Ġon ce
Ġd er
iv il
Ġg lobal
R L
l ong
Ġinv est
ab ly
Ã ¤
Ġrefer ence
Ġse ction
Ġcol l
ĠS ec
" ));
cont rol
b reak
Ġv ia
Ġin ternational
g es
4 7
li es
ms g
a el
Q ue
pp ed
av y
ĠEx ception
Ġmed ia
IG N
Ġne ver
S p
u a
ĠA f
d rop
de bug
ver age
O p
Ġyou ng
ĠM al
AR T
Ġc apt
D irect
Ġm ale
Ġmethod s
et ch
Ex p
res h
im er
is es
0 5
OR T
leg ate
Ġover ride
ang le
Ġp adding
Ġdeath s
ĠS tr
Ġdet erm
im est
Ġme as
Ġc ame
ĠL og
ĠR em
Ġt ag
Ġfield s
Loc al
H ost
re c
=" _
Ġcomm on
Ġex ception
I ter
Ġj ob
Ġ ...
Ġe v
Ġre d
Id ent
E nc
y d
ĠD ata
se qu
E Q
: (
art ifact
Ġcons id
Ġn amespace
lang uage
C urrent
ĠEX PECT
Ġse lected
ri ef
Ġimport ant
u el
b eta
Ġsuccess ful
enc ies
Ġprodu ced
em ents
Ch ange
C opy
g or
Ġs old
0 8
ĠGener al
Ġin div
web kit
r ics
Ġf em
Ġw est
Ġd ays
As ync
urs or
Ġann ounced
eb ug
g ed
iction ary
olog ical
ĠS um
s ign
Ġgroup s
Ġem pty
N ames
ĠA ward
Ġtem plate
Ġj o
i as
$ \
Hand le
Ġ\ \
Ġw in
Ġpol ic
Ġcent er
ĠB el
Ġl imit
Ġhand le
act ers
Ser ial
pos itory
Ġac cept
dev ice
h ash
St ore
ad ow
ĠA cc
IN E
4 2
O M
=" -
P tr
Ġestab lish
% %
C o
Ġoffic ial
ĠG roup
l im
S cript
C an
Ġf ather
S earch
Ġbg color
Ġprodu ction
Ġw ent
( *
or iz
f s
T rack
Ġb it
s mall
wh ere
Ġbo x
199 8
z er
ĠE rr
Ġst op
ot a
Ġob serv
ord in
j oin
th on
() :
l it
Ġap i
ĠC heck
ound s
b efore
_ ;
ĠAmer ica
Ġact iv
om b
Ġe ast
Ġst ory
Ġstud y
ĠAr my
il m
Ġ čĊ
Ġf urther
art ment
ĠC our
and id
p ose
Ġf ailed
Param eters
X X
Ġp ract
Ġcontin ue
iag n
ĠA nt
il led
h ib
Ġl ight
Ġapp lication
val ues
S ession
S D
ip s
e h
il ities
Ġcle ar
Ġit er
Ġ ::
ã Ĥ
Ġs ocial
6 8
Ġle ast
Int eger
ĠCh urch
Ġre lation
Ġhttp s
ag ed
Ġfe atures
un ch
g n
Ġto o
ĠSe e
Ġinst all
AC K
ĠCan ada
Ġpass ed
ul a
="../../../../ ../
action s
Ġep is
Ġassoci ated
h at
ĠE nd
Ġo pp
Ġ ;
ĠS m
Ġal ways
R ender
Ġindiv idual
ed ef
e le
ick er
Ġwork ing
Ġto gether
d ated
Ġa ward
pl it
ERR OR
ri a
iss ions
ĠG overn
Ġh alf
ach ine
it ar
math bb
v as
eg r
trans form
ĠG erm
Im pl
Hel per
U B
w est
ĠM o
w s
ĠFr ance
Ġm ultiple
Ġ" \
Pro t
F ont
Ġe ar
Ġconsid ered
re q
Ġre port
COL OR
y a
n ap
AL L
198 0
ur i
c opy
r is
m ost
Ġto ken
_ \
Ġprov ide
ct or
tr ies
ĠH ol
ist ics
c s
5 00
ĠPres ident
Refer ence
respon d
Ġ ide
out e
Ġstr ong
ru pt
re ed
fl u
ĠR oman
p op
I I
O ne
Ġde but
hand le
Ġwe bs
St at
Pro ject
5 9
class es
ĠJ ames
================ ================
Ġcom ponent
inter face
con f
Ġin f
Ġstruct ure
od er
n on
de lete
Ġre view
ĠP al
ĠTh om
i ation
Ġch anges
ĠF irst
B ody
ri p
stit ute
C R
Or der
Ġpolit ical
ro te
ĠC ouncil
air s
Ġph ys
Ġres pect
ĠRob ert
Ġb lack
r d
Ġe lection
R el
Ass ert
ra b
Ġac ross
ĠD em
Ġh owever
quire d
iz ing
Ġc ache
one y
Ġperform ance
depend ent
as ing
ur b
re nder
l ambda
- \
ĠM ark
imest amp
Ġpolit ic
g reg
Ġcont ainer
an ia
Ġl iter
ĠO ut
L e
f rame
) }
artifact Id
Ġc ross
P o
Ġstud ents
a uth
Ġpartic ip
Ġme an
Ġobject s
S chema
Ġf low
4 6
T ER
M O
ĠS ervice
In valid
li er
a ign
Ġat tribute
c ard
c ing
5 8
ac ing
{ {
5 7
ĠO R
ers hip
Ġg reat
Ġinter est
m ode
by te
Ġf ocus
ĠEurope an
' '
Ġs cope
ca pe
ĠS en
D ir
Ġexec ut
I F
file s
Ġsign ific
Ġim pro
Ġg e
Ġcomple ted
ĠSt reet
18 7
ph i
Ġm aking
0 2
a ur
( :
cl us
Ġadd ition
Ġs om
b ert
D om
ĠD on
v ille
M enu
c m
gor ith
od ed
Ġcurrent ly
ach ing
unic ipal
erv e
o om
ic les
199 6
to String
ĠD E
G ET
h an
Ġdev ice
var i
Ġapp oint
B O
ĠDiv ision
Ġhe alth
By tes
Ġn ormal
M eta
ra z
b order
Ġ[ '
Ġsub ject
t rack
h i
ĠN S
Ġof fer
ile s
0 4
med ia
C P
Ġc ost
av en
ou thern
Ġre pl
Ġv ert
E CT
199 7
id a
L eft
Ġbel ow
Ġpar se
R I
t ypes
ĠR ich
ple te
ĠM et
Ġwork ed
ĠP e
ĠAr g
V ari
en v
Ġhas h
as ic
at ural
f n
c p
ĠGe orge
oc r
Ġun it
ĠT O
Ġs ession
un t
bo ot
group Id
un n
Ġex pl
ĠI S
m at
Ġrun ning
25 5
re place
B A
Ġ â
Arg ument
st rap
| |
e al
T ool
i os
ly ing
h over
ree k
ig g
Ġjo ined
s end
197 0
OR D
P ass
Ġme ans
st ore
Ġf und
0 3
} ^{
c ap
call back
ĠAss ociation
AN D
p th
B ind
iz es
ĠM ag
Ġp ot
m m
ers ist
Val ues
P olicy
ĠDav id
i ents
u z
Ġin fo
Ġpop ular
d ist
. âĢĿ
ag ing
Ġl ive
ĠRoy al
Ġst ore
="../../../../ ../../
Ġt re
Ġs em
Ġconfig uration
Ġh uman
pro p
Ġf a
Ġshow s
Re ader
Ġm ass
v m
doc s
W idget
h r
ag o
ic ons
ad cast
In st
Ġopen ed
} _{
it ing
s ort
C al
dis abled
Ġs l
p ol
Ġm ilitary
D own
He ad
Ġe con
Ġadd itional
Ġs ay
ĠM ount
Re c
Ġra il
Tem plate
Dev ice
Ġm id
ug ins
Ġm er
oun ter
F alse
bo olean
Ġfunction s
Ġm aterial
Ġex cept
Ġtrans form
V ector
Ġfil ename
og gle
et t
Par ser
Ġ( '
Ġab le
SE T
w in
` .
d raw
st ack
Ġsupport ed
li ke
Ġsur v
Ġm arried
ĠB lack
en a
M on
C ore
Ġre nder
S ign
Ġf ire
ĠĠĠĠĠĠĠĠĠĠĠĠĠĠĠĠ ĠĠĠĠ
âĢ ľ
Ġme et
w idget
Ġ ~
rom ise
Ġc y
Ġde g
ĠB ase
Ġto ol
Ġright s
Ġh app
Ð »
ĠM ap
wo od
Ġdef e
ĠO pen
Ġs it
DI R
equal s
s ession
Ġdif f
Ġg row
0 9
ĠUn ion
Ġre cent
ĠT ime
se cond
Ġpro p
Ġpres ident
b in
Ġp ress
ob ile
Ġchar acters
Ġwebs ite
M ock
ot ed
Ġlo st
ĠC ON
ĠN ame
Ġ{ \
ar ter
st on
Ġo thers
ask et
a fter
pl ugin
Ġdes cription
com ing
ĠB uild
ex ception
Ġpl an
Ġs igned
0 7
199 5
Arg s
Ġde lete
Ġf all
AT A
Ġex press
Ġd i
P arent
c lick
ĠP ublic
ul ated
Ġun signed
ri an
Ġw rote
yn ch
ash ington
s uccess
Ġre ported
f a
we ight
P L
P ol
Ġf ar
Ġinclud es
add ress
f ocus
as ons
Ġcomp an
Ġen vironment
C A
Ġs m
b ased
s y
umn i
al le
g in
0 6
Ġd raw
Ġro ad
S erv
R A
Ġcon vert
Ġarg ument
ĠAustral ian
ĠCent er
ener gy
Ġb ar
ĠL ou
Ġf lo
R ect
Ġc ast
ĠCh ina
-------------------------------- --------------------------------
j o
ĠGerm any
an i
k ind
o pe
Ġs ample
am s
em s
Ġteam s
' >
^ {\
Ġa verage
Ġn eg
im ension
Ġm ight
ĠS im
ateg y
P RE
re a
te e
' ],
Ġhe ader
Bo olean
c r
Ġs at
Ġdirect or
ynam ic
styles heet
Ġt ree
Ġke ep
ĠE vent
Ġse lect
U RE
ĠL aw
ĠB er
cre t
ric a
ĠS pec
St ack
as c
ont al
" `
ĠF orm
ac cess
Ġd en
Ġpart y
Nav Bar
S A
Ġs witch
D oc
Ġem ploy
m ing
199 4
Ġare as
fr ican
Ġby tes
Ġby te
S k
Ġresp ons
H P
o e
Ġwh ite
Ġf rame
ĠAr ch
ĠP aul
199 2
De lete
sh ire
Ġcons ider
Ġc ases
Ġc ref
Ġa way
Ġin line
at ory
ber g
enc ed
Ġch anged
Ġallow ed
Ġ quest
ugh ter
Ġprof essional
us es
ĠM ath
__ (
Ġs cript
ĠA ng
Ġs cale
ir it
ĠF rom
set tings
om y
Ġreg ular
Def inition
Ġ+ +
N um
ro s
z on
ank s
in ated
at ives
t hen
W riter
ĠM art
err y
; ->
Ġcan not
Ġf uture
C D
By te
Ġv oc
g lobal
Ġwrit ing
c ial
rag ment
En abled
Ġrec ogn
type of
a a
Ġst ates
Ġg raph
ĠF l
model s
Met adata
Ġt aken
in i
Ġse en
ĠReg ister
) ]
ar io
ĉĉ Ċ
c at
ion al
Ġpro b
> ();
ĠB G
Ġassert Equals
ut ions
anag ement
Ġstand ard
P op
ĠComp any
Ġam ount
ook s
s cri
Ġs ugg
s ite
ult ural
5 6
ĠR oad
199 3
r ange
ĠSt ud
Ġj av
Ġsong s
Ġp ur
anc ed
ound ation
d irect
R oot
Ġp rior
ĠTr ue
ĠU s
Ġt en
ĠM usic
} /
Ġcomple x
ĠĠĠĠĠĠĠĠĠĠĠĠĠĠĠĠ ĠĠĠĠĠĠĠĠĠĠĠĠĠĠĠĠĠĠĠĠĠĠĠ
ĠS T
St orage
ĠO per
ĠJ SON
im ated
Ġwrit er
Ġth ough
ĠD an
c f
b and
O K
Ġcons ist
ix t
Ġsignific ant
Ġch annel
f ramework
ens ive
ĠDep artment
ĠM ary
Ġth read
Ġh ard
Ġmodel s
Ġp ain
Ġ` `
erv ed
ab s
ĠD ate
Ġ( *
omet ry
> .
Ġfor ce
Ġ} )
ines e
ec ess
il on
Ġg round
Ġmark et
Ġtra ining
Ġitem s
Ġsol id
Ġ< =
Ġs end
s cale
ĠD uring
E l
4 1
Ġo s
F r
Ġmem ory
ĠD irect
v ector
} "
Ġch urch
L ong
à ¤
Ġoper ations
iagn ost
Ġl im
Time out
Ġcomple te
ex port
al low
U se
ĠP y
s ql
D ebug
al a
Ġs creen
ĠM or
8 7
Ġlow er
Ġ ens
Ġedu cation
ĠW ork
Ġset t
ĠT ra
D atabase
OR M
4 3
Ġp ast
A pi
App lication
Ġp ack
Ġset s
Se lect
ĠC am
G raph
ĠAc ade
Ġro ck
as y
Ġl ines
param eter
sp lit
ĠL i
an o
Ġus es
ä ¸
Ġbut ton
ĠJ e
Ġh on
ĠR un
ĠI O
mod al
P ost
Ġbet ter
field s
at tribute
ĠT V
ĠErr or
oriz ontal
H as
Ġaut om
Ġent ire
D D
De cl
Ġin flu
J ob
ĠCour t
c ustom
p adding
{ }
SS ERT
TE ST
Ġm sg
Ġst age
* }
Ġcont ract
Ġdevelop ed
Ob j
ĠM ex
ĠP re
con nect
Ġra ce
Ġcontin ued
M ar
ch iev
ĠH all
com ponent
Ġrecord ed
eth ing
N on
ĠW ashington
m en
m ake
u y
end ar
Ġ( \
Des criptor
Ġfr ont
Ġbel iev
R ule
Ġn umer
qu are
i pe
Ġoper ator
h ood
Ġal t
Th ere
s ystem
av ior
T S
Ġth ink
it ch
Ġ ign
Ġwe b
ins ert
est ival
un ity
W E
Ġterm s
ĠH en
Ġ' /
Ġs ort
ĠBG COLOR
Ġin du
T itle
199 1
. )
up le
D o
Ġperform ed
Ġso ftware
S cope
Th at
m es
Field s
Ġpr imary
; <
## #
I con
ĠD i
en um
ĠS ociety
ĠCan adian
M ark
ar ing
ĠIt al
-- -
ĠF ield
ĠS am
pan el
liam ent
ĠG ames
sk ip
ĠM em
ĠIs land
` ,
Ġ Â
ant ic
= #
ĠV alue
In s
ĠV ir
Ġ{ };
Ġk ind
c ur
ens us
Ġact ual
s igma
and s
ĠS ome
Ġg ot
100 0
ĠV er
Ġcon n
196 0
Result s
D raw
Ġb i
or ing
ĠM ac
6 9
Ġcompan ies
re cord
asket ball
en ed
ĠP ress
ĠC re
Ġex pression
Ġalbum s
Ġoff ice
Ġv ict
S ION
d ouble
Ġl ik
S O
ill a
Ġe lem
he lp
D r
Ġp attern
se y
D F
ĠJ ack
Ġmat ches
p ed
Ġarch itect
gr id
ĠH el
EX T
ĠT ur
Ġph ot
ĠCl ub
R ight
rom e
Ġcre d
Ġdirect ory
ĠIn stitute
Dis play
p ub
I R
Ġv iol
Ġ energy
im ately
Ext ension
V er
Ġpart s
math bf
Ġgo ing
Ġra ise
Ġb en
M M
KE Y
oun try
' ))
Ġneed ed
AT H
Ġmon ths
cl oud
O UT
Ġw ide
por ary
Ġlo ss
Ġcor rect
ann er
j ust
Ġad ministr
Ġe cho
b ig
Ġm ount
del ta
Ð º
z a
Ġch art
hold er
Ġm ar
ĠK ey
item s
Ġinstance of
Ġ[ ];
S ymbol
ĠT own
Ġd ig
ark s
ĠB est
Ġfin ished
Ġsh own
aw s
k g
ĠD el
' .
c y
ang er
ĠC O
he st
ĠO ff
ar p
ell ing
ĠH istor
over y
G o
T C
ĠT ech
-- >
ick et
ĠKing dom
l ines
5 4
Ġw ife
Ġm issing
FA ULT
Ġin c
5 1
Ġcon v
Ġpolic y
ĠR E
X ml
V ert
ado op
Ġtrans fer
a o
ud d
Ġde part
eder al
u it
pan ish
and er
ast ic
t ra
Ġset tings
8 9
Y ou
Ġdef ine
Ġd at
sup port
ĠT ex
ĠC r
sh ot
Ġc irc
Ġrel ated
EN D
A V
Que ue
In it
Ġpl atform
Ġf ig
ĠL oc
ĠRec ords
key s
ur a
aut o
Ġass ist
C re
_ ,
Ġc ou
i ra
wh ite
Ġhand ler
Ġdirect ed
Style ID
-> _
Ġm anager
Ġnov el
Ġproble m
Ġf unc
ĠN OT
AC E
F C
D ialog
Ġcor respond
ĠL eg
col l
Ġrad io
h s
Ġt our
ed s
Ġd atabase
ess or
) ">
ic ate
Ġvari able
ĠA lex
ĠCent ral
osp ital
x x
fig ure
ĠA frican
ch an
x is
Ġlead ing
Ġfound ed
con n
J SON
reg ister
Ġw ait
Ġgo al
ĠC ath
Ñ ĥ
Class es
c md
5 3
m ock
Ġ ),
Ġr ule
ynch ron
Ġv ers
b our
Ġdet ails
G E
p ite
re y
str y
ĠĠĠĠĠĠĠĠĠĠĠĠĠĠĠĠ ĠĠ
F L
if orm
^ \
Ġits elf
Not Null
AG E
ĠU K
ĠJapan ese
Ġ" /
ĠU RL
or a
M D
ir cle
ĠThom as
l as
Ġed itor
foot er
Ġfl ag
"> &
Ġsystem s
o on
5 2
Ġacc ording
Ġapp lic
Ġe lected
ĠY ear
ĠB ay
Ġfootball ers
in line
ol ver
Ġc andid
Ġdoes n
Ġappe ared
S L
add r
ĠAf rica
im pl
Ġj son
8 6
Ġle ague
in itial
Ġs ure
Ch anged
Ġplay ing
ĠF unction
Ġas k
ĠHT ML
Iter ator
ly ph
Ġcon struct
u ated
Ġr ank
Ġclos ed
Ġmod ern
Ġt ro
ĠDef ault
ĠRuss ian
Ġt reat
u ate
On ly
S end
* )
L ock
gorith m
Ġexist ing
anc is
198 9
Ġfollow ed
M sg
f il
t ion
ra v
ĠM at
ĠR ad
Ġcond itions
Ġsim ple
Ġfri end
CT ION
ĠJ er
FI LE
et ime
ict or
ca ption
her it
Ġhim self
ĠG reen
m argin
je ction
Ġw ord
g ment
om a
l ers
Ġde al
A c
Ġappoint ed
t imes
app lication
E ach
ache s
nc y
HT ML
ĠC ong
Ġj oin
ourn ament
ĉ ĠĠĠĠĠĠĠ
Ġb ind
C S
w rit
ĠAs sembly
ĠM iss
ĠM er
con nection
ĠU se
R ed
ĠA ut
t oggle
W hen
ansp arent
ĠĠĠĠĠĠĠĠĠĠĠĠĠĠĠĠ ĠĠĠĠĠĠĠĠĠ
pr ing
print f
uck et
Ġform ed
198 8
Ġk m
4 00
Ġse lection
C ustom
depend ency
ĠM useum
sc roll
Ġst ep
Ġwho se
app ly
Ġset ting
D L
is k
ĠR ail
Ġcom ment
Ch annel
un signed
Ġcamp aign
In ternal
Del ta
Ġser ial
che me
Test s
ĠSc ott
ĠRe ad
s ymbol
Act ive
annot ation
proto buf
Ġopp os
ĠAcade my
\ "
ĠD ay
m ission
^{ -
Ġexp and
al led
Ġn om
Ġmon th
Ġcon duct
Ġal umni
F il
Se lector
con s
Ġr ate
Ġy et
Ġsu ff
ang uage
Ġs il
Ġre ason
Ġm ock
act or
Ġr ather
ug e
b on
Ġappro x
sum er
ĠO ther
Ġbir th
Ġf av
+ \
el li
Ġ ill
ĠZ eal
ĠItal ian
ĠM a
ĠS al
it ude
leg al
ed it
Ġro ute
re ater
ĠM ad
Ġn or
c ert
ĠA L
th let
ĠP at
R et
Ġh tml
Ġperson al
_ ->
CH E
Ġc ut
Ġl ittle
ed y
Ġcon nect
Ġcon struction
Ġext ra
Ġm other
ens ity
ĠM ont
ĠL O
Ġfre qu
Ġhigh er
Ġf ight
re al
part ial
assert Equal
Ġschool s
ĠSum mer
n ames
In itial
T e
Ġcom e
m as
h igh
Ġs ports
ĠZeal and
Ġcon tribut
ĠG old
. __
w rap
IT Y
Ġpot ential
Ġn ecess
Ġn et
Ġg ive
g u
Ġtest s
Ġinv oke
com ment
Ġcont ain
ĠJ ew
ĠWh ite
f ill
Ġerr ors
Ġl ibrary
ĠâĢ ĺ
ent ity
Ġtr ansport
ĠPro v
l n
ĠWest ern
Ġrel ative
Ġkey s
h adoop
all s
TE X
Ġe ight
ĠCar ol
6 3
ĠJ ust
ern el
ĠT or
il ation
Ġdes igned
Ġdisc uss
Window s
ap se
ĠL ong
ra el
198 7
Ġm ot
st op
p resent
//////////////// ////////////////
om s
Ġst ack
ĠMich ael
i qu
re land
Ġh ous
Ġgu itar
az ine
E M
Ġup on
ĠD et
=" /
Ġl iving
Ġun ique
g amma
o ch
Ã³ n
Run time
Ġiss ue
Ġe val
ĠO ver
ĠF ootball
; "
m i
Ġcomm it
ĠCom mand
ĠOlymp ics
Ġlo ck
Ġpre vent
Ġun its
P R
Ġst e
Event s
C lick
assert Equals
ĠVir gin
Ġout side
ĠS ing
ĠT om
ad min
N etwork
for ce
Ġre place
Ġd b
Ġal though
il i
boot strap
Ġa chiev
T ab
v a
N e
ĠC ons
Ġother wise
ĠCh inese
ST AT
ĠLou is
9 7
om ent
Ġrepl aced
Ġcond ition
P ackage
P attern
s cal
Ġm us
B r
Ġdest roy
' re
az z
ĠD ev
Ġdistribut ed
ot es
Ġs ym
Ġn odes
ĠChar les
qu ires
Item s
Ġcont aining
ar ian
O F
f ony
is l
irc raft
ĠB en
)) )
v irtual
V olume
( !
F unc
") ]
ri al
Ġe ff
Ġcert ain
Ġn ative
Ġvis it
Ġres id
P ool
ĠTex as
[ :
Ġprovid es
rad ius
str ict
B l
O wn
P ORT
put e
Ġda ughter
ĠE ar
ĠFr ancis
ign ment
P erson
Ġremov ed
Ġreg ard
ip eline
W S
ist ered
ĠK ore
ĠChrist ian
or ph
= {
Ġtrans action
s ave
r ho
g an
ym fony
} {\
f ree
v ing
ĠIn itial
et te
ist an
ĉ ĠĠĠĠĠ
ĠSup er
Ġre v
he ast
Ġpl aces
am era
anc el
Ã §
k i
Ġread ing
ĠU ser
_ (
ĠMin ister
block List
import ant
Mem bers
i ences
Ġext ension
Ġpro gress
Ġbook s
="../../ ../
point s
ĠOr der
Ġco ach
fl ags
av ed
ad es
li de
3 00
ple ments
Ġd am
ĠC he
Ġpo inter
uf act
p ool
P A
Ġdirect ly
Ġg ave
Ġtype of
Str uct
ĠG reat
du cation
ut or
so ck
198 6
by tes
sh ape
Ġp ackage
n u
pe ople
at in
Ġ( _
Ġlarg est
ĠC opy
Pro xy
ĠG ets
Ġf amil
pr imary
Ġh om
Ġm akes
S IZE
Ġr andom
Ġj ournal
ĠN ode
At tributes
Ġat tr
atal og
9 5
ar ily
An not
Ġa void
ĠFor ce
t ip
Ġepis ode
iter ator
Ġex ists
U ID
ĠM ethod
w ide
over ed
TE D
pl ugins
198 4
p are
c ategory
ĠH and
ĠTh at
BU G
ĠM od
Log ger
ĠF ore
f ull
Ġrelation ship
l am
Ġro t
drop down
Ġus ually
D ist
Ġ" "
Ġstr ict
Ġbo ard
Ġc tx
ĠP ri
Ġs ound
Acc ount
at re
RO M
Y ear
if est
Ġjav ax
F loat
le v
9 6
Ġm atrix
ify ing
++ ;
pass word
it a
the ta
Ġst ations
Ġgener ated
reg ion
Ġk illed
ou l
ĠH istory
ĠM us
j a
Ġbuild ings
Fl ags
y es
Ġen ough
Ġn ight
Ġthrough out
Ġpro te
el t
S w
y e
A uth
Ġiss ues
Ġch o
Ġprevious ly
as et
ĠO ffic
Ġclass es
set s
iz ations
F ail
$ $
", "
Ġh it
Ġintrodu ced
M y
198 5
ĠGr and
ĠF I
Sec urity
c ut
n ormal
ĠJ ose
Ġfem ale
Ġs ymbol
Ġor igin
ĠSm ith
Ġs cal
ĠV AL
hent ication
Ed it
im s
se lected
if ies
Ġsh ip
Ġt akes
LO G
Ġt it
th rows
c ar
chedu le
b ra
ue st
M ember
] {
F ramework
B it
m ail
Sh ow
ĠT em
ĠAcc ording
$ (
M ENT
MA X
li as
Ġreg ister
ĠV ol
Ġdeg ree
Ġcoun tries
Ġmed al
ĠWh ile
he t
P O
ĠI d
t mp
ĠF e
C lose
Ø §
arn ed
ĠEx t
ill ing
)) );
ĠH ow
Aut o
all ery
19 50
Ġneed s
Ġ util
, âĢĿ
Ġc op
ic ago
ix el
ĠM ore
Ġj ud
sp ring
event s
Ġinv olved
Ġpol ice
Ġsub sequ
P erm
Ġsom ething
Ġart ists
Ġcent ral
Ġin side
ĠFr ank
6 2
Ġcon sole
Ġne igh
Fe ature
ĠP ost
m ove
m utable
Ã ¨
ĠM el
] ]
Pro p
) "
Ġmax imum
6 1
M an
J ECT
Ġfor ces
ell s
math rm
ĠP eter
em ail
A m
Ġre q
Se cond
9 8
ta u
ĠDem ocr
al ed
co in
V ar
ut f
ict ure
Ġbuild er
ul er
P od
Med ia
Ġim medi
() ));
P AR
L S
N G
Ġfinal ly
id ae
e in
Trans action
ock ey
Direct ory
ang o
ĠTO DO
R est
at io
Ġlist ed
Ġm unicipal
Ġ io
Ġconst it
Trans form
Ġse ven
Ġrel ig
ul ate
Con d
ĠPar is
p g
li ance
pro perties
Mem ory
ĠP o
k m
Key s
ĠCath olic
Ġper cent
Ġinst it
f amily
sol ute
Ġs en
P T
Lo ader
Ġlong er
Ġlo c
S he
sh ort
Ġdistribut ion
Ġs us
th read
ong s
Ġconst ant
N E
ter m
Ġimplement ation
ub y
ĠF lor
VER SION
Ġh ar
ant a
Ġin j
Ġv ector
c pp
ĠS ur
u an
( -
ĠF alse
Ġt ax
inst all
b ound
Ġse quence
Ġcour se
ĠE mp
ĠĠĠĠĠĠ Ċ
e ach
w ell
7 8
ann ing
198 3
ĠV ersion
T ra
Ġn g
ific ate
Ġcour t
ick s
Ġsec urity
B efore
G B
b es
pro duct
led ge
m aster
A p
Ġallow s
Const raint
N amespace
AD D
ĠGo ogle
ĠN ote
hand ler
Par se
O ther
ĠS panish
ĠL os
ang ular
a res
ent er
n el
ĠĠĠĠĠĠĠĠĠĠĠĠĠĠĠĠ ĠĠĠĠĠĠĠĠ
ĠSe cond
st at
Ġca use
ol f
ik i
in ct
ĠCom mit
ĠT ask
Ġrun s
raz il
the me
Ġw ords
o res
ill er
Ġal most
Pl ugin
ir l
ver y
met adata
ar ation
nap shot
Ġ er
b rief
Ð° Ð
. *
Ġin valid
ĠA N
web pack
Ġmanag ement
al i
Ġeff ort
itt ing
Ġl ib
() {
ĠGe org
Ġj Query
ig an
N et
ro ad
st ep
Ġbeh ind
Element s
ĠC all
Ġc ivil
ĠTech n
Ġapp ly
Ġst aff
Ed itor
ĠI reland
ĠPro ject
Ġoriginal ly
Ġd irection
key word
yl v
ĠV ictor
Con f
Ġsc ore
or se
Ġstart ing
ĠL ine
u ous
ic ens
r b
Ġst ar
ĠL ake
is f
evel op
x i
ĠA ust
AR Y
ĠSer ies
ĠM ass
pe at
s im
Ar t
Ġat tributes
ĠB ig
ann ed
Ġr ules
P S
n one
ĠRich ard
Ġmain t
Ġv olume
Ġre ached
Ġcl uster
y r
S um
ol a
Ġt aking
b al
198 2
ĠT ext
s cription
@ "
Ġtra vel
Ġf n
omet imes
ĠC amp
Ġfollow s
B R
N amed
ĠG od
n ov
not e
anc ial
Ġan alysis
s chema
Ġpl ant
Ġbro ther
m anager
ĠO ption
ĠF ilm
Ġpr inc
T ABLE
ĠC ast
() ).
ĠNew s
ĠB ill
ident ifier
Ġf ace
ĠP enn
am i
er ies
ĠĠĠĠĠĠĠĠĠĠĠĠĠĠĠĠ ĠĠĠĠĠĠ
pec ially
: #
Com ple
de cl
[ $
Ġf ul
ish op
mer cial
ĠP an
Ġg old
Ġz ero
ĠT ri
Ġb al
Ġbro adcast
ur t
ic ated
$ -
st ant
s creen
ĠSc ience
Ġlo ve
ov iet
F ound
Ġb ottom
Ġth ought
Ġn atural
ĠF re
arg ument
Ġus ers
25 6
Ġcall s
res et
Ä ģ
vent ion
ĠS ince
Ġs aw
cont roller
Ñ ı
& #
Ġres ources
At tr
k er
Ġindu stry
pro file
ut ch
Ġnum bers
M e
M ain
M atrix
ĠR ock
ĠW omen
k y
typ edef
ĠI P
Ġevent ually
197 9
Re ce
ĠC ode
Ġdist ance
n amed
Ġre ally
ĠI ll
Not es
Ġs ex
Ġsh ape
Ġf ood
il s
Ġp y
Ġart ist
Ġbeg inning
X ML
Ġre ve
ĠCon fig
Ġpl aced
Ġth us
tx t
Ġpolitic ian
Ġm iddle
Pro ps
ĠHen ry
Ġde m
ĠN O
G rid
d en
C le
Po inter
des c
Ġp od
ĠComm ission
In v
Ġqu ant
und er
C are
Ġcal cul
Ġcle an
b ad
8 5
R oute
P anel
Prot ocol
Ġb ad
du ction
ch i
m itted
Ġtyp ename
Gener ic
Ġd u
ig hest
ist ers
âĢ ¦
sup er
c i
ĠĠĠĠĠĠĠĠĠĠĠĠĠĠĠĠ ĠĠĠĠĠĠĠĠĠĠ
Ġ% }
ĠM ax
Ġfeature d
ĠIO Exception
Ġst orage
ic ult
Ġt ab
ĠRes earch
Ġfor ward
ĠIs rael
P lay
Ġbeg in
ev e
wh ich
Ġs ave
ol k
File s
ĠA v
ĠThe n
En um
N ULL
le q
N odes
E arly
Ġrem ained
h y
S ocket
C ast
By Id
P ack
An y
ĠH ill
f ail
; /
L IC
Ġas ync
vid ence
ffic ient
ĠK e
ĠB O
h idden
Ġst ated
'] )
i ro
Ġth ings
Ġins ert
W rapper
ĠVirgin ia
lo od
at o
S Y
com es
Ġa ud
| \
R AN
j ob
To String
Pro file
form s
ixt ure
Ġconc ern
Char acter
Ġnew s
s q
" /
ĠF in
stand ing
ang ing
al loc
Ġa ircraft
CHE CK
Sc roll
UT F
A v
Ġim m
Ġass um
k o
ĠSw ed
n umer
are a
ĠD u
V ID
ĠIn c
Ġaward ed
Reg ister
h ar
Ġsh ared
Ġthe ory
n am
Ġ$ {
Ä ĩ
st ra
Ġpos itive
Col lections
Ġmeas ure
Ġfour th
Ġcap ital
Ex pr
ON E
Ġin dependent
Dep end
Ġ ip
Ġestablish ments
Ġen abled
LA G
Ġp an
co q
and ra
p refix
198 1
) ),
Ad apter
ie ce
ĠR el
=" @
Ġown er
ific ations
le ep
en ing
ĠM il
pro ps
Rem ove
Ġal tern
ell a
Ġr g
F ind
Ġsur face
Ġsugg est
P ATH
Ġim plements
s ample
T erm
ential s
Ġoption al
Ġc ulture
Ġfin ish
197 6
ç ļ
Ġent ity
Ġst ri
. '
in v
D C
Ġp aper
.. ..
197 2
Ġexper ience
Ġw allet
ĠCh icago
ab it
ge les
RE AD
197 8
c b
IN FO
Ġwe ight
p ing
ro t
Ġle ader
ff ff
it o
Ġch all
ĠPro f
Ġa uth
par a
S ync
m ore
sec urity
Ġpro file
S ER
Ġhe l
Ġgr ant
p icker
ĠHe alth
us ion
çļ Ħ
ig er
li e
Ġsc ored
Ġcol lege
Act ivity
pe ed
Reg ion
Ġv eh
Ġact ually
cont ains
Ġcompet ition
tool s
I B
tr igger
ĠW indow
Ġes pecially
Pr int
mod ules
Ġ$ .
Ġ icon
if def
in et
] :
ing u
S QL
Ġse cret
} (\
==== ==
Ġor d
Ġet c
Ġex hib
w atch
W A
ug by
S yntax
Ġte ach
F ull
r or
ĠAn geles
ĠChampionship s
Ġm oney
p id
br idge
ig en
Ġc ore
ĠSh ow
ollow ing
li br
Ġtrans ition
ĠCol or
ock er
Back ground
Ġst re
Stat ement
S ingle
ĠGovern ment
Ġd ro
st ats
Ġrepresent ed
Ġs ch
Ġb asketball
Ġs ays
get Name
child ren
S o
ĠĠĠĠĠĠĠĠĠĠĠĠĠĠĠĠĠĠĠĠĠĠĠĠĠĠĠĠĠĠĠĠ ĠĠĠĠĠĠĠĠĠĠĠĠĠĠĠĠĠĠĠĠĠĠĠĠĠĠĠĠĠĠĠĠ
Ġ{ '
ĠF oundation
7 9
Ġrecord s
Ġqu ick
de c
Ġstud ies
197 4
T race
ĠĠĠĠĠĠĠĠĠĠĠĠĠĠĠĠ ĠĠĠĠĠĠĠĠĠĠĠĠĠ
m aterial
ĠAr ts
> ::
nd ef
ĠD ec
id ing
Ġsc ient
P refix
Ġint egr
######## ########
I E
ent al
T V
Con n
Ġlarg er
S pace
s witch
a ud
sv g
j query
196 8
Ġsing er
ĠT HE
se ct
Eng ine
Ġgener ate
Ġcomp ar
F ailed
f aces
Ġde bug
bs erv
Ġp urch
Ġf ixed
S R
D est
os h
ĠT wo
un ched
D ouble
Des c
ĠMex ico
ĠUp date
m ask
Ġso on
Ġto day
Ġcoun ter
spec ial
Ġrece ive
Ġorgan ization
L java
Ġobt ain
n etwork
Ġtra de
Ġact or
il ing
is ation
ĠM odel
Eng lish
P ublic
ex pr
197 7
d x
ĠEx ec
Ġt ournament
Ġapp end
ĠD en
ĠIt aly
Ġcrit ic
B rowser
Ġb ig
20 23
Ġed ge
ev en
Ġpub lish
ol ar
anc y
Head ers
Ġspe ed
ĠCommit tee
er ial
re me
197 5
test s
t otal
org an
and ard
ch annel
ĠP lay
S eg
ov ers
AL SE
j ar
& &
ĠJ ava
ĠSc ot
Ġenc oding
Ġcon structor
Ġ' <
ĠAn n
Ġm aster
Ġens ure
b rowser
fil ename
Ġde ep
ĠIt s
at ically
Ġint eger
ele br
Ġrepresent ation
ĠV is
Ġincre ase
Å ¡
ĠRuss ia
em on
8 2
ĠM essage
Ġdec ided
Ġwho le
ou b
j i
g it
im a
Ġh ours
p ay
Se lected
w riter
Ġon line
) ).
( __
ian a
ech o
un s
Ġ[ [
L ayer
result s
ĠEng ine
Ġmov ement
ĠInt eger
ĠD om
el ves
J S
urre d
art s
Ġro om
urre ncy
bo ost
ad y
12 3
ĠSec ret
Ġb ank
ĠS aint
en ers
dom ain
Ġf actory
Ġdiv ision
wit ter
def ined
Ġcont act
Ġdiff icult
ov a
Ġxml ns
ĠN avy
m ut
n y
Ġdes c
Ġp refix
ĠFlor ida
Ġdef inition
D A
A uthor
RE S
197 3
av i
Ġtem per
Ġ[ ],
eng ine
o th
ts d
ĠF estival
ore m
ĠCong ress
ï ¼
ĠL ife
B ig
Ġsp ent
Com mon
Ð ´
Ġup per
ian o
id x
op ed
Ġman ufact
ĠS il
res ents
ed itor
at tributes
Cl uster
Ġid x
Ġfamil ies
Ġfail ure
ar ia
wh ile
ir ing
D uration
Ġwrit ers
r ong
Ident ifier
Ġh ot
Ġco ordin
ut er
Ġp ri
ĠC ap
R ad
d ates
ĠSt ar
Ġquest ion
S cale
om ega
ĠI l
oo th
HT TP
M apping
en abled
Ġto wards
} </
Ġnecess ary
Ġdr iver
ac count
Hel p
TEX T
Ġfl ags
ĠV iew
Ġocc up
Ġmin utes
ĠK ar
7 2
Ġsize of
Ġa wait
Ġm ur
Ġun known
ĠP ub
Ġme chan
Vari able
ĠP aram
8 4
Ġp air
Ġtra in
16 0
ĠA ND
Ġad apt
h ouse
ĠCarol ina
Ġs ources
ĠE r
ĠG en
Ġsh are
cont in
tab s
Ġl ayer
aly t
Ġdec ision
Ġt ouch
ĠL u
k w
__ __
on ym
197 1
Ġmin or
Ġab s
j unit
N A
n il
N OT
pro gress
l g
C I
S imple
ail y
}$ ,
at i
Ġc ard
S uccess
TR UE
Ġprodu cer
Ġp ick
re es
Ag ent
h ide
ft y
Ġin cor
LE CT
sh adow
res hold
G lobal
Ġrem aining
P y
index Of
Ġrequest s
194 0
f ound
Ġ" ,
in ate
IN D
ann els
al ity
N T
com ponents
}$ .
Ġt alk
Ġb tn
und efined
M at
Ġbro ught
ch or
Ġact ivity
s f
Ġb rowser
en ge
' ));
or ter
Ġlik ely
IT H
Ġc he
ĠF inal
u ages
Ġ ui
st orage
ĠL in
W R
ĠB ur
Ġappro ach
Ġp ark
ĠO h
sh all
ĠT op
Ġdescri be
Gener ator
graph ics
Ġear lier
param eters
-------- ----
194 5
196 9
NavBar Cell
Ġin str
Ġvoc als
Ġcorrespond ing
ĠBo ard
cri be
UR I
Ġstat ement
ĠK n
g rade
atri ate
ĠK h
~~ ~~
Ġp ers
Ġapp lied
ĠĠĠĠĠĠĠĠĠĠĠĠĠĠĠĠĠĠĠĠĠĠĠĠĠĠĠĠĠĠĠĠ ĠĠĠĠĠĠĠĠĠĠĠ
z one
U LE
Ġdom ain
Pro duct
Ġ queue
Ġfe el
ĠProv ince
C ap
ĠU N
Ġact ress
y g
=" ">
M icrosoft
Ġb ur
Ġd ir
ylv ania
igr ation
Ġlet ter
Ġw alk
ĠC D
A F
Ġh ighest
ad ium
app ed
ĠB ook
w rapper
St ep
f ly
in valid
Ġpre c
Ġsc ience
Ġm ask
Ġlim ited
ĠN umber
prot ected
Ġup dated
Ġlist ener
b i
D uring
Ġline ar
eq ref
tr iev
Ġs n
Ġw oman
ĠPar liament
pre v
mo z
ad s
Ġfor ms
orn er
ut ive
evelop ment
ac c
ĠTe am
at ively
ĠG l
ĠO ld
r ule
H R
par ser
ĠHistor ic
Ġ Î
Ġpract ice
it ation
eq n
Ġproble ms
Res ources
ir med
Ġm essages
TI ME
Ġgr and
ĠT our
am el
Ġan g
ĠT imes
ĠM ur
os en
Re pository
b ot
ing er
ro ke
ĠP oint
Ġs plit
Ġstruct ures
Ġed ition
ra k
Ġopen ing
Ġde p
B S
Ġcou ple
v ec
ĠA wards
z ure
De legate
Ġcon cept
build er
col lection
in fty
F R
Ġs pect
ĠP ath
head ers
Ġart icle
ĠAt l
Ġcom ponents
', '
IP T
ĠIn st
G r
log ger
LO CK
ĉĉĉ Ċ
test ing
ĠP et
ass ets
ĠB razil
Ab stract
Ġex act
istr ation
ĠH ash
U C
word s
Å į
Reg istry
Ġm ut
Ġlevel s
Ġplay s
196 7
Ġtrans l
Ġp ars
ag er
Serv ices
19 30
Ġch ain
h ere
ens es
Ġent ered
Ġstr ings
ĠW ales
it z
=" ${
ĠF ig
J ohn
Ġsh ot
FF FF
7 6
el er
Care er
Ġim ages
Ġl ayout
exec ute
Se lection
re v
Event Listener
it iz
U ri
Ġbeh avior
ĠS pace
rel ated
L INE
pl atform
ex ternal
. \
config uration
IT E
196 4
un ique
C ert
ĠU nder
f x
J ava
de pth
l imit
ĠS y
iz able
Ġtrad itional
struct ure
Ġlo op
Ġrem ain
Ġbr ing
Ġun ion
H O
ĠM ost
ĠP ac
F IG
End point
d ialog
Const ants
ex ists
Ġse asons
ĠN etwork
is c
ĠL and
L a
Ġe as
let ed
Ġtime out
Ġre ject
O pt
CE SS
ĠO p
Ġ" -
ĠCopy right
Ġpo et
er c
ĠG al
Ġend ed
anc er
Ġt err
v ey
d one
ĠM P
IC E
Ġtechn ology
Ä ±
ceed ed
ĠM icrosoft
Ġincre ased
Ġl ack
til de
H ER
Ġstud io
at ur
ĠL ibrary
) ->
Ġ ],
ã Ģ
Ġgo als
Ġh idden
ĠPro gram
ĠM ain
view s
DE BUG
Dom ain
Ġw inning
. ");
Ġgener ally
Ġca used
) /
Ġwh om
E C
W orld
P ay
L en
ous ly
Ġstud ent
Ġleg al
st one
Ġpar ser
ĠInd ex
Ġb attle
ra ction
ĠS oviet
ps i
Ġproduct s
Ġs ometimes
th at
s ys
Ġmet adata
ven ue
tem p
Ġm ention
Ġen um
9 1
Ġpro posed
prot ocol
ex pect
Ġsepar ate
Ġw atch
aw a
Ġeffect s
if ndef
ĠB i
Ġab solute
D S
Ġd ed
Ġimp act
in clud
ul ations
and a
ĠMart in
Ġf mt
Ġpresent ed
ĠH ot
Ġhead ers
Ġexp licit
erv ation
H igh
Ġlo t
n odes
ĠIr ish
Ġla unched
s ylvania
Ġvari ables
w ar
w an
Ġinv ol
Ġsh ift
ĠA R
Ġk ing
L in
V ideo
ĠG i
re ement
f d
Fil ms
Ġr iver
Ġhouse hold
p u
se m
Ġp en
Ġde mon
ĠRes ource
pre cated
Ġbr anch
o z
Ġobt ained
=" "
At t
Ġcre ating
Ð ²
as ure
Ġt im
iter al
8 3
Ġex ternal
Ġcol lect
ĉ ĠĠĠĠĠĠĠĠĠĠĠ
M B
Pro gress
I MP
f ire
} ),
ĠO l
F LAG
Ġch ampionship
Ġp ool
ans as
Ġac ade
7 4
ĠS un
ĠL ove
y cle
19 20
ĠM os
Å Ĥ
riter ia
Ġrespect ively
tern et
Ġm ixed
Ġc ategory
time out
(' .
Ġ ess
Ġco ast
196 5
Ġexp lo
ans ion
Ġre comm
Ġrail way
Ġtr ansparent
ĠW al
ĠB ank
Ġo k
own er
d ed
ĠMed ia
ME TH
U SE
Ġben ef
A CT
R ole
e es
ĠNor thern
! [
O B
t ags
ex tern
Ġactiv ities
ou ter
Ġm achine
ac ro
Ġex port
A X
ĠCol umb
Ġde lay
C RE
ser ial
Tr ansport
ĠRe quest
sh al
Ġpro per
alle l
Ġatt ended
%% %%
r ine
ĠEmp ire
EN SE
Ġex c
196 6
Ġse lector
ĠA rab
C or
ĠYou ng
ĠU k
ĠCh ief
ĠJose ph
Det ails
Ġown ed
Ġt mp
t im
I ST
rior ity
Ġ" <
det ail
h ome
un ct
Ġpr ison
{ "
9 2
ro om
Ġapprox imately
b m
ĠS ocial
Ġtem p
8 1
i ate
Ġ' \
Ġrem ains
Ġcom es
ĠW AR
Ġc ensus
ĠC ross
ĠE v
lo ok
C red
av al
ma zon
ĠHT TP
P ER
line ar
ĠF ort
j ango
Ġvis ible
ĠT im
Ġag reed
F inal
Ðµ Ð½
Ġf oot
Ġcom mercial
F low
c os
Ġmus ical
y an
ĠB ul
Ġsup p
Ġf ish
Ġsol ution
ĠLO G
her ited
ĠI E
VAL UE
Ġph ase
Ġopt s
F S
Ġst ay
ot ing
th row
Ã £
ig a
En umer
are t
Ġ ir
Ġnor thern
> ()
} [
Ġun less
ĠE ducation
sc ss
S ql
tt y
ĠS ol
Ġf ast
Ġent er
ĠAl so
Pass word
Ġp aint
ĠF ri
C ategory
cre d
ĠH ttp
Ġa ctions
sign ature
h ol
V M
Ġs outhern
com ple
h orizontal
ĠS ir
ĠC le
n es
ax is
inn ers
. <
Ġmean ing
g a
33 33
option al
Ġsum mer
Ġfore ach
M ask
oper ator
Ġe vidence
Ġs af
Ġsign al
err ors
B E
Ġsur round
ĠDirect or
( @
d i
ĠG ame
ĠVal id
ĠS erv
or iginal
b old
Ġrg ba
stit ution
M OD
en able
Ġprogram s
am ous
ĠRe act
S ample
e ction
Ġtrans late
in em
G R
sh ared
ĠH aw
Ġle ave
Ġnot ed
Ġimmedi ately
ev al
en ant
RE G
Ġab stract
Ġpl ugin
Ġcoll abor
Ġlog ger
Ġc elebr
Sh ort
Ġover all
Ġold er
w er
Ġcont roller
Ġph il
Ġconst raint
Ġinst alled
% ,
Ġ[ "
ĠU I
Ġmed ical
ĠJ o
ro le
ĠB rown
Ġde ad
p ri
irt y
ĉĉĉĉ ĉĉĉĉĉ
iagnost ics
ĠT able
9 3
Ġsecond s
Ġw ood
is ions
Ġra w
ms elves
sock et
Ġdis e
ver ter
ĠSp ain
Ġbas ic
ĠW ood
B ound
Ġm ulti
ad or
Ġ= ========
j Query
Ġnew sp
å ı
Ġre quires
ĠA SSERT
Ġsu c
ĠP ass
oc ation
Ġdefe ated
it an
ĠPenn sylvania
Ġch ief
Ġpass word
Ġappe ars
con struct
Ġen able
Ġn u
St ats
Ġprob ably
ĠP op
9 4
as ion
Ġ ];
Se quence
Ġtest ing
Ġno thing
= >
Ġext ended
b ro
r ase
Ġm oment
Ġcall ing
in y
p attern
los ed
Inter val
ak a
pon s
O m
s ingle
IT ION
G en
ĠJ ournal
Ġant i
Ġis land
7 3
um s
ĠLe e
Ġthe mselves
Ġan imation
typ ename
ĠB attle
Ġsc ene
Ġto ld
ĠP ak
ĠVal ley
T A
Ġsc roll
se lector
un ior
IN S
libr ary
ĠIn s
Ġqu arter
Ġd rop
RE Q
Ġ_ ,
Ġset up
ut s
Ġm ission
\ ,
D em
Ġl icense
Ġsat isf
mon d
res olve
F ORM
pre t
lo ader
Ġnot e
ĠM i
ĠAl though
p kg
C ar
on a
Ġexper iment
in f
METH OD
d im
Ġf if
Re p
ĠG ar
Ġ ).
opt s
Ġh um
Ġin sp
I X
ach ment
Ñ Į
ateg ories
ĠN AME
ĠH am
Ġmanag ed
r ift
ĠOn ly
de velop
ival ent
oper ation
Ġc md
Ġcomm ission
k in
s lice
Ġparent s
Ġg reater
g reen
L anguage
res ources
Ġsmall er
Ġfore ign
ain ment
ched uler
Ġvers ions
r andom
Ġproject s
sh ift
Com ment
Ġm enu
ĠJ im
ĠCh ild
ĠG reek
Ġpre m
chedu led
fl ag
Ġen v
ĠS to
12 8
Vis ible
N ative
por ation
Ġc lick
Ġb uf
Ġcomp ared
Ġsim ply
anc ell
Ġmag azine
Ä į
Ġprot ocol
side bar
196 3
Ġc lo
ext end
k ens
ĠE lement
Ġsing les
t c
hel per
Ġd ensity
ost on
Ġphys ical
******************************** ********************************
ĠL o
Ġra ised
Ġsc en
F UN
r ich
An imation
comp iler
grad ient
Ġstud ied
pro vider
Ġassert That
sy ch
Error f
as ync
ĠB lock
Ġre triev
Ġappear ance
Ġs low
Pro to
S ort
Ġco ok
us band
S ymfony
ĠM ake
de p
Ġass igned
w a
Ġconn ected
Be an
Se ction
am az
ĠR ef
icens ed
Com par
os oph
iss ues
Ġem ail
Ex ample
Ġblock s
196 2
d p
ĠĠĠĠĠĠĠĠĠĠĠĠĠĠĠĠ ĠĠĠĠĠĠĠĠĠĠĠĠ
Ġan im
Ġde b
Ġch arg
Ġdr ama
ĠP eople
Ġthe me
Ġv s
F act
ĠIr an
ĠSt art
Ġcre ation
; }
I VE
Ġd raft
elli j
Ġqual ity
ĠO f
am ing
Ġecon omic
ĠSt ep
pe ated
Not e
Ġal loc
D on
Ġy ield
Ġdemon str
ĠCom mon
Ġdis abled
s ince
f c
fer red
air man
us et
? >
ation Token
F T
n ce
user name
ĠN ow
ĠH on
et es
I gn
ĠJ an
Ġr an
int ellij
Ġfe ed
l ad
ĠS QL
Ġde mand
ĠE li
ĠR et
Ġmeet ing
Text ure
ate way
Ġem erg
g lyph
Ġbas is
M ath
ersist ent
L P
ĠAN Y
Ġar m
B i
Ã ±
W N
ĠR h
Ġm ix
W ORD
194 4
arri age
aj ax
$ /
Not ification
Ġide a
Ġin ner
ab ilities
ĠII I
Ġweek s
Ġde ploy
k ins
Ġoffic er
at ible
Ġ" $
ĠEn ter
Ġ{ "
Ġfin ancial
D ictionary
Ġb us
ou ri
check ed
N ow
Ġt x
P ACK
Ġc ounty
Ġ> >>
ĠA S
cl aim
f it
i ated
Ġ{ {
ph one
ĠM en
Ġmajor ity
Ġpr im
re p
Ġex it
Ġparticular ly
spring framework
in ity
Comp iler
Ġ Å
m ouse
or ial
ĠRad io
Ã£ o
it ors
Ġsen ior
Ġg reen
check box
Ġv an
Ġdeterm ine
Ġcell s
() ))
ĠHe ad
fr ont
Ġmov ie
ĠSt e
Ġincre asing
if iers
ĠJ ud
Ġful ly
Ġbe comes
ell ig
Ġd ark
Gener ated
ay a
i ber
serv ices
ĠA ction
s b
Ġre b
ĠT H
7 1
Ġre set
cre te
ĠMich igan
Re quired
or ation
Ġpro ps
Ġp ush
Ġs ql
G u
Ġinitial ly
Ġ> >
Ġf arm
Ġsp an
C F
press ed
Ġop port
Ġcandid ate
ip l
L imit
ĠM iddle
ĠÐ ¿
15 0
i en
m id
Ġcon sum
Ġh y
Ġwh y
ap ers
eth er
A rea
cal led
he el
Ġl ived
( /
ĠM ah
arn ings
D at
ĠAs ia
m ir
ĠB ack
il a
Ġfor ced
pro xy
p ull
VAL ID
Ġf le
196 1
Ġf ix
Ġse a
ilt ers
ĠS ar
Ġd im
ed ge
gener ated
ĠSpec ial
ĠL et
con structor
Ġocc urred
cl one
sk i
ent h
r ate
load ed
ino is
'] ['
Fl ag
sq rt
ĠBrit ain
Ð ¼
require d
v ideo
e ffect
enn is
Ġar my
dr iver
ron ic
Ġhe art
Sh ape
ĠOff ice
ext ension
p a
ĠS outhern
ĠF ire
ĠF ROM
con trib
à ¸
Ġm ill
Ġread only
Date Time
Return s
b ing
Ġsign ature
ĠCon ference
Ġpro xy
f g
det ails
Oper ator
ĠIn put
S cal
at ers
Vert ex
ĠOh io
ap is
Ġcap acity
Ġbe coming
M C
D ATA
Ġask ed
Ġg ives
cle an
ir ls
n i
Ġex ports
com mit
Ġse gment
DE FAULT
Ġprodu ce
Ġcolumn s
ib ly
ent y
refer red
ĠC ivil
ec ause
Ġann ual
Ġle arning
Ġbl ue
MO DE
(' /
T otal
Child ren
194 2
r ick
t body
">< !--
Ġrep resents
ĠM ov
Ġwant ed
ĠP rem
ĠLoc al
_ );
che n
s afe
d ot
C apt
Ġgr id
ĠM r
Valid ation
P air
ard en
as sembly
Ġb ass
ĠBo olean
ult y
Ġfootball er
Ġcomput er
trans ition
Ġcent re
' ];
lic t
run time
ĠAs ian
Ġ? >
Ġpart n
= (
N ational
sw er
Ġcommun ities
cl uster
ĠH a
Ġs chema
py thon
Ġab ility
st ar
Ġ_ .
ĠDemocr atic
g g
Ġnull ptr
Ġsh oot
Ġp p
ĠB ob
Ġ ul
(' #
Ġload ed
it able
yd ro
Ġinvest ig
. ",
burg h
ĠPac ific
Ġmost ly
eng er
ak ers
M ouse
Ġmur der
clud ed
w arning
Ġident ity
ph y
< !
ĠO x
B asic
Ġfact or
Ġp ow
{ %
ĠIn v
1 20
m aven
Cl oud
Ġnav igation
u ing
ĠL android
ĠT ro
Ġdepart ment
et ween
um es
re nt
t k
Ġs ens
arg uments
Ġ eth
ind s
dest roy
f ri
Ġpre d
B B
Ġad opt
Ġcol on
INT ER
end or
um my
Ġdo ing
on ce
aw n
Ġexec ute
S K
sub section
Ġrem ote
text bf
an imation
}} \
log in
Ġgrow th
L et
Wh at
ust rial
form ed
Ġr isk
D iv
l an
} ).
I V
Ñ ĭ
ĠJer sey
Ġm eta
ĠArray List
Ġn p
Ġlist ing
ipp ed
Ġthere fore
x s
Ġs quad
Ġcons ists
Ar ch
Ġ' ';
TR Y
D T
Ġag ent
us ers
ain ers
Ġrespons ible
v olume
195 6
up lic
Ġ( [
E V
STAT US
Ġe lections
ĠB ow
ĠRes ult
Ġn ature
con sole
L ibrary
ag on
ĠL em
f ort
eqn array
f actory
ĠBl ue
igh ter
Ġturn ed
Ġlo s
Ġg as
Ġtreat ment
St op
Ġpe ak
Ġnumer ous
L L
P UT
ĠD evelopment
= &
195 8
Ġh usband
az y
ĠWindow s
lo cated
Re port
ĠG ood
ĠO k
S ince
ĠL ord
ast e
Ġpart ial
sup ported
(" /
Ġ= ======
e er
Ġneg ative
ach uset
ĠB or
achuset ts
Ġval ign
P P
s el
Ġvict ory
col Last
ĠC ard
Ġl atter
ĠA tt
Ġpro to
ĠWh at
B rit
Ġ ice
P OST
ĠH ome
ĠD ocument
pr ise
194 8
Ġf ederal
u ite
ĠScot land
ps ilon
M ake
ro ute
Ġ que
195 9
Ġp ages
Id s
ĠAp ache
R R
Ġget s
w hen
eps ilon
Ġc ursor
amp ions
Test Case
ip her
Ġvari ety
T x
Ġtrack s
EL D
ĠAl b
Con structor
ĠR am
S ports
nav List
IG HT
Ġre ach
Ġresult ing
F n
Ġo l
ĠQue en
Ġc hem
Ġuse ful
Argument Exception
ĠK ent
Ġp il
Ġm icro
W ait
Ġar rest
ic ator
amaz on
CO MP
Ġserv e
Ġre strict
En vironment
z en
Null able
ribut ion
ĠAl bert
imit ive
ade l
Ġrecord ing
Ġla unch
Ġdid n
ĠX ML
ĠJ ones
P ub
ĠE ach
Go ogle
ĠM id
m ann
Ġgen us
col First
D b
Ġse at
ograph ic
193 9
ST ATE
t or
od ay
P U
Im port
> :
ĠA li
cd ot
194 3
S creen
und red
ĠEd ward
Ġse ek
s ync
Re lease
ress ion
e lem
Ġp anel
ĠR o
coll apse
ĉ ĠĠĠĠ
Ġs al
Ġre ct
Ġb inary
ĠJohn son
gy pt
Ġocc ur
id ay
d ing
ĠCent re
Ġv ote
Sup port
Ġtyp edef
SE LECT
Ġfig ure
Ġcan cel
ful ly
ĠRep resent
h ref
Method s
A re
ĠC ro
ind er
ĠIm age
pl us
ĠPhil ipp
Ġ ×
ib li
ĠP RO
Ġb all
Ġst ored
Ġserv ing
Ġchar ge
R PC
print ln
a ver
U D
ĠEar th
Dis c
get Element
Ġprot ect
ĠRail way
assert True
fe ature
"" "
Ġget ting
Ġact ors
Ġopt im
Ġas sembly
ĠFrancis co
Ġpos itions
" },
194 1
i Äĩ
"/ ></
Cond ition
Ġfri ends
un a
ĠPro cess
ĠW ill
Ġpre dict
Ġfore st
M ulti
Ġsuccessful ly
em porary
cond ition
195 7
ĠOption al
Ġ" %
ĠJ ac
Ġreg istered
W rit
w all
ic ine
C ALL
ĠCol lection
ĠGeorg ia
Ġfav or
SS L
ON G
Ġmov ing
Ġd ict
DO M
: \
194 6
ĠJew ish
re lation
Ġal gorithm
ĠF C
P layer
Ġun iversity
g ame
in ations
all classes
Dr iver
Ġchar set
am pl
in herit
at ar
ĠO b
Ġm d
ĠIll inois
Ġrepresent ing
[ \
Ġcrit ical
Ġrelig ious
Om ega
Group Name
comp ile
Ġvert ical
u v
M I
mon th
a is
Ġhold s
Ġappro pri
lip se
ĠR os
lo v
ID TH
Ġaccept ed
ĠReg ion
p at
ĠPort ug
iver se
w ild
Ġmod ified
pp ing
Ġn ine
Ġre ader
Ġmin imum
ĠPol and
up load
Ġindividual s
ap os
Ġus age
ell er
ĠEx ample
N ET
Ġcom ing
P H
ĠS ets
get Value
Ġpolitic ians
s heet
Ġpre v
pl ates
En ter
Ġ\ "
Ġst ories
Ġprom ise
f lex
Ġext ract
Ġle aving
M ay
ce an
ĠK ong
ĠR oute
Ġorgan izations
ore st
ur face
ĠD utch
ĠGovern or
G amma
Ġsh ips
ra st
Ñģ ÑĤ
Ġst ars
Ġ il
Ġl ives
Const ant
L ower
Ġst ra
Ġm ult
A ng
Ġin come
Ġf iction
Ġa xis
S V
F in
valid ate
Ġdr ug
S l
oc ity
s a
Ġrecent ly
Ġcom edy
Ġpl ans
Ġm atter
ant e
ĠB oston
Ġb rief
sk y
195 2
DE F
Ġclaim ed
Ġv oice
Ġl ay
n ob
z ip
Ġneigh bor
d uration
D IS
b ul
Ġf un
B atch
Ġcar ry
Ġres olve
ĠCo ast
Ġprovid er
f ixed
Ġhelp ed
Ġhe avy
Ġret ired
} _{\
STR ING
Un ited
Ġresp ond
at omic
Ġhistor ical
EE EE
Ġwest ern
ĠP age
ĠM ajor
MOD ULE
Ġdocument ation
ĠMass achusetts
" ],
se quence
object s
Ġsett lement
Ġpr iv
ĠIn f
ĠT R
Ñ ĩ
Ġsay ing
ĠL ab
194 7
B AR
B inary
T T
C ONT
# {
ĠIs lam
Ġf ill
Gener al
ĠWilliam s
ĠSo ftware
em it
Ġwork ers
b ury
B al
Ġh ospital
vari ant
ss l
r um
ĠY our
ĠT w
Ġelect ric
Ġrefer red
Ġ{ },
on to
195 5
Fail ure
ip ment
; ">
Ġan not
Ð ¿
Ġnear ly
CH AN
Ad min
ch ain
am m
AR G
ĠF ree
Ġ" ",
Ġdet ail
Ġtr igger
dis able
ĠG lobal
Pl ace
ĠPl aces
Ġm is
Ġs ense
y ing
Ġ rows
ĠĠĠĠĠĠĠĠĠĠĠĠĠĠĠĠ ĠĠĠĠĠĠĠĠĠĠĠĠĠĠ
R ob
Ġcont ents
Ġoffic ers
rad io
Ġc arried
Str ategy
Ġm erg
g oto
li a
Ġsp read
Ġpo or
hen s
se ud
; )
em ph
Ġent ries
Ġstre ng
Q U
Ġprof essor
v c
Ġfe at
Map per
M ove
Ġbr idge
Ġc itiz
Ident ity
Ġoper ated
Ġinter view
ur er
ke e
p df
ub ern
art ers
/ _
." ""
clus ion
se x
Al low
ĠB as
ĠS und
d y
Render er
Ġinflu ence
is Empty
il ly
Depend ency
and on
eder ation
is hes
Ġconstruct ed
CT YPE
orn ing
ĠC E
: `
por ated
Ġb att
Ġpat ients
re lease
ĠL uc
Ġm iss
B egin
Ġver ify
N V
Ġre li
ĠC ount
Ġquick ly
F urther
de mic
Ġ@ "
Ġde pth
Brit ish
Ġs ister
com plete
ĠV ector
Ġa udio
Ġb its
medi ate
play er
Ġautom atically
Ġpres ence
Ġeffect ive
iagnost ic
p erson
ra pped
Sh ared
Ġclub s
ĠC apt
anc ing
Ġsup ports
Ġsum mary
d ig
ass andra
urb an
Ass ociation
Inst all
ĠEast ern
ĠRem ove
ab eth
Ġth reat
Ġoffer ed
on ic
ct rine
form ance
Ġcover ed
Ġign ore
Ġs ys
Ġcompos ed
S ave
G ame
Ġexec ution
cf g
lo op
Ġpur pose
Ġmatch ing
ĠThe atre
it ness
ĠThe ir
Pro gram
Pr ivate
J oin
em y
Ġc ities
M er
k t
aps ed
Ġc li
Ġs ociety
Ġr u
Ġc ouncil
Ġex am
Ð° Ð½
Ġth ing
SC R
ing ham
ul pt
Ġs afe
Ġ ..
Ġatt ention
195 4
Ġobserv ed
m ult
ĠPol ice
Ġal leg
act iv
ĠC EL
oc cer
ĠAn y
Sum mary
ĠG ra
i Ã³n
F ocus
it age
n ic
Ġdes pite
ier arch
CH AR
sp irit
ĠB it
ok ed
M IN
i h
Con vert
ĠSe a
v o
uss ian
ed ia
ĠL ink
Ġspec ify
Ġse qu
8 00
B IT
C LASS
ĠB ern
out heast
Ġle arn
Ġh ockey
ĠSec urity
W ord
T ags
ĠCh annel
194 9
ĠB ang
_ )
b its
Ġint ended
: [
P romise
ĠV an
oun ce
Ġorder ed
Z one
Ã¡ n
rypt o
' ll
Ġm ultip
EEEE FF
ĠH ung
Ġth r
ĠOffic ial
ĠA mazon
p od
ĠJ r
IO Exception
t ely
ĠL L
=" $
r an
ĠB usiness
Input Stream
S I
Ġview s
Ġend point
Ġany thing
Bind ing
Ġacc ur
Ġreg ions
Ġdig ital
f ix
0000 0000
Un known
ĠB al
Ġf amous
Ġs quare
ac cept
S pan
od ies
Ġarchitect ure
Ġexpand ed
Ġhigh ly
Acc ording
Ġperson nel
ĠSt an
Ġregion al
D ay
DO CTYPE
Ġ' '
vis ible
Ġknow ledge
mer ge
Exec ution
ĠN ight
Ġch unk
US ER
ĠSen ate
b g
ĠL atin
por ter
ĠSt at
en ch
Ġp i
Ġdecl ared
R C
uff ers
' m
NS String
ĠB ad
ĠColumb ia
o les
Ġg uest
Ġmet al
numer us
Ġd st
numerus form
Ġconc ert
> )
Ġd uration
S ome
N ormal
ĠĠĠĠĠĠĠĠĠĠĠĠĠĠĠĠ Ċ
Ġtry ing
ĠA uthor
H tml
v are
ĠE con
195 3
Ġ' ',
Ġdel iv
for Each
Ġgo es
Ġdiffer ence
rain ing
Ġiss ued
Ġm useum
in itions
M T
ĠE p
ic ip
^ *
ĠS IZE
group s
ĠC lient
ĠScott ish
Ġhigh light
ĠW is
f ect
Ã ¸
ĠK en
ĠOx ford
En v
Ġac quired
Valid ator
ĠRev iew
Ġapplic ations
Ġlang uages
A SSERT
Ġlook ing
å Ī
alyt ics
s r
Ġbo ost
is set
F amily
ĠSecret ary
f mt
ĠPr ince
Ġv on
ch er
R aw
Ġsubsequ ently
j oy
Ġdest ination
Ġmain ly
al ias
Ġgener ation
^ ^
Ġread y
as er
Ġt ags
Ġb ul
> ;
ess ions
Ġdes cent
Ġder ived
Ġpart ies
in ent
ĠH ere
195 1
ĠS l
ag ination
.. .</
Ġw ild
t race
item pty
Ġill ustr
Annot ation
ep end
M essages
L ook
Object s
Ġs ites
ĠD im
ĠWAR RAN
ä »
Ġed uc
om itempty
exp and
z z
ORD ER
ĠM ember
Ġse em
v in
ĠCon f
ap h
d k
Ġs ync
pos es
Com m
App end
ie ut
M usic
OR TED
ab y
Ġprocess ing
F ragment
ec es
ĠD OM
ud get
s n
Sk ip
y o
Ġrequest ed
Ġcomb ined
ur ies
Res olver
Ġbel ong
ï »
ĠD ist
Ġf irm
ĠPro perty
Group s
bl ank
if i
ĠP ower
Ġe le
ĠM u
Ġtyp ically
c li
ch art
ul ator
OR Y
T F
ex ist
ĠM any
Us age
ĠC ustom
z ero
Ġe q
b atch
an try
de g
t f
Ġbeliev ed
equ iv
ĠW ay
te en
Ġz one
re ce
Ġass ign
met ric
M ore
Ġbr and
M ill
Th row
Ġvis ual
Re v
Ġprovid ing
Ġe arned
ĠBO OST
Ġinter val
r uby
ĠA ri
H ow
Ġp al
gener ate
ĠBer lin
ov ed
AN CE
6 00
Ġ" ";
Named Cell
th ur
uz z
re port
NavBar Font
Ġlead ers
Ġref lect
ï» ¿
L eg
ay lor
ĠE gypt
ĠD own
nt ario
ry ption
atic s
l at
Ġj oint
ĠUS A
Ġperm issions
ind ent
Ġex change
j pg
Ġlaw s
Ġw or
on ia
uck y
be an
ĠW ild
con vert
25 0
or igin
ĠR ay
Ġre ports
Ġrel ations
set up
A udio
RES ULT
Ġcompet ed
ag ent
ĠC reek
Ġg iving
ĠCor ps
Ġredu ce
Ġident ified
im inal
pt on
G ER
S im
yd ney
rac y
D iagnostics
ex it
Ġn orm
Ed ge
qu is
Ġsk ip
Ġo il
Ġsp irit
ĠJack son
HER E
che ster
Ġmark ed
t ers
Ġc at
bl ue
Ġl if
id ents
ĠH ong
Ġdisc overed
E ST
we et
Ð¾Ð ²
ass ign
ĠL ight
w d
s imple
Ġch oice
bserv able
() ),
Ġmunicipal ity
ĠÐ ¸
> '
ĠJ es
Ġ ult
ord ers
s he
ĠJe an
ĠSt ation
ĠSt atus
ĠCor poration
ĠA ff
ĠAL IGN
Ins ert
Ġoff ers
Filter Database
Ġocc urs
d ash
ĠS and
, -
D rag
ĠH ospital
im ents
Ġop acity
ĠM anagement
Ġequ ivalent
ĠAnd rew
ĠM ot
Ġtri al
Ġpress ure
193 6
Ġd iss
ĠB re
( .
Ġvalid ate
Ġpr ice
Wh ile
Ġw rong
Process or
Sh ould
ĠE lect
Ġ$ {\
greg ate
ĠL ittle
tr l
Ġreturn ing
__ )
ra ine
Ġres erved
Ġtemper ature
ĠBo th
ĠS ource
Ġredu ced
Ġinst ances
' ve
al og
F ree
c over
W est
kw args
ĠÂ £
% "
ĠAlex ander
ĠE st
ic ed
Ġp lot
F E
Ġd oub
19 18
Ġconvert ed
ĠTechn ology
Ġw inner
ĠIl legal
n n
Ġcomple tely
t ar
ic ol
ĠW ater
Not Found
ĠSh ort
r g
Ġ Ø
a ught
put er
mem ory
'] );
b us
Ġoper ating
as is
ĠB ol
S ources
ch a
ĠBro ok
ĠH arr
Ġc er
Ġa wards
ĠS om
g overn
Pl atform
! !
s en
ĠM ock
Com plete
or i
ad ing
Serial izer
b at
C B
% )
vari able
Ġs b
ĠF ar
Rem ote
Ġde cre
G O
m essages
an z
Ġc ultural
Ġon es
Add r
element s
ivers al
ĠW rite
ĠKore a
oc aml
ĠJ oe
ĠD O
Ġassoci ation
vert ical
d c
Ġdeterm ined
H ome
c ircle
ĠServ ices
ĠR est
Ġbase ball
Ġstart s
N UM
Ġdise ase
193 8
ubern etes
sw arm
ĠRec ord
ĠVictor ia
Ġd imension
ĠArg ent
ĠE ND
alt y
W arning
ord ered
p et
ĠL oad
ĠW all
art icle
Ġyou th
F older
c atch
Ġland s
Ġhous es
olog ies
ĠBel g
est er
/ {
Ġvalid ation
ĠF our
Ġp ul
Ġdist inct
Ġw ays
ĠIs lands
w p
Person al
Ġtr ust
Ġd ialog
Ġw idget
A ustral
ra wn
ĠW ITH
Ġs ynchron
o ir
p olicy
ĠR ow
] ))
Ġdoc uments
x html
Ġag reement
Ġest imated
s ome
**** **
Arg uments
s id
put y
ĠS ports
cont ents
Ġresid ents
Ġ" .
Ð ·
ieut enant
W il
ĠLi ber
re du
em bed
ĠCont rol
z ech
l arge
/ "
ĠPol ish
Ġro les
Ġfor t
el astic
al ert
ut down
t ensor
rop ol
LO C
Ġeast ern
w iki
Ġf ramework
Ġv en
Ã º
Ġm arriage
ph ia
ĠT re
ĠO s
wild fly
ĠA k
Ġis n
ellig ence
ect ors
Ġw aves
it ical
lo ts
Ġcomp are
m iss
Ġdown load
ĠL ater
y er
In ner
Ġdis k
og ram
iqu es
ro vers
Un iversity
Ġliter ature
ĠS ign
Ġro ut
Ã© e
Ġf lex
Ġlabel s
Ġflo or
T wo
Cont ents
Ġident ifier
Ġtro ops
up s
U ES
: '
ĠJ on
Ġ' .
w ater
rt l
F N
ĠOr gan
Ġp ull
Ġnew ly
high light
ix els
r angle
Ġepis odes
=\ "
Ġnot ice
B ro
Ġappear ances
Ġv el
ĠH uman
pe ar
ĠOut put
ĠB a
ĠC y
down load
L ambda
Ġn ation
v ant
de precated
á ĥ
r ical
ĠD ub
s es
ĠD ar
c lo
Seg ment
Ġc lock
AT TR
193 7
ul f
Ġstr ategy
Ġel if
Ġf ellow
Ġexecut ive
ĠJe ff
cre ated
Ġrun time
Ġ| =
Ġrefer ences
ĠGu ard
Ob server
olog ist
pro du
Ġprom oted
comm ons
ĠS em
p ur
ĠWe ek
ĠL com
LO W
Ġwe ap
Ġ' %
Ġexample s
Ch ain
c ountry
ĠĠĠ Ċ
Ġdev ices
d iff
B ook
T imestamp
V AR
Ġsecond ary
Ġra re
ict ed
æ ľ
Ġm o
) =
N C
Ġadd ing
ĠRepublic an
Re al
enc ode
ĠSe ction
v s
ĠS D
f lo
h u
Ġs light
class Name
Ġfif th
ren ce
Cont ains
Ġw arning
C md
bo se
ĠDE FAULT
am ber
Ġan c
Ġg un
am er
ĠL ib
T ax
Ġh yp
eta iled
Ġded icated
stru ctions
adel phia
S M
Ġreve aled
can vas
to Be
Ġdestroy ed
ĠDan iel
ĠAb stract
enn es
Ġro ll
re act
Ġmention ed
Ġe asy
AR N
Ġstat istics
ĠCre ates
FI ELD
Ġevery thing
st able
Ġexp atriate
Em ail
P HP
as m
inn es
de m
Ġad ult
Ġ ----------------------------------------------------------------
Us ers
Ġ Query
ĠOlymp ic
Ġmaterial s
Î ±
Ġcon version
n ative
trib ution
C G
z abeth
Col l
Ġac com
Ġtask s
the mes
sub scri
B est
if fer
Con nect
V ICE
Ġm ouse
Ġtransfer red
S m
ĠOr iginal
) $.
Ġprov ince
include graphics
ĠH y
t i
Ġarr ived
w orld
Ġadministr ation
Ġdr ag
f etch
Ġac comp
T imer
In ternational
ash ion
clus ive
Ġh undred
res p
Ġfl at
WE B
comp are
UN D
\ /
Ġes cape
Ġb atch
ole c
R ate
P si
Ġmer ge
ĠDe lete
ĠS E
Ġconnection s
å ®
arri er
} =
Ġch osen
Ġconduct ed
Ġs ocket
ĠD er
cd n
str ings
Ġde legate
}^ {\
Ġimplement ed
Ġon to
UR CE
CON FIG
B Y
st ein
ro g
Ġwe ak
ĠL y
Ġem b
il li
Ġeffort s
Ġsit uation
os a
Ġpro ced
an th
plement ation
Ġart icles
HE AD
C ard
ĠMus lim
per or
INS ERT
S ame
0000 00
Ġnear by
ĠComm unity
ĠĠĠĠĠĠĠĠĠĠĠĠĠĠĠĠĠĠĠĠĠĠĠĠĠĠĠĠĠĠĠĠ Ġ
w eg
DE X
P Y
int eger
(" %
app a
Ġa ffect
ch anged
ĠC SS
ĠB ra
Ġtool s
v an
s ass
face book
b lob
Ġcol span
ĠP en
innes ota
av ailable
S ep
ĠO ntario
P resent
ĠS pring
Ġco q
Ġlate st
Ġc ru
Ġchall eng
ĠR aj
ĠPak istan
^{ (
ĠW el
h ard
AT CH
Ġm apping
Ġhon or
pro of
Err ors
ron ze
Cle ar
y y
Ġas pect
Ġpro of
p res
W allet
ĠB BC
Ġp ra
Ġsup ply
Ġalong side
ĠR en
Ġprim arily
Ä ĥ
b lack
Lo op
Ġcop ies
im p
sub mit
Ġallow ing
Ġre named
pl ain
ĠT ok
ĠReg iment
go ing
Ġnewsp aper
ĠR a
Ġappropri ate
æ ĸ
IL D
d rag
ĠSer ver
av or
ĠM aster
ext ra
ex pression
po inter
ĠS ydney
St atic
ĠCO VID
Ġl ab
> "
S em
al o
Con sumer
ĠA sh
st rip
ĠJust ice
Ġsurv ey
ĠR og
vare psilon
Ġt ensor
Ġfeat uring
ĠRes ponse
Ġapplic able
d atabase
s ible
D R
enn a
Ġt d
ĠSup port
Ġs cheme
v ol
) [
Ġiter ator
M ount
ĠIn formation
ĠO ur
Ġcon cent
anag ed
ĠKore an
b ec
ath an
Ġsil ver
19 19
Ġcont ained
ĠPri ze
ace book
od d
Ex pected
re peat
Ġassist ant
ĠS ant
Ġexecut ed
Ġcapt ured
Ġb uy
L android
Ġtra ffic
n p
Ġg irl
per m
D rop
Ġlog ging
ĠAir port
re cated
ĠK enn
Ġcre w
t w
Ġc e
Ġse ems
ï¼ Į
et ic
ĠTh ree
Ġs port
ort heast
ook ie
ic ans
Ġ' ./
ĠF ind
p ared
re ader
Ġbe y
ĠMin istry
Ġcan cell
cons in
M any
ĠS a
Run ner
j ac
ç Ķ
Ġrec ip
Ġmot or
am in
. }
ff f
Ġcan cer
Al loc
Ġbound ary
ut ral
ð Ł
Ġgrant ed
Ġsaf ety
S outh
A UT
de cor
Ġclass ical
ul y
Ġa lias
Ġacade mic
pect ive
Ġim g
ĠO S
C ur
nob r
Ġanc ient
p air
ĠV iet
se par
ag ger
ĠB and
lic ense
193 5
Ġa thlet
c u
ĠN AV
Ġ\ ,
Row s
u uid
ĠSc iences
M o
Ġenc our
p ower
Ġnot es
ater n
ĠV ill
ĠProf essor
) ",
g i
ether lands
ĠB on
D ATE
Ġle aves
Ġcapt ure
Ġdec or
y al
Ex ists
ĠPr ime
ĠS us
h l
direct ory
Ġin h
ab out
Ġdr ive
che stra
pr iv
Ġconf irmed
" |
ĠF ederal
pl an
" ].
ĠA ccess
var phi
Ġt sd
Re quire
F uture
Ġst reet
ĠUn it
Ġse ed
R T
ĠSt ream
sp i
los ure
Ġimpro ve
, '
al so
ĠSup reme
FF ER
ãĢ Ĥ
V D
Ġc ult
Ġ$ _
Ġbro ad
const ant
Ġel im
Ġs y
tr im
Ġloc ations
Ġke pt
Ġsem i
B ool
Ġgrad uated
Ġtrans lation
F ALSE
Ġprinc ip
LI ST
ear s
19 33
Ġf it
Ġm ind
Ġshow ed
Ġp urs
< <
Ġst ock
Ġfl ight
Ġpay load
Sign ature
H ub
Ġsold iers
Ġbey ond
ĠRe al
In formation
A bs
pro gram
ĠCon nect
g ments
th rift
create Element
top ic
ĠPl an
PRO C
bit r
H is
Ġsc ulpt
quot e
Ġag o
ot ic
ow a
Ġs aved
Ġser ious
ĠB C
ĠM ike
Ġb lood
ĠQue ens
PRO JECT
Ġst eps
a ug
Ġdiv ided
Ġcont est
j et
Ar r
10 1
ĠS ong
() </
Ġ ^
AT ED
ak i
SCR IPT
ĠH as
N N
fl at
ys ical
Ġem bed
m ad
I A
Ġqu ite
ĠO tt
U ST
trans action
ĠW alk
if ically
Ġdes criptor
Ġbe at
ĠS imple
I AL
ĠTor onto
ĠS earch
right arrow
bour ne
Ġs ales
LIC ENSE
IN ST
ip h
ĠH AL
ĠConfig uration
Ġp et
19 14
ĠA venue
j ax
Ġtrad ition
EN TRY
c irc
19 00
getElement ById
Ġbe aut
ĠC at
Ġcho ose
Ġin depend
Ġequ ipment
M ag
Ġtw ice
ĠD ig
Ġsol o
Ġindic ates
Ġd ut
Ġshe ll
Ġgu ide
. ~\
LE TE
ou red
> \
patch er
Ġcon ference
om er
Ġall Classes
B ounds
Ġp iece
ĠR od
ce st
Ġt imestamp
i ar
it led
Ġ era
qu arters
ĠDes cription
}, \
reg on
Ġd ynamic
ĠT y
Ġex pert
C ounter
Column s
ir ation
Ġl abor
ap es
193 4
RA Y
h avior
Ġdis able
Ġl y
ĠW rit
act ivity
de fer
al ion
f ake
å Ĳ
Ġhost ed
Ġinstr ument
Ġassert True
Ġ ri
ĠN a
Ġl ies
Ġrece iving
An alysis
ĠO N
Ġc ached
cal endar
Met rics
ur ance
ĠallClasses Link
h pp
ĠF il
ĠHand le
: @"
Ġst yles
ĠI ter
ĠB oy
Ġle tt
Q ual
amil ton
St ub
Ġf air
op es
Ġclass Name
Ġpl anned
C ursor
Ġs yn
glyph icon
ĉ ĠĠ
Enc oding
ĠBy te
c ursor
est ic
b asic
ĠTh read
Ġf elt
Ġd ie
12 7
Ġdam age
eg o
in son
md c
Î ¿
Ġw inners
ĠR ome
Ġsome one
Ġtit les
RE D
ef e
ĠL at
Ġfac ilities
19 29
un te
ĠCh ris
MA P
Ġprogram ming
Ġen joy
ask a
co ok
Ġeas ily
let s
ĠW in
column s
ĠN ative
ĠZ end
Ġte le
ĠM arg
Ġmusic ians
load ing
T im
ong o
W IN
ag a
est ab
Decl aration
Ġ` ``
Ġtra ce
y ard
Ġcomm only
B ottom
Ġover flow
ĠDes ign
Ġbeg ins
Ã ¢
G LE
ĠWil son
Ġaltern ative
ge q
n ab
se q
Ġpass ing
lic enses
Ġunder stand
Ġadministr ative
lo ss
un es
m ac
au x
m ix
ibli ography
ĠL ew
ĠCon text
TI ES
19 28
P red
Ġstra ight
ĠS V
Ġ' "
Set ting
Ġsh all
B its
Ġreview s
19 17
method s
ĠB att
ĠE RR
add Class
Ġend s
Ġst ats
S witch
ĠIN TO
ĠT er
isl ative
LE D
! <
per ial
Ġcomput e
m atrix
over line
t wo
ĠN ations
ĠAnd roid
B L
ic ial
18 0
or ient
Ext ensions
ress ed
em et
nd ered
Ġperm ission
ĠAnt on
Ġb ug
Ġg ra
d st
Ġatt ract
N ov
ship s
ĠL im
end point
id ence
ĠC G
D ig
Ġp ref
Ġ" '
Task s
ĠA rea
Ġf ragment
b el
s pe
Ġ- =
Ġclaim s
Ã ¥
ang a
ĠRe port
A xis
M anagement
Ġl at
P OS
Ã© s
Ġc orner
ĠWARRAN TIES
Ac cept
ĠEli zabeth
Ġad min
ĠF air
rop ical
arr ing
f ol
H L
go og
Ġoffic ially
Ġc ars
d ocker
Ġp erman
Ġmod ify
t ouch
ĠGu ide
res ize
ĠSt adium
ĠRev olution
Ġb re
Ġad vis
Ġra ces
ĠNAV BAR
Ġad just
Ġth ous
19 32
Ġcl in
Ġre asons
Ġdepend encies
refer ences
Ġp itch
fe ed
.* ;
ĠĠĠĠĠĠĠĠĠĠĠĠĠĠĠĠĠĠĠĠĠĠĠĠĠĠĠĠĠĠĠĠ ĠĠĠĠĠĠĠĠĠĠĠĠĠĠĠ
ĠL ive
Ġtri ed
Ġexp ansion
W atch
E ffect
ĠM ic
onym ous
on al
FI X
on omy
get Id
ĠN C
C ancel
Ġ( ;
ĠR om
m ulti
V irtual
ĠP romise
pect or
AC H
Perm ission
ak h
EN ABLE
Ġa im
ĠS ab
ÑĢ Ðµ
Ġpe ace
ĠT aylor
ab br
Ġe lev
Ġdepend s
Pl an
å ħ
Ġpath s
ad r
ĠV ari
Ġg rew
T Y
ĠC urrent
e z
ĠS anta
12 5
Ġw ing
ag ma
ut ed
rem arks
A SE
ĠV en
We ight
ĠInd epend
Ġ" ${
tool bar
S W
ĠK r
Nav igation
F ig
ap pro
Ġpl ants
ĠG ro
weg ian
Over view
Ġinitial ize
s ig
ĠPrem ier
Ġaddress es
li k
L ight
Ġfocus ed
ĠWis consin
ĠMed ical
ĠW IDTH
i y
Ġdet ect
Ġform ation
Ġmon itor
Con sole
Ġres ist
Ġmin ister
ĠK im
19 10
Ø ±
Ġr ural
Ġparticip ated
SP ACE
ĠA thlet
Ġsh op
com pute
Ġw all
c ancel
ĠU til
Cont act
is ms
t imestamp
Ġconstit u
Ġj s
Ġprote ction
ik a
S plit
l ife
ck er
if ul
ĠSwed ish
ĠPhil adelphia
ĠL es
Ġpart ition
annot ations
ĠAd ministr
v ement
se lection
se ason
ĠM innesota
) $,
Ġis ol
M aterial
Ġlead ership
is a
ĠD B
Ġad vert
] ->
ly n
ĠL ast
Ġcl one
ĠApp lication
Ġs and
Ġal one
Ġch ampion
act ual
ap ed
d imension
Ġbeliev e
rupt ed
Ġsample s
Ġr atio
f ast
Ġcl imate
ĠEn vironment
ĠPe ak
s ym
L ib
ĠPro t
ĠC ore
ĠPub lish
Ġt ell
= %
ĠT ai
over view
ap ore
th m
Dep th
sp acing
iss ue
Res et
Ġp sych
F ore
Ġcomp ilation
Ġtop ic
Ġmount ain
19 24
Ġc amera
g ar
O lymp
Ġatt ached
Ġ} }
z h
Ġcal c
f p
ann a
ĠTur k
T uple
E val
Ġinstit utions
emet ery
Ġcomple tion
ĠCl oud
Con verter
C M
ĠStud ies
ĠMed al
ĠC H
ĠK el
/* !
L icense
op her
Ġadv anced
p son
b c
Fe atures
or al
ll a
B order
e a
ĠBr idge
Point s
ra q
Ġrecogn ized
Ġf ake
Ġcompos er
Ġk ill
b d
ĠN etherlands
Ġr ugby
Ġload ing
/ .
anch or
Ġcontin ues
Ġass ume
valid ation
G erman
19 22
ĠOper ation
66 66
ĠC ub
ic ode
Ġun iform
Ġb in
Ġofficial s
Ġhistor ic
Lin q
ph ony
zon a
ri e
A zure
ĠDu ke
pend ing
ĠTh us
Ġphot ograph
ĠF ollowing
Ġf rag
cre ment
Ġag ric
ĠÐ ½
Ġmet ric
A nt
cont act
t l
ĠPar se
Ġgrow ing
ĠH ay
Ġprinc ipal
in ant
reate st
Ġstr ugg
AT OR
Ġt er
Ġattack s
net ic
Ġcon sec
Ġd ance
m ount
Ġs urn
Dec imal
ĠCam bridge
Ġc b
ĠD ouble
EX PORT
UM M
ru it
ĠAn th
ed u
ĠD rag
ys ics
el a
pre vious
rit ical
Ġg a
ict ures
ĠA h
Ġprom inent
Ġpars ed
F rench
het ic
(" #
uplic ate
ĠB h
Ġveh icle
get Instance
D P
Ġlist s
Ġmat hem
ĠC orn
Part ition
Ġpart ner
Ġsugg ested
Ġtem ple
St andard
Ġres olution
Ġsubsequ ent
) -
enc oding
Ġfrequ ency
Ġme ant
NO DE
re pository
Log in
ĠBr ig
Ġrest aur
Ġp aid
Û Į
j an
Ġadopt ed
Bi ography
B uf
Ġm iles
Ġs an
As sembly
Ġprom otion
sh a
ipp ing
es ian
(' <
UN T
193 1
Ġf ans
in ject
ir k
Ġcont rovers
Ã «
R andom
Ġen umer
ab ric
e ast
nav igation
a udio
n of
Det ail
Ġfre ed
Ġnot able
ĠF amily
ĠS on
Ġprocess es
ĠN on
En able
S G
19 27
Ġr ing
Ġv otes
decl are
Ġent r
Ex port
Ġs ending
f old
Id x
Ġs ynt
AR D
ĉĉ ĠĠĠ
Ġorgan ized
Ġthrow n
ot on
p lot
T ok
greg ation
Ġal ert
Ġact ing
Ġhous ing
T ile
Option al
Ġbo y
Ġwide ly
display Name
Ġserv es
ĠAr m
H older
' d
ial s
Ġb illion
R ules
Draw ing
Ġcr ime
= -
ĠO regon
c assandra
Ġext end
Ġv ir
Ġindic ate
c ow
BU FFER
ĠC a
ĠN av
form er
c raft
Ġf s
h line
Ġh our
scal a
p in
L Y
rypt ed
Ġbind ing
l int
ĠC ountry
sub ject
Ġv m
os is
Ġteach er
ĠCol l
for ward
ge bra
ĠB udd
Del ay
an im
W omen
P res
m k
T ouch
Ġsp aces
SO URCE
Ġadv ance
is er
Up load
Ġsex ual
ĠTr ansport
al ing
Ġquest ions
Enumer able
pop up
ĠW inter
ĠB ell
ĠDav is
ĠVAL UES
ch unk
Ġt or
ĠG a
Sup ported
an de
Ġequ ation
b ute
rem ote
Ġest ate
Ġcompar ison
Pre v
ierarch y
H S
Ġass ess
lic ations
19 25
Ġhousehold s
con cat
Ġra pid
19 26
Ġh abit
d on
The me
ĠBe ach
Ġshow ing
= [
ign ore
Ġre pository
elastic search
im b
Ver ify
and o
="../../../../../../ ../
ra structure
Ġpurch ased
" ];
Ġmed ian
Ġcy cle
Ġatt end
ĠĠĠĠĠĠĠĠĠĠĠĠĠĠĠĠĠĠĠĠĠĠĠĠĠĠĠĠĠĠĠĠ ĠĠ
def inition
Array List
================================ ================================
Capt ure
ru les
p b
1 10
ĠT ag
ĠInd ones
IN VALID
Ġt ells
ur ches
itor ies
ĠSwed en
w ik
in er
Ġphil osoph
Ġcommand s
w arn
ĠIndian a
F ixed
( ['
Re ason
log ging
f i
Output Stream
ĠL ady
ak s
Ġf etch
ag raph
Ġattempt s
Ġp ending
I tal
ĠD oug
Ġch annels
Ġgo ogle
Ġ' _
Ġconf lict
rel ative
ĠD or
19 21
Form s
ĠB ishop
19 12
ĠS quad
Ġs cheduled
ĠSund ay
Ġpre par
ĠAn other
Ġpro pos
S elf
Ġm otion
ĠS i
ast y
Exec utor
Ġess ential
Ġlarg ely
ĠG er
ĠP u
ĠN ext
our se
M ut
j ack
as hed
ID E
co res
S ite
Ġpar ish
( --
] +
Ġcom ments
Pro f
ĠI L
Ġtre es
ĠH ind
ĠBar on
arch ive
o a
Ġconcent r
Ġcandid ates
ise cond
ĠH un
OP T
ĠF OR
Ġp iano
) ^
Ġcomb ination
ĠG reg
Ġcl oud
ge o
M aster
are n
ibr aries
ĉĉĉĉ ĉĉĉĉĉĉ
C enter
Dep recated
13 0
ton soft
Ph i
mer ce
Ġsupp lied
Ġgovern ing
Ġc art
Ġport ion
Ġterr itory
A wards
Ch unk
Ġdefe at
Ġmerg ed
F OR
IL ITY
ens ure
es ome
ĠFore st
ĠColor ado
ĠW at
vent h
Ġd og
Ġcont rast
lic a
B ad
om ics
Ġ' -
ion e
Ġs pring
Ġan swer
ĠL anguage
ĠBuild er
ä ½
ĠCon vert
ast ers
A ST
Ġpolit ics
Ġregard ing
T AG
Ġadv ant
Ġun able
Ġ< -
Ġengine ering
Ġ ig
c amel
eg ative
tr ansport
lo cale
Ġl ap
if er
U nder
Ġprior ity
Ġt al
ĠCont ent
ĠG re
Ġgu ard
ip er
ĠSt eve
19 23
in x
ĠM ir
ĠN et
Ġh ol
c ers
b log
t ile
Ġd aily
ĠM ilitary
Ġengine er
ĠGold en
Ġan chor
E P
G EN
Ġp le
ĠS pe
low er
des ign
Ġf ine
ĠH al
Ġs ector
head ing
Be en
ĠUk raine
ĠI V
Ġb urn
% .
Ġ uri
amb ig
Ġb ow
Ġfact ors
ĠP os
P lot
7 00
ul ing
B I
r pc
l ah
he im
br and
Ġw ind
s che
Ġp airs
LE MENT
Ġs ust
ĠSer b
F ilm
hes is
Ġfound er
li bs
Ġhapp en
Ġdro pped
SP AN
ĠMiss ouri
ER S
Ġimp lied
Ġexact ly
ĠCar l
Ġpl ane
ĠCast le
Olymp ic
ar se
h aps
sub set
get Class
E Y
Ġrequire ments
CRE ATE
ĠS af
ĠB u
Ġhand s
Ġcomp iler
ĠF ox
ĠH an
Ġmedal ists
} ",
/** */
ipl om
Ġfig ures
ĠH amilton
Ġcan vas
ra it
Ġg oto
Ġres ident
Ġstr ateg
erv ative
Ġvert ex
Ġfac ility
ĠT urn
ab c
= $
Ġ rom
c ue
p ic
Ġst one
L iteral
ost er
ropol itan
ĠâĢ ł
Ġauthor ity
UE ST
let ter
iv ation
Pop ulated
f red
ut t
l iving
Ign ore
el d
per iment
ert o
ang el
Ġm obile
de lay
ens is
Ġind ustrial
ennes see
ĠC ase
ĠSt andard
ĠCh ange
(' ./
ĠS H
Ġw orth
Ġw rest
Ge ometry
R out
o es
ound ed
XX XX
/ ">
ĠDis c
Y Y
RE CT
Ġco al
AA AA
Own Property
igh th
at ial
ph rase
Ġconf irm
ĠP ack
Ġh ide
Ġrel atively
Ã¼ r
ĠC ur
fri end
D ynamic
ĠC art
ĠM oh
Ġsw im
Or igin
19 15
ĠB Y
ext ensions
Ġfac ulty
ĠÐ ²
ĠRun time
Ser ies
Ġear th
ĠG allery
Ġj ump
Ġ Ñģ
Ġqual ified
ĠMount ain
Ġin ject
Z ero
M issing
19 16
Ġpar allel
Ġc ab
O W
Ġtit led
Ġp lease
ĠJ oh
col lect
} ]
ĠEngine ering
lang le
ĠDes pite
Ġv e
ĠC OL
Ġnov els
on ical
p ad
ic ian
Ġs ides
ĠN az
ĠN iger
ry st
w ill
il de
Ġcommit tee
Ġslight ly
CO MM
ĠK al
inc ipal
Ġ urban
Ġor ient
Mon th
**************************************************************** ********
ÃŃ a
Ġsurround ing
ĠW ars
ev in
ĠN orm
Ġinsp ired
IM IT
b inary
ĠChrist mas
dis c
not es
Ġsuc ceeded
ĠMar ia
ĠH ard
E mit
ä º
AN T
Ġinj ury
ĠStep hen
Ġy ards
ĠTr ust
cl s
Ġs pons
ĠH o
s in
f b
ĠTown ship
Ġtown s
ĠB ru
Can adian
ĠR ights
ĠP HP
Serial ization
Ġaud ience
ĠV i
Ġveh icles
ĠSto ck
ĠIm mutable
ĠE V
unn el
ub ble
ur able
} '
File Name
u er
Ġdef end
Ġperform ing
ĠC zech
ac le
s z
par s
p ages
Ġfe et
; |
Ġa x
ĠM un
ĠK ansas
C ent
ĠA D
ill ery
ud a
Ġ ../../
loy ment
g if
Ġresult ed
Ġfem ales
Ġf ell
Ġpar liament
Ġscient ific
Ġd iag
um a
Ġplace holder
uff ered
Ġhand ling
ĠC as
Sh ader
L ife
Sep ar
Cont ract
og en
ĠG ree
ĠCapt ain
ĠCol on
ĠB ooks
por ate
O ld
k top
Ġdocument ary
re po
ĠS O
k es
Ġcomp liance
Ġin herit
ĠG il
Am ount
ĠB ecause
Ġexpress ed
BA SE
ĠS ym
"> (
list ener
Ġcre ates
ĠT al
P M
get Type
Ġgovern or
Ġse ats
Ġan aly
w orth
ist ant
d jango
Re place
ĠJ son
ed ed
Ġcont emporary
In f
Ġout er
ĠG h
n ers
Ġg ained
U AL
Ġab andon
Constraint s
log o
U CT
On ce
ĠVer ify
Ġ( ),
ĠA re
Ġh ope
local host
Ġcontin uous
B lack
Ġperform ances
ec lipse
tool tip
Ġign ored
or er
Ġacc ident
or ney
map s
} -
We ek
D irection
fin ite
ĠEx pression
inal s
ĠR on
w ing
Ġpol l
RE E
ĠVAL IGN
Ġord ers
atter y
Ġca uses
Ġpur poses
Ġsc oring
Form atter
de code
Ġv ess
Ġachiev ed
int on
Ġinst ant
( ()
in ion
Ġcr ick
Ġpol y
A SS
ĠA bb
ĠF lo
Ġliter al
Pack et
Sec ret
ĠAtl antic
Ġsp in
ĠS end
Ġt ail
C ulture
; \
Å ¾
ĠPy thon
Ġ& #
Av ailable
us hed
ure au
S igma
ĠL java
ĠRe ference
R UN
Ġinput s
ĉĉĉĉĉĉ Ċ
contin ue
govern or
Ġar ts
in ator
Ġdisplay ed
Ù Ħ
Ġh ydro
æ ķ
ĠL ow
yg on
Ġb omb
Ġdescri bes
Cre ated
ap y
m ers
Â °
W in
c ounter
f ailed
ĠAr thur
ĠĠĠĠĠĠĠĠĠĠĠĠĠĠĠĠĠĠĠĠĠĠĠĠĠĠĠĠĠĠĠĠ ĠĠĠĠĠ
PRO P
ar c
Ġre peated
Ġin vent
Ġdist ingu
Ġse ctions
Ġb ill
UMM ARY
ĠPhilipp ines
ĠD am
ĠF ederation
IC ATION
T L
C annot
Ġcol lected
ide os
Ġw ave
n ight
Ġhold ing
Ġreject ed
ish ing
Ġpower ful
Ġlimit ations
b as
Loc ale
ke ep
Aut hentication
be ans
Ġwork er
}} $
west ern
ĠL abor
Ġar bitr
U nd
Ġde leted
Ġm orning
ĠI raq
part s
ĠN E
m ag
Ġed it
l av
Ġform al
Ġdistrict s
ĠL ike
Ġdat aset
Ġw ear
O FF
Ġend ing
atur day
ĠT erm
Ġ' #
at ibility
ĠL icensed
ĠTur key
K e
pr agma
ro uter
m apping
ĠLog ger
Ġsuff ered
Ġn arrow
RE SS
ersist ence
Sports people
ĠE s
} :
Ġdecl are
sol r
Ġan gle
Ġ" >
Ġpl us
! "
ĠG raph
Ġmap s
ist ogram
Ch art
J apan
ser ies
t ainment
ĠP olicy
ĠMex ican
Ġst ores
ĠCon st
Can vas
ĠTr ump
ĠIn ternet
Ġpublic ation
R ot
ĠC are
ĠU RI
ov es
Ġauthor ities
Ġint eg
ĠU t
igr ants
o or
Ġf ails
ĠCom ponent
ly wood
not ify
Enc oded
cont ainers
view port
10 24
TR AN
Ġph one
Ġopport unity
Ġm el
19 13
i ary
Ġf oo
S napshot
ĠSur vey
ĠMc C
Ġhar mon
ar ry
ĠB at
Ġin struction
LA Y
Ġdel ta
p ref
Ġret ire
ĠFr ont
In struction
ĠAd v
B el
T ex
Ġor ig
Ġtem porary
{ },
Ġc as
ĠK itt
Ġd ynam
Ġunder lying
Com mit
Mark er
B ibliography
Ex pect
G IN
ĠL td
ĠSer ial
Ġsch olar
ĠE th
a ired
ĠHigh way
Ġin n
Ġlos ing
A ctions
Ġper fect
Ġbound s
1 17
on om
ĠS at
k ubernetes
et ing
ĠPr ivate
Ġpi eces
d ark
ust ers
Ġext rem
qu es
L IN
ĠJ ob
ĠStr uct
ĠAb out
Ġvis ited
ĠMary land
ĠB et
Ġlett ers
ĠN ull
ĠM unicipal
Ġa li
ver al
Ġlead s
P riority
z o
ch ant
The se
ĠPro du
ĠNor way
Ġf resh
Ġal pha
Ġen h
im ize
per cent
Ġcommun ication
BO OL
ri ent
pre pare
Des ign
h istory
Ġindic ating
Ġmod ules
Sh arp
ĠFore ign
A I
ĠWITH OUT
Ġcons ult
al ink
mem bers
ĠIn valid
ĠC HE
Ġf older
c les
p rom
ĠD a
inter val
ĠJ S
ĠSing apore
D av
ĠĠĠĠĠĠĠĠĠĠĠĠĠĠĠĠĠĠĠĠĠĠĠĠĠĠĠĠĠĠĠĠ ĠĠĠĠ
T ube
Ġcamp us
ord an
Ġ å
en umer
Mod ified
link s
ul s
. ',
Ġa ria
Ġexist ence
nt il
Ġup dates
ĠS yntax
ag en
ĠP ers
Ġtext ure
ĠJ unior
ĠAri zona
;| &
example s
Ðµ ÑĤ
-------- --
Ġcr iminal
l u
Ġt aught
h d
Ġsp ot
Ġanim als
Ġspe ech
Own er
Ġaff ected
E st
Ġpro ceed
in us
Serv let
ĠN Y
Ġact s
ues e
Ġneighbor hood
ĠE P
P ut
Ġtechn ical
ist a
< >();
mat ches
ol i
cept or
Ġg al
ad i
om orph
Ġrele vant
Î ¹
are st
Ġsupport ing
Work er
get Message
Ġf estival
d am
stand ard
ĠT ree
L ike
De ath
New tonsoft
att ed
Ġident ify
Ġv ac
Ġlink ed
ĠP ier
Ġgener ic
Ġpass es
od s
Ġjournal ist
B lob
Ġnav bar
ĠR ose
ĠJew s
um in
off s
Cert ificate
ĠK han
Ġgu ar
Hash Map
ĠP it
Ġecon omy
l aw
\ '
ĠF acebook
Valid ate
Ġin form
Data Type
ĠRepresent atives
Ġto kens
Ð¾Ð »
ile vel
ail ability
T yp
Ġm and
Ġdef ense
Ġro utes
attr s
Ġw ins
ĠS u
Ġr ates
Ġ" [
ĠAp ple
ĠAdd ress
fol io
Ġcopy right
B ucket
Ġe ase
ĠK EY
ĠMem orial
ĠD CHECK
K it
fl ush
Look up
pre d
Label s
Ġlog ic
spec ific
put ed
Ġpr ime
W ill
g ers
Ġadv oc
Table Row
Ph one
dat etime
pro c
d irection
get String
Ġcheck ed
enc ing
Ġ{ %
(" \
ĠLe on
w id
ĠH ou
AR RAY
ĠT ennessee
ĠS UMMARY
con current
ĠAut o
Vis ual
ĠV irtual
Ġpri est
ĠIn ternal
Ù Ĩ
{ -
gener ator
P lease
wit zer
BU ILD
ĠP erson
and y
Ġn s
WEB PACK
Ġauth ors
k appa
ig ate
Ġd etailed
ĠBr ad
Ġpain ting
== =
Ġrank ed
Ġpe er
Ġbal ance
ord on
O C
ĠM att
B reak
Ġdo ctor
z y
D ITION
ĠBase ball
un ities
Ġyoung er
Us ing
ĠP R
ĠSe lect
Ġd ictionary
comple x
ĠF urther
H AND
The n
S N
Ġdefault s
c up
S UC
Per iod
Ġpack et
ĠAmer icans
we alth
ĠPr int
Ġrem ember
CO M
Ġb ronze
Tr igger
c mp
Ġd yn
... )
I ss
N orth
ĠL ang
v ard
k h
Ġte aching
i ency
ĠT ABLE
bind ing
ool s
iv als
\ |
ad oc
ck now
o en
g z
Dis k
eng ers
pr ime
Ġre con
ĠV o
Status Code
ak ed
Or iginal
J ust
EN V
l ab
ĠLew is
inc ial
ĠR oss
ĠE ven
f ef
M achine
ĠS ri
t witter
Ġdepend ing
Ġbur ied
Trans ition
Ġw rapper
fr ames
ĠCol umn
ĠArg ument
Ġfe e
Match er
ĠP lease
Fr ames
ĠD ictionary
ĠN ick
m box
Ġs chedule
R a
p aper
19 11
witzer land
Ġro b
Ġch ance
A lias
ĠP layer
b uilt
ĠT rack
Ġposs ibly
__ ,
Ġapp arent
ten ance
ĉ čĊ
Ġjob s
r im
D iff
Ġ' ''
Ġappro ved
Ġto ward
id ers
Ġmed ium
Ch anges
Ġdes ired
ĠK IND
Ġy ellow
Ġhel per
att ing
Read y
Ï Ħ
Ġinc ident
Ġro ugh
our ney
Ge ography
File Path
sh are
' }
Ġal ter
ĠMal ays
t imer
ĠF ALSE
Ġn arr
cite p
ĠP si
Ġw ire
ĠCHE CK
Ġassum ed
Ġpolic ies
Ġev olution
Ġf ashion
Ġr ise
r f
Ġport ray
Ġmod al
M ajor
Ġnu clear
Ġrad ius
Ġtw enty
F ac
T ensor
à ¥
50 9
jac ent
Ġaff ili
Ġv ent
Ġrun ner
Ġarrest ed
G C
Ġvill ages
rav ity
ĠCon stant
ĠW hether
ĠF ix
put ation
j d
TER N
ĠS P
ĠA M
Ġa head
Ġnom inated
Ġdi am
M ost
r atch
type param
Ġpl anning
U K
Ġsepar ated
f all
p ers
ĠH art
s un
ĠMos cow
Ġam b
Ġlo an
press ions
Ġinit i
Ġstreng th
Ġ-- ></
w br
Ġuser name
ĠSh ould
sl ider
Ġd ates
Ġs pl
st an
ĠFre der
ĠM ill
ĠAnd erson
pr ite
ancell ationToken
egr ation
Ġ# {
Ġ/* !<
ĠP ut
× ķ
Or gan
ich ol
Pr imary
N ONE
Lower Case
ĠS ound
Ġmeas ures
Ġso ft
Fe ed
pub lish
Ġ' ,
sem ble
em an
ĠP ur
Ġis instance
N Unit
ops is
pro duction
h ave
ĠC ulture
get Attribute
od a
C ity
ĠJ os
it i
ap el
MA SK
ca pt
Ġcontrol led
Ġ* ,
b ell
Ġsub stant
pre c
Ġemploy ees
Type Def
ph an
ĠC ost
Line ar
Ġap ilevel
Ġc row
ĠAff airs
de legate
ĠF und
Ġide as
uff ix
Ġg ain
ad ed
Ġenvironment al
ĠL ev
n an
Ġem it
un lock
p ow
ixt ures
Ġfight ing
ĠJac ob
Ġref ers
Track er
ut ter
C SS
M en
Ġfrequ ently
ĠĠĠĠĠĠĠĠĠĠ Ċ
urs ive
ambig uation
text it
ĠA mb
Ġn ob
ok es
Ġab ort
ĠW ell
Ġocc asion
Ġent ert
ĠMel bourne
Ġfind s
Ġch airman
Ã© t
M utable
od o
St ar
pol y
Ġv ary
190 8
> %
Ġp ipeline
pos ite
Ġhe ard
PAR AM
Ġsol utions
umb n
clud es
Ġrot ate
col n
uss ion
ref resh
nab la
ys ql
Ġre verse
AR B
Ġs ell
iv a
Exec ute
Ġcover age
Annot ations
Ġedu cated
te am
ĠI gn
rain ian
Ġdesign ated
g s
ver ify
hed ral
Ġ} ).
ĠF ull
ĠL ock
Ġch anging
u j
Ġvoc al
Ġmanag ers
ĠSim on
p aces
ĠPro p
Met ric
Ġthe atre
$ _
Ġfund s
ir th
ĠEnter tainment
Sup press
dist ance
Ġst orm
Ġcol ors
P ane
Ġwait ing
s lide
Wil liam
O O
D id
sd k
fef efe
ĠP a
Ġhe av
Ġcost s
Ġdevelop ing
ĠSt aff
O ct
Ġadd r
ĠAd am
w ick
includ ing
F ollowing
Austral ian
ĠFr an
Ġfund ing
L at
Run ning
Ġm ales
ĠPhil ip
Bit map
ĠOffic er
Copy right
met ry
Ġsignificant ly
v et
ĠM iller
Å «
ST ART
Ġ( #
Ġnetwork s
ĠE very
out s
ym n
ĠEx p
è ¯
LO AD
B ased
FN GL
Ġra cing
ĠB efore
Ġcol lections
re ason
Im p
T ri
ol o
ĉ ĠĠĠĠĠĠĠĠ
f older
h ow
Ġmag n
ĠB all
Ġdr ink
N a
ld ots
Ġben ch
ol is
UB LIC
EV ENT
D one
Ġ( ,
Ġc overs
ĠV ideo
SS AGE
var s
ĠBuild ing
Ġh orse
r as
h ook
Ġattempt ed
Ġwindow s
ĠW HERE
Ġcorrect ly
He alth
ivers ities
IN DEX
function s
V ol
Ġcoordin ates
f rak
Ġcon sumer
ap ple
append Child
P ower
Ġbro ken
Scal ar
Ġb or
Ġjud ge
j b
le ton
18 90
avi our
unk nown
Ġ Ä
Ġex erc
ĠIllegal ArgumentException
ĠI owa
_ [
ĠPl ace
ĠSt ory
Ġtechn iques
w ig
Ġh ers
Ġst arring
ĠDate Time
ab ama
ĠB ox
__ _
plement ed
Rel ation
m ont
Ġa ware
( []
des criptor
k ernel
ĠC R
Ġfil led
Ġ æ
Ġes cap
L ite
ous es
Ġol dest
Ġ( %
ĠÐ º
lin ux
H ere
Sub scri
z oom
Ġle ct
ren a
ĠAct ive
b ucket
Ù ħ
Ex ist
fore ach
Ġang ular
n os
Ġge ometry
Ġchall enge
ME M
go od
Ġrecogn ition
t ol
ĠST ART
ĠHar ry
G A
Ð° ÑĤ
Ġpro ve
amazon aws
code c
Ġprom pt
ot imes
Ġproper ly
H er
P ixel
Ġpre ced
Ġinvest igation
ret val
Ab out
T ry
e en
as i
ĠChild ren
R ail
e ff
Ġex pr
Ġar ms
att ach
Ġ ðŁ
to Equal
ĠKent ucky
Ġs yntax
ĠSh er
Ext ra
Ġh all
con v
Ġv ice
ĠS av
Ġr at
Ġ' @
lah oma
Control s
Ġoppos ition
ig ator
sc ore
Ġcontrol s
Ġm ail
Ġp icture
Ġprop ag
op acity
m obile
ĠO P
us al
ĠC op
u et
te ction
Ġneg ot
Ġt end
ĠMod ern
IMP ORTED
Ġclass ification
Ch rist
ĠĠĠĠĠĠĠĠĠĠĠĠĠĠĠĠĠĠĠĠĠĠĠĠĠĠĠĠĠĠĠĠ ĠĠĠĠĠĠ
er al
Class Name
MP L
Ġb udget
ĠR ange
et c
Ġw inter
ble m
Ġm olec
? "
Ġdeg rees
Ġexpl an
Re act
Ġprem ier
Ġind ices
google apis
Ġcapt ain
DE D
Ġpan demic
ĠD ebug
Sup er
Ġspec ifically
us r
Ġrecomm ended
jav ax
ate ur
OR K
Ġmin ute
AP P
sh op
Ġenc oded
Ġtrans actions
ĠUs ing
P ush
Ġdr ums
And roid
ĠViet nam
Ġcon ver
Ġreplace ment
ĠQueens land
Ġco aches
ro it
Ġth er
G rad
ur r
S pe
b t
ĠT a
Ġoper ators
ĠÐ ´
ore t
label s
Ġb ought
ĠThere fore
S ide
Ġcommand er
alt Color
pay load
p icture
second ary
Graph ics
Load ing
B ACK
const raint
Ġ// !
bum s
ĠO cean
Key word
w t
Ġsu fficient
FA IL
å ¤
ĠS in
ĠC ab
ĠT ry
Ġext ensions
%%%% %%%%
Ġg lass
ĠM as
Ġpain ter
se gment
C UR
F etch
Error Code
ĠE nc
ĠE ner
Ġprom ote
fe atures
ĠC hen
ĠH or
Ġg lob
Ġâ ĸ
f ilters
Ġdr am
ĠAust ria
N ECT
c urrency
ip pi
Ġh or
sw ing
Rece ived
se cret
Ġcrit ics
ĠM AX
c us
w allet
d n
set Attribute
Ġw rap
ĠClass es
iz ers
HO ME
Comple tion
Ġsix th
M al
ĠT err
Ex it
ĠJ ane
d anger
& \
ĠTem ple
Ġem ph
n orm
og y
ĠF ellow
è ¿
Ġf ired
dis ambiguation
Ġpartn ership
Ġinter ested
Ġm ach
Ġexper i
Î ½
Ġpro test
ĠR ol
Ðµ ÑĢ
ĠGr id
Ġrepresent ative
ĠD eb
Ġcitiz ens
Ġk ernel
Ġprint f
L ines
v endor
Ġconstraint s
Ġstop ped
ĠB eng
ĠM odule
Ġoppos ed
n ie
ĠNor wegian
}) $
pos sible
EN CE
Ġmaint ain
Ġattr s
Second s
RE T
Ġchart s
UR N
Ġup load
c ross
dis patch
m aml
% "><
mut ex
Ġred irect
ĠSquad ron
H on
w ich
conn ected
S UB
ĠB AS
K ernel
Ġviol ence
á »
D TD
Ġimport ance
Ġcl s
ĠC A
Ġformer ly
is is
ĠOn ce
ret ch
ĠN FL
qu id
ĠMag azine
ab stract
ĠM O
E nt
ĠC ape
E p
C r
re le
Ġg irls
ph ere
isecond s
Ġan imated
Cont in
ĠSen ior
D MA
Ġtable s
parent Node
el le
O ffic
Ġsom ew
P al
Ġprob ability
Ġin nov
Ġtarget s
oc om
ache lor
Ġentire ly
Ġquant um
over flow
ĠS witzerland
Ġs leep
ĠB urn
Ġth reshold
H AL
Ġunder standing
un ist
Ġdo or
ĠF ish
S rc
all enge
ĠE ll
ĠAr k
lem ma
00 1
W rap
Ġtra ins
writ ten
work s
ĠD est
ic ut
bold symbol
mark s
non umber
igen ous
Ġs lot
0000 000
est ure
ordin ate
ĠN ap
____ ____
Ġconsec utive
ĠB ah
M ac
ĠSpace watch
Ñ ĸ
Ġimpro ved
gr pc
ĠB alt
Ġsub scri
Ġcontribut ions
Ġt uple
de ep
ĠO C
i ant
ĠS ymbol
de ploy
t ex
ĠS oc
ĠK a
uth er
includ es
sub string
Ã ł
ec ycle
u ations
value Of
ĠA z
Ġr c
Ġc atalog
Ġtra ined
I l
Def ined
Ġb old
": "
ile y
Ġfin ite
N or
Ġrece iver
Oper ations
ĠF ac
Ġsup erv
re qu
arn er
Ġown ers
ĠF ord
ĠH ans
Ġs un
ad apter
Ġinter pret
ĠGree ce
Ð ¹
Ġenc ounter
M s
ĠD C
ĠMar ine
M ix
sp ark
an ches
att ers
dest ination
ĠB E
ĠP ay
190 5
cul ate
Ġa f
to LowerCase
Ġinter rupt
Ð¾Ð ´
Ġp atch
Ġhe at
Ġadvant age
() [
> `
ĠB rian
we ek
ĠB asic
S ongs
Ġ iron
Ġevery one
Ġb odies
text ure
CD ATA
Ġhot el
ĠEm peror
up dated
IN IT
Ġig et
ĠM it
C LA
Ġ. =
Ġpattern s
ĠP ot
Ġcon vers
Ġcheck s
set ting
Ġ! !
Ġmat ched
Ġprote in
OL D
] ['
FORM AT
Ġhead quarters
Code c
ĠA ws
Ġpil ot
ens itive
Î µ
tribut ed
ig o
ĠT en
Ġr ich
Ġcert ificate
RO UP
ĠB uffer
ĠL ank
not ification
String Builder
S ch
C MD
Ġult imately
el ve
Ġtyp ical
ĠB os
Ġwe ather
ĠCl ark
S UP
Ġexplicit ly
Ġdiffer ences
Us es
p f
Ġmay or
Ġdim ensions
ition ally
ĠR eb
ĠD atabase
trans late
M ult
math frak
arg o
Set up
190 9
W ARN
Ġlook s
Ġreal ity
Ġto wer
Ġ" )
ĠComm unic
l on
ĠHol y
br id
Ġc os
ident ity
REQ UEST
Ġli ber
Ġs ed
er d
el i
Te levision
c ached
N EL
* >(
Ġext ensive
Ġind ent
* ,
Ġhers elf
default s
ĠSt ore
H AS
}} {
le e
ĠA ud
ĠS quare
An im
Ġst rip
Ġopp on
F ake
Ġsec ure
N I
TO M
T IM
Ġf uel
ĠL eb
ivers ary
Ġm igr
(" .
med ium
ut ing
tr ansparent
ĠL iter
ĠM atch
190 6
" }
Ġd rawn
Name Link
ĠWal ter
ĠA ge
Ġown ership
ĠFor ces
s ure
I p
H ave
pre ter
ĠK y
ĠMan chester
ĠT ony
Ġcomb at
A VE
in cess
in th
Ġw a
Å Ł
ag ues
Al pha
Ġdet ection
ĠCE O
T X
r ides
ĠM ust
Ġexperiment al
Ġcompos ition
ĠTok yo
Ġbro thers
process or
F ire
ri k
Ġm s
ĠHash Map
ick y
Com ponents
Ġfind ing
Ġdec ades
db c
Ġdom estic
Ġest im
SUC CESS
` )
enn y
ic ians
Ġstand ards
m iddle
Ġmet rics
grad le
Ġcred it
C oin
U A
Wh ere
Ġmechan ism
ĠB ab
d ynamic
99 99
Ġpow ers
me an
Ġenc ode
ĠF A
AS C
Ġtre ated
ĠCom ple
ĠL I
ĠV ar
lov ak
Ph il
am ount
D ict
ow nt
ĠCh ile
S an
Pre vious
Se q
Link ed
reg istry
Ġcomm itted
ĠC ache
red irect
S cheme
ĠNS String
z ing
Down load
~~~~ ~~~~
Ġsurn ame
Ġdr ivers
Ġb ond
F actor
Ġair port
ĠEx press
end o
pack ages
Function s
ĠRet ri
Ġturn s
D im
ian ce
ĠUs ed
ĠD ark
M ust
Ġchem ical
C trl
Ġref used
Mer ge
P at
Vis itor
ob serv
tab ular
b ench
S chedule
S U
ĠWh o
z i
iss ippi
Dist ance
Ġcontribut ed
ĠHe art
ĠInf antry
Ġcom pr
ĠI R
Ġd anger
Ġca using
Ġb an
Ġtr igg
TableRow Color
Ġperman ent
ĠBill board
Cal endar
'] .
ug u
ĠC OM
ĠC irc
ang ers
Ġcomp atible
Ġhistor ian
Ġcomput ed
Event Args
Ġed ges
ĠC ru
Ġbro ke
ir y
olog ists
look up
ant asy
el led
Ġm ac
az a
190 7
Ġlook up
P ipeline
Ġconsist ent
D en
ur is
Ġinvol ving
×ķ ×
Ġinter action
ĠSt one
Ġw ants
ar on
ach er
\ %
ĠF ame
Ref lection
ĠBro ad
Ġn ortheast
WA RE
Ø ¯
em ony
') ->
h our
Ġst able
Test ing
Ġk ick
ĠQue bec
Ġb undle
Ġemploy ed
Ġs ail
Ġw el
Ġmark er
ĠDi ego
pro vid
inem a
ĠV olume
s uch
Ġpro ved
ĠI F
Ġc lip
Ġk illing
ĠCon nection
Ġs izes
ĠBatt alion
ĠM A
ĉ ĠĠĠĠĠĠĠĠĠĠĠĠĠĠĠ
ĠAl abama
Ġw x
igg est
ĠLab our
{ $
s ch
Sc ene
Ġannot ation
ĠD un
M esh
Ġl ake
il arly
ĠS ix
Ġd iplom
Access or
ene z
tim eline
() ">
an es
Ġs ac
B ER
st age
ĠE ric
Ġp ed
L ive
g ov
ĠR ender
Ġly rics
ites pace
Ġsch ol
C amera
Ġsk ills
link ed
Ġ& =
cp u
Block ly
Ġp hen
d ays
Menu Item
Ġk il
a que
Ġcell padding
h om
>< !--
CO UNT
ert y
SH A
Ġim ag
Tem p
ĠDe ep
s peed
ĠERR OR
Ġtransl ated
Ġend if
] </
Ġtem por
Ġrecomm end
Ġleg end
ĠGener ated
pi pe
ĠA T
Path s
190 1
ĠD ream
ĠT ab
10 5
Ġan imal
y cl
ĠG ib
ug ar
å Ĭ
ĠLin coln
Ġâ Ĺ
Ġpre pare
Ġalleg ed
ann y
Ġf olk
m ay
ĠCon stitution
Ġt s
P icker
ĠSil ver
render er
Ġcon vent
P ref
pend ed
Ġint ent
ard o
id en
w as
F ix
l ap
ĠG ab
Ã ´
Ġconfig ured
Ġro of
ĠL INE
task s
Ġstri ke
Ġâĸ º
ĠIt em
çĶ ¨
des cribe
Ġt imer
Ġpre pared
ĠSk y
ĠF uture
E ducation
-------------------------------- ----------------
erial ize
itect ure
Ind ian
Ġpre tty
MA GE
Ġdis estab
Ġ" _
in ch
P ending
ĠExec utive
Mon itor
sche mas
Spec ial
late st
ib ling
Ġ ì
date picker
ĠA C
Ġinterest ing
ĠT oken
ĠEar l
st ub
ĠT YPE
Ġlo com
Ġmusic ian
Ġweap ons
ag u
v i
Ġpers ons
initial ize
Ġs ons
ĠL ind
ĠZ h
at ile
oc ese
Ġsett led
Ġsort ed
Ġsing ers
ĠAcc ount
Ġretriev e
Ġs ale
Ġsports people
U UID
f ragment
ĠTurk ish
L ang
ĠInv est
trans l
F M
S afe
AR GET
P ersistent
ĠCon sole
inc or
ĠW ed
> ${
ĠAll en
ĠReg ional
Ġm yst
Ġback ing
c py
Ġin herited
F ill
æ ĺ
Ġvari ant
ĠN ev
Ġw itness
Pop up
Ġinstit ution
Ġb ucket
rop y
ĠEd itor
run ning
center ing
A MP
190 4
redu ce
met rics
G ui
G overn
ox y
Ġband s
Ġsit uated
al g
ME SSAGE
ĠE q
Ġinvest ment
a us
Te am
Ġsc oped
ĠR ound
ĠâĹ ¼
ĠS W
ĠTR UE
ial ect
Ġt ick
is ode
es cape
B us
\ [
Ġp ure
F P
Has Been
ĠHow ard
ĠHou ston
ĠS C
Ġ" #
Ġv o
RE NT
T y
le et
TH ER
V ill
U Int
Ġc ategories
Not able
SER VER
Ġag ency
lad esh
Ġen emy
F ootball
St age
ul p
Im mutable
Ġ( -
Ġ" );
Ġk w
ex cept
Ret ry
ĠB arn
m c
ĠS aturday
Ġlim its
// !
ic ates
Ġoper ate
l b
lector al
Comple ted
m ultip
ĠE uro
Ġh ook
Ġdr um
ĠBul g
S lot
ĠJ ay
ĠHot el
ament al
e lect
ĠOk lahoma
Ġexhib ition
Ġin tr
II I
Ġres erv
H owever
Ġb ed
Ġhost s
ĠF all
Cl ub
>( <
Ġnot ification
ĠCON DITION
Ġa st
In jection
Ġarr ang
Ġca ught
Ġh air
E ast
Ġe ye
> [
str ument
Un ique
ĠT witter
ĠB uck
Z oom
Ġa id
ĠA WS
Ġres olved
Ġf old
ĠT ar
Model s
Set s
gorith ms
ĠL ook
/ )
flo or
Ġs ole
ol ute
Ġlocal e
Ġbusiness es
ĠEner gy
AT URE
################ ################
gr ic
Check ed
Ġconsist ing
Hel lo
Ġattack ed
w x
ĠF ilter
Ġcon ven
Ġg lyph
Ġoccup ied
Dest roy
Ġrot ation
ĠTh rough
Ġcompet itions
U int
Ġa ired
Ġp seud
Ġ' $
Ġcli ents
Ġlog in
ĠUn less
ĠTe levision
d ots
Ġcirc um
am ar
ig e
190 3
ĠE ag
Ġgener ator
ell ite
Ġd ry
ge ometry
Ġf ought
ĠK at
Con s
Ġhy per
ĠMed icine
d ers
ĠGr ant
Ġconstit ution
****** /
Ġph oto
Ġt f
Pro du
m icrosoft
CON ST
Ġh its
H z
F oo
vent ure
aw t
ĠU P
P has
ol ished
ĉĉĉĉ Ċ
F ixture
S ing
ĠInitial ize
Ġcur ve
String s
Ġr ating
Ġe fficient
r ons
SS ION
ĠN ag
E urope
Ġf aced
Ġent itled
Ġ} ),
ĠDev ice
Ġoppos ite
Ġtri es
Ġn ested
ĠValid ate
Ġvis ibility
FUN CTION
Ġb rain
ĠM IT
ĠP as
ĠĠĠĠĠĠĠĠĠĠĠĠĠĠĠĠ ĠĠĠĠĊ
R oman
Ġachiev e
ĠT oday
remove Class
- (
H ook
depend encies
Ġworld wide
Ġpresident ial
place holder
los ing
c are
Mill is
ĠN ik
File System
Ġrest ore
ĠAdministr ation
or ro
Ġlocom ot
ĠS SL
Ġf an
O k
l ua
Ġsubject s
pe ction
Ġe yes
az ure
Ġfreed om
ĠCon struct
ref lect
Ġcell spacing
ĠDo ctor
Ġwe alth
Ġm ist
ĠV ice
ĠBAS IS
Ġno ise
Cle an
ugg est
Conn ector
Ġn a
hel lo
c as
] ).
ĠTh ird
f ish
ĠAss oci
script s
Ġmaint ained
ĠCONDITION S
Ġgo og
ct ic
Comp are
Al though
Ġcommission ed
M ilitary
ur ations
ĠLem mon
ĠM ond
ĠCont ainer
ĠS ite
ADD ING
Ġhapp ened
! </
List eners
ĠJ am
th od
Ï ģ
u ce
el m
ru ption
ĠL abel
ĠCro at
ump y
ent ries
run ner
Ġoper a
X Y
Mod ifier
Ġp un
View Controller
Ġag ed
C tx
li est
Ġg ene
ĠOther wise
3 60
u ating
S uite
B orn
Ġvel ocity
" ?>
Ġplatform s
Ġcon tribution
ĠAnth ony
r ank
ĠA st
ĠT OP
Dec oder
Ġb log
An chor
Ġp ixels
ch rome
ĠPri x
SP AC
Top ic
Ġprot otype
dis k
A li
S core
Struct ure
Ġth ick
ĠP ed
rac ing
Meta Data
Cred entials
HasBeen Set
Ġ à¤
En tries
app ings
o i
ĠDig ital
. ")
path s
Ġj azz
! \
ĠCo q
/ \
i ac
Ġres erve
Ġarbitr ary
ĠBr un
c lip
ĠPortug uese
OB JECT
o is
pe g
C ookie
S urface
Ġbo ot
Us ed
ĠFig ure
h ab
Ġaccount s
Ġw alls
Ġdirect ors
? (
Ġshort ly
app s
ĠArgent ina
ist ical
Ġm al
has OwnProperty
Ġprof ession
el lo
Ġ' ')
Ġintrodu ction
+ "
part y
R ound
b urn
an alysis
Ġlist eners
b ounds
ĠAf g
I ME
Ġaut hentication
Ġman age
Ġc ro
present ation
ĠPat rick
11 1
az e
\ ]
NAME SPACE
Ġliter ary
p agination
Ġacc um
ĠF a
Ġg ender
st ory
all as
oc a
Ġfil ters
ane ous
ĠR ight
ĠP ref
ĠBrig ade
Ġcomp ile
is Array
ah o
ch at
ĠD al
ĠJ ordan
ur st
ĠK er
ĠR ab
Ġstat ements
Ġf ly
Ġhom es
Ġmet res
Ġcustom ers
m n
ĠH om
Ġs outheast
ust ed
ĠConnect icut
]( #
st e
H istor
Ġco e
10 2
Ġeduc ational
Ġrelig ion
s ur
b p
ĠPro file
Ass ign
Pay load
man ifest
F IL
H ar
æ Ī
kee per
AB ILITY
vert ex
iev al
Ġl it
umbn ail
roll ers
ĠH amp
As set
ĠS el
18 80
inv oke
ect ure
ĠE ntity
Ġprogram me
Ġfound ing
ĠB an
ribut ed
Ġdet ected
ik h
Ġtri p
Ġt ennis
AN G
STR UCT
Ġtr uth
Ġretire ment
dimension al
Ġcar bon
Ġsim pl
m anagement
arg v
Ġoff ices
gener al
ĠCle ar
'] ))
Phas er
os lav
set Text
Ġpay ment
id o
190 2
char acter
ĠĠĠĠĠĠĠĠĠĠĠĠĠĠĠĠĠĠĠĠĠĠĠĠĠĠĠĠĠĠĠĠ ĠĠĠĠĠĠĠĠĠ
Ġindepend ence
Qu ant
ĠAn ne
project s
Ġle arned
cook ie
Ġc c
as p
Ġre action
ĠB ureau
Ã ª
Ġr s
CE PT
Dav id
Ġv ot
Ġfr anch
Ġconfig ure
S lice
ĠAt tribute
Back end
Ġclos ely
Al ert
Ġwrit es
Ġg it
exec ution
he ets
Ġv ideos
Ġto String
V O
Ġprodu cing
Ġs ought
ĠNC AA
Ġ utils
ĠH ockey
iz ard
ĠO ak
Data Source
Ġlaw yer
ad v
{ })
ĠIslam ic
Ġcr ash
ograph ical
wid et
p romise
Are Equal
Ġs occer
Ġp ixel
1 15
ĠG ordon
Ġconsist ed
Load ed
Ġp it
Ġdr iving
ĠT IM
level and
Ġs ender
ain ts
ĠĠĠĠĠĠĠĠĠĠĠĠĠĠĠĠĠĠĠĠĠĠĠĠĠĠĠĠĠĠĠĠ ĠĠĠĠĠĠĠĠ
CR IPT
Dis abled
ĠTai wan
ĠB us
ĠC emetery
Ġcalcul ate
N ON
H C
Ġpurch ase
RO OT
Ġco ins
B LOCK
ĠCh ampions
Ġelect ronic
//////////////////////////////// ////////////////////////////////
Ġproced ure
ĠH u
ĠMo on
Ġcomp act
Array s
gu ide
t oc
ĠB ry
st roke
Ġreg istry
Ġro yal
Ġman ifest
st ates
ĠCommon wealth
WR ITE
Ġaut orest
Ġr hs
P ress
sc an
. ');
Ġc ss
t ail
b one
Ġle af
d ere
Ġdis patch
ous el
Ġcollabor ation
ext ends
ĠD IS
Ġtouch down
Ġeng ines
ĠSw iss
ĠParam eters
ĠSV G
ĠY outh
Ġste el
w alk
Ġc odes
? ?
Ġb rown
Ġdef ines
Ġscen es
} "/>
aa aa
Ġap art
serv let
Ġdeliv ered
Ġsuc ceed
Ġ" ;
ĠEn able
ch anges
E LEMENT
ir ror
i ang
ĠDoug las
ĠJ un
Ġdel iver
Ġc ool
En code
FLAG S
Ġc fg
ĠString Builder
ĠMiss issippi
P eer
Ġs qu
Ġac id
Ġre ar
k ov
Up dated
× Ļ
s With
Ġpoet ry
LO B
en ium
ĠC F
size of
Ġinv oked
ĠHarr is
av el
> .</
1 12
ĠO bservable
M ich
Ġg uns
ĠNo thing
ĠV in
ĠA le
Ġm ath
l ig
Ġcomp iled
Ġcustom er
w en
Ġacc eler
ĉĉĉĉĉĉĉĉ ĉĉĉ
ĠAfg han
Ġpat ient
r ink
aw are
ĠLouis iana
S printf
A ff
st eps
Br idge
Ġe c
separ ator
ĠO ptions
ĠF inn
Ġdepend ency
PRE FIX
Sc an
Ġvol unte
Ġform ula
NG TH
help ers
: %
pack et
z ed
over lay
Ġest imate
ĠG ard
ĠW y
Oper and
ĠS ize
100 00
ant on
Ġre ception
Ġl l
} +
Ġsur g
E s
Re ception
Ġinh abit
Po jo
P G
d ied
=" {{
Ġem p
w i
Ġd ies
In ject
Ġh uge
Ġany one
c op
ĠU r
ĠS port
Ġsc an
ist ol
Ġcr icket
N umer
ĠAr men
ĠAm ong
ãģ ®
sp here
ĠH ost
Ġ(! (
ĠN ichol
Ġm ent
P adding
ott en
ind ices
Ġth erm
add EventListener
LO AT
ĠB ORDER
Comp at
ĠM anager
ĠIsrael i
ur d
Ġpl ain
Ġscal ar
Ġs oci
vis ed
Ġm ile
5 12
Ġad jacent
Over flow
ĠN aval
14 0
in ces
:: $
Ġlay ers
T imes
ĠVill age
he x
ĠDe ad
h p
P rom
over ride
ĠB lo
Ġass ignment
Ġcharg es
ab il
ĠDon ald
bo ards
ĠHaw ai
! =
Ġf i
Ġinv ited
G uid
in burgh
dir name
Ġsub scription
Ġre ndered
" ])
p al
um ps
Un iform
ĠP ope
Ġtest ed
c ity
iv ia
/ '
P e
cript ors
M us
to kens
p k
Ġwas n
Ġcent uries
E v
Ġper haps
ail and
Ġdiscuss ed
c it
Ġexplan ation
Do ctrine
widet ilde
ir i
nof rame
D an
Ġhand led
Ġjoin ing
( `
Ġst adium
Ġinter ior
Ġeth nic
ĠC S
ĠDen mark
en o
ĠStud ios
Tool s
Un expected
ĠHer itage
ĠD aily
r and
ĠHon or
R S
Ġcalcul ated
it als
Rel ative
Un mar
ĠFr iday
Work s
Ġd ual
mark er
Ġaut hent
Ġin aug
ampl ing
With out
19 2
n ia
ĠP ow
en z
Wh ite
Ġch urches
ĠPro duct
Ġas sets
S peed
Ġconst ants
ĠJes us
iss ance
Ac ade
Ġw at
ĠĠĠĠĠĠĠĠĠĠĠĠĠĠĠĠĠĠĠĠĠĠĠĠĠĠĠĠĠĠĠĠ ĠĠĠĠĠĠĠĠĠĠĠĠĠĠĠĠĠĠĠ
Sub scription
Ġsm ooth
ab ad
æķ °
P an
ĠT reat
Ġv acc
LI B
T ech
Separ ator
O cc
ĠN um
vis ibility
è ¡
Rad ius
com b
Cal led
Ġcol our
g p
ou st
Ġ ing
Ġv oted
The y
Ġ/** <
x sd
W arnings
ts burgh
Ġdis miss
ĠIndones ia
m ov
ĠĠĠĠ čĊ
Ġm ort
M ail
g lob
n est
At tempt
Ġsign ing
Rad io
St d
Ġfound ation
Stat istics
: -
Ï ĥ
R ich
Ġtechn ique
Dist ribution
ĠAl low
ĠBelg ium
Ġstrong ly
Ġe ffic
ĠOper a
Ġimp licit
Ġb iggest
ocr atic
f rag
> {
Ġc p
P i
us cript
Ext ract
Ġestablish ment
Ġd oll
Exp atriate
Ġpack ages
Ġcharg ed
ĠS ymfony
s ong
es a
Ġqu eries
Ġpercent age
ĠSt op
189 8
en vironment
Ġfa ith
th rough
Rec ip
Ġinj ured
ĠC ert
Ġmay be
add ed
ĠAb d
ĠD ick
For ward
d td
1 16
Over lay
ud es
Up per
li ps
Ġw arm
Ġin structions
Trans fer
Ġun cert
By Name
m ms
Ġsuggest s
LA B
OT TOM
Ġheav ily
un ion
SPAC ING
Int ent
el son
ĠDis ney
M LE
\ {
Ġ======= =
f uture
ĠJava Script
Ä «
c n
Ġst ub
) *
Ġed ited
Ġre form
on i
ĠN ic
t m
do or
ĠD ak
Ġabandon ed
] *
m outh
Ġs lice
il k
id ges
Ġinf rastructure
IT LE
am an
Ġaccomp an
Ġdep ict
F at
ic ide
us age
ĠK az
ĠD ue
ĠU l
Ġre new
40 4
\ ":
aly zer
Ġterm inal
ĠS ession
V ec
Ġcer emony
Ġfr ames
Ġre aching
ĠS mall
Ġmeas ured
ĠPro perties
S ol
Ġindic ated
ro ck
inter pret
Ġpass enger
ĠI ss
ĠAnton io
Ġm acro
ĠPortug al
Ġg rade
ag ram
ĠTh row
Ġspec ifies
ĠMat the
ĠK now
Ġref resh
Ġcr isis
ĠR ey
Ġfinish ing
ĠMi ami
A E
ĠS n
Ġtr ansp
final s
ĠPal est
Ġw ish
] ),
Ġc ircle
Ġch ampions
Ġr ival
ag an
respon ds
Ġm anner
ist ed
ĠCEL L
M AC
Ġresist ance
__ .
viron ments
å Ń
Ġint elligence
Ġhigh way
ĠD ur
Ġk id
ph ase
Ġclos ing
Ġhand les
.... ....
Ġbenef it
Ġtrans formation
D er
CL I
Block s
Reg istration
ĠÃ ī
Ġdiscuss ion
develop er
ct ree
W I
lim its
pan ic
ĠDet roit
Z end
h ill
ĠYou Tube
pre vent
Ã© r
Ġt error
BY TE
S y
Ġtr im
gener ic
Ġcancell ationToken
ĠL ieutenant
aw ay
De ep
ĠMo ore
ĠMot or
ĠF ood
Ã ½
Ġsub t
ĠBrazil ian
H int
Ġse gments
reg ex
Ù Ī
Ġcy cl
Ġn ick
g re
Ġc riteria
ĠJ uan
Ġl aid
Ġdecl aration
Ġinterest s
S ender
Ġhel ps
Dest ination
ĠHol lywood
es is
iven ess
ryst al
W ORK
Ġstand s
Ġdisc overy
Ġhum ans
n old
input s
and al
Ġar c
Ġp referred
R IGHT
Ġexpl ained
Ġextrem ely
V C
Ġelect ron
ÃŃ n
---- ---
Ġg reatest
Ġtre nd
Al ignment
ffff ff
M ultiple
ĠS ingle
Ġvol umes
shall er
Ġfle et
IN LINE
ĠInst ead
Build ings
è ®
ĠE arly
ĠM aur
oc racy
ĠDub lin
y ou
ĠRes erve
Ġg ar
M R
config ure
row se
E lem
LE V
Ñ Ĩ
Ġadd s
cknow led
leg es
Ġbeaut iful
Ġpublic ations
st o
ĠD VD
Ġmid field
im ore
Ġdesc end
f av
P aint
cond itions
ĠOr chestra
St yles
ĠBow l
ĠAg ain
")) );
ĠG irl
ĠTest s
Ġb ot
el and
ĠDan ish
at on
ar o
du c
ĠSing h
Ġredu ction
FR AME
jack son
Al ign
Ġcoordin ate
Ġadapt ed
et ies
ĠD ol
GB T
Ġmembers hip
Ġpain tings
ub ic
ss on
G it
IE W
f w
allow ed
subscri be
b undle
Ġa ws
m ill
N d
Ġdraw ing
Ġre try
is or
ate st
Ġentr ance
M IT
ĠCon structor
Ġbir ds
Ġactress es
Ġpract ices
Ġparticip ate
ownt own
ĠK evin
18 99
u ction
ĠA uth
ĠMethod s
Ġconcern s
ĠSt ew
ĠMark et
Ġst ages
Ġpartic le
Ġrespons ibility
Ġshe et
LP ADDING
se ed
te le
bl ast
Ġinitial ized
Ġbo at
// ----------------------------------------------------------------
urr ican
ent ed
ĠR yan
ub le
Ġc ards
Ġre peat
M arch
hash Code
} },
Ġsub sid
Ġpar a
mod ifier
$ )
Gener ate
Ġprocess ed
Ġsh adow
ag g
sp ort
sub scription
Ġ ut
Ġen force
im iter
ĠWork s
O ur
Ġs lo
ext ract
Ġgr pc
ĠIndepend ent
ĠF M
| }
Ġrev olution
Ġcon cluded
Y S
is lation
ĠCol omb
Ġst uff
Th an
;" |
as a
g ems
ĠO t
loy d
Ġch ose
std err
Ġstand ing
Request s
qu ant
ĠCEL LPADDING
ĠCELL SPACING
Ġarg ued
Ġret ail
ird s
ĠT el
SD L
ĠGr am
ud son
ĠH ills
ĠC ow
Ġleg acy
L ONG
Ġp tr
s pect
r x
10 4
stat ement
S F
Ġabs or
Ġhapp ens
ĠS OF
id i
Ġaspect s
sect s
Ġbel ief
Ġinflu enced
ĠSam uel
Sh adow
Ġh un
Ġeng aged
Ġacc used
For ce
Ġrep ly
t v
Ġexception s
aw esome
iffer ent
ĠLiber al
h w
Ġp m
n ate
Form er
att en
Ass ignment
incor porated
k ing
Ġde let
Ang le
ĠD ave
Ġle s
Ġo dd
ĠBang ladesh
ĠK on
Ġst ating
ĠDe ath
ĠT arget
Log ging
ul ating
d ump
j or
po i
ĠCont in
Allow ed
) +
ĠS cal
Ġd ream
ĠC C
ĠR ap
Ġs napshot
define Property
ĠLeg islative
t uple
He ap
ĠT EST
ĠB ind
Vari ant
ĠMay or
i op
ĠM rs
. ";
se a
Ġsk in
i am
Ġarray s
list ed
Ġext ent
TEXT URE
Ġfav our
C art
Ġincor porated
PI O
Back up
ĠLINE AR
Record s
FFFF FF
AUT H
Ġ$ ('#
Ġgood s
C ountry
af ka
F ROM
Ġg ap
u h
bar a
st ances
Ã³ w
ac o
App ly
iz z
Ġre ign
vis it
Ġde leg
Ġrec over
ĠQ ual
Th reshold
Ital ian
as hes
ĠB ou
S ent
ĠP ap
Sub ject
Ġcom ic
Pro duction
d m
ĠÃ ł
ĠA P
ig ious
Ø ª
stats models
em pl
Ġdisc over
Object Meta
Ġcall er
Ġch air
a ire
Ġb lob
Ex cel
Dep loyment
N ested
18 70
Ġcon crete
ĠAl an
In line
sample s
omet ric
Ġm ental
Pr imitive
ĠAg ency
enez uel
Ġexperi enced
Ġ' </
Japan ese
s ources
ub b
B ul
Offic ial
Ġf aster
ĠM ol
ĠI ron
pos er
Ġmov es
ĠW ait
Ġh ired
ĠN ob
rodu ction
Ġoffer ing
n it
M c
Ġ/ ><
che ll
Ġocc as
Ġ ĉ
Ġcl im
Ġ) {
m aker
id ad
Ġsup posed
Ġr anges
ĠWalk er
ri ed
u ent
at en
Ġre start
R oy
Ġclass ic
wh o
Ġrespons es
ic ht
n pm
ĠE qu
n l
Ġdesign er
Ð ±
Ġsu itable
Ch o
Part y
ĠF ern
open api
ĠR ule
ĠIm perial
ĠP C
Ġag ents
T ick
Ġcompet e
ĠDef ense
S cheduler
Ġrest ored
Ġcred entials
an imate
Ġst ress
ĠAdd ed
Ġsynchron ized
iv idual
ĠSoc orro
ĠMem ory
Ġthous ands
A ugust
Ġcal endar
Ġinv asion
at ype
Ġex posed
ĠS ave
ĠPub lished
sub str
ĠCh art
ĠBudd h
Ġcon tr
Ġbring ing
Ġhe nce
A ir
LE NGTH
ĠEd inburgh
Ġal located
Ġf d
Ġshoot ing
v ia
pear ance
/ ******/
ĠWh it
Ġex pos
189 5
Ġp up
non atomic
h or
ĠK am
âĢĿ .
ĠU SE
ĠD raw
c lock
<? >
Ġsymbol s
: &
Ġs ock
ĠPro gress
Ñ ħ
Ġt ile
Ġbel ongs
Ġag ree
a con
Ġparticip ants
Ġappear ing
ĠT rade
ĠS lo
ĠUk rainian
ĠSOF T
Ġcast le
S n
iv ery
unn y
andid ate
ĠSt orage
K EN
az ines
oen ix
mb ed
Type Name
' ):
Ġh am
Ġincre ases
Trans lation
Ġ< ?
ce ived
uk i
g ui
ĠL as
Ġm art
ĠF al
Ġequal s
ĠSe ason
p ipeline
Pro c
Ġsm art
S ig
H OST
ĠS M
J s
OPT ION
Ġjust ice
re tt
ur se
f ac
gle w
ok ing
t re
i ator
C ould
Ī Ĵ
S ink
Ġintegr ation
Ġpro port
TO OL
Ġincor rect
l ive
F oundation
Ġc arri
ĠPu erto
ĠCon d
Str ip
Ġcoll apse
J ames
U ntil
ors es
Int o
ash i
Ġb ra
com ments
Det ector
B usiness
M ov
az el
ĠSh ah
Prot otype
) '
Ġreg istration
f ather
189 6
Ġex ceed
ĠCh rome
pt s
Ġgal ax
back end
ter rit
Ġaccom mod
per iod
ĠMalays ia
ay an
pr ice
j u
ĠP UBLIC
External Task
B M
Stack Trace
OR S
Ġvert ices
re verse
x f
Ġpro vision
vers ions
ĠMont real
N R
Ġsecret ary
Ġ( `
T LS
Ġbrief ly
l ined
R outer
Ġdeploy ment
ĠTh ailand
Ġexper iments
L ow
ĠS pr
ĠT raining
T ip
Ref resh
189 7
Ġop inion
it ics
Ġc m
Ġregard ed
Ġdec ade
ĠC ole
post s
il lo
Ġbenef its
ĠFreder ick
Ġatt ach
------------ -
é Ģ
Ġrecord ings
ĠLaw rence
cre ens
ĠG it
Ġnot ify
Q t
, $
Ġinstall ation
RO W
ne utral
Ġcle arly
ĠP i
iver pool
place ment
thod ox
Ġcour ses
the ad
N U
Ġ[ {
Ġh orizontal
Ġscient ists
y ers
LEV EL
R atio
Author ization
ĠD og
PRO TO
ext ype
Ġprec ision
ĠR ace
ĠG arden
RE AM
oc al
ĠC hem
om ial
Comp ilation
ĠDom in
An other
St ud
ĠSOFT WARE
Ġin fl
ateg or
ĠD A
ĠP M
Ġs now
cast le
Co ord
G ateway
Ġdeliv ery
p riority
ut r
ch t
ç »
Ġlocal ly
table s
Rece ive
Ġequ ations
Mod ules
Ġg one
Ġw aters
Ġh op
Ġj unior
ĠS ET
' },
Ġmass ive
Ġres igned
Ġw rapped
ĠT amil
Ġs in
Al gorithm
Ġk new
ĠA gric
ĠT F
ĠLa ure
t z
Ġinter section
ĠArk ansas
Ġcook ie
123 45
ul us
Ġis lands
ct rl
ather ine
Enc oder
yn opsis
ĠCon n
â Ķ
Ġimmedi ate
ĠH ug
oc he
Thread ing
ĠY an
Ġfl ush
Ġx si
Al t
Ġan th
m illion
Ġch apter
' =>
st ion
de cess
ĠAtl anta
ĠA V
ĠHar vard
ĠL ear
Pub lish
r ub
Ã¶ r
eg as
Ġmag netic
Default s
ĠG on
om as
respon s
INST ANCE
ĠKel ly
app y
ĠM atrix
df s
bor ough
p ixel
D imension
Compar ison
ĠN ever
Å Ħ
Ġc old
Exp and
Character Offset
iv o
Ġv ision
appro x
F oot
Pay ment
ynchron ous
Ġan alog
Ġexper iences
Ġe gg
Sh are
Tag Name
ĠUt ah
ExternalTask Pojo
Ġhe ar
an ian
Fil ename
she ll
Ġdyn asty
Ġex cell
Ġru led
() `
control s
ar ity
de mo
MS G
m ust
ic ing
lic ated
Ġplan et
at able
ĠAng el
ine a
L D
m el
ĠP eters
Vis ibility
Ġpublish ing
LIN K
Ġcap able
n ik
Ġpost ed
Rob ert
Ġl ibraries
ĠCommand er
Vill ages
Ġb right
Ġw heel
pro fit
Ġdis ap
qu et
Ġint ention
ĠA zure
ĠL ower
sub Nav
ĠC lose
Ġinhabit ants
work er
Part icip
Ġroad s
ĠB ody
re ply
Ġl icensed
Ġv eter
ĉĉ Ġ
Per cent
part ition
Ġart ifact
Ġcon j
c losed
c amera
? </
Ġsh ares
Ġj ourney
e lection
ograph ics
Ġsever e
ĠC ra
ud o
m issing
Cre ation
[ _
ĠL P
PA SS
territ ory
ĠC ook
h al
Ġexpress ions
Ġm it
ep age
ĠDe puty
quis ition
ĠB art
Ġro uter
u lo
Ġb id
P ars
ĠF red
text area
min ute
ĠX ml
Ġh a
ĠN atural
ul ner
Ġnorm ally
ĠRe quired
ĠW atch
Be havior
b est
Ã© n
Ġcancel led
ĠR ugby
Ġres cue
ĠB erg
ĠHistor ical
Des cribe
/ #
Rail way
on der
at om
ate ver
g ate
iv ated
Ġclin ical
if rame
} =\
ess aging
) |
Ġkn ock
A K
Ġcon sequ
å ľ
Ġdesign s
, .
aud i
to ctree
Ð¾ ÑĢ
dat aset
ass ador
ĠAn na
ĠI mp
ĠG ET
Ġpass engers
Ġgrad uate
M AN
Ġmin ing
x ff
s yntax
ĠS cript
c v
pro d
in herited
ĠR PC
PROP ERT
R ussian
Ġarch ive
s ent
Ġeas ier
Ġar med
J une
HAND LE
C AC
Ġmed icine
N EXT
act ic
second s
amp s
ĠO UT
Ġem otion
==== =
ĠSe attle
ust ries
ĠMP s
ĠF loat
Ġal gebra
ĠP od
Ð» Ð¸
requ ency
ĠH op
Ġsub mit
last ic
Ġopport unities
Ġf ear
Ġpri ze
Ġfunction al
Ġro oms
Med al
L ater
ĠPublish ing
Ġrelationship s
block s
Ġm ine
ĠAust rian
] \
Ġphilosoph y
Ġassist ance
Equal To
Ġass ault
ĠSc ient
F it
ĠZ one
Get String
fin ity
Ġmark ets
Ġrestaur ant
A U
M obile
Ġwhere as
Ġeffect ively
Ġb om
Sc ott
s ocial
ĠQ String
er on
P RI
ic ations
ĠFI LE
ab e
ĠF ight
Ġrepl acing
MA IN
h int
Dis patcher
() ]
Th rows
Ġident ical
ĠE ver
S PE
eb r
Ġsu ite
is o
Ġaccess ible
Pr ice
ers h
Ġtr uck
ĠL anc
Read Only
H ol
Ġs v
ĠT s
sc ene
[ -
A pril
Ġear liest
ab a
ĠC leveland
ĠCh airman
ĠF ont
Ġes c
br anch
Tra its
N ER
Ġpost s
ĠWeb site
ĠE mer
I ES
ĠÐ ¾
Ġdef initions
Aut om
Ġimp lies
Java Script
ĠDis play
G ROUP
Ġt ack
ĠAl fred
get C
Ġhe x
ĠA udio
ĠS R
Ġassoci ate
ĠExt ension
9 00
ĠZ e
" </
DE LETE
189 2
Ġtrans mission
Ġflo ating
Mat ches
Th rough
Ġsust ain
Ġs we
="@ +
in ian
Ġpra ised
udd en
J anuary
M argin
ĠNO TE
Part s
Conf irm
AR CH
Ġm ob
ĠGener ate
ĠM ission
) =\
Ġent ities
Ġtw elve
if ference
{ (
Ġaccur acy
Ġf lying
E qu
F ace
ĠT ig
ĠFin land
Ġregular ly
ĠI T
ap olis
in ating
Ġlocal ity
ĠD MA
n io
ip edia
Write Line
Ġide al
St mt
pro f
ro tt
s leep
ĠC ensus
Ġthread s
Dat aset
Y our
Ñ Ħ
new s
Ġspect rum
ĠP rom
(" <
window s
ĠF arm
ĠW ord
Ġse venth
l iteral
R GB
Part ial
Ġre nt
k ar
DE VICE
Ġann ounce
ĠF el
Ġc orn
ĠHung arian
ĠC atal
ĠL ith
[ ],
ĠF ixed
55 5
ĠP un
. ;
ĠH RESULT
Ġexp ed
Ġund ert
Ġ' {
Ġim pl
b ai
Ġfall s
B ag
Ġhand lers
Ġg ather
m ate
Ġrem ark
ĠSt udio
ĠL evel
i at
Fore ign
10 7
Ġher o
Ġreg ime
Pred icate
r v
s urface
189 4
Ġil legal
. #
Ù ĩ
re ject
Ġagric ultural
c sv
ĠRuss ell
Ġvict ims
ĠPal ace
1 32
ĠPe ace
x e
E very
Ġflow s
Ġpy thon
d ating
riter ion
Ä Ļ
Ġv ec
Ġpl ate
ĠB ed
Ġcover ing
end region
S IGN
met ic
S heet
ĠA de
irm ingham
ĠRes et
ĠPl ant
Ġc raft
CO PY
189 3
li x
sp in
Ġdut y
ĠP ad
g em
Ġas set
ĠP erm
H idden
H orizontal
Ġp in
Ġeval uation
Bl ue
ĠS chema
Ġprodu cers
vis ions
Ã ¦
Ġfranch ise
ish ops
Ph ase
NotFound Exception
S PI
Serial izable
o j
get Key
At trib
10 3
Ġdat etime
Ġz oom
Ġsuff ix
a ui
button s
ol ate
draw able
ĠCom ics
C ross
ra ined
Ġdef ensive
u ke
Ġlist en
enc er
Ġleg islation
Ġsent ence
Ġ" +
Ġmarket ing
Ġun iversities
ĠFe ature
ah n
Ġrele ases
z eta
ĠM organ
Ġd jango
Com b
ĠEcon omic
M ass
end a
ĠS ud
ĠCh ampion
h us
Ġbo ys
s quare
ĠP ear
reg ular
Mod al
F LOAT
y ll
cri bed
Ġrec overy
Ġra in
Bal ancer
Ġd ire
ĠB rowser
pre view
s izing
wide hat
Ġpartic les
Ĥ ¬
Ġt ropical
t rain
F ilters
Ġa w
User name
vent ory
P ipe
ĠD oc
ĠD ie
Ġmar ine
exist ing
ex clude
T ARGET
Ġv irt
ĠM achine
ĠMet ro
Re ply
Ġcirc uit
Ġcheck ing
Ġ(! $
Ġga uge
Un able
ob i
h ai
DI RECT
Ñ Ī
St ation
Ġarch ae
Ġf raction
re ll
tensor flow
Ġsy nd
m oment
Ġdiv isions
ĠHung ary
) }\
Ġl ambda
^^ ^^
qu o
ort on
Ġ" ")
Ġhyp ot
Ġdisc ip
ĠGL int
Ġschol ars
ĠMarg aret
Ð¸ Ñı
ĠIn it
styles heets
188 5
Ġp apers
So ft
ph oton
h alf
ĠDet erm
w so
ĠB uff
dere q
th ree
ĠK ings
S ound
ĠP atri
ĠOC aml
J uly
ol ia
ĠR io
L C
Ã¨ re
G UI
Ġgr ass
ĠTe le
Ġm outh
ĠAuthor ity
ĠT ool
fo x
B etween
O RE
member NameLink
Ġpropos al
Ġb es
Ġclos ure
decor ation
ĠSt age
Ġd iagn
Ġder iv
Ġst roke
* >
H ex
ĠC ov
ĠRob inson
Ġhelp ing
i ations
r ish
ĠCap ital
get Text
ĠIm port
uet ooth
ĠDe an
Ġreport ing
Add ed
el lect
ĠCh amber
ĠUS B
Dec ode
Ġlo ader
P ages
ĠBo ys
-- ;
[ ];
ĠBru ce
Text View
Ġlook ed
Ġp or
ĠThe orem
ĠW olf
ĠH eb
hold ers
Ġspe ak
Ġm ilit
back s
numer ic
Ġsc atter
Ġresid ence
hib ition
Ġman ip
Table s
ĠB reak
Ġte en
Ġre in
ĠĠĠĠĠĠĠĠĠĠĠĠĠĠĠĠĠĠĠĠĠĠĠĠĠĠĠĠĠĠĠĠ ĠĠĠĠĠĠĠĠĠĠ
Ġcharacter istics
ĠMc K
Ġstre ets
es c
ĠCo oper
ĠD NA
Abs olute
Ġb reed
Ġbr anches
com press
Pr iv
ĠParam eter
Ġd t
Fat alf
ĠR ural
ĠThom pson
Un lock
AR K
ĠMem bers
Ġb on
min us
Ġconstitu ency
Ġoper ates
Elements By
pl ing
188 9
ĠBro adcast
ĠType Error
Oct ober
Ġs essions
Vari ables
="../ _
ĠB etween
! (
Ġobserv ations
I BU
sc ious
ĠO wn
A ud
="# "
p es
ĠM D
` :
List s
il st
ĠD ance
Ġt ank
ĠOn line
ĠGener ic
- ">
CON NECT
Ġad m
le af
ĠS eg
on ed
ĠCON FIG
respons ive
ĠCol lections
b ow
Ġback up
P aul
UN K
ĠJos Ã©
pro v
C amp
ustr y
ĠV AR
Ġd ol
urs day
ĠEd ition
ãĥ ¼
s ender
Ġret ained
E MP
__ ["
Ġ" --
Ġremov es
Ġs elling
---- -
g able
ĠA BC
ĠS ide
bo y
Ġhard ware
ĠV ik
STAT IC
Ġeven ing
Ġb ishop
Ġrece ives
Ġcre ative
w ind
ĠMar shall
Se ptember
ug oslav
y aml
---- --
p n
C he
ia h
Ġmanufact uring
Ġfl ash
pe er
ĠN ep
Ġsh ock
Ġsing ing
ĠAust in
row Color
Ġman uscript
c z
Ġfunction ality
18 60
Ġf ra
Ġm odes
ĠPit tsburgh
Inst ances
ĠM S
ĠForm at
et ition
Ġcitiz en
ul um
ĠLank a
ĠD at
ĠOrgan ization
Ext ended
ĠComm unist
Ġsubstant ial
Ġarr ival
P K
^ +
ĠAs ync
Ġground s
urre nce
Ġclass ified
olic ies
spec ies
ĠMe an
ar us
æ Ĺ
C ost
ĠC er
Ġde pos
Ġa ver
er os
IN CL
Con version
Ġs lide
ĠR y
s an
Con struct
G reen
ĠG ray
Ġman ual
D ao
Ġemerg ency
/ %
ĠM ode
ĠM ulti
Ġsh ut
{ {\
al igned
ok er
Ġun us
Ġob vious
ĠMount ains
ĠFri ed
m ultiple
up per
ĠR andom
ĠB ound
, </
; %
Nd Ex
Ġlow est
Ġ[ #
O rient
ĠSystem s
bra ins
Ġfile d
text width
ĠD allas
Ġdescri bing
op am
ĠC L
ol ves
ĠMet ropolitan
> ');
D a
f aster
ĠVi enna
sign al
S chool
ensure math
ĠAl liance
C ut
ĠPh ot
fail ure
is ations
Ġst y
Ġprodu ces
Ġcrick eters
** :
Ġkeep ing
Ġkw args
Ġa str
Ġg fx
W alk
over ty
Ġann iversary
Y P
ĠVis ual
C V
Ġtop ics
ĠF ive
Ġm eters
189 1
st mt
Ġphen omen
Ġathlet es
S mall
ĠPr ad
pars ed
ĠL iverpool
SD K
) ',
c ia
ins ula
ley ball
sl f
Ġteach ers
ĠJoh ann
Ġin fe
ĠHamp shire
g ence
ne ur
is i
Ġphys ics
Ġb anks
Ġexp los
g ow
ac er
ĠYear s
ane an
Pro v
Ġsub mitted
Pro vid
Ġste am
j q
Ä Ł
Ġcallback s
resource GroupName
ĠEx change
Ġat mo
ur ers
ph er
' \
ri bute
Cl aim
Ġ"- //
re pre
Ġb lo
Ġpremier ed
ĠS uch
C a
Ġbl ank
per mission
> ';
d type
Ġres ign
Ġp s
Ġcom pl
Ġbeh aviour
c art
}) \
ob a
ĠMond ay
ĠPr imary
Don ald
ig ible
isl ature
ĠPl atform
Pol itical
ĠAdd itionally
ĠWel sh
Ġmy th
Ġup grade
const ants
Ġfl uid
In clude
================================================================ ========
ct l
Ġneigh bour
if ts
ov o
ĠT an
>() </
Ġent ering
C odes
ĠU rb
Ġinstr uments
th a
ic he
um ed
ĠRoman ia
Ġw arn
Reg ex
t cp
ĠKn ight
ograph er
) ^{
Ĩ Ĵ
reed om
Vert ical
ĠStew art
Ġs a
Ġeval uate
Ġkey board
Ġst ood
M iddle
Ġt ied
os ity
oot strap
M ultip
Ġrough ly
Ġlist ening
Ġchalleng es
Ġcarry ing
Ġecon om
5 000
att an
ĠL IC
H ide
Reg ular
Ġag encies
g uid
Ġin de
serial ize
ĠRes ources
AME TER
ad ers
ĠB ush
apt ers
ĠRail road
ĠLeb an
Ä ħ
sw ap
Re vision
ou ver
ĠInter face
De cember
Ġsol ar
pr ison
Ġcompos ers
string ify
Ġs ink
Ġan cest
Cap acity
Ġsurv ived
Ġf est
Operation Exception
Ġt y
Ġshe l
Ġpaint ers
Ġ" (
v est
Ġad mitted
C lock
Perm issions
under line
ĠĠĠĠĠĠĠĠĠĠĠĠĠĠĠĠĠĠĠĠĠĠĠĠĠĠĠĠĠĠĠĠ ĠĠĠĠĠĠĠĠĠĠĠĠ
ĠSar ah
it err
ul ates
ult an
Ġcould n
ro b
ĠBr anch
The lia
Ġserial ized
. ~
Check er
Rece iver
ĠP A
Ġlands cape
Im ages
u ary
S ur
k l
Ġf urn
ĠB ag
Ġapp lies
ĠMc G
ĠSe veral
C ritical
Ġl ift
Ġread s
jet brains
ĠCar ter
zer bai
Ġ} ));
; ,
F B
Ġret ain
Ġlap ack
ĠH old
ug s
ĠRog er
âĢĿ ,
L com
} %
m acro
ĠN am
ĠW ard
ĠB OTTOM
W D
lic as
t ax
Ġprint ed
Ġrender ing
ha us
qu iring
WARN ING
ĠSh ar
G P
Ġmin imal
Ġsp end
ĠM obile
Ġval ley
ĠH ell
ĠSt and
g c
Ġr m
Ġrail road
Ġpars ing
Ġp ip
ĠSchool s
r at
ĠP ackage
Red irect
) _
ĠChrist opher
q quad
È Ļ
Ġ( );
Emit ter
Ġpred icate
Ġcolon ial
ipp et
ing ly
Ġden ied
Ġposs ess
ĠO THER
ĠG irls
Ġout line
Ġdam aged
ĠO K
IF T
11 4
Ġappro val
und ef
le ans
Ġus ual
in ery
Ġcon vention
Ġweek ly
ĠS ac
tr as
c atalog
nos cript
ĠUp per
Tok ens
ordin ates
Ġgener a
is en
Command s
Ġmod er
z ier
ĠKenn edy
Ġro ots
stream ing
ĠLim ited
Ġs cores
Cl ause
N il
B ur
u is
Ġg ro
ĠBern ard
Ġorgan isation
Ġmain tenance
cy cle
N OS
18 65
Ġaccom pl
U TE
Ġpen alty
get Property
Ġinter act
aval ry
k an
Ġappro aches
Ġposs ibility
ff ee
max cdn
ell ar
ĠW right
ĠOtt oman
a ac
act ivate
ĠTh or
Ġwith d
et ry
Ġreg iment
Ġ ÑĤ
ĠK ir
Ind ices
Ġde precated
d al
188 8
UT C
G T
Ġw id
ĠP DF
l ings
ĠG las
Debug ger
IBU TE
R pc
C U
H y
u art
Ġreg ex
ĠO blast
10 9
Ñ İ
or us
ĠBro thers
Ġrender er
ĠW rest
Ġaccess key
Act or
ĠInst all
ĠN elson
Ġdepend ent
c ourse
Ġpers pective
ĠL ag
sc r
Ġob server
j amin
c aret
ampl er
Ġoutput s
Ġve get
Ġrecip ient
St ates
v irt
cd ots
Ġ/ ></
Re q
Ġincre ment
ĠM L
ott ed
Ġhead s
Par cel
Ġintegr ated
ĠAt omic
Ġpro sec
ĠV enezuel
str iction
Ġdo ct
og a
at ical
Ġm om
GL enum
Ġs alt
ĠSet tings
ĠBrook lyn
Ġde code
math sf
Ġso il
qu er
} |
188 7
Ġscript s
ĠC rown
Ġg ang
pon d
Ġsim ult
Ġcor responds
R M
14 4
Ġloss es
ĠMin or
OP EN
alle st
ab i
ĠB ull
ĠCamp bell
ab ul
Ġ* _
MA KE
ĠF low
end ment
f are
D ash
She ll
Ð¸ ÑĤ
Ġaccompan ied
ĠSen ator
ĠMar ie
f iction
ĠL eft
3 50
Ġz ip
t bl
ĠTem plate
ĠM ut
Ġ@ {
in vert
Ġ' ../
Ġcross ing
ĠA rena
i u
) },
y t
10 6
inner HTML
] $
Ġinter pre
in ction
Ġresearch ers
faster xml
Ġwon der
Ġsomew hat
Ind icator
ĠAd ams
Ġconnect ing
co hol
ance led
Se ason
Ġlo se
ĠR ot
std out
s ame
lic ts
ĠH um
log ic
success ful
TE GER
car bon
f our
ĠO d
Ġf ixture
Ġarr anged
ĠR TC
Res olve
Ġex cess
B D
en ario
Ġs el
field set
N P
h is
u um
ĠWh ere
Ġ( <
ĠN ar
get Time
CON F
=" '
ĠId ent
Ġ} .
ĠR aw
Ġvisit ors
Util ities
prevent Default
ĠIns ert
in os
Ġpublish er
ph ab
Ġsign s
c ases
mod ified
ĠDak ota
[ (
J ack
ĠI MP
Ġid s
ĠMod al
mar ine
ĠDe cl
Ġhead ed
Ġresident ial
ke leton
quest ion
Ġne ither
ĠF ound
Ġcl er
ĠLIC ENSE
Pol y
ter y
Ġiter ation
ag ement
be at
inn ed
ĠNiger ia
Ġmov ies
Ï Ģ
Ġsign als
h base
Ġd type
Ġland ing
ĠBut ton
ĠMa ine
ĠBalt imore
ir ates
Ġoff ensive
Ġp ert
if le
ev t
prec ision
ĠL ane
Ġaccur ate
first row
g un
Ġnorth west
2 20
Ad v
Ġcour ts
ĠG ulf
us ive
Å Ļ
em ale
Ġalign ment
Hand lers
ĠH it
Art ifact
ich i
em en
ĠC red
T oggle
Ġadapt ation
claim ed
C AP
w m
Nov ember
Ġ// -->
ĠC arn
Not ify
rom ium
i q
Ġrep orter
Ġ$ $
ĉĉ čĊ
Ġare n
C ss
ant ed
be h
="# ">
ĠJ ason
u able
Ġthem es
Ġde puty
La unch
Ġrep o
vari ables
2 13
Con v
> /
C atalog
188 6
ow ski
ĠB ot
Ġven ues
c am
Ġconst expr
s napshot
Ġr ivers
Ġsu it
ĠColon el
it ations
Ġ( ((
Ġfriend ly
Ġh int
Ġpaint ed
am ents
Ġs i
command s
A CTION
Dis able
ok a
d w
G allery
fl ash
vers al
ĠN u
Ġbound aries
c id
assert False
Ã Ł
ĠE le
Ġro se
Ġre nov
Cl one
ĠPrad esh
LE N
Ġpart ially
A lex
Ġs wit
Ġvers us
bad ge
Ġp ray
ĠFinal ly
Ġra p
Ġsee ing
ĠSum mary
ĠSt yle
N ING
ĠOr thodox
b ach
å Ľ
Ġgrad ient
Ġsound track
re ction
ON LY
: **
al tern
ĠM and
Ġc url
op ol
sh aped
ĠCon vention
ev ens
Ġ# #
Ge orge
Ġremain der
lot te
ina e
Ġm orph
. (
Ġautom atic
f actor
ĠE nt
OFF SET
ĠA UT
ĠD ATA
Ġpartn ers
ast s
T l
ĠT ournament
ĠE ss
ĠIter ator
ĠOr leans
ĠB irmingham
al ia
ĠE U
T ITLE
ĠT ak
Ġs ig
ber ry
ĠW H
ĠJ u
Ġ Ø§
". /
mir al
ĠCre ated
(' ../
Ġag gregate
Ex change
we ak
Ġclo ser
g gle
Ġform ally
}} {\
it ivity
Ġ! (
uc ene
V I
tem plates
nes day
DO WN
Ġactiv ist
uff le
Ġbreak ing
Ġfac ilit
p ot
or ig
ĠN ash
ane ously
Ġinitial ization
as ets
ĠF actory
ĠFrank lin
m x
å ¯
1 18
"> '
ast ery
Ġwe ights
ĠMad rid
å ¼
10 8
Ġpl ugins
conf irm
ĠMor ris
Ġsh aring
rol led
ĠĠĠĠĠĠĠĠ čĊ
im edia
ul i
ul u
E OF
q view
an ne
Ġguar ant
Ġs urre
l ater
Ġ{ !
. :
b ishop
ĠP AR
b olic
w right
Att achment
}} (
Ġhash Code
V P
Ġdec isions
ĠV el
Ġjournal ists
Ġd ress
ĠPr incess
ĠFI FA
read cr
ĠCent ury
ĠĠĠĠĠ Ċ
iterr anean
C lip
ĠN ad
Ġexpl ain
l arg
ĠV erm
Json Property
apt ist
Ġl in
ig ue
lock ed
Ġra cial
RET URN
ĠCal led
R TC
ĠMur ray
char set
hens ive
pp ers
ĠG all
ro ph
Ġback end
ĠPos ition
n ed
ĠR ud
Ġdec ide
Suppress Warnings
×Ļ ×
S il
++ ++
ĠM B
s lot
pl ane
O bservable
ÑĢ Ð°Ð
Rec ogn
á º
em ploy
Fr ont
' "
Ġto t
ab solute
pan ies
Alloc ator
fav icon
ĠM aj
ĠS PI
Ġperm itted
Ġincreasing ly
ĠK um
Ġpr ices
ĠC P
Ġjud ges
Ġj uris
b uffers
ĠH end
Inv ocation
> ../
Res ize
Ġsus pended
Ġentert ainment
Ġthe ater
Ġc ited
Ġthe orem
Ġnu cle
ith metic
roll ing
ĠN BA
writ ers
Ġregard less
ol t
ĠDel hi
G S
ĠK o
( @"
J o
n x
UP DATE
ant ine
MLE lement
on ian
Ġcom ed
ĠB ron
t ls
Ġw ed
Ġon going
p ine
Ġ" :
Ġun expected
ĠB asketball
TR ACT
Ġsuccess or
ĠJud ge
ST REAM
A IN
Ġme ets
ĠU pon
">& #
ĠU lt
evel oper
F D
ĠW oman
periment al
Ġstream s
Ġsur pr
CP U
Ġorient ation
S al
ĠY e
w ire
ues day
Ġcent ers
ĠMunicipal ity
ĠE qual
ĠGr ad
Ġad apter
an alytics
b x
Ġt ub
Ġsequ ences
D ry
Ġstr uck
ĠLin ux
Rout ing
Ġbe ar
Dec or
ĠK u
[] )
I MAGE
}\ \
ath on
th ird
ort ed
}_ \
cc cc
Ġthink ing
ĠM ars
Br anch
h um
Ġw ounded
ĠCom par
Ġharmon y
rows ers
Ġan sw
ĠT ob
Ġfem in
Sign al
Ġll vm
i ot
Ġd ating
s amp
y arn
Ġabs ence
ĠN ation
anc ouver
DE P
E q
Ġd s
Ġth anks
ĠIP v
std lib
Ġconcern ed
Ġdeb ate
ĠS ql
Inv oke
18 50
} `
iv an
Initial ize
Ġm arg
ĠPort land
Ġparse Int
Ġperiod s
188 2
Ġwith draw
com par
Ġd ot
Ġins urance
24 0
Ġc rown
( ",
u ator
ä¸ Ń
Ġto ggle
ific ial
ĠA qu
188 4
Ġo x
Ġher itage
Ġm igration
ĠValue Error
s is
18 64
(" -
(" [
18 61
Is Null
Ġmov ements
et he
Ġim prison
d v
Ġnot ably
ĠM ix
ĠTro phy
ch annels
V oid
Ġl icens
ĠSh ared
ack s
Ġutil ity
C N
oust ic
Com pute
Ġex ponent
Ġresource GroupName
x l
Col lector
sm art
ĠProt ocol
ĠJim my
dd ie
or ce
188 1
Ġsub set
if ecycle
Ġform ats
ĠMov ement
Event Handler
Ġset Timeout
cent ral
Ġbutton s
Ġpres erved
Leg acy
] ];
ic ular
Volume Source
Ġ[] *
Ġfavor ite
ĠStan ley
local s
Ġdirect ive
ĠV ert
G N
Ġp ipe
Get ter
ro se
Ġo vers
s u
Ġscen ario
ĠA y
Ġn est
Ġdebut ed
Ġd ump
') ).
Ġcons ervation
ĠN g
Ġappe al
ĠL IMIT
Ġcomp re
ĠCh allenge
writ ing
ver ts
Ġfinal s
re ements
Ġapp s
m f
G ood
ĠA DC
ĠD I
Byte Array
ĠR ub
ĠAfghan istan
Q UE
Ġprison ers
DIS ABLE
out line
ge on
duc ational
un its
q a
Ġse q
Initial ized
Ġm k
iv ial
Ġspec ification
S ym
Ġhapp y
PO INT
Ġchild hood
Ġv oting
ass et
ĠH ero
TO DO
Ġ ../
Ġ\ {
ĠG T
Direct ive
ĠTh ough
T om
vel ope
Ġmem orial
NUM BER
> )</
* .
Le ague
c x
own ed
ĠKar l
PL ICATION
ĠCons ervative
Ġ. /
S panish
Ġembed ded
Ġin ternet
F IN
Ġas c
Ġcontin uing
> ',
Ġadvert ising
ĠGra ham
Ġt ip
c ussion
ĠCar ib
Ġh ill
Ġpo em
clud ing
000 1
Ġcritic ism
cc a
Ġtri ple
Mich ael
ter ior
A mer
ĠPol y
urrican e
im plementation
gu ard
ic ient
ĠNov a
ĠGu y
Ġex clusive
âĶ Ģ
Ġf ru
get Default
V IEW
Ġne uro
ĠS peed
Ġr ational
capt ure
ĠM ong
Ġspirit ual
ĠS ep
cred ited
ING S
Ġcur r
P atch
Ġpro c
z es
copy right
Ġs che
ĠE sp
ĠAthlet ic
d ale
High light
Ð» Ñı
S am
ech an
S us
% );
Http Request
ĠB ud
BO OST
ĠW ind
Ġc ash
ur u
ĠAdd s
node Type
Ġbul k
Ġport s
W ords
ĠS witch
ĠL ess
ĠS TR
Ġpro jection
Ġas semb
Ġpass phrase
sh ots
Ġx hr
ĠTrans itional
T own
r ices
al ter
Ġm apped
ol id
Ġden ote
Ġnav al
Ġcritic ized
valid ator
Ġfund amental
Ï Ĥ
m usic
build ing
Typ ed
Ġprincip le
ĠM ET
Ġpre gn
M F
AD C
}^ \
ADD R
Ġpotential ly
ĠE C
ĠAss istant
app oint
Ġpresent ation
Dem ographics
Ġdevelop ers
Ġmeasure ment
att ice
ck s
Ġmag ic
ĠE N
Person nel
ourn als
ĠN ord
m ates
NO WN
> $
J ew
Ġsu icide
Ġdisc rim
Mix in
wh at
Ġdrug s
ĠB aker
Ġg arden
S prite
ak u
Ġhabit at
Ġs udden
Ġround s
Ġeffic iency
ĠD od
ĠB illy
rest ore
t one
Ġn ations
( %
or o
ro v
Ġmiss ed
C losed
p lier
Ġsurg ery
n ested
Ġtra il
Ġdiag ram
Ġ{ *}
ĠE D
Ġenc ryption
ĠM eg
Ġto ler
Ġhe aring
Ġpopular ity
Ġdut ies
Ġexp ensive
">( </
ham mad
Ġstar red
V ers
t ick
Ġreli ef
Ġmin i
Mo ths
r ans
@ {
ĠS TD
get Data
Un its
cur r
or f
Component Model
Ġprocess or
fl uid
Ġcred ited
e enth
ĠAthlet ics
USE D
Ġqual ifying
ĠP ra
ver bose
ĠP ictures
our t
Ġb attery
ĠMo z
m achine
Ġbr ig
Na N
ĠEv ans
n eg
Ġpres erve
Th ree
ellect ual
Ġinter actions
Ġadv ice
ĠJ osh
Ġa ux
font s
Ġc ous
st ud
j oint
ĠIn stance
Ġrele g
Ġt all
Ġweek end
ĠG iven
MA G
ĠIN T
lo tt
Ġp a
Ġrespect ive
ĠU g
qu ick
Al so
ipher al
Ġlocal ized
fin ish
h ot
tr i
}} }
C op
Ġsouth west
Mar shal
m und
IN PUT
TH READ
e i
ĠBe at
ĠDef ence
is ons
E r
F X
Instance Of
enc il
st ers
Ġ" ./
Ġsp ending
Ġprov incial
Rel ated
re z
Ġcoast al
Ġis set
ĠR oom
Ġdec imal
ĠPr inc
Ġstudy ing
Ġappoint ment
ä¸ Ģ
F atal
ĠSt orm
ev a
V A
ĠR ain
ĠCh ron
Ġdefe ating
ĠInitial ized
ĠJ azz
Al umni
c ost
Ġb low
" +
id al
sp lice
Ġg allery
CHAN NEL
Ġon click
ĠPref ecture
Ġne arest
exception s
Ġhor ror
ĠM ans
Ġsl ave
Ġm i
u its
ENT ER
Ġhundred s
ĉ ĠĠĠĠĠĠĠĠĠ
Ġse es
ch arts
Ġsub group
ĠF ast
grad ed
fort un
Ġturn ing
ĠC ass
v y
Ġcor porate
S pring
Ġ ib
18 63
p ick
Ġarg v
Ġrom antic
Ġd ense
ĠT yp
ĠP il
Sh ift
M X
ĠCl uster
ĠCar los
usal em
ĠK it
Europe an
rack et
og s
m al
Ġbr ick
Ġbusiness man
Ġd ialect
int o
ab b
ĠPer formance
Ġparticip ation
ou p
ĠTrans action
Add itional
list en
ed a
o auth
Ġseek ing
Ġconcentr ation
Î »
ma jor
ught ers
Ġrestrict ed
Ġpr on
ĠNorm an
cons ist
ke ley
et ary
ĠCat hedral
HEAD ER
qu arter
NE W
al ym
Ġlong est
T or
Ġnewsp apers
R ank
et on
Ġcom fort
Ġt ur
with out
ĠMatthe w
trans fer
Ġcount s
ĠB eg
ĠThe ater
pub lished
ĠSD K
node Name
ENABLE D
Ġform ing
ĠEn try
ra f
Ġr ig
ib ilities
12 2
ik o
B in
umb ent
Fl ush
Sh ard
G l
Ġsym pt
Ġintrodu ce
Ġsh a
Ġ/// <
Ġn am
ĠNaz i
12 4
ĠK an
Ġt ar
Ġphot os
he alth
U i
ĠB enn
grad uate
ebr aska
Ġ urg
Ġgen re
Config ure
ĠBO OL
M icro
h attan
ĠCr icket
Ġ ].
ĠBl ues
ĠGu inea
Ġmount ed
æ ī
18 62
if old
Ġgu ilt
Ð½ Ð°
am ond
Ġ-- -
ibr ation
od b
ind icator
short cut
ĠInitial izes
ĠInd ians
Ġmach ines
F ast
Ġstay ed
Ġtrad ing
ST EM
t own
Ġkey word
ĠC os
> ("
se ctions
ĠGL enum
Ġremov ing
ĠT ower
Ġguitar ist
ĠS elf
in verse
View s
Me asure
T ur
url s
Callback s
Âł Âł
ĠRe lease
ĠClass ic
ĠC WE
ĠG ary
ĠV ic
m ysql
? )
ĠT ensor
Ġtrack ing
ĠI ce
Ġrec ru
Ġpick ed
col ors
ĠT i
Ġmark s
ĠConf eder
l ane
Ð¾Ð ³
Ġart istic
ĠElect ric
ĠS S
12 1
Al bums
ĠBroad way
K nown
ĠM ak
12 34
bo th
rip ple
M art
ĠN an
ĠV M
it is
ers et
Ġt um
11 3
ĠÂ ©
ĠPol itical
Prop ag
u ity
Ġc up
Link s
un ing
Ġinter mediate
Ġequ ipped
it ime
rec v
Ġm atters
3 000
Ġa cknowled
Render ing
ĠW ing
Ġg rown
ĠR ico
lo be
Head ing
Ġdr iven
ĠC ultural
ĠS occer
SY S
- $
Ġw ine
Ġq q
Ġescap ed
Start ed
he ap
ĠS ax
=" {
Ġvis iting
Ġs ounds
process ing
F ebruary
Attr s
Ġ' [
\ .
Custom er
uk a
oper ations
ĠS DL
se ek
D X
s at
ĠB ey
ĠL GBT
inter faces
187 8
ir us
Ġt icket
d ater
ĠTra il
] ));
ĠUn ivers
-------- ---
Ġal gorithms
comm unic
.. ."
Ġm m
mon itor
Key board
Ġp sy
Ġf ruit
Ġst im
Ġfac ing
($ _
ĠI an
ĠWar ren
ij ing
end ers
op les
Ġcol le
Ġw arnings
Ġacc ord
ant om
col s
ari os
m aking
Im plemented
ur ring
Ġlo go
ffic ients
d iag
= }
ĠAl aska
Ġpop ulations
sec ure
L im
und a
Ġset Up
oret ical
Ġviol in
Ġover se
ĠD iagnostic
Ġforest s
U uid
ĠDE BUG
ĠG reater
ĠSer ge
188 3
ElementsBy TagName
FA I
Ġtrigg ered
k ube
og g
Ġb at
Ġsil ent
ess ment
Ġvari ation
ab ling
ĠOper ations
D AT
uck ets
ĠAnd y
cor rect
r ant
ĠST AT
s cheme
Ġcomp ression
ĠĠ čĊ
Ġequal ity
CO RE
ĠTig ers
Ġd w
ĠA pi
ĠN eg
Ġli quid
Ġremov al
Ġde ferred
Man ifest
h dr
al is
ĠMit chell
Ġpop ulated
x c
m anaged
Ġflow ers
Ġtransport ation
ĠS uccess
Ġcrow d
ĠCom pute
Ġ$ (\
Ġdecl ine
Ġsp oke
Ġdoc s
am pton
187 6
Find er
ĠPier re
p ent
ĠDer by
ĠU TC
AC CESS
Ġexerc ise
NOS CRIPT
Î ·
pro b
18 75
nc ient
book s
car ousel
ĠBelg ian
33 3
ĠSt ack
: /
ĠYork shire
am o
Ġh ip
Il legal
the less
Ġoccup ation
Ġrestrict ions
b az
Ġtri als
}^{ (
ĠJ enn
Ġrapid ly
ĉĉĉĉĉĉĉĉ ĉĉĉĉ
ĠN ature
Ġmag azines
CLI ENT
Ġmin im
custom er
p referred
ĠL ud
Ð¾Ð ¼
D i
Ġp ng
ĠH erm
Ġ' )
ĠQ t
xy gen
R oom
Ġcon front
enc oded
oth y
Ġp overty
ĠC atalog
param ref
Ph oto
Ġt ight
b n
em or
im ir
Ġmix ing
W M
inc inn
ĠArg s
VER R
ĠRuntime Exception
C over
ish ment
ĠC ell
ra ham
BU F
ĠWay ne
Ġ{ })
ĠS r
CONT RO
ĠR acing
Ġput s
Im g
å °
Ġrec overed
Att ach
Ġfish ing
list ing
LE FT
ĠLoc ation
F ar
ĠHun ter
Ð ¶
ĠA zerbai
ĠGlas gow
z ym
ĠB ible
Ġinvol vement
ific ates
p read
Ġv ast
Ġiter ate
Ġvess els
S el
Ġdeploy ed
get Logger
e or
g mail
Ġem ission
Ġp ian
Produ cer
Ġcap abilities
Ġsat ellite
ĠJon athan
ĠÐ ·
c ategories
Ġre venue
Ġab use
us a
ĠHel per
ĠO pt
Ġcol leges
Ġmanag ing
M anaged
ov y
ĠM ove
ĠChar lie
GEN ER
map per
Ġo ps
ie ge
Ġext reme
ĠL iving
Ġdynam ics
RE C
job s
jb oss
et o
ĠG ot
Ġass ass
ac l
ĠJohn ny
TIME OUT
Ġcomp ens
Ġobserv ation
Ġinsert ed
ĠY ugoslav
un iform
L ay
item ize
3 20
Ġserv ers
res olved
ĠM ack
ĠG C
ĠSt ars
ou ches
size i
Ġfeed back
Ġinteg ral
Ġking dom
ĠSe q
ĠH il
H ard
Ġas ym
amil ies
UM ENT
Ġt ie
ĠVal ues
Ġn an
Ġda ughters
O ps
ok u
Ġobject ive
ched uling
ĠSte el
ĠEd ge
Ġconsider ing
Ġadult s
< >(
ĠHe ader
Ġcl ause
Ġmount ains
st ock
Ġvis itor
** *
Ġel der
Ġpol ar
her its
Ġin finite
el ist
table block
Ġf ault
Ġr hy
ĠĠĠĠĠĠĠĠĠĠĠĠĠĠĠĠĠĠĠĠĠĠĠĠĠĠĠĠĠĠĠĠ ĠĠĠĠĠĠĠĠĠĠĠĠĠ
ier ra
oc o
ĠU E
ĠL ayout
PROPERT Y
m un
Ġbeh alf
Ġnormal ized
Ġaltern ate
Ġgu id
Ġfall ing
ra ctions
Ġab b
Ġpre decess
ĠM aterial
Ġinj uries
âĢ ĺ
m any
ĠDr ive
Ġind igenous
k n
Ġnom ination
Ġcompet ing
ov iÄĩ
and box
Ġk it
Un ion
Ġaff airs
00 2
conf irmed
ĠCl ar
C riteria
Ġcop ied
incinn ati
Ġspe aking
sp l
Get Type
Ġmed ieval
get Current
Ġdef ence
187 9
Ġbe ach
Ġh ole
Ġdecl ined
pl aced
Ġsim ulation
Ġcelebr ated
e led
op enc
orient ation
ĠWrest ling
ĠÐ½ Ðµ
FIL TER
ma de
fer ences
for ced
Ġquant ity
ĠK ath
Ġcount ies
Ġbelong ing
å Į
Ġin duct
Ġe lectoral
ag h
stit u
Ġexist ed
D ot
Ġtown ship
Ġpersonal ity
Comple x
P ad
Ġbe am
× ª
ĠP FNGL
ge om
å º
f olk
n egative
Ġpublic ly
Ġw he
Ġs pr
F ri
le ave
Ġrank ing
ĠFurther more
Ġprovid ers
ĠMil an
Ð ³
ĠC OP
Å Ľ
ATTR IBUTE
TR A
cred entials
or ia
U V
ĠElement ary
Â ½
ro zen
ĠĠĠĠĠĠĠĠĠĠĠĠĠĠĠĠĠĠĠĠĠĠĠĠĠĠĠĠĠĠĠĠ ĠĠĠĠĠĠĠĠĠĠĠĠĠĠĠĠĠĠĠĠĠĠĠ
F lo
Aut hent
ĠNev ada
ĠRem arks
L and
s om
ĠR T
Ġbreak s
ĠM ess
M r
S ys
ĠAd vis
ĠF light
ĠCommunic ations
ĠS even
Com ments
ĠB inary
ĠMov ie
ĠK ind
Ġrequire ment
Ġd iverse
Any Ref
Ġin coming
ĠW ang
Ġview ed
root Scope
ent e
us k
CL K
Ġmagn itude
ced ure
Ġrefer enced
The ta
ĠEn sure
Ġdiam eter
Ġin variant
Ġd f
O IN
ot er
ĠC PU
equal ity
ĠM enu
Ġequal To
Ġclean up
Opt s
ĠG P
Ġsurround ed
w inning
iv ot
ĠF ine
d ummy
ĠArt icle
en kins
ĠCom puter
ert on
Ġcomp atibility
C LO
b ian
Ġc urrency
ir ms
ĠR angers
Ġb io
Ġv ic
ĠSerb ia
ann on
ĠF alls
us c
99 9
Ġconf idence
ĠD ocker
S B
Ġr id
Ġfiction al
ĠSal v
Medal ists
osp itals
vers ed
Ġ$ ("#
Ġemploy ment
ĠAlbert a
u pt
cel ona
thread s
ĠBar ry
pay ment
c aster
Ġpoint ed
pol ation
ĠProf essional
E t
ĠH ope
h space
ĠSh a
no indent
ĠCheck s
187 4
ĠDefault s
Ġd x
++ ]
Ġoper ational
L ER
lay ers
ĠComm ons
Ġar row
Ġemph as
ĠFl ag
Ġs ensor
Ġf oss
Ġinvol ves
" ):
Orient ation
ĠF oo
Ġpract ical
ĠA lice
st ad
Ġ* */
Ġopt imal
Ġss l
Ġ ));
request s
O s
] ",
ĠF er
S at
ĠP in
Ġal location
Ġmeet ings
Ã§ Ã£o
Ġch rom
Iss ue
cit et
pos able
Help ers
pen se
bour g
Ġcircum stances
' }),
Ġre act
Ġfil med
Ra ises
Ex pressions
Ġd ated
ĠHawai i
ĠV k
ĠStruct ure
ĠSpec ifies
Fin ished
Ġdec ay
Ġcho ices
add on
read only
Ġor bit
Ġ ur
im o
Ġelim inated
G old
Ġre putation
Ġg rey
18 77
Ġmeasure ments
Ġp refer
ĠWh y
ĠI van
Ġbir d
Ġaccomp any
) >
ant ics
C ached
Draw able
ĠMon te
go al
or acle
ĠD WORD
set Value
Ġd owntown
ĠRoman ian
Ġt ill
ĠAl bum
Ġre lay
18 68
ĠJer usalem
= </
ĠF leet
B AD
Ġal ive
ĠK os
ĠG un
Ġpo ets
ĠT ake
Ġst retch
cri ptions
OP ER
ĠM eta
ĠLem ma
ocom plete
Ã¡ s
U r
Input s
Ġst ops
ĠF oot
i able
Sub mit
itar ian
Ġh ack
og ue
ev es
Arch ive
Ġlog ical
AS K
Ge o
N orm
Ġmunicipal ities
ĠFinn ish
ĠT ax
ĠPar ish
cl ine
leg end
Ġcon clusion
host s
sc ar
hand lers
Ġoccasion ally
Ġmon ument
ick en
PAR AMETER
Ġknow s
ift y
B en
cal c
Ġgovern ments
ĠA ld
187 2
ĠBe ck
} ")
query Selector
; "><
ĠAut om
Ġann ounc
ign ite
Ġ Ã©
As String
it r
or um
ĠCont roller
Ð¾ ÑĤ
ĠS ongs
]] ></
ifi able
re b
Ġp ad
ĠBen jamin
Ø ³
RO P
Ġcontain ers
Ġe arn
d atab
U DE
v r
=" //
D ER
Null Exception
hol m
al gorithm
Ġther apy
ar ound
ĠV egas
ne q
Ġcompet itive
Tax a
so lete
M iss
EX CEPT
ĠS creen
=" ./
Example s
en ess
ĠL E
Ġatt orney
ĠB achelor
i est
Work space
Ġcharacter ized
ĠR and
ne e
Ġproto buf
Ġ ion
Ġb acter
os es
ĠV ancouver
b age
=- =-
ĠV as
Throw able
P OL
ĠPr iv
-------- -
Ġpol yn
ĠAn alysis
ĠS outheast
ĠPro tection
ĠH orn
vent ures
og ene
Ġde struction
la unch
ĠMic hel
A WS
ĠM es
Ġsp ark
------------ --
Ġm esh
Ġw ides
ĠB und
ĠEvent s
Ġro bot
Ġen demic
FAI LED
W ITH
f un
Ġthreat ened
INTER N
rg b
Ġchampionship s
Ä Ľ
file Name
Ġdelay ed
( {\
ĠV a
CK ET
ĠP red
do es
ĠMag ic
ĠT otal
Ġdoub les
Ġapparent ly
W el
Ġexpos ure
ac iÃ³n
ĠU int
Comp ile
× Ķ
( ?:
ĠSt ra
ĠDocument ation
Ġm es
Ġv ectors
18 67
Ġattempt ing
ot ton
Ġisol ated
ĠAl loc
Ġcomm une
Ch at
Ġg ift
Ġt body
187 1
ĠCarib bean
Ġweap on
TO KEN
Ġt ort
ĠR ing
SE CON
is Valid
ster dam
or ange
Ġestim ates
G M
FUN C
Ġvess el
}\ ,
Ġtechn ologies
s chedule
Ġd y
Ġsol ve
ow s
ĠInd ustry
ĠPark er
ĠReg Exp
char At
Ġcharacter istic
al ph
Ġspec im
IP S
ĠTurn er
B ooks
ĠW a
Bind er
ĠE ston
Ġf aces
ĠT am
ig s
ĠF R
Ġpo ems
ĠDef ine
amp a
Ġk ids
Ġ" ");
Re view
Ġpeak ed
CONT ENT
Ġnumer ic
ĠPh oenix
Loc ator
Sl ider
Ã ī
ex e
ir s
che str
Com posite
Ġpro x
Ġexcell ent
Ġcommun ications
Ġt on
Ġperm it
Ġconsider able
ĠTH IS
oxy gen
ĠB row
ĠS now
13 5
oid s
ĠMu hammad
ion eer
ĠPer form
ER Y
Ġread ers
ra ise
ĠD ays
ve led
ĠC ategory
ai ro
ant i
ĠRich mond
Ġtal ent
r int
init ely
Numer ic
d iction
comp iled
re ach
Ġtext s
d yn
AS A
host name
ĠT u
ĠF reedom
CT RL
mark down
Fl ora
Ġdo cker
Ġb orders
min a
ID s
M ULT
ut o
Ġhe lic
Ġstream ing
Ġwor st
ĠC BS
cre ation
Content Type
ĠSh adow
ĠPr ice
ĠN i
Ġvot ers
C am
Ġex clus
m os
Ġwood en
( <
Ġdemonstr ated
ĠAl tern
inherit Doc
> ";
'' '
ĠField s
m g
Ġre vision
Ġlock ed
Ġinter faces
Res olution
Ġat tributed
load s
Ġsk y
C AN
aj a
Ar n
widget s
k u
ĠS ER
ĠP rior
Ġrepresent atives
Ġ" {
Ġch rome
Ġgreat ly
ĠF ramework
Ġsupp lies
ĠT itle
om on
ĠCommission er
g iven
Ġdevelop er
Ġlocomot ives
Ġv ulner
ĠRod r
ĠE ug
P DF
ĠS audi
Ġterr itories
æ ł
UD ING
Ġmed als
direct ive
ĠTh ursday
Recip ients
FO RE
Ġconv icted
Ġf atal
ĠGr an
Ġm issions
Ġk ube
Ġinflu ential
ĠExample s
ĠHind u
u ates
se p
op al
Ġoptim ization
ĠPer u
Ġpriv ile
Ġdistingu ished
l ists
ÑĢ Ñĥ
Ġfeel ing
ĠK ur
({ },
Ġsquad ron
st ood
Hon ours
ĠMore over
sup ports
ĠCle an
M a
DEF IN
d id
ach t
187 3
Ġgraph ics
ap id
LE S
ach i
IT ER
ĠF itz
bit coin
H en
Py thon
Ġn urs
button Element
ĠDemocr ats
18 00
ĠOr ange
Work flow
ĠGi ants
ac ion
ĠU SS
Pre view
F ACE
P ull
Ġinter cept
ped ia
Ġstart up
Qu ota
ĠM icro
Ġsp atial
Ġins pect
Ġtemper atures
Ġphot ography
Ġcons ervative
aint y
Ġal cohol
Open Tl
ĠĠĠĠĠĠĠĠĠĠĠĠĠĠĠĠĠĠĠĠĠĠĠĠĠĠĠĠĠĠĠĠ ĠĠĠĠĠĠĠĠĠĠĠĠĠĠ
ĠNot es
r h
Ġth in
p us
ĠUn iversal
ij it
if ting
ĠColomb ia
Ġsp oken
ili ary
comp atible
Ġcontrovers y
ĠL ore
b ors
ĠEgypt ian
ĠF ab
aut hentication
ĠStud y
ĠU TF
ĠPl ugin
Ġto w
[] {
Ġlog s
ĠMan hattan
ev ed
Ġen vironments
(' \
ĠBar bara
ĠFI X
phab et
ĠMed iterranean
Ġmonitor ing
ĠColl ins
Ġt orn
ĠLink ed
Doc s
ĠPo inter
ĠIran ian
ĠF T
ĠBor ough
ar ations
b ie
Ġcap s
normal ize
ser if
ãĤ Ĵ
ĠD J
ĠW ol
ĠN ebraska
Ġapp rec
Ġbound ed
CC CC
Cent ral
Ch arts
Ġp c
Ġfl ux
l us
Ġnot ation
ì Ŀ
Ġg ay
Ġat omic
Tool bar
Ġann ually
avi ors
W H
ĠJ ama
Ġs ax
Ġwh atever
Ġcr imes
sequ ently
ĠGab ri
} &
Ġs oul
ĠL ad
Ġven ue
Acade mic
Ġrout ine
Ġpro hib
Re cent
at che
ĠV lad
Ġprincip les
R ay
å® ļ
ADD RESS
Ġor chestra
ĠL iga
ĠApp end
Roy al
L ou
ĠJ a
AL LOW
Ġaccess ed
Und efined
is ch
ID ENT
Ġswim ming
Ġclose st
ĠVictor ian
Ch oice
Ġmod ification
e ed
Ġstrateg ies
Ġtransform ed
K ing
Ġp ushed
Map s
} +\
it ative
ĠA I
ĠF err
p iece
ĠAct or
Ġimpro v
ĠMat hem
/ ************************************************************************
ĠM other
Ġactiv ists
it ure
ass oci
ĠDirect ory
Ġexplo re
ens ors
cel and
ĠOl iver
"> "
for ge
document ation
S ocial
t age
Ġo cean
Ch ars
ĠSp irit
st own
te enth
b ank
bor ne
ĠA B
Ġinterpret ation
Ġinde ed
Ġm oth
Ġexped ition
w heel
ĠL uther
V T
s aved
lik ely
p ersistence
ch arge
ĠCOL SPAN
Ġgr am
Ã¼ n
Govern ment
ac re
Ġh older
ĠBr and
Ġdeb t
Ġhistor ians
em p
ĠPro vid
An n
b an
at ra
ĠS aints
Ġc ov
18 66
Ġr ising
back up
Ġsignific ance
or row
Ġcl usters
ĠPhil osoph
U INT
opt er
ic ity
ro oms
Ġelev ation
+ '
Ġdefault Value
å į
get Parent
Ġill ness
Ġc ubic
Lin ux
Ġtalk ing
t pl
ĠAlex and
Ġc s
eli hood
Ġyour self
ĠIn n
Or g
Ġre pe
Imp licit
ĠP arent
Ġ& \
(( (
P ID
Cre ator
Ġg ate
ouri er
Ġt unnel
Ġs ight
Ġmoment um
H it
Ġ nd
ĠW as
ĠFr ances
in crement
ĠM I
Trans l
Ġout standing
AB C
Disc ography
A W
Ġe ighth
ĠâĢ ¢
f v
record s
ĠR u
en os
C losure
Ġ( ).
G a
C li
Max imum
16 8
ounc ill
ch oice
f link
Ġ/ ^
aut orest
Ġ ride
é ĩ
Ġperform s
ĠResult s
Ġparliament ary
on na
sk in
LOC AL
B ob
ĠF ly
ĠS ay
Ġdom inated
Ġm anga
16 9
{ };
Ġref uge
mo ke
ĠBeng al
4 50
Rot ation
D eb
R X
Ð Ł
ĠT ed
em a
Ġdisplay s
Play ers
Ġâ ĨĴ
Ġthous and
Ġencounter ed
] >
Re po
Ġenh ance
Ġco inc
ĠCall back
ĠVin cent
ĠL amb
ine e
ist ani
sl ug
rele ased
ĠS K
re view
Ġpr imitive
VERR IDE
Ġdanger ous
Ġw et
ĠM yst
Ġaim ed
ul se
list eners
OD Y
E lect
ĠKe ep
Fig ure
AP PLICATION
Ġencour aged
Ġunus ual
Process ing
Y es
Ġamount s
ĠD ra
Ġlaw yers
"> {
as ide
ĠO bserv
LA PI
Ġgener ates
Mut ex
Ġb rowsers
in fl
ĠB urg
ob e
ob ar
ĠChar lotte
ĠSt re
Ġr uling
UM N
Ġj unction
Ġqu ote
+ -
m v
assert Raises
Ġmer chant
Ġretriev ed
ĉ ĠĠĠĠĠĠĠĠĠĠĠĠ
Ġport rait
Ġfamil iar
Ġvir us
S uch
Ġd ub
par agraph
Ġobserv e
\ _
ĠAtt orney
ORM AL
Ġh orses
ĠY ang
Ġim possible
Th omas
ĠSy ria
Ġtensor flow
ĠU INT
Ġcon tribute
Ġrow span
Ent ities
Ġwh ilst
al am
iv odes
Ġb ases
Ġman ually
sh ader
Ġcor relation
ĠB rew
enumer ate
f oundation
w ave
UL AR
ĠBe aut
ĠTerr itory
BE GIN
Pr incipal
: =
re try
F all
ĠH unt
LOB AL
Ġrep air
L ess
Ġmin isters
Ġgener ating
Ġb ars
ĠFac ulty
Ġs ends
Ġwides pread
ĠH ad
Ġu uid
* {
DO CK
ĠSpr ings
Ġf ighter
XML Schema
dim en
An alyzer
Ġdepart ure
Ġemploy ee
ĠUrb an
y c
ĠP L
Ġsold ier
14 7
il ib
ĠA ug
ĠB lood
rit ic
ot or
; -
al one
ac a
An swer
ç ½
ĠD raft
Ġun iverse
ph al
ol s
Ġgu ess
ĠPro test
Ġre produ
ath ered
Ġdes ire
) ?
Ï ħ
Ġagric ulture
Ġlif etime
Ġexecut or
Compar ator
ĠT it
Ġdom inant
ivodes hip
Ġh at
class path
mix ins
c amp
h m
ĠS eb
um inate
el n
Ġ../../ ../
ĠG round
IT S
ĠH udson
Ġfrequ ent
Ġq view
Ġb ias
has Next
Ġc ul
=" <?
ĠSym phony
Writ able
ĠMar vel
et ta
> *
Ġsum mar
B T
Ġeval uated
P D
Ġh ooks
ol en
ĠDis able
Ġc v
v space
Ġafter wards
ĠCh ap
ath ers
onom ous
Ġop ens
ĠBuff alo
ĠSerb ian
p oll
ĠSm art
Ġpro tests
ĠP ART
Ġf antasy
ĠR oot
ĠHel p
Ġcred its
Ġre interpret
vet ica
Ġessential ly
ph oto
ĠSet up
ĠCon cert
media wiki
ĠSh ang
call s
ĠLiter ature
H ot
m esh
R G
ĠR ick
ĠHarr ison
Ġenjoy ed
V el
s cheduler
dig est
Ġdocument ed
ĠB ug
Call ing
j dbc
Ġreve als
| ^
CT L
m eter
D ynam
g ot
Ðº Ð°
A thlet
=' #
Ġmill iseconds
em pt
Ġch amber
Ġrad iation
Ġart illery
H EL
ub er
lic ity
lovak ia
Ġconsum ption
Ġd rew
lo on
la ide
W ild
Ġmon arch
c odes
ĠM ind
iss a
Or d
P reference
Im ports
ĠBar celona
elf are
Ġsent enced
Perm alink
Ġgrad uating
ace ae
ĠN ormal
Ġr is
ul ative
Ġg ray
asc ii
ĠBe ijing
get Context
Ġg ard
Ch rome
ĠEn um
Ġg olf
ĠNe ed
av atar
ÑĢ Ð¸
initial ized
Ġo ct
Ġb aby
ĠD h
ĠCont act
ĠArt ist
log ical
End points
Ġ um
Ġl azy
Ġg iant
; ]
ol ly
Ġ" </
Def unct
hel m
und ant
Ġcontrovers ial
Ġw ww
Ġe igen
col on
Ġimport ed
Ġper cussion
ĠT un
ĠArch ive
Ġm or
unc ate
b en
ĠL en
F iction
ĠR ic
ĠE val
Ġag gress
ĠEV ENT
ĠL is
! ");
em ed
Ġas ks
Ġaccept s
ĠW arner
ĠV I
ĠMar shal
t b
W ire
ĠAnt ar
Ġassess ment
ĠSlo ven
ante ed
B IN
ear ing
av an
ĠCr ime
Ġam ateur
k et
l ag
Ġw aste
Ġne utral
uss ia
f ixture
17 0
enn ial
ĠL ate
Ar row
Ġev t
Ġsql ite
Ġsp y
ĠNichol as
e an
develop ment
ĠF ather
Ġre aches
Ġr anks
g ray
Ġp ictures
Ġreg ulations
ĠDo es
Ġwalk ing
Ġthe at
il iation
ĠL yn
man ual
ĠArt illery
Sort ed
Disc overy
inter op
Ġpost er
"> ,</
ver b
Ã± a
Ġt act
Icon Error
ĠG rade
V IS
EN S
B uilt
Ins pector
ĠR ole
ãĢĤ </
Cred ential
ĠOb ama
Ġthe ories
Ġqu adr
Ġst em
ĠE ffect
user Agent
bar s
AC CE
ĠFin ance
Ġdon ated
Ġres ize
Ġreg isters
Ġh arm
Ġ ):
tab End
V S
Ġsh ore
Ġcous in
or ous
current Time
s ess
ĠMuslim s
Ġin verse
Ġask ing
Id le
W ar
Ġstrugg le
B tn
ĠR ank
ĠLe ader
ir q
ĠLe ad
Î ¼
ĠVo ivodeship
æĺ ¯
g ol
ĠK ap
CAC HE
ĠFin ancial
ort s
} -\
SV G
Ġportray ed
\ ,\
ãģ Ļ
Ġimpro vement
Ġelse where
Ġoper and
th ic
Ass oci
' $
Ġnumer ical
Ġm p
ĠM E
ĠP attern
Ġapp lying
Ġf abric
Cont ainers
/ $
ch arg
Ġcouple s
In c
ĠCamp aign
e per
18 40
PI X
B as
] =
b idden
ĠF ake
NE SS
g om
Ġamong st
Doc uments
AT IVE
res olver
Ġp kg
ĠH E
ĠAnd re
Ġcon current
g h
ism atch
Ġele ven
B P
ide l
ĠM anu
Ġinn ings
Ġth irty
out ube
Vers ions
ĠH D
Ġsuff ering
de ps
ĠC urt
Ġun set
B ot
Ġ" __
Ġfilter ed
M ont
Ġiniti ative
C at
ie u
ic i
ĠÐ ±
Ġ- \
ĠLu is
Ġsub stitute
Ġseem ed
Ġdisestab lished
An alytics
ĠM ail
Ġnom inations
Ġcomplex ity
Ġd ummy
Ġent repre
Inter faces
f ers
ĠT ib
ĠShe l
ĠR ect
Ġco in
Ġcomm emor
div ider
-> {
ma zing
ag ar
Ġplay offs
ĠÐ ¼
Co ins
m ob
DE V
bul let
P eter
Ġdise ases
ĠUE FA
o ard
Ġout break
? âĢĿ
os hi
18 69
ĠCom ment
Ġact ed
æĸ ĩ
f illed
Ġpre mi
e lected
ĠTr igger
ĠR ou
Ġinc idents
Ġbr ings
Ġst ability
Ġo mitted
text tt
Ġpredict ed
Prof essional
Ġc able
IconError Encoded
S uffix
ro c
Syntax Kind
Ġre ward
Ġform atted
g res
um bs
F our
Symbol s
mem Item
() }
x FF
spec ified
f act
Ġr ub
ĠG rey
Ġstreng then
ĠBer keley
Jew ish
Al tern
M AT
child node
Ġfarm ers
sh ake
ĉĉĉĉĉ Ċ
Ġredu cing
Ġen ables
ĠRobert s
Ġmanufact urer
Ġg od
Ġsimult aneously
as ant
Ġpat ent
ĠC ad
Com bo
[ <
Ġcomment ed
ĠCost a
ĠBr istol
sw ift
Ġtri be
ĠD NS
Ġb ott
o ct
Ġexpl ains
A ws
Ġunder ground
ĠCan al
om ing
ĠB omb
clus ions
Ġemerg ed
Ind ent
Ġf o
ĠS ah
Ġsupport ers
Tool tip
ĠWed nesday
L ab
Ġn ice
B IND
arri ors
ij i
ĠPhilipp ine
Number Of
ĠâĢ ¦
../../ ../
ĠComple x
Ġstrateg ic
ĠP ush
Ġhead ing
ĠP le
t ake
Ġnormal ize
block quote
Ġsit uations
ut ron
Ġinvestig ate
C AL
V ars
j ab
ĠP O
Ġde com
ass y
Ġs z
ĠJ oy
Ġover view
( ',
ir al
h istor
Part icle
Dependency Injection
ĠP ast
Wh y
x hr
New s
Ġinit iated
ĠPr im
as List
M Q
Ġsw ap
Op code
Char les
ĠMar c
ĠK irk
Ġex clude
Ġl t
ĠB es
iv ic
ĠCl inton
P in
Project s
IF Y
te ch
ĠP sych
Ġorder ing
p ane
Ġgrad ually
Request ed
V R
ĠB uch
r idden
Ġbr ands
L ead
Ġan onymous
Ġsympt oms
Ġfocus es
ĠB aptist
INTERN AL
ĠL ost
w char
Ġc rypt
Ġt urb
ME DI
> ",
S in
Ġbeg un
read able
Ġf at
State Exception
Ġan ime
ĠS ample
press ive
Ġp ersist
ĠArab ic
om eter
inst ances
P TR
Ġlast ed
Ġmet av
Ġcoll ision
Ġw ra
q q
ĠEm pty
Ġvict im
Ġdig it
ĠR out
ĠC hel
ä» ¶
Ġimprov ements
et ype
ĠH ence
he w
DE CL
T ON
Ġun used
Ch inese
ter min
Ġsurv iving
c rypto
Ġconvent ional
Ġinit With
open ed
Ġwear ing
ĠB SD
ital ic
H ung
] -->
") ).
ĠForm ula
ĠCOP Y
Ġcom ics
Ġclaim ing
ĠCub a
um per
Ġ ray
ick ing
Ġph rase
Ġ( __
ĠFri end
Ġcirc ular
Ġt ribut
ri um
Dis patch
Ġcur ves
Ġsens itive
ĠPh D
or ough
r atio
WIN DO
ard ed
ot ions
A frican
à ¦
Ġwhen ever
Grad ient
Ġf asc
en de
Serial ize
ç Ľ
greg ator
Ġcas ual
Ġstruct ural
Ġconcern ing
Ġdig est
H D
ĠS ultan
Ġreported ly
rupted Exception
Out Of
th y
Ġcab inet
art z
ĠEx pl
Ġsub str
Ġs q
pro x
Ġarrang ement
c out
ĠTechn ical
O h
m ong
Ġab road
Ġcomput ation
Ġl ieutenant
re ck
sc ill
Ġpul led
ey er
ĠDrag on
ĠN BC
ĠValid ation
Ġra c
en berg
ĠT uesday
Ġattract ed
ä¸ ª
Ġac quisition
th ere
und les
print StackTrace
EMP TY
Ġscient ist
Ġmar ry
x a
Ġbeaut y
Ġwrest ling
b ane
ĠSt atic
FAIL URE
Sw ed
ĠTr inity
) &
Ġtem plates
Ð¸ Ðµ
Ġopt ical
S en
ia o
ĠI Enumerable
ĠO cc
ĠS or
ri en
Mus ical
27 0
ĠP el
Ġ" *
Im plementation
Ġel igible
Ã µ
Ġcl ar
pt ic
Or Empty
B razil
Ġ ----------------
Depend encies
Ġwor ship
Particip ant
ĠL ions
l is
ĠSt even
ĠC ant
Ġscal ing
Ġap artment
J NI
au er
SER VICE
h n
Ġport ions
F rag
OUT PUT
ĠN ames
Ġ/ .
Ġconcept s
ĠGh ana
LE AN
}} </
uck land
Ġh al
ĠKen ya
bal ena
tr ip
Ġcertain ly
ĠY u
Ġvar s
n able
Ġorgan isations
ĠExec ute
om i
com puter
l ift
Ed m
ĠM ason
ne ed
ĠL am
S ibling
T our
Ġ ]);
ix on
ar an
2 30
ĠT on
ĠC old
15 00
Es cape
p ix
:: ~
ex c
d h
Ġsp arse
Spec ific
ĠCl are
Ġsatisf ied
inherit doc
Ġf itted
ad just
product s
I ll
ol ving
Ġelect rical
n om
ent ine
Ġcomp ound
ĠSyntax Kind
Ġhe ap
å Ģ
80 80
ĠF rame
Des pite
FE ATURE
B and
T i
Ġpe ers
s il
Ġse aled
M ale
oriz on
Ġpan els
Ġprepar ation
ĠS ad
Ġhon our
Ġenforce ment
18 59
te chn
IL L
Ġleg s
IC K
ĠU ri
dash board
S ong
fortun ately
Ġat om
b ird
ĠK un
ĠAdd itional
Ġdebug ging
rece ive
ĠC incinnati
ID S
. ),
Ġput ting
he art
Ġsc ratch
operator name
Ġ ))
SE L
Dis pose
Ġactiv ation
E mp
tra its
Ġnarr ative
Ġcon gress
me asure
Ġsub div
mult icol
ĠY am
comp ilation
Ġj ournals
ĠUtil s
Ġfor wards
om o
pre tty
Ġsh allow
z eg
os er
Ġyoung est
Ġnecess arily
ĠCra ig
At omic
aut hent
Ġcan onical
Ġg rav
ym an
ĠT oy
Ġ' ');
s ap
Ġvol atile
æ İ
qu ake
ins ic
Ġarchitect ural
ĠJ ess
ch ars
ĠAr c
vis ual
Ġassert False
U G
ĠCh air
Ð½ Ñĭ
Ġmechan ical
Ġgen etic
T CP
Ġtool tip
Ġ* (
Ġinstrument al
to k
Ġsp ell
W ater
ob server
as ia
(" ./
Ġj et
Ġdem olished
ĠSt evens
Ġco aching
) }{
Ġaff ord
d ro
Ġcor on
Ġo c
: @
Ġchar ter
Ġqu iet
ĠC ob
W ell
TO P
Ġnam ely
Ġmom ents
get ElementsByTagName
REQ UI
ĠRE G
US H
ĠEcon omics
ĠP K
Ġt m
ĠCurrent ly
ĠMun ich
m ics
get User
Ġag reements
ĠTh ose
ĠStud ent
Ġwatch ing
M ATCH
sp ot
m igr
end um
opt im
Ġfest ivals
ck e
Ġsatisf ies
Ġsuper ior
S om
Scott ish
Ġb anned
ĠCirc uit
ĠM ann
Ġout come
W P
ĠS id
Get Value
æ į
B ank
Art icle
Ġdecre ase
red is
Ġoccas ions
ĠN HL
ent o
Ġrest oration
mk dir
ĠDi amond
2 64
Ġpre dom
ĠB ath
DE C
Ġf led
æ Ŀ
ent ities
De leted
access or
ul ly
P ORTED
Ġun lock
AT T
Ġexpert s
ecess ary
ĠB ird
c od
Ġfile Name
Code Dom
Ġrespond ed
atern al
Ġp t
Ġhon ors
f ee
ĠM ouse
ĠUn like
Ġle x
C Y
v ik
N egative
ĠFri ends
Code Analysis
Ġd uplicate
str ategy
ide a
Ġoppon ents
Ġillustr ated
ancell or
ĠB ir
it ro
http Request
b u
ĠC row
lo re
Ġint ellectual
Ġpres ents
let t
ĠRob in
Ġstat ue
r df
Ġst ead
ĠD rop
Target s
Z ip
sh iv
Ġf ib
Ġsh utdown
Ġmart ial
Ġa apt
Ġdu o
Util ity
EQ UAL
âĢ ¢
Ġcook ies
ub a
m ass
E mbed
Ġin set
ref s
ĠCon struction
Ġre semb
ĠR at
Ġsing ular
Ġident ification
E con
Ġdes ert
ĠSh ip
Ġenc rypted
Ke ep
n r
ro st
c nt
Ġver bose
B ODY
Act iv
Al location
W T
C ircle
ĠN R
18 48
Ġph arm
ĠDen ver
Fr ank
tt ify
rece ived
ĠInt elligence
ĠGon z
ĠH ob
ĠM ach
ĠH ann
unic ode
Conn ected
GL uint
Ġm ess
ĠD ialog
ãĥ ³
um i
Ġpop up
De let
utor ial
ĠAm sterdam
Ġexclus ively
ĠRE AD
Q Name
S lide
ĠDes cribe
ĠB our
B er
Ġfund ed
Ġint ensity
Ġc inema
ĠBr is
lic es
ash a
ond a
ĠCo al
start ed
ĠTreat y
tern oon
the orem
S dk
Initial izer
Ġcompre hensive
mat ched
andid ates
Ġed iting
ĠB right
ĠIS O
ĠM C
se g
ĠEag les
ourn aments
p ension
ut ton
16 5
Cur ve
ĠP ick
Ã© d
HP P
ĠNep al
pre dict
Ġcancell ation
ĠT ol
ĠX XX
Ġprint ing
ĠO ri
ĉĉĉ ĠĠĠ
or ne
log ue
Bo th
S ir
ĠEnvironment al
Ġ ë
NO TE
El se
PO SE
Ġhy brid
Ġb uffers
h op
p ip
ri er
Ġdeal ing
ĠJ erry
Ġpass age
U X
ĠC ONT
Ġspons or
. (*
comp act
Ġcomput ing
= _
ĠMont ana
ĠAt hens
ĠChrist ians
uff icient
Ġbe an
Ġvari ants
Ġphys ician
pi res
P AGE
per form
M acro
20 2
m igration
t ies
SE SSION
erv es
Ġatt ending
over e
expand ed
ĠC lay
ĠSh aw
B ra
Ġqual ify
Ġpred iction
de leted
ĠHash Set
) ";
poly mer
ĠM aced
Ġdecor ated
Ġconvers ation
Ġi OS
ĠEd wards
Ġpass ion
P t
Ġtra veled
L T
FO UND
Ġg rows
ĠPro duction
Ignore Case
il ia
L ittle
ç ±
Ġf iring
ĠAh med
R ST
ĠB UT
f ade
ens ively
i pt
Ġun iversal
R ock
Ġview ers
ĠB og
Ġfail ing
igg s
ĠTh er
æ ³
sql ite
und o
ĠP ract
V B
asc ade
comp ass
: ",
ĠM ult
ĠS Y
itor ial
) ];
ĠV K
i ors
if th
MO VE
b usiness
Ġnull able
Ġtalk s
Ġf oc
i em
p ause
ĠB ass
â ĪĴ
Qu ote
ost ream
Ġne ck
Ġwill ing
st ri
Rep lication
ĠSing les
Ġfind ings
yl inder
Ġde mo
D ays
multicol umn
Ġspec ifying
s nap
DI O
L ev
ast rop
interop Require
Ġb one
Ġrestaur ants
St amp
rec ogn
ĠAde laide
ĠP OST
Ġcomple ting
Ñ ī
Ġs cheduler
ĠE ncy
Ġliber al
ĠBroadcast ing
ib lings
ĠFor um
] }
re vision
Propag ation
g ateway
user Id
ĠAn imation
Thread s
Ġv a
k ill
13 6
ĠT ang
ĠVenezuel a
ĠM ade
Ġtranslate X
ul atory
ĠGL uint
ĠMor oc
port folio
ĠB ond
% ">
Ġbroadcast ing
> -
ĠH AVE
Ġcoe fficients
K n
Ġd iagnostic
os ing
ĠSh im
Ġassum ption
L arge
Ġtra iling
sub title
Ġguilt y
foot note
it ter
ĠC ircle
Ġ{ $
l r
ĠCart esian
Ġpat rol
Ġw ings
18 57
Pl us
ĠAp pe
g pu
å ĩ
MPL ATE
Ġstat istical
T w
Ġvary ing
ĠThrow able
[ [
ĠDel aware
ĠG race
LI ED
Sup plier
ĠF unc
We ak
ann i
Ġin formed
st orm
ed e
ĠL ex
M el
ush ing
Ġl iv
ov an
Ġshop ping
Ġelse if
ĠEx ternal
form atter
() "
Ã Ĺ
). </
ST D
rot ate
Ġguest s
Ġmer ger
LA SH
Ġcalc ulation
ĠE mber
Ġcomb ine
ĠInd ustrial
ĠCons erv
J ul
Ġproced ures
Ù Ĭ
Ġdef ining
Index Of
ĠAnd r
Ġscal es
d ims
ache l
ik es
Ġs f
ar as
it ual
V ote
Ġtempor arily
Ġre ven
th lete
ĠMer c
Ġbo ats
perm alink
ĠEth iop
ĠB uilt
P references
R B
ĠP oss
ĠSk ip
Ġpremi ere
M igration
ĠCont emporary
ĠM asters
ĠY ES
S aint
Tech n
A wait
th reshold
ĠH orse
Ġ è
ĠM all
) }$
Ġcomple ment
Ġbeliev es
ĠP ont
D iagnostic
HAS H
b id
Ġsurv ive
ĠVerm ont
Ġblock ed
tele phony
is Function
Ġre striction
ĠL ion
m ime
G PU
ĠT as
le ading
)) {
ĠDel ta
Ġspe aker
St udio
Ġbr idges
ac cord
Ġdis contin
M gr
ĠL loyd
Ġwork space
ĠSet ting
ah l
in ja
Ġsym metry
ĠRem ote
Ġi i
ĠAl ger
Ġsatisf y
al ways
ÑĢ Ð°
sol id
Ġse ar
erm ark
Ġac oustic
âĶĢ âĶĢ
Ġa qu
Re public
Rich ard
as se
Ġreal m
ring tone
Ġp arks
Me an
x d
ĠTo gether
et e
Ġa ug
Ġinterpre ted
Err s
Ġsettlement s
ĠC atherine
Ġincl usion
Ġposs ession
Transform er
Ġwed ding
================ ========
Ġav ailability
ĠI celand
Ġcle ared
Ġs itting
ĠCl in
ĠP ic
Ġch ron
SE C
Ġrob ust
ear Down
is an
Ġun like
RE ST
ro ject
ad os
GR AM
12 6
Ġspecial ized
Ġprote ins
x t
18 30
ct ype
"> Â
ĠRepresent ative
plit ude
Ġcl an
Ġh ierarchy
Ġ"\ "
Ġ$ ('.
organ ization
Ġfew er
UNK NOWN
Connection s
re ats
ĠEx pr
Match ers
Tr im
ĠPh ysics
ĠEncy clo
il ers
int ent
EN SION
Ġt elling
IS H
ĠT alk
ĠSt ein
Ġapprox imation
O G
sp aces
A mb
Ġp b
Ġcollect ive
single ton
Football ers
VAR I
ĠRes erved
' </
a ine
s uffix
Ġun cle
ĠSocial ist
del im
pos al
Ġcut s
Ġfor th
L aw
lic an
Ġ@ @
Hash Code
Ġslow ly
CON TEXT
Pl ain
Non Null
g b
Ġbi ological
æ ŀ
Ġb le
Ġb are
Ġoppon ent
Ġd Ã©
Ġvis its
og o
Ġelectric ity
ĠH amb
cover age
ĠW es
ĠN at
Film ography
th umb
ÑĢÐµ Ð´
ist o
Ġfin ance
Ġengine ers
match er
Enumer ator
track s
Ġdifficult y
Ġ[ `
uns afe
Ġfall back
ĠSt ill
u cc
ĠĠĠĠĠĠĠĠĠĠĠĠĠĠ Ċ
> }
ĠS z
min or
Ġw ider
end l
Ġrare ly
Ġs av
Ġp our
ĠGu id
Log ical
Ġpod s
R ivers
id ency
ĠP au
ari ans
Ġget ter
ĠG len
Ġp id
ut a
Rest r
ĠD S
Ġj e
play ing
D Y
Ġdef ending
ĠS ox
Ġ'/ '
ĠCh i
ling ton
Ġclo thing
Ð½ Ð¸
Ġed itions
'] [
b ash
Ġbon us
Ġg ross
Ġun safe
Ġtherm al
s uite
A ge
ĠCom plete
Min imum
ĠKe ith
N ORMAL
ĠS ex
Ġcont ested
ĠLIMIT ED
Ġsec ured
SET T
ĠB ased
sh arp
CP P
ĠL arry
sort ed
al yst
ĠR unn
Ġten ure
[ ^
ol ph
ĠL ar
12 9
Ġe u
Ġmathem atics
Ġ' ;
Ġre lying
ĠRes pond
Ġ* **
Event Type
J ose
F ee
Ġpay ments
ĠR FC
ĠG em
Ġatt achment
Ã¤ r
ĠCroat ia
ĠK le
Spec ies
ĠGL sizei
ç± »
pack ed
Job s
Ġleg islative
re ports
ĠNor folk
Ġc argo
11 11
Ġqu ota
off icial
DI V
Ġpow ered
Text Field
Ġcampaign s
First Name
ĠPen insula
Ġdoll ars
ĠCom put
Ġmatch er
1 19
ĠRog ers
2 10
prot oc
nav Bar
re load
Ġr h
} ],
Ġkey boards
d ijit
es Module
Ġa ims
ĠPers ian
ĠSaf ari
Ġp ersistent
Ġmolec ular
ans wer
enc ia
] "
il ine
Ġem igrants
ĠPar alym
ĠCh and
ä ¿
ĠAzerbai jan
Ġ\ |
rt c
ĠOver all
Ġthe oretical
it ol
chi at
et ics
aw k
ĠArab ia
View port
Up dates
. ')
G iven
ĠArgent ine
"> #
Ġcontribut ing
L azy
set Name
pred icate
Ġb ath
ĠEl li
Ġb t
Ġdo ors
Ġvari ations
Col ors
ĠS ak
TR ACE
ĠH ugh
Ġsequ el
mix in
2 11
G lob
aut om
Ġflo od
ĠAdv anced
Unmar shal
AS H
M ON
assert That
ĠĠĠĠ ĉ
[ @
ĠC amb
SY STEM
Ġcheck sum
Ġres on
ĠStud ents
Ġunder stood
dev ices
Ġst ake
ĠR AF
ew idth
Ġrun ners
play back
Reg Exp
Ġto x
Field Value
ĠCar r
ĠH ave
Ġemotion al
Ġl d
Ġb eta
ĠJ ar
XXXX XXXX
R oles
S ensor
Ġp index
ĠId entity
R anges
Ġm os
Ġadd EventListener
Def initions
m icro
ter ms
p d
s outh
Ġaffili ated
Christ ian
m q
Ġtri bes
) {\
qual ity
co ins
Ġrad ical
Ġn umpy
Ġlog ged
Ġdisap pe
Image View
I o
rack s
ar th
Table Name
Ġt ap
ĠK ay
Ġreb uilt
Ġbe et
ĠMon th
Ġobt aining
Ã¶ n
Sample s
20 4
Ġs printf
former ly
ĠS ask
Ġh ub
\ ",
ĠL ov
Ġphotograph s
ĠM is
Ġf inger
Ġchar ity
iff s
t ec
l azy
b rowse
Ġsac r
Ġs aving
T reat
M ad
ĠS ans
li ber
ap on
Ġt anks
ED IT
Ġinf antry
re nd
g ent
Ġestablish ing
Vis it
Ġcoal ition
ro d
Ġad venture
tag Name
DE SC
att achment
Ġvol can
Ġr v
ĠJeff erson
to Array
ĠCh apter
Ġ ------------------------------------------------
comple tion
K HR
status Code
det ect
14 3
em ies
Record ed
cul ator
ĠTrans form
7 50
Ġdis order
ĠArray s
Th ird
Ġ{ ?
Ġinter views
em b
L ng
ĠWith in
Ġatmo sphere
ro at
hi ber
ĠW E
Ġth ank
callback s
ĠAng lo
ĠHer bert
ĠE SP
ĠG as
ĠS alt
CA SE
ĠAv iation
open ssl
Ġgr an
at em
Ġ< ![
; =
ĠD id
ov al
Ġinaug ural
col lections
Ġpart ly
ĠA w
ad itional
c riteria
p ag
Ġlab our
Ġalloc ate
au kee
Det ection
Do es
ell ion
Ġjuris diction
M id
Ġserial ize
18 58
MS earch
Ġp ole
sh utdown
Ġv tk
col ogy
Ðº Ð¸
il o
e ing
Ġd iversity
then Return
un used
jav ase
Ġsurv iv
ĠF u
ĠUn icode
g ender
ĠA uckland
Subscri ber
Ġdismiss ed
Inf os
Ġcol ony
g ro
R en
ĠAct ivity
w b
ĠT race
Value Type
IC AL
ĠBy z
Ġlo b
EX TERN
Ġr anging
At om
Ġvalid ator
ic z
Ġen zym
pres erve
ĠE u
ĠS ync
ĠMet adata
clean up
od ge
ull ivan
Que stion
leg iate
transl ated
el ines
Ġcivil ian
PRE SS
ĠR oll
Ġtrad ed
Ġref lection
Ġfrag ments
ig ion
Re porter
h ou
Ġconf licts
work space
Ġconcert s
Ġfra ud
ĠL ux
igh bor
IS O
ĠT ypes
ĠR O
Ġtra v
Ġsepar ation
r ice
ĠAnt i
ĠAbb ey
b readcr
m r
Is rael
Ġsus pect
Ġcre ator
C rypto
ot he
ĠRead ing
i NdEx
Ġc arrier
Ġarg c
n P
Ġsh orter
ĠAnn ual
T urn
Ġd ash
Un ity
ĠFil ip
ĠP erry
ss h
ĠHe avy
ĠV iol
ARG S
l c
Ġspons ored
UB LE
ĠHeb rew
Ġ* =
ĠS oph
type Name
W F
ĠNew ton
start sWith
ĠF un
T wig
anc ers
Ġad res
40 1
ĠThe od
Ġform ations
Pol ygon
ĠA ber
30 4
C WE
Exp licit
ĠTra vel
ĠBuddh ist
à¤ ¾
Ġrock s
L ex
Cast le
Bal ance
ĠG ay
ĠDr iver
ĠP av
Ġdes erial
Ġover lay
publish er
atur ally
}} _
Ġviol ent
output s
D istrict
x space
ĠHigh er
li us
ĠN amed
Ġtranslate Y
y ellow
ĠMET H
Key Value
un credited
end ent
Ġfl ights
ĠWith out
Last Name
unt u
ĠS A
Ġexc av
ĠL an
Ġse g
Ġlocal s
P FNGL
Ġdec ides
Ġsk i
Ġmuseum s
ĠH av
Ġ' --
ĠCal endar
ub ect
g al
log s
parent s
ĠLo op
ĠM ort
ĠQu arter
æľ ī
akes pe
oph one
mock ito
ĠMad ison
Ġinsp iration
ĠC lo
Ġmat rices
sp er
Ġcommand ed
Ġglyph icon
Ø ¨
Ð¾ Ñģ
ĠGil bert
ĠSE LECT
ĠO O
18 54
P rior
ĠF ail
Start ing
Ġt one
Ġde ck
h ooks
Ġshould n
ĠDiv is
D M
H W
H A
url ing
Ġs ugar
atern ion
con tribut
ĠDi ocese
has Class
ubect l
pos itories
Ġco ffee
Austral ia
M ex
K ar
Off ice
17 5
Comp any
Ġer ected
ĠA round
Ġauthor ization
am ine
ĠOtt awa
navBar Cell
T oday
Ġc d
Ġrecogn ize
) `
Ġl ingu
asm ine
Ġval uable
") ),
ãģ Ĺ
Ġh i
j ud
Ar c
Ġin hib
With Error
Ġparticip ating
he ld
ĠProdu ctions
Ġminor ity
ĠMean while
f m
ent i
ĠB order
Ġev il
ingu ished
15 5
Bind ings
M ARK
ĠM ig
res olution
ĠFlo rence
Ġtr uly
ĠK rist
atab ases
ch romium
Ġb igger
i ya
ĠK in
SE D
Ġkind s
Ġdoub t
ĠPeters burg
f lix
ew ay
Ġmanufact urers
13 3
l iga
ĠÅ ł
B uffers
stitu ency
val s
Ret ri
ĠIN CL
ib us
ĠT ru
Ġdis pute
L ondon
hiber nate
u ced
Ġ ener
che m
' ",
el if
ish a
Rect angle
j ena
op ens
Ġev ac
)) :
St roke
Ġorig ins
Ġn inth
] /
ident ial
ĠUn supported
ĠPh ys
ĠA SC
ĠM ul
18 55
Res earch
gener ation
ĠGuard ian
Î º
G LAPI
Byte String
Ġt ape
is EqualTo
con c
F old
ĠG URL
20 3
urre nc
List View
ater al
G LOBAL
Ġ= ========================================================================
Ġdig its
key board
per ature
DEF INE
. {
Ġre quiring
ĠW allet
S IG
P LAY
ĠP resent
. &
Ġbirth day
ĠCru z
ĠLeban on
D ocker
Ġtro uble
m issions
User Agent
ĠLe eds
ĠLear ning
Ġb ay
Ġl hs
get Path
Ġver b
d up
Ġt ies
F un
it udes
ĠUS ART
m akers
Ġgrand father
ins ky
Ġre located
ĠHe in
Ġdire ctions
ĠBit coin
Ġme at
ĠArch itecture
12345 67
Rem oved
So ftware
Ġindepend ently
s creens
Ġind ustries
g ulp
qu iry
Inter op
Ġannot ations
ĠTre as
akespe are
Ġf er
ĠR idge
ah an
r hs
ĠDemocr at
18 56
ĠUs age
Linear Layout
re quires
Ġdis p
Sc anner
ĠSp ark
Ġord inary
reg istration
D K
ĠT erry
subset eq
z ig
Key words
eh icle
coll apsed
Ġb oss
ĠTri b
Ġpurs ue
un ix
Ġdist ribute
ĠMur phy
w aukee
ĠSw ift
W IDTH
AR M
Sh utdown
S pl
Ġf printf
av ier
Ġ' :
In crement
B g
Ġin equality
Ġaware ness
Port s
ĠM az
Ph ysical
ER O
Ġyield s
perm issions
feed back
Ġs ap
RE SOURCE
Prot ected
conn ector
ĠU nd
For Key
00 5
-- )
ĠG NU
Re presentation
D NS
Ġs weet
Ġm a
Gr and
f ar
Ġm ines
R oll
Ġplace ment
ĠK ra
ĠCh apel
ĠBulg aria
Ġqu oted
%%%%%%%% %%%%%%%%
Ġj ury
è ¦
raz y
Ġcon dem
Ġch apel
F K
Ġtw in
AUT O
De ad
Ġplay off
Ġorgan ised
det erm
S CHE
Ġreve al
ĠBut ler
A ust
ator ial
ĠN icol
(" ")]
Ġtab index
uzz le
/ :
ĠK i
Loc ations
ĠLu ke
Load Balancer
) ");
ol ine
ĠI v
ĠDom ain
ĠSecond ary
ĠA ST
ic us
Print f
Ġbl ind
h ad
Ġg all
Ġco operation
expect s
ro utes
Ġbi ography
x ref
Ġex cluded
Ġinflu ences
Death s
ĠGo String
Inst ant
Ġ- &
ĠCom b
ĠHol land
Ġmonth ly
Ġsepar ately
est yle
Ġpre view
Ġag es
ĠSh op
con sum
Ġenumer able
Sw ap
ĠAuth ors
Ġra ising
r ated
ĠChar acter
ĠĠĠĠĠĠĠĠĠĠĠĠĠĠĠĠĠĠĠĠĠĠĠĠĠĠĠĠĠĠĠĠ ĠĠĠĠĠĠĠĠĠĠĠĠĠĠĠĠ
ĠPr incipal
it ize
ĠS oul
n v
ĠHel en
prom pt
Ġbut ter
comm ended
s ynt
ĠG ust
Ġprom oting
at is
author ization
ĠR ivers
Char acters
Ġtrad itions
d og
At Index
Ġg ymn
ĠGerm ans
ĠÃ ģ
in formation
Ġr um
15 2
ĠK ol
ĠSh ape
Com puter
Ġdrop down
ĠB ear
iag o
RO WS
Ġcommit ment
ĠA DD
Ġauthor ized
Ġinteg ers
Ġrec all
ordin ator
ĠJ oint
ĠApp ly
* (
on er
Ġ} \
Ġe vid
min imum
Ġex ha
K ER
ĠM ask
Ġnob le
ĠW he
Per formance
Ġrel ax
Ġgovern ed
ver ity
add itional
Ġfoot er
eval uate
Ġactiv ated
Ġarr ive
Ġdefend ers
track er
åľ ¨
Ġe at
ov ich
View er
dist ribution
ĠSTD METHOD
t lement
S uggest
ens ed
vert ed
T ake
J an
d ns
EE E
Ġm ilk
ĠM IN
Ġtarget ed
ĠAb u
mark et
Ġun successful
Ġden otes
n ick
Qu ick
ĠArmen ian
- '
Dem o
en h
ĠPed ro
P ac
he size
ĠS uz
] ],
Ġsk ill
interopRequire Default
Ġcross ed
up les
18 43
Ġelement ary
Address es
Ð°Ð ·
Ġsubsid iary
R ew
ĠL A
Ġlength s
OB J
Ġconsum ers
h uman
g id
orient ed
Play ing
omorph ism
F i
ab ort
Hash Set
Ġch at
Prov ince
se en
Ġpat ron
7 68
ĠP NG
ĠSus an
O Auth
en burg
Ġexhib it
P icture
Pre par
r w
t odo
aw ait
we ights
C irc
Ġinfe ction
ĠS N
ME TA
L R
lo ose
arr ison
IR T
- %
/* .
ĠEd it
ĠLe o
ĠS ig
add le
Ġup coming
ĠStat istics
azel cast
el in
Ġsh ipping
n m
Ġor ange
14 5
Track ing
M i
wall paper
$ }
Ú ©
ĠS Ã£o
ra ble
="../../../../../../ ../../
b ordered
Ġt c
Ġ iv
alloc ate
ĠS ang
ij a
ĠOff set
sub menu
Ġt ournaments
Enc ryption
sel enium
Ad just
Ġguar anteed
ind a
eng u
">< ![
' _
Ġver ification
re strict
ĠI con
') [
Ġscholar ship
Ġart ificial
ĠS ierra
Ġal igned
Ġro ster
vers ation
ĠHis panic
Ġassoci ations
Ġview port
Cal c
ĠAgric ulture
ĠD ynamic
ĠD ennis
por al
Ġtrans mit
ll vm
ĠObject s
D ump
cal culate
scal ar
Com panies
00 000
ĠComp are
Ġcon form
Ġ' &
Ġsh ard
Bro adcast
ield s
ĠH at
g allery
Ġg ear
Call able
n th
Con cept
Ġinv ocation
Ġb b
l ar
Ġpredecess or
u o
ĠG or
Ġp ale
ĠL ayer
arn ess
Ġpe oples
ĠArch ives
ĠS yn
Ġuse Capture
Ġimm igrants
unit Pattern
ĠTH REE
Inter preter
Ġextract ed
Ġstr len
Fin ish
ĠN ear
ĠVari able
A mazon
hen g
om es
X Path
get s
ĠCom merce
Des erial
con sumer
COMM AND
comp at
Ġsculpt ure
Assert ion
> =
Ġsim ilarly
Property Name
Ġindex es
Ġrecip ients
Ġl p
sk a
ĠSaf ety
er gy
ĠA F
cu ador
ĠV ent
Ġinvest ors
Lay ers
Pos itive
Ġs ans
ĠChristian ity
Ġp ump
Ġs oph
PHP Excel
Con sum
ĠC K
Ġpl astic
Ġany where
Ġrel ating
C y
Ġmake up
Ġs ampling
ĠV oice
parse Int
? .
M or
count s
Ap is
DOCK ED
Ġw inds
ro les
ĠSQL Exception
Ġe arning
Trans late
Ð¾Ð» ÑĮ
IT EM
Ð¾Ð º
Ġhealth y
at ivity
Ġgraph ic
gom ery
B ecause
Ġt ons
ĠWat son
sw ick
om eters
ĠR ES
Ġfe els
d an
ĠCons ervation
Ġprov inces
h ub
I Enumerable
om p
pon der
Ġpark ing
ĠNe il
Data Set
key frames
Ġs la
Ġvol leyball
Ġgalax ies
ĠUn iverse
ff bb
int egration
Ġcon sequence
Ġdemand s
Ġref lected
Ġstand ings
i ology
;& #
Ġguarant ee
ĠR ena
Ġdom ains
UR POSE
Ġcrick eter
et al
t le
set Property
Exception s
Ġpal ace
he ll
az i
Ġmurder ed
Ġind irect
E O
Ġb ag
To Array
one percent
tol ua
ĠTh under
Ġreg ulation
Ġm as
U k
lim ited
Ġbus y
P TED
Ġbre ast
openc v
Ġl ic
Ġassist ed
:: _
Com position
LE ASE
ok o
CT OR
Ġp ione
Ġre ly
b etween
Ġl ights
ĠL ot
ment ion
ĠG ang
col og
Ag gregate
int endo
ĠSe an
P a
ĠD ynam
ĠThe ory
th an
ĠSt ef
Ġcompet itors
Out er
ĠHen ri
Ġrout ing
ĠM ER
ĠH em
und ers
Ġend points
ĠStan ford
Ġent hus
ĠR ah
Ġref id
Ġaddress ed
× ¨
Ġac quire
Ġreal ized
ä¸ į
Ġj u
r ang
Ġsem antic
ĠArch bishop
Ġle agues
ress es
up al
ap k
typ ed
V K
c url
ĠU UID
Ġdis band
ĠAl ong
G reater
ĠW R
Ġw arr
ab we
Re peat
QU ERY
\ }$
D iag
k le
Ġm irror
ĠPer iod
D evelopment
urch ase
Ġcon scious
St e
sp el
L IMIT
+ (
r ation
ĠP aper
Col lect
L ove
fe at
18 53
Pro jection
H ooks
if etime
default Value
Pl ugins
IC S
bl ur
Byte Buffer
Compiler Services
m other
Ġcol lector
Fr ance
Ġr ated
her ent
Ġin fer
ne z
Ġdirect ories
f ive
Ġf ade
lim inary
ASC II
(" _
Op acity
Ġbe ating
âĢ ī
ĠK il
Ġsepar ator
Ġass ists
å Ĩ
Button s
Rest ore
t ain
18 52
ĠS ort
cap acity
EN UM
it us
Ġo scill
Ġw ake
At l
c ov
Ġaccompany ing
ĠN ak
sp her
EX P
M irror
d istrict
h im
Ġ{ :
W rong
ĠAc cept
ĠForm er
Å ¼
Ġke eps
Ġsearch ing
ĠSim pson
S port
ĠC ancer
D irty
Ġcalcul ations
Writ ers
M ur
T er
g ra
] ):
Ġcap ability
Ġre nd
oc os
Ġeng agement
empl ar
ĠC raw
Ġdep icted
W W
get Int
Ġm arch
ĠFl ash
Ġs nap
Ġc pu
13 4
Code Attribute
ĠR us
Col lege
fore ign
E ven
ĠIndepend ence
ĠE mb
ĠLeg end
Ġsh arp
Ġspect ral
Ġl ie
R ing
ĠCong o
Ġdemonstr ate
m ixed
Ġget Name
Ġspe akers
ĠBob by
~ $
Ġover l
Ġess ay
Ġsurv ival
ch ip
Ġt issue
Ġrefer ring
tim ing
Ġelect ro
ams ung
Ġhol iday
D utch
Fl at
Ġm eth
Ġal liance
ACT IVE
Ġd ust
16 6
Ġhypot hesis
Des criptors
Opt im
Ġdis appoint
Un supported
Ġorgan ic
Sm art
op ic
ĠB M
ĠBris bane
ĠS ony
ĠAir lines
ff ield
Str ict
th umbnail
à ¹
v t
ect ive
os ed
Ġs cre
Ġ( []
Ġpredom inant
Ġp reference
Ġim perial
Ġpress ed
ĠRE ST
Ġswit ched
atche wan
Ġc um
ĠH ub
Ġra bb
ĠTra its
oc ene
Ġreason able
S py
SUP PORTED
Ġâ Ĥ¬
Ap pearance
f ollow
Ġext ending
ĠZ ero
Ġdistribut ions
Ġorigin ated
B N
d ue
L M
ing e
RE SP
ĠHar old
Ġcarri es
Ġh aven
G i
Ġplay wright
ĠW ik
Ġdev oted
Ġh ospitals
h it
Ġ ic
Ġ( &
Ġdeterm ines
GLE W
ĠIn fo
c orner
ft en
Ġsong writer
18 49
de ll
eb ook
Ġbelong ed
ax y
Ġmechan isms
Comp atible
ĠVis it
Y ES
ink s
moz illa
P ART
Ġs le
Ġor th
Sing les
Ġm oral
Ġcontract s
Ġsur prise
Ð½ Ð¾
ACCE PTED
ĠPy Object
Ġso ap
Ġf ert
m is
Ġl ua
13 1
ĠC elt
Ġ( {
× ľ
Ġ Ñĥ
Ġde pression
Ġlo ved
Ġres c
Ġcut ting
con duct
Ġtri bute
dec imal
US A
ĠB av
ĠN amespace
ĠNot able
> ");
Ġdistingu ish
ou ched
Ġrec urs
4 000
AT FORM
pop over
ĠSy rian
2 25
ens on
rece iver
am ation
P N
imb abwe
+ =
**************** ********
ĠM oney
Amer ica
le ased
ĠS pect
F re
Ġ_ {
Ġden om
Ġco oper
æ Ń
un stable
ĠWork ers
ish i
des cr
3 75
Ġwh itespace
Bound ing
Ġ"/ "
Ġdepart ments
T racing
Ġo xygen
j vm
Ġcons ent
to o
edit able
B ill
b ur
at um
ilib rium
Ġn ep
Ġassert NotNull
ĠO m
Ġvent ure
uck er
Ġd iver
Ġ( @
work ing
Ġg athered
14 9
IT NESS
Ġmaint aining
Ġfast est
14 6
Ġbuild s
ĠScient ific
ĠB ak
Ġpriv acy
åı ĸ
Bro ker
ĠSt uart
DO C
focus ed
Ġdrum mer
T rade
ER ENCE
Ġw ard
Pos itions
sv c
ĠSch olar
Pod s
d agger
Ġcons olid
ĠIss ue
ov en
ri o
un ning
Ġent ers
agon ist
ĠA aron
add All
un i
min i
Ð¾Ð ±
K O
Ġex tern
ĠRe ce
"> @
="../ ..
h c
ov sky
ĠW u
IST ER
ĠGro ve
ett ers
ĠRev ival
& )
att a
13 8
Ġup dating
om al
I rish
ĠThe me
Ġannounce ment
ĠT rain
Ġcert ified
v p
Ġaf ternoon
Ġb ic
Ġcor ruption
ĠTransport ation
Ġegg s
Ġl attice
Ġst ere
Ġexpl oration
Ġthr iller
Ġatt ractions
deploy ment
Block Index
ĠY ale
ĠFran Ã§
ĠB aby
/ ,
ĠW i
Ġmanufact ured
imp licit
get Node
Ġd iet
ĠWeek ly
pos ing
m ine
18 47
g est
Ġs ang
SH IFT
Ġbas eline
ĠBel arus
y our
pos itions
VER TEX
Ġce ased
Ġtra cing
Ġequ ival
ĠP ain
18 51
ĠAn not
Ġlicens es
ir ts
D ue
Ad s
ĠEr nest
ov ina
ĠR av
Ġant icip
Ġ{} ",
ĠPar ser
Final ly
s ites
ict ions
External Project
Ġconnect s
ĠW onder
Ġinc umbent
' ><
ĠSt ories
Ġnow rap
Ġbox es
ä ¹
Dev ices
ĠG PIO
be havior
ĠSh in
Ġart work
ow ed
ĠAr nold
IM ARY
Ġpro files
ĠDe uts
ed ges
Ġre vised
BIT S
Ġmy self
Ġc trl
View ById
Sm ith
oy age
Ġdis aster
Ġassert ion
< >
Ã© g
th al
Ġcoll apsed
ht m
ĠVen ice
ĠI de
o ons
Ġwithd rew
Char Field
ĠFil ms
erg i
real m
ĠP rest
ĠR CC
13 7
Ġdescend ants
é ¡
Ġw er
Ġoverse as
Ġpl acing
aw ks
hand les
æ Ķ
ĠW alt
ol ition
Ġindic ator
design ated
ĠSe lection
Bo ard
ĠWell ington
f urt
math scr
Ġstd out
Ġmark up
4 80
Ġc ogn
ĠK ill
Ġr itual
Ġs isters
or ian
Ġfair ly
Ġc emetery
Index es
provid ers
Ġtax es
class List
Ġconduct or
ist ance
ĠR alph
Ġprof it
Ġcompos ite
Ġ< >
em in
Ġreli able
Ã °
unit test
Cond itional
Ġf ur
Ġsynd rome
s ound
Ġdisestab lish
ap im
ĠG row
AL IGN
ĠM orning
PR INT
F ollow
Ġencour age
al bum
Prot os
Ġecon omics
Ġas ynchronous
Ġnew Value
ĠLabor atory
Ġc rop
Ġh orn
15 1
Ġhonor ary
map red
ST AMP
Ġtrans it
Ġin struct
ĠK ash
16 4
Ġ[ ])
et ter
bal ance
Ġto m
ĠTh ai
ĠB orn
ĠSh akespeare
ĠPre vious
w ent
å ½
Ġt abs
ĠF ighter
uch i
Ġgoogle api
Ġimpro ving
ĠBlo om
el ly
ever y
osp h
ĠOr d
ĠLat ino
c ott
Ġm eg
be zier
Ġincor por
un set
Ġrecogn ised
ĠN athan
ri x
å ¾
ĠLa ura
ĠB ert
Ġprodu ctions
xx x
Prof iler
è¡ Į
Dig est
Se qu
R V
ol er
EX EC
Dim ensions
sp h
Ġland ed
ĠM uch
Ġsl aves
ĠAPI s
l v
ad words
Ġten ant
Ġcou pling
Ġt ier
ĠCont ract
ĠE ddie
Ġ$ |
Ġ ç
it ars
Ġth ir
"/> .
ĠD in
Ġar ithmetic
ĠW A
R x
ĠM echan
ib a
Be h
r ating
ĠT X
20 8
Ġjav adoc
ĠAl t
d irty
ro ut
bit map
C ities
D to
keyword s
Ġbit map
Ġown s
ĠAg reement
omorph ic
Ġstrong er
ĠPro to
M ary
Ġdraft ed
Ġnegot iations
Ġte ch
Ġr iding
sp y
ĠAg ent
inst ein
Serial ized
el o
P IN
ĠR uby
inter action
Ġsur faces
D TO
M ixed
Ġtreat y
Ġshift ed
Ġfoc using
if inals
H ouse
il io
ap l
Ġconfig urations
H uman
Ġimplement ations
COM PI
Ġde emed
ĠGreg ory
Ġse vent
(" ",
' ></
ĠN y
ĠConfeder ate
w y
To o
Ġco ord
re start
ĠS ic
ĠId aho
ĠKer ala
ç½ ®
ous ing
Ġel dest
Ġdiffer ential
un til
ĠGL float
ĠScot ia
Organ ization
ar ms
L ear
ĠMETH OD
ĠCh ang
Ġde als
H F
Ġs phere
Pl umb
ĠArt ists
ra h
ĠW inn
Ġsub marine
ĠAl lied
ĠMet al
Click Listener
ĠJ ak
Ġt oured
Ġpre st
g ue
ur as
ĠO scar
Ġdifficult ies
ĠSeb ast
AC L
Gener ation
ST M
Ġcontribut ors
Ġarrang ements
Ġy es
rot ation
Ġhun ting
Ġc tor
ĠManu el
g ravity
Ġn aming
ĠW IN
Ġinternational ly
re peated
Ġcomp ressed
Ġsett lers
Ġfail ures
C OR
Ġform atting
et ched
ĠP ars
ĠSo on
t oday
Ġan alyt
Ġr pc
Browser Detector
ir ical
ĠBrun swick
Ġpod cast
J im
Ġep och
Ġrat ings
Ġtim ing
IN TEGER
ch r
Ġhas n
CHAN T
Tax onomy
Ġthr one
Ġconj unction
Sw ift
ĠLeon ard
ion ic
ĠShang hai
che l
ro uting
ĠQu ant
SH AD
PE G
Ġtour ing
N eg
TH E
IN X
AN Y
ĠM ills
ĠV e
ĠIn stit
Ġmanag es
ĠP P
op eng
ĠPh one
H I
N ear
Display Name
Ġpet ition
m ia
ĠR uth
Ġprofession als
ĠHug hes
en i
Ġpro be
ĠMay be
ĠW ag
Call s
Ad apt
Ġfun eral
CLA RE
A RE
e ur
ĠBy tes
Ġprepar ing
M appings
t om
Ġa pt
ĠK id
ĠInd icates
loc ations
sr v
6666 66
g lib
em ic
ia z
Al ready
R D
Quant ity
Ġin tern
ĠRep resents
R ugby
B uffered
ĠC T
ot ypes
R h
ĠW ells
Ġsub urb
filter ed
ĠR aid
Ġas h
Ġfor g
ĠG olf
gol ang
Ġem peror
min ster
Second ary
Tra it
Contin ue
am d
ĠP URPOSE
bo at
list item
sl ides
ĠCard inals
Pack ages
G F
ĠT uple
pass ed
ĠCON TRACT
ãĢ ģ
comp any
Ad ministr
L uc
ĠPhil lips
D WORD
J av
Ġout door
bind ings
') ),
ĠP S
igg ers
ĠP att
Ġg ravity
ĠB il
ĠW or
ac ional
26 0
ĠRh odes
ĠExec ution
Ġguid ance
ĠWars aw
SN AP
Ġres ort
Ġterm inated
ĠMal ay
Comm unes
t ap
Ġif rame
n ear
Ġc attle
Pro vision
f eld
ĠB ald
< \
W all
ĠS oci
G esture
go als
Ġblock ing
Ġev olved
Ġmin istry
ĠIns pector
Ġqu ot
ĠC LI
ĠT ong
Ġt ours
ĠPlay ers
RE L
ĠD ES
Ġst mt
Ġchar s
ĠBulg arian
ĠEp isode
lic al
err no
ĠQue ue
App Compat
st y
ĠS ent
Ġsup press
Y LE
Ġrepeated ly
f ork
N an
C Sharp
Ġ$ ('
Ġob lig
Ne eded
AL LOC
Ġcomp licated
V ED
key Code
ĠĠĠĠĠĠĠĠĠĠĠĠĠĠĠĠĠĠĠĠĠĠĠĠĠĠĠĠĠĠĠĠ ĠĠĠĠĠĠĠĠĠĠĠĠĠĠĠĠĠ
pow ered
Ġsl ider
g row
ĠC itiz
ĠM otion
exec utor
ĠA ncient
Ġpers u
ĠT CP
ĠK l
Ġdialog ue
ic as
ĠC AN
com pressed
writ eln
ĠUg anda
Z Z
22 2
t ot
ĠL ie
Ġexp ired
Ġleg it
TRAN S
Aff inity
SR C
Ġ' *
RA W
H ierarchy
Ġinter vention
l ng
ĠUn known
Ġexpand ing
y ml
k k
ol lo
Ġcolle agues
ĠR oche
P ak
Int egration
Ġsp okes
Ġpseud o
Ġ" #{
Ġ[ -
Cred it
an che
Ġ` $
Ġconstitution al
b uck
Ġuint ptr
Ġse eds
te es
ĠDef inition
ĠArch itect
Ch an
abul ary
Ġrect angle
H ouses
l ighter
qu ate
is cal
T abs
Ġmod ifications
Tree Node
Ġreview ed
Im mediate
Ġbor row
Ġ[ _
null able
ĠP ent
ĠNot ification
Ġlabor atory
F ault
ĠF L
DE SCRIPT
av ia
In strument
ious ly
Ġr ice
ĠAl pha
} ">
s us
Trans actions
Ġcru cial
ĠG az
hl js
bo ys
Ġsm allest
14 1
ĠIMP LIED
ĠS plit
ĠB eth
Ġ' __
ĠAt tributes
C XX
Ġeng age
=" .
Le ave
ĠFish er
f ilm
Ġ ])
Ġw s
ĠCo ach
Ġs ick
Pol it
altern ate
Ġhost name
ĠNap ole
Cap abilities
Ġa thlete
ĠF eb
li ers
ĠDep end
Con current
13 9
J ournal
L ANG
ĠWall ace
h agen
pl er
Ġcheck point
ĠAb raham
ASS IGN
m isc
SH OT
Ġwebs ites
ĠBaron et
0 100
Ġancest or
TYPE S
seud o
"> )</
ĠCh anges
it les
ĠO VERRIDE
activ ated
ĠK ate
rop ic
Ġz ones
DEFIN ED
ĠPh oto
8 000
ĠCh a
28 0
wik imedia
u ania
ĠBro ther
ĠI M
(' -
ĠRe ader
Ġdisestablish ments
tr on
ãĤ ĭ
C urrency
ĠV illa
Ġc line
Ġ\ (
vent ions
18 46
umb ai
ĠCam eron
v b
ãĤ ¹
ĠO w
ĠC oun
ĠCroat ian
ut ely
im ity
ĠY es
Ġappro ached
Ġmap per
Ġmathem atic
w al
n f
ur ities
up iter
vel t
Ġnovel ist
- "
ĠCol lect
dat as
Ġsaf ely
G I
Ġ($ \
ĠLL C
sl ash
ĠCO MP
ĠRay mond
é Ļ
Ġg ateway
ĠFunction s
Ð² Ð°
He art
ĠK or
Ġsh apes
ĠR ams
Par allel
' })
Vertex Attrib
D ummy
ac co
? ,
S v
ess a
p v
ĠL or
pro port
] ])
r er
Ġindex ed
Ġfor get
ifest yle
ĠE ld
ĠWork ing
Full Name
ĠInter rupt
prop ri
Ġtransl ations
h orn
add y
art et
ĠEx pected
on ing
Ġtri angle
T ele
ĠCh o
C ategories
ĉ ĠĠĠĠĠĠĠĠĠĠĠĠĠĠĠĠĠĠĠ
c ards
Ġprogress ive
Ġbor ough
if s
ul ers
Ġt t
amp ed
Ġfact s
oc ent
Spe aker
screens aver
Ch annels
ĠWAR NING
ĠDisc overy
Ġdrink ing
I reland
Ex act
Ġsh ots
Ġconfig urable
ĠJust in
Ġcent ered
Ġb ishops
unc ated
Sp acing
Ġfor cing
ang les
Ġstrict ly
Ġd rain
ĠF oster
ens en
BO X
Ġphotograph er
ĠS ou
30 1
sp rint
} ))
ĠD aw
"> .</
ãĥ Ī
Ġ[ \
IC ULAR
F s
reg istered
max imum
datab ind
Ġda emon
ĠAng lican
US B
Cor rect
ĠÐ½ Ð°
Fiction al
b org
lin ewidth
Ġ` --
Ġun icode
/ (
TE MPLATE
uss els
Ġinter active
Ġw orse
CUR RENT
l ucene
Ġartifact s
il inx
ĠB B
Pr inter
On line
L i
pr us
Ġform atter
Ġgold en
ĠB U
DI F
> {{
/ ',
as io
Ġcontribut or
6 55
Ġes lint
ĠNav igation
Ġfl u
Clean up
d ictionary
. -
as ma
In herited
Ġdo ck
Ġdog s
is ely
Ġqu it
Pl ane
Ġ$\ {
w rapped
ĠP icture
Co ordinate
View Model
Ġor chestr
Ġderiv ative
g md
ĠInd ies
ĠCh an
Ġintegr ity
r in
Ġle ase
Ġtyp ed
J ac
Ġ( +
ĠC ox
}^{ -
ersh ire
ĠColumb us
Ġext ensively
Tem plates
ph is
Sc oped
ÅĤ aw
Ġtradition ally
J et
Le af
ĠE S
we ather
Term s
P ers
ing en
ĠT ul
ott ingham
Un icode
> ]
ĠNew castle
Ġ utf
spec s
ĠDr ama
iz a
Ġfight ers
Ġgraph s
ĠD yn
Ġcompos itions
im ap
PRO CESS
Ġnew er
r ss
ĠC ancellationToken
Î ¯
Ð ¡
n ut
amer as
ĠWrit ing
ĠBos nia
ĠPau lo
Ġ' \\
}} _{
CHANT ABILITY
SP H
ĠHar bor
ON ENT
as n
15 7
s chool
Ġhydro gen
er ase
ry s
ĠEag le
m alloc
Ġmer ely
Transport ation
Ġbatt les
Ġcond itional
D uplicate
Col on
Un incorporated
Ġb uses
Ġdis ag
Ph ysics
Ġserious ly
ap a
ãģĹ ãģ
ĠW riter
Ġh ang
ĠB ears
ĠLi u
n ets
up port
Ġterm in
ĠTas man
Ġed itors
ĠAd min
ass igned
Ġo d
Ġoffset s
Ġtra its
Ġf ires
Ġon Click
ex emplar
Ġmain stream
Ap ache
Ġgu y
Ch ina
Ġen semble
ĠProtest ant
æį ®
it ational
ĠFile s
Ġtop ology
Ġjo ins
ĠT ouch
http Response
s ized
Ġph p
LA ST
Ġch ains
ĠY ellow
na issance
ĠExt ract
Ġattend ance
Ġfeel ings
ĠSp encer
ĠV eter
Ġa de
Ġmon astery
ro e
ĠIm pro
Ġwealth y
Ġexhib ited
Â »
be am
Ġdebut s
art a
P referred
^ -
Ġen emies
x path
ĠB ened
ribut ions
Ġdevelop ments
ĠTib et
ro bot
rele ases
ĠMont gomery
Ġscal ed
ot ive
Ġpay ing
ĠFried rich
Ġfe es
Ġvar char
D ie
Ġwel come
Ġsustain able
Ġsp ots
Ġper ipheral
Ġsym metric
ĠKn ights
Ġthere by
ĠHar vey
ae us
ph ib
LE T
ric ulum
ä¸ º
Ġend l
ing o
ĠS old
ĠCh am
Ġadministr ator
ĠNash ville
Ġcop per
I ce
ig i
Ġchem istry
ĠS part
Ġvolunte ers
I CT
Ġconven ience
Ġs ailed
cos ystem
re ts
ĠM ik
Ġsus pension
) ](
Ġt iny
Public ations
Ġv it
bro ok
Ġexhib itions
om ed
ĠJul ian
ĠComp etition
in ia
ĠA ires
ag ers
ĠIn nov
Ġsim ulations
ĠShe ll
West ern
Ġcer emon
port let
User Id
ĠC ec
c xx
Ġtim ber
ĠG ate
her o
Ġthere after
f requency
st aging
Exist ing
m eth
ĠG uild
member Of
Ġterm inus
har mon
Ġrg b
R oad
w yn
ad apt
Ġemph asis
Ġdram atic
Ù ģ
ag i
get Item
D ark
ä ¼
CA ST
Non null
Block ing
Mod ify
ose velt
Ġdist inction
Ġsum mit
ĠN ASA
the s
COL UMN
names e
progress ive
Ġc ipher
up pet
Ġconsider ation
ar v
Ġsh ader
Ġsh ops
c ock
ĠL ooks
ĠRepublic ans
n at
Ã ¯
Ġfilm ing
ĠHer ald
Ġtr ump
Ġrecon struction
Ġab ilities
æĹ ¶
="@ {
ĠGr ande
Ġcomput ers
s ix
Ġconsequ ences
ur an
Ġdoct ors
in as
Ðº ÑĤ
uan ian
Ġpitch er
ĠTom my
ok ia
ĠEnter prise
Ġch a
Gu ard
m ile
at trib
ĠR af
el ia
Ġfif teen
do jo
F ixtures
Ġc ust
to gether
h all
first Child
Ġhous ed
ĠF iction
ĠAR M
l iter
Ġfl av
H istogram
Set ter
ĠP atch
= ${
Ġcamp s
"> /
Is Valid
Ġun f
"> {{
im i
No thing
Ġtravel led
g ies
Ġav iation
Ġdem ocracy
Ġenh anced
Ġtr ick
Ġm amm
Ġpolyn omial
Ġpre t
m atic
Ġe cc
ĠB ach
ĠQue st
L es
oc hem
Ġor b
author ized
Ġgen es
Ġc ave
ĠF E
je ctions
Ġround ed
Ġexpect ations
Can ada
A ware
æ Į
Ġo urs
Ġo m
St and
S oviet
Pre c
LAB EL
ĠSc ar
Ġn aturally
T IP
Provid ers
C nt
fr amed
API ENTRY
h ive
Ġm utable
ĠJ oin
ener ated
song writer
Ġc ow
Ġquarter back
________ ________
Ġth orough
Element Type
Cap ability
.$ $
Ġindu ced
ĠH alf
String Utils
E ducational
Ġfor k
Ġsynt hes
us hes
Ġwat ched
. ).
ĠC ort
Ġres ume
ĠÐ´ Ð»Ñı
Ġarr iving
Ġan alys
Ġwould n
Config s
le z
sp arse
S ING
e u
Ġboot strap
Ġf Ã¼r
ag le
ĠStock holm
Index ed
Ġnick name
Heading Color
Ġth rew
AT O
Def ine
ĠID s
ĠBenn ett
M ah
Res ponder
Ġgr ants
ex act
libr aries
Ġinternal ly
ĠAL L
ĠNot Implemented
"> :
ĠZh ang
d ll
u pe
> #
Ġchalleng ing
Ġimplement ing
r p
ĠRh ode
ĠC ris
l tr
**** *
ON SE
ond s
W ay
á ¹
ot yp
ĠJ ung
00000000 00000000
Ġnumer us
Ġact ively
ST ORE
Ge org
Ġcoe fficient
C LE
ĠB io
Ġcult ures
Ġre called
oper ating
by ter
ĠChe ster
ĠM ine
EN ER
Ġm oll
Ġun e
symbol s
Ġph ases
Ġarr ives
ĠHamb urg
source Line
il ian
In side
ExternalProject Path
S leep
Ġs pher
Ġcelebr ate
q t
Mark up
Ġpredict ions
Spec ification
w oman
Hen ry
ĠPhilosoph y
Ġresign ation
CONTRO L
Ġveter an
Ġsche mes
scroll Top
ĠV ER
F lex
ĠDec ision
ĠC M
In ventory
ĠAr med
00 3
wik ipedia
Out come
ĠSp ider
Ġb rew
activ ation
Ġtravel ing
Ġpl ural
Form atting
N ever
} >
S parse
Ext ent
per ience
set minus
ĠMag n
L ifecycle
Ġinnov ation
ĠC ork
ĠR osen
ĠNorth west
e o
get All
ll er
Pub Key
M EN
br ane
ĠIm Gui
Decl ared
Ġburn ed
ĠSask atchewan
Http Servlet
Ġcent res
ĠPh ysical
rec ip
built in
ĠAd miral
Ġr uler
sh ops
22 4
mod ern
h h
aur us
ĠS of
ĠIs aac
ĠPol itics
WA IT
j ournal
g ency
J ud
ond o
ĠOper ator
ï¼ ļ
x si
Ġelev ated
N Y
ĠGe o
enc oder
a ude
ull ah
ĠDown load
linked ExternalProjectPath
36 5
CALL TYPE
Ġsynt hetic
ĠPART ICULAR
b ower
Ġare na
Con struction
Ag gregation
M ime
m or
Ġconn ector
ĠMER CHANTABILITY
Bl ank
Ġfarm ing
S af
ycl er
Ġmem o
arian ce
Ġrem ix
ĠPl anning
WR AP
Ġel abor
Ġ% (
OPTION S
ĠIndones ian
ĠClar ke
k al
ĠAl ert
Lock ed
n orth
Persistent Volume
: ]
ĠB atch
Ġhelp ers
Coll ision
ĠRena issance
ĠG PU
m art
IP v
Ġdiplom atic
Foreign Key
= */
An imated
Stream ing
ĠBro s
ĠÃ Ĺ
Ġearth quake
Ġch ip
Ð¾Ð³ Ð¾
ĠAn a
15 3
Ġb arrier
ĠPal mer
dr ive
MAG ES
G G
Ġentrepre neur
Ġres umed
rott le
un checked
ĠM Ã©
lic h
O bserv
ĠE ight
ĠJ in
* \
Ġen rolled
Ġ? ?
Ġm ature
Wh o
Ġnot ion
L iter
class ic
ĠFran co
ĠCh oice
bor o
Ġprec ise
cont ract
ĠB iden
ĠConst ants
ext ended
Inter ceptor
Ġmidfield er
oc y
a head
Ġsuggest ing
T M
ĠMar io
ĠC ounter
im m
C AT
is che
Ġassum ing
F ULL
60 1
V k
Lou is
ak o
Ġserial ization
Py Object
ĠMil waukee
ĠG ene
Ġm ixture
oc c
Ġfoot age
Swed ish
IR Q
ru id
Ġmet ropolitan
Ġop am
ĠPer th
lo dash
Ġac res
ĠDev on
Res pons
Ġviol ation
ĠB log
ĠL ists
ĠG O
ĠL isa
18 39
ĠRe ed
l hs
ĠN UM
Ġun incorporated
Result Set
Ġequal ly
data Type
Ġhighlight ed
(' :
Ġdist ances
ĠIllegal StateException
Ġdepend ence
Ġvacc ine
er i
Ġun ions
Ġadvert is
m aint
Ġb atter
18 45
az ar
Ġc am
Ġlist ings
à ´
Ġc anceled
ĠC lick
ĠLeg al
ĠSTAT US
Watch er
Jose ph
CharacterOffset End
CharacterOffset Begin
op lus
Ġdesign ation
ett i
p aint
ĠN ancy
Ġpro visions
ĠWil helm
am y
sub figure
Ġf usion
s yn
ĠD y
Ġcou p
ĠB ent
Ġlo ts
Ġinvestig ated
anc a
get Resource
ĠJo an
ur bs
Ġdeep ly
å ·
get Column
3 30
et ric
and ro
cut s
Ġhost ing
N s
t ract
Int roduction
on line
Ġ" ]
Ġh o
Ind ia
Ġout comes
ĠVAR CHAR
:: __
Ġprom ises
Ġde liber
ĠK om
b ay
ĠRel ations
Ġre actions
Ġrepresent ations
ĠVAL UE
ĠMig uel
ĠF lying
P END
S izes
ten ant
found er
acc um
Ġpro ven
B US
g dx
Up grade
May be
Q A
im an
Ġmus cle
ĠDivis iÃ³n
s ing
ĠInt ent
ogene ous
m ma
Ġl ux
18 12
IAL IZ
get File
Ex press
insert ion
d ma
Ġident ifying
pol ate
roll ment
ĠL iv
Ġor n
" })
ĠS EC
Ġsub stit
G uest
Handle TypeDef
sh i
Ġdiscuss ions
ĠOak land
Ġab oard
Ġenc oder
Ġ Ñĩ
Ġabb rev
ĠR EQ
ob s
F W
Ġpro l
Res erved
Reg istered
ĠD anny
w ant
... ]
p it
Ġens ures
Ġtour ism
, "./
ĠUs ers
Ġover lap
ĠPr ague
ĠCour se
cess ion
ĠS ocket
ath i
Ġabs ent
ĠT odd
B attle
Start up
P ur
l f
be k
è¡ ¨
Ġgener ations
flu ence
Ġmand atory
Object Type
Ġem issions
Ġref ere
alloc ator
Ġrep lica
ĠMer it
ĠK as
initial izer
SY NC
man uel
ĠMar x
ĠVlad imir
m us
ĠKr ish
n ational
38 4
process ed
ĠPun jab
Ġexam ination
>{ @
t ier
P B
z end
ĠMax imum
unc an
Ġshel ter
on so
Ġbatt alion
Extract or
S un
er ie
Ġne ur
Ġleg islature
lev ard
ĠPan ama
Ġgard ens
ĠOut standing
ĠDE LETE
b re
Ġst olen
ĠE asy
Ġdef ended
ĠV ict
ĠE cuador
ĠC ut
ad ic
s al
Order ed
spe aker
Tim eline
Ġmass es
2 32
H alf
ĠEx pect
ĠBe h
S u
g ie
PRE C
With in
ene ath
ĠRetri eve
B UT
ick ets
B rows
C ENTER
Ġalt itude
ĠO Auth
Ġcy cles
Pres ident
SH ORT
ĠC I
g log
ĠKum ar
ĠS ul
Ġr b
ĠRep os
ĠA ur
Ġ* );
Place holder
ĠPro position
ose x
Ġg ent
Ġpo ison
ĠGit Hub
å ¹
ĠH aving
Act ual
ĠS afe
Ġassum es
Ġcomp ress
us b
Ġres olver
/ ?
Ġf irms
Ġcons ensus
Ġal lies
:// $
Ġqual ification
Ġisol ate
ĠOt to
{ }{
he nd
sp ons
ĠEx tra
Ġsc iences
Ġr t
ĠGabri el
Ġw orn
Ġcoun sel
ĠEngine ers
ĠPalest ine
imit ives
Ġincre d
Bound ary
ĠS urre
in struction
is olate
ounc y
ĠEl se
Ġd eter
exp licit
ĠST ATE
Ġc od
(" ");
umber land
leg raph
T icks
Ġg em
child Nodes
Ġbench mark
wikimedia ui
Ġs ung
ĠS che
ĠJac ques
ch ard
ĠH tml
Ġint ense
Ġcelebr ation
G erm
] <
Ġn inet
`` .
Ġpar agraph
Ġant ib
subscription Id
nit method
C ycle
assert Same
Ġful fill
Qual ified
Ġprevent ed
im ator
Ġ ãģ
Ġl ens
è ¨
Ġl aser
Ġinterval s
18 37
ad ier
RE SET
M il
Ġconf used
ĠShe ffield
auth ors
STR A
Ġcom ma
ĠÐ °
m itt
ĠOriginal ly
ĠE lection
pr ises
Ġathlet ics
ĠLI ABILITY
F ort
Ġl ig
spi racy
P rem
ern ess
n ell
ath a
ĠDo ctrine
ĠTun is
pre sto
Mod ern
ĠC lock
Ġcomp aring
land o
ant ly
ĠEncyclo pedia
ot os
Ġcode c
Ġst eal
ĠD b
MEM ORY
ĠN A
Ġs overe
Ġ| \
comp ose
f ight
(' _
Ġu id
ĠVol unte
ĠR C
Sec ure
Ġhistor ically
ĠG host
av irus
ous ed
ĠO B
pl ating
Ġcor rupt
Ġrhy thm
Ġc ad
Ġ} }</
3333 3333
in ance
Ġemerg ing
ĠH lo
H om
Ġ_ ("
Ġredu ces
Ġcontr ad
ĠF S
Iter able
ĠG lass
Ġg rab
Ġbank rupt
Ġcan al
ĠLib erty
ĠC B
ĠEs sex
I OS
M u
Ġcart oon
Git Hub
et ches
ex change
ĠFIX ME
Un ary
Ġst reak
Ð¸ Ñģ
f h
ĠCon figure
ĠCert ificate
g ary
18 44
Ð» ÑĮ
tw ig
ar ith
ĠPRO VID
pos itive
ra ises
On Search
Ġimport s
Ġimm igration
Ġthe ad
id y
col span
Ġne ural
ĠAmb assador
ĠJ OIN
Ġbl ues
Cond itions
ĠR an
ĠO ber
Se veral
---------------------------------------------------------------- ----------
Ġ" &
Ġan ce
Col s
15 9
S yn
Ġb link
target s
Read Write
Ġj q
Ä Ĺ
Ġhe ter
v card
Ġex tr
æĪ Ĳ
Ġte a
let es
ĠDomin ican
i ating
ĠBu enos
J oint
Ã¡ r
Ġl ung
an imated
Ġcollabor ated
Ġinv olve
q p
um m
Ġ@ }
Ġc hest
S OL
Con serv
vel ocity
Act ivation
ĠPlan et
M otion
Ġde fer
ft p
Ġver ified
Ġmoder ate
Fl ash
Ġcl azz
aw i
Ġco at
Field Name
Comp act
N ay
ĠAng els
Ġfle w
flo ating
ĠS ey
50 1
Ġexecut ing
f amilies
un ches
ill on
P aired
ĠC u
ĠN ine
ĠE c
Î ³
pl aces
Ġtool bar
Ð» ÐµÐ½
C andidate
pro logue
From String
m ons
Ġo prot
æ Ģ
ĠW orth
te k
y outube
ĠMer ge
Ġen compass
Ã§ a
Ġover w
ape st
Spec ify
Ġscen arios
ĠRem oves
Ġdepart ed
Ġd irty
add er
EXCEPT ION
ĠC rit
con cept
Check point
S ynchron
ĠO wen
Ġlaws uit
ĠTrans it
k ie
Ġh oles
Ġwrit ings
Ind ividual
ĠGener ation
ĠByz antine
ĠP anel
& ,
Ġcom plain
atin um
ST OP
Ġ*/ ;
serv ers
Ġreserv es
Ġp g
SNAP SHOT
os opher
Ġvo ices
sh rink
Ġg rain
Ġtable Name
Ġl akes
hand led
//////////////////////////////////////////////////////////////// ////////
cur ve
Ġany way
dec oder
Ġmer ch
ĠSud an
erv ing
util ity
Ġtour ist
Product s
ĠV il
ĠSw an
osex ual
Ġdat asets
ĠF ITNESS
cell s
Ġanth rop
qu in
Ġf ol
ĠP ool
Ġcomput ational
Ġnot ifications
ĠPass word
' +
ĠD eveloper
ĠH im
ĠM ultiple
Ġp d
Re peated
Ġim pressive
ĠJama ica
ov anni
ĠRo osevelt
G reek
Ġproport ion
j p
ass ignment
comm unity
Ġ{ });
ĠR ice
Ġdef ect
all Errs
ĉĉĉ Ġ
Ġdec oder
ut ors
art icles
ĠK arn
t raining
dis pose
Dynam ically
put ies
Ġl ac
ĠP IX
ĠE mit
Pub lished
ĠPerm ission
ĠAut hentication
ĠMan ila
Ġaccommod ate
ĠH H
open hagen
Ġconstitu encies
Ġcross es
Ġpert urb
os c
Ġf p
net ty
Ġcho ir
Ġv ital
Account s
ĠTri ple
Ġconven ient
Ġmill ions
` ](
Ġair line
i ast
ĠM umbai
Ġhand ed
Ġlight ing
Ġphys ic
ĠRe place
Ġret val
Ġpil ots
Ġinnov ative
Ġsust ained
check er
ĠRevolution ary
ere k
Type Info
A f
vert ices
Ñĩ ÐµÐ½
Ġb er
ĠL ak
in el
ord inary
arri or
da o
D ifference
ĠG ren
Ġback ed
f bb
Ġcomp ounds
Ġdro ve
Ġperman ently
A sc
ĠK re
k b
zeg ovina
inst alled
ĠBat man
r idge
p ics
List Item
"> =</
cre st
) ")
Ġp ap
Ġst ick
ĠLine ar
J ar
lic ate
Ġpro spect
ĠI B
iss on
Ġmet ab
Ġwork flow
DF S
I FI
Ġt ube
ĠDeep Copy
Ġitem Members
invalid Params
b anner
Ġv in
15 8
Ð¾ Ð½
Ġris ks
t alk
Ġreserv oir
ĠCH AR
ĠL oss
Acc eler
ĠAUT H
Ġrad ar
17 6
Ġch ronic
ĠYugoslav ia
ĠMar cus
Ġreleg ated
ck o
A st
Ġb ull
As ian
Ġt a
s elling
è §
ux er
READ Y
ment ed
par allel
ah a
Polit icians
Ġb achelor
Ġmathem atical
is cher
Ġbe er
ĠAbd ul
Ġnot ing
ĠTh ings
ĠĠĠĠĠĠĠĠĠĠĠĠĠĠĠĠĠĠĠĠĠĠĠĠĠĠĠĠĠĠĠĠ ĠĠĠĠĠĠĠĠĠĠĠĠĠĠĠĠĠĠ
Ġp unk
C atch
Ġport al
g io
Ġdef initely
Ġali en
È Ľ
** /
ĠSim ilarly
Num bers
Col umb
Ġam et
No Error
st ation
% ),
Ġ* >(
is se
enc rypted
ĠHe ights
Pointer Exception
Ġac qu
Art icles
ast ed
Error Message
Ġtrack er
ĠG ol
ĠE L
ĠURL s
le arn
ĠC inema
are l
ĠBrook s
A jax
ĠL ength
ĠProv incial
Ġcompar able
ph ysical
ĠBe a
sprint f
raw ler
ĠSom erset
Ġalter ed
>> >
Seg ments
ref ptr
Ġt ang
ah oo
ĠV ers
X HR
Ġt p
l ishes
ĠD AC
Ġpr inter
ach ers
contains Key
Ant i
Ġth reats
Match ing
Ġst abil
Ġbo ards
H ours
ĠZ imbabwe
gr and
ĠLeg ion
Min or
è¦ ģ
ag n
C ancellationToken
Ġp ic
Ġy ard
Ġinduct ed
SPH INX
Rec overy
Da emon
ust ain
ĠProp Types
Ġf t
Ġp atri
(" {
ĠT ow
ĠGa ussian
io let
get Bytes
are ncy
Ġport folio
Â ·
Ġj ail
CHAN GE
d oxygen
Ġprogram mes
ĠLuc as
Ġsole ly
Ġc avalry
ĠA ub
ĠD ame
Rest art
ĠT imer
ĠIn stitution
inds or
Ġd d
Command Line
Ġs ad
Ġj ack
% =
DO UBLE
O VER
ĠAl ways
Ġan imate
int endent
Ġb read
20 5
Ġgram mar
F LOW
S a
in ar
if ice
Dep loy
Ġmag net
m gr
ou ple
Ġaff air
UB E
Ġmidfield ers
à ®
ĠN om
ĠB ool
18 20
ĠL ok
ke es
m ud
per formance
Ġdistinct ive
ĠImmutable List
f name
ĠD as
Ġmaint ains
Ġsyn onym
A ML
am as
Ġa ster
Ġp ioneer
Ġback ward
ĠEngine er
Ġexc ited
G reat
Ġh ills
Ġ\ ;
set State
Ġpian ist
re present
ber ger
Ġuncert ainty
ĠMus ical
Ġneighbor ing
B ootstrap
or p
Ġat oms
DO MAIN
ĠÃ ĸ
< '
Ġvar ies
14 2
sen al
Install ation
Ġmem or
eler ik
Ġh r
ĠDist inguished
Ġc iting
Ġre public
Ġdef ender
SECON DS
ĠP ul
Ġper ceived
ĠFr anz
Ã¨ s
b igg
ol oad
PL ATFORM
í ķ
ĠPro xy
hab ilit
ĠStr ong
ĠOpen SSL
Ġre un
Ġal phabet
Ġque en
az or
cc c
ur ated
det ach
ra cle
ĠN as
Ġinter change
friend ly
co ord
Ġc rack
Ġguide lines
1 200
ĠS ed
Ġ? ></
ĠF olk
Ġcomment ary
Ġgra ve
al in
Ġb s
Ġm u
sourceLine No
}) (
Ġcor rection
ĠHol mes
ĠA str
Work ing
in istic
Ġaccord ance
14 8
ĠC es
ĠLith uania
ĠS ter
j as
so ap
E AR
for rest
Con stituency
ild a
ĠPet e
Ġrep lication
Ġsudden ly
Ġmem oir
ĠE state
Ġsub class
Real m
ĠPol l
ĠBl ake
ĠIgn ite
ab lo
ĠFour th
ol utions
Ġcompr ises
dir s
40 3
ĠC UR
ik er
provid ed
Ġthe sis
ĠGe off
c ats
Ġrec ursive
h yp
ĠT all
Ġan ch
Ġcare ful
Ġback wards
Ġpsych ology
Histor ic
J P
Ġc inem
Ġhealth care
Rep licas
st a
Ġa u
Sw iss
Ġp ace
ĠCamp us
ĠCh ain
ĠWood s
Ġadmin istered
r age
Dr ive
ĠS ullivan
B eg
Ġj ew
depend s
ĠRe form
Ġc ant
ac les
ĠS IL
Ġ" ../
Ġact ivate
qual ified
} ',
ĠS I
alt ies
ĠA ra
ĠJ unction
Unity Engine
ard ing
Ġob st
Ġbound ing
Ġsup plement
De ferred
ist le
ĠGard ens
RE PL
Ġin jection
Ġfollow ers
Ġerr no
ĉĉ ĠĠĠĠĠĠĠ
ĠWild life
B ubble
Ġc ategor
Ġbel t
Ġh alt
30 2
Wait For
F requency
18 38
Th us
ĠBig Decimal
ĠKaz akh
Ġbro ker
ĠCy prus
ch y
Ġlink ing
term inal
Ġtrigg ers
H over
Ġun iqu
null ptr
rem aining
ĠS F
ĠC ord
air y
ĠMaur ice
ĠCatalog ue
Ġre construct
B ench
ĠPl us
N F
ç ī
ol ation
ĠAct ress
Ġing red
f und
ĠS ame
Ġs iblings
Ġver se
pref s
L V
f ixtures
ro us
ĠBind ing
Ġp ause
Ġsub mission
ĠSe quence
ĠÂ »
Ġident ifies
Ġeditor ial
im ag
SE PAR
ast ics
Ġperson ally
Ġconsum ed
Ġsoci eties
ce il
ĠB P
Ġaffili ate
Ġgrad es
Ġre use
ĠB arr
az ard
ĠW idget
17 2
comple ted
Ġalleg ations
Ġdiss olved
_ :
Ġexpect ation
ÑģÑĤ Ð²
Ġs ess
Pop ulation
ĠĠĠĠĠĠĠĠĠĠĠĠĠĠĠĠĠĠĠĠĠĠĠĠĠĠĠĠĠĠĠĠ ĠĠĠĠĠĠĠĠĠĠĠĠĠĠĠĠĠĠĠĠĠĠĠĠĠĠĠ
ĠCommunic ation
accord ion
Ġattack ing
H H
co ords
ĠCons ider
c rypt
ĠMan it
ĠArch ae
activ em
Ġsus pected
cred it
Ġun w
Ġflow er
Ġamb assador
h ls
ctx t
Ġbre ath
ĠRunn able
Ġcol s
Token izer
Ġc ock
B log
Ġo w
Ġit al
Ġn b
ĠPar ad
K ube
T W
Ġnumber ed
Ġv ault
ash ire
Ġh opes
find er
15 4
ĠO PT
#### #
Ġst ellar
ph ant
Ġpar ad
mark up
Stream s
v oice
ĠSus sex
sh ore
Ġbind ings
P OM
In variant
ik ing
Ġansw ers
STRA INT
G ram
f re
Ġto mb
ĠPow ell
Ġload s
Ġfoss il
ow l
Ġconver gence
Ġmyst ery
ĠA bs
| .
Ġphenomen on
tr m
source forge
W ashington
Dem ocratic
anim ous
D st
w g
âĢĻ ,
ĠCon sumer
Ġgu itars
ĠCal culate
may be
ĠC yr
de ad
ĠPr ison
cord ova
Log ic
Ġclip board
os cal
ĠCom edy
Ġpoint ers
Ġproject ed
H a
Ġdata Type
Ġliter ally
8 75
G lyph
Ġte eth
mem item
C fg
H op
Ġ[ $
AM D
ĠDes ert
Version UID
P oll
ĠN ottingham
ĠNiger ian
ĠL ub
Ġcontact s
ĠPear l
ad vert
ĠH ack
ĠHar per
id le
ĠUn ity
G PIO
if fe
ĠL akes
ĠDet ails
ĠF lem
exemplar City
align ment
P et
uls ion
_ *
Ġpoint ing
ĠS olar
Ġconstant ly
Ġt enth
ĠO g
ep per
Ġpreced ing
Ġt i
mid i
W at
ĠV ec
ĠPak istani
Ġtot ally
, (
y u
Mar shaller
for um
uck s
m ans
Adv anced
Ġs iege
M arg
n st
ĠMethod ist
ĠCab inet
Ġvar ied
Ġmark ers
n is
Ġbas in
ĠAd ult
Ġbrig ade
ym ore
Ġl as
ard i
dig it
ĠR ET
Get s
ĠN il
Ġinh ab
bro adcast
g ap
Ġ= =====
ĠC au
N atural
æĸ ¹
int ro
ine es
Ġdeterm ining
Ġre pr
ĠN intendo
Start Time
Ġhon est
ĠMin i
Ġsport ing
R AD
S on
U tf
is Null
Single ton
ĠEx ped
x b
ul ous
oid es
Ġstud ios
uch y
INTER FACE
ĠR ules
Dan iel
ĠCred it
ĠP H
Ġaver aged
Ġh over
Gr ant
ĠTw enty
ĠFa ith
Ġ[ (
Ġam plitude
ĠX X
Ġiter ations
ator ies
AV A
20 6
Or Update
consist ent
ĠF ut
ĠBr as
Ġmiss ile
Ġb uff
Ġstr ange
class v
Build ing
ĠF F
Ġap ple
Ġget Default
aaaa aaaa
Ġfound ers
H old
Ġlif ecycle
U ng
ĠF ed
rem ark
Or Default
ĠPark s
ĠUr ugu
Pol ish
" \
V ir
al gebra
ĠFire fox
ĠArg uments
cr im
F ellow
Ġp icks
ĠS UB
Ġv ow
um ble
pe z
{ |
Ġtrans itions
L ost
doc utils
am med
Ġab sol
D ROP
ĠCar lo
ĠR achel
Test er
ĠDav ies
( _.
Ġconsist ency
spe ech
of ill
mid t
Ġserial izer
ENT IAL
Ġinf lation
15 6
ĠHer zegovina
l w
q s
ari us
ĠHit ler
S i
Ġconv ey
Serv ers
Y ea
Ġenc rypt
Ġre forms
Ġadvoc ate
ĠSTDMETHOD CALLTYPE
op r
T ASK
ou x
Ġn ut
Ġchalleng ed
Ġmarg inal
p ure
Ðµ Ð¼
ack ed
ĠJ et
ats u
inv ocation
ĠFinal s
Upper Case
Ġarchae ological
j om
MA IL
t iny
} ";
ular ity
IS ING
Ġnovel ists
ĠH ass
IST S
T s
ern er
ĠE sc
Ġund ers
Access ibility
Ġb ell
Ġim posed
Ġthrow ing
Ġa uction
assert Is
Compar er
ol in
L y
z el
Tr ust
æĸ °
ĠEm ail
Ġcon verter
ĠAgain st
found ed
ob y
erd in
Ġd atabases
Ġbomb ing
Ġr ally
sh im
Ġcopy ing
ĠCol in
ang ered
Ġfore cast
r ust
ra its
Ġchunk s
PH A
n ecessary
ĠW ake
Ġun ve
Hand ling
Ġder ive
ĠHand ler
Ġrele asing
Token Type
Re ject
CK S
ĠStat ement
Ñģ Ð¿
Form ats
ç ¤
ter bury
at tempt
ĠO pp
Ġax es
^ (
eg u
Ġre nown
Ġc t
US ART
Ġre load
Ġ` <
Brazil ian
Ġann ex
Ġm oon
ĠC V
ĠRed ist
18 41
E F
å ¸
Ġscreen play
Ġvocal ist
Ð Ĵ
Ġcontext s
Ġwarr ant
Check box
Dynamically Linked
ĠA my
ri ble
Ġad s
ĠSt akes
ĠT EXT
ell ers
ĠS weet
act ed
N aming
ĠCorn wall
Ġpit ched
DynamicallyLinked Library
Ġtor ped
ĠGu ards
CCCC FF
j peg
Ġin complete
Ġphil anth
Ġrefuge es
B ol
ĠPo etry
ch ief
å ī
Ġexec utable
ĠPrinc eton
Ġcomm enced
ĠIndian apolis
P AT
ĠØ ¨
b io
Writ ten
Ġas p
v ation
: .
ĠF ul
ody nam
Ġalleged ly
2 12
Ġfilter ing
oub les
ĠĠ ĉ
FI RST
ail ing
ĠCon verts
no op
Pre pare
in ced
Ġcomple tes
Ġembed ding
ĠA chiev
ĠM OD
Ġp as
Ġb ats
files ystem
Auto Fit
tri angle
ĠB elf
ĠIm ages
Ġa jax
ut ical
Ġwid ow
Ġch apters
Sem antic
N ick
Ġc ouncill
Ġreg ression
^{ -\
Ġtele phone
Ġslo pe
ĠH O
ĠSl av
INST ALL
f ab
Document ation
n ai
ĠF UN
h ass
stream s
zh ou
Ġper ception
field Name
produ cer
Ġh istogram
18 36
Ġexecut ives
S sl
es lint
Ġarg ue
Ġm ic
get ter
Ġdiscrim ination
Ġcro ps
Q R
in ode
O LEAN
w edge
Ġl n
sw ith
Ġm ast
ĠM SG
16 7
Top ology
ve ill
ĠRail ways
R ol
cert ificate
Ġmut ual
é Ĺ
Ġd uplic
Ġcollect ing
Ġqu otes
V IRT
Ex ports
ĠCard inal
Ġdecre ased
mont on
mer ged
Recorded Vote
ac ier
im on
Ġachiev ement
ĠCh ase
Ġc rystal
Ġrec ruit
Ġcall able
ĠJul ia
ĠUp dates
Ġche ss
ĠDur ham
Ġex ported
Buffer Size
Check s
Ab ort
unct uation
ĠI C
Ġover write
des ktop
Ġman ifold
ĠPalest inian
ĠF BI
eg al
Ġgrand son
Ġab olished
ĠJohann es
á ¸
Foot er
h ole
Ġen abling
ĠEn umer
ĠH ur
t an
Ġf ifty
Ġaud iences
Av ailability
Ġtemple s
el ing
ey e
Ġacade my
Athlet es
Ġa est
any on
Ġfl our
Ġprom in
tex trm
ĠCl iff
Bl ur
Ġclos es
G al
æ ģ
activem q
Ġ" ."
HEL P
(' %
Ġan alyst
Ġas ide
Ġoff ense
Relation ship
Ġp x
ah u
P en
ĠLe ic
ĠArm strong
ĠS L
Ġimm igr
Ġfor ty
est ing
18 35
li o
ocol ate
ĠPl ate
ĠComp iler
Ġgalax y
S ens
le ad
um bo
X T
Ġle ts
ĠG Ã¶
ĠFr ag
ipe g
Ġthought s
Ġcommun icate
Ġlocomot ive
ĠV II
Ġprom ised
em bourg
light s
18 32
ĠForm ation
Ġup graded
uis ine
Ġunder graduate
BUILD DIR
ĠNad u
ĠFe atures
ĠResource Manager
Ġdies el
en es
MODE L
at iv
With Context
av ian
List en
Ġmeas uring
}) ();
Ġrecommend ations
Ġfl ank
model Version
~~~~~~~~ ~~~~~~~~
ĠPublic ations
Ġcompens ation
de en
at z
ark er
Ġarchitect s
bas ename
V tbl
c in
"> [
ĠInput Stream
Ġd il
Ġor al
ĠH err
Ġoccur ring
ĠB ootstrap
contrib s
S olution
Ġ*/ ,
ĠNever theless
} ));
Ġpr ince
Ġpre liminary
Z ERO
k afka
ĠIn ner
Class Loader
Ġf ung
con version
effect s
=" __
Ġf iber
ĠC rypto
Ġ# ##
U IT
ĠB egin
17 7
table Name
Ġter rain
V m
re name
Ġathlet ic
isc opal
ST OR
Ġtorn ado
Ġun likely
cre ts
XX X
Ġkid n
RESP ONSE
ĠS aw
Pro tection
vis ited
L AN
E le
Ġdisband ed
Se ek
ĠHttp Response
Class ification
C rypt
Ġe cosystem
====== =
Ġtick ets
Ġpredominant ly
Ġg host
Ġknow ing
re pr
ĠM aps
Ġtravel s
ĠEvent ually
Bl end
Qual ity
level s
ĠC openhagen
S cheduled
for all
8 90
s ynchron
ne eds
Ã¡ l
O l
Ġt ent
ĠC rist
up grade
ĠTra it
Ġremember ed
unt ary
Ġb ubble
am bo
Ġse p
Ġch ore
ap ur
Ġgu ards
R CC
Ġdec oded
Rec order
ST ACK
Ġel ite
æ³ ķ
Ġt ex
lo de
Ġ$ [
ĠH us
ĠPro vider
spe aking
ĠSalv ador
Ġt aste
ĠT ampa
'] :
ĠInt el
ĠHind i
Ġrecon c
od ot
aj i
constraint s
pro j
ĠL ac
Log s
ĠInitial ly
Ġbreed ing
F raction
Ġca ption
num bers
Ã± o
ĠComp ile
process ors
å Ŀ
connection s
id ays
r te
IG H
init With
Com pression
Ġbot an
ex clusion
Ġsur f
ĠLe af
Ġcor ps
Ġv endor
Ġre build
B ug
s af
L atest
art en
Ġvar iance
ĠFor ward
ac ular
ĠRepos itory
ig uous
A w
append To
ĠCre ative
Ã ®
ĠO il
Ġanaly ze
Arch itecture
WI SE
ĠPoss ible
ĠA G
ĠF ailed
iz ar
Ġtribut ary
ĠU ntil
Feed back
el en
Ġvol tage
ĠĠĠĠĠĠĠĠĠĠĠĠĠĠĠĠ ĠĠĠĠĠĠĠĠĊ
ĠSc roll
print s
Un iversal
Text Box
Ġcheck box
ap ing
ĠHe aven
D J
Nor thern
ĠEx cell
Ġbox ing
SS ING
ĠM ang
Enc rypt
Ġip ut
ir r
and as
LO T
jav adoc
war f
ĠBlock ly
Ġpol ling
ĠMoroc co
Ġext inct
im mer
un expected
ant o
(" ../
23 4
Check Box
Runtime Exception
> @
ĠProvid es
ĠM old
ĠP om
ott a
TH ON
Ġconsum e
Ġnumber Of
Ġcirc les
names paces
all a
Ġ ud
Ġby pass
Ġw elfare
Ġd ens
FILE S
Rep lica
Ġqual ifier
greg ated
Ġemp ire
c ms
Ġs or
Ġconsist ently
' />
A cl
ĠSh are
Ġtim eline
ĠSant iago
sc oped
SCHE MA
ĠInst agram
Ġcon clude
RE LEASE
Ġrefer endum
Ġgrad uation
k v
Ġc ord
æķ° æį®
Configure Await
Ġre name
T ap
SE QU
be ing
Ġ ist
Ġfl uct
Ġh itting
C lo
ib lical
Ġpsych ological
m ne
Ġpro ud
mir ror
Ep isode
computer output
SA MP
Ġquant ities
+- +-
ĠCOPY RIGHT
aly ze
G reg
Ġdef ic
Decor ator
= $(
Pol itics
D AC
ĠP orter
Send Fields
on aut
ĠI BM
arg c
; ",
ĠF at
Red uce
ĠTy ler
p ager
IC ES
ĠD R
Inter action
Mock ito
Fri end
Ġdr ives
ET A
W arn
illi an
\ ">
Ġsus pic
sub subsection
ĠW arriors
Ġr ifle
Ġex terior
RE EN
OR ITY
ĠCo hen
Aut ow
Ġc ameras
UN IT
Ġcivil ians
Ġrad ial
o ji
ĠD T
ĠHe at
Ġroll ing
w ang
Ġdesign ers
ra ils
ĠSher iff
ĠS cale
User Name
Ġarg ues
ĠSpe aker
veill ance
Vel ocity
nd ez
ĠM AC
DA Y
Ġt ale
st ones
I ts
ĠCl imate
ĠBr ussels
Spe ech
hard ware
ĠEll is
RAN GE
ĠESP N
d z
Ġ[ &
aph ore
\ }
Ġdis crete
c ro
ĠCub an
Ġconv inced
ä ¾
18 42
Ġkil ometers
r ases
ĠR overs
c g
h pl
ĠD ir
Z E
Ġpre p
Ġpriest s
rem oved
ĠPh arm
Ġun a
Ġtouchdown s
ST AR
ĠEx hibition
Group Id
G ap
Ġnep hew
h dfs
ĠG ill
Run nable
st ed
Ġfriend ship
ĠT iger
ST YLE
re ls
(' [
Ġstop ping
an mar
im als
ĠI o
member of
Ġd os
), \
es ch
Ġenter prise
] ',
ak ov
ĠIraq i
ĠAdvis ory
S nap
Ġa mazing
Ġs ectors
ĠA CT
Ġset ter
sc ience
Ġadjust ed
Ġvict ories
Wh itespace
åı ¯
pat ched
Ġc f
45 6
v im
ug a
Ġaccept able
Ġinstit ute
byter ian
ĠEm ma
Ġsens itivity
Cho ose
P AC
ĠD ob
ĠL ands
ĠWest minster
Host name
WINDO W
Res ume
develop ers
ĠR ib
Ġconf usion
cat Desc
ĠLog in
Ġ ----------
in herits
ĠCl one
Q T
j sp
Ġcompan ion
Ġr iders
Publish er
dd dd
rack ets
ew ise
ĠN umer
Ġfacilit ate
Ġuser Id
insert Before
Ġnav igate
Ġst ride
ĠDest roy
ar is
com puted
ĠShort ly
ul ators
str cmp
Ch ief
ä½ ¿
Ġto ll
ĠUnsupported OperationException
C ook
ĠM age
ĠV ern
Per form
P olicies
UT ION
Ġtra ct
Ġem itted
Ġbank ing
F ish
LE X
) }(
Ġd ancing
C itations
ĠGl ou
16 2
ĠE g
Ġfre ight
ĠT LS
Ġw ars
ace utical
er ia
ĠBi ography
comm ission
Ap ple
s ensor
SC A
CO PE
y ield
å ±
ĠV iv
ass is
Ġ' ../../
Ġachiev ements
claim er
R am
NS Mutable
erg us
H our
z k
Ġlimit ation
Ġbul let
stan bul
Ġover rides
ĠTest Case
30 3
': '
yl on
ĠSign al
). __
ĠGr iff
ĠPlay Station
ĠBry an
ĠAl bums
ĠLanc ashire
Ġf its
ad al
ĠT C
Rout es
Ġm v
Re verse
def s
Ġem er
Ġless ons
avor ite
ĠQu ick
Ġl umin
la us
Ġconsid ers
Ġglob ally
Ġbelief s
hand ed
Ġhighlight s
å¯ ¹
ĠG UI
enti eth
n od
LOC ATION
ĠBou levard
ĠS ales
ĠAl f
ee per
j in
co e
Ġsurpr ising
N L
ym ph
Ġsculpt or
ĠO st
Ġsufficient ly
ĠU tt
mer c
Ġexplos ion
Sc enario
ĠAm endment
currentTime Millis
Ġfall en
ĠRe ich
produ ced
Present ation
ĠH ide
Ġb out
ĠMal ta
Ġdescri ptions
res ume
roup ed
st ead
comp atibility
U CH
ĠĠĠĠĠĠĠĠ ĠĊ
UST OM
ĠDeterm ine
sm ith
ĠLou ise
cho ices
Ġdraw s
math comp
ĠKenn eth
P ot
ĠF ill
Ġp ink
ĠEm ily
ĠByte Buffer
c gi
ĠT anz
YY YY
ĠK ids
Print ln
er ious
Ġpl ates
ĠAll an
Http Client
g rey
Der ived
EN O
F acebook
Qu eries
* -
Ġk ills
key down
Require ment
Ġcorn ers
Ġper pet
Ġview er
Ġpropos als
ĠRon ald
return Value
Ġpop ulate
Ġpack ed
Ġpresent er
s uggest
ĠSch w
Ġacknowled ged
col m
J O
}} "
Ġconduct ing
Ġimprison ed
ee ee
Ġcasual ties
ad h
Ġmem cpy
Ġprec isely
M vc
file path
control led
Ġcontin uation
end ors
Music ians
mar shal
d ensity
tr unk
R o
Ġr x
kin son
man age
Base ball
DA O
>: ]<
Ġjust ify
b uff
Ġuncert ain
ĠS IG
it he
ĠC e
W heel
è ¾
Ġsurviv ors
Ġspecial ist
Instance State
Port ug
ĠMor r
it k
(/ \
Ġchrom os
Ġstri king
l ived
Ġfl avor
ol ith
UR ATION
ĠB LA
Ġfiles ystem
}} )
Min utes
synt hesize
n Ã©e
draw er
Pac ific
ĠT ools
ĠM ull
Ġdis connect
Track s
w at
Edit able
if a
Ġg ithub
ic ast
20 9
ĠE ve
Al ways
Ġprotocol s
ĠGram my
Ġover ridden
ĠS uff
em e
Ġspect ra
Ġphil osopher
ĠT ir
:" -
test ng
Ġexam ined
IF ICATION
ĠR iv
Ġstd err
ch air
end points
ĠG amb
Ġpregn ant
Ġperform ers
Ġn ose
Ġlo d
dis connect
aps ible
P ressed
Gu ide
CF G
0 10
L os
ra co
ath y
lin ary
scal atest
ĠG and
" '
ĠEx it
ĠWork er
ĠG ael
Ġ Âł
Ġsc andal
ins pect
ĠLy on
Ġwh it
erv isor
ĠLeg acy
Ġvulner able
Field Type
oy e
ĠChar ter
Ä ĵ
as ures
ĠAg es
serial izer
Ġdiscontin ued
J ean
w el
ĠIn stant
MB OL
Ġp ix
Ġaccess or
AP H
ĠD uncan
Web API
on load
al an
Ġ" @
({ "
ĠF eder
hom epage
cf c
eg an
ĠM UST
Ġtra p
ĠCap itol
SPE C
ĠIn iti
it zer
p ersist
__ );
Ġtest Get
lin ing
ĠTest ing
ĠL arge
Ġpos it
B on
Ġs lots
V iol
ĠĠĠĠĠĠĠ Ċ
_ "
il is
Ġins cription
Can onical
P ier
ĠF le
P ersistence
Ġf ut
Ġdiv ide
s qu
ac cur
ĠInd eed
ĠP ink
all ing
ĠM ead
port al
round ed
imple ments
Conf lict
re ne
my Item
Ġmodel ing
Pro of
ĠMathem atics
ist on
Ġvolunte er
Ġfavour ite
t ips
Ġg aining
M oney
render ing
ĠHend erson
ĠCont ains
Ġcouple d
iev e
ĠSp ot
Ġdol or
Ġt u
sh aw
ĠHop kins
ĠCont est
i ov
dev tools
c orn
y alty
× Ĳ
18 34
ĠPROVID ED
ut y
ĠI PC
Ġbeat en
un wrap
string u
Aud it
ĠEd mund
Ġaffect s
et ri
Ġline up
ĠGib son
b lo
Ġevent ual
k ok
pro blem
v l
sp rite
De leg
top ology
Ġpack ets
Ġs word
get Content
ĠLe op
ĠĠĠĠĠĠĠĠĠĠĠĠĠĠĠĠĠĠĠĠĠĠĠĠĠĠĠĠĠĠĠĠĠĠĠĠĠĠĠĠĠĠĠĠĠĠĠĠĠĠĠĠĠĠĠĠĠĠĠĠĠĠĠĠ ĠĠĠĠĠĠĠĠĠĠĠĠĠĠĠĠĠĠĠĠĠĠĠĠĠĠĠĠĠĠĠĠĠĠĠĠĠĠĠĠĠĠĠĠĠĠĠĠĠĠĠĠĠĠĠĠĠĠĠĠĠĠĠĠ
um ing
B ay
coll ision
Ġh ass
Ġcomed ian
im eter
18 15
ber y
Ġcr ashed
fold ing
Ġment ions
INCL UDE
v tk
ĠT IME
Ġ' );
ry ing
W as
r iver
prof iler
Ġview ing
Ġde ce
'=> '
ĠP or
Ġde ps
olog ically
ĠAh mad
ĠT E
Ġind oor
ĠSc ene
h art
Ar thur
ĠDA MAGES
Ġshould er
ĠPh ase
V ictor
arri ers
EXT ENSION
Ġinject ed
Ġfrequ encies
Ø ´
ĠW ire
Ġhouse holder
Ġresid ing
BUT TON
P ick
åĲ į
Cover age
" <
Ġbur st
Ġlab eled
Count s
ĠFern ando
Stud ent
ĠLet ter
ĠViet namese
nd ication
urn ame
Ġwar fare
ri b
w r
re ng
ĠA ch
ĠAndrew s
rom ag
16 1
log y
ĠMar in
Ġrock et
RO UND
ĠINCL UDING
AAAA AAAA
Ġphys ically
ĠAssoci ate
L atin
j er
semb ler
Ġsh aped
ĠRol ling
b ins
ĠC lement
Se ed
Com puted
CH O
ĠRobert son
ct uary
66 6
Ġdo se
ĠSo ft
ĠCond ition
c annot
ĠY et
TE MP
ãģ «
plus plus
Mart in
Ġbi ology
w c
s andbox
er ver
Ġmark ing
ogn ito
Ġdemand ed
Scal ing
an za
ĠB oot
cre ator
b is
deg ree
Ġb eneath
ĠH ook
ĠD M
ĠEv angel
Ġco ords
con struction
In fl
++ ){
Ġemb ark
Tur k
rel ations
TOOL TIP
utr ition
ĠTechn ologies
Ġph on
avel ength
Ð°Ð ²
z t
AA A
Dig ital
ml ink
ĠMc Donald
un ed
A verage
ĠH ey
App s
Ġvis bl
r st
c ourt
address es
Service Client
inet ic
Ġinherit ance
ĠF ifth
ĠU FC
o que
ĠJenn ifer
Ġam big
Ġtoler ance
m essaging
ĠRem ember
ĠImp act
reg exp
Ġmin er
Ġip rot
ĠSH ALL
que z
et erm
Read able
........ ........
le ston
Ġra id
stat istics
g ang
m ie
t el
AL TER
Ġmain land
Ġtransl ator
G ar
G ed
Ġpre val
Ð°ÑĤ ÑĮ
Ġsomew here
Ġrev ival
omet own
ĠR ut
om ar
Ġl ying
Ġlik es
ĠPerson al
ĠStr ateg
Non User
Ġre dis
Cell s
ĠM T
Ġcount ed
Anim ator
BIN ARY
Ġ icons
Ġc mp
ax es
Ġterm inate
Ġrecru ited
ĠR outer
ĠNob el
h ra
Ġm eter
ins ide
ad in
Ġfe ud
dim ensions
oll ary
$ ('#
Access Token
Ġcommun ist
ĠE du
------------ ---
Re quires
Ġob sc
Ġn pm
ĠT S
bel ow
; :
it Ã©
Ġsk ipped
f el
TR IG
Ġkit chen
af a
ĠGo thic
Ġad mission
ĠT rip
Ġp ill
Ġd iagnostics
get Last
>& #
Camp aign
Ġrenew ed
ĠAd ventures
Ġg c
Ġfru str
ĠR anch
N Log
Ġbroadcast s
! ,
p ersistent
ĠBE GIN
ĠYan kees
Ġim aging
Ġunder went
Ġlob by
Ġt ension
od ia
full screen
ĠT oo
ĠManit oba
Ð° Ðº
ĠFilip ino
Prepar er
B asketball
Ï ī
ĠG ent
ĠGe ometry
quot a
OP TS
ĠInter ruptedException
:"- "`
B LE
bound ary
cer pt
ASC AR
ov ing
ĠH aven
ĠJ av
ĠZ ag
C zech
in ions
bound ed
lo ys
ab ar
St ock
}$ -
Ġcomb ining
Ġsurn ames
Ġsv g
s it
ĠM ongo
Ġcompr ising
Ġm im
oll ar
, &
P ain
x r
ĠProdu cer
S ock
event Name
Q String
g uest
ĠFellow ship
Walk er
5 50
ĠC anyon
Ġdes ktop
strict Equal
64 0
Ġcont rolling
16 3
erdin and
ĉĉ ĠĠ
jav ac
Ġrenown ed
Ġup stream
ä» ¥
Ġcon ferences
D eg
un al
Ġsp ir
ãĤ ¯
CI AL
ierarch ical
st or
Ġc ele
Ġ<!-- [
Ġbeet le
D N
Ġalloc ator
ar x
Ġf ract
Return Type
apid ata
P NG
Autow ired
m ul
ĠPop ular
L em
ĠR ush
Ġtheat rical
Ġf ame
ĠRev ision
number Of
xx xx
ĠTh an
ET HER
As sets
Ġsw ift
il ateral
Ġbal lot
ĠT ell
Info f
account s
ĠAv ailable
ĠA post
Ġb a
R W
ĠS PE
lo st
ĠF ace
Ġc rypto
get Child
ĠParalym pics
ĠAn imal
ĠIs le
udd y
Ġsurre nder
ĠH i
is abs
Ġd inner
ĠLeg islature
¦ Ĥ
cont rollers
ĠChel sea
B rien
Sh op
Ġoption ally
Ġexam ine
Ġmolec ules
uk u
izz le
ĠText ure
and le
Ġget Value
ĠCr iminal
Ġtx t
Ġdiagn osis
Ð ŀ
in ite
pe ek
oy a
Xml Element
M and
Ġr and
Ġcol ours
Ġenc aps
;-> <
Ġe ating
ĠGu ang
Ġan ymore
Comp et
PRE V
im ony
pe st
ĠÎ ±
Ġd ish
Al ive
ĠCam era
ĠExped ition
E th
Ġco ached
[...]
