{
  "version": "1.0",
  "truncation": null,
  "padding": null,
  "added_tokens": [
    {
      "id": 0,
      "content": "[UNK]",
      "single_word": false,
      "lstrip": false,
      "rstrip": false,
      "normalized": false,
      "special": true
    }
  ],
  "normalizer": null,
  "pre_tokenizer": {
    "type": "Sequence",
    "pretokenizers": [
      {
        "type": "Digits",
        "individual_digits": false
      },
      {
        "type": "ByteLevel",
        "add_prefix_space": false,
        "trim_offsets": true,
        "use_regex": true
      }
    ]
  },
  "post_processor": null,
  "decoder": null,
  "model": {
    "type": "BPE",
    "dropout": null,
    "unk_token": "[UNK]",
    "continuing_subword_prefix": null,
    "end_of_word_suffix": null,
    "fuse_unk": false,
    "byte_fallback": false,
    "vocab": {
      "[UNK]": 0,
      "!": 1,
      "\"": 2,
      "#": 3,
      "$": 4,
      "%": 5,
      "&": 6,
      "'": 7,
      "(": 8,
      ")": 9,
      "*": 10,
      "+": 11,
      ",": 12,
      "-": 13,
      ".": 14,
      "/": 15,
      "0": 16,
      "1": 17,
      "2": 18,
      "3": 19,
      "4": 20,
      "5": 21,
      "6": 22,
      "7": 23,
      "8": 24,
      "9": 25,
      ":": 26,
      ";": 27,
      "<": 28,
      "=": 29,
      ">": 30,
      "?": 31,
      "@": 32,
      "A": 33,
      "B": 34,
      "C": 35,
      "D": 36,
      "E": 37,
      "F": 38,
      "G": 39,
      "H": 40,
      "I": 41,
      "J": 42,
      "K": 43,
      "L": 44,
      "M": 45,
      "N": 46,
      "O": 47,
      "P": 48,
      "Q": 49,
      "R": 50,
      "S": 51,
      "T": 52,
      "U": 53,
      "V": 54,
      "W": 55,
      "X": 56,
      "Y": 57,
      "Z": 58,
      "[": 59,
      "\\": 60,
      "]": 61,
      "^": 62,
      "_": 63,
      "`": 64,
      "a": 65,
      "b": 66,
      "c": 67,
      "d": 68,
      "e": 69,
      "f": 70,
      "g": 71,
      "h": 72,
      "i": 73,
      "j": 74,
      "k": 75,
      "l": 76,
      "m": 77,
      "n": 78,
      "o": 79,
      "p": 80,
      "q": 81,
      "r": 82,
      "s": 83,
      "t": 84,
      "u": 85,
      "v": 86,
      "w": 87,
      "x": 88,
      "y": 89,
      "z": 90,
      "{": 91,
      "|": 92,
      "}": 93,
      "~": 94,
      "¡": 95,
      "¢": 96,
      "£": 97,
      "¤": 98,
      "¥": 99,
      "¦": 100,
      "§": 101,
      "¨": 102,
      "©": 103,
      "ª": 104,
      "«": 105,
      "¬": 106,
      "®": 107,
      "¯": 108,
      "°": 109,
      "±": 110,
      "²": 111,
      "³": 112,
      "´": 113,
      "µ": 114,
      "¶": 115,
      "·": 116,
      "¸": 117,
      "¹": 118,
      "º": 119,
      "»": 120,
      "¼": 121,
      "½": 122,
      "¾": 123,
      "¿": 124,
      "Â": 125,
      "Ã": 126,
      "Ä": 127,
      "Å": 128,
      "Æ": 129,
      "Ç": 130,
      "È": 131,
      "É": 132,
      "Ê": 133,
      "Ë": 134,
      "Ì": 135,
      "Í": 136,
      "Î": 137,
      "Ï": 138,
      "Ð": 139,
      "Ñ": 140,
      "Ò": 141,
      "Ó": 142,
      "Ô": 143,
      "Õ": 144,
      "Ö": 145,
      "×": 146,
      "Ø": 147,
      "Ù": 148,
      "Ú": 149,
      "Û": 150,
      "Ü": 151,
      "Ý": 152,
      "Þ": 153,
      "ß": 154,
      "à": 155,
      "á": 156,
      "â": 157,
      "ã": 158,
      "ä": 159,
      "å": 160,
      "æ": 161,
      "ç": 162,
      "è": 163,
      "é": 164,
      "ê": 165,
      "ë": 166,
      "ì": 167,
      "í": 168,
      "î": 169,
      "ï": 170,
      "ð": 171,
      "ò": 172,
      "ó": 173,
      "ô": 174,
      "ā": 175,
      "Ă": 176,
      "ă": 177,
      "Ą": 178,
      "ą": 179,
      "Ć": 180,
      "ć": 181,
      "Ĉ": 182,
      "ĉ": 183,
      "Ċ": 184,
      "ċ": 185,
      "Č": 186,
      "č": 187,
      "Ď": 188,
      "ď": 189,
      "Đ": 190,
      "đ": 191,
      "Ē": 192,
      "ē": 193,
      "Ĕ": 194,
      "ĕ": 195,
      "Ė": 196,
      "ė": 197,
      "Ę": 198,
      "ę": 199,
      "Ě": 200,
      "ě": 201,
      "Ĝ": 202,
      "ĝ": 203,
      "Ğ": 204,
      "ğ": 205,
      "Ġ": 206,
      "ġ": 207,
      "Ģ": 208,
      "ģ": 209,
      "Ĥ": 210,
      "ĥ": 211,
      "Ħ": 212,
      "ħ": 213,
      "Ĩ": 214,
      "ĩ": 215,
      "Ī": 216,
      "ī": 217,
      "Ĭ": 218,
      "ĭ": 219,
      "Į": 220,
      "į": 221,
      "İ": 222,
      "ı": 223,
      "Ĳ": 224,
      "ĳ": 225,
      "Ĵ": 226,
      "ĵ": 227,
      "Ķ": 228,
      "ķ": 229,
      "ĸ": 230,
      "Ĺ": 231,
      "ĺ": 232,
      "Ļ": 233,
      "ļ": 234,
      "Ľ": 235,
      "ľ": 236,
      "Ŀ": 237,
      "ŀ": 238,
      "Ł": 239,
      "ł": 240,
      "Ń": 241,
      "ĠĠ": 242,
      "ĠĠĠĠ": 243,
      "in": 244,
      "er": 245,
      "Ġt": 246,
      "on": 247,
      "Ġa": 248,
      "he": 249,
      "re": 250,
      "at": 251,
      "ĠĠĠ": 252,
      "st": 253,
      "or": 254,
      "en": 255,
      "ĠĠĠĠĠĠĠĠ": 256,
      "an": 257,
      "al": 258,
      "Ġthe": 259,
      "ar": 260,
      "le": 261,
      "it": 262,
      "Ġc": 263,
      "ion": 264,
      "ed": 265,
      "es": 266,
      "is": 267,
      "Ġs": 268,
      "Ġo": 269,
      "Ġf": 270,
      "ic": 271,
      "ro": 272,
      "ing": 273,
      "Ġw": 274,
      "as": 275,
      "Ġp": 276,
      "Ġin": 277,
      "et": 278,
      "nd": 279,
      "Ġb": 280,
      "ct": 281,
      "am": 282,
      "Ġof": 283,
      "ĠĠĠĠĠĠĠ": 284,
      "ent": 285,
      "de": 286,
      "ou": 287,
      "Ġm": 288,
      "Ġ=": 289,
      "il": 290,
      "el": 291,
      "Ġre": 292,
      "Ġand": 293,
      "Ġn": 294,
      "Ġto": 295,
      "ĉĉ": 296,
      "Ġ(": 297,
      "om": 298,
      "ĠS": 299,
      "ur": 300,
      ");": 301,
      "Ġh": 302,
      "ol": 303,
      "ce": 304,
      "Ġd": 305,
      "Ġ<": 306,
      "ĠC": 307,
      "ut": 308,
      "id": 309,
      "Ġ{": 310,
      "ation": 311,
      "im": 312,
      "ĠT": 313,
      "=\"": 314,
      "ĠA": 315,
      "se": 316,
      "--": 317,
      "ig": 318,
      "Ġth": 319,
      "ad": 320,
      "th": 321,
      "lo": 322,
      "iv": 323,
      "ag": 324,
      "if": 325,
      "ex": 326,
      "ch": 327,
      "Ġ*": 328,
      "ĠĠĠĠĠĠĠĠĠĠĠ": 329,
      "ul": 330,
      "//": 331,
      "un": 332,
      "</": 333,
      "pe": 334,
      "ot": 335,
      "em": 336,
      "ra": 337,
      "Ġv": 338,
      "ĠM": 339,
      "ate": 340,
      "ue": 341,
      "Ġl": 342,
      "ers": 343,
      "um": 344,
      "ist": 345,
      "ck": 346,
      "us": 347,
      "pt": 348,
      "Ġst": 349,
      "ĠI": 350,
      "čĊ": 351,
      "ass": 352,
      "ab": 353,
      "Ġ}": 354,
      "ame": 355,
      "ĠP": 356,
      "Ġ\"": 357,
      "Ġg": 358,
      "Ġfor": 359,
      "Ġis": 360,
      "ĠB": 361,
      "tr": 362,
      "ter": 363,
      "ir": 364,
      "ay": 365,
      "ction": 366,
      "ly": 367,
      "ĠR": 368,
      "Ġon": 369,
      "ith": 370,
      "ĠD": 371,
      "Ġcon": 372,
      "\">": 373,
      "ub": 374,
      "ew": 375,
      "20": 376,
      "()": 377,
      "and": 378,
      "ĠĠĠĠĠĠĠĠĠĠĠĠĠĠĠĠ": 379,
      "ĠĠĠĠĠ": 380,
      "ĠH": 381,
      "**": 382,
      "ht": 383,
      "od": 384,
      "lass": 385,
      "19": 386,
      "Ġbe": 387,
      "ort": 388,
      "ĠL": 389,
      "urn": 390,
      "ri": 391,
      "Ġe": 392,
      "ver": 393,
      "ow": 394,
      "ĠF": 395,
      "Ġas": 396,
      "res": 397,
      "age": 398,
      "ap": 399,
      "ĠN": 400,
      "ess": 401,
      "up": 402,
      "av": 403,
      "end": 404,
      "op": 405,
      "Ġde": 406,
      "ode": 407,
      "ĠG": 408,
      "nt": 409,
      "turn": 410,
      "est": 411,
      "li": 412,
      "our": 413,
      "Ġwas": 414,
      "ect": 415,
      "ĠE": 416,
      "Ġ$": 417,
      "qu": 418,
      "rom": 419,
      "----": 420,
      "ype": 421,
      "Ġwith": 422,
      "ext": 423,
      "ĠW": 424,
      "âĢ": 425,
      "==": 426,
      "Ġal": 427,
      "ĠThe": 428,
      "sp": 429,
      "Ġ'": 430,
      "ine": 431,
      "ment": 432,
      "con": 433,
      "art": 434,
      "ain": 435,
      "get": 436,
      "Ġan": 437,
      "Ġby": 438,
      "lic": 439,
      "Ġif": 440,
      "able": 441,
      "Ġpro": 442,
      "iz": 443,
      "ity": 444,
      "port": 445,
      "Ġwh": 446,
      "ile": 447,
      "ult": 448,
      "ĠO": 449,
      "os": 450,
      "all": 451,
      "Ġthat": 452,
      "Ġclass": 453,
      "ke": 454,
      "ĠĠĠĠĠĠĠĠĠĠĠĠĠĠĠ": 455,
      "ore": 456,
      "ac": 457,
      "ert": 458,
      "Ġcom": 459,
      "ack": 460,
      "oc": 461,
      "Ġthis": 462,
      "Ġor": 463,
      "ĠJ": 464,
      "Ġat": 465,
      "..": 466,
      "ption": 467,
      "Ġ//": 468,
      "Ġit": 469,
      "In": 470,
      "int": 471,
      "Ġreturn": 472,
      "ere": 473,
      "ans": 474,
      "00": 475,
      "->": 476,
      "ang": 477,
      "ies": 478,
      "Ġfrom": 479,
      "Re": 480,
      "ber": 481,
      "ata": 482,
      "ath": 483,
      "ial": 484,
      "ary": 485,
      "ight": 486,
      "str": 487,
      "ĠU": 488,
      "Ġr": 489,
      "Ġex": 490,
      "alue": 491,
      "ive": 492,
      "::": 493,
      "ure": 494,
      "Ġse": 495,
      "orm": 496,
      "og": 497,
      "ant": 498,
      "ff": 499,
      "ip": 500,
      "'s": 501,
      "Ġ@": 502,
      "ject": 503,
      "ase": 504,
      "Ġhe": 505,
      "ĉĉĉĉ": 506,
      "ast": 507,
      "ill": 508,
      "ord": 509,
      "unction": 510,
      "ld": 511,
      "ĠĊ": 512,
      "Con": 513,
      "ire": 514,
      "\",": 515,
      "ated": 516,
      "ard": 517,
      "Ġ</": 518,
      "),": 519,
      "com": 520,
      "und": 521,
      "are": 522,
      "Ġ\\": 523,
      "ib": 524,
      "Ġch": 525,
      "aram": 526,
      "pl": 527,
      "ov": 528,
      "ublic": 529,
      "ia": 530,
      "Ġ&": 531,
      "Ġ-": 532,
      "ug": 533,
      "ref": 534,
      "ĠK": 535,
      "St": 536,
      "ign": 537,
      "Ġy": 538,
      "ace": 539,
      "ource": 540,
      "out": 541,
      "Ġare": 542,
      "Ġ|": 543,
      "(\"": 544,
      "Ġtr": 545,
      "../": 546,
      "();": 547,
      "to": 548,
      "Ġ/": 549,
      "pro": 550,
      "ime": 551,
      "cl": 552,
      "ition": 553,
      "ind": 554,
      "Ġlo": 555,
      "Ġnew": 556,
      "ice": 557,
      "ost": 558,
      "Ex": 559,
      "ong": 560,
      "ĠV": 561,
      ").": 562,
      "ud": 563,
      "Ġ[": 564,
      "erv": 565,
      "per": 566,
      "âĢĵ": 567,
      "ph": 568,
      "Ġle": 569,
      "Ġ*/": 570,
      "ull": 571,
      "set": 572,
      "act": 573,
      "ĠIn": 574,
      "Ġpl": 575,
      "elf": 576,
      "ak": 577,
      "put": 578,
      "201": 579,
      "--------": 580,
      "ild": 581,
      "ss": 582,
      "ich": 583,
      "tring": 584,
      "Ġ+": 585,
      "',": 586,
      "ple": 587,
      "Ġnot": 588,
      "ust": 589,
      "ork": 590,
      "The": 591,
      "Ġsh": 592,
      "ok": 593,
      "fer": 594,
      "enc": 595,
      "ml": 596,
      "Ġar": 597,
      "ory": 598,
      "****": 599,
      "ther": 600,
      "cri": 601,
      "ĠSt": 602,
      "ite": 603,
      "ian": 604,
      "dd": 605,
      "err": 606,
      "essage": 607,
      "vent": 608,
      "cc": 609,
      "ize": 610,
      "ell": 611,
      "Ġcont": 612,
      "bject": 613,
      "ge": 614,
      "Ġj": 615,
      "form": 616,
      "sh": 617,
      "ance": 618,
      "row": 619,
      "so": 620,
      "Ġname": 621,
      "eg": 622,
      "que": 623,
      "ef": 624,
      "ress": 625,
      "Ġ:": 626,
      "div": 627,
      "Ġfunction": 628,
      "span": 629,
      "import": 630,
      "Ġ.": 631,
      "></": 632,
      "Ġus": 633,
      "ens": 634,
      "ount": 635,
      "Ġres": 636,
      "ĠĠĠĠĠĠĠĠĠĠĠĠĠĠĠĠĠĠĠ": 637,
      "this": 638,
      "Ġpublic": 639,
      "ĉĉĉ": 640,
      "one": 641,
      "iel": 642,
      "('": 643,
      "====": 644,
      "200": 645,
      "Ġstr": 646,
      "ical": 647,
      "ear": 648,
      "ish": 649,
      "low": 650,
      "ĠCh": 651,
      "ave": 652,
      "ĠĠĠĠĠĠĠĠĠ": 653,
      "Ġhis": 654,
      "ec": 655,
      "ink": 656,
      "ide": 657,
      "tern": 658,
      "Name": 659,
      "Ġun": 660,
      "che": 661,
      "te": 662,
      "ield": 663,
      "oid": 664,
      "Ġ||": 665,
      "text": 666,
      "pp": 667,
      "Ġ_": 668,
      "Pro": 669,
      "><": 670,
      "18": 671,
      "ail": 672,
      "Ġvar": 673,
      "param": 674,
      "name": 675,
      "ence": 676,
      "ach": 677,
      "ll": 678,
      "use": 679,
      "du": 680,
      "ft": 681,
      "ray": 682,
      "))": 683,
      "ĠTh": 684,
      "../../": 685,
      "Type": 686,
      "inal": 687,
      "ER": 688,
      "own": 689,
      "return": 690,
      "Ġk": 691,
      "ener": 692,
      "ep": 693,
      "Ġdef": 694,
      "irst": 695,
      "ool": 696,
      "iew": 697,
      "eth": 698,
      "mer": 699,
      "Ġwhich": 700,
      "ould": 701,
      "ator": 702,
      "fig": 703,
      "ations": 704,
      "Ġwe": 705,
      "cal": 706,
      "String": 707,
      "Ġhas": 708,
      "ax": 709,
      "lect": 710,
      "ON": 711,
      "Ġint": 712,
      "pr": 713,
      "key": 714,
      "ree": 715,
      "Ġ#": 716,
      "pon": 717,
      "hen": 718,
      "tp": 719,
      "html": 720,
      "eng": 721,
      "ry": 722,
      "les": 723,
      "IN": 724,
      "rit": 725,
      "roup": 726,
      "ound": 727,
      "ob": 728,
      "Ġset": 729,
      "Ġ!": 730,
      "quest": 731,
      "ous": 732,
      "alse": 733,
      "Id": 734,
      "pec": 735,
      "lement": 736,
      "ict": 737,
      "ev": 738,
      "Ġtype": 739,
      "ne": 740,
      "ual": 741,
      "Ġhref": 742,
      "ix": 743,
      "Ġwere": 744,
      "message": 745,
      "yst": 746,
      "Ġcan": 747,
      "ery": 748,
      "io": 749,
      "Ġpr": 750,
      "source": 751,
      "Ġget": 752,
      "10": 753,
      "ames": 754,
      "ark": 755,
      "atch": 756,
      "over": 757,
      "Ġvalue": 758,
      "erm": 759,
      "col": 760,
      "atic": 761,
      "Ġalso": 762,
      "led": 763,
      "ache": 764,
      "ents": 765,
      "code": 766,
      "eb": 767,
      "ĠUn": 768,
      "fo": 769,
      "ates": 770,
      "type": 771,
      "trans": 772,
      "cre": 773,
      "Ġro": 774,
      "ystem": 775,
      "ng": 776,
      "Res": 777,
      "Ġbo": 778,
      "lock": 779,
      "RE": 780,
      "ings": 781,
      "Ġ=>": 782,
      "Com": 783,
      "td": 784,
      "oint": 785,
      "old": 786,
      "arg": 787,
      "Ġab": 788,
      "ember": 789,
      "uild": 790,
      "ault": 791,
      "ception": 792,
      "pert": 793,
      "ethod": 794,
      "lation": 795,
      "/>": 796,
      "Ġhave": 797,
      "Ġout": 798,
      "def": 799,
      "ser": 800,
      "List": 801,
      "Ġ==": 802,
      "bo": 803,
      "Ġself": 804,
      "ĠY": 805,
      "ont": 806,
      "fter": 807,
      "Ġconst": 808,
      "Ġcol": 809,
      "Ġel": 810,
      "ey": 811,
      "Ġcomp": 812,
      "ĠHe": 813,
      "add": 814,
      "ST": 815,
      "Ġplay": 816,
      "__": 817,
      "Ch": 818,
      "Ġnull": 819,
      "uct": 820,
      "class": 821,
      "ome": 822,
      "##": 823,
      "odel": 824,
      "cript": 825,
      "iss": 826,
      "\"/>": 827,
      "umber": 828,
      "Ġfirst": 829,
      "Ġim": 830,
      "ater": 831,
      "Ġup": 832,
      "ake": 833,
      "Ġvoid": 834,
      "ions": 835,
      "urre": 836,
      "app": 837,
      "Ġbut": 838,
      "pect": 839,
      "ute": 840,
      "Ġpart": 841,
      "Ġass": 842,
      "val": 843,
      "ĠIt": 844,
      "Ġdis": 845,
      "ton": 846,
      "ors": 847,
      "Ġdo": 848,
      "Ġerr": 849,
      "aw": 850,
      "199": 851,
      "Ar": 852,
      "ick": 853,
      "Ġone": 854,
      "amp": 855,
      "nc": 856,
      "Ġi": 857,
      "ange": 858,
      "AT": 859,
      "wo": 860,
      "ĠâĢĵ": 861,
      "var": 862,
      "{\\": 863,
      "));": 864,
      "Ġall": 865,
      "Ġend": 866,
      "ann": 867,
      "ics": 868,
      "qual": 869,
      "Ġdata": 870,
      "ptions": 871,
      "son": 872,
      "string": 873,
      "12": 874,
      "ĠAr": 875,
      "ences": 876,
      "ervice": 877,
      "://": 878,
      "ational": 879,
      "ader": 880,
      "********": 881,
      "ie": 882,
      "Ġhad": 883,
      "ock": 884,
      "16": 885,
      "Ġdes": 886,
      "Ġline": 887,
      "Ġsu": 888,
      "vel": 889,
      "ersion": 890,
      "Ġits": 891,
      "itle": 892,
      "ivate": 893,
      "hed": 894,
      "Ġ`": 895,
      "round": 896,
      "OR": 897,
      "Ġid": 898,
      "sum": 899,
      "any": 900,
      "cont": 901,
      "----------------": 902,
      "back": 903,
      "ms": 904,
      "cation": 905,
      "Ġte": 906,
      "ID": 907,
      "translation": 908,
      "Ġadd": 909,
      "Ġtheir": 910,
      "ask": 911,
      "Ġwho": 912,
      "LE": 913,
      "rr": 914,
      "ument": 915,
      "ternal": 916,
      "igh": 917,
      "ied": 918,
      "):": 919,
      "ĠĠĠĠĠĠĠĠĠĠĠĠĠĠĠĠĠĠĠĠĠĠĠ": 920,
      "Ġfalse": 921,
      "arch": 922,
      "co": 923,
      "Ġwill": 924,
      "yle": 925,
      "yp": 926,
      "ength": 927,
      "trib": 928,
      "line": 929,
      "Ġpre": 930,
      "Ġ>": 931,
      "////": 932,
      "âĢĻ": 933,
      "Ġover": 934,
      "\");": 935,
      "ma": 936,
      "Ġtrue": 937,
      "ove": 938,
      "Ġ)": 939,
      "urrent": 940,
      "dex": 941,
      "abel": 942,
      "Cont": 943,
      "lection": 944,
      "Value": 945,
      "\"><": 946,
      "we": 947,
      "data": 948,
      "land": 949,
      "Ġyou": 950,
      "Data": 951,
      "Ġorg": 952,
      "Ġelse": 953,
      "http": 954,
      "AR": 955,
      "anc": 956,
      "read": 957,
      "Ġcomm": 958,
      "ific": 959,
      "Ġper": 960,
      "Ġag": 961,
      "ash": 962,
      "Ġ/**": 963,
      "ited": 964,
      "Ġstring": 965,
      "Refer": 966,
      "ade": 967,
      "ican": 968,
      "orn": 969,
      "Th": 970,
      "Ġund": 971,
      "Ġfil": 972,
      "pos": 973,
      "self": 974,
      "irect": 975,
      "ude": 976,
      "tem": 977,
      "Ġincl": 978,
      "ule": 979,
      "Ġcre": 980,
      "Ġwork": 981,
      "Ġresult": 982,
      "Ġtime": 983,
      "ĠCom": 984,
      "ues": 985,
      "AL": 986,
      "Ġwhen": 987,
      "cess": 988,
      "Se": 989,
      "file": 990,
      "value": 991,
      "ccess": 992,
      "cent": 993,
      "Ġother": 994,
      "ative": 995,
      "anag": 996,
      "cond": 997,
      "lient": 998,
      "ĠĠĠĠĠĠĠĠĠĠĠĠĠ": 999,
      "EN": 1000,
      "Ġ&&": 1001,
      "ople": 1002,
      "org": 1003,
      "Set": 1004,
      "\")": 1005,
      "ole": 1006,
      "To": 1007,
      "Col": 1008,
      "of": 1009,
      "ava": 1010,
      "ished": 1011,
      "},": 1012,
      "Ġap": 1013,
      "._": 1014,
      "idth": 1015,
      "Ġher": 1016,
      "perty": 1017,
      "Ġtest": 1018,
      "Ġsup": 1019,
      "];": 1020,
      "ased": 1021,
      "Ġsp": 1022,
      "ined": 1023,
      "Err": 1024,
      "gr": 1025,
      "ins": 1026,
      "Ġspec": 1027,
      "Exception": 1028,
      "15": 1029,
      "quire": 1030,
      "ern": 1031,
      "px": 1032,
      "raph": 1033,
      "Ġ///": 1034,
      "Ġtwo": 1035,
      "Ġinst": 1036,
      "ise": 1037,
      "Ġbeen": 1038,
      "Object": 1039,
      "ĠThis": 1040,
      "Ġen": 1041,
      "ĠĠĠĠĠĠĠĠĠĠĠĠĠĠĠĠĠĠĠĠĠĠĠĠĠĠĠĠĠĠĠĠ": 1042,
      "Ġoff": 1043,
      "ely": 1044,
      "Ġ!=": 1045,
      "uff": 1046,
      "Ġyear": 1047,
      "ym": 1048,
      "Ġval": 1049,
      "========": 1050,
      "198": 1051,
      "ĠĠĠĠĠĠ": 1052,
      "17": 1053,
      "ward": 1054,
      "Ġinter": 1055,
      "uth": 1056,
      "ĠSe": 1057,
      "Ġtra": 1058,
      "SS": 1059,
      "Ġsub": 1060,
      "mary": 1061,
      "arget": 1062,
      "ons": 1063,
      "32": 1064,
      "ĠNew": 1065,
      "Ġreg": 1066,
      "($": 1067,
      "Ġad": 1068,
      "der": 1069,
      "Ġfinal": 1070,
      "test": 1071,
      "_{": 1072,
      "pre": 1073,
      "atus": 1074,
      "date": 1075,
      "Ġact": 1076,
      "right": 1077,
      "References": 1078,
      "ier": 1079,
      "eople": 1080,
      "Ġcl": 1081,
      "Test": 1082,
      "ivers": 1083,
      "ĠPro": 1084,
      "oot": 1085,
      "nb": 1086,
      "Ġafter": 1087,
      "ys": 1088,
      "work": 1089,
      "Ġapp": 1090,
      "ream": 1091,
      "Ġinto": 1092,
      "min": 1093,
      "Ġstatic": 1094,
      "ody": 1095,
      "uring": 1096,
      "ages": 1097,
      "Ġne": 1098,
      "its": 1099,
      "Ġfile": 1100,
      "Ġmore": 1101,
      "Ġrec": 1102,
      "Get": 1103,
      "ugh": 1104,
      "ĠString": 1105,
      "Ġthey": 1106,
      "Ġme": 1107,
      "At": 1108,
      "ĠAl": 1109,
      "Ġuse": 1110,
      "Ġlist": 1111,
      "wn": 1112,
      "ating": 1113,
      "way": 1114,
      "ample": 1115,
      "Ġso": 1116,
      "().": 1117,
      "Error": 1118,
      "ose": 1119,
      "let": 1120,
      "ren": 1121,
      "')": 1122,
      "11": 1123,
      "DE": 1124,
      "til": 1125,
      "Ġform": 1126,
      "Ġused": 1127,
      "Ġsc": 1128,
      "Ġra": 1129,
      "nbsp": 1130,
      "Ġonly": 1131,
      "ve": 1132,
      "ĠâĢ": 1133,
      "ision": 1134,
      "ular": 1135,
      "CT": 1136,
      "ank": 1137,
      "Key": 1138,
      "ĠCon": 1139,
      "arent": 1140,
      "merican": 1141,
      "Ġ%": 1142,
      "());": 1143,
      "vid": 1144,
      "but": 1145,
      "Un": 1146,
      "Ġprivate": 1147,
      "Tr": 1148,
      "new": 1149,
      "Ġpos": 1150,
      "Ġno": 1151,
      "Ġtrans": 1152,
      "the": 1153,
      "ature": 1154,
      "par": 1155,
      "],": 1156,
      "ĠSh": 1157,
      "197": 1158,
      "view": 1159,
      "summary": 1160,
      "size": 1161,
      "25": 1162,
      "umn": 1163,
      "SE": 1164,
      "ball": 1165,
      "Ġchar": 1166,
      "Qu": 1167,
      "IT": 1168,
      "Ġx": 1169,
      "oug": 1170,
      "ps": 1171,
      "function": 1172,
      "ble": 1173,
      "ious": 1174,
      "press": 1175,
      "location": 1176,
      "');": 1177,
      "resent": 1178,
      "ists": 1179,
      "Ġco": 1180,
      "14": 1181,
      "Ġrem": 1182,
      "az": 1183,
      "Ġ--": 1184,
      "File": 1185,
      "ollow": 1186,
      "log": 1187,
      "heck": 1188,
      "Ġback": 1189,
      "play": 1190,
      "Ind": 1191,
      "ca": 1192,
      "item": 1193,
      "ik": 1194,
      "ru": 1195,
      "red": 1196,
      "Ġobject": 1197,
      "Ġext": 1198,
      "Ġevent": 1199,
      "Ġunder": 1200,
      "eter": 1201,
      "orld": 1202,
      "ts": 1203,
      "bar": 1204,
      "Ġkey": 1205,
      "Ġem": 1206,
      "Ġ$\\": 1207,
      "rame": 1208,
      "ler": 1209,
      "Ġnumber": 1210,
      "struct": 1211,
      "rc": 1212,
      "En": 1213,
      "Class": 1214,
      "Event": 1215,
      "lay": 1216,
      "roll": 1217,
      "chool": 1218,
      "He": 1219,
      "ract": 1220,
      "pace": 1221,
      ".</": 1222,
      "br": 1223,
      "arn": 1224,
      "eta": 1225,
      "Ġany": 1226,
      "olog": 1227,
      "util": 1228,
      "ĠEx": 1229,
      "Ġent": 1230,
      "ME": 1231,
      "13": 1232,
      "Ġser": 1233,
      "Ġgo": 1234,
      "ince": 1235,
      "ities": 1236,
      "link": 1237,
      "pen": 1238,
      "Ġcase": 1239,
      "math": 1240,
      "\";": 1241,
      "Im": 1242,
      "url": 1243,
      "ĠRe": 1244,
      "face": 1245,
      "not": 1246,
      "ĠAn": 1247,
      "ason": 1248,
      "Ġbet": 1249,
      "att": 1250,
      "ah": 1251,
      "by": 1252,
      "ily": 1253,
      "list": 1254,
      "['": 1255,
      "ures": 1256,
      "indow": 1257,
      "AN": 1258,
      "Ġpol": 1259,
      "ui": 1260,
      "Ġinclud": 1261,
      "ices": 1262,
      "Ġqu": 1263,
      "ized": 1264,
      "be": 1265,
      "Ġshe": 1266,
      "unc": 1267,
      "ered": 1268,
      "ĉĉĉĉĉ": 1269,
      "ible": 1270,
      "(),": 1271,
      "air": 1272,
      "22": 1273,
      "index": 1274,
      "ines": 1275,
      "als": 1276,
      "Ġwhere": 1277,
      "ocument": 1278,
      "ement": 1279,
      "load": 1280,
      "for": 1281,
      "By": 1282,
      "ĠZ": 1283,
      "Ġthen": 1284,
      "public": 1285,
      "action": 1286,
      "}}": 1287,
      "inter": 1288,
      "196": 1289,
      "ww": 1290,
      "100": 1291,
      "UL": 1292,
      "Ġcall": 1293,
      "roid": 1294,
      "/**": 1295,
      "Ġthere": 1296,
      "21": 1297,
      "CO": 1298,
      "Ġlink": 1299,
      "fore": 1300,
      "rol": 1301,
      "time": 1302,
      "oun": 1303,
      "Ġ);": 1304,
      "mon": 1305,
      "ĠCol": 1306,
      "ouse": 1307,
      "Ġpeople": 1308,
      "oci": 1309,
      "inn": 1310,
      "Ġstart": 1311,
      "odule": 1312,
      "ments": 1313,
      "/*": 1314,
      "go": 1315,
      "Ġfe": 1316,
      "field": 1317,
      "Element": 1318,
      "iver": 1319,
      "const": 1320,
      "Ġabout": 1321,
      "istr": 1322,
      "js": 1323,
      "ger": 1324,
      "ween": 1325,
      "order": 1326,
      "']": 1327,
      "oh": 1328,
      "ces": 1329,
      "Ġfollow": 1330,
      "Ġarg": 1331,
      "\":": 1332,
      "rite": 1333,
      "ott": 1334,
      "ify": 1335,
      "Sh": 1336,
      "ĠDe": 1337,
      "ars": 1338,
      "30": 1339,
      "Node": 1340,
      "Ã©": 1341,
      "Ġ/*": 1342,
      "View": 1343,
      "Ġob": 1344,
      "Ġprodu": 1345,
      "ĠLe": 1346,
      "Ġoper": 1347,
      "ury": 1348,
      "path": 1349,
      "me": 1350,
      "Ġwould": 1351,
      "ground": 1352,
      "Ġac": 1353,
      "Ġmethod": 1354,
      "rough": 1355,
      "Ġkn": 1356,
      "On": 1357,
      "iversity": 1358,
      "reg": 1359,
      "cription": 1360,
      "my": 1361,
      "sub": 1362,
      "try": 1363,
      "uffer": 1364,
      "mp": 1365,
      "Time": 1366,
      "dis": 1367,
      "Ġmay": 1368,
      "ets": 1369,
      "Ġ?": 1370,
      "pend": 1371,
      "ponse": 1372,
      "apt": 1373,
      "outh": 1374,
      "ution": 1375,
      "lish": 1376,
      "length": 1377,
      "void": 1378,
      "yn": 1379,
      "\"></": 1380,
      "ĠĠĠĠĊ": 1381,
      "ified": 1382,
      "ta": 1383,
      "Ġfound": 1384,
      "left": 1385,
      "ship": 1386,
      "ĠInd": 1387,
      "igned": 1388,
      "ttp": 1389,
      "ĠAs": 1390,
      "Info": 1391,
      "Ġassert": 1392,
      "RO": 1393,
      "Request": 1394,
      "ession": 1395,
      "Path": 1396,
      "olean": 1397,
      "ven": 1398,
      "man": 1399,
      "anager": 1400,
      "Ġed": 1401,
      "reak": 1402,
      "Ġgener": 1403,
      "Ġrel": 1404,
      "ister": 1405,
      "Ġrun": 1406,
      "Ġfield": 1407,
      "ility": 1408,
      "Ġthan": 1409,
      "An": 1410,
      "ale": 1411,
      "Not": 1412,
      "Ġtitle": 1413,
      "ride": 1414,
      "ports": 1415,
      "nav": 1416,
      "Ġthrow": 1417,
      "script": 1418,
      "ric": 1419,
      "Index": 1420,
      "ush": 1421,
      "50": 1422,
      "uration": 1423,
      "aj": 1424,
      "PE": 1425,
      "Config": 1426,
      "lang": 1427,
      "Ġ/>": 1428,
      "md": 1429,
      "orth": 1430,
      "ponent": 1431,
      "color": 1432,
      "top": 1433,
      "pack": 1434,
      "Ġerror": 1435,
      "Ġsome": 1436,
      "ient": 1437,
      "opy": 1438,
      "sc": 1439,
      "Ġgroup": 1440,
      "Param": 1441,
      "Text": 1442,
      "ĠAmerican": 1443,
      "Def": 1444,
      "mand": 1445,
      "ainer": 1446,
      "':": 1447,
      "Ġbetween": 1448,
      "ced": 1449,
      "cept": 1450,
      "AC": 1451,
      "Ġcal": 1452,
      "lob": 1453,
      "Ġarray": 1454,
      ".\"": 1455,
      "itial": 1456,
      "Ġinv": 1457,
      "Ġcurrent": 1458,
      "Equal": 1459,
      "af": 1460,
      "Ġparam": 1461,
      "label": 1462,
      "Array": 1463,
      "ife": 1464,
      "Field": 1465,
      "())": 1466,
      "64": 1467,
      "Int": 1468,
      "Ġstate": 1469,
      "Add": 1470,
      "ION": 1471,
      "Ġcent": 1472,
      "194": 1473,
      "itt": 1474,
      "Ġcons": 1475,
      "Map": 1476,
      "};": 1477,
      "].": 1478,
      "ident": 1479,
      "TE": 1480,
      "Ġ(!": 1481,
      "Ġagain": 1482,
      "Âł": 1483,
      "Ġ},": 1484,
      "table": 1485,
      "amespace": 1486,
      "ense": 1487,
      "fl": 1488,
      "Ġ:=": 1489,
      "Context": 1490,
      "clude": 1491,
      "tribute": 1492,
      "group": 1493,
      "As": 1494,
      "Ġshould": 1495,
      "TR": 1496,
      "bers": 1497,
      "overn": 1498,
      "!--": 1499,
      "PI": 1500,
      "rap": 1501,
      "Ġdirect": 1502,
      "other": 1503,
      "Ġmin": 1504,
      "Ġest": 1505,
      "user": 1506,
      "ron": 1507,
      "ared": 1508,
      "Ġthrough": 1509,
      "Ġph": 1510,
      "api": 1511,
      "stance": 1512,
      "State": 1513,
      "her": 1514,
      "ike": 1515,
      "Ġmost": 1516,
      "Ġstud": 1517,
      "erson": 1518,
      "24": 1519,
      "Service": 1520,
      "Al": 1521,
      "Ġlong": 1522,
      "Ġbuild": 1523,
      "Ġsuch": 1524,
      "000": 1525,
      "ek": 1526,
      "ough": 1527,
      "Ġ});": 1528,
      "Ġhim": 1529,
      "Ġwhile": 1530,
      "Ġ===": 1531,
      "Ġrequest": 1532,
      "Ġdif": 1533,
      "=\"../../": 1534,
      "ond": 1535,
      "Ġrep": 1536,
      "``": 1537,
      "With": 1538,
      "Ġserv": 1539,
      "rem": 1540,
      "Item": 1541,
      "ally": 1542,
      "Ġam": 1543,
      "ĠX": 1544,
      "Ġatt": 1545,
      "itor": 1546,
      "ected": 1547,
      "LA": 1548,
      "config": 1549,
      "cle": 1550,
      "****************": 1551,
      "Ġsecond": 1552,
      "Ġresp": 1553,
      "ogle": 1554,
      "ĠTr": 1555,
      "Ġshow": 1556,
      "^{": 1557,
      "med": 1558,
      "ĠUnited": 1559,
      "Code": 1560,
      "Ġteam": 1561,
      "////////": 1562,
      "ived": 1563,
      "ization": 1564,
      "ants": 1565,
      "istory": 1566,
      "';": 1567,
      "External": 1568,
      "ains": 1569,
      "Ġhand": 1570,
      "Over": 1571,
      "Ġduring": 1572,
      "apache": 1573,
      "ector": 1574,
      "imes": 1575,
      "Ġrele": 1576,
      "pty": 1577,
      "assert": 1578,
      "ĠFor": 1579,
      "Ġdr": 1580,
      "Ġfl": 1581,
      "Ġwrit": 1582,
      "ĠUniversity": 1583,
      "ĠĠĠĠĠĠĠĠĠĠĠĠĠĠĠĠĠĠĠĠĠĠĠĠĠĠĠ": 1584,
      "egin": 1585,
      "Ġbefore": 1586,
      "Ġlinks": 1587,
      "ilter": 1588,
      "Ġsize": 1589,
      "quot": 1590,
      "raw": 1591,
      "Ġyears": 1592,
      "ootball": 1593,
      "Ġdefault": 1594,
      "Ġpass": 1595,
      "Form": 1596,
      "For": 1597,
      "Ġsing": 1598,
      "ypes": 1599,
      "Ġhigh": 1600,
      "rop": 1601,
      "}\\": 1602,
      "Ġelement": 1603,
      "ats": 1604,
      "\".": 1605,
      "ood": 1606,
      "De": 1607,
      "ĠIf": 1608,
      "Or": 1609,
      "Ġgr": 1610,
      "ook": 1611,
      "ĠQ": 1612,
      "word": 1613,
      "Size": 1614,
      "ĠFr": 1615,
      "System": 1616,
      "=\"+": 1617,
      "23": 1618,
      "uf": 1619,
      "'t": 1620,
      "Ġrequire": 1621,
      "ĠIs": 1622,
      "Ġacc": 1623,
      "ync": 1624,
      "Ġexpect": 1625,
      "Ġnil": 1626,
      "iter": 1627,
      "}$": 1628,
      "tt": 1629,
      "define": 1630,
      "lished": 1631,
      "++": 1632,
      "iven": 1633,
      "Ġthem": 1634,
      "eters": 1635,
      "ency": 1636,
      "map": 1637,
      "\"\"": 1638,
      "valid": 1639,
      "true": 1640,
      "ina": 1641,
      "iving": 1642,
      "Hand": 1643,
      "UR": 1644,
      "des": 1645,
      "input": 1646,
      "result": 1647,
      "amily": 1648,
      "off": 1649,
      "Des": 1650,
      "Ġmem": 1651,
      "node": 1652,
      "lected": 1653,
      "eturn": 1654,
      "gram": 1655,
      "ful": 1656,
      "ten": 1657,
      "usic": 1658,
      "Ġart": 1659,
      "ateg": 1660,
      "uthor": 1661,
      "Ġusing": 1662,
      "Ġcomple": 1663,
      "uss": 1664,
      "mall": 1665,
      "plate": 1666,
      "lose": 1667,
      "Ġexp": 1668,
      "amed": 1669,
      "IC": 1670,
      "ĠSc": 1671,
      "object": 1672,
      "irt": 1673,
      "abled": 1674,
      "Ġrecord": 1675,
      "create": 1676,
      "[]": 1677,
      "vert": 1678,
      "ĠOn": 1679,
      "Ġread": 1680,
      "Ġpoint": 1681,
      "ever": 1682,
      "Ġ__": 1683,
      "width": 1684,
      "include": 1685,
      "Ġmed": 1686,
      "Ġlocal": 1687,
      "wh": 1688,
      "icon": 1689,
      "oy": 1690,
      "ograph": 1691,
      "leg": 1692,
      "Ġthree": 1693,
      "Val": 1694,
      "Build": 1695,
      "Ġplayers": 1696,
      "195": 1697,
      "Ġaut": 1698,
      "default": 1699,
      "bs": 1700,
      "nection": 1701,
      "Ġsystem": 1702,
      "Ġ};": 1703,
      "Ġdist": 1704,
      "Ġbeing": 1705,
      "Of": 1706,
      "Result": 1707,
      "ĠEng": 1708,
      "iginal": 1709,
      "ĠMar": 1710,
      "ower": 1711,
      "Query": 1712,
      "error": 1713,
      "Message": 1714,
      "Ġpar": 1715,
      "Ġsame": 1716,
      "Ġ-->": 1717,
      "Ġtext": 1718,
      "Ġneed": 1719,
      "ohn": 1720,
      "Ġmade": 1721,
      "prot": 1722,
      "...": 1723,
      "reat": 1724,
      "ox": 1725,
      "mb": 1726,
      "odes": 1727,
      "####": 1728,
      "Ġimport": 1729,
      "ays": 1730,
      "ism": 1731,
      "Ġeach": 1732,
      "begin": 1733,
      "})": 1734,
      "âĢĿ": 1735,
      "Ġpop": 1736,
      "bum": 1737,
      "velop": 1738,
      "loat": 1739,
      "aid": 1740,
      "33": 1741,
      "Ġdet": 1742,
      "='": 1743,
      "ags": 1744,
      "oo": 1745,
      "ives": 1746,
      "enn": 1747,
      "idd": 1748,
      "lete": 1749,
      "Ġown": 1750,
      "Ġwell": 1751,
      "enu": 1752,
      "ission": 1753,
      "reate": 1754,
      "Ġsupport": 1755,
      "ote": 1756,
      "from": 1757,
      "Ġbeg": 1758,
      "block": 1759,
      "(\\": 1760,
      "FF": 1761,
      "AD": 1762,
      "formation": 1763,
      "Ġsim": 1764,
      "ĠRes": 1765,
      "Up": 1766,
      "UT": 1767,
      "ane": 1768,
      "title": 1769,
      "ting": 1770,
      "Ġright": 1771,
      "point": 1772,
      "ths": 1773,
      "search": 1774,
      "ustom": 1775,
      "Ġstruct": 1776,
      "Ġmodel": 1777,
      "https": 1778,
      "ĠPh": 1779,
      "utes": 1780,
      "lication": 1781,
      "LO": 1782,
      "ather": 1783,
      "ĠShe": 1784,
      "rac": 1785,
      "ner": 1786,
      "Ġu": 1787,
      "Ġjava": 1788,
      "itions": 1789,
      "etwork": 1790,
      "MA": 1791,
      "ension": 1792,
      "ĠStates": 1793,
      "box": 1794,
      "Is": 1795,
      "Ġchild": 1796,
      "start": 1797,
      "ends": 1798,
      "arly": 1799,
      "Ġmain": 1800,
      "--------------------------------": 1801,
      "urs": 1802,
      "Ġstyle": 1803,
      "Ġconfig": 1804,
      "ley": 1805,
      "tings": 1806,
      "Ġlater": 1807,
      "Ġz": 1808,
      "Ġtarget": 1809,
      "Ġdec": 1810,
      "ĠAss": 1811,
      "ULL": 1812,
      "une": 1813,
      "Out": 1814,
      "ural": 1815,
      "cope": 1816,
      "ounty": 1817,
      "ross": 1818,
      "part": 1819,
      "ague": 1820,
      "Ġuser": 1821,
      "Model": 1822,
      "lp": 1823,
      "Ġoptions": 1824,
      "Ġlast": 1825,
      "Ġboth": 1826,
      "uage": 1827,
      "ium": 1828,
      "func": 1829,
      "ĠWe": 1830,
      "iled": 1831,
      "version": 1832,
      "Ġfilm": 1833,
      "ai": 1834,
      "actory": 1835,
      "Ġ()": 1836,
      "info": 1837,
      "ustr": 1838,
      "Ser": 1839,
      "Ġmon": 1840,
      "ĠCl": 1841,
      "Ġdiffer": 1842,
      "perties": 1843,
      "Ġfollowing": 1844,
      "event": 1845,
      "Log": 1846,
      "cated": 1847,
      "ĠGet": 1848,
      "Ġsign": 1849,
      "model": 1850,
      "member": 1851,
      "Ġyour": 1852,
      "los": 1853,
      "Ġmov": 1854,
      "Ġthese": 1855,
      "ouble": 1856,
      "Ġtem": 1857,
      "ĉĉĉĉĉĉ": 1858,
      "Ġprot": 1859,
      "Ġversion": 1860,
      "tes": 1861,
      "Ġseason": 1862,
      "Ġcontent": 1863,
      "ilt": 1864,
      "Group": 1865,
      "els": 1866,
      "ĠOr": 1867,
      "ĠPr": 1868,
      "Ġlog": 1869,
      "Ġcor": 1870,
      "Manager": 1871,
      "Loc": 1872,
      "Ġbir": 1873,
      "IG": 1874,
      "Ġrece": 1875,
      "Ġopen": 1876,
      "Ġperform": 1877,
      "state": 1878,
      "omen": 1879,
      "Reg": 1880,
      "ML": 1881,
      "Ġpath": 1882,
      "Ġhttp": 1883,
      "ounc": 1884,
      "dt": 1885,
      "wit": 1886,
      "ename": 1887,
      "Ġref": 1888,
      "Ġbr": 1889,
      "amb": 1890,
      "body": 1891,
      "40": 1892,
      "Inter": 1893,
      "CH": 1894,
      "Ġcheck": 1895,
      "comp": 1896,
      "Ġcreate": 1897,
      "Ġbase": 1898,
      "istrict": 1899,
      "mit": 1900,
      "Ġnode": 1901,
      "ology": 1902,
      "Ġsur": 1903,
      "call": 1904,
      "Ġfootball": 1905,
      "Ġknown": 1906,
      "ffect": 1907,
      "ically": 1908,
      "ING": 1909,
      "oken": 1910,
      "ED": 1911,
      "head": 1912,
      "Ġmany": 1913,
      "27": 1914,
      "ĠÐ": 1915,
      "pression": 1916,
      "ait": 1917,
      "Ġcalled": 1918,
      "Ġmake": 1919,
      "ĠĠĠĠĠĠĠĠĠĠĠĠ": 1920,
      "Ġindex": 1921,
      "ĠAt": 1922,
      "Ġinstance": 1923,
      "Ġbro": 1924,
      "web": 1925,
      "Ġleft": 1926,
      "Property": 1927,
      "New": 1928,
      "28": 1929,
      "ches": 1930,
      "ĠSystem": 1931,
      "base": 1932,
      "Ġbool": 1933,
      "Ġbreak": 1934,
      "Call": 1935,
      "Ġcontext": 1936,
      "Ġdevelop": 1937,
      "ĠMay": 1938,
      "lt": 1939,
      "Ġincluding": 1940,
      "uch": 1941,
      "Ġgiven": 1942,
      "ET": 1943,
      "context": 1944,
      "options": 1945,
      "side": 1946,
      "Response": 1947,
      "mod": 1948,
      "Ġsrc": 1949,
      "bed": 1950,
      "AB": 1951,
      "Ġcode": 1952,
      ">&": 1953,
      "ĠWh": 1954,
      "fin": 1955,
      "Ġprocess": 1956,
      "Ġtop": 1957,
      "Client": 1958,
      "por": 1959,
      "Ġcontin": 1960,
      "App": 1961,
      "Cell": 1962,
      "Ġorder": 1963,
      "roller": 1964,
      "lobal": 1965,
      "uck": 1966,
      "Arg": 1967,
      "Ġalbum": 1968,
      "ĠĠĠĠĠĠĠĠĠĠ": 1969,
      "content": 1970,
      "Ġrefer": 1971,
      "26": 1972,
      "sk": 1973,
      "ior": 1974,
      "owever": 1975,
      "Ġprovid": 1976,
      "olic": 1977,
      "ĠWorld": 1978,
      "rack": 1979,
      "ari": 1980,
      "Ġmod": 1981,
      "Ġinput": 1982,
      "Ġfour": 1983,
      "Ġappe": 1984,
      "================": 1985,
      "IS": 1986,
      "ĠCan": 1987,
      "Ġnon": 1988,
      "uro": 1989,
      "Ġagainst": 1990,
      "option": 1991,
      "ually": 1992,
      "Ġschool": 1993,
      "ources": 1994,
      "ken": 1995,
      "array": 1996,
      "Ġmet": 1997,
      "ĠJohn": 1998,
      "ume": 1999,
      "method": 2000,
      "pi": 2001,
      "uments": 2002,
      "Table": 2003,
      "ained": 2004,
      "UN": 2005,
      "nder": 2006,
      "gt": 2007,
      "arri": 2008,
      "Count": 2009,
      "Ġseries": 2010,
      "place": 2011,
      "doc": 2012,
      "ansp": 2013,
      "ification": 2014,
      "Dis": 2015,
      "aster": 2016,
      "ral": 2017,
      "umer": 2018,
      "acter": 2019,
      "java": 2020,
      "From": 2021,
      "User": 2022,
      "Ġblock": 2023,
      "pan": 2024,
      "Ġret": 2025,
      "next": 2026,
      "Ġnow": 2027,
      "using": 2028,
      "core": 2029,
      "atri": 2030,
      "ĠNational": 2031,
      "false": 2032,
      "Ġallow": 2033,
      "ling": 2034,
      "ternational": 2035,
      "oad": 2036,
      "tn": 2037,
      "Ġlike": 2038,
      "ĠReg": 2039,
      "aces": 2040,
      "Ġitem": 2041,
      "=\"../../../../": 2042,
      "au": 2043,
      "ulation": 2044,
      "ift": 2045,
      "MP": 2046,
      "oin": 2047,
      "ital": 2048,
      "down": 2049,
      "ender": 2050,
      "anu": 2051,
      "less": 2052,
      "urch": 2053,
      "Override": 2054,
      "package": 2055,
      "ifier": 2056,
      "Ġstd": 2057,
      "count": 2058,
      "ech": 2059,
      "rag": 2060,
      "Ġdoes": 2061,
      ";&": 2062,
      "DO": 2063,
      "ĠList": 2064,
      "cale": 2065,
      "Ġestab": 2066,
      "google": 2067,
      "29": 2068,
      ">(": 2069,
      "imit": 2070,
      "Ġbel": 2071,
      "Method": 2072,
      "ases": 2073,
      "Ġever": 2074,
      "db": 2075,
      "ĠCar": 2076,
      "Ġjust": 2077,
      "ĠBr": 2078,
      "Ð°": 2079,
      "vision": 2080,
      "Ġind": 2081,
      "Util": 2082,
      "came": 2083,
      "iction": 2084,
      "Ġmust": 2085,
      "Ġnext": 2086,
      "Ġ,": 2087,
      "bol": 2088,
      "Ġuntil": 2089,
      "Ġbecame": 2090,
      "otype": 2091,
      "dev": 2092,
      "Ġgovern": 2093,
      "ottom": 2094,
      "ene": 2095,
      "Ġman": 2096,
      "TD": 2097,
      "check": 2098,
      "Color": 2099,
      "ĠCounty": 2100,
      "Ġcare": 2101,
      "iev": 2102,
      "aut": 2103,
      "Ġmy": 2104,
      "Ð¾": 2105,
      "Trans": 2106,
      "Ġvis": 2107,
      "ĠPar": 2108,
      "Ġhead": 2109,
      "max": 2110,
      "Status": 2111,
      "css": 2112,
      "lack": 2113,
      "Ġcoun": 2114,
      "Ġlead": 2115,
      "Stream": 2116,
      "vious": 2117,
      "ĠSet": 2118,
      "Pl": 2119,
      "}{": 2120,
      "Input": 2121,
      "All": 2122,
      "cast": 2123,
      "ched": 2124,
      "Builder": 2125,
      "ĠâĢľ": 2126,
      "Ġsol": 2127,
      "bb": 2128,
      "ql": 2129,
      "_{\\": 2130,
      "uk": 2131,
      "ĠYork": 2132,
      "])": 2133,
      "print": 2134,
      "Ġcould": 2135,
      "Token": 2136,
      "CE": 2137,
      "Ġsince": 2138,
      "End": 2139,
      "argin": 2140,
      "ctions": 2141,
      "current": 2142,
      "Ġtry": 2143,
      "ination": 2144,
      "static": 2145,
      "eger": 2146,
      "ENT": 2147,
      "ĠBrit": 2148,
      "ithub": 2149,
      "ĠJul": 2150,
      "www": 2151,
      "ĠNov": 2152,
      "button": 2153,
      "no": 2154,
      "ĠGr": 2155,
      "ored": 2156,
      "ret": 2157,
      "ience": 2158,
      "annel": 2159,
      "ĠWar": 2160,
      "ved": 2161,
      "net": 2162,
      "Ġfin": 2163,
      "ĠSchool": 2164,
      "Ġmatch": 2165,
      "ape": 2166,
      "liam": 2167,
      "80": 2168,
      "ica": 2169,
      "Ġpartic": 2170,
      "ird": 2171,
      "cause": 2172,
      "Ðµ": 2173,
      "irtual": 2174,
      "AS": 2175,
      "Ġservice": 2176,
      "Ġmax": 2177,
      "Ġvalues": 2178,
      "TH": 2179,
      "element": 2180,
      "Ġmessage": 2181,
      "ails": 2182,
      "ustral": 2183,
      "ĠAd": 2184,
      "ĠĠĊ": 2185,
      "Ġsource": 2186,
      "Ġoriginal": 2187,
      "Ġsong": 2188,
      "ential": 2189,
      "Ġgu": 2190,
      "alth": 2191,
      "ae": 2192,
      "Ġmark": 2193,
      "Ġterm": 2194,
      "ampion": 2195,
      "=\"#": 2196,
      "arge": 2197,
      "loy": 2198,
      "ĠPl": 2199,
      "Ġ<<": 2200,
      "ĠNULL": 2201,
      "Ġposition": 2202,
      "namespace": 2203,
      "ĠGe": 2204,
      "duct": 2205,
      "client": 2206,
      "dom": 2207,
      "ĠSouth": 2208,
      "US": 2209,
      "Ġtable": 2210,
      "Ġbecause": 2211,
      ";</": 2212,
      "Ġplace": 2213,
      "image": 2214,
      "ians": 2215,
      "query": 2216,
      "Ġdescri": 2217,
      "60": 2218,
      "$.": 2219,
      "This": 2220,
      "lib": 2221,
      "Ġbackground": 2222,
      "has": 2223,
      "anuary": 2224,
      "atab": 2225,
      "ĠAnd": 2226,
      "Ġdocument": 2227,
      "Pr": 2228,
      "ony": 2229,
      "Ġsuccess": 2230,
      "Ġfamily": 2231,
      "Ġboolean": 2232,
      "ideo": 2233,
      "depend": 2234,
      "see": 2235,
      "Ġdeath": 2236,
      "ired": 2237,
      "itional": 2238,
      "ended": 2239,
      "ware": 2240,
      "AME": 2241,
      "ourn": 2242,
      "ugust": 2243,
      "github": 2244,
      "Ġgame": 2245,
      "ĠWest": 2246,
      "ymbol": 2247,
      "align": 2248,
      "build": 2249,
      "da": 2250,
      "0000": 2251,
      "Options": 2252,
      "193": 2253,
      "ĠCal": 2254,
      "onse": 2255,
      "null": 2256,
      "Cl": 2257,
      "Ġcolor": 2258,
      "2010": 2259,
      "light": 2260,
      "erman": 2261,
      "style": 2262,
      "Ġbased": 2263,
      "ĠCent": 2264,
      "](": 2265,
      "hand": 2266,
      "lick": 2267,
      "ptember": 2268,
      "Instance": 2269,
      "|-": 2270,
      "inc": 2271,
      "request": 2272,
      "iron": 2273,
      "day": 2274,
      "Ġour": 2275,
      "wards": 2276,
      "Ġappro": 2277,
      "IL": 2278,
      "cord": 2279,
      "Ġview": 2280,
      "Null": 2281,
      "Ġenc": 2282,
      "ober": 2283,
      "ailable": 2284,
      "aking": 2285,
      "ribut": 2286,
      "Ġresponse": 2287,
      "Ġsever": 2288,
      "Ġvari": 2289,
      "ider": 2290,
      "mber": 2291,
      "ĠâĢĶ": 2292,
      "ES": 2293,
      "ocus": 2294,
      "IP": 2295,
      "ĠOct": 2296,
      "((": 2297,
      "Ġpub": 2298,
      "Ġdid": 2299,
      "Pos": 2300,
      "Ġprogram": 2301,
      "sw": 2302,
      "android": 2303,
      "lector": 2304,
      "ĠBe": 2305,
      "OT": 2306,
      "Ġprom": 2307,
      "ajor": 2308,
      "2014": 2309,
      "urity": 2310,
      "YPE": 2311,
      "Ġpolit": 2312,
      "Ġav": 2313,
      "Ġproject": 2314,
      "Ġborder": 2315,
      "Ġfind": 2316,
      "Date": 2317,
      "eq": 2318,
      "rist": 2319,
      "ĠĠĠĠĠĠĠĠĠĠĠĠĠĠĠĠĠĠĠĠĠĠĠĠĠĠĠĠĠĠĠ": 2320,
      "2015": 2321,
      "Image": 2322,
      "dir": 2323,
      "2016": 2324,
      "args": 2325,
      "iness": 2326,
      "arm": 2327,
      "sup": 2328,
      "alk": 2329,
      "Ġcommun": 2330,
      "idget": 2331,
      "Gener": 2332,
      "Ġann": 2333,
      "Ġwon": 2334,
      "Ġmusic": 2335,
      "Ġdifferent": 2336,
      "Ġarea": 2337,
      "vis": 2338,
      "ety": 2339,
      "ibr": 2340,
      "Ġdisc": 2341,
      "ĠYou": 2342,
      "Sub": 2343,
      "ffic": 2344,
      "Ġsingle": 2345,
      "icense": 2346,
      "met": 2347,
      "section": 2348,
      "istor": 2349,
      "Ġold": 2350,
      "Ġpo": 2351,
      "Ġpost": 2352,
      "Ġrepresent": 2353,
      "Ġocc": 2354,
      "ĠWil": 2355,
      "=\"../": 2356,
      "Ġdown": 2357,
      "ĠTest": 2358,
      "ĠAll": 2359,
      "EX": 2360,
      "Ġlevel": 2361,
      "ĠEn": 2362,
      "Block": 2363,
      "Oper": 2364,
      "ĠMarch": 2365,
      "gress": 2366,
      "Ġpres": 2367,
      "ĠJanuary": 2368,
      "equ": 2369,
      "ONT": 2370,
      "ĠGu": 2371,
      "Ġsaid": 2372,
      "Style": 2373,
      "And": 2374,
      "Ad": 2375,
      "ival": 2376,
      "Source": 2377,
      "semb": 2378,
      "anged": 2379,
      "Base": 2380,
      "pril": 2381,
      "Be": 2382,
      "Par": 2383,
      "Ġlife": 2384,
      "stru": 2385,
      "ances": 2386,
      "uilt": 2387,
      "ultip": 2388,
      "fr": 2389,
      "Ġmap": 2390,
      "oman": 2391,
      "serv": 2392,
      "ĠAugust": 2393,
      "Ġport": 2394,
      "Ed": 2395,
      "plement": 2396,
      "Ġtri": 2397,
      "refer": 2398,
      "ĠSeptember": 2399,
      "Ġinitial": 2400,
      "Ġorgan": 2401,
      "lem": 2402,
      "Ġinclude": 2403,
      "ĠĠĠĠĠĠĠĠĠĠĠĠĠĠĠĠĠ": 2404,
      "Ġbook": 2405,
      "Str": 2406,
      "Ext": 2407,
      "Ġoffic": 2408,
      "loc": 2409,
      "Ġ+=": 2410,
      "*/": 2411,
      "ormal": 2412,
      "}.": 2413,
      "Ġinformation": 2414,
      "Run": 2415,
      "99": 2416,
      "ixed": 2417,
      "Ġcommand": 2418,
      "Ġsmall": 2419,
      "ung": 2420,
      "Ref": 2421,
      "Ã¡": 2422,
      "with": 2423,
      "ĠState": 2424,
      "ules": 2425,
      "Ġwhat": 2426,
      "Ġwidth": 2427,
      "Ass": 2428,
      "Ġca": 2429,
      "adding": 2430,
      "come": 2431,
      "ĠBo": 2432,
      "chema": 2433,
      "Handler": 2434,
      "earch": 2435,
      "hold": 2436,
      "2011": 2437,
      "opt": 2438,
      "lege": 2439,
      "nect": 2440,
      "riter": 2441,
      "tx": 2442,
      "bl": 2443,
      "Component": 2444,
      "akes": 2445,
      "run": 2446,
      "server": 2447,
      "frac": 2448,
      ")</": 2449,
      "ĠOctober": 2450,
      "Ġ\"\"\"": 2451,
      "ison": 2452,
      "Line": 2453,
      "orage": 2454,
      "2012": 2455,
      "Ġcr": 2456,
      "Ġoutput": 2457,
      "born": 2458,
      "init": 2459,
      "ayout": 2460,
      "2013": 2461,
      "pha": 2462,
      "ee": 2463,
      "atabase": 2464,
      "<!--": 2465,
      "prototype": 2466,
      "irc": 2467,
      "Resource": 2468,
      "cember": 2469,
      "({": 2470,
      "Ġreleased": 2471,
      "ĠJune": 2472,
      "cite": 2473,
      "ugin": 2474,
      "DI": 2475,
      "2017": 2476,
      "ĠAustral": 2477,
      "ailed": 2478,
      "Ġop": 2479,
      "$,": 2480,
      "target": 2481,
      "evel": 2482,
      "iod": 2483,
      "php": 2484,
      "rows": 2485,
      "alt": 2486,
      "lex": 2487,
      "child": 2488,
      "Attribute": 2489,
      "Default": 2490,
      "ius": 2491,
      "ĠUS": 2492,
      "Ġexample": 2493,
      "aining": 2494,
      "Ġproperty": 2495,
      "Content": 2496,
      "See": 2497,
      "Sc": 2498,
      "atter": 2499,
      "lin": 2500,
      "aint": 2501,
      "Ġparent": 2502,
      "ĠReturn": 2503,
      "ique": 2504,
      "ĠJuly": 2505,
      "Ġpresent": 2506,
      "json": 2507,
      "Buffer": 2508,
      "Ġplayed": 2509,
      "adata": 2510,
      "Ġandroid": 2511,
      "Ġlang": 2512,
      "ĠNo": 2513,
      "append": 2514,
      "Ġlow": 2515,
      "Function": 2516,
      "ĠEd": 2517,
      "tal": 2518,
      "ero": 2519,
      "ĠApril": 2520,
      "height": 2521,
      "attern": 2522,
      "Bar": 2523,
      "parent": 2524,
      "usiness": 2525,
      "ptr": 2526,
      "ales": 2527,
      "Ġexec": 2528,
      "TO": 2529,
      "unk": 2530,
      "Ġwithin": 2531,
      "viron": 2532,
      "ached": 2533,
      "Ġworld": 2534,
      "ivity": 2535,
      "66": 2536,
      "ĠPol": 2537,
      "Ġformer": 2538,
      "ued": 2539,
      "Ġevery": 2540,
      "lot": 2541,
      "ĠNorth": 2542,
      "190": 2543,
      ".,": 2544,
      "umb": 2545,
      "Act": 2546,
      "urg": 2547,
      "header": 2548,
      "ns": 2549,
      "arr": 2550,
      "uc": 2551,
      "xy": 2552,
      "Ġseveral": 2553,
      "Ġeng": 2554,
      "urope": 2555,
      "ĠCity": 2556,
      "Off": 2557,
      "Ġcle": 2558,
      "oud": 2559,
      "FA": 2560,
      "2008": 2561,
      "ĠNovember": 2562,
      "2009": 2563,
      "Ð¸": 2564,
      "ography": 2565,
      "ning": 2566,
      "Ġsk": 2567,
      "2018": 2568,
      "NS": 2569,
      "Ġlet": 2570,
      "Ġ->": 2571,
      "ised": 2572,
      "aving": 2573,
      "rm": 2574,
      "ĠIm": 2575,
      "atures": 2576,
      "raft": 2577,
      "Ġla": 2578,
      "ĠRep": 2579,
      "Ġaddress": 2580,
      "CK": 2581,
      "creen": 2582,
      "Version": 2583,
      "active": 2584,
      "endif": 2585,
      "icro": 2586,
      "Ġaccess": 2587,
      "Filter": 2588,
      "ĠObject": 2589,
      "bf": 2590,
      "UE": 2591,
      "No": 2592,
      "xml": 2593,
      "45": 2594,
      "ĠĠĠĠĠĠĠĠĠĠĠĠĠĠ": 2595,
      "Factory": 2596,
      "We": 2597,
      "FI": 2598,
      "ls": 2599,
      "ĠCo": 2600,
      "Ġlaw": 2601,
      "ĠDecember": 2602,
      "SP": 2603,
      "Ġhelp": 2604,
      "page": 2605,
      "thern": 2606,
      "ĠAdd": 2607,
      "Ġbirths": 2608,
      "omet": 2609,
      "sec": 2610,
      "Ġmember": 2611,
      "ada": 2612,
      "ness": 2613,
      "mark": 2614,
      "aim": 2615,
      "ators": 2616,
      "Ġperson": 2617,
      "90": 2618,
      "[\"": 2619,
      "property": 2620,
      "ampionship": 2621,
      "Ġalign": 2622,
      "Ġnear": 2623,
      "ramework": 2624,
      "pected": 2625,
      "Start": 2626,
      "ump": 2627,
      "EL": 2628,
      "module": 2629,
      "witch": 2630,
      "push": 2631,
      "vider": 2632,
      "ĠLeague": 2633,
      "ords": 2634,
      "ĠThey": 2635,
      "ĠSer": 2636,
      "finished": 2637,
      "ively": 2638,
      "Ġurl": 2639,
      "cer": 2640,
      "open": 2641,
      "Ġident": 2642,
      "ĠBritish": 2643,
      "bug": 2644,
      "Ġmembers": 2645,
      "Ġcity": 2646,
      "ux": 2647,
      "ately": 2648,
      "equal": 2649,
      "tributes": 2650,
      "gy": 2651,
      "oper": 2652,
      "last": 2653,
      "Ġdev": 2654,
      "century": 2655,
      "Ġrange": 2656,
      "ards": 2657,
      "aly": 2658,
      "flow": 2659,
      "Action": 2660,
      "aced": 2661,
      "ebru": 2662,
      "ilit": 2663,
      "spec": 2664,
      "ĠMin": 2665,
      "tab": 2666,
      "ĠSp": 2667,
      "2020": 2668,
      "Ġearly": 2669,
      "ported": 2670,
      "ead": 2671,
      "btn": 2672,
      "Equals": 2673,
      "anges": 2674,
      "aterial": 2675,
      "Ġalong": 2676,
      "Ġsee": 2677,
      "ebruary": 2678,
      "Ġconf": 2679,
      "});": 2680,
      "\\\\": 2681,
      "ops": 2682,
      "olume": 2683,
      "Ġvalid": 2684,
      "ÑĤ": 2685,
      "center": 2686,
      "ĠII": 2687,
      "efore": 2688,
      "src": 2689,
      "Ġshort": 2690,
      "char": 2691,
      "Ġ{@": 2692,
      "Number": 2693,
      "Ġthrows": 2694,
      "Comp": 2695,
      "Task": 2696,
      "Ġdiv": 2697,
      "Ġaround": 2698,
      "ĠGener": 2699,
      "Hel": 2700,
      "Ġnamed": 2701,
      "2007": 2702,
      "Ġposs": 2703,
      "Command": 2704,
      "rain": 2705,
      "ready": 2706,
      "apan": 2707,
      "stit": 2708,
      "True": 2709,
      "2006": 2710,
      "thing": 2711,
      "2019": 2712,
      "Ġstand": 2713,
      "Ġincre": 2714,
      "position": 2715,
      "len": 2716,
      "Ġcap": 2717,
      "GL": 2718,
      "sg": 2719,
      "izer": 2720,
      "status": 2721,
      "anch": 2722,
      "ama": 2723,
      "Ġdisplay": 2724,
      "Ġeven": 2725,
      "uster": 2726,
      "Ġhost": 2727,
      "Point": 2728,
      "ster": 2729,
      "75": 2730,
      "ana": 2731,
      "write": 2732,
      "OL": 2733,
      "ured": 2734,
      "2000": 2735,
      "Ġcontrol": 2736,
      "la": 2737,
      "Ġ((": 2738,
      "Link": 2739,
      "imary": 2740,
      "HT": 2741,
      "Spec": 2742,
      "obj": 2743,
      "struction": 2744,
      "Row": 2745,
      "rad": 2746,
      "Create": 2747,
      "Ġhow": 2748,
      "ability": 2749,
      "hes": 2750,
      "efined": 2751,
      "ham": 2752,
      "Window": 2753,
      "atrix": 2754,
      "case": 2755,
      "ĠPart": 2756,
      "Ġwithout": 2757,
      "ots": 2758,
      "require": 2759,
      "Fl": 2760,
      "ording": 2761,
      "Ð½": 2762,
      "Ġthose": 2763,
      "ĠKing": 2764,
      "(&": 2765,
      "jav": 2766,
      "Ġ($": 2767,
      "Ġprof": 2768,
      "Ġhome": 2769,
      "rest": 2770,
      "unfinished": 2771,
      "Ġresults": 2772,
      "ending": 2773,
      "Ġleg": 2774,
      "Nav": 2775,
      "Ġcallback": 2776,
      "Em": 2777,
      "ATE": 2778,
      "host": 2779,
      "35": 2780,
      "rl": 2781,
      "fe": 2782,
      "reen": 2783,
      "AP": 2784,
      "ocial": 2785,
      "sembly": 2786,
      "Ġins": 2787,
      "Ġfilms": 2788,
      "Ph": 2789,
      "Ġlength": 2790,
      "icle": 2791,
      "ialog": 2792,
      "Ġprevious": 2793,
      "ĠEurope": 2794,
      "_.": 2795,
      "ĠMed": 2796,
      "Ġiss": 2797,
      "But": 2798,
      "){": 2799,
      "OS": 2800,
      "Ġland": 2801,
      "Ġpage": 2802,
      "yles": 2803,
      "Ġclient": 2804,
      "Ġwomen": 2805,
      "post": 2806,
      "idge": 2807,
      "yl": 2808,
      "Ġes": 2809,
      "Ġcount": 2810,
      "signed": 2811,
      "ĉĠĠĠ": 2812,
      "buf": 2813,
      "Ġ!==": 2814,
      "rench": 2815,
      "Ġtyp": 2816,
      "Ġprotected": 2817,
      "////////////////": 2818,
      "pc": 2819,
      "Ġstill": 2820,
      "Ġexist": 2821,
      "used": 2822,
      "private": 2823,
      "Ġeffect": 2824,
      "Ġexpected": 2825,
      "Ġdue": 2826,
      "atform": 2827,
      "Part": 2828,
      "ĉĊ": 2829,
      "Ġday": 2830,
      "Ġway": 2831,
      "era": 2832,
      "ĠFebruary": 2833,
      "Ġcompet": 2834,
      "VER": 2835,
      "Ġcareer": 2836,
      "vers": 2837,
      "Ġreal": 2838,
      "Ġvery": 2839,
      "ĠSup": 2840,
      "attr": 2841,
      "levision": 2842,
      "rowser": 2843,
      "ĠClass": 2844,
      "ides": 2845,
      "Ġaction": 2846,
      "vironment": 2847,
      "illion": 2848,
      "ynt": 2849,
      "inition": 2850,
      "ocol": 2851,
      "ĠĠĠĠĠĠĠĠĊ": 2852,
      "iag": 2853,
      "ories": 2854,
      "find": 2855,
      "ways": 2856,
      "ĠCont": 2857,
      "AG": 2858,
      "olution": 2859,
      "REF": 2860,
      "ĠBy": 2861,
      "Ġwant": 2862,
      "Ġfore": 2863,
      "Check": 2864,
      "ugg": 2865,
      "Length": 2866,
      "Ġcreated": 2867,
      "Ġcour": 2868,
      "do": 2869,
      "Char": 2870,
      "dl": 2871,
      "ze": 2872,
      "Ġgovernment": 2873,
      "ansport": 2874,
      "Ġprov": 2875,
      "nown": 2876,
      "Ġrequired": 2877,
      "Ġss": 2878,
      "first": 2879,
      "ategory": 2880,
      "Ġlabel": 2881,
      "font": 2882,
      "std": 2883,
      "\"),": 2884,
      "alf": 2885,
      "2021": 2886,
      "arning": 2887,
      "LASS": 2888,
      "Ġcar": 2889,
      "\").": 2890,
      "Ġanother": 2891,
      "Ġreceived": 2892,
      "Read": 2893,
      "American": 2894,
      "\"]": 2895,
      "Child": 2896,
      "Ġload": 2897,
      "ĠAfter": 2898,
      "refix": 2899,
      "lections": 2900,
      "Ġassoci": 2901,
      "ĠNone": 2902,
      "Ġdesign": 2903,
      "CC": 2904,
      "Listener": 2905,
      "OP": 2906,
      "Ġtown": 2907,
      "select": 2908,
      "ĠIN": 2909,
      "inary": 2910,
      "ither": 2911,
      "ĠInt": 2912,
      "lease": 2913,
      "mo": 2914,
      "Ġlarge": 2915,
      "ABLE": 2916,
      "ted": 2917,
      "soft": 2918,
      "Ġcompany": 2919,
      "31": 2920,
      "ones": 2921,
      "Ġcharacter": 2922,
      "Const": 2923,
      "${": 2924,
      "Ġtotal": 2925,
      "ado": 2926,
      "chn": 2927,
      "Ġavailable": 2928,
      "ĠBar": 2929,
      "Ġsuper": 2930,
      "Ġmajor": 2931,
      "ino": 2932,
      "Output": 2933,
      "returns": 2934,
      "ney": 2935,
      "ĠMan": 2936,
      "55": 2937,
      "ĠTo": 2938,
      "Ġstatus": 2939,
      "mt": 2940,
      "Ġchildren": 2941,
      "34": 2942,
      "Ġside": 2943,
      "Ġtrack": 2944,
      "PRO": 2945,
      "Ġband": 2946,
      "ĠThere": 2947,
      "SON": 2948,
      "local": 2949,
      "bottom": 2950,
      "Ã³": 2951,
      "ĠChrist": 2952,
      "filter": 2953,
      "Ġcond": 2954,
      "Ġhere": 2955,
      "Ġimage": 2956,
      "Ġreturned": 2957,
      "Ġimp": 2958,
      "Format": 2959,
      "iler": 2960,
      "Ġ[]": 2961,
      "ĠRec": 2962,
      "urther": 2963,
      "Wh": 2964,
      "na": 2965,
      "undle": 2966,
      "Valid": 2967,
      "structor": 2968,
      "IM": 2969,
      "Ġheight": 2970,
      "Ġregion": 2971,
      "remove": 2972,
      "ploy": 2973,
      "Ġfr": 2974,
      "rew": 2975,
      "ĠTe": 2976,
      "Label": 2977,
      "Ġcolumn": 2978,
      "ÑĢ": 2979,
      "Page": 2980,
      "2022": 2981,
      "ĠMc": 2982,
      "iet": 2983,
      "TYPE": 2984,
      "ese": 2985,
      "ĠHowever": 2986,
      "Ġbegan": 2987,
      "Ġheld": 2988,
      "Dep": 2989,
      "INT": 2990,
      "FONT": 2991,
      "equation": 2992,
      "container": 2993,
      "BU": 2994,
      "Ġlook": 2995,
      "Ġbuilt": 2996,
      "///": 2997,
      "EE": 2998,
      "stream": 2999,
      "Ġrole": 3000,
      "Ġclub": 3001,
      "Ġbest": 3002,
      "bit": 3003,
      "Pre": 3004,
      "Ġfull": 3005,
      "Ġchange": 3006,
      "imation": 3007,
      "70": 3008,
      "hip": 3009,
      "ĠEnglish": 3010,
      "ĠRob": 3011,
      "2005": 3012,
      "Ġextends": 3013,
      "py": 3014,
      "menu": 3015,
      "++)": 3016,
      "39": 3017,
      "Ġhistory": 3018,
      "oto": 3019,
      "URL": 3020,
      "Ġcell": 3021,
      "ĠVal": 3022,
      "istry": 3023,
      "ĠHigh": 3024,
      "description": 3025,
      "navbar": 3026,
      "gener": 3027,
      "ERR": 3028,
      "Ġmodule": 3029,
      "Ġrad": 3030,
      "erg": 3031,
      "ĠAb": 3032,
      "ibility": 3033,
      "Web": 3034,
      "Ġsum": 3035,
      "Ġspecified": 3036,
      "Ġbody": 3037,
      "strong": 3038,
      "Ġoption": 3039,
      "Ġopt": 3040,
      "ibrary": 3041,
      "Ġrest": 3042,
      "race": 3043,
      "Ġevents": 3044,
      "Ġprint": 3045,
      "ĠAct": 3046,
      "roy": 3047,
      "Ġmat": 3048,
      "Ġvill": 3049,
      "CON": 3050,
      "ĠComm": 3051,
      "Ġequ": 3052,
      "Ġresource": 3053,
      "Ġestablished": 3054,
      "Ġnum": 3055,
      "Ġwindow": 3056,
      "Met": 3057,
      "update": 3058,
      "ĠHis": 3059,
      "format": 3060,
      "imum": 3061,
      "iff": 3062,
      "ĠDes": 3063,
      "Ġlocated": 3064,
      "rior": 3065,
      "Mem": 3066,
      "mathcal": 3067,
      "Controller": 3068,
      ":\"": 3069,
      "oss": 3070,
      "Ġstat": 3071,
      "ĠJapan": 3072,
      "Mode": 3073,
      ",\\": 3074,
      "Ġtook": 3075,
      "Ġfact": 3076,
      "only": 3077,
      "andom": 3078,
      "Ġpower": 3079,
      "itory": 3080,
      "meta": 3081,
      "eder": 3082,
      "01": 3083,
      "Ġexper": 3084,
      "OD": 3085,
      "params": 3086,
      "Ġmargin": 3087,
      "oke": 3088,
      "ĠĠĠĠĠĠĠĠĠĠĠĠĊ": 3089,
      "ille": 3090,
      "ĠChar": 3091,
      "number": 3092,
      "Ġobj": 3093,
      "Return": 3094,
      "]);": 3095,
      "olicy": 3096,
      "ites": 3097,
      "2004": 3098,
      "now": 3099,
      "uture": 3100,
      "36": 3101,
      "space": 3102,
      "AM": 3103,
      "ÃŃ": 3104,
      "Ġtake": 3105,
      "ves": 3106,
      "aff": 3107,
      "ables": 3108,
      "Ġauthor": 3109,
      "rect": 3110,
      "Ġhouse": 3111,
      "uccess": 3112,
      "omic": 3113,
      "uman": 3114,
      "Ġplayer": 3115,
      "ĉĉĉĉĉĉĉĉ": 3116,
      "SC": 3117,
      "Ġdest": 3118,
      "ĠDef": 3119,
      "unic": 3120,
      "ERT": 3121,
      "Ġbeh": 3122,
      "display": 3123,
      "cd": 3124,
      "gle": 3125,
      "Ġep": 3126,
      "rel": 3127,
      "UI": 3128,
      "ĠComp": 3129,
      "ĠEX": 3130,
      "sole": 3131,
      "img": 3132,
      "AA": 3133,
      "tool": 3134,
      "ondon": 3135,
      "Ġet": 3136,
      "ipp": 3137,
      "quence": 3138,
      "entry": 3139,
      "Ġcatch": 3140,
      "output": 3141,
      "Us": 3142,
      "ackage": 3143,
      "lied": 3144,
      "Ġcopy": 3145,
      "Cache": 3146,
      "imal": 3147,
      "Ġgames": 3148,
      "ĠGL": 3149,
      "ĠLicense": 3150,
      "itive": 3151,
      "ington": 3152,
      "mem": 3153,
      "ĠGo": 3154,
      "sl": 3155,
      "ipal": 3156,
      "ĠCor": 3157,
      "heet": 3158,
      "lor": 3159,
      "png": 3160,
      "thers": 3161,
      "alpha": 3162,
      "reet": 3163,
      "ambda": 3164,
      "cor": 3165,
      ">>": 3166,
      ")$": 3167,
      "igation": 3168,
      "Offset": 3169,
      "project": 3170,
      "Ġnational": 3171,
      "(_": 3172,
      "Column": 3173,
      "Ġdon": 3174,
      "dr": 3175,
      "TP": 3176,
      "Ġpublished": 3177,
      "44": 3178,
      "offset": 3179,
      "ĠRuss": 3180,
      "oding": 3181,
      "idden": 3182,
      "Ġmuch": 3183,
      "response": 3184,
      "change": 3185,
      "Ġincluded": 3186,
      "Ġdel": 3187,
      "lip": 3188,
      "iment": 3189,
      "Button": 3190,
      "Ġpe": 3191,
      "udio": 3192,
      "uid": 3193,
      "}(": 3194,
      "Ġmanag": 3195,
      "Sup": 3196,
      "stract": 3197,
      "Ġfeature": 3198,
      "Ġspe": 3199,
      "********************************": 3200,
      "ours": 3201,
      "Ġlarg": 3202,
      "Ġweek": 3203,
      "Ġarr": 3204,
      "ram": 3205,
      "Ġdistribut": 3206,
      "comm": 3207,
      "Server": 3208,
      "instance": 3209,
      "Ġpopulation": 3210,
      "Ġstation": 3211,
      "board": 3212,
      "kit": 3213,
      "Width": 3214,
      "annot": 3215,
      "ĠCollege": 3216,
      "num": 3217,
      "mar": 3218,
      "HE": 3219,
      "Aut": 3220,
      "Back": 3221,
      "Ġperiod": 3222,
      "oph": 3223,
      "book": 3224,
      "Ġarch": 3225,
      "tag": 3226,
      "ining": 3227,
      "ĠPhil": 3228,
      "NO": 3229,
      "hether": 3230,
      "del": 3231,
      "Ġupdate": 3232,
      "service": 3233,
      "ĠAir": 3234,
      "inner": 3235,
      "Ġdefined": 3236,
      "Ð¾Ð": 3237,
      "Ġnetwork": 3238,
      "ford": 3239,
      "Ġknow": 3240,
      "hel": 3241,
      "Ġdom": 3242,
      "close": 3243,
      "inst": 3244,
      "Ġinternal": 3245,
      "ially": 3246,
      "Ġformat": 3247,
      "Ġlen": 3248,
      "ĠEast": 3249,
      "38": 3250,
      "atal": 3251,
      "Tem": 3252,
      "Ġage": 3253,
      "Ġbl": 3254,
      "Address": 3255,
      "It": 3256,
      "ering": 3257,
      ",\"": 3258,
      "Ġke": 3259,
      "aps": 3260,
      "ring": 3261,
      "tempt": 3262,
      "iddle": 3263,
      "ĠSw": 3264,
      "inning": 3265,
      "ensor": 3266,
      "Ġcamp": 3267,
      "Ġsix": 3268,
      "Ġserved": 3269,
      "layout": 3270,
      "If": 3271,
      "uint": 3272,
      "ference": 3273,
      "Layout": 3274,
      "Ġuint": 3275,
      "ifact": 3276,
      "Container": 3277,
      "Update": 3278,
      "cell": 3279,
      "<?": 3280,
      "ĠPark": 3281,
      "ĠChampionship": 3282,
      "NAME": 3283,
      "Ġtask": 3284,
      "acy": 3285,
      "Ġdouble": 3286,
      "ĠLa": 3287,
      "ĠBl": 3288,
      "hem": 3289,
      "').": 3290,
      "respon": 3291,
      "ĠFrench": 3292,
      "Ġmag": 3293,
      "ĠLondon": 3294,
      "cel": 3295,
      "ij": 3296,
      "process": 3297,
      "ultiple": 3298,
      "Ġauto": 3299,
      "Ġthird": 3300,
      "igger": 3301,
      "IZ": 3302,
      "ilitary": 3303,
      "Ġalready": 3304,
      "Ġserver": 3305,
      "Provider": 3306,
      "Ġ<!--": 3307,
      "ilar": 3308,
      "df": 3309,
      ".$": 3310,
      "UM": 3311,
      "lymp": 3312,
      "ascript": 3313,
      "aper": 3314,
      "ĠWilliam": 3315,
      "37": 3316,
      "Ġsite": 3317,
      "ught": 3318,
      "Ġdescribed": 3319,
      "final": 3320,
      "2001": 3321,
      "rodu": 3322,
      "oice": 3323,
      "ynam": 3324,
      "ĠDistrict": 3325,
      "Ġcentury": 3326,
      "History": 3327,
      "Ġbas": 3328,
      "raint": 3329,
      "Ġgeneral": 3330,
      "ief": 3331,
      "rown": 3332,
      "Ġtechn": 3333,
      "Ġbusiness": 3334,
      "ogn": 3335,
      "Ã¼": 3336,
      "imate": 3337,
      "Ġfive": 3338,
      "rypt": 3339,
      "ĠAPI": 3340,
      "Ġdepend": 3341,
      "Ġreturns": 3342,
      "po": 3343,
      "ntity": 3344,
      "igr": 3345,
      "Ġ$(": 3346,
      "48": 3347,
      "189": 3348,
      "else": 3349,
      "Ñģ": 3350,
      "Ġspecies": 3351,
      "ought": 3352,
      "Ġparameter": 3353,
      "criptor": 3354,
      "ĠArt": 3355,
      "ĠBro": 3356,
      "Ġquery": 3357,
      "ĠDav": 3358,
      "amil": 3359,
      "unit": 3360,
      "Ġappear": 3361,
      "ulture": 3362,
      "Types": 3363,
      "Url": 3364,
      "exec": 3365,
      "Ġargs": 3366,
      "Ġturn": 3367,
      "Ġlate": 3368,
      "188": 3369,
      "Ġborn": 3370,
      "ha": 3371,
      "=\\": 3372,
      "Ġbuilding": 3373,
      "ĠMe": 3374,
      "rapper": 3375,
      "ouncil": 3376,
      "det": 3377,
      "though": 3378,
      "ĠArray": 3379,
      "First": 3380,
      "ĠPer": 3381,
      "can": 3382,
      "ights": 3383,
      "ĠAmer": 3384,
      "background": 3385,
      "Ġ]": 3386,
      "Ġclos": 3387,
      "ĠDis": 3388,
      "Target": 3389,
      "ĠHar": 3390,
      "ĠWhen": 3391,
      "Ġgood": 3392,
      "ouch": 3393,
      "Ġspecial": 3394,
      "attle": 3395,
      "ctx": 3396,
      "ĠReturns": 3397,
      "expected": 3398,
      "template": 3399,
      "ociation": 3400,
      "ĠType": 3401,
      "ĠHREF": 3402,
      "allet": 3403,
      "acity": 3404,
      "Case": 3405,
      "si": 3406,
      "Ġimplement": 3407,
      "ĠHouse": 3408,
      "Ġcustom": 3409,
      "Rem": 3410,
      "arried": 3411,
      "Ġcomput": 3412,
      "CL": 3413,
      "Ġair": 3414,
      "Ġconnection": 3415,
      "Ġsent": 3416,
      "ĠMon": 3417,
      "Ġfre": 3418,
      "Ġinterface": 3419,
      "After": 3420,
      "eline": 3421,
      "ĠĠĠĠĠĠĠĠĠĠĠĠĠĠĠĠĠĠĠĠĠĠĠĠĠĠĠĠĠĠĠĠĠĠĠ": 3422,
      "ested": 3423,
      "Ġdistrict": 3424,
      "IO": 3425,
      "column": 3426,
      "ãģ": 3427,
      "```": 3428,
      "dest": 3429,
      "Ġfac": 3430,
      "2003": 3431,
      "bool": 3432,
      "Bo": 3433,
      "Box": 3434,
      "ention": 3435,
      "Ġdecl": 3436,
      "level": 3437,
      "Ġdate": 3438,
      "Ġadv": 3439,
      "Ġfont": 3440,
      "Header": 3441,
      "apter": 3442,
      "ĠPres": 3443,
      "apping": 3444,
      "ĠAssert": 3445,
      "alys": 3446,
      "Ġstream": 3447,
      "Per": 3448,
      "Ġtimes": 3449,
      "ĠGerman": 3450,
      "Ġspace": 3451,
      "Acc": 3452,
      "ĠID": 3453,
      "Ġmen": 3454,
      "ĠCup": 3455,
      "typ": 3456,
      "Ġtelevision": 3457,
      "Last": 3458,
      "ĠCLASS": 3459,
      "~\\": 3460,
      "Ġpoints": 3461,
      "Ġeither": 3462,
      "bind": 3463,
      "ĠFile": 3464,
      "root": 3465,
      "}_": 3466,
      "igin": 3467,
      "Fe": 3468,
      "Access": 3469,
      "should": 3470,
      "ba": 3471,
      "Ġwater": 3472,
      "eps": 3473,
      "ging": 3474,
      "ĠHT": 3475,
      "Configuration": 3476,
      "COL": 3477,
      "ently": 3478,
      "Ġlanguage": 3479,
      "parse": 3480,
      "sol": 3481,
      "âĢĶ": 3482,
      "Entry": 3483,
      "Ġrow": 3484,
      "proto": 3485,
      "Callback": 3486,
      "aul": 3487,
      "Ġcur": 3488,
      "MS": 3489,
      "Ġwritten": 3490,
      "Mod": 3491,
      "ĠUp": 3492,
      "}^": 3493,
      "ĠNor": 3494,
      "show": 3495,
      "window": 3496,
      "ĠHer": 3497,
      "Process": 3498,
      "older": 3499,
      "Det": 3500,
      "?:": 3501,
      "match": 3502,
      "Ġbound": 3503,
      "ponents": 3504,
      "ament": 3505,
      "pass": 3506,
      "Dev": 3507,
      "utils": 3508,
      "imple": 3509,
      "Params": 3510,
      "Del": 3511,
      "gen": 3512,
      "Ġprovided": 3513,
      "ftware": 3514,
      "Utils": 3515,
      "Write": 3516,
      "float": 3517,
      "Ġfail": 3518,
      "Tag": 3519,
      "Interface": 3520,
      "ayer": 3521,
      "uation": 3522,
      "65": 3523,
      "sm": 3524,
      "Json": 3525,
      "ĠAc": 3526,
      "Range": 3527,
      "Ġant": 3528,
      "Unit": 3529,
      "Ġoperation": 3530,
      "Tree": 3531,
      "2002": 3532,
      "ULT": 3533,
      "rt": 3534,
      "ulti": 3535,
      "ĠSch": 3536,
      "Ġ**": 3537,
      "Ġcover": 3538,
      "Ob": 3539,
      "Ġround": 3540,
      "ĠDep": 3541,
      "ald": 3542,
      "ĠInternational": 3543,
      "issing": 3544,
      "Frame": 3545,
      "ĠQu": 3546,
      "irm": 3547,
      "iforn": 3548,
      "sv": 3549,
      "ournal": 3550,
      "ensions": 3551,
      "()->": 3552,
      "Work": 3553,
      "Ġnone": 3554,
      "Ġoffset": 3555,
      "exp": 3556,
      "ĠAm": 3557,
      "javascript": 3558,
      "Max": 3559,
      "clear": 3560,
      "itted": 3561,
      "idual": 3562,
      "Vis": 3563,
      "Ġfew": 3564,
      "afe": 3565,
      "Height": 3566,
      "ĠDr": 3567,
      "([": 3568,
      "ico": 3569,
      "clud": 3570,
      "Ġfree": 3571,
      "Ġcompos": 3572,
      "stand": 3573,
      "########": 3574,
      "CODE": 3575,
      "Ġqual": 3576,
      "DB": 3577,
      "'),": 3578,
      "osp": 3579,
      "Ġmode": 3580,
      "Ġcert": 3581,
      ")\\": 3582,
      "Ġproble": 3583,
      "example": 3584,
      "ply": 3585,
      "ĉĠ": 3586,
      "Load": 3587,
      "ka": 3588,
      "Ġ{}": 3589,
      "ided": 3590,
      "ĠDiv": 3591,
      "ĠNot": 3592,
      "ifornia": 3593,
      ":</": 3594,
      "Ġvideo": 3595,
      "olved": 3596,
      "ingle": 3597,
      "ĠRed": 3598,
      "Ġelements": 3599,
      "late": 3600,
      "oll": 3601,
      "essages": 3602,
      "Ġengine": 3603,
      "abor": 3604,
      "Ġput": 3605,
      "ĠSan": 3606,
      "Ġcrit": 3607,
      "aml": 3608,
      "Ġq": 3609,
      "Ġnorth": 3610,
      "rade": 3611,
      "Ġclose": 3612,
      "Ġfloat": 3613,
      "67": 3614,
      "quad": 3615,
      "cache": 3616,
      "Ġvirtual": 3617,
      "Ġgl": 3618,
      "Record": 3619,
      "Ġadded": 3620,
      "irection": 3621,
      "Ġwrite": 3622,
      "task": 3623,
      "ires": 3624,
      "Ġdied": 3625,
      "common": 3626,
      "ĠIndian": 3627,
      "Min": 3628,
      "rid": 3629,
      "Ġoften": 3630,
      "Ġabove": 3631,
      "Ġinit": 3632,
      "Port": 3633,
      "ĠDo": 3634,
      "reference": 3635,
      "Ġstarted": 3636,
      "Ġcountry": 3637,
      "known": 3638,
      "Ġgen": 3639,
      "Ġcomb": 3640,
      "amma": 3641,
      "OST": 3642,
      "ĉĉĉĉĉĉĉ": 3643,
      "grad": 3644,
      "ĠQue": 3645,
      "gether": 3646,
      "ĠApp": 3647,
      "Ġmove": 3648,
      "Ġparameters": 3649,
      "olve": 3650,
      "alysis": 3651,
      "Ġfiles": 3652,
      "ĠInter": 3653,
      "Living": 3654,
      "Ġelect": 3655,
      "queue": 3656,
      "~~": 3657,
      "posed": 3658,
      ")(": 3659,
      "Ġgrad": 3660,
      "UP": 3661,
      "ceed": 3662,
      "Ġindic": 3663,
      "ittle": 3664,
      "ĠEl": 3665,
      "Ġson": 3666,
      "Module": 3667,
      "People": 3668,
      "buffer": 3669,
      "ĠMich": 3670,
      "lice": 3671,
      "ds": 3672,
      "KE": 3673,
      "Parameter": 3674,
      "ounced": 3675,
      "Top": 3676,
      "ĠAg": 3677,
      "ĠSo": 3678,
      "Ġvillage": 3679,
      "yntax": 3680,
      "pm": 3681,
      "Ġ>=": 3682,
      "orge": 3683,
      "Ġbuffer": 3684,
      "PC": 3685,
      "ĠOne": 3686,
      "Connection": 3687,
      "Ġresearch": 3688,
      "ĠRiver": 3689,
      "ĠPort": 3690,
      "\"))": 3691,
      "Ġless": 3692,
      "utable": 3693,
      "Ġtrad": 3694,
      "document": 3695,
      "ND": 3696,
      "Ġamong": 3697,
      "ĠSub": 3698,
      "je": 3699,
      "styles": 3700,
      "Empty": 3701,
      "wise": 3702,
      "Ġwar": 3703,
      "Ġworks": 3704,
      "ara": 3705,
      "icrosoft": 3706,
      "Ġver": 3707,
      "Control": 3708,
      "Ġnav": 3709,
      "API": 3710,
      "Ġda": 3711,
      "dat": 3712,
      "Exec": 3713,
      "iol": 3714,
      "Eng": 3715,
      "rs": 3716,
      "Ġattack": 3717,
      "Bundle": 3718,
      "ĠCreate": 3719,
      "token": 3720,
      "Ġfilter": 3721,
      "Ġproduct": 3722,
      "Thread": 3723,
      "ministr": 3724,
      "arrow": 3725,
      "Ġsearch": 3726,
      "ega": 3727,
      "VAL": 3728,
      "Operation": 3729,
      "scope": 3730,
      "Ġnames": 3731,
      "ĠCalifornia": 3732,
      "ociety": 3733,
      "Ġconc": 3734,
      "lands": 3735,
      "ho": 3736,
      "Ġaccount": 3737,
      "Ġsec": 3738,
      "ause": 3739,
      "cul": 3740,
      "ĠRev": 3741,
      "year": 3742,
      "Next": 3743,
      "Ġ(\"": 3744,
      "cho": 3745,
      "ĠEngland": 3746,
      "Sec": 3747,
      "Ġhold": 3748,
      "iers": 3749,
      "ĠBut": 3750,
      "ĠÃ": 3751,
      "Ge": 3752,
      "Ġfri": 3753,
      "tml": 3754,
      "ĠSk": 3755,
      "wait": 3756,
      "PECT": 3757,
      "burg": 3758,
      "Entity": 3759,
      "tribut": 3760,
      "mu": 3761,
      "Med": 3762,
      "Settings": 3763,
      "Ġmoved": 3764,
      "istic": 3765,
      "mic": 3766,
      "Ġarguments": 3767,
      "Ġ*)": 3768,
      "Ġsouth": 3769,
      "ĠIr": 3770,
      "Ġinstead": 3771,
      "Open": 3772,
      "VE": 3773,
      "BC": 3774,
      "foot": 3775,
      "Ġcollection": 3776,
      "aken": 3777,
      "Ġwhether": 3778,
      "Hash": 3779,
      "Ġdevelopment": 3780,
      "Kind": 3781,
      "ocket": 3782,
      "graph": 3783,
      "foo": 3784,
      "Ġundefined": 3785,
      "useum": 3786,
      "igma": 3787,
      "ries": 3788,
      "1999": 3789,
      "STR": 3790,
      "Ġtypes": 3791,
      "Ġcommunity": 3792,
      "ĠWith": 3793,
      "author": 3794,
      "Ġobt": 3795,
      "ĠAustralia": 3796,
      "Ġsimilar": 3797,
      "Ġcontains": 3798,
      "ĠThese": 3799,
      "Ġnov": 3800,
      "medi": 3801,
      "Document": 3802,
      "ising": 3803,
      "tree": 3804,
      "Ġentry": 3805,
      "Option": 3806,
      "Dec": 3807,
      "Ġled": 3808,
      "aries": 3809,
      "Description": 3810,
      "Ġpat": 3811,
      "Ġxml": 3812,
      "main": 3813,
      "dict": 3814,
      "layer": 3815,
      "77": 3816,
      "sd": 3817,
      "resource": 3818,
      "LI": 3819,
      "Ġequal": 3820,
      "Ġlocation": 3821,
      "bor": 3822,
      "ty": 3823,
      "TI": 3824,
      "gl": 3825,
      "Http": 3826,
      "Ġparams": 3827,
      "Position": 3828,
      "Ġpossible": 3829,
      "Ġvarious": 3830,
      "otion": 3831,
      "ids": 3832,
      "ĠRoy": 3833,
      "Ġvol": 3834,
      "Ġperm": 3835,
      "patch": 3836,
      "command": 3837,
      "Ġparticular": 3838,
      "][": 3839,
      "1990": 3840,
      "None": 3841,
      "licit": 3842,
      "Ag": 3843,
      "ication": 3844,
      "Ġhistor": 3845,
      "verse": 3846,
      "49": 3847,
      "Ġbg": 3848,
      "ĠĠĠĠĠĠĠĠĠĠĠĠĠĠĠĠĠĠĠĠĠ": 3849,
      "Location": 3850,
      "Ġproperties": 3851,
      "ãĥ": 3852,
      "Lo": 3853,
      "Ã¶": 3854,
      "ĠWeb": 3855,
      "chedu": 3856,
      "ĠMy": 3857,
      "Ġpay": 3858,
      "Ġremove": 3859,
      "otal": 3860,
      "Ġhaving": 3861,
      "essional": 3862,
      "Ġservices": 3863,
      "./": 3864,
      "ĠTrans": 3865,
      "ĠAp": 3866,
      "Ġrelease": 3867,
      "Level": 3868,
      "anel": 3869,
      "Ġroot": 3870,
      "Ġtw": 3871,
      "ĠParty": 3872,
      "Ġsw": 3873,
      "QL": 3874,
      "Ġbecome": 3875,
      "ĠEm": 3876,
      "ĠOF": 3877,
      "ube": 3878,
      "esh": 3879,
      "%;": 3880,
      "Ġsepar": 3881,
      "images": 3882,
      "ks": 3883,
      "Ġredu": 3884,
      "SH": 3885,
      "Expression": 3886,
      "Ab": 3887,
      "Ġactive": 3888,
      "Ġattempt": 3889,
      "empty": 3890,
      "hent": 3891,
      "Match": 3892,
      "Ġspecific": 3893,
      "Properties": 3894,
      "Collection": 3895,
      "adian": 3896,
      "ĠNe": 3897,
      "Ġclaim": 3898,
      "Ġli": 3899,
      "aves": 3900,
      "ii": 3901,
      "ĠIndia": 3902,
      "ĠOlymp": 3903,
      "ellow": 3904,
      "Ġintrodu": 3905,
      "eft": 3906,
      "Ġedu": 3907,
      "Ġmillion": 3908,
      ">,": 3909,
      "88": 3910,
      "exports": 3911,
      "Ġaff": 3912,
      "aker": 3913,
      "Ġremov": 3914,
      "Ġdone": 3915,
      "IZE": 3916,
      "Ġdoc": 3917,
      "internal": 3918,
      "ATION": 3919,
      "ills": 3920,
      "itect": 3921,
      "FO": 3922,
      "ĠRepublic": 3923,
      "Ġonce": 3924,
      "Ġder": 3925,
      "ivil": 3926,
      "Ġglobal": 3927,
      "RL": 3928,
      "long": 3929,
      "Ġinvest": 3930,
      "ably": 3931,
      "Ã¤": 3932,
      "Ġreference": 3933,
      "Ġsection": 3934,
      "Ġcoll": 3935,
      "ĠSec": 3936,
      "\"));": 3937,
      "control": 3938,
      "break": 3939,
      "Ġvia": 3940,
      "Ġinternational": 3941,
      "ges": 3942,
      "47": 3943,
      "lies": 3944,
      "msg": 3945,
      "ael": 3946,
      "Que": 3947,
      "pped": 3948,
      "avy": 3949,
      "ĠException": 3950,
      "Ġmedia": 3951,
      "IGN": 3952,
      "Ġnever": 3953,
      "Sp": 3954,
      "ua": 3955,
      "ĠAf": 3956,
      "drop": 3957,
      "debug": 3958,
      "verage": 3959,
      "Op": 3960,
      "Ġyoung": 3961,
      "ĠMal": 3962,
      "ART": 3963,
      "Ġcapt": 3964,
      "Direct": 3965,
      "Ġmale": 3966,
      "Ġmethods": 3967,
      "etch": 3968,
      "Exp": 3969,
      "resh": 3970,
      "imer": 3971,
      "ises": 3972,
      "05": 3973,
      "ORT": 3974,
      "legate": 3975,
      "Ġoverride": 3976,
      "angle": 3977,
      "Ġpadding": 3978,
      "Ġdeaths": 3979,
      "ĠStr": 3980,
      "Ġdeterm": 3981,
      "imest": 3982,
      "Ġmeas": 3983,
      "Ġcame": 3984,
      "ĠLog": 3985,
      "ĠRem": 3986,
      "Ġtag": 3987,
      "Ġfields": 3988,
      "Local": 3989,
      "Host": 3990,
      "rec": 3991,
      "=\"_": 3992,
      "Ġcommon": 3993,
      "Ġexception": 3994,
      "Iter": 3995,
      "Ġjob": 3996,
      "Ġ...": 3997,
      "Ġev": 3998,
      "Ġred": 3999,
      "Ident": 4000,
      "Enc": 4001,
      "yd": 4002,
      "ĠData": 4003,
      "sequ": 4004,
      "EQ": 4005,
      ":(": 4006,
      "artifact": 4007,
      "Ġconsid": 4008,
      "Ġnamespace": 4009,
      "language": 4010,
      "Current": 4011,
      "ĠEXPECT": 4012,
      "Ġselected": 4013,
      "rief": 4014,
      "Ġimportant": 4015,
      "uel": 4016,
      "beta": 4017,
      "Ġsuccessful": 4018,
      "encies": 4019,
      "Ġproduced": 4020,
      "ements": 4021,
      "Change": 4022,
      "Copy": 4023,
      "gor": 4024,
      "Ġsold": 4025,
      "08": 4026,
      "ĠGeneral": 4027,
      "Ġindiv": 4028,
      "webkit": 4029,
      "rics": 4030,
      "Ġfem": 4031,
      "Ġwest": 4032,
      "Ġdays": 4033,
      "Async": 4034,
      "ursor": 4035,
      "Ġannounced": 4036,
      "ebug": 4037,
      "ged": 4038,
      "ictionary": 4039,
      "ological": 4040,
      "ĠSum": 4041,
      "sign": 4042,
      "Ġgroups": 4043,
      "Ġempty": 4044,
      "Names": 4045,
      "ĠAward": 4046,
      "Ġtemplate": 4047,
      "Ġjo": 4048,
      "ias": 4049,
      "$\\": 4050,
      "Handle": 4051,
      "Ġ\\\\": 4052,
      "Ġwin": 4053,
      "Ġpolic": 4054,
      "Ġcenter": 4055,
      "ĠBel": 4056,
      "Ġlimit": 4057,
      "Ġhandle": 4058,
      "acters": 4059,
      "Serial": 4060,
      "pository": 4061,
      "Ġaccept": 4062,
      "device": 4063,
      "hash": 4064,
      "Store": 4065,
      "adow": 4066,
      "ĠAcc": 4067,
      "INE": 4068,
      "42": 4069,
      "OM": 4070,
      "=\"-": 4071,
      "Ptr": 4072,
      "Ġestablish": 4073,
      "%%": 4074,
      "Co": 4075,
      "Ġofficial": 4076,
      "ĠGroup": 4077,
      "lim": 4078,
      "Script": 4079,
      "Can": 4080,
      "Ġfather": 4081,
      "Search": 4082,
      "Ġbgcolor": 4083,
      "Ġproduction": 4084,
      "Ġwent": 4085,
      "(*": 4086,
      "oriz": 4087,
      "fs": 4088,
      "Track": 4089,
      "Ġbit": 4090,
      "small": 4091,
      "where": 4092,
      "Ġbox": 4093,
      "1998": 4094,
      "zer": 4095,
      "ĠErr": 4096,
      "Ġstop": 4097,
      "ota": 4098,
      "Ġobserv": 4099,
      "ordin": 4100,
      "join": 4101,
      "thon": 4102,
      "():": 4103,
      "lit": 4104,
      "Ġapi": 4105,
      "ĠCheck": 4106,
      "ounds": 4107,
      "before": 4108,
      "_;": 4109,
      "ĠAmerica": 4110,
      "Ġactiv": 4111,
      "omb": 4112,
      "Ġeast": 4113,
      "Ġstory": 4114,
      "Ġstudy": 4115,
      "ĠArmy": 4116,
      "ilm": 4117,
      "ĠčĊ": 4118,
      "Ġfurther": 4119,
      "artment": 4120,
      "ĠCour": 4121,
      "andid": 4122,
      "pose": 4123,
      "Ġfailed": 4124,
      "Parameters": 4125,
      "XX": 4126,
      "Ġpract": 4127,
      "Ġcontinue": 4128,
      "iagn": 4129,
      "ĠAnt": 4130,
      "illed": 4131,
      "hib": 4132,
      "Ġlight": 4133,
      "Ġapplication": 4134,
      "values": 4135,
      "Session": 4136,
      "SD": 4137,
      "ips": 4138,
      "eh": 4139,
      "ilities": 4140,
      "Ġclear": 4141,
      "Ġiter": 4142,
      "Ġ::": 4143,
      "ãĤ": 4144,
      "Ġsocial": 4145,
      "68": 4146,
      "Ġleast": 4147,
      "Integer": 4148,
      "ĠChurch": 4149,
      "Ġrelation": 4150,
      "Ġhttps": 4151,
      "aged": 4152,
      "Ġfeatures": 4153,
      "unch": 4154,
      "gn": 4155,
      "Ġtoo": 4156,
      "ĠSee": 4157,
      "Ġinstall": 4158,
      "ACK": 4159,
      "ĠCanada": 4160,
      "Ġpassed": 4161,
      "ula": 4162,
      "=\"../../../../../": 4163,
      "actions": 4164,
      "Ġepis": 4165,
      "Ġassociated": 4166,
      "hat": 4167,
      "ĠEnd": 4168,
      "Ġopp": 4169,
      "Ġ;": 4170,
      "ĠSm": 4171,
      "Ġalways": 4172,
      "Render": 4173,
      "Ġindividual": 4174,
      "edef": 4175,
      "ele": 4176,
      "icker": 4177,
      "Ġworking": 4178,
      "Ġtogether": 4179,
      "dated": 4180,
      "Ġaward": 4181,
      "plit": 4182,
      "ERROR": 4183,
      "ria": 4184,
      "issions": 4185,
      "ĠGovern": 4186,
      "Ġhalf": 4187,
      "achine": 4188,
      "itar": 4189,
      "mathbb": 4190,
      "vas": 4191,
      "egr": 4192,
      "transform": 4193,
      "ĠGerm": 4194,
      "Impl": 4195,
      "Helper": 4196,
      "UB": 4197,
      "west": 4198,
      "ĠMo": 4199,
      "ws": 4200,
      "ĠFrance": 4201,
      "Ġmultiple": 4202,
      "Ġ\"\\": 4203,
      "Prot": 4204,
      "Font": 4205,
      "Ġear": 4206,
      "Ġconsidered": 4207,
      "req": 4208,
      "Ġreport": 4209,
      "COLOR": 4210,
      "ya": 4211,
      "nap": 4212,
      "ALL": 4213,
      "1980": 4214,
      "uri": 4215,
      "copy": 4216,
      "ris": 4217,
      "most": 4218,
      "Ġtoken": 4219,
      "_\\": 4220,
      "Ġprovide": 4221,
      "ctor": 4222,
      "tries": 4223,
      "ĠHol": 4224,
      "istics": 4225,
      "cs": 4226,
      "500": 4227,
      "ĠPresident": 4228,
      "Reference": 4229,
      "respond": 4230,
      "Ġide": 4231,
      "oute": 4232,
      "Ġstrong": 4233,
      "rupt": 4234,
      "reed": 4235,
      "flu": 4236,
      "ĠRoman": 4237,
      "pop": 4238,
      "II": 4239,
      "One": 4240,
      "Ġdebut": 4241,
      "handle": 4242,
      "Ġwebs": 4243,
      "Stat": 4244,
      "Project": 4245,
      "59": 4246,
      "classes": 4247,
      "ĠJames": 4248,
      "================================": 4249,
      "Ġcomponent": 4250,
      "interface": 4251,
      "conf": 4252,
      "Ġinf": 4253,
      "Ġstructure": 4254,
      "oder": 4255,
      "non": 4256,
      "delete": 4257,
      "Ġreview": 4258,
      "ĠPal": 4259,
      "ĠThom": 4260,
      "iation": 4261,
      "Ġchanges": 4262,
      "ĠFirst": 4263,
      "Body": 4264,
      "rip": 4265,
      "stitute": 4266,
      "CR": 4267,
      "Order": 4268,
      "Ġpolitical": 4269,
      "rote": 4270,
      "ĠCouncil": 4271,
      "airs": 4272,
      "Ġphys": 4273,
      "Ġrespect": 4274,
      "ĠRobert": 4275,
      "Ġblack": 4276,
      "rd": 4277,
      "Ġelection": 4278,
      "Rel": 4279,
      "Assert": 4280,
      "rab": 4281,
      "Ġacross": 4282,
      "ĠDem": 4283,
      "Ġhowever": 4284,
      "quired": 4285,
      "izing": 4286,
      "Ġcache": 4287,
      "oney": 4288,
      "Ġperformance": 4289,
      "dependent": 4290,
      "asing": 4291,
      "urb": 4292,
      "render": 4293,
      "lambda": 4294,
      "-\\": 4295,
      "ĠMark": 4296,
      "imestamp": 4297,
      "Ġpolitic": 4298,
      "greg": 4299,
      "Ġcontainer": 4300,
      "ania": 4301,
      "Ġliter": 4302,
      "ĠOut": 4303,
      "Le": 4304,
      "frame": 4305,
      ")}": 4306,
      "artifactId": 4307,
      "Ġcross": 4308,
      "Po": 4309,
      "Ġstudents": 4310,
      "auth": 4311,
      "Ġparticip": 4312,
      "Ġmean": 4313,
      "Ġobjects": 4314,
      "Schema": 4315,
      "Ġflow": 4316,
      "46": 4317,
      "TER": 4318,
      "MO": 4319,
      "ĠService": 4320,
      "Invalid": 4321,
      "lier": 4322,
      "aign": 4323,
      "Ġattribute": 4324,
      "card": 4325,
      "cing": 4326,
      "58": 4327,
      "acing": 4328,
      "{{": 4329,
      "57": 4330,
      "ĠOR": 4331,
      "ership": 4332,
      "Ġgreat": 4333,
      "Ġinterest": 4334,
      "mode": 4335,
      "byte": 4336,
      "Ġfocus": 4337,
      "ĠEuropean": 4338,
      "''": 4339,
      "Ġscope": 4340,
      "cape": 4341,
      "ĠSen": 4342,
      "Dir": 4343,
      "Ġexecut": 4344,
      "IF": 4345,
      "files": 4346,
      "Ġsignific": 4347,
      "Ġimpro": 4348,
      "Ġge": 4349,
      "Ġcompleted": 4350,
      "ĠStreet": 4351,
      "187": 4352,
      "phi": 4353,
      "Ġmaking": 4354,
      "02": 4355,
      "aur": 4356,
      "(:": 4357,
      "clus": 4358,
      "Ġaddition": 4359,
      "Ġsom": 4360,
      "bert": 4361,
      "Dom": 4362,
      "ĠDon": 4363,
      "ville": 4364,
      "Menu": 4365,
      "cm": 4366,
      "gorith": 4367,
      "oded": 4368,
      "Ġcurrently": 4369,
      "aching": 4370,
      "unicipal": 4371,
      "erve": 4372,
      "oom": 4373,
      "icles": 4374,
      "1996": 4375,
      "toString": 4376,
      "ĠDE": 4377,
      "GET": 4378,
      "han": 4379,
      "Ġdevice": 4380,
      "vari": 4381,
      "Ġappoint": 4382,
      "BO": 4383,
      "ĠDivision": 4384,
      "Ġhealth": 4385,
      "Bytes": 4386,
      "Ġnormal": 4387,
      "Meta": 4388,
      "raz": 4389,
      "border": 4390,
      "Ġ['": 4391,
      "Ġsubject": 4392,
      "track": 4393,
      "hi": 4394,
      "ĠNS": 4395,
      "Ġoffer": 4396,
      "iles": 4397,
      "04": 4398,
      "media": 4399,
      "CP": 4400,
      "Ġcost": 4401,
      "aven": 4402,
      "outhern": 4403,
      "Ġrepl": 4404,
      "Ġvert": 4405,
      "ECT": 4406,
      "1997": 4407,
      "ida": 4408,
      "Left": 4409,
      "Ġbelow": 4410,
      "Ġparse": 4411,
      "RI": 4412,
      "types": 4413,
      "ĠRich": 4414,
      "plete": 4415,
      "ĠMet": 4416,
      "Ġworked": 4417,
      "ĠPe": 4418,
      "ĠArg": 4419,
      "Vari": 4420,
      "env": 4421,
      "Ġhash": 4422,
      "asic": 4423,
      "atural": 4424,
      "fn": 4425,
      "cp": 4426,
      "ĠGeorge": 4427,
      "ocr": 4428,
      "Ġunit": 4429,
      "ĠTO": 4430,
      "Ġsession": 4431,
      "unt": 4432,
      "boot": 4433,
      "groupId": 4434,
      "unn": 4435,
      "Ġexpl": 4436,
      "ĠIS": 4437,
      "mat": 4438,
      "Ġrunning": 4439,
      "255": 4440,
      "replace": 4441,
      "BA": 4442,
      "Ġâ": 4443,
      "Argument": 4444,
      "strap": 4445,
      "||": 4446,
      "eal": 4447,
      "Tool": 4448,
      "ios": 4449,
      "lying": 4450,
      "hover": 4451,
      "reek": 4452,
      "igg": 4453,
      "Ġjoined": 4454,
      "send": 4455,
      "1970": 4456,
      "ORD": 4457,
      "Pass": 4458,
      "Ġmeans": 4459,
      "store": 4460,
      "Ġfund": 4461,
      "03": 4462,
      "}^{": 4463,
      "cap": 4464,
      "callback": 4465,
      "ĠAssociation": 4466,
      "AND": 4467,
      "pth": 4468,
      "Bind": 4469,
      "izes": 4470,
      "ĠMag": 4471,
      "Ġpot": 4472,
      "mm": 4473,
      "ersist": 4474,
      "Values": 4475,
      "Policy": 4476,
      "ĠDavid": 4477,
      "ients": 4478,
      "uz": 4479,
      "Ġinfo": 4480,
      "Ġpopular": 4481,
      "dist": 4482,
      ".âĢĿ": 4483,
      "aging": 4484,
      "Ġlive": 4485,
      "ĠRoyal": 4486,
      "Ġstore": 4487,
      "=\"../../../../../../": 4488,
      "Ġtre": 4489,
      "Ġsem": 4490,
      "Ġconfiguration": 4491,
      "Ġhuman": 4492,
      "prop": 4493,
      "Ġfa": 4494,
      "Ġshows": 4495,
      "Reader": 4496,
      "Ġmass": 4497,
      "vm": 4498,
      "docs": 4499,
      "Widget": 4500,
      "hr": 4501,
      "ago": 4502,
      "icons": 4503,
      "adcast": 4504,
      "Inst": 4505,
      "Ġopened": 4506,
      "}_{": 4507,
      "iting": 4508,
      "sort": 4509,
      "Cal": 4510,
      "disabled": 4511,
      "Ġsl": 4512,
      "pol": 4513,
      "Ġmilitary": 4514,
      "Down": 4515,
      "Head": 4516,
      "Ġecon": 4517,
      "Ġadditional": 4518,
      "Ġsay": 4519,
      "ĠMount": 4520,
      "Rec": 4521,
      "Ġrail": 4522,
      "Template": 4523,
      "Device": 4524,
      "Ġmid": 4525,
      "ugins": 4526,
      "Ġmer": 4527,
      "ounter": 4528,
      "False": 4529,
      "boolean": 4530,
      "Ġfunctions": 4531,
      "Ġmaterial": 4532,
      "Ġexcept": 4533,
      "Ġtransform": 4534,
      "Vector": 4535,
      "Ġfilename": 4536,
      "oggle": 4537,
      "ett": 4538,
      "Parser": 4539,
      "Ġ('": 4540,
      "Ġable": 4541,
      "SET": 4542,
      "win": 4543,
      "`.": 4544,
      "draw": 4545,
      "stack": 4546,
      "Ġsupported": 4547,
      "like": 4548,
      "Ġsurv": 4549,
      "Ġmarried": 4550,
      "ĠBlack": 4551,
      "ena": 4552,
      "Mon": 4553,
      "Core": 4554,
      "Ġrender": 4555,
      "Sign": 4556,
      "Ġfire": 4557,
      "ĠĠĠĠĠĠĠĠĠĠĠĠĠĠĠĠĠĠĠĠ": 4558,
      "âĢľ": 4559,
      "Ġmeet": 4560,
      "widget": 4561,
      "Ġ~": 4562,
      "romise": 4563,
      "Ġcy": 4564,
      "Ġdeg": 4565,
      "ĠBase": 4566,
      "Ġtool": 4567,
      "Ġrights": 4568,
      "Ġhapp": 4569,
      "Ð»": 4570,
      "ĠMap": 4571,
      "wood": 4572,
      "Ġdefe": 4573,
      "ĠOpen": 4574,
      "Ġsit": 4575,
      "DIR": 4576,
      "equals": 4577,
      "session": 4578,
      "Ġdiff": 4579,
      "Ġgrow": 4580,
      "09": 4581,
      "ĠUnion": 4582,
      "Ġrecent": 4583,
      "ĠTime": 4584,
      "second": 4585,
      "Ġprop": 4586,
      "Ġpresident": 4587,
      "bin": 4588,
      "Ġpress": 4589,
      "obile": 4590,
      "Ġcharacters": 4591,
      "Ġwebsite": 4592,
      "Mock": 4593,
      "oted": 4594,
      "Ġlost": 4595,
      "ĠCON": 4596,
      "ĠName": 4597,
      "Ġ{\\": 4598,
      "arter": 4599,
      "ston": 4600,
      "Ġothers": 4601,
      "asket": 4602,
      "after": 4603,
      "plugin": 4604,
      "Ġdescription": 4605,
      "coming": 4606,
      "ĠBuild": 4607,
      "exception": 4608,
      "Ġplan": 4609,
      "Ġsigned": 4610,
      "07": 4611,
      "1995": 4612,
      "Args": 4613,
      "Ġdelete": 4614,
      "Ġfall": 4615,
      "ATA": 4616,
      "Ġexpress": 4617,
      "Ġdi": 4618,
      "Parent": 4619,
      "click": 4620,
      "ĠPublic": 4621,
      "ulated": 4622,
      "Ġunsigned": 4623,
      "rian": 4624,
      "Ġwrote": 4625,
      "ynch": 4626,
      "ashington": 4627,
      "success": 4628,
      "Ġreported": 4629,
      "fa": 4630,
      "weight": 4631,
      "PL": 4632,
      "Pol": 4633,
      "Ġfar": 4634,
      "Ġincludes": 4635,
      "address": 4636,
      "focus": 4637,
      "asons": 4638,
      "Ġcompan": 4639,
      "Ġenvironment": 4640,
      "CA": 4641,
      "Ġsm": 4642,
      "based": 4643,
      "sy": 4644,
      "umni": 4645,
      "alle": 4646,
      "gin": 4647,
      "06": 4648,
      "Ġdraw": 4649,
      "Ġroad": 4650,
      "Serv": 4651,
      "RA": 4652,
      "Ġconvert": 4653,
      "Ġargument": 4654,
      "ĠAustralian": 4655,
      "ĠCenter": 4656,
      "energy": 4657,
      "Ġbar": 4658,
      "ĠLou": 4659,
      "Ġflo": 4660,
      "Rect": 4661,
      "Ġcast": 4662,
      "ĠChina": 4663,
      "----------------------------------------------------------------": 4664,
      "jo": 4665,
      "ĠGermany": 4666,
      "ani": 4667,
      "kind": 4668,
      "ope": 4669,
      "Ġsample": 4670,
      "ams": 4671,
      "ems": 4672,
      "Ġteams": 4673,
      "'>": 4674,
      "^{\\": 4675,
      "Ġaverage": 4676,
      "Ġneg": 4677,
      "imension": 4678,
      "Ġmight": 4679,
      "ĠSim": 4680,
      "ategy": 4681,
      "PRE": 4682,
      "rea": 4683,
      "tee": 4684,
      "'],": 4685,
      "Ġheader": 4686,
      "Boolean": 4687,
      "cr": 4688,
      "Ġsat": 4689,
      "Ġdirector": 4690,
      "ynamic": 4691,
      "stylesheet": 4692,
      "Ġtree": 4693,
      "Ġkeep": 4694,
      "ĠEvent": 4695,
      "Ġselect": 4696,
      "URE": 4697,
      "ĠLaw": 4698,
      "ĠBer": 4699,
      "cret": 4700,
      "rica": 4701,
      "ĠSpec": 4702,
      "Stack": 4703,
      "asc": 4704,
      "ontal": 4705,
      "\"`": 4706,
      "ĠForm": 4707,
      "access": 4708,
      "Ġden": 4709,
      "Ġparty": 4710,
      "NavBar": 4711,
      "SA": 4712,
      "Ġswitch": 4713,
      "Doc": 4714,
      "Ġemploy": 4715,
      "ming": 4716,
      "1994": 4717,
      "Ġareas": 4718,
      "frican": 4719,
      "Ġbytes": 4720,
      "Ġbyte": 4721,
      "Sk": 4722,
      "Ġrespons": 4723,
      "HP": 4724,
      "oe": 4725,
      "Ġwhite": 4726,
      "Ġframe": 4727,
      "ĠArch": 4728,
      "ĠPaul": 4729,
      "1992": 4730,
      "Delete": 4731,
      "shire": 4732,
      "Ġconsider": 4733,
      "Ġcases": 4734,
      "Ġcref": 4735,
      "Ġaway": 4736,
      "Ġinline": 4737,
      "atory": 4738,
      "berg": 4739,
      "enced": 4740,
      "Ġchanged": 4741,
      "Ġallowed": 4742,
      "Ġquest": 4743,
      "ughter": 4744,
      "Ġprofessional": 4745,
      "uses": 4746,
      "ĠMath": 4747,
      "__(": 4748,
      "Ġscript": 4749,
      "ĠAng": 4750,
      "Ġscale": 4751,
      "irit": 4752,
      "ĠFrom": 4753,
      "settings": 4754,
      "omy": 4755,
      "Ġregular": 4756,
      "Definition": 4757,
      "Ġ++": 4758,
      "Num": 4759,
      "ros": 4760,
      "zon": 4761,
      "anks": 4762,
      "inated": 4763,
      "atives": 4764,
      "then": 4765,
      "Writer": 4766,
      "ĠMart": 4767,
      "erry": 4768,
      ";->": 4769,
      "Ġcannot": 4770,
      "Ġfuture": 4771,
      "CD": 4772,
      "Byte": 4773,
      "Ġvoc": 4774,
      "global": 4775,
      "Ġwriting": 4776,
      "cial": 4777,
      "ragment": 4778,
      "Enabled": 4779,
      "Ġrecogn": 4780,
      "typeof": 4781,
      "aa": 4782,
      "Ġstates": 4783,
      "Ġgraph": 4784,
      "ĠFl": 4785,
      "models": 4786,
      "Metadata": 4787,
      "Ġtaken": 4788,
      "ini": 4789,
      "Ġseen": 4790,
      "ĠRegister": 4791,
      ")]": 4792,
      "ario": 4793,
      "ĉĉĊ": 4794,
      "cat": 4795,
      "ional": 4796,
      "Ġprob": 4797,
      ">();": 4798,
      "ĠBG": 4799,
      "ĠassertEquals": 4800,
      "utions": 4801,
      "anagement": 4802,
      "Ġstandard": 4803,
      "Pop": 4804,
      "ĠCompany": 4805,
      "Ġamount": 4806,
      "ooks": 4807,
      "scri": 4808,
      "Ġsugg": 4809,
      "site": 4810,
      "ultural": 4811,
      "56": 4812,
      "ĠRoad": 4813,
      "1993": 4814,
      "range": 4815,
      "ĠStud": 4816,
      "Ġjav": 4817,
      "Ġsongs": 4818,
      "Ġpur": 4819,
      "anced": 4820,
      "oundation": 4821,
      "direct": 4822,
      "Root": 4823,
      "Ġprior": 4824,
      "ĠTrue": 4825,
      "ĠUs": 4826,
      "Ġten": 4827,
      "ĠMusic": 4828,
      "}/": 4829,
      "Ġcomplex": 4830,
      "ĠĠĠĠĠĠĠĠĠĠĠĠĠĠĠĠĠĠĠĠĠĠĠĠĠĠĠĠĠĠĠĠĠĠĠĠĠĠĠ": 4831,
      "ĠST": 4832,
      "Storage": 4833,
      "ĠOper": 4834,
      "ĠJSON": 4835,
      "imated": 4836,
      "Ġwriter": 4837,
      "Ġthough": 4838,
      "ĠDan": 4839,
      "cf": 4840,
      "band": 4841,
      "OK": 4842,
      "Ġconsist": 4843,
      "ixt": 4844,
      "Ġsignificant": 4845,
      "Ġchannel": 4846,
      "framework": 4847,
      "ensive": 4848,
      "ĠDepartment": 4849,
      "ĠMary": 4850,
      "Ġthread": 4851,
      "Ġhard": 4852,
      "Ġmodels": 4853,
      "Ġpain": 4854,
      "Ġ``": 4855,
      "erved": 4856,
      "abs": 4857,
      "ĠDate": 4858,
      "Ġ(*": 4859,
      "ometry": 4860,
      ">.": 4861,
      "Ġforce": 4862,
      "Ġ})": 4863,
      "inese": 4864,
      "ecess": 4865,
      "ilon": 4866,
      "Ġground": 4867,
      "Ġmarket": 4868,
      "Ġtraining": 4869,
      "Ġitems": 4870,
      "Ġsolid": 4871,
      "Ġ<=": 4872,
      "Ġsend": 4873,
      "scale": 4874,
      "ĠDuring": 4875,
      "El": 4876,
      "41": 4877,
      "Ġos": 4878,
      "Fr": 4879,
      "Ġmemory": 4880,
      "ĠDirect": 4881,
      "vector": 4882,
      "}\"": 4883,
      "Ġchurch": 4884,
      "Long": 4885,
      "à¤": 4886,
      "Ġoperations": 4887,
      "iagnost": 4888,
      "Ġlim": 4889,
      "Timeout": 4890,
      "Ġcomplete": 4891,
      "export": 4892,
      "allow": 4893,
      "Use": 4894,
      "ĠPy": 4895,
      "sql": 4896,
      "Debug": 4897,
      "ala": 4898,
      "Ġscreen": 4899,
      "ĠMor": 4900,
      "87": 4901,
      "Ġlower": 4902,
      "Ġens": 4903,
      "Ġeducation": 4904,
      "ĠWork": 4905,
      "Ġsett": 4906,
      "ĠTra": 4907,
      "Database": 4908,
      "ORM": 4909,
      "43": 4910,
      "Ġpast": 4911,
      "Api": 4912,
      "Application": 4913,
      "Ġpack": 4914,
      "Ġsets": 4915,
      "Select": 4916,
      "ĠCam": 4917,
      "Graph": 4918,
      "ĠAcade": 4919,
      "Ġrock": 4920,
      "asy": 4921,
      "Ġlines": 4922,
      "parameter": 4923,
      "split": 4924,
      "ĠLi": 4925,
      "ano": 4926,
      "Ġuses": 4927,
      "ä¸": 4928,
      "Ġbutton": 4929,
      "ĠJe": 4930,
      "Ġhon": 4931,
      "ĠRun": 4932,
      "ĠIO": 4933,
      "modal": 4934,
      "Post": 4935,
      "Ġbetter": 4936,
      "fields": 4937,
      "attribute": 4938,
      "ĠTV": 4939,
      "ĠError": 4940,
      "orizontal": 4941,
      "Has": 4942,
      "Ġautom": 4943,
      "Ġentire": 4944,
      "DD": 4945,
      "Decl": 4946,
      "Ġinflu": 4947,
      "Job": 4948,
      "ĠCourt": 4949,
      "custom": 4950,
      "padding": 4951,
      "{}": 4952,
      "SSERT": 4953,
      "TEST": 4954,
      "Ġmsg": 4955,
      "Ġstage": 4956,
      "*}": 4957,
      "Ġcontract": 4958,
      "Ġdeveloped": 4959,
      "Obj": 4960,
      "ĠMex": 4961,
      "ĠPre": 4962,
      "connect": 4963,
      "Ġrace": 4964,
      "Ġcontinued": 4965,
      "Mar": 4966,
      "chiev": 4967,
      "ĠHall": 4968,
      "component": 4969,
      "Ġrecorded": 4970,
      "ething": 4971,
      "Non": 4972,
      "ĠWashington": 4973,
      "men": 4974,
      "make": 4975,
      "uy": 4976,
      "endar": 4977,
      "Ġ(\\": 4978,
      "Descriptor": 4979,
      "Ġfront": 4980,
      "Ġbeliev": 4981,
      "Rule": 4982,
      "Ġnumer": 4983,
      "quare": 4984,
      "ipe": 4985,
      "Ġoperator": 4986,
      "hood": 4987,
      "Ġalt": 4988,
      "There": 4989,
      "system": 4990,
      "avior": 4991,
      "TS": 4992,
      "Ġthink": 4993,
      "itch": 4994,
      "Ġign": 4995,
      "Ġweb": 4996,
      "insert": 4997,
      "estival": 4998,
      "unity": 4999,
      "WE": 5000,
      "Ġterms": 5001,
      "ĠHen": 5002,
      "Ġ'/": 5003,
      "Ġsort": 5004,
      "ĠBGCOLOR": 5005,
      "Ġindu": 5006,
      "Title": 5007,
      "1991": 5008,
      ".)": 5009,
      "uple": 5010,
      "Do": 5011,
      "Ġperformed": 5012,
      "Ġsoftware": 5013,
      "Scope": 5014,
      "That": 5015,
      "mes": 5016,
      "Fields": 5017,
      "Ġprimary": 5018,
      ";<": 5019,
      "###": 5020,
      "Icon": 5021,
      "ĠDi": 5022,
      "enum": 5023,
      "ĠSociety": 5024,
      "ĠCanadian": 5025,
      "Mark": 5026,
      "aring": 5027,
      "ĠItal": 5028,
      "---": 5029,
      "ĠField": 5030,
      "ĠSam": 5031,
      "panel": 5032,
      "liament": 5033,
      "ĠGames": 5034,
      "skip": 5035,
      "ĠMem": 5036,
      "ĠIsland": 5037,
      "`,": 5038,
      "ĠÂ": 5039,
      "antic": 5040,
      "=#": 5041,
      "ĠValue": 5042,
      "Ins": 5043,
      "ĠVir": 5044,
      "Ġ{};": 5045,
      "Ġkind": 5046,
      "cur": 5047,
      "ensus": 5048,
      "Ġactual": 5049,
      "sigma": 5050,
      "ands": 5051,
      "ĠSome": 5052,
      "Ġgot": 5053,
      "1000": 5054,
      "ĠVer": 5055,
      "Ġconn": 5056,
      "1960": 5057,
      "Results": 5058,
      "Draw": 5059,
      "Ġbi": 5060,
      "oring": 5061,
      "ĠMac": 5062,
      "69": 5063,
      "Ġcompanies": 5064,
      "record": 5065,
      "asketball": 5066,
      "ened": 5067,
      "ĠPress": 5068,
      "ĠCre": 5069,
      "Ġexpression": 5070,
      "Ġalbums": 5071,
      "Ġoffice": 5072,
      "Ġvict": 5073,
      "SION": 5074,
      "double": 5075,
      "Ġlik": 5076,
      "SO": 5077,
      "illa": 5078,
      "Ġelem": 5079,
      "help": 5080,
      "Dr": 5081,
      "Ġpattern": 5082,
      "sey": 5083,
      "DF": 5084,
      "ĠJack": 5085,
      "Ġmatches": 5086,
      "ped": 5087,
      "Ġarchitect": 5088,
      "grid": 5089,
      "ĠHel": 5090,
      "EXT": 5091,
      "ĠTur": 5092,
      "Ġphot": 5093,
      "ĠClub": 5094,
      "Right": 5095,
      "rome": 5096,
      "Ġcred": 5097,
      "Ġdirectory": 5098,
      "ĠInstitute": 5099,
      "Display": 5100,
      "pub": 5101,
      "IR": 5102,
      "Ġviol": 5103,
      "Ġenergy": 5104,
      "imately": 5105,
      "Extension": 5106,
      "Ver": 5107,
      "Ġparts": 5108,
      "mathbf": 5109,
      "Ġgoing": 5110,
      "Ġraise": 5111,
      "Ġben": 5112,
      "MM": 5113,
      "KEY": 5114,
      "ountry": 5115,
      "'))": 5116,
      "Ġneeded": 5117,
      "ATH": 5118,
      "Ġmonths": 5119,
      "cloud": 5120,
      "OUT": 5121,
      "Ġwide": 5122,
      "porary": 5123,
      "Ġloss": 5124,
      "Ġcorrect": 5125,
      "anner": 5126,
      "just": 5127,
      "Ġadministr": 5128,
      "Ġecho": 5129,
      "big": 5130,
      "Ġmount": 5131,
      "delta": 5132,
      "Ðº": 5133,
      "za": 5134,
      "Ġchart": 5135,
      "holder": 5136,
      "Ġmar": 5137,
      "ĠKey": 5138,
      "items": 5139,
      "Ġinstanceof": 5140,
      "Ġ[];": 5141,
      "Symbol": 5142,
      "ĠTown": 5143,
      "Ġdig": 5144,
      "arks": 5145,
      "ĠBest": 5146,
      "Ġfinished": 5147,
      "Ġshown": 5148,
      "aws": 5149,
      "kg": 5150,
      "ĠDel": 5151,
      "'.": 5152,
      "cy": 5153,
      "anger": 5154,
      "ĠCO": 5155,
      "hest": 5156,
      "ĠOff": 5157,
      "arp": 5158,
      "elling": 5159,
      "ĠHistor": 5160,
      "overy": 5161,
      "Go": 5162,
      "TC": 5163,
      "ĠTech": 5164,
      "-->": 5165,
      "icket": 5166,
      "ĠKingdom": 5167,
      "lines": 5168,
      "54": 5169,
      "Ġwife": 5170,
      "Ġmissing": 5171,
      "FAULT": 5172,
      "Ġinc": 5173,
      "51": 5174,
      "Ġconv": 5175,
      "Ġpolicy": 5176,
      "ĠRE": 5177,
      "Xml": 5178,
      "Vert": 5179,
      "adoop": 5180,
      "Ġtransfer": 5181,
      "ao": 5182,
      "udd": 5183,
      "Ġdepart": 5184,
      "ederal": 5185,
      "uit": 5186,
      "panish": 5187,
      "ander": 5188,
      "astic": 5189,
      "tra": 5190,
      "Ġsettings": 5191,
      "89": 5192,
      "You": 5193,
      "Ġdefine": 5194,
      "Ġdat": 5195,
      "support": 5196,
      "ĠTex": 5197,
      "ĠCr": 5198,
      "shot": 5199,
      "Ġcirc": 5200,
      "Ġrelated": 5201,
      "END": 5202,
      "AV": 5203,
      "Queue": 5204,
      "Init": 5205,
      "Ġplatform": 5206,
      "Ġfig": 5207,
      "ĠLoc": 5208,
      "ĠRecords": 5209,
      "keys": 5210,
      "ura": 5211,
      "auto": 5212,
      "Ġassist": 5213,
      "Cre": 5214,
      "_,": 5215,
      "Ġcou": 5216,
      "ira": 5217,
      "white": 5218,
      "Ġhandler": 5219,
      "Ġdirected": 5220,
      "StyleID": 5221,
      "->_": 5222,
      "Ġmanager": 5223,
      "Ġnovel": 5224,
      "Ġproblem": 5225,
      "Ġfunc": 5226,
      "ĠNOT": 5227,
      "ACE": 5228,
      "FC": 5229,
      "Dialog": 5230,
      "Ġcorrespond": 5231,
      "ĠLeg": 5232,
      "coll": 5233,
      "Ġradio": 5234,
      "hs": 5235,
      "Ġtour": 5236,
      "eds": 5237,
      "Ġdatabase": 5238,
      "essor": 5239,
      ")\">": 5240,
      "icate": 5241,
      "Ġvariable": 5242,
      "ĠAlex": 5243,
      "ĠCentral": 5244,
      "ospital": 5245,
      "xx": 5246,
      "figure": 5247,
      "ĠAfrican": 5248,
      "chan": 5249,
      "xis": 5250,
      "Ġleading": 5251,
      "Ġfounded": 5252,
      "conn": 5253,
      "JSON": 5254,
      "register": 5255,
      "Ġwait": 5256,
      "Ġgoal": 5257,
      "ĠCath": 5258,
      "Ñĥ": 5259,
      "Classes": 5260,
      "cmd": 5261,
      "53": 5262,
      "mock": 5263,
      "Ġ),": 5264,
      "Ġrule": 5265,
      "ynchron": 5266,
      "Ġvers": 5267,
      "bour": 5268,
      "Ġdetails": 5269,
      "GE": 5270,
      "pite": 5271,
      "rey": 5272,
      "stry": 5273,
      "ĠĠĠĠĠĠĠĠĠĠĠĠĠĠĠĠĠĠ": 5274,
      "FL": 5275,
      "iform": 5276,
      "^\\": 5277,
      "Ġitself": 5278,
      "NotNull": 5279,
      "AGE": 5280,
      "ĠUK": 5281,
      "ĠJapanese": 5282,
      "Ġ\"/": 5283,
      "ĠURL": 5284,
      "ora": 5285,
      "MD": 5286,
      "ircle": 5287,
      "ĠThomas": 5288,
      "las": 5289,
      "Ġeditor": 5290,
      "footer": 5291,
      "Ġflag": 5292,
      "\">&": 5293,
      "Ġsystems": 5294,
      "oon": 5295,
      "52": 5296,
      "Ġaccording": 5297,
      "Ġapplic": 5298,
      "Ġelected": 5299,
      "ĠYear": 5300,
      "ĠBay": 5301,
      "Ġfootballers": 5302,
      "inline": 5303,
      "olver": 5304,
      "Ġcandid": 5305,
      "Ġdoesn": 5306,
      "Ġappeared": 5307,
      "SL": 5308,
      "addr": 5309,
      "ĠAfrica": 5310,
      "impl": 5311,
      "Ġjson": 5312,
      "86": 5313,
      "Ġleague": 5314,
      "initial": 5315,
      "Ġsure": 5316,
      "Changed": 5317,
      "Ġplaying": 5318,
      "ĠFunction": 5319,
      "Ġask": 5320,
      "ĠHTML": 5321,
      "Iterator": 5322,
      "lyph": 5323,
      "Ġconstruct": 5324,
      "uated": 5325,
      "Ġrank": 5326,
      "Ġclosed": 5327,
      "Ġmodern": 5328,
      "Ġtro": 5329,
      "ĠDefault": 5330,
      "ĠRussian": 5331,
      "Ġtreat": 5332,
      "uate": 5333,
      "Only": 5334,
      "Send": 5335,
      "*)": 5336,
      "Lock": 5337,
      "gorithm": 5338,
      "Ġexisting": 5339,
      "ancis": 5340,
      "1989": 5341,
      "Ġfollowed": 5342,
      "Msg": 5343,
      "fil": 5344,
      "tion": 5345,
      "rav": 5346,
      "ĠMat": 5347,
      "ĠRad": 5348,
      "Ġconditions": 5349,
      "Ġsimple": 5350,
      "Ġfriend": 5351,
      "CTION": 5352,
      "ĠJer": 5353,
      "FILE": 5354,
      "etime": 5355,
      "ictor": 5356,
      "caption": 5357,
      "herit": 5358,
      "Ġhimself": 5359,
      "ĠGreen": 5360,
      "margin": 5361,
      "jection": 5362,
      "Ġword": 5363,
      "gment": 5364,
      "oma": 5365,
      "lers": 5366,
      "Ġdeal": 5367,
      "Ac": 5368,
      "Ġappointed": 5369,
      "times": 5370,
      "application": 5371,
      "Each": 5372,
      "aches": 5373,
      "ncy": 5374,
      "HTML": 5375,
      "ĠCong": 5376,
      "Ġjoin": 5377,
      "ournament": 5378,
      "ĉĠĠĠĠĠĠĠ": 5379,
      "Ġbind": 5380,
      "CS": 5381,
      "writ": 5382,
      "ĠAssembly": 5383,
      "ĠMiss": 5384,
      "ĠMer": 5385,
      "connection": 5386,
      "ĠUse": 5387,
      "Red": 5388,
      "ĠAut": 5389,
      "toggle": 5390,
      "When": 5391,
      "ansparent": 5392,
      "ĠĠĠĠĠĠĠĠĠĠĠĠĠĠĠĠĠĠĠĠĠĠĠĠĠ": 5393,
      "pring": 5394,
      "printf": 5395,
      "ucket": 5396,
      "Ġformed": 5397,
      "1988": 5398,
      "Ġkm": 5399,
      "400": 5400,
      "Ġselection": 5401,
      "Custom": 5402,
      "dependency": 5403,
      "ĠMuseum": 5404,
      "scroll": 5405,
      "Ġstep": 5406,
      "Ġwhose": 5407,
      "apply": 5408,
      "Ġsetting": 5409,
      "DL": 5410,
      "isk": 5411,
      "ĠRail": 5412,
      "Ġcomment": 5413,
      "Channel": 5414,
      "unsigned": 5415,
      "Ġcampaign": 5416,
      "Internal": 5417,
      "Delta": 5418,
      "Ġserial": 5419,
      "cheme": 5420,
      "Tests": 5421,
      "ĠScott": 5422,
      "ĠRead": 5423,
      "symbol": 5424,
      "Active": 5425,
      "annotation": 5426,
      "protobuf": 5427,
      "Ġoppos": 5428,
      "ĠAcademy": 5429,
      "\\\"": 5430,
      "ĠDay": 5431,
      "mission": 5432,
      "^{-": 5433,
      "Ġexpand": 5434,
      "alled": 5435,
      "Ġnom": 5436,
      "Ġmonth": 5437,
      "Ġconduct": 5438,
      "Ġalumni": 5439,
      "Fil": 5440,
      "Selector": 5441,
      "cons": 5442,
      "Ġrate": 5443,
      "Ġyet": 5444,
      "Ġsuff": 5445,
      "anguage": 5446,
      "Ġsil": 5447,
      "Ġreason": 5448,
      "Ġmock": 5449,
      "actor": 5450,
      "Ġrather": 5451,
      "uge": 5452,
      "bon": 5453,
      "Ġapprox": 5454,
      "sumer": 5455,
      "ĠOther": 5456,
      "Ġbirth": 5457,
      "Ġfav": 5458,
      "+\\": 5459,
      "elli": 5460,
      "Ġill": 5461,
      "ĠZeal": 5462,
      "ĠItalian": 5463,
      "ĠMa": 5464,
      "ĠSal": 5465,
      "itude": 5466,
      "legal": 5467,
      "edit": 5468,
      "Ġroute": 5469,
      "reater": 5470,
      "ĠMad": 5471,
      "Ġnor": 5472,
      "cert": 5473,
      "ĠAL": 5474,
      "thlet": 5475,
      "ĠPat": 5476,
      "Ret": 5477,
      "Ġhtml": 5478,
      "Ġpersonal": 5479,
      "_->": 5480,
      "CHE": 5481,
      "Ġcut": 5482,
      "Ġlittle": 5483,
      "edy": 5484,
      "Ġconnect": 5485,
      "Ġconstruction": 5486,
      "Ġextra": 5487,
      "Ġmother": 5488,
      "ensity": 5489,
      "ĠMont": 5490,
      "ĠLO": 5491,
      "Ġfrequ": 5492,
      "Ġhigher": 5493,
      "Ġfight": 5494,
      "real": 5495,
      "partial": 5496,
      "assertEqual": 5497,
      "Ġschools": 5498,
      "ĠSummer": 5499,
      "names": 5500,
      "Initial": 5501,
      "Te": 5502,
      "Ġcome": 5503,
      "mas": 5504,
      "high": 5505,
      "Ġsports": 5506,
      "ĠZealand": 5507,
      "Ġcontribut": 5508,
      "ĠGold": 5509,
      ".__": 5510,
      "wrap": 5511,
      "ITY": 5512,
      "Ġpotential": 5513,
      "Ġnecess": 5514,
      "Ġnet": 5515,
      "Ġgive": 5516,
      "gu": 5517,
      "Ġtests": 5518,
      "Ġinvoke": 5519,
      "comment": 5520,
      "Ġcontain": 5521,
      "ĠJew": 5522,
      "ĠWhite": 5523,
      "fill": 5524,
      "Ġerrors": 5525,
      "Ġlibrary": 5526,
      "ĠâĢĺ": 5527,
      "entity": 5528,
      "Ġtransport": 5529,
      "ĠProv": 5530,
      "ln": 5531,
      "ĠWestern": 5532,
      "Ġrelative": 5533,
      "Ġkeys": 5534,
      "hadoop": 5535,
      "alls": 5536,
      "TEX": 5537,
      "Ġeight": 5538,
      "ĠCarol": 5539,
      "63": 5540,
      "ĠJust": 5541,
      "ernel": 5542,
      "ĠTor": 5543,
      "ilation": 5544,
      "Ġdesigned": 5545,
      "Ġdiscuss": 5546,
      "Windows": 5547,
      "apse": 5548,
      "ĠLong": 5549,
      "rael": 5550,
      "1987": 5551,
      "Ġmot": 5552,
      "stop": 5553,
      "present": 5554,
      "////////////////////////////////": 5555,
      "oms": 5556,
      "Ġstack": 5557,
      "ĠMichael": 5558,
      "iqu": 5559,
      "reland": 5560,
      "Ġhous": 5561,
      "Ġguitar": 5562,
      "azine": 5563,
      "EM": 5564,
      "Ġupon": 5565,
      "ĠDet": 5566,
      "=\"/": 5567,
      "Ġliving": 5568,
      "Ġunique": 5569,
      "gamma": 5570,
      "och": 5571,
      "Ã³n": 5572,
      "Runtime": 5573,
      "Ġissue": 5574,
      "Ġeval": 5575,
      "ĠOver": 5576,
      "ĠFootball": 5577,
      ";\"": 5578,
      "mi": 5579,
      "Ġcommit": 5580,
      "ĠCommand": 5581,
      "ĠOlympics": 5582,
      "Ġlock": 5583,
      "Ġprevent": 5584,
      "Ġunits": 5585,
      "PR": 5586,
      "Ġste": 5587,
      "Events": 5588,
      "Click": 5589,
      "assertEquals": 5590,
      "ĠVirgin": 5591,
      "Ġoutside": 5592,
      "ĠSing": 5593,
      "ĠTom": 5594,
      "admin": 5595,
      "Network": 5596,
      "force": 5597,
      "Ġreplace": 5598,
      "Ġdb": 5599,
      "Ġalthough": 5600,
      "ili": 5601,
      "bootstrap": 5602,
      "Ġachiev": 5603,
      "Tab": 5604,
      "va": 5605,
      "Ne": 5606,
      "ĠCons": 5607,
      "Ġotherwise": 5608,
      "ĠChinese": 5609,
      "STAT": 5610,
      "ĠLouis": 5611,
      "97": 5612,
      "oment": 5613,
      "Ġreplaced": 5614,
      "Ġcondition": 5615,
      "Package": 5616,
      "Pattern": 5617,
      "scal": 5618,
      "Ġmus": 5619,
      "Br": 5620,
      "Ġdestroy": 5621,
      "'re": 5622,
      "azz": 5623,
      "ĠDev": 5624,
      "Ġdistributed": 5625,
      "otes": 5626,
      "Ġsym": 5627,
      "Ġnodes": 5628,
      "ĠCharles": 5629,
      "quires": 5630,
      "Items": 5631,
      "Ġcontaining": 5632,
      "arian": 5633,
      "OF": 5634,
      "fony": 5635,
      "isl": 5636,
      "ircraft": 5637,
      "ĠBen": 5638,
      ")))": 5639,
      "virtual": 5640,
      "Volume": 5641,
      "(!": 5642,
      "Func": 5643,
      "\")]": 5644,
      "rial": 5645,
      "Ġeff": 5646,
      "Ġcertain": 5647,
      "Ġnative": 5648,
      "Ġvisit": 5649,
      "Ġresid": 5650,
      "Pool": 5651,
      "ĠTexas": 5652,
      "[:": 5653,
      "Ġprovides": 5654,
      "radius": 5655,
      "strict": 5656,
      "Bl": 5657,
      "Own": 5658,
      "PORT": 5659,
      "pute": 5660,
      "Ġdaughter": 5661,
      "ĠEar": 5662,
      "ĠFrancis": 5663,
      "ignment": 5664,
      "Person": 5665,
      "Ġremoved": 5666,
      "Ġregard": 5667,
      "ipeline": 5668,
      "WS": 5669,
      "istered": 5670,
      "ĠKore": 5671,
      "ĠChristian": 5672,
      "orph": 5673,
      "={": 5674,
      "Ġtransaction": 5675,
      "save": 5676,
      "rho": 5677,
      "gan": 5678,
      "ymfony": 5679,
      "}{\\": 5680,
      "free": 5681,
      "ving": 5682,
      "ĠInitial": 5683,
      "ette": 5684,
      "istan": 5685,
      "ĉĠĠĠĠĠ": 5686,
      "ĠSuper": 5687,
      "Ġrev": 5688,
      "heast": 5689,
      "Ġplaces": 5690,
      "amera": 5691,
      "ancel": 5692,
      "Ã§": 5693,
      "ki": 5694,
      "Ġreading": 5695,
      "ĠUser": 5696,
      "_(": 5697,
      "ĠMinister": 5698,
      "blockList": 5699,
      "important": 5700,
      "Members": 5701,
      "iences": 5702,
      "Ġextension": 5703,
      "Ġprogress": 5704,
      "Ġbooks": 5705,
      "=\"../../../": 5706,
      "points": 5707,
      "ĠOrder": 5708,
      "Ġcoach": 5709,
      "flags": 5710,
      "aved": 5711,
      "ades": 5712,
      "lide": 5713,
      "300": 5714,
      "plements": 5715,
      "Ġdam": 5716,
      "ĠChe": 5717,
      "Ġpointer": 5718,
      "ufact": 5719,
      "pool": 5720,
      "PA": 5721,
      "Ġdirectly": 5722,
      "Ġgave": 5723,
      "Ġtypeof": 5724,
      "Struct": 5725,
      "ĠGreat": 5726,
      "ducation": 5727,
      "utor": 5728,
      "sock": 5729,
      "1986": 5730,
      "bytes": 5731,
      "shape": 5732,
      "Ġpackage": 5733,
      "nu": 5734,
      "people": 5735,
      "atin": 5736,
      "Ġ(_": 5737,
      "Ġlargest": 5738,
      "ĠCopy": 5739,
      "Proxy": 5740,
      "ĠGets": 5741,
      "Ġfamil": 5742,
      "primary": 5743,
      "Ġhom": 5744,
      "Ġmakes": 5745,
      "SIZE": 5746,
      "Ġrandom": 5747,
      "Ġjournal": 5748,
      "ĠNode": 5749,
      "Attributes": 5750,
      "Ġattr": 5751,
      "atalog": 5752,
      "95": 5753,
      "arily": 5754,
      "Annot": 5755,
      "Ġavoid": 5756,
      "ĠForce": 5757,
      "tip": 5758,
      "Ġepisode": 5759,
      "iterator": 5760,
      "Ġexists": 5761,
      "UID": 5762,
      "ĠMethod": 5763,
      "wide": 5764,
      "overed": 5765,
      "TED": 5766,
      "plugins": 5767,
      "1984": 5768,
      "pare": 5769,
      "category": 5770,
      "ĠHand": 5771,
      "ĠThat": 5772,
      "BUG": 5773,
      "ĠMod": 5774,
      "Logger": 5775,
      "ĠFore": 5776,
      "full": 5777,
      "Ġrelationship": 5778,
      "lam": 5779,
      "Ġrot": 5780,
      "dropdown": 5781,
      "Ġusually": 5782,
      "Dist": 5783,
      "Ġ\"\"": 5784,
      "Ġstrict": 5785,
      "Ġboard": 5786,
      "Ġctx": 5787,
      "ĠPri": 5788,
      "Ġsound": 5789,
      "Account": 5790,
      "atre": 5791,
      "ROM": 5792,
      "Year": 5793,
      "ifest": 5794,
      "Ġjavax": 5795,
      "Float": 5796,
      "lev": 5797,
      "96": 5798,
      "Ġmatrix": 5799,
      "ifying": 5800,
      "++;": 5801,
      "password": 5802,
      "ita": 5803,
      "theta": 5804,
      "Ġstations": 5805,
      "Ġgenerated": 5806,
      "region": 5807,
      "Ġkilled": 5808,
      "oul": 5809,
      "ĠHistory": 5810,
      "ĠMus": 5811,
      "ja": 5812,
      "Ġbuildings": 5813,
      "Flags": 5814,
      "yes": 5815,
      "Ġenough": 5816,
      "Ġnight": 5817,
      "Ġthroughout": 5818,
      "Ġprote": 5819,
      "elt": 5820,
      "Sw": 5821,
      "ye": 5822,
      "Auth": 5823,
      "Ġissues": 5824,
      "Ġcho": 5825,
      "Ġpreviously": 5826,
      "aset": 5827,
      "ĠOffic": 5828,
      "Ġclasses": 5829,
      "sets": 5830,
      "izations": 5831,
      "Fail": 5832,
      "$$": 5833,
      "\",\"": 5834,
      "Ġhit": 5835,
      "Ġintroduced": 5836,
      "My": 5837,
      "1985": 5838,
      "ĠGrand": 5839,
      "ĠFI": 5840,
      "Security": 5841,
      "cut": 5842,
      "normal": 5843,
      "ĠJose": 5844,
      "Ġfemale": 5845,
      "Ġsymbol": 5846,
      "Ġorigin": 5847,
      "ĠSmith": 5848,
      "Ġscal": 5849,
      "ĠVAL": 5850,
      "hentication": 5851,
      "Edit": 5852,
      "ims": 5853,
      "selected": 5854,
      "ifies": 5855,
      "Ġship": 5856,
      "Ġtakes": 5857,
      "LOG": 5858,
      "Ġtit": 5859,
      "throws": 5860,
      "car": 5861,
      "chedule": 5862,
      "bra": 5863,
      "uest": 5864,
      "Member": 5865,
      "]{": 5866,
      "Framework": 5867,
      "Bit": 5868,
      "mail": 5869,
      "Show": 5870,
      "ĠTem": 5871,
      "ĠAccording": 5872,
      "$(": 5873,
      "MENT": 5874,
      "MAX": 5875,
      "lias": 5876,
      "Ġregister": 5877,
      "ĠVol": 5878,
      "Ġdegree": 5879,
      "Ġcountries": 5880,
      "Ġmedal": 5881,
      "ĠWhile": 5882,
      "het": 5883,
      "PO": 5884,
      "ĠId": 5885,
      "tmp": 5886,
      "ĠFe": 5887,
      "Close": 5888,
      "Ø§": 5889,
      "arned": 5890,
      "ĠExt": 5891,
      "illing": 5892,
      ")));": 5893,
      "ĠHow": 5894,
      "Auto": 5895,
      "allery": 5896,
      "1950": 5897,
      "Ġneeds": 5898,
      "Ġutil": 5899,
      ",âĢĿ": 5900,
      "Ġcop": 5901,
      "icago": 5902,
      "ixel": 5903,
      "ĠMore": 5904,
      "Ġjud": 5905,
      "spring": 5906,
      "events": 5907,
      "Ġinvolved": 5908,
      "Ġpolice": 5909,
      "Ġsubsequ": 5910,
      "Perm": 5911,
      "Ġsomething": 5912,
      "Ġartists": 5913,
      "Ġcentral": 5914,
      "Ġinside": 5915,
      "ĠFrank": 5916,
      "62": 5917,
      "Ġconsole": 5918,
      "Ġneigh": 5919,
      "Feature": 5920,
      "ĠPost": 5921,
      "move": 5922,
      "mutable": 5923,
      "Ã¨": 5924,
      "ĠMel": 5925,
      "]]": 5926,
      "Prop": 5927,
      ")\"": 5928,
      "Ġmaximum": 5929,
      "61": 5930,
      "Man": 5931,
      "JECT": 5932,
      "Ġforces": 5933,
      "ells": 5934,
      "mathrm": 5935,
      "ĠPeter": 5936,
      "email": 5937,
      "Am": 5938,
      "Ġreq": 5939,
      "Second": 5940,
      "98": 5941,
      "tau": 5942,
      "ĠDemocr": 5943,
      "aled": 5944,
      "coin": 5945,
      "Var": 5946,
      "utf": 5947,
      "icture": 5948,
      "Ġbuilder": 5949,
      "uler": 5950,
      "Pod": 5951,
      "Media": 5952,
      "Ġimmedi": 5953,
      "()));": 5954,
      "PAR": 5955,
      "LS": 5956,
      "NG": 5957,
      "Ġfinally": 5958,
      "idae": 5959,
      "ein": 5960,
      "Transaction": 5961,
      "ockey": 5962,
      "Directory": 5963,
      "ango": 5964,
      "ĠTODO": 5965,
      "Rest": 5966,
      "atio": 5967,
      "Ġlisted": 5968,
      "Ġmunicipal": 5969,
      "Ġio": 5970,
      "Ġconstit": 5971,
      "Transform": 5972,
      "Ġseven": 5973,
      "Ġrelig": 5974,
      "ulate": 5975,
      "Cond": 5976,
      "ĠParis": 5977,
      "pg": 5978,
      "liance": 5979,
      "properties": 5980,
      "Memory": 5981,
      "ĠPo": 5982,
      "km": 5983,
      "Keys": 5984,
      "ĠCatholic": 5985,
      "Ġpercent": 5986,
      "Ġinstit": 5987,
      "family": 5988,
      "solute": 5989,
      "Ġsen": 5990,
      "PT": 5991,
      "Loader": 5992,
      "Ġlonger": 5993,
      "Ġloc": 5994,
      "She": 5995,
      "short": 5996,
      "Ġdistribution": 5997,
      "Ġsus": 5998,
      "thread": 5999,
      "ongs": 6000,
      "Ġconstant": 6001,
      "NE": 6002,
      "term": 6003,
      "Ġimplementation": 6004,
      "uby": 6005,
      "ĠFlor": 6006,
      "VERSION": 6007,
      "Ġhar": 6008,
      "anta": 6009,
      "Ġinj": 6010,
      "Ġvector": 6011,
      "cpp": 6012,
      "ĠSur": 6013,
      "uan": 6014,
      "(-": 6015,
      "ĠFalse": 6016,
      "Ġtax": 6017,
      "install": 6018,
      "bound": 6019,
      "Ġsequence": 6020,
      "Ġcourse": 6021,
      "ĠEmp": 6022,
      "ĠĠĠĠĠĠĊ": 6023,
      "each": 6024,
      "well": 6025,
      "78": 6026,
      "anning": 6027,
      "1983": 6028,
      "ĠVersion": 6029,
      "Tra": 6030,
      "Ġng": 6031,
      "ificate": 6032,
      "Ġcourt": 6033,
      "icks": 6034,
      "Ġsecurity": 6035,
      "Before": 6036,
      "GB": 6037,
      "bes": 6038,
      "product": 6039,
      "ledge": 6040,
      "master": 6041,
      "Ap": 6042,
      "Ġallows": 6043,
      "Constraint": 6044,
      "Namespace": 6045,
      "ADD": 6046,
      "ĠGoogle": 6047,
      "ĠNote": 6048,
      "handler": 6049,
      "Parse": 6050,
      "Other": 6051,
      "ĠSpanish": 6052,
      "ĠLos": 6053,
      "angular": 6054,
      "ares": 6055,
      "enter": 6056,
      "nel": 6057,
      "ĠĠĠĠĠĠĠĠĠĠĠĠĠĠĠĠĠĠĠĠĠĠĠĠ": 6058,
      "ĠSecond": 6059,
      "stat": 6060,
      "Ġcause": 6061,
      "olf": 6062,
      "iki": 6063,
      "inct": 6064,
      "ĠCommit": 6065,
      "ĠTask": 6066,
      "Ġruns": 6067,
      "razil": 6068,
      "theme": 6069,
      "Ġwords": 6070,
      "ores": 6071,
      "iller": 6072,
      "Ġalmost": 6073,
      "Plugin": 6074,
      "irl": 6075,
      "very": 6076,
      "metadata": 6077,
      "aration": 6078,
      "napshot": 6079,
      "Ġer": 6080,
      "brief": 6081,
      "Ð°Ð": 6082,
      ".*": 6083,
      "Ġinvalid": 6084,
      "ĠAN": 6085,
      "webpack": 6086,
      "Ġmanagement": 6087,
      "ali": 6088,
      "Ġeffort": 6089,
      "itting": 6090,
      "Ġlib": 6091,
      "(){": 6092,
      "ĠGeorg": 6093,
      "ĠjQuery": 6094,
      "igan": 6095,
      "Net": 6096,
      "road": 6097,
      "step": 6098,
      "Ġbehind": 6099,
      "Elements": 6100,
      "ĠCall": 6101,
      "Ġcivil": 6102,
      "ĠTechn": 6103,
      "Ġapply": 6104,
      "Ġstaff": 6105,
      "Editor": 6106,
      "ĠIreland": 6107,
      "ĠProject": 6108,
      "Ġoriginally": 6109,
      "Ġdirection": 6110,
      "keyword": 6111,
      "ylv": 6112,
      "ĠVictor": 6113,
      "Conf": 6114,
      "Ġscore": 6115,
      "orse": 6116,
      "Ġstarting": 6117,
      "ĠLine": 6118,
      "uous": 6119,
      "icens": 6120,
      "rb": 6121,
      "Ġstar": 6122,
      "ĠLake": 6123,
      "isf": 6124,
      "evelop": 6125,
      "xi": 6126,
      "ĠAust": 6127,
      "ARY": 6128,
      "ĠSeries": 6129,
      "ĠMass": 6130,
      "peat": 6131,
      "sim": 6132,
      "Art": 6133,
      "Ġattributes": 6134,
      "ĠBig": 6135,
      "anned": 6136,
      "Ġrules": 6137,
      "PS": 6138,
      "none": 6139,
      "ĠRichard": 6140,
      "Ġmaint": 6141,
      "Ġvolume": 6142,
      "Ġreached": 6143,
      "Ġcluster": 6144,
      "yr": 6145,
      "Sum": 6146,
      "ola": 6147,
      "Ġtaking": 6148,
      "bal": 6149,
      "1982": 6150,
      "ĠText": 6151,
      "scription": 6152,
      "@\"": 6153,
      "Ġtravel": 6154,
      "Ġfn": 6155,
      "ometimes": 6156,
      "ĠCamp": 6157,
      "Ġfollows": 6158,
      "BR": 6159,
      "Named": 6160,
      "ĠGod": 6161,
      "nov": 6162,
      "note": 6163,
      "ancial": 6164,
      "Ġanalysis": 6165,
      "schema": 6166,
      "Ġplant": 6167,
      "Ġbrother": 6168,
      "manager": 6169,
      "ĠOption": 6170,
      "ĠFilm": 6171,
      "Ġprinc": 6172,
      "TABLE": 6173,
      "ĠCast": 6174,
      "()).": 6175,
      "ĠNews": 6176,
      "ĠBill": 6177,
      "identifier": 6178,
      "Ġface": 6179,
      "ĠPenn": 6180,
      "ami": 6181,
      "eries": 6182,
      "ĠĠĠĠĠĠĠĠĠĠĠĠĠĠĠĠĠĠĠĠĠĠ": 6183,
      "pecially": 6184,
      ":#": 6185,
      "Comple": 6186,
      "decl": 6187,
      "[$": 6188,
      "Ġful": 6189,
      "ishop": 6190,
      "mercial": 6191,
      "ĠPan": 6192,
      "Ġgold": 6193,
      "Ġzero": 6194,
      "ĠTri": 6195,
      "Ġbal": 6196,
      "Ġbroadcast": 6197,
      "urt": 6198,
      "icated": 6199,
      "$-": 6200,
      "stant": 6201,
      "screen": 6202,
      "ĠScience": 6203,
      "Ġlove": 6204,
      "oviet": 6205,
      "Found": 6206,
      "Ġbottom": 6207,
      "Ġthought": 6208,
      "Ġnatural": 6209,
      "ĠFre": 6210,
      "argument": 6211,
      "Ġusers": 6212,
      "256": 6213,
      "Ġcalls": 6214,
      "reset": 6215,
      "Äģ": 6216,
      "vention": 6217,
      "ĠSince": 6218,
      "Ġsaw": 6219,
      "controller": 6220,
      "Ñı": 6221,
      "&#": 6222,
      "Ġresources": 6223,
      "Attr": 6224,
      "ker": 6225,
      "Ġindustry": 6226,
      "profile": 6227,
      "utch": 6228,
      "Ġnumbers": 6229,
      "Me": 6230,
      "Main": 6231,
      "Matrix": 6232,
      "ĠRock": 6233,
      "ĠWomen": 6234,
      "ky": 6235,
      "typedef": 6236,
      "ĠIP": 6237,
      "Ġeventually": 6238,
      "1979": 6239,
      "Rece": 6240,
      "ĠCode": 6241,
      "Ġdistance": 6242,
      "named": 6243,
      "Ġreally": 6244,
      "ĠIll": 6245,
      "Notes": 6246,
      "Ġsex": 6247,
      "Ġshape": 6248,
      "Ġfood": 6249,
      "ils": 6250,
      "Ġpy": 6251,
      "Ġartist": 6252,
      "Ġbeginning": 6253,
      "XML": 6254,
      "Ġreve": 6255,
      "ĠConfig": 6256,
      "Ġplaced": 6257,
      "Ġthus": 6258,
      "txt": 6259,
      "Ġpolitician": 6260,
      "Ġmiddle": 6261,
      "Props": 6262,
      "ĠHenry": 6263,
      "Ġdem": 6264,
      "ĠNO": 6265,
      "Grid": 6266,
      "den": 6267,
      "Cle": 6268,
      "Pointer": 6269,
      "desc": 6270,
      "Ġpod": 6271,
      "ĠCommission": 6272,
      "Inv": 6273,
      "Ġquant": 6274,
      "under": 6275,
      "Care": 6276,
      "Ġcalcul": 6277,
      "Ġclean": 6278,
      "bad": 6279,
      "85": 6280,
      "Route": 6281,
      "Panel": 6282,
      "Protocol": 6283,
      "Ġbad": 6284,
      "duction": 6285,
      "chi": 6286,
      "mitted": 6287,
      "Ġtypename": 6288,
      "Generic": 6289,
      "Ġdu": 6290,
      "ighest": 6291,
      "isters": 6292,
      "âĢ¦": 6293,
      "super": 6294,
      "ci": 6295,
      "ĠĠĠĠĠĠĠĠĠĠĠĠĠĠĠĠĠĠĠĠĠĠĠĠĠĠ": 6296,
      "Ġ%}": 6297,
      "ĠMax": 6298,
      "Ġfeatured": 6299,
      "ĠIOException": 6300,
      "Ġstorage": 6301,
      "icult": 6302,
      "Ġtab": 6303,
      "ĠResearch": 6304,
      "Ġforward": 6305,
      "ĠIsrael": 6306,
      "Play": 6307,
      "Ġbegin": 6308,
      "eve": 6309,
      "which": 6310,
      "Ġsave": 6311,
      "olk": 6312,
      "Files": 6313,
      "ĠAv": 6314,
      "ĠThen": 6315,
      "Enum": 6316,
      "NULL": 6317,
      "leq": 6318,
      "Nodes": 6319,
      "Early": 6320,
      "Ġremained": 6321,
      "hy": 6322,
      "Socket": 6323,
      "Cast": 6324,
      "ById": 6325,
      "Pack": 6326,
      "Any": 6327,
      "ĠHill": 6328,
      "fail": 6329,
      ";/": 6330,
      "LIC": 6331,
      "Ġasync": 6332,
      "vidence": 6333,
      "fficient": 6334,
      "ĠKe": 6335,
      "ĠBO": 6336,
      "hidden": 6337,
      "Ġstated": 6338,
      "'])": 6339,
      "iro": 6340,
      "Ġthings": 6341,
      "Ġinsert": 6342,
      "Wrapper": 6343,
      "ĠVirginia": 6344,
      "lood": 6345,
      "ato": 6346,
      "SY": 6347,
      "comes": 6348,
      "Ġaud": 6349,
      "|\\": 6350,
      "RAN": 6351,
      "job": 6352,
      "ToString": 6353,
      "Profile": 6354,
      "forms": 6355,
      "ixture": 6356,
      "Ġconcern": 6357,
      "Character": 6358,
      "Ġnews": 6359,
      "sq": 6360,
      "\"/": 6361,
      "ĠFin": 6362,
      "standing": 6363,
      "anging": 6364,
      "alloc": 6365,
      "Ġaircraft": 6366,
      "CHECK": 6367,
      "Scroll": 6368,
      "UTF": 6369,
      "Av": 6370,
      "Ġimm": 6371,
      "Ġassum": 6372,
      "ko": 6373,
      "ĠSwed": 6374,
      "numer": 6375,
      "area": 6376,
      "ĠDu": 6377,
      "VID": 6378,
      "ĠInc": 6379,
      "Ġawarded": 6380,
      "Register": 6381,
      "har": 6382,
      "Ġshared": 6383,
      "Ġtheory": 6384,
      "nam": 6385,
      "Ġ${": 6386,
      "Äĩ": 6387,
      "stra": 6388,
      "Ġpositive": 6389,
      "Collections": 6390,
      "Ġmeasure": 6391,
      "Ġfourth": 6392,
      "Ġcapital": 6393,
      "Expr": 6394,
      "ONE": 6395,
      "Ġindependent": 6396,
      "Depend": 6397,
      "Ġip": 6398,
      "Ġestablishments": 6399,
      "Ġenabled": 6400,
      "LAG": 6401,
      "Ġpan": 6402,
      "coq": 6403,
      "andra": 6404,
      "prefix": 6405,
      "1981": 6406,
      ")),": 6407,
      "Adapter": 6408,
      "iece": 6409,
      "ĠRel": 6410,
      "=\"@": 6411,
      "Ġowner": 6412,
      "ifications": 6413,
      "leep": 6414,
      "ening": 6415,
      "ĠMil": 6416,
      "props": 6417,
      "Remove": 6418,
      "Ġaltern": 6419,
      "ella": 6420,
      "Ġrg": 6421,
      "Find": 6422,
      "Ġsurface": 6423,
      "Ġsuggest": 6424,
      "PATH": 6425,
      "Ġimplements": 6426,
      "sample": 6427,
      "Term": 6428,
      "entials": 6429,
      "Ġoptional": 6430,
      "Ġculture": 6431,
      "Ġfinish": 6432,
      "1976": 6433,
      "çļ": 6434,
      "Ġentity": 6435,
      "Ġstri": 6436,
      ".'": 6437,
      "inv": 6438,
      "DC": 6439,
      "Ġpaper": 6440,
      "....": 6441,
      "1972": 6442,
      "Ġexperience": 6443,
      "Ġwallet": 6444,
      "ĠChicago": 6445,
      "abit": 6446,
      "geles": 6447,
      "READ": 6448,
      "1978": 6449,
      "cb": 6450,
      "INFO": 6451,
      "Ġweight": 6452,
      "ping": 6453,
      "rot": 6454,
      "Ġleader": 6455,
      "ffff": 6456,
      "ito": 6457,
      "Ġchall": 6458,
      "ĠProf": 6459,
      "Ġauth": 6460,
      "para": 6461,
      "Sync": 6462,
      "more": 6463,
      "security": 6464,
      "Ġprofile": 6465,
      "SER": 6466,
      "Ġhel": 6467,
      "Ġgrant": 6468,
      "picker": 6469,
      "ĠHealth": 6470,
      "usion": 6471,
      "çļĦ": 6472,
      "iger": 6473,
      "lie": 6474,
      "Ġscored": 6475,
      "Ġcollege": 6476,
      "Activity": 6477,
      "peed": 6478,
      "Region": 6479,
      "Ġveh": 6480,
      "Ġactually": 6481,
      "contains": 6482,
      "Ġcompetition": 6483,
      "tools": 6484,
      "IB": 6485,
      "trigger": 6486,
      "ĠWindow": 6487,
      "Ġespecially": 6488,
      "Print": 6489,
      "modules": 6490,
      "Ġ$.": 6491,
      "Ġicon": 6492,
      "ifdef": 6493,
      "inet": 6494,
      "]:": 6495,
      "ingu": 6496,
      "SQL": 6497,
      "Ġsecret": 6498,
      "}(\\": 6499,
      "======": 6500,
      "Ġord": 6501,
      "Ġetc": 6502,
      "Ġexhib": 6503,
      "watch": 6504,
      "WA": 6505,
      "ugby": 6506,
      "Syntax": 6507,
      "Ġteach": 6508,
      "Full": 6509,
      "ror": 6510,
      "ĠAngeles": 6511,
      "ĠChampionships": 6512,
      "Ġmoney": 6513,
      "pid": 6514,
      "bridge": 6515,
      "igen": 6516,
      "Ġcore": 6517,
      "ĠShow": 6518,
      "ollowing": 6519,
      "libr": 6520,
      "Ġtransition": 6521,
      "ĠColor": 6522,
      "ocker": 6523,
      "Background": 6524,
      "Ġstre": 6525,
      "Statement": 6526,
      "Single": 6527,
      "ĠGovernment": 6528,
      "Ġdro": 6529,
      "stats": 6530,
      "Ġrepresented": 6531,
      "Ġsch": 6532,
      "Ġbasketball": 6533,
      "Ġsays": 6534,
      "getName": 6535,
      "children": 6536,
      "So": 6537,
      "ĠĠĠĠĠĠĠĠĠĠĠĠĠĠĠĠĠĠĠĠĠĠĠĠĠĠĠĠĠĠĠĠĠĠĠĠĠĠĠĠĠĠĠĠĠĠĠĠĠĠĠĠĠĠĠĠĠĠĠĠĠĠĠĠ": 6538,
      "Ġ{'": 6539,
      "ĠFoundation": 6540,
      "79": 6541,
      "Ġrecords": 6542,
      "Ġquick": 6543,
      "dec": 6544,
      "Ġstudies": 6545,
      "1974": 6546,
      "Trace": 6547,
      "ĠĠĠĠĠĠĠĠĠĠĠĠĠĠĠĠĠĠĠĠĠĠĠĠĠĠĠĠĠ": 6548,
      "material": 6549,
      "ĠArts": 6550,
      ">::": 6551,
      "ndef": 6552,
      "ĠDec": 6553,
      "iding": 6554,
      "Ġscient": 6555,
      "Prefix": 6556,
      "Ġintegr": 6557,
      "################": 6558,
      "IE": 6559,
      "ental": 6560,
      "TV": 6561,
      "Conn": 6562,
      "Ġlarger": 6563,
      "Space": 6564,
      "switch": 6565,
      "aud": 6566,
      "svg": 6567,
      "jquery": 6568,
      "1968": 6569,
      "Ġsinger": 6570,
      "ĠTHE": 6571,
      "sect": 6572,
      "Engine": 6573,
      "Ġgenerate": 6574,
      "Ġcompar": 6575,
      "Failed": 6576,
      "faces": 6577,
      "Ġdebug": 6578,
      "bserv": 6579,
      "Ġpurch": 6580,
      "Ġfixed": 6581,
      "SR": 6582,
      "Dest": 6583,
      "osh": 6584,
      "ĠTwo": 6585,
      "unched": 6586,
      "Double": 6587,
      "Desc": 6588,
      "ĠMexico": 6589,
      "ĠUpdate": 6590,
      "mask": 6591,
      "Ġsoon": 6592,
      "Ġtoday": 6593,
      "Ġcounter": 6594,
      "special": 6595,
      "Ġreceive": 6596,
      "Ġorganization": 6597,
      "Ljava": 6598,
      "Ġobtain": 6599,
      "network": 6600,
      "Ġtrade": 6601,
      "Ġactor": 6602,
      "iling": 6603,
      "isation": 6604,
      "ĠModel": 6605,
      "English": 6606,
      "Public": 6607,
      "expr": 6608,
      "1977": 6609,
      "dx": 6610,
      "ĠExec": 6611,
      "Ġtournament": 6612,
      "Ġappend": 6613,
      "ĠDen": 6614,
      "ĠItaly": 6615,
      "Ġcritic": 6616,
      "Browser": 6617,
      "Ġbig": 6618,
      "2023": 6619,
      "Ġedge": 6620,
      "even": 6621,
      "Ġpublish": 6622,
      "olar": 6623,
      "ancy": 6624,
      "Headers": 6625,
      "Ġspeed": 6626,
      "ĠCommittee": 6627,
      "erial": 6628,
      "reme": 6629,
      "1975": 6630,
      "tests": 6631,
      "total": 6632,
      "organ": 6633,
      "andard": 6634,
      "channel": 6635,
      "ĠPlay": 6636,
      "Seg": 6637,
      "overs": 6638,
      "ALSE": 6639,
      "jar": 6640,
      "&&": 6641,
      "ĠJava": 6642,
      "ĠScot": 6643,
      "Ġencoding": 6644,
      "Ġconstructor": 6645,
      "Ġ'<": 6646,
      "ĠAnn": 6647,
      "Ġmaster": 6648,
      "Ġensure": 6649,
      "browser": 6650,
      "filename": 6651,
      "Ġdeep": 6652,
      "ĠIts": 6653,
      "atically": 6654,
      "Ġinteger": 6655,
      "elebr": 6656,
      "Ġrepresentation": 6657,
      "ĠVis": 6658,
      "Ġincrease": 6659,
      "Å¡": 6660,
      "ĠRussia": 6661,
      "emon": 6662,
      "82": 6663,
      "ĠMessage": 6664,
      "Ġdecided": 6665,
      "Ġwhole": 6666,
      "oub": 6667,
      "ji": 6668,
      "git": 6669,
      "ima": 6670,
      "Ġhours": 6671,
      "pay": 6672,
      "Selected": 6673,
      "writer": 6674,
      "Ġonline": 6675,
      ")).": 6676,
      "(__": 6677,
      "iana": 6678,
      "echo": 6679,
      "uns": 6680,
      "Ġ[[": 6681,
      "Layer": 6682,
      "results": 6683,
      "ĠEngine": 6684,
      "Ġmovement": 6685,
      "ĠInteger": 6686,
      "ĠDom": 6687,
      "elves": 6688,
      "JS": 6689,
      "urred": 6690,
      "arts": 6691,
      "Ġroom": 6692,
      "urrency": 6693,
      "boost": 6694,
      "ady": 6695,
      "123": 6696,
      "ĠSecret": 6697,
      "Ġbank": 6698,
      "ĠSaint": 6699,
      "eners": 6700,
      "domain": 6701,
      "Ġfactory": 6702,
      "Ġdivision": 6703,
      "witter": 6704,
      "defined": 6705,
      "Ġcontact": 6706,
      "Ġdifficult": 6707,
      "ova": 6708,
      "Ġxmlns": 6709,
      "ĠNavy": 6710,
      "mut": 6711,
      "ny": 6712,
      "Ġdesc": 6713,
      "Ġprefix": 6714,
      "ĠFlorida": 6715,
      "Ġdefinition": 6716,
      "DA": 6717,
      "Author": 6718,
      "RES": 6719,
      "1973": 6720,
      "avi": 6721,
      "Ġtemper": 6722,
      "Ġ[],": 6723,
      "engine": 6724,
      "oth": 6725,
      "tsd": 6726,
      "ĠFestival": 6727,
      "orem": 6728,
      "ĠCongress": 6729,
      "ï¼": 6730,
      "ĠLife": 6731,
      "Big": 6732,
      "Ġspent": 6733,
      "Common": 6734,
      "Ð´": 6735,
      "Ġupper": 6736,
      "iano": 6737,
      "idx": 6738,
      "oped": 6739,
      "Ġmanufact": 6740,
      "ĠSil": 6741,
      "resents": 6742,
      "editor": 6743,
      "attributes": 6744,
      "Cluster": 6745,
      "Ġidx": 6746,
      "Ġfamilies": 6747,
      "Ġfailure": 6748,
      "aria": 6749,
      "while": 6750,
      "iring": 6751,
      "Duration": 6752,
      "Ġwriters": 6753,
      "rong": 6754,
      "Identifier": 6755,
      "Ġhot": 6756,
      "Ġcoordin": 6757,
      "uter": 6758,
      "Ġpri": 6759,
      "ĠCap": 6760,
      "Rad": 6761,
      "dates": 6762,
      "ĠStar": 6763,
      "Ġquestion": 6764,
      "Scale": 6765,
      "omega": 6766,
      "ĠIl": 6767,
      "ooth": 6768,
      "HTTP": 6769,
      "Mapping": 6770,
      "enabled": 6771,
      "Ġtowards": 6772,
      "}</": 6773,
      "Ġnecessary": 6774,
      "Ġdriver": 6775,
      "account": 6776,
      "Help": 6777,
      "TEXT": 6778,
      "Ġflags": 6779,
      "ĠView": 6780,
      "Ġoccup": 6781,
      "Ġminutes": 6782,
      "ĠKar": 6783,
      "72": 6784,
      "Ġsizeof": 6785,
      "Ġawait": 6786,
      "Ġmur": 6787,
      "Ġunknown": 6788,
      "ĠPub": 6789,
      "Ġmechan": 6790,
      "Variable": 6791,
      "ĠParam": 6792,
      "84": 6793,
      "Ġpair": 6794,
      "Ġtrain": 6795,
      "160": 6796,
      "ĠAND": 6797,
      "Ġadapt": 6798,
      "house": 6799,
      "ĠCarolina": 6800,
      "Ġsources": 6801,
      "ĠEr": 6802,
      "ĠGen": 6803,
      "Ġshare": 6804,
      "contin": 6805,
      "tabs": 6806,
      "Ġlayer": 6807,
      "alyt": 6808,
      "Ġdecision": 6809,
      "Ġtouch": 6810,
      "ĠLu": 6811,
      "kw": 6812,
      "____": 6813,
      "onym": 6814,
      "1971": 6815,
      "Ġminor": 6816,
      "Ġabs": 6817,
      "junit": 6818,
      "NA": 6819,
      "nil": 6820,
      "NOT": 6821,
      "progress": 6822,
      "lg": 6823,
      "CI": 6824,
      "Simple": 6825,
      "aily": 6826,
      "}$,": 6827,
      "ati": 6828,
      "Ġcard": 6829,
      "Success": 6830,
      "TRUE": 6831,
      "Ġproducer": 6832,
      "Ġpick": 6833,
      "rees": 6834,
      "Agent": 6835,
      "hide": 6836,
      "fty": 6837,
      "Ġincor": 6838,
      "LECT": 6839,
      "shadow": 6840,
      "reshold": 6841,
      "Global": 6842,
      "Ġremaining": 6843,
      "Py": 6844,
      "indexOf": 6845,
      "Ġrequests": 6846,
      "1940": 6847,
      "found": 6848,
      "Ġ\",": 6849,
      "inate": 6850,
      "IND": 6851,
      "annels": 6852,
      "ality": 6853,
      "NT": 6854,
      "components": 6855,
      "}$.": 6856,
      "Ġtalk": 6857,
      "Ġbtn": 6858,
      "undefined": 6859,
      "Mat": 6860,
      "Ġbrought": 6861,
      "chor": 6862,
      "Ġactivity": 6863,
      "sf": 6864,
      "Ġbrowser": 6865,
      "enge": 6866,
      "'));": 6867,
      "orter": 6868,
      "Ġlikely": 6869,
      "ITH": 6870,
      "Ġche": 6871,
      "ĠFinal": 6872,
      "uages": 6873,
      "Ġui": 6874,
      "storage": 6875,
      "ĠLin": 6876,
      "WR": 6877,
      "ĠBur": 6878,
      "Ġapproach": 6879,
      "Ġpark": 6880,
      "ĠOh": 6881,
      "shall": 6882,
      "ĠTop": 6883,
      "Ġdescribe": 6884,
      "Generator": 6885,
      "graphics": 6886,
      "Ġearlier": 6887,
      "parameters": 6888,
      "------------": 6889,
      "1945": 6890,
      "1969": 6891,
      "NavBarCell": 6892,
      "Ġinstr": 6893,
      "Ġvocals": 6894,
      "Ġcorresponding": 6895,
      "ĠBoard": 6896,
      "cribe": 6897,
      "URI": 6898,
      "Ġstatement": 6899,
      "ĠKn": 6900,
      "grade": 6901,
      "atriate": 6902,
      "ĠKh": 6903,
      "~~~~": 6904,
      "Ġpers": 6905,
      "Ġapplied": 6906,
      "ĠĠĠĠĠĠĠĠĠĠĠĠĠĠĠĠĠĠĠĠĠĠĠĠĠĠĠĠĠĠĠĠĠĠĠĠĠĠĠĠĠĠĠ": 6907,
      "zone": 6908,
      "ULE": 6909,
      "Ġdomain": 6910,
      "Product": 6911,
      "Ġqueue": 6912,
      "Ġfeel": 6913,
      "ĠProvince": 6914,
      "Cap": 6915,
      "ĠUN": 6916,
      "Ġactress": 6917,
      "yg": 6918,
      "=\"\">": 6919,
      "Microsoft": 6920,
      "Ġbur": 6921,
      "Ġdir": 6922,
      "ylvania": 6923,
      "igration": 6924,
      "Ġletter": 6925,
      "Ġwalk": 6926,
      "ĠCD": 6927,
      "AF": 6928,
      "Ġhighest": 6929,
      "adium": 6930,
      "apped": 6931,
      "ĠBook": 6932,
      "wrapper": 6933,
      "Step": 6934,
      "fly": 6935,
      "invalid": 6936,
      "Ġprec": 6937,
      "Ġscience": 6938,
      "Ġmask": 6939,
      "Ġlimited": 6940,
      "ĠNumber": 6941,
      "protected": 6942,
      "Ġupdated": 6943,
      "Ġlistener": 6944,
      "bi": 6945,
      "During": 6946,
      "Ġlinear": 6947,
      "eqref": 6948,
      "triev": 6949,
      "Ġsn": 6950,
      "Ġwoman": 6951,
      "ĠParliament": 6952,
      "prev": 6953,
      "moz": 6954,
      "ads": 6955,
      "Ġforms": 6956,
      "orner": 6957,
      "utive": 6958,
      "evelopment": 6959,
      "acc": 6960,
      "ĠTeam": 6961,
      "atively": 6962,
      "ĠGl": 6963,
      "ĠOld": 6964,
      "rule": 6965,
      "HR": 6966,
      "parser": 6967,
      "ĠHistoric": 6968,
      "ĠÎ": 6969,
      "Ġpractice": 6970,
      "itation": 6971,
      "eqn": 6972,
      "Ġproblems": 6973,
      "Resources": 6974,
      "irmed": 6975,
      "Ġmessages": 6976,
      "TIME": 6977,
      "Ġgrand": 6978,
      "ĠTour": 6979,
      "amel": 6980,
      "Ġang": 6981,
      "ĠTimes": 6982,
      "ĠMur": 6983,
      "osen": 6984,
      "Repository": 6985,
      "bot": 6986,
      "inger": 6987,
      "roke": 6988,
      "ĠPoint": 6989,
      "Ġsplit": 6990,
      "Ġstructures": 6991,
      "Ġedition": 6992,
      "rak": 6993,
      "Ġopening": 6994,
      "Ġdep": 6995,
      "BS": 6996,
      "Ġcouple": 6997,
      "vec": 6998,
      "ĠAwards": 6999,
      "zure": 7000,
      "Delegate": 7001,
      "Ġconcept": 7002,
      "builder": 7003,
      "collection": 7004,
      "infty": 7005,
      "FR": 7006,
      "Ġspect": 7007,
      "ĠPath": 7008,
      "headers": 7009,
      "Ġarticle": 7010,
      "ĠAtl": 7011,
      "Ġcomponents": 7012,
      "','": 7013,
      "IPT": 7014,
      "ĠInst": 7015,
      "Gr": 7016,
      "logger": 7017,
      "LOCK": 7018,
      "ĉĉĉĊ": 7019,
      "testing": 7020,
      "ĠPet": 7021,
      "assets": 7022,
      "ĠBrazil": 7023,
      "Abstract": 7024,
      "Ġexact": 7025,
      "istration": 7026,
      "ĠHash": 7027,
      "UC": 7028,
      "words": 7029,
      "Åį": 7030,
      "Registry": 7031,
      "Ġmut": 7032,
      "Ġlevels": 7033,
      "Ġplays": 7034,
      "1967": 7035,
      "Ġtransl": 7036,
      "Ġpars": 7037,
      "ager": 7038,
      "Services": 7039,
      "1930": 7040,
      "Ġchain": 7041,
      "here": 7042,
      "enses": 7043,
      "Ġentered": 7044,
      "Ġstrings": 7045,
      "ĠWales": 7046,
      "itz": 7047,
      "=\"${": 7048,
      "ĠFig": 7049,
      "John": 7050,
      "Ġshot": 7051,
      "FFFF": 7052,
      "76": 7053,
      "eler": 7054,
      "Career": 7055,
      "Ġimages": 7056,
      "Ġlayout": 7057,
      "execute": 7058,
      "Selection": 7059,
      "rev": 7060,
      "EventListener": 7061,
      "itiz": 7062,
      "Uri": 7063,
      "Ġbehavior": 7064,
      "ĠSpace": 7065,
      "related": 7066,
      "LINE": 7067,
      "platform": 7068,
      "external": 7069,
      ".\\": 7070,
      "configuration": 7071,
      "ITE": 7072,
      "1964": 7073,
      "unique": 7074,
      "Cert": 7075,
      "ĠUnder": 7076,
      "fx": 7077,
      "Java": 7078,
      "depth": 7079,
      "limit": 7080,
      "ĠSy": 7081,
      "izable": 7082,
      "Ġtraditional": 7083,
      "structure": 7084,
      "Ġloop": 7085,
      "Ġremain": 7086,
      "Ġbring": 7087,
      "Ġunion": 7088,
      "HO": 7089,
      "ĠMost": 7090,
      "ĠPac": 7091,
      "FIG": 7092,
      "Endpoint": 7093,
      "dialog": 7094,
      "Constants": 7095,
      "exists": 7096,
      "Ġseasons": 7097,
      "ĠNetwork": 7098,
      "isc": 7099,
      "ĠLand": 7100,
      "La": 7101,
      "Ġeas": 7102,
      "leted": 7103,
      "Ġtimeout": 7104,
      "Ġreject": 7105,
      "Opt": 7106,
      "CESS": 7107,
      "ĠOp": 7108,
      "Ġ\"-": 7109,
      "ĠCopyright": 7110,
      "Ġpoet": 7111,
      "erc": 7112,
      "ĠGal": 7113,
      "Ġended": 7114,
      "ancer": 7115,
      "Ġterr": 7116,
      "vey": 7117,
      "done": 7118,
      "ĠMP": 7119,
      "ICE": 7120,
      "Ġtechnology": 7121,
      "Ä±": 7122,
      "ceeded": 7123,
      "ĠMicrosoft": 7124,
      "Ġincreased": 7125,
      "Ġlack": 7126,
      "tilde": 7127,
      "HER": 7128,
      "Ġstudio": 7129,
      "atur": 7130,
      "ĠLibrary": 7131,
      ")->": 7132,
      "Ġ],": 7133,
      "ãĢ": 7134,
      "Ġgoals": 7135,
      "Ġhidden": 7136,
      "ĠProgram": 7137,
      "ĠMain": 7138,
      "views": 7139,
      "DEBUG": 7140,
      "Domain": 7141,
      "Ġwinning": 7142,
      ".\");": 7143,
      "Ġgenerally": 7144,
      "Ġcaused": 7145,
      ")/": 7146,
      "Ġwhom": 7147,
      "EC": 7148,
      "World": 7149,
      "Pay": 7150,
      "Len": 7151,
      "ously": 7152,
      "Ġstudent": 7153,
      "Ġlegal": 7154,
      "stone": 7155,
      "Ġparser": 7156,
      "ĠIndex": 7157,
      "Ġbattle": 7158,
      "raction": 7159,
      "ĠSoviet": 7160,
      "psi": 7161,
      "Ġproducts": 7162,
      "Ġsometimes": 7163,
      "that": 7164,
      "sys": 7165,
      "Ġmetadata": 7166,
      "venue": 7167,
      "temp": 7168,
      "Ġmention": 7169,
      "Ġenum": 7170,
      "91": 7171,
      "Ġproposed": 7172,
      "protocol": 7173,
      "expect": 7174,
      "Ġseparate": 7175,
      "Ġwatch": 7176,
      "awa": 7177,
      "Ġeffects": 7178,
      "ifndef": 7179,
      "ĠBi": 7180,
      "Ġabsolute": 7181,
      "DS": 7182,
      "Ġded": 7183,
      "Ġimpact": 7184,
      "includ": 7185,
      "ulations": 7186,
      "anda": 7187,
      "ĠMartin": 7188,
      "Ġfmt": 7189,
      "Ġpresented": 7190,
      "ĠHot": 7191,
      "Ġheaders": 7192,
      "Ġexplicit": 7193,
      "ervation": 7194,
      "High": 7195,
      "Ġlot": 7196,
      "nodes": 7197,
      "ĠIrish": 7198,
      "Ġlaunched": 7199,
      "sylvania": 7200,
      "Ġvariables": 7201,
      "war": 7202,
      "wan": 7203,
      "Ġinvol": 7204,
      "Ġshift": 7205,
      "ĠAR": 7206,
      "Ġking": 7207,
      "Lin": 7208,
      "Video": 7209,
      "ĠGi": 7210,
      "reement": 7211,
      "fd": 7212,
      "Films": 7213,
      "Ġriver": 7214,
      "Ġhousehold": 7215,
      "pu": 7216,
      "sem": 7217,
      "Ġpen": 7218,
      "Ġdemon": 7219,
      "ĠResource": 7220,
      "precated": 7221,
      "Ġbranch": 7222,
      "oz": 7223,
      "Ġobtained": 7224,
      "=\"\"": 7225,
      "Att": 7226,
      "Ġcreating": 7227,
      "Ð²": 7228,
      "asure": 7229,
      "Ġtim": 7230,
      "iteral": 7231,
      "83": 7232,
      "Ġexternal": 7233,
      "Ġcollect": 7234,
      "ĉĠĠĠĠĠĠĠĠĠĠĠ": 7235,
      "MB": 7236,
      "Progress": 7237,
      "IMP": 7238,
      "fire": 7239,
      "}),": 7240,
      "ĠOl": 7241,
      "FLAG": 7242,
      "Ġchampionship": 7243,
      "Ġpool": 7244,
      "ansas": 7245,
      "Ġacade": 7246,
      "74": 7247,
      "ĠSun": 7248,
      "ĠLove": 7249,
      "ycle": 7250,
      "1920": 7251,
      "ĠMos": 7252,
      "ÅĤ": 7253,
      "riteria": 7254,
      "Ġrespectively": 7255,
      "ternet": 7256,
      "Ġmixed": 7257,
      "Ġcategory": 7258,
      "timeout": 7259,
      "('.": 7260,
      "Ġess": 7261,
      "Ġcoast": 7262,
      "1965": 7263,
      "Ġexplo": 7264,
      "ansion": 7265,
      "Ġrecomm": 7266,
      "Ġrailway": 7267,
      "Ġtransparent": 7268,
      "ĠWal": 7269,
      "ĠBank": 7270,
      "Ġok": 7271,
      "owner": 7272,
      "ded": 7273,
      "ĠMedia": 7274,
      "METH": 7275,
      "USE": 7276,
      "Ġbenef": 7277,
      "ACT": 7278,
      "Role": 7279,
      "ees": 7280,
      "ĠNorthern": 7281,
      "![": 7282,
      "OB": 7283,
      "tags": 7284,
      "extern": 7285,
      "Ġactivities": 7286,
      "outer": 7287,
      "Ġmachine": 7288,
      "acro": 7289,
      "Ġexport": 7290,
      "AX": 7291,
      "ĠColumb": 7292,
      "Ġdelay": 7293,
      "CRE": 7294,
      "serial": 7295,
      "Transport": 7296,
      "ĠRequest": 7297,
      "shal": 7298,
      "Ġproper": 7299,
      "allel": 7300,
      "Ġattended": 7301,
      "%%%%": 7302,
      "rine": 7303,
      "ĠEmpire": 7304,
      "ENSE": 7305,
      "Ġexc": 7306,
      "1966": 7307,
      "Ġselector": 7308,
      "ĠArab": 7309,
      "Cor": 7310,
      "ĠYoung": 7311,
      "ĠUk": 7312,
      "ĠChief": 7313,
      "ĠJoseph": 7314,
      "Details": 7315,
      "Ġowned": 7316,
      "Ġtmp": 7317,
      "tim": 7318,
      "IST": 7319,
      "riority": 7320,
      "Ġ\"<": 7321,
      "detail": 7322,
      "home": 7323,
      "unct": 7324,
      "Ġprison": 7325,
      "{\"": 7326,
      "92": 7327,
      "room": 7328,
      "Ġapproximately": 7329,
      "bm": 7330,
      "ĠSocial": 7331,
      "Ġtemp": 7332,
      "81": 7333,
      "iate": 7334,
      "Ġ'\\": 7335,
      "Ġremains": 7336,
      "Ġcomes": 7337,
      "ĠWAR": 7338,
      "Ġcensus": 7339,
      "ĠCross": 7340,
      "ĠEv": 7341,
      "look": 7342,
      "Cred": 7343,
      "aval": 7344,
      "mazon": 7345,
      "ĠHTTP": 7346,
      "PER": 7347,
      "linear": 7348,
      "ĠFort": 7349,
      "jango": 7350,
      "Ġvisible": 7351,
      "ĠTim": 7352,
      "Ġagreed": 7353,
      "Final": 7354,
      "ÐµÐ½": 7355,
      "Ġfoot": 7356,
      "Ġcommercial": 7357,
      "Flow": 7358,
      "cos": 7359,
      "Ġmusical": 7360,
      "yan": 7361,
      "ĠBul": 7362,
      "Ġsupp": 7363,
      "Ġfish": 7364,
      "Ġsolution": 7365,
      "ĠLOG": 7366,
      "herited": 7367,
      "ĠIE": 7368,
      "VALUE": 7369,
      "Ġphase": 7370,
      "Ġopts": 7371,
      "FS": 7372,
      "Ġstay": 7373,
      "oting": 7374,
      "throw": 7375,
      "Ã£": 7376,
      "iga": 7377,
      "Enumer": 7378,
      "aret": 7379,
      "Ġir": 7380,
      "Ġnorthern": 7381,
      ">()": 7382,
      "}[": 7383,
      "Ġunless": 7384,
      "ĠEducation": 7385,
      "scss": 7386,
      "Sql": 7387,
      "tty": 7388,
      "ĠSol": 7389,
      "Ġfast": 7390,
      "Ġenter": 7391,
      "ĠAlso": 7392,
      "Password": 7393,
      "Ġpaint": 7394,
      "ĠFri": 7395,
      "Category": 7396,
      "cred": 7397,
      "ĠHttp": 7398,
      "Ġactions": 7399,
      "signature": 7400,
      "hol": 7401,
      "VM": 7402,
      "Ġsouthern": 7403,
      "comple": 7404,
      "horizontal": 7405,
      "ĠSir": 7406,
      "ĠCle": 7407,
      "nes": 7408,
      "axis": 7409,
      "inners": 7410,
      ".<": 7411,
      "Ġmeaning": 7412,
      "ga": 7413,
      "3333": 7414,
      "optional": 7415,
      "Ġsummer": 7416,
      "Ġforeach": 7417,
      "Mask": 7418,
      "operator": 7419,
      "Ġevidence": 7420,
      "Ġsaf": 7421,
      "Ġsignal": 7422,
      "errors": 7423,
      "BE": 7424,
      "Ġsurround": 7425,
      "ĠDirector": 7426,
      "(@": 7427,
      "di": 7428,
      "ĠGame": 7429,
      "ĠValid": 7430,
      "ĠServ": 7431,
      "original": 7432,
      "bold": 7433,
      "Ġrgba": 7434,
      "stitution": 7435,
      "MOD": 7436,
      "enable": 7437,
      "Ġprograms": 7438,
      "amous": 7439,
      "ĠReact": 7440,
      "Sample": 7441,
      "ection": 7442,
      "Ġtranslate": 7443,
      "inem": 7444,
      "GR": 7445,
      "shared": 7446,
      "ĠHaw": 7447,
      "Ġleave": 7448,
      "Ġnoted": 7449,
      "Ġimmediately": 7450,
      "eval": 7451,
      "enant": 7452,
      "REG": 7453,
      "Ġabstract": 7454,
      "Ġplugin": 7455,
      "Ġcollabor": 7456,
      "Ġlogger": 7457,
      "Ġcelebr": 7458,
      "Short": 7459,
      "Ġoverall": 7460,
      "Ġolder": 7461,
      "wer": 7462,
      "Ġcontroller": 7463,
      "Ġphil": 7464,
      "Ġconstraint": 7465,
      "Ġinstalled": 7466,
      "%,": 7467,
      "Ġ[\"": 7468,
      "ĠUI": 7469,
      "Ġmedical": 7470,
      "ĠJo": 7471,
      "role": 7472,
      "ĠBrown": 7473,
      "Ġdead": 7474,
      "pri": 7475,
      "irty": 7476,
      "ĉĉĉĉĉĉĉĉĉ": 7477,
      "iagnostics": 7478,
      "ĠTable": 7479,
      "93": 7480,
      "Ġseconds": 7481,
      "Ġwood": 7482,
      "isions": 7483,
      "Ġraw": 7484,
      "mselves": 7485,
      "socket": 7486,
      "Ġdise": 7487,
      "verter": 7488,
      "ĠSpain": 7489,
      "Ġbasic": 7490,
      "ĠWood": 7491,
      "Bound": 7492,
      "Ġmulti": 7493,
      "ador": 7494,
      "Ġ=========": 7495,
      "jQuery": 7496,
      "Ġnewsp": 7497,
      "åı": 7498,
      "Ġrequires": 7499,
      "ĠASSERT": 7500,
      "Ġsuc": 7501,
      "ĠPass": 7502,
      "ocation": 7503,
      "Ġdefeated": 7504,
      "itan": 7505,
      "ĠPennsylvania": 7506,
      "Ġchief": 7507,
      "Ġpassword": 7508,
      "Ġappears": 7509,
      "construct": 7510,
      "Ġenable": 7511,
      "Ġnu": 7512,
      "Stats": 7513,
      "Ġprobably": 7514,
      "ĠPop": 7515,
      "94": 7516,
      "asion": 7517,
      "Ġ];": 7518,
      "Sequence": 7519,
      "Ġtesting": 7520,
      "Ġnothing": 7521,
      "=>": 7522,
      "Ġextended": 7523,
      "bro": 7524,
      "rase": 7525,
      "Ġmoment": 7526,
      "Ġcalling": 7527,
      "iny": 7528,
      "pattern": 7529,
      "losed": 7530,
      "Interval": 7531,
      "aka": 7532,
      "pons": 7533,
      "Om": 7534,
      "single": 7535,
      "ITION": 7536,
      "Gen": 7537,
      "ĠJournal": 7538,
      "Ġanti": 7539,
      "Ġisland": 7540,
      "73": 7541,
      "ums": 7542,
      "ĠLee": 7543,
      "Ġthemselves": 7544,
      "Ġanimation": 7545,
      "typename": 7546,
      "ĠBattle": 7547,
      "Ġscene": 7548,
      "Ġtold": 7549,
      "ĠPak": 7550,
      "ĠValley": 7551,
      "TA": 7552,
      "Ġscroll": 7553,
      "selector": 7554,
      "unior": 7555,
      "INS": 7556,
      "library": 7557,
      "ĠIns": 7558,
      "Ġquarter": 7559,
      "Ġdrop": 7560,
      "REQ": 7561,
      "Ġ_,": 7562,
      "Ġsetup": 7563,
      "uts": 7564,
      "Ġmission": 7565,
      "\\,": 7566,
      "Dem": 7567,
      "Ġlicense": 7568,
      "Ġsatisf": 7569,
      "mond": 7570,
      "resolve": 7571,
      "FORM": 7572,
      "pret": 7573,
      "loader": 7574,
      "Ġnote": 7575,
      "ĠMi": 7576,
      "ĠAlthough": 7577,
      "pkg": 7578,
      "Car": 7579,
      "ona": 7580,
      "Ġexperiment": 7581,
      "inf": 7582,
      "METHOD": 7583,
      "dim": 7584,
      "Ġfif": 7585,
      "Rep": 7586,
      "ĠGar": 7587,
      "Ġ).": 7588,
      "opts": 7589,
      "Ġhum": 7590,
      "Ġinsp": 7591,
      "IX": 7592,
      "achment": 7593,
      "ÑĮ": 7594,
      "ategories": 7595,
      "ĠNAME": 7596,
      "ĠHam": 7597,
      "Ġmanaged": 7598,
      "rift": 7599,
      "ĠOnly": 7600,
      "develop": 7601,
      "ivalent": 7602,
      "operation": 7603,
      "Ġcmd": 7604,
      "Ġcommission": 7605,
      "kin": 7606,
      "slice": 7607,
      "Ġparents": 7608,
      "Ġgreater": 7609,
      "green": 7610,
      "Language": 7611,
      "resources": 7612,
      "Ġsmaller": 7613,
      "Ġforeign": 7614,
      "ainment": 7615,
      "cheduler": 7616,
      "Ġversions": 7617,
      "random": 7618,
      "Ġprojects": 7619,
      "shift": 7620,
      "Comment": 7621,
      "Ġmenu": 7622,
      "ĠJim": 7623,
      "ĠChild": 7624,
      "ĠGreek": 7625,
      "Ġprem": 7626,
      "cheduled": 7627,
      "flag": 7628,
      "Ġenv": 7629,
      "ĠSto": 7630,
      "128": 7631,
      "Visible": 7632,
      "Native": 7633,
      "poration": 7634,
      "Ġclick": 7635,
      "Ġbuf": 7636,
      "Ġcompared": 7637,
      "Ġsimply": 7638,
      "ancell": 7639,
      "Ġmagazine": 7640,
      "Äį": 7641,
      "Ġprotocol": 7642,
      "sidebar": 7643,
      "1963": 7644,
      "Ġclo": 7645,
      "extend": 7646,
      "kens": 7647,
      "ĠElement": 7648,
      "Ġsingles": 7649,
      "tc": 7650,
      "helper": 7651,
      "Ġdensity": 7652,
      "oston": 7653,
      "Ġphysical": 7654,
      "****************************************************************": 7655,
      "ĠLo": 7656,
      "Ġraised": 7657,
      "Ġscen": 7658,
      "FUN": 7659,
      "rich": 7660,
      "Animation": 7661,
      "compiler": 7662,
      "gradient": 7663,
      "Ġstudied": 7664,
      "provider": 7665,
      "ĠassertThat": 7666,
      "sych": 7667,
      "Errorf": 7668,
      "async": 7669,
      "ĠBlock": 7670,
      "Ġretriev": 7671,
      "Ġappearance": 7672,
      "Ġslow": 7673,
      "Proto": 7674,
      "Sort": 7675,
      "Ġcook": 7676,
      "usband": 7677,
      "Symfony": 7678,
      "ĠMake": 7679,
      "dep": 7680,
      "Ġassigned": 7681,
      "wa": 7682,
      "Ġconnected": 7683,
      "Bean": 7684,
      "Section": 7685,
      "amaz": 7686,
      "ĠRef": 7687,
      "icensed": 7688,
      "Compar": 7689,
      "osoph": 7690,
      "issues": 7691,
      "Ġemail": 7692,
      "Example": 7693,
      "Ġblocks": 7694,
      "1962": 7695,
      "dp": 7696,
      "ĠĠĠĠĠĠĠĠĠĠĠĠĠĠĠĠĠĠĠĠĠĠĠĠĠĠĠĠ": 7697,
      "Ġanim": 7698,
      "Ġdeb": 7699,
      "Ġcharg": 7700,
      "Ġdrama": 7701,
      "ĠPeople": 7702,
      "Ġtheme": 7703,
      "Ġvs": 7704,
      "Fact": 7705,
      "ĠIran": 7706,
      "ĠStart": 7707,
      "Ġcreation": 7708,
      ";}": 7709,
      "IVE": 7710,
      "Ġdraft": 7711,
      "ellij": 7712,
      "Ġquality": 7713,
      "ĠOf": 7714,
      "aming": 7715,
      "Ġeconomic": 7716,
      "ĠStep": 7717,
      "peated": 7718,
      "Note": 7719,
      "Ġalloc": 7720,
      "Don": 7721,
      "Ġyield": 7722,
      "Ġdemonstr": 7723,
      "ĠCommon": 7724,
      "Ġdisabled": 7725,
      "since": 7726,
      "fc": 7727,
      "ferred": 7728,
      "airman": 7729,
      "uset": 7730,
      "?>": 7731,
      "ationToken": 7732,
      "FT": 7733,
      "nce": 7734,
      "username": 7735,
      "ĠNow": 7736,
      "ĠHon": 7737,
      "etes": 7738,
      "Ign": 7739,
      "ĠJan": 7740,
      "Ġran": 7741,
      "intellij": 7742,
      "Ġfeed": 7743,
      "lad": 7744,
      "ĠSQL": 7745,
      "Ġdemand": 7746,
      "ĠEli": 7747,
      "ĠRet": 7748,
      "Ġmeeting": 7749,
      "Texture": 7750,
      "ateway": 7751,
      "Ġemerg": 7752,
      "glyph": 7753,
      "Ġbasis": 7754,
      "Math": 7755,
      "ersistent": 7756,
      "LP": 7757,
      "ĠANY": 7758,
      "Ġarm": 7759,
      "Bi": 7760,
      "Ã±": 7761,
      "WN": 7762,
      "ĠRh": 7763,
      "Ġmix": 7764,
      "WORD": 7765,
      "1944": 7766,
      "arriage": 7767,
      "ajax": 7768,
      "$/": 7769,
      "Notification": 7770,
      "Ġidea": 7771,
      "Ġinner": 7772,
      "abilities": 7773,
      "ĠIII": 7774,
      "Ġweeks": 7775,
      "Ġdeploy": 7776,
      "kins": 7777,
      "Ġofficer": 7778,
      "atible": 7779,
      "Ġ\"$": 7780,
      "ĠEnter": 7781,
      "Ġ{\"": 7782,
      "Ġfinancial": 7783,
      "Dictionary": 7784,
      "Ġbus": 7785,
      "ouri": 7786,
      "checked": 7787,
      "Now": 7788,
      "Ġtx": 7789,
      "PACK": 7790,
      "Ġcounty": 7791,
      "Ġ>>>": 7792,
      "ĠAS": 7793,
      "claim": 7794,
      "fit": 7795,
      "iated": 7796,
      "Ġ{{": 7797,
      "phone": 7798,
      "ĠMen": 7799,
      "Ġmajority": 7800,
      "Ġprim": 7801,
      "rep": 7802,
      "Ġexit": 7803,
      "Ġparticularly": 7804,
      "springframework": 7805,
      "inity": 7806,
      "Compiler": 7807,
      "ĠÅ": 7808,
      "mouse": 7809,
      "orial": 7810,
      "ĠRadio": 7811,
      "Ã£o": 7812,
      "itors": 7813,
      "Ġsenior": 7814,
      "Ġgreen": 7815,
      "checkbox": 7816,
      "Ġvan": 7817,
      "Ġdetermine": 7818,
      "Ġcells": 7819,
      "()))": 7820,
      "ĠHead": 7821,
      "front": 7822,
      "Ġmovie": 7823,
      "ĠSte": 7824,
      "Ġincreasing": 7825,
      "ifiers": 7826,
      "ĠJud": 7827,
      "Ġfully": 7828,
      "Ġbecomes": 7829,
      "ellig": 7830,
      "Ġdark": 7831,
      "Generated": 7832,
      "aya": 7833,
      "iber": 7834,
      "services": 7835,
      "ĠAction": 7836,
      "sb": 7837,
      "Ġreb": 7838,
      "ĠTH": 7839,
      "71": 7840,
      "Ġreset": 7841,
      "crete": 7842,
      "ĠMichigan": 7843,
      "Required": 7844,
      "oration": 7845,
      "Ġprops": 7846,
      "Ġpush": 7847,
      "Ġsql": 7848,
      "Gu": 7849,
      "Ġinitially": 7850,
      "Ġ>>": 7851,
      "Ġfarm": 7852,
      "Ġspan": 7853,
      "CF": 7854,
      "pressed": 7855,
      "Ġopport": 7856,
      "Ġcandidate": 7857,
      "ipl": 7858,
      "Limit": 7859,
      "ĠMiddle": 7860,
      "ĠÐ¿": 7861,
      "150": 7862,
      "ien": 7863,
      "mid": 7864,
      "Ġconsum": 7865,
      "Ġhy": 7866,
      "Ġwhy": 7867,
      "apers": 7868,
      "ether": 7869,
      "Area": 7870,
      "called": 7871,
      "heel": 7872,
      "Ġlived": 7873,
      "(/": 7874,
      "ĠMah": 7875,
      "arnings": 7876,
      "Dat": 7877,
      "ĠAsia": 7878,
      "mir": 7879,
      "ĠBack": 7880,
      "ila": 7881,
      "Ġforced": 7882,
      "proxy": 7883,
      "pull": 7884,
      "VALID": 7885,
      "Ġfle": 7886,
      "1961": 7887,
      "Ġfix": 7888,
      "Ġsea": 7889,
      "ilters": 7890,
      "ĠSar": 7891,
      "Ġdim": 7892,
      "edge": 7893,
      "generated": 7894,
      "ĠSpecial": 7895,
      "ĠLet": 7896,
      "constructor": 7897,
      "Ġoccurred": 7898,
      "clone": 7899,
      "ski": 7900,
      "enth": 7901,
      "rate": 7902,
      "loaded": 7903,
      "inois": 7904,
      "']['": 7905,
      "Flag": 7906,
      "sqrt": 7907,
      "ĠBritain": 7908,
      "Ð¼": 7909,
      "required": 7910,
      "video": 7911,
      "effect": 7912,
      "ennis": 7913,
      "Ġarmy": 7914,
      "driver": 7915,
      "ronic": 7916,
      "Ġheart": 7917,
      "Shape": 7918,
      "ĠOffice": 7919,
      "extension": 7920,
      "pa": 7921,
      "ĠSouthern": 7922,
      "ĠFire": 7923,
      "ĠFROM": 7924,
      "contrib": 7925,
      "à¸": 7926,
      "Ġmill": 7927,
      "Ġreadonly": 7928,
      "DateTime": 7929,
      "Returns": 7930,
      "bing": 7931,
      "Ġsignature": 7932,
      "ĠConference": 7933,
      "Ġproxy": 7934,
      "fg": 7935,
      "details": 7936,
      "Operator": 7937,
      "ĠInput": 7938,
      "Scal": 7939,
      "aters": 7940,
      "Vertex": 7941,
      "ĠOhio": 7942,
      "apis": 7943,
      "Ġcapacity": 7944,
      "Ġbecoming": 7945,
      "MC": 7946,
      "DATA": 7947,
      "Ġasked": 7948,
      "Ġgives": 7949,
      "clean": 7950,
      "irls": 7951,
      "ni": 7952,
      "Ġexports": 7953,
      "commit": 7954,
      "Ġsegment": 7955,
      "DEFAULT": 7956,
      "Ġproduce": 7957,
      "Ġcolumns": 7958,
      "ibly": 7959,
      "enty": 7960,
      "referred": 7961,
      "ĠCivil": 7962,
      "ecause": 7963,
      "Ġannual": 7964,
      "Ġlearning": 7965,
      "Ġblue": 7966,
      "MODE": 7967,
      "('/": 7968,
      "Total": 7969,
      "Children": 7970,
      "1942": 7971,
      "rick": 7972,
      "tbody": 7973,
      "\"><!--": 7974,
      "Ġrepresents": 7975,
      "ĠMov": 7976,
      "Ġwanted": 7977,
      "ĠPrem": 7978,
      "ĠLocal": 7979,
      "_);": 7980,
      "chen": 7981,
      "safe": 7982,
      "dot": 7983,
      "Capt": 7984,
      "Ġgrid": 7985,
      "ĠMr": 7986,
      "Validation": 7987,
      "Pair": 7988,
      "arden": 7989,
      "assembly": 7990,
      "Ġbass": 7991,
      "ĠBoolean": 7992,
      "ulty": 7993,
      "Ġfootballer": 7994,
      "Ġcomputer": 7995,
      "transition": 7996,
      "Ġcentre": 7997,
      "'];": 7998,
      "lict": 7999,
      "runtime": 8000,
      "ĠAsian": 8001,
      "Ġ?>": 8002,
      "Ġpartn": 8003,
      "=(": 8004,
      "National": 8005,
      "swer": 8006,
      "Ġcommunities": 8007,
      "cluster": 8008,
      "ĠHa": 8009,
      "Ġschema": 8010,
      "python": 8011,
      "Ġability": 8012,
      "star": 8013,
      "Ġ_.": 8014,
      "ĠDemocratic": 8015,
      "gg": 8016,
      "Ġnullptr": 8017,
      "Ġshoot": 8018,
      "Ġpp": 8019,
      "ĠBob": 8020,
      "Ġul": 8021,
      "('#": 8022,
      "Ġloaded": 8023,
      "itable": 8024,
      "ydro": 8025,
      "Ġinvestig": 8026,
      ".\",": 8027,
      "burgh": 8028,
      "ĠPacific": 8029,
      "Ġmostly": 8030,
      "enger": 8031,
      "akers": 8032,
      "Mouse": 8033,
      "Ġmurder": 8034,
      "cluded": 8035,
      "warning": 8036,
      "Ġidentity": 8037,
      "phy": 8038,
      "<!": 8039,
      "ĠOx": 8040,
      "Basic": 8041,
      "Ġfactor": 8042,
      "Ġpow": 8043,
      "{%": 8044,
      "ĠInv": 8045,
      "120": 8046,
      "maven": 8047,
      "Cloud": 8048,
      "Ġnavigation": 8049,
      "uing": 8050,
      "ĠLandroid": 8051,
      "ĠTro": 8052,
      "Ġdepartment": 8053,
      "etween": 8054,
      "umes": 8055,
      "rent": 8056,
      "tk": 8057,
      "Ġsens": 8058,
      "arguments": 8059,
      "Ġeth": 8060,
      "inds": 8061,
      "destroy": 8062,
      "fri": 8063,
      "Ġpred": 8064,
      "BB": 8065,
      "Ġadopt": 8066,
      "Ġcolon": 8067,
      "INTER": 8068,
      "endor": 8069,
      "ummy": 8070,
      "Ġdoing": 8071,
      "once": 8072,
      "awn": 8073,
      "Ġexecute": 8074,
      "SK": 8075,
      "subsection": 8076,
      "Ġremote": 8077,
      "textbf": 8078,
      "animation": 8079,
      "}}\\": 8080,
      "login": 8081,
      "Ġgrowth": 8082,
      "Let": 8083,
      "What": 8084,
      "ustrial": 8085,
      "formed": 8086,
      "Ġrisk": 8087,
      "Div": 8088,
      "lan": 8089,
      "}).": 8090,
      "IV": 8091,
      "Ñĭ": 8092,
      "ĠJersey": 8093,
      "Ġmeta": 8094,
      "ĠArrayList": 8095,
      "Ġnp": 8096,
      "Ġlisting": 8097,
      "ipped": 8098,
      "Ġtherefore": 8099,
      "xs": 8100,
      "Ġsquad": 8101,
      "Ġconsists": 8102,
      "Arch": 8103,
      "Ġ'';": 8104,
      "TRY": 8105,
      "DT": 8106,
      "Ġagent": 8107,
      "users": 8108,
      "ainers": 8109,
      "Ġresponsible": 8110,
      "volume": 8111,
      "1956": 8112,
      "uplic": 8113,
      "Ġ([": 8114,
      "EV": 8115,
      "STATUS": 8116,
      "Ġelections": 8117,
      "ĠBow": 8118,
      "ĠResult": 8119,
      "Ġnature": 8120,
      "console": 8121,
      "Library": 8122,
      "agon": 8123,
      "ĠLem": 8124,
      "fort": 8125,
      "eqnarray": 8126,
      "factory": 8127,
      "ĠBlue": 8128,
      "ighter": 8129,
      "Ġturned": 8130,
      "Ġlos": 8131,
      "Ġgas": 8132,
      "Ġtreatment": 8133,
      "Stop": 8134,
      "Ġpeak": 8135,
      "Ġnumerous": 8136,
      "LL": 8137,
      "PUT": 8138,
      "ĠDevelopment": 8139,
      "=&": 8140,
      "1958": 8141,
      "Ġhusband": 8142,
      "azy": 8143,
      "ĠWindows": 8144,
      "located": 8145,
      "Report": 8146,
      "ĠGood": 8147,
      "ĠOk": 8148,
      "Since": 8149,
      "ĠLord": 8150,
      "aste": 8151,
      "Ġpartial": 8152,
      "supported": 8153,
      "(\"/": 8154,
      "Ġ=======": 8155,
      "eer": 8156,
      "Ġnegative": 8157,
      "achuset": 8158,
      "ĠBor": 8159,
      "achusetts": 8160,
      "Ġvalign": 8161,
      "PP": 8162,
      "sel": 8163,
      "Ġvictory": 8164,
      "colLast": 8165,
      "ĠCard": 8166,
      "Ġlatter": 8167,
      "ĠAtt": 8168,
      "Ġproto": 8169,
      "ĠWhat": 8170,
      "Brit": 8171,
      "Ġice": 8172,
      "POST": 8173,
      "ĠHome": 8174,
      "ĠDocument": 8175,
      "prise": 8176,
      "1948": 8177,
      "Ġfederal": 8178,
      "uite": 8179,
      "ĠScotland": 8180,
      "psilon": 8181,
      "Make": 8182,
      "route": 8183,
      "Ġque": 8184,
      "1959": 8185,
      "Ġpages": 8186,
      "Ids": 8187,
      "ĠApache": 8188,
      "RR": 8189,
      "Ġgets": 8190,
      "when": 8191,
      "epsilon": 8192,
      "Ġcursor": 8193,
      "ampions": 8194,
      "TestCase": 8195,
      "ipher": 8196,
      "Ġvariety": 8197,
      "Tx": 8198,
      "Ġtracks": 8199,
      "ELD": 8200,
      "ĠAlb": 8201,
      "Constructor": 8202,
      "ĠRam": 8203,
      "Sports": 8204,
      "navList": 8205,
      "IGHT": 8206,
      "Ġreach": 8207,
      "Ġresulting": 8208,
      "Fn": 8209,
      "Ġol": 8210,
      "ĠQueen": 8211,
      "Ġchem": 8212,
      "Ġuseful": 8213,
      "ArgumentException": 8214,
      "ĠKent": 8215,
      "Ġpil": 8216,
      "Ġmicro": 8217,
      "Wait": 8218,
      "Ġarrest": 8219,
      "icator": 8220,
      "amazon": 8221,
      "COMP": 8222,
      "Ġserve": 8223,
      "Ġrestrict": 8224,
      "Environment": 8225,
      "zen": 8226,
      "Nullable": 8227,
      "ribution": 8228,
      "ĠAlbert": 8229,
      "imitive": 8230,
      "adel": 8231,
      "Ġrecording": 8232,
      "Ġlaunch": 8233,
      "Ġdidn": 8234,
      "ĠXML": 8235,
      "ĠJones": 8236,
      "Pub": 8237,
      "ĠEach": 8238,
      "Google": 8239,
      "ĠMid": 8240,
      "mann": 8241,
      "Ġgenus": 8242,
      "colFirst": 8243,
      "Db": 8244,
      "Ġseat": 8245,
      "ographic": 8246,
      "1939": 8247,
      "STATE": 8248,
      "tor": 8249,
      "oday": 8250,
      "PU": 8251,
      "Import": 8252,
      ">:": 8253,
      "ĠAli": 8254,
      "cdot": 8255,
      "1943": 8256,
      "Screen": 8257,
      "undred": 8258,
      "ĠEdward": 8259,
      "Ġseek": 8260,
      "sync": 8261,
      "Release": 8262,
      "ression": 8263,
      "elem": 8264,
      "Ġpanel": 8265,
      "ĠRo": 8266,
      "collapse": 8267,
      "ĉĠĠĠĠ": 8268,
      "Ġsal": 8269,
      "Ġrect": 8270,
      "Ġbinary": 8271,
      "ĠJohnson": 8272,
      "gypt": 8273,
      "Ġoccur": 8274,
      "iday": 8275,
      "ding": 8276,
      "ĠCentre": 8277,
      "Ġvote": 8278,
      "Support": 8279,
      "Ġtypedef": 8280,
      "SELECT": 8281,
      "Ġfigure": 8282,
      "Ġcancel": 8283,
      "fully": 8284,
      "ĠRepresent": 8285,
      "href": 8286,
      "Methods": 8287,
      "Are": 8288,
      "ĠCro": 8289,
      "inder": 8290,
      "ĠImage": 8291,
      "plus": 8292,
      "ĠPhilipp": 8293,
      "Ġ×": 8294,
      "ibli": 8295,
      "ĠPRO": 8296,
      "Ġball": 8297,
      "Ġstored": 8298,
      "Ġserving": 8299,
      "Ġcharge": 8300,
      "RPC": 8301,
      "println": 8302,
      "aver": 8303,
      "UD": 8304,
      "ĠEarth": 8305,
      "Disc": 8306,
      "getElement": 8307,
      "Ġprotect": 8308,
      "ĠRailway": 8309,
      "assertTrue": 8310,
      "feature": 8311,
      "\"\"\"": 8312,
      "Ġgetting": 8313,
      "Ġactors": 8314,
      "Ġoptim": 8315,
      "Ġassembly": 8316,
      "ĠFrancisco": 8317,
      "Ġpositions": 8318,
      "\"},": 8319,
      "1941": 8320,
      "iÄĩ": 8321,
      "\"/></": 8322,
      "Condition": 8323,
      "Ġfriends": 8324,
      "una": 8325,
      "ĠProcess": 8326,
      "ĠWill": 8327,
      "Ġpredict": 8328,
      "Ġforest": 8329,
      "Multi": 8330,
      "Ġsuccessfully": 8331,
      "emporary": 8332,
      "condition": 8333,
      "1957": 8334,
      "ĠOptional": 8335,
      "Ġ\"%": 8336,
      "ĠJac": 8337,
      "Ġregistered": 8338,
      "Writ": 8339,
      "wall": 8340,
      "icine": 8341,
      "CALL": 8342,
      "ĠCollection": 8343,
      "ĠGeorgia": 8344,
      "Ġfavor": 8345,
      "SSL": 8346,
      "ONG": 8347,
      "Ġmoving": 8348,
      "Ġdict": 8349,
      "DOM": 8350,
      ":\\": 8351,
      "1946": 8352,
      "ĠJewish": 8353,
      "relation": 8354,
      "Ġalgorithm": 8355,
      "ĠFC": 8356,
      "Player": 8357,
      "Ġuniversity": 8358,
      "game": 8359,
      "inations": 8360,
      "allclasses": 8361,
      "Driver": 8362,
      "Ġcharset": 8363,
      "ampl": 8364,
      "inherit": 8365,
      "atar": 8366,
      "ĠOb": 8367,
      "Ġmd": 8368,
      "ĠIllinois": 8369,
      "Ġrepresenting": 8370,
      "[\\": 8371,
      "Ġcritical": 8372,
      "Ġreligious": 8373,
      "Omega": 8374,
      "GroupName": 8375,
      "compile": 8376,
      "Ġvertical": 8377,
      "uv": 8378,
      "MI": 8379,
      "month": 8380,
      "ais": 8381,
      "Ġholds": 8382,
      "Ġappropri": 8383,
      "lipse": 8384,
      "ĠRos": 8385,
      "lov": 8386,
      "IDTH": 8387,
      "Ġaccepted": 8388,
      "ĠRegion": 8389,
      "pat": 8390,
      "ĠPortug": 8391,
      "iverse": 8392,
      "wild": 8393,
      "Ġmodified": 8394,
      "pping": 8395,
      "Ġnine": 8396,
      "Ġreader": 8397,
      "Ġminimum": 8398,
      "ĠPoland": 8399,
      "upload": 8400,
      "Ġindividuals": 8401,
      "apos": 8402,
      "Ġusage": 8403,
      "eller": 8404,
      "ĠExample": 8405,
      "NET": 8406,
      "Ġcoming": 8407,
      "PH": 8408,
      "ĠSets": 8409,
      "getValue": 8410,
      "Ġpoliticians": 8411,
      "sheet": 8412,
      "Ġprev": 8413,
      "plates": 8414,
      "Enter": 8415,
      "Ġ\\\"": 8416,
      "Ġstories": 8417,
      "Ġpromise": 8418,
      "flex": 8419,
      "Ġextract": 8420,
      "Ġleaving": 8421,
      "May": 8422,
      "cean": 8423,
      "ĠKong": 8424,
      "ĠRoute": 8425,
      "Ġorganizations": 8426,
      "orest": 8427,
      "urface": 8428,
      "ĠDutch": 8429,
      "ĠGovernor": 8430,
      "Gamma": 8431,
      "Ġships": 8432,
      "rast": 8433,
      "ÑģÑĤ": 8434,
      "Ġstars": 8435,
      "Ġil": 8436,
      "Ġlives": 8437,
      "Constant": 8438,
      "Lower": 8439,
      "Ġstra": 8440,
      "Ġmult": 8441,
      "Ang": 8442,
      "Ġincome": 8443,
      "Ġfiction": 8444,
      "Ġaxis": 8445,
      "SV": 8446,
      "Fin": 8447,
      "validate": 8448,
      "Ġdrug": 8449,
      "Sl": 8450,
      "ocity": 8451,
      "sa": 8452,
      "Ġrecently": 8453,
      "Ġcomedy": 8454,
      "Ġplans": 8455,
      "Ġmatter": 8456,
      "ante": 8457,
      "ĠBoston": 8458,
      "Ġbrief": 8459,
      "sky": 8460,
      "1952": 8461,
      "DEF": 8462,
      "Ġclaimed": 8463,
      "Ġvoice": 8464,
      "Ġlay": 8465,
      "nob": 8466,
      "zip": 8467,
      "Ġneighbor": 8468,
      "duration": 8469,
      "DIS": 8470,
      "bul": 8471,
      "Ġfun": 8472,
      "Batch": 8473,
      "Ġcarry": 8474,
      "Ġresolve": 8475,
      "ĠCoast": 8476,
      "Ġprovider": 8477,
      "fixed": 8478,
      "Ġhelped": 8479,
      "Ġheavy": 8480,
      "Ġretired": 8481,
      "}_{\\": 8482,
      "STRING": 8483,
      "United": 8484,
      "Ġrespond": 8485,
      "atomic": 8486,
      "Ġhistorical": 8487,
      "EEEE": 8488,
      "Ġwestern": 8489,
      "ĠPage": 8490,
      "ĠMajor": 8491,
      "MODULE": 8492,
      "Ġdocumentation": 8493,
      "ĠMassachusetts": 8494,
      "\"],": 8495,
      "sequence": 8496,
      "objects": 8497,
      "Ġsettlement": 8498,
      "Ġpriv": 8499,
      "ĠInf": 8500,
      "ĠTR": 8501,
      "Ñĩ": 8502,
      "Ġsaying": 8503,
      "ĠLab": 8504,
      "1947": 8505,
      "BAR": 8506,
      "Binary": 8507,
      "TT": 8508,
      "CONT": 8509,
      "#{": 8510,
      "ĠIslam": 8511,
      "Ġfill": 8512,
      "General": 8513,
      "ĠWilliams": 8514,
      "ĠSoftware": 8515,
      "emit": 8516,
      "Ġworkers": 8517,
      "bury": 8518,
      "Bal": 8519,
      "Ġhospital": 8520,
      "variant": 8521,
      "ssl": 8522,
      "rum": 8523,
      "ĠYour": 8524,
      "ĠTw": 8525,
      "Ġelectric": 8526,
      "Ġreferred": 8527,
      "Ġ{},": 8528,
      "onto": 8529,
      "1955": 8530,
      "Failure": 8531,
      "ipment": 8532,
      ";\">": 8533,
      "Ġannot": 8534,
      "Ð¿": 8535,
      "Ġnearly": 8536,
      "CHAN": 8537,
      "Admin": 8538,
      "chain": 8539,
      "amm": 8540,
      "ARG": 8541,
      "ĠFree": 8542,
      "Ġ\"\",": 8543,
      "Ġdetail": 8544,
      "Ġtrigger": 8545,
      "disable": 8546,
      "ĠGlobal": 8547,
      "Place": 8548,
      "ĠPlaces": 8549,
      "Ġmis": 8550,
      "Ġsense": 8551,
      "ying": 8552,
      "Ġrows": 8553,
      "ĠĠĠĠĠĠĠĠĠĠĠĠĠĠĠĠĠĠĠĠĠĠĠĠĠĠĠĠĠĠ": 8554,
      "Rob": 8555,
      "Ġcontents": 8556,
      "Ġofficers": 8557,
      "radio": 8558,
      "Ġcarried": 8559,
      "Strategy": 8560,
      "Ġmerg": 8561,
      "goto": 8562,
      "lia": 8563,
      "Ġspread": 8564,
      "Ġpoor": 8565,
      "hens": 8566,
      "seud": 8567,
      ";)": 8568,
      "emph": 8569,
      "Ġentries": 8570,
      "Ġstreng": 8571,
      "QU": 8572,
      "Ġprofessor": 8573,
      "vc": 8574,
      "Ġfeat": 8575,
      "Mapper": 8576,
      "Move": 8577,
      "Ġbridge": 8578,
      "Ġcitiz": 8579,
      "Identity": 8580,
      "Ġoperated": 8581,
      "Ġinterview": 8582,
      "urer": 8583,
      "kee": 8584,
      "pdf": 8585,
      "ubern": 8586,
      "arters": 8587,
      "/_": 8588,
      ".\"\"\"": 8589,
      "clusion": 8590,
      "sex": 8591,
      "Allow": 8592,
      "ĠBas": 8593,
      "ĠSund": 8594,
      "dy": 8595,
      "Renderer": 8596,
      "Ġinfluence": 8597,
      "isEmpty": 8598,
      "illy": 8599,
      "Dependency": 8600,
      "andon": 8601,
      "ederation": 8602,
      "ishes": 8603,
      "Ġconstructed": 8604,
      "CTYPE": 8605,
      "orning": 8606,
      "ĠCE": 8607,
      ":`": 8608,
      "porated": 8609,
      "Ġbatt": 8610,
      "Ġpatients": 8611,
      "release": 8612,
      "ĠLuc": 8613,
      "Ġmiss": 8614,
      "Begin": 8615,
      "Ġverify": 8616,
      "NV": 8617,
      "Ġreli": 8618,
      "ĠCount": 8619,
      "Ġquickly": 8620,
      "Further": 8621,
      "demic": 8622,
      "Ġ@\"": 8623,
      "Ġdepth": 8624,
      "British": 8625,
      "Ġsister": 8626,
      "complete": 8627,
      "ĠVector": 8628,
      "Ġaudio": 8629,
      "Ġbits": 8630,
      "mediate": 8631,
      "player": 8632,
      "Ġautomatically": 8633,
      "Ġpresence": 8634,
      "Ġeffective": 8635,
      "iagnostic": 8636,
      "person": 8637,
      "rapped": 8638,
      "Shared": 8639,
      "Ġclubs": 8640,
      "ĠCapt": 8641,
      "ancing": 8642,
      "Ġsupports": 8643,
      "Ġsummary": 8644,
      "dig": 8645,
      "assandra": 8646,
      "urban": 8647,
      "Association": 8648,
      "Install": 8649,
      "ĠEastern": 8650,
      "ĠRemove": 8651,
      "abeth": 8652,
      "Ġthreat": 8653,
      "Ġoffered": 8654,
      "onic": 8655,
      "ctrine": 8656,
      "formance": 8657,
      "Ġcovered": 8658,
      "Ġignore": 8659,
      "Ġsys": 8660,
      "Ġcomposed": 8661,
      "Save": 8662,
      "Game": 8663,
      "Ġexecution": 8664,
      "cfg": 8665,
      "loop": 8666,
      "Ġpurpose": 8667,
      "Ġmatching": 8668,
      "ĠTheatre": 8669,
      "itness": 8670,
      "ĠTheir": 8671,
      "Program": 8672,
      "Private": 8673,
      "Join": 8674,
      "emy": 8675,
      "Ġcities": 8676,
      "Mer": 8677,
      "kt": 8678,
      "apsed": 8679,
      "Ġcli": 8680,
      "Ġsociety": 8681,
      "Ġru": 8682,
      "Ġcouncil": 8683,
      "Ġexam": 8684,
      "Ð°Ð½": 8685,
      "Ġthing": 8686,
      "SCR": 8687,
      "ingham": 8688,
      "ulpt": 8689,
      "Ġsafe": 8690,
      "Ġ..": 8691,
      "Ġattention": 8692,
      "1954": 8693,
      "Ġobserved": 8694,
      "mult": 8695,
      "ĠPolice": 8696,
      "Ġalleg": 8697,
      "activ": 8698,
      "ĠCEL": 8699,
      "occer": 8700,
      "ĠAny": 8701,
      "Summary": 8702,
      "ĠGra": 8703,
      "iÃ³n": 8704,
      "Focus": 8705,
      "itage": 8706,
      "nic": 8707,
      "Ġdespite": 8708,
      "ierarch": 8709,
      "CHAR": 8710,
      "spirit": 8711,
      "ĠBit": 8712,
      "oked": 8713,
      "MIN": 8714,
      "ih": 8715,
      "Convert": 8716,
      "ĠSea": 8717,
      "vo": 8718,
      "ussian": 8719,
      "edia": 8720,
      "ĠLink": 8721,
      "Ġspecify": 8722,
      "Ġsequ": 8723,
      "800": 8724,
      "BIT": 8725,
      "CLASS": 8726,
      "ĠBern": 8727,
      "outheast": 8728,
      "Ġlearn": 8729,
      "Ġhockey": 8730,
      "ĠSecurity": 8731,
      "Word": 8732,
      "Tags": 8733,
      "ĠChannel": 8734,
      "1949": 8735,
      "ĠBang": 8736,
      "_)": 8737,
      "bits": 8738,
      "Ġintended": 8739,
      ":[": 8740,
      "Promise": 8741,
      "ĠVan": 8742,
      "ounce": 8743,
      "Ġordered": 8744,
      "Zone": 8745,
      "Ã¡n": 8746,
      "rypto": 8747,
      "'ll": 8748,
      "Ġmultip": 8749,
      "EEEEFF": 8750,
      "ĠHung": 8751,
      "Ġthr": 8752,
      "ĠOfficial": 8753,
      "ĠAmazon": 8754,
      "pod": 8755,
      "ĠJr": 8756,
      "IOException": 8757,
      "tely": 8758,
      "ĠLL": 8759,
      "=\"$": 8760,
      "ran": 8761,
      "ĠBusiness": 8762,
      "InputStream": 8763,
      "SI": 8764,
      "Ġviews": 8765,
      "Ġendpoint": 8766,
      "Ġanything": 8767,
      "Binding": 8768,
      "Ġaccur": 8769,
      "Ġregions": 8770,
      "Ġdigital": 8771,
      "fix": 8772,
      "00000000": 8773,
      "Unknown": 8774,
      "ĠBal": 8775,
      "Ġfamous": 8776,
      "Ġsquare": 8777,
      "accept": 8778,
      "Span": 8779,
      "odies": 8780,
      "Ġarchitecture": 8781,
      "Ġexpanded": 8782,
      "Ġhighly": 8783,
      "According": 8784,
      "Ġpersonnel": 8785,
      "ĠStan": 8786,
      "Ġregional": 8787,
      "Day": 8788,
      "DOCTYPE": 8789,
      "Ġ''": 8790,
      "visible": 8791,
      "Ġknowledge": 8792,
      "merge": 8793,
      "Execution": 8794,
      "ĠNight": 8795,
      "Ġchunk": 8796,
      "USER": 8797,
      "ĠSenate": 8798,
      "bg": 8799,
      "ĠLatin": 8800,
      "porter": 8801,
      "ĠStat": 8802,
      "ench": 8803,
      "Ġpi": 8804,
      "Ġdeclared": 8805,
      "RC": 8806,
      "uffers": 8807,
      "'m": 8808,
      "NSString": 8809,
      "ĠBad": 8810,
      "ĠColumbia": 8811,
      "oles": 8812,
      "Ġguest": 8813,
      "Ġmetal": 8814,
      "numerus": 8815,
      "Ġdst": 8816,
      "numerusform": 8817,
      "Ġconcert": 8818,
      ">)": 8819,
      "Ġduration": 8820,
      "Some": 8821,
      "Normal": 8822,
      "ĠĠĠĠĠĠĠĠĠĠĠĠĠĠĠĠĊ": 8823,
      "Ġtrying": 8824,
      "ĠAuthor": 8825,
      "Html": 8826,
      "vare": 8827,
      "ĠEcon": 8828,
      "1953": 8829,
      "Ġ'',": 8830,
      "Ġdeliv": 8831,
      "forEach": 8832,
      "Ġgoes": 8833,
      "Ġdifference": 8834,
      "raining": 8835,
      "Ġissued": 8836,
      "Ġmuseum": 8837,
      "initions": 8838,
      "MT": 8839,
      "ĠEp": 8840,
      "icip": 8841,
      "^*": 8842,
      "ĠSIZE": 8843,
      "groups": 8844,
      "ĠClient": 8845,
      "ĠScottish": 8846,
      "Ġhighlight": 8847,
      "ĠWis": 8848,
      "fect": 8849,
      "Ã¸": 8850,
      "ĠKen": 8851,
      "ĠOxford": 8852,
      "Env": 8853,
      "Ġacquired": 8854,
      "Validator": 8855,
      "ĠReview": 8856,
      "Ġapplications": 8857,
      "Ġlanguages": 8858,
      "ASSERT": 8859,
      "Ġlooking": 8860,
      "åĪ": 8861,
      "alytics": 8862,
      "sr": 8863,
      "Ġboost": 8864,
      "isset": 8865,
      "Family": 8866,
      "ĠSecretary": 8867,
      "fmt": 8868,
      "ĠPrince": 8869,
      "Ġvon": 8870,
      "cher": 8871,
      "Raw": 8872,
      "Ġsubsequently": 8873,
      "joy": 8874,
      "Ġdestination": 8875,
      "Ġmainly": 8876,
      "alias": 8877,
      "Ġgeneration": 8878,
      "^^": 8879,
      "Ġready": 8880,
      "aser": 8881,
      "Ġtags": 8882,
      "Ġbul": 8883,
      ">;": 8884,
      "essions": 8885,
      "Ġdescent": 8886,
      "Ġderived": 8887,
      "Ġparties": 8888,
      "inent": 8889,
      "ĠHere": 8890,
      "1951": 8891,
      "ĠSl": 8892,
      "agination": 8893,
      "...</": 8894,
      "Ġwild": 8895,
      "trace": 8896,
      "itempty": 8897,
      "Ġillustr": 8898,
      "Annotation": 8899,
      "epend": 8900,
      "Messages": 8901,
      "Look": 8902,
      "Objects": 8903,
      "Ġsites": 8904,
      "ĠDim": 8905,
      "ĠWARRAN": 8906,
      "ä»": 8907,
      "Ġeduc": 8908,
      "omitempty": 8909,
      "expand": 8910,
      "zz": 8911,
      "ORDER": 8912,
      "ĠMember": 8913,
      "Ġseem": 8914,
      "vin": 8915,
      "ĠConf": 8916,
      "aph": 8917,
      "dk": 8918,
      "Ġsync": 8919,
      "poses": 8920,
      "Comm": 8921,
      "Append": 8922,
      "ieut": 8923,
      "Music": 8924,
      "ORTED": 8925,
      "aby": 8926,
      "Ġprocessing": 8927,
      "Fragment": 8928,
      "eces": 8929,
      "ĠDOM": 8930,
      "udget": 8931,
      "sn": 8932,
      "Skip": 8933,
      "yo": 8934,
      "Ġrequested": 8935,
      "Ġcombined": 8936,
      "uries": 8937,
      "Resolver": 8938,
      "Ġbelong": 8939,
      "ï»": 8940,
      "ĠDist": 8941,
      "Ġfirm": 8942,
      "ĠProperty": 8943,
      "Groups": 8944,
      "blank": 8945,
      "ifi": 8946,
      "ĠPower": 8947,
      "Ġele": 8948,
      "ĠMu": 8949,
      "Ġtypically": 8950,
      "cli": 8951,
      "chart": 8952,
      "ulator": 8953,
      "ORY": 8954,
      "TF": 8955,
      "exist": 8956,
      "ĠMany": 8957,
      "Usage": 8958,
      "ĠCustom": 8959,
      "zero": 8960,
      "Ġeq": 8961,
      "batch": 8962,
      "antry": 8963,
      "deg": 8964,
      "tf": 8965,
      "Ġbelieved": 8966,
      "equiv": 8967,
      "ĠWay": 8968,
      "teen": 8969,
      "Ġzone": 8970,
      "rece": 8971,
      "Ġassign": 8972,
      "metric": 8973,
      "More": 8974,
      "Ġbrand": 8975,
      "Mill": 8976,
      "Throw": 8977,
      "Ġvisual": 8978,
      "Rev": 8979,
      "Ġproviding": 8980,
      "Ġearned": 8981,
      "ĠBOOST": 8982,
      "Ġinterval": 8983,
      "ruby": 8984,
      "ĠAri": 8985,
      "How": 8986,
      "Ġpal": 8987,
      "generate": 8988,
      "ĠBerlin": 8989,
      "oved": 8990,
      "ANCE": 8991,
      "600": 8992,
      "Ġ\"\";": 8993,
      "NamedCell": 8994,
      "thur": 8995,
      "uzz": 8996,
      "report": 8997,
      "NavBarFont": 8998,
      "Ġleaders": 8999,
      "Ġreflect": 9000,
      "ï»¿": 9001,
      "Leg": 9002,
      "aylor": 9003,
      "ĠEgypt": 9004,
      "ĠDown": 9005,
      "ntario": 9006,
      "ryption": 9007,
      "atics": 9008,
      "lat": 9009,
      "Ġjoint": 9010,
      "ĠUSA": 9011,
      "Ġpermissions": 9012,
      "indent": 9013,
      "Ġexchange": 9014,
      "jpg": 9015,
      "Ġlaws": 9016,
      "Ġwor": 9017,
      "onia": 9018,
      "ucky": 9019,
      "bean": 9020,
      "ĠWild": 9021,
      "convert": 9022,
      "250": 9023,
      "origin": 9024,
      "ĠRay": 9025,
      "Ġreports": 9026,
      "Ġrelations": 9027,
      "setup": 9028,
      "Audio": 9029,
      "RESULT": 9030,
      "Ġcompeted": 9031,
      "agent": 9032,
      "ĠCreek": 9033,
      "Ġgiving": 9034,
      "ĠCorps": 9035,
      "Ġreduce": 9036,
      "Ġidentified": 9037,
      "iminal": 9038,
      "pton": 9039,
      "GER": 9040,
      "Sim": 9041,
      "ydney": 9042,
      "racy": 9043,
      "Diagnostics": 9044,
      "exit": 9045,
      "Ġnorm": 9046,
      "Edge": 9047,
      "quis": 9048,
      "Ġskip": 9049,
      "Ġoil": 9050,
      "Ġspirit": 9051,
      "ĠJackson": 9052,
      "HERE": 9053,
      "chester": 9054,
      "Ġmarked": 9055,
      "ters": 9056,
      "Ġcat": 9057,
      "blue": 9058,
      "Ġlif": 9059,
      "idents": 9060,
      "ĠHong": 9061,
      "Ġdiscovered": 9062,
      "EST": 9063,
      "weet": 9064,
      "Ð¾Ð²": 9065,
      "assign": 9066,
      "ĠLight": 9067,
      "wd": 9068,
      "simple": 9069,
      "Ġchoice": 9070,
      "bservable": 9071,
      "()),": 9072,
      "Ġmunicipality": 9073,
      "ĠÐ¸": 9074,
      ">'": 9075,
      "ĠJes": 9076,
      "Ġult": 9077,
      "orders": 9078,
      "she": 9079,
      "ĠJean": 9080,
      "ĠStation": 9081,
      "ĠStatus": 9082,
      "ĠCorporation": 9083,
      "ĠAff": 9084,
      "ĠALIGN": 9085,
      "Insert": 9086,
      "Ġoffers": 9087,
      "FilterDatabase": 9088,
      "Ġoccurs": 9089,
      "dash": 9090,
      "ĠSand": 9091,
      ",-": 9092,
      "Drag": 9093,
      "ĠHospital": 9094,
      "iments": 9095,
      "Ġopacity": 9096,
      "ĠManagement": 9097,
      "Ġequivalent": 9098,
      "ĠAndrew": 9099,
      "ĠMot": 9100,
      "Ġtrial": 9101,
      "Ġpressure": 9102,
      "1936": 9103,
      "Ġdiss": 9104,
      "ĠBre": 9105,
      "(.": 9106,
      "Ġvalidate": 9107,
      "Ġprice": 9108,
      "While": 9109,
      "Ġwrong": 9110,
      "Processor": 9111,
      "Should": 9112,
      "ĠElect": 9113,
      "Ġ${\\": 9114,
      "gregate": 9115,
      "ĠLittle": 9116,
      "trl": 9117,
      "Ġreturning": 9118,
      "__)": 9119,
      "raine": 9120,
      "Ġreserved": 9121,
      "Ġtemperature": 9122,
      "ĠBoth": 9123,
      "ĠSource": 9124,
      "Ġreduced": 9125,
      "Ġinstances": 9126,
      "'ve": 9127,
      "alog": 9128,
      "Free": 9129,
      "cover": 9130,
      "West": 9131,
      "kwargs": 9132,
      "ĠÂ£": 9133,
      "%\"": 9134,
      "ĠAlexander": 9135,
      "ĠEst": 9136,
      "iced": 9137,
      "Ġplot": 9138,
      "FE": 9139,
      "Ġdoub": 9140,
      "1918": 9141,
      "Ġconverted": 9142,
      "ĠTechnology": 9143,
      "Ġwinner": 9144,
      "ĠIllegal": 9145,
      "nn": 9146,
      "Ġcompletely": 9147,
      "tar": 9148,
      "icol": 9149,
      "ĠWater": 9150,
      "NotFound": 9151,
      "ĠShort": 9152,
      "rg": 9153,
      "ĠØ": 9154,
      "aught": 9155,
      "puter": 9156,
      "memory": 9157,
      "']);": 9158,
      "bus": 9159,
      "Ġoperating": 9160,
      "asis": 9161,
      "ĠBol": 9162,
      "Sources": 9163,
      "cha": 9164,
      "ĠBrook": 9165,
      "ĠHarr": 9166,
      "Ġcer": 9167,
      "Ġawards": 9168,
      "ĠSom": 9169,
      "govern": 9170,
      "Platform": 9171,
      "!!": 9172,
      "sen": 9173,
      "ĠMock": 9174,
      "Complete": 9175,
      "ori": 9176,
      "ading": 9177,
      "Serializer": 9178,
      "bat": 9179,
      "CB": 9180,
      "%)": 9181,
      "variable": 9182,
      "Ġsb": 9183,
      "ĠFar": 9184,
      "Remote": 9185,
      "Ġdecre": 9186,
      "GO": 9187,
      "messages": 9188,
      "anz": 9189,
      "Ġcultural": 9190,
      "Ġones": 9191,
      "Addr": 9192,
      "elements": 9193,
      "iversal": 9194,
      "ĠWrite": 9195,
      "ĠKorea": 9196,
      "ocaml": 9197,
      "ĠJoe": 9198,
      "ĠDO": 9199,
      "Ġassociation": 9200,
      "vertical": 9201,
      "dc": 9202,
      "Ġdetermined": 9203,
      "Home": 9204,
      "circle": 9205,
      "ĠServices": 9206,
      "ĠRest": 9207,
      "Ġbaseball": 9208,
      "Ġstarts": 9209,
      "NUM": 9210,
      "Ġdisease": 9211,
      "1938": 9212,
      "ubernetes": 9213,
      "swarm": 9214,
      "ĠRecord": 9215,
      "ĠVictoria": 9216,
      "Ġdimension": 9217,
      "ĠArgent": 9218,
      "ĠEND": 9219,
      "alty": 9220,
      "Warning": 9221,
      "ordered": 9222,
      "pet": 9223,
      "ĠLoad": 9224,
      "ĠWall": 9225,
      "article": 9226,
      "Ġyouth": 9227,
      "Folder": 9228,
      "catch": 9229,
      "Ġlands": 9230,
      "Ġhouses": 9231,
      "ologies": 9232,
      "ĠBelg": 9233,
      "ester": 9234,
      "/{": 9235,
      "Ġvalidation": 9236,
      "ĠFour": 9237,
      "Ġpul": 9238,
      "Ġdistinct": 9239,
      "Ġways": 9240,
      "ĠIslands": 9241,
      "wp": 9242,
      "Personal": 9243,
      "Ġtrust": 9244,
      "Ġdialog": 9245,
      "Ġwidget": 9246,
      "Austral": 9247,
      "rawn": 9248,
      "ĠWITH": 9249,
      "Ġsynchron": 9250,
      "oir": 9251,
      "policy": 9252,
      "ĠRow": 9253,
      "]))": 9254,
      "Ġdocuments": 9255,
      "xhtml": 9256,
      "Ġagreement": 9257,
      "Ġestimated": 9258,
      "some": 9259,
      "******": 9260,
      "Arguments": 9261,
      "sid": 9262,
      "puty": 9263,
      "ĠSports": 9264,
      "contents": 9265,
      "Ġresidents": 9266,
      "Ġ\".": 9267,
      "Ð·": 9268,
      "ieutenant": 9269,
      "Wil": 9270,
      "ĠLiber": 9271,
      "redu": 9272,
      "embed": 9273,
      "ĠControl": 9274,
      "zech": 9275,
      "large": 9276,
      "/\"": 9277,
      "ĠPolish": 9278,
      "Ġroles": 9279,
      "Ġfort": 9280,
      "elastic": 9281,
      "alert": 9282,
      "utdown": 9283,
      "tensor": 9284,
      "ropol": 9285,
      "LOC": 9286,
      "Ġeastern": 9287,
      "wiki": 9288,
      "Ġframework": 9289,
      "Ġven": 9290,
      "Ãº": 9291,
      "Ġmarriage": 9292,
      "phia": 9293,
      "ĠTre": 9294,
      "ĠOs": 9295,
      "wildfly": 9296,
      "ĠAk": 9297,
      "Ġisn": 9298,
      "elligence": 9299,
      "ectors": 9300,
      "Ġwaves": 9301,
      "itical": 9302,
      "lots": 9303,
      "Ġcompare": 9304,
      "miss": 9305,
      "Ġdownload": 9306,
      "ĠLater": 9307,
      "yer": 9308,
      "Inner": 9309,
      "Ġdisk": 9310,
      "ogram": 9311,
      "iques": 9312,
      "rovers": 9313,
      "University": 9314,
      "Ġliterature": 9315,
      "ĠSign": 9316,
      "Ġrout": 9317,
      "Ã©e": 9318,
      "Ġflex": 9319,
      "Ġlabels": 9320,
      "Ġfloor": 9321,
      "Two": 9322,
      "Contents": 9323,
      "Ġidentifier": 9324,
      "Ġtroops": 9325,
      "ups": 9326,
      "UES": 9327,
      ":'": 9328,
      "ĠJon": 9329,
      "Ġ'.": 9330,
      "water": 9331,
      "rtl": 9332,
      "FN": 9333,
      "ĠOrgan": 9334,
      "Ġpull": 9335,
      "Ġnewly": 9336,
      "highlight": 9337,
      "ixels": 9338,
      "rangle": 9339,
      "Ġepisodes": 9340,
      "=\\\"": 9341,
      "Ġnotice": 9342,
      "Bro": 9343,
      "Ġappearances": 9344,
      "Ġvel": 9345,
      "ĠHuman": 9346,
      "pear": 9347,
      "ĠOutput": 9348,
      "ĠBa": 9349,
      "ĠCy": 9350,
      "download": 9351,
      "Lambda": 9352,
      "Ġnation": 9353,
      "vant": 9354,
      "deprecated": 9355,
      "áĥ": 9356,
      "rical": 9357,
      "ĠDub": 9358,
      "ses": 9359,
      "ĠDar": 9360,
      "clo": 9361,
      "Segment": 9362,
      "Ġclock": 9363,
      "ATTR": 9364,
      "1937": 9365,
      "ulf": 9366,
      "Ġstrategy": 9367,
      "Ġelif": 9368,
      "Ġfellow": 9369,
      "Ġexecutive": 9370,
      "ĠJeff": 9371,
      "created": 9372,
      "Ġruntime": 9373,
      "Ġ|=": 9374,
      "Ġreferences": 9375,
      "ĠGuard": 9376,
      "Observer": 9377,
      "ologist": 9378,
      "produ": 9379,
      "Ġpromoted": 9380,
      "commons": 9381,
      "ĠSem": 9382,
      "pur": 9383,
      "ĠWeek": 9384,
      "ĠLcom": 9385,
      "LOW": 9386,
      "Ġweap": 9387,
      "Ġ'%": 9388,
      "Ġexamples": 9389,
      "Chain": 9390,
      "country": 9391,
      "ĠĠĠĊ": 9392,
      "Ġdevices": 9393,
      "diff": 9394,
      "Book": 9395,
      "Timestamp": 9396,
      "VAR": 9397,
      "Ġsecondary": 9398,
      "Ġrare": 9399,
      "icted": 9400,
      "æľ": 9401,
      "Ġmo": 9402,
      ")=": 9403,
      "NC": 9404,
      "Ġadding": 9405,
      "ĠRepublican": 9406,
      "Real": 9407,
      "encode": 9408,
      "ĠSection": 9409,
      "vs": 9410,
      "ĠSD": 9411,
      "flo": 9412,
      "hu": 9413,
      "Ġslight": 9414,
      "className": 9415,
      "Ġfifth": 9416,
      "rence": 9417,
      "Contains": 9418,
      "Ġwarning": 9419,
      "Cmd": 9420,
      "bose": 9421,
      "ĠDEFAULT": 9422,
      "amber": 9423,
      "Ġanc": 9424,
      "Ġgun": 9425,
      "amer": 9426,
      "ĠLib": 9427,
      "Tax": 9428,
      "Ġhyp": 9429,
      "etailed": 9430,
      "Ġdedicated": 9431,
      "structions": 9432,
      "adelphia": 9433,
      "SM": 9434,
      "Ġrevealed": 9435,
      "canvas": 9436,
      "toBe": 9437,
      "Ġdestroyed": 9438,
      "ĠDaniel": 9439,
      "ĠAbstract": 9440,
      "ennes": 9441,
      "Ġroll": 9442,
      "react": 9443,
      "Ġmentioned": 9444,
      "Ġeasy": 9445,
      "ARN": 9446,
      "Ġstatistics": 9447,
      "ĠCreates": 9448,
      "FIELD": 9449,
      "Ġeverything": 9450,
      "stable": 9451,
      "Ġexpatriate": 9452,
      "Email": 9453,
      "PHP": 9454,
      "asm": 9455,
      "innes": 9456,
      "dem": 9457,
      "Ġadult": 9458,
      "Ġ----------------------------------------------------------------": 9459,
      "Users": 9460,
      "ĠQuery": 9461,
      "ĠOlympic": 9462,
      "Ġmaterials": 9463,
      "Î±": 9464,
      "Ġconversion": 9465,
      "native": 9466,
      "tribution": 9467,
      "CG": 9468,
      "zabeth": 9469,
      "Coll": 9470,
      "Ġaccom": 9471,
      "Ġtasks": 9472,
      "themes": 9473,
      "subscri": 9474,
      "Best": 9475,
      "iffer": 9476,
      "Connect": 9477,
      "VICE": 9478,
      "Ġmouse": 9479,
      "Ġtransferred": 9480,
      "Sm": 9481,
      "ĠOriginal": 9482,
      ")$.": 9483,
      "Ġprovince": 9484,
      "includegraphics": 9485,
      "ĠHy": 9486,
      "ti": 9487,
      "Ġarrived": 9488,
      "world": 9489,
      "Ġadministration": 9490,
      "Ġdrag": 9491,
      "fetch": 9492,
      "Ġaccomp": 9493,
      "Timer": 9494,
      "International": 9495,
      "ashion": 9496,
      "clusive": 9497,
      "Ġhundred": 9498,
      "resp": 9499,
      "Ġflat": 9500,
      "WEB": 9501,
      "compare": 9502,
      "UND": 9503,
      "\\/": 9504,
      "Ġescape": 9505,
      "Ġbatch": 9506,
      "olec": 9507,
      "Rate": 9508,
      "Psi": 9509,
      "Ġmerge": 9510,
      "ĠDelete": 9511,
      "ĠSE": 9512,
      "Ġconnections": 9513,
      "å®": 9514,
      "arrier": 9515,
      "}=": 9516,
      "Ġchosen": 9517,
      "Ġconducted": 9518,
      "Ġsocket": 9519,
      "ĠDer": 9520,
      "cdn": 9521,
      "strings": 9522,
      "Ġdelegate": 9523,
      "}^{\\": 9524,
      "Ġimplemented": 9525,
      "Ġonto": 9526,
      "URCE": 9527,
      "CONFIG": 9528,
      "BY": 9529,
      "stein": 9530,
      "rog": 9531,
      "Ġweak": 9532,
      "ĠLy": 9533,
      "Ġemb": 9534,
      "illi": 9535,
      "Ġefforts": 9536,
      "Ġsituation": 9537,
      "osa": 9538,
      "Ġproced": 9539,
      "anth": 9540,
      "plementation": 9541,
      "Ġarticles": 9542,
[...]
