#version: 0.2
Ġ Ġ
ĠĠ ĠĠ
i n
Ġ t
o n
e r
a t
r e
h e
Ġ a
ĠĠ Ġ
e n
ĠĠĠĠ ĠĠĠĠ
o r
s t
a l
i on
Ġt he
l e
Ġ c
i t
a r
a n
s e
i s
Ġ f
d e
c t
Ġ o
r o
m e
Ġ p
in g
Ġ s
i c
Ġ w
Ġ b
Ġ in
ĠĠĠĠ ĠĠĠ
e d
en t
e s
Ġ =
Ġ \
n d
u r
Ġo f
Ġ $
ĉ ĉ
a s
e t
Ġ re
Ġ n
u t
Ġ (
i g
Ġ {
) ;
a c
Ġ m
Ġt o
i l
e l
at ion
Ġt h
Ġa nd
o l
u n
e x
Ġ <
Ġ d
m p
u l
o t
i f
i d
r a
l o
- -
= "
Ġ *
Ġ h
ĠĠĠĠĠĠĠĠ ĠĠĠ
i v
c e
t h
č Ċ
/ /
Ġ v
a g
p e
a b
ct ion
< /
Ġ T
q u
Ġ is
at e
Ġ S
Ġ }
a me
a d
t r
u m
t er
Ġ st
c h
Ġf or
Ġ l
_ {
u s
Ġ g
Ġ C
c o
Ġ e
p t
a m
Ġ A
s s
Ġc on
as s
en d
h t
i m
ĠĠĠĠ Ġ
u e
Ġ de
i st
l y
v er
at h
u b
Ġc o
it h
ĠĠĠĠĠĠĠĠ ĠĠĠĠĠĠĠĠ
Ġ "
I n
ex t
Ġ se
r i
ur n
" >
( )
* *
a p
Ġb e
e m
Ġ on
Ġ &
u p
o w
s p
e ct
l ass
e w
{ \
e st
ag e
i r
t urn
a y
o d
a v
Ġ M
t a
Ġth at
or t
y pe
= =
o de
in e
an d
Ġth is
Ġ$ \
l i
Ġ '
Ġ P
er s
Ġp ro
Ġ if
u re
re f
m ent
i z
ab le
Ġw ith
a se
-- --
ul t
c on
t o
2 0
Ġa n
ig ht
m ath
Ġ R
Ġa l
Ġ F
Ġ B
in t
Ġ I
g et
Ġ D
e g
p h
ĠĠĠĠĠĠĠĠ ĠĠĠĠĠĠĠ
ar t
m a
un ction
it y
ac k
Ġ Ċ
o ur
p er
c al
Ġa s
pt ion
Ġ L
l ic
ro m
Ġc lass
Ġ //
Ġ ex
Ġ N
k e
i le
. .
ĠT he
at a
Ġw h
an g
c k
Ġre turn
Ġ H
Ġb y
i me
i al
o m
Ġ E
u nd
er e
it e
Ġ or
} \
al ue
Ġ -
ĉĉ ĉĉ
o re
or m
Ġ it
t ext
} $
p ro
Ġ G
Ġw e
an s
Ġ @
iv e
^ {
j ect
0 0
u se
i mp
Ġ W
Ġ +
Ġ r
Ġ me
f f
â Ģ
Ġa re
- >
o s
o p
al l
f t
ac e
se t
re s
es s
i es
: :
st r
Ġ at
i b
Ġt r
Ġf unction
an t
C on
it ion
o c
Ġf rom
) ,
a re
ig n
} }
Ġ [
l u
Ġ O
b er
Ġ< /
p ar
) .
( \
s c
" ,
ar y
our ce
in d
o ut
il l
v e
Ġ /
e qu
( );
eg in
f ig
at ed
i re
or d
Ġc h
p s
' ,
Ġn ot
s er
b egin
a ct
( "
iz e
Ġ y
Ġ lo
i de
Ġs h
.. /
} ,
o g
n t
S t
Ġ* /
1 9
ub lic
b ject
g e
Ġre s
ro w
Ġn ew
a st
Ġ le
i p
ul l
Ġv ar
ra y
th is
l f
ab el
en s
) $
Ġco mp
f orm
_{ \
n ame
ĉĉ ĉ
tr ing
m l
Ġn ame
Ġ :
T he
Ġ U
---- ----
er r
( '
av e
le ment
d d
v ent
t e
ĠĠĠĠĠĠĠĠ Ġ
b o
p ut
Ġc an
Ġw as
an ce
en er
** **
ic al
E x
lo w
u g
ic h
de f
f r
} {
t y
en ce
ic e
Ġ In
d iv
o me
N ame
ĠĠĠĠĠĠĠĠ ĠĠĠĠĠĠĠĠĠĠĠ
Ġa r
Ġ |
er t
el l
R e
) )
Ġst r
ation s
r ight
Ġ .
== ==
i el
ar d
e q
o st
Ġ _
Ġ un
p l
il d
c c
or k
p p
Ġ he
iel d
Ġ J
Ġde f
d i
d u
or y
ac h
fr ac
on g
p ort
Ġ j
> </
imp ort
a k
f er
ode l
ta in
P ro
sp an
c ite
l abel
Ġse t
a mp
re turn
1 0
at or
co m
l ine
Ġ use
s o
u st
on e
o k
de x
un t
o id
s h
Ġ V
E R
par am
v ar
c ol
l l
> <
Ġp ublic
ss age
Ġin t
ke y
t he
re ss
math b
ĠT h
i ew
le ft
Ġwh ich
le ct
Ġ i
Ġv alue
Ġ !
e c
T ype
pe ct
al se
en g
y st
../ ../
Ġh ave
co de
20 1
le s
S tring
Ġt ype
ul d
Ġ k
sc ri
Ġd o
c lu
Ġ us
$ .
ht ml
r m
i x
' s
ow n
$ ,
t ype
th er
m o
c he
in k
O N
um ber
v al
Ġ #
Ġh as
et a
ro up
} )
yst em
o int
I N
, \
Ġ K
Ġg et
i o
Ġb o
de d
w e
} .
Ġm a
re e
f o
Ġco m
id th
C o
math cal
in al
Ġd ata
ap p
ol d
s ource
o f
Ġh ref
I d
me ssage
um ent
equ ation
at ch
tr ans
Ġp l
he n
Ġal l
en c
Ġ `
Ġcon st
c re
s um
se d
Ġ el
ter n
e f
u al
pe c
ar g
o u
ir st
a ult
ut ion
l ation
u ct
r iv
Ġ qu
er y
at ic
lo ck
s ub
} (
ption s
at es
Ġcon t
i a
ac he
Ġres ult
R E
y n
Ġ= >
Ġp ar
d a
~ \
Ġw ill
v el
g a
ut e
t d
eng th
Ġse lf
Ġ err
e p
m b
S T
Ġ= =
} ^
o uld
Ġn ull
R es
Ġo ut
} _
Ġa ss
ang e
ad d
Ġd is
Ġs u
v ice
_ _
Ġc ol
Ġ >
ph a
in ed
ur re
Ġt ime
le d
m s
L ist
ic s
th od
# #
Ġl ine
/ >
ar k
Ġo b
h er
u le
o ver
e mp
A r
âĢ Ļ
Ġon e
1 2
am b
b ar
al pha
t il
se s
p i
d ot
ce ption
Ġ )
Ġ id
str ing
Ġ& &
Ġp er
Ġp art
Ġtr ue
e ar
Ġf alse
b ack
A T
Ġ| |
Ġ x
Ġ up
Ġp re
Ġs p
C h
m in
clu de
" />
n ot
tr ib
r r
ame ter
T o
c lass
u d
or s
. _
Ġv oid
ra ph
n e
: //
Ġ en
Ġc ase
Ġv al
Ġre qu
Ġ ro
o b
) );
d ata
it em
w o
Ġel se
T h
r y
ing s
t ime
20 0
Ġa b
i an
ĠĠĠĠĠĠĠĠĠĠĠĠĠĠĠĠ ĠĠĠĠĠĠĠ
ul ar
) \
ion s
ent s
Ġin ter
] ;
L E
on t
amb da
urre nt
at ure
u ild
ad er
sp ace
t p
c a
ĠĠĠĠĠĠĠĠ ĠĠĠĠĠ
le t
f or
trans lation
a il
V alue
os ition
at ive
r it
Ġal so
v alue
Ġs o
O R
if i
if ic
u es
**** ****
Ġ âĢ
sp on
h o
Ġm odel
i se
Ġ/ **
d er
" );
// //
Ġs ub
e y
t on
Ġ\ \
Ġb ut
I D
y le
se lf
-------- --------
lo c
co mp
ĠTh is
D ata
Ġo ver
it le
i e
per ty
Ġfor m
= \
as k
ug h
ro und
re ad
_ \
am ma
Ġstr ing
c ent
A R
Ġa dd
Ġ end
ĠĠĠĠ ĠĠ
1 6
$ \
A L
ol low
) :
m u
Ġn e
E N
f unction
el y
p x
Ġs er
riv ate
"> <
Ġtr ans
Ġin st
o se
Ġw hen
o le
w ork
s on
ĠS t
ar get
mathb b
p r
f ile
le ction
' )
Ġs up
O bject
id er
1 8
} ^{
E rr
ĠĠĠĠĠĠĠĠĠĠĠĠĠĠĠĠ ĠĠĠĠĠĠĠĠĠĠĠĠĠĠĠĠ
c es
C ol
ig ma
Ġt est
T r
ĠW e
Ġ imp
( $
lo g
==== ====
} _{
c ess
l a
S et
p re
Ġy ou
ic k
Ġf irst
d ate
E n
Ġt wo
Ġo ther
] ,
se ction
Ġa pp
ar ch
av a
Ġan y
ra me
Ġo bject
b f
S er
o v
Ġd if
Ġon ly
y s
- \
Ġa p
w idth
Ġ Y
Ġre g
Ġf ollow
" )
li ent
S S
s ion
Ġ! =
Ġex p
Ġme thod
it s
is h
as h
' );
c ri
1 1
n ew
und er
W e
con d
Ġn o
f ter
Ġg ener
amp le
al ign
res ent
Ġm ore
ig h
Ġ ext
Ġ --
ire ct
u ff
ph i
^ {\
ĠC h
Ġn umber
un c
c l
ib le
Ġth ere
3 2
le m
um n
mathb f
Ġuse d
od ule
Co mp
il ity
w h
l ambda
al s
ar ray
Ex ception
l d
Ġwh ere
or re
an n
p end
Ġa d
o und
are nt
t est
} ;
at er
Ġ key
P ar
Ġs pec
cc ess
Ġd ist
A t
ag es
d ing
Ġc re
Ġf ile
s ize
p art
m on
Ġthe n
at ing
or g
re qu
Err or
T est
K ey
m ary
Ġ{ \
Ġw ork
Ġb et
Ġs ome
Ġthe ir
pl ay
1 5
con t
Ġ %
Ġor g
h at
D E
I t
b r
Ġit s
in s
he ck
v ed
Ġw ere
a ction
re am
de l
Ġe qu
f ace
Ġsu ch
he d
l ength
ĉĉĉĉ ĉ
str uct
a x
y p
I T
Ġst ate
Ġ// /
m and
n g
iz ed
ro ll
Ġo ur
at us
\ \
S e
S E
() .
an ag
Ġh is
Ġst atic
2 5
E vent
G et
il on
ut h
od y
Ġf ield
scri pt
ot h
ĠS tring
Ġcon s
bo x
Ġg iv
Ġ} ,
il ter
N ode
ps ilon
ase d
d is
C T
Ġe ach
oc ument
Ġar g
v iew
tern al
in dex
ra w
U n
() );
Con t
ind ow
s igma
Ġdif fer
n ing
in clude
Ġre l
n b
Ġin to
g er
b eta
fig ure
Ġch ar
Ġ ?
E lement
ĠI t
Ġth an
Ġf inal
m er
ic es
t able
Ġus ing
ĠC o
loc ation
b e
Ġsh ow
in ter
ord er
Ġ u
l er
/ **
r c
T ime
ur l
Ġ= ==
to p
tr y
iz ation
ra ct
ang le
Ġe vent
n er
a w
an y
F ile
Ġbe en
] .
Ġb ack
ĠC on
we en
Ġ( \
in ce
Ġc all
on ent
er m
if y
* }
B y
" ;
Ġ im
ers ion
til de
ot e
n ode
ĠR e
f ore
Ġl ist
[ '
F or
o ck
l ink
Ġe lement
Ġp oint
nb sp
r ite
Ġn ode
ol ution
sum mary
1 00
Ġt ra
A N
j s
D e
. </
^{ -
l ate
} {\
le te
1 3
l ist
Ġp rivate
io us
Ġre p
g ra
1 4
Ġ under
Ġ );
M E
math rm
Q u
ĠP ro
C lass
Ġerr or
ut il
ĠU n
R equ
ro id
Ġs ystem
" :
m all
Ġc orre
ĠĠĠĠ Ċ
Ġp h
V iew
Ġpro v
] {
Ġa ct
Ġ X
+ \
Ġthe y
g amma
lo ad
uff er
a in
u i
it ies
o us
Ġo per
() ,
c ed
^ \
Ġbet ween
m ber
Ġ ent
lo b
Ġar ray
Ar ray
Ġm ay
Ġ z
g o
cri pt
ra p
w w
ect or
ifi ed
p en
t ot
In dex
Ġc al
/ *
it ial
u me
con st
St ate
ro l
ĠS e
g round
del ta
co unt
Ġ( !
in st
re d
a ke
ff ect
p ath
p y
U L
ay s
C O
Ġg o
Ġn on
ur ation
cal e
Ġpar ameter
at ri
Ġ} );
ver t
ation al
ĠI f
H e
g roup
s ign
) }
f ield
p ublic
Ġ: =
n av
Ġgiv en
ire d
' ]
ens ion
Ġl i
time s
the ta
r ho
Ġ/ *
' :
Ġsh ould
Ġt e
R O
l ay
Ġpro b
Ġof f
2 2
ht tp
Ġf e
ĠF or
ma in
Ġc urrent
ta u
ment s
trib ute
Ġp r
y mb
ĠE x
Ġthe se
le q
c dot
T ext
S h
6 4
o ol
ole an
Ġst art
c le
v oid
re ak
m it
im it
n o
ymb ol
P ath
"> </
tain er
Ġs ize
Ġ} ;
p ack
re g
atri x
n et
ri b
$ -
us h
1 7
col or
v en
' ;
Ġ ra
t ps
r t
b y
se c
Ġa c
ol og
}$ ,
eq ref
per t
i ent
A s
} (\
ut ton
Ġ/ >
In t
m ap
T E
a ir
t ing
g y
d ition
L o
In fo
ic on
P E
}$ .
ist s
` `
D el
Ġdiffer ent
b ig
is hed
Requ est
M et
Ġs ame
form ation
It em
Ġs ign
Ġex pect
P I
Ġm in
ri de
Ġ$ (
D ef
.. .
ser v
Ġp ol
E qu
w ard
Ġass ert
Ġs c
I ON
Ġth row
+ +
cal l
p m
ar row
3 0
M ap
en se
A n
Ġor der
Ġap pro
is s
Ġh and
() )
Ġg roup
ĠĠ Ċ
ĠĠĠĠĠĠĠĠĠĠĠĠĠĠĠĠ ĠĠĠĠĠĠĠĠĠĠĠ
part ial
T R
Ġa fter
enc es
ce pt
Ġp o
Con text
19 9
Ġvar i
t ab
Ġ Q
res ult
enc y
Ġstr uct
us er
anag er
er n
mo ve
in es
Ġval ues
F ield
um er
Con fig
Ġab out
L A
m d
ction s
n u
ver y
cent er
5 0
ical ly
al ly
C om
Ġdef ault
W ith
an k
C ode
A dd
| \
Ġe st
! --
Ġfollow ing
in put
lo se
Ġh t
ĠH e
o bject
y m
ect ed
ro ugh
g in
ft y
qu e
Ġpro du
âĢ Ŀ
s q
con fig
2 1
O n
//// ////
spon se
Ġh ad
ome ga
def ault
ma x
r on
il y
p o
in fty
Ġo ptions
Ġrequ est
Ġin v
O f
is ion
Ġresult s
are d
I C
=" ../../
A C
port s
le x
tr ue
Ġw ould
old s
g raph
to m
ress ion
ra g
e ver
Ġt itle
pert ies
cre ate
t s
r id
val id
Ġwh ile
st er
co pe
" "
S ize
ap i
Ġpl ay
qu ad
Ġs im
Ġ Z
c ord
g or
u ch
Del ta
U R
Ġk n
F orm
Ġn il
Ġ_ _
******** ********
Ġin put
ent ial
Ġp ath
def ine
w ord
H and
ut o
se arch
Ġt ext
Ġ ed
M ess
qu ot
et urn
f in
2 4
Ġl ong
te mp
Ġm o
l ag
l ang
orm al
=" +
Ġp e
Ġf act
em ent
Ġt emp
m odel
e vent
p on
as ses
Ġt arget
d o
yn c
Ġin dex
Ġpart ic
[ ]
O ver
A l
Ġprov ide
ur ing
Ġde scri
se e
a f
Ġinst ance
ab ility
tot ype
Ser vice
ist er
re n
et work
ass ert
able d
o ptions
ĠA s
ĠD e
og le
lic ation
M L
O r
Ġy ear
fer ence
ap ache
i k
S ystem
V al
ĠG et
uild er
Ġse e
' t
err or
at t
Ġcon tain
oc i
it or
b lock
st ate
Ġco de
Ġre ad
ro p
Ġa cc
ĉĉĉĉ ĉĉ
Ġma x
B o
s k
Ġr un
Ġ import
Ġlo cal
lob al
st art
lo at
Ġdo es
p oint
as on
Ġm od
ow er
en u
l ing
Ġcons ider
P h
Ġb oth
Ġd irect
Ġwh o
ĠA n
Ġj ava
h od
ff ic
} [
Ġr ight
if t
Ġm ost
3 3
I m
ĠA l
ĠâĢ ĵ
an e
ff set
am s
f rom
iv ely
wh ere
d t
eq n
x i
s up
m od
Ġy our
Ġm ap
f ul
$ $
dot s
Res ult
ht tps
Ġh er
ĠA r
me d
Ġc heck
ar s
ure s
N ot
Qu ery
Ġob tain
t ings
ĠĠĠĠĠĠĠĠ ĠĠĠĠ
00 0
Ġne ed
Ġc l
b ase
Ġth rough
Ġw ell
Ġm ult
Ġcon text
ore m
L e
in ition
ar ge
} }\
ing le
an c
U p
Th is
L O
co re
Ġthe m
f unc
## ##
b ody
st yle
ver sion
Ġb ase
Ġh igh
F F
)$ .
Ġus er
t itle
Ġcont ent
se lect
Ġ ,
= '
Ġcon fig
we b
D es
Ġse cond
Ġo pt
2 3
Ġto p
ut es
Ġh ow
Ġdist rib
Mess age
M A
\ ,
U T
text bf
Ġ-- >
Ġlo w
nd er
p os
ust om
âĢ ĵ
Ġf ound
ific ation
it er
4 0
ĠT r
In st
Ġf ind
A D
ant s
de pend
) {
def ined
m ark
b ug
Ġlo g
M odel
it ed
ann el
t en
me ga
ĠN ew
Ġs ource
E D
o ugh
al ity
p osition
Ġe ffect
Ġpro cess
Ġan al
pro totype
O ut
Pro perty
Ġ čĊ
} _{\
UL L
Ġd i
con text
In ter
t t
l and
O mega
E T
e psilon
m an
re ate
Ġb lock
me thod
b m
ot her
Ġ( )
b l
le ss
s w
l t
op le
w ide
Ġs ur
I s
yp es
w n
a z
or ld
Ġc ent
u mp
======== ========
Ġm ust
I G
Ġcon dition
A pp
Ġrep resent
is m
Ġl ast
Ġit em
ne ction
me mber
ub le
n ext
---------------- ----------------
Ġsup port
Ġst ud
e lement
Ġbo und
u f
at ter
ca ption
roll er
Ġb reak
I S
o ot
ot tom
d own
pon se
ul ation
mp ty
ps i
ur s
v ious
M P
Ġa g
Ġc a
Ġal low
Ġcre ate
Ġn ow
he ad
k en
] )
r al
in fo
che ck
ĠS h
cont ent
end s
Ġma ke
C H
Ġle ft
IN G
ix ed
Ġf il
gor ith
G roup
Ġre f
f alse
c ss
g t
ro ss
h as
L og
w ith
ex p
^ *
ĠF ig
Ġbe fore
as ure
D O
Ar g
ir c
m m
Ġs mall
er o
D is
ĠâĢ ľ
ĠĠĠĠĠĠĠĠ ĠĠ
Ġs he
M anager
Ġp osition
F rom
8 0
T able
ĠS et
iv ers
ir t
Ġle t
ta il
i er
)$ ,
id d
uth or
o per
ac es
sub section
Ġin formation
Ġdef ined
l ight
sq rt
Ġs rc
Ġback ground
Co unt
c urrent
Ġin itial
Ġ( $
d oc
Ġs ol
. ,
r u
graph ics
C all
l p
ĉ ĠĠĠ
our ces
p ri
ile d
Ġcont in
Ġsp ace
ut ed
Ġli ke
Ġper form
act er
Col or
ok en
Ġw idth
Ġse lect
ar n
a pe
R eg
f ra
ument s
6 0
Ġv ersion
c m
t es
at s
U N
Ġn ext
ri ct
Ġbo ol
Ġd ocument
t n
Met hod
le g
me di
il ar
o ption
A B
C lient
Tr ans
n on
is sion
Ġb el
u di
E S
s im
m odule
in ing
Ġs imp
li b
t ected
Ġcorre spon
c ase
en ame
Ġe very
eqn array
ser ver
Ġfe ature
G amma
ig inal
ca use
Ġth ree
Res ponse
Ġma in
ĠS ystem
Ġat t
b it
s ide
b utton
Ġid ent
v es
v are
N ew
ifi er
lic k
( {
Ġf in
eg er
> &
Ġin d
ĉ Ċ
co me
vel op
Ġp resent
Ġde pend
EN T
Ġle vel
d f
ar i
yn am
vare psilon
ener gy
U ser
d b
j ava
Ġl ink
Ġres pect
pack age
) (
it u
tr ic
Ġin clu
Ġbe cause
st atic
Ġcol or
Ġa ga
im al
="../../ ../../
Ġs ince
t al
include graphics
end er
E nd
and om
Ġv iew
Ġd at
us ing
Ġj ust
arg in
an sp
Ġde c
m ult
ith ub
a it
im ation
^{ (
ers on
ur al
A S
e e
u age
Ġrequ ire
he ight
In put
Ġout put
} =
Ġ$ {\
Ġ! ==
j o
9 9
Ġex ample
m y
Ġco uld
Ġin cre
iv er
ens ure
le ase
qu ery
O ptions
able s
Ġbe ing
at tern
Ġst yle
St ream
it ive
s l
U til
( (
rit er
' '
im age
ĠC ol
em ber
Ġ+ =
id ent
Ġn etwork
* /
mer ic
Ġst d
n ull
irt ual
Ġm y
A ll
Over ride
] (
u les
um b
Ġv is
le ar
m un
Ġpro perty
an el
}^ {\
F act
it ch
Ġtr y
Ġparameter s
id get
iv ity
Im age
ĠĠĠĠĠĠĠĠĠĠĠĠĠĠĠĠ Ġ
; &
T oken
Ġdis c
ail able
Ġs olution
i or
g ithub
p ush
) =
scri ption
ra di
T H
Ġme ssage
Ġl ength
pl ace
che s
> (
bo ve
ĠĠĠĠĠĠĠĠĠĠĠĠĠĠĠĠ ĠĠĠĠĠĠĠĠĠĠĠĠĠĠĠ
Ġ\ ,
Ġlo c
iv ed
Ġm atch
Ġm on
n s
Ġ< <
Ex p
ww w
var i
~ ~
Ġb ased
Ġin clude
emp h
du ct
Ġpo ss
Ġr ange
t ed
s i
x y
Ġl imit
ator s
D ate
im ension
im um
Ġt er
ref er
2 7
Ġex per
h and
St atus
w ay
d raw
Ġch ild
C E
b ed
} );
Ġm any
Ð °
d ir
I L
Ġa bove
a id
Ġim age
r ation
Ġh ere
Ġm odule
Ġl arge
b olds
ath er
r angle
e k
or n
olog y
ch ild
Ġb l
S ub
Ġre sponse
go ogle
Ġval id
A nd
requ est
Ġ q
ĠN ULL
Ġimp lement
p age
et s
ĠCo mp
r ic
ve c
add ing
. ~\
and ard
lu gin
Ġdistrib ution
Ġcall back
4 5
bolds ymbol
t arget
ate g
Ġc ur
w are
ic y
ĠO n
right arrow
Re f
. }
Ġre al
. $
gorith m
T D
ge q
name space
Ġgener al
B uilder
o pt
Ġa v
a u
00 00
Ġm an
At tribute
=" ../
Ġex ist
Ġme asure
Ġcal led
O T
A ME
2 8
I P
Ġp os
app end
F unction
G L
Ġb order
c lient
p arent
N S
t x
arg s
act ive
7 5
ĠC om
and roid
in ation
Ġo pen
o o
Ġpe ople
Ġsup er
over line
E X
ĠA ss
o use
ow ever
Ã ©
; </
Ġmodel s
Ġ energy
Ð ¾
Se lect
2 6
i que
[ \
re at
Ġs ingle
Ġe ven
} ).
c ul
pro of
ch n
Inst ance
var phi
A d
ĠR es
Ġwh at
Res ource
sign ed
c or
en e
Ġt ak
Ġle ad
S tr
Par ameter
us s
che d
ual ly
Ġm ass
Ġd en
g g
O b
am ily
qu ence
ĠG L
=" #
B lock
Hand ler
c i
rame work
ar ning
ob j
pr int
Ġd uring
Ġb uild
Ġbo olean
Ġt able
ch i
ur ity
amp les
L ine
t ag
B ase
Ġp ass
n ess
S ource
row s
19 8
ys is
ir on
s f
pro perty
read y
dis play
ĠT o
& \
Ġ et
6 6
Equ al
Ġadd ition
lo y
I mp
im ate
Ġe v
in it
Def ault
Ġa ction
g ener
fra k
ro du
B ig
Ġb r
ter m
Ġs at
on s
Y PE
Ġv ery
ur ther
fer ences
T O
Ġs um
Comp onent
l in
U S
str u
G ener
ra int
B uffer
ens ity
}, \
Ġ url
ol ume
d s
oc us
Ġqu ant
L ay
h line
val u
ime s
t ic
Ġp arent
Ġre st
N umber
N ull
D I
ic ense
ĠR eturn
old er
r l
ap er
or age
ĠL e
Ġp op
) </
9 0
Ġch ang
I f
B ar
j son
Ġw ay
s ing
iv es
re en
gra m
Cont ent
re t
Ġse ction
ip le
H T
ĠO bject
Ex t
p tr
] );
Ġ Ð
in ary
l at
Ġexpect ed
Ġ- >
i od
Ġm ode
ac y
s ol
Ġm ark
Ġsh own
f ilter
a h
or th
trib utes
d ay
Ġprob lem
ph p
Ġl abel
< !--
[ "
Ġwith out
St yle
if e
re move
Ġand roid
n ect
Ġpro ject
St art
ad ata
iv al
ĠĠĠĠĠĠĠĠ ĠĠĠĠĠĠ
Ġre ce
c ap
l ast
Ġa ut
Ġde velop
Ġht tp
ab ase
o ve
he ader
) ^
ĠS er
i j
C ell
S p
E d
ef ore
Ġ` `
se mb
0 1
an ces
w rite
ĠL ist
ĠT est
Ġm ag
Ġc lo
3 5
ch ar
s pec
Ð µ
at tr
in c
Ġsim ilar
ch o
s mall
Ġfunction s
f low
ch ool
ON T
ist ory
Ġt ask
} }$
Ġ( (
Ch ild
iz er
P oint
l en
Ġw rit
e ps
text it
Ġd own
Ġco unt
math frak
op y
Ġg ame
2 9
v iron
l ish
Ġp res
lo cal
m ission
Ġpre vious
Ġm atrix
Ġcont rol
" .
h av
Ġwith in
L ambda
Ġfollow s
u ck
B e
Ġmethod s
O L
fo ot
Ġl ay
f ind
Ġhe ight
c ast
C K
Ġch ange
ĉ Ġ
3 4
Ġex ec
ith er
ig ger
L et
} ),
ver age
g ress
x ml
A ss
A ction
f irst
ĠA meric
Ġo cc
g n
AT E
return s
Ġv ert
ater ial
Ġth ose
p ng
Ġg raph
ym me
al e
ic ro
p ol
Ġcol umn
U E
Ġass oci
++ )
Ġe lect
F I
Ġdis play
is f
v ices
p rivate
b ottom
D o
ĠTh ere
Ġp ost
Ġto tal
p ose
ateg ory
ver s
Ġyear s
un ter
Ġrequ ired
b tn
v is
r un
Ġ" ""
Ġs pect
Ġap pe
Ġpoint s
O P
s rc
Ġs w
res h
l dots
o h
ex pect
l angle
7 0
Ġpro perties
Fact ory
Ġd ue
or ph
L ength
on y
l it
v ider
e ad
5 5
V ersion
R ow
Ġma de
O per
O S
c er
Ġd er
F ilter
Ġkn ow
l im
Ġ ]
Ġre du
d at
A ct
Ġf a
ide o
pro to
und le
w ise
Ġ{ @
E L
Ġw indow
end if
ĉĉĉĉ ĉĉĉĉ
ivers ity
P RO
W indow
i ct
n ab
Ġstruct ure
f e
Ġob serv
y les
row ser
ser t
201 7
Ġchar acter
. \
201 6
Ph i
Ġpartic ular
\ %
b s
lag s
Ġp age
lu ster
cite p
. "
201 5
ĠB o
H el
Ġg u
N o
ib ility
Ġelement s
A P
Ġint eg
Ġlo ok
ib r
20 20
P r
A G
op en
T ag
Ġposs ible
p c
st atus
ĠĠĠĠĠĠĠĠ Ċ
ord in
ĠI N
ver se
fin ished
de scription
s g
on ents
( _
out h
Ġter ms
201 8
com mand
b uild
Ġs aid
at ely
struct or
n umber
app a
Ġspec ified
S P
col umn
W idth
depend ent
Ġob j
up date
s u
ER T
con tainer
d l
Ġp ower
ial og
Ġs che
3 9
nab la
Ġor iginal
un g
Ġra di
P re
on d
Ġg ra
List ener
E E
Ġav ailable
S ON
//////// ////////
is on
pro p
ens or
requ ire
Ġm at
u k
so ft
c an
k n
Ġl ang
Ġup date
w ays
c y
P age
im ent
Equ als
Ġsu ccess
Ġc ell
Com mand
par ameter
ess ion
Ġcon f
k appa
20 19
re l
li ed
Ġf ilter
ĠH owever
Ġm ov
al th
ref ix
Ġh im
C heck
Tr ue
N av
" ]
ot s
ĠA dd
Ġs k
S up
over n
f ont
C ache
L ink
sub set
Ġw ant
m box
ist ic
use d
Con st
ĠThe n
nav bar
so le
4 8
b all
Form at
m at
Ġn ormal
par se
Re ad
U I
he s
ĠP ar
stru ction
ensure math
( &
Ġdef ine
Ġch o
/ \
Ġo ption
Ġf our
Ð ¸
ĠB y
T ask
} )$
he ther
Ġkn own
un finished
Ġl en
Ġ[ ]
Ġind ic
Ġa ccess
Col lection
C reate
Ġinclu ding
Ġthrow s
Ġres ource
Ġsat isf
li es
ot imes
le v
S pec
l ished
ss ion
Ġser vice
ot ential
al k
I M
ĠE n
h ost
\ |
// /
s cale
Ġa m
ar m
unt ime
v ing
A M
Ġf ull
p ost
b ra
C C
] [
ĠI s
201 4
Ġo wn
form at
L abel
o ffset
me s
th ing
li p
m t
Ġst ill
Ġarg s
V ER
im ary
Ġc ar
me ta
Ġhe lp
Ġc lient
he et
3 6
Ġt ri
Ġpro tected
Ġline ar
UR L
Ġs ide
Ġv ector
Ġqu ery
ire ction
Ġshow s
Ġh ig
viron ment
ĠĠĠĠĠĠĠĠ ĠĠĠĠĊ
s m
Ġp ack
H E
Ġreg ion
st d
O ffset
o od
Ġcom mand
Re ferences
Ġs cal
0 5
j av
S C
Ġhe ad
itu de
k it
" ).
Ġal ready
Val id
ĠA pp
a i
port ed
F A
Ġadd ress
_ .
Ġe ar
Ġcorrespon ding
center ing
m enu
M ode
di ct
P art
Ġt erm
udi o
F rame
Ġm argin
param s
Ġt ake
ffic ient
Ġcomp ut
' ).
oc ation
v i
\ [
u ary
Ġp air
ase s
og raph
g l
end ing
Ġass ume
Ġarg uments
Ġre cord
u c
Ġun defined
sk ip
to ol
ens ions
Ġp ort
im g
Ġb ro
Ġext ends
c ell
S igma
Ġt yp
Ġre t
app ing
Ġit er
Ġg lobal
b uf
Cont roller
O D
lic it
str ong
3 8
Ġcom b
it al
ra m
r ing
ser ved
cl us
Ġr andom
LA SS
R eturn
ut ure
Ġm uch
ĠA nd
Ġd id
Ġl arg
Ġc lear
Ġconst ant
Out put
P ol
H t
Ġse quence
Ġu int
b ind
ord ing
B utton
inst ance
4 4
RE F
ma il
c lose
po sed
D ec
}} {
Ġstud y
Ñ Ĥ
sp lit
Ġm ak
Ġme an
ord s
Ġser ies
ĠN one
re sponse
AB LE
l ap
201 3
if f
pro ject
Ġin ternal
a j
ast er
ĠA t
st ream
tail s
Ġc lose
Ġp ri
Ġte chn
ĠAr ray
Ġse ver
T ER
) ]
idd en
U rl
Ġme di
Ġcal cul
We b
$ {
ot o
ch ange
ur y
Col umn
ĠO r
c ache
m atch
ĠR eg
Ġt ag
Ġa round
s cope
Ġst ates
Ġco py
Ġcom mun
set s
g es
B U
" ),
Ġd iv
3 1
Ġf ail
Ġcomp onent
c irc
i i
sh ow
Ġ es
lic e
Bo x
ore d
Ġw rite
Ġe ither
ex ports
ĠP h
bo ok
Ġb as
un ded
g ing
rap per
non umber
f ill
el se
mo unt
N O
Ġa uto
an ch
Ġobtain ed
Ġint rodu
pro cess
ry pt
S che
Ġal ong
: "
Ġperform ance
am l
Ġfield s
19 7
as cript
Ġbe st
j e
le vel
n um
Ġcontin u
ĠA d
Ġevent s
. /
g est
q l
w indow
Ġo p
ĠD ef
3 7
{ -
Ġe mp
ser vice
ĠA ll
Ġform at
Ġo ld
Ġc atch
ent ry
J son
co ding
un k
o ff
Ġf ont
Ġprodu ct
Ġcomp lex
> >
Ġbe come
wide tilde
Con tainer
Ġg r
Ġst andard
un it
ĠI nd
ir d
Ġd ensity
st ract
Ġaga inst
Ch ar
c it
Ġappro x
out put
' ),
Ġsh ort
( [
ĠIn t
ial ly
Ġlo ad
He ight
ĠL o
Ġan g
C ase
U M
F ig
tab ular
ĠL et
en ded
Ġpl ace
Ġd on
F e
ap ter
ent ion
D ep
Ġp otential
Ġse arch
} -
h ip
C l
lay out
al le
ER R
ol ve
ĠH T
Ġser ver
n ow
Ġex ists
S c
ig ation
Ġstr ong
T arget
Ġj o
Ġs cale
temp late
ĠR o
ĉĉĉĉ ĉĉĉ
ug ht
Ġf ree
a ded
sc he
g en
Ġoper ator
Ġal gorithm
Ġcomp let
T ypes
ear ch
c ur
ex ample
T P
ĠL icense
Ġgo od
on ly
or iz
Ġanal ysis
i res
ac ity
Ġinter est
Ġreturn s
Ð ½
Ġst atus
Ġ ke
R ange
ĠReturn s
O M
F ONT
Ġcontain s
il er
Ġlow er
Ġp aper
Ġin f
in a
Ġan other
com mon
Ġassoci ated
T YPE
ĠY ou
Ġr ate
\ !
20 21
ĠD o
`` `
N ext
b b
util s
d ocument
Ġd ynam
ĠA PI
Ġl ater
< ?
S I
m ut
R un
D B
i um
st ro
kn own
\ ]
F irst
Ġappro ach
Call back
Ġequ ation
Ġprovide d
Ġinter face
lo ud
t ra
Ġre d
u int
ĠUn iversity
R em
Ġc ap
C ON
ĠE X
Ġg e
T emp
( -
ro ot
Up date
201 2
ly ing
Ġn one
6 5
ct x
de v
Ġrespect ively
**************** ****************
Ġ row
ĠS o
B ack
pl ac
Ġoff set
l s
c at
Ġro ot
Ġch annel
as ing
Ġz ero
Ġv er
ex ec
Ġdef inition
if act
Lay out
Ġcol lection
M od
al f
p df
Inter face
ansp ort
emp ty
{ }
S to
ta ct
pri me
6 7
: (
Ser ver
Ġwe ight
not ation
V ert
Ġpr int
ĠM ar
cle ar
av ing
Ġph ase
ĠW h
ĠĠĠĠĠĠĠĠĠĠĠĠĠĠĠĠ ĠĠĠĠĠĠĠĠĠĠĠĠĠĠĠĠĠĠĠ
Ġc ache
f a
P er
semb ly
Ġper iod
lu g
action s
A A
Ġw hether
M S
l ong
f loat
Ġ& =
id ual
cri ption
Ġs pe
z e
Ġh ost
Ġn ear
et y
Ġw orld
Ġf rame
Ġcondition s
Ġb uffer
Ġthe ory
Ġf lu
C L
Ġst ream
jav ascript
Ġbel ow
a ut
p es
ĠAmeric an
Pro vider
ig in
ĠT ype
g r
Ġspec ific
Ġse par
Ġimp ro
Ġdo uble
N AME
t ree
0 8
d ist
rom ise
Ġle ast
Ġme m
\ {
} +
Ġac count
ar r
expect ed
P osition
Ġbe hav
e v
Ġv ia
z eta
Ġobject s
Ġpro of
refer ence
Ġsign ific
ĉ ĠĠĠĠĠĠĠ
Ġ> =
ĠE q
Ġre move
om en
Ġb ody
Ġtr ack
Ġcase s
ĠS p
u x
us ic
Ġt ypes
Ġsever al
ta x
er ature
Add ress
val ues
Ġ< !--
Ñ Ģ
Â ł
o ke
c s
M ax
in ner
ĠI D
Ġlink s
Ġl a
f rame
Ġtime s
Ġle ss
th m
Ġfeature s
Ġc ustom
il t
b uffer
b a
il li
Ġdi ag
Ġdif f
bo ard
L ast
p ed
em ma
Ġimport ant
I I
T op
201 1
O ST
Ġp erson
ase t
20 10
ix el
S ec
d rop
Ġst ep
ward s
0 2
af e
Ġun til
iz ing
Ġe valu
am il
; \
E nt
st yles
Ġsimp le
Ġin du
ĠC an
ang ed
to col
Ġde term
M odule
Ġal ign
ĠT e
) =\
Ġn eg
st ack
ĠE ng
ist ent
0 4
i ps
He ader
Ġf urther
v as
sh ould
P l
ĠN o
Ġtra ining
Ġare a
ĠThe orem
de p
Ex ternal
Ġf ore
} =\
Ġsystem s
Ġest im
Ġv irtual
Ġtrans form
ic ation
Ġ* *
Ġde p
20 22
Ġco up
M in
Ġtrans ition
D ocument
Ġl ight
A PI
Ġde l
se cond
ter s
riv er
Ġcon trib
d om
Ġd one
9 5
} /
Ġh y
b ased
Ġro le
g ed
Ġe as
Ġre ference
a int
0 7
Ġd ate
ad o
} ]
Ġre ason
fo o
Un it
Ġpro m
it ory
6 8
s ystem
text width
Ġ ;
ĠSe ction
Ġcomp ar
, -
al t
Ġal ways
ic le
re st
ĠF e
it es
W rite
D i
T ree
A ccess
Ġl aw
bo ol
ã ģ
Ġinst ead
R L
at io
E mpty
u ro
Ġf amily
Ġme ans
) }\
() ->
Ġre nder
Ġcre ated
Ġset s
ĠG ener
Ġ{ }
Ġl ines
n ormal
Ġex pl
I O
. ~
ĠF ile
V is
ur b
A b
Ġhig her
re m
ĠThe se
Ġph ys
p atch
al let
oper ator
Le vel
wh ich
Ġar t
Ġoper ation
: </
Ġf loat
re nder
res sed
ist ry
Ġde sign
ĠUn ited
? :
f n
} |
oh n
imp le
ibr ary
$ )
Ġf ixed
Ġme t
{ (
ump t
Util s
Ġ ide
or ies
Ġ{ };
ft ware
t le
e ded
to ken
M em
math sf
P C
iz es
ĠF r
in ess
ind ent
Ġun it
t ask
Ġp ub
Ġt urn
ĠM et
for med
#### ####
Config uration
Ġp adding
CO L
En try
ĠS up
Ð¾ Ð
Ġcent er
ir cle
op s
Ġpos itive
cont rol
er a
back ground
H ash
4 9
4 7
ĠH REF
tain s
iv ing
Ġmult iple
Ġapp lication
not e
un e
ĠS he
c el
ug gest
ass word
b efore
Ġte am
Ġf ew
p ag
Ġsignific ant
if orm
Ġcom mon
ĠC LASS
Ġfin ite
om orph
Ġinv est
Ġs ymme
Ġm ot
lem ma
ĠW hen
ĠG e
Ġ* )
Ġco un
Ġe mpty
b reak
Ġtemp late
urs or
de bug
Ġfile s
D F
ĠE rr
Ġnode s
Ġdescri bed
ul a
mb ers
}^ \
i ence
Ġgener ated
P si
de s
f inal
) ^{
m ode
Ġin it
type of
V AL
Ġcan not
Ġvari able
8 8
al y
U P
Ġat tribute
Ġf requ
Ġc r
P ack
Ġpar ams
ĠĠĠĠĠĠĠĠĠĠĠĠĠĠĠĠ ĠĠĠĠĠ
u id
ĠAss ert
% %
Ġc y
ed ia
}_ \
x is
Ġs ample
lay er
th s
l n
Ġequ al
S H
Ġf low
le y
UL T
Ġre co
ĉĉ Ċ
a uthor
Ġdist ance
me m
Ġis s
ec ess
Ġn umer
Cont rol
im ages
0 6
and s
Ġre mo
ab s
âĢ ľ
S cript
im er
wide hat
Set tings
ol l
Ġconfig uration
Ġm er
c d
x space
n a
ĠC lass
Ġs cope
K E
ĠC ar
0 3
ST R
O ption
O pen
P o
Ġanal y
Ġh ome
m id
ĠN ot
enc ies
B undle
eng ine
st rap
ch an
Ġarg ument
yn tax
" ))
Ch ange
N D
W h
or ity
ome try
Ġrel ative
Ġse ason
am ent
ĠU S
V E
r um
ĠC reate
Par ams
Ex ec
Ġto ken
Ġmo ve
0 9
IN T
ĠC al
co s
{ {
u ilt
i ed
m iss
Z E
me t
jo in
Ġ ...
f l
Ġorg an
s v
Ġspec ial
M atch
in o
Ġ ~
ĠU p
ad ow
Ġest ab
Ġ\ {
. âĢĿ
Ñ ģ
cdot s
m ar
res ource
equ iv
Ġbet ter
call back
4 2
Ġhand le
imension al
t ect
Ġconsider ed
% ;
Pro perties
ĠThe y
olog ical
Ġt ree
f s
web kit
Ġhas h
at ist
C D
ĠIn st
Ġaddition al
Ġequ ival
Pro cess
co py
Ġtemp erature
b in
Ġcon nection
& &
Ġpro posed
}) \
ĠJ an
T I
S O
Lo ad
Ġde g
Ġc ross
Ġconst raint
L I
ap pro
Ġth us
ĠM ay
line ar
pl it
` .
as sed
Ġloc ation
Ġent ry
ĠFig ure
um an
Le ft
Ġaga in
ern el
ĠO F
re place
R ender
Ġto ol
ĠN S
Ġd ay
Ġ" \
ĠB e
Ġprob ability
s d
Ġfact or
Th read
, "
$ (
C opy
trans form
Ġad ded
Ġa verage
h ash
ent er
F T
Ġbo x
ab ly
200 9
ction ary
q quad
k s
ĠN ote
Ġpar se
ig en
D ir
> ,
Ġchang es
pt ure
Ġmo ment
Ġf oot
c r
Ġreturn ed
Ġc la
n ected
Ġro t
ch ie
ĠD ata
bo ot
i ents
Ġselect ed
Ġp ut
Ġ$ .
ate gy
Ht tp
Ġlang uage
Ġsup p
AT ION
Ġpro gram
et ch
vari ant
A c
C P
Ġn av
ge bra
Ġle arning
Ġh o
co der
c ame
pp ed
Ġcorre ct
get her
b order
ĠC l
idd le
a uto
Ġre cent
c up
ĠC heck
Ġc luster
Re cord
bo und
st and
om ic
oc ial
ri es
Ent ity
ms g
Ġf l
C an
Th ere
d ated
Ġht tps
ĠG o
Ġse m
Ġp ur
ĠD es
ac ing
al ax
Ġcon struct
Ġ[ ];
i sed
Ġb it
Ġ[ '
Lo cal
ct or
Ġover ride
ra ction
Exp ression
rag ment
Ġex act
on al
sh ip
ick er
CO DE
Ġqu est
Ġopt im
Ġrel ations
ĠD is
L ocation
icro soft
P os
con f
W ork
li ke
PE CT
Q ue
Ġe mb
O ne
D irect
Ġcon tainer
Ġm ight
Ġco ur
Ġc are
m ost
he nt
Ġf it
ĠM ath
re p
n ap
================ ================
} :
r s
Ġact ive
at form
je ction
}} (
Ġc or
Ġbo ok
Ġle g
th on
he l
cre en
h over
s in
p op
oriz ont
Ġexp ression
Ġed ge
art ifact
g lobal
Ġ$ (\
N et
Q L
M ult
Ġco st
ĠR em
tern ational
ĠP r
anag ement
ĠâĢ Ķ
5 7
r ange
D at
cl asses
Ġb us
" ));
Ġde tails
ic ol
umb ers
ĠSt ate
Ġrepresent ation
Con nection
iv en
Ġst ore
ĠN ame
file s
ab il
ed ge
Ġob served
ol ved
Ġp attern
v ector
en umer
4 6
C urrent
ra ft
S earch
ĠS ince
Ġrel ated
f il
y mp
N one
Ġp ay
by te
Ġs chool
de lete
Ġsur face
av es
200 8
net ic
R ight
equ al
re q
Ġto o
Ġl ife
="../../../../ ../
Ser ial
ĠSt ates
M enu
25 5
se qu
S D
S ession
Ġbe gin
ent ly
bo olean
Ġvari ables
ĠL emma
}\ ,
th ough
Ġset ting
Ġb i
ĠSe e
Ġ& \
Ġdescri ption
IG N
= {
P ort
Ġg l
ã ĥ
om in
Ġchild ren
Ġg overn
leg ate
Ġacc ur
Ġs ing
Ġs ay
Ġco ordin
{ {\
Ġa pi
Ġquant um
r ist
ar ies
}\ \
Ġ ::
}^{ (
Id ent
5 8
el oc
st amp
P tr
^ +
Ġx ml
As ync
c lick
ĠP ol
p g
Sto re
AC K
w idget
G e
Ġapp lic
w ait
Ġfil m
orizont al
ir m
Ġass ign
AL L
O p
Ġname space
ĉ ĠĠĠĠĠ
AR T
to String
E Q
sol ute
7 7
Ġexper iment
hand le
the n
Ġin dependent
ĠT O
Ġc er
ĠW ith
Ġin div
Ġse en
To ol
sc r
ty pes
Ġmax imum
ĠCo un
Ġsol id
__ (
b um
Ġcontin ue
Ġs ent
Ġre search
Ġad v
Ġappe ar
Ġa chie
Hand le
Ã ¡
Ġcomp lete
Ob j
is ing
app ly
I ter
Ġn ecess
Ġqu e
inter face
Ġim ages
ter min
Ġplay ers
set tings
ĠS ub
ast ic
Ġset tings
Ġse lection
gg le
] $
a fter
& =
Ġo pp
G ET
U B
OR T
at ural
ĠC ont
F ont
dis abled
il s
Ġapp ly
ĠM ore
Ġre spon
M M
C R
) -
Ġt re
th at
r ule
Ġse g
Ġd raw
ĠW orld
te ction
Time out
Ġma j
' ],
ma ke
Ġbl ack
Ġreg ular
ill ion
W idget
ph er
In valid
K ind
=" -
ĠP l
le an
H ost
Ġpl an
Ġlo ss
id ence
Ġar ch
| ^
ache d
w s
ad a
Ġdisc us
ul er
c ard
R I
ul ations
re ed
a de
Ġg ive
a use
Ġre fer
N N
Ġa uthor
Ġc rit
` ,
Ġh app
ĠR ep
ĠM in
ĉ ĠĠĠĠĠĠĠĠĠĠĠ
ag ing
re c
ERR OR
ĠEx ception
ĠTr ans
S ign
Ġst rict
Ġwe ek
ra in
Parameter s
de vice
Ġin s
Des cription
Ġn um
Ġun ique
Hel per
() :
in ternal
Ġcomp onents
R el
5 9
F O
en v
ĠN ational
st ar
st ore
Ġc ref
Ġdo main
ĠT able
igh b
c f
-- -
Ġerr ors
Name s
model s
Ġa mount
ĠL og
Oper ation
Ġvar ious
medi a
m ore
ĠJ ohn
ĠErr or
h space
al es
Ġde lete
ĠM e
p lugin
Ġph ot
as ic
Int eger
sup er
Ġon ce
we ight
se l
Ġ} )
Ġgroup s
Ġw on
( *
Ġcon v
R ect
M on
lug ins
M O
B ind
ub e
20 00
Sche ma
Ġlay er
200 7
Ġs uggest
Ġst ar
D own
artifact Id
at al
B O
s ort
ĠA b
Ġf uture
ĠB ut
ĠEX PECT
M eta
Ġnot e
t ex
6 9
C ore
a e
Ġg row
Ġlarg er
Ġse c
Ġh ard
g an
i ans
R A
ach ine
le ms
Ġinst all
Ġwrit ten
Ġfil ename
yn ch
AN D
Ġindiv idual
Ġd r
Ġme mbers
Ġ+ +
Bo olean
Ġin fo
Pro ject
Ġp assed
i qu
uss ian
ro s
Ġbound ary
ĠO R
Ġsp in
Ġear ly
Ġsupport ed
Ass ert
ĠS c
ã Ĥ
pre c
P arent
Arg s
qu are
IN E
v m
Val ues
ĠM on
S L
Temp late
ĠĠĠĠĠĠĠĠĠĠĠĠĠĠĠĠ ĠĠĠĠ
} '
B ody
n eq
Imp l
E ach
li de
4 3
R out
Re ference
ide s
appro x
E CT
Ġen vironment
our s
p or
j ust
up le
Ġcon ver
on es
Ġde vice
}} {\
sh ift
tr ies
& #
cit et
ic a
Ġ< =
Par ser
) /
Ġb and
HT ML
' ))
By tes
ĠIn ter
urre n
c p
a a
ri ef
ide d
\ "
Ġsw itch
Ġac ross
id s
no indent
Ġst op
Re ader
Ġli k
} +\
A fter
Ġf n
group Id
ĠD E
Ġex cept
Ġke ep
z z
ĠG u
ĠM o
x x
Ġs l
Ġmem ory
Ġd irection
ang es
Ġcontrib ution
d irect
f ocus
mod al
Ġab le
U s
sc roll
I nd
h r
Ġp at
Ġden ote
ĠJ ul
C A
Ġto gether
Ġy ield
a uth
and id
mit ted
ĠD ate
V ector
Ġj ob
Ġs ite
200 6
Ġpre c
Ġg alax
9 8
enumer ate
Ġinclu ded
Ġitem s
stro y
Ġac cept
S k
ĠG r
Ġwork s
ĠJ SON
Ġreg ister
web pack
="../../../../ ../../
en um
5 6
g rid
Ġname s
COL OR
ur i
p anel
d im
Ġequ ations
Ġallow s
st ep
e ach
( {\
ĠE vent
Arg ument
s end
ĠO ne
f act
OR D
} -\
4 1
d r
Ġdirect ly
~~ ~~
Ġ( '
Or der
iss ing
P i
ĠTh us
V ari
Ġme mber
Ġhe ader
Ġacc ording
U RE
Ġv olume
D D
code d
f ree
Ġex ception
Ġhow ever
_ ;
em s
] \
Ġre lation
St ack
Tr ack
v space
Ġby tes
Ġof ten
A g
styles heet
Ġp ract
item ize
Ġcl asses
9 6
S A
Ġmedi a
9 7
Ġ- \
Ġm aterial
Ġsub ject
Ġun signed
key s
li er
Ġprovide s
Ġen ough
Def inition
100 0
Ġco e
ber t
umpt ion
Ġv eloc
DI R
Ġtype of
Ġinstance of
ĠN ov
icon s
A ut
er ing
doc s
Ġam ong
M D
5 00
Ġh olds
I R
Ġc irc
comp onent
Ġb en
Ġaut om
mult icol
Ġby te
le ased
Ġden ot
ul ated
se ssion
St orage
( :
Ġapp lied
an ced
Ġuse s
Ġe lem
N ote
=" _
SE T
Ġ ign
Ġde cl
om ial
ut or
Ġsign al
P RE
Ġst ack
Ġh istory
ĠC ON
Ġwe ak
Ġf ac
C al
Ġ il
ag ue
Select or
' >
mo oth
F alse
* )
Ġgiv es
S cope
ĠP art
Met adata
the orem
Ġexp licit
multicol umn
ĠS T
su ccess
l ines
I F
an a
Ġdat abase
Ġf ar
Ġcol l
Ġne eded
ĠS te
Ġth ird
Ġp anel
. __
Ġrece ived
u str
ist or
() {
He ad
ĠĠĠ Ċ
h ib
Ġbehav ior
Ġw in
( !
## #
Ġpre dict
ot a
d ag
w in
boot strap
ĠC O
ĠS k
ar p
Ġact ual
Ġkey s
Ġf ig
ĠĠĠĠĠĠĠĠĠĠĠĠĠĠĠĠ ĠĠ
ĠCoun ty
equ als
ĠWe b
ĠJan uary
Ġcon vert
De vice
Ġs ort
Ġother wise
Ġne ver
Ġl iter
Ġs ure
ĠA ug
ĠĠĠĠĠĠĠĠĠĠĠĠĠĠĠĠ ĠĠĠĠĠĠĠĠĠĠĠĠĠĠĠĠĠĠĠĠĠĠĠ
ss ages
Ġre plac
Ġr ule
add ress
Ġd imension
let ed
Ġwh ose
$ }
ĠA ct
Ġhand ler
al low
h a
Ġre ma
ame s
id ing
ix t
ca de
Ġre main
Ġdat aset
Ġoff ic
ĠY ork
f ramework
uro pe
ĠI m
in sert
S u
Ġclo sed
) }{
ĠS ec
ĠM ap
Ġup per
he m
De bug
Ġb ir
pi ct
G E
Ġcer tain
Fe ature
8 7
d x
radi us
Ġs end
ĠW est
it ect
Ġatt ack
P T
ĠS w
Ġexist ing
Ġimp lies
R oot
Ġsolution s
Ġre port
ĠE d
ache s
Ġth ink
ab or
it tle
Ġd oc
co ver
En abled
Ġrun ning
to ggle
Ġext ension
reg ister
Ġthere fore
Pol icy
8 5
W riter
Ġme chan
ĠHT ML
Ġm sg
o om
Ġexp lo
Ġ' /
Ġb ar
Ġco ver
alle l
EX T
ĠO ct
d imensional
Se e
Des cript
ĠB l
use s
ser ve
ex port
Ġtak en
}} _
th ers
h igh
ansp arent
L ong
Ġcomp ared
ynch ron
av en
under line
-------------------------------- --------------------------------
ed it
Ġbut ton
cond ition
Ġm usic
T itle
ck et
) +
ĠP er
' $
Ġv ideo
it ter
mp l
Ġmult ip
field s
ag n
Ġse ssion
ri ed
H P
OR M
U se
n orm
_ ,
ru pt
Ġdiffer ence
c ustom
lang uage
Ġeffect s
Ġemp loy
item s
Ġde st
Ġelect ron
result s
k ind
âĢ Ķ
t i
Ġfa iled
Ġint eger
en n
O K
con nect
, âĢĿ
c orre
ĠW ar
Dec l
Ġk ind
Ġ( "
Ġf r
sup port
Ġj son
Ġpol it
ĠT ime
Ġh aving
App lication
De lete
S ince
Ġin line
A p
ho od
Ġl ate
I con
in itial
p adding
Ġf unc
Ġpop ulation
Ġh old
Ġb ind
operator name
un ch
V er
ĠS chool
Ġemb ed
w rap
t ip
ĠI S
ĠE nd
ip el
Ġpro ve
P S
Ġdirect ory
Ġht ml
H as
) }$
s cal
Ġre lease
A pi
Ġwe b
AT A
S ION
G raph
Que ue
h am
R ule
E M
ĠA fter
N on
B ound
Ġcontain ing
ĠA rt
Ġsuccess ful
200 5
Ġre view
re et
D oc
Ġs ymbol
Ð° Ð
ĠS outh
Ġeffect ive
et ime
P attern
def inition
C lick
ĠN e
m atrix
8 6
Ġpol icy
ac cess
Ġw ord
M ock
Nav Bar
ĠU RL
Ġdescri be
D eta
l us
d ic
tr igger
" `
ĠTr ue
nap sh
ion al
resh old
By te
re cord
Cl asses
M ark
> ();
at tribute
C S
Par am
c ar
P R
Re p
Ġde s
Ġal bum
g ence
ĠP y
A V
Ġc ity
ĠR ec
com m
\ '
Ġn umbers
J SON
ex ception
led ge
ur ch
Ġ( *
Ġimplement ation
at ively
ce ed
Ġde ath
sq l
Field s
Ġt w
ar io
Ġgener ate
text tt
l or
ĠC or
Ġdoes n
ro me
Ġbe came
res ents
clus ion
o ber
ul ly
om an
Ġh ouse
ĠT ra
\ }$
Ġat tr
inal ly
Ġ Qu
ĠB G
Ġth read
Ġr ank
act ers
= (
is k
min us
pt ember
Ġe cho
ĠR E
S w
Ġg round
f ull
ut able
Ġf und
c ategory
Ġs cript
5 4
> .
m ic
im ents
ym f
Ġname d
bl ack
Ġsh ape
he lp
tr ack
Ġ$ {
ymf ony
Ġo s
Ġpro ces
Ġact iv
5 1
ut er
st op
Ġest imate
Ġexp ress
H O
ĠThere fore
Ġcomp any
drop down
A re
Ġg en
Ġ\ |
Ġn g
X X
c b
ä ¸
do uble
N ow
The n
\ ,\
Ã ³
select ed
Ġs s
i ol
TE ST
y ear
ĠB rit
Result s
ff ff
D raw
Ġcol lect
N um
ĠM arch
Ġre c
W hen
ĠS tr
h older
p k
ser ial
Act ive
}} }
ynam ic
ĠV al
ock et
Ġneed s
Ġe igen
Ġform er
pr il
ult ure
Ġinter val
", "
im s
Ġr ather
Ġso ftware
Ġb uilt
app lication
c ing
event s
ĠR equ
her it
Ġle arn
end ar
Th at
Ġdistrib uted
Ġpart s
ard s
TE X
Ġa ge
Ġh alf
Ġmult i
de st
Ã Ń
Ġm atter
Ġfor ce
re mark
Dis play
o sed
Ġmak es
i ke
A SS
T e
ate gor
ĠR ef
Ġm ar
Ġdeg ree
ustr al
ĉĉĉ Ċ
P L
Ġr atio
5 2
ut ing
AT H
Ch annel
Ġequival ent
$ _
200 4
Ġw ords
Ġf ocus
Ġcomp et
math scr
b le
Ġw ater
ĠN ode
ĠO b
ograph y
ĠD ep
J S
ĠI O
-> _
ir it
T ra
Ġme tric
ĠV alue
ew idth
Ġab s
ĠV AL
m argin
P ost
Ġbas is
5 3
}} ,
Ġus ers
Ġpresent ed
E l
p ing
g s
Ġassert Equals
Ġtrans action
mo ck
cre t
v ision
Ġplay er
lo or
W E
Ġfoot ball
G B
Ġal gebra
X ml
; ->
Ġallow ed
ar ing
Ġne ighb
foot er
Ġtak es
Ġ ),
Ġn atural
KE Y
b ul
ĠM ark
Ġw ait
pos itory
depend ency
o ung
Ġveloc ity
EN D
am era
Ġs ens
D ialog
J ob
c md
In it
M e
ĠĠĠĠĠĠĠĠĠĠĠĠĠĠĠĠ ĠĠĠĠĠĠĠĠĠ
Ġy et
Ġtest s
C ustom
ann er
Ġcon nect
ĠM an
Ġ$\ {
Ġg reat
y nt
Ġsatisf y
Event s
Ġf ive
Descript or
t w
Ġs ong
Ġdevelop ment
Ġg re
Ġpre di
ĠJ o
ĠS ch
ado op
Ġgo ing
Ġh uman
import ant
Ġw ave
ĠG erm
lap se
ul ate
Ġsmall er
âĢ ¦
Ext ension
ĠL O
com ment
S ymbol
: \
ĠE urope
Ġmak ing
ri end
L S
ĠP o
{ $
que ue
ri p
Ġf ramework
ĠF unction
a ff
anc el
V ar
Ġpack age
Ġat temp
in line
imp l
Ġc tx
ad min
Ġs plit
8 9
Ġsc en
uck et
ce mber
Ġs ources
Ġch ain
ist ration
de sc
sh ape
Ġext ract
ĠC re
ĠF irst
point s
)) )
On ly
B uild
Ġcon sole
} "
Ġcomp ute
Ġhe alth
arg ument
wh ite
ĠU se
bit r
T ab
ĠF rom
Ġp ress
Ġpro f
F ound
ĠDef ault
The ta
Ġent ire
ĠC ity
Ġar r
Ġre leased
Ġper formed
Ġprodu ction
tr m
Ġmag netic
ch annel
ipel ine
ure d
co in
. )
200 1
ĠâĢ ĺ
Ġw ide
CT ION
TE D
c loud
g u
At tr
Ġe p
Ġne ut
ĠO pen
Ġfrequ ency
Ġa void
Ġunder stand
ĠJ une
Ġent er
Ġd ays
col lection
FA ULT
ĠAug ust
) |
Ġcurrent ly
Ġin side
Ġincre ase
Ġev olution
] ]
le ge
if ies
Ġrequ ires
G o
Ġst ars
ok ie
-- >
ĠBG COLOR
ĠCh ar
ĠSe ptember
ĠI mp
Ġv ers
Ġinteg r
Ġprob lems
i et
em ents
Ġde ep
Ġvert ex
Ġb ottom
or ing
++ ;
al ysis
Ġs amples
k a
Ġde cre
Ġs ix
Ġgovern ment
tex trm
ĠN orth
pr imary
lin ewidth
Ġg ot
6 3
L P
Ġnecess ary
Ch anged
da pt
< \
Ġcontinu ous
l imit
ta int
Ġco re
Ġit self
Ġno ise
Ġde mon
ot t
pro d
Ġd b
Ġspect rum
Ġst atist
ĠS pec
Ġde termin
Ġoper ations
il it
25 6
yn omial
Ġl and
z ero
Ġneg ative
Ġa uth
Ġn et
ĠN OT
pe at
C re
ur g
~ $
cre te
h y
an ded
w ar
Ġh om
6 2
In itial
Ġcho ice
Ġ" /
in f
n one
IT Y
pro duct
sh ort
Ġ( -
Ġ _{
4 00
F loat
k er
Ġext ra
ly ph
h s
un defined
B l
ĠM y
"" "
AG E
in v
ĠB ase
ag ed
ĠG a
ol ver
subset eq
a iled
Ġb inary
un signed
e h
ĠF orm
Key s
Ġa ffect
et er
=" /
) ),
Ġlo op
}^{ -
Item s
foot note
ĠB ar
Sc roll
- $
row n
align ed
S o
Ġ( _
Ġat tributes
ĠJul y
Ġf all
; /
ĠOct ober
us ion
F unc
Ġd ig
index Of
Test s
Ġn u
Ġmin imum
Ġlead ing
Ed it
Ġmaj or
Ġg as
ĠT HE
ĠĠĠĠĠĠ Ċ
//////////////// ////////////////
ĠA pril
Ġar tic
f aces
Ġcon nected
Ġinclude s
Ġro b
Ġinv oke
Ġser ial
ist ing
Ġpl ot
est ed
Ġwork ing
Sec urity
Ġre ported
os en
medi ate
w ner
ub y
ed er
M B
Ġpo inter
= -
Ġj Query
Ġs co
ĠC opy
Ġth ough
Trans form
Ġpri or
o x
Pro p
al loc
L ock
Ġt reat
Ġchang ed
ify ing
N etwork
ĠM odel
Ġa xis
ve y
En g
Ġpr inc
h adoop
D L
Ġ$ |
Ġor igin
ĠR ed
Ġra ise
lu str
Ġspe ed
ok s
Ġquest ion
S end
P lugin
P e
em ail
ĠĠĠĠĠĠĠĠĠĠĠĠĠĠĠĠ ĠĠĠĠĠĠĠĠ
pro ps
ĠĠĠĠĠĠĠĠĠĠĠĠĠĠĠĠĠĠĠĠĠĠĠĠĠĠĠĠĠĠĠĠ ĠĠĠĠĠĠĠĠĠĠĠĠĠĠĠĠĠĠĠĠĠĠĠĠĠĠĠĠĠĠĠĠ
ax is
p lugins
Ġ[ ],
p ub
ic ult
Ġbecome s
ĠCh rist
Ġal t
ans ion
[ $
M edia
R ed
fin ite
t mp
Ġv ol
}} _{
fe ature
serv able
B C
Ġsh ift
st o
ĠB O
Str uct
ap s
Ġco me
Ġphys ical
3 00
Element s
Ġ Ã
con nection
c lo
al i
ar ily
Ġ engine
ch art
pro du
FI LE
ced ure
Ġpro p
assert Equals
Ġde sc
re es
ĠS ome
Y ou
CH E
it ution
Ġ ensure
Ġb ig
Ġal most
for ce
k ing
an notation
Ġcomp are
pre t
amp ion
iter ator
cont roller
Po inter
ent ity
add r
reg ion
Ġco unter
Ġun iform
Ġdemon str
F R
M ember
@ "
ĠNov ember
[ :
at ives
child ren
napsh ot
mod ules
Ġdeterm ine
Ġradi us
M C
ad s
re du
com ing
N G
p icker
de ed
M ENT
ĠDe cember
Ġser vices
Ġcon c
ut f
Ġre m
Node s
Ġs m
ĠA L
Ġsche me
' .
Ġpro file
set minus
b ers
Ġ" "
p assword
con s
ĠI I
sub figure
ĠMet hod
scri be
Ed itor
Ġuse ful
y l
N E
Ġch all
Ġp ast
Ġro und
Ġc ut
Ġthe orem
n ce
v irtual
if est
Ġresult ing
en ers
ĠK ey
Ġder iv
Ġab solute
Ġ util
Ġre q
at ory
Ġcommun ity
A uth
re al
as hed
Ġf lag
ĠTO DO
Ġcon struction
at ically
Ġd im
Ġremo ved
op lus
cc ording
L ang
res ses
Ġc andid
av or
B efore
bl ue
Ġw omen
Lo ader
7 8
co unter
T C
form s
Ġstart ed
Ġpr imary
Ġc amp
Ġoper ators
Ġt ensor
' re
os ite
Ġrep resents
B it
ĠB r
Ġgame s
M sg
_{ (
ert ific
_ ->
Ġtrans fer
', '
P O
ĠM c
P AR
ĠA ustral
Ġloc ated
at ial
Ġf ix
Ġwh ite
SI ZE
Ġinter action
Ġchar acters
k et
") ]
are a
tot al
Ġs itu
7 2
Ġbuild ing
Ġintrodu ced
Ġa way
; <
P ool
ĠD ist
Window s
Ġtr igger
ac ed
aw s
Ġpro per
Ġf o
J ECT
Ġreg ions
type def
Par se
ang ular
Ġun cer
M atrix
u a
C lose
Ġapp end
) ).
Ġincre asing
X ML
Ġin ner
sche ma
att ice
P od
T S
s ave
200 3
hent ication
Ġg rid
c ut
d en
Ġs ocial
Ġp ixel
Ġm ock
Sh ow
Ġbus iness
6 1
radi ent
D ist
br uary
S cale
Ġa ir
se ct
Ġiss ue
ĠO ut
Ġ( $\
inst all
ĠN O
Pack age
ĠA p
ect ors
il le
lim its
Ġ enc
Ġinvest ig
lev ant
Ġtyp ename
In ternal
Ġcompar ison
Ġdeterm ined
Ġar bitr
F ail
ĠH igh
ĠD i
)) );
sum er
Ġcomp act
F lags
Ġhy per
Ġcur ve
) ">
Ac count
de g
Ġtak ing
h ome
s pect
par a
Iter ator
urn al
in ct
Ġcons istent
Ġcent ral
do main
mult i
ĠH ere
ext end
ĠTh at
| -
_ +
P erm
S um
R untime
one y
ĠU ser
l ers
ill s
Ġs mooth
um in
ri a
S R
z er
Ġto ok
mo use
Ġpl atform
() ).
print f
sh adow
Ġcrit ical
hand ler
At tributes
Ġplay ed
abil ities
Ġof fer
parameter s
se quence
Ġst ation
Ġapprox im
R et
Ġsimp ly
w rit
Ġl ibrary
n umer
p ress
Ġseg ment
Se ction
m aterial
miss ions
el s
rid ge
Ġsu fficient
b on
V olume
d ates
J o
Ġr g
Ġsub st
M ore
Ġimp act
an ish
b its
N e
Ġ Â
ne y
VER SION
m i
h ide
Ġlo ck
se ss
* {
Ġre ally
Ġr ules
t ical
Pro ps
Ġh idden
pro perties
Ġl ittle
O wn
amil ton
or ter
f lags
_ (
Ġl ib
8 4
ĠS im
Pro xy
du le
\ }
gorith ms
th read
Ġo thers
Ġconstraint s
S U
ra st
Ġ ir
| |
block List
(' .
Ġmap s
Ġst re
G rid
' ));
con trib
^{ -\
Ġ\ ;
Ġwrit ing
M o
a o
Ð »
i us
av y
A uto
Dat abase
Se cond
Ġsome thing
Ġa mpl
ed itor
RO M
ĠSer vice
ie ve
MA X
' \
Ġc lean
m as
Ġal tern
h idden
8 2
Ġstart ing
Ġmin im
Ġpre vent
Ġcoun try
Ġpartic le
sp ring
Ġdisc uss
a ul
P ORT
ĠĠĠĠĠĠĠĠĠĠĠĠĠĠĠĠ ĠĠĠĠĠĠ
Ġsu ff
trans ition
Trans action
leg al
comp lete
Ġs creen
Ġpol ynomial
ĠP re
Ġact ually
s afe
Ġen coding
ro py
Ġm ask
s ure
Ġprodu ced
g reg
f ail
Se lection
P P
Ġpub lished
Ġ' <
Log ger
Not Null
Ġi o
_ *
="../../ ../
Ñ ĥ
ĠI E
Ġang ular
Ġright s
ĠW ork
dag ger
ĠG roup
Ġ$ [
Ġarch itect
ro t
Ġset up
. *
ind er
el li
W rapper
Ġse qu
as sets
Ġstud ies
m anager
Ġaccur acy
.. ..
Ġder ived
p are
ĠRe act
re set
Ġflu x
ĠS an
Ġdiff icult
s lice
b ut
st ers
By Id
I B
U ID
Ġcomp uted
li as
by tes
Ġpart ition
ang er
ĠT ext
ant ic
r ate
net work
cont in
ort un
ach ing
Name space
ĠK ing
s ite
B r
Ġan no
ag raph
au ge
9 4
Ġhe nce
Ġestab lished
im its
C F
Ġcon duct
th rows
W S
Ġform ula
ĠS ci
ex ists
dep th
a pt
m ask
BU G
el low
Ġd ir
LO G
Direct ory
Ġselect or
S Y
is ation
ĠRe ad
Ġbo unded
Ġex ternal
Ġstate ment
() ));
Pr int
Ġst age
Ġa ff
An y
sw itch
d ash
Rem ove
ĠF alse
Ġtr ansport
Ġt ab
in y
Ġmark et
ac c
ic o
un n
ĠGet s
Ġp ers
ĠC ent
sc reen
Ġp ert
Ġpe ak
200 2
wh ile
c pp
en ing
it ute
Ġde tection
n eg
Ġdepend s
Ġres ources
Ġoption al
il ation
Ġpro tocol
D S
Ġobserv ations
Ġopt imal
ous ly
Ġinf lu
y es
o ice
Ġlong er
O pt
12 8
al led
b i
ĠGo ogle
Ġex amples
M y
key word
Ġwh ole
p ers
Ġres olution
To String
Ġd rop
16 0
Ġin valid
ĠO ption
Gener ic
Ġde bug
n il
Ġexper iments
ob ile
Lay er
ixt ure
Ġal loc
w edge
tx t
Ġlik ely
text sc
ight s
r d
sec urity
R est
u y
7 4
omorph ism
Ġhe ld
In v
ĠL a
Ġvis it
assert Equal
tr ics
ĠC all
9 3
j query
g le
Ġb rowser
] :
Reg ister
R AN
Ġapprox imation
ot al
Ġjava x
ĠC ode
Ġsymme try
e in
En um
ip al
Ad apter
Ġcom ment
Ġvert ices
de cl
Ġn orm
Ġbro ad
N ULL
Ġdis k
not ations
h ere
Ġf ace
G S
v s
col on
Ġfor ward
Ġme d
arg uments
Ġme as
h ing
Ġas ync
am a
u el
AC E
ĠIn itial
I E
Ġreco gn
Ġtask s
ĠFe bruary
ĠO ur
Ġ| \
Pro tocol
Ġk ernel
Ġdevelop ed
12 3
Ġto wn
he st
ĠI P
Ġsatisf ies
i ef
ĠV ersion
Ġdynam ics
d ro
Ġapplic ations
Ġnetwork s
Ġet c
sv g
E q
proto buf
Ġh ar
Re ce
Ġc ategory
the me
head ers
met adata
select or
in n
Ġopt s
AD D
ra d
big g
H istory
"> &
F ull
Ġcon structor
Ø §
Ex pect
as er
Ġout side
7 6
Ġst eps
( __
IN S
B A
Ġsh ared
Mem ory
Ġque ue
con struct
ens ive
Ġang le
on ic
case s
el er
S l
M ar
Ġcho ose
Ġmat ches
Ġuncer taint
Ġcre d
Ġs ense
Con f
urren cy
ĠP e
_{ {\
Ġcour se
re me
P op
ĠA N
se ud
pre v
Ġs ays
Ġ\ (
P anel
D A
co q
9 2
i os
ĠBrit ish
Ġpro gress
Ġlevel s
Di ctionary
}} (\
mo z
ĠM ess
ber g
Ġpartic les
Ġed uc
Ġa dapt
ok up
Ġgra v
Ġc ame
av ed
F n
Ġpart ial
Ġgo al
Ġf ully
z one
z on
Ġil lustr
ang o
ell ar
ren ch
Ġca pture
Ġ ess
iz ations
con tains
Ġpartic ip
ĠPro position
pict ure
l g
Ġst ory
om s
f it
Ġm illion
a res
Ġref lect
Ġent ity
D C
DO M
V ID
Ġstr ategy
p refix
ĠP ublic
Ġ ^
st ats
Ġp refix
M ain
Ġtr ansparent
__ __
Ġme et
ile s
a ined
Const raint
ffic ients
r f
ĠEng lish
Ġf ill
Ġde al
pro gress
Ġbe h
ĠO ther
Ġper cent
o ch
B R
di ent
H ere
'] )
ro ad
U LE
b rowser
ĠT H
for all
re w
P romise
ill a
UT F
9 1
Ġpair s
Ġst orage
id ers
b al
St ep
p ay
L IC
oll ary
Ġdep th
Ġm ention
Ġen abled
Ġe ff
Ġstr ings
Ġed ges
or al
Ġn ative
), \
=" "
Ġimplement s
de c
Des c
Ġpro gra
Ġbl ue
s ur
S eg
at ible
Ġappro pri
A v
Ġup dated
ST ATE
Ġmot ion
Ġd omin
Ġclass ical
ĠUp date
Ġident ity
' _
anag ed
Ġnumer ical
P refix
Ġsc atter
at tributes
Ġ} \
Ġde tect
iv ial
ĠA fr
agn ost
Ġt mp
f amily
M an
S im
r ices
Ġdiscus sed
Ġsc roll
AR Y
Ġprom ise
b and
ĠF ield
ca pe
Ġ[ [
Ġbas ic
Ġmatch ing
ne ctions
ched uler
Ġfr ont
D uration
} %
ĠP res
test ing
=" @
Ġtest ing
,\ ,
ond on
Ġ er
w rapper
lo ader
oci ation
id x
Ġv iol
Ġs amp
r ift
Ġor d
Ġcon tact
Ġad min
Ġw allet
sub subsection
Ġm issing
Ġ% }
TEX T
Ex pr
Ġscal ar
ĠW indow
enc ed
log ger
Event Listener
ĠT ask
ĠH is
ON E
Ð º
ĠĠĠĠĠĠĠĠĠĠĠĠĠĠĠĠ ĠĠĠĠĠĠĠĠĠĠĠĠĠ
ĠO per
Ġ ],
er ies
ST AT
Ġcall s
ategor ies
F ailed
ar ation
ome tric
199 9
_{ -
Ġbel ong
Ġh yp
State ment
Ġex ports
new command
AL SE
Ġspec ies
equ ality
Ġun its
f g
ĠV er
h i
Imp ort
A X
D et
G lobal
time out
Ġth ings
) }(
Ġ{ '
bs ite
om y
Pro to
ĠO ver
Ġgalax ies
ma ster
lo op
n es
Ġm en
à ¤
Ġext ended
S ocket
Ġst udi
Ġhe l
Ġg auge
==== ==
O F
Ġd riv
j ob
' }
Ġan sw
equ ence
de t
Ġc ircle
T ABLE
ĠN umber
ĠN ow
an o
e lem
B P
Ġstruct ures
ak er
att le
Ġre ct
ik i
spec ial
o ught
u it
ĠD OM
Ġfe ed
pro file
B rowser
Ġfinal ly
Ġcorrespon ds
fil ename
Ġproces ses
ĠH and
Ġpl ane
Ġsim ulations
Ġqu ality
g it
name s
ol ic
b rief
d iff
con structor
F N
Ġfig ure
=" ">
p attern
Ġchar ge
om b
File s
S ER
Ġ" <
ing ton
Ġsec urity
ential s
Ġin variant
I MP
Ġblock s
h orizontal
ĠM ed
Ġsp aces
Ġmeasure d
Ġ icon
Ġs ave
e cho
Ġexact ly
e ff
ĠIO Exception
Ġd a
Ġre tr
Ġeas y
Ġon line
let ion
Ġcalcul ated
Ġvis ible
ĠJ ap
8 3
R ad
f d
pl ot
s y
s ince
Ġe mission
ĠH el
Ġb uilder
ĠP ark
ĠH ar
Ġn ational
8 1
Ġbound s
Ġcoup ling
Ġvert ical
Ġlist ener
P ATH
Const ants
li br
Ġm ix
b old
Ġcoordin ates
Ġpol ar
Ġb al
Ġch osen
ock er
Ġb tn
%% %%
b orn
M apping
Act ivity
ç ļ
ec ause
CHE CK
Ġde comp
Ġf raction
######## ########
Ġknow ledge
$ /
res olve
u ed
Ġarbitr ary
rib ution
L en
F C
S ync
çļ Ħ
loy ment
Ġme ssages
^ -
ar ant
7 3
A meric
ĉĉĉĉ ĉĉĉĉĉ
Ġch art
L oc
ĠM od
ĠEx t
b es
bul let
r ong
Ġ_ .
at ur
ĠCon fig
C luster
el f
V M
Ġed itor
Ġw ar
ific ations
Ġpres ence
struct ure
Ġus ually
Ġl ive
s ider
Ġbe gan
pro tected
iz able
ĠH ence
b el
Ġup on
tool s
Ġcon cept
Ġiss ues
il i
Ġpro cedure
e ffect
Do uble
riter ia
Ġstud ents
Ġredu ced
L in
r b
p ass
re ement
D est
Ġp y
Ġm ut
S yntax
Ident ifier
r atic
err ors
s ymbol
p a
ĠĠĠĠĠĠĠĠĠĠĠĠĠĠĠĠ ĠĠĠĠĠĠĠĠĠĠ
Ġmoment um
Ġca use
ĠH amilton
ex pr
F ramework
Ġc e
Ġrg ba
M OD
en a
Ġs low
Ġrequest s
I X
ĠĠĠĠĠĠĠĠĠĠĠĠĠĠĠĠĠĠĠĠĠĠĠĠĠĠĠĠĠĠĠĠ ĠĠĠĠĠĠĠĠĠĠĠ
M ath
tab s
Ġqu al
Ġcorrespon d
in i
gener ate
it able
Ġmon th
G R
Ġcare er
Ġal gorithms
pro b
er ve
} </
7 9
k ens
pec ially
Ġp lugin
Ã ¼
ĠA R
app ed
co very
L L
get Name
Ġc lick
d ialog
ĠD av
Ġas k
Ġno vel
f ord
O ur
Ġsign ature
Ġp ick
Su ccess
Ġ" ,
Ġcont roller
t ik
ier arch
Ġwh y
Ġlead s
is ms
Com mon
A RE
opt s
n ers
Ġstudi ed
Ġ+ \
Ġf ast
pm atrix
Ġreg ard
ĠLe ague
Ġre levant
d one
ac count
Ġtime out
if def
L INE
ĠCopy right
Ġpro ps
co ur
ĠH ouse
V G
ĠS to
ĠAr g
is ode
Ġeas ily
UR I
> ::
Ġ$ $
ch ain
ĠWh ile
ĠQ ue
ĠA ir
en ed
) ^{\
ak ing
a ign
Ġfor ms
st able
ĠH er
ertific ate
Ġremain ing
Con dition
Ġhead ers
Select ed
. '
Ġampl itude
) "
unc ed
Ġen able
TR Y
Ġcoe fficients
Ġass umption
Ġso und
Ġmeasure ments
Ġsim ulation
Ġt ell
IT E
ĠE ast
s pe
At t
al g
Ġ ];
Ġm apping
P y
Ġs core
r andom
RE AD
ot ion
Ġpert urb
S QL
Head ers
Ġdec ay
Ġspect ral
Ġe mail
Ġexp ansion
Ġredu ce
ĠH o
Ġf lags
ip age
) _
Ġmag n
b ad
Ġbr anch
Fig ure
Ġon es
J ava
per p
Ġ raw
Ġl attice
w hen
Ġa ctions
he ll
Ġth erm
Ġ_ ,
Collection s
Ġexp onent
ĠInt eger
Tr ace
ï ¼
l arge
Ag ent
on ical
ĠH t
: [
in valid
art ment
Ġsk ip
gra dient
li ct
anc y
\ _
g reen
Ġrema ins
f ly
Ġe q
node s
Sp ace
d y
par ser
en able
Ġstre ng
ch or
en abled
ac le
Ġe con
Ġprevious ly
v olume
j pg
v a
f i
Ġf ire
Ġpar ser
ase ts
Ġco mes
bo ost
Ġ ).
config uration
urther more
Ġre place
act iv
Ġpol y
\! \!
Ġu i
F LA
script or
IN D
Ġe m
if fer
ident ifier
ri se
is ions
Comp ar
proto col
Ġexperiment al
ĠL ondon
Ġid x
20 23
s ome
Rout e
I ST
U SE
Ġag ent
Inter val
h an
ĠS O
-------- ----
it ing
S M
lic ity
VAL UE
Ġin sert
Y ear
iqu es
Ġ' ';
gra de
Ġde t
ĠJ ava
Ġexper ience
Pro file
Ġde tail
H R
Ġ[ "
ib er
Ġpro pag
ĠE l
Gener ator
Ġin c
Ġthe ore
HT TP
Ġgre ater
Ġfil ms
Ġex port
rodu ction
Ġ" -
min ipage
prec ated
k w
c ial
P U
Ġcomp an
Ġclo ud
Ġmet adata
r is
de tails
Ġtrans late
l ates
Ġide a
st orage
F E
h ref
Ġb ad
Ġcorre lation
B E
ĠMore over
hes is
check box
Ġlimit ed
)\ ,
ĠReg ister
for ward
7 1
y al
}^ *
comp onents
Ġqu ick
Ġme ta
L imit
Ġp ul
im in
Ġpop ular
Ġin equality
medi ately
Ġd ark
Ġcolumn s
Ġver ify
Ġsh all
Ġde lay
Ã ¤
un ique
Ġo k
; }
Ġestab lish
ann ing
ĠU I
ĠA rm
pro xy
Ġare as
ĠV iew
ic les
C ap
C a
FF FF
{ $\
lev ision
Ġfail ure
tik z
Ġinterest ing
Ġun known
Ġcom mit
Ġm iddle
) _{
ĠA ND
! [
ri e
Ġtra dition
Ġre ject
Ġxml ns
Ġe lection
ou ch
) ^{-
en ch
Ġf mt
ex ternal
tag s
ĠW illi
R ole
ĉ ĠĠĠĠ
Ġmod ified
Ġben ef
ĠP ort
Ġ{ {
Ġfact ory
unc il
Reg istry
F IG
Ġd ual
ĠD ec
ĠHT TP
}$ -
en ses
s ys
ĠGener al
Ġcal c
C I
Ġsize of
clu ster
Ġun less
Ġl atter
al o
f ect
s ample
ic an
Ġobserv able
Ġm id
Ġ> >>
Ġpass word
LO CK
ing er
Ġrest rict
r or
Mult i
H owever
le ep
f lag
Ġm achine
exec ute
PRO C
M at
Ab stract
Ġm is
ĠIn ternational
Ġab stract
con n
ĠD r
Ġsp an
Ġdistribution s
Ġes pecially
L java
Ġcont ract
Deta ils
Ġle d
O UT
ĠE qu
Ġan n
ar a
33 33
ign ment
Ġw alk
Ġrespon s
An imation
. ");
Ġb its
Ġent ries
m c
ĠAl so
ole c
con v
Ġm icro
Ġsh are
E V
Ġpar am
Ġappropri ate
oci ety
il ing
199 8
ĠPh il
> \
Ġra d
Ġindic ates
Ġre ader
Ġcomplet ed
k m
Ġo l
Ġcons ists
Ġestim ated
th row
Pro gress
U sing
' ];
Ġf un
ick et
f ixed
W hat
L ower
Res ources
ordin ate
con sole
a ins
group s
ot ed
n def
Re pository
Ġqu ad
Ġpath s
for Each
Ġor bit
P ay
De legate
Ġvis ual
ition al
r an
Ġ rows
F S
ta iled
or ary
i ency
m aml
ĠBo olean
Ġst ra
Ġl ot
Ġb uf
b uilder
ymp tot
Ġdenot es
cent ury
Ġmat rices
$ ).
S imple
ifi ers
M icrosoft
U ri
TR UE
Ġrepresent ed
Ġclass ification
t c
Ġradi o
Ġatt ention
d p
mer ge
if old
p ic
p ool
P air
Ġtra in
ĠD irect
ĠEx p
O ff
Ġmode s
( /
Ġartic le
s ime
Ġprodu ce
Ġcl ub
) [
Ġlabel s
A CT
S ingle
j Query
Ġto wards
c ircle
Ġexec ute
NavBar Cell
Ġext end
not es
lo aded
ĠCon st
Ġp od
f ix
" ],
y r
Vis ible
de stroy
sime q
Ġc ard
Ġread only
Ġd uration
{ "
atal og
Ġcont rast
Ġsub set
Ġfact ors
ĠĠĠĠĠĠĠĠĠĠĠĠĠĠĠĠ ĠĠĠĠĠĠĠĠĠĠĠĠ
Ġ$ -
Ġign ore
Ġappro aches
Error f
Ġe fficient
Reg ion
Ġinv ol
Ġpro xy
Ġsignificant ly
H o
sh al
Ġrece ive
M ouse
el i
ynt he
IP T
ĉ ĠĠĠĠĠĠĠĠĠĠĠĠĠĠĠ
ĠCol lege
Re c
Vert ex
^{ +
Ġinteg ral
Ġproduct s
j ango
S ymfony
Ġs light
Text ure
ĠF ound
TI ME
S cal
En umer
Vari able
Ġal though
ĠM ich
rypt o
Dep end
Ġdynam ic
.~ (\
f x
Ġsp atial
Ġro ute
l ated
Ġre ve
iver se
ra se
ce ptions
ĠRequ est
Ġl at
Ġincre ases
Ġp ush
v ideo
ĠR un
Ġth reshold
Ġover all
Ġre comm
y a
Com ment
O B
ĠA g
Ġlarg est
l as
N ative
Ġfore ach
Ġ> >
M T
Ġexec ution
Ġp ool
Ġ{ },
Ġs us
Ġg radient
N OT
cl one
Ġinst ances
Ġm enu
> :
Ġst e
t wo
ĠH ash
Ġre set
Ġde signed
ĠPro ject
pro vider
aj ax
Ġfollow ed
Ġm anager
P assword
s heet
z y
}} ^
d uration
Ġact ivity
pp ing
Ġocc ur
ĠA SS
if ndef
ĠIn dex
Ġch arg
Sh ape
if orn
ĠP ri
col lapse
Back ground
un try
Ġlay out
il ib
or se
ĠB uild
vent ion
Ġintrodu ce
LE CT
Ġgrow th
t k
ri al
check ed
C RE
Ġc lu
Ġvalid ation
ut ive
ĠE ach
Ġform ation
Char acter
or iginal
Ġ' \
Ñ ı
Ġtrans formation
EN SE
se g
Ġob server
Ġcur ves
ĠS um
) {\
> '
H ER
Ġa wait
ĠI d
} )$.
Do main
CE SS
S equence
Eng ine
ic ate
Ġy oung
Ġmov ed
Ġf amil
Ġw aves
\| _{
Ġnot hing
requ ired
a ur
) ->
) },
Ġv ectors
ilit ary
ĠSt art
ĠS m
U ES
Ġb ul
de tail
j unit
n n
og ene
gener ated
W N
P ER
class Name
G en
Ġst able
[ (
Ġad opt
Ġprec ise
ĠP ath
Ġw atch
IT ION
A uthor
view s
ant i
Americ an
ĠW AR
Ġ= \
Ġimpro ve
Ġres olve
Ġdec ision
INS ERT
pk g
Ġth ought
ĠMess age
Ġob serve
Ġreplac ed
as ync
Ġcent ury
( @
Ġappe ars
land s
N T
w ild
) }{\
ĠM ax
ĠB er
Ġprocess ing
ro le
F ind
Ġr ates
u ge
re sp
word s
Ġoptim ization
F L
tr i
D T
li ance
en sed
hel per
ĠCol lection
Ġc ursor
E C
id a
j oint
Ġautom atically
cle an
sh ared
Ġan imation
> "
ĠC our
Ġfe el
ĠGa ussian
Child ren
Ġh istor
let on
t body
ĠA c
iforn ia
in et
Ġcla im
Ġim mediately
f lu
ri ction
Ġrun s
ph one
m ac
sequ ently
re spon
Own Property
gra d
j ar
Ã ¶
W R
Ġgener ation
Ġess ential
Ġbir ths
Ġsymme tric
ad ing
ĠX ML
ĠP ost
Ġoffic ial
end or
ĠA m
DE BUG
Ġdim ensions
)\ \
IC E
Ġen um
imit ive
Ġlay ers
ct r
ĉ ĠĠĠĠĠĠĠĠ
Ġval ign
r untime
z a
ĠF rench
b ing
Ġw ent
lo od
Ġw riter
R R
ed s
Ġge ometry
Ġan im
Ġh it
iter al
$ $\
Ġs quare
G r
M ask
test s
pl atform
Ġpredi ction
C ategory
199 7
ip p
Ġpress ure
l is
D b
Pro duct
fo und
Ġc ast
str y
y e
Ġsing ular
sp irit
Ġmagn itude
Ġf oc
Ġr isk
rel ated
}} ^{
Ġ" $
res ize
j a
Ġde stroy
ĠAmeric a
Ġv ill
ĠRes ource
Ġeff ort
ĠL ong
ĠRe search
Ġestim ates
Ġcalcul ate
i ses
Ġ' '
Ġmon ths
Ġrelations hip
g lyph
Ġ â
ĠL android
ra b
New ton
Ġgener ally
Ġm ixed
tr l
Ob server
ck now
form ance
ib ly
ick s
um my
cal led
Ġyield s
RE Q
l legal
Ġauth ors
Ġcell s
if ically
r g
ĠH ow
ser ies
N V
Ġexist ence
tain ed
v o
p u
Ġpro to
br id
W ord
Ġor ient
N R
ct u
ĠD em
(' /
ĠW hat
RE G
~ $\
ĠRes ult
Ar r
Ġconver gence
p air
Ġgu arant
D P
ty pen
Ġmeasure ment
sel ves
ĠC enter
Ġinter actions
Ġunder lying
Ġm anagement
x s
Ġ= ========
)$ -
Ġf lat
Ġ ut
Ġrecent ly
i pe
ub er
Ġwe bsite
Ġp refer
1 20
Ġex hib
F lag
R o
tr im
v an
ĠM em
ĠT w
ov a
ã Ģ
Ġgr ant
as i
S ort
typen ame
Ġcon clude
I VE
ĠIm age
Ġlo st
Ġn ature
an imation
so cket
MOD ULE
Ġre ach
IN FO
cor ded
Sh ared
ir al
ĠASS ERT
C red
Ġv s
(' #
D iv
Ġjo in
ic ode
w ell
T otal
Ġs il
res ources
pro v
Ġtr ace
ĠLO G
s ive
Ġst ored
k o
G C
f mt
b t
Ġe ver
her n
m ann
Ġac qu
ict ure
vis ible
libr ary
A xis
valid ate
$ ^{-
ĠInd ia
Ġassume d
ĠT R
f ire
ĠM ake
Ġto uch
ĠRep ublic
% ,
g i
Ġlo aded
15 0
user name
ĠV ector
Ġimplement ed
Ser vices
Ġh ot
up load
mon th
log in
I ZE
SS L
Ġread ing
Ġto day
199 6
{ %
En v
map sto
e ch
h om
CO MP
I LE
Ġcomb ination
et te
option al
ĠE ar
Ġcre ating
set up
Ġt en
Ġrot ation
w t
side bar
cc cc
od ot
End point
ĠU sing
Ġdepend ence
Method s
} &
Ġc md
() </
ĠHt tp
Ġe ffic
F il
Ġnew s
Ġqu ite
z ip
Ġex it
L a
Th us
I V
ĠM at
, $
b ot
re act
The orem
create Element
display style
z ure
ĠVal id
Ġb all
Ġget s
vi sed
ĠA ccording
" ].
ĠBl ack
N A
ĠM icrosoft
Ġlog ger
Ġ&= &
t or
Ġident ify
Sup port
Ht ml
Ġchall eng
ĠB el
Ġser ved
Ġmod ules
pro position
Ġmean ing
The se
b urg
Ġpre v
ir ing
an i
OR TED
omorph ic
IG HT
ing u
P lay
Ġ eng
ollow ing
o ph
object s
Ġ ul
serv ices
: =
ĠIN TO
s n
lat form
es ian
Ġear lier
vel oper
up lic
la x
ĠN or
en ge
Ġident ified
Ġg ap
Ġocc urs
Ġf em
spring framework
m aven
ak es
ĠAN Y
get Element
sc ill
se lection
RE S
M er
Ġcan cel
Ġdist inct
Ġsign ed
Ġ" ",
or ge
Ġs on
c ref
B egin
ok ed
can vas
H igh
f c
W ORD
a el
Ġin ternational
us ers
Ġcoordin ate
Ġtechn iques
$ ;
sh all
ĠN AME
Date Time
() ))
it z
d ig
Ġn or
ab e
ist r
Ġspect ra
art icle
s ingle
' (
Ġ Î
P ri
ĠIn c
Ġen h
vari ance
def er
Ġsum mary
il ities
< !
ĠD el
Ġnot ice
EN TRY
tr ace
DE FAULT
fact ory
Ġpract ice
ĠCh ampion
Ġc li
et h
Ġch unk
T T
Ġn orth
Ġev idence
ĠEx ec
ĠD on
Ġsche ma
ĠM ult
ig ration
um ing
\ {\
Ġbeh ind
Ġp ure
v ement
__ )
Ġmechan ism
I gn
Ġdis abled
Ġdes ired
Ġnav igation
ition s
Ġhigh light
199 0
Ġsecond s
Ġbehav i
Ġt alk
Ġd river
å ı
Ġm olec
Are a
Gener ated
Ġindic ate
Ġnot ation
al gorithm
m ix
v c
Ġt x
ĠCal ifornia
St ats
=" ${
Ġtreat ment
c lip
Id s
ro ute
w arning
Ġconst ants
P layer
Ġh ours
j ac
Ġspec ify
di ag
ext ension
p ull
Ġb orn
ĠJ S
ĠAs sembly
Ġf riend
ĠRem ove
sp aces
ic ator
P H
Ġansw er
second s
Ġlo ve
Ġ und
STR ING
D M
iss ues
F UN
O ther
iv il
ĠB ay
Ġst and
ĠSci ence
ul ator
B inary
par ator
ĠS QL
Ġde v
Ġpart y
v ille
ank s
Ġanal og
C lear
ĠGerm an
VAL ID
ar ter
******************************** ********************************
am az
Ġv eh
" /
Ġhig hest
= .
V ideo
ph an
Lang uage
comp iler
pol y
Con structor
pe ated
s ync
Ġbegin ning
Ġstra ight
re lease
c us
ĠM ag
e es
pl us
ĠR el
. <
T x
Ġde tailed
ĠInd ian
ession al
Ġd ro
Ġinv olved
in herit
S ome
P A
ma zon
P OST
ĠWindow s
ĠJ ust
Sp an
Ġt ax
err y
add Class
Ġ( [
ur ations
/** */
S ql
F ragment
ĠH ol
App end
F low
Ġthrough out
and ra
m ma
Ġcomplet ely
clu ded
ĠEurope an
comp ile
Ġcon figure
seud o
Ġdist rict
R C
ist ed
d river
ri um
Ġbo ost
ĠVAL UES
IN TER
pl an
Ġv ary
al ed
Ġ` ``
Ġcontribution s
Ġexp and
sw arm
s imple
ol ar
M ove
r uby
ex tern
m n
Ġst ellar
ĠĠĠĠĠĠĠĠĠĠĠĠĠĠĠĠ Ċ
Ġop acity
ate way
i h
st at
ĠU N
ill ing
Ġchar set
ĠS che
per iment
urre d
C lo
Ġ{ $
Ġp riv
anc ial
ĠF ROM
Ġsepar ate
ers hip
Ġd rag
Ġpolit ical
Ġse ems
as sembly
F ORM
Ġag reement
P ublic
ra pped
Mem bers
ĠDist rict
u ous
Ġo wner
. ",
ir med
Ġrem ote
Ġanno unced
Ġj oint
ĠD O
Ġcontain ed
Ġj s
Re v
ĠArray List
F in
Requ ired
Ġpar allel
ĠHamilton ian
Ġ ..
o ss
ĠC SS
Ġadd ing
Ġcomput ation
Ad min
Ġs af
D rag
H z
| _{
Ġweight s
Ġl icense
Ð ¼
Ġmo use
d c
Ġin ject
Ġliter ature
comp are
nav List
Return s
Ġdat asets
Ġb in
ĠBO OST
Ex ample
il led
Sum mary
Ġw est
Ġme tal
Ġb g
h old
not her
Ġg reen
Ġbe y
ĠIn put
Ġform al
Ġconc ern
at omic
] ))
Ġas ymptot
Ġ' .
w est
Ġex am
i pher
Ġm aster
B asic
Ġevalu ation
Ġevalu ate
Ġan t
are t
Ġde vices
? >
Go ogle
on ce
ag o
Ġdiag ram
resent ation
T A
P UT
Name d
ament al
Ġposition s
play er
Ġpur pose
re ct
**** **
Ġad just
Ġbey ond
b p
Render er
Ġst ri
- (
NS String
Sk ip
em on
Ġn ight
DE F
Ġdo ing
199 5
ts d
ĠOn ly
f lex
Argument Exception
wild fly
Ġincre ased
Ġo scill
Ġde vi
M ake
own er
ĠĠĠĠĠĠĠĠĠĠĠĠĠĠĠĠ ĠĠĠĠĠĠĠĠĠĠĠĠĠĠ
ass ign
Ġmin imal
ur a
element s
Ġ@ "
ĠA ng
Ġin finite
ĠN etwork
B S
r ics
ack son
Ġro om
! !
display Name
it o
ch anged
Ġexplicit ly
ĠSet s
ĠM er
: #
mo b
ri er
ĠC up
sup ported
ĠApp end
Ġtype def
} )$,
an de
m ag
Wh ile
ME TH
Ġvalid ate
mp t
ĉ ĠĠ
Ġep isode
ĠE lement
) +\
Ġconstruct ed
w atch
Ġsitu ation
FN GL
y y
Ġd ise
ilib rium
W ait
get Value
ach ment
} }$,
Ġgener ic
col Last
her ited
Ġ' ',
Ġb atch
Ġtri p
Ġvers ions
qu ote
Ġperson al
: }
em bed
ĠP aul
Ġlook ing
ivers al
Newton soft
Ġhigh ly
ĠA ction
Ġw all
ĠFound ation
j i
F l
ĠPres ident
ph ys
Ġ= ======
Ġc hem
Ġind ices
C G
Ġen v
Ġ ip
Ġ" ";
Ġcall ing
Ġdiscus sion
$ ~
Ġopt ical
radi o
th rift
">< !--
ĠCol or
str ument
H ow
vert ical
b g
Ġprob ably
C ar
la im
Ġtechn ology
s a
ĠP RO
ri an
el astic
Ġcont ents
use um
ĠD iv
Sh ort
Ġmer ge
er ved
M I
Ġde tected
ap is
; "
us iness
Ġsup ports
lement ation
Tag s
arn ings
it ivity
Ġus age
Ġcandid ate
Ġm ac
Ġgraph s
Ġdid n
Ġcompan ies
Ob servable
ĠSt reet
ĠT emp
} }$.
Be an
col First
Oper ator
d rag
Ġf ood
Row s
k i
Ñ Į
Ġcomb ined
'] );
v ol
ĠG reen
load ing
ĠNew s
Ġmention ed
du c
ĠEng land
Ġon to
ĠM al
Ġa udio
sc ss
or igin
# {
bo se
cor por
(" /
ĠA nt
wo od
B AR
s ig
k y
Object s
dis able
ation Token
l ations
ar c
ĠP romise
ctr ine
Ġn p
ĠA re
Valid ation
w p
Ġs outh
par agraph
D ATA
Ġtyp ically
Ġtra ined
high light
'] ['
[ -
os ing
Ġco sm
ĠM ac
Ġ$ |\
P ass
Ġchannel s
all classes
amaz on
Ġassert That
bl ank
Ġdepend ing
G u
ens us
br ace
ĠT V
AN G
ymme tric
Ġm orph
Ġdi ed
Ġfor med
low er
Ġinst alled
Ġs ynchron
Ġl ack
ap os
Ġcomplex ity
ĠR iver
Ġas pect
ra ms
Ġinput s
ĠD ocument
clus ive
exp ression
ĠO ff
B B
Tr ansport
( .
Ġ? >
Ġtra vel
os er
S K
Ġarchitect ure
EL D
g ers
Ġext reme
ic ensed
Ð ´
}( {\
Ġdocument ation
ĠCan ada
ĠB lock
Ġab ility
l an
m ing
Ġrecord s
H S
Ġf ragment
Ġb undle
se q
Ġs ql
] }
C loud
Ġvari ety
Ġw ays
F ree
ĠW rite
}{ |
ĠF inally
ĠB ro
ĠHe alth
00 1
ĠG overn
ĠOption al
Ġadv ant
Ġth ing
ĠW IT
CT YPE
Hel p
Int roduction
Ġslight ly
elli j
Ġpro jection
Test Case
Ġcon cent
Ġhyp ot
ĠCre ates
Ġfin ished
_ );
Ġdifferent ial
ĠP al
ĠCh ina
Ġme trics
) -\
ac cept
Ġscal ing
b d
Ġle ave
Ġshow ed
N ormal
int ellij
ĉ čĊ
(' ./
f ol
corre ct
Ġrepresent ing
pol icy
t ensor
Ġcalc ulation
Ġcy cle
Ġread y
Ġex change
\ )
C LASS
] +
ĠPro v
n ov
en ess
ĠK e
Ġe mer
Ð ²
/ _
Jo in
Ġfunction al
M R
ĠCon vert
ack et
ĠL ine
b c
ĠAustral ia
RE E
ist ence
Ġis n
om as
h ar
ue st
ĠS en
to uch
te e
un ce
Ġte levision
sc ape
Ġget ting
ro te
St atic
Ġnull ptr
Ġconv ex
Ġattemp t
oper ation
: `
Ġ' "
Requ ire
ver ter
C or
ic ies
Ġtool s
Ġqu ark
An notation
Ġmod ern
ly mp
Ġredu ction
Ġt d
ĠS D
ID TH
Re act
ĠDep artment
re v
Ġp en
Ġscen ario
con cat
velop ment
$ ),
r ank
Ġin verse
D IS
AT TR
Ġmeas ures
olog ies
OR Y
ane se
Ġv o
ĠCom mun
ĠB ig
Ġter min
Ġscatter ing
is Empty
Serial izer
Ġr untime
Ġr ing
Us ers
Ġbe am
ĠF our
n p
ro ke
ĠAn y
Ġ- =
Ġse ctions
Ġ{ "
con vert
Ġgalax y
Ã §
Ġv an
ĠSt ud
function s
ĠDav id
py thon
Not ification
Ġcap acity
Q U
Comp lete
ro y
P ub
F inally
d ere
ĠTe chn
Ġmin utes
" },
ĠV is
ot es
Ġf lex
Re port
Ġdiffer ences
Ñ ĭ
f lat
Ġrel atively
Ġo dd
Ġco p
stru ctions
w orld
Ġelect ric
con g
Ġre ferences
Ġhar mon
tern et
MO DE
ot ing
Ġag greg
199 2
Ġtra ject
Ġclu sters
Ġdepend encies
Ġwork ed
En ter
ĠEx ample
Al low
Ġcalcul ations
Ġtag s
ĠCo uncil
Ġ" %
ic ip
Ġindu stry
Ġw ind
Bind ing
Ġneighb or
199 4
D rop
Ġres on
METH OD
Ġcomput ational
Ġassign ed
Ġk m
ĠAr ch
print ln
ap es
C B
Ġprov ider
ĠT op
Ġ[ \
ie ce
Ġa x
ĠG ra
Ġobserv ation
Ġachie ve
P ers
pro t
mit ter
ĠPro cess
S ave
Ġuncertaint y
sign ature
Ġapplic able
Ġe ast
mo us
DO CTYPE
Ġany thing
ry ption
vari able
Exec ution
Di agnost
D om
Ġre sp
ss l
u ages
US ER
Ġquest ions
) )$
k in
con tain
Ġl if
h ol
Comp at
ore st
Ġre ached
ot on
ĠPar ameter
ĠPro perty
it a
) }}
Null able
ir ror
Ġstrong ly
re port
ĠF ind
N UM
dat abase
h bar
/ .
Ġabs or
Ġd am
S creen
m ass
ĠCom mand
Ġ) {
Ġpr ice
Ġsol ve
Arg uments
k es
AT CH
up s
ann ed
Str ategy
sk i
d k
et ween
int eg
H ome
}$ )
ext ra
Ġf rag
D river
ĠL eg
F ocus
Ġneut r
» ¿
Ġp ages
=" $
Ġp ull
Ġcamp aign
AT ED
U D
ĠP oint
dis patch
Ġs izes
.. .</
: '
p ower
En vironment
Ġf ather
ï »¿
av el
There fore
ri ends
Ġmov ing
Ġshow ing
g on
av ailable
Ġrob ust
Ġapproxim ately
am o
, '
b atch
clu ding
ig r
po inter
Ġre li
Ġcoe fficient
Ġopp ortun
Fail ure
ĠSo ftware
Ġdi ct
Ġcon nections
al ert
C ursor
Ġm asses
p romise
ĠAp ache
ĠLo cal
p b
reed om
18 0
Ġopen ed
Ġth ick
Ġlist ed
Ġper fect
Ġsuccessful ly
; )
eder al
F older
Ġtra de
B ool
and er
Ġreg ime
ĠL aw
ogene ous
c atch
ĠU K
Ġm oney
T imer
is set
Err ors
ver b
Inst all
s b
em it
Ġt or
ĠA ut
b asic
Ġne ural
ĠSe cond
f old
Ġcomput er
cf g
Co unter
Ġstreng th
C ALL
M IN
ð Ł
SC R
Ġar riv
Ġf i
has OwnProperty
' ll
us form
A cc
re ce
numer usform
Ġc b
Ġh on
R aw
=\ "
os ity
Ġload ing
Ġs afe
Ġclass Name
w all
Ġl imits
B IT
Ġan ti
Ġs ys
Ġbr ing
serv ation
Ġv ac
Ġw idget
Ġfor ces
Ġca used
ĠD ay
er ial
ĠB ra
Ġw rong
Ġeduc ation
ĠW il
mem ory
AN CE
ist ics
Ġex cit
) }_{
gg reg
~~~~ ~~~~
Ġco q
d frac
Ġgra du
m al
A ng
de ep
s uch
_ -
uf act
ĠD at
EE EE
Ġeffic iency
Ġindu ced
Ġgo es
Ġtheore tical
Ġp aint
a ver
) --
fr ont
Ġdis cover
RA Y
Not Found
as y
S top
Ġcre ation
g ame
L ibrary
ub ble
ĠS ource
c ancel
/* !
ab ric
Ġ rap
ĠN et
Un known
; ">
ĠÐ ¿
Ġparticular ly
Mess ages
Ġ} }
T wo
ĠE mp
Ġcl one
Ġ' %
Ġex c
Ġp hen
pe ar
ĠJ ames
Ġexp ressed
assert True
t f
ĠInst itute
Ġiter ation
Ġpro port
IO Exception
() ),
Ġmod ify
Ġpro ved
method s
cre d
FF ER
Ġc he
Ðµ Ð½
Ġdis crete
Ġaltern ative
Ġout er
)) \
anch or
Ġso on
ĠA ward
umpt ions
y cle
anc ell
less sim
/ {
ĠSup er
or ation
C ONT
Ġte ams
ĠM or
om ite
ĠP ub
Ġdenot ed
Ġ\ "
C ur
Ġm d
AN T
Ġscal es
Ġdecomp osition
v ature
SE LECT
å Ī
Ġre served
wh at
ĠSh ow
cd n
ĠB ack
ony mous
s at
B ut
ĠB it
Ġacc eler
Ġest imation
Ġhe avy
Ġsequ ences
nav igation
Ġsimp l
Ġl iving
D R
ash ington
Ġso ft
S G
Pe ople
Ġinter pret
g oto
Const ant
> )
tikz picture
Ġreco ver
os itory
G ER
Ġsc ene
ĠFr ance
gener al
am ing
en code
A udio
const ant
Ed ge
Ġexpl ain
mut able
ex it
inter val
BP ACK
Ġs n
ab c
Ġpat ients
anc er
Ġplay ing
Ġstart s
ĠC lient
ist og
Ġcom ing
ĠWAR RAN
Input Stream
ĠD et
ierarch y
E mail
ĠR ad
ime d
omite mpty
S ame
Ġclear ly
Valid ator
ign ore
Ġpattern s
Ġre mark
ilar ly
B atch
00 5
c li
all ery
Ġstatist ics
ĠC EL
ON G
Ġv ict
Ġc m
cknow led
Ġconsider ing
re peat
ĠR ich
w d
S pe
ag ent
P erson
x html
B al
Ġtyp ical
ĠA S
$ :
at o
qu ant
down load
Ġdest ination
de cor
Ġd ot
ist ers
Ġent ropy
ur able
Pro gram
ang ing
lect or
face book
Ġs ync
LO C
ine se
rel ative
t ics
The me
Point s
b lob
Ġ ener
25 0
Ġcommun ication
R ate
e val
ther n
Ġbo ard
A F
}{ (
out er
com mit
Sign ature
! \
Ġc amera
ph ase
Ġachie ved
Ġc ru
W allet
er ed
R PC
Ġen code
p od
19 80
: @"
LE TE
Ġw rote
EEEE FF
Ġ\ (\
lic ations
ĠF urthermore
12 5
Ġs qu
sub ject
D ay
z en
Ġr ace
se m
ast e
se y
Ġcon ven
ĠPart y
Ġtherm al
W arning
Ġnu cle
Ã³ n
C M
is hes
ĠL ang
Ġide al
Ġre corded
Ġvill age
C md
T F
E ST
t iny
199 3
Ġ ion
Seg ment
1 10
Ġlate st
P HP
ĠCom mon
lic ense
Ġhy dro
ĠP age
Ġt ro
Ġf ine
sub mit
it ation
S ample
oc aml
ĠL ink
org an
m k
ĠĠĠĠĠĠĠĠĠĠĠĠĠĠĠĠĠĠĠĠĠĠĠĠĠĠĠĠĠĠĠĠ Ġ
ĠM art
Ġsatisfy ing
n ative
LO W
Ġ" .
dere q
Ġro ad
Ġm ale
Ġs b
Ġun ion
ĠAss ociation
Ġiter ator
ĠO f
re ader
Ġocc up
p res
Ġinteg ration
t frac
= [
Ph ys
^* $
ĠE ND
Ġprov iding
Ġdirect ed
Ġcoun tries
Ġben ch
Ġflu ctu
hav ior
du led
W AR
Th row
Ġh ole
MA P
cont ents
Ġpl aced
M any
Ġcon version
Ġen umer
Ġre call
f ake
z h
s quare
8 00
Ġsamp ling
A SE
Ġinflu ence
V AR
Ġnormal ized
Ġd ialog
ve e
Ġsem i
Ġde mand
ĠM ock
j et
w riter
Ġcomp osition
\ }$.
Ġres id
const raint
vert ex
ĠCh urch
Ġper missions
ur st
Ġre con
/ "
figure s
Ġpay load
ĠS ur
clus ions
ph ere
sl ash
Con vert
/ (
Ġde part
Ġident ifier
Ġmax im
un ct
ult ural
dic ate
out hern
Ġa mb
Style ID
ĠC he
re y
ĠL ie
ok ing
ĠAl though
in em
Ġst ated
ab br
}} )
Ġend point
Ġis ol
Z one
v olution
Ġe ight
g ies
Ġgener ator
getElement ById
Ġview s
ĠS M
Ġg ain
G ame
Ġembed ding
ĠM ain
ASS ERT
the mes
ĠC H
uff ers
ĠZ e
Ġ' -
ĠS E
Ġprec ision
ĠL L
f p
ro om
ten ded
0000 00
ĉĉĉĉ ĉĉĉĉĉĉ
d irection
ĠO p
Lo op
Ġcan vas
int eger
Ġstr ateg
spec ific
po ses
ĠH all
CH AR
cal endar
' ].
ree k
Ġf air
Ġdel ta
pect ive
co gn
ful ly
go ing
e lect
ag er
del ay
T L
ĠR oman
ĠM edia
Ġ$ _
Ġse cret
h ave
Ġapp lying
> ;
Ġsp read
Ġbind ing
to Be
Ġinitial ize
&= &
bm atrix
NavBar Font
Ġle mma
Sh ould
c ursor
Ġthem selves
Ġfund amental
Ġim g
ĠWilli am
Ġrequest ed
Ġm ind
ĠUn ion
is l
Ġcom ments
I AL
Ġso cket
Ġf oo
plac ement
Ġfin ish
h l
ad ian
Can vas
Ġdeg rees
,\ \
p at
over view
ĠH ig
sp here
$ };
( ['
Ġevery thing
Res olver
Ġoff ice
de precated
Cont ents
Us age
Ġhe art
ĠP at
he el
Ġt ail
me ssages
ĠC ustom
Ġproject s
Ġd u
Re al
WE BPACK
Ġto kens
C ast
ORD ER
Ġb rief
U nder
ap ers
sp in
Ġover flow
ong o
) })
Ġtrans lation
co ordinate
Process or
Re lease
or ient
Ġsur v
name d
as m
ho use
En coding
Ġd x
j ax
ĠB en
Ġpl aces
Ġtradition al
L android
p an
ĠAb stract
Ġtop ic
] $.
an aly
Ġrepresent ations
ag r
Ġim ag
Ġup dates
B ottom
trans action
urs ive
P ixel
Ġequ ip
Ġst at
P rivate
Con n
}[ \
Comp iler
Ġd om
ĠU til
Ġse x
Ġfamil ies
h box
am i
parent Node
ff f
N C
Ġphys ics
pre vious
ĠT ex
ĠS IZE
aj or
}} _{\
G LE
ä »
ud get
ĠF il
Ġbi as
sp ital
p erson
Ġ\ ]
script size
Ġexpress ions
Bo ok
Ġgu ide
M ac
glyph icon
im ing
T erm
el t
Bound s
O O
Ġdirect or
Ġjo ined
lip se
19 70
S ur
Pro of
| }
lo ss
12 7
FI ELD
ĠI R
f ast
Map per
OP T
N ET
comp ute
Add r
Group s
iffer ent
. """
cre ated
Ġb ug
Lin q
Ġcon n
ma ins
atist ics
ĠA lex
ra ined
mult ip
H ub
Ġm ilitary
ch unk
s r
E ffect
6 00
Ġcontinu ed
Ġsum mar
Ġtechn ique
i ota
d ark
( --
ĠF in
a udio
Rem ote
et o
(' <
ĠD uring
Ġtime stamp
. $$
Ġ" '
ĠAnd roid
it ar
T ouch
Ġel if
pend ing
Ġw or
$ _{
P Y
C ard
Ġde scriptor
po ch
Expect ed
Ġde ad
Ð° Ð½
Ġunderstand ing
Ġpredict ed
mo ment
Ġtry ing
Ġthe me
ĠC G
me an
ĠSt atus
Ġto ld
Ġcon j
Ġorgan ization
] $,
Con tact
ĠU nder
cri be
oth ing
ynthe tic
Ġd ie
ode s
Ñģ ÑĤ
ĠF oot
ĠWh ite
w arn
ugh ter
Ġ$ ,
st one
Column s
BU FFER
lo ating
Ġout come
| }{
' ve
Ġj ud
big l
ĠB est
ĠS u
Ġro ck
U ST
append Child
Ġobject ive
al og
B its
, {\
C SS
ĠAppend ix
common s
Ident ity
Ġin tr
ĠC r
st ates
T ile
Ġnot ed
Ġpixel s
es ome
I A
Con nect
m its
B order
ĠT wo
_ )
Ġexec uted
Dep th
10 1
AT OR
kw args
ĠI ter
ĠOr der
Ġdist ingu
Ġa go
direct ory
, ...
Ġst ability
empty set
Con tains
in er
C ancel
ĠĠĠĠĠĠĠĠĠĠĠĠĠĠĠĠĠĠĠĠĠĠĠĠĠĠĠĠĠĠĠĠ ĠĠĠĠĠĠĠĠĠĠĠĠĠĠĠ
c line
ĠComp any
Ġg ave
IMP ORTED
Ġcode s
ace book
sequ ent
pos able
Ġs ites
Al loc
ĠV ir
valid ation
ĠD B
Con sole
f etch
time stamp
Ġcomp atible
In sert
S W
ĠI llegal
multi row
Ġas sembly
Ġz one
Ġexpl an
Ġwhere as
Lower Case
(" %
Ġdocument s
ĉĉ ĠĠĠ
LI ST
ĠDe lete
big r
Ġdef ines
r ich
HE AD
rec ated
u zz
act ual
Ġsh ip
in ject
@ {
In formation
Ġc lock
Ġdefault s
Ġhe at
go og
Ġnear ly
ĠG iven
or a
Ġl umin
par allel
ĠS ign
Group Name
at ar
ĠY ear
f rag
fe ed
W orld
column s
ĠP ress
ĠI mm
column width
,\ ,\
tool tip
Ġsome times
ĠS y
Ġh ol
Ġs aw
Ġst yles
F ALSE
Ġrequire ments
ĠR et
ĠGe orge
comp lex
Ġsu itable
Ġ' ./
Set ting
' m
form al
Ġcan onical
Ġlocal ly
Ġst aff
Ġinter pre
Ġte ach
NO DE
Ġp ipeline
Ġv m
Ġ ens
Ġmod al
az y
Ġstatist ical
= >
e ven
remark s
ch a
Ġj ump
PRO JECT
ï¼ Į
iv ery
Ġshe ll
it t
= $
Ġbel ieve
s lide
w ill
Ġf avor
Ġst ay
Ġag reed
math op
Ġrap id
ĠW ashington
is Array
l ig
lic enses
á ĥ
Time stamp
ho ok
Ġphen omen
ail y
Ġ} {
ĠAL IGN
ĠCour t
Ġ ----------------------------------------------------------------
Ġfind ing
Ġhim self
ĠL ou
h ips
ĠPro gram
Î ¿
ist ency
ĠSt ream
Ġpr im
Ġorder ed
199 1
Ġde sp
net es
IL D
Ġregister ed
Ġsufficient ly
Ġin sp
IN ST
UN D
Ġsc ient
ĠRes ponse
) &
en coding
Ġmon itor
c mp
Ġconf irm
uber netes
Ġ ult
Ġbg color
Ġpro ceed
Mon th
Ġ| =
u um
ĠN AV
Ġ' _
Del ay
t ar
PRO P
V irtual
\ ;
Ġe ase
l ings
p ace
w er
Y Y
Ġpredi ctions
ĠO S
und red
al d
2 13
ĠP ack
Ġdo ub
ib ration
In ner
ie ved
ist ance
DE X
ĠD im
C enter
Ġall Classes
Met rics
G N
Ġpar sed
ĠM usic
D ATE
Ġhapp en
Ġw orth
T Y
tool bar
Ġa lias
Ġr at
Form s
^ ^
Ġd ust
le br
æ ľ
Ġcheck ed
v let
Ġdiag onal
neg ative
}) }
Ch ain
W rit
Ġprogra ms
ĠCO VID
st andard
Ġdis able
Ġvari ation
Ġmass ive
serial ize
+ (
M ix
tri angle
ãĢ Ĥ
b or
Ġprof essional
FI X
ĠallClasses Link
Ġmark ed
ĠU s
Ġac comp
we et
ĉĉĉĉ Ċ
Ġ-- -
sp acing
} ))
B Y
un ing
Ġcommand s
ĠGerm any
] ->
N ING
Ġst ats
W A
Ġcoll abor
qu est
Ġmaterial s
Ġf ake
ĠJap an
Dis patch
Pl an
h n
Re set
rypt ed
he ets
Ġw rapper
}} }\
Ġevent ually
Ġaccur ate
G iven
ĠA T
ut down
Ġcomput ing
Ġequ ilibrium
abe led
W atch
Ġ ĉ
AR B
per iod
Ġfail s
let s
}} .
Ġass umptions
Ġocc urred
F OR
u uid
ĠM ost
F r
ist ant
d ynamic
S plit
à ¸
An alysis
Ġman ifold
Ġgiv ing
Ġob vious
Ġapp oint
ĠIn v
act ivity
B L
HER E
head ing
ass andra
get Attribute
Ġpri me
li k
Decl aration
) }_
Ġcache d
Ġask ed
Ġext ensions
Ġdeath s
st ein
Ex ists
exp and
Ġtr ust
lo cale
å ®
map s
Ġus ual
ĠS H
Ġ ×
Ġsc ience
ab out
ĠR ob
Ġcur vature
Ñ ĩ
mm ing
Ġre produ
al a
ad v
W IN
Ch unk
S ch
Ġbul k
Ġp lease
ç Ķ
fer red
ĠC a
fin ity
M s
}) =
Ġw arning
b ib
ĠO lymp
act or
z ing
Ar ch
Nav igation
) ",
Ġ' #
r int
ĠF l
con nected
ĠP en
ĠSte p
ali as
p ages
Ġevalu ated
ĠArm y
Ġb right
ĠG od
ĠPy thon
Ġin corpor
Ġpro pose
Ġdiag n
Ġstud ent
semb le
it ative
came l
Ġb os
Pro v
Ġprinc iple
A ST
ill er
L iving
ĠA mazon
ĠConfig uration
Ext ensions
% "
D iff
ari os
Ġed it
Ġplan et
Ġsatisf ied
Ġadd resses
ĠH istory
Ġa ver
h pp
Trans ition
igh ter
Ġ ^{
an im
Ġdef e
ĠN ext
M ed
at in
Ġse ven
ĠBy te
al gebra
æ ĸ
Ġsur vey
Ġloc ations
eli hood
ĠS earch
b log
ĠS imple
Ġ' $
Ġbehavi our
u er
ar ia
Ġbroad cast
s ent
(" #
Ġf s
Perm ission
as c
ult ane
Ġqu eries
ĠI L
con tact
= }
ce eded
Ġrot ate
Ġinter section
ĠApp lication
10 24
ru les
Ġquick ly
Ġse ctor
he ta
ask et
Ġderiv ative
Ġsub group
Ġname ly
Option al
u an
A UT
Id x
part s
66 66
Ġpack et
Ġcy c
b inary
Ġca pt
Run ner
Ġappe ared
Ġdescri bes
ex amples
N a
p aper
================================ ================================
Ġmod ul
ib ling
Ġdown load
Ġindic ating
y ing
ĠPar se
EN ER
ĠAfr ica
fl ush
mer cial
ĠS ociety
R andom
Ġcar ry
ĠDem oc
li a
å Ĳ
ĠL in
Ġdig ital
Ġm us
Ġnon linear
Ġmain tain
Ġdefinition s
Sh ader
}} ^{\
ĠJ son
ĠF OR
BO OL
ĠD ir
Ġ< -
Ġcan cell
ĠG ame
SCR IPT
Ġfin ancial
We ight
to LowerCase
ĠDE FAULT
pop up
Ġc ategories
m en
ĠS un
Con sumer
Ġconv olution
Ġdef er
Ġcol ors
set Attribute
sh ips
com b
LIC ENSE
ĠHand le
Ġallow ing
}_{ -
i ra
ĠG lobal
S ite
Ġequ ality
Ġcharacter istic
c ross
D ig
ĠOut put
Ġcorrect ly
Ġho pe
ĠV ari
Ġsign als
ĠNAV BAR
ĠP DF
ĠCont rol
Ġcap ital
Ġd ense
Ġjo urnal
u v
string s
Ġes cape
i ro
h ard
tr ivial
mat ches
V ICE
FLA G
Ġexper i
Ġpre t
\ }$,
Ġgrav it
ĠH AL
Ġh orizontal
! <
SO UR
duc ation
Ġlog ging
Depend ency
ĠG old
Ġmax imal
c ert
ĠA cade
TI ES
Ġlimit ations
Ġ Ø
Ġto ur
st ra
Ġse ed
cre ment
ar ded
P OS
] {\
Ġcontrol s
v in
ge o
< <
E O
Ġin j
Ġf erm
= %
ĠT ur
Î ±
Deta il
ĠC OM
Ġ Query
". /
Ġadvant age
Enumer able
w a
se p
Ġd ire
H older
m f
Ġdel iver
Ġlet ter
requ ency
Ġrespons ible
p ixel
s ch
) >
attr s
ref resh
Ġh ide
Ġex pert
s co
Ġtr uth
P latform
Ġtre nd
ĠT ag
Ġm obile
Ġlog ic
, .
lu on
Sup ported
est ival
ext ensions
ĠL i
Ġbase line
Ġre ports
Ġvari ance
ĠM ary
Ġm other
T w
Ġg lob
Ġder ive
Ġ ,\
="../../../../../../ ../
ĠSer ver
es h
Ġcar ried
ĠD an
Ġd t
ĠSer ies
Ġmov ement
Ġinterest ed
Ġd raft
n y
od ay
de code
Ġconf lict
k t
cl s
remove Class
Ġset t
ĠWARRAN TIES
ĠB uffer
Ġg ir
T AG
ĠRo bert
ven ue
H C
}\ ,\
Read y
Ġperiod ic
ĠCent ral
ok ies
Ġbir th
Ġf ight
c urrency
sh are
ĠEng ine
Up load
Ġp a
An im
Ġas sess
Ġcon sequence
M aterial
view port
pt o
EN V
CON FIG
ĠO N
St andard
Ar t
Ġn s
Ġbook s
Ġp iece
ĠĠ čĊ
v art
ĠY our
w x
sk y
AR RAY
al ian
L ight
Ġpol ice
Con verter
P M
v endor
v t
Ġpl us
Ġtext ure
pl ane
sub scribe
Ġsp ent
op acity
LE MENT
Pre v
Ġpri ority
Ġ" >
Ġmot iv
la w
ĠH ome
ot ic
e b
ĠRem ark
Ġco ol
\ }\
Ġc ulture
T uple
Ġ' ,
ĉĉĉĉĉĉ Ċ
F uture
ĠF ix
ĠA tt
Ġimpro ved
" ];
rag ma
;\ ;\
Sw itch
s un
ist an
AC H
ĠD en
i ar
Ġse ll
top ic
Ġd ip
Ġtr ivial
we ak
reg ular
uplic ate
atic s
ĠCon text
A ggreg
F ixed
ĠJ er
Task s
ĠP HP
Ġin deed
/ ">
Ġse em
B lob
ĠC R
ent al
Ġmost ly
act ic
ĠP lay
' +
ĠMich ael
d ocker
ymme try
anc ing
Ġra il
Ġro ugh
ens ities
Mark er
Ġmain ly
ĠM ex
ĠE V
Ġquant ity
Ġb ank
Ġst och
list ener
ograph ic
Ġ rise
ĠM a
ĠBo ok
And roid
L emma
is co
En c
ell ig
Ġcre ates
Ġimp licit
Ġbal ance
} |\
ĠR est
ĠCh inese
ĠD u
Ġf reedom
Ġ\ &
ĠP R
Ġp i
ĠSe lect
Ġreason s
Ġactiv ities
Ġassert True
p resent
Ġpur ch
ĠTex as
Ġattr s
Ac cept
Ġpo or
k g
M ut
b as
ol a
Ġdis patch
Ġindividual s
riter ion
get Id
ĠIs land
Ġradi ation
198 9
Ġopen ing
i en
\ |\
ow ers
ĠĠĠĠĠĠĠĠĠĠĠĠĠĠĠĠĠĠĠĠĠĠĠĠĠĠĠĠĠĠĠĠ ĠĠ
ess or
IM IT
Ġs ymp
ĠF ree
Ġfour th
ĠRo ad
Ġident ical
i ation
Z ero
AR G
Ġdepend ent
oriz on
Ġinter act
ĠL ife
ĠZ end
Ġre lax
ĠP op
Ġde legate
Ġgeneral ized
ĠB Y
Ch art
bound s
L Y
Ġplace holder
z ed
Ġchang ing
Ser ies
Ġinter pol
R ot
Ġmo unt
Ġschool s
ĠR out
Lo okup
t an
ĠIn deed
Ġs aved
L eg
Ġpl ant
Ġleg al
ĠDes cription
tr ansport
ĠTh omas
Ġen coded
Ġs pher
am er
D irection
Line ar
Ġor th
Ġfilter s
Ġign ored
Ġin herit
Ġpolit ic
Ġel li
n of
Ġtre es
}) ^
Ġp icture
date picker
On ce
Pol y
uss ia
ob server
A mount
Ġ uri
Ġmaj ority
I Z
Ġf etch
che n
As sembly
Con sider
En able
re po
Ġwant ed
[ ],
if ts
sl ant
Ġinvestig ate
Log in
^{ (\
Ġpl ays
tw itter
sub sec
t ile
rit ical
ĠB oth
Ġrep ository
ĠStr uct
ĠA v
Ġmedi um
S N
ab it
ĠG al
Ġtop ological
Ġchem ical
Ð¾Ð ²
rem ote
Ġp atch
ro b
get Instance
istog ram
Ġener gies
\% $
ĠIt s
M issing
F inal
Feature s
IL ITY
R ules
ĠE nt
Lo cale
Ġgener ating
ĠP et
Ġb uy
ĠCom mit
Ġle ader
Label s
ĠC ap
Ġres olved
t l
Ver ify
u dd
dist ance
Ġol der
p f
Ġcomp iler
lic a
ref s
ĠS VG
s ass
At trib
Ġint ensity
k ernel
re pository
G O
os h
log o
t imer
Ġd iver
er c
ar ith
C tx
! ]
col lect
ig ator
Ġh undred
th umb
S cheduler
air s
th ere
Array List
Ġbe g
ĠC ore
Ġmat ched
Ã £
ĠDef inition
Ġw rap
CO UN
w ave
ĠS ing
Ġnu clear
Ġpass ing
ĠT or
mob ile
ĠR ussian
Ġla unch
Ġ' @
d jango
n i
Ġrad ial
ce il
Ġw ife
Scal ar
h aps
L icense
$ &
ĠR ail
Ġnav bar
f b
Ġpres ident
Ġd st
Ġg old
TR AN
Ġrece iver
Ġmar ried
Ġal ert
Ġco inc
b undle
fore ach
ĠN av
Ġdisplay ed
Ign ore
Ġcont radi
are st
Ġoff ers
Ġre verse
ĠA ccess
g ather
long rightarrow
Compar ison
in ity
Ġmed ical
her ent
Ġconfig urations
Ġexpl ained
Ġimp lied
}$ }
Over view
F ix
Ġre peated
m apping
me asure
up per
sub string
requ ires
ĠE val
uff ix
STAT US
Ġe mit
Ġimport ance
are n
decl are
Ġ} ).
S pr
o pe
C trl
not ify
att ed
g z
ĠL ay
re ason
Ġpro tect
Ġan chor
pre vent
ĠAustral ian
} ",
rop ic
A E
Ġasymptot ic
ĠLo ad
ĠS uch
Ġser ve
ĠC loud
ĠB ecause
Ġcour t
p id
Ġproper ly
vart heta
K it
gra v
ge br
ĠRo yal
EV ENT
m iddle
ĠCont ent
Ġframe s
å ħ
Ġab und
es cape
RE CT
Ġphot on
Ġfeed back
ĠS al
Ġ ðŁ
Ġl ies
UM M
ĠB i
M ov
ĠCh ild
Ġco verage
X i
Ġstoch astic
CO MM
Ġs lice
Ġd ashed
ĠComp onent
D em
EX PORT
R T
avel ength
co untry
at ibility
M F
(" \
ĠDiv ision
: =\
> ()
ver ify
Ġsu c
A ctions
S em
ile vel
ob s
an alysis
Ġcomplet ion
Ġinitial ly
D ynamic
Ġatt ract
s hell
art esian
.* ;
ĠV ol
Ġen jo
L i
us r
gener ator
Ġc lip
Ġsh ock
st rip
Ã ¨
Ġw ire
Ġph oto
default s
ĠH en
)-- (
s amp
Ġliter al
Ġoriginal ly
c ible
cal cul
Diagnost ics
{ },
Ġf aster
198 8
ĠP lease
Ġsong s
R GB
Ġt it
Gener al
Ġrefer red
ph rase
Ġ' ''
Comp leted
c x
sl ider
Ġc ss
Ġh um
in x
ĠSt andard
RE D
in ations
Ġparent s
Ġapprox imate
Ġord ers
Ġd imensional
Ġhand ling
Ġtra ffic
ĠPh ys
Ġcandid ates
Per iod
h d
S V
bind ing
ĠTh read
ĠS am
ĠL u
Ge ometry
um ul
Ġexp anded
S F
ĠAfr ican
Aut hentication
ĠCl ub
y an
ĠG raph
T er
Ġs al
lib s
}} =
text ure
Ġtarget s
M ay
stand ing
Ġde m
ĠC ong
az ine
h u
D en
par k
p riv
Ġneighbor hood
Ġs ending
ĠN on
a ui
l int
ĠOr iginal
En coded
ĠT om
ĠW hether
trans late
ĠM iss
Form atter
ĠSm ith
bel ow
ĠC ase
ck er
Ca pture
ĠSup port
Pro totype
al so
Å ¡
ĠFor ce
ĠIn formation
ĠW IDTH
P G
Ġsub sequent
link s
Ġhapp ens
ig er
not ag
exec ution
Ä ±
Ġr ational
Q ual
Ġoutput s
phan tom
char acter
****** /
p ad
L ib
B uf
contin ue
^{ *
M ust
Ø ±
log ging
EN ABLE
Ġman ufact
be an
Pri ority
sc hed
jac ent
Exec utor
foot notes
h istory
r pc
Ġtrans actions
Û Į
Load ing
C la
ĠSt ar
elastic search
table block
Av ailable
H ence
ĠS pr
ro uter
ĠM odule
local host
X Y
on ed
T V
Ġweek s
Ġp seudo
ĠC OL
Ġs en
im a
Ġsupp lied
Ġal pha
Ġt uple
. ',
A lias
^* (
ĠL ibrary
Ġsim ultane
un s
O C
ER S
Ġw oman
ĠChrist ian
' d
Frame s
i em
pri se
comp ar
b ro
LA Y
ĠV irtual
ga in
ĠC lear
th ick
UE ST
ol f
Ġsuggest s
c n
A U
Ġgrav ity
\ /
E st
ĠPl an
Ġm anaged
ub ic
ang ian
ec es
][ ]{
%%%% %%%%
Ġsaf ety
Ġcop ies
V ec
ĠSer ial
et al
n ail
E P
Ġinit i
Ġs yn
m is
seg ment
== =
Output Stream
File Name
ĠOther wise
Ph one
} ~
ra ise
99 99
il bert
ĠH y
Ġturn s
Ġhel per
ĠM us
Ġa ria
E Y
gebr as
Ġst ress
ĠFr anc
Ġconvert ed
ĠRe ference
Dec imal
ĠĠĠĠĠĠĠĠĠĠĠĠĠĠĠĠĠĠĠĠĠĠĠĠĠĠĠĠĠĠĠĠ ĠĠĠĠĠ
Ġass uming
0000 0000
Ġch urch
se ll
Dep recated
ĠC urrent
pt ic
Pack et
An aly
iven ess
Ġaffect ed
f ragment
fa iled
HO UT
Ġpro pos
ID E
198 7
Ġdet ector
Ġ\ !
att ach
F ore
D r
Ġturn ed
Ġquant ities
iss ue
$ {\
ne ut
ĠÐ ²
IN VALID
Ġaccept ed
Ġbro ught
ĠJ ew
ĠM ad
Ġsymbol s
Ġprecise ly
Ġdec ided
Ġcollect ed
Ġsecond ary
Class Name
Ġg oto
redu ce
iz ers
med skip
rupt ed
ĠCar ol
. \\
Ġqu asi
S napshot
Ġro ll
lis her
Ã£ o
rt l
Ġmag net
RES ULT
cy cle
Ġregard ing
Ġhypot hesis
Ġtransition s
ĠO C
G a
ret ch
od d
Ġp ending
Ex port
Ġin ser
Ġ! !
r ish
Sche me
Ġg over
ffic ial
al ing
e a
Ġpub lish
Ġcover ed
lap sed
g overn
second ary
5 12
Ġdr ive
A I
Ġsp irit
gle w
Ġag ents
Ġs it
Or igin
label s
Ġappear ance
Ï Ħ
Ġdise ase
get Type
B ucket
O wner
Ġ( {\
Ġ{ %
Ġmin or
an notations
st age
ĠF ALSE
over flow
ĠK ore
E ar
RE SS
^* \
ell ing
Ġtrans mission
ĠF acebook
Ġflu id
ĠL and
De ep
Ġatt ached
un iform
AA AA
Ġsubst ant
( []
ill is
g if
ins ic
ĠIn valid
un tain
Ġdynam ical
Ġcomp liance
Ġpur poses
Ġ ill
Ġis omorphism
ĠĠĠĠĠĠĠĠ ĠĠĊ
l ab
ĠSc ott
ĠT own
me mbers
Ġinter mediate
text color
( ()
Ġs lo
ĠH as
Ġsol ar
Ù Ħ
ĠM AX
footnotes ize
Ġper mission
Ġdi ctionary
____ ____
}\ |
ĠĠĠĠĠĠĠĠĠĠĠĠĠĠĠĠĠĠĠĠĠĠĠĠĠĠĠĠĠĠĠĠ ĠĠĠĠ
cus sion
Sup er
k l
j d
Ġequ als
og onal
Control s
Ġar m
Ġprinc ipal
Ġthe ories
S m
ĠU RI
de legate
G IN
Ġwork ers
Pro c
ĠPro f
F amily
Ġ' ')
Ġposs ibly
fol io
ĠM il
ĠS ol
ĠDe bug
Ġexponent ial
is son
ĠJ ac
Ġlearn ed
Ð ¿
Ġred shift
Ġfem ale
ĠG ames
Ġm anner
Ġ$\ {\
back slash
up dated
Down load
g ems
is er
t z
Ġtre ated
Ġ} ),
50 9
Ġmix ing
] *
} >
medi um
Ġthrow n
**************************************************************** ********
equ ations
S elf
St ub
ĠWest ern
de sign
ag ger
amo unt
Lo aded
valu ation
add EventListener
ĠC amp
Ġfoc used
ht t
ict or
S he
Ġin struction
) *
h ot
M aster
Graph ics
depend ence
T ex
ĉ ĠĠĠĠĠĠĠĠĠĠĠĠ
ph oton
g ray
Sup pose
More over
filter s
au x
Sh arp
Ġt ables
ĠLog ger
ĠEar th
refer red
Ġmedi an
Ġsepar ated
Ġk illed
Code c
ĠIs ra
li ament
Ġtest ed
Mod ified
e per
Ġenter ed
Tr igger
CO M
ord ers
ys ql
p ragma
Ġe poch
is ot
__ ,
lement ed
urn ament
ĠDe ep
Re ason
war ded
Ġend s
( -\
Ġce lebr
Ġb ands
Ġrel ig
Ġsuggest ed
L IN
D ITION
D id
z oom
* }{
Ġdr ug
AP P
ĠSec urity
ĠT OP
Ġlook s
me tric
Ġc at
G ra
Ġact s
ĠR ender
Ġal one
Ġpar ame
Ġs ports
ĠVir gin
lement s
Ġw ild
ĠMin ister
Ġf riends
Ġcorre ction
": "
b re
ĠJap anese
P a
Ġan om
xy gen
pl ain
R UN
Ġeigen values
d anger
la in
ĠM O
Ġposs ibility
Can not
Ġextract ed
Ġperform ing
Ġchall enge
Ġmeet ing
Ġcom mut
writ ten
Ġc riteria
; |
du mp
ĠS end
run ner
Ġexplan ation
ash ion
198 6
un ched
ĠT YPE
ĠA uto
Match er
ay lor
an imate
at i
SOUR CE
Ġ Ñģ
ug ment
ixt ures
get String
w ik
ig ate
Ġmov ie
lic ated
P adding
co up
= &
M anagement
Ġcor ner
D one
Ġcheck s
ident ity
ĠG reat
Ġcoup le
Ġind ent
Ġconf idence
og en
ĠA uthor
Ġcost s
ĠM useum
Ġattack s
sh ire
sp her
ar se
Ġlow est
fact or
B ad
Ġsl ot
ĠCon sider
illi seconds
Ġequival ence
*} [
Ġen counter
ĠM ass
ad apter
Ġoper ating
iss ions
M LE
erm an
ĠO P
b us
Ġd ra
Ġthan k
d st
De v
ag ram
ĠCh annel
LO AD
Ġap ilevel
pro gram
Ġf ol
order ed
Ġdepend ency
ĠKing dom
List eners
* ,
Hash Map
ĠJ ose
Ġ\ ,\
L ines
In f
Ġin fra
Ġf older
lo okup
p ared
Ġra ised
Ġorient ation
T ok
. ;
Ġtop ology
Ġscen arios
ab ove
Ġtrack s
ĠI II
m ay
gr pc
Ġle aves
Mo unt
Ġbench mark
Ġsome one
Ġde leted
Ġat mo
ĠFr ank
Ġlist s
Ġh op
Work er
script style
b ench
Ġpost er
Ġinst itution
Ġcl s
clo sed
Un iform
ĠAcade my
A ccording
Ġ& #
dat etime
Ġar c
viron ments
C ity
ĠR untime
ta ke
ag netic
Ġopp osite
Ġfore ign
Ġdemonstr ate
Ġde but
aw a
Ġlang uages
ffff ff
198 4
CRE ATE
Ġreg ression
Path s
ens itive
Ġt sd
Ġcol span
Ġecon omic
p et
s core
Ġdisc r
TER N
ir ation
ĠB E
7 00
Ġc as
n ob
sup p
Ġcomp osed
Draw ing
Ġrecomm end
OL D
li e
P D
> `
ĠF lor
ĠVer ify
pay load
A zure
ĠD own
Pre vious
ĉĉ Ġ
re ject
MP L
ĠCol umn
ĠS SL
Dist ance
Ġcon vent
Ġcontrol led
198 5
he mat
en o
Ġcorre ctions
Ġapp lies
ĠH istor
Ġpro files
-------- --
me ter
p in
C CESS
Ġadopt ed
Ġ" #
p n
ĠS il
Ġlook up
B ased
OR K
Ġlist eners
Ġarray s
sur face
sd k
d ers
() `
Ġbelong s
Ġembed ded
> %
) (\
Ġde pict
est ing
Ġpro te
ĠCan adian
19 60
Ġ# {
ct ree
UMM ARY
Ġgover ning
ynam ics
Ġch ampion
Ġdevi ation
ent y
Ġquad ratic
g re
W in
B i
st or
Ġgo ogle
k ins
ĠImm utable
ĠArg ument
ĠChampion ship
__ .
Ġperturb ation
P ower
ĠS ymfony
ail ability
aw n
ĠDo uble
mark er
L ike
Ġdep loy
F ill
DE D
agr angian
Ġsco res
>< !--
__ ["
Ġc ivil
ic ago
Ġph ases
Ġ/* !<
L iteral
Col l
I p
ĠUn it
) ^\
periment al
ir ical
Ġl ives
pro c
Ġp p
Ġat oms
Ġsh ot
UR N
Ġre peat
U CT
Al ign
Ġv ec
ron ic
Î µ
ĠC ast
Ġneutr ino
Copy right
Ġm arg
ĠF ilter
frame s
ĠL icensed
Ġindic ated
Ġgo og
cor ollary
ibr aries
col l
Ġj et
f older
ed u
ĠM ov
Ġuser name
C UR
s z
Sub ject
t ract
Ġstrateg ies
ĠCh ange
Dis k
) }.
Ġwait ing
ĠWIT HOUT
Ġdesp ite
ig u
Ġs yntax
ĠB rown
ĠAl gorithm
MA GE
F P
' _{
Pro b
Ġra re
feature s
ater n
form er
Ġcl in
Ġ( %
Ġt ick
w iki
unn el
Vis ual
N umer
ĠGe V
dist ribution
T ick
is o
Exec ute
K e
get Message
ĠOb servable
Ġda ughter
Ġstate ments
Ġlo ader
P ut
Run ning
Ġh our
ĠSer vices
Ġdecl are
$. }
Con tain
0000 000
ä ½
Ġdis p
scal a
Function s
ĠM r
ĠM el
Ġtechn ical
U int
Ch anges
mat htt
ĠK EY
Ġpret ty
process or
M utable
F ake
Sup p
refer ences
BA SE
E lem
ĠC D
un known
Ġfluctu ations
Ġlo s
Ġ(! (
Ġc it
S UB
Ġnecess arily
Ġdecre ase
Ġa im
Ġcompet ition
Ġcoll ision
B us
d n
L R
S rc
N ONE
d m
at re
Ġpol icies
road cast
Ġrest riction
Ġconf irmed
Ġca uses
v ect
st rict
Ġsp ac
ol o
condition s
if ference
Ġt imer
Ġan notation
urren ce
J ohn
ĠSup pose
') ->
ound s
AR D
St at
part icle
ĠE ven
e ction
int s
1 12
T yp
Ġuint ptr
on omy
Ġproces sed
Ġsp ot
Ġexplo re
Ch o
Ġm or
Ġen cour
Wh ere
ri ses
}^ +
ge ometry
Ġpart ners
BU ILD
Ġke pt
ĠS W
Ġin strument
Ġat omic
Ġsens itive
al and
? ?
Î ¹
Ġredu ces
Ġt end
Ġc atalog
it ely
n m
int ro
Ġcent re
stro ke
ĠCom mission
Ġcommun ities
ĠM ont
}) (
Ġsup pose
Ġ" ${
IN IT
Ġw ish
ST ART
Mer ge
Ġex ceed
ites pace
M achine
Ġgravit ational
d ensity
ĠSh ort
st on
umn i
tr ansparent
Ġup load
Ð ·
W rap
Ġf if
Ġs ch
;| &
LA B
ĠAdd ress
re land
Ġdiv ision
p ur
ĠL java
Ġsche dule
Ġwork er
Ext ra
Ġside s
ĠThe ir
pre pare
ĠHig gs
Part ition
ĠB uilder
Ġcho ices
Rad ius
od ies
sub str
B est
Ġr ig
Ġres idual
Ġs old
K ernel
Ġv anish
Ġbe aut
ĠH ill
Ġpl ans
Met ric
Ġcondition al
ĠNS String
Ġpres er
Ġdire ctions
Mon itor
"> (
ĠLou is
C N
ĠFour ier
Ġde b
Ġpro totype
Ġm s
r ink
co st
Ġ" _
Ġtr unc
/ ******/
he ast
Ser vlet
Error Code
Ġemp has
Ġreturn ing
ĠC ath
ĠT ree
over ride
ĠL ast
æ ķ
f all
it ors
Ġdiv ided
Sec ret
ĠS yntax
ĠĠĠĠĠĠĠĠĠĠĠĠĠĠĠĠ ĠĠĠĠĊ
Ġ* ,
dat aset
Ġim m
spect or
r v
Ġlumin osity
Cont ract
ad oc
ĠExp ression
on a
co okie
Ġpolar ization
d ings
Ġn ested
Ġacc um
Ġnot ion
project s
Ġmark er
Cre ated
I ss
Ġuniform ly
Ġtemperature s
c v
Ġ ig
Ġread s
Ġbo ot
ro g
styles heets
a us
Ġint ended
path s
W ill
St yles
asket ball
pi pe
Ġre v
app ings
] ).
Ġqu arter
ĠT ABLE
cache d
ĠP ass
el come
D im
sy ch
ĠK IND
Ġph one
Ġ{ *}
ĠVAL IGN
Be en
r at
in variant
ĠU sed
Ġwide ly
ĠP eter
b ucket
Ġgr and
Ġ. =
S ide
ig an
Ġiter ations
t b
FA IL
sche me
ĠU k
H AL
Ġge ometric
Ġt err
Not es
UB LIC
Ġn arrow
Ġex pr
temp t
os is
ur t
Access or
sc an
Co okie
ĠL com
Ġf light
ouse l
= #
RE T
b uilt
vel ope
ke ep
time line
Ġseg ments
ĠS UMMARY
place holder
if er
] =
Ġs parse
Ġun iversal
Qu ant
h ow
ter rit
go od
11 1
Model s
ĠG en
Up per
process ing
Ġ utils
Ġb ucket
ĠT ool
| $
ĠTe am
Ġcoup led
ĠL os
ĠP si
Ġsol ving
Set up
... )
Ġapp arent
ĠChar les
st e
In to
so ck
Ġsort ed
ĠW ill
ĠGovern ment
B M
ĠD IS
on o
initial ize
I ME
Com b
Ġtemp oral
z il
ĠST ART
ii i
Ġart ist
Ġred irect
_ [
Ġ' </
AT URE
Ġext ent
ĠR ussia
ĠRe al
scri ber
' },
Ġsc an
alle st
ĠGL int
br and
O W
ar ity
Ġlist ing
ĠGu ide
ĠRec ords
ĠSh ould
md c
ĠM P
Ġrandom ly
Ġst ock
ĠD CHECK
var s
ÑĢ Ðµ
Ġveh icle
Ġuncertaint ies
text sf
Pl ace
(" .
Ð° ÑĤ
L ite
Ġfo unded
B reak
Ġis su
Ġin ference
ĠSpec ial
T X
ext ends
ĠTR UE
ĠP an
ac o
Ġemploy ed
Ġf av
Com mit
Ġgo als
DE LETE
Ġimpro vement
Ġretr ieve
Ġbro ken
Ġinv oked
Act iv
Al gorithm
Ġeffect ively
198 3
ss ible
Ġgrow ing
ĠB ank
ä º
Ġinvol ving
< >();
Ġat om
Z oom
ĠN ull
19 2
)} (\
Ġ" )
Ġcharg ed
HO ME
ĠS N
Ġover lap
roll ers
Ġfrequ encies
ĠOff ice
ir us
IC ATION
String Builder
U V
ap l
ĠAct ive
c assandra
ĠS Y
hent ic
pe ople
in os
Ġpower ful
ĠK n
Ab out
ĠEn ter
Ġexpect ation
Ġform ulation
Rece ived
Ġide as
è ¿
Ġnot ification
Ġn a
Ġto String
Ġact or
t ol
Ġnew ly
l am
ra ble
ĠP ower
ul ing
Ġs v
Ġcom mercial
ĠInitial ize
Valid ate
stack rel
Pr imary
Cal endar
ĠM IT
Ġvary ing
territ ory
et ic
Al pha
sol r
ĠĠĠĠĠ Ċ
h fill
ĠAn n
help ers
Serial ization
` )
Ù Ĩ
Ġart ists
opt im
Ġvari ant
| ^{
l ar
Ġad vers
ĠB ill
ĠC P
Ġm ission
Ġvac uum
he x
ĠGr and
as ion
ĠP FNGL
ide os
U Int
qu id
L D
() [
O FF
red irect
tom ic
ĠBo ard
ĠAd min
p ite
value Of
ĠA ust
ut ors
Ġsur round
ĠL ake
Ġintegr ated
\| _
x sd
Ġel imin
b one
lear ning
Co in
irc raft
ĠR ock
Ġrestrict ed
Ġcharacter istics
Ġconduct ed
ĠY oung
ĠE ducation
C ref
P resent
gener ic
Ġspec ifically
ĠĠĠĠĠĠĠĠĠĠĠĠĠĠĠĠĠĠĠĠĠĠĠĠĠĠĠĠĠĠĠĠ ĠĠĠĠĠĠ
Ġro ut
Fe ed
Dest roy
Ġor ig
D uring
og gle
Ġsm art
task s
Pop up
Ġv acc
B I
Ġenh ance
> $
Ġd s
D TD
Ġto ward
Ġassign ment
and a
" ])
Ġfor ced
,... ,
Ġt s
mid rule
Ġr anges
Menu Item
ĠIt em
ĉĉĉĉĉĉĉĉ ĉĉĉ
Ġs cheduler
Ġinitial ized
Ġlink ed
ĠÐ ½
ext ract
left arrow
mu x
ĠIt alian
over set
Ġinteg ers
Ġ\ |\
produ ction
ur er
Ġman ifest
ĠM anagement
Ġsens itivity
ĠN E
ĠLang uage
cknowled g
Ġco ach
ab y
ap h
U A
Ġs napshot
L at
ĠCo q
un lock
Ä į
G P
. ');
C V
Second s
end point
Ġb old
Ġmodel ing
Ġtw ice
alt Color
ĠN a
to ctree
Cont in
math it
j ackson
j sp
Comp are
ĠCo unt
me tic
SP ACE
Ġper mut
th ree
ul y
ĠC F
Ġstrict ly
sp lice
le e
W ARE
P ush
}. }
De coder
k ubernetes
est ure
ĠT oken
od o
on om
ĠRe port
Ġelect ed
ĠPar is
ec ycle
pag ination
cc c
Ġsh adow
\! \
ĠI ll
Ġcli ents
ore s
ex clude
hel lo
$ ^
Ġde du
ĠT imes
am ous
G ui
Ġprint f
we ek
Ġw avelength
Fact or
ĠCommit tee
n ol
Ġweight ed
Ġwh om
He alth
Ġsepar ation
n el
ion e
Ġle aving
Ġle ague
Data Type
lement ary
N d
h al
Ġv ote
spe ed
Ġl ie
ĠJo urnal
grad le
ct rl
ĠHe ad
ĠC ho
ĠRich ard
ĠS ocial
ition ally
ust ain
gu ide
& =\
A K
arch ive
ĠS af
ref lect
Ġmay be
Test ing
T y
Ass ign
Ġprodu ces
c raft
Dis abled
ĠCon sole
P red
ĠJava Script
Ġs in
Sup press
"/ ></
Status Code
Ġinterpret ation
ME SS
Ġst ories
n l
Ġb re
ĠIn ternal
lin ux
Ġsk y
Ġcopy right
Pl ot
SP AN
Ġag ree
ject ure
C orre
ĠB ob
Ġfit ting
s ym
Ġm ath
ĠO ptions
Ġeffort s
Ġspe ak
è ¯
ri ent
Ġspe ech
Ġa apt
B ACK
Tool s
l ator
198 2
Ġessential ly
ĠL y
ĠH aw
bold math
{ (\
ĠTr ump
Ġsay ing
ĠE lect
b x
Ġset Timeout
ĠDe velopment
Ġsum mer
down arrow
ear ning
Ġlo cale
ab stract
g p
redu cible
to Equal
ig gers
Ġcr yst
con current
Ġ-- ></
ĠG ood
w ater
id en
r ical
nt il
Ġst roke
Ġin come
mer ce
C ertificate
Ġdef ining
ĠMethod s
13 0
Ġsim ulated
100 00
ĠW rit
per cent
Ġstraight forward
prevent Default
Ġis instance
Ġdraw n
! =
arg v
Ġt ang
ĠDes ign
$ '
ĠS pe
get Class
Ġwhen ever
ĠE mber
Ġf irm
Ġrecon struction
ut ch
F etch
ĠA li
ĠL I
x ff
â Ķ
ĠB usiness
Ä ģ
Sh adow
AR GET
Set s
v ements
Ġopportun ity
Type Def
Ġut ility
sp i
Ġser ious
Array s
Ph aser
Ġst ations
PAR AM
f loor
Ġre action
de scribe
rg b
Ġcol lapse
] ),
ut s
File Path
ĠD ig
onal d
SS ION
li des
n os
P lease
As set
up arrow
Rel ative
S lice
d ating
link ed
con figure
Ġvo cal
Comp letion
/ )
Ho ok
sh a
Ex it
ec lipse
us al
Ġse a
ce an
ĠS P
Ġcomp ile
Trans fer
p al
Ġcommon ly
s amples
rib uted
}{ {\
ĠIllegal ArgumentException
H AS
}^{ +
Ġn om
ĠTw itter
ic ular
Ġch ance
Ġdo mains
Ġca ref
am in
Hel lo
Ġfe e
Bit map
Ġbuild ings
Int eg
Ġr ich
TH ER
Ġcrit ic
P DF
B ER
f ac
ME M
w as
Ġadd r
] ['
Sh ift
let es
Ġp ref
ĠPr int
ish ing
ĠInst ead
v b
An chor
vers ions
R S
im ately
{ |
late st
amazon aws
ĠW omen
over lay
Ġtr im
mult line
ack s
Des ign
Event Args
+ "
dis k
Con s
ic ed
me trics
Ġv oice
Ġdec or
P icker
ĠF ILE
Ġr u
set ting
Ġs phere
az ure
ĠE RR
: /
Ġrece iving
ĠGe org
Back end
Ġc ri
th rough
atur ally
Ġa udi
Ġvers us
Ġenjo y
an es
Ġ\ [
ĠM any
Su ite
Ġchalleng es
govern or
G RO
ĠE m
ind ices
Ġfil led
ĠA D
ĠCl asses
D ict
Ġen ded
Ġs ender
Ġproport ional
H ave
text area
contain ers
Al ert
d ays
Ġ ing
Î ½
ĠK ar
Ġcol lege
View Controller
Ġf ul
con duct
Ġab ort
> ${
Constraint s
vent ory
ĠDate Time
Ġparse Int
Ġmov es
Ġs y
c la
C ulture
ĠZe aland
[ ]{
Ġsub scription
Ġcons isting
Ġre member
Ġtri al
A MP
ĠFe ature
chart s
Ġprogra mming
Ġvis ibility
Or iginal
~ (\
i able
S afe
ĠO h
text up
Ġsur faces
Ġi i
Ġanaly tic
Ġunder st
ĠB asic
Table Row
ĠAre a
Ġpers pective
ad y
Ġt f
P ane
çĶ ¨
Ge V
% )
Def ined
Ġ" );
D er
ar ial
å Ĭ
Pro du
at able
Ġm ur
sign al
_{ +
Ġ" ;
CD ATA
ĠV an
ex cept
U ses
pear ance
Ġhe x
=\ {
P ending
mb ed
} ],
Ġth ous
Ġbenef it
Ġd ensities
Ġdiff usion
197 9
depend encies
i Ã³n
et c
Ġis ot
(" ./
F ixture
! </
Al though
With out
Ġdist ances
ĠS ty
H AND
sche mas
Ġgener ates
ĠS ize
N ON
Ġs pl
N eg
Ñ ĸ
ac er
ar ian
Re place
Ġadd s
Ġa ux
S core
y er
S eq
Ġa li
aw esome
ĠPol icy
Ġrequire ment
Ġun iqu
Ġla unched
Ġaspect s
Ġvari ations
r atio
Ġfind s
å ¤
Ġtrack ing
render er
Ġsche mes
ĠG rid
Sl ot
00 2
not ification
flu id
pri ority
{ })
Ġmolec ular
ĠSec ret
n c
R B
M ag
ind u
The y
ancell ationToken
en ance
part y
ĠS aint
ĠS i
an ches
ĠR ow
Ġpract ical
Ġbreak ing
Ġanaly ze
Ġderiv atives
Ġdecre ases
r and
ĠP erson
T M
Ġh alo
t uple
cept or
N ECT
st ri
ĠGL enum
R atio
it an
Mix in
re verse
Do ctrine
Ġfore st
U AL
button s
ub b
ent ries
ĠF re
Ġa cade
ĠS und
t ick
Ġincre ment
Ġsupp ly
Ġconj ug
Ġr c
Ġcapture d
Ġact ing
F oo
Ġ$ ^{
Ġadv ance
ĠD M
3 60
> [
Ġcom m
ul ating
inner HTML
ĠTechn ology
in vert
ĠCh icago
inst ein
in verse
Ġfig ures
comp act
ĠFlor ida
ĠUS A
ĠT er
CH AN
Ù ħ
ad ded
ĠDirect or
inc ipal
$ ^{
Ġb ur
eng er
s ources
Ġad jacent
ĠI reland
! "
? (
Ġlo gin
Ġbro ther
Ġd y
db c
Se parator
Ġdescri bing
Ġcell padding
E LEMENT
A nother
Block s
Ġend if
ĠA ws
ĠĠĠĠĠĠĠĠĠĠĠĠĠĠĠĠĠĠĠĠĠĠĠĠĠĠĠĠĠĠĠĠ ĠĠĠĠĠĠĠĠĠĠĠĠĠĠĠĠĠĠĠ
Ġth reat
ĠS C
ho le
Ġdemonstr ated
IN DEX
be ans
Ġcomp ression
$\ \
rint f
Ġpanel s
B LOCK
Ġ ray
sh arp
Track er
Ġref lection
Ġcon clusion
Co untry
Ġsem antic
se parator
Part s
################ ################
S PE
ian a
198 1
Ġtraject ory
A VE
O ld
it Hub
Ġextreme ly
h ang
mut ex
man ifest
w allet
ĠN ative
Ġman ip
ĠB AS
Ġin form
reate st
c lock
Ġmo ments
Ġ' )
Ġevery one
Ġdecl ared
Ġ' [
st eps
10 2
Ġpre par
COUN T
F ac
Ġconfigure d
mult iple
TO M
Ġaut hentication
Ġhard ware
Ġelectron s
Ġalign ment
ĠVirgin ia
Ġdiscover ed
ĠRe view
Ġme sh
s olution
Ġth in
T ensor
Ġadv anced
Ġad vert
ant ly
Ġrespon ses
script s
f aster
ĠO ld
Ġappoint ed
ĠC ross
Ext ract
Ġ" [
P ress
Name Link
tra in
Ġrema ined
g lob
at om
new line
Ġsh oot
er g
reg ex
Oper ations
ĠC ard
Q t
pro pto
Ġalbum s
code c
ĠParameter s
Co ord
We ek
Ġsec ure
cp u
}[ !
ĠSp anish
d imension
Ġorder ing
C r
Ġ// !
and box
Ġm m
ell er
Ġwin ning
ĠL ee
Ġjob s
ĠT ry
}{ *}{
ĠRec ord
Ġ& $
h alf
Ġsimilar ity
ĠE ner
reg istry
Ġpolynomial s
Ġ\ {\
Ġcon d
ĠSp ace
ge les
-- ;
C lean
Ġeas ier
T ry
small skip
Ġgu itar
Ġim mediate
Ġpotential ly
Ġpl as
Ġp in
serv ative
ic ations
ĠE very
ak a
'] ))
ynchron ous
REQ UEST
Ġcorre lations
c u
Ġcl imate
Ġorbit al
Ġassoci ation
TEXT URE
ĠA cc
Ġreject ed
il ine
br anch
d v
Ġo il
Ġinterval s
com mun
ande mic
Ġto t
Struct ure
ĠM atrix
Ġen coder
In struction
f ort
S ol
Ġ _{\
Ġcompar ing
Dis posable
Ġro les
inet ic
Ġcon sumer
St d
serv let
ĠI F
ĠA nother
-------------------------------- ----------------
ol ate
Ġdiag rams
google apis
ĠHash Map
ĠĠĠĠĠĠĠĠĠĠĠĠĠĠĠĠĠĠĠĠĠĠĠĠĠĠĠĠĠĠĠĠ ĠĠĠĠĠĠĠĠ
ĠSum mer
' =
Ġcon tribute
ĠL agrangian
Ġ ice
S UP
ĠPro p
Ġw arn
Ġtrans verse
Ġdriv ing
ĠCon structor
Ġle af
node Name
ĠS ymbol
} /\
Ġa ware
ick y
Ġpack ages
inv oke
ĠS U
] </
Ġtr ansp
40 4
the less
Ġsimilar ly
EE E
s ame
Ġin clusion
ps line
Ġorth ogonal
Ä ĩ
I SE
Top ic
ĠCong ress
Ġqu ot
Ï ĥ
ov ed
$- $
Ġref resh
En tries
d riv
ic ing
Ġ[ {
Ġfl ush
Ġrob ot
OB JECT
hy per
Det ector
Ġc fg
ac ific
Ġb attle
Mod ifier
Ġreve aled
Ġhom ogeneous
or i
App ly
run ning
az z
Ġbr and
L T
ĠSim ilarly
Ġs an
ĠAt tribute
[ _
Ġb udget
ĠPe ople
Ġtransform ations
Ġm ach
ĠS l
ct ors
Ġf arm
S heet
g luon
Ġpe er
Ġcheck ing
ĠV ictor
ĠUn less
c ient
Ġh or
! (
NG TH
Ġx hr
prob lem
Mod ules
ph y
st ub
to kens
b est
ud it
ĠB ur
}{ }
ĠRout e
Mult iple
ume d
Ġent ang
=" {{
ĠM ur
//////////////////////////////// ////////////////////////////////
Comp onents
ul p
Ġt ile
Ġreplac ement
Ġbound aries
ch anges
SER VER
]( #
Ġcontinu um
Ġho ok
Ġcell spacing
com ments
Ġg it
bin om
Ġelectron ic
ĠOn ce
Ġalgebra ic
Ġnumer ous
Ġport ion
Ġdiagn ost
Ġent ities
> ';
ĠIn it
" ?>
Ġrender ed
Ġabsor ption
Ġcla ims
ress ions
Cred entials
Ġl abor
text normal
Ġrecogn ition
Ġm un
Ġabs ence
C MD
/ #
Up dated
Ġinter ior
Ġro ots
l r
Ġcon cat
* >(
ĠMart in
æ ĺ
define Property
res olution
IT LE
scri ptions
dic ated
Ġde code
ĠE con
Ġprodu cer
ĠEqu ation
Ġint ent
ch rome
atter y
Tag Name
Ġartic les
Ġk w
ĠCor ollary
Ġpre dicate
Ġcount s
Ġhel ps
se par
Ġreason able
\ }.
ens ors
param ref
us hed
app le
in cluding
Ġorgan ized
Ġt urb
uc lide
C ss
Ġdirect ive
ĠH ot
Ġinvest igation
H y
get s
st ic
14 0
est er
MA SK
Ġcallback s
Ġinc ident
Ġrespect ive
SU CCESS
ĠC A
Ġh orizon
Ġremo ves
m ust
Ġdefer red
Ġp al
ĠM C
S printf
f av
ĠM ember
hemat ical
Key word
ard en
>( <
Ġc ert
de scriptor
Ġin correct
Ġref ers
mar shal
ĠG ET
ĠC ache
Ġa ward
ĠAn geles
Ġhand lers
Ġm al
Nd Ex
Ġal ter
10 5
ang les
g ov
ĠEn vironment
string ify
b at
ĠT our
s ip
us age
DE C
Ġterm inal
t v
l ined
ellig ence
Ġpre pare
Ġf ederal
rot ate
ap ed
Ġpropag ation
ut ter
ri age
Ġpar a
Ang le
Ġcomp ilation
comp ress
ut ation
{ .
Pay load
iem ann
ri ctions
Ġneut ron
Ġ Å
AB ILITY
Ġrat ios
F IL
l b
g iven
Ġhand led
c as
ĠMex ico
Ġig et
V O
ĠIt aly
FT WARE
Ret ry
enc ing
ĠD A
Ġlik elihood
h olds
Ġrecomm ended
ĠO k
ĠĠĠĠ čĊ
Ġz oom
Ġbe coming
ĠDe v
ĠC C
Ġclo sure
include s
O cc
pack ages
Ġin vert
Ġprefer red
}) ^{
ortun ately
ĠC NN
alle y
Po jo
Ġreg istry
Ġsystem atic
table s
197 8
fil led
RO OT
Ġinvestig ated
phys ical
Ġindu st
l ive
ac on
Pro pag
Ġsegment ation
ĠArt s
\ },
ĠFoot ball
Ġb lood
vers al
O k
dir name
i y
ĠBl ue
uclide an
Ġcluster ing
erm i
Ġen vironments
rows ers
Ġf loor
ma j
Ġsol ved
C amera
b an
re hen
Ġ ~\
bo unded
ĠSto re
Ġcru cial
se cret
ĉĉ čĊ
ch er
ok es
197 6
al ty
sol id
S ig
Ġw ants
B bb
Ġn ation
II I
& &\
leg end
Ġperform s
est im
Ġhistor ical
get Time
if rame
and o
String s
ĠW HERE
node Type
ĠFil m
std err
ĠW ay
Ġpart ner
Un ique
Ġin nov
In ject
A m
T IM
Ġs lide
Re q
ĠM ajor
Ġfeature d
Ġs ensor
Ġnot es
Ġe arn
Ġsent ence
ĠC S
ĠF ire
last ic
Ph ase
set Text
ate st
ĠP rivate
( `
part ition
Ġpol l
ĠCON DITION
Ġ} ));
Ġth er
pack et
] ];
Ġinitial ization
ane ous
S ources
ST M
ĠCh rome
ordin ates
m icrosoft
Ġf ra
Ġpriv acy
Ġf ru
ĠGener ated
. ")
}} ,\
: %
m ms
Ġdiv is
Ġrepresent ative
ĠAl low
Res pon
ĠResult s
rom agnetic
id i
Ġdam age
Ġsub mit
ev t
C ross
10 4
Ġpl anning
ĠT re
Ï ģ
Ġ! (
Ġex cess
PRE FIX
Write Line
Ġre construct
Ġlocal ized
Ġclose ly
}) =\
Ġsimultane ously
ĠR am
Ġcirc uit
Ġde dicated
ĠM A
> .</
ĠType Error
ĠDef ine
ell a
Ġa ugment
the ad
Ġcirc um
Ġb lob
Ġestim ator
æ Ī
Ġw rapped
Ġtri ed
Elements By
R ob
ĉ ĠĠĠĠĠĠĠĠĠ
Ġann ual
ADD ING
IC Ag
E mitter
def n
Ġpart ially
ĠC y
Ġcontin ues
Na N
Ġt ight
\ [\
Ex cel
Sub scription
Ġl aser
bar s
MESS AGE
Check ed
Mod al
Ġop in
> {
ĠApp le
s With
ĠM S
ĠP ut
Ġinter view
allow ed
ip ient
Ġr an
Link ed
Ġposter ior
Ġrest ore
W ORK
atur day
Ġcred it
form ing
w an
ion ic
Ġ" ./
Ġflow s
ĠSw ed
P ipeline
19 50
Str ip
An notations
ab et
Ġsub space
Ġsm allest
Ġcirc ular
ĠE C
Ø ¯
ĠC HE
ĠString Builder
ĠJ e
Ġpart ies
prec ision
Ass ignment
ap ps
ĠD eta
Cal led
ĠB re
rid ay
R M
ĠF I
197 7
Ġpercent age
Ġlaw s
du al
sl ot
Int ent
em y
Ġdomin ant
f our
oc key
sche dule
und les
ĠEner gy
, "./
Ġb ridge
Ġco okie
Ġrough ly
Ġcustom er
Al so
Ġintrodu ction
re ci
os oph
M ail
ĠEnt ity
Vis itor
ĠU SE
Ġsimp licity
b oth
s en
App Compat
with out
ĠBAS IS
Ġir reducible
ĠPro perties
i ate
| _
iv ari
" }
] ^
V D
ip art
ĠF i
ant ics
ĉ ĠĠĠĠĠĠĠĠĠĠĠĠĠĠĠĠĠĠĠ
t re
c aret
OR S
() ">
Ġs ales
ĠA P
Ġpay ment
) _{\
. (
unit Pattern
Ġb illion
Ġoffer ed
ĠP M
F i
FR AME
ĠCor por
âĶ Ģ
ĠCONDITION S
ĠI gn
Ã ¢
Ġv ort
In line
Ġat trib
j k
ust ed
Ġcustom ers
respon sive
Ġp il
A nt
ian o
if ul
f un
In clude
tain ment
to ur
Ġreg ex
r ated
ĠĠĠĠĠĠĠĠĠĠĠĠĠĠĠĠĠĠĠĠĠĠĠĠĠĠĠĠĠĠĠĠ ĠĠĠĠĠĠĠĠĠ
g c
Ġ$ ('#
Ġd aily
Ġclo ser
Th reshold
Ġillustr ated
File System
Ġpro tection
> /
ver al
d td
shall er
ĠCath olic
Ġout line
Ġf an
FORM AT
ĠD raw
ont able
Get ter
var rho
nof rame
faster xml
valu ed
Ref lection
Ġs ociety
get Text
Ġident ification
v et
MLE lement
Ġw it
R IGHT
.... ....
Ġcharacter ized
Ġw at
Ġattemp ts
Ġm apped
S co
Ġ" +
ĠF ore
N I
Ġr s
M IT
Ġp apers
Ġdisp ersion
Ġorgan izations
Ġf elt
Ġrect angle
Ġinvol ves
r n
ili ary
sh op
Ġc ertificate
Ġbenef its
K n
19 75
qu al
Ġprob abilities
Ġwindow s
Ġ( `
Ġatt ach
ĠÐ ´
) }$.
Ġpres ents
ish op
ĠOper ation
Ġis land
l m
se ed
B el
size i
control s
Pro position
Ġth r
ĉĉĉĉĉ Ċ
non atomic
sub equations
Ġf re
H om
Ðµ ÑĤ
x f
Ġlead ers
aa aa
ĠB al
e ed
B ridge
OT TOM
ight arrow
Ġph il
Ġcla imed
14 4
H D
S VG
f uture
ĠGener ate
oci ated
ac ement
ĠJ ob
SP AC
Data Source
C s
Ġf its
le ave
es ides
re lation
ĠW al
\ }_{
1 18
Ġcar bon
Ġp m
Ġcan cer
ĠCar lo
Rece ive
Ġex clude
Ġen ables
Ġprim arily
i per
Ġiter ate
197 2
G ateway
Ġremo ving
leq slant
Ġ} {\
big cup
ĠT EST
pre view
× ķ
Ġown ed
In spector
Big g
Ġa ircraft
lu a
ĠC ur
H L
de veloper
Ġs leep
r ick
ul ner
ĠB ad
` :
G LA
v able
197 4
P ages
p le
vis or
F oot
ĠCarol ina
sw ing
L arge
Per cent
ĠReg ion
ĠB ol
Ġpar sing
F ace
Ġbeg ins
æķ °
et ing
ĠS ta
ĠE st
N P
Found ation
at iv
cy c
at ile
Ġn ine
en vironment
ad or
S ing
li z
Ġcon sec
Ġval u
in dependent
Ġconven ient
Ġf ib
Ġcoun ty
il a
Ref resh
F at
Ġg ather
H idden
For ward
block s
ĠM atch
temp orary
Ġf abric
ĠF estival
o y
WR ITE
UM ENT
ver bose
Ġre ward
ĠH am
ĠIn ternet
Ġcons istency
Ġ* */
Ġl ens
En coder
ĠCon struct
Ġh r
LE NGTH
Pers istent
Ġin structions
Ġh uge
Fil ename
B D
n am
Ġc ities
Sur face
ĠE v
in ator
D on
ĠS em
&= &\
1 16
Ġpat ient
am ond
ra ine
Ġst udio
ĠOC aml
Ġw ood
Ġtemp orary
Ġh us
ĠEn able
Ġun iverse
ĠAd ded
Ġn aturally
Gener ate
ĠHen ry
, (
ĠMult i
) }$,
res olved
Rout er
l ife
at ype
Ġco ast
A li
Ġfe as
PROP ERT
di ction
ĠM L
Ġthan ks
Ġmod ification
ret val
m atic
Ġ{ $\
t age
ex isting
p ipeline
ong s
ĠJ ones
new s
Ġs un
Ġindu ction
S ta
Ñ Ĩ
Ġentire ly
Ġr hs
Ġper haps
st ud
' ):
Ġfunction ality
dom in
ĠDat abase
Ġhelp ed
Ġdro pped
Ġde precated
d on
sched uler
is Function
b etween
ĠB ORDER
Ġf ashion
at ivity
Ġstore s
Red u
H ide
ĠImp ort
list eners
Be havior
Ġm anag
p d
* \
in to
Ġe le
ĠH uman
Ġsco ped
tra ining
Ġdesc ent
LO B
Ġrender er
Pe er
U C
ĠU P
Ġ' {
OPT ION
Ġnear by
sub scription
W H
MS G
ty p
ces sed
Ġad apter
Table s
tr ightarrow
Ġhy brid
pr ice
Ġpr imitive
197 3
D MA
s yn
ĠS ET
Un expected
Ġnormal ization
Ġgen us
ĠWe ek
de termin
Ġaccount s
: &
Ġm it
% "><
Ġpre m
ĠF act
Ġal umni
(' ../
Ġ< ?
}$ \
Stack Trace
è ®
ĠRequ ired
Ġmer ged
Ġspec ifies
St age
S can
im inal
LE V
Ġ(! $
urn ey
Ġretr ie
Ġstation ary
Ġc c
do or
urb an
Ġco variance
ĠReg Exp
Ġa w
W arnings
ĠC PU
Ġpro be
CR IPT
ĠL ove
Ġcol on
sp ark
Ġrender ing
Ġpro position
vis it
Ġeigen value
Ġst uff
a ug
cs v
Ġs ynthetic
ĠJ un
Ġl abeled
Ġimp ly
Ġc old
de mo
ith metic
vari ables
U sed
GL enum
Co uld
Ġconcent ration
Ġrelations hips
Ġreson ance
Ġf ans
se x
code s
ĠÐ º
z o
m ime
gan ization
Ġcol our
M AN
ĠH on
Ġguarant ee
P FNGL
Ġg uest
Com mun
Ġemp irical
Ġthread s
ĠTH IS
id ential
Ġdomin ated
M illis
\ -
en ario
i ant
Ġinter sect
Ġpi eces
ĠM en
ĠW ood
Ġrep ly
m r
Ġad ult
ĠA wards
ĠCHE CK
Ġte le
Ġme ant
STR UCT
M ost
$\ ,
Ġinter rupt
Ġdetermin es
j q
AS C
Ġtri angle
er os
Ð¾Ð »
Ġgener ators
Ġan ce
Ġp andemic
ĠA rab
ĠI V
c py
J s
K S
or ough
co pic
Ġunderst ood
ĠAss ume
ĠX ml
Ġp an
Ġ} .
el ian
Ġman age
Ġb on
Ġf iber
miss ing
ĠPro b
ĠE D
ĠF uture
imp lementation
ĠR ange
to c
p ick
Ġj av
state ment
ch at
B ro
Ġcover ing
ag greg
Ġadmin istr
Ġge odes
Ġreco very
Ġparticip ants
T oggle
c are
P aint
Ġwas n
EN CE
Ġphot ons
decor ation
Ġcharg es
Ġgeneral ization
^+ $
ĠH ilbert
Ap J
Ġsee k
window s
Ġpro ton
itect ure
f requency
Ġ# #
ca des
24 0
ĠD er
Spe ed
Ġdiscr imin
ĠSO FTWARE
Ġen semble
Ġpro min
Ġsat ell
in ction
Ġw x
ĠT aylor
ĠCon nect
Ġleg end
ĠForm at
ĠM iddle
? "
ĠPro duct
nol imits
Ġlog arith
Ġhand les
Ġhand s
Ġ= ================================================================
w alk
st ion
IE W
ead y
Ġb ill
ĠPub lished
ÑĢ Ð¸
ĠR ight
ĠSc ot
Ġ======= =
ĠT ab
Ġ\ }
ĠCon tainer
=" '
Ġre tain
Ġs i
Ġho spital
F IN
or ig
Ġcomp licated
Ġneut ral
respon d
ĠJose ph
Ġe ye
valid ator
ĠRes pon
Ġstrong er
ĠCent re
Ġdep loyment
Ġmechan isms
ĠCon f
Bl ack
Ġdistingu ish
Ġto urnament
numer ic
char At
View s
vis ibility
Ġg lyph
Ġp aid
att en
mod ified
ĠR andom
Ġex cell
Ġsuff ix
Trans lation
o on
Re call
yl van
Ã ¸
oss ible
ĠW alk
. ";
Ġch ief
ĠR ights
Eng lish
LO AT
Ġsche duled
Ġex ceptions
Over lay
not in
andid ate
Ġp owers
ĠJ im
ĠS ar
ĠNO TE
ĠAd v
as p
ref ox
ĠL ight
Spec ial
5 000
} ~\
Rep ly
Ġcit iz
or row
/ '
Ġsub section
Ġkeep ing
Ġre try
Ear ly
Ġto ggle
Ġcompar able
scri bed
B F
ĠDis play
am ber
Meta Data
Ġ å
v ation
(" <
mark s
let ter
Text View
d ashed
Ġv on
Ġveh icles
() ]
Ġed ition
inter pret
Ġacc ret
_{ [
({ },
Ġsh arp
Im ages
Ġmac ro
For ce
123 45
dest ination
D ot
> ');
Ġinst anti
RE AM
Ġcosm ological
fin ish
? âĢĿ
her its
ĠF ixed
P res
Request s
Ġhe av
55 5
Ġsepar ately
Ġlarg ely
nob r
ĠCEL L
Ġa warded
Ġes cap
Ġdevelop ing
Ġl ift
Filter s
en ant
B T
Des cribe
Ġc ubic
SPAC ING
Ġin herited
Ġreplac ing
V C
Ġan isot
Ġconver ges
BY TE
ĠDi ctionary
ĠIsra el
u j
Ġw arm
Ù Ī
Ġal location
11 11
S ent
ĠV ideo
ĠDe vice
Ġang les
Block ly
is y
Ġ" ")
ãģ ®
D a
ĠD S
ous ing
="@ +
Res ize
ĠP UBLIC
19 68
or er
Ġchalleng ing
Back up
D imension
} <
ĠF und
s ender
Ġc av
Ġp urs
ĠWil son
ĠEx pect
FUN CTION
Ġsco red
op am
cons istent
z ier
Record s
type param
S ink
s izing
Hand lers
Ġp asses
Ġcomb ine
ĠOlymp ics
I BU
Ġsupport ing
T ip
ĠÐ ¸
ex act
ĠA M
Ġb log
ĠN othing
TableRow Color
on to
---- ---
ĠF rame
ĠCon nection
m any
p ref
Vari ant
iz ard
Rel ated
corre spon
Cl one
ĠA WS
ĠA uth
Ġbound ing
F urthermore
Al t
S ibling
or ange
ĠBra zil
Ġ/ ><
n pm
sw ap
Ġp or
ca pture
H orizontal
Ġd og
lo ok
Th an
Ġconvent ional
ĠN ever
ĠMon te
) '
Ġc riterion
Ġso ck
Ġa head
f v
G A
ip les
Ã ¥
ĠQ String
AME TER
Ġf resh
ĠL abel
le f
ĠJ ack
O RE
Ġactiv ation
Ġst abil
size of
un a
Dest ination
St ar
Ġins pect
Ġli quid
Ä ĥ
Ġbl ank
te am
back end
Ġdecre asing
fail ure
ĠF loat
ĠCommun ity
ĠB et
Ġfootball ers
o e
v dots
ĠEq s
Ġcoll isions
Ġse ss
U ntil
r x
Ġdis covery
ĠE N
le af
Ġnot ify
M AC
Ġdestroy ed
ro tt
mon d
Ġc p
mm ar
Ã ±
Java Script
) ?
ĠW ord
') ).
SH A
Ġrecord ing
Ġdef ect
is a
Ġch apter
ĠW ed
Ġperiod s
Ġqu as
ICAg ICAg
b ell
Ġwon der
java x
Ġinterpre ted
small matrix
ĠMark ov
ĠS a
GL uint
uck ets
Ġcred entials
H OST
I ES
> ',
\ ":
direct ive
Ġal gebras
ĠW ell
G reen
ĠH a
Ġwrit ers
10 3
Ġstruct ural
Ġunit ary
ĠRad io
cho ice
Ġm u
[] )
F M
Ġquad r
External Task
Ġle s
Has Been
ĠT arget
sp h
Ġindependent ly
Ġre ality
os a
Ġexc ited
Å Ĥ
if olds
Vis ibility
Tra its
at on
ic ity
ĠV alley
activ ate
Ġis omorphic
ĠU V
En code
Ġspec ification
Th rough
Ð ¹
e valu
Ġb ra
ab solute
TO OL
ations hip
Re cent
Ġpres erve
ul as
max cdn
// ----------------------------------------------------------------
Ġro utes
Ġspher ical
F D
Ġc row
C lip
ĠRet rie
Ġens ures
Ġtraject ories
Ġsup ers
="# "
ĠCh ief
ĠValid ate
Ġl l
Ġintr insic
Ġcollection s
Ġsome what
ĠC e
U K
m anagement
un safe
Ġpar k
Pr imitive
Dep loyment
je ctions
ExternalTask Pojo
i as
Ġpy thon
ans as
ĠRe set
ĠF ollowing
ĠQ CD
vel oc
ĠCon dition
t bl
Reg istration
Ã º
ig a
Comp lex
LP ADDING
itor ies
^* _
Allow ed
_{ -\
==== =
Ġf amous
er ate
Ĥ ¬
Ġa st
Ġst ages
Ġs ynt
Ġinsp ired
E OF
S n
omorph isms
ĠBO OL
T ARGET
col ors
Ġelect ro
Thread ing
AR CH
Ġtell s
Ġne arest
ĠW all
F urther
Ġb rowsers
L ow
me l
Ġin coming
Ġslo pe
Ġ( #
:: $
ĠSund ay
Ġaccret ion
19 69
ĠJohn son
ops is
Direct ive
Reg ex
s mooth
par sed
Ġfun ctor
po i
ĠCEL LPADDING
}} )$
Sign al
pr ising
Dat aset
par s
grav ity
ĠR ay
d z
Equal To
Ġun able
ĠG re
RO W
="# ">
N ested
Ġplatform s
Ġany one
Ġpo et
ĠCELL SPACING
Ġenvironment al
Ġpl ots
Ġal leg
Ġsen ior
; ,
| =
ĠCon ference
TO DO
N EL
Dispatch er
cite alt
Ġgrant ed
ot or
INST ANCE
field set
Ġsurround ing
EN C
Ġclass ifier
h our
Ġ\ }$
IBU TE
inter op
erc ise
sequ ences
Oper and
s napshot
draw able
Ġar rest
Ġsk in
s leep
Ġp lugins
Ï Ģ
Ġb urn
Ġk ing
Ġre cur
ylvan ia
Are Equal
LI B
? </
Ġcon ference
work er
S uch
ĠP ay
U UID
sub Nav
F ollowing
Ġemploy ees
ĠK en
G M
ĠF urther
[ [
Ġ{ })
ĠM ust
v v
math ds
g ap
Ġlength s
ĠF ull
D ump
x hr
ĠD est
ĠCol l
Ġreg istration
row se
ĠCol umb
Ġdriv en
ĠO pt
: -
Ø ª
Ġsh op
get ElementsBy
Right arrow
CE PT
Ġt body
Ġreview s
Ġr m
Ġ. /
F ROM
q q
By Name
Ġre start
Ġ ].
Ġre ly
Ġpr ison
err ing
le ading
cour se
Ġacqu ired
ĠTest s
Ġfilter ed
L C
Ġcall er
ĠW in
pi ed
Ġstr ug
Ġdis cret
Ġ' ');
API ENTRY
)) {
re mo
Ġan not
ip edia
imit er
++ ]
Ġhapp y
Un lock
w ho
Ġn an
Ġinf lation
ĠA C
Ġlet ters
Ġcoup lings
t ically
ĠSt orage
ĠI ran
ĠB ind
P atch
In s
Ġbrief ly
Conf irm
hash Code
uto ff
pe g
H ex
Opt s
ĠF ort
F rag
Ġcontradi ction
ost on
ĠD ue
Ġ* _
GLA PI
Ġmorph ism
Ġsplit ting
Ġre normal
car ousel
Mat ches
Ġc le
IT H
m x
' $.
×ķ ×
Ġsh aring
enc il
ĠAs ia
Ġvis ited
res pect
P K
Sc ene
Pay ment
Ġman ually
ĠS cal
vers ation
stats models
g ent
p ot
Ġsc r
Ġv ision
Ġap ps
Ġcomp atibility
pi e
w ind
agnost ic
Ġv e
s qu
Ġne ither
ĠPro du
Ġb id
Ġmus ical
h h
Pr ice
Ġrespon d
In jection
er al
ap y
| _{\
comp atible
ĠJac ob
Ġisol ated
neut ral
Ġsing er
Ġst ub
Ġr iver
}} =\
Ġkey board
read only
AUT H
Ġk ill
Y our
Ġsu ite
Ġscient ific
force ment
ĠLe vel
Ġnormal ize
Me asure
. }\
Ġco vers
Ġhus band
Ġv ideos
ĠL ore
IN CL
LEV EL
M argin
y o
197 1
Default s
ĠEd itor
Ġ" --
Propag ation
ow ski
cho ose
cur r
Ġappear ing
Ġf loating
Ġb ot
qu ick
Ab solute
Ġst rip
no ise
Ġhapp ened
Ġissu ed
HasBeen Set
sk in
Ġdepart ment
ĠC luster
Ġcor por
Ġcom mission
l st
rep ly
; %
Ġl ambda
T LS
ĠC la
Ġt a
Ġh ierarchy
Ġregard less
th an
quest ion
Ġfind ings
Ġparame tr
ĠSche ma
ipp et
Ġout per
get Key
Ġ ri
Ġ/** <
g able
ad ium
St atistics
Ġma il
pro x
is ons
re view
Ġpre pared
Ġt ip
ate ver
Ġart ifact
ĠAc count
J ust
\| ^
> ../
Ġa ws
Ġback end
Http Request
ib ilities
Ġho les
y aml
ĠM i
Ġg ate
ĠJo e
h base
ĠC as
Ġde coder
à ¥
Ġe yes
Ġcyc les
Ġlog ical
ival ent
ĠB efore
auto ref
C ent
Ġpresent ation
FLA GS
Ġst ands
å Ń
P at
c ategories
Ġsynchron ized
Ġpl ate
Ġshe et
Å ¾
, </
ic ient
ov iet
Ġcon formal
x e
ĠW ater
al tern
N il
ĠM D
Ġinser ted
member Of
ĠT im
ĠSci ences
L ONG
ĠB ound
Ġin fer
Ġdi ameter
), (
Ġaccess ible
S mall
ĠMo unt
ref n
Ġs outhern
Ġro uter
ĠR iemann
ĠTh row
Ġmur der
de comp
ĠA ff
~ (
ĠL IC
g ot
ĠA I
sub float
Ġtrans formed
A cknowledg
Ġd jango
ak i
ad just
h int
Ġcomp iled
Ġser ving
te en
lic es
f riend
S IGN
ĠF A
Ġc ultural
Ġlist en
on line
Pro f
GRO UP
ĠPo isson
ter ms
Ġf ired
Ġl ived
W alk
ru ption
ĠB ul
ĠS ession
are er
i ors
UN K
ĠSp ain
LE D
STAT IC
<? >
Al ignment
ĠĠĠĠĠĠĠĠĠĠĠĠĠĠĠĠĠĠĠĠĠĠĠĠĠĠĠĠĠĠĠĠ ĠĠĠĠĠĠĠĠĠĠ
Ġneg lect
ĠQ t
Ġfund ing
ĠB a
[ <
b az
} &\
% .
un its
Read Only
ĠF inal
10 8
ĠAn alysis
Br anch
ult y
IT ER
99 9
Ġsamp led
w ing
Check er
ĠB rowser
L M
ĠO l
DI RECT
input s
il ly
utor ial
ĠF all
// !
tr as
Ġdecl aration
F it
f m
ĠF ar
ĠF ermi
+ '
ĠE ns
ĠSh ared
v ia
Ġnor thern
Ġrep o
Ġt al
Man ifest
pro f
11 5
Fat alf
um a
B H
Ġsubject s
Ġb asketball
Ġas set
Ġrece ives
Ġmed al
Ġor bits
Ġin set
Ġse at
Ġar row
eter min
Ġz ip
NotFound Exception
Ġconst rained
Ġengine ering
SY S
Ġmot or
Ġid s
scal ar
ĠI rish
ord an
channel s
ãĥ ¼
ic ates
11 4
im b
O rient
f ortunately
S i
The lia
post s
is her
cal c
19 67
Ġser ves
M esh
Ġdiscuss ions
Ġcy l
Ġconnect ing
Ġc s
ĠAb out
10 7
ĠAdd s
Ġ' ../
el ist
ç »
Ġmarg inal
- ">
super vised
( @"
normal ize
Un able
g uid
Ġf ault
Event Handler
or ial
Ġperturb ations
trans fer
T i
u z
deg ree
ĠI C
Ġfrequ ently
v p
un ger
ĠF riday
is c
Ġsitu ations
Ñ ħ
St ud
Ġplas ma
Ġexp os
sub stack
L U
the ory
è ¡
l iteral
Ġch iral
command s
ad i
le et
s he
aut om
om ics
Ġl ic
ĠMod al
ĠS ave
ĠTH REE
Ġext ensive
Ġp itch
S ys
ĠB ern
Ġalloc ated
ĠâĢ ¦
Ġsub sequently
pro j
------------ -
Ġpul se
) |\
ced ures
g h
Ġdat etime
)= (
ĠL ab
Time s
ĠĠĠĠĠĠĠ Ċ
as set
ĠMem ory
Ġequip ment
I refn
Ġs ig
is en
Ġle pt
rest ore
h w
Ġman ual
interop Require
ĠS aturday
] ));
ns ylvania
Ġ( ((
MP TY
ĠCal cul
" </
bit coin
Ġhold ing
Ġb rain
ĠS ingle
âĢĿ .
ver sed
ĠD I
;\ ;
ĠP ers
Th rows
ff ee
I MAGE
Ġwe ather
s is
K EN
query Selector
Vert ical
WAR NING
Ġpre ced
Ġare n
Ġconsec utive
con ver
High light
ĠB an
use t
Ġhe ard
Ġ æ
ĠM un
ĠRe lease
ĠP ak
Ġn ice
ĠĠĠĠĠĠĠĠĠĠĠĠĠĠĠĠĠĠĠĠĠĠĠĠĠĠĠĠĠĠĠĠ ĠĠĠĠĠĠĠĠĠĠĠĠ
bad ge
lo v
Ġdec ays
& $
Ġse ar
Ġse p
Ġover view
ĠCON FIG
Ġexhib it
ad ic
Ġinst ant
ĠO THER
s ocial
Ġplot ted
Ðµ ÑĢ
Ġp tr
ĠCall back
Im mutable
sc ene
Part ial
nos cript
pg f
Ġcap abilities
ĠC lose
Ġc ensus
iv ot
l arg
w ire
y c
ĠCheck s
ĠInter face
ap on
Ġstop ped
y ui
Ġm iss
F ire
et ition
ĠP acific
P al
ĠG reek
Ġlat ent
Ġc ipher
qu o
ĠAdd itionally
G ENER
Ġfac ilities
Ġcould n
Ġweak ly
ĠPar liament
Ġrest aur
Ind icator
Ġun iversity
Ass ume
ĠÂ ©
co v
ath an
\, {\
oc used
Inv oke
al go
end region
T ube
Ad v
Ġpoint ed
F B
ard ing
ĠGL uint
St ates
W ords
h p
ĠU int
Ġne ur
TE GER
S an
Ġd ump
se en
2 20
stream ing
Named Cell
ar b
Object Meta
Ġsub sets
\, ,
d w
Ġconcern s
Ad ded
Ġpropos al
Ġr id
p us
Ġmor ning
cat alog
R ound
ur ies
in ite
LE S
Ġresid ents
N orm
ok er
op ens
Ġvict ory
P RI
Ġco ins
Ġamplitude s
Ġun safe
vari ants
Ġcap able
ro unded
Ġsh apes
= -\
ĠNor thern
c ity
12 4
Sh are
Ġ{ {\
ĠSet tings
Ġclin ical
Ġpolitic ian
ĠLIC ENSE
ow l
User name
å ľ
el d
) <
Ġsubstant ial
cr umb
per formance
veloc ity
Ġoptim ized
G T
Ġoffic er
Ġbel ieved
I ENT
rf loor
Ġtool tip
do es
u da
Ġl ibraries
}_{ {\
Con figure
Ġw a
ĠEmp ire
Ġserial ized
Ġsk ills
11 7
Initial ize
Ġin fe
Ġfac ilit
S hell
ĠTh ree
Ġrecogn ized
Inst ances
é Ģ
H int
qu ality
Ġwor st
es sed
Ġredu cing
P B
Ġlook ed
Ġf d
Ġr ac
ĠT ri
ĠL ike
lu eto
ĠV AR
lueto oth
id ae
Ġregion al
ĠPack age
ĠMich igan
Ġas sets
Ġscal ed
k h
c amera
Ġtrigger ed
P ACK
Ġharmon y
Ġaudi ence
ĠS TR
Ġhe ter
temp lates
ĠMed ic
Ġg ray
g ui
Ġoper ate
Ġend ing
Ġresearch ers
Ġm ill
AR K
1 32
Filter Database
ĠW ait
e fficient
' )$
Ġ[ -
p otential
Ġsub str
D ry
Con version
un ed
ail s
Ġadapt ed
ĠCorpor ation
ĠD C
He ap
end ant
Ġseason s
RET URN
="../ _
ĠS R
E very
Aut om
F atal
i q
Ġcur r
Ġcho osing
Sche dule
S lide
Ġst reet
Ġb low
ual ity
P ASS
fl ash
ph ia
ines ses
A ff
ĠP osition
ot er
Red irect
Ġharmon ic
Ð¾Ð ´
is is
Ġl in
19 64
ĠGL sizei
Ġdec imal
Ġwrit es
Att ach
Ġk inetic
Ġhash Code
Ġdec isions
Ġcon servation
Un defined
ĠBo x
Tool bar
ra it
F W
ern ate
Ġcancell ationToken
ay a
Î ·
ĠB OTTOM
inter action
J an
Ġobtain ing
y ou
Ġh abit
Ġg ender
Ġdetermin istic
10 6
ĠWilli ams
open api
fav icon
Ġco s
Mar shal
ĠF amily
s ible
as hes
get Property
000 1
"> {
Ġt rib
ĠS outhern
Ġfe at
ug by
* >
DE P
Ġ"- //
Ġver ified
Ġturb ul
Cap acity
oid al
Ġord inary
Debug ger
', \
lig ible
Pred icate
orient ation
ĠRemark s
Ġclass ified
log ic
Ġb ary
w i
ĠM aster
qu es
F s
ir th
ĠW ales
Ġamount s
Vari ables
ĠDir ac
ĠF C
Ġembed dings
Ã© s
C ert
d ifferent
Ġspac etime
' $,
T ITLE
ĠC lo
get Data
' }\
m icro
Ġd anger
( ",
ĠInst all
Def ine
ĠFranc isco
"> &#
Ġver ification
ĠJ eff
Ġview ed
Ġcon e
r k
Ġpro g
ĠJ on
$ }}
he ap
Ġ( ;
Res olve
Ġdel ivery
b olic
Ġadmin istration
Ġs ustain
Ġenc ryption
ame d
Ġfe et
ĠA udio
do jo
Ġfa ith
Ġcomb inations
w br
C ost
A bs
her ence
ĠEngine ering
( |
ĠT ro
Ġanim als
Ġ" :
et ies
ĠR ule
Ġ/ ^
ĠJer sey
Ġd ates
B ag
Ġ$ $\
ĠA GN
Ġecon omy
Ġtemp lates
S ender
Ġstream s
Ġ( {
Ass ociation
ĠH E
k ar
R ST
C lock
cer ning
pe ction
MA IN
in formation
mix in
ĠS at
V ol
ĠB attle
Ġh al
ĠS top
** *
c laim
Ñ Ī
T ax
] <
Ġcomp osite
n ight
Ġb ars
Ġ$\ |
Att achment
Ġclose st
Attr s
Ġanaly zed
ir y
ĠId ent
h yp
R ank
Ġch air
lf loor
mod ifier
Ġbutton s
ierarch ical
P riv
Wh ite
Ġto ler
Ġscript s
Ġf aces
SD L
ĠS eg
Ġexp ensive
Ġv en
Ġprocess or
Ġc ars
ĠComp ute
ĠM B
a que
Ġb odies
TR ACT
Callback s
Perm issions
Ġcon crete
k ers
Ġnew sp
Ġkey word
Ġcomb ining
Ġreli able
9 00
me ss
s yntax
ol ving
B ul
V IEW
---- -
or acle
Ġnon zero
Ġsp ring
ĠSpec ifically
g ency
Ġdo or
N ER
Z end
Big l
Ġclo sing
âĶĢ âĶĢ
Ġre sc
Ġe lev
ct l
ĠGr ant
f w
om er
z i
Ġde cades
Ġexp osed
ĠM id
G D
Ġear th
Ge o
temp erature
Hel pers
Ġs we
ĠA DC
Ġ ur
ĠÂ £
Ġarg v
ĠB ased
id ents
conf irm
system s
ĉĉĉĉĉĉĉĉ ĉĉĉĉ
Ġabund ance
Ġpar agraph
Ġgu ard
te le
19 40
ur ance
Ġdis joint
De code
Ġg un
ĠR PC
Ġgu ess
Ġcons ult
PO INT
Ġvan ishes
Ġm k
ĠL ord
LIN K
Ġ$ <
AC HE
ol i
ĠN Y
std out
D ao
Ind ices
& -
ĠCal led
XX XX
or bit
19 65
ĠÃ ł
FFFF FF
min imum
Ġimp ossible
const ants
Ġexcell ent
Ġe val
3 000
dis c
Ġdevelop ers
d ater
Re view
ci i
ĠT urn
Ġanalog ous
Ġcon vention
s or
oid s
ĠH ost
Ġext raction
Ġconcept s
ĠL iber
Ġaff ine
ov es
con c
[ ];
Ġalign ed
* (
L ER
it age
ĠN avy
Ġcenter ed
r as
Ġfund s
Ġteach er
L ive
Ġp le
fin ement
Over flow
Ġbe at
Des erial
MA G
@ {}
Ġv ulner
inn ed
e very
Ġoper ated
U TE
G UI
aw t
t cp
Ġautom atic
first row
work s
sk top
th ird
P s
Ġdedu ce
C ut
oc ab
Ġev t
fa de
Is Null
S PI
Ġp sych
Res olution
P N
Ġat tended
PROPERT Y
row Color
Ġpeak s
ĠC amb
= (\
Ġs a
re newcommand
ĠO UT
and y
ro zen
Ġper man
pos itive
Ġrelig ious
Ġprodu cing
af ka
A IN
ak ed
mathbb m
Ġrapid ly
m ad
Ġk inem
IC AL
ET H
ter ior
ĠJ ackson
Ġleg acy
Rout ing
Ġelli ptic
ip es
Ġpl ain
dep loy
ĠDemoc ratic
Cache d
en coded
Ġpop ulations
] /
}_ +
Ġge ome
ĠD a
Ġdraw ing
ĠP erm
burg h
Ġ era
is Valid
uck y
ĠO x
U i
Ġanaly tical
ĠM ah
Ġsol di
ĠĠĠĠĠĠĠĠ čĊ
Ġh align
Ġrun ner
m v
Ġlinear ly
Ġap art
Ġgr pc
OP EN
ĠL ow
Opt im
Ġenh anced
Y P
}. \
ĠI MP
ĠGener ic
char set
Ġfac ility
re ens
$ _{\
19 30
ĠPen nsylvania
G uid
ĠD rag
Ġar my
ĠAs ian
copy right
Re vision
Ġl ab
Ġ// -->
member NameLink
Ġin finity
l ating
G G
gy pt
ĠG ro
Ġp ump
ĠG C
Character Offset
id ay
compar ison
---- --
un te
=" ./
Part y
ĠDan iel
ĠC L
F LOAT
Ġlist ening
Ġcomp rehen
local s
ĠL atin
Ù ĩ
Ġde formation
] ^{
10 9
Ġaver aged
Ġun stable
ĠP rem
Ġ ath
all enge
ĠG ir
med y
PRO TO
ab i
Ġim aging
mb r
Ġp ad
ĠC ivil
ĠSen ate
19 20
13 5
Ã¡ n
ĠMe an
LE N
Ġillustr ate
) |^
Ġo mitted
Big r
Ġadvers arial
. },
ific ial
it zer
comp iled
V T
ig uous
un ion
Ġis set
Ġassert ion
Ã© e
umin ate
, ~
Ġup grade
W est
ĠS us
arr ative
Operation Exception
ism atch
Sl ider
Dis able
Ġlo ops
Ġs ink
Ġch ains
uff le
Ġf old
DO WN
Ar tic
n x
ĠS ports
Spr ite
Ġofficial s
Ġm and
ynthe size
ĠE uclidean
l c
ĠTr ansport
St mt
ict ures
Ġcal ibration
Ġc ult
te ch
ĠĠĠĠĠĠĠĠĠĠĠĠĠĠĠĠĠĠĠĠĠĠĠĠĠĠĠĠĠĠĠĠ ĠĠĠĠĠĠĠĠĠĠĠĠĠĠĠĠĠĠĠĠĠĠĠ
ĠBrit ain
B ecause
Ġrest rictions
Ġcomp ens
At A
Ġre aches
ĠT y
' })
Ġmin ute
Ġreal istic
Ġar ms
(' \
Ġtransfer red
Ġe c
r ating
__ _
Ġact ors
root Scope
SD K
maj or
A CTION
font s
}| ^
Cre ation
ĠSpr ing
ĠA UT
ind icator
Ġlead ership
cur ve
ĠH op
P reference
ĠH ard
Ġm irror
co ut
l on
fill draw
Ġprote in
st mt
per iments
fig s
ul se
ĠL ock
sec ure
av id
Ex amples
IN LINE
Ġcross ing
× Ļ
ĠL ive
E mp
Ġcomplet es
de tect
Ġcertain ly
ĠOh io
% );
ĠS ER
k k
ĠP layer
Ġ[] *
ĠO K
Ġconven ience
ĠC orre
Ġser vers
19 66
ss on
assert False
Ġm igration
ĠJ ud
ĠSum mary
ic ial
MA KE
ĠB ell
Ġelement ary
Ġinterpol ation
Ġrec ursive
ab ort
ĠS ort
ĠN ight
Render ing
Ġp c
Ġmultip lication
Conn ector
ch itz
ENT ER
Ġfi ction
ST REAM
f ollow
"> '
Ġp s
Ġdist ort
(" [
U psilon
Ġp ot
ag a
Ġlos ses
Ġreal ized
ge om
Col lector
' ',
Rece iver
Ġc ros
y arn
Ġd ream
Ġm illiseconds
}) -
qu et
PI O
qu ark
B G
ĠTr ack
) }^
tra ined
sl am
" +
ĠNew ton
orn ers
ĠW H
ol ves
lic as
enn is
exp anded
ĠĠĠĠ ĉ
read crumb
B oth
get Context
ĠSt ack
Ġpe ace
Ġpermut ation
Ġso le
Ġa rise
ĠExt ension
APIENTRY P
ĠB oston
ĠG ar
N OS
oper ations
Y es
v y
Ġinvest ment
/ $
ĠD ATA
ĠL at
Ġsequ ential
Log ging
ĠL apl
ic ipal
bib li
M ULT
Ġmag azine
Ġan notations
ĠM anager
tag Name
ch arge
Ġle x
ĠO fficial
Ġproject ive
USE D
Ġsuc ceed
Ġco herent
ĠIP v
ride s
lock ed
Byte Array
Ġelection s
Cla use
NE W
CON NECT
ĠRepublic an
Pre view
H I
ifi able
Con struct
sup ports
Ġ$ [\
cent ral
df s
Un its
Ġmon ot
sm art
ĠE p
Ġkw args
B tn
}) _{
Ġinfra structure
Ġm ist
Ġb lo
interopRequire Default
ant e
s an
Ġconsider ation
n an
ai ses
ll a
pub lish
short cut
æ Ĺ
ot i
ame l
Sub mit
Ġon click
ĠP lugin
ĠGeorg ia
Ġfit ted
ada pt
PAR AMETER
P ad
Get String
ĠI T
es is
sim ilar
car bon
R F
spher ic
Ġmat hematical
ĠP C
iv idual
be hav
Ġpr ices
Typ ed
a head
ĠStruct ure
Ġdec ide
ĠW ild
set Value
ent h
Ġoffic ers
S B
s ar
ÑĢ Ð°Ð
dat ab
Im g
( /\
ĠB utton
im ination
Ġindic ator
urs day
g ol
Ġimp l
ĠCre ated
ĠM I
lu x
Loc ator
up les
In ternational
ĠF ederal
ent ric
ĠQue en
ĠT IM
ĠD ocker
Ġ iron
v skip
Ġb ag
ĠO t
Ġbox es
ILE D
Ġopportun ities
Key board
Ġm iles
LE FT
ĠK h
Ġ/ ></
ino is
ĠD MA
Tok ens
Ġbr anches
ab eth
Ġcorre lated
ĠAs ync
ex ceptions
CON F
ĠUk raine
C AL
has Class
Co ins
UT C
: @
Ch ars
ĠV ar
Ġc url
Ġhe ar
Ġcon sum
Bo ot
ĠW atch
}} }{
L F
Ġbreak s
Ġpost s
brid ge
co p
Con v
ros copic
Ind ent
ac l
r ig
ĠS cript
Ġneighb ors
M obile
Ġdis sip
ak s
Inter op
P df
Ġtop ics
ĠF oo
les cope
27 0
La unch
* .
od al
t one
Ġrelax ation
M iddle
Author ization
Ġestablish ments
Command s
Ġexam ine
ĠLay out
x c
ĠT yp
Ġf ellow
mac ro
Ġacceler ation
k ov
-- )
Ġpublic ation
Ġvari ants
Cal cul
Ġf usion
A W
ly n
; -
ĠL abor
Reg Exp
ĠF R
Ġ( );
Ġst eady
ĠF T
S ound
Ġview port
ust ic
Ġobserv ables
Ġauthor ity
ĠChampion ships
aw are
ĠCon s
Ġin fin
Ġv ice
Ġfor t
Ġaggreg ate
O ct
ac cord
ĠB on
Ġsuff ices
d ue
Ġefficient ly
Rel ation
ers ions
aw iki
ĠL ittle
lect ic
ĠY UI
( ',
Imp lementation
Clo sed
Ġdef ense
H ar
per mission
Ġy outh
Ġacade mic
ĠStud ies
DI F
Ġcirc les
ĠS ite
ĠWh ere
ĠD ar
Ġaux iliary
pe er
Ġpass phrase
Ġguarant eed
[ ^
B in
Art ifact
UP DATE
ĠTh rough
su ite
me sh
ĠA zure
Ġs ends
Ġimpro vements
ĠInst ance
Sim ilarly
b u
Ġad mits
CP U
ĠUS B
e le
. (\
Ġstandard s
Ġveloc ities
sat isf
ues day
Bind er
}} }$
ĠTemp late
ĠPol ice
ĠT i
pt s
custom er
Ġproject ed
ĠSt an
Ġun expected
33 3
Ġ" </
Ġbus inesses
pi res
Ġre serv
ĠC ro
Ġclean up
M AT
ĠL earning
Ġclass ic
Serial izable
ĠLe ft
ĠR O
Ġcryst al
N U
Ġinter faces
Ġcard inal
ĠI ss
Ġy ellow
Ġbel ief
Ġcool ing
** /
Ġpl anned
Ġgener ality
mat ched
Ġ@ {
medi awiki
Ġqual ified
N ational
on Error
). }
pl er
ĠH D
sc reens
ecess ary
ĠS oviet
la de
opt imal
Ġd ut
sp ot
ĠIter ator
Ġk new
ĠTrans action
c g
Null Exception
ĠC OP
âĢ ĺ
Fr ont
ĠAd am
">( </
Ġvalid ity
lay ers
Ġnorm ally
nt z
pl aces
Ġa u
ent a
ke leton
Ġregular ization
Ġ\ #
C AP
ĠP a
ĠNot ice
id o
Ġsign s
ĠDig ital
d h
Ð¸ ÑĤ
iz z
Ñ İ
Ġquot ient
V R
ch ant
ĠSe a
Ġcorrespond ence
Ġ` $
Ġacc ident
Ġmonitor ing
Ġc f
Ġd rum
Ġreport ing
lik ely
b ecause
Ġcollabor ation
Fore ign
}, {
FO RE
Par cel
ĠT F
pen ded
Ex change
Ġfif th
cor ner
Ġanom al
li ers
(" -
} "/>
ment ion
( %
Ġb ed
> ()</
s il
ĠJ es
default Value
c ritical
ost er
P ref
Ġfall back
Ġwest ern
19 45
Ġ) );
Ġexcit ation
Ġoutcome s
Ġconcat en
. &
Te am
Ġres istance
NO WN
Ġhost s
Ġs cre
bound ary
Ġw inner
12 1
Ġalong side
> }
rep resent
u ing
}= (
Ġassume s
Ġca using
Ġopin ion
H H
ĠI slam
s aved
Ġfilter ing
ĠJew ish
Ġsur ve
F ast
bo ss
ĠCh ris
Å į
spec ified
ĠM u
ĠK ent
ne ighb
Type Name
Bal ancer
o mp
ĠL E
Ġnumer ic
Ph oto
ĠComp ar
P OL
Ġres ize
RE NT
ĠP O
t m
ĠM E
ĠK im
Ġco okies
script scriptstyle
Ġsup posed
Ð¾ ÑĤ
der iv
form atter
' }),
ĠP A
ĠB oot
Ġnumer ically
HAND LE
getElementsBy TagName
under set
Ġm igr
= _
ome ter
c am
Ġdot ted
Ġel astic
Ġprom ote
FE ATURE
Ġs port
Ġf ish
Ġperform ances
mem Item
> ";
Ġd ome
br acket
ĠMon day
Ġpromin ent
Ġs ister
b ury
Ġdefe ated
on ym
ĠM ic
m anaged
Custom er
go al
if ecycle
Ġdra ma
in herited
ĠProv ince
Ġw ra
v r
ID s
Ġresult ed
rot ation
on ia
Ġstudy ing
n r
vent ure
Ġ( <
ĠInv est
section s
Ġmolec ules
lo dash
ĠCont in
ĠEvent s
ĠT ake
omin ator
ul f
M ass
ab ling
> )</
che ster
ĠL imit
Ġdr ink
end ers
m g
Ġd ol
ĠConst ant
Ġ[ #
Ġneighb our
Ġq q
t u
Ġan cient
Ġpl ants
ar ters
Ġpro x
Ġcons umption
At tempt
Ġhelp ful
3 50
Comp ute
ĠHistor ic
M usic
m ysql
Ġexec utive
Ġyour self
l ot
ĠKore a
Ch oice
IN PUT
ir ms
O ps
ĠRe call
Suppress Warnings
uff icient
Î »
n ested
f an
M c
Ġarriv ed
=- =-
Ġdo cker
ĠM os
radi ents
Y S
ĠMed ical
ĠA ri
job s
Ap pearance
D ash
ac cur
) ',
XML Schema
Ġp ain
] ",
Ġf ear
list en
it ud
man ual
Ġindust rial
Ġimplement ations
ĠG i
Dist ribution
------------ --
eder ation
C our
p ause
Ġrema inder
ĠHel per
ĠN um
Ġex cluded
ĠJ r
Comp ilation
Ġderiv ation
Part icip
Ġp ag
Un ited
ĠWIT H
p q
Ġm ob
HEAD ER
Ġar ithmetic
ĠTr igger
dig est
ĠEns ure
el ly
Dec or
ar ound
is ition
ĠPri me
^^ ^^
napsh ots
($ _
roll ing
) ];
ide l
Ġbig gest
Ġfeas ible
B g
m achine
Ġfl ash
Ġp t
ĠB ang
Ġ Ø§
ĠC EO
load s
ATTR IBUTE
Ġremo val
Ġepisode s
G AN
Ġ/ .
ĠHe ader
Ġdetermin ing
Ġem ot
hand lers
Ġequip ped
Fl ush
ph oto
s lf
0 100
thread s
Ġminim ize
widget s
Ġsql ite
Ġbos on
he ses
}( -
alax y
Initial ized
Ġentang lement
edit able
Orient ation
init ely
Ġarch ive
Ġconst itu
ĠP AR
et ary
å Ľ
I llegal
Ġfew er
ĠL IMIT
Ġa f
id al
Ġ" ");
V oid
ĠSet up
ĠA ST
DIS ABLE
Ġcut s
Ġdis ap
/ %
g mail
od a
to pr
to u
th reshold
Ġfall s
Ġlif etime
D roid
Import s
Ġindu ces
ĠP S
Ġcomp ress
Comp osite
Ġgu id
mon itor
list s
Ġthous ands
Ġopp osed
ĠDes pite
) )$.
Ġgir l
hed ral
cre asing
ĠC T
h it
Reg ular
)} _{\
Ġhydro gen
OD Y
Ġc ro
Ġan imal
Not ify
Fig ures
Ġx si
' )\
}_{ (
T ri
ĠJust ice
n io
Ġf uel
Ġcon jecture
ro vers
ĠM enu
ĠE instein
Ġprov es
Util ities
bal ance
get Default
Ġpract ices
Json Property
E mbed
pre dicate
am d
dd en
ĠLin ux
de velop
conv ex
hold ers
ä¸ Ģ
nes day
ĠD ub
tensor flow
ex ist
topr ule
Ġg lu
ĠF air
ĠU TF
Ġcal endar
Ġin str
Ġatmo sphere
> ",
Py thon
b n
Ġperson s
å ¼
}^{ (\
11 3
Head ing
Ġp ose
Mult ip
Ġ' :
ĠF ont
CON ST
ĠCollection s
Act or
19 63
Ġd oll
Ġachie ves
co verage
ID ENT
Ġform ats
ä¸ Ń
Ġcri me
ĠR us
uset ts
ĠSet ting
ack ets
in ery
Ġfore cast
ĠHo spital
ips chitz
Ġc trl
ĠR a
19 62
Ġcla use
Not ice
ach usetts
TR A
' }$
Ġcitiz ens
li x
D X
Ġvol tage
ĠM aterial
Ġinter ference
ron s
Ġtang ent
ĠM obile
Ġg ene
ĠB C
IT S
Rot ation
Ġh its
Bl ue
Ġsuper conduct
CA SE
Ġpro cedures
rop ical
3 20
List s
ĠTrans itional
ĠSw itch
Ġpro mpt
Ġre lying
d am
ĠInitial izes
Ġbeaut iful
ĠW at
Ġexperi ences
x l
Â °
iline ar
ital ic
Ġt il
ĠT ok
av g
Ġse q
in son
I FT
d ummy
ĠThe atre
Ġd war
co ords
Ar row
Ġh ousing
Ġoptim ize
NUM BER
l antic
ched uling
Ġsignific ance
b en
it ical
\, .
p referred
cred entials
mo v
Ġget ter
ĠG P
Ġ{ !
ap id
vis ual
ĠF ac
}\ ;
Ġm ixture
Ġreprodu ce
Ġtechn ologies
ĠN ormal
Tw ig
12 2
Ġw orse
o auth
Index Of
key Code
Draw able
Ġover rid
rest rict
ĠQu ant
Ġme son
ĠVal ues
å ¯
umb nail
Ġvocal s
Ġup dating
ĠB ody
ING S
get Current
ĠPro file
Ġpure ly
Ġintegr als
con j
Ġsee ing
he alth
ĠC ulture
Ġdepict ed
ĠV ert
Ġg fx
Inv ocation
Ġd iverse
ĠPol y
Rad io
an z
ĠC red
ĠEast ern
on i
al one
Ġident ifying
D AT
eg o
] >
Ġ ]);
Ġintrodu cing
DEF IN
Ġ* =
Ġg lass
Ġd il
Com bo
ĠS ir
lu c
\ .
F inder
sp l
eq q
equal ities
CO PY
ĠG PU
Ġback up
Or acle
Ġch a
M a
driv en
DE VICE
inst ances
Ġcr ash
G radient
w so
Ġpos it
Ġrail way
C rypto
ĠK ong
å® ļ
H er
ĠAlex ander
let ing
Ġt y
ĠR h
ey l
Ġ ))
../../ ../
ĠT ensor
() }
Ġg amma
Re po
w ang
pol l
contin uous
file Name
17 0
Ġshe ar
Ġinst ability
ĠI SO
Doc s
16 8
Ġ\\ [
St roke
Ġformal ism
ĠDo es
div ider
form ula
ĠB H
Ġcosm ic
Ġpotential s
V S
Ġexpos ure
ext ype
ĠG R
Ð¾ ÑĢ
-------- ---
E ven
SO CK
ed ges
Ġfin itely
Ġoper and
Ġ à¤
Ġ( @
1 19
ĠM eta
Ġlog s
Ġinstitution s
un stable
ĠS mall
ĠB as
Link s
ĠAmeric ans
n ear
Ġindex es
hentic ated
V A
}, {\
Ġreg arded
C atalog
request s
> -
Ġcom mitted
Ġh air
Ġknow s
Ġsh ares
PL ICATION
{ [
PI X
Ġstream ing
Ġa ims
pre dict
ĠL P
Ġwall s
>: ]<
ann a
Imp lemented
Ġinstall ation
Ġthink ing
d yn
m ation
16 4
') [
M anaged
ĠM ike
ĠL em
Z ip
Lay ers
Wh y
ĠD NS
ĠRep resent
Ġse l
00 3
gra ded
re ach
sw er
ĠN GC
ib li
Ġper mit
View port
Ġl icensed
ĠCo ast
oc r
os cal
rop ol
Ġfl avor
list ing
Instance Of
Ġboot strap
Input s
Ġvolume s
Ġ urban
Ġg one
sp read
)} =
ĠG l
ĠSur vey
Ch rome
ĠÐ ·
Ġtherm od
Ġprov en
et t
14 7
Ġlocal ization
l apping
x a
urn e
Process ing
Ġguarant ees
p ow
Ġtrip le
Q UE
pop over
ĠEn try
pp ers
Ġspe aking
ne ed
ĠScot land
h ist
Ġfraction al
gl s
}} +
-------- -
Ġanaly ses
hom ology
Ġan tic
s lug
be at
Ġform ulas
ĠBit coin
ir k
Ġpurch ase
Ġn omin
Ġviol ation
Ġv es
icip ality
Alloc ator
Col ors
e ast
ĠEx amples
; ]
m q
it led
s uffix
Ġown ership
B N
Ġtri es
ĠE gypt
ADD R
cons ider
ĠĠĠĠĠĠĠĠĠĠĠĠĠĠĠĠĠĠĠĠĠĠĠĠĠĠĠĠĠĠĠĠ ĠĠĠĠĠĠĠĠĠĠĠĠĠĠ
str ategy
âĢĿ ,
D Y
S uffix
t ap
R oom
Ġconcern ed
ĠB lo
Ġsh ips
Ġun set
ĠH arr
first Child
Ġsub s
Ñ Ħ
Ġt ack
ĠB S
ĠL ater
sol ut
ĠLink ed
so und
Ġsp end
M ATCH
Ġdefault Value
ĠB SD
US B
com merce
nes ota
Ġdiver gence
la zy
Ġassoci ate
Ġdisplay s
i NdEx
Ġdriv ers
] -->
col s
ear n
hem atics
d type
ĠĠĠĠĠĠĠĠĠĠĠĠĠĠĠĠĠĠĠĠĠĠĠĠĠĠĠĠĠĠĠĠ ĠĠĠĠĠĠĠĠĠĠĠĠĠ
TIME OUT
Ġp seud
ĠB inary
ĠEd ward
ĠChrist mas
Ġtit les
t ls
p rom
am ar
set length
Ġband width
Ġ\, ,
ĠPr ince
Ġl azy
Ġback ward
ĠSD K
ĠMin istry
) ~\
Ġmechan ical
> =
ol ation
Ter min
ĠPro tocol
Ġmar riage
ĠâĢ ¢
16 9
contin u
host name
Ġset Up
ĠSystem s
Ġphot ograph
s imp
Ġhum ans
Ġfact s
book s
fra ction
Ġkind s
St e
ĠW ho
TO P
}\ }$
conf irmed
ĠD rop
Ġsh orter
calcul ate
Ġco al
m ixed
ĠM IN
bl ur
ĠIll inois
Ġneg ligible
Ġre act
ĠE uler
sh ot
Re cogn
( <
}} </
re ports
c url
miss ible
ĠColumb ia
Ġd ummy
g ate
Ġjo urney
Ġp un
Ġpen alty
G ood
ĠC artesian
la unch
de m
Ġ$ ("#
ãģ Ļ
M X
ĠWh y
Ġeffect iveness
Fin ished
ĠDefault s
ĠF LA
al ways
ĠDE BUG
Ġgeodes ic
ĠC at
Ġimag inary
Ġsw ap
V IS
Ġaut orest
ĠPort ug
rom ium
ĠValue Error
ĠN C
Ġme dic
ĠD utch
Ġ' ;
Ġre aching
Ġlo se
Ġphenomen on
ab b
Ġconc ert
Ġn m
Max imum
p ane
Ġdoc s
Writ able
ĠH an
Ġrout ine
L ife
in crement
v ectors
Ġdifficult y
} `
Ġ( +
center line
Ġpers istent
Numer ic
I EEE
c rypto
LOC AL
ri ers
pro tect
Add itional
ĠR od
Ġin jection
ĠDocument ation
x FF
com mod
Ġprov iders
Ġtrans mit
RO P
ĠH or
Ġk ids
Ġinv olve
Ġhom ot
) `
ĠA tomic
Ġfamil iar
Ð ³
IL L
Ġreve al
20 2
ik a
~~~~~~~~ ~~~~~~~~
E valu
h ig
ach er
\| _{\
Comp ile
ĠSim ilar
Ġ ÑĤ
Ġsimpl ified
13 6
Ġpop up
ĠSaf ari
OFF SET
M AND
amp ions
ar ations
se ason
Ġco pied
erm it
Ġm p
Ġprof essor
FIL TER
uch y
D ER
;& #
UD ING
Ġs oc
ivari ate
g em
Ġretr ieved
liz abeth
ĠM ove
19 61
Ġproof s
ĠProf essor
=" //
Ġcircum st
M ajor
end o
Ġin dependence
ĠR x
big skip
ĠL ET
\ }}
ST EM
Ġo ct
ĠK o
LE AN
Ġspec ifying
Ġdebug ging
NOS CRIPT
U X
Ġ Ã©
ul um
de ps
Ġch rome
' </
pol ar
for ge
Ġ{ ?
SE CON
Ġsymme tries
ĠPl ace
Ġb igger
Ġcre w
enn es
ĠSecret ary
en coder
un tains
Ġca ught
Ġst y
H ard
Ġmag ic
Ġput s
Ġp ole
l brace
REQ UI
ot ers
ĠC rypto
C od
æ ī
ãĤ Ĵ
S yn
or ters
b j
P an
VER TEX
d id
Ġhost ed
Ġg radients
ĠSty le
" |
P lain
dis pose
urs ively
Ġw inter
P ID
Ġform ally
=' #
Ġin duct
ER Y
Ġconst expr
he t
un def
Ġarg ue
C riteria
ant ed
ĠPhil ipp
30 4
Ġsw it
inherit doc
h ad
Ġ' \\
ĠMark et
Ġ ì
ĠP ur
ct ype
Ġmod ifications
ĠOx ford
Ġ" (
Ġf er
Ġme mo
' "
current Time
analy tics
ĠERR OR
S amp
out ube
S el
B ra
Ġpres erved
ON LY
Ġcontain ers
or ney
ĠE S
Ġb are
arg o
Util ity
Ġadv oc
inherit Doc
Z Z
å º
Ex ist
C areer
ĠE mpty
so ap
æĺ ¯
ĠTr ust
ex emp
r ans
Ġcap ability
ĠF low
IS H
C laim
ĠR en
est imate
Vertex Attrib
C at
Ġprov ision
Ġexplo red
B AD
Ġmach ines
Ġde leg
Ġf lo
Ġax es
Ġsatell ite
umul ative
Ġcyc lic
od b
Ġre new
OP ER
o cal
Ġsub mitted
DI O
std lib
Ġp ipe
UM N
=" <?
Ð¾Ð ¼
x d
Ġ} (
ure au
ĠW is
ĠAr gs
ĠA sh
Ġult imately
FUN C
ĠO O
port folio
Ġindex ed
E scape
ang el
Ġch ose
bra ins
IS O
Ġg a
V P
Ġde ps
Th ree
Ġse d
res olver
Ġrequ iring
ĠEn um
sh iv
EN SION
VER R
ab a
of ill
Ġvanish ing
Ġd iversity
ĠIs lands
r w
G s
ĠC hen
= {\
"> ,</
ĠRe v
indu ced
Ġa id
ĠB and
ren ce
Ġrefer enced
Ï ħ
ĠA F
h ill
N s
EX P
url s
Ġinj ury
Clo sure
U INT
Ġhyper bolic
}$ ).
Ġwh atever
ĠVis ual
Ġbo y
Ġin equalities
sh ader
igh th
Ġc rypt
ĠP od
? ,
par ame
ĠD ark
add le
TH READ
Ġcr iminal
BO OST
as cii
thumb nail
ut r
az el
Ġcomput ations
ĠR ic
+ |
Ġinit With
We ak
display math
inger print
Ġfavor ite
f ar
Ġhe ap
H ol
pret ty
Ġmod ular
P in
C ircle
Ġ} $
Ġenc rypted
Me an
ĠLo op
ĠBe ach
Ġ[ (
GR AM
GLE W
Ġsh a
call s
} ',
user Agent
ĠGu ard
ĠEV ENT
u de
ĠC ost
Ġs ale
w b
ĠC ra
B rit
re try
ĠV M
Ch at
ag en
av atar
back up
Ġpost ed
ĠY ES
Ġun ivers
AC CESS
O IN
ĠH ong
amp ing
Ġtrans lated
n able
k ern
Ġadapt ive
ĠGovern or
Ġoscill ations
ĠRuntime Exception
Ġhouse holds
ĠSup p
Ġs quad
): =\
pay ment
ĠGL float
Ġf ixture
ser if
Ġadapt ation
Q T
Ġpolit ics
C LO
Map s
ĠF ast
ng doc
Ġfeat uring
big gr
=" {
ĠR GB
Ġcon clusions
im ize
ER O
P en
to ms
datab ind
ĠSto ck
C LA
Ġp b
T ON
lim inary
Dir ty
G F
int ent
Ġsex ual
Tool tip
H it
d up
Ġcent ers
Ġread ers
ĠSt ation
ss h
w orth
est s
de leted
Ġa cknowled
ĠL ib
Ġo prot
ĠS F
bottom rule
Ġassess ment
ĠM ode
bal ena
Ġme ss
Ġlimit ing
ĠMass achusetts
Ġ ../
k an
US Y
tab End
V ars
Ġmin i
g b
Ġconver ge
Ġexperi enced
ORM AL
Ġserial ize
Al tern
pres erve
)\ ,\
scroll Top
Ho oks
Ġsever e
Button s
Ġoffer ing
d or
ĠP arent
Ġv otes
Ġl t
/ ,
al ink
Ã ½
= </
Col lect
US H
Sta mp
Ġrel ativ
ĠN eg
sw ift
hent icate
et her
ĠL ocation
Ġun ity
record s
}) ();
Ġ'/ '
Ġrig id
2 10
P ull
w heel
Ġaccept s
Ġrecover ed
"> "
her lands
Ġscen es
Ġcollect ive
Ġb ins
Ġ' &
UL AR
j b
o es
Ġt unnel
12 34
Ġhouse s
ĠT E
' -
p aint
Con clusion
Ġd ash
out heast
E valuation
y ellow
S olution
Ġcomp oser
Ġatt end
ur bed
ÐµÐ½ Ð¸
Ġsqu ares
Ġt ends
~~ ~
o unger
off s
Ġarr ive
lef trightarrow
C li
) ~
lo s
M al
Ġm useum
Ġg iant
Ġll vm
get Logger
B ODY
] _{
add on
ul us
ol s
ch ars
^{ [
Ġerr no
Ġaccess key
Ġre write
S outh
th ur
CC CC
Ġre lies
ĠCh art
Ġcount ing
Ġappro ved
Ġsur prising
writ ing
CONT ENT
ug ar
map per
Ġarr ang
Ġsh ut
big gl
Ġd type
ho ma
Ġsur g
ĠSk y
Ġb ond
Ġslow ly
filter ed
ex c
ĠS and
Ġex clusive
Ġd w
ac ion
Com ments
0 10
H A
Ġ" {
Ġcomp lement
ĠG W
ĠP latform
^ -$
ĠL ew
ctx t
æĸ ĩ
tr unc
im ap
Ġphil osoph
Ġk ick
jet brains
Un iversity
er gy
del phia
Get Type
Ġmark up
19 58
feed back
max imum
r brace
respect ively
ĠP ra
rece iver
j u
ĠPol and
WIN DO
LOB AL
E v
Ġb ass
app y
DO CK
Ð¾Ð ±
yst yle
Ġform atted
Ġcon cerning
Ġqu ote
Ġaff ili
NAME SPACE
add itional
ĠRes ources
Content Type
W M
80 80
E m
Ð°Ð »
ĠD oc
h skip
Ġdeliver ed
Ġcav ity
ans wer
Ġenumer able
Ġa wards
PO SE
Ġd f
Part icle
quant um
b ol
Ġdeal ing
Ġa mp
Ġan onymous
Ġfav our
Ġ ĉĉ
Ġd ance
clo sure
S y
^ +\
22 4
ht bp
sub st
Ġ ----------------
Start ed
Ð ±
Ġco medy
Any Ref
Op acity
Ġad vice
U DE
Ġinteract ing
")) );
Ġuniqu ely
MO VE
pers istence
Ġb ubble
Ġapp reci
xx xx
dim en
d ns
ĠJ oh
h dr
Ġg rows
ap ons
Ġ ^{\
BE GIN
ĠR T
"/> .
ertific ates
Per formance
Im mediate
ĠMe V
ĠF IX
Ã ł
pan ic
2 30
4 50
ip ients
ĠĠĠĠĠĠĠĠĠĠĠĠĠĠ Ċ
Ġsem antics
}}\ \
Ġde serial
ĠCon sequently
R a
ĠP OST
st ock
Ġp our
Ġarg ued
Ġstart up
Set ter
re lax
Ġc ategor
Ġsh ifts
TO KEN
Ġre in
Ġm yst
Ġon going
ent ities
ord on
Iss ue
' (\
Q A
). </
pre d
sp it
Ġab elian
Ġexpl oration
Ġrank ing
match er
Ġsus pect
}$ ;
ĠSk ip
s ymmetric
Ġpolitic ians
if ting
}} -
callback s
) !
Ġsuc ceeded
. (*
block quote
n ik
r p
ç ½
Ġas ynchronous
Ġa rises
Re peat
ĠDes cribe
ĠAnd rew
ĠD R
ext ended
Ġproport ion
F all
Ġg ained
ĠR ect
Ġend points
loy ee
ĠE ffect
+ -
Ġro uting
Ġmeas uring
olog ist
it uting
que e
phys ics
Ġvari ability
ĠS elf
19 59
Ġp ng
Ġw arnings
ool s
th in
K L
Up dates
ĠDi agnostic
CL K
Ġmain tained
ins pect
ĠC E
ĠAir port
as List
document ation
Ġearn ed
FAIL URE
c art
solut ely
atri ate
Ġincreasing ly
sh ake
Ġho oks
Ġtot ally
ig e
eloc ity
Ġelse if
aut hentication
Re fer
s uggest
val s
unn y
Ġnot able
================ ========
C UMENT
Ġmark s
Ġcontinu ity
ĠP attern
Fil ms
Ġs ight
ĠCont roller
Ġdiagnost ic
st reet
ĠE U
bibli ograph
ĠA gain
Ġst rain
dir ty
ADD RESS
Serial ize
ĠV en
Poly gon
cell s
FA ILED
ul ates
Ġh int
B IN
Ġvar ies
ur istic
cover ed
Ġmark ets
is Object
Ġplan ets
j boss
x t
bibliograph ystyle
D ue
Ġb an
Ġviol ence
us cript
d al
Ġg reatest
19 56
ĠAn aly
Ġpro c
D ocker
p mb
ĠUtil s
var pi
for um
ho oks
ĠR om
12 6
vert ices
get Parent
AC CE
b ow
Ġdip ole
ors ion
Ġcommit tee
Ġb urst
Ġimpro ves
\\ \
out line
jsp x
ĠR og
h ls
Ġmembers hip
ĠLET TER
p w
Ġr ating
constraint s
F ault
Ġgre w
nt ario
19 44
col og
ĠBay esian
Ġanim ated
( ?:
am an
Exp and
Ġperson nel
Ġde coding
Ġshift ed
Ġbar rier
Ġt c
Ġfl av
ĠF ood
Ġsub tract
j it
rec v
ump y
Out Of
$ (\
Ġim mun
ĠKe ep
Ġst im
Ke ep
M irror
Ġsummar ized
ĠChild ren
ht b
int enance
t odo
Ġsing les
ĠRespon d
Ġdis order
}] $
Cur ve
q t
Ġh all
Ġpartition s
it on
}} +\
di e
Ġheav ily
Ġequ ally
U nd
n oc
ĠT otal
ĠG er
Ġaffect s
Ġ( __
Ġcomp ressed
Ġf ly
Un icode
c nt
Ġradi i
V ersions
* {-
cell color
ĠUn icode
s ynthesize
Ġav ailability
Ġco ords
g ar
ĠL uc
ä¸ ª
Ġte aching
ĠLore ntz
Ġif rame
Ġresource GroupName
I o
Ġsh allow
Person al
ĠBer lin
ĠCoun try
Ġh a
G esture
}}\ ,
R pc
ig rate
gener ation
ĠMus lim
Ġfile Name
Ġf ell
Ġp reference
ap ore
(( (
ĠPy Object
Conf lict
Ġlock ed
ĠT a
di o
ĠInt eg
ĠCOL SPAN
19 0
tr on
Transform er
read able
Ġobserv ational
Ø ³
}} ;
Ġ$ ('.
Ġr v
Ġtra iling
MPL ATE
ev in
Ġ um
Key Value
Ġcr isis
initial ized
19 57
min ute
CO RE
ĠS PI
(" ../
Ġform ing
B en
ĠApp ly
to k
he at
comp uted
CL IENT
as is
vi ation
ĠTrans form
Ġrespons ibility
Ġ )$
Ġint ention
plac ed
Ġe mitted
NO TE
atern ion
we ather
E B
ee ded
20 4
17 5
ces ses
n f
New s
ĠK a
Ġa z
Ġd uplicate
cre p
Ġc utoff
ĠU TC
$ --
h op
de term
ph abet
log ical
q a
R TC
ĠA V
ĠPo inter
AL LOW
Ġsingular ity
ĠA lice
-> ]
ĠA k
B etween
Ġcon tr
Ġsp ons
"> #
ĠU INT
Ġi OS
Ġex ercise
ex e
n or
Ġr aces
re cogn
ĠS yn
Ġanno unce
G H
Ġbelong ing
Ġin variance
Ġco uncil
aw ay
AS A
ent ed
Ġm ent
Ġexec utor
ĠC ell
to Array
Ġd yn
Ġin ferred
Ex tended
ĠIN T
ĠK now
g tr
Ġj e
Ġexpl ains
Ġreve als
Ġbright ness
y ard
Ð Ł
Ġdesign s
}} }{\
al actic
d AtA
iv o
ĠP ART
sub title
b ian
%%%%%%%% %%%%%%%%
Ġcomprehen sive
ze ch
ĠT uesday
Ġlo sing
Ġw ww
de velopment
S at
Ġ\| _{
D ifference
ĠStep hen
ĠRE AD
sing ular
ov y
Q R
ĠSup reme
Ġst orm
ce q
be havior
Ġtransform s
Ġocc asion
) /\
ST ORE
ĠRes erved
Ġsess ions
inter pol
Ġcom fort
inter faces
ing ly
normal ized
ĠJ ordan
Sw ift
Ġpar ity
ĠR os
ĠH art
Ġent r
ĠCO MP
gu ard
Coll ision
ĠST AT
ĠJe an
Sub st
expect s
Ġconvolution al
W ITH
7 68
]] ></
Throw able
Ġoccup ied
Ġb t
sess ment
Ġadd ressed
Ġ rom
}} ^{(
Ġsc oring
Ġbr ings
Ġsw im
T ake
Ġimpro ving
)( -
E p
Ġult ra
ph ot
Ġrobust ness
Ġt ear
W IDTH
ĠAPI ENTRY
Position s
N ov
Ġarg c
W D
re vision
Ġa stro
CT RL
Ġd ry
^ *}
ĠTh ursday
! ");
moment um
d in
Ġferm ions
Ġest ate
Mut ex
ĠG ib
Ġsil ver
BIT S
Ġcloud s
Ġreflect ed
Ġhistor ic
Kn own
dash board
Ġcaref ul
Ġh older
F ee
Ġp index
Ġh ack
Match ers
Ġcompet itive
Ġt iming
}\ !
Ġsu it
ĠAm ong
ĠC lean
P references
st ation
Ġexpand ing
Ġp et
ĠN N
eg a
ĠÐ ¼
sort ed
ĠFr ont
ĠPak istan
B er
Neg ative
B and
E val
S ym
ĠAl loc
< >(
ĠED IT
ĠDis able
UB LE
b id
Ġarchitect ures
DE V
Ġw ins
class List
ĠH ung
ĠL ind
ĠB UT
ĠSt ory
Ġag ric
å °
Ġdig its
integ ration
Ġfrag ments
child Nodes
Ġaccur ately
at trib
a verage
ly wood
ck s
(' :
ĠAl tern
ĠCOP Y
colon eqq
P t
g row
(_ .
n th
ĠG ENER
ow a
end a
S amples
ĠD WORD
por ter
Ġhol omorphic
b idden
ĠS DL
Ġun a
b ash
OUT PUT
Ġdual ity
Ġk id
comp ressed
Ġt ar
ĠV iet
b et
ir s
- }
Ġh istogram
con sin
ke eper
ci pher
Component Model
Ġca ption
Ġnew Value
pert urb
algorithm ic
ĠM achine
) ";
ay er
ĠPol ish
sc atter
AS K
ĠMin nesota
Ġint u
P AGE
Ġtr iggers
Ġse es
æ ł
resize box
P F
ject ive
AP PLICATION
Ġre form
poly mer
ĠE r
{ }{
ĠC are
AD C
Number Of
en h
Ġcontrib uted
Pl us
Ġy es
Ġclub s
19 48
ĠCom b
Work space
EN S
cy cl
Ġv ent
Ġsim ulate
Ġmarket ing
M N
ex perimental
Ġfor get
14 5
il lo
Ġag ency
class ic
H is
author ization
Ġdis placement
á »
Volume Source
Ġdrop down
Ġext ending
++ ++
lect ric
Request ed
play back
, +
Ġin ternet
Bound ing
Ġauthor ities
ĠR ES
ĠO B
ĠNever theless
ag on
ce ived
19 52
ĠWith out
EQ UAL
ube let
Ġde cade
Bind ings
ag g
\' {
ĠSt atic
Ġcheck sum
Ġpoint ing
ĠValid ation
itud inal
] _
ĠS S
ĠĠĠĠĠĠĠĠĠĠĠĠĠĠĠĠĠĠĠĠĠĠĠĠĠĠĠĠĠĠĠĠ ĠĠĠĠĠĠĠĠĠĠĠĠĠĠĠĠ
dim ensions
ĠP L
Ġepoch s
n v
Ġj q
; ;
Ġs pi
ile y
ĠE ric
ĉĉĉ ĠĠĠ
Ġeast ern
u pt
For Key
å Į
Target s
Ġvari ational
Ġprotocol s
ĠS K
Ġacc essed
-> {
Ġr b
Ġcont rovers
Rep resentation
SER VICE
product s
Ġgraph ics
Ġland scape
G re
Ġwe alth
> ("
w rapped
NR AS
N orth
Ġc ards
eng ers
TH E
Ġn ic
ĠY es
Ġins ight
ĠMod ern
Phys ics
Ġu uid
Log ical
Lin ux
Rect angle
Ġj ets
Ġdig it
tt ify
Do es
ĠV olume
Id le
C amp
d og
pp le
ĠS her
b v
F un
Ġm ort
log s
Ent ities
Ï Ĥ
button Element
Index ed
Ġac commod
NE SS
vet ica
border ed
mk dir
ĠB la
Ġan ten
ask a
Ġ nd
Ġacc ord
Ġsens ors
Prob lem
Î ¼
Ġnot ing
Ġr ural
Pro jection
p ure
diag onal
il de
/* .
Ġlimit ation
ĠA th
Ġ$ -$
Ġdr ift
ag ement
ĠS on
Ġre vision
Ġun like
VERR IDE
19 39
Ġcon sequences
F our
Ġac id
b ec
ig o
ist ribution
Ġarriv al
resource GroupName
ĠV ill
ort heast
I ll
Ġsimpl ify
put y
Ġv ast
start ed
ĠAnd re
Ġret ired
Ġsch olar
_{ {
Ġ" *
20 8
ĠI Enumerable
Ġsign ing
2 64
Ġr is
di a
âĢ ¢
19 00
SE SSION
Ġdetermin ation
Ġmodul i
Ġdynam ically
}, \\
30 1
ĠCOM MAND
× ª
Ġthis Arg
Ġgra de
Ġm ic
class ification
ma ker
Ġprov ince
Ġb attery
ĠOn line
Ġk not
ĠB egin
} ")
Ġsearch ing
ĠR aw
Ġmo untain
Ġcancell ation
Ġb ath
Ġto u
R anges
tra its
ur is
Ġb uffers
ĠBo oks
Ġind irect
ĠC ONT
Ġph on
Ġsimp ler
Dis covery
Ġ* (
/ ************************************************************************
Ġb eta
Trans late
W I
x rightarrow
Ġattemp ted
ĠC reek
see k
Ġstand ing
Dis pose
Ġme s
Ġcl ar
child node
ĠSte ve
ro ut
Ġover head
ipher al
exp lo
c ers
}} _\
Image View
corre lation
" ):
To Array
Ġexpert s
ĠVictor ia
14 3
f ee
Ġtalk ing
S CHE
Ġ< ![
Ġfoot er
Ġrank ed
Ġ" __
Ġz eros
N L
b urn
ist a
; =
Ġcon servative
Event Type
id ad
Ġencounter ed
Ġover come
per m
Rem oved
2 60
A mazon
C irc
le arn
Ġsu dden
Cal c
R ew
ĠD ynamic
ĠEx press
o pher
Ġb at
æ į
att achment
Ġmin ing
DE CL
+ $
ĠC atalog
ĠS ong
ak h
Ġm ental
Ga ussian
b uffers
to s
Print f
Ġsepar ator
p v
ĠT oday
2 25
Cre ator
E MPTY
Ġno isy
Ġthere by
Ġman ifolds
Symbol s
P TR
ĠL es
limit ed
Ġtr uly
"> Â
ĠE lizabeth
luc ene
Ġglob ally
Ġent ering
Ġpa inter
Ġc urrency
ĠI M
Dependency Injection
st an
elect ron
Min imum
Ġ- &
Ġbel ie
ENABLE D
Ġ{ });
'] [
C he
ress ive
Ã «
Ġver bose
k u
ĠA pi
el n
Ġad mit
R X
Proc Address
$ ^{\
Ġs ac
ĠSh ape
moz illa
Ġquark s
Ġw heel
AT IVE
ĠRE G
ĠMedic ine
13 1
El se
W ell
Work s
Ġansw ers
ĠPhys ics
ĠAn th
ĠDec l
Ġ' __
zon a
Ġinterest s
ermit ian
R ich
us ive
Âł Âł
ĠA DD
AT T
Ġvis itor
Ġtro ops
Ġphys ic
Ã ¦
enn y
}] \
Ġper mitted
Ġ' --
'' '
Ġleg isl
15 2
Ġco ding
C AN
ĠC irc
19 55
Un ion
}) }\
Ġab and
Ġprinc iples
Ġdetect ors
ĠT al
ĠÐ ±
Ġsp rintf
G itHub
N EXT
ĠC M
M icro
ĠG reg
ĠR ome
ĠUn iverse
ĠF ox
Enumer ator
Ġs alt
correspon ding
Ġful fill
c rypt
Ġbase s
ĠK on
Ġsol ver
Ġgreat ly
Out er
H W
ĠNet herlands
RE C
exemp lar
Pr inter
ĠN u
has Next
own ed
ĠCon tact
'' .
Ġtemp or
Ġchampion ship
mention ed
ĠF ake
parameter Value
ers core
Ġ iv
parse Int
Ar n
S ports
i ac
get User
can onical
. ')
Ġ{ (
ĠK al
ub es
LI ED
C AT
er or
Ġoff sets
c id
F ACE
Ġsp acing
b urst
effect ive
get Path
base line
R aises
Ġown ers
Pre c
Ġs now
In deed
]. [
Ġmer ger
ĠA venue
Ġdemonstr ates
A ge
Ġ$ -\
\!\! \!\!
work ing
Que stion
prop ag
ĠWed nesday
Ġrelativ istic
Ġmin ister
Ġke eps
DE SC
coup ling
Ġg od
4 000
Ġselect ing
graph s
ĠR aj
Ġmet av
? )
el a
rece ive
. #
Ġgir ls
ED IT
Ġy ounger
Ġo ps
et ype
ĠH al
Ġob st
VAR I
ĠS ql
l ater
Ã§ Ã£o
Cred ential
Ġo x
Qu ick
Hand ling
Te X
Ġing re
del im
co ins
ĠA B
]{ ./
Ġmatch er
ĠH ay
Ġquant itative
] ',
Ġsol o
Ġmode led
un es
Ġrec ru
L IMIT
Ġtrend s
Linear Layout
EN UM
x ref
ĠD etermin
Ġher self
ĠBel g
() "
ĠC I
Ġanom aly
CONT RO
evalu ate
C op
access or
At Index
Ġle ct
type Name
Ġre actions
Un marshal
o ct
Th m
C art
SE C
abil istic
Ġre tail
13 7
Ġ) :
Ġsv g
ast y
ĠDav is
it ize
Ġwork flow
Ġf at
ution s
Fin ish
:: ~
L ess
IF Y
ĠA SC
Assert ion
ĠDeep Copy
ren a
j an
ãĥ ³
Ġturn ing
Qu ad
I OS
Ġen velope
Ġterr itory
urch ase
ĠFact ory
Ġ[ ])
Ġhelp ing
ap sed
Ġexec uting
Ġsupp ressed
Project s
Ġcontext s
Ġev ident
Ġ================================================================= ========
MS earch
ĠC V
ma king
C ACHE
it atively
tw ig
13 4
T rip
cut s
Ġf printf
un icode
Ġre venue
jav ase
a ac
AR N
R ay
ĠS eq
es Module
Ġwh itespace
ĠPro gress
sl ashed
}} )\
ä» ¶
ĠI o
Ch rist
Text Field
ring tone
em an
Ġphot os
nav Bar
g ulp
ĠA lf
ĠKore an
ĠS ample
] ])
Ġemploy ee
Ġcalcul ating
Ġbuild s
our i
Ġex tern
Spr ing
æ İ
}} ^\
ĠM ETH
dat as
BO X
ĠB ridge
Ġshould n
Ġcre ative
Or d
Ġre named
$ =
man ifold
Ġneutr inos
Ġpil ot
19 42
ĠTor onto
Ġreg isters
State Exception
ĠTra ining
ĠGal actic
Ġthe ad
re levant
u its
im ers
ĠP os
ĠM arg
× Ķ
h or
urn als
19 46
st y
cap acity
re main
ro bot
iffer ential
ĠOb serv
k top
20 3
ĠN iger
Qu ota
Ġadjust ed
b rew
@{ }}
Depend encies
Ġp id
Ġpublic ly
| }{\
> #
ĠIn fo
View er
Ġ@ @
S il
um ann
Ġh orse
Ġvalu able
Or Empty
A ustral
H EL
Ġcond ens
Co ordinate
ĠDeta ils
00 000
h ub
co w
big oplus
ĠDo ug
Ã ª
Ġs z
Ġde pos
B IND
d ney
c riteria
Contain ers
v dash
[ {\
12 9
Ġad res
hl js
gtr sim
ĠG O
00 4
assert Same
be am
Ġthick ness
Con nected
Ġreconstruct ed
Ġv i
Ġdiv ide
Ġcon temporary
Ġchar s
hib ernate
Ġh ockey
TR ACE
st retch
Ġ' *
DB LP
: **
is ations
Ġs and
ial ect
ĠIn sert
Ġfair ly
Ġprof ession
}{ $
Ġin h
print StackTrace
Ver b
A ug
R D
Ĺ ãģ
ĠAPI s
ĠB reak
~ {\
Exp licit
}\ )
Ġres ign
h us
reed y
_{ (\
ĠG uid
Ġjud ge
Ġst retch
A rm
ad ers
Ġst ops
Ġ utf
ĠScott ish
Ġre ci
Ġg ro
ĠUs age
Artic le
{ |\
O s
}$ $
y ield
Ġevalu ating
M NRAS
Ġl hs
Ġnull able
insert Before
Ġhouse hold
________ ________
to urs
") ).
Ġrelease s
ir r
é ĩ
pro mpt
Ġp kg
}$ ),
at im
asm ine
pro gra
Ġcamp us
M gr
Ġa xi
ty ped
Ġtor us
O Auth
ĠP riv
Ġb io
Ġtyp ed
ĠCh air
ust on
IT EM
uby te
Ġs sl
B ug
ĠB BC
ĠCan vas
C NN
16 5
Ġes c
x b
ĠL td
S al
Code s
ĠGold en
Ġprom oted
ĠExec ute
ens ively
M Q
Ap is
19 47
Ġcons ist
Ġinject ed
S uggest
ĠSe ason
ĠO s
Ġsqu ared
ĠP ot
Ġprom ising
ĠS A
Ġmetal licity
Ġimp osed
Ġint elligence
ab atic
COM PI
pl orer
det ach
Compar ator
> @
Ġoffic ially
Ġpack ets
q s
ul omb
) ");
erm ine
Ġlat ency
per form
Ġpat ches
Ġfem ales
ä ¿
Ġbase ball
Ġimplement ing
an not
LE ASE
Ġil legal
Ġpl acement
Ġphenomen a
S us
(' [
Ar c
ch ip
19 43
an th
Ġpe ers
ĠRo ss
clean up
n P
Perm alink
ore l
Ġconsistent ly
Ġbehavi ors
level s
Ġput ting
ĠF orest
ast ers
Inter faces
Ġact ress
u ver
f ixture
Ġun e
Ġround s
ere f
ĠB or
IN TEGER
ener ated
ĠID s
samp ling
ĠE P
ĠHe art
CP P
CHAN NEL
ĠC er
). $$
Ġun lock
s us
Ġlog ged
re load
Buffer ed
con struction
ant asy
M ixed
ĠB U
D ays
di ents
Ġm i
comp letion
Ġin cl
Ġsk ew
Ġmechan ics
Ġcancel led
Ù Ĭ
Ġsoldi ers
O UR
i ot
Ġad joint
P lugins
Ġreason ing
ain ing
Ġenc lo
P LAY
qu arters
ĠBuild ing
P TED
ĠS ound
Ġop ens
ĠArg ent
Ġdelay ed
Brit ish
& +
Ġisot ropic
Ġperman ent
ch arg
}; \
ub a
R P
ĠLine ar
che stra
ĠOper a
il inx
Ġprint ed
mix ins
Diagnost ic
3 75
Ġquant ization
Ġorient ed
Ġstr len
re nt
Ġis o
Icon Error
In crement
f ish
ra q
å ĩ
Ġnucle i
> *
ĠI l
T or
Con nections
ĠPro of
ĠHash Set
Ġferm ion
Ġser v
ĠAt lantic
uck s
Supp lier
ĠO ffic
im o
o ses
ĠSm art
ĠSu ccess
n as
Ġass istant
Ġcharacter ization
BU F
host s
FO UND
ĠC apt
. {
un used
ĠU ri
T CP
Col s
Ġinv ocation
INTER N
B uffers
Ġh aven
Re ject
Comp uted
Ð½ Ð¾
Ġexhib its
P LA
G EN
unt u
Sh ard
ac ian
ĠN ations
19 41
â Ĥ¬
UR POSE
Block Index
ĠFore ign
Ġa co
Ġtw enty
Ġhe ating
19 53
o ma
}) :
m ine
ĠM ER
}$ :
Ġscr atch
keyword s
Ġno op
Ġexponent ially
ĠR ot
Ad just
Ġflex ible
f lip
ĠChar acter
Enc ryption
U uid
^{ {\
K K
Ġs mo
Ġh over
int on
Ġdo ctor
it ro
ĠT erm
Ġtool bar
Ġnewsp aper
B uilt
ic ast
effect s
ĠS oc
ĠCom ment
Ġlo an
Dim ensions
l ad
Ĩ Ĵ
ĠTh ird
LA S
PRE SS
Ġc ash
Ġwin ners
har mon
Ġcomp la
Ġalloc ate
un set
ĠF lo
con sumer
Analy zer
ĠArray s
ĠRem ote
ĠPhil a
Ġu id
arb age
Ġ( []
Get ProcAddress
ĠIm Gui
alloc ate
ĠPub lish
Ġpair ing
): =
Ġvort ex
Ġexpect ations
Ġde veloper
ack now
pro cessed
du ate
38 4
( ["
Ġif f
L com
Ġin variants
ĠT ai
render ing
b readcrumb
Ġhot el
Aggreg ate
ĠW idget
ĠB ru
under brace
Ġmut ual
> ]
map red
Inf os
g m
Ġsent ences
Å Ł
Ġcons iders
ĠB us
Ġex ha
is i
de coder
Ġ/// <
e eq
mode s
ĠHel p
Ġr anging
weight ed
ĠRail way
Ġ( .
ĠB all
ey ond
g ro
Out come
se ls
Ġfeel ing
19 54
Ignore Case
Ġt abs
Ġd ots
count s
)} ]
Fl ash
onom ous
D NS
IST ER
Ġc ab
IconError Encoded
] ],
C urrency
Ġe at
Ġab solutely
Ġc d
Pi pe
ĠĠĠĠĠĠĠĠ ĠĊ
ĠA bb
Ġo mit
track er
war z
ag ues
remove Child
comp uter
ap im
Ġapproxim ated
pub lished
Ġresc ue
Ġre n
: {
b ank
lo ut
Ġcon current
B usiness
W ire
}{ !
Ġqu bit
the y
Ġfight ing
Ġm ales
ĠSan ta
Off ice
ĠA ge
Co verage
Ġcont est
Ġdiff ers
Ġtrans it
Ġchart s
com mut
Ġca usal
ĠH AVE
ĠF M
PE G
navBar Cell
M ON
Ġm ile
prov ide
ph ony
period ic
N ORMAL
Ġcompar isons
Ġart ificial
ç ±
G W
ĠD NA
S olver
bo urne
ĠT itle
Pos itive
2 11
A verage
ĠS NR
Ġfor th
ĠF unc
Ġsubst itution
ACCE PTED
j dbc
Ġvalid ator
| .
m ers
Ġse ats
Ġra in
d ra
** :
40 1
Ġprogram me
hand led
Ġsus cept
Ġdome stic
or ous
Tr im
rol led
Ġsupp ress
al ter
b eq
(' _
PT S
un ix
ĠY ang
Sort ed
Vis it
Ġco in
ĠWis consin
st ab
}} }}
ab olic
Ġ\ :
to gether
exemplar City
Ġl it
ĠPhila delphia
h c
n ecessary
Start ing
Ġtrans ient
Ġj unction
19 49
] \\
Initial izer
ĠLIMIT ED
it i
' ^
(' -
Ġbe an
Ġf ract
comp ilation
Ġappear ances
Ġi prot
Ġlo dash
flu x
g ateway
æ ŀ
From String
Ġsuper ior
E mit
å į
re ements
work space
serial izer
n atural
Ġ\ '
Ġdis ks
UNK NOWN
collection s
L and
Pr incipal
Channel s
am on
Ġcomb inator
ç Ľ
proto c
COMM AND
k ish
Ġdis crep
Ġfoc uses
ar o
AS H
Definition s
Ġcontinuous ly
ĠD om
Ġintrodu ces
}. $
Ġhundred s
ĠCamb ridge
ro uting
end ants
ĠRe volution
[ @
Ġco arse
out s
Ġsimple st
cknow ledge
ro les
)$ }
ENT S
Ġman uscript
oper ative
Ġour selves
Ġ[ `
member of
Str ict
n orth
Ġcon g
ang a
Ġun changed
CON TEXT
Ġa de
T W
è ¦
IP S
Ġover lay
ĠW allet
ĠAng ular
] }\
Ġvol unte
Ġadministr ative
min i
ĠAnt on
ĠS ys
Ġmotiv ated
Ġjo ining
l attice
ĠW inter
Ġgood s
Ġde generate
Y ES
ĠColor ado
wall paper
Ġfor cing
Ġw ing
ĠF ramework
imp ro
Ġapproxim ations
X Path
++ ){
15 5
De leted
m otion
Ġcontradi ct
A WS
ĠW eyl
ud o
ĠR ose
Ġelect romagnetic
document Element
Bound ary
ĠB rad
ĠC op
ãĢĤ </
ĠD ES
W rong
ĠFi refox
Ġlogarith mic
Ġrot ational
Ġworld wide
Ġexceed s
Ġhome s
dec imal
rupted Exception
Ġfail ures
' ><
Ġconjug ate
ost ream
g res
loc ations
Ġend l
ĠP ush
F old
] ^{\
sp y
Co ords
ĠVAL UE
ĠObject s
v ard
H over
z illa
ĠN orm
Ð½ Ñĭ
Ġfo under
ĠT ypes
sh int
ĠR L
Sp acing
rep resentation
ol er
Ġassert False
L azy
iv ation
ĠDemoc r
M en
lo ose
Ġsound s
Ġar ts
with in
b la
li est
Ġcommut ative
verb atim
min or
19 51
ĠFunction s
Ġsignature s
c z
d ynamics
reg istration
| {\
user Id
Ext ent
- "
' }(
as ide
pos al
ĠM ask
sw ith
æľ ī
ĠVari able
Ġdivis or
Re porter
As String
Hash Code
/ :
re dis
de generate
}) );
os c
Ġocc urrence
DEF INE
DOCK ED
Ġregular ity
las g
Track ing
me as
Ġ"/ "
ĠF lag
Pod s
pg sql
Ġdevi ations
, }
ma zing
. :
sp arse
reg on
rott le
Ġsear ches
Ġ$\ |\
Ġswitch ing
Ġass ist
ĠX XX
l v
symbol s
Ġlocal s
t pl
fold ing
) ](
r ub
ĠN FL
Sto pped
Ġco homology
ĠSw ift
ic i
Ġ"\ "
Ġtab index
dec ay
Ġst one
ĠS ide
Ġ/ \
ĠF ellow
Particip ant
ĠS n
ĠCh apter
Get Value
Ī Ĵ
Ex act
weight s
ĠModel s
rog ate
X HR
EX TERN
On line
f abric
Ġstop ping
cor r
Ġrot ating
Contin ue
us ual
ĠH H
Ġ' +
Ġar ising
67 8
f link
verse ly
ĠPl aces
Ġb undles
AR GS
L uc
Err s
ĠB at
ĠM icro
ĠP E
Property Name
Ġex emp
M r
=" .
Ġobserv ing
Ġsp ins
sc ious
Ġkernel s
Ðº Ð°
13 8
assert Raises
Serial ized
ĠMem bers
ĠSta ff
Ġtranslate X
ath y
ĠRE ST
h m
Ġp df
Sub scriber
Ġf lip
"> @
ome d
ç± »
c amp
(" ")]
organ ization
Ġparticip ate
Upper Case
id ge
ĠĠĠĠĠĠĠĠĠĠĠĠĠĠĠĠĠĠĠĠĠĠĠĠĠĠĠĠĠĠĠĠĠĠĠĠĠĠĠĠĠĠĠĠĠĠĠĠĠĠĠĠĠĠĠĠĠĠĠĠĠĠĠĠ ĠĠĠĠĠĠĠĠĠĠĠĠĠĠĠĠĠĠĠĠĠĠĠĠĠĠĠĠĠĠĠĠĠĠĠĠĠĠĠĠĠĠĠĠĠĠĠĠĠĠĠĠĠĠĠĠĠĠĠĠĠĠĠĠ
H ig
col lapsed
" <
s ens
**************** ********
Ġhead ing
Ġemer gency
P rom
R x
Ġer g
E urope
iv a
Ġqu iet
Ġincorpor ated
e igen
: ",
An swer
at z
r st
Ġc v
}) ^{\
Ġstructure d
ent ropy
el le
Ġhead s
Ġre pe
ennes see
D u
Ġpro test
ĠW i
prov ided
Ġatt achment
Arch ive
ac iÃ³n
is EqualTo
Spec ific
dim s
l ighter
et ched
M igration
Ġdistrib ute
Ex ceptions
SR C
Ġstrug g
co ck
sh im
ĠAt tributes
: ]
æ ³
re ng
Index es
Equ ation
Ġpoly gon
w c
Code Attribute
Ġfound ation
st ory
Match ing
^{ *}
ĠS co
Ġsuggest ing
Ġcr icket
cos ity
ĠRem oves
/ ',
urn ame
ĠM oh
ĠPh ot
D avid
ĠDirect ory
L u
ĠDep end
Ġv irus
ĠTra its
Ġred und
Ġvol atile
Ġdeploy ed
Ġattrib uted
ĠEd ge
Ġcommun ications
Le ave
][ <
ĠC ategory
Ġan imate
Ġhom omorphism
Ġ ------------------------------------------------
Ġhighlight ed
ACT IVE
Ġt icket
Ġform atter
Ġmeaning ful
le w
ĠExt ract
ĠP NG
Ġm ime
Ġconsum ers
ĠYou Tube
m cite
Ġmov ies
N ever
script ors
Ġaltern ate
) },\
pre sto
event Name
Ġet h
Ġequival ently
Ġco res
*) "
ĠIN CL
Ġescap ed
Ġc raft
Ġn ob
DEFIN ED
f ollowing
Ġt error
Ġy ards
' ></
)) :
Ġtra p
Ġr ings
Ġt ensors
pro g
ĠÂ »
Ġmultip licity
Ġfa de
ĠPer formance
") ),
olog ically
ĠSpec ifies
ĠF L
13 3
Ġb b
EX CEPT
pre ter
Ġaggreg ation
g d
ĠL ady
}. $$
ĠPri ze
RE ST
Ġ) \
ĠO ntario
te chn
Ġoper ational
Ġident ities
Par allel
Ġprov ing
Ġge o
Ġmultip lic
the se
pie ce
ĠT S
Ġb rown
Ġas ymmetry
tr ical
Ġgovern ed
Ġprepar ation
P ag
Ġse vent
Ġstri ke
ĠV o
Ġinter cept
Ġmy self
Ġ\, .
ash i
C atch
Ġrel ay
Mess aging
Ġhelp ers
ĠAdmin istration
re pos
ME DI
Ġdig est
ĠD ialog
ĠCON TRACT
el if
ĠP rep
ĠS IGN
Ġport s
Ġwatch ing
ĠAc cept
me th
^* ,
M ich
Ġ` --
IC S
depend s
| ,
LAB LE
Ġw o
P ur
en kins
g allery
Ġf lood
Ġbring ing
Ġsee med
Ġtrunc ated
ing ham
ĠP H
amb igu
qu ire
align ment
l vert
Ġte ch
22 2
Ġweek end
Call s
Ġobvious ly
A Y
Ġequal To
Ġsett lement
] "
start sWith
other wise
Ġwork space
Ġ$ $.
oci ate
Ġsymp lectic
ĠGL ubyte
Ġe mber
Ġconsider able
B ot
Ro les
target s
Ð» Ð¸
ĠG allery
ire ment
Ġcoinc ides
Ġtr aces
A ws
ĠC hem
semb les
Ġutil ize
ĠAdd itional
ud son
Ġar rows
Ġimp lications
char Code
Ġfootball er
ĠF ail
ĠR ole
Ġt ension
IC K
{ }\
ber ry
w eg
for ced
g as
Char Field
ap k
Ġk il
ĠAnd erson
key down
åľ ¨
g pu
ar on
pend icular
b our
Ġb ow
Ġin hib
c rit
K G
pro jection
13 9
Ġ{ :
Un ary
Ġco ord
Ġarbitr arily
w m
ĠM iller
Job s
ĠAut om
bi as
ĠC ome
ĠConvert s
sp ir
Ġtri als
ST Y
Ġor ange
Ġasymptot ically
m alloc
- $\
> ");
19 36
Ġcaref ully
ĠR ound
ĠMay be
h ort
key board
Ġann ih
Ġtrans f
A x
Ġl p
15 1
Ġtarget ed
ater al
Ġshe l
J ac
ĠN atural
k le
Ġp ushed
F ar
Ġun used
ob e
ĠSing apore
Ġcon cluded
ĠW ars
aren cy
Condition al
match ing
Ġcon versation
ĠTe le
' <
ĠL ess
AL LOC
ĠB u
)$ $
Ġobtain s
il st
do i
orient ed
ĠS pect
ch r
ĠIn clude
DI V
Ġmusic ians
Ġhomot opy
Code Analysis
pl ots
Ġcomb at
ĠE M
Sim ilar
Prototype Of
Ġf urn
exec utor
Ġteach ers
ĠW el
lev ance
i pt
View ById
Thread s
ĠL oc
Ġadd itive
d ip
ĠL HC
dis p
As pect
r ss
Ġwe ar
Sh ip
Ġsc ul
diag ram
ï ¿
ĠSwed ish
ĠC art
': '
Ġcon tour
). $
Ġhas n
ĠMar shal
ul i
ĠPar ser
wik ipedia
k ip
Ġfactor ization
Ġas king
ĠDown load
ag s
Ġget Name
ĠL ipschitz
acknow led
14 6
="../../../../../../ ../../
return Value
co cos
ĠBo y
Aggreg ation
Ġun icode
×Ļ ×
TE MPLATE
ĠProb lem
ĠB rian
* }\
. [
ut ility
Imp licit
ah n
ĠM ix
ĠE th
Ġpop ulated
ĠLew is
ĠF ord
am ination
Ġenhance ment
C Sharp
Ġdesign ated
Ġfoc using
o z
ĠB udd
Ġaccomp an
, &
C OR
L ANG
Ġma intenance
Ġext rem
Produ cer
Ġs oci
Ġcol s
po ssible
Ġminim izing
AN Y
Ġrep orter
Ġconstruct ing
Ġout flow
ĠPl ant
ench mark
Mod ify
ĠS quare
Ġcons ume
So ftware
n ic
Ġs ans
Le af
Ġalleg ed
exp onent
Ġhealth y
Ġpick ed
cre ation
k r
ĠM att
Ġmatter s
Ġstr m
Ġantic ip
Ġon Click
art icles
Ġvar s
ĠImp lement
od ge
:: _
^* (\
Ġcorrect ed
Ġsee king
ĠComp lex
Ġ[ _
ĠMo untain
æ Į
ĠLay er
Place holder
vent ions
Ġpair wise
16 6
Ð½ Ð¸
con cept
AR M
Ġillustr ates
h uman
}) }{
Ġconnect ivity
ÃŃ a
Ġsynt hesis
m ont
T s
Ġin ert
ot ype
ĠV ER
ĠS L
}) ^{-
Ġpurch ased
KEY WORD
Ġsh utdown
parent s
Ġsuper vised
_ '
), $
Ġtra ins
Field Value
Ġmark ers
Ġeng ines
Ġcircumst ances
Ġh ist
pro port
Ġjav adoc
6 55
ĠM UST
Ġab use
$ ]
xx x
l ift
Ġsaf ely
A sc
re name
}$ &
19 18
ĠD b
So ft
Ġp ra
Ġopp osition
Ġpat ent
Rest ore
f ocused
Ġcharacter ize
A O
Ġre interpret
)) =
Ġfrequ ent
col head
ams ung
Cred it
ed y
Ġsummar ize
Ġt uning
nes ses
set Property
class ical
C LE
H alf
Ġsum s
De vices
Ġr pc
Ġfall ing
PHP Excel
Ġh ierarchical
ex change
ĠP anel
Gener ation
Call able
Ġv ic
ASC II
ch apter
Ġsurve ys
8 000
å Ĩ
ĠM it
Table Name
ĠO cean
log ue
Ġintegr ate
Ġsingular ities
Ġn umpy
cre ase
y our
nav igator
d g
Ġperfect ly
Ġe cc
S dk
Ġlong est
resh olds
Ġd Ã©
00 7
Ġserial izer
L ex
M id
bas is
sh utdown
Ġoutper forms
T K
Ġnon trivial
ĠDe ad
ol y
Dig est
ev olution
ĠMag azine
y u
exp licit
INTERN AL
append ix
OB J
ĠOlymp ic
Ġph rase
vious ly
ĠArt icle
be zier
Dem o
ä¸ į
ĠL ar
sin h
ĠVis it
Ġw ider
Ġre use
Ġde gener
(' ');
HAS H
ĠT uple
Ġpay ments
Ġcopy ing
J NI
Ġformat ting
ĠG ree
Ġdefe at
ĠT reat
end l
Un supported
CA ST
Ġelse where
Ġins ights
Ġpro jections
Ġmis sed
class path
Ġadvert ising
Ġhon or
ad os
Ġm appings
Loc ations
)} =\
P icture
key frames
ĠCor ps
Ġmoment a
Ġg ates
Ġflux es
4 80
get All
ĠN ash
is lation
e en
Add resses
auth ors
Ġinflu enced
- {\
A tom
F ollow
"> {{
$& $
Ġm art
ĠP URPOSE
17 6
Ġpro hib
ĠE dition
M ime
ĠK r
Ġevery where
k v
Ð ¶
Ġ= &
ĠS el
7 50
Ġed iting
Ġt iny
al ph
C XX
V ote
ĠD ra
User Id
Prop Types
dot ted
Ġw elcome
st ellar
14 9
Ġaver aging
C apt
E F
get Item
ĠS olution
ĠO ffset
Ġadvant ages
Ġpartners hip
ĠSyntax Kind
Ġsuff ered
Ġv oting
Ġreal ize
per missions
Ġres olver
a ud
writ eln
H ot
ha us
Ġmount ed
accord ion
Ġop am
l ceil
m os
With in
ĠSe veral
W T
ac cel
14 8
Ġrecogn ize
6666 66
get Node
Ġinter active
First Name
? .
Ġcal ibr
ow nt
User Agent
2 80
Ġdeb ate
D ark
ĠTe ch
' ",
Ġp ause
Ġtranslate Y
Ġre volution
screens aver
Ġg rap
ĠEx pr
ĠMax imum
Ġa str
re lat
comp leted
ĠMar ia
Ġol dest
n umbers
Ġcons ensus
or b
Exp ressions
Ġgovern or
MA IL
set State
status Code
igen ous
St udio
ĠSy dney
$ }\
Ġass istance
Ġprom ises
und o
ffect ed
D K
N eeded
Ġeduc ational
m orph
B s
C Y
REF ER
RA W
\" {
ĠTh ose
Ġro of
ij k
ĠStud y
Ġ ic
\\ [
Ġpreser ves
Ġinstr uments
ĠR oot
eg u
aw ait
sing leton
ĠS ync
hen e
Ð°Ð º
is p
Ġl n
Ġacqu isition
P referred
ï¿ ½
el led
Ġth ir
Ġset ter
O h
ST OP
*} {\
}} /
T abs
ĠL ag
Ġcardinal ity
then Return
- %
Ġh arm
ĠThrow able
lu gg
im ity
Ġpro spect
W ild
Ġre serve
Ġblock ing
w en
15 7
oc c
Ġpre view
Ġsl ave
Ġmethod ology
k b
st atistics
Ġet hn
Ġgr an
19 37
Ġso ught
Ġl ua
ro utes
Ġscient ists
v irt
Ġ' );
ĠĠ ĉ
J av
ĠA mb
Ġauthor ization
Ġt um
ĠN an
EX PECT
19 34
Ġoper ates
Ġcarry ing
2 32
n od
ver ity
Ġdescri ptions
Å ¿
text style
ĠURL s
ĠW R
Integ ration
on av
err no
i ri
g ments
az e
contrib uted
ĠBro ok
Ġw s
CT L
itude s
IT NESS
Ġmap per
QU ERY
åı ĸ
Sm art
Click Listener
ass umption
Ġany where
< >
co sh
Ġexplo it
rece ived
SUP P
19 38
ĠMet adata
ĠP it
Ġun likely
att al
n at
ĠHar ry
< '
pag er
ĠAR M
( $\
Ġdirect ories
ĠB iden
ĠC K
Ġarrest ed
List View
dep loyment
Mark up
Ġdistingu ished
en ix
up grade
is String
Ġexam ined
M art
ig ible
ĠSwed en
l ace
ĉĉĉ Ġ
Ġvariable Length
" \
SH OT
ĠConst ants
Ġp ow
Ġc line
Ġm ine
ĠS ab
Ġpod s
ĠExec utive
A tomic
Ġse aled
ĠĠĠĠĠĠĠĠĠĠĠĠĠĠĠĠĠĠĠĠĠĠĠĠĠĠĠĠĠĠĠĠ ĠĠĠĠĠĠĠĠĠĠĠĠĠĠĠĠĠ
ser ted
ĠK er
def s
libr aries
ĠTur key
SE PAR
V s
set Timeout
ĠUn like
lim in
it utes
no op
Ġgre y
ĠW IN
tern als
Seg ments
ĠS av
ĠT C
Ġwe apons
dis crete
C y
19 19
ann y
Ġance stor
r hs
C ipher
scri bers
ĠD onald
W ater
Al ready
ĠF o
ml ink
sh ifts
z end
Ġf atal
s outh
Ġrec ipient
remain ing
ĠG itHub
ĠP ier
Ġ` <
Ab ort
gol ang
ular ity
am en
Ġcy cl
Ġqual itative
ĠInt el
as pect
ÑĨ Ð¸
C as
Ġfix es
S ING
h ou
sup ers
Ġsh rink
Ġdown stream
Ġref id
Ġdef inite
I FI
ĠM ouse
append To
ĠSc ient
ĠName space
Ġfriend ly
S pl
q ed
um s
De ferred
ĠAuth ors
RO WS
ĠN P
Ġas c
ign ite
Ġfill ing
Ġrestaur ant
Non Null
Ġtensor flow
Ġbo ught
Rep lication
Ġta ught
Ġcom ma
Ġmeas urable
ASS IGN
SN AP
"> .</
ĠG h
Ġt on
can not
Project Path
3333 3333
Ġtra ding
p ix
ĠFe b
f h
si rable
ĠM OD
ĠProv ides
D uplicate
it elist
de vices
Ġjust ice
CH ANT
lap sible
Comp atible
Ġde eper
back s
Ġ" &
ĠThe ory
Ġcomp ound
14 1
G LOBAL
init With
or med
Ġ# ##
Ġtra il
"] :
Ġaccept able
ĠN A
att ices
å ½
36 5
Ġshoot ing
Ġrest ored
S ock
or ne
ul s
ĠAri zona
ĠNot ification
S IG
U tf
Load Balancer
Config s
w ich
on Next
Ġc orners
sql ite
i u
le c
bo unce
el ve
scal ing
r vert
Ġdef initely
build ing
-- \
) )$,
V elocity
ĠMETH OD
Cap ability
Ed ges
Ġs q
Ġvacc ine
ma de
}) +
Ġcomplet eness
Ġplan ar
B log
Ġc rypto
et he
un shift
LE T
Ġcoinc ide
>> >
Ġsh ader
ĠEx ternal
output s
unt ing
Ġs aving
\% ,
W illi
Ġpreced ing
æ Ŀ
Ġident ifies
Ø ¨
Ġch rom
on load
Ġl d
check mark
go als
Document s
Ġobserver s
i ers
En ergy
Ġparse Float
A jax
Det ection
iner gi
am ents
ĠN ick
Ġitem Members
ĠLo ok
H ierarchy
ĠPr imary
15 4
Ġpaint ing
set Name
Ġlong itudinal
term inal
AD ER
Bl ur
Ġo xygen
ĠNot es
un wrap
ãĥ Ī
Scal ing
ĠC ru
F X
Ġback ing
ĠAg ency
ĠEx change
rel ations
Browser Detector
ĠBoot strap
ir q
ĠB ureau
\ `
M otion
tra ction
Ġconfig urable
re start
amer as
L ater
z es
ĠB road
U IT
Ġbranch ing
Ġmanag ers
ĠIMP LIED
__ );
Ġdetermin ant
Prov iders
Corre ct
remo ved
F lex
æ Ķ
Ġag es
D ummy
f lix
Post ed
ich let
orre nt
Ġst em
Ġto wer
i ph
amp ed
="../ ..
comp atibility
success ful
ĠG NU
Last Name
ĠC MB
N or
ĠU UID
he art
ĠA h
ĠR TC
ĠN UM
Ġwould n
s ink
mal ink
ĠSil ver
ĠWAR NING
Ġfac ulty
ĠS TD
ys i
ĠO PT
j p
Acc eler
Ġg ar
ĠTest ing
ĠTe V
Display Name
SY STEM
un i
Ġtri angles
cont ract
ĠC over
P ATCH
ĠGENER ATED
ĠFig s
D J
bul k
Sh utdown
ps is
class name
Ġtoler ance
Ġread ily
tr an
ĠNe ed
ĠD am
Ġradi ative
s id
ĠAss umption
ĠUn supported
Ġcomp os
ĠC UR
Ġmodel ling
sp rintf
Ġsp ending
Ġchunk s
ĠC lick
Ġplan es
). \
null able
E G
ul o
Ġexperiment ally
sp ort
con version
le ad
Ġk it
Ġphys ically
ature s
ĠFranc is
Ġtr acing
tain ing
ew ise
Dis cussion
may be
Ġw ake
ĠN az
Ġsl ots
! âĢĿ
Ġph p
Ġintegr ating
zh ang
ĠOr ganization
ĠL ists
cri bed
+ }
Ġins urance
ac les
AB C
L ab
or o
R W
Inter pol
Ġle ak
ivers ary
Con clusions
Ġne uro
Tr ust
Ġin clusive
Ñ ī
Ġa jax
Ġbit map
T icks
er vation
Ġelect rical
ĠPrem ier
Ġ\\ \
ä¸ º
ĠSe lection
Ġke V
Ġs cheduling
ĠSE LECT
D ie
ĠI raq
stream s
Ġwit ness
Ġtrack er
s nap
Ġany way
Ġsl ider
Ġmun icipal
ĠDu ke
av al
rect angle
Time line
I Enumerable
f ork
re nd
(" _
Ġdir ty
ĠCurrent ly
e se
Ġb anks
Draw er
Ġparticip ated
Ġre nt
ĠT ax
ĠK ansas
ial s
class v
}' $
se a
lu ent
Ðº Ð¸
y ml
Comp act
r ceil
V B
"> =</
Ġf p
ho o
; "><
ĠD ream
m ong
sh own
ĠS UB
Ġm outh
Bo ost
l iter
t iming
Ġform ulated
mock ito
Rep lica
ĠT ennessee
V I
ent e
Ġqu bits
primary Key
Ġch at
Sp in
ĠComp uter
w ick
Hash Set
> {{
IAL IZ
19 35
ĠC ab
im ag
G lob
Ġt ur
ç½ ®
g rey
Ġsp iral
ĠIndian a
M ongo
ra ils
), \\
LA ST
Ġk illing
Ġf acing
ul ary
Ġh ur
ĠC ov
CUR RENT
Ð¾Ð º
Ġstre ets
ig roup
Ġen emy
Cho ose
st ors
ĠSt adium
Ġexpect s
FI RST
ol is
Ġfile d
Ġsy nd
Ġob ey
the ore
Ġsubstant ially
ĠCon trib
Ġfac ed
Ġprefer ences
ĠQue ue
Ġre written
Ġbin aries
Ã ´
W W
ch t
fit ting
Ġdis put
l abeled
ĠH O
ens ing
not hing
AUT O
Rem ark
w y
Ġv a
Ġload s
Ġmer ely
Ġweak er
close st
Ġm ysql
ob i
IC ULAR
ĠG LE
Ġqu oted
ĠR ol
Or ganization
Edit able
Ġ* **
Ġas semb
ĠField s
Ġext rap
N M
ĠJ av
ach inery
west ern
Ġrec ursively
Leg acy
l ane
20 5
{ #
lu es
Ġhe aring
ĠL ower
ĠH u
Ġdanger ous
ĠV in
Ġcompan ion
' =>
\ ).
i at
ĠSt udio
Ġbe ar
Ġcrow d
ĠR yan
}{ $\
N F
ĠEar ly
Ġeven ing
Ġreflect s
L em
q w
g ue
ĠC orn
ĠS equence
ĠO regon
imit ives
xy z
prov iders
ĠC os
ĉĉĉ čĊ
Is Valid
v id
Ġtr ick
Ġde coded
up al
ĠF a
Ġperturb ative
C ycle
r h
lo be
Ġnow rap
com bo
Ġmin us
ãĤ ¹
Ġshort ly
Ġste el
A ir
] ):
IP v
s ong
ĠM ill
sh ims
N u
Bal ance
e asy
CHAN GE
con nections
j ump
Ġpos sess
pare n
Ġto m
aut orest
ne ur
Ġhost name
W ang
Ġb ubb
Ġregular ly
ĠSim on
g log
ĠC WE
Ġexception al
y outube
{ };
Ġa cknowledge
strict Equal
R oll
get File
ass ignment
ta h
Ex isting
H ours
P ick
Ä ħ
ĠE mail
Ġaco ustic
Ġg aps
Ġcla zz
ibli ography
^ (
') ),
Ġbal anced
Ġinfe ction
E lastic
Ġbr acket
' /
elect ric
open ssl
Ġmanag ing
D ynam
Ġho spit
m illi
ĠCo ulomb
ĠOper ator
d ifference
}= -
ĠP as
new Value
ron ze
Ġher o
)$ )
comp at
Ġpreser ving
ĠM as
ĠU lt
ses sed
ĠOpen SSL
Ġin complete
n ie
CHANT ABILITY
D TO
D H
t oday
ass ociated
qu ate
to UpperCase
Ġcompet ed
Ġspe aker
Descript ors
. -
hom ogeneous
on ing
Se ek
full screen
ĠĠĠĠĠĠĠĠĠĠĠĠĠĠĠĠĠĠĠĠĠĠĠĠĠĠĠĠĠĠĠĠ ĠĠĠĠĠĠĠĠĠĠĠĠĠĠĠĠĠĠĠĠĠĠĠĠĠĠĠ
Ref s
ĠCont ract
M ARK
ĠDis ney
(' $
ãĤ ĭ
15 00
amil ies
Bl ank
Ġmun icipality
)- (
Ġsort ing
ul atory
ia o
ĠOb ama
cred it
Ex ports
] }$
Ġfore ground
Pack ages
Pub Key
- '
J oint
)) ^
ef e
A ware
I CT
Ġwith draw
ĠV ec
bs ites
Ġtit led
ro ach
"> )</
Ġgradu ally
Ġs ake
Ġlo go
tr uth
L atest
Ġ` .
ET A
itzer land
M EN
j st
_{ |
ĠR F
str m
Ġun f
; ",
T l
ĠComp are
Ġaccomp any
ĠT ony
W ar
( $.
M vc
Ġmod erate
rain ian
COL UMN
ĠC zech
A lex
Des pite
atist ical
MB OL
Ch apter
condition al
make box
dispatch er
TRAN S
}} -\
ĠE ll
Th ird
Ġm il
se to
Ġin version
Ġso ph
Ġinternal ly
e V
Ù ģ
Ġappend ix
Ġtrans mitted
track s
ĠBr and
ĠMiss ouri
Ġsole ly
Ġdro ps
Ġa di
ustr y
Ġinject ive
j peg
Data Set
Ġbind ings
Result Set
Ġposs ibilities
get Int
ri k
ĠB run
Ġstd out
Full Name
^* _{
Gr ant
onav irus
Ġf estival
cap s
s lides
| <
ro se
Ġfru it
MAG ES
Ġconsider ations
Ġcontr ary
J ap
ĠD or
enc er
AL IGN
Ġg ains
ĠR M
ĠOr gan
Trans actions
A dapt
Ġint ra
Ġgradu ated
ĠWork s
Watch er
ins ide
Ġth orough
Sw ap
co ord
(" ",
leg acy
Extract or
Ġcon form
conn ector
Ġcl im
ME TA
Ġc up
Ġmaintain ing
he im
Ġp iano
LE X
mo ving
45 6
r us
Ġmodul o
Ġl as
Ġcontinu ation
Ġe gg
ĠRe ce
L ng
Ġvari ed
ann on
struct ures
Ġiter ative
re pre
name spaces
\ @
Ġover write
ĠZ one
Ver bose
Ã µ
ache lor
Check box
so lete
dr ive
ĠEcon omic
Â ©
Ġengine er
Ġsk ill
ĠĠĠĠĠĠĠĠĠĠĠĠĠĠĠĠĠĠĠĠĠĠĠĠĠĠĠĠĠĠĠĠ ĠĠĠĠĠĠĠĠĠĠĠĠĠĠĠĠĠĠ
o op
reg exp
Ġabs ent
ĠCalcul ate
Cap abilities
k ed
ĠLa ure
N an
Ġport ray
Ġtw ist
Å Ļ
be ing
Ġpre liminary
author ized
al ic
Ġ\ %
ĠD id
Ġdocument ary
ãģ Ĺãģ
Ġ" !
Ġnot ifications
l ene
geq slant
Iter able
Ġgra ded
Ġimp ose
ĠEd it
Ġ} }</
ograph ical
Ġb omb
DE SCRIPT
15 8
18 8
spect rum
it les
Ġtext area
Ġutil ized
ĠF F
Mar shaller
um ar
di ctionary
ĠAL L
meter y
the o
E ast
st raction
Ex perimental
SH ORT
Ġanisot ropy
m art
C hen
Temp lates
* ="
ĠCal endar
ĠWh it
NN s
C ategories
} ')
up pet
emp has
ĠPe ak
de sktop
Phys ical
s ale
ĠI ce
Ġsub mission
y ll
Sco ped
ps um
le in
Ġbi ological
Ġal ive
ĠK ind
j l
equ ivalent
)} }\
ĠCast le
ĠO Auth
Ġout going
ĠJes us
ĠĠĠĠĠĠĠĠĠĠĠĠĠĠĠĠ ĠĠĠĠĠĠĠĠĊ
Ġnav igator
d if
Ġgrow n
Ġc ube
Ġv eter
Ġch ip
ĠB ug
in ated
IN X
>{ @
real m
ĠMo on
it is
ĠMer ge
ad ig
St ation
23 4
activ ation
G PU
Ġreal ization
Ġbro ke
Ð°Ð ´
D eg
Ġp it
LO T
s ap
sp atial
Ðµ Ð»
ard o
Ġde mo
Ġst ride
Ġes lint
ĠS ix
( (\
Ġs f
ĠSt age
S pect
ur ches
TH ON
u is
assert That
stop Propagation
N pgsql
Ġt et
Ġb ol
ut her
Ġther apy
in el
Assert ions
ymp h
W P
ĠK evin
Ġcheck box
Ġimplicit ly
art z
ak en
po ss
ĠDe ath
Ġthe mes
ĠP atch
Ġpriv ile
In side
},{ "./
ĠM ail
Ú ©
00 6
ĠImp ro
Ġserial ization
Ġâ ĨĴ
Ġelimin ate
On Search
Ġsat ur
k ill
Track s
o j
Ð¾ Ð½
struct ured
Ġdwar f
è §
Ġle ver
14 2
ĠF un
Ġo c
% ">
Ġtext s
att ention
] '
Î ¯
é ¡
Ġsurv ival
lic ate
Ġr acing
Ġcode c
Ġpredict ive
> ")
Ġback wards
w al
ĠF E
arg c
Ġag rees
Ġ} )(
Ġestim ating
Ġcapt ures
V ED
am m
al most
unt il
Ġvis cosity
clus ively
ĠExec ution
ĠEnter tainment
3 30
Comp any
Ġsurg ery
uplic ates
Ġgu y
E r
L ie
dist ributed
Ġneur ons
B roadcast
ID S
Inter action
Work flow
ĠT LS
cast le
Ġper pendicular
Ġpack ed
---------------------------------------------------------------- ----------
B UT
the w
Ġa ud
ĠO VERRIDE
server s
b z
Ġv oters
DO UBLE
b rowse
imp licit
ĠW ang
ĠD aily
Ġapp ended
hent icator
A wait
ĠW ind
Pixel s
ĠU ART
Ġc art
View Model
Or g
J K
Ð¾Ð ³
ga uge
on z
pattern s
e z
Ġincre d
Ġdoub t
b w
Ġscreen ing
ĠJ ane
) ],
F rench
Ġpublic ations
ĠPro xy
Ġport ions
Ġs av
itution al
S ep
l av
hes ized
nu mp
remove EventListener
====== =
ph on
ĠMem orial
Clean up
E u
i ang
End points
ĠAr thur
Ġacqu ire
Ġtown s
sat z
ĠAff airs
j ena
S izes
im uth
Ġ( &
S ens
Ġme ets
. ]
Up grade
ĠT CP
ĠMER CHANTABILITY
19 17
ĠLe on
Foot er
ve al
Ġattract ive
mem item
_ ('./
Ġmanufact uring
Value Type
contrib s
Dep loy
Ġsett led
}}{ (
Ġ ions
un bind
ĠTra de
Ġn ick
ĠFr an
å Ģ
ĠProp Types
r ations
Ġnumer us
Ġ... ,
linked External
Redu ce
t own
ĠR unn
oper ating
SP H
olog ists
UN IT
P AT
Ġcontinu ing
ĠInd ones
ĠDet ermine
Con ver
ator ial
W ISE
Ġ($ (
orth and
Ġglyph icon
Ġvisit ors
G Hz
test case
Ġwalk ing
idel ity
Ġ$ ('
net ty
O LEAN
Ġw aste
ĠInd icates
Ġretrie val
æį ®
ĠM ot
19 29
ym atrix
Ġre put
Ġdev oted
:// $
ordin ator
register ed
C fg
Ġcurrent s
($ (
ĠDo main
min imal
Rel ationship
defer red
Ġuniqu eness
Ġx s
Me V
ast s
ĠSt one
ĠJew s
AC L
v ary
ht m
app oint
15 6
Foreign Key
Ġen abling
Ġsk etch
Ġpr inter
Ġnovel s
b roadcast
Ġimport ed
Ret rie
ĠS ect
ĠK han
H op
Ä Ļ
Ġdifferent ly
I l
ĠG URL
+ =
ic ated
ĠM T
ĠPh ase
Est im
Ġfacilit ate
Ġinter fer
P IN
tr insic
Ob serve
sh aped
Ġneighb oring
E t
Form ats
ĠPART ICULAR
Ġapparent ly
Qu eries
Ġartifact s
Ġc tor
Ġconst rain
Ġmer ging
f ixtures
re pr
ĠN umer
la homa
g al
Ġe V
}\, ,
Ġconver ter
Ġfor Each
wo o
che m
ĠIm ages
linkedExternal ProjectPath
Ġst ick
P V
Ġt ap
**** *
ĠPhil ip
Ġguid ance
ĠPh one
Ġsubst itute
ĠD og
Ġdip lo
Ġ Ä
ang ers
){ $
Ġgr ate
he tic
ĠAv ailable
Print ln
R ing
ĠCon figure
Ġprevent s
WA IT
ck o
Ġdatabase s
WE B
ĠÐ½ Ð°
Ġspl its
op eng
F lat
G erman
date Format
Ġsix th
cho ices
M u
Ġdesign er
Ġs park
tr ac
ropol itan
ffff ffff
Ġrep lica
Ġcounter part
ar x
Ġup coming
Ġmod ulation
Ġg luon
ok ia
ĠTh ough
me try
ĠQue ens
Ġp ictures
o ured
source forge
ĠZ ero
Second ary
Ġsup ern
Ġstr ange
Ġext inction
Return Value
oper and
19 5
ipart ite
K B
s low
Ġdistrict s
Ġres ume
lat ex
i est
Ġa fore
2 12
Ġro oms
H istogram
W omen
tr ip
Ġsub class
Ġoscill ation
is Null
ĠB ishop
Ġsub div
SNAP SHOT
d ense
)$ ;
ĠRef s
ĠExpect ed
Ġver b
Con cept
ĠDo ctrine
co hol
p ip
sup set
Animation Frame
ĉĉĉĉĉĉĉĉ ĉĉĉĉĉ
Require ment
De ad
scal ed
Ġt ied
Ġcorpor ate
Ġr t
"] ["
in herits
(' %
Ġhyp ers
Ġremark able
comp any
d bo
Ġleg islation
Ġaff ord
ic ut
ag le
Ġc umulative
Ġatmo spheric
G it
Ġd p
Condition s
. %
ut enant
Ġassert NotNull
ĠB ow
raw ler
Ġ< >
Ġcheck point
Ġdist urb
Non null
ne eds
Ġadult s
x r
Ġoff line
Ġde als
f req
Ġr ising
u u
Ġad vis
Get s
urren ces
ik h
col n
18 7
Ð°Ð½ Ð¸
raise box
//////////////////////////////////////////////////////////////// ////////
Ġun def
Ġsh ard
ĠP rom
ĠP aper
ĠCa uchy
Ġro yal
Ġaccording ly
S equ
l hs
ĠPRO VID
19 33
Ġpr ono
Int Ptr
Exp ress
ĠCh ap
Ġt orsion
scale box
Co ordinates
S py
n k
Install ation
ĠW I
60 1
ĠAssert ion
integ ral
de cess
insert ion
D an
\ ),
Ġgeneral ize
Ġtw isted
equ ilibrium
ĠAll en
ä ¹
Ġbl ur
M appings
Ġe co
ION S
add All
SS ING
C ritical
ĠT en
Ġslow er
Ġwill ing
ĠN ich
C ENTER
Ġde co
Ġ' .'
Ġru led
u art
Ġ Ñĥ
ad joint
l tr
Ġp f
Act ual
S un
ĠR FC
ĠK y
Ġsub groups
Bo ard
F ixtures
v k
MEM ORY
ĠR CC
B a
Ġse ctors
Ġmut ation
ĠD ummy
ival ence
Ġrelig ion
Boot strap
ST D
PRE C
Ġv ibr
alloc ator
Ġincorpor ate
SCHE MA
ĠCap ital
f und
Ġlept on
Ġdrug s
conver gence
vent ed
Mac ro
ĠB urn
Tree Node
ĠG PIO
mbr ane
Ill uminate
Ġis Array
Ġl aid
List en
x si
Ġb la
19 3
C ause
æ Ģ
fore ign
er ase
ĠR C
quot ed
Prov ince
ĠGLE W
mar shaller
P aul
Ġw rest
F requency
e i
Ġ" #{
Ġpl astic
To o
Ġrep air
PRO CESS
dir s
Ġattemp ting
Ġde form
OPTION S
ib lings
Ġout standing
Ġ ])
Ġt ube
un ge
ĠCar l
Ġre nd
ĠL iter
= */
Ġext ensively
ĠY A
Ġthere in
on Completed
ĠTr ace
es ses
Ġair port
P x
Q Name
ĠAl ert
s al
ĠUp dates
R G
ĠHand ler
SC A
ĠMo ore
l Vert
19 32
d ac
Ġemer ging
ke V
}{ .
8 75
ate ur
ĠS ho
ĠS ocket
}$ ~
Ġso il
list ed
vis ited
Ġpointer s
ups ilon
Ġh i
Ġw p
contain ing
Ġro l
Ġoccur ring
x ymatrix
ĠI con
s ay
Ġa pt
Field Name
\, $
Ġsell ing
L ifecycle
Î ³
W ay
Ġb s
Sc anner
rg ba
1 200
ĠRiemann ian
G overn
ĠPhilipp ines
/ ?
s af
19 14
T oday
ll vm
D to
ATTR IB
Ġt ract
Ġv el
Ġlif ecycle
IST S
iv als
' ')
Ġanomal ous
qu is
port let
ST AMP
De ath
Ġjournal ist
Ġinnov ation
Ġcour ses
ĠHigh way
ĠAct ivity
ab ama
ĠFile s
Ġweek ly
Ã Ĥ
lan ta
Ġconj unction
c andidate
rec ursive
}\ |_{
ĠAr k
Tra it
Ġw er
Ġcomp utes
dd ot
m ate
ĠA z
ĠM ilitary
per f
ĠH ands
SY NC
ĠSQL Exception
0 25
un checked
Ġpre mi
Ġqu ota
Ġad missible
ĠFIX ME
G al
lis hes
Mon o
ĠId entity
ĠC LI
co ordinates
è¦ ģ
r df
ur ers
ĠInter rupt
00 8
ĠComp osite
V L
Ġn pm
Ġnumber Of
20 6
Ġblock ed
ĠRo y
Quant ity
f loating
to o
List Item
IM ARY
ĠC hern
Con trib
anim ated
, %
B ank
Ġre load
Con current
P et
b os
.\ ]
Ġdif fe
Ġlink ing
SUPP ORTED
Ġbus y
it ics
Re search
Ġdec line
Ġf id
ĠRe place
ĠG it
}\ |\
ĠS IL
Spec ify
Ġag ed
dis cussion
io let
Ġmaxim ize
$ ^\
ĠF ederation
ret ty
C nt
)) ))
Byte Buffer
ĠG alaxy
ĠS afe
ĠThe ore
ĠUn ivers
Ä «
ĠH ad
Stream s
ĠAUT H
")) )
Ġmod ifier
ine q
(" ");
ac ies
Ġd d
re cur
Q String
azel cast
Qu ote
Ġlo ose
: $
all as
Ġk o
Ġten ant
Ġre tained
sp rite
}, $
gl Get
ic ide
find er
ĠPlan ck
ĠR ank
19 28
Ġinsert ion
ĠB ear
15 9
RE SOURCE
17 2
Ġaccept ance
An ce
Ġgra in
Ġmolec ule
% =
Ġmov ements
\ ",
dd dd
ĠRep resents
ch astic
ĠM ut
Ġo cean
> ?
at ially
ĠS ri
... ,
+ {\
ific ant
ĠPh oto
TYPE S
D ifferent
ĠH ave
taint y
inem a
Leg end
n ick
Ġdata Type
pub lisher
C rypt
Ġag encies
ĠS PE
Phys Rev
Stream ing
text Content
Ġsub scribe
ĠCl ark
Ġco herence
il og
coup led
æĹ ¶
Ġg ateway
URI Component
Lock ed
ĠF UN
ĠE T
weg ian
Ġh ub
P b
}), \
)) ]
math comp
Lo ok
de scr
Sec ure
Ap ache
ĠB esides
ĠG ene
qu arter
Ġany more
ĠState ment
Ġp name
lic ial
res izable
spec ies
er ation
Ġnot ations
v n
Ġconsider ably
bal anced
yr ics
ĠSh im
Ġrenormal ization
P ART
r ison
ime ter
Ġtop Level
Ġed ited
F G
SEPAR ATOR
Ġnucle us
w l
Ġanim ations
F em
Ġc pu
Ġl ots
ĠBy tes
in ch
Ġa imed
Ġs pars
">< ![
Bl end
el son
top ology
W ho
Ġres ort
iss ip
Ġk pc
Ġkn ock
ĠInt ent
li ber
act ing
ĠMary land
Ġpul led
position s
Ġref used
N umbers
Ġvari eties
O G
ot ent
omp son
19 10
Ġjust ify
SET T
Return Type
ĠP assword
Ġphot ometric
16 7
Ġappro val
net s
Ġenc rypt
Ġmask s
ĠT err
ĠF S
ĠLI ABILITY
}: \
pair s
Ġt ill
ar ct
sub menu
definition s
hook rightarrow
Ġwire less
ocab ulary
HT MLElement
Ġreal m
ci ence
Ġ? ?
... "
mar shall
mb f
ĠR on
ob serv
Ġhon est
Ġp as
Ġrepeated ly
Ġco variant
ir ds
ĠL ength
Ġcap s
Ġa mazing
ĠF ITNESS
With Error
Ad s
ĠN i
Ġ" @
c C
Ġp ed
up iter
WINDO W
im en
Ġfra ctions
ĠD omin
Ġpub lisher
Ġmagnitude s
ac ht
ĠAn imation
ĠUn fortunately
!! !!
Î º
Ġt p
re comm
ĠLeg end
Ġfac et
Ġprom otion
temp ts
b anner
m ot
res ume
track ing
ma kers
sc or
}) }{\
bind ings
w g
Te chn
D U
Ġoverride s
ĠR S
Ġthermod ynamic
Ġme ters
ĠI DE
ĠK at
ãģ «
H a
ol k
Ġmotiv ation
B LE
F ULL
sp ro
May be
kn ow
Work ing
ĠTown ship
ĠOffic er
ĠCrypto JS
Ġse eds
St eps
Code Dom
em a
Heading Color
is NaN
DA O
ĠMal ays
å ¾
ĠL arge
Ġencour age
over ty
Al bum
enc rypted
Ġover lapping
sv c
Ġdisc ip
g rom
Start Time
al p
pro fit
s ight
s ix
ag u
In ventory
amp l
" })
T urn
r ust
Ġt t
fg han
i op
Ġ" ."
on der
Ġguide lines
aggreg ate
file system
Ġproto buf
| }\
YY YY
ne e
' _{\
ur face
40 3
Y M
Ġpoet ry
Ġcar rier
Ġdise ases
apim achinery
W arn
Byte String
Ġprob abilistic
me ans
g un
j vm
li um
ĠCh anges
Ġeng aged
sv n
Ġpar liament
m irror
eh icle
r te
Ġpre d
Ġappe al
f name
$ ~\
Ġneg oti
rob ust
ĠT IME
ĠD al
An not
Ġoscill ator
Ġb acter
Pol l
H istor
T B
Ġcontrib uting
J Token
M or
T om
ĠÂ ·
tele phony
Ġrg b
ĠP ear
CT OR
`` .
IG H
Ġkey words
28 8
66 6
su cc
ĠB log
H am
q p
Ġpass age
c ms
render ed
S parse
Ġwidth s
Ġpres sed
ĠPat rick
Pl ane
Ġsub graph
Ġag reements
comp osition
work flow
} --\
Ġen force
ter y
Ġg allery
ĠH amp
ĠName s
Ġt uples
Wh itespace
v est
b ay
Feed back
Ġbas ically
http Request
ĠMult iple
H ouse
Ġaut omorphism
der ived
Ġbase lines
dig it
Ġn b
eg as
ĠAdv anced
Ġre ar
get ter
19 27
19 22
mark down
18 5
Ġcyl ind
}$ \\
ĠPal est
) _\
J ar
clu sters
]{ @{}
Ġin formed
STR A
Ġb aby
Ġre name
'' $
Ġinvert ible
ĠD ie
f ive
Ġte en
Ġm ild
ĠDe veloper
S a
elf are
s ensitive
get Content
per malink
Ġdirect ives
Min utes
ĠGo String
ĠL ac
let ic
col group
ok u
Ġdut y
M arch
Ġl ands
IS ING
Ġgen etic
Ġsymp toms
Ġ ist
Ġst ake
Ġreg exp
Ġgra b
draw er
Ġbo at
ĠIss ue
ĠClear ly
Ġs me
list item
Ġestim ators
iter ate
Ap pro
Ġp g
Runtime Exception
Ġtransport ation
ĠUn known
Cor ollary
Ġafore mentioned
ell s
au er
Ð¸ Ñģ
soft ware
Order ed
} ">
Ġsuggest ions
ĠAT TR
d an
In variant
separ ated
., ][]{
Ġ" ]
Ġpres idential
15 3
ur se
ĠR y
Ġexcit ations
Ġd amping
Ġport folio
V K
r ace
id le
ãĢ ģ
Ġh at
ĠDef ense
tra vis
Ġaccompan ied
Log ic
CLO SE
Ġris ks
ï¼ ļ
M W
imp lies
Ġtri angular
] |
Combo Box
pe ak
ĠMex ican
ig s
17 8
Cell s
Ġrel ating
Count s
Ġ[ &
Ġturbul ence
F LOW
auto complete
pixel s
un expected
Ġcon sequently
30 2
Action Bar
Ġcontrib utors
ĠG Hz
we ets
ĠJ ay
Ġdifferent iable
Ġle ts
Command Line
ĠReg ional
) ")
ĠV ice
Ġblock chain
PRO GRAM
function al
Ġrecommend ation
u ce
andid ates
O VER
19 31
Ġhighlight s
EX EC
Ġbos ons
de ad
im ir
ĠR EQ
friend ly
Ġd c
const rained
inst alled
Sche duled
anch ise
Ġcol le
account s
Ter ms
release s
Ġpop ulate
Ġve get
Prec ision
A cl
S ocial
v g
Ġinv ited
Ġactiv ated
Ġabund ances
in cess
reng th
Par sed
Ġsat uration
Ġfe els
Date Format
ex istence
ĠP ed
d ma
ĠA CTION
19 6
ĠHarr is
ĠSt ill
ĠName d
Ġw arr
ĠThe me
Append ix
z c
if s
Res erved
Ġab c
ĠCo unter
END ING
Ġbeh alf
Ġw ine
Ġnot iced
an ia
sh rink
| $.
GB T
ĠC lin
s ized
t ips
ĠS ep
Ġens uring
Ġres cal
Ġrel ate
X R
Ġc x
m or
XX X
Ġurl s
Sk in
Ġtri ang
Ġc ra
ĠF ried
Ġinteg rable
K ER
_ "
ĠT D
ĠSen ior
Ġremark s
H F
Ġdecre ased
ra ctions
ĠC am
Ġbr ackets
altern ate
Da emon
Http Servlet
ĠHo uston
7 20
W ave
ĠS plit
In herited
ide a
Ġf iring
if etime
ĠR ET
AL PH
"> [
ep och
Ġsp y
yy yy
Ġinter vention
Ġmot ions
Ġdimension less
Ġcont raction
Ġp x
ĠLe ad
small er
ĠNor way
Ġa met
ant t
de e
Ġcol ored
mux er
ĠFeature s
Inter ceptor
ST AR
ĠSO CK
nu cle
em ony
br ack
Ġpo les
Ġindu ce
Ġemphas ize
ĠAg ent
ĠP P
ĠH RESULT
Ġ' ?
pre pend
e u
ro it
co uld
Work Item
ious ly
Ġautom ated
ra ises
Ġpre gn
Ch an
Ġnav igate
B ur
ĠPr ice
; (
Ġp ray
exp ansion
field Name
NS Mutable
p ressed
Ġf unded
ĠS ame
RE L
Ġent ers
Ġarr anged
Ġintegr ity
ĠHt ml
semb ler
Ġear liest
Ġpass ion
Ġm ismatch
int roduction
Ġemot ional
Ġent itled
TRAN SL
en berg
Ġt ropical
ĠW ik
ĠHol lywood
ownt own
ĠMar shall
c ube
ĠN ASA
Ġrank s
seg ments
Pop ulated
Ġoccup ation
len ium
C ES
ĠM M
ĠRetrie ve
17 9
Ġstrateg ic
v x
in th
Ġecon om
Ġmodul us
Ġinfra red
ob served
REG ISTER
Ġco gn
Ġdiagnost ics
! ');
Ġint el
ĠC ancellationToken
Ġtal ent
ĠA MD
Se par
Ġrecur sion
q r
ĠF isher
ĠAp pro
Ġb orders
ant on
Ġinfin itely
t uning
Ġoverrid den
19 24
}: =\
Ġbuffer ed
Ġcont rollers
att ack
Ġbir ds
m agn
Or Default
ĠCH AR
Deep Copy
ynchron ously
spec s
o ad
ĠCol on
ank a
N othing
b io
st orm
B on
Ġde bt
part icles
Ġpredict s
Ġsil ent
Ġisol ate
ĠA U
Ġ' ../../
ĠArg uments
Ġaccord ance
R en
Ðµ Ð¼
ĠY et
o ul
v ac
Ġ ride
Ġtrans lations
PR INT
Ġre levance
Ġ{} ",
ĠCapt ain
Ġget Default
Sto ck
H our
Ġ<!-- [
Ġvict ims
ch romium
inal s
Comp osition
Ġoption ally
Ġcut ting
uk i
P aste
Ġp ione
Ġd op
ĠUp per
Ġcoup les
ĠUs ers
B ay
Ġdifficult ies
ĠK it
Ġaddition ally
{ ``
bar a
us c
ĠB os
we alth
y ers
Ġcompet ing
X T
Ã¼ r
ST ACK
Te ch
' }}
Rout es
Ġv oted
M ic
li u
T IP
Ġde letion
em q
Port s
ĠDi ego
triangle q
tz mann
Ġ* );
ĠI owa
order item
le ans
oc a
Ġvar char
Ġclick ed
el lo
ĠE mer
_{\ {
Ġre finement
:: __
Ġmass less
Ġocc as
Rest art
G lyph
Log s
Dis posed
ĠB ah
ĠPer iod
S ensor
add er
P ic
Ġbur ied
------------ ---
é Ļ
} ";
Ġecc entric
Ġsuper Class
all Errs
Ġhealth care
Top ology
Ġe asing
AM D
}/ {
Ġdissip ation
ĠMan chester
Ġcompet e
Gu ard
ha o
Ġc ameras
4 32
re tr
m ir
ĠSw itzerland
h ind
mouse over
(" {
19 26
Ġreview ed
P ressed
Ġp lug
ue se
spe ction
se mi
ĠH ur
ĠGe o
Ġaccount ing
ĠHot el
ĠViet nam
åĲ į
t g
up on
Ġactiv ate
READ Y
, $$
f k
Ġi e
STY LE
Ġexp ose
= ${
ic z
Ġsp oke
p seudo
MP LE
exp ress
è¡ ¨
>: <
Fall back
net t
Rec ursive
ĠIllegal StateException
b h
Ġspecial ized
Ġminim ization
P OM
TR IG
ĠL INE
Ġ% (
Ġcomp lementary
Ġcommit ment
l ifer
Ġe missions
ĠW as
Ġcar ries
Ġda emon
Re corded
ĠLapl acian
ĠRunn able
j as
Ġt issue
Ġc rop
IB LE
ĠWith in
ĠM ach
ĠKent ucky
Gre ater
ĠB io
s ymmetry
Ġmill ions
RE LEASE
K HR
Ġc aching
initial izer
ĠFl ash
ĠPerm ission
23 5
ĠB ot
Ġenter tainment
Ġcyl inder
m uted
Ġimp er
Ġmedic ine
Handle TypeDef
Ġ` _.
Ġclip board
Jan uary
arn ess
F raction
me tal
map reduce
ĠAnth ony
Ġte lescope
.\ ,\
6 25
|\ ,
= &#
bas ename
ĠI r
inter sect
BUT TON
Ġv endor
ĠB R
ĠD T
ĠConst raint
Ġm utable
d ynam
in ja
ft p
Ġcent r
dis miss
Ġexha ust
Ġthe atre
ens en
RE EN
Ġreg imes
ĠA CT
Ġsuff er
ĠAut hentication
@ {\
An onymous
ĠDemocr ats
ĠSc roll
ĠS FR
RE SP
open ed
graph ic
g dx
ĉĉ ĠĠĠĠĠĠĠ
ĠM ir
19 12
ee ee
G old
Ġh ls
ĠD ifferent
ĠMon o
Enc rypt
Ġ= =====
Ġst ating
Ġl ying
f ancy
th y
mouse down
mat ically
ĠE uro
ĠIn dependent
24 5
Sem antic
ĠDetermin es
ĠST ATE
Ġde e
ĠH ans
ĠS park
Ġsp rite
SE L
Run nable
ra ses
Ġv irt
STRA INT
RE SET
A pril
ĠSch olar
li ps
Lo ss
E lect
ee per
Element Type
COMP ON
SPH INX
test er
Ġf lying
end ment
Ġ" ../
get Mock
Ġg ift
Ġb ott
G l
ve ction
Ġev olved
Ġlo ved
ĠD ol
ĠL STM
Ġparticip ation
Ġmix in
Ġrep lication
/ </
im als
Ġdevelop ments
ĠBr ig
ENT IAL
Ġins pection
Syntax Kind
ogene ity
Ġjoint ly
Ð» Ñı
Ġp d
tr ust
64 0
isting u
ĠMed al
ansp ose
Ã© n
R ename
Pub lished
il ers
commun ity
Res ume
Sp atial
Ġ( ),
Ġg host
Sc enario
Ġlaw yer
ĠS olar
h ours
Ġden ied
ĠW E
attal ion
Ġfix ing
Ġv ir
Ġmon op
ĠComp lete
Pro vision
Ġexhib ition
da o
c ue
pe ek
ĠS creen
s ynchron
)\ |_{
ĠPer form
Ġconflict s
ĠTok yo
Br and
LAB EL
mid t
S leep
); \
ĠHT MLElement
o i
Con vention
mod ify
Register ed
Ġgroup ed
Group Version
Ġray s
ä ¼
Ġnorm s
u h
ĠC MD
ĠTrans fer
file path
dis connect
ĠK ra
d ll
ĠText ure
Wait For
Ġ} ];
20 9
o les
Ġvalid ated
per ience
able View
man age
R N
Ġtime scale
mp s
Can onical
fall back
Ġz ones
Ġcrit ics
ap ing
em itter
ĠAd S
rest riction
lin eno
Te le
ĠM otor
Xml Element
Qual ity
ĠG ard
2 16
od ic
Ġnode Name
Ġexcit ing
Ġinj ured
}\, .
Ġcontract s
oper ators
Start up
Ġconf usion
Ġcon tours
Ġpropag ate
Ġenumer ate
P resentation
. ][]{
sco pic
ĠB orel
I J
ob serve
check er
Ġund o
C U
Ġdes ire
Ġ? ></
ĠNav igation
Ġstr at
gress ive
Ġconduct ivity
AAAA AAAA
Read able
the ir
L atin
Ġs ad
>< ![
Requ ires
Ġs ail
ĠIgn ore
method Name
Ġneglect ed
Ġpro mp
Ġab bre
con e
t icket
({ '
ĠTemp le
Ġthous and
ĠHow ard
V iol
Instance State
C e
Ġgen es
og a
E mber
Ð Ĵ
') {
valid ators
Att ached
Ġachie ving
pro logue
Al location
Hy per
Ġpolar ized
Ġflex ibility
bo y
ĠMc C
Ġillustr ation
Type Error
AT FORM
Ġdemand s
Ġmagnet ization
home page
grom met
V IC
Des ktop
ĠGree ce
( ...
u ation
web gl
Ġattack ed
s ymp
¦ Ĥ
"> :
Rot ate
ĠIn f
j j
Ġskip ped
Decor ator
Ġb one
ĠS imp
ĠRe ader
su c
prob ability
ĠAn onymous
DA Y
Ġdis ag
Ġtheore ms
H i
B rows
Ġcon served
Ġcommun icate
D ROP
z A
sp ar
Or gan
ĠSt at
ĠF riend
gr p
get Column
Ġout lined
\% .
b usiness
ĠPr inc
ĠCol lect
Ġst mt
Ġwe bsites
Ġlabor atory
R m
Ġquant ify
ĠW y
ĠCan not
struct ive
R oman
Event Emitter
ĠDo ctor
cli ents
Ġr and
Ġ*/ ,
Decl ared
ĠB L
IF AR
213 07
Ġbo ys
v anish
ĠC B
SOCK ET
n om
Ġevolution ary
table Name
Ġport rait
ri pple
Ġcon tributes
ĠB atch
:: -
19 25
Ġreg ulations
Ġprem ier
ĠOper ations
Gu ide
Ġb ump
hand les
rid ges
Ġfail ing
v ity
ol ars
yn man
loy d
INST ALL
Ġis lands
Ġst ood
M g
In c
Ġsur prise
Open Tl
ĠM ol
ĠAn ne
T ap
re cent
ĠO ak
Test er
Ġtro uble
Ġannot ated
Å «
Ġt ie
ĠDet ect
ĠG T
sp er
ry p
BUILD DIR
i Äĩ
2 33
Ġpar abolic
ÏĦ Î¿
ĠS lo
Ġcall able
å ī
no align
Ġbro ker
V ERT
is Set
ur acy
Ġhom ology
Ġsu cc
iv ially
æ Ń
D G
st aging
E sc
Ġinvest ors
mark et
Ġr ugby
comp ression
frame d
Re comm
ĠFoot notes
ĠL as
Ġsupp ression
} ");
ĠE ither
ten ant
t ro
qu eries
De leg
)( (
S af
ĠT rip
Ġf riction
Ġd ram
SECON DS
Ġs weet
è¡ Į
re tt
ĠJ os
RAN GE
Fin ite
al gebras
Ġf ed
Ġre actor
Ġg esture
Ġal phabet
vis ions
amilton ian
ĠPl ot
ĠE ss
. }}
emphas is
Offset s
break ing
Ġex clusively
String Utils
Ġbeaut y
ĠAl bum
ĠIsra eli
Ð ¡
}{ %
Ġel abor
CI AL
A w
reg ions
ĠF ailed
yn e
Ġtransform er
D EN
N Unit
ĠJ am
mail er
lu ck
ĠStud ent
g ender
ĠINCL UDING
J une
Drop down
es lint
Ġis l
ĠSh adow
Web Kit
: _
s ymfony
User Name
Ġtrust ed
UR ATION
Ġshort est
activ emq
bit map
{- }
Prof iler
ĠI de
CF G
ĠS quad
Ġro ads
un ov
ess ions
Ġle verage
built in
m ul
Ġdis connect
issip pi
ĠLeg isl
ĠTur kish
ĠBan ach
ĠH ug
ĠAl bert
ĠTra it
subscription Id
DE S
ĠComp ile
Ġpublish ing
Block ing
fl are
prov ides
Ġemploy ment
D N
Ġp ip
Ġw et
Ġm im
ĠGener ator
Ġcle ared
ĠE ver
In strument
19 23
Ġexp atriate
p ension
Ġstart Time
Ġret val
Ġimpact s
determ ined
" ]);
Type Info
ene z
INCL UDE
enc ia
m usic
Ġde struction
ĠP I
Ġimport s
Version UID
Ġsp ont
Ġv tk
charCode At
Ġun usual
ready State
Ġdiscrep ancy
ĠC AN
embed ded
}^{ *
neighb or
f ab
ĠN ik
Ġknow ing
N i
^* $.
esting ly
tr ation
Ġen de
Ġvisit ing
Ġoff ices
ag ain
Der ived
ar ma
Ġm as
Ġaccess or
Ġdol or
ib us
Ġre versed
Ġexec utable
sp ired
Ġcheck er
Ġdo jo
us b
Sing leton
get Resource
17 7
h anded
Ġg em
sp inner
ĠP ref
19 4
ĠS in
ĠU rl
su it
ĠPro gra
ĠAct iv
Ġprior i
Ġsurv ive
co vers
ĠFig ures
Ġlearn s
V m
Ġdisap pe
r Vert
Ġrecommend ations
Ġchair man
Ġmanip ulation
An n
a is
Ġdocument ed
SPE C
Ġcent uries
Ġanaly zing
y ang
or ry
Ġdistort ion
ĠRes Net
ield s
Ġpopular ity
ri me
c rop
PE D
Analy tics
ĠSW IG
b end
ĠReg iment
Ġ@ }
control led
Ġa ster
ĠLimit ed
ĠF ill
port al
ĠSH ALL
Ġre dis
Ph il
an ies
Ġsmooth ing
Ġc ited
Ġf rozen
Ġm b
æĪ Ĳ
t ion
0 75
ract ive
Ġreserv o
ffic iency
on er
ot ive
ĠU E
ĠH it
Ġfol k
convert ed
ĉ ĠĠĠĠĠĠĠĠĠĠĠĠĠĠĠĠĠĠĠĠĠĠĠ
Ġas ks
uer to
Middle ware
ĠPROVID ED
Ġrare ly
Ġpar adig
Adv anced
' });
Z ERO
; :
ag onal
ĠD river
? \
PRI V
ĠP i
ĠWe bsite
Ġbro thers
Ġvict im
Ġentr ance
W L
o ft
> ".
Ġ= ================================
ic ators
Ġvis its
e lection
Ġtra its
Ġnomin ated
Ġfield Name
Ġsustain able
ĠMos cow
PIX I
W as
de tection
Ġch amber
Ġpar ish
ĠAl ways
^* $,
Und o
pro files
un ior
co okies
)) }
ĠB lob
Ġview ing
&& &&
× ¨
Access Token
ĠNot Implemented
l iving
ĠT X
Ġhe uristic
Ġtalk s
ĠP red
Par sing
nov ation
Check s
W all
ax es
str cmp
Ġ" \\
ĠP ad
set ter
Ge ography
hy thm
in ian
19 16
Dr ive
ĠDA MAGES
'] :
IF ORM
ĠHol y
M il
f u
ĠB ull
ĠJ OIN
Ġiniti ated
Ġmk dir
lo ys
Ġcont rolling
udi os
EXT ENSION
L earning
comp ose
lo on
ĠK az
ĠSpe ed
v ens
ĠE L
ĠF er
Tra ining
Ġali ases
ĠD ur
Ġqu otes
ro ck
oc ratic
FILE S
Ġdetect ing
owner Document
Ġpl ural
Fil m
do ctrine
mid i
T ur
ì Ŀ
Ġf leet
ĠL S
pre ceq
Click ed
Ġe lems
Ġb link
Ġid le
Ġs ons
ber ta
Ġe ject
ĠĠĠĠĠĠĠĠĠĠĠĠĠĠĠĠĠĠĠĠĠĠĠĠĠĠĠĠĠĠĠĠ ĠĠĠĠĠĠĠĠĠĠĠĠĠĠĠĠĠĠĠĠ
ĠJun ior
ad j
ĠD L
w r
19 21
Ġtable Name
ĠPo ssible
ĠRed istribution
Ġlic enses
Ġ ~~
data Type
S en
Ġsus pended
Ġ` '
harmon ic
18 2
Pub lish
Ġcontact s
ĠMel bourne
ĠG il
la res
Ġacc used
In verse
M i
Local ized
B id
H on
ç ī
ĠLin coln
ĠD ak
Ġste ep
ĠB P
Ġnon negative
AA A
Ġt ank
approx imation
Ġobject ives
ĠS EC
ĠM and
B luetooth
ĠBr anch
Ġphilosoph y
card s
it uted
Ġx y
Ġh am
Rep licas
or ce
is olate
ĠM AC
Spec ification
}=\ {
Ġcomputational ly
& )
o a
ur c
Th rift
30 3
ĠOver ride
Ġtermin ate
ow ed
ĠP ract
ul sion
Ġut ter
ĠQ ual
Ġb if
C amel
17 1
ĠAl abama
Ġred shifts
Ġsit ting
ĠC u
32 5
26 2
cess ion
Ġamb ient
ĠDir ichlet
/ ${
ar ab
ĠG B
Ġme mbrane
d B
pe z
ak ers
Aug ust
r ising
ther mal
Ġpass ive
ap ro
Ġadi abatic
Ġn k
ĠG ordon
i ated
u in
b ird
r q
Ġpass engers
ĠHistor ical
k ube
ĠC ow
ET HER
Ġrob ots
arc sec
ĠM R
19 15
ĠA BC
Ġs nap
Ġas ymmetric
ĠInd ust
ol as
Ġpropos als
. \,
in finite
ĠD ave
Ġint ense
ĠS V
ĠD iff
Icon s
b right
ĠM is
ĠF al
ak ov
cont rollers
Ġturbul ent
f re
Ġcol lapsed
Ġstat istic
Char acters
ĠK ur
page X
ĠRo om
Ġconnect s
en z
mark up
Ġleg s
= $(
l ng
Ġoper a
Ġst amp
× ľ
LE CTION
Ġgradu ate
istog rams
Ġanisot ropic
ĉĉ ĠĠ
F K
do xygen
Ġcr ack
Non User
Å Ľ
Ġb reed
Ġass ault
h ive
op ic
Ġcomplex es
}} },
next Sibling
Web Socket
E W
}= -\
uzz y
ICAgICAg ICAgICAg
ĠMi ami
W il
Ġselect ors
Ġstd err
P ause
x ilinx
ĠH R
UST OM
ĠAust ria
oth ers
ĠAss ign
Ġname spaces
sub scriptions
inv ocation
Ġestablish ing
) }^{
P NG
model Version
sm ash
ĠP in
5 50
ĠEn umer
ĠRep ository
start ing
Ġscatter ed
' |
W a
y i
Ġwor ry
CharacterOffset End
CharacterOffset Begin
up dates
ALPH A
T riv
tol ua
G I
Ġ- (
ĠM N
Ġl ake
Ġr ival
Ġto x
Ġstatist ically
tikz cd
Ġb ij
assign ed
me js
Ġval ley
ĠD ick
Ġtell ing
Account s
Ġ ib
sub script
Ġconn ector
ĠC ape
ĠYear s
Class ification
de scribed
Mut ation
ĠCOPY RIGHT
22 22
. ),
) ]{
ĠOk lahoma
c ke
ur ious
Ġgra ins
é Ĺ
ĠB etween
Ġanaly tically
st ability
ĠA ggreg
}} }(
Ġoff ensive
start Time
inject or
: .
Ġsymbol ic
[ ![
in ode
ans ions
Ġnom inal
Q CD
R ail
19 08
lect ual
Comp ression
sco ped
Document ation
Ġcor pus
ST OR
pack ed
ĠMag ic
ĠArgument NullException
Ġe u
Ġev olve
Ġclear Timeout
Respon der
Ġsearch Box
Ġbeh ave
cons istency
WR AP
A mb
\ ">
ĠCh ain
r ates
t id
un ning
AL T
Ġassign ments
re ll
Ġ\ )
ĠSh are
ro oms
aint enance
Ġaugment ed
b ur
Ġnot ably
D s
ex periment
ĠT imer
C andidate
20 7
ke ley
N ear
Error Message
Ð½ Ð°
ts burgh
Ġtermin ated
}$ };
b k
ĠN ob
Ġd ress
us a
Ġ_ ("
f ef
du ction
Ġs lices
ed ition
v ik
Ġprof it
Ġdiagn osis
ĠSeg ment
à ¹
Call ing
Ġparame tric
ĠMov ie
v ue
J uly
ah ler
ĠAd ams
tabular newline
Ġreson ant
Ġbre ath
" '
Spe aker
Ġp ion
}} %
inc ial
Ġcapt ain
G allery
ip y
_+ $
Ġdist inction
Ġsp atially
Ġconclude s
ĠP ho
my Item
ĠWalk er
Ġsitu ated
æĸ ¹
ul ators
ĠHaw ai
G uest
tr ically
Ġdoll ars
Ġrepresent atives
) ])
av ail
ĠB eng
Ġen forcement
Ġd ans
SA FE
ĠĠĠĠ ĉĉ
itu ency
get State
iter ation
. ).
Sub scribe
sur vey
)+ (
T OT
ĠPro tection
grommet ux
Ġfit ness
Ġtermin ation
ard own
ĠFre der
18 9
Ġip ut
ĠVert ex
Ġp ic
Ä Ł
Ġcor rupt
Ġget Value
pri or
Proto s
^* )
Ġ& =\
property Name
Ġ ub
Ġst oring
id ually
Ġperson ality
Ġclass ify
ĠT ar
Ġprint ing
Ġmu on
adv ance
ĠB h
As sets
Ġsequ el
Ä Ľ
at ers
ĠDat aset
Object Type
get Child
Ġstar ring
DIRECT ORY
H uman
O H
mod ern
ĠAust in
it ure
Ġtr uck
ĠTh anks
Ġd up
ãĤ ¯
omb re
bi ased
ÑĤ Ð¸
Ġbl ind
ict ed
Sign ed
Ġconvert s
æķ° æį®
Port al
Ġg ithub
C ancellationToken
ĠS cale
x z
pt on
Ġpart ly
jo urnal
ĠB owl
Ġhapp ening
Co ver
Ġevent Name
Ġpass enger
Ġgrap hene
og enerated
Tool Strip
á º
id ity
che v
Ġuncer tain
Ġfre ely
ĠG ab
ĠCon tains
Url s
Ġvisual ization
ĠDr ive
Ġattack er
pr inter
16 2
lo re
Ġsp ans
Ġcons isted
s ites
A gain
O lymp
A H
ĠG TEST
Ġsol ves
Ġrad ical
d raft
Ġ\ ,\,
pe st
Ġco aches
Ġs addle
Ġad mitted
17 4
Pol icies
ĠS ED
Ġmon o
ĠIdent ifier
ĠP ick
Ġsepar able
Ġdialog ue
c xx
Ġfinish ing
Ġaccompany ing
. âĢĻ
ill ery
Service Client
ĠInst agram
ĠOpt im
v d
50 1
Ġdiscret ization
Ġread able
ch anging
Ġcy ber
b ach
Ġar cs
ĠEl se
Ġreli ability
ĠImmutable List
ĠFor ces
Ġsur rounded
Ġestablish ment
3 64
ĠImp lementation
G ap
Ġel s
ust er
W F
ĠR ace
ref lection
IsNull OrEmpty
ĠA fghan
åı ¯
Ġg enu
Ã© r
Ġl ip
ĠG ray
$ ('#
accur acy
Ġmob ility
M Y
Acknowledg ements
s andbox
igr ants
s child
}\ {
request ed
Ġsp anning
ethe less
Ġgu ys
Ġion ization
Ġcom ic
x p
æĸ °
Ġwat ers
CCCC FF
J ul
en ius
Ġsing leton
Ġscroll ing
Ġanten na
! )
ĠRes erve
Ġmultip lier
Ġisol ation
Ġrac ial
ĠY outh
Ġful filled
de serialize
Ġarrang ement
Of Type
PASS WORD
Ġcor ollary
Ġ$ ^
ref ptr
ĠAn notation
cm id
å¯ ¹
ĠRepresent atives
Ġtest Get
m gr
Ġpre domin
ĠĠĠĠĠĠĠĠĠĠĠĠĠĠĠĠĠĠĠĠĠĠĠĠĠĠĠĠĠĠĠĠ ĠĠĠĠĠĠĠĠĠĠĠĠĠĠĠĠĠĠĠĠĠ
18 90
ĠAt lanta
null ptr
}) \\
16 1
Ġord inal
Ġ'- '
ok emon
è ¾
fer m
Ġloc ate
FORE ACH
Ġbackground s
Ġfile path
Ġlet ting
Persistent Volume
18 4
R ating
r anges
it ness
up port
LOC ATION
Ġwavelength s
mess aging
Re verse
Tex Coord
Ġmay or
ĠGe ometry
Ġt act
ĠH I
Ġfe es
Al g
Ġuser Id
UB E
L y
ca pt
Dec ision
ĠPro to
v l
ĠI B
writ able
åĬ ł
pro vision
No Error
ĠMe asure
Ali ases
al bum
off ice
Ġw ed
Ġan th
Ġport al
get Last
ĠSing h
ĠCred it
ĠK elly
ĠM rs
Ġside bar
ĠP ap
RGB A
oc he
ĠLo oks
Ġstreng ths
page Y
del ivery
Ġground s
Ġliter ary
H K
Debugger NonUser
Ġi Phone
ĠWork ing
Ġconcent rated
0 22
FR AG
0 11
an other
b ower
ĠC MS
ĠLog in
Commun ication
re peated
ir l
ĠFe ed
Î ®
ĠB ool
iss a
J ames
Ne ed
}} [
Ġsure ly
ĠT EXT
Ġco ffee
ĠCl one
= /
ĠT I
let ics
Ġpoly mer
ĠWrit es
ĠS B
fra structure
] []
Ġcomb ines
ĠIter able
B ubble
l w
Ġth resholds
Ġ! $
Ġval ued
)}\ \
Ġcombinator ial
ĳ ¼
ĠL R
ber ger
ĠLab our
eg e
spect ral
Ġmonth ly
r isk
x path
in fin
br ane
Ġun ified
Access ibility
ĠA str
Ġc t
Ġdirect ors
27 5
ĠR ab
Ġlat itude
adv anced
] -
order ing
ĠNe umann
ĠArch ive
b uff
frag ments
W heel
ĠLL C
es a
ĠUS D
comp oser
/// <
ĠFin ancial
ĠIslam ic
Ġsum mation
ĠHer itage
Un signed
CT X
aint ext
Ġaware ness
| (
view er
contains Key
di jit
Ġbr ands
End ian
$ _\
Ġ& -
Ġformer ly
ĠO wn
Ġ}) ();
+ |\
ĠF ive
man ded
er un
z k
form atted
Ġso ul
Ġcer emony
OO GLE
ĠEX PRESS
Ġgen re
in ces
deep Equal
Interop Services
ex clusion
Ġgener ations
Ġhard er
hy dro
$ "
* {\
UT ION
R CC
math ring
jac ency
ps z
t utorial
Ġinvestig ations
Text Node
j amin
Mich ael
ND ER
ãĥ ĥ
M us
rm k
U Integer
55 55
0 30
ĠH om
file Path
sw iper
ad vert
ĠM ars
âĢĻ ,
Ġorgan ic
Ġthrough put
Te V
ĠP AT
Ġmorph isms
c gi
ig ious
Ġmem cpy
ĠJo in
Ġkinem atic
ĠCatalog ue
ĠF arm
scroll bar
ow ired
Ġme l
cc a
ĠF etch
m arg
ew art
ort ex
is Defined
ac i
In gress
che ll
Ġelimin ated
nump y
cmid rule
). __
m igration
Ð°Ð ²
Pa ired
ĠØ§ ÙĦ
ol ine
PI C
ĠE dd
Call er
comb ination
PLA CE
& ,
/ ",
ĠE GL
Ġr ub
Node List
Ġeng agement
RO LL
ç ¤
Ġhead quarters
Mode s
ĠAR ISING
ĠR uby
Ġreson ances
ros copy
Ġchain ing
Comb ining
ĠVill age
sc enario
E ducation
ĠR ate
Ġmeet ings
izz le
L int
re search
Ġco operation
AV A
Z hang
g old
ĠSpec ify
ä½ ¿
scroll Left
Ġvill ages
ĠM PI
le b
develop ers
node js
background Color
D st
Ġde scriptors
19 1
doc utils
ĠC laim
Compar er
Pair s
WAR D
! }
eg an
18 1
ĠL A
ĠUk rainian
( #
Ġt ex
ĠPro vider
C artesian
Ġde sirable
ĠQ R
ĠQu ick
ĠPriv acy
Ġst ere
dist inct
ĠDist ribution
ĠT aking
table View
glob als
C b
irection al
th ink
S ynchron
lim sup
int rodu
unc er
fil ing
RI X
Ġgraph ic
Ġon Error
ill ation
ide al
Ġanalog ue
D lg
M aker
s izes
ĠG ot
met av
Ġ(! _
Ġdisc lo
Ġaband oned
Ġdist ant
Ġ; ;
Ġwh ilst
ĠSar ah
Class Loader
ĠLI ABLE
Ġn arrative
ap or
Info f
Ġgra d
Ġcomp ares
Ġref ined
Ġmonot onic
in struction
trans lated
Ġexplo sion
Ġref erring
tou ches
scal atest
w ant
get Request
F H
ul li
ĠB es
ST ER
Ġev il
p assed
Ġaz imuth
. }.
ĠAuthor ity
Ġsoph istic
Ð° ÑĢ
ĠTime out
C u
N AM
ĠM ongo
Ord inal
n ice
ĠG arden
ll ll
sq cup
Ġreput ation
ĠF O
name of
coll ision
Ġneighbour hood
woo commerce
Ġy aml
Ġbefore Each
Â ±
19 11
With Context
scor lib
ĠL D
ass er
ĠP T
HE IGHT
Ġlens ing
memItem Left
pers istent
K T
pre ttify
Ġrecord ings
ĠMet ro
s ce
tern oon
Web GL
PRE V
as io
ĠU pon
lade sh
D ll
R DF
Ġexpl oring
Ġsome where
Sim ulation
- )
ĠJ ason
Ġel igible
progress ive
Ġtx t
ĠF P
)\ )
Check Box
pur ple
Ġemer ged
ĠDoug las
Cre ating
ĠN ation
Ġne ck
MB ER
Ġpropag ator
æ ģ
Ġi NdEx
{\ "
Ġwe aring
ĠO cc
Ġimag ine
O m
Ġfluctu ation
Ġant ib
AIN ER
F V
T aking
is an
og g
Recent ly
Ġt iles
pro be
ĠBase ball
Ver ification
not ice
16 3
Out line
Ġyield ing
UN T
OP TS
æ³ ķ
Ï Ĩ
Ġelectric ity
VO ID
ĠB ab
Ġdef ensive
Ġb unch
ob servable
relat iv
Ġwind s
im ore
Ġcounter parts
es p
Ġg arden
23 7
_ <
ĠIn ner
ud p
ĠInput Stream
Ġland ing
ast ro
Ġnon atomic
rib ute
create Class
ynt hesis
Ġlabel led
R V
b abel
ĠW ard
Ġsimultane ous
2 15
G rad
ic ht
bootstrap cdn
plus plus
Ġprodu cers
ĠSw iss
Ġscre ens
K er
L B
o val
ĠA pr
Al ive
Ġgr ants
an tom
ĠY uk
rb an
umb le
T a
ass o
memItem Right
Ġcollect or
Oct ober
olo ad
ĠBar on
Http Response
h b
P ing
] _{\
ĠT ouch
Ġr x
D ro
ed a
lo de
cre st
++ ,
ysi html
NS Dictionary
Pre par
D onald
Â »
Ġed u
HEL P
File Info
N Y
ect ure
Ġpredict ing
By Key
dd d
] ,\
ĠS cheduler
19 05
Ġpar king
NS Array
AP H
Ġh ip
Ġselect s
Ġb es
Ġb ird
Ġm g
Ġro se
ATE G
IN F
ĠAg ric
Ġhypot heses
est ab
ang led
Script s
Ġmask ed
Rec v
åħ ¥
ĠWork er
U ART
Ġsupp lies
N ay
h on
av i
Ġsens ing
p refs
ĠC ancel
Ġf ires
sc ience
ia h
Ġre current
ĠM aur
}{ {
BIN ARY
A wards
light s
Ġg uns
limin aries
O U
e ah
Ġb orrow
}{ *}{\
ĠMar ine
con clusion
block ing
Buffer Size
pm od
Ca ption
Trans lator
cccc cc
Ġt foot
us ually
decor ate
ari ans
v ote
ĠFor ward
HP P
T ail
gra des
cord ova
Ġorgan isation
ac a
check s
Ġmon omial
DEC LA
r in
ol en
user content
b ast
st ars
ex pl
ĠS port
ĠBE GIN
A gg
Bi ography
us able
ĠResource Manager
T ou
Col our
re ats
ann o
K P
Ġp overty
^+ (
N LS
å ±
Ġi psum
Embed ded
Ġpl enty
Ġfin ance
mis c
loc ator
ĠB order
ĠMean while
an ne
ĠF ab
Recogn izer
3 45
Ġl yrics
pro cedure
ĠW a
Ġdo se
40 5
cit ation
sort able
Mouse Event
ĠV I
hen g
continu ity
execution s
Ġvic inity
ĠM organ
Ġ icons
ĠNa N
ath ers
ĠN ature
pr imitive
process ors
ub ect
Ġlo com
Ġfib ers
co d
ome s
Bit coin
Ġb il
Ġn ortheast
Ġbe ach
ç §
Ġinitial izer
level and
25 4
Ġste am
' }{
Numer ical
ME T
Se veral
Ġlower case
Context Menu
DE s
S inergi
Ġreg ret
Ġob s
b is
z render
el o
v ir
L G
ĠE asy
e ither
Ġgra mmar
isen berg
uch i
ĠP un
x FFFF
In herit
Con str
Ġcomput ers
g wt
iv an
Ġex iting
C ases
ic he
H M
Ġex terior
Pri or
iss ance
ĠMon th
Ġp k
ĠN ap
Con d
SH IFT
Ġenjoy ed
o S
ĠF red
ĠH old
Level s
Ġt ort
Ġ( /
Ġaugment ation
us hes
ĠN ev
Ġinstrument al
move To
Ġamb igu
Can adian
Ġal cohol
2 90
4 20
Ġappropri ately
ov ing
S IL
Ġper ipheral
ĠCh at
Ġref uge
c ertificate
Ġcons ent
ob tained
Ġaut onomous
Ġbary on
parame tric
- {
ĠS ent
Ġ> ::
17 3
Field Type
Ġtack le
Ġframework s
stud y
uck er
Ġpro ud
mark ed
)$ :
Ġnucle on
ubect l
B ERT
ĠBe an
Ġeduc ated
ĠN ON
ĠMay or
get Bytes
Se ptember
Aut owired
V V
Ġreli ef
19 13
Ġthought s
B RE
Ġs ym
File system
Ġpri ze
ug u
Y A
i our
fl avor
Ġfo ught
GENER IC
Pro be
Ġ$( {\
>& #
ĠMap s
b ubble
Form er
number Of
ĠMin or
redu ced
un ces
ow ards
20 48
yst al
od s
ĠB ry
str len
it ic
Ġs d
Ġwrit able
ambigu ation
Ġdec rypt
Pers istence
De veloper
ta ken
cyc lic
Ġstrug gle
P ager
ĠK u
:" -
pt ical
ĠDen ote
form ats
Ġdeep ly
ĠSign ature
ĠZ hang
ĠP RE
fl atten
ĠSe attle
Ġg ear
aaaa aaaa
Pre pare
Re covery
Ġimp ressive
\% )
Ġcirc uits
Fac ade
k afka
er v
ãĤ ¤
Ġfr anchise
Icon Success
Ġwalk s
Ġt weet
Ġs ibling
sl ots
Ġ[' $
L AT
Ġparameter ized
C aret
co ders
Per f
Ġsing let
w char
ric ulum
IB ILITY
h is
å ·
Th umb
../../ ../../
c wd
Ġ# [
or us
op enc
NS URL
ĠHttp Response
B ob
get Parameter
ester day
g host
18 6
C ube
App lications
{- .
Tra de
Ġf asc
Ġsp ots
ĠÐ½ Ðµ
AL TER
Group Id
ancell ation
Ġro unded
medi an
p reference
w izard
Ġ è
Ġl attices
[ ->]
n z
yn olds
Ġpay ing
currentTime Millis
ĠSub ject
Ap ps
Ġsub tle
Ġerrno Err
R UP
70 7
c ot
i am
Ġprote ins
........ ........
Ġdefect s
Ġclass ifiers
ĠCG Rect
Ġnot ions
Ġnew er
dispatch Event
) }}{
ĠS ud
ĠBind ing
ĠSTAT US
ĠHands ontable
l x
dev tools
Invalid ArgumentException
Un available
Ġinv asion
Ġauthor ized
$\ %
ĠForm ula
ĠE SP
ä¸ ĭ
mouse out
Ġcapt uring
Ġt all
al ready
ĠH ubble
Word Array
this Arg
Ġfound ing
behav iors
{ -\
leg es
ĠSk Pdf
ĠI ron
}{ -
ĠSerial izable
Ġattract ed
ic ious
Ġsimp licial
Bul k
el m
ens is
Ġp icker
new Builder
Ġencour aged
Americ a
Ġwat ched
as a
Ġj azz
ĠR ub
å ¸
pl ate
Ġfra ud
I de
Br ush
Ġg c
Ro bert
p unct
18 3
De cember
Ġshort cut
time zone
18 00
Anim ator
ĠMiss issippi
Ġcom bo
ĠInt Ptr
,\,\ ,\,\
Ġtra verse
Ġhad ronic
add Listener
Ġamong st
Ġs igma
Build ing
Ġl ap
col sep
tal k
vis itor
DF S
vers ations
Ġcros sed
ext ent
Ġassert ions
ĠDel ta
eq z
ential ly
vanish ing
Ġpro sec
ĠBuffer ed
k al
Ġtempor arily
a qu
ĠAl liance
restrict ed
+- +-
Ġtra pped
side d
} ''
ĠL en
ĠASC II
Ġ} _{
Ġunder go
Ġchild hood
Ġoccasion ally
power ed
C tor
ä» ¥
comb ine
Ġhad ron
he mer
Ġoptim izer
ĠT x
_* $
Ġdis connected
Ġspeed s
Ġbe ams
es cap
({ "
ĠS ans
Ġal arm
ĠB ush
di ctions
Ġleg it
m apped
ĠP OS
Ġc able
ĠQue stion
play ing
Cont rollers
Ġfru str
li ant
ĠAl an
k j
il io
pe m
quot a
Ġball s
d ifferential
åŃ Ĺ
: !
Ġt idal
Ġcre ator
is In
Ġres ist
Ġmultiplic ative
Ġ" ).
ĠJ osh
cyc les
0 12
ĠT alk
Ġde leting
Writ ten
ĠGir l
Key Down
Check point
ĠVAR CHAR
ĠD VD
Al ways
K w
IC Y
Ġir regular
Not Supported
ĠWH ETHER
P ARE
ĠL ane
Ġfile system
="@ {
Ġspars ity
* -
hed ron
ik es
Key words
Pub lisher
Cour se
c make
Anim ated
sim ulation
Ġcar to
Ġpre p
Ġaffect ing
Ġbelie ves
Ġ' =
SS M
Ġserial VersionUID
t rees
^+ _
raph ic
get First
ather ine
ĠByte Buffer
pal ette
) };
St y
Edit ing
}^* $
ml abel
ĠEx it
sw ipe
ĠPar am
Ø ´
Ġmicro scopic
bo lev
Ġret irement
ĠInd ustry
Ġt m
ĠP air
og o
Ġmand atory
Ġferm ionic
estim ated
N aming
ap ex
M V
Ġw id
Ġdiff use
Argument NullException
ON SE
pol ynomial
Ph ot
be it
Ġprepar ing
Ġparticip ant
h ai
Ġax ial
mag netic
prof iler
Ġb ipartite
ĠW ol
(" :
Ġdis posable
he ld
ĠN ag
19 07
Base line
Ġan satz
ĠSt atistics
à¤ ¾
IconSuccess Encoded
Ġis Valid
âĢ ī
Ġcons umed
Ġtw elve
Ġ[ $
(( *
ĠM ission
Http Client
che l
Ġin herits
ĠY an
ĠC ensus
text Color
Ġcomp ounds
W elcome
Ġcommand er
Ind ian
ĠØ ¨
reach able
Ġbro ader
Ġunivers ities
F riend
ance led
ĠSD SS
ĠSaf ety
Ġbon ds
ĠT an
set Data
Ġdecl arations
ur u
Ġt v
sw agger
ĠĠĠĠĠĠĠĠĠĠĠĠ čĊ
Ġlight s
Contact s
ĠðŁ ĳ¼
an onymous
Ġplay list
Ġchem istry
Ġqu art
pack aging
Ġiniti ative
ĠRic ci
Ġindiv idually
DebuggerNonUser CodeAttribute
Ġvulner able
ĠðŁĳ¼ </
00 9
mag ic
Ġinnov ative
ĠU tah
Ġon set
ĠConnect icut
ĠC el
g am
Ġt win
Ġa pert
:"- "`
H u
ĠTh er
Ġcros ses
ĠLabor atory
C MS
j unction
ex periments
ç¤ º
L aw
e asing
k el
Inst ead
Ġpool ing
index es
S aved
anc ies
supers cript
3 80
math rel
sph inx
Ġsubstr ate
Ġ{? }
d ar
Ġra ising
ĠMc K
Ġtrunc ation
ed mo
CD M
c plusplus
ang ent
SIGN ED
L ittle
ĠRE F
ĠSQL ITE
4 30
ĠL ex
Ġassoci ations
ĠPri or
ĠWal ter
{} ],
ĠG UI
Ġcollect ing
ĠUnsupported OperationException
e ur
ĠD un
ĠD allas
}{ (\
Ġth umb
[] }
ĠC ole
Web Contents
ĠOTHER WISE
er ving
Ġcon front
se lenium
Ġm illi
Ġv it
# [
f ine
SE ARCH
year s
ĠC ould
serv ing
Ġrem ind
Ġpul s
ĠT AG
T oler
il ty
Ġ` {
ĠChrist opher
some thing
jst ree
ge ometric
un iversal
ĠT ORT
ĠS IG
Ġch ained
22 1
n ed
is ible
g ms
g ene
@ ",
24 7
ĠRus sell
ĠCov id
imp lements
un ty
unit test
Ġe mitter
om al
az a
ol ated
26 3
Ġqu it
c rc
Sh op
Ġaccess ing
dition al
ag an
bl end
er ver
Access ible
alloc ated
Ġis Equal
U ng
ĠE s
Ġdegener acy
Ġin n
Ġsur jective
Ġs quee
Ġw el
}$. }
Web API
Tool Group
AR S
lik elihood
Re peated
)} +\
Ġex ported
ov o
Ġinflu ences
ĠDe an
Ph p
ĠSch r
ĠNetwork s
dat asets
AG ES
Ġhol iday
ĠD P
glew GetProcAddress
te or
sh oot
ro v
Type Id
Ġpower ed
ĠF ame
che str
Ġgovern ments
Ġmultip ly
æģ ¯
Ġar med
func ptr
ograph ics
Char set
Ġbenef icial
TA IL
Ġpl acing
Ġtra v
") [
vers ible
SE QU
Ð¾Ð ¹
}: =
bad logic
du les
Ġret Val
Media Type
ali ases
ut ational
Ġc i
Ġn ations
Produ ction
ĠP sych
Ġadv ances
Real m
SUP PORT
-- ">
Ġconstruct ors
Ġdecor ated
S phere
~ &
Ġgr ass
Jo urnal
AX B
de z
Ġspect roscopic
Se ed
ĠCh allenge
ĠGL boolean
)^{ -\
Ġprox imity
dat atype
ĠG row
sh ard
Pointer Exception
il o
r put
Ġun clear
Ġph arm
ra ge
Plain Object
â Ħ
`` ,
im on
{ }^
ĠA ctor
Â ·
im odal
ĠD ise
ĠN L
min utes
ail and
C os
Ġt id
Ġp uzz
/ @
ac ew
col lector
norm als
' %
Message Box
hig her
ĠG RB
ĠFile System
Ġh ate
Ġexp ired
d os
Ġc us
v js
ĠC riteria
ĠTo gether
zer os
m outh
Ð ŀ
ĠSt orm
network s
= ="
en ium
22 6
)} +
)/ (
q v
ĠM aj
ĠU r
gr ant
ĠTh ompson
S andbox
@ -
Ġse cre
ick en
ĠDes cript
Ġingre dients
ĠRe vision
Ġtra it
or able
ay an
uit ively
\ &
U id
Let ter
Ġcurrent Time
ĠAnton io
Ġc ot
Ġpol ling
W C
ä ¾
Ġu k
L d
Ġfor k
ĠB uff
Ġas ide
Ġinstanti ate
{ ,
ĠJon athan
s lick
Ġdiscr imination
ĠDub lin
ĠR outer
Wait ing
Cl s
ĠCON NECT
ĠPart ners
Austral ian
R ol
() (
Ġep ide
| ^{\
b ag
+ ,
[] []
N g
Ġ( ++
ĠP ic
out il
E A
Ġra m
rob enius
ĠNiger ia
get Num
B ibliography
ĠTool s
ĠArgent ina
ĠP la
ce led
ĠH ermitian
CH O
over rightarrow
Cod er
Ġ+ (
config s
Ġresid ential
'= >'
Ġpermut ations
>? [<
s ensor
Ġ/ =
send coins
ocr acy
ĠC RE
reg ression
Add ing
Ġsuccess ive
pers ist
ĠDI RECT
mer ged
Ġjump s
à ¦
ne ver
chan ical
S chool
4 28
ab ad
ĠG em
cr imin
Ġin ventory
Ġ[ ]);
Play ing
Ġdrum s
Ġsuccess or
thon ormal
ĠTra il
Ed m
b K
ĠW riter
Py Object
Dig its
_ ("./
Ï ī
and al
Ġb ronze
stud ent
B ol
H old
Ex periment
col lapsible
s ontable
ĠMOD ULE
Ġswe ep
` ;
}^{ [
Ġsp ell
Read Write
recogn ized
Ï Į
Mod ifiers
Mock ito
Ġf est
Res p
ink owski
e o
f ather
m atter
set Enabled
]$ }
Ġphot ometry
ĠDec imal
subNav List
Ġsh ots
Ġpre val
30 6
Ġinh abit
Qual ified
Ġget attr
( |\
Ġ$ ('<
ĠA rc
ĠP K
Ġob lig
ĠSh op
Ġadd EventListener
Ġacknowled ges
Ġobservable Proto
Const ituency
Check sum
Ġdead line
Ġel apsed
N B
3333 33
ĠB roadcast
ĠÎ ±
wik ime
Y ea
Ġre ign
Ġpe dest
Ġcomplet ing
ĠA le
ĠE lection
DO MAIN
hard ware
serial ized
}) +\
relativ istic
Widget s
ĠBelg ium
allow s
Ġtouch down
temp oral
ĠTe levision
K V
ĠMat thew
}\| _
s lo
al ong
w ifi
ĉĉĉĉĉĉĉĉ ĉĉĉĉĉĉ
âĢĻ .
Ġcelebr ated
Ġswit ched
l k
Ġp up
ĠSchool s
ĠW right
Ġra ises
Ġmonot one
DECLA RE
M is
Ġle ase
ĠH z
all s
ĠK am
IFI ER
SING LE
G i
Olymp ic
44 3
Dynam ically
A fr
Ġsynchron ization
Ġbos onic
ĠQuant um
xml ns
Ġold Value
ĠCall ing
ĠA stro
Ġcan celed
Ġpod cast
ĠPack ages
\\ \\
M ot
key up
Illegal ArgumentException
ĠE R
c A
Ġb a
ĠK enn
Ġl ane
bl k
lov ak
Open GL
ĠHar vard
Public Key
Ġl ung
ĠIN VALID
K ing
Ġt ips
Ġhe lic
co us
ĠIn finity
ĠC AP
end ors
Change Listener
sr v
z u
[...]
