{"[UNK]":0,"!":1,"\"":2,"#":3,"$":4,"%":5,"&":6,"'":7,"(":8,")":9,"*":10,"+":11,",":12,"-":13,".":14,"/":15,"0":16,"1":17,"2":18,"3":19,"4":20,"5":21,"6":22,"7":23,"8":24,"9":25,":":26,";":27,"<":28,"=":29,">":30,"?":31,"@":32,"A":33,"B":34,"C":35,"D":36,"E":37,"F":38,"G":39,"H":40,"I":41,"J":42,"K":43,"L":44,"M":45,"N":46,"O":47,"P":48,"Q":49,"R":50,"S":51,"T":52,"U":53,"V":54,"W":55,"X":56,"Y":57,"Z":58,"[":59,"\\":60,"]":61,"^":62,"_":63,"`":64,"a":65,"b":66,"c":67,"d":68,"e":69,"f":70,"g":71,"h":72,"i":73,"j":74,"k":75,"l":76,"m":77,"n":78,"o":79,"p":80,"q":81,"r":82,"s":83,"t":84,"u":85,"v":86,"w":87,"x":88,"y":89,"z":90,"{":91,"|":92,"}":93,"~":94,"¡":95,"¢":96,"£":97,"¤":98,"¥":99,"¦":100,"§":101,"¨":102,"©":103,"ª":104,"«":105,"¬":106,"®":107,"¯":108,"°":109,"±":110,"²":111,"³":112,"´":113,"µ":114,"¶":115,"·":116,"¸":117,"¹":118,"º":119,"»":120,"¼":121,"½":122,"¾":123,"¿":124,"Â":125,"Ã":126,"Ä":127,"Å":128,"Æ":129,"Ç":130,"È":131,"É":132,"Ê":133,"Ë":134,"Ì":135,"Í":136,"Î":137,"Ï":138,"Ð":139,"Ñ":140,"Ò":141,"Ó":142,"Ô":143,"Õ":144,"Ö":145,"×":146,"Ø":147,"Ù":148,"Ú":149,"Û":150,"Ü":151,"Ý":152,"Þ":153,"ß":154,"à":155,"á":156,"â":157,"ã":158,"ä":159,"å":160,"æ":161,"ç":162,"è":163,"é":164,"ê":165,"ë":166,"ì":167,"í":168,"î":169,"ï":170,"ð":171,"ò":172,"ó":173,"ô":174,"Ā":175,"ā":176,"Ă":177,"ă":178,"Ą":179,"ą":180,"Ć":181,"ć":182,"Ĉ":183,"ĉ":184,"Ċ":185,"ċ":186,"Č":187,"č":188,"Ď":189,"ď":190,"Đ":191,"đ":192,"Ē":193,"ē":194,"Ĕ":195,"ĕ":196,"Ė":197,"ė":198,"Ę":199,"ę":200,"Ě":201,"ě":202,"Ĝ":203,"ĝ":204,"Ğ":205,"ğ":206,"Ġ":207,"ġ":208,"Ģ":209,"ģ":210,"Ĥ":211,"ĥ":212,"Ħ":213,"ħ":214,"Ĩ":215,"ĩ":216,"Ī":217,"ī":218,"Ĭ":219,"ĭ":220,"Į":221,"į":222,"İ":223,"ı":224,"Ĳ":225,"ĳ":226,"Ĵ":227,"ĵ":228,"Ķ":229,"ķ":230,"ĸ":231,"Ĺ":232,"ĺ":233,"Ļ":234,"ļ":235,"Ľ":236,"ľ":237,"Ŀ":238,"ŀ":239,"Ł":240,"ł":241,"Ń":242,"ĠĠ":243,"ĠĠĠĠ":244,"in":245,"Ġt":246,"on":247,"er":248,"at":249,"re":250,"he":251,"Ġa":252,"ĠĠĠ":253,"en":254,"ĠĠĠĠĠĠĠĠ":255,"or":256,"st":257,"al":258,"ion":259,"Ġthe":260,"le":261,"Ġc":262,"it":263,"ar":264,"an":265,"se":266,"is":267,"Ġf":268,"de":269,"ct":270,"Ġo":271,"ro":272,"me":273,"Ġp":274,"ing":275,"Ġs":276,"ic":277,"Ġw":278,"Ġb":279,"Ġin":280,"ĠĠĠĠĠĠĠ":281,"ed":282,"ent":283,"es":284,"Ġ=":285,"Ġ\\":286,"nd":287,"ur":288,"Ġof":289,"Ġ$":290,"ĉĉ":291,"as":292,"et":293,"Ġre":294,"Ġn":295,"ut":296,"Ġ(":297,"ig":298,"Ġ{":299,");":300,"ac":301,"Ġm":302,"Ġto":303,"il":304,"el":305,"ation":306,"Ġth":307,"Ġand":308,"ol":309,"un":310,"ex":311,"Ġ<":312,"Ġd":313,"mp":314,"ul":315,"ot":316,"if":317,"id":318,"ra":319,"lo":320,"--":321,"=\"":322,"Ġ*":323,"Ġh":324,"ĠĠĠĠĠĠĠĠĠĠĠ":325,"iv":326,"ce":327,"th":328,"čĊ":329,"//":330,"Ġv":331,"ag":332,"pe":333,"ab":334,"ction":335,"</":336,"ĠT":337,"qu":338,"Ġis":339,"ate":340,"ĠS":341,"Ġ}":342,"ame":343,"ad":344,"tr":345,"um":346,"ter":347,"Ġst":348,"ch":349,"Ġfor":350,"Ġl":351,"_{":352,"us":353,"Ġg":354,"ĠC":355,"co":356,"Ġe":357,"pt":358,"am":359,"ĠA":360,"ss":361,"Ġcon":362,"ass":363,"end":364,"ht":365,"im":366,"ĠĠĠĠĠ":367,"ue":368,"Ġde":369,"ist":370,"ly":371,"ver":372,"ath":373,"ub":374,"Ġco":375,"ith":376,"ĠĠĠĠĠĠĠĠĠĠĠĠĠĠĠĠ":377,"Ġ\"":378,"In":379,"ext":380,"Ġse":381,"ri":382,"urn":383,"\">":384,"()":385,"**":386,"ap":387,"Ġbe":388,"em":389,"Ġon":390,"Ġ&":391,"up":392,"ow":393,"sp":394,"ect":395,"lass":396,"ew":397,"{\\":398,"est":399,"age":400,"ir":401,"turn":402,"ay":403,"od":404,"av":405,"ĠM":406,"ta":407,"Ġthat":408,"ort":409,"ype":410,"==":411,"ode":412,"ine":413,"and":414,"Ġthis":415,"Ġ$\\":416,"li":417,"Ġ'":418,"ĠP":419,"ers":420,"Ġpro":421,"Ġif":422,"ure":423,"ref":424,"ment":425,"iz":426,"able":427,"Ġwith":428,"ase":429,"----":430,"ult":431,"con":432,"to":433,"20":434,"Ġan":435,"ight":436,"math":437,"ĠR":438,"Ġal":439,"ĠF":440,"ĠB":441,"int":442,"ĠI":443,"get":444,"ĠD":445,"eg":446,"ph":447,"ĠĠĠĠĠĠĠĠĠĠĠĠĠĠĠ":448,"art":449,"ma":450,"unction":451,"ity":452,"ack":453,"ĠĊ":454,"our":455,"per":456,"cal":457,"Ġas":458,"ption":459,"ĠL":460,"lic":461,"rom":462,"Ġclass":463,"Ġ//":464,"Ġex":465,"ĠN":466,"ke":467,"ile":468,"..":469,"ĠThe":470,"ata":471,"Ġwh":472,"ang":473,"ck":474,"Ġreturn":475,"ĠH":476,"Ġby":477,"ime":478,"ial":479,"om":480,"ĠE":481,"und":482,"ere":483,"ite":484,"Ġor":485,"}\\":486,"alue":487,"Ġ-":488,"ĉĉĉĉ":489,"ore":490,"orm":491,"Ġit":492,"text":493,"}$":494,"pro":495,"ĠG":496,"Ġwe":497,"ans":498,"Ġ@":499,"ive":500,"^{":501,"ject":502,"00":503,"use":504,"imp":505,"ĠW":506,"Ġ+":507,"Ġr":508,"Ġme":509,"ff":510,"âĢ":511,"Ġare":512,"->":513,"os":514,"op":515,"all":516,"ft":517,"ace":518,"set":519,"res":520,"ess":521,"ies":522,"::":523,"str":524,"Ġat":525,"ib":526,"Ġtr":527,"Ġfunction":528,"ant":529,"Con":530,"ition":531,"oc":532,"Ġfrom":533,"),":534,"are":535,"ign":536,"}}":537,"Ġ[":538,"lu":539,"ĠO":540,"ber":541,"Ġ</":542,"par":543,").":544,"(\\":545,"sc":546,"\",":547,"ary":548,"ource":549,"ind":550,"out":551,"ill":552,"ve":553,"Ġ/":554,"equ":555,"();":556,"egin":557,"fig":558,"ated":559,"ire":560,"ord":561,"Ġch":562,"ps":563,"',":564,"Ġnot":565,"ser":566,"begin":567,"act":568,"(\"":569,"ize":570,"Ġy":571,"Ġlo":572,"ide":573,"Ġsh":574,"../":575,"},":576,"og":577,"nt":578,"St":579,"Ġ*/":580,"19":581,"ublic":582,"bject":583,"ge":584,"Ġres":585,"row":586,"Ġnew":587,"ast":588,"Ġle":589,"ip":590,"ull":591,"Ġvar":592,"ray":593,"this":594,"lf":595,"abel":596,"ens":597,")$":598,"Ġcomp":599,"form":600,"_{\\":601,"name":602,"ĉĉĉ":603,"tring":604,"ml":605,"Ġname":606,"Ġ:":607,"The":608,"ĠU":609,"--------":610,"err":611,"('":612,"ave":613,"lement":614,"dd":615,"vent":616,"te":617,"ĠĠĠĠĠĠĠĠĠ":618,"bo":619,"put":620,"Ġcan":621,"Ġwas":622,"ance":623,"ener":624,"****":625,"ical":626,"Ex":627,"low":628,"ug":629,"ich":630,"def":631,"fr":632,"}{":633,"ty":634,"ence":635,"ice":636,"ĠIn":637,"div":638,"ome":639,"Name":640,"ĠĠĠĠĠĠĠĠĠĠĠĠĠĠĠĠĠĠĠ":641,"Ġar":642,"Ġ|":643,"ert":644,"ell":645,"Re":646,"))":647,"Ġstr":648,"ations":649,"right":650,"Ġ.":651,"====":652,"iel":653,"ard":654,"eq":655,"ost":656,"Ġ_":657,"Ġun":658,"pl":659,"ild":660,"cc":661,"ork":662,"pp":663,"Ġhe":664,"ield":665,"ĠJ":666,"Ġdef":667,"di":668,"du":669,"ory":670,"ach":671,"frac":672,"ong":673,"port":674,"Ġj":675,"></":676,"import":677,"ak":678,"fer":679,"odel":680,"tain":681,"Pro":682,"span":683,"cite":684,"label":685,"Ġset":686,"amp":687,"return":688,"10":689,"ator":690,"com":691,"line":692,"Ġuse":693,"so":694,"ust":695,"one":696,"ok":697,"dex":698,"unt":699,"oid":700,"sh":701,"ĠV":702,"ER":703,"param":704,"var":705,"col":706,"ll":707,"><":708,"Ġpublic":709,"ssage":710,"Ġint":711,"key":712,"the":713,"ress":714,"mathb":715,"ĠTh":716,"iew":717,"left":718,"Ġwhich":719,"lect":720,"Ġi":721,"Ġvalue":722,"Ġ!":723,"ec":724,"Type":725,"pect":726,"alse":727,"eng":728,"yst":729,"../../":730,"Ġhave":731,"code":732,"201":733,"les":734,"String":735,"Ġtype":736,"uld":737,"Ġk":738,"scri":739,"Ġdo":740,"clu":741,"Ġus":742,"$.":743,"html":744,"rm":745,"ix":746,"'s":747,"own":748,"$,":749,"type":750,"ther":751,"mo":752,"che":753,"ink":754,"ON":755,"umber":756,"val":757,"Ġ#":758,"Ġhas":759,"eta":760,"roup":761,"})":762,"ystem":763,"oint":764,"IN":765,",\\":766,"ĠK":767,"Ġget":768,"io":769,"Ġbo":770,"ded":771,"we":772,"}.":773,"Ġma":774,"ree":775,"fo":776,"Ġcom":777,"idth":778,"Co":779,"mathcal":780,"inal":781,"Ġdata":782,"app":783,"old":784,"source":785,"of":786,"Ġhref":787,"Id":788,"message":789,"ument":790,"equation":791,"atch":792,"trans":793,"Ġpl":794,"hen":795,"Ġall":796,"enc":797,"Ġ`":798,"Ġconst":799,"cre":800,"sum":801,"sed":802,"Ġel":803,"tern":804,"ef":805,"ual":806,"pec":807,"arg":808,"ou":809,"irst":810,"ault":811,"ution":812,"lation":813,"uct":814,"riv":815,"Ġqu":816,"ery":817,"atic":818,"lock":819,"sub":820,"}(":821,"ptions":822,"ates":823,"Ġcont":824,"ia":825,"ache":826,"Ġresult":827,"RE":828,"yn":829,"Ġ=>":830,"Ġpar":831,"da":832,"~\\":833,"Ġwill":834,"vel":835,"ga":836,"ute":837,"td":838,"ength":839,"Ġself":840,"Ġerr":841,"ep":842,"mb":843,"ST":844,"Ġ==":845,"}^":846,"ould":847,"Ġnull":848,"Res":849,"Ġout":850,"}_":851,"Ġass":852,"ange":853,"add":854,"Ġdis":855,"Ġsu":856,"vice":857,"__":858,"Ġcol":859,"Ġ>":860,"pha":861,"ined":862,"urre":863,"Ġtime":864,"led":865,"ms":866,"List":867,"ics":868,"thod":869,"##":870,"Ġline":871,"/>":872,"ark":873,"Ġob":874,"her":875,"ule":876,"over":877,"emp":878,"Ar":879,"âĢĻ":880,"Ġone":881,"12":882,"amb":883,"bar":884,"alpha":885,"til":886,"ses":887,"pi":888,"dot":889,"ception":890,"Ġ)":891,"Ġid":892,"string":893,"Ġ&&":894,"Ġper":895,"Ġpart":896,"Ġtrue":897,"ear":898,"Ġfalse":899,"back":900,"AT":901,"Ġ||":902,"Ġx":903,"Ġup":904,"Ġpre":905,"Ġsp":906,"Ch":907,"min":908,"clude":909,"\"/>":910,"not":911,"trib":912,"rr":913,"ameter":914,"To":915,"class":916,"ud":917,"ors":918,"._":919,"Ġvoid":920,"raph":921,"ne":922,"://":923,"Ġen":924,"Ġcase":925,"Ġval":926,"Ġrequ":927,"Ġro":928,"ob":929,"));":930,"data":931,"item":932,"wo":933,"Ġelse":934,"Th":935,"ry":936,"ings":937,"time":938,"200":939,"Ġab":940,"ian":941,"ĠĠĠĠĠĠĠĠĠĠĠĠĠĠĠĠĠĠĠĠĠĠĠ":942,"ular":943,")\\":944,"ions":945,"ents":946,"Ġinter":947,"];":948,"LE":949,"ont":950,"ambda":951,"urrent":952,"ature":953,"uild":954,"ader":955,"space":956,"tp":957,"ca":958,"ĠĠĠĠĠĠĠĠĠĠĠĠĠ":959,"let":960,"for":961,"translation":962,"ail":963,"Value":964,"osition":965,"ative":966,"rit":967,"Ġalso":968,"value":969,"Ġso":970,"OR":971,"ifi":972,"ific":973,"ues":974,"********":975,"ĠâĢ":976,"spon":977,"ho":978,"Ġmodel":979,"ise":980,"Ġ/**":981,"der":982,"\");":983,"////":984,"Ġsub":985,"ey":986,"ton":987,"Ġ\\\\":988,"Ġbut":989,"ID":990,"yle":991,"self":992,"----------------":993,"loc":994,"comp":995,"ĠThis":996,"Data":997,"Ġover":998,"itle":999,"ie":1000,"perty":1001,"Ġform":1002,"=\\":1003,"ask":1004,"ugh":1005,"round":1006,"read":1007,"_\\":1008,"amma":1009,"Ġstring":1010,"cent":1011,"AR":1012,"Ġadd":1013,"Ġend":1014,"ĠĠĠĠĠĠ":1015,"16":1016,"$\\":1017,"AL":1018,"ollow":1019,"):":1020,"mu":1021,"Ġne":1022,"EN":1023,"function":1024,"ely":1025,"px":1026,"Ġser":1027,"rivate":1028,"\"><":1029,"Ġtrans":1030,"Ġinst":1031,"ose":1032,"Ġwhen":1033,"ole":1034,"work":1035,"son":1036,"ĠSt":1037,"arget":1038,"mathbb":1039,"pr":1040,"file":1041,"lection":1042,"')":1043,"Ġsup":1044,"Object":1045,"ider":1046,"18":1047,"}^{":1048,"Err":1049,"ĠĠĠĠĠĠĠĠĠĠĠĠĠĠĠĠĠĠĠĠĠĠĠĠĠĠĠĠĠĠĠĠ":1050,"ces":1051,"Col":1052,"igma":1053,"Ġtest":1054,"Tr":1055,"ĠWe":1056,"Ġimp":1057,"($":1058,"log":1059,"========":1060,"}_{":1061,"cess":1062,"la":1063,"Set":1064,"pre":1065,"Ġyou":1066,"ick":1067,"Ġfirst":1068,"date":1069,"En":1070,"Ġtwo":1071,"Ġother":1072,"],":1073,"section":1074,"Ġapp":1075,"arch":1076,"ava":1077,"Ġany":1078,"rame":1079,"Ġobject":1080,"bf":1081,"Ser":1082,"ov":1083,"Ġdif":1084,"Ġonly":1085,"ys":1086,"-\\":1087,"Ġap":1088,"width":1089,"ĠY":1090,"Ġreg":1091,"Ġfollow":1092,"\")":1093,"lient":1094,"SS":1095,"sion":1096,"Ġ!=":1097,"Ġexp":1098,"Ġmethod":1099,"its":1100,"ish":1101,"ash":1102,"');":1103,"cri":1104,"11":1105,"new":1106,"under":1107,"We":1108,"cond":1109,"Ġno":1110,"fter":1111,"Ġgener":1112,"ample":1113,"align":1114,"resent":1115,"Ġmore":1116,"igh":1117,"Ġext":1118,"Ġ--":1119,"irect":1120,"uff":1121,"phi":1122,"^{\\":1123,"ĠCh":1124,"Ġnumber":1125,"unc":1126,"cl":1127,"ible":1128,"Ġthere":1129,"32":1130,"lem":1131,"umn":1132,"mathbf":1133,"Ġused":1134,"odule":1135,"Comp":1136,"ility":1137,"wh":1138,"lambda":1139,"als":1140,"array":1141,"Exception":1142,"ld":1143,"Ġwhere":1144,"orre":1145,"ann":1146,"pend":1147,"Ġad":1148,"ound":1149,"arent":1150,"test":1151,"};":1152,"ater":1153,"Ġkey":1154,"Par":1155,"Ġspec":1156,"ccess":1157,"Ġdist":1158,"At":1159,"ages":1160,"ding":1161,"Ġcre":1162,"Ġfile":1163,"size":1164,"part":1165,"mon":1166,"Ġthen":1167,"ating":1168,"org":1169,"requ":1170,"Error":1171,"Test":1172,"Key":1173,"mary":1174,"Ġ{\\":1175,"Ġwork":1176,"Ġbet":1177,"Ġsome":1178,"Ġtheir":1179,"play":1180,"15":1181,"cont":1182,"Ġ%":1183,"Ġorg":1184,"hat":1185,"DE":1186,"It":1187,"br":1188,"Ġits":1189,"ins":1190,"heck":1191,"ved":1192,"Ġwere":1193,"action":1194,"ream":1195,"del":1196,"Ġequ":1197,"face":1198,"Ġsuch":1199,"hed":1200,"length":1201,"ĉĉĉĉĉ":1202,"struct":1203,"ax":1204,"yp":1205,"IT":1206,"Ġstate":1207,"Ġ///":1208,"mand":1209,"ng":1210,"ized":1211,"roll":1212,"Ġour":1213,"atus":1214,"\\\\":1215,"Se":1216,"SE":1217,"().":1218,"anag":1219,"Ġhis":1220,"Ġstatic":1221,"25":1222,"Event":1223,"Get":1224,"ilon":1225,"uth":1226,"ody":1227,"Ġfield":1228,"script":1229,"oth":1230,"ĠString":1231,"Ġcons":1232,"box":1233,"Ġgiv":1234,"Ġ},":1235,"ilter":1236,"Node":1237,"psilon":1238,"ased":1239,"dis":1240,"CT":1241,"Ġeach":1242,"ocument":1243,"Ġarg":1244,"view":1245,"ternal":1246,"index":1247,"raw":1248,"Un":1249,"());":1250,"Cont":1251,"indow":1252,"sigma":1253,"Ġdiffer":1254,"ning":1255,"include":1256,"Ġrel":1257,"nb":1258,"Ġinto":1259,"ger":1260,"beta":1261,"figure":1262,"Ġchar":1263,"Ġ?":1264,"Element":1265,"ĠIt":1266,"Ġthan":1267,"Ġfinal":1268,"mer":1269,"ices":1270,"table":1271,"Ġusing":1272,"ĠCo":1273,"location":1274,"be":1275,"Ġshow":1276,"inter":1277,"order":1278,"Ġu":1279,"ler":1280,"/**":1281,"rc":1282,"Time":1283,"url":1284,"Ġ===":1285,"top":1286,"try":1287,"ization":1288,"ract":1289,"angle":1290,"Ġevent":1291,"ner":1292,"aw":1293,"any":1294,"File":1295,"Ġbeen":1296,"].":1297,"Ġback":1298,"ĠCon":1299,"ween":1300,"Ġ(\\":1301,"ince":1302,"Ġcall":1303,"onent":1304,"erm":1305,"ify":1306,"*}":1307,"By":1308,"\";":1309,"Ġim":1310,"ersion":1311,"tilde":1312,"ote":1313,"node":1314,"ĠRe":1315,"fore":1316,"Ġlist":1317,"['":1318,"For":1319,"ock":1320,"link":1321,"Ġelement":1322,"Ġpoint":1323,"nbsp":1324,"rite":1325,"Ġnode":1326,"olution":1327,"summary":1328,"100":1329,"Ġtra":1330,"AN":1331,"js":1332,"De":1333,".</":1334,"^{-":1335,"late":1336,"}{\\":1337,"lete":1338,"13":1339,"list":1340,"Ġprivate":1341,"ious":1342,"Ġrep":1343,"gra":1344,"14":1345,"Ġunder":1346,"Ġ);":1347,"ME":1348,"mathrm":1349,"Qu":1350,"ĠPro":1351,"Class":1352,"Ġerror":1353,"util":1354,"ĠUn":1355,"Requ":1356,"roid":1357,"Ġsystem":1358,"\":":1359,"mall":1360,"Ġcorre":1361,"ĠĠĠĠĊ":1362,"Ġph":1363,"View":1364,"Ġprov":1365,"]{":1366,"Ġact":1367,"ĠX":1368,"+\\":1369,"Ġthey":1370,"gamma":1371,"load":1372,"uffer":1373,"ain":1374,"ui":1375,"ities":1376,"ous":1377,"Ġoper":1378,"(),":1379,"ced":1380,"^\\":1381,"Ġbetween":1382,"mber":1383,"Ġent":1384,"lob":1385,"Ġarray":1386,"Array":1387,"Ġmay":1388,"Ġz":1389,"go":1390,"cript":1391,"rap":1392,"ww":1393,"ector":1394,"ified":1395,"pen":1396,"tot":1397,"Index":1398,"Ġcal":1399,"/*":1400,"itial":1401,"ume":1402,"const":1403,"State":1404,"rol":1405,"ĠSe":1406,"ground":1407,"delta":1408,"count":1409,"Ġ(!":1410,"inst":1411,"red":1412,"ake":1413,"ffect":1414,"path":1415,"py":1416,"UL":1417,"ays":1418,"CO":1419,"Ġgo":1420,"Ġnon":1421,"uration":1422,"cale":1423,"Ġparameter":1424,"atri":1425,"Ġ});":1426,"vert":1427,"ational":1428,"ĠIf":1429,"He":1430,"group":1431,"sign":1432,")}":1433,"field":1434,"public":1435,"Ġ:=":1436,"nav":1437,"Ġgiven":1438,"ired":1439,"']":1440,"ension":1441,"Ġli":1442,"times":1443,"theta":1444,"rho":1445,"Ġ/*":1446,"':":1447,"Ġshould":1448,"Ġte":1449,"RO":1450,"lay":1451,"Ġprob":1452,"Ġoff":1453,"22":1454,"http":1455,"Ġfe":1456,"ĠFor":1457,"main":1458,"Ġcurrent":1459,"tau":1460,"ments":1461,"tribute":1462,"Ġpr":1463,"ymb":1464,"ĠEx":1465,"Ġthese":1466,"leq":1467,"cdot":1468,"Text":1469,"Sh":1470,"64":1471,"ool":1472,"olean":1473,"Ġstart":1474,"cle":1475,"void":1476,"reak":1477,"mit":1478,"imit":1479,"no":1480,"ymbol":1481,"Path":1482,"\"></":1483,"tainer":1484,"Ġsize":1485,"Ġ};":1486,"pack":1487,"reg":1488,"atrix":1489,"net":1490,"rib":1491,"$-":1492,"ush":1493,"17":1494,"color":1495,"ven":1496,"';":1497,"Ġra":1498,"tps":1499,"rt":1500,"by":1501,"sec":1502,"Ġac":1503,"olog":1504,"}$,":1505,"eqref":1506,"pert":1507,"ient":1508,"As":1509,"}(\\":1510,"utton":1511,"Ġ/>":1512,"Int":1513,"map":1514,"TE":1515,"air":1516,"ting":1517,"gy":1518,"dition":1519,"Lo":1520,"Info":1521,"icon":1522,"PE":1523,"}$.":1524,"ists":1525,"``":1526,"Del":1527,"Ġdifferent":1528,"big":1529,"ished":1530,"Request":1531,"Met":1532,"Ġsame":1533,"formation":1534,"Item":1535,"Ġsign":1536,"Ġexpect":1537,"PI":1538,"Ġmin":1539,"ride":1540,"Ġ$(":1541,"Def":1542,"...":1543,"serv":1544,"Ġpol":1545,"Equ":1546,"ward":1547,"Ġassert":1548,"Ġsc":1549,"ION":1550,"Ġthrow":1551,"++":1552,"call":1553,"pm":1554,"arrow":1555,"30":1556,"Map":1557,"ense":1558,"An":1559,"Ġorder":1560,"Ġappro":1561,"iss":1562,"Ġhand":1563,"())":1564,"Ġgroup":1565,"ĠĠĊ":1566,"ĠĠĠĠĠĠĠĠĠĠĠĠĠĠĠĠĠĠĠĠĠĠĠĠĠĠĠ":1567,"partial":1568,"TR":1569,"Ġafter":1570,"ences":1571,"cept":1572,"Ġpo":1573,"Context":1574,"199":1575,"Ġvari":1576,"tab":1577,"ĠQ":1578,"result":1579,"ency":1580,"Ġstruct":1581,"user":1582,"anager":1583,"ern":1584,"move":1585,"ines":1586,"Ġvalues":1587,"Field":1588,"umer":1589,"Config":1590,"Ġabout":1591,"LA":1592,"md":1593,"ctions":1594,"nu":1595,"very":1596,"center":1597,"50":1598,"ically":1599,"ally":1600,"Com":1601,"Ġdefault":1602,"With":1603,"ank":1604,"Code":1605,"Add":1606,"|\\":1607,"Ġest":1608,"!--":1609,"Ġfollowing":1610,"input":1611,"lose":1612,"Ġht":1613,"ĠHe":1614,"object":1615,"ym":1616,"ected":1617,"rough":1618,"gin":1619,"fty":1620,"que":1621,"Ġprodu":1622,"âĢĿ":1623,"sq":1624,"config":1625,"21":1626,"On":1627,"////////":1628,"sponse":1629,"Ġhad":1630,"omega":1631,"default":1632,"max":1633,"ron":1634,"ily":1635,"po":1636,"infty":1637,"Ġoptions":1638,"Ġrequest":1639,"Ġinv":1640,"Of":1641,"ision":1642,"Ġresults":1643,"ared":1644,"IC":1645,"=\"../../":1646,"AC":1647,"ports":1648,"lex":1649,"true":1650,"Ġwould":1651,"olds":1652,"graph":1653,"tom":1654,"ression":1655,"rag":1656,"ever":1657,"Ġtitle":1658,"perties":1659,"create":1660,"ts":1661,"rid":1662,"valid":1663,"Ġwhile":1664,"ster":1665,"cope":1666,"\"\"":1667,"Size":1668,"api":1669,"Ġplay":1670,"quad":1671,"Ġsim":1672,"ĠZ":1673,"cord":1674,"gor":1675,"uch":1676,"Delta":1677,"UR":1678,"Ġkn":1679,"Form":1680,"Ġnil":1681,"Ġ__":1682,"****************":1683,"Ġinput":1684,"ential":1685,"Ġpath":1686,"define":1687,"word":1688,"Hand":1689,"uto":1690,"search":1691,"Ġtext":1692,"Ġed":1693,"Mess":1694,"quot":1695,"eturn":1696,"fin":1697,"24":1698,"Ġlong":1699,"temp":1700,"Ġmo":1701,"lag":1702,"lang":1703,"ormal":1704,"=\"+":1705,"Ġpe":1706,"Ġfact":1707,"ement":1708,"Ġtemp":1709,"model":1710,"event":1711,"pon":1712,"asses":1713,"Ġtarget":1714,"do":1715,"ync":1716,"Ġindex":1717,"Ġpartic":1718,"[]":1719,"Over":1720,"Al":1721,"Ġprovide":1722,"uring":1723,"Ġdescri":1724,"see":1725,"af":1726,"Ġinstance":1727,"ability":1728,"totype":1729,"Service":1730,"ister":1731,"ren":1732,"etwork":1733,"assert":1734,"abled":1735,"options":1736,"ĠAs":1737,"ĠDe":1738,"ogle":1739,"lication":1740,"ML":1741,"Or":1742,"Ġyear":1743,"ference":1744,"apache":1745,"ik":1746,"System":1747,"Val":1748,"ĠGet":1749,"uilder":1750,"Ġsee":1751,"'t":1752,"error":1753,"att":1754,"Ġcontain":1755,"oci":1756,"itor":1757,"block":1758,"state":1759,"Ġcode":1760,"Ġread":1761,"rop":1762,"Ġacc":1763,"ĉĉĉĉĉĉ":1764,"Ġmax":1765,"Bo":1766,"sk":1767,"Ġrun":1768,"Ġimport":1769,"Ġlocal":1770,"lobal":1771,"start":1772,"loat":1773,"Ġdoes":1774,"point":1775,"ason":1776,"Ġmod":1777,"ower":1778,"enu":1779,"ling":1780,"Ġconsider":1781,"Ph":1782,"Ġboth":1783,"Ġdirect":1784,"Ġwho":1785,"ĠAn":1786,"Ġjava":1787,"hod":1788,"ffic":1789,"}[":1790,"Ġright":1791,"ift":1792,"Ġmost":1793,"33":1794,"Im":1795,"ĠAl":1796,"ĠâĢĵ":1797,"ane":1798,"ffset":1799,"ams":1800,"from":1801,"ively":1802,"where":1803,"dt":1804,"eqn":1805,"xi":1806,"sup":1807,"mod":1808,"Ġyour":1809,"Ġmap":1810,"ful":1811,"$$":1812,"dots":1813,"Result":1814,"https":1815,"Ġher":1816,"ĠAr":1817,"med":1818,"Ġcheck":1819,"ars":1820,"ures":1821,"Not":1822,"Query":1823,"Ġobtain":1824,"tings":1825,"ĠĠĠĠĠĠĠĠĠĠĠĠ":1826,"000":1827,"Ġneed":1828,"Ġcl":1829,"base":1830,"Ġthrough":1831,"Ġwell":1832,"Ġmult":1833,"Ġcontext":1834,"orem":1835,"Le":1836,"inition":1837,"arge":1838,"}}\\":1839,"ingle":1840,"anc":1841,"Up":1842,"This":1843,"LO":1844,"core":1845,"Ġthem":1846,"func":1847,"####":1848,"body":1849,"style":1850,"version":1851,"Ġbase":1852,"Ġhigh":1853,"FF":1854,")$.":1855,"Ġuser":1856,"title":1857,"Ġcontent":1858,"select":1859,"Ġ,":1860,"='":1861,"Ġconfig":1862,"web":1863,"Des":1864,"Ġsecond":1865,"Ġopt":1866,"23":1867,"Ġtop":1868,"utes":1869,"Ġhow":1870,"Ġdistrib":1871,"Message":1872,"MA":1873,"\\,":1874,"UT":1875,"textbf":1876,"Ġ-->":1877,"Ġlow":1878,"nder":1879,"pos":1880,"ustom":1881,"âĢĵ":1882,"Ġfound":1883,"ification":1884,"iter":1885,"40":1886,"ĠTr":1887,"Inst":1888,"Ġfind":1889,"AD":1890,"ants":1891,"depend":1892,"){":1893,"defined":1894,"mark":1895,"bug":1896,"Ġlog":1897,"Model":1898,"ited":1899,"annel":1900,"ten":1901,"mega":1902,"ĠNew":1903,"Ġsource":1904,"ED":1905,"ough":1906,"ality":1907,"position":1908,"Ġeffect":1909,"Ġprocess":1910,"Ġanal":1911,"prototype":1912,"Out":1913,"Property":1914,"ĠčĊ":1915,"}_{\\":1916,"ULL":1917,"Ġdi":1918,"context":1919,"Inter":1920,"tt":1921,"land":1922,"Omega":1923,"ET":1924,"epsilon":1925,"man":1926,"reate":1927,"Ġblock":1928,"method":1929,"bm":1930,"other":1931,"Ġ()":1932,"bl":1933,"less":1934,"sw":1935,"lt":1936,"ople":1937,"wide":1938,"Ġsur":1939,"Is":1940,"ypes":1941,"wn":1942,"az":1943,"orld":1944,"Ġcent":1945,"ump":1946,"================":1947,"Ġmust":1948,"IG":1949,"Ġcondition":1950,"App":1951,"Ġrepresent":1952,"ism":1953,"Ġlast":1954,"Ġitem":1955,"nection":1956,"member":1957,"uble":1958,"next":1959,"--------------------------------":1960,"Ġsupport":1961,"Ġstud":1962,"element":1963,"Ġbound":1964,"uf":1965,"atter":1966,"caption":1967,"roller":1968,"Ġbreak":1969,"IS":1970,"oot":1971,"ottom":1972,"down":1973,"ponse":1974,"ulation":1975,"mpty":1976,"psi":1977,"urs":1978,"vious":1979,"MP":1980,"Ġag":1981,"Ġca":1982,"Ġallow":1983,"Ġcreate":1984,"Ġnow":1985,"head":1986,"ken":1987,"])":1988,"ral":1989,"info":1990,"check":1991,"ĠSh":1992,"content":1993,"ends":1994,"Ġmake":1995,"CH":1996,"Ġleft":1997,"ING":1998,"ixed":1999,"Ġfil":2000,"gorith":2001,"Group":2002,"Ġref":2003,"false":2004,"css":2005,"gt":2006,"ross":2007,"has":2008,"Log":2009,"with":2010,"exp":2011,"^*":2012,"ĠFig":2013,"Ġbefore":2014,"asure":2015,"DO":2016,"Arg":2017,"irc":2018,"mm":2019,"Ġsmall":2020,"ero":2021,"Dis":2022,"ĠâĢľ":2023,"ĠĠĠĠĠĠĠĠĠĠ":2024,"Ġshe":2025,"Manager":2026,"Ġposition":2027,"From":2028,"80":2029,"Table":2030,"ĠSet":2031,"ivers":2032,"irt":2033,"Ġlet":2034,"tail":2035,"ier":2036,")$,":2037,"idd":2038,"uthor":2039,"oper":2040,"aces":2041,"subsection":2042,"Ġinformation":2043,"Ġdefined":2044,"light":2045,"sqrt":2046,"Ġsrc":2047,"Ġbackground":2048,"Count":2049,"current":2050,"Ġinitial":2051,"Ġ($":2052,"doc":2053,"Ġsol":2054,".,":2055,"ru":2056,"graphics":2057,"Call":2058,"lp":2059,"ĉĠĠĠ":2060,"ources":2061,"pri":2062,"iled":2063,"Ġcontin":2064,"Ġspace":2065,"uted":2066,"Ġlike":2067,"Ġperform":2068,"acter":2069,"Color":2070,"oken":2071,"Ġwidth":2072,"Ġselect":2073,"arn":2074,"ape":2075,"Reg":2076,"fra":2077,"uments":2078,"60":2079,"Ġversion":2080,"cm":2081,"tes":2082,"ats":2083,"UN":2084,"Ġnext":2085,"rict":2086,"Ġbool":2087,"Ġdocument":2088,"tn":2089,"Method":2090,"leg":2091,"medi":2092,"ilar":2093,"option":2094,"AB":2095,"Client":2096,"Trans":2097,"non":2098,"ission":2099,"Ġbel":2100,"udi":2101,"ES":2102,"sim":2103,"module":2104,"ining":2105,"Ġsimp":2106,"lib":2107,"tected":2108,"Ġcorrespon":2109,"case":2110,"ename":2111,"Ġevery":2112,"eqnarray":2113,"server":2114,"Ġfeature":2115,"Gamma":2116,"iginal":2117,"cause":2118,"Ġthree":2119,"Response":2120,"Ġmain":2121,"ĠSystem":2122,"Ġatt":2123,"bit":2124,"side":2125,"button":2126,"Ġident":2127,"ves":2128,"vare":2129,"New":2130,"ifier":2131,"lick":2132,"({":2133,"Ġfin":2134,"eger":2135,">&":2136,"Ġind":2137,"ĉĊ":2138,"come":2139,"velop":2140,"Ġpresent":2141,"Ġdepend":2142,"ENT":2143,"Ġlevel":2144,"df":2145,"ari":2146,"ynam":2147,"varepsilon":2148,"energy":2149,"User":2150,"db":2151,"java":2152,"Ġlink":2153,"Ġrespect":2154,"package":2155,")(":2156,"itu":2157,"tric":2158,"Ġinclu":2159,"Ġbecause":2160,"static":2161,"Ġcolor":2162,"Ġaga":2163,"imal":2164,"=\"../../../../":2165,"Ġsince":2166,"tal":2167,"includegraphics":2168,"ender":2169,"End":2170,"andom":2171,"Ġview":2172,"Ġdat":2173,"using":2174,"Ġjust":2175,"argin":2176,"ansp":2177,"Ġdec":2178,"mult":2179,"ithub":2180,"ait":2181,"imation":2182,"^{(":2183,"erson":2184,"ural":2185,"AS":2186,"ee":2187,"uage":2188,"Ġrequire":2189,"height":2190,"Input":2191,"Ġoutput":2192,"}=":2193,"Ġ${\\":2194,"Ġ!==":2195,"jo":2196,"99":2197,"Ġexample":2198,"my":2199,"Ġcould":2200,"Ġincre":2201,"iver":2202,"ensure":2203,"lease":2204,"query":2205,"Options":2206,"ables":2207,"Ġbeing":2208,"attern":2209,"Ġstyle":2210,"Stream":2211,"itive":2212,"sl":2213,"Util":2214,"((":2215,"riter":2216,"''":2217,"image":2218,"ĠCol":2219,"ember":2220,"Ġ+=":2221,"ident":2222,"Ġnetwork":2223,"*/":2224,"meric":2225,"Ġstd":2226,"null":2227,"irtual":2228,"Ġmy":2229,"All":2230,"Override":2231,"](":2232,"ules":2233,"umb":2234,"Ġvis":2235,"lear":2236,"mun":2237,"Ġproperty":2238,"anel":2239,"}^{\\":2240,"Fact":2241,"itch":2242,"Ġtry":2243,"Ġparameters":2244,"idget":2245,"ivity":2246,"Image":2247,"ĠĠĠĠĠĠĠĠĠĠĠĠĠĠĠĠĠ":2248,";&":2249,"Token":2250,"Ġdisc":2251,"ailable":2252,"Ġsolution":2253,"ior":2254,"github":2255,"push":2256,")=":2257,"scription":2258,"radi":2259,"TH":2260,"Ġmessage":2261,"Ġlength":2262,"place":2263,"ches":2264,">(":2265,"bove":2266,"ĠĠĠĠĠĠĠĠĠĠĠĠĠĠĠĠĠĠĠĠĠĠĠĠĠĠĠĠĠĠĠ":2267,"Ġ\\,":2268,"Ġloc":2269,"ived":2270,"Ġmatch":2271,"Ġmon":2272,"ns":2273,"Ġ<<":2274,"Exp":2275,"www":2276,"vari":2277,"~~":2278,"Ġbased":2279,"Ġinclude":2280,"emph":2281,"duct":2282,"Ġposs":2283,"Ġrange":2284,"ted":2285,"si":2286,"xy":2287,"Ġlimit":2288,"ators":2289,"Date":2290,"imension":2291,"imum":2292,"Ġter":2293,"refer":2294,"27":2295,"Ġexper":2296,"hand":2297,"Status":2298,"way":2299,"draw":2300,"Ġchild":2301,"CE":2302,"bed":2303,"});":2304,"Ġmany":2305,"Ð°":2306,"dir":2307,"IL":2308,"Ġabove":2309,"aid":2310,"Ġimage":2311,"ration":2312,"Ġhere":2313,"Ġmodule":2314,"Ġlarge":2315,"bolds":2316,"ather":2317,"rangle":2318,"ek":2319,"orn":2320,"ology":2321,"child":2322,"Ġbl":2323,"Sub":2324,"Ġresponse":2325,"google":2326,"Ġvalid":2327,"And":2328,"request":2329,"Ġq":2330,"ĠNULL":2331,"Ġimplement":2332,"page":2333,"ets":2334,"ĠComp":2335,"ric":2336,"vec":2337,"adding":2338,".~\\":2339,"andard":2340,"lugin":2341,"Ġdistribution":2342,"Ġcallback":2343,"45":2344,"boldsymbol":2345,"target":2346,"ateg":2347,"Ġcur":2348,"ware":2349,"icy":2350,"ĠOn":2351,"rightarrow":2352,"Ref":2353,".}":2354,"Ġreal":2355,".$":2356,"gorithm":2357,"TD":2358,"geq":2359,"namespace":2360,"Ġgeneral":2361,"Builder":2362,"opt":2363,"Ġav":2364,"au":2365,"0000":2366,"Ġman":2367,"Attribute":2368,"=\"../":2369,"Ġexist":2370,"Ġmeasure":2371,"Ġcalled":2372,"OT":2373,"AME":2374,"28":2375,"IP":2376,"Ġpos":2377,"append":2378,"Function":2379,"GL":2380,"Ġborder":2381,"client":2382,"parent":2383,"NS":2384,"tx":2385,"args":2386,"active":2387,"75":2388,"ĠCom":2389,"android":2390,"ination":2391,"Ġopen":2392,"oo":2393,"Ġpeople":2394,"Ġsuper":2395,"overline":2396,"EX":2397,"ĠAss":2398,"ouse":2399,"owever":2400,"Ã©":2401,";</":2402,"Ġmodels":2403,"Ġenergy":2404,"Ð¾":2405,"Select":2406,"26":2407,"ique":2408,"[\\":2409,"reat":2410,"Ġsingle":2411,"Ġeven":2412,"}).":2413,"cul":2414,"proof":2415,"chn":2416,"Instance":2417,"varphi":2418,"Ad":2419,"ĠRes":2420,"Ġwhat":2421,"Resource":2422,"signed":2423,"cor":2424,"ene":2425,"Ġtak":2426,"Ġlead":2427,"Str":2428,"Parameter":2429,"uss":2430,"ched":2431,"ually":2432,"Ġmass":2433,"Ġden":2434,"gg":2435,"Ob":2436,"amily":2437,"quence":2438,"ĠGL":2439,"=\"#":2440,"Block":2441,"Handler":2442,"ci":2443,"ramework":2444,"arning":2445,"obj":2446,"print":2447,"Ġduring":2448,"Ġbuild":2449,"Ġboolean":2450,"Ġtable":2451,"chi":2452,"urity":2453,"amples":2454,"Line":2455,"tag":2456,"Base":2457,"Ġpass":2458,"ness":2459,"Source":2460,"rows":2461,"198":2462,"ysis":2463,"iron":2464,"sf":2465,"property":2466,"ready":2467,"display":2468,"ĠTo":2469,"&\\":2470,"Ġet":2471,"66":2472,"Equal":2473,"Ġaddition":2474,"loy":2475,"Imp":2476,"imate":2477,"Ġev":2478,"init":2479,"Default":2480,"Ġaction":2481,"gener":2482,"frak":2483,"rodu":2484,"Big":2485,"Ġbr":2486,"term":2487,"Ġsat":2488,"ons":2489,"YPE":2490,"Ġvery":2491,"urther":2492,"ferences":2493,"TO":2494,"Ġsum":2495,"Component":2496,"lin":2497,"US":2498,"stru":2499,"Gener":2500,"raint":2501,"Buffer":2502,"ensity":2503,"},\\":2504,"Ġurl":2505,"olume":2506,"ds":2507,"ocus":2508,"Ġquant":2509,"Lay":2510,"hline":2511,"valu":2512,"imes":2513,"tic":2514,"Ġparent":2515,"Ġrest":2516,"Number":2517,"Null":2518,"DI":2519,"icense":2520,"ĠReturn":2521,"older":2522,"rl":2523,"aper":2524,"orage":2525,"ĠLe":2526,"Ġpop":2527,")</":2528,"90":2529,"Ġchang":2530,"If":2531,"Bar":2532,"json":2533,"Ġway":2534,"sing":2535,"ives":2536,"reen":2537,"gram":2538,"Content":2539,"ret":2540,"Ġsection":2541,"iple":2542,"HT":2543,"ĠObject":2544,"Ext":2545,"ptr":2546,"]);":2547,"ĠÐ":2548,"inary":2549,"lat":2550,"Ġexpected":2551,"Ġ->":2552,"iod":2553,"Ġmode":2554,"acy":2555,"sol":2556,"Ġmark":2557,"Ġshown":2558,"filter":2559,"ah":2560,"orth":2561,"tributes":2562,"day":2563,"Ġproblem":2564,"php":2565,"Ġlabel":2566,"<!--":2567,"[\"":2568,"Ġwithout":2569,"Style":2570,"ife":2571,"remove":2572,"Ġandroid":2573,"nect":2574,"Ġproject":2575,"Start":2576,"adata":2577,"ival":2578,"ĠĠĠĠĠĠĠĠĠĠĠĠĠĠ":2579,"Ġrece":2580,"cap":2581,"last":2582,"Ġaut":2583,"Ġdevelop":2584,"Ġhttp":2585,"abase":2586,"ove":2587,"header":2588,")^":2589,"ĠSer":2590,"ij":2591,"Cell":2592,"Sp":2593,"Ed":2594,"efore":2595,"Ġ``":2596,"semb":2597,"01":2598,"ances":2599,"write":2600,"ĠList":2601,"ĠTest":2602,"Ġmag":2603,"Ġclo":2604,"35":2605,"char":2606,"spec":2607,"Ðµ":2608,"attr":2609,"inc":2610,"Ġsimilar":2611,"cho":2612,"small":2613,"Ġfunctions":2614,"flow":2615,"chool":2616,"ONT":2617,"istory":2618,"Ġtask":2619,"}}$":2620,"Ġ((":2621,"Child":2622,"izer":2623,"Point":2624,"len":2625,"Ġwrit":2626,"eps":2627,"textit":2628,"Ġdown":2629,"Ġcount":2630,"mathfrak":2631,"opy":2632,"Ġgame":2633,"29":2634,"viron":2635,"lish":2636,"Ġpres":2637,"local":2638,"mission":2639,"Ġprevious":2640,"Ġmatrix":2641,"Ġcontrol":2642,"\".":2643,"hav":2644,"Ġwithin":2645,"Lambda":2646,"Ġfollows":2647,"uck":2648,"Be":2649,"Ġmethods":2650,"OL":2651,"foot":2652,"Ġlay":2653,"find":2654,"Ġheight":2655,"cast":2656,"CK":2657,"Ġchange":2658,"ĉĠ":2659,"34":2660,"Ġexec":2661,"ither":2662,"igger":2663,"Let":2664,"}),":2665,"verage":2666,"gress":2667,"xml":2668,"Ass":2669,"Action":2670,"first":2671,"ĠAmeric":2672,"Ġocc":2673,"gn":2674,"ATE":2675,"returns":2676,"Ġvert":2677,"aterial":2678,"Ġthose":2679,"png":2680,"Ġgraph":2681,"ymme":2682,"ale":2683,"icro":2684,"pol":2685,"Ġcolumn":2686,"UE":2687,"Ġassoci":2688,"++)":2689,"Ġelect":2690,"FI":2691,"Ġdisplay":2692,"isf":2693,"vices":2694,"private":2695,"bottom":2696,"Do":2697,"ĠThere":2698,"Ġpost":2699,"Ġtotal":2700,"pose":2701,"ategory":2702,"vers":2703,"Ġyears":2704,"unter":2705,"Ġrequired":2706,"btn":2707,"vis":2708,"run":2709,"Ġ\"\"\"":2710,"Ġspect":2711,"Ġappe":2712,"Ġpoints":2713,"OP":2714,"src":2715,"Ġsw":2716,"resh":2717,"ldots":2718,"oh":2719,"expect":2720,"langle":2721,"70":2722,"Ġproperties":2723,"Factory":2724,"Ġdue":2725,"orph":2726,"Length":2727,"ony":2728,"lit":2729,"vider":2730,"ead":2731,"55":2732,"Version":2733,"Row":2734,"Ġmade":2735,"Oper":2736,"OS":2737,"cer":2738,"Ġder":2739,"Filter":2740,"Ġknow":2741,"lim":2742,"Ġ]":2743,"Ġredu":2744,"dat":2745,"Act":2746,"Ġfa":2747,"ideo":2748,"proto":2749,"undle":2750,"wise":2751,"Ġ{@":2752,"EL":2753,"Ġwindow":2754,"endif":2755,"ĉĉĉĉĉĉĉĉ":2756,"iversity":2757,"PRO":2758,"Window":2759,"ict":2760,"nab":2761,"Ġstructure":2762,"fe":2763,"Ġobserv":2764,"yles":2765,"rowser":2766,"sert":2767,"2017":2768,"Ġcharacter":2769,".\\":2770,"2016":2771,"Phi":2772,"Ġparticular":2773,"\\%":2774,"bs":2775,"lags":2776,"Ġpage":2777,"luster":2778,"citep":2779,".\"":2780,"2015":2781,"ĠBo":2782,"Hel":2783,"Ġgu":2784,"No":2785,"ibility":2786,"Ġelements":2787,"AP":2788,"Ġinteg":2789,"Ġlook":2790,"ibr":2791,"2020":2792,"Pr":2793,"AG":2794,"open":2795,"Tag":2796,"Ġpossible":2797,"pc":2798,"status":2799,"ĠĠĠĠĠĠĠĠĊ":2800,"ordin":2801,"ĠIN":2802,"verse":2803,"finished":2804,"description":2805,"sg":2806,"onents":2807,"(_":2808,"outh":2809,"Ġterms":2810,"2018":2811,"command":2812,"build":2813,"Ġsaid":2814,"ately":2815,"structor":2816,"number":2817,"appa":2818,"Ġspecified":2819,"SP":2820,"column":2821,"Width":2822,"dependent":2823,"Ġobj":2824,"update":2825,"su":2826,"ERT":2827,"container":2828,"dl":2829,"Ġpower":2830,"ialog":2831,"Ġsche":2832,"39":2833,"nabla":2834,"Ġoriginal":2835,"ung":2836,"Ġradi":2837,"Pre":2838,"ond":2839,"Ġgra":2840,"Listener":2841,"EE":2842,"Ġavailable":2843,"SON":2844,"////////////////":2845,"ison":2846,"prop":2847,"ensor":2848,"require":2849,"Ġmat":2850,"uk":2851,"soft":2852,"can":2853,"kn":2854,"Ġlang":2855,"Ġupdate":2856,"ways":2857,"cy":2858,"Page":2859,"iment":2860,"Equals":2861,"Ġsuccess":2862,"Ġcell":2863,"Command":2864,"parameter":2865,"ession":2866,"Ġconf":2867,"kappa":2868,"2019":2869,"rel":2870,"lied":2871,"Ġfilter":2872,"ĠHowever":2873,"Ġmov":2874,"alth":2875,"refix":2876,"Ġhim":2877,"Check":2878,"True":2879,"Nav":2880,"\"]":2881,"ots":2882,"ĠAdd":2883,"Ġsk":2884,"Sup":2885,"overn":2886,"font":2887,"Cache":2888,"Link":2889,"subset":2890,"Ġwant":2891,"mbox":2892,"istic":2893,"used":2894,"Const":2895,"ĠThen":2896,"navbar":2897,"sole":2898,"48":2899,"ball":2900,"Format":2901,"mat":2902,"Ġnormal":2903,"parse":2904,"Read":2905,"UI":2906,"hes":2907,"ĠPar":2908,"struction":2909,"ensuremath":2910,"(&":2911,"Ġdefine":2912,"Ġcho":2913,"/\\":2914,"Ġoption":2915,"Ġfour":2916,"Ð¸":2917,"ĠBy":2918,"Task":2919,"})$":2920,"hether":2921,"Ġknown":2922,"unfinished":2923,"Ġlen":2924,"Ġ[]":2925,"Ġindic":2926,"Ġaccess":2927,"Collection":2928,"Create":2929,"Ġincluding":2930,"Ġthrows":2931,"Ġresource":2932,"Ġsatisf":2933,"lies":2934,"otimes":2935,"lev":2936,"Spec":2937,"lished":2938,"ssion":2939,"Ġservice":2940,"otential":2941,"alk":2942,"IM":2943,"ĠEn":2944,"host":2945,"\\|":2946,"///":2947,"scale":2948,"Ġam":2949,"arm":2950,"untime":2951,"ving":2952,"AM":2953,"Ġfull":2954,"post":2955,"bra":2956,"CC":2957,"][":2958,"ĠIs":2959,"2014":2960,"Ġown":2961,"format":2962,"Label":2963,"offset":2964,"mes":2965,"thing":2966,"lip":2967,"mt":2968,"Ġstill":2969,"Ġargs":2970,"VER":2971,"imary":2972,"Ġcar":2973,"meta":2974,"Ġhelp":2975,"Ġclient":2976,"heet":2977,"36":2978,"Ġtri":2979,"Ġprotected":2980,"Ġlinear":2981,"URL":2982,"Ġside":2983,"Ġvector":2984,"Ġquery":2985,"irection":2986,"Ġshows":2987,"Ġhig":2988,"vironment":2989,"ĠĠĠĠĠĠĠĠĠĠĠĠĊ":2990,"sm":2991,"Ġpack":2992,"HE":2993,"Ġregion":2994,"std":2995,"Offset":2996,"ood":2997,"Ġcommand":2998,"References":2999,"Ġscal":3000,"05":3001,"jav":3002,"SC":3003,"Ġhead":3004,"itude":3005,"kit":3006,"\").":3007,"Ġalready":3008,"Valid":3009,"ĠApp":3010,"ai":3011,"ported":3012,"FA":3013,"Ġaddress":3014,"_.":3015,"Ġear":3016,"Ġcorresponding":3017,"centering":3018,"menu":3019,"Mode":3020,"dict":3021,"Part":3022,"Ġterm":3023,"udio":3024,"Frame":3025,"Ġmargin":3026,"params":3027,"Ġtake":3028,"fficient":3029,"Ġcomput":3030,"').":3031,"ocation":3032,"vi":3033,"\\[":3034,"uary":3035,"Ġpair":3036,"ases":3037,"ograph":3038,"gl":3039,"ending":3040,"Ġassume":3041,"Ġarguments":3042,"Ġrecord":3043,"uc":3044,"Ġundefined":3045,"skip":3046,"tool":3047,"ensions":3048,"Ġport":3049,"img":3050,"Ġbro":3051,"Ġextends":3052,"cell":3053,"Sigma":3054,"Ġtyp":3055,"Ġret":3056,"apping":3057,"Ġiter":3058,"Ġglobal":3059,"buf":3060,"Controller":3061,"OD":3062,"licit":3063,"strong":3064,"38":3065,"Ġcomb":3066,"ital":3067,"ram":3068,"ring":3069,"served":3070,"clus":3071,"Ġrandom":3072,"LASS":3073,"Return":3074,"uture":3075,"Ġmuch":3076,"ĠAnd":3077,"Ġdid":3078,"Ġlarg":3079,"Ġclear":3080,"Ġconstant":3081,"Output":3082,"Pol":3083,"Ht":3084,"Ġsequence":3085,"Ġuint":3086,"bind":3087,"ording":3088,"Button":3089,"instance":3090,"44":3091,"REF":3092,"mail":3093,"close":3094,"posed":3095,"Dec":3096,"}}{":3097,"Ġstudy":3098,"ÑĤ":3099,"split":3100,"Ġmak":3101,"Ġmean":3102,"ords":3103,"Ġseries":3104,"ĠNone":3105,"response":3106,"ABLE":3107,"lap":3108,"2013":3109,"iff":3110,"project":3111,"Ġinternal":3112,"aj":3113,"aster":3114,"ĠAt":3115,"stream":3116,"tails":3117,"Ġclose":3118,"Ġpri":3119,"Ġtechn":3120,"ĠArray":3121,"Ġsever":3122,"TER":3123,")]":3124,"idden":3125,"Url":3126,"Ġmedi":3127,"Ġcalcul":3128,"Web":3129,"${":3130,"oto":3131,"change":3132,"ury":3133,"Column":3134,"ĠOr":3135,"cache":3136,"match":3137,"ĠReg":3138,"Ġtag":3139,"Ġaround":3140,"scope":3141,"Ġstates":3142,"Ġcopy":3143,"Ġcommun":3144,"sets":3145,"ges":3146,"BU":3147,"\"),":3148,"Ġdiv":3149,"31":3150,"Ġfail":3151,"Ġcomponent":3152,"circ":3153,"ii":3154,"show":3155,"Ġes":3156,"lice":3157,"Box":3158,"ored":3159,"Ġwrite":3160,"Ġeither":3161,"exports":3162,"ĠPh":3163,"book":3164,"Ġbas":3165,"unded":3166,"ging":3167,"rapper":3168,"nonumber":3169,"fill":3170,"else":3171,"mount":3172,"NO":3173,"Ġauto":3174,"anch":3175,"Ġobtained":3176,"Ġintrodu":3177,"process":3178,"rypt":3179,"Sche":3180,"Ġalong":3181,":\"":3182,"Ġperformance":3183,"aml":3184,"Ġfields":3185,"197":3186,"ascript":3187,"Ġbest":3188,"je":3189,"level":3190,"num":3191,"Ġcontinu":3192,"ĠAd":3193,"Ġevents":3194,"./":3195,"gest":3196,"ql":3197,"window":3198,"Ġop":3199,"ĠDef":3200,"37":3201,"{-":3202,"Ġemp":3203,"service":3204,"ĠAll":3205,"Ġformat":3206,"Ġold":3207,"Ġcatch":3208,"entry":3209,"Json":3210,"coding":3211,"unk":3212,"off":3213,"Ġfont":3214,"Ġproduct":3215,"Ġcomplex":3216,">>":3217,"Ġbecome":3218,"widetilde":3219,"Container":3220,"Ġgr":3221,"Ġstandard":3222,"unit":3223,"ĠInd":3224,"ird":3225,"Ġdensity":3226,"stract":3227,"Ġagainst":3228,"Char":3229,"cit":3230,"Ġapprox":3231,"output":3232,"'),":3233,"Ġshort":3234,"([":3235,"ĠInt":3236,"ially":3237,"Ġload":3238,"Height":3239,"ĠLo":3240,"Ġang":3241,"Case":3242,"UM":3243,"Fig":3244,"tabular":3245,"ĠLet":3246,"ended":3247,"Ġplace":3248,"Ġdon":3249,"Fe":3250,"apter":3251,"ention":3252,"Dep":3253,"Ġpotential":3254,"Ġsearch":3255,"}-":3256,"hip":3257,"Cl":3258,"layout":3259,"alle":3260,"ERR":3261,"olve":3262,"ĠHT":3263,"Ġserver":3264,"now":3265,"Ġexists":3266,"Sc":3267,"igation":3268,"Ġstrong":3269,"Target":3270,"Ġjo":3271,"Ġscale":3272,"template":3273,"ĠRo":3274,"ĉĉĉĉĉĉĉ":3275,"ught":3276,"Ġfree":3277,"aded":3278,"sche":3279,"gen":3280,"Ġoperator":3281,"Ġalgorithm":3282,"Ġcomplet":3283,"Types":3284,"earch":3285,"cur":3286,"example":3287,"TP":3288,"ĠLicense":3289,"Ġgood":3290,"only":3291,"oriz":3292,"Ġanalysis":3293,"ires":3294,"acity":3295,"Ġinterest":3296,"Ġreturns":3297,"Ð½":3298,"Ġstatus":3299,"Ġke":3300,"Range":3301,"ĠReturns":3302,"OM":3303,"FONT":3304,"Ġcontains":3305,"iler":3306,"Ġlower":3307,"Ġpaper":3308,"Ġinf":3309,"ina":3310,"Ġanother":3311,"common":3312,"Ġassociated":3313,"TYPE":3314,"ĠYou":3315,"Ġrate":3316,"\\!":3317,"2021":3318,"ĠDo":3319,"```":3320,"Next":3321,"bb":3322,"utils":3323,"document":3324,"Ġdynam":3325,"ĠAPI":3326,"Ġlater":3327,"<?":3328,"SI":3329,"mut":3330,"Run":3331,"DB":3332,"ium":3333,"stro":3334,"known":3335,"\\]":3336,"First":3337,"Ġapproach":3338,"Callback":3339,"Ġequation":3340,"Ġprovided":3341,"Ġinterface":3342,"loud":3343,"tra":3344,"Ġred":3345,"uint":3346,"ĠUniversity":3347,"Rem":3348,"Ġcap":3349,"CON":3350,"ĠEX":3351,"Ġge":3352,"Temp":3353,"(-":3354,"root":3355,"Update":3356,"2012":3357,"lying":3358,"Ġnone":3359,"65":3360,"ctx":3361,"dev":3362,"Ġrespectively":3363,"********************************":3364,"Ġrow":3365,"ĠSo":3366,"Back":3367,"plac":3368,"Ġoffset":3369,"ls":3370,"cat":3371,"Ġroot":3372,"Ġchannel":3373,"asing":3374,"Ġzero":3375,"Ġver":3376,"exec":3377,"Ġdefinition":3378,"ifact":3379,"Layout":3380,"Ġcollection":3381,"Mod":3382,"alf":3383,"pdf":3384,"Interface":3385,"ansport":3386,"empty":3387,"{}":3388,"Sto":3389,"tact":3390,"prime":3391,"67":3392,":(":3393,"Server":3394,"Ġweight":3395,"notation":3396,"Vert":3397,"Ġprint":3398,"ĠMar":3399,"clear":3400,"aving":3401,"Ġphase":3402,"ĠWh":3403,"ĠĠĠĠĠĠĠĠĠĠĠĠĠĠĠĠĠĠĠĠĠĠĠĠĠĠĠĠĠĠĠĠĠĠĠ":3404,"Ġcache":3405,"fa":3406,"Per":3407,"sembly":3408,"Ġperiod":3409,"lug":3410,"actions":3411,"AA":3412,"Ġwhether":3413,"MS":3414,"long":3415,"float":3416,"Ġ&=":3417,"idual":3418,"cription":3419,"Ġspe":3420,"ze":3421,"Ġhost":3422,"Ġnear":3423,"ety":3424,"Ġworld":3425,"Ġframe":3426,"Ġconditions":3427,"Ġbuffer":3428,"Ġtheory":3429,"Ġflu":3430,"CL":3431,"Ġstream":3432,"javascript":3433,"Ġbelow":3434,"aut":3435,"pes":3436,"ĠAmerican":3437,"Provider":3438,"igin":3439,"ĠType":3440,"gr":3441,"Ġspecific":3442,"Ġsepar":3443,"Ġimpro":3444,"Ġdouble":3445,"NAME":3446,"tree":3447,"08":3448,"dist":3449,"romise":3450,"Ġleast":3451,"Ġmem":3452,"\\{":3453,"}+":3454,"Ġaccount":3455,"arr":3456,"expected":3457,"Position":3458,"Ġbehav":3459,"ev":3460,"Ġvia":3461,"zeta":3462,"Ġobjects":3463,"Ġproof":3464,"reference":3465,"Ġsignific":3466,"ĉĠĠĠĠĠĠĠ":3467,"Ġ>=":3468,"ĠEq":3469,"Ġremove":3470,"omen":3471,"Ġbody":3472,"Ġtrack":3473,"Ġcases":3474,"ĠSp":3475,"ux":3476,"usic":3477,"Ġtypes":3478,"Ġseveral":3479,"tax":3480,"erature":3481,"Address":3482,"values":3483,"Ġ<!--":3484,"ÑĢ":3485,"Âł":3486,"oke":3487,"cs":3488,"Max":3489,"inner":3490,"ĠID":3491,"Ġlinks":3492,"Ġla":3493,"frame":3494,"Ġtimes":3495,"Ġless":3496,"thm":3497,"Ġfeatures":3498,"Ġcustom":3499,"ilt":3500,"buffer":3501,"ba":3502,"illi":3503,"Ġdiag":3504,"Ġdiff":3505,"board":3506,"Last":3507,"ped":3508,"emma":3509,"Ġimportant":3510,"II":3511,"Top":3512,"2011":3513,"OST":3514,"Ġperson":3515,"aset":3516,"2010":3517,"ixel":3518,"Sec":3519,"drop":3520,"Ġstep":3521,"wards":3522,"02":3523,"afe":3524,"Ġuntil":3525,"izing":3526,"Ġevalu":3527,"amil":3528,";\\":3529,"Ent":3530,"styles":3531,"Ġsimple":3532,"Ġindu":3533,"ĠCan":3534,"anged":3535,"tocol":3536,"Ġdeterm":3537,"Module":3538,"Ġalign":3539,"ĠTe":3540,")=\\":3541,"Ġneg":3542,"stack":3543,"ĠEng":3544,"istent":3545,"04":3546,"ips":3547,"Header":3548,"Ġfurther":3549,"vas":3550,"should":3551,"Pl":3552,"ĠNo":3553,"Ġtraining":3554,"Ġarea":3555,"ĠTheorem":3556,"dep":3557,"External":3558,"Ġfore":3559,"}=\\":3560,"Ġsystems":3561,"Ġestim":3562,"Ġvirtual":3563,"Ġtransform":3564,"ication":3565,"Ġ**":3566,"Ġdep":3567,"2022":3568,"Ġcoup":3569,"Min":3570,"Ġtransition":3571,"Document":3572,"Ġlight":3573,"API":3574,"Ġdel":3575,"second":3576,"ters":3577,"river":3578,"Ġcontrib":3579,"dom":3580,"Ġdone":3581,"95":3582,"}/":3583,"Ġhy":3584,"based":3585,"Ġrole":3586,"ged":3587,"Ġeas":3588,"Ġreference":3589,"aint":3590,"07":3591,"Ġdate":3592,"ado":3593,"}]":3594,"Ġreason":3595,"foo":3596,"Unit":3597,"Ġprom":3598,"itory":3599,"68":3600,"system":3601,"textwidth":3602,"Ġ;":3603,"ĠSection":3604,"Ġcompar":3605,",-":3606,"alt":3607,"Ġalways":3608,"icle":3609,"rest":3610,"ĠFe":3611,"ites":3612,"Write":3613,"Di":3614,"Tree":3615,"Access":3616,"Ġlaw":3617,"bool":3618,"ãģ":3619,"Ġinstead":3620,"RL":3621,"atio":3622,"Empty":3623,"uro":3624,"Ġfamily":3625,"Ġmeans":3626,")}\\":3627,"()->":3628,"Ġrender":3629,"Ġcreated":3630,"Ġsets":3631,"ĠGener":3632,"Ġ{}":3633,"Ġlines":3634,"normal":3635,"Ġexpl":3636,"IO":3637,".~":3638,"ĠFile":3639,"Vis":3640,"urb":3641,"Ab":3642,"Ġhigher":3643,"rem":3644,"ĠThese":3645,"Ġphys":3646,"patch":3647,"allet":3648,"operator":3649,"Level":3650,"which":3651,"Ġart":3652,"Ġoperation":3653,":</":3654,"Ġfloat":3655,"render":3656,"ressed":3657,"istry":3658,"Ġdesign":3659,"ĠUnited":3660,"?:":3661,"fn":3662,"}|":3663,"ohn":3664,"imple":3665,"ibrary":3666,"$)":3667,"Ġfixed":3668,"Ġmet":3669,"{(":3670,"umpt":3671,"Utils":3672,"Ġide":3673,"ories":3674,"Ġ{};":3675,"ftware":3676,"tle":3677,"eded":3678,"token":3679,"Mem":3680,"mathsf":3681,"PC":3682,"izes":3683,"ĠFr":3684,"iness":3685,"indent":3686,"Ġunit":3687,"task":3688,"Ġpub":3689,"Ġturn":3690,"ĠMet":3691,"formed":3692,"########":3693,"Configuration":3694,"Ġpadding":3695,"COL":3696,"Entry":3697,"ĠSup":3698,"Ð¾Ð":3699,"Ġcenter":3700,"ircle":3701,"ops":3702,"Ġpositive":3703,"control":3704,"era":3705,"background":3706,"Hash":3707,"49":3708,"47":3709,"ĠHREF":3710,"tains":3711,"iving":3712,"Ġmultiple":3713,"Ġapplication":3714,"note":3715,"une":3716,"ĠShe":3717,"cel":3718,"uggest":3719,"assword":3720,"before":3721,"Ġteam":3722,"Ġfew":3723,"pag":3724,"Ġsignificant":3725,"iform":3726,"Ġcommon":3727,"ĠCLASS":3728,"Ġfinite":3729,"omorph":3730,"Ġinvest":3731,"Ġsymme":3732,"Ġmot":3733,"lemma":3734,"ĠWhen":3735,"ĠGe":3736,"Ġ*)":3737,"Ġcoun":3738,"Ġempty":3739,"break":3740,"Ġtemplate":3741,"ursor":3742,"debug":3743,"Ġfiles":3744,"DF":3745,"ĠErr":3746,"Ġnodes":3747,"Ġdescribed":3748,"ula":3749,"mbers":3750,"}^\\":3751,"ience":3752,"Ġgenerated":3753,"Psi":3754,"des":3755,"final":3756,")^{":3757,"mode":3758,"Ġinit":3759,"typeof":3760,"VAL":3761,"Ġcannot":3762,"Ġvariable":3763,"88":3764,"aly":3765,"UP":3766,"Ġattribute":3767,"Ġfrequ":3768,"Ġcr":3769,"Pack":3770,"Ġparams":3771,"ĠĠĠĠĠĠĠĠĠĠĠĠĠĠĠĠĠĠĠĠĠ":3772,"uid":3773,"ĠAssert":3774,"%%":3775,"Ġcy":3776,"edia":3777,"}_\\":3778,"xis":3779,"Ġsample":3780,"layer":3781,"ths":3782,"ln":3783,"Ġequal":3784,"SH":3785,"Ġflow":3786,"ley":3787,"ULT":3788,"Ġreco":3789,"ĉĉĊ":3790,"author":3791,"Ġdistance":3792,"mem":3793,"Ġiss":3794,"ecess":3795,"Ġnumer":3796,"Control":3797,"images":3798,"06":3799,"ands":3800,"Ġremo":3801,"abs":3802,"âĢľ":3803,"Script":3804,"imer":3805,"widehat":3806,"Settings":3807,"oll":3808,"Ġconfiguration":3809,"Ġmer":3810,"cd":3811,"xspace":3812,"na":3813,"ĠClass":3814,"Ġscope":3815,"KE":3816,"ĠCar":3817,"03":3818,"STR":3819,"Option":3820,"Open":3821,"Po":3822,"Ġanaly":3823,"Ġhome":3824,"mid":3825,"ĠNot":3826,"encies":3827,"Bundle":3828,"engine":3829,"strap":3830,"chan":3831,"Ġargument":3832,"yntax":3833,"\"))":3834,"Change":3835,"ND":3836,"Wh":3837,"ority":3838,"ometry":3839,"Ġrelative":3840,"Ġseason":3841,"ament":3842,"ĠUS":3843,"VE":3844,"rum":3845,"ĠCreate":3846,"Params":3847,"Exec":3848,"Ġtoken":3849,"Ġmove":3850,"09":3851,"INT":3852,"ĠCal":3853,"cos":3854,"{{":3855,"uilt":3856,"ied":3857,"miss":3858,"ZE":3859,"met":3860,"join":3861,"Ġ...":3862,"fl":3863,"Ġorgan":3864,"sv":3865,"Ġspecial":3866,"Match":3867,"ino":3868,"Ġ~":3869,"ĠUp":3870,"adow":3871,"Ġestab":3872,"Ġ\\{":3873,".âĢĿ":3874,"Ñģ":3875,"cdots":3876,"mar":3877,"resource":3878,"equiv":3879,"Ġbetter":3880,"callback":3881,"42":3882,"Ġhandle":3883,"imensional":3884,"tect":3885,"Ġconsidered":3886,"%;":3887,"Properties":3888,"ĠThey":3889,"ological":3890,"Ġtree":3891,"fs":3892,"webkit":3893,"Ġhash":3894,"atist":3895,"CD":3896,"ĠInst":3897,"Ġadditional":3898,"Ġequival":3899,"Process":3900,"copy":3901,"Ġtemperature":3902,"bin":3903,"Ġconnection":3904,"&&":3905,"Ġproposed":3906,"})\\":3907,"ĠJan":3908,"TI":3909,"SO":3910,"Load":3911,"Ġdeg":3912,"Ġcross":3913,"Ġconstraint":3914,"LI":3915,"appro":3916,"Ġthus":3917,"ĠMay":3918,"linear":3919,"plit":3920,"`.":3921,"assed":3922,"Ġlocation":3923,"Ġentry":3924,"ĠFigure":3925,"uman":3926,"Left":3927,"Ġagain":3928,"ernel":3929,"ĠOF":3930,"replace":3931,"Render":3932,"Ġtool":3933,"ĠNS":3934,"Ġday":3935,"Ġ\"\\":3936,"ĠBe":3937,"Ġprobability":3938,"sd":3939,"Ġfactor":3940,"Thread":3941,",\"":3942,"$(":3943,"Copy":3944,"transform":3945,"Ġadded":3946,"Ġaverage":3947,"hash":3948,"enter":3949,"FT":3950,"Ġbox":3951,"ably":3952,"2009":3953,"ctionary":3954,"qquad":3955,"ks":3956,"ĠNote":3957,"Ġparse":3958,"igen":3959,"Dir":3960,">,":3961,"Ġchanges":3962,"pture":3963,"Ġmoment":3964,"Ġfoot":3965,"cr":3966,"Ġreturned":3967,"Ġcla":3968,"nected":3969,"Ġrot":3970,"chie":3971,"ĠData":3972,"boot":3973,"ients":3974,"Ġselected":3975,"Ġput":3976,"Ġ$.":3977,"ategy":3978,"Http":3979,"Ġlanguage":3980,"Ġsupp":3981,"ATION":3982,"Ġprogram":3983,"etch":3984,"variant":3985,"Ac":3986,"CP":3987,"Ġnav":3988,"gebra":3989,"Ġlearning":3990,"Ġho":3991,"coder":3992,"came":3993,"pped":3994,"Ġcorrect":3995,"gether":3996,"border":3997,"ĠCl":3998,"iddle":3999,"auto":4000,"Ġrecent":4001,"cup":4002,"ĠCheck":4003,"Ġcluster":4004,"Record":4005,"bound":4006,"stand":4007,"omic":4008,"ocial":4009,"ries":4010,"Entity":4011,"msg":4012,"Ġfl":4013,"Can":4014,"There":4015,"dated":4016,"Ġhttps":4017,"ĠGo":4018,"Ġsem":4019,"Ġpur":4020,"ĠDes":4021,"acing":4022,"alax":4023,"Ġconstruct":4024,"Ġ[];":4025,"ised":4026,"Ġbit":4027,"Ġ['":4028,"Local":4029,"ctor":4030,"Ġoverride":4031,"raction":4032,"Expression":4033,"ragment":4034,"Ġexact":4035,"onal":4036,"ship":4037,"icker":4038,"CODE":4039,"Ġquest":4040,"Ġoptim":4041,"Ġrelations":4042,"ĠDis":4043,"Location":4044,"icrosoft":4045,"Pos":4046,"conf":4047,"Work":4048,"like":4049,"PECT":4050,"Que":4051,"Ġemb":4052,"One":4053,"Direct":4054,"Ġcontainer":4055,"Ġmight":4056,"Ġcour":4057,"Ġcare":4058,"most":4059,"hent":4060,"Ġfit":4061,"ĠMath":4062,"rep":4063,"nap":4064,"================================":4065,"}:":4066,"rs":4067,"Ġactive":4068,"atform":4069,"jection":4070,"}}(":4071,"Ġcor":4072,"Ġbook":4073,"Ġleg":4074,"thon":4075,"hel":4076,"creen":4077,"hover":4078,"sin":4079,"pop":4080,"orizont":4081,"Ġexpression":4082,"Ġedge":4083,"artifact":4084,"global":4085,"Ġ$(\\":4086,"Net":4087,"QL":4088,"Mult":4089,"Ġcost":4090,"ĠRem":4091,"ternational":4092,"ĠPr":4093,"anagement":4094,"ĠâĢĶ":4095,"57":4096,"range":4097,"Dat":4098,"classes":4099,"Ġbus":4100,"\"));":4101,"Ġdetails":4102,"icol":4103,"umbers":4104,"ĠState":4105,"Ġrepresentation":4106,"Connection":4107,"iven":4108,"Ġstore":4109,"ĠName":4110,"files":4111,"abil":4112,"edge":4113,"Ġobserved":4114,"olved":4115,"Ġpattern":4116,"vector":4117,"enumer":4118,"46":4119,"Current":4120,"raft":4121,"Search":4122,"ĠSince":4123,"Ġrelated":4124,"fil":4125,"ymp":4126,"None":4127,"Ġpay":4128,"byte":4129,"Ġschool":4130,"delete":4131,"Ġsurface":4132,"aves":4133,"2008":4134,"netic":4135,"Right":4136,"equal":4137,"req":4138,"Ġtoo":4139,"Ġlife":4140,"=\"../../../../../":4141,"Serial":4142,"ĠStates":4143,"Menu":4144,"255":4145,"sequ":4146,"SD":4147,"Session":4148,"Ġbegin":4149,"ently":4150,"boolean":4151,"Ġvariables":4152,"ĠLemma":4153,"}\\,":4154,"though":4155,"Ġsetting":4156,"Ġbi":4157,"ĠSee":4158,"Ġ&\\":4159,"Ġdescription":4160,"IGN":4161,"={":4162,"Port":4163,"Ġgl":4164,"ãĥ":4165,"omin":4166,"Ġchildren":4167,"Ġgovern":4168,"legate":4169,"Ġaccur":4170,"Ġsing":4171,"Ġsay":4172,"Ġcoordin":4173,"{{\\":4174,"Ġapi":4175,"Ġquantum":4176,"rist":4177,"aries":4178,"}\\\\":4179,"Ġ::":4180,"}^{(":4181,"Ident":4182,"58":4183,"eloc":4184,"stamp":4185,"Ptr":4186,"^+":4187,"Ġxml":4188,"Async":4189,"click":4190,"ĠPol":4191,"pg":4192,"Store":4193,"ACK":4194,"widget":4195,"Ge":4196,"Ġapplic":4197,"wait":4198,"Ġfilm":4199,"orizontal":4200,"irm":4201,"Ġassign":4202,"ALL":4203,"Op":4204,"Ġnamespace":4205,"ĉĠĠĠĠĠ":4206,"ART":4207,"toString":4208,"EQ":4209,"solute":4210,"77":4211,"Ġexperiment":4212,"handle":4213,"then":4214,"Ġindependent":4215,"ĠTO":4216,"Ġcer":4217,"ĠWith":4218,"Ġindiv":4219,"Ġseen":4220,"Tool":4221,"scr":4222,"types":4223,"Ġmaximum":4224,"ĠCoun":4225,"Ġsolid":4226,"__(":4227,"bum":4228,"Ġcontinue":4229,"Ġsent":4230,"Ġresearch":4231,"Ġadv":4232,"Ġappear":4233,"Ġachie":4234,"Handle":4235,"Ã¡":4236,"Ġcomplete":4237,"Obj":4238,"ising":4239,"apply":4240,"Iter":4241,"Ġnecess":4242,"Ġque":4243,"interface":4244,"Ġimages":4245,"termin":4246,"Ġplayers":4247,"settings":4248,"ĠSub":4249,"astic":4250,"Ġsettings":4251,"Ġselection":4252,"ggle":4253,"]$":4254,"after":4255,"&=":4256,"Ġopp":4257,"GET":4258,"UB":4259,"ORT":4260,"atural":4261,"ĠCont":4262,"Font":4263,"disabled":4264,"ils":4265,"Ġapply":4266,"ĠMore":4267,"Ġrespon":4268,"MM":4269,"CR":4270,")-":4271,"Ġtre":4272,"that":4273,"rule":4274,"Ġseg":4275,"Ġdraw":4276,"ĠWorld":4277,"tection":4278,"Timeout":4279,"Ġmaj":4280,"'],":4281,"make":4282,"Ġblack":4283,"Ġregular":4284,"illion":4285,"Widget":4286,"pher":4287,"Invalid":4288,"Kind":4289,"=\"-":4290,"ĠPl":4291,"lean":4292,"Host":4293,"Ġplan":4294,"Ġloss":4295,"idence":4296,"Ġarch":4297,"|^":4298,"ached":4299,"ws":4300,"ada":4301,"Ġdiscus":4302,"uler":4303,"card":4304,"RI":4305,"ulations":4306,"reed":4307,"ade":4308,"Ġgive":4309,"ause":4310,"Ġrefer":4311,"NN":4312,"Ġauthor":4313,"Ġcrit":4314,"`,":4315,"Ġhapp":4316,"ĠRep":4317,"ĠMin":4318,"ĉĠĠĠĠĠĠĠĠĠĠĠ":4319,"aging":4320,"rec":4321,"ERROR":4322,"ĠException":4323,"ĠTrans":4324,"Sign":4325,"Ġstrict":4326,"Ġweek":4327,"rain":4328,"Parameters":4329,"device":4330,"Ġins":4331,"Description":4332,"Ġnum":4333,"Ġunique":4334,"Helper":4335,"():":4336,"internal":4337,"Ġcomponents":4338,"Rel":4339,"59":4340,"FO":4341,"env":4342,"ĠNational":4343,"star":4344,"store":4345,"Ġcref":4346,"Ġdomain":4347,"ĠTable":4348,"ighb":4349,"cf":4350,"---":4351,"Ġerrors":4352,"Names":4353,"models":4354,"Ġamount":4355,"ĠLog":4356,"Operation":4357,"Ġvarious":4358,"media":4359,"more":4360,"ĠJohn":4361,"ĠError":4362,"hspace":4363,"ales":4364,"Ġdelete":4365,"ĠMe":4366,"plugin":4367,"Ġphot":4368,"asic":4369,"Integer":4370,"super":4371,"Ġonce":4372,"weight":4373,"sel":4374,"Ġ})":4375,"Ġgroups":4376,"Ġwon":4377,"(*":4378,"Ġconv":4379,"Rect":4380,"Mon":4381,"lugins":4382,"MO":4383,"Bind":4384,"ube":4385,"2000":4386,"Schema":4387,"Ġlayer":4388,"2007":4389,"Ġsuggest":4390,"Ġstar":4391,"Down":4392,"artifactId":4393,"atal":4394,"BO":4395,"sort":4396,"ĠAb":4397,"Ġfuture":4398,"ĠBut":4399,"ĠEXPECT":4400,"Meta":4401,"Ġnote":4402,"tex":4403,"69":4404,"Core":4405,"ae":4406,"Ġgrow":4407,"Ġlarger":4408,"Ġsec":4409,"Ġhard":4410,"gan":4411,"ians":4412,"RA":4413,"achine":4414,"lems":4415,"Ġinstall":4416,"Ġwritten":4417,"Ġfilename":4418,"ynch":4419,"AND":4420,"Ġindividual":4421,"Ġdr":4422,"Ġmembers":4423,"Ġ++":4424,"Boolean":4425,"Ġinfo":4426,"Project":4427,"Ġpassed":4428,"iqu":4429,"ussian":4430,"ros":4431,"Ġboundary":4432,"ĠOR":4433,"Ġspin":4434,"Ġearly":4435,"Ġsupported":4436,"Assert":4437,"ĠSc":4438,"ãĤ":4439,"prec":4440,"Parent":4441,"Args":4442,"quare":4443,"INE":4444,"vm":4445,"Values":4446,"ĠMon":4447,"SL":4448,"Template":4449,"ĠĠĠĠĠĠĠĠĠĠĠĠĠĠĠĠĠĠĠĠ":4450,"}'":4451,"Body":4452,"neq":4453,"Impl":4454,"Each":4455,"lide":4456,"43":4457,"Rout":4458,"Reference":4459,"ides":4460,"approx":4461,"ECT":4462,"Ġenvironment":4463,"ours":4464,"por":4465,"just":4466,"uple":4467,"Ġconver":4468,"ones":4469,"Ġdevice":4470,"}}{\\":4471,"shift":4472,"tries":4473,"&#":4474,"citet":4475,"ica":4476,"Ġ<=":4477,"Parser":4478,")/":4479,"Ġband":4480,"HTML":4481,"'))":4482,"Bytes":4483,"ĠInter":4484,"urren":4485,"cp":4486,"aa":4487,"rief":4488,"ided":4489,"\\\"":4490,"Ġswitch":4491,"Ġacross":4492,"ids":4493,"noindent":4494,"Ġstop":4495,"Reader":4496,"Ġlik":4497,"}+\\":4498,"After":4499,"Ġfn":4500,"groupId":4501,"ĠDE":4502,"Ġexcept":4503,"Ġkeep":4504,"zz":4505,"ĠGu":4506,"ĠMo":4507,"xx":4508,"Ġsl":4509,"Ġmemory":4510,"Ġdirection":4511,"anges":4512,"Ġcontribution":4513,"direct":4514,"focus":4515,"modal":4516,"Ġable":4517,"Us":4518,"scroll":4519,"Ind":4520,"hr":4521,"Ġpat":4522,"Ġdenote":4523,"ĠJul":4524,"CA":4525,"Ġtogether":4526,"Ġyield":4527,"auth":4528,"andid":4529,"mitted":4530,"ĠDate":4531,"Vector":4532,"Ġjob":4533,"Ġsite":4534,"2006":4535,"Ġprec":4536,"Ġgalax":4537,"98":4538,"enumerate":4539,"Ġincluded":4540,"Ġitems":4541,"stroy":4542,"Ġaccept":4543,"Sk":4544,"ĠGr":4545,"Ġworks":4546,"ĠJSON":4547,"Ġregister":4548,"webpack":4549,"=\"../../../../../../":4550,"enum":4551,"56":4552,"grid":4553,"Ġnames":4554,"COLOR":4555,"uri":4556,"panel":4557,"dim":4558,"Ġequations":4559,"Ġallows":4560,"step":4561,"each":4562,"({\\":4563,"ĠEvent":4564,"Argument":4565,"send":4566,"ĠOne":4567,"fact":4568,"ORD":4569,"}-\\":4570,"41":4571,"dr":4572,"Ġdirectly":4573,"~~~~":4574,"Ġ('":4575,"Order":4576,"issing":4577,"Pi":4578,"ĠThus":4579,"Vari":4580,"Ġmember":4581,"Ġheader":4582,"Ġaccording":4583,"URE":4584,"Ġvolume":4585,"DD":4586,"coded":4587,"free":4588,"Ġexception":4589,"Ġhowever":4590,"_;":4591,"ems":4592,"]\\":4593,"Ġrelation":4594,"Stack":4595,"Track":4596,"vspace":4597,"Ġbytes":4598,"Ġoften":4599,"Ag":4600,"stylesheet":4601,"Ġpract":4602,"itemize":4603,"Ġclasses":4604,"96":4605,"SA":4606,"Ġmedia":4607,"97":4608,"Ġ-\\":4609,"Ġmaterial":4610,"Ġsubject":4611,"Ġunsigned":4612,"keys":4613,"lier":4614,"Ġprovides":4615,"Ġenough":4616,"Definition":4617,"1000":4618,"Ġcoe":4619,"bert":4620,"umption":4621,"Ġveloc":4622,"DIR":4623,"Ġtypeof":4624,"Ġinstanceof":4625,"ĠNov":4626,"icons":4627,"Aut":4628,"ering":4629,"docs":4630,"Ġamong":4631,"MD":4632,"500":4633,"Ġholds":4634,"IR":4635,"Ġcirc":4636,"component":4637,"Ġben":4638,"Ġautom":4639,"multicol":4640,"Ġbyte":4641,"leased":4642,"Ġdenot":4643,"ulated":4644,"session":4645,"Storage":4646,"(:":4647,"Ġapplied":4648,"anced":4649,"Ġuses":4650,"Ġelem":4651,"Note":4652,"=\"_":4653,"SET":4654,"Ġign":4655,"Ġdecl":4656,"omial":4657,"utor":4658,"Ġsignal":4659,"PRE":4660,"Ġstack":4661,"Ġhistory":4662,"ĠCON":4663,"Ġweak":4664,"Ġfac":4665,"Cal":4666,"Ġil":4667,"ague":4668,"Selector":4669,"'>":4670,"mooth":4671,"False":4672,"*)":4673,"Ġgives":4674,"Scope":4675,"ĠPart":4676,"Metadata":4677,"theorem":4678,"Ġexplicit":4679,"multicolumn":4680,"ĠST":4681,"success":4682,"lines":4683,"IF":4684,"ana":4685,"Ġdatabase":4686,"Ġfar":4687,"Ġcoll":4688,"Ġneeded":4689,"ĠSte":4690,"Ġthird":4691,"Ġpanel":4692,".__":4693,"Ġreceived":4694,"ustr":4695,"istor":4696,"(){":4697,"Head":4698,"ĠĠĠĊ":4699,"hib":4700,"Ġbehavior":4701,"Ġwin":4702,"(!":4703,"###":4704,"Ġpredict":4705,"ota":4706,"dag":4707,"win":4708,"bootstrap":4709,"ĠCO":4710,"ĠSk":4711,"arp":4712,"Ġactual":4713,"Ġkeys":4714,"Ġfig":4715,"ĠĠĠĠĠĠĠĠĠĠĠĠĠĠĠĠĠĠ":4716,"ĠCounty":4717,"equals":4718,"ĠWeb":4719,"ĠJanuary":4720,"Ġconvert":4721,"Device":4722,"Ġsort":4723,"Ġotherwise":4724,"Ġnever":4725,"Ġliter":4726,"Ġsure":4727,"ĠAug":4728,"ĠĠĠĠĠĠĠĠĠĠĠĠĠĠĠĠĠĠĠĠĠĠĠĠĠĠĠĠĠĠĠĠĠĠĠĠĠĠĠ":4729,"ssages":4730,"Ġreplac":4731,"Ġrule":4732,"address":4733,"Ġdimension":4734,"leted":4735,"Ġwhose":4736,"$}":4737,"ĠAct":4738,"Ġhandler":4739,"allow":4740,"ha":4741,"Ġrema":4742,"ames":4743,"iding":4744,"ixt":4745,"cade":4746,"Ġremain":4747,"Ġdataset":4748,"Ġoffic":4749,"ĠYork":4750,"framework":4751,"urope":4752,"ĠIm":4753,"insert":4754,"Su":4755,"Ġclosed":4756,")}{":4757,"ĠSec":4758,"ĠMap":4759,"Ġupper":4760,"hem":4761,"Debug":4762,"Ġbir":4763,"pict":4764,"GE":4765,"Ġcertain":4766,"Feature":4767,"87":4768,"dx":4769,"radius":4770,"Ġsend":4771,"ĠWest":4772,"itect":4773,"Ġattack":4774,"PT":4775,"ĠSw":4776,"Ġexisting":4777,"Ġimplies":4778,"Root":4779,"Ġsolutions":4780,"Ġreport":4781,"ĠEd":4782,"aches":4783,"Ġthink":4784,"abor":4785,"ittle":4786,"Ġdoc":4787,"cover":4788,"Enabled":4789,"Ġrunning":4790,"toggle":4791,"Ġextension":4792,"register":4793,"Ġtherefore":4794,"Policy":4795,"85":4796,"Writer":4797,"Ġmechan":4798,"ĠHTML":4799,"Ġmsg":4800,"oom":4801,"Ġexplo":4802,"Ġ'/":4803,"Ġbar":4804,"Ġcover":4805,"allel":4806,"EXT":4807,"ĠOct":4808,"dimensional":4809,"See":4810,"Descript":4811,"ĠBl":4812,"uses":4813,"serve":4814,"export":4815,"Ġtaken":4816,"}}_":4817,"thers":4818,"high":4819,"ansparent":4820,"Long":4821,"Ġcompared":4822,"ynchron":4823,"aven":4824,"underline":4825,"----------------------------------------------------------------":4826,"edit":4827,"Ġbutton":4828,"condition":4829,"Ġmusic":4830,"Title":4831,"cket":4832,")+":4833,"ĠPer":4834,"'$":4835,"Ġvideo":4836,"itter":4837,"mpl":4838,"Ġmultip":4839,"fields":4840,"agn":4841,"Ġsession":4842,"ried":4843,"HP":4844,"ORM":4845,"Use":4846,"norm":4847,"_,":4848,"rupt":4849,"Ġdifference":4850,"custom":4851,"language":4852,"Ġeffects":4853,"Ġemploy":4854,"items":4855,"Ġdest":4856,"Ġelectron":4857,"results":4858,"kind":4859,"âĢĶ":4860,"ti":4861,"Ġfailed":4862,"Ġinteger":4863,"enn":4864,"OK":4865,"connect":4866,",âĢĿ":4867,"corre":4868,"ĠWar":4869,"Decl":4870,"Ġkind":4871,"Ġ(\"":4872,"Ġfr":4873,"support":4874,"Ġjson":4875,"Ġpolit":4876,"ĠTime":4877,"Ġhaving":4878,"Application":4879,"Delete":4880,"Since":4881,"Ġinline":4882,"Ap":4883,"hood":4884,"Ġlate":4885,"Icon":4886,"initial":4887,"padding":4888,"Ġfunc":4889,"Ġpopulation":4890,"Ġhold":4891,"Ġbind":4892,"operatorname":4893,"unch":4894,"Ver":4895,"ĠSchool":4896,"Ġembed":4897,"wrap":4898,"tip":4899,"ĠIS":4900,"ĠEnd":4901,"ipel":4902,"Ġprove":4903,"PS":4904,"Ġdirectory":4905,"Ġhtml":4906,"Has":4907,")}$":4908,"scal":4909,"Ġrelease":4910,"Api":4911,"Ġweb":4912,"ATA":4913,"SION":4914,"Graph":4915,"Queue":4916,"ham":4917,"Rule":4918,"EM":4919,"ĠAfter":4920,"Non":4921,"Bound":4922,"Ġcontaining":4923,"ĠArt":4924,"Ġsuccessful":4925,"2005":4926,"Ġreview":4927,"reet":4928,"Doc":4929,"Ġsymbol":4930,"Ð°Ð":4931,"ĠSouth":4932,"Ġeffective":4933,"etime":4934,"Pattern":4935,"definition":4936,"Click":4937,"ĠNe":4938,"matrix":4939,"86":4940,"Ġpolicy":4941,"access":4942,"Ġword":4943,"Mock":4944,"NavBar":4945,"ĠURL":4946,"Ġdescribe":4947,"Deta":4948,"lus":4949,"dic":4950,"trigger":4951,"\"`":4952,"ĠTrue":4953,"napsh":4954,"ional":4955,"reshold":4956,"Byte":4957,"record":4958,"Classes":4959,"Mark":4960,">();":4961,"attribute":4962,"CS":4963,"Param":4964,"car":4965,"PR":4966,"Rep":4967,"Ġdes":4968,"Ġalbum":4969,"gence":4970,"ĠPy":4971,"AV":4972,"Ġcity":4973,"ĠRec":4974,"comm":4975,"\\'":4976,"Ġnumbers":4977,"JSON":4978,"exception":4979,"ledge":4980,"urch":4981,"Ġ(*":4982,"Ġimplementation":4983,"atively":4984,"ceed":4985,"Ġdeath":4986,"sql":4987,"Fields":4988,"Ġtw":4989,"ario":4990,"Ġgenerate":4991,"texttt":4992,"lor":4993,"ĠCor":4994,"Ġdoesn":4995,"rome":4996,"Ġbecame":4997,"resents":4998,"clusion":4999,"ober":5000,"ully":5001,"oman":5002,"Ġhouse":5003,"ĠTra":5004,"\\}$":5005,"Ġattr":5006,"inally":5007,"ĠQu":5008,"ĠBG":5009,"Ġthread":5010,"Ġrank":5011,"acters":5012,"=(":5013,"isk":5014,"minus":5015,"ptember":5016,"Ġecho":5017,"ĠRE":5018,"Sw":5019,"Ġground":5020,"full":5021,"utable":5022,"Ġfund":5023,"category":5024,"Ġscript":5025,"54":5026,">.":5027,"mic":5028,"iments":5029,"ymf":5030,"Ġnamed":5031,"black":5032,"Ġshape":5033,"help":5034,"track":5035,"Ġ${":5036,"ymfony":5037,"Ġos":5038,"Ġproces":5039,"Ġactiv":5040,"51":5041,"uter":5042,"stop":5043,"Ġestimate":5044,"Ġexpress":5045,"HO":5046,"ĠTherefore":5047,"Ġcompany":5048,"dropdown":5049,"Are":5050,"Ġgen":5051,"Ġ\\|":5052,"Ġng":5053,"XX":5054,"cb":5055,"ä¸":5056,"double":5057,"Now":5058,"Then":5059,"\\,\\":5060,"Ã³":5061,"selected":5062,"Ġss":5063,"iol":5064,"TEST":5065,"year":5066,"ĠBrit":5067,"Results":5068,"ffff":5069,"Draw":5070,"Ġcollect":5071,"Num":5072,"ĠMarch":5073,"Ġrec":5074,"When":5075,"ĠStr":5076,"holder":5077,"pk":5078,"serial":5079,"Active":5080,"}}}":5081,"ynamic":5082,"ĠVal":5083,"ocket":5084,"Ġneeds":5085,"Ġeigen":5086,"Ġformer":5087,"pril":5088,"ulture":5089,"Ġinterval":5090,"\",\"":5091,"ims":5092,"Ġrather":5093,"Ġsoftware":5094,"Ġbuilt":5095,"application":5096,"cing":5097,"events":5098,"ĠRequ":5099,"herit":5100,"Ġlearn":5101,"endar":5102,"That":5103,"Ġdistributed":5104,"Ġparts":5105,"ards":5106,"TEX":5107,"Ġage":5108,"Ġhalf":5109,"Ġmulti":5110,"dest":5111,"ÃŃ":5112,"Ġmatter":5113,"Ġforce":5114,"remark":5115,"Display":5116,"osed":5117,"Ġmakes":5118,"ike":5119,"ASS":5120,"Te":5121,"ategor":5122,"ĠRef":5123,"Ġmar":5124,"Ġdegree":5125,"ustral":5126,"ĉĉĉĊ":5127,"PL":5128,"Ġratio":5129,"52":5130,"uting":5131,"ATH":5132,"Channel":5133,"Ġequivalent":5134,"$_":5135,"2004":5136,"Ġwords":5137,"Ġfocus":5138,"Ġcompet":5139,"mathscr":5140,"ble":5141,"Ġwater":5142,"ĠNode":5143,"ĠOb":5144,"ography":5145,"ĠDep":5146,"JS":5147,"ĠIO":5148,"->_":5149,"irit":5150,"Tra":5151,"Ġmetric":5152,"ĠValue":5153,"ewidth":5154,"Ġabs":5155,"ĠVAL":5156,"margin":5157,"Post":5158,"Ġbasis":5159,"53":5160,"}},":5161,"Ġusers":5162,"Ġpresented":5163,"El":5164,"ping":5165,"gs":5166,"ĠassertEquals":5167,"Ġtransaction":5168,"mock":5169,"cret":5170,"vision":5171,"Ġplayer":5172,"loor":5173,"WE":5174,"Ġfootball":5175,"GB":5176,"Ġalgebra":5177,"Xml":5178,";->":5179,"Ġallowed":5180,"aring":5181,"Ġneighb":5182,"footer":5183,"Ġtakes":5184,"Ġ),":5185,"Ġnatural":5186,"KEY":5187,"bul":5188,"ĠMark":5189,"Ġwait":5190,"pository":5191,"dependency":5192,"oung":5193,"Ġvelocity":5194,"END":5195,"amera":5196,"Ġsens":5197,"Dialog":5198,"Job":5199,"cmd":5200,"Init":5201,"Me":5202,"ĠĠĠĠĠĠĠĠĠĠĠĠĠĠĠĠĠĠĠĠĠĠĠĠĠ":5203,"Ġyet":5204,"Ġtests":5205,"Custom":5206,"anner":5207,"Ġconnect":5208,"ĠMan":5209,"Ġ$\\{":5210,"Ġgreat":5211,"ynt":5212,"Ġsatisfy":5213,"Events":5214,"Ġfive":5215,"Descriptor":5216,"tw":5217,"Ġsong":5218,"Ġdevelopment":5219,"Ġgre":5220,"Ġpredi":5221,"ĠJo":5222,"ĠSch":5223,"adoop":5224,"Ġgoing":5225,"Ġhuman":5226,"important":5227,"Ġwave":5228,"ĠGerm":5229,"lapse":5230,"ulate":5231,"Ġsmaller":5232,"âĢ¦":5233,"Extension":5234,"ĠLO":5235,"comment":5236,"Symbol":5237,":\\":5238,"ĠEurope":5239,"Ġmaking":5240,"riend":5241,"LS":5242,"ĠPo":5243,"{$":5244,"queue":5245,"rip":5246,"Ġframework":5247,"ĠFunction":5248,"aff":5249,"ancel":5250,"Var":5251,"Ġpackage":5252,"Ġattemp":5253,"inline":5254,"impl":5255,"Ġctx":5256,"admin":5257,"Ġsplit":5258,"89":5259,"Ġscen":5260,"ucket":5261,"cember":5262,"Ġsources":5263,"Ġchain":5264,"istration":5265,"desc":5266,"shape":5267,"Ġextract":5268,"ĠCre":5269,"ĠFirst":5270,"points":5271,")))":5272,"Only":5273,"Build":5274,"Ġconsole":5275,"}\"":5276,"Ġcompute":5277,"Ġhealth":5278,"argument":5279,"white":5280,"ĠUse":5281,"bitr":5282,"Tab":5283,"ĠFrom":5284,"Ġpress":5285,"Ġprof":5286,"Found":5287,"ĠDefault":5288,"Theta":5289,"Ġentire":5290,"ĠCity":5291,"Ġarr":5292,"Ġreleased":5293,"Ġperformed":5294,"Ġproduction":5295,"trm":5296,"Ġmagnetic":5297,"channel":5298,"ipeline":5299,"ured":5300,"coin":5301,".)":5302,"2001":5303,"ĠâĢĺ":5304,"Ġwide":5305,"CTION":5306,"TED":5307,"cloud":5308,"gu":5309,"Attr":5310,"Ġep":5311,"Ġneut":5312,"ĠOpen":5313,"Ġfrequency":5314,"Ġavoid":5315,"Ġunderstand":5316,"ĠJune":5317,"Ġenter":5318,"Ġdays":5319,"collection":5320,"FAULT":5321,"ĠAugust":5322,")|":5323,"Ġcurrently":5324,"Ġinside":5325,"Ġincrease":5326,"Ġevolution":5327,"]]":5328,"lege":5329,"ifies":5330,"Ġrequires":5331,"Go":5332,"Ġstars":5333,"okie":5334,"-->":5335,"ĠBGCOLOR":5336,"ĠChar":5337,"ĠSeptember":5338,"ĠImp":5339,"Ġvers":5340,"Ġintegr":5341,"Ġproblems":5342,"iet":5343,"ements":5344,"Ġdeep":5345,"Ġvertex":5346,"Ġbottom":5347,"oring":5348,"++;":5349,"alysis":5350,"Ġsamples":5351,"ka":5352,"Ġdecre":5353,"Ġsix":5354,"Ġgovernment":5355,"textrm":5356,"ĠNorth":5357,"primary":5358,"linewidth":5359,"Ġgot":5360,"63":5361,"LP":5362,"Ġnecessary":5363,"Changed":5364,"dapt":5365,"<\\":5366,"Ġcontinuous":5367,"limit":5368,"taint":5369,"Ġcore":5370,"Ġitself":5371,"Ġnoise":5372,"Ġdemon":5373,"ott":5374,"prod":5375,"Ġdb":5376,"Ġspectrum":5377,"Ġstatist":5378,"ĠSpec":5379,"Ġdetermin":5380,"Ġoperations":5381,"ilit":5382,"256":5383,"ynomial":5384,"Ġland":5385,"zero":5386,"Ġnegative":5387,"Ġauth":5388,"Ġnet":5389,"ĠNOT":5390,"peat":5391,"Cre":5392,"urg":5393,"~$":5394,"crete":5395,"hy":5396,"anded":5397,"war":5398,"Ġhom":5399,"62":5400,"Initial":5401,"Ġchoice":5402,"Ġ\"/":5403,"inf":5404,"none":5405,"ITY":5406,"product":5407,"short":5408,"Ġ(-":5409,"Ġ_{":5410,"400":5411,"Float":5412,"ker":5413,"Ġextra":5414,"lyph":5415,"hs":5416,"undefined":5417,"Bl":5418,"ĠMy":5419,"\"\"\"":5420,"AGE":5421,"inv":5422,"ĠBase":5423,"aged":5424,"ĠGa":5425,"olver":5426,"subseteq":5427,"ailed":5428,"Ġbinary":5429,"unsigned":5430,"eh":5431,"ĠForm":5432,"Keys":5433,"Ġaffect":5434,"eter":5435,"=\"/":5436,")),":5437,"Ġloop":5438,"}^{-":5439,"Items":5440,"footnote":5441,"ĠBar":5442,"Scroll":5443,"-$":5444,"rown":5445,"aligned":5446,"So":5447,"Ġ(_":5448,"Ġattributes":5449,"ĠJuly":5450,"Ġfall":5451,";/":5452,"ĠOctober":5453,"usion":5454,"Func":5455,"Ġdig":5456,"indexOf":5457,"Tests":5458,"Ġnu":5459,"Ġminimum":5460,"Ġleading":5461,"Edit":5462,"Ġmajor":5463,"Ġgas":5464,"ĠTHE":5465,"ĠĠĠĠĠĠĊ":5466,"////////////////////////////////":5467,"ĠApril":5468,"Ġartic":5469,"faces":5470,"Ġconnected":5471,"Ġincludes":5472,"Ġrob":5473,"Ġinvoke":5474,"Ġserial":5475,"isting":5476,"Ġplot":5477,"ested":5478,"Ġworking":5479,"Security":5480,"Ġreported":5481,"osen":5482,"mediate":5483,"wner":5484,"uby":5485,"eder":5486,"MB":5487,"Ġpointer":5488,"=-":5489,"ĠjQuery":5490,"Ġsco":5491,"ĠCopy":5492,"Ġthough":5493,"Transform":5494,"Ġprior":5495,"ox":5496,"Prop":5497,"alloc":5498,"Lock":5499,"Ġtreat":5500,"Ġchanged":5501,"ifying":5502,"Network":5503,"ĠModel":5504,"Ġaxis":5505,"vey":5506,"Eng":5507,"Ġprinc":5508,"hadoop":5509,"DL":5510,"Ġ$|":5511,"Ġorigin":5512,"ĠRed":5513,"Ġraise":5514,"lustr":5515,"Ġspeed":5516,"oks":5517,"Ġquestion":5518,"Send":5519,"Plugin":5520,"Pe":5521,"email":5522,"ĠĠĠĠĠĠĠĠĠĠĠĠĠĠĠĠĠĠĠĠĠĠĠĠ":5523,"props":5524,"ĠĠĠĠĠĠĠĠĠĠĠĠĠĠĠĠĠĠĠĠĠĠĠĠĠĠĠĠĠĠĠĠĠĠĠĠĠĠĠĠĠĠĠĠĠĠĠĠĠĠĠĠĠĠĠĠĠĠĠĠĠĠĠĠ":5525,"axis":5526,"plugins":5527,"Ġ[],":5528,"pub":5529,"icult":5530,"Ġbecomes":5531,"ĠChrist":5532,"Ġalt":5533,"ansion":5534,"[$":5535,"Media":5536,"Red":5537,"finite":5538,"tmp":5539,"Ġvol":5540,"}}_{":5541,"feature":5542,"servable":5543,"BC":5544,"Ġshift":5545,"sto":5546,"ĠBO":5547,"Struct":5548,"aps":5549,"Ġcome":5550,"Ġphysical":5551,"300":5552,"Elements":5553,"ĠÃ":5554,"connection":5555,"clo":5556,"ali":5557,"arily":5558,"Ġengine":5559,"chart":5560,"produ":5561,"FILE":5562,"cedure":5563,"Ġprop":5564,"assertEquals":5565,"Ġdesc":5566,"rees":5567,"ĠSome":5568,"You":5569,"CHE":5570,"itution":5571,"Ġensure":5572,"Ġbig":5573,"Ġalmost":5574,"force":5575,"king":5576,"annotation":5577,"Ġcompare":5578,"pret":5579,"ampion":5580,"iterator":5581,"controller":5582,"Pointer":5583,"entity":5584,"addr":5585,"region":5586,"Ġcounter":5587,"Ġuniform":5588,"Ġdemonstr":5589,"FR":5590,"Member":5591,"@\"":5592,"ĠNovember":5593,"[:":5594,"atives":5595,"children":5596,"napshot":5597,"modules":5598,"Ġdetermine":5599,"Ġradius":5600,"MC":5601,"ads":5602,"redu":5603,"coming":5604,"NG":5605,"picker":5606,"deed":5607,"MENT":5608,"ĠDecember":5609,"Ġservices":5610,"Ġconc":5611,"utf":5612,"Ġrem":5613,"Nodes":5614,"Ġsm":5615,"ĠAL":5616,"Ġscheme":5617,"'.":5618,"Ġprofile":5619,"setminus":5620,"bers":5621,"Ġ\"\"":5622,"password":5623,"cons":5624,"ĠII":5625,"subfigure":5626,"ĠMethod":5627,"scribe":5628,"Editor":5629,"Ġuseful":5630,"yl":5631,"NE":5632,"Ġchall":5633,"Ġpast":5634,"Ġround":5635,"Ġcut":5636,"Ġtheorem":5637,"nce":5638,"virtual":5639,"ifest":5640,"Ġresulting":5641,"eners":5642,"ĠKey":5643,"Ġderiv":5644,"Ġabsolute":5645,"Ġutil":5646,"Ġreq":5647,"atory":5648,"Ġcommunity":5649,"Auth":5650,"real":5651,"ashed":5652,"Ġflag":5653,"ĠTODO":5654,"Ġconstruction":5655,"atically":5656,"Ġdim":5657,"Ġremoved":5658,"oplus":5659,"ccording":5660,"Lang":5661,"resses":5662,"Ġcandid":5663,"avor":5664,"Before":5665,"blue":5666,"Ġwomen":5667,"Loader":5668,"78":5669,"counter":5670,"TC":5671,"forms":5672,"Ġstarted":5673,"Ġprimary":5674,"Ġcamp":5675,"Ġoperators":5676,"Ġtensor":5677,"'re":5678,"osite":5679,"Ġrepresents":5680,"Bit":5681,"ĠBr":5682,"Ġgames":5683,"Msg":5684,"_{(":5685,"ertific":5686,"_->":5687,"Ġtransfer":5688,"','":5689,"PO":5690,"ĠMc":5691,"PAR":5692,"ĠAustral":5693,"Ġlocated":5694,"atial":5695,"Ġfix":5696,"Ġwhite":5697,"SIZE":5698,"Ġinteraction":5699,"Ġcharacters":5700,"ket":5701,"\")]":5702,"area":5703,"total":5704,"Ġsitu":5705,"72":5706,"Ġbuilding":5707,"Ġintroduced":5708,"Ġaway":5709,";<":5710,"Pool":5711,"ĠDist":5712,"Windows":5713,"Ġtrigger":5714,"aced":5715,"aws":5716,"Ġproper":5717,"Ġfo":5718,"JECT":5719,"Ġregions":5720,"typedef":5721,"Parse":5722,"angular":5723,"Ġuncer":5724,"Matrix":5725,"ua":5726,"Close":5727,"Ġappend":5728,")).":5729,"Ġincreasing":5730,"XML":5731,"Ġinner":5732,"schema":5733,"attice":5734,"Pod":5735,"TS":5736,"save":5737,"2003":5738,"hentication":5739,"Ġgrid":5740,"cut":5741,"den":5742,"Ġsocial":5743,"Ġpixel":5744,"Ġmock":5745,"Show":5746,"Ġbusiness":5747,"61":5748,"radient":5749,"Dist":5750,"bruary":5751,"Scale":5752,"Ġair":5753,"sect":5754,"Ġissue":5755,"ĠOut":5756,"Ġ($\\":5757,"install":5758,"ĠNO":5759,"Package":5760,"ĠAp":5761,"ectors":5762,"ille":5763,"limits":5764,"Ġenc":5765,"Ġinvestig":5766,"levant":5767,"Ġtypename":5768,"Internal":5769,"Ġcomparison":5770,"Ġdetermined":5771,"Ġarbitr":5772,"Fail":5773,"ĠHigh":5774,"ĠDi":5775,")));":5776,"sumer":5777,"Ġcompact":5778,"Flags":5779,"Ġhyper":5780,"Ġcurve":5781,")\">":5782,"Account":5783,"deg":5784,"Ġtaking":5785,"home":5786,"spect":5787,"para":5788,"Iterator":5789,"urnal":5790,"inct":5791,"Ġconsistent":5792,"Ġcentral":5793,"domain":5794,"multi":5795,"ĠHere":5796,"extend":5797,"ĠThat":5798,"|-":5799,"_+":5800,"Perm":5801,"Sum":5802,"Runtime":5803,"oney":5804,"ĠUser":5805,"lers":5806,"ills":5807,"Ġsmooth":5808,"umin":5809,"ria":5810,"SR":5811,"zer":5812,"Ġtook":5813,"mouse":5814,"Ġplatform":5815,"()).":5816,"printf":5817,"shadow":5818,"Ġcritical":5819,"handler":5820,"Attributes":5821,"Ġplayed":5822,"abilities":5823,"Ġoffer":5824,"parameters":5825,"sequence":5826,"Ġstation":5827,"Ġapproxim":5828,"Ret":5829,"Ġsimply":5830,"writ":5831,"Ġlibrary":5832,"numer":5833,"press":5834,"Ġsegment":5835,"Section":5836,"material":5837,"missions":5838,"els":5839,"ridge":5840,"Ġsufficient":5841,"bon":5842,"Volume":5843,"dates":5844,"Jo":5845,"Ġrg":5846,"Ġsubst":5847,"More":5848,"Ġimpact":5849,"anish":5850,"bits":5851,"Ne":5852,"ĠÂ":5853,"ney":5854,"VERSION":5855,"mi":5856,"hide":5857,"Ġlock":5858,"sess":5859,"*{":5860,"Ġreally":5861,"Ġrules":5862,"tical":5863,"Props":5864,"Ġhidden":5865,"properties":5866,"Ġlittle":5867,"Own":5868,"amilton":5869,"orter":5870,"flags":5871,"_(":5872,"Ġlib":5873,"84":5874,"ĠSim":5875,"Proxy":5876,"dule":5877,"\\}":5878,"gorithms":5879,"thread":5880,"Ġothers":5881,"Ġconstraints":5882,"SU":5883,"rast":5884,"Ġir":5885,"||":5886,"blockList":5887,"('.":5888,"Ġmaps":5889,"Ġstre":5890,"Grid":5891,"'));":5892,"contrib":5893,"^{-\\":5894,"Ġ\\;":5895,"Ġwriting":5896,"Mo":5897,"ao":5898,"Ð»":5899,"ius":5900,"avy":5901,"Auto":5902,"Database":5903,"Second":5904,"Ġsomething":5905,"Ġampl":5906,"editor":5907,"ROM":5908,"ĠService":5909,"ieve":5910,"MAX":5911,"'\\":5912,"Ġclean":5913,"mas":5914,"Ġaltern":5915,"hidden":5916,"82":5917,"Ġstarting":5918,"Ġminim":5919,"Ġprevent":5920,"Ġcountry":5921,"Ġparticle":5922,"spring":5923,"Ġdiscuss":5924,"aul":5925,"PORT":5926,"ĠĠĠĠĠĠĠĠĠĠĠĠĠĠĠĠĠĠĠĠĠĠ":5927,"Ġsuff":5928,"transition":5929,"Transaction":5930,"legal":5931,"complete":5932,"Ġscreen":5933,"Ġpolynomial":5934,"ĠPre":5935,"Ġactually":5936,"safe":5937,"Ġencoding":5938,"ropy":5939,"Ġmask":5940,"sure":5941,"Ġproduced":5942,"greg":5943,"fail":5944,"Selection":5945,"PP":5946,"Ġpublished":5947,"Ġ'<":5948,"Logger":5949,"NotNull":5950,"Ġio":5951,"_*":5952,"=\"../../../":5953,"Ñĥ":5954,"ĠIE":5955,"Ġangular":5956,"Ġrights":5957,"ĠWork":5958,"dagger":5959,"ĠGroup":5960,"Ġ$[":5961,"Ġarchitect":5962,"rot":5963,"Ġsetup":5964,".*":5965,"inder":5966,"elli":5967,"Wrapper":5968,"Ġsequ":5969,"assets":5970,"Ġstudies":5971,"manager":5972,"Ġaccuracy":5973,"....":5974,"Ġderived":5975,"pare":5976,"ĠReact":5977,"reset":5978,"Ġflux":5979,"ĠSan":5980,"Ġdifficult":5981,"slice":5982,"but":5983,"sters":5984,"ById":5985,"IB":5986,"UID":5987,"Ġcomputed":5988,"lias":5989,"bytes":5990,"Ġpartition":5991,"anger":5992,"ĠText":5993,"antic":5994,"rate":5995,"network":5996,"contin":5997,"ortun":5998,"aching":5999,"Namespace":6000,"ĠKing":6001,"site":6002,"Br":6003,"Ġanno":6004,"agraph":6005,"auge":6006,"94":6007,"Ġhence":6008,"Ġestablished":6009,"imits":6010,"CF":6011,"Ġconduct":6012,"throws":6013,"WS":6014,"Ġformula":6015,"ĠSci":6016,"exists":6017,"depth":6018,"apt":6019,"mask":6020,"BUG":6021,"ellow":6022,"Ġdir":6023,"LOG":6024,"Directory":6025,"Ġselector":6026,"SY":6027,"isation":6028,"ĠRead":6029,"Ġbounded":6030,"Ġexternal":6031,"Ġstatement":6032,"()));":6033,"Print":6034,"Ġstage":6035,"Ġaff":6036,"Any":6037,"switch":6038,"dash":6039,"Remove":6040,"ĠFalse":6041,"Ġtransport":6042,"Ġtab":6043,"iny":6044,"Ġmarket":6045,"acc":6046,"ico":6047,"unn":6048,"ĠGets":6049,"Ġpers":6050,"ĠCent":6051,"screen":6052,"Ġpert":6053,"Ġpeak":6054,"2002":6055,"while":6056,"cpp":6057,"ening":6058,"itute":6059,"Ġdetection":6060,"neg":6061,"Ġdepends":6062,"Ġresources":6063,"Ġoptional":6064,"ilation":6065,"Ġprotocol":6066,"DS":6067,"Ġobservations":6068,"Ġoptimal":6069,"ously":6070,"Ġinflu":6071,"yes":6072,"oice":6073,"Ġlonger":6074,"Opt":6075,"128":6076,"alled":6077,"bi":6078,"ĠGoogle":6079,"Ġexamples":6080,"My":6081,"keyword":6082,"Ġwhole":6083,"pers":6084,"Ġresolution":6085,"ToString":6086,"Ġdrop":6087,"160":6088,"Ġinvalid":6089,"ĠOption":6090,"Generic":6091,"Ġdebug":6092,"nil":6093,"Ġexperiments":6094,"obile":6095,"Layer":6096,"ixture":6097,"Ġalloc":6098,"wedge":6099,"txt":6100,"Ġlikely":6101,"textsc":6102,"ights":6103,"rd":6104,"security":6105,"Rest":6106,"uy":6107,"74":6108,"omorphism":6109,"Ġheld":6110,"Inv":6111,"ĠLa":6112,"Ġvisit":6113,"assertEqual":6114,"trics":6115,"ĠCall":6116,"93":6117,"jquery":6118,"gle":6119,"Ġbrowser":6120,"]:":6121,"Register":6122,"RAN":6123,"Ġapproximation":6124,"otal":6125,"Ġjavax":6126,"ĠCode":6127,"Ġsymmetry":6128,"ein":6129,"Enum":6130,"ipal":6131,"Adapter":6132,"Ġcomment":6133,"Ġvertices":6134,"decl":6135,"Ġnorm":6136,"Ġbroad":6137,"NULL":6138,"Ġdisk":6139,"notations":6140,"here":6141,"Ġface":6142,"GS":6143,"vs":6144,"colon":6145,"Ġforward":6146,"Ġmed":6147,"arguments":6148,"Ġmeas":6149,"hing":6150,"Ġasync":6151,"ama":6152,"uel":6153,"ACE":6154,"ĠInitial":6155,"IE":6156,"Ġrecogn":6157,"Ġtasks":6158,"ĠFebruary":6159,"ĠOur":6160,"Ġ|\\":6161,"Protocol":6162,"Ġkernel":6163,"Ġdeveloped":6164,"123":6165,"Ġtown":6166,"hest":6167,"ĠIP":6168,"Ġsatisfies":6169,"ief":6170,"ĠVersion":6171,"Ġdynamics":6172,"dro":6173,"Ġapplications":6174,"Ġnetworks":6175,"Ġetc":6176,"svg":6177,"Eq":6178,"protobuf":6179,"Ġhar":6180,"Rece":6181,"Ġcategory":6182,"theme":6183,"headers":6184,"metadata":6185,"selector":6186,"inn":6187,"Ġopts":6188,"ADD":6189,"rad":6190,"bigg":6191,"History":6192,"\">&":6193,"Full":6194,"Ġconstructor":6195,"Ø§":6196,"Expect":6197,"aser":6198,"Ġoutside":6199,"76":6200,"Ġsteps":6201,"(__":6202,"INS":6203,"BA":6204,"Ġshared":6205,"Memory":6206,"Ġqueue":6207,"construct":6208,"ensive":6209,"Ġangle":6210,"onic":6211,"cases":6212,"eler":6213,"Sl":6214,"Mar":6215,"Ġchoose":6216,"Ġmatches":6217,"Ġuncertaint":6218,"Ġcred":6219,"Ġsense":6220,"Conf":6221,"urrency":6222,"ĠPe":6223,"_{{\\":6224,"Ġcourse":6225,"reme":6226,"Pop":6227,"ĠAN":6228,"seud":6229,"prev":6230,"Ġsays":6231,"Ġ\\(":6232,"Panel":6233,"DA":6234,"coq":6235,"92":6236,"ios":6237,"ĠBritish":6238,"Ġprogress":6239,"Ġlevels":6240,"Dictionary":6241,"}}(\\":6242,"moz":6243,"ĠMess":6244,"berg":6245,"Ġparticles":6246,"Ġeduc":6247,"Ġadapt":6248,"okup":6249,"Ġgrav":6250,"Ġcame":6251,"aved":6252,"Fn":6253,"Ġpartial":6254,"Ġgoal":6255,"Ġfully":6256,"zone":6257,"zon":6258,"Ġillustr":6259,"ango":6260,"ellar":6261,"rench":6262,"Ġcapture":6263,"Ġess":6264,"izations":6265,"contains":6266,"Ġparticip":6267,"ĠProposition":6268,"picture":6269,"lg":6270,"Ġstory":6271,"oms":6272,"fit":6273,"Ġmillion":6274,"ares":6275,"Ġreflect":6276,"Ġentity":6277,"DC":6278,"DOM":6279,"VID":6280,"Ġstrategy":6281,"prefix":6282,"ĠPublic":6283,"Ġ^":6284,"stats":6285,"Ġprefix":6286,"Main":6287,"Ġtransparent":6288,"____":6289,"Ġmeet":6290,"iles":6291,"ained":6292,"Constraint":6293,"fficients":6294,"rf":6295,"ĠEnglish":6296,"Ġfill":6297,"Ġdeal":6298,"progress":6299,"Ġbeh":6300,"ĠOther":6301,"Ġpercent":6302,"och":6303,"BR":6304,"dient":6305,"Here":6306,"'])":6307,"road":6308,"ULE":6309,"browser":6310,"ĠTH":6311,"forall":6312,"rew":6313,"Promise":6314,"illa":6315,"UTF":6316,"91":6317,"Ġpairs":6318,"Ġstorage":6319,"iders":6320,"bal":6321,"Step":6322,"pay":6323,"LIC":6324,"ollary":6325,"Ġdepth":6326,"Ġmention":6327,"Ġenabled":6328,"Ġeff":6329,"Ġstrings":6330,"Ġedges":6331,"oral":6332,"Ġnative":6333,"),\\":6334,"=\"\"":6335,"Ġimplements":6336,"dec":6337,"Desc":6338,"Ġprogra":6339,"Ġblue":6340,"sur":6341,"Seg":6342,"atible":6343,"Ġappropri":6344,"Av":6345,"Ġupdated":6346,"STATE":6347,"Ġmotion":6348,"Ġdomin":6349,"Ġclassical":6350,"ĠUpdate":6351,"Ġidentity":6352,"'_":6353,"anaged":6354,"Ġnumerical":6355,"Prefix":6356,"Ġscatter":6357,"attributes":6358,"Ġ}\\":6359,"Ġdetect":6360,"ivial":6361,"ĠAfr":6362,"agnost":6363,"Ġtmp":6364,"family":6365,"Man":6366,"Sim":6367,"rices":6368,"Ġdiscussed":6369,"Ġscroll":6370,"ARY":6371,"Ġpromise":6372,"band":6373,"ĠField":6374,"cape":6375,"Ġ[[":6376,"Ġbasic":6377,"Ġmatching":6378,"nections":6379,"cheduler":6380,"Ġfront":6381,"Duration":6382,"}%":6383,"ĠPres":6384,"testing":6385,"=\"@":6386,"Ġtesting":6387,",\\,":6388,"ondon":6389,"Ġer":6390,"wrapper":6391,"loader":6392,"ociation":6393,"idx":6394,"Ġviol":6395,"Ġsamp":6396,"rift":6397,"Ġord":6398,"Ġcontact":6399,"Ġadmin":6400,"Ġwallet":6401,"subsubsection":6402,"Ġmissing":6403,"Ġ%}":6404,"TEXT":6405,"Expr":6406,"Ġscalar":6407,"ĠWindow":6408,"enced":6409,"logger":6410,"EventListener":6411,"ĠTask":6412,"ĠHis":6413,"ONE":6414,"Ðº":6415,"ĠĠĠĠĠĠĠĠĠĠĠĠĠĠĠĠĠĠĠĠĠĠĠĠĠĠĠĠĠ":6416,"ĠOper":6417,"Ġ],":6418,"eries":6419,"STAT":6420,"Ġcalls":6421,"ategories":6422,"Failed":6423,"aration":6424,"ometric":6425,"1999":6426,"_{-":6427,"Ġbelong":6428,"Ġhyp":6429,"Statement":6430,"Ġexports":6431,"newcommand":6432,"ALSE":6433,"Ġspecies":6434,"equality":6435,"Ġunits":6436,"fg":6437,"ĠVer":6438,"hi":6439,"Import":6440,"AX":6441,"Det":6442,"Global":6443,"timeout":6444,"Ġthings":6445,")}(":6446,"Ġ{'":6447,"bsite":6448,"omy":6449,"Proto":6450,"ĠOver":6451,"Ġgalaxies":6452,"master":6453,"loop":6454,"nes":6455,"Ġmen":6456,"à¤":6457,"Ġextended":6458,"Socket":6459,"Ġstudi":6460,"Ġhel":6461,"Ġgauge":6462,"======":6463,"OF":6464,"Ġdriv":6465,"job":6466,"'}":6467,"Ġansw":6468,"equence":6469,"det":6470,"Ġcircle":6471,"TABLE":6472,"ĠNumber":6473,"ĠNow":6474,"ano":6475,"elem":6476,"BP":6477,"Ġstructures":6478,"aker":6479,"attle":6480,"Ġrect":6481,"iki":6482,"special":6483,"ought":6484,"uit":6485,"ĠDOM":6486,"Ġfeed":6487,"profile":6488,"Browser":6489,"Ġfinally":6490,"Ġcorresponds":6491,"filename":6492,"Ġprocesses":6493,"ĠHand":6494,"Ġplane":6495,"Ġsimulations":6496,"Ġquality":6497,"git":6498,"names":6499,"olic":6500,"brief":6501,"diff":6502,"constructor":6503,"FN":6504,"Ġfigure":6505,"=\"\">":6506,"pattern":6507,"Ġcharge":6508,"omb":6509,"Files":6510,"SER":6511,"Ġ\"<":6512,"ington":6513,"Ġsecurity":6514,"entials":6515,"Ġinvariant":6516,"IMP":6517,"Ġblocks":6518,"horizontal":6519,"ĠMed":6520,"Ġspaces":6521,"Ġmeasured":6522,"Ġicon":6523,"Ġsave":6524,"echo":6525,"Ġexactly":6526,"eff":6527,"ĠIOException":6528,"Ġda":6529,"Ġretr":6530,"Ġeasy":6531,"Ġonline":6532,"letion":6533,"Ġcalculated":6534,"Ġvisible":6535,"ĠJap":6536,"83":6537,"Rad":6538,"fd":6539,"plot":6540,"sy":6541,"since":6542,"Ġemission":6543,"ĠHel":6544,"Ġbuilder":6545,"ĠPark":6546,"ĠHar":6547,"Ġnational":6548,"81":6549,"Ġbounds":6550,"Ġcoupling":6551,"Ġvertical":6552,"Ġlistener":6553,"PATH":6554,"Constants":6555,"libr":6556,"Ġmix":6557,"bold":6558,"Ġcoordinates":6559,"Ġpolar":6560,"Ġbal":6561,"Ġchosen":6562,"ocker":6563,"Ġbtn":6564,"%%%%":6565,"born":6566,"Mapping":6567,"Activity":6568,"çļ":6569,"ecause":6570,"CHECK":6571,"Ġdecomp":6572,"Ġfraction":6573,"################":6574,"Ġknowledge":6575,"$/":6576,"resolve":6577,"ued":6578,"Ġarbitrary":6579,"ribution":6580,"Len":6581,"FC":6582,"Sync":6583,"çļĦ":6584,"loyment":6585,"Ġmessages":6586,"^-":6587,"arant":6588,"73":6589,"Americ":6590,"ĉĉĉĉĉĉĉĉĉ":6591,"Ġchart":6592,"Loc":6593,"ĠMod":6594,"ĠExt":6595,"bes":6596,"bullet":6597,"rong":6598,"Ġ_.":6599,"atur":6600,"ĠConfig":6601,"Cluster":6602,"elf":6603,"VM":6604,"Ġeditor":6605,"Ġwar":6606,"ifications":6607,"Ġpresence":6608,"structure":6609,"Ġusually":6610,"Ġlive":6611,"sider":6612,"Ġbegan":6613,"protected":6614,"izable":6615,"ĠHence":6616,"bel":6617,"Ġupon":6618,"tools":6619,"Ġconcept":6620,"Ġissues":6621,"ili":6622,"Ġprocedure":6623,"effect":6624,"Double":6625,"riteria":6626,"Ġstudents":6627,"Ġreduced":6628,"Lin":6629,"rb":6630,"pass":6631,"reement":6632,"Dest":6633,"Ġpy":6634,"Ġmut":6635,"Syntax":6636,"Identifier":6637,"ratic":6638,"errors":6639,"symbol":6640,"pa":6641,"ĠĠĠĠĠĠĠĠĠĠĠĠĠĠĠĠĠĠĠĠĠĠĠĠĠĠ":6642,"Ġmomentum":6643,"Ġcause":6644,"ĠHamilton":6645,"expr":6646,"Framework":6647,"Ġce":6648,"Ġrgba":6649,"MOD":6650,"ena":6651,"Ġslow":6652,"Ġrequests":6653,"IX":6654,"ĠĠĠĠĠĠĠĠĠĠĠĠĠĠĠĠĠĠĠĠĠĠĠĠĠĠĠĠĠĠĠĠĠĠĠĠĠĠĠĠĠĠĠ":6655,"Math":6656,"tabs":6657,"Ġqual":6658,"Ġcorrespond":6659,"ini":6660,"generate":6661,"itable":6662,"Ġmonth":6663,"GR":6664,"Ġcareer":6665,"Ġalgorithms":6666,"prob":6667,"erve":6668,"}</":6669,"79":6670,"kens":6671,"pecially":6672,"Ġplugin":6673,"Ã¼":6674,"ĠAR":6675,"apped":6676,"covery":6677,"LL":6678,"getName":6679,"Ġclick":6680,"dialog":6681,"ĠDav":6682,"Ġask":6683,"Ġnovel":6684,"ford":6685,"Our":6686,"Ġsignature":6687,"Ġpick":6688,"Success":6689,"Ġ\",":6690,"Ġcontroller":6691,"tik":6692,"ierarch":6693,"Ġwhy":6694,"Ġleads":6695,"isms":6696,"Common":6697,"ARE":6698,"opts":6699,"ners":6700,"Ġstudied":6701,"Ġ+\\":6702,"Ġfast":6703,"pmatrix":6704,"Ġregard":6705,"ĠLeague":6706,"Ġrelevant":6707,"done":6708,"account":6709,"Ġtimeout":6710,"ifdef":6711,"LINE":6712,"ĠCopyright":6713,"Ġprops":6714,"cour":6715,"ĠHouse":6716,"VG":6717,"ĠSto":6718,"ĠArg":6719,"isode":6720,"Ġeasily":6721,"URI":6722,">::":6723,"Ġ$$":6724,"chain":6725,"ĠWhile":6726,"ĠQue":6727,"ĠAir":6728,"ened":6729,")^{\\":6730,"aking":6731,"aign":6732,"Ġforms":6733,"stable":6734,"ĠHer":6735,"ertificate":6736,"Ġremaining":6737,"Condition":6738,"Ġheaders":6739,"Selected":6740,".'":6741,"Ġamplitude":6742,")\"":6743,"unced":6744,"Ġenable":6745,"TRY":6746,"Ġcoefficients":6747,"Ġassumption":6748,"Ġsound":6749,"Ġmeasurements":6750,"Ġsimulation":6751,"Ġtell":6752,"ITE":6753,"ĠEast":6754,"spe":6755,"Att":6756,"alg":6757,"Ġ];":6758,"Ġmapping":6759,"Py":6760,"Ġscore":6761,"random":6762,"READ":6763,"otion":6764,"Ġperturb":6765,"SQL":6766,"Headers":6767,"Ġdecay":6768,"Ġspectral":6769,"Ġemail":6770,"Ġexpansion":6771,"Ġreduce":6772,"ĠHo":6773,"Ġflags":6774,"ipage":6775,")_":6776,"Ġmagn":6777,"bad":6778,"Ġbranch":6779,"Figure":6780,"Ġones":6781,"Java":6782,"perp":6783,"Ġraw":6784,"Ġlattice":6785,"when":6786,"Ġactions":6787,"hell":6788,"Ġtherm":6789,"Ġ_,":6790,"Collections":6791,"Ġexponent":6792,"ĠInteger":6793,"Trace":6794,"ï¼":6795,"large":6796,"Agent":6797,"onical":6798,"ĠHt":6799,":[":6800,"invalid":6801,"artment":6802,"Ġskip":6803,"gradient":6804,"lict":6805,"ancy":6806,"\\_":6807,"green":6808,"Ġremains":6809,"fly":6810,"Ġeq":6811,"nodes":6812,"Space":6813,"dy":6814,"parser":6815,"enable":6816,"Ġstreng":6817,"chor":6818,"enabled":6819,"acle":6820,"Ġecon":6821,"Ġpreviously":6822,"volume":6823,"jpg":6824,"va":6825,"fi":6826,"Ġfire":6827,"Ġparser":6828,"asets":6829,"Ġcomes":6830,"boost":6831,"Ġ).":6832,"configuration":6833,"urthermore":6834,"Ġreplace":6835,"activ":6836,"Ġpoly":6837,"\\!\\!":6838,"Ġui":6839,"FLA":6840,"scriptor":6841,"IND":6842,"Ġem":6843,"iffer":6844,"identifier":6845,"rise":6846,"isions":6847,"Compar":6848,"protocol":6849,"Ġexperimental":6850,"ĠLondon":6851,"Ġidx":6852,"2023":6853,"some":6854,"Route":6855,"IST":6856,"USE":6857,"Ġagent":6858,"Interval":6859,"han":6860,"ĠSO":6861,"------------":6862,"iting":6863,"SM":6864,"licity":6865,"VALUE":6866,"Ġinsert":6867,"Year":6868,"iques":6869,"Ġ'';":6870,"grade":6871,"Ġdet":6872,"ĠJava":6873,"Ġexperience":6874,"Profile":6875,"Ġdetail":6876,"HR":6877,"Ġ[\"":6878,"iber":6879,"Ġpropag":6880,"ĠEl":6881,"Generator":6882,"Ġinc":6883,"Ġtheore":6884,"HTTP":6885,"Ġgreater":6886,"Ġfilms":6887,"Ġexport":6888,"roduction":6889,"Ġ\"-":6890,"minipage":6891,"precated":6892,"kw":6893,"cial":6894,"PU":6895,"Ġcompan":6896,"Ġcloud":6897,"Ġmetadata":6898,"ris":6899,"details":6900,"Ġtranslate":6901,"lates":6902,"Ġidea":6903,"storage":6904,"FE":6905,"href":6906,"Ġbad":6907,"Ġcorrelation":6908,"BE":6909,"ĠMoreover":6910,"hesis":6911,"checkbox":6912,"Ġlimited":6913,")\\,":6914,"ĠRegister":6915,"forward":6916,"71":6917,"yal":6918,"}^*":6919,"components":6920,"Ġquick":6921,"Ġmeta":6922,"Limit":6923,"Ġpul":6924,"imin":6925,"Ġpopular":6926,"Ġinequality":6927,"mediately":6928,"Ġdark":6929,"Ġcolumns":6930,"Ġverify":6931,"Ġshall":6932,"Ġdelay":6933,"Ã¤":6934,"unique":6935,"Ġok":6936,";}":6937,"Ġestablish":6938,"anning":6939,"ĠUI":6940,"ĠArm":6941,"proxy":6942,"Ġareas":6943,"ĠView":6944,"icles":6945,"Cap":6946,"Ca":6947,"FFFF":6948,"{$\\":6949,"levision":6950,"Ġfailure":6951,"tikz":6952,"Ġinteresting":6953,"Ġunknown":6954,"Ġcommit":6955,"Ġmiddle":6956,")_{":6957,"ĠAND":6958,"![":6959,"rie":6960,"Ġtradition":6961,"Ġreject":6962,"Ġxmlns":6963,"Ġelection":6964,"ouch":6965,")^{-":6966,"ench":6967,"Ġfmt":6968,"external":6969,"tags":6970,"ĠWilli":6971,"Role":6972,"ĉĠĠĠĠ":6973,"Ġmodified":6974,"Ġbenef":6975,"ĠPort":6976,"Ġ{{":6977,"Ġfactory":6978,"uncil":6979,"Registry":6980,"FIG":6981,"Ġdual":6982,"ĠDec":6983,"ĠHTTP":6984,"}$-":6985,"enses":6986,"sys":6987,"ĠGeneral":6988,"Ġcalc":6989,"CI":6990,"Ġsizeof":6991,"cluster":6992,"Ġunless":6993,"Ġlatter":6994,"alo":6995,"fect":6996,"sample":6997,"ican":6998,"Ġobservable":6999,"Ġmid":7000,"Ġ>>>":7001,"Ġpassword":7002,"LOCK":7003,"inger":7004,"Ġrestrict":7005,"ror":7006,"Multi":7007,"However":7008,"leep":7009,"flag":7010,"Ġmachine":7011,"execute":7012,"PROC":7013,"Mat":7014,"Abstract":7015,"Ġmis":7016,"ĠInternational":7017,"Ġabstract":7018,"conn":7019,"ĠDr":7020,"Ġspan":7021,"Ġdistributions":7022,"Ġespecially":7023,"Ljava":7024,"Ġcontract":7025,"Details":7026,"Ġled":7027,"OUT":7028,"ĠEqu":7029,"Ġann":7030,"ara":7031,"3333":7032,"ignment":7033,"Ġwalk":7034,"Ġrespons":7035,"Animation":7036,".\");":7037,"Ġbits":7038,"Ġentries":7039,"mc":7040,"ĠAlso":7041,"olec":7042,"conv":7043,"Ġmicro":7044,"Ġshare":7045,"EV":7046,"Ġparam":7047,"Ġappropriate":7048,"ociety":7049,"iling":7050,"1998":7051,"ĠPhil":7052,">\\":7053,"Ġrad":7054,"Ġindicates":7055,"Ġreader":7056,"Ġcompleted":7057,"km":7058,"Ġol":7059,"Ġconsists":7060,"Ġestimated":7061,"throw":7062,"Progress":7063,"Using":7064,"'];":7065,"Ġfun":7066,"icket":7067,"fixed":7068,"What":7069,"Lower":7070,"Resources":7071,"ordinate":7072,"console":7073,"ains":7074,"groups":7075,"oted":7076,"ndef":7077,"Repository":7078,"Ġquad":7079,"Ġpaths":7080,"forEach":7081,"Ġorbit":7082,"Pay":7083,"Delegate":7084,"Ġvisual":7085,"itional":7086,"ran":7087,"Ġrows":7088,"FS":7089,"tailed":7090,"orary":7091,"iency":7092,"maml":7093,"ĠBoolean":7094,"Ġstra":7095,"Ġlot":7096,"Ġbuf":7097,"builder":7098,"ymptot":7099,"Ġdenotes":7100,"century":7101,"Ġmatrices":7102,"$).":7103,"Simple":7104,"ifiers":7105,"Microsoft":7106,"Uri":7107,"TRUE":7108,"Ġrepresented":7109,"Ġclassification":7110,"tc":7111,"Ġradio":7112,"Ġattention":7113,"dp":7114,"merge":7115,"ifold":7116,"pic":7117,"pool":7118,"Pair":7119,"Ġtrain":7120,"ĠDirect":7121,"ĠExp":7122,"Off":7123,"Ġmodes":7124,"(/":7125,"Ġarticle":7126,"sime":7127,"Ġproduce":7128,"Ġclub":7129,")[":7130,"Ġlabels":7131,"ACT":7132,"Single":7133,"jQuery":7134,"Ġtowards":7135,"circle":7136,"Ġexecute":7137,"NavBarCell":7138,"Ġextend":7139,"notes":7140,"loaded":7141,"ĠConst":7142,"Ġpod":7143,"fix":7144,"\"],":7145,"yr":7146,"Visible":7147,"destroy":7148,"simeq":7149,"Ġcard":7150,"Ġreadonly":7151,"Ġduration":7152,"{\"":7153,"atalog":7154,"Ġcontrast":7155,"Ġsubset":7156,"Ġfactors":7157,"ĠĠĠĠĠĠĠĠĠĠĠĠĠĠĠĠĠĠĠĠĠĠĠĠĠĠĠĠ":7158,"Ġ$-":7159,"Ġignore":7160,"Ġapproaches":7161,"Errorf":7162,"Ġefficient":7163,"Region":7164,"Ġinvol":7165,"Ġproxy":7166,"Ġsignificantly":7167,"Ho":7168,"shal":7169,"Ġreceive":7170,"Mouse":7171,"eli":7172,"ynthe":7173,"IPT":7174,"ĉĠĠĠĠĠĠĠĠĠĠĠĠĠĠĠ":7175,"ĠCollege":7176,"Rec":7177,"Vertex":7178,"^{+":7179,"Ġintegral":7180,"Ġproducts":7181,"jango":7182,"Symfony":7183,"Ġslight":7184,"Texture":7185,"ĠFound":7186,"TIME":7187,"Scal":7188,"Enumer":7189,"Variable":7190,"Ġalthough":7191,"ĠMich":7192,"rypto":7193,"Depend":7194,"Ġdynamic":7195,".~(\\":7196,"fx":7197,"Ġspatial":7198,"Ġroute":7199,"lated":7200,"Ġreve":7201,"iverse":7202,"rase":7203,"ceptions":7204,"ĠRequest":7205,"Ġlat":7206,"Ġincreases":7207,"Ġpush":7208,"video":7209,"ĠRun":7210,"Ġthreshold":7211,"Ġoverall":7212,"Ġrecomm":7213,"ya":7214,"Comment":7215,"OB":7216,"ĠAg":7217,"Ġlargest":7218,"las":7219,"Native":7220,"Ġforeach":7221,"Ġ>>":7222,"MT":7223,"Ġexecution":7224,"Ġpool":7225,"Ġ{},":7226,"Ġsus":7227,"Ġgradient":7228,"NOT":7229,"clone":7230,"Ġinstances":7231,"Ġmenu":7232,">:":7233,"Ġste":7234,"two":7235,"ĠHash":7236,"Ġreset":7237,"Ġdesigned":7238,"ĠProject":7239,"provider":7240,"ajax":7241,"Ġfollowed":7242,"Ġmanager":7243,"Password":7244,"sheet":7245,"zy":7246,"}}^":7247,"duration":7248,"Ġactivity":7249,"pping":7250,"Ġoccur":7251,"ĠASS":7252,"ifndef":7253,"ĠIndex":7254,"Ġcharg":7255,"Shape":7256,"iforn":7257,"ĠPri":7258,"collapse":7259,"Background":7260,"untry":7261,"Ġlayout":7262,"ilib":7263,"orse":7264,"ĠBuild":7265,"vention":7266,"Ġintroduce":7267,"LECT":7268,"Ġgrowth":7269,"tk":7270,"rial":7271,"checked":7272,"CRE":7273,"Ġclu":7274,"Ġvalidation":7275,"utive":7276,"ĠEach":7277,"Ġformation":7278,"Character":7279,"original":7280,"Ġ'\\":7281,"Ñı":7282,"Ġtransformation":7283,"ENSE":7284,"seg":7285,"Ġobserver":7286,"Ġcurves":7287,"ĠSum":7288,"){\\":7289,">'":7290,"HER":7291,"Ġawait":7292,"ĠId":7293,"})$.":7294,"Domain":7295,"CESS":7296,"Sequence":7297,"Engine":7298,"icate":7299,"Ġyoung":7300,"Ġmoved":7301,"Ġfamil":7302,"Ġwaves":7303,"\\|_{":7304,"Ġnothing":7305,"required":7306,"aur":7307,")->":7308,")},":7309,"Ġvectors":7310,"ilitary":7311,"ĠStart":7312,"ĠSm":7313,"UES":7314,"Ġbul":7315,"detail":7316,"junit":7317,"nn":7318,"ogene":7319,"generated":7320,"WN":7321,"PER":7322,"className":7323,"Gen":7324,"Ġstable":7325,"[(":7326,"Ġadopt":7327,"Ġprecise":7328,"ĠPath":7329,"Ġwatch":7330,"ITION":7331,"Author":7332,"views":7333,"anti":7334,"American":7335,"ĠWAR":7336,"Ġ=\\":7337,"Ġimprove":7338,"Ġresolve":7339,"Ġdecision":7340,"INSERT":7341,"pkg":7342,"Ġthought":7343,"ĠMessage":7344,"Ġobserve":7345,"Ġreplaced":7346,"async":7347,"Ġcentury":7348,"(@":7349,"Ġappears":7350,"lands":7351,"NT":7352,"wild":7353,")}{\\":7354,"ĠMax":7355,"ĠBer":7356,"Ġprocessing":7357,"role":7358,"Find":7359,"Ġrates":7360,"uge":7361,"resp":7362,"words":7363,"Ġoptimization":7364,"FL":7365,"tri":7366,"DT":7367,"liance":7368,"ensed":7369,"helper":7370,"ĠCollection":7371,"Ġcursor":7372,"EC":7373,"ida":7374,"joint":7375,"Ġautomatically":7376,"clean":7377,"shared":7378,"Ġanimation":7379,">\"":7380,"ĠCour":7381,"Ġfeel":7382,"ĠGaussian":7383,"Children":7384,"Ġhistor":7385,"leton":7386,"tbody":7387,"ĠAc":7388,"ifornia":7389,"inet":7390,"Ġclaim":7391,"Ġimmediately":7392,"flu":7393,"riction":7394,"Ġruns":7395,"phone":7396,"mac":7397,"sequently":7398,"respon":7399,"OwnProperty":7400,"grad":7401,"jar":7402,"Ã¶":7403,"WR":7404,"Ġgeneration":7405,"Ġessential":7406,"Ġbirths":7407,"Ġsymmetric":7408,"ading":7409,"ĠXML":7410,"ĠPost":7411,"Ġofficial":7412,"endor":7413,"ĠAm":7414,"DEBUG":7415,"Ġdimensions":7416,")\\\\":7417,"ICE":7418,"Ġenum":7419,"imitive":7420,"Ġlayers":7421,"ctr":7422,"ĉĠĠĠĠĠĠĠĠ":7423,"Ġvalign":7424,"runtime":7425,"za":7426,"ĠFrench":7427,"bing":7428,"Ġwent":7429,"lood":7430,"Ġwriter":7431,"RR":7432,"eds":7433,"Ġgeometry":7434,"Ġanim":7435,"Ġhit":7436,"iteral":7437,"$$\\":7438,"Ġsquare":7439,"Gr":7440,"Mask":7441,"tests":7442,"platform":7443,"Ġprediction":7444,"Category":7445,"1997":7446,"ipp":7447,"Ġpressure":7448,"lis":7449,"Db":7450,"Product":7451,"found":7452,"Ġcast":7453,"stry":7454,"ye":7455,"Ġsingular":7456,"spirit":7457,"Ġmagnitude":7458,"Ġfoc":7459,"Ġrisk":7460,"related":7461,"}}^{":7462,"Ġ\"$":7463,"resize":7464,"ja":7465,"Ġdestroy":7466,"ĠAmerica":7467,"Ġvill":7468,"ĠResource":7469,"Ġeffort":7470,"ĠLong":7471,"ĠResearch":7472,"Ġestimates":7473,"Ġcalculate":7474,"ises":7475,"Ġ''":7476,"Ġmonths":7477,"Ġrelationship":7478,"glyph":7479,"Ġâ":7480,"ĠLandroid":7481,"rab":7482,"Newton":7483,"Ġgenerally":7484,"Ġmixed":7485,"trl":7486,"Observer":7487,"cknow":7488,"formance":7489,"ibly":7490,"icks":7491,"ummy":7492,"called":7493,"Ġyields":7494,"REQ":7495,"llegal":7496,"Ġauthors":7497,"Ġcells":7498,"ifically":7499,"rg":7500,"ĠHow":7501,"series":7502,"NV":7503,"Ġexistence":7504,"tained":7505,"vo":7506,"pu":7507,"Ġproto":7508,"brid":7509,"Word":7510,"Ġorient":7511,"NR":7512,"ctu":7513,"ĠDem":7514,"('/":7515,"ĠWhat":7516,"REG":7517,"~$\\":7518,"ĠResult":7519,"Arr":7520,"Ġconvergence":7521,"pair":7522,"Ġguarant":7523,"DP":7524,"typen":7525,"Ġmeasurement":7526,"selves":7527,"ĠCenter":7528,"Ġinteractions":7529,"Ġunderlying":7530,"Ġmanagement":7531,"xs":7532,"Ġ=========":7533,")$-":7534,"Ġflat":7535,"Ġut":7536,"Ġrecently":7537,"ipe":7538,"uber":7539,"Ġwebsite":7540,"Ġprefer":7541,"120":7542,"Ġexhib":7543,"Flag":7544,"Ro":7545,"trim":7546,"van":7547,"ĠMem":7548,"ĠTw":7549,"ova":7550,"ãĢ":7551,"Ġgrant":7552,"asi":7553,"Sort":7554,"typename":7555,"Ġconclude":7556,"IVE":7557,"ĠImage":7558,"Ġlost":7559,"Ġnature":7560,"animation":7561,"socket":7562,"MODULE":7563,"Ġreach":7564,"INFO":7565,"corded":7566,"Shared":7567,"iral":7568,"ĠASSERT":7569,"Cred":7570,"Ġvs":7571,"('#":7572,"Div":7573,"Ġjoin":7574,"icode":7575,"well":7576,"Total":7577,"Ġsil":7578,"resources":7579,"prov":7580,"Ġtrace":7581,"ĠLOG":7582,"sive":7583,"Ġstored":7584,"ko":7585,"GC":7586,"fmt":7587,"bt":7588,"Ġever":7589,"hern":7590,"mann":7591,"Ġacqu":7592,"icture":7593,"visible":7594,"library":7595,"Axis":7596,"validate":7597,"$^{-":7598,"ĠIndia":7599,"Ġassumed":7600,"ĠTR":7601,"fire":7602,"ĠMake":7603,"Ġtouch":7604,"ĠRepublic":7605,"%,":7606,"gi":7607,"Ġloaded":7608,"150":7609,"username":7610,"ĠVector":7611,"Ġimplemented":7612,"Services":7613,"Ġhot":7614,"upload":7615,"month":7616,"login":7617,"IZE":7618,"SSL":7619,"Ġreading":7620,"Ġtoday":7621,"1996":7622,"{%":7623,"Env":7624,"mapsto":7625,"ech":7626,"hom":7627,"COMP":7628,"ILE":7629,"Ġcombination":7630,"ette":7631,"optional":7632,"ĠEar":7633,"Ġcreating":7634,"setup":7635,"Ġten":7636,"Ġrotation":7637,"wt":7638,"sidebar":7639,"cccc":7640,"odot":7641,"Endpoint":7642,"ĠUsing":7643,"Ġdependence":7644,"Methods":7645,"}&":7646,"Ġcmd":7647,"()</":7648,"ĠHttp":7649,"Ġeffic":7650,"Fil":7651,"Ġnews":7652,"Ġquite":7653,"zip":7654,"Ġexit":7655,"La":7656,"Thus":7657,"IV":7658,"ĠMat":7659,",$":7660,"bot":7661,"react":7662,"Theorem":7663,"createElement":7664,"displaystyle":7665,"zure":7666,"ĠValid":7667,"Ġball":7668,"Ġgets":7669,"vised":7670,"ĠAccording":7671,"\"].":7672,"ĠBlack":7673,"NA":7674,"ĠMicrosoft":7675,"Ġlogger":7676,"Ġ&=&":7677,"tor":7678,"Ġidentify":7679,"Support":7680,"Html":7681,"Ġchalleng":7682,"ĠBel":7683,"Ġserved":7684,"Ġmodules":7685,"proposition":7686,"Ġmeaning":7687,"These":7688,"burg":7689,"Ġprev":7690,"iring":7691,"ani":7692,"ORTED":7693,"omorphic":7694,"IGHT":7695,"ingu":7696,"Play":7697,"Ġeng":7698,"ollowing":7699,"oph":7700,"objects":7701,"Ġul":7702,"services":7703,":=":7704,"ĠINTO":7705,"sn":7706,"latform":7707,"esian":7708,"Ġearlier":7709,"veloper":7710,"uplic":7711,"lax":7712,"ĠNor":7713,"enge":7714,"Ġidentified":7715,"Ġgap":7716,"Ġoccurs":7717,"Ġfem":7718,"springframework":7719,"maven":7720,"akes":7721,"ĠANY":7722,"getElement":7723,"scill":7724,"selection":7725,"RES":7726,"Mer":7727,"Ġcancel":7728,"Ġdistinct":7729,"Ġsigned":7730,"Ġ\"\",":7731,"orge":7732,"Ġson":7733,"cref":7734,"Begin":7735,"oked":7736,"canvas":7737,"High":7738,"fc":7739,"WORD":7740,"ael":7741,"Ġinternational":7742,"users":7743,"Ġcoordinate":7744,"Ġtechniques":7745,"$;":7746,"shall":7747,"ĠNAME":7748,"DateTime":7749,"()))":7750,"itz":7751,"dig":7752,"Ġnor":7753,"abe":7754,"istr":7755,"Ġspectra":7756,"article":7757,"single":7758,"'(":7759,"ĠÎ":7760,"Pri":7761,"ĠInc":7762,"Ġenh":7763,"variance":7764,"defer":7765,"Ġsummary":7766,"ilities":7767,"<!":7768,"ĠDel":7769,"Ġnotice":7770,"ENTRY":7771,"trace":7772,"DEFAULT":7773,"factory":7774,"Ġpractice":7775,"ĠChampion":7776,"Ġcli":7777,"eth":7778,"Ġchunk":7779,"TT":7780,"Ġnorth":7781,"Ġevidence":7782,"ĠExec":7783,"ĠDon":7784,"Ġschema":7785,"ĠMult":7786,"igration":7787,"uming":7788,"\\{\\":7789,"Ġbehind":7790,"Ġpure":7791,"vement":7792,"__)":7793,"Ġmechanism":7794,"Ign":7795,"Ġdisabled":7796,"Ġdesired":7797,"Ġnavigation":7798,"itions":7799,"Ġhighlight":7800,"1990":7801,"Ġseconds":7802,"Ġbehavi":7803,"Ġtalk":7804,"Ġdriver":7805,"åı":7806,"Ġmolec":7807,"Area":7808,"Generated":7809,"Ġindicate":7810,"Ġnotation":7811,"algorithm":7812,"mix":7813,"vc":7814,"Ġtx":7815,"ĠCalifornia":7816,"Stats":7817,"=\"${":7818,"Ġtreatment":7819,"clip":7820,"Ids":7821,"route":7822,"warning":7823,"Ġconstants":7824,"Player":7825,"Ġhours":7826,"jac":7827,"Ġspecify":7828,"diag":7829,"extension":7830,"pull":7831,"Ġborn":7832,"ĠJS":7833,"ĠAssembly":7834,"Ġfriend":7835,"ĠRemove":7836,"spaces":7837,"icator":7838,"PH":7839,"Ġanswer":7840,"seconds":7841,"Ġlove":7842,"Ġund":7843,"STRING":7844,"DM":7845,"issues":7846,"FUN":7847,"Other":7848,"ivil":7849,"ĠBay":7850,"Ġstand":7851,"ĠScience":7852,"ulator":7853,"Binary":7854,"parator":7855,"ĠSQL":7856,"Ġdev":7857,"Ġparty":7858,"ville":7859,"anks":7860,"Ġanalog":7861,"Clear":7862,"ĠGerman":7863,"VALID":7864,"arter":7865,"****************************************************************":7866,"amaz":7867,"Ġveh":7868,"\"/":7869,"Ġhighest":7870,"=.":7871,"Video":7872,"phan":7873,"Language":7874,"compiler":7875,"poly":7876,"Constructor":7877,"peated":7878,"sync":7879,"Ġbeginning":7880,"Ġstraight":7881,"release":7882,"cus":7883,"ĠMag":7884,"ees":7885,"plus":7886,"ĠRel":7887,".<":7888,"Tx":7889,"Ġdetailed":7890,"ĠIndian":7891,"essional":7892,"Ġdro":7893,"Ġinvolved":7894,"inherit":7895,"Some":7896,"PA":7897,"mazon":7898,"POST":7899,"ĠWindows":7900,"ĠJust":7901,"Span":7902,"Ġtax":7903,"erry":7904,"addClass":7905,"Ġ([":7906,"urations":7907,"/***/":7908,"Sql":7909,"Fragment":7910,"ĠHol":7911,"Append":7912,"Flow":7913,"Ġthroughout":7914,"andra":7915,"mma":7916,"Ġcompletely":7917,"cluded":7918,"ĠEuropean":7919,"compile":7920,"Ġconfigure":7921,"seudo":7922,"Ġdistrict":7923,"RC":7924,"isted":7925,"driver":7926,"rium":7927,"Ġboost":7928,"ĠVALUES":7929,"INTER":7930,"plan":7931,"Ġvary":7932,"aled":7933,"Ġ```":7934,"Ġcontributions":7935,"Ġexpand":7936,"swarm":7937,"simple":7938,"olar":7939,"Move":7940,"ruby":7941,"extern":7942,"mn":7943,"Ġstellar":7944,"ĠĠĠĠĠĠĠĠĠĠĠĠĠĠĠĠĊ":7945,"Ġopacity":7946,"ateway":7947,"ih":7948,"stat":7949,"ĠUN":7950,"illing":7951,"Ġcharset":7952,"ĠSche":7953,"periment":7954,"urred":7955,"Clo":7956,"Ġ{$":7957,"Ġpriv":7958,"ancial":7959,"ĠFROM":7960,"Ġseparate":7961,"ership":7962,"Ġdrag":7963,"Ġpolitical":7964,"Ġseems":7965,"assembly":7966,"FORM":7967,"Ġagreement":7968,"Public":7969,"rapped":7970,"Members":7971,"ĠDistrict":7972,"uous":7973,"Ġowner":7974,".\",":7975,"irmed":7976,"Ġremote":7977,"Ġannounced":7978,"Ġjoint":7979,"ĠDO":7980,"Ġcontained":7981,"Ġjs":7982,"Rev":7983,"ĠArrayList":7984,"Fin":7985,"Required":7986,"Ġparallel":7987,"ĠHamiltonian":7988,"Ġ..":7989,"oss":7990,"ĠCSS":7991,"Ġadding":7992,"Ġcomputation":7993,"Admin":7994,"Ġsaf":7995,"Drag":7996,"Hz":7997,"|_{":7998,"Ġweights":7999,"Ġlicense":8000,"Ð¼":8001,"Ġmouse":8002,"dc":8003,"Ġinject":8004,"Ġliterature":8005,"compare":8006,"navList":8007,"Returns":8008,"Ġdatasets":8009,"Ġbin":8010,"ĠBOOST":8011,"Example":8012,"illed":8013,"Summary":8014,"Ġwest":8015,"Ġmetal":8016,"Ġbg":8017,"hold":8018,"nother":8019,"Ġgreen":8020,"Ġbey":8021,"ĠInput":8022,"Ġformal":8023,"Ġconcern":8024,"atomic":8025,"]))":8026,"Ġasymptot":8027,"Ġ'.":8028,"west":8029,"Ġexam":8030,"ipher":8031,"Ġmaster":8032,"Basic":8033,"Ġevaluation":8034,"Ġevaluate":8035,"Ġant":8036,"aret":8037,"Ġdevices":8038,"?>":8039,"Google":8040,"once":8041,"ago":8042,"Ġdiagram":8043,"resentation":8044,"TA":8045,"PUT":8046,"Named":8047,"amental":8048,"Ġpositions":8049,"player":8050,"Ġpurpose":8051,"rect":8052,"******":8053,"Ġadjust":8054,"Ġbeyond":8055,"bp":8056,"Renderer":8057,"Ġstri":8058,"-(":8059,"NSString":8060,"Skip":8061,"emon":8062,"Ġnight":8063,"DEF":8064,"Ġdoing":8065,"1995":8066,"tsd":8067,"ĠOnly":8068,"flex":8069,"ArgumentException":8070,"wildfly":8071,"Ġincreased":8072,"Ġoscill":8073,"Ġdevi":8074,"Make":8075,"owner":8076,"ĠĠĠĠĠĠĠĠĠĠĠĠĠĠĠĠĠĠĠĠĠĠĠĠĠĠĠĠĠĠ":8077,"assign":8078,"Ġminimal":8079,"ura":8080,"elements":8081,"Ġ@\"":8082,"ĠAng":8083,"Ġinfinite":8084,"ĠNetwork":8085,"BS":8086,"rics":8087,"ackson":8088,"Ġroom":8089,"!!":8090,"displayName":8091,"ito":8092,"changed":8093,"Ġexplicitly":8094,"ĠSets":8095,"ĠMer":8096,":#":8097,"mob":8098,"rier":8099,"ĠCup":8100,"supported":8101,"ĠAppend":8102,"Ġtypedef":8103,"})$,":8104,"ande":8105,"mag":8106,"While":8107,"METH":8108,"Ġvalidate":8109,"mpt":8110,"ĉĠĠ":8111,"Ġepisode":8112,"ĠElement":8113,")+\\":8114,"Ġconstructed":8115,"watch":8116,"Ġsituation":8117,"FNGL":8118,"yy":8119,"Ġdise":8120,"ilibrium":8121,"Wait":8122,"getValue":8123,"achment":8124,"}}$,":8125,"Ġgeneric":8126,"colLast":8127,"herited":8128,"Ġ'',":8129,"Ġbatch":8130,"Ġtrip":8131,"Ġversions":8132,"quote":8133,"Ġpersonal":8134,":}":8135,"embed":8136,"ĠPaul":8137,"Ġlooking":8138,"iversal":8139,"Newtonsoft":8140,"Ġhighly":8141,"ĠAction":8142,"Ġwall":8143,"ĠFoundation":8144,"ji":8145,"Fl":8146,"ĠPresident":8147,"phys":8148,"Ġ=======":8149,"Ġchem":8150,"Ġindices":8151,"CG":8152,"Ġenv":8153,"Ġip":8154,"Ġ\"\";":8155,"Ġcalling":8156,"Ġdiscussion":8157,"$~":8158,"Ġoptical":8159,"radio":8160,"thrift":8161,"\"><!--":8162,"ĠColor":8163,"strument":8164,"How":8165,"vertical":8166,"bg":8167,"Ġprobably":8168,"Car":8169,"laim":8170,"Ġtechnology":8171,"sa":8172,"ĠPRO":8173,"rian":8174,"elastic":8175,"Ġcontents":8176,"useum":8177,"ĠDiv":8178,"Short":8179,"Ġmerge":8180,"erved":8181,"MI":8182,"Ġdetected":8183,"apis":8184,";\"":8185,"usiness":8186,"Ġsupports":8187,"lementation":8188,"Tags":8189,"arnings":8190,"itivity":8191,"Ġusage":8192,"Ġcandidate":8193,"Ġmac":8194,"Ġgraphs":8195,"Ġdidn":8196,"Ġcompanies":8197,"Observable":8198,"ĠStreet":8199,"ĠTemp":8200,"}}$.":8201,"Bean":8202,"colFirst":8203,"Operator":8204,"drag":8205,"Ġfood":8206,"Rows":8207,"ki":8208,"ÑĮ":8209,"Ġcombined":8210,"']);":8211,"vol":8212,"ĠGreen":8213,"loading":8214,"ĠNews":8215,"Ġmentioned":8216,"duc":8217,"ĠEngland":8218,"Ġonto":8219,"ĠMal":8220,"Ġaudio":8221,"scss":8222,"origin":8223,"#{":8224,"bose":8225,"corpor":8226,"(\"/":8227,"ĠAnt":8228,"wood":8229,"BAR":8230,"sig":8231,"ky":8232,"Objects":8233,"disable":8234,"ationToken":8235,"lations":8236,"arc":8237,"ĠPromise":8238,"ctrine":8239,"Ġnp":8240,"ĠAre":8241,"Validation":8242,"wp":8243,"Ġsouth":8244,"paragraph":8245,"DATA":8246,"Ġtypically":8247,"Ġtrained":8248,"highlight":8249,"']['":8250,"[-":8251,"osing":8252,"Ġcosm":8253,"ĠMac":8254,"Ġ$|\\":8255,"Pass":8256,"Ġchannels":8257,"allclasses":8258,"amazon":8259,"ĠassertThat":8260,"blank":8261,"Ġdepending":8262,"Gu":8263,"ensus":8264,"brace":8265,"ĠTV":8266,"ANG":8267,"ymmetric":8268,"Ġmorph":8269,"Ġdied":8270,"Ġformed":8271,"lower":8272,"Ġinstalled":8273,"Ġsynchron":8274,"Ġlack":8275,"apos":8276,"Ġcomplexity":8277,"ĠRiver":8278,"Ġaspect":8279,"rams":8280,"Ġinputs":8281,"ĠDocument":8282,"clusive":8283,"expression":8284,"ĠOff":8285,"BB":8286,"Transport":8287,"(.":8288,"Ġ?>":8289,"Ġtravel":8290,"oser":8291,"SK":8292,"Ġarchitecture":8293,"ELD":8294,"gers":8295,"Ġextreme":8296,"icensed":8297,"Ð´":8298,"}({\\":8299,"Ġdocumentation":8300,"ĠCanada":8301,"ĠBlock":8302,"Ġability":8303,"lan":8304,"ming":8305,"Ġrecords":8306,"HS":8307,"Ġfragment":8308,"Ġbundle":8309,"seq":8310,"Ġsql":8311,"]}":8312,"Cloud":8313,"Ġvariety":8314,"Ġways":8315,"Free":8316,"ĠWrite":8317,"}{|":8318,"ĠFinally":8319,"ĠBro":8320,"ĠHealth":8321,"001":8322,"ĠGovern":8323,"ĠOptional":8324,"Ġadvant":8325,"Ġthing":8326,"ĠWIT":8327,"CTYPE":8328,"Help":8329,"Introduction":8330,"Ġslightly":8331,"ellij":8332,"Ġprojection":8333,"TestCase":8334,"Ġconcent":8335,"Ġhypot":8336,"ĠCreates":8337,"Ġfinished":8338,"_);":8339,"Ġdifferential":8340,"ĠPal":8341,"ĠChina":8342,"Ġmetrics":8343,")-\\":8344,"accept":8345,"Ġscaling":8346,"bd":8347,"Ġleave":8348,"Ġshowed":8349,"Normal":8350,"intellij":8351,"ĉčĊ":8352,"('./":8353,"fol":8354,"correct":8355,"Ġrepresenting":8356,"policy":8357,"tensor":8358,"Ġcalculation":8359,"Ġcycle":8360,"Ġready":8361,"Ġexchange":8362,"\\)":8363,"CLASS":8364,"]+":8365,"ĠProv":8366,"nov":8367,"eness":8368,"ĠKe":8369,"Ġemer":8370,"Ð²":8371,"/_":8372,"Join":8373,"Ġfunctional":8374,"MR":8375,"ĠConvert":8376,"acket":8377,"ĠLine":8378,"bc":8379,"ĠAustralia":8380,"REE":8381,"istence":8382,"Ġisn":8383,"omas":8384,"har":8385,"uest":8386,"ĠSen":8387,"touch":8388,"tee":8389,"unce":8390,"Ġtelevision":8391,"scape":8392,"Ġgetting":8393,"rote":8394,"Static":8395,"Ġnullptr":8396,"Ġconvex":8397,"Ġattempt":8398,"operation":8399,":`":8400,"Ġ'\"":8401,"Require":8402,"verter":8403,"Cor":8404,"icies":8405,"Ġtools":8406,"Ġquark":8407,"Annotation":8408,"Ġmodern":8409,"lymp":8410,"Ġreduction":8411,"Ġtd":8412,"ĠSD":8413,"IDTH":8414,"React":8415,"ĠDepartment":8416,"rev":8417,"Ġpen":8418,"Ġscenario":8419,"concat":8420,"velopment":8421,"$),":8422,"rank":8423,"Ġinverse":8424,"DIS":8425,"ATTR":8426,"Ġmeasures":8427,"ologies":8428,"ORY":8429,"anese":8430,"Ġvo":8431,"ĠCommun":8432,"ĠBig":8433,"Ġtermin":8434,"Ġscattering":8435,"isEmpty":8436,"Serializer":8437,"Ġruntime":8438,"Ġring":8439,"Users":8440,"Ġbeam":8441,"ĠFour":8442,"np":8443,"roke":8444,"ĠAny":8445,"Ġ-=":8446,"Ġsections":8447,"Ġ{\"":8448,"convert":8449,"Ġgalaxy":8450,"Ã§":8451,"Ġvan":8452,"ĠStud":8453,"functions":8454,"ĠDavid":8455,"python":8456,"Notification":8457,"Ġcapacity":8458,"QU":8459,"Complete":8460,"roy":8461,"Pub":8462,"Finally":8463,"dere":8464,"ĠTechn":8465,"Ġminutes":8466,"\"},":8467,"ĠVis":8468,"otes":8469,"Ġflex":8470,"Report":8471,"Ġdifferences":8472,"Ñĭ":8473,"flat":8474,"Ġrelatively":8475,"Ġodd":8476,"Ġcop":8477,"structions":8478,"world":8479,"Ġelectric":8480,"cong":8481,"Ġreferences":8482,"Ġharmon":8483,"ternet":8484,"MODE":8485,"oting":8486,"Ġaggreg":8487,"1992":8488,"Ġtraject":8489,"Ġclusters":8490,"Ġdependencies":8491,"Ġworked":8492,"Enter":8493,"ĠExample":8494,"Allow":8495,"Ġcalculations":8496,"Ġtags":8497,"ĠCouncil":8498,"Ġ\"%":8499,"icip":8500,"Ġindustry":8501,"Ġwind":8502,"Binding":8503,"Ġneighbor":8504,"1994":8505,"Drop":8506,"Ġreson":8507,"METHOD":8508,"Ġcomputational":8509,"Ġassigned":8510,"Ġkm":8511,"ĠArch":8512,"println":8513,"apes":8514,"CB":8515,"Ġprovider":8516,"ĠTop":8517,"Ġ[\\":8518,"iece":8519,"Ġax":8520,"ĠGra":8521,"Ġobservation":8522,"Ġachieve":8523,"Pers":8524,"prot":8525,"mitter":8526,"ĠProcess":8527,"Save":8528,"Ġuncertainty":8529,"signature":8530,"Ġapplicable":8531,"Ġeast":8532,"mous":8533,"DOCTYPE":8534,"Ġanything":8535,"ryption":8536,"variable":8537,"Execution":8538,"Diagnost":8539,"Dom":8540,"Ġresp":8541,"ssl":8542,"uages":8543,"USER":8544,"Ġquestions":8545,"))$":8546,"kin":8547,"contain":8548,"Ġlif":8549,"hol":8550,"Compat":8551,"orest":8552,"Ġreached":8553,"oton":8554,"ĠParameter":8555,"ĠProperty":8556,"ita":8557,")}}":8558,"Nullable":8559,"irror":8560,"Ġstrongly":8561,"report":8562,"ĠFind":8563,"NUM":8564,"database":8565,"hbar":8566,"/.":8567,"Ġabsor":8568,"Ġdam":8569,"Screen":8570,"mass":8571,"ĠCommand":8572,"Ġ){":8573,"Ġprice":8574,"Ġsolve":8575,"Arguments":8576,"kes":8577,"ATCH":8578,"ups":8579,"anned":8580,"Strategy":8581,"ski":8582,"dk":8583,"etween":8584,"integ":8585,"Home":8586,"}$)":8587,"extra":8588,"Ġfrag":8589,"Driver":8590,"ĠLeg":8591,"Focus":8592,"Ġneutr":8593,"»¿":8594,"Ġpages":8595,"=\"$":8596,"Ġpull":8597,"Ġcampaign":8598,"ATED":8599,"UD":8600,"ĠPoint":8601,"dispatch":8602,"Ġsizes":8603,"...</":8604,":'":8605,"power":8606,"Environment":8607,"Ġfather":8608,"ï»¿":8609,"avel":8610,"Therefore":8611,"riends":8612,"Ġmoving":8613,"Ġshowing":8614,"gon":8615,"available":8616,"Ġrobust":8617,"Ġapproximately":8618,"amo":8619,",'":8620,"batch":8621,"cluding":8622,"igr":8623,"pointer":8624,"Ġreli":8625,"Ġcoefficient":8626,"Ġopportun":8627,"Failure":8628,"ĠSoftware":8629,"Ġdict":8630,"Ġconnections":8631,"alert":8632,"Cursor":8633,"Ġmasses":8634,"promise":8635,"ĠApache":8636,"ĠLocal":8637,"pb":8638,"reedom":8639,"180":8640,"Ġopened":8641,"Ġthick":8642,"Ġlisted":8643,"Ġperfect":8644,"Ġsuccessfully":8645,";)":8646,"ederal":8647,"Folder":8648,"Ġtrade":8649,"Bool":8650,"ander":8651,"Ġregime":8652,"ĠLaw":8653,"ogeneous":8654,"catch":8655,"ĠUK":8656,"Ġmoney":8657,"Timer":8658,"isset":8659,"Errors":8660,"verb":8661,"Install":8662,"sb":8663,"emit":8664,"Ġtor":8665,"ĠAut":8666,"basic":8667,"Ġneural":8668,"ĠSecond":8669,"fold":8670,"Ġcomputer":8671,"cfg":8672,"Counter":8673,"Ġstrength":8674,"CALL":8675,"MIN":8676,"ðŁ":8677,"SCR":8678,"Ġarriv":8679,"Ġfi":8680,"hasOwnProperty":8681,"'ll":8682,"usform":8683,"Acc":8684,"rece":8685,"numerusform":8686,"Ġcb":8687,"Ġhon":8688,"Raw":8689,"=\\\"":8690,"osity":8691,"Ġloading":8692,"Ġsafe":8693,"ĠclassName":8694,"wall":8695,"Ġlimits":8696,"BIT":8697,"Ġanti":8698,"Ġsys":8699,"Ġbring":8700,"servation":8701,"Ġvac":8702,"Ġwidget":8703,"Ġforces":8704,"Ġcaused":8705,"ĠDay":8706,"erial":8707,"ĠBra":8708,"Ġwrong":8709,"Ġeducation":8710,"ĠWil":8711,"memory":8712,"ANCE":8713,"istics":8714,"Ġexcit":8715,")}_{":8716,"ggreg":8717,"~~~~~~~~":8718,"Ġcoq":8719,"dfrac":8720,"Ġgradu":8721,"mal":8722,"Ang":8723,"deep":8724,"such":8725,"_-":8726,"ufact":8727,"ĠDat":8728,"EEEE":8729,"Ġefficiency":8730,"Ġinduced":8731,"Ġgoes":8732,"Ġtheoretical":8733,"Ġpaint":8734,"aver":8735,")--":8736,"front":8737,"Ġdiscover":8738,"RAY":8739,"NotFound":8740,"asy":8741,"Stop":8742,"Ġcreation":8743,"game":8744,"Library":8745,"ubble":8746,"ĠSource":8747,"cancel":8748,"/*!":8749,"abric":8750,"Ġrap":8751,"ĠNet":8752,"Unknown":8753,";\">":8754,"ĠÐ¿":8755,"Ġparticularly":8756,"Messages":8757,"Ġ}}":8758,"Two":8759,"ĠEmp":8760,"Ġclone":8761,"Ġ'%":8762,"Ġexc":8763,"Ġphen":8764,"pear":8765,"ĠJames":8766,"Ġexpressed":8767,"assertTrue":8768,"tf":8769,"ĠInstitute":8770,"Ġiteration":8771,"Ġproport":8772,"IOException":8773,"()),":8774,"Ġmodify":8775,"Ġproved":8776,"methods":8777,"cred":8778,"FFER":8779,"Ġche":8780,"ÐµÐ½":8781,"Ġdiscrete":8782,"Ġalternative":8783,"Ġouter":8784,"))\\":8785,"anchor":8786,"Ġsoon":8787,"ĠAward":8788,"umptions":8789,"ycle":8790,"ancell":8791,"lesssim":8792,"/{":8793,"ĠSuper":8794,"oration":8795,"CONT":8796,"Ġteams":8797,"ĠMor":8798,"omite":8799,"ĠPub":8800,"Ġdenoted":8801,"Ġ\\\"":8802,"Cur":8803,"Ġmd":8804,"ANT":8805,"Ġscales":8806,"Ġdecomposition":8807,"vature":8808,"SELECT":8809,"åĪ":8810,"Ġreserved":8811,"what":8812,"ĠShow":8813,"cdn":8814,"ĠBack":8815,"onymous":8816,"sat":8817,"But":8818,"ĠBit":8819,"Ġacceler":8820,"Ġestimation":8821,"Ġheavy":8822,"Ġsequences":8823,"navigation":8824,"Ġsimpl":8825,"Ġliving":8826,"DR":8827,"ashington":8828,"Ġsoft":8829,"SG":8830,"People":8831,"Ġinterpret":8832,"goto":8833,"Constant":8834,">)":8835,"tikzpicture":8836,"Ġrecover":8837,"ository":8838,"GER":8839,"Ġscene":8840,"ĠFrance":8841,"general":8842,"aming":8843,"encode":8844,"Audio":8845,"constant":8846,"Edge":8847,"Ġexplain":8848,"mutable":8849,"exit":8850,"interval":8851,"BPACK":8852,"Ġsn":8853,"abc":8854,"Ġpatients":8855,"ancer":8856,"Ġplaying":8857,"Ġstarts":8858,"ĠClient":8859,"istog":8860,"Ġcoming":8861,"ĠWARRAN":8862,"InputStream":8863,"ĠDet":8864,"ierarchy":8865,"Email":8866,"ĠRad":8867,"imed":8868,"omitempty":8869,"Same":8870,"Ġclearly":8871,"Validator":8872,"ignore":8873,"Ġpatterns":8874,"Ġremark":8875,"ilarly":8876,"Batch":8877,"005":8878,"cli":8879,"allery":8880,"Ġstatistics":8881,"ĠCEL":8882,"ONG":8883,"Ġvict":8884,"Ġcm":8885,"cknowled":8886,"Ġconsidering":8887,"repeat":8888,"ĠRich":8889,"wd":8890,"Spe":8891,"agent":8892,"Person":8893,"xhtml":8894,"Bal":8895,"Ġtypical":8896,"ĠAS":8897,"$:":8898,"ato":8899,"quant":8900,"download":8901,"Ġdestination":8902,"decor":8903,"Ġdot":8904,"isters":8905,"Ġentropy":8906,"urable":8907,"Program":8908,"anging":8909,"lector":8910,"facebook":8911,"Ġsync":8912,"LOC":8913,"inese":8914,"relative":8915,"tics":8916,"Theme":8917,"Points":8918,"blob":8919,"Ġener":8920,"250":8921,"Ġcommunication":8922,"Rate":8923,"eval":8924,"thern":8925,"Ġboard":8926,"AF":8927,"}{(":8928,"outer":8929,"commit":8930,"Signature":8931,"!\\":8932,"Ġcamera":8933,"phase":8934,"Ġachieved":8935,"Ġcru":8936,"Wallet":8937,"ered":8938,"RPC":8939,"Ġencode":8940,"pod":8941,"1980":8942,":@\"":8943,"LETE":8944,"Ġwrote":8945,"EEEEFF":8946,"Ġ\\(\\":8947,"lications":8948,"ĠFurthermore":8949,"125":8950,"Ġsqu":8951,"subject":8952,"Day":8953,"zen":8954,"Ġrace":8955,"sem":8956,"aste":8957,"sey":8958,"Ġconven":8959,"ĠParty":8960,"Ġthermal":8961,"Warning":8962,"Ġnucle":8963,"Ã³n":8964,"CM":8965,"ishes":8966,"ĠLang":8967,"Ġideal":8968,"Ġrecorded":8969,"Ġvillage":8970,"Cmd":8971,"TF":8972,"EST":8973,"tiny":8974,"1993":8975,"Ġion":8976,"Segment":8977,"110":8978,"Ġlatest":8979,"PHP":8980,"ĠCommon":8981,"license":8982,"Ġhydro":8983,"ĠPage":8984,"Ġtro":8985,"Ġfine":8986,"submit":8987,"itation":8988,"Sample":8989,"ocaml":8990,"ĠLink":8991,"organ":8992,"mk":8993,"ĠĠĠĠĠĠĠĠĠĠĠĠĠĠĠĠĠĠĠĠĠĠĠĠĠĠĠĠĠĠĠĠĠ":8994,"ĠMart":8995,"Ġsatisfying":8996,"native":8997,"LOW":8998,"Ġ\".":8999,"dereq":9000,"Ġroad":9001,"Ġmale":9002,"Ġsb":9003,"Ġunion":9004,"ĠAssociation":9005,"Ġiterator":9006,"ĠOf":9007,"reader":9008,"Ġoccup":9009,"pres":9010,"Ġintegration":9011,"tfrac":9012,"=[":9013,"Phys":9014,"^*$":9015,"ĠEND":9016,"Ġproviding":9017,"Ġdirected":9018,"Ġcountries":9019,"Ġbench":9020,"Ġfluctu":9021,"havior":9022,"duled":9023,"WAR":9024,"Throw":9025,"Ġhole":9026,"MAP":9027,"contents":9028,"Ġplaced":9029,"Many":9030,"Ġconversion":9031,"Ġenumer":9032,"Ġrecall":9033,"fake":9034,"zh":9035,"square":9036,"800":9037,"Ġsampling":9038,"ASE":9039,"Ġinfluence":9040,"VAR":9041,"Ġnormalized":9042,"Ġdialog":9043,"vee":9044,"Ġsemi":9045,"Ġdemand":9046,"ĠMock":9047,"jet":9048,"writer":9049,"Ġcomposition":9050,"\\}$.":9051,"Ġresid":9052,"constraint":9053,"vertex":9054,"ĠChurch":9055,"Ġpermissions":9056,"urst":9057,"Ġrecon":9058,"/\"":9059,"figures":9060,"Ġpayload":9061,"ĠSur":9062,"clusions":9063,"phere":9064,"slash":9065,"Convert":9066,"/(":9067,"Ġdepart":9068,"Ġidentifier":9069,"Ġmaxim":9070,"unct":9071,"ultural":9072,"dicate":9073,"outhern":9074,"Ġamb":9075,"StyleID":9076,"ĠChe":9077,"rey":9078,"ĠLie":9079,"oking":9080,"ĠAlthough":9081,"inem":9082,"Ġstated":9083,"abbr":9084,"}})":9085,"Ġendpoint":9086,"Ġisol":9087,"Zone":9088,"volution":9089,"Ġeight":9090,"gies":9091,"Ġgenerator":9092,"getElementById":9093,"Ġviews":9094,"ĠSM":9095,"Ġgain":9096,"Game":9097,"Ġembedding":9098,"ĠMain":9099,"ASSERT":9100,"themes":9101,"ĠCH":9102,"uffers":9103,"ĠZe":9104,"Ġ'-":9105,"ĠSE":9106,"Ġprecision":9107,"ĠLL":9108,"fp":9109,"room":9110,"tended":9111,"000000":9112,"ĉĉĉĉĉĉĉĉĉĉ":9113,"direction":9114,"ĠOp":9115,"Loop":9116,"Ġcanvas":9117,"integer":9118,"Ġstrateg":9119,"specific":9120,"poses":9121,"ĠHall":9122,"CHAR":9123,"calendar":9124,"'].":9125,"reek":9126,"Ġfair":9127,"Ġdelta":9128,"pective":9129,"cogn":9130,"fully":9131,"going":9132,"elect":9133,"ager":9134,"delay":9135,"TL":9136,"ĠRoman":9137,"ĠMedia":9138,"Ġ$_":9139,"Ġsecret":9140,"have":9141,"Ġapplying":9142,">;":9143,"Ġspread":9144,"Ġbinding":9145,"toBe":9146,"Ġinitialize":9147,"&=&":9148,"bmatrix":9149,"NavBarFont":9150,"Ġlemma":9151,"Should":9152,"cursor":9153,"Ġthemselves":9154,"Ġfundamental":9155,"Ġimg":9156,"ĠWilliam":9157,"Ġrequested":9158,"Ġmind":9159,"ĠUnion":9160,"isl":9161,"Ġcomments":9162,"IAL":9163,"Ġsocket":9164,"Ġfoo":9165,"placement":9166,"Ġfinish":9167,"hl":9168,"adian":9169,"Canvas":9170,"Ġdegrees":9171,",\\\\":9172,"pat":9173,"overview":9174,"ĠHig":9175,"sphere":9176,"$};":9177,"(['":9178,"Ġeverything":9179,"Resolver":9180,"Ġoffice":9181,"deprecated":9182,"Contents":9183,"Usage":9184,"Ġheart":9185,"ĠPat":9186,"heel":9187,"Ġtail":9188,"messages":9189,"ĠCustom":9190,"Ġprojects":9191,"Ġdu":9192,"Real":9193,"WEBPACK":9194,"Ġtokens":9195,"Cast":9196,"ORDER":9197,"Ġbrief":9198,"Under":9199,"apers":9200,"spin":9201,"Ġoverflow":9202,"ongo":9203,")})":9204,"Ġtranslation":9205,"coordinate":9206,"Processor":9207,"Release":9208,"orient":9209,"Ġsurv":9210,"named":9211,"asm":9212,"house":9213,"Encoding":9214,"Ġdx":9215,"jax":9216,"ĠBen":9217,"Ġplaces":9218,"Ġtraditional":9219,"Landroid":9220,"pan":9221,"ĠAbstract":9222,"Ġtopic":9223,"]$.":9224,"analy":9225,"Ġrepresentations":9226,"agr":9227,"Ġimag":9228,"Ġupdates":9229,"Bottom":9230,"transaction":9231,"ursive":9232,"Pixel":9233,"Ġequip":9234,"Ġstat":9235,"Private":9236,"Conn":9237,"}[\\":9238,"Compiler":9239,"Ġdom":9240,"ĠUtil":9241,"Ġsex":9242,"Ġfamilies":9243,"hbox":9244,"ami":9245,"parentNode":9246,"fff":9247,"NC":9248,"Ġphysics":9249,"previous":9250,"ĠTex":9251,"ĠSIZE":9252,"ajor":9253,"}}_{\\":9254,"GLE":9255,"ä»":9256,"udget":9257,"ĠFil":9258,"Ġbias":9259,"spital":9260,"person":9261,"Ġ\\]":9262,"scriptsize":9263,"Ġexpressions":9264,"Book":9265,"Ġguide":9266,"Mac":9267,"glyphicon":9268,"iming":9269,"Term":9270,"elt":9271,"Bounds":9272,"OO":9273,"Ġdirector":9274,"Ġjoined":9275,"lipse":9276,"1970":9277,"Sur":9278,"Proof":9279,"|}":9280,"loss":9281,"127":9282,"FIELD":9283,"ĠIR":9284,"fast":9285,"Mapper":9286,"OPT":9287,"NET":9288,"compute":9289,"Addr":9290,"Groups":9291,"ifferent":9292,".\"\"\"":9293,"created":9294,"Ġbug":9295,"Linq":9296,"Ġconn":9297,"mains":9298,"atistics":9299,"ĠAlex":9300,"rained":9301,"multip":9302,"Hub":9303,"Ġmilitary":9304,"chunk":9305,"sr":9306,"Effect":9307,"600":9308,"Ġcontinued":9309,"Ġsummar":9310,"Ġtechnique":9311,"iota":9312,"dark":9313,"(--":9314,"ĠFin":9315,"audio":9316,"Remote":9317,"eto":9318,"('<":9319,"ĠDuring":9320,"Ġtimestamp":9321,".$$":9322,"Ġ\"'":9323,"ĠAndroid":9324,"itar":9325,"Touch":9326,"Ġelif":9327,"pending":9328,"Ġwor":9329,"$_{":9330,"PY":9331,"Card":9332,"Ġdescriptor":9333,"poch":9334,"Expected":9335,"Ġdead":9336,"Ð°Ð½":9337,"Ġunderstanding":9338,"Ġpredicted":9339,"moment":9340,"Ġtrying":9341,"Ġtheme":9342,"ĠCG":9343,"mean":9344,"ĠStatus":9345,"Ġtold":9346,"Ġconj":9347,"Ġorganization":9348,"]$,":9349,"Contact":9350,"ĠUnder":9351,"cribe":9352,"othing":9353,"ynthetic":9354,"Ġdie":9355,"odes":9356,"ÑģÑĤ":9357,"ĠFoot":9358,"ĠWhite":9359,"warn":9360,"ughter":9361,"Ġ$,":9362,"stone":9363,"Columns":9364,"BUFFER":9365,"loating":9366,"Ġoutcome":9367,"|}{":9368,"'ve":9369,"Ġjud":9370,"bigl":9371,"ĠBest":9372,"ĠSu":9373,"Ġrock":9374,"UST":9375,"appendChild":9376,"Ġobjective":9377,"alog":9378,"Bits":9379,",{\\":9380,"CSS":9381,"ĠAppendix":9382,"commons":9383,"Identity":9384,"Ġintr":9385,"ĠCr":9386,"states":9387,"Tile":9388,"Ġnoted":9389,"Ġpixels":9390,"esome":9391,"IA":9392,"Connect":9393,"mits":9394,"Border":9395,"ĠTwo":9396,"_)":9397,"Ġexecuted":9398,"Depth":9399,"101":9400,"ATOR":9401,"kwargs":9402,"ĠIter":9403,"ĠOrder":9404,"Ġdistingu":9405,"Ġago":9406,"directory":9407,",...":9408,"Ġstability":9409,"emptyset":9410,"Contains":9411,"iner":9412,"Cancel":9413,"ĠĠĠĠĠĠĠĠĠĠĠĠĠĠĠĠĠĠĠĠĠĠĠĠĠĠĠĠĠĠĠĠĠĠĠĠĠĠĠĠĠĠĠĠĠĠĠ":9414,"cline":9415,"ĠCompany":9416,"Ġgave":9417,"IMPORTED":9418,"Ġcodes":9419,"acebook":9420,"sequent":9421,"posable":9422,"Ġsites":9423,"Alloc":9424,"ĠVir":9425,"validation":9426,"ĠDB":9427,"Console":9428,"fetch":9429,"timestamp":9430,"Ġcompatible":9431,"Insert":9432,"SW":9433,"ĠIllegal":9434,"multirow":9435,"Ġassembly":9436,"Ġzone":9437,"Ġexplan":9438,"Ġwhereas":9439,"LowerCase":9440,"(\"%":9441,"Ġdocuments":9442,"ĉĉĠĠĠ":9443,"LIST":9444,"ĠDelete":9445,"bigr":9446,"Ġdefines":9447,"rich":9448,"HEAD":9449,"recated":9450,"uzz":9451,"actual":9452,"Ġship":9453,"inject":9454,"@{":9455,"Information":9456,"Ġclock":9457,"Ġdefaults":9458,"Ġheat":9459,"goog":9460,"Ġnearly":9461,"ĠGiven":9462,"ora":9463,"Ġlumin":9464,"parallel":9465,"ĠSign":9466,"GroupName":9467,"atar":9468,"ĠYear":9469,"frag":9470,"feed":9471,"World":9472,"columns":9473,"ĠPress":9474,"ĠImm":9475,"columnwidth":9476,",\\,\\":9477,"tooltip":9478,"Ġsometimes":9479,"ĠSy":9480,"Ġhol":9481,"Ġsaw":9482,"Ġstyles":9483,"FALSE":9484,"Ġrequirements":9485,"ĠRet":9486,"ĠGeorge":9487,"complex":9488,"Ġsuitable":9489,"Ġ'./":9490,"Setting":9491,"'m":9492,"formal":9493,"Ġcanonical":9494,"Ġlocally":9495,"Ġstaff":9496,"Ġinterpre":9497,"Ġteach":9498,"NODE":9499,"Ġpipeline":9500,"Ġvm":9501,"Ġens":9502,"Ġmodal":9503,"azy":9504,"Ġstatistical":9505,"=>":9506,"even":9507,"remarks":9508,"cha":9509,"Ġjump":9510,"PROJECT":9511,"ï¼Į":9512,"ivery":9513,"Ġshell":9514,"itt":9515,"=$":9516,"Ġbelieve":9517,"slide":9518,"will":9519,"Ġfavor":9520,"Ġstay":9521,"Ġagreed":9522,"mathop":9523,"Ġrapid":9524,"ĠWashington":9525,"isArray":9526,"lig":9527,"licenses":9528,"áĥ":9529,"Timestamp":9530,"hook":9531,"Ġphenomen":9532,"aily":9533,"Ġ}{":9534,"ĠALIGN":9535,"ĠCourt":9536,"Ġ----------------------------------------------------------------":9537,"Ġfinding":9538,"Ġhimself":9539,"ĠLou":9540,"hips":9541,"ĠProgram":9542,"Î¿":9543,"istency":9544,"ĠStream":9545,"Ġprim":9546,"Ġordered":9547,"1991":9548,"Ġdesp":9549,"netes":9550,"ILD":9551,"Ġregistered":9552,"Ġsufficiently":9553,"Ġinsp":9554,"INST":9555,"UND":9556,"Ġscient":9557,"ĠResponse":9558,")&":9559,"encoding":9560,"Ġmonitor":9561,"cmp":9562,"Ġconfirm":9563,"ubernetes":9564,"Ġult":9565,"Ġbgcolor":9566,"Ġproceed":9567,"Month":9568,"Ġ|=":9569,"uum":9570,"ĠNAV":9571,"Ġ'_":9572,"Delay":9573,"tar":9574,"PROP":9575,"Virtual":9576,"\\;":9577,"Ġease":9578,"lings":9579,"pace":9580,"wer":9581,"YY":9582,"Ġpredictions":9583,"ĠOS":9584,"undred":9585,"ald":9586,"213":9587,"ĠPack":9588,"Ġdoub":9589,"ibration":9590,"Inner":9591,"ieved":9592,"istance":9593,"DEX":9594,"ĠDim":9595,"Center":9596,"ĠallClasses":9597,"Metrics":9598,"GN":9599,"Ġparsed":9600,"ĠMusic":9601,"DATE":9602,"Ġhappen":9603,"Ġworth":9604,"TY":9605,"toolbar":9606,"Ġalias":9607,"Ġrat":9608,"Forms":9609,"^^":9610,"Ġdust":9611,"lebr":9612,"æľ":9613,"Ġchecked":9614,"vlet":9615,"Ġdiagonal":9616,"negative":9617,"})}":9618,"Chain":9619,"Writ":9620,"Ġprograms":9621,"ĠCOVID":9622,"standard":9623,"Ġdisable":9624,"Ġvariation":9625,"Ġmassive":9626,"serialize":9627,"+(":9628,"Mix":9629,"triangle":9630,"ãĢĤ":9631,"bor":9632,"Ġprofessional":9633,"FIX":9634,"ĠallClassesLink":9635,"Ġmarked":9636,"ĠUs":9637,"Ġaccomp":9638,"weet":9639,"ĉĉĉĉĊ":9640,"Ġ---":9641,"spacing":9642,"}))":9643,"BY":9644,"uning":9645,"Ġcommands":9646,"ĠGermany":9647,"]->":9648,"NING":9649,"Ġstats":9650,"WA":9651,"Ġcollabor":9652,"quest":9653,"Ġmaterials":9654,"Ġfake":9655,"ĠJapan":9656,"Dispatch":9657,"Plan":9658,"hn":9659,"Reset":9660,"rypted":9661,"heets":9662,"Ġwrapper":9663,"}}}\\":9664,"Ġeventually":9665,"Ġaccurate":9666,"Given":9667,"ĠAT":9668,"utdown":9669,"Ġcomputing":9670,"Ġequilibrium":9671,"abeled":9672,"Watch":9673,"Ġĉ":9674,"ARB":9675,"period":9676,"Ġfails":9677,"lets":9678,"}}.":9679,"Ġassumptions":9680,"Ġoccurred":9681,"FOR":9682,"uuid":9683,"ĠMost":9684,"Fr":9685,"istant":9686,"dynamic":9687,"Split":9688,"à¸":9689,"Analysis":9690,"Ġmanifold":9691,"Ġgiving":9692,"Ġobvious":9693,"Ġappoint":9694,"ĠInv":9695,"activity":9696,"BL":9697,"HERE":9698,"heading":9699,"assandra":9700,"getAttribute":9701,"Ġprime":9702,"lik":9703,"Declaration":9704,")}_":9705,"Ġcached":9706,"Ġasked":9707,"Ġextensions":9708,"Ġdeaths":9709,"stein":9710,"Exists":9711,"expand":9712,"Ġtrust":9713,"locale":9714,"å®":9715,"maps":9716,"Ġusual":9717,"ĠSH":9718,"Ġ×":9719,"Ġscience":9720,"about":9721,"ĠRob":9722,"Ġcurvature":9723,"Ñĩ":9724,"mming":9725,"Ġreprodu":9726,"ala":9727,"adv":9728,"WIN":9729,"Chunk":9730,"Sch":9731,"Ġbulk":9732,"Ġplease":9733,"çĶ":9734,"ferred":9735,"ĠCa":9736,"finity":9737,"Ms":9738,"})=":9739,"Ġwarning":9740,"bib":9741,"ĠOlymp":9742,"actor":9743,"zing":9744,"Arch":9745,"Navigation":9746,")\",":9747,"Ġ'#":9748,"rint":9749,"ĠFl":9750,"connected":9751,"ĠPen":9752,"ĠStep":9753,"alias":9754,"pages":9755,"Ġevaluated":9756,"ĠArmy":9757,"Ġbright":9758,"ĠGod":9759,"ĠPython":9760,"Ġincorpor":9761,"Ġpropose":9762,"Ġdiagn":9763,"Ġstudent":9764,"semble":9765,"itative":9766,"camel":9767,"Ġbos":9768,"Prov":9769,"Ġprinciple":9770,"AST":9771,"iller":9772,"Living":9773,"ĠAmazon":9774,"ĠConfiguration":9775,"Extensions":9776,"%\"":9777,"Diff":9778,"arios":9779,"Ġedit":9780,"Ġplanet":9781,"Ġsatisfied":9782,"Ġaddresses":9783,"ĠHistory":9784,"Ġaver":9785,"hpp":9786,"Transition":9787,"ighter":9788,"Ġ^{":9789,"anim":9790,"Ġdefe":9791,"ĠNext":9792,"Med":9793,"atin":9794,"Ġseven":9795,"ĠByte":9796,"algebra":9797,"æĸ":9798,"Ġsurvey":9799,"Ġlocations":9800,"elihood":9801,"ĠSearch":9802,"blog":9803,"ĠSimple":9804,"Ġ'$":9805,"Ġbehaviour":9806,"uer":9807,"aria":9808,"Ġbroadcast":9809,"sent":9810,"(\"#":9811,"Ġfs":9812,"Permission":9813,"asc":9814,"ultane":9815,"Ġqueries":9816,"ĠIL":9817,"contact":9818,"=}":9819,"ceeded":9820,"Ġrotate":9821,"Ġintersection":9822,"ĠApplication":9823,"1024":9824,"rules":9825,"Ġquickly":9826,"Ġsector":9827,"heta":9828,"asket":9829,"Ġderivative":9830,"Ġsubgroup":9831,"Ġnamely":9832,"Optional":9833,"uan":9834,"AUT":9835,"Idx":9836,"parts":9837,"6666":9838,"Ġpacket":9839,"Ġcyc":9840,"binary":9841,"Ġcapt":9842,"Runner":9843,"Ġappeared":9844,"Ġdescribes":9845,"examples":9846,"Na":9847,"paper":9848,"================================================================":9849,"Ġmodul":9850,"ibling":9851,"Ġdownload":9852,"Ġindicating":9853,"ying":9854,"ĠParse":9855,"ENER":9856,"ĠAfrica":9857,"flush":9858,"mercial":9859,"ĠSociety":9860,"Random":9861,"Ġcarry":9862,"ĠDemoc":9863,"lia":9864,"åĲ":9865,"ĠLin":9866,"Ġdigital":9867,"Ġmus":9868,"Ġnonlinear":9869,"Ġmaintain":9870,"Ġdefinitions":9871,"Shader":9872,"}}^{\\":9873,"ĠJson":9874,"ĠFOR":9875,"BOOL":9876,"ĠDir":9877,"Ġ<-":9878,"Ġcancell":9879,"ĠGame":9880,"SCRIPT":9881,"Ġfinancial":9882,"Weight":9883,"toLowerCase":9884,"ĠDEFAULT":9885,"popup":9886,"Ġcategories":9887,"men":9888,"ĠSun":9889,"Consumer":9890,"Ġconvolution":9891,"Ġdefer":9892,"Ġcolors":9893,"setAttribute":9894,"ships":9895,"comb":9896,"LICENSE":9897,"ĠHandle":9898,"Ġallowing":9899,"}_{-":9900,"ira":9901,"ĠGlobal":9902,"Site":9903,"Ġequality":9904,"Ġcharacteristic":9905,"cross":9906,"Dig":9907,"ĠOutput":9908,"Ġcorrectly":9909,"Ġhope":9910,"ĠVari":9911,"Ġsignals":9912,"ĠNAVBAR":9913,"ĠPDF":9914,"ĠControl":9915,"Ġcapital":9916,"Ġdense":9917,"Ġjournal":9918,"uv":9919,"strings":9920,"Ġescape":9921,"iro":9922,"hard":9923,"trivial":9924,"matches":9925,"VICE":9926,"FLAG":9927,"Ġexperi":9928,"Ġpret":9929,"\\}$,":9930,"Ġgravit":9931,"ĠHAL":9932,"Ġhorizontal":9933,"!<":9934,"SOUR":9935,"ducation":9936,"Ġlogging":9937,"Dependency":9938,"ĠGold":9939,"Ġmaximal":9940,"cert":9941,"ĠAcade":9942,"TIES":9943,"Ġlimitations":9944,"ĠØ":9945,"Ġtour":9946,"stra":9947,"Ġseed":9948,"crement":9949,"arded":9950,"POS":9951,"]{\\":9952,"Ġcontrols":9953,"vin":9954,"geo":9955,"<<":9956,"EO":9957,"Ġinj":9958,"Ġferm":9959,"=%":9960,"ĠTur":9961,"Î±":9962,"Detail":9963,"ĠCOM":9964,"ĠQuery":9965,"\"./":9966,"Ġadvantage":9967,"Enumerable":9968,"wa":9969,"sep":9970,"Ġdire":9971,"Holder":9972,"mf":9973,"Ġdeliver":9974,"Ġletter":9975,"requency":9976,"Ġresponsible":9977,"pixel":9978,"sch":9979,")>":9980,"attrs":9981,"refresh":9982,"Ġhide":9983,"Ġexpert":9984,"sco":9985,"Ġtruth":9986,"Platform":9987,"Ġtrend":9988,"ĠTag":9989,"Ġmobile":9990,"Ġlogic":9991,",.":9992,"luon":9993,"Supported":9994,"estival":9995,"extensions":9996,"ĠLi":9997,"Ġbaseline":9998,"Ġreports":9999,"Ġvariance":10000,"ĠMary":10001,"Ġmother":10002,"Tw":10003,"Ġglob":10004,"Ġderive":10005,"Ġ,\\":10006,"=\"../../../../../../../":10007,"ĠServer":10008,"esh":10009,"Ġcarried":10010,"ĠDan":10011,"Ġdt":10012,"ĠSeries":10013,"Ġmovement":10014,"Ġinterested":10015,"Ġdraft":10016,"ny":10017,"oday":10018,"decode":10019,"Ġconflict":10020,"kt":10021,"cls":10022,"removeClass":10023,"Ġsett":10024,"ĠWARRANTIES":10025,"ĠBuffer":10026,"Ġgir":10027,"TAG":10028,"ĠRobert":10029,"venue":10030,"HC":10031,"}\\,\\":10032,"Ready":10033,"Ġperiodic":10034,"ĠCentral":10035,"okies":10036,"Ġbirth":10037,"Ġfight":10038,"currency":10039,"share":10040,"ĠEngine":10041,"Upload":10042,"Ġpa":10043,"Anim":10044,"Ġassess":10045,"Ġconsequence":10046,"Material":10047,"viewport":10048,"pto":10049,"ENV":10050,"CONFIG":10051,"ĠON":10052,"Standard":10053,"Art":10054,"Ġns":10055,"Ġbooks":10056,"Ġpiece":10057,"ĠĠčĊ":10058,"vart":10059,"ĠYour":10060,"wx":10061,"sky":10062,"ARRAY":10063,"alian":10064,"Light":10065,"Ġpolice":10066,"Converter":10067,"PM":10068,"vendor":10069,"vt":10070,"Ġplus":10071,"Ġtexture":10072,"plane":10073,"subscribe":10074,"Ġspent":10075,"opacity":10076,"LEMENT":10077,"Prev":10078,"Ġpriority":10079,"Ġ\">":10080,"Ġmotiv":10081,"law":10082,"ĠHome":10083,"otic":10084,"eb":10085,"ĠRemark":10086,"Ġcool":10087,"\\}\\":10088,"Ġculture":10089,"Tuple":10090,"Ġ',":10091,"ĉĉĉĉĉĉĊ":10092,"Future":10093,"ĠFix":10094,"ĠAtt":10095,"Ġimproved":10096,"\"];":10097,"ragma":10098,";\\;\\":10099,"Switch":10100,"sun":10101,"istan":10102,"ACH":10103,"ĠDen":10104,"iar":10105,"Ġsell":10106,"topic":10107,"Ġdip":10108,"Ġtrivial":10109,"weak":10110,"regular":10111,"uplicate":10112,"atics":10113,"ĠContext":10114,"Aggreg":10115,"Fixed":10116,"ĠJer":10117,"Tasks":10118,"ĠPHP":10119,"Ġindeed":10120,"/\">":10121,"Ġseem":10122,"Blob":10123,"ĠCR":10124,"ental":10125,"Ġmostly":10126,"actic":10127,"ĠPlay":10128,"'+":10129,"ĠMichael":10130,"docker":10131,"ymmetry":10132,"ancing":10133,"Ġrail":10134,"Ġrough":10135,"ensities":10136,"Marker":10137,"Ġmainly":10138,"ĠMex":10139,"ĠEV":10140,"Ġquantity":10141,"Ġbank":10142,"Ġstoch":10143,"listener":10144,"ographic":10145,"Ġrise":10146,"ĠMa":10147,"ĠBook":10148,"Android":10149,"Lemma":10150,"isco":10151,"Enc":10152,"ellig":10153,"Ġcreates":10154,"Ġimplicit":10155,"Ġbalance":10156,"}|\\":10157,"ĠRest":10158,"ĠChinese":10159,"ĠDu":10160,"Ġfreedom":10161,"Ġ\\&":10162,"ĠPR":10163,"Ġpi":10164,"ĠSelect":10165,"Ġreasons":10166,"Ġactivities":10167,"ĠassertTrue":10168,"present":10169,"Ġpurch":10170,"ĠTexas":10171,"Ġattrs":10172,"Accept":10173,"Ġpoor":10174,"kg":10175,"Mut":10176,"bas":10177,"ola":10178,"Ġdispatch":10179,"Ġindividuals":10180,"riterion":10181,"getId":10182,"ĠIsland":10183,"Ġradiation":10184,"1989":10185,"Ġopening":10186,"ien":10187,"\\|\\":10188,"owers":10189,"ĠĠĠĠĠĠĠĠĠĠĠĠĠĠĠĠĠĠĠĠĠĠĠĠĠĠĠĠĠĠĠĠĠĠ":10190,"essor":10191,"IMIT":10192,"Ġsymp":10193,"ĠFree":10194,"Ġfourth":10195,"ĠRoad":10196,"Ġidentical":10197,"iation":10198,"Zero":10199,"ARG":10200,"Ġdependent":10201,"orizon":10202,"Ġinteract":10203,"ĠLife":10204,"ĠZend":10205,"Ġrelax":10206,"ĠPop":10207,"Ġdelegate":10208,"Ġgeneralized":10209,"ĠBY":10210,"Chart":10211,"bounds":10212,"LY":10213,"Ġplaceholder":10214,"zed":10215,"Ġchanging":10216,"Series":10217,"Ġinterpol":10218,"Rot":10219,"Ġmount":10220,"Ġschools":10221,"ĠRout":10222,"Lookup":10223,"tan":10224,"ĠIndeed":10225,"Ġsaved":10226,"Leg":10227,"Ġplant":10228,"Ġlegal":10229,"ĠDescription":10230,"transport":10231,"ĠThomas":10232,"Ġencoded":10233,"Ġspher":10234,"amer":10235,"Direction":10236,"Linear":10237,"Ġorth":10238,"Ġfilters":10239,"Ġignored":10240,"Ġinherit":10241,"Ġpolitic":10242,"Ġelli":10243,"nof":10244,"Ġtrees":10245,"})^":10246,"Ġpicture":10247,"datepicker":10248,"Once":10249,"Poly":10250,"ussia":10251,"observer":10252,"Amount":10253,"Ġuri":10254,"Ġmajority":10255,"IZ":10256,"Ġfetch":10257,"chen":10258,"Assembly":10259,"Consider":10260,"Enable":10261,"repo":10262,"Ġwanted":10263,"[],":10264,"ifts":10265,"slant":10266,"Ġinvestigate":10267,"Login":10268,"^{(\\":10269,"Ġplays":10270,"twitter":10271,"subsec":10272,"tile":10273,"ritical":10274,"ĠBoth":10275,"Ġrepository":10276,"ĠStruct":10277,"ĠAv":10278,"Ġmedium":10279,"SN":10280,"abit":10281,"ĠGal":10282,"Ġtopological":10283,"Ġchemical":10284,"Ð¾Ð²":10285,"remote":10286,"Ġpatch":10287,"rob":10288,"getInstance":10289,"istogram":10290,"Ġenergies":10291,"\\%$":10292,"ĠIts":10293,"Missing":10294,"Final":10295,"Features":10296,"ILITY":10297,"Rules":10298,"ĠEnt":10299,"Locale":10300,"Ġgenerating":10301,"ĠPet":10302,"Ġbuy":10303,"ĠCommit":10304,"Ġleader":10305,"Labels":10306,"ĠCap":10307,"Ġresolved":10308,"tl":10309,"Verify":10310,"udd":10311,"distance":10312,"Ġolder":10313,"pf":10314,"Ġcompiler":10315,"lica":10316,"refs":10317,"ĠSVG":10318,"sass":10319,"Attrib":10320,"Ġintensity":10321,"kernel":10322,"repository":10323,"GO":10324,"osh":10325,"logo":10326,"timer":10327,"Ġdiver":10328,"erc":10329,"arith":10330,"Ctx":10331,"!]":10332,"collect":10333,"igator":10334,"Ġhundred":10335,"thumb":10336,"Scheduler":10337,"airs":10338,"there":10339,"ArrayList":10340,"Ġbeg":10341,"ĠCore":10342,"Ġmatched":10343,"Ã£":10344,"ĠDefinition":10345,"Ġwrap":10346,"COUN":10347,"wave":10348,"ĠSing":10349,"Ġnuclear":10350,"Ġpassing":10351,"ĠTor":10352,"mobile":10353,"ĠRussian":10354,"Ġlaunch":10355,"Ġ'@":10356,"django":10357,"ni":10358,"Ġradial":10359,"ceil":10360,"Ġwife":10361,"Scalar":10362,"haps":10363,"License":10364,"$&":10365,"ĠRail":10366,"Ġnavbar":10367,"fb":10368,"Ġpresident":10369,"Ġdst":10370,"Ġgold":10371,"TRAN":10372,"Ġreceiver":10373,"Ġmarried":10374,"Ġalert":10375,"Ġcoinc":10376,"bundle":10377,"foreach":10378,"ĠNav":10379,"Ġdisplayed":10380,"Ignore":10381,"Ġcontradi":10382,"arest":10383,"Ġoffers":10384,"Ġreverse":10385,"ĠAccess":10386,"gather":10387,"longrightarrow":10388,"Comparison":10389,"inity":10390,"Ġmedical":10391,"herent":10392,"Ġconfigurations":10393,"Ġexplained":10394,"Ġimplied":10395,"}$}":10396,"Overview":10397,"Fix":10398,"Ġrepeated":10399,"mapping":10400,"measure":10401,"upper":10402,"substring":10403,"requires":10404,"ĠEval":10405,"uffix":10406,"STATUS":10407,"Ġemit":10408,"Ġimportance":10409,"aren":10410,"declare":10411,"Ġ}).":10412,"Spr":10413,"ope":10414,"Ctrl":10415,"notify":10416,"atted":10417,"gz":10418,"ĠLay":10419,"reason":10420,"Ġprotect":10421,"Ġanchor":10422,"prevent":10423,"ĠAustralian":10424,"}\",":10425,"ropic":10426,"AE":10427,"Ġasymptotic":10428,"ĠLoad":10429,"ĠSuch":10430,"Ġserve":10431,"ĠCloud":10432,"ĠBecause":10433,"Ġcourt":10434,"pid":10435,"Ġproperly":10436,"vartheta":10437,"Kit":10438,"grav":10439,"gebr":10440,"ĠRoyal":10441,"EVENT":10442,"middle":10443,"ĠContent":10444,"Ġframes":10445,"åħ":10446,"Ġabund":10447,"escape":10448,"RECT":10449,"Ġphoton":10450,"Ġfeedback":10451,"ĠSal":10452,"ĠðŁ":10453,"Ġlies":10454,"UMM":10455,"ĠBi":10456,"Mov":10457,"ĠChild":10458,"Ġcoverage":10459,"Xi":10460,"Ġstochastic":10461,"COMM":10462,"Ġslice":10463,"Ġdashed":10464,"ĠComponent":10465,"Dem":10466,"EXPORT":10467,"RT":10468,"avelength":10469,"country":10470,"atibility":10471,"MF":10472,"(\"\\":10473,"ĠDivision":10474,":=\\":10475,">()":10476,"verify":10477,"Ġsuc":10478,"Actions":10479,"Sem":10480,"ilevel":10481,"obs":10482,"analysis":10483,"Ġcompletion":10484,"Ġinitially":10485,"Dynamic":10486,"Ġattract":10487,"shell":10488,"artesian":10489,".*;":10490,"ĠVol":10491,"Ġenjo":10492,"Li":10493,"usr":10494,"generator":10495,"Ġclip":10496,"Ġshock":10497,"strip":10498,"Ã¨":10499,"Ġwire":10500,"Ġphoto":10501,"defaults":10502,"ĠHen":10503,")--(":10504,"samp":10505,"Ġliteral":10506,"Ġoriginally":10507,"cible":10508,"calcul":10509,"Diagnostics":10510,"{},":10511,"Ġfaster":10512,"1988":10513,"ĠPlease":10514,"Ġsongs":10515,"RGB":10516,"Ġtit":10517,"General":10518,"Ġreferred":10519,"phrase":10520,"Ġ'''":10521,"Completed":10522,"cx":10523,"slider":10524,"Ġcss":10525,"Ġhum":10526,"inx":10527,"ĠStandard":10528,"RED":10529,"inations":10530,"Ġparents":10531,"Ġapproximate":10532,"Ġorders":10533,"Ġdimensional":10534,"Ġhandling":10535,"Ġtraffic":10536,"ĠPhys":10537,"Ġcandidates":10538,"Period":10539,"hd":10540,"SV":10541,"binding":10542,"ĠThread":10543,"ĠSam":10544,"ĠLu":10545,"Geometry":10546,"umul":10547,"Ġexpanded":10548,"SF":10549,"ĠAfrican":10550,"Authentication":10551,"ĠClub":10552,"yan":10553,"ĠGraph":10554,"Ter":10555,"Ġsal":10556,"libs":10557,"}}=":10558,"texture":10559,"Ġtargets":10560,"May":10561,"standing":10562,"Ġdem":10563,"ĠCong":10564,"azine":10565,"hu":10566,"Den":10567,"park":10568,"priv":10569,"Ġneighborhood":10570,"Ġsending":10571,"ĠNon":10572,"aui":10573,"lint":10574,"ĠOriginal":10575,"Encoded":10576,"ĠTom":10577,"ĠWhether":10578,"translate":10579,"ĠMiss":10580,"Formatter":10581,"ĠSmith":10582,"below":10583,"ĠCase":10584,"cker":10585,"Capture":10586,"ĠSupport":10587,"Prototype":10588,"also":10589,"Å¡":10590,"ĠForce":10591,"ĠInformation":10592,"ĠWIDTH":10593,"PG":10594,"Ġsubsequent":10595,"links":10596,"Ġhappens":10597,"iger":10598,"notag":10599,"execution":10600,"Ä±":10601,"Ġrational":10602,"Qual":10603,"Ġoutputs":10604,"phantom":10605,"character":10606,"******/":10607,"pad":10608,"Lib":10609,"Buf":10610,"continue":10611,"^{*":10612,"Must":10613,"Ø±":10614,"logging":10615,"ENABLE":10616,"Ġmanufact":10617,"bean":10618,"Priority":10619,"sched":10620,"jacent":10621,"Executor":10622,"footnotes":10623,"history":10624,"rpc":10625,"Ġtransactions":10626,"ÛĮ":10627,"Loading":10628,"Cla":10629,"ĠStar":10630,"elasticsearch":10631,"tableblock":10632,"Available":10633,"Hence":10634,"ĠSpr":10635,"router":10636,"ĠModule":10637,"localhost":10638,"XY":10639,"oned":10640,"TV":10641,"Ġweeks":10642,"Ġpseudo":10643,"ĠCOL":10644,"Ġsen":10645,"ima":10646,"Ġsupplied":10647,"Ġalpha":10648,"Ġtuple":10649,".',":10650,"Alias":10651,"^*(":10652,"ĠLibrary":10653,"Ġsimultane":10654,"uns":10655,"OC":10656,"ERS":10657,"Ġwoman":10658,"ĠChristian":10659,"'d":10660,"Frames":10661,"iem":10662,"prise":10663,"compar":10664,"bro":10665,"LAY":10666,"ĠVirtual":10667,"gain":10668,"ĠClear":10669,"thick":10670,"UEST":10671,"olf":10672,"Ġsuggests":10673,"cn":10674,"AU":10675,"Ġgravity":10676,"\\/":10677,"Est":10678,"ĠPlan":10679,"Ġmanaged":10680,"ubic":10681,"angian":10682,"eces":10683,"][]{":10684,"%%%%%%%%":10685,"Ġsafety":10686,"Ġcopies":10687,"Vec":10688,"ĠSerial":10689,"etal":10690,"nail":10691,"EP":10692,"Ġiniti":10693,"Ġsyn":10694,"mis":10695,"segment":10696,"===":10697,"OutputStream":10698,"FileName":10699,"ĠOtherwise":10700,"Phone":10701,"}~":10702,"raise":10703,"9999":10704,"ilbert":10705,"ĠHy":10706,"Ġturns":10707,"Ġhelper":10708,"ĠMus":10709,"Ġaria":10710,"EY":10711,"gebras":10712,"Ġstress":10713,"ĠFranc":10714,"Ġconverted":10715,"ĠReference":10716,"Decimal":10717,"ĠĠĠĠĠĠĠĠĠĠĠĠĠĠĠĠĠĠĠĠĠĠĠĠĠĠĠĠĠĠĠĠĠĠĠĠĠ":10718,"Ġassuming":10719,"00000000":10720,"Ġchurch":10721,"sell":10722,"Deprecated":10723,"ĠCurrent":10724,"ptic":10725,"Packet":10726,"Analy":10727,"iveness":10728,"Ġaffected":10729,"fragment":10730,"failed":10731,"HOUT":10732,"Ġpropos":10733,"IDE":10734,"1987":10735,"Ġdetector":10736,"Ġ\\!":10737,"attach":10738,"Fore":10739,"Dr":10740,"Ġturned":10741,"Ġquantities":10742,"issue":10743,"${\\":10744,"neut":10745,"ĠÐ²":10746,"INVALID":10747,"Ġaccepted":10748,"Ġbrought":10749,"ĠJew":10750,"ĠMad":10751,"Ġsymbols":10752,"Ġprecisely":10753,"Ġdecided":10754,"Ġcollected":10755,"Ġsecondary":10756,"ClassName":10757,"Ġgoto":10758,"reduce":10759,"izers":10760,"medskip":10761,"rupted":10762,"ĠCarol":10763,".\\\\":10764,"Ġquasi":10765,"Snapshot":10766,"Ġroll":10767,"lisher":10768,"Ã£o":10769,"rtl":10770,"Ġmagnet":10771,"RESULT":10772,"cycle":10773,"Ġregarding":10774,"Ġhypothesis":10775,"Ġtransitions":10776,"ĠOC":10777,"Ga":10778,"retch":10779,"odd":10780,"Ġpending":10781,"Export":10782,"Ġinser":10783,"Ġ!!":10784,"rish":10785,"Scheme":10786,"Ġgover":10787,"fficial":10788,"aling":10789,"ea":10790,"Ġpublish":10791,"Ġcovered":10792,"lapsed":10793,"govern":10794,"secondary":10795,"512":10796,"Ġdrive":10797,"AI":10798,"Ġspirit":10799,"glew":10800,"Ġagents":10801,"Ġsit":10802,"Origin":10803,"labels":10804,"Ġappearance":10805,"ÏĦ":10806,"Ġdisease":10807,"getType":10808,"Bucket":10809,"Owner":10810,"Ġ({\\":10811,"Ġ{%":10812,"Ġminor":10813,"annotations":10814,"stage":10815,"ĠFALSE":10816,"overflow":10817,"ĠKore":10818,"Ear":10819,"RESS":10820,"^*\\":10821,"elling":10822,"Ġtransmission":10823,"ĠFacebook":10824,"Ġfluid":10825,"ĠLand":10826,"Deep":10827,"Ġattached":10828,"uniform":10829,"AAAA":10830,"Ġsubstant":10831,"([]":10832,"illis":10833,"gif":10834,"insic":10835,"ĠInvalid":10836,"untain":10837,"Ġdynamical":10838,"Ġcompliance":10839,"Ġpurposes":10840,"Ġill":10841,"Ġisomorphism":10842,"ĠĠĠĠĠĠĠĠĠĠĊ":10843,"lab":10844,"ĠScott":10845,"ĠTown":10846,"members":10847,"Ġintermediate":10848,"textcolor":10849,"(()":10850,"Ġslo":10851,"ĠHas":10852,"Ġsolar":10853,"ÙĦ":10854,"ĠMAX":10855,"footnotesize":10856,"Ġpermission":10857,"Ġdictionary":10858,"________":10859,"}\\|":10860,"ĠĠĠĠĠĠĠĠĠĠĠĠĠĠĠĠĠĠĠĠĠĠĠĠĠĠĠĠĠĠĠĠĠĠĠĠ":10861,"cussion":10862,"Super":10863,"kl":10864,"jd":10865,"Ġequals":10866,"ogonal":10867,"Controls":10868,"Ġarm":10869,"Ġprincipal":10870,"Ġtheories":10871,"Sm":10872,"ĠURI":10873,"delegate":10874,"GIN":10875,"Ġworkers":10876,"Proc":10877,"ĠProf":10878,"Family":10879,"Ġ'')":10880,"Ġpossibly":10881,"folio":10882,"ĠMil":10883,"ĠSol":10884,"ĠDebug":10885,"Ġexponential":10886,"isson":10887,"ĠJac":10888,"Ġlearned":10889,"Ð¿":10890,"Ġredshift":10891,"Ġfemale":10892,"ĠGames":10893,"Ġmanner":10894,"Ġ$\\{\\":10895,"backslash":10896,"updated":10897,"Download":10898,"gems":10899,"iser":10900,"tz":10901,"Ġtreated":10902,"Ġ}),":10903,"509":10904,"Ġmixing":10905,"]*":10906,"}>":10907,"medium":10908,"Ġthrown":10909,"************************************************************************":10910,"equations":10911,"Self":10912,"Stub":10913,"ĠWestern":10914,"design":10915,"agger":10916,"amount":10917,"Loaded":10918,"valuation":10919,"addEventListener":10920,"ĠCamp":10921,"Ġfocused":10922,"htt":10923,"ictor":10924,"She":10925,"Ġinstruction":10926,")*":10927,"hot":10928,"Master":10929,"Graphics":10930,"dependence":10931,"Tex":10932,"ĉĠĠĠĠĠĠĠĠĠĠĠĠ":10933,"photon":10934,"gray":10935,"Suppose":10936,"Moreover":10937,"filters":10938,"aux":10939,"Sharp":10940,"Ġtables":10941,"ĠLogger":10942,"ĠEarth":10943,"referred":10944,"Ġmedian":10945,"Ġseparated":10946,"Ġkilled":10947,"Codec":10948,"ĠIsra":10949,"liament":10950,"Ġtested":10951,"Modified":10952,"eper":10953,"Ġentered":10954,"Trigger":10955,"COM":10956,"orders":10957,"ysql":10958,"pragma":10959,"Ġepoch":10960,"isot":10961,"__,":10962,"lemented":10963,"urnament":10964,"ĠDeep":10965,"Reason":10966,"warded":10967,"Ġends":10968,"(-\\":10969,"Ġcelebr":10970,"Ġbands":10971,"Ġrelig":10972,"Ġsuggested":10973,"LIN":10974,"DITION":10975,"Did":10976,"zoom":10977,"*}{":10978,"Ġdrug":10979,"APP":10980,"ĠSecurity":10981,"ĠTOP":10982,"Ġlooks":10983,"metric":10984,"Ġcat":10985,"Gra":10986,"Ġacts":10987,"ĠRender":10988,"Ġalone":10989,"Ġparame":10990,"Ġsports":10991,"ĠVirgin":10992,"lements":10993,"Ġwild":10994,"ĠMinister":10995,"Ġfriends":10996,"Ġcorrection":10997,"\":\"":10998,"bre":10999,"ĠJapanese":11000,"Pa":11001,"Ġanom":11002,"xygen":11003,"plain":11004,"RUN":11005,"Ġeigenvalues":11006,"danger":11007,"lain":11008,"ĠMO":11009,"Ġpossibility":11010,"Cannot":11011,"Ġextracted":11012,"Ġperforming":11013,"Ġchallenge":11014,"Ġmeeting":11015,"Ġcommut":11016,"written":11017,"Ġcriteria":11018,";|":11019,"dump":11020,"ĠSend":11021,"runner":11022,"Ġexplanation":11023,"ashion":11024,"1986":11025,"unched":11026,"ĠTYPE":11027,"ĠAuto":11028,"Matcher":11029,"aylor":11030,"animate":11031,"ati":11032,"SOURCE":11033,"ĠÑģ":11034,"ugment":11035,"ixtures":11036,"getString":11037,"wik":11038,"igate":11039,"Ġmovie":11040,"licated":11041,"Padding":11042,"coup":11043,"=&":11044,"Management":11045,"Ġcorner":11046,"Done":11047,"Ġchecks":11048,"identity":11049,"ĠGreat":11050,"Ġcouple":11051,"Ġindent":11052,"Ġconfidence":11053,"ogen":11054,"ĠAuthor":11055,"Ġcosts":11056,"ĠMuseum":11057,"Ġattacks":11058,"shire":11059,"spher":11060,"arse":11061,"Ġlowest":11062,"factor":11063,"Bad":11064,"Ġslot":11065,"ĠConsider":11066,"illiseconds":11067,"Ġequivalence":11068,"*}[":11069,"Ġencounter":11070,"ĠMass":11071,"adapter":11072,"Ġoperating":11073,"issions":11074,"MLE":11075,"erman":11076,"ĠOP":11077,"bus":11078,"Ġdra":11079,"Ġthank":11080,"dst":11081,"Dev":11082,"agram":11083,"ĠChannel":11084,"LOAD":11085,"Ġapilevel":11086,"program":11087,"Ġfol":11088,"ordered":11089,"Ġdependency":11090,"ĠKingdom":11091,"Listeners":11092,"*,":11093,"HashMap":11094,"ĠJose":11095,"Ġ\\,\\":11096,"Lines":11097,"Inf":11098,"Ġinfra":11099,"Ġfolder":11100,"lookup":11101,"pared":11102,"Ġraised":11103,"Ġorientation":11104,"Tok":11105,".;":11106,"Ġtopology":11107,"Ġscenarios":11108,"above":11109,"Ġtracks":11110,"ĠIII":11111,"may":11112,"grpc":11113,"Ġleaves":11114,"Mount":11115,"Ġbenchmark":11116,"Ġsomeone":11117,"Ġdeleted":11118,"Ġatmo":11119,"ĠFrank":11120,"Ġlists":11121,"Ġhop":11122,"Worker":11123,"scriptstyle":11124,"bench":11125,"Ġposter":11126,"Ġinstitution":11127,"Ġcls":11128,"closed":11129,"Uniform":11130,"ĠAcademy":11131,"According":11132,"Ġ&#":11133,"datetime":11134,"Ġarc":11135,"vironments":11136,"City":11137,"ĠRuntime":11138,"take":11139,"agnetic":11140,"Ġopposite":11141,"Ġforeign":11142,"Ġdemonstrate":11143,"Ġdebut":11144,"awa":11145,"Ġlanguages":11146,"ffffff":11147,"1984":11148,"CREATE":11149,"Ġregression":11150,"Paths":11151,"ensitive":11152,"Ġtsd":11153,"Ġcolspan":11154,"Ġeconomic":11155,"pet":11156,"score":11157,"Ġdiscr":11158,"TERN":11159,"iration":11160,"ĠBE":11161,"700":11162,"Ġcas":11163,"nob":11164,"supp":11165,"Ġcomposed":11166,"Drawing":11167,"Ġrecommend":11168,"OLD":11169,"lie":11170,"PD":11171,">`":11172,"ĠFlor":11173,"ĠVerify":11174,"payload":11175,"Azure":11176,"ĠDown":11177,"Previous":11178,"ĉĉĠ":11179,"reject":11180,"MPL":11181,"ĠColumn":11182,"ĠSSL":11183,"Distance":11184,"Ġconvent":11185,"Ġcontrolled":11186,"1985":11187,"hemat":11188,"eno":11189,"Ġcorrections":11190,"Ġapplies":11191,"ĠHistor":11192,"Ġprofiles":11193,"----------":11194,"meter":11195,"pin":11196,"CCESS":11197,"Ġadopted":11198,"Ġ\"#":11199,"pn":11200,"ĠSil":11201,"Ġlookup":11202,"Based":11203,"ORK":11204,"Ġlisteners":11205,"Ġarrays":11206,"surface":11207,"sdk":11208,"ders":11209,"()`":11210,"Ġbelongs":11211,"Ġembedded":11212,">%":11213,")(\\":11214,"Ġdepict":11215,"esting":11216,"Ġprote":11217,"ĠCanadian":11218,"1960":11219,"Ġ#{":11220,"ctree":11221,"UMMARY":11222,"Ġgoverning":11223,"ynamics":11224,"Ġchampion":11225,"Ġdeviation":11226,"enty":11227,"Ġquadratic":11228,"gre":11229,"Win":11230,"Bi":11231,"stor":11232,"Ġgoogle":11233,"kins":11234,"ĠImmutable":11235,"ĠArgument":11236,"ĠChampionship":11237,"__.":11238,"Ġperturbation":11239,"Power":11240,"ĠSymfony":11241,"ailability":11242,"awn":11243,"ĠDouble":11244,"marker":11245,"Like":11246,"Ġdeploy":11247,"Fill":11248,"DED":11249,"agrangian":11250,"Ġscores":11251,"><!--":11252,"__[\"":11253,"Ġcivil":11254,"icago":11255,"Ġphases":11256,"Ġ/*!<":11257,"Literal":11258,"Coll":11259,"Ip":11260,"ĠUnit":11261,")^\\":11262,"perimental":11263,"irical":11264,"Ġlives":11265,"proc":11266,"Ġpp":11267,"Ġatoms":11268,"Ġshot":11269,"URN":11270,"Ġrepeat":11271,"UCT":11272,"Align":11273,"Ġvec":11274,"ronic":11275,"Îµ":11276,"ĠCast":11277,"Ġneutrino":11278,"Copyright":11279,"Ġmarg":11280,"ĠFilter":11281,"frames":11282,"ĠLicensed":11283,"Ġindicated":11284,"Ġgoog":11285,"corollary":11286,"ibraries":11287,"coll":11288,"Ġjet":11289,"folder":11290,"edu":11291,"ĠMov":11292,"Ġusername":11293,"CUR":11294,"sz":11295,"Subject":11296,"tract":11297,"Ġstrategies":11298,"ĠChange":11299,"Disk":11300,")}.":11301,"Ġwaiting":11302,"ĠWITHOUT":11303,"Ġdespite":11304,"igu":11305,"Ġsyntax":11306,"ĠBrown":11307,"ĠAlgorithm":11308,"MAGE":11309,"FP":11310,"'_{":11311,"Prob":11312,"Ġrare":11313,"features":11314,"atern":11315,"former":11316,"Ġclin":11317,"Ġ(%":11318,"Ġtick":11319,"wiki":11320,"unnel":11321,"Visual":11322,"Numer":11323,"ĠGeV":11324,"distribution":11325,"Tick":11326,"iso":11327,"Execute":11328,"Ke":11329,"getMessage":11330,"ĠObservable":11331,"Ġdaughter":11332,"Ġstatements":11333,"Ġloader":11334,"Put":11335,"Running":11336,"Ġhour":11337,"ĠServices":11338,"Ġdeclare":11339,"$.}":11340,"Contain":11341,"0000000":11342,"ä½":11343,"Ġdisp":11344,"scala":11345,"Functions":11346,"ĠMr":11347,"ĠMel":11348,"Ġtechnical":11349,"Uint":11350,"Changes":11351,"mathtt":11352,"ĠKEY":11353,"Ġpretty":11354,"processor":11355,"Mutable":11356,"Fake":11357,"Supp":11358,"references":11359,"BASE":11360,"Elem":11361,"ĠCD":11362,"unknown":11363,"Ġfluctuations":11364,"Ġlos":11365,"Ġ(!(":11366,"Ġcit":11367,"SUB":11368,"Ġnecessarily":11369,"Ġdecrease":11370,"Ġaim":11371,"Ġcompetition":11372,"Ġcollision":11373,"Bus":11374,"dn":11375,"LR":11376,"Src":11377,"NONE":11378,"dm":11379,"atre":11380,"Ġpolicies":11381,"roadcast":11382,"Ġrestriction":11383,"Ġconfirmed":11384,"Ġcauses":11385,"vect":11386,"strict":11387,"Ġspac":11388,"olo":11389,"conditions":11390,"ifference":11391,"Ġtimer":11392,"Ġannotation":11393,"urrence":11394,"John":11395,"ĠSuppose":11396,"')->":11397,"ounds":11398,"ARD":11399,"Stat":11400,"particle":11401,"ĠEven":11402,"ection":11403,"ints":11404,"112":11405,"Typ":11406,"Ġuintptr":11407,"onomy":11408,"Ġprocessed":11409,"Ġspot":11410,"Ġexplore":11411,"Cho":11412,"Ġmor":11413,"Ġencour":11414,"Where":11415,"rises":11416,"}^+":11417,"geometry":11418,"Ġpartners":11419,"BUILD":11420,"Ġkept":11421,"ĠSW":11422,"Ġinstrument":11423,"Ġatomic":11424,"Ġsensitive":11425,"aland":11426,"??":11427,"Î¹":11428,"Ġreduces":11429,"Ġtend":11430,"Ġcatalog":11431,"itely":11432,"nm":11433,"intro":11434,"Ġcentre":11435,"stroke":11436,"ĠCommission":11437,"Ġcommunities":11438,"ĠMont":11439,"})(":11440,"Ġsuppose":11441,"Ġ\"${":11442,"INIT":11443,"Ġwish":11444,"START":11445,"Merge":11446,"Ġexceed":11447,"itespace":11448,"Machine":11449,"Ġgravitational":11450,"density":11451,"ĠShort":11452,"ston":11453,"umni":11454,"transparent":11455,"Ġupload":11456,"Ð·":11457,"Wrap":11458,"Ġfif":11459,"Ġsch":11460,";|&":11461,"LAB":11462,"ĠAddress":11463,"reland":11464,"Ġdivision":11465,"pur":11466,"ĠLjava":11467,"Ġschedule":11468,"Ġworker":11469,"Extra":11470,"Ġsides":11471,"ĠTheir":11472,"prepare":11473,"ĠHiggs":11474,"Partition":11475,"ĠBuilder":11476,"Ġchoices":11477,"Radius":11478,"odies":11479,"substr":11480,"Best":11481,"Ġrig":11482,"Ġresidual":11483,"Ġsold":11484,"Kernel":11485,"Ġvanish":11486,"Ġbeaut":11487,"ĠHill":11488,"Ġplans":11489,"Metric":11490,"Ġconditional":11491,"ĠNSString":11492,"Ġpreser":11493,"Ġdirections":11494,"Monitor":11495,"\">(":11496,"ĠLouis":11497,"CN":11498,"ĠFourier":11499,"Ġdeb":11500,"Ġprototype":11501,"Ġms":11502,"rink":11503,"cost":11504,"Ġ\"_":11505,"Ġtrunc":11506,"/******/":11507,"heast":11508,"Servlet":11509,"ErrorCode":11510,"Ġemphas":11511,"Ġreturning":11512,"ĠCath":11513,"ĠTree":11514,"override":11515,"ĠLast":11516,"æķ":11517,"fall":11518,"itors":11519,"Ġdivided":11520,"Secret":11521,"ĠSyntax":11522,"ĠĠĠĠĠĠĠĠĠĠĠĠĠĠĠĠĠĠĠĠĊ":11523,"Ġ*,":11524,"dataset":11525,"Ġimm":11526,"spector":11527,"rv":11528,"Ġluminosity":11529,"Contract":11530,"adoc":11531,"ĠExpression":11532,"ona":11533,"cookie":11534,"Ġpolarization":11535,"dings":11536,"Ġnested":11537,"Ġaccum":11538,"Ġnotion":11539,"projects":11540,"Ġmarker":11541,"Created":11542,"Iss":11543,"Ġuniformly":11544,"Ġtemperatures":11545,"cv":11546,"Ġig":11547,"Ġreads":11548,"Ġboot":11549,"rog":11550,"stylesheets":11551,"aus":11552,"Ġintended":11553,"paths":11554,"Will":11555,"Styles":11556,"asketball":11557,"pipe":11558,"Ġrev":11559,"appings":11560,"]).":11561,"Ġquarter":11562,"ĠTABLE":11563,"cached":11564,"ĠPass":11565,"elcome":11566,"Dim":11567,"sych":11568,"ĠKIND":11569,"Ġphone":11570,"Ġ{*}":11571,"ĠVALIGN":11572,"Been":11573,"rat":11574,"invariant":11575,"ĠUsed":11576,"Ġwidely":11577,"ĠPeter":11578,"bucket":11579,"Ġgrand":11580,"Ġ.=":11581,"Side":11582,"igan":11583,"Ġiterations":11584,"tb":11585,"FAIL":11586,"scheme":11587,"ĠUk":11588,"HAL":11589,"Ġgeometric":11590,"Ġterr":11591,"Notes":11592,"UBLIC":11593,"Ġnarrow":11594,"Ġexpr":11595,"tempt":11596,"osis":11597,"urt":11598,"Accessor":11599,"scan":11600,"Cookie":11601,"ĠLcom":11602,"Ġflight":11603,"ousel":11604,"=#":11605,"RET":11606,"built":11607,"velope":11608,"keep":11609,"timeline":11610,"Ġsegments":11611,"ĠSUMMARY":11612,"placeholder":11613,"ifer":11614,"]=":11615,"Ġsparse":11616,"Ġuniversal":11617,"Quant":11618,"how":11619,"territ":11620,"good":11621,"111":11622,"Models":11623,"ĠGen":11624,"Upper":11625,"processing":11626,"Ġutils":11627,"Ġbucket":11628,"ĠTool":11629,"|$":11630,"ĠTeam":11631,"Ġcoupled":11632,"ĠLos":11633,"ĠPsi":11634,"Ġsolving":11635,"Setup":11636,"...)":11637,"Ġapparent":11638,"ĠCharles":11639,"ste":11640,"Into":11641,"sock":11642,"Ġsorted":11643,"ĠWill":11644,"ĠGovernment":11645,"BM":11646,"ĠDIS":11647,"ono":11648,"initialize":11649,"IME":11650,"Comb":11651,"Ġtemporal":11652,"zil":11653,"ĠSTART":11654,"iii":11655,"Ġartist":11656,"Ġredirect":11657,"_[":11658,"Ġ'</":11659,"ATURE":11660,"Ġextent":11661,"ĠRussia":11662,"ĠReal":11663,"scriber":11664,"'},":11665,"Ġscan":11666,"allest":11667,"ĠGLint":11668,"brand":11669,"OW":11670,"arity":11671,"Ġlisting":11672,"ĠGuide":11673,"ĠRecords":11674,"ĠShould":11675,"mdc":11676,"ĠMP":11677,"Ġrandomly":11678,"Ġstock":11679,"ĠDCHECK":11680,"vars":11681,"ÑĢÐµ":11682,"Ġvehicle":11683,"Ġuncertainties":11684,"textsf":11685,"Place":11686,"(\".":11687,"Ð°ÑĤ":11688,"Lite":11689,"Ġfounded":11690,"Break":11691,"Ġissu":11692,"Ġinference":11693,"ĠSpecial":11694,"TX":11695,"extends":11696,"ĠTRUE":11697,"ĠPan":11698,"aco":11699,"Ġemployed":11700,"Ġfav":11701,"Commit":11702,"Ġgoals":11703,"DELETE":11704,"Ġimprovement":11705,"Ġretrieve":11706,"Ġbroken":11707,"Ġinvoked":11708,"Activ":11709,"Algorithm":11710,"Ġeffectively":11711,"1983":11712,"ssible":11713,"Ġgrowing":11714,"ĠBank":11715,"äº":11716,"Ġinvolving":11717,"<>();":11718,"Ġatom":11719,"Zoom":11720,"ĠNull":11721,"192":11722,")}(\\":11723,"Ġ\")":11724,"Ġcharged":11725,"HOME":11726,"ĠSN":11727,"Ġoverlap":11728,"rollers":11729,"Ġfrequencies":11730,"ĠOffice":11731,"irus":11732,"ICATION":11733,"StringBuilder":11734,"UV":11735,"apl":11736,"ĠActive":11737,"cassandra":11738,"ĠSY":11739,"hentic":11740,"people":11741,"inos":11742,"Ġpowerful":11743,"ĠKn":11744,"About":11745,"ĠEnter":11746,"Ġexpectation":11747,"Ġformulation":11748,"Received":11749,"Ġideas":11750,"è¿":11751,"Ġnotification":11752,"Ġna":11753,"ĠtoString":11754,"Ġactor":11755,"tol":11756,"Ġnewly":11757,"lam":11758,"rable":11759,"ĠPower":11760,"uling":11761,"Ġsv":11762,"Ġcommercial":11763,"ĠInitialize":11764,"Validate":11765,"stackrel":11766,"Primary":11767,"Calendar":11768,"ĠMIT":11769,"Ġvarying":11770,"territory":11771,"etic":11772,"Alpha":11773,"solr":11774,"ĠĠĠĠĠĊ":11775,"hfill":11776,"ĠAnn":11777,"helpers":11778,"Serialization":11779,"`)":11780,"ÙĨ":11781,"Ġartists":11782,"optim":11783,"Ġvariant":11784,"|^{":11785,"lar":11786,"Ġadvers":11787,"ĠBill":11788,"ĠCP":11789,"Ġmission":11790,"Ġvacuum":11791,"hex":11792,"ĠGrand":11793,"asion":11794,"ĠPFNGL":11795,"ideos":11796,"UInt":11797,"quid":11798,"LD":11799,"()[":11800,"OFF":11801,"redirect":11802,"tomic":11803,"ĠBoard":11804,"ĠAdmin":11805,"pite":11806,"valueOf":11807,"ĠAust":11808,"utors":11809,"Ġsurround":11810,"ĠLake":11811,"Ġintegrated":11812,"\\|_":11813,"xsd":11814,"Ġelimin":11815,"bone":11816,"learning":11817,"Coin":11818,"ircraft":11819,"ĠRock":11820,"Ġrestricted":11821,"Ġcharacteristics":11822,"Ġconducted":11823,"ĠYoung":11824,"ĠEducation":11825,"Cref":11826,"Present":11827,"generic":11828,"Ġspecifically":11829,"ĠĠĠĠĠĠĠĠĠĠĠĠĠĠĠĠĠĠĠĠĠĠĠĠĠĠĠĠĠĠĠĠĠĠĠĠĠĠ":11830,"Ġrout":11831,"Feed":11832,"Destroy":11833,"Ġorig":11834,"During":11835,"oggle":11836,"Ġsmart":11837,"tasks":11838,"Popup":11839,"Ġvacc":11840,"BI":11841,"Ġenhance":11842,">$":11843,"Ġds":11844,"DTD":11845,"Ġtoward":11846,"Ġassignment":11847,"anda":11848,"\"])":11849,"Ġforced":11850,",...,":11851,"Ġts":11852,"midrule":11853,"Ġranges":11854,"MenuItem":11855,"ĠItem":11856,"ĉĉĉĉĉĉĉĉĉĉĉ":11857,"Ġscheduler":11858,"Ġinitialized":11859,"Ġlinked":11860,"ĠÐ½":11861,"extract":11862,"leftarrow":11863,"mux":11864,"ĠItalian":11865,"overset":11866,"Ġintegers":11867,"Ġ\\|\\":11868,"production":11869,"urer":11870,"Ġmanifest":11871,"ĠManagement":11872,"Ġsensitivity":11873,"ĠNE":11874,"ĠLanguage":11875,"cknowledg":11876,"Ġcoach":11877,"aby":11878,"aph":11879,"UA":11880,"Ġsnapshot":11881,"Lat":11882,"ĠCoq":11883,"unlock":11884,"Äį":11885,"GP":11886,".');":11887,"CV":11888,"Seconds":11889,"endpoint":11890,"Ġbold":11891,"Ġmodeling":11892,"Ġtwice":11893,"altColor":11894,"ĠNa":11895,"toctree":11896,"Contin":11897,"mathit":11898,"jackson":11899,"jsp":11900,"Compare":11901,"ĠCount":11902,"metic":11903,"SPACE":11904,"Ġpermut":11905,"three":11906,"uly":11907,"ĠCF":11908,"Ġstrictly":11909,"splice":11910,"lee":11911,"WARE":11912,"Push":11913,"}.}":11914,"Decoder":11915,"kubernetes":11916,"esture":11917,"ĠToken":11918,"odo":11919,"onom":11920,"ĠReport":11921,"Ġelected":11922,"ĠParis":11923,"ecycle":11924,"pagination":11925,"ccc":11926,"Ġshadow":11927,"\\!\\":11928,"ĠIll":11929,"Ġclients":11930,"ores":11931,"exclude":11932,"hello":11933,"$^":11934,"Ġdedu":11935,"ĠTimes":11936,"amous":11937,"Gui":11938,"Ġprintf":11939,"week":11940,"Ġwavelength":11941,"Factor":11942,"ĠCommittee":11943,"nol":11944,"Ġweighted":11945,"Ġwhom":11946,"Health":11947,"Ġseparation":11948,"nel":11949,"ione":11950,"Ġleaving":11951,"Ġleague":11952,"DataType":11953,"lementary":11954,"Nd":11955,"hal":11956,"Ġvote":11957,"speed":11958,"Ġlie":11959,"ĠJournal":11960,"gradle":11961,"ctrl":11962,"ĠHead":11963,"ĠCho":11964,"ĠRichard":11965,"ĠSocial":11966,"itionally":11967,"ustain":11968,"guide":11969,"&=\\":11970,"AK":11971,"archive":11972,"ĠSaf":11973,"reflect":11974,"Ġmaybe":11975,"Testing":11976,"Ty":11977,"Assign":11978,"Ġproduces":11979,"craft":11980,"Disabled":11981,"ĠConsole":11982,"Pred":11983,"ĠJavaScript":11984,"Ġsin":11985,"Suppress":11986,"\"/></":11987,"StatusCode":11988,"Ġinterpretation":11989,"MESS":11990,"Ġstories":11991,"nl":11992,"Ġbre":11993,"ĠInternal":11994,"linux":11995,"Ġsky":11996,"Ġcopyright":11997,"Plot":11998,"SPAN":11999,"Ġagree":12000,"jecture":12001,"Corre":12002,"ĠBob":12003,"Ġfitting":12004,"sym":12005,"Ġmath":12006,"ĠOptions":12007,"Ġefforts":12008,"Ġspeak":12009,"è¯":12010,"rient":12011,"Ġspeech":12012,"Ġaapt":12013,"BACK":12014,"Tools":12015,"lator":12016,"1982":12017,"Ġessentially":12018,"ĠLy":12019,"ĠHaw":12020,"boldmath":12021,"{(\\":12022,"ĠTrump":12023,"Ġsaying":12024,"ĠElect":12025,"bx":12026,"ĠsetTimeout":12027,"ĠDevelopment":12028,"Ġsummer":12029,"downarrow":12030,"earning":12031,"Ġlocale":12032,"abstract":12033,"gp":12034,"reducible":12035,"toEqual":12036,"iggers":12037,"Ġcryst":12038,"concurrent":12039,"Ġ--></":12040,"ĠGood":12041,"water":12042,"iden":12043,"rical":12044,"ntil":12045,"Ġstroke":12046,"Ġincome":12047,"merce":12048,"Certificate":12049,"Ġdefining":12050,"ĠMethods":12051,"130":12052,"Ġsimulated":12053,"10000":12054,"ĠWrit":12055,"percent":12056,"Ġstraightforward":12057,"preventDefault":12058,"Ġisinstance":12059,"Ġdrawn":12060,"!=":12061,"argv":12062,"Ġtang":12063,"ĠDesign":12064,"$'":12065,"ĠSpe":12066,"getClass":12067,"Ġwhenever":12068,"ĠEmber":12069,"Ġfirm":12070,"Ġreconstruction":12071,"utch":12072,"Fetch":12073,"ĠAli":12074,"ĠLI":12075,"xff":12076,"âĶ":12077,"ĠBusiness":12078,"Äģ":12079,"Shadow":12080,"ARGET":12081,"Sets":12082,"vements":12083,"Ġopportunity":12084,"TypeDef":12085,"Ġutility":12086,"spi":12087,"Ġserious":12088,"Arrays":12089,"Phaser":12090,"Ġstations":12091,"PARAM":12092,"floor":12093,"Ġreaction":12094,"describe":12095,"rgb":12096,"Ġcollapse":12097,"]),":12098,"uts":12099,"FilePath":12100,"ĠDig":12101,"onald":12102,"SSION":12103,"lides":12104,"nos":12105,"Please":12106,"Asset":12107,"uparrow":12108,"Relative":12109,"Slice":12110,"dating":12111,"linked":12112,"configure":12113,"Ġvocal":12114,"Completion":12115,"/)":12116,"Hook":12117,"sha":12118,"Exit":12119,"eclipse":12120,"usal":12121,"Ġsea":12122,"cean":12123,"ĠSP":12124,"Ġcompile":12125,"Transfer":12126,"pal":12127,"Ġcommonly":12128,"samples":12129,"ributed":12130,"}{{\\":12131,"ĠIllegalArgumentException":12132,"HAS":12133,"}^{+":12134,"Ġnom":12135,"ĠTwitter":12136,"icular":12137,"Ġchance":12138,"Ġdomains":12139,"Ġcaref":12140,"amin":12141,"Hello":12142,"Ġfee":12143,"Bitmap":12144,"Ġbuildings":12145,"Integ":12146,"Ġrich":12147,"THER":12148,"Ġcritic":12149,"PDF":12150,"BER":12151,"fac":12152,"MEM":12153,"was":12154,"Ġaddr":12155,"]['":12156,"Shift":12157,"letes":12158,"Ġpref":12159,"ĠPrint":12160,"ishing":12161,"ĠInstead":12162,"vb":12163,"Anchor":12164,"versions":12165,"RS":12166,"imately":12167,"{|":12168,"latest":12169,"amazonaws":12170,"ĠWomen":12171,"overlay":12172,"Ġtrim":12173,"multline":12174,"acks":12175,"Design":12176,"EventArgs":12177,"+\"":12178,"disk":12179,"Cons":12180,"iced":12181,"metrics":12182,"Ġvoice":12183,"Ġdecor":12184,"Picker":12185,"ĠFILE":12186,"Ġru":12187,"setting":12188,"Ġsphere":12189,"azure":12190,"ĠERR":12191,":/":12192,"Ġreceiving":12193,"ĠGeorg":12194,"Backend":12195,"Ġcri":12196,"through":12197,"aturally":12198,"Ġaudi":12199,"Ġversus":12200,"Ġenjoy":12201,"anes":12202,"Ġ\\[":12203,"ĠMany":12204,"Suite":12205,"Ġchallenges":12206,"governor":12207,"GRO":12208,"ĠEm":12209,"indices":12210,"Ġfilled":12211,"ĠAD":12212,"ĠClasses":12213,"Dict":12214,"Ġended":12215,"Ġsender":12216,"Ġproportional":12217,"Have":12218,"textarea":12219,"containers":12220,"Alert":12221,"days":12222,"Ġing":12223,"Î½":12224,"ĠKar":12225,"Ġcollege":12226,"ViewController":12227,"Ġful":12228,"conduct":12229,"Ġabort":12230,">${":12231,"Constraints":12232,"ventory":12233,"ĠDateTime":12234,"ĠparseInt":12235,"Ġmoves":12236,"Ġsy":12237,"cla":12238,"Culture":12239,"ĠZealand":12240,"[]{":12241,"Ġsubscription":12242,"Ġconsisting":12243,"Ġremember":12244,"Ġtrial":12245,"AMP":12246,"ĠFeature":12247,"charts":12248,"Ġprogramming":12249,"Ġvisibility":12250,"Original":12251,"~(\\":12252,"iable":12253,"Safe":12254,"ĠOh":12255,"textup":12256,"Ġsurfaces":12257,"Ġii":12258,"Ġanalytic":12259,"Ġunderst":12260,"ĠBasic":12261,"TableRow":12262,"ĠArea":12263,"Ġperspective":12264,"ady":12265,"Ġtf":12266,"Pane":12267,"çĶ¨":12268,"GeV":12269,"%)":12270,"Defined":12271,"Ġ\");":12272,"Der":12273,"arial":12274,"åĬ":12275,"Produ":12276,"atable":12277,"Ġmur":12278,"signal":12279,"_{+":12280,"Ġ\";":12281,"CDATA":12282,"ĠVan":12283,"except":12284,"Uses":12285,"pearance":12286,"Ġhex":12287,"=\\{":12288,"Pending":12289,"mbed":12290,"}],":12291,"Ġthous":12292,"Ġbenefit":12293,"Ġdensities":12294,"Ġdiffusion":12295,"1979":12296,"dependencies":12297,"iÃ³n":12298,"etc":12299,"Ġisot":12300,"(\"./":12301,"Fixture":12302,"!</":12303,"Although":12304,"Without":12305,"Ġdistances":12306,"ĠSty":12307,"HAND":12308,"schemas":12309,"Ġgenerates":12310,"ĠSize":12311,"NON":12312,"Ġspl":12313,"Neg":12314,"Ñĸ":12315,"acer":12316,"arian":12317,"Replace":12318,"Ġadds":12319,"Ġaux":12320,"Score":12321,"yer":12322,"Seq":12323,"Ġali":12324,"awesome":12325,"ĠPolicy":12326,"Ġrequirement":12327,"Ġuniqu":12328,"Ġlaunched":12329,"Ġaspects":12330,"Ġvariations":12331,"ratio":12332,"Ġfinds":12333,"å¤":12334,"Ġtracking":12335,"renderer":12336,"Ġschemes":12337,"ĠGrid":12338,"Slot":12339,"002":12340,"notification":12341,"fluid":12342,"priority":12343,"{})":12344,"Ġmolecular":12345,"ĠSecret":12346,"nc":12347,"RB":12348,"Mag":12349,"indu":12350,"They":12351,"ancellationToken":12352,"enance":12353,"party":12354,"ĠSaint":12355,"ĠSi":12356,"anches":12357,"ĠRow":12358,"Ġpractical":12359,"Ġbreaking":12360,"Ġanalyze":12361,"Ġderivatives":12362,"Ġdecreases":12363,"rand":12364,"ĠPerson":12365,"TM":12366,"Ġhalo":12367,"tuple":12368,"ceptor":12369,"NECT":12370,"stri":12371,"ĠGLenum":12372,"Ratio":12373,"itan":12374,"Mixin":12375,"reverse":12376,"Doctrine":12377,"Ġforest":12378,"UAL":12379,"buttons":12380,"ubb":12381,"entries":12382,"ĠFre":12383,"Ġacade":12384,"ĠSund":12385,"tick":12386,"Ġincrement":12387,"Ġsupply":12388,"Ġconjug":12389,"Ġrc":12390,"Ġcaptured":12391,"Ġacting":12392,"Foo":12393,"Ġ$^{":12394,"Ġadvance":12395,"ĠDM":12396,"360":12397,">[":12398,"Ġcomm":12399,"ulating":12400,"innerHTML":12401,"ĠTechnology":12402,"invert":12403,"ĠChicago":12404,"instein":12405,"inverse":12406,"Ġfigures":12407,"compact":12408,"ĠFlorida":12409,"ĠUSA":12410,"ĠTer":12411,"CHAN":12412,"Ùħ":12413,"added":12414,"ĠDirector":12415,"incipal":12416,"$^{":12417,"Ġbur":12418,"enger":12419,"sources":12420,"Ġadjacent":12421,"ĠIreland":12422,"!\"":12423,"?(":12424,"Ġlogin":12425,"Ġbrother":12426,"Ġdy":12427,"dbc":12428,"Separator":12429,"Ġdescribing":12430,"Ġcellpadding":12431,"ELEMENT":12432,"Another":12433,"Blocks":12434,"Ġendif":12435,"ĠAws":12436,"ĠĠĠĠĠĠĠĠĠĠĠĠĠĠĠĠĠĠĠĠĠĠĠĠĠĠĠĠĠĠĠĠĠĠĠĠĠĠĠĠĠĠĠĠĠĠĠĠĠĠĠ":12437,"Ġthreat":12438,"ĠSC":12439,"hole":12440,"Ġdemonstrated":12441,"INDEX":12442,"beans":12443,"Ġcompression":12444,"$\\\\":12445,"rintf":12446,"Ġpanels":12447,"BLOCK":12448,"Ġray":12449,"sharp":12450,"Tracker":12451,"Ġreflection":12452,"Ġconclusion":12453,"Country":12454,"Ġsemantic":12455,"separator":12456,"Parts":12457,"################################":12458,"SPE":12459,"iana":12460,"1981":12461,"Ġtrajectory":12462,"AVE":12463,"Old":12464,"itHub":12465,"Ġextremely":12466,"hang":12467,"mutex":12468,"manifest":12469,"wallet":12470,"ĠNative":12471,"Ġmanip":12472,"ĠBAS":12473,"Ġinform":12474,"reatest":12475,"clock":12476,"Ġmoments":12477,"Ġ')":12478,"Ġeveryone":12479,"Ġdeclared":12480,"Ġ'[":12481,"steps":12482,"102":12483,"Ġprepar":12484,"COUNT":12485,"Fac":12486,"Ġconfigured":12487,"multiple":12488,"TOM":12489,"Ġauthentication":12490,"Ġhardware":12491,"Ġelectrons":12492,"Ġalignment":12493,"ĠVirginia":12494,"Ġdiscovered":12495,"ĠReview":12496,"Ġmesh":12497,"solution":12498,"Ġthin":12499,"Tensor":12500,"Ġadvanced":12501,"Ġadvert":12502,"antly":12503,"Ġresponses":12504,"scripts":12505,"faster":12506,"ĠOld":12507,"Ġappointed":12508,"ĠCross":12509,"Extract":12510,"Ġ\"[":12511,"Press":12512,"NameLink":12513,"train":12514,"Ġremained":12515,"glob":12516,"atom":12517,"newline":12518,"Ġshoot":12519,"erg":12520,"regex":12521,"Operations":12522,"ĠCard":12523,"Qt":12524,"propto":12525,"Ġalbums":12526,"codec":12527,"ĠParameters":12528,"Coord":12529,"Week":12530,"Ġsecure":12531,"cpu":12532,"}[!":12533,"ĠSpanish":12534,"dimension":12535,"Ġordering":12536,"Cr":12537,"Ġ//!":12538,"andbox":12539,"Ġmm":12540,"eller":12541,"Ġwinning":12542,"ĠLee":12543,"Ġjobs":12544,"ĠTry":12545,"}{*}{":12546,"ĠRecord":12547,"Ġ&$":12548,"half":12549,"Ġsimilarity":12550,"ĠEner":12551,"registry":12552,"Ġpolynomials":12553,"Ġ\\{\\":12554,"Ġcond":12555,"ĠSpace":12556,"geles":12557,"--;":12558,"Clean":12559,"Ġeasier":12560,"Try":12561,"smallskip":12562,"Ġguitar":12563,"Ġimmediate":12564,"Ġpotentially":12565,"Ġplas":12566,"Ġpin":12567,"servative":12568,"ications":12569,"ĠEvery":12570,"aka":12571,"']))":12572,"ynchronous":12573,"REQUEST":12574,"Ġcorrelations":12575,"cu":12576,"Ġclimate":12577,"Ġorbital":12578,"Ġassociation":12579,"TEXTURE":12580,"ĠAcc":12581,"Ġrejected":12582,"iline":12583,"branch":12584,"dv":12585,"Ġoil":12586,"Ġintervals":12587,"commun":12588,"andemic":12589,"Ġtot":12590,"Structure":12591,"ĠMatrix":12592,"Ġencoder":12593,"Instruction":12594,"fort":12595,"Sol":12596,"Ġ_{\\":12597,"Ġcomparing":12598,"Disposable":12599,"Ġroles":12600,"inetic":12601,"Ġconsumer":12602,"Std":12603,"servlet":12604,"ĠIF":12605,"ĠAnother":12606,"------------------------------------------------":12607,"olate":12608,"Ġdiagrams":12609,"googleapis":12610,"ĠHashMap":12611,"ĠĠĠĠĠĠĠĠĠĠĠĠĠĠĠĠĠĠĠĠĠĠĠĠĠĠĠĠĠĠĠĠĠĠĠĠĠĠĠĠ":12612,"ĠSummer":12613,"'=":12614,"Ġcontribute":12615,"ĠLagrangian":12616,"Ġice":12617,"SUP":12618,"ĠProp":12619,"Ġwarn":12620,"Ġtransverse":12621,"Ġdriving":12622,"ĠConstructor":12623,"Ġleaf":12624,"nodeName":12625,"ĠSymbol":12626,"}/\\":12627,"Ġaware":12628,"icky":12629,"Ġpackages":12630,"invoke":12631,"ĠSU":12632,"]</":12633,"Ġtransp":12634,"404":12635,"theless":12636,"Ġsimilarly":12637,"EEE":12638,"same":12639,"Ġinclusion":12640,"psline":12641,"Ġorthogonal":12642,"Äĩ":12643,"ISE":12644,"Topic":12645,"ĠCongress":12646,"Ġquot":12647,"Ïĥ":12648,"oved":12649,"$-$":12650,"Ġrefresh":12651,"Entries":12652,"driv":12653,"icing":12654,"Ġ[{":12655,"Ġflush":12656,"Ġrobot":12657,"OBJECT":12658,"hyper":12659,"Detector":12660,"Ġcfg":12661,"acific":12662,"Ġbattle":12663,"Modifier":12664,"Ġrevealed":12665,"Ġhomogeneous":12666,"ori":12667,"Apply":12668,"running":12669,"azz":12670,"Ġbrand":12671,"LT":12672,"ĠSimilarly":12673,"Ġsan":12674,"ĠAttribute":12675,"[_":12676,"Ġbudget":12677,"ĠPeople":12678,"Ġtransformations":12679,"Ġmach":12680,"ĠSl":12681,"ctors":12682,"Ġfarm":12683,"Sheet":12684,"gluon":12685,"Ġpeer":12686,"Ġchecking":12687,"ĠVictor":12688,"ĠUnless":12689,"cient":12690,"Ġhor":12691,"!(":12692,"NGTH":12693,"Ġxhr":12694,"problem":12695,"Modules":12696,"phy":12697,"stub":12698,"tokens":12699,"best":12700,"udit":12701,"ĠBur":12702,"}{}":12703,"ĠRoute":12704,"Multiple":12705,"umed":12706,"Ġentang":12707,"=\"{{":12708,"ĠMur":12709,"////////////////////////////////////////////////////////////////":12710,"Components":12711,"ulp":12712,"Ġtile":12713,"Ġreplacement":12714,"Ġboundaries":12715,"changes":12716,"SERVER":12717,"](#":12718,"Ġcontinuum":12719,"Ġhook":12720,"Ġcellspacing":12721,"comments":12722,"Ġgit":12723,"binom":12724,"Ġelectronic":12725,"ĠOnce":12726,"Ġalgebraic":12727,"Ġnumerous":12728,"Ġportion":12729,"Ġdiagnost":12730,"Ġentities":12731,">';":12732,"ĠInit":12733,"\"?>":12734,"Ġrendered":12735,"Ġabsorption":12736,"Ġclaims":12737,"ressions":12738,"Credentials":12739,"Ġlabor":12740,"textnormal":12741,"Ġrecognition":12742,"Ġmun":12743,"Ġabsence":12744,"CMD":12745,"/#":12746,"Updated":12747,"Ġinterior":12748,"Ġroots":12749,"lr":12750,"Ġconcat":12751,"*>(":12752,"ĠMartin":12753,"æĺ":12754,"defineProperty":12755,"resolution":12756,"ITLE":12757,"scriptions":12758,"dicated":12759,"Ġdecode":12760,"ĠEcon":12761,"Ġproducer":12762,"ĠEquation":12763,"Ġintent":12764,"chrome":12765,"attery":12766,"TagName":12767,"Ġarticles":12768,"Ġkw":12769,"ĠCorollary":12770,"Ġpredicate":12771,"Ġcounts":12772,"Ġhelps":12773,"separ":12774,"Ġreasonable":12775,"\\}.":12776,"ensors":12777,"paramref":12778,"ushed":12779,"apple":12780,"including":12781,"Ġorganized":12782,"Ġturb":12783,"uclide":12784,"Css":12785,"Ġdirective":12786,"ĠHot":12787,"Ġinvestigation":12788,"Hy":12789,"gets":12790,"stic":12791,"140":12792,"ester":12793,"MASK":12794,"Ġcallbacks":12795,"Ġincident":12796,"Ġrespective":12797,"SUCCESS":12798,"ĠCA":12799,"Ġhorizon":12800,"Ġremoves":12801,"must":12802,"Ġdeferred":12803,"Ġpal":12804,"ĠMC":12805,"Sprintf":12806,"fav":12807,"ĠMember":12808,"hematical":12809,"Keyword":12810,"arden":12811,">(<":12812,"Ġcert":12813,"descriptor":12814,"Ġincorrect":12815,"Ġrefers":12816,"marshal":12817,"ĠGET":12818,"ĠCache":12819,"Ġaward":12820,"ĠAngeles":12821,"Ġhandlers":12822,"Ġmal":12823,"NdEx":12824,"Ġalter":12825,"105":12826,"angles":12827,"gov":12828,"ĠEnvironment":12829,"stringify":12830,"bat":12831,"ĠTour":12832,"sip":12833,"usage":12834,"DEC":12835,"Ġterminal":12836,"tv":12837,"lined":12838,"elligence":12839,"Ġprepare":12840,"Ġfederal":12841,"rotate":12842,"aped":12843,"Ġpropagation":12844,"utter":12845,"riage":12846,"Ġpara":12847,"Angle":12848,"Ġcompilation":12849,"compress":12850,"utation":12851,"{.":12852,"Payload":12853,"iemann":12854,"rictions":12855,"Ġneutron":12856,"ĠÅ":12857,"ABILITY":12858,"Ġratios":12859,"FIL":12860,"lb":12861,"given":12862,"Ġhandled":12863,"cas":12864,"ĠMexico":12865,"Ġiget":12866,"VO":12867,"ĠItaly":12868,"FTWARE":12869,"Retry":12870,"encing":12871,"ĠDA":12872,"Ġlikelihood":12873,"holds":12874,"Ġrecommended":12875,"ĠOk":12876,"ĠĠĠĠčĊ":12877,"Ġzoom":12878,"Ġbecoming":12879,"ĠDev":12880,"ĠCC":12881,"Ġclosure":12882,"includes":12883,"Occ":12884,"packages":12885,"Ġinvert":12886,"Ġpreferred":12887,"})^{":12888,"ortunately":12889,"ĠCNN":12890,"alley":12891,"Pojo":12892,"Ġregistry":12893,"Ġsystematic":12894,"tables":12895,"1978":12896,"filled":12897,"ROOT":12898,"Ġinvestigated":12899,"physical":12900,"Ġindust":12901,"live":12902,"acon":12903,"Propag":12904,"Ġsegmentation":12905,"ĠArts":12906,"\\},":12907,"ĠFootball":12908,"Ġblood":12909,"versal":12910,"Ok":12911,"dirname":12912,"iy":12913,"ĠBlue":12914,"uclidean":12915,"Ġclustering":12916,"ermi":12917,"Ġenvironments":12918,"rowsers":12919,"Ġfloor":12920,"maj":12921,"Ġsolved":12922,"Camera":12923,"ban":12924,"rehen":12925,"Ġ~\\":12926,"bounded":12927,"ĠStore":12928,"Ġcrucial":12929,"secret":12930,"ĉĉčĊ":12931,"cher":12932,"okes":12933,"1976":12934,"alty":12935,"solid":12936,"Sig":12937,"Ġwants":12938,"Bbb":12939,"Ġnation":12940,"III":12941,"&&\\":12942,"legend":12943,"Ġperforms":12944,"estim":12945,"Ġhistorical":12946,"getTime":12947,"iframe":12948,"ando":12949,"Strings":12950,"ĠWHERE":12951,"nodeType":12952,"ĠFilm":12953,"stderr":12954,"ĠWay":12955,"Ġpartner":12956,"Unique":12957,"Ġinnov":12958,"Inject":12959,"Am":12960,"TIM":12961,"Ġslide":12962,"Req":12963,"ĠMajor":12964,"Ġfeatured":12965,"Ġsensor":12966,"Ġnotes":12967,"Ġearn":12968,"Ġsentence":12969,"ĠCS":12970,"ĠFire":12971,"lastic":12972,"Phase":12973,"setText":12974,"atest":12975,"ĠPrivate":12976,"(`":12977,"partition":12978,"Ġpoll":12979,"ĠCONDITION":12980,"Ġ}));":12981,"Ġther":12982,"packet":12983,"]];":12984,"Ġinitialization":12985,"aneous":12986,"Sources":12987,"STM":12988,"ĠChrome":12989,"ordinates":12990,"microsoft":12991,"Ġfra":12992,"Ġprivacy":12993,"Ġfru":12994,"ĠGenerated":12995,".\")":12996,"}},\\":12997,":%":12998,"mms":12999,"Ġdivis":13000,"Ġrepresentative":13001,"ĠAllow":13002,"Respon":13003,"ĠResults":13004,"romagnetic":13005,"idi":13006,"Ġdamage":13007,"Ġsubmit":13008,"evt":13009,"Cross":13010,"104":13011,"Ġplanning":13012,"ĠTre":13013,"Ïģ":13014,"Ġ!(":13015,"Ġexcess":13016,"PREFIX":13017,"WriteLine":13018,"Ġreconstruct":13019,"Ġlocalized":13020,"Ġclosely":13021,"})=\\":13022,"Ġsimultaneously":13023,"ĠRam":13024,"Ġcircuit":13025,"Ġdedicated":13026,"ĠMA":13027,">.</":13028,"ĠTypeError":13029,"ĠDefine":13030,"ella":13031,"Ġaugment":13032,"thead":13033,"Ġcircum":13034,"Ġblob":13035,"Ġestimator":13036,"æĪ":13037,"Ġwrapped":13038,"Ġtried":13039,"ElementsBy":13040,"Rob":13041,"ĉĠĠĠĠĠĠĠĠĠ":13042,"Ġannual":13043,"ADDING":13044,"ICAg":13045,"Emitter":13046,"defn":13047,"Ġpartially":13048,"ĠCy":13049,"Ġcontinues":13050,"NaN":13051,"Ġtight":13052,"\\[\\":13053,"Excel":13054,"Subscription":13055,"Ġlaser":13056,"bars":13057,"MESSAGE":13058,"Checked":13059,"Modal":13060,"Ġopin":13061,">{":13062,"ĠApple":13063,"sWith":13064,"ĠMS":13065,"ĠPut":13066,"Ġinterview":13067,"allowed":13068,"ipient":13069,"Ġran":13070,"Linked":13071,"Ġposterior":13072,"Ġrestore":13073,"WORK":13074,"aturday":13075,"Ġcredit":13076,"forming":13077,"wan":13078,"ionic":13079,"Ġ\"./":13080,"Ġflows":13081,"ĠSwed":13082,"Pipeline":13083,"1950":13084,"Strip":13085,"Annotations":13086,"abet":13087,"Ġsubspace":13088,"Ġsmallest":13089,"Ġcircular":13090,"ĠEC":13091,"Ø¯":13092,"ĠCHE":13093,"ĠStringBuilder":13094,"ĠJe":13095,"Ġparties":13096,"precision":13097,"Assignment":13098,"apps":13099,"ĠDeta":13100,"Called":13101,"ĠBre":13102,"riday":13103,"RM":13104,"ĠFI":13105,"1977":13106,"Ġpercentage":13107,"Ġlaws":13108,"dual":13109,"slot":13110,"Intent":13111,"emy":13112,"Ġdominant":13113,"four":13114,"ockey":13115,"schedule":13116,"undles":13117,"ĠEnergy":13118,",\"./":13119,"Ġbridge":13120,"Ġcookie":13121,"Ġroughly":13122,"Ġcustomer":13123,"Also":13124,"Ġintroduction":13125,"reci":13126,"osoph":13127,"Mail":13128,"ĠEntity":13129,"Visitor":13130,"ĠUSE":13131,"Ġsimplicity":13132,"both":13133,"sen":13134,"AppCompat":13135,"without":13136,"ĠBASIS":13137,"Ġirreducible":13138,"ĠProperties":13139,"iate":13140,"|_":13141,"ivari":13142,"\"}":13143,"]^":13144,"VD":13145,"ipart":13146,"ĠFi":13147,"antics":13148,"ĉĠĠĠĠĠĠĠĠĠĠĠĠĠĠĠĠĠĠĠ":13149,"tre":13150,"caret":13151,"ORS":13152,"()\">":13153,"Ġsales":13154,"ĠAP":13155,"Ġpayment":13156,")_{\\":13157,".(":13158,"unitPattern":13159,"Ġbillion":13160,"Ġoffered":13161,"ĠPM":13162,"Fi":13163,"FRAME":13164,"ĠCorpor":13165,"âĶĢ":13166,"ĠCONDITIONS":13167,"ĠIgn":13168,"Ã¢":13169,"Ġvort":13170,"Inline":13171,"Ġattrib":13172,"jk":13173,"usted":13174,"Ġcustomers":13175,"responsive":13176,"Ġpil":13177,"Ant":13178,"iano":13179,"iful":13180,"fun":13181,"Include":13182,"tainment":13183,"tour":13184,"Ġregex":13185,"rated":13186,"ĠĠĠĠĠĠĠĠĠĠĠĠĠĠĠĠĠĠĠĠĠĠĠĠĠĠĠĠĠĠĠĠĠĠĠĠĠĠĠĠĠ":13187,"gc":13188,"Ġ$('#":13189,"Ġdaily":13190,"Ġcloser":13191,"Threshold":13192,"Ġillustrated":13193,"FileSystem":13194,"Ġprotection":13195,">/":13196,"veral":13197,"dtd":13198,"shaller":13199,"ĠCatholic":13200,"Ġoutline":13201,"Ġfan":13202,"FORMAT":13203,"ĠDraw":13204,"ontable":13205,"Getter":13206,"varrho":13207,"noframe":13208,"fasterxml":13209,"valued":13210,"Reflection":13211,"Ġsociety":13212,"getText":13213,"Ġidentification":13214,"vet":13215,"MLElement":13216,"Ġwit":13217,"RIGHT":13218,"........":13219,"Ġcharacterized":13220,"Ġwat":13221,"Ġattempts":13222,"Ġmapped":13223,"Sco":13224,"Ġ\"+":13225,"ĠFore":13226,"NI":13227,"Ġrs":13228,"MIT":13229,"Ġpapers":13230,"Ġdispersion":13231,"Ġorganizations":13232,"Ġfelt":13233,"Ġrectangle":13234,"Ġinvolves":13235,"rn":13236,"iliary":13237,"shop":13238,"Ġcertificate":13239,"Ġbenefits":13240,"Kn":13241,"1975":13242,"qual":13243,"Ġprobabilities":13244,"Ġwindows":13245,"Ġ(`":13246,"Ġattach":13247,"ĠÐ´":13248,")}$.":13249,"Ġpresents":13250,"ishop":13251,"ĠOperation":13252,"Ġisland":13253,"lm":13254,"seed":13255,"Bel":13256,"sizei":13257,"controls":13258,"Proposition":13259,"Ġthr":13260,"ĉĉĉĉĉĊ":13261,"nonatomic":13262,"subequations":13263,"Ġfre":13264,"Hom":13265,"ÐµÑĤ":13266,"xf":13267,"Ġleaders":13268,"aaaa":13269,"ĠBal":13270,"eed":13271,"Bridge":13272,"OTTOM":13273,"ightarrow":13274,"Ġphil":13275,"Ġclaimed":13276,"144":13277,"HD":13278,"SVG":13279,"future":13280,"ĠGenerate":13281,"ociated":13282,"acement":13283,"ĠJob":13284,"SPAC":13285,"DataSource":13286,"Cs":13287,"Ġfits":13288,"leave":13289,"esides":13290,"relation":13291,"ĠWal":13292,"\\}_{":13293,"118":13294,"Ġcarbon":13295,"Ġpm":13296,"Ġcancer":13297,"ĠCarlo":13298,"Receive":13299,"Ġexclude":13300,"Ġenables":13301,"Ġprimarily":13302,"iper":13303,"Ġiterate":13304,"1972":13305,"Gateway":13306,"Ġremoving":13307,"leqslant":13308,"Ġ}{\\":13309,"bigcup":13310,"ĠTEST":13311,"preview":13312,"×ķ":13313,"Ġowned":13314,"Inspector":13315,"Bigg":13316,"Ġaircraft":13317,"lua":13318,"ĠCur":13319,"HL":13320,"developer":13321,"Ġsleep":13322,"rick":13323,"ulner":13324,"ĠBad":13325,"`:":13326,"GLA":13327,"vable":13328,"1974":13329,"Pages":13330,"ple":13331,"visor":13332,"Foot":13333,"ĠCarolina":13334,"swing":13335,"Large":13336,"Percent":13337,"ĠRegion":13338,"ĠBol":13339,"Ġparsing":13340,"Face":13341,"Ġbegins":13342,"æķ°":13343,"eting":13344,"ĠSta":13345,"ĠEst":13346,"NP":13347,"Foundation":13348,"ativ":13349,"cyc":13350,"atile":13351,"Ġnine":13352,"environment":13353,"ador":13354,"Sing":13355,"liz":13356,"Ġconsec":13357,"Ġvalu":13358,"independent":13359,"Ġconvenient":13360,"Ġfib":13361,"Ġcounty":13362,"ila":13363,"Refresh":13364,"Fat":13365,"Ġgather":13366,"Hidden":13367,"Forward":13368,"blocks":13369,"ĠMatch":13370,"temporary":13371,"Ġfabric":13372,"ĠFestival":13373,"oy":13374,"WRITE":13375,"UMENT":13376,"verbose":13377,"Ġreward":13378,"ĠHam":13379,"ĠInternet":13380,"Ġconsistency":13381,"Ġ**/":13382,"Ġlens":13383,"Encoder":13384,"ĠConstruct":13385,"Ġhr":13386,"LENGTH":13387,"Persistent":13388,"Ġinstructions":13389,"Ġhuge":13390,"Filename":13391,"BD":13392,"nam":13393,"Ġcities":13394,"Surface":13395,"ĠEv":13396,"inator":13397,"Don":13398,"ĠSem":13399,"&=&\\":13400,"116":13401,"Ġpatient":13402,"amond":13403,"raine":13404,"Ġstudio":13405,"ĠOCaml":13406,"Ġwood":13407,"Ġtemporary":13408,"Ġhus":13409,"ĠEnable":13410,"Ġuniverse":13411,"ĠAdded":13412,"Ġnaturally":13413,"Generate":13414,"ĠHenry":13415,",(":13416,"ĠMulti":13417,")}$,":13418,"resolved":13419,"Router":13420,"life":13421,"atype":13422,"Ġcoast":13423,"Ali":13424,"Ġfeas":13425,"PROPERT":13426,"diction":13427,"ĠML":13428,"Ġthanks":13429,"Ġmodification":13430,"retval":13431,"matic":13432,"Ġ{$\\":13433,"tage":13434,"existing":13435,"pipeline":13436,"ongs":13437,"ĠJones":13438,"news":13439,"Ġsun":13440,"Ġinduction":13441,"Sta":13442,"ÑĨ":13443,"Ġentirely":13444,"Ġrhs":13445,"Ġperhaps":13446,"stud":13447,"'):":13448,"Ġfunctionality":13449,"domin":13450,"ĠDatabase":13451,"Ġhelped":13452,"Ġdropped":13453,"Ġdeprecated":13454,"don":13455,"scheduler":13456,"isFunction":13457,"between":13458,"ĠBORDER":13459,"Ġfashion":13460,"ativity":13461,"Ġstores":13462,"Redu":13463,"Hide":13464,"ĠImport":13465,"listeners":13466,"Behavior":13467,"Ġmanag":13468,"pd":13469,"*\\":13470,"into":13471,"Ġele":13472,"ĠHuman":13473,"Ġscoped":13474,"training":13475,"Ġdescent":13476,"LOB":13477,"Ġrenderer":13478,"Peer":13479,"UC":13480,"ĠUP":13481,"Ġ'{":13482,"OPTION":13483,"Ġnearby":13484,"subscription":13485,"WH":13486,"MSG":13487,"typ":13488,"cessed":13489,"Ġadapter":13490,"Tables":13491,"trightarrow":13492,"Ġhybrid":13493,"price":13494,"Ġprimitive":13495,"1973":13496,"DMA":13497,"syn":13498,"ĠSET":13499,"Unexpected":13500,"Ġnormalization":13501,"Ġgenus":13502,"ĠWeek":13503,"determin":13504,"Ġaccounts":13505,":&":13506,"Ġmit":13507,"%\"><":13508,"Ġprem":13509,"ĠFact":13510,"Ġalumni":13511,"('../":13512,"Ġ<?":13513,"}$\\":13514,"StackTrace":13515,"è®":13516,"ĠRequired":13517,"Ġmerged":13518,"Ġspecifies":13519,"Stage":13520,"Scan":13521,"iminal":13522,"LEV":13523,"Ġ(!$":13524,"urney":13525,"Ġretrie":13526,"Ġstationary":13527,"Ġcc":13528,"door":13529,"urban":13530,"Ġcovariance":13531,"ĠRegExp":13532,"Ġaw":13533,"Warnings":13534,"ĠCPU":13535,"Ġprobe":13536,"CRIPT":13537,"ĠLove":13538,"Ġcolon":13539,"spark":13540,"Ġrendering":13541,"Ġproposition":13542,"visit":13543,"Ġeigenvalue":13544,"Ġstuff":13545,"aug":13546,"csv":13547,"Ġsynthetic":13548,"ĠJun":13549,"Ġlabeled":13550,"Ġimply":13551,"Ġcold":13552,"demo":13553,"ithmetic":13554,"variables":13555,"Used":13556,"GLenum":13557,"Could":13558,"Ġconcentration":13559,"Ġrelationships":13560,"Ġresonance":13561,"Ġfans":13562,"sex":13563,"codes":13564,"ĠÐº":13565,"zo":13566,"mime":13567,"ganization":13568,"Ġcolour":13569,"MAN":13570,"ĠHon":13571,"Ġguarantee":13572,"PFNGL":13573,"Ġguest":13574,"Commun":13575,"Ġempirical":13576,"Ġthreads":13577,"ĠTHIS":13578,"idential":13579,"Ġdominated":13580,"Millis":13581,"\\-":13582,"enario":13583,"iant":13584,"Ġintersect":13585,"Ġpieces":13586,"ĠMen":13587,"ĠWood":13588,"Ġreply":13589,"mr":13590,"Ġadult":13591,"ĠAwards":13592,"ĠCHECK":13593,"Ġtele":13594,"Ġmeant":13595,"STRUCT":13596,"Most":13597,"$\\,":13598,"Ġinterrupt":13599,"Ġdetermines":13600,"jq":13601,"ASC":13602,"Ġtriangle":13603,"eros":13604,"Ð¾Ð»":13605,"Ġgenerators":13606,"Ġance":13607,"Ġpandemic":13608,"ĠArab":13609,"ĠIV":13610,"cpy":13611,"Js":13612,"KS":13613,"orough":13614,"copic":13615,"Ġunderstood":13616,"ĠAssume":13617,"ĠXml":13618,"Ġpan":13619,"Ġ}.":13620,"elian":13621,"Ġmanage":13622,"Ġbon":13623,"Ġfiber":13624,"missing":13625,"ĠProb":13626,"ĠED":13627,"ĠFuture":13628,"implementation":13629,"ĠRange":13630,"toc":13631,"pick":13632,"Ġjav":13633,"statement":13634,"chat":13635,"Bro":13636,"Ġcovering":13637,"aggreg":13638,"Ġadministr":13639,"Ġgeodes":13640,"Ġrecovery":13641,"Ġparticipants":13642,"Toggle":13643,"care":13644,"Paint":13645,"Ġwasn":13646,"ENCE":13647,"Ġphotons":13648,"decoration":13649,"Ġcharges":13650,"Ġgeneralization":13651,"^+$":13652,"ĠHilbert":13653,"ApJ":13654,"Ġseek":13655,"windows":13656,"Ġproton":13657,"itecture":13658,"frequency":13659,"Ġ##":13660,"cades":13661,"240":13662,"ĠDer":13663,"Speed":13664,"Ġdiscrimin":13665,"ĠSOFTWARE":13666,"Ġensemble":13667,"Ġpromin":13668,"Ġsatell":13669,"inction":13670,"Ġwx":13671,"ĠTaylor":13672,"ĠConnect":13673,"Ġlegend":13674,"ĠFormat":13675,"ĠMiddle":13676,"?\"":13677,"ĠProduct":13678,"nolimits":13679,"Ġlogarith":13680,"Ġhandles":13681,"Ġhands":13682,"Ġ=================================================================":13683,"walk":13684,"stion":13685,"IEW":13686,"eady":13687,"Ġbill":13688,"ĠPublished":13689,"ÑĢÐ¸":13690,"ĠRight":13691,"ĠScot":13692,"Ġ========":13693,"ĠTab":13694,"Ġ\\}":13695,"ĠContainer":13696,"=\"'":13697,"Ġretain":13698,"Ġsi":13699,"Ġhospital":13700,"FIN":13701,"orig":13702,"Ġcomplicated":13703,"Ġneutral":13704,"respond":13705,"ĠJoseph":13706,"Ġeye":13707,"validator":13708,"ĠRespon":13709,"Ġstronger":13710,"ĠCentre":13711,"Ġdeployment":13712,"Ġmechanisms":13713,"ĠConf":13714,"Black":13715,"Ġdistinguish":13716,"Ġtournament":13717,"numeric":13718,"charAt":13719,"Views":13720,"visibility":13721,"Ġglyph":13722,"Ġpaid":13723,"atten":13724,"modified":13725,"ĠRandom":13726,"Ġexcell":13727,"Ġsuffix":13728,"Translation":13729,"oon":13730,"Recall":13731,"ylvan":13732,"Ã¸":13733,"ossible":13734,"ĠWalk":13735,".\";":13736,"Ġchief":13737,"ĠRights":13738,"English":13739,"LOAT":13740,"Ġscheduled":13741,"Ġexceptions":13742,"Overlay":13743,"notin":13744,"andidate":13745,"Ġpowers":13746,"ĠJim":13747,"ĠSar":13748,"ĠNOTE":13749,"ĠAdv":13750,"asp":13751,"refox":13752,"ĠLight":13753,"Special":13754,"5000":13755,"}~\\":13756,"Reply":13757,"Ġcitiz":13758,"orrow":13759,"/'":13760,"Ġsubsection":13761,"Ġkeeping":13762,"Ġretry":13763,"Early":13764,"Ġtoggle":13765,"Ġcomparable":13766,"scribed":13767,"BF":13768,"ĠDisplay":13769,"amber":13770,"MetaData":13771,"Ġå":13772,"vation":13773,"(\"<":13774,"marks":13775,"letter":13776,"TextView":13777,"dashed":13778,"Ġvon":13779,"Ġvehicles":13780,"()]":13781,"Ġedition":13782,"interpret":13783,"Ġaccret":13784,"_{[":13785,"({},":13786,"Ġsharp":13787,"Images":13788,"Ġmacro":13789,"Force":13790,"12345":13791,"destination":13792,"Dot":13793,">');":13794,"Ġinstanti":13795,"REAM":13796,"Ġcosmological":13797,"finish":13798,"?âĢĿ":13799,"herits":13800,"ĠFixed":13801,"Pres":13802,"Requests":13803,"Ġheav":13804,"555":13805,"Ġseparately":13806,"Ġlargely":13807,"nobr":13808,"ĠCELL":13809,"Ġawarded":13810,"Ġescap":13811,"Ġdeveloping":13812,"Ġlift":13813,"Filters":13814,"enant":13815,"BT":13816,"Describe":13817,"Ġcubic":13818,"SPACING":13819,"Ġinherited":13820,"Ġreplacing":13821,"VC":13822,"Ġanisot":13823,"Ġconverges":13824,"BYTE":13825,"ĠDictionary":13826,"ĠIsrael":13827,"uj":13828,"Ġwarm":13829,"ÙĪ":13830,"Ġallocation":13831,"1111":13832,"Sent":13833,"ĠVideo":13834,"ĠDevice":13835,"Ġangles":13836,"Blockly":13837,"isy":13838,"Ġ\"\")":13839,"ãģ®":13840,"Da":13841,"ĠDS":13842,"ousing":13843,"=\"@+":13844,"Resize":13845,"ĠPUBLIC":13846,"1968":13847,"orer":13848,"Ġchallenging":13849,"Backup":13850,"Dimension":13851,"}<":13852,"ĠFund":13853,"sender":13854,"Ġcav":13855,"Ġpurs":13856,"ĠWilson":13857,"ĠExpect":13858,"FUNCTION":13859,"Ġscored":13860,"opam":13861,"consistent":13862,"zier":13863,"Records":13864,"typeparam":13865,"Sink":13866,"sizing":13867,"Handlers":13868,"Ġpasses":13869,"Ġcombine":13870,"ĠOlympics":13871,"IBU":13872,"Ġsupporting":13873,"Tip":13874,"ĠÐ¸":13875,"exact":13876,"ĠAM":13877,"Ġblog":13878,"ĠNothing":13879,"TableRowColor":13880,"onto":13881,"-------":13882,"ĠFrame":13883,"ĠConnection":13884,"many":13885,"pref":13886,"Variant":13887,"izard":13888,"Related":13889,"correspon":13890,"Clone":13891,"ĠAWS":13892,"ĠAuth":13893,"Ġbounding":13894,"Furthermore":13895,"Alt":13896,"Sibling":13897,"orange":13898,"ĠBrazil":13899,"Ġ/><":13900,"npm":13901,"swap":13902,"Ġpor":13903,"capture":13904,"Horizontal":13905,"Ġdog":13906,"look":13907,"Than":13908,"Ġconventional":13909,"ĠNever":13910,"ĠMonte":13911,")'":13912,"Ġcriterion":13913,"Ġsock":13914,"Ġahead":13915,"fv":13916,"GA":13917,"iples":13918,"Ã¥":13919,"ĠQString":13920,"AMETER":13921,"Ġfresh":13922,"ĠLabel":13923,"lef":13924,"ĠJack":13925,"ORE":13926,"Ġactivation":13927,"Ġstabil":13928,"sizeof":13929,"una":13930,"Destination":13931,"Star":13932,"Ġinspect":13933,"Ġliquid":13934,"Äĥ":13935,"Ġblank":13936,"team":13937,"backend":13938,"Ġdecreasing":13939,"failure":13940,"ĠFloat":13941,"ĠCommunity":13942,"ĠBet":13943,"Ġfootballers":13944,"oe":13945,"vdots":13946,"ĠEqs":13947,"Ġcollisions":13948,"Ġsess":13949,"Until":13950,"rx":13951,"Ġdiscovery":13952,"ĠEN":13953,"leaf":13954,"Ġnotify":13955,"MAC":13956,"Ġdestroyed":13957,"rott":13958,"mond":13959,"Ġcp":13960,"mmar":13961,"Ã±":13962,"JavaScript":13963,")?":13964,"ĠWord":13965,"')).":13966,"SHA":13967,"Ġrecording":13968,"Ġdefect":13969,"isa":13970,"Ġchapter":13971,"ĠWed":13972,"Ġperiods":13973,"Ġquas":13974,"ICAgICAg":13975,"bell":13976,"Ġwonder":13977,"javax":13978,"Ġinterpreted":13979,"smallmatrix":13980,"ĠMarkov":13981,"ĠSa":13982,"GLuint":13983,"uckets":13984,"Ġcredentials":13985,"HOST":13986,"IES":13987,">',":13988,"\\\":":13989,"directive":13990,"Ġalgebras":13991,"ĠWell":13992,"Green":13993,"ĠHa":13994,"Ġwriters":13995,"103":13996,"Ġstructural":13997,"Ġunitary":13998,"ĠRadio":13999,"choice":14000,"Ġmu":14001,"[])":14002,"FM":14003,"Ġquadr":14004,"ExternalTask":14005,"Ġles":14006,"HasBeen":14007,"ĠTarget":14008,"sph":14009,"Ġindependently":14010,"Ġreality":14011,"osa":14012,"Ġexcited":14013,"ÅĤ":14014,"ifolds":14015,"Visibility":14016,"Traits":14017,"aton":14018,"icity":14019,"ĠValley":14020,"activate":14021,"Ġisomorphic":14022,"ĠUV":14023,"Encode":14024,"Ġspecification":14025,"Through":14026,"Ð¹":14027,"evalu":14028,"Ġbra":14029,"absolute":14030,"TOOL":14031,"ationship":14032,"Recent":14033,"Ġpreserve":14034,"ulas":14035,"maxcdn":14036,"//----------------------------------------------------------------":14037,"Ġroutes":14038,"Ġspherical":14039,"FD":14040,"Ġcrow":14041,"Clip":14042,"ĠRetrie":14043,"Ġensures":14044,"Ġtrajectories":14045,"Ġsupers":14046,"=\"#\"":14047,"ĠChief":14048,"ĠValidate":14049,"Ġll":14050,"Ġintrinsic":14051,"Ġcollections":14052,"Ġsomewhat":14053,"ĠCe":14054,"UK":14055,"management":14056,"unsafe":14057,"Ġpark":14058,"Primitive":14059,"Deployment":14060,"jections":14061,"ExternalTaskPojo":14062,"ias":14063,"Ġpython":14064,"ansas":14065,"ĠReset":14066,"ĠFollowing":14067,"ĠQCD":14068,"veloc":14069,"ĠCondition":14070,"tbl":14071,"Registration":14072,"Ãº":14073,"iga":14074,"Complex":14075,"LPADDING":14076,"itories":14077,"^*_":14078,"Allowed":14079,"_{-\\":14080,"=====":14081,"Ġfamous":14082,"erate":14083,"Ĥ¬":14084,"Ġast":14085,"Ġstages":14086,"Ġsynt":14087,"Ġinspired":14088,"EOF":14089,"Sn":14090,"omorphisms":14091,"ĠBOOL":14092,"TARGET":14093,"colors":14094,"Ġelectro":14095,"Threading":14096,"ARCH":14097,"Ġtells":14098,"Ġnearest":14099,"ĠWall":14100,"Further":14101,"Ġbrowsers":14102,"Low":14103,"mel":14104,"Ġincoming":14105,"Ġslope":14106,"Ġ(#":14107,"::$":14108,"ĠSunday":14109,"Ġaccretion":14110,"1969":14111,"ĠJohnson":14112,"opsis":14113,"Directive":14114,"Regex":14115,"smooth":14116,"parsed":14117,"Ġfunctor":14118,"poi":14119,"ĠCELLPADDING":14120,"}})$":14121,"Signal":14122,"prising":14123,"Dataset":14124,"pars":14125,"gravity":14126,"ĠRay":14127,"dz":14128,"EqualTo":14129,"Ġunable":14130,"ĠGre":14131,"ROW":14132,"=\"#\">":14133,"Nested":14134,"Ġplatforms":14135,"Ġanyone":14136,"Ġpoet":14137,"ĠCELLSPACING":14138,"Ġenvironmental":14139,"Ġplots":14140,"Ġalleg":14141,"Ġsenior":14142,";,":14143,"|=":14144,"ĠConference":14145,"TODO":14146,"NEL":14147,"Dispatcher":14148,"citealt":14149,"Ġgranted":14150,"otor":14151,"INSTANCE":14152,"fieldset":14153,"Ġsurrounding":14154,"ENC":14155,"Ġclassifier":14156,"hour":14157,"Ġ\\}$":14158,"IBUTE":14159,"interop":14160,"ercise":14161,"sequences":14162,"Operand":14163,"snapshot":14164,"drawable":14165,"Ġarrest":14166,"Ġskin":14167,"sleep":14168,"Ġplugins":14169,"ÏĢ":14170,"Ġburn":14171,"Ġking":14172,"Ġrecur":14173,"ylvania":14174,"AreEqual":14175,"LIB":14176,"?</":14177,"Ġconference":14178,"worker":14179,"Such":14180,"ĠPay":14181,"UUID":14182,"subNav":14183,"Following":14184,"Ġemployees":14185,"ĠKen":14186,"GM":14187,"ĠFurther":14188,"[[":14189,"Ġ{})":14190,"ĠMust":14191,"vv":14192,"mathds":14193,"gap":14194,"Ġlengths":14195,"ĠFull":14196,"Dump":14197,"xhr":14198,"ĠDest":14199,"ĠColl":14200,"Ġregistration":14201,"rowse":14202,"ĠColumb":14203,"Ġdriven":14204,"ĠOpt":14205,":-":14206,"Øª":14207,"Ġshop":14208,"getElementsBy":14209,"Rightarrow":14210,"CEPT":14211,"Ġtbody":14212,"Ġreviews":14213,"Ġrm":14214,"Ġ./":14215,"FROM":14216,"qq":14217,"ByName":14218,"Ġrestart":14219,"Ġ].":14220,"Ġrely":14221,"Ġprison":14222,"erring":14223,"leading":14224,"course":14225,"Ġacquired":14226,"ĠTests":14227,"Ġfiltered":14228,"LC":14229,"Ġcaller":14230,"ĠWin":14231,"pied":14232,"Ġstrug":14233,"Ġdiscret":14234,"Ġ'');":14235,"APIENTRY":14236,")){":14237,"remo":14238,"Ġannot":14239,"ipedia":14240,"imiter":14241,"++]":14242,"Ġhappy":14243,"Unlock":14244,"who":14245,"Ġnan":14246,"Ġinflation":14247,"ĠAC":14248,"Ġletters":14249,"Ġcouplings":14250,"tically":14251,"ĠStorage":14252,"ĠIran":14253,"ĠBind":14254,"Patch":14255,"Ins":14256,"Ġbriefly":14257,"Confirm":14258,"hashCode":14259,"utoff":14260,"peg":14261,"Hex":14262,"Opts":14263,"ĠFort":14264,"Frag":14265,"Ġcontradiction":14266,"oston":14267,"ĠDue":14268,"Ġ*_":14269,"GLAPI":14270,"Ġmorphism":14271,"Ġsplitting":14272,"Ġrenormal":14273,"carousel":14274,"Matches":14275,"Ġcle":14276,"ITH":14277,"mx":14278,"'$.":14279,"×ķ×":14280,"Ġsharing":14281,"encil":14282,"ĠAsia":14283,"Ġvisited":14284,"respect":14285,"PK":14286,"Scene":14287,"Payment":14288,"Ġmanually":14289,"ĠScal":14290,"versation":14291,"statsmodels":14292,"gent":14293,"pot":14294,"Ġscr":14295,"Ġvision":14296,"Ġapps":14297,"Ġcompatibility":14298,"pie":14299,"wind":14300,"agnostic":14301,"Ġve":14302,"squ":14303,"Ġneither":14304,"ĠProdu":14305,"Ġbid":14306,"Ġmusical":14307,"hh":14308,"Price":14309,"Ġrespond":14310,"Injection":14311,"eral":14312,"apy":14313,"|_{\\":14314,"compatible":14315,"ĠJacob":14316,"Ġisolated":14317,"neutral":14318,"Ġsinger":14319,"Ġstub":14320,"Ġriver":14321,"}}=\\":14322,"Ġkeyboard":14323,"readonly":14324,"AUTH":14325,"Ġkill":14326,"Your":14327,"Ġsuite":14328,"Ġscientific":14329,"forcement":14330,"ĠLevel":14331,"Ġnormalize":14332,"Measure":14333,".}\\":14334,"Ġcovers":14335,"Ġhusband":14336,"Ġvideos":14337,"ĠLore":14338,"INCL":14339,"LEVEL":14340,"Margin":14341,"yo":14342,"1971":14343,"Defaults":14344,"ĠEditor":14345,"Ġ\"--":14346,"Propagation":14347,"owski":14348,"choose":14349,"curr":14350,"Ġappearing":14351,"Ġfloating":14352,"Ġbot":14353,"quick":14354,"Absolute":14355,"Ġstrip":14356,"noise":14357,"Ġhappened":14358,"Ġissued":14359,"HasBeenSet":14360,"skin":14361,"Ġdepartment":14362,"ĠCluster":14363,"Ġcorpor":14364,"Ġcommission":14365,"lst":14366,"reply":14367,";%":14368,"Ġlambda":14369,"TLS":14370,"ĠCla":14371,"Ġta":14372,"Ġhierarchy":14373,"Ġregardless":14374,"than":14375,"question":14376,"Ġfindings":14377,"Ġparametr":14378,"ĠSchema":14379,"ippet":14380,"Ġoutper":14381,"getKey":14382,"Ġri":14383,"Ġ/**<":14384,"gable":14385,"adium":14386,"Statistics":14387,"Ġmail":14388,"prox":14389,"isons":14390,"review":14391,"Ġprepared":14392,"Ġtip":14393,"atever":14394,"Ġartifact":14395,"ĠAccount":14396,"Just":14397,"\\|^":14398,">../":14399,"Ġaws":14400,"Ġbackend":14401,"HttpRequest":14402,"ibilities":14403,"Ġholes":14404,"yaml":14405,"ĠMi":14406,"Ġgate":14407,"ĠJoe":14408,"hbase":14409,"ĠCas":14410,"Ġdecoder":14411,"à¥":14412,"Ġeyes":14413,"Ġcycles":14414,"Ġlogical":14415,"ivalent":14416,"ĠBefore":14417,"autoref":14418,"Cent":14419,"Ġpresentation":14420,"FLAGS":14421,"Ġstands":14422,"åŃ":14423,"Pat":14424,"categories":14425,"Ġsynchronized":14426,"Ġplate":14427,"Ġsheet":14428,"Å¾":14429,",</":14430,"icient":14431,"oviet":14432,"Ġconformal":14433,"xe":14434,"ĠWater":14435,"altern":14436,"Nil":14437,"ĠMD":14438,"Ġinserted":14439,"memberOf":14440,"ĠTim":14441,"ĠSciences":14442,"LONG":14443,"ĠBound":14444,"Ġinfer":14445,"Ġdiameter":14446,"),(":14447,"Ġaccessible":14448,"Small":14449,"ĠMount":14450,"refn":14451,"Ġsouthern":14452,"Ġrouter":14453,"ĠRiemann":14454,"ĠThrow":14455,"Ġmurder":14456,"decomp":14457,"ĠAff":14458,"~(":14459,"ĠLIC":14460,"got":14461,"ĠAI":14462,"subfloat":14463,"Ġtransformed":14464,"Acknowledg":14465,"Ġdjango":14466,"aki":14467,"adjust":14468,"hint":14469,"Ġcompiled":14470,"Ġserving":14471,"teen":14472,"lices":14473,"friend":14474,"SIGN":14475,"ĠFA":14476,"Ġcultural":14477,"Ġlisten":14478,"online":14479,"Prof":14480,"GROUP":14481,"ĠPoisson":14482,"terms":14483,"Ġfired":14484,"Ġlived":14485,"Walk":14486,"ruption":14487,"ĠBul":14488,"ĠSession":14489,"areer":14490,"iors":14491,"UNK":14492,"ĠSpain":14493,"LED":14494,"STATIC":14495,"<?>":14496,"Alignment":14497,"ĠĠĠĠĠĠĠĠĠĠĠĠĠĠĠĠĠĠĠĠĠĠĠĠĠĠĠĠĠĠĠĠĠĠĠĠĠĠĠĠĠĠ":14498,"Ġneglect":14499,"ĠQt":14500,"Ġfunding":14501,"ĠBa":14502,"[<":14503,"baz":14504,"}&\\":14505,"%.":14506,"units":14507,"ReadOnly":14508,"ĠFinal":14509,"108":14510,"ĠAnalysis":14511,"Branch":14512,"ulty":14513,"ITER":14514,"999":14515,"Ġsampled":14516,"wing":14517,"Checker":14518,"ĠBrowser":14519,"LM":14520,"ĠOl":14521,"DIRECT":14522,"inputs":14523,"illy":14524,"utorial":14525,"ĠFall":14526,"//!":14527,"tras":14528,"Ġdeclaration":14529,"Fit":14530,"fm":14531,"ĠFar":14532,"ĠFermi":14533,"+'":14534,"ĠEns":14535,"ĠShared":14536,"via":14537,"Ġnorthern":14538,"Ġrepo":14539,"Ġtal":14540,"Manifest":14541,"prof":14542,"115":14543,"Fatalf":14544,"uma":14545,"BH":14546,"Ġsubjects":14547,"Ġbasketball":14548,"Ġasset":14549,"Ġreceives":14550,"Ġmedal":14551,"Ġorbits":14552,"Ġinset":14553,"Ġseat":14554,"Ġarrow":14555,"etermin":14556,"Ġzip":14557,"NotFoundException":14558,"Ġconstrained":14559,"Ġengineering":14560,"SYS":14561,"Ġmotor":14562,"Ġids":14563,"scalar":14564,"ĠIrish":14565,"ordan":14566,"channels":14567,"ãĥ¼":14568,"icates":14569,"114":14570,"imb":14571,"Orient":14572,"fortunately":14573,"Si":14574,"Thelia":14575,"posts":14576,"isher":14577,"calc":14578,"1967":14579,"Ġserves":14580,"Mesh":14581,"Ġdiscussions":14582,"Ġcyl":14583,"Ġconnecting":14584,"Ġcs":14585,"ĠAbout":14586,"107":14587,"ĠAdds":14588,"Ġ'../":14589,"elist":14590,"ç»":14591,"Ġmarginal":14592,"-\">":14593,"supervised":14594,"(@\"":14595,"normalize":14596,"Unable":14597,"guid":14598,"Ġfault":14599,"EventHandler":14600,"orial":14601,"Ġperturbations":14602,"transfer":14603,"Ti":14604,"uz":14605,"degree":14606,"ĠIC":14607,"Ġfrequently":14608,"vp":14609,"unger":14610,"ĠFriday":14611,"isc":14612,"Ġsituations":14613,"Ñħ":14614,"Stud":14615,"Ġplasma":14616,"Ġexpos":14617,"substack":14618,"LU":14619,"theory":14620,"è¡":14621,"literal":14622,"Ġchiral":14623,"commands":14624,"adi":14625,"leet":14626,"she":14627,"autom":14628,"omics":14629,"Ġlic":14630,"ĠModal":14631,"ĠSave":14632,"ĠTHREE":14633,"Ġextensive":14634,"Ġpitch":14635,
[...]
