#version: 0.2
Ġ t
i n
Ġ Ġ
h e
Ġ a
o n
r e
e r
a t
Ġt he
e n
Ġ s
o r
a l
i t
Ġ o
i s
a n
e s
Ġ c
a r
Ġ w
i on
e d
ĠĠ ĠĠ
Ġ f
Ġo f
n d
Ġ p
Ġ in
Ġ b
l e
i c
in g
Ġ \
r o
a s
Ġa nd
Ġ d
Ġ m
Ġ $
Ġt o
c t
e l
e t
en t
o u
i g
i l
s t
o m
a m
Ġt h
Ġ re
Ġ h
at ion
r a
i m
o l
Ġ e
Ġ n
Ġ T
o t
Ġ (
Ġ S
Ġ is
{ \
Ġ l
i d
c e
Ġ C
i v
Ġ A
u t
Ġf or
u r
c h
s e
Ġ g
ĠĠ Ġ
o w
u l
ĠĠĠĠ ĠĠĠĠ
l y
Ġ on
Ġ M
q u
a b
_ {
it h
u m
a d
Ġ I
u s
e m
Ġb e
Ġs t
v er
Ġth at
o d
at h
2 0
â Ģ
u n
e g
i r
Ġ B
Ġc on
Ġ P
Ġa s
i f
Ġ$ \
t er
Ġw ith
a y
č Ċ
en d
a g
t h
v e
Ġ H
is t
m ath
Ġa l
Ġ F
ct ion
er s
ig h
ĠT he
Ġp ro
Ġw e
Ġ R
Ġa n
Ġ D
Ġ L
t a
u re
r i
an d
Ġ v
he r
p e
p h
Ġb y
Ġ Ċ
Ġ &
o s
at e
1 9
Ġ W
a c
} \
it y
e x
Ġ N
u p
} $
a p
Ġ =
igh t
es t
Ġ G
^ {
Ġw h
ro m
o c
Ġe x
re s
Ġw as
Ġc om
Ġa t
Ġd e
o p
Ġ E
u b
Ġa re
o re
ar t
in e
Ġ it
it e
i es
re f
m a
p l
es s
i al
Ġf rom
il l
Ġs e
g e
e w
an t
iv e
al l
Ġ or
n t
} }
u d
( \
or t
p t
Ġ r
m ent
ĠĠĠĠ ĠĠĠ
e re
Ġ J
T he
Ġ he
f t
ra c
ex t
i z
eg in
Ġ O
b egin
as s
a k
l d
Ġ y
ou r
o g
ic h
b er
_ {\
Ġth is
ul t
in t
c al
) $
p er
at ed
el l
ic al
Ġs h
r an
c l
am e
u e
e ct
ĉ ĉ
Ġc h
or m
ig n
Ġ -
ar d
u nd
it ion
a ve
} {
f f
i p
Ġcom p
Ġ le
ar y
Ġc l
0 0
20 1
' s
Ġ U
Ġn ot
Ġ K
e q
} ,
u st
en s
Ġ "
e p
) ,
i an
f rac
a re
ag e
Ġre s
p ro
t ext
ation s
ĠI n
e qu
Ġc an
Ġ k
Ġp l
as t
r m
r ight
on g
d u
i a
c ite
âĢ Ļ
Ġ <
Ġwh ich
) ;
Ġ {
Ġin t
c on
ab le
e f
a ce
ab el
Ġ us
o st
u g
math b
) .
Ġh ave
a v
Ġ âĢ
c c
i re
Ġw he
p ort
- -
or k
ac k
or d
as e
= "
im e
l ow
a in
t her
s o
id e
ĠS t
Ġ V
l abel
a ct
i b
Ġ un
t he
, \
$ ,
et a
ion s
an g
$ .
Ġa p
Ġ im
il d
r ic
en er
ĠĠĠĠĠĠĠĠ ĠĠĠĠĠĠĠĠ
Ġh as
a ch
ou s
math cal
o v
in d
equ ation
le ft
e ar
en ce
/ /
f orm
Ġa b
20 0
} .
c om
f ig
Ġa d
} )
ou t
r y
o k
r u
I n
c es
ĠT h
Ġm od
} (
1 0
ou ld
Ġh is
< /
Ġal so
} ^
Ġal l
ic e
~ \
er v
er m
Ġs u
ro w
. .
} _
ou nd
ent s
ol d
u se
Ġ j
o ver
Ġp art
Ġon e
Ġs p
Ġ |
w o
el y
i le
ĠC h
Ġcon t
an ce
ow n
s p
Ġ +
or y
is h
i k
p s
Ġ *
am b
Ġ }
ri b
ur n
ir st
or s
at es
ph a
ta in
re e
Ġo b
Ġ if
cl ud
s um
Ġd is
l ine
p le
Ġm e
al pha
e c
Ġa r
ar k
1 8
ran s
Ġ qu
al ly
Ġwe re
om e
d a
o se
res s
pe ct
m er
i e
w e
ĠĠĠĠĠĠĠĠ ĠĠĠ
) \
Ġp er
$ \
ic s
un ction
if f
ter n
at a
o b
im es
Ġb ut
Ġe v
Ġthe ir
el ta
Ġo ut
Ġt wo
ou nt
amb da
re d
Ġs y
Ġw ill
Ġ ro
j ect
ul ar
l l
r it
m b
e y
o int
Ġit s
Ġ en
ar i
Ġf irst
Ġ Y
am ma
i el
mathb b
c he
Ġs et
c ent
_ \
k s
v el
Ġcl ass
ra y
Ġ\ \
Ġ up
ut ion
t o
s ub
Ġo ther
Ġde f
ol low
o f
= \
Ġy ou
ĠĠĠĠ Ġ
od e
Ġo ver
ra ph
ra d
t e
ub l
d ot
m u
h o
} _{
ig ma
} ^{
ĠI t
ere n
Ġm ore
iel d
Ġn ew
on d
Ġd es
1 2
h at
Ġt ime
eg a
on e
le ct
s et
Ġm an
Ġd o
Ġv al
p os
Ġd iff
i x
r ing
Ġf unction
- \
g et
um ber
Ġa g
Ġmod el
ation al
Ġb et
n g
Ġ [
" >
Ġf ollow
Ġw ork
l es
ĠU n
ph i
at ure
f ter
Ġn e
ug h
Ġt e
iz e
^ {\
c ed
Ġin d
i ed
st em
ĠH e
Ġcon s
s s
Ġs ub
at er
Ġwhe re
c re
ĠW e
at ive
Ġs o
pe c
v i
Ġthe y
Ġfor m
Ġsu ch
Ġbe en
Ġres ult
y pe
Ġ ver
l ambda
is s
Ġpl ay
et h
und er
c k
on s
r am
Ġc o
as ed
n e
Ġre l
u al
s c
Ġon ly
w id
Ġh ad
mathb f
19 9
Ġwh o
Ġ {\
ic t
Ġp re
y s
Ġo ur
âĢ ĵ
res ent
if ic
ot h
S t
Ġre g
b f
Ġcon st
in ed
ĠâĢ ĵ
t urn
ar am
Ġc ol
Ġs im
ak e
Ġthe re
Ġd ist
oc k
Ġa cc
s h
a w
t t
or n
Ġg ener
a x
Ġt rans
ing s
Ġs up
ĠTh is
Ġth an
Ġin ter
o ok
Ġint o
* *
Ġwhe n
âĢ Ŀ
Ġ| |
al ign
se ction
ro up
il on
le m
we en
Ġthe n
o x
g h
an s
p i
in al
i ent
he d
Ġp os
s igma
Ġ her
Ġs c
ol og
Ġe qu
d ition
Ġsh ow
p art
Ġan y
in ce
1 5
at ing
a il
Ġp h
o ve
Ġof f
Ġcom m
Ġy ear
il ity
Ġ '
ro und
Ġbet ween
on t
Ġc or
Ġs ome
} {\
^{ -
p r
Ġ( \
is e
p ut
b eta
1 6
it ies
ild e
Ġin clud
ul l
ubl ic
ru ct
o ol
Ġg o
ic k
\ \
w ard
Ġ under
an n
l and
ĠS e
r al
i o
1 1
b ar
math rm
Ġd ata
it s
Ġe ach
it ed
ou gh
* }
W e
Ġp e
op le
ap p
+ \
Ġsy stem
Ġk n
l o
g amma
Ġl oc
id ent
ay s
u es
Ġp ol
Ġab out
ik e
pt ion
Ġg iv
ro ugh
d er
el f
Ġthe se
ep s
Ġt ra
ib le
Ġa ct
Ġf e
] {
-- --
ment s
Ġst ud
Ġn o
Ġp r
l i
Ġw ould
Ġus ed
Ġm at
Ġre c
Ġpro v
em ber
^ \
Ġe ff
( )
ur ing
le t
iv ers
ar g
1 7
ere nt
E x
he re
al s
Ġ use
in s
ere d
r t
fig ure
o ot
at or
2 2
Ġp oint
le q
er t
ar ray
wid th
1 3
Ġin v
r ho
) }
Ġpro du
c y
Ġpro b
d elta
Ġ i
Ġre turn
the ta
con d
ap t
Ġs ol
Ġ x
o y
Ġa fter
ta u
\ !
mer ic
ar ch
Ġ est
ist s
Ġs m
ab l
2 1
c dot
ot e
it em
s y
ĠC om
Ġn umber
iz ed
Ġl ine
$ -
= =
m in
c ol
Ġas s
ar s
Ġex t
Ġc ase
T h
ĠP ro
us s
}$ ,
}$ .
1 4
ĠN ew
eth od
m s
ĠF or
il y
e v
ĠA l
ow er
an ge
Ġf il
am p
Ġdiff erent
Ġs he
Ġap pro
eq ref
Ġm ay
e ver
ĠâĢ ľ
en g
ĠĠĠĠĠĠĠĠ ĠĠĠĠĠĠĠ
Ġm ost
} (\
19 8
a ir
n ing
b ig
ction s
ou n
Ġo p
pl ic
Ġv ari
iz ation
t imes
in k
Ġex p
in es
eren ces
Ġs pec
Ġs ign
n u
c ess
ad e
y n
Ġc ur
Ġ Q
aram et
Ġ Z
or ld
Ġin st
Ġb l
our ce
Ġg et
part ial
Ġbe c
Ġw ell
Ġ .
Ġus ing
Ġre p
ire ct
" ,
t on
re n
ar row
it t
Ġn on
Ġ ent
om ega
v ar
ut e
2 5
per t
Ġs ame
- >
Ġre f
ra ct
ft y
am ple
R ef
Ġth rough
as h
Ġpart ic
is ion
id er
in fty
p m
v al
ical ly
Ġf l
Ġ X
m m
oc i
Ġb u
qu ad
f or
em ent
Ġo per
d ef
Ġf ield
t ilde
Ġpe ople
a use
Ġ end
Ġa m
Ġs ur
| \
w n
Ġthe m
am es
3 0
Ġb oth
r on
ar ge
Ġt erm
he n
Ġgiv en
u ch
g y
as on
Ġst ate
Ġs a
p ar
ĠA s
is m
Ġh igh
Ġfollow ing
Ġd et
D elta
ic es
Ġt r
Ġg roup
ow ever
se c
at t
Ġ /
ot s
ch ool
sp ace
an y
Ġ :
as es
ir c
eq n
er r
re at
Ġ ed
Ġ //
e e
Ġb ack
ĠA meric
Ġm in
iv ely
Ġe ver
Ġper form
at ic
y p
is hed
er n
Ġe m
ĉĉ ĉĉ
Ġth ree
Ġre qu
Ġf act
19 7
g an
Ġa c
o h
Ġc ent
. ,
ion al
Ġs ing
h ip
\ ,
2 3
s erv
ag es
Ġin f
Ġc all
Ġ z
m an
Ġe le
cent er
Ġdis c
Ġf in
Ġf ound
s im
Ġse cond
in ing
a h
Ġval ue
ĠD e
Ġag ain
x i
n er
b all
Ref erences
Ġ ra
n ot
} [
vel op
Ġm on
Ġm ethod
Ġat t
Ġs er
i er
ran g
Ġs erv
Ġdes c
w ork
Ġor der
form ation
Ġse e
Ġp ublic
as ure
ore m
Ġde c
5 0
Ġwh ile
} }\
ivers ity
iv er
re nt
Ġst r
ri x
Ġeff ect
ĠS h
Ġ$ (
)$ .
Ġresult s
ut h
Ġle ad
al ity
f ul
res p
Ġsm all
ro ss
ent ial
) )
ul ation
P ro
Ġp aramet
: :
ar ly
Ġob tain
ric t
Ġan al
in clud
ab ility
if e
Ġn ame
eps ilon
w here
ĠL e
O m
Ġl ike
or th
Ġne ed
ĠI nd
$ $
u c
Ġc re
C on
Ġyear s
ĠC l
Ġh im
2 4
Ġ< /
ĠA n
ur al
Ġb ound
s on
} _{\
Ġ @
00 0
s q
a z
Ġde p
Om ega
tern al
olog y
t en
w ay
an k
ruct ure
vi ew
Ġar t
ou th
19 6
o id
Ġman y
Ġever y
ant s
ire d
Ġd uring
eren ce
ang le
en cy
al e
Ġn ow
Ġch ar
y le
Ġbe ing
he s
ĠC on
ct or
Ġl ong
^ *
et s
a j
ur y
Ġb el
um n
ĠF ig
mb ol
.. /
i qu
are d
eqn array
Ġ čĊ
Ġad d
ot t
Ġf am
ps i
Ġc ould
at her
re l
Ġpro cess
Ġd irect
v ent
f ore
ener gy
)$ ,
m e
Ġst art
ĠC ol
E R
' ,
o le
raph ics
Ġsa id
l og
b y
ff ic
ag n
Ġj ust
ro p
Ġm ass
ers on
a u
Ġrep resent
ri pt
o od
ou se
P h
Ġs ince
Ġme asure
Ġy our
r id
F or
Ġp resent
e b
l ed
text bf
b m
Ġcon dition
et work
ce pt
sq rt
Ġ `
Ġte am
Ã ©
Ġdist rib
if ied
ch n
Ġcont in
Ġex per
ps ilon
re ad
e ad
ra w
G amma
Ġres pect
Ġm ult
resp ond
ak ing
ĠĠ Ċ
sub section
Ġre le
Ġo pt
Ġm ed
Ġde velop
Ġm ade
Ġwh at
Ġsp ace
Ġr ight
ot her
v ed
Ġprob lem
le x
el s
Ġm ain
Ġf ind
C h
Ġin cre
iv ed
b ers
I t
ĠS c
Ġc ount
Ġob serv
Th is
Ġt est
^{ (
c apt
Ġsup port
m l
ter s
ĠAmeric an
iss ion
Ġbec ause
as k
Ġbe fore
right arrow
over n
Ġt ype
er y
v are
Ġfe ature
t ing
Ġm et
an e
Ġl arge
Ġsh ould
Ġap p
ĠUn iversity
b old
eg raphics
includ egraphics
c o
t r
Ġev en
n ess
Ġver y
Ġdo es
g ram
i or
} =
4 0
vare psilon
}^ {\
Ġpos s
Ġas sum
m ed
ens ure
capt ion
Ġ u
ĠA d
c m
m od
Ġh ow
Ġl im
I N
Ġe lect
iv es
eng th
b l
c er
) =
t ab
Ġ$ {\
.. .
S T
at eg
Ġd r
( "
Ġgener al
g or
Ġp op
it ive
Ġ energy
im ens
Ġcor respond
Ġto p
um er
( );
at ch
pos ition
Ġ el
ut ions
vi ous
iv al
Ġg u
Ġdesc rib
C om
Ġr un
Ġw rit
rang le
ra k
ep end
Ġf our
Ġd en
in a
ol ution
Ġap pe
i ence
ur ther
ess age
s k
ĠA r
ĠE x
Ġcons ider
Ġ ,
Ġb ased
ĠO n
Ġloc al
ar n
p on
Ġs cal
i ew
ver t
if y
os s
Ġ\ ,
ĠS p
ro du
Ġh and
h t
Ġm y
if t
Ġkn own
um ent
em ph
Ġest im
u ally
e le
2 7
Ġre al
. ~\
Ġ rad
ch i
us ic
Ġ ve
ĠUn ited
Ġor ig
Ġ )
v en
Ġchar act
d iv
ĠI s
sp an
gor ith
Ġm ov
A s
2 6
iv ing
var phi
it al
n on
Ġm em
ge q
in ks
Ġinclud ing
Ġp res
Ġcon tain
Ġst ructure
ĉĉ ĉ
Ġt em
Ġd i
om en
Ġc al
1 00
2 8
Ġw ay
Ġ ident
il ar
l ess
r ation
O N
---- ----
Ġal low
Ġth ose
Ġhe l
Ġm ake
o ber
ro l
om et
A R
b ack
ver s
Ġo wn
i j
pro of
Ġre ad
oh n
it ial
Ġex pl
Ġl ast
. }
sy mbol
g er
Ġin formation
& \
ĠĠĠĠĠĠĠĠ Ġ
ĠP h
: //
ĠE ng
am pl
Ġint eg
v es
Ġre m
Ġval ues
Ġim port
Ġst at
Ġop en
Ġ err
Ġst and
Ġab ove
Ġkn ow
e k
ist ory
C l
ĠP l
ĠI f
' '
Ġdes ign
al th
Ġcon f
A T
Ġprov id
Ġpro pert
ĠS he
Ġl ist
Ġs at
Ġle vel
Ġc ar
Ġcur rent
Ġcomm un
f ace
orm al
Ġre st
}, \
cc ess
oot ball
Ġd ue
p or
Ġa v
d ay
. "
bold symbol
201 8
le y
201 6
od y
Ġg l
Ġbe com
Ġle t
over line
Ġ >
ĠM ar
20 20
B ig
Ġad dition
h line
in c
k e
p p
ect ed
en se
Ġn etwork
Ġrec ord
er o
[ \
b s
Ġob ject
ac es
en n
Ġagain st
** **
re m
ap er
w h
ens ity
Ġsing le
ir d
ĠA nd
2 9
Ġc he
t il
Ġs pect
r and
re t
Â ł
20 19
} ).
l im
Ġbu ild
rac k
) :
Ġpro f
201 7
19 4
y m
th is
og raph
Ġser ies
Ġcomp ut
im al
Ġplay ers
ere st
) ^
Ġqu ant
Ġsh own
Ġd id
3 3
Ġ* /
Ġl ater
Ġ #
19 5
Ġdep end
Ġf inal
ref ore
at ely
ĠĠĠĠĠĠĠĠĠĠĠĠĠĠĠĠ ĠĠĠ
Ġs elf
se e
ar m
Ġp ower
un e
f rak
ĠR e
is ed
Ġ _
Ġex pect
ĠCom m
ĠH owever
Ġs um
Ġle ft
in ition
u le
> </
Ġm ap
et y
b e
Ġl inks
} }$
re qu
pos ed
Ġd own
n ew
th s
at ors
Ġm uch
Ġre port
ld ots
ak es
T o
Ġfollow s
Ġmodel s
ve c
Ġv is
201 5
u ro
Ġre ma
Ġex ample
Ġre ce
Ġa round
Ġwith in
re g
L et
com m
A S
ific ation
Ġpartic ular
ure s
en e
st r
x im
ĠâĢ Ķ
Ġse ason
O n
ĠR es
> <
R E
pl ay
d d
ver al
Ġdef ined
i um
Ġcall ed
is on
le ction
Ġre du
l angle
ĠB l
Ġte chn
col or
Ġfil m
Ġg ame
i od
Ġm ark
Ġsim ilar
../ ../
or ph
b le
s ide
ensure math
ĠC ount
ys is
Ġo cc
Ġp ass
Ġal ong
in ess
math frak
Ġp at
Ġw orld
eta il
t rans
a i
Ġfam ily
Ġl ow
Ġs chool
an c
c ul
Ġhe re
Ġst ill
} ;
m p
201 4
Ġb as
ar get
s f
ĠM ay
3 2
Ġbe h
in ation
an u
Ġs ize
yn am
I D
Ġt ri
ĠSt ates
Ġto t
Ġstud y
l ation
mm et
Ġn ear
a ction
Ġp red
Ġp ar
Ġver s
Ġpro gram
L ambda
che d
Ġse ction
6 0
R es
e ction
i ous
ad d
is f
b um
app a
ĠA t
Ġt ake
text it
re am
Ġd om
Ġb ro
âĢ ľ
Ġest abl
ord ing
Ġl arg
Ġb est
n abl
Ġs l
Ġcharact er
ĠA ll
Ġh ig
b ra
op t
201 0
Ph i
cite p
Ġdet erm
A l
ĠC an
Ġpoint s
w w
' t
c or
201 3
w ith
Ġterm s
20 21
ur s
Ġ et
ĠN ational
n o
s er
Ġshow s
ĠJ ohn
g round
im ent
gorith m
iv id
al k
ol l
d is
or g
Ġd er
== ==
Ġhel p
Ġcontin u
Ġm ust
ward s
t able
ĠC ar
n ame
ĠF ran
Ex ternal
Ġse veral
op er
Ġg ra
a ult
es c
Ġd em
ist ic
3 5
le ar
or ies
it le
et ic
pl it
iv ity
. âĢĿ
ĠT o
ot ential
s m
Ġc ap
20 22
er ing
a f
ĠW h
p d
r ist
Ġdistrib ution
4 5
Ġdisc uss
ĠW orld
201 2
ix ed
is ter
overn ment
ag ue
k appa
Ġint erest
end ed
sub set
epend ent
av ing
Ġev ent
ress ion
aj or
Ġl ife
Ġim p
cl ass
m ult
Ġgo od
s elf
tern ational
Ġass oci
Ġch o
Ġpre vious
ht ml
Ġcl os
Ġin itial
Ġh old
ug g
al se
nabl a
at ter
Ġint rodu
ĠA ust
ĠĠĠĠĠĠĠĠĠĠĠĠĠĠĠĠ ĠĠĠĠĠĠĠĠĠĠĠĠĠĠĠĠ
N ame
Ġwith out
Ġl ook
Ġc are
201 1
od es
Ġch ild
} )$
Ġt yp
r um
a pe
uth or
ial ly
ĠC ent
Ġor gan
Ġm ax
Ġ- -
" .
ur ch
ord s
Ġp ost
c irc
ĠO r
ra g
ĠThe y
mb ox
ri es
ian s
Ġpl ace
ang u
Ġhe ad
l u
ot imes
us iness
Ġan n
l er
9 0
\ |
Ġw in
an ces
Ġtot al
Ġpos ition
Ġare a
. \
\ %
Ġn ext
}} {
che s
B y
i ents
it er
Ġex ist
ĠThe n
Ġme an
} ),
T ype
Ġcom b
d e
ĠĠĠĠ ĠĠ
ce ption
( '
8 0
ĠJ ul
Ġtr ue
Ġpro ject
Ġsat isf
ĠN ov
Ġl aw
Ġposs ible
Ġm agn
ĠG e
Ġb o
a im
Ġstr ong
are nt
Ġc rit
Ġpro t
id d
A L
con st
Ġd eg
Ġparamet ers
a us
ur b
I d
ĠY ork
con t
Ġinv est
Ġun til
t d
iv ate
Ġst ates
iqu e
t s
Ġp erson
200 9
r is
non umber
Ġb re
Ġf ootball
ore d
Ġb ook
ro ll
Ġcont rib
\ [
t ime
Ġse qu
ĠW ar
am ent
at s
ir on
Ġprodu ct
ru ction
du ct
ent ion
p ose
O R
pl oy
i am
c ur
ĠY ou
A n
S igma
s ource
Ġal bum
U n
im port
Ġad v
anu ary
h tt
ĠT e
g es
Ġp otential
ĠS chool
Ġb and
Ġobtain ed
w ide
im um
200 8
Ġre se
b it
Ġcomp on
: \!
d raw
ĠB y
Ġappro xim
ĠP r
t ype
ĠCount y
Ġmat rix
7 5
se qu
wid et
\! :\!
Ġa ver
ĠL et
Ġsign ific
at rix
Ġimport ant
Ġper iod
Ġa ut
as ter
our ces
Ġc ou
dot s
Ġh ref
l ing
Ġch ang
c it
en ces
Ġa ff
Ġs pe
Ġsol ution
l oc
Ġd el
Ġk ey
am ed
b ox
a int
our n
Ġc our
il t
Ġth ough
Ġm usic
Ġar g
ĠS outh
A N
3 6
Ġb ir
Ġd ensity
Ġp aper
9 9
ĠB e
Ġan other
Ġfunction s
it her
Ġperform ance
ĠA ug
widet ilde
ab les
I I
ail able
Ġsh ort
Ġv ar
Ġcomp lex
ĠP ol
ĠU S
center ing
3 1
re turn
ĠO ct
ill ion
ic le
cl us
E N
Ġbec ame
Ġph ot
Ġt rad
Ġe as
Ġf ull
Ġs k
Ġpol it
{ -
f ield
Ġv iew
o ff
P s
ma x
Ġsu ccess
olog ical
Ġreg ion
3 4
Ġis s
Ġanal ysis
St ring
o ad
0 1
w ays
Ġpred ict
pt ember
Ġoff ic
Ġs ong
s up
ĠR ep
ĠB rit
ob al
ud e
F ig
Ġt imes
un g
r r
Ġde ath
Ġ` `
ra p
lect ed
ĠM an
us h
i i
Ġg raph
Ġt urn
Ġappro ach
Ġim pro
Ġ= >
Ġlim it
em pt
Ġdescrib ed
/ \
Ġf urther
Ġr ange
ampl es
ĠJ anuary
p aram
ord er
m essage
0 5
Ġf ew
Ġl a
Ġd ay
u x
per ature
Ġd etail
Ġstand ard
oc us
a e
} -
Ġthe ory
m ber
Ġcomp let
os p
Ġequ ation
H e
Ġr ate
ight s
Ġap plic
Ġcont rol
um an
ĠG u
erm an
Ġconst ant
end s
t op
in o
L ist
om an
ĠM arch
g in
Ġe arly
Ġrespect ively
A C
200 7
Ġ q
c ap
6 4
tab ular
and om
Ġg row
Ġcorrespond ing
oc ial
Ġver t
Ġph ys
Ġl ess
L E
Ġinclud e
in ter
ĠS y
o pe
A r
re en
S S
3 8
Ġind ic
Ġh ome
pr il
3 7
} +
Ġen g
Ġ ide
Ġch ange
st and
ple ment
\ ]
Ġv ol
ĠM in
Ġsystem s
st it
c ode
Ġf ree
Ġw ant
V al
Ġp ath
pr ime
\ {
ĠE uro
ip le
Ġh al
ac he
Ġsignific ant
th ough
ĠThe re
ent ly
I f
Ġf r
s l
Ġ( $
Ġ !
st yle
Ġk e
r ite
ĠC al
ĠAug ust
Ġle g
Ġparamet er
i us
ĠP ar
ĠSe ptember
ist or
ce mber
Ġs ide
Ġm om
Ġm ot
sc ript
ri ption
et er
ĠC o
200 6
le ge
z e
Ġcons id
l ish
Ġh y
Ġcal cul
// //
u ation
Ġm ajor
Ġd at
Ġman ag
Ġp air
id es
ĠS up
Ġre d
Ġa ction
ĠOct ober
Ġs ay
u k
as ing
Ġl ower
_ _
Ġat ta
Ġin s
ac ed
ĠSt ate
S h
Ġo ld
p re
ĠC ity
ĠB ut
th m
Ġfor mer
ar ning
ĠA rt
Ġph ase
port s
v iron
it or
ĠJ une
Ġav ailable
ĠThe se
3 9
t y
al es
ide o
) =\
Ġtra ining
S E
Ġhig her
ĠAust ral
s cal
Ġs it
Ġst ring
angu age
he ad
ĠR eg
} ]
Ġl ight
en c
amp ions
b o
ĠJul y
Ġerr or
Ġp ubl
Ġle ast
Ġinv ol
Ġd imens
; \
Ġt arget
ĠE q
| -
il it
ri ed
Ġl and
Ġn ull
7 0
A M
ut es
Ġfeature s
, âĢĿ
em ma
h old
D E
n ode
ĠN orth
ĠN o
Ġcomp any
) (
ĠThe orem
ĠM ed
Ġc ell
Ġmem bers
ĠA pril
} =\
Ġw on
w are
Ġl ay
Ġc y
Ġpro of
{ (
Ġcondition s
Ġim age
Ġc ases
Ġtem perature
in ally
C ol
âĢ Ķ
Ġline ar
ograph y
) }\
l or
n ow
Ġcomp et
ex p
ĠNov ember
om orph
Ġm ar
Ġre cent
iv en
in ary
ut ed
Ġin put
st er
b r
R e
ot es
Ġl ength
Ġpro m
ĠA ss
ĠDe cember
ab ly
a ut
Ġorig inal
ĠEuro pe
Ġc ross
ĠA f
z eta
Ġr andom
ch ie
4 8
r ary
is ing
Ġve ctor
) ^{
Ġd on
ivid ual
w it
Ġprov ide
Ġbet ter
Ġg reat
Ġc ity
Ġp o
C O
val ue
Ġconsid ered
ĠSe ction
con om
Ġ& =
ut ure
Ġcon n
u ff
Ġb usiness
g o
Ġmethod s
Ġcons ist
Ġaver age
Ġg overnment
ĠW ill
Ġvers ion
Ġe p
u ild
b ased
Ġsup er
Ġl og
I T
Ġc irc
p ed
Ġw id
Ġplay ed
h am
Ġn eg
ater ial
Ġrel ations
Ġc ost
Ġal gorithm
Ġw omen
Ġcol l
Ġfin ite
Ġf requ
on al
ĠF eb
on y
pl ies
ĠP art
Ġc over
k ey
20 00
Ġf low
Ġpos itive
Ġqu est
ĠC or
ffic ient
Ġd ynam
Ġrele ased
Ġse par
pon se
b b
' )
cdot s
}^ \
Ġs ource
Ġam ong
e ed
Ġn ode
ly ing
il le
ic y
Ġst ar
on es
ru ary
~ ~
$ )
] ,
ra ft
Ġg e
text width
Ġre t
Ġappe ar
v ision
Ġl oss
Ġan t
Ġab s
Ġ= =
Ġbel ow
ur ation
}_ \
ad a
I C
Ġth us
an a
6 5
math sf
Ġspec ial
m ary
id ence
ĠM e
at ural
ĠA fter
# #
u ck
in f
Ġassoci ated
Ġb i
Ġt ext
Ġsy mmet
Ġth ird
9 5
Ġs em
m ost
Ġof ten
Ġcomm on
200 5
uss ian
c le
Ġh om
Ġf ocus
er tain
Ġvari ous
ak en
Ġpop ulation
Ġse en
c os
ĠCh rist
wide hat
Ġe ither
ĠM c
Ġel se
ugg est
ch an
ĠE n
Ġp ri
ĠE d
d ata
Ġcor re
ann el
Ġre pl
our s
I nd
Ġme ans
op y
Ġf alse
Ġen c
ul a
0 8
S ee
ap an
Ġpropert ies
s ize
, -
lem ma
em s
b orn
il es
Ġp ract
oc ument
Ġacc ess
ener al
ab or
ind ow
Ġn ormal
/ >
Ġind ependent
I nt
wh ich
ĠH ar
x space
ard s
Ġres p
f oot
al ax
Ġf ive
g ed
Ġv oid
itt le
Ġro le
Ġan g
read y
ra in
Ġacc ount
p oint
re st
Ġ\ {
Ġv ia
0 2
}) \
Ġrese arch
ĠS o
Ġac ross
} |
Ġbeh av
viron ment
d om
ĠW ith
f er
ib ility
Ġf und
0 4
ĠR ec
Ġt itle
Ġpro posed
Ġpr ivate
w ed
Ġa chie
. ~
0 7
ĠâĢ ĺ
le te
Ġserv ice
Ġg ames
Ġind ividual
ul es
Ġobserv ed
Ġth ink
Ġdef ine
ge bra
q quad
ĠK ing
m ap
Ġl ines
ĠO ne
Ġw ater
" )
ĠFeb ruary
v ing
A P
f unction
Ġh istory
Ġpl an
Ġele ment
le ment
ĠM ore
ĠBrit ish
Ġmult i
a ugh
pro p
ec ess
Ġde v
Ġh owever
ĠB ar
s ing
ra int
Ġf ore
Ġf ac
ord in
Ġbl ack
get her
g l
Ġto gether
b or
pd f
w ise
Ġg ive
200 4
Ġbecom e
Ġs uggest
Ġev ents
Ġrequ ire
ra ction
4 4
n a
Ġex ists
Ġev al
i ef
Ġ& &
Ġz ero
Ġcomp os
Ġl ik
Ġp ort
5 5
trans lation
ĠS ch
P l
sm all
Ġh ard
Ġcl aim
Ġfact or
pl ied
ĠLe ague
ĠFig ure
ust om
Ġmat ch
m at
Ġar ch
Ġcomp ar
um e
Ġa uthor
st ring
Ġal ways
}} (
}\ ,
Ġto ok
b ut
ĠW est
Ġmom ent
ĠS ince
Ps i
Ġa ge
ian ce
Ġst ep
Ġt re
Ġto o
a ul
b ject
ampions hip
Ġexpect ed
oun c
c ast
Ġs ix
ac y
ig en
ul ations
}^{ (
Ġn umer
0 6
^ +
ĠI I
ress ed
Ġs che
com p
ĠĠĠĠĠĠĠĠ ĠĠĠĠĠ
Ġj o
lo ad
ip s
Ġsur face
Ġpr im
Ġle arning
0 9
& =
f l
Ġm ember
g roup
Ġh aving
ot ed
Ġreg ular
re w
c up
Ġcare er
Ġcou pl
ĠB o
il ities
" />
av a
}\ \
Ġst re
ĠW hen
Ġh ouse
ad em
S et
Ġanal y
Ġr at
âĢ ¦
ĠS er
Ġsim ple
Ġprob ability
s in
Ġequ ival
Ġchild ren
Ġ$ (\
ict ion
Ġconst ruct
s w
Ġd ire
p ly
al t
Ġal ign
Ġdef inition
Ġsequ ence
Ġinclud ed
Ġm ight
ĠA m
op s
Ġgroup s
Ġcl ust
ic ro
row n
r im
Ġal ready
I S
I m
Ġele ments
Ġto wn
Ġpropert y
ren ch
Ġd ou
Ġexper iment
Ġwrit ten
Ġref er
Ġloc ated
ĠD ist
Ġf ixed
Ġa ir
Ġf ail
{ {\
Ġe mb
ĠA g
ric k
Ã ¡
Ġfil ms
Ġg en
Ġhe alth
Ġab le
Ġst yle
es e
ĠH is
) ]
Ġre view
Ġp ut
o ch
ur g
Ġhe ld
Ġrece ived
end ing
og n
ĠAf ric
ĠS an
ĠM on
ĠE l
h ib
ed er
ĠL emma
Ġestabl ished
ĠH am
Ġquant um
al y
Ġf ar
a ff
Ġprof ess
Ġem ploy
Ġst ation
c ell
ap pro
D ata
W ith
f ill
Ġl abel
Ġrel ated
ĠEng lish
ĠQ u
E S
Ġcl ose
Ġn amed
Ġinvest ig
cit et
6 6
Ġbir ths
ens ion
g en
Ġm en
ver se
ĠĠĠĠ Ċ
iz ing
ult s
Ġwork s
ĠA rm
Ġed uc
r ant
Ġex act
i ber
n b
m id
Ġcommun ity
A meric
Ġdist ance
Ġg round
cent ury
Ġb ase
c her
Ġ ill
Ġ& \
Ġscal e
Ġdevelop ment
um b
ition s
ĉ Ċ
Ġassum e
ou d
Ġbe gan
se mb
Ġoper ator
Ġte le
4 9
l in
ear ch
Ġwe ek
S e
du c
Ġcount ry
ond on
i ol
C T
0 3
med i
itt ed
ed d
ĠJ apan
200 3
Ġlarg er
Ġc amp
Ġf uture
ĠP ark
} +\
] .
ho od
-------- --------
} :
] $
Ġt w
**** ****
d own
ĠC he
Ġw ar
h space
m ark
Ġbu ilt
ic ol
ĠC O
Ġt aken
Ġs om
Ġsp in
4 7
e ople
Ġne ver
f ord
}} {\
oper at
Ġrequ ired
Ġcl ub
Ġhal f
Ġh uman
ĠH igh
) -
Ġprodu ction
Ġpubl ished
Ġbuild ing
Ġun it
Ġs ite
Ġim plement
Ġs ens
ĠG l
Ġcon c
M od
ite ct
Ġgo ing
ir t
( $
Ġ id
Ġm aking
ac hes
L e
ĠP er
Ġh app
Ġche ck
Ġ %
equ iv
ish ing
Ġg alax
Ġdi ag
u ed
ro id
E D
Ġback ground
Ġb en
Ġdat as
Ġd ays
Ġm aterial
ĠP res
on ic
ĠD av
"> <
ourn al
ĠA p
Ġm illion
sk ip
Ġc aus
operat orn
C C
Ġs ocial
Ġn ational
a it
ure d
ounc il
ĠA b
Ġd iv
Ġacc ording
Ġcor rel
ĠCom p
| ^
av y
Ġann oun
n eq
ĠH er
ing ton
m y
Ġf ig
A A
st ar
operatorn ame
N ew
ĠS ec
Ġcon text
k n
ind ent
ari ant
ar ies
Ġs ent
Ġh ost
ut il
Ġl o
Ġs ample
Ġprovid ed
ĠA ir
em ents
ast ic
ott om
Americ an
Ġaddition al
200 2
d imens
itt ing
Ġst ory
Ġgiv es
p ing
Ġyou ng
er a
ĠCh ar
ĠĠĠĠĠĠĠĠĠĠĠĠĠĠĠĠ ĠĠĠĠĠĠĠ
S c
m on
ĠH ouse
m ore
re ed
Ġen ough
Ġspec ies
Ġdeg ree
av es
n ce
Ġv ill
rac y
Ġeffect s
Ġden ote
un c
Ġcont ent
B C
S p
r ated
Ġc ertain
in n
Ġe ar
i et
Ġc ode
Ġc ult
Ġv ideo
ta ct
Ġdom ain
200 1
A t
Val ue
( {\
C ont
Ġfield s
st ate
8 5
Ġb ig
qu are
i res
ĠTh us
t est
ĠCol lege
com e
n ote
Ġmark et
o on
Ġbl ock
Ġind ex
Ġn ecess
Ġpre c
Ġcontain s
Ġequ ations
el oc
sc r
Ġt ry
Ġbound ary
l ike
ĠB ro
Ġ: =
Ġre ason
ĠD ep
ĠL ondon
L L
' $
umer ate
} -\
Ġp ress
Ġspec ific
Ġme chan
plic it
Ġplay er
Ġwh ose
Ġp an
scal e
Ġup d
A d
Ġa rm
if orm
ĠV al
Ġout put
ĠD r
nd er
m ar
es tern
erv ice
Ġf ri
Ġstr ateg
Ġmult iple
" );
ce ed
Ġreport ed
y l
m ing
ist ics
Ġc ut
Ġed ge
Ġgl obal
Ġwhe ther
nb sp
r ig
ul ated
Ġst atic
Ġsol utions
4 6
Ġn atural
u f
Ġcomp ared
ilit ary
Ġa way
Ġm iss
Ġset s
en umerate
) }{
A ll
Ġc le
ĠA ng
Ġthe refore
im ate
Ġwe ight
ĠS im
Ġact iv
Ġeff ic
ĠWill iam
o oth
Ġind ust
re c
is c
e ff
t ic
Ġor d
Ġmet ric
Ġunder stand
Ġcon fig
Ġro und
ap s
9 8
Ġt reat
Ġ- \
id ed
Ġex ec
Ġn ov
D ef
] \
Ġcre ated
( -
Ġbre ak
Ġus er
f rom
Ġstud ents
the orem
ĠM ark
rid ge
ĠI m
ĠS m
Ġcon ver
om ial
D e
Ġopt im
F rom
am a
Ġcan not
Ġh tt
ĠIn ternational
p ol
Ġk ill
Ġc ateg
un ic
Ġbe gin
ĠA ct
Ġwork ing
is k
Ġconst raint
The re
Ġpresent ed
Ġne igh
Ġcom e
ĠL a
R O
Ġv eloc
Ġt rack
Ġp ur
a ctions
Ġ/ **
Ġhold s
Ġeffect ive
Ġb ody
r s
9 7
item ize
ĠF rom
Ġinst ance
Ġle arn
Ġn um
Ġcomp lete
E T
at ively
ĠF irst
Ġ es
Ġc lear
Ġst ars
] ;
h a
Ġp ay
Ġr ather
W h
and id
Ġal most
g ress
Ġinst ead
min ist
l ist
att le
Q u
led ge
Ġcol or
ĠTh at
Ġg rad
Ġprodu ced
y ing
l ight
rr or
I M
Ġcre ate
ot a
& &
ĠM ich
Ġp ast
Ġbro ad
Ġcent ral
ar a
Ġme et
idd le
v an
ac c
Ġco e
op l
Ġc ame
ew ork
Ġke ep
if orn
Ġnot e
p x
Ġim ages
ne ction
Ġd one
Ġbel ie
dimens ional
6 7
oci ety
Ġres ponse
Ġcent ury
Ġtrans form
Ġpartic ip
Ġon ce
Ġim plies
, "
ic ult
ĠPh il
at ives
f ile
Ġperform ed
}} _
Ġchang es
A D
Ġs ays
Ġen vironment
ww w
) }$
il i
Ġbas is
Ġstart ed
ĠF rench
no indent
Ġf ram
al le
ell ing
\ ,\
Ġexpl ain
8 8
$ }
ir l
bs ite
in ated
Ġinf lu
d t
oun ter
ĠI nt
) );
n ers
qu e
Ġg as
iz es
Ġw ords
Ġincre ase
Ġr ank
Ġother s
Ġdiff erence
math scr
Ġpro ve
iforn ia
Ġserv ices
Ġset t
Ġclos ed
v space
ĠM y
Ġserv ed
A nd
at ory
Ġconst ruction
Ġwe ak
~ $
Ġso ft
end er
Ġl anguage
Ġl iter
d ag
Ġgener ated
Ġlead ing
en ing
Ġb orn
ol ic
G et
Ġe conom
ĠInd ia
Ġh or
ag er
Ġl ittle
S ince
Ġent ire
P S
ell ow
Ġco ordin
Ġm er
ill s
Ġin du
Ġpri or
9 6
O bject
Ġequ al
ĠT r
Ġc apt
Ġy ield
Ġch all
m it
oci ation
ĠM od
ic les
\ }$
il ton
ĠDist rict
im ents
Ġrequ est
p ath
kn own
Ġeng ine
Ġval id
Ġcompon ent
b and
Ġm akes
r ast
b ook
Ġl ate
sh ip
mult icol
ĠSt ud
Ġdire ction
ĠC up
Ġl ed
y ear
th ing
art ment
199 9
Ġmagn etic
htt ps
ens or
ĠA c
P i
Ġun ique
it ude
Ġf ile
Ġt aking
Ġdist rict
ct ors
multicol umn
U S
Ġcomp an
Ġcol umn
N N
Ġre ally
Ġ â
htt p
Ġrepresent ation
comm and
) {
4 2
7 7
Ex ception
ĠC ont
Ġb ar
Ġal gebra
om s
Ġprovid es
Ã ³
] [
ĠR ef
st e
Ġfl u
Ġatta ck
og le
Ġstud ies
ĠN e
ĠCh ampionship
cc ording
Ġmat ter
n orm
ĠInd ian
Ġdem on
ĠG erman
o res
Ġd est
ve y
Ġc r
ign ed
Ġas k
ict ure
T est
th at
Ġocc ur
F F
20 23
& -
or ge
Ġ\ |
à ¤
um ents
ens ive
re et
land s
Ġ Â
}} }
Ġ// /
Ġintrodu ced
A B
c ing
u ra
ĠThe refore
Ġdevelop ed
o ph
Ġcompon ents
Ġin c
Ġsign al
ul ly
Ġro t
Ġrest rict
clus ion
Ġsub ject
en ed
o o
s plit
Ġimp act
Ġse arch
Ġne ut
et t
g s
it es
Ġrel ation
I s
text rm
6 8
r c
Ġmax imum
b ound
ĠSt ring
Ġ _{
he l
Ġs w
r up
L O
ĠCal ifornia
C D
Ġw ent
d o
ar ily
Ġt able
id s
Ġtrans ition
is es
St ate
Ġpr inc
ĠAmeric a
a el
appro x
Ġam ount
Ġw rite
oc al
om b
ĠD ef
ind ex
Ġw ave
sum mary
all s
Cl ass
Ġup per
in ite
ari o
Ġev olution
as c
ber g
Ġtele vision
ess ion
K ey
ĠAustral ia
ran ch
Ġquest ion
ĠG o
Ġproblem s
eth ing
g ence
4 3
ber t
line ar
um p
B l
Ġwid th
ly mp
l ength
at form
r ate
Ġadd ed
ĠEng land
) +
M S
Ġap plied
==== ====
Ġspect rum
Ġoffic ial
el ine
Ġdirect ly
her n
R ec
Ġestim ate
Ġatt empt
ĠD i
Ġdiff icult
Ġf lo
Ġsc en
I R
l ong
Ġmed ia
Ġg ot
Ġrec ogn
N ot
ĠRep ublic
text tt
row s
ic o
ac hed
Ġpop ular
ĠT able
Ġeval u
f e
n ey
Ġvari ables
use um
d en
Ġadd ress
199 8
Ġphys ical
Ġs on
l a
Ġcent er
E n
ĠT rans
ch ange
Ġincre asing
Ġh istor
Ġcour se
Ġn orth
Ġe igen
Ġ und
k en
Ġelect ron
Ġcon duct
ic a
Ġcontinu ous
^ -
Ġ! =
O S
Ġad j
A fter
Ġk ind
t ra
iv il
ĠPres ident
Ġd ied
Ġp ack
Ġc ustom
Ġde cre
le vel
ar ing
Ġp arent
Ġarch itect
ect or
Ġv iol
Ġsmall er
Ġtyp es
The n
Ġdetail s
Ġinclud es
I ON
d s
ag ed
pec ially
Ġt akes
Ġare as
P E
stit ute
{ }
k y
oy al
ĠD es
Ġd ocument
M an
Ġs ound
Ġbecom es
ĠSy stem
Ġannoun ced
Ġc andid
un ity
T R
5 7
Ġpro p
v ant
Ġl ive
ĠD o
Ġtrans fer
b re
at us
ur l
V ert
i ers
u it
Ġrat io
Ġnum bers
Ġveloc ity
i ation
Ġresp ons
Ġt ask
5 8
199 0
y a
G e
ru le
k er
4 1
subset eq
h an
yn omial
Ġgo al
Ġallow s
( ).
v ille
u el
Ġ$\ {
T E
ric es
Ġst age
ĠC our
5 00
Ġor g
min us
ĠO p
os en
Ã Ń
Ã ¼
Ġcho ice
Ġs ources
ĠE ast
ĠD iv
Ġf em
Ġp erm
Ġfr ont
ĠN ote
Ġl ink
ag ing
Ġset ting
Ġreg ard
l ink
and er
enc ies
}^{ -
r un
Ġexper ience
ĠR iver
Ġrelations hip
d ist
ĠD em
Ġcrit ical
ĠR ed
an ish
rib ute
o e
ĠH ol
ĠCent er
Ġar r
mod el
Ġbehav ior
E rror
Ġpolit ical
ri ate
dis play
Ġin ternational
big g
f lo
ĠA nt
Ġon line
Ġch annel
and s
b ody
Ġf it
} '
. )
ĠM or
Ġf ather
Ġj ob
F il
ĠB el
g ing
ĠBl ack
5 6
| |
Ġs old
au ge
Ġsuccess ful
ĠEurope an
ĠC ouncil
Ġcont ract
Ġac cept
us ion
Ġep is
ĠG a
Ġfrequ ency
pert y
Ġexp ression
Ġro b
Ġn uc
ĠL ist
n ormal
7 8
Ġlik ely
oc r
ib rary
S y
Ġdemon str
Ġs outh
Ġ Ð
ou l
ĠM al
I G
Ġmov ed
W hen
Ġge omet
Ġ\ (
Ġpat tern
Ġm ention
ĠP ort
Ġrele ase
Ġar ray
Ġp ref
ot ic
Ġde al
at al
Ġcorre ct
Ġ\ ;
Ġb ring
it te
Ġpol icy
Ġdimens ion
Ġequival ent
T S
loc ation
} /
Ġwe bsite
c ial
" ;
ĠB er
ans ion
Ġvill age
Ġestabl ish
ĠO ur
Ġro ad
199 7
() );
foot note
O r
Ġthe orem
Ġ ess
The ta
a res
ĠCan ada
ac ity
ĠG roup
Ġrel ative
d i
a ign
}} _{
Ġm id
u z
Ġreg ions
ĠP at
Ġit er
ut ive
H E
ta int
ag s
p an
p ite
Ġdeterm ined
ĠNew s
ĠT ra
\ }
Ġpart s
le g
Ġst op
ĠL aw
l n
ol s
Ġpe ak
pro d
Ġus es
b ul
Ġf av
Ġa ward
p ret
x y
ĠS en
ĠC ons
O ne
Ġass ert
Ġconn ected
all ed
v is
N ote
ĠN ot
Ġl ove
Ġits elf
Ġsom ething
A G
Ġ Ã
err or
alle l
Ġres id
T ime
Ġobject s
Ġs ense
ric e
Ġth ings
Ġmon ths
Ġre ve
Ġh on
as ons
ab s
Ġrem ov
oun tain
vers ion
ĠCh ina
< \
set minus
ĠSt reet
ĠG eneral
opl us
k a
E E
ĠP al
199 6
Ġtrad ition
Ġspe ed
ĠP aul
Ġfe el
ok e
ĠPart y
ad es
M L
un n
Ġde cl
Ġun cer
Ġm ove
ĠWh ile
Ġpro ced
ri er
V iew
Ġsm ooth
Ġb ox
Ġla un
cre t
under line
ĠA ward
Ġ( $\
Ġs cre
Ġsu ff
Ġl ot
c an
ip al
i os
s pec
ri an
Ġno ise
it ing
Ġa ud
if old
Ġg ain
$ _
Ġ$ |
ist ry
ĠĠĠ Ċ
Ġfor ce
O ver
Ġm ag
u i
Ġre ach
P eople
ĠTh om
Ġag re
In f
ĠM a
ĠJ ames
E qu
_{ (
ro te
F orm
wo od
t ical
Ġl ost
* {
ran ge
}} ,
ag o
Ġde ep
j ection
omorph ism
Ġfl ux
b t
in i
Ġ$ -
Ġwho le
p ng
Ġcompan ies
U R
li er
ĉĉĉĉ ĉ
Ġad apt
id a
Ġin equ
Ġill ust
ĠR ober
ir m
Ġnov el
Ġd ig
Ġneed ed
S up
ĠDav id
Ġder iv
//// ////
Ġwh ite
ĠT V
L iving
oc ks
Ġy et
Ġm ale
S P
am s
h and
ad ian
Ġp ers
Ġwork ed
Ġinter action
it z
Ġm ix
er ve
Ġ( -
Ġsu fficient
Ġstud ied
Ġpol ynomial
Ġapplic ation
Ġdou ble
Ġobserv ations
Ġ ir
u racy
Ġf ace
Ġa x
Ġal tern
app ing
e an
Ġal though
Ġun iform
Ġhe nce
in put
line width
Ġ( )
i en
ĠG erm
Ġes pecially
ĠĠĠĠĠĠĠĠ ĠĠĠĠ
iz ations
wed ge
Ġwh y
ĠH ere
" :
ort hern
in ct
Ġact ive
ĠB ay
8 7
U T
ĠA pp
Ġcol lection
sub figure
Ġcon clud
Ġrad io
ĠĠĠĠĠĠĠĠ ĠĠ
Ġse lected
Ġloc ation
us ed
ĠE m
k ing
Ġcon v
M P
ĠCh urch
Ġup on
Ġcom es
Ġapp ly
an i
^{ -\
or ing
Ġresult ing
ic on
ell ar
ra z
Ġmod e
Ġthe rm
Ġd ark
_ +
Ġben ef
R equ
ĠFran ce
ic ation
Ġlevel s
) |
Ġdiag ram
ĠS um
ra b
ers ion
P r
is ation
sh ift
an ks
Ġeff ort
Ġele ction
n s
p ublic
in os
5 1
Ġclass ical
` `
Ġinteg ral
Ġpart y
Ġneg ative
Ġstre ng
c ks
Ġch ain
Ġqu ality
r d
ver y
Ġsim ply
M A
199 5
Ġdeath s
Ġstructure s
Ġlay er
Ġoper ators
9 3
he st
ĠDep artment
g rad
ub e
Ġvari able
ĠCl ass
n es
{ $
9 4
ĠF il
Ġdatas et
Ġaut om
5 2
Ġknow ledge
dag ger
pt ions
. _
Ġout side
Ġqu al
Ġpres ident
H istory
ĠR ich
Ġnew s
Ġch arge
ther n
at ur
Ġn ight
Ġ$ [
Ġsupport ed
Ġneed s
is ms
Ġlarg est
Ġrema ins
Ġto wards
Ġus ually
att ice
Ġl at
lim its
W hat
_ *
p ack
ĠU K
Ġreturn ed
Ġto day
Ġs amples
ĠH all
Ġcur ve
i ences
Ġsh all
Ġg re
5 4
cre te
F T
Ġim medi
Ġdesign ed
Ġsh ift
pl ace
Ġteam s
Ġt ree
ous ly
Ġ ?
8 6
Ġex plicit
e es
Ġeduc ation
as hed
Ġiss ues
N o
ash ington
d et
Ġch arg
st on
IN G
Ġd raw
ĠO lymp
A p
198 0
Ġcomp act
od ing
S C
h y
Ġper cent
T rans
Ġgrow th
ay er
Ġs eg
Ġcon cept
Ġdiscuss ed
Ġex hib
ann ing
B ut
p c
ĠRes earch
7 6
ify ing
Ġnecess ary
Ġst ri
+ +
Ġw ord
ĠAss ociation
p ace
Ġpro te
Ġact ually
ou thern
ĠQ ue
b a
Ġf ood
Ġiss ue
ĠHam ilton
d ro
I P
Ġac qu
Ġgra du
Ġbound ed
anc ial
ma il
Ġ }\
Ġm ilitary
00 00
Ġg auge
bl ack
in it
$ &
ing u
Ġe mer
Ġ rac
Ġexper iments
ĠPro position
), \
ac ing
Ġsub set
Ġm ach
Ġthrough out
9 2
Ġp age
as ks
Ġide a
"> </
Ġt en
Ġdynam ics
Ġh yp
Ġhy per
Ġgra v
Ġpres ence
O T
T r
Ġim m
ro s
Ġexp ress
oll ary
t urb
ri ef
plic ation
ok en
che ck
itte e
ĠSt e
ĠGe orge
5 3
is ions
Ġsymmet ry
Ġinvol ved
ĠH ow
Ġfor ward
Ġem ission
Ġmap s
ĠArm y
Ġ ensure
ol ar
k et
Ġn odes
n av
Ġpartic le
ĠIn stitute
199 4
Ġdis play
Ġfram ework
ĠIn ter
Ġredu ced
Ġclass es
Ġcon tact
Ġbeh ind
Ġp ie
pro t
. </
Ã ¶
f low
o ice
( ),
' );
Ġlong er
F L
Ġsche me
Ġtra vel
el i
ĠG reen
Ð ¾
align ed
el ves
ac her
Ġopt imal
Ġv ict
ste in
Ġproduct s
Ġfollow ed
Ġpartic les
Ġref erence
eder al
Ġindust ry
ĠP e
def inition
Ġad m
j s
\! \!
Ġb it
Ġad opt
Ġemb edd
F ile
in y
Ġw rote
ĠR oman
f r
Ġlim ited
al d
Ġus ers
Ġallow ed
Ġsc ore
Ġs us
S O
199 2
Ġf all
ro y
Ġad minist
Ġcurrent ly
ree k
if ier
Ġrun ning
Ġlead s
ĠF l
ad o
n ov
it ar
S ub
ec k
ĠM art
e al
Ġdec ision
w rit
Ġgalax ies
ĠSc ience
Ġapproxim ation
ĠCour t
N ow
Ġdirect or
Ġoper ations
ole an
Ġk m
f ect
N et
ma in
Ġder ived
Ġa im
Ġuncer taint
A dd
Ġd ate
ar p
5 9
sequ ently
Ġapp oint
Ġass ist
Ġfig ure
M C
Ġin side
pon ent
tr ue
rop y
Ġtrans port
Ġnetwork s
col on
Ġover all
Y ou
Ġthough t
ĠW ork
Ġvert ex
Ġprofess ional
Ġl atter
Ġpl atform
Ġmot ion
Ð °
on a
empt y
iv ial
Ġw indow
)\ ,
Ġcompar ison
Ġperson al
Ġav oid
O ur
ĠC ap
T ext
Ġmon th
Ġmeasure d
Ġs low
Ġform ula
esc ription
Ġch osen
ĠW hat
Ġprim ary
iqu es
a id
Ġcoupl ing
ĠS w
ec ause
8 9
ĠS ub
b our
osp ital
ant ic
Ġexp ansion
ot o
Ġun its
F A
Ġform ed
irt ual
Ġf un
Ġar bit
Ġprevious ly
Ġart icle
ĠH ence
ĠHe alth
R eg
h i
Ġob ser
Ġst ra
ĠS ing
}} (\
al ian
Ġmin imum
Ġoff ice
Ġs il
C H
O f
rup t
un t
Ġper turb
text sc
ĠJ ack
ar th
Ġcontrib ution
ĠB est
st ant
w ell
Ġn orm
Ġ| \
Ġcho ose
Ġ );
ĠR uss
ĠGerm any
d r
Ġext ended
S im
b on
Ġ row
Ġsp at
Ġpan el
st ance
I L
Ġoper ation
E vent
_{ -
Ġn ames
ĠO ff
ur ity
Ġf ire
ĠD ay
g color
ĠL ou
d iff
Ġd ed
Ġh ol
Ġm other
us ing
N S
ar ter
ĠW ashington
) }(
Ġt ax
ines e
Ġplay ing
ĠN ow
st ack
ĠM usic
Ġdef ault
Ġmod ern
iver se
ĠP o
il arly
Ġt ell
Ġstart ing
Ġpol ar
Ġspect ral
ar c
e ch
il ies
Ġpolit ic
ĠV ir
Ġve h
Ġev idence
Ġst ream
Ġacc uracy
ĠB ook
Ġeas y
Ġv an
Ġbl ue
el er
Ġcontinu ed
Ġn ature
Ġf ully
uth ors
ĠUn ion
H ere
semb ly
ĠM et
199 3
Ġinterest ing
Ġinter pret
d eg
Ġb all
Ġr isk
et urn
Ġsh ape
_{ {\
Ġcamp aign
Ġf ill
7 2
C E
Ġnumer ical
[ '
ĠR oad
el es
m es
Ġjo ined
am ily
Ġde part
V ID
Ġsatisf ies
Ġ ),
c ase
) /
Ġacc om
m et
Ġfact ors
Ġmon ey
Ġvol ume
r ide
Ġeas ily
Ġl iving
ĠV ol
l am
y e
ffic ients
ef ore
res ents
Ġc os
T able
end ix
Ġbel ong
Ġexp on
S er
Ġcomplet ed
p aramet
s ol
8 4
Ġr ule
E q
= {
ĠP ress
Ġapplic ations
ove red
ĠF urther
el t
ĠR oyal
Ġh ot
Ġprocess es
n et
ĠT ex
ĠAr ch
Ġhim self
b in
Ġrecent ly
Ġcont roll
Ġtechn ology
../../ ../../
P R
Ġra ce
he ight
Ġan sw
ak er
M ore
9 1
Ġcontin ue
Ġright s
Ġse cur
Ġqu ick
Ġse lect
ĠDiv ision
F irst
Ġmoment um
ĠL eg
P ol
ĠAfric a
r as
Ġdirect ed
Ġpract ice
Ġd rop
ĠM at
P C
' ]
ĠJ ust
O ut
ĠD uring
m c
l t
Ġdef e
6 3
B e
Ġatt ention
Ġmin im
pr int
ark s
Ġconc ern
Ġb gcolor
ĠAustral ian
' \
ĠS ome
Ġre v
Ġsim ulations
A tt
Ġincre ased
i ency
Ġmain tain
Ġdescrib e
M ap
al g
Ġrecord ed
Ġc ast
Ġexp and
sub subsection
= (
for all
Ġmeasure ments
197 0
Ġestim ated
Ġform s
Ġpress ure
ĠS pec
Ġin j
f erence
Ġopen ed
ĠM ary
ĠComp any
Ġmar ried
Ġlead ers
ĠG et
Ġcon sum
S U
Ġsh are
gorith ms
in v
res hold
Ġrepresent ed
Ġd am
ĠN or
ĠAc adem
ul s
cl es
ri a
Ġex amples
ĠO ut
Ġra il
s u
N ode
Ġpl ane
ĠY ear
iz er
Ġrad ius
Ġdeterm ine
Ġop port
Ġt ro
ĠD irect
er ia
Ġcol lect
al a
: \
Ġt rac
Ġchall eng
Requ est
Ġgener ally
Ð µ
Ġconn ect
Ġopt ions
Ġsy mbol
pl ate
Ġform ation
Ġl oad
f il
ĠMore over
Ġcons ists
Ġrequ ires
se y
Ġconsist ent
Ġwrit ing
E d
ĠS ur
ĠIs land
Ġtreat ment
ĠS ociety
Ġpat ients
bul let
ĠS am
Ġappe ars
Ġam plit
O D
un k
Ġorig in
Ġr ates
a a
Ġon es
] (
est ival
Ġm icro
ĠRober t
ĠA lex
Ġpro per
Ġcell s
Ġs ure
B S
Ġsol id
w in
Ġmem ory
Ġear lier
t es
Ġclust er
ĠTe chn
ĠD is
o z
Ġsong s
Ġstrateg y
' _
Ġd augh
Ġsignificant ly
bo ard
new command
Ġf ast
wit ch
Ġbro ther
Ġ- ->
Ġex cept
F ield
Ġexperiment al
Ġcount ries
) _{
ĠF ound
) ^{\
ask et
Ġs ex
ĠR ad
Ġcon nection
k i
Ġcorrespond s
om in
Ġsl ight
Ġm essage
Ġe ight
Ġcalcul ated
Ġhe ight
col umn
pm atrix
\ '
ĠO ther
}$ -
Ġqu ite
H owever
Ġess ential
D F
Ġg ave
ĠM ex
Ġconst it
ollow ing
Ġcont rast
Ġh ours
199 1
ym pt
Ġuse ful
Ġfri end
B uild
Ġsim pl
ĠW il
Ġsur v
6 2
Ġst aff
omet imes
ĠWh ite
Ġw ide
Ġst e
Ġneigh bor
Ġf raction
c ases
Ġfe ed
r at
C o
Ġmanag ement
Ġt er
Ġrep resents
Ġcomp ute
C L
Ġvis it
Ġde but
Ġident ity
Ġj ud
w ord
Ġdec ay
Ġf ight
! --
b urg
b i
Ġcharact ers
ĠM ag
t em
,\ ,
= -
P ath
Ġche m
Ġvert ices
Ġconstraint s
7 3
Ġsp aces
ĠG old
ar r
act ive
pt y
Ġm arg
Ġassum ption
Ġsign ed
Ġdet ection
F C
ĠM iss
8 3
Ġl ack
ĠH en
) {\
idd en
w ar
Ġsecur ity
8 2
g raph
Ġhig hest
sim eq
Ġinequ ality
ir al
Ġw ife
Ġrele vant
ap ter
st o
Ġc ore
Ġfor ces
ens us
7 4
Ġco ach
Ġtra in
Ġ+ \
E nd
Ġl attice
6 9
Ġcoe fficients
m ission
vent ion
k m
per p
ĠCl ub
ĠT est
oc ol
Ġm us
ĠM ac
re es
In ter
und le
Ġthe ore
Ġcorrel ation
Ġro ck
Ġvari ety
ob ject
Ġdesc ription
ĠM er
Ġst eps
rodu ction
Ġc am
an o
' :
.. ..
A ss
Ġarg ument
Ġprof ile
ip p
it able
ĠB en
Ġ ~
Ġexact ly
re me
ri al
ĠR ev
}^ *
Ġ ...
C S
ĠC ong
Ġse lection
Ġch urch
Ġdis e
Ġproced ure
N A
it a
Ġappe ared
Ġrun s
con fig
Ġc red
ĠR ussian
Ġprodu ce
Ġc ry
Ġt alk
ind er
i ra
z ero
Ġmean ing
Ġd ual
ob ile
ri z
Ġcateg ory
Ġcomm and
Ġpol ice
7 9
ĠMich ael
ĠR em
Ġb ur
Ġres olution
og ene
us er
ĠĠĠĠĠĠĠĠĠĠĠĠĠĠĠĠ ĠĠĠĠĠĠĠĠĠĠĠ
Ġfr ame
it i
ern el
Ġ= \
6 1
over y
le ase
ĠG od
Ġreve al
Ġstat us
c is
Ġbook s
ĠJ er
Inf o
or age
Ġsim ulation
Ġto ur
Ġh it
( (
con s
Ġstat ement
Ġr ules
Ġhigh ly
Ġliter ature
.~ (\
ĠTex as
Ġs aw
v oid
P T
Ġ/ *
Ġde com
ĠSer ies
hes is
Ġse em
) ^{-
ve x
$ ).
ĠS al
}} ^
Ġschool s
ĠD el
Ġin ternal
Ġscal ar
I V
Ġexist ing
Ġs quare
ĠT own
Ġimpro ve
8 1
Ġed ges
S o
Ġcons erv
ĠG ames
Ġto ld
Ġh ous
Ġagre ement
ut ing
Fig ure
ol f
3 00
et her
ic ity
Ġsh ip
ĠM ad
Ġincre ases
ail y
f ree
air s
ĠD an
Ind ex
em ic
om a
Ġd ram
z er
Ġant i
ap i
Ġan im
ar l
f ort
ter m
ĠO f
Ġp ick
() )
ough t
Ġsy n
os ing
Ġc ounter
$ (
sequ ence
il ib
a ur
ĠD on
umn i
is hes
M M
ĠSc ott
is her
ĠCent ral
/ **
[ ]
bl ock
Ġext ract
Ġdepend s
Ġden otes
Ġst ated
~ $\
Ġw alk
Ġident ified
Ġact ivity
Ġal gorithms
re p
Ġt ensor
ir ing
7 1
Ġext ension
Ġra p
\ "
i pl
Col or
$ $\
Ġbir th
Ġapproxim ately
b ur
U N
Ġpl aces
duc ation
Ġex am
Ġm ole
ĠM ont
Ġv s
Ġrema ining
Ġelect ric
Ġs ampl
i h
ĠG reat
z a
Ġbo ard
g ent
ag ement
g g
)\ \
en ge
rough t
ĠPro v
Ġdid n
ĠAfric an
Ġsoft ware
val ues
v ement
Ġw ind
) --
Ġg overn
B A
Ġappro aches
en a
\| _{
Ġexist ence
Ġsc atter
Ġsit uation
Con text
d ate
Ġse ven
) }{\
T D
ĠT om
ed y
an ced
198 9
Ġinst it
ĠP ublic
u a
ĠT ur
Ġ ult
u ge
Ġw or
ĠE v
p at
Ġtrans l
Ġb al
Ġso on
lo od
$ ^{-
c el
Ġang le
Ġt im
/ *
ĠS l
ĠL and
A b
for ce
m en
art s
Ġcon cent
Ġdet ect
Ġj ournal
Ġext ra
re y
ĠCh inese
n ext
ĠM us
ab ase
Ġs ports
not her
h om
ĠThom as
Ġbas ic
oc ation
Ġrepl aced
Ġstra ight
li ament
Ġro om
ĠF e
Ġse ems
ab ilities
ĠP et
Ġsc ient
Ġre pe
Ġsa f
Ð ¸
Ġcour t
Ġcom ing
r ish
Ġo ption
ĠM useum
E lement
def ine
m i
ex ample
Ġdistrib utions
ib ly
Ġshow ed
if ically
Ġvis ual
ĠSup er
qu ot
Com m
Ar ray
Ġmention ed
b ase
$\ {
ĠS et
ul ate
az ine
H ow
Ġappro p
Ġ/ >
Ġparticular ly
Ġb order
m ann
ĠCan adian
res ult
Ġb ul
Ġfam ilies
Ġa uthors
in em
u ations
Ġdoes n
d ec
ĠG rand
ĠDem ocr
Ġlist ed
Ġf ix
Con fig
S pec
st ream
Ġredu ce
Ġqu as
Ġconfig uration
m atrix
ent al
m as
ar ant
Ġbegin ning
ri um
y r
} )$.
ĠR ob
the n
Mod el
d im
L S
ch ar
P I
R ep
Ġlook ing
Ġcur ves
E ng
Ġg irl
Ġread ing
rem ark
Ġcomplet ely
Ġintrodu ce
ms elves
198 8
cur rent
g n
Ġclass ification
Ġth ing
Ġre ached
ĠCar ol
Ġpr int
p ress
Ġhtt ps
ĠKing dom
yp es
Ġ },
map sto
Ġin cor
Ġmiss ing
196 0
Ġdist inct
ĠSe cond
Ġsc ience
ĠW estern
Ġocc up
Ġepis ode
Ġaff ect
Ġtechn iques
a o
ĠC D
s pect
ic ense
n eg
Ġde b
asket ball
T e
Ġspect ra
Ġdom in
w est
Ġpl ant
Ġhor iz
com ple
ĠA ccording
B ar
it ch
se ud
Ġc op
ch o
g ra
Ġcomput ed
Ġst able
Ġequ ip
Ġoff er
r ong
Ġp en
Ġbe y
Ã ¤
il s
' re
Ġinv ariant
Ġb ad
ĠJapan ese
u an
f ess
Ġp aint
id ing
Ġcom ment
Ġc ele
Ġin sp
Ġmod es
g ener
Ġm ind
Ġerr ors
t ik
ot ion
. $
Ġthe mselves
ĠK ore
Ġbey ond
ict or
Ġchang ed
i able
we ight
Ġj oint
is l
Ġgre ater
Ġc ause
Ġre comm
ĠO b
Ġdepend ence
h ing
Ġor b
ĠF ore
at re
Ġst ellar
ĠChrist ian
' ;
Ġhe avy
Ġpair s
Ġprop ag
S ervice
mer cial
Ġdo ing
{ $\
Ġg reen
Ġst ay
Ġ ]
ĠVir gin
C P
c ount
Ġtradition al
Sy stem
ro ad
sk i
es h
Ġs en
ĠC ath
Ġqu ad
y mmet
Ġpl ot
od er
ĠMin ister
Ġspat ial
}} ^{
ĠAcadem y
Ġle ague
Ġeffic ient
ĠSm ith
ĠS ervice
re al
ĠC re
Ġw ays
Ġinter actions
N R
Ġmeasure s
t ri
f act
ĠJ ew
Ġet c
t itle
Ġcomb ination
r ons
l ig
Ġ&= &
ĠC ur
)$ -
P er
Th us
******** ********
ĠT or
loc al
Ġfin ancial
Ġform al
se ct
Ġcoll abor
in ity
th let
A pp
Ġ( !
ĠAn n
Ġab ility
ĠAl though
ĠL at
Ġc ard
Ġmin utes
Ġb rand
mult i
reed om
198 7
Ġevent ually
S I
Ġnot ed
Ġre const
Ġyield s
ĠH istor
ic ago
Ġtrad e
Ġfin ally
Ġgener ation
Ġestim ates
Ġcontain ing
e ks
m ic
G L
Ġdaugh ter
ĠU nder
ĠCO VID
re land
ĠG ra
= #
ĠZ eal
Ġmat rices
G roup
Ġsymmet ric
ament al
R ead
h al
C ode
h as
Ġ} );
Ġth reshold
F e
d x
tik z
Ġfour th
Ġcontrib utions
Ġun ivers
in ner
Ġmeasure ment
ann ed
S ize
I F
Ġas ympt
AT E
Ġother wise
Ġrel ig
con n
Ġfound ed
Ġag ent
h bar
' }
Ġconstruct ed
The se
b uild
Ġg old
ĠAl so
Ġcl oud
Ġw oman
f irst
Ġpl aced
Ġper fect
so ft
pro position
Ġarbit rary
ĠZeal and
abl ed
ult ure
Ġsing ular
O p
le ctions
Ġ\ },
Ġpol y
Ġinflu ence
Ġw est
Ġs n
omorph ic
ro t
ĠA re
ĠJ ose
m ethod
ck now
ĠB ill
Ġin ner
ĠGa ussian
The orem
uf act
ap ache
Ġp urch
ot ing
Ġnear ly
Ġcult ure
Ġe ast
ĠLou is
j o
ĠO ver
du ction
ĠF lor
Ġb rief
ĠS un
Ġmed ical
ass ert
N e
H and
Ġb ottom
Ġcomp are
Ġcaus ed
ĠChar les
Ġassum ed
Ġfem ale
Ġcap ital
Ġquest ions
ĠFran cis
ap ers
; &
Ġhe art
Ġstud ent
ist ical
ĠP ost
N ext
Ġadv ant
S M
198 6
m ember
Ġrel atively
} %
E nt
ag raph
Ġanal og
om ic
c ore
ĠB ur
C A
ĠE qu
O M
Ġbelie ve
S he
m d
pro b
^{ +
Ġb ranch
por ary
od ot
L P
p age
ĠIt alian
Ġkill ed
r ich
Ġrepl ace
Ġobser ve
Ġabs or
Ġabs ol
ĠT ime
p g
Ġtrans formation
Ġalbum s
Ġdiscuss ion
Ġupd ate
Ġr ing
ĠT wo
uff er
ĠF in
\ _
Ġc ivil
H z
Ġc opy
i ant
B ox
g u
c ular
ist an
ĠI N
velop ment
{ {
ud d
Ġm iddle
ĠH istory
re ct
It em
ĠIn c
ĠD en
Ġgener ate
F urther
Ġh um
ĠRec ords
$ ;
G B
ĠSt ar
Ġman ufact
Ġstreng th
k l
Ġdis k
ĠIn st
ma z
Ġelect ed
Ġimmedi ately
\ {\
i as
v a
cc cc
ĠB rown
f ont
an cy
Ġm ut
Ġd ivid
and a
k in
Ġm orph
et ime
) _
ĠD ata
Ġb ank
Ġ er
Ġcal c
Ġident ify
Ġdifferent ial
Ġask ed
Ġb rought
C he
Ġp ure
Ġplay s
ve re
ĠH ill
ilib rium
C an
Ġconver gence
Ġp ain
AS S
b ottom
en ame
a ud
pect ed
sc ill
Ġcomb ined
Ġg rant
ĠComm ission
Ġres ources
ĠM ass
Ġfin ished
am ely
ĠS aint
Ġp hen
L og
Ġart ists
Ġprob ably
Ġass ess
ing er
Ġt it
ĠL ie
Ġhtt p
Ġ util
Ġv ac
ĠC E
Ġro ot
j oy
on ly
EN T
ĠPro gram
f inal
D A
ill a
Ġas pect
$ ~
Ġinter view
Ġslight ly
) },
' (
Ġp rice
ell i
et te
Ġinteg er
ĠM em
Ġopt ical
it ation
ĠM o
198 4
Ġman ifold
display style
Ġw atch
=" +
ang er
Ġactiv ities
Ġ esc
Ġth ick
g t
ĠR ock
Ġappoint ed
Ġmov ing
Ġcirc le
ĠK e
Ġmov ement
h ost
n ames
ĠSum mer
ĠC amp
Ġn il
ic ated
as tern
ĠIt s
ĠG overnment
Ġmod ule
ĠL os
ar ian
Ġag o
st art
C ount
Ġdec ided
ĠHamilton ian
ind ing
Ġget ting
Ġtyp ically
Ġprogram s
198 5
f in
st ract
" "
ĠĠĠĠĠĠĠĠĠĠĠĠĠĠĠĠ Ġ
Ġmechan ism
Ġdistrib uted
Ġt or
c d
ĠM el
Ġcomput ation
ĠIs ra
Ġs ometimes
Ġpre vent
Ġ$ $
Ġcap acity
ĠF orm
Ġsem i
Ġdev ice
ot al
Ġt asks
ĠG al
ig an
Ġmach ine
P re
or ial
Ġorig inally
Ġarchitect ure
Ġle ave
Ġhy dro
ĠP eter
ĠR ail
Ġsp read
g reg
p icture
Ġbuild ings
Ġb inary
Ġleg al
l ang
Ġsur round
ann els
Wh ile
Ġgo es
) +\
Ġcoordin ates
- $
E M
ĠFran k
ĠW omen
Ġprov ed
irc raft
ic an
ĠFound ation
om y
( {
Ġcandid ate
op ic
Ġacc ur
Ġpro gress
or ation
Ġfil ter
Ġa mb
P art
ĠH ig
Ġgu itar
he mat
def ault
Ġth reat
Ġcy cle
res h
Ġpur pose
Ġc ru
P P
Ġcle arly
ĠF ootball
Ġth row
Ġex c
4 00
Ġpar allel
s ur
ip age
Ġcompet ition
ĠE ach
| _{
M ed
ĠB re
Ġrema in
Ġv ary
T V
Ġ ;
Ġmin or
Ġreg ime
Ġwrit er
ĠPar is
ĠM ost
Ġlead er
cre ate
ĠS ta
Ġd u
ĠĠĠĠĠĠĠĠ ĠĠĠĠĠĠ
ir it
Ġhyp ot
ĠRich ard
min ipage
rib ution
mod ule
Ġs qu
## ##
Ñ Ĥ
M essage
ĠJ an
Ġart ist
Ġdiff erences
b an
Ġexp ressed
ar se
Ġfl at
> &
M ethod
ĠP re
Ġor ient
Ġp ark
C ons
Ġsepar ate
com ing
s ch
Ġh arm
Ġinter val
Ġorgan ization
Ġve ctors
Ġres on
al ysis
Ġex pert
Ġo scill
} &
Ġredu ction
Ġconf ir
ell a
os h
Ġseg ment
cont ent
v est
Ġsatisf y
Ġres ol
f aces
Ġdep th
C all
bl ue
vi ation
Ġact ual
val id
Ġa ctions
av en
C R
ĠB ig
Ġto urn
f it
Ġsh ot
} }$,
ud es
Ġgalax y
ust ain
ĠM r
T T
Ġsit es
ĠOp en
Ġdetail ed
M e
Ġn om
Ġdem and
pro cess
k o
r or
Ġstrong ly
rel ated
ĠO ffic
ĠT imes
Ġfav or
Ġ= ==
Ġindividual s
Ġf air
Ġe arn
ott ed
ell ed
at ically
Ġst rict
Ġachie ve
Ġs plit
Ġst ations
Ġc orn
c ref
b as
ĠCh icago
Ġtest ing
Ġwe eks
ĠI reland
ĠGe org
S R
ĠJ ournal
Ġm is
Ġbehav i
ĠRuss ia
Ġon to
} }$.
E C
Ġtra ined
ĠM il
M R
Ġfootball ers
m ma
ĠH el
Ġindu ced
Ġdig ital
wh ile
Ġgiv ing
Ġex ternal
ach ing
pos es
M em
ĠIn f
at o
Ġmajor ity
wit ter
er c
Ġtherm al
Ġcol lege
Ġachie ved
) -\
ol a
Ġapprop riate
inf o
Ġcar ried
ĠU p
Ġde ad
198 3
} )$,
Ġbe am
= '
est s
D P
Ġg ap
}{ |
Ġan c
Ġeconom ic
Ġg rand
Ġ$ {
: }
Ġdel iver
Ġal umni
Ġf a
Ġ} ;
ven ue
ab il
n y
ĠL u
Ġpre p
Ġp ow
ĠL ife
=" ../../../../
Ð ½
ul ed
st atic
M ar
Ġtyp ical
T H
h ouse
st ra
y es
Ġent ry
Ġpass ed
st ruct
Ġun ion
Ġobserv ation
Ġex cit
c ript
Ġoptim ization
im age
n el
ĠG r
ĠPl ay
Ġpredict ion
raz il
Ġprovid ing
Ġg rid
}$ )
Ġwant ed
Ġoff ers
Ġscatter ing
tern et
ĠO per
Ġw orth
Ġcar ry
ic ks
ĠP an
t x
Ġun known
ĠS ol
c s
Ġo dd
sy stem
Ġlay ers
Ġref lect
Man ager
Ġext rem
ĠAt l
Ġmeet ing
ĠL ake
Ġposition s
ĠComm ittee
1 000
ill er
Ã ¨
che n
Ġit em
Ġmass es
Ġunderstand ing
c ong
Ġinter face
Ġs ch
c f
b ed
ĠU k
Ġconclud e
Com p
ĠOlymp ics
Ġg un
ang es
ĠK n
Ġmagn itude
) )$
Ġnot ation
un ct
olog ies
cont in
ell ig
ĠM ax
Ġlo op
Ġide al
) }_{
ad ow
ay out
Ġproject s
ĠD u
ĠP enn
A ct
L ine
ĠP ri
Ġse ctor
az z
ĠBo ard
cl os
Ġco ol
Ġrap id
op en
ĠD ec
Ġj ava
ogene ous
ĠCong ress
198 2
ĠR el
ĠF inally
Ġfri ends
Ġl um
ig ation
ot ype
bre ak
$ ),
c a
B ack
Ġcomput er
Ġse cret
it iz
Ġdise ase
Ġpo or
Ġindic ates
ĠRe view
Ġst ore
Ġquick ly
ĠAng eles
includ e
g r
iss ions
l ines
Ġmin imal
Ġmost ly
I A
ĠV ictor
ir us
ĠI ll
19 50
y an
con tain
p o
Ġsh ared
ĠFlor ida
Ġax is
ĠL i
Ġqu arter
Ġim ag
w a
Ġpro port
r ical
con text
~~ ~~
Ġ( "
Ġl ives
Ġaltern ative
ĠFil m
Ġte acher
Ġpart ners
ĠL y
S D
il er
c r
Ġform at
Ġgrad ient
ĠN etwork
Ġ$ |\
Ġget s
Ex t
Ġpres erv
Ġmov ie
Ġamplit ude
Ġm ur
Ġass ign
Ġocc urs
Ġprot ect
ĠVirgin ia
Int roduction
Ġse ctions
ĠSp anish
Ġsy nt
Ġs ort
l s
ĠCath olic
d b
if ies
augh t
or al
ro ph
=" #
Ġex change
Ġconsider ing
ol k
ut ch
Ġcommun ities
Ġsum mer
ĠArt s
Ġimplement ation
ĠI II
ĠS k
[ (
Ġf ine
ĠS il
Ġdr ug
G C
ed s
Ġf oot
ĠO h
ĠB i
Ġmass ive
Ġeffic iency
Ġfunction al
T hat
Ġatt ract
Ġgu arant
it ivity
Ġnot hing
S L
ĠV er
Ġscre en
m ass
197 9
}( {\
Ġpart ial
Ġindic ate
ĠE arth
---------------- ----------------
rum p
C ur
ĠE ducation
or a
Ġpart ition
od ed
Ġ ener
Ġgo als
str ong
Ġl if
Ġg r
Ġ ign
Ġincor por
we b
Ġcrit ic
Ġmat ches
Ġcontain ed
Ġred shift
ĉĉĉĉ ĉĉ
Ġst ruct
ĠFor ce
Ġrema ined
Ġpr iv
Ġnuc le
Ġshow ing
pt on
ev ent
Ġor th
Ġm ixed
ock ey
O P
_ -
a ver
D is
d l
15 0
U LL
\ )
ĠB ank
Ġhe at
ature s
Ġsp ent
Ġremov ed
S ec
sy ch
ĠFurther more
Ġfund amental
Ġv oc
Ġopen ing
Ġac adem
Ġst ories
h box
R el
act er
Ġen joy
O L
il ed
O ther
h ab
R A
ial og
ĠSe e
Ġmain ly
Ġc ov
Ä ģ
ĠU sing
Ġc at
flo or
Ġr ise
on ical
Ġspec ified
ĠG en
Ġb us
s he
Ñ Ģ
av al
The refore
Ġwe b
ĠE nd
E X
Ġin form
ĠHen ry
Ġk ernel
er red
Ġres ource
ĠDirect or
ĠC am
M D
ĠMex ico
ĠH on
Ġtheore tical
Ġh ope
d oc
ĠB r
omet ric
or ter
F inally
Ġ[ \
ĠR ead
Ġm ission
ĠS wed
Ġqu e
ve ctor
ith ub
sh ire
Ġturn ed
S ch
Ġmaterial s
Ġmanag er
ĠC ast
g ies
ĠSp ace
Ġuncertaint y
n um
Ġacc eler
ĠSec ret
Ġp ull
Ġfeature d
198 1
cher s
p ass
av el
Ġrece ive
C re
E L
Ġpro ceed
Ġm unic
R em
it ors
ĠL ong
Ġhouse hold
Ġ$ .
b el
) }}
Ġpl ans
ĠW al
Ġsc ene
as er
Ġcom mercial
Ġcalcul ations
Ġcomplex ity
Ġcommun ication
C or
Ġt al
Res ult
ific ations
j a
ĠF estival
}{ (
ĠSt ep
ĠT op
Ġcalc ulation
Ġprot ected
en ess
ĠR o
Ġphen omen
&= &
Ġsc ored
Ġbound s
Ġw ait
Ġ ut
ĠEng ine
Ġ_ _
P A
Ġwin ning
Ġeval uation
Ġdimens ions
as ion
Ġgraph s
Ġcl in
ĠOff ice
Ġf arm
un ch
Ġdecom position
less sim
Ġrespons ible
ic ine
Ġfail ed
Ġob vious
ro om
con dition
Ġ\ (\
Ġbe aut
Ġbe g
epend ence
Ġsay ing
Ġse c
Ġclust ers
ĠIt aly
Ġsaf ety
ound s
ĠB ob
d es
ĠA ut
ent y
Ġflu ct
Im age
Ġcon vex
ran k
ish op
ol t
Ġtry ing
s uch
Ġdis p
ay lor
ĠYou ng
Ġs al
Ġparent s
ĠOr der
g a
Ġsur vey
Ġscal es
n ull
Ġmed al
Ġdes pite
Ġsur pr
Ġc a
Ġdist ingu
ĠY our
Ġrot ation
Ġem p
O per
Ġcon vert
ian o
ĠS T
ĠJ ac
Ġden oted
Ġpie ce
ild ren
l ap
ou ble
: =
Ġaward ed
Ġtra ject
Ġa ircraft
ĠS ocial
Ġappear ance
S A
Ġexpon ential
Ġlim its
| }
und red
ĠH y
Ġtechn ique
Ġcoe fficient
Ġinf inite
ER T
rib utes
197 6
onal d
Ã³ n
id ae
y les
ĠThe ir
ĠL ove
erv ices
Ġrefer red
Ġcele br
ĠJ o
Ġh ar
ĠS und
ĠT er
orn ing
pe ople
c all
Ġcou ple
ur t
l en
Ġdepend ing
Ġinitial ly
set s
os c
Ġstat istics
Ġh op
j ava
Ġ ion
Ġp ix
, $
Ġrob ust
h aps
ĠE mp
f unc
Ġch annels
ĠA wards
i ro
ian a
res ults
^* $
ĠT our
A ccording
M B
ont al
Ġsatisf ying
k ins
p y
Ġs rc
Ġcent re
Ġdatas ets
U E
ĠL ag
Ġsh oot
Ġrecord s
Ġs pl
ve red
Ġh ole
ic ate
ĠCarol ina
Ġphys ics
197 2
d at
U sing
197 8
ĠM ur
D B
Ġser ve
Ġevery thing
d frac
x x
rad e
Cl ient
ĠB oth
Ġv irtual
Ġsol ve
Ġtre nd
ĠMart in
Ġrec all
agn etic
cknow led
J ohn
-- -
ĠĠĠĠĠĠĠĠĠĠĠĠĠĠĠĠ ĠĠĠĠĠĠĠĠĠĠĠĠĠĠĠ
ren ce
\ }$.
b al
ĠF ort
F act
ĠC L
for ward
Ġqu ery
f alse
ĠMod el
l ict
pos ite
Ġscen ario
im a
] $.
Ñ ģ
1 20
Ġm aster
ad y
ĠB as
bra ce
Ġang ular
$\ \
Ġdeg rees
)-- (
}\ ,\
back ground
p ost
Ġl ies
ĠH ot
Ġdiv ision
g ithub
197 7
S ection
t wo
Ġn ation
Pro perty
aw a
Ġext ends
Ġwhere as
197 5
Ġdis crete
ĠA N
d ev
Ġent er
at i
] )
$ _{
Ġsub t
A ut
p a
Ġinterest ed
n c
M y
$ :
og en
ĠB et
here nt
ynam ic
ĠO ld
Ġansw er
' m
w an
Ġgeomet ry
du ced
D M
Res ults
w rite
Ġcle an
Ġcom pl
all ery
anc ing
ĠB usiness
Ġro ute
Ġbroad cast
Ġro ugh
di ag
j e
ĠP eople
Ġar rang
R ight
.. .,
il ing
ond er
ĠTe am
ri e
ĠSh ow
Ġestim ation
ĠO l
Ġw ood
Ġst d
Ġnuc lear
ĠL ee
ĠL ine
ar iance
Ġsome one
st ep
Ġp seud
c ss
Ġany thing
Ġto uch
,\ \
ĠH aw
}} _{\
Ġreturn s
Ġit ems
A rt
Ġcy cl
] }
Ġwork ers
O C
ov a
Qu ery
Ġed itor
Ġdest roy
Ġlaun ched
ĠPro ject
s che
ib r
pt o
ĠT im
Ġlaw s
S ource
> (
Ġtourn ament
Ġle mma
Ġscal ing
A m
Ġvari ation
ĠW ood
Ġtest s
Ġent ropy
pack age
Ġadvant age
stit ution
Ġor bit
Ġann ual
Ġsing er
ĠP ac
un it
ust er
Ġre pro
Ġchem ical
Ġcon j
P ost
pert ies
id el
Ġv oice
l aw
Ġcl ient
pos s
as y
Ġarg uments
Ġf reedom
ĠGo ogle
l anguage
B ase
ash ion
ĠSc ot
197 4
Ġfind ing
ri age
atal og
ad ium
sk y
m osp
os is
plic ations
en ced
; </
ib li
Ġ eth
Ġb right
Ġwe ights
Res ponse
Ġdev ices
Ġstat istical
Ġrem ove
Ġact or
ateg ory
ĠPl an
clus ions
Ġreport s
ult ural
Ġb ool
a fter
P U
j i
Ġr an
ri p
Ġus ual
Ġmet al
se arch
F l
he m
Ġst ress
d el
ĠG ood
Ġeffort s
Ġenc ou
u ous
il ation
roll er
Ġd ust
F R
ĠPro fess
por al
Ġneighbor hood
Ġw all
H T
h ar
Ġst ability
in et
Ġimport ance
Ġre ct
Ġstud io
ĠDe velopment
\ ;
197 3
Ġdr ive
st able
ĠE lect
Ġres ist
he tic
Ġ ice
Ġex ception
Ġel im
pect ive
s ign
}} )
Ġold er
Ġfore st
Ġd oc
] $,
Ġne ural
ĠAs sum
ĠF ield
ov iet
Ġto ols
us band
Ġal one
rick et
ĠR am
ĠCh ief
t frac
Ex p
Ġb asketball
Ġwrit ers
Ġcalcul ate
f s
Ġis ol
ran sp
Ġspe ak
Ġsy m
wh ite
Ġgrow ing
Ġal t
dis c
Ġb r
}[ \
Ġimpro ved
Ġed ition
Ġend ed
Ġb in
eg er
196 8
E arly
are er
Ġexplain ed
Ġser ious
ograph ic
Ġra re
Ġ\ ]
ve e
U ser
Ġadd ing
ĠC a
Ġdep ict
Ġpolitic ian
Ġmod ified
Ġres erv
empty set
;\ ;\
et ry
Ġvert ical
Ġis land
Ġrad iation
F I
ric s
ĠD ev
sy l
ĠT re
ĠB razil
D uring
Ġevalu ate
ang ed
Ġin iti
ph ant
Ġco vered
Ġb attle
Ġcompos ition
ĠR eturn
Ġreg ist
Ġprocess ing
Ġto ol
P L
Ġneut r
t rack
ĠT rump
Ġcoordin ate
Ġinteg ration
) )\
Ġir re
ĠJose ph
ful ly
Ð¾ Ð
stand ing
z y
Ġbecom ing
ul y
Ġse a
Ġch ief
Ġcharacter istic
go ing
ud get
Ġm apping
math op
par agraph
al i
Ġloc ally
Ġ ^{
Ġpro jection
el a
St ream
ard en
d ir
ph as
Ġnumer ous
Ġequ ilibrium
Ġf ederal
ner gy
Ġcan cer
Ġph il
Ġsum mar
D o
Ġrepresent ations
go ogle
Ġsub group
Ġtr ig
Ġwh om
ran e
W ork
Ġsol ar
c ar
Ġpredict ed
t arget
ak a
Ġtra ffic
Ch ar
H S
Ġv ote
angu ages
Ġsampl ing
=" ../
ĠJ im
cl aim
b rid
in er
och astic
ĠUS A
ma k
,\ ,\
Ġc atch
Ġbi as
r l
Ġrem ark
Ġdel ay
Ġresp ond
form s
l ock
Ġinst all
n umber
D es
van ia
r ont
L T
ĠA rab
bm atrix
ult ane
Ġm ess
In put
ĠC ross
Ġind eed
M on
ĉĉ Ċ
; "
H ead
ĠT em
Ġprinc iple
197 1
Ġle aving
Ġmus ical
Ġev ol
ĠVal ley
al gorithm
omet ry
Ġ ^
ã ģ
Ġcl imate
Ġconduct ed
plic ity
Ġobject ive
][ ]{
Ġcost s
er ior
Ġa st
Ġapp lying
Ġcon ven
Ġadopt ed
Ġ Î
ev en
Ġf irm
) })
] {\
s at
Ġco ast
P os
Ġsuggest s
ce an
Ġplan et
Ġn amely
Ġfor ced
Ġlat est
flo at
Over ride
m itted
Ġb lood
Ġdet ected
ĠE conom
Ġs witch
ĠAd d
Ġnot ice
in ations
Ġallow ing
ĠP ak
h igh
Ġsufficient ly
T op
ĠL ibrary
ĠS M
v ol
and emic
Ġsen ior
ol es
Ġf if
Ġro ll
m ond
Ġra ised
ang ing
ĠM en
Ġord ered
u um
Ġreveal ed
Ġab und
tt y
Ġconfir med
Ġre asons
od ay
Ġtr ust
R R
ĠCent re
rib e
ans as
A V
igh ter
Ġext end
Ġopport unity
Ġs ched
is ely
ĠApp endix
Ġpr ison
Ġ$ ,
ul er
Ġunder lying
m em
Ġ\ !
ĠI D
ĠTechn ology
g est
[ -
ug by
Ġbu y
big l
Ġs ociety
Ġestablish ments
ON T
in st
ĠT ype
Eng lish
Ġhelp ed
v ari
ens ions
196 9
Ġdimens ional
}} .
u er
Ġsuggest ed
Ġcon sequence
Ġth r
tikz picture
ĠAs sembly
ra wn
Ġjo in
ĠJ ud
Ġfore ign
i em
ĠI rish
Ġact s
big r
not es
ĠM ov
Ġco inc
Ġle aves
======== ========
ĠA tt
Ġh ospital
column width
Ġp icture
il bert
ĠN avy
Ġse asons
we et
Ġar rest
Ġ- >
sequ ent
. ;
c ut
ĠC y
Ġact ress
, {\
ru ck
Ġrequire ments
Ġtri al
Ġre n
h u
ĠS pe
Ġn et
long rightarrow
' ve
ĠD et
Ġn one
N otes
Ġtechn ical
ĠW ales
Ġloc ations
ĠChampionship s
Pro of
Ġdynam ic
D ate
ĠAs ia
Ġcompos ed
j oint
ĠA cc
am ing
Ġevery one
it an
ĠH or
ĠG overn
G ener
art he
pd ate
ĠN orthern
Ġbo olean
Ġin verse
t iny
Ġord ers
inal s
Ġdiag onal
Ġband s
Ġinvestig ate
i y
Ġpattern s
Ġr iver
) }_
$ };
Ġen h
ut y
Ġmed ium
ĠPar liament
w er
medi ate
Ġorgan izations
P oint
ĠN S
et al
d y
ost on
Ġconf lict
Ġf ans
Ġcandid ates
ĠS ar
ĠMed ia
ĠHe ad
Ġt end
ĠB ase
Ġinter section
19 40
ĠPh ys
ĠL iber
Ġcre ating
Ġco ok
Ġsus p
ĠJ un
se cond
at ers
ĠL in
196 7
ĠJ ones
ĠB uild
ra ine
t an
L a
O ff
ĠG ame
ell er
Ġw ild
ob s
al gebra
ul i
ph p
}) }
is ters
//////// ////////
Ġem pty
Ġk ing
Ġn ine
Ġoff ered
ĠĠĠĠĠĠĠĠ Ċ
Ġh undred
Ġm ill
D R
Ġdi am
Ġf elt
Ġassum ptions
c alled
f old
E l
Ã §
}} ^{\
Ġlet ter
Ġatta cks
Ġpower ful
P aramet
Ġlum inos
}) =
ĠH ome
Ġoffic er
d ep
Ġb illion
Ġbl ocks
ĠG L
Ġl ab
ĠCol umb
C N
U til
up s
Ġs ustain
Ġt ail
Ġexpl ore
Ġsu itable
r ative
ig ration
amp ion
Ġdes ired
Ġo il
Ġpol ic
ock et
Ġgen us
ult y
Ġapp arent
Ġabsol ute
Ġtre es
Ġhistor ical
Ġsett ings
Ġcapt ure
syl vania
Ġveh icle
ĠG re
sl ant
Ġv acc
ĠW ay
Ġand roid
Ġag ents
erson al
Ġn orthern
ĠB ecause
let s
Ġhand s
ĠS u
ĠL og
ĠF ace
Ġs outhern
Ġser ver
= .
cal e
Ġass igned
it ative
Ġaccur ate
ĠCon ference
Ġh usband
Ġf erm
ier arch
}} }\
Ġ{ $
Ġp il
M ax
ĠSp ring
| }{
z z
196 4
Ġwid ely
Ä ĩ
Ġin come
Build er
M in
le ad
cl ient
Ġdisc overed
em porary
Ġmax imal
Ġrepresent ing
ĠM any
Ġth ous
qu ery
ĠReg ister
icro soft
ĠE ven
Ġrel ax
Ġrese ar
ĠB ow
Ġmot iv
s g
du le
^{ *
Ġadj ust
Ġlearn ed
Ġfil es
i ota
Ġoper ating
ens ities
ĠA v
hen s
clus ive
Ġpredict ions
Ġsequ ences
urb an
v ature
ĠM ount
Ġpart ies
g ers
Ġregard ing
D C
ap ed
D S
el d
od ies
Ġf rag
ĠS ir
ĠInd eed
Ġchall enge
Ġdescrib es
Ġdis s
ed ge
ĠMich igan
Ġprodu cer
def ined
Ġide as
ap es
Ġimplement ed
Ġc itiz
rid ay
F unction
Ġn ative
Ġmark ed
ĠJohn son
Ġat mosp
ong s
ch ron
Ġexplicit ly
ra ge
im b
1 10
u ing
ĠSt and
Ġstart s
Ġgrav it
Ġclaim ed
Ġpro pos
Ġis n
Ġb os
st ructure
u y
19 30
c at
Ġtrac ks
ĠI ran
T C
Ġaut o
con f
Ġcomm ission
Ġdivid ed
ĠS uch
Ġener gies
Ġch ampionship
Ġquad r
Ġb ill
194 5
Ġtr ivial
eli hood
Ġcos m
Ġcol lected
196 5
ĠH a
E m
ĠL ord
Bl ock
N ull
ele ment
d ependent
ã ĥ
are n
Ġcomput ing
o ir
Ġnew sp
Ġtop ological
ĠO F
ri end
ou rier
( [
Ġl ived
ĠE r
S m
ip ality
N O
Ġcharg ed
ĠSp ain
Ġderiv ative
Ġatt ended
Ġs ales
D ist
Ġin nov
Ġtr uth
ĠF red
ĠI R
Ġturn s
+ (
Ġke pt
Ġto ward
Ġh idden
\ }$,
un ities
est ed
Ġdepart ment
ĠIsra el
pp ed
Ġl ibrary
if act
H ence
Ġm ountain
Ġaff ected
ĠĠĠĠĠĠĠĠ ĠĠĠĠĊ
ĠC r
os oph
se lect
Ġconst ants
R un
P op
d f
sh ow
Ġe mail
Ġp p
Ġnon linear
opt ions
Ġembedd ing
ĠEn ter
Ġn arrow
" ),
Ġpr ime
Ġc ities
Ġem phas
IN E
Ġcon d
Ġd iver
br as
ĠProv ince
Ġmax im
h ang
Ġvoc als
Ġpro pose
act ic
Ġcomput ational
ĠEmp ire
Ġc ert
ĠBl ue
lo op
Ġact ing
ic ed
) </
Ġfam ous
ĠO bject
ĠRad io
ĠW ell
ibli ography
v in
Ġmatch ing
air man
T ra
par ison
\ }\
Ġal le
ta il
i ate
Ġsecond ary
G o
d escription
ĠK h
Ġthan k
Ġprec isely
Ġinst r
ron ic
Ġint ensity
Ġw rong
D r
if ul
ĠR un
il a
196 6
Ġj ourn
Ġter rit
math it
ri ev
multi row
ĠU s
Ġown ed
C al
Ġsatisf ied
ar ia
AM E
Ġtrans mission
St art
Ġlaun ch
Ġcont rad
n n
ĠM ountain
ĠB ern
St atus
Ġvict ory
od d
ur ations
Ġasympt otic
Ġhand le
: =\
The y
ay a
Ġfocus ed
Ġbehavi our
ok es
ĠWilliam s
Ġs ides
L emma
Ġch art
Ġdram a
t ag
ĠB ul
ĠCon n
Ġtemperature s
ĠO x
Ġbul k
ĠWe b
ĠS outhern
Ġcall s
C M
T oken
N E
F O
ĠM ajor
Ġc m
S ome
Ġ< <
ellig ence
ĠHistor ic
Ġmarg in
a ug
Ġinstr ument
Ġsim ultane
ĠH uman
U p
arthe ta
p arent
le ep
ĠS ervices
app ed
v artheta
Ġw aves
ĠA G
" ).
Ġsub stant
l ast
> >
Ġp urs
ĠM ah
ran ce
Ġpro min
g ate
ĠÂ £
ĠG reek
Ġcontin ues
Ġf re
Ġun iversity
ĠS and
Å į
C ase
ac ent
Ġse at
figure s
ĠAs ian
Ġre tain
avel ength
s en
Ġd og
ro b
ist ent
er ies
ĠPenn sylvania
Ġown ers
Ġis omorphism
Ġprinc ipal
ĠIn formation
med skip
ĠDemocr atic
in ate
Ġent ered
ĠSpec ial
ad el
Ġcount y
enn is
Ġmag azine
Ġinvol ving
paramet er
Ġcan onical
ge bras
Ġclaim s
Ġthe ories
Ġsign als
ĠB al
19 20
Ġs ession
Ġl ov
A c
ĠE p
ĠWe ek
iven ess
av ed
ple t
}_{ -
Ġn av
L ast
Ġs end
Ġst orage
Ġag greg
Ġent ries
Ġder ive
ĠPac ific
Ġlabel s
Ġp ool
ro sc
ĠP rem
Ġp andemic
Ġ( {\
A F
}} =
ĠS oviet
Ġcateg ories
sl ash
Ġman ner
ĠSund ay
ĠT aylor
G l
Ġfail ure
Ġl ie
Ġd aily
form al
Ġvar iance
/ (
ĠP ower
X i
Ġch ance
v s
b ury
Ġb ond
$ {\
}) ^
H el
B i
Ġ }{
s pe
oth ing
Ġrad ial
Ġstr ugg
names pace
} |\
Ġd raft
ing ly
ĠD isc
M et
Ġsom ew
$& $\{
uss ion
sub sec
ĠC amb
Ġqu ark
row ser
ĠP op
Ġphot on
P O
Ġpl anning
Ġpl us
Ġop posite
gy pt
ap pe
G u
Ġcam era
co pe
P D
Ġded icated
ul se
Ġtrans lation
M T
ĠC ivil
Ġfl ag
A ust
ĠV an
Ġposs ibility
st one
Ġchang ing
ĠComm unity
ab y
ĠU N
}$ }
w s
a uthor
ĠC ard
Ġdr iving
RE F
ĠMan agement
script style
ion e
k es
he t
ĠOh io
Ġsp irit
Ġgrav ity
Ġdi agn
Ġcre ation
ĠCar l
Ġperform ing
Ġemploy ed
Ġnear by
Ġcom ments
ĠFrancis co
ĠE ll
25 0
rop ic
Ġinter act
Ġ\}, $&$\{
ex pected
form ance
ic ens
ĠMark et
Ġt ag
G iven
ur ies
Ġvers ions
Ġl ock
Cons ider
Ġcustom ers
es ter
Ġb undle
ru it
Ġcommon ly
Ġl abor
indow s
Ġhypot hesis
s quare
& =\
D D
R I
% )
por ation
ject ed
m f
ou pl
ĠBrit ain
D isc
W id
ĠIs lam
f ound
Ġcult ural
Ġinvestig ation
ino is
P o
ve ct
Ġcover age
Ġde ploy
ject ive
Ġcon vent
Ġre action
B O
ax is
Ġflu id
Res ource
\ |\
cl ose
ĠT ele
M at
Ġc ensus
ĠL o
Ġgeneral ized
com es
ect s
atur day
og rap
Att ribute
H C
ib ration
Ġcry st
ĠB ang
bur gh
ĠRep ort
Ġexpl o
Ġart icles
B o
Ġp ages
Ġorgan ized
ĠM ethod
C areer
Ġcomp at
Ġmanag ed
pl ot
rap y
or i
Ġrail way
< !--
Ġmix ing
pon ents
semb le
m t
Ġpath s
, .
ent h
at uring
per iment
Ġsup ply
Ġsh ock
ĠL im
ĠD ig
orn ey
r ame
aram s
Ġl anguages
Ġpre m
Ġinc ident
L A
Ġbu ff
Ġdr um
Ġchalleng es
' ll
Pro v
' .
Ġsp ot
O b
out e
g eneral
Ġd ashed
am m
it age
Ġrelig ious
ĠThe atre
Ġfig ures
Ġmed ian
ĠHig gs
ĠGeorg ia
rom e
os es
Ġdefe ated
Ġmat hemat
N av
Ġj et
M E
z en
ĠF ar
on ia
@ {
Ġquant ities
ĠL ab
196 3
un ing
Ġposs ibly
Ġrecord ing
add ing
pt ic
ra ined
ĠQue en
ig er
eng er
ĠV is
ĠM u
ĠGl obal
Ġshe ll
Ġst ack
Ġquas i
? âĢĿ
}\ |
he nt
Ġc old
Ġf le
el ess
ĠW ater
Ġben ch
sc ape
ĠJ oe
Ġresid ents
Ġout er
Ġsc ript
sc ope
U s
ct ic
it ness
ed ia
196 2
Ġarm y
Ġapproxim ate
Fil ms
Ġcharacter istics
W rit
b et
Ġele ctions
Al though
ĠA ff
Ġrecomm end
Ġflo or
Ġindic ated
^* \
Ġsa fe
p op
Ġwe ap
ic ip
Ġ{ };
ĠK en
S um
ĠN ight
t ure
ĠB attle
Ġserv ing
ĠB oston
Ġst ochastic
Ġdynam ical
Ġdet ector
Ġp aid
point s
ĠSen ate
ins on
script size
A ction
Ġsub sequent
ĠChar l
II I
opt ion
} ~
Ġspec ifically
c lear
ad or
Ġprim arily
Ġread y
Ġdat abase
ĠR ay
ĠG i
Ġacqu ired
\% $
Ġoffic ers
Ġe q
Ġag ree
f lu
ĠS ports
Cont ent
Ġp ush
al so
ĠM iddle
Ġa ware
ĠP ubl
n am
w ater
ĠP oint
ĠA nother
ĠJer sey
ne ctions
Ġown er
Ġm obile
Ġdes cent
S H
. /
pro v
et ts
L C
ĠSc iences
ĠC ro
ĠB or
Ġfeed back
Ġvis ible
h l
Ġs ister
Ġanaly z
N umber
Ġbelie ved
ĠWil son
on to
Ġs ave
ĠE very
Ġd x
Ġinteg rated
av or
s ince
Ġmagn et
^{ (\
T O
Ġn or
Ġident ical
More over
all ow
ĠB ell
ĠScot land
ĉĉĉĉ ĉĉĉĉ
ĠCol or
Ġ\ &
Ġgener ic
j av
B B
m n
ab eth
rib uted
Ġpolic ies
Ġextrem ely
cl ip
Ġtw ice
t w
Ġb att
ris is
Ġreg ional
if er
ĠAd dition
Ġt urb
M ult
b ro
ĠK ent
Ġequ ality
erv ised
g ency
ĠM id
N on
6 00
Ġrepe ated
l ook
ĠLe ad
ĠK ey
ari os
D I
iss on
Ġtri ed
R L
Ġevalu ated
Y ear
ĠB C
int eg
ĠF C
Ġact ors
a is
e z
Ġdam age
t ings
ĠD ou
Ġl iqu
Ġpart ner
ĠSt an
Ġadminist ration
Ġveh icles
C ar
Ġtra ce
Ġst ock
ĠM ot
d esc
ars er
Ġsu c
ĠG iven
Ġdisc rim
Ġad vert
ĠW all
over s
ap l
Ġconf erence
Sup pose
ug in
Ġlow est
Ġex clud
W ill
ĠSt at
Ġsing les
Ġs izes
Ġupd ated
ain s
ph ia
In stance
N ational
L abel
Ġdeterm in
Ġhigh light
og onal
im g
Ġint ended
S che
Ġlook s
ĠN one
ĠT ri
ach us
an ta
Ġassoci ation
pl ane
Ġend s
Ġop in
Ġr ig
Ġmon itor
Ġrest aur
Ġr ational
Ġelectron ic
Ġcur vature
Ġsc ope
Ġequip ment
ĠS U
Ġ$\ {\
ĠJack son
ide os
$ {
b p
196 1
Ġbe at
Ġa w
ĠT witter
ĠM ond
h ol
ĠF und
g reen
ĠT HE
el se
ĠW ild
Ġ ,\
S ing
f ind
ĠB ra
rast ructure
ĠR E
Ġex cell
os a
ĠA R
h ard
w ing
ĠMed ical
ĠF ree
Ġcol on
ob j
ĠJew ish
Ġdepend ent
M en
ĠRep resent
ĠPol ice
ĠB a
im ately
Ġaspect s
and roid
Ġprogram ming
ĠJ r
am in
ch or
ĠAnd rew
p ool
Ġsh op
Ġlarg ely
ĠH ospital
Ġsub sequently
12 8
ĠJ eff
Ġoper ated
ĠL ight
Equ al
Ġf ellow
b u
Ġsuccessful ly
Ġfind s
Ġinsp ired
Ġpl as
ĠR h
Ġeigen values
app end
ĠG ener
Ġ+ =
Ġb ridge
Ġreview s
arg s
Ġrepresent ative
il ly
ne ver
ig r
T wo
Ġstrateg ies
Ġassum ing
rit ical
f i
Ġsp ring
c i
! ]
pro perty
y er
Ġspe ech
Ġprot ocol
im ages
ĠOr gan
ĠW is
Ġdemonstr ate
so le
ĠCo ast
Ġconf idence
C K
ver b
ath an
Ġsuc ceed
ph one
phant om
not ag
id ents
Ġins ert
B M
ur i
Ġview s
Ġp le
Ġb udget
ta ck
Ġtre ated
uck y
Ġbenef it
ĠN ULL
Ġemploy ees
ĠE st
Ġluminos ity
rim inal
am ber
Ġre ality
Ġcorre ction
ird s
Ġiss ued
> \
Ġofficial s
Ġm ac
Ġconsist ing
ĠEd ward
Ġm orning
D i
Ġenvironment al
Ġrecogn ition
mod els
ĠK ong
ĠJ on
init ely
e lect
ar ity
ĠF riday
r ins
) ^\
Ġhe ard
achus etts
cor ollary
un a
u v
ĠB ack
V D
y d
M ay
Ġatt end
Ġequival ence
l ib
est ic
etail s
equ ations
b ell
L ink
ĠA h
} );
P ort
s i
h fill
P M
ĠH al
Ġis ot
Ġz one
Ġyou th
ist ed
ad ata
Ġquant ity
ĠIll inois
Ġread er
Ġr ich
G eneral
Ġden se
out put
Ġcorre ctions
Ġcontroll ed
al ing
reg ular
Ġsp ac
^* (
Ġfund ing
Ġfac ilities
t ree
Ġc ouncil
}{ *
Ġc ars
Ġunivers al
Ġpre par
j pg
Ġfl ight
Ġw estern
duc ible
ĠM ult
ĠDan iel
id en
Ġh ab
B uffer
- (
Ġbenef its
Ġs quad
C ell
st at
Ġcapt ured
l ers
ang ular
Ġf ashion
ĠBro ad
Ġref erences
194 4
Ġcar bon
B R
Ġpack age
d irect
Ġs port
Ġb ass
Ġmole cular
Ġexec utive
es ian
cre en
Ġacadem ic
ĠM as
requ est
ĠC R
ĠJ es
Ġclos ely
Tr ue
Ġh uge
00 1
the re
Ġvers us
m iss
Ġeconom y
ĠF our
Ġdecre ase
l ife
Ġexpress ions
j son
text color
Ġvict im
at on
ĠS i
Comm and
Ġdevelop ing
B U
neg ative
" ]
Ġany one
ic ular
ĠGe V
Ġpat ient
ul f
D ec
ã Ĥ
ent ry
Ġfor t
Ġcon vers
ĠMc C
Ġme as
ta x
te en
ĠDes ign
ĠE astern
O ptions
Ġadv anced
Ġbal ance
Ġp sych
Ġpur poses
( -\
en ant
Ġnecess arily
ir ical
Ġeffect ively
Ġinst ant
Ġv on
Ġe yes
Mem bers
ru ctions
ĠD utch
195 9
ost er
E v
ĠInd ust
ĠSe a
Ġset up
R eturn
circ le
ĠRepublic an
Ġcom edy
Ġfluct uations
Hand ler
rang ian
Ġprote ction
b ot
Ġpow ers
ĠG irl
ĠP M
Ġexpl an
Ġcorn er
A E
om er
Ġmult ip
et ch
Ġpass ing
Ġb rain
Com ponent
ĠJust ice
G R
l ik
x ml
c are
âĢĿ .
ĠE gypt
w orld
. \\
ĠStud ies
g al
l arge
ĠD E
R ed
Ġdr iver
Ġt ransp
Ġth rows
ĠGovern or
Ġm es
V is
bin om
Ġcoupl ed
ĠFace book
Ar g
Ġtell s
L i
ĠL ittle
195 6
ĠOx ford
ĠKore a
Ġbeg ins
195 8
$. }
Ġc ere
Ġd ie
im er
ĠD C
Ġ( (
Ġimpro vement
ak i
ĠF ederal
Ġaccept ed
Ġfe et
Ġnot ion
Ġmetric s
om al
ĠPhil ipp
Ġcomm ut
un te
T rack
Con st
Ġleaders hip
ĠB ir
h or
ou the
Ġsum mary
ar ters
Ġinter ior
che ster
com put
plic ated
ĠT w
u ce
im its
Ġc row
af e
Ġme ant
Ġp et
ĠCom put
Ġhapp en
Ġscient ific
am i
ĠL ear
ĠE u
ĠF ollowing
atur ally
Ġpe ace
B rit
V ersion
W E
olog ist
ill ing
Ġsex ual
Ġex pos
Ġa head
R ow
ĠF amily
Ġsup p
Ġintrodu ction
rel ation
Che ck
ĠPol and
ail ed
Ġb oy
Ġprof iles
Ġredu ces
ĠE nergy
[ "
Ġsurround ing
serv ice
ĠM ain
B I
Ġcon clusion
ĠE X
18 0
ĠK ar
Ġmom ents
oc ated
Ġenh ance
head er
ram ework
Ġsecond s
ĠOn ly
I ST
D em
back slash
Ġstre et
ĠN C
P ar
Le ft
ag on
Ġ" ""
Ġp apers
Ġdou b
Ġpolitic ians
ĠA sh
Ġwin ner
og ram
Ġsk ills
Ġengine ering
ors hip
Ġgravit ational
Ġperturb ation
Ġinteg r
v als
Ġper haps
m ode
$\ ,
Ġconc ert
h ire
Ġoff set
s igned
Ġdemonstr ated
Ġhe av
S l
Ġdire ctions
ĠC at
ĠUk raine
Ġfif th
ĠD own
Ġph ases
ĠTh ree
Ġag reed
ĠM ike
AB LE
Ġf lex
Ġmar riage
or ig
Ġl ift
Ġcirc um
ĠS oc
Ġinvest ment
Ġneut ral
Ġcolumn s
Ġmot or
ĠU r
Ġsepar ation
! !
M O
ps on
Ġcharg es
Ġinterpret ation
ĠPr ince
Ġpract ical
ĉ ĠĠĠ
Ã ±
Ġinter mediate
Ġ era
Ġw arm
Ġprofess or
im ation
Ġro les
Ġessential ly
Ġsk y
Ġoccur red
8 00
Ġse vere
Y PE
Ġcon sec
is ot
ĠP ass
poss ible
| ^{
Ġperson nel
ĠW in
B L
sh ort
Ġcaus es
ul ating
Ġperiod ic
the less
Ġm iles
ĠN on
ef ined
ĠBro ok
ĠC ase
pl an
Ġgl ass
Ġabs ence
ict ures
à ¥
ĠPort ug
Ġp uls
Ġfin ish
ear s
Ġpre tty
ĠSecret ary
o is
up date
ut or
Ġm useum
ĠSec urity
ĠMass achusetts
Ġepis odes
Ġnormal ized
Ġparticip ants
T em
ar ith
f a
op her
low er
195 7
Ġph one
ect ive
194 8
ĠK im
ĠRe al
ub ble
p ush
Ġaud ience
u ated
Ġuniform ly
ĠCh ris
Ġwas n
Ġp it
ĠEx t
ĠCol l
ent ed
Ġsc ores
Ġp al
Ġf aster
Ġabsor ption
Ġgener ating
Ġbro ken
j ust
E ach
sh ot
Ġd rawn
Ġvac uum
Ġprec ision
Ġalong side
var rho
Ġpl ants
ject ure
As sum
Ġadv ance
Ġcomp lement
fin ished
n ol
are st
Ġproport ional
ip eline
Ġm ask
Ġw avelength
Ġcover ing
f ull
ii i
Ġt ick
qu ant
Ġl ens
ograp her
ĠG ar
Ġear th
foot notes
cl ine
Ġnot es
t yp
G a
Ġsens itive
ĠCons ider
ĠL em
Ġdomin ant
W orld
Ġsup pose
st ood
{ (\
Se cond
ĠD M
Ġuncertaint ies
ĠA st
ĸ º
Ġgeomet ric
ĠB oy
Ġhal o
Fact ory
Ġarr ived
Ġphot o
ri or
og ether
Ġdec ades
it ory
s rc
H O
stack rel
& .
Ġar c
Cur rent
ĠS aturday
Ġiter ation
ĠP en
Ġearn ed
Ġa wards
ĠP y
Ġw ants
Ġprote in
Ġexpand ed
195 2
footnotes ize
Ġdef ense
Ġs un
ĠPak istan
* /
i ated
D escription
on se
Ġ\ ,\
om ent
c ard
Ġs ell
h r
ĠLat in
ĠH ong
Ã ¢
st d
Ġbusiness es
ul pt
er ry
iz abeth
A cc
ĠS D
10 1
M ark
Ġpolar ization
ad s
19 39
*} [
194 2
Ġd ro
Ġind ices
Ġun less
Ġret ired
ĠD ar
Un ited
Ġbre aking
ĠCons erv
ĠEx ec
Def ault
Ġtest ed
sup port
Å ¡
Ġt ight
Ġsh ips
V ER
c oh
n i
ian g
Ġalgebra ic
AR T
195 5
Ġserv es
ymmet ric
let on
Ġfe aturing
Ġconfig urations
v ard
ĠN Y
ĠPol icy
P age
Ġvari ations
ĠV ill
ĠSt ation
s d
ĠSup pose
um es
S ports
Ġth in
ad i
Ġfrequ encies
ĠS N
Ġpl anned
ĠB and
ord an
Ġf resh
Ġclub s
it ical
ch ild
Ġin clusion
fr ame
ĠMin istry
ĠColumb ia
Ġhous es
Ġver ify
Ġh our
Ġk in
Ġclin ical
Ġbas eline
w ave
em b
Ġe ye
ĠAlex ander
pt r
Ġdoc uments
au x
z o
ĠA uthor
iction ary
Ġhapp ens
maz on
un ately
Ġsens itivity
Ġat oms
y o
par allel
bold math
Ġrough ly
G A
ĠW alk
pr ivate
rop ical
Ġco al
at iv
ĠC le
Ġscen arios
ob e
Ġentire ly
ĠR en
Ġr id
on ed
Ġb urn
L ocal
rop ol
L ong
B ook
ĠN ext
grad e
Ġanim als
in ction
text up
Ġanc ient
er g
~ (\
Ġcomm it
16 0
12 5
ik i
ur ance
Ġv en
form at
ĠT am
B E
sh ape
ĠCE O
ĠI V
Ġflow s
$ ^{
ĠAb out
A nother
H ome
ĠĠĠĠĠĠĠĠĠĠĠĠĠĠĠĠ ĠĠĠĠĠ
ĠĠĠĠĠĠĠĠĠĠĠĠĠĠĠĠ ĠĠĠĠĠĠĠĠĠĠĠĠĠĠĠĠĠĠĠ
Ġsupport ing
Ġpie ces
Ġele v
or gan
! \
in stein
Ġadj acent
ĠH ung
adel phia
pro ject
Ġsat ell
D on
Ġthan ks
' _{
Ġcons ult
H L
ĠM aster
Ġex cess
Ġdeg ener
S F
Ġf an
ĠB u
)} (\
| $
ĠMus lim
Ġh ierarch
unn el
Ġmodel ing
lo pe
ĠB rad
194 3
L oad
p red
ĠA T
194 6
Ġinstit utions
S yn
Ġreconst ruction
) }.
Ġcitiz ens
ĠF ourier
Ġcover s
param s
it o
p res
Ġex ceed
ĠĠĠĠĠĠĠĠĠĠĠĠĠĠĠĠĠĠĠĠĠĠĠĠĠĠĠĠĠĠĠĠ ĠĠĠĠĠĠĠĠĠĠĠĠĠĠĠĠĠĠĠĠĠĠĠĠĠĠĠĠĠĠĠĠ
eb ug
194 1
urs day
ĠW ho
ĠL ast
ĠI d
Ġneutr ino
ĠR a
ĠProfess or
Ġra ise
Ġencou rag
st atus
ĠChrist mas
ĠK enn
Ġcru cial
Ġdo or
Ġquadr atic
ele te
} /\
D O
Ġtransfer red
ĠC as
Con tain
Ġnew ly
: #
but ton
ĠB on
ĠAg ain
Ġf ib
Ġinst ances
Ġc atalog
ĠA k
Ġcr ime
ĠJ ean
ĠO nt
Ġstand s
Ġresid ual
Ġde viation
ĠM ap
ind s
\! \
Ġf ish
Ġhous ing
ĠL uc
an th
) (\
o or
ĠA M
AT ION
IN T
Ġrestrict ed
g ather
Ġpromin ent
D irect
Ġcontrib ute
Ġsol ving
Ġport ion
Ġopport unities
ĠUn ivers
el ly
{ |
p ers
ĠC reek
d ney
Ġfootball er
ĠC all
R ev
ĠPr ime
Ġc e
v ements
Ġpers pective
Ġfa ith
es ides
Ġv ision
ĠF re
195 3
Ġhoriz ontal
her ical
Ġclos er
C F
con sin
ire ction
Ġstraight forward
T ag
us es
F ONT
ag ram
ord ers
Ġdiff usion
ĠW rit
Ġconcent ration
Ġinvestig ated
Ge V
I O
ĠL ater
ĠAp ple
Ġelect rons
Ġinj ury
v o
Ġfac ility
ĠCor poration
ĠAd minist
Ġext ensive
s id
Ġcop ies
ĠR og
Ġhom ogeneous
m al
âĢ ĺ
Ġp erman
St yle
H om
writ er
$ ^
X X
ĠL ore
re ll
d ash
Ġanaly tic
ĠR od
ĠG R
n m
c p
Ġtop ology
eg o
w atch
Ġmet all
Ġdom inated
195 4
Ġanal ys
sy mmet
ĠH ard
ĠH and
Ġb atter
ĠGu ard
Ġrec over
ĠC orn
enn es
194 7
Ġbrief ly
Ġd ensities
Ġsur faces
Ġtem poral
Ġcol le
Out put
ink ing
Ġform ulation
Ġconj ug
Ġcharacter ized
Ġorb ital
Ġcre w
Ġ{ @
}. }
Ġc odes
Ġf ont
fil ter
Ġconv olution
Ġth read
Ġsystem atic
Ġconstit u
old er
Ġf itting
ot on
op es
ed nes
Ġf uel
ĠG ro
bt n
Ġdecre ases
ch ain
ĠV iet
Ġv ideos
m atch
ĠR aj
D esc
Ġsepar ated
Ġd ance
ĠL ike
ĠL ew
ĠIn vest
Ġjob s
Ġex erc
t ed
Ġb ow
resp onse
Def inition
ĠĠĠĠĠĠĠĠĠĠĠĠĠĠĠĠ ĠĠĠĠ
s ort
Ġconcern s
ann a
N ov
Ġa thlet
Ġpolit ics
rack et
ĠComm on
Ġhon or
ĠSup reme
Ġperform ances
Ġcho ices
se p
com b
ĠF ire
// /
Ġca ref
$- $
ra ise
Ġsim ilarly
ĠScott ish
ĠV en
ĠPl aces
ĠS em
Ġpres ents
ĠA ud
ĠJac ob
Cre ate
Ġcrit eria
ĠH un
Ġdef ines
p resent
& &\
ĠBer lin
Ġhy brid
Ġp lease
Ġen able
Ġext ent
Ġfrequ ently
Un iversity
ĠL ive
Ġw ish
ĠF air
et ies
Ġin n
ph ys
ant ry
ĠBe ach
ĠM L
Ġst ead
se x
Ġ\ [
Ġent ertain
194 9
ev in
Ġref ers
Ġinvol ves
Ġstrict ly
d rop
inv ariant
B efore
ĠO s
Ġl iber
Ġindust rial
Ġexec ution
Ġad vers
Con n
ap se
ers et
is or
A g
Ġsm art
Ġacc ret
ĠPol ish
Ġd anger
nav bar
Ġpan els
Ġrec ip
ig a
ze ch
Ġmanufact ure
ĠS us
Ġprodu ces
Ġtrans itions
ĠSt r
Ġh ockey
ĠS E
Ġkn ew
ĠA venue
Ġbase ball
ĠBel g
p et
Ġprec ise
=\ {
Ġ{ }
ĠS C
Ġgu ide
ynam ics
}$ \
eder ation
Ġsupport s
ĠMond ay
Ġc art
Ġrespect ive
w orth
ĠL abor
ĠB BC
th ur
Equ als
ipl es
Ġhe ar
w hen
Ġd ream
Ġg rew
195 1
Ġderiv atives
Ġdown load
] ^
Ġmov es
ĠC irc
Ġhel ps
Ġre ward
25 6
Ġen em
Ġâ ĸº
Ġ iron
ĠDes pite
down arrow
Ġpolynomial s
Ġ urban
el ian
ĠB ad
rins ic
ater n
Ġcol our
ĠW he
U nder
Ġvary ing
B est
Ġun iverse
Ġrecogn ized
Ġs oc
Ġillust rated
ĠE U
Ġatt ribute
F ollowing
Ġ$ ^{
\| _
erm i
Ġhapp ened
ro ot
ĠI S
ĠL icense
Ġt ang
Ġgener ator
Ġcred it
ĠIs lands
12 3
ĠâĢ ¦
ĠRail way
Ġf ra
ĠA L
D ep
Ġg ate
cont rol
Ġcon nections
ĠS ant
Ġ rom
ĠH REF
ĠVictor ia
ĠĠ čĊ
ĠS her
ap ore
) ).
includ ing
Ġsum m
ĠCl ark
ph ase
Ġ\ |\
out s
r g
Ġweight ed
ĠE nt
Ġâ Ĺ
st ic
ĠM ach
Ġesc ape
ĠCor ollary
ow a
ĠAn y
St at
ĠEngine ering
Ġb ran
ues day
comm on
Ġ Å
mult line
Ġcontinu um
Ġsimultane ously
ol i
if est
Ġlook ed
List ener
th on
Aust ral
q l
Ġautom atically
Ġag ric
h av
We b
Ġpartners hip
ut ation
Brit ish
ĠReg ion
In st
nol imits
t i
Ġexp at
Sc ript
Ġm ist
n ic
Ġcor por
ell o
al ty
ĠN ether
Ġan not
Ġ }}
form ing
Ġarm s
is er
Ġposs ess
d epend
me an
D av
pro pto
rib ed
Ġcirc uit
Ġsche mes
Ġdr iven
Ġeas tern
ĠCor ps
ĠAmeric ans
ĠB an
ĠR om
paramet ers
ednes day
Ġliqu id
Ġwe ather
I E
cy cl
G r
ĠSan ta
. $$
Ġres ident
function s
R C
og g
ĠAl gorithm
tt p
Ġqu ot
m eta
Ġthem e
S ON
ĠS a
Ġf ell
Ġbl og
ĠKore an
th ick
Ġstandard s
Ġexc ited
Ã £
Ġdist ances
em an
ĠE th
Ġreason able
Ġorth ogonal
Ġext reme
C ON
P RO
e h
ul ing
Form at
ĠTor onto
C ent
Ġm eta
ĠN ever
Ġcontrol s
Ġp m
, ...,
Ġcollabor ation
_{ +
ĠAir port
up arrow
' d
ĠâĹ ¼
Ġre nd
Ġn aturally
ĠC H
Ġbig gest
Ġcorrel ations
ien ced
ĠSim ilarly
force ment
pro duct
Ġw el
G M
Ġsomew hat
Ġrelationship s
ĠTh rough
Ġrad i
Ġunder stood
form ed
re a
hed ral
ul us
S outh
ann ot
ĠAn th
text sf
ĠIn ternet
Ġexpect ation
Ġconserv ation
ĠOnt ario
ĠM ic
}^{ +
&= &\
Ġsup ers
Ġresult ed
s v
Ġrandom ly
Ġmur der
ĠM arg
ĠInst ead
osoph y
K E
Ġacc ident
i pe
Ġbeaut iful
N C
ĠL ocal
Ġst ages
Ġstrong er
Ġtrans verse
Ġrestrict ion
ph y
Ġresear chers
or b
el le
Ġv ent
Ġillust r
Ġsub space
ul ator
Ġmechan isms
St ep
are t
ĠOn ce
Ġsil ver
U I
Ġc ricket
Ġd ip
ĠAr gent
Ġirre ducible
ĠP C
Ġkeep ing
H is
left arrow
Ġcont ro
er ion
uz z
ĠWis consin
ask a
}) ^{
Ġhe ro
Ġtop ic
Ġb ed
Ġcall ing
ĠD ue
ow ski
D at
small skip
han ced
rep resent
Ġjourn ey
ag a
ĠR os
Pl ay
Ġtro ops
rom agnetic
Ġsim ulated
Ġfund s
ort he
Ġsign ature
end ar
ĠFore st
iem ann
ĠAnt on
ĠA PI
ĠEl izabeth
Ġ elli
ly wood
Ġreg ression
Ġcan cell
Ġd oll
Ġr ural
Ġse ed
form er
M usic
Ġtem plate
Ġa f
ĠMin nes
\ },
Ġdefinition s
ex ists
W S
clos ed
ann er
mid rule
riz ona
Ġappear ances
p ot
Ġnewsp aper
le ments
ST ATE
Ġ{ $\
on ym
Ġfill ed
end if
ĠOffic ial
ĠTr ust
F S
Ġpublic ation
Ġp od
Ġattempt s
ĠH o
y ard
Ġ\ {\
id al
ĠN et
ĠN E
get s
Ġcomm ittee
Ġfind ings
Ġro ots
C ast
Ġassist ant
Ġd rag
ce ived
is a
Ð »
ĠK ir
Ġd uration
ĠT y
Ġ à¤
Ġorient ation
and ra
Ġrece iving
Ġpriv acy
P H
ĠSte ve
Ġun iqu
Ġmorph ism
p ur
ou ri
ĠMinnes ota
V ar
Ġviol ence
Ġw itness
b c
Ġbel ief
Ġbo ost
ĠOlymp ic
Ġw al
Ġte aching
int on
Ġp rices
cknowled g
ĠLag rangian
Ġconvent ional
Ġhoriz on
Ġdomain s
P ublic
un finished
Ġdec isions
Ġh air
Ġs and
Ġextract ed
Ġdiagram s
h s
reg on
Ġto ken
m o
p ower
ĠS at
Ġsold iers
comple te
ir ror
Ġcomp re
ce il
H ar
Ġcoll ision
Ġmess ages
Ġpotential ly
su ccess
ray s
ĠBook s
\ }.
Ġimmedi ate
ĠT ok
cul es
ĠA I
Val id
Ġpl ate
Ġform ul
ĠC are
ĠS ab
ret ch
Ġ _{\
Ġlik elihood
Ġ ~\
Ġprom oted
Pro position
Ġident ification
Ġm el
Ġelect ro
D own
Ġsh ut
se ason
OR T
Ã© e
ĠA D
up le
Ġbound aries
Ġsymbol s
Ġexcell ent
text normal
ver age
leq slant
Ġt rib
Ġreconst ruct
Ġest ate
Ġpop ulations
off s
ĠDef inition
ĠIn itial
ac le
ĠU se
ex ist
Ġexper iences
P at
Ġindu ction
Ġc risis
Ġchalleng ing
Ġmin ister
Ġg ene
L ength
ĠR ome
Ġl osing
Ġk ick
ĠNether lands
Ġinf rastructure
s el
Ġbench mark
Ġsol o
Ġplas ma
B P
ĠC A
ĠSy dney
ref erence
19 36
âĢĿ ,
}[ !
it udes
Ġc as
C ref
prob lem
Ġw onder
Col umn
M ost
( &
_ .
Ġinput s
m ad
ĠAre a
Å Ĥ
ĠOr ig
ik a
G E
Ä ±
eb ox
Ġ ĉ
Ġtraject ory
\ [\
con duct
ĠB udd
rem ove
diff erent
Ġtit les
Ġab stract
Ġv otes
ĠPhil adelphia
Ġbelong s
D ev
ĠF I
Back ground
Ġinf lation
Ġhistor ic
ĠT al
ob serv
Ġnot able
CO DE
Ġanaly ze
V er
Ġaud io
Ġl aser
ser ver
ĠH ay
Ð º
iff erent
Ġb low
Ġsc ulpt
Ph ys
us hed
h ou
ĠMon te
k g
ĠD am
Ġsp here
Ġw ing
d est
ĠC ub
Ġdestroy ed
Ġac id
sy m
ĠF ox
Ġsw im
ut enant
ĠN ations
Ã¡ n
math tt
ĠEn vironment
ĠCL ASS
ak s
Ġaccount s
Ġco oper
opy right
S te
Ġap art
ant ly
Ġl es
ĠM ill
Ġen semble
or row
Ġult imately
Ġan imal
gl obal
con v
Ġa ug
Ġsh aring
Ġrem ember
" |
igh th
Ġdisp ersion
ir ty
Ġhold ing
Ġtarget s
Ġperiod s
Add ress
Ġcompet ed
Ġy ards
ĠSt adium
ĠD aily
ĠG rant
Ġcont emporary
R ad
bour ne
Ġconsec utive
H igh
ĠMed icine
ĠS ong
Ġher self
D T
Ġg ender
b en
Ġ- --
Ġauthor ities
ĠEqu ation
ot he
Ġdef end
G en
T arget
19 18
big cup
Ġsur ve
ura ble
ĠE vent
sub equations
ĠV i
Ġsec ure
A ccess
ĠPri ze
Â °
ĠS om
ER R
ĠDav is
Ġcol ors
ey n
sy nc
tain ment
ĠĠĠĠĠĠĠĠĠĠĠĠĠĠĠĠ ĠĠ
it ter
Ġro ut
Ġsimilar ity
Ġreson ance
ain ed
Ġrat ios
D L
in stance
ĠF inal
Ġpart ially
) &
ĠAd am
Ġl y
T ask
Ġf ul
E Q
$ '
ib ilities
Ġprov ince
ĠN a
sh ould
ĠStep hen
Ġat omic
Ġbuff er
F M
ĠL ady
Ġp ed
h ow
Ġread s
Ġb ra
Le vel
Ĥ ¬
ud den
Ġent ity
me asure
ĠSur vey
Ġcertain ly
Ġgirl s
Ġgain ed
hens ive
h ave
ad ed
Ġsur g
Ġmunic ipality
Ġf iction
ĠTh ursday
Ġrequire ment
Ġsp ons
}{ {\
per or
viron ments
Ġv ice
Ġdecl ared
Ġpract ices
it led
enn a
Ġdrop ped
' ).
ple x
Ġcompar able
Se lect
d ensity
) _{\
t or
Ġclass ic
) ),
) }$.
ot ional
al o
Ġh ist
Ġmod er
Ġeas ier
ak ed
un es
ak h
G S
Ġlink ed
Ġun able
Ġoffic ially
Ġmod ules
Ġlet ters
ĠN ick
Al so
Ġm al
Ġprep ared
f riend
w eg
Ġep och
ĠCount ry
Ġwin ners
Ġw ire
Ġhost ed
Ġappro ved
ĠDig ital
Ġyoung er
angle ment
ĠCamb ridge
Ġtri p
ript or
est abl
asc ript
Ġaff ili
Ġso le
ĠD er
\ }_{
Q L
Ġthous ands
ĠL es
ill ed
Ġsent ence
c raft
cite alt
ĠS on
Ġb odies
ĠB all
Ġdescrib ing
ĠO t
CO L
ĠN FL
ou ch
Ġpro position
ĠCon f
Ġneut ron
Ġout come
ĠR ights
19 38
prot otype
spec ific
ĠL ow
Ġloss es
à ¸
ĠO R
ry pt
Ġy ellow
Ġsim plicity
iam ond
ron ze
ĠT ai
Ġs ale
Ġcl ients
ic ian
qu arters
ren cy
sup er
Ġst abil
ativ istic
ort ion
che stra
Ġw alls
Ġisol ated
S u
edd ing
}} ,\
Ġ url
Ġch ampion
Ġcompat ible
ĠH ou
Ġsc oring
U pdate
ĠSt ory
) [
Ġk ids
i ability
Ġag ency
Ġf its
vent ure
Ġstruct ural
Ġv ess
Ġprodu cing
Ġc ab
ĠQue ens
conn ected
Ġadminist rative
ĠA li
ĠF ood
Ġfram es
ir cles
Ġ ens
Ġthink ing
Ġcap able
ĠV iew
pl us
ĠComm and
pre c
19 37
Ġupd ates
Ġlist ing
f ast
contain er
Ġneigh bour
ĠW inter
n ight
Ġresist ance
Ġpol l
Ġsign s
Ġp ot
ĠP ers
M ain
Cont roller
Ġpix el
Ġ{ {\
Ġsol ved
ord on
Ġhum ans
k h
s n
Ġstat ements
Ġwin ter
Ġre ar
sp in
w all
Ġindic ating
com ponent
ĠB ol
her ic
iz able
ab et
ĠI P
ĠG er
Ġfight ing
}{ }
Ġexhib it
ut r
) >
Ġaccret ion
ast e
Ġrapid ly
Ġw ins
ex ec
ment ation
T ypes
Ġwe alth
Ġrec overy
d em
Ġdisc over
or ough
Ġdiscuss ions
U M
Ġcommun ic
aw n
w t
ĠA mazon
Ġexper ienced
ĠT urn
ĠH ilbert
Ġcont est
ĠS ign
ar ma
Ġfound er
ire ment
Ġinter vals
Ġend ing
Fil ter
Ġtransform ations
Ã£ o
d ocument
ro g
C ache
ĠH art
al ities
ĠS O
c ross
per ial
Ġfac ilit
L R
ch a
Ġconvert ed
Ġregist ered
}) =\
Ä į
as i
Ġm ent
ĠM S
ĠInd ones
st ates
cer ning
Ġ rows
ag en
ĠRev olution
T ree
ĠB ru
In ternational
Ġst orm
Ġ\ }
ent ity
Ġcom plicated
du ce
t ask
c over
Ġgu ard
Ø §
um ps
omorph isms
ĠR et
ic ial
Ġoff ering
ĠS ky
Ġv irus
Ġcompar ing
ĠM C
Ex ec
Ġimp ly
Ġwor st
% %
ĠT oday
cy cle
Ġsee ing
ĠK al
Ġt ack
ĠA z
Ġv ort
b lem
Ġinter pol
Ġs an
Ġmusic ians
l ayout
Ġcross ing
Ġse ats
Ġrepl acing
ific ial
Ġmarket ing
ĠB ridge
Ġprofess ion
Ġst one
dom ain
Op en
sequ ences
def n
ymmet ry
Ġrac es
Ġs lope
ĠM A
Ġindependent ly
ĠU V
L ocation
im ary
V ol
ĠC NN
ĠPrem ier
Ġopin ion
ĠW ars
ĠM ath
T A
ĠC art
Ġrob ot
return s
Ġdef ining
} >
ĠB efore
i ary
Ġpost erior
ĠO regon
m ag
ere r
is en
ĠC ost
ĠMar sh
ĠC ode
âĢ ī
ĠSh ort
at he
Ġcustom er
Ġcomplet ion
Ġcondition al
l ate
er al
isl ative
ane ous
Ġscen es
ĠReturn s
Ġab and
om atic
ip art
Ġl ists
tr ivial
f ol
se m
Ġap plies
ĠW el
Ġfac ulty
l m
Ġc ub
Big g
ĠSing apore
Ser ver
P ack
O K
Ġdo ctor
Ġl icense
Ġatt ributes
Ġd t
Ġconf irm
Ġn arr
Ġsh arp
25 5
us cript
Ġhab it
if iers
ĠAddition ally
ra q
ĠColor ado
^+ $
Ġmark ets
Ġgradu ated
ĠGold en
Ġpurch ased
Ġpoint ed
Ġadapt ed
ĠP age
ĠSup port
Ġcamp us
Ġstudy ing
ĠM ember
}^ +
ast y
ĠF ac
ĠSt ock
Ġneigh b
Ent ry
P ersonal
Ġcall back
s es
Ġview ed
ĠEq s
ul ner
Ġauthor ity
}{* }{
M c
H D
ĠI mm
ĠH om
M ode
b ec
Ġfe as
pl es
\, {\
fort unately
field s
Ġg one
ĠF ile
M F
R S
w ill
ĠT uesday
ĠS che
Ġf iber
u able
Ġrank ed
Ġphot ons
ĠE s
ive red
Ġhe ter
ĠGu ide
Ġembedd ed
Ġredu cing
Ġexpos ure
Ġconven ient
) }$,
Ġapplic able
Ġv ot
AC K
ĠH op
Ġm it
v dots
ili ary
w as
Ã ¸
Ġf ant
Prov ider
s ample
ĠCh ildren
S ign
ĠH an
ra ble
Ġcl ick
j k
ĠM P
osp it
eng ers
cl ide
ĠMe an
ub b
Ġinst alled
ĠSwed ish
Ġparticip ated
b ad
Ġhapp y
ili ar
Ġclass ified
N ames
ĠW ednesday
Ġflo at
Ġconver ges
ĠR oss
ang a
Ġeigen value
Ġgrant ed
on i
Ġne ither
Ġinf erence
od ge
com ment
st s
Ġj ump
en ance
Ġcosm ological
Ġorb its
ch annel
ou red
Ġd iverse
Ġreturn ing
ĠA rizona
IG N
ĠF act
ĠL td
ĠA P
sub stack
\| ^
class es
in ator
Ġclos ure
Ġop posed
Ġart s
V M
um a
Further more
Ġwhe never
Ġemp irical
id ay
ĠN AS
Ġsee k
f amily
Ġm and
âĢ ¢
Ġfun ctor
ta ke
19 35
: (
Ġneg ot
' ),
Ġb omb
ra it
ass um
Ġs we
p ref
Ġcy l
ar ial
10 5
c ategory
Ġal gebras
en um
r ase
ĠP a
iv als
ir ation
ĠRes ults
not in
Ġreach ing
Ġpurch ase
Ġestim ator
Ġlog arith
A U
pr ise
ev al
Ġprom pt
Ġdefe at
^* _
S k
Ġ[ ]
Ġst ored
l ayer
ĠDu ke
tri angle
Ġprom ote
ĠB rand
Ġcrow d
ĠA thlet
Ġsch olar
Ġre vers
_{ -\
Ġsubject s
Ġsh ares
aw are
ĠM un
Ġjud ge
ĠSwed en
qu es
19 17
: "
Pro p
] =
% .
Ġind ependence
Ġsett lement
v ity
Ġh all
ĠSta ff
Ġpseud o
val ued
oc y
oot st
ĠReg iment
iss ue
Ġhot el
ĠN O
Ġin tern
ab ric
19 00
Ġreal ized
Ġdistingu ish
Ġdisplay ed
Ġarrest ed
em et
ĠD om
b d
An y
igr ants
ĠB att
ĠK now
Ġstation ary
ĠAnd erson
spec ial
ĠD ark
ĠM oh
{ .
ĠJ ordan
Un it
Ġinteg ers
Ap J
rand om
Ġkin etic
Ġhom es
ĠG allery
Ġgreat est
Ġs ac
Ġa id
O rig
Ġm ental
ĠPe ak
Ġtrig ger
Ġhousehold s
clide an
att r
Ġcap tain
ennes see
u ction
od s
ĠCont rol
Ġpass es
g ray
;\ ;
< ?
i Äĩ
Ġfavor ite
Ġrec ur
ak ers
ĠMag azine
Ġexpat riate
Ġen vironments
Ġpl ots
st op
per iod
Ġconcern ed
part icle
th rough
Ġdec ade
ly n
ĠF ellow
Ġser ial
Ġp iano
Ġcounter part
Ġsuff ered
Ġis omorphic
Ġpre ced
Ġdis appe
Ġgeneral ization
k it
Ġpil ot
Ġf ear
Ġcom fort
Ġocc asion
Ġp ulse
Ġequip ped
% ,
@ @
ĠAm ong
d ouble
ĠComm unic
roll ed
ĠN az
ĠK at
} &\
ĠC ook
H er
Ġhol es
equ al
du ate
Ġp y
Ġproper ly
v as
Ġsup posed
M I
ä ¸
Ġrect angle
Ġ< !--
fr ont
Ġr anges
here nce
Ġsp an
Ġc od
ĠS ri
Ġcomp ens
C ap
ag ues
Ġlabel ed
Ġsched uled
Ch rist
e en
res pect
ĠR ose
Wh y
ĠA bb
D el
P an
in ating
Ġpropos al
cc c
enc ing
Ġprogram me
n etwork
Ġcomm itted
ootst rap
Ġplatform s
19 14
st ances
ĠPo isson
Ġatta ched
7 00
pos ing
Ġf aces
ĠL ind
est ion
ĠLew is
k ov
Ass ociation
Ġpre mi
Rec all
G P
ĠC ov
19 19
Z E
ĠMar ia
ĠC ON
Pro t
Ġdecre asing
p erson
rad ius
Ġgener ators
ĠChe ck
AP I
13 0
amb ig
Ġang les
ĠC S
En c
ĉĉĉĉ ĉĉĉ
ual ity
sc ription
| _
cor respond
ĠM att
ĠIndian a
P e
Ġinterest s
int ro
**************** ****************
A nt
ĠE ric
ĠS af
Ġinstit ution
re q
g i
i Ã³n
Ġpropag ation
ĠPr inc
os l
AL L
re nd
Ġferm ion
W rite
l at
Ġsk in
Ġpercent age
u int
l ay
Ġcoupl ings
ĠT a
Ġvis ited
$ }}
p f
Ġm ob
L ayout
19 34
Ġint elligence
( _
19 28
Ġterrit ory
Ġmunic ipal
par se
Ġch a
ĠB rig
ur d
Ġvol unte
Ġp un
ĠT ro
Ġhelp ing
Ġspe aking
Ġsp herical
Ġch ose
U psilon
| _{\
Ġt aught
Ġdis pl
vent h
Ã© s
Ġsub section
Ġexplan ation
ĠAtl antic
19 33
Ġabund ance
Ġturb ul
ĠStand ard
ĉ Ġ
Ġk id
\ /
is ition
ĠA ction
b its
ĠG ree
Ġin her
Ġalle ged
rupt ion
S earch
Ġne ur
Ġsmall est
ur ches
Ġdeliver y
ĠC ru
m oment
Pro cess
Ġd iversity
ĠSo ft
V ari
in itial
Ġtw enty
ow nt
Ġdocument ary
Ġc riminal
Ġatmosp here
T ube
Ġ! ==
ost ic
ound ed
C I
Ġres c
ĠK ansas
Ġin hab
ile y
Ġdom estic
V AL
ĠAG N
Ġtechn ologies
Ġrem ote
ĠM ilitary
ĠCh annel
Ġsche dule
ĠIm age
place ment
Ġappear ing
Ġvalid ation
m aster
Ġharm onic
G erman
Ġout comes
Ġtrans action
lear ning
Ġenc oding
new line
et ary
ĠTrans port
1 12
Paramet er
Ġra w
unn y
ĠMem orial
emet ery
Ġstand ing
script scriptstyle
ĠM iller
St ud
Ġm ort
mod ules
ĠConn ect
l oss
red it
Ġconcept s
Ġoper ate
off set
Right arrow
ef e
Q ue
ĠF ermi
Ġcaus ing
ser ies
ĠâĢ ¢
ate ver
b efore
19 29
Ġdr ivers
mathbb m
N AME
Ġregard ed
k ish
ĠR oute
f iles
AN D
Ġ ur
Ġdel ivered
math ds
ĠC zech
Ġt um
Inter face
Ġlo an
f n
Ġsignific ance
Ġapp rec
ĠG ib
ĠD NA
ut s
Ġadv oc
}} )$
men u
requ ency
Ġunit ary
ele ction
u on
ch anged
W omen
Ġman ip
Ġre new
M any
' $.
1 15
ĠCap tain
19 10
\, ,
ĠO cean
Ġiter ations
osc ow
co in
Ġcontrad iction
r ine
Ġat om
ĠA mb
ĠBro ther
ĠL O
Ġch iral
ĠWh y
Ġop position
UR L
Ġm ount
ĠR iemann
} ~\
ĠW indows
ĠCast le
weg ian
Ar ch
ĠAr ray
ĠTur key
ĠJ oh
Î ±
ĠS n
ĠW at
Ġim possible
Ġreg ister
outhe ast
Ġdisc overy
`` `
Ġm m
ĠB at
av ity
Ġdiam eter
ĠM icrosoft
ĠR ight
? :
jav ascript
Ġb an
Ġb ought
Ġd ry
ic ians
Ġcool ing
Wid th
Ġarg ued
Ġexpl os
ut ely
Ġob j
b rane
Ġl en
ĠD at
Ġprob abilities
Ġpl otted
Ġb ary
St ar
E P
Ġvari ant
Ġd im
ĠF ull
Ġsit uations
ym ph
A ug
Ġannoun ce
S ongs
ĠM oon
Ġcoll apse
++ )
ĠF lo
Ġworld wide
Ġaccom pl
}} =\
al ion
et he
Ġnov els
Ġst ores
ab ove
Ġg ift
appro xim
Ġus age
Ġdis cret
Ġcirc ular
Ġpo et
Ã º
ind ependent
19 32
Ġv irt
W est
over set
ess ions
ition al
Ġemer gency
R T
ri ers
} <
Ġmin ute
ub er
11 1
Ġengine er
ĠExec utive
ĠAl f
ĠF ord
ĠSt art
iss ip
P res
Ġtit led
S ol
comple x
Ġtalk ing
rosc opic
Ġstead y
Ġc ache
O pt
B el
Ġf old
ant e
sh ips
Ġmay be
ĠG h
Ġgovern or
F ont
Ġord inary
ĠMark ov
Ġstring s
res ol
But ton
Ġinf o
ĠD rag
g ar
Ġa ux
Ġspl itting
ĠV ideo
Ġf itted
ic ious
ele ase
Ġcon formal
ĠN umber
or ous
ĠHar ry
ĠS av
ac cess
ĠC ond
St r
Ġgu est
Ġdi pl
Ġad ult
Or der
d ashed
Ġren amed
Ġre act
Ġn ice
as et
Ġexp ensive
Ġpresent ation
do or
at ivity
H am
Ġre form
ĠK itt
const ruct
v ia
P N
on om
Ġn ob
ĠP ier
Ġanalyz ed
B en
ĠP ack
Ġbring ing
Ġf ly
Ġg iant
Ġtop ics
Ġaff ine
in us
b es
and y
w rap
Ġs leep
B as
Ġhydro gen
an es
Ġtown s
Ġge odes
iam i
om ot
U rl
Ġclust ering
s is
Ġw rest
Oper ation
ab ama
ĠJ am
writ ten
Ġheav ily
Ġde vi
Ġacc um
ific ate
il ine
w estern
Ġconsider ation
Ġbring s
ou stic
Ġaccom mod
Ġamplit udes
ĠI l
ĠC ab
ropol itan
Ġdiff er
ĠD ate
Ġincreasing ly
Ġgu ess
iv ation
al f
F rench
Ġb ars
olog ists
Ġcho osing
Ġform ally
ĠCre ate
er on
ĠMiss ouri
ĠI T
J ust
Ġcorrespond ence
Ġknow s
ĠB ishop
ĠAff airs
Ġcontrib uted
ĠMod ern
V ideo
S w
Ġf estival
Ġre in
Rec ord
ĠI owa
wit zer
19 22
Ġcon crete
ĠBuild ing
Ġsyn chron
' }\
Ġsubset s
Ġcov ariance
Ġe c
Ġsepar ately
Ġs ight
ut t
G O
Ġcre ative
Ġman age
_{ [
ĠL ook
ĠA ge
Ġco herent
Ġsp arse
Ġst im
= -\
Ġcoll isions
ĠLear ning
e ctions
Ġhard ware
Ġn an
mer ce
Ġjournal ist
Ġ* *
b olic
Ġneg lig
ol is
ĠB rian
u j
Ġob st
ĠEnter tainment
ivers ary
ict ed
m arg
st ud
Ġtrack ing
Ġspac etime
Ġdesign s
t otal
y stem
b ool
W indow
ed u
ĠT erm
ĠFore ign
Ġour s
man ifold
Ġelement ary
Ġcon version
con c
S N
O ct
du ctor
Ġjust ice
Ġan isot
Ġcontroll er
t ensor
or ient
Ġpost ed
f rag
B ecause
ho le
Ġd war
ĠCon st
Ġaver aged
Ġp ra
ĠMed al
gress ive
ĠTr ue
Ġre normal
ut able
}$ &
ĠD or
Ġadapt ation
C B
P ass
tem plate
Ġpeak s
c ription
Ġwor se
: </
in ch
ĠT ennessee
Ġl icens
ra ce
J son
ĠE P
u ity
Ġdiss ip
Ġt ab
Ġhas h
Ġs udden
Ġoccup ied
19 31
Ġcon e
Ġdec or
I B
T ele
v ance
Config uration
19 24
ĠHou ston
Ġdistrict s
Ġ ille
z i
Ġfeel ing
Ġvol t
ad er
Ġc aught
e ach
19 27
lim it
le e
Ġwait ing
a ire
g rid
Ġshoot ing
U RE
Ġaim s
Ġstop ped
ĠL ank
B bb
ĠH ur
Ġd a
Ref erence
ĠI raq
Bl ack
ĠLe on
$ _{\
Ġb inding
ĠT en
Ġgl ob
Ġcl ock
Ġro y
ĠOn line
ĠL iter
Ġne arest
ĠB lo
Ġen hanced
ffic ial
witzer land
ĠQ CD
Ġb its
mod al
On ly
Ġd ialog
C ond
ĠCh all
Ġguarant ee
v y
ĠS ound
J o
| =
Ġpar liament
Ġweap ons
bet ween
s ite
ĠOffic er
Ġtraject ories
Ġr ugby
ĠH erm
Ġanaly tical
ee per
ĠAr thur
ĠSer b
Ġexpert s
Ġreve als
ploy ment
ĠSe ason
Ġg ather
ĠP DF
Ġcompos er
ĠV ari
t im
ĠT O
Ġh un
Ġconsum ption
Ġm ere
Ġtri ple
ĠD onald
ĠT H
Ġcond ens
ĠT ext
ĠN ig
=" ../../
Ġamount s
A ng
pol y
Ġsens or
bel ow
Ġperman ent
h d
Ġpaint ing
pp ing
ĠAss oci
Ġthe atre
Ġut ility
Ġfem ales
Ġaccess ible
F rame
="../../../../ ../
Ġint rinsic
ie ce
ĠN ame
Ġhor se
Ġfin it
Ġim aging
Ġre aches
ash i
ar o
requ ire
L eg
con nection
Ġlog ic
Ġste el
Ġf aced
Ġappe al
Ġst uff
ĠOb serv
Ġeduc ational
Ġrel iable
Ġv ocal
Ġcy cles
Ġcomb at
Ġb ath
l ights
ordin ate
G G
ov en
ah oma
ĠS ix
Ġl ose
Ġt error
k ind
m ont
Ġperturb ations
m ers
rac ks
Ġperform s
Off set
we ak
Ñ ĥ
ĠDi rac
Ġf alls
ĠPhilipp ines
R ange
Ġd ates
g on
ĠH as
Ġcould n
Ġcount s
Ġsubstant ial
Ġas sembly
Ġmanag ers
ĠP rom
ick er
Ġsatell ite
ĠS quad
Ġtr unc
k ern
w ords
ho ok
Ġreal istic
Ġle af
Ġh its
ey l
ĠK han
' )$
Will iam
du al
aw s
Ġdec ays
) |\
Ġdec ide
m atic
Ġinterpret ed
Ġpar ish
}) _{
Ġlist en
ĠAn alysis
)= (
Ġin vert
ĠP A
Ġtri angle
Ġret riev
Ġde leg
Ġvan ishes
Ġfav our
ist ant
oc racy
nt z
Ġman uscript
Ġrestrict ions
l arg
ĠPh ot
Ġstri ke
Ġch apter
Ġtr uly
ĠM it
Ġm il
Ġcent ers
ĠP itt
ĠT an
the ory
Ch ild
Ġcut s
Ġw at
ĠMary land
l ades
ĠF unction
14 0
] ]
ĠAN D
Ġdesign ated
Ġsp end
ip ped
F E
ĠCol on
Ġar ise
ĠDis ney
W A
tain ed
ĠN orm
ĠCol lection
ĠR oy
Ġmathemat ical
ĠB arn
Ġ$ [\
Ġmechan ical
Ġc ircles
h ist
Ġfact ory
ĠSim on
he im
aint enance
Ġpix els
B H
ĠS P
Ġmov ies
Ġre ly
ĠB urn
Ġs now
Ġnormal ization
D et
ĠAl ice
E very
Ġconnect ing
Ġw arn
Ġw a
all as
p mb
ĠR ic
Ġv ulner
st yles
Ġpen alty
D om
g ood
at in
at en
l floor
A cknowledg
Ġen ables
19 21
Ġre nt
Big l
Ġjo ining
Ġch rom
Ġform ing
t b
Ġk inem
U V
Ġ{ {
Ġse es
bound ed
Ġrac ing
N orth
Ġent anglement
ĠAr k
Ġful fill
Ġmarg inal
Ġtri ang
ĠG reg
oc a
r floor
Ġm art
art ifact
Ġon going
Ġleg end
19 26
c ov
Ġle ct
Ġb atch
Ġadv ice
Ġcrit erion
ord ered
Ġv eg
ĠCh ap
Ġactiv ation
Ġdepict ed
b ib
Assum e
ill ery
ĠAssum e
rain ian
ĠM oscow
Ġprov en
d am
ist ically
U K
Ġeven ing
19 25
Ġread ers
19 12
ĠD ream
re v
ro it
Ġsu it
Ġro of
Ġattempt ed
C am
s a
Ġadm its
D en
Ġim plicit
Ġinter ference
Big r
Ġgrad e
Ġkill ing
ĠHigh way
Dav id
fl at
Ġweek end
Ġto wer
oid al
ĠNew ton
Ġphot os
ĠR equ
ss on
l ad
ĠM D
ut her
el ines
~ (
th an
Ser ial
O lymp
Ġc ro
ar on
ĠCar lo
. }\
ure au
c ers
' =
kl ahoma
Ġrec urs
Ġfact s
ĠAdminist ration
ren ew
Ġre venue
Ġref lection
}} }{
Ġsup erv
Ġparticip ate
ĠNor way
periment al
Ġweak ly
ple te
hold er
o es
ĠB ab
Ġexec uted
cell color
Ġoutput s
t ically
sub float
Ġrespons es
ĠMal ays
ĠF ront
Ġcompet itive
Ġproject ive
ub le
Ġcorrel ated
}) )
H on
Ġ$\ |
Ġland scape
Ġv o
ĠF ederation
B undle
Ġorder ing
c ache
w indow
ĠRec ord
ĠF uture
l b
sing le
Ġhundred s
Ġrese mb
reg ion
ĠN av
Ġscient ists
ĠB h
ĠJ ane
Ġsym pt
Ġse ar
Ġd il
Ġslow ly
)} _{\
M ich
Ġde pos
Ġover lap
ĠHot el
L ife
ĠE N
Ġdis order
Ġra in
ĠC P
Ġcollect ive
Ġprob e
at ar
ĠTh ird
Ġins urance
] );
er os
ĠViet nam
ag an
t oken
. },
Ġexplain s
E uro
H ash
Ġu int
> ,
ail s
M s
ĠHar ris
Ġmole cules
Ġassist ance
Ġmaintain ed
ĠR yan
Ġ& $
Ġline arly
Ġco hom
Cont rol
p he
Ġconsist ency
19 23
ug s
our se
A f
pert urb
Ġcompre hensive
Ġs ought
Bi ography
Ġindu ces
Ġaccom pan
Ġe cho
Ġassess ment
l an
Ġchain s
' $,
ĠDi ego
re pre
Pos ition
conn ect
i ot
ĠR eb
Contain er
ys elf
Ġbro ke
st an
19 16
F P
Ġanalog ous
is lation
}\ ;
ĠChe m
ĠSen ior
inem a
L o
Ġseg ments
Pro ject
Ġtherm od
Ġtra ins
igen ous
an alysis
A v
N one
et ing
Ch ange
J apan
Ġch airman
Ġcon cerning
Ġprov es
ous es
g ame
Util s
ĠS quare
Ġsynt hetic
Ġin it
Ġdis joint
Ġrestaur ant
p air
Ġsurpr ising
col n
Ġreplace ment
Ġnon zero
= (\
ar ation
is ations
T im
res ource
w ick
Ab out
. '
ĠA ccess
gh an
f ly
w ich
Ex ample
Ġre tail
ĠB G
Ġ$ <
Ġc ash
ĠCo oper
ĠAl abama
ĠK y
Ġs urn
Ġarr ival
o a
Ġexam ine
AC T
EE E
Ġr ating
ress ive
ĠTra ining
K ind
Ġcontain er
od a
Pre vious
ch arge
U se
Ġv eter
Ġproced ures
ro ke
Ġreport ing
ĠMex ican
v skip
yn c
He ight
AG E
19 15
repre ne
Ġconclud ed
Ġas sets
ex pl
ĠR ab
Ġexhib ition
ĠH T
Ġquot ient
ch itz
Ġin ternet
Ġpre v
ĠHe art
Ġin hib
Ġc um
Ġbur ied
in cess
el ve
Ġp itch
az e
Ġsix th
ĠYou Tube
ĠC hen
Ī Ĵ
#### ####
Ġ" \
Ġfound ation
Ġ> =
ag u
ĠMar c
COL OR
Ġaff ord
ĠReg ional
ik h
Ġb rown
Ġ$- $
ĠT ony
F ix
M ac
Ġinst ruction
F ull
Ġre cept
o om
Ġcon vention
ĠAll en
ĠMan chester
h ash
Ġ }$
Ġair port
Ġbran ches
Ġf ranch
itect ure
3 60
ĠDe ep
Ġded uce
cl oud
ĠG ab
iv a
und erset
on omy
Ġinter sect
Ġseem ed
E st
ĠPhil ip
() ->
ĠSt one
\| _{\
maz ing
de ep
ĠJ ay
Ġcorrect ly
Ġphenomen on
se par
Ġfil ename
enn y
st ore
ĠTown ship
Ġre verse
D ocument
sup ervised
PE CT
Ġrespons ibility
}} }$
Ġsegment ation
B r
n umer
ĠAg ency
Ġout per
ĠB ox
Ġconst rained
ĠM unic
ore f
Ġ} {\
I ter
Ġfam iliar
ĠDo ctor
ĠB run
Ġf ol
ĠB alt
Ġdifficult y
ĠU l
S ym
ĠP ay
b urn
13 5
f ix
ache lor
ĠCont in
os ph
ta h
el son
alax y
Ġcomb ining
n ik
ol y
Ġmonitor ing
Ġd y
Ġrecomm ended
ĠO ak
ips chitz
ĠB ased
Ġbatter y
Ġn a
ĠF all
Ġdis put
ing ham
if ting
Ġsound s
F OR
ĠP ath
ĠV o
Ġt ens
Ġin duct
ĠP ut
Ġbut ton
ĠJun ior
U L
in th
Ġso il
Ġillust rate
l iving
ov ing
Ġrelax ation
det erm
i ac
Ġrelig ion
eles cope
ĠV ice
Ġturn ing
ĠRem ark
Ġassign ment
Ġv ast
ĠCom b
Ġmon ot
ĠPl ace
Ġexpon ent
Ġde formation
D raw
Set tings
G s
p ic
oid s
? "
Ġcor on
ĠG ard
we alth
) |^
Pro perties
Ġrev olution
im p
ĠD un
ĠJew s
ĠB H
sh arp
A uthor
ĠMel bourne
ubl in
10 2
t ypes
Ġaut hent
ĠAl bert
ĠPro cess
put ation
Ġcan cel
ra red
Ġrec overed
Ġtra v
gl as
Ġarg ue
b ow
ÃŃ a
Ġgrow s
Ġimpro vements
e a
Ġun stable
ĠB ah
f g
pl er
b uffer
Ġin g
ĠS witzerland
Ġ })
Ġveloc ities
b order
Ġproject ed
t ex
ĠN GC
Ġa cknowled
ĠE lement
Ġex port
] ^{
Ġk il
Ġwindow s
) "
Ġmembers hip
ĠDe ad
P RE
f ocus
S i
Ġconserv ative
Ġcomb inations
ĠE mer
ĠSystem s
Ġcon jecture
ĠS R
ent ric
d on
ĠI r
ateg y
Ġtri als
g iven
u h
In itial
je ctions
Ġold est
Ġteacher s
is ons
Ġarg s
up l
Ġcent ered
ĠPat rick
ĠC ulture
)} =
Ġs oci
ĠF er
Ġgood s
Mod ule
Ph il
t ml
Ġyour self
Ġ ^{\
re tt
ĠF A
ard o
. (\
ĠS earch
eg as
ail ability
v c
sh op
in duced
ĠE ff
sup p
Ġpo etry
Ġb id
ry st
Ġcomp ris
Ġintrodu cing
ĠP S
Ġprom otion
Ġshort ly
K e
ĠW y
Ġmanufact uring
med ia
sim ple
uch y
A wards
Ġsuff ices
Ġport ray
* \
ple ments
Ġ\, ,
Ġqual ified
ĠI mp
Can adian
p ay
ĠEx p
ist a
Ġf ault
ĠF a
Ã¼ r
M a
m ony
Ġcryst al
sat isf
l ined
ĠDe ath
T ax
Ġanalys es
Ġasympt ot
Olymp ic
ĠHol y
ĠKent ucky
al og
ct x
ĠTok yo
ma king
Ġcarry ing
Ġinflu enced
d z
Ġexerc ise
ĠE dition
c ounter
ĠMo ore
Ġexcit ation
Ġc raft
ig ate
and o
Ġp ole
Ġcre ates
ĠK evin
ĠSc ient
st age
ĠC ape
ĠAnth ony
Ġse p
H as
Ġext ensions
}_{ (
ict ional
ĠEx ample
Ġgener ates
Ġsup plement
' ',
}) -
Sim ilarly
Ġc ards
own ed
C V
id ers
r ations
Ġmix ture
Ġincorpor ated
F inal
back s
ĠN atural
ic ide
rict ion
ĠEu clidean
ĠSil ver
' }$
Ġinvol ve
ĠI ss
Ġb are
Ġsem antic
U P
Ġsh r
ĠJes us
inter face
ok ing
s ome
Ġarr ive
Ġbrother s
B ased
Ġmedal ists
Ġt unnel
Ġare n
F lo
th ree
ĠN ative
Ġrece iver
util s
ĠBase ball
Ġdeterm ines
Ġpref erred
o i
\!\! \!\!
' >
Ġch arts
Ġag encies
K S
S ources
an aly
Col lection
ar ry
p in
Ġvill ages
ast s
Ġsp ending
ĠTh ough
Ġlat ent
ĠCap ital
ĠH um
coh ol
ĠFred er
10 4
Ġmed icine
Ġfail s
Ġb anks
ĠB os
ĠJ os
ĠW here
Ġthe rapy
Ġsampl ed
ubl ished
ĠA S
av irus
w p
ment ed
B D
ĠHol lywood
). }
{ [
t n
Ġhe aring
it ro
Ġkey s
HT ML
ĠM rs
Ġdeb ate
Ġlimit ations
ĠB eng
ĠLa ure
ic ut
ĠG ram
Ġp ipeline
ens is
Ġm outh
Ġpresident ial
s un
rid ges
ene z
s end
it ics
ĠEconom ic
}= (
Em pty
Ġval uable
re ement
ST R
Ð ²
H R
H M
S em
Ġprinc iples
orthe ast
se a
D ir
Ġhom ot
fact or
b oth
ĠGree ce
ĠD a
Ġrequest s
Ġref used
Ġtrad ing
Ġ$ $\
}_{ {\
Ent ity
om as
Ġinst ability
ĠPro t
Ġs oul
Ġpre gn
ĠRepresent atives
renew command
Ġpro spect
equ ival
Ġco aches
Ġpubl isher
ĠCl in
f all
Ġne uro
che ll
Ġt all
Ġrema inder
ĠEx pl
Ġsett led
H P
v able
cent ral
dist ance
ĠHow ard
T YPE
iv acy
Ġun us
ĠR oll
ĠBar on
ĠV in
ĠM iami
ĠP ed
Th read
Ġpers ons
at ics
ĠCur rent
ĠVal ue
Ġch ap
Ġgreat ly
ĠK am
op ed
M eta
il st
c u
Ġj un
v m
Ġcon sequences
ĠH D
Ġsch ol
Ġsy nd
ch ant
rum ents
ĠN ap
athe red
Ġnom inated
Ġinst ruments
c oupl
Ġrank ing
Com parison
iz ers
ĠĠĠĠĠĠĠĠĠĠĠĠĠĠĠĠ ĠĠĠĠĠĠĠĠ
ĠT reat
ail ing
ĠN ich
19 11
sec urity
T I
ov ed
Ġhead s
Ġsc r
Ġatt orney
Ġan omal
Ġs elling
p otential
Ġover ride
ues e
ĠCh ild
ĠE arly
inc ial
}. \
Ġbo at
Ġo x
Ġen abled
xy gen
19 13
Ġm yself
ĠR ow
y ers
sy n
ok ed
ownt own
oun ced
3 50
ma ke
ĠS el
int end
Ġm ales
Head er
Ġeng aged
f ire
un iform
Ġcos mic
S ur
Ġcrit ics
Ġcorpor ate
Ġoff ices
ĠH ans
Ġacc ord
ĠSpec ifically
s ession
Ġtransform ed
idel ines
Ġab use
ĠEx press
os ed
Ġde let
W here
ĠWh it
) )$.
ĠG all
j et
Ġm ic
jo in
Ġ* )
Ġgener ality
j u
Ġint ent
ĠY outh
Ġinv ited
um in
Ġ ..
Ġpotential s
Ġequ als
aw ay
as ters
ĠCon stitution
1 18
Ġtransl ated
ĠBang lades
g ov
ug ar
Ġassoci ate
Ġag ed
ĠD omin
.... ....
old s
Ġnumer ically
}, {\
Ġmer ger
ut ies
Ġla id
ig e
ĠB ry
l ie
ell s
ĠE instein
Ġph on
ur is
Ġtri es
Ġacceler ation
ĠBow l
Ġf usion
10 8
ri k
Ġphot ograph
Ġte en
}\ }$
ab out
r ison
ĠE ag
Ġeduc ated
he et
Ġqu eries
ud a
Ġfore cast
Pl ot
Ġenem y
Ġtrans mit
ion ed
Ġfew er
Ġpublic ations
dep th
C y
Ġimpro ving
\, .
ter ior
Ġequ ally
fol io
Ġregular ly
ĠF M
Ġalign ment
&. &.
ĠAss ert
Ġstar ring
con ver
es is
ann y
c ost
ig m
w en
ĠRec all
pro perties
Ġp atch
i at
trans form
Ġb ronze
Ġlocal ized
Ġt ends
Ġprov ider
Ġexpl ored
Ġstri p
Ġref ere
ate ur
Ġpref er
ĠS S
Ġinj ured
Ġex it
Fil m
Ġd ress
Ġdis contin
Ġinf inity
ĠBl ock
ĠH u
Ġsub sid
ĠUn iverse
Ġgu y
ER S
ĠW atch
ph an
ĠO klahoma
Ġinv ent
Ġpay ment
, ~
n ie
ro d
Ġtot ally
ĠM and
am ents
Ġhelp ful
ip her
ĠAust ria
hy per
ple ctic
tri ang
pro file
Ġsurg ery
Ġintegral s
Ġcommunic ations
Ġt ables
ĠB iden
N L
Con nection
ers hip
dr iven
H ost
ter y
On ce
it ud
$ --
Ġgrow n
}( -
Ġadd ressed
sol id
se q
cons istent
Re al
deg ree
a ired
Ġtouch down
Ġgu id
19 08
Ġg ar
Ġdesc ript
ĠL am
Ġcomb ine
ampl ing
ac on
lead ing
}_ +
Ġre jected
c am
Ġlaw yer
ab olic
Th rough
Ġleg islation
Ġp ione
ĠL anguage
Ġmur d
Ġdraw ing
Ġeffect iveness
r in
Ġh ospit
Ġad ults
el and
R ober
Ġput ting
Ġacc used
Ġanc est
Ġpos it
Ġbo ys
Ġv oting
Ġcl ip
Ġent itled
Ġpure ly
Ġfinit ely
ens ively
() :
anc ell
&& $\{
Sp ace
Ġinf ection
Ġev ident
ĠĠĠĠĠĠĠĠĠĠĠĠĠĠĠĠ ĠĠĠĠĠĠĠĠĠ
ari ate
Ġcal ibration
Ġ\}, $\\
Ġconsum er
Ġvolt age
Ġm ock
ĠP R
Ġpass ion
Ġsh adow
}$ ).
Ġmat ters
B ibliography
ĠN ev
Ad dition
Ġbos on
aut o
ĠMat the
! âĢĿ
ĠDef ense
Post ed
Ġexpl oration
Ġaux iliary
G raph
Ġch air
\\ \
Ġcompet e
Ġelli ptic
Ġsee king
Ġattack ed
Ġperm utation
f ixed
Ġmin ing
Ġhost s
ĠW ol
im od
ĠN ik
ĠT R
Ġs ending
up per
Ġpr on
f inite
az a
Ġdrug s
ĠP as
Ġdou bt
in ement
ĠĠĠĠ ĠĠĊ
ocr atic
Ġneighb ors
Ġvictim s
E V
E ff
G D
Ġhead quarters
do i
Ġfocus es
=" -
f our
Ġr anging
ĠPh ill
Ġformul as
Pop ulated
comp act
H y
ĠL as
est yle
ĠR ub
Ġent ering
Ġl it
ĠTai wan
ĠLin coln
ĠM ake
Austral ian
) }^
ateg ories
Ġkind s
is y
Ġsit uated
Ġmiss ed
De ath
Ġw ww
$ (\
ot te
col l
Ġshe l
Sports people
Ġv oted
issip pi
ra v
pro fit
Ġlif etime
aut oref
st ery
10 3
under brace
ĉ čĊ
Ġrequ iring
ĠC T
St ore
ĠM ir
w ang
Ġs ons
el lect
IT Y
Ġly rics
ĠD ick
Ġformal ism
un ed
ograph ical
Ġclass ifier
Ġexpand ing
res ize
Ġfil ed
ĠAnd roid
Ġult ra
}} +
ibr aries
fig s
ĠB ureau
ĠNever theless
Ġab elian
Sum mary
vious ly
ect ure
ĠP ow
ix el
% ;
ish ment
ĠD O
Ġhealth y
ail and
id ity
Ġembedd ings
er k
Ġh am
opt imal
ĉĉĉ Ċ
ĠUn it
ms g
ĠQueens land
j ar
E p
Ġro oms
ĠT ake
Ġformer ly
ĠK elly
er ial
Ġm ine
S an
doc s
sp aces
Ġre b
Ġstre ets
Ġwatch ing
) !
Ġmusic ian
Ġfeas ible
Ġpar ad
Å «
Ġvar ies
re nder
v v
d ict
Ġvisit ors
od ox
Ġal ter
Ġconsider able
iline ar
Ġwe ar
Ġlength s
const ant
Ġadd s
Ġent rance
Ġhyper bolic
ĠN ag
c ert
m ay
Ġf ruit
_{ {
she ll
Ġsucceed ed
Ġun ity
( |
1 16
arg o
artifact Id
}\ !
ĠWal ter
Ñ ı
Ġp arams
ĠC op
Ġp ray
ang el
Ġresol ved
Ġdrum s
ram a
B F
ĠM O
in cre
Ġ\ )
Ġcl ar
ĠS ep
ĠĠĠĠĠĠĠĠĠĠĠĠĠĠĠĠ ĠĠĠĠĠĠ
Ġp up
Ġfac ing
^- $
Ġr uled
ĠV ersion
ĠO pt
Exp ression
Ġf lying
Ġbelong ing
pan el
ĠN OT
Ġhe ating
Ġpres erve
AT A
Ġneglig ible
Ġun like
ĠY ang
") );
Ġliter ary
ĠR ound
ĠOb ama
ĠTem ple
ĠR est
O ption
ĠLore ntz
ĠL ink
Ġsup por
ĠWalk er
Ġass ault
Ġex posed
im it
Ġcour ses
uer to
Ġcap abilities
Ġcheck ed
b ind
qu ality
Ġins ight
L M
ors es
ĠP ot
ĠR on
Ġcon clusions
e ast
Ġel ig
over ty
ĠCh ile
Ġtal ent
no ise
ĠJ ava
Ġmeas uring
Ġmer ged
ĠVill age
ig ious
us al
i op
dist ribution
ah n
ke ep
er as
E ven
N T
d ing
T ab
B s
ĠStud y
im ated
b one
Ġg ro
us p
Ġpreserv ed
Ġto ler
Ġmark s
Ġensure s
ĠD al
ĠComm un
T ok
l ab
Ġc avity
ĠW olf
ĠA le
ĠHaw ai
add ress
ens es
et ition
ĠL ev
r Ã©
Ġfl av
ob i
be an
}} +\
Ġmay or
ĠS port
ĠAn ne
F ound
Ġvari ants
ST M
Ġconstit ution
N um
Ġmach ines
Ġde lete
ĠCon sequently
Ġcloud s
Ġtrend s
Ġst ood
yn asty
Ġround s
Ġt ropical
C ore
Ġfor th
ð Ł
M arch
}| ^
Call back
ĠL apl
dev ice
ĠÂ »
R ob
is ode
Ġinc red
@ {}
ol ph
Ġh a
bas ic
Ġefficient ly
Ġj azz
Ġadvert ising
li est
GB T
Ġb on
Ġdest ination
A re
Ġre actions
Ġm o
ĠMar ine
Ġcom ic
Ġkn ock
Ġvan ishing
ul atory
Ġb ott
art icle
oc he
tr im
Ġoper a
ul ative
Ġcontinu ity
J anuary
Ġl ake
O h
Ġgradu ate
ĠE rror
ĠIslam ic
Ch annel
P aul
ĠSw iss
S pe
ĠAtl anta
ĠM i
Ġret irement
Ġacqu isition
Ġm irror
stand ard
ym n
Ġnot ing
H ttp
Ġpost s
ĠL yn
ĠInd ex
Ġart ificial
Ġing red
ĠSing h
Ġterm inal
ic he
ĠS in
tem perature
ĠD ur
Ġshe ar
Ġd uty
ĠPro te
ĠB uff
ĠS yn
u in
display math
ap olis
10 6
Ġcomm ander
" ))
AC E
Ġf er
ĠSe attle
Ġc oun
ĠAnton io
is ks
ĠNor wegian
Ġatt ributed
Ġr ising
Ġthere by
it is
Ġprepar ation
ĠMe V
d ynamic
10 7
ĠSe veral
Ġme ets
j an
ĠCl oud
] _{
Ġcere mony
Ġwrit es
Ġd ies
Ġmulti plication
ĠN ash
ĠF ame
Ġdr ift
ĠWith out
ĠLab our
Ġenc oder
ĠG arden
import ant
ch t
Ġover view
Ġask ing
Ge ography
Ġderiv ation
Ġabsol utely
__ __
Ġd otted
F amily
bu ilt
Ġregard less
equ als
u is
B T
ĠIsra eli
y ou
ĠB uck
al ed
Ġsuper ior
Gl obal
ĠSm all
u u
respect ively
ĠB us
Ġdis miss
int o
l r
Ġsh orter
ul o
Ġlo ops
Ġgr ass
* {-
Ġst rain
Ġfair ly
Ġestablish ment
/ .
ĠTur kish
ĠF arm
ick ing
Ġcent uries
Ġroad s
Ġm esh
ĠC ow
C s
h arm
Ġtem ple
}^{ (\
ĠAf ghan
Ġdiver gence
Ġb ases
ĠInd ependent
ĠP ur
s qu
Ġdanger ous
ĠHer itage
Form er
, (
f ef
Ġgun s
V ector
as m
ĠS I
ĠOr th
im ore
Ġlov ed
Ġlimit ing
Ġwould n
ogg le
Ġregular ization
N P
Ġentertain ment
iv ated
19 01
olog ically
Trans port
ĠAg ric
Ġcol lections
ĠT rad
lik ely
Ġp ose
par a
Ġm aintenance
ad ing
uk i
T itle
$& $
Ġan ten
Ġocc as
Ġobtain ing
ul um
roph y
ie val
Ġb irds
Ġwh atever
Ġpublic ly
ey ond
Ġdirect ors
Ġk it
Ġfil ters
Ġpre lim
19 05
ĠL ib
w ho
Ġfound ing
Ġimag inary
Ġext raction
Ġprep are
ĠK o
Ġremov ing
Ġt on
Ġ ri
Ġf at
Ġinst ruct
9 00
ĠC ustom
R ich
ĠFor ces
Ġvacc ine
Ġar ises
\ }}
Ġpro ton
T otal
Ġant icip
group Id
L oc
ĠG ordon
F ree
ĠAust in
ĠN ob
ĠD ave
Ġshift s
ĠIndones ia
Ġsuper conduct
Î ¿
Ġwhe el
Ġvot ers
z ing
Ġp adding
}$ $
ent er
Ġdeterm ination
Ġcr ash
ov ak
hal f
In v
Ġf ought
ang ers
Ap plication
m issions
Ġvol umes
M al
vert ex
Ġdeterm ining
! "
ĠF ried
> .
Ġ\ #
l ass
Paramet ers
Ġr ide
Ġdeal ing
Ġcircum stances
' )\
ambig uation
Im pl
Ġdise ases
art z
Ġpro hib
Ð ¼
ath y
w ait
Ġoper ational
on line
ĠB S
Ġnorm ally
Ġthick ness
ĠEX PECT
ĠP ap
re le
Ġpain ter
ĠPal est
ĠDet roit
fef efe
arg ument
hold ers
ear ing
Ġcohom ology
C le
Ġag es
Ġfe e
B oth
P arams
ĠH ug
ĠD VD
ĠEm peror
oper ator
}$ ;
Ġis lands
end a
char acter
ĠCh ange
h us
Ġshift ed
d ebug
Ġinv ariance
end ment
Ġfe els
lect ric
N etwork
ic ing
= {\
Ġdecl ine
Ġprot est
Ġconsist ed
Ġinvest ors
ĠConnect icut
Ġj unction
ĠPl ayer
app oint
sp ring
ĠM ars
ĠH ad
Ġpass enger
Ġco ff
um ar
Ġsoc cer
ĠMc K
Ġr ival
c b
b ecause
Ġsp oke
ĠCh ampions
Ġwill ing
Ġaccompan ied
Cl ick
e fficient
}}\ \
s burgh
int s
ĠW ang
Ġinequ alities
Ġsurv ival
p ow
ĠAl b
Ġbar rier
Ġbig ger
or us
33 33
Ġro utes
id ge
f ramework
ĠD allas
OR D
ĠB O
ĠEx ception
ĠĠĠĠĠĠĠĠĠĠĠĠĠĠĠĠĠĠĠĠĠĠĠĠĠĠĠĠĠĠĠĠ ĠĠĠĠĠĠĠ
18 90
Ġmod ification
Ġbox es
Ġb old
}} -
M art
Euro pe
sim ilar
r b
ĠS H
Ġw aters
ĠNig eria
r f
Ġel astic
Ġmin i
' (\
d p
}\ )
Ġapparent ly
Ġprom ising
ĠTele vision
ĠSt ew
ĠE arl
Ġfl avor
Ġconvers ation
L in
Ġrece ives
Ġdistingu ished
Ġtransport ation
): =\
Ġund efined
ge red
19 07
hand le
Ġ+ +
Ġwas te
)\ ,\
Ġsh apes
in ternal
s ys
Ð ´
Ġwalk ing
d or
EN D
Ġgen etic
Aug ust
p us
Ġde bt
W R
Ġ( ;
Ġeng ines
Ġo xygen
um ping
G ET
Ġim posed
Ġan th
oc ese
per iments
Ġt ank
ol o
s pl
ĠD R
Ġsymmet ries
Ġst ating
Ġex clusive
ĠP O
P tr
Ġmetall icity
ha ust
b est
ĠTh ose
g ot
ĠF inn
center line
Ġob lig
Ġlay out
rat io
Ġveg et
Ġhead er
Sh ow
ug ins
Ġresol ve
á »
^{ [
Ġent ities
ĠR ot
lem an
tra ining
Ġt ennis
Ġfrequ ent
ĠSar ah
Ġres erve
Ġplan ets
olt z
Ġd ial
Ġparticip ation
ĠLank a
Ġast ron
Ġac oustic
op ter
Ġbreak s
T M
F in
m outh
S ession
P arent
S n
ĠAl bum
ĠB ou
Ġdef initely
Ġsympt oms
Ġfranch ise
ant i
am ps
Ġd ict
Ġs ed
Ġw ider
B N
ab ad
Ġman ifest
Ġappro val
Ġmov ements
Ġtw ist
Ġcompet itions
S tack
T F
ĠCan cer
ĠNC AA
ĠS F
Ġoption al
ĠBanglades h
Ġb aby
onom ous
Ġprior ity
Ġadapt ive
Des pite
Ind ian
ĠB ull
-> ]
ĠArgent ina
k w
ĠAl ber
ĠSquad ron
ann on
G reen
Ġoper ates
ĠP lease
Ġstream ing
Ġd amp
t ics
Ġfocus ing
Ġcontinu ing
M us
ĠP ear
Ġmechan ics
ĠBul g
top rule
C ho
Int eger
Ġdist urb
="../../../../ ../../
Ġ\\ [
Ġpick ed
Ġphil osophy
Ġdetermin istic
marg in
Ġspec ify
B orn
ĠLouis iana
Ġunivers ities
ĠNot ice
ol ly
Ass ert
19 09
res olution
Ġrequest ed
rupt ed
T ags
gener ated
Ġcompos ite
ĠAl an
C G
Ġh ur
ib l
ĠL P
ĠPro perty
Ġadm itted
ĠD og
Ġmanifold s
19 06
Ġaband oned
Ġnames pace
ors ion
c opy
ĠDemocr ats
Ġlocal ization
he res
Ġemploy ment
$ =
itud inal
Ġident ifying
CT ION
Ġb ag
Ġinv asion
ĠMay or
ĠPro duct
Ġ Ä
ab i
ĠE uler
ho en
le in
Ġdef ic
Ġsub stit
Ġpass engers
ĠL anc
Ġb rowser
] _
in burgh
ather ine
Com b
Ġoff ensive
u its
ĠO k
Ġroy al
t ot
ĠUk rainian
Ġref uge
or ro
ht bp
ĠTe ch
ĠT rade
ĠBG COLOR
Ġsing ers
Ġcomp ression
ĠW inn
Ġfor get
Ġref lected
K L
t re
ĠD ublin
Ġdesign er
ĠS ite
Ġautom atic
at ta
Ġpaint ings
ĠG un
Ġadvers arial
B re
b ibliography
ay an
Ġinteract ing
De cl
level and
Ġam pl
Ġrepe at
i u
om aly
Ġvari ability
ĠCro at
Ġinv al
ĠDou glas
w al
rel im
van ced
ĠD ak
ĠK a
Ġdef ensive
Ġpri ze
E rr
C oll
prot ect
Ġinnov ation
ra ctions
Ġload ed
ĠF ive
Ġoscill ations
erv ed
Ġt ied
oc ols
Ġobserv able
Ġperm ission
ĠMiss issippi
Ġsqu ares
ĠE le
Tele vision
Ġcons c
p end
B et
10 9
add le
Ġext ending
Ġferm ions
ĠH ills
Ġfraction al
am an
ĠSpace watch
L AS
Ġ: :
Ġup coming
ang o
Ġbrand s
d elete
big skip
B ur
d ig
Ġtang ent
ĠYear s
Ġp ictures
ater al
ĠIn s
Ġre plic
Ġmod ify
Ġem otional
ĠHar vard
e per
Ġfall ing
ĠStud ios
Ġs wit
J ames
Ġop acity
ap ing
M o
ĠC ra
Ġtem porary
ob by
Ġobserv ables
ch arg
Ġaddress es
att ered
ab ul
D iff
ĠR at
Se lected
r ar
Ġt ip
Ġhon est
Ġ( ,
E ducation
hy thm
Nav Bar
ĠInf antry
Ġs aved
Ġhistor ian
ĠTh ailand
symmet ric
c od
J une
19 04
ly ph
) ~\
bar a
row th
f oo
ro le
Ac adem
ren a
Ġinhab it
r k
Ġover come
vel ope
big oplus
oth s
R ail
IN FO
Ġd s
ĠM anu
Fig ures
Ġ\ }$
A sync
A pril
ĠI ron
_ ;
ĠArm en
ort ed
}) (
ĠBelg ium
P G
Ġbeaut y
F IG
Ġcount ing
a uth
Ġj ets
mak ers
b ach
Ġbi ological
ĠW ard
Ġsuggest ing
und les
Ġtor us
ĠAll iance
h ome
Ġweek ly
n one
ap plication
c ule
ir i
Ġexhib its
B ody
g tr
ĠA C
Ġdes ire
New s
x rightarrow
ĠP ope
Ã ´
ĠMor gan
Hel per
f am
f ather
T ER
Ġremov al
ia h
ĠHon or
sh aped
ĠK az
Ġaim ed
ri ends
Ġsl ot
est amp
f requency
Ġhigh way
r h
play er
Ġnav igation
al ph
Ġproport ion
k k
Ġ( ),
ĠF le
Ġf ired
c ritical
Id ent
st ers
Ġphenomen a
Ġp aram
Ġmod uli
ĠL INE
Ġpl astic
i ors
ro se
F eb
Ġch urches
~~~~ ~~~~
Ġproof s
ĠMc G
Ġille gal
c ustom
l g
Ġmet res
Ġcommission ed
cl uster
ĠDe an
ĠP ref
ĠĠĠĠĠĠĠĠĠĠĠĠĠĠĠĠ ĠĠĠĠĠĠĠĠĠĠ
pos itive
Ġelect rical
ĠLim ited
Ġin aug
ĠT ag
ĠT ar
Ġoccup ation
ment ioned
ĠThom pson
Ġw ine
ĠInst agram
as a
Ind eed
Ġver ified
O bs
nov ation
in line
ĠSch olar
Ġso ph
Ġst yles
[ $
12 7
hip s
Ġcommut ative
Ġachie ves
}} }{\
ĠAuthor ity
Ġc ited
ã Ģ
app y
k ar
g ment
D ay
Ġc up
ĠU tah
Ġobvious ly
^ +\
ĠU pdate
rg b
ĠSoft ware
ard ed
Ġgre y
Ġhand ling
Ġarrang ed
IC E
Ġfin ishing
Ġst ake
ort s
ĠHistor ical
L ear
C ustom
ĠY e
Ã ¥
Ġsn ap
ĠT el
Ġdis cre
Ġrecord ings
ut ors
div ision
tra ined
Ġpref ix
Ġdispl ays
ĠR ick
im m
Ġreal ize
Ġsummar ized
Ġ icon
J uly
Ġg arden
ĠR ace
//////////////// ////////////////
in ces
V P
V ill
ol as
Ġc ref
Ġowners hip
T P
vers ely
M atch
Ġst retch
Ġcomput ations
P ref
Pl an
M ajor
ĠI C
I con
( :
Ġf asc
Ġhierarch y
Ġgu ys
w he
ĠC ore
Sup port
des ign
D an
ĠCh apter
ĠM ission
Ġviol ation
Ġconsist ently
cl ick
}}\ ,
Ġaccur ately
Ġground s
hes es
ĠO tt
Ġr ings
Ġsing ing
ĠSchool s
Ġs ke
ĠĠĠĠ ĠĊ
Ġx ml
Ed itor
ĠJ osh
P aram
) <
Ġst adium
Ġap ps
2 20
ort on
ol id
ĠU ser
Ġdisc ipl
Ġansw ers
h yp
Ġhom omorphism
Ġcommit ment
St and
Ġrel ief
key s
Ġfle et
rib utions
Ġj av
ĠG on
Ġcontro vers
Ġg al
ĠDen mark
5 12
ĠT ask
av ia
Ġstrateg ic
in ian
iz z
ĠEd itor
Ġa mazing
ic ons
Ġclos est
big gl
L ie
m ut
Ġminim ize
ĠAh med
Go ogle
ĠF ern
W N
Ġa ired
ĠFin ancial
Ġsub mitted
ĠN i
Ġint u
ĠD ub
ĠSt ill
ch ing
Ġ( '
ĠM agn
Mult i
Ä ĥ
set length
Ġde put
D ue
ĠAb d
Ã ł
T erm
= [
em ail
h n
ĠC os
dis ambiguation
Ġt ension
Ġh ired
G AN
Ġmeet ings
Ġexpect ations
id o
ir ms
Ġres idence
const raint
ĠMan ager
Ġd ot
Ġo cean
ĠB ush
S eg
Ġmut ual
Ġpro sec
Ġcompet ing
ĠRuss ell
ad ic
Ġprodu cers
A I
H H
equ ate
Con clusion
Oct ober
Ġs itting
Ġsequ ential
Val ues
Ġgradu ally
ov es
Med ia
Ġin cl
iss ance
ĠWork s
Writ er
Ġign ore
Ġobserv ational
ĠS ud
Ġpubl ishing
Ġguid ance
Ġro se
is p
ĠPro blem
ĠP rad
}] $
L ike
Ġagric ultural
Com put
ĠCommon wealth
Ġsurve ys
Ġmotiv ated
ins ert
ps hire
\' {
ĠN BA
Ġw arning
process ing
ĠAn na
ĠM os
Ġmy th
ĠH ockey
ĠK er
ĠPe ace
' ,\
Ġhor ror
ĠSt age
ĠP ad
Ġmod ular
Ġby te
ĠPer formance
hor iz
Ġbre ath
11 3
au ra
Ġcomp ilation
o il
Ġconver ge
Ġcycl ic
U LT
ant ics
Ġband width
ĠY es
left rightarrow
& +
ug u
ĠBet ween
im ir
mon th
ĠJ ason
let ter
ant um
Ġem issions
ĠPortug al
Ġte ach
V I
ĠA BC
Ġconsum ers
st ellar
aud i
D iv
ĠAng el
Ġqu iet
ĠLaw rence
Ġto k
h ot
ch ment
V E
Ġgeodes ic
iver pool
Ġf olk
ist ence
ĠR y
4 50
en z
Ġconsid ers
' -
ĠP uerto
Ġg ray
sum er
ro ck
M r
Ġrel ativistic
P al
ĠBay esian
Ġuniqu ely
Z Z
ĠAp pro
M iss
P erson
}{ $
Ġpopular ity
Rel ated
s ig
Se ptember
Ġv anish
ol ished
( *
M ass
Ġtw elve
Ġn ick
ĠT rib
Ġed ited
pl ant
ĠM es
rect ed
en v
Ġchild hood
spe ed
F ran
Ġrepresent atives
styles heet
n ed
11 7
Ġf urn
over ning
ari ants
Ġ )$
or o
ĠM ess
ĠCon stant
ĠPet ers
Ġs essions
Ġmar ine
Ġ$ -\
Ġann iversary
Ġdesc end
Ġins ights
ĠS pect
ĠPortug uese
ard ing
> $
Ġsurpr ise
ellect ual
Ġfund ed
Ġrel ies
] ^{\
ĠHT ML
IM E
Ġreserv ed
Ġsingular ity
) /\
Ġdev oted
ed ef
ĠBill board
Ġdevelop ers
ĠJ uan
ĠB it
ĠE ss
Ġjun ior
ĠRes erve
inc or
ĠÃ ł
Ġv ic
Ġqu bit
S al
bigg r
ĠBrazil ian
Ġcook ies
Ġinst ructions
ool s
Ġop ens
Ġland s
h ai
Ġexclud ed
ĠR an
ll i
Ġmodel ed
Ġann ih
ĠAd ams
Ġval ley
. âĢĻ
M ean
Ġperfect ly
Ġ ).
}) }\
ĠMalays ia
F ootball
Ġrele ases
Ġint ention
Ġun s
ĠSam uel
Ġaffect s
roph ys
ĠS L
Com mon
ore l
sm ooth
Ġathlet es
Ġquant itative
b x
ĠN aval
AT H
Ġg ang
Ġarm ed
ĠP os
ĠN eed
Ġmoder ate
Ñ ĭ
Ġinform ed
ĠN ature
Ġreconstruct ed
ĠH ell
Ġsimpl ified
is o
um ann
Ġal cohol
Ï Ħ
ĠP rix
Ġemer ging
18 80
Ġover l
Ġsus pect
Ġtra il
h our
Ġmat ched
ĠBatt alion
ĠN eg
ĠSim ilar
Ġinj uries
M ag
establ ished
Ġrad ii
TE ST
Ġb ins
ĠJ e
G ame
Ġcub ic
n an
Ġpar se
ĠGal actic
b ridge
Ġenjoy ed
ĠS ac
clos ure
em pl
pol ar
ĠV AL
Ġcaref ully
l st
ĠP ract
ĠPal ace
Ġim plications
Ġtal ks
19 03
Ġsustain able
ĠLem mon
ĠW right
load s
sq l
ĠEd inburgh
ĠOrgan ization
Hand le
ĠL ower
}] \
Pol icy
19 02
Rober t
ars ity
Ġhealth care
Ġtarget ed
ĠB art
quant um
eff ect
k ip
Ġcont ents
Ġm igration
24 0
[ {\
Ġgu ilt
R et
Ġenc oded
bound s
Ġde als
A lex
K n
Ġg host
Ġby tes
Ġparamet riz
k t
C a
ĠInt erest
+ |
ĠVol ume
ĠL ang
ma ker
oun ce
ĠW as
Ġr isks
ĠAtt orney
Ġign ored
IV E
}} ^{(
Ġcharacter ization
Ġcateg or
Tem plate
S W
Th m
Ġmen u
k ee
ub s
ĠO bs
M er
ex port
ey er
Not able
K K
Ġque ue
m ate
Ġphys ically
bl ing
Ġdip ole
Ġsecret ary
Ġmid field
Ġcontinuous ly
Ġhol omorphic
ĠT ax
B ound
Ġresident ial
Ġours elves
F alse
Ġdoll ars
Ġre ign
ĠThe ory
enez uel
Ġcon sole
clus ively
ĠU RL
Ev ents
m ates
ï ¼
l ag
b racket
ĠG il
AS E
Ġelect romagnetic
eq q
r us
Ġh at
rel ax
am ination
met ric
& $
P ORT
ent a
ĠC M
vol ume
urs or
plement ation
Ġmag ic
com ponents
Ġrecogn ize
ot ions
Ġreg ulations
i ology
TT P
c rit
l as
ĠPubl ishing
M ilitary
Ġstrugg le
h ad
Ġsurn ame
Ġcele b
Ġpack et
comp are
m ac
Mich ael
Ġch ampions
s ens
ĠC rit
Th ree
bottom rule
re r
Ġd ating
F ore
d irection
Ġ ×
Ġvis iting
ag ger
Men u
17 0
ut ter
ĠLiber al
Ġ\ :
Ġwe aring
in du
bibliography style
ĠC ass
ĠT ab
b us
Ġe ase
Ġbe ar
ĠD J
Ġelse where
iv ariate
ill o
Ġst em
ĠN ation
ĠMic hel
De cember
au er
Ġsurv ive
Ph oto
ĠA B
por ated
gtr sim
ĠT s
r n
D onald
Ġs av
Ġsus cept
ĠLe ft
Ġconf ront
Ġsupp ressed
r ically
tt ing
Ġscre ening
ĠPri or
Ġsens ors
og a
ĠPat ri
ĠPol y
Ġdual ity
Ġprov ision
f m
le ans
ir ates
Ġar ising
p en
ĠC emetery
x ym
ĠCh airman
el astic
Ġnarr ative
R oot
Ġbe ach
Ġremark able
' ))
att ribute
Ġexcit ing
Ġh ook
Ġdirect ory
12 6
Ġt elling
ĠP un
ex act
Ġexp ed
Ġall ocation
cos ity
ĠE dd
ĠSh ah
c n
' ],
Sche ma
ĠT rack
Ġmill ions
Ġguarant ees
Ġwe bs
tern oon
ial s
ĠAl tern
se lected
ou ter
Ġmet ers
Ġlabor atory
Ġfor cing
Ġt issue
ev ents
Ġvari eties
ĠN ic
Ġ( *
Ġs i
ass ador
Ġtrans actions
Ġst ruck
new s
M ember
ĠPhys ics
Ġsports people
Ġaware ness
Ġsol it
ĠTer rit
}} ^\
Ġdem ands
Ġdetect ors
Ġregist ration
M atrix
G F
Ph one
ĠT ig
ĠBru ce
ĠN eb
ass oci
Ġsign ing
anc el
Ġpar ity
ĠFin land
end or
ĠIndust ry
ĠC oul
h ig
Ġconf ident
ĠGirl s
ERR OR
Ġimpro ves
c z
an ia
Ġch amber
Ġoptim ized
ph oton
se en
Ġshe et
p aper
Ġn urs
Ġencou rage
correspond ing
Ġhomot opy
s creen
; <
Ġexam ined
ĠS ource
ĠRes ource
Ġear liest
ĠQue bec
hoen ix
raise box
az ines
ĠOr chestra
ve ctors
Ġevery where
11 4
ont r
idel ity
ĠKn ight
Ġanim ated
Ġclos ing
\ -
Ġde eper
ĠRes ources
Ġunus ual
Ġcontrad ict
$ ^\
Ġs ends
ĠArk ansas
et o
Sc ott
ĠPro of
F lor
ern ame
d ale
it atively
? ?
Ġprom ise
ĠF al
}, \\
W al
Ġpull ed
Ġintrodu ces
am l
J ob
Ġprof it
Ġpro ud
ĠI O
con j
ĠOper ation
Ġrad ical
Ġeth nic
ĠLINE AR
and al
ĠPh oto
00 2
ĠS W
Ġent reprene
Ġke eps
aa aa
ĠL ane
R oman
X T
$ ^{\
ĠV egas
view s
f ish
Ġcar ries
ĠK ings
ĠDel hi
ik es
gra duate
Ġgen es
Ġprelim inary
Ġvari ed
ourn ament
m ix
Ġn ations
ok er
ĠD ance
g ue
ow ed
h skip
rec ord
ĠBo ys
ĠA U
Ġtrans it
Ġdemonstr ates
ĠSoc orro
Ġ[ [
ĠK arl
~ {\
Ġspe aker
}$ ),
con vex
ĠCh o
i est
ĠChrist opher
Read er
Ġconven ience
Ġnucle i
Ġperson ality
Ġc reat
Ġglob ally
Ġback ing
Ġinv oke
X ml
ĠF ind
Ġind irect
win ning
Ġagre es
& #
ĠRob inson
Ġb at
M N
Â ©
` .
ĠCol omb
Ġcast le
G ood
it ations
elf are
Ġsym plectic
ĠWe bsite
Ġprim itive
Ġnot ably
Ġse ctors
Ġmicro sc
Ġcut ting
du cer
Ġo s
Ġarrang ement
ĠF L
iv an
Ġrec ru
Ġpass age
bo ards
ĠO S
T or
cal cul
to String
âĢĻ ,
Ġrep air
at ial
re place
u ct
ĠMor ris
Ġemploy ee
H I
rap per
Ġtext s
ĠS A
Ġun signed
Arg ument
y y
Ġex haust
ĠO d
Ġthous and
Ġf ake
Ġl ib
Ġorgan isation
Ġsup ern
. :
ij k
ĠS ho
n amed
Ġsynt hesis
or ce
nt il
web kit
Nov ember
xym atrix
ĠE mb
ge on
ĠP aper
omet er
). $$
Ġscal ed
Ġp overty
ĠCamp bell
ĠCar ter
Ġcard inal
ul ates
Ġs weet
Sing le
V A
}} }}
qu ir
ex ports
Ġ ions
ract ed
Ġ\, .
Ġf est
Ġreflect s
ĠF R
ĠPro p
ou ver
Ġhead ed
ĠĠĠĠĠĠĠ Ċ
Ġf ro
Ġgovern ments
Ġleg s
Ġre nder
ET H
ON E
Ġrest ored
text style
Ġsynt hes
d ark
ĠPart ners
Sh ort
war z
Ġanim ation
bo olean
Ġdis placement
Ġprov ing
P Y
Ġloc omot
Not ice
ĠNAS A
Ġfem in
Ġre putation
v irtual
ĠOr leans
Ġexponential ly
Ġwork er
ĠW oman
Ġcomplet es
bor ough
ĠI L
w ig
h op
ĠO N
ĠL A
W ell
Ġorient ed
By tes
Ġt ruck
it ure
Ġn g
Ġeng agement
ĠG ray
ĠC PU
ĠC F
work s
ĠS NR
ĠMar ie
G old
iv ities
================ ================
Ġgrad ed
Ġgen re
com position
Ġas ks
Ġcoinc ides
ĠD anish
ĠD ie
Ġr anks
Ġcl im
Ġse venth
ĠB ed
Con f
ĠM other
re ction
ĠF isher
Ġ rib
ht b
Ġflux es
qu ote
red ited
^ *}
Ġg ram
Ġher itage
Ġinterpol ation
ine a
Ġcour ts
Ġland ing
m illion
M icrosoft
Ġattract ive
j amin
p read
Ġdam aged
Ġrac ial
Ã ª
ĠTra vel
ĠCommunic ations
pl ugin
Ġqu arks
Ġste ep
tx t
Ġevol ved
igh ters
Ġext inction
Ġrepro duce
L and
Ġcompan ion
): =
Ġh aven
H A
p atch
Ġmere ly
Ġinstrument al
ex ception
b n
Ġrece ption
ĠV ik
Ġbelie ves
ĠR ain
set tings
Ġf inger
ĠP i
st ory
ĠP red
ĠKenn edy
ut o
Y es
Ġsub str
Ġste am
;" |
d ied
Ġpo em
Ġfra ud
ĠM I
), (
F i
ĠDep uty
Ġprote ins
ĠM icro
D oc
um s
ĠOper a
Ġer g
ĠP rice
Ġo k
Ġelectric ity
Ġor ange
Ġcoupl es
Ġiniti ative
Act ive
+ $
ĠPitt sburgh
Ġh ill
final s
ex pect
the y
ĠCh amber
Ġcontract s
Ġvalid ity
Ġt ie
ĠJ u
ĠY et
ob uf
ĠK l
Ġan onym
ĠN N
Ġlogarith mic
Ġw et
Ġto x
Ġp in
B G
12 1
d ays
Ġav ailability
sp i
m ove
Ġe lem
Ġweap on
R est
ĠZ e
ĠIm perial
ra pped
comp at
* }\
z one
Ġm ild
^{ {\
Ġen forcement
igh bor
cho ose
Ġbright ness
Ġext ensively
Ġdifficult ies
tra ce
Ã© t
ĠC u
ĠRog er
Ġ\| _{
ĠM eg
Ġelim inated
ĠStew art
^{ *}
Ġad venture
st ation
\\ [
ew ise
Ġp sy
In valid
ĠT ree
cur ve
ĠâĢ ł
cons ist
moment um
ĠH ind
ĠInt eg
ĠO ri
n ear
L ook
Ġm ile
Ġun likely
ĠElect ric
t own
Ġthough ts
Ġretain ed
Î ¹
W ar
ĠA qu
Ã «
ĠTam il
Ġgrad ients
Ġsurround ed
co ordinate
c pp
ĠL ock
ett i
Ġan chor
ĠN ep
Ġinf er
Ġread ily
Ġjournal ists
S am
ĠR ap
]{ ./
ĠChall enge
Ġcontrib uting
Ġaver aging
Ġvari ational
ĠMem bers
T L
Ġfriend ly
Ġprovid ers
Ġcelebr ated
Ġwel come
O fficial
Sy mbol
Ġdecre ased
opt im
ac o
^* (\
A ud
ĠC arn
ener ate
ĠL HC
00 5
od ic
r ator
ia o
Ġdeg rad
ĠLie utenant
Or gan
s ong
Ġbeh alf
be ing
Ġas semb
Ġwh ilst
ĠSen ator
'' .
by te
Ġcompl aint
ĠI ce
pl ier
Ġill ness
) },\
Ġdeploy ed
Ġalign ed
Ġmaintain ing
Fe ature
ĠK an
m ill
Ġinnov ative
Ġasymptot ically
Ġl i
const ruction
ĠM aterial
Ġcons ensus
m etic
im eter
Flo at
ex cept
Ġst range
val uation
ĠUp per
P ool
rom ise
re port
ver sy
)) )
}} )\
Class es
SE T
ab atic
ĠL iving
Ġschol ars
dis abled
ĠSt ars
an im
r ating
Ġgra in
ĠStud io
Ġregular ity
= }
ĠC leveland
Ġin jection
Ġs in
Ġsub graph
Ġm ilit
ĠAcc ount
ce q
cos ystem
Ġg ates
Ġe g
, }
F W
Ġinter vention
Ġconjug ate
Ġemer ged
G al
ĠH old
Ġlong est
ĠN elson
Ġorgan ic
m aterial
Ġe at
Ġguarant eed
Ġrel ating
ĠAd vis
Ġnot iced
as hes
b oy
ic z
ĠPh D
claim ed
ig roup
op ing
Ġwith draw
ĠĠĠĠĠĠĠĠĠĠĠĠĠĠĠĠ ĠĠĠĠĠĠĠĠĠĠĠĠ
algorithm ic
_{ (\
r ise
ant on
Ġart ifact
=" _
or se
Ġapproxim ations
Ġsk ill
Ġc rown
clud e
Ġsimpl er
+ }
Ġst ick
ĠG W
ĠT ak
RO M
Ġleg isl
ĠGra ham
ĠF ather
}$ :
Ġrobust ness
Ġmanag ing
Ġactress es
Ġassum es
Ġcritic ism
12 4
Ġfin ance
nabl ed
at om
Ġal ive
Ġfarm ers
Ġas ymmetry
$ /
Ġout flow
F ind
}{ $\
Ġke V
Ġsole ly
Ġhol iday
Ġc ogn
ro v
> ();
- $\
ir th
Ġo ct
J ack
ĠR ank
Ġb ird
Ġc able
Ġcry pt
ĠMont real
R ussian
H istor
Ġ[ '
eff ective
Ġflex ible
Ġobserv ing
ontr ivial
Ġdog s
abil istic
ĠBalt imore
eng ine
n p
Ġradi ative
Ġcaus al
Ġjud ges
in formation
ĠStud ents
^* ,
Ġman ual
Ġt rick
Ġw ides
u ary
Ġtransl ate
Cl ub
ĠC ensus
Ġimp ressive
Ġthem es
Dev ice
Ġcoff ee
end ers
ĠR io
Ġdevelop ments
Ġs alt
Ġaggreg ate
Ġprofession als
m r
Ġcurrent s
E s
Ñ Į
iss ible
ĠF em
b uf
Ġpart ly
Wh ite
ĠMot or
M SE
ab a
J ac
Ġadvant ages
ĠG ran
ĠCent ury
ĠBrook lyn
Ġdegener ate
Ġl ad
Ġenc ounter
ĠH ope
Ġco res
ele y
S ep
Ġre ject
group s
Ġdwar f
Ġadj oint
ok a
Ġmeaning ful
Ġgu ests
Ġinhabit ants
col head
ĠK on
}; \
Ġpred omin
ĠJud ge
14 4
Ġident ities
ne e
ĠE V
ag h
Ġout standing
P rior
Ġte ch
eth yl
Ġcomp ound
ĠF ix
Ġinvol vement
j or
ĠL iverpool
ĠAnd y
aps ed
Ġn eck
ĠF ant
ur u
ob a
ĠD ir
ĠL ipschitz
Ġth orough
-- >
Ġreason ing
r arily
cm d
ĠJ enn
n l
ed ing
ĠCon vention
Ġdis ag
resize box
as g
ĠMarsh all
] }\
18 98
Ġg amma
Ġsp ins
t c
Ġflow ers
ul u
Ġamong st
Ġspirit ual
en cer
it ian
ĠD ocument
Ġcont rary
itar ian
with out
ik ip
ĠG alaxy
_{ |
Ġwind s
18 99
ĠMa ur
ang led
ri el
Ġqu bits
ĠMa ine
Ġcar rier
ĠFreder ick
. -
S uch
abl ing
ĠMatthe w
Ġtok ens
T om
Ġamb ig
ĠW i
ens on
cc a
R ule
q ed
Å Ł
Ġd elta
âĢĻ .
Ä «
ĠArt icle
)$ $
ĠFin ance
}. $
em ed
ĠB aker
anc ouver
M W
Ġsurv ived
Ġ< =
Ġl ying
-------------------------------- --------------------------------
H ol
Ġpark ing
ow s
ĠU pon
] :
Ġprocess ed
}} _\
Ġmethod ology
}. $$
Ġg ran
diag ram
Ġdevi ations
Ġterm in
ĠOr d
Ġbre ast
. ),
ĠÃ ī
Ġad s
ov o
ator ial
duc ing
ĠG PU
colon eqq
ĠBrig ade
en berg
Ġaccord ance
Ġv ir
Ġdiam ond
ĠVi enna
at z
sh adow
Ġrom antic
ev a
ĠAr n
omin ations
Ġbl ind
ĠT i
FF FF
Ex pat
est one
Ġf abric
Ġ )\
em p
ming ham
Ġt et
Ġun expected
Ġout break
gl s
ran ean
ĠP od
Ġin line
Ġapproxim ated
Ġas c
Re ception
fl ix
ĠMach ine
Ġg ay
Ġdocument ation
R a
S chool
ĠMet ro
A ir
ĠG ill
ĠMarg aret
Ġreview ed
ĠR ud
)} =\
Ġestabl ishing
Ġelig ible
hav ior
ĠT E
ut er
ĠEnvironment al
g un
iv ia
}) ^{-
Ġant ib
umb ered
Ġt ur
Ġrot ating
P rim
Ġex clusively
Ġcoinc ide
) ~
t z
ĠPr incess
ĠN ode
ĠG ary
}) ^{\
ph al
writ ing
] \\
ER E
C r
ira ble
ĠMur ray
ch ildren
18 97
ĠLeg end
ĠUn like
ĠL GBT
ĠJ SON
ĠW ind
ĠLe ban
ĠMean while
Ġp ars
Ġoccur ring
Ġf ishing
ĠDef ine
ĠMat hemat
ĠW eyl
Ġposs ibilities
b ing
ber ry
Ġthe ater
ĠA y
ĠTra il
ĠB E
ĠF OR
Ġtr im
ush ing
Ġisot ropic
Ġg rate
ĠP ic
Ġsuff ering
l on
Ġres ign
ĠOrth odox
h over
12 2
ĠStud ent
ĠTe V
Ġneighbor ing
Ġ( +
imens ion
ĠCom ics
ĠG ulf
ĠHung ary
s olution
NR AS
W ho
Ġinval id
Ĩ Ĵ
og raphics
vel oc
part y
Ġcap ability
ĠR O
Ġsup plies
vert ed
rap ol
Ġobtain s
em ark
min ute
", "
ĠWith in
ĠT ogether
ĠP sych
Ġj uris
ĠCharl ie
Expat riate
Ġsent ences
d c
Ġcooper ation
S V
Ġsum s
qu et
Ġgu idelines
cc entric
Ġpod cast
Ġpair ing
}}{ (
` ,
v ideo
Ġdr ink
Ġi i
de velop
Ġbu ck
Ġt ube
ij ing
ious ly
S ever
Ġp ushed
ĠN ar
Ġres igned
ĠStan ley
ĠP RO
Ġy es
Ġall oc
ĠM Ps
sh a
tr ig
)$ }
Ġsubstant ially
t p
Î ½
ĠLeg islative
Ġsimpl est
Ġprint ed
ĠCl inton
Com ment
ĠV I
ĠG P
E u
Ġreserv oir
d ue
AR Y
o ys
Ġf ract
b ootstrap
Ġappoint ment
Ġl ots
q q
Ġencourag ed
Ġcompl iance
; ->
Ġequival ently
ĠAust rian
Ġpl ain
ĠC C
Ġpro g
inn ed
cor r
17 5
I EEE
Ġart istic
{ |\
ĠC rown
ain ing
Ġvis its
Ġrestaur ants
Ġport folio
Ġf oss
g it
Ġal ert
h ill
ĠM ind
M ath
D IR
ab e
Ġbal anced
Ġweak er
Ġel der
Ġla ugh
ĠRef orm
t ies
ĠU g
ĠH end
ĠWel sh
Ġpra ised
om es
Pl ace
ĠD ifferent
Ġden ied
Ġpoint ing
ĠPol itical
id ad
ĠP il
Ġcaref ul
D er
ikip edia
P AR
Ġ\\ \
Ġneighbour hood
f are
osp here
à¤ ¾
Ġsk ip
ĠSt ore
ack now
sc ore
eg u
Ġprot ocols
S en
ĠS elf
F low
hol m
D elete
ĠC opyright
Ġswitch ing
Ġmem brane
Ġneg lect
t ar
Ġr u
e eq
27 0
Ġtransp arent
ĠH it
ric ane
It alian
hel p
ĠPrad esh
ĠH ave
ĠH ero
acc ount
Ġforest s
=" /
pl ates
ĠBrother s
z h
Ġquant ization
ith uan
Ġdis appoint
ĠDr ive
Ar gs
Ġan omaly
Ġdec oder
Ġb io
18 70
Ġatmosp heric
Ġreg ulation
ĠPl ant
Ġover s
Ġmulti plicity
18 95
Ġfl ash
Ġcharacter ize
Work s
Ġr um
Ġadd itive
Ġarch ae
f und
H F
ĠMov ie
Ġsingular ities
t ered
Ġint ense
Ġphot ometric
Ġhist ogram
Ġsusp ended
P lease
Ġfr ust
cknow ledge
Ġvort ex
Ġgain s
Ġneutr inos
ĠSaf ety
Ġp or
Ġfant asy
Ã© n
grad ed
Ġattract ed
class ical
W AR
Cont in
ĠJon athan
ĠC ricket
vent ures
Ġlong itudinal
ĠSt ev
Ġdest ruction
Ġr uling
Ġpe er
N umer
. ]
ĠH orn
Ġfacilit ate
ad min
Ġd uties
Ġobser ver
Ġstay ed
ĠComm ander
DB LP
ĠJim my
geq slant
c v
ud son
ĠEr n
Ġdis ks
f un
un ning
Ġg overning
rec ated
Ġsp ots
iss ues
Ġlog ical
Ġleg acy
sur face
ĠAfghan istan
Ġrun ner
Ġmulti plic
all ing
Ġinterview s
ot ton
ĠF alse
0000 00
ĠRel ations
ĠU lt
L ock
ĠN am
ĠAss istant
## #
MA X
b eq
ĠF r
Ġloc ality
P et
J E
or bit
ĠBe at
Ge orge
ch anges
Ġno isy
â Ĥ¬
A rm
ign ment
ĠEconom ics
ak ov
Pro duct
t ry
Ġsl ice
Ġknow ing
} "
Ġwides pread
ĠMov ement
raz y
list ed
Ġwire less
N ormal
te chn
Ġmoment a
ĠK u
R ect
qu al
Ġinstall ation
Desc riptor
ĠE ver
ĠCh ampion
}) }{
foot er
Ġnegot i
2 10
Ġconvolution al
on na
{ %
sc ar
ĠCon tact
L U
}) :
Ġdialog ue
Ġpro xy
Ġim plements
ro oms
phys ical
Ġ$\ |\
)) =
| {\
ç ļ
config uration
N G
ĠN ad
Sup er
St orage
Ġsequ el
th in
h ref
s witch
Ġmod elling
A K
trans ition
ĠT ob
In it
18 96
Ġp ump
Ġpaint ed
ĠMult i
an chor
Ġdiv ide
Ġ[ -
Ġmod ifications
ation ally
ĠA rena
Pr int
w right
P erm
Ġin herent
Ġimag ine
Ġhigh lights
Ġconsider ably
Ġaf ternoon
Ġincor rect
l brace
Ġtim ing
Ġkil omet
n ecess
L em
t oggle
ed a
ĠLe vel
ĠB illy
Ġpreserv es
Ġdiff ers
Ġpri est
as ant
Ġstr at
incor porated
à ¦
hat tan
ann es
the se
ĠM ack
Ġap i
Ġcr imes
Ġd owntown
l ia
â ĪĴ
S cal
ĠM aj
Ġrig id
m ask
es ome
ĠMet ropolitan
are a
Ġsup press
th a
ĠMountain s
build ing
| }{\
we ek
Ġst ops
Ġt ub
ĠV enezuel
2 30
Ġconsider ations
$ }\
) ">
ĠG raph
Japan ese
Ġsc an
ĠW ord
Pro fess
Build ings
ĠBroad way
ĠĠĠĠĠĠĠĠĠĠĠĠĠĠĠĠ ĠĠĠĠĠĠĠĠĠĠĠĠĠ
uc ks
ens en
ym p
com parison
ĠM ust
Ġas set
Ġrare ly
ĠW rest
Ġmonth ly
ĠF el
Ġnucle us
Ġexception al
Ġintegr ating
Ġmeas urable
Ġdelay ed
d m
on ian
ĠFrank lin
em en
ish ops
diag onal
ĠDak ota
ĠF ight
Ġd ots
ĠMad rid
' }(
Ġs ad
Ġgener ations
an ne
ĠTh anks
Ġneur ons
Ġel abor
Ġwebs ites
ins ula
Ġ ray
ĠAl ban
Ġeng age
Ġstream s
Ġdiv isions
ĠL en
eg e
@{ }}
D u
ĠHam pshire
Ġillustr ates
ab c
Ġd ose
Ġcap s
Ġven ues
ry ption
ĠCh art
ĠGu y
Ġa cknowledge
im et
Ġm apped
Ġbranch ing
H en
ĠProte ction
ĠP ant
ĠM obile
ĠPort land
ĠDef ault
ĠB esides
m ock
hom ogeneous
ĠN ord
h h
ĠSp irit
Ġsp oken
B it
ĠR and
Ġpl enty
In s
Ġcut off
Ġaw ait
ĠEx change
E nabled
Ġreported ly
O ld
Ġe V
Ġindust ries
w ind
Ġim plied
Ġob ey
Ġfe es
Ġresc ue
Q U
ĠElement ary
acknow led
ĠC her
Ġc ous
Ob j
ĠM ak
Ġt act
ĠBer k
Ġenhance ment
Ġsh ots
Ġent ers
Ġdo ors
ĠO range
ĠAlf red
ĠMar vel
Ġpro jections
Ġcons ent
P y
th read
C ategory
p adding
Ġcorrect ed
Ġelim inate
Ġj son
g ap
Ġtyp ename
ĠR ugby
ĠS ay
Ġad mit
Ġsup ervised
Ġsub stitute
ĠSte el
Ġt y
Ġal leg
Ġcom ed
ad apt
ĠThe ater
ĠG ets
pos itory
Ġep id
Ġdepart ure
Ġutil ize
Ġn m
o ft
pend icular
I X
ar us
om ing
Ġphot ographer
wid get
Ġcon qu
ĠOther wise
ĠOver all
b g
Ġn ontrivial
Ġinv ariants
Ġm or
}$ ~
pro j
7 50
Ġreal ization
}\, ,
ĠS eg
ĠC ert
Ġaccept ance
e u
Ġdeput y
ĠSt orm
Ġ( @
gra vity
St ation
p b
t f
tr ation
contain s
che m
ĠT rophy
Ġtick et
Ġc ul
Ġen velope
}= -
op les
Ġto ugh
Ġm ail
lim ited
Bo olean
çļ Ħ
S il
Ġvis cosity
Ġshop ping
) )$,
Ġvess el
ache l
ĠAut o
Ġco herence
az y
c ient
Ġevalu ating
ĠBern ard
\" {
ĠHun ter
Ġh ip
der iv
Ġt iny
ĠPr ivate
mult ip
M or
Af ric
ĠM E
ĠD id
ĠO bl
ĠT ower
Ġf irms
Ġhe ur
Ġplan es
18 00
Ġsearch ing
ĠFig s
By te
ĠRepublic ans
Y our
r if
Ġhighlight ed
ĠAp pe
ĠCov id
Ġcl imb
ĠG round
ĠEv ans
Ġan nu
v dash
oth y
Ġrecommend ations
w hel
ram es
L y
ĠM atch
19 0
Ġepoch s
Feb ruary
Ġm i
ĠC el
Ù Ħ
D ig
Ġap artment
Ġactiv ist
Ġinflu ences
ĠUr ban
Ġal pha
oc hem
ĠKen ya
Ġimpact s
var pi
ĠJ azz
Ġbur st
S end
Ġm sg
} '$
iss a
ĠB ag
ĠB ond
sc ribe
pr ison
Al bum
Ġsk ew
rie ve
Ġspeak ers
Ġmountain s
Ġcoast al
iv o
ces ter
comm unic
}{ !
depend ency
Ġt ill
d etails
e enth
Ġmod ulation
á ĥ
Ġcross ed
Ã¨ re
ĠF am
Ġsummar ize
Ġtro uble
ct rine
Ġmer ge
N or
ĠR ural
p q
ĠHung arian
ĠPr ivacy
Ed ge
Ġleg it
Ġpar agraph
ĠCar ib
ĠSt re
cor relation
L D
Ġev il
ĠB lood
fe ature
ex pr
Ġthermod ynamic
F s
ĠCr ime
ĠCh ron
M NRAS
Ġcomp ounds
ĠInt elligence
Ġinsp iration
Ġinteg rate
Ġd ynasty
Ġb rick
-- \
Ġqual itative
Ġexec ute
ĠÂ ©
pr imary
( $\
15 00
Over view
Ġcelebr ate
Ġmotiv ation
Ext ension
ĠG as
Ġutil ized
ĠMit chell
Ġvess els
S Y
equ ilibrium
n ia
ĠO wn
um ped
Ġr ivers
Ġhabit at
Ġme at
B a
ĠComput er
ï ¿
In ternal
ĠS hip
Ġl iv
Ġbehavi ors
ro c
D ebug
Ġre write
Ġpay ing
Ġdiagn osis
ĠK it
ĠClass ic
f d
m ade
Ġw edding
Ġrot ational
Ġdef inite
Ġsuff er
N a
or ate
ever y
ley ball
We ek
qu ark
Ġdeep ly
g as
Ġa z
ĠAnn ual
Con clusions
Ġcolle agues
ado op
ba ij
C ross
\, $
mark s
ĠColl ins
Ġent hus
ling ton
Ñģ ÑĤ
ĠB ud
Ġexperiment ally
B er
Ġlist ening
ĠB ible
ri ors
er ver
Ġcolon ial
C opy
scal ebox
Ġb one
ter ms
tem p
ĠTh or
Ġimp ose
Ġsuccess or
mak ebox
Ġb ull
st ration
E t
L u
Ġcampaign s
ric ks
ĠF alls
Ġl ux
ĠC atal
Ġpol es
Ġs ake
ĠWar ren
Ġin ert
iter ranean
}$ };
Ġper pendicular
Ġdram atic
ĠS now
N ULL
Ġsear ches
ĠRo om
AN T
Ġto m
Ġserious ly
ĠPark er
her s
zer baij
D ialog
Ġsuppor ters
ĠC ultural
Ġdecl ined
S G
S cope
- {\
=" ">
sup set
ail ure
ÃŃ n
om ed
Ġmiss ions
m agn
Ġche cks
ĠS ex
Ġcoron avirus
L ater
D ouble
Ġabs ent
w hat
ĠS audi
ack s
m iddle
Ġstop ping
Ġpurs ue
ĠC ox
" `
Ġb undles
Ġinflu ential
rel ations
Ġarchitect ures
An alysis
IN S
ll a
Ġs ail
are r
ĠN at
G ra
Ġrel ay
om on
Ġsimpl ify
[ ]{
Ġin coming
Ġcont our
bound ary
M ock
Ġs ick
ik o
Ġport rait
Ġcam eras
ĠF ly
ĠB R
d etail
ĠMethod s
ĠIn v
Ġover head
Ġ Ø
Ġe cosystem
Ġre cre
ĠE mm
hy dro
Ġfill ing
ĠGr iff
ĠM all
Met adata
ĠN A
our t
ov ich
){ $
ĠRail road
Const raint
Europe an
B al
18 93
Ġhospit als
ig s
J an
Ġcopy right
et on
e igen
ĠFac ulty
ĠI F
Ġchem istry
EX T
Ġarbit rarily
ug osl
e or
ĠT u
}) +
.\ ]
Ġincorpor ate
Ġh orses
ĠF ine
pd ated
5 000
Ġcomb inator
Ġsp ont
Ġra ising
Ġaff airs
Ġn ortheast
Ġim per
Ġcalcul ating
for ced
Ġperturb ative
b ran
Ġdis abled
Ġform ulated
C NN
Ġ å
ĠY uk
item s
Ġdist inction
Ġar row
Ġdef ence
Ġrespond ed
Ġm ouse
Ġuncer tain
P red
Ġdro ps
ĠRoman ia
Ġ ell
ĠBl ues
Ġtrac es
hand ed
Th omas
Ġwith d
mb f
Ġt uning
ĠAssum ption
r brace
Ġt one
Ġobject ives
ĠP hoenix
cos h
Ġinf erred
not ation
= $
Ġhapp ening
Ġinvestig ations
un ique
t ures
Ġfl ags
Ġminor ity
Spec ial
B ro
ĠProfess ional
Ġb eta
ĠK il
Ġassert Equals
it ime
He alth
f iction
ĠH R
ag ar
ĠT ournament
Ġl ights
Ġv ital
ĠZ hang
ĠA the
12 9
Ga ussian
Ġhyp ers
Ġparticip ating
), \\
t m
h um
ĠB rew
ern els
m und
hook rightarrow
ĠS r
e V
ĠUn fortunately
Ġb ishop
per m
Ġ' /
] }$
flu id
Ġachie ving
bre aking
Ġdetermin ant
h aus
ĠV erm
Ġrail road
. (
18 85
h uman
ĠÂ ·
ĠWay ne
h idden
ĠB asketball
18 60
Ġtra p
Ġdeploy ment
Ġagric ulture
Ġevolution ary
18 89
Pro duction
ĠLabor atory
R elease
ock er
par ing
Ġswim ming
ĠSt ra
Acc ount
app ly
ĠD ays
Ġph osph
ex ternal
E lect
Ġtack le
P ay
V C
Ġtem por
t is
cont roller
ON G
arm ac
Ġtravel ing
Ġsat ur
Ġexplo it
ĠBuff alo
P arser
Ġpo ems
usal em
ĠK ur
Ġfactor ization
att ices
Ġp ric
ĠBar bara
Ġc rack
Ġb oot
ĠZ one
ï¿ ½
ĠGi ants
sin h
ĠR L
Ġint ellectual
Ġdiv isor
ĠP aramet
Ġinvert ible
ryst al
pe ction
Ġcontrovers ial
ĠFI FA
Ġcount ies
Ġcancell ation
re view
' +
Ġphot ography
pan ic
Ġdepend encies
ĠIm ages
ĠK os
comp ass
Ġsynd rome
grad ient
Ġrem arks
Ġconcent rated
em a
Ġh ide
ĠCl aim
ĠCommun ist
pl ugins
Ġindu ce
mid t
H ig
U D
pred ict
A Y
re z
Ġindic ator
Ġse eds
Def ine
Ġfl ights
Ġoccasion ally
orig inal
Ġb le
vari able
ĠPr imary
asg ow
Ġsup plied
FI LE
d ynamics
Ġlaw yers
Ġinstance of
ĠN iger
Pol itical
uls ion
ac ian
Ġre ven
Ġwal ks
Su ccess
Vill ages
Rail way
L aw
ag ers
uch i
act ing
comm ut
Ġrel ate
Ġput s
M AP
ĠC er
14 5
ĠN ear
im pl
Ġthere in
set up
r ceil
Ġcheck ing
m g
Ġorgan isations
ĠAl aska
L at
Ġconstitu ency
f p
ord inary
19 2
Ġlicens ed
Ġcomp iled
18 92
Ġplan ar
l ceil
Ġadm issible
ĠG T
13 2
Dis play
Ġrep orter
Ġbas ically
ĠM ix
g ments
ĠB ranch
uc lear
ĠV ancouver
u art
Ġsu icide
Ġc oding
) *
ĠU E
Ðµ Ð½
OD O
ele gate
ĠBir mingham
Ġsqu ared
w alk
ĠR F
O F
ac cept
Field s
ĠY u
b ian
ĠP ictures
ĠR u
Ġcyl inder
ĠB ron
plic ial
Pro gram
ĠT otal
ac re
ham mad
Time out
Ġpremi ered
Ġthreat ened
L ight
ĠS olar
Ġconstant ly
ĠHawai i
ce ive
ĠJohn ny
Ġhom ology
Ġh ate
Ġl oyal
book s
un ion
act or
ole cular
umb ent
the o
all oc
ential s
is an
IN D
Ġstructure d
Ġcy ber
Ġcolle ges
18 94
Ġconj unction
ĠConst ruction
Ġpart itions
ĠConserv ative
ith metic
Ġcompos ers
ish ments
Ġg athered
K ing
ig o
ĠA ld
ethe less
per ience
Ġjoint ly
G Hz
ĠJ ess
ĠI an
ĠR av
Ġc rop
ĠShe l
Ġar rows
Med al
Ġm oral
ĠDo es
)} ]
$\ %
Ġst ere
Ġpay ments
pot ent
ĠAn aly
Ġviol ent
un signed
Ġver ification
Ġâ Ĥ¬
ĠM ong
Ġconstruct ing
ĠF reedom
Ġcomplet eness
ne ut
Ġ> >
ĠG ate
at im
ĠCoul omb
ir k
Ġdiv is
Ġany where
Ġw ounded
av ailable
apt ist
r aska
Ġexpert ise
Ġg olf
Ġdist ant
c op
Ġto w
="../../ ../
ĠCl imate
Ġturbul ence
Ġb ipart
ĠCa uchy
ĠD est
d v
Ġactiv ists
Des ign
l p
duc ational
HE CK
Ġt ies
ph ot
rib le
Ġannounce ment
Ġredshift s
Ġr ub
Ġprot ests
Ġconserv ed
ĠPro f
Ġl os
18 91
veloc ity
ĠP ast
f c
Ġb alls
Ġlearn s
or ia
Ġb ubble
). $
Ġpo inter
period ic
Ġex terior
ĠCarl os
ar an
os hi
ĠC hern
Ġconf usion
13 4
F our
Ġdiscrim ination
U B
Î µ
rak e
ĠBo olean
add r
G T
Ġrun time
ick en
Ġconduct ivity
ĠP erson
Ġsil ent
Ġbuild er
Ġco arse
ph abet
asc ular
ĠF ed
Ġven ue
Ġconnect ivity
ift y
Ġoptim ize
sat z
cons ider
Ġe ccentric
ĠW ing
ot an
W ang
Ġres um
act eria
or ry
ĠE li
18 88
Ġpropos als
f eed
ĠS ect
Ġabund ances
Å ¾
clip se
Ġin jective
O wn
ep ing
Ġrepeated ly
Ġw orship
Ġb om
t witter
Ab stract
ĠC BS
_ ,
reg ister
Ġgr ants
as is
Ġph rase
Ġjav ax
ĠBen jamin
Ġvulner able
Sec urity
Ġa fore
ĠW u
} ''
Ġcon sequently
( (\
Ġgener a
ra pe
ĠMon th
r v
Ġd ated
ĠInd ians
}} -\
equ ence
99 99
ist ance
\% ,
Ġob sc
que ue
Ġsupp ression
ag ent
ĠR ico
Ġrout ine
Ġmem orial
}^{ *
Ġtw isted
ĠT ol
ĠSh op
M sg
ĠComm ons
cast ing
D etails
Ġiniti ated
Ġnewsp apers
ĠH E
Ġprison ers
ros so
ĠC N
ĠSt ories
+ {\
ĠJ oy
ĠJ a
Ġtw in
erv ing
A pi
ich let
Ġcol ored
s b
us ive
f air
ĠTurn er
ĠV iol
xim ity
up t
Ġtext ure
Ġcyl ind
Ġcorn ers
k u
s ame
ol en
ac les
Ġstri king
Ġg aps
Ġapp endix
ha o
call back
ĠE ve
Ġwonder ful
harm onic
Ġhand led
weight ed
ĠCle arly
Ġb oss
ĠR acing
atter ing
Ġbos ons
if le
ess ment
Ġf ur
$ ~\
Ġread only
Ġbeg un
n atural
}\ |_{
ĠRes p
Ġload ing
ĠEth iop
ĠRober ts
Eng ine
lap se
13 6
R oute
Ġbound ing
Ġaltern ate
ĠMer c
Ġens uring
Ġexpl oring
Ġg all
ĠB A
}\ |\
Ġassert ion
ĠMan hattan
Ġcritic ized
og ue
Fl ags
ĠW a
)$ ;
Dat abase
ĠP ick
Ġpeak ed
ĠWork ing
ĠR ing
ĠSe ven
Ġ }(
Me V
ĠJos Ã©
eyn olds
âĢ ĭ
Ġexist ed
id i
Ġprot otype
pg f
Ġpreserv ing
Ġexplos ion
Ġmus cle
v oc
Ġl ung
Ġunder ground
L I
Ġmole cule
Ġstreng then
Ġoscill ation
ĠC ou
Ġphotograph s
Ġout door
ĠOrig inal
An n
p u
ĠBe ijing
d in
Ġpair wise
3 000
Ġsub mit
Ġdepend ency
Ġdissip ation
b v
Ġnorth west
T oday
à ¬
ĠP ra
Cl ose
,- .
ord ination
Ġcompar isons
ĠH ash
Ġcom ics
}\, .
pat tern
Ġp our
ĠSh ould
Ġclaim ing
Ġemphas ize
C amp
system s
Ġlect ure
Ġdaugh ters
Ġview ers
)} }\
y ll
Ġsh ield
Ġacqu ire
ĠPlan ck
w ild
Ġt ort
Ġcl othing
E ast
Ġliber al
ĠPr im
os opher
prot obuf
Ġsp okes
ÑĢ Ð°
d dot
ĠS z
ĠE M
Aut o
Ñ ĩ
R F
Ġd rew
m art
Ġ ic
bor ne
Ã³ w
ot er
B usiness
ĠC arm
ps frag
Ġmanufacture r
Ġ( .
Ġmount ed
Ġdes ert
y cl
Ġsudden ly
Ġdisc ount
reed y
ĠMax well
Ġcross es
l ive
Ġa xi
Ġrest oration
ĠCommission er
Ġaccount ing
Ġle ak
Ġprom oting
ĠChe l
ĠSpe ed
) _\
al gebras
Ġl ingu
Ġbond s
Ġt orsion
ĠPl us
Ġguilt y
Ġpreced ing
Ġcomplet ing
ĠLead er
Ġover se
C at
Ġtax es
leg al
W I
Test s
Ġmil k
Ġinf rared
Ġafore mentioned
chi at
Ġg ard
Ġmagn itudes
Ġking dom
W F
Not Null
ĠMag ic
ĠD ise
og s
r ates
Ġhe x
il ia
ĠF low
us ers
ĠT oy
F rag
uck er
Ġgovern ed
Ġsp iral
pl ots
Sever al
Ġannu ally
ĠAr g
Ġpres um
Ġw ake
the ore
W il
)$ )
ĠFor um
assum ption
is ers
ab ol
ĠSm art
ĠL ud
m el
ĠS ide
Ġs hed
Ġqu art
{ }\
ĠScient ific
V s
ĠCh air
Ġinn ings
3 20
os itory
ĠF itz
ĠSh ang
Ġpre val
Ġwal let
om at
Ġconsc ious
Ġminim izing
Ġm ig
ur c
ĠP oll
elect ron
Ï ģ
Ġm as
op al
-> _
im ath
Ġfeel ings
ogene ity
Ġhand ler
ro at
rist ol
Ġdef ect
Ġposs ession
T ABLE
Ġcas ual
in her
ĠP el
18 50
Ġestim ating
Ġrefer ring
uss ia
ĠB orn
ĠTh ings
ĠNorm an
FA ULT
Ġg od
ĠB log
ĠAnd re
Ġoccur rence
S ION
r ust
uk a
orient ed
Ġaccept able
G N
on ing
] _{\
ed it
ĠNev ada
no align
Ġl ibraries
Ġnom ination
Ch anged
ĠAthlet ic
ĠAp plication
Ġmob ility
M OD
Ġim prison
ĠL LC
atern al
Ġtrans mitted
H a
L ow
Ġpar a
( !
C ard
Ġfor b
L ou
}: \
Ġcred its
Ġrenormal ization
Ġp ace
Ġg allery
Ġhop es
|\ ,
ĠF O
Ġdo i
15 5
o ons
amp a
Ġdep ression
T ur
Ġab road
Ġneg lected
cycl op
Ġexcit ations
Ġmem ories
Ġmag azines
b ishop
ry ing
Ġact ively
Ġpat ches
ĠDef ence
BU G
\ ).
ich i
Ġmy ster
ĠSy ria
math rel
itz er
ous ing
Ġcancell ed
Trans action
B ad
um my
ount ered
Ġtum or
Â ®
Ġem otion
ĠD ouble
Ġexam ination
Pack age
Ġ' '
Iter ator
ĠJer usalem
man ager
Ġback ward
flu x
p any
Ġtri angular
Ġperm itted
ĠSt even
Ġop ponent
Ġfl ip
\ ),
Ġwood en
on ce
ĠCat hedral
Ġn ut
ĠMil an
ĠColon el
z ed
Ġdr ives
RE AD
Ġat tain
Ġmon op
M ad
f ac
Ġvalid ate
ĠBar ry
Ġsc attered
Ġsem antics
G rid
ar ound
ĠN icol
Ġfinal s
M ill
Ġbroad er
Ġdeb uted
Ġcomput ers
Ġuniqu eness
ic ates
Ġconnect s
ber ger
ĠAlex and
Ġad i
Cl oud
ill iant
F ace
f ers
non ym
Ġdisp ers
Ġcontro versy
@ "
ult an
Bl ue
method s
Ġpain ters
ta king
Ġext rapol
scal ar
cast le
ĠCarib bean
ĠThe ore
Ġdis aster
Å Ħ
Con tact
. ).
Ġb es
ĠAnt i
ĠG arc
Ġrat ings
Ġwat ched
ĠM ol
ĠBar cel
ĠL E
Ġsk etch
il ateral
ĠS oul
Ġgl uon
Ġcomplex es
Ġk ernels
Ġdifferent ly
Ġreg imes
ĠG ot
Ġ ],
LO G
ĠHig her
ĠOper ations
ĠDrag on
pan cy
KE Y
Ġf ert
ĠL ions
app endix
em e
ĠL ad
it ol
ĠS ett
Ġunder go
Ġhard er
Ġexp ans
lo yd
ĠC ole
Ġover whel
plet ion
Pres ident
Ġfit ness
us k
Ġpriv ile
Ġd ub
Wid get
Ġcricket ers
ĠI van
th al
Ġpref erence
Ġint ra
ĠAg reement
Re view
Ġchar ity
Ġsim ulate
Ġsoph istic
i w
sp ired
Ġch ronic
ĠPh ase
Ġcontrib utes
form ula
ĠFl ore
ĠPl anning
ĠMin or
ĠY am
Ġrest ore
ĠIn n
Ġcal endar
Ġfra ctions
P F
IT E
New ton
ent e
Gener ic
Que ue
ĠIs a
Ġselect ing
ĠGu inea
}} ;
Ġass ass
N Y
c ussion
ĠY ank
Dist ribution
s outh
)\ |_{
z b
ĠLiter ature
ĠN HL
Cor ollary
ĠSoc cer
Ġw ings
22 5
Ġz eros
b rand
am er
Mem ory
ĠUnivers al
Ġmathemat ics
A x
s ave
ap or
Ġb orders
he v
ĠB orel
iter ator
W indows
Ġperm it
C ity
Ġanomal ous
ĠSaint s
Ġinter cept
ĠB achelor
ed itor
ol ia
ĠL ess
__ (
Ġfast est
contin uous
Ġval ued
Ġp ip
bal ance
CO MP
inc inn
Ġelev ation
Ġfilter ing
ĠBe aut
ĠAd S
erv es
Ġth irty
)} +
check mark
rosc opy
Ġpres c
m iral
h m
ĠF ab
18 87
ĠEgypt ian
ak u
Ġdiff e
Ġqual ifying
f ollowing
Ġle tting
Ġdes k
ivers al
Ġspec ification
Ġun e
Method s
pl atform
ess el
%% %%
ĠLi u
ĠTechn ical
Ġemphas is
13 7
Ġcred ited
Ġcompens ation
ĠJ en
ĠAlber ta
Ġtriang les
Ġres ort
h adoop
Ġt aste
Ġhe m
ĠOtt oman
ĠE c
ugg ing
, $$
st ad
Ġengine ers
ĠD elta
Ġmanufacture rs
ĠO DI
f x
ĠE C
s ized
Ġtransform s
16 5
ie ve
n as
( .
Ġstreng ths
S un
Ġsub mar
ĠO ption
ups ilon
Ġsign atures
P eter
Ġequ ity
ĠAd vanced
ĠGra ce
ĠC ele
Ġapprop ri
Ġf is
Ġf ictional
AR S
ĠM ans
ĠSe lect
Ġ\ %
}, $
Ġser vers
Ġcoach ing
aval ry
p iece
ĠGl asgow
m ot
Ġdiscrim in
_{\ {
ĠN BC
ĠCo al
13 3
W he
Ġt el
)- (
Ġspeed s
Ġin version
Ġenc ountered
ĠSal v
ro us
18 65
Ġmed ieval
en able
ĠMuslim s
Ġcomm ands
ĠOl iver
ĠCl iff
h aw
g re
Ġsurv iv
ĠRob in
} --\
ĠS ad
ï »
ĠV ic
Ġdo ctors
Ġle ver
block List
F unc
ill ance
ass y
utr ition
ath on
Ġdec ides
Ġw ond
ĠC ell
{- }
Ġcap ac
I ll
ĠÐ ¿
Ġillust ration
M el
incinn ati
Ã Ł
ĠPar ish
pass word
ĠT alk
ĠS ax
Ġatt ending
at omic
Ġop ponents
Ġcov ariant
ast rop
ub ert
Ġout line
Ġhierarch ical
Academ ic
ĠM uch
ĠW H
Ġautom ated
ĠDen ver
u ate
00 3
ĠW or
ĠRiemann ian
ĠO il
og y
^* _{
Ġspecial ized
om i
ĠB io
Ġc er
ul ators
. ][]{
Ġa ster
Ġsure ly
ĠN an
Ġmem or
T own
Ġill um
Ġhe li
le tt
RE E
ĠC row
ĠCost a
ĠGre ater
Ġ} _{
_ (
' }{
ann ah
En ter
ĠKir k
Ġh az
Ġvic inity
ele ments
ri en
Ġun success
Ġstar red
ĠSt ream
Ġcol span
annot ation
S B
ĠMe chan
Ġthreat s
Pan el
sche ma
ĠC ad
Rad io
count ry
ĠPier re
Ġfrag ment
an cer
ĠP D
bour g
de cl
Ġtra pped
Char acter
ĠCharl otte
V V
exist ence
W C
Ġcomm em
k ernel
Sim ilar
Ġan xi
M ot
Ġfib ers
bur st
Ġp arks
con e
Ġreg ulatory
Ġdevelop er
b os
d n
ĠF is
P ER
ĠSing le
P ower
Ġout lined
Ġprov incial
Ġinf ected
Int eg
ĠB enn
ĠC old
Ġturbul ent
L ee
f ollow
Ġun clear
Ġb orrow
st ats
Ġhead ing
ĠTig ers
Ġth rown
f itting
ĠA x
ĠC G
Ġt idal
1 19
rel ative
Ġbon us
Ġf ed
ĠNet flix
Ġoutper forms
am ic
Ġinter active
Ġthe sis
Ġpro l
ric ulum
f b
Ġdimension less
aver age
Ġjourn als
18 86
Ġche ap
ĠG M
Ġg aming
Ġg ear
ĠB og
Ġsurv iving
vers al
ĠS ym
L arge
Ġc f
Ġsouth west
Ġcoal ition
load ed
T ake
sc roll
Ġpredict s
U SE
ĠVin cent
Ġvol at
}) }{\
qu ake
ĠT aking
Ġl ip
U LE
ĠNaz i
ins ky
Te chn
J ew
Ġch ip
Ġpl acing
}: =\
Ġ" /
Ġmass less
Ġrem ind
Ġinc idents
ĠP ersonal
Ġdig it
Disc ussion
Im port
ess ed
Ġcon g
ster dam
cel and
ĠF light
Rich ard
Ġpolar ized
orig in
Ġtick ets
Ġviol in
Ġc inema
ĠSh a
Sp anish
f eld
Ġir regular
col lection
Ġbl ank
inter action
bas is
d k
Ġc asc
Ġw ick
Ġcompos itions
ĠM R
ĠCon fig
ĠSer ge
Res earch
ĠK el
à ®
writ ers
ier ra
Ġon set
Ġtra ct
L ive
ag i
ĠCl ay
it us
Ġm im
Ġj ack
Ï ĥ
Ġpass word
sche me
Ġn aval
err ors
ook ie
Ġ rays
ĠAl ong
ffic iency
ed ed
Ġimm un
t ons
Ġiter ative
Ġsp r
inter pret
am y
row ing
Ġj oy
Ġsold ier
Ø ±
Sim ple
integ ral
ĠCamp aign
Ġaut omorphism
X ML
ĠArch itecture
Ġcon gress
pl ain
ĠS ymph
ina e
Ġvent ure
ĠFran ces
Ġgeneral ize
ops is
Ġbus y
M ENT
Ġingred ients
Ġarchitect ural
co q
I mm
ĠComp an
US Y
f ony
t rain
Ġaddition ally
Ġnot ations
Ġimplement ing
ĠBarcel ona
ĠB eck
Ġelect oral
Ġg ross
Ġen abling
Ġdem ocracy
Ġdescript ions
ĠCra ig
~~ ~
Ġde form
Ġp ul
id x
hib ition
assert Equals
Ġmot ions
Ġcounterpart s
Ġreg iment
ac co
n il
ĠD raft
ro e
ĠE R
intend o
is i
Ġabsor bed
ĠL ux
Ġbu ying
Ð ·
ĠH indu
). \
ess ages
ur an
n orth
Ġ" "
Ġj u
Ġbusiness man
ĠSerb ia
it ual
ĠPro duction
O UT
ĠPro test
dot ted
M ake
Ġflex ibility
ester day
ĠPy thon
Ġrecommend ation
ĠAthlet ics
Ġcon figure
Ġhel ic
Al gorithm
È Ļ
ent ropy
Ġg raphics
ĠB ert
ĠArch ives
ĠFe ature
L iter
Ġs outheast
resol ved
Ġif f
Ġphot ometry
Ġp ic
Ġe ighth
| }\
ĠT ib
Ġun changed
Ġadjust ed
Ġcomplement ary
ĠH aving
ĠA SS
ĠL ithuan
ĠYork shire
ĠSpring s
T ri
own er
Ġliter ally
J SON
Ġevol ve
Ġfil med
ĠP L
Ġdef ects
18 64
Ġfunction ality
Ġmain stream
condition s
; /
Ġdr inking
ĠHar rison
ï» ¿
Ġplay offs
pro to
Ġbut ter
13 8
est on
Ġconclud es
S cale
ĠRead ing
ĠB right
ond o
Ġinteg rable
Ġcoun sel
T ool
Ġconcent rations
Ġshall ow
Ġl ap
Ġspect roscopic
Ġbirth day
ETH OD
m ir
f olk
ĠRich mond
F iles
ĠRef s
over view
Ser ies
Ġas ide
ext ension
ĠS V
"> &
C hen
Ġd ir
s r
ĠS ob
Ġmaxim ize
ĠA zerbaij
o j
Ġorig ins
map s
ol ute
Equ ation
ĠIndust rial
pro gram
Ġconc aten
ĠK ol
ĠFig ures
Ġt ape
Ġpow ered
Ġco ins
Ġd ictionary
Ġcert ificate
l ater
;\;\ ;\;\
p es
ta ken
ep he
Ġaccom pany
sch ild
ĠS ongs
Ġb if
ĠMed iterranean
Ġcomfort able
ĠL ost
ical s
ost ics
Ġdefe ating
Ġsp anning
Ġmet adata
f ar
Ġbatt les
Phys Rev
Ġrele g
g io
Ġin sect
l ov
}$ \\
Ġcont raction
ĠForm ula
ĠR ange
ĠD iamond
ĠR T
et ics
ĠM ut
Ġg ent
re ach
ĠG rey
Ġco in
ĠSte in
ir ts
ma xim
to ol
ĠImp act
Ġcapt ures
)) ^
Ġguitar ist
Direct ory
ĠV as
Ġattempt ing
Ð¾Ð ²
ĠBelg ian
Ġperson ally
Ġpo ison
Ġred und
ĠP le
ĠPer u
Ġr hythm
inst all
Log ger
Ġt elescope
Ġ& -
Ġscient ist
ĠCh and
ĠV ent
18 84
nu cle
}), \
un ov
Ġqu en
Ġmorph isms
Ġsubgroup s
othe rapy
itt en
ĠR idge
Ġc ow
Ġlik es
Ġincre ment
horiz ontal
ĠL uther
Ġafter wards
Se ason
Ġn od
c in
ke V
Ġpred ecess
ore r
ĠDe b
ĠWrest ling
C rit
ĠS FR
P od
ass o
ĠE ug
ĠNeb raska
Ġ ðŁ
ĠAnt ar
Ġmon ument
W atch
Ġm asks
ve ction
Ġmes on
Ġte a
Ġan ime
Ġcell ular
R NA
ĠIn put
rack ets
ĠMu hammad
Ġdamp ing
ĠArch ive
ĠL arge
ĠChrist ians
Ġdifferent iable
Ġdec oding
Y P
Ġarrang ements
Pro file
anc ies
Ġmetall ic
W in
ine e
ĠIran ian
Ġsusp ension
ĠF u
ĠCont ent
im s
ot hes
ĠSh adow
i q
Ġsound track
m k
Ġp uzz
Ġb ij
Ġend point
ĠO cc
ynam ical
N orm
ĠF ast
ĠJ ama
ĠJer ry
ĠK ay
Ġres et
F G
ull ivan
au kee
ĠGh ana
Ġdown stream
an ov
Ġhe ll
Ġle pton
un s
^* )
. *
Ġthe at
Ġpo ets
Ġto u
Ġimm une
Ġz ones
ĠPol itics
Ġpredict ive
Ġele ven
Ġv ib
ex amples
re ck
pref ix
ĠC MB
the ir
Ġâ ĨĴ
ash a
ĠWar ner
Ġs s
am ine
R ay
el ing
L ower
ĠJ oint
Ġcontroll ing
D est
K O
C ert
Ġexhib ited
P DF
al ia
Ġab ilities
over rightarrow
St ructure
Ġpoor ly
Ġm ice
Ġpuls es
14 7
b ie
ĠAb u
mem ory
Ġst er
Ġassoci ations
. }}
as p
Ġvolunte ers
th rows
Ġp ill
ĠArt ist
ĠM ason
Ġpro ximity
Ġb read
Ġvirt ually
ĠNich olas
Ġappro ached
cle an
Ġbackground s
= &
ĠF riends
du ctions
Ġreg ret
ĠMas ters
represent ation
le v
ĠT on
ĠQ ual
ĠIm port
Pr ivate
Ġshe af
Ġmagnet ization
Ġ urg
Ġinher ited
Ġbe ams
ĠCh i
Ġfre ely
s it
ĠS id
ĠC redit
18 81
Ġper ception
rac le
ĠPr int
ĠL ot
Ġimm igration
am o
It ems
pro duction
abet es
Pro b
Ġqu oted
ellig ent
Ġb rig
le igh
ĠR angers
Ġcomp ress
ĠT D
ĠCom plex
ĠSch w
U ST
Ġen compass
r ub
á º
Ġanalyz ing
b ast
n ob
d g
av an
ari us
aj a
Char les
T x
Ġspat ially
| $.
ĠI o
Ġion ization
P ut
Ġgrate ful
y u
ab we
Ġh tml
st ock
Ġsp ark
Ġcor ruption
Ġcompris es
ĠB urg
requ ired
Ġburn ing
vent ions
JE CT
Ġreson ant
) ]{
Pol y
ad joint
ap os
ĠV irtual
Ġbin aries
ou x
ĠV el
ĠS ah
Ġdu o
ĠF un
l ies
type of
Ġk pc
S ocial
Ġcharg ing
Ġde emed
te ch
ce ut
Ġoccas ions
Ġrel iability
pect ives
Act ivity
Stat ement
Ġprob abilistic
M ont
ĠH udson
ogen ic
Ġdoub les
ĠR eynolds
et ta
ĠW orth
App endix
ĠD od
=" "
he ro
amp ed
Rep ort
. __
_ ->
Ġhar vest
Ġp ian
var sigma
ĠK ath
H o
d iction
E lements
Ġsc roll
ĠPro file
ĠWrit ing
ĠV lad
rot ate
associ ated
ev olution
ĠIn stit
å ı
Ġcollect ing
* {\
L en
18 61
Ġd upl
Ġanisot ropy
math ord
13 1
Ġpack ages
, ...
O B
Ġv it
Ġup grade
Ġconst rain
b rief
ĠC ant
ec ker
Ġ( [
ĠL arry
Sm ith
Ġ[ ];
en ius
^* $.
ĠObl ast
Ġbe er
Ġt ags
)\ )
Ġbelief s
X Y
Ġstat istically
ĠGon z
ĠDemocr at
ĠDat abase
v it
n odes
ĠS ox
Ġrec ruit
Ġphys ician
Rem ark
in aries
id ency
Ġcop per
Ġveter an
Le ague
Ġsec ured
De ep
Ġconv icted
() ));
Ġche st
Ġview ing
Ġslow er
oun ters
Ġrev ised
Ġsh ore
ĠS uz
ot ypes
Ġmon omial
ĠL ate
Ġdist ortion
Ġa u
Ġmod ulo
iv ic
ĠI da
Ġcommun icate
erv ation
ĠEd ge
Ġcomment ed
ĠWhe ther
arma ceut
Ġgra ins
ĠJust in
if iable
z es
u ine
imb abwe
J S
W el
te am
Ġact ed
u cc
ĠB ird
w aukee
Ġa pert
Ġprogress ive
ĠD iff
ĠMunic ipality
ĠN P
Ġflo od
S at
ĠS ak
serv ices
sur ance
Ġpremi ere
00 4
Ġt uple
om o
ĠE SP
Ġde ck
Ġdon ated
ĠBan ach
Ġb ridges
ass er
ph ones
Ġterrit ories
ĠL aura
Ġr am
Ġlight ing
cont rolled
in ery
Ġf aint
)) );
^+ (
Ġin cent
VAL UE
oltz mann
ĠE sp
Ġtown ship
th ird
p ine
Ġrele vance
Ġaut onomous
Ġreson ances
ĠCirc uit
; }
Ġper ceived
act ivity
ĠK r
Ġcous in
Bas ic
Ġcum ulative
spi racy
ĠM orning
Am ong
amb ers
ars on
ĠM is
$ _\
l iter
ĠSD SS
Ġaccommod ate
she et
Ch ildren
spect rum
Ġ$ ^
}^ -
R ound
prot ected
oc co
ĠR andom
int erest
Ham ilton
ĠJ ung
Ġinf initely
Ex amples
in z
u ced
im plies
other wise
scal ing
Ġqual ify
se lection
==== ==
T aking
ĠG Hz
}= -\
Ġorgan ised
ra h
Ġkit chen
ik ing
ĠArab ia
18 63
{ +
Pl ayer
U C
z hang
Ġs ax
ĠM B
ub a
ens ely
Ch apter
Ġharm on
ĠBlo om
ĠB omb
Ġro ster
he ll
][ '
ĠY ugosl
ĠD oc
en o
Ġs ugar
F ar
Ġd inner
s z
ech o
Ġrad ar
Al umni
m other
Ġmy stery
pol icy
Ġd b
Ġb is
ĠFle et
al ong
Ġpref erences
ĠFinn ish
! }
Ġanalog ue
al go
^+ _
] +
Ġcompet itors
Ġbary on
ĠT yp
Ġar ithmetic
Con struct
Ġinvestig ating
By Id
ĠEv ents
ĠC e
Ġult imate
b atch
Pro ps
ĠLu ke
ancell or
ĠEag les
ch art
z ant
as ia
Ġwavelength s
ĠSt ructure
AM P
print f
' _{\
ĠL an
| ,
ĠF riend
ĠBer g
}} %
h is
14 3
gener ation
Ġvo ices
d iamond
Ġf unc
Ġnorm s
Ġall ocated
to ols
ĠJ ob
ĠA F
ĠHor se
Ġcert ified
F rank
bra ham
K A
Ġoff ense
r vert
ĠSh aw
Ġax es
N ever
j ob
ĠM ort
ĠMun ich
ron es
Ġen code
rest rict
Ġt anks
ĠM ann
Ġapp end
ĠĠĠĠĠĠĠĠĠĠĠĠĠĠĠĠĠĠĠĠĠĠĠĠĠĠĠĠĠĠĠĠ ĠĠĠĠĠĠĠĠĠĠĠ
p ull
t k
Ġas p
ĠBerk eley
ĠC I
Ġcont ours
L ag
ĠM oz
ix on
Ġmed ic
ĠNe uro
ĠH ost
str ument
Ġcol ours
g ie
l c
Ã Ĺ
per formance
IP T
b is
}{ .
Ġt ons
ur se
Ġestim ators
ĠC V
s al
Ġpron ounced
Ġconduct ing
Ġb racket
ĠW I
che l
So ft
clud ing
ĠEd wards
ĠCru z
Ġm eth
ole v
Rec ip
Ġ[ "
aster y
Ġpubl ish
Ġe ating
Ġor chestra
d ependence
ĠBl u
Sh ape
Ġtreat ments
Ġide als
is se
Ġdel iber
Ġproceed s
10 24
er gy
Ġad equate
ĠMur phy
Ġa qu
ard i
) }}{
ĠPer ry
Ġt ips
ĠQu arter
ĠKe ith
'' $
D ou
arc sec
ĠB our
Ġun c
Ġin clusive
18 82
Ġrem n
ĠEx amples
ĠNov a
ab stract
ill ation
dec ay
A li
ĠMon ey
Ġcur rency
Ġexped ition
b rew
l vert
B ay
Ġdis sol
O O
ĠB ass
B ul
ĠW es
Ġins pection
ib n
b log
ĠM essage
Ġcons olid
Ġt orn
LE CT
Ġt une
Ġdef ending
Ġtravel ed
a qu
Ġkinem atic
ĠN R
Ġam id
Ġquant ify
ĠVictor ian
Ġcab inet
Ġsubstr ate
Ġprior i
Ġaggreg ation
Ġf iring
um i
ĠK rist
ut ations
conom ic
F ac
ĠC ob
Ob serv
., ][]{
K im
) )}
Col lections
ma ch
fl ags
f ive
Reg ion
bo ost
hem atic
Ġev ac
ĠE ston
Ġsur jective
ĠColomb ia
Ġactiv ated
M ach
Ġam ateur
En vironment
Ġscholar ship
t v
Ġmon arch
ĠT un
Ġvol can
ĠB ristol
ĠI de
18 83
ĠCl are
ĠP resent
by tes
ĠM N
Ġle verage
ĠSe an
rape ut
, '
Ġh urt
W W
000 1
Ġpl ates
Ġsol ver
H ard
b undle
res et
ĠMe asure
AA AA
G overnment
IG HT
ĠBre ak
in j
Ġyoung est
ĠF iction
g om
h p
AN G
j j
k al
Ġf ighter
ĠIn novation
oc on
Ġsk i
ĠN y
ĠLeg al
L ove
ĠG rade
Ġdi et
prop ag
Ġadopt ion
, +
Ġsurpr ised
ene ath
Ġaffect ing
Ð ¿
ij i
ĠH unt
Ġdiscre pancy
est im
ĠC itiz
I mp
ĠRepresent ative
ĠD B
ĠBeng al
") ]
ĠGuard ian
akes pe
ĠR ey
Ġen umer
ĠPref ecture
* )
U ID
18 76
m usic
{- .
Ġincred ible
ĠAgain st
18 62
Ġsophistic ated
ine q
Res ol
Att ributes
ĠSus an
Ġportray ed
Ġcomb ines
ĠB egin
Ġm oon
ĠJ ere
Ġrecip ient
ĠB Y
Reg ister
V ec
v ary
Ġcond em
Ġped est
P ers
Ġj ury
Ġmin isters
Ġgold en
Ġoscill ator
Ġas ymmetric
Ġtrans ient
th lete
pro ved
t mp
Ġnon negative
Ġlab elled
e ing
av ier
ĠRef erence
Ġcontext s
Ġless ons
Ġp c
it ic
Te am
Ġm g
ĠCh a
Ġsat uration
it ious
Ġcult ures
Ġgraph ic
M aster
Ġh itting
Run time
ad j
With out
16 8
ue z
ific ant
Ġeconom ics
P a
Ġrep ly
^* $,
Ġhost ing
ĠĠĠĠĠĠĠĠĠĠĠĠĠĠĠĠ ĠĠĠĠĠĠĠĠĠĠĠĠĠĠ
ĠAgric ulture
ul ous
ĠArab ic
Ġsuccess ive
ĠDel aware
Ġp ion
Ġgra phe
ther mal
Syn tax
Ġsumm ation
p rom
Cent ral
Ġi Phone
ĠB ody
Ġdisput e
Ġlimit ation
Ġwalk ed
Ġb anned
Ed it
ĠA round
Ch ina
Rem ove
ĠBe ing
* ,
big cap
ent o
Ind ia
ĠAm sterdam
be it
Ġb ol
Ġcor ollary
Ġsem igroup
Ġatt raction
ai ro
coupl ing
ĠG ay
13 9
Ġw elfare
Ġg est
ĠN L
s ampling
Ġle pt
Ġt ru
pro ps
Ġplay off
C ritical
Ġpen et
ĠA pr
11 11
AT O
id ation
ace ae
ĠH aus
Ġind igenous
Ġpoly mer
)}\ \
Ġadi abatic
S QL
c ott
ow ards
Ġship ping
ĠR ivers
ĠW rite
ĠRes ponse
B AR
L ead
Ġres cal
Ġarr ives
Ġquarter back
Ġa uction
ĠL oc
lu ence
Ġconf ined
ut ton
Ġcan n
ĠVis ual
symmet ry
$ ]
Ġ{ (
15 2
A uth
necess ary
tabular newline
Ġman ually
Ġth inks
M oths
Ġst iff
O H
ĠCam eron
Ġvis ibility
Ġ= &
fl ict
Ġlast ed
Ġmod ulus
al most
Ġenem ies
support ed
Ġt ribe
Ġleg islative
Q ual
Ġbe ating
ĠC ut
m orph
col lapse
ur st
ela ide
18 68
Ġamb ient
att ributes
Ù ħ
rosso ver
Ġs addle
conver gence
ĠHe avy
drop down
Ġbenef icial
if th
Con ver
Ġr iding
To String
Ag ain
}} }(
ĠR elease
G rad
ĠInt el
Ġsp ur
AD D
Ġprocess or
e ah
ĠH IV
ta wa
ĠAl t
Ġm anga
sv g
ĠCo hen
Album s
i ref
Ġsp acing
ac a
d ie
Ġess ay
C opyright
_+ $
Ġcommun e
Ġtrad ed
Ġf unny
Is ra
Ġtour ism
ĠMont ana
ĠR S
Ġun ve
Ġchampionship s
s elling
Ġcontinu ation
pre v
Ġsu ite
SI ZE
d al
ma jor
taint y
ĠM ig
ir s
Ġaccompl ished
ĠR ule
Dem ographics
ul in
}{ -
aus es
Select or
M il
Ġ( _
M id
Cond ition
ab ases
ĠT rain
iz a
Ġentreprene ur
J ose
ĠD ol
E nergy
ĠH ubble
Ġbo ats
Ġelev ated
18 75
Ġo mitted
Ġprepar ing
ass ets
Ġp unct
Ġem itted
Ġcontact s
Q CD
Ġal phabet
E mail
te enth
qu er
Line ar
Ġhas n
\% .
Ġin complete
ident ifier
24 5
Ġrob ots
ian ces
augh ter
Ġh ack
Ġpresent ing
Ġed it
exp and
oc c
.\ ,\
do es
im en
In formation
bi ased
Ġhun ting
sh ared
Ġimm igrants
Ġlaws uit
Ġch ron
I ES
Ġdisappe ar
ĠK ap
ĠTransport ation
S aint
w d
18 78
ĠMay be
dimens ion
Ġfaith ful
im uth
Ġ âĢĻ
em on
ĠInd ies
]{ $
Ġb ind
Ġopin ions
pr inc
Ġcon ductor
ĠObserv atory
Ġsent enced
Tra ce
akespe are
Ġd ivers
N ative
an che
Ġj Query
d one
Ġdepart ments
Ġtheore ms
pos able
sk a
H or
Ġceleb ration
a que
ivid ually
Load er
Ġ\ ,\,
Ġdec oupl
Ġspons ored
Ġl ag
Ġcitiz en
. }.
ĠV ar
ĠTer ry
T ex
ĠCon c
Ġhypot heses
ĠL loyd
Ġmed als
ad vant
section s
R ock
N i
var iance
Ġref ined
Ġjo ins
Ġintegr ity
Ġplace ment
iz ard
20 5
0 10
A z
Pro xy
ar ms
x s
Ġanaly tically
test ing
equival ent
ĠS ony
ist ing
Ġsimultane ous
Book s
Ġeg gs
}\ {
ĠQu est
: [
@ {\
we ets
() ).
Ġdel ight
as ta
Ġlik ed
ĠM s
Ġmicrosc opic
Ġlog o
vi o
Ġphil osopher
. [
R andom
t l
ĠCub a
Ġcirc uits
Ġacceler ated
Ġdiff use
Ġconstit ute
Ġc ock
St op
Ġswit ched
Ġfest ivals
i ov
Ġfix ing
ĠB aptist
Ġun w
trig ger
s ided
ĠLe o
Ġshould er
ĠBor ough
ĠK un
el o
Ġiniti atives
sub ject
ĠM end
iff s
Ġlat ency
S ER
am az
S ir
Ġs le
Ġpropag ator
ĠMarket ing
Ġr ated
Ġrecept or
ĠS QL
Ġhon our
Ġconf used
'] )
ĠNep al
Ġpar abolic
=" @
aren cy
ĠConf eder
at ra
label ed
Through out
b ank
Ġanonym ous
Ġsub script
ind a
Ġfail ing
] ,\
ĠK ate
con tact
Ġmunicipal ities
Ġtens ors
A BC
cl ock
Ã ¦
ĠI celand
ir r
ĠH amb
ĠM ail
Ġele g
Ġadv ances
ĠWeek ly
Ġdiscuss ing
Ġsepar able
W alk
Ġn ominations
| <
F ort
dat aset
C ulture
Ġt weet
Ġin ject
ser ial
ĠSt op
ĠPubl ished
Ġpass ive
ĠP in
ĠHer ald
D IS
g auge
ia z
ĠStr ateg
th row
Ġdocument ed
ĠMad ison
ĠV oice
n othing
ĠB uch
Ġhistor ians
v et
ĠConserv ation
Ġsim plicial
pr im
ach t
Ġcent res
ĠW AR
Ġinter faces
t ok
U r
Ġcatalog ue
Ġ io
ĠT arget
ĠStat istics
Ġnot ions
)^{ -\
h art
vi ol
Ġtrad itions
h im
ach i
iv ially
Ġkey board
n or
Ġport s
Ġsched uling
â Ħ
Ġanten na
G re
k an
ĠB ath
ĠVerm ont
ĠL is
Ġro cks
Ġcogn itive
c ity
US A
ĠN ak
ring ton
r ised
ĠSch r
_* (
inc ar
Ġsens ing
ĠDir ichlet
-\ !
key word
abul ary
ovak ia
D uration
ĠB und
Ġp icks
Ġm os
m icro
ĠJeff erson
b les
m any
ĠM ade
ond e
triang leq
l ated
18 67
Ġac ute
Ġbank ing
ag onal
ĠStan ford
Ġisol ation
ĠP H
Ġs aving
sh ore
Ġimportant ly
b ane
Vert ex
ĠA aron
ĠCont emporary
ĠRog ers
20 8
ist ration
Ġb unch
P ress
or ption
Ġsaf ely
Ġm amm
ĠC incinnati
est imate
Ġsomew here
}{ (\
exp ression
ĠL oss
Ġl oud
ust ers
Ġh ang
Per formance
ur ities
p al
ist ani
14 6
ĠR aw
h orn
i S
Ġm s
R ole
p ixel
oth ic
Ġmut ation
L INE
Ġfollow ers
Ġpract ition
Ġatt itude
st eps
ĠPlan et
Ġpat ent
J ul
ĠGa uss
Ġsl ip
vis ible
Ġle x
Ġcombinator ial
Ġc argo
ĠHol land
O s
NavBar Cell
g ender
Ġsy mp
Ġinvest ments
M AT
Ġparliament ary
L ayer
Ġf riction
C AR
ĠC atherine
re ma
N odes
ĠT es
be am
Ġannih ilation
Ġh o
Person nel
ev ol
Key s
Ġh ull
Dom ain
Ġquad rup
S ample
ĠF ro
i ya
ĠC SS
van ishing
ĠG az
log ger
C arl
Ġed iting
Ġbr illiant
v or
h ind
Ġb ay
R oyal
sp ot
00 7
Ġarr iving
G reat
pos al
Ġpres cription
ĠPhill ips
Ġpre st
h all
Ġstat istic
ĠJ up
Ġadv is
pr ising
Vari able
Ġwrest ling
ĠN ormal
Ġmaintain s
Ð ¹
ced ure
Ġst rang
ĠD raw
ĠW onder
Ġmin istry
Ġenter prise
b inding
p n
op ol
Al tern
Ġsub stitution
Ġrandom ized
Ġax ial
look ing
Ġartifact s
ION S
Ġretriev al
R o
ĠNe umann
ĠSymph ony
ĠDe velop
\ @
ĠB eyond
rm k
H aving
Ġany more
Ġtrig gered
H u
ĠS alt
K M
Ġc ave
Ġb ug
Ġor al
iz on
ract ing
Ġpush ing
}=\ {
th us
Ġconflict s
ular ity
20 2
ĠL ion
Ġchrom os
or ious
ĠE T
he art
ing ers
ĠPlay ers
D ifferent
ĠB ris
Ġcam ps
Ġhand ed
ĠLu is
or ange
Ġut ter
ĠSe pt
AS H
Ġassist ed
Ġconstruct or
Ġanalog y
ĠM ick
Ġnom inal
Ġ$( {\
ĠA ur
ĠHel en
s amples
trans fer
18 79
Ġexclud e
Ġa mm
Ġb tn
Jo in
æ ľ
Ġdomin ate
ĠL L
ĠH em
Ġsh ops
Ġto urs
Ġst roke
Ġtransl ations
Ġflo ating
Ġh orn
ish a
M ah
F D
Ch inese
Stand ard
ĠWat son
Ġspread ing
Ġdef in
ĠSh ar
Ġl iver
Ġcol ony
Pl ugin
pi res
F uture
ig ion
Austral ia
Ġ Ã©
Ġt ale
Rep ublic
ĠB eth
{ -\
j query
ĠTr inity
Ġfluct uation
Ġant is
Oper ator
[ :
il o
d B
quir y
Ġpro s
alth ough
Ġaud iences
' ^
Ġsl ave
ie u
Ġref inement
Â ±
ĠO scar
ĠIn iti
z ig
ie v
ot yp
re pe
Ġun ified
Ġbar riers
av g
18 71
Ġstat ue
less ly
Ġgraphe ne
l attice
Ġsl opes
Ġtrunc ated
co e
min imum
Ġident ifies
dis k
ip eg
N OT
DE BUG
agon ist
15 4
Ġfl ed
ĠEx cell
++ ;
eyn man
Ġal ien
ĠK id
Ġan satz
Ġdis orders
c ot
Ġass ists
Ġacknowled ges
Ġminim ization
}} [
reg ation
b ay
ĠGl en
Ġspect roscopy
18 77
It s
Ġd Ã©
ph on
Ġstrong est
ĠH at
fore ach
ĠP T
Ġsee ks
Ï Ĥ
approxim ation
cont rib
ĠK err
Ġcal ib
ĠB aby
ĠS ED
ĠSt ef
ch anging
Ġsche ma
D epend
j p
Ġsuperconduct ing
Ġdistinct ive
t bl
ĠS ustain
ĠTerrit ory
L ondon
ĠMod els
Ġhon ors
Ġaddress ing
ĠR ou
out ing
Ġb ike
ĠIn surance
m ount
log y
G H
ĠTe acher
ĠT as
Ġorig inated
ĠCon v
ent i
15 6
VER SION
online cite
B u
Ġind oor
it ance
ĠBas ic
he ld
sen al
() {
Ġeng aging
Ġins pect
Ġpsych ological
ugh t
23 5
Ġaccording ly
pro gress
Conn ect
ĠM az
Ġcapt uring
ress es
. \,
l ift
cess ion
R ank
Ġm ad
Ap pro
ĠRoman ian
Ġsent iment
Ġaug mented
int eger
Ġsp ell
Ġemploy ing
w oman
Ġpredomin antly
14 8
Ġse cre
Ġlab our
B on
Ġinter f
Ġsustain ed
Ġst ret
oc o
Ġtradition ally
comb ination
ĠF err
Ġfrag ments
J ava
ĠAir lines
Sc roll
us c
ĠN athan
ĠG C
We ight
oc ur
ĠE lection
V R
15 7
ĠD ictionary
){ };
ore n
Lear ning
pr ises
assert Equal
Ġp ale
Ġprom ised
Ġfavour ite
int rodu
Ġab bre
Ġ% }
b inary
ĠCom ment
Ġsqu ee
}) \\
ĠFellow ship
ĠPun j
load ing
T X
ob tained
Ġp ec
ounc ill
T i
Ġa uth
Ġmonot one
J im
rad io
ĠMunic ipal
Ġten ure
Ġyield ing
Ġgradu ating
Ġmac ro
A rea
Ġen orm
Ġple asure
) }^{
ou p
Ġcha otic
ĠG O
15 8
Sm all
Ġlist ener
Ġdomin ates
A gent
ĠCo ach
Ġt ent
ĠCol lect
Ġpet ition
ĠG olf
ID S
prot ocol
ed ges
Ġcon form
umb ai
Ġt ribute
=\ ,
3 30
qu bit
Ġver b
16 6
18 40
f erm
ĠC ome
ing ale
ann i
Ġsome how
ac ular
Ġwar rant
Ġast rophys
Ġdim in
ĠD L
osp el
ash ing
ĠAst ron
Ġper cussion
ĠComp etition
Ġrel ates
sh ops
)} +\
x t
M apping
ĠP ont
M Hz
ox ide
18 5
Ġf ate
ats u
Ġsub scription
ĠM ik
sc apes
ĠA viation
ĠI gn
L ittle
en os
Ù Ĩ
ĠE state
h ide
ĠL isa
Ġhypers ur
ox y
ĠW IT
is ch
object s
Ġfoot age
Ġtempor arily
ĠW ag
ĠNe il
d ialog
ĠM aced
pl iers
f mf
Ġre written
Ġcart oon
28 0
Ġlock ed
Ġbel t
ĠH az
ĠR oche
lu x
Ġarch ive
Ġassess ed
Ġa est
Ġj ew
Ġsing let
bran es
ĠEn c
Ġdraw s
ĠZ imbabwe
Medal ists
ĠAddition al
ĠChristian ity
Ġart illery
ĠL ik
Ġmart ial
Ġseem ingly
Ġdes irable
Ġin ev
ĠG rad
ident ity
Ġnegoti ations
\ },\
b ol
uck et
y ang
ator ies
Ġparamet ric
Ġr ice
Ġe arning
ĠM idd
ĠS outheast
Me asure
S ervices
Ġhop ing
UT F
c orn
ĠCons ult
ĠAm y
Ġin ches
Ġst eal
Ġbroadcast ing
Addition al
j ud
b at
Ġpro gen
Ġlux ury
I J
ĠF BI
)$ :
Ġ ...,
Syn c
Ġad min
22 4
ams ung
ar ab
M u
Ġmod est
ĠAr c
Ġcl othes
ĠP arent
Ġpers u
e lected
Ġsuggest ions
ĠId ent
Z hang
Th anks
Ġanisot ropic
Ġdel ays
S pect
hen ce
ĠAp ache
ra id
G W
he ng
Ġsub spaces
vel t
Ġany way
CD M
)\, ,
ĠLapl acian
gom ery
Ġspl its
Ġmuseum s
L ab
hel m
Ġprem ium
ĠBudd hist
ĠT ed
Ph ot
Ġland ed
Ġsc iences
M ary
à¥ į
Ġaccess ed
Ġgrand father
Ġcont amination
Christ ian
ĠUg anda
Afric an
Ä Ł
Ġr itual
rob enius
ĠV eter
S a
ĠF an
lim sup
Ġshort est
ĠVenezuel a
ut f
ĠR GB
ĠÐ ²
c ence
Ġmort ality
Ġpe oples
R N
ĠK ids
T w
ĠLin ux
ern er
ĠAg ent
}} |
Ġdesign ing
isen berg
ĠK i
ingu ished
en abled
ign er
Ġa er
' },
D s
Ġbo ards
14 2
alt ies
at io
ĠCroat ia
ĠÂ ±
Ġroll ing
me as
P resent
l Vert
Ġn ic
B Y
st orage
om p
ĠSerb ian
B razil
ĠG host
)\ ;
Ġener get
16 7
ĠR ah
Acknowledg ements
Ġtrib es
ĠHer bert
Ġsuperv ision
R en
ĠL iga
Ġblock ed
Ġinc idence
P arse
% ),
commut ative
ĠR ele
Ġsum mit
Al g
Ġsh aped
... ]
b ird
Ġsatell ites
T our
Ġpredict ing
ĠS cal
ĠF ish
am ation
ĠD escription
T y
lig a
( __
cent ric
Ġ ip
Ġm arch
}^{ -\
ĠSo on
Ġsp ir
Ġbij ection
Ġfil tered
hab ilit
Ġconvers ations
ĠT ang
ish i
A bs
Ġ& =\
Orig inal
ID E
ĠCom merce
ĠP E
av i
Ġtimes cale
Ġcomputation ally
B ill
Ġrun ners
> [
18 73
ĠNetwork s
Ġdecl are
Ġperm utations
ĠCan al
ut a
K w
Ġgu ided
per ate
Ġelli pt
ben ch
Hel p
Ġp ounds
C ost
Ġte eth
Ġavoid ed
ĠArn old
app ings
Ġfil tration
TE XT
Ġinitial ization
Ġkn ot
ĠShang hai
P b
sh i
m itting
15 3
ĠAd elaide
Ġgal actic
26 0
exp ansion
Ġprov isions
S ta
ĠL ex
uff le
t uple
as ive
as ympt
Ġtype of
18 72
Ġcur ved
Ġpoll ution
ĠM eta
ĠFil ip
15 1
Ġrend ered
un i
IF AR
ĠH ob
Ġfore ver
spec ies
18 74
B ern
Ad apter
Ġoverse as
ĠForm er
Ġemer ge
14 9
ĠT ODO
Ġth rew
Ġconcert s
Ġs isters
ĠWork ers
Ġdepict s
Ġsubsid iary
Ġjuris diction
ĠT it
u ating
qu estion
Ġm oth
Ġtermin ology
Ġcosm ology
ĠR osen
Ġsimilar ities
Ġm ath
}) }$
with in
Ġdismiss ed
N I
Ġ' ''
fl ag
Ġm uon
Ġh ub
ordin ates
ĠPhil osophy
S wed
Ġmed i
Ġn ons
N F
t ags
ĠG amb
ut ives
Ġinn oc
Ġsubt le
ĠS ent
S ame
res ources
ell ers
z hou
Ġcor pus
in verse
Ġb acteria
ĠEp isode
ĠP av
Ġl ic
Ġnucle on
Vol ume
Ġcryst all
ant ed
ĠK ash
ĠCirc le
R end
Ġrecogn ised
Ġp iv
Ġun cle
Ġfoss il
valid ation
Ġmist ake
Ġhuman ity
Ġlov es
ic i
Ġp ink
ĠSu ccess
Ġtoler ance
Ġutil izing
ĠI M
ĠC over
ĠY ale
Ġtro ubl
Ġagre ements
Ġrec alled
Trans form
)\, .
ĠA ber
Ġag gressive
opl an
pm od
Ġart work
ĠAd miral
ort ex
ĠTreat y
Ġgen uine
ĠAthe ns
Ġc ust
ĠG ene
in ar
{ }{
set ting
Ġreason ably
14 1
sup ers
ĠK as
Ġind ividually
S K
Ġwor ry
tikz cd
Ġpregn ancy
Ġmin us
Ġsp anned
Ġalt ered
isher s
Comb ining
ps y
Ġcon current
inter val
B ob
agn ostic
deg enerate
Tax a
à¤ °
Ġdro ve
Com pan
Com plete
on ormal
Ġwe aken
itro gen
, âĢĻ
m agnetic
od o
18 66
Ġrelax ed
Ġc ube
Flor a
Ġpack ets
Hon ours
m us
Ġcompris ing
P ublished
Ġdiagn ostic
Ġapproach ing
IE W
Ġcivil ian
m ation
Ġend emic
L anguage
ĠCh an
ĠN intendo
Ġrom ance
Ġd ish
ĠArt illery
ĠRet riev
ST AT
bo ys
m itt
ĠM IT
ĠN um
ĠCh ang
N U
ĠK umar
Te V
Ġst uck
pon ential
Ġt uned
ĠG B
){ $\
Ġed itions
ah an
Profess ional
DE s
build er
ĠGr ass
ĠX ML
att y
por ate
15 9
Ġrev ol
ĠM W
G rand
Ġbipart ite
b rowser
)= -
Ġpop ulated
Sp an
NN s
ĠSt rong
ĠHar vey
Ġincorpor ating
t uning
Ġhon ey
ĠE D
ok u
}$. }
Pro blem
ĠSw ift
Po inter
å ®
Ġexplain ing
ĠV ery
Ġl attices
Sche dule
Mart in
ĠJ in
ak ar
ĠSl oven
ĠI E
eg al
ose x
Ġdram atically
Ġn est
uck land
âĦ ¢
ĠG ov
M ur
hand ler
Ġcardinal ity
Ġinter change
spect ral
Ġtre asure
raph ic
Ġprint ing
Ġs id
ĠD A
Ġfermion ic
Ġrem emb
Ġalleged ly
et erm
Pat tern
ĠX X
ĠT odd
EL D
ab is
ĠY a
) &=
az i
Ġdiscret ization
22 2
Ġcompat ibility
Ġbi ased
Ġbif urc
op ting
ĠAng l
Ġwe igh
ĠBut ler
al ias
rel ativistic
Ġf o
Ġdegener acy
ĠSch warz
Ġn inth
ĠE ld
ĠV ict
ĠCy cl
ĠR V
ĠG A
ĠHis panic
ĠY ellow
]{ @{}
out ube
sh all
ĠSh akespeare
ĠThrough out
ĠD rama
Th ird
n od
ast ically
Ġafford able
^{- (
oper ation
k pc
re ason
Ġj ail
Ġem otions
M ale
vert ical
Ġj umps
ĠWh ich
ĠPhilipp ine
ĠS ultan
cyclop edia
ĠD eg
Rep ository
a ft
Ġmurd ered
ĠSp ot
ID TH
Ġbi ology
ĠPhys ical
ĠClin ical
ĠA ctor
ĠP ere
ĠD ennis
Ġdemon stration
66 66
Ġsquad ron
ink owski
Text ure
Ġw ard
ĠG y
Ġmultiplic ative
ĠReview s
B rowser
Ġspeak s
B egin
norm als
ĠNash ville
ĠA w
const rained
Ġodd s
Ġpregn ant
ĠM T
ĉĉĉĉ ĉĉĉĉĉ
ĠLeban on
_* \
rob ust
. ",
Ġ Ñģ
P ad
Reg istry
typ edef
] =\
Ġgather ing
ĠTh under
be at
ĠInt eger
}} /
ĠCamp us
ra ining
ĠMil waukee
{ #
Ġmer chant
ĠV ector
ĠS ales
' })
Ġprogram mes
el ia
ĠR alph
Ġf idelity
cycl ic
Ġaug mentation
Ġro uting
Ġb ills
Ġaffili ated
mark et
Ġfarm ing
Ġarray s
Ġlift ed
p seud
ourn als
ĠHug hes
" ],
ĠCre ative
sh own
-> ,
sq cup
small matrix
F rance
Q A
ĠJ ar
F N
ĠU I
ĠB ear
ĠS ey
tes y
Ġlater al
to o
ĠJenn ifer
Ġall iance
ef ault
Bet ween
Ġs ink
Ġb eneath
Ġpre t
Ġform ats
H ub
Ġcl ause
A thlet
W ater
ess a
ĠGener ation
ĠRequ est
en burg
ew ay
16 9
Ġdemand ing
ĠL amb
ĠInd ependence
Ï Ģ
Ġint rig
LE D
Ġbas elines
FL AG
\, $\
Ġbos onic
M arg
ov iÄĩ
fill draw
ĠIO Exception
K B
^ -\
w ere
Ġc ad
get Name
Ġimplement ations
face book
}: =
, -\
st retch
elect ric
S ql
ĠB ald
ĠGerm ans
Ġintern ationally
ĠK lein
Ġmark er
Cle arly
,\,\ ,\,\
ĠQu antum
Ġrect angular
ĠIss ue
Ġac res
ĠA part
st ead
ĠP eng
ĠD esc
ĠRe ed
ĠEnter prise
land o
B rown
st ars
ĠP apers
Ġdream s
ĠBrown ian
Con v
Ġel ite
Ġmake up
ĠSt atus
ĠM ari
O PT
Ġloc us
Ġsett lements
ĠD h
D id
Ġsol ves
ĠRec ently
S elf
Ġv iral
Ġinaug ural
ĠArch itect
g m
Ġexceed s
al am
Ġed itors
Ġcur s
Ġsus pected
g age
in ced
part ition
rag ue
re lease
Disc ography
Ġclass ify
\ `
est ock
Ġmorph ology
Ġper cept
p icker
W rapper
sl ice
Ġb ilinear
im ag
Ġthread s
Ġlens ing
ĠM ul
Ġbare ly
Ġsub stance
N amed
ĠD etails
ĠPen insula
Ġre q
ol ition
ĠOak land
ĠEmer gency
> ::
d h
Ġp arser
Ġinf ections
N D
arr ison
S ong
| ^{\
ant om
Ġdelet ed
Ġhad ronic
Res ources
Ġfeed ing
), $
ĠSt yle
ĠK ill
bl ank
sm ash
c ially
k j
J ud
Ġep ic
c aster
or ne
18 48
Ġell ip
Ġc attle
Ġd ans
L uc
Ġman ages
ĉĉĉĉ Ċ
H uman
Ġlie utenant
verb atim
G allery
ĠWell s
Ġapert ure
part icular
Ġmanufact ured
run ning
Prot ocol
Ġv iable
ah ler
Ġeigen states
ĠM ills
Object ive
Rec ently
######## ########
O k
Ġplanet ary
Ġaltern atives
ĠDe ut
St ruct
or ters
ig ue
ĠTh ai
00 6
ĠK ra
g rim
Ġinsert ed
ĠB ound
Ġsmooth ing
S ocket
ill es
Ġcha os
Jew ish
( |\
Ġb rane
Ġm ines
ĠSy l
Ġdesign ers
Ġins u
Ġfall en
Ġimp lying
p rior
_* $
Th ough
S election
ri o
Ġcomment ary
Ġcat aly
U k
ĠÃ Ĺ
Ġvolunte er
Ġre wards
17 6
ĠAll ah
Ġpre vention
Ġgener ative
Ġexp ense
ĠN othing
Ġall ies
Ġatt ractions
ĠAv ailable
Ġburn ed
Ġattend ance
16 2
Ġstat s
Ġg ras
ĠPl atform
Ġblock chain
Ġsub sc
Ġsurve illance
v b
ol ine
Ġwork shop
li u
del ay
se mi
ar u
ĠBob by
Ġd ys
ĠBulg aria
Ġcl arity
Ġapprec iate
Ġincl ination
Ġ} ^{
col lect
Ġvisual ization
Ġlocomot ives
ĠC B
ĠH ugh
y i
- )
ĠA u
AN CE
Ġsculpt ure
ĠH ess
Ġbl ues
b ranch
36 5
Ġindic ation
Ġport ions
ĠF oot
Ġcont ested
j ack
ĠD rum
Ġdev ast
Gener ator
ĠFil ms
ion ic
col sep
Ġrec ycl
Ġn ights
res on
Ġspecial ist
ĠA braham
prov ider
Ġfun eral
ĠAzerbaij an
rt imes
o ard
Ġas ync
up d
Ġag enda
in ites
ĠSt ri
ĠS old
plement ary
Ġattack ing
Can ada
got ten
Ġevol ving
Ġsp arsity
ĠP ent
Ġenthus i
}) +\
Ġadvoc ate
Ġper pet
,\ ;
Ġexpon ents
e lem
Con stant
ĠD y
am med
Ġqu ote
z el
ĠD P
Ġ( âĢľ
eren ced
l ived
compat ible
D a
)}{ (
Ġmore over
ĠP rec
F ailed
ĠK re
Ġch at
D etail
Ġtravel s
leg iate
Ġtarget ing
Ġre vis
Ġmer ch
Ġsevere ly
Ġirre le
ĠSt uart
\% )
t u
ĠM ario
ĠMah ar
t le
Ġt rem
Ġper ipher
You ng
Ġfriend ship
P air
18 69
test s
Ġhistor ically
}' _
ĠMet al
Ġparad igm
Ġb lo
Dan iel
5 50
H ot
Ġmer gers
ä º
Ġf atal
Ġdem olished
m ind
ĠArt ists
p ublished
ĠR C
Ġr ally
Ġpat rol
M ask
h ift
Ġanticip ated
Ġd ressed
Ġmonot onic
Î »
ac er
Ġdo zen
Ġwealth y
ĠRic ci
Ġs ubl
Ġwid ths
ĠL S
Ġemer gence
ll ll
Ġparticip ant
qu is
ĠH ousing
ap shot
w ent
Ġs its
Ġtri plet
LO CK
S ave
Ph ase
18 30
Ġair line
ert s
perturb ative
ĠD I
Ġtourn aments
Ġpro ps
ĠH av
ah a
ran o
ĠH im
observ ed
H ung
ĠB P
ĠR ena
air y
ĠCom ments
Recip ients
Ġhad ron
Ġaltern ating
Ġbuild s
st own
AL SE
Cl uster
)+ (
con sc
18 59
Ġconv inced
Ġtre ating
Ġkid n
Ġinitial ized
V ir
Ġinter fer
Ġcon greg
Ġto y
Ġsur f
Ġform ations
Ġhard ly
Ġprotect ing
h istor
ry s
Ġprodu ctions
Ġachie vement
dor ff
f lex
Ġpal ace
su cc
ĠH ab
e i
k ers
Ġm ism
EN TR
ĠGl ass
Ġcount ed
ĠAud io
H K
ĠB ak
Ġp ipe
rick eter
Ġexc av
ĠMem ory
Ġsal ary
ĠFlore nce
ĠV eh
Ident ifier
Ġfro zen
O ST
} <\
An aly
Ġdetect ing
ĠW ikipedia
graph s
g b
en ario
li ers
20 4
Ġlo ose
-------- ----
ĠT itle
ro gate
3 75
Ġdevelop s
Ġdiscuss es
}}{ {\
ĠEm ily
T reat
att s
Ġres il
TR UE
Ġacknowled ged
ĠS creen
Ġsustain ability
Ġannot ation
cm id
H op
resp ons
Ġk nee
Set ting
Ġpat ron
ts d
ĠVal ent
ag ain
l um
ĠR AF
Ġvacc ines
{ "
ĠPar ad
ĠR oth
Ex pr
ĠP ul
Ġtri ps
can onical
al p
Rec ent
ĠB ach
al is
ĠL ov
ĠHel p
Ġbus es
ir atory
ited efault
mc itedefault
ĠHer z
k now
ĠĠĠĠĠĠĠĠĠĠĠĠĠĠĠĠ Ċ
ĠOt tawa
T HE
ĠR ams
SS M
ĠWinn ipeg
Ġg amb
aur us
normals ize
ch oice
ĠB L
Ġval ign
m os
Ġcro ps
rypt ed
Ġreserv es
Ġevery day
Ġret rieve
ĠSim ple
bro ok
ĠZ ero
dis crete
ĠChap el
' }}
Numer ical
ĠDr ug
ĠNor folk
p ub
=\ !
âĢ¦ .
ĠDen ote
Ġpreserv ation
Ġco at
ĠPar al
ĠAbb ey
ĠK ind
Ġsub mission
he alth
Ġfl our
T s
}) _
arch ive
Ġbar rel
Ġphon on
ĠE E
Ġdecor ated
Ġp ist
Ġm ature
Ġden omin
ig g
id uc
ose velt
ask at
á ¹
ĠC lear
Ġ$( -
Ġd ash
Ġpl aus
Ġresid ue
)}\ ,
}$ \,
Ġreflect ing
atter y
\ (
Ġrecurs ive
Ġb esides
cmid rule
ĠAn cient
P ubl
Ġj e
Ġavoid ing
K h
min a
99 9
abor ation
g iving
ott ing
enc ia
ĠAng lo
Ġd rain
ĠBy zant
Ġbank rupt
Ġoff line
ĠEm ma
t ick
Ġun em
C u
min imal
iv odes
ĠG ilbert
Ġtrans c
Ġbi ases
Ġun ions
AT ED
Ġn ested
ĠD ame
Ġtra iler
ĠHerm itian
Ġim perial
Ġrecur rent
B road
ge ometric
}} ]
Ex perimental
j b
Ġch ances
Ġimp ression
P ATH
ĠVen ice
F ramework
ir cl
Ġfor wards
ast ics
R ot
v ac
ĠS Ne
ĠSy rian
Ġ{ '
bal anced
M aterial
osoph ical
- }
S equence
33 3
Def unct
\\ \\
rig ger
Ġprevent ing
Ġm u
Ġwere n
Down load
con clusion
at able
L imit
est y
ad r
cer pt
ĠPeters burg
." );
a q
Ġret ro
hent ication
friend ly
Ġst ays
Ġsu ited
ĠFant asy
Ġen roll
ill ary
ĠC raw
Ã± a
Ġ_ .
Ġequ iv
Ġpath way
h agen
Ġab ortion
Ġph ones
ins ki
Ġaz imuth
ir med
Ġalleg ations
Ġstrugg ling
Ġcirc ulation
k le
Ġthr iller
Ġsax oph
ĠThe od
Ġcount able
Ã¡ s
g art
Names pace
Ġsw ing
Ġscre ens
ĠStr ategy
B ottom
ĠHe brew
Ġline up
Ġmer ging
Ġl ig
ok o
X iv
Ġp aired
00 8
et ric
Ġse vent
ert on
Ġoverl apping
Ġen v
ĠPer iod
und efined
un ting
Ġdefend ers
Ġhead ers
Ġen force
ta ur
ĠTh an
Ġrig orous
re b
ĠR achel
Ġpers istent
pol ynomial
unt ed
ĠV e
ĠTre k
ĠPro ductions
| $,
qu art
Ġeditor ial
Ġval uation
head ers
s sec
Ġsymbol ic
Ġattack er
Ġadm ission
Ġheur istic
Ġconcept ual
ide al
ĠN otes
Ġm ood
d dots
p arser
n at
U ES
)} -
Ã ī
ĠG ust
Ġchalleng ed
Eff ect
\ ;\
ad dition
Ġex ports
Ġmet als
dec re
cccc cccc
ĠChel sea
ans k
opt ional
Ġeigen vectors
Ġh int
P V
ä »
2 13
e ur
pre ceq
Ġcre ator
Ġform ulate
ourn ey
}^* $
he imer
ĠO K
Ġcomput es
Ġlif estyle
Ġconstitution al
Obs erve
Ġdis established
Rem ote
Sh are
ĠSt okes
prob ability
Ġd ancing
ĠN ancy
18 57
ĠJul ia
wh ose
uz zy
M ove
rac es
ĠSol utions
nt hesis
ic ia
}) ]
R ate
Ġtalk ed
ounc ing
Ġsup erm
Ġor che
ov sky
ĠLeon ard
as ury
Ġinf antry
Ġprov inces
Ġcar riers
Ġpur ple
N ET
DE F
Ġrot ate
Ġadminist ered
C art
Sym fony
ĠTy ler
rele ased
Ġlabel ing
unc an
ĠE sc
Sp in
ield s
ĠFa ith
add y
M ex
l it
add ed
ĠS qu
us hes
Ġfl are
Ġ\ ;\;
ĠS ets
t abl
V an
Ġh olog
O l
Fl ag
ĠGro ve
Mus ical
20 3
Ġansw ered
found er
Ġs ulf
Ġb rackets
ris k
Ġcomp rised
met adata
Ġn ose
tain ing
Pref ix
ĠInt roduction
T yp
Ġexcept ions
zy me
R G
ĠS oci
m tx
ma ven
d yn
ĠIn cre
row ave
ĠSe bast
Ġtor que
ivodes hip
j unit
ĠS ierra
St ats
Ġjud gment
Ġhar ass
I gn
uss els
ĠM umbai
ĠY O
C RE
ĠInd igenous
ĠLand roid
Ġfavor able
Z ero
t ol
a uc
as sembly
im o
Scott ish
former ly
ĠF E
Ġro oted
Ġr h
ern ess
ĠIll ust
Ġirrele vant
)= -\
Ġupd ating
P ac
'' )
? )
Ġflow er
r Vert
ĠAb stract
ĠUE FA
Ġl obby
Ġmark ers
m ust
I l
ocol ate
ĠMe eting
Ġa viation
ah l
Ġgain ing
Â »
2 11
ĠG ang
ĠIn ternal
Ġprec ip
Ġposit ively
Mean while
ĠTib et
Ġcon ce
Ġwild life
Ġsub sequence
sp here
ĠSp encer
Ġpresc ribed
p k
ĠC W
rest rial
Ġanth rop
w ould
Ġ$ +
ĠLe eds
ĠR aid
ĠD S
ĠSing les
ĠBroad casting
ĠAN Y
uls ive
[ ->]
Ġout going
ract ive
Ġmar ry
ĠF at
}}( {\
I AL
og on
}^{ {\
Ġindex ed
ys on
ĠSI ZE
r ific
ĠBat man
27 5
Ġrend ering
ĠR A
âĢ ¯
sh ots
Ġsm oke
F ocus
act ers
am pton
Ġmyster ious
ĠV ision
ap prop
ne um
Ġsp heres
od ium
cy l
n ai
ov al
ĠNorth west
Ġqual itatively
Ġlink ing
Ġesc aped
el ong
ĠR s
fil ename
ĠAd venture
ĠAl ger
analy tic
. <
Ġa thlete
ĠIs rar
1 200
Ex pl
re ne
ĠP aram
Con sequently
UR I
ĠHen ri
Ġp ub
æ ĸ
Ġre nov
ĠK K
Ġconst ructions
Ġaver ages
Ã¼ n
Ġxml ns
ĠM ine
Ġinf lam
ĠLead ership
f ail
tab s
Ġcon vey
im ony
ch air
andid ate
Ġob s
Sh ould
Reg ular
ĠE ar
E r
Ġo mit
pe red
Ġgl u
eg an
Ġbi ography
Inst ead
Ġst olen
by e
ĠLuc as
Ġspont aneous
Ġthere after
math ring
Ġpsych ology
| +
Ġtour ist
ig ator
En um
Ġy ard
Ġdrop ping
ĠF P
Ġd ying
Ġback up
Ġalt itude
enn ial
ress ions
ĠProgram me
r ators
d ip
list ing
ĠCap itol
Ġcryst als
ĠV illa
Ġal arm
V S
c as
AR E
st re
Ġstay ing
ĠBir th
atin um
ĠR ole
Ġsm oot
Ġpec uli
L B
Ġexplan ations
ĠR NA
Ġdynam ically
ĠSocial ist
C ov
s il
ry pto
different ial
/ {
Ġy esterday
Ġarg ues
c amp
im als
pl oys
ĠAn imal
ĠR ules
Ġexec utives
ĠVo ivodeship
h istory
Â ½
ile vel
Ġen larg
N AS
L F
r ational
Ġw orn
ill on
Ġcur riculum
Ġc rossover
ĠL STM
Ġgard ens
ĠS Y
n ice
in en
Ġal umin
Ġle agues
ip per
clud ed
Ġball ot
ĠLet ter
Ġcommand ed
ist le
P rom
ad just
ov an
ĠCommunic ation
R am
gener ic
ĠIsa ac
ĠEdd ie
2 12
Ġdeliver ing
C irc
Ġback ed
ĠRes Net
ĠA bs
ĠPers ian
Ġent angled
Ġfif teen
J P
ĠF W
Ġident ifier
Ġthrough put
Ġaff air
ĠHar old
At l
ĠIda ho
z ens
Ġe rected
20 6
rac ing
ĠWall ace
W ait
ist ered
ibr ations
Ġt ap
ĠA uckland
Enc oded
Ġic onic
Up per
g lyph
ĠN u
Ġexpans ions
ĠB ent
sc ience
ĠCurrent ly
is ol
Ġbr ut
Addition ally
ĠS or
Ġn p
ĠAn a
Ġv in
n om
ĠF oster
Ġc inem
part s
uit ively
inn ers
Ġport al
Ġorth onormal
comput e
ĠDise ase
H ouse
Ġauthor ized
cu ador
&& &&
Ġrefuge es
0 11
Ġf n
N s
C red
Ġn ond
Vis ual
Ġearth quake
ĠSer ver
ĠCard inals
16 4
Ġlo ans
Û Į
Ġretriev ed
im on
F ollow
u id
Ġto uring
Ġment ions
EN SE
ĠF ighter
Ġdest ro
w i
ĠR uth
Ġgrad es
A X
pe ak
c ourse
ĠPaul i
ĠDec ision
im edia
Ġchap el
ĠCh oice
Ġtrans cription
ĠInter view
100 00
Ġen rolled
ĠS weet
f its
ĠClark e
Frag ment
Ġle ar
check ed
Ġthreshold s
ĠArmen ian
Ġcomp ares
ĠFran co
pow ered
ap unov
Ġdoll ar
w y
od ec
Ġex empl
H ave
Ġ( ).
Ġco ordination
high light
as ync
ĠT at
Ġstep ped
Ġkey boards
Ġnation wide
Ġtele phone
}) -\
ĠSud an
ĠB ears
ĠIn stitution
D rag
ĠP erm
ĠHop kins
Ġl unch
Ġque en
sign al
ĠAct ive
ĠG or
du ces
let te
play ing
Ġmod al
Col lege
Ġsuscept ibility
ĠE W
att ention
ĠR ol
- ,
H aw
ĠGab riel
ath i
ic her
n ick
Ġcom plications
ĠD aw
up les
ĠESP N
Ġsh ar
ĠCom plete
comp ress
Ġmanip ulation
Ġ$< $
ĠEag le
Ġlog ging
17 4
Ġdegrad ation
Ġsort ed
Ġthr one
16 3
ĠRe act
B ra
v ation
ĠS ang
un ar
ĠM ob
Ġbe et
The ir
s ix
Ġ ~~
Ġproceed ings
sm ith
âĢ¦ ]
Ġrele asing
ĠWood s
Ġelabor ate
P relim
ĠJo an
Ġelim ination
Ġw ishes
j ango
Ġbreak down
Ġar cs
Ġsem if
Ġextra ordinary
et imes
im an
R P
ĠCon struct
equiv ariant
fe atures
ĠA A
ĠAdvis ory
b org
ed i
Ġjust ified
Ġfail ures
Ġf ighters
Ġ= ========
ind ices
Over all
ĠRod rig
ĠO P
Ġjournal ism
Ġsystem atically
Ġstri kes
ĠD epend
Cent er
Ġenorm ous
Ġre lying
ĠFour th
Ġl ith
ĠCom edy
Ġviol ations
Ġ( {
Ġfant astic
Ġlegit imate
Ġdef ender
Ġscal ars
ne ighbor
tr uth
Ġcollabor ative
ĠPro b
Ġinsu fficient
ĠMont gomery
Ġtrav elling
ĠPal mer
ĠLat ino
s afe
ĠS K
um m
int roduction
Ã¶ n
3 25
18 58
ĠHe at
6 50
c C
p ole
Ġown s
Ġbelong ed
ĠLiber ty
D U
L java
ĠN LO
id ays
CO M
Ġdrum mer
c A
Ġdraft ed
Ġto mb
cor rect
Ġencourag ing
n ut
Ġprog ression
J on
Ġneighborhood s
Ġhal os
}\ ]
hed ron
f urt
F n
Ġdis par
Ġtem p
sw ick
ĠAm endment
Null able
ĠE t
Ġstand ings
Ġwarn ed
ĠCol umn
Ġsyn tax
Ġprevent ed
Ġbur den
ĠCor on
Ġtend ency
con serv
Ġfis cal
ĠChe ster
Ġtunnel ing
Ġun bounded
Ġso vere
ĠLe ave
Ġelectron ics
R M
ĠCond ition
Inter val
Ġi OS
Ġsoci eties
Ġconfir ms
ĠD anny
disc ussion
n ell
ĠT ong
og an
in as
Ġshel ter
ĠE ight
der ived
ĠI SO
0 25
us a
ĠPed ro
Ġt ile
Ġmot if
}] ,
y g
S creen
Ġinf ect
ĠBro s
and ro
w u
Ġsett le
ĠArgent ine
ĠGreg ory
ast ed
Ġremov es
h c
Ġcl an
Ġwarm ing
Ġsh ifting
ĠCon cert
ĠPo incar
ĠO g
unt ary
ĠB av
40 4
Ge org
or f
Ġd z
Ġl ane
m apping
Ġ" [
Ġatt en
Ġmac roscopic
Ġin ad
d w
Ġdat abases
hig her
Ġs ang
charg ed
re duced
Ã© l
Ġg ymn
Ġdemonstr ating
oc ene
UN D
Ġmut ually
(\ {
Ġbeh ave
ott i
ĠS of
ĠM ull
Ġto ll
p her
Ġre conc
ĠBenn ett
Ġresear cher
Ġp ending
Ġsp ite
Ġbas in
)( -
ĠF ROM
c ool
Ġun fold
Ġperturb ed
ĠN AME
pre ced
h on
Ġcan on
ĠPr ison
Ġc of
G er
und a
d ou
che z
imod al
ĠG em
Ġfood s
Ġdivid ing
T urn
ĠAssum ing
18 55
Ġper f
ĠLand au
ĠS ize
j ee
az ar
ĠPan el
S port
âĢ ł
cal c
Ġfilm ing
}{* }{\
ĠMathemat ics
or ic
og o
ĠNew castle
ĠRo osevelt
min ster
anc ers
Ġlif ting
ĠWild life
Ġ ];
ĠMaterial s
Ġsepar ating
18 54
Ġbe aring
pre p
ĠHar per
n h
Hen ry
Ġblock ing
Ad S
res a
ere rs
Ġminim a
R AN
u pe
U ri
18 4
ĠBet ter
cor related
B ERT
d ra
c x
ĠS Ã£o
Ġinter pre
Ġsc ar
ĠD oll
St age
ĠW E
erv ous
ĠL ac
itte es
R ender
Ġw ore
Ġbl ur
stit uting
ĠPract ice
Ġl ady
Att r
Ġsem ic
Ġimplicit ly
m h
che t
ĠDisc overy
he x
Ġ" ,
Ġpredecess or
ĠĠĠĠĠĠĠĠĠĠĠĠĠĠĠĠĠĠĠĠĠĠĠĠĠĠĠĠĠĠĠĠ Ġ
Ġkill er
Ġrel ocated
p it
d an
Ġsy nonym
Ġre organ
Ġvol leyball
cre ated
leg end
Ġpiece wise
Sc ience
Ġr amp
K er
y on
'' '
ac ional
ĠH odge
Ġevalu ations
p ie
ĠQ uality
Ġexp enses
Li u
A ff
Ġrefere e
it ars
ĠT ry
ĠGard ens
Ġan ch
fill ed
MOD ULE
ĠR G
Ġpil ots
r ink
i ological
Ġcon spiracy
m eter
Ġre un
Ġsav ings
Ġ\ }$.
ee k
im ization
Ġpric ing
Sk ip
/ "
ext ra
s ocket
Ġr ises
Ġgovern ance
18 7
Ġk iss
ĠDe cl
Ġcomp ressed
OR Y
ĠSum mit
B esides
Ġf ung
ine es
Ġchap ters
ĠÃ ģ
et e
Ġannot ations
Aud io
ugg ed
qu oted
Ġchar ter
Id entity
Ġindic ators
ĠKe ep
Sec ret
Ġdeleg ate
Ã ½
M IN
F B
b rak
Î ¼
A h
Ġfore ground
eg el
Head ers
å ¤
Ġf ru
å ħ
ĠO w
Ġcou p
ĠMarc us
ĠNiger ian
Ġsize of
Ġdecl aration
Ġm a
ĠR ather
Ġintu ition
ĠAcadem ic
Ġcalcul us
ark er
n r
18 8
Ġf ires
ĠO z
17 2
Ġassign ments
ĠC riminal
ĠG AN
comp iler
f o
k el
Ġexpl ores
Ġphys ic
ĠBel ow
ĠEthiop ia
Ġc iting
Ġpl ug
ĠU TC
ĠCong o
m ixed
Ġhom eless
W H
ĠT ick
? >
ĠLapl ace
hold s
ĠGib bs
Ġrememb ered
Ġw ars
C apt
ipl inary
m ons
Ġret reat
ĠEm ploy
R D
ĠCE LL
}' \
S ar
}= {\
Ġcook ing
A mb
Ġst ocks
ens itive
ĠTr uth
ateg or
ĠRay mond
p unct
Ġshould n
Pe er
ĠL ip
Ġle mm
Î ·
p ure
c X
Ġfle w
ext end
Ġfore ach
Ġfol ks
an ch
Ġunder graduate
Ġlet s
Ġre pository
if def
L Y
ĠHar bor
ĠTom my
G ui
I Z
th r
Ġdead line
p el
ho ff
fact ory
exec ute
ĠM Hz
Ġmark ing
Ġco h
sh are
Ġheter ogeneous
o S
ĠG and
N V
Ġsh ocks
Ġsup rem
Ġdescend ants
Ġdifferent iation
Film ography
r ases
Ġresidual s
C AL
b ys
Ġsw ord
\, (
pro duced
Ġb icy
17 1
Ġl as
Ġtechn ological
Ġ[ ],
Ġh ills
ir teen
es ters
Ġby pass
ri ent
ĠColumb us
Ġprev ents
ĠL oad
Ġse ver
Ġround ed
ĠT elescope
Ġpuls ar
Ġre bell
Ġreveal ing
Acknowledg ments
uis ine
Ġpar as
ĠBel arus
App lying
v ens
ĉ ĠĠ
S om
ĠV otes
ĠSol id
ĠH TTP
Ġshell s
Ġcondens ate
ĠDe al
Ġc tx
spect or
I rish
ari um
ibl ings
ç Ķ
Ġl ob
Ġin set
Ch ris
th reshold
ĠN ine
Ġep it
E ll
Ġpos es
Ġsuper position
ĠP sy
T ech
Ġpit cher
ĠGu ild
M ETHOD
q a
Â ·
ĠI ter
ĠW id
def i
Ġtr ivially
W estern
ĠS witch
ĠS ullivan
ĠV ers
Jose ph
Ġst y
20 9
}\ }_{
ĠJul ian
ĠB oltzmann
, [
j d
ap a
21 4
gl ass
Ġnever theless
ĠOther s
ĠH i
Ġaccount ed
c O
ĠASS ERT
30 4
Ġc emetery
al one
ĠBris bane
cap s
Play ers
pr us
ĠB anks
Ġim posing
Ġstre ak
Const ants
Ġtheore tically
/ _
un ate
ĠL iv
names e
ĠW R
23 4
z ip
pe x
t racks
}_{ +
condition al
Pr inc
P ic
Ġt ilt
Ġre forms
20 7
ĠInvest ment
å Ń
ĠT M
17 8
ĠEx perience
Ġtrib ut
Ġanxi ety
ĠR af
18 56
Ġcomm ute
ĠKn ights
0 12
Ġlegend ary
Football ers
Ġ( #
Ġselect or
ĠTechn ologies
en vironment
Ġtreat y
! )
outhe astern
ĠH arm
Label s
20 24
}} ^{-
× Ļ
Ġc razy
ĠDi ocese
Ġconcent rate
Ġdeb ug
Ġn inet
ong o
ĠRe id
ĠJup iter
{( -
ĠHal f
Ġint elligent
Ġvacc ination
ident ified
bor o
ĠN umer
Ġle an
Ġlogarith m
Q R
Sp ring
od rom
Ġsur pass
box times
nd ef
for th
ber y
ĠSc i
Ġinstitution al
> ()
lass ical
ĠCh arg
$ }.
er ie
Ġsl ots
ĠS EC
Dist rict
g p
Ġd eta
C ounter
exist ing
ĠInd ividual
Ġdem ocratic
Exec ution
Ġheli um
Ġpl ugin
F oot
ĠM illion
17 7
ĠN urs
Ġce ased
ASS ERT
web pack
w yn
ere k
ĠM om
ĠW alt
ac ency
ĠWe ather
Ġcapt ion
Ġp ig
ĠR us
ĠSpe aker
Ġtox ic
le af
Ġtime out
b ary
Ġtim ber
D rop
Ġachie vements
Ġsatur ated
ĠIniti ative
emph is
ĠStock holm
ĠP rest
2 15
R ivers
ĠIn side
Ġra ises
att ing
phys ics
) <\
Ġcre am
Ð° Ð½
T IME
ĠPark s
ĠMus ical
st en
ce iver
ĠCour se
Ġ um
ĠN g
Ġ il
Ġt x
ĠCor p
bo at
ĠT ampa
ĠA chie
set counter
', '
Ġsl ide
Ġweak ness
Ġtransmit ter
Ġbatter ies
ĠS ic
ĠN ott
)\ |
d ers
lik elihood
Ġn umbered
ĠRh ode
Ġ ul
ĠJ S
Ġbe ars
Ġrevers ed
ĠE ye
St atic
\, ,\
iling ual
ed o
Ġparameter ized
Ġf ifty
< !
mod es
s chool
Ġre built
Ġe gg
ĠL if
Ġsupers ymmetric
stud y
}} },
ĠSe ctions
Ġtransl ates
ĠK in
At ta
Ġpick ing
ĠMerc ury
ath a
ĠChar acter
Ġclass ifiers
is che
loc ks
Ġresol utions
le arn
ps line
ing o
Ġtrunc ation
ĠStart ing
">< !--
Const ruction
j ournal
ĠCy ber
m ov
Ġse cular
18 52
Ġfin ishes
Ġpract ically
ĠWars aw
Ġl ighter
min o
Ġformul ae
Ġem peror
Ġpers pectives
F K
m oz
Ġ( -\
ĠN as
inf all
A st
Ġv ig
Ġauthent ication
incre asing
ĠH ttp
ĠML B
4 000
Ġprop ri
he at
Ġo wing
un ks
neut ral
rif ice
Ġsport ing
× ķ
Ġt ier
ĠF ul
18 49
Ġ" -
Ġ æ
Ġhous ed
Ġdis advant
Ġconf erences
Ġaccept ing
yl an
ĠDer by
Ġare na
ĠPet e
plan es
Ġappropri ately
ĠP icture
') );
Ġc rim
ĠC inema
Ġpro c
Ġsong writer
ĠR R
Ġsc andal
ĠErn est
Ġfib re
Ġt ram
id y
Ġpe ers
}= (\
Ġo w
L ibrary
om ers
ound ing
sing ular
ĠLore n
Ġdecom posed
ĠP ink
row e
Al t
< <
ĠP ain
nt hetic
ili ation
ĠArch bishop
imens ional
G EN
Ġv ow
Ġplay wright
ĠYank ees
v p
ĠI BM
ĠYuk awa
Ġscr atch
Ġfurn iture
Ġf ut
Ġso ap
ĠR ice
new page
" ].
Ġl uck
ĠVlad imir
ib a
}) _{\
Ġhum or
z t
ĠRec ent
function al
16 1
ho o
Ġmin eral
Ġatt r
Ġsett lers
ĠHy per
rot ron
Ġw rapped
3 40
ĠEv olution
Ġh ung
Ġenc ounters
Ġunsuccess ful
Ġsp ans
ig rant
Compan ies
Ġb out
es ar
ĠS askat
Ġtrans fers
Ġdwar fs
D G
ĠBer ry
ur bs
em er
Ġover flow
Left rightarrow
$ },
Ġc ant
s om
D b
ĠHol mes
Ġre dd
Ġ[ (
ed ly
ĠA j
Ġneighbour ing
Ġadvert is
ov ic
0000 0000
ĠAmb assador
Ġw age
st roke
erc ise
Ġsh aded
am oto
ĠS B
ring e
Ġsurprising ly
Ġtrav elled
Ġhop ed
ĠTas man
l inks
oc cup
ĠK illing
Ġtrust ed
Ġconvent ions
Ġad verse
sp arse
Part icip
Ġinc umbent
ubb ard
Ġem it
att en
ĠAct ress
Ġtr ump
Ġdi abetes
Ġpat ri
Ġ{ "
ĠS USY
rom atic
Ġfun ctors
is ible
ices ter
Ġviol ated
Ġple ased
Ġoverwhel ming
Ù Ī
nd um
Ġdiv orce
and ez
Ġadv ised
enc il
L es
ĠU ntil
prec ision
ah u
F red
Ġmet abol
ĠAng els
ac iÃ³n
Ġhot els
ĠHard y
P UT
ĠE du
av ian
m om
al tern
18 9
Ch art
Ġprot ons
mat r
Ġw are
ĠF T
Ġinf inites
Ġintu itive
ĠG ren
Ġe ject
=" ${
Ġexhib itions
ĠMot ors
Ġpione er
S ide
ĠK rish
ĠSecond ary
ĠS urg
Ġwe ird
mer ge
ĠPer haps
el ike
structure s
\ &
am as
4 80
fl ush
Ġtal ented
S ite
ĠAl pha
With in
ĠAL IGN
}[ (
Pass word
Ġident ically
Ġperman ently
ch rotron
q w
T rad
hel per
Ġpray er
act ory
co herent
v ct
ĠGra duate
ogn ition
ett es
vis ual
Ġh ind
Ch arts
ĠMc L
Ġat tained
ĠK yle
ĠCh ase
Ã¶ r
om ar
vari ables
ĠPaul o
d iam
poss ibly
ĠIndones ian
ĠAssoci ate
ĠK or
Ġor n
); \
bor ig
ĠHamb urg
_{ *
Vis ible
Ġde alt
the m
Ġup set
ĠWar riors
c ub
osp heric
Ġch lor
st ed
Ġcan vas
18 51
Ġdesign ation
ph rase
ĠPal m
Ġadvers ary
And rew
ĠE g
Ġfrag mentation
30 1
ĠWell ington
ĠCle an
Ġin jected
ĠSur v
8 50
D eb
Ġc ricketer
acknowled gments
Ġvirt ue
oper ative
Ġbul let
b ons
b eck
r p
bi as
ĠZ ar
W ashington
ĠLe vi
index Of
EN TS
Ġund ers
Ġem igrants
R aw
Ġl ang
'' (
ĠR isk
An imation
as ets
ok i
Ġsurviv ors
ig i
ff ff
Ġ? >
) ^*
Ġp unk
M ountain
Ñ ħ
Ġren owned
ĠJ ets
J ournal
Ġsur ge
Ġl akes
ĠV II
ĠN ATO
ho e
Point s
à ´
Ġdemand ed
Ġas h
Ġext inct
23 1
Ġab oard
ri ans
Ġlog ger
Date Time
Ġreg ards
re li
Ġb orough
in ters
olog ic
17 3
run time
Ġmem oir
Ġmut ations
Ġmand atory
it Ã©
Ġthrow ing
Ġdipl omatic
Ġb acter
ĠT X
ĠBit coin
Ġex otic
}| $
INT ER
Ġor acle
oy le
f u
Ġd ining
Ġrecip ients
Int erest
Ġgra ve
ĠRev ival
disc uss
( @
Ġg aug
ract or
ĠP and
RE S
D utch
N eg
ĠBrook s
y t
Ġfar ms
iduc ial
qu asi
Ã© r
ne apolis
ĠBulg arian
T a
l ibrary
ff ield
Ġless er
W ord
ĠLeg isl
R h
rad iation
Ġpol ym
ĠÅ ł
ol ith
gra ined
Al low
SC R
Ġn itrogen
ĠSh are
I r
F eed
ord ial
Qu ant
[] {\
i encing
Pro gress
\ }^
Ġemploy ers
Ġab st
18 47
orm s
ĠEll is
RE Q
Ġsl aves
up id
ĠArm ed
ĠC ategory
Ġreal izations
ĠB uy
ĠW ait
Ġang ry
Ġcere mon
}\ !\
v ir
Ã ¯
Ġopt s
mod ified
Ġter rain
Ġval ence
Ġorbit als
Ġpro poses
label s
dot sc
Ġfor ty
Ġrank ings
ced es
Ġwork shops
Ġdiagn osed
Ġathlet ic
vio let
ĠIN TO
ĠKer ala
J y
[ [
ow ers
20 30
ĠB rain
Ġdef ended
AR CH
Ġcomp iler
ĠEngine ers
Ġap pl
Ġdis ability
PO ST
Ġcl one
Ġrecur rence
ĠBrun swick
Ġland mark
ĠEvery thing
Ġdisappe ared
any on
cd n
ĠTw enty
Ġpossess es
ĠP f
Lou is
i pt
ĠH ir
ĠW W
ast ro
Ġver se
ar re
Ġro ok
Ġprom ises
Ġrot ations
ĠJere my
Ġextrem al
ĠCom pton
Ġem ploys
me ans
Ġimp ressed
time out
ĠBi ology
habilit ation
ĠCon text
ĠC ool
Ġrepro duced
iat ric
Ġdet erior
Ġgl obe
Ġgeomet ries
Ġrenew ed
v id
ull ah
duct ive
ĠAdd ress
Ġbu f
t rad
ĠPro perties
nav List
ĠPublic ations
= |
ĠB rid
ĠH z
f red
semb les
Ġplate au
EE EE
a very
ĠV a
g lu
Ġassemb led
em ia
ict ions
Ġdet ections
Ġcho oses
ĠM aking
Ġfac ial
ĠF lying
ĠL ak
Ġe uro
andid ates
ĠM inkowski
C as
Y Y
Ġtransp arency
Ð ±
con sole
Ġimm ers
D ictionary
Ġtem plates
oc om
oy age
Ġreal m
Ġjust ify
ĠRena issance
Ġf uck
aw i
p ages
ĠB B
}) /
ĠDav ies
0 15
Ġvers a
comple t
ĠUS D
i ating
Plan ck
im i
p ark
y en
Ġcivil ians
Ġna ive
v on
D elegate
ic ator
ĠOr lando
Ġrid ge
G od
um ble
ĠAll ied
ur as
Ġinduct ive
ĠTheore ms
Q C
ĠT iger
ĠS ometimes
$. \
IM PORT
op pler
Ġchar m
am ous
Ch ief
ĠA ub
ram id
ĠCl ient
Ġmet ast
ĠPo etry
ĠAngl ican
INS ERT
Ġinter ventions
ogen esis
ĠA ve
pre vious
Ġ[ ...]
med ium
Ġtransport ed
n ative
ĠH I
whe el
ĠL akes
A u
22 8
ĠExcell ence
ĠB ened
l icens
st ability
ĠI SM
tan h
} &=
ex periments
B uff
ĠChem istry
) &=\
in ous
ĠN H
Ġint ensive
ass ign
Ġsatisf action
aff e
ĠH M
Ġc s
S ound
Ġperform ers
Ġ= ======
Ġexpect s
Ġsupers ymmetry
up ta
Ġg a
ĉĉ ĠĠĠ
K it
18 3
å Ī
Ġ\ ;\
Ġmat hematic
Ġsnap shot
ĠSw an
dat abase
ĠSc ar
2 16
Ġtra its
OR M
E mb
â Ĩ
Den ote
Ġsub urb
ĠS ession
Ġcle ared
Ġre vision
Ġf ame
Ġ }^
ĠP U
Ä Ļ
On line
ĠS uff
ĠPlay Station
Ġkilomet ers
Ġr uler
Ġeth n
plet ed
consist ency
ĠM atrix
ĠDes ert
ĠDur ham
Ġcong ru
Z one
Ġad opting
agn et
ub ern
desc ribed
Ġnovel ist
ĠFact ory
Ġc ig
Ġincred ibly
ĠPalest inian
ĠP or
19 3
Ġpeculi ar
ep per
Ġexplo ited
Ins ert
ĠL or
ĠK arn
sign ature
ag g
Ġpay load
f ine
ond s
Ġhold er
ĠDist ribution
T er
Ġto ured
Ġdis band
ĠOut put
}) (\
ĠHop f
Ġaccompany ing
c F
ĠG rowth
Ġk a
el ic
all a
ĠK aren
Ġemp ire
ĠManu el
Ġobst acles
ĠN uclear
fil m
T B
Ġun supervised
Ġworld s
aj ax
ĠS ale
ut z
Ġmod elled
Ġperm its
Ġb ell
sub script
Ġs ung
W ood
Ġend points
R ic
at em
ian i
Ġt enth
Ġwithd rew
ĠA ra
en es
Ġmiss ile
chi ef
ĠTo o
ĠO wen
ant is
Ġfound ers
Ġpart on
Ġ }.
on so
23 8
K P
ĠP aint
Ġcoll apsed
ĠG ol
)/ (
ch at
Im ages
dom inated
Ġresign ation
ĠF ollow
ĠCom mercial
all classes
Ġshow er
AT URE
ĠMin i
iz za
ĠB od
Ġsp ike
ĠCl ose
Ġcylind rical
n k
le en
ĠPop ulation
ĠDub ai
Ġintersection s
Ġaccept s
** *
ĠC ord
Dep artment
ant le
Ġbad ly
me chan
ĠP rague
) ->
Ġb ishops
)} )$
ĠS ou
ĠHe ights
28 8
ĠCal cul
d rag
ĠS aw
found ed
Ġun lock
Ġconscious ness
IM O
Ġpun ishment
G reek
ĠObs erve
part icles
Ġstrugg led
Ġgu ards
log ical
en i
ĠH ass
Ġme al
chron ous
ĠDiv is
[ -\
in ers
Ġpack ed
}\ }
que z
e as
Ġshe ets
Ġdisc s
Ġmes ons
Ġmult ivariate
Event Listener
)\ }$
)) =\
OR K
pres erving
b age
c ous
w arning
(' /
arth y
ĠM Ã©
ĠÐ ¸
ut ers
M ike
ĠP it
ĠHe aven
Ġassert That
Ġrecru ited
Ġdepos its
opt s
ĠPart icip
Sub ject
B us
Ġevent ual
con verted
Ġhand ful
Ġs ocket
ĠAssoci ated
ĠT F
C ategories
att i
amaz on
ĠVol unte
F older
ĠO ber
op a
ell ite
ogen ous
M ix
18 2
armaceut ical
ĠDi pl
ĠC ec
ĠTh ank
ort ium
B V
ĠR M
}{ |\
dom in
Un like
preced ented
Ġgen ome
Ġforb idden
ĠD im
ep age
ian e
End point
le vard
U ntil
c ro
aver aged
____ ____
ĠStev ens
item pty
om itempty
ĠH O
Ġsubmar ine
Ġachie vable
Ġelder ly
or um
ĠBry an
Death s
n is
Ġspecific ations
Ġcert ification
i per
ĠV ert
ph ib
b k
est e
ĠB row
rid or
trans port
ĠEff ect
Mach ine
ĠC ould
ĠGal ois
F re
ĠCh ad
ĠW IDTH
Ġwrit ings
valid ate
Ġinitial ize
Ġintersect s
ĠMig uel
Ġen act
Ġlist ings
Ġl ymph
ĠFran Ã§
_+ (
ĠInitial ly
IC ENSE
ĠFried rich
Valid ation
var nothing
ro ute
ra its
mem bers
ĠAndrew s
rapeut ic
Mod ern
Ġp ap
ĠI g
Ġsm oking
Ġdissol ved
T ilde
ĠMar x
ĠArch ae
N GC
In c
ĠC rystal
ĠD ale
Ġhero es
ĠF robenius
Ġgeomet rical
ĠC IA
ĠPer th
ĠBa iley
ĠS end
Ġl on
Ġ" $
ĠMal ay
Ġcab in
ĠSp ider
lim inf
ĠComp ared
Do es
ĠNap ole
ĠF ashion
cy cles
ange red
ar is
23 3
ĠEx hibition
Ġsub algebra
Ġaf raid
ac cur
AC S
ĠBl ake
Ġmer c
ĠProtest ant
Ġhon ored
\ #
Ġcomm utes
Ġlack ing
A gg
or ov
bf series
rowe ak
ĠC FT
Ġprof ound
Ġcan al
Ġle ase
ĠÐ ½
mak ec
ĠEvent ually
ast ing
18 6
I ss
ras er
ĠPrinc eton
P ak
qu est
sh al
em bourg
ĠLet ters
ĠMor occo
mach ine
S NR
ĠForm ation
Ġconsult ant
Ġa erial
ĠC apt
Ġst ones
ĠDou g
Ġpost er
Ġred es
10 16
Ġter rible
ĠRh odes
ĠQ atar
diff erence
ĠD uncan
? }
Ġ& &\
ĠField s
å Ĳ
ĠB in
Ġdimensional ity
umber land
ĠPunj ab
Ġp raise
Ġhydro dynamic
ĠSher iff
S on
Un ivers
ers en
}^{ [
Ġspace craft
Ġambig uity
c ock
ĠFe atures
Ġwork force
Ġeffic acy
i encies
Ġdiscipl ine
Ġimp urity
m atter
Ġâ ĪĴ
Ġrem ix
})- (\
ĠRichard son
$. \\
ĠPrinc ipal
to pe
A ST
Ġf ocal
ig ating
utr ino
Leg acy
18 53
Ġ' \
Ġemb ark
Ġlegisl ature
iz ational
Ġkinem atics
Pro to
L ONG
22 7
Ġspec ifies
log in
Te X
ĠCab inet
Ġpool ing
ĠAh mad
Ġdep ths
23 2
Ġpen al
Ġce iling
\| _\
Ġfulfill ed
55 5
us ername
ĠS hen
aj i
) &=&
ess ential
ĠEconom y
E W
J un
L os
ĠC atalog
Ġmet ropolitan
ij a
Ġconv ol
end ors
op ened
st rict
ex it
ew ard
che wan
tt i
17 9
pos it
ft en
Ġsuff ix
Ġanaly tics
em ption
16 00
Ġn u
ex tern
30 5
N M
Ġ\ '
ĠN om
ĠC ork
se g
ĠAut om
ec a
path s
consc ious
Ġg y
Ġbeat en
ubb les
Ġsub manifold
orthe astern
ĠEn cyclopedia
ĠTerm s
ĠV ern
ĠH aven
ĠE cuador
ĠMil ky
} &=&
press ure
vent ional
Ġcal m
ĠĠĠĠĠĠĠĠ ĠĠĊ
ĠC ay
RE D
ĠFem ale
et itive
29 0
Start ing
) ",
K ar
c ass
f ake
$ [
ĠH S
ĠX box
Ġel dest
Ġpurs uit
ĠJam ie
Ġbre eding
Ġliter al
CL A
Spec ifically
ĠS amsung
Ġperm issions
s amp
ur ally
Tra ining
inv est
ell ation
Ġde cent
ĠCar roll
Col lect
ĠS ul
Ġmidfield er
ĠJama ica
Ġf u
Ġwhe els
Ġhand les
E val
sc an
Ġtouchdown s
ĠH yp
Ġro d
}^{ *}
ĠTun is
Ġmist akes
Ġmon ster
Ġaffili ate
y ellow
Ġdies el
UR N
isc opal
Ġopt imum
ÑĢ Ðµ
ĠN amely
ron ics
Us ers
ĠB order
Ġch ore
Ġemploy er
Ġtet ra
Ġrock et
Ġtru cks
' |
t oc
Ġstud ios
pro port
ĠSh i
ĠW ick
Ġevery body
Ġ' <
roph ic
edd y
en eg
Ġclean ing
A verage
Ġaccum ulation
v d
et es
ĠS ave
ge ometry
Ġanomal ies
we i
Ġluminos ities
o fficial
Ġn ervous
Ġestabl ishes
p ion
Ġgl ac
g ary
er i
30 3
wrap per
an z
ĠCl ick
Ġexper iencing
à¥ ĩ
Ġde ce
e ither
makec ell
bas eline
Ġmulti plied
A H
Ġt ar
Ġhonor ary
Ġplaus ible
All oc
AN S
ĠPalest ine
ĠW ant
: `
~ ,
Ar gent
Ġund erest
j ac
string s
ĠH ey
w iki
Ġback bone
l f
B inary
Ġal beit
Ġst ems
ival ent
mat ory
Ġsurg ical
Sc ore
Ġre he
ĠEN D
Ġobst acle
ĠProduct s
J eff
OM E
% "
cl iff
& +\
Ġkill s
Ġcry pto
Ġd ad
ĠSh in
ĠOut standing
ut orial
ĠD as
ĠN ames
Ġresemb les
Ġ Ø§
ĠIndian apolis
ĠPop ular
na issance
Ġf ingers
ĠNot able
ĠLeg ion
ĠHind i
h size
00 9
ĠT all
run ner
ĠI sh
ĠF ramework
SE LECT
ĠLind a
Ġcontext ual
) })\
Ġt ong
d uration
Ġcare ers
B ind
T aylor
g c
Ġal i
Ġanalys ed
Ġtri o
Ġwork flow
Ġqual ification
d ynamical
intend ent
ĠC i
Ï ħ
om ical
ĠP orter
ĠByzant ine
mont on
Ġearn ings
22 3
ĠAr ctic
Ġb ab
st ri
Ġun anim
ĠCom parison
gl ob
p ubl
p ars
ĠH ack
Ġframework s
40 1
F ire
j in
Ġh anging
ĠW ire
ĠPro gress
Ġlaunch ing
Ġexpress ing
Ġex clusion
d eb
22 6
ĠPow ell
c ats
pe z
/ $
Ġprest igious
Ġstake holders
c ies
Ġz oom
Ġopt ically
Ġin consistent
Ġprior it
hard t
/ {\
Ġcon ject
ĠReport s
c ategories
Ġrel atives
Sing les
Dig ital
Ġstrugg les
Ġsignal ing
G erm
Ġdebut s
R oad
maxim um
sc attering
Ġgra ce
ĠK urt
ĠM otion
ĠS ame
ĠL ed
() ))
I reland
Ġ\ "
em ission
ĠA er
U pdated
ĠFl ag
Ġrow span
ĠArray List
F un
ĠInitial ized
ĠCl a
Ġgame play
ĠC ash
OC K
rac ed
Ġcul min
P en
V O
ĠR ush
Ġprof its
open hagen
Ġexcess ive
ĠEs sex
ĠBrad ley
bre ve
hal o
Ġr ifle
Ġdraw ings
50 1
Ġflo oding
] )$
p ag
ĠM M
ĠM iles
A O
J oe
N atural
ĠG E
ĠNe ural
Ġtow ers
s gn
ext ended
Ġal ias
ĠZ h
ib ling
Ġap olog
Ġatta ch
Ġn ephe
Ġpsy chiat
ĠB il
an ol
ĠS ed
brak et
26 4
paramet ric
Ġnecess ity
normal ized
ãĢ Ĥ
Ġs our
Ġemp ower
c D
ĠM atter
as aki
Ġmon oton
A sh
Ġwork place
Ġrespons ibilities
Ġmo ist
Ġto b
Ġinstant aneous
in ia
print s
ĠF eynman
all i
omet own
Ġrac ism
Ġheav ier
am ount
Id s
Ġinvest ed
cal es
âĢĿ )
Ġpri ors
V irtual
}}$ -
ĠM uk
ĠW end
0 13
Ġamb assador
Ġsil icon
ĠÎ ¼
integ ration
ow itz
pl aced
ific ates
RE G
ĠEngine er
ot ics
ĠQu estion
3 10
un iversal
mult iple
Ġabbre vi
s ocial
Ġcollabor ated
Ġim pl
Ġadv isor
Ġgradu ation
ĠPl ate
Stat istics
em ale
ĠIt em
match ing
ens ing
t body
ĠK end
Ġrid ers
ĠJacob ian
Ġt iles
o ct
ĠBi ography
ĠOrig inally
ĠO rt
if i
En umer
Ġterror ist
ĠL abel
Ġhe ated
c H
= ~
Ġp t
ĠPear l
ĠFl ash
ĠM old
get Element
) &\
id ered
ĠClass ical
22 1
Ġcomp elling
ĠKe pler
Cal ifornia
Pl atform
De velopment
ĠChem ical
B rand
ra ising
}) )$
' =\
}\ ;\
Ġcor ps
ĠĠĠĠĠĠĠĠĠĠĠĠĠĠĠĠĠĠĠĠĠĠĠĠĠĠĠĠĠĠĠĠ ĠĠ
re duction
ĠC rist
esc ence
Ġbl ame
Ġinstit ute
arg uments
Ġsubt raction
@@ @@
song writer
B ell
Ġequ ilib
Ġabund ant
ĉ ĠĠĠĠĠ
IM P
es pecially
] ))
it icians
Ġn s
Ġgu itars
Ġstart up
******************************** ********************************
ĠL il
Str ategy
Ġcomplaint s
b h
ĠDev il
f raction
E th
ir ically
ĠIn g
ĠBr ussels
stan bul
Ġpractition ers
y z
cur ves
Ġpress ures
* (
Ġspin or
ĠCur tis
+ (\
Ġdial ect
Ġb er
18 46
Ġdis rupt
Ġaccum ulated
ĠWy oming
Ġw is
Ġf s
ĠA ch
Ġ< \
add plot
Ġpath ways
Serial izer
m otion
Ġtrac ed
Ġre con
Ġn aming
ĠRetriev ed
J ones
ĠHy dro
ĠA borig
b A
Ġab normal
Ġb achelor
par box
Ġu i
Ġoccas ional
Ġen zyme
Y ang
rem arks
^ ^
Ġf ier
ĠG ent
Ġconsum ed
Ġdie lectric
Ġp ocket
Ġcomp ly
f box
le ys
s an
kins on
As ian
3 80
ch apter
Ġr g
ĠT ell
Ġl oses
k r
Un iform
ĠSt orage
Ġcasc ade
m or
Ġpro x
ĠR oot
ap est
Art icle
Ġg ig
ĠManu fact
x b
Ġspec imens
ĠCol in
h of
Ġdel ivers
ĠCy prus
ĠC IFAR
Ġrepl ied
ĠC risis
ang les
Ù Ĭ
Ġc md
| (
per cent
Ġphil anth
Ġca ution
d V
att ed
tem poral
Ġexam ining
Ġveter ans
ĠProt ocol
at tack
Ġtrans cript
Ġorigin ating
Ġlisten ers
Ġdeform ations
H erm
Ġrenew able
ĠC oun
ĠW ak
ĠM BA
cl one
Ġcrit ically
oca ust
ĠCon versely
Ġwitness ed
de composition
ĠTre asure
enz ie
J ean
[ $\
ĠKnow ledge
Ġ> >>
ĠGrand e
L im
Ġconstit utes
Ġbatt alion
Not ification
Ġinsert ion
oy a
os ion
ĠMc Donald
c ue
EEEE FF
ĠT ik
ĠC areer
Ġunder went
Ġlock down
ĠB ERT
big wedge
ĠIs ing
ex plicit
Ad min
Ġre min
Un known
g ive
is set
LE S
v r
Ġh iding
Gener ated
ĠCompan ies
Ġ[ âĢ¦]
py thon
Ġmind s
Ġbott le
Sh ared
Ġdis charge
rit z
F r
ĠAp plied
Ġdisc overs
ĠT S
Ġterm ination
ĠSc ore
Ġcontradict s
ol in
}{ @{}
Col umb
ĠBudd h
Ġrevolution ary
ĠInterest ingly
ĠO H
G i
e cca
Ġdistrib ute
pro xy
Ġtor ic
Ġl apt
ĠMy r
Ġra infall
Comm unes
Ġtrem end
b end
Ġinter ven
Test Case
ĠCroat ian
ĠCh uck
ĠY an
Ġup stream
Ġenc ryption
Group s
allow ed
ag le
ĠO m
Ġch unk
ĠCont est
ĠR ut
Ġhe aling
B IT
Ġsil ence
ĠR ib
Ġdesc riptor
ĠCoal ition
B and
Ġess ence
Ġhaz ard
Ġt u
Ġtour ists
c ia
iv ier
inf inite
P aper
ĠB ee
isp here
enti eth
bes gue
ch ap
ĠL ar
ĠScot ia
Prim ary
ĠK hal
dis p
Ġevol ves
3 45
Ġinvent ory
ic us
ĠH appy
tab colsep
Ġload s
ĠTes la
ircl ed
ĠG rid
us on
Ġrest art
ĠPoint s
F ictional
Ġsuggest ion
cell s
Ġreplic a
ĠGl obe
Ġdon ations
} ')
irect ed
ĠF lem
Ġ\| _
aud io
ir ie
Ġgraph ical
r ud
Object s
ĠL ives
Ġ& +
Ġfair ness
Ġle ather
ingu ish
Ġcooper ative
Ġ$ %
spring framework
% ).
Ġdis establ
sw arm
st ick
Fe atures
Lo op
Ġexplo iting
Ġg onna
Ġsubstit uting
' /
Ġdo zens
Mod els
ĠGR B
2 17
C ities
Ġche ss
Ġparametriz ation
Ġen um
ĠSus sex
ĠParamet ers
M iddle
Ġg i
Ġgl ad
ĠEx ped
Ġpred icate
ĠSob olev
rub y
ĠR ac
z yn
Ġc otton
ĠSte phan
Ġcour tesy
Ġclass room
Ġcycl ing
ion ization
ĠMer it
ord ering
ĠU P
class ification
Ġwitness es
v t
ĠSt rat
ĠMon itor
F und
M ov
Ġmag ical
38 4
C lear
ĠA ges
}( (
Ġexclud ing
Ġpr ince
n os
Ġtra vers
Ðµ ÑĤ
constraint s
Ġun necessary
List en
eqn o
sub division
IS A
ĠApp lying
Ġbehav es
Transport ation
un known
T asks
ĠRevolution ary
Ġtub es
ĠComput ing
ct uary
UT H
Ġpri ests
Ġnob le
Ġ@ "
Writ ers
Ġf mt
ĠEx pert
m is
osp in
ov ina
numer ical
ĠM ang
ĠE valuation
prov ided
d ed
at op
Ġmit igate
ure r
ĠS ig
ĠA verage
Ġh i
Ġgroup ed
Ġd ex
AS P
Dr iver
Ġgram mar
ĠMan it
enc oder
cont ents
Ġrev ival
ab lo
SE C
ĠCont ract
OL D
Ġdenomin ator
Ġpropag ating
Ġst yl
ear ly
at ile
ĠKenn eth
int age
ec ke
ĠAbd ul
ĠUs ed
pl ays
Ġbuck et
Ġend owed
] }(
ag ne
Ġcho ir
ĠCal gary
Ġingred ient
F ive
re act
ĠV A
- |
)} ;
Con sumer
}\| _
Ġbenchmark s
ĠHit ler
er re
ĠAd ventures
Ġlast ing
Ġc ens
ĠWil helm
Ġposition ed
Requ ired
Ġdub bed
ĠD j
ĠW ave
Ġshe ep
Ġimport ed
Ġp ent
S oviet
j ournals
Ġap par
Ġbroad ly
Ġpow der
Ġsmooth ly
p ad
Ġproduct ivity
t ip
Ġcust ody
Ġen rich
x html
as an
ob ic
Ġcook ie
ĠOt to
idd ing
Ġcontract ed
m and
ĠTh r
AC H
ĠF DA
str ut
Ġinv ented
he nd
> ;
Ġ* ,
ĠJoh annes
Ġrefere ndum
P rem
inter acting
Ġpost ing
ĠSp in
resol ve
ĠK L
Ġsem icon
ĠT ool
ll l
ĠEll i
Ġhop ping
Ġconfigure d
Ġtact ics
Ġc uisine
Ġrel ativity
de velopment
Ġneur on
W at
)] \
ĠC off
ĠFran z
Ġwant ing
go og
C Y
d iver
Ġd os
Ġnull ptr
ĠGib son
ric ia
Ġjud icial
ĠD ob
Ġup graded
Ġsk et
load er
ĠE k
Ġan ger
Ġac ids
ĠVAL UES
ff icking
ĠSom erset
L iber
ĠK E
Ġcondition ing
rr rr
Ġannoun ces
ĠGen eva
d ense
U pon
com ed
Ġden oting
ĠLu cy
ĠViet namese
ĠS ag
Ġun precedented
M ouse
ĠH ern
op acity
ĠGi ov
ĠLO G
S ig
en ko
b ug
Ġh ire
ĠM ale
Ġcomp romise
Ġacadem y
ĠR B
ĠV R
ĠDev on
ĠL M
ĠCliff ord
Ġl ar
Ã¨ s
ĠT ot
ĠC anyon
if ndef
les h
Ġconver gent
M ic
Ġprompt ed
! [
ĠMethod ist
D H
B rien
Wh ich
ĠH off
CO VID
Ġc usp
ĠH ait
), $$
col Last
id ual
18 1
ĠArm strong
Ġske leton
Ġcou rage
ĠJac ques
ĠConfeder ate
Ġarg uing
Ġdis able
ĠSh im
Ġproblem atic
Ġeth ical
18 45
D ATA
Ġb ootstrap
ug a
Ġph y
ĠLear n
Ġt mp
ĠP SF
ak is
pro jection
ock ets
M pc
Ġfor um
Ġcross ings
ba um
K T
Ġbi om
)} -\
ĠJ ake
ann ers
w ear
ĠMin neapolis
ĠGe off
Ġbox ing
approp riate
Ġl ucky
ĠT itan
ll er
Ġsuccess ion
ope z
ine z
ĠSim pson
Ġacceler ate
ĠL C
ĠG ross
Ġresum ed
p ent
ĠB ran
ĠD in
Th ank
Ġoptim ality
ĠPut in
NavBar Font
g overnment
ph or
Ġgirl friend
ou rable
Ġy r
Ġt weets
Ġpurs ued
ibl ical
ĠI MF
ĠD W
^* $-
E conom
anu el
Ġsl ices
th y
Ġvis cous
t in
link ed
as pect
vect ive
Ġsm ile
4 95
Ġbe ings
Ġmon astery
Ġhe ights
al an
il ion
ĠH P
IL D
Spec ies
ĠLe besgue
Ad am
ole y
late x
Swed ish
ĠConsider ing
ad os
Ġincorpor ates
b R
Ġdec iding
Ġra pe
FI ELD
ĠRes ult
Ġtheat rical
Ġquas ars
ï¼ Į
N B
ĠM g
ess ing
ĠK w
ĠEl se
ĠR ate
ĠA way
ĠU FC
orth y
typ ename
h it
Ġharm ony
Per iod
Ġph armac
ĠP om
Ġloc als
ip ur
ĠPod cast
Qu antum
ĠL R
Ġacc idents
Ġpoint wise
Hamilton ian
ĠAr senal
diff usion
Å Ľ
ĠC av
ĠM pc
Ġbow l
agn ostics
Ġin cur
ĠD FT
ĠL icens
Ġqu it
Ġdon or
Ind ividual
Ġalle vi
Ġk g
ook s
i Name
ĠK oh
Ġsynchron ization
Î º
ĠIm pro
Ġs iblings
Ġb ones
Ġp orn
ĠB oh
l if
ĠD NS
Ġphenomen ological
C W
) }}{\
ĠB es
ĠHe isenberg
ĉ ĠĠĠĠĠĠĠ
Al pha
y cle
Ġop posing
L ib
Ġt il
ĠH app
ri ages
ĠK om
Ġflo ors
ĠLe icester
un al
Bel ow
26 5
Ġre jection
)$ \
ax ter
urs ion
Ġpit ched
ĠSant os
ĠMichel le
| |\
Ġrep ublic
Ġconfirm ation
S ix
i ago
18 37
Ġcomm enced
enc oding
ph oto
ĠN J
ĠSol omon
Ġadjust ment
ĠNott ingham
Ġshe aves
Ġpreval ence
ex ponential
Ġs ack
se min
Ch arl
Ġleg ally
con cept
Ġex changes
á ¸
ens pace
Ġbl end
ta k
ĠLe af
Public ations
ä ½
ĠBel le
ĠLyn n
N H
ĠMor rison
ĠMajor ana
Ġn urse
m ouse
ot ers
eff ects
F ast
Ġel ong
ĠHur ricane
)-- (-
ĠIndust ries
Ġresid ing
37 0
ĠB ras
ĠK aw
I sl
ĠA V
ĠD IS
ĠTh ink
ĠSum mary
Ġdepart ed
Ġlad der
Ġsac red
Ġimpact ed
ĠRaid ers
O cc
)] $
gener ator
N orthern
Ġg ods
ĠD ow
ĠJ et
ĠMan ila
the me
Ġdis hes
H i
ĠR AM
ĠTrans it
Ġcomm od
AP P
H ouses
Ġre bounds
Ġathlet ics
b right
p rice
Ġg reedy
Ġse am
general ized
{ ,
Ġen closed
ĠMult iple
Ġconf inement
Ġscript s
ĠMaur ice
Un fortunately
Ġrein forcement
Ġhist ories
com fort
col First
Ġmic rowave
Ġcr ust
Ġannot ated
er als
ĠM ock
ĠW ool
Ġunder taken
ier i
z an
d ar
PE C
Ġhelic opter
ĠM emphis
Ġst om
}} )$.
ee a
Âł Âł
stit u
ĠP oss
ĠF erg
ĠAgric ultural
ng th
Ġvoc abulary
Ġenerget ic
oc aml
r ules
Ġart ic
Ġresp iratory
Ġastrophys ical
+\ !
Ġeth ics
Ġd w
Ġman s
ĠAd rian
Ġarchitect s
ĠL it
Ġde formed
stat ement
red shift
determ ined
s ay
ĠC yr
Ġsh oes
Ġthe rap
Ġprol ifer
R ugby
up loads
Ġillustr ations
ĠC MS
ad v
F a
) '
ĠMov ies
Ġdefic it
fam ilies
c atch
VAL ID
) ^{(
ĠLegisl ature
Ġvict ories
Ġorb ifold
V ictor
z c
Ġreg ulated
ĠNob el
Ġconduct ance
Ġ ub
Ġequiv ariant
ĠDist inguished
ĠDown load
g rand
ĠJ ourney
ĠSat urn
6 25
Ġnews letter
0 14
Ġsl avery
Ġinform ative
ĠPak istani
Arg uments
Ġliv estock
Ġch orus
ĠPatri ots
B all
Ġnick name
be a
_ );
Ġseason al
ĠA LL
] ^-
ĠU C
Ġann ex
ĠAnd rea
Ġcon duction
Ġterm inus
dest roy
Ġdisestabl ishments
18 12
Eq n
spe aking
W ild
od ia
ĠF ifth
bib item
M obile
ĠM SE
ĠH AL
array stretch
Ġcommem or
min im
Ġtack les
ĠCol lections
Ġcompan ions
Ġreven ge
Ġen sembles
ĠRobert son
Dat aset
Ġloc ate
0 24
g ro
ĠT ennis
Ġm appings
ĠF ocus
Ġsear ched
l is
udd y
M g
as se
AS K
ud s
St an
ĠRem ove
Ġcod imension
p kg
Ã Ĥ
ĠCh in
Ġvis ually
ĠStat ement
ĠM ead
ren ces
wild fly
: -
18 20
Ġpost pon
check box
4 20
ĠKaz akh
ĠS ure
and ed
ĠK ang
Ġnetwork ing
head ing
year s
B ean
ĠR onald
ĠPan ama
97 8
Ġhar sh
n f
AR D
Ġbifurc ation
Ġpro to
ĠTreat ment
iS ector
ĠWrit er
Ġpack ing
ĠL I
ĠN AV
sens itive
)=\ {
ĠPresident ial
Ġer upt
Ġcon vection
Ġch icken
l k
Ġcre atures
Ð¾Ð »
Ġs ne
ĠV il
Ġfix es
Ġtom orrow
x u
ĠD iet
ram er
ch in
Ġtob acco
Ġcalib rated
ul ers
b w
Ġcancel ed
Ġ- (
Ġprot agonist
Ġcru ise
R V
by ter
ĠYugosl avia
Ġ+ +(
ĠVen us
Ġgen res
w ald
iel sen
*}[ !
ĠWag ner
ad ier
G overn
}( [
Ġf ears
ĠK ad
Ġind ie
ob ar
ev es
ĠAt tack
ĠWest minster
}' (
c G
ĠBur ton
ĠJoh ann
reg ions
Ġcoordin ator
ĠTrib une
Ġpre y
]{ $\
Ġfl ank
23 7
ro cal
Ġd ock
}$ }\
Ġm akers
mathb in
en za
Ġf ool
Ġf ights
ĠSh ore
go al
Ġobser vers
Ġpull ing
Ġdomin ance
E SS
ĠF ra
ĠC openhagen
ĠD G
Ġinterview ed
Ġnil potent
amm ad
Ġanaly se
D ynamic
Ġmet er
od el
iod iversity
g irl
apt ic
spect ra
u o
Ġnation ally
Ch icago
Ġd oping
Ġ ^{-
Ġnot ification
R PC
{ }^
ĠB M
Ġkn ots
am on
Ġemphas ized
Ġlemm as
Ġqual ities
H TTP
ar ians
le z
Ġpresum ably
B attle
ĠW inds
Ġin tact
Ġis omorphisms
Ġint ensities
": "
Dep th
Ġpian ist
Ġsubject ed
Ġnon empty
Ġis ometry
ĠIs le
ĠHend erson
! ,
S und
Comm unity
ĠTh read
ĠCar r
at um
ĠBou levard
ĠH ub
unc redited
Ġf reed
ĠM TV
ĠL t
rac ies
ĠLine ar
ĠG es
18 44
Ġre med
other mal
ĠBul let
ip es
ĠM n
ãģ ®
ĠCho ose
' )$.
ĠEx perimental
ĠA ires
h ler
Ġout lets
UN T
ĠCa uc
Ġinvest or
Ġclimb ing
} </
Ġr ivals
ĠR H
Ġtransform ing
av in
Ġpr imes
SE TT
' ];
Ġfar mer
Ġiter ator
Ġbur sts
Ġfasc inating
D IF
Ġs ailed
ĠH us
Ġhypersur face
get Value
Ġdiff raction
' _\
Ġ$\ ,
ĠT ales
18 35
Ġprem ier
Ġvort ices
d S
Ġ\ {(
ĠG it
oul os
ĠMus k
ĠF ol
Ġinteg rand
à ½
mod ern
Ġche ese
N ick
Ġ\ [\
ch y
P ier
ĠT rent
osp ace
CT YPE
ĠL ines
re ra
Ġp s
Ġmet eor
Ġdecom pose
ĠLou ise
Ġcolon ies
^{ '
Ġrg ba
a ine
}- {\
........ ........
Inst all
m x
Ġcon gest
ap is
;\;\ ;
AV E
Ġinfinites imal
ĠJ i
iver y
ĠH od
ff bb
Ġemer ges
_{ |\
ise cond
mat rices
ĠBrand on
g old
Ġflow ing
ĠArmen ia
Ð ³
Ġd B
ĠP ars
Tax onomy
Ġwar fare
L android
Ġcl ay
clud es
g ic
Ġw ra
Ġcitizens hip
f uture
}) ^\
B ounds
enn ium
Ġreleg ated
}, \,
ĠLes lie
is ure
ĠHaus dorff
B ir
Ġse ized
ĠSand ers
Return s
Ġout liers
Ġup grad
M arc
Ġgot ten
Ġliter acy
ĠCub an
au f
Ġrel uct
ĠB ottom
ĠCele br
40 5
}\ }$.
Ġsp o
ched uled
he y
Ġcomp rom
Ġh orm
Ġun biased
- .
Ġf are
ĠT ru
Ġag ing
Dem ocratic
Ġg ases
col m
O W
Ġn erve
ĠF inals
Ġcondition ed
Pol itics
ĠElect ronic
determ in
_ +\
cl s
ĠSaskat chewan
Ġconjug ation
comm ons
Ġsc anning
Ġcomp ass
Ġfund ament
direct ed
p od
ex c
Ġnurs ing
$\% $
ĠShe ffield
ĠDet erm
multip ut
ĠU til
be en
P W
ĠN W
Ġse al
Ġchar set
Ġanaly st
. ''
P unct
Ġa mino
Ġprem ises
ĠL ED
ĠChief s
Ġsp y
log en
ĠTri ple
ash ire
Ġdepos it
] -
ĠS ter
ĠF F
Ġkick ed
23 6
$ |
m ile
ĠB ever
, +\
ĠGarc ia
Ġsmart phone
ĠBaron et
Ġcomed ian
ed e
Ã© g
NS String
ay e
it ored
ĠN atal
ust ed
Bre ak
Ġarchae ological
28 5
ĠW A
ĠHe ath
Un ion
Ġcon es
Ġrap per
et able
Ġmain land
Ġtail s
Ġconstitu encies
ĠLink ed
n ational
tr l
D ash
is Empty
ol lo
ĠT ir
ĠF eed
ĠJess ica
Y S
22 9
K G
og l
24 7
Art icles
Ġvocal ist
Ġgu ides
am ura
Ġ" <
ĠWrit ers
Draw ing
ĠOption al
"" "
Ġelect roweak
ĠRe ich
DE FAULT
Ġautom ation
Ġterm ed
gener ate
Ġra id
Dist ance
Eu Script
Ġpro long
ĠEx tra
ĠNot re
accur ate
it on
Ġfinal e
E ducational
} ',
ĠSc ript
Ġpartnership s
ĠD ong
18 41
ĠU nd
top ic
tain s
Argument Exception
Ġunve iled
ĠD rop
Ġend e
D ark
Ġre ass
Ġam ple
ĠB elf
Ġcorpor ations
C ONT
ĠStand ards
m cite
ĉĉ čĊ
Ġtra ils
ĠCart esian
Ġvot er
qu ire
ĠAp ost
Sc ient
ropol is
ĠI EEE
Ġbehavior al
ĠPsych ology
os i
Ġpos ed
Ġur ged
r x
Ġmulti plier
ograph ies
rit ies
ĠLy apunov
ĠIl legal
> =
k ok
\!\! \!
Ch ain
D W
m obile
Ġneighb ours
column s
dr iver
ident ial
Th ose
AT OR
Ġe y
M AN
ĠSac ram
- {
Ġmach inery
ĠCard inal
Ø ¯
Ġflu ores
Ġprotect ive
ĠBrad y
th ood
In ner
Ġswit ches
Ġsk illed
il ogy
id an
Ġb otan
ĠM ode
te in
Ġfeas ibility
ir ling
deriv ative
Ġfree ze
}| ^{
Rep resent
} ]{
or on
Ġcast ing
re duce
Ġw ound
19 1
ĠQu ery
ĠB j
Pol ish
Ġinduct ed
Ġtrad emark
Ġphys icians
Ġaut umn
alax ies
ĠSch midt
Ġdivid es
M ount
Ġsub div
Ġoptim izing
V en
os ity
ĠMal ta
Assum ing
sim ulation
29 5
Ġepid emic
ĠS G
op ard
Ġemb od
Ġeccentric ity
Ġdr one
Ġdig its
ĠW on
ins k
read er
... </
}}{ {
ĠAborig inal
ĠR ica
Ġfin ancing
work ing
Ġprohib ited
j Query
Ġun incorporated
ĠA FC
Ġcat hedral
ĠR ash
18 39
Ġsi ege
Ġ iv
ĠAd apt
ric hed
ign e
18 38
Å Ļ
ien ne
ĠN I
Construct or
ĠV it
ĠGl enn
}{! }{
ard e
Ġaccommod ation
Ġst air
}) \,
AT CH
ĠÂ «
im ple
Ġbreak fast
ĠCon sumer
Ġfound ations
Ġen jo
24 3
Ġhol idays
ĠBos nia
Ġpen alties
Ñ Ĩ
Ġm aker
Ġdecay ing
Ġt err
rr bracket
/ (\
in valid
Ġg rat
Ġcr ashed
ORD ER
Ġred ist
v x
ote chn
alk eeper
Ġflav our
S eq
he avy
] &
s ources
Ġf t
Ġbomb ing
Ġtra ged
im ates
ll bracket
ĠBo eing
(" /
Ġconstitu ent
ar Xiv
Ġst unning
mon ot
BP ACK
ĠT C
Ġcurs or
Ġwor ried
Ġmal icious
Ġvo iced
Ġcl ergy
I o
\ :
ou lli
Ġhad n
ĠRes taur
) ||
ĠDirect ors
ĠTre asury
4 30
ĠFrank furt
Ġcreat ivity
direct ory
thin space
Ġm aternal
ly mouth
ĠSl av
c ould
ĠL F
Ġim plication
W IN
ne z
Ġref erenced
CL ASS
ess es
v ae
ul ent
ĠSalv ador
Ġnob ody
ĠD w
ĠD awn
ĠÃ ĸ
Ġpublisher s
ĠL ay
amb a
band s
K en
Ġpoly gon
ĠBarn es
h fil
ĠGram my
F ixed
ĠM eyer
' ]['
^* )$
ym es
ĠA ri
In vest
ĠVari ous
Ġ_ ,
Ġrecurs ion
ter min
ma re
Ġj am
Ġpropag ate
ĠWe ight
Un incorporated
cont ract
ĠS ample
ĠK iss
Ġcor poration
ĠPl aza
adapt ive
Ġdiffe omorphism
ĠA CC
Ġweight ing
ĠVis it
L STM
t ransp
art icles
Ġperform er
B ank
ĠD ylan
Ġ$ _
R od
ĠRe in
p w
Ġ+ (
ss s
Ġselect s
Ġinter im
Ġh ype
comm it
Ġfre ight
> )
24 8
ĠCr us
sp atial
Ġgift s
ĠC ities
Ġmon oidal
ĠBur ke
ar in
ĠNew man
ĠSh annon
Ġorgan ize
Ġemail s
Ġmyth ology
ĠM ask
Ġanten nas
the ning
ĠP am
Ġsmooth ness
od ers
en ot
18 36
ĠTr in
MO DE
g rowth
^- _
, ~\
ust ration
Ġun seen
24 6
Ġcrypt ocur
Ġn oun
equival ence
coupl ed
ĠDod gers
W arning
ĠK ane
Ġlect ures
n x
ef inite
Ġ) ^
Ġb ags
ĠSy mbol
Ġclar ify
Fore ign
al in
B st
Ġsl iding
Ac cept
Ġkid ney
Ġm aj
st y
ĠS it
ta iled
oph ys
Ġh iring
DO CTYPE
C over
un cer
Cl imate
ĠS ons
Ex press
ĠPre vious
ĠE mail
Ñģ Ðº
ĠReg ulations
atern ity
Ġsw ap
ĠProgram s
ĠMy stery
S and
Ar thur
Ð° ÑĤ
Ġprospect s
sp acing
ĠLux embourg
M icro
Ġfunction als
ĠUn less
b rown
Ġpr ide
ĠP I
Ġ! !
Err ors
A k
Or d
ato es
Germ any
ĠElli ott
Ġerg odic
E valuation
Ġcelebr ity
Ġadminist rator
ĠM ell
Ġnom inee
ĠAll an
Ġsac rifice
qu o
ĠBen ef
sh an
Ġquestion ed
ĠJ unction
rag ma
Ġcon verse
ĠLeg acy
S plit
ĠN V
RE T
ed ar
Ste ve
vary ing
L ip
p ract
roid s
Ġlack s
Ġf iducial
Ġsever ity
ĠEd mund
Ġab rupt
ĠCar bon
}} }_
ĠAss essment
st rom
SETT ING
Ġtest imony
Ġauthent ic
J D
ĠLaw s
ol ics
ge o
ĠProv incial
h b
ĠL iz
[...]
