{
  "version": "1.0",
  "truncation": null,
  "padding": null,
  "added_tokens": [
    {
      "id": 0,
      "content": "[UNK]",
      "single_word": false,
      "lstrip": false,
      "rstrip": false,
      "normalized": false,
      "special": true
    }
  ],
  "normalizer": null,
  "pre_tokenizer": {
    "type": "Sequence",
    "pretokenizers": [
      {
        "type": "Digits",
        "individual_digits": false
      },
      {
        "type": "ByteLevel",
        "add_prefix_space": false,
        "trim_offsets": true,
        "use_regex": true
      }
    ]
  },
  "post_processor": null,
  "decoder": null,
  "model": {
    "type": "BPE",
    "dropout": null,
    "unk_token": "[UNK]",
    "continuing_subword_prefix": null,
    "end_of_word_suffix": null,
    "fuse_unk": false,
    "byte_fallback": false,
    "vocab": {
      "[UNK]": 0,
      "!": 1,
      "\"": 2,
      "#": 3,
      "$": 4,
      "%": 5,
      "&": 6,
      "'": 7,
      "(": 8,
      ")": 9,
      "*": 10,
      "+": 11,
      ",": 12,
      "-": 13,
      ".": 14,
      "/": 15,
      "0": 16,
      "1": 17,
      "2": 18,
      "3": 19,
      "4": 20,
      "5": 21,
      "6": 22,
      "7": 23,
      "8": 24,
      "9": 25,
      ":": 26,
      ";": 27,
      "<": 28,
      "=": 29,
      ">": 30,
      "?": 31,
      "@": 32,
      "A": 33,
      "B": 34,
      "C": 35,
      "D": 36,
      "E": 37,
      "F": 38,
      "G": 39,
      "H": 40,
      "I": 41,
      "J": 42,
      "K": 43,
      "L": 44,
      "M": 45,
      "N": 46,
      "O": 47,
      "P": 48,
      "Q": 49,
      "R": 50,
      "S": 51,
      "T": 52,
      "U": 53,
      "V": 54,
      "W": 55,
      "X": 56,
      "Y": 57,
      "Z": 58,
      "[": 59,
      "\\": 60,
      "]": 61,
      "^": 62,
      "_": 63,
      "`": 64,
      "a": 65,
      "b": 66,
      "c": 67,
      "d": 68,
      "e": 69,
      "f": 70,
      "g": 71,
      "h": 72,
      "i": 73,
      "j": 74,
      "k": 75,
      "l": 76,
      "m": 77,
      "n": 78,
      "o": 79,
      "p": 80,
      "q": 81,
      "r": 82,
      "s": 83,
      "t": 84,
      "u": 85,
      "v": 86,
      "w": 87,
      "x": 88,
      "y": 89,
      "z": 90,
      "{": 91,
      "|": 92,
      "}": 93,
      "~": 94,
      "¡": 95,
      "¢": 96,
      "£": 97,
      "¤": 98,
      "¥": 99,
      "¦": 100,
      "§": 101,
      "¨": 102,
      "©": 103,
      "ª": 104,
      "«": 105,
      "¬": 106,
      "®": 107,
      "¯": 108,
      "°": 109,
      "±": 110,
      "²": 111,
      "³": 112,
      "´": 113,
      "µ": 114,
      "¶": 115,
      "·": 116,
      "¸": 117,
      "¹": 118,
      "º": 119,
      "»": 120,
      "¼": 121,
      "½": 122,
      "¾": 123,
      "¿": 124,
      "Â": 125,
      "Ã": 126,
      "Ä": 127,
      "Å": 128,
      "Æ": 129,
      "Ç": 130,
      "È": 131,
      "É": 132,
      "Ê": 133,
      "Ë": 134,
      "Ì": 135,
      "Í": 136,
      "Î": 137,
      "Ï": 138,
      "Ð": 139,
      "Ñ": 140,
      "Ò": 141,
      "Ó": 142,
      "Ô": 143,
      "Õ": 144,
      "Ö": 145,
      "×": 146,
      "Ø": 147,
      "Ù": 148,
      "Ú": 149,
      "Û": 150,
      "Ü": 151,
      "Ý": 152,
      "Þ": 153,
      "ß": 154,
      "à": 155,
      "á": 156,
      "â": 157,
      "ã": 158,
      "ä": 159,
      "å": 160,
      "æ": 161,
      "ç": 162,
      "è": 163,
      "é": 164,
      "ê": 165,
      "ë": 166,
      "ì": 167,
      "í": 168,
      "î": 169,
      "ï": 170,
      "ð": 171,
      "ó": 172,
      "ô": 173,
      "Ā": 174,
      "ā": 175,
      "Ă": 176,
      "ă": 177,
      "Ą": 178,
      "ą": 179,
      "Ć": 180,
      "ć": 181,
      "Ĉ": 182,
      "ĉ": 183,
      "Ċ": 184,
      "ċ": 185,
      "Č": 186,
      "č": 187,
      "Ď": 188,
      "ď": 189,
      "Đ": 190,
      "Ē": 191,
      "ē": 192,
      "Ĕ": 193,
      "ĕ": 194,
      "Ė": 195,
      "ė": 196,
      "Ę": 197,
      "ę": 198,
      "Ě": 199,
      "ě": 200,
      "ĝ": 201,
      "Ğ": 202,
      "ğ": 203,
      "Ġ": 204,
      "ġ": 205,
      "Ģ": 206,
      "ģ": 207,
      "Ĥ": 208,
      "ĥ": 209,
      "Ħ": 210,
      "ħ": 211,
      "Ĩ": 212,
      "ĩ": 213,
      "Ī": 214,
      "ī": 215,
      "Ĭ": 216,
      "ĭ": 217,
      "Į": 218,
      "į": 219,
      "İ": 220,
      "ı": 221,
      "Ĳ": 222,
      "ĳ": 223,
      "Ĵ": 224,
      "ĵ": 225,
      "Ķ": 226,
      "ķ": 227,
      "ĸ": 228,
      "Ĺ": 229,
      "ĺ": 230,
      "Ļ": 231,
      "ļ": 232,
      "Ľ": 233,
      "ľ": 234,
      "Ŀ": 235,
      "ŀ": 236,
      "Ł": 237,
      "ł": 238,
      "Ń": 239,
      "Ġt": 240,
      "in": 241,
      "ĠĠ": 242,
      "he": 243,
      "Ġa": 244,
      "on": 245,
      "re": 246,
      "er": 247,
      "at": 248,
      "Ġthe": 249,
      "en": 250,
      "Ġs": 251,
      "or": 252,
      "al": 253,
      "it": 254,
      "Ġo": 255,
      "is": 256,
      "an": 257,
      "es": 258,
      "Ġc": 259,
      "ar": 260,
      "Ġw": 261,
      "ion": 262,
      "ed": 263,
      "ĠĠĠĠ": 264,
      "Ġf": 265,
      "Ġof": 266,
      "nd": 267,
      "Ġp": 268,
      "Ġin": 269,
      "Ġb": 270,
      "le": 271,
      "ic": 272,
      "ing": 273,
      "Ġ\\": 274,
      "ro": 275,
      "as": 276,
      "Ġand": 277,
      "Ġd": 278,
      "Ġm": 279,
      "Ġ$": 280,
      "Ġto": 281,
      "ct": 282,
      "el": 283,
      "et": 284,
      "ent": 285,
      "ou": 286,
      "ig": 287,
      "il": 288,
      "st": 289,
      "om": 290,
      "am": 291,
      "Ġth": 292,
      "Ġre": 293,
      "Ġh": 294,
      "ation": 295,
      "ra": 296,
      "im": 297,
      "ol": 298,
      "Ġe": 299,
      "Ġn": 300,
      "ĠT": 301,
      "ot": 302,
      "Ġ(": 303,
      "ĠS": 304,
      "Ġis": 305,
      "{\\": 306,
      "Ġl": 307,
      "id": 308,
      "ce": 309,
      "ĠC": 310,
      "iv": 311,
      "ĠA": 312,
      "ut": 313,
      "Ġfor": 314,
      "ur": 315,
      "ch": 316,
      "se": 317,
      "Ġg": 318,
      "ĠĠĠ": 319,
      "ow": 320,
      "ul": 321,
      "ĠĠĠĠĠĠĠĠ": 322,
      "ly": 323,
      "Ġon": 324,
      "ĠM": 325,
      "qu": 326,
      "ab": 327,
      "_{": 328,
      "ith": 329,
      "um": 330,
      "ad": 331,
      "ĠI": 332,
      "us": 333,
      "em": 334,
      "Ġbe": 335,
      "Ġst": 336,
      "ver": 337,
      "Ġthat": 338,
      "od": 339,
      "ath": 340,
      "20": 341,
      "âĢ": 342,
      "un": 343,
      "eg": 344,
      "ir": 345,
      "ĠB": 346,
      "Ġcon": 347,
      "ĠP": 348,
      "Ġas": 349,
      "if": 350,
      "Ġ$\\": 351,
      "ter": 352,
      "Ġwith": 353,
      "ay": 354,
      "čĊ": 355,
      "end": 356,
      "ag": 357,
      "th": 358,
      "ve": 359,
      "ĠH": 360,
      "ist": 361,
      "math": 362,
      "Ġal": 363,
      "ĠF": 364,
      "ction": 365,
      "ers": 366,
      "igh": 367,
      "ĠThe": 368,
      "Ġpro": 369,
      "Ġwe": 370,
      "ĠR": 371,
      "Ġan": 372,
      "ĠD": 373,
      "ĠL": 374,
      "ta": 375,
      "ure": 376,
      "ri": 377,
      "and": 378,
      "Ġv": 379,
      "her": 380,
      "pe": 381,
      "ph": 382,
      "Ġby": 383,
      "ĠĊ": 384,
      "Ġ&": 385,
      "os": 386,
      "ate": 387,
      "19": 388,
      "ĠW": 389,
      "ac": 390,
      "}\\": 391,
      "ity": 392,
      "ex": 393,
      "ĠN": 394,
      "up": 395,
      "}$": 396,
      "ap": 397,
      "Ġ=": 398,
      "ight": 399,
      "est": 400,
      "ĠG": 401,
      "^{": 402,
      "Ġwh": 403,
      "rom": 404,
      "oc": 405,
      "Ġex": 406,
      "res": 407,
      "Ġwas": 408,
      "Ġcom": 409,
      "Ġat": 410,
      "Ġde": 411,
      "op": 412,
      "ĠE": 413,
      "ub": 414,
      "Ġare": 415,
      "ore": 416,
      "art": 417,
      "ine": 418,
      "Ġit": 419,
      "ite": 420,
      "ies": 421,
      "ref": 422,
      "ma": 423,
      "pl": 424,
      "ess": 425,
      "ial": 426,
      "Ġfrom": 427,
      "ill": 428,
      "Ġse": 429,
      "ge": 430,
      "ew": 431,
      "ant": 432,
      "ive": 433,
      "all": 434,
      "Ġor": 435,
      "nt": 436,
      "}}": 437,
      "ud": 438,
      "(\\": 439,
      "ort": 440,
      "pt": 441,
      "Ġr": 442,
      "ment": 443,
      "ĠĠĠĠĠĠĠ": 444,
      "ere": 445,
      "ĠJ": 446,
      "The": 447,
      "Ġhe": 448,
      "ft": 449,
      "rac": 450,
      "ext": 451,
      "iz": 452,
      "egin": 453,
      "ĠO": 454,
      "begin": 455,
      "ass": 456,
      "ak": 457,
      "ld": 458,
      "Ġy": 459,
      "our": 460,
      "og": 461,
      "ich": 462,
      "ber": 463,
      "_{\\": 464,
      "Ġthis": 465,
      "ult": 466,
      "int": 467,
      "cal": 468,
      ")$": 469,
      "per": 470,
      "ated": 471,
      "ell": 472,
      "ical": 473,
      "Ġsh": 474,
      "ran": 475,
      "cl": 476,
      "ame": 477,
      "ue": 478,
      "ect": 479,
      "ĉĉ": 480,
      "Ġch": 481,
      "orm": 482,
      "ign": 483,
      "Ġ-": 484,
      "ard": 485,
      "und": 486,
      "ition": 487,
      "ave": 488,
      "}{": 489,
      "ff": 490,
      "ip": 491,
      "Ġcomp": 492,
      "Ġle": 493,
      "ary": 494,
      "Ġcl": 495,
      "00": 496,
      "201": 497,
      "'s": 498,
      "ĠU": 499,
      "Ġnot": 500,
      "ĠK": 501,
      "eq": 502,
      "},": 503,
      "ust": 504,
      "ens": 505,
      "Ġ\"": 506,
      "ep": 507,
      "),": 508,
      "ian": 509,
      "frac": 510,
      "are": 511,
      "age": 512,
      "Ġres": 513,
      "pro": 514,
      "text": 515,
      "ations": 516,
      "ĠIn": 517,
      "equ": 518,
      "Ġcan": 519,
      "Ġk": 520,
      "Ġpl": 521,
      "ast": 522,
      "rm": 523,
      "right": 524,
      "ong": 525,
      "du": 526,
      "ia": 527,
      "cite": 528,
      "âĢĻ": 529,
      "Ġ<": 530,
      "Ġwhich": 531,
      ");": 532,
      "Ġ{": 533,
      "Ġint": 534,
      "con": 535,
      "able": 536,
      "ef": 537,
      "ace": 538,
      "abel": 539,
      "Ġus": 540,
      "ost": 541,
      "ug": 542,
      "mathb": 543,
      ").": 544,
      "Ġhave": 545,
      "av": 546,
      "ĠâĢ": 547,
      "cc": 548,
      "ire": 549,
      "Ġwhe": 550,
      "port": 551,
      "--": 552,
      "ork": 553,
      "ack": 554,
      "ord": 555,
      "ase": 556,
      "=\"": 557,
      "ime": 558,
      "low": 559,
      "ain": 560,
      "ther": 561,
      "so": 562,
      "ide": 563,
      "ĠSt": 564,
      "ĠV": 565,
      "label": 566,
      "act": 567,
      "ib": 568,
      "Ġun": 569,
      "the": 570,
      ",\\": 571,
      "$,": 572,
      "eta": 573,
      "ions": 574,
      "ang": 575,
      "$.": 576,
      "Ġap": 577,
      "Ġim": 578,
      "ild": 579,
      "ric": 580,
      "ener": 581,
      "ĠĠĠĠĠĠĠĠĠĠĠĠĠĠĠĠ": 582,
      "Ġhas": 583,
      "ach": 584,
      "ous": 585,
      "mathcal": 586,
      "ov": 587,
      "ind": 588,
      "equation": 589,
      "left": 590,
      "ear": 591,
      "ence": 592,
      "//": 593,
      "form": 594,
      "Ġab": 595,
      "200": 596,
      "}.": 597,
      "com": 598,
      "fig": 599,
      "Ġad": 600,
      "})": 601,
      "out": 602,
      "ry": 603,
      "ok": 604,
      "ru": 605,
      "In": 606,
      "ces": 607,
      "ĠTh": 608,
      "Ġmod": 609,
      "}(": 610,
      "10": 611,
      "ould": 612,
      "Ġhis": 613,
      "</": 614,
      "Ġalso": 615,
      "}^": 616,
      "Ġall": 617,
      "ice": 618,
      "~\\": 619,
      "erv": 620,
      "erm": 621,
      "Ġsu": 622,
      "row": 623,
      "..": 624,
      "}_": 625,
      "ound": 626,
      "ents": 627,
      "old": 628,
      "use": 629,
      "Ġj": 630,
      "over": 631,
      "Ġpart": 632,
      "Ġone": 633,
      "Ġsp": 634,
      "Ġ|": 635,
      "wo": 636,
      "ely": 637,
      "ile": 638,
      "ĠCh": 639,
      "Ġcont": 640,
      "ance": 641,
      "own": 642,
      "sp": 643,
      "Ġ+": 644,
      "ory": 645,
      "ish": 646,
      "ik": 647,
      "ps": 648,
      "Ġ*": 649,
      "amb": 650,
      "Ġ}": 651,
      "rib": 652,
      "urn": 653,
      "irst": 654,
      "ors": 655,
      "ates": 656,
      "pha": 657,
      "tain": 658,
      "ree": 659,
      "Ġob": 660,
      "Ġif": 661,
      "clud": 662,
      "sum": 663,
      "Ġdis": 664,
      "line": 665,
      "ple": 666,
      "Ġme": 667,
      "alpha": 668,
      "ec": 669,
      "Ġar": 670,
      "ark": 671,
      "18": 672,
      "rans": 673,
      "Ġqu": 674,
      "ally": 675,
      "Ġwere": 676,
      "ome": 677,
      "da": 678,
      "ose": 679,
      "ress": 680,
      "pect": 681,
      "mer": 682,
      "ie": 683,
      "we": 684,
      "ĠĠĠĠĠĠĠĠĠĠĠ": 685,
      ")\\": 686,
      "Ġper": 687,
      "$\\": 688,
      "ics": 689,
      "unction": 690,
      "iff": 691,
      "tern": 692,
      "ata": 693,
      "ob": 694,
      "imes": 695,
      "Ġbut": 696,
      "Ġev": 697,
      "Ġtheir": 698,
      "elta": 699,
      "Ġout": 700,
      "Ġtwo": 701,
      "ount": 702,
      "ambda": 703,
      "red": 704,
      "Ġsy": 705,
      "Ġwill": 706,
      "Ġro": 707,
      "ject": 708,
      "ular": 709,
      "ll": 710,
      "rit": 711,
      "mb": 712,
      "ey": 713,
      "oint": 714,
      "Ġits": 715,
      "Ġen": 716,
      "ari": 717,
      "Ġfirst": 718,
      "ĠY": 719,
      "amma": 720,
      "iel": 721,
      "mathbb": 722,
      "che": 723,
      "Ġset": 724,
      "cent": 725,
      "_\\": 726,
      "ks": 727,
      "vel": 728,
      "Ġclass": 729,
      "ray": 730,
      "Ġ\\\\": 731,
      "Ġup": 732,
      "ution": 733,
      "to": 734,
      "sub": 735,
      "Ġother": 736,
      "Ġdef": 737,
      "ollow": 738,
      "of": 739,
      "=\\": 740,
      "Ġyou": 741,
      "ĠĠĠĠĠ": 742,
      "ode": 743,
      "Ġover": 744,
      "raph": 745,
      "rad": 746,
      "te": 747,
      "ubl": 748,
      "dot": 749,
      "mu": 750,
      "ho": 751,
      "}_{": 752,
      "igma": 753,
      "}^{": 754,
      "ĠIt": 755,
      "eren": 756,
      "Ġmore": 757,
      "ield": 758,
      "Ġnew": 759,
      "ond": 760,
      "Ġdes": 761,
      "12": 762,
      "hat": 763,
      "Ġtime": 764,
      "ega": 765,
      "one": 766,
      "lect": 767,
      "set": 768,
      "Ġman": 769,
      "Ġdo": 770,
      "Ġval": 771,
      "pos": 772,
      "Ġdiff": 773,
      "ix": 774,
      "ring": 775,
      "Ġfunction": 776,
      "-\\": 777,
      "get": 778,
      "umber": 779,
      "Ġag": 780,
      "Ġmodel": 781,
      "ational": 782,
      "Ġbet": 783,
      "ng": 784,
      "Ġ[": 785,
      "\">": 786,
      "Ġfollow": 787,
      "Ġwork": 788,
      "les": 789,
      "ĠUn": 790,
      "phi": 791,
      "ature": 792,
      "fter": 793,
      "Ġne": 794,
      "ugh": 795,
      "Ġte": 796,
      "ize": 797,
      "^{\\": 798,
      "ced": 799,
      "Ġind": 800,
      "ied": 801,
      "stem": 802,
      "ĠHe": 803,
      "Ġcons": 804,
      "ss": 805,
      "Ġsub": 806,
      "ater": 807,
      "Ġwhere": 808,
      "cre": 809,
      "ĠWe": 810,
      "ative": 811,
      "Ġso": 812,
      "pec": 813,
      "vi": 814,
      "Ġthey": 815,
      "Ġform": 816,
      "Ġsuch": 817,
      "Ġbeen": 818,
      "Ġresult": 819,
      "ype": 820,
      "Ġver": 821,
      "lambda": 822,
      "iss": 823,
      "Ġplay": 824,
      "eth": 825,
      "under": 826,
      "ck": 827,
      "ons": 828,
      "ram": 829,
      "Ġco": 830,
      "ased": 831,
      "ne": 832,
      "Ġrel": 833,
      "ual": 834,
      "sc": 835,
      "Ġonly": 836,
      "wid": 837,
      "Ġhad": 838,
      "mathbf": 839,
      "199": 840,
      "Ġwho": 841,
      "Ġ{\\": 842,
      "ict": 843,
      "Ġpre": 844,
      "ys": 845,
      "Ġour": 846,
      "âĢĵ": 847,
      "resent": 848,
      "ific": 849,
      "oth": 850,
      "St": 851,
      "Ġreg": 852,
      "bf": 853,
      "Ġconst": 854,
      "ined": 855,
      "ĠâĢĵ": 856,
      "turn": 857,
      "aram": 858,
      "Ġcol": 859,
      "Ġsim": 860,
      "ake": 861,
      "Ġthere": 862,
      "Ġdist": 863,
      "ock": 864,
      "Ġacc": 865,
      "sh": 866,
      "aw": 867,
      "tt": 868,
      "orn": 869,
      "Ġgener": 870,
      "ax": 871,
      "Ġtrans": 872,
      "ings": 873,
      "Ġsup": 874,
      "ĠThis": 875,
      "Ġthan": 876,
      "Ġinter": 877,
      "ook": 878,
      "Ġinto": 879,
      "**": 880,
      "Ġwhen": 881,
      "âĢĿ": 882,
      "Ġ||": 883,
      "align": 884,
      "section": 885,
      "roup": 886,
      "ilon": 887,
      "lem": 888,
      "ween": 889,
      "Ġthen": 890,
      "ox": 891,
      "gh": 892,
      "ans": 893,
      "pi": 894,
      "inal": 895,
      "ient": 896,
      "hed": 897,
      "Ġpos": 898,
      "sigma": 899,
      "Ġher": 900,
      "Ġsc": 901,
      "olog": 902,
      "Ġequ": 903,
      "dition": 904,
      "Ġshow": 905,
      "part": 906,
      "Ġany": 907,
      "ince": 908,
      "15": 909,
      "ating": 910,
      "ail": 911,
      "Ġph": 912,
      "ove": 913,
      "Ġoff": 914,
      "Ġcomm": 915,
      "Ġyear": 916,
      "ility": 917,
      "Ġ'": 918,
      "round": 919,
      "Ġbetween": 920,
      "ont": 921,
      "Ġcor": 922,
      "Ġsome": 923,
      "}{\\": 924,
      "^{-": 925,
      "pr": 926,
      "Ġ(\\": 927,
      "ise": 928,
      "put": 929,
      "beta": 930,
      "16": 931,
      "ities": 932,
      "ilde": 933,
      "Ġinclud": 934,
      "ull": 935,
      "ublic": 936,
      "ruct": 937,
      "ool": 938,
      "Ġgo": 939,
      "ick": 940,
      "\\\\": 941,
      "ward": 942,
      "Ġunder": 943,
      "ann": 944,
      "land": 945,
      "ĠSe": 946,
      "ral": 947,
      "io": 948,
      "11": 949,
      "bar": 950,
      "mathrm": 951,
      "Ġdata": 952,
      "its": 953,
      "Ġeach": 954,
      "ited": 955,
      "ough": 956,
      "*}": 957,
      "We": 958,
      "Ġpe": 959,
      "ople": 960,
      "app": 961,
      "+\\": 962,
      "Ġsystem": 963,
      "Ġkn": 964,
      "lo": 965,
      "gamma": 966,
      "Ġloc": 967,
      "ident": 968,
      "ays": 969,
      "ues": 970,
      "Ġpol": 971,
      "Ġabout": 972,
      "ike": 973,
      "ption": 974,
      "Ġgiv": 975,
      "rough": 976,
      "der": 977,
      "elf": 978,
      "Ġthese": 979,
      "eps": 980,
      "Ġtra": 981,
      "ible": 982,
      "Ġact": 983,
      "Ġfe": 984,
      "]{": 985,
      "----": 986,
      "ments": 987,
      "Ġstud": 988,
      "Ġno": 989,
      "Ġpr": 990,
      "li": 991,
      "Ġwould": 992,
      "Ġused": 993,
      "Ġmat": 994,
      "Ġrec": 995,
      "Ġprov": 996,
      "ember": 997,
      "^\\": 998,
      "Ġeff": 999,
      "()": 1000,
      "uring": 1001,
      "let": 1002,
      "ivers": 1003,
      "arg": 1004,
      "17": 1005,
      "erent": 1006,
      "Ex": 1007,
      "here": 1008,
      "als": 1009,
      "Ġuse": 1010,
      "ins": 1011,
      "ered": 1012,
      "rt": 1013,
      "figure": 1014,
      "oot": 1015,
      "ator": 1016,
      "22": 1017,
      "Ġpoint": 1018,
      "leq": 1019,
      "ert": 1020,
      "array": 1021,
      "width": 1022,
      "13": 1023,
      "Ġinv": 1024,
      "rho": 1025,
      ")}": 1026,
      "Ġprodu": 1027,
      "cy": 1028,
      "Ġprob": 1029,
      "delta": 1030,
      "Ġi": 1031,
      "Ġreturn": 1032,
      "theta": 1033,
      "cond": 1034,
      "apt": 1035,
      "Ġsol": 1036,
      "Ġx": 1037,
      "oy": 1038,
      "Ġafter": 1039,
      "tau": 1040,
      "\\!": 1041,
      "meric": 1042,
      "arch": 1043,
      "Ġest": 1044,
      "ists": 1045,
      "Ġsm": 1046,
      "abl": 1047,
      "21": 1048,
      "cdot": 1049,
      "ote": 1050,
      "item": 1051,
      "sy": 1052,
      "ĠCom": 1053,
      "Ġnumber": 1054,
      "ized": 1055,
      "Ġline": 1056,
      "$-": 1057,
      "==": 1058,
      "min": 1059,
      "col": 1060,
      "Ġass": 1061,
      "ars": 1062,
      "Ġext": 1063,
      "Ġcase": 1064,
      "Th": 1065,
      "ĠPro": 1066,
      "uss": 1067,
      "}$,": 1068,
      "}$.": 1069,
      "14": 1070,
      "ĠNew": 1071,
      "ethod": 1072,
      "ms": 1073,
      "ĠFor": 1074,
      "ily": 1075,
      "ev": 1076,
      "ĠAl": 1077,
      "ower": 1078,
      "ange": 1079,
      "Ġfil": 1080,
      "amp": 1081,
      "Ġdifferent": 1082,
      "Ġshe": 1083,
      "Ġappro": 1084,
      "eqref": 1085,
      "Ġmay": 1086,
      "ever": 1087,
      "ĠâĢľ": 1088,
      "eng": 1089,
      "ĠĠĠĠĠĠĠĠĠĠĠĠĠĠĠ": 1090,
      "Ġmost": 1091,
      "}(\\": 1092,
      "198": 1093,
      "air": 1094,
      "ning": 1095,
      "big": 1096,
      "ctions": 1097,
      "oun": 1098,
      "Ġop": 1099,
      "plic": 1100,
      "Ġvari": 1101,
      "ization": 1102,
      "times": 1103,
      "ink": 1104,
      "Ġexp": 1105,
      "ines": 1106,
      "erences": 1107,
      "Ġspec": 1108,
      "Ġsign": 1109,
      "nu": 1110,
      "cess": 1111,
      "ade": 1112,
      "yn": 1113,
      "Ġcur": 1114,
      "ĠQ": 1115,
      "aramet": 1116,
      "ĠZ": 1117,
      "orld": 1118,
      "Ġinst": 1119,
      "Ġbl": 1120,
      "ource": 1121,
      "Ġget": 1122,
      "partial": 1123,
      "Ġbec": 1124,
      "Ġwell": 1125,
      "Ġ.": 1126,
      "Ġusing": 1127,
      "Ġrep": 1128,
      "irect": 1129,
      "\",": 1130,
      "ton": 1131,
      "ren": 1132,
      "arrow": 1133,
      "itt": 1134,
      "Ġnon": 1135,
      "Ġent": 1136,
      "omega": 1137,
      "var": 1138,
      "ute": 1139,
      "25": 1140,
      "pert": 1141,
      "Ġsame": 1142,
      "->": 1143,
      "Ġref": 1144,
      "ract": 1145,
      "fty": 1146,
      "ample": 1147,
      "Ref": 1148,
      "Ġthrough": 1149,
      "ash": 1150,
      "Ġpartic": 1151,
      "ision": 1152,
      "ider": 1153,
      "infty": 1154,
      "pm": 1155,
      "val": 1156,
      "ically": 1157,
      "Ġfl": 1158,
      "ĠX": 1159,
      "mm": 1160,
      "oci": 1161,
      "Ġbu": 1162,
      "quad": 1163,
      "for": 1164,
      "ement": 1165,
      "Ġoper": 1166,
      "def": 1167,
      "Ġfield": 1168,
      "tilde": 1169,
      "Ġpeople": 1170,
      "ause": 1171,
      "Ġend": 1172,
      "Ġam": 1173,
      "Ġsur": 1174,
      "|\\": 1175,
      "wn": 1176,
      "Ġthem": 1177,
      "ames": 1178,
      "30": 1179,
      "Ġboth": 1180,
      "ron": 1181,
      "arge": 1182,
      "Ġterm": 1183,
      "hen": 1184,
      "Ġgiven": 1185,
      "uch": 1186,
      "gy": 1187,
      "ason": 1188,
      "Ġstate": 1189,
      "Ġsa": 1190,
      "par": 1191,
      "ĠAs": 1192,
      "ism": 1193,
      "Ġhigh": 1194,
      "Ġfollowing": 1195,
      "Ġdet": 1196,
      "Delta": 1197,
      "ices": 1198,
      "Ġtr": 1199,
      "Ġgroup": 1200,
      "owever": 1201,
      "sec": 1202,
      "att": 1203,
      "Ġ/": 1204,
      "ots": 1205,
      "chool": 1206,
      "space": 1207,
      "any": 1208,
      "Ġ:": 1209,
      "ases": 1210,
      "irc": 1211,
      "eqn": 1212,
      "err": 1213,
      "reat": 1214,
      "Ġed": 1215,
      "Ġ//": 1216,
      "ee": 1217,
      "Ġback": 1218,
      "ĠAmeric": 1219,
      "Ġmin": 1220,
      "ively": 1221,
      "Ġever": 1222,
      "Ġperform": 1223,
      "atic": 1224,
      "yp": 1225,
      "ished": 1226,
      "ern": 1227,
      "Ġem": 1228,
      "ĉĉĉĉ": 1229,
      "Ġthree": 1230,
      "Ġrequ": 1231,
      "Ġfact": 1232,
      "197": 1233,
      "gan": 1234,
      "Ġac": 1235,
      "oh": 1236,
      "Ġcent": 1237,
      ".,": 1238,
      "ional": 1239,
      "Ġsing": 1240,
      "hip": 1241,
      "\\,": 1242,
      "23": 1243,
      "serv": 1244,
      "ages": 1245,
      "Ġinf": 1246,
      "Ġcall": 1247,
      "Ġz": 1248,
      "man": 1249,
      "Ġele": 1250,
      "center": 1251,
      "Ġdisc": 1252,
      "Ġfin": 1253,
      "Ġfound": 1254,
      "sim": 1255,
      "Ġsecond": 1256,
      "ining": 1257,
      "ah": 1258,
      "Ġvalue": 1259,
      "ĠDe": 1260,
      "Ġagain": 1261,
      "xi": 1262,
      "ner": 1263,
      "ball": 1264,
      "References": 1265,
      "Ġra": 1266,
      "not": 1267,
      "}[": 1268,
      "velop": 1269,
      "Ġmon": 1270,
      "Ġmethod": 1271,
      "Ġatt": 1272,
      "Ġser": 1273,
      "ier": 1274,
      "rang": 1275,
      "Ġserv": 1276,
      "Ġdesc": 1277,
      "work": 1278,
      "Ġorder": 1279,
      "formation": 1280,
      "Ġsee": 1281,
      "Ġpublic": 1282,
      "asure": 1283,
      "orem": 1284,
      "Ġdec": 1285,
      "50": 1286,
      "Ġwhile": 1287,
      "}}\\": 1288,
      "iversity": 1289,
      "iver": 1290,
      "rent": 1291,
      "Ġstr": 1292,
      "rix": 1293,
      "Ġeffect": 1294,
      "ĠSh": 1295,
      "Ġ$(": 1296,
      ")$.": 1297,
      "Ġresults": 1298,
      "uth": 1299,
      "Ġlead": 1300,
      "ality": 1301,
      "ful": 1302,
      "resp": 1303,
      "Ġsmall": 1304,
      "ross": 1305,
      "ential": 1306,
      "))": 1307,
      "ulation": 1308,
      "Pro": 1309,
      "Ġparamet": 1310,
      "::": 1311,
      "arly": 1312,
      "Ġobtain": 1313,
      "rict": 1314,
      "Ġanal": 1315,
      "includ": 1316,
      "ability": 1317,
      "ife": 1318,
      "Ġname": 1319,
      "epsilon": 1320,
      "where": 1321,
      "ĠLe": 1322,
      "Om": 1323,
      "Ġlike": 1324,
      "orth": 1325,
      "Ġneed": 1326,
      "ĠInd": 1327,
      "$$": 1328,
      "uc": 1329,
      "Ġcre": 1330,
      "Con": 1331,
      "Ġyears": 1332,
      "ĠCl": 1333,
      "Ġhim": 1334,
      "24": 1335,
      "Ġ</": 1336,
      "ĠAn": 1337,
      "ural": 1338,
      "Ġbound": 1339,
      "son": 1340,
      "}_{\\": 1341,
      "Ġ@": 1342,
      "000": 1343,
      "sq": 1344,
      "az": 1345,
      "Ġdep": 1346,
      "Omega": 1347,
      "ternal": 1348,
      "ology": 1349,
      "ten": 1350,
      "way": 1351,
      "ank": 1352,
      "ructure": 1353,
      "view": 1354,
      "Ġart": 1355,
      "outh": 1356,
      "196": 1357,
      "oid": 1358,
      "Ġmany": 1359,
      "Ġevery": 1360,
      "ants": 1361,
      "ired": 1362,
      "Ġduring": 1363,
      "erence": 1364,
      "angle": 1365,
      "ency": 1366,
      "ale": 1367,
      "Ġnow": 1368,
      "Ġchar": 1369,
      "yle": 1370,
      "Ġbeing": 1371,
      "hes": 1372,
      "ĠCon": 1373,
      "ctor": 1374,
      "Ġlong": 1375,
      "^*": 1376,
      "ets": 1377,
      "aj": 1378,
      "ury": 1379,
      "Ġbel": 1380,
      "umn": 1381,
      "ĠFig": 1382,
      "mbol": 1383,
      "../": 1384,
      "iqu": 1385,
      "ared": 1386,
      "eqnarray": 1387,
      "ĠčĊ": 1388,
      "Ġadd": 1389,
      "ott": 1390,
      "Ġfam": 1391,
      "psi": 1392,
      "Ġcould": 1393,
      "ather": 1394,
      "rel": 1395,
      "Ġprocess": 1396,
      "Ġdirect": 1397,
      "vent": 1398,
      "fore": 1399,
      "energy": 1400,
      ")$,": 1401,
      "me": 1402,
      "Ġstart": 1403,
      "ĠCol": 1404,
      "ER": 1405,
      "',": 1406,
      "ole": 1407,
      "raphics": 1408,
      "Ġsaid": 1409,
      "log": 1410,
      "by": 1411,
      "ffic": 1412,
      "agn": 1413,
      "Ġjust": 1414,
      "rop": 1415,
      "Ġmass": 1416,
      "erson": 1417,
      "au": 1418,
      "Ġrepresent": 1419,
      "ript": 1420,
      "ood": 1421,
      "ouse": 1422,
      "Ph": 1423,
      "Ġsince": 1424,
      "Ġmeasure": 1425,
      "Ġyour": 1426,
      "rid": 1427,
      "For": 1428,
      "Ġpresent": 1429,
      "eb": 1430,
      "led": 1431,
      "textbf": 1432,
      "bm": 1433,
      "Ġcondition": 1434,
      "etwork": 1435,
      "cept": 1436,
      "sqrt": 1437,
      "Ġ`": 1438,
      "Ġteam": 1439,
      "Ã©": 1440,
      "Ġdistrib": 1441,
      "ified": 1442,
      "chn": 1443,
      "Ġcontin": 1444,
      "Ġexper": 1445,
      "psilon": 1446,
      "read": 1447,
      "ead": 1448,
      "raw": 1449,
      "Gamma": 1450,
      "Ġrespect": 1451,
      "Ġmult": 1452,
      "respond": 1453,
      "aking": 1454,
      "ĠĠĊ": 1455,
      "subsection": 1456,
      "Ġrele": 1457,
      "Ġopt": 1458,
      "Ġmed": 1459,
      "Ġdevelop": 1460,
      "Ġmade": 1461,
      "Ġwhat": 1462,
      "Ġspace": 1463,
      "Ġright": 1464,
      "other": 1465,
      "ved": 1466,
      "Ġproblem": 1467,
      "lex": 1468,
      "els": 1469,
      "Ġmain": 1470,
      "Ġfind": 1471,
      "Ch": 1472,
      "Ġincre": 1473,
      "ived": 1474,
      "bers": 1475,
      "It": 1476,
      "ĠSc": 1477,
      "Ġcount": 1478,
      "Ġobserv": 1479,
      "This": 1480,
      "Ġtest": 1481,
      "^{(": 1482,
      "capt": 1483,
      "Ġsupport": 1484,
      "ml": 1485,
      "ters": 1486,
      "ĠAmerican": 1487,
      "ission": 1488,
      "Ġbecause": 1489,
      "ask": 1490,
      "Ġbefore": 1491,
      "rightarrow": 1492,
      "overn": 1493,
      "Ġtype": 1494,
      "ery": 1495,
      "vare": 1496,
      "Ġfeature": 1497,
      "ting": 1498,
      "Ġmet": 1499,
      "ane": 1500,
      "Ġlarge": 1501,
      "Ġshould": 1502,
      "Ġapp": 1503,
      "ĠUniversity": 1504,
      "bold": 1505,
      "egraphics": 1506,
      "includegraphics": 1507,
      "co": 1508,
      "tr": 1509,
      "Ġeven": 1510,
      "ness": 1511,
      "Ġvery": 1512,
      "Ġdoes": 1513,
      "gram": 1514,
      "ior": 1515,
      "}=": 1516,
      "40": 1517,
      "varepsilon": 1518,
      "}^{\\": 1519,
      "Ġposs": 1520,
      "Ġassum": 1521,
      "med": 1522,
      "ensure": 1523,
      "caption": 1524,
      "Ġu": 1525,
      "ĠAd": 1526,
      "cm": 1527,
      "mod": 1528,
      "Ġhow": 1529,
      "Ġlim": 1530,
      "IN": 1531,
      "Ġelect": 1532,
      "ives": 1533,
      "ength": 1534,
      "bl": 1535,
      "cer": 1536,
      ")=": 1537,
      "tab": 1538,
      "Ġ${\\": 1539,
      "...": 1540,
      "ST": 1541,
      "ateg": 1542,
      "Ġdr": 1543,
      "(\"": 1544,
      "Ġgeneral": 1545,
      "gor": 1546,
      "Ġpop": 1547,
      "itive": 1548,
      "Ġenergy": 1549,
      "imens": 1550,
      "Ġcorrespond": 1551,
      "Ġtop": 1552,
      "umer": 1553,
      "();": 1554,
      "atch": 1555,
      "position": 1556,
      "Ġel": 1557,
      "utions": 1558,
      "vious": 1559,
      "ival": 1560,
      "Ġgu": 1561,
      "Ġdescrib": 1562,
      "Com": 1563,
      "Ġrun": 1564,
      "Ġwrit": 1565,
      "rangle": 1566,
      "rak": 1567,
      "epend": 1568,
      "Ġfour": 1569,
      "Ġden": 1570,
      "ina": 1571,
      "olution": 1572,
      "Ġappe": 1573,
      "ience": 1574,
      "urther": 1575,
      "essage": 1576,
      "sk": 1577,
      "ĠAr": 1578,
      "ĠEx": 1579,
      "Ġconsider": 1580,
      "Ġ,": 1581,
      "Ġbased": 1582,
      "ĠOn": 1583,
      "Ġlocal": 1584,
      "arn": 1585,
      "pon": 1586,
      "Ġscal": 1587,
      "iew": 1588,
      "vert": 1589,
      "ify": 1590,
      "oss": 1591,
      "Ġ\\,": 1592,
      "ĠSp": 1593,
      "rodu": 1594,
      "Ġhand": 1595,
      "ht": 1596,
      "Ġmy": 1597,
      "ift": 1598,
      "Ġknown": 1599,
      "ument": 1600,
      "emph": 1601,
      "Ġestim": 1602,
      "ually": 1603,
      "ele": 1604,
      "27": 1605,
      "Ġreal": 1606,
      ".~\\": 1607,
      "Ġrad": 1608,
      "chi": 1609,
      "usic": 1610,
      "Ġve": 1611,
      "ĠUnited": 1612,
      "Ġorig": 1613,
      "Ġ)": 1614,
      "ven": 1615,
      "Ġcharact": 1616,
      "div": 1617,
      "ĠIs": 1618,
      "span": 1619,
      "gorith": 1620,
      "Ġmov": 1621,
      "As": 1622,
      "26": 1623,
      "iving": 1624,
      "varphi": 1625,
      "ital": 1626,
      "non": 1627,
      "Ġmem": 1628,
      "geq": 1629,
      "inks": 1630,
      "Ġincluding": 1631,
      "Ġpres": 1632,
      "Ġcontain": 1633,
      "Ġstructure": 1634,
      "ĉĉĉ": 1635,
      "Ġtem": 1636,
      "Ġdi": 1637,
      "omen": 1638,
      "Ġcal": 1639,
      "100": 1640,
      "28": 1641,
      "Ġway": 1642,
      "Ġident": 1643,
      "ilar": 1644,
      "less": 1645,
      "ration": 1646,
      "ON": 1647,
      "--------": 1648,
      "Ġallow": 1649,
      "Ġthose": 1650,
      "Ġhel": 1651,
      "Ġmake": 1652,
      "ober": 1653,
      "rol": 1654,
      "omet": 1655,
      "AR": 1656,
      "back": 1657,
      "vers": 1658,
      "Ġown": 1659,
      "ij": 1660,
      "proof": 1661,
      "Ġread": 1662,
      "ohn": 1663,
      "itial": 1664,
      "Ġexpl": 1665,
      "Ġlast": 1666,
      ".}": 1667,
      "symbol": 1668,
      "ger": 1669,
      "Ġinformation": 1670,
      "&\\": 1671,
      "ĠĠĠĠĠĠĠĠĠ": 1672,
      "ĠPh": 1673,
      "://": 1674,
      "ĠEng": 1675,
      "ampl": 1676,
      "Ġinteg": 1677,
      "ves": 1678,
      "Ġrem": 1679,
      "Ġvalues": 1680,
      "Ġimport": 1681,
      "Ġstat": 1682,
      "Ġopen": 1683,
      "Ġerr": 1684,
      "Ġstand": 1685,
      "Ġabove": 1686,
      "Ġknow": 1687,
      "ek": 1688,
      "istory": 1689,
      "Cl": 1690,
      "ĠPl": 1691,
      "ĠIf": 1692,
      "''": 1693,
      "Ġdesign": 1694,
      "alth": 1695,
      "Ġconf": 1696,
      "AT": 1697,
      "Ġprovid": 1698,
      "Ġpropert": 1699,
      "ĠShe": 1700,
      "Ġlist": 1701,
      "Ġsat": 1702,
      "Ġlevel": 1703,
      "Ġcar": 1704,
      "Ġcurrent": 1705,
      "Ġcommun": 1706,
      "face": 1707,
      "ormal": 1708,
      "Ġrest": 1709,
      "},\\": 1710,
      "ccess": 1711,
      "ootball": 1712,
      "Ġdue": 1713,
      "por": 1714,
      "Ġav": 1715,
      "day": 1716,
      ".\"": 1717,
      "boldsymbol": 1718,
      "2018": 1719,
      "ley": 1720,
      "2016": 1721,
      "ody": 1722,
      "Ġgl": 1723,
      "Ġbecom": 1724,
      "Ġlet": 1725,
      "overline": 1726,
      "Ġ>": 1727,
      "ĠMar": 1728,
      "2020": 1729,
      "Big": 1730,
      "Ġaddition": 1731,
      "hline": 1732,
      "inc": 1733,
      "ke": 1734,
      "pp": 1735,
      "ected": 1736,
      "ense": 1737,
      "Ġnetwork": 1738,
      "Ġrecord": 1739,
      "ero": 1740,
      "[\\": 1741,
      "bs": 1742,
      "Ġobject": 1743,
      "aces": 1744,
      "enn": 1745,
      "Ġagainst": 1746,
      "****": 1747,
      "rem": 1748,
      "aper": 1749,
      "wh": 1750,
      "ensity": 1751,
      "Ġsingle": 1752,
      "ird": 1753,
      "ĠAnd": 1754,
      "29": 1755,
      "Ġche": 1756,
      "til": 1757,
      "Ġspect": 1758,
      "rand": 1759,
      "ret": 1760,
      "Âł": 1761,
      "2019": 1762,
      "}).": 1763,
      "lim": 1764,
      "Ġbuild": 1765,
      "rack": 1766,
      "):": 1767,
      "Ġprof": 1768,
      "2017": 1769,
      "194": 1770,
      "ym": 1771,
      "this": 1772,
      "ograph": 1773,
      "Ġseries": 1774,
      "Ġcomput": 1775,
      "imal": 1776,
      "Ġplayers": 1777,
      "erest": 1778,
      ")^": 1779,
      "Ġquant": 1780,
      "Ġshown": 1781,
      "Ġdid": 1782,
      "33": 1783,
      "Ġ*/": 1784,
      "Ġlater": 1785,
      "Ġ#": 1786,
      "195": 1787,
      "Ġdepend": 1788,
      "Ġfinal": 1789,
      "refore": 1790,
      "ately": 1791,
      "ĠĠĠĠĠĠĠĠĠĠĠĠĠĠĠĠĠĠĠ": 1792,
      "Ġself": 1793,
      "see": 1794,
      "arm": 1795,
      "Ġpower": 1796,
      "une": 1797,
      "frak": 1798,
      "ĠRe": 1799,
      "ised": 1800,
      "Ġ_": 1801,
      "Ġexpect": 1802,
      "ĠComm": 1803,
      "ĠHowever": 1804,
      "Ġsum": 1805,
      "Ġleft": 1806,
      "inition": 1807,
      "ule": 1808,
      "></": 1809,
      "Ġmap": 1810,
      "ety": 1811,
      "be": 1812,
      "Ġlinks": 1813,
      "}}$": 1814,
      "requ": 1815,
      "posed": 1816,
      "Ġdown": 1817,
      "new": 1818,
      "ths": 1819,
      "ators": 1820,
      "Ġmuch": 1821,
      "Ġreport": 1822,
      "ldots": 1823,
      "akes": 1824,
      "To": 1825,
      "Ġfollows": 1826,
      "Ġmodels": 1827,
      "vec": 1828,
      "Ġvis": 1829,
      "2015": 1830,
      "uro": 1831,
      "Ġrema": 1832,
      "Ġexample": 1833,
      "Ġrece": 1834,
      "Ġaround": 1835,
      "Ġwithin": 1836,
      "reg": 1837,
      "Let": 1838,
      "comm": 1839,
      "AS": 1840,
      "ification": 1841,
      "Ġparticular": 1842,
      "ures": 1843,
      "ene": 1844,
      "str": 1845,
      "xim": 1846,
      "ĠâĢĶ": 1847,
      "Ġseason": 1848,
      "On": 1849,
      "ĠRes": 1850,
      "><": 1851,
      "RE": 1852,
      "play": 1853,
      "dd": 1854,
      "veral": 1855,
      "Ġdefined": 1856,
      "ium": 1857,
      "Ġcalled": 1858,
      "ison": 1859,
      "lection": 1860,
      "Ġredu": 1861,
      "langle": 1862,
      "ĠBl": 1863,
      "Ġtechn": 1864,
      "color": 1865,
      "Ġfilm": 1866,
      "Ġgame": 1867,
      "iod": 1868,
      "Ġmark": 1869,
      "Ġsimilar": 1870,
      "../../": 1871,
      "orph": 1872,
      "ble": 1873,
      "side": 1874,
      "ensuremath": 1875,
      "ĠCount": 1876,
      "ysis": 1877,
      "Ġocc": 1878,
      "Ġpass": 1879,
      "Ġalong": 1880,
      "iness": 1881,
      "mathfrak": 1882,
      "Ġpat": 1883,
      "Ġworld": 1884,
      "etail": 1885,
      "trans": 1886,
      "ai": 1887,
      "Ġfamily": 1888,
      "Ġlow": 1889,
      "Ġschool": 1890,
      "anc": 1891,
      "cul": 1892,
      "Ġhere": 1893,
      "Ġstill": 1894,
      "};": 1895,
      "mp": 1896,
      "2014": 1897,
      "Ġbas": 1898,
      "arget": 1899,
      "sf": 1900,
      "ĠMay": 1901,
      "32": 1902,
      "Ġbeh": 1903,
      "ination": 1904,
      "anu": 1905,
      "Ġsize": 1906,
      "ynam": 1907,
      "ID": 1908,
      "Ġtri": 1909,
      "ĠStates": 1910,
      "Ġtot": 1911,
      "Ġstudy": 1912,
      "lation": 1913,
      "mmet": 1914,
      "Ġnear": 1915,
      "action": 1916,
      "Ġpred": 1917,
      "Ġpar": 1918,
      "Ġvers": 1919,
      "Ġprogram": 1920,
      "Lambda": 1921,
      "ched": 1922,
      "Ġsection": 1923,
      "60": 1924,
      "Res": 1925,
      "ection": 1926,
      "ious": 1927,
      "add": 1928,
      "isf": 1929,
      "bum": 1930,
      "appa": 1931,
      "ĠAt": 1932,
      "Ġtake": 1933,
      "textit": 1934,
      "ream": 1935,
      "Ġdom": 1936,
      "Ġbro": 1937,
      "âĢľ": 1938,
      "Ġestabl": 1939,
      "ording": 1940,
      "Ġlarg": 1941,
      "Ġbest": 1942,
      "nabl": 1943,
      "Ġsl": 1944,
      "Ġcharacter": 1945,
      "ĠAll": 1946,
      "Ġhig": 1947,
      "bra": 1948,
      "opt": 1949,
      "2010": 1950,
      "Phi": 1951,
      "citep": 1952,
      "Ġdeterm": 1953,
      "Al": 1954,
      "ĠCan": 1955,
      "Ġpoints": 1956,
      "ww": 1957,
      "'t": 1958,
      "cor": 1959,
      "2013": 1960,
      "with": 1961,
      "Ġterms": 1962,
      "2021": 1963,
      "urs": 1964,
      "Ġet": 1965,
      "ĠNational": 1966,
      "no": 1967,
      "ser": 1968,
      "Ġshows": 1969,
      "ĠJohn": 1970,
      "ground": 1971,
      "iment": 1972,
      "gorithm": 1973,
      "ivid": 1974,
      "alk": 1975,
      "oll": 1976,
      "dis": 1977,
      "org": 1978,
      "Ġder": 1979,
      "====": 1980,
      "Ġhelp": 1981,
      "Ġcontinu": 1982,
      "Ġmust": 1983,
      "wards": 1984,
      "table": 1985,
      "ĠCar": 1986,
      "name": 1987,
      "ĠFran": 1988,
      "External": 1989,
      "Ġseveral": 1990,
      "oper": 1991,
      "Ġgra": 1992,
      "ault": 1993,
      "esc": 1994,
      "Ġdem": 1995,
      "istic": 1996,
      "35": 1997,
      "lear": 1998,
      "ories": 1999,
      "itle": 2000,
      "etic": 2001,
      "plit": 2002,
      "ivity": 2003,
      ".âĢĿ": 2004,
      "ĠTo": 2005,
      "otential": 2006,
      "sm": 2007,
      "Ġcap": 2008,
      "2022": 2009,
      "ering": 2010,
      "af": 2011,
      "ĠWh": 2012,
      "pd": 2013,
      "rist": 2014,
      "Ġdistribution": 2015,
      "45": 2016,
      "Ġdiscuss": 2017,
      "ĠWorld": 2018,
      "2012": 2019,
      "ixed": 2020,
      "ister": 2021,
      "overnment": 2022,
      "ague": 2023,
      "kappa": 2024,
      "Ġinterest": 2025,
      "ended": 2026,
      "subset": 2027,
      "ependent": 2028,
      "aving": 2029,
      "Ġevent": 2030,
      "ression": 2031,
      "ajor": 2032,
      "Ġlife": 2033,
      "Ġimp": 2034,
      "class": 2035,
      "mult": 2036,
      "Ġgood": 2037,
      "self": 2038,
      "ternational": 2039,
      "Ġassoci": 2040,
      "Ġcho": 2041,
      "Ġprevious": 2042,
      "html": 2043,
      "Ġclos": 2044,
      "Ġinitial": 2045,
      "Ġhold": 2046,
      "ugg": 2047,
      "alse": 2048,
      "nabla": 2049,
      "atter": 2050,
      "Ġintrodu": 2051,
      "ĠAust": 2052,
      "ĠĠĠĠĠĠĠĠĠĠĠĠĠĠĠĠĠĠĠĠĠĠĠĠĠĠĠĠĠĠĠĠ": 2053,
      "Name": 2054,
      "Ġwithout": 2055,
      "Ġlook": 2056,
      "Ġcare": 2057,
      "2011": 2058,
      "odes": 2059,
      "Ġchild": 2060,
      "})$": 2061,
      "Ġtyp": 2062,
      "rum": 2063,
      "ape": 2064,
      "uthor": 2065,
      "ially": 2066,
      "ĠCent": 2067,
      "Ġorgan": 2068,
      "Ġmax": 2069,
      "Ġ--": 2070,
      "\".": 2071,
      "urch": 2072,
      "ords": 2073,
      "Ġpost": 2074,
      "circ": 2075,
      "ĠOr": 2076,
      "rag": 2077,
      "ĠThey": 2078,
      "mbox": 2079,
      "ries": 2080,
      "ians": 2081,
      "Ġplace": 2082,
      "angu": 2083,
      "Ġhead": 2084,
      "lu": 2085,
      "otimes": 2086,
      "usiness": 2087,
      "Ġann": 2088,
      "ler": 2089,
      "90": 2090,
      "\\|": 2091,
      "Ġwin": 2092,
      "ances": 2093,
      "Ġtotal": 2094,
      "Ġposition": 2095,
      "Ġarea": 2096,
      ".\\": 2097,
      "\\%": 2098,
      "Ġnext": 2099,
      "}}{": 2100,
      "ches": 2101,
      "By": 2102,
      "ients": 2103,
      "iter": 2104,
      "Ġexist": 2105,
      "ĠThen": 2106,
      "Ġmean": 2107,
      "}),": 2108,
      "Type": 2109,
      "Ġcomb": 2110,
      "de": 2111,
      "ĠĠĠĠĠĠ": 2112,
      "ception": 2113,
      "('": 2114,
      "80": 2115,
      "ĠJul": 2116,
      "Ġtrue": 2117,
      "Ġproject": 2118,
      "Ġsatisf": 2119,
      "ĠNov": 2120,
      "Ġlaw": 2121,
      "Ġpossible": 2122,
      "Ġmagn": 2123,
      "ĠGe": 2124,
      "Ġbo": 2125,
      "aim": 2126,
      "Ġstrong": 2127,
      "arent": 2128,
      "Ġcrit": 2129,
      "Ġprot": 2130,
      "idd": 2131,
      "AL": 2132,
      "const": 2133,
      "Ġdeg": 2134,
      "Ġparameters": 2135,
      "aus": 2136,
      "urb": 2137,
      "Id": 2138,
      "ĠYork": 2139,
      "cont": 2140,
      "Ġinvest": 2141,
      "Ġuntil": 2142,
      "td": 2143,
      "ivate": 2144,
      "Ġstates": 2145,
      "ique": 2146,
      "ts": 2147,
      "Ġperson": 2148,
      "2009": 2149,
      "ris": 2150,
      "nonumber": 2151,
      "Ġbre": 2152,
      "Ġfootball": 2153,
      "ored": 2154,
      "Ġbook": 2155,
      "roll": 2156,
      "Ġcontrib": 2157,
      "\\[": 2158,
      "time": 2159,
      "Ġsequ": 2160,
      "ĠWar": 2161,
      "ament": 2162,
      "ats": 2163,
      "iron": 2164,
      "Ġproduct": 2165,
      "ruction": 2166,
      "duct": 2167,
      "ention": 2168,
      "pose": 2169,
      "OR": 2170,
      "ploy": 2171,
      "iam": 2172,
      "cur": 2173,
      "ĠYou": 2174,
      "An": 2175,
      "Sigma": 2176,
      "source": 2177,
      "Ġalbum": 2178,
      "Un": 2179,
      "import": 2180,
      "Ġadv": 2181,
      "anuary": 2182,
      "htt": 2183,
      "ĠTe": 2184,
      "ges": 2185,
      "Ġpotential": 2186,
      "ĠSchool": 2187,
      "Ġband": 2188,
      "Ġobtained": 2189,
      "wide": 2190,
      "imum": 2191,
      "2008": 2192,
      "Ġrese": 2193,
      "bit": 2194,
      "Ġcompon": 2195,
      ":\\!": 2196,
      "draw": 2197,
      "ĠBy": 2198,
      "Ġapproxim": 2199,
      "ĠPr": 2200,
      "type": 2201,
      "ĠCounty": 2202,
      "Ġmatrix": 2203,
      "75": 2204,
      "sequ": 2205,
      "widet": 2206,
      "\\!:\\!": 2207,
      "Ġaver": 2208,
      "ĠLet": 2209,
      "Ġsignific": 2210,
      "atrix": 2211,
      "Ġimportant": 2212,
      "Ġperiod": 2213,
      "Ġaut": 2214,
      "aster": 2215,
      "ources": 2216,
      "Ġcou": 2217,
      "dots": 2218,
      "Ġhref": 2219,
      "ling": 2220,
      "Ġchang": 2221,
      "cit": 2222,
      "ences": 2223,
      "Ġaff": 2224,
      "Ġspe": 2225,
      "Ġsolution": 2226,
      "loc": 2227,
      "Ġdel": 2228,
      "Ġkey": 2229,
      "amed": 2230,
      "box": 2231,
      "aint": 2232,
      "ourn": 2233,
      "Ġcour": 2234,
      "ilt": 2235,
      "Ġthough": 2236,
      "Ġmusic": 2237,
      "Ġarg": 2238,
      "ĠSouth": 2239,
      "AN": 2240,
      "36": 2241,
      "Ġbir": 2242,
      "Ġdensity": 2243,
      "Ġpaper": 2244,
      "99": 2245,
      "ĠBe": 2246,
      "Ġanother": 2247,
      "Ġfunctions": 2248,
      "ither": 2249,
      "Ġperformance": 2250,
      "ĠAug": 2251,
      "widetilde": 2252,
      "ables": 2253,
      "II": 2254,
      "ailable": 2255,
      "Ġshort": 2256,
      "Ġvar": 2257,
      "Ġcomplex": 2258,
      "ĠPol": 2259,
      "ĠUS": 2260,
      "centering": 2261,
      "31": 2262,
      "return": 2263,
      "ĠOct": 2264,
      "illion": 2265,
      "icle": 2266,
      "clus": 2267,
      "EN": 2268,
      "Ġbecame": 2269,
      "Ġphot": 2270,
      "Ġtrad": 2271,
      "Ġeas": 2272,
      "Ġfull": 2273,
      "Ġsk": 2274,
      "Ġpolit": 2275,
      "{-": 2276,
      "field": 2277,
      "Ġview": 2278,
      "off": 2279,
      "Ps": 2280,
      "max": 2281,
      "Ġsuccess": 2282,
      "ological": 2283,
      "Ġregion": 2284,
      "34": 2285,
      "Ġiss": 2286,
      "Ġanalysis": 2287,
      "String": 2288,
      "oad": 2289,
      "01": 2290,
      "ways": 2291,
      "Ġpredict": 2292,
      "ptember": 2293,
      "Ġoffic": 2294,
      "Ġsong": 2295,
      "sup": 2296,
      "ĠRep": 2297,
      "ĠBrit": 2298,
      "obal": 2299,
      "ude": 2300,
      "Fig": 2301,
      "Ġtimes": 2302,
      "ung": 2303,
      "rr": 2304,
      "Ġdeath": 2305,
      "Ġ``": 2306,
      "rap": 2307,
      "lected": 2308,
      "ĠMan": 2309,
      "ush": 2310,
      "ii": 2311,
      "Ġgraph": 2312,
      "Ġturn": 2313,
      "Ġapproach": 2314,
      "Ġimpro": 2315,
      "Ġ=>": 2316,
      "Ġlimit": 2317,
      "empt": 2318,
      "Ġdescribed": 2319,
      "/\\": 2320,
      "Ġfurther": 2321,
      "Ġrange": 2322,
      "amples": 2323,
      "ĠJanuary": 2324,
      "param": 2325,
      "order": 2326,
      "message": 2327,
      "05": 2328,
      "Ġfew": 2329,
      "Ġla": 2330,
      "Ġday": 2331,
      "ux": 2332,
      "perature": 2333,
      "Ġdetail": 2334,
      "Ġstandard": 2335,
      "ocus": 2336,
      "ae": 2337,
      "}-": 2338,
      "Ġtheory": 2339,
      "mber": 2340,
      "Ġcomplet": 2341,
      "osp": 2342,
      "Ġequation": 2343,
      "He": 2344,
      "Ġrate": 2345,
      "ights": 2346,
      "Ġapplic": 2347,
      "Ġcontrol": 2348,
      "uman": 2349,
      "ĠGu": 2350,
      "erman": 2351,
      "Ġconstant": 2352,
      "ends": 2353,
      "top": 2354,
      "ino": 2355,
      "List": 2356,
      "oman": 2357,
      "ĠMarch": 2358,
      "gin": 2359,
      "Ġearly": 2360,
      "Ġrespectively": 2361,
      "AC": 2362,
      "2007": 2363,
      "Ġq": 2364,
      "cap": 2365,
      "64": 2366,
      "tabular": 2367,
      "andom": 2368,
      "Ġgrow": 2369,
      "Ġcorresponding": 2370,
      "ocial": 2371,
      "Ġvert": 2372,
      "Ġphys": 2373,
      "Ġless": 2374,
      "LE": 2375,
      "Ġinclude": 2376,
      "inter": 2377,
      "ĠSy": 2378,
      "ope": 2379,
      "Ar": 2380,
      "reen": 2381,
      "SS": 2382,
      "38": 2383,
      "Ġindic": 2384,
      "Ġhome": 2385,
      "pril": 2386,
      "37": 2387,
      "}+": 2388,
      "Ġeng": 2389,
      "Ġide": 2390,
      "Ġchange": 2391,
      "stand": 2392,
      "plement": 2393,
      "\\]": 2394,
      "Ġvol": 2395,
      "ĠMin": 2396,
      "Ġsystems": 2397,
      "stit": 2398,
      "code": 2399,
      "Ġfree": 2400,
      "Ġwant": 2401,
      "Val": 2402,
      "Ġpath": 2403,
      "prime": 2404,
      "\\{": 2405,
      "ĠEuro": 2406,
      "iple": 2407,
      "Ġhal": 2408,
      "ache": 2409,
      "Ġsignificant": 2410,
      "though": 2411,
      "ĠThere": 2412,
      "ently": 2413,
      "If": 2414,
      "Ġfr": 2415,
      "sl": 2416,
      "Ġ($": 2417,
      "Ġ!": 2418,
      "style": 2419,
      "Ġke": 2420,
      "rite": 2421,
      "ĠCal": 2422,
      "ĠAugust": 2423,
      "Ġleg": 2424,
      "Ġparameter": 2425,
      "ius": 2426,
      "ĠPar": 2427,
      "ĠSeptember": 2428,
      "istor": 2429,
      "cember": 2430,
      "Ġside": 2431,
      "Ġmom": 2432,
      "Ġmot": 2433,
      "script": 2434,
      "ription": 2435,
      "eter": 2436,
      "ĠCo": 2437,
      "2006": 2438,
      "lege": 2439,
      "ze": 2440,
      "Ġconsid": 2441,
      "lish": 2442,
      "Ġhy": 2443,
      "Ġcalcul": 2444,
      "////": 2445,
      "uation": 2446,
      "Ġmajor": 2447,
      "Ġdat": 2448,
      "Ġmanag": 2449,
      "Ġpair": 2450,
      "ides": 2451,
      "ĠSup": 2452,
      "Ġred": 2453,
      "Ġaction": 2454,
      "ĠOctober": 2455,
      "Ġsay": 2456,
      "uk": 2457,
      "asing": 2458,
      "Ġlower": 2459,
      "__": 2460,
      "Ġatta": 2461,
      "Ġins": 2462,
      "aced": 2463,
      "ĠState": 2464,
      "Sh": 2465,
      "Ġold": 2466,
      "pre": 2467,
      "ĠCity": 2468,
      "ĠBut": 2469,
      "thm": 2470,
      "Ġformer": 2471,
      "arning": 2472,
      "ĠArt": 2473,
      "Ġphase": 2474,
      "ports": 2475,
      "viron": 2476,
      "itor": 2477,
      "ĠJune": 2478,
      "Ġavailable": 2479,
      "ĠThese": 2480,
      "39": 2481,
      "ty": 2482,
      "ales": 2483,
      "ideo": 2484,
      ")=\\": 2485,
      "Ġtraining": 2486,
      "SE": 2487,
      "Ġhigher": 2488,
      "ĠAustral": 2489,
      "scal": 2490,
      "Ġsit": 2491,
      "Ġstring": 2492,
      "anguage": 2493,
      "head": 2494,
      "ĠReg": 2495,
      "}]": 2496,
      "Ġlight": 2497,
      "enc": 2498,
      "ampions": 2499,
      "bo": 2500,
      "ĠJuly": 2501,
      "Ġerror": 2502,
      "Ġpubl": 2503,
      "Ġleast": 2504,
      "Ġinvol": 2505,
      "Ġdimens": 2506,
      ";\\": 2507,
      "Ġtarget": 2508,
      "ĠEq": 2509,
      "|-": 2510,
      "ilit": 2511,
      "ried": 2512,
      "Ġland": 2513,
      "Ġnull": 2514,
      "70": 2515,
      "AM": 2516,
      "utes": 2517,
      "Ġfeatures": 2518,
      ",âĢĿ": 2519,
      "emma": 2520,
      "hold": 2521,
      "DE": 2522,
      "node": 2523,
      "ĠNorth": 2524,
      "ĠNo": 2525,
      "Ġcompany": 2526,
      ")(": 2527,
      "ĠTheorem": 2528,
      "ĠMed": 2529,
      "Ġcell": 2530,
      "Ġmembers": 2531,
      "ĠApril": 2532,
      "}=\\": 2533,
      "Ġwon": 2534,
      "ware": 2535,
      "Ġlay": 2536,
      "Ġcy": 2537,
      "Ġproof": 2538,
      "{(": 2539,
      "Ġconditions": 2540,
      "Ġimage": 2541,
      "Ġcases": 2542,
      "Ġtemperature": 2543,
      "inally": 2544,
      "Col": 2545,
      "âĢĶ": 2546,
      "Ġlinear": 2547,
      "ography": 2548,
      ")}\\": 2549,
      "lor": 2550,
      "now": 2551,
      "Ġcompet": 2552,
      "exp": 2553,
      "ĠNovember": 2554,
      "omorph": 2555,
      "Ġmar": 2556,
      "Ġrecent": 2557,
      "iven": 2558,
      "inary": 2559,
      "uted": 2560,
      "Ġinput": 2561,
      "ster": 2562,
      "br": 2563,
      "Re": 2564,
      "otes": 2565,
      "Ġlength": 2566,
      "Ġprom": 2567,
      "ĠAss": 2568,
      "ĠDecember": 2569,
      "ably": 2570,
      "aut": 2571,
      "Ġoriginal": 2572,
      "ĠEurope": 2573,
      "Ġcross": 2574,
      "ĠAf": 2575,
      "zeta": 2576,
      "Ġrandom": 2577,
      "chie": 2578,
      "48": 2579,
      "rary": 2580,
      "ising": 2581,
      "Ġvector": 2582,
      ")^{": 2583,
      "Ġdon": 2584,
      "ividual": 2585,
      "wit": 2586,
      "Ġprovide": 2587,
      "Ġbetter": 2588,
      "Ġgreat": 2589,
      "Ġcity": 2590,
      "Ġpo": 2591,
      "CO": 2592,
      "value": 2593,
      "Ġconsidered": 2594,
      "ĠSection": 2595,
      "conom": 2596,
      "Ġ&=": 2597,
      "uture": 2598,
      "Ġconn": 2599,
      "uff": 2600,
      "Ġbusiness": 2601,
      "go": 2602,
      "Ġmethods": 2603,
      "Ġconsist": 2604,
      "Ġaverage": 2605,
      "Ġgovernment": 2606,
      "ĠWill": 2607,
      "Ġversion": 2608,
      "Ġep": 2609,
      "uild": 2610,
      "based": 2611,
      "Ġsuper": 2612,
      "Ġlog": 2613,
      "IT": 2614,
      "Ġcirc": 2615,
      "ped": 2616,
      "Ġwid": 2617,
      "Ġplayed": 2618,
      "ham": 2619,
      "Ġneg": 2620,
      "aterial": 2621,
      "Ġrelations": 2622,
      "Ġcost": 2623,
      "Ġalgorithm": 2624,
      "Ġwomen": 2625,
      "Ġcoll": 2626,
      "Ġfinite": 2627,
      "Ġfrequ": 2628,
      "onal": 2629,
      "ĠFeb": 2630,
      "ony": 2631,
      "plies": 2632,
      "ĠPart": 2633,
      "Ġcover": 2634,
      "key": 2635,
      "2000": 2636,
      "Ġflow": 2637,
      "Ġpositive": 2638,
      "Ġquest": 2639,
      "ĠCor": 2640,
      "fficient": 2641,
      "Ġdynam": 2642,
      "Ġreleased": 2643,
      "Ġsepar": 2644,
      "ponse": 2645,
      "bb": 2646,
      "')": 2647,
      "cdots": 2648,
      "}^\\": 2649,
      "Ġsource": 2650,
      "Ġamong": 2651,
      "eed": 2652,
      "Ġnode": 2653,
      "lying": 2654,
      "ille": 2655,
      "icy": 2656,
      "Ġstar": 2657,
      "ones": 2658,
      "ruary": 2659,
      "~~": 2660,
      "$)": 2661,
      "],": 2662,
      "raft": 2663,
      "Ġge": 2664,
      "textwidth": 2665,
      "Ġret": 2666,
      "Ġappear": 2667,
      "vision": 2668,
      "Ġloss": 2669,
      "Ġant": 2670,
      "Ġabs": 2671,
      "Ġ==": 2672,
      "Ġbelow": 2673,
      "uration": 2674,
      "}_\\": 2675,
      "ada": 2676,
      "IC": 2677,
      "Ġthus": 2678,
      "ana": 2679,
      "65": 2680,
      "mathsf": 2681,
      "Ġspecial": 2682,
      "mary": 2683,
      "idence": 2684,
      "ĠMe": 2685,
      "atural": 2686,
      "ĠAfter": 2687,
      "##": 2688,
      "uck": 2689,
      "inf": 2690,
      "Ġassociated": 2691,
      "Ġbi": 2692,
      "Ġtext": 2693,
      "Ġsymmet": 2694,
      "Ġthird": 2695,
      "95": 2696,
      "Ġsem": 2697,
      "most": 2698,
      "Ġoften": 2699,
      "Ġcommon": 2700,
      "2005": 2701,
      "ussian": 2702,
      "cle": 2703,
      "Ġhom": 2704,
      "Ġfocus": 2705,
      "ertain": 2706,
      "Ġvarious": 2707,
      "aken": 2708,
      "Ġpopulation": 2709,
      "Ġseen": 2710,
      "cos": 2711,
      "ĠChrist": 2712,
      "widehat": 2713,
      "Ġeither": 2714,
      "ĠMc": 2715,
      "Ġelse": 2716,
      "uggest": 2717,
      "chan": 2718,
      "ĠEn": 2719,
      "Ġpri": 2720,
      "ĠEd": 2721,
      "data": 2722,
      "Ġcorre": 2723,
      "annel": 2724,
      "Ġrepl": 2725,
      "ours": 2726,
      "Ind": 2727,
      "Ġmeans": 2728,
      "opy": 2729,
      "Ġfalse": 2730,
      "Ġenc": 2731,
      "ula": 2732,
      "08": 2733,
      "See": 2734,
      "apan": 2735,
      "Ġproperties": 2736,
      "size": 2737,
      ",-": 2738,
      "lemma": 2739,
      "ems": 2740,
      "born": 2741,
      "iles": 2742,
      "Ġpract": 2743,
      "ocument": 2744,
      "Ġaccess": 2745,
      "eneral": 2746,
      "abor": 2747,
      "indow": 2748,
      "Ġnormal": 2749,
      "/>": 2750,
      "Ġindependent": 2751,
      "Int": 2752,
      "which": 2753,
      "ĠHar": 2754,
      "xspace": 2755,
      "ards": 2756,
      "Ġresp": 2757,
      "foot": 2758,
      "alax": 2759,
      "Ġfive": 2760,
      "ged": 2761,
      "Ġvoid": 2762,
      "ittle": 2763,
      "Ġrole": 2764,
      "Ġang": 2765,
      "ready": 2766,
      "rain": 2767,
      "Ġaccount": 2768,
      "point": 2769,
      "rest": 2770,
      "Ġ\\{": 2771,
      "Ġvia": 2772,
      "02": 2773,
      "})\\": 2774,
      "Ġresearch": 2775,
      "ĠSo": 2776,
      "Ġacross": 2777,
      "}|": 2778,
      "Ġbehav": 2779,
      "vironment": 2780,
      "dom": 2781,
      "ĠWith": 2782,
      "fer": 2783,
      "ibility": 2784,
      "Ġfund": 2785,
      "04": 2786,
      "ĠRec": 2787,
      "Ġtitle": 2788,
      "Ġproposed": 2789,
      "Ġprivate": 2790,
      "wed": 2791,
      "Ġachie": 2792,
      ".~": 2793,
      "07": 2794,
      "ĠâĢĺ": 2795,
      "lete": 2796,
      "Ġservice": 2797,
      "Ġgames": 2798,
      "Ġindividual": 2799,
      "ules": 2800,
      "Ġobserved": 2801,
      "Ġthink": 2802,
      "Ġdefine": 2803,
      "gebra": 2804,
      "qquad": 2805,
      "ĠKing": 2806,
      "map": 2807,
      "Ġlines": 2808,
      "ĠOne": 2809,
      "Ġwater": 2810,
      "\")": 2811,
      "ĠFebruary": 2812,
      "ving": 2813,
      "AP": 2814,
      "function": 2815,
      "Ġhistory": 2816,
      "Ġplan": 2817,
      "Ġelement": 2818,
      "lement": 2819,
      "ĠMore": 2820,
      "ĠBritish": 2821,
      "Ġmulti": 2822,
      "augh": 2823,
      "prop": 2824,
      "ecess": 2825,
      "Ġdev": 2826,
      "Ġhowever": 2827,
      "ĠBar": 2828,
      "sing": 2829,
      "raint": 2830,
      "Ġfore": 2831,
      "Ġfac": 2832,
      "ordin": 2833,
      "Ġblack": 2834,
      "gether": 2835,
      "gl": 2836,
      "Ġtogether": 2837,
      "bor": 2838,
      "pdf": 2839,
      "wise": 2840,
      "Ġgive": 2841,
      "2004": 2842,
      "Ġbecome": 2843,
      "Ġsuggest": 2844,
      "Ġevents": 2845,
      "Ġrequire": 2846,
      "raction": 2847,
      "44": 2848,
      "na": 2849,
      "Ġexists": 2850,
      "Ġeval": 2851,
      "ief": 2852,
      "Ġ&&": 2853,
      "Ġzero": 2854,
      "Ġcompos": 2855,
      "Ġlik": 2856,
      "Ġport": 2857,
      "55": 2858,
      "translation": 2859,
      "ĠSch": 2860,
      "Pl": 2861,
      "small": 2862,
      "Ġhard": 2863,
      "Ġclaim": 2864,
      "Ġfactor": 2865,
      "plied": 2866,
      "ĠLeague": 2867,
      "ĠFigure": 2868,
      "ustom": 2869,
      "Ġmatch": 2870,
      "mat": 2871,
      "Ġarch": 2872,
      "Ġcompar": 2873,
      "ume": 2874,
      "Ġauthor": 2875,
      "string": 2876,
      "Ġalways": 2877,
      "}}(": 2878,
      "}\\,": 2879,
      "Ġtook": 2880,
      "but": 2881,
      "ĠWest": 2882,
      "Ġmoment": 2883,
      "ĠSince": 2884,
      "Psi": 2885,
      "Ġage": 2886,
      "iance": 2887,
      "Ġstep": 2888,
      "Ġtre": 2889,
      "Ġtoo": 2890,
      "aul": 2891,
      "bject": 2892,
      "ampionship": 2893,
      "Ġexpected": 2894,
      "ounc": 2895,
      "cast": 2896,
      "Ġsix": 2897,
      "acy": 2898,
      "igen": 2899,
      "ulations": 2900,
      "}^{(": 2901,
      "Ġnumer": 2902,
      "06": 2903,
      "^+": 2904,
      "ĠII": 2905,
      "ressed": 2906,
      "Ġsche": 2907,
      "comp": 2908,
      "ĠĠĠĠĠĠĠĠĠĠĠĠĠ": 2909,
      "Ġjo": 2910,
      "load": 2911,
      "ips": 2912,
      "Ġsurface": 2913,
      "Ġprim": 2914,
      "Ġlearning": 2915,
      "09": 2916,
      "&=": 2917,
      "fl": 2918,
      "Ġmember": 2919,
      "group": 2920,
      "Ġhaving": 2921,
      "oted": 2922,
      "Ġregular": 2923,
      "rew": 2924,
      "cup": 2925,
      "Ġcareer": 2926,
      "Ġcoupl": 2927,
      "ĠBo": 2928,
      "ilities": 2929,
      "\"/>": 2930,
      "ava": 2931,
      "}\\\\": 2932,
      "Ġstre": 2933,
      "ĠWhen": 2934,
      "Ġhouse": 2935,
      "adem": 2936,
      "Set": 2937,
      "Ġanaly": 2938,
      "Ġrat": 2939,
      "âĢ¦": 2940,
      "ĠSer": 2941,
      "Ġsimple": 2942,
      "Ġprobability": 2943,
      "sin": 2944,
      "Ġequival": 2945,
      "Ġchildren": 2946,
      "Ġ$(\\": 2947,
      "iction": 2948,
      "Ġconstruct": 2949,
      "sw": 2950,
      "Ġdire": 2951,
      "ply": 2952,
      "alt": 2953,
      "Ġalign": 2954,
      "Ġdefinition": 2955,
      "Ġsequence": 2956,
      "Ġincluded": 2957,
      "Ġmight": 2958,
      "ĠAm": 2959,
      "ops": 2960,
      "Ġgroups": 2961,
      "Ġclust": 2962,
      "icro": 2963,
      "rown": 2964,
      "rim": 2965,
      "Ġalready": 2966,
      "IS": 2967,
      "Im": 2968,
      "Ġelements": 2969,
      "Ġtown": 2970,
      "Ġproperty": 2971,
      "rench": 2972,
      "Ġdou": 2973,
      "Ġexperiment": 2974,
      "Ġwritten": 2975,
      "Ġrefer": 2976,
      "Ġlocated": 2977,
      "ĠDist": 2978,
      "Ġfixed": 2979,
      "Ġair": 2980,
      "Ġfail": 2981,
      "{{\\": 2982,
      "Ġemb": 2983,
      "ĠAg": 2984,
      "rick": 2985,
      "Ã¡": 2986,
      "Ġfilms": 2987,
      "Ġgen": 2988,
      "Ġhealth": 2989,
      "Ġable": 2990,
      "Ġstyle": 2991,
      "ese": 2992,
      "ĠHis": 2993,
      ")]": 2994,
      "Ġreview": 2995,
      "Ġput": 2996,
      "och": 2997,
      "urg": 2998,
      "Ġheld": 2999,
      "Ġreceived": 3000,
      "ending": 3001,
      "ogn": 3002,
      "ĠAfric": 3003,
      "ĠSan": 3004,
      "ĠMon": 3005,
      "ĠEl": 3006,
      "hib": 3007,
      "eder": 3008,
      "ĠLemma": 3009,
      "Ġestablished": 3010,
      "ĠHam": 3011,
      "Ġquantum": 3012,
      "aly": 3013,
      "Ġfar": 3014,
      "aff": 3015,
      "Ġprofess": 3016,
      "Ġemploy": 3017,
      "Ġstation": 3018,
      "cell": 3019,
      "appro": 3020,
      "Data": 3021,
      "With": 3022,
      "fill": 3023,
      "Ġlabel": 3024,
      "Ġrelated": 3025,
      "ĠEnglish": 3026,
      "ĠQu": 3027,
      "ES": 3028,
      "Ġclose": 3029,
      "Ġnamed": 3030,
      "Ġinvestig": 3031,
      "citet": 3032,
      "66": 3033,
      "Ġbirths": 3034,
      "ension": 3035,
      "gen": 3036,
      "Ġmen": 3037,
      "verse": 3038,
      "ĠĠĠĠĊ": 3039,
      "izing": 3040,
      "ults": 3041,
      "Ġworks": 3042,
      "ĠArm": 3043,
      "Ġeduc": 3044,
      "rant": 3045,
      "Ġexact": 3046,
      "iber": 3047,
      "nb": 3048,
      "mid": 3049,
      "Ġcommunity": 3050,
      "Americ": 3051,
      "Ġdistance": 3052,
      "Ġground": 3053,
      "century": 3054,
      "Ġbase": 3055,
      "cher": 3056,
      "Ġill": 3057,
      "Ġ&\\": 3058,
      "Ġscale": 3059,
      "Ġdevelopment": 3060,
      "umb": 3061,
      "itions": 3062,
      "ĉĊ": 3063,
      "Ġassume": 3064,
      "oud": 3065,
      "Ġbegan": 3066,
      "semb": 3067,
      "Ġoperator": 3068,
      "Ġtele": 3069,
      "49": 3070,
      "lin": 3071,
      "earch": 3072,
      "Ġweek": 3073,
      "Se": 3074,
      "duc": 3075,
      "Ġcountry": 3076,
      "ondon": 3077,
      "iol": 3078,
      "CT": 3079,
      "03": 3080,
      "medi": 3081,
      "itted": 3082,
      "edd": 3083,
      "ĠJapan": 3084,
      "2003": 3085,
      "Ġlarger": 3086,
      "Ġcamp": 3087,
      "Ġfuture": 3088,
      "ĠPark": 3089,
      "}+\\": 3090,
      "].": 3091,
      "hood": 3092,
      "----------------": 3093,
      "}:": 3094,
      "]$": 3095,
      "Ġtw": 3096,
      "********": 3097,
      "down": 3098,
      "ĠChe": 3099,
      "Ġwar": 3100,
      "hspace": 3101,
      "mark": 3102,
      "Ġbuilt": 3103,
      "icol": 3104,
      "ĠCO": 3105,
      "Ġtaken": 3106,
      "Ġsom": 3107,
      "Ġspin": 3108,
      "47": 3109,
      "eople": 3110,
      "Ġnever": 3111,
      "ford": 3112,
      "}}{\\": 3113,
      "operat": 3114,
      "Ġrequired": 3115,
      "Ġclub": 3116,
      "Ġhalf": 3117,
      "Ġhuman": 3118,
      "ĠHigh": 3119,
      ")-": 3120,
      "Ġproduction": 3121,
      "Ġpublished": 3122,
      "Ġbuilding": 3123,
      "Ġunit": 3124,
      "Ġsite": 3125,
      "Ġimplement": 3126,
      "Ġsens": 3127,
      "ĠGl": 3128,
      "Ġconc": 3129,
      "Mod": 3130,
      "itect": 3131,
      "Ġgoing": 3132,
      "irt": 3133,
      "($": 3134,
      "Ġid": 3135,
      "Ġmaking": 3136,
      "aches": 3137,
      "Le": 3138,
      "ĠPer": 3139,
      "Ġhapp": 3140,
      "Ġcheck": 3141,
      "Ġ%": 3142,
      "equiv": 3143,
      "ishing": 3144,
      "Ġgalax": 3145,
      "Ġdiag": 3146,
      "ued": 3147,
      "roid": 3148,
      "ED": 3149,
      "Ġbackground": 3150,
      "Ġben": 3151,
      "Ġdatas": 3152,
      "Ġdays": 3153,
      "Ġmaterial": 3154,
      "ĠPres": 3155,
      "onic": 3156,
      "ĠDav": 3157,
      "\"><": 3158,
      "ournal": 3159,
      "ĠAp": 3160,
      "Ġmillion": 3161,
      "skip": 3162,
      "Ġcaus": 3163,
      "operatorn": 3164,
      "CC": 3165,
      "Ġsocial": 3166,
      "Ġnational": 3167,
      "ait": 3168,
      "ured": 3169,
      "ouncil": 3170,
      "ĠAb": 3171,
      "Ġdiv": 3172,
      "Ġaccording": 3173,
      "Ġcorrel": 3174,
      "ĠComp": 3175,
      "|^": 3176,
      "avy": 3177,
      "Ġannoun": 3178,
      "neq": 3179,
      "ĠHer": 3180,
      "ington": 3181,
      "my": 3182,
      "Ġfig": 3183,
      "AA": 3184,
      "star": 3185,
      "operatorname": 3186,
      "New": 3187,
      "ĠSec": 3188,
      "Ġcontext": 3189,
      "kn": 3190,
      "indent": 3191,
      "ariant": 3192,
      "aries": 3193,
      "Ġsent": 3194,
      "Ġhost": 3195,
      "util": 3196,
      "Ġlo": 3197,
      "Ġsample": 3198,
      "Ġprovided": 3199,
      "ĠAir": 3200,
      "ements": 3201,
      "astic": 3202,
      "ottom": 3203,
      "American": 3204,
      "Ġadditional": 3205,
      "2002": 3206,
      "dimens": 3207,
      "itting": 3208,
      "Ġstory": 3209,
      "Ġgives": 3210,
      "ping": 3211,
      "Ġyoung": 3212,
      "era": 3213,
      "ĠChar": 3214,
      "ĠĠĠĠĠĠĠĠĠĠĠĠĠĠĠĠĠĠĠĠĠĠĠ": 3215,
      "Sc": 3216,
      "mon": 3217,
      "ĠHouse": 3218,
      "more": 3219,
      "reed": 3220,
      "Ġenough": 3221,
      "Ġspecies": 3222,
      "Ġdegree": 3223,
      "aves": 3224,
      "nce": 3225,
      "Ġvill": 3226,
      "racy": 3227,
      "Ġeffects": 3228,
      "Ġdenote": 3229,
      "unc": 3230,
      "Ġcontent": 3231,
      "BC": 3232,
      "Sp": 3233,
      "rated": 3234,
      "Ġcertain": 3235,
      "inn": 3236,
      "Ġear": 3237,
      "iet": 3238,
      "Ġcode": 3239,
      "Ġcult": 3240,
      "Ġvideo": 3241,
      "tact": 3242,
      "Ġdomain": 3243,
      "2001": 3244,
      "At": 3245,
      "Value": 3246,
      "({\\": 3247,
      "Cont": 3248,
      "Ġfields": 3249,
      "state": 3250,
      "85": 3251,
      "Ġbig": 3252,
      "quare": 3253,
      "ires": 3254,
      "ĠThus": 3255,
      "test": 3256,
      "ĠCollege": 3257,
      "come": 3258,
      "note": 3259,
      "Ġmarket": 3260,
      "oon": 3261,
      "Ġblock": 3262,
      "Ġindex": 3263,
      "Ġnecess": 3264,
      "Ġprec": 3265,
      "Ġcontains": 3266,
      "Ġequations": 3267,
      "eloc": 3268,
      "scr": 3269,
      "Ġtry": 3270,
      "Ġboundary": 3271,
      "like": 3272,
      "ĠBro": 3273,
      "Ġ:=": 3274,
      "Ġreason": 3275,
      "ĠDep": 3276,
      "ĠLondon": 3277,
      "LL": 3278,
      "'$": 3279,
      "umerate": 3280,
      "}-\\": 3281,
      "Ġpress": 3282,
      "Ġspecific": 3283,
      "Ġmechan": 3284,
      "plicit": 3285,
      "Ġplayer": 3286,
      "Ġwhose": 3287,
      "Ġpan": 3288,
      "scale": 3289,
      "Ġupd": 3290,
      "Ad": 3291,
      "Ġarm": 3292,
      "iform": 3293,
      "ĠVal": 3294,
      "Ġoutput": 3295,
      "ĠDr": 3296,
      "nder": 3297,
      "mar": 3298,
      "estern": 3299,
      "ervice": 3300,
      "Ġfri": 3301,
      "Ġstrateg": 3302,
      "Ġmultiple": 3303,
      "\");": 3304,
      "ceed": 3305,
      "Ġreported": 3306,
      "yl": 3307,
      "ming": 3308,
      "istics": 3309,
      "Ġcut": 3310,
      "Ġedge": 3311,
      "Ġglobal": 3312,
      "Ġwhether": 3313,
      "nbsp": 3314,
      "rig": 3315,
      "ulated": 3316,
      "Ġstatic": 3317,
      "Ġsolutions": 3318,
      "46": 3319,
      "Ġnatural": 3320,
      "uf": 3321,
      "Ġcompared": 3322,
      "ilitary": 3323,
      "Ġaway": 3324,
      "Ġmiss": 3325,
      "Ġsets": 3326,
      "enumerate": 3327,
      ")}{": 3328,
      "All": 3329,
      "Ġcle": 3330,
      "ĠAng": 3331,
      "Ġtherefore": 3332,
      "imate": 3333,
      "Ġweight": 3334,
      "ĠSim": 3335,
      "Ġactiv": 3336,
      "Ġeffic": 3337,
      "ĠWilliam": 3338,
      "ooth": 3339,
      "Ġindust": 3340,
      "rec": 3341,
      "isc": 3342,
      "eff": 3343,
      "tic": 3344,
      "Ġord": 3345,
      "Ġmetric": 3346,
      "Ġunderstand": 3347,
      "Ġconfig": 3348,
      "Ġround": 3349,
      "aps": 3350,
      "98": 3351,
      "Ġtreat": 3352,
      "Ġ-\\": 3353,
      "ided": 3354,
      "Ġexec": 3355,
      "Ġnov": 3356,
      "Def": 3357,
      "]\\": 3358,
      "Ġcreated": 3359,
      "(-": 3360,
      "Ġbreak": 3361,
      "Ġuser": 3362,
      "from": 3363,
      "Ġstudents": 3364,
      "theorem": 3365,
      "ĠMark": 3366,
      "ridge": 3367,
      "ĠIm": 3368,
      "ĠSm": 3369,
      "Ġconver": 3370,
      "omial": 3371,
      "De": 3372,
      "Ġoptim": 3373,
      "From": 3374,
      "ama": 3375,
      "Ġcannot": 3376,
      "Ġhtt": 3377,
      "ĠInternational": 3378,
      "pol": 3379,
      "Ġkill": 3380,
      "Ġcateg": 3381,
      "unic": 3382,
      "Ġbegin": 3383,
      "ĠAct": 3384,
      "Ġworking": 3385,
      "isk": 3386,
      "Ġconstraint": 3387,
      "There": 3388,
      "Ġpresented": 3389,
      "Ġneigh": 3390,
      "Ġcome": 3391,
      "ĠLa": 3392,
      "RO": 3393,
      "Ġveloc": 3394,
      "Ġtrack": 3395,
      "Ġpur": 3396,
      "actions": 3397,
      "Ġ/**": 3398,
      "Ġholds": 3399,
      "Ġeffective": 3400,
      "Ġbody": 3401,
      "rs": 3402,
      "97": 3403,
      "itemize": 3404,
      "ĠFrom": 3405,
      "Ġinstance": 3406,
      "Ġlearn": 3407,
      "Ġnum": 3408,
      "Ġcomplete": 3409,
      "ET": 3410,
      "atively": 3411,
      "ĠFirst": 3412,
      "Ġes": 3413,
      "Ġclear": 3414,
      "Ġstars": 3415,
      "];": 3416,
      "ha": 3417,
      "Ġpay": 3418,
      "Ġrather": 3419,
      "Wh": 3420,
      "andid": 3421,
      "Ġalmost": 3422,
      "gress": 3423,
      "Ġinstead": 3424,
      "minist": 3425,
      "list": 3426,
      "attle": 3427,
      "Qu": 3428,
      "ledge": 3429,
      "Ġcolor": 3430,
      "ĠThat": 3431,
      "Ġgrad": 3432,
      "Ġproduced": 3433,
      "ying": 3434,
      "light": 3435,
      "rror": 3436,
      "IM": 3437,
      "Ġcreate": 3438,
      "ota": 3439,
      "&&": 3440,
      "ĠMich": 3441,
      "Ġpast": 3442,
      "Ġbroad": 3443,
      "Ġcentral": 3444,
      "ara": 3445,
      "Ġmeet": 3446,
      "iddle": 3447,
      "van": 3448,
      "acc": 3449,
      "Ġcoe": 3450,
      "opl": 3451,
      "Ġcame": 3452,
      "ework": 3453,
      "Ġkeep": 3454,
      "iforn": 3455,
      "Ġnote": 3456,
      "px": 3457,
      "Ġimages": 3458,
      "nection": 3459,
      "Ġdone": 3460,
      "Ġbelie": 3461,
      "dimensional": 3462,
      "67": 3463,
      "ociety": 3464,
      "Ġresponse": 3465,
      "Ġcentury": 3466,
      "Ġtransform": 3467,
      "Ġparticip": 3468,
      "Ġonce": 3469,
      "Ġimplies": 3470,
      ",\"": 3471,
      "icult": 3472,
      "ĠPhil": 3473,
      "atives": 3474,
      "file": 3475,
      "Ġperformed": 3476,
      "}}_": 3477,
      "Ġchanges": 3478,
      "AD": 3479,
      "Ġsays": 3480,
      "Ġenvironment": 3481,
      "www": 3482,
      ")}$": 3483,
      "ili": 3484,
      "Ġbasis": 3485,
      "Ġstarted": 3486,
      "ĠFrench": 3487,
      "noindent": 3488,
      "Ġfram": 3489,
      "alle": 3490,
      "elling": 3491,
      "\\,\\": 3492,
      "Ġexplain": 3493,
      "88": 3494,
      "$}": 3495,
      "irl": 3496,
      "bsite": 3497,
      "inated": 3498,
      "Ġinflu": 3499,
      "dt": 3500,
      "ounter": 3501,
      "ĠInt": 3502,
      "));": 3503,
      "ners": 3504,
      "que": 3505,
      "Ġgas": 3506,
      "izes": 3507,
      "Ġwords": 3508,
      "Ġincrease": 3509,
      "Ġrank": 3510,
      "Ġothers": 3511,
      "Ġdifference": 3512,
      "mathscr": 3513,
      "Ġprove": 3514,
      "ifornia": 3515,
      "Ġservices": 3516,
      "Ġsett": 3517,
      "Ġclosed": 3518,
      "vspace": 3519,
      "ĠMy": 3520,
      "Ġserved": 3521,
      "And": 3522,
      "atory": 3523,
      "Ġconstruction": 3524,
      "Ġweak": 3525,
      "~$": 3526,
      "Ġsoft": 3527,
      "ender": 3528,
      "Ġlanguage": 3529,
      "Ġliter": 3530,
      "dag": 3531,
      "Ġgenerated": 3532,
      "Ġleading": 3533,
      "ening": 3534,
      "Ġborn": 3535,
      "olic": 3536,
      "Get": 3537,
      "Ġeconom": 3538,
      "ĠIndia": 3539,
      "Ġhor": 3540,
      "ager": 3541,
      "Ġlittle": 3542,
      "Since": 3543,
      "Ġentire": 3544,
      "PS": 3545,
      "ellow": 3546,
      "Ġcoordin": 3547,
      "Ġmer": 3548,
      "ills": 3549,
      "Ġindu": 3550,
      "Ġprior": 3551,
      "96": 3552,
      "Object": 3553,
      "Ġequal": 3554,
      "ĠTr": 3555,
      "Ġcapt": 3556,
      "Ġyield": 3557,
      "Ġchall": 3558,
      "mit": 3559,
      "ociation": 3560,
      "ĠMod": 3561,
      "icles": 3562,
      "\\}$": 3563,
      "ilton": 3564,
      "ĠDistrict": 3565,
      "iments": 3566,
      "Ġrequest": 3567,
      "path": 3568,
      "known": 3569,
      "Ġengine": 3570,
      "Ġvalid": 3571,
      "Ġcomponent": 3572,
      "band": 3573,
      "Ġmakes": 3574,
      "rast": 3575,
      "book": 3576,
      "Ġlate": 3577,
      "ship": 3578,
      "multicol": 3579,
      "ĠStud": 3580,
      "Ġdirection": 3581,
      "ĠCup": 3582,
      "Ġled": 3583,
      "year": 3584,
      "thing": 3585,
      "artment": 3586,
      "1999": 3587,
      "Ġmagnetic": 3588,
      "https": 3589,
      "ensor": 3590,
      "ĠAc": 3591,
      "Pi": 3592,
      "Ġunique": 3593,
      "itude": 3594,
      "Ġfile": 3595,
      "Ġtaking": 3596,
      "Ġdistrict": 3597,
      "ctors": 3598,
      "multicolumn": 3599,
      "US": 3600,
      "Ġcompan": 3601,
      "Ġcolumn": 3602,
      "NN": 3603,
      "Ġreally": 3604,
      "Ġâ": 3605,
      "http": 3606,
      "Ġrepresentation": 3607,
      "command": 3608,
      "){": 3609,
      "42": 3610,
      "77": 3611,
      "Exception": 3612,
      "ĠCont": 3613,
      "Ġbar": 3614,
      "Ġalgebra": 3615,
      "oms": 3616,
      "Ġprovides": 3617,
      "Ã³": 3618,
      "][": 3619,
      "ĠRef": 3620,
      "ste": 3621,
      "Ġflu": 3622,
      "Ġattack": 3623,
      "ogle": 3624,
      "Ġstudies": 3625,
      "ĠNe": 3626,
      "ĠChampionship": 3627,
      "ccording": 3628,
      "Ġmatter": 3629,
      "norm": 3630,
      "ĠIndian": 3631,
      "Ġdemon": 3632,
      "ĠGerman": 3633,
      "ores": 3634,
      "Ġdest": 3635,
      "vey": 3636,
      "Ġcr": 3637,
      "igned": 3638,
      "Ġask": 3639,
      "icture": 3640,
      "Test": 3641,
      "that": 3642,
      "Ġoccur": 3643,
      "FF": 3644,
      "2023": 3645,
      "&-": 3646,
      "orge": 3647,
      "Ġ\\|": 3648,
      "à¤": 3649,
      "uments": 3650,
      "ensive": 3651,
      "reet": 3652,
      "lands": 3653,
      "ĠÂ": 3654,
      "}}}": 3655,
      "Ġ///": 3656,
      "Ġintroduced": 3657,
      "AB": 3658,
      "cing": 3659,
      "ura": 3660,
      "ĠTherefore": 3661,
      "Ġdeveloped": 3662,
      "oph": 3663,
      "Ġcomponents": 3664,
      "Ġinc": 3665,
      "Ġsignal": 3666,
      "ully": 3667,
      "Ġrot": 3668,
      "Ġrestrict": 3669,
      "clusion": 3670,
      "Ġsubject": 3671,
      "ened": 3672,
      "oo": 3673,
      "split": 3674,
      "Ġimpact": 3675,
      "Ġsearch": 3676,
      "Ġneut": 3677,
      "ett": 3678,
      "gs": 3679,
      "ites": 3680,
      "Ġrelation": 3681,
      "Is": 3682,
      "textrm": 3683,
      "68": 3684,
      "rc": 3685,
      "Ġmaximum": 3686,
      "bound": 3687,
      "ĠString": 3688,
      "Ġ_{": 3689,
      "hel": 3690,
      "Ġsw": 3691,
      "rup": 3692,
      "LO": 3693,
      "ĠCalifornia": 3694,
      "CD": 3695,
      "Ġwent": 3696,
      "do": 3697,
      "arily": 3698,
      "Ġtable": 3699,
      "ids": 3700,
      "Ġtransition": 3701,
      "ises": 3702,
      "State": 3703,
      "Ġprinc": 3704,
      "ĠAmerica": 3705,
      "ael": 3706,
      "approx": 3707,
      "Ġamount": 3708,
      "Ġwrite": 3709,
      "ocal": 3710,
      "omb": 3711,
      "ĠDef": 3712,
      "index": 3713,
      "Ġwave": 3714,
      "summary": 3715,
      "alls": 3716,
      "Class": 3717,
      "Ġupper": 3718,
      "inite": 3719,
      "ario": 3720,
      "Ġevolution": 3721,
      "asc": 3722,
      "berg": 3723,
      "Ġtelevision": 3724,
      "ession": 3725,
      "Key": 3726,
      "ĠAustralia": 3727,
      "ranch": 3728,
      "Ġquestion": 3729,
      "ĠGo": 3730,
      "Ġproblems": 3731,
      "ething": 3732,
      "gence": 3733,
      "43": 3734,
      "bert": 3735,
      "linear": 3736,
      "ump": 3737,
      "Bl": 3738,
      "Ġwidth": 3739,
      "lymp": 3740,
      "length": 3741,
      "atform": 3742,
      "rate": 3743,
      "Ġadded": 3744,
      "ĠEngland": 3745,
      ")+": 3746,
      "MS": 3747,
      "Ġapplied": 3748,
      "========": 3749,
      "Ġspectrum": 3750,
      "Ġofficial": 3751,
      "eline": 3752,
      "Ġdirectly": 3753,
      "hern": 3754,
      "Rec": 3755,
      "Ġestimate": 3756,
      "Ġattempt": 3757,
      "ĠDi": 3758,
      "Ġdifficult": 3759,
      "Ġflo": 3760,
      "Ġscen": 3761,
      "IR": 3762,
      "long": 3763,
      "Ġmedia": 3764,
      "Ġgot": 3765,
      "Ġrecogn": 3766,
      "Not": 3767,
      "ĠRepublic": 3768,
      "texttt": 3769,
      "rows": 3770,
      "ico": 3771,
      "ached": 3772,
      "Ġpopular": 3773,
      "ĠTable": 3774,
      "Ġevalu": 3775,
      "fe": 3776,
      "ney": 3777,
      "Ġvariables": 3778,
      "useum": 3779,
      "den": 3780,
      "Ġaddress": 3781,
      "1998": 3782,
      "Ġphysical": 3783,
      "Ġson": 3784,
      "la": 3785,
      "Ġcenter": 3786,
      "En": 3787,
      "ĠTrans": 3788,
      "change": 3789,
      "Ġincreasing": 3790,
      "Ġhistor": 3791,
      "Ġcourse": 3792,
      "Ġnorth": 3793,
      "Ġeigen": 3794,
      "Ġund": 3795,
      "ken": 3796,
      "Ġelectron": 3797,
      "Ġconduct": 3798,
      "ica": 3799,
      "Ġcontinuous": 3800,
      "^-": 3801,
      "Ġ!=": 3802,
      "OS": 3803,
      "Ġadj": 3804,
      "After": 3805,
      "Ġkind": 3806,
      "tra": 3807,
      "ivil": 3808,
      "ĠPresident": 3809,
      "Ġdied": 3810,
      "Ġpack": 3811,
      "Ġcustom": 3812,
      "Ġdecre": 3813,
      "level": 3814,
      "aring": 3815,
      "Ġparent": 3816,
      "Ġarchitect": 3817,
      "ector": 3818,
      "Ġviol": 3819,
      "Ġsmaller": 3820,
      "Ġtypes": 3821,
      "Then": 3822,
      "Ġdetails": 3823,
      "Ġincludes": 3824,
      "ION": 3825,
      "ds": 3826,
      "aged": 3827,
      "pecially": 3828,
      "Ġtakes": 3829,
      "Ġareas": 3830,
      "PE": 3831,
      "stitute": 3832,
      "{}": 3833,
      "ky": 3834,
      "oyal": 3835,
      "ĠDes": 3836,
      "Ġdocument": 3837,
      "Man": 3838,
      "Ġsound": 3839,
      "Ġbecomes": 3840,
      "ĠSystem": 3841,
      "Ġannounced": 3842,
      "Ġcandid": 3843,
      "unity": 3844,
      "TR": 3845,
      "57": 3846,
      "Ġprop": 3847,
      "vant": 3848,
      "Ġlive": 3849,
      "ĠDo": 3850,
      "Ġtransfer": 3851,
      "bre": 3852,
      "atus": 3853,
      "url": 3854,
      "Vert": 3855,
      "iers": 3856,
      "uit": 3857,
      "Ġratio": 3858,
      "Ġnumbers": 3859,
      "Ġvelocity": 3860,
      "iation": 3861,
      "Ġrespons": 3862,
      "Ġtask": 3863,
      "58": 3864,
      "1990": 3865,
      "ya": 3866,
      "Ge": 3867,
      "rule": 3868,
      "ker": 3869,
      "41": 3870,
      "subseteq": 3871,
      "han": 3872,
      "ynomial": 3873,
      "Ġgoal": 3874,
      "Ġallows": 3875,
      "().": 3876,
      "ville": 3877,
      "uel": 3878,
      "Ġ$\\{": 3879,
      "TE": 3880,
      "rices": 3881,
      "Ġstage": 3882,
      "ĠCour": 3883,
      "500": 3884,
      "Ġorg": 3885,
      "minus": 3886,
      "ĠOp": 3887,
      "osen": 3888,
      "ÃŃ": 3889,
      "Ã¼": 3890,
      "Ġchoice": 3891,
      "Ġsources": 3892,
      "ĠEast": 3893,
      "ĠDiv": 3894,
      "Ġfem": 3895,
      "Ġperm": 3896,
      "Ġfront": 3897,
      "ĠNote": 3898,
      "Ġlink": 3899,
      "aging": 3900,
      "Ġsetting": 3901,
      "Ġregard": 3902,
      "link": 3903,
      "ander": 3904,
      "encies": 3905,
      "}^{-": 3906,
      "run": 3907,
      "Ġexperience": 3908,
      "ĠRiver": 3909,
      "Ġrelationship": 3910,
      "dist": 3911,
      "ĠDem": 3912,
      "Ġcritical": 3913,
      "ĠRed": 3914,
      "anish": 3915,
      "ribute": 3916,
      "oe": 3917,
      "ĠHol": 3918,
      "ĠCenter": 3919,
      "Ġarr": 3920,
      "model": 3921,
      "Ġbehavior": 3922,
      "Error": 3923,
      "Ġpolitical": 3924,
      "riate": 3925,
      "display": 3926,
      "Ġinternational": 3927,
      "bigg": 3928,
      "flo": 3929,
      "ĠAnt": 3930,
      "Ġonline": 3931,
      "Ġchannel": 3932,
      "ands": 3933,
      "body": 3934,
      "Ġfit": 3935,
      "}'": 3936,
      ".)": 3937,
      "ĠMor": 3938,
      "Ġfather": 3939,
      "Ġjob": 3940,
      "Fil": 3941,
      "ĠBel": 3942,
      "ging": 3943,
      "ĠBlack": 3944,
      "56": 3945,
      "||": 3946,
      "Ġsold": 3947,
      "auge": 3948,
      "Ġsuccessful": 3949,
      "ĠEuropean": 3950,
      "ĠCouncil": 3951,
      "Ġcontract": 3952,
      "Ġaccept": 3953,
      "usion": 3954,
      "Ġepis": 3955,
      "ĠGa": 3956,
      "Ġfrequency": 3957,
      "perty": 3958,
      "Ġexpression": 3959,
      "Ġrob": 3960,
      "Ġnuc": 3961,
      "ĠList": 3962,
      "normal": 3963,
      "78": 3964,
      "Ġlikely": 3965,
      "ocr": 3966,
      "ibrary": 3967,
      "Sy": 3968,
      "Ġdemonstr": 3969,
      "Ġsouth": 3970,
      "ĠÐ": 3971,
      "oul": 3972,
      "ĠMal": 3973,
      "IG": 3974,
      "Ġmoved": 3975,
      "When": 3976,
      "Ġgeomet": 3977,
      "Ġ\\(": 3978,
      "Ġpattern": 3979,
      "Ġmention": 3980,
      "ĠPort": 3981,
      "Ġrelease": 3982,
      "Ġarray": 3983,
      "Ġpref": 3984,
      "otic": 3985,
      "Ġdeal": 3986,
      "atal": 3987,
      "Ġcorrect": 3988,
      "Ġ\\;": 3989,
      "Ġbring": 3990,
      "itte": 3991,
      "Ġpolicy": 3992,
      "Ġdimension": 3993,
      "Ġequivalent": 3994,
      "TS": 3995,
      "location": 3996,
      "}/": 3997,
      "Ġwebsite": 3998,
      "cial": 3999,
      "\";": 4000,
      "ĠBer": 4001,
      "ansion": 4002,
      "Ġvillage": 4003,
      "Ġestablish": 4004,
      "ĠOur": 4005,
      "Ġroad": 4006,
      "1997": 4007,
      "());": 4008,
      "footnote": 4009,
      "Or": 4010,
      "Ġtheorem": 4011,
      "Ġess": 4012,
      "Theta": 4013,
      "ares": 4014,
      "ĠCanada": 4015,
      "acity": 4016,
      "ĠGroup": 4017,
      "Ġrelative": 4018,
      "di": 4019,
      "aign": 4020,
      "}}_{": 4021,
      "Ġmid": 4022,
      "uz": 4023,
      "Ġregions": 4024,
      "ĠPat": 4025,
      "Ġiter": 4026,
      "utive": 4027,
      "HE": 4028,
      "taint": 4029,
      "ags": 4030,
      "pan": 4031,
      "pite": 4032,
      "Ġdetermined": 4033,
      "ĠNews": 4034,
      "ĠTra": 4035,
      "\\}": 4036,
      "Ġparts": 4037,
      "leg": 4038,
      "Ġstop": 4039,
      "ĠLaw": 4040,
      "ln": 4041,
      "ols": 4042,
      "Ġpeak": 4043,
      "prod": 4044,
      "Ġuses": 4045,
      "bul": 4046,
      "Ġfav": 4047,
      "Ġaward": 4048,
      "pret": 4049,
      "xy": 4050,
      "ĠSen": 4051,
      "ĠCons": 4052,
      "One": 4053,
      "Ġassert": 4054,
      "Ġconnected": 4055,
      "alled": 4056,
      "vis": 4057,
      "Note": 4058,
      "ĠNot": 4059,
      "Ġlove": 4060,
      "Ġitself": 4061,
      "Ġsomething": 4062,
      "AG": 4063,
      "ĠÃ": 4064,
      "error": 4065,
      "allel": 4066,
      "Ġresid": 4067,
      "Time": 4068,
      "Ġobjects": 4069,
      "Ġsense": 4070,
      "rice": 4071,
      "Ġthings": 4072,
      "Ġmonths": 4073,
      "Ġreve": 4074,
      "Ġhon": 4075,
      "asons": 4076,
      "abs": 4077,
      "Ġremov": 4078,
      "ountain": 4079,
      "version": 4080,
      "ĠChina": 4081,
      "<\\": 4082,
      "setminus": 4083,
      "ĠStreet": 4084,
      "ĠGeneral": 4085,
      "oplus": 4086,
      "ka": 4087,
      "EE": 4088,
      "ĠPal": 4089,
      "1996": 4090,
      "Ġtradition": 4091,
      "Ġspeed": 4092,
      "ĠPaul": 4093,
      "Ġfeel": 4094,
      "oke": 4095,
      "ĠParty": 4096,
      "ades": 4097,
      "ML": 4098,
      "unn": 4099,
      "Ġdecl": 4100,
      "Ġuncer": 4101,
      "Ġmove": 4102,
      "ĠWhile": 4103,
      "Ġproced": 4104,
      "rier": 4105,
      "View": 4106,
      "Ġsmooth": 4107,
      "Ġbox": 4108,
      "Ġlaun": 4109,
      "cret": 4110,
      "underline": 4111,
      "ĠAward": 4112,
      "Ġ($\\": 4113,
      "Ġscre": 4114,
      "Ġsuff": 4115,
      "Ġlot": 4116,
      "can": 4117,
      "ipal": 4118,
      "ios": 4119,
      "spec": 4120,
      "rian": 4121,
      "Ġnoise": 4122,
      "iting": 4123,
      "Ġaud": 4124,
      "ifold": 4125,
      "Ġgain": 4126,
      "$_": 4127,
      "Ġ$|": 4128,
      "istry": 4129,
      "ĠĠĠĊ": 4130,
      "Ġforce": 4131,
      "Over": 4132,
      "Ġmag": 4133,
      "ui": 4134,
      "Ġreach": 4135,
      "People": 4136,
      "ĠThom": 4137,
      "Ġagre": 4138,
      "Inf": 4139,
      "ĠMa": 4140,
      "ĠJames": 4141,
      "Equ": 4142,
      "_{(": 4143,
      "rote": 4144,
      "Form": 4145,
      "wood": 4146,
      "tical": 4147,
      "Ġlost": 4148,
      "*{": 4149,
      "range": 4150,
      "}},": 4151,
      "ago": 4152,
      "Ġdeep": 4153,
      "jection": 4154,
      "omorphism": 4155,
      "Ġflux": 4156,
      "bt": 4157,
      "ini": 4158,
      "Ġ$-": 4159,
      "Ġwhole": 4160,
      "png": 4161,
      "Ġcompanies": 4162,
      "UR": 4163,
      "lier": 4164,
      "ĉĉĉĉĉ": 4165,
      "Ġadapt": 4166,
      "ida": 4167,
      "Ġinequ": 4168,
      "Ġillust": 4169,
      "ĠRober": 4170,
      "irm": 4171,
      "Ġnovel": 4172,
      "Ġdig": 4173,
      "Ġneeded": 4174,
      "Sup": 4175,
      "ĠDavid": 4176,
      "Ġderiv": 4177,
      "////////": 4178,
      "Ġwhite": 4179,
      "ĠTV": 4180,
      "Living": 4181,
      "ocks": 4182,
      "Ġyet": 4183,
      "Ġmale": 4184,
      "SP": 4185,
      "ams": 4186,
      "hand": 4187,
      "adian": 4188,
      "Ġpers": 4189,
      "Ġworked": 4190,
      "Ġinteraction": 4191,
      "itz": 4192,
      "Ġmix": 4193,
      "erve": 4194,
      "Ġ(-": 4195,
      "Ġsufficient": 4196,
      "Ġstudied": 4197,
      "Ġpolynomial": 4198,
      "Ġapplication": 4199,
      "Ġdouble": 4200,
      "Ġobservations": 4201,
      "Ġir": 4202,
      "uracy": 4203,
      "Ġface": 4204,
      "Ġax": 4205,
      "Ġaltern": 4206,
      "apping": 4207,
      "ean": 4208,
      "Ġalthough": 4209,
      "Ġuniform": 4210,
      "Ġhence": 4211,
      "input": 4212,
      "linewidth": 4213,
      "Ġ()": 4214,
      "ien": 4215,
      "ĠGerm": 4216,
      "Ġespecially": 4217,
      "ĠĠĠĠĠĠĠĠĠĠĠĠ": 4218,
      "izations": 4219,
      "wedge": 4220,
      "Ġwhy": 4221,
      "ĠHere": 4222,
      "\":": 4223,
      "orthern": 4224,
      "inct": 4225,
      "Ġactive": 4226,
      "ĠBay": 4227,
      "87": 4228,
      "UT": 4229,
      "ĠApp": 4230,
      "Ġcollection": 4231,
      "subfigure": 4232,
      "Ġconclud": 4233,
      "Ġradio": 4234,
      "ĠĠĠĠĠĠĠĠĠĠ": 4235,
      "Ġselected": 4236,
      "Ġlocation": 4237,
      "used": 4238,
      "ĠEm": 4239,
      "king": 4240,
      "Ġconv": 4241,
      "MP": 4242,
      "ĠChurch": 4243,
      "Ġupon": 4244,
      "Ġcomes": 4245,
      "Ġapply": 4246,
      "ani": 4247,
      "^{-\\": 4248,
      "oring": 4249,
      "Ġresulting": 4250,
      "icon": 4251,
      "ellar": 4252,
      "raz": 4253,
      "Ġmode": 4254,
      "Ġtherm": 4255,
      "Ġdark": 4256,
      "_+": 4257,
      "Ġbenef": 4258,
      "Requ": 4259,
      "ĠFrance": 4260,
      "ication": 4261,
      "Ġlevels": 4262,
      ")|": 4263,
      "Ġdiagram": 4264,
      "ĠSum": 4265,
      "rab": 4266,
      "ersion": 4267,
      "Pr": 4268,
      "isation": 4269,
      "shift": 4270,
      "anks": 4271,
      "Ġeffort": 4272,
      "Ġelection": 4273,
      "ns": 4274,
      "public": 4275,
      "inos": 4276,
      "51": 4277,
      "Ġclassical": 4278,
      "``": 4279,
      "Ġintegral": 4280,
      "Ġparty": 4281,
      "Ġnegative": 4282,
      "Ġstreng": 4283,
      "cks": 4284,
      "Ġchain": 4285,
      "Ġquality": 4286,
      "rd": 4287,
      "very": 4288,
      "Ġsimply": 4289,
      "MA": 4290,
      "1995": 4291,
      "Ġdeaths": 4292,
      "Ġstructures": 4293,
      "Ġlayer": 4294,
      "Ġoperators": 4295,
      "93": 4296,
      "hest": 4297,
      "ĠDepartment": 4298,
      "grad": 4299,
      "ube": 4300,
      "Ġvariable": 4301,
      "ĠClass": 4302,
      "nes": 4303,
      "{$": 4304,
      "94": 4305,
      "ĠFil": 4306,
      "Ġdataset": 4307,
      "Ġautom": 4308,
      "52": 4309,
      "Ġknowledge": 4310,
      "dagger": 4311,
      "ptions": 4312,
      "._": 4313,
      "Ġoutside": 4314,
      "Ġqual": 4315,
      "Ġpresident": 4316,
      "History": 4317,
      "ĠRich": 4318,
      "Ġnews": 4319,
      "Ġcharge": 4320,
      "thern": 4321,
      "atur": 4322,
      "Ġnight": 4323,
      "Ġ$[": 4324,
      "Ġsupported": 4325,
      "Ġneeds": 4326,
      "isms": 4327,
      "Ġlargest": 4328,
      "Ġremains": 4329,
      "Ġtowards": 4330,
      "Ġusually": 4331,
      "attice": 4332,
      "Ġlat": 4333,
      "limits": 4334,
      "What": 4335,
      "_*": 4336,
      "pack": 4337,
      "ĠUK": 4338,
      "Ġreturned": 4339,
      "Ġtoday": 4340,
      "Ġsamples": 4341,
      "ĠHall": 4342,
      "Ġcurve": 4343,
      "iences": 4344,
      "Ġshall": 4345,
      "Ġgre": 4346,
      "54": 4347,
      "crete": 4348,
      "FT": 4349,
      "Ġimmedi": 4350,
      "Ġdesigned": 4351,
      "Ġshift": 4352,
      "place": 4353,
      "Ġteams": 4354,
      "Ġtree": 4355,
      "ously": 4356,
      "Ġ?": 4357,
      "86": 4358,
      "Ġexplicit": 4359,
      "ees": 4360,
      "Ġeducation": 4361,
      "ashed": 4362,
      "Ġissues": 4363,
      "No": 4364,
      "ashington": 4365,
      "det": 4366,
      "Ġcharg": 4367,
      "ston": 4368,
      "ING": 4369,
      "Ġdraw": 4370,
      "ĠOlymp": 4371,
      "Ap": 4372,
      "1980": 4373,
      "Ġcompact": 4374,
      "oding": 4375,
      "SC": 4376,
      "hy": 4377,
      "Ġpercent": 4378,
      "Trans": 4379,
      "Ġgrowth": 4380,
      "ayer": 4381,
      "Ġseg": 4382,
      "Ġconcept": 4383,
      "Ġdiscussed": 4384,
      "Ġexhib": 4385,
      "anning": 4386,
      "But": 4387,
      "pc": 4388,
      "ĠResearch": 4389,
      "76": 4390,
      "ifying": 4391,
      "Ġnecessary": 4392,
      "Ġstri": 4393,
      "++": 4394,
      "Ġword": 4395,
      "ĠAssociation": 4396,
      "pace": 4397,
      "Ġprote": 4398,
      "Ġactually": 4399,
      "outhern": 4400,
      "ĠQue": 4401,
      "ba": 4402,
      "Ġfood": 4403,
      "Ġissue": 4404,
      "ĠHamilton": 4405,
      "dro": 4406,
      "IP": 4407,
      "Ġacqu": 4408,
      "Ġgradu": 4409,
      "Ġbounded": 4410,
      "ancial": 4411,
      "mail": 4412,
      "Ġ}\\": 4413,
      "Ġmilitary": 4414,
      "0000": 4415,
      "Ġgauge": 4416,
      "black": 4417,
      "init": 4418,
      "$&": 4419,
      "ingu": 4420,
      "Ġemer": 4421,
      "Ġrac": 4422,
      "Ġexperiments": 4423,
      "ĠProposition": 4424,
      "),\\": 4425,
      "acing": 4426,
      "Ġsubset": 4427,
      "Ġmach": 4428,
      "Ġthroughout": 4429,
      "92": 4430,
      "Ġpage": 4431,
      "asks": 4432,
      "Ġidea": 4433,
      "\"></": 4434,
      "Ġten": 4435,
      "Ġdynamics": 4436,
      "Ġhyp": 4437,
      "Ġhyper": 4438,
      "Ġgrav": 4439,
      "Ġpresence": 4440,
      "OT": 4441,
      "Tr": 4442,
      "Ġimm": 4443,
      "ros": 4444,
      "Ġexpress": 4445,
      "ollary": 4446,
      "turb": 4447,
      "rief": 4448,
      "plication": 4449,
      "oken": 4450,
      "check": 4451,
      "ittee": 4452,
      "ĠSte": 4453,
      "ĠGeorge": 4454,
      "53": 4455,
      "isions": 4456,
      "Ġsymmetry": 4457,
      "Ġinvolved": 4458,
      "ĠHow": 4459,
      "Ġforward": 4460,
      "Ġemission": 4461,
      "Ġmaps": 4462,
      "ĠArmy": 4463,
      "Ġensure": 4464,
      "olar": 4465,
      "ket": 4466,
      "Ġnodes": 4467,
      "nav": 4468,
      "Ġparticle": 4469,
      "ĠInstitute": 4470,
      "1994": 4471,
      "Ġdisplay": 4472,
      "Ġframework": 4473,
      "ĠInter": 4474,
      "Ġreduced": 4475,
      "Ġclasses": 4476,
      "Ġcontact": 4477,
      "Ġbehind": 4478,
      "Ġpie": 4479,
      "prot": 4480,
      ".</": 4481,
      "Ã¶": 4482,
      "flow": 4483,
      "oice": 4484,
      "(),": 4485,
      "');": 4486,
      "Ġlonger": 4487,
      "FL": 4488,
      "Ġscheme": 4489,
      "Ġtravel": 4490,
      "eli": 4491,
      "ĠGreen": 4492,
      "Ð¾": 4493,
      "aligned": 4494,
      "elves": 4495,
      "acher": 4496,
      "Ġoptimal": 4497,
      "Ġvict": 4498,
      "stein": 4499,
      "Ġproducts": 4500,
      "Ġfollowed": 4501,
      "Ġparticles": 4502,
      "Ġreference": 4503,
      "ederal": 4504,
      "Ġindustry": 4505,
      "ĠPe": 4506,
      "definition": 4507,
      "Ġadm": 4508,
      "js": 4509,
      "\\!\\!": 4510,
      "Ġbit": 4511,
      "Ġadopt": 4512,
      "Ġembedd": 4513,
      "File": 4514,
      "iny": 4515,
      "Ġwrote": 4516,
      "ĠRoman": 4517,
      "fr": 4518,
      "Ġlimited": 4519,
      "ald": 4520,
      "Ġusers": 4521,
      "Ġallowed": 4522,
      "Ġscore": 4523,
      "Ġsus": 4524,
      "SO": 4525,
      "1992": 4526,
      "Ġfall": 4527,
      "roy": 4528,
      "Ġadminist": 4529,
      "Ġcurrently": 4530,
      "reek": 4531,
      "ifier": 4532,
      "Ġrunning": 4533,
      "Ġleads": 4534,
      "ĠFl": 4535,
      "ado": 4536,
      "nov": 4537,
      "itar": 4538,
      "Sub": 4539,
      "eck": 4540,
      "ĠMart": 4541,
      "eal": 4542,
      "Ġdecision": 4543,
      "writ": 4544,
      "Ġgalaxies": 4545,
      "ĠScience": 4546,
      "Ġapproximation": 4547,
      "ĠCourt": 4548,
      "Now": 4549,
      "Ġdirector": 4550,
      "Ġoperations": 4551,
      "olean": 4552,
      "Ġkm": 4553,
      "fect": 4554,
      "Net": 4555,
      "main": 4556,
      "Ġderived": 4557,
      "Ġaim": 4558,
      "Ġuncertaint": 4559,
      "Add": 4560,
      "Ġdate": 4561,
      "arp": 4562,
      "59": 4563,
      "sequently": 4564,
      "Ġappoint": 4565,
      "Ġassist": 4566,
      "Ġfigure": 4567,
      "MC": 4568,
      "Ġinside": 4569,
      "ponent": 4570,
      "true": 4571,
      "ropy": 4572,
      "Ġtransport": 4573,
      "Ġnetworks": 4574,
      "colon": 4575,
      "Ġoverall": 4576,
      "You": 4577,
      "Ġthought": 4578,
      "ĠWork": 4579,
      "Ġvertex": 4580,
      "Ġprofessional": 4581,
      "Ġlatter": 4582,
      "Ġplatform": 4583,
      "Ġmotion": 4584,
      "Ð°": 4585,
      "ona": 4586,
      "empty": 4587,
      "ivial": 4588,
      "Ġwindow": 4589,
      ")\\,": 4590,
      "Ġcomparison": 4591,
      "Ġpersonal": 4592,
      "Ġavoid": 4593,
      "Our": 4594,
      "ĠCap": 4595,
      "Text": 4596,
      "Ġmonth": 4597,
      "Ġmeasured": 4598,
      "Ġslow": 4599,
      "Ġformula": 4600,
      "escription": 4601,
      "Ġchosen": 4602,
      "ĠWhat": 4603,
      "Ġprimary": 4604,
      "iques": 4605,
      "aid": 4606,
      "Ġcoupling": 4607,
      "ĠSw": 4608,
      "ecause": 4609,
      "89": 4610,
      "ĠSub": 4611,
      "bour": 4612,
      "ospital": 4613,
      "antic": 4614,
      "Ġexpansion": 4615,
      "oto": 4616,
      "Ġunits": 4617,
      "FA": 4618,
      "Ġformed": 4619,
      "irtual": 4620,
      "Ġfun": 4621,
      "Ġarbit": 4622,
      "Ġpreviously": 4623,
      "Ġarticle": 4624,
      "ĠHence": 4625,
      "ĠHealth": 4626,
      "Reg": 4627,
      "hi": 4628,
      "Ġobser": 4629,
      "Ġstra": 4630,
      "ĠSing": 4631,
      "}}(\\": 4632,
      "alian": 4633,
      "Ġminimum": 4634,
      "Ġoffice": 4635,
      "Ġsil": 4636,
      "CH": 4637,
      "Of": 4638,
      "rupt": 4639,
      "unt": 4640,
      "Ġperturb": 4641,
      "textsc": 4642,
      "ĠJack": 4643,
      "arth": 4644,
      "Ġcontribution": 4645,
      "ĠBest": 4646,
      "stant": 4647,
      "well": 4648,
      "Ġnorm": 4649,
      "Ġ|\\": 4650,
      "Ġchoose": 4651,
      "Ġ);": 4652,
      "ĠRuss": 4653,
      "ĠGermany": 4654,
      "dr": 4655,
      "Ġextended": 4656,
      "Sim": 4657,
      "bon": 4658,
      "Ġrow": 4659,
      "Ġspat": 4660,
      "Ġpanel": 4661,
      "stance": 4662,
      "IL": 4663,
      "Ġoperation": 4664,
      "Event": 4665,
      "_{-": 4666,
      "Ġnames": 4667,
      "ĠOff": 4668,
      "urity": 4669,
      "Ġfire": 4670,
      "ĠDay": 4671,
      "gcolor": 4672,
      "ĠLou": 4673,
      "diff": 4674,
      "Ġded": 4675,
      "Ġhol": 4676,
      "Ġmother": 4677,
      "using": 4678,
      "NS": 4679,
      "arter": 4680,
      "ĠWashington": 4681,
      ")}(": 4682,
      "Ġtax": 4683,
      "inese": 4684,
      "Ġplaying": 4685,
      "ĠNow": 4686,
      "stack": 4687,
      "ĠMusic": 4688,
      "Ġdefault": 4689,
      "Ġmodern": 4690,
      "iverse": 4691,
      "ĠPo": 4692,
      "ilarly": 4693,
      "Ġtell": 4694,
      "Ġstarting": 4695,
      "Ġpolar": 4696,
      "Ġspectral": 4697,
      "arc": 4698,
      "ech": 4699,
      "ilies": 4700,
      "Ġpolitic": 4701,
      "ĠVir": 4702,
      "Ġveh": 4703,
      "Ġevidence": 4704,
      "Ġstream": 4705,
      "Ġaccuracy": 4706,
      "ĠBook": 4707,
      "Ġeasy": 4708,
      "Ġvan": 4709,
      "Ġblue": 4710,
      "eler": 4711,
      "Ġcontinued": 4712,
      "Ġnature": 4713,
      "Ġfully": 4714,
      "uthors": 4715,
      "ĠUnion": 4716,
      "Here": 4717,
      "sembly": 4718,
      "ĠMet": 4719,
      "1993": 4720,
      "Ġinteresting": 4721,
      "Ġinterpret": 4722,
      "deg": 4723,
      "Ġball": 4724,
      "Ġrisk": 4725,
      "eturn": 4726,
      "Ġshape": 4727,
      "_{{\\": 4728,
      "Ġcampaign": 4729,
      "Ġfill": 4730,
      "72": 4731,
      "CE": 4732,
      "Ġnumerical": 4733,
      "['": 4734,
      "ĠRoad": 4735,
      "eles": 4736,
      "mes": 4737,
      "Ġjoined": 4738,
      "amily": 4739,
      "Ġdepart": 4740,
      "VID": 4741,
      "Ġsatisfies": 4742,
      "Ġ),": 4743,
      "case": 4744,
      ")/": 4745,
      "Ġaccom": 4746,
      "met": 4747,
      "Ġfactors": 4748,
      "Ġmoney": 4749,
      "Ġvolume": 4750,
      "ride": 4751,
      "Ġeasily": 4752,
      "Ġliving": 4753,
      "ĠVol": 4754,
      "lam": 4755,
      "ye": 4756,
      "fficients": 4757,
      "efore": 4758,
      "resents": 4759,
      "Ġcos": 4760,
      "Table": 4761,
      "endix": 4762,
      "Ġbelong": 4763,
      "Ġexpon": 4764,
      "Ser": 4765,
      "Ġcompleted": 4766,
      "paramet": 4767,
      "sol": 4768,
      "84": 4769,
      "Ġrule": 4770,
      "Eq": 4771,
      "={": 4772,
      "ĠPress": 4773,
      "Ġapplications": 4774,
      "overed": 4775,
      "ĠFurther": 4776,
      "elt": 4777,
      "ĠRoyal": 4778,
      "Ġhot": 4779,
      "Ġprocesses": 4780,
      "net": 4781,
      "ĠTex": 4782,
      "ĠArch": 4783,
      "Ġhimself": 4784,
      "bin": 4785,
      "Ġrecently": 4786,
      "Ġcontroll": 4787,
      "Ġtechnology": 4788,
      "../../../../": 4789,
      "PR": 4790,
      "Ġrace": 4791,
      "height": 4792,
      "Ġansw": 4793,
      "aker": 4794,
      "More": 4795,
      "91": 4796,
      "Ġcontinue": 4797,
      "Ġrights": 4798,
      "Ġsecur": 4799,
      "Ġquick": 4800,
      "Ġselect": 4801,
      "ĠDivision": 4802,
      "First": 4803,
      "Ġmomentum": 4804,
      "ĠLeg": 4805,
      "Pol": 4806,
      "ĠAfrica": 4807,
      "ras": 4808,
      "Ġdirected": 4809,
      "Ġpractice": 4810,
      "Ġdrop": 4811,
      "ĠMat": 4812,
      "PC": 4813,
      "']": 4814,
      "ĠJust": 4815,
      "Out": 4816,
      "ĠDuring": 4817,
      "mc": 4818,
      "lt": 4819,
      "Ġdefe": 4820,
      "63": 4821,
      "Be": 4822,
      "Ġattention": 4823,
      "Ġminim": 4824,
      "print": 4825,
      "arks": 4826,
      "Ġconcern": 4827,
      "Ġbgcolor": 4828,
      "ĠAustralian": 4829,
      "'\\": 4830,
      "ĠSome": 4831,
      "Ġrev": 4832,
      "Ġsimulations": 4833,
      "Att": 4834,
      "Ġincreased": 4835,
      "iency": 4836,
      "Ġmaintain": 4837,
      "Ġdescribe": 4838,
      "Map": 4839,
      "alg": 4840,
      "Ġrecorded": 4841,
      "Ġcast": 4842,
      "Ġexpand": 4843,
      "subsubsection": 4844,
      "=(": 4845,
      "forall": 4846,
      "Ġmeasurements": 4847,
      "1970": 4848,
      "Ġestimated": 4849,
      "Ġforms": 4850,
      "Ġpressure": 4851,
      "ĠSpec": 4852,
      "Ġinj": 4853,
      "ference": 4854,
      "Ġopened": 4855,
      "ĠMary": 4856,
      "ĠCompany": 4857,
      "Ġmarried": 4858,
      "Ġleaders": 4859,
      "ĠGet": 4860,
      "Ġconsum": 4861,
      "SU": 4862,
      "Ġshare": 4863,
      "gorithms": 4864,
      "inv": 4865,
      "reshold": 4866,
      "Ġrepresented": 4867,
      "Ġdam": 4868,
      "ĠNor": 4869,
      "ĠAcadem": 4870,
      "uls": 4871,
      "cles": 4872,
      "ria": 4873,
      "Ġexamples": 4874,
      "ĠOut": 4875,
      "Ġrail": 4876,
      "su": 4877,
      "Node": 4878,
      "Ġplane": 4879,
      "ĠYear": 4880,
      "izer": 4881,
      "Ġradius": 4882,
      "Ġdetermine": 4883,
      "Ġopport": 4884,
      "Ġtro": 4885,
      "ĠDirect": 4886,
      "eria": 4887,
      "Ġcollect": 4888,
      "ala": 4889,
      ":\\": 4890,
      "Ġtrac": 4891,
      "Ġchalleng": 4892,
      "Request": 4893,
      "Ġgenerally": 4894,
      "Ðµ": 4895,
      "Ġconnect": 4896,
      "Ġoptions": 4897,
      "Ġsymbol": 4898,
      "plate": 4899,
      "Ġformation": 4900,
      "Ġload": 4901,
      "fil": 4902,
      "ĠMoreover": 4903,
      "Ġconsists": 4904,
      "Ġrequires": 4905,
      "sey": 4906,
      "Ġconsistent": 4907,
      "Ġwriting": 4908,
      "Ed": 4909,
      "ĠSur": 4910,
      "ĠIsland": 4911,
      "Ġtreatment": 4912,
      "ĠSociety": 4913,
      "Ġpatients": 4914,
      "bullet": 4915,
      "ĠSam": 4916,
      "Ġappears": 4917,
      "Ġamplit": 4918,
      "OD": 4919,
      "unk": 4920,
      "Ġorigin": 4921,
      "Ġrates": 4922,
      "aa": 4923,
      "Ġones": 4924,
      "](": 4925,
      "estival": 4926,
      "Ġmicro": 4927,
      "ĠRobert": 4928,
      "ĠAlex": 4929,
      "Ġproper": 4930,
      "Ġcells": 4931,
      "Ġsure": 4932,
      "BS": 4933,
      "Ġsolid": 4934,
      "win": 4935,
      "Ġmemory": 4936,
      "Ġearlier": 4937,
      "tes": 4938,
      "Ġcluster": 4939,
      "ĠTechn": 4940,
      "ĠDis": 4941,
      "oz": 4942,
      "Ġsongs": 4943,
      "Ġstrategy": 4944,
      "'_": 4945,
      "Ġdaugh": 4946,
      "Ġsignificantly": 4947,
      "board": 4948,
      "newcommand": 4949,
      "Ġfast": 4950,
      "witch": 4951,
      "Ġbrother": 4952,
      "Ġ-->": 4953,
      "Ġexcept": 4954,
      "Field": 4955,
      "Ġexperimental": 4956,
      "Ġcountries": 4957,
      ")_{": 4958,
      "ĠFound": 4959,
      ")^{\\": 4960,
      "asket": 4961,
      "Ġsex": 4962,
      "ĠRad": 4963,
      "Ġconnection": 4964,
      "ki": 4965,
      "Ġcorresponds": 4966,
      "omin": 4967,
      "Ġslight": 4968,
      "Ġmessage": 4969,
      "Ġeight": 4970,
      "Ġcalculated": 4971,
      "Ġheight": 4972,
      "column": 4973,
      "pmatrix": 4974,
      "\\'": 4975,
      "ĠOther": 4976,
      "}$-": 4977,
      "Ġquite": 4978,
      "However": 4979,
      "Ġessential": 4980,
      "DF": 4981,
      "Ġgave": 4982,
      "ĠMex": 4983,
      "Ġconstit": 4984,
      "ollowing": 4985,
      "Ġcontrast": 4986,
      "Ġhours": 4987,
      "1991": 4988,
      "ympt": 4989,
      "Ġuseful": 4990,
      "Ġfriend": 4991,
      "Build": 4992,
      "Ġsimpl": 4993,
      "ĠWil": 4994,
      "Ġsurv": 4995,
      "62": 4996,
      "Ġstaff": 4997,
      "ometimes": 4998,
      "ĠWhite": 4999,
      "Ġwide": 5000,
      "Ġste": 5001,
      "Ġneighbor": 5002,
      "Ġfraction": 5003,
      "cases": 5004,
      "Ġfeed": 5005,
      "rat": 5006,
      "Co": 5007,
      "Ġmanagement": 5008,
      "Ġter": 5009,
      "Ġrepresents": 5010,
      "Ġcompute": 5011,
      "CL": 5012,
      "Ġvisit": 5013,
      "Ġdebut": 5014,
      "Ġidentity": 5015,
      "Ġjud": 5016,
      "word": 5017,
      "Ġdecay": 5018,
      "Ġfight": 5019,
      "!--": 5020,
      "burg": 5021,
      "bi": 5022,
      "Ġcharacters": 5023,
      "ĠMag": 5024,
      "tem": 5025,
      ",\\,": 5026,
      "=-": 5027,
      "Path": 5028,
      "Ġchem": 5029,
      "Ġvertices": 5030,
      "Ġconstraints": 5031,
      "73": 5032,
      "Ġspaces": 5033,
      "ĠGold": 5034,
      "arr": 5035,
      "active": 5036,
      "pty": 5037,
      "Ġmarg": 5038,
      "Ġassumption": 5039,
      "Ġsigned": 5040,
      "Ġdetection": 5041,
      "FC": 5042,
      "ĠMiss": 5043,
      "83": 5044,
      "Ġlack": 5045,
      "ĠHen": 5046,
      "){\\": 5047,
      "idden": 5048,
      "war": 5049,
      "Ġsecurity": 5050,
      "82": 5051,
      "graph": 5052,
      "Ġhighest": 5053,
      "simeq": 5054,
      "Ġinequality": 5055,
      "iral": 5056,
      "Ġwife": 5057,
      "Ġrelevant": 5058,
      "apter": 5059,
      "sto": 5060,
      "Ġcore": 5061,
      "Ġforces": 5062,
      "ensus": 5063,
      "74": 5064,
      "Ġcoach": 5065,
      "Ġtrain": 5066,
      "Ġ+\\": 5067,
      "End": 5068,
      "Ġlattice": 5069,
      "69": 5070,
      "Ġcoefficients": 5071,
      "mission": 5072,
      "vention": 5073,
      "km": 5074,
      "perp": 5075,
      "ĠClub": 5076,
      "ĠTest": 5077,
      "ocol": 5078,
      "Ġmus": 5079,
      "ĠMac": 5080,
      "rees": 5081,
      "Inter": 5082,
      "undle": 5083,
      "Ġtheore": 5084,
      "Ġcorrelation": 5085,
      "Ġrock": 5086,
      "Ġvariety": 5087,
      "object": 5088,
      "Ġdescription": 5089,
      "ĠMer": 5090,
      "Ġsteps": 5091,
      "roduction": 5092,
      "Ġcam": 5093,
      "ano": 5094,
      "':": 5095,
      "....": 5096,
      "Ass": 5097,
      "Ġargument": 5098,
      "Ġprofile": 5099,
      "ipp": 5100,
      "itable": 5101,
      "ĠBen": 5102,
      "Ġ~": 5103,
      "Ġexactly": 5104,
      "reme": 5105,
      "rial": 5106,
      "ĠRev": 5107,
      "}^*": 5108,
      "Ġ...": 5109,
      "CS": 5110,
      "ĠCong": 5111,
      "Ġselection": 5112,
      "Ġchurch": 5113,
      "Ġdise": 5114,
      "Ġprocedure": 5115,
      "NA": 5116,
      "ita": 5117,
      "Ġappeared": 5118,
      "Ġruns": 5119,
      "config": 5120,
      "Ġcred": 5121,
      "ĠRussian": 5122,
      "Ġproduce": 5123,
      "Ġcry": 5124,
      "Ġtalk": 5125,
      "inder": 5126,
      "ira": 5127,
      "zero": 5128,
      "Ġmeaning": 5129,
      "Ġdual": 5130,
      "obile": 5131,
      "riz": 5132,
      "Ġcategory": 5133,
      "Ġcommand": 5134,
      "Ġpolice": 5135,
      "79": 5136,
      "ĠMichael": 5137,
      "ĠRem": 5138,
      "Ġbur": 5139,
      "Ġresolution": 5140,
      "ogene": 5141,
      "user": 5142,
      "ĠĠĠĠĠĠĠĠĠĠĠĠĠĠĠĠĠĠĠĠĠĠĠĠĠĠĠ": 5143,
      "Ġframe": 5144,
      "iti": 5145,
      "ernel": 5146,
      "Ġ=\\": 5147,
      "61": 5148,
      "overy": 5149,
      "lease": 5150,
      "ĠGod": 5151,
      "Ġreveal": 5152,
      "Ġstatus": 5153,
      "cis": 5154,
      "Ġbooks": 5155,
      "ĠJer": 5156,
      "Info": 5157,
      "orage": 5158,
      "Ġsimulation": 5159,
      "Ġtour": 5160,
      "Ġhit": 5161,
      "((": 5162,
      "cons": 5163,
      "Ġstatement": 5164,
      "Ġrules": 5165,
      "Ġhighly": 5166,
      "Ġliterature": 5167,
      ".~(\\": 5168,
      "ĠTexas": 5169,
      "Ġsaw": 5170,
      "void": 5171,
      "PT": 5172,
      "Ġ/*": 5173,
      "Ġdecom": 5174,
      "ĠSeries": 5175,
      "hesis": 5176,
      "Ġseem": 5177,
      ")^{-": 5178,
      "vex": 5179,
      "$).": 5180,
      "ĠSal": 5181,
      "}}^": 5182,
      "Ġschools": 5183,
      "ĠDel": 5184,
      "Ġinternal": 5185,
      "Ġscalar": 5186,
      "IV": 5187,
      "Ġexisting": 5188,
      "Ġsquare": 5189,
      "ĠTown": 5190,
      "Ġimprove": 5191,
      "81": 5192,
      "Ġedges": 5193,
      "So": 5194,
      "Ġconserv": 5195,
      "ĠGames": 5196,
      "Ġtold": 5197,
      "Ġhous": 5198,
      "Ġagreement": 5199,
      "uting": 5200,
      "Figure": 5201,
      "olf": 5202,
      "300": 5203,
      "ether": 5204,
      "icity": 5205,
      "Ġship": 5206,
      "ĠMad": 5207,
      "Ġincreases": 5208,
      "aily": 5209,
      "free": 5210,
      "airs": 5211,
      "ĠDan": 5212,
      "Index": 5213,
      "emic": 5214,
      "oma": 5215,
      "Ġdram": 5216,
      "zer": 5217,
      "Ġanti": 5218,
      "api": 5219,
      "Ġanim": 5220,
      "arl": 5221,
      "fort": 5222,
      "term": 5223,
      "ĠOf": 5224,
      "Ġpick": 5225,
      "())": 5226,
      "ought": 5227,
      "Ġsyn": 5228,
      "osing": 5229,
      "Ġcounter": 5230,
      "$(": 5231,
      "sequence": 5232,
      "ilib": 5233,
      "aur": 5234,
      "ĠDon": 5235,
      "umni": 5236,
      "ishes": 5237,
      "MM": 5238,
      "ĠScott": 5239,
      "isher": 5240,
      "ĠCentral": 5241,
      "/**": 5242,
      "[]": 5243,
      "block": 5244,
      "Ġextract": 5245,
      "Ġdepends": 5246,
      "Ġdenotes": 5247,
      "Ġstated": 5248,
      "~$\\": 5249,
      "Ġwalk": 5250,
      "Ġidentified": 5251,
      "Ġactivity": 5252,
      "Ġalgorithms": 5253,
      "rep": 5254,
      "Ġtensor": 5255,
      "iring": 5256,
      "71": 5257,
      "Ġextension": 5258,
      "Ġrap": 5259,
      "\\\"": 5260,
      "ipl": 5261,
      "Color": 5262,
      "$$\\": 5263,
      "Ġbirth": 5264,
      "Ġapproximately": 5265,
      "bur": 5266,
      "UN": 5267,
      "Ġplaces": 5268,
      "ducation": 5269,
      "Ġexam": 5270,
      "Ġmole": 5271,
      "ĠMont": 5272,
      "Ġvs": 5273,
      "Ġremaining": 5274,
      "Ġelectric": 5275,
      "Ġsampl": 5276,
      "ih": 5277,
      "ĠGreat": 5278,
      "za": 5279,
      "Ġboard": 5280,
      "gent": 5281,
      "agement": 5282,
      "gg": 5283,
      ")\\\\": 5284,
      "enge": 5285,
      "rought": 5286,
      "ĠProv": 5287,
      "Ġdidn": 5288,
      "ĠAfrican": 5289,
      "Ġsoftware": 5290,
      "values": 5291,
      "vement": 5292,
      "Ġwind": 5293,
      ")--": 5294,
      "Ġgovern": 5295,
      "BA": 5296,
      "Ġapproaches": 5297,
      "ena": 5298,
      "\\|_{": 5299,
      "Ġexistence": 5300,
      "Ġscatter": 5301,
      "Ġsituation": 5302,
      "Context": 5303,
      "date": 5304,
      "Ġseven": 5305,
      ")}{\\": 5306,
      "TD": 5307,
      "ĠTom": 5308,
      "edy": 5309,
      "anced": 5310,
      "1989": 5311,
      "Ġinstit": 5312,
      "ĠPublic": 5313,
      "ua": 5314,
      "ĠTur": 5315,
      "Ġult": 5316,
      "uge": 5317,
      "Ġwor": 5318,
      "ĠEv": 5319,
      "pat": 5320,
      "Ġtransl": 5321,
      "Ġbal": 5322,
      "Ġsoon": 5323,
      "lood": 5324,
      "$^{-": 5325,
      "cel": 5326,
      "Ġangle": 5327,
      "Ġtim": 5328,
      "/*": 5329,
      "ĠSl": 5330,
      "ĠLand": 5331,
      "Ab": 5332,
      "force": 5333,
      "men": 5334,
      "arts": 5335,
      "Ġconcent": 5336,
      "Ġdetect": 5337,
      "Ġjournal": 5338,
      "Ġextra": 5339,
      "rey": 5340,
      "ĠChinese": 5341,
      "next": 5342,
      "ĠMus": 5343,
      "abase": 5344,
      "Ġsports": 5345,
      "nother": 5346,
      "hom": 5347,
      "ĠThomas": 5348,
      "Ġbasic": 5349,
      "ocation": 5350,
      "Ġreplaced": 5351,
      "Ġstraight": 5352,
      "liament": 5353,
      "Ġroom": 5354,
      "ĠFe": 5355,
      "Ġseems": 5356,
      "abilities": 5357,
      "ĠPet": 5358,
      "Ġscient": 5359,
      "Ġrepe": 5360,
      "Ġsaf": 5361,
      "Ð¸": 5362,
      "Ġcourt": 5363,
      "Ġcoming": 5364,
      "rish": 5365,
      "Ġoption": 5366,
      "ĠMuseum": 5367,
      "Element": 5368,
      "define": 5369,
      "mi": 5370,
      "example": 5371,
      "Ġdistributions": 5372,
      "ibly": 5373,
      "Ġshowed": 5374,
      "ifically": 5375,
      "Ġvisual": 5376,
      "ĠSuper": 5377,
      "quot": 5378,
      "Comm": 5379,
      "Array": 5380,
      "Ġmentioned": 5381,
      "base": 5382,
      "$\\{": 5383,
      "ĠSet": 5384,
      "ulate": 5385,
      "azine": 5386,
      "How": 5387,
      "Ġapprop": 5388,
      "Ġ/>": 5389,
      "Ġparticularly": 5390,
      "Ġborder": 5391,
      "mann": 5392,
      "ĠCanadian": 5393,
      "result": 5394,
      "Ġbul": 5395,
      "Ġfamilies": 5396,
      "Ġauthors": 5397,
      "inem": 5398,
      "uations": 5399,
      "Ġdoesn": 5400,
      "dec": 5401,
      "ĠGrand": 5402,
      "ĠDemocr": 5403,
      "Ġlisted": 5404,
      "Ġfix": 5405,
      "Config": 5406,
      "Spec": 5407,
      "stream": 5408,
      "Ġreduce": 5409,
      "Ġquas": 5410,
      "Ġconfiguration": 5411,
      "matrix": 5412,
      "ental": 5413,
      "mas": 5414,
      "arant": 5415,
      "Ġbeginning": 5416,
      "rium": 5417,
      "yr": 5418,
      "})$.": 5419,
      "ĠRob": 5420,
      "then": 5421,
      "Model": 5422,
      "dim": 5423,
      "LS": 5424,
      "char": 5425,
      "PI": 5426,
      "Rep": 5427,
      "Ġlooking": 5428,
      "Ġcurves": 5429,
      "Eng": 5430,
      "Ġgirl": 5431,
      "Ġreading": 5432,
      "remark": 5433,
      "Ġcompletely": 5434,
      "Ġintroduce": 5435,
      "mselves": 5436,
      "1988": 5437,
      "current": 5438,
      "gn": 5439,
      "Ġclassification": 5440,
      "Ġthing": 5441,
      "Ġreached": 5442,
      "ĠCarol": 5443,
      "Ġprint": 5444,
      "press": 5445,
      "Ġhttps": 5446,
      "ĠKingdom": 5447,
      "ypes": 5448,
      "Ġ},": 5449,
      "mapsto": 5450,
      "Ġincor": 5451,
      "Ġmissing": 5452,
      "1960": 5453,
      "Ġdistinct": 5454,
      "ĠSecond": 5455,
      "Ġscience": 5456,
      "ĠWestern": 5457,
      "Ġoccup": 5458,
      "Ġepisode": 5459,
      "Ġaffect": 5460,
      "Ġtechniques": 5461,
      "ao": 5462,
      "ĠCD": 5463,
      "spect": 5464,
      "icense": 5465,
      "neg": 5466,
      "Ġdeb": 5467,
      "asketball": 5468,
      "Te": 5469,
      "Ġspectra": 5470,
      "Ġdomin": 5471,
      "west": 5472,
      "Ġplant": 5473,
      "Ġhoriz": 5474,
      "comple": 5475,
      "ĠAccording": 5476,
      "Bar": 5477,
      "itch": 5478,
      "seud": 5479,
      "Ġcop": 5480,
      "cho": 5481,
      "gra": 5482,
      "Ġcomputed": 5483,
      "Ġstable": 5484,
      "Ġequip": 5485,
      "Ġoffer": 5486,
      "rong": 5487,
      "Ġpen": 5488,
      "Ġbey": 5489,
      "Ã¤": 5490,
      "ils": 5491,
      "'re": 5492,
      "Ġinvariant": 5493,
      "Ġbad": 5494,
      "ĠJapanese": 5495,
      "uan": 5496,
      "fess": 5497,
      "Ġpaint": 5498,
      "iding": 5499,
      "Ġcomment": 5500,
      "Ġcele": 5501,
      "Ġinsp": 5502,
      "Ġmodes": 5503,
      "gener": 5504,
      "Ġmind": 5505,
      "Ġerrors": 5506,
      "tik": 5507,
      "otion": 5508,
      ".$": 5509,
      "Ġthemselves": 5510,
      "ĠKore": 5511,
      "Ġbeyond": 5512,
      "ictor": 5513,
      "Ġchanged": 5514,
      "iable": 5515,
      "weight": 5516,
      "Ġjoint": 5517,
      "isl": 5518,
      "Ġgreater": 5519,
      "Ġcause": 5520,
      "Ġrecomm": 5521,
      "ĠOb": 5522,
      "Ġdependence": 5523,
      "hing": 5524,
      "Ġorb": 5525,
      "ĠFore": 5526,
      "atre": 5527,
      "Ġstellar": 5528,
      "ĠChristian": 5529,
      "';": 5530,
      "Ġheavy": 5531,
      "Ġpairs": 5532,
      "Ġpropag": 5533,
      "Service": 5534,
      "mercial": 5535,
      "Ġdoing": 5536,
      "{$\\": 5537,
      "Ġgreen": 5538,
      "Ġstay": 5539,
      "Ġ]": 5540,
      "ĠVirgin": 5541,
      "CP": 5542,
      "count": 5543,
      "Ġtraditional": 5544,
      "System": 5545,
      "road": 5546,
      "ski": 5547,
      "esh": 5548,
      "Ġsen": 5549,
      "ĠCath": 5550,
      "Ġquad": 5551,
      "ymmet": 5552,
      "Ġplot": 5553,
      "oder": 5554,
      "ĠMinister": 5555,
      "Ġspatial": 5556,
      "}}^{": 5557,
      "ĠAcademy": 5558,
      "Ġleague": 5559,
      "Ġefficient": 5560,
      "ĠSmith": 5561,
      "ĠService": 5562,
      "real": 5563,
      "ĠCre": 5564,
      "Ġways": 5565,
      "Ġinteractions": 5566,
      "NR": 5567,
      "Ġmeasures": 5568,
      "tri": 5569,
      "fact": 5570,
      "ĠJew": 5571,
      "Ġetc": 5572,
      "title": 5573,
      "Ġcombination": 5574,
      "rons": 5575,
      "lig": 5576,
      "Ġ&=&": 5577,
      "ĠCur": 5578,
      ")$-": 5579,
      "Per": 5580,
      "Thus": 5581,
      "****************": 5582,
      "ĠTor": 5583,
      "local": 5584,
      "Ġfinancial": 5585,
      "Ġformal": 5586,
      "sect": 5587,
      "Ġcollabor": 5588,
      "inity": 5589,
      "thlet": 5590,
      "App": 5591,
      "Ġ(!": 5592,
      "ĠAnn": 5593,
      "Ġability": 5594,
      "ĠAlthough": 5595,
      "ĠLat": 5596,
      "Ġcard": 5597,
      "Ġminutes": 5598,
      "Ġbrand": 5599,
      "multi": 5600,
      "reedom": 5601,
      "1987": 5602,
      "Ġeventually": 5603,
      "SI": 5604,
      "Ġnoted": 5605,
      "Ġreconst": 5606,
      "Ġyields": 5607,
      "ĠHistor": 5608,
      "icago": 5609,
      "Ġtrade": 5610,
      "Ġfinally": 5611,
      "Ġgeneration": 5612,
      "Ġestimates": 5613,
      "Ġcontaining": 5614,
      "eks": 5615,
      "mic": 5616,
      "GL": 5617,
      "Ġdaughter": 5618,
      "ĠUnder": 5619,
      "ĠCOVID": 5620,
      "reland": 5621,
      "ĠGra": 5622,
      "=#": 5623,
      "ĠZeal": 5624,
      "Ġmatrices": 5625,
      "Group": 5626,
      "Ġsymmetric": 5627,
      "amental": 5628,
      "Read": 5629,
      "hal": 5630,
      "Code": 5631,
      "has": 5632,
      "Ġ});": 5633,
      "Ġthreshold": 5634,
      "Fe": 5635,
      "dx": 5636,
      "tikz": 5637,
      "Ġfourth": 5638,
      "Ġcontributions": 5639,
      "Ġunivers": 5640,
      "inner": 5641,
      "Ġmeasurement": 5642,
      "anned": 5643,
      "Size": 5644,
      "IF": 5645,
      "Ġasympt": 5646,
      "ATE": 5647,
      "Ġotherwise": 5648,
      "Ġrelig": 5649,
      "conn": 5650,
      "Ġfounded": 5651,
      "Ġagent": 5652,
      "hbar": 5653,
      "'}": 5654,
      "Ġconstructed": 5655,
      "These": 5656,
      "build": 5657,
      "Ġgold": 5658,
      "ĠAlso": 5659,
      "Ġcloud": 5660,
      "Ġwoman": 5661,
      "first": 5662,
      "Ġplaced": 5663,
      "Ġperfect": 5664,
      "soft": 5665,
      "proposition": 5666,
      "Ġarbitrary": 5667,
      "ĠZealand": 5668,
      "abled": 5669,
      "ulture": 5670,
      "Ġsingular": 5671,
      "Op": 5672,
      "lections": 5673,
      "Ġ\\},": 5674,
      "Ġpoly": 5675,
      "Ġinfluence": 5676,
      "Ġwest": 5677,
      "Ġsn": 5678,
      "omorphic": 5679,
      "rot": 5680,
      "ĠAre": 5681,
      "ĠJose": 5682,
      "method": 5683,
      "cknow": 5684,
      "ĠBill": 5685,
      "Ġinner": 5686,
      "ĠGaussian": 5687,
      "Theorem": 5688,
      "ufact": 5689,
      "apache": 5690,
      "Ġpurch": 5691,
      "oting": 5692,
      "Ġnearly": 5693,
      "Ġculture": 5694,
      "Ġeast": 5695,
      "ĠLouis": 5696,
      "jo": 5697,
      "ĠOver": 5698,
      "duction": 5699,
      "ĠFlor": 5700,
      "Ġbrief": 5701,
      "ĠSun": 5702,
      "Ġmedical": 5703,
      "assert": 5704,
      "Ne": 5705,
      "Hand": 5706,
      "Ġbottom": 5707,
      "Ġcompare": 5708,
      "Ġcaused": 5709,
      "ĠCharles": 5710,
      "Ġassumed": 5711,
      "Ġfemale": 5712,
      "Ġcapital": 5713,
      "Ġquestions": 5714,
      "ĠFrancis": 5715,
      "apers": 5716,
      ";&": 5717,
      "Ġheart": 5718,
      "Ġstudent": 5719,
      "istical": 5720,
      "ĠPost": 5721,
      "Next": 5722,
      "Ġadvant": 5723,
      "SM": 5724,
      "1986": 5725,
      "member": 5726,
      "Ġrelatively": 5727,
      "}%": 5728,
      "Ent": 5729,
      "agraph": 5730,
      "Ġanalog": 5731,
      "omic": 5732,
      "core": 5733,
      "ĠBur": 5734,
      "CA": 5735,
      "ĠEqu": 5736,
      "OM": 5737,
      "Ġbelieve": 5738,
      "She": 5739,
      "md": 5740,
      "prob": 5741,
      "^{+": 5742,
      "Ġbranch": 5743,
      "porary": 5744,
      "odot": 5745,
      "LP": 5746,
      "page": 5747,
      "ĠItalian": 5748,
      "Ġkilled": 5749,
      "rich": 5750,
      "Ġreplace": 5751,
      "Ġobserve": 5752,
      "Ġabsor": 5753,
      "Ġabsol": 5754,
      "ĠTime": 5755,
      "pg": 5756,
      "Ġtransformation": 5757,
      "Ġalbums": 5758,
      "Ġdiscussion": 5759,
      "Ġupdate": 5760,
      "Ġring": 5761,
      "ĠTwo": 5762,
      "uffer": 5763,
      "ĠFin": 5764,
      "\\_": 5765,
      "Ġcivil": 5766,
      "Hz": 5767,
      "Ġcopy": 5768,
      "iant": 5769,
      "Box": 5770,
      "gu": 5771,
      "cular": 5772,
      "istan": 5773,
      "ĠIN": 5774,
      "velopment": 5775,
      "{{": 5776,
      "udd": 5777,
      "Ġmiddle": 5778,
      "ĠHistory": 5779,
      "rect": 5780,
      "Item": 5781,
      "ĠInc": 5782,
      "ĠDen": 5783,
      "Ġgenerate": 5784,
      "Further": 5785,
      "Ġhum": 5786,
      "ĠRecords": 5787,
      "$;": 5788,
      "GB": 5789,
      "ĠStar": 5790,
      "Ġmanufact": 5791,
      "Ġstrength": 5792,
      "kl": 5793,
      "Ġdisk": 5794,
      "ĠInst": 5795,
      "maz": 5796,
      "Ġelected": 5797,
      "Ġimmediately": 5798,
      "\\{\\": 5799,
      "ias": 5800,
      "va": 5801,
      "cccc": 5802,
      "ĠBrown": 5803,
      "font": 5804,
      "ancy": 5805,
      "Ġmut": 5806,
      "Ġdivid": 5807,
      "anda": 5808,
      "kin": 5809,
      "Ġmorph": 5810,
      "etime": 5811,
      ")_": 5812,
      "ĠData": 5813,
      "Ġbank": 5814,
      "Ġer": 5815,
      "Ġcalc": 5816,
      "Ġidentify": 5817,
      "Ġdifferential": 5818,
      "Ġasked": 5819,
      "Ġbrought": 5820,
      "Che": 5821,
      "Ġpure": 5822,
      "Ġplays": 5823,
      "vere": 5824,
      "ĠHill": 5825,
      "ilibrium": 5826,
      "Can": 5827,
      "Ġconvergence": 5828,
      "Ġpain": 5829,
      "ASS": 5830,
      "bottom": 5831,
      "ename": 5832,
      "aud": 5833,
      "pected": 5834,
      "scill": 5835,
      "Ġcombined": 5836,
      "Ġgrant": 5837,
      "ĠCommission": 5838,
      "Ġresources": 5839,
      "ĠMass": 5840,
      "Ġfinished": 5841,
      "amely": 5842,
      "ĠSaint": 5843,
      "Ġphen": 5844,
      "Log": 5845,
      "Ġartists": 5846,
      "Ġprobably": 5847,
      "Ġassess": 5848,
      "inger": 5849,
      "Ġtit": 5850,
      "ĠLie": 5851,
      "Ġhttp": 5852,
      "Ġutil": 5853,
      "Ġvac": 5854,
      "ĠCE": 5855,
      "Ġroot": 5856,
      "joy": 5857,
      "only": 5858,
      "ENT": 5859,
      "ĠProgram": 5860,
      "final": 5861,
      "DA": 5862,
      "illa": 5863,
      "Ġaspect": 5864,
      "$~": 5865,
      "Ġinterview": 5866,
      "Ġslightly": 5867,
      ")},": 5868,
      "'(": 5869,
      "Ġprice": 5870,
      "elli": 5871,
      "ette": 5872,
      "Ġinteger": 5873,
      "ĠMem": 5874,
      "Ġoptical": 5875,
      "itation": 5876,
      "ĠMo": 5877,
      "1984": 5878,
      "Ġmanifold": 5879,
      "displaystyle": 5880,
      "Ġwatch": 5881,
      "=\"+": 5882,
      "anger": 5883,
      "Ġactivities": 5884,
      "Ġesc": 5885,
      "Ġthick": 5886,
      "gt": 5887,
      "ĠRock": 5888,
      "Ġappointed": 5889,
      "Ġmoving": 5890,
      "Ġcircle": 5891,
      "ĠKe": 5892,
      "Ġmovement": 5893,
      "host": 5894,
      "names": 5895,
      "ĠSummer": 5896,
      "ĠCamp": 5897,
      "Ġnil": 5898,
      "icated": 5899,
      "astern": 5900,
      "ĠIts": 5901,
      "ĠGovernment": 5902,
      "Ġmodule": 5903,
      "ĠLos": 5904,
      "arian": 5905,
      "Ġago": 5906,
      "start": 5907,
      "Count": 5908,
      "Ġdecided": 5909,
      "ĠHamiltonian": 5910,
      "inding": 5911,
      "Ġgetting": 5912,
      "Ġtypically": 5913,
      "Ġprograms": 5914,
      "1985": 5915,
      "fin": 5916,
      "stract": 5917,
      "\"\"": 5918,
      "ĠĠĠĠĠĠĠĠĠĠĠĠĠĠĠĠĠ": 5919,
      "Ġmechanism": 5920,
      "Ġdistributed": 5921,
      "Ġtor": 5922,
      "cd": 5923,
      "ĠMel": 5924,
      "Ġcomputation": 5925,
      "ĠIsra": 5926,
      "Ġsometimes": 5927,
      "Ġprevent": 5928,
      "Ġ$$": 5929,
      "Ġcapacity": 5930,
      "ĠForm": 5931,
      "Ġsemi": 5932,
      "Ġdevice": 5933,
      "otal": 5934,
      "Ġtasks": 5935,
      "ĠGal": 5936,
      "igan": 5937,
      "Ġmachine": 5938,
      "Pre": 5939,
      "orial": 5940,
      "Ġoriginally": 5941,
      "Ġarchitecture": 5942,
      "Ġleave": 5943,
      "Ġhydro": 5944,
      "ĠPeter": 5945,
      "ĠRail": 5946,
      "Ġspread": 5947,
      "greg": 5948,
      "picture": 5949,
      "Ġbuildings": 5950,
      "Ġbinary": 5951,
      "Ġlegal": 5952,
      "lang": 5953,
      "Ġsurround": 5954,
      "annels": 5955,
      "While": 5956,
      "Ġgoes": 5957,
      ")+\\": 5958,
      "Ġcoordinates": 5959,
      "-$": 5960,
      "EM": 5961,
      "ĠFrank": 5962,
      "ĠWomen": 5963,
      "Ġproved": 5964,
      "ircraft": 5965,
      "ican": 5966,
      "ĠFoundation": 5967,
      "omy": 5968,
      "({": 5969,
      "Ġcandidate": 5970,
      "opic": 5971,
      "Ġaccur": 5972,
      "Ġprogress": 5973,
      "oration": 5974,
      "Ġfilter": 5975,
      "Ġamb": 5976,
      "Part": 5977,
      "ĠHig": 5978,
      "Ġguitar": 5979,
      "hemat": 5980,
      "default": 5981,
      "Ġthreat": 5982,
      "Ġcycle": 5983,
      "resh": 5984,
      "Ġpurpose": 5985,
      "Ġcru": 5986,
      "PP": 5987,
      "Ġclearly": 5988,
      "ĠFootball": 5989,
      "Ġthrow": 5990,
      "Ġexc": 5991,
      "400": 5992,
      "Ġparallel": 5993,
      "sur": 5994,
      "ipage": 5995,
      "Ġcompetition": 5996,
      "ĠEach": 5997,
      "|_{": 5998,
      "Med": 5999,
      "ĠBre": 6000,
      "Ġremain": 6001,
      "Ġvary": 6002,
      "TV": 6003,
      "Ġ;": 6004,
      "Ġminor": 6005,
      "Ġregime": 6006,
      "Ġwriter": 6007,
      "ĠParis": 6008,
      "ĠMost": 6009,
      "Ġleader": 6010,
      "create": 6011,
      "ĠSta": 6012,
      "Ġdu": 6013,
      "ĠĠĠĠĠĠĠĠĠĠĠĠĠĠ": 6014,
      "irit": 6015,
      "Ġhypot": 6016,
      "ĠRichard": 6017,
      "minipage": 6018,
      "ribution": 6019,
      "module": 6020,
      "Ġsqu": 6021,
      "####": 6022,
      "ÑĤ": 6023,
      "Message": 6024,
      "ĠJan": 6025,
      "Ġartist": 6026,
      "Ġdifferences": 6027,
      "ban": 6028,
      "Ġexpressed": 6029,
      "arse": 6030,
      "Ġflat": 6031,
      ">&": 6032,
      "Method": 6033,
      "ĠPre": 6034,
      "Ġorient": 6035,
      "Ġpark": 6036,
      "Cons": 6037,
      "Ġseparate": 6038,
      "coming": 6039,
      "sch": 6040,
      "Ġharm": 6041,
      "Ġinterval": 6042,
      "Ġorganization": 6043,
      "Ġvectors": 6044,
      "Ġreson": 6045,
      "alysis": 6046,
      "Ġexpert": 6047,
      "Ġoscill": 6048,
      "}&": 6049,
      "Ġreduction": 6050,
      "Ġconfir": 6051,
      "ella": 6052,
      "osh": 6053,
      "Ġsegment": 6054,
      "content": 6055,
      "vest": 6056,
      "Ġsatisfy": 6057,
      "Ġresol": 6058,
      "faces": 6059,
      "Ġdepth": 6060,
      "Call": 6061,
      "blue": 6062,
      "viation": 6063,
      "Ġactual": 6064,
      "valid": 6065,
      "Ġactions": 6066,
      "aven": 6067,
      "CR": 6068,
      "ĠBig": 6069,
      "Ġtourn": 6070,
      "fit": 6071,
      "Ġshot": 6072,
      "}}$,": 6073,
      "udes": 6074,
      "Ġgalaxy": 6075,
      "ustain": 6076,
      "ĠMr": 6077,
      "TT": 6078,
      "Ġsites": 6079,
      "ĠOpen": 6080,
      "Ġdetailed": 6081,
      "Me": 6082,
      "Ġnom": 6083,
      "Ġdemand": 6084,
      "process": 6085,
      "ko": 6086,
      "ror": 6087,
      "Ġstrongly": 6088,
      "related": 6089,
      "ĠOffic": 6090,
      "ĠTimes": 6091,
      "Ġfavor": 6092,
      "Ġ===": 6093,
      "Ġindividuals": 6094,
      "Ġfair": 6095,
      "Ġearn": 6096,
      "otted": 6097,
      "elled": 6098,
      "atically": 6099,
      "Ġstrict": 6100,
      "Ġachieve": 6101,
      "Ġsplit": 6102,
      "Ġstations": 6103,
      "Ġcorn": 6104,
      "cref": 6105,
      "bas": 6106,
      "ĠChicago": 6107,
      "Ġtesting": 6108,
      "Ġweeks": 6109,
      "ĠIreland": 6110,
      "ĠGeorg": 6111,
      "SR": 6112,
      "ĠJournal": 6113,
      "Ġmis": 6114,
      "Ġbehavi": 6115,
      "ĠRussia": 6116,
      "Ġonto": 6117,
      "}}$.": 6118,
      "EC": 6119,
      "Ġtrained": 6120,
      "ĠMil": 6121,
      "MR": 6122,
      "Ġfootballers": 6123,
      "mma": 6124,
      "ĠHel": 6125,
      "Ġinduced": 6126,
      "Ġdigital": 6127,
      "while": 6128,
      "Ġgiving": 6129,
      "Ġexternal": 6130,
      "aching": 6131,
      "poses": 6132,
      "Mem": 6133,
      "ĠInf": 6134,
      "ato": 6135,
      "Ġmajority": 6136,
      "witter": 6137,
      "erc": 6138,
      "Ġthermal": 6139,
      "Ġcollege": 6140,
      "Ġachieved": 6141,
      ")-\\": 6142,
      "ola": 6143,
      "Ġappropriate": 6144,
      "info": 6145,
      "Ġcarried": 6146,
      "ĠUp": 6147,
      "Ġdead": 6148,
      "1983": 6149,
      "})$,": 6150,
      "Ġbeam": 6151,
      "='": 6152,
      "ests": 6153,
      "DP": 6154,
      "Ġgap": 6155,
      "}{|": 6156,
      "Ġanc": 6157,
      "Ġeconomic": 6158,
      "Ġgrand": 6159,
      "Ġ${": 6160,
      ":}": 6161,
      "Ġdeliver": 6162,
      "Ġalumni": 6163,
      "Ġfa": 6164,
      "Ġ};": 6165,
      "venue": 6166,
      "abil": 6167,
      "ny": 6168,
      "ĠLu": 6169,
      "Ġprep": 6170,
      "Ġpow": 6171,
      "ĠLife": 6172,
      "=\"../../../../": 6173,
      "Ð½": 6174,
      "uled": 6175,
      "static": 6176,
      "Mar": 6177,
      "Ġtypical": 6178,
      "TH": 6179,
      "house": 6180,
      "stra": 6181,
      "yes": 6182,
      "Ġentry": 6183,
      "Ġpassed": 6184,
      "struct": 6185,
      "Ġunion": 6186,
      "Ġobservation": 6187,
      "Ġexcit": 6188,
      "cript": 6189,
      "Ġoptimization": 6190,
      "image": 6191,
      "nel": 6192,
      "ĠGr": 6193,
      "ĠPlay": 6194,
      "Ġprediction": 6195,
      "razil": 6196,
      "Ġproviding": 6197,
      "Ġgrid": 6198,
      "}$)": 6199,
      "Ġwanted": 6200,
      "Ġoffers": 6201,
      "Ġscattering": 6202,
      "ternet": 6203,
      "ĠOper": 6204,
      "Ġworth": 6205,
      "Ġcarry": 6206,
      "icks": 6207,
      "ĠPan": 6208,
      "tx": 6209,
      "Ġunknown": 6210,
      "ĠSol": 6211,
      "cs": 6212,
      "Ġodd": 6213,
      "system": 6214,
      "Ġlayers": 6215,
      "Ġreflect": 6216,
      "Manager": 6217,
      "Ġextrem": 6218,
      "ĠAtl": 6219,
      "Ġmeeting": 6220,
      "ĠLake": 6221,
      "Ġpositions": 6222,
      "ĠCommittee": 6223,
      "1000": 6224,
      "iller": 6225,
      "Ã¨": 6226,
      "chen": 6227,
      "Ġitem": 6228,
      "Ġmasses": 6229,
      "Ġunderstanding": 6230,
      "cong": 6231,
      "Ġinterface": 6232,
      "Ġsch": 6233,
      "cf": 6234,
      "bed": 6235,
      "ĠUk": 6236,
      "Ġconclude": 6237,
      "Comp": 6238,
      "ĠOlympics": 6239,
      "Ġgun": 6240,
      "anges": 6241,
      "ĠKn": 6242,
      "Ġmagnitude": 6243,
      "))$": 6244,
      "Ġnotation": 6245,
      "unct": 6246,
      "ologies": 6247,
      "contin": 6248,
      "ellig": 6249,
      "ĠMax": 6250,
      "Ġloop": 6251,
      "Ġideal": 6252,
      ")}_{": 6253,
      "adow": 6254,
      "ayout": 6255,
      "Ġprojects": 6256,
      "ĠDu": 6257,
      "ĠPenn": 6258,
      "Act": 6259,
      "Line": 6260,
      "ĠPri": 6261,
      "Ġsector": 6262,
      "azz": 6263,
      "ĠBoard": 6264,
      "clos": 6265,
      "Ġcool": 6266,
      "Ġrapid": 6267,
      "open": 6268,
      "ĠDec": 6269,
      "Ġjava": 6270,
      "ogeneous": 6271,
      "ĠCongress": 6272,
      "1982": 6273,
      "ĠRel": 6274,
      "ĠFinally": 6275,
      "Ġfriends": 6276,
      "Ġlum": 6277,
      "igation": 6278,
      "otype": 6279,
      "break": 6280,
      "$),": 6281,
      "ca": 6282,
      "Back": 6283,
      "Ġcomputer": 6284,
      "Ġsecret": 6285,
      "itiz": 6286,
      "Ġdisease": 6287,
      "Ġpoor": 6288,
      "Ġindicates": 6289,
      "ĠReview": 6290,
      "Ġstore": 6291,
      "Ġquickly": 6292,
      "ĠAngeles": 6293,
      "include": 6294,
      "gr": 6295,
      "issions": 6296,
      "lines": 6297,
      "Ġminimal": 6298,
      "Ġmostly": 6299,
      "IA": 6300,
      "ĠVictor": 6301,
      "irus": 6302,
      "ĠIll": 6303,
      "1950": 6304,
      "yan": 6305,
      "contain": 6306,
      "po": 6307,
      "Ġshared": 6308,
      "ĠFlorida": 6309,
      "Ġaxis": 6310,
      "ĠLi": 6311,
      "Ġquarter": 6312,
      "Ġimag": 6313,
      "wa": 6314,
      "Ġproport": 6315,
      "rical": 6316,
      "context": 6317,
      "~~~~": 6318,
      "Ġ(\"": 6319,
      "Ġlives": 6320,
      "Ġalternative": 6321,
      "ĠFilm": 6322,
      "Ġteacher": 6323,
      "Ġpartners": 6324,
      "ĠLy": 6325,
      "SD": 6326,
      "iler": 6327,
      "cr": 6328,
      "Ġformat": 6329,
      "Ġgradient": 6330,
      "ĠNetwork": 6331,
      "Ġ$|\\": 6332,
      "Ġgets": 6333,
      "Ext": 6334,
      "Ġpreserv": 6335,
      "Ġmovie": 6336,
      "Ġamplitude": 6337,
      "Ġmur": 6338,
      "Ġassign": 6339,
      "Ġoccurs": 6340,
      "Ġprotect": 6341,
      "ĠVirginia": 6342,
      "Introduction": 6343,
      "Ġsections": 6344,
      "ĠSpanish": 6345,
      "Ġsynt": 6346,
      "Ġsort": 6347,
      "ls": 6348,
      "ĠCatholic": 6349,
      "db": 6350,
      "ifies": 6351,
      "aught": 6352,
      "oral": 6353,
      "roph": 6354,
      "=\"#": 6355,
      "Ġexchange": 6356,
      "Ġconsidering": 6357,
      "olk": 6358,
      "utch": 6359,
      "Ġcommunities": 6360,
      "Ġsummer": 6361,
      "ĠArts": 6362,
      "Ġimplementation": 6363,
      "ĠIII": 6364,
      "ĠSk": 6365,
      "[(": 6366,
      "Ġfine": 6367,
      "ĠSil": 6368,
      "Ġdrug": 6369,
      "GC": 6370,
      "eds": 6371,
      "Ġfoot": 6372,
      "ĠOh": 6373,
      "ĠBi": 6374,
      "Ġmassive": 6375,
      "Ġefficiency": 6376,
      "Ġfunctional": 6377,
      "That": 6378,
      "Ġattract": 6379,
      "Ġguarant": 6380,
      "itivity": 6381,
      "Ġnothing": 6382,
      "SL": 6383,
      "ĠVer": 6384,
      "Ġscreen": 6385,
      "mass": 6386,
      "1979": 6387,
      "}({\\": 6388,
      "Ġpartial": 6389,
      "Ġindicate": 6390,
      "ĠEarth": 6391,
      "--------------------------------": 6392,
      "rump": 6393,
      "Cur": 6394,
      "ĠEducation": 6395,
      "ora": 6396,
      "Ġpartition": 6397,
      "oded": 6398,
      "Ġener": 6399,
      "Ġgoals": 6400,
      "strong": 6401,
      "Ġlif": 6402,
      "Ġgr": 6403,
      "Ġign": 6404,
      "Ġincorpor": 6405,
      "web": 6406,
      "Ġcritic": 6407,
      "Ġmatches": 6408,
      "Ġcontained": 6409,
      "Ġredshift": 6410,
      "ĉĉĉĉĉĉ": 6411,
      "Ġstruct": 6412,
      "ĠForce": 6413,
      "Ġremained": 6414,
      "Ġpriv": 6415,
      "Ġnucle": 6416,
      "Ġshowing": 6417,
      "pton": 6418,
      "event": 6419,
      "Ġorth": 6420,
      "Ġmixed": 6421,
      "ockey": 6422,
      "OP": 6423,
      "_-": 6424,
      "aver": 6425,
      "Dis": 6426,
      "dl": 6427,
      "150": 6428,
      "ULL": 6429,
      "\\)": 6430,
      "ĠBank": 6431,
      "Ġheat": 6432,
      "atures": 6433,
      "Ġspent": 6434,
      "Ġremoved": 6435,
      "Sec": 6436,
      "sych": 6437,
      "ĠFurthermore": 6438,
      "Ġfundamental": 6439,
      "Ġvoc": 6440,
      "Ġopening": 6441,
      "Ġacadem": 6442,
      "Ġstories": 6443,
      "hbox": 6444,
      "Rel": 6445,
      "acter": 6446,
      "Ġenjoy": 6447,
      "OL": 6448,
      "iled": 6449,
      "Other": 6450,
      "hab": 6451,
      "RA": 6452,
      "ialog": 6453,
      "ĠSee": 6454,
      "Ġmainly": 6455,
      "Ġcov": 6456,
      "Äģ": 6457,
      "ĠUsing": 6458,
      "Ġcat": 6459,
      "floor": 6460,
      "Ġrise": 6461,
      "onical": 6462,
      "Ġspecified": 6463,
      "ĠGen": 6464,
      "Ġbus": 6465,
      "she": 6466,
      "ÑĢ": 6467,
      "aval": 6468,
      "Therefore": 6469,
      "Ġweb": 6470,
      "ĠEnd": 6471,
      "EX": 6472,
      "Ġinform": 6473,
      "ĠHenry": 6474,
      "Ġkernel": 6475,
      "erred": 6476,
      "Ġresource": 6477,
      "ĠDirector": 6478,
      "ĠCam": 6479,
      "MD": 6480,
      "ĠMexico": 6481,
      "ĠHon": 6482,
      "Ġtheoretical": 6483,
      "Ġhope": 6484,
      "doc": 6485,
      "ĠBr": 6486,
      "ometric": 6487,
      "orter": 6488,
      "Finally": 6489,
      "Ġ[\\": 6490,
      "ĠRead": 6491,
      "Ġmission": 6492,
      "ĠSwed": 6493,
      "Ġque": 6494,
      "vector": 6495,
      "ithub": 6496,
      "shire": 6497,
      "Ġturned": 6498,
      "Sch": 6499,
      "Ġmaterials": 6500,
      "Ġmanager": 6501,
      "ĠCast": 6502,
      "gies": 6503,
      "ĠSpace": 6504,
      "Ġuncertainty": 6505,
      "num": 6506,
      "Ġacceler": 6507,
      "ĠSecret": 6508,
      "Ġpull": 6509,
      "Ġfeatured": 6510,
      "1981": 6511,
      "chers": 6512,
      "pass": 6513,
      "avel": 6514,
      "Ġreceive": 6515,
      "Cre": 6516,
      "EL": 6517,
      "Ġproceed": 6518,
      "Ġmunic": 6519,
      "Rem": 6520,
      "itors": 6521,
      "ĠLong": 6522,
      "Ġhousehold": 6523,
      "Ġ$.": 6524,
      "bel": 6525,
      ")}}": 6526,
      "Ġplans": 6527,
      "ĠWal": 6528,
      "Ġscene": 6529,
      "aser": 6530,
      "Ġcommercial": 6531,
      "Ġcalculations": 6532,
      "Ġcomplexity": 6533,
      "Ġcommunication": 6534,
      "Cor": 6535,
      "Ġtal": 6536,
      "Result": 6537,
      "ifications": 6538,
      "ja": 6539,
      "ĠFestival": 6540,
      "}{(": 6541,
      "ĠStep": 6542,
      "ĠTop": 6543,
      "Ġcalculation": 6544,
      "Ġprotected": 6545,
      "eness": 6546,
      "ĠRo": 6547,
      "Ġphenomen": 6548,
      "&=&": 6549,
      "Ġscored": 6550,
      "Ġbounds": 6551,
      "Ġwait": 6552,
      "Ġut": 6553,
      "ĠEngine": 6554,
      "Ġ__": 6555,
      "PA": 6556,
      "Ġwinning": 6557,
      "Ġevaluation": 6558,
      "Ġdimensions": 6559,
      "asion": 6560,
      "Ġgraphs": 6561,
      "Ġclin": 6562,
      "ĠOffice": 6563,
      "Ġfarm": 6564,
      "unch": 6565,
      "Ġdecomposition": 6566,
      "lesssim": 6567,
      "Ġresponsible": 6568,
      "icine": 6569,
      "Ġfailed": 6570,
      "Ġobvious": 6571,
      "room": 6572,
      "condition": 6573,
      "Ġ\\(\\": 6574,
      "Ġbeaut": 6575,
      "Ġbeg": 6576,
      "ependence": 6577,
      "Ġsaying": 6578,
      "Ġsec": 6579,
      "Ġclusters": 6580,
      "ĠItaly": 6581,
      "Ġsafety": 6582,
      "ounds": 6583,
      "ĠBob": 6584,
      "des": 6585,
      "ĠAut": 6586,
      "enty": 6587,
      "Ġfluct": 6588,
      "Image": 6589,
      "Ġconvex": 6590,
      "rank": 6591,
      "ishop": 6592,
      "olt": 6593,
      "Ġtrying": 6594,
      "such": 6595,
      "Ġdisp": 6596,
      "aylor": 6597,
      "ĠYoung": 6598,
      "Ġsal": 6599,
      "Ġparents": 6600,
      "ĠOrder": 6601,
      "ga": 6602,
      "Ġsurvey": 6603,
      "Ġscales": 6604,
      "null": 6605,
      "Ġmedal": 6606,
      "Ġdespite": 6607,
      "Ġsurpr": 6608,
      "Ġca": 6609,
      "Ġdistingu": 6610,
      "ĠYour": 6611,
      "Ġrotation": 6612,
      "Ġemp": 6613,
      "Oper": 6614,
      "Ġconvert": 6615,
      "iano": 6616,
      "ĠST": 6617,
      "ĠJac": 6618,
      "Ġdenoted": 6619,
      "Ġpiece": 6620,
      "ildren": 6621,
      "lap": 6622,
      "ouble": 6623,
      ":=": 6624,
      "Ġawarded": 6625,
      "Ġtraject": 6626,
      "Ġaircraft": 6627,
      "ĠSocial": 6628,
      "Ġappearance": 6629,
      "SA": 6630,
      "Ġexponential": 6631,
      "Ġlimits": 6632,
      "|}": 6633,
      "undred": 6634,
      "ĠHy": 6635,
      "Ġtechnique": 6636,
      "Ġcoefficient": 6637,
      "Ġinfinite": 6638,
      "ERT": 6639,
      "ributes": 6640,
      "1976": 6641,
      "onald": 6642,
      "Ã³n": 6643,
      "idae": 6644,
      "yles": 6645,
      "ĠTheir": 6646,
      "ĠLove": 6647,
      "ervices": 6648,
      "Ġreferred": 6649,
      "Ġcelebr": 6650,
      "ĠJo": 6651,
      "Ġhar": 6652,
      "ĠSund": 6653,
      "ĠTer": 6654,
      "orning": 6655,
      "people": 6656,
      "call": 6657,
      "Ġcouple": 6658,
      "urt": 6659,
      "len": 6660,
      "Ġdepending": 6661,
      "Ġinitially": 6662,
      "sets": 6663,
      "osc": 6664,
      "Ġstatistics": 6665,
      "Ġhop": 6666,
      "java": 6667,
      "Ġion": 6668,
      "Ġpix": 6669,
      ",$": 6670,
      "Ġrobust": 6671,
      "haps": 6672,
      "ĠEmp": 6673,
      "func": 6674,
      "Ġchannels": 6675,
      "ĠAwards": 6676,
      "iro": 6677,
      "iana": 6678,
      "results": 6679,
      "^*$": 6680,
      "ĠTour": 6681,
      "According": 6682,
      "MB": 6683,
      "ontal": 6684,
      "Ġsatisfying": 6685,
      "kins": 6686,
      "py": 6687,
      "Ġsrc": 6688,
      "Ġcentre": 6689,
      "Ġdatasets": 6690,
      "UE": 6691,
      "ĠLag": 6692,
      "Ġshoot": 6693,
      "Ġrecords": 6694,
      "Ġspl": 6695,
      "vered": 6696,
      "Ġhole": 6697,
      "icate": 6698,
      "ĠCarolina": 6699,
      "Ġphysics": 6700,
      "1972": 6701,
      "dat": 6702,
      "Using": 6703,
      "1978": 6704,
      "ĠMur": 6705,
      "DB": 6706,
      "Ġserve": 6707,
      "Ġeverything": 6708,
      "dfrac": 6709,
      "xx": 6710,
      "rade": 6711,
      "Client": 6712,
      "ĠBoth": 6713,
      "Ġvirtual": 6714,
      "Ġsolve": 6715,
      "Ġtrend": 6716,
      "ĠMartin": 6717,
      "Ġrecall": 6718,
      "agnetic": 6719,
      "cknowled": 6720,
      "John": 6721,
      "---": 6722,
      "ĠĠĠĠĠĠĠĠĠĠĠĠĠĠĠĠĠĠĠĠĠĠĠĠĠĠĠĠĠĠĠ": 6723,
      "rence": 6724,
      "\\}$.": 6725,
      "bal": 6726,
      "ĠFort": 6727,
      "Fact": 6728,
      "ĠCL": 6729,
      "forward": 6730,
      "Ġquery": 6731,
      "false": 6732,
      "ĠModel": 6733,
      "lict": 6734,
      "posite": 6735,
      "Ġscenario": 6736,
      "ima": 6737,
      "]$.": 6738,
      "Ñģ": 6739,
      "120": 6740,
      "Ġmaster": 6741,
      "ady": 6742,
      "ĠBas": 6743,
      "brace": 6744,
      "Ġangular": 6745,
      "$\\\\": 6746,
      "Ġdegrees": 6747,
      ")--(": 6748,
      "}\\,\\": 6749,
      "background": 6750,
      "post": 6751,
      "Ġlies": 6752,
      "ĠHot": 6753,
      "Ġdivision": 6754,
      "github": 6755,
      "1977": 6756,
      "Section": 6757,
      "two": 6758,
      "Ġnation": 6759,
      "Property": 6760,
      "awa": 6761,
      "Ġextends": 6762,
      "Ġwhereas": 6763,
      "1975": 6764,
      "Ġdiscrete": 6765,
      "ĠAN": 6766,
      "dev": 6767,
      "Ġenter": 6768,
      "ati": 6769,
      "])": 6770,
      "$_{": 6771,
      "Ġsubt": 6772,
      "Aut": 6773,
      "pa": 6774,
      "Ġinterested": 6775,
      "nc": 6776,
      "My": 6777,
      "$:": 6778,
      "ogen": 6779,
      "ĠBet": 6780,
      "herent": 6781,
      "ynamic": 6782,
      "ĠOld": 6783,
      "Ġanswer": 6784,
      "'m": 6785,
      "wan": 6786,
      "Ġgeometry": 6787,
      "duced": 6788,
      "DM": 6789,
      "Results": 6790,
      "write": 6791,
      "Ġclean": 6792,
      "Ġcompl": 6793,
      "allery": 6794,
      "ancing": 6795,
      "ĠBusiness": 6796,
      "Ġroute": 6797,
      "Ġbroadcast": 6798,
      "Ġrough": 6799,
      "diag": 6800,
      "je": 6801,
      "ĠPeople": 6802,
      "Ġarrang": 6803,
      "Right": 6804,
      "...,": 6805,
      "iling": 6806,
      "onder": 6807,
      "ĠTeam": 6808,
      "rie": 6809,
      "ĠShow": 6810,
      "Ġestimation": 6811,
      "ĠOl": 6812,
      "Ġwood": 6813,
      "Ġstd": 6814,
      "Ġnuclear": 6815,
      "ĠLee": 6816,
      "ĠLine": 6817,
      "ariance": 6818,
      "Ġsomeone": 6819,
      "step": 6820,
      "Ġpseud": 6821,
      "css": 6822,
      "Ġanything": 6823,
      "Ġtouch": 6824,
      ",\\\\": 6825,
      "ĠHaw": 6826,
      "}}_{\\": 6827,
      "Ġreturns": 6828,
      "Ġitems": 6829,
      "Art": 6830,
      "Ġcycl": 6831,
      "]}": 6832,
      "Ġworkers": 6833,
      "OC": 6834,
      "ova": 6835,
      "Query": 6836,
      "Ġeditor": 6837,
      "Ġdestroy": 6838,
      "Ġlaunched": 6839,
      "ĠProject": 6840,
      "sche": 6841,
      "ibr": 6842,
      "pto": 6843,
      "ĠTim": 6844,
      "Ġlaws": 6845,
      "Source": 6846,
      ">(": 6847,
      "Ġtournament": 6848,
      "Ġlemma": 6849,
      "Ġscaling": 6850,
      "Am": 6851,
      "Ġvariation": 6852,
      "ĠWood": 6853,
      "Ġtests": 6854,
      "Ġentropy": 6855,
      "package": 6856,
      "Ġadvantage": 6857,
      "stitution": 6858,
      "Ġorbit": 6859,
      "Ġannual": 6860,
      "Ġsinger": 6861,
      "ĠPac": 6862,
      "unit": 6863,
      "uster": 6864,
      "Ġrepro": 6865,
      "Ġchemical": 6866,
      "Ġconj": 6867,
      "Post": 6868,
      "perties": 6869,
      "idel": 6870,
      "Ġvoice": 6871,
      "law": 6872,
      "Ġclient": 6873,
      "poss": 6874,
      "asy": 6875,
      "Ġarguments": 6876,
      "Ġfreedom": 6877,
      "ĠGoogle": 6878,
      "language": 6879,
      "Base": 6880,
      "ashion": 6881,
      "ĠScot": 6882,
      "1974": 6883,
      "Ġfinding": 6884,
      "riage": 6885,
      "atalog": 6886,
      "adium": 6887,
      "sky": 6888,
      "mosp": 6889,
      "osis": 6890,
      "plications": 6891,
      "enced": 6892,
      ";</": 6893,
      "ibli": 6894,
      "Ġeth": 6895,
      "Ġbright": 6896,
      "Ġweights": 6897,
      "Response": 6898,
      "Ġdevices": 6899,
      "Ġstatistical": 6900,
      "Ġremove": 6901,
      "Ġactor": 6902,
      "ategory": 6903,
      "ĠPlan": 6904,
      "clusions": 6905,
      "Ġreports": 6906,
      "ultural": 6907,
      "Ġbool": 6908,
      "after": 6909,
      "PU": 6910,
      "ji": 6911,
      "Ġran": 6912,
      "rip": 6913,
      "Ġusual": 6914,
      "Ġmetal": 6915,
      "search": 6916,
      "Fl": 6917,
      "hem": 6918,
      "Ġstress": 6919,
      "del": 6920,
      "ĠGood": 6921,
      "Ġefforts": 6922,
      "Ġencou": 6923,
      "uous": 6924,
      "ilation": 6925,
      "roller": 6926,
      "Ġdust": 6927,
      "FR": 6928,
      "ĠProfess": 6929,
      "poral": 6930,
      "Ġneighborhood": 6931,
      "Ġwall": 6932,
      "HT": 6933,
      "har": 6934,
      "Ġstability": 6935,
      "inet": 6936,
      "Ġimportance": 6937,
      "Ġrect": 6938,
      "Ġstudio": 6939,
      "ĠDevelopment": 6940,
      "\\;": 6941,
      "1973": 6942,
      "Ġdrive": 6943,
      "stable": 6944,
      "ĠElect": 6945,
      "Ġresist": 6946,
      "hetic": 6947,
      "Ġice": 6948,
      "Ġexception": 6949,
      "Ġelim": 6950,
      "pective": 6951,
      "sign": 6952,
      "}})": 6953,
      "Ġolder": 6954,
      "Ġforest": 6955,
      "Ġdoc": 6956,
      "]$,": 6957,
      "Ġneural": 6958,
      "ĠAssum": 6959,
      "ĠField": 6960,
      "oviet": 6961,
      "Ġtools": 6962,
      "usband": 6963,
      "Ġalone": 6964,
      "ricket": 6965,
      "ĠRam": 6966,
      "ĠChief": 6967,
      "tfrac": 6968,
      "Exp": 6969,
      "Ġbasketball": 6970,
      "Ġwriters": 6971,
      "Ġcalculate": 6972,
      "fs": 6973,
      "Ġisol": 6974,
      "ransp": 6975,
      "Ġspeak": 6976,
      "Ġsym": 6977,
      "white": 6978,
      "Ġgrowing": 6979,
      "Ġalt": 6980,
      "disc": 6981,
      "Ġbr": 6982,
      "}[\\": 6983,
      "Ġimproved": 6984,
      "Ġedition": 6985,
      "Ġended": 6986,
      "Ġbin": 6987,
      "eger": 6988,
      "1968": 6989,
      "Early": 6990,
      "areer": 6991,
      "Ġexplained": 6992,
      "Ġserious": 6993,
      "ographic": 6994,
      "Ġrare": 6995,
      "Ġ\\]": 6996,
      "vee": 6997,
      "User": 6998,
      "Ġadding": 6999,
      "ĠCa": 7000,
      "Ġdepict": 7001,
      "Ġpolitician": 7002,
      "Ġmodified": 7003,
      "Ġreserv": 7004,
      "emptyset": 7005,
      ";\\;\\": 7006,
      "etry": 7007,
      "Ġvertical": 7008,
      "Ġisland": 7009,
      "Ġradiation": 7010,
      "FI": 7011,
      "rics": 7012,
      "ĠDev": 7013,
      "syl": 7014,
      "ĠTre": 7015,
      "ĠBrazil": 7016,
      "During": 7017,
      "Ġevaluate": 7018,
      "anged": 7019,
      "Ġiniti": 7020,
      "phant": 7021,
      "Ġcovered": 7022,
      "Ġbattle": 7023,
      "Ġcomposition": 7024,
      "ĠReturn": 7025,
      "Ġregist": 7026,
      "Ġprocessing": 7027,
      "Ġtool": 7028,
      "PL": 7029,
      "Ġneutr": 7030,
      "track": 7031,
      "ĠTrump": 7032,
      "Ġcoordinate": 7033,
      "Ġintegration": 7034,
      "))\\": 7035,
      "Ġirre": 7036,
      "ĠJoseph": 7037,
      "fully": 7038,
      "Ð¾Ð": 7039,
      "standing": 7040,
      "zy": 7041,
      "Ġbecoming": 7042,
      "uly": 7043,
      "Ġsea": 7044,
      "Ġchief": 7045,
      "Ġcharacteristic": 7046,
      "going": 7047,
      "udget": 7048,
      "Ġmapping": 7049,
      "mathop": 7050,
      "paragraph": 7051,
      "ali": 7052,
      "Ġlocally": 7053,
      "Ġ^{": 7054,
      "Ġprojection": 7055,
      "ela": 7056,
      "Stream": 7057,
      "arden": 7058,
      "dir": 7059,
      "phas": 7060,
      "Ġnumerous": 7061,
      "Ġequilibrium": 7062,
      "Ġfederal": 7063,
      "nergy": 7064,
      "Ġcancer": 7065,
      "Ġphil": 7066,
      "Ġsummar": 7067,
      "Do": 7068,
      "Ġrepresentations": 7069,
      "google": 7070,
      "Ġsubgroup": 7071,
      "Ġtrig": 7072,
      "Ġwhom": 7073,
      "rane": 7074,
      "Work": 7075,
      "Ġsolar": 7076,
      "car": 7077,
      "Ġpredicted": 7078,
      "target": 7079,
      "aka": 7080,
      "Ġtraffic": 7081,
      "Char": 7082,
      "HS": 7083,
      "Ġvote": 7084,
      "anguages": 7085,
      "Ġsampling": 7086,
      "=\"../": 7087,
      "ĠJim": 7088,
      "claim": 7089,
      "brid": 7090,
      "iner": 7091,
      "ochastic": 7092,
      "ĠUSA": 7093,
      "mak": 7094,
      ",\\,\\": 7095,
      "Ġcatch": 7096,
      "Ġbias": 7097,
      "rl": 7098,
      "Ġremark": 7099,
      "Ġdelay": 7100,
      "Ġrespond": 7101,
      "forms": 7102,
      "lock": 7103,
      "Ġinstall": 7104,
      "number": 7105,
      "Des": 7106,
      "vania": 7107,
      "ront": 7108,
      "LT": 7109,
      "ĠArab": 7110,
      "bmatrix": 7111,
      "ultane": 7112,
      "Ġmess": 7113,
      "Input": 7114,
      "ĠCross": 7115,
      "Ġindeed": 7116,
      "Mon": 7117,
      "ĉĉĊ": 7118,
      ";\"": 7119,
      "Head": 7120,
      "ĠTem": 7121,
      "Ġprinciple": 7122,
      "1971": 7123,
      "Ġleaving": 7124,
      "Ġmusical": 7125,
      "Ġevol": 7126,
      "ĠValley": 7127,
      "algorithm": 7128,
      "ometry": 7129,
      "Ġ^": 7130,
      "ãģ": 7131,
      "Ġclimate": 7132,
      "Ġconducted": 7133,
      "plicity": 7134,
      "Ġobjective": 7135,
      "][]{": 7136,
      "Ġcosts": 7137,
      "erior": 7138,
      "Ġast": 7139,
      "Ġapplying": 7140,
      "Ġconven": 7141,
      "Ġadopted": 7142,
      "ĠÎ": 7143,
      "even": 7144,
      "Ġfirm": 7145,
      ")})": 7146,
      "]{\\": 7147,
      "sat": 7148,
      "Ġcoast": 7149,
      "Pos": 7150,
      "Ġsuggests": 7151,
      "cean": 7152,
      "Ġplanet": 7153,
      "Ġnamely": 7154,
      "Ġforced": 7155,
      "Ġlatest": 7156,
      "float": 7157,
      "Override": 7158,
      "mitted": 7159,
      "Ġblood": 7160,
      "Ġdetected": 7161,
      "ĠEconom": 7162,
      "Ġswitch": 7163,
      "ĠAdd": 7164,
      "Ġnotice": 7165,
      "inations": 7166,
      "Ġallowing": 7167,
      "ĠPak": 7168,
      "high": 7169,
      "Ġsufficiently": 7170,
      "Top": 7171,
      "ĠLibrary": 7172,
      "ĠSM": 7173,
      "vol": 7174,
      "andemic": 7175,
      "Ġsenior": 7176,
      "oles": 7177,
      "Ġfif": 7178,
      "Ġroll": 7179,
      "mond": 7180,
      "Ġraised": 7181,
      "anging": 7182,
      "ĠMen": 7183,
      "Ġordered": 7184,
      "uum": 7185,
      "Ġrevealed": 7186,
      "Ġabund": 7187,
      "tty": 7188,
      "Ġconfirmed": 7189,
      "Ġreasons": 7190,
      "oday": 7191,
      "Ġtrust": 7192,
      "RR": 7193,
      "ĠCentre": 7194,
      "ribe": 7195,
      "ansas": 7196,
      "AV": 7197,
      "ighter": 7198,
      "Ġextend": 7199,
      "Ġopportunity": 7200,
      "Ġsched": 7201,
      "isely": 7202,
      "ĠAppendix": 7203,
      "Ġprison": 7204,
      "Ġ$,": 7205,
      "uler": 7206,
      "Ġunderlying": 7207,
      "mem": 7208,
      "Ġ\\!": 7209,
      "ĠID": 7210,
      "ĠTechnology": 7211,
      "gest": 7212,
      "[-": 7213,
      "ugby": 7214,
      "Ġbuy": 7215,
      "bigl": 7216,
      "Ġsociety": 7217,
      "Ġestablishments": 7218,
      "ONT": 7219,
      "inst": 7220,
      "ĠType": 7221,
      "English": 7222,
      "Ġhelped": 7223,
      "vari": 7224,
      "ensions": 7225,
      "1969": 7226,
      "Ġdimensional": 7227,
      "}}.": 7228,
      "uer": 7229,
      "Ġsuggested": 7230,
      "Ġconsequence": 7231,
      "Ġthr": 7232,
      "tikzpicture": 7233,
      "ĠAssembly": 7234,
      "rawn": 7235,
      "Ġjoin": 7236,
      "ĠJud": 7237,
      "Ġforeign": 7238,
      "iem": 7239,
      "ĠIrish": 7240,
      "Ġacts": 7241,
      "bigr": 7242,
      "notes": 7243,
      "ĠMov": 7244,
      "Ġcoinc": 7245,
      "Ġleaves": 7246,
      "================": 7247,
      "ĠAtt": 7248,
      "Ġhospital": 7249,
      "columnwidth": 7250,
      "Ġpicture": 7251,
      "ilbert": 7252,
      "ĠNavy": 7253,
      "Ġseasons": 7254,
      "weet": 7255,
      "Ġarrest": 7256,
      "Ġ->": 7257,
      "sequent": 7258,
      ".;": 7259,
      "cut": 7260,
      "ĠCy": 7261,
      "Ġactress": 7262,
      ",{\\": 7263,
      "ruck": 7264,
      "Ġrequirements": 7265,
      "Ġtrial": 7266,
      "Ġren": 7267,
      "hu": 7268,
      "ĠSpe": 7269,
      "Ġnet": 7270,
      "longrightarrow": 7271,
      "'ve": 7272,
      "ĠDet": 7273,
      "Ġnone": 7274,
      "Notes": 7275,
      "Ġtechnical": 7276,
      "ĠWales": 7277,
      "Ġlocations": 7278,
      "ĠChampionships": 7279,
      "Proof": 7280,
      "Ġdynamic": 7281,
      "Date": 7282,
      "ĠAsia": 7283,
      "Ġcomposed": 7284,
      "joint": 7285,
      "ĠAcc": 7286,
      "aming": 7287,
      "Ġeveryone": 7288,
      "itan": 7289,
      "ĠHor": 7290,
      "ĠGovern": 7291,
      "Gener": 7292,
      "arthe": 7293,
      "pdate": 7294,
      "ĠNorthern": 7295,
      "Ġboolean": 7296,
      "Ġinverse": 7297,
      "tiny": 7298,
      "Ġorders": 7299,
      "inals": 7300,
      "Ġdiagonal": 7301,
      "Ġbands": 7302,
      "Ġinvestigate": 7303,
      "iy": 7304,
      "Ġpatterns": 7305,
      "Ġriver": 7306,
      ")}_": 7307,
      "$};": 7308,
      "Ġenh": 7309,
      "uty": 7310,
      "Ġmedium": 7311,
      "ĠParliament": 7312,
      "wer": 7313,
      "mediate": 7314,
      "Ġorganizations": 7315,
      "Point": 7316,
      "ĠNS": 7317,
      "etal": 7318,
      "dy": 7319,
      "oston": 7320,
      "Ġconflict": 7321,
      "Ġfans": 7322,
      "Ġcandidates": 7323,
      "ĠSar": 7324,
      "ĠMedia": 7325,
      "ĠHead": 7326,
      "Ġtend": 7327,
      "ĠBase": 7328,
      "Ġintersection": 7329,
      "1940": 7330,
      "ĠPhys": 7331,
      "ĠLiber": 7332,
      "Ġcreating": 7333,
      "Ġcook": 7334,
      "Ġsusp": 7335,
      "ĠJun": 7336,
      "second": 7337,
      "aters": 7338,
      "ĠLin": 7339,
      "1967": 7340,
      "ĠJones": 7341,
      "ĠBuild": 7342,
      "raine": 7343,
      "tan": 7344,
      "La": 7345,
      "Off": 7346,
      "ĠGame": 7347,
      "eller": 7348,
      "Ġwild": 7349,
      "obs": 7350,
      "algebra": 7351,
      "uli": 7352,
      "php": 7353,
      "})}": 7354,
      "isters": 7355,
      "////////////////": 7356,
      "Ġempty": 7357,
      "Ġking": 7358,
      "Ġnine": 7359,
      "Ġoffered": 7360,
      "ĠĠĠĠĠĠĠĠĊ": 7361,
      "Ġhundred": 7362,
      "Ġmill": 7363,
      "DR": 7364,
      "Ġdiam": 7365,
      "Ġfelt": 7366,
      "Ġassumptions": 7367,
      "called": 7368,
      "fold": 7369,
      "El": 7370,
      "Ã§": 7371,
      "}}^{\\": 7372,
      "Ġletter": 7373,
      "Ġattacks": 7374,
      "Ġpowerful": 7375,
      "Paramet": 7376,
      "Ġluminos": 7377,
      "})=": 7378,
      "ĠHome": 7379,
      "Ġofficer": 7380,
      "dep": 7381,
      "Ġbillion": 7382,
      "Ġblocks": 7383,
      "ĠGL": 7384,
      "Ġlab": 7385,
      "ĠColumb": 7386,
      "CN": 7387,
      "Util": 7388,
      "ups": 7389,
      "Ġsustain": 7390,
      "Ġtail": 7391,
      "Ġexplore": 7392,
      "Ġsuitable": 7393,
      "rative": 7394,
      "igration": 7395,
      "ampion": 7396,
      "Ġdesired": 7397,
      "Ġoil": 7398,
      "Ġpolic": 7399,
      "ocket": 7400,
      "Ġgenus": 7401,
      "ulty": 7402,
      "Ġapparent": 7403,
      "Ġabsolute": 7404,
      "Ġtrees": 7405,
      "Ġhistorical": 7406,
      "Ġsettings": 7407,
      "Ġcapture": 7408,
      "sylvania": 7409,
      "Ġvehicle": 7410,
      "ĠGre": 7411,
      "slant": 7412,
      "Ġvacc": 7413,
      "ĠWay": 7414,
      "Ġandroid": 7415,
      "Ġagents": 7416,
      "ersonal": 7417,
      "Ġnorthern": 7418,
      "ĠBecause": 7419,
      "lets": 7420,
      "Ġhands": 7421,
      "ĠSu": 7422,
      "ĠLog": 7423,
      "ĠFace": 7424,
      "Ġsouthern": 7425,
      "Ġserver": 7426,
      "=.": 7427,
      "cale": 7428,
      "Ġassigned": 7429,
      "itative": 7430,
      "Ġaccurate": 7431,
      "ĠConference": 7432,
      "Ġhusband": 7433,
      "Ġferm": 7434,
      "ierarch": 7435,
      "}}}\\": 7436,
      "Ġ{$": 7437,
      "Ġpil": 7438,
      "Max": 7439,
      "ĠSpring": 7440,
      "|}{": 7441,
      "zz": 7442,
      "1964": 7443,
      "Ġwidely": 7444,
      "Äĩ": 7445,
      "Ġincome": 7446,
      "Builder": 7447,
      "Min": 7448,
      "lead": 7449,
      "client": 7450,
      "Ġdiscovered": 7451,
      "emporary": 7452,
      "Ġmaximal": 7453,
      "Ġrepresenting": 7454,
      "ĠMany": 7455,
      "Ġthous": 7456,
      "query": 7457,
      "ĠRegister": 7458,
      "icrosoft": 7459,
      "ĠEven": 7460,
      "Ġrelax": 7461,
      "Ġresear": 7462,
      "ĠBow": 7463,
      "Ġmotiv": 7464,
      "sg": 7465,
      "dule": 7466,
      "^{*": 7467,
      "Ġadjust": 7468,
      "Ġlearned": 7469,
      "Ġfiles": 7470,
      "iota": 7471,
      "Ġoperating": 7472,
      "ensities": 7473,
      "ĠAv": 7474,
      "hens": 7475,
      "clusive": 7476,
      "Ġpredictions": 7477,
      "Ġsequences": 7478,
      "urban": 7479,
      "vature": 7480,
      "ĠMount": 7481,
      "Ġparties": 7482,
      "gers": 7483,
      "Ġregarding": 7484,
      "DC": 7485,
      "aped": 7486,
      "DS": 7487,
      "eld": 7488,
      "odies": 7489,
      "Ġfrag": 7490,
      "ĠSir": 7491,
      "ĠIndeed": 7492,
      "Ġchallenge": 7493,
      "Ġdescribes": 7494,
      "Ġdiss": 7495,
      "edge": 7496,
      "ĠMichigan": 7497,
      "Ġproducer": 7498,
      "defined": 7499,
      "Ġideas": 7500,
      "apes": 7501,
      "Ġimplemented": 7502,
      "Ġcitiz": 7503,
      "riday": 7504,
      "Function": 7505,
      "Ġnative": 7506,
      "Ġmarked": 7507,
      "ĠJohnson": 7508,
      "Ġatmosp": 7509,
      "ongs": 7510,
      "chron": 7511,
      "Ġexplicitly": 7512,
      "rage": 7513,
      "imb": 7514,
      "110": 7515,
      "uing": 7516,
      "ĠStand": 7517,
      "Ġstarts": 7518,
      "Ġgravit": 7519,
      "Ġclaimed": 7520,
      "Ġpropos": 7521,
      "Ġisn": 7522,
      "Ġbos": 7523,
      "structure": 7524,
      "uy": 7525,
      "1930": 7526,
      "cat": 7527,
      "Ġtracks": 7528,
      "ĠIran": 7529,
      "TC": 7530,
      "Ġauto": 7531,
      "conf": 7532,
      "Ġcommission": 7533,
      "Ġdivided": 7534,
      "ĠSuch": 7535,
      "Ġenergies": 7536,
      "Ġchampionship": 7537,
      "Ġquadr": 7538,
      "Ġbill": 7539,
      "1945": 7540,
      "Ġtrivial": 7541,
      "elihood": 7542,
      "Ġcosm": 7543,
      "Ġcollected": 7544,
      "1965": 7545,
      "ĠHa": 7546,
      "Em": 7547,
      "ĠLord": 7548,
      "Block": 7549,
      "Null": 7550,
      "element": 7551,
      "dependent": 7552,
      "ãĥ": 7553,
      "aren": 7554,
      "Ġcomputing": 7555,
      "oir": 7556,
      "Ġnewsp": 7557,
      "Ġtopological": 7558,
      "ĠOF": 7559,
      "riend": 7560,
      "ourier": 7561,
      "([": 7562,
      "Ġlived": 7563,
      "ĠEr": 7564,
      "Sm": 7565,
      "ipality": 7566,
      "NO": 7567,
      "Ġcharged": 7568,
      "ĠSpain": 7569,
      "Ġderivative": 7570,
      "Ġattended": 7571,
      "Ġsales": 7572,
      "Dist": 7573,
      "Ġinnov": 7574,
      "Ġtruth": 7575,
      "ĠFred": 7576,
      "ĠIR": 7577,
      "Ġturns": 7578,
      "+(": 7579,
      "Ġkept": 7580,
      "Ġtoward": 7581,
      "Ġhidden": 7582,
      "\\}$,": 7583,
      "unities": 7584,
      "ested": 7585,
      "Ġdepartment": 7586,
      "ĠIsrael": 7587,
      "pped": 7588,
      "Ġlibrary": 7589,
      "ifact": 7590,
      "Hence": 7591,
      "Ġmountain": 7592,
      "Ġaffected": 7593,
      "ĠĠĠĠĠĠĠĠĠĠĠĠĊ": 7594,
      "ĠCr": 7595,
      "osoph": 7596,
      "select": 7597,
      "Ġconstants": 7598,
      "Run": 7599,
      "Pop": 7600,
      "df": 7601,
      "show": 7602,
      "Ġemail": 7603,
      "Ġpp": 7604,
      "Ġnonlinear": 7605,
      "options": 7606,
      "Ġembedding": 7607,
      "ĠEnter": 7608,
      "Ġnarrow": 7609,
      "\"),": 7610,
      "Ġprime": 7611,
      "Ġcities": 7612,
      "Ġemphas": 7613,
      "INE": 7614,
      "Ġcond": 7615,
      "Ġdiver": 7616,
      "bras": 7617,
      "ĠProvince": 7618,
      "Ġmaxim": 7619,
      "hang": 7620,
      "Ġvocals": 7621,
      "Ġpropose": 7622,
      "actic": 7623,
      "Ġcomputational": 7624,
      "ĠEmpire": 7625,
      "Ġcert": 7626,
      "ĠBlue": 7627,
      "loop": 7628,
      "Ġacting": 7629,
      "iced": 7630,
      ")</": 7631,
      "Ġfamous": 7632,
      "ĠObject": 7633,
      "ĠRadio": 7634,
      "ĠWell": 7635,
      "ibliography": 7636,
      "vin": 7637,
      "Ġmatching": 7638,
      "airman": 7639,
      "Tra": 7640,
      "parison": 7641,
      "\\}\\": 7642,
      "Ġalle": 7643,
      "tail": 7644,
      "iate": 7645,
      "Ġsecondary": 7646,
      "Go": 7647,
      "description": 7648,
      "ĠKh": 7649,
      "Ġthank": 7650,
      "Ġprecisely": 7651,
      "Ġinstr": 7652,
      "ronic": 7653,
      "Ġintensity": 7654,
      "Ġwrong": 7655,
      "Dr": 7656,
      "iful": 7657,
      "ĠRun": 7658,
      "ila": 7659,
      "1966": 7660,
      "Ġjourn": 7661,
      "Ġterrit": 7662,
      "mathit": 7663,
      "riev": 7664,
      "multirow": 7665,
      "ĠUs": 7666,
      "Ġowned": 7667,
      "Cal": 7668,
      "Ġsatisfied": 7669,
      "aria": 7670,
      "AME": 7671,
      "Ġtransmission": 7672,
      "Start": 7673,
      "Ġlaunch": 7674,
      "Ġcontrad": 7675,
      "nn": 7676,
      "ĠMountain": 7677,
      "ĠBern": 7678,
      "Status": 7679,
      "Ġvictory": 7680,
      "odd": 7681,
      "urations": 7682,
      "Ġasymptotic": 7683,
      "Ġhandle": 7684,
      ":=\\": 7685,
      "They": 7686,
      "aya": 7687,
      "Ġfocused": 7688,
      "Ġbehaviour": 7689,
      "okes": 7690,
      "ĠWilliams": 7691,
      "Ġsides": 7692,
      "Lemma": 7693,
      "Ġchart": 7694,
      "Ġdrama": 7695,
      "tag": 7696,
      "ĠBul": 7697,
      "ĠConn": 7698,
      "Ġtemperatures": 7699,
      "ĠOx": 7700,
      "Ġbulk": 7701,
      "ĠWeb": 7702,
      "ĠSouthern": 7703,
      "Ġcalls": 7704,
      "CM": 7705,
      "Token": 7706,
      "NE": 7707,
      "FO": 7708,
      "ĠMajor": 7709,
      "Ġcm": 7710,
      "Some": 7711,
      "Ġ<<": 7712,
      "elligence": 7713,
      "ĠHistoric": 7714,
      "Ġmargin": 7715,
      "aug": 7716,
      "Ġinstrument": 7717,
      "Ġsimultane": 7718,
      "ĠHuman": 7719,
      "Up": 7720,
      "artheta": 7721,
      "parent": 7722,
      "leep": 7723,
      "ĠServices": 7724,
      "apped": 7725,
      "vartheta": 7726,
      "Ġwaves": 7727,
      "ĠAG": 7728,
      "\").": 7729,
      "Ġsubstant": 7730,
      "last": 7731,
      ">>": 7732,
      "Ġpurs": 7733,
      "ĠMah": 7734,
      "rance": 7735,
      "Ġpromin": 7736,
      "gate": 7737,
      "ĠÂ£": 7738,
      "ĠGreek": 7739,
      "Ġcontinues": 7740,
      "Ġfre": 7741,
      "Ġuniversity": 7742,
      "ĠSand": 7743,
      "Åį": 7744,
      "Case": 7745,
      "acent": 7746,
      "Ġseat": 7747,
      "figures": 7748,
      "ĠAsian": 7749,
      "Ġretain": 7750,
      "avelength": 7751,
      "sen": 7752,
      "Ġdog": 7753,
      "rob": 7754,
      "istent": 7755,
      "eries": 7756,
      "ĠPennsylvania": 7757,
      "Ġowners": 7758,
      "Ġisomorphism": 7759,
      "Ġprincipal": 7760,
      "ĠInformation": 7761,
      "medskip": 7762,
      "ĠDemocratic": 7763,
      "inate": 7764,
      "Ġentered": 7765,
      "ĠSpecial": 7766,
      "adel": 7767,
      "Ġcounty": 7768,
      "ennis": 7769,
      "Ġmagazine": 7770,
      "Ġinvolving": 7771,
      "parameter": 7772,
      "Ġcanonical": 7773,
      "gebras": 7774,
      "Ġclaims": 7775,
      "Ġtheories": 7776,
      "Ġsignals": 7777,
      "ĠBal": 7778,
      "1920": 7779,
      "Ġsession": 7780,
      "Ġlov": 7781,
      "Ac": 7782,
      "ĠEp": 7783,
      "ĠWeek": 7784,
      "iveness": 7785,
      "aved": 7786,
      "plet": 7787,
      "}_{-": 7788,
      "Ġnav": 7789,
      "Last": 7790,
      "Ġsend": 7791,
      "Ġstorage": 7792,
      "Ġaggreg": 7793,
      "Ġentries": 7794,
      "Ġderive": 7795,
      "ĠPacific": 7796,
      "Ġlabels": 7797,
      "Ġpool": 7798,
      "rosc": 7799,
      "ĠPrem": 7800,
      "Ġpandemic": 7801,
      "Ġ({\\": 7802,
      "AF": 7803,
      "}}=": 7804,
      "ĠSoviet": 7805,
      "Ġcategories": 7806,
      "slash": 7807,
      "Ġmanner": 7808,
      "ĠSunday": 7809,
      "ĠTaylor": 7810,
      "Gl": 7811,
      "Ġfailure": 7812,
      "Ġlie": 7813,
      "Ġdaily": 7814,
      "formal": 7815,
      "Ġvariance": 7816,
      "/(": 7817,
      "ĠPower": 7818,
      "Xi": 7819,
      "Ġchance": 7820,
      "vs": 7821,
      "bury": 7822,
      "Ġbond": 7823,
      "${\\": 7824,
      "})^": 7825,
      "Hel": 7826,
      "Bi": 7827,
      "Ġ}{": 7828,
      "spe": 7829,
      "othing": 7830,
      "Ġradial": 7831,
      "Ġstrugg": 7832,
      "namespace": 7833,
      "}|\\": 7834,
      "Ġdraft": 7835,
      "ingly": 7836,
      "ĠDisc": 7837,
      "Met": 7838,
      "Ġsomew": 7839,
      "$&$\\{": 7840,
      "ussion": 7841,
      "subsec": 7842,
      "ĠCamb": 7843,
      "Ġquark": 7844,
      "rowser": 7845,
      "ĠPop": 7846,
      "Ġphoton": 7847,
      "PO": 7848,
      "Ġplanning": 7849,
      "Ġplus": 7850,
      "Ġopposite": 7851,
      "gypt": 7852,
      "appe": 7853,
      "Gu": 7854,
      "Ġcamera": 7855,
      "cope": 7856,
      "PD": 7857,
      "Ġdedicated": 7858,
      "ulse": 7859,
      "Ġtranslation": 7860,
      "MT": 7861,
      "ĠCivil": 7862,
      "Ġflag": 7863,
      "Aust": 7864,
      "ĠVan": 7865,
      "Ġpossibility": 7866,
      "stone": 7867,
      "Ġchanging": 7868,
      "ĠCommunity": 7869,
      "aby": 7870,
      "ĠUN": 7871,
      "}$}": 7872,
      "ws": 7873,
      "author": 7874,
      "ĠCard": 7875,
      "Ġdriving": 7876,
      "REF": 7877,
      "ĠManagement": 7878,
      "scriptstyle": 7879,
      "ione": 7880,
      "kes": 7881,
      "het": 7882,
      "ĠOhio": 7883,
      "Ġspirit": 7884,
      "Ġgravity": 7885,
      "Ġdiagn": 7886,
      "Ġcreation": 7887,
      "ĠCarl": 7888,
      "Ġperforming": 7889,
      "Ġemployed": 7890,
      "Ġnearby": 7891,
      "Ġcomments": 7892,
      "ĠFrancisco": 7893,
      "ĠEll": 7894,
      "250": 7895,
      "ropic": 7896,
      "Ġinteract": 7897,
      "Ġ\\},$&$\\{": 7898,
      "expected": 7899,
      "formance": 7900,
      "icens": 7901,
      "ĠMarket": 7902,
      "Ġtag": 7903,
      "Given": 7904,
      "uries": 7905,
      "Ġversions": 7906,
      "Ġlock": 7907,
      "Consider": 7908,
      "Ġcustomers": 7909,
      "ester": 7910,
      "Ġbundle": 7911,
      "ruit": 7912,
      "Ġcommonly": 7913,
      "Ġlabor": 7914,
      "indows": 7915,
      "Ġhypothesis": 7916,
      "square": 7917,
      "&=\\": 7918,
      "DD": 7919,
      "RI": 7920,
      "%)": 7921,
      "poration": 7922,
      "jected": 7923,
      "mf": 7924,
      "oupl": 7925,
      "ĠBritain": 7926,
      "Disc": 7927,
      "Wid": 7928,
      "ĠIslam": 7929,
      "found": 7930,
      "Ġcultural": 7931,
      "Ġinvestigation": 7932,
      "inois": 7933,
      "Po": 7934,
      "vect": 7935,
      "Ġcoverage": 7936,
      "Ġdeploy": 7937,
      "jective": 7938,
      "Ġconvent": 7939,
      "Ġreaction": 7940,
      "BO": 7941,
      "axis": 7942,
      "Ġfluid": 7943,
      "Resource": 7944,
      "\\|\\": 7945,
      "close": 7946,
      "ĠTele": 7947,
      "Mat": 7948,
      "Ġcensus": 7949,
      "ĠLo": 7950,
      "Ġgeneralized": 7951,
      "comes": 7952,
      "ects": 7953,
      "aturday": 7954,
      "ograp": 7955,
      "Attribute": 7956,
      "HC": 7957,
      "ibration": 7958,
      "Ġcryst": 7959,
      "ĠBang": 7960,
      "burgh": 7961,
      "ĠReport": 7962,
      "Ġexplo": 7963,
      "Ġarticles": 7964,
      "Bo": 7965,
      "Ġpages": 7966,
      "Ġorganized": 7967,
      "ĠMethod": 7968,
      "Career": 7969,
      "Ġcompat": 7970,
      "Ġmanaged": 7971,
      "plot": 7972,
      "rapy": 7973,
      "ori": 7974,
      "Ġrailway": 7975,
      "<!--": 7976,
      "Ġmixing": 7977,
      "ponents": 7978,
      "semble": 7979,
      "mt": 7980,
      "Ġpaths": 7981,
      ",.": 7982,
      "enth": 7983,
      "aturing": 7984,
      "periment": 7985,
      "Ġsupply": 7986,
      "Ġshock": 7987,
      "ĠLim": 7988,
      "ĠDig": 7989,
      "orney": 7990,
      "rame": 7991,
      "arams": 7992,
      "Ġlanguages": 7993,
      "Ġprem": 7994,
      "Ġincident": 7995,
      "LA": 7996,
      "Ġbuff": 7997,
      "Ġdrum": 7998,
      "Ġchallenges": 7999,
      "'ll": 8000,
      "Prov": 8001,
      "'.": 8002,
      "Ġspot": 8003,
      "Ob": 8004,
      "oute": 8005,
      "general": 8006,
      "Ġdashed": 8007,
      "amm": 8008,
      "itage": 8009,
      "Ġreligious": 8010,
      "ĠTheatre": 8011,
      "Ġfigures": 8012,
      "Ġmedian": 8013,
      "ĠHiggs": 8014,
      "ĠGeorgia": 8015,
      "rome": 8016,
      "oses": 8017,
      "Ġdefeated": 8018,
      "Ġmathemat": 8019,
      "Nav": 8020,
      "Ġjet": 8021,
      "ME": 8022,
      "zen": 8023,
      "ĠFar": 8024,
      "onia": 8025,
      "@{": 8026,
      "Ġquantities": 8027,
      "ĠLab": 8028,
      "1963": 8029,
      "uning": 8030,
      "Ġpossibly": 8031,
      "Ġrecording": 8032,
      "adding": 8033,
      "ptic": 8034,
      "rained": 8035,
      "ĠQueen": 8036,
      "iger": 8037,
      "enger": 8038,
      "ĠVis": 8039,
      "ĠMu": 8040,
      "ĠGlobal": 8041,
      "Ġshell": 8042,
      "Ġstack": 8043,
      "Ġquasi": 8044,
      "?âĢĿ": 8045,
      "}\\|": 8046,
      "hent": 8047,
      "Ġcold": 8048,
      "Ġfle": 8049,
      "eless": 8050,
      "ĠWater": 8051,
      "Ġbench": 8052,
      "scape": 8053,
      "ĠJoe": 8054,
      "Ġresidents": 8055,
      "Ġouter": 8056,
      "Ġscript": 8057,
      "scope": 8058,
      "Us": 8059,
      "ctic": 8060,
      "itness": 8061,
      "edia": 8062,
      "1962": 8063,
      "Ġarmy": 8064,
      "Ġapproximate": 8065,
      "Films": 8066,
      "Ġcharacteristics": 8067,
      "Writ": 8068,
      "bet": 8069,
      "Ġelections": 8070,
      "Although": 8071,
      "ĠAff": 8072,
      "Ġrecommend": 8073,
      "Ġfloor": 8074,
      "Ġindicated": 8075,
      "^*\\": 8076,
      "Ġsafe": 8077,
      "pop": 8078,
      "Ġweap": 8079,
      "icip": 8080,
      "Ġ{};": 8081,
      "ĠKen": 8082,
      "Sum": 8083,
      "ĠNight": 8084,
      "ture": 8085,
      "ĠBattle": 8086,
      "Ġserving": 8087,
      "ĠBoston": 8088,
      "Ġstochastic": 8089,
      "Ġdynamical": 8090,
      "Ġdetector": 8091,
      "Ġpaid": 8092,
      "points": 8093,
      "ĠSenate": 8094,
      "inson": 8095,
      "scriptsize": 8096,
      "Action": 8097,
      "Ġsubsequent": 8098,
      "ĠCharl": 8099,
      "III": 8100,
      "option": 8101,
      "}~": 8102,
      "Ġspecifically": 8103,
      "clear": 8104,
      "ador": 8105,
      "Ġprimarily": 8106,
      "Ġready": 8107,
      "Ġdatabase": 8108,
      "ĠRay": 8109,
      "ĠGi": 8110,
      "Ġacquired": 8111,
      "\\%$": 8112,
      "Ġofficers": 8113,
      "Ġeq": 8114,
      "Ġagree": 8115,
      "flu": 8116,
      "ĠSports": 8117,
      "Content": 8118,
      "Ġpush": 8119,
      "also": 8120,
      "ĠMiddle": 8121,
      "Ġaware": 8122,
      "ĠPubl": 8123,
      "nam": 8124,
      "water": 8125,
      "ĠPoint": 8126,
      "ĠAnother": 8127,
      "ĠJersey": 8128,
      "nections": 8129,
      "Ġowner": 8130,
      "Ġmobile": 8131,
      "Ġdescent": 8132,
      "SH": 8133,
      "./": 8134,
      "prov": 8135,
      "etts": 8136,
      "LC": 8137,
      "ĠSciences": 8138,
      "ĠCro": 8139,
      "ĠBor": 8140,
      "Ġfeedback": 8141,
      "Ġvisible": 8142,
      "hl": 8143,
      "Ġsister": 8144,
      "Ġanalyz": 8145,
      "Number": 8146,
      "Ġbelieved": 8147,
      "ĠWilson": 8148,
      "onto": 8149,
      "Ġsave": 8150,
      "ĠEvery": 8151,
      "Ġdx": 8152,
      "Ġintegrated": 8153,
      "avor": 8154,
      "since": 8155,
      "Ġmagnet": 8156,
      "^{(\\": 8157,
      "TO": 8158,
      "Ġnor": 8159,
      "Ġidentical": 8160,
      "Moreover": 8161,
      "allow": 8162,
      "ĠBell": 8163,
      "ĠScotland": 8164,
      "ĉĉĉĉĉĉĉĉ": 8165,
      "ĠColor": 8166,
      "Ġ\\&": 8167,
      "Ġgeneric": 8168,
      "jav": 8169,
      "BB": 8170,
      "mn": 8171,
      "abeth": 8172,
      "ributed": 8173,
      "Ġpolicies": 8174,
      "Ġextremely": 8175,
      "clip": 8176,
      "Ġtwice": 8177,
      "tw": 8178,
      "Ġbatt": 8179,
      "risis": 8180,
      "Ġregional": 8181,
      "ifer": 8182,
      "ĠAddition": 8183,
      "Ġturb": 8184,
      "Mult": 8185,
      "bro": 8186,
      "ĠKent": 8187,
      "Ġequality": 8188,
      "ervised": 8189,
      "gency": 8190,
      "ĠMid": 8191,
      "Non": 8192,
      "600": 8193,
      "Ġrepeated": 8194,
      "look": 8195,
      "ĠLead": 8196,
      "ĠKey": 8197,
      "arios": 8198,
      "DI": 8199,
      "isson": 8200,
      "Ġtried": 8201,
      "RL": 8202,
      "Ġevaluated": 8203,
      "Year": 8204,
      "ĠBC": 8205,
      "integ": 8206,
      "ĠFC": 8207,
      "Ġactors": 8208,
      "ais": 8209,
      "ez": 8210,
      "Ġdamage": 8211,
      "tings": 8212,
      "ĠDou": 8213,
      "Ġliqu": 8214,
      "Ġpartner": 8215,
      "ĠStan": 8216,
      "Ġadministration": 8217,
      "Ġvehicles": 8218,
      "Car": 8219,
      "Ġtrace": 8220,
      "Ġstock": 8221,
      "ĠMot": 8222,
      "desc": 8223,
      "arser": 8224,
      "Ġsuc": 8225,
      "ĠGiven": 8226,
      "Ġdiscrim": 8227,
      "Ġadvert": 8228,
      "ĠWall": 8229,
      "overs": 8230,
      "apl": 8231,
      "Ġconference": 8232,
      "Suppose": 8233,
      "ugin": 8234,
      "Ġlowest": 8235,
      "Ġexclud": 8236,
      "Will": 8237,
      "ĠStat": 8238,
      "Ġsingles": 8239,
      "Ġsizes": 8240,
      "Ġupdated": 8241,
      "ains": 8242,
      "phia": 8243,
      "Instance": 8244,
      "National": 8245,
      "Label": 8246,
      "Ġdetermin": 8247,
      "Ġhighlight": 8248,
      "ogonal": 8249,
      "img": 8250,
      "Ġintended": 8251,
      "Sche": 8252,
      "Ġlooks": 8253,
      "ĠNone": 8254,
      "ĠTri": 8255,
      "achus": 8256,
      "anta": 8257,
      "Ġassociation": 8258,
      "plane": 8259,
      "Ġends": 8260,
      "Ġopin": 8261,
      "Ġrig": 8262,
      "Ġmonitor": 8263,
      "Ġrestaur": 8264,
      "Ġrational": 8265,
      "Ġelectronic": 8266,
      "Ġcurvature": 8267,
      "Ġscope": 8268,
      "Ġequipment": 8269,
      "ĠSU": 8270,
      "Ġ$\\{\\": 8271,
      "ĠJackson": 8272,
      "ideos": 8273,
      "${": 8274,
      "bp": 8275,
      "1961": 8276,
      "Ġbeat": 8277,
      "Ġaw": 8278,
      "ĠTwitter": 8279,
      "ĠMond": 8280,
      "hol": 8281,
      "ĠFund": 8282,
      "green": 8283,
      "ĠTHE": 8284,
      "else": 8285,
      "ĠWild": 8286,
      "Ġ,\\": 8287,
      "Sing": 8288,
      "find": 8289,
      "ĠBra": 8290,
      "rastructure": 8291,
      "ĠRE": 8292,
      "Ġexcell": 8293,
      "osa": 8294,
      "ĠAR": 8295,
      "hard": 8296,
      "wing": 8297,
      "ĠMedical": 8298,
      "ĠFree": 8299,
      "Ġcolon": 8300,
      "obj": 8301,
      "ĠJewish": 8302,
      "Ġdependent": 8303,
      "Men": 8304,
      "ĠRepresent": 8305,
      "ĠPolice": 8306,
      "ĠBa": 8307,
      "imately": 8308,
      "Ġaspects": 8309,
      "android": 8310,
      "Ġprogramming": 8311,
      "ĠJr": 8312,
      "amin": 8313,
      "chor": 8314,
      "ĠAndrew": 8315,
      "pool": 8316,
      "Ġshop": 8317,
      "Ġlargely": 8318,
      "ĠHospital": 8319,
      "Ġsubsequently": 8320,
      "128": 8321,
      "ĠJeff": 8322,
      "Ġoperated": 8323,
      "ĠLight": 8324,
      "Equal": 8325,
      "Ġfellow": 8326,
      "bu": 8327,
      "Ġsuccessfully": 8328,
      "Ġfinds": 8329,
      "Ġinspired": 8330,
      "Ġplas": 8331,
      "ĠRh": 8332,
      "Ġeigenvalues": 8333,
      "append": 8334,
      "ĠGener": 8335,
      "Ġ+=": 8336,
      "Ġbridge": 8337,
      "Ġreviews": 8338,
      "args": 8339,
      "Ġrepresentative": 8340,
      "illy": 8341,
      "never": 8342,
      "igr": 8343,
      "Two": 8344,
      "Ġstrategies": 8345,
      "Ġassuming": 8346,
      "ritical": 8347,
      "fi": 8348,
      "Ġspring": 8349,
      "ci": 8350,
      "!]": 8351,
      "property": 8352,
      "yer": 8353,
      "Ġspeech": 8354,
      "Ġprotocol": 8355,
      "images": 8356,
      "ĠOrgan": 8357,
      "ĠWis": 8358,
      "Ġdemonstrate": 8359,
      "sole": 8360,
      "ĠCoast": 8361,
      "Ġconfidence": 8362,
      "CK": 8363,
      "verb": 8364,
      "athan": 8365,
      "Ġsucceed": 8366,
      "phone": 8367,
      "phantom": 8368,
      "notag": 8369,
      "idents": 8370,
      "Ġinsert": 8371,
      "BM": 8372,
      "uri": 8373,
      "Ġviews": 8374,
      "Ġple": 8375,
      "Ġbudget": 8376,
      "tack": 8377,
      "Ġtreated": 8378,
      "ucky": 8379,
      "Ġbenefit": 8380,
      "ĠNULL": 8381,
      "Ġemployees": 8382,
      "ĠEst": 8383,
      "Ġluminosity": 8384,
      "riminal": 8385,
      "amber": 8386,
      "Ġreality": 8387,
      "Ġcorrection": 8388,
      "irds": 8389,
      "Ġissued": 8390,
      ">\\": 8391,
      "Ġofficials": 8392,
      "Ġmac": 8393,
      "Ġconsisting": 8394,
      "ĠEdward": 8395,
      "Ġmorning": 8396,
      "Di": 8397,
      "Ġenvironmental": 8398,
      "Ġrecognition": 8399,
      "models": 8400,
      "ĠKong": 8401,
      "ĠJon": 8402,
      "initely": 8403,
      "elect": 8404,
      "arity": 8405,
      "ĠFriday": 8406,
      "rins": 8407,
      ")^\\": 8408,
      "Ġheard": 8409,
      "achusetts": 8410,
      "corollary": 8411,
      "una": 8412,
      "uv": 8413,
      "ĠBack": 8414,
      "VD": 8415,
      "yd": 8416,
      "May": 8417,
      "Ġattend": 8418,
      "Ġequivalence": 8419,
      "lib": 8420,
      "estic": 8421,
      "etails": 8422,
      "equations": 8423,
      "bell": 8424,
      "Link": 8425,
      "ĠAh": 8426,
      "});": 8427,
      "Port": 8428,
      "si": 8429,
      "hfill": 8430,
      "PM": 8431,
      "ĠHal": 8432,
      "Ġisot": 8433,
      "Ġzone": 8434,
      "Ġyouth": 8435,
      "isted": 8436,
      "adata": 8437,
      "Ġquantity": 8438,
      "ĠIllinois": 8439,
      "Ġreader": 8440,
      "Ġrich": 8441,
      "General": 8442,
      "Ġdense": 8443,
      "output": 8444,
      "Ġcorrections": 8445,
      "Ġcontrolled": 8446,
      "aling": 8447,
      "regular": 8448,
      "Ġspac": 8449,
      "^*(": 8450,
      "Ġfunding": 8451,
      "Ġfacilities": 8452,
      "tree": 8453,
      "Ġcouncil": 8454,
      "}{*": 8455,
      "Ġcars": 8456,
      "Ġuniversal": 8457,
      "Ġprepar": 8458,
      "jpg": 8459,
      "Ġflight": 8460,
      "Ġwestern": 8461,
      "ducible": 8462,
      "ĠMult": 8463,
      "ĠDaniel": 8464,
      "iden": 8465,
      "Ġhab": 8466,
      "Buffer": 8467,
      "-(": 8468,
      "Ġbenefits": 8469,
      "Ġsquad": 8470,
      "Cell": 8471,
      "stat": 8472,
      "Ġcaptured": 8473,
      "lers": 8474,
      "angular": 8475,
      "Ġfashion": 8476,
      "ĠBroad": 8477,
      "Ġreferences": 8478,
      "1944": 8479,
      "Ġcarbon": 8480,
      "BR": 8481,
      "Ġpackage": 8482,
      "direct": 8483,
      "Ġsport": 8484,
      "Ġbass": 8485,
      "Ġmolecular": 8486,
      "Ġexecutive": 8487,
      "esian": 8488,
      "creen": 8489,
      "Ġacademic": 8490,
      "ĠMas": 8491,
      "request": 8492,
      "ĠCR": 8493,
      "ĠJes": 8494,
      "Ġclosely": 8495,
      "True": 8496,
      "Ġhuge": 8497,
      "001": 8498,
      "there": 8499,
      "Ġversus": 8500,
      "miss": 8501,
      "Ġeconomy": 8502,
      "ĠFour": 8503,
      "Ġdecrease": 8504,
      "life": 8505,
      "Ġexpressions": 8506,
      "json": 8507,
      "textcolor": 8508,
      "Ġvictim": 8509,
      "aton": 8510,
      "ĠSi": 8511,
      "Command": 8512,
      "Ġdeveloping": 8513,
      "BU": 8514,
      "negative": 8515,
      "\"]": 8516,
      "Ġanyone": 8517,
      "icular": 8518,
      "ĠGeV": 8519,
      "Ġpatient": 8520,
      "ulf": 8521,
      "Dec": 8522,
      "ãĤ": 8523,
      "entry": 8524,
      "Ġfort": 8525,
      "Ġconvers": 8526,
      "ĠMcC": 8527,
      "Ġmeas": 8528,
      "tax": 8529,
      "teen": 8530,
      "ĠDesign": 8531,
      "ĠEastern": 8532,
      "Options": 8533,
      "Ġadvanced": 8534,
      "Ġbalance": 8535,
      "Ġpsych": 8536,
      "Ġpurposes": 8537,
      "(-\\": 8538,
      "enant": 8539,
      "Ġnecessarily": 8540,
      "irical": 8541,
      "Ġeffectively": 8542,
      "Ġinstant": 8543,
      "Ġvon": 8544,
      "Ġeyes": 8545,
      "Members": 8546,
      "ructions": 8547,
      "ĠDutch": 8548,
      "1959": 8549,
      "oster": 8550,
      "Ev": 8551,
      "ĠIndust": 8552,
      "ĠSea": 8553,
      "Ġsetup": 8554,
      "Return": 8555,
      "circle": 8556,
      "ĠRepublican": 8557,
      "Ġcomedy": 8558,
      "Ġfluctuations": 8559,
      "Handler": 8560,
      "rangian": 8561,
      "Ġprotection": 8562,
      "bot": 8563,
      "Ġpowers": 8564,
      "ĠGirl": 8565,
      "ĠPM": 8566,
      "Ġexplan": 8567,
      "Ġcorner": 8568,
      "AE": 8569,
      "omer": 8570,
      "Ġmultip": 8571,
      "etch": 8572,
      "Ġpassing": 8573,
      "Ġbrain": 8574,
      "Component": 8575,
      "ĠJustice": 8576,
      "GR": 8577,
      "lik": 8578,
      "xml": 8579,
      "care": 8580,
      "âĢĿ.": 8581,
      "ĠEgypt": 8582,
      "world": 8583,
      ".\\\\": 8584,
      "ĠStudies": 8585,
      "gal": 8586,
      "large": 8587,
      "ĠDE": 8588,
      "Red": 8589,
      "Ġdriver": 8590,
      "Ġtransp": 8591,
      "Ġthrows": 8592,
      "ĠGovernor": 8593,
      "Ġmes": 8594,
      "Vis": 8595,
      "binom": 8596,
      "Ġcoupled": 8597,
      "ĠFacebook": 8598,
      "Arg": 8599,
      "Ġtells": 8600,
      "Li": 8601,
      "ĠLittle": 8602,
      "1956": 8603,
      "ĠOxford": 8604,
      "ĠKorea": 8605,
      "Ġbegins": 8606,
      "1958": 8607,
      "$.}": 8608,
      "Ġcere": 8609,
      "Ġdie": 8610,
      "imer": 8611,
      "ĠDC": 8612,
      "Ġ((": 8613,
      "Ġimprovement": 8614,
      "aki": 8615,
      "ĠFederal": 8616,
      "Ġaccepted": 8617,
      "Ġfeet": 8618,
      "Ġnotion": 8619,
      "Ġmetrics": 8620,
      "omal": 8621,
      "ĠPhilipp": 8622,
      "Ġcommut": 8623,
      "unte": 8624,
      "Track": 8625,
      "Const": 8626,
      "Ġleadership": 8627,
      "ĠBir": 8628,
      "hor": 8629,
      "outhe": 8630,
      "Ġsummary": 8631,
      "arters": 8632,
      "Ġinterior": 8633,
      "chester": 8634,
      "comput": 8635,
      "plicated": 8636,
      "ĠTw": 8637,
      "uce": 8638,
      "imits": 8639,
      "Ġcrow": 8640,
      "afe": 8641,
      "Ġmeant": 8642,
      "Ġpet": 8643,
      "ĠComput": 8644,
      "Ġhappen": 8645,
      "Ġscientific": 8646,
      "ami": 8647,
      "ĠLear": 8648,
      "ĠEu": 8649,
      "ĠFollowing": 8650,
      "aturally": 8651,
      "Ġpeace": 8652,
      "Brit": 8653,
      "Version": 8654,
      "WE": 8655,
      "ologist": 8656,
      "illing": 8657,
      "Ġsexual": 8658,
      "Ġexpos": 8659,
      "Ġahead": 8660,
      "Row": 8661,
      "ĠFamily": 8662,
      "Ġsupp": 8663,
      "Ġintroduction": 8664,
      "relation": 8665,
      "Check": 8666,
      "ĠPoland": 8667,
      "ailed": 8668,
      "Ġboy": 8669,
      "Ġprofiles": 8670,
      "Ġreduces": 8671,
      "ĠEnergy": 8672,
      "[\"": 8673,
      "Ġsurrounding": 8674,
      "service": 8675,
      "ĠMain": 8676,
      "BI": 8677,
      "Ġconclusion": 8678,
      "ĠEX": 8679,
      "180": 8680,
      "ĠKar": 8681,
      "Ġmoments": 8682,
      "ocated": 8683,
      "Ġenhance": 8684,
      "header": 8685,
      "ramework": 8686,
      "Ġseconds": 8687,
      "ĠOnly": 8688,
      "IST": 8689,
      "Dem": 8690,
      "backslash": 8691,
      "Ġstreet": 8692,
      "ĠNC": 8693,
      "Par": 8694,
      "Left": 8695,
      "agon": 8696,
      "Ġ\"\"\"": 8697,
      "Ġpapers": 8698,
      "Ġdoub": 8699,
      "Ġpoliticians": 8700,
      "ĠAsh": 8701,
      "Ġwinner": 8702,
      "ogram": 8703,
      "Ġskills": 8704,
      "Ġengineering": 8705,
      "orship": 8706,
      "Ġgravitational": 8707,
      "Ġperturbation": 8708,
      "Ġintegr": 8709,
      "vals": 8710,
      "Ġperhaps": 8711,
      "mode": 8712,
      "$\\,": 8713,
      "Ġconcert": 8714,
      "hire": 8715,
      "Ġoffset": 8716,
      "signed": 8717,
      "Ġdemonstrated": 8718,
      "Ġheav": 8719,
      "Sl": 8720,
      "Ġdirections": 8721,
      "ĠCat": 8722,
      "ĠUkraine": 8723,
      "Ġfifth": 8724,
      "ĠDown": 8725,
      "Ġphases": 8726,
      "ĠThree": 8727,
      "Ġagreed": 8728,
      "ĠMike": 8729,
      "ABLE": 8730,
      "Ġflex": 8731,
      "Ġmarriage": 8732,
      "orig": 8733,
      "Ġlift": 8734,
      "Ġcircum": 8735,
      "ĠSoc": 8736,
      "Ġinvestment": 8737,
      "Ġneutral": 8738,
      "Ġcolumns": 8739,
      "Ġmotor": 8740,
      "ĠUr": 8741,
      "Ġseparation": 8742,
      "!!": 8743,
      "MO": 8744,
      "pson": 8745,
      "Ġcharges": 8746,
      "Ġinterpretation": 8747,
      "ĠPrince": 8748,
      "Ġpractical": 8749,
      "ĉĠĠĠ": 8750,
      "Ã±": 8751,
      "Ġintermediate": 8752,
      "Ġera": 8753,
      "Ġwarm": 8754,
      "Ġprofessor": 8755,
      "imation": 8756,
      "Ġroles": 8757,
      "Ġessentially": 8758,
      "Ġsky": 8759,
      "Ġoccurred": 8760,
      "800": 8761,
      "Ġsevere": 8762,
      "YPE": 8763,
      "Ġconsec": 8764,
      "isot": 8765,
      "ĠPass": 8766,
      "possible": 8767,
      "|^{": 8768,
      "Ġpersonnel": 8769,
      "ĠWin": 8770,
      "BL": 8771,
      "short": 8772,
      "Ġcauses": 8773,
      "ulating": 8774,
      "Ġperiodic": 8775,
      "theless": 8776,
      "Ġmiles": 8777,
      "ĠNon": 8778,
      "efined": 8779,
      "ĠBrook": 8780,
      "ĠCase": 8781,
      "plan": 8782,
      "Ġglass": 8783,
      "Ġabsence": 8784,
      "ictures": 8785,
      "à¥": 8786,
      "ĠPortug": 8787,
      "Ġpuls": 8788,
      "Ġfinish": 8789,
      "ears": 8790,
      "Ġpretty": 8791,
      "ĠSecretary": 8792,
      "ois": 8793,
      "update": 8794,
      "utor": 8795,
      "Ġmuseum": 8796,
      "ĠSecurity": 8797,
      "ĠMassachusetts": 8798,
      "Ġepisodes": 8799,
      "Ġnormalized": 8800,
      "Ġparticipants": 8801,
      "Tem": 8802,
      "arith": 8803,
      "fa": 8804,
      "opher": 8805,
      "lower": 8806,
      "1957": 8807,
      "Ġphone": 8808,
      "ective": 8809,
      "1948": 8810,
      "ĠKim": 8811,
      "ĠReal": 8812,
      "ubble": 8813,
      "push": 8814,
      "Ġaudience": 8815,
      "uated": 8816,
      "Ġuniformly": 8817,
      "ĠChris": 8818,
      "Ġwasn": 8819,
      "Ġpit": 8820,
      "ĠExt": 8821,
      "ĠColl": 8822,
      "ented": 8823,
      "Ġscores": 8824,
      "Ġpal": 8825,
      "Ġfaster": 8826,
      "Ġabsorption": 8827,
      "Ġgenerating": 8828,
      "Ġbroken": 8829,
      "just": 8830,
      "Each": 8831,
      "shot": 8832,
      "Ġdrawn": 8833,
      "Ġvacuum": 8834,
      "Ġprecision": 8835,
      "Ġalongside": 8836,
      "varrho": 8837,
      "Ġplants": 8838,
      "jecture": 8839,
      "Assum": 8840,
      "Ġadvance": 8841,
      "Ġcomplement": 8842,
      "finished": 8843,
      "nol": 8844,
      "arest": 8845,
      "Ġproportional": 8846,
      "ipeline": 8847,
      "Ġmask": 8848,
      "Ġwavelength": 8849,
      "Ġcovering": 8850,
      "full": 8851,
      "iii": 8852,
      "Ġtick": 8853,
      "quant": 8854,
      "Ġlens": 8855,
      "ographer": 8856,
      "ĠGar": 8857,
      "Ġearth": 8858,
      "footnotes": 8859,
      "cline": 8860,
      "Ġnotes": 8861,
      "typ": 8862,
      "Ga": 8863,
      "Ġsensitive": 8864,
      "ĠConsider": 8865,
      "ĠLem": 8866,
      "Ġdominant": 8867,
      "World": 8868,
      "Ġsuppose": 8869,
      "stood": 8870,
      "{(\\": 8871,
      "Second": 8872,
      "ĠDM": 8873,
      "Ġuncertainties": 8874,
      "ĠAst": 8875,
      "ĸº": 8876,
      "Ġgeometric": 8877,
      "ĠBoy": 8878,
      "Ġhalo": 8879,
      "Factory": 8880,
      "Ġarrived": 8881,
      "Ġphoto": 8882,
      "rior": 8883,
      "ogether": 8884,
      "Ġdecades": 8885,
      "itory": 8886,
      "src": 8887,
      "HO": 8888,
      "stackrel": 8889,
      "&.": 8890,
      "Ġarc": 8891,
      "Current": 8892,
      "ĠSaturday": 8893,
      "Ġiteration": 8894,
      "ĠPen": 8895,
      "Ġearned": 8896,
      "Ġawards": 8897,
      "ĠPy": 8898,
      "Ġwants": 8899,
      "Ġprotein": 8900,
      "Ġexpanded": 8901,
      "1952": 8902,
      "footnotesize": 8903,
      "Ġdefense": 8904,
      "Ġsun": 8905,
      "ĠPakistan": 8906,
      "*/": 8907,
      "iated": 8908,
      "Description": 8909,
      "onse": 8910,
      "Ġ\\,\\": 8911,
      "oment": 8912,
      "card": 8913,
      "Ġsell": 8914,
      "hr": 8915,
      "ĠLatin": 8916,
      "ĠHong": 8917,
      "Ã¢": 8918,
      "std": 8919,
      "Ġbusinesses": 8920,
      "ulpt": 8921,
      "erry": 8922,
      "izabeth": 8923,
      "Acc": 8924,
      "ĠSD": 8925,
      "101": 8926,
      "Mark": 8927,
      "Ġpolarization": 8928,
      "ads": 8929,
      "1939": 8930,
      "*}[": 8931,
      "1942": 8932,
      "Ġdro": 8933,
      "Ġindices": 8934,
      "Ġunless": 8935,
      "Ġretired": 8936,
      "ĠDar": 8937,
      "United": 8938,
      "Ġbreaking": 8939,
      "ĠConserv": 8940,
      "ĠExec": 8941,
      "Default": 8942,
      "Ġtested": 8943,
      "support": 8944,
      "Å¡": 8945,
      "Ġtight": 8946,
      "Ġships": 8947,
      "VER": 8948,
      "coh": 8949,
      "ni": 8950,
      "iang": 8951,
      "Ġalgebraic": 8952,
      "ART": 8953,
      "1955": 8954,
      "Ġserves": 8955,
      "ymmetric": 8956,
      "leton": 8957,
      "Ġfeaturing": 8958,
      "Ġconfigurations": 8959,
      "vard": 8960,
      "ĠNY": 8961,
      "ĠPolicy": 8962,
      "Page": 8963,
      "Ġvariations": 8964,
      "ĠVill": 8965,
      "ĠStation": 8966,
      "sd": 8967,
      "ĠSuppose": 8968,
      "umes": 8969,
      "Sports": 8970,
      "Ġthin": 8971,
      "adi": 8972,
      "Ġfrequencies": 8973,
      "ĠSN": 8974,
      "Ġplanned": 8975,
      "ĠBand": 8976,
      "ordan": 8977,
      "Ġfresh": 8978,
      "Ġclubs": 8979,
      "itical": 8980,
      "child": 8981,
      "Ġinclusion": 8982,
      "frame": 8983,
      "ĠMinistry": 8984,
      "ĠColumbia": 8985,
      "Ġhouses": 8986,
      "Ġverify": 8987,
      "Ġhour": 8988,
      "Ġkin": 8989,
      "Ġclinical": 8990,
      "Ġbaseline": 8991,
      "wave": 8992,
      "emb": 8993,
      "Ġeye": 8994,
      "ĠAlexander": 8995,
      "ptr": 8996,
      "Ġdocuments": 8997,
      "aux": 8998,
      "zo": 8999,
      "ĠAuthor": 9000,
      "ictionary": 9001,
      "Ġhappens": 9002,
      "mazon": 9003,
      "unately": 9004,
      "Ġsensitivity": 9005,
      "Ġatoms": 9006,
      "yo": 9007,
      "parallel": 9008,
      "boldmath": 9009,
      "Ġroughly": 9010,
      "GA": 9011,
      "ĠWalk": 9012,
      "private": 9013,
      "ropical": 9014,
      "Ġcoal": 9015,
      "ativ": 9016,
      "ĠCle": 9017,
      "Ġscenarios": 9018,
      "obe": 9019,
      "Ġentirely": 9020,
      "ĠRen": 9021,
      "Ġrid": 9022,
      "oned": 9023,
      "Ġburn": 9024,
      "Local": 9025,
      "ropol": 9026,
      "Long": 9027,
      "Book": 9028,
      "ĠNext": 9029,
      "grade": 9030,
      "Ġanimals": 9031,
      "inction": 9032,
      "textup": 9033,
      "Ġancient": 9034,
      "erg": 9035,
      "~(\\": 9036,
      "Ġcommit": 9037,
      "160": 9038,
      "125": 9039,
      "iki": 9040,
      "urance": 9041,
      "Ġven": 9042,
      "format": 9043,
      "ĠTam": 9044,
      "BE": 9045,
      "shape": 9046,
      "ĠCEO": 9047,
      "ĠIV": 9048,
      "Ġflows": 9049,
      "$^{": 9050,
      "ĠAbout": 9051,
      "Another": 9052,
      "Home": 9053,
      "ĠĠĠĠĠĠĠĠĠĠĠĠĠĠĠĠĠĠĠĠĠ": 9054,
      "ĠĠĠĠĠĠĠĠĠĠĠĠĠĠĠĠĠĠĠĠĠĠĠĠĠĠĠĠĠĠĠĠĠĠĠ": 9055,
      "Ġsupporting": 9056,
      "Ġpieces": 9057,
      "Ġelev": 9058,
      "organ": 9059,
      "!\\": 9060,
      "instein": 9061,
      "Ġadjacent": 9062,
      "ĠHung": 9063,
      "adelphia": 9064,
      "project": 9065,
      "Ġsatell": 9066,
      "Don": 9067,
      "Ġthanks": 9068,
      "'_{": 9069,
      "Ġconsult": 9070,
      "HL": 9071,
      "ĠMaster": 9072,
      "Ġexcess": 9073,
      "Ġdegener": 9074,
      "SF": 9075,
      "Ġfan": 9076,
      "ĠBu": 9077,
      ")}(\\": 9078,
      "|$": 9079,
      "ĠMuslim": 9080,
      "Ġhierarch": 9081,
      "unnel": 9082,
      "Ġmodeling": 9083,
      "lope": 9084,
      "ĠBrad": 9085,
      "1943": 9086,
      "Load": 9087,
      "pred": 9088,
      "ĠAT": 9089,
      "1946": 9090,
      "Ġinstitutions": 9091,
      "Syn": 9092,
      "Ġreconstruction": 9093,
      ")}.": 9094,
      "Ġcitizens": 9095,
      "ĠFourier": 9096,
      "Ġcovers": 9097,
      "params": 9098,
      "ito": 9099,
      "pres": 9100,
      "Ġexceed": 9101,
      "ĠĠĠĠĠĠĠĠĠĠĠĠĠĠĠĠĠĠĠĠĠĠĠĠĠĠĠĠĠĠĠĠĠĠĠĠĠĠĠĠĠĠĠĠĠĠĠĠĠĠĠĠĠĠĠĠĠĠĠĠĠĠĠĠ": 9102,
      "ebug": 9103,
      "1941": 9104,
      "ursday": 9105,
      "ĠWho": 9106,
      "ĠLast": 9107,
      "ĠId": 9108,
      "Ġneutrino": 9109,
      "ĠRa": 9110,
      "ĠProfessor": 9111,
      "Ġraise": 9112,
      "Ġencourag": 9113,
      "status": 9114,
      "ĠChristmas": 9115,
      "ĠKenn": 9116,
      "Ġcrucial": 9117,
      "Ġdoor": 9118,
      "Ġquadratic": 9119,
      "elete": 9120,
      "}/\\": 9121,
      "DO": 9122,
      "Ġtransferred": 9123,
      "ĠCas": 9124,
      "Contain": 9125,
      "Ġnewly": 9126,
      ":#": 9127,
      "button": 9128,
      "ĠBon": 9129,
      "ĠAgain": 9130,
      "Ġfib": 9131,
      "Ġinstances": 9132,
      "Ġcatalog": 9133,
      "ĠAk": 9134,
      "Ġcrime": 9135,
      "ĠJean": 9136,
      "ĠOnt": 9137,
      "Ġstands": 9138,
      "Ġresidual": 9139,
      "Ġdeviation": 9140,
      "ĠMap": 9141,
      "inds": 9142,
      "\\!\\": 9143,
      "Ġfish": 9144,
      "Ġhousing": 9145,
      "ĠLuc": 9146,
      "anth": 9147,
      ")(\\": 9148,
      "oor": 9149,
      "ĠAM": 9150,
      "ATION": 9151,
      "INT": 9152,
      "Ġrestricted": 9153,
      "gather": 9154,
      "Ġprominent": 9155,
      "Direct": 9156,
      "Ġcontribute": 9157,
      "Ġsolving": 9158,
      "Ġportion": 9159,
      "Ġopportunities": 9160,
      "ĠUnivers": 9161,
      "elly": 9162,
      "{|": 9163,
      "pers": 9164,
      "ĠCreek": 9165,
      "dney": 9166,
      "Ġfootballer": 9167,
      "ĠCall": 9168,
      "Rev": 9169,
      "ĠPrime": 9170,
      "Ġce": 9171,
      "vements": 9172,
      "Ġperspective": 9173,
      "Ġfaith": 9174,
      "esides": 9175,
      "Ġvision": 9176,
      "ĠFre": 9177,
      "1953": 9178,
      "Ġhorizontal": 9179,
      "herical": 9180,
      "Ġcloser": 9181,
      "CF": 9182,
      "consin": 9183,
      "irection": 9184,
      "Ġstraightforward": 9185,
      "Tag": 9186,
      "uses": 9187,
      "FONT": 9188,
      "agram": 9189,
      "orders": 9190,
      "Ġdiffusion": 9191,
      "ĠWrit": 9192,
      "Ġconcentration": 9193,
      "Ġinvestigated": 9194,
      "GeV": 9195,
      "IO": 9196,
      "ĠLater": 9197,
      "ĠApple": 9198,
      "Ġelectrons": 9199,
      "Ġinjury": 9200,
      "vo": 9201,
      "Ġfacility": 9202,
      "ĠCorporation": 9203,
      "ĠAdminist": 9204,
      "Ġextensive": 9205,
      "sid": 9206,
      "Ġcopies": 9207,
      "ĠRog": 9208,
      "Ġhomogeneous": 9209,
      "mal": 9210,
      "âĢĺ": 9211,
      "Ġperman": 9212,
      "Style": 9213,
      "Hom": 9214,
      "writer": 9215,
      "$^": 9216,
      "XX": 9217,
      "ĠLore": 9218,
      "rell": 9219,
      "dash": 9220,
      "Ġanalytic": 9221,
      "ĠRod": 9222,
      "ĠGR": 9223,
      "nm": 9224,
      "cp": 9225,
      "Ġtopology": 9226,
      "ego": 9227,
      "watch": 9228,
      "Ġmetall": 9229,
      "Ġdominated": 9230,
      "1954": 9231,
      "Ġanalys": 9232,
      "symmet": 9233,
      "ĠHard": 9234,
      "ĠHand": 9235,
      "Ġbatter": 9236,
      "ĠGuard": 9237,
      "Ġrecover": 9238,
      "ĠCorn": 9239,
      "ennes": 9240,
      "1947": 9241,
      "Ġbriefly": 9242,
      "Ġdensities": 9243,
      "Ġsurfaces": 9244,
      "Ġtemporal": 9245,
      "Ġcolle": 9246,
      "Output": 9247,
      "inking": 9248,
      "Ġformulation": 9249,
      "Ġconjug": 9250,
      "Ġcharacterized": 9251,
      "Ġorbital": 9252,
      "Ġcrew": 9253,
      "Ġ{@": 9254,
      "}.}": 9255,
      "Ġcodes": 9256,
      "Ġfont": 9257,
      "filter": 9258,
      "Ġconvolution": 9259,
      "Ġthread": 9260,
      "Ġsystematic": 9261,
      "Ġconstitu": 9262,
      "older": 9263,
      "Ġfitting": 9264,
      "oton": 9265,
      "opes": 9266,
      "ednes": 9267,
      "Ġfuel": 9268,
      "ĠGro": 9269,
      "btn": 9270,
      "Ġdecreases": 9271,
      "chain": 9272,
      "ĠViet": 9273,
      "Ġvideos": 9274,
      "match": 9275,
      "ĠRaj": 9276,
      "Desc": 9277,
      "Ġseparated": 9278,
      "Ġdance": 9279,
      "ĠLike": 9280,
      "ĠLew": 9281,
      "ĠInvest": 9282,
      "Ġjobs": 9283,
      "Ġexerc": 9284,
      "ted": 9285,
      "Ġbow": 9286,
      "response": 9287,
      "Definition": 9288,
      "ĠĠĠĠĠĠĠĠĠĠĠĠĠĠĠĠĠĠĠĠ": 9289,
      "sort": 9290,
      "Ġconcerns": 9291,
      "anna": 9292,
      "Nov": 9293,
      "Ġathlet": 9294,
      "Ġpolitics": 9295,
      "racket": 9296,
      "ĠCommon": 9297,
      "Ġhonor": 9298,
      "ĠSupreme": 9299,
      "Ġperformances": 9300,
      "Ġchoices": 9301,
      "sep": 9302,
      "comb": 9303,
      "ĠFire": 9304,
      "///": 9305,
      "Ġcaref": 9306,
      "$-$": 9307,
      "raise": 9308,
      "Ġsimilarly": 9309,
      "ĠScottish": 9310,
      "ĠVen": 9311,
      "ĠPlaces": 9312,
      "ĠSem": 9313,
      "Ġpresents": 9314,
      "ĠAud": 9315,
      "ĠJacob": 9316,
      "Create": 9317,
      "Ġcriteria": 9318,
      "ĠHun": 9319,
      "Ġdefines": 9320,
      "present": 9321,
      "&&\\": 9322,
      "ĠBerlin": 9323,
      "Ġhybrid": 9324,
      "Ġplease": 9325,
      "Ġenable": 9326,
      "Ġextent": 9327,
      "Ġfrequently": 9328,
      "University": 9329,
      "ĠLive": 9330,
      "Ġwish": 9331,
      "ĠFair": 9332,
      "eties": 9333,
      "Ġinn": 9334,
      "phys": 9335,
      "antry": 9336,
      "ĠBeach": 9337,
      "ĠML": 9338,
      "Ġstead": 9339,
      "sex": 9340,
      "Ġ\\[": 9341,
      "Ġentertain": 9342,
      "1949": 9343,
      "evin": 9344,
      "Ġrefers": 9345,
      "Ġinvolves": 9346,
      "Ġstrictly": 9347,
      "drop": 9348,
      "invariant": 9349,
      "Before": 9350,
      "ĠOs": 9351,
      "Ġliber": 9352,
      "Ġindustrial": 9353,
      "Ġexecution": 9354,
      "Ġadvers": 9355,
      "Conn": 9356,
      "apse": 9357,
      "erset": 9358,
      "isor": 9359,
      "Ag": 9360,
      "Ġsmart": 9361,
      "Ġaccret": 9362,
      "ĠPolish": 9363,
      "Ġdanger": 9364,
      "navbar": 9365,
      "Ġpanels": 9366,
      "Ġrecip": 9367,
      "iga": 9368,
      "zech": 9369,
      "Ġmanufacture": 9370,
      "ĠSus": 9371,
      "Ġproduces": 9372,
      "Ġtransitions": 9373,
      "ĠStr": 9374,
      "Ġhockey": 9375,
      "ĠSE": 9376,
      "Ġknew": 9377,
      "ĠAvenue": 9378,
      "Ġbaseball": 9379,
      "ĠBelg": 9380,
      "pet": 9381,
      "Ġprecise": 9382,
      "=\\{": 9383,
      "Ġ{}": 9384,
      "ĠSC": 9385,
      "Ġguide": 9386,
      "ynamics": 9387,
      "}$\\": 9388,
      "ederation": 9389,
      "Ġsupports": 9390,
      "ĠMonday": 9391,
      "Ġcart": 9392,
      "Ġrespective": 9393,
      "worth": 9394,
      "ĠLabor": 9395,
      "ĠBBC": 9396,
      "thur": 9397,
      "Equals": 9398,
      "iples": 9399,
      "Ġhear": 9400,
      "when": 9401,
      "Ġdream": 9402,
      "Ġgrew": 9403,
      "1951": 9404,
      "Ġderivatives": 9405,
      "Ġdownload": 9406,
      "]^": 9407,
      "Ġmoves": 9408,
      "ĠCirc": 9409,
      "Ġhelps": 9410,
      "Ġreward": 9411,
      "256": 9412,
      "Ġenem": 9413,
      "Ġâĸº": 9414,
      "Ġiron": 9415,
      "ĠDespite": 9416,
      "downarrow": 9417,
      "Ġpolynomials": 9418,
      "Ġurban": 9419,
      "elian": 9420,
      "ĠBad": 9421,
      "rinsic": 9422,
      "atern": 9423,
      "Ġcolour": 9424,
      "ĠWhe": 9425,
      "Under": 9426,
      "Ġvarying": 9427,
      "Best": 9428,
      "Ġuniverse": 9429,
      "Ġrecognized": 9430,
      "Ġsoc": 9431,
      "Ġillustrated": 9432,
      "ĠEU": 9433,
      "Ġattribute": 9434,
      "Following": 9435,
      "Ġ$^{": 9436,
      "\\|_": 9437,
      "ermi": 9438,
      "Ġhappened": 9439,
      "root": 9440,
      "ĠIS": 9441,
      "ĠLicense": 9442,
      "Ġtang": 9443,
      "Ġgenerator": 9444,
      "Ġcredit": 9445,
      "ĠIslands": 9446,
      "123": 9447,
      "ĠâĢ¦": 9448,
      "ĠRailway": 9449,
      "Ġfra": 9450,
[...]
