#version: 0.2
Ġ Ġ
ĠĠ ĠĠ
i n
Ġ t
e r
o n
Ġ a
r e
h e
a t
e n
o r
ĠĠ Ġ
s t
ĠĠĠĠ ĠĠĠĠ
a n
Ġt he
a l
Ġ c
i t
l e
a r
i on
Ġ s
e s
i s
e d
Ġ f
Ġ o
in g
Ġ w
Ġ p
r o
i c
a s
e t
Ġ b
n d
Ġ in
c t
o u
Ġ d
en t
Ġo f
a m
ĠĠĠĠ ĠĠĠ
Ġ m
e l
Ġt o
Ġa nd
Ġ n
Ġ re
Ġ h
i l
i d
Ġ =
o m
ĉ ĉ
< /
Ġt h
c e
Ġ (
u r
u t
o l
Ġ S
= "
) ;
i m
at ion
i g
a d
s e
e x
o t
Ġ l
Ġ T
o d
Ġ C
i v
- -
Ġ {
a g
Ġ <
Ġ A
i f
a c
u l
ĠĠĠĠĠĠĠĠ ĠĠĠ
e m
u n
/ /
t h
p e
a y
Ġ v
Ġ *
Ġ g
Ġ I
at e
c h
o w
t r
u e
Ġ is
Ġ st
č Ċ
â Ģ
as s
a b
u s
Ġ M
u m
er s
Ġf or
o c
p t
i st
am e
l y
Ġ P
Ġ }
" >
a p
Ġ on
h t
i r
Ġb e
t er
a v
Ġ "
it h
ct ion
Ġ B
Ġc on
e w
l ass
Ġ $
Ġ e
u b
v er
ĠĠĠĠĠĠĠĠ ĠĠĠĠĠĠĠĠ
Ġ R
an d
Ġ D
es s
s s
ag e
or t
( )
u p
ĠĠĠĠ Ġ
ou r
en d
* *
e f
2 0
Ġ F
Ġ H
ur n
r i
q u
Ġ L
o p
s p
l i
Ġth at
e st
Ġ N
e ct
Ġw ith
n t
. .
a in
Ġa l
Ġp ro
Ġ G
= =
Ġ E
ex t
Ġ W
-- --
t urn
y pe
Ġw h
Ġa n
k e
m ent
in e
Ġ it
Ġ \
o re
Ġc lass
ro m
Ġa s
c on
ar t
ab le
it y
ac k
Ġ '
o g
p ort
g et
ĠT he
l ic
od e
Ġ y
i z
Ġth is
Ġ if
u re
Ġ r
i le
Ġc om
ul t
Ġ or
al l
o s
er e
Ġw as
er t
ĠĠĠĠĠĠĠĠ ĠĠĠĠĠĠĠ
Ġb y
Ġa t
ig ht
Ġ O
Ġ ex
an s
1 9
il l
st r
at h
pt ion
an g
0 0
e c
l d
iv e
- >
i es
in t
Ġt r
at a
i al
Ġ //
p l
an t
Ġ J
or m
in d
u d
I n
Ġf rom
âĢ Ļ
re f
Ġre turn
Ġ he
a ct
: :
Ġa re
e p
as e
a st
al ue
Ġ </
c om
Ġ &
f f
i b
ĉĉ ĉĉ
a re
ar y
.. /
j ect
e v
a ce
Ġ U
i re
e g
ou t
Ġc h
o v
or d
Ġ -
u nd
i p
C on
ar d
b er
Ġn ot
Ġs e
our ce
ub lic
u g
Ġ @
l o
o st
at ed
Ġ [
Ġs h
p ro
" ,
Ġ le
im e
o k
u st
ar am
ig n
ic e
S t
av e
un ction
' s
Ġn ew
re s
a k
id e
l oc
Ġw e
( "
) ,
( );
m l
el l
it ion
Ġ /
Ġ âĢ
Ġin t
it e
Ġ j
el f
) .
il d
p le
i a
p er
d d
on g
ess age
er v
c ri
d iv
20 1
T he
ul l
Ġ K
or k
> </
s et
Ġ V
tr ing
sp an
t ext
f orm
c l
p ut
---- ----
Ġ Ċ
Ġ us
Ġ +
' ,
or y
an ce
c c
iz e
on e
Ġp l
ic h
ĠI n
E x
r r
ro w
ou ld
q ue
a il
> <
** **
g e
re ss
en s
Ġ* /
o b
im port
e ar
== ==
../ ../
ic al
Ġy ou
en ce
Ġre s
er r
Ġn ame
Ġ .
ĠS t
in k
u se
Ġst r
_ {
Ġp ublic
Ġ |
Ġc an
Ġ k
Ġh ave
i ew
s h
Ġ :
l l
ĠT h
Ġ un
i el
en c
ĉĉ ĉ
ĠĠĠĠĠĠĠĠ ĠĠĠĠĠĠĠĠĠĠĠ
Ġh as
p p
f t
Ġal l
( '
ou nt
e le
p h
ht ml
ĠĠĠĠĠĠĠĠ Ġ
n ame
ac h
th er
ent s
he n
iel d
Ġa b
E R
s o
d u
Ġcon t
r a
Ġh ref
et h
o id
P ro
th is
N ame
t p
Ġf unction
t e
ow n
en er
c he
Ġg et
o ol
e b
ation s
Ġd ef
f ig
Ġh is
) )
s ource
c k
m a
Ġp r
T ype
m essage
O N
ou s
1 0
Ġd o
in al
Ġ #
ter n
p aram
ĠC h
b ject
y st
Ġwh ich
u al
at or
Ġo ut
que st
p r
i an
S tring
Ġw ill
re e
Ġ _
I N
tr ans
I d
l ation
ke y
om e
ro up
r y
ir st
Ġs et
er y
al se
Ġv ar
Ġt ype
t d
Ġb ut
ou nd
o ok
le s
Ġa r
ar k
Ġ up
re turn
# #
Ġ= >
is h
n e
c ode
ap p
cl ud
v ent
o ver
at ic
{ \
Ġv alue
Ġ im
yst em
20 0
en g
i x
Ġcom p
at ch
pe c
/ >
R e
ing s
R E
c ol
loc k
er m
Ġ ro
t o
f o
le d
ol d
ic t
cri pt
od el
o int
Ġon e
Ġd is
c re
Ġ !
p ert
ac he
i o
r it
l ow
f er
a ke
pe ct
a x
" />
âĢ Ŀ
s er
ot h
at es
Ġs elf
ion s
C om
R es
eth od
am es
Ġ Y
: //
on t
ar g
t ype
u ild
Ġw ere
ad d
Ġa ss
Ġm e
m er
c lass
a ult
1 8
trans lation
L ist
Ġthe ir
ce ption
S T
Ġ= =
or s
le ct
Ġd ata
Ġc ol
Ġ$ \
oc k
d ef
a w
Ġp art
Ġ el
A T
r ap
ic k
f r
c al
ang e
_ _
n g
Ġal so
1 2
ov e
ut e
m ath
Ġcon st
Ġwh o
Ġl ine
u ct
ur re
ab el
C h
T h
Ġn ull
l ine
Ġ id
Ġthe y
um ber
b o
is s
it le
Ġm ore
v al
Ġs u
Ġs o
e y
Ġ i
"> <
Ġm an
Ġv oid
f ter
Ġa dd
at er
Ġo ver
Ġp re
O R
Ġ end
el y
ay s
ht tp
ic s
qu al
t on
s elf
w o
Ġa g
n c
) );
ĠI t
re ad
i e
Ġp er
Ġt ime
le ment
em ber
an n
Ġs p
Ġw hen
L E
Ġg o
s um
con t
Ġ `
ers ion
ĠU n
ro und
Ġn e
Ġ| |
Ġd e
iv ate
Ġd es
Ġw ork
Ġf irst
Ġc l
erv ice
1 6
rr ay
Ġ >
ad er
w e
Ġo ther
tr ib
Ġh er
v ar
str ing
if ic
am p
**** ****
Ġf alse
s on
A R
ig h
Ġ en
Ġh ad
ar ch
) :
-------- --------
ĠĠĠĠĠĠĠĠĠĠĠĠĠĠĠĠ ĠĠĠĠĠĠĠ
I D
at ure
g r
" );
m s
p on
ĠĠĠĠĠĠĠĠ ĠĠĠĠĠ
} ,
an c
um ent
Ġbe en
as k
ĠH e
ĠâĢ ľ
Ġtr ue
urre nt
as h
if i
y p
u es
Ġan y
o se
Ġab out
T r
ption s
c ess
d ata
Ġit s
or g
Ġin ter
Ġ err
Ġs up
y le
V alue
c o
he d
Ġc re
at ive
av a
qu ire
Ġ und
A L
D ata
Ġa d
b ack
} }
r ight
Ġcom m
Ġres ult
is e
E N
t em
Ġa p
Ġel se
Ġl i
Con t
ĠâĢ ĵ
Ġy ear
cc ess
on s
1 1
Ġor g
// //
C ol
o f
ad e
id th
ĠTh is
Ġof f
f ile
ire ct
y m
pert y
n b
eng th
Ġ )
ation al
Ġa pp
li ent
==== ====
y s
on d
u le
T o
p os
ĠC om
Ġre c
Ġint o
Ġ/ **
ut h
S S
m in
Ġin st
Ġn o
c a
Ġpl ay
" )
^ {
Ġs ub
con d
v alue
ou g
Ġstr ing
Ġon ly
ar get
S et
1 5
at ing
o le
} \
u ff
Ġv al
nb sp
Ġt est
Ġt e
v e
op le
p x
Ġ --
ĠP ro
Ġp e
w ork
am ple
ĠĠĠĠ ĠĠ
Ġ use
n er
t he
Ex ception
Ġth ere
rap h
Ġe v
ĠĠĠĠĠĠĠĠĠĠĠĠĠĠĠĠ ĠĠĠĠĠĠĠĠĠĠĠĠĠĠĠĠ
l og
Ġa ct
Ġt wo
Ġw ould
Ġy our
d ate
Ġre g
E rr
w w
Ġ em
od y
Ġb ack
le ction
ro id
t a
Ġin d
Ġf inal
Ġth an
Ġs pec
re am
n ew
Ġin clud
it s
ag es
loc ation
i ous
( $
b le
] ;
.. .
Ġf ile
e e
Ġ// /
tern al
Ġst atic
ĠA r
v iew
t est
} $
Ġ& &
Ġs ome
n ing
in s
3 2
Ġs c
O bject
ut ion
as ed
ul ar
a ction
et a
m ary
at us
Ġl oc
Ġ! =
p re
Ġ qu
it ed
ĠS tring
o y
b r
C T
Ġtr ans
id er
b ar
D E
is hed
Ġf il
in ed
T est
R ef
d er
2 5
ib le
Ġs he
w ard
er n
eg in
G et
Ġ %
ug h
() .
Ġb et
Ġ x
' ]
Ġs a
l and
Ġa fter
I T
' )
t s
it em
Ġk n
1 4
il ity
Ġl ist
Ġre m
Ġch ar
A t
p s
() );
Ġfor m
Ġpr ivate
ol og
âĢ ĵ
are nt
ic es
em ent
Ġc ase
ĠN ew
r c
he ck
ĠT r
s ize
ol low
Ġo ur
Ġund er
S E
1 3
an k
Ġus ed
it ies
1 7
Ġ ent
n ot
ev el
19 9
Ġwh ere
K ey
Err or
l abel
Ġthe m
Ġd ec
et er
or ld
ment s
l ink
b e
al ly
Ġpro v
res ent
Ġm ay
( \
M E
pl ay
Ġb o
. _
A N
Ġthe n
ĠC on
Ġf e
p ress
b egin
t ing
l ist
Ġm y
F ile
p en
c ent
I m
V iew
ĠE x
Ġo b
ro ll
enc es
ro l
U n
le ft
E n
ĠĠĠĠ Ċ
ĠS h
a ir
ind ow
et s
' t
[ '
um n
an ag
B y
f ace
iv ers
s ub
C lass
Ġli ke
p ublic
re d
Q u
" ;
r u
ro ugh
sum mary
ar r
Ġ key
ĉĉĉĉ ĉ
"> </
Ġst art
Ġpe ople
ou n
. </
s cript
l er
f or
C O
1 00
Ġa m
ind ex
Ġp ol
I nd
al s
ow er
Ġsh ould
il y
n av
a z
3 0
Ġo bject
Ġc o
g er
if y
ord er
str uct
ar s
Ġre l
re n
an y
Ġd if
' );
w n
Ġn umber
p ace
ur ing
ut il
ĠA n
ĠA l
j s
t tp
lo ad
iz ed
in ce
m od
Ġa c
ur l
Ġin v
v el
g o
mer ic
le t
H e
b y
ep end
() ,
f unction
ĠR e
in es
o ot
S h
Ġf ollow
Ġj ust
is ion
cri ption
U L
Ġs er
in ter
ist s
f ield
s c
r ite
oc ument
Ġg r
Ġne ed
Ġsh ow
i ent
o ss
=" ../../
Ġc all
Ġp h
ot t
t ime
we en
Ġwh at
Ġg ener
t op
as on
re ak
! --
oug h
uff er
t il
Ġ/ >
Ġh im
iv er
Ġm ethod
l ay
] ,
R O
l ang
a h
qu ot
A n
Ġm od
Ġpro du
im es
Ġh ow
v oid
at t
oth er
Ġcon s
Ġm ost
a pt
con st
tr y
Ġth rough
ack age
Ġsu ch
I ON
p ar
Ġsa id
Ġe ver
T ime
} )
or n
g roup
m e
A r
f ore
re g
Ġd ist
d is
Ġ ext
Ġt itle
" :
ce pt
os ition
Ġl ong
ĠS e
5 0
re at
f ul
E vent
y n
ifi ed
Re quest
Ġa cc
ĠW e
Ġd r
p ath
ou se
lo b
6 4
Ġar g
o ad
Ġr un
] .
op y
oc i
_{ \
Ġass ert
P E
og le
t able
L A
/ *
T ext
Ġre quire
us h
en se
ch ool
ur ation
Ġo per
i k
com m
Ġre ad
Ġ );
us er
m d
ĠI f
=" +
} {
Ġf ield
id ent
if e
Ġh igh
ist er
c es
N ode
2 2
form ation
A dd
ess ion
o od
` `
Ġbet ween
Ġh and
## ##
Ġst ud
Ġp aram
ain s
In fo
Ġ ?
P ath
Ġm in
ut ton
evel op
ers on
Ġthe se
E lement
Ġth row
' :
Ġc urrent
w h
Ġag ain
Ġp oint
T E
Ġ ed
g round
O n
I nt
Ġre sp
Ġs ign
ot e
Ġb r
F or
Ġ Z
Ġr ight
w ay
trib ute
e qu
un c
() )
Con fig
f l
ect or
Ġg roup
P aram
ole an
Ġc al
t ed
al e
/ **
ant s
m an
Ġs ystem
ed ia
Ġf ound
are d
o h
I tem
" "
Ġf l
iz ation
00 0
m all
T R
ĠC ol
ra w
Ġse e
u i
ĠF or
2 4
Ġus ing
Ġd et
Ind ex
Ġs im
Ġg iv
Con text
Ġre p
ate g
M ap
$ .
r ide
Ġw ell
A C
F ield
Ġdif fer
in clud
Ġc ould
ect ed
Ġex pect
h er
Ġyear s
Ġwh ile
e q
I C
ain er
Ġre quest
ames pace
con fig
ĠA meric
enc y
l p
Ġbe fore
Ġst ate
Ġn ow
on se
it or
u ch
Ġm ake
re m
w ord
ĠA s
it ial
st ance
Ref er
fr ac
ap i
Ġdo es
gr am
A s
Ġe ach
c le
r ic
Ġc or
Ġ X
c ed
l ength
Ġsup port
St ate
19 8
Ġ/ *
D ef
Ġf r
uild er
E qual
P I
a j
Ġerr or
Ġbe ing
Ġs ize
ĠĠĠĠĠĠĠĠĠĠĠĠĠĠĠĠ ĠĠĠĠĠĠĠĠĠĠĠ
Ġm odel
b ers
Ġ( !
ĠW h
col or
d es
anag er
Ġ import
C ode
W ith
ĠI nd
Ġp ass
ok en
O ver
U R
http s
$ ,
F orm
Ġs ame
w idth
Ġ-- >
t t
ar n
d ay
S ervice
lo se
at s
ap ache
e ver
Ġdef ault
m p
Ġ Q
D es
******** ********
yp es
ir t
Ġl ast
Ġe ff
us s
d t
S ize
Ġd irect
' ;
ivers ity
uth or
ust om
Ġcom ple
A rray
t itle
tr ue
o x
Ġe vent
ĠR es
3 3
2 1
i er
Ġ} );
is m
se arch
pt y
N ot
m ap
ath er
Ġa rray
or th
} ;
ob ject
ne ction
re sp
Ġc ent
ain t
ag s
Ġar t
ass ert
y nc
a it
Ġd id
Ġever y
ure s
r on
pro t
O r
Ġat t
ĠI s
ca use
en u
et work
Ġ} ,
am b
res ult
//// ////
Ġse cond
l ish
b lock
4 0
ro p
Ġman y
A l
sh ip
m it
Ġh ttp
lic ation
Ã ©
ign ed
ic on
= '
in put
[ ]
Ġa ut
u f
b s
. "
Ġbe cause
bo x
Ġcont ent
et ers
port s
o ff
Res ult
ĠA nd
e k
pon ent
Ġe lement
H and
end s
val id
ĠF r
Ġm em
il ter
al k
Ġkn ow
Ġ u
Ġm on
et urn
m odel
Ġw rit
Ġs ur
pl ate
m y
err or
M essage
cre ate
F F
ou th
Ġl ink
ical ly
Ġt arget
f rom
Ġpro cess
Ġs ol
A D
b all
w it
a f
ev ice
p i
Ġb el
it er
ar m
Ġm ade
Ġt ext
able d
Ġus er
ens ion
n ode
over n
ut es
Ġ z
olog y
ĠS c
L O
am ily
ro ss
id d
Ġs erv
and roid
Ġb oth
O f
S ystem
an e
r m
i ence
I G
U T
g t
Ġf ind
f in
le ss
Th is
Ġl ook
="../../ ../../
+ +
ain ing
Ġev en
F r
Ġp ar
Ġl og
iv ed
ri b
l t
} .
b f
ĠD e
Ġe st
b ody
ur s
ing le
2 3
in fo
Ġj ava
lo at
IN G
iss ion
19 7
iv es
Ġch ild
ĠS ystem
Ġte am
> &
âĢ ľ
, \
; &
V al
Ġc heck
Ġpro t
t en
Ġ: =
Ġd own
def ault
j ava
u ck
I s
ww w
Ġw ay
6 0
Ġto p
lob al
Ġd uring
H E
Ġo wn
ual ly
ot s
re ate
ak ing
ist ory
he ad
M odel
n ext
re c
c ite
d a
ph a
Ġre le
v ersion
ar i
ĠO n
ur y
Ġth ree
arr ay
Ġs rc
Ġm ust
L oc
ĠL e
Ġg u
Ġb uild
ile d
u c
ail s
ĠP h
el s
in a
Ġb l
Ġin formation
cont ent
M A
Ġd evelop
Ġcon fig
st art
ĠC l
T able
i ev
com p
---------------- ----------------
Ġdiffer ent
m b
Ġtr y
W e
al th
Ġv ery
O ut
ch n
L og
co pe
Ġv is
ain ed
Ġstr uct
Ġb reak
Ġh ere
ĠG et
Ġgiv en
Ġm ov
Ġ_ _
. âĢĿ
us ic
A ll
se ction
Ġor der
Ġcre ate
ĠY ou
Ġ= ==
pon se
M anager
I S
as es
ĠP r
s ide
A pp
includ e
p oint
M L
i ed
Ġre f
Ġt em
n et
Ġper form
Ġo pen
Qu ery
ur al
UL L
ele te
Ġw ant
o ption
Ġn on
ĠĠĠĠĠĠĠĠ ĠĠ
Ġloc al
ou ble
S er
ver t
Ġc ode
Ġcont in
pert ies
def ine
E T
en ame
U p
us ing
ig inal
b ol
p ackage
ast er
our ces
. ,
Ġst yle
m ed
Ġle ft
Ġn ext
nd er
it al
ific ation
E D
======== ========
act ory
U ser
Ġall ow
Ġw orld
c ss
Refer ences
Ġp ath
Ġfollow ing
2 7
Ġd on
t ings
b ase
Col or
ĠA ss
Ġb lock
ĉĉĉĉ ĉĉ
b b
math cal
t es
ac es
od es
Ġv ersion
st ate
Ġrec ord
u k
in ess
ĠUn iversity
Ġdis c
Ġ} ;
f alse
20 19
2 8
con text
re t
Ġm ark
m ethod
Pro perty
Ð °
W h
u age
roll er
G roup
Ġap pro
In ter
U N
T D
Ġex p
l ing
end er
t n
ent ial
oh n
i um
w eb
equ ation
go ogle
w are
Ġpart ic
M P
ak es
Ġn il
ĠO r
Ġin put
F rom
ĠM ar
Ġm at
ma x
A B
eb ug
um er
id es
o in
Ġth ose
Ġbe g
el ta
ĠS he
p art
ist r
Ġhe lp
ef ore
Ġcon text
=" ../
en e
ail able
n ess
; </
R eg
ar ly
P l
Ġm et
act er
Ġn ode
lic k
Ġv iew
tr act
Ġa v
ur ity
d b
i or
Ġc oun
Ġre ce
pl ace
v ious
Ð ¾
Ġinst ance
EN T
ott om
l ight
ĠĠĠĠĠĠĠĠ ĠĠĠĠ
iv ing
O T
Ġp op
2 6
ic y
ym bol
a ut
Ġit em
Ġb ool
s w
im it
=" #
Ġgo od
Ġc ar
c ore
Com m
N ew
og raph
d own
E S
C lient
A nd
ition s
Ġm uch
Ġb ase
Ġp ost
) $
d oc
cal e
Ġind ex
n o
ĠAmeric an
C ount
Res ponse
Ġc r
2 9
Ġhe ad
Ġle ad
ele ct
if t
Ġre al
} (
O D
> (
Ġb ro
ifi er
Ġle t
id ed
Ġst d
press ion
Ġo ptions
n s
C all
um e
ĠA d
Tr ans
in ation
um p
Over ride
c ount
} _
b l
le y
ĠG r
Ġvar i
st atic
l ished
Ġc le
it t
ction s
che s
Ar g
Ġp osition
ĠE ng
Ġc a
on y
I L
Ġt erm
n amespace
Ġagain st
ith ub
s erv
s k
D is
che ck
Ġle vel
) </
and s
Ġth ink
Ġg ame
com e
Ġval ues
Ġpro ject
p or
ev ent
al pha
s up
Ġs ince
a pe
ir on
ref er
eg er
Ġ Ð
Ġst ill
du ct
A S
Ġo ld
lect ed
Ġinclud ing
c all
ear ch
pr int
us iness
B uilder
ĠA t
che d
irt ual
Ġcomm un
om en
ĠUn ited
ĠM ay
P r
Ġs om
8 0
Ġpl ace
Ġt able
Ġm ax
9 9
Ġcal led
Ġo p
St ream
ĠA ll
ĠB r
b ed
iv ity
M ethod
ir d
A ME
" .
ar ge
Ġf in
âĢ ¦
Ġd ep
ide o
C E
< !--
g ithub
Ġs ource
il t
} ^
arg in
6 6
ul ation
al ign
Ġap pe
ict ion
ou nc
un e
M od
ab ility
201 8
Ġm essage
oc us
ĠS et
Ġpro gram
201 7
Ġp at
r al
\ \
c ast
ĠP l
u ro
Ġp erson
T H
C l
Ġt ake
I t
am ed
Ð µ
a i
201 6
ĠâĢ Ķ
ĠĠ Ċ
orm al
201 5
Ġand roid
f unc
Ġcol or
Ġ( )
Ġm ult
o ptions
B ar
f e
b utton
Ġb ook
Ġex ample
ic le
Ġfe ature
U S
] )
Ġa round
In put
st yle
Ġresp onse
Ġd el
um ents
4 5
Ġp oss
pl oy
Ġl ife
ĠH ow
Ġf act
s l
~ \
u str
Ġ ,
Ġadd ress
Ġre t
ĠL ist
ri x
ition al
U til
qu ery
u les
Ġex per
ĠCom m
q l
an sp
I P
ĠJ an
et y
D ate
u x
se e
P h
Im age
m et
n ull
re quest
A d
at ab
Ġch ang
Ġs mall
R ec
] (
Ġeff ect
Ġs chool
amb da
im age
Ġin cre
St atus
Ġre fer
ĠĠĠĠĠĠĠĠĠĠĠĠĠĠĠĠ ĠĠĠĠĠĠĠĠĠĠĠĠĠĠĠ
ater ial
c lient
end ed
w ays
c urrent
Ġim p
g y
ple ment
ann el
av ing
ore d
p an
li b
se c
ON T
Ġd ay
Ġf our
Ġwith out
B lock
ol v
d e
Y PE
Ġm ap
in it
ĠI m
ĠĠĠĠĠĠĠĠĠĠĠĠĠĠĠĠ Ġ
Ġs ervice
Ġp resent
ph p
S ub
en n
Ġ enc
ĠN ULL
tern ational
201 4
v iron
iv ely
read y
Ġd ocument
T oken
r ist
C ell
ĠU S
ĠB l
c d
arg s
Ġ ->
Ġp res
Ġl a
d ir
ĠJ ohn
Ġc our
ou d
is ed
Ġback ground
ĠC an
\ !
Ġs k
Ġb order
Ġa ccess
ac y
Ġ< <
A ss
n ect
Ġre port
Ġm ain
5 5
L ay
or ies
Ġbe st
P ar
overn ment
g ress
Ġcons ider
E nd
C H
= \
I R
Ġsu ccess
S tr
In stance
w ith
G ener
Ġid ent
fin ished
o ke
Ġb ased
Ġbo olean
( (
Ġex pl
B e
che ma
N o
h and
Ġcon f
anc es
ib r
Ġc are
ix ed
Ġs ec
Ġpro perty
Ġl ater
N ull
ug ht
Ġcon d
A ct
Ġan other
Ġman ag
ser ver
Ġt ri
0 1
Ġw idth
Ġ ke
i que
Ġ" ""
add ing
ĠB ut
Ġcont rol
t x
ur ch
r un
Ġp ower
Ġis s
N av
ĠC ent
Ġdes cri
ire d
ĠT o
201 3
, âĢĿ
00 00
id get
end ing
Ġresult s
ĠĠĠĠĠĠĠĠ ĠĠĠĠĊ
ep s
and ard
in c
E d
ĠC ar
Ġfil m
Ġch ange
Ġm atch
ĠâĢ ĺ
j av
ĠThe y
ĠP ol
Ġwe ek
A ction
Ġc ount
ir c
ad i
Com ponent
o op
e ad
old er
Ġse ason
or age
) \
at ely
Ġf a
Ġrep resent
C K
un finished
Ġwith in
a ff
th s
3 5
Ġp o
O L
RE F
L ine
ĠR eg
str u
Ġout put
t ab
B ase
O ff
Ġo cc
he s
Ġp arent
Ġf amily
ug in
Ġkn own
Ġin itial
d l
h as
O ptions
Ġin s
N S
iv al
m ember
3 4
le x
Ex ternal
Ġan n
Ġser ies
R un
ad ata
Ġlink s
Ġs ay
er ing
Hand ler
Ġm ed
O P
ĠE n
Ġf oot
rit er
E X
ic ro
Ġav ailable
Ġorg an
S ource
ĠJ ul
ug g
m u
[ "
Ġa ction
Ġl aw
y les
A P
ord s
Ġp age
d om
Ð ¸
ĠN ov
our n
am ma
atab ase
At tribute
ĠSt ates
e qual
ĠB e
er o
row s
he ader
he ight
Ġs ingle
a im
p tr
Ġ+ =
u ary
ang uage
ot o
cre en
( {
B uffer
Ġinclud e
ator s
ic ense
is on
ch o
fr ame
l s
Ġun til
3 9
Â ł
t arget
pro v
ut ure
wit ch
al t
oc ial
Ġe qu
20 20
le g
D ec
p age
Ġ( $
aj or
app end
S c
O S
act ive
Ġbe h
Ġc ell
ĠT e
se mb
Res ource
201 2
ĠW orld
I f
tr a
un k
ure d
O per
E L
eg a
viron ment
Ġad v
i od
al y
Cont ent
p arent
ĠN o
ĠT est
sp ace
Ġse ver
pro perty
Ġor iginal
Ġc ap
v en
j son
Ġplay ers
ec ut
o pt
Ġr ange
ord ing
T ask
b um
x y
ot ype
ĉ Ċ
Ġh app
E m
Ġf ull
Ġpro ble
il li
Ġd i
ĠA dd
Ġle g
S P
ĠĠĠĠĠĠĠĠ Ċ
ch ild
Ġ et
E E
ith er
Ġ es
ward s
und le
l in
se lect
x ml
ĠP ar
L ink
Com p
A G
un g
S elect
Ġd em
H el
ĠO ct
3 7
LA SS
ar ning
Ġm usic
b ook
b tn
ol ution
Ġte chn
Ġp ub
V ersion
ĠC al
W indow
s rc
F unction
ĠG u
b uild
it ive
pec ial
Def ault
st atus
ent ly
St yle
Ġto o
ĠN ational
um an
Ġval id
Ñ Ĥ
F actory
3 1
Ġh ome
pos ition
Form at
ĠI N
ĠĠĠĠĠĠĠĠ ĠĠĠĠĠĠ
d o
H T
Ġs pe
U E
St art
Ġb u
f low
ill ion
trib utes
at form
âĢ Ķ
Ġ eng
Ġf ore
iz er
201 1
Ġ$ (
ache d
F A
ĠC ount
oug ht
b it
Tr ue
ib ility
Ġw in
P oint
F l
ig ma
ele ment
Ġt urn
s g
p ost
AT E
c er
ĠE d
9 0
Ġex ist
D O
201 0
r l
ag ue
nav bar
re en
d ec
r am
ial og
* /
ic a
ig ation
ic ial
Ġc lient
Ġsup er
4 4
Ġim age
, "
ĠA ug
Ġto t
Fr ame
Ġinter est
ĠI nt
itt le
Ġare a
3 8
ĠS chool
ĠM in
Ġf ew
op en
V ER
ĠY ork
ĠS p
Ġp ort
ateg ory
3 6
w rite
Ġp ut
c ase
ĠO bject
Pro v
Ġal ready
19 6
S C
row ser
ĠG e
ra ft
" ]
_ \
f irst
our s
math bb
re quire
Ġdis play
Ġ{ @
Ġexpect ed
al es
Ġpol it
ĠW est
Ġsh ort
re l
oc ol
er a
Ġs l
ĠR eturn
im ary
Ġthrow s
it es
and om
ĠSt ate
in ition
} _{
Ð ½
ĠC ont
Ġprot ected
end if
ĠC o
Ġpro m
m ber
Ġn ear
m at
Ġo pt
i ans
p ush
Ġal ong
im g
im um
Re ad
mod ule
Ġ Â
al f
Ġs ays
res h
p y
Ġst at
ĠS outh
} );
Ġrequire d
th ing
) {
he ther
Ġgo ing
Ġ\ \
N umber
ap s
Ġres ource
7 5
m o
e ction
us ed
al ys
ne y
Ġs um
Ġdist rib
ch ar
h ost
ĠR ep
des cription
st it
m eta
b ottom
o ber
f ind
- \
Ġre ally
re ct
om an
Ġb usiness
pr ivate
ĠJan uary
le m
Ġn etwork
ĠN one
k s
ust er
R ow
U s
in ary
d r
um b
\! \!
l ast
L abel
Ġchar acter
Ġpr int
im al
im ate
P ol
n own
P RO
ur ther
os ed
T O
ap er
ĠTh ere
Ġne ver
C reate
ip le
Ġg reat
ĠS o
I M
Comm and
h ip
n ow
ĠA pr
Ġs ide
F ONT
( &
st ream
4 8
} ^{
ĠW ar
m ark
op s
le ase
C heck
pect ed
$ \
on es
ĠD r
Ġass oci
A M
s igned
g ing
eth ing
Ġv ol
P art
Ġpre vious
Equal s
Ġl oad
Ġf ree
f ont
Ġl arge
ent ion
pt ember
ĠS up
Ġh ost
F I
Ġcom put
Ġl abel
R ep
st d
F ilter
ag n
ac ed
o ice
Ġre st
Ġdes ign
so le
im ation
B utton
ĠG o
ĠG ener
AB LE
ri or
Ġcomm and
ĠB y
ight s
ent ry
ustr al
a u
stru ction
Ġsp ace
able s
ĠM arch
Ġo ption
P age
R eturn
Ġb as
Ġchild ren
ob j
Ġprodu ct
uro pe
G L
$ {
form at
Ġ( (
as cript
p ack
u ed
ĠD es
Ġr a
Ġinv est
ĠB o
Ġcomp any
7 0
str ong
ab ly
Ġl ength
#### ####
z e
IN T
Ġ url
Ġn um
Ġal ways
Ġd est
Ġs ong
ph i
Ġc ert
Ġest ab
le ge
p ol
l ambda
Ġc ustom
Ġa ff
g ed
bo ard
erm an
19 5
Ġle ss
am ent
Ġmem bers
C C
Ġd epend
ĠCh rist
Ñ Ģ
U M
ĠB rit
lay out
Ġro le
Ġpro f
ĠC lass
he et
p c
Ġ quest
p m
loc al
Ġsever al
G r
Cont roller
Ch ild
Ġp ay
// /
ad a
ĠP art
ĉĉĉĉ ĉĉĉĉ
B U
Ġb ody
ig ger
Ġw indow
m enu
Out put
semb ly
^ {\
ĠC ity
at tr
r t
ock et
op er
m em
List ener
h o
Ġt yp
M et
ce mber
Ġw on
Ġde ath
ĠN ot
dis play
g ener
st er
a e
b eta
Ġtot al
Ġ{ \
ĠA b
ut ed
str act
ĠS er
if f
Ġext ends
Ġm ove
app ing
g le
S ON
Ġhe ight
U I
l a
//////// ////////
T YPE
cent er
up date
if act
p ng
ĠCount y
an ch
ĠOct ober
Ex t
resp onse
Ġm argin
Col umn
o o
om ic
Ġal bum
Ġc atch
" ).
l en
Ġst atus
on ly
Ġa uthor
Ġm ight
ĠD ef
0 5
c lose
alys is
pro ject
Ġcol umn
am a
an a
id s
m t
Ġd ue
param s
L ast
ac ing
Ġc ity
L ength
N O
Ġab ove
Ġm ar
Ġg overnment
ĠN orth
ĠJ une
Ġcomp on
f ilter
Ġtr ack
Ġd iv
ĠAug ust
st and
il ar
cont ainer
Ġc opy
ĠSe ptember
s ervice
ĠA ir
Ġme as
th ers
y nt
c ell
Ġ< !--
ist or
li ed
d f
ĠJul y
W eb
re w
Ġe arly
al let
ut ions
yn am
v is
ĠD is
ĠH REF
d ev
ud io
< ?
v ers
il er
ef f
ĠC LASS
d epend
S up
UR L
y l
p o
ur g
" ),
ar row
ĠApr il
s ol
in st
old s
n um
Ġst ory
ref ix
Ġbet ter
il it
Ġt imes
200 9
am l
Val id
jav ascript
P re
c ame
Ġh istory
wh ere
' ).
Ġm ajor
Ġa rr
ĠA pp
Col lection
ĠW ith
el ine
B ox
idd en
Ð¾ Ð
h am
is ing
om et
Ġup date
apt er
F irst
Ġw omen
ch ange
ft ware
Ġposs ible
od ing
e ed
ĠF eb
Ġacc ount
Ġd om
Add ress
ĠM an
Ġspec ial
Ġ čĊ
M ode
ud e
Ġbe came
im ent
ĠW hen
ĠM c
k en
Ġse em
Ġf ri
Ġ ide
er al
it ory
Ġb ound
ER R
Ġg l
Ġl ate
i ke
ER T
Ġme an
`` `
Ġfoot ball
Ã ¡
Ch ar
re et
_ .
li p
0 8
struct or
Ġcre ated
Lay out
d et
ig r
rem ove
ĉ ĠĠĠ
re st
Ġd one
B ack
ro du
T em
Ġe lect
id ge
ir m
ĠNov ember
Ġf re
Ġdef ined
200 8
st yles
I O
in stance
ist ry
ef ined
Ġsom ething
CO L
ĠE urope
Ġm ember
ĠR ec
Ġaut o
Ġle ast
T P
Ġreg ion
Ġspec ified
~ ~
Ġe ither
ĠHow ever
A b
nt ity
C ON
Ġgener al
ic ation
ĠF l
Ġg row
Ġre search
Ġt ask
N D
u ccess
Ġp os
Ġ ]
er ed
ar ing
ĠDe cember
Ġev ents
ansp ort
C ache
Ġf ont
Ġform at
B undle
ang le
: </
Ġa nt
Ġb ir
resp ond
h at
ibr ary
M S
ĠA ct
I Z
ard s
A ut
Ġg ot
n a
Ġc ur
ou ch
ann ot
ip p
Ġj ob
0 7
Ġd ate
ĠA ustral
prot otype
pos ed
ĠD o
Ġcon nection
Ġser ver
ĠI D
) }
u id
Ġl ay
id ual
Ġimport ant
g en
ĠĠĠĠĠĠĠĠĠĠĠĠĠĠĠĠ ĠĠĠĠĠĠĠĠĠĠĠĠĠĠĠĠĠĠĠ
Ġs ite
Ġh ard
Ġim plement
Ġc over
ry pt
D et
off set
Ġse arch
Ġ[ ]
eg r
idd le
S pec
Ġob t
Off set
Ġpartic ular
**************** ****************
> >
Ġpoint s
M em
Ġ qual
ep ar
t ag
4 7
ĠM e
math bf
so ft
Ġb it
cl us
il on
Ġd ouble
Ġmod ule
Ġke ep
at al
U rl
4 9
in o
Ġcall back
Ġe as
refer ence
Ġw hether
Ġc amp
am il
og n
et ing
Ñ ģ
Up date
n umber
Ġb ig
sh ow
ens or
Ġl ight
ro y
N AME
0 6
ĠH T
Ġl arg
out put
ĠO ff
Ġ( \
p ass
c an
Ser ver
Ġ ...
fo ot
Ġcom e
p ly
Ġstud y
++ )
pro cess
Ġparam eter
Prov ider
ad io
s i
ru ary
ĠE X
ĠR ob
Ġh o
Ġm edia
0 2
ac ity
Ġw ater
ĠV al
Ġhe alth
ĠU p
Ġfor mer
art ment
s igma
ele g
Ġc lose
ĠC or
Ġl ow
Ġper iod
Ġin ternal
k it
ĠA PI
v ision
m on
c ul
av es
t ool
Ġth ings
un it
return s
4 6
m ar
ri ed
c or
ild e
Ġprov ided
ang ed
Ġl ittle
amp ion
el se
op h
Ġw rite
p ose
( _
u ation
Ġ! ==
w ise
ult ure
D B
P er
s d
one y
Ġcom b
Ġre du
math rm
Ġd ays
ĠR ev
d ict
se qu
Ġa ir
V is
Ġdet erm
Ġg lobal
cript or
Ġob serv
c el
Ġcoun try
b ig
util s
() ->
Ġto ok
Ġc ost
ĠF ile
R em
ak en
Ġpro b
T arget
v es
Ġn one
ist ic
ĠO F
ograph y
u int
W idth
w indow
at ter
A ccess
Ġres pect
un ch
T ypes
Ġf ar
0 9
Y ou
Ġprov ide
200 7
tem pt
comm on
Ġfr ame
d elta
a ul
Ġon ce
he l
ã ģ
iev e
0 4
col umn
a use
Ġob j
Ġal ign
ĠB ar
Ġrele ased
g l
r s
ĠAr t
sup port
Ġu int
L I
: "
par se
ad em
M ax
i ol
Ġh aving
Ġfile s
le vel
Ġl anguage
Ġs ent
ĠL icense
ri es
ther n
) (
Ġdoes n
s mall
Ġas k
r ing
CO DE
ap an
M in
ĠP res
action s
A cc
s cope
Ġs ure
ot ion
Ġrece ived
d at
Param eter
p is
m ost
Ġinter face
P C
ire ction
Ġst op
Ġc he
ourn al
s m
Ġme ans
T ag
Ġn av
cle ar
Ġf ail
qu ad
Ġv er
ĠTh at
ĠCh ar
ĠCom p
tem plate
Ġs m
Ġind ic
Ġparam eters
Ġp ot
Ġh ouse
Ġst ream
olv ed
Ġhttp s
Ġadd ed
Ġd ev
t ask
b ind
s im
En try
id ence
à ¤
4 2
ĠO ne
ĠA fter
AT ION
b ool
ĠI I
rap per
ugg est
Ġstr ong
Ġ q
Ġplay ed
ĠM y
Ġm iss
S ec
ĠK ing
] );
Ġre d
Ġ* *
Ġs it
20 00
am s
200 6
* }
y ear
0 3
m ain
an el
Ġcle ar
Ġac ross
Ġof ten
UL T
d ep
f inal
Ġof fer
ĠH igh
Pro cess
ĠFeb ruary
raph ics
Ġa way
i ef
Ġcommun ity
Ġqu ery
ov ed
S ee
U P
Ġv ideo
Ġab le
ĠP er
i et
Ġst andard
Ġproble m
ond on
g es
ex p
Ġl and
ĉĉĉĉ ĉĉĉ
+ \
6 7
Ġm aking
ĠD av
Ġse ction
="../../../../ ../
Util s
Ġse lect
Ġwork ing
Ġarg s
Config uration
Ġg ames
ig in
Ġg en
Ġk ind
ess ages
A A
c s
Cont rol
O pen
Ġin it
Ġcomp et
Ġd eb
ĠT ype
Ġto get
ĠD ata
I V
Ġyou ng
Ġpr act
g or
Ġbe come
ĠG L
Ġm ass
ens ure
Ġbeg in
Ġl en
ĠM ed
' '
Ġtoget her
ab or
f a
ĠM on
t y
=" -
Ġcl aim
g amma
Ġdevelop ment
Ġe qual
Ġ ener
T ree
Cont ainer
Ġre lation
med i
Ġf ive
ĠS tr
Ġp erm
Ġelement s
C ase
Ġf und
E ntity
ĠE m
Ġre view
i j
Ġapp lication
th ough
cont rol
.. ..
Ġreturn ed
Inter face
ill s
Ġf loat
Ġs w
Ġth ird
T op
D r
Con nection
Ġsim ilar
b uffer
Ġs ocial
c ache
ĠA rray
av en
Ġspec ific
Ġg ive
str ap
il le
Ġp ast
Ġb uffer
Ġin div
Ġm er
N ext
art ifact
Ġfil ter
li es
Ġreturn s
is es
A PI
ec ute
K E
^{ -
m atch
f loat
S e
W rite
Ġcol lection
Ġfe el
Ġf uture
ing ton
Ġth ough
W ork
" ))
8 8
ĠH is
; ->
ct x
Ġoff set
ound s
P osition
Ġam ong
Ġm en
w ait
ã ĥ
' ),
Ġh uman
P O
Ġinst all
Ġli k
l ong
Th read
A V
Ġv ia
Ġ Qu
Ġa ge
ĠR uss
L oad
O b
He ader
s pec
Ġcontin ue
Ġcon c
Ġserv ices
ex ample
ens ions
ce ed
k nown
ĠA fr
ĠIn ter
fer ence
Q L
} {\
Ã ³
ĠThe se
' re
( [
l im
Ġed uc
b a
Ġ row
R ange
ĠReturn s
Ġoper ation
Ġl ove
Ġs at
ĠP ark
Ġs ix
ol ve
Ġn amed
Ġc ame
6 5
ro ot
Loc ation
Ġt ell
L evel
ĠB ro
ĠA m
Ġ{ }
Ġf urther
. /
Ġm ag
Ġm illion
at tern
em ents
i i
bo ot
i ents
lay er
Ġst ore
l ate
Ġstart ed
sh ould
ST R
Ġchang es
ot al
or iz
He ight
n on
t yp
n ers
Ġpl an
Ġt ypes
Ġinst ead
que ue
Ġbel ow
e h
il ities
res ource
Ġinclud ed
Ġar ch
Ġt re
adi us
var i
H ttp
B o
h ib
av el
Ġse en
. $
enc ies
Ġl ot
] [
Ġto wn
Call back
ĠA g
S earch
D irect
ĠL a
ĠĠĠĠĠĠĠĠĠĠĠĠĠĠĠĠ ĠĠĠĠĠ
Ġdisc uss
h a
IG N
Un it
Ġhe ld
d ocument
ĠTr ans
Ġmethod s
it ing
O ne
t imes
ob ile
e ature
ĠBrit ish
Ġshow s
in ner
Ġatt ack
fig ure
y d
Ġen ough
ĠP e
Ġcol l
Ġl imit
Ġent ry
part ial
Ġindiv idual
^ \
a uthor
ĠAss ert
Ġf ac
T ER
ex pected
Mod ule
Ġbuild ing
ĠH ouse
S p
class es
V AL
Ġsign ific
gor ith
Ġ ::
ĠD ep
Ġn ational
ĠA p
n u
Ġbu ilt
Ġd evice
ĠS ec
t oken
Ġt alk
Ġplay er
Ġc rit
Ġm ode
t ml
t ree
IZ E
id ing
Ġac cept
d ated
un ity
="../../../../ ../../
E CT
ta u
Ġf ocus
Ġv irtual
ad es
Em pty
S cript
ĠL og
r is
ĠW eb
he nt
Ġn ec
ĠS im
Ġth ought
=" _
A fter
Th at
Ġoff icial
Ġpro perties
ef t
% ;
d raw
ĠL ondon
ĠM ark
ounc il
H O
Ġwh y
Ġloc ation
ord in
COL OR
ue st
em pty
le q
H ash
ak er
Ġperform ance
Ġs ample
Ġb en
ĉ Ġ
Ġm om
% %
Des cription
Ġ* )
> ,
ĠC reate
p atch
Ġwork s
Ġwrit ten
m m
ĠR em
et ch
7 7
Ġy et
ĠEng lish
O ption
artifact Id
ĠE ast
row n
ad ow
ren ch
Ġre ason
ms g
200 5
es e
Ġro ot
olog ical
Ġm aterial
ver age
as ing
J son
C L
che du
Ġwe bs
b order
Ġcor respond
ar ies
C opy
A g
ĠS ee
Ġd er
Ġt ele
Ġam ount
att le
ĠIn ternational
ĠH ar
ĠS w
lic it
O p
l it
ĠR ed
ev en
ĠS ub
Ġener gy
ver se
Ġdif f
AR T
Id ent
al ity
Ġs ing
N one
Ġfeature s
b reak
Ġo thers
Ġ[ '
ĠJ apan
Ġw ar
ĠA c
Ġe ar
pl it
icro soft
Ġassoci ated
P tr
Ġt w
Ġrem ove
th on
Ġs epar
Ġb and
Ġse qu
Ġbo x
o on
Ġn ormal
Ġtr ad
ol l
Ġin du
Ġbl ack
Ġstud ents
the ta
Set tings
S D
P ost
Ġcomm on
oc r
ĠCol lege
Ġl ive
] {
d evice
Param s
Ġfield s
m ult
Ser ial
Ġint rodu
Ġst ep
Ġm akes
Ġcare er
Con st
Ã Ń
c ap
f ord
9 5
ag ed
Ġen vironment
t im
Ġcour se
Ġfil ename
group Id
ec ution
Ġdid n
Ġt im
Ġd en
Ġto ol
Im pl
Ġph ys
iz ing
C D
Ġw ent
Ġh alf
C urrent
im ension
'] ,
d ebug
b or
ĠS ch
Ġcan not
ic les
AL L
en v
r ho
istr ation
Ġp adding
Ġover ride
Loc al
Ġb i
ly ing
I F
Ġsub ject
Ġeng ine
P ort
Ġrele ase
Ġat tribute
ag ing
$ -
Ġ> =
Ġrefer ence
k a
Ġv ert
lic e
B C
Ġbeg an
Ġb ar
() :
styles heet
Ġt ag
D elta
ĠW illi
at ural
con f
Ġ` `
Ġcert ain
file s
Ġem ploy
ĠM ich
in ternal
Ġex ception
b orn
" ));
T I
Ġcont ains
Ġdescri bed
D IR
S ession
Ġn ames
Ġdec l
ĠLe ague
m ut
Ġexper ience
act ers
ã Ĥ
U B
F ont
Ġpub lished
h ash
s ign
Ġd oc
M at
OR T
ĠG roup
Ġparam s
c m
4 3
o om
ĠD E
D ocument
Ġro und
Ġp ress
Ġf all
b in
li er
Ġx ml
Ġact iv
: (
Ġcomm it
u el
ĠS k
a el
Ġmult iple
================ ================
Pro ject
Nav Bar
urs or
Ġappe ar
Ġre nder
ĠA cc
ĠR E
oci ety
& #
Ġp ur
E nc
Pro t
Pro perties
Ġvar ious
Ġact ive
4 1
Ġs uggest
ig ure
gr ad
w s
Ġstruct ure
b efore
comm and
PE CT
ĠNew s
ĠAmeric a
ampion ship
Ġterm s
s v
O M
li ke
Ch ange
Ġpot ential
Wh at
val ues
Ġhand le
M enu
is k
P o
C o
d rop
Ġsuccess ful
Ġcent er
Ġto day
200 4
ilit ary
Ġse lected
iv en
Ġin f
Th ere
c r
Ġhapp en
Ġat tempt
ri ef
? :
AT A
ĠEx ception
ĠE l
od ed
c ard
D o
Ġmodel s
Ġ" \
anag ement
Ġe con
Ġgroup s
As ync
ile s
C P
Ġsh own
ĠU R
ĠR ef
5 00
Int eger
Ġsu ff
Ġun it
Ġrun ning
H ow
back ground
Ġsignific ant
al d
D e
Rec ord
tr ies
il led
r ics
n ap
ma z
ĠD on
S chema
Ġn eg
ic ip
| \
b ased
Ġp ack
eq ref
S H
and id
F O
{ {
8 5
In st
a ign
Ġc ross
. )
Ġresp ons
Ġth ing
Ġnew s
ĠC heck
ist ics
ĠH er
inter face
Ġunder stand
ic o
ic an
Ġem pty
mod al
Ġact ually
ug ins
ag ment
ĠPres ident
F alse
} (\
ĠPh il
x i
ip s
od er
k ind
Ġsh are
im ages
Oper ation
Ġn ight
Ġw ait
ĠS an
Ġc y
Ġloc ated
a ught
ĠB G
B r
ub e
cri be
model s
Ġpop ulation
ĠI r
Ġtem plate
d elete
Ġph ot
C R
Ġc ou
ach ine
ca ption
un t
A meric
Ġfunction s
Ġsur v
Ġag re
Ġin fo
Ġo pp
P e
g n
iz es
ĠC our
add ress
V ari
ĠO R
St ore
W hen
R ender
Ġfa iled
ex port
Ex pression
ri p
Ġl ower
Ġfil ms
a a
Par ser
H ost
ĠWh at
| -
Ġtrans form
Ġcl ub
ch an
Ġs end
a uth
Refer ence
Ġf ire
Ġro om
R el
Ġt aken
erv ices
Ġcom ment
Ġcompon ent
Ġ Ã
Ð° Ð
re nder
iss ions
Ġt reat
param eter
Ġvis it
AC K
St at
ĠO ut
w idget
M O
25 5
Ġcon trib
Ġquest ion
Ġreg ister
ur i
Ġl im
Ġneed s
Ġright s
S O
se cond
ca pe
c opy
D own
anc ed
V ector
ft y
ĠU s
Ġcomple x
if orn
Ġprodu ction
f s
ynt ax
fl u
pro p
ell ow
ĠS T
G e
air s
un n
ĠN S
j oin
ach ing
Ġc ases
oci ation
Hand le
AN D
C ore
N ames
Ġent ire
Ġsim ple
Hel per
Ġv ill
Param eters
erv e
iction ary
Ġf low
Ġs ort
Ġund efined
B l
Ġhas h
200 1
Ġdet ails
R A
Ġneed ed
ob uf
Ġcomple te
ic ient
ĠS m
av or
trans form
Ġde al
Ġd eg
ru pt
Ġhow ever
eleg ate
Ġs cope
Ġdes cription
ar a
est amp
ab s
ist ance
Ġex press
ERR OR
s end
y es
al le
ateg y
X X
Ġr ate
Ġad min
) ]
Ġarg uments
app ed
ur b
OR D
Ġsol id
ont al
s y
5 7
boot strap
j ust
Ġl iter
og gle
doc s
Ġb ad
erv ed
iforn ia
ĠD i
or ge
}$ .
ri a
ĠD em
Ġwebs ite
fo o
u a
M atch
Ġ ~
ĠN ame
Ġe lection
in fty
I ter
Ġh old
Ġ ;
Ġcor rect
web kit
P os
Ġr ather
Ġs cale
com ing
L eft
D ir
Ġcurrent ly
A pi
ĠBG COLOR
Ġex ecut
C an
ĉĉ Ċ
' >
ĠM ore
at ory
Ġacc ording
9 7
ol ume
S im
Ġ( "
ĠH ol
Ġc apt
Ġsystem s
c p
Ġf ace
D D
Ġd raw
Ġcond itions
av ior
I I
R ect
z z
6 8
Ġit er
P ass
ounc ed
Ġgr ad
om b
Or der
Ġd ig
am era
Ġw r
S ign
Ġg e
="../../ ../
Ġmark et
IN E
er efore
Ġn ov
a ur
sk ip
ma ke
}$ ,
ynam ic
Ġadd ition
M on
B O
istr ict
to String
ĠM od
s cale
as ic
ĠD ec
Ġex cept
ĠEX PECT
du c
Ġwh ite
ä ¸
Ġadd itional
D ebug
t ilde
Ġap i
Ġs ession
vent ion
epend ent
equal s
s q
ore m
Ġconfig uration
Ġapp lic
om ega
U se
Ġto ken
Ġestab lished
S k
c lick
in n
ang er
_ ;
Ġs witch
Ã ¤
Tem plate
G o
M y
Ġst ation
c ustom
In valid
ug e
str y
ple te
Ġnec ess
d est
G E
Ġfr ont
Ġmon th
pl ugin
Ġconsider ed
al led
Ġaut om
ul a
ĠS ervice
D evice
Ġpartic ip
ast ic
ĠL aw
m ode
st ack
ot a
us es
iv il
=" /
Ġwrit ing
( :
Met adata
T itle
ĠInd ia
it ect
K ind
Ex p
v as
ark s
Ġp rior
E ng
Ġobject s
h over
s ite
G ET
Ġpar se
ĠN or
L e
ĠSt ud
er g
Ġt ree
ĠO pen
Ġpol icy
ĠF irst
land s
H as
Ġchar acters
oriz ontal
s ession
s ystem
Ġ( '
ĠW ork
ĠF rom
Ġst ates
qu are
g lobal
Ġse lection
Ġinclud es
Ġc ache
oun ter
T im
j o
ĠC ON
Ġmon ths
ĠE rr
Ġn amespace
ang es
p op
ĠRe ad
Ġiss ue
E Q
v m
! !
St ack
el t
Ġan alysis
st ore
wit ter
C A
Ġinv oke
Ġin ternational
m edia
ind ing
gorith m
u it
P R
B A
ĠCent er
Ġpro p
Ġcomp an
Ġcre d
` .
200 3
## #
Ġj av
Ġp ers
Ġc ut
a id
as c
ĠP ort
Ã ¼
ĠM ap
re a
Ġth read
T ool
ud d
R ight
Ġm or
v ents
ix t
hand le
ell ing
Q ue
ĠP re
ĠDav id
Ġ ign
Ġpolit ical
ĠĠĠĠĠĠĠĠĠĠĠĠĠĠĠĠ ĠĠĠĠ
ick er
Ġcl os
Ġle arn
F eature
foot er
Ġwe b
or ing
af e
Ġf ight
L ong
U RE
5 8
Ġspec ies
m ing
Ġd elete
Ġs em
S o
Ġch o
Ġso ftware
Ġs on
( *
Ġg round
g reg
ĠT ime
Ġl ines
B ig
Ġpass ed
by te
> ();
i ation
ic ons
ank s
ĠGo ogle
Ġmem ory
Ġs s
He ad
Ġreport ed
Ġper cent
Ġh om
sp lit
9 8
h r
Ġc irc
t ypes
Ġhigh er
ĠT V
R ev
Ġs creen
Ġm oney
ĠE nd
at ives
Ġt ax
ul ly
Ġf lo
r ict
9 6
ĠF rench
Ġd at
Ġal t
\ ,
is f
ac cess
M ult
Ġrel ated
cent ury
quire d
Ġarg ument
h ing
N um
use um
Re ader
o ader
D F
re place
Ġal most
} /
Ġw atch
ĠU K
ct or
D raw
Ġe cho
ĠC r
ĠGener al
Americ an
Ġwho le
Ġa verage
OR M
all ow
Val ues
re q
S A
Ġun ique
h ood
ĠTr ue
w ner
om y
ict ure
ens ity
Ġby te
ĠInd ian
ĠD ate
ens ive
Ġit self
ĠCal ifornia
ĠJ ust
O K
Ġprof ession
yn ch
Ġcont ainer
5 6
ĠRep ublic
tt y
dis abled
he m
w in
-------------------------------- --------------------------------
Ġg raph
Ġpart y
stit ute
200 2
ĠN e
Ass ert
Ġw ord
h an
Ġin line
Ġrec ogn
D om
Ġcent ury
t ion
ĠD irect
Ġtr aining
Ġmeas ure
Ġhe ader
led ge
ĠSt reet
Ġt akes
end ar
Ġcon n
Ġbir ths
al i
eq n
f g
Ġle d
ĠS en
ore s
ĠC re
d irect
SE T
ĠA L
Ġv iol
ex ception
Ġ ill
Ġiss ues
il m
AT H
Ġallow ed
M ENT
ed ef
B uild
Ġact ual
ĠL oc
Tr ack
ĠBl ack
Class es
Ġh istor
ic ult
Ġr andom
ĠAustral ia
Ġus es
Ġpat tern
Arg s
N on
Ġ} )
ar ter
Ġfor ce
id a
Ġp aper
Ġun signed
$ $
ĠP at
Ġfri end
t hen
h ad
By tes
ĠĠĠĠĠĠĠĠĠĠĠĠĠĠĠĠ ĠĠĠĠĠĠĠĠĠĠĠĠĠĠĠĠĠĠĠĠĠĠĠ
Ġset s
Ġch all
Ġh it
Ġitem s
ĠM at
s ql
bo olean
D oc
S l
Ġsec urity
av y
r d
W E
Ġdo ing
aw s
P arent
we ight
Ġf ood
M ock
rec ated
ĠThe n
v ector
Ġb orn
Ġcon v
pon ents
it ude
p g
f ocus
c ert
Ġl oss
S L
Ġo s
c over
m ission
Pol icy
Ġcom es
con nect
Ġro ad
ad o
Ġex pression
Ġperson al
v irtual
Ġa ch
Ġbut ton
ad min
-- -
Ġs cript
ĠB ook
; <
n es
Ġl ost
ĠP al
set tings
-- >
Ġf em
l or
i os
Ġlook ing
Ġe val
pecial ly
ĠB en
Ġw ords
Ġra ise
R oot
Ġs ound
App lication
C lick
S ION
Ġe pis
ill ing
D ep
Ġcons ist
ro te
ĠP ublic
ĠI O
Ġreg ular
c at
ex ports
Ġchang ed
Ġto ld
ain ts
lang uage
] ]
ĠT HE
enc ed
cl oud
m as
ra z
x x
f ony
el ves
Ġare as
H istory
Ġsupport ed
he lp
prot obuf
b urg
5 9
Ġw alk
Dec l
M ar
ps i
ter m
Ġt aking
ym fony
I con
Ġprov ides
i qu
Ġl ib
V ert
o e
it ch
com ponent
Ġoper ator
ĠA nt
` ,
pan el
Ġbeh ind
ic ate
p adding
V er
Ġr ule
ĠP aul
Ġcond ition
cd ot
Ġserv ed
err y
Arg ument
ac c
ro om
p ub
m ega
c it
frame work
R ed
ĠJ ames
b on
Ġf ather
Ġpl atform
r ange
8 6
a fter
Ġcon sum
ĠM al
Ġp ick
ĠD istrict
ĠCh ina
anc ial
Test s
ĠS ome
omet ry
ĠC ouncil
8 7
ĠS um
Ġdef ine
P L
M e
Ġ+ +
x is
at ur
rom e
Bo olean
ĠHT ML
Ġs ex
HE CK
ir cle
Ġst and
ins ert
$ (
Ġus ers
Ġconst ant
s ort
Ġmom ent
str aint
d s
W riter
R out
ĠM et
Des criptor
M ember
ĠCan ada
Ġby tes
ir it
depend ency
Ġrelation ship
Ġvari able
Ġnot hing
ĠEng land
En abled
Ġfor ward
Ġw or
Ġd atabase
y a
D elete
Ġfre qu
s uccess
Ġset tings
St orage
B ody
Ġm aint
ar p
FA ULT
ĠD ay
Ġg re
Ġqu ant
Ġde ep
Ġs old
g u
wo od
Ġag o
f n
Ġst age
100 0
Ġin c
ĠR un
ĠL O
Ġim prov
Ġch annel
__ (
ĠI S
ĠN OT
' m
Ġout side
id ay
Ġj son
field s
co in
ag o
Ġcon tract
ĠJ SON
ĠF orm
Ġpop ular
Ġdistrib ution
z er
Ġbr ing
Ġget ting
Ġann ounced
By te
> .
ro s
Ġmov ed
Ġdirect ory
Ġh on
Ġreg ard
Ġn umer
as ons
te e
Ġcont act
j ection
ĠR oy
eg ment
Ġtrans action
Ġset ting
en a
call back
et ime
= {
reg ister
199 9
ĠHe alth
m ore
ĠP y
c ial
ag on
ĠG od
Ġd ied
im ated
Ġup on
} [
CT ION
J ECT
b uf
Ġm ot
Ġcompan ies
} "
ir l
ĠTh om
ist rib
nc y
tr ack
et t
ĠD iv
ĠP ost
ch i
EN D
Ġindu stry
R ule
ache s
T S
block List
Ġwho se
leg al
ĠRob ert
Ġlik ely
P A
h i
AG E
ĠU se
Ġmat rix
Ġdist rict
Ġex act
Ġs pect
Ġm ind
Ġpro gress
ĠQ ue
Ġany thing
ĠEurope an
J ob
Ġqu ick
\ "
Ġhim self
Ġrec ent
ĠG erman
ĠAr g
e al
Ġcon nect
3 00
c y
n one
Ġint egr
Ġin flu
Ġp ackage
IT Y
Ġon line
Ġbro ad
wh ite
Ġrel ative
Ġsol ution
st on
he t
ap se
Ġappro ach
M D
Ġv ot
ed it
at tribute
Ġin side
ĠH el
C re
n ov
Ġfollow s
Ġwork ed
ĠM em
Ġmanag ement
Ġpres ident
ann ing
e ch
4 00
for ce
Ð »
ul ated
Ġother wise
c pp
Ġben ef
ar io
"" "
* )
ĠV alue
T ab
' ))
clud e
X ml
ĠR ich
Ġm id
Ġpro te
Ġh ours
ĠĠĠĠĠĠĠĠĠĠĠĠĠĠĠĠ ĠĠ
B ut
Ġc ast
ĠA ut
m ock
d ouble
Ġan sw
Ġ' /
che me
Ġprob ably
M M
5 1
D L
u ate
inc ip
; /
M ark
ub y
act or
ĠAr ch
em ail
' .
Ġf it
j oy
Ġassert Equals
col l
Ġd am
ers hip
Ġn et
Ġs us
m ail
ĠM or
ash ington
F ound
I X
Ġart icle
Ø §
ĠM ath
b ert
ĠU ser
Ġeff ort
if orm
ĠM ag
ĠB el
a iled
ĠDep artment
Ġpart s
TE ST
y e
ĠC up
app lication
f il
Ġprodu ced
p ing
pl ugins
Ġs ym
SS ERT
per ature
ĠO per
Ġcamp aign
ver y
C S
Ġdirect ly
KE Y
Ġhe art
M eta
In s
Ã ¶
Ġ< =
up le
l n
w ide
Ch anged
20 21
con nection
sq rt
Ġop port
Ġn orth
p ed
a o
s cal
Ġs cal
L et
Ġp ain
f ree
Ġs ymbol
Ġv ict
n ormal
rom ise
ĠC O
Ġv ers
Ġa ward
Ġread ing
Ġlong er
d el
Ġexist ing
v ec
Ġex ists
av ed
ber g
Ġgener ated
m es
annot ation
ee k
Ġlead ing
Ġm sg
t oggle
P ackage
Ġres ources
Ġcal cul
all s
con n
ĠB ase
P RE
C ustom
M sg
C al
aut o
f ill
ĠH o
Def inition
w rap
ent ity
if est
ĠĠĠĠĠĠĠĠĠĠĠĠĠĠĠĠ ĠĠĠĠĠĠĠĠĠ
Ġoper ations
Ġa void
ed eral
Ġtechn ology
Ġet c
' ve
Ġh ot
Ñ ĥ
ri an
OD O
h igh
W idget
Ġsub s
Ġplay ing
ĠIn st
Ġf amil
ern el
ĠM art
Ġide a
ĠK ey
Ġeduc ation
ĠPart y
pass word
ĠF ound
Ġtele vision
Ġa ud
Ġass um
sp ital
D ialog
ly mp
}} \
ĠM usic
p ite
i ences
v ille
ĠIn c
Ġj o
Ġis n
Ob j
in line
Ġw rote
en um
Ġre pl
p are
com ment
ĠCh ampionship
ri ate
ynch ron
######## ########
oun try
Ġt en
h s
Ġat tr
m aterial
ĠErr or
5 4
ĠR iver
ĠCh urch
ĠE vent
Sec urity
str ict
5 2
Ġpr imary
Ġs il
Ġoff ice
P H
Ġfinal ly
Ġc ref
Ġimp act
=" ">
Ġj oin
ĠD an
S ymbol
N E
ple ments
Ġim m
Field s
com es
Ġ" /
lo od
P S
add r
Ġdisc over
ĠC ons
ip eline
Act ive
key s
Ġv ector
as et
Ġes pecially
Ġpol ice
f ull
Ġwrit er
Que ue
O mega
c ar
th read
e es
item s
le ep
Ġt our
ĠO f
ook ie
nap sh
Ġcont ain
key word
Ġro ck
un signed
Ġem ail
co q
ĠM ac
Ġmat ter
Ġerr ors
R et
Ġbel ieve
Ġro t
FI LE
Fl ags
ĠTe chn
TE D
Ġpos itive
8 9
c md
ie ce
ĠCour t
Ġc andid
ify ing
E M
D i
E l
ill a
ĠĠĠĠĠĠ Ċ
") ]
Ġca use
Sh ow
Ġlist en
i pe
ess or
ĠA ng
Ġex tra
Result s
agn ost
ĠJ ack
Ġl iving
Dis play
Ġt ro
Ġappro x
Ġim medi
EX T
Ġl ang
5 3
Ġs outh
An y
& &
in ing
Ġre v
ou l
f ect
N et
pr imary
and ed
L java
u ous
Ġl ock
Ġst re
h older
ĠUR L
Ġapp ly
ĠRes earch
Ed it
c ing
ele br
rec ord
ĠG erm
Ġed itor
ĠDef ault
in i
N etwork
Ġm ilitary
Ġs ense
A m
HT ML
ra el
Ġseem s
ps ilon
Time out
est ed
Ð º
Ġcon duct
Ġm ock
Ġgo al
Ġs aw
Ġh tml
and er
W S
st ep
Ġcle an
Ġs ave
c ategory
! [
w rit
Ext ension
ĠD et
uf act
( -
Ġjav ax
d i
re al
her it
Ġqual ity
' ll
im s
7 6
ĠG reen
h ere
Ġab sol
Ġallow s
Ġdevelop ed
Ġcon ver
Ġcou ple
id ers
Ġex c
Ġtry ing
Ġproduct s
in itial
Ġ â
{ }
L ock
E ach
in ated
N A
uck et
Acc ount
Ġr ules
Ġl ibrary
at io
Ġz ero
Ġ( *
Ġevery thing
Ġmin utes
Ġre ve
ĠV AL
S cope
atal og
Ġsat isf
Ġd b
Ġwe ight
M an
ĠO ver
Ġestab lish
f ort
em s
ĠWilli am
ul ate
ĠN ow
J SON
Act ivity
ĠY ear
Ġro ute
Ġcl osed
inst all
ĠPro ject
Ġtest s
m argin
Ġnum bers
ĠAss ociation
ĠM o
F T
ĠF ield
ĠL android
Ġdiff icult
=" "
ĠM r
ant ic
Ġproble ms
Ġincre ase
ri al
LO G
Ġsequ ence
Ġmax imum
ĠAir port
S end
Ġf un
} _{\
print f
D I
Ġser ial
pr ing
ĠA ward
ol ver
On ly
Ġ ensure
ĠP ress
Ġw est
Ġcon struct
Ġst ack
y ing
B R
Ġn atural
ĠGe orge
Ġ Î
Ġoff ic
Ġr ace
und er
por ary
ĠR el
tern et
ad ian
Ġst aff
reg ion
ĠM ethod
ĠN O
Ġnot e
Ġcon sole
Ġspe ed
ĠTr ump
D atabase
Ch annel
T ABLE
con s
Ġask ed
p ers
Ġn odes
wh ich
eqn array
ign ment
arg ument
B it
Ġhand ler
Ġmod ern
Trans action
eps ilon
p ool
ĠN ote
it ar
Ġsome one
ĠMich ael
gr id
Ġso on
P AR
im ately
est ival
Ġcom ing
Ġbook s
Ġd irection
ĠFr ance
sh ort
r adius
k er
D A
ĠIn stitute
Ġqu ite
im pl
import ant
Ġinv olved
ĠC opy
In itial
Ġj ud
ĠO ther
p ay
In it
Ġobt ain
ĠR oad
an o
Ġdirect or
ĠL et
Ġm other
z a
Ġsim ply
ĠW ashington
g in
Ġin j
ick et
Ġv eh
Ġim ages
Ġm ount
Ġne igh
7 8
Ġbo ard
Ġteam s
ail y
iev ed
Sup port
G B
A c
ind er
Ġmanag er
" `
==== ==
b and
Ġcomple ted
TE X
ĠP o
Ġr isk
li ance
w est
os ing
@ "
fe ature
Ġme et
199 0
v an
ass ets
ĠS am
ar ily
Ġinstance of
ix el
Direct ory
c i
had oop
ur t
. *
ag ram
Ġcon tr
ol ic
put e
Ġst ar
AR Y
ele ction
Ġc ult
Ġhe l
Ġfl ag
20 22
AD D
ĠI d
st at
S he
Ġwant ed
ines e
Not Null
Ġ ),
Ġvill age
) "
anc el
Ġ icon
Ġnecess ary
Ġw allet
g raph
ĠV er
_ ->
In ternal
ĠB est
ul ations
pe ed
sub section
ĠM er
mit ted
7 2
ĠB er
ire s
P T
ĠA ND
chedu le
ĉĉĉ Ċ
Ġstat ement
U ID
S IZE
ou thern
"> &
Ġs ens
pro duct
ly ph
Ġint eger
ĠL ong
s f
Ġre place
( !
ts d
ĠA N
st op
mod ules
. \
i us
Ġperform ed
Ġcoun tries
)) )
P ool
ann er
all oc
g an
Ġm ut
Ġdec ision
ang o
AC E
Ġmiss ing
G amma
Ġdes igned
r or
Ġsur face
Ġsh ape
VER SION
MA X
Ġlevel s
Log ger
ĠL eg
or ph
Ġth us
Ġp y
Ġget s
Ġtr ansport
I B
et te
ent er
Run time
al ed
ar th
S um
c ur
A p
199 8
Ġstart ing
Ġconc ern
F loat
ĠFr anc
Ġho pe
ĠV iew
ĠWh ile
P erm
Ġdist ance
assert Equal
fl ags
Ġpre c
ĠB ig
sc roll
Ġcall s
Ġg ave
hent ication
Ġm ention
Ġcol lect
Ar t
he st
az z
ock er
ut f
Ġ% }
sp ring
=" @
n ames
ree k
st ats
Ġf ixed
} ),
() {
h y
) =
j query
A uth
F L
Ġen joy
Ġcorrespond ing
Ġrece ive
[ :
Ġcomp ar
Ġclass es
ĠWh ite
8 2
l ines
N ow
overn or
Ġw oman
tx t
ĠA lex
Str uct
P ORT
n umer
ĠB uild
ĠT ext
I E
Ġ ess
ĠSc ience
Ġcour t
ĠD el
Ġeffect s
() ));
ad s
Ġm ale
m ove
ms elves
T C
Ġtrans fer
b ound
se y
Ġpat ients
L S
ĠCar ol
By Id
Ġb tn
ĠI P
Item s
Ġc op
ist an
om a
Ġb ottom
ur a
P op
ĠM ary
Ġimplement ation
drop down
Ġthrough out
_ ,
ev ents
() ).
e in
l am
ĠT om
ĠĠĠĠĠĠĠĠĠĠĠĠĠĠĠĠ ĠĠĠĠĠĠĠĠ
In v
Pe ople
Ġe ast
art s
ĠY our
Ġre comm
Ġopen ed
Ġde ad
ĠD evelop
Ġext ension
F C
ĠPro v
av i
ĠW indow
Ġthe mselves
sh ape
Ġsign ed
text bf
'] )
Ġcont aining
ing er
maz on
sec urity
Ġkey s
G raph
ou b
P attern
Ġst ay
av er
. __
L oader
G S
s ave
Ġsa f
en ge
Ġme chan
Ġev idence
aly t
Ġn or
ĠF alse
d ates
RO M
25 6
r b
Ġmov ie
16 0
ĠF re
Lay er
Ġthe ory
Ġprofession al
l as
^{ (
ĠC ong
g it
ĠPro gram
v are
ĠRev iew
Ġst orage
Ġwr ong
S QL
ĠH and
Ġus ually
pro to
N G
ĠH all
Ġfollow ed
er ies
ĠL ou
__ __
Ġdef inition
ain e
ĠSh ow
Ġtr avel
pro file
Ġlate st
C le
Ġw ife
Ġ{ };
on a
s creen
M edia
P ATH
] :
//////////////// ////////////////
iz ations
ixt ure
ĠComp any
R est
Ġrem oved
os itory
k g
)) );
Ġfe ed
in v
ed y
Ġb re
Re ce
Ġ$ {\
Ġ[ ];
is ions
At tributes
Ġc ore
is ation
Ġdistrib uted
ĠDem ocr
ĠAfr ica
m aster
Ġal tern
ĠO ur
v ant
Ġdem on
m en
8 4
se lected
Iter ator
Ġle ave
ĠS ince
Ġf ast
Ġr ank
Ġm us
ĠM iss
Ġnov el
Ġtem perature
des c
id ents
Ed itor
m i
assert Equals
not e
Ġed ge
ĠGerm any
ĠT ex
Ġeas y
con trib
if ies
Ġsh ared
mer cial
igr ation
7 9
^ *
Ġapp oint
} =
ĠC all
Ġent ity
Ġa uth
Ġat tributes
Ġn ative
anc y
pro perties
ĠO b
er ation
ĠC he
Des c
Ġstud ies
el li
type of
Gr id
ĠĠĠĠĠĠĠĠĠĠĠĠĠĠĠĠ ĠĠĠĠĠĠ
Ġn g
Con f
C I
Ġpo inter
ev e
} ).
th rows
t ip
-> _
NavBar Cell
Select or
S ymfony
us ion
ĠO ption
E vents
Ġf unc
Ġfri ends
s chema
~~ ~~
ĠN ode
P anel
Ġgiv es
En um
em ph
D S
6 9
Ġm iddle
Ġvol ume
ĠAn n
w ell
> :
Window s
ĠUn ion
Ġc ulture
ĠV ersion
ond er
ill er
l ers
Pro xy
Ġa wait
_ (
Ġobt ained
hand ler
Ġdeg ree
) /
ot ed
ĠIs land
at ically
ĠA R
pp ed
BU G
Ġab s
Aut o
Trans form
Ġd aught
il i
ĠF in
ĠB ay
}^ {\
6 3
To String
Ġd ro
Reg ister
not ation
Ġtr ansp
napsh ot
ĠAr my
Mat rix
Ġset t
Ġdescri be
V ar
c ut
Pl ugin
Ġd ark
as ure
Ġ er
Ġact ivity
b m
duc ation
Ġstr ict
Ġbeh avior
T e
c os
ens es
Ġsong s
Ġarch itect
ĠM odel
) $.
E C
log ger
= >
ĠJ er
Ġtrans ition
ace book
Ġrec ently
C lose
j ob
ĠO lymp
L P
Ġal loc
Ġs low
ï ¼
Mem ory
Ġal though
al ian
at ively
Ġc ard
f amily
or ter
Ġcon struction
M ain
Ġre pe
Ġb al
++ ;
urre ncy
Ġto wards
th at
Ad apter
ĠC am
Ġte ach
ĠRoy al
Ġind ependent
Ġcell s
ĠC ode
Ġt ab
ĠR oman
ĠF ore
ç ļ
clus ion
Se cond
Ġst e
Ġgrow th
ĠM ount
Ġp air
Ġt ouch
sup er
D el
ov ers
Ġe lem
ir ing
Ġbe aut
m anager
', '
cont roller
ĠS ociety
b i
ĠCl ub
point s
Ġpre vent
wh ile
ish ing
Ġun its
M ore
çļ Ħ
ion al
Ġlarg er
ent al
Par se
a ud
pro of
Ġleg al
} </
ĠV ir
ul er
es h
Ġcent ral
Ġs n
s ample
Ġ io
ĠH istory
Ġl oop
ĠAs sembly
Ġcompon ents
L IC
vare psilon
Ġ$ {
Ġinter view
A v
S ER
ploy ment
ick s
Ġm is
ĠM us
ac count
Ġgo es
F R
am ing
or a
ĠM edia
6 2
ĠIs rael
Ġst ri
Ġpro per
in ct
met adata
ĠUp date
Ġh ous
ĠT ODO
Ġrel ig
Ġjo ined
ĠK e
ð Ł
Ġoption al
B efore
Ġfin ished
ĠS ur
ol ar
Ab stract
form s
Ġf avor
E O
b our
Y ear
Ġpre dict
f it
as y
ĠT able
Ġv s
S cale
ĠF unction
ĠG old
ĠSc ott
var phi
Ġb all
ic i
Ġj ournal
includ eg
includeg raphics
Ġ ir
Ġschool s
Ġan g
Ġsh all
. '
iter ator
Prot ocol
Ġdest roy
r angle
Ġin valid
ro ad
Ġpre tty
ĠAc adem
Ġb uilder
li as
or ation
ĠS al
Ġcon cept
ific ations
Ñ ı
Ġcl uster
y r
ateg ories
Ġpract ice
ic ated
k i
Ġas ync
ĠThom as
Ġsign al
IP T
\!\! \!\!
Ġpl aces
Ġl o
199 7
Ġor igin
Ġpro file
l g
ĠT op
d ot
Ġc elebr
S U
Ġco ordin
j ar
7 4
by tes
Ġinvest ig
ĠCom mit
ĠT im
ĠF oot
Ġcomp ared
Ġevery one
C HECK
Pro file
Ġprevious ly
b olds
J ava
pos itory
) ">
res et
Ġcontin ued
Ġtreat ment
Ġph ase
d en
sh ire
Gener ic
Ġ\ ,
ĠM ad
eng ine
ann els
ĠM essage
in ate
Ġgener ate
Pr int
St ep
Ġr adio
ON E
b ad
A uthor
Ġpass word
ro t
ov es
Con d
ask et
ĠJ ew
W A
bolds ymbol
Vari able
Ġ" "
Ġlarg est
Ġpart ial
col lection
6 1
Ġp m
Ġen abled
n ce
k w
ĠP ub
Ġc lick
Ġdom ain
Ġdiffer ence
Ġ[ [
Ġb rowser
X ML
Ġth reat
ann ed
Ġquest ions
Ġbegin ning
str aints
f ly
c b
198 0
ed itor
h ouse
Ġle arning
Ġw ays
t mp
mut able
Ġb g
ĠCon fig
Ġe ight
T erm
mat rix
Ġsc ene
h ome
fr ak
Ġdis e
Ġins ert
Ġp lease
199 6
get Name
re y
et ic
Ġsc ient
Ġl ack
ag er
ific ate
F LA
Ġpro posed
Ġor d
9 1
ĠM ex
F IG
Ġ{ '
Ġ" <
ar ation
Ġapp lied
Ġfin ancial
Ġun less
e cho
Ġexper iment
9 4
R AN
app ly
ĠT ask
eth er
Ġ ip
Ġcoun ter
Ġs ources
dom ain
Ġrecord s
P ack
N ULL
O B
ĠChrist ian
f aces
right arrow
ĠReg ister
[ \
v a
Ġsec ret
ĠSup er
ĠIO Exception
F unc
L iving
j a
Ġepis ode
Ġ= ========
Ġbir th
al a
ĠS l
get Element
ex ternal
web pack
cont ains
res ents
ĠL ife
ĠT em
Ġsay ing
Ġp urch
Ġlay er
ĠT own
Ġsc en
Ġup dated
Ġ( _
Ġline ar
result s
Ġh um
UT F
ĠT ur
S w
Ġch arg
Ġh y
az ine
Ġg as
| |
oth ing
Ġear lier
Ġsc ore
Ġrespect ively
ĠH ere
Ġo wner
ĠG ets
File s
Ġme eting
ĠSm ith
all ery
ĠO p
ec ause
ib ly
Ġim plements
ĠPro f
an i
u ated
h old
Ġdemon str
Ġmar ried
ous ly
RE AD
er ial
Ġs plit
Ġlim ited
ĠAcc ording
pl atform
}, \
Ġcap ital
M OD
re p
gr ade
Ġch urch
Key s
struct ure
id x
Ġdeath s
sh all
Ġgr ant
ig en
pro ve
Ġs en
Ġl ives
ch or
p df
rel ated
Ident ifier
b rowser
sub s
and ra
ĠT or
Ġv oc
ĠAustral ian
Ġdel iver
Ġphys ical
ĠDiv ision
Ġf n
ph one
$ /
h idden
P ay
Ġvari ables
D C
ĠN umber
Po inter
f ail
Mem bers
Ex pr
e ach
ĠH en
Ġsc ience
Ġpr ice
ĠM A
o ch
ol f
ĠGr and
Ġinst it
ĠM useum
Ġn u
ĠCh inese
Ġd ebug
ĠG reat
S R
Ġrepresent ation
ĠN etwork
ook s
^ ^
n etwork
ident ifier
9 2
F ail
ĠUS A
Ġfact or
ĠFranc is
Ġmult i
ĠAfr ican
ĠCent ral
Ġbro ught
r ule
h orizontal
ri end
199 5
m iss
Ġpub lish
Ġf ully
par a
ro ke
Ġh or
on ic
ĠAl so
Ġxml ns
ST AT
ch annel
ĠU N
Ġknow ledge
Pro p
ential s
Ġk illed
k o
d im
I ST
Ã §
z one
Ġy ield
ĠTex as
ĠCol lection
Ġm aster
ĠV is
config uration
ge q
S Y
ĠP lay
ast e
8 1
ik i
Ġsp ent
v ed
Ġn ature
t otal
par ser
are a
Ġpolit ic
Ġmat ches
H R
h aps
ict or
Rep ository
7 1
Ġr g
Ġpl ant
Ġp ush
ut er
ĠFound ation
ab ilities
Ġc tx
Ġproject s
Ġdef e
D ouble
the me
D est
M apping
Ġex port
at tributes
[ $
re me
Ġm essages
Ġrequire s
f c
ĠB O
) ),
ens us
ĠM ax
ĠĠĠĠĠĠĠĠĠĠĠĠĠĠĠĠĠĠĠĠĠĠĠĠĠĠĠĠĠĠĠĠ ĠĠĠĠĠĠĠĠĠĠĠ
tr igger
sum er
At tr
ĠP en
) ).
D uration
am i
Ġst ories
F ull
Ġbas ic
Ġch oice
7 3
ĠJ ava
ĠC ap
Sc roll
B rowser
ĠEng ine
ars ed
8 3
r ay
9 3
S ync
Ġsign ature
Ġpresent ed
Ġh idden
ig hest
lo ok
Ġpro of
ress ion
. ~\
ed s
du ction
Ġbas is
Ġin sp
ĠL ib
ĠA v
tab s
g s
Ġstud ent
ĠĠĠĠĠĠĠĠĠĠĠĠĠĠĠĠ ĠĠĠĠĠĠĠĠĠĠĠĠĠ
li ament
Ġrecord ed
ĠV ol
Ġb us
Ġt err
Ġre q
s witch
Ġc ivil
math frak
os h
F ailed
ple x
sh adow
12 3
Ġab ility
Ġent er
ff ect
Ġcre ating
at re
? âĢĿ
oper ator
it a
ist ant
Ġ> >
ĠW il
Ġeffect ive
Ġup per
l imit
in y
et imes
Ġex hib
Ġs even
ele ase
test s
d p
se m
Ġappro p
ĠC amp
ĠR ock
Ġch ain
Con n
) $,
ĠÂ £
b al
Ġrem ain
k y
Stat ement
un icip
Ġmean ing
os en
and a
", "
Ġrun s
Ġa ctions
Ġper fect
h ide
Ġenc oding
197 0
com ponents
33 33
t ely
org an
Ġturn ed
Pro duct
ĠG en
N OT
S ocket
on ym
resh old
ĠCol or
Ġparent s
Ġweek s
Ġinterest ing
Ġsh ot
W rapper
Rem ove
Ġp ark
Ã³ n
ful ly
tool s
C or
Ġorgan ization
G lobal
ĠSt ar
ĠComm ission
Ġman ufact
ĠRuss ian
pr ise
Ġr ail
Ġgre ater
ĠT H
LE CT
Ġdr iver
se ct
iv acy
n ab
( __
are t
G en
ĠB usiness
I MP
fil ename
Ġintrodu ced
ĉ ĠĠĠĠĠ
Ġdec ided
Ġincre asing
L android
O UT
riter ia
Ġsize of
Ġun known
ist ent
erv ation
D on
Ġtr ade
er c
Ġle ader
P P
Ġg un
ĠB ill
prov ider
li br
n il
r ine
Ġex ternal
199 4
IT E
Ġth erefore
D T
N ote
Ġapp end
ĠH ill
Ġwas n
ron ic
Ġon es
Ġp ool
d ed
L ambda
Ġfail ure
prot ected
Ġn om
IC E
ĠFr ank
ĠĠĠĠĠĠĠĠĠĠĠĠĠĠĠĠ ĠĠĠĠĠĠĠĠĠĠ
Ġdr ug
Ġb ank
Ġappe ared
C ap
Eng ine
we et
Ġ util
i ers
Det ails
at in
ĠG ames
ell ig
it iz
S ingle
b ot
FF FF
Ġm icro
ĠG overnment
Ġp refer
Const ants
ĠM el
Gener ator
-------- ----
p refix
ĠG ame
or ida
ad y
ex pr
head ers
Ġcom ments
Ġresp ond
ak ers
ut or
Ġcon structor
ĠB i
child ren
Rout e
ant a
ĠSt ep
AL SE
' d
Ġprot ect
Ġany one
Ġdown load
i ate
ĠM ont
Ġt x
ĠN AME
s ymbol
Ġd ensity
Ġ" ,
ĠS O
Ġ{ "
Ġf ix
j unit
Back ground
ĠIn itial
r ase
S uccess
%% %%
Ġcomput er
ĠA ction
ĠMin ister
if def
Ġacc ur
Ġp ages
j pg
over line
Ġdaught er
Ġm enu
Ġopt im
Ġs ports
Ġrem ember
Ġimmedi ately
ĠP eter
re es
Ġw ide
ĠĠĠĠĠĠĠĠĠĠĠĠĠĠĠĠĠĠĠĠĠĠĠĠĠĠĠĠĠĠĠĠ ĠĠĠĠĠĠĠĠĠĠĠĠĠĠĠĠĠĠĠĠĠĠĠĠĠĠĠĠĠĠĠĠ
u ilt
d ialog
Ġe le
ĠJ ournal
Ġd ed
Ġfem ale
oun ce
m ask
b uilder
=" ${
t ags
app a
Ġabsol ute
nd ef
. }
Go ogle
ĠIn s
ĠD uring
Ġatt ention
typ edef
Ġuse ful
Ġtype of
Ġad apt
ĠRich ard
ĠIn v
Ġen able
Ġal gorithm
Ġtest ing
Ġactiv ities
Ġsom etimes
P ub
Ġg old
nav List
as er
Ġm ur
od ay
Comm on
Ġco ach
Ġmed ical
Collection s
ff ff
s ys
iver se
S pace
ĠWest ern
Ġoff ers
alle l
ĠK ore
def ined
CE SS
Ġincre ased
O ST
A CT
re v
Ġdeb ut
ĠPe ople
å ı
f ound
HT TP
Ġfamil ies
Ġv oice
U SE
P lay
ĠE v
Ġser ious
U LE
pre t
Ġf air
; "
P refix
ĠCh ild
Ġo k
Ġstre ng
. ");
at ible
Ġc ategory
Ðµ Ð
cre d
ĠM icrosoft
Ġbe comes
Ġprogram s
Ġ= ======
at o
Ġid x
ĠSer ies
urre d
pro ps
Ġt it
ĉĉĉĉ ĉĉĉĉĉ
r um
ot es
ut y
O ther
Ġread y
equ iv
ir med
UR I
TEX T
">< !--
Ġrec over
Ġg reen
Ġequ ival
ĠC ath
ĠF acebook
C ategory
Ġrepl aced
Ġre ached
Ġin str
ĠOff ice
Tr ace
S equ
Ġvis ible
u ke
eff ect
Ġart ists
ĠH ash
ĠRe quest
Ġp anel
b ra
Ġchall eng
N odes
Select ed
ĠS und
ser ial
ĠF ig
Ġhapp y
ĠInt eger
ĠS ervices
Ġart ist
Ġ ul
Ġdeterm ine
ed ge
ens ed
M ut
m id
Ġant i
Pass word
Ġp or
B S
pect s
d x
ĠP aram
Ġsh ip
ell a
Ġd rop
Ġexp licit
Ġrem ains
fr ont
Ġdes c
ent y
w ild
Ġr aw
ig er
k ing
Ġ" -
ĠB ack
ol a
Ġp en
I A
? >
param eters
am az
T ags
199 2
Sim ple
ĠJapan ese
b ing
il ation
ĠF inal
u an
ĠM ost
S ample
Ġrequest s
ic ago
Ġre ach
Ġgr and
ĠRe act
Ġw orth
ĠVir gin
ĠT R
Ġmov ement
ĠSe ction
n y
w rapper
Ġcomple tely
r ate
col Last
ĠT wo
olog ies
Ġfor ces
ĠInd ex
Ġfor ms
) ->
12 8
g ame
ĠCopy right
Ġconn ected
Ġmet adata
() </
ate way
Ġtr ain
C ar
ĠCan adian
IV E
W R
it o
st ant
sy ch
k r
ĠW omen
Char acter
Text ure
ĠS ing
P ublic
Ġchar ge
Ġhigh light
M B
ach ment
V ideo
clus ive
ĠJ ose
Ġinv olv
it ation
Ġparticular ly
st orage
TI ME
Ġnav igation
u ing
Ġc li
all classes
ĠKing dom
en abled
j ango
Ġbl ue
Ġapplic ations
IG HT
IN D
Ġin cor
Ġd ir
ĠOr der
U D
Ġw ild
> ::
Ġfl ags
iter al
199 3
Ġsup p
H ome
At t
ĠBo ard
Ġ queue
Ġ$ .
ĠW ill
Ġre tr
ĠH ot
Ġinst alled
t body
b rief
Hel p
ex ecute
Ġex am
Ġmov ing
Ġdet ail
Ġj Query
Ġk m
Ġsh oot
g est
ĠU nder
ĠSt art
serv ices
irt y
Ġprot ocol
r uby
Ġe arn
col First
ele ted
Ġobserv ed
cont in
ĠAn y
Reg ion
re land
Ġopen ing
Ġtr igger
(' .
Ġbel ong
Cl uster
h ol
d ist
ans ion
Ġ[ "
ĠL in
Ġb ur
her ited
ĠE ducation
sh ared
ĠRes ource
Ġtrad itional
iz able
ro le
ĠDirect or
Ġla unch
H ER
det ail
T A
ĠL ine
Ġre ports
ĠP ath
RE S
ĠG ood
ĠHT TP
it able
ĠM anagement
Ġconst it
if ul
Ġappe ars
ĠLou is
) ^
ĠCarol ina
Ġansw er
Re port
own er
det ails
Ġc ook
ĠRuss ia
em on
is l
Ġsecond s
Ġexact ly
h line
ĠCommit tee
Ġform ed
ut ing
re lation
Ġ? >
Ġpl ans
th let
Ad min
= &
Reg istry
en ed
Ġbu y
ang ular
Ġset up
Ġover all
ĠF ilm
N amespace
j d
, -
w atch
ĠC le
cre te
IN S
Ġquick ly
ĠT imes
F ind
pre v
Ġlook s
ã Ģ
Ġp refix
anc er
G u
ĠGe org
Ġtyp ename
v ey
aj ax
Ġblock s
O pt
H igh
ist ers
Ġd im
Ġ[ ],
Ġsub sequ
incip al
m aven
P y
Ġpart ners
F S
Com ment
Ġm ix
pan ish
Ġan im
b es
Ġecon omic
ĠC A
up load
ĠAcadem y
res ources
ac ro
op ed
d one
ext ension
Pro ps
prot ocol
Ġbg color
Ġf igure
ld ots
ĠR et
Ġmin imum
ĠSe cond
Ag ent
Ġread only
Ġpur pose
Ġab stract
l legal
Ġcall ing
err ors
Ġw aves
ain ment
Ġb log
ud get
Ġdirect ed
Ġgiv ing
Ġneg ative
D epend
Ġsa fe
pl ing
om s
U ri
tem p
ĠWindow s
Ġbe y
ex ists
ĠChar les
Ġe p
ĠP M
ev al
Ġtr ust
L INE
Ġsmall er
Head ers
Date Time
ĠA mazon
Ġex pert
AR N
he el
ig an
ing u
V M
Ġhand s
Ġf elt
irc raft
Ġcrit ical
Ġr ap
ĠL os
Ġlet ter
Ġdig ital
ul y
Ġh ighest
ĠCong ress
st ar
Ġm achine
ĠS il
f d
comp iler
Ġnull ptr
ĠG al
IN FO
Ġpl aced
vari ant
ic ies
ĠS un
ind s
; )
< !
Ġre ader
dec l
f ire
Ġen v
Ġbey ond
am ous
Ġ que
Ġs al
ĠFor ce
Ġsit uation
coll apse
C RE
Ñ ĭ
Vis ible
Ġcom mercial
f ix
Gener ated
Ġp le
Ñ Į
un ic
log in
ĠI E
asket ball
t c
Ġnear ly
Ġpar ser
B AR
W N
ĠL ake
Ġsum mer
Res ources
Ġf actory
F inal
ĠLO G
iv ery
ĠB re
TR UE
Ġim ag
S ervices
y an
ĠA S
in valid
ĠP oint
G R
M T
Ġhigh ly
ĠĠĠĠĠĠĠĠĠĠĠĠĠĠĠĠ ĠĠĠĠĠĠĠĠĠĠĠĠ
' ));
Î ±
Ġlist ed
ĠC ast
P erson
Ġlog ger
ĠFl orida
Ġcol lege
as ync
Ġ ],
Ġident ity
pro gress
und red
ĠL ink
rior ity
N T
Ġpo or
Ġim prove
it z
Ġin form
ĠM ake
S election
. <
N e
M ask
ensure math
ĠS ocial
Ġcon vert
k in
amaz on
user name
lang le
Ġgener ally
f ol
e an
Ġprodu ce
ir ls
Ġ ×
C ert
s afe
ĠS y
ĠU I
ĠLoc al
Ġfore ign
oc ity
Ġcho ose
ĠTe am
LO CK
s ingle
Ġcoll abor
Ġp ull
w p
p at
ĠP age
ĠH ttp
Ġrep resents
âĢĿ .
Ġthem e
ĠD en
Ex ample
y g
us ers
ĠD ev
ĠB ank
" /
Ph i
D elegate
Ġv ote
; }
EE EE
15 0
Ġnot ice
art icle
Ġhead ers
Ġen um
ĠZ eal
p ower
Ġhe ard
St ats
Ġre li
Ġ ðŁ
199 1
ĠM ass
ĠDevelop ment
Ġpro ced
ĠOn ly
Ġl icense
A re
R ole
T x
M ay
test ing
Ġgu itar
n odes
Ġpres ence
Ġopport unity
atur day
B P
Ġeas ily
ĠF ree
ĠM ov
Ġqu arter
Ġevent ually
ĠP ass
Pro gress
ven ue
=" $
r andom
ax is
Ġfore ach
Ġsepar ate
Ġ' <
J ohn
Ġtime out
a ight
ourn ament
L anguage
Ġd imension
G ame
ard en
ri er
Ġth r
Ġref lect
ĠI ll
ut ch
F il
un ique
ge les
Ġm ill
Sub s
ĠP an
IT ION
ĠS ol
mo z
it ors
Ġph one
P layer
oc aml
ou ter
Ġd oub
Ġf ans
Ġla un
198 9
ĠZeal and
Ġd u
d ing
Ġp iece
fl ag
L a
Ġrem aining
1 20
Ġp od
i ro
sv g
in em
Ġdr ive
Ġcar ry
ul k
C red
Ġcap acity
Ġca used
{ %
ĠAr ts
Ġh olds
Ġf ill
Ġview s
Dom ain
index Of
Ġ ui
Ġmin or
Ġf ra
M ed
Ġtem p
en able
ĠL ibrary
: #
Ġe yes
S ection
Ġpl ot
ĠA ust
Ġch ance
/ _
ĠH ome
ĠSt at
S ince
Ġex it
ab it
}} $
ĠIt alian
F ORM
Ġprocess ing
Ġv an
ĠIn formation
ĠO ld
Ġn p
s pecial
ĠA M
Ġbro ther
Ġs ch
B E
Ġh arm
ang ing
g a
k m
Ġaff ect
/ \
ĠP et
Ġche m
ĠPar is
k appa
ĠSec ret
ĠH istor
D at
am m
Ġl if
: `
yd ro
= (
ĠW ell
Ex ecut
est er
Ġdep art
% )
ĠJ im
Ġg irl
Ðµ Ð½
g reen
L en
as sembly
ĠIm age
ĠAn geles
ĠRes ult
Ġlay out
Ġass ess
Ġag ent
sub set
stit ution
Ġsaf ety
ab y
Ġrem ote
ĠIr an
ĠM ur
Sh ape
Ġdev ices
Return s
line ar
DE FAULT
f x
ct rine
Ġco q
ĠEx t
Ġ ut
Ġapprop riate
ĠC D
Ġpro xy
Ġcompet ition
are s
hen s
Ġst ated
Ġsur round
(' #
il s
cal led
Ġp ul
pect ive
W orld
sign ature
n am
as is
br idge
J S
Ġstr ings
T otal
Ġstr ategy
spring framework
u ite
cle an
ĠVal id
p u
SC R
time out
ĠĠĠĠĠĠĠĠĠĠĠĠĠĠĠĠ Ċ
cd n
Ġ eth
Ġre ject
w riter
Ġle ague
Ġpl ugin
Ġcont roller
ID TH
An imation
ad ing
ĠMart in
ĠRec ords
Ġprov iding
ĠEn ter
19 60
Ġex tract
Ġc md
end or
Ġtrans late
w id
ip ment
Ġequ ation
u y
% ,
ĠF estival
pos es
Ġassert That
ac le
he ast
Ġp ri
j i
Ġm ask
Ä ±
VAL ID
P ER
Ġw ants
ĠA SSERT
ĠArray List
v ideo
umn i
ĠC EL
Ġwe ak
ĠD O
dep th
Ġ{ {
Ġgener ation
Ġrg ba
EEEE FF
Ġst ars
Ġredu ce
ĉ ĠĠĠĠĠĠĠ
it ness
ĠM ult
ĠV ictor
Ġtool s
i ar
VAL UE
M er
Î ¿
c irc
ĠM il
ak s
PO ST
ĠO h
sw arm
Ġocc up
L L
require d
( @
ĠG l
Ġb lood
Ġbroad cast
P air
gener ated
ĠD om
raz il
ed om
check box
th m
ĠSec urity
Id s
Ġvis ual
Ġin ner
Frame work
up s
ĠI reland
Ġf irm
p icker
Ġb attle
if ndef
Ġs ociety
el come
S yntax
Ġchar set
() ))
Im port
Ġsol utions
ĠA tt
con struct
ap ers
Ġdel ay
P si
(' /
Ġvari ety
ole c
Ġass ume
ĠPol icy
Ġs ites
ov a
Ġdep th
ĠB ur
à ¸
Ġbuild ings
ut s
Ġt mp
o z
ĠS pec
Ġpre d
ĠW ed
wild fly
Q U
Ġre strict
ĠCh icago
( .
Ġrespons ible
i h
F E
ĠÐ ¿
ĠG lobal
ĠRe port
nab la
ĠT O
Fl ag
ĠFr iday
m box
Com par
Ġf arm
ĠP RO
RE G
ĠP ower
ar ant
M icrosoft
numer us
Ġ ).
Ġdeterm ined
numerus form
bo ost
im a
ir a
Ġagre ed
f ixed
sc ss
CT YPE
Ġfour th
T V
ĠS QL
Ġcomp os
um my
Ġdise ase
x html
s ocket
Ġcl oud
g lyph
im inal
play er
h ref
Ġpress ure
ri age
n ight
ĠL ove
ĠP op
G O
ĠT our
ĠAnd roid
ipp ed
Ġlaw s
Ab out
O ur
V olume
T wo
s el
Ġre set
py thon
Ġpl ays
u z
Ġw at
ĠE arth
bl ue
Sum mary
ex tern
d eg
k t
Inter val
******************************** ********************************
lic t
Ġm obile
Ġ Ø
Ġbr anch
p attern
ifi ers
I gn
Ġinter val
Ġar m
Ġm ixed
Ġ\ "
S ome
EN SE
Ġprov ider
option al
Ġill ustr
Wh ile
ilt ers
ĠSo ftware
Ġvert ical
M I
Ġch art
A rea
S ort
ĠB rown
Ġs egment
Ġwh om
ĠS pecial
ĠL and
F low
Ġshow ed
Be an
ĠP R
NavBar Font
am el
Ġval ign
Ġver ify
Ġcre ation
z en
ĠE ach
Ġn orm
g oto
x s
anc ing
... </
Ġf ine
oss ible
Ġra ised
Ġhe ar
s ince
DE BUG
M ake
Ġold er
w ar
Ġwork ers
Em ail
Element s
N amed
met ric
im ents
ĠV ector
re port
ĠPro cess
w hen
es ome
Ġs light
cl aim
Ġenc our
; ">
ched uler
Ġbr and
' ];
ĠâĢ ¢
Ġh ar
ec k
u ages
Ġelect ric
Ġf ig
Ġmanag ed
t ers
Ġmor ning
Ġe lected
Ġk new
en ing
Ġre ct
bl ank
Ġ ..
Ġst eps
ĠD own
ĠAr ab
Ġl ic
Ġindividual s
ad or
Ġm ission
» ¿
M C
E V
DO CTYPE
Ġdis abled
Ġac adem
Ġcrit ic
E ST
Ġpro ps
aw n
print ln
li e
Ã ¨
ĠIt s
oc ation
ĠSund ay
i ated
ĠPro perty
Ġrepresent ed
Ġw ood
S ql
Ġsc roll
{ "
ï »¿
f lex
Sequ ence
eta iled
libr ary
Ġst ored
Ġal one
Sh ort
Ġan imation
B ind
Ġstruct ures
Ġcan cer
Ġro ll
PRO JECT
ag ent
Ġstr aight
z ure
Ġsum mary
ĠTechn ology
H S
Ġb uf
Ġth ous
Ġfound ed
ĠA uthor
Ġgr id
M ath
ex ec
pl us
ic ine
pl ates
Ġframe work
F in
Ġag ree
Ġv el
Ġautom atically
u zz
press ed
Ġtr aff
Not ification
pro xy
Ġocc ur
Ġdocument ation
Ġann ual
ĠL em
st able
k ins
'] ['
up lic
B ound
d em
ĠHe ad
Ġh yp
ar ian
ĠB lock
Ġd ict
Ġa udio
ograph ic
word s
th row
ile vel
Ġs quare
} ]
w all
Sk ip
ĠJ ud
lo ader
B ook
Ġf lex
198 8
os is
Ġh ol
En v
ier arch
Ġb inary
St op
ow ers
INT ER
ĠR ail
W allet
Ġa xis
Ð ²
Ġp an
T T
w orld
ur ance
ov ing
Ġo il
Child ren
ap os
Ġse a
ĠFoot ball
Ġp p
ĠL ee
Ġcolumn s
Ġext ended
L ook
Ġvers ions
EL D
Ġs ell
M ouse
Ġmay be
Ġal leg
N ative
Ġcl in
check ed
Ġw onder
ĠCath olic
Ġneigh bor
ĠJ un
an imation
ĠL i
En umer
ĠAN Y
Ġserv e
Ġc amera
ar c
RE Q
Ġsh ift
comm it
: \
Inst all
ĠV ari
End point
Ġlist ener
und efined
Ġsurv ey
Ġ ];
ĠIn put
. ",
US ER
ĠE ND
or iginal
Ġb rief
Ġc ru
ĠCent re
G ui
Ġs ales
ch ain
Ġdes pite
Ġd raft
cond ition
chedu led
The y
ĠB it
Ġhappen ed
d ig
net ic
ĠD ocument
Ġd og
Ġst ock
qu is
Ġh our
ĠT witter
ge o
Ġsp read
en ch
(" /
Ġs chema
at ar
il ing
ĠC lient
ĠVirgin ia
ag ger
Cl oud
g ers
j e
Mult i
ĠC ustom
at i
Ġmajor ity
ĠS IZE
iss ues
D R
Ġad opt
\ |
Ġresult ing
á ĥ
ĠS ource
ash ion
t k
ĠSup port
ME TH
ollow ing
Ar ch
ĠSum mer
Ġoriginal ly
Ġpr im
Ġend ed
form ance
ur face
Ġappoint ed
Ġad ult
SE LECT
ĠYou ng
Fr agment
H ere
ĠS pace
ĠA wards
Ġap ilevel
ect ors
pe ar
Ġcommun ities
& \
Ġf le
ĠT re
Ġ il
Vert ex
ĠM a
stand ing
bit r
r ick
En ter
ian a
Ġcl imate
L in
Ġgo als
as ion
ĠE lement
Ġdec re
Ġnot ed
Re quired
Ġc itiz
Ġst uff
Ġex ecution
Ġstart s
ĠW eek
ĠMex ico
ĠEx ample
az y
Ġon to
s b
ĠL com
Ġmur der
res olve
6 00
ot ic
group s
Us ers
bs erv
Ġalbum s
Ġn ation
" ],
view s
pe at
Ġcandid ate
ĠM ain
ian o
Ġsupport s
ay lor
Ġres erved
y cle
ĠF ROM
k l
Ġcost s
Ġ' ./
= -
ce an
support ed
Ġho spital
as m
} -
ond ay
r id
arn ings
R PC
get Value
Method s
ĠAL IGN
D b
N UM
Ġcom pl
Ġar rest
A rr
En vironment
Ġent ered
ĠJ o
typ ename
Ġrele vant
M iss
cl uster
con sole
CO MP
imit ive
stru ctions
W ait
iv ation
Ġsp irit
âĢ ĺ
Ġopt s
Ġa ircraft
Ġg uest
Ġex ecute
\ [
ar ia
Ġign ore
Ġf ederal
ĠIt aly
Com ple
is hes
P od
C G
h ow
ĠE con
ĠHen ry
in ion
D ictionary
The n
Ġmaterial s
ĠA ccess
ass andra
Ġs cheme
Ġtrans l
ĠDes ign
Ġpr ison
n el
Ġad just
Ġpre m
go ing
text it
G ER
Ġsh op
å Ī
Event Listener
Ġess ential
ind ent
Ġt al
; \
ĠSc ot
Ġa w
Ð° Ð½
our se
Ġr ates
ĠE lect
ĠE ven
Ġlook ed
198 7
Ġmult ip
v s
Ġmon itor
op es
Ġac com
side bar
}) $
Ġexample s
Ġre asons
Ġlead ers
R ob
Ph one
Ġgrow ing
b log
ĠS earch
Ġagre ement
Ġh undred
select or
mon th
Ġexp and
B egin
{ -
ul let
Ġc at
METH OD
st one
ic ed
ĠS aturday
Ġmatch ing
Ġshow ing
ĠW ood
I LE
Ġsp in
Ġwin ning
Ġsuccessful ly
b its
ĠM P
v c
t f
Ġident ified
ĠCont rol
Ġent ries
p a
ĠN AV
æ ľ
N N
ap is
ic ol
Ġtri ed
ib er
in f
R R
C F
Const ant
ĠS panish
alyt ics
non umber
Ġadd ing
ĠAl though
d evelop
ĠP lease
ä »
ĠComm and
hel per
w er
ĠE very
us band
b ut
D ay
iqu es
D ATA
Ġd ie
w arning
Ġinflu ence
n amed
Ġmost ly
AN T
M IN
sequ ence
r ift
Ġr ad
ail ing
Ġpart ner
C ast
# {
Ġact or
het ic
F ree
ĠTh us
Comp iler
n n
Ġmention ed
Ġb illion
Ġregister ed
sh ift
Ġem b
ĠComm unity
CH AR
d ots
Ġmet al
un ities
l at
ur er
down load
Sh ould
) -
ro ute
cl one
P UT
cit ep
ĠĠĠĠĠĠĠĠĠĠĠĠĠĠĠĠ ĠĠĠĠĠĠĠĠĠĠĠĠĠĠ
Pro gram
Ġpro ve
Ġtransp arent
Ġ( [
Ġcon cent
âĢĿ ,
Ġ" ",
Ġin nov
in ations
ĠB et
run time
wid et
NS String
ec es
um s
ic ator
m ouse
Ġall Classes
Ġhelp ed
Ġ" $
ab out
ist ed
Ġlaun ched
Ġdo or
W ORD
ĠS ign
ĠE li
pol icy
ĠRef er
Ġtr uth
s ync
Ġequival ent
istrib ution
f ast
Ġa im
Ġst ations
Ġcomp are
comm ons
con structor
Ġtri al
8 00
p erson
Ġch ief
ĠallClasses Link
Ġhe avy
Ġm d
in herit
SS L
Ġp i
ST ATE
Ġh uge
IO Exception
ĠB ob
Ġclaim s
on ce
OR Y
ĠAd min
b el
os oph
oper ation
og ram
Ġsp an
ĠK ar
tr ace
ĠVal ley
Ġocc urred
em y
S ave
od ies
Cont act
t w
Ġa ware
ĠCh ief
l ig
Ġsample s
Con nect
ess ions
Ġcont ents
N ET
Ġmod ified
vis ible
Comp at
ĠA re
is c
por ation
Ġwe ap
c atch
Con structor
ĠBo olean
ĠM iddle
Us age
Ġfor ced
Ġr are
p et
u ce
Ã £
ĠP ac
Ġke pt
ap es
ĠâĢ ¦
J oin
dr iver
D em
ĠOption al
s r
set s
in et
Ġc ursor
bl ack
Ġw id
Ġfeature d
Ġreg ions
p ull
25 0
Ġ_ ,
Ġp aid
Argument Exception
ust ain
CD ATA
ĠAt l
à ¥
RE E
Ġfin ish
Ġstr ateg
Ġprocess es
Ex ecution
Ġfrequ ency
Ġspec ify
, '
at omic
/ "
All ow
Ġle aving
Ġsus p
S erv
Ï Ħ
widet ilde
B atch
ress ed
198 6
Ġ rows
F act
ĠJ ones
ĠE r
pro x
pe ople
Ġfact ors
Ġus age
face book
Ġdam age
ĠC are
ĠL ord
Ġsh ut
Ġs ql
F UN
el er
? "
ĠS E
Ġide as
Pl atform
p ared
s lice
f actory
L C
Ġe q
Ġsen ior
ĠF ort
Ġcould n
clud ed
Ġeffort s
ĠOr iginal
urs day
OR TED
.... ....
W arning
Û Į
ĠC H
L imit
Ġm iles
object s
s he
ĠR est
Ġob vious
opt s
Ġph il
Pr ivate
Ġb oy
Ġunderstand ing
ellig ence
av our
Style ID
ĠĠĠ Ċ
% "
Ġad vert
ĠAp ple
F ocus
198 4
Ñģ ÑĤ
Ġd uration
Ġp aint
Ġstr ugg
trans ition
S igma
ver ter
Ġf mt
Ġres olve
sk i
Ġdem and
ust rial
Input Stream
agnost ics
Ġf ol
ĠR out
Ġex change
Dr iver
el a
ĠSw ed
l an
MO DE
Ġm eta
MOD ULE
ĠS D
Ġinterest ed
Ġ@ "
ul f
Ġt ags
ner gy
re lease
Ġoffer ed
V E
Ġadv ant
it an
ĠC ard
T ile
Ġa f
Ġ' \
ac cept
se g
Ġd ynam
ĠN av
ĠD ig
> )
Ġ' ',
ĠJohn son
ist ence
am in
c f
ĠIs lam
M ove
Ġr ing
comp ile
ĠW rite
Ġredu ced
Ġd ialog
lem ma
Ġdest ination
Form s
ĠC ross
por ate
high light
S K
ĠH uman
Ġco ast
Ġpart ies
al m
o es
Ġg overn
ist ing
se ud
is Empty
Ġcent re
Ġcover ed
ĠS ar
Ġload ed
dest roy
Ġflo or
198 5
D ev
tr l
ĠT ri
Ġpre v
al ing
Ġr adi
D iv
Un known
ĠNAV BAR
ER S
atic s
al og
Ġveh icle
ix els
O wn
Ġed ition
Ġsp ot
S creen
}} {
Ġrequire ments
Ġapprox imately
A ng
if ically
Ġcustom ers
Ġk ids
um es
ide os
cre ens
! "
ĠF OR
is ms
ceed ed
Ġcon vers
y y
S cal
10 1
A F
Ġ ig
Ġtop ic
B asic
ĠBl ue
ex pect
Ġass ign
Ġen h
as hed
D IS
LO C
Ġappear ance
n p
valid ate
ĠThe ir
Ġl ab
ul ator
vari able
Ident ity
ĠH aw
Ġ' '
Ñ ĩ
STR ING
ĠG i
lic ations
ak ed
Ġbe coming
ak a
ĠCon ference
mo oth
lip se
ĠL ab
ĠPl an
Ġw all
d y
am er
ri z
Ġk ill
ĠSt atus
ell er
" ].
S m
t ar
c ircle
Ġ" %
Ġsm art
Ġpower ful
ĠP H
d imension
av ity
Ġc ool
Ġrem ained
ĠChrist mas
Ġme ant
_ );
Ġ> >>
J ust
ĠS aint
p ag
() ),
Ġconnection s
âĢ ¢
kw args
Ġ" ";
ge bra
Ġint ended
Ġext rem
Ä ģ
Ġaud ience
Ġmus ical
elli j
ĠB razil
ĠO l
pl ot
os ure
Task s
e z
P M
Ġsu c
r ich
in itions
Det ail
sim ple
R aw
al ert
Ġan aly
ish op
alt y
ĠO N
Valid ation
Ġt sd
Ġp icture
d uration
S M
ĠL ast
Ġk ing
ad ium
im p
ĠW IT
Ġdepend s
ost on
C ALL
Oper ator
C md
ĠS ets
d c
z ero
set up
Ġthink ing
W rit
Ġin come
int ellij
Ð ¼
Ġun ion
c up
Ġis land
Ġl atter
Ġbeaut iful
ĠS elect
e a
ep er
IL D
'] );
Ġb ill
Ġcon ference
Ġvalid ate
aw a
v olume
d atabase
ext end
l arge
C apt
Ġcan cel
ĠAs ia
Ġtell s
or igin
ĠT erm
Ġh usband
ry ption
Ġcomb ined
Ġbound ary
Ġj oint
Ġp et
ORD ER
is er
=\ "
Ġdis k
os es
C ONT
ĠW ater
Ġd ynamic
Ġstud ied
Ġper haps
Ġas sembly
R C
iss ue
ak istan
Copy right
I AL
Ġb ind
ĠW ay
pl an
z ip
L ower
medi ate
resent ation
AN CE
oc key
="../../../../../../ ../
Ġposition s
Ġin tr
Ġr an
Ġr atio
\ ]
b atch
Ġconf irm
Ġfe et
depend ent
Ġw arning
Ġcompar ison
The se
Ġoffic er
Ġregard ing
t ex
Ġem bed
C LASS
ç Ķ
plement ation
ivers al
ĠS and
Ġaddress es
Ġrequest ed
Ġrest aur
Ġf ear
Serial izer
Ġaltern ative
Ġm otion
b g
Pl ace
h ar
19 50
Map per
Ġass igned
Ġident ify
Ġoper ating
trans action
ĠD B
b asic
Ġ' ';
ĠE mp
ag raph
Ġorgan izations
DE F
ĠGu ide
Ġf ru
ues day
Ġselect or
if fer
ĠIr ish
n ob
em it
Ġf amous
Add r
ir ation
ĠCh ris
Ġres olution
il ly
Ġl ived
eng er
Ø ±
ĠJ on
ĠW AR
l ife
lo op
our ney
Ġprodu cer
and on
ok es
Ġchall enge
Ġtraff ic
Not Found
s es
ĠM en
Ġw ind
dis able
mer ge
is set
LO W
Ġs ys
P lease
ex it
Ġbo ost
Ġfore st
ĠO S
ual ity
SCR IPT
D ATE
Ġdoc uments
ath an
Ġwrit ers
s n
U ES
sh al
App end
Ġ ice
sp acing
The me
ele m
Ġm agn
B order
ĠG re
com plete
UN D
assert True
Ġdr ink
ĠF amily
Ġrepresent ing
Ġs b
ot imes
Ġpro pos
li k
Ġjob s
s in
Ġaccept ed
ict ures
Ġcar ried
Ġr u
Ġg a
N ormal
ĠN et
ĠF our
R T
Å ¡
Ġnot es
ate ver
ok ed
sub mit
Ġaward ed
v o
Ġch osen
ĠR ights
g g
Ġd ream
w an
or row
Test Case
Ã£ o
Ġtask s
et es
Ġd aily
W atch
ĠM i
. """
tab ular
ĠM ock
" },
Ġbe at
Ġart icles
Ġf an
DO M
ir ror
Ð¾Ð ²
ĠPar liament
Î ¹
at ial
Ġbal ance
Ġimplement ed
dep recated
Ġp il
ĠRem ove
ĠDE FAULT
ĠAb out
over view
ĠOr gan
TR Y
cre ated
re ce
Ġg al
Ġin struction
Ġpl ane
Ġdiv ision
P U
B est
Ġcontin ues
R elease
method s
Cle ar
Ġw ish
ss l
ĠIn ternet
Cond ition
Ġal ert
UM M
Ġsc ored
A udio
Ġinst ances
ur ies
ĠF ind
Ġprob ability
agnost ic
F older
f riend
ĠB ow
ph ot
anc ell
F ore
ĠJose ph
Ġsup ply
lo ss
P ers
Ġto ward
Object s
/ .
Ġs ector
U ST
ĠM any
ĠH on
Nav igation
: @"
Render er
S V
Tr ansport
Ġpe ace
> ;
? ?
Ġs aved
ĠI llegal
Ġfin ite
198 3
getElement ById
Ġcomb ination
en umer
Ġcle arly
Ġf resh
Ġa head
Rem ote
ĠFrancis co
A xis
Ġf ish
Ġhistor ical
Ġev olution
Ġc row
Ġr ac
Err ors
C B
Ġdist inct
Ġat tract
: [
Ġown ed
Con sumer
Ġpl us
ĠGeorg ia
read er
ON G
Ġcomput e
Ġs ynchron
66 66
} +
ĠComm on
ĠL oad
ĠSt andard
t witter
Ġst reet
Ġder ived
Ġadmin istr
Process or
æ ĸ
ĠF ire
Ġl ands
Ġsp aces
ĠRes ponse
ra structure
b ro
ĠAp ache
nes day
Ġsom ew
Ġatt end
ys ical
Res olver
Ġc ities
pl oad
\ %
M essages
C ard
Ġprom ise
pro gram
be an
Ġcons ists
Î µ
ĠW al
ĠF igure
Ġc ars
re act
Ġs ync
s a
ial s
ch anged
put er
n i
Ġapplic able
Ġs un
for Each
Ġz one
log o
b at
uss ian
Ġ" .
ĠN ight
Ins ert
ĠOlymp ics
un te
Ġreal ity
Ġlead s
ĠH as
j Query
Ġal umni
O F
Com plete
ipp ing
AT ED
mem ory
Ġdet ect
B B
H tml
Ġnew sp
ĠAb stract
Valid ator
RA Y
ĠS ports
ĠX ML
ans as
ici ency
ĠH a
et o
Ġfr ag
D rop
ĠEn vironment
Ġar bitr
M any
ĠK h
Ġ ens
Ġch unk
al o
av ailable
ĠE q
Ġd anger
hes is
An notation
Ġdiscuss ion
ap y
og en
gy pt
ord ers
int eger
Ġsing er
Sign ature
ĠM ember
ĠApp lication
Ġreve aled
ĠM ah
ble m
str a
Ġ_ .
w ater
att ers
act ivity
can vas
Ġpl anning
ĠPol ice
} '
ĠWilli ams
ĠM ike
N V
Ġpo et
ĠJ ac
H ub
ack s
cent ering
us hed
Ġrelig ious
ĠA rea
Ġconcent r
Ġb ed
Ġcont em
Ġel if
f old
ab eth
p res
F n
m essages
ĠL uc
Ġg one
Ġb atch
å ®
i Ã³n
Con straint
Ġear th
C ursor
ĠL java
\ {
Ġf if
uck y
ra wn
f etch
FI ELD
= #
Ġcontin uous
AN G
ĠM onday
ĠB oth
Pro to
Ġcult ural
Ġis ol
od d
ĠAnd rew
ĠCol umb
Ġident ifier
c li
pr ime
i en
ĠT ele
ĠR o
ĠW all
Th row
C M
Ġb ug
ĠNor thern
Am ount
ĠV an
ĠW IDTH
ĠK en
Ä ĩ
ch er
Ġdep artment
ï¼ Į
Ġwait ing
Ġtalk ing
ĠWh y
w d
Ġw arm
T F
in ator
new s
Ġfl at
Ġsk ills
ĠW in
B Y
ĠDes cription
ĠSen ate
Ġem er
Ġlabel s
198 2
k top
m apping
Ð ´
ch a
ĠJ es
ĉ ĠĠ
Ġb its
ĠII I
ck now
Ġch air
Ġm unicip
Ġun iform
L Y
Ġofficial s
ĠR adio
Ġp urs
Str ategy
ult y
S pan
Ġdepend encies
Ġs eg
Ġs leep
p air
ation Token
Draw ing
W ord
h avior
ok ens
ĠSt e
ĠL ight
ĠM ot
Ġperm ission
B inding
0000 00
Null able
ĠF e
ĠA ff
pl er
ĠWh o
Ġ ult
Ġfr agment
j ack
Ġsur pr
ĠCont ent
Ġtrack s
not es
Ġsk ip
12 5
ot ing
In formation
f i
Ġs y
CON FIG
Ġrecomm end
ĠS ir
in ity
s ym
ĠN E
ĠB ad
bo se
ĠJ oe
nav igation
å Ĳ
os a
L ight
N C
p kg
Ġd a
Ġcommun ication
Ġb urn
Ġj ump
ĠBrit ain
o sp
sc r
c are
Ġ' .
ĠThe orem
RE D
ass ign
ĠS i
per m
Ġfootball ers
Ġn ine
Ġest imated
r g
197 9
ĠP erson
Ġm apping
ĠÂ »
ĠSp ain
Re quire
col lect
const ant
Ġm ouse
ĠT w
Ġbr ain
) =\
Ġstud io
urb an
Ġb asketball
Ġend s
Ġdr ag
St atic
n ative
Ġliter ature
f mt
ĠCh ange
ĠW alk
Ġig et
Ġup dates
to Be
rypt o
arg uments
Al loc
Ġne ut
ĠMus lim
Ġexpl an
v in
Ġs ocket
Ġapp arent
Ġe ye
ĠW ild
Ġtr a
M ill
Ġpat ient
Wh ere
quot e
Ġph oto
fe ed
Ġcustom er
Ġf iction
m ond
Ġtyp ically
ĠT aylor
/ ">
V AR
ĠMed ical
st rip
d iff
Ch ain
ĠJ eff
or al
HE AD
en ant
Ġequ ipment
se x
Ġprote ction
Ġvert ex
Ġloc ations
ĠL im
Dr ag
Ġ' %
Ġfind ing
t or
Ġt ournament
o pe
anag ed
greg ate
ed u
Ġallow ing
for ward
f lo
ĠN Y
it age
Ġn ice
Ġlist ing
ĠS outhern
Ġcons ult
ip her
Ġperm issions
est ic
s ome
Ġv ir
Ġst ats
Ġrel ations
A SSERT
ĉ ĠĠĠĠ
il a
du ce
vert ical
ion e
Ġcred it
Ġbenef it
ĠH y
Ġmet ric
aps ed
Ġnav bar
Ġstreng th
Pl an
Ġmer ge
Ġth er
onym ous
Ġd etailed
n ic
Row s
Ġknow s
1 10
ĠTh erefore
ov iet
V ID
reate st
Ġgu ide
AR D
ĠS ong
Ġecon omy
D uring
Ġcor ner
Ġr iver
or ney
ĠB ecause
ĠR am
Ġp sych
Ġh ers
ĠWAR RAN
y er
Ġem it
Wh y
Ed ge
Ġse at
2 13
Pre v
A UT
Ġindic ates
C enter
} =\
u v
ĠP rem
ĠL ay
ĠĠĠĠĠĠĠĠĠĠ Ċ
Fail ure
Ġno ise
Not es
yl van
F ig
ĠF ed
12 7
om orph
Gener al
Ġmot or
S egment
Sh ared
r ical
G A
Ġgu arant
Group s
Ġocc urs
P red
el ines
Ġslight ly
Ġare n
ĠW ales
ĠG a
L eg
un ct
Ġperm it
ĠTh ursday
direct ory
s en
LI ST
Ġnumer ous
s ig
> "
gener ate
ĠC ore
Y Y
Ġgu ess
Ġcontr ast
B ounds
ĠSer ver
ĠÂ ©
Ġvalid ation
L ib
def inition
Ġhapp ens
T Y
Ġest im
ĠThe atre
b d
L oop
B inary
Ġl abor
Ġ} }
ĠC ivil
Log in
Ġex cell
Ġtr ace
tr im
18 0
ĠC y
ong o
Î ½
st ein
Ġrecord ing
Ġtre es
Ġcount y
) }\
Ex port
Ġcont ained
Ġrun time
Acc ording
> \
Ġr ich
Ġop acity
L ibrary
ĠF und
Ġvict ory
Ġcomm ission
ĠN ext
id ae
Ã ±
Ġg ather
Ġphot ograph
F amily
Ġcy cle
Ġrece iving
Ġt ensor
Ġpay load
Ġcertain ly
r adio
Cont ains
Ġmap s
Ġsignificant ly
Ġauth ors
ĠPol it
se par
Ġsc r
D ig
HER E
D P
ad el
t wo
NO DE
Ġnetwork s
CO M
INS ERT
Ġf ee
Ġadmin istration
g i
ĠP ri
Ġres idents
Ġserv ing
ĠQue en
Ġb udget
Ġfocus ed
ag ma
p ad
å ħ
rypt ed
ult ural
Ġchang ing
Ġ ^
ĠN on
ĠW at
ĠM aster
Ġent ert
Ġfund ing
198 1
ĠM id
Ġcal c
Ġbeh avi
h ard
R ate
B i
get Id
ĠHo spital
: '
Ġmark ed
.* ;
Ġpath s
Ġt rib
maz ing
enn is
ĠU kr
ĠEx ecut
Post ed
ph y
ĠC SS
T AG
ĠDemocr atic
Ġpur poses
ĠMich igan
or ient
ĠD elete
Ġun iversity
Ġiss ued
{ $
Ġemploy ees
Ġle aves
fol io
Ġexp ansion
ĠB ern
K e
p id
os c
ĠH or
Set ting
Ġan c
ĠS af
tim estamp
Ġgu y
C ur
ĠC a
A SE
M aster
Ġassert True
ĠC OL
cont ents
ĠCl oud
Ġcr ime
met ry
(" #
enc ode
en ance
B I
ele ments
ĠL ike
du cer
Eng lish
Column s
V ICE
Ġes cape
Ġtyp edef
is a
z eta
Ġpol y
n eg
Ġfe at
M anagement
Ġdef ense
Error f
Ġmod ify
ap h
Array List
Ġgu id
Ġ à¤
Ġj s
Ġpr iv
ĠDan iel
Col l
Ġarchitect ure
burg h
l int
Ġan gle
Ġexp anded
Ġ$ _
Ġload ing
; |
) [
Ġded icated
b c
We ight
Ġdiscover ed
Ġdat aset
AT TR
Ġtri p
Ġorder ed
sub ject
ĠCol l
c hen
ĠProf essor
ali as
ex tra
Ġso ft
un a
amil ton
Ġpol icies
c uss
Ac cept
B ottom
str ings
Ġconf irmed
F uture
m ann
ĠJust ice
Ġmag azine
UMM ARY
cal endar
atter y
ierarch y
Ġyour self
Ġs ending
Ġsuff icient
Ġquant um
Ġbenef its
Ġr ise
ylvan ia
rt l
Ġpro ceed
ev in
lic ense
ĠSim ple
Ġdr ama
Ġrec ip
Ġattack s
Down load
Depend ency
Over view
ĠC urrent
scal a
grad le
ĠG reek
and o
ĠJew ish
197 6
197 5
Ġint eg
comp are
Ġfl ight
Ġlog ging
> ()
E ffect
] ))
B al
ĠSt ream
x space
Ġlead ership
Ġ{ },
cont act
r ad
V irtual
Ġro les
} :
sh op
rem arks
Ġt or
ĠJack son
ĠTh read
c assandra
u uid
S W
Ġinitial ly
u ations
Ġ< -
ĠF ar
Ġstandard s
ĠB oston
IN ST
ph rase
ĠĠĠĠĠĠĠĠĠĠĠĠĠĠĠĠĠĠĠĠĠĠĠĠĠĠĠĠĠĠĠĠ ĠĠĠĠĠĠĠĠĠĠĠĠĠĠĠ
ĠM ajor
Ġmy self
Ġrel atively
ĠS pring
S ame
Ġcitiz ens
M aterial
Arg uments
ĠM O
ĠĠĠĠĠĠĠĠĠĠĠĠĠĠĠĠĠĠĠĠĠĠĠĠĠĠĠĠĠĠĠĠ Ġ
Ġoffic ers
Ġbig gest
STAT US
ãĢ Ĥ
Ġm ist
FF ER
Ġse asons
ĠPac ific
Ġinst ant
Run ner
197 8
ĠH am
uff ers
or ial
Ġcr iminal
Ġcapt ure
pt on
ĠC G
valid ation
Ġs port
Ġmed al
ĉ čĊ
PH P
Ġup load
Ġ Query
Ġs ister
om ics
Ġcli ents
ro g
Ġindic ate
Ġt ick
ĠRec ord
che ster
ĠL ive
r an
Ġmeas ures
ĠR ay
Ex ists
Ġtim estamp
Ġc lock
Ġf ant
Ġtechn ical
Ġrap id
P Y
el ly
ĠP akistan
Ġcol span
Us ing
Ġcover age
Ġ' ''
Ġm o
Tim estamp
W IN
Ġel im
ĠR h
ĠPr ince
ĠC apt
197 2
ĠPro t
patch er
unn y
F OR
ĠL u
U nder
Ġturn s
/ {
Ġ ----------------------------------------------------------------
ĠRe al
ist ogram
Ġs ynt
Ġam b
ĠV ideo
Ġtre nd
Ġprior ity
ĠS om
low er
Ġrefer ences
ĠL ittle
T ra
Ob server
p resent
Ġpolit ics
. ;
Con sole
Ġsecond ary
Ġf ellow
Ġpart ition
glyph icon
St ud
Ġinvest igation
head ing
Ġpol l
ĠW rit
ĠB as
ĠJ ob
ĉĉĉĉ ĉĉĉĉĉĉ
ĠN avy
Ġ| =
Ġatt ended
ĠT uesday
( ()
A bs
Ġinvest ment
Ġm olec
Ġclass Name
Dep th
Tim er
Ġc ouncil
Ġwe ather
ĠInv est
ĠO C
ip er
Ġse ed
Ġcomm ands
d k
Ġregion al
Ġspe ech
ĠB uilder
Ġv en
ent h
ch art
ab ric
Z one
(" %
not ations
Ġrefer red
ĠF il
Enc oding
ĠCo ast
g ov
f all
y ou
Ġ ">
Ġs and
Ġexper i
Ð ¿
Ġconsist ent
ater n
V ec
ĠF ederal
Ġconc ert
im m
Ġanim als
C ancel
7 00
Ġdiffer ences
Ġ Å
ĠMc C
ĠSt an
Be en
ĠIN TO
Ġ rom
Ġdis able
Ġadv anced
init ely
ĠRefer ence
Ġp al
re pository
Ġyou th
Ġcol on
Ġch annels
z abeth
or i
Cont ents
Ġfavor ite
ru les
ird s
al ink
Ġbr idge
197 7
Ġtrans actions
ool s
Ġw ave
on to
Ġinstr ument
Ġed it
}_ \
;| &
S plit
Ġl at
se lection
Ġbeg ins
um in
ĠSe a
ĠS H
Ġs outhern
fin ite
AT CH
= %
Ġac comp
Ġadv ance
Ġpass ing
B IT
ent ed
per iment
second ary
Sh ader
How ever
pp ing
ĠConfig uration
c raft
_ )
Ġinter action
Ġsex ual
c ached
w a
Ġeff icient
ĠF urther
Perm ission
< <
Ġwould n
Ġro b
ash board
c fg
ĠAd v
Ġsee ing
( ['
ĠEmp ire
Group Name
j ax
ĠJ r
Ġhers elf
ĠE st
Ġadvant age
ĠÐ ²
ĠS UMMARY
St andard
Ġg ain
Ġpre par
Ġclaim ed
top ic
h u
es ian
Ġch ampionship
Ġcomp osition
ĠC R
Ġend point
im ize
S G
on ical
ĠE gypt
Ġdr iving
$ )
Ù Ĩ
Ġo dd
Ġlearn ed
R andom
ĠOb ama
AT OR
197 4
ex pression
Ġfund s
grad ient
Label s
ĠB E
ĠCh annel
g re
ĠP ack
E arly
con vert
On ce
Ġa lias
\ /
rupt ed
ĠJer sey
Fr ames
================================ ================================
Ver ify
Ġt error
fl at
Ġtw ice
av id
ĠUn it
ĠS us
B ool
Ġact ress
Ġposs ibly
Ġexecut ive
v ol
Ġveh icles
Ġhe at
ĠCon f
196 8
ap ple
ĠWed nesday
t ouch
am ber
r ame
h om
ff f
OR K
ĠCre ates
Ġd oll
ĠD ar
Res et
Ġp ure
S N
Ġ& =
ĠR ow
Ġm yst
Ġt end
Ġr adius
Ġs an
re po
Name Link
int on
ĠK ent
ay a
ĠScot land
Ġp arsed
Ġconduct ed
Ġtr ail
Ġf ake
p icture
Ġreview s
ĠBro ad
EN V
ĠBe ach
ĠC EO
ĠJ son
Ġop inion
Ġenvironment al
Ġw idget
ĠR en
ĠH arr
H older
ĠCar l
ĠT ro
Ġh air
OP T
Ġdiscuss ed
Ġp hen
DE X
C are
ĠL ic
Ġnor thern
m aml
Ġreturn ing
Output Stream
ĠP ay
197 3
Ġext end
display Name
po inter
ain ers
b uilt
s heet
b ury
Ġ{ %
Ġinput s
ns ylvania
ĠD ub
$ _
ĠOh io
Dep recated
ĠStud ies
Ġb inding
Ġspe ak
y o
Y our
Ġ& #
Ġest imate
Ġinitial ize
Ġpolitic ian
Ġach iev
ĠOut put
get Instance
Ġshe ll
ri e
cl osed
p end
) +
D ynamic
F N
Ġw itness
Ġhold ing
}) \
V D
ĠC ro
Ġaff ected
p ages
UN T
W ell
S witch
Ġn arr
enn y
ĠI ter
cri ptions
ĠO x
Ġf uel
P at
w arn
Ġst yles
ra q
Ġdevelop ing
ar se
Ġex ports
Miss ing
create Element
m ac
Ġopport unities
ug by
Ġfac ilities
enc ing
} |
ĠPhil ipp
]] ></
Ser ies
S ite
t ensor
Ġanc ient
R UN
el astic
Ġfil led
Ã ¢
are n
in ant
A ST
se q
Ġmain ly
class Name
}^ \
Ġbusiness es
ĠReg ion
ä º
Ġt d
A X
ĠE V
p b
s ass
ĠM ic
Ġpost ed
Ġrepe ated
Met rics
view port
Ġarr ived
ino is
00 1
ĠVAL UES
Ġa li
Ġcomp iler
Ġs ale
ĠT y
LE TE
ĠA sh
Ġstat istics
min ute
Ġv ac
link s
! âĢĿ
im b
Ġcandid ates
ĠSt ory
Ġdecl ared
J an
ä ½
Ġtrans lation
li bs
Ï ĥ
Ġfor t
Ġg lass
S I
Ġnew ly
HO ME
################ ################
Ġcop ies
Ġf older
En able
( --
Ġad j
Ġviol ence
ĉĉ ĠĠĠ
ĠPr int
Ġl ies
column s
ĠC ase
And roid
ĠS pe
Ġconstruct ed
Ġform ation
Ġpi eces
cre t
Option al
LE MENT
j et
ing ly
ĠK ong
Ġinit i
Ġor ient
Ġtre ated
ĠSt eve
ĠT ag
Ġc os
MA GE
app y
ĠStr uct
Ġco eff
ĠG ar
m obile
Ġach ieve
or ough
ĠB attle
ott en
a udio
Ġlang uages
Execut or
Ġexist ence
om ent
IC ATION
g z
Ġar my
ĠAs ian
ad oc
Ġhy per
te en
Ġex erc
W est
Ġassoci ation
ĠR om
res ize
è ¯
x sd
ub le
P OS
ĠVAL IGN
p aper
ly wood
ex ecut
Ġexpress ed
Ġ( -
h l
a is
Ġre pository
Ġex tr
P romise
Ġcomp liance
ĠM u
ĠA li
ĠSecret ary
19 40
Ġg irls
Ġbel ieved
Ġmar riage
Ġhel ps
{ (
log ging
en ers
SO UR
resp ons
**** **
ĠE nergy
ĠT ra
In ner
g if
ĠAl bert
__ )
ĠAdd ress
Ġdis s
alt Color
ĠL ear
Ġinj ury
Ġmod al
E val
w ik
Ex pected
197 1
ĠUs ing
er red
ship s
ĠB ol
amazon aws
Ġr ain
lin ux
Ġc art
Ġf ashion
ĠS em
) ^{
sk y
Ġthan ks
h ab
Ġim g
spec ific
Ġtr av
re nt
Ġgu ard
b lob
Ġcon straints
Ġinter pret
g ems
ĠSh ort
Ġtechn iques
Ġh ide
Ġelection s
Ġc er
Ġhand ling
re peat
Ġv e
Ġ Ñģ
Re al
ĠL ook
P ower
Ġp itch
\!\! \!
Ġw ww
Ġpre pare
Ġfeel ing
ore t
Con vert
i ant
ĠH ard
Ġproper ly
Ġcon vention
le ts
Ä į
od s
MA P
ĠA ws
Enc oded
Ġf etch
ĠEd ward
ĠBro ok
ĠSh ould
U pload
) ",
r pc
art ers
ĠD ouble
Ġdes criptor
b as
Ġmed ium
Ġclass ical
h pp
Ġcol lected
196 9
uplic ate
= [
Ġseem ed
m k
f re
C ounter
ĠCon text
Ġ-- ></
ĠD OM
d ark
ĠS at
Ġd ance
Id x
ĠCor poration
F ixed
Ġem otion
IL ITY
Ġacadem ic
if er
ann a
Ġh ydro
M ac
LA Y
ĠRepublic an
D id
rem ote
Table Row
del ay
m ime
Ġsuggest ed
h ot
T ouch
Ġwin ner
Ġw x
Ġman age
Ï ģ
Ġcheck ed
f ake
ĠAmeric ans
q quad
Point s
Â °
ust ers
n orm
get Type
ĠL ew
p ur
Ġover flow
Ġconsum er
Ġb right
Ġfa ith
ĠTh ree
ĠIn f
Ġr at
Ġcontrol s
Ġauthor ity
he ets
o ir
Ġk id
ĠST ART
ĠKore a
ĠK n
Ġact ors
Ġf ails
Ġpattern s
Å Ĥ
Ġ" '
Ġca ught
Ġp airs
S em
ĠE U
mer ce
gener ator
lic enses
ic er
b ug
ĠW is
Ġsup posed
ĠĠĠĠĠĠĠĠĠĠĠĠĠĠĠĠĠĠĠĠĠĠĠĠĠĠĠĠĠĠĠĠ ĠĠ
ibr aries
Ġm el
ĠK r
Ġcopy right
rel ative
R ot
Ġf s
G IN
Ġs ides
Ġconf lict
P res
Ġ` ``
C oin
Decl aration
Ġc e
( /
Di agnostics
99 99
Ġs chedule
uest ion
Serial ization
> '
act ual
Ġg oto
sol r
Ġa x
19 30
Ign ore
ĠR og
(' <
Dec imal
Ġthrow n
unk nown
Ġord ers
Ġexecut ed
TR AN
enn a
rit ical
N ational
ĠS end
ss ue
ĠF ood
Ġ& \
ĠClass es
Ġcre ates
vent ure
f b
ag a
jav ax
Ġt ail
Ġcre w
Ġsupport ing
Ġsec ure
mo sp
RES ULT
ĠI T
St ub
Ġpar allel
Ġs pr
F P
ul ing
t ile
Ġprop ag
Ġca uses
Ġmin ute
Ġpay ment
Ġform al
ĠH om
Av ailable
F ALSE
c ancel
Ġnu clear
w ill
Ġcom fort
refer red
Ġin n
Ġ\ {
act iv
UE ST
ĠP ers
Ġsub stant
UB LIC
ict ed
nob r
! \!\!\!\!
BU ILD
ĠÐ ½
> %
c ursor
Ġunder lying
let ter
Ġfre edom
S peed
ĠA T
Ġpor tr
ĠF eature
ĠB and
ĠCon nect
Ġact ing
Ġproced ure
dimension al
re le
Ġstop ped
th rift
Ġgo ogle
Ġsp end
cd ots
ail ability
RE CT
U AL
L IN
Ġ uri
i as
ĠK im
Ġhous ing
Ġexplan ation
U CT
Con verter
ĠR a
BU FFER
r im
ic ing
Po jo
pol y
Ġac quired
ĠHand le
Ġexpl ain
P i
SP AN
ĠP romise
w br
} ",
"> (
A ctions
att ed
Ġcom edy
RE SS
cover y
Ġequ ations
un ately
ĠFr ame
ĠBook s
Ġdec ades
s che
ĠB ang
Ġacc ident
h d
mult i
Ġgrant ed
Ġlink ed
ĠSt ation
ĠL anguage
Z ero
Ġdet ection
Ġmeas ured
Ġthous ands
å ¤
Or igin
ĠT urn
19 45
Ġign ored
ce st
ro vers
Ġben ch
com pute
d jango
Ġport ion
function s
ĠTr ust
Ġscient ific
!\!\!\!\! \!\!\!
Ġind epend
Ġdisplay ed
String Builder
bind ing
Ġfac ility
Ġun cert
M usic
l ab
' }
br id
ax y
,\ !\!\!\!\!\!\!\!
Ġgener ic
Ġw rap
ĠC ur
Ġem erg
udd en
ars ing
ĠD C
Ġ' "
on ia
ĠA D
Ġs mooth
ir th
ĠOff icial
Ġfind s
ab c
ĠPy thon
un es
S epar
Ġdec or
ĠBO OST
ĠChampionship s
ĠL o
ĠCo q
Des ign
Ġdepend ing
r f
AV E
Ù Ħ
cre ment
ref s
ĠV irtual
Ġextrem ely
Ġcomple tion
Ð ·
Ġoper ators
B its
Ġimport ance
ear s
ARN ING
un lock
ĠB uffer
Ġse ctions
Ġlog ic
Ġcr is
D en
ĠPen nsylvania
Ġj ourney
vent ory
b ell
an z
link ed
\ '
Ġentire ly
Ġs izes
ig ate
Ġbound s
Ġm useum
Con s
ast ers
ition ally
Ġplace holder
Ġpl ants
ĠC ond
Ġatt ached
Ġs pring
Ġwh atever
C CESS
ĠF ull
Ġk ernel
us et
text width
sh are
ĠSc iences
L icense
< >();
c les
F eed
Ġc old
Ġbro ken
m ir
G EN
b us
T y
T uple
Ġp ipeline
N ov
Ġvoc als
Ġcon ven
ott ed
IM IT
ĠB ox
Ġwatch ing
l aw
arch ive
Ġmod ules
ĠH amilton
qu o
10 24
ph ony
IN VALID
ro uter
Ġa ria
LIC ENSE
/* !
d on
br and
as p
Ġre verse
not ify
M R
t i
Ġcook ies
Ġv ision
Ðµ ÑĢ
ĠS oviet
196 7
Ġc b
Ġspect rum
Ġf ell
Ġpack et
ĠOn ce
Y es
Loc ale
>< !--
ĠGu ard
Ġd st
ra ham
Ġmass ive
Ġpre pared
ĠRout e
B ad
ens itive
ident ial
Ġchalleng es
Feature s
ĠF air
Ġro ugh
Ġwork er
id i
ĠÂ ·
ĠR od
g raphics
Ġ- =
Ġoffer ing
ak i
Ġhous es
inter val
Ġpl anned
get String
Ġfig ures
Ġliter al
ic ode
Ġprote in
Ġca ref
E st
Sh arp
Ġend ing
ĠHistor ic
Ġmark eting
anch or
M ust
Ġlist s
Ġeas ier
å Ĭ
Ġmag netic
ĠL td
I ME
G C
Ġimprov ed
ĠPar se
Aut hentication
Ġto k
ĠC at
ĠB a
annot ations
Ġact s
ĠAut o
Ġv m
Ġ era
a ired
Ġclass ic
O wner
Ġk ick
19 20
ur able
BO OL
19 64
Ġcirc um
Ġinc ident
clud es
C ity
W in
Ġm igr
Us es
w allet
sd k
Ġd elegate
Ġvel ocity
× ķ
ap prox
Ġst ress
ĠS C
50 9
Ġthan k
Ġconver ted
R ules
o les
Ġan chor
Ġsh ock
Ġc ached
ign ore
W ill
pr agma
(" \
Ġexperiment al
ret ch
ĠIs lands
gorith ms
Ġsk in
Ġapp rec
A nt
E Y
Ġe ase
Ġcontrol led
Ġiter ator
Ġs ounds
Ph oto
ĠB Y
Support ed
Ġgu ys
go og
Del ay
TI ES
Ġhot el
B L
qu ir
rop y
c ounter
ĠBy te
ĠF ox
= $
us r
Ġag ency
Ge ometry
Ġsub mit
iz z
Ġ ur
An alysis
. ',
sp irit
s un
c ue
ĠPro duct
in er
á »
ĠE s
Ġneighbor hood
¿ ½
Ġdef end
H ave
ate st
Ġspec ifically
Ġtr uly
ĠChild ren
Ð° ÑĤ
ĠEast ern
Ġs ustain
Ġb ass
ad ed
P ress
æ ķ
ik a
Line ar
ĠCh air
ser ies
ost er
Ġweek end
S core
K it
ĠD eb
Ġman ner
Bl ack
Ġsem i
ĠC OM
ĠB al
Ġmaint ain
ĠV ill
Ġstat ements
ĠEngine ering
ĠĠĠĠĠĠĠĠĠĠĠĠĠĠĠĠĠĠĠĠĠĠĠĠĠĠĠĠĠĠĠĠ ĠĠĠĠ
Ġcontrib ution
BA SE
Ġann ounce
"/ ></
] \
Ġa mazing
Ġ' #
ĠD utch
f older
Ġestablish ments
Ġdes ired
ĠPub lished
Ø ¯
BP ACK
Ġimp lies
PRO P
ĠLem ma
Ġem ph
eg o
refer ences
Ġm al
ap ed
ĠT oday
Ġcommit ted
Ã º
por ter
and y
load ing
ĠAcc ount
ĠWARRAN TIES
Ġb ow
Ġach ieved
F oot
form ed
Ġrecomm ended
ĠI raq
Ġexpl ained
Ġdescri bes
Ġb in
Ġchem ical
Ġs yn
ĠPr ime
Ġtyp ical
A Y
Ġcl one
{ {\
ĠWil son
st andard
" ];
in x
Ġteach er
ĠÐ ¸
sw ing
Ġal ter
ĠB on
in son
Ġv ary
C r
ĠS a
mem bers
h ave
ID E
as i
O ld
Ġa wards
fore ach
il arly
ĠPh ot
Ġpartners hip
Ġdel ivery
ĠEli zabeth
ĠAn other
FLA G
Ex ecute
Col lect
Ġcomp act
ĠB ul
Ġpr ime
Ġcomp atible
e en
Ġv ideos
Ġ( %
iven ess
Ġdro pped
Ġsee k
Ġprof essor
Ġhon or
ament al
ĠP C
O C
Ġt on
Ġarbitr ary
Ġprint f
Ġd eleted
L ike
Ġp erman
ĠA ge
- $
ĠIll inois
3 60
Ġw ire
rodu ction
Ġf avour
% "><
Ġpost s
D irection
Ġun able
um a
ĠN C
od o
Ġsupp lied
196 5
po i
T w
ĠP ut
Pre vious
Ġperform ing
}} (
Ġfight ing
Mon th
an th
Ġpurch ase
Ġeven ing
ĠR ight
w iki
c u
ĠSer ial
f p
}\ ,
P G
Ġwest ern
~~~~ ~~~~
Ġphot os
ĠN ull
C amera
Ġc ab
Part ition
it led
d st
yd ney
Ġcont est
con v
Ġb ond
Ġed ges
m ms
Ġst able
ĠS on
Ġind eed
ick y
enc oding
get Class
- (
Ext ensions
it i
md c
pt ure
L iteral
ĠĠĠĠĠĠĠĠĠĠĠĠĠĠĠĠ ĠĠĠĠĊ
Ù ħ
Ġcon version
Ġuser name
Ġtarget s
Ġmov ies
Ġcalcul ated
] $
pr iv
P resent
Do ctrine
Ġinsp ired
d irection
ĠC ountry
ad r
ap ore
d anger
ĠE th
ĠB oy
ph ia
Ġbel iev
TO M
Ġg ar
Ġfeat uring
Ġsett lement
des ign
Ġepis odes
tool tip
ub ble
U K
Ġw arn
Ġro ut
Cal endar
` )
ĠSup reme
Ġde ploy
ĠUR I
min us
) |
Un ited
ĠC art
ĠF uture
Ġ' _
ĠJ S
Ġ ing
ĠE qu
Ġprogram ming
Ġd elta
Ġcar bon
ch unk
Ġle tt
Ġcur ve
. ~
d ocker
em bed
Com mit
Ġg rew
ĠAl b
Ġsp ons
n os
ov al
m ount
-------- --
19 66
Ġdestroy ed
Ex pect
Ġexcell ent
Ġp ending
c urrency
Ġaccount s
omet ric
ĠB BC
Ġnear by
pre vious
Ġcorrect ly
ixt ures
Serv let
ord an
Ġtext ure
Ġg ender
Ġdefe ated
ĠCom ponent
az e
in ject
cept or
p son
Ġearn ed
ĠW atch
Ġstore s
As sembly
ch ant
Un iversity
Ġadv ice
} %
ĠL atin
Ġattempt s
S pe
ĠD er
ĠH ong
el d
Ch art
ĠL y
cl s
ĠV iet
Ġpract ices
ell s
FLA GS
t l
h istory
op her
ĠW hether
get Message
D TD
Ġprom pt
Ġconcern s
c ountry
ĠE RR
Ġc as
Ġp un
B reak
Ġh aven
Ġpolitic ians
Å į
ĠT ree
External Task
Ġs am
m ag
enn es
Ch unk
Ġlim its
In ternational
ï ¿½
pect or
E P
pro d
Ġl ose
M s
Ġint ent
Ġp owers
Ġpro min
Ġcomp osed
}\ \
LA B
L at
Â ©
sc ore
ĠSt ore
Ġengine ering
ĠPub lish
ĠĠĠĠĠĠĠĠĠĠĠĠĠĠĠĠĠĠĠĠĠĠĠĠĠĠĠĠĠĠĠĠ ĠĠĠĠĠ
% .
AC H
Ġex pos
Ġan imal
T ube
Ġpe er
os ite
Ġs quad
adel phia
Ġsubsequ ent
ĠDig ital
ou red
Cre ated
item pty
osoph y
b ec
ĠC ost
E very
Ġth erm
Ġpartic le
Ġcomput ed
è ¿
ĠS ab
Sec ret
th ur
Ġre action
f uture
Ġc lip
Ġexper iences
w r
Ch anges
Ġin ject
om itempty
ĠF ALSE
amp ions
Ġa cknow
ĠH un
Ġincre ases
Re ason
out s
ĠEd itor
ach uset
ial ly
Ġcol ors
A SS
ĠW ars
UR N
EX PORT
Ġplan et
Ġlimit ations
achuset ts
al g
Ġcheck s
db c
Ġen umer
ĠR on
Ġenc ounter
ĠProv ince
erv ative
pos ite
ExternalTask Pojo
ib li
Ġmechan ism
OL D
ĠSe ason
B ER
Ġhistor ic
Vis ual
New s
ul s
ĠLog ger
Ġg ap
y ard
p rom
ys ics
ĠN a
ĠA ud
Ġap art
greg ation
">< ![
Ġkeep ing
**************************************************************** ********
Ġdeg rees
ĠF A
F urther
ĠColumb ia
T yp
Trans ition
ĠPro p
Ġrecogn ized
loc ale
cri bed
ru ption
E mit
c ourse
egr ation
Ġele v
O k
ask a
pub lish
Ġcre ative
PRO C
sec ut
Ġform ula
ow a
an im
Ġn a
Hash Map
] +
over ning
D iff
ĠIn ternal
am ond
ys ql
Ġcapt ured
S napshot
add Class
Ġprim arily
Pack et
ĠA venue
Load ing
Ġin herit
Re act
Ġv ent
ir k
Ġadd s
æ ĺ
ĠM anager
Ĥ ¬
ĠStep hen
sh a
Ġs cheduled
S outh
Ġ# {
Ġcan cell
Ġdecl are
pre c
am ount
con current
Ġinstit utions
Ġfunction al
yg on
p n
Ġredu ction
ly n
Control s
ĠPort ug
Ġ$ (\
AR G
Ã© s
Ġclin ical
ver ify
Ġalong side
Ġal pha
ĠE ric
Ġf ly
ĠJ ean
Ġcell padding
cl osure
Ġm ent
ĠRes pon
bserv able
Ġassum ed
%%%% %%%%
Ã ¸
ri ent
M ag
ĠM att
ĉĉĉĉ Ċ
Ġc ensus
ĠAn th
go od
et ween
(' ./
TH ER
O ct
}^{ (
Ġauthor ities
Ġadd r
Ġtit les
Ġrec ru
part s
ĠRun time
ĠComm un
Ġlarg ely
Re place
or er
ĠA k
Ġcommit tee
[ <
Pr imary
WE BPACK
M ost
TER N
Ġm ach
aw esome
Con tract
": "
process or
ĠTr ansport
Ex tra
ĠS ite
File Name
Ġent r
Ġhelp ing
U A
ac ent
v ard
An chor
an es
Ġc ircle
Ġte aching
Ġrail way
ĠAlex ander
ox y
Ġsh ips
B ased
Ġp ra
tr ansport
ĠIt em
Ġadv oc
ĠG overnor
Ġpr incipal
Ġb an
Ġl ie
Ġus ual
ou ston
F igure
Ġth ick
Ġth reshold
TableRow Color
ap ol
LO AD
end point
de ep
Ġpers pective
Ġtrans formation
P riority
Ġappro ved
I p
qu id
ĠG reg
oc cer
ĠR O
, $
u ction
map s
Ġt f
example s
IMP ORTED
T ele
SP ACE
Ġjud ge
ĠWh ere
lic a
ac er
el i
Ġtable s
ĠD u
Ġdoub t
ĠK EY
Run ning
ĠN ative
S am
Ġrelationship s
OB JECT
G it
Ġcoordin ates
Ġs in
ĠU P
ĠDon ald
B rit
ops is
are st
ĠAg ain
b ounds
yn om
ac on
ST ART
Ġrot ate
P ane
d ays
ĠN ick
S elf
Ġcharg es
olog ist
P ush
st ances
p ic
Ġb old
styles heets
Ġown ers
ĠMA X
Ġfif th
M r
Ġc m
Ġar ms
us al
Ġa thlet
EN ABLE
ĠVictor ia
ur ations
ĠMin istry
0000 000
Ġdef initely
ĠIm mutable
dat etime
w orth
ĠB all
og y
or ry
Ġsuggest s
: -
ile y
ĠOn line
ĠC reek
ĠF ix
HO UT
Ġout er
ĠV en
sem ble
k ernel
erv es
Ġdr am
ordin ate
St ar
__ _
> `
aa aa
ĠL ow
ĠS ym
Ġcell spacing
ĠM arg
ise cond
conn ected
Ġhe aring
el le
Ġhe nce
Ġwid ely
C ountry
Ġind ustrial
ĠA P
nt ario
T ex
In f
Ġm ental
Ġh op
google apis
Ġimp lied
r v
unn el
Ġlisten ing
G P
Ġjust ice
u j
Ġcl s
ri ev
ĠBr ad
Ġcon straint
em ic
^ +
dec ode
× Ļ
ĠB at
C trl
çĶ ¨
Ġn ob
ul p
Ġl it
ĠO P
N I
SS ION
He alth
Mut able
Ġcontrib utions
* ,
Ġneg ot
^^ ^^
ĠS anta
fr ames
in ating
Ġsh if
ĠN iger
cons in
ĠAd am
nes ota
Ġpro test
Ġden ote
Rece ived
ĠS ant
ur d
AR RAY
Code c
C annot
Ġv o
Ġg ene
part y
out heast
fr agment
Ġin ternet
s pe
Ġret ail
. [
math sf
SP AC
Ġm ort
Int ent
ĠC HECK
Ġlett ers
G LE
st o
O h
ne q
Has Been
ADD ING
ĠOx ford
Ġinf rastructure
Or iginal
ow nt
Ġf aster
ock s
Ġstand ing
Ġas pects
Ġdim ensions
Cont in
Pro f
Ã© e
CRE ATE
ĠH ay
Ġs ac
ĠS V
ĠĠĠĠĠĠĠĠĠĠĠĠĠĠĠĠĠĠĠĠĠĠĠĠĠĠĠĠĠĠĠĠ ĠĠĠĠĠĠ
u ency
Ġ ri
Ġelect ronic
ĠAss oci
jack son
Ġserv es
te am
sl ide
st age
Ġdo ctor
om atic
Ġe at
ag en
H is
ĠI mp
mat ches
() ">
Ġindic ating
Ġalleg ed
10 2
Ġmag ic
ĠC ulture
B ro
>( <
Ġcalcul ate
w t
Oper and
ab il
Ġreport ing
A I
v endor
Ġs ph
196 3
ĠD ark
ok ing
Ġbel ief
Ġvol unte
P ut
H L
B ACK
ar ry
Br idge
Ġcharg ed
ĠB ell
ĠU til
Per iod
M ount
includ es
AP P
Ġsurround ing
phot on
ĠK now
contin ue
ĠL abor
! </
Ġext ent
ĠPl ace
local host
ĠOper ation
Ġcon sequ
Ðµ ÑĤ
Ġlog in
') ->
up dated
t re
Ġm and
pe ction
we ek
ĠScott ish
s z
no frame
b inary
Ġl oved
Ġsur g
w x
th umb
> ${
put ation
m ad
Ġnot ification
An other
O FF
m iddle
Ġobserv ations
Ġexper iments
Ġp atch
Ġdist ingu
13 0
M achine
Ġbase ball
Enumer able
Ġcr ash
ĠF ord
p in
row se
Ġunder st
m ay
ĠS P
Ġf i
Ġpr ices
Ġl osing
ĠHar ry
Rel ation
Ġc ategories
Ġh abit
Ġm ail
Ġm ess
al so
ĠB efore
ach er
code c
Ġdec isions
Ġvis ited
Ñ ĸ
ul ating
ke ep
ĠT ABLE
F actor
Ġrep ly
R a
Ġl y
c mp
T L
Ġn arrow
ĠT ry
fr ag
Ġprom ote
b ench
ip h
ĠCol umn
____ ____
Ġoper ated
Ġa st
list ener
View Controller
Ġmount ain
Ch rist
Ġis instance
ist ical
Ġ urban
Ġest ate
be ans
Model s
ĠRep resent
ĠI R
Ġperson nel
P REF
Rev iew
pear ance
U C
force ment
EN TRY
nt il
label s
ig a
Ġocc asion
ĠD ebug
g ence
Ġind ices
pre d
C ulture
Ġp ed
Ġpublic ation
ff ee
ĠM ust
ĠR os
s quare
ĠPol and
Ġat mosp
ĠO s
196 2
Ġf oo
Ġfile d
Ġvot es
plement ed
Ġhom es
Ï Ģ
om m
ĠT OP
Ġdiv ided
set Text
Ġr ural
ut ely
includ ing
te ction
ĠF C
Ġnewsp aper
Ġexpl ore
AT URE
Ġn s
Ġsol o
s peed
Ġfra ction
reg on
Ġleg end
} +\
Ġconsider ing
pl ays
== =
tim er
Ġb odies
ip edia
Ġread ers
ref resh
Ð¾Ð »
Ġbr ings
Ġexperi enced
Ġd ry
Ġb undle
ĠDav is
ĠR ender
ag g
... )
ĠTor onto
Care er
/ )
Ġmet rics
ĠG allery
ub ern
Q ual
Ġide al
ĠCon vert
S UP
t ainment
on om
ĠB C
Ġret ired
ĠDate Time
u ent
red irect
Ġa apt
_ [
Ġwrit es
um ps
h space
w ing
em an
ĠSt aff
ĠHot el
ĠR ose
Ġpro to
Ġrespons ibility
S ide
Ġstrong ly
Ġcris is
P ixel
Ġopp osite
Det ector
HasBeen Set
Ġpro s
Ġch apter
Ġab ort
k es
Ġred irect
SOUR CE
Menu Item
Ġcontem porary
Ġ' -
Ġpartic les
Ġ======= =
ĠT YPE
Sup er
Ġmark ets
Ġindic ated
Ġw ins
Ġbring ing
Im p
pro duction
Ġp ert
Ġdet ected
EV ENT
Ġsold iers
b old
Ġw inter
Ġv on
(" .
ec lipse
DE D
m n
Ġsol ar
Ġin structions
H z
} },
ĠIn valid
Ġc ash
uff ix
cit et
z o
ĠBer lin
Ġb ucket
riz ona
rop ol
on omy
Ġco al
ĠPr ivate
Ġst orm
eng ers
Ġweap ons
A lias
Ġmin ister
fa iled
Ġsl ot
lo om
An im
ert y
Ġsh adow
55 5
Ġrot ation
Ġg overning
Ġdeliver ed
In struction
Ġcommun ic
ut down
b ucket
end a
Or gan
ĠMethod s
Ġcont rovers
ound ed
s ur
Ġclub s
ed er
Ġcan vas
S ources
Format ter
fl ush
ĠExecut ive
Ġd ictionary
ĠG ro
Ġge ometry
Ġtest ed
Ġsh aring
c ross
ĠL at
ĠD oug
ĠMass achusetts
ac o
Ġre con
ĠD NA
ĠB ru
not ification
he im
Ġadopt ed
C SS
se ason
}} {\
ĠH al
ĠIllegal ArgumentException
stats models
m ic
Ġs we
ĠE ll
__ ,
por ated
ether lands
ele d
ar on
Ġcom pr
> {
Ġsing les
Ġtem porary
Ġhe av
Ġs udden
ĠS SL
è ®
PAR AM
Dis k
Ġd rawn
ĠB ORDER
Ġass ets
Look up
Ġpro port
Ġrem ark
Ġpe ak
Ġprov ed
z h
con cat
ĠI F
at ibility
ĠD est
Ġinterest s
dis patch
Ġk w
ĠP ot
ĠS ydney
ĠEx pl
ĠArg ument
exp and
ĠC ub
Ġelect ron
late st
B uf
item ize
ĠF all
ast y
at riate
Ġg reatest
ĠFore st
lic ated
feature s
Work er
A K
Ġc riteria
value Of
AS H
flo or
Ġw rapper
av icon
Ġincre d
ĠLew is
text ure
enumer ate
Ġrespons es
sl ider
ĠBr idge
ĠGener ated
F ac
Ġman ifest
N ONE
Ġexplicit ly
CR IPT
pay load
U nd
ĠD am
ĠEx p
ĠW ord
ĠA rr
Ġscal ar
Ġintegr ation
ĠTR UE
ĠH ung
IT LE
es is
SS AGE
ud es
ĠDe ad
Ġw a
ĠInst ead
ĠR yan
Ġdem ocr
Tem p
ĠMark et
og ether
ĠAct ive
Ġmov es
g ar
ĠC ert
Ġcomm only
AR GET
Ġc overs
l ot
Ġsubs cription
t le
Ġr c
C UR
'] .
st e
ĠT ok
Ġarrest ed
ĠD aily
j u
ĠF ac
ch at
Ġk illing
itor ies
Ġy es
ane ous
RE T
OT TOM
ĠOC aml
Ġpack ages
ĠY es
def er
Ġshare s
ack et
Ġag ric
Ġb ought
c n
bour ne
Ġsil ver
com plex
Ã¡ n
- ">
Tr igger
err ing
Ã ¥
Ġapp s
N orth
Ġappro aches
pre pare
Match er
Ġprogram me
m ix
Ġ" ${
W r
ĠB log
oc om
S ol
com ple
it ivity
Ġclos er
14 0
Ġqual ified
ĠI V
Ġwe alth
Ġc raft
s uch
Ġeval uation
Ġg lob
Ġ å
ĠAr m
Ġdeb ate
t m
ivers ary
r ank
od a
Ġgener ator
Ġvert ices
W eek
Ġrece iver
ĠC as
Ġs now
ĠMed icine
SU CCESS
aw ay
Ġcol our
Set up
Ġaccur acy
uck s
Ch o
ĠT err
ĠD or
ud a
A MP
ession al
æ Ī
Ġt ight
e ah
Ġdefault s
re ason
ateg or
Ġdi agram
Ġdec ade
ĠL es
D avid
Ġbo ot
Ġag ents
Ġpercent age
f w
Ġscen es
Ġy ards
Ġang ular
Al ert
W I
f ilters
ut r
T ry
F etch
Ġlay ers
ar ity
Ġal gebra
Ġder iv
li x
ann y
Ġwindow s
Ġar ts
196 1
ex ecution
pop up
Ġdi agn
Ġorgan ized
v ing
ĠN um
Ù Ī
Ġre nt
ĠC ru
trans late
Ġst ands
At trib
CO MM
ist a
s is
l ined
Ġher o
Ġfe els
u er
Ġc atalog
qu ency
serv let
I ES
Ġh ook
ĠB udd
ĠFore ign
Ġfeed back
Ġparticip ants
19 44
F i
se cret
ĠCEL L
Mod ifier
sp ark
Ġhel per
D istance
med ium
Ġ- \
SPAC ING
lim its
ĠM E
Access or
G RO
Trans lation
ĠHash Map
Ġpers ons
iz ers
ab stract
Ġim press
ĠSk y
E nt
Ġ iron
u h
Ġdis ap
ĠR aj
az a
N ON
Ġshoot ing
Ġconvers ation
Ġpar a
ad v
Ġ' @
N ECT
b x
ĠF I
ri ends
tr i
fort unately
Ġfamil iar
Ġac id
Ġro utes
Fil ms
C ent
per ial
Ġrecogn ition
ĠN eed
Ġd ates
Ġyoung er
c op
V ol
Ġcamp us
attr s
ĠVer ify
" ?>
m x
t ail
sc ious
ul ner
AC HE
ĠF ish
g overnor
ĠM ill
m anagement
L D
Ġ" [
Ġt er
des criptor
T l
Ġsepar ated
Ġhum ans
ĠAnt on
S UB
wide hat
+ "
ĠR oss
WA RE
G ateway
1 16
=" {{
} -\
Ġaccur ate
ĠColor ado
D ict
ĠS ound
Ġbehavi our
p od
Ġst one
o a
Ġst roke
Ġfor g
G raphics
ĠÐ ´
ĠD im
) }{
Met ric
Ġ( +
ĠBuild ing
Z oom
Ġposs ibility
an ia
get Attribute
ĠWIT HOUT
to Equal
l ive
Ġfil ters
Al pha
Ġwor se
Ġdec ide
ĠG ree
d elegate
load ed
Prot otype
run ner
N eed
Ġc ro
urs ive
M IT
h ook
Ġa id
ĠR ome
a ug
F re
sche mas
tim eline
Ġ" #
Ġtem por
×ķ ×
Sup press
Ass ociation
Ġs v
member NameLink
Ġdynam ics
Ġinvolv ing
ĠArg ent
an alysis
E v
act ic
Ġr id
ĠCont in
t oc
Ġass istant
S pecial
ĠS ep
S afe
fe ction
Ġm ath
Bit map
Ñ Ĩ
Ġtr ained
st ates
Ġs ed
ig ator
t v
Ġpass ion
Test ing
ĠMag azine
Ġab andon
Ġd ire
Data Type
ex cept
ĠEx pression
Ġ* ,
h our
cri ber
Ġp ixels
W ORK
ĠCon sole
Ġsign s
T ensor
ĠRes ources
]( #
decl are
Ġf ired
Ġperform ances
Ġreject ed
th rough
$ }
ĠSystem s
P adding
ĠL L
Al so
ĠO ptions
Ġfrequ ently
ĠS ize
Ġqu eries
Ġtechn ique
11 1
Ġs ender
end o
F ixture
Mon itor
LP ADDING
Ass et
Ġpr incip
ĠPhil adelphia
Ġk it
li a
Ref lection
Ġmeasure ment
( `
ĠE nc
S ports
sp ir
Ġhost ed
Ġconfig ured
ĠGold en
ĠÐ º
Ġh all
ph ase
ĠSt ock
ar l
ĠCon nection
op am
ic ious
ĠM ir
d am
Ġrestaur ant
ĠL I
Ġmom ents
b p
unic ations
ĠCELL SPACING
ĠTh rough
ug ar
ĠCEL LPADDING
ext ensions
x l
Ġh its
h olds
ing ham
B el
Ġterm inal
ĠL ie
! =
Ġult imately
Ġclass ification
t ol
st ud
Ġb ands
Mer ge
Ġcomp re
cuss ion
is or
Ġreplace ment
] </
Up dated
the orem
Pl ot
ĠJes us
Ġsubsequ ently
Ġor ig
Ġconcern ed
ak h
ĠPH P
Ġ" _
t ele
elastic search
ell ar
ag ement
des cribe
arr ing
Ġhor se
app oint
ĠJac ob
D ITION
File Path
Ġm m
cp u
C LA
ĠT arget
d td
19 48
Ġdom estic
MP L
Ġf estival
me an
Ġab use
Ġtro ops
G ood
Ġ' ,
ĠSing apore
ĠO k
Ġwor st
act s
AR B
A ustral
E LEMENT
Ġprefer red
Ġwill ing
Ġim pl
] ->
Ġtok ens
V O
iffer ent
ĠWis consin
Cert ificate
Ġtechn ologies
Ġinstit ution
Ass ign
Ġrelig ion
ĠB rian
ĠIm Gui
Ġofficial ly
ĠA h
ang ers
ĠBel g
Ġint elligence
Ġreg istration
Com ponents
ĠH ost
Ġsc an
sub Nav
ĠN ations
Ġdec om
g p
depend encies
XX XX
B M
] ['
âĢĻ ,
( {\
0000 0000
ades h
A zure
ĠC hem
Ġfor get
Ġs i
Ġcert ificate
qu es
Ġbo ys
ĠK at
ĠL ady
gener al
Pay load
draw able
ĠA bb
p ot
ĠC hen
Ġsc atter
ĠCl in
E s
az ure
le ton
195 9
Second s
tool bar
Ġb omb
roll ers
Ġr is
cul ate
ig e
Text View
ĠKore an
ident ity
ĠMod ule
Ġacc um
Ġg it
Can vas
Ġhon est
WR ITE
H er
Ġ< ?
ĠL ater
ĠM iller
ĠE ntity
Ġp ref
task s
Ġdr ivers
SER VER
T X
CO UNT
195 8
Ġ$ ('#
P ending
N eg
ĠR eb
ob serv
Ġask ing
Ġinter pre
work s
iv ial
p ending
ĠMay be
Ġex posed
Ġref resh
Ġpre ced
Ġst rip
L ines
ĠCam bridge
z y
ĠC red
Ġtransfer red
Ġb aby
b est
max cdn
c ases
Ġse ats
REQ UEST
ĠTr ack
ĠMin nesota
ĠW HERE
Ġpass es
M ich
our i
ĠI L
ĠNS String
Ex it
Ġaut hent
Thread ing
ĠA C
1 12
c amel
ĠRev olution
erial ize
l ap
ĠB asic
Ġex ec
Ġqu iet
script s
Ġfl ash
ang el
Hel lo
ĠD uke
pi pe
Ġt aught
d istance
Ġcap able
ĠM S
ust ed
Ġtalk s
Qu ant
ĠK IND
ĠK enn
Sc ene
do or
Ġh a
ow s
Ġne ither
i y
L ife
Ġeval uate
Ġs yntax
Sub ject
pl ain
pag ination
Ġprov ince
Ġman ip
Ġphen omen
Pop up
vert ex
A ug
Ġopt imal
Ġ/* !
Ġsu itable
" ])
Ġex ceed
ĠDes pite
mut ex
ĠL ang
Ġp ixel
re pre
Ġpr ay
Ġplatform s
Top ic
Ġw elcome
ĠS W
Ġm it
o en
195 6
T ax
Ġloc ale
Ġre new
ous el
ĠTur key
st an
Own Property
pro c
Ù ĩ
Ġretr ieve
. âĢĻ
Ġkey board
Ġstri ke
195 7
: %
or se
Ġm ac
man ifest
C ookie
Ġm outh
ĠT ony
B lob
att ice
* >(
in ch
yst al
ĠN FL
ĠP si
sub string
ĠM atch
id o
os er
Ġe c
mult ip
Ġworld wide
Data Source
Ġcoordin ate
B us
as hes
Ġair port
al igned
> .</
' \
Ġh un
Ġsp atial
ĠQue ens
10 5
Java Script
X Y
ĠP UBLIC
ĠN etherlands
Ġres istance
19 39
Q t
ve h
ĠS mall
C ould
r ink
Track er
ĠG il
Ġ. =
Ġgen us
ĠDis ney
itect ure
Ġc ards
var s
Gr ad
ĠH ouston
ubern etes
Ġte en
Ġconf idence
E qu
c ookie
Ġprom otion
ĠSt adium
Ġresearch ers
set ting
che stra
ĠP layer
M esh
ag ues
ĠM obile
ĠPri ze
ĠCor ps
Ġtw enty
cript ors
all enge
Capt ure
âĢĻ .
ĠT oken
DE P
d n
ĠEnter tainment
ort heast
Ġclos ely
ĠO ntario
repre ne
Ġpl ain
IN IT
ell ite
Mod ified
writ ten
ĠS u
Ġsc ul
Check ed
B ucket
iv als
f ac
Ġ æ
Ġf old
st ub
gu ide
RE NT
ro ck
T ip
SH A
Ġp it
Î ·
Separ ator
ĠSt op
ĠLe ad
Ġle s
="@ +
Ð¾Ð ´
IN DEX
ĠW el
run ning
P ipeline
Ġput ting
IE W
Ġl l
H AND
Ġend if
Ġan alog
put ed
ĠC orn
Ġresult ed
ze ch
Ġv ess
ĠP O
Ġch ampion
is lation
over ride
R adius
Des cribe
ĠI gn
ge ometry
Ġabs or
f aster
ĠOther wise
ĠHol lywood
ic ian
ĠL evel
Ġext ensive
Ġt uple
st eps
Ġeffect ively
ĠHe art
F ill
Sl ot
ir ms
u um
FORM AT
] <
Ġcorrespond s
19 42
40 4
y cl
Ġspe aking
P al
pr ice
qu arters
Valid ate
Ġp seud
w as
ĠMod ern
d ers
ĠMal ays
ĠD CHECK
Ġpro ud
i pl
ĠJava Script
he x
m c
ert o
: &
ĠOff icer
iz ard
ĠInitial ize
L ive
W rap
ĠF ilter
ra ction
est ure
ump y
Ġin equal
add ed
' $
Ġs pl
ct ree
Ġintrodu ction
Ġmod es
D one
u able
s ources
Ġle ct
ĠInd ones
K ernel
op acity
Ã ł
H C
Ġres olved
str ument
ĠFr ont
Ġmeasure ments
ĠD ream
Brit ish
Class Name
ĠD atabase
D im
ĠW inter
ĠO K
r uct
Ġ} ).
ĠVari able
App Compat
In jection
Ġtal ent
S PE
s ch
Ġy ellow
l u
Sh ift
Ġeff iciency
Ġhyp ot
Struct ure
æķ °
Ġr ide
ĠO regon
initial ize
Dest roy
M F
Ġw ing
Ġ" ;
Lin q
att ach
n an
Ġcollabor ation
ĠLe on
h al
ĠSh er
ĠLic ensed
Ø ª
re ll
Ġdanger ous
1 18
Pr ice
ĠS in
ich ol
Ġro of
L ite
Ġt um
ĠYou Tube
Ġad m
Ġtell ing
aint y
Ġprec ision
Ġcho ices
Wh ite
ĠJ ane
Function s
Ġp ictures
Al though
ĠE ffect
iv a
Ġprocess ed
project s
Ġtri es
inem a
Ġaut hentication
En tries
shall er
Ġext ensions
Ġimmedi ate
ĠRail way
Part icip
Ġcrow d
Ġimp licit
ch anges
Ġb es
Ġpropos al
ĠS ingle
Ġrepresent ative
S rc
Ġarr ang
U UID
, .
Ġdef ines
ĉĉ čĊ
ME M
st ory
Ġopp osition
Ġmusic ians
ĠPro perties
a ui
ast s
Sh adow
S ch
| ^
c ity
E q
ĠS pr
in cess
Ġt ack
c lip
d ynamic
ĠD ictionary
v et
arg v
FR AME
Ġdis miss
S F
n ed
aw t
Ġour s
separ ator
Oper ations
Ġm atters
Ġas pect
Ġcirc uit
m oment
ĠAn alysis
v space
ĠK evin
] ).
inc iple
Ġsu it
ĠSur vey
Ġestim ates
Ġsol ve
h ill
in herited
Ġpurch ased
rop ical
Ġc ookie
ant e
FA IL
Ġmin imal
ĠL ind
Ġro y
Ġv eter
ord on
ĠS quare
Ġcl im
Ġan notation
Ġfund amental
j an
look up
Ġ" );
Ġsc ores
ĠDo es
Ġes cap
i ac
i at
ennes see
el lect
Ġsee king
Ġd ual
Ġca using
ĠP A
Ġsent ence
ĠGr id
istrib uted
ĠTur k
Arr ays
ĠDe ath
MS G
ĠT al
ind u
Ġil legal
Ġcharacter istics
hens ive
h base
Ġthe orem
Ġr ating
met ic
av is
pe g
ĠM oh
Read y
igh th
Mark er
Ġret ire
Ġaff ord
r ides
å Ń
pre view
ĠD raw
Ġ" )
ĠM IT
() [
ig o
ĠPl aces
ĠB reak
Ġinter actions
met rics
Lower Case
subs cribe
ov en
Ġopp on
out ube
ĠOlymp ic
Ġsort ed
an ches
render er
Ġeast ern
Ġintrodu ce
Ġthought s
ĠG h
Ġpil ot
Ġfound er
Ġaccom mod
) }$
Ġr aces
quis ition
19 46
L com
Cle an
Ġrecover y
STR UCT
Ġsp ending
Sc an
Ġrepe at
n it
z ed
ĠA rizona
ĠN orm
10 4
Ġdevelop ers
N a
ĠK a
Ġwalk ing
iev al
Ġenc oded
Ġinter section
ĠMount ain
Ġpol ar
ĠAff airs
Ġso le
Ġdrug s
NG TH
Ġinstall ation
p aces
ĠH an
Ġpresent ation
FUN CTION
et c
19 41
Ġco ins
Ġg ro
AME TER
Ġt s
Ġsup erv
ĠPal est
seg ment
Ġscen ario
H int
ĠD evice
Ġsever e
Ġcor porate
IL L
Ġoper ate
w alk
ĠB urn
ĠC ache
Ġleg isl
arg o
mult icol
ĠFinal ly
eg as
c ers
ĠF ight
isecond s
ME SSAGE
St age
g ui
19 55
Ġtr im
Ġbreak ing
Ġstre ets
ĠM D
Ġsomew hat
Ġtrad ition
'] ))
Ġmat ched
faster xml
\ ,\
Ġwin ners
p ipeline
Ġmiss ed
Ġ( `
T imes
Ġconst ants
ĠJ ordan
Ġdes cent
Ġpl ate
ĠM ilitary
ĠAt tribute
ĠAdmin istration
ĠT ake
Ġleg acy
ĠSim on
Ġtrans mission
z oom
Ġenc ode
Per cent
wh at
Ġf aces
Ġsim ulation
Ġimp ossible
B en
Ġb igger
ĠC ab
ĠT ai
row Color
pis ode
T ri
Path s
Ġp iano
and al
\ }$
at ile
M AN
Ġcon j
ĉĉĉĉĉĉĉĉ ĉĉĉ
viron ments
pack ages
Ġdis patch
Ġvict ims
Ġh ockey
math scr
qu ant
Block s
Ġpotential ly
oc al
Ġhard ware
ĠT ax
ĠAnd erson
ĠUkr aine
a ire
V C
Ġsuff ered
ĠSum mary
Ġtim er
ĠS uch
Ġreg ime
RO OT
hel lo
re duce
ĠMod al
an try
ub b
ib ilities
il k
Ġr hs
; %
l on
Ġpol ynom
ĠUs ed
Ä ĥ
Ġvisit ors
Ġh ole
Ġm ine
Ġex pr
n ie
Mill is
is o
O cc
Ġpr ivacy
Ġb att
gr pc
per or
Ġexc ited
respons ive
19 43
Ġsch olar
b t
Ġc ub
Ġw alls
Ġemerg ency
F ire
Ġbro ke
Ġbl ank
b one
ref lect
ĠLab our
Ġ( @
ĉ ĠĠĠĠĠĠĠĠĠĠĠ
ĠN az
ab a
ĠL ev
OR S
Vis itor
ĠParam eters
Ex tract
Ġar c
5 12
she ll
com ments
ĠPh oto
' =>
ĠN ever
er d
Ġpromin ent
Ġexhib ition
Dest ination
multicol umn
ĠB h
ester day
Ġfr ames
D ry
Ġcompos er
ãĥ ¼
Ġm acro
em pl
M al
ownt own
" }
Ġhost s
ex clude
Ġscient ists
ĠCapt ain
Tool s
In line
Con straints
ĠT en
Set s
ĠPr ivacy
ĠPol ish
Ġb at
AA AA
Ġin fl
? )
ĠCast le
St yles
Ġprom oted
19 47
ant ed
195 2
Ġobject ive
wh o
Ġput s
ĠD oc
Ġattr s
Ġhundred s
et ary
Ġmark er
S urface
sc an
Ġs ad
ĠB AS
us age
Comp are
v ia
Ġsk y
Ġv irt
ad apter
Ġto String
yn opsis
ĠBr ig
Ġdefe at
Ġs elling
ĠC irc
Ġv ice
ĠR ad
Vis ibility
Ġd t
Ġins urance
/** */
ĠO cean
-------------------------------- ----------------
Ġrest ore
ren ce
Ġc odes
M ail
FFFF FF
back end
mod ifier
Ġconfig ure
w ich
Ġs cre
Back up
Ġadministr ative
Ġaccom pl
Ġas ks
ob by
19 2
i Äĩ
n l
Pe er
ĠN othing
( []
Ġdraw ing
ent ries
Ġ" +
ĠB or
Ġsign als
ic ates
Ġl ots
Ġeduc ational
aw are
ĠG it
Al ignment
Ġr ational
Ġenjoy ed
195 4
Å ¾
Ġlo an
Ġbo at
ic ide
Ġexp ensive
="../ _
Ġaccess ible
Ġincor rect
em ony
ĠS ession
ic ht
Ġm ile
Ġpy thon
Person al
R ich
dir name
Ġintegr ated
no indent
w en
secut ive
Ġst ub
ĠO pt
andid ate
ĠP a
Block ly
append Child
l if
over flow
Par cel
ĠSt orage
ĠSwed en
M ix
stream ing
F e
ĠP ackage
tr ain
Ġinteg ral
=- =-
Ġm ob
col n
ren a
ĠD A
N umer
Ġon going
ĠPrem ier
Ġref ers
am ar
Ġstrateg ies
Ġexerc ise
' },
Al t
ĠMem bers
Ġs lice
c lock
sp i
Ġr ig
Ġag encies
mark s
Ġterr itory
Ġmed ian
under line
un ior
app ings
Ġvis ibility
ĠC ook
Ġen emy
Ġappe al
195 3
tr m
A pr
ĠJew s
` :
ct ic
Ġdiscover y
ĠPhilipp ines
AB ILITY
B LOCK
EN CE
gener ic
Ġcomp ilation
act ice
Scal ar
ĠB OTTOM
Ġhand led
r ons
Ġsuc ceed
] ),
Ġappear ances
w eg
ĠA mb
ç »
Ġex ponent
19 49
Ġcheck ing
order ed
Ġadvert ising
Ġw heel
ĠG raph
ĠTr ail
ĠString Builder
Ġv ast
å ľ
ĠL abel
hold ers
form er
l us
ok er
ĠEx press
Ġown ership
hem atics
tern oon
oop er
// ----------------------------------------------------------------
Ġle af
Ġloc ally
Ġd ress
ab b
Ġcomb at
Î »
ĠUn less
W arnings
é Ģ
it als
For ward
Ġwhere as
' ):
ĠL iter
Ġfootball er
P rom
off s
ĠÃ ł
sp in
Ġem p
Part y
y ers
Ġhealth y
Ġsp oke
es cape
Un ique
N R
Ġexpos ure
Ġtem ple
ĠIm port
ut enant
Ġclos ing
Ġ$ $
St d
Comple tion
ĠM rs
Ð¾ ÑĢ
ou st
Ġw er
tex trm
Te am
Ġass et
Ġrem oves
s ent
LE V
ro it
ĠB ush
Ġteach ers
Ġv ec
Ġturn ing
Ġemploy ed
U V
en o
ĠF ollowing
Ġdocument ary
ĠE P
be at
æ Ĺ
ĠPat rick
Ġcred entials
With out
Ġwe ar
B T
W alk
ol ute
Ġadult s
F ix
Ġapparent ly
ĠJ oh
Ġtop ics
H ol
Subs cription
Ġem ission
Ġh int
ex tract
ĠIndian a
nos cript
9 00
ĠJ ay
oot strap
Ġ\ |
ĠĠĠĠĠĠĠĠĠĠĠĠĠĠĠĠĠĠĠĠĠĠĠĠĠĠĠĠĠĠĠĠ ĠĠĠĠĠĠĠĠĠĠĠĠĠĠĠĠĠĠĠ
h alf
Ġp apers
Ġst ood
loc als
ĠP ier
Ġgr ade
com b
>: ]<
ĠR oom
ĠA thlet
g lob
os ity
ic ians
Ġre ar
Ġ ĉ
ĠĠĠĠĠĠĠĠĠĠĠĠĠĠĠĠĠĠĠĠĠĠĠĠĠĠĠĠĠĠĠĠ ĠĠĠĠĠĠĠĠ
Ġg ained
Ġal ive
SD K
Load ed
c rs
Conf irm
ut ter
ĠDo ctor
L ang
__ ["
Ġread s
Ġas ym
clus ions
ce ived
Ġs oul
Ġlands cape
ĠO tt
all as
Dec oder
Ġd ele
Ġun ivers
hash Code
se a
Ġfac ulty
---- ---
the w
allow ed
i ot
CH AN
iv o
Ġsim pl
s ocial
c py
con straint
Ġfact s
ec ycle
per iod
ites pace
cond itions
n ail
Ġvari ant
Ġcor re
dat aset
ĠMore over
od ge
text tt
------------ -
b urn
dem o
ĠMan chester
Ġp up
Ð¸ ÑĤ
Ġmoment um
ang a
Ġev il
Ġprov ision
S an
M ajor
Stack Trace
Ġsub mitted
Ġpract ical
Ġsubject s
Str ip
Ġassess ment
Y S
[ -
c aret
ĠV ar
path s
D er
non atomic
og ene
}} _
ol ate
reg istry
Conn ector
m icrosoft
ĠH art
ver ted
Ġopp osed
Open Tl
ĠM oon
Ġapp lies
help ers
unic ode
parent Node
Ġequal s
: /
ĠK al
Ġroom s
first row
Ġse es
Ġn ested
âĢ ī
Ġin variant
f avicon
ĠC op
est s
ĠD un
size of
FT WARE
Ġb ul
S ent
Ġnot ify
ra h
to ctree
quest ion
Ĩ Ĵ
en vironment
ĠAr thur
Ġent ities
r ices
R IGHT
F ollow
Ġrun ner
Ñ ħ
ĠMem orial
Ġ// -->
ĠU l
Ġf ault
Ġabsol utely
Ġrel ax
Ġw aste
Ġparticip ate
ĠS av
Pub lish
ri k
us i
ĠC S
Pay ment
Ġthread s
ĠGree ce
ĠP it
ĠP rom
Ġcollection s
~ $
Ġf asc
Ġinter ior
ĠMar ia
Ġcover ing
str iction
ort s
em et
ĠN AS
ĠM ut
cs v
o or
ĠT er
ĠCl ark
ĠG iven
St mt
ĠP ur
st ers
Ġint ention
ĠS yntax
bo ss
ustr y
ern ate
The ta
S eq
ĠA WS
Ġ} ),
Ġdi pl
pro f
el led
Ġd ies
Ġe g
Status Code
S ur
ĠW ait
Ġs event
Ġs napshot
Ġal gorithms
ag r
Ref resh
Ġrev olution
. ")
ĠEd ition
} "/>
ĠHol y
Ġenh ance
D imension
ab ama
ong s
Ġat trib
U int
Ġg arden
> ../
ĠR ange
Ex ec
W illi
Rep ly
N OS
ĠAdd ed
sl f
F ilm
ĠJ am
Ġexpress ions
Ġga uge
ag an
Un iform
Ġlook up
==== =
af ka
AR CH
\ ":
ĠCap ital
se ed
ĠK ansas
B D
b ullet
S uite
10 3
a que
Ġex clusive
u ating
d ump
Ġgu ilt
TO OL
Ġperman ent
Ġhead s
LIN K
Ġnorm ally
Are Equal
Ï Ĥ
work er
Ġass ist
S cheme
ĠS ave
ext ype
u eto
Ġmin im
Ġass ignment
Ġx si
sc ene
}} }
i able
Ġsc oring
ĠLin ux
ĠT ab
D an
s creens
âĢ¦ .
ib ling
Ġsub set
ĠCom ment
Ġr m
Ġprodu cing
u pt
Ġs ight
ĠB ry
pen se
14 4
Ġtro uble
at able
LE D
ah oma
Ġprov iders
? (
R outer
as ets
Ġst ages
ancell ationToken
Key word
Ġass istance
Ġsur prise
ĠD a
Event Args
ĠR elease
Ġfl ux
Ġfac ilit
ĠSen ior
ĠRe quired
Ġdat etime
Ġmor ph
Ġmembers hip
! (
Ġs ensor
e ast
Al ign
Named Cell
Ġpain ting
< \
ĠAtl antic
set Attribute
B g
Ġs che
Ġb id
Pol it
Ġnecess arily
Ġex cess
mb ed
w i
Back end
ĠP u
ĠU SE
ĠAg ency
Ġsit ting
ep age
Ex press
Ġshe l
App ly
ut ies
19 00
Ġsign ing
ĠP DF
Ġcor relation
Ġexception s
Ġgood s
C a
place ment
ĠCON FIG
AUT H
ous es
ĠE ver
Ġcoll apse
Ġinter act
ur ches
over lay
Ġcomp ile
f red
ĠP erm
ĠS R
195 1
lic ity
ĠC F
Ġste el
---- -
" =>
m aker
ĠK han
olv ing
s With
Ġp in
Ġro uter
CL U
ĠHel p
ĠCl inton
D ao
i ations
vent ions
ĠE vents
Ġsim ult
ĠM it
ueto oth
ĠĠĠĠĠĠĠĠĠĠĠĠĠĠĠĠĠĠĠĠĠĠĠĠĠĠĠĠĠĠĠĠ ĠĠĠĠĠĠĠĠĠ
Ġass ault
ĠCre ated
k h
ĠArt icle
ĠF a
om er
o i
Ġinv ited
ĠS ix
b undle
ic ients
è ¡
Ġpul led
Ġarr ays
Ġsequ ences
ret val
Ġdo ct
S eg
Ġ} \
Sh are
Ġfunction ality
Ġf at
Ġappro val
I FI
f ish
ĠCh rome
Ġp tr
ĠH ence
Ġdisc rim
post s
ãģ ®
ĠT ool
ĠMem ory
Ġrec all
Be havior
raz y
Ġexpl o
Ġre venue
M ov
Ġwonder ful
M c
ĠStud y
U Int
Ġmaint enance
ĠIslam ic
ĠGr ant
Ġacc used
Ġaff ili
Ġt ile
on al
Ġreg istry
pl ane
Ġdef initions
T ick
C ost
m ov
to LowerCase
Ġ"- //
11 5
Ġs weet
ĠRem arks
Error Code
ION S
Ġleg islation
ĠCle ar
Ġhas n
<? >
Trans fer
Ġdecl aration
un ion
est ing
Ġm s
Ġsw im
at ype
Filter Database
Ġs oci
stat ement
ri ble
olv es
ĠMe an
ipp et
Ġfor th
Ġmer ged
Equal To
m ont
Ġbound ed
dr ag
Ġup grade
LE NGTH
Ġexpert s
ind ices
/ '
be h
Ġt ough
Ġentert ainment
Ġdepend ency
Ġsatisf ies
Ġtot ally
input s
D M
ĠValid ate
r x
re ement
E ast
R GB
end ment
trans l
Ġfind ings
s at
Ġw el
un stable
p al
T HE
10 7
D evelop
V T
ĠF ellow
S heet
ĠMot or
il st
Ġon click
TE S
Rel ative
Ġin herited
Ġrank ed
ĠT ennessee
Ind icator
Ġbeaut y
ust ries
10 6
vers ions
P aul
develop er
az el
Ġexpl ains
Ġrender ed
ut ors
sample s
> ()</
100 00
t one
Ġdepend ent
Ġmanag ers
aud i
Ġb low
Ġsynchron ized
ĠG irl
ĠDi ego
c amera
Ġ _{
ĠD I
ĠReg ional
fg han
Ġre start
urre nce
Ġnumer ical
ĠIN T
ĠSt one
ĠD id
Ġjournal ist
Ad v
ĠM ET
app s
Ġpre gn
Ġsymbol s
b ow
Ġh orizontal
l iteral
riter ion
Pro c
ure au
II I
Ġfall s
ĠD ave
apt ers
Ġst ick
Ġout come
Ġopt ical
ĠF R
place holder
ĠC C
p k
ĠSil ver
ĠE C
Ġre form
ĠZ end
Ġpick ed
ĠCon stitution
Ġg iant
Ġdep recated
ĠMat rix
×Ļ ×
Mod al
he mat
Ġincreasing ly
Ġt icket
Ġw ond
Stat istics
11 4
Ġre try
s leep
Ġcircum stances
Ġw ed
ĠD at
Ġv ulner
Ġobserv ation
j or
ĠR ound
pro fit
ĠX ml
agon al
Ġk il
ĠSar ah
Ġthe oret
Ġb attery
Author ization
G reen
Dis abled
ĠViet nam
P aint
Ġpoint ed
Cred entials
Ī Ĵ
ĠĠĠĠ čĊ
ug s
M en
Ġf lying
Ġd iverse
Def ined
br ace
P ad
t uple
Ġ' ')
An notations
ĠM un
inv oke
ĠS n
ĠTr aining
Ġf acing
Ġgrow n
ĠTr ade
Ph il
w ick
Ġgrad uated
Ġcal endar
ĠI owa
Debug ger
Ġc ss
G N
ari os
ĠMar c
at om
ĠJ ason
[ (
enc il
Ġch ose
F ROM
ĠTe ch
i est
00 5
ffff ff
ĠL ock
Ġjoin ing
. ');
H ook
Us ed
ĠA uth
c am
Ġnov els
Ġcon tribute
Ġtown s
Ġattempt ed
c ord
ĠWh it
Ġseg ments
S ig
qu iring
Ġnot able
config ure
19 36
ne ed
V R
++ ++
Ġassum ption
ĠPl ant
}^{ -
ur se
Ġde ployment
M obile
err a
ĠTh ose
) _
? </
PAR AMETER
emet ery
Ġin finite
Ġvoc al
s ap
Ġh ate
Ġr acing
pos er
Ġany where
reg ex
ĠB u
AR K
Wh o
t ility
ur ers
ĠPh illi
PRO TO
a us
ĠAnth ony
J s
ic ity
T ITLE
it ative
Ġext reme
Ġ utils
19 18
Ġwr apped
ch rome
99 9
Ġtrack ing
Ġlow est
Ġreason able
m ust
reg ular
ĠH ave
s ender
Ġvers us
ĠCon struct
ĠMo ore
ĠMiss ouri
Ġvari ation
Ġf aced
Ġv it
Ġlaw yer
r and
ĠA I
10 9
Ñ Ī
iv idual
Ġb on
ĠMov ie
ith metic
Ġinj ured
el and
remove Class
ĠTh row
co hol
Ġcomp ens
ĠL E
ct rl
br anch
ĠC ell
ĠT reat
ĠCon stant
="# "
Ġbi as
Mult iple
Ġmonitor ing
Ġv acc
Rece ive
Enc oder
ĠB arn
IC K
ĠDis play
ĠG T
Ġacc ord
/ #
u ity
Ġparticip ated
Ġb are
h int
Request s
if ference
mark er
Ġpl enty
File System
ĠT EST
Table s
Ġ ion
ĠG ard
Ġpr inciple
å Ľ
per mission
pack et
Up per
osc ow
ĠA udio
Ġcap abilities
Ġ Ø§
Ġw ine
qual ity
Ġrele ases
dest ination
ro ph
ĠA st
Ġman ual
Ġto m
//////////////////////////////// ////////////////////////////////
For ce
ĠCont act
Ġtit led
PL ICATION
w ind
ĠReg iment
ams ung
ĠG arden
et r
Ġexpl os
At tempt
[] {
R L
as a
C art
Ġsym pt
Ġoutput s
ĠSe ver
Vari ant
it is
ane ously
M o
ĠMult i
Ġther apy
ĠK y
!! !!
S n
er on
G uid
char acter
Custom er
Ġb anks
Ġs ought
ĠS M
In ject
Ġs ink
Rev ision
âĢ ĭ
ĠV i
control s
Ġ/ ></
Ġent itled
ĠCh ap
Ġident ical
ag u
S pr
ut ral
Ġd ol
Ġe igen
Ġb ott
ĠD og
ul atory
Ġflo ating
3 50
Ġ(! (
Ġcon secutive
Ġemotion al
Ġbe ar
ul ous
Ġd ump
Ġbus y
Ġshould n
tr ansp
ĠS ET
wit zer
Ret ry
Ġexc iting
PREF IX
Ġinvestig ate
ic he
ĠV ice
ĠSwed ish
Ġdes ire
subs cription
Å Ł
d ating
Ġcontrib uted
Ġcomplex ity
TEXT URE
ul o
block s
S mall
Ġg overnor
19 38
MA SK
P icker
Compar ison
C he
Ã¼ r
inter pret
ĠMi ami
Ġdr iven
ĉĉĉĉĉĉ Ċ
ĠInst all
ur st
ĠM aterial
ur is
roll ing
Ġany way
Res pon
Ġan imated
Ġpar liament
ĠL eft
EN C
Ġpro jection
ĉĉ Ġ
fl uid
NotFound Exception
Ġp a
A E
Ġpres ents
ĠK elly
Ġun iverse
Ġnu cle
Ġto ler
P D
Ġimprov ement
Ġcon crete
ĠH u
end region
Ġli quid
ĠCON DITION
Ġun us
Ġmaint ained
ĠB ishop
ĠD ol
Link ed
el ve
foot note
LEV EL
High light
Ġd uty
19 37
ĠNor way
n io
Ġregard less
Add ed
ĠS witch
if rame
ĠG ib
oy al
Ġlisten ers
Ġheav ily
ĠCont ainer
Â ®
ĠPhil ip
Inst ances
Ġbelong s
uth er
vis it
ĠG ET
ec ess
t okens
Ġcour ses
ÑĢ Ð°Ð
cast le
ropol itan
ĠR PC
default s
Ġprocess or
est ab
2 20
p riority
on na
Ġfriend ly
s urface
ĠS cal
iv ated
ta h
ĠDe ep
ul um
Ġcy cl
Fore ign
A ud
Ġrep o
; ,
ĠCon st
AC CE
the ad
Ġsurg ery
pe ated
Ġthe atre
Ġt ip
a ux
:: $
} &
Ġref used
m aking
ÃŃ a
v y
Ġalign ment
ĠFin ancial
ĠS ymbol
ĠZ h
ĠS cript
om ot
__ .
ss on
ol k
ĠSO FTWARE
W omen
Bl ue
ĠP ed
ĠR ol
Ġin fer
lock ed
Ex cel
ĠHow ard
() ]
ĠHarr is
ĠO ak
l ua
ch arts
Ġco ffee
UT C
Ġmod er
Ġpresident ial
l ad
Ġsubstant ial
Ġs essions
F eb
Ġh ack
c v
ĠS ymfony
omet imes
S cheduler
F W
Ġun expected
ra ke
Ġphys ics
Ġconcentr ation
FN GL
std err
y ll
ĠN ev
Ġback up
witzer land
ist ol
Ġ$\ {
Ġabs ence
up per
dec oration
S IGN
â Ķ
Ġshe et
ĠM achine
Ġh at
List eners
{ },
ri ers
LO B
ĠC lose
ĠCon n
Ġd ust
fin ity
operator name
Ġaf ternoon
ĠV olume
Ġcom ic
Ġz oom
m ill
Ġb rown
Ġw rest
ache lor
et ies
ĠG O
lik ely
ĠS elf
ĠH E
el son
Th rough
LI ENT
le et
S lice
Ġfr anch
es c
ĠFed eration
Ġvot ed
Ġbe am
x f
st mt
> [
ĠA le
Ġinter rupt
Ġconsum ers
Ġm igration
Ġhol iday
m g
is ations
ĠF arm
IT H
ĠAll en
Ġro ots
19 19
ĠAuthor ity
t ax
Ġbre ath
Ï ħ
qu ick
Ġind ent
ĠL A
Ġbro thers
Ġl ibraries
ĠY outh
ĠEcon omic
text area
Ġcon clusion
Ġ/ ><
ĠP osition
amp s
ĠM icro
ĠP od
ĠForm at
igen ous
re verse
ĠSc ient
. &
ĠM as
Ġre ward
Ġdoll ars
get Key
R adio
ĠĠĠĠĠ Ċ
C lip
G UI
y arn
il ib
Ġpoet ry
hed ral
Ã ª
ĠH AL
Ġunderst ood
ab e
en ess
ĠB ah
st roke
ĠF ixed
op ic
L R
RO W
iv ot
t bl
ro b
Ġkw args
C MD
Ġr anges
Ġla id
Ġcompet ed
ĠIsrael i
5 000
Ġb rows
ess ment
Allow ed
Ġeng aged
g mail
Ġ" ")
Ġla ugh
Ġdis appoint
over ty
on i
ĠCon structor
up id
port let
Ġm es
car bon
) *
ĠDown load
id ad
custom er
Ġacknow led
ĠE N
G T
Draw able
ac ht
MA IN
ĠLin coln
ĠB an
Ġdeb t
Ġres cue
F rench
end ers
ĠF low
y t
ew idth
Ġb ot
o il
om as
(" -
B usiness
ch annels
ĠE ns
Ġdec ay
^{ -\
ellect ual
ĠD VD
N ested
Ġch at
Ġcomp iled
ĠCONDITION S
User name
; ;
Ġ= ================================================================
ĠBAS IS
, </
" </
ĠB us
Ġwe ights
ĠPl atform
L ONG
Art ifact
Gener ate
serial ize
Ġessential ly
Ġkn ock
Ġsens itive
Al gorithm
Ġprint ed
et ition
ub er
Ġlog ical
ĠR ule
Ass ignment
Ġhor ror
ĠLim ited
ĠW as
Ġvict im
TR A
ĠS port
Ġfound ation
Ġold est
writ ing
ĠTh ird
el lo
PROP ERT
Ð¾ ÑĤ
Ġd yn
Ġm arg
Ġh am
ĠRes erved
Ġke eps
on ed
Act or
olog ists
ĠA z
re ts
Ġrespect ive
ear ing
i ator
ather ine
10 8
V IEW
k et
sp ot
cl ine
D ist
oen ix
Ġcommit ment
Ġimag ine
Ġhappen ing
../../ ../
ĠCollection s
Ġre aching
ific ial
Write Line
ĠVill age
ĠInter face
Ġmanufact uring
NE W
ĠDemocr ats
Ġth in
Ġgrad ient
UN K
al yst
Ġembed ded
ig ious
F ollowing
po ch
Ġmunicip al
ĠKe ep
** *
ĠH op
Ġarch ive
ĠM ol
H ide
Ġcarry ing
C alled
ick en
ĠSt udio
Ġgr ab
Ġmunicip ality
L ow
dis k
ature s
ĠN ik
F ake
Ġinitial ized
M AC
="# ">
ĠM and
Ġup coming
C tx
type param
ic ular
subset eq
T ARGET
Ġansw ers
Ġund ert
19 14
Ġamount s
en ium
F ilters
S chedule
per cent
An aly
Ġengine er
im iter
" |
Ð ¹
Ġinvest ors
ĠTh ank
LO AT
Ġqu ote
Ġd jango
_ *
Ġposs ess
Ġcol le
ard o
ĠO UT
h w
Ġmed icine
second s
t alk
F oo
P an
s By
Î ¼
ĠSet tings
Ġre named
iv ia
pro b
ĠFurther more
( @"
Ġhouse hold
ĠN ic
part ition
24 0
at on
p ixel
ĠD ick
Ġc orn
ĠJ osh
ĠAl abama
Ġb ulk
weg ian
f actor
12 1
ĠMel bourne
b n
t z
ĠPro file
Ġemploy ee
M argin
set minus
ĠAr k
ific ates
ĠT a
ĠTr avel
ĠSe attle
igr ants
Dis patcher
E ven
Ġregular ly
ik es
ĠPart ners
ĠTrans itional
Ġte ch
road cast
ĠTest s
H ex
R oom
Ġorient ation
miss ing
Ġf ib
ĠH ans
ĠH D
Th reshold
Ġsu ite
gress ive
Meta Data
ĠB ody
Ġbe ach
Ġb lo
ĠB rowser
Ġin hib
G erman
Ġsatisf ied
H orizontal
Ġalloc ated
Ġ( <
Ġs av
Ġop ens
Ġp ip
short cut
Q uestion
S ound
Ġ[ {
Over lay
0 100
p arsed
N EL
id en
PA SS
Ġoff ices
button s
Ġincre ment
Ġobserv e
C ross
ge om
Ġrequire ment
Ġf inger
Ġprodu ces
ial ect
Ġ' $
Reg istration
Ġc c
Ġguest s
Ġ$ |
ĠE uro
Ġ-- -
bit coin
HO ST
ĠIm m
Ġgun s
uc ene
Rece iver
Ġc fg
Ġadj acent
ĠL as
Un able
Le ave
Fr ont
19 17
ĠC ape
un s
ĠDef ense
ĠN atural
Ġhouse holds
n pm
ĠV in
Ġne uro
bad ge
String s
Ġdesign ated
ĠA gr
ud o
Ġproced ures
do i
Ġcommunic ations
Ġsing ular
ynchron ous
al gorithm
Ġsuc ceeded
Ġ ../
get Text
T oggle
H idden
am an
ĠR andom
"> &#
Ġcount s
Ġcontin uing
Ġquant ity
J apan
ĠTem ple
Ġst im
s ame
ors es
re ply
Mich ael
] *
ID ENT
Ġb ath
window s
sign al
ro tt
ĠS A
sw er
ĠE mer
in th
Ġre pro
ra ise
ĠParam eter
ĠGr ad
ia h
ĠId ent
Head ing
Ġemploy ment
P ages
table s
Ġpass phrase
ĠD IS
Ġbeliev es
Ġinequal ity
ĠA UT
Ġ' ../
Pr imitive
ĠStruct ure
N P
Comple ted
Ġwat ched
Ġfall ing
ĠCom par
ĠCol on
LE S
font s
s u
E urope
Ġf ixture
Ġmark s
H y
z i
west ern
add EventListener
Ġj azz
ĠN ob
Ġsit uations
Cap acity
conf irm
1 32
19 35
ä¸ Ń
Ġo x
T oday
ĠT rib
Ġaccomp an
lo ver
R ound
Vari ables
) },
c ost
i pt
ĠC ancer
mult iple
ĠTok yo
Ġatmosp here
ĠO THER
RE AM
Final ly
ĠQ String
Ġst ability
ĠLink ed
Ġslow ly
ĠERR OR
ed ing
ru ction
Ġco aches
Ġdemonstr ated
op ol
Ġ( );
Ġres on
lo be
Ġf urn
p f
or ne
p ref
cer ning
sm art
atur ally
ĠResult s
ac ion
Ġprincip les
GRO UP
Ġportr ay
he alth
ĠĠ čĊ
ob e
Ġro bot
ĠM unicip
c as
ĠN ichol
ax ies
Ġwhen ever
sl ot
Ġa ver
ph an
we ak
Ġocc as
3 000
Ġhe x
us cript
vis ibility
ĠT alk
Ġ( ;
=" <?
Ġapp lying
Ġ' </
ĠSm art
; -
ex pl
Ġd ot
Ġst y
rient ation
R atio
Ã© t
Ġcomput ing
W ARNING
ĠF ive
b id
ĠAn ne
Ġdr um
Ġre act
ĠE ss
Ġart ifact
Ñ İ
Ġequal ity
Ġcall er
[] )
Ġvot ers
Ġserv ers
gu ard
ĠMary land
Fil ename
ĠWeb site
Ġapprox imation
T IM
V A
ĠD ATA
h p
19 34
bo y
ĠC atalog
Rel ated
; ]
ar o
Ġ( #
prec ision
ĠAm ong
th ree
=" //
Ġv ectors
Sub mit
Ġgr ass
Ġpublish ing
ĠSchool s
19 33
ĠEn able
Ġp index
P K
le v
ĠL eb
J ames
NOS CRIPT
Ġwe aring
Ġre in
un ning
ĠTrans action
og a
ur ric
ĠApp end
ĠC zech
d atab
å ¼
123 45
Ġfem ales
ĠL LC
g c
comp iled
ĠAust in
ĠF ast
Ġ# #
Ġs ig
Ġbur ied
() `
ĠD al
Ġso il
t cp
ious ly
Ġwat ers
Ġatt ach
s ock
ro zen
t age
Ġprot otype
P ACK
Ġrece ives
ĠSt ill
Ġcompre hensive
ig ible
A U
oc a
ĠB alt
DO CK
c ategories
Ġme ets
Ġut ility
av ers
\ _
Ġsy nd
Ġed ited
le e
C over
U ntil
M iddle
ĠE arly
ĠY O
">( </
> ');
o is
ĠDr ive
oriz on
ĠHigh way
Ġto wer
Ġcer emony
ĠA fghan
Mod ules
ĠB utton
Ġspec ifies
ĠP arent
He ap
ef ef
Ġroad s
Re q
Ġtrad ing
Ġin vent
ĠSy ria
ĠS uccess
ĠE ag
M arch
cont ainers
Ġautom atic
ene z
Ġ{ $
bar a
Ġpark ing
: @
dim en
get Property
Ġve get
å ¯
Ġmill ions
ail and
kl ahoma
ÐµÐ½ Ð¸
Ġout line
re view
ĠS ide
ĠF O
a ac
os l
p lier
m f
ĠJun ior
Ġlic ensed
MA KE
ph ab
Ġcompet itive
Th ree
Ġnarr ative
Ġ Ä
Ġt y
H A
Ġsurpr ising
C ss
Ġc url
ĠS chema
Ġstr ange
> )</
ĠP as
00 2
e u
av atar
ĠIn it
19 29
ram a
Ġrep orter
ĠLay out
m v
ĠHer itage
ĠMex ican
ĠP red
ot ions
ir ates
eral d
in ction
ul us
Ġperiod s
Ġbeh alf
DE LETE
Process ing
ĠF i
con tract
Ġhe ll
Ġinj uries
Jan uary
Ġcl usters
Cre ation
Ġp s
Ġinnov ation
prot oc
. ";
á º
ĠR ap
Ġsum mar
ĠL P
ct l
Ġmeet ings
ge on
Ġdistrict s
Ġsix th
field set
Ġfl uid
ĠCom ments
Pred icate
Ġatt orney
Ġecon om
Ġhash Code
Ġgrad uate
Ġoptim ization
Ġdesign er
Any Ref
ĠE nt
am ely
G iven
Un its
ĠN eg
Ġdesign s
es a
Ġchair man
er os
Ġret ain
UP DATE
ĠH ug
Ġent ering
Ġreal ized
book s
DI RECT
Ġd iversity
ĠT itle
s am
vari ables
Ġâ ĨĴ
Ġres erve
ordin ates
Ġiter ation
Ġfl u
iver pool
Ġg ift
Ġsl ide
Ġpay ing
(" <
Ph ase
f lix
pre vent
---- --
tr ait
Th an
ĠG er
ĠSer b
ĠWork s
Ġours elves
Im ages
Ġserious ly
m acro
Ġag ed
ou ver
ph ant
Ġspect ral
clud ing
leg es
> ';
A lex
Type Name
ĠR ey
y c
Ġconstit ution
Ġprem ier
11 7
Dat aset
read cr
C atalog
Ġstream ing
Ġinvolv es
J o
Ġassert False
ĠD ur
ĠH it
ĠGener ate
Ġs qu
ĠCh apter
Ġbutton s
Ġc urrency
L ear
Ġhead ing
ibr ation
ĠPe ace
In clude
has OwnProperty
Ġfair ly
re tt
Ġ" --
Ñ Ħ
ĠF loat
ĠMar ine
Ġweap on
Ġsp ark
Ġacc eler
Event Handler
Ġobvious ly
Ġg ang
Ġad mitted
Ġsatisf y
Ġpriv ile
R ank
19 28
col ors
ch rom
ill ery
CON F
Ġsk ill
g em
p referred
ĠF actory
ĠPer formance
ĠS ri
Ġgr pc
Tag Name
Y P
g ate
che ll
Im mutable
periment al
FO RE
}} _{
Ġt ur
Ġconsist ing
ĠM oscow
Ġf unny
C amp
av al
Ġin h
PO INT
sh iv
ĠPr ice
Ġwor ry
H ar
Ġgener ating
Ġr s
Ġl ake
ĠOper a
Ġreg ulations
hemat ical
s amp
A ff
Ġab und
Check er
int o
ex isting
b ors
ver b
Ġd eleg
PI O
Ang le
ate ur
Ġstrugg le
19 10
Ġvis iting
F B
ĠK it
ĠLa ure
Ġkind s
ĠHaw ai
ĠCh ile
mod ified
Ġmanag ing
vel ope
Ġent h
Found ation
Ġdistrib utions
ILE D
Ġg ay
Ġdisc ipl
pe er
Ġreve als
eli hood
S ink
Ġsett led
Ġdescri bing
ĠYear s
c atalog
Ġref lection
Ġthink s
Ġcoeff icients
Ġdeal ing
lo yd
ĠMc G
ĠInst agram
Ġ/ .
UM N
Ġdec ode
Ġch rome
enc er
ĠAl an
ĠV AR
LE N
alle st
Ġsch ol
bal ena
Ġcalc ulation
Ø ³
ess aging
Ġs ock
Ġreve al
Ġgen etic
Ġbreak s
ab ling
ĠH ad
Ġreal ize
] }
Ġinterpret ation
inn ed
go al
Ġco inc
Ġs alt
Ġt ied
y aml
ip pi
ĠFre der
ĠMay or
ĠEx change
Me asure
F ast
ĠM enu
A ir
ĠĠĠĠĠĠĠĠĠĠĠĠĠĠĠĠĠĠĠĠĠĠĠĠĠĠĠĠĠĠĠĠ ĠĠĠĠĠĠĠĠĠĠ
ĠHo pe
Ġenc ryption
room s
Ġt iny
ĠTr igger
ĠWalk er
Ġmin ing
Ġpop ulations
Log ging
ĠDet erm
Ġpredict ed
Ġoff ensive
Ġsym metry
Ġscript s
ĠNO TE
re ach
ç ½
Ġm k
Ġre vers
ĠM organ
An n
cy cle
Ġb one
N or
Ġst ead
ard ing
Ġfl ush
illi ant
Ch at
Sm art
Ġb irds
ass et
Ġbr on
ort ed
19 32
Ġmin i
Ġst retch
Ġh al
ĠC P
Ġtr ains
T ODO
Ġconsum ption
c ours
ber ry
CON NECT
ĠKent ucky
Ġ{ ?
Rob ert
ĠGu id
Ġsing ing
Ġd s
ah o
Ġun f
F M
V ote
Ġtemperature s
N orm
Ġint ensity
à¤ ¾
Ġen ables
Ġcons ent
mem Item
ĠG ab
car ousel
R S
LI B
A mazon
Rout ing
D istribution
F IL
ĠP L
un iform
Ġeng ines
al ia
Serial izable
ĠS ex
ĠF ILE
ĠL ess
prov ed
Ġimpress ive
( ",
ĠMar shall
E lem
Red irect
Ġo vers
) &
Ġgen re
Co ord
. (
om ething
Ġr ub
Ġn an
exception s
Ġmach ines
Ġtri ple
Ġeval uated
ĠMalays ia
ĠTh er
Ġt ank
Ġann iversary
ĠB att
Ġfra ud
Ġl ambda
ĠLeg isl
ĠDe an
Con struct
ĉĉĉĉĉĉĉĉ ĉĉĉĉ
H D
ĠS el
Ġro se
Ġknow ing
Ġo cean
Ġp ushed
N U
ĠM eg
ĠStud ent
Ġm ales
Ġ(! $
Ġsuff ix
Red uce
NAME SPACE
ache l
Ġdep os
J ack
c art
Ġ[ #
u its
Ġweek ly
Ġorgan isation
Ġ/*! <
> -
Ġattack ed
if ts
d m
ĠS quad
oid s
c od
St ates
3 20
tem plates
n ik
Ġg lyph
R M
Ġb le
r as
ibli ography
at ivity
Ch oice
Ġb acter
ou p
ra ig
ĠQ t
pay ment
Ġ' {
ir i
C lock
Ġtr uck
Ġmagn itude
th ere
un i
Ġ. /
comm ands
ĠSt yle
4 50
ĠS witzerland
Ġinform ed
Ġl oader
t ick
ĠVis ual
v i
Ġchild hood
ĠA zure
Com pute
ir al
Ġc ov
Ġg ate
W ar
Ġconf lic
rb an
T om
_{ (
ĠIP v
ĠR ace
_ +
numer ic
st ock
im plementation
Ġcompet e
F IN
Ġl ights
l ings
ĠB ureau
Err s
Ġphil osophy
u is
Ġly rics
Ġbr ands
ĠAl bum
ĠI ron
Ġcapt ain
ke leton
ĠBow l
Co ins
Ġconnect ing
NUM BER
ul ates
Ġy esterday
Ġstrateg ic
ĠGener ic
Ġbound aries
job s
Ġencour age
ĠG P
og g
ĠLear ning
Ġloss es
B ag
ĠG ordon
ĠLoc ation
] -->
ĠT i
tab End
F D
Ġfru it
Ġen vironments
Reg ex
ĠBase ball
ĠDet roit
Ġpred iction
tra its
GB T
Ġinstr uments
ĠH um
Ġdevelop er
Vert ical
ĠE lection
TE GER
[ [
Ġrob ust
> ("
Ġrough ly
Ġassoci ate
Ġcrit ics
Ġrender ing
Ġval uable
; =
ore st
Ġinv oked
ĠBru ce
Do es
Art icle
ĠT IM
Ġan alys
. :
U INT
as ant
ĠM B
****** /
Ġentr ance
Ġcru cial
o j
x r
m issions
N ER
* .
13 5
Ġfew er
ĠW i
in os
Ġs ick
V P
Ġsim ulations
12 4
ot er
Ġlock ed
Ġstat istical
un its
is ely
Ġvot ing
Character Offset
Ġf ought
Is Null
Ġneut ral
inter action
nov ation
thread s
over y
ig ue
AP PLICATION
ĠArg s
Ġaware ness
> /
Ġpermit ted
Ġyield s
Ġfe es
ĠAll ow
ä¸ Ģ
Ã «
uk i
it r
Ġradi ation
Ġeth nic
ĠI MP
Ġhand les
DO WN
E r
Ġem issions
Ġad apter
æ ī
ĠS ER
Ġg raphics
ĠM ission
De ath
Ġmolec ular
L B
or able
ch arge
ĠP S
id al
op lus
Ġreli ef
ĠMc K
å º
amb ig
Ġtransl ated
Ġinnov ative
Ġll vm
Ġ ì
Ġb ars
Ġpro hib
Ġ! !
ter rit
Ġjud g
ĠS TR
Apr il
Ġbe er
ĠY et
Ġd ense
Ġdis p
ab ad
Ġtransport ation
th ird
Ġdemonstr ate
19 16
Ġdi am
Ġpar ish
e or
Ġ$ ("#
ĠB ron
li est
Ġrapid ly
Ġl attice
Ġliter ary
ĠH amp
Ġgal axies
in ian
Th rows
Rec ords
ĠAl liance
Ġshort ly
G l
Ap pearance
ĠCom puter
J une
SQL ite
Ġto g
Ġmy th
Over flow
V IS
ic ut
pt ic
S printf
Ã ´
in verse
Ġfant asy
Ġsub str
* >
Ġt ill
Ġthous and
Ġcent uries
ing ers
ING S
Ġpen alty
Ġen forcement
cor rect
ĠTem plate
By Name
Suppress Warnings
ĠC ooper
ĠPro tection
Ġthem es
OD Y
ĠRespon d
Ġent reprene
Ġs ons
al tern
NO WN
Ġh urt
Ġnot ation
Ġpri ze
ud son
sub title
Ġindepend ence
Ð¾Ð ±
Ġcur ves
ĠB eng
19 27
Ġ/** <
I BU
L ER
Ġmay or
ab sol
Ġden ied
h is
ĠN u
! )
we alth
), \
Ġitem Members
Ġgen es
Ġvol umes
lin ewidth
ĠCle an
ĉĉĉĉĉ Ċ
ĠI OD
in burgh
p d
R I
19 22
oll ary
U G
Initial ize
ĠTh anks
Input s
Ġcent ers
inal s
Ġpl astic
sub str
ĠD allas
B ecause
Ġn ick
Un mar
ues e
Aug ust
ĠCOL SPAN
S at
ĠMo z
arr ant
IF Y
Ġlog o
ĠTh ough
Part ial
ra id
Link s
S us
ĠOrgan ization
Ġt ar
Ġcou pling
B N
Ġback end
act ivate
anc ouver
Ġstart up
Ġrestrict ed
Th anks
Ġan alyt
du ced
eb ook
Ġredu cing
J uly
Ġr ival
F ace
N EXT
ĠChair man
Ġpost er
C op
back s
C AP
Don ald
Ġhand lers
Int o
ĠAl tern
ĠSaf ety
Ġcons ervation
Cl one
ĠDes cribe
en z
][ <
ins ic
Ġpass enger
xy gen
fail ure
Collect or
Ġst ake
Ġz ip
Ġre ception
Ġout standing
Ġad venture
Ġemph as
Ġpay ments
Ġprof it
Ġs id
Vis it
id ges
neg ative
" +
19 15
Ġpass engers
j boss
ĠDoug las
ĠPl us
it ure
is ons
Ġb ag
ĠT otal
Component Model
ĠValue Error
Comm ands
Ġrem oving
Perm issions
ĠC ole
b ul
Ġform ats
m ysql
Ġd f
ring tone
Ġhead ed
D ot
pres erve
Ġf abric
T ON
ĠR ab
Ġris ks
h ist
ĠN i
Ġcon cluded
ĠInd ustry
ĠV egas
ĠH ell
trans fer
oxy gen
ĠAng el
im edia
Ġch arts
Ġpublic ations
ĠW y
ĠF ant
log ue
($ _
Ġparticip ation
j oint
or ce
k n
Ġsomew here
is Array
ter y
ĠD ocker
Ġb io
re ports
qu et
ĠC ow
the mes
× ª
Ġchalleng ing
Json Property
ish ment
ĠIndones ia
Ġor bit
im ore
Ġl in
ENT ER
ens ing
at ers
Ġi Phone
f ather
ĠV M
q t
x e
Ġarr ival
Ġfle et
Ð°Ð »
Part s
Ġpres erve
Ġsurpr ised
Ġback ing
(" [
Ġinter mediate
pol l
z ier
Ġpro c
ĠSt ew
ĠTurk ish
Ġrecogn ize
ĠP sych
ĠF ont
Ġ($ \
ĠJ os
uff le
Ġsam pling
Ġcomput ation
Not ify
XML Schema
Ġscal ing
ĠN ature
A IN
ĠWal ter
Ġmat rices
l b
ref ox
Ġspirit ual
re ject
inner HTML
ĠJon athan
h or
ĠK az
Ġisol ated
Ġsc oped
ĠST AT
M anaged
I MAGE
-> {
const ants
DE V
[ ],
ok u
ĠAs ync
A CTION
"> '
le af
Ġretire ment
ĠSe qu
CC CC
Ġlik ed
Sign al
process ing
ĠDub lin
/ %
ĠC PU
widget s
ĠAtl anta
apol is
Ġ// !
ĠInd ependent
BU F
Ġw he
Ġpl ugins
stit uency
UM ENT
Read Only
l r
oc he
ĠB os
Ġprofession als
à ®
if old
pub lished
ĠAd vis
as ide
ĠL iving
Ġpar agraph
ĠAtt orney
Ex pl
ĠIn stance
Inv oke
19 25
View s
Ġaccess key
Br anch
Pl us
INST ANCE
att en
Ġlik es
Dec ode
E MP
Ġre putation
ĠTh ings
ne e
Ġtog gle
we ather
\ }
Ġi OS
ĠAust ria
List s
claim ed
Ġf est
ĠC L
{ })
Ġpe ers
ĠD epend
m ass
Ġal location
Ġpro sec
] >
Ġm i
s napshot
Ġr ugby
De ployment
ĠH ills
Ġm ir
Ġg od
Ġr ising
× Ķ
Ð¾Ð ¼
iss ippi
MA G
ĠL IC
19 31
ac l
sec ure
Ġelse where
he art
Dependency Injection
Ġconsequ ences
Ġun iversal
Ġclos ure
Ġa ims
d ashboard
Ġtick ets
Ġant icip
[ _
ĠChrist opher
ĠReview s
en kins
Ġrout ine
m ate
Ġexp atriate
ank a
ĠZ one
p ip
Ġ ÑĤ
with out
19 24
std out
Ġm esh
Ġ" ./
copy right
ĠS Y
P DF
i op
ver bose
ma jor
Ġshop ping
Ġdep ict
Ð Ł
Ġp arsing
S al
Ġch rom
AS C
F X
ĠR ot
-------- -
div ider
for ge
Ġnot iced
al ion
Me an
or ange
ĠA V
Ġdesc end
ĠM C
ĠC lick
N il
Ġag es
Ġexpect ations
Emit ter
La unch
ri um
territ ory
Ġc up
Ġid s
Ġbas ically
ĠD ue
Ġabandon ed
ĠM I
33 3
Ġam plit
pan ic
Ġt ou
ĠRes et
Ġre lying
res olved
Ġout comes
ĠB uff
get Default
te ch
c x
ĠJud ge
H ot
ĠAnton io
Ġoper a
ĠDr agon
ar ma
um bs
Ġor th
ST EM
Ġsympt oms
ĠProt ocol
Ġsudden ly
Ġ$ [
Ġdef ensive
ĠSub s
* {
Ġar med
host s
) '
Ġdirect ors
inc ial
ĠPolit ics
ĠD ist
Ke ep
Ġwebs ites
an alytics
ĠP ear
Ġserial ized
Ġj et
GEN ER
ĠMed al
M X
av it
. -
S en
Ġperfect ly
A pis
ur u
ele ss
ograph ical
ĠĠĠĠĠĠĠĠĠĠĠĠĠĠĠĠĠĠĠĠĠĠĠĠĠĠĠĠĠĠĠĠ ĠĠĠĠĠĠĠĠĠĠĠĠ
ĠComm unications
ĠL ane
ĠB egin
S in
ass ador
ifi able
et he
19 12
CE PT
ER Y
q a
Ġcut ting
Ġ\ (
Ġover view
Ġa ws
Perm alink
ĠAn na
ĠAnn ual
df s
Ġestablish ment
=" ./
Ġperson ality
Ġd ating
Particip ant
Ġvill ages
M art
Ġcons ervative
Ġcharacter istic
ĠÐ ·
Get String
Ġnom inated
Ġtri als
Ġident ification
Ġconvention al
qu er
C odes
w ire
Ġs urn
Ġd inner
Mat ches
Cl ause
Ġf uck
en ario
........ ........
ow ski
per ience
iss a
ĠLaw rence
string ify
list s
Abs olute
B tn
16 9
Ġdo i
ĠRE AD
Ġhead quarters
Ġt ort
Ġr um
ens is
ĠS ud
f ee
form ing
-- ;
ĠDE BUG
G re
ĠH old
Ġdecre ase
Ġmechan isms
f are
ĠJ enn
Ġflow s
S chool
Ġarg ued
Ġstr uck
Ġ" ");
ut o
Ġcut s
12 2
ĠEnvironment al
Ġar row
ĠSh op
Ġan cest
ĠB es
ĠPro position
RET URN
Ġsurv ival
Ġcomp licated
Instance Of
ĠFor um
mon itor
Ġoccup ied
Oct ober
19 23
me asure
Ġcon cerning
el m
Ġview ed
ĠPublish ing
Ġnormal ized
open api
Ġh ired
Ġ} ));
pers istence
j amin
Ġ\ ;
Ġse ar
Ġd x
ĠBr un
Ġb lob
Ġinitial ization
Ġtheoret ical
Ġd type
] ];
m ma
19 26
Ġ[ ])
'' '
O rientation
ĠMat thew
V oid
19 21
Ġrem oval
c amp
the less
Ġs el
C li
, ...
16 8
Ġset Up
Operation Exception
ac iÃ³n
ĠM ove
ener gy
ĠH ero
_{ {\
Ġpartial ly
ens ors
OP EN
Pro ducer
Ġad mit
Ġindu ced
ĠDec l
E lect
ĠG C
F at
A W
ect ure
I ssue
Ġs wit
æĺ ¯
ĠStud ents
as ma
od b
ĠSt age
Ġbo ss
She ll
date picker
Ġfranch ise
p us
ĠO klahoma
ext ends
und les
ig s
Ġstrong er
her ent
m any
C XX
Ġl ux
Ġpublic ly
ey ond
Ġguilt y
Ġinflu enced
ĠTh ailand
sl ug
Ġes c
De cember
Ġbrief ly
w so
Ġb ird
ain ian
ol i
ĠA pi
orient ation
âĶ Ģ
11 3
Ġprodu cers
Max imum
eb r
Ġde als
Ġdise ases
Con version
Ġguarant ee
pt s
ĠB ible
} `
last ic
17 0
un used
Man ifest
il iation
Ġat om
Default s
Ġt all
ca pture
list ing
ĠMon th
col on
Ġmov ements
Dis able
Ġgovern ments
ĠK ir
Fr ag
Ġsuff ering
sw ap
Ġbl ind
Ġ| \
Block Index
å Į
p romise
ĠWith out
Ġiniti ative
De ep
F it
ĠP ap
um per
Ġfem in
f un
Qu ick
ced ure
log ic
Ġspec ification
ĠIter ator
W H
M LE
cc cc
Ġconsider ation
Ġp sy
Ġroy al
Ġt body
Ġl t
s yntax
DE VICE
Ġs aving
Ġher itage
Ġcon front
omorph ism
ĠP AR
Py thon
m icro
Ġreli able
Ġn ations
ĠV ert
Ġharm ony
ĠAL L
Ġstream s
) ?
Ġsustain able
ĠE val
Ġob server
ĠD ak
Ġdel ight
ĠStud ios
n est
Ġdire ctions
Tool bar
u art
ann on
Ġap artment
Ġcelebr ate
ĠR ole
Ġbr anches
Ġrender er
ĠP ast
un ing
Ġregard ed
ÐµÐ ´
Ġs le
oust ic
Ġstudy ing
Typ ed
Ġelect ro
Ġsurv ive
ĠK ath
Un lock
USE D
=" {
æĸ ĩ
Ġvis itor
op ens
ĠG irls
ard ed
des cr
utor ial
ĠC OP
Ġconcept s
ĠNiger ia
Ġf oc
Ġenth usi
our t
Res earch
Key board
char set
Ġdis plays
m ates
ĠTai wan
ĠTele vision
ut t
Ġdog s
Ġrecip ient
ab br
Ġhy brid
Ġm oth
absol ute
add on
sh arp
Add itional
(' ../
Byte Array
ĠH il
Ġscal es
ri eve
Work flow
C ached
itar ian
Ġpan els
R ay
T OP
ĠTH IS
ecess ary
Ġdis ag
Ġrep air
m outh
c odes
f our
Ġal cohol
ĠRog er
Ġdo ors
ĠN ation
d ater
ĠCons ider
valid ator
RE C
sc ill
com par
Ġcomple ment
ĠAdd itionally
b oth
O s
hy thm
for all
Ġwalk ed
D AT
Î º
ĠRE G
Ġeng age
ĠM s
list en
Pre view
ĠU tah
Ġsus pect
T okens
A li
000 1
ĠIm ages
ĠUn ivers
ocom plete
ant ics
DOCK ED
G a
Ġp ipe
S ender
ĠArgent ina
ĠA qu
' _
Ġto w
assert False
in ces
an imate
ĠPal ace
Ġre ly
ĠSen ator
Ġany more
M us
tr as
May be
Ġtrans mit
Spr ite
ĠAnd y
Ġin coming
ik h
Willi am
ĠU TC
Ã© r
ant on
ĠQueens land
ĠEd ge
Ġadapt ed
get Data
Initial ized
ĠNot es
Ġtouch down
H AL
ĠG all
ĠSch olar
ORM AL
ĠVis it
Ġqu adr
ĠW E
Att achment
Ġimprov ements
Ġrepl acing
< >(
an ne
W ire
Ġin verse
ĠP ART
Ġperson ally
Ġequ ipped
q s
d al
ick ing
Com bo
sol id
ĠFor ces
HEAD ER
ĠRep ly
Res olution
ĠCent ury
Ġunus ual
Ġme at
ĠM ars
Ġ} .
ĠSt ack
Ġuncert ainty
ĠP attern
ĠR ub
Ġann ounc
ĠÐ¿ ÑĢ
getElement sBy
Ind ices
G M
Ġmod ification
20 23
or ous
Form er
sect s
Ġn od
ĠThom pson
J O
CK ET
ĠK ind
Ġsimult aneously
g h
H istor
ĠRepresent atives
ĠF red
se ek
ĠY an
ĠPo pe
ĠI ssue
Ġactiv ation
ĠT yp
get Logger
Th us
Ġrestaur ants
ĠRuss ell
x ref
') ).
St ation
F LOAT
he ap
oth y
Ġpublish er
Ġmor al
rec v
L F
sc ar
m akers
Ġeduc ated
Sl ider
Ġarg v
ĠW oman
... "
Ġrefer enced
Ġsl ave
T LS
oc o
L i
Code Attribute
ser if
** :
inter faces
Ġmusic ian
V I
MS earch
g uid
Ġp ione
v est
d eb
ĠDel hi
Ġj e
I llegal
ĠS peed
H ard
el n
ĠOr th
get Time
ĠO wn
Arch ive
à ¦
ath ers
Ġne arest
H on
less ly
nav Bar
ĠS ac
or acle
et ics
Ġdec line
port folio
Ġstreng then
Ġmer ely
ĠFin ance
ĠF L
ĠEn try
gle w
Ġord inary
Ġneigh bour
ĠUS B
) ',
et ry
B uilt
ĠS erv
s izing
Ġsat ellite
ond a
ĠW right
ĠS audi
Ġfol k
Ã ¦
CP U
13 6
Ġinter pol
(' \
ĠEm ail
O ps
Ġm art
Com posite
Se ptember
L if
( <
Ġw arnings
^ -
ĠF ame
ĠSt ars
Ġt one
ph oto
Ar n
ĠLIC ENSE
Ġto x
Act ual
Ġcr imes
Can adian
win ning
Ġf d
ĠB ed
g ro
Ġcritic ism
Ġ@ @
ĠL IMIT
x c
Ġprepar ation
et ype
Ġcl ar
S uch
Ã ½
Com b
K nown
Ġst ops
Q UE
Ġrestrict ions
Ġcon scious
: **
l iving
Ġs ends
Ġn amely
ĠPort land
Ġground s
ĠC over
ched uling
Ġemb od
quir y
' "
æ ł
ĠW ik
ĠPe ak
ĠT ar
C ategories
Ġins ight
Ġpat ent
Alloc ator
D ER
e i
Ġappe aring
set Value
Ġguid ance
Ġac quisition
Ġp b
Ġan th
fl ash
comp atible
Ġ ):
EN S
Ġp ad
å į
AS K
Ġvir us
Ġfeel ings
Pub lished
T M
ĠSV G
ĠAss istant
Ġden otes
ul ative
Tw ig
ĠAt omic
Ġd w
Ġdifferent ial
30 4
> ";
Ġ) {
Ġill ness
S ing
h h
Ġimprov ing
Ġj unior
ĠCon vention
Â »
ov y
Ġob lig
Reg ular
Ġtherm al
m achine
c ook
Ġcour ts
build ing
ra f
Ġas ide
ĠI M
Ġm eters
Ġed iting
Ġg allery
j q
vent ures
ĠĠĠĠĠĠĠĠ čĊ
ter ior
ĠP aper
Ġcontr ad
B etween
P ref
lot te
Rec ogn
par agraph
N Y
Ġas semb
D X
sup ports
" <
em ies
ĠE p
Ġdr ums
om es
Ġph arm
r at
ĠB ased
lay ers
Ġav ailability
ĠL iverpool
Nov ember
19 0
Ã§ Ã£o
Ġs oph
ĠDef ine
Ġsh arp
Ġrest ored
ĠMin or
s chedule
ĠSD K
ĠB art
ĠAd ams
st orm
Ġwh ilst
Ġh ill
ĠP i
ĠAb d
} ))
ĠPerson al
oc ent
ĠM ind
Cl osed
Ġinterview s
ĠEd inburgh
elf are
own ed
ig g
ĠC WE
ĠF ly
ĠRes erve
Ġm eth
En code
ĠNC AA
Ġpro files
ĠF IX
Ġre striction
Ġgener ates
ol o
First Name
Hand lers
Ġf atal
Res olve
ĠG raham
ĠV o
Pers istent
é ĩ
Ġp overty
Ġthe ories
in formation
Ġ{ })
Ġsupport ers
Ġkey word
ĠRead ing
y outube
Ġarr ive
A WS
leg end
Throw able
Tra its
Ġ" (
lo pe
P references
U TE
Ġaim ed
ne utral
Res ize
2 11
x it
Ġmix ing
re nd
Ġdec imal
Ġlif etime
ĠRob inson
Ġcop ied
ik ing
Ġunivers ities
Im g
ts burgh
Ġm g
=" '
FE ATURE
ul se
ĠSp irit
ĠW ard
Ġoper ational
p iece
Rec ip
ĠH O
big g
Ġc s
> @
LE FT
ĠC T
TR ACT
External Project
Ext ended
Ġcomb ine
Ġscul pt
M ass
co ins
Ġt act
enc oded
IT ER
u ates
Ñģ Ðº
Î ¯
Ġdeep ly
ĠD ays
ĠT ob
Ġis set
Ġ- &
y our
request s
ĠFrame work
Ġorgan ic
P TED
rest ore
ĠCh art
Ġbas eline
ĠW ol
Ph ot
Http Request
ĠP il
M W
S B
Image View
h it
ev ens
ĠM aur
ST REAM
Ġmet res
cur r
Ġwed ding
U i
do es
ig gers
Ġinter faces
call s
Ġc p
Ġh ip
B oth
ĠPr imary
c rypto
ĠR ect
ash i
Rep o
S ym
Ġsit uated
Ġst arring
ĠR ain
Ġin clusion
Ġdest ruction
ĠC os
Ġa str
ĠBe at
Ġf ishing
pos al
Ġdepend ence
list ed
Ġd y
se p
ĠCom put
Ġ" :
ĠBar on
ter ed
Ġpr on
Ġannounce ment
Ġformer ly
Ġscr atch
Ġclass ified
cho ice
ĠK ings
phab et
ĠF el
ke e
get Current
Ġru led
Ġwer en
Ġin fection
ater al
ĠF E
ĠLeg al
Last Name
ev a
ĠBo ys
ym n
ĠM ort
Ġcr ack
Ġtax es
[ ];
ĠS creen
18 90
Ġtarget ed
Ġun s
' }),
c ms
Ġ um
Ġ! (
L o
x ff
s ess
t ok
Ġbr illiant
ĠArch ives
ĠBO OL
ĠR aw
Ġgo og
SE CON
19 11
Ġtr ick
O lymp
ent ities
Ġfore ver
ĠG ary
Ġcaref ul
ĠU r
s uite
ev t
Ġh opes
ĠSing h
Ġtrigger ed
ĠW ang
Ġp c
Ġis lands
iv ities
ĠA lice
Ġfru str
wall paper
Ġman uscript
ĠDocument ation
Ġm apped
g un
sp er
rol led
ĠHe ader
. ]
ar ound
P reference
d ash
IF T
ĠA BC
Ġp ump
Ġw et
> ",
Ġport s
w edge
ĠV iol
Ġmass es
und ers
ĠR ick
PROPERT Y
gr ay
Å «
ĠS ample
Rot ation
Ġpolynom ial
w b
ass oci
Bi ography
r ans
Ġsp okes
Ġfin ance
Ġl os
ĠF M
T ake
B AD
ast ed
Ġpo em
Ġsil ent
Ġad s
ãĤ Ĵ
Ġequal ly
S il
Ġliter ally
ĠRuntime Exception
ĠI C
Ġcalcul ations
> $
ĠC ategory
Ġt aste
ĠJ e
la unch
Ġeng agement
ush ing
ĠVal ues
ĠWh ich
")) );
Ġcub ic
ilib rium
Ġm irror
14 7
= </
Ġvis its
ĠClass ic
ĠĠĠĠ ĉ
Ġp ic
ĠMag ic
-------- ---
å °
ul u
Call able
Ġpred icate
Ġoper ates
F H
Ġcallback s
T or
ĠCred it
em ale
ha us
Mult ip
b age
r int
Ġcancell ationToken
Ġleg s
Ġcl ot
ĠRe quire
Ġelectric ity
Ġt urb
Ġspe aker
ĠEm peror
Ġth orough
ĠN ag
Ġstruct ural
11 11
play back
"> Â
Ġcancel led
Ġpert urb
Ġnot ion
ĠIn fo
Att ach
19 13
id y
h att
Ġgreat ly
ĠN elson
Ġdiscuss ions
Inv ocation
le ans
ID s
Ġh older
Ġcon clude
Opt s
Ġsignific ance
z ym
Example s
loc ations
Ġsuper ior
Ġtransform ed
sp aces
Ġun lock
Ġrom antic
d type
ĠGr am
Ġfin ishing
Ġreg ex
ĠSw iss
pan ies
er k
Ġ" {
ploy ee
ĠPh one
Ġ âĢĻ
Ġco in
Ġcollect ive
navBar Cell
sp h
row th
à ¬
R G
2 30
Ġmonth ly
Ġsh ots
ĠBr and
ACCE PTED
ĠÐ ¼
f act
C riteria
æ İ
ĠHistor ical
Ġd owntown
Pol y
Ġh ang
Ġst ellar
Ġwith draw
det erm
(( (
ĠPr incess
Ġbron ze
ul i
Ġc ited
t ain
ĠS ql
amp ed
ĠRef orm
or ate
Ð ±
ĠBit coin
| }
B ODY
Ġcommand er
Ex change
Ġmount ains
Ú ©
Ġm ilit
ĠCl imate
ĠExt ension
Ġpro x
ĠHar vard
] ",
Ġcon sequence
Ġexpl oration
Ġoper and
d og
bar s
ĠGu y
F ee
ĠU g
ĠCal led
Ġfarm ers
str ained
is i
Ġdoc s
Ġaccompan ied
Ġcomfort able
s ong
Ġex ha
Ġas c
enez uel
ĠCom pute
de ploy
Ġl azy
Ġconven ient
ap l
Ġenc rypted
Ġhelp ful
ĠChar acter
Ġprov en
hib ernate
tensor flow
ĠK night
Ġn aturally
ĠTown ship
AT T
Ġt issue
ĠCont roller
Ġconstant ly
l arg
] ));
Ġint ellectual
12 6
F inder
and box
ĠE u
Cre ator
und ef
level and
Ġp t
ĠR T
------------ --
n r
ourn als
ĠPolit ical
Ġt ennis
Ġsac r
ĠInd eed
Ġpr imitive
Ġcaref ully
ĠDen mark
UL AR
ĠD M
app ers
ĠWar ren
S el
le ading
Ġn urs
ĠB ond
Fin ished
ĠConnect icut
ĠMiss issippi
ĠF riend
url s
erg i
ĠSt ories
et al
ad os
L ab
ĠL anc
Ġag gregate
uck ets
ĠTerm s
Ä ħ
ĠOper ations
ĠBe aut
sl ash
Ġaddress ed
Ġclose st
Compar ator
ĠĠĠĠĠĠĠĠĠĠĠĠĠĠ Ċ
Ġrem ind
om p
Ġsym metric
P ull
Ġbirth day
ok ia
ogene ous
ĠB ab
ĠD ance
ĠAr men
Int roduction
Ġp ag
out line
ĠElect ric
ĠO il
Ġg ent
unt u
Ġcan onical
Ġlog s
S ever
ĠPol y
Ġland ing
d ummy
T i
/ $
Ġpre t
Exp and
ĠWIT H
k ov
iss ance
Ġun like
EE E
ĠT el
S ocial
ĠF inn
I o
id ency
CLU DE
Ġp our
Start ed
Ġcross ing
Ġ nd
OP ER
Icon Error
P icture
ĠT F
IN PUT
) }(
Ġch urches
F atal
ĠMur ray
Ġc able
h ai
ĠN ash
h ole
A rc
ĠS now
Ġathlet es
ID S
Ġg fx
ri el
ĠMet ro
/ (
] =
ĠM other
Ġj oy
d id
Ġl ift
Ġdef ining
Ġsu icide
opt im
"> ,</
CP P
st ri
Ġver ification
ĠSam uel
ĠS EC
ĠT ower
ĠRet riev
V ars
or ig
P atch
em ed
sp itals
ĠNor wegian
Ġfilter ed
Ġsh a
) ";
work space
Ġhealth care
Cl aim
Ġb om
Ġsearch ing
Ġst upid
ĠC ONT
> #
sub subsection
Ġappoint ment
ĠKenn edy
TR ACE
V ers
CO PY
Ġinit With
Doc s
Ġw ake
ĠCol lect
ĠR ES
Ġincred ible
om eter
Ġpaint ings
L im
Ġrel ating
Austral ian
ir s
tes y
Ġf ul
ex ist
Ġdom inant
unit test
Ġaccord ance
ĠE pisode
Ġn ortheast
\ -
Ġres idential
ĠCh allenge
Ge o
Ġincor porated
ĠMic hel
IC S
Ġpro be
ĠÐ ±
ĠC row
Ġleg it
Linear Layout
Ġing red
ĠDirect ory
m anaged
Ġc ry
ĠEns ure
ĠU nc
prevent Default
ĠN ap
ĠV ancouver
log ical
Util ities
C LIENT
S ys
ant i
Ġbre ast
ĠF LA
Ġch a
ĠGa ussian
Ġdef erred
i ology
ĠPu erto
ĠM os
Ġbi ological
Ġbox es
int ent
ĠPh D
27 0
Ġbu ying
Ġs occer
em en
Ġ* _
ĠB ec
h dr
irm ingham
Browser Detector
Ġre vision
om ing
Un ion
amil ies
ĠG ot
b ank
is Valid
le arning
pre dict
ĠJ ess
ĠPortug al
ph ere
ĠGL enum
Ġhop ing
l w
Th ank
Ġman ually
iff s
Ġprote ins
ON LY
Ġaccess ed
ch arg
CON ST
Ġtw elve
Ġattempt ing
ĠO bservable
ä» ¶
ĠChar lie
s cheme
pre tty
Ġstay ed
Ġph rase
ĠK ate
Ġpre view
LOC AL
Ġ" </
C N
Ġcomp atibility
US A
I ll
Ġ{ !
em a
ĠCr ime
omorph ic
ĠComm ons
b ash
d w
IconError Encoded
Ġle ts
ol t
ĠI an
C ACHE
ĠCamp bell
ĠE D
Al bum
Ġjud ges
Ġpredict ions
ĠL ower
m ade
sp l
TH READ
F our
) >
SC HE
d agger
20 2
ĠB lood
An swer
k le
OFF SET
ĠN ames
s pect
ism atch
ĠF ern
ur ities
ifest yle
ĠB ou
Work space
u ator
ĠNew ton
ĠDom in
ĠBet ween
ĠS ales
cal c
L and
Ġfore cast
Ġt ie
ol en
Ġsome how
print StackTrace
Ġm p
Ġant ib
Ġsecret ary
ĠBelg ium
P OL
ĠH eb
Ġarg ue
å® ļ
Ġkit chen
L ess
M ULT
linked ExternalProject
iv an
ĠPh ys
Ġinvolv ement
am ents
Ġjournal ists
ĠI ce
w hel
Ġtem plates
om inator
b an
ed ition
ä ¿
Ġrespond ed
Ġaccomp any
ol id
Get Type
Un expected
pl aced
ĠD rop
ĠPro duction
12 9
Ġa ux
Ġc ock
li ers
Get ter
Loc ator
Ġassum ing
ĠSh adow
aver se
C LO
p ick
Aut hent
Ġencour aged
ĠT s
on z
Ġ$ ('.
ath on
br ains
V S
Ġ+ \
Prov ince
Ġinsert ed
n ested
t b
ADD R
Ġcontract s
ä¸ ª
Ġc ul
ĠS ay
ĠC er
Ġv ital
_{ -
ann ah
on line
ov ak
Ġs urre
Ġpain ter
ĠE le
urch ase
ĠY ES
ĠBrook lyn
A ws
od ox
ĠU INT
ĠB ull
ĠA ch
o auth
linkedExternalProject Path
Ġâ Ĥ¬
Ind ian
ĠD J
Ġinsp iration
Ġc rypt
Ġsp ell
FA ILED
ĠJ azz
v p
IC AL
ĠÎ ¼
ĠM ess
Ġsup pose
ion ic
Ġinh abit
col s
Non Null
al one
ol ine
Ġsp arse
Ġl aser
Ġres idence
NE SS
amer as
Ġintegr ity
av ia
at iv
ĠCh amber
NO TE
ang les
Ġex clude
Ġac quire
ĠSh are
Ġdem ands
AC CESS
re ck
Ġst em
Ġdirect ive
Comp any
ĠDep uty
ĠMarg aret
map per
Ġre b
ĠPl ugin
ĠBro thers
Ġse aled
K EN
LE AN
h uman
Ġfavour ite
Ġadapt ation
ab i
Ä Ļ
ĠEV ENT
Ġcr ick
Ġchar ity
B log
H it
ĠO cc
m atic
ĠB uck
ĠE qual
back up
13 4
IT S
Ġnec k
ĠTH REE
Ġk in
ed a
Ġarr anged
ver ts
rip ple
Ġencounter ed
æ į
Type Def
as List
Ġre ven
Ġfound ing
ĠThe me
Ġst adium
Ġperform s
ĠCh ampions
light s
ill o
Ġwe ird
ĠLouis iana
ĠJ uan
define Property
se en
ĠExample s
ĠP ad
) })
L arge
m r
ĠT an
E ducation
Qu ote
fin ish
+ (
Ġra ising
Z end
in ions
sub figure
Ġcl ause
ĠH IV
ĠShe l
grad uate
Ġclean up
ĠO d
ad ers
en h
t ls
Ġven ue
sw ift
!! !
Ġprec isely
Ġdialog ue
Ġaw esome
Ġreg ulation
T urn
Â ·
Ġamong st
ĠN an
A wards
Ġcomp ression
=' #
Ġrare ly
Ġw ider
Ġtrend s
ĠThe ater
ĠMark eting
product s
' </
all Errs
ĠI l
H P
Ġo scill
the y
mes h
Record ed
id ays
Com plex
HAND LE
ãģ Ļ
ĠDr ag
T ur
ç ±
Ġpri est
ĠPat ri
ah n
Min imum
STAT IC
k ubernetes
Ġhigh way
Ġmem ories
ĠG un
ap ing
å ĩ
Com ments
ĠAdd s
() "
Ġinter active
Ġfocus es
n able
Ġ Ã©
ĠT X
Ġround s
ĠM ak
oc ese
oc c
Ġin aug
(" ")]
Ġspect ra
Ġan onymous
Te chn
Ġg ear
ift y
ĠCro at
? .
b idden
g ulp
SD L
Direct ive
Ġcoun sel
New ton
ff ic
oc on
ç Ľ
:: _
it udes
Wr ong
ĠIn n
he ll
ĠMor ris
ĠJim my
W P
On line
in us
j sp
19 08
View ById
Ġgal axy
ĠStew art
ance led
Ġun set
Ġa ug
Ġ ))
Ġgr avity
C AL
w ave
A fr
AT IVE
screens aver
R pc
is an
Ġr uling
ĠJohn ny
ĠCar ter
Ġparse Int
J ul
t ake
ĠK on
Ġdis aster
: ",
ĠG ulf
ĠOr leans
ĠMar vel
poly mer
s aved
% );
}} (\
Ġo c
in ar
Ġex clus
ĠĠĠĠĠĠĠĠĠĠĠĠĠĠĠĠĠĠĠĠĠĠĠĠĠĠĠĠĠĠĠĠ ĠĠĠĠĠĠĠĠĠĠĠĠĠĠĠĠĠĠĠĠĠĠĠ
ĠM ode
oc or
p matrix
inherit Doc
ĠCh o
ĠC oun
Sc ott
ĠF un
bor ough
Ġf irms
ag h
CONT RO
)} {\
/ ******/
ĠF al
ĠW ind
Ġcap ability
Ġcred its
B as
Text Field
æľ ī
conf irmed
â Ĩ
ĠIns ert
Ġdef ect
el eration
Ġd ummy
Hel pers
ĠInt elligence
S pring
ĠI ss
ĠBul g
N AL
Ġviol ent
R ail
Im plemented
om al
Ġg enu
cre ation
ĠCh ron
usal em
FIL TER
ĠU rban
Prop ag
Ġgraph s
14 5
Out come
Ġlocal ized
Ġrad ical
A ge
i ang
file Name
Ġdifficult y
Ġvari ations
ĠK am
Ġo l
ĠC M
ĠH em
rem ark
or o
ug u
ĠB ound
W ITH
ĠS S
ĠN ep
cred entials
2 10
Ġth umb
g ow
ol s
b ie
s il
Ġorder ing
Ġtr unc
K G
Ġb ike
Ġtrans f
ĠGr ay
ĠM ail
ro les
lo ose
Ġrac ial
M ON
Numer ic
ĠN BA
host name
ey er
utr ition
r atio
get Context
Ġat omic
ĠCol omb
t own
ĠBr anch
Ġemer ging
c lic
Ġte a
Ġfol ks
Î ³
ĠL GBT
Ġcom ed
igh bor
Ġ< ![
Ġpre mi
Ġcur r
Ġsusp ended
Ġmar ine
! ");
ADD RESS
ob s
document ation
Ġp and
ar ms
dd ie
ĠOr chestra
ĠAfghan istan
Ġj u
Ġsepar ation
ĠMET H
A RE
ex press
Ġconver gence
pos ing
Off ice
ĠAl loc
ĠP eters
er als
Ġillustr ated
um ar
b anner
ĠĠĠĠĠĠĠĠĠĠĠĠĠĠĠĠĠĠĠĠĠĠĠĠĠĠĠĠĠĠĠĠ ĠĠĠĠĠĠĠĠĠĠĠĠĠ
ĠMuslim s
Ġref uge
ĠD NS
Ġ/// <
ĠR ele
ĠP NG
ĠEv ans
Ġh ub
2 60
oper ating
C V
ĠCom plex
D NS
Ġpod cast
ĠP OST
Ġconfig urations
Des pite
m aint
t ik
Ġsub group
con duct
ke ley
Ġagric ultural
im o
N ORMAL
get C
c nt
Ġcap s
ĠW allet
ĠFrank lin
res olution
ĠAct ivity
Ġorgan isations
Ġre aches
z ing
Ġl oud
Sup plier
Ġun likely
/ ************************************************************************
2 64
Ġres ident
B IN
Ġs creens
ĠEd it
Ġm ad
Pro of
F all
ĠTh ink
Ġcharacter ized
g ender
m usic
re try
Im plementation
f ade
Ġt ang
ĠA my
ĠPl anning
Ar row
ĠNAS A
Ġsw ap
Ġdis crete
Ġphotograph s
Ã© n
Ġc razy
ĠU nd
ĠUn iversal
Ġlaw yers
Ġdefault Value
Ġpack ed
"> #
jet brains
V el
Ġsupp lies
Ġwor ship
Serial ize
ine a
Ġevery where
Code Dom
Ġart istic
i am
h op
â ĪĴ
Ġrepresent atives
mark et
pro logue
Ġres ign
ĠCamp aign
Ġse q
Ġshut down
ĠJ u
CONT ENT
ĠD ir
ĠUp per
Off icial
Ġmechan ical
ĠThe ory
ud ge
DEF IN
Ġdom ains
Ġhe ap
Ġcelebr ated
Ġcoeff icient
M icro
rg b
M igration
Ġst ating
ç± »
Ġdes ert
Ġtim ing
ĠF ather
net t
Neg ative
Ġd uties
Ġ( ((
ĠM oney
ar ations
ĠArch ive
Ġsens itivity
g res
Ġinvestig ated
ĠB io
class path
ĠCl uster
ĠP un
Ġe ating
Ġbrows ers
> ")
ĠJ oin
Ð» Ð¸
Work s
an on
comp act
æ ³
Ä Ł
en berg
up edia
ĠProf essional
ĠBern ard
"> "
y ml
Ġdebug ging
Ass oci
lim ited
ĠM ix
ĠColl ins
G G
Ġhypot hesis
cos ystem
Ä «
Ġg olf
new command
Ġc ow
ATTR IBU
el ist
Ġt ips
// !
ĠT ypes
s an
Ġdam aged
Ġcon form
hy per
Ġmanufact urer
ĠW olf
Ġb eta
Ð½ Ñĭ
query Selector
Ġfrequ ent
LE ASE
ĠIm perial
Ġcomp ound
az ines
Ġel igible
) ^{\
atab ases
B ot
ro se
n P
ĠAv ailable
r h
ĠD ie
Ġsurround ed
th an
Ġcontain ers
Ġb unch
Ġdig it
D J
are ncy
Ġexhib it
ĠA F
ĠCon cert
Ġsp oken
ãĥ ³
s ites
IN LINE
ĠType Error
op les
ĠLib eral
Ġextract ed
Ġm ilk
Ġprec ise
t ot
ĠPh oenix
comp any
Ġad res
Dis covery
block quote
ass y
Ġres erv
b readcr
Ġlib eral
j ournal
ĠS K
Feb ruary
id el
Ġguid elines
oper ations
tele phony
it ter
;& #
Ġ[ -
ment ion
ĠMar ie
L ead
Ã¶ r
Ġm oon
: =
ĠR ing
Ġ* */
g ies
ĠE mber
Ġfant astic
ter min
Ġenh anced
L aw
SER VICE
ro v
ic ulture
ĠSt orm
ĠSet up
ĠSp ot
ak t
um inate
ordin ator
Ġre ign
19 05
Job s
rop ic
ĠAdd itional
ĠR and
ak u
Ġdem o
le te
ib bean
Tele vision
Ġthe ater
) _{
Ġaltern ate
ĠR oot
Ġste am
lin ing
ĠFre edom
Ġoccasion ally
ĠM yst
ĠP ick
ĠB UT
Con v
ĠQue bec
load s
be ing
it les
Ġho les
ord inary
Ġp ace
Ġdi agnostic
TIME OUT
List View
ĠRepublic ans
z es
ĠEn um
ant ly
Olymp ic
ĠSever al
then Return
Ġmyst ery
ĠA B
} >
child node
Ġanaly ze
Ġdisap pe
if le
Ġc ogn
="../../../../../../ ../../
ĠStat ement
ENABLE D
Grad ient
ĠR ank
SE SSION
Ġdoct ors
Ġcolle agues
n om
r ust
aut hent
r ub
ĠM is
ĠO t
j p
Ġconsider able
Null Exception
ot or
th a
â Ħ
Ġf its
Ġ ));
p ent
20 4
Id le
oth s
ĠJ O
Ġnull able
ĠCal endar
EX P
Ð°Ð º
St udio
Ð° ÑĢ
17 5
ĠWay ne
Ġsatisf ying
ĠV K
m ers
c out
Trans l
Ġess ay
UD ING
ĠF ried
Ġprint ing
Ġelect rical
sh ader
Ġinv asion
Ġcast le
Ġform ing
ograph er
Ġcoll ision
ĠApp ly
> ',
ĠPro gress
Ġs outheast
CL UDING
Ġscen arios
Lin ux
ĠT E
ĠC ould
map sto
>{ @
ĠF alls
Ġh ierarchy
Ġoff ense
.~ (\
aut hentication
( %
W elcome
b re
F ACE
Ġb ull
Ġthreat s
for ced
ĠCommon wealth
Ġdom inated
i em
ers h
Ġphot ography
ob i
Ġu uid
Ð» Ñı
n ia
ab ul
urre nc
Ġd ocker
Ġcommission ed
Ġcor ruption
Ġal arm
ĠCons ult
e ing
section s
Ġindic ator
napsh ots
con c
cover age
to o
ĠDef inition
Ġim pr
Ġch amber
Ġel der
Ġinter vention
c url
Ġ( ),
od ot
ĠI de
sh ake
Attr s
on ing
Ġset Timeout
R oman
}} </
W ords
Ð½ Ð¾
Ñ ī
vers ation
+ -
Ġop am
ĠAc cept
get s
Ex ist
B in
H i
al ph
ĠR io
Aut om
ĠSt re
Ġhighlight s
RO P
Ġcompet itions
Ġtext s
get User
resource GroupName
ot he
Ġ& =&
Ġcr icket
Ġreal m
ĠSet ting
U r
Ġf er
14 6
Ġb orrow
Ġf o
P eter
ĠSh ah
ĠEcon omics
}} ^
I r
ĠK itt
ous ing
Ġear liest
Th umb
W W
ĠF err
Ġimm igration
organ ization
ĠL uke
keyword s
m al
Ġdec ent
ĠQ ual
inst ein
Ġfoc using
Ġderiv ative
Ġbe an
Ġvary ing
rec ords
ĠH AVE
Ge orge
COL UMN
Transform er
match er
Ġche ap
normal ize
EN SION
ac les
BE GIN
b ower
ĠA f
friend ly
Ø ¨
ĠDet ails
H uman
ad just
d ro
ĠN ormal
col ogy
us k
table block
p ow
15 5
ĠSh ared
Ġsurv ived
Cl ub
ĠC rown
Ġcor rupt
Ġguarant eed
Ġa pt
Ġproport ion
Ġsche mes
Pr incipal
Ġport folio
ĠAl ert
} ")
Ġst uck
ĠHon or
i ors
is cal
00 000
Up dates
ĠBl ues
Ignore Case
Col ors
Mix in
is co
ĠR y
Mar shal
ĠMov ement
D ays
Ġdram atic
require s
Ġ{ :
16 5
Ġsh ipping
Config ure
}$ -
) {\
c id
Ġ= \
ĠB illy
get Parent
j dbc
Ġaff airs
Ġor ange
rot ate
C AT
ĠC E
ĠB rew
hatt an
' ></
C at
Ġdistrib ute
Ġqu ot
Ph aser
Ġn it
ĠM IN
Ġasym pt
Ġjav adoc
ĠB aker
F lo
P AGE
Ġdeep er
ch t
ST O
ĠSaf ari
Ġc ous
art icles
G old
Ġd il
Ġdrink ing
uff icient
ĠIran ian
P LAY
ir ical
ĠBen jamin
PO SE
Ġconc at
urric ane
Ġfund ed
we ets
Mod ify
Ġh ist
Ġstrict ly
\ .
ĠLe ader
Content Type
O VER
Ð ³
le arn
ĠCO MP
Ġl oves
1 19
Click Listener
Render ing
Ġar ithmetic
Depend encies
Ġlog ged
Ġplace ment
D eb
im er
Ġhistor ian
ĠG as
Byte String
Ġj uris
Ġgener ations
Table Name
ĠK o
Symbol s
Pop ulated
Ġspec ifying
br ane
EQ UAL
gr avity
Ġdig est
ol ly
ĠE arl
ij ing
Ġassum ptions
Ġdelay ed
Ġrecord ings
Ġexpert ise
7 50
um ed
ĠChrist ians
Ġt ale
20 3
r ating
Ġl unch
Ġdes per
Ġfail ing
Al tern
ĠAdv anced
d v
re strict
o ft
ĠLe ave
E mbed
Ġm ic
ĠN am
$ ).
Ġp id
ĠG R
Comp ile
Ð¾Ð ³
b io
15 2
ĠCon tract
Ġremain der
c z
ĠS r
Ġmount ed
wik ipedia
ik o
l adesh
Ġimport ed
cred it
m ong
ro st
Number Of
ad ies
Ac adem
Ġinv olve
sc ience
pos able
og ue
us c
sp ons
ux er
ĠC ensus
Ġrecover ed
Ġind ustries
M Q
ĠG las
ĠOr ange
sequ ently
ĠSte el
Sample s
Ġmist ake
h ub
Ġret ained
ER O
Ġdisc ount
Ra ises
Ġc rown
ĠB arr
B and
Log ical
So ft
Ġapprec iate
W M
ĠL ore
Ġexam ine
Ġtalk ed
vet ica
G reat
ĠM ach
ĠMit chell
ĠSt even
Ġver bose
ĠHun ter
om ed
:// $
Ġblock ed
ĠBalt imore
Ġen emies
13 1
Ġflow ers
Ġb less
Ġb ases
Ġobt aining
w m
current Time
ĠPortug uese
Ġ ].
ob server
2 32
Ġtab index
Pub Key
c xx
Ġs cheduler
ĠH end
mk dir
spec ified
Ġas h
{ $\
ĠW H
ĠAp pe
Ġo w
Des erial
Âł Âł
Ġw arrant
ay an
jav ase
ĠV k
Ġsh apes
n f
User Agent
M a
L ittle
, âĢĻ
Ġloc als
D a
ught er
ĠEm pty
az ard
Ġpres erved
Ġs ans
Ġpopular ity
Ġpet ition
Ġs orry
Ġcomp aring
}) $.
ot ton
Pro duction
ebr aska
S uggest
em pt
19 09
b ird
ap k
Ġcomput ational
Ge ography
insert ion
OUT PUT
ĠQ uestion
Ġwork flow
Ġpar ad
ac re
' (
ĠT ed
Ġconst expr
Ġg all
ĠN ear
Ġim aging
Ġs ail
Ġagre ements
)) {
ĠQ uest
Ġt ear
ĠF riends
Ġmedal ists
ME DI
B ibliography
ĠSt atic
Ġdef ence
Ġ' [
Ġinteg ers
)\ ,
LOB AL
lic es
P en
'] [
ĠP ush
in crement
st ation
Ġh orses
Ġle an
Ġun n
ab etes
Ġgre y
Ġdiam eter
U tility
ĠT oy
ing e
Ġfoot er
~ $\
pre ter
te chn
Ġh i
ĠC arr
Ġp uzz
13 7
ri o
Ġcheck sum
Ġsevent h
is ers
ĠU pon
* (
Ġint ense
Ġ] );
For Key
Ġclaim ing
ĠW r
user Id
ĠBroad cast
getElementsBy TagName
Ġr anging
Fl ush
ĠWrit ing
text sc
J ournal
ay er
ĠQu ant
Ġre quiring
Ã Ĺ
Ġident ifying
Cred ential
Ġshould er
Bo ard
Ġdat asets
ve ill
ĠAg ent
Ġa ired
ĠB inary
ĠL INE
n x
Ġp reference
ĠJer usalem
M acro
W ild
Ġcomp eting
ĠInf antry
19 04
Ġ* **
Ġcirc ular
Ġgather ed
Ġan alyst
. ),
ĠJ oy
Ġper ception
Ġatt achment
Bal ance
por al
ellig ent
or um
ĠB B
Ġt ropical
tt ify
ĠArk ansas
d ac
Ġgl ad
ĠS U
Ġsing ers
ĠN at
Ġgr am
W O
veh icle
ĠCOP Y
ĠP rix
Ġcl othing
Ġm ixture
DIS ABLE
atern ion
Comp ilation
Ġf ed
ur ring
F un
ĠFin land
Ġschol ars
Ġlight ing
ym orph
INTER NAL
w heel
ĠUtil s
pon s
Button s
ĠRem ote
C ircle
Ġcor rel
f ixture
Ġb rew
f und
ĠB loom
ĠA DD
us ive
Ġrel ay
per form
40 1
Ġche st
ĠHash Set
V ill
Ġl uck
) \\
ĠS DL
Bal ancer
Ġfor um
GR AM
W ater
() }
Ġaccept s
Ġ[] *
Ġescap ed
ĠC raig
S uffix
ĠD ialog
ĠObject s
Ġlong est
ĠGL int
) ^{-
H H
LOC ATION
2 25
Ġqu it
per p
ĠE ST
B ill
ĠB ot
ah l
le ave
Ġbuild s
P ART
ri ors
P a
ĠBar ry
Ġch ip
M ad
ane an
Ġrecommend ations
read only
ĠC emetery
ĠCheck s
ä¸ į
ĠF ine
Ġdeterm ines
Conn ected
Ġcas ual
Ġsuggest ing
Ġpain ted
ĠP ictures
d eleted
Ġl ens
Ġcampaign s
J NI
12 34
Ġtra ject
or ship
ĠL amb
B orn
ĠS ent
ĠValid ation
Z ip
ynt hetic
Ġd uplicate
ĠW a
Ġt ape
Ġpro pose
ĠTh or
ah a
AN Y
has Next
Ġmaint aining
Pres ident
in el
Ġvari ants
Ġl hs
æ ŀ
ann es
rupted Exception
Ġt unnel
St amp
Request ed
UNK NOWN
Ġ"\ "
Ġton ight
th reshold
t ap
ĠĠĠĠĠĠĠĠĠĠĠĠĠĠĠĠĠĠĠĠĠĠĠĠĠĠĠĠĠĠĠĠ ĠĠĠĠĠĠĠĠĠĠĠĠĠĠ
Ġdemocr acy
ut ers
Ġst ere
="../ ..
Ġfile Name
W ay
Ġindepend ently
b etween
s ound
Ġs ugar
ĠS pect
MPL ATE
her o
Ġless ons
R eb
L ater
Ġst eal
ĠA y
IR ST
erv ing
ĠWel sh
m illion
B ooks
Ġc ameras
Ġ$ -
ĠT ig
Ġpoint ing
m ine
Ġsh orter
ĠJust in
Ġthreat ened
inherit doc
Ġsp y
in ery
Ġo ps
ĠV el
ever y
19 07
Rich ard
avel ength
Hash Code
e ur
Cur ve
add le
D ark
ĠCom ics
read able
Ġun iqu
pro blem
ĠM aj
Dem o
Ġ( {
int endo
ĠV ent
% ">
Sw ift
Ġreview ed
P ORTED
Ġch ampions
Ġpl ural
Contin ue
ĠDak ota
Ð°Ð½ Ð¸
ĠC NN
veill ance
ĠH ockey
Ġvo ices
ĠS N
ĠC ultural
ĠB ug
ok a
Ġf ade
p read
Ġl ung
Ġc d
Ġg ateway
ĠC ass
ĠPit tsburgh
ir ts
il ine
d ale
Ġs ust
vis ual
b az
ĠM eta
C ritical
Ġcouple d
ĠEx ecution
ĠBrazil ian
ph ones
Ġposs ession
ĠArt ist
Ġc um
Ġex tern
ĠNav al
Å ¿
tr on
ĠF light
Ġch ronic
b en
ĠL ex
Call ing
bor ne
âĦ ¢
al ways
Ġreported ly
) }}
hand lers
19 06
ink s
Pr iv
ï¼ ļ
W T
ĠWork ing
ĠA rena
ĠF BI
SY S
SE C
Ġexpand ing
M AT
ĠC leveland
K ing
ĠGal axy
Ġhe ter
Ġcar rier
he ld
Ġm ice
av ery
ĠB R
ĠB irmingham
14 3
Ġd ated
Ġconsist ed
ĠCl ar
ss h
13 8
om i
Sports people
ĠI con
chi at
Ch rome
ĠGr ace
Ġsufficient ly
Ġb orders
$ $\
ĠD ise
ĠE T
Ġd irty
node Type
op ath
Fat alf
s it
n m
ĠPh arm
Ġcommun icate
Ġsur faces
do ct
Ġcomment ed
Ġover se
Ġvol tage
ĠR u
f m
Ġl ov
Callback s
/ :
adem ark
âĢ¦ ]
d istribution
ĠPark er
ĠA ld
ĉĉĉ ĠĠĠ
asc ade
æ Ŀ
am ine
S dk
CO RE
ah oo
ĠRe ce
Ð¾Ð º
Ġviol ation
So ftware
ins ula
Ġdi et
Ġsynd rome
m igr
ĠP ref
M or
for um
ĠSe q
ĠM agn
param ref
aw k
Ġrank ing
ĠArab ia
ĠI SO
Ġspe akers
ac ular
ĠChar lotte
Ġbeg un
G esture
work ing
Ġexecut or
Na N
ĠP E
ield s
Ġcomput ers
"> )</
Ġm ature
min imum
W IDTH
Spec ific
ÐµÐ ¼
ic it
é ¡
è ¦
ĠFreder ick
Ġsurv iv
å Ĩ
port ion
' ><
Ġcr ude
U X
) ];
Ph ysical
Ġdocument ed
)$ -
rece ive
uk a
Q T
g b
access or
BY TE
Action Bar
Ġsepar ately
direct ive
ĠL yn
cl osing
Organ ization
L em
ter ms
Ġsuff er
Ġnumer ic
v ation
Ġview ers
ĠRobert s
Ġ' )
Ġsim ilarly
ĠM ason
IS O
ĠMETH OD
ĠÃ ī
Ġatt ending
Ġdevelop ments
EO F
In c
Pos itive
un ix
ĠAg reement
b rowse
ãĤ ¹
ĠBar bara
ĠCre ative
G F
ov o
Ġclot hes
æ Ķ
ĠFl ag
ĠP or
Ġcontrovers ial
off icial
ĠStan ley
Ġprom oting
Ġs z
Ġr anks
Comp atible
On Search
Ð½ Ð¸
rec ogn
D ele
ĠAnd re
Ġc od
ĠTrans form
f v
ĠW IN
Ġover whel
Ġredu ces
ĠC atal
Ġflo od
ĠCurrent ly
Ġgr ay
ĠS ony
und o
Ġpass age
Ġmain stream
Ġb read
Ġmanufact urers
ĠF eed
Ġun safe
%%%%%%%% %%%%%%%%
iz ar
Ġprov isions
Ġd rew
Rec ent
Ġactiv ist
C OR
com press
Ġsph ere
Ġn ut
Ġr v
à¥ į
k ill
ht m
et ta
lic as
Dis patch
@ {
perm alink
Ġpower ed
ĠCon trib
start ed
Ġin vention
ĠHel per
M ilitary
Ġl ap
grad ed
PRE SS
ĠAR M
ĠUkr ainian
. ')
ime q
ĠMont real
Ġcorre ction
om on
ex e
ĠC I
oc hem
Ġal igned
Ġgraph ic
ĠAr n
Ġo ct
). </
ĠTechn ical
Ġd iver
ĠM aine
b usiness
L M
DE SCRIPT
DE SC
Ġt ap
13 3
Ġl ying
Ġrepresent ations
Sl ide
ĠF itz
Ġco aching
feed back
Ġco operation
19 01
FO UND
F ar
aw ait
nc ient
red is
ĠU ri
ost ream
HO W
Ġretr ieved
0 10
Ġev t
Ġexclus ively
- %
Q R
et ter
$ ;
ĠM OD
ili ary
Ġpers istent
ĠDan ish
ĠCom plete
VAR I
ĠAnt i
Rep resentation
> *
IN X
Al ready
ĠHamp shire
ĠL ag
State Exception
an Ã§
ĠSh im
L T
åľ ¨
D ead
Ġcompl aint
R ew
14 9
Ġinterval s
ĠV enezuel
Ġex cluded
f ollow
Ch ina
B ur
Ġne ur
orient ed
Ġconven ience
... ]
cap acity
ĠH ind
det ect
Thread s
Ġemer ged
Ġsynt hetic
In crement
Ġip ut
16 6
Trans actions
R ussian
80 80
$ ^{-
× ľ
Ġref lected
Ġcy ber
assert Raises
ĠBill board
ĠB uy
Ġbelong ing
get Node
Ġth irty
ĠSt and
o ct
sp ort
k ar
18 80
Ent ities
ĠN ord
Ġe poch
P TR
ĠUn iverse
writ eln
Ġdis order
ĠW riter
us b
f iction
ĠK u
Ù ģ
ĠR ules
Ġcons ensus
D eleted
R en
L ondon
att achment
Ġne ural
ke eper
ĠL ost
g ol
"> {
std lib
ĠA w
Ġref erring
fold ing
P N
ambig uation
Pro jection
ĠH erm
H I
Tr im
ĠMad ison
Ġinterpre ted
"> :
Ġ' --
ind a
c ov
s imeq
chrom ium
ĠEx ecute
Ġgr an
MLE lement
D irty
as ures
Ġnormal ize
ĠAl fred
ĠD WORD
Ġelse if
Ġtrail er
azel cast
ĠP anel
Ġtom orrow
ĠI MAGE
AL LOW
ĠId entity
g allery
Ġdeploy ed
Ġdiagn osis
ol ished
ĠSquad ron
O bservable
ĠPy Object
Ġd Ã©
WIN DO
d ns
Ġval ley
Ġexist ed
Ġhuman ity
M el
t odo
cover ed
Ġag enda
Ġpseud o
Ġpro tests
end l
Cons ider
Ġ( âĢľ
Ġqu oted
Ġking dom
å ½
ĠAr c
C am
ac a
ĠArr ays
Project s
ert on
dig est
Ġart ificial
cel ona
ĠF ake
ĠDen ver
Ġd ub
Ġre nd
v r
ĠN A
g iven
int ro
ĠUn ity
initial ized
Ġg em
Ġdis cre
Ġt ub
eq z
Ĺ ãģ
ĠSe an
D ocker
ĠCh ampion
ast ing
Ġm a
fre quency
Map s
es lint
Ġk iss
Dec or
" ):
ash ing
B ank
Ġarrang ement
P rec
Ġsaf ely
Ġvolunte ers
ci pl
é Ļ
Ġw ides
go als
Ad just
ĠNet flix
ex c
St roke
Ġind irect
O O
Ġj ail
as se
ric ulum
LE T
ocol ate
ĠRob in
ace ut
un ed
ĠG round
â Ĥ¬
end um
Start ing
> ?
Rect angle
ç½ ®
h arm
re load
({ },
ĠC ome
ĠĠ ĉ
ac co
s uffix
ist ically
Ġab road
iss on
ĠW R
Target s
Ġco ord
Ġor b
contrib s
>: <
ĠKar l
IFI ER
ĠSh a
Ġad equ
ĠStat istics
char At
Ġp ow
ĠK rist
Ġsurn ame
h um
The orem
ot ypes
37 5
Ġmill iseconds
Writ able
ĠH at
CA SE
Ġsp ots
Ġreg ulatory
D ump
Data Set
ĠN ad
enc ia
ĠKen ya
ĠF iction
Ġatt itude
ĠF ail
ĠTurn er
Ġwork space
At omic
MO VE
class v
Ġcompos ite
Ġass ass
eh icle
19 03
ĠDefault s
15 1
Ġunder ground
ir q
Str ict
ĠR at
Ġprom ises
Ġswim ming
Ġap ple
Ġform ally
de ad
^ (
ob ar
ĠBroad way
ro d
Foot ball
Imp licit
exp anded
man ual
ĠM ack
ĠUn fortunately
ĠCon struction
Ġfrag ments
Ġph osp
ene ath
RE L
( ',
Ġre fin
Ġ ib
Ġple asure
ĠSk ip
ĠB row
") ).
13 9
REQ UI
Ġrect angle
> ".
Ġover r
sk in
ĠC arn
b ach
ĠH unt
ĠField s
Ġport ions
S i
Wh ich
Ġres ize
= _
ĠFile s
Ġrepeated ly
re vision
Cred it
ĠS IL
ĠComm ander
Work ing
Ġult imate
Ġnewsp apers
d iction
str ategy
ival ent
y ellow
Or d
Ġform atted
upload s
comp ass
Ġder ive
Fin ish
auth ors
× ¨
) ](
part icle
Ġdeterm ining
om o
Ġpurs ue
spir acy
et ric
Ġj ury
act ed
Ġcl azz
Ġimplement ing
datab ind
Ġmid field
it ations
; "><
El se
Ġpop ulated
Ġaccept able
che m
IT EM
ĠFac ulty
Ġt ies
Ġsph er
ĠP D
Co ordinate
ĠCar ibbean
Ġaf raid
Print f
Stud ent
Ġvulner able
+ '
av an
Get s
ugg ed
sole te
ĠW ARNING
ĠInt ent
em in
Ġauthor ization
ĠPer haps
ĠT amil
ĠP resent
Connection s
) `
let t
her its
Ġrom ance
ro at
Ġin jection
Ġmet ab
Ġconv ey
ans wer
ĠT am
Ġcelebr ation
duc ational
Ġ* =
au er
Ðº Ð°
Ġ urg
Ġs q
SH OT
ĠAn imation
f ar
erm ark
G U
Ġremark able
P ing
Ġc v
Ġan notations
Ġp ng
ĠNev ada
Ġactiv ists
Ġple ased
g al
Ġf ur
View Model
Ġop inions
icult ural
:: ~
Ġl ip
Ġfl uct
< '
Ġt weet
15 00
it ual
l ucene
.$ $
Ġle x
Address es
Ġmag net
c riteria
50 1
Pol ygon
in fl
border ed
Ġdep uty
N ay
Ġfl ights
uss ia
us hes
Ġdream s
ĠL ot
ust ering
ĠCon sumer
ĠK ay
ĠR acing
ĠL anka
ĠGi ants
u cc
Ġdep ression
x FF
ĠR ud
19 02
ĠPo inter
Ġcult ures
6666 66
onom ous
ĠR C
ĠF oo
Ġj ew
Europe an
it ime
ĠR ic
ĠHawai i
ĠSe pt
Ġup dating
ob a
Ġblock ing
Heading Color
- "
Ġt m
ĠC rit
Ġv ibr
ĠK ids
col og
FAIL URE
Å Ľ
ĠG rey
ĠDef ence
ĠUs ers
eg an
Th erefore
Ġcy cles
ĠSus an
ĠPre vious
ĠI Enumerable
re start
ĠT ensor
Ġparticip ating
Ġrat ings
Git Hub
F acebook
Ġre actions
To Array
AR GS
Non User
Ġg aming
int egration
alloc ate
ipher al
ar ith
Ġtop ology
ster dam
Ġprepar ing
\| _{
Ġc yl
ĠT ib
åı ĸ
L IMIT
Ch ars
her ic
Ġhard er
> ]
or ious
i q
Ġ ^{
Ġam pl
b z
Ġs ap
tik z
th ink
Ġsm allest
Ġhad n
eg e
Fr ank
Ġreg isters
28 0
Let ter
SY STEM
ĠUp dated
Ġcoast al
ĠS even
LI ED
ĠCart esian
S un
Pro blem
Ġrock s
Ġt abs
Ġf printf
ĠCarl os
Match ers
Ġest imation
Ġanalys es
P LA
t ec
Ġter rible
am pton
rece ived
ĉ ĠĠĠĠĠĠĠĠĠ
Ġc inema
Ġqu otes
4 000
ĠF lo
ĠCommission er
is EqualTo
ĠCom ple
W ER
Ġcom ics
Ġact ively
Ġin struct
Ġnumer us
Ġ( ,
ĠB ag
Ġbl ame
ch ars
Ġsub mission
Ġvari ance
Ġsh ops
Ġtri angle
inst ances
ĠT ak
P aired
al ter
ĠLa ura
Ð°Ð ´
Sc anner
Ġali en
aceut ical
d yn
Or Empty
Ġamplit ude
ens ively
l v
N ever
ĠU UID
Sh op
ĠSw ift
perm issions
Ġinhabit ants
Des criptors
ĠF ollow
ä ¼
ĠInd ians
Ġsm ile
Ġenter prise
Ġi i
Ġpo ems
Ġvess el
m os
Ġun w
Th omas
publish er
ĠE S
look ing
r hs
36 5
Y ES
)) :
ĠSh ape
Ġcar ries
Ġbar rier
IG H
ĠLie utenant
Ã µ
ĠCall back
Ġdes erial
ĠZ ero
s ensitive
el ing
ĠM ER
sh utdown
Debugger NonUser
ĠB eck
æĹ ¶
it us
ĠS ad
Ġph ases
As String
d h
Ġf oss
Ġscreen ing
List en
Ġreg ression
hib ition
ĠH im
qu arter
Ġens ures
ĠEx ternal
âĶĢ âĶĢ
ĠB U
ĠD ES
at trib
ĠAl aska
Display Name
4 80
30 1
SN AP
COMM AND
Ġf ut
Ġfl avor
success ful
Ġsh it
ĠD ynamic
AR M
Ġvess els
Ġcho osing
ĠA SC
Ġpush ing
ĠN ar
SE D
k ed
art z
im ir
D N
p ause
s chool
Ġcompens ation
g ather
Ġem ails
Ġdistingu ish
ent o
g ie
ĠWeek ly
ĠU TF
14 8
ĠBe ing
reg istration
Get Value
Ext ent
pl ating
set Name
Ġvar s
er ious
get Int
Ġwire less
Ġo xygen
math comp
Ġ( &
tri angle
Ġconsist ently
ĠH aving
ĠW W
ĠH H
sort ed
ĠDi agnostic
m other
res olver
ĠV eter
or us
At Index
Ġbon us
20 8
Ġmod ifications
x a
ĠE mb
Ġins ights
S ensor
che str
sp el
focus ed
Ġarch ae
s uggest
Ġdel iber
}} )
ĠCh anges
Un icode
A st
ĠB right
Leg acy
Ġrecru it
* \
Ġcle ared
Ġspe aks
oper ative
Ġn ose
G ed
spec ies
ol er
ĠCons ervative
>< ![
Ã¡ s
ĠLiter ature
] ],
ital ic
ab ort
node Name
Hash Set
Ġcre ator
ĠMet ropolitan
Ġven ues
ĠV a
ĠMan hattan
ĠE asy
add itional
C ut
sh ops
,\ ,
ĠMad rid
Ġforest s
Mut ex
Ġun e
Ġconf ident
O G
ĠY ang
ĠL arry
Ġfire s
ĠFeature s
ut ation
Ġlabor atory
ĠSpr ings
default Value
Ġt rem
tw ig
il io
Ġfit ting
or ia
ĠCustom er
Ġnot ifications
ĠRel ations
ĠBe h
Cal c
ĠUs age
ol utions
Ġemph asis
os hi
ĠRem ember
li ps
Op acity
Ġlux ury
Es cape
Ġre interpret
uck er
iz za
ĠMount ains
Ġanaly zed
It alian
s cheduler
Ġho spitals
ro gen
single ton
m q
ar us
bel ow
scal ar
ĠA bs
Ġdis pute
Ġtr ivial
. {
ĠK an
ĠV oice
v ik
ym ph
pred icate
am o
Ġveter an
real m
Ġh ooks
à ¹
mem item
Ġaffect s
ĠMean while
D IV
fo od
add All
inc or
Ġdeterm ination
Ġdecl ined
ĠA ST
end ors
Ġalloc ate
d ensity
Ġg rows
og s
Ġent ropy
D TO
ĠM ans
oc y
l c
Ġmiss ions
t iny
Ġbut ter
N an
start sWith
> =
Ġag greg
Ġsim p
ig ion
ĠW idget
Ġro uting
Ġf iring
ĠZ e
Ġcond itional
Ġport al
ĠArch itecture
ro uting
Ġe cosystem
Ġok ay
H ouse
ĠĠĠĠĠĠĠĠ ĠĊ
Ġext ending
PE G
Ġrep lied
Ġprison ers
ĠP in
Ġev ident
Ġvent ure
ĠIns urance
m und
TO KEN
Ġstop ping
Ġtrans it
ĠV ery
ll vm
Ġconflic ts
Ġen zym
Ġsound track
ĠP erry
Ġflex ible
Ġmed ic
Ġcond em
Ġmeaning ful
\ )
g ency
Ġep ic
ĠW onder
Ġmodel ing
ĠP el
Rem oved
3333 3333
L ou
Ġl p
ĠÎ ±
m eth
Ġb anned
ĠMet al
Y ea
ĠM all
ĠL isa
Ġ è
sp y
ch ip
get Path
ĠMP s
Ġimp lications
ĠP ow
20 5
Serial ized
execut or
Ġins pect
ĠM ouse
ĠF IG
Se ason
ĠQu ick
Ch annels
L atest
K S
ĠC hel
ĠFl ash
Ġbur st
M otion
ob b
14 1
min or
Ġc line
Ġb uffers
Ġ{? }
ri en
Ġver b
Ġqu ota
Ġob st
ĠKe ith
udd y
Ġoccup ation
ĠP ic
my Item
Ġequal To
Ġten ant
Ġr h
ham mad
Ġdec ides
b u
Ġg ross
Ġst abil
con sumer
im ony
Ġr ivers
Ġwides pread
Ġ iv
Pack ages
/ ?
size i
ĠCo al
ĠC arm
Vers ions
as per
Ġthere by
collection s
et e
c g
Ġ ----------------
al bum
"> @
d eps
) -\
To o
Ġsm oke
Ġphenomen on
ca ff
EMP TY
set Property
Ġprogress ive
Ġl as
ĠB SD
Ġover l
pro position
\ {\
s id
g om
Ġagric ulture
Ġcon gress
Ġiter ate
ĠR oll
parent s
r ss
ĠE SP
ĠMe eting
Loc ations
err anean
R ad
eg u
Ġconsist ency
Ġl umin
sp lice
Ġin tern
Ġconf used
Ġview ing
Ġres ort
cel and
DE CL
Par allel
ĠB apt
ĠF ab
ĠG NU
Ġactiv ated
Ġexam ination
================ ========
com puter
ĠBang ladesh
ĠBat man
Sh utdown
Ġdepart ure
Sw ap
ĠY u
Ġac oustic
Ġ" *
2 15
ĠS olar
FUN C
Writ ten
ĠThrow able
Ġdes ktop
F ixtures
ig gs
Ġfrequ encies
Ġdecor ated
Ġoppon ents
2 12
User Id
Ġprom ised
Ġfall back
b ecause
M ont
Ð ¡
LAB LE
: .
ĠB ird
ĠUS D
Ù Ĭ
Ġ[ `
Ð½ Ð°
Ġpress ed
Ġauthor ized
ĠD R
Ġ'/ '
ĠHung ary
Ġdoll ar
in ite
bal ance
T K
Ġ ic
if s
Ġin ches
Ġmus cle
Ġhe lic
Ġarg c
S yn
Ġgr ace
comm unity
Ġconv ex
Ġoppon ent
Ġle mma
eb ody
Exp licit
Ġscatter ing
Ġexam ined
arn ess
ĠP UR
Ġeg gs
ĠNichol as
Ġneigh bors
Ġin set
ĠOl iver
iv ic
pos itive
Dis pose
ad apt
Ġro ster
Ġ ÏĦ
ĠN BC
Ġcouple s
um ing
Ġman ages
Con stituency
Def ine
tr aining
j ud
Ġs sl
Ġgrad ually
G lob
ow ed
f link
ĠD S
Ġab c
ĠInitial izes
Ġwood en
ia o
ĠBr istol
View er
ĠEnter prise
ĠC old
Ġab ilities
ĠDr iver
Ġn ic
con sum
Ġover come
EX CEPT
Ġearth qu
M irror
H W
Ġfit ted
ĠN amed
n ick
ĠK irk
Ġre loc
ch r
AUT O
Ġexpect ation
ĠVin cent
SV G
Ġcolon ial
ĠSp ark
ĠM uch
transp arent
Mar shaller
B uffers
Ġdist urb
Ġdr ives
parse Int
Ġhit ting
s elling
enn ial
ĠVi enna
H om
net ty
ĠĠĠĠĠĠĠĠĠĠĠĠĠĠĠĠĠĠĠĠĠĠĠĠĠĠĠĠĠĠĠĠ ĠĠĠĠĠĠĠĠĠĠĠĠĠĠĠĠ
ĠB asketball
over e
ĠE state
COM PI
Ġcon fer
ĠH ub
Ġsub stance
Ġhabit at
Sort ed
amp a
Quant ity
ĠC elebr
Opt im
ĠEx pect
ĠAgain st
g ot
Ġl ady
ÃŃ n
Ġjust ify
Ġthrow ing
par allel
p el
Ġdo se
r ain
av ors
ro c
ĠCost a
F old
Ġgr ants
Ġtag ged
Ap ple
break ing
D to
ĠJ erry
Ġlab our
ĠP os
sh aped
Ġattract ive
w y
ĠT ogether
ĠJ a
ĠStr ateg
DA O
ĠR achel
f ork
Out Of
Ġvol atile
PHP Excel
Ġat oms
Ġsub stit
SP H
ĠS ans
00 3
Ġ================================================================= ========
ĠA aron
ĠHamilton ian
dev ices
Ġ{} ",
och astic
to Array
ĠGre ater
à¤ °
ĠCam eron
ĠT u
g ateway
Inter op
Ġl iv
Ð ¶
18 00
Japan ese
Ġtum or
") ),
| _{
ro utes
work flow
dis ambiguation
Ġproject ed
U uid
N atural
ĠR uby
Ch apter
Ġr pc
b ay
ĠS ort
Ġout door
Ġaud iences
ii i
P ager
Und efined
Ġdet ector
assert That
Ā Ā
ĠS id
Ġpre dec
Ġcre am
Ap ache
Ġtranslate Y
p it
Sp ot
Ġattrib uted
ĠBro ther
ĠP FNGL
val s
Ġun used
Ag gregate
L azy
Install ation
ast ro
Ġminor ity
ab bit
.. ...
source forge
: }
ĠStr ategy
ĠP rior
Ġown s
ĠV I
Ġvol can
Ġcitiz en
ÑĨ Ð¸
7 68
ĠFil ms
Ġnob ody
ash a
Ġo d
ith uan
it ize
Ġeng aging
Ġd ens
ĠC ut
Ġp kg
ib lings
Ins pector
ĠB order
BO X
e enth
Ġnot ably
ĠK ap
ett ers
M gr
Ġmarg inal
Ġd egr
pos itions
ä¸ º
Ġevery body
Spec ify
PI X
ĠV A
gener ation
ĠWith in
ec ca
Ġ Ñĥ
type Name
22 4
rec ip
th ick
ĠPh ysics
}} ^{
Ġadjust ed
Ġpop up
Gu ide
Ġm arch
Ġre semb
Ġroll ing
ĠUn like
Foreign Key
$ ~
g rey
t om
') [
UB LE
J im
ograph ics
ĠSim ilarly
) +\
Pl ugins
Ġd ad
Ġd ish
L ex
L ove
Recorded Vote
Ġt orn
Ġ` --
Ġd ip
Ġsubs idi
) ");
Ġassert ion
Ġann ually
Ġimm un
Ġdef orm
Ġcontrib uting
ju ana
Ġc rop
ĠK i
Char Field
Ġv a
Ġsequ el
ĠDom ain
Ġsup press
View port
ĠAd ult
k u
Ġinit iated
Ġn umpy
asc ular
Ġsem antic
Event Type
Ġfail ures
Ġscient ist
Ġf iber
mall oc
Ġp ounds
Ġwalk s
up les
ĠL uther
ĠBrig ade
Ġdec k
Ġdaught ers
ĠReg Exp
ĠDis able
Ġburn ing
w right
Ġs f
im ag
Out er
max imum
[ @
und a
Î ®
"> $
ad itional
Ġsu ck
Ġquant ities
P in
Ġim pe
ari juana
Ġimpr ison
Ġdead line
h box
ett i
Ġequ ilibrium
Ġtro ub
Ġpropos als
in ja
Ġtrans itions
Ġw inds
ĠClin ical
ate ful
Ġen semble
ĠInd ustrial
ir y
++ ]
H en
Ġw ounded
TH ON
Be h
Ġsold ier
ĠGlas gow
Byte Buffer
ĠG olf
ĠM ong
ĠUn supported
Ġdig its
ed e
ĠLIMIT ED
H istogram
ĠS F
ub a
æį ®
ĠBe ijing
ĠT IME
Ġhand ed
Ã³ w
ĠMor ning
Ġg otten
ĠR ou
l iter
à¥ ĩ
DebuggerNonUser CodeAttribute
d up
ĠPar ser
n th
ĠRe ports
Ġmatch er
al gebra
er ia
Ġs printf
rot ation
Ġbare ly
60 1
Ġe u
Ġover lap
Ġserial ize
Ġr ally
Ġpra ised
ĠO scar
format ter
Ġbench mark
log s
Ġconv icted
Ġdiv isions
add er
Ġrid ic
Ġm eg
H ierarchy
Re peat
ĠPol l
author ized
Ġse eds
ĠT ournament
ist le
ĠLay er
ĠØ ¨
Inf os
Ġstead y
Ġth rew
Ġ} }</
ĠP icture
Ġr iding
Ġdist ances
prom pt
ĠS afe
ĠC ircle
D MA
/* .
Is rael
C AN
] ):
ra ises
12345 67
ER E
asc ii
Ġ ------------------------------------------------
Ġstri king
ĠC itiz
ĠE ug
key board
not ated
Ã¨ re
B G
Ġperiod ic
p ine
ing ing
Require ment
conn ector
Ġreflect s
ĠVAL UE
Rest ore
akes pe
3 30
h m
is ch
Ġh ung
ĠLeg end
n od
ĠF unc
Ġr hythm
Ġin fr
ĠC lay
å ·
Property Name
ĠT ools
S eed
Ġt ons
Ġdistingu ished
ĠN athan
Inst ant
ib us
Ġtool tip
Ġang ry
Ġte eth
Ġhost ing
C rypt
\ ",
status Code
Ġpart ly
P referred
ĠCour se
J P
] "
Ļ Ĥ
vel ocity
Ġget ter
Ġmark ers
Build ing
Å Ļ
ĠC BS
Ġimm igrants
Subs cribe
ä¸ Ĭ
ĠCatalog ue
Tr ump
v irt
ĠCirc uit
H AS
ĠFant asy
K ER
N ear
"] ["
ĠS alt
ew ay
Ġim pression
en ue
Ġjo ins
7 20
W as
b uffers
ai ro
C ENTER
=" .
Ġver ified
ĠG em
ĠL en
du ctions
Ġcompar able
Ġhighlight ed
ĠAct or
L uc
Ġ= =====
LA ST
Ġmax im
seud o
Ï Į
Lay ers
Ġget Name
U tf
t pl
ĠS ame
ä ¹
Ġ<!-- [
Ġens uring
att y
ĠMur phy
Ġc ust
In side
Ġdifferent ly
x si
"> {{
F K
Ġs ectors
ĠG ay
ide a
et on
' })
T CP
Ġcr ystal
Ġp ill
ĠG uest
RA W
Ġd ialect
Ġcirc les
st reet
Initial izer
ĠTransport ation
CON TEXT
up iter
Ġbelief s
Stud y
ĠW rest
Ġmed ieval
Ġafter wards
Call s
Ġfoot age
Ġh ur
pro j
18 98
B IND
Ġcomp ress
Ġvar char
ĠR ico
Ġloc omot
aaaa aaaa
In herited
list eners
EX TERN
ĠS eb
ĠA G
ĠJ oint
Ġcross ed
r te
ĠCont em
as ia
Ġon Click
Ġtranslate X
Ġ" @
Ġtravel ing
ĠRod r
j b
ĠU lt
MA IL
aj a
ĠN ebraska
led g
Un supported
rep resent
Ġ' ');
Ġnav igate
Ġch ains
Exception s
Ġmar ry
te es
Ġfall en
Ġlo ose
ĠS outheast
HE LP
cul ator
ĠB erg
ĠRe ader
Or g
output s
ess a
ĠMov ies
Ġprefer ences
Ġarrang ements
Ġd eter
n ets
Ged mo
Al location
if ice
ĠN AT
ĠC ris
ĠL ion
ĠNe il
Ġb other
Ġtr ailing
ĠEx tract
22 2
Ġengine ers
sql ite
re z
ĠC amb
ME TA
Ġinflu ential
Sh ard
ĠCru z
ĠBatt alion
B er
R oles
Direct or
é Ĺ
key frames
Ġan ger
}} $,
path y
40 3
CK S
ĠP le
xi ety
> }
ĠL ux
Buffer ed
Ġab b
Ġhun ting
Ġfor cing
Ġbr ut
l ag
ener ate
ĠR ural
Ġpo ison
Tag ged
ex pects
ish ops
"> .</
We ak
Doc uments
W D
Not able
Ġlaws uit
6 55
ĠCommun ist
P ur
ĠSc ene
epend ence
Ġp ole
Ġmand atory
es ium
Ġcontrovers y
estab lished
m or
Ġbr ick
ul ators
Ġdi agonal
ĠK le
null able
andid ates
ĠNorm an
ĠDi amond
ĠR ugby
Ġsh ore
Ġsole ly
ĠD ynam
Ġpost ing
Ch ris
te in
Ġper pet
Ġevery day
akespe are
Ġt ension
mid i
i ov
G allery
g ent
ĠM asters
ĠID s
Ġsystem atic
writ ers
Ġpre val
Ġprem ium
O bs
Non null
ED IT
i u
ĠS oph
sh ore
Ġresource GroupName
Ġmer chant
ĠM es
IN TEGER
/ </
comple tion
v b
Ï ī
19 3
ĠIn novation
Di agnostic
ph ysical
T ok
Ġapprop ri
Ġres igned
Ġf usion
Ġt il
ĠS election
eg ree
> {{
Ġbreak fast
ĠNaz i
Ġro l
IM ARY
ĠSh aw
C ES
o ons
Ġf t
ĠB omb
cc c
M id
IT NESS
ĠPar ish
h yp
Y LE
âĢ¦ âĢ¦
OB J
Ġr b
ĠV ER
Pl ane
ol ia
final s
Ġres id
P ac
Ġch ron
user Agent
DO C
15 3
>? [<
Per formance
ĠWat son
' +
N othing
> ");
>: ][<
ĠSh ang
ĠElement ary
ĠD raft
power ed
x t
ĠP enn
Ġas ynchronous
Newton soft
ast ery
min ip
SET T
el if
Ġen abling
mock ito
ĠBer keley
"> =</
Con sum
Ġh over
Ġmoder ate
ĠM UST
Propag ation
18 70
ĠSt evens
Ġinc idents
l hs
ĠPer iod
d ag
SUP PORTED
S ens
Ġun ve
Tree Node
Ġx hr
on er
ĠB aby
Ġtim eline
= }
ĠC urt
c ref
ĠF at
SNAP SHOT
Ġin comp
Ġa qu
we ights
ĠTechn ologies
I OS
R ing
& =
ĠEvery thing
Ġ[ \
de ployment
C irc
p ure
15 7
rece iver
Ġm as
; ",
l azy
S ibling
Å Ħ
At om
ĠR angers
Ġref id
DE C
Ġg onna
Ġexpl oring
Ġlab eled
com pressed
V ED
M ary
div ision
R anges
Ã ī
Ġinter cept
Ġphil osoph
ed ges
Ġph ones
ĠTo o
control led
in ced
Ġsol ving
^{ +
acc um
O Auth
Ġpremi ere
ãĤ ĭ
ĠAPI s
ĠPier re
ĠJenn ifer
ĠG M
Ġcov ari
}) $,
Ġspec im
Key words
ĠEm ily
i ating
ĠRoman ia
}( {\
ĠEgypt ian
ag ers
ĠSub ject
Ġp ause
ĠPr adesh
Ġcol leges
ĠAthlet ic
enc oder
R oll
ĠSong s
Ġincred ibly
h n
ĠM otion
istr ative
ĠWar ner
Ġm ood
ĠCom merce
Ġentreprene ur
Ġim per
Ġun a
Ġgold en
ĠH orn
Ġp arks
ord ion
Ġiniti atives
dec imal
Ad s
f ive
ĠG ive
ĠDemocr at
ĠH RESULT
ort ex
ĠW ing
Ġdo zen
Pat ient
B ootstrap
Ġlength s
H ASH
Ġher oes
ĠX XX
Ġmag azines
Ġadmin ister
CUR RENT
Up grade
h istogram
Sin ergi
mar shall
Ġ[ &
Ġsusp ension
Ġcount ies
CA ST
Ġpl asma
Ġassoci ations
oot ing
be havior
am med
}} $.
Ġindex es
ĠLog in
effect ive
cent ral
display style
Ġl obby
Ġalleg ations
Cho ose
efef e
Ġ rib
ĠC B
ĠP ain
k an
Ġin ventory
Ðµ Ð»
Inter pol
acc ur
ĠÐ½ Ð°
Cent ral
R F
Ġ[ (
18 99
ro ject
Ġh unt
Ġpos it
Ġhard ly
St e
PRO CESS
j vm
Ġ? ?
tr action
ĠH udson
ĠSpec ifies
Ġden oted
Ġhon our
ĠMer c
Ġreal istic
`` .
Tem plates
G overnment
SPH INX
claim er
Ġd ying
w oman
ĠSequ ence
m eter
Ġchem istry
er ase
CLA RE
ix on
_ -
ack ed
ĠG arc
Gu ard
P ag
ĠAl pha
Ġlimit ation
or b
Ġsee ks
ĠAlbert a
j gl
ĠL is
ĠA verage
sub menu
ĠYork shire
ĠTig ers
p ane
Ġelim inated
d g
ĠJ ar
LO T
ĠLead ership
Ġst olen
ym an
dr ive
Ġelement ary
ĠNot ification
ĠG MT
ar atus
l is
ĠAm endment
________ ________
J ew
ect ive
ĠSh ip
ad vert
Ġback ed
Num bers
atern al
des ktop
Start Time
depend s
A IL
dr iven
un ication
ĠM ade
Ġtr ap
ĠNov a
ĠHarr ison
r adi
Ġg host
Analy zer
K HR
Decl ared
Ġportr ait
~~~~~~~~ ~~~~~~~~
Ġm os
RO WS
Ġattract ed
Ġwarn ed
I AN
ĠA CT
Ġwith d
15 4
ãĥ Ī
ĠSt ein
in istic
fore ign
empl ar
E t
Ġgr avit
B roadcast
list item
account s
ĠIn struction
b ai
fol k
ad m
ind ependent
ĠV erm
Ġsuccess or
= */
au kee
is olate
ĠRE ST
Ġsub stitute
be zier
Ġ' *
Ġhar ass
ĉ ĠĠĠĠĠĠĠĠĠĠĠĠĠĠĠ
Ġhydro gen
Ġf ert
ĠSE LECT
Ġs ou
ĠBar celona
Ġg ard
err no
Ġbro ker
A ware
ĠD rama
Ġdev oted
T ech
ĠGuard ian
Ġinflu ences
QU ERY
Ġmolec ules
Ġfight er
S pl
Ġspecial ized
t ou
cons istent
-- ">
ĠB ear
ĠNav igation
Ġb ullet
Ġfacilit ate
cont aining
ĠNe uro
ATTRIBU TE
ĠW es
Instance State
clean up
Ind ia
Dep artment
ĠL oop
Ġtack le
ĠT CP
ĠN UM
Access ibility
ĠAlex and
' ",
T abs
f efefe
sh im
moz illa
Op code
Ġstr ain
ĠAir lines
^^^^ ^^^^
C y
l ift
ley ball
å ¾
act ivation
az i
r ass
Ġe leg
Ġdev ast
re comm
Gener ation
istrib utions
Ġund ef
Value Type
Ġtal ented
v d
18 5
ĠCor p
Ġconv inced
C urrency
14 2
ĠCommun ication
ĠC atherine
h ls
Set ter
ĠEd wards
" &
ĠTr ace
Ġrad ial
v art
Ġcomple ting
Ġsec ured
ĠS L
ap on
Ġre dis
18 96
Ġev olved
Ġpers u
un ting
Ġb eneath
ĠM T
ble ms
opt er
Ġrecon struction
Ġaccompany ing
sh ot
Ġiter ations
Ġspecial ist
ĠCat hedral
out ing
get All
R ock
ent e
Ġang les
P TS
Ġk iller
Ġestablish ing
ack er
Ġload s
Ġed itors
ĠO bserv
Ġ" __
ĠGit Hub
ĠN HS
Ġsh ame
Is Valid
re pos
Ind ent
hol m
Comm unity
Ġd atabases
elect ric
Ġsl ider
Cl osure
ĠBet ter
T witter
æ Ń
I OR
ĠSer ge
Ġinstrument al
Ġcheck point
ĠB ud
Ġconfirm ation
DA Y
ounc ill
D Y
typ ed
ap id
ĠD aw
je ctions
asm ine
ĠUn known
ç ī
Ġbo ards
Â Ń
Ġansw ered
r age
ĠS oul
ave led
Ġpre st
inc inn
Ġrandom ly
ĠJul ian
æ Į
Ġtempor al
at ched
v t
iv ari
add y
Ġshif ted
x hr
unc an
avi ors
Fl ash
ĠC ov
tim ing
Ġsil ence
ĠLegisl ative
Ġsh allow
xx x
Th ird
Ġm ild
e con
all ing
minip age
Ġdrop down
ĠProduct s
ĠK id
BUILD DIR
k k
Ġspons ored
Ġsh ader
Ġwant ing
Ġsuggest ions
pr ises
Com puter
ĠIn iti
Sec ure
Ġassum es
ĠI o
(' -
PRE C
Ġc am
if ted
roll ment
ĠLear n
am ination
Ġrec urs
m and
p index
Ã Ł
38 8
Ġimplement ations
Ġr ated
ĠGr an
hom epage
ort on
ĠPro test
ĠDer by
ĠLabor atory
Ġa sp
get Resource
ĠJ av
ext ended
CCCC FF
Ġdef ending
ĠMed it
ĠGu inea
ĠBre xit
CH ANT
mar ine
ĠAut om
Ġpsych ological
ĠB urg
Ð¾ Ð½
ok emon
ĠHor se
un ate
Ġsp ir
38 4
Rep lication
Sp acing
Y M
Ġo mitted
ĠE R
Ġmut able
eval uate
k b
Ġut ter
Ġcon current
Ġtw in
cor ner
Ġdro ve
t ies
int egr
Result Set
in ance
ent i
d ll
ĠĠĠĠĠĠĠĠĠĠĠĠĠĠĠĠĠĠĠĠĠĠĠĠĠĠĠĠĠĠĠĠ ĠĠĠĠĠĠĠĠĠĠĠĠĠĠĠĠĠ
Cap abilities
k now
Ġbe ating
Ġdecom position
Ġul tr
ace ae
Ġtable t
J av
Ġnom ination
ack ets
Qu ota
Ġmax imal
Ġconj unction
Ġsports people
Ġvolunte er
P ipe
Ġ' ;
Ġl ifestyle
ĠM aps
ACT IVE
ond e
Ġtra its
}{ |
ĠInt el
ĠPUR POSE
; :
Ġphys ically
oc co
cr im
å ¸
ick ed
C ycle
] /
Ġnew er
ĠMe chan
Ġimpact s
ĠUg anda
Ġres ume
M ARK
ĠC AN
l st
um bo
IN CLUDE
ack ing
h ooks
Ġl ucky
15 9
ĠPro blem
>> >
Ġapprox imate
ĠFil ip
N d
ro ut
PR INT
Ġw elfare
Bind ings
Ġdismiss ed
Index Of
Ġview port
ĠV ision
Ġcon ce
Ġdev iation
(' _
Key Value
Ġstd out
WE B
war f
& =&
Ġ*/ ,
th lete
op ing
Ġsql ite
lw jgl
incinn ati
H o
Ġb atter
Ġqual ifying
Cap ability
ĠS ometimes
A wait
Ġl ua
Ġwild life
Tr ust
Ġoccas ions
ĠQ uality
Ġlet ting
ĠMar io
Ġsearch Box
ĠArt ists
et ched
ĉĉĉ Ġ
Ġcontact s
è §
ĠT erry
ĠGh ana
Ġconf usion
Ġdiscrim ination
Ġdirect ories
Ġfit ness
D K
Ġaccept ance
Ġdi amond
Ġseem ingly
B ob
Ġstr len
f ilm
ĠMon te
d oxygen
on ian
S y
ĠCo hen
ov an
ĠPh ysical
ĠAl ways
B UT
Ġs ake
Ġtrust ed
get Item
ten ant
Spec ification
land o
Ġhelp ers
ell ers
ĠO B
Q Name
Ġglob ally
Track ing
Ġa uction
Assert ion
Extract or
ĠE sp
Ġl n
Ġact ivate
dat as
root Scope
Ġact ed
ĠInter view
d ims
z ens
**************** ********
s ized
ĠCl are
m isc
Ġre n
Ġag gressive
C andidate
ĠFunction s
w aukee
Ġr ice
ĠCom edy
Ġgr ave
. #
J ose
d irty
Ġdifficult ies
ĠGL uint
ow l
ĠL it
Tool tip
el o
Ġcous in
Ġappro ached
Enumer ator
em ption
ĠG UI
Ġtable Name
====== =
Ġcons olid
Rep orter
Subs criber
Ġdepart ments
Ġeffect iveness
Ġfollow ers
ĠF er
ĠMat hematics
rs quo
Ġorig ins
ĠO VER
;-> <
Ġpl ug
Ex act
Ġvac uum
18 97
Ġen orm
ĠPr actice
pt o
ĠS ync
Ġl od
Ġpick s
ĠForm ula
p ark
Ġel ite
Ġwarm ing
ĠCub a
In ventory
ĠY am
Http Servlet
Ġle ase
dom inant
filter ed
C Y
anc ers
ĠOrth odox
em p
ĠL ar
ach i
Ġicon ic
g age
ĠRich mond
Combo Box
ĠScient ific
18 95
15 6
IST ER
ĠC amera
20 6
ĠV ict
Ġde emed
30 2
ãĢ ģ
H over
Ġch ances
ĠCh oice
ĠPass word
I CT
other apy
GL enum
ĠMon itor
ij i
Ġdu o
ĠS TD
Ġdec oder
G LOBAL
ĠB achelor
ĠYO U
å Ģ
el ia
Ġvar ied
. ).
ĠAb u
ele t
Ġcontrib utors
Inter faces
it ol
ĠAust rian
Ġmut ual
ĠH indu
Ġnegot iations
ĠP P
Ġequ ity
Ġfast est
ĠN intendo
Ġor al
17 6
15 8
Ġend l
ĠTr ain
ĠEx perience
ĠWe ather
Ġsol ved
Y eah
ĠFl ore
Ġrg b
Ġin ev
ĠS uite
S leep
hen g
ĠS uz
Ġ' :
ĠEm ma
J on
Ġv endor
con g
Ġalleged ly
an aly
rele ases
bour g
ĠCO VID
Ġcos m
Ġw avelength
ose x
Ġb b
in ates
mark down
Ġserial izer
rott le
c aster
Ġb ay
ĠComp are
Ver ification
ich i
ag netic
Ġprom ising
IB LE
g ap
Pl ain
Ġcollect ing
cl op
Tr ansp
Ġsup plement
ĠProp Types
per formance
ĠK in
Con cept
d an
VER TEX
or ian
Ġpl ots
ĠG ene
eng u
ST AMP
un set
Ġclip board
R ele
Ġt ours
ĠK er
Char les
avor ite
18 88
Ġmind s
RE SOURCE
ĠB ass
Ġ' __
ĠQue ue
Ġf p
Ġfr act
ĠQu arter
PO M
ĠDevelop er
ï¿½ ï¿½
Ġtoler ance
ĠF T
ĠDe al
2 33
Ġm amm
Ġcent ered
Ġstrugg ling
ĠHung arian
av ern
IP v
ĠS aints
ĠS amsung
US H
ĠĠĠĠĠĠĠĠĠĠĠĠĠĠĠĠ ĠĠĠĠĠĠĠĠĊ
Ġtour ism
ĠS ax
ĠModel s
U IT
Ġa est
ĠG lass
Ġtr ump
F lex
s ing
IF ICATION
Ġswitch ing
Ġdest ruct
Ġtrib ute
Ġf ate
ĠChristian ity
Ġsepar ator
ĠMu hammad
Ġcancell ation
ĠConst ants
}^ *
} ',
}{ (
mat ched
Ġextra ordinary
ĠE ld
(" ");
o ard
ĠB ra
Ġtrad itions
p edia
Ġtarget ing
prov iders
eff icient
Ġan ime
Ġcloud s
Con str
Ġcont rolling
um ble
Ġwork shop
Ġh ab
ĠMil an
ĠColomb ia
Ġexha ust
ĠEx port
ce il
pr ivacy
Ġimport s
Ġdyn asty
Ġb link
Im ports
Con trib
il ia
Ġvalid ator
Ġep id
ĠW ould
ere k
ang led
Ġcorrespond ence
Ġin duct
Ġh istogram
ist ency
Ġintrodu cing
register ed
Ġin cent
Ġsub t
Ġcur v
w ifi
Ġd ancing
play ing
ĠWik ipedia
ĠB ath
ens en
Ġdipl om
c ards
ĠFr ances
: ]
æ Ģ
Ġ' ../../
ĠUp dates
ĠE M
h c
ĠS PE
ĠT ags
E AR
Ġenc oder
Î ¬
ody nam
op enc
ĠK l
Ġsure ly
Ø ´
c ock
Ġdiff usion
ĠBuff alo
Ġsur f
ĠH alf
pl aces
ĠFish er
Ġs isters
ĠI B
Ġjudg ment
J oint
ĠS occer
Ġg ains
Ġmap per
Ġbug s
Ġin cl
Trans late
Ġ' \\
deg ree
cal culate
ĠInt egr
Ġabs ent
f name
h ou
un checked
cours es
ult an
18 60
ĠCons erv
ĠVictor ian
is dom
ential ly
Ġactress es
Ðµ Ðº
draw er
Ġmyst erious
å Ŀ
Ġpre lim
st ad
Ġn ights
ĠL ov
uck land
ĠLink s
Americ a
Object Meta
S ING
built in
ĠL ions
ul ent
D ue
L ANG
#### #
AD ER
ĠPlan et
as ym
ĠTest ing
b ur
ot yp
SP ON
ĠTy ler
S parse
Ġ@ {
ĠLet ter
ĠWell s
ĠContem porary
ĠCom b
pop over
Ġderiv atives
Ġv i
//////// ////
R X
ĠOpen SSL
Ġb uff
CI AL
Ġf ingers
tr ivial
Ġch ap
ĠHigh er
he at
ĠCo ach
Sm ith
/ ',
ĠF ocus
avi our
Ġassert NotNull
Ġingred ients
Ġcert ified
Ġrest oration
bl ur
callback s
ĠFa ith
Ġin clusive
raw ler
Ġachiev ement
g id
ĠSQL Exception
Ġt ent
ĠK ill
allow een
ĠOver all
Ġad option
ĠGener ation
y led
Ġcomp ounds
imit ives
D am
Ġw ings
Pr inter
ĠMult iple
P s
ĠSh ar
c in
Ġinv ocation
Ġexpect s
Ġu id
libr aries
ĠðŁ ĳ
abul ary
ãģ Ĺãģ
ĠEl li
H ey
ĠD elta
Position s
ex clusion
Ġind igenous
Ġsw iper
R NA
Ġdecre ased
Ġtele phone
ĠCond ition
ĠT ouch
V L
ĠCh er
Ġ" ../
track er
Im m
Ġisol ate
Mov ie
Ġb t
ou ple
im ity
Ġs word
Ġ[ âĢ¦]
ì Ŀ
ĠRE Q
$ ),
m ind
Ġr ay
assert Same
enc rypted
w ear
Sc oped
ĠDis covery
Ġmark up
ĠImmutable List
N ick
um m
ĠY e
Int egration
Ġcontext s
Ġsk i
Part icle
Ġbit map
Ġthe ad
null ptr
Play ers
Ġt une
Ġm u
St ory
Ġsum mit
Ġinvest ments
MAG ES
18 7
ement ia
ĠB irth
? ,
ĠT on
ern ess
ĠB eth
Ġam id
W all
IC ULAR
Ġdep icted
âĢĿ )
[ ^
St ock
d ied
ĠSol utions
ĠEx cell
ish a
ÑĢ Ñĥ
se ver
ape ut
Ġimm une
Ġem otions
Ġmon ster
Ġtempor arily
Ġun icode
Ġp d
Ġsup ers
ĠMedit erranean
ĠT ol
Re ception
IR T
ĠCON TRACT
al ic
Ġfiction al
Dan iel
ort ion
Dig est
ull ivan
int age
may be
Ġh r
Ġarr ives
ĠPlay ers
AB C
olec ular
ĠP ent
Ġaud it
YY YY
Ġr ape
mix ins
Def initions
WA IT
ut a
model Version
ĠAm sterdam
K B
M ime
ad ic
17 2
w l
ca pt
x d
Ġp ix
Ġembed ding
R TC
/ ,
ĠL if
String Utils
Config s
up al
Bound ing
ĠS ocket
TE MPLATE
ĠS cale
ĠC UR
Ġv tk
ĠJer emy
S IG
Ġcollect or
da o
Ġtr ait
hab ilit
ĠRel ation
FH IR
le ad
av ef
=-=- =-=-
ĠFi refox
Ġstraight forward
ĠNE W
ne z
, (
OPT ION
Ġz ones
2 16
ĠL ate
pro ducer
ĠNot ice
thumb nail
Ġincor por
ick ets
ari ans
S ongs
B LE
ĠJ ama
pack ed
Ġdeliver ing
æĪ Ĳ
B rows
ak ef
Ġcoll apsed
"=> "
Check point
ĠF leet
Ġbo ats
Ġrecip ients
Ġel abor
u ario
ĠImp act
Ġs lope
Ġlic enses
è¦ ģ
h ort
Ġident ifies
ĠLem mon
Ġpack ets
y ield
or f
Ġcoal ition
O LEAN
W hether
ĠR ET
Ġfilter ing
um i
Ġscholar ship
m ob
ĠU int
ĠDr ug
åĬ ł
Ġe y
Ġterror ist
lic h
ĠG onz
Ġund ers
Ġent ers
ĠN om
Enc ryption
Ġlov ely
Ġadv is
Ġexpect ing
Ġsens ors
Publish er
Ġphys ician
ĠSud an
1 200
cons ider
ST D
ie u
doc utils
SR C
Ġ_ ("
TRAN S
Ġprotocol s
CHANT ABILITY
ĠG URL
! \
l ater
t an
V K
c lo
ar an
ĠW alt
Text Box
Ġmeas uring
Ġj ournals
A mb
Ġt ube
Ġdraw s
Ġafford able
ĠH R
Cor rect
Ġelim inate
e er
im on
us a
Ġoverse as
Ġswe ep
Ġc argo
Ġ? ></
Ġl ig
P IN
ind icator
raw l
ĠI celand
cri bers
Ġes lint
45 6
Ġland ed
Ð Ĵ
olog ically
ĠMet adata
ĠV ik
Ġaug ment
Ġobject ives
Ġsurre nder
Ġg ig
agon ist
ĠB uilt
Ġc pu
pect ives
un is
Ġcomp ressed
Ġmin istry
Start up
ĠEth iop
ĠPhilli ps
Index es
IST S
è¡ ¨
Ġc f
G ap
V m
S PI
Ġthe at
Polit ical
ĠP ool
Ġr itual
Ġviol in
Ġ ug
ew ise
op eng
ĠTr uth
ĠV lad
Ġvirt ually
files ystem
ĠAppend ix
Ġprogram mes
ĠSy rian
H a
Ġposs ibilities
ĠTrans fer
D ummy
ĠM R
Ġb ubble
F s
Gr and
ĠMer ge
F ault
Ġ" #{
ĠAd venture
Element Type
Ġhost name
ĠS ale
Ġsc andal
Ġpregn ant
Ġv in
ĠL am
Ġbl end
Ġguitar ist
n ear
S ong
Ġres c
n v
ĠG A
INST ALL
b ishop
C LE
ag ic
Ġre fr
ex act
ĠEx pr
ĠInd icates
S panish
U ng
Ġstep ped
Prot os
) }_{
Ġ"/ "
ĠC V
Ġmon ument
ĠSym phony
>& #
ĠCl aim
Ġcount ing
f h
check er
Ġcompet itors
ĠI van
ãģ «
Fl at
ĠCh a
AP H
umb ai
Ġlik elihood
T s
sp ired
Ġnot ing
ĠST ATE
contains Key
Res erved
ĠCr iminal
ĠW heel
ling ton
Ðµ Ñģ
Ġglyph icon
mod ern
ĠE ve
Ag greg
ĠCons ervation
Dim ensions
Ġst unning
ĠH P
ĠM ann
ĠS UB
if th
Field Value
Ġb ishop
Ġgovern ed
Ġgather ing
Ġeditor ial
ign ite
Ġprotect ing
( ::
u o
EX EC
l ant
is ot
Ġcomm em
open ed
FORE ACH
bl ast
alt ies
Ġb a
Ġal lies
Ġinvestig ations
/ @
ĠN ancy
ĠPalest inian
Ġt c
Ġpros pect
g pu
ular ity
Ġrev ised
Ġe ighth
Ġtri ps
Ġp ose
Ġrep lication
ĠPh ase
R IDE
ok o
ĠPro xy
ĠMin i
dim ensions
RE EN
Ġart work
Ag gregation
åĲ į
ä½ ¿
(" {
18 89
UN IT
N L
ist ro
ocr atic
Ġecon omics
Ġmem o
ĠT odd
Ġfe as
Dev ices
è¡ Į
b matrix
Ġt v
ĠF ri
ov ich
aur ant
Ġtensor flow
XXXX XXXX
è ¨
end ant
ĠForm er
ĠIn stit
S ar
ĠG B
ĠColon el
Ġb ills
\ }$.
ĠÂ §
FI X
åı ¯
Adv anced
Express ions
w ig
sp rint
che l
Ġf ulf
List Item
send coins
Ġarchitect ural
ĠR isk
Ġap olog
Ġmat hematical
Ġterr itories
Ġare na
link col
Ġorgan ised
ĠOff set
Ġexception al
stud ent
ĠAgr iculture
Ġ* (
Ġpe oples
Ġann oy
is se
Ġh anging
Ġper ceived
ĠJos Ã©
ĠSTAT US
Ġre construct
ĠAn im
00 7
zer bai
St eps
Ġview er
Ġmem brane
ĠFIX ME
18 8
Ġcompos ers
ĠAUT H
18 94
b ane
ĠTh r
r w
Ñ į
D uplicate
Con current
ĠL ength
ĠRev ision
http Request
CT RL
hard ware
Ġa u
Ð°Ð ²
Des ktop
ĠS chedule
66 6
Term s
il o
ĠCh and
Ġdon ated
Dis c
Ġfasc inating
Ġaccount ing
d ue
ĠLa unch
v ect
Ġc ave
ĠAl t
Ġcritic ized
Ġb os
ĠT uple
ĠV ec
ĠSpace watch
Ġremember ed
$ :
Ġw ishes
Ġp ian
Ġ' &
Ġj unction
Ġun con
B ay
---------------------------------------------------------------- ----------
Ġpl acing
Ġc ategor
ens on
d ie
ĠBut ler
Ġc trl
Ġcomb ining
oll ar
I ss
ĠPer u
ass ignment
ĠAn imal
Ġindex ed
x sl
Ġhum or
Ġmem orial
= .
he w
dis miss
In strument
scal atest
Ġnon linear
transl ated
Ġdescri ptions
(" ",
Ġselect ing
Iter able
ĠRail road
ĠG host
Ġprov incial
T own
ĠL ud
h istor
SH ORT
Ġstri kes
Ġtr aveled
17 8
mir al
P ivot
Ġh iding
ex change
e pt
class Frame
Ġcompl aints
ĠL arge
Ġpre vention
Ġim posed
ĠSc i
J ac
Ġme al
ĠAl ong
Ġh orizon
Ġcomment ary
Ġmut ation
ĠRog ers
\ ">
ex emplar
Ġan alytics
}$ )
st own
ĠC ad
Q String
row ing
Ġ% (
Ġcal m
m ixed
ĠL ists
ep per
Ġqual ify
Ġcred ited
Ġadv ers
16 7
term inal
ĠShe ll
Ġsus pected
Q uality
ĠU V
F ort
STO RE
Call er
Ġdiv ide
omb re
ĠAuth ors
C rypto
level s
Ġphotograph er
indu ced
ĠSh akespeare
Ġgr ain
ogen ic
L ng
ĠSp encer
Ġsent enced
bootstrap cdn
Ġnorth west
Dig ital
S AT
ĠT ell
S af
ec ko
16 1
Ġlegisl ative
Ġfil med
con cept
ON ENT
Ġend points
LAB EL
Ġd ashed
ĠM om
ĠTh an
author ization
altern ate
æ ģ
IS H
T err
ĠK os
l m
ĠM M
Ġbacter ia
Ð°Ð ·
Ġexecut ing
Ġste ep
ĠComp etition
so ftware
ĠOtt oman
å ī
Ad apt
Ġto y
cat Desc
p v
sh rink
Ġfun eral
ĠSal v
I VER
C WE
Ġnews letter
æĸ °
eg ral
Ġconnect s
Full Name
>. <
Ġcool ing
ĠF ace
Ass ets
Bl ank
ĠD anny
Ġco at
Ġsec rets
MEM ORY
min i
up grade
Match ing
ĠIMP LIED
ĠMER CHANTABILITY
Ġqu asi
Ġim pressed
ST ER
M ur
ĠTib et
Ġboot strap
Ġb ol
Ġfinal s
Ġcab inet
Ġhom eless
ug osl
Ġfriend ship
Foot er
sc opic
OPT IONS
ĠW A
L int
Ġwh itespace
w c
$/ .
Ġlegend ary
Ġpray er
W arn
prov ided
Lock ed
Ġside bar
20 9
A cl
M ike
Ġpoll ution
ĠCom mercial
Ġs its
Ġvalid ity
Dr ive
ĠSand ers
ĠLeon ard
ĠB ootstrap
Ġrefuge es
iz a
Ġtri be
Ġcons iders
18 50
elect ron
A h
Ġp ig
Ġwhere in
ul in
ĠL loyd
ach ers
18 85
ĠHol land
r df
Ġf rozen
ĠPal m
ah an
ĠS ustain
sp arse
wr apped
ĠLuc as
ĠAssoci ate
Second ary
Ġwor ried
ĠHel en
Ġr ings
s yn
Ġb ab
Need ed
å ¹
Ġ$ |\
Ġdis contin
Den ominator
ĠCh i
unt ary
ch air
om eters
li ant
Ġforg otten
$ "
B inder
ĠS ure
An alytics
Inter action
ut ility
(" _
Ġres idual
18 92
ĠAb raham
ĠS G
ĠA CTION
ĠStr ong
ass o
table Name
Level s
vert ices
anag ing
has Class
Ġst mt
Ġ$ ('
Fre quency
s af
Ġup set
Ġback ward
ĠPRO VID
E U
set State
Register ed
w al
be am
Ġinn ocent
gom ery
Ġmurder ed
CHAN NEL
ĠB ind
Ġcomb inations
}\ ,\
Gr ant
DEF INE
ĠDo ctrine
ict ions
Build ings
Ġe gg
g able
ĠAn alytics
ĠLe o
Ġless on
sen al
j ab
Ð¾ Ñģ
ĠG overn
C ook
rec ation
ĠMar x
Ġstay ing
ĠR FC
print s
Ġnom ine
Ġpregn ancy
Ġn erv
cer pt
Ġdro ps
Ġrecogn ised
Ġex pense
ç ¤
develop ment
Ġch apters
Ġk o
Ġenc rypt
Ch inese
Ġweight ed
ĉ ĠĊ
Ġbott le
k v
Î Ń
D ash
ĠG oth
Christ ian
Ġcontrib utor
Ġconvers ations
ĠB ak
ant om
Ġk nee
Ġob sc
Ġpul se
Ġpol ling
S py
hes es
4 32
m essaging
Ġy ard
en es
âĢ Ĭ
ĠF S
Ġsp ac
ĠBy tes
ĠG ra
Ġinter ference
cached L
AT FORM
upedia Data
cachedL upediaData
as io
ĠLu is
} ">
id ity
ac ies
Ġsal ary
Ġconstit uency
ĠFor ward
Ġjournal ism
cred ited
comp at
" })
Ġun em
ĠPr im
h bar
Ġre build
ĠM ul
Rout es
ENT IAL
ĠB ir
pro portion
Object Type
ĠL an
GL uint
Ġn m
ĠH ob
ĠE ar
E con
ĠPART ICULAR
Ġf lip
Ġconsum ed
8 75
c ritical
W ed
Ġmer ger
Mon o
Ġcook ing
Ġman ifold
M EN
an che
ĠS leep
) }.
ol ph
ĠP ra
Q uest
on n
Ġaccompl ish
Ġexponent ial
Un ary
render ing
m is
Ġar ise
ĠâĢ Ŀ
="# !"
ĠW ire
pol it
u u
Feed back
Tim eline
ĠS urg
ll a
ĠB eyond
Ġdist inction
ĠPer form
ĠC ant
Ġexp ose
Ġcorn ers
Ġdis connect
ĠL ED
AL IGN
Ġquarter back
Comp act
Ġalter ed
Ġmechan ics
ĠS plit
ĠTre as
d ictionary
h appy
Ġd in
Ġca ption
Ġl iver
Ġyour s
illi an
âĢ¦ âĢĿ
Ġburn ed
og o
O gre
Ġch icken
R o
Ġh ire
aged y
Ð¸ Ñģ
Ġback wards
Ġb er
Ġtrans mitted
"> [
ĠSerb ia
ĠFI FA
V ir
)) $
Cont ainers
ĠSum mit
fl are
Ġphot on
Ġad mission
Ġattend ance
ĠS PI
Ġw ars
ĠA round
ĠD od
ĠHar vey
ĠCr icket
Ġpremier ed
am bers
P AT
Ġr t
ST OP
am ation
Ġe ager
Ġsh oes
Ġexpl ored
ĠZh ang
IZ ED
Ġsouth west
18 93
Ġcompan ion
Ġre use
am as
ab ove
ator ial
Ġcomp ass
Ġchar s
ĠLine ar
Ġp ink
ĠIn side
col One
aut om
Ġgeneral ized
Ġshif ts
Ġra ises
ent ine
Ã± a
ĠMO RE
âĢĿ :
Ġdemonstr ates
ĠDec ision
st ead
Ġen force
Ġir re
il ateral
ere al
ĠCamp us
ĠD ennis
li pped
Ġret ro
Ġelev ation
subNav List
Ġaccompl ished
ĠC ounter
ĠE g
up pet
aver age
ĠAnt ar
ĠS ources
ĠDet ail
Ġw ard
ĉĉĉ čĊ
Min or
F ive
s ensor
:: __
hy dr
stat istics
s us
ĠR uth
ĠHug hes
Ġwe igh
Ġclean ing
P ick
Reg Exp
( _.
l ar
¼ </
Ġp orn
uss els
ĠProv ider
US B
PRE V
Ġelect oral
Ġtrav ers
G uest
Ġb s
ĠR unn
Ġinternal ly
Exp atriate
ĠH appy
ĠX box
ĠðŁĳ ¼</
Ġs ep
18 91
illa ume
Ġcompr ises
v n
ĠG ov
ĠRe place
Ġacknow ledge
Ġrad ar
213 07
ĠP tr
v ance
ĠInter est
of ill
h ive
ry s
tr ip
sp here
Ġuser Id
get Child
Ġhot els
ĠK ash
Ġdesign ers
S izes
c rypt
Ġdoub les
æĸ ¹
Ġre load
Ġaffect ing
av g
Ġmk dir
it he
UR ATION
F riend
less sim
Ġclos es
W heel
Ġint elligent
K n
Ġam et
ĠS oci
Ġscal ed
Ġf illing
In fl
und ant
P ressed
EN UM
Z Z
im ap
Ġ( __
H alf
16 4
ĠStan ford
Ġinn ings
ĠF u
target s
}) (
ĠF ailed
G reg
r p
ĠE ither
off ee
Stream s
Ġfest ivals
Ġ ])
Ġ& $
ĠY ellow
H our
Ġ( .
ĠK yle
Ġt ends
Ġac res
Ġ// $
Ġj oke
Ġdist ant
Ġinf lation
ĠText ure
ĠLOG GER
r st
le an
ĠK el
D U
stream s
Ġt a
Ġmag ical
ĠDel aware
Watch er
d z
Ġon mouse
g ue
ft p
Ġdimension al
ag ar
Ġph p
Ġp as
ĠB A
^* $
Ġ" ]
io x
Log ic
Inter ceptor
Prov ision
Ġpract ition
an imated
air y
C oded
Ġbank ing
O GLE
inter est
ĠLINE AR
Ġbi ology
i oc
Ġd uplic
valid ators
in ely
He art
search Box
Pers istence
æİ ¥
Int Ptr
ĠI DE
Ġaddress ing
ge br
Ġv ic
Ġdr ain
ĠM ask
ĠM aking
Ġob l
With in
k el
ĠS IGN
Ð¾Ð» ÑĮ
T our
Ġn b
A verage
-- )
Ġocc urrence
Ġax es
Q A
ĠRe ed
Austral ia
Ġexp enses
FA CT
ĠIllegal StateException
Ġprov es
(' :
17 9
ĠPack ages
È Ļ
istic ated
æ³ ķ
f illed
17 7
ĠA ve
Ġoffset s
ĠS or
uzz y
al is
ĠW u
Ġinternational ly
fe ctions
Ġautom ated
Ġneut r
ĠN HL
Ġex iting
ĠC u
ĠC ox
ãĤ ¤
ynt hesis
ASC II
ĠEag les
ĠH ousing
TYPE S
rele ased
Ġjuris diction
Ġst er
Bl uetooth
æķ° æį®
ced es
Ġcon spiracy
sp rite
d frac
Ġp ale
S olution
Ġconn ector
comple ted
ars ers
und ay
EN ER
sc apes
ĠB our
ĠMar shal
Ġround ed
bound ed
Ġsl aves
30 3
CHAN GE
og onal
ĠV ic
26 3
ĠBi ology
un safe
ĠB ach
(" ./
s omething
Equal ity
Ġconsum e
SO CKET
Ġcomple tes
Ġabund ance
ĠP T
ĠIn clude
Res ume
Â ½
Ġtx t
ĠAthlet ics
t icket
ĠG uild
å¯ ¹
Ġlocal ity
ep h
ĠArab ic
le en
Im Gui
Anim ator
track s
Group Id
T IP
Ġl ac
form ula
Ġc inem
im i
ĠG len
el rte
Ġsurv iving
Ġcur ious
Xml Element
Ġcompr ising
S aint
ĠPhil osophy
Ġbur den
å ±
ĠT S
Ġ/ ^
5 50
Ġs hed
Ġagre es
Ġapp aratus
is ible
Run nable
ĠHar per
Ġdiscuss ing
T alk
user content
strict Equal
Ġ\ ]
so ap
execut ions
SECON DS
P rior
Ä Ľ
Ġsh ard
H old
db pedia
B ulk
8 000
W C
dig it
ĠC K
oun ge
Ġtreat ments
Gre ater
Ġsw ift
h all
M Y
Ġn aming
ĠMax imum
ev ille
ĠV R
in ology
ĠD T
Ġartifact s
W ashington
he nd
year s
Enc rypt
Can onical
Ġloop s
LE X
ÑĢ Ð°
ĠJ ake
Ġnav al
ĠĠĠĠĠĠĠĠĠĠĠĠĠĠĠĠĠĠĠĠĠĠĠĠĠĠĠĠĠĠĠĠ ĠĠĠĠĠĠĠĠĠĠĠĠĠĠĠĠĠĠ
ĠMunicip ality
Ġbound ing
ĠInvest ment
j k
ĠU E
Ġle ak
Scale Denominator
tr ust
Ġd ining
ĠR ivers
ufact urer
Ġoccur ring
ĠArch itect
im eter
API ENTRY
ĠCh at
m ile
ĠProgram s
ess ors
ir ate
Ġ" &
port al
ĠCH AR
ĠF an
By Key
Ġsl ides
Ġvacc ine
SC A
num bers
Ġsl ots
ĠAut hentication
3 80
b rit
ĠHill ary
Spe aker
ĠCert ificate
ĠHeb rew
ç §
ĠGr ade
Stream ing
Pro b
web site
ĠSi erra
nit method
ĠO PT
Ġbad ly
bit map
ĠAd vert
ĠGil bert
ĠV as
N F
unknown Fields
Del ivery
un til
Ġal liance
exemplar City
Ġ ist
Ġam big
ĠDi pl
Ġo m
Ġ[ _
Eval uation
Pol l
it ely
test case
ĠBapt ist
cit ation
Ġtour ist
Ġcontr ary
s ure
ĠC ancel
18 2
Ġoptim ized
ĠPerm ission
ĠS old
) ")
m otion
k ers
pe st
n ut
ĠMunicip al
= ${
ĠF UN
Ġodd s
ng th
F ULL
J MS
R ating
Ġw ound
Ġfood s
64 0
serv ers
23 5
ĠS ou
Ġyoung est
ĠW ag
ĠR alph
Vel ocity
G I
t ier
Ġge ometric
Ġcru ise
id le
ĠS it
Ġsust ained
] $.
Can ada
ĠLi u
R ol
py test
C ourse
STR A
edit able
FILE S
Ġexplos ion
r ors
serial izer
Ð°ÑĤ ÑĮ
Qual ified
ocor ro
C atch
roup ed
Block ing
Bro ker
ah u
({ '
ĠB atch
Ġm ere
ĠS ter
ãĢĤ </
aint enance
ĠURL s
Ġc ele
Ġd ock
20 7
Ġdis orders
Ġtop ological
ĠWork ers
ĠStandard s
Ġst ret
man age
ĠBob by
Ġn est
ĠS B
Ġfor k
22 6
Ġnew Value
ĠNot Implemented
Ġgent le
r ise
Ġh orn
m el
dec oder
Ġsubs cribe
ĠSt uart
activ ated
Ġwhe els
Ġstar red
{ |
qual ified
Ġdeb uted
Ġsuggest ion
Lif ecycle
ic ast
Ġb ail
ĠTre k
um ption
Ġele ven
empty set
00 4
amp ing
Ġdr unk
Ġattack ing
Ġtyp ed
umb ent
Ġ ub
en os
)) \
Term inal
ĠSo ft
inst alled
flu ence
Single ton
ĠJeff erson
Ġaccept ing
Ġsynt hesis
ĠG ate
con straints
**** *
Ġb alls
Ġend orse
Ġpl ates
CT L
Ġunn ecessary
Ġm eter
Re peated
Ġrem arks
Ġener gies
om aly
Ġmort ality
bar rass
Le af
h ydro
ĠS ocorro
Ġcor por
ĠE mit
ĠE ye
Ġ========= =
Ġbatt les
D ifference
Ġover lay
p ager
J ar
S CO
l ane
Ġgu ards
Ġproceed ings
Ġsimilar ity
N LS
symbol s
Ġm im
30 6
ber y
ĠB uch
Ġsur veillance
l ishes
om ore
ĠVAR CHAR
ĠP rest
Ġterm inated
ela ide
24 5
Ġvis bl
ĠVenezuel a
G al
q p
ing o
find er
Tab Index
Ġprelim inary
ĠSo on
] ])
Ġ\ (\
Ġrele asing
ĠOper ator
Aud it
Ã Ĥ
Ġor chestra
ĠSc roll
ĠGard ens
ong ue
class List
HE D
Version UID
Date Format
ĠC MD
re search
ap prop
io let
40 5
cell s
t oday
18 65
Ġstat ue
ĠTro phy
Prov iders
N s
G od
re ction
Ġl b
Ġmist akes
$ _{
ib e
'] :
Pointer Exception
ĠMont ana
19 1
ĠK aren
is abs
Ġbr idges
ĠC inema
Class Loader
Ġadv ised
Ġfl our
Ġpan ic
Ġconcentr ations
ĠM ob
ĠRetriev ed
c ott
l bl
Ġt ired
ĠF ITNESS
ĠHand ler
Ġgenu ine
amb ling
ag le
arch y
ĠJob s
Ġbal anced
17 3
Ġac ute
ĠCal culate
Ġsav ings
M appings
p es
Ġan xiety
be it
dec or
. ">
Char acters
ĠAt hens
Ġexceed s
jav adoc
spec s
Ġe cc
get Content
ia z
ĠPet e
Cover age
Ġcogn itive
ĠR TC
Service Client
Im mediate
Ġev ac
18 9
Ġparticip ant
C nt
ymorph ic
ĠR osen
sl ides
Ġexecut able
ĠIss ues
3 10
t lement
Ġun ity
Ġde ce
Ġshort cut
C Sharp
Ġapp ended
Ġsh aped
Field Name
Ġsort s
Ġsear ches
ĠC IA
Ġout break
Ġcontinuous ly
co ord
Ġres olver
cont rollers
R oyal
Ġsom ebody
ĠCl one
G ram
ĠOr d
Ġfre ed
Le ague
ĠEmer gency
Ġd os
connection s
re name
get Bytes
++++ ++++
Ġmat hematics
ĠM L
re peated
Ġbond s
ĠW orth
CONTRO L
P B
erm al
DEFIN ED
Ġpo ets
ĠL ithuan
hl js
ĠB og
ve e
Ġaff air
Ġretr iev
M oney
Ġrecon c
incor porated
ĠC ord
Ġbusiness man
is Function
D ock
H ours
Ġchar ter
Sk in
ĠFoot notes
ĠB und
Ġthr iller
ĠW ant
30 5
ĠLib erty
gol ang
b ian
ĠNash ville
S ir
col group
Ġre nown
Ġbefore Each
ĠCond itions
H aving
B ed
gr at
ĠC OR
ra ising
H F
M i
Ð ŀ
Ġloc ate
Ġrel ate
ĠProgram me
Ġpoor ly
Hand ling
Ġadvant ages
ĠEx pert
Rot ate
Seg ments
Ġplay offs
UT ION
ĠK B
23 4
Ġbe ings
ĠD uncan
ĠK ur
Ġed u
Ġbel t
ĠChe f
Ġp g
ĠA ncient
Re alm
al am
H ooks
m ans
Ġl on
Ġportray ed
19 4
AME S
Ġcour tesy
æģ ¯
pare n
Ġg rap
ĠG PIO
Ġconnect ivity
s ix
ĠA uckland
test ng
Ġass isted
Ġthe sis
Ġs ke
col our
ĠI NS
ĉĉĉĉĉĉĉĉ ĉĉĉĉĉ
Ġproport ional
m ons
type NameLink
me eting
Ġu k
Ġbro ader
s ink
sc opy
ä½¿ çĶ¨
xx xx
ĠGL sizei
| }{
C U
Ġtool bar
Cart esian
ĠRepresent ative
ĠPro b
Ġpick ing
long rightarrow
ĠMaterial s
ĠD h
Ġd ressed
Ġam ateur
PE D
Ġun cle
ĠMe asure
Ġcomp ly
Ġwealth y
CL K
Ġcivil ian
table View
IS ING
skip Nav
Ġsmart phone
ĠE ston
OP TS
M ATCH
Check Box
cred its
Ġadministr ator
M IL
cess ion
Ġearn ings
Ġmer ch
form ats
on load
Ġif rame
Ag ain
q q
ph is
ĠVen ice
currentTime Millis
S ynchron
o ys
ĉĉ ĠĠĠĠ
Ġbl ues
Ġmuseum s
28 8
Ġconscious ness
A sc
Ġc oding
ĠS ox
ĠInput Stream
ĠMah ar
ol oad
ĠS weet
ĠE L
Ġnob le
Con struction
ancell or
Clean up
E F
ĠF ashion
Ġbehavi ors
F ood
Ġgovern ance
s ynchron
get Column
ä¸ ĭ
Ġdro pping
ĠMon o
IC ES
ĠNep al
D ynam
ĉĉ ĠĠ
Ġins pection
at um
Ġreport ers
NS Mutable
Ġ ----------
Ġh alo
orange hill
com fort
equ ations
18 87
orangehill dev
photon ui
" '
ins pect
" \
ĠEx pected
Ġ× Ķ
ĠO MIT
SE PAR
Ġprop ri
Ġgrand father
Ph p
Ġmiss ile
t el
erm odel
Ġcop per
Ġh ass
Ġaccommod ation
S a
And rew
}} .
s andbox
Return Type
Ġancest or
Ġnow rap
Ġshel ter
Al ways
ĠSim pson
ĠAl gorithm
ĠBelg ian
ĠNew castle
p ix
Ġcode c
pat ient
Lear n
ĠT LS
Ġtw ist
lic ate
ĠTh ai
__ );
g wt
Ġr ush
ĠP att
Ġsustain ability
M ic
Ġexp ired
Ġmin isters
ãĥ¼ ãĥ
memItem Left
(' %
T ap
ĠAt tributes
ĠRun ning
r us
er ver
ĠM AC
B F
rt c
Ġwond ering
Rail way
P ot
macro def
an ian
ĠBeng al
Ġtrad ed
Ġexp edition
_ "
Ġrol led
\ +
R x
Ġinvestig ating
Ġlast ed
j om
Ġst om
log y
IP S
Ġful fill
R D
ĠS che
ĠTh under
Ġsub class
Ġsett le
Å ¼
by e
P F
Type Id
amp ire
Ġmer c
sprint f
x b
ĠN ine
Ġswit ched
Place ment
Ġass ists
Ġlink ing
Ġpull ing
Ġenorm ous
T reat
=" __
Ġc mp
F und
iv ar
Ġband width
memItem Right
at tempt
Ġst reak
av in
Ġout s
') ),
Ġlegit imate
ĠT as
Ġcoordin ator
ĠN g
cl ide
CO UN
IMP LE
B all
w ant
Ġc ig
Ġsim ulated
ĠPr act
Ġplan es
Index ed
Ġs lip
': '
Ġarr iving
n orth
No Error
2 14
Ġv ig
Ġadvert is
Ġindu ction
Ø§ ÛĮ
ac i
Ġsimp licity
Ġ| ____
Qu eries
Interop Services
Ġh oped
ĠIn stitution
Ġfarm ing
ÑĤ Ð¸
Car A
Log o
Ġdepart Speed
P t
pro val
ĠWall ace
key Code
AL TER
Ġexpl aining
Spe ech
Ġline up
e asy
Ġemploy er
Ġim perial
= $(
Ġacc eleration
ĠEl se
Ġpand emic
j er
Ġre ceptor
ĠD b
Ġrac ist
ab we
Ġe arning
Ġwh is
ir us
Ġair line
Ð Ŀ
ĠComp iler
Ġfeed ing
Ġpure ly
ĥ ½
st ones
Ġm b
Ġimportant ly
g md
process ed
= &#
v id
return Value
ĠH ook
Port s
re tr
n z
new line
ĠSc ore
ĠEffect s
Ġt ex
ĠAv iation
Ġdef er
Ġclick ing
ĠPhilipp ine
ĠLeg acy
ĠCy ber
Ġin complete
ĠD istribution
Ġdownload ed
: !
ST ACK
Ġdol or
it ud
Ġmet aph
Ġpr ide
full screen
Ġaccommod ate
ĠU SS
vis ited
/ -
Ġwrest ling
ĠM ig
d ma
e ctions
ro bot
Ġj int
Ġadvoc ate
rans late
Ø ²
Ġres erves
TRAN SL
ĠS ak
un wrap
ĠJ et
inal ity
Or Default
Log s
ĠLeb anon
qu ent
qu in
Ġcent res
orne ys
em o
ark er
Ġchalleng ed
A ML
ĠT EXT
r ag
Ġ ë
ĠChem ical
ar ner
Ġw isdom
ĠL odge
ip v
St eve
er ie
Ġmod ifier
ĠLL VM
Ġbad ge
ĠPod cast
p ym
ĠPro ductions
M aker
ĠM illion
6 50
ĠRO W
ĠTom my
Ġsc ar
H ence
co ords
lo y
ac ial
Ġ} {
J oe
ag ain
ĠO pp
Ġnumber Of
Ġmanufact ured
ĠR F
end ent
ĠCon figure
ĠRet rieve
ĠBro s
ĠWrest ling
Ġcre atures
De ploy
T G
Ġg reet
ĠI BM
ĠN ak
Ġacknowled ged
ĠO Auth
bro ok
L ost
re pr
ĠN amespace
Ġb uses
In ternet
Ġdata Type
16 2
Ġdemocr atic
16 3
}) }
Ung rouped
Ġcamp s
Generated Code
Ġelev ated
T mp
box es
Ġworld s
Pre pare
big l
in str
Ch an
Lem ma
ĠChel sea
pro per
Ġd d
RE LEASE
++ ){
Ġg lobe
prof iler
ĠR idge
ĠR s
elect ed
h ours
Ġobserv able
ĠSt ef
ĠWood s
at em
Ġtransl ations
ĠRunn able
ND ER
4 20
s outh
Ġid le
ĠT D
18 81
Ġformat ting
ĠâĢ ł
off ice
Ġmaint ains
Ġsc iences
Ġrep lica
r ated
ad j
ĠHe avy
Ġinv ite
ĠðŁ ĺ
ific ant
Web site
Ġconcert s
W ARD
Ġw ore
`` ,
init With
ic ism
q view
ĠB ool
ĠB inding
Ġpresent ing
ĠD MA
ĠC incinnati
ĠM ik
Ġspeed s
ĠCh ain
Ġsub tle
Ġterm inate
eleg raph
ic z
$ };
Ġl ane
17 1
ap a
Ġcab in
Ġpropag ation
Ġaccur ately
ycl ing
Ġconstitution al
type col
sym pad
Afr ican
Ġby pass
ierarch ical
ĠGreg ory
B attle
F ly
at ra
Ġs que
Ġtest imony
Ġtrans ient
Product s
jav ac
Ġconduct ing
Ġli ability
Ġfre ely
r ice
Ġf ool
ĠS z
ok i
ST YLE
Ġover head
× ©
Ġfight ers
Ġt ears
ĠGo String
ic us
igr ant
Ġcour age
ĠR oche
Pro be
A ust
Ġt ier
h azelcast
Cond itional
qu it
Ġ` $
({ "
sh ine
Ġpre vents
B US
ĠShang hai
idd ing
ĠChem istry
pack aging
ĠEm irates
full comment
um ph
18 61
Ġint ens
tr unc
T icket
ĠW I
Tr acing
ps y
Bit coin
ĠPr incipal
Ġt witter
Ġenumer able
s lick
Ġdel ivers
des erialize
åħ ¥
ĠI v
Ġp ocket
Mark up
ĠBig Decimal
ĠSom ething
ĠM ongo
Mean while
Ġc ant
ĠH alloween
cho ose
ME T
aw ks
ĠCom panies
Form ats
Ġrac ism
. \\
al ib
te enth
pattern s
Ġsent ences
activ em
od ium
Ġm ph
yl an
rg ba
Ġadm its
Ġf iscal
Ġconver ter
? !
S igned
os ome
Ġextr action
WI SE
ĠG ill
Command Line
Ġg t
Ġneg lig
Ġign or
Ġauthent ic
ĠM iles
18 4
{ }{
[ ![
Ġto ll
ass igned
ĠB orn
ĠF act
WR AP
imb abwe
Ġcon clusions
def s
ĠPart icip
Ġtransform ations
r ases
ç Ĳ
ĠCon v
ĠV ers
Coll ision
Ġs ax
Ġattr actions
Ġbi om
acc ordion
Ġabsor ption
b ill
yy yy
( /\
+ =
? '
err er
;" |
Ġabort ion
Ġy eah
ĠPar ad
Play ing
# .
Ġstart Time
H op
Ġgard ens
ont ology
ĠÂ ±
M ah
Ġl d
Account s
ĠGener ator
Tool Strip
ĠT ang
Place holder
en i
Def erred
S on
cre ase
V iol
it ars
ĠD ele
Ġdi abetes
Ġdefe ating
> ().
az or
S cheduled
ĠA str
M il
K V
cook ies
18 64
Ġshe ep
d ynam
w char
b ulk
'=> '
LA S
ST AR
ĠMil waukee
s ynopsis
23 7
ĠProject s
ul as
ĠM ine
ĠU ntil
github usercontent
ir able
uls ion
ĠP av
cre st
Ġefficient ly
Ġs ne
Ġpat ri
eg al
ast ian
Rep ublic
à¤ ¿
). __
mention ed
SE ARCH
Ġwitness es
sw ith
Ġsk etch
ĠF ill
Ex isting
Ġcom ma
icy cle
open ssl
18 86
åĪ °
ina e
Ġimp ly
iter ation
Ġnom inations
Ġh ills
Ġl un
g ms
v iv
ĠR ice
Ġintrodu ces
Ġw orn
è® ¾
Vill ages
ĠFinn ish
Ġre lies
Ġweak ness
rele vant
] $,
Ġmake up
Ġo h
Com position
AL LOC
Mart in
ĠO FF
ro e
ic ion
Ġisol ation
ĠPartners hip
- '
able View
min ster
Ġrepro duce
tikz picture
res pect
Ġexp ires
ĠSw an
Ġrail road
ĠLe eds
ĉ ĠĠĠĠĠĠĠĠ
et erm
tem perature
VID EO
B uy
a uses
ro ots
ĠD ET
Bl end
f ixtures
Ġ icons
ĠAss essment
22 3
Ï Ĩ
Ġencour aging
Ġhe ating
ĠNever theless
Middle ware
T ASK
ĠPark s
ĠL D
ĠRep resents
b uck
Ġstd err
Ġoptim ize
v oice
IN F
Ġplay off
m ith
22 1
uint ptr
Develop ment
Ġvar ies
Ġx s
Ġ========= ==
ĠB in
Ġcl er
UI Color
Ġhe aven
Runtime Exception
Ġsh rink
ĠP ER
Ġset ter
unit Pattern
LE CTION
SPE C
bo ys
bor o
ä ¾
ĠĠĠĠĠĠĠ Ċ
count s
flo ating
Ġext ensively
ĠSyntax Kind
< >
ĠGe o
Ġf av
ĠBen nett
he size
Ġgener a
Ġserial ization
Ġtr acing
ĠLO CK
imp licit
Ġs our
& )
ht t
ĠK un
PH A
× Ĳ
fe at
Cre ating
c ould
18 6
Ġwork shops
lig a
CharacterOffset End
CharacterOffset Begin
ml abel
Un install
T en
Ġcontin uation
b igr
Ġc oc
Ġhe aling
ĠLI ABILITY
Ġun clear
tag Name
Ġal phabet
oss ibly
Ġpass ive
)) ]
Di agram
Ġpun ishment
Ġstruct ured
ĠÂ «
------------ ---
Ġthick ness
Ġnot ified
ĠSim ilar
ĠV e
Click ed
Ġche ese
Ġre write
ĠR an
ĠN umer
V an
ĠH ide
ĠK ol
ĠComp ile
}[ \
Document ation
è ¾
ĠB undle
ĠL ands
rom agnetic
18 84
p ixels
Ġwh it
Ġs ang
Ġm arijuana
ĠM aced
n ational
am y
Ġke en
RE SPON
Ġenjoy ing
Ġneut ron
DO UBLE
F LOW
################################ ################################
alloc ator
ĠPen insula
Ġr and
Ret ention
U id
ĠC riteria
An onymous
Field Type
Ġrele g
Ġsignature s
ĠP ont
Ġsh ield
ad vant
Ġtr iggers
Ġnetwork ing
sim ilar
ĠRel ated
E le
Ġg c
ĠG PU
Ġdo zens
ĠPop ular
UD IO
Ġrec ursive
Ġor n
ĠEqual s
Ĥ ¹
Ġinstitution al
Ġsoph isticated
# /
ĠCh ang
ĠH app
ourn aments
art a
Ġdis ability
Rest art
ĠH ugh
17 4
Ġachiev ing
A x
w ml
ne eds
ĠInd ependence
Ġemploy ers
Ġt u
ĠEag le
Ġs nap
We ather
Ġscal a
eler ik
ĠM az
ĠTr inity
effect s
ĠR ah
bas ename
Ġ* );
ł ģ
ed uc
Ġgr ateful
25 4
Ġmem cpy
End ian
Ġque en
I SS
Ġcall able
ĠArt icles
Ġst ochastic
Z ERO
ĠAbb ey
av o
Ġl ingu
any on
ĠÃ Ĺ
= /
l od
Ð¸ Ð¼
ung le
ĠP ages
IV ATE
END ING
ĠSH ALL
as ive
Ġc attle
ĠB udget
27 5
Ġdecre ases
get State
cl ub
ĠArn old
Ġcle ver
ĠHol mes
ä» ¥
Ġsever ity
Ġflex ibility
ud s
RE ST
ĠIs aac
yl um
Ġcharg ing
Ġchunk s
Ġtact ics
ĠArg uments
ee e
Ġfle w
ĠSc ar
Ġin vari
Ge org
f u
Ġnerv ous
is y
ĠS yn
Ġ` <
Ġadv ances
Ġrock et
ĠEvery one
v iol
Ġfor wards
ĠCont ains
Ġda emon
Ġsubsidi ary
Node Id
aval ry
ĠM umbai
ĠH av
ud ed
Ġscul pture
ĠEv il
im an
ĠDis c
IB ILITY
ĠP sy
ĠR af
get Last
initial izer
ĠAcadem ic
estab lish
Ġcan nab
Not ice
Cond itions
c annot
spe ech
Ġlo ans
ap or
Ġlaunch ing
j peg
aint ies
Ġprint s
L es
N B
Ġpoly mer
ĠBrook s
% ),
ĠN J
Ġcol ours
Ġper f
ĠHer bert
E nergy
18 3
S IL
ish i
ers et
Ġbe aring
ator ies
Ġpre dominant
Return Value
Min utes
L G
e o
E G
STRA INT
um ably
Ġdes k
åŃ Ĺ
× ŀ
Ġbank rupt
an other
alloc ated
18 1
Med al
P rem
Ġnot ranslate
ĠEx cel
ĠLind a
ĠC lock
are l
ug o
ĠBen ef
Ġs overe
Ġem barrass
Ġbind ings
B ench
Ġf el
ĠG OP
Aut ow
Get ting
Ġpsych ology
Ġprevent ing
Ġtox ic
Ġrec ipe
Ġmod est
Ġbroadcast ing
Ġten ure
ĠA ber
ĠP K
ĠO wen
Type Info
Th ough
S u
ĠBr ain
Ġb ones
Ġexhib ited
Ġdistinct ive
Ġt i
Ġw age
get Parameter
ĠJess ica
Rem ember
s low
ĠCh uck
Ġd ear
RO ID
3 40
A w
f eld
erc ise
ĠN ET
Ġassess ed
Ġt p
ĠR A
contrib uted
Ġcrick eters
Ġcomp elling
ĠMichel le
Ġc ord
Prot ected
Ġtrib es
ĠEcon omy
Ġped est
ĠHe at
Ġfoss il
Ġmon o
ĠT error
Ġtrav elling
ĠCol in
hand led
aw i
ĠInd ividual
AV A
ĠG ang
Ġstr ide
Ġ ĉĉ
,\ \
Spec ified
åĽ ŀ
sph inx
ĠM ills
med skip
Ġhead line
Ġembod iment
f lip
Fr ance
Ġdon ations
Ġexecut ives
Ġsurvey s
Ġsubstant ially
BUT TON
Ġattr action
ĠL oss
Ġdemand ing
Ġcorre ctions
F IRST
ke es
GR APH
Ġget attr
Ġpil ots
ATION S
ĠIter able
min a
Ġmin imize
Ġprot obuf
Ġ ud
ĠIN VALID
Ġprevent ed
ĠWild life
Ġparliament ary
bind ings
v v
Ġsup ern
pre ttify
t frac
26 2
VARI ABLE
is Null
, %
Ġind ication
Ġspect acular
SER IAL
ĠH tml
Ġprivile ge
ĠDise ase
Ġw are
ĠSpe aker
pur ple
ere g
}} _{\
Ġdiscipl ine
ins ky
Col s
ĠIN CLUDING
Ġcart oon
Ġenumer ate
ĠA zerbai
ert s
check s
P FNGL
ĠT rial
ĠCom Visible
Error Message
Icon Success
cli ents
con struction
Ġsm oking
n of
Ġag gregation
ingu ished
h im
ĠA part
X aml
ĠO ri
ĠTerr itory
Ġin quiry
ĠCroat ia
s al
ĠN urs
Line No
em ia
ĠR av
[...]
