{"[UNK]":0,"!":1,"\"":2,"#":3,"$":4,"%":5,"&":6,"'":7,"(":8,")":9,"*":10,"+":11,",":12,"-":13,".":14,"/":15,"0":16,"1":17,"2":18,"3":19,"4":20,"5":21,"6":22,"7":23,"8":24,"9":25,":":26,";":27,"<":28,"=":29,">":30,"?":31,"@":32,"A":33,"B":34,"C":35,"D":36,"E":37,"F":38,"G":39,"H":40,"I":41,"J":42,"K":43,"L":44,"M":45,"N":46,"O":47,"P":48,"Q":49,"R":50,"S":51,"T":52,"U":53,"V":54,"W":55,"X":56,"Y":57,"Z":58,"[":59,"\\":60,"]":61,"^":62,"_":63,"`":64,"a":65,"b":66,"c":67,"d":68,"e":69,"f":70,"g":71,"h":72,"i":73,"j":74,"k":75,"l":76,"m":77,"n":78,"o":79,"p":80,"q":81,"r":82,"s":83,"t":84,"u":85,"v":86,"w":87,"x":88,"y":89,"z":90,"{":91,"|":92,"}":93,"~":94,"¡":95,"¢":96,"£":97,"¤":98,"¥":99,"¦":100,"§":101,"¨":102,"©":103,"ª":104,"«":105,"¬":106,"®":107,"¯":108,"°":109,"±":110,"²":111,"³":112,"´":113,"µ":114,"¶":115,"·":116,"¸":117,"¹":118,"º":119,"»":120,"¼":121,"½":122,"¾":123,"¿":124,"Â":125,"Ã":126,"Ä":127,"Å":128,"Æ":129,"Ç":130,"È":131,"É":132,"Ê":133,"Ë":134,"Ì":135,"Í":136,"Î":137,"Ï":138,"Ð":139,"Ñ":140,"Ò":141,"Ó":142,"Ô":143,"Õ":144,"Ö":145,"×":146,"Ø":147,"Ù":148,"Ú":149,"Û":150,"Ü":151,"Ý":152,"Þ":153,"ß":154,"à":155,"á":156,"â":157,"ã":158,"ä":159,"å":160,"æ":161,"ç":162,"è":163,"é":164,"ê":165,"ë":166,"ì":167,"í":168,"î":169,"ï":170,"ð":171,"ñ":172,"ó":173,"ô":174,"Ā":175,"ā":176,"Ă":177,"ă":178,"Ą":179,"ą":180,"Ć":181,"ć":182,"Ĉ":183,"ĉ":184,"Ċ":185,"ċ":186,"Č":187,"č":188,"Ď":189,"ď":190,"Đ":191,"đ":192,"Ē":193,"ē":194,"Ĕ":195,"ĕ":196,"Ė":197,"ė":198,"Ę":199,"ę":200,"Ě":201,"ě":202,"Ĝ":203,"ĝ":204,"Ğ":205,"ğ":206,"Ġ":207,"ġ":208,"Ģ":209,"ģ":210,"Ĥ":211,"ĥ":212,"Ħ":213,"ħ":214,"Ĩ":215,"ĩ":216,"Ī":217,"ī":218,"Ĭ":219,"ĭ":220,"Į":221,"į":222,"İ":223,"ı":224,"Ĳ":225,"ĳ":226,"Ĵ":227,"ĵ":228,"Ķ":229,"ķ":230,"ĸ":231,"Ĺ":232,"ĺ":233,"Ļ":234,"ļ":235,"Ľ":236,"ľ":237,"Ŀ":238,"ŀ":239,"Ł":240,"ł":241,"Ń":242,"ĠĠ":243,"ĠĠĠĠ":244,"in":245,"Ġt":246,"er":247,"on":248,"Ġa":249,"re":250,"he":251,"at":252,"en":253,"or":254,"ĠĠĠ":255,"st":256,"ĠĠĠĠĠĠĠĠ":257,"an":258,"Ġthe":259,"al":260,"Ġc":261,"it":262,"le":263,"ar":264,"ion":265,"Ġs":266,"es":267,"is":268,"ed":269,"Ġf":270,"Ġo":271,"ing":272,"Ġw":273,"Ġp":274,"ro":275,"ic":276,"as":277,"et":278,"Ġb":279,"nd":280,"Ġin":281,"ct":282,"ou":283,"Ġd":284,"ent":285,"Ġof":286,"am":287,"ĠĠĠĠĠĠĠ":288,"Ġm":289,"el":290,"Ġto":291,"Ġand":292,"Ġn":293,"Ġre":294,"Ġh":295,"il":296,"id":297,"Ġ=":298,"om":299,"ĉĉ":300,"</":301,"Ġth":302,"ce":303,"Ġ(":304,"ur":305,"ut":306,"ol":307,"ĠS":308,"=\"":309,");":310,"im":311,"ation":312,"ig":313,"ad":314,"se":315,"ex":316,"ot":317,"Ġl":318,"ĠT":319,"od":320,"ĠC":321,"iv":322,"--":323,"Ġ{":324,"ag":325,"Ġ<":326,"ĠA":327,"if":328,"ac":329,"ul":330,"ĠĠĠĠĠĠĠĠĠĠĠ":331,"em":332,"un":333,"//":334,"th":335,"pe":336,"ay":337,"Ġv":338,"Ġ*":339,"Ġg":340,"ĠI":341,"ate":342,"ch":343,"ow":344,"tr":345,"ue":346,"Ġis":347,"Ġst":348,"čĊ":349,"âĢ":350,"ass":351,"ab":352,"us":353,"ĠM":354,"um":355,"ers":356,"Ġfor":357,"oc":358,"pt":359,"ist":360,"ame":361,"ly":362,"ĠP":363,"Ġ}":364,"\">":365,"ap":366,"Ġon":367,"ht":368,"ir":369,"Ġbe":370,"ter":371,"av":372,"Ġ\"":373,"ith":374,"ction":375,"ĠB":376,"Ġcon":377,"ew":378,"lass":379,"Ġ$":380,"Ġe":381,"ub":382,"ver":383,"ĠĠĠĠĠĠĠĠĠĠĠĠĠĠĠĠ":384,"ĠR":385,"and":386,"ĠD":387,"ess":388,"ss":389,"age":390,"ort":391,"()":392,"up":393,"ĠĠĠĠĠ":394,"our":395,"end":396,"**":397,"ef":398,"20":399,"ĠF":400,"ĠH":401,"urn":402,"ri":403,"qu":404,"ĠL":405,"op":406,"sp":407,"li":408,"Ġthat":409,"est":410,"ĠN":411,"ect":412,"Ġwith":413,"nt":414,"..":415,"ain":416,"Ġal":417,"Ġpro":418,"ĠG":419,"==":420,"ĠE":421,"ext":422,"ĠW":423,"----":424,"turn":425,"ype":426,"Ġwh":427,"Ġan":428,"ke":429,"ment":430,"ine":431,"Ġit":432,"Ġ\\":433,"ore":434,"Ġclass":435,"rom":436,"Ġas":437,"con":438,"art":439,"able":440,"ity":441,"ack":442,"Ġ'":443,"og":444,"port":445,"get":446,"ĠThe":447,"lic":448,"ode":449,"Ġy":450,"iz":451,"Ġthis":452,"Ġif":453,"ure":454,"Ġr":455,"ile":456,"Ġcom":457,"ult":458,"Ġor":459,"all":460,"os":461,"ere":462,"Ġwas":463,"ert":464,"ĠĠĠĠĠĠĠĠĠĠĠĠĠĠĠ":465,"Ġby":466,"Ġat":467,"ight":468,"ĠO":469,"Ġex":470,"ans":471,"19":472,"ill":473,"str":474,"ath":475,"ption":476,"ang":477,"00":478,"ec":479,"ld":480,"ive":481,"->":482,"ies":483,"int":484,"Ġtr":485,"ata":486,"ial":487,"Ġ//":488,"pl":489,"ant":490,"ĠJ":491,"orm":492,"ind":493,"ud":494,"In":495,"Ġfrom":496,"âĢĻ":497,"ref":498,"Ġreturn":499,"Ġhe":500,"act":501,"::":502,"Ġare":503,"ep":504,"ase":505,"ast":506,"alue":507,"Ġ</":508,"com":509,"Ġ&":510,"ff":511,"ib":512,"ĉĉĉĉ":513,"are":514,"ary":515,"../":516,"ject":517,"ev":518,"ace":519,"ĠU":520,"ire":521,"eg":522,"out":523,"Ġch":524,"ov":525,"ord":526,"Ġ-":527,"und":528,"ip":529,"Con":530,"ard":531,"ber":532,"Ġnot":533,"Ġse":534,"ource":535,"ublic":536,"ug":537,"Ġ@":538,"lo":539,"ost":540,"ated":541,"Ġ[":542,"Ġsh":543,"pro":544,"\",":545,"Ġle":546,"ime":547,"ok":548,"ust":549,"aram":550,"ign":551,"ice":552,"St":553,"ave":554,"unction":555,"'s":556,"Ġnew":557,"res":558,"ak":559,"ide":560,"loc":561,"Ġwe":562,"(\"":563,"),":564,"();":565,"ml":566,"ell":567,"ition":568,"Ġ/":569,"ĠâĢ":570,"Ġint":571,"ite":572,"Ġj":573,"elf":574,").":575,"ild":576,"ple":577,"ia":578,"per":579,"dd":580,"ong":581,"essage":582,"erv":583,"cri":584,"div":585,"201":586,"The":587,"ull":588,"ĠK":589,"ork":590,"></":591,"set":592,"ĠV":593,"tring":594,"span":595,"text":596,"form":597,"cl":598,"put":599,"--------":600,"ĠĊ":601,"Ġus":602,"Ġ+":603,"',":604,"ory":605,"ance":606,"cc":607,"ize":608,"one":609,"Ġpl":610,"ich":611,"ĠIn":612,"Ex":613,"rr":614,"row":615,"ould":616,"que":617,"ail":618,"><":619,"****":620,"ge":621,"ress":622,"ens":623,"Ġ*/":624,"ob":625,"import":626,"ear":627,"====":628,"../../":629,"ical":630,"Ġyou":631,"ence":632,"Ġres":633,"err":634,"Ġname":635,"Ġ.":636,"ĠSt":637,"ink":638,"use":639,"Ġstr":640,"_{":641,"Ġpublic":642,"Ġ|":643,"Ġcan":644,"Ġk":645,"Ġhave":646,"iew":647,"sh":648,"Ġ:":649,"ll":650,"ĠTh":651,"Ġun":652,"iel":653,"enc":654,"ĉĉĉ":655,"ĠĠĠĠĠĠĠĠĠĠĠĠĠĠĠĠĠĠĠ":656,"Ġhas":657,"pp":658,"ft":659,"Ġall":660,"('":661,"ount":662,"ele":663,"ph":664,"html":665,"ĠĠĠĠĠĠĠĠĠ":666,"name":667,"ach":668,"ther":669,"ents":670,"hen":671,"ield":672,"Ġab":673,"ER":674,"so":675,"du":676,"Ġcont":677,"ra":678,"Ġhref":679,"eth":680,"oid":681,"Pro":682,"this":683,"Name":684,"tp":685,"Ġfunction":686,"te":687,"own":688,"ener":689,"che":690,"Ġget":691,"ool":692,"eb":693,"ations":694,"Ġdef":695,"fig":696,"Ġhis":697,"))":698,"source":699,"ck":700,"ma":701,"Ġpr":702,"Type":703,"message":704,"ON":705,"ous":706,"10":707,"Ġdo":708,"inal":709,"Ġ#":710,"tern":711,"param":712,"ĠCh":713,"bject":714,"yst":715,"Ġwhich":716,"ual":717,"ator":718,"Ġout":719,"quest":720,"pr":721,"ian":722,"String":723,"Ġwill":724,"ree":725,"Ġ_":726,"IN":727,"trans":728,"Id":729,"lation":730,"key":731,"ome":732,"roup":733,"ry":734,"irst":735,"Ġset":736,"ery":737,"alse":738,"Ġvar":739,"Ġtype":740,"td":741,"Ġbut":742,"ound":743,"ook":744,"les":745,"Ġar":746,"ark":747,"Ġup":748,"return":749,"##":750,"Ġ=>":751,"ish":752,"ne":753,"code":754,"app":755,"clud":756,"vent":757,"over":758,"atic":759,"{\\":760,"Ġvalue":761,"Ġim":762,"ystem":763,"200":764,"eng":765,"ix":766,"Ġcomp":767,"atch":768,"pec":769,"/>":770,"Re":771,"ings":772,"RE":773,"col":774,"lock":775,"erm":776,"Ġro":777,"to":778,"fo":779,"led":780,"old":781,"ict":782,"cript":783,"odel":784,"oint":785,"Ġone":786,"Ġdis":787,"cre":788,"Ġ!":789,"pert":790,"ache":791,"io":792,"rit":793,"low":794,"fer":795,"ake":796,"pect":797,"ax":798,"\"/>":799,"âĢĿ":800,"ser":801,"oth":802,"ates":803,"Ġself":804,"ions":805,"Com":806,"Res":807,"ethod":808,"ames":809,"ĠY":810,"://":811,"ont":812,"arg":813,"type":814,"uild":815,"Ġwere":816,"add":817,"Ġass":818,"Ġme":819,"mer":820,"class":821,"ault":822,"18":823,"translation":824,"List":825,"Ġtheir":826,"ception":827,"ST":828,"Ġ==":829,"ors":830,"lect":831,"Ġdata":832,"Ġcol":833,"Ġ$\\":834,"ock":835,"def":836,"aw":837,"Ġpart":838,"Ġel":839,"AT":840,"rap":841,"ick":842,"fr":843,"cal":844,"ange":845,"__":846,"ng":847,"Ġalso":848,"12":849,"ove":850,"ute":851,"math":852,"Ġconst":853,"Ġwho":854,"Ġline":855,"uct":856,"urre":857,"abel":858,"Ch":859,"Th":860,"Ġnull":861,"line":862,"Ġid":863,"Ġthey":864,"umber":865,"bo":866,"iss":867,"itle":868,"Ġmore":869,"val":870,"Ġsu":871,"Ġso":872,"ey":873,"Ġi":874,"\"><":875,"Ġman":876,"Ġvoid":877,"fter":878,"Ġadd":879,"ater":880,"Ġover":881,"Ġpre":882,"OR":883,"Ġend":884,"ely":885,"ays":886,"http":887,"ics":888,"qual":889,"ton":890,"self":891,"wo":892,"Ġag":893,"nc":894,"));":895,"ĠIt":896,"read":897,"ie":898,"Ġper":899,"Ġtime":900,"lement":901,"ember":902,"ann":903,"Ġsp":904,"Ġwhen":905,"LE":906,"Ġgo":907,"sum":908,"cont":909,"Ġ`":910,"ersion":911,"ĠUn":912,"round":913,"Ġne":914,"Ġ||":915,"Ġde":916,"ivate":917,"Ġdes":918,"Ġwork":919,"Ġfirst":920,"Ġcl":921,"ervice":922,"16":923,"rray":924,"Ġ>":925,"ader":926,"we":927,"Ġother":928,"trib":929,"Ġher":930,"var":931,"string":932,"ific":933,"amp":934,"********":935,"Ġfalse":936,"son":937,"AR":938,"igh":939,"Ġen":940,"Ġhad":941,"arch":942,"):":943,"----------------":944,"ĠĠĠĠĠĠĠĠĠĠĠĠĠĠĠĠĠĠĠĠĠĠĠ":945,"ID":946,"ature":947,"gr":948,"\");":949,"ms":950,"pon":951,"ĠĠĠĠĠĠĠĠĠĠĠĠĠ":952,"},":953,"anc":954,"ument":955,"Ġbeen":956,"ask":957,"ĠHe":958,"ĠâĢľ":959,"Ġtrue":960,"urrent":961,"ash":962,"ifi":963,"yp":964,"ues":965,"Ġany":966,"ose":967,"Ġabout":968,"Tr":969,"ptions":970,"cess":971,"data":972,"Ġits":973,"org":974,"Ġinter":975,"Ġerr":976,"Ġsup":977,"yle":978,"Value":979,"co":980,"hed":981,"Ġcre":982,"ative":983,"ava":984,"quire":985,"Ġund":986,"AL":987,"Data":988,"Ġad":989,"back":990,"}}":991,"right":992,"Ġcomm":993,"Ġresult":994,"ise":995,"EN":996,"tem":997,"Ġap":998,"Ġelse":999,"Ġli":1000,"Cont":1001,"ĠâĢĵ":1002,"Ġyear":1003,"ccess":1004,"ons":1005,"11":1006,"Ġorg":1007,"////":1008,"Col":1009,"of":1010,"ade":1011,"idth":1012,"ĠThis":1013,"Ġoff":1014,"file":1015,"irect":1016,"ym":1017,"perty":1018,"nb":1019,"ength":1020,"Ġ)":1021,"ational":1022,"Ġapp":1023,"lient":1024,"========":1025,"ys":1026,"ond":1027,"ule":1028,"To":1029,"pos":1030,"ĠCom":1031,"Ġrec":1032,"Ġinto":1033,"Ġ/**":1034,"uth":1035,"SS":1036,"min":1037,"Ġinst":1038,"Ġno":1039,"ca":1040,"Ġplay":1041,"\")":1042,"^{":1043,"Ġsub":1044,"cond":1045,"value":1046,"oug":1047,"Ġstring":1048,"Ġonly":1049,"arget":1050,"Set":1051,"15":1052,"ating":1053,"ole":1054,"}\\":1055,"uff":1056,"Ġval":1057,"nbsp":1058,"Ġtest":1059,"Ġte":1060,"ve":1061,"ople":1062,"px":1063,"Ġ--":1064,"ĠPro":1065,"Ġpe":1066,"work":1067,"ample":1068,"ĠĠĠĠĠĠ":1069,"Ġuse":1070,"ner":1071,"the":1072,"Exception":1073,"Ġthere":1074,"raph":1075,"Ġev":1076,"ĠĠĠĠĠĠĠĠĠĠĠĠĠĠĠĠĠĠĠĠĠĠĠĠĠĠĠĠĠĠĠĠ":1077,"log":1078,"Ġact":1079,"Ġtwo":1080,"Ġwould":1081,"Ġyour":1082,"date":1083,"Ġreg":1084,"Err":1085,"ww":1086,"Ġem":1087,"ody":1088,"Ġback":1089,"lection":1090,"roid":1091,"ta":1092,"Ġind":1093,"Ġfinal":1094,"Ġthan":1095,"Ġspec":1096,"ream":1097,"new":1098,"Ġinclud":1099,"its":1100,"ages":1101,"location":1102,"ious":1103,"($":1104,"ble":1105,"];":1106,"...":1107,"Ġfile":1108,"ee":1109,"Ġ///":1110,"ternal":1111,"Ġstatic":1112,"ĠAr":1113,"view":1114,"test":1115,"}$":1116,"Ġ&&":1117,"Ġsome":1118,"ning":1119,"ins":1120,"32":1121,"Ġsc":1122,"Object":1123,"ution":1124,"ased":1125,"ular":1126,"action":1127,"eta":1128,"mary":1129,"atus":1130,"Ġloc":1131,"Ġ!=":1132,"pre":1133,"Ġqu":1134,"ited":1135,"ĠString":1136,"oy":1137,"br":1138,"CT":1139,"Ġtrans":1140,"ider":1141,"bar":1142,"DE":1143,"ished":1144,"Ġfil":1145,"ined":1146,"Test":1147,"Ref":1148,"der":1149,"25":1150,"ible":1151,"Ġshe":1152,"ward":1153,"ern":1154,"egin":1155,"Get":1156,"Ġ%":1157,"ugh":1158,"().":1159,"Ġbet":1160,"Ġx":1161,"']":1162,"Ġsa":1163,"land":1164,"Ġafter":1165,"IT":1166,"')":1167,"ts":1168,"item":1169,"Ġkn":1170,"14":1171,"ility":1172,"Ġlist":1173,"Ġrem":1174,"Ġchar":1175,"At":1176,"ps":1177,"());":1178,"Ġform":1179,"Ġprivate":1180,"olog":1181,"âĢĵ":1182,"arent":1183,"ices":1184,"ement":1185,"Ġcase":1186,"ĠNew":1187,"rc":1188,"heck":1189,"ĠTr":1190,"size":1191,"ollow":1192,"Ġour":1193,"Ġunder":1194,"SE":1195,"13":1196,"ank":1197,"Ġused":1198,"ities":1199,"17":1200,"Ġent":1201,"not":1202,"evel":1203,"199":1204,"Ġwhere":1205,"Key":1206,"Error":1207,"label":1208,"Ġthem":1209,"Ġdec":1210,"eter":1211,"orld":1212,"ments":1213,"link":1214,"be":1215,"ally":1216,"Ġprov":1217,"resent":1218,"Ġmay":1219,"(\\":1220,"ME":1221,"play":1222,"Ġbo":1223,"._":1224,"AN":1225,"Ġthen":1226,"ĠCon":1227,"Ġfe":1228,"press":1229,"begin":1230,"ting":1231,"list":1232,"Ġmy":1233,"File":1234,"pen":1235,"cent":1236,"Im":1237,"View":1238,"ĠEx":1239,"Ġob":1240,"roll":1241,"ences":1242,"rol":1243,"Un":1244,"left":1245,"En":1246,"ĠĠĠĠĊ":1247,"ĠSh":1248,"air":1249,"indow":1250,"ets":1251,"'t":1252,"['":1253,"umn":1254,"anag":1255,"By":1256,"face":1257,"ivers":1258,"sub":1259,"Class":1260,"Ġlike":1261,"public":1262,"red":1263,"Qu":1264,"\";":1265,"ru":1266,"rough":1267,"summary":1268,"arr":1269,"Ġkey":1270,"ĉĉĉĉĉ":1271,"\"></":1272,"Ġstart":1273,"Ġpeople":1274,"oun":1275,".</":1276,"script":1277,"ler":1278,"for":1279,"CO":1280,"100":1281,"Ġam":1282,"index":1283,"Ġpol":1284,"Ind":1285,"als":1286,"ower":1287,"Ġshould":1288,"ily":1289,"nav":1290,"az":1291,"30":1292,"Ġobject":1293,"Ġco":1294,"ger":1295,"ify":1296,"order":1297,"struct":1298,"ars":1299,"Ġrel":1300,"ren":1301,"any":1302,"Ġdif":1303,"');":1304,"wn":1305,"Ġnumber":1306,"pace":1307,"uring":1308,"util":1309,"ĠAn":1310,"ĠAl":1311,"js":1312,"ttp":1313,"load":1314,"ized":1315,"ince":1316,"mod":1317,"Ġac":1318,"url":1319,"Ġinv":1320,"vel":1321,"go":1322,"meric":1323,"let":1324,"He":1325,"by":1326,"epend":1327,"(),":1328,"function":1329,"ĠRe":1330,"ines":1331,"oot":1332,"Sh":1333,"Ġfollow":1334,"Ġjust":1335,"ision":1336,"cription":1337,"UL":1338,"Ġser":1339,"inter":1340,"ists":1341,"field":1342,"sc":1343,"rite":1344,"ocument":1345,"Ġgr":1346,"Ġneed":1347,"Ġshow":1348,"ient":1349,"oss":1350,"=\"../../":1351,"Ġcall":1352,"Ġph":1353,"ott":1354,"time":1355,"ween":1356,"Ġwhat":1357,"Ġgener":1358,"top":1359,"ason":1360,"reak":1361,"!--":1362,"ough":1363,"uffer":1364,"til":1365,"Ġ/>":1366,"Ġhim":1367,"iver":1368,"Ġmethod":1369,"lay":1370,"],":1371,"RO":1372,"lang":1373,"ah":1374,"quot":1375,"An":1376,"Ġmod":1377,"Ġprodu":1378,"imes":1379,"Ġhow":1380,"void":1381,"att":1382,"other":1383,"Ġcons":1384,"Ġmost":1385,"apt":1386,"const":1387,"try":1388,"Ġthrough":1389,"ackage":1390,"Ġsuch":1391,"ION":1392,"par":1393,"Ġsaid":1394,"Ġever":1395,"Time":1396,"})":1397,"orn":1398,"group":1399,"me":1400,"Ar":1401,"fore":1402,"reg":1403,"Ġdist":1404,"dis":1405,"Ġext":1406,"Ġtitle":1407,"\":":1408,"cept":1409,"osition":1410,"Ġlong":1411,"ĠSe":1412,"50":1413,"reat":1414,"ful":1415,"Event":1416,"yn":1417,"ified":1418,"Request":1419,"Ġacc":1420,"ĠWe":1421,"Ġdr":1422,"path":1423,"ouse":1424,"lob":1425,"64":1426,"Ġarg":1427,"oad":1428,"Ġrun":1429,"].":1430,"opy":1431,"oci":1432,"_{\\":1433,"Ġassert":1434,"PE":1435,"ogle":1436,"table":1437,"LA":1438,"/*":1439,"Text":1440,"Ġrequire":1441,"ush":1442,"ense":1443,"chool":1444,"uration":1445,"Ġoper":1446,"ik":1447,"comm":1448,"Ġread":1449,"Ġ);":1450,"user":1451,"md":1452,"ĠIf":1453,"=\"+":1454,"}{":1455,"Ġfield":1456,"ident":1457,"ife":1458,"Ġhigh":1459,"ister":1460,"ces":1461,"Node":1462,"22":1463,"formation":1464,"Add":1465,"ession":1466,"ood":1467,"``":1468,"Ġbetween":1469,"Ġhand":1470,"####":1471,"Ġstud":1472,"Ġparam":1473,"ains":1474,"Info":1475,"Ġ?":1476,"Path":1477,"Ġmin":1478,"utton":1479,"evelop":1480,"erson":1481,"Ġthese":1482,"Element":1483,"Ġthrow":1484,"':":1485,"Ġcurrent":1486,"wh":1487,"Ġagain":1488,"Ġpoint":1489,"TE":1490,"Ġed":1491,"ground":1492,"On":1493,"Int":1494,"Ġresp":1495,"Ġsign":1496,"ote":1497,"Ġbr":1498,"For":1499,"ĠZ":1500,"Ġright":1501,"way":1502,"tribute":1503,"equ":1504,"unc":1505,"())":1506,"Config":1507,"fl":1508,"ector":1509,"Ġgroup":1510,"Param":1511,"olean":1512,"Ġcal":1513,"ted":1514,"ale":1515,"/**":1516,"ants":1517,"man":1518,"Ġsystem":1519,"edia":1520,"Ġfound":1521,"ared":1522,"oh":1523,"Item":1524,"\"\"":1525,"Ġfl":1526,"ization":1527,"000":1528,"mall":1529,"TR":1530,"ĠCol":1531,"raw":1532,"Ġsee":1533,"ui":1534,"ĠFor":1535,"24":1536,"Ġusing":1537,"Ġdet":1538,"Index":1539,"Ġsim":1540,"Ġgiv":1541,"Context":1542,"Ġrep":1543,"ateg":1544,"Map":1545,"$.":1546,"ride":1547,"Ġwell":1548,"AC":1549,"Field":1550,"Ġdiffer":1551,"includ":1552,"Ġcould":1553,"ected":1554,"Ġexpect":1555,"her":1556,"Ġyears":1557,"Ġwhile":1558,"eq":1559,"IC":1560,"ainer":1561,"Ġrequest":1562,"amespace":1563,"config":1564,"ĠAmeric":1565,"ency":1566,"lp":1567,"Ġbefore":1568,"Ġstate":1569,"Ġnow":1570,"onse":1571,"itor":1572,"uch":1573,"Ġmake":1574,"rem":1575,"word":1576,"ĠAs":1577,"itial":1578,"stance":1579,"Refer":1580,"frac":1581,"api":1582,"Ġdoes":1583,"gram":1584,"As":1585,"Ġeach":1586,"cle":1587,"ric":1588,"Ġcor":1589,"ĠX":1590,"ced":1591,"length":1592,"Ġsupport":1593,"State":1594,"198":1595,"Ġ/*":1596,"Def":1597,"Ġfr":1598,"uilder":1599,"Equal":1600,"PI":1601,"aj":1602,"Ġerror":1603,"Ġbeing":1604,"Ġsize":1605,"ĠĠĠĠĠĠĠĠĠĠĠĠĠĠĠĠĠĠĠĠĠĠĠĠĠĠĠ":1606,"Ġmodel":1607,"bers":1608,"Ġ(!":1609,"ĠWh":1610,"color":1611,"des":1612,"anager":1613,"Ġimport":1614,"Code":1615,"With":1616,"ĠInd":1617,"Ġpass":1618,"oken":1619,"Over":1620,"UR":1621,"https":1622,"$,":1623,"Form":1624,"Ġsame":1625,"width":1626,"Ġ-->":1627,"tt":1628,"arn":1629,"day":1630,"Service":1631,"lose":1632,"ats":1633,"apache":1634,"ever":1635,"Ġdefault":1636,"mp":1637,"ĠQ":1638,"Des":1639,"****************":1640,"ypes":1641,"irt":1642,"Ġlast":1643,"Ġeff":1644,"uss":1645,"dt":1646,"Size":1647,"Ġdirect":1648,"';":1649,"iversity":1650,"uthor":1651,"ustom":1652,"Ġcomple":1653,"Array":1654,"title":1655,"true":1656,"ox":1657,"Ġevent":1658,"ĠRes":1659,"33":1660,"21":1661,"ier":1662,"Ġ});":1663,"ism":1664,"search":1665,"pty":1666,"Not":1667,"map":1668,"ather":1669,"Ġarray":1670,"orth":1671,"};":1672,"object":1673,"nection":1674,"resp":1675,"Ġcent":1676,"aint":1677,"ags":1678,"Ġart":1679,"assert":1680,"ync":1681,"ait":1682,"Ġdid":1683,"Ġevery":1684,"ures":1685,"ron":1686,"prot":1687,"Or":1688,"Ġatt":1689,"ĠIs":1690,"cause":1691,"enu":1692,"etwork":1693,"Ġ},":1694,"amb":1695,"result":1696,"////////":1697,"Ġsecond":1698,"lish":1699,"block":1700,"40":1701,"rop":1702,"Ġmany":1703,"Al":1704,"ship":1705,"mit":1706,"Ġhttp":1707,"lication":1708,"Ã©":1709,"igned":1710,"icon":1711,"='":1712,"input":1713,"[]":1714,"Ġaut":1715,"uf":1716,"bs":1717,".\"":1718,"Ġbecause":1719,"box":1720,"Ġcontent":1721,"eters":1722,"ports":1723,"off":1724,"Result":1725,"ĠAnd":1726,"ek":1727,"ponent":1728,"Ġelement":1729,"Hand":1730,"ends":1731,"valid":1732,"ĠFr":1733,"Ġmem":1734,"ilter":1735,"alk":1736,"Ġknow":1737,"Ġu":1738,"Ġmon":1739,"eturn":1740,"model":1741,"Ġwrit":1742,"Ġsur":1743,"plate":1744,"my":1745,"error":1746,"Message":1747,"create":1748,"FF":1749,"outh":1750,"Ġlink":1751,"ically":1752,"Ġtarget":1753,"from":1754,"Ġprocess":1755,"Ġsol":1756,"AD":1757,"ball":1758,"wit":1759,"af":1760,"evice":1761,"pi":1762,"Ġbel":1763,"iter":1764,"arm":1765,"Ġmade":1766,"Ġtext":1767,"abled":1768,"Ġuser":1769,"ension":1770,"node":1771,"overn":1772,"utes":1773,"Ġz":1774,"ology":1775,"ĠSc":1776,"LO":1777,"amily":1778,"ross":1779,"idd":1780,"Ġserv":1781,"android":1782,"Ġboth":1783,"Of":1784,"System":1785,"ane":1786,"rm":1787,"ience":1788,"IG":1789,"UT":1790,"gt":1791,"Ġfind":1792,"fin":1793,"less":1794,"This":1795,"Ġlook":1796,"=\"../../../../":1797,"++":1798,"aining":1799,"Ġeven":1800,"Fr":1801,"Ġpar":1802,"Ġlog":1803,"ived":1804,"rib":1805,"lt":1806,"}.":1807,"bf":1808,"ĠDe":1809,"Ġest":1810,"body":1811,"urs":1812,"ingle":1813,"23":1814,"info":1815,"Ġjava":1816,"loat":1817,"ING":1818,"ission":1819,"197":1820,"ives":1821,"Ġchild":1822,"ĠSystem":1823,"Ġteam":1824,">&":1825,"âĢľ":1826,",\\":1827,";&":1828,"Val":1829,"Ġcheck":1830,"Ġprot":1831,"ten":1832,"Ġ:=":1833,"Ġdown":1834,"default":1835,"java":1836,"uck":1837,"Is":1838,"www":1839,"Ġway":1840,"60":1841,"Ġtop":1842,"lobal":1843,"Ġduring":1844,"HE":1845,"Ġown":1846,"ually":1847,"ots":1848,"reate":1849,"aking":1850,"istory":1851,"head":1852,"Model":1853,"next":1854,"rec":1855,"cite":1856,"da":1857,"pha":1858,"Ġrele":1859,"version":1860,"ari":1861,"ĠOn":1862,"ury":1863,"Ġthree":1864,"array":1865,"Ġsrc":1866,"Ġmust":1867,"Loc":1868,"ĠLe":1869,"Ġgu":1870,"Ġbuild":1871,"iled":1872,"uc":1873,"ails":1874,"ĠPh":1875,"els":1876,"ina":1877,"Ġbl":1878,"Ġinformation":1879,"content":1880,"MA":1881,"Ġdevelop":1882,"Ġconfig":1883,"start":1884,"ĠCl":1885,"Table":1886,"iev":1887,"comp":1888,"--------------------------------":1889,"Ġdifferent":1890,"mb":1891,"Ġtry":1892,"We":1893,"alth":1894,"Ġvery":1895,"Out":1896,"chn":1897,"Log":1898,"cope":1899,"Ġvis":1900,"ained":1901,"Ġstruct":1902,"Ġbreak":1903,"Ġhere":1904,"ĠGet":1905,"Ġgiven":1906,"Ġmov":1907,"Ġ__":1908,".âĢĿ":1909,"usic":1910,"All":1911,"section":1912,"Ġorder":1913,"Ġcreate":1914,"ĠYou":1915,"Ġ===":1916,"ponse":1917,"Manager":1918,"IS":1919,"ases":1920,"ĠPr":1921,"side":1922,"App":1923,"include":1924,"point":1925,"ML":1926,"ied":1927,"Ġref":1928,"Ġtem":1929,"net":1930,"Ġperform":1931,"Ġopen":1932,"Query":1933,"ural":1934,"ULL":1935,"elete":1936,"Ġwant":1937,"option":1938,"Ġnon":1939,"ĠĠĠĠĠĠĠĠĠĠ":1940,"Ġlocal":1941,"ouble":1942,"Ser":1943,"vert":1944,"Ġcode":1945,"Ġcontin":1946,"perties":1947,"define":1948,"ET":1949,"ename":1950,"Up":1951,"using":1952,"iginal":1953,"bol":1954,"package":1955,"aster":1956,"ources":1957,".,":1958,"Ġstyle":1959,"med":1960,"Ġleft":1961,"Ġnext":1962,"nder":1963,"ital":1964,"ification":1965,"ED":1966,"================":1967,"actory":1968,"User":1969,"Ġallow":1970,"Ġworld":1971,"css":1972,"References":1973,"Ġpath":1974,"Ġfollowing":1975,"27":1976,"Ġdon":1977,"tings":1978,"base":1979,"Color":1980,"ĠAss":1981,"Ġblock":1982,"ĉĉĉĉĉĉ":1983,"bb":1984,"mathcal":1985,"tes":1986,"aces":1987,"odes":1988,"Ġversion":1989,"state":1990,"Ġrecord":1991,"uk":1992,"iness":1993,"ĠUniversity":1994,"Ġdisc":1995,"Ġ};":1996,"false":1997,"2019":1998,"28":1999,"context":2000,"ret":2001,"Ġmark":2002,"method":2003,"Property":2004,"Ð°":2005,"Wh":2006,"uage":2007,"roller":2008,"Group":2009,"Ġappro":2010,"Inter":2011,"UN":2012,"TD":2013,"Ġexp":2014,"ling":2015,"ender":2016,"tn":2017,"ential":2018,"ohn":2019,"ium":2020,"web":2021,"equation":2022,"google":2023,"ware":2024,"Ġpartic":2025,"MP":2026,"akes":2027,"Ġnil":2028,"ĠOr":2029,"Ġinput":2030,"From":2031,"ĠMar":2032,"Ġmat":2033,"max":2034,"AB":2035,"ebug":2036,"umer":2037,"ides":2038,"oin":2039,"Ġthose":2040,"Ġbeg":2041,"elta":2042,"ĠShe":2043,"part":2044,"istr":2045,"Ġhelp":2046,"efore":2047,"Ġcontext":2048,"=\"../":2049,"ene":2050,"ailable":2051,"ness":2052,";</":2053,"Reg":2054,"arly":2055,"Pl":2056,"Ġmet":2057,"acter":2058,"Ġnode":2059,"lick":2060,"Ġview":2061,"tract":2062,"Ġav":2063,"urity":2064,"db":2065,"ior":2066,"Ġcoun":2067,"Ġrece":2068,"place":2069,"vious":2070,"Ð¾":2071,"Ġinstance":2072,"ENT":2073,"ottom":2074,"light":2075,"ĠĠĠĠĠĠĠĠĠĠĠĠ":2076,"iving":2077,"OT":2078,"Ġpop":2079,"26":2080,"icy":2081,"ymbol":2082,"aut":2083,"Ġitem":2084,"Ġbool":2085,"sw":2086,"imit":2087,"=\"#":2088,"Ġgood":2089,"Ġcar":2090,"core":2091,"Comm":2092,"New":2093,"ograph":2094,"down":2095,"ES":2096,"Client":2097,"And":2098,"itions":2099,"Ġmuch":2100,"Ġbase":2101,"Ġpost":2102,")$":2103,"doc":2104,"cale":2105,"Ġindex":2106,"no":2107,"ĠAmerican":2108,"Count":2109,"Response":2110,"Ġcr":2111,"29":2112,"Ġhead":2113,"Ġlead":2114,"elect":2115,"ift":2116,"Ġreal":2117,"}(":2118,"OD":2119,">(":2120,"Ġbro":2121,"ifier":2122,"Ġlet":2123,"ided":2124,"Ġstd":2125,"pression":2126,"Ġoptions":2127,"ns":2128,"Call":2129,"ume":2130,"ĠAd":2131,"Trans":2132,"ination":2133,"ump":2134,"Override":2135,"count":2136,"}_":2137,"bl":2138,"ley":2139,"ĠGr":2140,"Ġvari":2141,"static":2142,"lished":2143,"Ġcle":2144,"itt":2145,"ctions":2146,"ches":2147,"Arg":2148,"Ġposition":2149,"ĠEng":2150,"Ġca":2151,"ony":2152,"IL":2153,"Ġterm":2154,"namespace":2155,"Ġagainst":2156,"ithub":2157,"serv":2158,"sk":2159,"Dis":2160,"check":2161,"Ġlevel":2162,")</":2163,"ands":2164,"Ġthink":2165,"Ġgame":2166,"come":2167,"Ġvalues":2168,"Ġproject":2169,"por":2170,"event":2171,"alpha":2172,"sup":2173,"Ġsince":2174,"ape":2175,"iron":2176,"refer":2177,"eger":2178,"ĠÐ":2179,"Ġstill":2180,"duct":2181,"AS":2182,"Ġold":2183,"lected":2184,"Ġincluding":2185,"call":2186,"earch":2187,"print":2188,"usiness":2189,"Builder":2190,"ĠAt":2191,"ched":2192,"irtual":2193,"Ġcommun":2194,"omen":2195,"ĠUnited":2196,"ĠMay":2197,"Pr":2198,"Ġsom":2199,"80":2200,"Ġplace":2201,"Ġtable":2202,"Ġmax":2203,"99":2204,"Ġcalled":2205,"Ġop":2206,"Stream":2207,"ĠAll":2208,"ĠBr":2209,"bed":2210,"ivity":2211,"Method":2212,"ird":2213,"AME":2214,"\".":2215,"arge":2216,"Ġfin":2217,"âĢ¦":2218,"Ġdep":2219,"ideo":2220,"CE":2221,"<!--":2222,"github":2223,"Ġsource":2224,"ilt":2225,"}^":2226,"argin":2227,"66":2228,"ulation":2229,"align":2230,"Ġappe":2231,"iction":2232,"ounc":2233,"une":2234,"Mod":2235,"ability":2236,"2018":2237,"Ġmessage":2238,"ocus":2239,"ĠSet":2240,"Ġprogram":2241,"2017":2242,"Ġpat":2243,"ral":2244,"\\\\":2245,"cast":2246,"ĠPl":2247,"uro":2248,"Ġperson":2249,"TH":2250,"Cl":2251,"Ġtake":2252,"It":2253,"amed":2254,"Ðµ":2255,"ai":2256,"2016":2257,"ĠâĢĶ":2258,"ĠĠĊ":2259,"ormal":2260,"2015":2261,"Ġandroid":2262,"func":2263,"Ġcolor":2264,"Ġ()":2265,"Ġmult":2266,"options":2267,"Bar":2268,"fe":2269,"button":2270,"Ġbook":2271,"Ġexample":2272,"icle":2273,"Ġfeature":2274,"US":2275,"])":2276,"Ġaround":2277,"Input":2278,"style":2279,"Ġresponse":2280,"Ġdel":2281,"uments":2282,"45":2283,"Ġposs":2284,"ploy":2285,"Ġlife":2286,"ĠHow":2287,"Ġfact":2288,"sl":2289,"~\\":2290,"ustr":2291,"Ġ,":2292,"Ġaddress":2293,"Ġret":2294,"ĠList":2295,"rix":2296,"itional":2297,"Util":2298,"query":2299,"ules":2300,"Ġexper":2301,"ĠComm":2302,"ql":2303,"ansp":2304,"IP":2305,"ĠJan":2306,"ety":2307,"Date":2308,"ux":2309,"see":2310,"Ph":2311,"Image":2312,"met":2313,"null":2314,"request":2315,"Ad":2316,"atab":2317,"Ġchang":2318,"Ġsmall":2319,"Rec":2320,"](":2321,"Ġeffect":2322,"Ġschool":2323,"ambda":2324,"image":2325,"Ġincre":2326,"Status":2327,"Ġrefer":2328,"ĠĠĠĠĠĠĠĠĠĠĠĠĠĠĠĠĠĠĠĠĠĠĠĠĠĠĠĠĠĠĠ":2329,"aterial":2330,"client":2331,"ended":2332,"ways":2333,"current":2334,"Ġimp":2335,"gy":2336,"plement":2337,"annel":2338,"aving":2339,"ored":2340,"pan":2341,"lib":2342,"sec":2343,"ONT":2344,"Ġday":2345,"Ġfour":2346,"Ġwithout":2347,"Block":2348,"olv":2349,"de":2350,"YPE":2351,"Ġmap":2352,"init":2353,"ĠIm":2354,"ĠĠĠĠĠĠĠĠĠĠĠĠĠĠĠĠĠ":2355,"Ġservice":2356,"Ġpresent":2357,"php":2358,"Sub":2359,"enn":2360,"Ġenc":2361,"ĠNULL":2362,"ternational":2363,"2014":2364,"viron":2365,"ively":2366,"ready":2367,"Ġdocument":2368,"Token":2369,"rist":2370,"Cell":2371,"ĠUS":2372,"ĠBl":2373,"cd":2374,"args":2375,"Ġ->":2376,"Ġpres":2377,"Ġla":2378,"dir":2379,"ĠJohn":2380,"Ġcour":2381,"oud":2382,"ised":2383,"Ġbackground":2384,"ĠCan":2385,"\\!":2386,"Ġsk":2387,"Ġborder":2388,"Ġaccess":2389,"acy":2390,"Ġ<<":2391,"Ass":2392,"nect":2393,"Ġreport":2394,"Ġmain":2395,"55":2396,"Lay":2397,"ories":2398,"Ġbest":2399,"Par":2400,"overnment":2401,"gress":2402,"Ġconsider":2403,"End":2404,"CH":2405,"=\\":2406,"IR":2407,"Ġsuccess":2408,"Str":2409,"Instance":2410,"with":2411,"Gener":2412,"Ġident":2413,"finished":2414,"oke":2415,"Ġbased":2416,"Ġboolean":2417,"((":2418,"Ġexpl":2419,"Be":2420,"chema":2421,"No":2422,"hand":2423,"Ġconf":2424,"ances":2425,"ibr":2426,"Ġcare":2427,"ixed":2428,"Ġsec":2429,"Ġproperty":2430,"Ġlater":2431,"Null":2432,"ught":2433,"Ġcond":2434,"Act":2435,"Ġanother":2436,"Ġmanag":2437,"server":2438,"Ġtri":2439,"01":2440,"Ġwidth":2441,"Ġke":2442,"ique":2443,"Ġ\"\"\"":2444,"adding":2445,"ĠBut":2446,"Ġcontrol":2447,"tx":2448,"urch":2449,"run":2450,"Ġpower":2451,"Ġiss":2452,"Nav":2453,"ĠCent":2454,"Ġdescri":2455,"ired":2456,"ĠTo":2457,"2013":2458,",âĢĿ":2459,"0000":2460,"idget":2461,"ending":2462,"Ġresults":2463,"ĠĠĠĠĠĠĠĠĠĠĠĠĊ":2464,"eps":2465,"andard":2466,"inc":2467,"Ed":2468,"ĠCar":2469,"Ġfilm":2470,"Ġchange":2471,"Ġmatch":2472,"ĠâĢĺ":2473,"jav":2474,"ĠThey":2475,"ĠPol":2476,"Ġweek":2477,"Action":2478,"Ġcount":2479,"irc":2480,"adi":2481,"Component":2482,"oop":2483,"ead":2484,"older":2485,"Ġseason":2486,"orage":2487,")\\":2488,"ately":2489,"Ġfa":2490,"Ġrepresent":2491,"CK":2492,"unfinished":2493,"Ġwithin":2494,"aff":2495,"ths":2496,"35":2497,"Ġpo":2498,"OL":2499,"REF":2500,"Line":2501,"ĠReg":2502,"stru":2503,"Ġoutput":2504,"tab":2505,"Base":2506,"Off":2507,"Ġocc":2508,"hes":2509,"Ġparent":2510,"Ġfamily":2511,"ugin":2512,"Ġknown":2513,"Ġinitial":2514,"dl":2515,"has":2516,"Options":2517,"Ġins":2518,"NS":2519,"ival":2520,"member":2521,"34":2522,"lex":2523,"External":2524,"Ġann":2525,"Ġseries":2526,"Run":2527,"adata":2528,"Ġlinks":2529,"Ġsay":2530,"ering":2531,"Handler":2532,"Ġmed":2533,"OP":2534,"ĠEn":2535,"Ġfoot":2536,"riter":2537,"EX":2538,"icro":2539,"Ġavailable":2540,"Ġorgan":2541,"Source":2542,"ĠJul":2543,"ugg":2544,"mu":2545,"[\"":2546,"Ġaction":2547,"Ġlaw":2548,"yles":2549,"AP":2550,"ords":2551,"Ġpage":2552,"dom":2553,"Ð¸":2554,"ĠNov":2555,"ourn":2556,"amma":2557,"atabase":2558,"Attribute":2559,"ĠStates":2560,"equal":2561,"ĠBe":2562,"ero":2563,"rows":2564,"header":2565,"height":2566,"Ġsingle":2567,"aim":2568,"ptr":2569,"Ġ+=":2570,"uary":2571,"anguage":2572,"oto":2573,"creen":2574,"({":2575,"Buffer":2576,"Ġinclude":2577,"ators":2578,"icense":2579,"ison":2580,"cho":2581,"frame":2582,"ls":2583,"Ġuntil":2584,"39":2585,"Âł":2586,"target":2587,"prov":2588,"uture":2589,"witch":2590,"alt":2591,"ocial":2592,"Ġequ":2593,"2020":2594,"leg":2595,"Dec":2596,"page":2597,"Ġ($":2598,"ajor":2599,"append":2600,"Sc":2601,"OS":2602,"active":2603,"Ġbeh":2604,"Ġcell":2605,"ĠTe":2606,"semb":2607,"Resource":2608,"2012":2609,"ĠWorld":2610,"If":2611,"tra":2612,"unk":2613,"ured":2614,"Oper":2615,"EL":2616,"ega":2617,"vironment":2618,"Ġadv":2619,"iod":2620,"aly":2621,"Content":2622,"parent":2623,"ĠNo":2624,"ĠTest":2625,"space":2626,"Ġsever":2627,"property":2628,"Ġoriginal":2629,"Ġcap":2630,"ven":2631,"json":2632,"Ġplayers":2633,"ecut":2634,"opt":2635,"Ġrange":2636,"ording":2637,"Task":2638,"bum":2639,"xy":2640,"otype":2641,"ĉĊ":2642,"Ġhapp":2643,"Em":2644,"Ġfull":2645,"Ġproble":2646,"illi":2647,"Ġdi":2648,"ĠAdd":2649,"Ġleg":2650,"SP":2651,"ĠĠĠĠĠĠĠĠĊ":2652,"child":2653,"Ġet":2654,"EE":2655,"ither":2656,"Ġes":2657,"wards":2658,"undle":2659,"lin":2660,"select":2661,"xml":2662,"ĠPar":2663,"Link":2664,"Comp":2665,"AG":2666,"ung":2667,"Select":2668,"Ġdem":2669,"Hel":2670,"ĠOct":2671,"37":2672,"LASS":2673,"arning":2674,"Ġmusic":2675,"book":2676,"btn":2677,"olution":2678,"Ġtechn":2679,"Ġpub":2680,"Version":2681,"ĠCal":2682,"Window":2683,"src":2684,"Function":2685,"ĠGu":2686,"build":2687,"itive":2688,"pecial":2689,"Default":2690,"status":2691,"ently":2692,"Style":2693,"Ġtoo":2694,"ĠNational":2695,"uman":2696,"Ġvalid":2697,"ÑĤ":2698,"Factory":2699,"31":2700,"Ġhome":2701,"position":2702,"Format":2703,"ĠIN":2704,"ĠĠĠĠĠĠĠĠĠĠĠĠĠĠ":2705,"do":2706,"HT":2707,"Ġspe":2708,"UE":2709,"Start":2710,"Ġbu":2711,"flow":2712,"illion":2713,"tributes":2714,"atform":2715,"âĢĶ":2716,"Ġeng":2717,"Ġfore":2718,"izer":2719,"2011":2720,"Ġ$(":2721,"ached":2722,"FA":2723,"ĠCount":2724,"ought":2725,"bit":2726,"True":2727,"ibility":2728,"Ġwin":2729,"Point":2730,"Fl":2731,"igma":2732,"element":2733,"Ġturn":2734,"sg":2735,"post":2736,"ATE":2737,"cer":2738,"ĠEd":2739,"90":2740,"Ġexist":2741,"DO":2742,"2010":2743,"rl":2744,"ague":2745,"navbar":2746,"reen":2747,"dec":2748,"ram":2749,"ialog":2750,"*/":2751,"ica":2752,"igation":2753,"icial":2754,"Ġclient":2755,"Ġsuper":2756,"44":2757,"Ġimage":2758,",\"":2759,"ĠAug":2760,"Ġtot":2761,"Frame":2762,"Ġinterest":2763,"ĠInt":2764,"ittle":2765,"Ġarea":2766,"38":2767,"ĠSchool":2768,"ĠMin":2769,"Ġfew":2770,"open":2771,"VER":2772,"ĠYork":2773,"ĠSp":2774,"Ġport":2775,"ategory":2776,"36":2777,"write":2778,"Ġput":2779,"case":2780,"ĠObject":2781,"Prov":2782,"Ġalready":2783,"196":2784,"SC":2785,"rowser":2786,"ĠGe":2787,"raft":2788,"\"]":2789,"_\\":2790,"first":2791,"ours":2792,"mathbb":2793,"require":2794,"Ġdisplay":2795,"Ġ{@":2796,"Ġexpected":2797,"ales":2798,"Ġpolit":2799,"ĠWest":2800,"Ġshort":2801,"rel":2802,"ocol":2803,"era":2804,"Ġsl":2805,"ĠReturn":2806,"imary":2807,"Ġthrows":2808,"ites":2809,"andom":2810,"ĠState":2811,"inition":2812,"}_{":2813,"Ð½":2814,"ĠCont":2815,"Ġprotected":2816,"endif":2817,"ĠCo":2818,"Ġprom":2819,"mber":2820,"Ġnear":2821,"mat":2822,"Ġopt":2823,"ians":2824,"push":2825,"Ġalong":2826,"img":2827,"imum":2828,"Read":2829,"module":2830,"ĠÂ":2831,"alf":2832,"Ġsays":2833,"resh":2834,"py":2835,"Ġstat":2836,"ĠSouth":2837,"});":2838,"Ġrequired":2839,"thing":2840,"){":2841,"hether":2842,"Ġgoing":2843,"Ġ\\\\":2844,"Number":2845,"aps":2846,"Ġresource":2847,"75":2848,"mo":2849,"ection":2850,"used":2851,"alys":2852,"ney":2853,"Ġsum":2854,"Ġdistrib":2855,"char":2856,"host":2857,"ĠRep":2858,"description":2859,"stit":2860,"meta":2861,"bottom":2862,"ober":2863,"find":2864,"-\\":2865,"Ġreally":2866,"rect":2867,"oman":2868,"Ġbusiness":2869,"private":2870,"ĠJanuary":2871,"lem":2872,"Ġnetwork":2873,"ĠNone":2874,"ks":2875,"uster":2876,"Row":2877,"Us":2878,"inary":2879,"dr":2880,"umb":2881,"\\!\\!":2882,"last":2883,"Label":2884,"Ġcharacter":2885,"Ġprint":2886,"imal":2887,"imate":2888,"Pol":2889,"nown":2890,"PRO":2891,"urther":2892,"osed":2893,"TO":2894,"aper":2895,"ĠThere":2896,"Ġnever":2897,"Create":2898,"iple":2899,"Ġgreat":2900,"ĠSo":2901,"IM":2902,"Command":2903,"hip":2904,"now":2905,"ĠApr":2906,"Ġside":2907,"FONT":2908,"(&":2909,"stream":2910,"48":2911,"}^{":2912,"ĠWar":2913,"mark":2914,"ops":2915,"lease":2916,"Check":2917,"pected":2918,"$\\":2919,"ones":2920,"ĠDr":2921,"Ġassoci":2922,"AM":2923,"signed":2924,"ging":2925,"ething":2926,"Ġvol":2927,"Part":2928,"Ġprevious":2929,"Equals":2930,"Ġload":2931,"Ġfree":2932,"font":2933,"Ġlarge":2934,"ention":2935,"ptember":2936,"ĠSup":2937,"Ġhost":2938,"FI":2939,"Ġcomput":2940,"Ġlabel":2941,"Rep":2942,"std":2943,"Filter":2944,"agn":2945,"aced":2946,"oice":2947,"Ġrest":2948,"Ġdesign":2949,"sole":2950,"imation":2951,"Button":2952,"ĠGo":2953,"ĠGener":2954,"ABLE":2955,"rior":2956,"Ġcommand":2957,"ĠBy":2958,"ights":2959,"entry":2960,"ustral":2961,"au":2962,"struction":2963,"Ġspace":2964,"ables":2965,"ĠMarch":2966,"Ġoption":2967,"Page":2968,"Return":2969,"Ġbas":2970,"Ġchildren":2971,"obj":2972,"Ġproduct":2973,"urope":2974,"GL":2975,"${":2976,"format":2977,"Ġ((":2978,"ascript":2979,"pack":2980,"ued":2981,"ĠDes":2982,"Ġra":2983,"Ġinvest":2984,"ĠBo":2985,"Ġcompany":2986,"70":2987,"strong":2988,"ably":2989,"Ġlength":2990,"########":2991,"ze":2992,"INT":2993,"Ġurl":2994,"Ġnum":2995,"Ġalways":2996,"Ġdest":2997,"Ġsong":2998,"phi":2999,"Ġcert":3000,"Ġestab":3001,"lege":3002,"pol":3003,"lambda":3004,"Ġcustom":3005,"Ġaff":3006,"ged":3007,"board":3008,"erman":3009,"195":3010,"Ġless":3011,"ament":3012,"Ġmembers":3013,"CC":3014,"Ġdepend":3015,"ĠChrist":3016,"ÑĢ":3017,"UM":3018,"ĠBrit":3019,"layout":3020,"Ġrole":3021,"Ġprof":3022,"ĠClass":3023,"heet":3024,"pc":3025,"Ġquest":3026,"pm":3027,"local":3028,"Ġseveral":3029,"Gr":3030,"Controller":3031,"Child":3032,"Ġpay":3033,"///":3034,"ada":3035,"ĠPart":3036,"ĉĉĉĉĉĉĉĉ":3037,"BU":3038,"Ġbody":3039,"igger":3040,"Ġwindow":3041,"menu":3042,"Output":3043,"sembly":3044,"^{\\":3045,"ĠCity":3046,"attr":3047,"rt":3048,"ocket":3049,"oper":3050,"mem":3051,"Listener":3052,"ho":3053,"Ġtyp":3054,"Met":3055,"cember":3056,"Ġwon":3057,"Ġdeath":3058,"ĠNot":3059,"display":3060,"gener":3061,"ster":3062,"ae":3063,"beta":3064,"Ġtotal":3065,"Ġ{\\":3066,"ĠAb":3067,"uted":3068,"stract":3069,"ĠSer":3070,"iff":3071,"Ġextends":3072,"Ġmove":3073,"apping":3074,"gle":3075,"SON":3076,"Ġheight":3077,"UI":3078,"la":3079,"////////////////":3080,"TYPE":3081,"center":3082,"update":3083,"ifact":3084,"png":3085,"ĠCounty":3086,"anch":3087,"ĠOctober":3088,"Ext":3089,"response":3090,"Ġmargin":3091,"Column":3092,"oo":3093,"omic":3094,"Ġalbum":3095,"Ġcatch":3096,"\").":3097,"len":3098,"Ġstatus":3099,"only":3100,"Ġauthor":3101,"Ġmight":3102,"ĠDef":3103,"05":3104,"close":3105,"alysis":3106,"project":3107,"Ġcolumn":3108,"ama":3109,"ana":3110,"ids":3111,"mt":3112,"Ġdue":3113,"params":3114,"Last":3115,"acing":3116,"Ġcity":3117,"Length":3118,"NO":3119,"Ġabove":3120,"Ġmar":3121,"Ġgovernment":3122,"ĠNorth":3123,"ĠJune":3124,"Ġcompon":3125,"filter":3126,"Ġtrack":3127,"Ġdiv":3128,"ĠAugust":3129,"stand":3130,"ilar":3131,"container":3132,"Ġcopy":3133,"ĠSeptember":3134,"service":3135,"ĠAir":3136,"Ġmeas":3137,"thers":3138,"ynt":3139,"cell":3140,"Ġ<!--":3141,"istor":3142,"lied":3143,"df":3144,"ĠJuly":3145,"Web":3146,"rew":3147,"Ġearly":3148,"allet":3149,"utions":3150,"ynam":3151,"vis":3152,"ĠDis":3153,"ĠHREF":3154,"dev":3155,"udio":3156,"<?":3157,"vers":3158,"iler":3159,"eff":3160,"ĠCLASS":3161,"depend":3162,"Sup":3163,"URL":3164,"yl":3165,"po":3166,"urg":3167,"\"),":3168,"arrow":3169,"ĠApril":3170,"sol":3171,"inst":3172,"olds":3173,"num":3174,"Ġstory":3175,"refix":3176,"Ġbetter":3177,"ilit":3178,"Ġtimes":3179,"2009":3180,"aml":3181,"Valid":3182,"javascript":3183,"Pre":3184,"came":3185,"Ġhistory":3186,"where":3187,"').":3188,"Ġmajor":3189,"Ġarr":3190,"ĠApp":3191,"Collection":3192,"ĠWith":3193,"eline":3194,"Box":3195,"idden":3196,"Ð¾Ð":3197,"ham":3198,"ising":3199,"omet":3200,"Ġupdate":3201,"apter":3202,"First":3203,"Ġwomen":3204,"change":3205,"ftware":3206,"Ġpossible":3207,"oding":3208,"eed":3209,"ĠFeb":3210,"Ġaccount":3211,"Ġdom":3212,"Address":3213,"ĠMan":3214,"Ġspecial":3215,"ĠčĊ":3216,"Mode":3217,"ude":3218,"Ġbecame":3219,"iment":3220,"ĠWhen":3221,"ĠMc":3222,"ken":3223,"Ġseem":3224,"Ġfri":3225,"Ġide":3226,"eral":3227,"itory":3228,"Ġbound":3229,"ERR":3230,"Ġgl":3231,"Ġlate":3232,"ike":3233,"ERT":3234,"Ġmean":3235,"```":3236,"Ġfootball":3237,"Ã¡":3238,"Char":3239,"reet":3240,"_.":3241,"lip":3242,"08":3243,"structor":3244,"Ġcreated":3245,"Layout":3246,"det":3247,"igr":3248,"remove":3249,"ĉĠĠĠ":3250,"rest":3251,"Ġdone":3252,"Back":3253,"rodu":3254,"Tem":3255,"Ġelect":3256,"idge":3257,"irm":3258,"ĠNovember":3259,"Ġfre":3260,"Ġdefined":3261,"2008":3262,"styles":3263,"IO":3264,"instance":3265,"istry":3266,"efined":3267,"Ġsomething":3268,"COL":3269,"ĠEurope":3270,"Ġmember":3271,"ĠRec":3272,"Ġauto":3273,"Ġleast":3274,"TP":3275,"Ġregion":3276,"Ġspecified":3277,"~~":3278,"Ġeither":3279,"ĠHowever":3280,"Ab":3281,"ntity":3282,"CON":3283,"Ġgeneral":3284,"ication":3285,"ĠFl":3286,"Ġgrow":3287,"Ġresearch":3288,"Ġtask":3289,"ND":3290,"uccess":3291,"Ġpos":3292,"Ġ]":3293,"ered":3294,"aring":3295,"ĠDecember":3296,"Ġevents":3297,"ansport":3298,"Cache":3299,"Ġfont":3300,"Ġformat":3301,"Bundle":3302,"angle":3303,":</":3304,"Ġant":3305,"Ġbir":3306,"respond":3307,"hat":3308,"ibrary":3309,"MS":3310,"ĠAct":3311,"IZ":3312,"ards":3313,"Aut":3314,"Ġgot":3315,"na":3316,"Ġcur":3317,"ouch":3318,"annot":3319,"ipp":3320,"Ġjob":3321,"07":3322,"Ġdate":3323,"ĠAustral":3324,"prototype":3325,"posed":3326,"ĠDo":3327,"Ġconnection":3328,"Ġserver":3329,"ĠID":3330,")}":3331,"uid":3332,"Ġlay":3333,"idual":3334,"Ġimportant":3335,"gen":3336,"ĠĠĠĠĠĠĠĠĠĠĠĠĠĠĠĠĠĠĠĠĠĠĠĠĠĠĠĠĠĠĠĠĠĠĠ":3337,"Ġsite":3338,"Ġhard":3339,"Ġimplement":3340,"Ġcover":3341,"rypt":3342,"Det":3343,"offset":3344,"Ġsearch":3345,"Ġ[]":3346,"egr":3347,"iddle":3348,"Spec":3349,"Ġobt":3350,"Offset":3351,"Ġparticular":3352,"********************************":3353,">>":3354,"Ġpoints":3355,"Mem":3356,"Ġqual":3357,"epar":3358,"tag":3359,"47":3360,"ĠMe":3361,"mathbf":3362,"soft":3363,"Ġbit":3364,"clus":3365,"ilon":3366,"Ġdouble":3367,"Ġmodule":3368,"Ġkeep":3369,"atal":3370,"Url":3371,"49":3372,"ino":3373,"Ġcallback":3374,"Ġeas":3375,"reference":3376,"Ġwhether":3377,"Ġcamp":3378,"amil":3379,"ogn":3380,"eting":3381,"Ñģ":3382,"Update":3383,"number":3384,"Ġbig":3385,"show":3386,"ensor":3387,"Ġlight":3388,"roy":3389,"NAME":3390,"06":3391,"ĠHT":3392,"Ġlarg":3393,"output":3394,"ĠOff":3395,"Ġ(\\":3396,"pass":3397,"can":3398,"Server":3399,"Ġ...":3400,"foot":3401,"Ġcome":3402,"ply":3403,"Ġstudy":3404,"++)":3405,"process":3406,"Ġparameter":3407,"Provider":3408,"adio":3409,"si":3410,"ruary":3411,"ĠEX":3412,"ĠRob":3413,"Ġho":3414,"Ġmedia":3415,"02":3416,"acity":3417,"Ġwater":3418,"ĠVal":3419,"Ġhealth":3420,"ĠUp":3421,"Ġformer":3422,"artment":3423,"sigma":3424,"eleg":3425,"Ġclose":3426,"ĠCor":3427,"Ġlow":3428,"Ġperiod":3429,"Ġinternal":3430,"kit":3431,"ĠAPI":3432,"vision":3433,"mon":3434,"cul":3435,"aves":3436,"tool":3437,"Ġthings":3438,"unit":3439,"returns":3440,"46":3441,"mar":3442,"ried":3443,"cor":3444,"ilde":3445,"Ġprovided":3446,"anged":3447,"Ġlittle":3448,"ampion":3449,"else":3450,"oph":3451,"Ġwrite":3452,"pose":3453,"(_":3454,"uation":3455,"Ġ!==":3456,"wise":3457,"ulture":3458,"DB":3459,"Per":3460,"sd":3461,"oney":3462,"Ġcomb":3463,"Ġredu":3464,"mathrm":3465,"Ġdays":3466,"ĠRev":3467,"dict":3468,"sequ":3469,"Ġair":3470,"Vis":3471,"Ġdeterm":3472,"Ġglobal":3473,"criptor":3474,"Ġobserv":3475,"cel":3476,"Ġcountry":3477,"big":3478,"utils":3479,"()->":3480,"Ġtook":3481,"Ġcost":3482,"ĠFile":3483,"Rem":3484,"aken":3485,"Ġprob":3486,"Target":3487,"ves":3488,"Ġnone":3489,"istic":3490,"ĠOF":3491,"ography":3492,"uint":3493,"Width":3494,"window":3495,"atter":3496,"Access":3497,"Ġrespect":3498,"unch":3499,"Types":3500,"Ġfar":3501,"09":3502,"You":3503,"Ġprovide":3504,"2007":3505,"tempt":3506,"common":3507,"Ġframe":3508,"delta":3509,"aul":3510,"Ġonce":3511,"hel":3512,"ãģ":3513,"ieve":3514,"04":3515,"column":3516,"ause":3517,"Ġobj":3518,"Ġalign":3519,"ĠBar":3520,"Ġreleased":3521,"gl":3522,"rs":3523,"ĠArt":3524,"support":3525,"Ġuint":3526,"LI":3527,":\"":3528,"parse":3529,"adem":3530,"Max":3531,"iol":3532,"Ġhaving":3533,"Ġfiles":3534,"level":3535,"Ġlanguage":3536,"Ġsent":3537,"ĠLicense":3538,"ries":3539,"thern":3540,")(":3541,"Ġdoesn":3542,"small":3543,"Ġask":3544,"ring":3545,"CODE":3546,"apan":3547,"Min":3548,"ĠPres":3549,"actions":3550,"Acc":3551,"scope":3552,"Ġsure":3553,"otion":3554,"Ġreceived":3555,"dat":3556,"Parameter":3557,"pis":3558,"most":3559,"Ġinterface":3560,"PC":3561,"irection":3562,"Ġstop":3563,"Ġche":3564,"ournal":3565,"sm":3566,"Ġmeans":3567,"Tag":3568,"Ġnav":3569,"clear":3570,"Ġfail":3571,"quad":3572,"Ġver":3573,"ĠThat":3574,"ĠChar":3575,"ĠComp":3576,"template":3577,"Ġsm":3578,"Ġindic":3579,"Ġparameters":3580,"Ġpot":3581,"Ġhouse":3582,"Ġstream":3583,"olved":3584,"Ġhttps":3585,"Ġadded":3586,"Ġdev":3587,"task":3588,"bind":3589,"sim":3590,"Entry":3591,"idence":3592,"à¤":3593,"42":3594,"ĠOne":3595,"ĠAfter":3596,"ATION":3597,"bool":3598,"ĠII":3599,"rapper":3600,"uggest":3601,"Ġstrong":3602,"Ġq":3603,"Ġplayed":3604,"ĠMy":3605,"Ġmiss":3606,"Sec":3607,"ĠKing":3608,"]);":3609,"Ġred":3610,"Ġ**":3611,"Ġsit":3612,"2000":3613,"ams":3614,"2006":3615,"*}":3616,"year":3617,"03":3618,"main":3619,"anel":3620,"Ġclear":3621,"Ġacross":3622,"Ġoften":3623,"ULT":3624,"dep":3625,"final":3626,"Ġoffer":3627,"ĠHigh":3628,"Process":3629,"ĠFebruary":3630,"raphics":3631,"Ġaway":3632,"ief":3633,"Ġcommunity":3634,"Ġquery":3635,"oved":3636,"See":3637,"UP":3638,"Ġvideo":3639,"Ġable":3640,"ĠPer":3641,"iet":3642,"Ġstandard":3643,"Ġproblem":3644,"ondon":3645,"ges":3646,"exp":3647,"Ġland":3648,"ĉĉĉĉĉĉĉ":3649,"+\\":3650,"67":3651,"Ġmaking":3652,"ĠDav":3653,"Ġsection":3654,"=\"../../../../../":3655,"Utils":3656,"Ġselect":3657,"Ġworking":3658,"Ġargs":3659,"Configuration":3660,"Ġgames":3661,"igin":3662,"Ġgen":3663,"Ġkind":3664,"essages":3665,"AA":3666,"cs":3667,"Control":3668,"Open":3669,"Ġinit":3670,"Ġcompet":3671,"Ġdeb":3672,"ĠType":3673,"Ġtoget":3674,"ĠData":3675,"IV":3676,"Ġyoung":3677,"Ġpract":3678,"gor":3679,"Ġbecome":3680,"ĠGL":3681,"Ġmass":3682,"ensure":3683,"Ġbegin":3684,"Ġlen":3685,"ĠMed":3686,"''":3687,"Ġtogether":3688,"abor":3689,"fa":3690,"ĠMon":3691,"ty":3692,"=\"-":3693,"Ġclaim":3694,"gamma":3695,"Ġdevelopment":3696,"Ġequal":3697,"Ġener":3698,"Tree":3699,"Container":3700,"Ġrelation":3701,"medi":3702,"Ġfive":3703,"ĠStr":3704,"Ġperm":3705,"Ġelements":3706,"Case":3707,"Ġfund":3708,"Entity":3709,"ĠEm":3710,"Ġreview":3711,"ij":3712,"Ġapplication":3713,"though":3714,"control":3715,"....":3716,"Ġreturned":3717,"Interface":3718,"ills":3719,"Ġfloat":3720,"Ġsw":3721,"Ġthird":3722,"Top":3723,"Dr":3724,"Connection":3725,"Ġsimilar":3726,"buffer":3727,"Ġsocial":3728,"cache":3729,"ĠArray":3730,"aven":3731,"Ġspecific":3732,"Ġgive":3733,"strap":3734,"ille":3735,"Ġpast":3736,"Ġbuffer":3737,"Ġindiv":3738,"Ġmer":3739,"Next":3740,"artifact":3741,"Ġfilter":3742,"lies":3743,"Ġreturns":3744,"ises":3745,"API":3746,"ecute":3747,"KE":3748,"^{-":3749,"match":3750,"float":3751,"Se":3752,"Write":3753,"Ġcollection":3754,"Ġfeel":3755,"Ġfuture":3756,"ington":3757,"Ġthough":3758,"Work":3759,"\"))":3760,"88":3761,"ĠHis":3762,";->":3763,"ctx":3764,"Ġoffset":3765,"ounds":3766,"Position":3767,"Ġamong":3768,"Ġmen":3769,"wait":3770,"ãĥ":3771,"'),":3772,"Ġhuman":3773,"PO":3774,"Ġinstall":3775,"Ġlik":3776,"long":3777,"Thread":3778,"AV":3779,"Ġvia":3780,"ĠQu":3781,"Ġage":3782,"ĠRuss":3783,"Load":3784,"Ob":3785,"Header":3786,"spec":3787,"Ġcontinue":3788,"Ġconc":3789,"Ġservices":3790,"example":3791,"ensions":3792,"ceed":3793,"known":3794,"ĠAfr":3795,"ĠInter":3796,"ference":3797,"QL":3798,"}{\\":3799,"Ã³":3800,"ĠThese":3801,"'re":3802,"([":3803,"lim":3804,"Ġeduc":3805,"ba":3806,"Ġrow":3807,"Range":3808,"ĠReturns":3809,"Ġoperation":3810,"Ġlove":3811,"Ġsat":3812,"ĠPark":3813,"Ġsix":3814,"olve":3815,"Ġnamed":3816,"Ġcame":3817,"65":3818,"root":3819,"Location":3820,"Ġtell":3821,"Level":3822,"ĠBro":3823,"ĠAm":3824,"Ġ{}":3825,"Ġfurther":3826,"./":3827,"Ġmag":3828,"Ġmillion":3829,"attern":3830,"ements":3831,"ii":3832,"boot":3833,"ients":3834,"layer":3835,"Ġstore":3836,"late":3837,"Ġstarted":3838,"should":3839,"STR":3840,"Ġchanges":3841,"otal":3842,"oriz":3843,"Height":3844,"non":3845,"typ":3846,"ners":3847,"Ġplan":3848,"Ġtypes":3849,"Ġinstead":3850,"queue":3851,"Ġbelow":3852,"eh":3853,"ilities":3854,"resource":3855,"Ġincluded":3856,"Ġarch":3857,"Ġtre":3858,"adius":3859,"vari":3860,"Http":3861,"Bo":3862,"hib":3863,"avel":3864,"Ġseen":3865,".$":3866,"encies":3867,"Ġlot":3868,"][":3869,"Ġtown":3870,"Callback":3871,"ĠAg":3872,"Search":3873,"Direct":3874,"ĠLa":3875,"ĠĠĠĠĠĠĠĠĠĠĠĠĠĠĠĠĠĠĠĠĠ":3876,"Ġdiscuss":3877,"ha":3878,"IGN":3879,"Unit":3880,"Ġheld":3881,"document":3882,"ĠTrans":3883,"Ġmethods":3884,"iting":3885,"One":3886,"times":3887,"obile":3888,"eature":3889,"ĠBritish":3890,"Ġshows":3891,"inner":3892,"Ġattack":3893,"figure":3894,"yd":3895,"Ġenough":3896,"ĠPe":3897,"Ġcoll":3898,"Ġlimit":3899,"Ġentry":3900,"partial":3901,"Ġindividual":3902,"^\\":3903,"author":3904,"ĠAssert":3905,"Ġfac":3906,"TER":3907,"expected":3908,"Module":3909,"Ġbuilding":3910,"ĠHouse":3911,"Sp":3912,"classes":3913,"VAL":3914,"Ġsignific":3915,"gorith":3916,"Ġ::":3917,"ĠDep":3918,"Ġnational":3919,"ĠAp":3920,"nu":3921,"Ġbuilt":3922,"Ġdevice":3923,"ĠSec":3924,"token":3925,"Ġtalk":3926,"Ġplayer":3927,"Ġcrit":3928,"Ġmode":3929,"tml":3930,"tree":3931,"IZE":3932,"iding":3933,"Ġaccept":3934,"dated":3935,"unity":3936,"=\"../../../../../../":3937,"ECT":3938,"tau":3939,"Ġfocus":3940,"Ġvirtual":3941,"ades":3942,"Empty":3943,"Script":3944,"ĠLog":3945,"ris":3946,"ĠWeb":3947,"hent":3948,"Ġnec":3949,"ĠSim":3950,"Ġthought":3951,"=\"_":3952,"After":3953,"That":3954,"Ġofficial":3955,"Ġproperties":3956,"eft":3957,"%;":3958,"draw":3959,"ĠLondon":3960,"ĠMark":3961,"ouncil":3962,"HO":3963,"Ġwhy":3964,"Ġlocation":3965,"ordin":3966,"COLOR":3967,"uest":3968,"empty":3969,"leq":3970,"Hash":3971,"aker":3972,"Ġperformance":3973,"Ġsample":3974,"Ġben":3975,"ĉĠ":3976,"Ġmom":3977,"%%":3978,"Description":3979,"Ġ*)":3980,">,":3981,"ĠCreate":3982,"patch":3983,"Ġworks":3984,"Ġwritten":3985,"mm":3986,"ĠRem":3987,"etch":3988,"77":3989,"Ġyet":3990,"ĠEnglish":3991,"Option":3992,"artifactId":3993,"ĠEast":3994,"rown":3995,"adow":3996,"rench":3997,"Ġreason":3998,"msg":3999,"2005":4000,"ese":4001,"Ġroot":4002,"ological":4003,"Ġmaterial":4004,"verage":4005,"asing":4006,"Json":4007,"CL":4008,"chedu":4009,"Ġwebs":4010,"border":4011,"Ġcorrespond":4012,"aries":4013,"Copy":4014,"Ag":4015,"ĠSee":4016,"Ġder":4017,"Ġtele":4018,"Ġamount":4019,"attle":4020,"ĠInternational":4021,"ĠHar":4022,"ĠSw":4023,"licit":4024,"Op":4025,"lit":4026,"ĠRed":4027,"even":4028,"ĠSub":4029,"Ġenergy":4030,"verse":4031,"Ġdiff":4032,"ART":4033,"Ident":4034,"ality":4035,"Ġsing":4036,"None":4037,"Ġfeatures":4038,"break":4039,"Ġothers":4040,"Ġ['":4041,"ĠJapan":4042,"Ġwar":4043,"ĠAc":4044,"Ġear":4045,"plit":4046,"icrosoft":4047,"Ġassociated":4048,"Ptr":4049,"Ġtw":4050,"Ġremove":4051,"thon":4052,"Ġsepar":4053,"Ġband":4054,"Ġsequ":4055,"Ġbox":4056,"oon":4057,"Ġnormal":4058,"Ġtrad":4059,"oll":4060,"Ġindu":4061,"Ġblack":4062,"Ġstudents":4063,"theta":4064,"Settings":4065,"SD":4066,"Post":4067,"Ġcommon":4068,"ocr":4069,"ĠCollege":4070,"Ġlive":4071,"]{":4072,"device":4073,"Params":4074,"Ġfields":4075,"mult":4076,"Serial":4077,"Ġintrodu":4078,"Ġstep":4079,"Ġmakes":4080,"Ġcareer":4081,"Const":4082,"ÃŃ":4083,"cap":4084,"ford":4085,"95":4086,"aged":4087,"Ġenvironment":4088,"tim":4089,"Ġcourse":4090,"Ġfilename":4091,"groupId":4092,"ecution":4093,"Ġdidn":4094,"Ġtim":4095,"Ġden":4096,"Ġtool":4097,"Impl":4098,"Ġphys":4099,"izing":4100,"CD":4101,"Ġwent":4102,"Ġhalf":4103,"Current":4104,"imension":4105,"'],":4106,"debug":4107,"bor":4108,"ĠSch":4109,"Ġcannot":4110,"icles":4111,"ALL":4112,"env":4113,"rho":4114,"istration":4115,"Ġpadding":4116,"Ġoverride":4117,"Local":4118,"Ġbi":4119,"lying":4120,"IF":4121,"Ġsubject":4122,"Ġengine":4123,"Port":4124,"Ġrelease":4125,"Ġattribute":4126,"aging":4127,"$-":4128,"Ġ>=":4129,"Ġreference":4130,"ka":4131,"Ġvert":4132,"lice":4133,"BC":4134,"Ġbegan":4135,"Ġbar":4136,"():":4137,"stylesheet":4138,"Ġtag":4139,"Delta":4140,"ĠWilli":4141,"atural":4142,"conf":4143,"Ġ``":4144,"Ġcertain":4145,"files":4146,"Ġemploy":4147,"ĠMich":4148,"internal":4149,"Ġexception":4150,"born":4151,"\"));":4152,"TI":4153,"Ġcontains":4154,"Ġdescribed":4155,"DIR":4156,"Session":4157,"Ġnames":4158,"Ġdecl":4159,"ĠLeague":4160,"mut":4161,"Ġexperience":4162,"acters":4163,"ãĤ":4164,"UB":4165,"Font":4166,"Ġpublished":4167,"hash":4168,"sign":4169,"Ġdoc":4170,"Mat":4171,"ORT":4172,"ĠGroup":4173,"Ġparams":4174,"cm":4175,"43":4176,"oom":4177,"ĠDE":4178,"Document":4179,"Ġround":4180,"Ġpress":4181,"Ġfall":4182,"bin":4183,"lier":4184,"Ġxml":4185,"Ġactiv":4186,":(":4187,"Ġcommit":4188,"uel":4189,"ĠSk":4190,"ael":4191,"Ġmultiple":4192,"================================":4193,"Project":4194,"NavBar":4195,"ursor":4196,"Ġappear":4197,"Ġrender":4198,"ĠAcc":4199,"ĠRE":4200,"ociety":4201,"&#":4202,"Ġpur":4203,"Enc":4204,"Prot":4205,"Properties":4206,"Ġvarious":4207,"Ġactive":4208,"41":4209,"Ġsuggest":4210,"igure":4211,"grad":4212,"ws":4213,"Ġstructure":4214,"before":4215,"command":4216,"PECT":4217,"ĠNews":4218,"ĠAmerica":4219,"ampionship":4220,"Ġterms":4221,"sv":4222,"OM":4223,"like":4224,"Change":4225,"Ġpotential":4226,"What":4227,"values":4228,"Ġhandle":4229,"Menu":4230,"isk":4231,"Po":4232,"Co":4233,"drop":4234,"Ġsuccessful":4235,"Ġcenter":4236,"Ġtoday":4237,"2004":4238,"ilitary":4239,"Ġselected":4240,"iven":4241,"Ġinf":4242,"There":4243,"cr":4244,"Ġhappen":4245,"Ġattempt":4246,"rief":4247,"?:":4248,"ATA":4249,"ĠException":4250,"ĠEl":4251,"oded":4252,"card":4253,"Do":4254,"Ġmodels":4255,"Ġ\"\\":4256,"anagement":4257,"Ġecon":4258,"Ġgroups":4259,"Async":4260,"iles":4261,"CP":4262,"Ġshown":4263,"ĠUR":4264,"ĠRef":4265,"500":4266,"Integer":4267,"Ġsuff":4268,"Ġunit":4269,"Ġrunning":4270,"How":4271,"background":4272,"Ġsignificant":4273,"ald":4274,"De":4275,"Record":4276,"tries":4277,"illed":4278,"rics":4279,"nap":4280,"maz":4281,"ĠDon":4282,"Schema":4283,"Ġneg":4284,"icip":4285,"|\\":4286,"based":4287,"Ġpack":4288,"eqref":4289,"SH":4290,"andid":4291,"FO":4292,"{{":4293,"85":4294,"Inst":4295,"aign":4296,"Ġcross":4297,".)":4298,"Ġrespons":4299,"Ġthing":4300,"Ġnews":4301,"ĠCheck":4302,"istics":4303,"ĠHer":4304,"interface":4305,"Ġunderstand":4306,"ico":4307,"ican":4308,"Ġempty":4309,"modal":4310,"Ġactually":4311,"ugins":4312,"agment":4313,"ĠPresident":4314,"False":4315,"}(\\":4316,"ĠPhil":4317,"xi":4318,"ips":4319,"oder":4320,"kind":4321,"Ġshare":4322,"images":4323,"Operation":4324,"Ġnight":4325,"Ġwait":4326,"ĠSan":4327,"Ġcy":4328,"Ġlocated":4329,"aught":4330,"ĠBG":4331,"Br":4332,"ube":4333,"cribe":4334,"models":4335,"Ġpopulation":4336,"ĠIr":4337,"Ġtemplate":4338,"delete":4339,"Ġphot":4340,"CR":4341,"Ġcou":4342,"achine":4343,"caption":4344,"unt":4345,"Americ":4346,"Ġfunctions":4347,"Ġsurv":4348,"Ġagre":4349,"Ġinfo":4350,"Ġopp":4351,"Pe":4352,"gn":4353,"izes":4354,"ĠCour":4355,"address":4356,"Vari":4357,"ĠOR":4358,"Store":4359,"When":4360,"Render":4361,"Ġfailed":4362,"export":4363,"Expression":4364,"rip":4365,"Ġlower":4366,"Ġfilms":4367,"aa":4368,"Parser":4369,"Host":4370,"ĠWhat":4371,"|-":4372,"Ġtransform":4373,"Ġclub":4374,"chan":4375,"Ġsend":4376,"auth":4377,"Reference":4378,"Ġfire":4379,"Ġroom":4380,"Rel":4381,"Ġtaken":4382,"ervices":4383,"Ġcomment":4384,"Ġcomponent":4385,"ĠÃ":4386,"Ð°Ð":4387,"render":4388,"issions":4389,"Ġtreat":4390,"parameter":4391,"Ġvisit":4392,"ACK":4393,"Stat":4394,"ĠOut":4395,"widget":4396,"MO":4397,"255":4398,"Ġcontrib":4399,"Ġquestion":4400,"Ġregister":4401,"uri":4402,"Ġlim":4403,"Ġneeds":4404,"Ġrights":4405,"SO":4406,"second":4407,"cape":4408,"copy":4409,"Down":4410,"anced":4411,"Vector":4412,"fty":4413,"ĠUs":4414,"Ġcomplex":4415,"iforn":4416,"Ġproduction":4417,"fs":4418,"yntax":4419,"flu":4420,"prop":4421,"ellow":4422,"ĠST":4423,"Ge":4424,"airs":4425,"unn":4426,"ĠNS":4427,"join":4428,"aching":4429,"Ġcases":4430,"ociation":4431,"Handle":4432,"AND":4433,"Core":4434,"Names":4435,"Ġentire":4436,"Ġsimple":4437,"Helper":4438,"Ġvill":4439,"Parameters":4440,"erve":4441,"ictionary":4442,"Ġflow":4443,"Ġsort":4444,"Ġundefined":4445,"Bl":4446,"Ġhash":4447,"2001":4448,"Ġdetails":4449,"RA":4450,"Ġneeded":4451,"obuf":4452,"Ġcomplete":4453,"icient":4454,"ĠSm":4455,"avor":4456,"transform":4457,"Ġdeal":4458,"Ġdeg":4459,"rupt":4460,"Ġhowever":4461,"elegate":4462,"Ġscope":4463,"Ġdescription":4464,"ara":4465,"estamp":4466,"abs":4467,"istance":4468,"Ġexpress":4469,"ERROR":4470,"send":4471,"yes":4472,"alle":4473,"ategy":4474,"XX":4475,"Ġrate":4476,"Ġadmin":4477,")]":4478,"Ġarguments":4479,"apped":4480,"urb":4481,"ORD":4482,"Ġsolid":4483,"ontal":4484,"sy":4485,"57":4486,"bootstrap":4487,"just":4488,"Ġliter":4489,"oggle":4490,"docs":4491,"Ġbad":4492,"erved":4493,"ifornia":4494,"ĠDi":4495,"orge":4496,"}$.":4497,"ria":4498,"ĠDem":4499,"Ġwebsite":4500,"foo":4501,"ua":4502,"Match":4503,"Ġ~":4504,"ĠName":4505,"Ġelection":4506,"infty":4507,"Iter":4508,"Ġhold":4509,"Ġ;":4510,"Ġcorrect":4511,"webkit":4512,"Pos":4513,"Ġrather":4514,"Ġscale":4515,"coming":4516,"Left":4517,"Dir":4518,"Ġcurrently":4519,"Api":4520,"ĠBGCOLOR":4521,"Ġexecut":4522,"Can":4523,"ĉĉĊ":4524,"'>":4525,"ĠMore":4526,"atory":4527,"Ġaccording":4528,"97":4529,"olume":4530,"Sim":4531,"Ġ(\"":4532,"ĠHol":4533,"Ġcapt":4534,"Ġsystems":4535,"cp":4536,"Ġface":4537,"DD":4538,"Ġdraw":4539,"Ġconditions":4540,"avior":4541,"II":4542,"Rect":4543,"zz":4544,"68":4545,"Ġiter":4546,"Pass":4547,"ounced":4548,"Ġgrad":4549,"omb":4550,"Order":4551,"Ġdig":4552,"amera":4553,"Ġwr":4554,"Sign":4555,"Ġge":4556,"=\"../../../":4557,"Ġmarket":4558,"INE":4559,"erefore":4560,"Ġnov":4561,"aur":4562,"skip":4563,"make":4564,"}$,":4565,"ynamic":4566,"Ġaddition":4567,"Mon":4568,"BO":4569,"istrict":4570,"toString":4571,"ĠMod":4572,"scale":4573,"asic":4574,"ĠDec":4575,"Ġexcept":4576,"ĠEXPECT":4577,"duc":4578,"Ġwhite":4579,"ä¸":4580,"Ġadditional":4581,"Debug":4582,"tilde":4583,"Ġapi":4584,"Ġsession":4585,"vention":4586,"ependent":4587,"equals":4588,"sq":4589,"orem":4590,"Ġconfiguration":4591,"Ġapplic":4592,"omega":4593,"Use":4594,"Ġtoken":4595,"Ġestablished":4596,"Sk":4597,"click":4598,"inn":4599,"anger":4600,"_;":4601,"Ġswitch":4602,"Ã¤":4603,"Template":4604,"Go":4605,"My":4606,"Ġstation":4607,"custom":4608,"Invalid":4609,"uge":4610,"stry":4611,"plete":4612,"Ġnecess":4613,"dest":4614,"GE":4615,"Ġfront":4616,"Ġmonth":4617,"plugin":4618,"Ġconsidered":4619,"alled":4620,"Ġautom":4621,"ula":4622,"ĠService":4623,"Device":4624,"Ġparticip":4625,"astic":4626,"ĠLaw":4627,"mode":4628,"stack":4629,"ota":4630,"uses":4631,"ivil":4632,"=\"/":4633,"Ġwriting":4634,"(:":4635,"Metadata":4636,"Title":4637,"ĠIndia":4638,"itect":4639,"Kind":4640,"Exp":4641,"vas":4642,"arks":4643,"Ġprior":4644,"Eng":4645,"Ġobjects":4646,"hover":4647,"site":4648,"GET":4649,"Ġparse":4650,"ĠNor":4651,"Le":4652,"ĠStud":4653,"erg":4654,"Ġtree":4655,"ĠOpen":4656,"Ġpolicy":4657,"ĠFirst":4658,"lands":4659,"Has":4660,"Ġcharacters":4661,"orizontal":4662,"session":4663,"system":4664,"Ġ('":4665,"ĠWork":4666,"ĠFrom":4667,"Ġstates":4668,"quare":4669,"global":4670,"Ġselection":4671,"Ġincludes":4672,"Ġcache":4673,"ounter":4674,"Tim":4675,"jo":4676,"ĠCON":4677,"Ġmonths":4678,"ĠErr":4679,"Ġnamespace":4680,"anges":4681,"pop":4682,"ĠRead":4683,"Ġissue":4684,"EQ":4685,"vm":4686,"!!":4687,"Stack":4688,"elt":4689,"Ġanalysis":4690,"store":4691,"witter":4692,"CA":4693,"Ġinvoke":4694,"Ġinternational":4695,"media":4696,"inding":4697,"gorithm":4698,"uit":4699,"PR":4700,"BA":4701,"ĠCenter":4702,"Ġprop":4703,"Ġcompan":4704,"Ġcred":4705,"`.":4706,"2003":4707,"###":4708,"Ġjav":4709,"Ġpers":4710,"Ġcut":4711,"aid":4712,"asc":4713,"ĠPort":4714,"Ã¼":4715,"ĠMap":4716,"rea":4717,"Ġthread":4718,"Tool":4719,"udd":4720,"Right":4721,"Ġmor":4722,"vents":4723,"ixt":4724,"handle":4725,"elling":4726,"Que":4727,"ĠPre":4728,"ĠDavid":4729,"Ġign":4730,"Ġpolitical":4731,"ĠĠĠĠĠĠĠĠĠĠĠĠĠĠĠĠĠĠĠĠ":4732,"icker":4733,"Ġclos":4734,"Ġlearn":4735,"Feature":4736,"footer":4737,"Ġweb":4738,"oring":4739,"afe":4740,"Ġfight":4741,"Long":4742,"URE":4743,"58":4744,"Ġspecies":4745,"ming":4746,"Ġdelete":4747,"Ġsem":4748,"So":4749,"Ġcho":4750,"Ġsoftware":4751,"Ġson":4752,"(*":4753,"Ġground":4754,"greg":4755,"ĠTime":4756,"Ġlines":4757,"Big":4758,"Ġpassed":4759,"byte":4760,">();":4761,"iation":4762,"icons":4763,"anks":4764,"ĠGoogle":4765,"Ġmemory":4766,"Ġss":4767,"Head":4768,"Ġreported":4769,"Ġpercent":4770,"Ġhom":4771,"split":4772,"98":4773,"hr":4774,"Ġcirc":4775,"types":4776,"Ġhigher":4777,"ĠTV":4778,"Rev":4779,"Ġscreen":4780,"Ġmoney":4781,"ĠEnd":4782,"atives":4783,"Ġtax":4784,"ully":4785,"Ġflo":4786,"rict":4787,"96":4788,"ĠFrench":4789,"Ġdat":4790,"Ġalt":4791,"\\,":4792,"isf":4793,"access":4794,"Mult":4795,"Ġrelated":4796,"century":4797,"quired":4798,"Ġargument":4799,"hing":4800,"Num":4801,"useum":4802,"Reader":4803,"oader":4804,"DF":4805,"replace":4806,"Ġalmost":4807,"}/":4808,"Ġwatch":4809,"ĠUK":4810,"ctor":4811,"Draw":4812,"Ġecho":4813,"ĠCr":4814,"ĠGeneral":4815,"American":4816,"Ġwhole":4817,"Ġaverage":4818,"ORM":4819,"allow":4820,"Values":4821,"req":4822,"SA":4823,"Ġunique":4824,"hood":4825,"ĠTrue":4826,"wner":4827,"omy":4828,"icture":4829,"ensity":4830,"Ġbyte":4831,"ĠIndian":4832,"ĠDate":4833,"ensive":4834,"Ġitself":4835,"ĠCalifornia":4836,"ĠJust":4837,"OK":4838,"Ġprofession":4839,"ynch":4840,"Ġcontainer":4841,"56":4842,"ĠRepublic":4843,"tty":4844,"disabled":4845,"hem":4846,"win":4847,"----------------------------------------------------------------":4848,"Ġgraph":4849,"Ġparty":4850,"stitute":4851,"2002":4852,"ĠNe":4853,"Assert":4854,"Ġword":4855,"han":4856,"Ġinline":4857,"Ġrecogn":4858,"Dom":4859,"Ġcentury":4860,"tion":4861,"ĠDirect":4862,"Ġtraining":4863,"Ġmeasure":4864,"Ġheader":4865,"ledge":4866,"ĠStreet":4867,"Ġtakes":4868,"endar":4869,"Ġconn":4870,"Ġbirths":4871,"ali":4872,"eqn":4873,"fg":4874,"Ġled":4875,"ĠSen":4876,"ores":4877,"ĠCre":4878,"direct":4879,"SET":4880,"ĠAL":4881,"Ġviol":4882,"exception":4883,"Ġill":4884,"Ġissues":4885,"ilm":4886,"ATH":4887,"Ġallowed":4888,"MENT":4889,"edef":4890,"Build":4891,"Ġactual":4892,"ĠLoc":4893,"Track":4894,"ĠBlack":4895,"Classes":4896,"Ġhistor":4897,"icult":4898,"Ġrandom":4899,"ĠAustralia":4900,"Ġuses":4901,"Ġpattern":4902,"Args":4903,"Non":4904,"Ġ})":4905,"arter":4906,"Ġforce":4907,"ida":4908,"Ġpaper":4909,"Ġunsigned":4910,"$$":4911,"ĠPat":4912,"Ġfriend":4913,"then":4914,"had":4915,"Bytes":4916,"ĠĠĠĠĠĠĠĠĠĠĠĠĠĠĠĠĠĠĠĠĠĠĠĠĠĠĠĠĠĠĠĠĠĠĠĠĠĠĠ":4917,"Ġsets":4918,"Ġchall":4919,"Ġhit":4920,"Ġitems":4921,"ĠMat":4922,"sql":4923,"boolean":4924,"Doc":4925,"Sl":4926,"Ġsecurity":4927,"avy":4928,"rd":4929,"WE":4930,"Ġdoing":4931,"aws":4932,"Parent":4933,"weight":4934,"Ġfood":4935,"Mock":4936,"recated":4937,"ĠThen":4938,"vector":4939,"Ġborn":4940,"Ġconv":4941,"ponents":4942,"itude":4943,"pg":4944,"focus":4945,"cert":4946,"Ġloss":4947,"SL":4948,"Ġos":4949,"cover":4950,"mission":4951,"Policy":4952,"Ġcomes":4953,"connect":4954,"Ġroad":4955,"ado":4956,"Ġexpression":4957,"Ġpersonal":4958,"virtual":4959,"Ġach":4960,"Ġbutton":4961,"admin":4962,"---":4963,"Ġscript":4964,"ĠBook":4965,";<":4966,"nes":4967,"Ġlost":4968,"ĠPal":4969,"settings":4970,"-->":4971,"Ġfem":4972,"lor":4973,"ios":4974,"Ġlooking":4975,"Ġeval":4976,"pecially":4977,"ĠBen":4978,"Ġwords":4979,"Ġraise":4980,"Root":4981,"Ġsound":4982,"Application":4983,"Click":4984,"SION":4985,"Ġepis":4986,"illing":4987,"Dep":4988,"Ġconsist":4989,"rote":4990,"ĠPublic":4991,"ĠIO":4992,"Ġregular":4993,"cat":4994,"exports":4995,"Ġchanged":4996,"Ġtold":4997,"aints":4998,"language":4999,"]]":5000,"ĠTHE":5001,"enced":5002,"cloud":5003,"mas":5004,"raz":5005,"xx":5006,"fony":5007,"elves":5008,"Ġareas":5009,"History":5010,"Ġsupported":5011,"help":5012,"protobuf":5013,"burg":5014,"59":5015,"Ġwalk":5016,"Decl":5017,"Mar":5018,"psi":5019,"term":5020,"Ġtaking":5021,"ymfony":5022,"Icon":5023,"Ġprovides":5024,"iqu":5025,"Ġlib":5026,"Vert":5027,"oe":5028,"itch":5029,"component":5030,"Ġoperator":5031,"ĠAnt":5032,"`,":5033,"panel":5034,"Ġbehind":5035,"icate":5036,"padding":5037,"Ver":5038,"Ġrule":5039,"ĠPaul":5040,"Ġcondition":5041,"cdot":5042,"Ġserved":5043,"erry":5044,"Argument":5045,"acc":5046,"room":5047,"pub":5048,"mega":5049,"cit":5050,"framework":5051,"Red":5052,"ĠJames":5053,"bon":5054,"Ġfather":5055,"Ġplatform":5056,"range":5057,"86":5058,"after":5059,"Ġconsum":5060,"ĠMal":5061,"Ġpick":5062,"ĠDistrict":5063,"ĠChina":5064,"ancial":5065,"Tests":5066,"ĠSome":5067,"ometry":5068,"ĠCouncil":5069,"87":5070,"ĠSum":5071,"Ġdefine":5072,"PL":5073,"Me":5074,"Ġ++":5075,"xis":5076,"atur":5077,"rome":5078,"Boolean":5079,"ĠHTML":5080,"Ġsex":5081,"HECK":5082,"ircle":5083,"Ġstand":5084,"insert":5085,"$(":5086,"Ġusers":5087,"Ġconstant":5088,"sort":5089,"Ġmoment":5090,"straint":5091,"ds":5092,"Writer":5093,"Rout":5094,"ĠMet":5095,"Descriptor":5096,"Member":5097,"ĠCanada":5098,"Ġbytes":5099,"irit":5100,"dependency":5101,"Ġrelationship":5102,"Ġvariable":5103,"Ġnothing":5104,"ĠEngland":5105,"Enabled":5106,"Ġforward":5107,"Ġwor":5108,"Ġdatabase":5109,"ya":5110,"Delete":5111,"Ġfrequ":5112,"success":5113,"Ġsettings":5114,"Storage":5115,"Body":5116,"Ġmaint":5117,"arp":5118,"FAULT":5119,"ĠDay":5120,"Ġgre":5121,"Ġquant":5122,"Ġdeep":5123,"Ġsold":5124,"gu":5125,"wood":5126,"Ġago":5127,"fn":5128,"Ġstage":5129,"1000":5130,"Ġinc":5131,"ĠRun":5132,"ĠLO":5133,"Ġimprov":5134,"Ġchannel":5135,"__(":5136,"ĠIS":5137,"ĠNOT":5138,"'m":5139,"Ġoutside":5140,"iday":5141,"Ġjson":5142,"fields":5143,"coin":5144,"ago":5145,"Ġcontract":5146,"ĠJSON":5147,"ĠForm":5148,"Ġpopular":5149,"Ġdistribution":5150,"zer":5151,"Ġbring":5152,"Ġgetting":5153,"Ġannounced":5154,"Byte":5155,">.":5156,"ros":5157,"Ġmoved":5158,"Ġdirectory":5159,"Ġhon":5160,"Ġregard":5161,"Ġnumer":5162,"asons":5163,"tee":5164,"Ġcontact":5165,"jection":5166,"ĠRoy":5167,"egment":5168,"Ġtransaction":5169,"Ġsetting":5170,"ena":5171,"callback":5172,"etime":5173,"={":5174,"register":5175,"1999":5176,"ĠHealth":5177,"more":5178,"ĠPy":5179,"cial":5180,"agon":5181,"ĠGod":5182,"Ġdied":5183,"imated":5184,"Ġupon":5185,"}[":5186,"CTION":5187,"JECT":5188,"buf":5189,"Ġmot":5190,"Ġcompanies":5191,"}\"":5192,"irl":5193,"ĠThom":5194,"istrib":5195,"ncy":5196,"track":5197,"ett":5198,"ĠDiv":5199,"ĠPost":5200,"chi":5201,"END":5202,"Ġindustry":5203,"Rule":5204,"aches":5205,"TS":5206,"blockList":5207,"Ġwhose":5208,"legal":5209,"ĠRobert":5210,"Ġlikely":5211,"PA":5212,"hi":5213,"AGE":5214,"ĠUse":5215,"Ġmatrix":5216,"Ġdistrict":5217,"Ġexact":5218,"Ġspect":5219,"Ġmind":5220,"Ġprogress":5221,"ĠQue":5222,"Ġanything":5223,"ĠEuropean":5224,"Job":5225,"Ġquick":5226,"\\\"":5227,"Ġhimself":5228,"Ġrecent":5229,"ĠGerman":5230,"ĠArg":5231,"eal":5232,"Ġconnect":5233,"300":5234,"cy":5235,"none":5236,"Ġintegr":5237,"Ġinflu":5238,"Ġpackage":5239,"ITY":5240,"Ġonline":5241,"Ġbroad":5242,"white":5243,"Ġrelative":5244,"Ġsolution":5245,"ston":5246,"het":5247,"apse":5248,"Ġapproach":5249,"MD":5250,"Ġvot":5251,"edit":5252,"attribute":5253,"Ġinside":5254,"ĠHel":5255,"Cre":5256,"nov":5257,"Ġfollows":5258,"Ġworked":5259,"ĠMem":5260,"Ġmanagement":5261,"Ġpresident":5262,"anning":5263,"ech":5264,"400":5265,"force":5266,"Ð»":5267,"ulated":5268,"Ġotherwise":5269,"cpp":5270,"Ġbenef":5271,"ario":5272,"\"\"\"":5273,"*)":5274,"ĠValue":5275,"Tab":5276,"'))":5277,"clude":5278,"Xml":5279,"ĠRich":5280,"Ġmid":5281,"Ġprote":5282,"Ġhours":5283,"ĠĠĠĠĠĠĠĠĠĠĠĠĠĠĠĠĠĠ":5284,"But":5285,"Ġcast":5286,"ĠAut":5287,"mock":5288,"double":5289,"Ġansw":5290,"Ġ'/":5291,"cheme":5292,"Ġprobably":5293,"MM":5294,"51":5295,"DL":5296,"uate":5297,"incip":5298,";/":5299,"Mark":5300,"uby":5301,"actor":5302,"ĠArch":5303,"email":5304,"'.":5305,"Ġfit":5306,"joy":5307,"ĠassertEquals":5308,"coll":5309,"Ġdam":5310,"ership":5311,"Ġnet":5312,"Ġsus":5313,"mail":5314,"ĠMor":5315,"ashington":5316,"Found":5317,"IX":5318,"Ġarticle":5319,"Ø§":5320,"ĠMath":5321,"bert":5322,"ĠUser":5323,"Ġeffort":5324,"iform":5325,"ĠMag":5326,"ĠBel":5327,"ailed":5328,"ĠDepartment":5329,"Ġparts":5330,"TEST":5331,"ye":5332,"ĠCup":5333,"application":5334,"fil":5335,"Ġproduced":5336,"ping":5337,"plugins":5338,"Ġsym":5339,"SSERT":5340,"perature":5341,"ĠOper":5342,"Ġcampaign":5343,"very":5344,"CS":5345,"Ġdirectly":5346,"KEY":5347,"Ġheart":5348,"Meta":5349,"Ins":5350,"Ã¶":5351,"Ġ<=":5352,"uple":5353,"ln":5354,"wide":5355,"Changed":5356,"2021":5357,"connection":5358,"sqrt":5359,"Ġopport":5360,"Ġnorth":5361,"ped":5362,"ao":5363,"scal":5364,"Ġscal":5365,"Let":5366,"Ġpain":5367,"free":5368,"Ġsymbol":5369,"Ġvict":5370,"normal":5371,"romise":5372,"ĠCO":5373,"Ġvers":5374,"Ġaward":5375,"Ġreading":5376,"Ġlonger":5377,"del":5378,"Ġexisting":5379,"vec":5380,"Ġexists":5381,"aved":5382,"berg":5383,"Ġgenerated":5384,"mes":5385,"annotation":5386,"eek":5387,"Ġleading":5388,"Ġmsg":5389,"toggle":5390,"Package":5391,"Ġresources":5392,"Ġcalcul":5393,"alls":5394,"conn":5395,"ĠBase":5396,"PRE":5397,"Custom":5398,"Msg":5399,"Cal":5400,"auto":5401,"fill":5402,"ĠHo":5403,"Definition":5404,"wrap":5405,"entity":5406,"ifest":5407,"ĠĠĠĠĠĠĠĠĠĠĠĠĠĠĠĠĠĠĠĠĠĠĠĠĠ":5408,"Ġoperations":5409,"Ġavoid":5410,"ederal":5411,"Ġtechnology":5412,"Ġetc":5413,"'ve":5414,"Ġhot":5415,"Ñĥ":5416,"rian":5417,"ODO":5418,"high":5419,"Widget":5420,"Ġsubs":5421,"Ġplaying":5422,"ĠInst":5423,"Ġfamil":5424,"ernel":5425,"ĠMart":5426,"Ġidea":5427,"ĠKey":5428,"Ġeducation":5429,"ĠParty":5430,"password":5431,"ĠFound":5432,"Ġtelevision":5433,"Ġaud":5434,"Ġassum":5435,"spital":5436,"Dialog":5437,"lymp":5438,"}}\\":5439,"ĠMusic":5440,"pite":5441,"iences":5442,"ville":5443,"ĠInc":5444,"Ġjo":5445,"Ġisn":5446,"Obj":5447,"inline":5448,"Ġwrote":5449,"enum":5450,"Ġrepl":5451,"pare":5452,"comment":5453,"ĠChampionship":5454,"riate":5455,"ynchron":5456,"################":5457,"ountry":5458,"Ġten":5459,"hs":5460,"Ġattr":5461,"material":5462,"ĠError":5463,"54":5464,"ĠRiver":5465,"ĠChurch":5466,"ĠEvent":5467,"Security":5468,"strict":5469,"52":5470,"Ġprimary":5471,"Ġsil":5472,"Ġoffice":5473,"PH":5474,"Ġfinally":5475,"Ġcref":5476,"Ġimpact":5477,"=\"\">":5478,"Ġjoin":5479,"ĠDan":5480,"Symbol":5481,"NE":5482,"plements":5483,"Ġimm":5484,"Fields":5485,"comes":5486,"Ġ\"/":5487,"lood":5488,"PS":5489,"addr":5490,"Ġdiscover":5491,"ĠCons":5492,"ipeline":5493,"Active":5494,"keys":5495,"Ġvector":5496,"aset":5497,"Ġespecially":5498,"Ġpolice":5499,"full":5500,"Ġwriter":5501,"Queue":5502,"Omega":5503,"car":5504,"thread":5505,"ees":5506,"items":5507,"leep":5508,"Ġtour":5509,"ĠOf":5510,"ookie":5511,"napsh":5512,"Ġcontain":5513,"keyword":5514,"Ġrock":5515,"unsigned":5516,"Ġemail":5517,"coq":5518,"ĠMac":5519,"Ġmatter":5520,"Ġerrors":5521,"Ret":5522,"Ġbelieve":5523,"Ġrot":5524,"FILE":5525,"Flags":5526,"ĠTechn":5527,"TED":5528,"Ġpositive":5529,"89":5530,"cmd":5531,"iece":5532,"ĠCourt":5533,"Ġcandid":5534,"ifying":5535,"EM":5536,"Di":5537,"El":5538,"illa":5539,"ĠĠĠĠĠĠĊ":5540,"\")]":5541,"Ġcause":5542,"Show":5543,"Ġlisten":5544,"ipe":5545,"essor":5546,"ĠAng":5547,"Ġextra":5548,"Results":5549,"agnost":5550,"ĠJack":5551,"Ġliving":5552,"Display":5553,"Ġtro":5554,"Ġapprox":5555,"Ġimmedi":5556,"EXT":5557,"Ġlang":5558,"53":5559,"Ġsouth":5560,"Any":5561,"&&":5562,"ining":5563,"Ġrev":5564,"oul":5565,"fect":5566,"Net":5567,"primary":5568,"anded":5569,"Ljava":5570,"uous":5571,"Ġlock":5572,"Ġstre":5573,"holder":5574,"ĠURL":5575,"Ġapply":5576,"ĠResearch":5577,"Edit":5578,"cing":5579,"elebr":5580,"record":5581,"ĠGerm":5582,"Ġeditor":5583,"ĠDefault":5584,"ini":5585,"Network":5586,"Ġmilitary":5587,"Ġsense":5588,"Am":5589,"HTML":5590,"rael":5591,"Ġseems":5592,"psilon":5593,"Timeout":5594,"ested":5595,"Ðº":5596,"Ġconduct":5597,"Ġmock":5598,"Ġgoal":5599,"Ġsaw":5600,"Ġhtml":5601,"ander":5602,"WS":5603,"step":5604,"Ġclean":5605,"Ġsave":5606,"category":5607,"![":5608,"writ":5609,"Extension":5610,"ĠDet":5611,"ufact":5612,"(-":5613,"Ġjavax":5614,"di":5615,"real":5616,"herit":5617,"Ġquality":5618,"'ll":5619,"ims":5620,"76":5621,"ĠGreen":5622,"here":5623,"Ġabsol":5624,"Ġallows":5625,"Ġdeveloped":5626,"Ġconver":5627,"Ġcouple":5628,"iders":5629,"Ġexc":5630,"Ġtrying":5631,"Ġproducts":5632,"initial":5633,"Ġâ":5634,"{}":5635,"Lock":5636,"Each":5637,"inated":5638,"NA":5639,"ucket":5640,"Account":5641,"Ġrules":5642,"Ġlibrary":5643,"atio":5644,"Ġzero":5645,"Ġ(*":5646,"Ġeverything":5647,"Ġminutes":5648,"Ġreve":5649,"ĠVAL":5650,"Scope":5651,"atalog":5652,"Ġsatisf":5653,"Ġdb":5654,"Ġweight":5655,"Man":5656,"ĠOver":5657,"Ġestablish":5658,"fort":5659,"ems":5660,"ĠWilliam":5661,"ulate":5662,"ĠNow":5663,"JSON":5664,"Activity":5665,"ĠYear":5666,"Ġroute":5667,"Ġclosed":5668,"install":5669,"ĠProject":5670,"Ġtests":5671,"margin":5672,"Ġnumbers":5673,"ĠAssociation":5674,"ĠMo":5675,"FT":5676,"ĠField":5677,"ĠLandroid":5678,"Ġdifficult":5679,"=\"\"":5680,"ĠMr":5681,"antic":5682,"Ġproblems":5683,"Ġincrease":5684,"rial":5685,"LOG":5686,"Ġsequence":5687,"Ġmaximum":5688,"ĠAirport":5689,"Send":5690,"Ġfun":5691,"}_{\\":5692,"printf":5693,"DI":5694,"Ġserial":5695,"pring":5696,"ĠAward":5697,"olver":5698,"Only":5699,"Ġensure":5700,"ĠPress":5701,"Ġwest":5702,"Ġconstruct":5703,"Ġstack":5704,"ying":5705,"BR":5706,"Ġnatural":5707,"ĠGeorge":5708,"ĠÎ":5709,"Ġoffic":5710,"Ġrace":5711,"under":5712,"porary":5713,"ĠRel":5714,"ternet":5715,"adian":5716,"Ġstaff":5717,"region":5718,"ĠMethod":5719,"ĠNO":5720,"Ġnote":5721,"Ġconsole":5722,"Ġspeed":5723,"ĠTrump":5724,"Database":5725,"Channel":5726,"TABLE":5727,"cons":5728,"Ġasked":5729,"pers":5730,"Ġnodes":5731,"which":5732,"eqnarray":5733,"ignment":5734,"argument":5735,"Bit":5736,"Ġhandler":5737,"Ġmodern":5738,"Transaction":5739,"epsilon":5740,"pool":5741,"ĠNote":5742,"itar":5743,"Ġsomeone":5744,"ĠMichael":5745,"grid":5746,"Ġsoon":5747,"PAR":5748,"imately":5749,"estival":5750,"Ġcoming":5751,"Ġbooks":5752,"Ġdirection":5753,"ĠFrance":5754,"short":5755,"radius":5756,"ker":5757,"DA":5758,"ĠInstitute":5759,"Ġquite":5760,"impl":5761,"important":5762,"Ġinvolved":5763,"ĠCopy":5764,"Initial":5765,"Ġjud":5766,"ĠOther":5767,"pay":5768,"Init":5769,"Ġobtain":5770,"ĠRoad":5771,"ano":5772,"Ġdirector":5773,"ĠLet":5774,"Ġmother":5775,"za":5776,"Ġsimply":5777,"ĠWashington":5778,"gin":5779,"Ġinj":5780,"icket":5781,"Ġveh":5782,"Ġimages":5783,"Ġmount":5784,"Ġneigh":5785,"78":5786,"Ġboard":5787,"Ġteams":5788,"aily":5789,"ieved":5790,"Support":5791,"GB":5792,"Ac":5793,"inder":5794,"Ġmanager":5795,"\"`":5796,"======":5797,"band":5798,"Ġcompleted":5799,"TEX":5800,"ĠPo":5801,"Ġrisk":5802,"liance":5803,"west":5804,"osing":5805,"@\"":5806,"feature":5807,"Ġmeet":5808,"1990":5809,"van":5810,"assets":5811,"ĠSam":5812,"arily":5813,"Ġinstanceof":5814,"ixel":5815,"Directory":5816,"ci":5817,"hadoop":5818,"urt":5819,".*":5820,"agram":5821,"Ġcontr":5822,"olic":5823,"pute":5824,"Ġstar":5825,"ARY":5826,"election":5827,"Ġcult":5828,"Ġhel":5829,"Ġflag":5830,"2022":5831,"ADD":5832,"ĠId":5833,"stat":5834,"She":5835,"Ġwanted":5836,"inese":5837,"NotNull":5838,"Ġ),":5839,"Ġvillage":5840,")\"":5841,"ancel":5842,"Ġicon":5843,"Ġnecessary":5844,"Ġwallet":5845,"graph":5846,"ĠVer":5847,"_->":5848,"Internal":5849,"ĠBest":5850,"ulations":5851,"peed":5852,"subsection":5853,"ĠMer":5854,"mitted":5855,"72":5856,"ĠBer":5857,"ires":5858,"PT":5859,"ĠAND":5860,"chedule":5861,"ĉĉĉĊ":5862,"Ġstatement":5863,"UID":5864,"SIZE":5865,"outhern":5866,"\">&":5867,"Ġsens":5868,"product":5869,"lyph":5870,"Ġinteger":5871,"ĠLong":5872,"sf":5873,"Ġreplace":5874,"(!":5875,"tsd":5876,"ĠAN":5877,"stop":5878,"modules":5879,".\\":5880,"ius":5881,"Ġperformed":5882,"Ġcountries":5883,")))":5884,"Pool":5885,"anner":5886,"alloc":5887,"gan":5888,"Ġmut":5889,"Ġdecision":5890,"ango":5891,"ACE":5892,"Ġmissing":5893,"Gamma":5894,"Ġdesigned":5895,"ror":5896,"Ġsurface":5897,"Ġshape":5898,"VERSION":5899,"MAX":5900,"Ġlevels":5901,"Logger":5902,"ĠLeg":5903,"orph":5904,"Ġthus":5905,"Ġpy":5906,"Ġgets":5907,"Ġtransport":5908,"IB":5909,"ette":5910,"enter":5911,"Runtime":5912,"aled":5913,"arth":5914,"Sum":5915,"cur":5916,"Ap":5917,"1998":5918,"Ġstarting":5919,"Ġconcern":5920,"Float":5921,"ĠFranc":5922,"Ġhope":5923,"ĠView":5924,"ĠWhile":5925,"Perm":5926,"Ġdistance":5927,"assertEqual":5928,"flags":5929,"Ġprec":5930,"ĠBig":5931,"scroll":5932,"Ġcalls":5933,"Ġgave":5934,"hentication":5935,"Ġmention":5936,"Ġcollect":5937,"Art":5938,"hest":5939,"azz":5940,"ocker":5941,"utf":5942,"Ġ%}":5943,"spring":5944,"=\"@":5945,"names":5946,"reek":5947,"stats":5948,"Ġfixed":5949,"}),":5950,"(){":5951,"hy":5952,")=":5953,"jquery":5954,"Auth":5955,"FL":5956,"Ġenjoy":5957,"Ġcorresponding":5958,"Ġreceive":5959,"[:":5960,"Ġcompar":5961,"Ġclasses":5962,"ĠWhite":5963,"82":5964,"lines":5965,"Now":5966,"overnor":5967,"Ġwoman":5968,"txt":5969,"ĠAlex":5970,"Struct":5971,"PORT":5972,"numer":5973,"ĠBuild":5974,"ĠText":5975,"IE":5976,"Ġess":5977,"ĠScience":5978,"Ġcourt":5979,"ĠDel":5980,"Ġeffects":5981,"()));":5982,"ads":5983,"Ġmale":5984,"move":5985,"mselves":5986,"TC":5987,"Ġtransfer":5988,"bound":5989,"sey":5990,"Ġpatients":5991,"LS":5992,"ĠCarol":5993,"ById":5994,"Ġbtn":5995,"ĠIP":5996,"Items":5997,"Ġcop":5998,"istan":5999,"oma":6000,"Ġbottom":6001,"ura":6002,"Pop":6003,"ĠMary":6004,"Ġimplementation":6005,"dropdown":6006,"Ġthroughout":6007,"_,":6008,"events":6009,"()).":6010,"ein":6011,"lam":6012,"ĠTom":6013,"ĠĠĠĠĠĠĠĠĠĠĠĠĠĠĠĠĠĠĠĠĠĠĠĠ":6014,"Inv":6015,"People":6016,"Ġeast":6017,"arts":6018,"ĠYour":6019,"Ġrecomm":6020,"Ġopened":6021,"Ġdead":6022,"ĠDevelop":6023,"Ġextension":6024,"FC":6025,"ĠProv":6026,"avi":6027,"ĠWindow":6028,"Ġthemselves":6029,"shape":6030,"Ġsigned":6031,"textbf":6032,"'])":6033,"Ġcontaining":6034,"inger":6035,"mazon":6036,"security":6037,"Ġkeys":6038,"Graph":6039,"oub":6040,"Pattern":6041,"Ġstay":6042,"aver":6043,".__":6044,"Loader":6045,"GS":6046,"save":6047,"Ġsaf":6048,"enge":6049,"Ġmechan":6050,"Ġevidence":6051,"alyt":6052,"Ġnor":6053,"ĠFalse":6054,"dates":6055,"ROM":6056,"256":6057,"rb":6058,"Ġmovie":6059,"160":6060,"ĠFre":6061,"Layer":6062,"Ġtheory":6063,"Ġprofessional":6064,"las":6065,"^{(":6066,"ĠCong":6067,"git":6068,"ĠProgram":6069,"vare":6070,"ĠReview":6071,"Ġstorage":6072,"Ġwrong":6073,"SQL":6074,"ĠHand":6075,"Ġusually":6076,"proto":6077,"NG":6078,"ĠHall":6079,"Ġfollowed":6080,"eries":6081,"ĠLou":6082,"____":6083,"Ġdefinition":6084,"aine":6085,"ĠShow":6086,"Ġtravel":6087,"profile":6088,"Ġlatest":6089,"Cle":6090,"Ġwife":6091,"Ġ{};":6092,"ona":6093,"screen":6094,"Media":6095,"PATH":6096,"]:":6097,"////////////////////////////////":6098,"izations":6099,"ixture":6100,"ĠCompany":6101,"Rest":6102,"Ġremoved":6103,"ository":6104,"kg":6105,")));":6106,"Ġfeed":6107,"inv":6108,"edy":6109,"Ġbre":6110,"Rece":6111,"Ġ${\\":6112,"Ġ[];":6113,"isions":6114,"Attributes":6115,"Ġcore":6116,"isation":6117,"Ġdistributed":6118,"ĠDemocr":6119,"ĠAfrica":6120,"master":6121,"Ġaltern":6122,"ĠOur":6123,"vant":6124,"Ġdemon":6125,"men":6126,"84":6127,"selected":6128,"Iterator":6129,"Ġleave":6130,"ĠSince":6131,"Ġfast":6132,"Ġrank":6133,"Ġmus":6134,"ĠMiss":6135,"Ġnovel":6136,"Ġtemperature":6137,"desc":6138,"idents":6139,"Editor":6140,"mi":6141,"assertEquals":6142,"note":6143,"Ġedge":6144,"ĠGermany":6145,"ĠTex":6146,"Ġeasy":6147,"contrib":6148,"ifies":6149,"Ġshared":6150,"mercial":6151,"igration":6152,"79":6153,"^*":6154,"Ġappoint":6155,"}=":6156,"ĠCall":6157,"Ġentity":6158,"Ġauth":6159,"Ġattributes":6160,"Ġnative":6161,"ancy":6162,"properties":6163,"ĠOb":6164,"eration":6165,"ĠChe":6166,"Desc":6167,"Ġstudies":6168,"elli":6169,"typeof":6170,"Grid":6171,"ĠĠĠĠĠĠĠĠĠĠĠĠĠĠĠĠĠĠĠĠĠĠ":6172,"Ġng":6173,"Conf":6174,"CI":6175,"Ġpointer":6176,"eve":6177,"}).":6178,"throws":6179,"tip":6180,"->_":6181,"NavBarCell":6182,"Selector":6183,"Symfony":6184,"usion":6185,"ĠOption":6186,"Events":6187,"Ġfunc":6188,"Ġfriends":6189,"schema":6190,"~~~~":6191,"ĠNode":6192,"Panel":6193,"Ġgives":6194,"Enum":6195,"emph":6196,"DS":6197,"69":6198,"Ġmiddle":6199,"Ġvolume":6200,"ĠAnn":6201,"well":6202,">:":6203,"Windows":6204,"ĠUnion":6205,"Ġculture":6206,"ĠVersion":6207,"onder":6208,"iller":6209,"lers":6210,"Proxy":6211,"Ġawait":6212,"_(":6213,"Ġobtained":6214,"handler":6215,"Ġdegree":6216,")/":6217,"oted":6218,"ĠIsland":6219,"atically":6220,"ĠAR":6221,"pped":6222,"BUG":6223,"Ġabs":6224,"Auto":6225,"Transform":6226,"Ġdaught":6227,"ili":6228,"ĠFin":6229,"ĠBay":6230,"}^{\\":6231,"63":6232,"ToString":6233,"Ġdro":6234,"Register":6235,"notation":6236,"Ġtransp":6237,"napshot":6238,"ĠArmy":6239,"Matrix":6240,"Ġsett":6241,"Ġdescribe":6242,"Var":6243,"cut":6244,"Plugin":6245,"Ġdark":6246,"asure":6247,"Ġer":6248,"Ġactivity":6249,"bm":6250,"ducation":6251,"Ġstrict":6252,"Ġbehavior":6253,"Te":6254,"cos":6255,"enses":6256,"Ġsongs":6257,"Ġarchitect":6258,"ĠModel":6259,")$.":6260,"EC":6261,"logger":6262,"=>":6263,"ĠJer":6264,"Ġtransition":6265,"acebook":6266,"Ġrecently":6267,"Close":6268,"job":6269,"ĠOlymp":6270,"LP":6271,"Ġalloc":6272,"Ġslow":6273,"ï¼":6274,"Memory":6275,"Ġalthough":6276,"alian":6277,"atively":6278,"Ġcard":6279,"family":6280,"orter":6281,"Ġconstruction":6282,"Main":6283,"Ġrepe":6284,"Ġbal":6285,"++;":6286,"urrency":6287,"Ġtowards":6288,"that":6289,"Adapter":6290,"ĠCam":6291,"Ġteach":6292,"ĠRoyal":6293,"Ġindependent":6294,"Ġcells":6295,"ĠCode":6296,"Ġtab":6297,"ĠRoman":6298,"ĠFore":6299,"çļ":6300,"clusion":6301,"Second":6302,"Ġste":6303,"Ġgrowth":6304,"ĠMount":6305,"Ġpair":6306,"Ġtouch":6307,"super":6308,"Del":6309,"overs":6310,"Ġelem":6311,"iring":6312,"Ġbeaut":6313,"manager":6314,"','":6315,"controller":6316,"ĠSociety":6317,"bi":6318,"ĠClub":6319,"points":6320,"Ġprevent":6321,"while":6322,"ishing":6323,"Ġunits":6324,"More":6325,"çļĦ":6326,"ional":6327,"Ġlarger":6328,"ental":6329,"Parse":6330,"aud":6331,"proof":6332,"Ġlegal":6333,"}</":6334,"ĠVir":6335,"uler":6336,"esh":6337,"Ġcentral":6338,"Ġsn":6339,"sample":6340,"Ġio":6341,"ĠHistory":6342,"Ġloop":6343,"ĠAssembly":6344,"Ġcomponents":6345,"LIC":6346,"varepsilon":6347,"Ġ${":6348,"Ġinterview":6349,"Av":6350,"SER":6351,"ployment":6352,"icks":6353,"Ġmis":6354,"ĠMus":6355,"account":6356,"Ġgoes":6357,"FR":6358,"aming":6359,"ora":6360,"ĠMedia":6361,"62":6362,"ĠIsrael":6363,"Ġstri":6364,"Ġproper":6365,"inct":6366,"metadata":6367,"ĠUpdate":6368,"Ġhous":6369,"ĠTODO":6370,"Ġrelig":6371,"Ġjoined":6372,"ĠKe":6373,"ðŁ":6374,"Ġoptional":6375,"Before":6376,"Ġfinished":6377,"ĠSur":6378,"olar":6379,"Abstract":6380,"forms":6381,"Ġfavor":6382,"EO":6383,"bour":6384,"Year":6385,"Ġpredict":6386,"fit":6387,"asy":6388,"ĠTable":6389,"Ġvs":6390,"Scale":6391,"ĠFunction":6392,"ĠGold":6393,"ĠScott":6394,"varphi":6395,"Ġball":6396,"ici":6397,"Ġjournal":6398,"includeg":6399,"includegraphics":6400,"Ġir":6401,"Ġschools":6402,"Ġang":6403,"Ġshall":6404,".'":6405,"iterator":6406,"Protocol":6407,"Ġdestroy":6408,"rangle":6409,"Ġinvalid":6410,"road":6411,"Ġpretty":6412,"ĠAcadem":6413,"Ġbuilder":6414,"lias":6415,"oration":6416,"ĠSal":6417,"Ġconcept":6418,"ifications":6419,"Ñı":6420,"Ġcluster":6421,"yr":6422,"ategories":6423,"Ġpractice":6424,"icated":6425,"ki":6426,"Ġasync":6427,"ĠThomas":6428,"Ġsignal":6429,"IPT":6430,"\\!\\!\\!\\!":6431,"Ġplaces":6432,"Ġlo":6433,"1997":6434,"Ġorigin":6435,"Ġprofile":6436,"lg":6437,"ĠTop":6438,"dot":6439,"Ġcelebr":6440,"SU":6441,"Ġcoordin":6442,"jar":6443,"74":6444,"bytes":6445,"Ġinvestig":6446,"ĠCommit":6447,"ĠTim":6448,"ĠFoot":6449,"Ġcompared":6450,"Ġeveryone":6451,"CHECK":6452,"Profile":6453,"Ġpreviously":6454,"bolds":6455,"Java":6456,"pository":6457,")\">":6458,"reset":6459,"Ġcontinued":6460,"Ġtreatment":6461,"Ġphase":6462,"den":6463,"shire":6464,"Generic":6465,"Ġ\\,":6466,"ĠMad":6467,"engine":6468,"annels":6469,"ĠMessage":6470,"inate":6471,"Ġgenerate":6472,"Print":6473,"Step":6474,"Ġradio":6475,"ONE":6476,"bad":6477,"Author":6478,"Ġpassword":6479,"rot":6480,"oves":6481,"Cond":6482,"asket":6483,"ĠJew":6484,"WA":6485,"boldsymbol":6486,"Variable":6487,"Ġ\"\"":6488,"Ġlargest":6489,"Ġpartial":6490,"collection":6491,"61":6492,"Ġpm":6493,"Ġenabled":6494,"nce":6495,"kw":6496,"ĠPub":6497,"Ġclick":6498,"Ġdomain":6499,"Ġdifference":6500,"Ġ[[":6501,"Ġbrowser":6502,"XML":6503,"Ġthreat":6504,"anned":6505,"Ġquestions":6506,"Ġbeginning":6507,"straints":6508,"fly":6509,"cb":6510,"1980":6511,"editor":6512,"house":6513,"Ġlearning":6514,"Ġways":6515,"tmp":6516,"mutable":6517,"Ġbg":6518,"ĠConfig":6519,"Ġeight":6520,"Term":6521,"matrix":6522,"Ġscene":6523,"home":6524,"frak":6525,"Ġdise":6526,"Ġinsert":6527,"Ġplease":6528,"1996":6529,"getName":6530,"rey":6531,"etic":6532,"Ġscient":6533,"Ġlack":6534,"ager":6535,"ificate":6536,"FLA":6537,"Ġproposed":6538,"Ġord":6539,"91":6540,"ĠMex":6541,"FIG":6542,"Ġ{'":6543,"Ġ\"<":6544,"aration":6545,"Ġapplied":6546,"Ġfinancial":6547,"Ġunless":6548,"echo":6549,"Ġexperiment":6550,"94":6551,"RAN":6552,"apply":6553,"ĠTask":6554,"ether":6555,"Ġip":6556,"Ġcounter":6557,"Ġsources":6558,"domain":6559,"Ġrecords":6560,"Pack":6561,"NULL":6562,"OB":6563,"ĠChristian":6564,"faces":6565,"rightarrow":6566,"ĠRegister":6567,"[\\":6568,"va":6569,"Ġsecret":6570,"ĠSuper":6571,"ĠIOException":6572,"Func":6573,"Living":6574,"ja":6575,"Ġepisode":6576,"Ġ=========":6577,"Ġbirth":6578,"ala":6579,"ĠSl":6580,"getElement":6581,"external":6582,"webpack":6583,"contains":6584,"resents":6585,"ĠLife":6586,"ĠTem":6587,"Ġsaying":6588,"Ġpurch":6589,"Ġlayer":6590,"ĠTown":6591,"Ġscen":6592,"Ġupdated":6593,"Ġ(_":6594,"Ġlinear":6595,"results":6596,"Ġhum":6597,"UTF":6598,"ĠTur":6599,"Sw":6600,"Ġcharg":6601,"Ġhy":6602,"azine":6603,"Ġgas":6604,"||":6605,"othing":6606,"Ġearlier":6607,"Ġscore":6608,"Ġrespectively":6609,"ĠHere":6610,"Ġowner":6611,"ĠGets":6612,"Files":6613,"Ġmeeting":6614,"ĠSmith":6615,"allery":6616,"ĠOp":6617,"ecause":6618,"ibly":6619,"Ġimplements":6620,"ĠProf":6621,"ani":6622,"uated":6623,"hold":6624,"Ġdemonstr":6625,"Ġmarried":6626,"ously":6627,"READ":6628,"erial":6629,"Ġsplit":6630,"Ġlimited":6631,"ĠAccording":6632,"platform":6633,"},\\":6634,"Ġcapital":6635,"MOD":6636,"rep":6637,"grade":6638,"Ġchurch":6639,"Keys":6640,"structure":6641,"idx":6642,"Ġdeaths":6643,"shall":6644,"Ġgrant":6645,"igen":6646,"prove":6647,"Ġsen":6648,"Ġlives":6649,"chor":6650,"pdf":6651,"related":6652,"Identifier":6653,"browser":6654,"subs":6655,"andra":6656,"ĠTor":6657,"Ġvoc":6658,"ĠAustralian":6659,"Ġdeliver":6660,"Ġphysical":6661,"ĠDivision":6662,"Ġfn":6663,"phone":6664,"$/":6665,"hidden":6666,"Pay":6667,"Ġvariables":6668,"DC":6669,"ĠNumber":6670,"Pointer":6671,"fail":6672,"Members":6673,"Expr":6674,"each":6675,"ĠHen":6676,"Ġscience":6677,"Ġprice":6678,"ĠMA":6679,"och":6680,"olf":6681,"ĠGrand":6682,"Ġinstit":6683,"ĠMuseum":6684,"Ġnu":6685,"ĠChinese":6686,"Ġdebug":6687,"ĠGreat":6688,"SR":6689,"Ġrepresentation":6690,"ĠNetwork":6691,"ooks":6692,"^^":6693,"network":6694,"identifier":6695,"92":6696,"Fail":6697,"ĠUSA":6698,"Ġfactor":6699,"ĠFrancis":6700,"Ġmulti":6701,"ĠAfrican":6702,"ĠCentral":6703,"Ġbrought":6704,"rule":6705,"horizontal":6706,"riend":6707,"1995":6708,"miss":6709,"Ġpublish":6710,"Ġfully":6711,"para":6712,"roke":6713,"Ġhor":6714,"onic":6715,"ĠAlso":6716,"Ġxmlns":6717,"STAT":6718,"channel":6719,"ĠUN":6720,"Ġknowledge":6721,"Prop":6722,"entials":6723,"Ġkilled":6724,"ko":6725,"dim":6726,"IST":6727,"Ã§":6728,"zone":6729,"Ġyield":6730,"ĠTexas":6731,"ĠCollection":6732,"Ġmaster":6733,"ĠVis":6734,"configuration":6735,"geq":6736,"SY":6737,"ĠPlay":6738,"aste":6739,"81":6740,"iki":6741,"Ġspent":6742,"ved":6743,"Ġnature":6744,"total":6745,"parser":6746,"area":6747,"Ġpolitic":6748,"Ġmatches":6749,"HR":6750,"haps":6751,"ictor":6752,"Repository":6753,"71":6754,"Ġrg":6755,"Ġplant":6756,"Ġpush":6757,"uter":6758,"ĠFoundation":6759,"abilities":6760,"Ġctx":6761,"Ġprojects":6762,"Ġdefe":6763,"Double":6764,"theme":6765,"Dest":6766,"Mapping":6767,"Ġexport":6768,"attributes":6769,"[$":6770,"reme":6771,"Ġmessages":6772,"Ġrequires":6773,"fc":6774,"ĠBO":6775,")),":6776,"ensus":6777,"ĠMax":6778,"ĠĠĠĠĠĠĠĠĠĠĠĠĠĠĠĠĠĠĠĠĠĠĠĠĠĠĠĠĠĠĠĠĠĠĠĠĠĠĠĠĠĠĠ":6779,"trigger":6780,"sumer":6781,"Attr":6782,"ĠPen":6783,")).":6784,"Duration":6785,"ami":6786,"Ġstories":6787,"Full":6788,"Ġbasic":6789,"Ġchoice":6790,"73":6791,"ĠJava":6792,"ĠCap":6793,"Scroll":6794,"Browser":6795,"ĠEngine":6796,"arsed":6797,"83":6798,"ray":6799,"93":6800,"Sync":6801,"Ġsignature":6802,"Ġpresented":6803,"Ġhidden":6804,"ighest":6805,"look":6806,"Ġproof":6807,"ression":6808,".~\\":6809,"eds":6810,"duction":6811,"Ġbasis":6812,"Ġinsp":6813,"ĠLib":6814,"ĠAv":6815,"tabs":6816,"gs":6817,"Ġstudent":6818,"ĠĠĠĠĠĠĠĠĠĠĠĠĠĠĠĠĠĠĠĠĠĠĠĠĠĠĠĠĠ":6819,"liament":6820,"Ġrecorded":6821,"ĠVol":6822,"Ġbus":6823,"Ġterr":6824,"Ġreq":6825,"switch":6826,"Ġcivil":6827,"mathfrak":6828,"osh":6829,"Failed":6830,"plex":6831,"shadow":6832,"123":6833,"Ġability":6834,"Ġenter":6835,"ffect":6836,"Ġcreating":6837,"atre":6838,"?âĢĿ":6839,"operator":6840,"ita":6841,"istant":6842,"Ġ>>":6843,"ĠWil":6844,"Ġeffective":6845,"Ġupper":6846,"limit":6847,"iny":6848,"etimes":6849,"Ġexhib":6850,"Ġseven":6851,"elease":6852,"tests":6853,"dp":6854,"sem":6855,"Ġapprop":6856,"ĠCamp":6857,"ĠRock":6858,"Ġchain":6859,"Conn":6860,")$,":6861,"ĠÂ£":6862,"bal":6863,"Ġremain":6864,"ky":6865,"Statement":6866,"unicip":6867,"Ġmeaning":6868,"osen":6869,"anda":6870,"\",\"":6871,"Ġruns":6872,"Ġactions":6873,"Ġperfect":6874,"hide":6875,"Ġencoding":6876,"1970":6877,"components":6878,"3333":6879,"tely":6880,"organ":6881,"Ġturned":6882,"Product":6883,"ĠGen":6884,"NOT":6885,"Socket":6886,"onym":6887,"reshold":6888,"ĠColor":6889,"Ġparents":6890,"Ġweeks":6891,"Ġinteresting":6892,"Ġshot":6893,"Wrapper":6894,"Remove":6895,"Ġpark":6896,"Ã³n":6897,"fully":6898,"tools":6899,"Cor":6900,"Ġorganization":6901,"Global":6902,"ĠStar":6903,"ĠCommission":6904,"Ġmanufact":6905,"ĠRussian":6906,"prise":6907,"Ġrail":6908,"Ġgreater":6909,"ĠTH":6910,"LECT":6911,"Ġdriver":6912,"sect":6913,"ivacy":6914,"nab":6915,"(__":6916,"aret":6917,"Gen":6918,"ĠBusiness":6919,"IMP":6920,"filename":6921,"Ġintroduced":6922,"ĉĠĠĠĠĠ":6923,"Ġdecided":6924,"Ġincreasing":6925,"Landroid":6926,"OUT":6927,"riteria":6928,"Ġsizeof":6929,"Ġunknown":6930,"istent":6931,"ervation":6932,"Don":6933,"Ġtrade":6934,"erc":6935,"Ġleader":6936,"PP":6937,"Ġgun":6938,"ĠBill":6939,"provider":6940,"libr":6941,"nil":6942,"rine":6943,"Ġexternal":6944,"1994":6945,"ITE":6946,"Ġtherefore":6947,"DT":6948,"Note":6949,"Ġappend":6950,"ĠHill":6951,"Ġwasn":6952,"ronic":6953,"Ġones":6954,"Ġpool":6955,"ded":6956,"Lambda":6957,"Ġfailure":6958,"protected":6959,"Ġnom":6960,"ICE":6961,"ĠFrank":6962,"ĠĠĠĠĠĠĠĠĠĠĠĠĠĠĠĠĠĠĠĠĠĠĠĠĠĠ":6963,"Ġdrug":6964,"Ġbank":6965,"Ġappeared":6966,"Cap":6967,"Engine":6968,"weet":6969,"Ġutil":6970,"iers":6971,"Details":6972,"atin":6973,"ĠGames":6974,"ellig":6975,"itiz":6976,"Single":6977,"bot":6978,"FFFF":6979,"Ġmicro":6980,"ĠGovernment":6981,"Ġprefer":6982,"Constants":6983,"ĠMel":6984,"Generator":6985,"------------":6986,"prefix":6987,"ĠGame":6988,"orida":6989,"ady":6990,"expr":6991,"headers":6992,"Ġcomments":6993,"Ġrespond":6994,"akers":6995,"utor":6996,"Ġconstructor":6997,"ĠBi":6998,"children":6999,"Route":7000,"anta":7001,"ĠStep":7002,"ALSE":7003,"'d":7004,"Ġprotect":7005,"Ġanyone":7006,"Ġdownload":7007,"iate":7008,"ĠMont":7009,"Ġtx":7010,"ĠNAME":7011,"symbol":7012,"Ġdensity":7013,"Ġ\",":7014,"ĠSO":7015,"Ġ{\"":7016,"Ġfix":7017,"junit":7018,"Background":7019,"ĠInitial":7020,"rase":7021,"Success":7022,"%%%%":7023,"Ġcomputer":7024,"ĠAction":7025,"ĠMinister":7026,"ifdef":7027,"Ġaccur":7028,"Ġpages":7029,"jpg":7030,"overline":7031,"Ġdaughter":7032,"Ġmenu":7033,"Ġoptim":7034,"Ġsports":7035,"Ġremember":7036,"Ġimmediately":7037,"ĠPeter":7038,"rees":7039,"Ġwide":7040,"ĠĠĠĠĠĠĠĠĠĠĠĠĠĠĠĠĠĠĠĠĠĠĠĠĠĠĠĠĠĠĠĠĠĠĠĠĠĠĠĠĠĠĠĠĠĠĠĠĠĠĠĠĠĠĠĠĠĠĠĠĠĠĠĠ":7041,"uilt":7042,"dialog":7043,"Ġele":7044,"ĠJournal":7045,"Ġded":7046,"Ġfemale":7047,"ounce":7048,"mask":7049,"builder":7050,"=\"${":7051,"tags":7052,"appa":7053,"Ġabsolute":7054,"ndef":7055,".}":7056,"Google":7057,"ĠIns":7058,"ĠDuring":7059,"Ġattention":7060,"typedef":7061,"Ġuseful":7062,"Ġtypeof":7063,"Ġadapt":7064,"ĠRichard":7065,"ĠInv":7066,"Ġenable":7067,"Ġalgorithm":7068,"Ġtesting":7069,"Ġactivities":7070,"Ġsometimes":7071,"Pub":7072,"Ġgold":7073,"navList":7074,"aser":7075,"Ġmur":7076,"oday":7077,"Common":7078,"Ġcoach":7079,"Ġmedical":7080,"Collections":7081,"ffff":7082,"sys":7083,"iverse":7084,"Space":7085,"ĠWestern":7086,"Ġoffers":7087,"allel":7088,"ĠKore":7089,"defined":7090,"CESS":7091,"Ġincreased":7092,"OST":7093,"ACT":7094,"rev":7095,"Ġdebut":7096,"ĠPeople":7097,"åı":7098,"found":7099,"HTTP":7100,"Ġfamilies":7101,"Ġvoice":7102,"USE":7103,"Play":7104,"ĠEv":7105,"Ġserious":7106,"ULE":7107,"pret":7108,"Ġfair":7109,";\"":7110,"Prefix":7111,"ĠChild":7112,"Ġok":7113,"Ġstreng":7114,".\");":7115,"atible":7116,"Ġcategory":7117,"ÐµÐ":7118,"cred":7119,"ĠMicrosoft":7120,"Ġbecomes":7121,"Ġprograms":7122,"Ġ=======":7123,"ato":7124,"Ġidx":7125,"ĠSeries":7126,"urred":7127,"props":7128,"Ġtit":7129,"ĉĉĉĉĉĉĉĉĉ":7130,"rum":7131,"otes":7132,"uty":7133,"Other":7134,"Ġready":7135,"equiv":7136,"irmed":7137,"URI":7138,"TEXT":7139,"\"><!--":7140,"Ġrecover":7141,"Ġgreen":7142,"Ġequival":7143,"ĠCath":7144,"ĠFacebook":7145,"Category":7146,"Ġreplaced":7147,"Ġreached":7148,"Ġinstr":7149,"ĠOffice":7150,"Trace":7151,"Sequ":7152,"Ġvisible":7153,"uke":7154,"effect":7155,"Ġartists":7156,"ĠHash":7157,"ĠRequest":7158,"Ġpanel":7159,"bra":7160,"Ġchalleng":7161,"Nodes":7162,"Selected":7163,"ĠSund":7164,"serial":7165,"ĠFig":7166,"Ġhappy":7167,"ĠInteger":7168,"ĠServices":7169,"Ġartist":7170,"Ġul":7171,"Ġdetermine":7172,"edge":7173,"ensed":7174,"Mut":7175,"mid":7176,"Ġanti":7177,"Password":7178,"Ġpor":7179,"BS":7180,"pects":7181,"dx":7182,"ĠParam":7183,"Ġship":7184,"ella":7185,"Ġdrop":7186,"Ġexplicit":7187,"Ġremains":7188,"front":7189,"Ġdesc":7190,"enty":7191,"wild":7192,"Ġraw":7193,"iger":7194,"king":7195,"Ġ\"-":7196,"ĠBack":7197,"ola":7198,"Ġpen":7199,"IA":7200,"?>":7201,"parameters":7202,"amaz":7203,"Tags":7204,"1992":7205,"Simple":7206,"ĠJapanese":7207,"bing":7208,"ilation":7209,"ĠFinal":7210,"uan":7211,"ĠMost":7212,"Sample":7213,"Ġrequests":7214,"icago":7215,"Ġreach":7216,"Ġgrand":7217,"ĠReact":7218,"Ġworth":7219,"ĠVirgin":7220,"ĠTR":7221,"Ġmovement":7222,"ĠSection":7223,"ny":7224,"wrapper":7225,"Ġcompletely":7226,"rate":7227,"colLast":7228,"ĠTwo":7229,"ologies":7230,"Ġforces":7231,"ĠIndex":7232,"Ġforms":7233,")->":7234,"128":7235,"game":7236,"ĠCopyright":7237,"Ġconnected":7238,"Ġmetadata":7239,"()</":7240,"ateway":7241,"Ġtrain":7242,"Car":7243,"ĠCanadian":7244,"IVE":7245,"WR":7246,"ito":7247,"stant":7248,"sych":7249,"kr":7250,"ĠWomen":7251,"Character":7252,"Texture":7253,"ĠSing":7254,"Public":7255,"Ġcharge":7256,"Ġhighlight":7257,"MB":7258,"achment":7259,"Video":7260,"clusive":7261,"ĠJose":7262,"Ġinvolv":7263,"itation":7264,"Ġparticularly":7265,"storage":7266,"TIME":7267,"Ġnavigation":7268,"uing":7269,"Ġcli":7270,"allclasses":7271,"ĠKingdom":7272,"enabled":7273,"jango":7274,"Ġblue":7275,"Ġapplications":7276,"IGHT":7277,"IND":7278,"Ġincor":7279,"Ġdir":7280,"ĠOrder":7281,"UD":7282,"Ġwild":7283,">::":7284,"Ġflags":7285,"iteral":7286,"1993":7287,"Ġsupp":7288,"Home":7289,"Att":7290,"ĠBoard":7291,"Ġqueue":7292,"Ġ$.":7293,"ĠWill":7294,"Ġretr":7295,"ĠHot":7296,"Ġinstalled":7297,"tbody":7298,"brief":7299,"Help":7300,"execute":7301,"Ġexam":7302,"Ġmoving":7303,"Ġdetail":7304,"ĠjQuery":7305,"Ġkm":7306,"Ġshoot":7307,"gest":7308,"ĠUnder":7309,"ĠStart":7310,"services":7311,"irty":7312,"Ġprotocol":7313,"ruby":7314,"Ġearn":7315,"colFirst":7316,"eleted":7317,"Ġobserved":7318,"contin":7319,"ĠAny":7320,"Region":7321,"reland":7322,"Ġopening":7323,"Ġtrigger":7324,"('.":7325,"Ġbelong":7326,"Cluster":7327,"hol":7328,"dist":7329,"ansion":7330,"Ġ[\"":7331,"ĠLin":7332,"Ġbur":7333,"herited":7334,"ĠEducation":7335,"shared":7336,"ĠResource":7337,"Ġtraditional":7338,"izable":7339,"role":7340,"ĠDirector":7341,"Ġlaunch":7342,"HER":7343,"detail":7344,"TA":7345,"ĠLine":7346,"Ġreports":7347,"ĠPath":7348,"RES":7349,"ĠGood":7350,"ĠHTTP":7351,"itable":7352,"ĠManagement":7353,"Ġconstit":7354,"iful":7355,"Ġappears":7356,"ĠLouis":7357,")^":7358,"ĠCarolina":7359,"Ġanswer":7360,"Report":7361,"owner":7362,"details":7363,"Ġcook":7364,"ĠRussia":7365,"emon":7366,"isl":7367,"Ġseconds":7368,"Ġexactly":7369,"hline":7370,"ĠCommittee":7371,"Ġformed":7372,"uting":7373,"relation":7374,"Ġ?>":7375,"Ġplans":7376,"thlet":7377,"Admin":7378,"=&":7379,"Registry":7380,"ened":7381,"Ġbuy":7382,"angular":7383,"Ġsetup":7384,"Ġoverall":7385,"ĠFilm":7386,"Namespace":7387,"jd":7388,",-":7389,"watch":7390,"ĠCle":7391,"crete":7392,"INS":7393,"Ġquickly":7394,"ĠTimes":7395,"Find":7396,"prev":7397,"Ġlooks":7398,"ãĢ":7399,"Ġprefix":7400,"ancer":7401,"Gu":7402,"ĠGeorg":7403,"Ġtypename":7404,"vey":7405,"ajax":7406,"Ġblocks":7407,"Opt":7408,"High":7409,"isters":7410,"Ġdim":7411,"Ġ[],":7412,"Ġsubsequ":7413,"incipal":7414,"maven":7415,"Py":7416,"Ġpartners":7417,"FS":7418,"Comment":7419,"Ġmix":7420,"panish":7421,"Ġanim":7422,"bes":7423,"Ġeconomic":7424,"ĠCA":7425,"upload":7426,"ĠAcademy":7427,"resources":7428,"acro":7429,"oped":7430,"done":7431,"extension":7432,"Props":7433,"protocol":7434,"Ġbgcolor":7435,"Ġfigure":7436,"ldots":7437,"ĠRet":7438,"Ġminimum":7439,"ĠSecond":7440,"Agent":7441,"Ġreadonly":7442,"Ġpurpose":7443,"Ġabstract":7444,"llegal":7445,"Ġcalling":7446,"errors":7447,"Ġwaves":7448,"ainment":7449,"Ġblog":7450,"udget":7451,"Ġdirected":7452,"Ġgiving":7453,"Ġnegative":7454,"Depend":7455,"Ġsafe":7456,"pling":7457,"oms":7458,"Uri":7459,"temp":7460,"ĠWindows":7461,"Ġbey":7462,"exists":7463,"ĠCharles":7464,"Ġep":7465,"ĠPM":7466,"eval":7467,"Ġtrust":7468,"LINE":7469,"Ġsmaller":7470,"Headers":7471,"DateTime":7472,"ĠAmazon":7473,"Ġexpert":7474,"ARN":7475,"heel":7476,"igan":7477,"ingu":7478,"VM":7479,"Ġhands":7480,"Ġfelt":7481,"ircraft":7482,"Ġcritical":7483,"Ġrap":7484,"ĠLos":7485,"Ġletter":7486,"Ġdigital":7487,"uly":7488,"Ġhighest":7489,"ĠCongress":7490,"star":7491,"Ġmachine":7492,"ĠSil":7493,"fd":7494,"compiler":7495,"Ġnullptr":7496,"ĠGal":7497,"INFO":7498,"Ġplaced":7499,"variant":7500,"icies":7501,"ĠSun":7502,"inds":7503,";)":7504,"<!":7505,"Ġreader":7506,"decl":7507,"fire":7508,"Ġenv":7509,"Ġbeyond":7510,"amous":7511,"Ġque":7512,"Ġsal":7513,"ĠForce":7514,"Ġsituation":7515,"collapse":7516,"CRE":7517,"Ñĭ":7518,"Visible":7519,"Ġcommercial":7520,"fix":7521,"Generated":7522,"Ġple":7523,"ÑĮ":7524,"unic":7525,"login":7526,"ĠIE":7527,"asketball":7528,"tc":7529,"Ġnearly":7530,"Ġparser":7531,"BAR":7532,"WN":7533,"ĠLake":7534,"Ġsummer":7535,"Resources":7536,"Ġfactory":7537,"Final":7538,"ĠLOG":7539,"ivery":7540,"ĠBre":7541,"TRUE":7542,"Ġimag":7543,"Services":7544,"yan":7545,"ĠAS":7546,"invalid":7547,"ĠPoint":7548,"GR":7549,"MT":7550,"Ġhighly":7551,"ĠĠĠĠĠĠĠĠĠĠĠĠĠĠĠĠĠĠĠĠĠĠĠĠĠĠĠĠ":7552,"'));":7553,"Î±":7554,"Ġlisted":7555,"ĠCast":7556,"Person":7557,"Ġlogger":7558,"ĠFlorida":7559,"Ġcollege":7560,"async":7561,"Ġ],":7562,"Ġidentity":7563,"progress":7564,"undred":7565,"ĠLink":7566,"riority":7567,"NT":7568,"Ġpoor":7569,"Ġimprove":7570,"itz":7571,"Ġinform":7572,"ĠMake":7573,"Selection":7574,".<":7575,"Ne":7576,"Mask":7577,"ensuremath":7578,"ĠSocial":7579,"Ġconvert":7580,"kin":7581,"amazon":7582,"username":7583,"langle":7584,"Ġgenerally":7585,"fol":7586,"ean":7587,"Ġproduce":7588,"irls":7589,"Ġ×":7590,"Cert":7591,"safe":7592,"ĠSy":7593,"ĠUI":7594,"ĠLocal":7595,"Ġforeign":7596,"ocity":7597,"Ġchoose":7598,"ĠTeam":7599,"LOCK":7600,"single":7601,"Ġcollabor":7602,"Ġpull":7603,"wp":7604,"pat":7605,"ĠPage":7606,"ĠHttp":7607,"Ġrepresents":7608,"âĢĿ.":7609,"Ġtheme":7610,"ĠDen":7611,"Example":7612,"yg":7613,"users":7614,"ĠDev":7615,"ĠBank":7616,"\"/":7617,"Phi":7618,"Delegate":7619,"Ġvote":7620,";}":7621,"EEEE":7622,"150":7623,"Ġnotice":7624,"article":7625,"Ġheaders":7626,"Ġenum":7627,"ĠZeal":7628,"power":7629,"Ġheard":7630,"Stats":7631,"Ġreli":7632,"ĠðŁ":7633,"1991":7634,"ĠMass":7635,"ĠDevelopment":7636,"Ġproced":7637,"ĠOnly":7638,"Ġlicense":7639,"Are":7640,"Role":7641,"Tx":7642,"May":7643,"testing":7644,"Ġguitar":7645,"nodes":7646,"Ġpresence":7647,"Ġopportunity":7648,"aturday":7649,"BP":7650,"Ġeasily":7651,"ĠFree":7652,"ĠMov":7653,"Ġquarter":7654,"Ġeventually":7655,"ĠPass":7656,"Progress":7657,"venue":7658,"=\"$":7659,"random":7660,"axis":7661,"Ġforeach":7662,"Ġseparate":7663,"Ġ'<":7664,"John":7665,"Ġtimeout":7666,"aight":7667,"ournament":7668,"Language":7669,"Ġdimension":7670,"Game":7671,"arden":7672,"rier":7673,"Ġthr":7674,"Ġreflect":7675,"ĠIll":7676,"utch":7677,"Fil":7678,"unique":7679,"geles":7680,"Ġmill":7681,"Subs":7682,"ĠPan":7683,"ITION":7684,"ĠSol":7685,"moz":7686,"itors":7687,"Ġphone":7688,"Player":7689,"ocaml":7690,"outer":7691,"Ġdoub":7692,"Ġfans":7693,"Ġlaun":7694,"1989":7695,"ĠZealand":7696,"Ġdu":7697,"ding":7698,"Ġpiece":7699,"flag":7700,"La":7701,"Ġremaining":7702,"120":7703,"Ġpod":7704,"iro":7705,"svg":7706,"inem":7707,"Ġdrive":7708,"Ġcarry":7709,"ulk":7710,"Cred":7711,"Ġcapacity":7712,"Ġcaused":7713,"{%":7714,"ĠArts":7715,"Ġholds":7716,"Ġfill":7717,"Ġviews":7718,"Domain":7719,"indexOf":7720,"Ġui":7721,"Ġminor":7722,"Ġfra":7723,"Med":7724,"Ġtemp":7725,"enable":7726,"ĠLibrary":7727,":#":7728,"Ġeyes":7729,"Section":7730,"Ġplot":7731,"ĠAust":7732,"Ġchance":7733,"/_":7734,"ĠHome":7735,"ĠStat":7736,"Since":7737,"Ġexit":7738,"abit":7739,"}}$":7740,"ĠItalian":7741,"FORM":7742,"Ġprocessing":7743,"Ġvan":7744,"ĠInformation":7745,"ĠOld":7746,"Ġnp":7747,"special":7748,"ĠAM":7749,"Ġbrother":7750,"Ġsch":7751,"BE":7752,"Ġharm":7753,"anging":7754,"ga":7755,"km":7756,"Ġaffect":7757,"/\\":7758,"ĠPet":7759,"Ġchem":7760,"ĠParis":7761,"kappa":7762,"ĠSecret":7763,"ĠHistor":7764,"Dat":7765,"amm":7766,"Ġlif":7767,":`":7768,"ydro":7769,"=(":7770,"ĠWell":7771,"Execut":7772,"ester":7773,"Ġdepart":7774,"%)":7775,"ĠJim":7776,"Ġgirl":7777,"ÐµÐ½":7778,"green":7779,"Len":7780,"assembly":7781,"ĠImage":7782,"ĠAngeles":7783,"ĠResult":7784,"Ġlayout":7785,"Ġassess":7786,"Ġagent":7787,"subset":7788,"stitution":7789,"Ġsafety":7790,"aby":7791,"Ġremote":7792,"ĠIran":7793,"ĠMur":7794,"Shape":7795,"Ġdevices":7796,"Returns":7797,"linear":7798,"DEFAULT":7799,"fx":7800,"ctrine":7801,"Ġcoq":7802,"ĠExt":7803,"Ġut":7804,"Ġappropriate":7805,"ĠCD":7806,"Ġproxy":7807,"Ġcompetition":7808,"ares":7809,"hens":7810,"Ġstated":7811,"Ġsurround":7812,"('#":7813,"ils":7814,"called":7815,"Ġpul":7816,"pective":7817,"World":7818,"signature":7819,"nam":7820,"asis":7821,"bridge":7822,"JS":7823,"Ġstrings":7824,"Total":7825,"Ġstrategy":7826,"springframework":7827,"uite":7828,"clean":7829,"ĠValid":7830,"pu":7831,"SCR":7832,"timeout":7833,"ĠĠĠĠĠĠĠĠĠĠĠĠĠĠĠĠĊ":7834,"cdn":7835,"Ġeth":7836,"Ġreject":7837,"writer":7838,"Ġleague":7839,"Ġplugin":7840,"Ġcontroller":7841,"IDTH":7842,"Animation":7843,"ading":7844,"ĠMartin":7845,"ĠRecords":7846,"Ġproviding":7847,"ĠEnter":7848,"1960":7849,"Ġextract":7850,"Ġcmd":7851,"endor":7852,"Ġtranslate":7853,"wid":7854,"ipment":7855,"Ġequation":7856,"uy":7857,"%,":7858,"ĠFestival":7859,"poses":7860,"ĠassertThat":7861,"acle":7862,"heast":7863,"Ġpri":7864,"ji":7865,"Ġmask":7866,"Ä±":7867,"VALID":7868,"PER":7869,"Ġwants":7870,"ĠASSERT":7871,"ĠArrayList":7872,"video":7873,"umni":7874,"ĠCEL":7875,"Ġweak":7876,"ĠDO":7877,"depth":7878,"Ġ{{":7879,"Ġgeneration":7880,"Ġrgba":7881,"EEEEFF":7882,"Ġstars":7883,"Ġreduce":7884,"ĉĠĠĠĠĠĠĠ":7885,"itness":7886,"ĠMult":7887,"ĠVictor":7888,"Ġtools":7889,"iar":7890,"VALUE":7891,"Mer":7892,"Î¿":7893,"circ":7894,"ĠMil":7895,"aks":7896,"POST":7897,"ĠOh":7898,"swarm":7899,"Ġoccup":7900,"LL":7901,"required":7902,"(@":7903,"ĠGl":7904,"Ġblood":7905,"Ġbroadcast":7906,"Pair":7907,"generated":7908,"ĠDom":7909,"razil":7910,"edom":7911,"checkbox":7912,"thm":7913,"ĠSecurity":7914,"Ids":7915,"Ġvisual":7916,"Ġinner":7917,"Framework":7918,"ups":7919,"ĠIreland":7920,"Ġfirm":7921,"picker":7922,"Ġbattle":7923,"ifndef":7924,"Ġsociety":7925,"elcome":7926,"Syntax":7927,"Ġcharset":7928,"()))":7929,"Import":7930,"Ġsolutions":7931,"ĠAtt":7932,"construct":7933,"apers":7934,"Ġdelay":7935,"Psi":7936,"('/":7937,"Ġvariety":7938,"olec":7939,"Ġassume":7940,"ĠPolicy":7941,"Ġsites":7942,"ova":7943,"Ġdepth":7944,"ĠBur":7945,"à¸":7946,"Ġbuildings":7947,"uts":7948,"Ġtmp":7949,"oz":7950,"ĠSpec":7951,"Ġpred":7952,"ĠWed":7953,"wildfly":7954,"QU":7955,"Ġrestrict":7956,"ĠChicago":7957,"(.":7958,"Ġresponsible":7959,"ih":7960,"FE":7961,"ĠÐ¿":7962,"ĠGlobal":7963,"ĠReport":7964,"nabla":7965,"ĠTO":7966,"Flag":7967,"ĠFriday":7968,"mbox":7969,"Compar":7970,"Ġfarm":7971,"ĠPRO":7972,"REG":7973,"ĠPower":7974,"arant":7975,"Microsoft":7976,"numerus":7977,"Ġ).":7978,"Ġdetermined":7979,"numerusform":7980,"boost":7981,"ima":7982,"ira":7983,"Ġagreed":7984,"fixed":7985,"scss":7986,"CTYPE":7987,"Ġfourth":7988,"TV":7989,"ĠSQL":7990,"Ġcompos":7991,"ummy":7992,"Ġdisease":7993,"xhtml":7994,"socket":7995,"Ġcloud":7996,"glyph":7997,"iminal":7998,"player":7999,"href":8000,"Ġpressure":8001,"riage":8002,"night":8003,"ĠLove":8004,"ĠPop":8005,"GO":8006,"ĠTour":8007,"ĠAndroid":8008,"ipped":8009,"Ġlaws":8010,"About":8011,"Our":8012,"Volume":8013,"Two":8014,"sel":8015,"Ġreset":8016,"python":8017,"Ġplays":8018,"uz":8019,"Ġwat":8020,"ĠEarth":8021,"blue":8022,"Summary":8023,"extern":8024,"deg":8025,"kt":8026,"Interval":8027,"****************************************************************":8028,"lict":8029,"Ġmobile":8030,"ĠØ":8031,"Ġbranch":8032,"pattern":8033,"ifiers":8034,"Ign":8035,"Ġinterval":8036,"Ġarm":8037,"Ġmixed":8038,"Ġ\\\"":8039,"Some":8040,"ENSE":8041,"Ġprovider":8042,"optional":8043,"Ġillustr":8044,"While":8045,"ilters":8046,"ĠSoftware":8047,"Ġvertical":8048,"MI":8049,"Ġchart":8050,"Area":8051,"Sort":8052,"ĠBrown":8053,"Ġsegment":8054,"Ġwhom":8055,"ĠSpecial":8056,"ĠLand":8057,"Flow":8058,"Ġshowed":8059,"Bean":8060,"ĠPR":8061,"NavBarFont":8062,"amel":8063,"Ġvalign":8064,"Ġverify":8065,"Ġcreation":8066,"zen":8067,"ĠEach":8068,"Ġnorm":8069,"goto":8070,"xs":8071,"ancing":8072,"...</":8073,"Ġfine":8074,"ossible":8075,"Ġraised":8076,"Ġhear":8077,"since":8078,"DEBUG":8079,"Make":8080,"Ġolder":8081,"war":8082,"Ġworkers":8083,"Email":8084,"Elements":8085,"Named":8086,"metric":8087,"iments":8088,"ĠVector":8089,"report":8090,"ĠProcess":8091,"when":8092,"esome":8093,"Ġslight":8094,"claim":8095,"Ġencour":8096,";\">":8097,"cheduler":8098,"Ġbrand":8099,"'];":8100,"ĠâĢ¢":8101,"Ġhar":8102,"eck":8103,"uages":8104,"Ġelectric":8105,"Ġfig":8106,"Ġmanaged":8107,"ters":8108,"Ġmorning":8109,"Ġelected":8110,"Ġknew":8111,"ening":8112,"Ġrect":8113,"blank":8114,"Ġ..":8115,"Ġsteps":8116,"ĠDown":8117,"ĠArab":8118,"Ġlic":8119,"Ġindividuals":8120,"ador":8121,"Ġmission":8122,"»¿":8123,"MC":8124,"EV":8125,"DOCTYPE":8126,"Ġdisabled":8127,"Ġacadem":8128,"Ġcritic":8129,"EST":8130,"Ġprops":8131,"awn":8132,"println":8133,"lie":8134,"Ã¨":8135,"ĠIts":8136,"ocation":8137,"ĠSunday":8138,"iated":8139,"ĠProperty":8140,"Ġrepresented":8141,"Ġwood":8142,"Sql":8143,"Ġscroll":8144,"{\"":8145,"ï»¿":8146,"flex":8147,"Sequence":8148,"etailed":8149,"library":8150,"Ġstored":8151,"Ġalone":8152,"Short":8153,"Ġanimation":8154,"Bind":8155,"Ġstructures":8156,"Ġcancer":8157,"Ġroll":8158,"PROJECT":8159,"agent":8160,"Ġstraight":8161,"zure":8162,"Ġsummary":8163,"ĠTechnology":8164,"HS":8165,"Ġbuf":8166,"Ġthous":8167,"Ġfounded":8168,"ĠAuthor":8169,"Ġgrid":8170,"Math":8171,"exec":8172,"plus":8173,"icine":8174,"plates":8175,"Ġframework":8176,"Fin":8177,"Ġagree":8178,"Ġvel":8179,"Ġautomatically":8180,"uzz":8181,"pressed":8182,"Ġtraff":8183,"Notification":8184,"proxy":8185,"Ġoccur":8186,"Ġdocumentation":8187,"Ġannual":8188,"ĠLem":8189,"stable":8190,"kins":8191,"']['":8192,"uplic":8193,"Bound":8194,"dem":8195,"ĠHead":8196,"Ġhyp":8197,"arian":8198,"ĠBlock":8199,"Ġdict":8200,"Ġaudio":8201,"ographic":8202,"words":8203,"throw":8204,"ilevel":8205,"Ġsquare":8206,"}]":8207,"wall":8208,"Skip":8209,"ĠJud":8210,"loader":8211,"Book":8212,"Ġflex":8213,"1988":8214,"osis":8215,"Ġhol":8216,"Env":8217,"ierarch":8218,"Ġbinary":8219,"Stop":8220,"owers":8221,"INTER":8222,"ĠRail":8223,"Wallet":8224,"Ġaxis":8225,"Ð²":8226,"Ġpan":8227,"TT":8228,"world":8229,"urance":8230,"oving":8231,"Ġoil":8232,"Children":8233,"apos":8234,"Ġsea":8235,"ĠFootball":8236,"Ġpp":8237,"ĠLee":8238,"Ġcolumns":8239,"Ġextended":8240,"Look":8241,"Ġversions":8242,"ELD":8243,"Ġsell":8244,"Mouse":8245,"Ġmaybe":8246,"Ġalleg":8247,"Native":8248,"Ġclin":8249,"checked":8250,"Ġwonder":8251,"ĠCatholic":8252,"Ġneighbor":8253,"ĠJun":8254,"animation":8255,"ĠLi":8256,"Enumer":8257,"ĠANY":8258,"Ġserve":8259,"Ġcamera":8260,"arc":8261,"REQ":8262,"Ġshift":8263,"commit":8264,":\\":8265,"Install":8266,"ĠVari":8267,"Endpoint":8268,"Ġlistener":8269,"undefined":8270,"Ġsurvey":8271,"Ġ];":8272,"ĠInput":8273,".\",":8274,"USER":8275,"ĠEND":8276,"original":8277,"Ġbrief":8278,"Ġcru":8279,"ĠCentre":8280,"Gui":8281,"Ġsales":8282,"chain":8283,"Ġdespite":8284,"Ġdraft":8285,"condition":8286,"cheduled":8287,"They":8288,"ĠBit":8289,"Ġhappened":8290,"dig":8291,"netic":8292,"ĠDocument":8293,"Ġdog":8294,"Ġstock":8295,"quis":8296,"Ġhour":8297,"ĠTwitter":8298,"geo":8299,"Ġspread":8300,"ench":8301,"(\"/":8302,"Ġschema":8303,"atar":8304,"iling":8305,"ĠClient":8306,"ĠVirginia":8307,"agger":8308,"Cloud":8309,"gers":8310,"je":8311,"Multi":8312,"ĠCustom":8313,"ati":8314,"Ġmajority":8315,"ĠSIZE":8316,"issues":8317,"DR":8318,"Ġadopt":8319,"\\|":8320,"Ġresulting":8321,"áĥ":8322,"ĠSource":8323,"ashion":8324,"tk":8325,"ĠSupport":8326,"METH":8327,"ollowing":8328,"Arch":8329,"ĠSummer":8330,"Ġoriginally":8331,"Ġprim":8332,"Ġended":8333,"formance":8334,"urface":8335,"Ġappointed":8336,"Ġadult":8337,"SELECT":8338,"ĠYoung":8339,"Fragment":8340,"Here":8341,"ĠSpace":8342,"ĠAwards":8343,"Ġapilevel":8344,"ectors":8345,"pear":8346,"Ġcommunities":8347,"&\\":8348,"Ġfle":8349,"ĠTre":8350,"Ġil":8351,"Vertex":8352,"ĠMa":8353,"standing":8354,"bitr":8355,"rick":8356,"Enter":8357,"iana":8358,"Ġclimate":8359,"Lin":8360,"Ġgoals":8361,"asion":8362,"ĠElement":8363,"Ġdecre":8364,"Ġnoted":8365,"Required":8366,"Ġcitiz":8367,"Ġstuff":8368,"Ġexecution":8369,"Ġstarts":8370,"ĠWeek":8371,"ĠMexico":8372,"ĠExample":8373,"azy":8374,"Ġonto":8375,"sb":8376,"ĠLcom":8377,"Ġmurder":8378,"resolve":8379,"600":8380,"otic":8381,"groups":8382,"Users":8383,"bserv":8384,"Ġalbums":8385,"Ġnation":8386,"\"],":8387,"views":8388,"peat":8389,"Ġcandidate":8390,"ĠMain":8391,"iano":8392,"Ġsupports":8393,"aylor":8394,"Ġreserved":8395,"ycle":8396,"ĠFROM":8397,"kl":8398,"Ġcosts":8399,"Ġ'./":8400,"=-":8401,"cean":8402,"supported":8403,"Ġhospital":8404,"asm":8405,"}-":8406,"onday":8407,"rid":8408,"arnings":8409,"RPC":8410,"getValue":8411,"Methods":8412,"ĠALIGN":8413,"Db":8414,"NUM":8415,"Ġcompl":8416,"Ġarrest":8417,"Arr":8418,"Environment":8419,"Ġentered":8420,"ĠJo":8421,"typename":8422,"Ġrelevant":8423,"Miss":8424,"cluster":8425,"console":8426,"COMP":8427,"imitive":8428,"structions":8429,"Wait":8430,"ivation":8431,"Ġspirit":8432,"âĢĺ":8433,"Ġopts":8434,"Ġaircraft":8435,"Ġguest":8436,"Ġexecute":8437,"\\[":8438,"aria":8439,"Ġignore":8440,"Ġfederal":8441,"ĠItaly":8442,"Comple":8443,"ishes":8444,"Pod":8445,"CG":8446,"how":8447,"ĠEcon":8448,"ĠHenry":8449,"inion":8450,"Dictionary":8451,"Then":8452,"Ġmaterials":8453,"ĠAccess":8454,"assandra":8455,"Ġscheme":8456,"Ġtransl":8457,"ĠDesign":8458,"Ġprison":8459,"nel":8460,"Ġadjust":8461,"Ġprem":8462,"going":8463,"textit":8464,"GER":8465,"Ġshop":8466,"åĪ":8467,"EventListener":8468,"Ġessential":8469,"indent":8470,"Ġtal":8471,";\\":8472,"ĠScot":8473,"Ġaw":8474,"Ð°Ð½":8475,"ourse":8476,"Ġrates":8477,"ĠElect":8478,"ĠEven":8479,"Ġlooked":8480,"1987":8481,"Ġmultip":8482,"vs":8483,"Ġmonitor":8484,"opes":8485,"Ġaccom":8486,"sidebar":8487,"})$":8488,"Ġexamples":8489,"Ġreasons":8490,"Ġleaders":8491,"Rob":8492,"Phone":8493,"Ġgrowing":8494,"blog":8495,"ĠSearch":8496,"Ġagreement":8497,"Ġhundred":8498,"selector":8499,"month":8500,"Ġexpand":8501,"Begin":8502,"{-":8503,"ullet":8504,"Ġcat":8505,"METHOD":8506,"stone":8507,"iced":8508,"ĠSaturday":8509,"Ġmatching":8510,"Ġshowing":8511,"ĠWood":8512,"ILE":8513,"Ġspin":8514,"Ġwinning":8515,"Ġsuccessfully":8516,"bits":8517,"ĠMP":8518,"vc":8519,"tf":8520,"Ġidentified":8521,"ĠControl":8522,"Ġentries":8523,"pa":8524,"ĠNAV":8525,"æľ":8526,"NN":8527,"apis":8528,"icol":8529,"Ġtried":8530,"iber":8531,"inf":8532,"RR":8533,"CF":8534,"Constant":8535,"ĠSpanish":8536,"alytics":8537,"nonumber":8538,"Ġadding":8539,"ĠAlthough":8540,"develop":8541,"ĠPlease":8542,"ä»":8543,"ĠCommand":8544,"helper":8545,"wer":8546,"ĠEvery":8547,"usband":8548,"but":8549,"Day":8550,"iques":8551,"DATA":8552,"Ġdie":8553,"warning":8554,"Ġinfluence":8555,"named":8556,"Ġmostly":8557,"ANT":8558,"MIN":8559,"sequence":8560,"rift":8561,"Ġrad":8562,"ailing":8563,"Ġpartner":8564,"Cast":8565,"#{":8566,"Ġactor":8567,"hetic":8568,"Free":8569,"ĠThus":8570,"Compiler":8571,"nn":8572,"Ġmentioned":8573,"Ġbillion":8574,"Ġregistered":8575,"shift":8576,"Ġemb":8577,"ĠCommunity":8578,"CHAR":8579,"dots":8580,"Ġmetal":8581,"unities":8582,"lat":8583,"urer":8584,"download":8585,"Should":8586,")-":8587,"route":8588,"clone":8589,"PUT":8590,"citep":8591,"ĠĠĠĠĠĠĠĠĠĠĠĠĠĠĠĠĠĠĠĠĠĠĠĠĠĠĠĠĠĠ":8592,"Program":8593,"Ġprove":8594,"Ġtransparent":8595,"Ġ([":8596,"Ġconcent":8597,"âĢĿ,":8598,"Ġ\"\",":8599,"Ġinnov":8600,"inations":8601,"ĠBet":8602,"runtime":8603,"widet":8604,"NSString":8605,"eces":8606,"ums":8607,"icator":8608,"mouse":8609,"ĠallClasses":8610,"Ġhelped":8611,"Ġ\"$":8612,"about":8613,"isted":8614,"Ġlaunched":8615,"Ġdoor":8616,"WORD":8617,"ĠSign":8618,"ĠEli":8619,"policy":8620,"ĠRefer":8621,"Ġtruth":8622,"sync":8623,"Ġequivalent":8624,"istribution":8625,"fast":8626,"Ġaim":8627,"Ġstations":8628,"Ġcompare":8629,"commons":8630,"constructor":8631,"Ġtrial":8632,"800":8633,"person":8634,"Ġchief":8635,"ĠallClassesLink":8636,"Ġheavy":8637,"Ġmd":8638,"inherit":8639,"SSL":8640,"Ġpi":8641,"STATE":8642,"Ġhuge":8643,"IOException":8644,"ĠBob":8645,"Ġclaims":8646,"once":8647,"ORY":8648,"ĠAdmin":8649,"bel":8650,"osoph":8651,"operation":8652,"ogram":8653,"Ġspan":8654,"ĠKar":8655,"trace":8656,"ĠValley":8657,"Ġoccurred":8658,"emy":8659,"Save":8660,"odies":8661,"Contact":8662,"tw":8663,"Ġaware":8664,"ĠChief":8665,"lig":8666,"Ġsamples":8667,"Connect":8668,"essions":8669,"Ġcontents":8670,"NET":8671,"Ġmodified":8672,"visible":8673,"Compat":8674,"ĠAre":8675,"isc":8676,"poration":8677,"Ġweap":8678,"catch":8679,"Constructor":8680,"ĠBoolean":8681,"ĠMiddle":8682,"Usage":8683,"Ġforced":8684,"Ġrare":8685,"pet":8686,"uce":8687,"Ã£":8688,"ĠPac":8689,"Ġkept":8690,"apes":8691,"ĠâĢ¦":8692,"Join":8693,"driver":8694,"Dem":8695,"ĠOptional":8696,"sr":8697,"sets":8698,"inet":8699,"Ġcursor":8700,"black":8701,"Ġwid":8702,"Ġfeatured":8703,"Ġregions":8704,"pull":8705,"250":8706,"Ġ_,":8707,"Ġpaid":8708,"ArgumentException":8709,"ustain":8710,"CDATA":8711,"ĠAtl":8712,"à¥":8713,"REE":8714,"Ġfinish":8715,"Ġstrateg":8716,"Ġprocesses":8717,"Execution":8718,"Ġfrequency":8719,"Ġspecify":8720,",'":8721,"atomic":8722,"/\"":8723,"Allow":8724,"Ġleaving":8725,"Ġsusp":8726,"Serv":8727,"ÏĦ":8728,"widetilde":8729,"Batch":8730,"ressed":8731,"1986":8732,"Ġrows":8733,"Fact":8734,"ĠJones":8735,"ĠEr":8736,"prox":8737,"people":8738,"Ġfactors":8739,"Ġusage":8740,"facebook":8741,"Ġdamage":8742,"ĠCare":8743,"ĠLord":8744,"Ġshut":8745,"Ġsql":8746,"FUN":8747,"eler":8748,"?\"":8749,"ĠSE":8750,"Ġideas":8751,"Platform":8752,"pared":8753,"slice":8754,"factory":8755,"LC":8756,"Ġeq":8757,"Ġsenior":8758,"ĠFort":8759,"Ġcouldn":8760,"cluded":8761,"Ġefforts":8762,"ĠOriginal":8763,"ursday":8764,"ORTED":8765,"........":8766,"Warning":8767,"ÛĮ":8768,"ĠCH":8769,"Limit":8770,"Ġmiles":8771,"objects":8772,"she":8773,"ĠRest":8774,"Ġobvious":8775,"opts":8776,"Ġphil":8777,"Private":8778,"Ġboy":8779,"Ġunderstanding":8780,"elligence":8781,"avour":8782,"StyleID":8783,"ĠĠĠĊ":8784,"%\"":8785,"Ġadvert":8786,"ĠApple":8787,"Focus":8788,"1984":8789,"ÑģÑĤ":8790,"Ġduration":8791,"Ġpaint":8792,"Ġstrugg":8793,"transition":8794,"Sigma":8795,"verter":8796,"Ġfmt":8797,"Ġresolve":8798,"ski":8799,"Ġdemand":8800,"ustrial":8801,"InputStream":8802,"agnostics":8803,"Ġfol":8804,"ĠRout":8805,"Ġexchange":8806,"Driver":8807,"ela":8808,"ĠSwed":8809,"lan":8810,"MODE":8811,"Ġmeta":8812,"MODULE":8813,"ĠSD":8814,"Ġinterested":8815,"Ġ@\"":8816,"ulf":8817,"Ġtags":8818,"nergy":8819,"release":8820,"Ġoffered":8821,"VE":8822,"Ġadvant":8823,"itan":8824,"ĠCard":8825,"Tile":8826,"Ġaf":8827,"Ġ'\\":8828,"accept":8829,"seg":8830,"Ġdynam":8831,"ĠNav":8832,"ĠDig":8833,">)":8834,"Ġ'',":8835,"ĠJohnson":8836,"istence":8837,"amin":8838,"cf":8839,"ĠIslam":8840,"Move":8841,"Ġring":8842,"compile":8843,"ĠWrite":8844,"Ġreduced":8845,"Ġdialog":8846,"lemma":8847,"Ġdestination":8848,"Forms":8849,"ĠCross":8850,"porate":8851,"highlight":8852,"SK":8853,"ĠHuman":8854,"Ġcoast":8855,"Ġparties":8856,"alm":8857,"oes":8858,"Ġgovern":8859,"isting":8860,"seud":8861,"isEmpty":8862,"Ġcentre":8863,"Ġcovered":8864,"ĠSar":8865,"Ġloaded":8866,"destroy":8867,"Ġfloor":8868,"1985":8869,"Dev":8870,"trl":8871,"ĠTri":8872,"Ġprev":8873,"aling":8874,"Ġradi":8875,"Div":8876,"Unknown":8877,"ĠNAVBAR":8878,"ERS":8879,"atics":8880,"alog":8881,"Ġvehicle":8882,"ixels":8883,"Own":8884,"Ġedition":8885,"Ġspot":8886,"Screen":8887,"}}{":8888,"Ġrequirements":8889,"Ġapproximately":8890,"Ang":8891,"ifically":8892,"Ġcustomers":8893,"Ġkids":8894,"umes":8895,"ideos":8896,"creens":8897,"!\"":8898,"ĠFOR":8899,"isms":8900,"ceeded":8901,"Ġconvers":8902,"yy":8903,"Scal":8904,"101":8905,"AF":8906,"Ġig":8907,"Ġtopic":8908,"Basic":8909,"ĠBlue":8910,"expect":8911,"Ġassign":8912,"Ġenh":8913,"ashed":8914,"DIS":8915,"LOC":8916,"Ġappearance":8917,"np":8918,"validate":8919,"ĠTheir":8920,"Ġlab":8921,"ulator":8922,"variable":8923,"Identity":8924,"ĠHaw":8925,"Ġ''":8926,"Ñĩ":8927,"STRING":8928,"ĠGi":8929,"lications":8930,"aked":8931,"Ġbecoming":8932,"aka":8933,"ĠConference":8934,"mooth":8935,"lipse":8936,"ĠLab":8937,"ĠPlan":8938,"Ġwall":8939,"dy":8940,"amer":8941,"riz":8942,"Ġkill":8943,"ĠStatus":8944,"eller":8945,"\"].":8946,"Sm":8947,"tar":8948,"circle":8949,"Ġ\"%":8950,"Ġsmart":8951,"Ġpowerful":8952,"ĠPH":8953,"dimension":8954,"avity":8955,"Ġcool":8956,"Ġremained":8957,"ĠChristmas":8958,"Ġmeant":8959,"_);":8960,"Ġ>>>":8961,"Just":8962,"ĠSaint":8963,"pag":8964,"()),":8965,"Ġconnections":8966,"âĢ¢":8967,"kwargs":8968,"Ġ\"\";":8969,"gebra":8970,"Ġintended":8971,"Ġextrem":8972,"Äģ":8973,"Ġaudience":8974,"Ġmusical":8975,"ellij":8976,"ĠBrazil":8977,"ĠOl":8978,"plot":8979,"osure":8980,"Tasks":8981,"ez":8982,"PM":8983,"Ġsuc":8984,"rich":8985,"initions":8986,"Detail":8987,"simple":8988,"Raw":8989,"alert":8990,"Ġanaly":8991,"ishop":8992,"alty":8993,"ĠON":8994,"Validation":8995,"Ġtsd":8996,"Ġpicture":8997,"duration":8998,"SM":8999,"ĠLast":9000,"Ġking":9001,"adium":9002,"imp":9003,"ĠWIT":9004,"Ġdepends":9005,"oston":9006,"CALL":9007,"Operator":9008,"Cmd":9009,"ĠSets":9010,"dc":9011,"zero":9012,"setup":9013,"Ġthinking":9014,"Writ":9015,"Ġincome":9016,"intellij":9017,"Ð¼":9018,"Ġunion":9019,"cup":9020,"Ġisland":9021,"Ġlatter":9022,"Ġbeautiful":9023,"ĠSelect":9024,"ea":9025,"eper":9026,"ILD":9027,"']);":9028,"Ġbill":9029,"Ġconference":9030,"Ġvalidate":9031,"awa":9032,"volume":9033,"database":9034,"extend":9035,"large":9036,"Capt":9037,"Ġcancel":9038,"ĠAsia":9039,"Ġtells":9040,"origin":9041,"ĠTerm":9042,"Ġhusband":9043,"ryption":9044,"Ġcombined":9045,"Ġboundary":9046,"Ġjoint":9047,"Ġpet":9048,"ORDER":9049,"iser":9050,"=\\\"":9051,"Ġdisk":9052,"oses":9053,"CONT":9054,"ĠWater":9055,"Ġdynamic":9056,"Ġstudied":9057,"Ġperhaps":9058,"Ġassembly":9059,"RC":9060,"issue":9061,"akistan":9062,"Copyright":9063,"IAL":9064,"Ġbind":9065,"ĠWay":9066,"plan":9067,"zip":9068,"Lower":9069,"mediate":9070,"resentation":9071,"ANCE":9072,"ockey":9073,"=\"../../../../../../../":9074,"Ġpositions":9075,"Ġintr":9076,"Ġran":9077,"Ġratio":9078,"\\]":9079,"batch":9080,"Ġconfirm":9081,"Ġfeet":9082,"dependent":9083,"Ġwarning":9084,"Ġcomparison":9085,"These":9086,"Ġofficer":9087,"Ġregarding":9088,"tex":9089,"Ġembed":9090,"CLASS":9091,"çĶ":9092,"plementation":9093,"iversal":9094,"ĠSand":9095,"Ġaddresses":9096,"Ġrequested":9097,"Ġrestaur":9098,"Ġfear":9099,"Serializer":9100,"Ġalternative":9101,"Ġmotion":9102,"bg":9103,"Place":9104,"har":9105,"1950":9106,"Mapper":9107,"Ġassigned":9108,"Ġidentify":9109,"Ġoperating":9110,"transaction":9111,"ĠDB":9112,"basic":9113,"Ġ'';":9114,"ĠEmp":9115,"agraph":9116,"Ġorganizations":9117,"DEF":9118,"ĠGuide":9119,"Ġfru":9120,"uesday":9121,"Ġselector":9122,"iffer":9123,"ĠIrish":9124,"nob":9125,"emit":9126,"Ġfamous":9127,"Addr":9128,"iration":9129,"ĠChris":9130,"Ġresolution":9131,"illy":9132,"Ġlived":9133,"enger":9134,"Ø±":9135,"ĠJon":9136,"ĠWAR":9137,"life":9138,"loop":9139,"ourney":9140,"Ġproducer":9141,"andon":9142,"okes":9143,"Ġchallenge":9144,"Ġtraffic":9145,"NotFound":9146,"ses":9147,"ĠMen":9148,"Ġwind":9149,"disable":9150,"merge":9151,"isset":9152,"LOW":9153,"Ġsys":9154,"Please":9155,"exit":9156,"Ġboost":9157,"Ġforest":9158,"ĠOS":9159,"uality":9160,"SCRIPT":9161,"DATE":9162,"Ġdocuments":9163,"athan":9164,"Ġwriters":9165,"sn":9166,"UES":9167,"shal":9168,"Append":9169,"Ġice":9170,"spacing":9171,"Theme":9172,"elem":9173,"Ġmagn":9174,"Border":9175,"ĠGre":9176,"complete":9177,"UND":9178,"assertTrue":9179,"Ġdrink":9180,"ĠFamily":9181,"Ġrepresenting":9182,"Ġsb":9183,"otimes":9184,"Ġpropos":9185,"lik":9186,"Ġjobs":9187,"sin":9188,"Ġaccepted":9189,"ictures":9190,"Ġcarried":9191,"Ġru":9192,"Ġga":9193,"Normal":9194,"ĠNet":9195,"ĠFour":9196,"RT":9197,"Å¡":9198,"Ġnotes":9199,"atever":9200,"oked":9201,"submit":9202,"Ġawarded":9203,"vo":9204,"Ġchosen":9205,"ĠRights":9206,"gg":9207,"Ġdream":9208,"wan":9209,"orrow":9210,"TestCase":9211,"Ã£o":9212,"Ġtasks":9213,"etes":9214,"Ġdaily":9215,"Watch":9216,"ĠMi":9217,".\"\"\"":9218,"tabular":9219,"ĠMock":9220,"\"},":9221,"Ġbeat":9222,"Ġarticles":9223,"Ġfan":9224,"DOM":9225,"irror":9226,"Ð¾Ð²":9227,"ĠParliament":9228,"Î¹":9229,"atial":9230,"Ġbalance":9231,"Ġimplemented":9232,"deprecated":9233,"Ġpil":9234,"ĠRemove":9235,"ĠDEFAULT":9236,"ĠAbout":9237,"overview":9238,"ĠOrgan":9239,"TRY":9240,"created":9241,"rece":9242,"Ġgal":9243,"Ġinstruction":9244,"Ġplane":9245,"Ġdivision":9246,"PU":9247,"Best":9248,"Ġcontinues":9249,"Release":9250,"methods":9251,"Clear":9252,"Ġwish":9253,"ssl":9254,"ĠInternet":9255,"Condition":9256,"Ġalert":9257,"UMM":9258,"Ġscored":9259,"Audio":9260,"Ġinstances":9261,"uries":9262,"ĠFind":9263,"Ġprobability":9264,"agnostic":9265,"Folder":9266,"friend":9267,"ĠBow":9268,"phot":9269,"ancell":9270,"Fore":9271,"ĠJoseph":9272,"Ġsupply":9273,"loss":9274,"Pers":9275,"Ġtoward":9276,"Objects":9277,"/.":9278,"Ġsector":9279,"UST":9280,"ĠMany":9281,"ĠHon":9282,"Navigation":9283,":@\"":9284,"Renderer":9285,"SV":9286,"Transport":9287,"Ġpeace":9288,">;":9289,"??":9290,"Ġsaved":9291,"ĠIllegal":9292,"Ġfinite":9293,"1983":9294,"getElementById":9295,"Ġcombination":9296,"enumer":9297,"Ġclearly":9298,"Ġfresh":9299,"Ġahead":9300,"Remote":9301,"ĠFrancisco":9302,"Axis":9303,"Ġfish":9304,"Ġhistorical":9305,"Ġevolution":9306,"Ġcrow":9307,"Ġrac":9308,"Errors":9309,"CB":9310,"Ġdistinct":9311,"Ġattract":9312,":[":9313,"Ġowned":9314,"Consumer":9315,"Ġplus":9316,"ĠGeorgia":9317,"reader":9318,"ONG":9319,"Ġcompute":9320,"Ġsynchron":9321,"6666":9322,"}+":9323,"ĠCommon":9324,"ĠLoad":9325,"ĠStandard":9326,"twitter":9327,"Ġstreet":9328,"Ġderived":9329,"Ġadministr":9330,"Processor":9331,"æĸ":9332,"ĠFire":9333,"Ġlands":9334,"Ġspaces":9335,"ĠResponse":9336,"rastructure":9337,"bro":9338,"ĠApache":9339,"nesday":9340,"Ġsomew":9341,"Ġattend":9342,"ysical":9343,"Resolver":9344,"Ġcities":9345,"pload":9346,"\\%":9347,"Messages":9348,"Card":9349,"Ġpromise":9350,"program":9351,"bean":9352,"Ġconsists":9353,"Îµ":9354,"ĠWal":9355,"ĠFigure":9356,"Ġcars":9357,"react":9358,"Ġsync":9359,"sa":9360,"ials":9361,"changed":9362,"puter":9363,"ni":9364,"Ġapplicable":9365,"Ġsun":9366,"forEach":9367,"Ġzone":9368,"logo":9369,"bat":9370,"ussian":9371,"Ġ\".":9372,"ĠNight":9373,"Insert":9374,"ĠOlympics":9375,"unte":9376,"Ġreality":9377,"Ġleads":9378,"ĠHas":9379,"jQuery":9380,"Ġalumni":9381,"OF":9382,"Complete":9383,"ipping":9384,"ATED":9385,"memory":9386,"Ġdetect":9387,"BB":9388,"Html":9389,"Ġnewsp":9390,"ĠAbstract":9391,"Validator":9392,"RAY":9393,"ĠSports":9394,"ĠXML":9395,"ansas":9396,"iciency":9397,"ĠHa":9398,"eto":9399,"Ġfrag":9400,"Drop":9401,"ĠEnvironment":9402,"Ġarbitr":9403,"Many":9404,"ĠKh":9405,"Ġens":9406,"Ġchunk":9407,"alo":9408,"available":9409,"ĠEq":9410,"Ġdanger":9411,"hesis":9412,"Annotation":9413,"Ġdiscussion":9414,"apy":9415,"ogen":9416,"gypt":9417,"orders":9418,"integer":9419,"Ġsinger":9420,"Signature":9421,"ĠMember":9422,"ĠApplication":9423,"Ġrevealed":9424,"ĠMah":9425,"blem":9426,"stra":9427,"Ġ_.":9428,"water":9429,"atters":9430,"activity":9431,"canvas":9432,"Ġplanning":9433,"ĠPolice":9434,"}'":9435,"ĠWilliams":9436,"ĠMike":9437,"NV":9438,"Ġpoet":9439,"ĠJac":9440,"Hub":9441,"acks":9442,"centering":9443,"ushed":9444,"Ġreligious":9445,"ĠArea":9446,"Ġconcentr":9447,"Ġbed":9448,"Ġcontem":9449,"Ġelif":9450,"fold":9451,"abeth":9452,"pres":9453,"Fn":9454,"messages":9455,"ĠLuc":9456,"Ġgone":9457,"Ġbatch":9458,"å®":9459,"iÃ³n":9460,"Constraint":9461,"Ġearth":9462,"Cursor":9463,"ĠLjava":9464,"\\{":9465,"Ġfif":9466,"ucky":9467,"rawn":9468,"fetch":9469,"FIELD":9470,"=#":9471,"Ġcontinuous":9472,"ANG":9473,"ĠMonday":9474,"ĠBoth":9475,"Proto":9476,"Ġcultural":9477,"Ġisol":9478,"odd":9479,"ĠAndrew":9480,"ĠColumb":9481,"Ġidentifier":9482,"cli":9483,"prime":9484,"ien":9485,"ĠTele":9486,"ĠRo":9487,"ĠWall":9488,"Throw":9489,"CM":9490,"Ġbug":9491,"ĠNorthern":9492,"Amount":9493,"ĠVan":9494,"ĠWIDTH":9495,"ĠKen":9496,"Äĩ":9497,"cher":9498,"Ġdepartment":9499,"ï¼Į":9500,"Ġwaiting":9501,"Ġtalking":9502,"ĠWhy":9503,"wd":9504,"Ġwarm":9505,"TF":9506,"inator":9507,"news":9508,"Ġflat":9509,"Ġskills":9510,"ĠWin":9511,"BY":9512,"ĠDescription":9513,"ĠSenate":9514,"Ġemer":9515,"Ġlabels":9516,"1982":9517,"ktop":9518,"mapping":9519,"Ð´":9520,"cha":9521,"ĠJes":9522,"ĉĠĠ":9523,"Ġbits":9524,"ĠIII":9525,"cknow":9526,"Ġchair":9527,"Ġmunicip":9528,"Ġuniform":9529,"LY":9530,"Ġofficials":9531,"ĠRadio":9532,"Ġpurs":9533,"Strategy":9534,"ulty":9535,"Span":9536,"Ġdependencies":9537,"Ġseg":9538,"Ġsleep":9539,"pair":9540,"ationToken":9541,"Drawing":9542,"Word":9543,"havior":9544,"okens":9545,"ĠSte":9546,"ĠLight":9547,"ĠMot":9548,"Ġpermission":9549,"Binding":9550,"000000":9551,"Nullable":9552,"ĠFe":9553,"ĠAff":9554,"pler":9555,"ĠWho":9556,"Ġult":9557,"Ġfragment":9558,"jack":9559,"Ġsurpr":9560,"ĠContent":9561,"Ġtracks":9562,"notes":9563,"Ġskip":9564,"125":9565,"oting":9566,"Information":9567,"fi":9568,"Ġsy":9569,"CONFIG":9570,"Ġrecommend":9571,"ĠSir":9572,"inity":9573,"sym":9574,"ĠNE":9575,"ĠBad":9576,"bose":9577,"ĠJoe":9578,"navigation":9579,"åĲ":9580,"osa":9581,"Light":9582,"NC":9583,"pkg":9584,"Ġda":9585,"Ġcommunication":9586,"Ġburn":9587,"Ġjump":9588,"ĠBritain":9589,"osp":9590,"scr":9591,"care":9592,"Ġ'.":9593,"ĠTheorem":9594,"RED":9595,"assign":9596,"ĠSi":9597,"perm":9598,"Ġfootballers":9599,"Ġnine":9600,"Ġestimated":9601,"rg":9602,"1979":9603,"ĠPerson":9604,"Ġmapping":9605,"ĠÂ»":9606,"ĠSpain":9607,"Require":9608,"collect":9609,"constant":9610,"Ġmouse":9611,"ĠTw":9612,"Ġbrain":9613,")=\\":9614,"Ġstudio":9615,"urban":9616,"Ġbasketball":9617,"Ġends":9618,"Ġdrag":9619,"Static":9620,"native":9621,"Ġliterature":9622,"fmt":9623,"ĠChange":9624,"ĠWalk":9625,"Ġiget":9626,"Ġupdates":9627,"toBe":9628,"rypto":9629,"arguments":9630,"Alloc":9631,"Ġneut":9632,"ĠMuslim":9633,"Ġexplan":9634,"vin":9635,"Ġsocket":9636,"Ġapparent":9637,"Ġeye":9638,"ĠWild":9639,"Ġtra":9640,"Mill":9641,"Ġpatient":9642,"Where":9643,"quote":9644,"Ġphoto":9645,"feed":9646,"Ġcustomer":9647,"Ġfiction":9648,"mond":9649,"Ġtypically":9650,"ĠTaylor":9651,"/\">":9652,"VAR":9653,"ĠMedical":9654,"strip":9655,"diff":9656,"Chain":9657,"ĠJeff":9658,"oral":9659,"HEAD":9660,"enant":9661,"Ġequipment":9662,"sex":9663,"Ġprotection":9664,"Ġvertex":9665,"Ġlocations":9666,"ĠLim":9667,"Drag":9668,"Ġ'%":9669,"Ġfinding":9670,"tor":9671,"Ġtournament":9672,"ope":9673,"anaged":9674,"gregate":9675,"edu":9676,"Ġallowing":9677,"forward":9678,"flo":9679,"ĠNY":9680,"itage":9681,"Ġnice":9682,"Ġlisting":9683,"ĠSouthern":9684,"Ġconsult":9685,"ipher":9686,"Ġpermissions":9687,"estic":9688,"some":9689,"Ġvir":9690,"Ġstats":9691,"Ġrelations":9692,"ASSERT":9693,"ĉĠĠĠĠ":9694,"ila":9695,"duce":9696,"vertical":9697,"ione":9698,"Ġcredit":9699,"Ġbenefit":9700,"ĠHy":9701,"Ġmetric":9702,"apsed":9703,"Ġnavbar":9704,"Ġstrength":9705,"Plan":9706,"Ġmerge":9707,"Ġther":9708,"onymous":9709,"Ġdetailed":9710,"nic":9711,"Rows":9712,"Ġknows":9713,"110":9714,"ĠTherefore":9715,"oviet":9716,"VID":9717,"reatest":9718,"Ġguide":9719,"ARD":9720,"ĠSong":9721,"Ġeconomy":9722,"During":9723,"Ġcorner":9724,"Ġriver":9725,"orney":9726,"ĠBecause":9727,"ĠRam":9728,"Ġpsych":9729,"Ġhers":9730,"ĠWARRAN":9731,"yer":9732,"Ġemit":9733,"Why":9734,"Edge":9735,"Ġseat":9736,"213":9737,"Prev":9738,"AUT":9739,"Ġindicates":9740,"Center":9741,"}=\\":9742,"uv":9743,"ĠPrem":9744,"ĠLay":9745,"ĠĠĠĠĠĠĠĠĠĠĊ":9746,"Failure":9747,"Ġnoise":9748,"Notes":9749,"ylvan":9750,"Fig":9751,"ĠFed":9752,"127":9753,"omorph":9754,"General":9755,"Ġmotor":9756,"Segment":9757,"Shared":9758,"rical":9759,"GA":9760,"Ġguarant":9761,"Groups":9762,"Ġoccurs":9763,"Pred":9764,"elines":9765,"Ġslightly":9766,"Ġaren":9767,"ĠWales":9768,"ĠGa":9769,"Leg":9770,"unct":9771,"Ġpermit":9772,"ĠThursday":9773,"directory":9774,"sen":9775,"LIST":9776,"Ġnumerous":9777,"sig":9778,">\"":9779,"generate":9780,"ĠCore":9781,"YY":9782,"Ġguess":9783,"Ġcontrast":9784,"Bounds":9785,"ĠServer":9786,"ĠÂ©":9787,"Ġvalidation":9788,"Lib":9789,"definition":9790,"Ġhappens":9791,"TY":9792,"Ġestim":9793,"ĠTheatre":9794,"bd":9795,"Loop":9796,"Binary":9797,"Ġlabor":9798,"Ġ}}":9799,"ĠCivil":9800,"Login":9801,"Ġexcell":9802,"Ġtrace":9803,"trim":9804,"180":9805,"ĠCy":9806,"ongo":9807,"Î½":9808,"stein":9809,"Ġrecording":9810,"Ġtrees":9811,"Ġcounty":9812,")}\\":9813,"Export":9814,"Ġcontained":9815,"Ġruntime":9816,"According":9817,">\\":9818,"Ġrich":9819,"Ġopacity":9820,"Library":9821,"ĠFund":9822,"Ġvictory":9823,"Ġcommission":9824,"ĠNext":9825,"idae":9826,"Ã±":9827,"Ġgather":9828,"Ġphotograph":9829,"Family":9830,"Ġcycle":9831,"Ġreceiving":9832,"Ġtensor":9833,"Ġpayload":9834,"Ġcertainly":9835,"radio":9836,"Contains":9837,"Ġmaps":9838,"Ġsignificantly":9839,"Ġauthors":9840,"ĠPolit":9841,"separ":9842,"Ġscr":9843,"Dig":9844,"HERE":9845,"DP":9846,"adel":9847,"two":9848,"NODE":9849,"Ġnetworks":9850,"COM":9851,"INSERT":9852,"Ġfee":9853,"Ġadministration":9854,"gi":9855,"ĠPri":9856,"Ġresidents":9857,"Ġserving":9858,"ĠQueen":9859,"Ġbudget":9860,"Ġfocused":9861,"agma":9862,"pad":9863,"åħ":9864,"rypted":9865,"ultural":9866,"Ġchanging":9867,"Ġ^":9868,"ĠNon":9869,"ĠWat":9870,"ĠMaster":9871,"Ġentert":9872,"Ġfunding":9873,"1981":9874,"ĠMid":9875,"Ġcalc":9876,"Ġbehavi":9877,"hard":9878,"Rate":9879,"Bi":9880,"getId":9881,"ĠHospital":9882,":'":9883,"Ġmarked":9884,".*;":9885,"Ġpaths":9886,"Ġtrib":9887,"mazing":9888,"ennis":9889,"ĠUkr":9890,"ĠExecut":9891,"Posted":9892,"phy":9893,"ĠCSS":9894,"TAG":9895,"ĠDemocratic":9896,"Ġpurposes":9897,"ĠMichigan":9898,"orient":9899,"ĠDelete":9900,"Ġuniversity":9901,"Ġissued":9902,"{$":9903,"Ġemployees":9904,"Ġleaves":9905,"folio":9906,"Ġexpansion":9907,"ĠBern":9908,"Ke":9909,"pid":9910,"osc":9911,"ĠHor":9912,"Setting":9913,"Ġanc":9914,"ĠSaf":9915,"timestamp":9916,"Ġguy":9917,"Cur":9918,"ĠCa":9919,"ASE":9920,"Master":9921,"ĠassertTrue":9922,"ĠCOL":9923,"contents":9924,"ĠCloud":9925,"Ġcrime":9926,"metry":9927,"(\"#":9928,"encode":9929,"enance":9930,"BI":9931,"elements":9932,"ĠLike":9933,"ducer":9934,"English":9935,"Columns":9936,"VICE":9937,"Ġescape":9938,"Ġtypedef":9939,"isa":9940,"zeta":9941,"Ġpoly":9942,"neg":9943,"Ġfeat":9944,"Management":9945,"Ġdefense":9946,"Errorf":9947,"Ġmodify":9948,"aph":9949,"ArrayList":9950,"Ġguid":9951,"Ġà¤":9952,"Ġjs":9953,"Ġpriv":9954,"ĠDaniel":9955,"Coll":9956,"Ġarchitecture":9957,"burgh":9958,"lint":9959,"Ġangle":9960,"Ġexpanded":9961,"Ġ$_":9962,"Ġloading":9963,";|":9964,")[":9965,"Ġdedicated":9966,"bc":9967,"Weight":9968,"Ġdiscovered":9969,"Ġdataset":9970,"ATTR":9971,"Ġtrip":9972,"Ġordered":9973,"subject":9974,"ĠColl":9975,"chen":9976,"ĠProfessor":9977,"alias":9978,"extra":9979,"Ġsoft":9980,"una":9981,"amilton":9982,"Ġpolicies":9983,"cuss":9984,"Accept":9985,"Bottom":9986,"strings":9987,"Ġconfirmed":9988,"Future":9989,"mann":9990,"ĠJustice":9991,"Ġmagazine":9992,"UMMARY":9993,"calendar":9994,"attery":9995,"ierarchy":9996,"Ġyourself":9997,"Ġsending":9998,"Ġsufficient":9999,"Ġquantum":10000,"Ġbenefits":10001,"Ġrise":10002,"ylvania":10003,"rtl":10004,"Ġproceed":10005,"evin":10006,"license":10007,"ĠSimple":10008,"Ġdrama":10009,"Ġrecip":10010,"Ġattacks":10011,"Download":10012,"Dependency":10013,"Overview":10014,"ĠCurrent":10015,"scala":10016,"gradle":10017,"ĠGreek":10018,"ando":10019,"ĠJewish":10020,"1976":10021,"1975":10022,"Ġinteg":10023,"compare":10024,"Ġflight":10025,"Ġlogging":10026,">()":10027,"Effect":10028,"]))":10029,"Bal":10030,"ĠStream":10031,"xspace":10032,"Ġleadership":10033,"Ġ{},":10034,"contact":10035,"rad":10036,"Virtual":10037,"Ġroles":10038,"}:":10039,"shop":10040,"remarks":10041,"Ġtor":10042,"ĠJackson":10043,"ĠThread":10044,"cassandra":10045,"uuid":10046,"SW":10047,"Ġinitially":10048,"uations":10049,"Ġ<-":10050,"ĠFar":10051,"Ġstandards":10052,"ĠBoston":10053,"INST":10054,"phrase":10055,"ĠĠĠĠĠĠĠĠĠĠĠĠĠĠĠĠĠĠĠĠĠĠĠĠĠĠĠĠĠĠĠĠĠĠĠĠĠĠĠĠĠĠĠĠĠĠĠ":10056,"ĠMajor":10057,"Ġmyself":10058,"Ġrelatively":10059,"ĠSpring":10060,"Same":10061,"Ġcitizens":10062,"Material":10063,"Arguments":10064,"ĠMO":10065,"ĠĠĠĠĠĠĠĠĠĠĠĠĠĠĠĠĠĠĠĠĠĠĠĠĠĠĠĠĠĠĠĠĠ":10066,"Ġofficers":10067,"Ġbiggest":10068,"STATUS":10069,"ãĢĤ":10070,"Ġmist":10071,"FFER":10072,"Ġseasons":10073,"ĠPacific":10074,"Ġinstant":10075,"Runner":10076,"1978":10077,"ĠHam":10078,"uffers":10079,"orial":10080,"Ġcriminal":10081,"Ġcapture":10082,"pton":10083,"ĠCG":10084,"validation":10085,"Ġsport":10086,"Ġmedal":10087,"ĉčĊ":10088,"PHP":10089,"Ġupload":10090,"ĠQuery":10091,"Ġsister":10092,"omics":10093,"Ġclients":10094,"rog":10095,"Ġindicate":10096,"Ġtick":10097,"ĠRecord":10098,"chester":10099,"ĠLive":10100,"ran":10101,"Ġmeasures":10102,"ĠRay":10103,"Exists":10104,"Ġtimestamp":10105,"Ġclock":10106,"Ġfant":10107,"Ġtechnical":10108,"Ġrapid":10109,"PY":10110,"elly":10111,"ĠPakistan":10112,"Ġcolspan":10113,"Using":10114,"Ġcoverage":10115,"Ġ'''":10116,"Ġmo":10117,"Timestamp":10118,"WIN":10119,"Ġelim":10120,"ĠRh":10121,"ĠPrince":10122,"ĠCapt":10123,"1972":10124,"ĠProt":10125,"patcher":10126,"unny":10127,"FOR":10128,"ĠLu":10129,"Under":10130,"Ġturns":10131,"/{":10132,"Ġ----------------------------------------------------------------":10133,"ĠReal":10134,"istogram":10135,"Ġsynt":10136,"Ġamb":10137,"ĠVideo":10138,"Ġtrend":10139,"Ġpriority":10140,"ĠSom":10141,"lower":10142,"Ġreferences":10143,"ĠLittle":10144,"Tra":10145,"Observer":10146,"present":10147,"Ġpolitics":10148,".;":10149,"Console":10150,"Ġsecondary":10151,"Ġfellow":10152,"Ġpartition":10153,"glyphicon":10154,"Stud":10155,"Ġinvestigation":10156,"heading":10157,"Ġpoll":10158,"ĠWrit":10159,"ĠBas":10160,"ĠJob":10161,"ĉĉĉĉĉĉĉĉĉĉ":10162,"ĠNavy":10163,"Ġ|=":10164,"Ġattended":10165,"ĠTuesday":10166,"(()":10167,"Abs":10168,"Ġinvestment":10169,"Ġmolec":10170,"ĠclassName":10171,"Depth":10172,"Timer":10173,"Ġcouncil":10174,"Ġweather":10175,"ĠInvest":10176,"ĠOC":10177,"iper":10178,"Ġseed":10179,"Ġcommands":10180,"dk":10181,"Ġregional":10182,"Ġspeech":10183,"ĠBuilder":10184,"Ġven":10185,"enth":10186,"chart":10187,"abric":10188,"Zone":10189,"(\"%":10190,"notations":10191,"Ġreferred":10192,"ĠFil":10193,"Encoding":10194,"ĠCoast":10195,"gov":10196,"fall":10197,"you":10198,"Ġ\">":10199,"Ġsand":10200,"Ġexperi":10201,"Ð¿":10202,"Ġconsistent":10203,"atern":10204,"Vec":10205,"ĠFederal":10206,"Ġconcert":10207,"imm":10208,"Ġanimals":10209,"Cancel":10210,"700":10211,"Ġdifferences":10212,"ĠÅ":10213,"ĠMcC":10214,"ĠStan":10215,"Been":10216,"ĠINTO":10217,"Ġrom":10218,"Ġdisable":10219,"Ġadvanced":10220,"initely":10221,"ĠReference":10222,"Ġpal":10223,"repository":10224,"Ġyouth":10225,"Ġcolon":10226,"Ġchannels":10227,"zabeth":10228,"ori":10229,"Contents":10230,"Ġfavorite":10231,"rules":10232,"irds":10233,"alink":10234,"Ġbridge":10235,"1977":10236,"Ġtransactions":10237,"ools":10238,"Ġwave":10239,"onto":10240,"Ġinstrument":10241,"Ġedit":10242,"}_\\":10243,";|&":10244,"Split":10245,"Ġlat":10246,"selection":10247,"Ġbegins":10248,"umin":10249,"ĠSea":10250,"ĠSH":10251,"Ġsouthern":10252,"finite":10253,"ATCH":10254,"=%":10255,"Ġaccomp":10256,"Ġadvance":10257,"Ġpassing":10258,"BIT":10259,"ented":10260,"periment":10261,"secondary":10262,"Shader":10263,"However":10264,"pping":10265,"ĠConfiguration":10266,"craft":10267,"_)":10268,"Ġinteraction":10269,"Ġsexual":10270,"cached":10271,"wa":10272,"Ġefficient":10273,"ĠFurther":10274,"Permission":10275,"<<":10276,"Ġwouldn":10277,"Ġrob":10278,"ashboard":10279,"cfg":10280,"ĠAdv":10281,"Ġseeing":10282,"(['":10283,"ĠEmpire":10284,"GroupName":10285,"jax":10286,"ĠJr":10287,"Ġherself":10288,"ĠEst":10289,"Ġadvantage":10290,"ĠÐ²":10291,"ĠSUMMARY":10292,"Standard":10293,"Ġgain":10294,"Ġprepar":10295,"Ġclaimed":10296,"topic":10297,"hu":10298,"esian":10299,"Ġchampionship":10300,"Ġcomposition":10301,"ĠCR":10302,"Ġendpoint":10303,"imize":10304,"SG":10305,"onical":10306,"ĠEgypt":10307,"Ġdriving":10308,"$)":10309,"ÙĨ":10310,"Ġodd":10311,"Ġlearned":10312,"Random":10313,"ĠObama":10314,"ATOR":10315,"1974":10316,"expression":10317,"Ġfunds":10318,"gradient":10319,"Labels":10320,"ĠBE":10321,"ĠChannel":10322,"gre":10323,"ĠPack":10324,"Early":10325,"convert":10326,"Once":10327,"Ġalias":10328,"\\/":10329,"rupted":10330,"ĠJersey":10331,"Frames":10332,"================================================================":10333,"Verify":10334,"Ġterror":10335,"flat":10336,"Ġtwice":10337,"avid":10338,"ĠUnit":10339,"ĠSus":10340,"Bool":10341,"Ġactress":10342,"Ġpossibly":10343,"Ġexecutive":10344,"vol":10345,"Ġvehicles":10346,"Ġheat":10347,"ĠConf":10348,"1968":10349,"apple":10350,"ĠWednesday":10351,"touch":10352,"amber":10353,"rame":10354,"hom":10355,"fff":10356,"ORK":10357,"ĠCreates":10358,"Ġdoll":10359,"ĠDar":10360,"Reset":10361,"Ġpure":10362,"SN":10363,"Ġ&=":10364,"ĠRow":10365,"Ġmyst":10366,"Ġtend":10367,"Ġradius":10368,"Ġsan":10369,"repo":10370,"NameLink":10371,"inton":10372,"ĠKent":10373,"aya":10374,"ĠScotland":10375,"Ġparsed":10376,"Ġconducted":10377,"Ġtrail":10378,"Ġfake":10379,"picture":10380,"Ġreviews":10381,"ĠBroad":10382,"ENV":10383,"ĠBeach":10384,"ĠCEO":10385,"ĠJson":10386,"Ġopinion":10387,"Ġenvironmental":10388,"Ġwidget":10389,"ĠRen":10390,"ĠHarr":10391,"Holder":10392,"ĠCarl":10393,"ĠTro":10394,"Ġhair":10395,"OPT":10396,"Ġdiscussed":10397,"Ġphen":10398,"DEX":10399,"Care":10400,"ĠLic":10401,"Ġnorthern":10402,"maml":10403,"Ġreturning":10404,"OutputStream":10405,"ĠPay":10406,"1973":10407,"Ġextend":10408,"displayName":10409,"pointer":10410,"ainers":10411,"built":10412,"sheet":10413,"bury":10414,"Ġ{%":10415,"Ġinputs":10416,"nsylvania":10417,"ĠDub":10418,"$_":10419,"ĠOhio":10420,"Deprecated":10421,"ĠStudies":10422,"Ġbinding":10423,"Ġspeak":10424,"yo":10425,"Your":10426,"Ġ&#":10427,"Ġestimate":10428,"Ġinitialize":10429,"Ġpolitician":10430,"Ġachiev":10431,"ĠOutput":10432,"getInstance":10433,"Ġshell":10434,"rie":10435,"closed":10436,"pend":10437,")+":10438,"Dynamic":10439,"FN":10440,"Ġwitness":10441,"Ġholding":10442,"})\\":10443,"VD":10444,"ĠCro":10445,"Ġaffected":10446,"pages":10447,"UNT":10448,"Well":10449,"Switch":10450,"Ġnarr":10451,"enny":10452,"ĠIter":10453,"criptions":10454,"ĠOx":10455,"Ġfuel":10456,"Pat":10457,"warn":10458,"Ġstyles":10459,"raq":10460,"Ġdeveloping":10461,"arse":10462,"Ġexports":10463,"Missing":10464,"createElement":10465,"mac":10466,"Ġopportunities":10467,"ugby":10468,"Ġfacilities":10469,"encing":10470,"}|":10471,"ĠPhilipp":10472,"]]></":10473,"Series":10474,"Site":10475,"tensor":10476,"Ġancient":10477,"RUN":10478,"elastic":10479,"Ġfilled":10480,"Ã¢":10481,"aren":10482,"inant":10483,"AST":10484,"seq":10485,"Ġmainly":10486,"className":10487,"}^\\":10488,"Ġbusinesses":10489,"ĠRegion":10490,"äº":10491,"Ġtd":10492,"AX":10493,"ĠEV":10494,"pb":10495,"sass":10496,"ĠMic":10497,"Ġposted":10498,"Ġrepeated":10499,"Metrics":10500,"viewport":10501,"Ġarrived":10502,"inois":10503,"001":10504,"ĠVALUES":10505,"Ġali":10506,"Ġcompiler":10507,"Ġsale":10508,"ĠTy":10509,"LETE":10510,"ĠAsh":10511,"Ġstatistics":10512,"minute":10513,"Ġvac":10514,"links":10515,"!âĢĿ":10516,"imb":10517,"Ġcandidates":10518,"ĠStory":10519,"Ġdeclared":10520,"Jan":10521,"ä½":10522,"Ġtranslation":10523,"libs":10524,"Ïĥ":10525,"Ġfort":10526,"Ġglass":10527,"SI":10528,"Ġnewly":10529,"HOME":10530,"################################":10531,"Ġcopies":10532,"Ġfolder":10533,"Enable":10534,"(--":10535,"Ġadj":10536,"Ġviolence":10537,"ĉĉĠĠĠ":10538,"ĠPrint":10539,"Ġlies":10540,"columns":10541,"ĠCase":10542,"Android":10543,"ĠSpe":10544,"Ġconstructed":10545,"Ġformation":10546,"Ġpieces":10547,"cret":10548,"Optional":10549,"LEMENT":10550,"jet":10551,"ingly":10552,"ĠKong":10553,"Ġiniti":10554,"Ġorient":10555,"Ġtreated":10556,"ĠSteve":10557,"ĠTag":10558,"Ġcos":10559,"MAGE":10560,"appy":10561,"ĠStruct":10562,"Ġcoeff":10563,"ĠGar":10564,"mobile":10565,"Ġachieve":10566,"orough":10567,"ĠBattle":10568,"otten":10569,"audio":10570,"Ġlanguages":10571,"Executor":10572,"Ġexistence":10573,"oment":10574,"ICATION":10575,"gz":10576,"Ġarmy":10577,"ĠAsian":10578,"adoc":10579,"Ġhyper":10580,"teen":10581,"Ġexerc":10582,"West":10583,"Ġassociation":10584,"ĠRom":10585,"resize":10586,"è¯":10587,"xsd":10588,"uble":10589,"POS":10590,"ĠVALIGN":10591,"paper":10592,"lywood":10593,"execut":10594,"Ġexpressed":10595,"Ġ(-":10596,"hl":10597,"ais":10598,"Ġrepository":10599,"Ġextr":10600,"Promise":10601,"Ġcompliance":10602,"ĠMu":10603,"ĠAli":10604,"ĠSecretary":10605,"1940":10606,"Ġgirls":10607,"Ġbelieved":10608,"Ġmarriage":10609,"Ġhelps":10610,"{(":10611,"logging":10612,"eners":10613,"SOUR":10614,"respons":10615,"******":10616,"ĠEnergy":10617,"ĠTra":10618,"Inner":10619,"gif":10620,"ĠAlbert":10621,"__)":10622,"ĠAddress":10623,"Ġdiss":10624,"altColor":10625,"ĠLear":10626,"Ġinjury":10627,"Ġmodal":10628,"Eval":10629,"wik":10630,"Expected":10631,"1971":10632,"ĠUsing":10633,"erred":10634,"ships":10635,"ĠBol":10636,"amazonaws":10637,"Ġrain":10638,"linux":10639,"Ġcart":10640,"Ġfashion":10641,"ĠSem":10642,")^{":10643,"sky":10644,"Ġthanks":10645,"hab":10646,"Ġimg":10647,"specific":10648,"Ġtrav":10649,"rent":10650,"Ġguard":10651,"blob":10652,"Ġconstraints":10653,"Ġinterpret":10654,"gems":10655,"ĠShort":10656,"Ġtechniques":10657,"Ġhide":10658,"Ġelections":10659,"Ġcer":10660,"Ġhandling":10661,"repeat":10662,"Ġve":10663,"ĠÑģ":10664,"Real":10665,"ĠLook":10666,"Power":10667,"Ġpitch":10668,"\\!\\!\\!":10669,"Ġwww":10670,"Ġprepare":10671,"Ġfeeling":10672,"oret":10673,"Convert":10674,"iant":10675,"ĠHard":10676,"Ġproperly":10677,"Ġconvention":10678,"lets":10679,"Äį":10680,"ods":10681,"MAP":10682,"ĠAws":10683,"Encoded":10684,"Ġfetch":10685,"ĠEdward":10686,"ĠBrook":10687,"ĠShould":10688,"Upload":10689,")\",":10690,"rpc":10691,"arters":10692,"ĠDouble":10693,"Ġdescriptor":10694,"bas":10695,"Ġmedium":10696,"Ġclassical":10697,"hpp":10698,"Ġcollected":10699,"1969":10700,"uplicate":10701,"=[":10702,"Ġseemed":10703,"mk":10704,"fre":10705,"Counter":10706,"ĠContext":10707,"Ġ--></":10708,"ĠDOM":10709,"dark":10710,"ĠSat":10711,"Ġdance":10712,"Idx":10713,"ĠCorporation":10714,"Fixed":10715,"Ġemotion":10716,"ILITY":10717,"Ġacademic":10718,"ifer":10719,"anna":10720,"Ġhydro":10721,"Mac":10722,"LAY":10723,"ĠRepublican":10724,"Did":10725,"remote":10726,"TableRow":10727,"delay":10728,"mime":10729,"Ġsuggested":10730,"hot":10731,"Touch":10732,"Ġwinner":10733,"Ġwx":10734,"Ġmanage":10735,"Ïģ":10736,"Ġchecked":10737,"fake":10738,"ĠAmericans":10739,"qquad":10740,"Points":10741,"Â°":10742,"usters":10743,"norm":10744,"getType":10745,"ĠLew":10746,"pur":10747,"Ġoverflow":10748,"Ġconsumer":10749,"Ġbright":10750,"Ġfaith":10751,"ĠThree":10752,"ĠInf":10753,"Ġrat":10754,"Ġcontrols":10755,"Ġauthority":10756,"heets":10757,"oir":10758,"Ġkid":10759,"ĠSTART":10760,"ĠKorea":10761,"ĠKn":10762,"Ġactors":10763,"Ġfails":10764,"Ġpatterns":10765,"ÅĤ":10766,"Ġ\"'":10767,"Ġcaught":10768,"Ġpairs":10769,"Sem":10770,"ĠEU":10771,"merce":10772,"generator":10773,"licenses":10774,"icer":10775,"bug":10776,"ĠWis":10777,"Ġsupposed":10778,"ĠĠĠĠĠĠĠĠĠĠĠĠĠĠĠĠĠĠĠĠĠĠĠĠĠĠĠĠĠĠĠĠĠĠ":10779,"ibraries":10780,"Ġmel":10781,"ĠKr":10782,"Ġcopyright":10783,"relative":10784,"Rot":10785,"Ġfs":10786,"GIN":10787,"Ġsides":10788,"Ġconflict":10789,"Pres":10790,"Ġ```":10791,"Coin":10792,"Declaration":10793,"Ġce":10794,"(/":10795,"Diagnostics":10796,"9999":10797,"Ġschedule":10798,"uestion":10799,"Serialization":10800,">'":10801,"actual":10802,"Ġgoto":10803,"solr":10804,"Ġax":10805,"1930":10806,"Ignore":10807,"ĠRog":10808,"('<":10809,"Decimal":10810,"Ġthrown":10811,"unknown":10812,"Ġorders":10813,"Ġexecuted":10814,"TRAN":10815,"enna":10816,"ritical":10817,"National":10818,"ĠSend":10819,"ssue":10820,"ĠFood":10821,"Ġ&\\":10822,"ĠClasses":10823,"Ġcreates":10824,"venture":10825,"fb":10826,"aga":10827,"javax":10828,"Ġtail":10829,"Ġcrew":10830,"Ġsupporting":10831,"Ġsecure":10832,"mosp":10833,"RESULT":10834,"ĠIT":10835,"Stub":10836,"Ġparallel":10837,"Ġspr":10838,"FP":10839,"uling":10840,"tile":10841,"Ġpropag":10842,"Ġcauses":10843,"Ġminute":10844,"Ġpayment":10845,"Ġformal":10846,"ĠHom":10847,"Available":10848,"FALSE":10849,"cancel":10850,"Ġnuclear":10851,"will":10852,"Ġcomfort":10853,"referred":10854,"Ġinn":10855,"Ġ\\{":10856,"activ":10857,"UEST":10858,"ĠPers":10859,"Ġsubstant":10860,"UBLIC":10861,"icted":10862,"nobr":10863,"!\\!\\!\\!\\!":10864,"BUILD":10865,"ĠÐ½":10866,">%":10867,"cursor":10868,"Ġunderlying":10869,"letter":10870,"Ġfreedom":10871,"Speed":10872,"ĠAT":10873,"Ġportr":10874,"ĠFeature":10875,"ĠBand":10876,"ĠConnect":10877,"Ġacting":10878,"Ġprocedure":10879,"dimensional":10880,"rele":10881,"Ġstopped":10882,"thrift":10883,"Ġgoogle":10884,"Ġspend":10885,"cdots":10886,"ailability":10887,"RECT":10888,"UAL":10889,"LIN":10890,"Ġuri":10891,"ias":10892,"ĠKim":10893,"Ġhousing":10894,"Ġexplanation":10895,"UCT":10896,"Converter":10897,"ĠRa":10898,"BUFFER":10899,"rim":10900,"icing":10901,"Pojo":10902,"poly":10903,"Ġacquired":10904,"ĠHandle":10905,"Ġexplain":10906,"Pi":10907,"SPAN":10908,"ĠPromise":10909,"wbr":10910,"}\",":10911,"\">(":10912,"Actions":10913,"atted":10914,"Ġcomedy":10915,"RESS":10916,"covery":10917,"Ġequations":10918,"unately":10919,"ĠFrame":10920,"ĠBooks":10921,"Ġdecades":10922,"sche":10923,"ĠBang":10924,"Ġaccident":10925,"hd":10926,"multi":10927,"Ġgranted":10928,"Ġlinked":10929,"ĠStation":10930,"ĠLanguage":10931,"Zero":10932,"Ġdetection":10933,"Ġmeasured":10934,"Ġthousands":10935,"å¤":10936,"Origin":10937,"ĠTurn":10938,"1945":10939,"Ġignored":10940,"cest":10941,"rovers":10942,"Ġbench":10943,"compute":10944,"django":10945,"Ġportion":10946,"functions":10947,"ĠTrust":10948,"Ġscientific":10949,"!\\!\\!\\!\\!\\!\\!\\!":10950,"Ġindepend":10951,"Ġdisplayed":10952,"StringBuilder":10953,"binding":10954,"Ġfacility":10955,"Ġuncert":10956,"Music":10957,"lab":10958,"'}":10959,"brid":10960,"axy":10961,",\\!\\!\\!\\!\\!\\!\\!\\!":10962,"Ġgeneric":10963,"Ġwrap":10964,"ĠCur":10965,"Ġemerg":10966,"udden":10967,"arsing":10968,"ĠDC":10969,"Ġ'\"":10970,"onia":10971,"ĠAD":10972,"Ġsmooth":10973,"irth":10974,"ĠOfficial":10975,"Ġfinds":10976,"abc":10977,"ĠPython":10978,"unes":10979,"Separ":10980,"Ġdecor":10981,"ĠBOOST":10982,"ĠChampionships":10983,"ĠLo":10984,"ĠCoq":10985,"Design":10986,"Ġdepending":10987,"rf":10988,"AVE":10989,"ÙĦ":10990,"crement":10991,"refs":10992,"ĠVirtual":10993,"Ġextremely":10994,"Ġcompletion":10995,"Ð·":10996,"Ġoperators":10997,"Bits":10998,"Ġimportance":10999,"ears":11000,"ARNING":11001,"unlock":11002,"ĠBuffer":11003,"Ġsections":11004,"Ġlogic":11005,"Ġcris":11006,"Den":11007,"ĠPennsylvania":11008,"Ġjourney":11009,"ventory":11010,"bell":11011,"anz":11012,"linked":11013,"\\'":11014,"Ġentirely":11015,"Ġsizes":11016,"igate":11017,"Ġbounds":11018,"Ġmuseum":11019,"Cons":11020,"asters":11021,"itionally":11022,"Ġplaceholder":11023,"Ġplants":11024,"ĠCond":11025,"Ġattached":11026,"Ġspring":11027,"Ġwhatever":11028,"CCESS":11029,"ĠFull":11030,"Ġkernel":11031,"uset":11032,"textwidth":11033,"share":11034,"ĠSciences":11035,"License":11036,"<>();":11037,"cles":11038,"Feed":11039,"Ġcold":11040,"Ġbroken":11041,"mir":11042,"GEN":11043,"bus":11044,"Ty":11045,"Tuple":11046,"Ġpipeline":11047,"Nov":11048,"Ġvocals":11049,"Ġconven":11050,"otted":11051,"IMIT":11052,"ĠBox":11053,"Ġwatching":11054,"law":11055,"archive":11056,"Ġmodules":11057,"ĠHamilton":11058,"quo":11059,"1024":11060,"phony":11061,"INVALID":11062,"router":11063,"Ġaria":11064,"LICENSE":11065,"/*!":11066,"don":11067,"brand":11068,"asp":11069,"Ġreverse":11070,"notify":11071,"MR":11072,"ti":11073,"Ġcookies":11074,"Ġvision":11075,"ÐµÑĢ":11076,"ĠSoviet":11077,"1967":11078,"Ġcb":11079,"Ġspectrum":11080,"Ġfell":11081,"Ġpacket":11082,"ĠOnce":11083,"Yes":11084,"Locale":11085,"><!--":11086,"ĠGuard":11087,"Ġdst":11088,"raham":11089,"Ġmassive":11090,"Ġprepared":11091,"ĠRoute":11092,"Bad":11093,"ensitive":11094,"idential":11095,"Ġchallenges":11096,"Features":11097,"ĠFair":11098,"Ġrough":11099,"Ġworker":11100,"idi":11101,"ĠÂ·":11102,"ĠRod":11103,"graphics":11104,"Ġ-=":11105,"Ġoffering":11106,"aki":11107,"Ġhouses":11108,"interval":11109,"Ġplanned":11110,"getString":11111,"Ġfigures":11112,"Ġliteral":11113,"icode":11114,"Ġprotein":11115,"Ġcaref":11116,"Est":11117,"Sharp":11118,"Ġending":11119,"ĠHistoric":11120,"Ġmarketing":11121,"anchor":11122,"Must":11123,"Ġlists":11124,"Ġeasier":11125,"åĬ":11126,"Ġmagnetic":11127,"ĠLtd":11128,"IME":11129,"GC":11130,"Ġimproved":11131,"ĠParse":11132,"Authentication":11133,"Ġtok":11134,"ĠCat":11135,"ĠBa":11136,"annotations":11137,"Ġacts":11138,"ĠAuto":11139,"Ġvm":11140,"Ġera":11141,"aired":11142,"Ġclassic":11143,"Owner":11144,"Ġkick":11145,"1920":11146,"urable":11147,"BOOL":11148,"1964":11149,"Ġcircum":11150,"Ġincident":11151,"cludes":11152,"City":11153,"Win":11154,"Ġmigr":11155,"Uses":11156,"wallet":11157,"sdk":11158,"Ġdelegate":11159,"Ġvelocity":11160,"×ķ":11161,"approx":11162,"Ġstress":11163,"ĠSC":11164,"509":11165,"Ġthank":11166,"Ġconverted":11167,"Rules":11168,"oles":11169,"Ġanchor":11170,"Ġshock":11171,"Ġcached":11172,"ignore":11173,"Will":11174,"pragma":11175,"(\"\\":11176,"Ġexperimental":11177,"retch":11178,"ĠIslands":11179,"gorithms":11180,"Ġskin":11181,"Ġapprec":11182,"Ant":11183,"EY":11184,"Ġease":11185,"Ġcontrolled":11186,"Ġiterator":11187,"Ġsounds":11188,"Photo":11189,"ĠBY":11190,"Supported":11191,"Ġguys":11192,"goog":11193,"Delay":11194,"TIES":11195,"Ġhotel":11196,"BL":11197,"quir":11198,"ropy":11199,"counter":11200,"ĠByte":11201,"ĠFox":11202,"=$":11203,"usr":11204,"Ġagency":11205,"Geometry":11206,"Ġsubmit":11207,"izz":11208,"Ġur":11209,"Analysis":11210,".',":11211,"spirit":11212,"sun":11213,"cue":11214,"ĠProduct":11215,"iner":11216,"á»":11217,"ĠEs":11218,"Ġneighborhood":11219,"¿½":11220,"Ġdefend":11221,"Have":11222,"atest":11223,"Ġspecifically":11224,"Ġtruly":11225,"ĠChildren":11226,"Ð°ÑĤ":11227,"ĠEastern":11228,"Ġsustain":11229,"Ġbass":11230,"aded":11231,"Press":11232,"æķ":11233,"ika":11234,"Linear":11235,"ĠChair":11236,"series":11237,"oster":11238,"Ġweekend":11239,"Score":11240,"Kit":11241,"ĠDeb":11242,"Ġmanner":11243,"Black":11244,"Ġsemi":11245,"ĠCOM":11246,"ĠBal":11247,"Ġmaintain":11248,"ĠVill":11249,"Ġstatements":11250,"ĠEngineering":11251,"ĠĠĠĠĠĠĠĠĠĠĠĠĠĠĠĠĠĠĠĠĠĠĠĠĠĠĠĠĠĠĠĠĠĠĠĠ":11252,"Ġcontribution":11253,"BASE":11254,"Ġannounce":11255,"\"/></":11256,"]\\":11257,"Ġamazing":11258,"Ġ'#":11259,"ĠDutch":11260,"folder":11261,"Ġestablishments":11262,"Ġdesired":11263,"ĠPublished":11264,"Ø¯":11265,"BPACK":11266,"Ġimplies":11267,"PROP":11268,"ĠLemma":11269,"Ġemph":11270,"ego":11271,"references":11272,"Ġmal":11273,"aped":11274,"ĠToday":11275,"Ġcommitted":11276,"Ãº":11277,"porter":11278,"andy":11279,"loading":11280,"ĠAccount":11281,"ĠWARRANTIES":11282,"Ġbow":11283,"Ġachieved":11284,"Foot":11285,"formed":11286,"Ġrecommended":11287,"ĠIraq":11288,"Ġexplained":11289,"Ġdescribes":11290,"Ġbin":11291,"Ġchemical":11292,"Ġsyn":11293,"ĠPrime":11294,"Ġtypical":11295,"AY":11296,"Ġclone":11297,"{{\\":11298,"ĠWilson":11299,"standard":11300,"\"];":11301,"inx":11302,"Ġteacher":11303,"ĠÐ¸":11304,"swing":11305,"Ġalter":11306,"ĠBon":11307,"inson":11308,"Ġvary":11309,"Cr":11310,"ĠSa":11311,"members":11312,"have":11313,"IDE":11314,"asi":11315,"Old":11316,"Ġawards":11317,"foreach":11318,"ilarly":11319,"ĠPhot":11320,"Ġpartnership":11321,"Ġdelivery":11322,"ĠElizabeth":11323,"ĠAnother":11324,"FLAG":11325,"Execute":11326,"Collect":11327,"Ġcompact":11328,"ĠBul":11329,"Ġprime":11330,"Ġcompatible":11331,"een":11332,"Ġvideos":11333,"Ġ(%":11334,"iveness":11335,"Ġdropped":11336,"Ġseek":11337,"Ġprofessor":11338,"Ġhonor":11339,"amental":11340,"ĠPC":11341,"OC":11342,"Ġton":11343,"Ġarbitrary":11344,"Ġprintf":11345,"Ġdeleted":11346,"Like":11347,"Ġperman":11348,"ĠAge":11349,"-$":11350,"ĠIllinois":11351,"360":11352,"Ġwire":11353,"roduction":11354,"Ġfavour":11355,"%\"><":11356,"Ġposts":11357,"Direction":11358,"Ġunable":11359,"uma":11360,"ĠNC":11361,"odo":11362,"Ġsupplied":11363,"1965":11364,"poi":11365,"Tw":11366,"ĠPut":11367,"Previous":11368,"Ġperforming":11369,"}}(":11370,"Ġfighting":11371,"Month":11372,"anth":11373,"Ġpurchase":11374,"Ġevening":11375,"ĠRight":11376,"wiki":11377,"cu":11378,"ĠSerial":11379,"fp":11380,"}\\,":11381,"PG":11382,"Ġwestern":11383,"~~~~~~~~":11384,"Ġphotos":11385,"ĠNull":11386,"Camera":11387,"Ġcab":11388,"Partition":11389,"itled":11390,"dst":11391,"ydney":11392,"Ġcontest":11393,"conv":11394,"Ġbond":11395,"Ġedges":11396,"mms":11397,"Ġstable":11398,"ĠSon":11399,"Ġindeed":11400,"icky":11401,"encoding":11402,"getClass":11403,"-(":11404,"Extensions":11405,"iti":11406,"mdc":11407,"pture":11408,"Literal":11409,"ĠĠĠĠĠĠĠĠĠĠĠĠĠĠĠĠĠĠĠĠĊ":11410,"Ùħ":11411,"Ġconversion":11412,"Ġusername":11413,"Ġtargets":11414,"Ġmovies":11415,"Ġcalculated":11416,"]$":11417,"priv":11418,"Present":11419,"Doctrine":11420,"Ġinspired":11421,"direction":11422,"ĠCountry":11423,"adr":11424,"apore":11425,"danger":11426,"ĠEth":11427,"ĠBoy":11428,"phia":11429,"Ġbeliev":11430,"TOM":11431,"Ġgar":11432,"Ġfeaturing":11433,"Ġsettlement":11434,"design":11435,"Ġepisodes":11436,"tooltip":11437,"ubble":11438,"UK":11439,"Ġwarn":11440,"Ġrout":11441,"Calendar":11442,"`)":11443,"ĠSupreme":11444,"Ġdeploy":11445,"ĠURI":11446,"minus":11447,")|":11448,"United":11449,"ĠCart":11450,"ĠFuture":11451,"Ġ'_":11452,"ĠJS":11453,"Ġing":11454,"ĠEqu":11455,"Ġprogramming":11456,"Ġdelta":11457,"Ġcarbon":11458,"chunk":11459,"Ġlett":11460,"Ġcurve":11461,".~":11462,"docker":11463,"embed":11464,"Commit":11465,"Ġgrew":11466,"ĠAlb":11467,"Ġspons":11468,"nos":11469,"oval":11470,"mount":11471,"----------":11472,"1966":11473,"Ġdestroyed":11474,"Expect":11475,"Ġexcellent":11476,"Ġpending":11477,"currency":11478,"Ġaccounts":11479,"ometric":11480,"ĠBBC":11481,"Ġnearby":11482,"previous":11483,"Ġcorrectly":11484,"ixtures":11485,"Servlet":11486,"ordan":11487,"Ġtexture":11488,"Ġgender":11489,"Ġdefeated":11490,"ĠComponent":11491,"aze":11492,"inject":11493,"ceptor":11494,"pson":11495,"Ġearned":11496,"ĠWatch":11497,"Ġstores":11498,"Assembly":11499,"chant":11500,"University":11501,"Ġadvice":11502,"}%":11503,"ĠLatin":11504,"Ġattempts":11505,"Spe":11506,"ĠDer":11507,"ĠHong":11508,"eld":11509,"Chart":11510,"ĠLy":11511,"cls":11512,"ĠViet":11513,"Ġpractices":11514,"ells":11515,"FLAGS":11516,"tl":11517,"history":11518,"opher":11519,"ĠWhether":11520,"getMessage":11521,"DTD":11522,"Ġprompt":11523,"Ġconcerns":11524,"country":11525,"ĠERR":11526,"Ġcas":11527,"Ġpun":11528,"Break":11529,"Ġhaven":11530,"Ġpoliticians":11531,"Åį":11532,"ĠTree":11533,"ExternalTask":11534,"Ġsam":11535,"mag":11536,"ennes":11537,"Chunk":11538,"Ġlimits":11539,"International":11540,"ï¿½":11541,"pector":11542,"EP":11543,"prod":11544,"Ġlose":11545,"Ms":11546,"Ġintent":11547,"Ġpowers":11548,"Ġpromin":11549,"Ġcomposed":11550,"}\\\\":11551,"LAB":11552,"Lat":11553,"Â©":11554,"score":11555,"ĠStore":11556,"Ġengineering":11557,"ĠPublish":11558,"ĠĠĠĠĠĠĠĠĠĠĠĠĠĠĠĠĠĠĠĠĠĠĠĠĠĠĠĠĠĠĠĠĠĠĠĠĠ":11559,"%.":11560,"ACH":11561,"Ġexpos":11562,"Ġanimal":11563,"Tube":11564,"Ġpeer":11565,"osite":11566,"Ġsquad":11567,"adelphia":11568,"Ġsubsequent":11569,"ĠDigital":11570,"oured":11571,"Created":11572,"itempty":11573,"osophy":11574,"bec":11575,"ĠCost":11576,"Every":11577,"Ġtherm":11578,"Ġparticle":11579,"Ġcomputed":11580,"è¿":11581,"ĠSab":11582,"Secret":11583,"thur":11584,"Ġreaction":11585,"future":11586,"Ġclip":11587,"Ġexperiences":11588,"wr":11589,"Changes":11590,"Ġinject":11591,"omitempty":11592,"ĠFALSE":11593,"ampions":11594,"Ġacknow":11595,"ĠHun":11596,"Ġincreases":11597,"Reason":11598,"outs":11599,"ĠEditor":11600,"achuset":11601,"ially":11602,"Ġcolors":11603,"ASS":11604,"ĠWars":11605,"URN":11606,"EXPORT":11607,"Ġplanet":11608,"Ġlimitations":11609,"achusetts":11610,"alg":11611,"Ġchecks":11612,"dbc":11613,"Ġenumer":11614,"ĠRon":11615,"Ġencounter":11616,"ĠProvince":11617,"ervative":11618,"posite":11619,"ExternalTaskPojo":11620,"ibli":11621,"Ġmechanism":11622,"OLD":11623,"ĠSeason":11624,"BER":11625,"Ġhistoric":11626,"Visual":11627,"News":11628,"uls":11629,"ĠLogger":11630,"Ġgap":11631,"yard":11632,"prom":11633,"ysics":11634,"ĠNa":11635,"ĠAud":11636,"Ġapart":11637,"gregation":11638,"\"><![":11639,"Ġkeeping":11640,"************************************************************************":11641,"Ġdegrees":11642,"ĠFA":11643,"Further":11644,"ĠColumbia":11645,"Typ":11646,"Transition":11647,"ĠProp":11648,"Ġrecognized":11649,"locale":11650,"cribed":11651,"ruption":11652,"Emit":11653,"course":11654,"egration":11655,"Ġelev":11656,"Ok":11657,"aska":11658,"publish":11659,"Ġcreative":11660,"PROC":11661,"secut":11662,"Ġformula":11663,"owa":11664,"anim":11665,"Ġna":11666,"HashMap":11667,"]+":11668,"overning":11669,"Diff":11670,"ĠInternal":11671,"amond":11672,"ysql":11673,"Ġcaptured":11674,"Snapshot":11675,"addClass":11676,"Ġprimarily":11677,"Packet":11678,"ĠAvenue":11679,"Loading":11680,"Ġinherit":11681,"React":11682,"Ġvent":11683,"irk":11684,"Ġadds":11685,"æĺ":11686,"ĠManager":11687,"Ĥ¬":11688,"ĠStephen":11689,"sha":11690,"Ġscheduled":11691,"South":11692,"Ġ#{":11693,"Ġcancell":11694,"Ġdeclare":11695,"prec":11696,"amount":11697,"concurrent":11698,"Ġinstitutions":11699,"Ġfunctional":11700,"ygon":11701,"pn":11702,"Ġreduction":11703,"lyn":11704,"Controls":11705,"ĠPortug":11706,"Ġ$(\\":11707,"ARG":11708,"Ã©s":11709,"Ġclinical":11710,"verify":11711,"Ġalongside":11712,"Ġalpha":11713,"ĠEric":11714,"Ġfly":11715,"ĠJean":11716,"Ġcellpadding":11717,"closure":11718,"Ġment":11719,"ĠRespon":11720,"bservable":11721,"Ġassumed":11722,"%%%%%%%%":11723,"Ã¸":11724,"rient":11725,"Mag":11726,"ĠMatt":11727,"ĉĉĉĉĊ":11728,"Ġcensus":11729,"ĠAnth":11730,"good":11731,"etween":11732,"('./":11733,"THER":11734,"Oct":11735,"}^{(":11736,"Ġauthorities":11737,"Ġaddr":11738,"Ġtitles":11739,"Ġrecru":11740,"parts":11741,"ĠRuntime":11742,"ĠCommun":11743,"Ġlargely":11744,"Replace":11745,"orer":11746,"ĠAk":11747,"Ġcommittee":11748,"[<":11749,"Primary":11750,"WEBPACK":11751,"Most":11752,"TERN":11753,"Ġmach":11754,"awesome":11755,"Contract":11756,"\":\"":11757,"processor":11758,"ĠTransport":11759,"Extra":11760,"ĠSite":11761,"FileName":11762,"Ġentr":11763,"Ġhelping":11764,"UA":11765,"acent":11766,"vard":11767,"Anchor":11768,"anes":11769,"Ġcircle":11770,"Ġteaching":11771,"Ġrailway":11772,"ĠAlexander":11773,"oxy":11774,"Ġships":11775,"Based":11776,"Ġpra":11777,"transport":11778,"ĠItem":11779,"Ġadvoc":11780,"ĠGovernor":11781,"Ġprincipal":11782,"Ġban":11783,"Ġlie":11784,"Ġusual":11785,"ouston":11786,"Figure":11787,"Ġthick":11788,"Ġthreshold":11789,"TableRowColor":11790,"apol":11791,"LOAD":11792,"endpoint":11793,"deep":11794,"Ġperspective":11795,"Ġtransformation":11796,"Priority":11797,"Ġapproved":11798,"Ip":11799,"quid":11800,"ĠGreg":11801,"occer":11802,"ĠRO":11803,",$":11804,"uction":11805,"maps":11806,"Ġtf":11807,"examples":11808,"IMPORTED":11809,"Tele":11810,"SPACE":11811,"Ġjudge":11812,"ĠWhere":11813,"lica":11814,"acer":11815,"eli":11816,"Ġtables":11817,"ĠDu":11818,"Ġdoubt":11819,"ĠKEY":11820,"Running":11821,"ĠNative":11822,"Sam":11823,"Ġrelationships":11824,"OBJECT":11825,"Git":11826,"Ġcoordinates":11827,"Ġsin":11828,"ĠUP":11829,"ĠDonald":11830,"Brit":11831,"opsis":11832,"arest":11833,"ĠAgain":11834,"bounds":11835,"ynom":11836,"acon":11837,"START":11838,"Ġrotate":11839,"Pane":11840,"days":11841,"ĠNick":11842,"Self":11843,"Ġcharges":11844,"ologist":11845,"Push":11846,"stances":11847,"pic":11848,"Ġbold":11849,"stylesheets":11850,"Ġowners":11851,"ĠMAX":11852,"Ġfifth":11853,"Mr":11854,"Ġcm":11855,"Ġarms":11856,"usal":11857,"Ġathlet":11858,"ENABLE":11859,"ĠVictoria":11860,"urations":11861,"ĠMinistry":11862,"0000000":11863,"Ġdefinitely":11864,"ĠImmutable":11865,"datetime":11866,"worth":11867,"ĠBall":11868,"ogy":11869,"orry":11870,"Ġsuggests":11871,":-":11872,"iley":11873,"ĠOnline":11874,"ĠCreek":11875,"ĠFix":11876,"HOUT":11877,"Ġouter":11878,"ĠVen":11879,"semble":11880,"kernel":11881,"erves":11882,"Ġdram":11883,"ordinate":11884,"Star":11885,"___":11886,">`":11887,"aaaa":11888,"ĠLow":11889,"ĠSym":11890,"Ġcellspacing":11891,"ĠMarg":11892,"isecond":11893,"connected":11894,"Ġhearing":11895,"elle":11896,"Ġhence":11897,"Ġwidely":11898,"Country":11899,"Ġindustrial":11900,"ĠAP":11901,"ntario":11902,"Tex":11903,"Inf":11904,"Ġmental":11905,"Ġhop":11906,"googleapis":11907,"Ġimplied":11908,"rv":11909,"unnel":11910,"Ġlistening":11911,"GP":11912,"Ġjustice":11913,"uj":11914,"Ġcls":11915,"riev":11916,"ĠBrad":11917,"Ġconstraint":11918,"emic":11919,"^+":11920,"decode":11921,"×Ļ":11922,"ĠBat":11923,"Ctrl":11924,"çĶ¨":11925,"Ġnob":11926,"ulp":11927,"Ġlit":11928,"ĠOP":11929,"NI":11930,"SSION":11931,"Health":11932,"Mutable":11933,"Ġcontributions":11934,"*,":11935,"Ġnegot":11936,"^^^^":11937,"ĠSanta":11938,"frames":11939,"inating":11940,"Ġshif":11941,"ĠNiger":11942,"consin":11943,"ĠAdam":11944,"nesota":11945,"Ġprotest":11946,"Ġdenote":11947,"Received":11948,"ĠSant":11949,"urd":11950,"ARRAY":11951,"Codec":11952,"Cannot":11953,"Ġvo":11954,"Ġgene":11955,"party":11956,"outheast":11957,"fragment":11958,"Ġinternet":11959,"spe":11960,"Ġretail":11961,".[":11962,"mathsf":11963,"SPAC":11964,"Ġmort":11965,"Intent":11966,"ĠCHECK":11967,"Ġletters":11968,"GLE":11969,"sto":11970,"Oh":11971,"neq":11972,"HasBeen":11973,"ADDING":11974,"ĠOxford":11975,"Ġinfrastructure":11976,"Original":11977,"ownt":11978,"Ġfaster":11979,"ocks":11980,"Ġstanding":11981,"Ġaspects":11982,"Ġdimensions":11983,"Contin":11984,"Prof":11985,"Ã©e":11986,"CREATE":11987,"ĠHay":11988,"Ġsac":11989,"ĠSV":11990,"ĠĠĠĠĠĠĠĠĠĠĠĠĠĠĠĠĠĠĠĠĠĠĠĠĠĠĠĠĠĠĠĠĠĠĠĠĠĠ":11991,"uency":11992,"Ġri":11993,"Ġelectronic":11994,"ĠAssoci":11995,"jackson":11996,"Ġserves":11997,"team":11998,"slide":11999,"stage":12000,"Ġdoctor":12001,"omatic":12002,"Ġeat":12003,"agen":12004,"His":12005,"ĠImp":12006,"matches":12007,"()\">":12008,"Ġindicating":12009,"Ġalleged":12010,"102":12011,"Ġmagic":12012,"ĠCulture":12013,"Bro":12014,">(<":12015,"Ġcalculate":12016,"wt":12017,"Operand":12018,"abil":12019,"Ġreporting":12020,"AI":12021,"vendor":12022,"Ġsph":12023,"1963":12024,"ĠDark":12025,"oking":12026,"Ġbelief":12027,"Ġvolunte":12028,"Put":12029,"HL":12030,"BACK":12031,"arry":12032,"Bridge":12033,"Ġcharged":12034,"ĠBell":12035,"ĠUtil":12036,"Period":12037,"Mount":12038,"includes":12039,"APP":12040,"Ġsurrounding":12041,"photon":12042,"ĠKnow":12043,"continue":12044,"ĠLabor":12045,"!</":12046,"Ġextent":12047,"ĠPlace":12048,"localhost":12049,"ĠOperation":12050,"Ġconsequ":12051,"ÐµÑĤ":12052,"Ġlogin":12053,"')->":12054,"updated":12055,"tre":12056,"Ġmand":12057,"pection":12058,"week":12059,"ĠScottish":12060,"sz":12061,"noframe":12062,"binary":12063,"Ġloved":12064,"Ġsurg":12065,"wx":12066,"thumb":12067,">${":12068,"putation":12069,"mad":12070,"Ġnotification":12071,"Another":12072,"OFF":12073,"middle":12074,"Ġobservations":12075,"Ġexperiments":12076,"Ġpatch":12077,"Ġdistingu":12078,"130":12079,"Machine":12080,"Ġbaseball":12081,"Enumerable":12082,"Ġcrash":12083,"ĠFord":12084,"pin":12085,"rowse":12086,"Ġunderst":12087,"may":12088,"ĠSP":12089,"Ġfi":12090,"Ġprices":12091,"Ġlosing":12092,"ĠHarry":12093,"Relation":12094,"Ġcategories":12095,"Ġhabit":12096,"Ġmail":12097,"Ġmess":12098,"also":12099,"ĠBefore":12100,"acher":12101,"codec":12102,"Ġdecisions":12103,"Ġvisited":12104,"Ñĸ":12105,"ulating":12106,"keep":12107,"ĠTABLE":12108,"Factor":12109,"Ġreply":12110,"Ra":12111,"Ġly":12112,"cmp":12113,"TL":12114,"Ġnarrow":12115,"ĠTry":12116,"frag":12117,"Ġpromote":12118,"bench":12119,"iph":12120,"ĠColumn":12121,"________":12122,"Ġoperated":12123,"Ġast":12124,"listener":12125,"ViewController":12126,"Ġmountain":12127,"Christ":12128,"Ġisinstance":12129,"istical":12130,"Ġurban":12131,"Ġestate":12132,"beans":12133,"Models":12134,"ĠRepresent":12135,"ĠIR":12136,"Ġpersonnel":12137,"PREF":12138,"Review":12139,"pearance":12140,"UC":12141,"forcement":12142,"ENTRY":12143,"ntil":12144,"labels":12145,"iga":12146,"Ġoccasion":12147,"ĠDebug":12148,"gence":12149,"Ġindices":12150,"pred":12151,"Culture":12152,"Ġped":12153,"Ġpublication":12154,"ffee":12155,"ĠMust":12156,"ĠRos":12157,"square":12158,"ĠPoland":12159,"Ġatmosp":12160,"ĠOs":12161,"1962":12162,"Ġfoo":12163,"Ġfiled":12164,"Ġvotes":12165,"plemented":12166,"Ġhomes":12167,"ÏĢ":12168,"omm":12169,"ĠTOP":12170,"Ġdivided":12171,"setText":12172,"Ġrural":12173,"utely":12174,"including":12175,"tection":12176,"ĠFC":12177,"Ġnewspaper":12178,"Ġexplore":12179,"ATURE":12180,"Ġns":12181,"Ġsolo":12182,"speed":12183,"Ġfraction":12184,"regon":12185,"Ġlegend":12186,"}+\\":12187,"Ġconsidering":12188,"plays":12189,"===":12190,"timer":12191,"Ġbodies":12192,"ipedia":12193,"Ġreaders":12194,"refresh":12195,"Ð¾Ð»":12196,"Ġbrings":12197,"Ġexperienced":12198,"Ġdry":12199,"Ġbundle":12200,"ĠDavis":12201,"ĠRender":12202,"agg":12203,"...)":12204,"ĠToronto":12205,"Career":12206,"/)":12207,"Ġmetrics":12208,"ĠGallery":12209,"ubern":12210,"Qual":12211,"Ġideal":12212,"ĠConvert":12213,"SUP":12214,"tainment":12215,"onom":12216,"ĠBC":12217,"Ġretired":12218,"ĠDateTime":12219,"uent":12220,"redirect":12221,"Ġaapt":12222,"_[":12223,"Ġwrites":12224,"umps":12225,"hspace":12226,"wing":12227,"eman":12228,"ĠStaff":12229,"ĠHotel":12230,"ĠRose":12231,"Ġproto":12232,"Ġresponsibility":12233,"Side":12234,"Ġstrongly":12235,"Ġcrisis":12236,"Pixel":12237,"Ġopposite":12238,"Detector":12239,"HasBeenSet":12240,"Ġpros":12241,"Ġchapter":12242,"Ġabort":12243,"kes":12244,"Ġredirect":12245,"SOURCE":12246,"MenuItem":12247,"Ġcontemporary":12248,"Ġ'-":12249,"Ġparticles":12250,"Ġ========":12251,"ĠTYPE":12252,"Super":12253,"Ġmarkets":12254,"Ġindicated":12255,"Ġwins":12256,"Ġbringing":12257,"Imp":12258,"production":12259,"Ġpert":12260,"Ġdetected":12261,"EVENT":12262,"Ġsoldiers":12263,"bold":12264,"Ġwinter":12265,"Ġvon":12266,"(\".":12267,"eclipse":12268,"DED":12269,"mn":12270,"Ġsolar":12271,"Ġinstructions":12272,"Hz":12273,"}},":12274,"ĠInvalid":12275,"Ġcash":12276,"uffix":12277,"citet":12278,"zo":12279,"ĠBerlin":12280,"Ġbucket":12281,"rizona":12282,"ropol":12283,"onomy":12284,"Ġcoal":12285,"ĠPrivate":12286,"Ġstorm":12287,"engers":12288,"Ġweapons":12289,"Alias":12290,"Ġminister":12291,"failed":12292,"Ġslot":12293,"loom":12294,"Anim":12295,"erty":12296,"Ġshadow":12297,"555":12298,"Ġrotation":12299,"Ġgoverning":12300,"Ġdelivered":12301,"Instruction":12302,"Ġcommunic":12303,"utdown":12304,"bucket":12305,"enda":12306,"Organ":12307,"ĠMethods":12308,"Ġcontrovers":12309,"ounded":12310,"sur":12311,"Ġclubs":12312,"eder":12313,"Ġcanvas":12314,"Sources":12315,"Formatter":12316,"flush":12317,"ĠExecutive":12318,"Ġdictionary":12319,"ĠGro":12320,"Ġgeometry":12321,"Ġtested":12322,"Ġsharing":12323,"cross":12324,"ĠLat":12325,"ĠDoug":12326,"ĠMassachusetts":12327,"aco":12328,"Ġrecon":12329,"ĠDNA":12330,"ĠBru":12331,"notification":12332,"heim":12333,"Ġadopted":12334,"CSS":12335,"season":12336,"}}{\\":12337,"ĠHal":12338,"ĠIllegalArgumentException":12339,"statsmodels":12340,"mic":12341,"Ġswe":12342,"ĠEll":12343,"__,":12344,"porated":12345,"etherlands":12346,"eled":12347,"aron":12348,"Ġcompr":12349,">{":12350,"Ġsingles":12351,"Ġtemporary":12352,"Ġheav":12353,"Ġsudden":12354,"ĠSSL":12355,"è®":12356,"PARAM":12357,"Disk":12358,"Ġdrawn":12359,"ĠBORDER":12360,"Ġassets":12361,"Lookup":12362,"Ġproport":12363,"Ġremark":12364,"Ġpeak":12365,"Ġproved":12366,"zh":12367,"concat":12368,"ĠIF":12369,"atibility":12370,"ĠDest":12371,"Ġinterests":12372,"dispatch":12373,"Ġkw":12374,"ĠPot":12375,"ĠSydney":12376,"ĠExpl":12377,"ĠArgument":12378,"expand":12379,"ĠCub":12380,"Ġelectron":12381,"latest":12382,"Buf":12383,"itemize":12384,"ĠFall":12385,"asty":12386,"atriate":12387,"Ġgreatest":12388,"ĠForest":12389,"licated":12390,"features":12391,"Worker":12392,"AK":12393,"Ġcriteria":12394,"valueOf":12395,"ASH":12396,"floor":12397,"Ġwrapper":12398,"avicon":12399,"Ġincred":12400,"ĠLewis":12401,"texture":12402,"enumerate":12403,"Ġresponses":12404,"slider":12405,"ĠBridge":12406,"ĠGenerated":12407,"Fac":12408,"Ġmanifest":12409,"NONE":12410,"Ġexplicitly":12411,"CRIPT":12412,"payload":12413,"Und":12414,"ĠDam":12415,"ĠExp":12416,"ĠWord":12417,"ĠArr":12418,"Ġscalar":12419,"Ġintegration":12420,"ĠTRUE":12421,"ĠHung":12422,"ITLE":12423,"esis":12424,"SSAGE":12425,"udes":12426,"ĠDead":12427,"Ġwa":12428,"ĠInstead":12429,"ĠRyan":12430,"Ġdemocr":12431,"Temp":12432,"ĠMarket":12433,"ogether":12434,"ĠActive":12435,"Ġmoves":12436,"gar":12437,"ĠCert":12438,"Ġcommonly":12439,"ARGET":12440,"Ġcovers":12441,"lot":12442,"Ġsubscription":12443,"tle":12444,"Ġrc":12445,"CUR":12446,"'].":12447,"ste":12448,"ĠTok":12449,"Ġarrested":12450,"ĠDaily":12451,"ju":12452,"ĠFac":12453,"chat":12454,"Ġkilling":12455,"itories":12456,"Ġyes":12457,"aneous":12458,"RET":12459,"OTTOM":12460,"ĠOCaml":12461,"Ġpackages":12462,"ĠYes":12463,"defer":12464,"Ġshares":12465,"acket":12466,"Ġagric":12467,"Ġbought":12468,"cn":12469,"bourne":12470,"Ġsilver":12471,"complex":12472,"Ã¡n":12473,"-\">":12474,"Trigger":12475,"erring":12476,"Ã¥":12477,"Ġapps":12478,"North":12479,"Ġapproaches":12480,"prepare":12481,"Matcher":12482,"Ġprogramme":12483,"mix":12484,"Ġ\"${":12485,"Wr":12486,"ĠBlog":12487,"ocom":12488,"Sol":12489,"comple":12490,"itivity":12491,"Ġcloser":12492,"140":12493,"Ġqualified":12494,"ĠIV":12495,"Ġwealth":12496,"Ġcraft":12497,"such":12498,"Ġevaluation":12499,"Ġglob":12500,"Ġå":12501,"ĠArm":12502,"Ġdebate":12503,"tm":12504,"iversary":12505,"rank":12506,"oda":12507,"Ġgenerator":12508,"Ġvertices":12509,"Week":12510,"Ġreceiver":12511,"ĠCas":12512,"Ġsnow":12513,"ĠMedicine":12514,"SUCCESS":12515,"away":12516,"Ġcolour":12517,"Setup":12518,"Ġaccuracy":12519,"ucks":12520,"Cho":12521,"ĠTerr":12522,"ĠDor":12523,"uda":12524,"AMP":12525,"essional":12526,"æĪ":12527,"Ġtight":12528,"eah":12529,"Ġdefaults":12530,"reason":12531,"ategor":12532,"Ġdiagram":12533,"Ġdecade":12534,"ĠLes":12535,"David":12536,"Ġboot":12537,"Ġagents":12538,"Ġpercentage":12539,"fw":12540,"Ġscenes":12541,"Ġyards":12542,"Ġangular":12543,"Alert":12544,"WI":12545,"filters":12546,"utr":12547,"Try":12548,"Fetch":12549,"Ġlayers":12550,"arity":12551,"Ġalgebra":12552,"Ġderiv":12553,"lix":12554,"anny":12555,"Ġwindows":12556,"Ġarts":12557,"1961":12558,"execution":12559,"popup":12560,"Ġdiagn":12561,"Ġorganized":12562,"ving":12563,"ĠNum":12564,"ÙĪ":12565,"Ġrent":12566,"ĠCru":12567,"translate":12568,"Ġstands":12569,"Attrib":12570,"COMM":12571,"ista":12572,"sis":12573,"lined":12574,"Ġhero":12575,"Ġfeels":12576,"uer":12577,"Ġcatalog":12578,"quency":12579,"servlet":12580,"IES":12581,"Ġhook":12582,"ĠBudd":12583,"ĠForeign":12584,"Ġfeedback":12585,"Ġparticipants":12586,"1944":12587,"Fi":12588,"secret":12589,"ĠCELL":12590,"Modifier":12591,"spark":12592,"Ġhelper":12593,"Distance":12594,"medium":12595,"Ġ-\\":12596,"SPACING":12597,"limits":12598,"ĠME":12599,"Accessor":12600,"GRO":12601,"Translation":12602,"ĠHashMap":12603,"Ġpersons":12604,"izers":12605,"abstract":12606,"Ġimpress":12607,"ĠSky":12608,"Ent":12609,"Ġiron":12610,"uh":12611,"Ġdisap":12612,"ĠRaj":12613,"aza":12614,"NON":12615,"Ġshooting":12616,"Ġconversation":12617,"Ġpara":12618,"adv":12619,"Ġ'@":12620,"NECT":12621,"bx":12622,"ĠFI":12623,"riends":12624,"tri":12625,"fortunately":12626,"Ġfamiliar":12627,"Ġacid":12628,"Ġroutes":12629,"Films":12630,"Cent":12631,"perial":12632,"Ġrecognition":12633,"ĠNeed":12634,"Ġdates":12635,"Ġyounger":12636,"cop":12637,"Vol":12638,"Ġcampus":12639,"attrs":12640,"ĠVerify":12641,"\"?>":12642,"mx":12643,"tail":12644,"scious":12645,"ulner":12646,"ACHE":12647,"ĠFish":12648,"governor":12649,"ĠMill":12650,"management":12651,"LD":12652,"Ġ\"[":12653,"Ġter":12654,"descriptor":12655,"Tl":12656,"Ġseparated":12657,"Ġhumans":12658,"ĠAnton":12659,"SUB":12660,"widehat":12661,"+\"":12662,"ĠRoss":12663,"WARE":12664,"Gateway":12665,"116":12666,"=\"{{":12667,"}-\\":12668,"Ġaccurate":12669,"ĠColorado":12670,"Dict":12671,"ĠSound":12672,"Ġbehaviour":12673,"pod":12674,"Ġstone":12675,"oa":12676,"Ġstroke":12677,"Ġforg":12678,"Graphics":12679,"ĠÐ´":12680,"ĠDim":12681,")}{":12682,"Metric":12683,"Ġ(+":12684,"ĠBuilding":12685,"Zoom":12686,"Ġpossibility":12687,"ania":12688,"getAttribute":12689,"ĠWITHOUT":12690,"toEqual":12691,"live":12692,"Ġfilters":12693,"Alpha":12694,"Ġworse":12695,"Ġdecide":12696,"ĠGree":12697,"delegate":12698,"loaded":12699,"Prototype":12700,"runner":12701,"Need":12702,"Ġcro":12703,"ursive":12704,"MIT":12705,"hook":12706,"Ġaid":12707,"ĠRome":12708,"aug":12709,"Fre":12710,"schemas":12711,"timeline":12712,"Ġ\"#":12713,"Ġtempor":12714,"×ķ×":12715,"Suppress":12716,"Association":12717,"Ġsv":12718,"memberNameLink":12719,"Ġdynamics":12720,"Ġinvolving":12721,"ĠArgent":12722,"analysis":12723,"Ev":12724,"actic":12725,"Ġrid":12726,"ĠContin":12727,"toc":12728,"Ġassistant":12729,"Special":12730,"ĠSep":12731,"Safe":12732,"fection":12733,"Ġmath":12734,"Bitmap":12735,"ÑĨ":12736,"Ġtrained":12737,"states":12738,"Ġsed":12739,"igator":12740,"tv":12741,"Ġpassion":12742,"Testing":12743,"ĠMagazine":12744,"Ġabandon":12745,"Ġdire":12746,"DataType":12747,"except":12748,"ĠExpression":12749,"Ġ*,":12750,"hour":12751,"criber":12752,"Ġpixels":12753,"WORK":12754,"ĠConsole":12755,"Ġsigns":12756,"Tensor":12757,"ĠResources":12758,"](#":12759,"declare":12760,"Ġfired":12761,"Ġperformances":12762,"Ġrejected":12763,"through":12764,"$}":12765,"ĠSystems":12766,"Padding":12767,"ĠLL":12768,"Also":12769,"ĠOptions":12770,"Ġfrequently":12771,"ĠSize":12772,"Ġqueries":12773,"Ġtechnique":12774,"111":12775,"Ġsender":12776,"endo":12777,"Fixture":12778,"Monitor":12779,"LPADDING":12780,"Asset":12781,"Ġprincip":12782,"ĠPhiladelphia":12783,"Ġkit":12784,"lia":12785,"Reflection":12786,"Ġmeasurement":12787,"(`":12788,"ĠEnc":12789,"Sports":12790,"spir":12791,"Ġhosted":12792,"Ġconfigured":12793,"ĠGolden":12794,"ĠÐº":12795,"Ġhall":12796,"phase":12797,"ĠStock":12798,"arl":12799,"ĠConnection":12800,"opam":12801,"icious":12802,"ĠMir":12803,"dam":12804,"Ġrestaurant":12805,"ĠLI":12806,"Ġmoments":12807,"bp":12808,"unications":12809,"ĠCELLSPACING":12810,"ĠThrough":12811,"ugar":12812,"ĠCELLPADDING":12813,"extensions":12814,"xl":12815,"Ġhits":12816,"holds":12817,"ingham":12818,"Bel":12819,"Ġterminal":12820,"ĠLie":12821,"!=":12822,"Ġultimately":12823,"Ġclassification":12824,"tol":12825,"stud":12826,"Ġbands":12827,"Merge":12828,"Ġcompre":12829,"cussion":12830,"isor":12831,"Ġreplacement":12832,"]</":12833,"Updated":12834,"theorem":12835,"Plot":12836,"ĠJesus":12837,"Ġsubsequently":12838,"Ġorig":12839,"Ġconcerned":12840,"akh":12841,"ĠPHP":12842,"Ġ\"_":12843,"tele":12844,"elasticsearch":12845,"ellar":12846,"agement":12847,"describe":12848,"arring":12849,"Ġhorse":12850,"appoint":12851,"ĠJacob":12852,"DITION":12853,"FilePath":12854,"Ġmm":12855,"cpu":12856,"CLA":12857,"ĠTarget":12858,"dtd":12859,"1948":12860,"Ġdomestic":12861,"MPL":12862,"Ġfestival":12863,"mean":12864,"Ġabuse":12865,"Ġtroops":12866,"Good":12867,"Ġ',":12868,"ĠSingapore":12869,"ĠOk":12870,"Ġworst":12871,"acts":12872,"ARB":12873,"Austral":12874,"ELEMENT":12875,"Ġpreferred":12876,"Ġwilling":12877,"Ġimpl":12878,"]->":12879,"Ġtokens":12880,"VO":12881,"ifferent":12882,"ĠWisconsin":12883,"Certificate":12884,"Ġtechnologies":12885,"Ġinstitution":12886,"Assign":12887,"Ġreligion":12888,"ĠBrian":12889,"ĠImGui":12890,"Ġofficially":12891,"ĠAh":12892,"angers":12893,"ĠBelg":12894,"Ġintelligence":12895,"Ġregistration":12896,"Components":12897,"ĠHost":12898,"Ġscan":12899,"subNav":12900,"ĠNations":12901,"Ġdecom":12902,"gp":12903,"dependencies":12904,"XXXX":12905,"BM":12906,"]['":12907,"âĢĻ,":12908,"({\\":12909,"00000000":12910,"adesh":12911,"Azure":12912,"ĠChem":12913,"Ġforget":12914,"Ġsi":12915,"Ġcertificate":12916,"ques":12917,"Ġboys":12918,"ĠKat":12919,"ĠLady":12920,"general":12921,"Payload":12922,"drawable":12923,"ĠAbb":12924,"pot":12925,"ĠChen":12926,"Ġscatter":12927,"ĠClin":12928,"Es":12929,"azure":12930,"leton":12931,"1959":12932,"Seconds":12933,"toolbar":12934,"Ġbomb":12935,"rollers":12936,"Ġris":12937,"culate":12938,"ige":12939,"TextView":12940,"ĠKorean":12941,"identity":12942,"ĠModule":12943,"Ġaccum":12944,"Ġgit":12945,"Canvas":12946,"Ġhonest":12947,"WRITE":12948,"Her":12949,"Ġ<?":12950,"ĠLater":12951,"ĠMiller":12952,"ĠEntity":12953,"Ġpref":12954,"tasks":12955,"Ġdrivers":12956,"SERVER":12957,"TX":12958,"COUNT":12959,"1958":12960,"Ġ$('#":12961,"Pending":12962,"Neg":12963,"ĠReb":12964,"observ":12965,"Ġasking":12966,"Ġinterpre":12967,"works":12968,"ivial":12969,"pending":12970,"ĠMaybe":12971,"Ġexposed":12972,"Ġrefresh":12973,"Ġpreced":12974,"Ġstrip":12975,"Lines":12976,"ĠCambridge":12977,"zy":12978,"ĠCred":12979,"Ġtransferred":12980,"Ġbaby":12981,"best":12982,"maxcdn":12983,"cases":12984,"Ġseats":12985,"REQUEST":12986,"ĠTrack":12987,"ĠMinnesota":12988,"ĠWHERE":12989,"Ġpasses":12990,"Mich":12991,"ouri":12992,"ĠIL":12993,"ĠNSString":12994,"Exit":12995,"Ġauthent":12996,"Threading":12997,"ĠAC":12998,"112":12999,"camel":13000,"ĠRevolution":13001,"erialize":13002,"lap":13003,"ĠBasic":13004,"Ġexec":13005,"Ġquiet":13006,"scripts":13007,"Ġflash":13008,"angel":13009,"Hello":13010,"ĠDuke":13011,"pipe":13012,"Ġtaught":13013,"distance":13014,"Ġcapable":13015,"ĠMS":13016,"usted":13017,"Ġtalks":13018,"Quant":13019,"ĠKIND":13020,"ĠKenn":13021,"Scene":13022,"door":13023,"Ġha":13024,"ows":13025,"Ġneither":13026,"iy":13027,"Life":13028,"Ġevaluate":13029,"Ġsyntax":13030,"Subject":13031,"plain":13032,"pagination":13033,"Ġprovince":13034,"Ġmanip":13035,"Ġphenomen":13036,"Popup":13037,"vertex":13038,"Aug":13039,"Ġoptimal":13040,"Ġ/*!":13041,"Ġsuitable":13042,"\"])":13043,"Ġexceed":13044,"ĠDespite":13045,"mutex":13046,"ĠLang":13047,"Ġpixel":13048,"repre":13049,"Ġpray":13050,"Ġplatforms":13051,"Topic":13052,"Ġwelcome":13053,"ĠSW":13054,"Ġmit":13055,"oen":13056,"1956":13057,"Tax":13058,"Ġlocale":13059,"Ġrenew":13060,"ousel":13061,"ĠTurkey":13062,"stan":13063,"OwnProperty":13064,"proc":13065,"Ùĩ":13066,"Ġretrieve":13067,".âĢĻ":13068,"Ġkeyboard":13069,"Ġstrike":13070,"1957":13071,":%":13072,"orse":13073,"Ġmac":13074,"manifest":13075,"Cookie":13076,"Ġmouth":13077,"ĠTony":13078,"Blob":13079,"attice":13080,"*>(":13081,"inch":13082,"ystal":13083,"ĠNFL":13084,"ĠPsi":13085,"substring":13086,"ĠMatch":13087,"ido":13088,"oser":13089,"Ġec":13090,"multip":13091,"Ġworldwide":13092,"DataSource":13093,"Ġcoordinate":13094,"Bus":13095,"ashes":13096,"Ġairport":13097,"aligned":13098,">.</":13099,"'\\":13100,"Ġhun":13101,"Ġspatial":13102,"ĠQueens":13103,"105":13104,"JavaScript":13105,"XY":13106,"ĠPUBLIC":13107,"ĠNetherlands":13108,"Ġresistance":13109,"1939":13110,"Qt":13111,"veh":13112,"ĠSmall":13113,"Could":13114,"rink":13115,"Tracker":13116,"ĠGil":13117,"Ġ.=":13118,"Ġgenus":13119,"ĠDisney":13120,"itecture":13121,"Ġcards":13122,"vars":13123,"Grad":13124,"ĠHouston":13125,"ubernetes":13126,"Ġteen":13127,"Ġconfidence":13128,"Equ":13129,"cookie":13130,"Ġpromotion":13131,"ĠStadium":13132,"Ġresearchers":13133,"setting":13134,"chestra":13135,"ĠPlayer":13136,"Mesh":13137,"agues":13138,"ĠMobile":13139,"ĠPrize":13140,"ĠCorps":13141,"Ġtwenty":13142,"criptors":13143,"allenge":13144,"Capture":13145,"âĢĻ.":13146,"ĠToken":13147,"DEP":13148,"dn":13149,"ĠEntertainment":13150,"ortheast":13151,"Ġclosely":13152,"ĠOntario":13153,"reprene":13154,"Ġplain":13155,"INIT":13156,"ellite":13157,"Modified":13158,"written":13159,"ĠSu":13160,"Ġscul":13161,"Checked":13162,"Bucket":13163,"ivals":13164,"fac":13165,"Ġæ":13166,"Ġfold":13167,"stub":13168,"guide":13169,"RENT":13170,"rock":13171,"Tip":13172,"SHA":13173,"Ġpit":13174,"Î·":13175,"Separator":13176,"ĠStop":13177,"ĠLead":13178,"Ġles":13179,"=\"@+":13180,"Ð¾Ð´":13181,"INDEX":13182,"ĠWel":13183,"running":13184,"Pipeline":13185,"Ġputting":13186,"IEW":13187,"Ġll":13188,"HAND":13189,"Ġendif":13190,"Ġanalog":13191,"puted":13192,"ĠCorn":13193,"Ġresulted":13194,"zech":13195,"Ġvess":13196,"ĠPO":13197,"Ġchampion":13198,"islation":13199,"override":13200,"Radius":13201,"Describe":13202,"ĠIgn":13203,"geometry":13204,"Ġabsor":13205,"faster":13206,"ĠOtherwise":13207,"ĠHollywood":13208,"ician":13209,"ĠLevel":13210,"Ġextensive":13211,"Ġtuple":13212,"steps":13213,"Ġeffectively":13214,"ĠHeart":13215,"Fill":13216,"Slot":13217,"irms":13218,"uum":13219,"FORMAT":13220,"]<":13221,"Ġcorresponds":13222,"1942":13223,"404":13224,"ycl":13225,"Ġspeaking":13226,"Pal":13227,"price":13228,"quarters":13229,"Validate":13230,"Ġpseud":13231,"was":13232,"ĠModern":13233,"ders":13234,"ĠMalays":13235,"ĠDCHECK":13236,"Ġproud":13237,"ipl":13238,"ĠJavaScript":13239,"hex":13240,"mc":13241,"erto":13242,":&":13243,"ĠOfficer":13244,"izard":13245,"ĠInitialize":13246,"Live":13247,"Wrap":13248,"ĠFilter":13249,"raction":13250,"esture":13251,"umpy":13252,"Ġinequal":13253,"added":13254,"'$":13255,"Ġspl":13256,"ctree":13257,"Ġintroduction":13258,"Ġmodes":13259,"Done":13260,"uable":13261,"sources":13262,"Ġlect":13263,"ĠIndones":13264,"Kernel":13265,"opacity":13266,"Ãł":13267,"HC":13268,"Ġresolved":13269,"strument":13270,"ĠFront":13271,"Ġmeasurements":13272,"ĠDream":13273,"British":13274,"ClassName":13275,"ĠDatabase":13276,"Dim":13277,"ĠWinter":13278,"ĠOK":13279,"ruct":13280,"Ġ}).":13281,"ĠVariable":13282,"AppCompat":13283,"Injection":13284,"Ġtalent":13285,"SPE":13286,"sch":13287,"Ġyellow":13288,"lu":13289,"Shift":13290,"Ġefficiency":13291,"Ġhypot":13292,"Structure":13293,"æķ°":13294,"Ġride":13295,"ĠOregon":13296,"initialize":13297,"Destroy":13298,"MF":13299,"Ġwing":13300,"Ġ\";":13301,"Linq":13302,"attach":13303,"nan":13304,"Ġcollaboration":13305,"ĠLeon":13306,"hal":13307,"ĠSher":13308,"ĠLicensed":13309,"Øª":13310,"rell":13311,"Ġdangerous":13312,"118":13313,"Price":13314,"ĠSin":13315,"ichol":13316,"Ġroof":13317,"Lite":13318,"Ġtum":13319,"ĠYouTube":13320,"Ġadm":13321,"Ġtelling":13322,"ainty":13323,"Ġprecision":13324,"Ġchoices":13325,"White":13326,"ĠJane":13327,"Functions":13328,"Ġpictures":13329,"Although":13330,"ĠEffect":13331,"iva":13332,"Ġprocessed":13333,"projects":13334,"Ġtries":13335,"inema":13336,"Ġauthentication":13337,"Entries":13338,"shaller":13339,"Ġextensions":13340,"Ġimmediate":13341,"ĠRailway":13342,"Particip":13343,"Ġcrowd":13344,"Ġimplicit":13345,"changes":13346,"Ġbes":13347,"Ġproposal":13348,"ĠSingle":13349,"Ġrepresentative":13350,"Src":13351,"Ġarrang":13352,"UUID":13353,",.":13354,"Ġdefines":13355,"ĉĉčĊ":13356,"MEM":13357,"story":13358,"Ġopposition":13359,"Ġmusicians":13360,"ĠProperties":13361,"aui":13362,"asts":13363,"Shadow":13364,"Sch":13365,"|^":13366,"city":13367,"Eq":13368,"ĠSpr":13369,"incess":13370,"Ġtack":13371,"clip":13372,"dynamic":13373,"ĠDictionary":13374,"vet":13375,"argv":13376,"FRAME":13377,"Ġdismiss":13378,"SF":13379,"ned":13380,"awt":13381,"Ġours":13382,"separator":13383,"Operations":13384,"Ġmatters":13385,"Ġaspect":13386,"Ġcircuit":13387,"moment":13388,"ĠAnalysis":13389,"vspace":13390,"ĠKevin":13391,"]).":13392,"inciple":13393,"Ġsuit":13394,"ĠSurvey":13395,"Ġestimates":13396,"Ġsolve":13397,"hill":13398,"inherited":13399,"Ġpurchased":13400,"ropical":13401,"Ġcookie":13402,"ante":13403,"FAIL":13404,"Ġminimal":13405,"ĠLind":13406,"Ġroy":13407,"Ġveter":13408,"ordon":13409,"ĠSquare":13410,"Ġclim":13411,"Ġannotation":13412,"Ġfundamental":13413,"jan":13414,"lookup":13415,"Ġ\");":13416,"Ġscores":13417,"ĠDoes":13418,"Ġescap":13419,"iac":13420,"iat":13421,"ennessee":13422,"ellect":13423,"Ġseeking":13424,"Ġdual":13425,"Ġcausing":13426,"ĠPA":13427,"Ġsentence":13428,"ĠGrid":13429,"istributed":13430,"ĠTurk":13431,"Arrays":13432,"ĠDeath":13433,"MSG":13434,"ĠTal":13435,"indu":13436,"Ġillegal":13437,"Ġcharacteristics":13438,"hensive":13439,"hbase":13440,"Ġtheorem":13441,"Ġrating":13442,"metic":13443,"avis":13444,"peg":13445,"ĠMoh":13446,"Ready":13447,"ighth":13448,"Marker":13449,"Ġretire":13450,"Ġafford":13451,"rides":13452,"åŃ":13453,"preview":13454,"ĠDraw":13455,"Ġ\")":13456,"ĠMIT":13457,"()[":13458,"igo":13459,"ĠPlaces":13460,"ĠBreak":13461,"Ġinteractions":13462,"metrics":13463,"LowerCase":13464,"subscribe":13465,"oven":13466,"Ġoppon":13467,"outube":13468,"ĠOlympic":13469,"Ġsorted":13470,"anches":13471,"renderer":13472,"Ġeastern":13473,"Ġintroduce":13474,"Ġthoughts":13475,"ĠGh":13476,"Ġpilot":13477,"Ġfounder":13478,"Ġaccommod":13479,")}$":13480,"Ġraces":13481,"quisition":13482,"1946":13483,"Lcom":13484,"Clean":13485,"Ġrecovery":13486,"STRUCT":13487,"Ġspending":13488,"Scan":13489,"Ġrepeat":13490,"nit":13491,"zed":13492,"ĠArizona":13493,"ĠNorm":13494,"104":13495,"Ġdevelopers":13496,"Na":13497,"ĠKa":13498,"Ġwalking":13499,"ieval":13500,"Ġencoded":13501,"Ġintersection":13502,"ĠMountain":13503,"Ġpolar":13504,"ĠAffairs":13505,"Ġsole":13506,"Ġdrugs":13507,"NGTH":13508,"Ġinstallation":13509,"paces":13510,"ĠHan":13511,"Ġpresentation":13512,"FUNCTION":13513,"etc":13514,"1941":13515,"Ġcoins":13516,"Ġgro":13517,"AMETER":13518,"Ġts":13519,"Ġsuperv":13520,"ĠPalest":13521,"segment":13522,"Ġscenario":13523,"Hint":13524,"ĠDevice":13525,"Ġsevere":13526,"Ġcorporate":13527,"ILL":13528,"Ġoperate":13529,"walk":13530,"ĠBurn":13531,"ĠCache":13532,"Ġlegisl":13533,"argo":13534,"multicol":13535,"ĠFinally":13536,"egas":13537,"cers":13538,"ĠFight":13539,"iseconds":13540,"MESSAGE":13541,"Stage":13542,"gui":13543,"1955":13544,"Ġtrim":13545,"Ġbreaking":13546,"Ġstreets":13547,"ĠMD":13548,"Ġsomewhat":13549,"Ġtradition":13550,"']))":13551,"Ġmatched":13552,"fasterxml":13553,"\\,\\":13554,"Ġwinners":13555,"pipeline":13556,"Ġmissed":13557,"Ġ(`":13558,"Times":13559,"Ġconstants":13560,"ĠJordan":13561,"Ġdescent":13562,"Ġplate":13563,"ĠMilitary":13564,"ĠAttribute":13565,"ĠAdministration":13566,"ĠTake":13567,"Ġlegacy":13568,"ĠSimon":13569,"Ġtransmission":13570,"zoom":13571,"Ġencode":13572,"Percent":13573,"what":13574,"Ġfaces":13575,"Ġsimulation":13576,"Ġimpossible":13577,"Ben":13578,"Ġbigger":13579,"ĠCab":13580,"ĠTai":13581,"rowColor":13582,"pisode":13583,"Tri":13584,"Paths":13585,"Ġpiano":13586,"andal":13587,"\\}$":13588,"atile":13589,"MAN":13590,"Ġconj":13591,"ĉĉĉĉĉĉĉĉĉĉĉ":13592,"vironments":13593,"packages":13594,"Ġdispatch":13595,"Ġvictims":13596,"Ġhockey":13597,"mathscr":13598,"quant":13599,"Blocks":13600,"Ġpotentially":13601,"ocal":13602,"Ġhardware":13603,"ĠTax":13604,"ĠAnderson":13605,"ĠUkraine":13606,"aire":13607,"VC":13608,"Ġsuffered":13609,"ĠSummary":13610,"Ġtimer":13611,"ĠSuch":13612,"Ġregime":13613,"ROOT":13614,"hello":13615,"reduce":13616,"ĠModal":13617,"antry":13618,"ubb":13619,"ibilities":13620,"ilk":13621,"Ġrhs":13622,";%":13623,"lon":13624,"Ġpolynom":13625,"ĠUsed":13626,"Äĥ":13627,"Ġvisitors":13628,"Ġhole":13629,"Ġmine":13630,"Ġexpr":13631,"nie":13632,"Millis":13633,"iso":13634,"Occ":13635,"Ġprivacy":13636,"Ġbatt":13637,"grpc":13638,"peror":13639,"Ġexcited":13640,"responsive":13641,"1943":13642,"Ġscholar":13643,"bt":13644,"Ġcub":13645,"Ġwalls":13646,"Ġemergency":13647,"Fire":13648,"Ġbroke":13649,"Ġblank":13650,"bone":13651,"reflect":13652,"ĠLabour":13653,"Ġ(@":13654,"ĉĠĠĠĠĠĠĠĠĠĠĠ":13655,"ĠNaz":13656,"aba":13657,"ĠLev":13658,"ORS":13659,"Visitor":13660,"ĠParameters":13661,"Extract":13662,"Ġarc":13663,"512":13664,"shell":13665,"comments":13666,"ĠPhoto":13667,"'=>":13668,"ĠNever":13669,"erd":13670,"Ġprominent":13671,"Ġexhibition":13672,"Destination":13673,"multicolumn":13674,"ĠBh":13675,"esterday":13676,"Ġframes":13677,"Dry":13678,"Ġcomposer":13679,"ãĥ¼":13680,"Ġmacro":13681,"empl":13682,"Mal":13683,"owntown":13684,"\"}":13685,"Ġhosts":13686,"exclude":13687,"Ġscientists":13688,"ĠCaptain":13689,"Tools":13690,"Inline":13691,"Constraints":13692,"ĠTen":13693,"Sets":13694,"ĠPrivacy":13695,"ĠPolish":13696,"Ġbat":13697,"AAAA":13698,"Ġinfl":13699,"?)":13700,"ĠCastle":13701,"Styles":13702,"Ġpromoted":13703,"1947":13704,"anted":13705,"1952":13706,"Ġobjective":13707,"who":13708,"Ġputs":13709,"ĠDoc":13710,"Ġattrs":13711,"Ġhundreds":13712,"etary":13713,"Ġmarker":13714,"Surface":13715,"scan":13716,"Ġsad":13717,"ĠBAS":13718,"usage":13719,"Compare":13720,"via":13721,"Ġsky":13722,"Ġvirt":13723,"adapter":13724,"ĠtoString":13725,"ynopsis":13726,"ĠBrig":13727,"Ġdefeat":13728,"Ġselling":13729,"ĠCirc":13730,"Ġvice":13731,"ĠRad":13732,"Visibility":13733,"Ġdt":13734,"Ġinsurance":13735,"/***/":13736,"ĠOcean":13737,"------------------------------------------------":13738,"Ġrestore":13739,"rence":13740,"Ġcodes":13741,"Mail":13742,"FFFFFF":13743,"backend":13744,"modifier":13745,"Ġconfigure":13746,"wich":13747,"Ġscre":13748,"Backup":13749,"Ġadministrative":13750,"Ġaccompl":13751,"Ġasks":13752,"obby":13753,"192":13754,"iÄĩ":13755,"nl":13756,"Peer":13757,"ĠNothing":13758,"([]":13759,"Ġdrawing":13760,"entries":13761,"Ġ\"+":13762,"ĠBor":13763,"Ġsignals":13764,"icates":13765,"Ġlots":13766,"Ġeducational":13767,"aware":13768,"ĠGit":13769,"Alignment":13770,"Ġrational":13771,"Ġenjoyed":13772,"1954":13773,"Å¾":13774,"Ġloan":13775,"Ġboat":13776,"icide":13777,"Ġexpensive":13778,"=\"../_":13779,"Ġaccessible":13780,"Ġincorrect":13781,"emony":13782,"ĠSession":13783,"icht":13784,"Ġmile":13785,"Ġpython":13786,"Personal":13787,"Rich":13788,"dirname":13789,"Ġintegrated":13790,"noindent":13791,"wen":13792,"secutive":13793,"Ġstub":13794,"ĠOpt":13795,"andidate":13796,"ĠPa":13797,"Blockly":13798,"appendChild":13799,"lif":13800,"overflow":13801,"Parcel":13802,"ĠStorage":13803,"ĠSweden":13804,"Mix":13805,"streaming":13806,"Fe":13807,"ĠPackage":13808,"train":13809,"Ġintegral":13810,"=-=-":13811,"Ġmob":13812,"coln":13813,"rena":13814,"ĠDA":13815,"Numer":13816,"Ġongoing":13817,"ĠPremier":13818,"Ġrefers":13819,"amar":13820,"Ġstrategies":13821,"Ġexercise":13822,"'},":13823,"Alt":13824,"ĠMembers":13825,"Ġslice":13826,"clock":13827,"spi":13828,"Ġrig":13829,"Ġagencies":13830,"marks":13831,"Ġterritory":13832,"Ġmedian":13833,"underline":13834,"unior":13835,"appings":13836,"Ġvisibility":13837,"ĠCook":13838,"Ġenemy":13839,"Ġappeal":13840,"1953":13841,"trm":13842,"Apr":13843,"ĠJews":13844,"`:":13845,"ctic":13846,"Ġdiscovery":13847,"ĠPhilippines":13848,"ABILITY":13849,"BLOCK":13850,"ENCE":13851,"generic":13852,"Ġcompilation":13853,"actice":13854,"Scalar":13855,"ĠBOTTOM":13856,"Ġhandled":13857,"rons":13858,"Ġsucceed":13859,"]),":13860,"Ġappearances":13861,"weg":13862,"ĠAmb":13863,"ç»":13864,"Ġexponent":13865,"1949":13866,"Ġchecking":13867,"ordered":13868,"Ġadvertising":13869,"Ġwheel":13870,"ĠGraph":13871,"ĠTrail":13872,"ĠStringBuilder":13873,"Ġvast":13874,"åľ":13875,"ĠLabel":13876,"holders":13877,"former":13878,"lus":13879,"oker":13880,"ĠExpress":13881,"Ġownership":13882,"hematics":13883,"ternoon":13884,"ooper":13885,"//----------------------------------------------------------------":13886,"Ġleaf":13887,"Ġlocally":13888,"Ġdress":13889,"abb":13890,"Ġcombat":13891,"Î»":13892,"ĠUnless":13893,"Warnings":13894,"éĢ":13895,"itals":13896,"Forward":13897,"Ġwhereas":13898,"'):":13899,"ĠLiter":13900,"Ġfootballer":13901,"Prom":13902,"offs":13903,"ĠÃł":13904,"spin":13905,"Ġemp":13906,"Party":13907,"yers":13908,"Ġhealthy":13909,"Ġspoke":13910,"escape":13911,"Unique":13912,"NR":13913,"Ġexposure":13914,"Ġtemple":13915,"ĠImport":13916,"utenant":13917,"Ġclosing":13918,"Ġ$$":13919,"Std":13920,"Completion":13921,"ĠMrs":13922,"Ð¾ÑĢ":13923,"oust":13924,"Ġwer":13925,"textrm":13926,"Team":13927,"Ġasset":13928,"Ġremoves":13929,"sent":13930,"LEV":13931,"roit":13932,"ĠBush":13933,"Ġteachers":13934,"Ġvec":13935,"Ġturning":13936,"Ġemployed":13937,"UV":13938,"eno":13939,"ĠFollowing":13940,"Ġdocumentary":13941,"ĠEP":13942,"beat":13943,"æĹ":13944,"ĠPatrick":13945,"Ġcredentials":13946,"Without":13947,"Ġwear":13948,"BT":13949,"Walk":13950,"olute":13951,"Ġadults":13952,"Fix":13953,"Ġapparently":13954,"ĠJoh":13955,"Ġtopics":13956,"Hol":13957,"Subscription":13958,"Ġemission":13959,"Ġhint":13960,"extract":13961,"ĠIndiana":13962,"noscript":13963,"900":13964,"ĠJay":13965,"ootstrap":13966,"Ġ\\|":13967,"ĠĠĠĠĠĠĠĠĠĠĠĠĠĠĠĠĠĠĠĠĠĠĠĠĠĠĠĠĠĠĠĠĠĠĠĠĠĠĠĠĠĠĠĠĠĠĠĠĠĠĠ":13968,"half":13969,"Ġpapers":13970,"Ġstood":13971,"locals":13972,"ĠPier":13973,"Ġgrade":13974,"comb":13975,">:]<":13976,"ĠRoom":13977,"ĠAthlet":13978,"glob":13979,"osity":13980,"icians":13981,"Ġrear":13982,"Ġĉ":13983,"ĠĠĠĠĠĠĠĠĠĠĠĠĠĠĠĠĠĠĠĠĠĠĠĠĠĠĠĠĠĠĠĠĠĠĠĠĠĠĠĠ":13984,"Ġgained":13985,"Ġalive":13986,"SDK":13987,"Loaded":13988,"crs":13989,"Confirm":13990,"utter":13991,"ĠDoctor":13992,"Lang":13993,"__[\"":13994,"Ġreads":13995,"Ġasym":13996,"clusions":13997,"ceived":13998,"Ġsoul":13999,"Ġlandscape":14000,"ĠOtt":14001,"allas":14002,"Decoder":14003,"Ġdele":14004,"Ġunivers":14005,"hashCode":14006,"sea":14007,"Ġfaculty":14008,"-------":14009,"thew":14010,"allowed":14011,"iot":14012,"CHAN":14013,"ivo":14014,"Ġsimpl":14015,"social":14016,"cpy":14017,"constraint":14018,"Ġfacts":14019,"ecycle":14020,"period":14021,"itespace":14022,"conditions":14023,"nail":14024,"Ġvariant":14025,"Ġcorre":14026,"dataset":14027,"ĠMoreover":14028,"odge":14029,"texttt":14030,"-------------":14031,"burn":14032,"demo":14033,"ĠManchester":14034,"Ġpup":14035,"Ð¸ÑĤ":14036,"Ġmomentum":14037,"anga":14038,"Ġevil":14039,"Ġprovision":14040,"San":14041,"Major":14042,"StackTrace":14043,"Ġsubmitted":14044,"Ġpractical":14045,"Ġsubjects":14046,"Strip":14047,"Ġassessment":14048,"YS":14049,"[-":14050,"caret":14051,"ĠVar":14052,"paths":14053,"Der":14054,"nonatomic":14055,"ogene":14056,"}}_":14057,"olate":14058,"registry":14059,"Connector":14060,"microsoft":14061,"ĠHart":14062,"verted":14063,"Ġopposed":14064,"OpenTl":14065,"ĠMoon":14066,"Ġapplies":14067,"helpers":14068,"unicode":14069,"parentNode":14070,"Ġequals":14071,":/":14072,"ĠKal":14073,"Ġrooms":14074,"firstrow":14075,"Ġsees":14076,"Ġnested":14077,"âĢī":14078,"Ġinvariant":14079,"favicon":14080,"ĠCop":14081,"ests":14082,"ĠDun":14083,"sizeof":14084,"FTWARE":14085,"Ġbul":14086,"Sent":14087,"Ġnotify":14088,"rah":14089,"toctree":14090,"question":14091,"ĨĴ":14092,"environment":14093,"ĠArthur":14094,"Ġentities":14095,"rices":14096,"RIGHT":14097,"Follow":14098,"Ġrunner":14099,"Ñħ":14100,"ĠMemorial":14101,"Ġ//-->":14102,"ĠUl":14103,"Ġfault":14104,"Ġabsolutely":14105,"Ġrelax":14106,"Ġwaste":14107,"Ġparticipate":14108,"ĠSav":14109,"Publish":14110,"rik":14111,"usi":14112,"ĠCS":14113,"Payment":14114,"Ġthreads":14115,"ĠGreece":14116,"ĠPit":14117,"ĠProm":14118,"Ġcollections":14119,"~$":14120,"Ġfasc":14121,"Ġinterior":14122,"ĠMaria":14123,"Ġcovering":14124,"striction":14125,"orts":14126,"emet":14127,"ĠNAS":14128,"ĠMut":14129,"csv":14130,"oor":14131,"ĠTer":14132,"ĠClark":14133,"ĠGiven":14134,"Stmt":14135,"ĠPur":14136,"sters":14137,"Ġintention":14138,"ĠSyntax":14139,"boss":14140,"ustry":14141,"ernate":14142,"Theta":14143,"Seq":14144,"ĠAWS":14145,"Ġ}),":14146,"Ġdipl":14147,"prof":14148,"elled":14149,"Ġdies":14150,"Ġeg":14151,"StatusCode":14152,"Sur":14153,"ĠWait":14154,"Ġsevent":14155,"Ġsnapshot":14156,"Ġalgorithms":14157,"agr":14158,"Refresh":14159,"Ġrevolution":14160,".\")":14161,"ĠEdition":14162,"}\"/>":14163,"ĠHoly":14164,"Ġenhance":14165,"Dimension":14166,"abama":14167,"ongs":14168,"Ġattrib":14169,"Uint":14170,"Ġgarden":14171,">../":14172,"ĠRange":14173,"Exec":14174,"Willi":14175,"Reply":14176,"NOS":14177,"ĠAdded":14178,"slf":14179,"Film":14180,"ĠJam":14181,"Ġexpressions":14182,"Ġgauge":14183,"agan":14184,"Uniform":14185,"Ġlookup":14186,"=====":14187,"afka":14188,"ARCH":14189,"\\\":":14190,"ĠCapital":14191,"seed":14192,"ĠKansas":14193,"BD":14194,"bullet":14195,"Suite":14196,"103":14197,"aque":14198,"Ġexclusive":14199,"uating":14200,"dump":14201,"Ġguilt":14202,"TOOL":14203,"Ġpermanent":14204,"Ġheads":14205,"LINK":14206,"Ġnormally":14207,"AreEqual":14208,"ÏĤ":14209,"worker":14210,"Ġassist":14211,"Scheme":14212,"ĠSave":14213,"extype":14214,"ueto":14215,"Ġminim":14216,"Ġassignment":14217,"Ġxsi":14218,"scene":14219,"}}}":14220,"iable":14221,"Ġscoring":14222,"ĠLinux":14223,"ĠTab":14224,"Dan":14225,"screens":14226,"âĢ¦.":14227,"ibling":14228,"Ġsubset":14229,"ĠComment":14230,"Ġrm":14231,"Ġproducing":14232,"upt":14233,"Ġsight":14234,"ĠBry":14235,"pense":14236,"144":14237,"Ġtrouble":14238,"atable":14239,"LED":14240,"ahoma":14241,"Ġproviders":14242,"?(":14243,"Router":14244,"asets":14245,"Ġstages":14246,"ancellationToken":14247,"Keyword":14248,"Ġassistance":14249,"Ġsurprise":14250,"ĠDa":14251,"EventArgs":14252,"ĠRelease":14253,"Ġflux":14254,"Ġfacilit":14255,"ĠSenior":14256,"ĠRequired":14257,"Ġdatetime":14258,"Ġmorph":14259,"Ġmembership":14260,"!(":14261,"Ġsensor":14262,"east":14263,"Align":14264,"NamedCell":14265,"Ġpainting":14266,"<\\":14267,"ĠAtlantic":14268,"setAttribute":14269,"Bg":14270,"Ġsche":14271,"Ġbid":14272,"Polit":14273,"Ġnecessarily":14274,"Ġexcess":14275,"mbed":14276,"wi":14277,"Backend":14278,"ĠPu":14279,"ĠUSE":14280,"ĠAgency":14281,"Ġsitting":14282,"epage":14283,"Express":14284,"Ġshel":14285,"Apply":14286,"uties":14287,"1900":14288,"Ġsigning":14289,"ĠPDF":14290,"Ġcorrelation":14291,"Ġexceptions":14292,"Ġgoods":14293,"Ca":14294,"placement":14295,"ĠCONFIG":14296,"AUTH":14297,"ouses":14298,"ĠEver":14299,"Ġcollapse":14300,"Ġinteract":14301,"urches":14302,"overlay":14303,"Ġcompile":14304,"fred":14305,"ĠPerm":14306,"ĠSR":14307,"1951":14308,"licity":14309,"ĠCF":14310,"Ġsteel":14311,"-----":14312,"\"=>":14313,"maker":14314,"ĠKhan":14315,"olving":14316,"sWith":14317,"Ġpin":14318,"Ġrouter":14319,"CLU":14320,"ĠHelp":14321,"ĠClinton":14322,"Dao":14323,"iations":14324,"ventions":14325,"ĠEvents":14326,"Ġsimult":14327,"ĠMit":14328,"uetooth":14329,"ĠĠĠĠĠĠĠĠĠĠĠĠĠĠĠĠĠĠĠĠĠĠĠĠĠĠĠĠĠĠĠĠĠĠĠĠĠĠĠĠĠ":14330,"Ġassault":14331,"ĠCreated":14332,"kh":14333,"ĠArticle":14334,"ĠFa":14335,"omer":14336,"oi":14337,"Ġinvited":14338,"ĠSix":14339,"bundle":14340,"icients":14341,"è¡":14342,"Ġpulled":14343,"Ġarrays":14344,"Ġsequences":14345,"retval":14346,"Ġdoct":14347,"Seg":14348,"Ġ}\\":14349,"Share":14350,"Ġfunctionality":14351,"Ġfat":14352,"Ġapproval":14353,"IFI":14354,"fish":14355,"ĠChrome":14356,"Ġptr":14357,"ĠHence":14358,"Ġdiscrim":14359,"posts":14360,"ãģ®":14361,"ĠTool":14362,"ĠMemory":14363,"Ġrecall":14364,"Behavior":14365,"razy":14366,"Ġexplo":14367,"Ġrevenue":14368,"Mov":14369,"Ġwonderful":14370,"Mc":14371,"ĠStudy":14372,"UInt":14373,"Ġmaintenance":14374,"ĠIslamic":14375,"ĠGrant":14376,"Ġaccused":14377,"Ġaffili":14378,"Ġtile":14379,"onal":14380,"Ġregistry":14381,"plane":14382,"Ġdefinitions":14383,"Tick":14384,"Cost":14385,"mov":14386,"toLowerCase":14387,"Ġ\"-//":14388,"115":14389,"Ġsweet":14390,"ĠRemarks":14391,"ErrorCode":14392,"IONS":14393,"Ġlegislation":14394,"ĠClear":14395,"Ġhasn":14396,"<?>":14397,"Transfer":14398,"Ġdeclaration":14399,"union":14400,"esting":14401,"Ġms":14402,"Ġswim":14403,"atype":14404,"FilterDatabase":14405,"Ġsoci":14406,"statement":14407,"rible":14408,"olves":14409,"ĠMean":14410,"ippet":14411,"Ġforth":14412,"Ġmerged":14413,"EqualTo":14414,"mont":14415,"Ġbounded":14416,"drag":14417,"Ġupgrade":14418,"LENGTH":14419,"Ġexperts":14420,"indices":14421,"/'":14422,"beh":14423,"Ġtough":14424,"Ġentertainment":14425,"Ġdependency":14426,"Ġsatisfies":14427,"Ġtotally":14428,"inputs":14429,"DM":14430,"ĠValidate":14431,"rx":14432,"reement":14433,"East":14434,"RGB":14435,"endment":14436,"transl":14437,"Ġfindings":14438,"sat":14439,"Ġwel":14440,"unstable":14441,"pal":14442,"THE":14443,"107":14444,"Develop":14445,"VT":14446,"ĠFellow":14447,"Sheet":14448,"ĠMotor":14449,"ilst":14450,"Ġonclick":14451,"TES":14452,"Relative":14453,"Ġinherited":14454,"Ġranked":14455,"ĠTennessee":14456,"Indicator":14457,"Ġbeauty":14458,"ustries":14459,"106":14460,"versions":14461,"Paul":14462,"developer":14463,"azel":14464,"Ġexplains":14465,"Ġrendered":14466,"utors":14467,"samples":14468,">()</":14469,"10000":14470,"tone":14471,"Ġdependent":14472,"Ġmanagers":14473,"audi":14474,"Ġblow":14475,"Ġsynchronized":14476,"ĠGirl":14477,"ĠDiego":14478,"camera":14479,"Ġ_{":14480,"ĠDI":14481,"ĠRegional":14482,"fghan":14483,"Ġrestart":14484,"urrence":14485,"Ġnumerical":14486,"ĠINT":14487,"ĠStone":14488,"ĠDid":14489,"Ġjournalist":14490,"Adv":14491,"ĠMET":14492,"apps":14493,"Ġpregn":14494,"Ġsymbols":14495,"bow":14496,"Ġhorizontal":14497,"literal":14498,"riterion":14499,"Proc":14500,"ureau":14501,"III":14502,"Ġfalls":14503,"ĠDave":14504,"apters":14505,"Ġstick":14506,"Ġoutcome":14507,"Ġoptical":14508,"ĠFR":14509,"placeholder":14510,"ĠCC":14511,"pk":14512,"ĠSilver":14513,"ĠEC":14514,"Ġreform":14515,"ĠZend":14516,"Ġpicked":14517,"ĠConstitution":14518,"Ġgiant":14519,"Ġdeprecated":14520,"ĠMatrix":14521,"×Ļ×":14522,"Modal":14523,"hemat":14524,"Ġincreasingly":14525,"Ġticket":14526,"Ġwond":14527,"Statistics":14528,"114":14529,"Ġretry":14530,"sleep":14531,"Ġcircumstances":14532,"Ġwed":14533,"ĠDat":14534,"Ġvulner":14535,"Ġobservation":14536,"jor":14537,"ĠRound":14538,"profit":14539,"ĠXml":14540,"agonal":14541,"Ġkil":14542,"ĠSarah":14543,"Ġtheoret":14544,"Ġbattery":14545,"Authorization":14546,"Green":14547,"Disabled":14548,"ĠVietnam":14549,"Paint":14550,"Ġpointed":14551,"Credentials":14552,"ĪĴ":14553,"ĠĠĠĠčĊ":14554,"ugs":14555,"Men":14556,"Ġflying":14557,"Ġdiverse":14558,"Defined":14559,"brace":14560,"Pad":14561,"tuple":14562,"Ġ'')":14563,"Annotations":14564,"ĠMun":14565,"invoke":14566,"ĠSn":14567,"ĠTraining":14568,"Ġfacing":14569,"Ġgrown":14570,"ĠTrade":14571,"Phil":14572,"wick":14573,"Ġgraduated":14574,"Ġcalendar":14575,"ĠIowa":14576,"Debugger":14577,"Ġcss":14578,"GN":14579,"arios":14580,"ĠMarc":14581,"atom":14582,"ĠJason":14583,"[(":14584,"encil":14585,"Ġchose":14586,"FROM":14587,"ĠTech":14588,"iest":14589,"005":14590,"ffffff":14591,"ĠLock":14592,"Ġjoining":14593,".');":14594,"Hook":14595,"Used":14596,"ĠAuth":14597,"cam":14598,"Ġnovels":14599,"Ġcontribute":14600,"Ġtowns":14601,"Ġattempted":14602,"cord":14603,"ĠWhit":14604,"Ġsegments":14605,"Sig":14606,"quiring":14607,"Ġnotable":14608,"configure":14609,"1936":14610,"need":14611,"VR":14612,"++++":14613,"Ġassumption":14614,"ĠPlant":14615,"}^{-":14616,"urse":14617,"Ġdeployment":14618,"Mobile":14619,"erra":14620,"ĠThose":14621,")_":14622,"?</":14623,"PARAMETER":14624,"emetery":14625,"Ġinfinite":14626,"Ġvocal":14627,"sap":14628,"Ġhate":14629,"Ġracing":14630,"poser":14631,"Ġanywhere":14632,"regex":14633,"ĠBu":14634,"ARK":14635,"Who":14636,"tility":14637,"urers":14638,"ĠPhilli":14639,"PROTO":14640,"aus":14641,"ĠAnthony":14642,"Js":14643,"icity":14644,"TITLE":14645,"itative":14646,"Ġextreme":14647,"Ġutils":14648,"1918":14649,"Ġwrapped":14650,"chrome":14651,"999":14652,"Ġtracking":14653,"Ġlowest":14654,"Ġreasonable":14655,"must":14656,"regular":14657,"ĠHave":14658,"sender":14659,"Ġversus":14660,"ĠConstruct":14661,"ĠMoore":14662,"ĠMissouri":14663,"Ġvariation":14664,"Ġfaced":14665,"Ġvit":14666,"Ġlawyer":14667,"rand":14668,"ĠAI":14669,"109":14670,"ÑĪ":14671,"ividual":14672,"Ġbon":14673,"ĠMovie":14674,"ithmetic":14675,"Ġinjured":14676,"eland":14677,"removeClass":14678,"ĠThrow":14679,"cohol":14680,"Ġcompens":14681,"ĠLE":14682,"ctrl":14683,"branch":14684,"ĠCell":14685,"ĠTreat":14686,"ĠConstant":14687,"=\"#\"":14688,"Ġbias":14689,"Multiple":14690,"Ġmonitoring":14691,"Ġvacc":14692,"Receive":14693,"Encoder":14694,"ĠBarn":14695,"ICK":14696,"ĠDisplay":14697,"ĠGT":14698,"Ġaccord":14699,"/#":14700,"uity":14701,"Ġparticipated":14702,"Ġbare":14703,
[...]
