#version: 0.2
Ġ Ġ
ĠĠ ĠĠ
Ġ t
i n
e r
Ġ a
o n
h e
r e
a t
e n
o r
s t
Ġt he
i t
a n
Ġ c
a l
Ġ s
a r
e s
ĠĠ Ġ
Ġ o
i on
e d
Ġ w
ĠĠĠĠ ĠĠĠĠ
i s
Ġ f
in g
Ġ p
l e
Ġ b
o u
n d
i c
Ġ in
r o
Ġ m
a s
Ġo f
e t
Ġ d
c t
Ġt o
en t
Ġa nd
e l
Ġ h
Ġt h
a m
i l
Ġ re
o m
Ġ n
i d
ĠĠĠĠ ĠĠĠ
â Ģ
u t
c e
u r
Ġ S
Ġ l
o l
Ġ e
i m
at ion
i g
Ġ T
o t
Ġ (
s e
Ġ =
Ġ C
a d
i v
Ġ A
c h
Ġ g
u l
o d
i f
ĉ ĉ
Ġ is
r a
o w
Ġ I
) ;
Ġf or
Ġ <
a g
u n
t h
Ġ st
Ġ v
Ġ {
e m
l y
u s
er s
Ġb e
Ġ M
= "
p e
Ġ on
a y
at e
- -
a b
it h
u m
c k
Ġ P
Ġ $
/ /
i r
ĠĠĠĠĠĠĠĠ ĠĠĠ
q u
< /
t er
Ġ *
Ġc on
p t
Ġth at
i st
Ġ B
v er
a v
h t
e st
e w
e x
Ġ \
es s
č Ċ
ct ion
as s
Ġw ith
Ġ D
Ġ R
l o
r i
Ġa s
re s
âĢ Ļ
an d
am e
2 0
Ġ y
p p
en d
Ġ F
or t
Ġa n
Ġ }
Ġp ro
ou r
Ġw h
Ġa l
Ġ it
Ġ H
u b
u e
Ġ N
Ġ L
Ġ W
o p
Ġ "
Ġ E
it y
k e
n t
il l
Ġe x
Ġd e
e ct
m ent
o re
ag e
er e
Ġc om
Ġ G
" >
ĠĠĠĠĠĠĠĠ ĠĠĠĠĠĠĠĠ
ro m
o s
l ass
ĠT he
ĠĠĠĠ Ġ
ar t
Ġ or
( )
in e
Ġth is
a in
ur n
* *
t r
Ġa t
a p
Ġa re
o c
Ġ r
iv e
l d
ig ht
i es
al l
i z
Ġb y
Ġ u
u re
. .
an t
Ġ O
ul t
at h
i al
c on
Ġs e
p er
Ġ he
a c
p l
a ck
t urn
ex t
Ġ âĢ
ab le
u d
Ġ if
an s
l i
Ġf rom
y pe
Ġw e
0 0
o g
-- --
g e
u st
g et
r ou
Ġ J
Ġw as
f f
l ic
or m
s p
Ġ '
av e
Ġn ot
Ġc h
in t
od e
a st
Ġs h
= =
ou t
p ort
Ġ &
in d
e f
a re
c om
pt ion
Ġc lass
o st
ar d
as e
o v
e g
Ġ U
b er
i le
Ġy ou
ĠĠĠĠĠĠĠĠ ĠĠĠĠĠĠĠ
ar y
at a
el l
{ \
p h
Ġ le
Ġ -
o k
I n
Ġt r
i re
at ed
T he
it e
id e
a k
a ct
ic e
or d
im e
a ce
Ġh ave
re f
Ġre turn
j ect
Ġ //
ou ld
Ġs u
Ġc an
ig n
e p
it ion
Ġ j
Ġin t
c l
Ġ us
or k
Ġcon t
Ġn ew
i p
al ue
s er
ic al
: :
- >
on g
âĢ Ŀ
e ar
st r
ic h
c c
i a
en ce
Ġp l
an ce
Ġh as
ĠI n
an g
Ġa b
f orm
Ġcom p
Ġa d
on e
en s
ub lic
Ġal l
C on
il d
Ġ K
un ction
Ġ @
a il
ĠT h
Ġw ill
Ġ im
20 1
Ġ V
) .
Ġ [
e v
Ġ k
r y
e c
i b
Ġ< /
ation s
res s
) ,
ĉĉ ĉĉ
S t
_ {
ar am
or y
Ġre s
ro w
ent s
p ro
our ce
Ġ /
th er
' s
he n
Ġ un
el f
ou nt
ul l
Ġa r
ĠS t
" ,
Ġd o
ou s
a ch
Ġ en
f t
d u
Ġo ut
Ġ +
s o
l l
1 9
s et
om e
.. /
( );
( "
iz e
Ġ Ċ
c ri
p s
Ġb ut
Ġst r
m a
ĠâĢ ľ
Ġ$ \
g h
Ġwh ich
1 0
o ok
o b
u al
i ew
Ġu p
ow n
ar k
in k
' ,
Ġm e
p ut
Ġthe ir
Ġg o
m l
p le
t ext
et h
Ġg et
tr ing
or s
f er
ou nd
t e
Ġh is
---- ----
m ath
** **
a ke
Ġm ore
er v
d iv
y st
Ġon e
Ġ* /
a u
E x
ess age
i el
Ġd is
Ġe v
re e
ion s
c he
Ġp ublic
Ġthe y
Ġ .
Ġf unction
Ġp er
ĠC h
Ġ :
Ġs o
er y
er r
iel d
c re
c al
E R
o ol
f ig
Ġ qu
Ġde f
n e
Ġn ame
cl ud
le ct
Ġa pp
ot h
> </
sp an
pe ct
e qu
t t
ing s
el y
Ġ Y
en er
Ġin ter
ra y
yst em
in al
Ġp r
ol l
b ut
ol d
ĠĠĠĠĠĠĠĠ Ġ
Ġwh o
ir st
s s
o id
ĠĠĠĠĠĠĠĠ ĠĠĠĠĠĠĠĠĠĠĠ
Ġs et
Ġs p
pe c
er t
en c
Ġp art
Ġn e
Ġm an
Ġv ar
u g
s h
w e
} }
P ro
at es
( '
Ġl i
Ġo b
a pp
th is
O N
> <
o int
N ame
== ==
v el
ĉĉ ĉ
Ġp re
) )
Ġo ver
Ġ |
Ġab out
I N
n ame
ic t
ay s
Ġa g
Ġit s
Ġw ere
i an
Ġal so
p r
20 2
ic k
Ġw ork
t y
Ġ #
y s
Ġ _
i x
T h
at ch
T ype
v e
nd er
Ġs a
u p
^ {
../ ../
o ver
od el
is h
a x
Ġt ime
Ġo ur
Ġy our
p aram
ig h
t o
o se
Ġo ther
m er
Ġbe en
ic s
r it
le ment
Ġw hen
at or
er m
} \
i o
w o
Ġan y
r am
im port
Ġh er
} $
an ge
Ġy ear
: //
f ter
1 2
ht ml
Ġt e
ov e
s um
Ġad d
re turn
Ġd ata
Ġ ro
l es
p on
is s
ri but
at ic
ab el
l ine
rou p
if ic
S tring
Ġt ype
Ġth ere
R E
ar g
al se
Ġv alue
on t
n g
at er
I d
ĠI t
Ġth an
an c
u ct
lo ck
ke y
ac he
eth od
ur re
f o
S T
Ġh ref
Ġd es
i e
en g
s ource
is e
Ġint o
u ild
rou nd
e ad
at ive
a w
Ġof f
Ġ !
} ,
Ġa cc
m essage
um ber
Ġh ad
Ġcom m
Ġcon st
Ġs ome
tr ans
Ġ el
Ġre c
d ef
al s
ĠTh is
l ation
ter n
u es
Ġc ol
Ġre qu
Ġs elf
o ck
d d
ĠW e
pp ort
Ġf irst
ra c
Ġc re
Ġ end
n ing
Ġn o
eg in
at ing
Ġw ould
Ġthe m
A T
c ode
20 0
ce ption
Ġ i
am es
C om
R es
Ġin d
Ġs c
i ous
r ight
ar ch
( \
Ġp e
re ad
t d
t he
n c
a ult
Ġon ly
Ġ= >
Ġtr ans
Ġ id
m b
t ype
on s
Ġk n
c ess
1 1
Ġc l
Ġb et
al ly
ad d
ol og
cri pt
ĠâĢ ĵ
ad e
p os
I D
b egin
Ġres ult
Ġli ke
il ity
Ġre g
em ber
n er
Ġt wo
Ġu se
ht t
C h
v ent
Ġsa id
Ġs ub
o f
Ġf e
ul ar
o x
i ed
it ies
Ġt ra
as h
Ġ= =
Ġn ull
ĠP ro
le t
Ġb ack
/ >
ĠC om
Ġl ine
c ol
Ġa ct
u nd
1 6
con t
Ġpro v
c lass
ic es
_ _
Ġp os
ĠU n
it s
op le
O R
urre nt
Ġin clud
Ġs he
Ġm y
A R
Ġd if
Ġat t
d er
ib le
ation al
Ġu nder
as ed
em ent
L ist
Ġm ay
Ġc all
e b
Ġin v
.. .
Ġwh at
# #
ut h
u res
Ġv oid
rou gh
ption s
L E
b le
ĠH e
Ġh ow
w w
ers ion
m s
ow er
au se
Ġj ust
iv ate
ire ct
1 8
_ {\
" />
1 5
Ġt est
Ġa fter
as k
Ġor g
t a
in ed
ra ct
or ld
ow s
) :
Ġ err
Ġne ed
v ar
e y
A r
Ġ `
Ġs pec
) );
an n
l ed
) $
s on
t on
Ġwh ere
str ing
um ent
Ġe ver
Ġin st
Ġre m
A L
Ġtr ue
d ay
b ack
Ġe m
t ing
id er
E N
Ġ >
am p
e k
ra ph
v al
et a
ag es
ser t
w ard
he d
**** ****
Ġv al
Ġre l
} {
Ġa c
le ction
p en
id th
ĠA r
Ġpe ople
Ġp h
l abel
v iew
an k
Ġa m
Ġst ud
it le
at ure
erv ice
Ġthe se
ĠN ew
f ul
or g
Ġ ent
b ject
f ore
Ġm ost
I t
Ġ )
trans lation
h at
r u
lo c
Ġf alse
Con t
con d
Ġsh ould
ĠĠĠĠĠĠĠĠĠĠĠĠĠĠĠĠ ĠĠĠĠĠĠĠĠĠĠĠĠĠĠĠĠ
âĢ ľ
y le
od y
Ġel se
re at
ment s
s elf
Ġth rough
Ġex t
s c
Ġh igh
r ic
res ent
Ġus ed
m in
" );
Ġthe n
ou gh
. âĢĿ
T o
Ġf l
re am
V alue
r r
im es
o le
eng th
Ġl oc
// //
-------- --------
ĠS e
"> <
Ġsu ch
D ata
Ġfor m
3 0
an y
in s
a ir
2 5
Ġpl ay
Ġch ar
i er
o od
Ġc ase
i ent
iz ed
Ġst art
re d
ĠE x
ar get
d ata
lo g
S S
per ty
Ġpro du
it ed
e q
il y
ff ect
form ation
ser v
b e
Ġf oll
er n
Ġdif fer
u ff
1 4
ur ing
Ġex p
Ġc o
in es
le ft
Ġd et
ĠĠĠĠĠĠĠĠ ĠĠĠĠĠ
Ġf inal
ĠC on
Ġc ould
' t
Ġ/ **
ar s
f rac
f l
we en
li ent
Ġp ol
u le
Ġcon s
w n
ĠS h
Ġf il
c ite
Ġ x
iv ers
1 3
et s
Ġstr ing
Ġ ra
ut ion
Ġg ener
ĠĠĠĠĠĠĠĠĠĠĠĠĠĠĠĠ ĠĠĠĠĠĠĠ
f or
av a
Ġbe c
c ent
Ġw ell
he ck
b ar
are nt
Ġc or
Ġn ow
Ġ --
in ce
A N
Ġs im
ĠA s
b r
p re
t s
v alue
Ġs ystem
p ar
Ġl ist
Ġl ong
I T
s ub
Ġm ake
ot e
Ex ception
ĠA n
d ate
Ġ Q
Ġas s
oth er
e le
Ġs m
Ġre ad
00 0
3 2
Ġever y
Ġd ist
ĠĠĠĠ ĠĠ
y p
m an
S et
n ew
Ġ& &
ers on
al th
Ġbet ween
Ġr ight
l p
Ġh im
if y
if e
w ork
S E
Ġs ign
at t
C T
Ġn umber
u ch
ĠA l
Ġyear s
am ple
" )
a ction
iv er
C ol
p x
Ġp oint
A s
f ile
Ġm odel
ire d
re n
ow ing
( $
at us
l and
B y
Ġse e
t est
et er
1 7
ro ll
] ;
it em
Ġst atic
cc ess
on d
rr or
Ġ! =
Ġ// /
Ġdo es
math b
as on
Ġl ook
n b
r m
c o
Ġe ach
Ġag ain
m ary
Ġm in
ak ing
i ence
Ġsu pport
ĠF or
O bject
a h
iv es
Ġh and
us s
} )
lo ad
Ġpr ivate
Ġc ount
ist s
D E
en se
G et
ent ial
Ġb o
ant s
$ .
W e
iz ation
T r
it t
lo b
Ġm od
Ġus ing
is hed
ro l
str uct
pl ay
==== ====
Ġev en
e ver
Ġex per
T est
ce pt
oc i
ĠI f
ĠT r
g er
ĠS tring
iv en
$ ,
Ġs ur
Ġre sp
Ġman y
] ,
n ot
. _
ĠA nd
Ġwh ile
a z
Ġb r
f ace
Ġob ject
olog y
202 2
() .
if ied
g ram
Ġl ast
g y
, âĢĿ
Ġs er
b y
5 0
Ġa p
c ed
Ġ Z
} .
nb sp
() );
' )
Ġm ethod
Ġm on
o ot
Ġbec ause
Ġbe ing
Ġ %
c es
are d
Ġo per
M E
l er
Ġbe fore
is ion
Ġd id
Ġd r
Ġw ay
ch n
. ,
w h
am b
ut e
Ġkn ow
in ess
s ize
Ġ ed
U n
, \
y m
ical ly
Ġr un
r ad
h ip
ro id
Ġc urrent
com m
Ġst ate
i k
re qu
Ġs ol
ot t
Ġs ame
ch ool
enc y
t ime
Ġf ind
math cal
y n
equ ation
Ġa v
Ġde c
ou se
I m
Ġf ield
ar n
Ġb l
is m
ĠR es
Ġv ery
it al
E rror
1 00
Ġg u
Ġ key
al k
Ġex pect
vel op
C O
Ġim port
um n
Ġf ound
Ġar t
Ġb el
Ġdis c
ro ss
Ġw orld
loc ation
w ay
Ġle ad
2 4
Ġd own
Ġde velop
S h
d a
F or
p ace
he ad
id ent
Ġh ere
ro p
ĠY ou
m e
as es
r ite
Ġpro cess
A n
ot s
Ġhe lp
ess ion
us h
ord er
Ġb oth
Th is
Ġe qu
f unction
Ġin formation
Ġ X
Ġde p
Ġ| |
Ġsh ow
C lass
Ġm ed
I nd
m ed
K ey
in ter
Ġdiffer ent
Ġre p
le ar
Ġth ose
qu e
ut il
re g
Ġw ant
sum mary
l ink
ĠI nd
mer ic
htt p
s u
r c
ph a
S e
ag er
r al
re ak
ath er
o ad
cri ption
g o
Ġm ark
oc ument
ain s
ist er
" :
t il
Ġar g
us iness
R equ
end s
op y
h er
Ġp aram
l ist
Ġp ass
} (
U L
' );
" ;
p ublic
Ġf ile
u c
g ht
ur l
se arch
] .
ust om
Ġgo od
r id
Ġre port
Ġm uch
n ess
Ġo wn
[ '
Ġd on
Ġf act
Ġm ade
Ġ/ >
R O
og le
ction s
b ers
r on
uth or
V iew
A C
I C
f ield
2 2
ĠâĢ ĺ
ind ex
o h
âĢ ¦
() ,
it or
I ON
et work
ĠR e
Ġcont in
t en
d is
} ^
al e
htt ps
in clud
} _
Ġp at
ect or
ual ly
al ity
Ġto p
Ġv is
Ġh tt
o y
Ġin cre
t op
ra w
~ \
Ġf am
Ġpart ic
6 4
con st
a j
f e
u se
ar m
Ġm ust
F ile
l ay
ak es
ribut e
Ġb uild
ur ation
. </
lob al
ĠW h
p ath
ress ion
uff er
Ġth ree
Ġc ent
Ġ );
Ġn on
Ġd irect
P E
Ġ z
enc es
Ġm em
m od
Ġth ink
Ġe ffect
Ġprov id
Ġc lo
Ġth row
el ta
p i
al pha
pon se
ĉĉĉĉ ĉ
T E
it ial
ivers ity
iss ion
re m
ĠĠĠĠ Ċ
Ġcomm un
l ess
ĠI s
Ġper form
Ġhe ad
ĠP h
lo y
v ir
Ġs erv
O n
un c
ra g
Ġd uring
Ġte am
Ġ ke
Ġt ake
com e
b s
ition s
Ġse cond
Ġch ild
. "
s cript
ĠS c
I nt
ab ility
T ime
N ode
t able
o pe
Q u
ĠA meric
a pe
E lement
em pl
W ith
or th
Ġst ill
ĠâĢ Ķ
Ġas sert
w idth
Ġre f
an e
Ġa ut
Ġ ?
ĠB ut
Ġc ar
L A
ĠD e
ur al
Ġev ent
' ]
t ain
b o
u ck
g round
4 0
ect ed
/ *
Ġrequ est
w it
ate g
Ġs ize
l ang
In fo
Ġg roup
Ġor der
Requ est
"> </
n av
ĠC ol
ail able
s ide
A dd
at s
Ġo pen
r ation
Ġm ov
i ev
ack age
amb da
E vent
2 3
ain er
j s
ens ion
Ġn ext
Ġe lement
Ġerr or
ver t
f il
Ġapp ro
Ġp ost
19 9
Con fig
v ious
U R
E qu
el s
Ġg iven
Ġs l
S ystem
v en
Ġm at
le x
P I
Ġm ain
Ġa round
Ġle vel
ww w
ff ic
Ġwe ek
Ġp erson
/ **
Ġbe st
c ur
Ġpro t
R e
Ġw rit
D ef
iv ing
T R
P ath
p art
or n
ign ed
st ance
s y
Ġs om
Ġe st
M an
et ers
w ord
202 1
$ \
se ction
Ġre le
Ġre al
Ġcont ent
ar ray
ar i
n et
che d
in ing
r ide
} ;
() )
ole an
w are
Ġtr y
P aram
pl ic
ĠO n
Ġg ame
F ield
Con text
Ġd el
et y
Ġpos s
ep end
Ġe ar
per t
ap i
l ength
in ation
E n
) \
Ġt erm
us er
iv ely
ĠH ow
iv ed
T ext
Ġstr uct
Ġar ray
Ġte chn
Ġ/ *
Ġt arget
Ġc heck
Ġinclud ing
e e
g roup
i or
Ind ex
Ġfoll owing
Ġf in
ĠA d
ok en
H E
âĢ Ķ
Ġd ay
a pt
it er
um p
Ġvar i
Ġpro gram
ĠC l
St ate
if t
ic y
' :
ames pace
m p
Ġpro ject
Ġan al
Ġs ince
id d
Ġt itle
act er
3 3
v oid
Ġloc al
ir c
=" ../../
20 20
Ġ} ,
A l
Ġm et
m d
` `
our ces
n al
Ġcons ider
oc us
Ġm ult
o ff
R ef
S ervice
Ġl ife
pt y
l ing
O ver
ind ow
It em
r ame
Ġl og
ĠCom m
! --
in a
u f
Ġ( !
ill ion
6 0
M ap
Ġs ing
Ġle ft
m u
Ġagain st
A D
2 1
I S
Ġs ay
tern al
ĠT o
Ar ray
ag s
w ays
Ġst and
Ġp ar
am ma
ap ache
2 8
******** ********
l ish
Ġcre ate
ar ge
a it
= \
Ġsm all
2 7
it ive
Ġt ext
i um
Ġcon f
ific ation
Ġpl ace
ail s
du ct
ĠU S
Ġv iew
Ġp ower
//// ////
Ġdef ault
d es
Ġc our
ic le
Ġwith out
Ġp ath
" "
Ġad v
Ġp resent
IN G
_ \
ep s
ri es
Ġre ce
C ode
con fig
Ġc are
Ġus er
iv ity
Ġbe g
a ut
ul ation
pro t
âĢ ĵ
Ġinv est
ĠS he
ass ert
[ ]
U T
en u
F orm
ur s
Ġ} );
Ġp res
Ġ: =
ou n
Ġch ang
D es
lic ation
Ġid ent
L O
Ġb usiness
O r
n ode
A S
ĠA ll
ition al
Ġacc ess
m ap
Ġcon d
cal e
en e
ĠM ar
vir on
Ġ\ \
b ox
eg a
Ġresult s
oc ial
ĠĠĠĠĠĠĠĠĠĠĠĠĠĠĠĠ ĠĠĠĠĠĠĠĠĠĠĠ
8 0
ig ma
N ot
com p
ĠJ an
Ġb ook
Ġle t
=" +
res ult
ist ory
Ġim p
E D
u i
Ġg r
S ize
Ġp op
Ġs k
Ġo ld
H and
A tt
ast er
err or
ir d
I s
Ġhe alth
ol v
Ġ et
mathb b
ĠC O
tr ue
or ies
che s
ĠP l
r is
} _{
os s
Ġav ailable
pert ies
2 6
ic on
pp er
ĠThe y
empl ate
Ġch ange
Ġbe h
' ;
Ġl im
Ġde v
av ing
Ġgo ver
at ely
I G
ob ject
ord ing
H e
in put
Ġmon th
um er
Ġt ri
P h
st and
ĠTh ere
ab led
p or
et urn
u ro
re ate
us ic
Ġ= ==
lect ed
p oint
col or
ig inal
Ġd em
A pp
Ġan other
def ine
ord s
A nd
2 9
Ġgo ing
ert ain
} ^{
Ġre t
er ing
\ \
N ew
m y
ĠS ystem
Ġs ays
om en
mb ol
ear ch
Ġb lock
ut ure
ou th
202 3
A ll
read y
ĠG et
f rom
end ing
ĠUn iversity
ou nc
Ġprodu ct
B uild
Ġto o
E S
ĠB l
+ +
yp es
Ġpro ble
port s
b ody
Ġwith in
= '
Ġl aw
Ġan n
ĠO r
ĠB e
ĠM an
O f
M A
Ġinter est
at ures
Ġval ues
Ġb reak
lo at
um an
s w
qu ot
b lock
Ġo ptions
cre ate
le y
Ġh app
lic k
ul es
Ġ_ _
Ġre ally
Res ult
ac es
Ġg row
E T
Ġs pe
ou ble
Ġf ew
ne ction
g g
Ġap pe
F F
c d
ĠP r
Ġcon fig
ide o
pl ace
n o
is ed
Ġc ap
Ġorg an
Ġ-- >
oh n
ev el
al ign
n ment
un e
ĠT e
Ġh ome
ac y
r ist
Ġ{ \
f in
b f
end er
orm al
em s
ĠA pp
Ġs chool
ĠM ay
at ors
ight s
M essage
ent ly
def ault
Ġc ode
h o
a i
Ġd i
t itle
I f
ict ion
i que
y nc
Ġcont ext
U S
Ġf ull
Ġle g
ag ement
Ġg reat
Ġs ervice
ater ial
- \
im ate
Ġv ersion
U p
M P
^ {\
ph i
pon ent
t es
od es
he s
Ġf our
In ter
m odel
con om
t ings
d own
and s
Ġp ur
ir t
viron ment
Ġb ig
Ġcall ed
includ e
p m
th ing
Ġn il
b l
Ġin put
ra p
Ġt urn
L oc
anc es
O T
u age
l t
U N
V al
ĠC ent
ic ro
v ersion
l ambda
c ast
Ġb ased
fer ence
Ġs ource
Ġme as
Ġp ut
og raph
Ġj ava
m et
A B
itt le
c all
Ġcomp any
pec ial
g ed
Ġ} ;
F rom
st art
end ed
Ġis s
## ##
Ġm ax
Ġinst ance
ĠI m
M L
Ġadd ress
a im
en n
UL L
Ġsu ccess
Ġrequ ire
re c
M odel
in fo
Ġstud y
o ber
a f
se e
Ġbet ter
op er
am pl
Ġre search
ĠM ed
Tr ans
ou ght
Qu ery
st ate
b t
201 7
ab les
R ead
ap s
c ount
il ar
I L
d e
Ġqu est
is k
ĠS o
, "
ĠS u
on se
ĠE ng
Ġn ode
eth ing
ure d
Ġex ample
F il
Ġem p
Ġm ight
ou d
B ut
Ġsu per
201 8
in c
ard s
C all
um ents
cont ent
S er
O ut
iv al
Ġcont rol
Ġind ex
9 9
Ġresp onse
Ã ©
Ġl ess
201 9
i ents
pp ed
ri x
ĠS p
R eg
ĠC ont
Ġal ways
ĠN o
4 5
on y
ĠA t
Ġrep resent
s l
Ġb ase
re t
ore d
Ġst at
Ġb ro
ma x
u ary
Ġ Ð
b eta
ys is
i od
Ġc ell
A t
ail ed
m it
o in
---------------- ----------------
Ġfam ily
Ġsp ace
Ġen c
Ġs it
Ġse ver
E nt
Ġo cc
ĠĠĠĠĠĠĠĠ ĠĠĠĠ
mathb f
ĠE n
Ġal ready
L og
ol ution
ur ther
Ġp ay
ur y
Ġc ustom
Ġne ver
ith er
Ġf ree
Ġsu pp
C E
Ġimport ant
3 5
Ġen er
um e
Ġen g
g t
ref er
W h
T able
he ther
if ier
Ġ es
us ing
Ġpl an
ĠC ar
ent ion
EN T
our s
at form
ple ment
Ġ ,
Man ager
d t
re l
val id
Ġl ink
C ount
ĠL e
Ġc al
ĠC an
s m
Ġt em
Ġall ow
Pro perty
ib ility
b ook
ott om
Ġb ool
C lient
b ase
201 6
Ġinclud e
Ġ Â
Ġcom e
aj or
er o
a un
Ġw on
Ġb u
roll er
l ished
Ġo pt
ĠĠ Ċ
pro v
r ing
Ð °
Ġg ot
Ġr ange
il on
Ġe as
n ect
Res ponse
ib r
I P
Ġh ard
ap er
Ġcol or
Ġc lear
Ġme an
Ġin s
ne y
Ġto t
Ġm essage
ĠW ith
Ġdes ign
o ption
Ġa ction
Ġre st
b ed
Ġl arge
ĠP ol
ab ly
ĠF r
0 1
A P
Ġn etwork
Ġc r
Ġs rc
Ġf ore
Ġpro m
Ġmark et
> &
Ġb as
Ġp ort
Ġp ot
P l
201 5
ra ck
Ġpos ition
Ġc ost
Ġas k
re en
ĠN ov
Ġch o
Ġre du
="../../ ../../
go ogle
g ress
U ser
is ing
C H
Ġsom ething
p ackage
con text
Ġe lect
Ġ ide
m ethod
id es
ĠC o
j ava
Ġp arent
w ith
f alse
le g
O D
Ġn ear
d o
Ġex pl
; &
Ġth ings
at ter
le te
che ck
Ġsh ort
Ġsing le
ix ed
S u
s igma
Ġprov ide
and roid
Ġs um
ann el
Ġex ist
Ġdes cri
Ar g
ĉĉĉĉ ĉĉ
h old
Ġst yle
ul y
Ð ¾
Ġposs ible
Ġoff ic
r un
Ġac ross
p arent
Ġv ol
n ext
M ethod
Com m
al f
d oc
Ġke ep
ĠS et
ar ning
W hat
se c
7 0
Ġdist ribut
F act
Ġof fer
f unc
Over ride
Ġ( \
> (
Ġal ong
a ff
ra in
str u
T D
Ġt able
u x
Ġst d
v es
Ġp o
T H
le m
ĠA b
ar row
Ġd ocument
Ġchar acter
Ġint eg
7 5
im al
3 1
Ġf ac
Ġass oci
Ġexpect ed
9 0
N A
ag n
Ġener gy
C ell
pr int
Ġst ory
ĠM on
o ptions
i ke
v ers
ward s
^{ -
ĠJ ohn
Ġl ittle
Ġl ot
Ġin itial
c a
D is
wh ere
Ġab ove
Ġres pect
Build er
Ġrequ ired
id ual
Ġfe el
ĠG u
ĠĠĠĠĠĠĠĠ ĠĠ
H ow
cre en
d ev
sp ace
Ġback ground
ĠTh at
Ġd ays
st yle
Ġw in
c ore
Ġpro perty
M od
we b
3 4
) }
Ġacc ount
Ġm atch
Ġl ate
======== ========
ot o
th ers
ild e
St ream
ĠIn st
Ġw ater
201 4
ip le
Col or
Ġt imes
st atic
u k
Ġp age
m ember
Ġf ar
Ġle ast
c er
le ase
g ing
Ġl ow
P r
cl us
l ight
Ġse ason
d b
c ss
t ab
ĠAmeric an
Ġh old
s k
ĠI N
Ġd ue
in ary
im um
Ġexper ience
G roup
ec ut
in it
at ab
o ke
ĠT est
A d
Ġf r
Ġm ass
Ġpre vious
l im
ri or
Ð µ
res pon
on es
6 6
Ġpartic ular
Ġf und
Ġchild ren
Ġser ies
Ġpro f
ĠJan uary
Ġcommun ity
Ġs ocial
ic ense
Ġli k
Ġf ri
one y
S ub
Ġd om
Ġf uture
Ġr ad
s q
se mb
U til
ĠR eg
Ġhtt p
Ġj ob
Ġor iginal
Ġs ide
n ow
Ġan t
ar ing
Ġhtt ps
m at
* }
lo se
rit er
ĠG o
Ġout put
Ġspec ial
pos ition
ĠI nt
e lement
Ġm ap
Ġind ust
ĠM in
ĠB y
ĠA ss
ĠSt ate
Ġare a
Ġp ast
Ġsign ific
N o
ang uage
un g
is on
Ġdisc uss
c ell
Ġcount ry
Ġf ocus
or age
] )
id ence
C l
pl it
Ġemp loy
Ġstr ong
ith ub
h and
Ġm illion
Ġb ody
c urrent
rou ps
ĠD is
Ġc ur
; </
al es
Ġa uthor
ĠW orld
Ġab le
Ġgover nment
r t
b uild
Ġkn own
cur ity
Ġim age
B e
St atus
d om
O S
ro du
Ġg lobal
ĠO ct
g amma
f ra
Ġm usic
ĠL ist
math rm
pp ing
m ark
E nd
ev ent
T oken
am ed
ĠC ount
un k
ĠN ULL
Ġrec ord
Ġob serv
arg in
Ġc he
Ġc over
Ġp ract
Ġcom b
5 5
S ource
n amespace
^ \
E d
Ġdet erm
I R
Ġm ajor
In stance
an el
Ġob tain
00 00
us ed
ĠA dd
Ġtot al
ĠA ug
b it
Ġme ans
i ans
Ġun til
Ġm aking
+ \
ĠS er
Ex p
Ġm om
Y ou
Ġ< <
o pt
ĠHow ever
ra ft
Ġb en
Ġ$ (
Ġh uman
Ġwork ing
ĠE d
Ġw hether
d elta
in ition
r ho
=" #
Ġd one
3 6
uro pe
m ber
( (
ab or
ĠW hen
Ġb ound
Ġg ive
Ġme et
ĠQ u
Im age
b all
and om
ist ic
In put
3 9
Ġval id
Ġpot ential
Ġo p
g ithub
Ġl ove
Ġmem bers
Ġmed ia
c lient
yn am
] (
ent al
D ate
x y
Ġh ost
u ation
requ est
Ġk ind
O P
Ġsever al
Ġt re
Ġsim ilar
ĠR ep
id s
s ing
Ġb order
B ar
ĠW hat
act ive
ain ing
e ch
R ec
Ġa way
Ġpoint s
Ġb it
ĠN ot
ĠĠĠĠĠĠĠĠĠĠĠĠĠĠĠĠ Ġ
fig ure
ĠW est
R un
Ġcomp on
Ġp ub
Ġstud ents
Ġin div
Ġu nd
Ġcomp let
} {\
ig ation
ĠD r
b ig
Ġwh y
Ġ( $
ĠUn ited
Ġunder stand
Ġl arg
v is
n ers
Ġre view
n s
oc ol
Ġl ight
Ġfoll ow
Ġw idth
Ġs y
un ity
N ull
Ġs ure
Ġdevelop ment
Ġro le
d ir
G ener
C C
3 8
ew ork
ĠB o
ĠCh rist
S P
il t
Ġto get
B lock
ĠR ev
o op
Ġserv ices
Ġpro b
ON T
n ull
re ct
ĠC al
ĠA pr
A G
wit ch
Ġtoget her
O ptions
Ġgener al
Ġproble m
E L
ĠNew s
h as
og n
the ta
ain ed
ĠG e
c le
er al
qu ery
ĠD o
art ment
H ead
Ġsignific ant
ampl es
] {
l a
A M
le q
i am
Ġl ater
P ar
201 3
im age
Ġbe come
ĠĠĠĠĠĠĠĠĠĠĠĠĠĠĠĠ ĠĠĠĠĠĠĠĠĠĠĠĠĠĠĠ
Ġt alk
Ġe ither
respon d
Ġear ly
Ġreg ion
t imes
arg s
ch ild
O L
I M
s el
irt ual
ic ation
ĠN ational
atab ase
Y PE
Ġtra ck
ens ure
Ġam ong
ĠA g
Ġc a
ser ver
ill s
F l
4 8
Ġl and
m ost
19 8
Ġpol it
ak en
Ġbel iev
al t
S c
l in
Ġcomp ut
ĠY ork
if f
Ġbo olean
ot ype
Ġclo se
Equ al
ac c
o o
Ġl ay
ft ware
re w
E X
ang le
$ -
ram ework
ĠF l
i ol
Ġh istory
Ġdis play
Ġs ite
Ġdef ined
Ġper iod
O ff
Ġc ult
Ġen ough
Ġ( )
p age
Ġindiv idual
Ġd est
ir m
Ex t
it ing
ache d
St yle
ust er
Ġto day
Com p
Ġev ents
Ġdoes n
3 7
as ing
Ġse en
ĠThe se
Hand ler
ĠD es
Ġg l
) </
Ġl oad
um b
e ed
Ġab s
Ð ¸
n u
Ġm ove
Ġo ption
Ġ" ""
Ġc ity
Ġp ress
eb ug
Ġtr ad
Ġof ten
ex p
il ities
ph p
ag ed
ateg ory
V ID
om an
Ġon ce
ribut es
=" ../
s ed
S C
D e
Ġt reat
er a
ef ore
ag ing
Ġf urther
st er
Ġim plement
Ġyou ng
Ġnew s
Ġperform ance
ir l
ud e
im ary
B ase
ĠF eb
om et
Ġc oll
Ġs at
H T
Ġm akes
AT E
t au
Ġpre d
i res
Ġn um
ĠC ity
Th ere
itt ed
Ġw omen
che ma
P os
Ġsh ows
ĠA ct
Ġl ength
n own
i us
Ġfil m
Ġr isk
ĠS chool
ĠM c
ĠP art
L ine
ad ata
( {
part ial
c ul
ĠM arch
N S
Ġcour se
ele te
O per
F A
but ton
g en
ĠCom p
4 4
pt r
s im
ĠO ne
Ġind ic
t arget
b ased
stru ction
Ġ+ =
li b
Ġe conom
ec ess
iz er
Att ribute
our nal
c ase
.. ..
Ġc ertain
Ġc amp
ĠE urope
Ġth ought
0 5
Ġh aving
re et
olog ical
ĠIn tern
Res ource
add ing
g r
ce mber
se lect
Ġcomm on
ver age
L ay
} (\
Ġdid n
C K
pect ed
ig ure
Ġ- >
c or
E E
Ġen vironment
he ight
oun ter
row s
ra ce
Ġand roid
d f
Com ponent
201 2
Ġt ell
Ġc ou
t x
ig ital
Ġd iv
ot ion
ĠG r
Ġcontin ue
Ġth ough
B uffer
U E
Cont ent
Ġprovid ed
em ic
A ct
H el
ĠM e
re ed
ug in
ut ions
Ġcl aim
em ents
Ġcon c
el ine
S tr
app end
Ġt ask
ĠC lass
Ġy et
' re
it es
< !--
ĠP res
ĠW ill
Fact ory
Ġit em
Ġph ys
Ġa ir
qu ad
Ġas sum
ĠP ar
Ġm aterial
Ġbel ow
ĠM ark
E m
op s
// /
ud io
Ġfe atures
Ġc ases
Ġchang es
Ñ Ĥ
Ġv ideo
Ġre ason
St art
eq ref
Ġadd ed
Ġspec ific
Ġo thers
P oint
Ġch all
Def ault
epend ent
RE F
ĠTr ans
ĠR eturn
an a
P re
os p
Ġc y
em pt
id get
y ear
fl ow
ĠC or
he l
Ġthrow s
il it
Ġse arch
le ge
Ġrel ations
Ġse ction
im ation
Ġd ate
Ġv ia
Ġpat ients
pos ed
ĠP er
) {
i ef
Ġdif f
Ġr ate
an ch
ad a
Ġle arn
Ġto ol
ist ry
med i
ill ed
op h
Ġc lient
Ġterm s
ĠG ener
D elta
Ġl abel
ĠSe pt
p ost
Ġbeg in
e ction
Ġprot ected
head er
F unction
ĠA f
ĠD ef
om ega
Equ als
Ġpr int
V ersion
Ġed uc
g ener
e h
er ed
* /
A ction
Ġsu gg
ch ange
h ost
Ġsugg est
olv ed
ch ar
Ġcontin u
Ġ{ @
Ġst atus
ĠO bject
l ast
Ġanal ysis
x i
ĠHe alth
j son
s g
so ft
w ise
Ġe p
in o
Ġf ive
S p
Tr ue
ĠA ust
A b
ĠĠĠĠĠĠĠĠ ĠĠĠĠĠĠ
g or
Ġth ing
ar r
Ġc ame
op en
ĠD ep
Ġc opy
ĠA N
ĉ Ċ
Ġl ive
id ed
st ream
r l
V ER
ĠU p
Ġwe bs
}$ .
ound s
D O
fin ished
ĠS outh
y les
Ġ ...
}$ ,
ĠJ une
Ġhapp en
Ġcre ated
raph ics
Ġmodel s
Ġre d
ĠApr il
ip s
lo cal
M S
ty p
ft y
[ "
N av
at al
end if
Ġs w
C heck
ĠM ore
Ġst ream
L ink
Ġar r
se qu
a id
Ġm ag
P art
Ġres ource
Ġimp act
pro perty
an ies
Ġneed s
Ð ½
T O
n a
ens or
Ġc atch
iz ing
ibr ary
eg er
m on
ial og
0 9
Ġb i
il i
Ġs ent
x ml
Ġon line
en ame
row ser
) (
T ask
ĠSt ates
ou ch
ĠR uss
ĠAr t
p ush
6 5
Ġinst all
w rite
ĠM y
Ġparam eters
Ġfe ature
Ġn ight
Ġhigh er
st atus
Ġc rit
Ġf ood
Ġth ird
Ġg ames
N umber
Ġsystem s
Ġup date
Ġacc ording
201 1
re st
Ġto ok
k en
\ ,
ĠE l
Ġh y
idd le
k s
ĠDe cember
ĠS ch
Ġcom es
ĠH ar
in fty
is es
Ġf ail
Ġcomp et
ĠS ec
ind ows
d ep
th ough
' '
ov ed
gor ith
Ġcol umn
Ġact iv
mod ule
dis play
g le
Pro v
ry pt
j av
Ġvis it
Ġindust ry
eq n
f irst
ĠJ uly
t ilde
h ib
ain t
ĠN orth
Ġv er
Ġd en
à ¤
und le
L abel
ĠN one
g es
0 8
Ġcor respond
ĠR ec
Ġo pport
p c
Ġstart ed
Ġ( (
Ġm iss
4 9
C reate
bt n
Ġmonth s
ĠNov ember
z e
un finished
Ġtechn ology
ap ter
Ġw rite
W hen
at ural
Ġresp ons
i i
I V
ist r
0 2
LA SS
s igned
Ġf ace
Ġassoci ated
Ġben ef
ac ity
Ġa ge
Ġam ount
Ġph ot
~ ~
Ġc irc
n on
Ġm ar
Ġatt ack
Ġ q
Ġn eg
Ġparam eter
Ġpl atform
d r
ĠIn ter
Ġapp lic
s rc
ru ary
Ġper cent
li p
ĠĠĠĠĠĠĠĠ Ċ
Ġse lect
| \
ut es
at ory
ma z
Ġappro ach
Ġint rodu
T P
Ġoffic ial
Fil ter
Ñ Ģ
Ġsh own
Ġd ouble
fl u
ĠOct ober
_ .
Ġw atch
ak er
anc ial
Ġapp lication
ĠS m
Ġlim it
201 0
i j
od ing
ist ration
d l
Ġlook ing
0 3
st ract
L oad
av or
le an
ĠO F
//////// ////////
f ind
W eb
Ġre fer
Ġcan not
} );
Ġl ower
str ong
Ġm oney
Ġto ld
Ġde al
Ch ild
p ack
ly ing
cont ainer
wit ter
n ov
Ġde ath
Ġrele ase
Ġquest ion
a ul
Ġf all
ce ed
Ġh ouse
Ġact ually
7 8
ire ction
action s
B U
ful ly
p ose
ĠSept ember
Ġh alf
s i
" ]
ĠV al
F I
lection s
$ $
0 4
Con st
ĠCount y
Ġmethod s
y l
ĠI D
ri ed
Ġsub ject
Ġg en
Ġ url
ĠAug ust
ĠP ark
I I
ob j
P ol
Ġcomp lex
ur ity
( &
AB LE
Ġt ax
N ext
o ice
ĠA m
a ur
0 6
il er
h am
O ne
Ġcond itions
anc ed
st d
in st
ĠT ra
ra int
ic les
ĠD ata
Ġm er
Ġadd ition
al y
res h
m ission
Ġhe ight
Ġcon sum
av es
ist or
ĠB ar
Ġs ix
Ġb ar
Ġt ypes
pr ivate
Ġmod ule
ar ies
ell ing
ĠE X
> >
des cription
Ġ ]
ch iev
Ġmult iple
at tr
Ġt aken
Ġn ecess
ver se
Ġstruct ure
P age
Ġpro perties
ĠD av
0 7
T ER
Ġinter nal
Ġin it
. )
Ġac cept
Form at
prot otype
Ġreport ed
Ġspec ified
Ġn ormal
im ension
Ġbr ing
Ġe y
Ġc ut
f ont
Ġse qu
Ġvar ious
Th at
Ġag o
Ġmeas ure
Ġe ff
Ġl aun
Ġelement s
S ON
ER T
Ġpol icy
erv ices
Ġmom ent
p ng
ur b
com ing
Ġneed ed
Ġbl ack
Ġm or
bo ard
l en
Ġinst ead
Ġsh are
Ġperson al
Ġsim ple
serv ice
UR L
Ġstand ard
Ġrec ent
G L
Ġlik ely
Ġro om
f ect
tt p
Ġbuild ing
Ġde cl
Ġl anguage
idd en
Ġiss ues
N O
Ġe mb
am a
Ġst ates
ac ed
ur ch
Ġm en
Ġbeh av
ur g
Ch ar
U M
ĠSt ud
Comm and
m em
Ġp aper
b ottom
Ġf oot
P C
} [
ref ix
semb ly
ĠA fter
li ed
Ġse curity
M et
Ġext ends
Ġcomp anies
pecial ly
form at
ore m
R A
Ġt yp
Ġw indow
F ONT
Ġent ire
7 7
d et
Ġst ep
9 5
Ġdo ing
ĠCO VID
" .
m t
Ġse par
Ġim prov
led ge
w ide
I O
Ġp rior
le vel
il es
d ated
Ġwork s
ig ger
p ol
L ength
ress ed
i ation
ĠĠĠĠĠĠĠĠ ĠĠĠĠĊ
n es
$ {
im g
i ences
sy mbol
Ġs pect
Ġev al
it ory
Ġf un
Ġtra ining
so le
ĠP e
C ON
p ly
S y
Ġr ather
Ġpartic ip
c m
Ġh om
O b
vent ion
m eta
Ġcont ribut
Ġwebs ite
ver y
ens ive
lo od
Ġget ting
Ġprodu ction
Ġal most
R eturn
Ġser ver
ate gy
Ġex c
il le
ar ter
nav bar
m enu
ĠH igh
5 00
ens ity
Ġcall back
Ġus ers
U I
Out put
Ġt w
fil ter
Ġl oss
Ġfor mer
ol ve
m m
Ġart icle
Ġd er
Ġcomp lete
Ġh ours
fo ot
Ġa ff
Ġm ind
pro ject
ro y
8 8
Ġqu ick
Ġcomm and
Ġqu ant
S pec
Ġw ent
Ġg roups
Ġinter n
Ġproduct s
ĠW ar
out put
Ġt aking
ĠFeb ruary
Ġincre ase
ef ined
ens ions
ffic ient
un it
Ġrel ated
param s
Ġm ember
Ġwho le
ca ption
P er
ĠAmeric a
P RO
Off set
ĠAf ric
Ġdev ice
Ġun ique
cd ot
Ġform at
icro soft
ĠW ork
R ep
enc ies
Ġadd itional
ob ile
ĠCent er
Ġa chiev
Ġde g
ĠH ouse
Ġv irtual
Ġw alk
ord in
p o
Ġp ers
Ġ! ==
res ponse
Ġw ar
ĠO ff
Ġfr ont
Ġdet ails
if act
Ġfor ward
T YPE
C L
a ign
ĠR ead
pro cess
C ache
Ġm argin
4 7
at ur
A cc
j ust
ĠR ed
row n
Ġse em
m ult
Ġest ab
Ġhow ever
ic ult
Ġ čĊ
struct or
Ġprovid es
L ast
Add ress
ĠS im
S o
Val id
Ġob j
ER R
am ily
Ġte ach
Cont roller
Ġiss ue
sel ves
Ġrece ived
is f
h ing
Ġeff ort
Ġaut o
du c
Ġhe art
ub e
ĠL icense
el t
or ing
Ġc ross
rem ove
Ġ[ ]
cent er
Ġcre d
Ġa verage
F irst
n umber
Ġpro te
av en
Se lect
ist ics
A ut
q l
ĠO ut
ĠThe n
4 6
Col umn
Ġo pp
Ġg rad
li er
Ġp ick
he et
Ġb ad
n um
ĠInd ia
Ġs ong
Ġman agement
up date
Ġcont act
e es
j oy
ast ic
ĉĉĉĉ ĉĉĉĉ
Ġaut om
Ġright s
4 2
c el
R em
p y
com es
Ð¾ Ð
o res
Ġt akes
ĠH is
and id
r s
Ġreturn s
o e
Ġw ords
Ġrelations hip
M ode
li ke
Ġim m
Ġw ait
c lose
c an
ĠA PI
**************** ****************
Ġr out
Ġexp lo
Ġg round
Ñ ģ
ch an
Ġbeh ind
ĠP at
u el
Ġs ym
O m
t ag
ps i
ĠG roup
al let
" ).
iz es
g l
ĠS ub
d en
h ood
Ġfunction s
AT ION
Cont ainer
ess ages
Ġrun ning
ind ing
Ġexper im
ĠPres ident
ri ef
c ap
I Z
ing ton
C A
Ġinter face
ĠCh ar
T ag
ĠRes earch
Ġann ounc
ĠB r
oci ety
au gh
ĠA cc
Ġinclud ed
l ong
ig in
ĠF rom
Ġfil es
Ġdep end
b old
)$ .
it ute
Ġqu ality
at as
List ener
in stance
Ġ ill
ĠB ro
as cript
k nown
Ġb ox
Ġp ack
Ġloc ation
ank s
ang ed
Ġinclud es
Ser ver
B ox
s pec
Ġs s
" ),
ĠL aw
Ġplay ers
eqn array
U rl
ĠD on
T op
Ġt im
ir it
Ġdistribut ion
Ġs cale
f ort
Ġg e
ĠA c
return s
200 9
S ec
u id
eps ilon
} _{\
Ġst re
ag ue
Ref er
Ġcent er
Ġcon nection
Ġ â
Ġoper ation
Ġin f
V is
us es
Ġsol ution
Ġt our
i et
Ġar ch
}} \
ĠSe e
Ġfield s
ch i
Ġa ffect
ĠO f
Ġmat ter
p ass
ra b
B C
evel op
ĠT HE
Ġcurrent ly
h a
m iss
Ġsa f
m ar
ex pected
Ġn one
Ġad min
Ġm ode
ĠBl ack
d raw
u int
Ġes pecially
P ost
Ġst op
' ).
t ool
< ?
B ack
ent ry
Ġh it
ĠM ich
lay out
6 8
air s
plic it
ĠS tr
Ġrec ogn
ĠAust ral
H O
Ġwh ite
ot al
Ġcol lection
ĠP re
Ġv iol
Ġtem per
ed ia
sq rt
++ )
ĠD em
Ġeng ine
NA ME
Ġ` `
refer ence
U P
Ġconsider ed
Ġan sw
ĠIntern ational
Ġle arning
ĠS k
Ġtra vel
I F
A fter
ĠS y
at ives
ĠT ype
Ġits elf
Ġf ire
b or
ĠH T
Up date
Ġst e
ĠGo ogle
Ġreg ard
act ers
Ġgrow th
Ġso ftware
Ġcom ing
A ccess
k it
i pl
ist ance
ĠR E
Ġqu ery
Ġcons ist
Ġa w
Ġw or
ond on
in ner
c ial
ĠD irect
Ġn ational
el se
ann ot
Ġv ert
6 7
( _
ĠH REF
Ġlead ers
b on
Ġs che
Ġbeliev e
Ġatt empt
ĠB rit
Ġde ep
W idth
Ġeffect s
i qu
m ain
Ġtreat ment
ps ilon
ĠC LASS
ther n
Ġcond ition
a el
ang er
Ġro ot
off set
ounc il
R ow
Ġwe b
al d
But ton
app ing
Ġh or
Ġare as
D o
Om ega
Ġl en
Ġin j
ach ine
^ *
Ġpos itive
Ent ry
ĠĠĠĠĠĠĠĠĠĠĠĠĠĠĠĠ ĠĠĠĠĠĠĠĠĠĠĠĠĠĠĠĠĠĠĠ
ĠL et
col umn
ĠR em
Ġf ul
Prov ider
ĠT V
Ġs ex
L et
Ġl ines
ru pt
Ġwrit ing
Ġent ry
ĠJ ust
Ġext ra
ĠH er
Ġcom ment
D et
ch o
Ġany thing
Ġnot hing
gorith m
am ent
ĠO ur
a e
i ant
g rad
Ġis n
Ġconst ant
Ġfil ter
Ġwrit ten
Ġs ens
Ġf requ
Ġex act
o om
Ġg raph
C ase
ve y
Ġevery thing
osp ital
Ġh ot
Ġoff set
M em
ul ations
ĠO b
Ġact ive
Ġfoll ows
ĠI S
C P
Ġtrans form
Ġd oc
Config uration
a res
ĠA ng
200 8
ache s
Ġappe ar
b um
Ġarg s
g n
Ġdiff icult
he nt
ĠN e
T ypes
su pport
C R
Ġs ound
Ġcor rect
ele br
ap an
Ġ< !--
Ġcomm it
on ly
T I
Ġa ud
old er
Ġf ont
ĠU K
Ġre ference
M in
i as
T arget
ĠD ay
le v
t emplate
ro om
Ġout side
P O
Ġcont ains
Ġdis e
ĠWe b
ĠF irst
ĠG od
sub section
M ax
Ġu int
t ask
D ev
sm all
Lay out
ed eral
Ġ row
Ġs creen
tt y
ĠR ef
i ber
ĉ ĠĠĠ
Ġcompon ent
ra pper
ĠS an
5 9
Ġ$ {\
F O
ĠAr ray
am s
over y
Q L
Ġpro p
ail y
Ġex ception
W rite
Ġf loat
fil es
Ġconc ern
att le
D B
ab s
Ġprof ession
Ġr andom
ĠC our
Ġb uffer
Ġst aff
Ġn ames
oc r
ol ar
T S
Ġen joy
Ġs ort
as c
Ġhe ld
ĠK ing
5 8
b ool
u ate
ĠN ow
ĠF ile
CO L
`` `
ĠE ast
: "
Ġbu y
sh ould
Pro cess
Ġs us
Ġm ot
D ec
Ġreg ister
B ig
ĠG L
Ġlevel s
Ġh ope
a a
ĠE m
Ġ ;
Ġs ense
ĠG erm
G amma
ri p
Ġfri end
Ġl iter
ĠTr ump
cript or
R I
i os
Ġcal cul
jav ascript
Util s
Ġst ore
s cri
Ġlead ing
5 7
ic a
Param eter
Ġn av
Ġf ight
v est
sh ip
text bf
r ong
K E
Ġsh all
Ġlong er
Ġide a
Ġlate st
Ġv ot
F e
ĠAs sert
ĠAss oci
Ġun it
Ġex ecut
ĠL og
a uthor
() ->
Ġeas y
Ġpolit ical
d ec
Ġqu ite
ĠRev iew
Ġre comm
f loat
] );
ag ram
cre t
sc ope
Ġ ir
C D
sh ow
Ġrem ove
Ġpop ular
m ing
Inter face
Ġhand le
ograph y
ĠDep artment
E O
Ġbu ilt
for ce
ĠTe chn
Ġcont ract
ad es
Ġe mer
r ics
Ġin c
Ġse ems
m ore
par se
ra v
Ġd ynam
Ġst ar
Ġres ources
)$ ,
un t
M y
Ġro ad
Ġreg ular
Ġre ve
b a
ter m
em p
Ġin side
Ġ ess
Ġ ensure
Ġask ed
AR T
z z
S A
em ph
Ġin flu
ĠD E
n ected
Ġfin ancial
F rame
Ġc apt
Ġus es
Ġpat tern
Ġs cal
m atch
Ġf it
^{ (
c s
c ing
Ġd raw
Ġs n
( [
ĠReturn s
ot a
Ġup on
Ġchall eng
Ġn atural
ĠS ervice
Ġs end
requ ire
ĠB ook
Ġt ag
Ġsol id
l ate
ec ute
Ġall ows
ĠP ost
Ġpred ict
ĠP ublic
R ange
Ġb re
Ġv acc
ĠC reate
Ġst ay
Ġ\ ,
ark s
Ġ{ }
Ġtry ing
ĠS w
Ġexp ression
ã ģ
v are
Ġw ays
ĠCh ina
: </
Call back
Ġbro ad
ĠRep ublic
al le
Ġdec ision
comm on
if orn
p ite
Ġs em
Ġg re
4 3
f ord
Ġreturn ed
Ġcom pl
Ġsat isf
Head er
b m
ĠS en
Ġ ~
Ġpr ice
Ġdirect ly
em pty
ĠY our
Ġcomp ared
o on
Ġprob ably
Ġchar acters
Ġwho se
u ge
Ġpub lished
4 1
util s
ĠS T
Ġcon duct
Ġsome one
Ġw ord
ĠS ome
Un it
Ġrec ently
Ġdem on
Ġstud ies
ro ot
ict ure
ĠC heck
Ġb and
Ġv eh
ol id
ell ow
Ġbe aut
Ġs ession
Ġse lected
' m
es e
Ġfor ce
W ork
Ġannounc ed
Ġde b
Ġevery one
ĠO pen
ar a
} =
st yles
Ġc am
Ġ ign
Ġplay er
Ġ* *
r an
ill ing
Ġpart y
ĠL ondon
Ġcount ries
at tern
] [
ec ution
enc ed
ct x
ĠIn c
ar p
Ġf ast
Loc ation
ĠT ime
b reak
Ġav oid
Ġc ook
Ġd igital
B o
Ġeduc ation
5 6
ĠD ec
D irect
en ing
f inal
Ġim ages
k a
Exp ression
A V
Ġanal y
Ġset s
Cont rol
UL T
Ġrele ased
In st
B l
Ġcon nect
Ġproble ms
A PI
nt ax
ir us
Ġim medi
M O
Ġp ain
S D
g ate
t ree
ĠC he
C o
m ut
ĠE nd
) =
B undle
N one
iforn ia
it ution
ĠM od
Ġmin utes
Ġso on
c y
Ġquest ions
Ġstat ement
G o
it ude
b uffer
B A
C opy
Ġme chan
Ġsur face
g est
R L
ix t
et ch
) ]
Ġre ach
ĠB en
' ve
% %
nc y
uf act
Ġcamp aign
l or
Ġmem ory
ĠA tt
Ġem pty
ĠA re
Ġdel iver
o z
ĠA ir
Ġem ail
ef t
}^ {\
vare psilon
c r
ĠO R
ĠPro gram
He ight
ro s
Ġsim ply
ul a
Ġg irl
Ġallow ed
Ġre v
P ort
Ġset ting
Mod ule
ac ing
i ers
Th read
N E
Ġto wn
c irc
. $
am l
Ġpol ice
U s
M M
Ġh on
eg raphics
Ġit ems
ĠĠĠĠĠĠĠĠĠĠĠĠĠĠĠĠ ĠĠĠĠĠ
includ egraphics
AL L
ĠCol lege
Ġf a
Ġapp ly
Ġpop ulation
he t
Ġintern ational
Ġdes cription
? âĢĿ
t oken
200 7
Ġc ause
IN T
ĠF ound
Ġ Ã
20 00
B O
Ġn ov
' ),
T ree
it ch
Ġobject s
AN D
Ġg as
pen ame
t hen
Ġnecess ary
Ġmat rix
Ġcol lect
#### ####
Ġc lean
Ġt ree
n y
Ġwe ight
ĠF in
D r
ĠEng lish
O p
Ġwant ed
ant ic
W indow
I ST
Ġd am
ĠE v
Ġr at
Ġest im
PE CT
u a
te e
ri b
Ġappro x
Ġpass ed
C an
ĠWh ile
ĠG over
Ġgo al
Ġap i
ct or
Ġpro gress
M D
Ġl ost
Ġdef ine
con f
res ource
Ġev idence
Ġcomp ar
Em pty
ĠSer ies
6 9
A A
Ġthem selves
str ict
Ġre nder
lay er
w in
Ġnot e
all s
it ect
l s
c ache
ĠDav id
ed d
ĠSt reet
ched ul
. /
ĠH ere
Ent ity
ie ce
Id ent
right arrow
d ocument
Ġdescri bed
Ġpre c
Ġbec ame
s cale
V AL
S H
pro p
Loc al
os ed
Ġde ad
. ;
Ġarg uments
P R
qu are
U B
Ġexist ing
Ġn umer
r angle
ĠE ar
Ġex cept
wo od
Ġspe ed
. }
R el
D ep
Ġoff ice
} /
Ġover ride
ĠSc ience
Ġl ed
Ġl iving
lo s
Ġchang ed
H ash
CO DE
m itted
Ġact ual
Ġfl ow
O pen
ace book
rid ay
H ttp
Ġinvest ig
Ġf avor
p are
Ġz ero
Param s
pro ve
pro of
' ll
Ġst age
Ġf lo
val ues
ĠJ apan
c os
L evel
Ġfri ends
ol ume
Ġsupport ed
S im
} ).
ĠD i
Ġin fo
M on
Ġdr ug
Ġv ict
Ġrece ive
P S
J son
Ġhe l
Ġ> =
Ġsa w
E nc
Ġpart s
O ption
D F
t ra
Ġeffect ive
un ic
ĉĉĉĉ ĉĉĉ
m as
Ġg ives
rop ri
Ġdiffer ence
Ġm id
im s
S earch
Ġl ock
Ġoper ator
Ġoff ers
Pos ition
ic o
Ġact ivity
Ġpart ners
K ind
M at
t im
Pro perties
iz ations
ĠM r
P tr
av y
Ġmult i
r ated
comm and
Ġw oman
200 6
n or
Ġknow ledge
v ec
Ġf ailed
Ġobtain ed
om b
in ated
iv il
en ge
ify ing
oc al
% ;
Ġper fect
" ));
S cript
IN E
ir th
as ons
Ġarg ument
th on
ĠB usiness
ilit ary
IG N
Ġnum bers
Ġch arg
ĠF orm
Ġet c
ĠEx ception
Ã ¡
Ġt emplate
g ment
D A
Ġs il
Ġr ound
Ġcell s
Ġthe ory
ĠO ver
Ġdemon str
Ġ ::
Ġprot ect
Ġl ives
and emic
Ġoper ations
M e
Ġplay ing
> ,
Ġph ase
Ġv ers
ang es
S O
Ġm ention
Ġequ al
Con nection
f s
p atch
7 9
Ġphys ical
cont rol
Ġexp and
d rop
Ġc andid
. ~\
lic e
ar ily
fra k
Ġs ample
ev e
Ġit er
ous ly
ust ain
Ġget s
ri al
3 00
Ġqu e
f ree
epend ency
ĠM et
Ġb al
ĠWill iam
" ))
P L
As ync
id a
ms g
Ġv s
art ifact
Ġbeg an
Ġ* )
w ner
Ġr ules
Ġne igh
ĠP ort
Ġdevelop ed
A ss
L ambda
ĠN ame
Ġcon v
od er
Oper ation
H ost
Ġleg al
AC K
in ternal
ĠB uild
ash ington
Ġf rame
Ġread ing
Ġs witch
fo o
Ġass ess
Ġpr imary
M atch
Ġn amed
ple te
t ml
5 4
d ro
Ġweek s
Ġplay ed
=" _
wh ich
ul ated
Ġhim self
ĠM at
u nder
Ser ial
F T
Ġcare er
S ession
Ġd ark
s d
5 2
Ġsh ared
Pro t
ĠCal ifornia
anc y
. \
clus ion
Ġthrough out
Ġc elebr
ĠA nt
s ign
IZ E
v ant
Ġincre asing
Ġdes igned
Ġcl in
g u
h i
Ġ rac
ra z
rou ght
Ch ange
r d
Ġh istor
b oot
P A
ult ure
s a
Im pl
Des cription
al ed
="../../../../ ../
? :
Ġn et
tr y
Hand le
Ġfe ed
D ir
Ġ" \
Ġbo ard
ĠY ear
iv acy
Ġim pl
Ġstart ing
Ġother wise
Ġacc ur
c ar
dev ice
Ġw orth
Ġres id
co pe
ĠF ig
Ġparam s
or ph
at ively
ir ing
ad ow
Ġc ard
is ions
im ately
ak ers
var phi
Ġfinal ly
ĠAn n
Ġab ility
iction ary
v ed
Ġconfig uration
Ġse ek
Ġth reat
Ġinv olved
Ġatt ribute
or ge
re ement
ex ample
Ġro ck
[ \
Ġstre ng
bold symbol
Ġm is
Ġn amespace
Set tings
set s
ge q
if ul
Ġdist ance
Ġsc en
C urrent
le ep
over line
Ġto wards
Pro ject
Ġch annel
st rap
Ġincre ased
ĠEX PECT
ĠA L
Ġle ave
Ġp adding
sk ip
b and
Ġmed ical
o oth
5 3
Ġsaf ety
Col lection
r ate
Ġgener ated
{ {
Ġse lection
Ġj o
u ed
con s
St at
9 8
D own
Ġr ule
_ ;
it able
Ġsol utions
od ed
d ebug
Ġex ists
! !
Ġfact or
Ġbehav ior
au ght
CT ION
v ille
w indow
Ġth us
D I
ock et
Ġrel ative
=" -
D ocument
b efore
om ic
OR T
em y
ĠâĢ ¦
Ġx ml
ã ĥ
id ge
Ġsu ff
Ġcho ice
ĠEx p
Ġobserv ed
Ġrespect ively
x x
7 6
ĠEurope an
ĠD ate
Ġpur ch
Ġt y
St ore
ĠCan ada
c opy
G e
c lear
Ġcult ure
5 1
M ore
} ),
ĠH el
c p
Ġwon der
ĠAN D
ast e
Ġabs ol
if est
Ġcorrespond ing
ĠU se
ĠGener al
Ġto ken
Refer ence
T im
ert ific
Ġim prove
Ġpre vent
p id
as ic
Ġpract ice
Ġmod ern
al ax
b ra
n ab
ĠM ag
t ers
Ġsc ope
Ġlarg er
s f
Ġpre tty
Ġac qu
Ġra ise
X X
Ġtrans fer
ic ate
Ġal tern
ĠF il
Ġmax imum
math frak
h ash
Ġex am
ĠC ON
Ġd irection
Ġw rong
Ġst ories
g lobal
Ġbr and
b ind
S k
Ġproject s
Ġinterest ing
ren ch
ar io
Ġopport unity
Ġf em
Ġcont ainer
ĠInst itute
1 000
Ġcon cept
ĠA ut
ĠH am
Ġp ull
ber g
Ġcustom ers
Ġs ave
Ġv ector
Ġdise ase
Ġexp ress
Ġal bum
ib ly
s plit
Ġin sp
Ġlim ited
Ġcrit ical
maz on
typ es
Ġgo es
erv e
us ion
ĠPro ject
y a
im ages
Ġre pl
Ġp lease
E M
Ġsur pr
200 5
Param eters
}, \
il ies
Ġs ources
Ġcont ain
Ġpr inc
: (
Ġmeet ing
ST R
A re
Ġc ore
4 00
h aps
m es
S ign
K e
he st
Hel per
p g
ĠS ing
ĉ Ġ
Ġh um
Ġset tings
ĠR el
Ġmov ie
ĠP aul
Ġresp ond
Ġl ack
f r
d s
n ormal
Ġpro posed
pro duct
ĠH ol
ĠInd ian
ov ers
b in
Ġtrans port
ĠB est
Ġp m
rag ment
Ġm icro
c ard
Ġwork ed
ĠP al
ĠN OT
H ome
C ore
O ur
ĠP y
ri a
R ev
ĠL a
atur day
omet ry
Ġre li
ĠD el
& \
am ing
O K
il s
Ġb all
Ġopt im
Ġn ature
Ġtemper ature
yn ch
ul ate
âĢĿ .
Ġinter view
Ġful ly
ĠR un
land s
N ames
P o
Ġline ar
C S
ĠN ote
ĠE duc
Ġtest s
Ġcour t
ur t
evelop ment
ma ke
re nder
ĠC ouncil
st ack
ĠC re
f rame
N ow
ĠF riday
ĠT ex
E l
ig en
Ø §
Ġvari able
Ġclo sed
mer cial
Ġatt ention
w s
Ġth read
ĠD an
Ġtrans ition
ĠD et
Ġund efined
Ġbook s
iver se
it ation
Ġstud ent
COL OR
class es
ĠJ ack
Ġpar se
ĠAr ch
ron ic
artifact Id
Ġqu al
ERR OR
c are
v as
Ġsequ ence
id ing
ab ilities
ĠSu per
ĠS ince
Ġus ually
h ad
re q
F ont
ĠJ ournal
t ed
ĠT witter
OR D
Ġin nov
ou l
p op
equ al
s ort
Ġf ixed
ĠS und
olog ies
S L
al ysis
f a
ĠJ ames
b order
E Q
7 2
use um
om s
Ġpl ans
I ter
Ġp air
ĠCour t
Ġj ud
8 6
z er
r or
Ġal ign
; ->
Ġst ra
os ph
Ġed ge
ĠM em
( *
f ill
I B
Ġsh ape
ĠN S
Ġs on
Ġmain tain
Ġactiv ities
rom e
Ġon es
Rec ord
Ġse c
Ġpro per
Ġsy mbol
V ari
ĠD O
) ^
Int eger
Ġd ensity
() :
Ġteam s
ick er
Ġtest ing
m ode
ĠF acebook
ĠWh ite
th at
' >
Ġbe y
ick et
ec ause
Ġany one
Ġan im
M ar
Ġsa fe
Ġdem and
Ġsc ient
Ġcompon ents
d elete
ĠM or
Ġear lier
D D
ĠM al
ĠO ther
we et
Ġbey ond
y ing
s v
Ġreport s
Ġro t
m ail
Ġt en
F alse
Ġeconom ic
Ġep is
struct ure
s end
agn ost
Ġapplic ations
Ġcl imate
is ation
s ession
Ġm ut
Ġrem ain
ĠG reen
Ġsc ience
ĠW ashington
o ch
Ġp andemic
cite p
Ġ[ '
ues day
AT A
Ġcent ral
Ġman ufact
TE ST
Ġg reen
T emplate
Ġra ce
Ġwas n
if orm
x is
ind er
B ody
Ġcall s
se cond
ac cess
D C
Ġro b
d est
ro te
Ġread y
T C
er c
h line
Ġsuccess ful
Or der
ĠTr ue
Ġlook s
st on
ol ic
Ġc ast
ad o
ra el
Ġm other
âĢ ĺ
Ġmean ing
Ġsur v
et ime
ish ing
S he
ĠS ervices
ĠM art
d ates
clud e
G E
g an
M enu
param eter
ĠB ig
ĠK e
el er
t og
Ġcon struct
rel ated
P ass
ed ef
ĠR equ
Ġapp ropri
ĠI I
Ġd atabase
end ar
ĠC all
Ġbas is
U RE
ist an
b ound
Ġf ans
Ð »
ĠF e
Ġind ependent
a uth
web kit
Ġst ri
in i
Ġpresent ed
W S
group Id
Ġa uth
( :
Ġa ward
Ġser ious
Ġs old
Ġt ouch
Ġb illion
EN D
ag o
Nav Bar
ri an
Ġ Î
ĠM ap
' ],
ĠP M
L eft
Ġan g
h y
Ġgre ater
M ult
f ocus
Ġpl ant
Ġquick ly
9 6
ol es
E v
L e
Ġd ro
Ġsub st
Ġc ache
ell ig
d at
Ġrequ ires
ĠB er
U se
ex ception
un ities
or ter
Ġsit uation
j o
k ind
a fter
Ġb ank
to String
ĠL eg
Ġsay ing
Ġprogram s
Ġent er
leg al
ĠĠĠĠĠĠĠĠĠĠĠĠĠĠĠĠ ĠĠĠĠ
ur i
ob uf
Ġg ave
M eta
est amp
Ġloc ated
Ġsl ow
ĠPh il
N et
Ġcost s
atas et
j oin
Ġf air
Ġre pe
Ġvol ume
ĠL O
25 5
Dev ice
k i
p df
Ġs cript
iz ont
by te
Ġcoll abor
{ }
ĠN O
G ET
Par ser
re es
ĠB G
du le
s pect
i able
ra ction
c at
V ert
doc s
Ġpro of
Ġstr ategy
ĠC r
In valid
hand le
Ġlink s
M ark
in y
ic ine
P H
om a
}} $
v ector
r ange
Ġthere fore
Ġess ential
Ġf ather
Ġparent s
ĠU k
Ġcap ital
anc ing
c lick
ill er
en a
oun ce
ã Ĥ
Ġm us
ens es
ĠN or
Ġhand s
Arg ument
T ool
we ight
oper ator
Ġde lete
Ġdeg ree
Ġc lick
equ als
Ġerr ors
Ġm iddle
ĠSe ction
V ector
ĠPl an
-- -
================ ================
Ġhas h
Ġtr ust
L ong
="../../../../ ../../
inter face
v m
Ġdom ain
ĠP ress
Ġw ide
Ġstr ateg
od ay
sy ch
e in
ĠM ac
Ġdisc over
D oc
ĠAfric a
Ġdef inition
200 4
Ġre place
ĠJ e
ug ins
in n
A g
ĠAustral ia
urre ncy
on a
ixt ure
d irect
ĠL ife
a o
Ġr ates
Ġsign al
P arent
Ġrem ember
Ġcho ose
Ġlaun ch
Q ue
ick s
T itle
P T
back ground
trans form
Pol icy
By tes
S l
Ġb ottom
Ġn ation
Ġspec ies
ĠR ich
ĠR ober
en v
ĠK ey
Ġc li
ĠC ap
add ress
As sert
d ot
Ġcou ple
Ġclass es
med ia
X ml
Ġp ackage
Ġpro ced
ĠW ed
ines e
ĠC am
co in
r um
D om
Ġm ount
Ġapp lied
Ġnear ly
Ġp le
Ġl o
Ġro ll
Ġcre ating
Ġhigh ly
ateg ories
re place
R ect
ck et
Ġp ush
Ġtool s
Ġimplement ation
N on
model s
Ġst orage
j ection
om as
G B
V er
ĠMich ael
ĠT op
S chema
Ġpres ident
os is
Ġdr ive
Ġturn ed
lang le
Ġim ag
mb ox
Ġhead er
por ary
F L
Ġey es
H as
ĠT able
ĠE conom
Ġ er
ing er
Ġco ordin
ĠBrit ish
d el
Ġor d
en ed
Ġin form
con nect
E rr
Ġc ounter
Ġw ild
Ġre serv
Ġfact ors
f n
h an
ld ots
at ically
Ġlarg est
> ();
Ġperform ed
z a
et ic
7 3
Ġf elt
Ġb rought
augh ter
ĠS aturday
h or
St ack
Ġorgan ization
Ġdirect or
wh ile
Ġshow ed
Ġrem ains
if ies
Ġb lood
urs day
ĠO per
Ġd ed
in ct
ĠM us
Ġfollow ed
Ġassert Equals
h over
7 4
izont al
ĠMed ia
8 5
Ġwork ers
ot imes
ĠB el
Read er
ĠS ur
Ġeas ily
Met adata
Ġprovid ing
ur ance
text it
es h
( -
SE T
C lick
Arg s
vir t
il ed
nes day
ĠTex as
l n
ĠR ob
an o
R ight
Ġpress ure
V ar
` .
f it
amp ions
Ġparticular ly
ĠP lay
Ġs al
6 3
ex port
Val ues
ult s
Ġbegin ning
ĠS um
i ance
ĠI P
n ap
Ġover all
app a
i pe
Ġredu ce
Ġl a
Ġde cre
ĠSund ay
s es
w idget
av ed
Ġansw er
ĠC ong
Ġant i
ĠUS A
Ġp refer
ĉĉ Ċ
Ġ util
ĠEng land
Ġch ance
bo olean
E C
\ "
Ġbas ic
ut f
M ember
Ġprodu ced
id en
istr ict
Ph i
Ġdeterm ine
IT Y
dis abled
g raph
ĠB i
\ %
Ġexact ly
ĠV er
Ġy ield
Ġe lem
Ġe cho
ex ports
ĠG old
ĠJ er
Ġenc ou
p ers
R ed
ri er
ĠDem ocr
W riter
Ġbe comes
Ġph one
Wh ile
ill a
call back
ap se
ĠMon day
styles heet
Ġschool s
Ġun signed
ic ated
Ġun c
s ive
De cl
ar ant
ic ies
ip al
ĠV iew
r ict
Ġsh oot
ad min
net ic
m ical
Ġcomp os
Ã Ń
Ġpres ence
it iz
ig hest
AT H
Ġprevious ly
ig er
ĠJ ul
Ġcomplet ely
rom ise
Ġtrans action
g reg
Ġequ ival
R ender
Ġn odes
ĠAssoci ation
as y
Ġcon struction
clus ive
ĠEduc ation
Ġm ilitary
ĠDirect or
L S
Ð º
Run time
Ġcom ments
Ġqu arter
on ic
p ub
Ġtr ade
Ġbut ton
ĠH all
ĠFound ation
as ure
Ġa ctions
n ote
ra ine
App lication
ĠT uesday
Ġw rote
ĠC opy
ent y
} )$
Ã ³
Ġal gorithm
Ġby te
Ġfam ilies
loy ment
Ġp ark
ĠV alue
ud get
ĠĠĠĠĠĠĠĠĠĠĠĠĠĠĠĠ ĠĠ
Ġpur pose
ĠMark et
> .
ri end
Ġre strict
Ġimmedi ately
h ouse
ĠM odel
aw s
h igh
pon ents
Ġen h
set tings
Ġs ales
ĠA v
R oot
lo ok
s ystem
Ġsp read
Ġbl ue
Ġinv olv
ĠM ath
ann ed
Ġbeaut iful
Ġsc ene
Ġ( "
est ival
ed ge
in ate
ot es
N um
F ound
Ġindividual s
C al
Ġtrad itional
pl ugin
D i
= {
Ġdev ices
ĠI d
ĠOff ice
res ents
h r
Ġuse ful
ig ration
ip eline
Ġlay er
ĠU RL
Ġst ock
Ġg iving
w ell
Ġr ank
i ate
ap y
Ġsc ore
mod al
u ple
pro file
Ġneg ative
& #
Ġemploy ees
un ch
D ebug
ĠMan agement
Ġcon vert
ĠPro f
c f
sq l
ĠĠĠĠĠĠĠĠĠĠĠĠĠĠĠĠĠĠĠĠĠĠĠĠĠĠĠĠĠĠĠĠ ĠĠĠĠĠĠĠ
Ġn or
Ġv oice
Ġfl ag
ĠL ong
ĠS am
Ġdescri be
__ __
E ng
ĠComp any
ru le
ist ribut
sh ot
C re
W E
ĠI O
eth er
ĠSt ar
ev en
i pp
ĠPol icy
Ġchar ge
Ġnov el
Ġd ou
I A
os h
ĠG lobal
ĠAng el
En abled
Ġj oin
ĠBG COLOR
Ġext ension
re al
Ġelect ric
Ġby tes
Ġh ous
Ġ} )
iv ery
Ġrec ords
8 9
Ġex hib
Ġin line
Ġwrit er
se y
g in
ĠM ethod
it ors
Ġcl oud
Ġs en
Ġ+ +
200 1
ic ons
Ġth er
OR M
ess or
b uf
The y
ĠM er
Ġ icon
Ġb us
On ly
b b
Ġsum mer
i ra
Ġhe ar
M C
sub set
ĠN etwork
Ġfil ename
atal og
Ġe arn
A pi
Ġhe ard
Ġgrow ing
6 2
ĠV is
Ġunderstand ing
Ġch ain
Ġup dated
ĠJ SON
Ġsh ift
ĠE N
Ġprofession al
J ob
ĠM usic
Ġal t
Ġj av
ĠF ore
P ub
Ġed itor
ram es
-------------------------------- --------------------------------
c ustom
Sec urity
ot ic
ä ¸
ix el
com ponent
ĠD ev
ĠC ons
field s
Ġsh ot
Ġcl ub
ĠM ost
Ġad apt
ĠEx t
Ġst ack
M ock
Def inition
Se e
st ar
f act
Ġgener ate
SS ERT
I E
Ġrepresent ation
und red
7 1
ra st
Ġvari ables
ĠB ay
su ccess
Ġb ur
et imes
Ġm sg
By te
ĠRe port
Ġman ager
ĠIn formation
Ġh ospital
Ġmov ing
Bo olean
Ġf irm
Ġp od
ĠU ser
E ach
Ġk ids
ĠT om
d i
Ġpro file
Ġre lation
ber t
Ġ( '
os ing
ern el
nab la
ĠE vent
ynch ron
R ule
Ġal though
Ġp ages
T ra
he lp
Ġl ibrary
St orage
Ġref lect
Ġprodu ce
F C
ĠU N
Ġst ars
est ed
C ustom
non umber
c oll
Ġth r
Ġdistribut ed
An y
P e
R out
Ġp en
D elete
ĠC A
Ġkn ew
h s
AC E
ĠA lex
ĠCh ild
Ġcon nected
re me
Ġpat ient
Ġw ants
boot strap
b al
ph one
Ġp oll
ĠRuss ia
ed s
Ġst eps
Su pport
em ail
AG E
S igma
$ (
Ġse cret
as er
\ !
Ġcommun ities
ĠBo ard
Ġvari ety
T rack
Ġdown load
Ġgr ant
Ġlook ed
D S
ensure math
Ġo s
Ġn uc
ĠE rror
k g
Ġe ight
Ġm ask
ĠAl so
Ġh uge
k er
Des criptor
se curity
Ġmaterial s
ir med
ĠM icrosoft
\ |
200 3
ertific ate
T e
ĠF rench
reg ister
ĠS un
; \
Ġd og
Ġf igure
6 1
ĠA mazon
d ouble
ĠR oad
ĠIs rael
Ġcont aining
ĠB ank
n ce
Ġrele vant
ĠComm it
ĠU nder
ĠA p
Ġp anel
Ġcl uster
H ere
and er
or ation
ro ad
âĢĿ ,
Ġj our
FA ULT
` ,
S cope
Ġpre m
Ġinv oke
Ġmin imum
s cription
su per
ĠT H
Ġdirect ory
ĠH ead
Ġse ven
roll ed
' d
Ġrem oved
Ġp iece
b i
Ġmor ning
/ \
Ġ( *
Ġw el
Ġsmall er
l am
ol f
ĠA R
Ġcap acity
p anel
Ġc ref
st ore
ven ue
Ġpl aces
Ñ ĥ
hold er
miss ions
ĠD evelopment
er ies
f ull
il ing
Ġb log
ele gate
Ġappropri ate
ĠAr g
ot ed
Ġ ult
ĠT re
__ (
go ing
ĠâĢ ¢
Ġh op
ĠWe ek
Ġnot ice
Ġeffort s
du ction
b ing
th m
Ġst ation
ans ion
N etwork
or ida
Field s
f ramework
Ġm ill
ĠH istory
Ġdec ided
ĠCh inese
Ġth ous
p ay
el li
HE CK
Ġ< =
Ġas pect
ĠP ub
ĠH ome
Ġal one
virt ual
Ġlead er
Ġfor ms
ĠE very
Ġtre nd
' .
Ġe lection
cl oud
ĠM A
Ġdeterm ined
ner gy
Ġgener ation
s cal
ĠC ode
Ġs ustain
im ent
item s
## #
Ġtra in
ip ment
Ġmov ed
ad er
Ġcar ry
att ribute
Ġj ournal
Ġ' /
Ġbusiness es
Ġcor re
k appa
] ]
Ġm achine
ĠG ood
an i
Ġpr im
un signed
Ġd rop
ole c
Ġsp ent
ug g
Ġequ ation
Ġestab lished
s ite
et te
Ġc ool
Ġrequire ments
Ġsm art
-> _
C ar
ĠWed nesday
Ġcan cer
ĠR ad
ĠEng ine
' ))
raint s
Ġarch itect
8 7
Ġstr ict
m id
D IR
ul let
D L
word s
M B
al ing
st ep
Ġt al
Ġbenef its
res hold
ign ment
Ġstra ight
Ġmov ement
Ġsom etimes
ĠTh ursday
oy al
ĠApp le
Ġwe ak
A uthor
Ġvis ual
os en
t n
m ock
Ġc ru
ĠT im
Ġl oop
Ġfail ure
ke ys
Ġa ware
Ġcomput er
Ġdr iver
Ġprocess es
S ION
E CT
put e
Ġf ix
Ġrel ig
k y
S U
p adding
ĠS al
Ġg un
Ġf ederal
ĠG en
Ar t
Ġsit es
ĠC are
ĠSm ith
d ots
Ġstreng th
ash ion
Ġo il
Ġh ighest
Ġor igin
Ġadv ant
prot obuf
app lication
Ġb ill
Ġchalleng es
Ġinvest ment
ent er
Ġassum e
Ġinter pre
ĠM iss
Ġappe ars
Ġd aily
ĠFr anc
ang ing
ĠF ield
lang uage
Ġcom mercial
ĠS ocial
Ġa im
Ġd u
por ate
w rit
Ġt ab
et t
Ġident ity
i ency
ĠComm ission
Ġu pper
ĠM o
Ġ eth
ab y
D raw
b es
Ġj son
} "
est s
ov es
ĠD istrict
Ġsl ight
ĠQ ue
Ġw at
Ġg old
inal ly
9 7
Time out
Ġen able
ann els
Ġm obile
Ġpart ner
ĠTechn ology
Ġcon vers
Ġcontinu ed
Ġke ys
A ME
Ġcou pl
Ġrun s
Ġun less
aut o
Ġpo or
Ġh ar
ĠSt e
Ġsignificant ly
wh ite
Ġspe ak
and a
Ġo wner
Class es
im pl
Ġ" /
Ġcent ury
Ġf ine
Ġd ream
N N
ĠHT ML
_ ->
P attern
Ġd imension
Ġsp in
Ġser ial
ĠE ven
ĠM ax
ĠC EO
d ependency
Ġcomplet ed
en um
D on
Ã ¼
ĠCon st
ĠSh ow
Ġgu id
ra ge
ic ip
ag on
ist ant
Ġs ell
Ġw ind
-- >
Ġhand ler
oc ity
Ġb irth
Ġident ified
ol ver
ĠP o
Ġrecomm end
Ġd im
h ere
A m
S end
Ġopport unities
Ġn ative
ĠV ol
Ġpart ial
Ġsp irit
Ġident ify
Ġmeas ures
Ġp an
Ġhold s
Ġf ramework
ĠPe ople
ĠT imes
R et
in sert
est er
Ġmon itor
Ġh yp
I con
Ġa head
sh ape
reed om
ĠC up
ud d
Ġty pename
P RE
Ġv ill
u it
u ps
Ġm aster
g rid
w id
Ġsk ills
riter ia
Ġcon cent
l ines
had oop
Ġintrodu ced
S ince
l ies
Ġs un
Ġad just
alle l
Ġinstance of
Ġ& =
pos es
Ġopen ing
in itial
ent ity
ĠV ir
Ġs ector
HT ML
Ġ ),
ific ations
p ool
ĠRuss ian
anc er
l as
com ment
ĠR iver
w est
ĠT O
ple x
Ġinit i
Ġm ock
ĠT ext
ĠSt art
cl es
Ġun its
ris is
Ġhappen ed
Ġl icense
ion al
8 4
ĠB ack
D T
Ġw ife
ist ent
Ġpub lish
ĠDef ault
Wh y
_ (
cre te
pect ive
ap ers
id ers
Ġs ociety
_ ,
Ġc ategory
Ġa mb
ou thern
ĠL ou
gr ade
Ġp ool
ĠCar ol
Ġmiss ing
Ġchall enge
W indows
Que ue
ĠJ ew
ĠE nt
Ĥ ¬
Ġl ang
{ -
Ġsupp ly
ĠC amp
ĠGover nment
FI LE
ect ors
ar ation
Ġm ix
ĠLe ague
Ġm essages
Ġp aid
f aces
Ġex plicit
n am
o es
app ro
foot er
BU G
I X
Ġf arm
ĠP ower
9 1
Ġd ig
Ext ension
B S
Ob j
L P
C or
ĠM ary
8 2
AR Y
", "
Ġag reement
ĠRober t
oc ation
B efore
ook s
Ġtr uth
") ]
Ġclin ical
d ict
OD O
; <
Ġh arm
Ġrad io
ed y
ĠB ase
Ġcred it
Ġprot ocol
Go ogle
ĠG ame
Test s
in line
Ġown ers
* )
ĠF unction
n el
Ġc op
& &
ĠCh urch
RO M
re y
N G
="../../ ../
ĠH and
Ġsp ot
Ġh undred
Ġ ut
ne ctions
ach ing
Ġpre p
Ġdist rict
Ġestab lish
Ed itor
ĠL ead
The se
Ġdet ail
ĠS ociety
Ġlet ter
L ock
ĠA M
Dis play
c ut
ĠU s
} -
ĠIn itial
assert Equals
cent ering
c over
her it
ĠL ink
urs or
ð Ł
Ġcon serv
D ialog
ĠTh us
Ġpower ful
st at
ĠĠĠĠĠĠĠĠĠĠĠĠĠĠĠĠ ĠĠĠĠĠĠĠĠĠ
LO G
Ġrep resents
M ENT
Ġs plit
200 2
KE Y
Ġw ave
ĠN et
ĠM ad
Ġcontin ues
Not Null
ĠAn y
15 0
equ iv
ĠD iv
ĠF ree
Ġgr and
Ġatt ributes
C I
Ġcon ver
T ags
In itial
assert Equal
Ġ{ };
oth ing
Ġfore ign
ĠEar th
ĠSec urity
Act ive
Ġob vious
at in
Ġm ission
Ġca used
Fe ature
Ġcon sole
Sy mbol
Ġdes pite
ĠH ill
hent ication
uck et
az z
~~ ~~
P P
add r
T ab
ple ments
sc ape
Ġd ied
u ated
e al
ĠUp date
ĠF igure
im inal
Ġfoot ball
Ġclaim s
Ġeconom y
F ig
W idget
ĠGe orge
M edia
S m
Ġdo or
az ine
Ġex ternal
ĠH y
Ġext rem
Ch anged
Ġexper t
Ġf ear
Ch annel
Ġs ports
ĠComm unity
ov ing
ĠS O
it ar
point s
Ġs amples
Ġh our
Ġv ote
r b
Ġin cor
ĠM a
Ġill ust
p erson
se ct
Ġview s
In it
ro t
Ġm ur
ĠT or
reg ion
Ġrespons ible
Ġext ract
ĠCol or
g ency
Ġthink ing
in ion
Ġv el
Ġset t
Style ID
pr ime
Ġv an
c i
R AN
R est
Ġmay be
ĠT our
Ġg alax
ĠPro v
N ote
Ġhapp y
Ġad vert
n ames
S um
âĢ ¢
Ġc ivil
ĠR ock
In ternal
Ġre asons
Ġex cell
c ategory
stand ing
th read
h ol
A c
ĠR et
tog gle
\ [
Ġrat io
rac y
ĠB O
it a
Ġb rowser
Ġent ity
Ġbo ost
B it
Sh ow
Result s
T A
//////////////// ////////////////
IV E
ĠA ward
Ġveh icle
ĠFl orida
W A
y an
ĠD C
ĠE qu
st one
9 4
inst all
ĠSt and
fra structure
ed it
Ġag ree
Ġcustom er
Str uct
D atabase
all ow
type of
t rack
S ome
Ġb orn
F unc
ly ph
wid et
[ :
ĠAc ad
ser ve
al id
ĠChrist ian
f ony
c md
Ġrest aur
Ġgener ally
ĠF alse
Ġide as
Ġdest roy
Ġann ual
Ġinterest ed
ant a
w rap
iqu es
Ġf ig
f ol
ĠWh y
Ġn orm
P si
a ud
Ġd ir
9 3
Ġad opt
Ġto ward
Ġbenef it
u y
25 6
Ġreg ions
The n
is ms
Ġre ached
ĠB ill
Ġf lex
ig r
m argin
. __
}} {
ag ger
Ġen abled
Ġclear ly
Ġserv e
er ry
Ġprocess ing
, -
el ess
Ġfe et
Ġlist en
ou ter
ĠS pr
ĠW il
Ġorgan izations
Ġk illed
h ome
Ġsur round
P erm
Ġart ist
ym fony
S ervices
rad ius
ĠF und
S QL
erv ed
ĠCommit tee
Ð° Ð
Ġpro ve
Ġl if
)) )
Ġm ys
J SON
m en
) -
Ġ" "
@ "
Reg ister
Ġplan ning
Ġopp os
ad s
om y
st op
it ness
ĠW ell
p at
Ġcam era
pass word
ĠO ffic
ik i
Ġfund ing
ĠP age
Ġcall ing
s b
Ġal loc
ĠIs land
ĠE ach
Ġhe avy
Ã ¤
Ġocc ur
ĠSu pport
A meric
urre d
oll ow
Ġfor ces
Select or
widet ilde
ĠCent ral
Ġg rid
Ġgo als
ĠSt at
Ġdep th
Ġfavor ite
F loat
Ġ$ {
A uth
Ġadd ing
P ool
l ife
Ġsign ed
in em
if ically
Ġh tml
S ing
Ġd ram
Ġev olution
ellig ence
R C
Ġrout e
Ġregard ing
Ġofficial s
Fil es
Ġsh owing
. '
ĠS pe
Att ributes
s creen
G S
v an
" `
Ġredu ced
Ġh idden
ĠM ake
9 2
Ġe ffic
ĠB re
Ġold er
Ġw allet
=" /
ĠE q
ĠFr ance
Ġst uff
al a
ĠS il
} ]
Ġd b
Ġrem ote
Ġbel ong
Ġjob s
ĠT wo
annot ation
Ġtri al
.... ....
ch ain
Ġis su
il ton
Ġclo s
Ġat tr
Ġopen ed
Ġra re
z one
EX T
8 3
H S
Ġabsol ute
s pe
Ab out
ĠAcc ording
Ġlead s
ĠA uthor
Ġaud ience
Ġin str
M sg
Ġgover n
A v
ĠV AL
; /
z eta
Ġ[ ];
Ġre ality
Ġepis ode
U ID
ub y
ĠN ode
Ġw est
( !
! âĢĿ
el ines
ic ago
ĠV ersion
Ġinteg er
F ull
ĠTe am
org an
ele ase
w ait
Ġleg is
an ner
"> &
ĠMin ister
. *
anc el
Ġf resh
ĠW omen
Ġcon sequ
Ġtr igger
Ġdr ink
ĠĠĠĠĠĠĠĠĠĠĠĠĠĠĠĠ ĠĠĠĠĠĠĠĠ
Ġper haps
f ound
Ġon to
F r
Ġcould n
Ġmention ed
sh ort
ev ents
que ue
s ave
n etwork
ĠAb out
Ġex port
Ġne ut
Ġdiscuss ion
im it
Ġst o
con nection
ĠĠĠĠĠĠ Ċ
Ġtri ed
l ers
Re ce
ĠC H
Ġjav ax
ĠC y
P ackage
import ant
Ġdel ay
ST AT
Ġyour self
ro ph
ru it
ĠFranc is
IN FO
L IC
ind ent
tx t
Ġcol lege
arg ument
Trans action
al loc
Ġsepar ate
i en
or ial
il ation
Ġw arm
ĠT ask
Ġoption al
og en
)) );
Ġin sert
rec ord
Fl ags
tab ular
ĠH uman
Ġcompar ison
) "
ĠIn vest
199 9
ri z
Ġin come
sc roll
Ġgu ide
Ġbig gest
not ation
Ġfrequ ency
12 3
Iter ator
Acc ount
in ations
Ġcli ents
lem ma
Ġr ise
drop down
MA X
ĠE mp
def ined
Ġresult ing
Ġm enu
F S
Ġo k
ynam ic
h ow
ĠUk raine
ec es
ĠThere fore
ĠM ult
t ip
Ġexper i
ĠG reat
ang o
Ġmajor ity
ĠCl ub
ĠDes ign
Ġhelp ed
Ġse a
ĠOn ly
s ible
8 1
print f
Ġex amples
Ġex change
ĠL ibrary
Ġd oll
Ġsur vey
Ġcomb ination
Ġcertain ly
Pro p
ential s
Ġd anger
() ));
pl ugins
Log ger
Ġinflu ence
Item s
s che
ĠSc ott
in v
M ay
Ġp y
ĠA ction
Ġf unc
j a
Ġread er
Ġcom fort
Ġtalk ing
Ġsche me
h av
ĠL ear
Ġsym met
Mem ory
c ape
D R
How ever
od ies
) ">
ĠG ets
Ġpol icies
Ġstart s
Ġke pt
at ial
sum er
Ġrequest s
IC E
C lose
Ġm agn
ri ev
Ġare n
ĠL ocal
ul k
Ġid x
Ġc at
ĠB et
b our
Ġac ad
w p
Ġcons ult
ĠM ex
ĠE lect
ĠW indows
\ {
ce an
c it
() ).
ide os
P M
Ġfin ite
Gener ic
% ,
Pro xy
ens ed
Ġb rief
c am
th rows
Con d
J ECT
Ġp icture
d ependent
Element s
ĠGerm any
ĠEn ter
ampions hip
ĠF ire
Ġsh ut
Ġj Query
Ġg one
Ġ ×
Ġcommun ication
M ain
Ġse gment
Ġpl ot
L C
ĠCong ress
Ġc itiz
Ġres olution
Ġey e
b ur
ĠUn ion
Ġ io
ge bra
m ove
Ġoffer ed
ĠS pecial
d imension
RE AD
Se cond
Ġf ill
G u
P AR
Ġprov ider
D el
ard en
ĠF amily
Ġp i
Ġsecond s
G lobal
Ġra ised
ĠThe ir
B r
Ġconf lic
Ġmat ches
TE D
se lected
ic ed
Ġequival ent
ow ers
Ġprote ction
Ex ternal
iter ator
Ġfem ale
St ep
ĠT ur
ist ing
Ġph oto
s pecial
sp ring
dom ain
maz ing
cl aim
s chema
16 0
app ly
B R
e ach
ĠTh omas
is hes
Ġhe at
M ed
Ġ( _
Par se
u ations
and ra
n umer
S IZE
fl ags
Ġb rain
Ġn g
ĠCopy right
ĠD own
) /
e ffect
ĠL ast
ate ver
Prot ocol
Ġ[ [
O ST
Ġquant um
Ġbuild er
ig an
ĠAd min
ov id
Ġpro pos
g ar
Ġw ish
ograph ic
ident ifier
form s
cri be
Ġart ists
Ġag ent
r im
het ic
1 20
Ġjour ney
ol a
Ġt it
block List
Ġra pid
ĠGr and
Ġauth ors
Ġatt ract
m aster
des c
Ġ ens
} +
it z
ĠM ur
Ġj oint
Ke ys
line ar
k in
ĠL os
n ight
Ġpr ices
Ġra w
Ġnot ed
or row
ĠB iden
ĠM useum
Ġl ic
em on
Ġf an
ĠA S
Act ivity
Ġhel ps
ab it
Ġapp oint
Ġext ended
Ġun known
Ġs ch
he el
ree k
as hed
Ġprob ability
ĠO ption
Ġst ress
Ġhy dro
ĠH ot
em ma
P od
Su pp
ck now
ĠĠĠĠĠĠĠĠĠĠĠĠĠĠĠĠ ĠĠĠĠĠĠ
ĠAfric an
ĠS ol
os itory
M T
pro perties
ĠFr ank
Ġaw ait
Aut o
ple t
ĠC ustom
ĠP ass
Ġin fe
Ġdiscuss ed
Ġf n
ĠS l
Ġin ner
Ġg ather
Ñ ı
Ġm iles
hand ler
F ail
cont in
Ġrem aining
mat rix
iss ions
âĢ ī
Ġconsist ent
Ġenvironment al
ĠJ oe
Ġunc ertain
Ġresid ents
Ġw all
pr imary
Ġbal ance
ig g
result s
++ ;
ĠM el
Ġdoc uments
U D
Ġequ ipment
Direct ory
re v
Ġhigh light
z en
ĠP ath
Ġoper ating
met adata
Ġb udget
or a
Ġachiev e
ĠE nergy
ĠÂ »
Ev ents
ĠN Y
ph er
um in
Ġcar bon
\ ]
Ġn orth
Ġcomp are
Ġleaders hip
y es
Ġfin ished
Ġe fficient
Ġw ood
ĠL in
Ġfocus ed
Con f
Ġpe ak
os es
rypt o
ad ian
on av
om orph
ER S
n one
$ )
ĠN umber
Ġvis ible
ang ular
rid ge
Ġmarket ing
In v
Ġb atter
ĠWest ern
app ed
Ġsus p
Ġnetwork s
ĠThe orem
Ġm otion
ĠP eter
pos itory
art s
ĠO h
B E
Ġpol y
Ġaltern ative
Ġtype of
B ook
up load
ĠK ore
Ġmin or
Pre vious
ĠL and
ON E
ad y
er ial
Ġbo y
() {
ĠL ake
Ġtal ent
Ġchang ing
on ym
P y
ĠP lease
rec ated
Ġlaun ched
VER SION
Pl ugin
Trans form
if fer
mon th
ĠS pec
sh ift
ĠChrist mas
Ġinv alid
ĠIO Exception
ĠPart y
Ġpl us
Ġs chedul
Ġar rest
Ġsee ing
TE X
12 8
d im
Ed it
T ABLE
Ġdr iving
Ġpro test
ĠGerm an
ok es
ĠP et
ĠS ign
Ġr ich
wide hat
Ġfind ing
Â ł
li br
est ic
Ġs ale
lo sed
ĠA ccess
all ery
[ $
ar c
as ion
Ġflo or
ĠJ un
Ġanim als
) =\
Ġdam age
P ORT
Ġn ice
ĠCh ief
Ġcon ference
ĠCon fig
Ã ¶
ĠD en
) ).
G rid
i pped
Ġpl aced
Ġar m
ĠP oint
Post ed
pro to
P ack
Ġb ed
form ance
) }\
Ġ$ .
Ġc row
Ġcomb ined
En um
Ġsupport s
ĠM ount
} =\
N e
Ġmys elf
f ire
Ġserv ed
by tes
Ġab stract
ĠS E
Ġs leep
G raph
ĠM ass
Ġoffer ing
ĠP aram
T erm
ch annel
Ġsp aces
ĠAnd roid
ĠO p
Ġup dates
ĠMed ical
Ġthan k
iv ation
ĠI r
Ġa udio
c b
Ġag reed
j ob
m aterial
ĠVir gin
Ġre q
Ġf ol
u zz
Ġtechn ical
Ġme ant
ĠI L
Load er
'] )
Pr int
Ġexper iences
O ther
G R
Ġhapp ens
Ġsm ooth
us band
Ġadmin istration
Ġcont rast
Sy ntax
Ġl abor
ĠPro cess
ass ets
ĠM ov
Ġsex ual
ĠF ood
Ġtra ffic
em porary
ĠÂ £
Ġreve aled
Ġpract ices
init ely
Ġappe ared
Des c
Ġblock s
ĠSec ret
Ġb attle
Ġman aged
param eters
S ocket
Ġpart ies
Ġdel ivery
c up
Ġmet al
Ġen v
Ġadvant age
m ask
Ġfeel ing
Ġapp end
ĠD igital
] :
S Y
W N
Ġtop ic
Ġpe ace
t mp
Ġd aughter
Ġinter action
ĠPh ys
Ġgu arant
Ġdevelop ing
Ab stract
ell ed
ĠSc iences
O UT
ĠL ee
ĠRe al
sh all
are a
ĠC D
Ġso ft
b ad
j pg
L java
bl ack
get Name
Ġw arn
Ġf ish
ĠN E
Ġd rag
ĠInd ex
Ġneigh bor
Ġsom ew
Ġd raft
bo ost
Ġex erc
Ġbound ary
) ),
Ġdet ailed
ã Ģ
Ġc risis
Ġcompet ition
Ġwe ap
Ġkn ows
ĠAl though
Ġn om
c pp
ĠT ODO
child ren
c hen
ĠM ain
}^ \
Ġd ie
f riend
Ġatt end
Stat ement
ict or
ord ers
Ġstruct ures
\ '
cont roller
t otal
ĠP RO
Ġdiffer ences
. ~
ax is
ĠB rown
onav irus
Ġ il
ĠEn vironment
ĠIm age
ĠĠĠĠĠĠĠĠĠĠĠĠĠĠĠĠ ĠĠĠĠĠĠĠĠĠĠĠĠĠ
Ġmost ly
Ġbehav i
Ġin tr
ro ke
Ġs outh
Ġdet ect
s or
l ig
Ġfund s
ï ¼
Ġst ated
Ġt rou
ed er
f ail
ut y
Ġsh ock
ĠAngel es
J ohn
ĠWh o
man ager
s en
Ġdynam ic
b rief
Ġcandid ate
ĠI T
Ġlearn ed
ell a
Ġpl ays
Ġim plements
ad ing
iz able
S equ
cd ots
let on
Ġp sych
w rapper
Ġest imate
ist ers
ĠD u
P anel
Ġtri p
X ML
Ġocc up
ch or
text width
ĠM any
aw n
Ġsu fficient
Ġstand ards
Ġmass ive
ur a
Ph one
S pe
S w
Ġmag netic
Ġis ol
Ġsen ior
W ill
att ers
ĠP erson
Ġent ertain
ĠJ ose
Ġpartners hip
Lay er
Ġm ixed
Ġw ww
ĠL ine
Ġem otion
RE S
cont ains
H R
ĠO ld
app er
ĠW ater
G r
ĠM ont
it o
) ^{
N T
et es
at o
Ġ% }
typ edef
Ġno ise
st ats
ult y
ess ions
ç ļ
Ġinvest igation
f amily
Ġf uel
id ential
ĠCont rol
w ar
ĠF urther
Ġear th
Ġtr uly
C ategory
Ġg ain
Ġp ul
UT F
F IG
Ġcover ed
ĠOr gan
Ġslight ly
at ible
H igh
Ġlaw s
Ġp hen
Ġcult ural
ĠI ll
ri age
Ġdef ense
ĠRes ource
Ġcy cle
en umer
ĠSo ftware
in f
ĠF ind
g it
ĠSe cond
çļ Ħ
ist ed
at re
Acc ording
Ġc ry
ic ol
ĠH or
am in
t ics
res et
N ULL
en ch
ĠJ ava
ĠCh icago
= (
By Id
ĠR est
ĠJ ud
G O
Ġcre ation
Ġfil ms
d eg
Po inter
F ind
ĠB ur
ĠJ o
F igure
Ġ ip
ĠRich ard
Ġf ant
Ġdep ends
Ġpo inter
}_ \
Ġwait ing
Ex pr
ĠJ im
L in
ĠD om
Ġtask s
mod ules
as is
par a
B I
Ġenc oding
Ġpro ceed
Se ction
} :
ot hes
}\ ,
l g
~ $
ĠGu ide
h idden
Ġo dd
IT E
Ġautom atically
ĠB it
f ast
oper ation
ĠE U
ĠB ecause
At tr
Ġv ision
Rem ove
li e
ĠMed icine
Ġtyp ically
Ġrecord ed
Mat rix
ac count
Ã ¢
s in
N amespace
Ġf av
Ġas ync
Ġthan ks
Head ers
Ġt er
To String
Ġthem e
ĠIn s
N odes
Ġ ur
Ġbe at
Ġset up
ĠR ights
ĠT erm
let ed
clud ed
Ġjo ined
Ġp et
=" ">
NavBar Cell
Ġexp ansion
Char acter
ĠĠĠĠĠĠĠĠĠĠĠĠĠĠĠĠĠĠĠĠĠĠĠĠĠĠĠĠĠĠĠĠ ĠĠĠĠĠĠĠĠĠĠĠĠĠĠĠĠĠĠĠĠĠĠĠĠĠĠĠĠĠĠĠĠ
ĠP C
if def
P ATH
ĠAr ts
25 0
O pt
Reg ion
M I
Ident ifier
Ġsong s
% )
od d
Ġann ounce
ĠReg ister
Ġspect rum
} |
se m
Ġm ental
Ad apter
ĠJohn son
==== ==
IN D
Ġexplo re
Ġsh ip
Ġ\ {
Ġ{ '
key word
Ġj ump
mut able
Ġt err
Ġcover age
ick ets
Ġc ars
Ġch ief
U SE
ĠN ext
H ER
Ġregister ed
( __
ak istan
ĠA I
k w
ĠL android
ĠIt s
ĠIntern et
}) \
un te
ĠSt ep
if er
Ġestim ated
6 00
sa fe
ĠL ike
ĉĉĉ Ċ
L INE
ac ific
scri be
Ġmark ets
Ġincre ases
i pping
ur ies
p ower
att ributes
ĠPol ice
k o
Ġall owing
Ġexperim ent
iven ess
Ġs quare
ir ation
v a
Ġimport ance
ĠMart in
Ġsub sequ
F ailed
Ġ ice
ag raph
Ġinteg r
Ġre ject
ic ity
Ġm ac
am m
w orld
S pace
IG HT
ir al
Â ©
m osph
Ġconf irmed
ot ing
Ġwh om
Sc roll
Ġwould n
Ġnot es
r ase
Ġmeas ured
Ġconsum er
Ġt end
Ġexcell ent
Ġdist inct
Ð ´
us hed
Ġgu y
ĠS pace
Ġsp end
Ġxml ns
un ately
Ġe ast
p refix
DE BUG
Ġsp an
Ġincre d
Ġw id
ĠL i
Ġch osen
Ġdeb ug
ĠCent re
ĠLou is
Ġc ities
Ġsec ure
ĠVal ley
or ney
Ġviol ence
os oph
ook ie
p resent
Ġhy per
Ġweek end
al i
ĠS ports
Ġwe ather
Ġmur der
IP T
Ġa mazing
at ar
Ġpre v
Ġa xis
u an
Ġpass word
Col lections
Ġle aving
Ġdec ades
Ġun ivers
%% %%
P ay
ex pr
=" @
L L
T wo
F R
Ġvacc ine
Ġloc ations
ock er
ĠĠĠĠĠĠĠĠĠĠĠĠĠĠĠĠ ĠĠĠĠĠĠĠĠĠĠ
ay lor
HT TP
Ġlist ed
ech o
Ġapplic able
tool s
A p
ĠInd ust
Ġaffect ed
pl us
Ġreserv ed
Ġm olec
Ġr g
G en
ĠS earch
ing ly
Ġbe coming
ed u
Ġret ail
g ov
P refix
j query
fil ename
Ġfour th
ĠO N
LE CT
Su ccess
ict ures
Ġb inary
Ġthous ands
Ġencou rag
S ER
J an
ĠS af
tr igger
C ap
Vari able
ĠB lock
ĠT own
Ġque ue
Ġconcern s
8 00
ĠL u
m o
rou d
Pro file
ĠC oll
Ġt un
t ical
} </
Ġadv anced
ĠW ay
Ġevent ually
b el
Ġapp arent
ili ar
enc ing
Ġst reet
Ġfor ced
Ġacc eler
Ġh ers
ĠA rab
dep th
ens us
g ence
Ġfin ish
CE SS
Ġcont roller
P ublic
ĠH ash
Ġexpl ain
pr ise
est ion
199 8
r ical
Ġst ored
p icker
Ġapprox imately
Ġw aves
Ġfam ous
Ġpre par
P U
Ġrel atively
Ġsol ar
Ġfact ory
Ġex pos
ul ner
ĠE V
Const ants
re land
S ync
Ġc tx
s witch
y e
Ġc old
Ġm ist
M icrosoft
Ġend ed
. âĢĻ
Ġcook ies
ĠU sing
ĠG l
w hen
ĠAs ia
S cale
g reen
D P
g a
ĠAd v
D ouble
Ġfl ags
Ġman age
Ġexpl ained
{ (
d x
A CT
Ġfl ight
d ist
Ġpos itions
ĠDis c
V olume
Ġgu ess
ap es
ĠC ard
a ver
lim it
Ġsk in
Ġspe ech
Ġder ived
Ġapp rec
con struct
ON G
ask et
Ġb right
Ġsize of
M ut
ĠP R
pl atform
Ġseem ed
ĠL ove
ĠE th
Ġdet ection
Ġb urn
Ġreg ul
Ġart icles
head ers
u ilt
j ar
Cl uster
Ġpl ane
S R
Ġmod ified
r ick
D est
Ġd ataset
> ::
Pro ps
Ġcal c
Ġlay out
Ġpurch ase
Ġcan cell
Ġk ill
Ġconf irm
M apping
C red
it utions
Ġs cre
Ġin frastructure
Ġvert ical
Ġf ashion
Ġsuccess fully
Ġc ash
nd ef
Ġco ach
UR I
{ {\
ĠYou ng
Ġc os
Ġth erm
Ġadv ance
a fe
e per
R ad
M ake
eng ine
à ¥
Ġ[ ],
pre c
) ->
N OT
Ġcor ner
Ġwatch ing
p an
iss ues
Ġveh icles
ro le
Ġeas ier
ĠAmeric ans
Ġtechn iques
Eng ine
h ide
Ġco e
ars ed
j unit
Ġsym pt
q quad
Ġh air
Ġver ify
ĠD uring
config uration
k ins
Ġextrem ely
Ġp ure
olid ay
Ġtre ated
V E
Ġfl at
ĠĠĠĠĠĠĠĠĠĠĠĠĠĠĠĠĠĠĠĠĠĠĠĠĠĠĠĠĠĠĠĠ ĠĠĠĠĠĠĠĠĠĠĠ
p u
ĠF ort
ĠT R
Ġdec isions
Ġinj ury
}^{ (
TR UE
Sim ple
Ġ> >
Ġcre ative
Ġhelp ing
W R
Ġm yst
ult ural
x space
Ġcar ried
j i
' ));
J ust
plic ation
ĠC ast
s ur
ĠBl ue
agnost ic
Ġdest ination
is er
ĠM ike
n il
Ġoper ators
ch er
ell er
Ġpur poses
Ġm aps
-------- ----
B est
r ine
ĠW atch
Ġm eta
s he
r ich
ĠS ource
L ook
sc r
Ġprote in
d p
ian a
Im port
id x
T race
Ġ ..
ic ians
los ure
} '
Comm on
operator name
Ġex it
fr ont
P op
ĠF OR
do i
if iers
Ġconduct ed
( {\
ĠHT TP
i ated
F LA
^ +
Ġle tt
######## ########
stru ctions
V ideo
Ġun iform
ĠP an
Ġs an
ual ity
Ġform ation
ĠA T
Ġbr ings
Ġparticip ants
ĠG ames
Ġtechn ologies
» ¿
th let
Ð ²
u ous
end or
F E
ition ally
Ġinstall ed
z ero
: \
ing u
ĠGe org
Ġ" ,
web pack
ĠPro perty
ĠJapan ese
al o
ĠE lement
Ġh usband
cit et
ï »¿
ex ists
f old
prot ected
prot ocol
Ġsh aring
Ġproced ure
un ique
Ġv ac
reate st
Ġrec over
J ava
com ponents
Ġag ency
? "
ĠInt eger
Ġch urch
ĠE p
Ġpay ment
ĠW AR
ĠĠĠ Ċ
dimension al
Ġpost ed
Ġfa ith
ach ment
Ġp refix
TI ME
ĠW ood
Gener ator
b rowser
ĠCh ris
ĠEx ecut
AL SE
Ġturn s
log ger
Ġm ale
W orld
Ġstr ings
ĠB oth
appro x
Ġded icated
Ġz one
ud den
Wh ere
ĠH aw
edd ing
Ġcon structor
Ġimprov ed
ĠO l
Ġbr anch
Ġfac ilities
Ġsign ature
fol io
Ġexp ressed
ap pe
er g
pro gress
O M
Ġprom ise
new s
Rep ository
at i
urb an
uck y
n orm
F ree
e z
Re port
um es
D uration
U ri
g over
ĠP ay
ic ing
erm an
Ġdi agn
ĠAt l
Ġdep artment
re port
Ġmet adata
Ġindic ate
Com ment
m ic
Ġvel ocity
Ġf reedom
rior ity
AD D
Ġsupport ing
pl an
Ġe c
ĠL ord
L I
O B
ĠF estival
con n
u ages
Reg istry
pro ps
Ġissu ed
st orage
pre v
T otal
ff ff
Ġche mical
" /
Ġmatch ing
10 1
du ced
B rowser
ĠM essage
li k
ĠJ ones
Ġcr iminal
Ġex ecution
ĠH en
ĠPar is
ex tern
ĠT oday
ed itor
d one
Ġ$ (\
Ġb tn
Ġobserv ations
RE G
au ge
Ġdes c
Dom ain
ĠM il
f d
M any
Ġredu ction
op ed
Ġn arr
Ġcontribut ion
ĠS QL
Ġliter ature
w atch
P lay
Ġan imal
ĠF oot
LO CK
Pro duct
ĠN on
du ce
Sh arp
Ġwin ning
libr ary
Ġl oved
her ited
. ");
A U
b its
Ġg ra
Ġbro ther
z ure
Ġ ul
Ġphot os
Ġar bit
Ġl ab
ell ar
art icle
t witter
ĠLO G
Ġd uration
ĠS ar
Ġattack s
ĠF act
sv g
sec ut
Ġl atter
Ġb ond
tab s
ĠJ on
Ġop inion
t w
& =
pos sible
Ġle aves
t ons
IN S
Ġmin im
Ġcirc um
Ġdef initely
ĠCon ference
Ġad vent
R uss
N amed
Ġv irus
Rout e
ĠRequ est
ĠInst agram
ĠJ ob
Ġmet ric
l legal
> :
Res ources
ress ive
Ġtre es
L en
Ġ ing
ĠH ospital
ĠM S
Ġg lass
Ġprep ared
ĠP op
Î ±
de cl
por ation
ĠOb ama
ĠÂ ©
Ġvers ions
ĠÂ ·
and on
S eg
ser ial
E V
D elegate
i h
Ġhistor ical
ĠT ri
Ġen um
Ġdis k
J oin
ĠĠĠĠĠĠĠĠĠĠĠĠĠĠĠĠ ĠĠĠĠĠĠĠĠĠĠĠĠ
bl ue
Ġr ing
IT ION
Ġcon ven
Ġval ign
om ial
Ñ Į
r ift
Ġd ialog
Ġas sets
Ġ Ø
C RE
ĠF re
! [
com pl
W rapper
Ġtell s
ĠL ive
Ġ' <
sh adow
}\ \
ĠZ eal
Ġhers elf
ov a
ĠF ederal
m ac
br id
Ġus age
Ġal le
Ġsy nt
ĠCol lection
ĠStud ies
ĠH ttp
Ġimplement ed
Ġadv ice
Ġpi eces
Com par
Ġcon nections
Ġp p
t ags
ĠCarol ina
the me
ĠP H
Ġcol lected
oll owing
w ater
Ġcontrol s
ĠH as
Ġtrans parent
ĠL im
Ġinter net
C F
ĠB ob
Ġpl ants
R T
Ġimpl ies
Ġstrateg ies
Ġk id
Ġint ended
Det ails
Ġexper ts
Ù Ħ
al ian
Ġindic ates
Ġsh ares
m ann
Ġ{ {
ĠJe ff
ur er
Ġ" <
Ġclass ic
Ph oto
mer ce
Ġcomm itted
Ġequ ations
Ġstat ements
ra wn
Ġcomp act
Ġocc urred
Ġresearch ers
Ġtime out
ĠA ff
Ġ ],
Ġsur g
Ġaff ord
ĠCh ange
ĠVirgin ia
Ġcitiz ens
Ġload ed
Ġwh atever
an ish
Ġinst ant
Ġaccur acy
P ER
Ġfac ility
=" ${
F ramework
Ġf illed
Ġcomp ute
p a
iss ue
Ġv ideos
Ġfore st
ĠRe act
Ġ{ "
iter al
f ly
Ġtrans formation
Ġem ph
ĠS D
Ġt ensor
ĠZeal and
ĠI reland
ĠA SSERT
ott ed
Ġgu ys
Ġpr ivacy
par ser
Ġr ul
Ġmov ies
j e
T ube
Ġhealth y
Ġhead ers
Ġcrit ic
is c
Ġde but
Ġplatform s
199 0
c ert
ĠB ow
Ġexperi enced
Ġw itness
en able
ĠC ath
Ġco ast
Ġconsider ing
Ġcandid ates
build er
t ex
Ġreport ing
ME TH
ĠSch olar
ier arch
ĠF ull
Ġa cknow
Ġsum mary
ĠP akistan
h ar
Ġhold ing
if ts
ev in
Ġexc ited
Ġv ent
Ġsubst ant
s ince
}} (
ĠS and
Ġrelationship s
Ġcontinu ous
empl ates
he m
En umer
Ġpers pective
Ġcalcul ated
ĠEx per
Ġyou th
Ġte ch
B P
Ġkeep ing
Sequ ence
det ails
Ġv ary
en abled
Ġappro aches
EN SE
in ant
ĠCan adian
Ġent ries
Ġgirl s
Ġph il
Ġpattern s
a us
ĠSu pp
Ġrepl aced
et ing
Ġstud ied
ĠK im
Ġign ore
Ġform ed
ĠW ild
T V
nap shot
Ġexperim ental
Ġend s
Ġde leg
Ġnuc lear
ĠI E
Ġf if
Ġn ut
Ġ ).
J S
ak ed
Ġman ner
ĠCl oud
Ġide al
Ã §
W atch
Ġplan et
b log
g ame
Ġch annels
Ġu i
Ġpass ion
ott en
Ġpro xy
Ġw arning
P lease
iz z
li x
ĠK en
E ST
Ġnav igation
Ġlog ger
Ġg ender
=" "
ex pect
in ity
serv ices
Ġmot or
ab ric
Ġst able
ĠEngine ering
ym met
H istory
Ġapp s
al m
Ġh aven
Em ail
Ġassert That
Ġ" -
ĠPol it
ex ecute
Y ear
ĠOn line
Ġoffic er
F in
ĠA wards
Ġ& \
Ġfore ach
Ġv e
Se lection
Ġan gle
Ġt mp
Hel p
ir ms
Ġcr ime
k t
ĠAcad emy
Ġb ird
Ġ à¤
call ed
ost on
f x
p red
igh ter
Ġtrans l
br idge
I MP
Ġdep ending
= -
medi ate
Ġp un
Sh ape
ev al
ipl es
E very
Ġsp ring
p attern
Ġaccount s
ĠAs sembly
ir ror
time out
co q
Ġmechan ism
Ġcur ve
Ġpr ison
Ġd ict
Ġtest ed
in itions
Ġsche dule
Con s
Ġn ine
d em
ĠVal id
Ġca uses
se ud
ari ant
Ġdocument ation
U ST
Ġat mosph
D ay
( @
ĠP A
ok ed
ath an
Ġext end
Ġbeg ins
Ġfe els
Ġexperim ents
o pping
METH OD
ĠW alk
ag ers
R ole
Ġg rav
r f
it age
] $
let ter
Ġk ick
es ome
l ow
ĠL ight
Ġdou bt
Ġstr ugg
Ġmed ium
Ġrepresent ed
ĠM O
U LE
â Ĥ¬
ĠSe ason
Ġre ct
Ġs ounds
Ad min
V M
j ango
New s
Ġc as
ĠS ep
n n
am ental
Ag ent
Ġse ed
Ġcapt ure
Ġeffic iency
us ers
Pass word
ĠU I
aw a
v c
M er
r andom
m i
Ġv ulner
Ġphot ograph
prov ider
Â °
Ġemer gency
cre d
ĠW all
ĠMex ico
Ġm and
AN T
ĠJust ice
', '
Ġread ers
Ġcompl iance
Ġinterpre t
if ndef
ĠL ook
Ġr ough
ĠFil m
Ġt on
Ñ ĭ
ĠI ran
Ġsuggest s
Ð ¼
ic ious
199 7
s ys
ĠAustral ian
{ $
az y
1 10
n eg
Ġcom plic
P i
Ġm al
Ġexecut ive
it ivity
Ġunder lying
Ġ( @
Ġsc roll
ĠAnd rew
Ġres olve
ĠOn ce
C am
ĠO k
ra pped
ĠDan iel
in valid
ĠChar les
ĠAN Y
Ġte lev
Ġre venue
Ġel im
Ġf aster
y er
S ymfony
Ġprior ity
w an
Ġcomp re
in et
. ",
ĠÐ ¿
ut ely
Ġpass ing
ĠV ideo
index Of
Ġte le
g ments
Ġrece iving
id ents
r at
Ġli qu
ur able
F P
err ors
Ġs port
Ġconsum ers
Ġ= ========
Ġcont ents
j Query
ten ance
ail ability
ĠW IT
l ights
ĠJ es
M OD
for ward
Ġe at
> ()
ĠP enn
VAL UE
Ġeval uation
sp irit
Ġw inter
Ġmom ents
R R
L anguage
lo op
D b
Ġexpl an
ĠPro duct
(' .
ĠCl in
ĠFor ce
Ġspec ifically
Ġinter val
n odes
gener ated
ĠR oman
ĠSen ate
Sing le
ĠN AME
ĠRepublic an
math sf
Ġin fin
ĠWilliam s
Ġor ient
Ġposs ibly
sh ared
as ync
hor izontal
Ġhom es
ig ate
RE E
N C
Ex ecut
und efined
Ġfind ings
Ġcolumn s
Ġdis abled
Ġhous ing
view s
ust ers
ĠR oyal
Ġind eed
Ġpolit ics
ĠV ictor
33 33
Ġb an
Ġadv oc
Ġsim pl
Ġg ap
Ġc ert
ex ternal
ĠOr der
Ġpl ugin
ĠPh ot
force ment
Ġexist ence
St ats
ĠL emma
def inition
ĠG a
ĠTr ust
S M
Ġk m
Ġm ort
Pro gress
Ðµ Ð½
st ein
c ceed
um s
P D
Ġden ote
Cl oud
Ġal ert
display Name
Ġselect or
ĠN ight
å ı
b urg
Ġther apy
ĠCom put
Ġeven ing
Ġfam iliar
Ġex ecute
Ġd at
ĠD ocument
Ġnumer ous
Ġconf idence
G A
ĠR am
t emp
ly wood
ĠF ROM
lo ss
Ġoffic ers
ĉĉĉĉ ĉĉĉĉĉ
Ġtyp ical
Child ren
Ġl ose
}} ,
ĠPh oto
ĠM ot
Ġt error
he mat
ist ence
Se lected
Ġt or
or iginal
Ġocc urs
ĠM D
Ġcont ained
Ġrepe ated
. <
pre ne
Ġon going
Ġacad emic
ĠI ss
ĠC red
Ġp ri
Ġfunction al
Ġsupp osed
Ġinst ances
Ġth ick
Ġscient ific
Ġinvest ors
ors hip
d ialog
k ing
Ġl ib
Ġrec overy
um my
ty pename
Ġcon vention
s id
Ġdiscover ed
ĠL uc
Ġfe e
det ail
Ġb ra
Ġus ual
P Y
F ORM
ĠIs lam
Ġhe aring
Ġdef e
ĠM en
Ġt x
ov al
ĠK ar
B egin
cl uster
Ġ( +
Ġem ission
select or
Ġcons ists
Ġrg ba
Q U
Ġc aught
Ġlim its
TEX T
Ġan imation
IN TER
Ġf re
l an
ug s
B ound
) +
à ¸
f i
Ġe q
ĠC ovid
ĠN iger
gorith ms
Ġcl im
requ ired
Ġrec ip
Ġelect ron
ĠJ ac
rodu ction
Ġappro ved
******************************** ********************************
Ġth reshold
test ing
Ġarchitect ure
Ġlink ed
End point
sh op
on al
Ġas sembly
Ġaspect s
Ġrec all
Con n
Ġp roud
199 6
N ative
Ġclo ser
w riter
agnost ics
Ġfeed back
Ġass ign
re prene
Ġaccept ed
eng er
ĠKing dom
Ġtem p
FF FF
Ġf ell
Ġsuggest ed
m oz
Ġnull ptr
Date Time
Ġm apping
Ġpar ser
Ġf at
s up
Ġcommun ic
Ġmeasure ments
Ġre nt
Ġc m
? ?
Ġm ess
Ġcontribut ions
W rit
fe ature
d y
ĠF ar
Ġcon tr
Ġhouse hold
Ġ ðŁ
Ġt ight
Ġf ra
Ġdynam ics
Ġper mission
Ġp il
ĠWh ere
Ġrequest ed
Ġbring ing
Ġcent re
Ġrad ius
Ġvert ex
re ce
S che
Americ an
Ġconvers ation
Ġm ent
ost er
Y our
user name
ion e
OR Y
AN CE
Ġsto pped
Ġenh ance
] \
as m
ĠP ut
ad ium
pro xy
Ġ' '
Ġtr uck
in ating
Sh ort
Ġf le
res ources
raz il
Ġdep art
Ġprop ag
Ġaddress es
av id
Ġb ind
ĠF uture
f ix
/ .
Ġaccur ate
option al
Ġtrans late
ĠC urrent
Ġassess ment
Ġs and
t wo
ĠC R
Ġg ar
Ġli ber
Ġfind s
our se
Ġra il
L Y
Ġproper ly
ĠW rit
Ġneighbor hood
ts d
Ġre new
Ġcre ates
Ġch air
ĠM iddle
Ġsp ending
y ou
Ġ rows
Ġan c
? >
Ġex ceed
ver ter
Ġcharg es
Ġ[ "
P air
Ġjust ice
ĠV an
Ġpost s
Ġinc ident
}} {\
Ġs we
ĠK n
ĠC ase
ear s
he ast
com plete
Ġcrow d
ĠFrancis co
AR D
Ġw a
Ġag greg
Ġm el
ab eth
g roups
ĠR ight
ian o
Ġwor se
cle an
Ġn p
I gn
Mem bers
Ġpath s
Ġord ers
ne q
Ġ( -
Ġbro ken
Ġ rom
as sembly
check ed
Ġ ];
col lection
istribut ion
ab out
ru ption
ac cept
Ġform ula
Ġconst raints
are n
; }
un s
h ab
Ġentire ly
00 1
Ġsign s
ĠM aster
Y es
Ġf ake
Ġre action
Ġpr iv
$ }
) |
Cont act
Ġemploy ee
B ind
k es
ĠG re
Ġmar ried
Ġent ered
Ġm ail
Ġregion al
Ġc le
Ġcollabor ation
p air
ĠSt ory
G C
ĠI R
{ "
Ġopt s
Ġtelev ision
fort unately
18 0
hen sive
Ġl ived
ele m
el ly
am az
U nder
Ġ@ "
Ġshoot ing
Inter val
re pe
m aven
Ġins urance
ampl ing
U sing
DE FAULT
plet ion
ĠApp lication
elli j
Ġs chema
ĠSt ream
cond ition
Be an
Ġap art
ic ian
Ġteach ing
() ))
so cket
Ġb uf
AT ED
Ġabs or
Ġeval uate
ag ent
f ixed
M ath
Ġr an
Ġs udden
ĠChild ren
ĠL ab
Ġc art
ĠT aylor
th row
lip se
Vis ible
Ġed ition
Ġrelig ious
Ġarbit r
int ellij
PO ST
n ament
ĠM ah
ĠIt aly
itution al
Ġm ach
ĠC ur
Ġac id
i at
ĠSh ould
Ġrepresent ing
ĠAg ain
enumer ate
ST ATE
ex ec
Ġ ri
Ġachiev ed
ĠPro p
Ġpartic les
Ġspec ify
Ġadd s
En ter
ĠRes ponse
ĠM id
Ġwel come
st ra
Ġhe nce
Ġteach ers
Ġc lock
Ġext ent
s n
Comp iler
Ġhot el
ĠF ac
Ġform al
ĠPr ivacy
On ce
Ġreview s
et ry
Ġfl ux
Ġinter actions
st e
ĠM ic
y cle
ĠDiv ision
v ideo
Ġs ending
Ġp itch
N ET
% .
Copy right
Ġs aved
w ill
ar ity
Ġp aint
ĠMich igan
ans as
os a
irc raft
Ġinsp ired
hel per
Ġrecomm ended
ĠArray List
Ġcor porate
h space
Ġres et
199 5
ut ch
text tt
log in
Ġt ail
W ell
ĠPro t
Ġappear ance
ĠCont ent
Ġ- \
ĠJack son
Ġis land
ĠB E
ĠA D
Ġsub mit
A li
ak a
Ġdeg rees
I LE
Ġ? >
Ġtarget s
ĠHam ilton
W ait
Ġsympt oms
b at
Ġbroad cast
Ġw ire
T ok
Ø ±
Ġrem ark
hold ers
Ġs ides
Ġs qu
st able
Ex ecution
Ġin n
Ġro les
Ġdeliver ed
rop y
} -\
Ġb its
d c
Requ ired
Ġben ch
Ġbatter y
Ġbuild ings
Ġvol unte
C lear
Id s
ul ator
Ġmark ed
Ġsubstant ial
t body
} +\
Ġvill age
En vironment
_ );
! "
Ġc md
ĠBe ach
Ġm g
ĠProf essor
ĠC ross
Ġinst itutions
um a
Ġfig ures
Ġmin ute
is a
Ġwe ar
side bar
^ ^
Ġput ting
Ġcharg ed
Ġl it
Ġun iversity
i ro
A ng
il a
ĠS at
v in
im a
ĠG irl
âĢĻ ,
rac ing
ĠRef er
ĠL y
S V
Ġs now
Ġp airs
Ġvalid ation
b ullet
âĢ ĭ
(' /
b ro
Ġtw ice
Ġpar allel
own er
B asic
Ġdrug s
w all
ĠP rem
ĠT y
Ġprom ote
{ %
Ġf raction
support ed
Ġag ents
L android
P UT
c li
ĠP acific
dis c
S ave
Ġdet ected
Text ure
Ġd iverse
S ort
ĠA P
lo or
il ly
Ġask ing
ĠIn put
M R
M ask
ï ¿
Ġf mt
- $
S cal
Ġin vent
ist ical
EE EE
Ġconflic t
Ġad ults
t c
ĠH ard
aj ax
F ixture
) }{
onym ous
Ġexpos ure
Ġcan cel
Ġrespons ibility
Ġco ff
e ah
play er
Ġauthor ities
Null able
ĠAre a
Ġsustain able
v ing
x s
L ibrary
face book
Ġinteg ration
Ġad j
ĠW in
li ament
Ġrisk s
D ictionary
Method s
âĢĻ .
ud es
ext end
Ġwill ing
ĠW at
Â ®
p ress
the orem
">< !--
Ġdi agram
ĠT ele
Ġal gebra
Ġexc iting
, '
= >
Ġ\ "
ĉ ĠĠĠĠĠ
Ġf ellow
ri eve
Ġcont rolled
Ġst ret
ĠG ar
T F
Ġgalax ies
ĠT w
Ġlist ener
test s
Ġst ores
Ġsecond ary
anc ell
Down load
T x
it is
UN D
Ġpro ps
coll apse
Ġvict ory
ĠE C
An other
object s
Ġestim ates
RE Q
Ġsu cceed
Ġdec ade
Ġinnov ation
Ġc ategories
Back ground
Ġtrans actions
ĠEd itor
Ġstrong ly
Ġal ter
r g
Ġrespons es
S I
Ð° Ð½
Ġb inding
v s
12 5
item ize
Ġauthor ity
Ä ±
ĠS up
m ond
Ġacc ident
Ġd ance
it an
omet ric
ly mp
Ġpotential ly
Ġun ion
Ġact or
ul f
sy nc
Ġteach er
Ġre tain
ation Token
run time
D iv
sp i
Ġstud io
ĠC ost
re lease
; )
check box
." ""
ĠD aily
Ġelect ronic
fl ag
b ot
VAL ID
Ġ= ======
Ġpl enty
H z
u able
Ġinstr ument
}} }
Ġgu ard
Ġse at
res olve
or al
Ġpro spect
ĠK now
ĠAr my
d iff
Ġhum ans
ĠB rad
Ġout comes
Î ¿
< !
Sum mary
Ġpartic le
ĠM P
'] ['
Ġoriginal ly
M ost
sc ious
gy pt
t ri
Ġse ctions
Ġposs ibility
comp iler
Ġthought s
Ġsc atter
Ġphen omen
Ġhon est
Ġmov es
ann a
ĠYou Tube
opt s
Ī Ĵ
D ATA
ĠTe ch
t ic
Ġinterest s
u ction
ĠB Y
ate way
i per
w er
Oper ator
Ġes cape
F ocus
Ġass igned
ext ension
d k
Ġed ges
Ġcommit tee
Ġsp atial
trans ition
spec ific
Pl an
Ġc raft
Mult i
st o
ĠSe a
S erv
ct rine
Ġdirect ed
TR Y
g i
h ref
Ġhealth care
no indent
p ull
og ram
ĠMus lim
Ġc riteria
Ġr ide
Ġb in
p et
bl ank
Ġpro port
el i
Ġp ed
' $
Ġtop ics
Ñģ ÑĤ
ĠMan ager
D IS
B B
Ġexerc ise
f g
Ġa st
ĠInst ead
g ers
s lice
ĠN eed
at uring
Ġin fl
Ġdep loy
Ġwor st
let s
Ġtrack s
on to
ĠSt atus
\ ,\
iz abeth
comm it
u ing
ĠMore over
Ġm ouse
ch anged
ers hip
Con nect
Ġs ynchron
Ġpart ition
Ġcirc le
ĠC EL
Ġac comp
hav ior
ĠW rite
ry ption
ĠBo olean
Ġ\ |
M IN
ĠC ore
Ġprovid ers
mult i
Ġdi am
apt ure
Return s
ap ore
w ild
ĠH on
iv ial
Ġc ro
ĠR o
B AR
Ġcharacter istics
al g
w arning
ĠAcc ount
v olume
Ġlabel s
v space
ub ble
ĠL o
ĠI II
Ġrestaur ant
s ample
f c
l aw
l arge
ĠDis ney
ĠF air
W ORD
Not ification
Ġseek ing
r uby
DE F
Ġindust rial
Ġconcern ed
Ġshe ll
ĠG ra
Ġnew ly
ĠX ML
(" /
Ġprom pt
Ġk it
ad or
ï¿ ½
Gener ated
os c
ĠR en
con structor
Ġl ies
Ġeffect ively
Ġcommit ment
SS L
Ġbel ief
T T
Ġy es
P ers
Ġalle ged
C oll
Ġintrodu ce
# {
Argument Exception
Ġtra ce
Ġ( [
Ġv en
AN G
Ġch unk
Ġs ql
Ġfight ing
Ġs ac
part y
p kg
Ġg reatest
Ġdanger ous
get Value
ap ed
plic ate
Ġmoment um
Ġf rag
Ġd iversity
Label s
Ġsk y
ix els
ĠL abor
Ġvalid ate
Ġmus ical
h om
Ġk ing
ĠM att
ab il
ĠExecut ive
ain ers
Ï Ħ
ĠS C
Ġbr ands
g lyph
Ġassoci ation
Inst all
f lex
Ġch art
aun ch
Ġfl u
EEEE FF
Ġint elligence
Ġcon version
su it
Fl ow
ĠS H
Ġ_ ,
Ġmeasure ment
M iss
Ġb ow
ĠB oston
on ce
ĠY es
) }$
et ary
t f
ĠN av
er ic
Ġ" $
Ġpre pare
An imation
Ġdes ired
ĠTh rough
S ur
M ouse
ĠD ar
s ome
Ġs izes
ĠM ock
Ġb aby
Ġstand ing
Ġle ague
m ouse
ĠAd am
Ġstat istics
MO DE
Ġanc ient
Ġmain ly
ĠG al
Ġhundred s
(' #
Ġsever e
Ġd ry
ok ing
Ġdec ide
Ġv eter
re nt
Al so
ass andra
S ite
St ud
Ġc e
ĠCh air
Ġb atch
ĠL A
ĠSe lect
ĠCon f
SE LECT
Ġfor get
ĠStand ard
pol icy
Ġworld wide
b orn
ĠC lient
ĠComm on
ris on
O wn
N ov
ĠSpr ing
W ho
Ġm o
Ġpl anned
lo om
pl ot
ane ous
li ance
ĠS che
Ġrefer ences
mem ory
Ġt ough
ac le
Pro gram
Ġlay ers
19 80
Ġinfe ction
k m
Ġvisit ors
te ction
che ster
ID TH
in herit
spring framework
Ġt ags
ĠV ector
n i
ĠC irc
ĠW al
Ġw aste
LO W
d ig
Ġl at
at omic
ĠBook s
evel oper
asket ball
Ġfund amental
Ġ' ';
Ġup load
out s
min us
ĠA li
Ġp ray
Ġpre gn
Ġsh op
Ġinter act
Ġenc ounter
as p
Ġstand s
nav List
ap os
$ _
ow nt
Ġchar set
; ">
sing le
in er
s ol
Ġexp ensive
all classes
Ġthe ore
y y
Ġpercent age
Ġtechn ique
| |
ĠGeorg ia
ĠJew ish
Ġin hib
Ġab ort
plement ation
"" "
Valid ation
Ġfor g
Ar ch
it i
Ġengine ering
ĠL oad
Ġcor onavirus
Ġfac ilit
Ġdef end
ĠEconom ic
h l
Ġst ick
}} _
Ġm atters
Sh ould
L ower
Con vert
ĠF our
Ġsol ve
Ġdim ensions
ĠCh ampionship
ĠR om
Ġwe alth
s ion
is ition
or igin
ĠS outhern
amaz on
fe ed
cept or
ĠSystem s
ĠJose ph
dr iver
Ġhand ling
Ġclass ical
t k
Ġinteg rated
lim its
ic ial
Ġdro pped
eg o
Fl ag
Are a
ĠDo es
exp and
k top
sign ature
Ġqu iet
Ġst orm
Ġ era
top ic
M ill
ĠCol umb
F n
Ġindic ated
mult icol
He alth
ĠB ad
on ical
Ġt ack
Ġcomput ed
ĠD ub
Ġdescri bes
math scr
In formation
ĠO S
B Y
gener ate
Ġf iction
Ġtrans lation
oun sel
an es
ĠA ud
Ġcorre lation
Ġsp ons
fact ory
c ue
Ġact s
n p
M s
Ġs ister
pro d
Ġadmin istr
Ġaccess ible
App end
SC R
STR ING
ĠE st
aps ed
Ġa id
ĠL iber
rou te
Ġclaim ed
Ġl ots
Ġmonitor ing
ib ilities
Ġde bt
dest roy
Ident ity
Ġcho ices
Su per
AR N
Ġspe aking
ĠSp anish
Ġs ync
ĠSt eve
ĠT ax
i ph
f lix
ĠS us
Ġe lev
ĠA C
ateg or
get Element
Ġf ly
Ġad ult
Ġexpl ains
Ġmill ions
d uration
ĠSc ot
ĠL td
valid ate
Ġcol ors
NavBar Font
F ragment
ĠĠĠĠĠĠĠĠĠĠĠĠĠĠĠĠ Ċ
7 00
py thon
ĠAn alysis
mer ge
Ġfil ed
t ensor
ĠF ox
ĠH om
ĠF inal
Ġe igen
' ];
Ġcont ribute
Ġorder ed
Ġscen ario
U C
it ative
CO MP
ĠN FL
Ġsn ap
end a
Ġrefer red
ĠI mp
ĠĠĠĠĠĠĠĠĠĠĠĠĠĠĠĠ ĠĠĠĠĠĠĠĠĠĠĠĠĠĠ
Ġup coming
$ /
ĠIt alian
ific ial
Ġneg ot
n ed
ĠS ets
ĠAp ache
ad el
Ġind epend
St and
St op
Ġwid ely
Ġrecogn ized
Ġanaly z
Ġc er
print ln
199 4
ĠT ool
ol t
ĠT em
L imit
ĠJ r
Ġ urban
do or
Ġb odies
ĠRes ources
Ġst im
b re
EL D
Ġre act
ĠW hether
az e
Ġdr ivers
" ],
Ġg auge
multicol umn
Ġarr ived
n ic
Ġcre w
Ġcount y
Ġadvert ising
P layer
o ices
ĠTh ree
iv ated
en ess
Ġport ion
Ġpol ar
olv ing
yn omial
var iant
ĠCap ital
ĠCont act
B IT
Sp an
vis ible
t le
ĠF inally
under line
ĠT urn
pt on
Const ant
av ailable
Ġ" ",
( .
Ġn arrow
comp ile
im ated
i y
Ġsim ulation
Ġschedul ed
ĠM u
m c
M ac
O ct
w a
Ġdom estic
E ffect
Ġ' \
gover nor
em it
ĠM ember
Ġp al
Th row
A F
Ġcomm ission
Ġres istance
B ased
Ex ample
Ġbehavi our
ĠAn other
C ALL
Un known
G ame
U V
Ġstream ing
ĠS ite
Ġbig ger
Ġrel ax
Ġdis s
ĠOption al
Ġab use
Ġrem ind
Ġm it
oc racy
dis able
ĠL anguage
are t
In tern
nes ota
ĠPr ime
Ġreturn ing
Ù ħ
ay a
ĠB ox
Ġout come
R PC
Ġre pro
gg reg
Ġt um
sl ot
Ġg lob
b les
Ġ" %
an imation
ell s
Ġper t
ate st
ĠN ick
Test Case
Ġident ifier
A I
Input Stream
con sole
Ġbeaut y
Ġin ject
Ġper man
B inary
A udio
Ġlimit ations
Ġs weet
am i
ĠR out
Ð¾Ð ²
ĠBro ok
Ġopt imal
ĠL ittle
Ġtalk s
ĠP ers
ap is
Ġabsol utely
Ġlarg ely
Ġy ards
Ġmod es
Cond ition
Ġlist ening
c raft
Ġp ictures
Ġfeature d
ĠB ang
Ġwalk ing
Ġinnov ative
Ġc ards
S creen
S ql
ĠDon ald
Ġsc ored
\ }$
ĠE r
B L
ict ed
ĠA sh
Ġpract ical
is Empty
Ġhe av
Serial izer
M ove
Ġsc ores
ord an
st ances
C LASS
unic ode
ĠT ake
ul ating
ĠA ge
Ã³ n
Ġpresent ation
osoph y
ĠAs ian
Ġ âĢĻ
Ġimprov ement
no on
uss ian
Ġra in
ĠB razil
ester day
CT YPE
O h
Ġ ^
Ġmar riage
Ġd ire
Ġcheck ed
Ġh ide
( --
t or
ĠO lymp
m ag
sim ple
ast ers
19 70
Ġcopy right
um ps
Ġac compl
Ġcap abilities
Ġag encies
el d
ĠR O
edd ed
g oto
ol y
ĠB efore
Ġe ase
A SE
or ient
LO C
ĠCon d
Ġfac ing
ĠP ack
Ġt ro
ri e
Ġass ist
ibr aries
Ġown ed
Ġdiv ision
att ice
ĠSer ver
y cl
M r
co hol
F ore
1 30
we ek
Ġdeath s
Ġg ift
. [
Bl ack
ĠCath olic
IO Exception
be an
Ù Ĩ
Ġshe l
Ġwonder ful
ĠComm and
ĠSt ore
h u
Ġm ob
ĠRem ove
s heet
Group Name
Ġsc an
Ġmin imal
Ġcamp us
z ip
Ġm outh
_ )
ĠSecret ary
Ġass istance
Con structor
v ision
comm od
Ġreg istration
Ġdeb ate
ĠT ag
Ġclos ely
L ike
Fail ure
Ġsu it
comm ons
Ġemotion al
ph ot
au g
Ġpr ime
Ġact ing
aly tics
Ġtra ined
set up
Ġincreasing ly
Ġex ports
se q
S ample
Ġc ursor
Û Į
ĠFin ancial
T Y
st ood
Ġmod ify
Ġst ake
ĠB as
sh al
ĠAb stract
Pr ivate
Ġcon n
Ġex cess
Ġm m
CH AR
ĠI llegal
es is
ow ed
Ġdoll ars
int on
ire ment
b g
=\ "
c ases
A Y
Ġrob ust
Ġimmedi ate
En v
ĠRad io
old s
Ġim possible
Ġa x
Ġar ms
down load
Ġg rew
cd n
st al
ĠStud y
assert True
Ġpers ons
t race
' }
in son
Ġsp oke
S N
Ġf ragment
Ġp ipeline
ĠEN D
Ġf aces
Ġchalleng ing
v als
b as
ĠMc C
Ġign ored
C G
Ġs pl
Ġsk ip
Ġwhere as
ph ere
G ER
D uring
ar on
Ġdevelop ers
Ġserv ing
R aw
Ġder iv
ĠL ic
Ġl es
D id
Ġr iver
Ġperform ing
P erson
ast s
ar ian
ĠF A
Ġest ate
Ġcru cial
AT CH
S pr
Ġdo ctor
12 7
Add r
p icture
r ink
Ġsurround ing
Ġem issions
Vert ex
Ġ> >>
Ġmanufact uring
Ġwin ner
Ġbound s
ĠC a
Ġcap able
ym pt
us form
numer usform
ar ia
rit ical
Dr iver
< \
ar se
Error f
Ġread only
app oint
includ ing
Ġsurpr ise
Ġinvolv ing
Ġoppos ite
h ard
ĠSt an
el a
Ġa ircraft
ĠB log
is set
Ġassum ed
NS String
Ð ¿
: `
ol ute
P res
V D
C ard
Ġdisplay ed
Ġexplan ation
ple ted
Ġv irt
element s
Ġd ust
ĠD ead
Ġprov ed
Ġs ys
Ġscient ists
uss ion
mark s
Ġto k
P at
Ġg ene
cl one
viron ments
F uture
rupt ed
Ġso il
RE D
Ġsu itable
ĠD ou
op ic
t ok
cos ystem
ĠSim ple
Ġconc ert
ĠPr int
DO CTYPE
Ġper missions
it als
Ġint ent
ĠR ay
circ le
Ġf ails
and y
Î ½
iffer ent
i ac
Ġv ast
Ġel ig
ĠH ave
Ġmer ge
Ñ ĩ
Ġt ables
ĠAdmin istration
ĠOb serv
ĠN a
Ġinput s
Ġgood s
Ġprogram me
ĠCo ast
b atch
ĠCh annel
Ġinitial ly
ĠDemocr ats
ĠIr ish
F UN
Ġfor th
US ER
Str ategy
ĠDemocr atic
Ġmag ic
Ġstre ets
Ġreason able
Ġmor ph
Ġbeliev ed
D em
ĠKore a
Ġun able
Ġcomplet ion
Ġad m
per cent
F older
ĠB al
ĠS om
Ġleg end
M apper
ĠOr iginal
ĠQue en
Ġs ad
ind u
Ġfact s
Event Listener
ĠC ru
Ġgener ic
Ġm d
Ġrot ation
I AL
Ġwrit es
ĠCon nect
3 60
Com plete
col Last
ĠCont in
Ġpublic ation
P G
æ ľ
Ġland scape
ĠE ffect
res p
ĠR a
}} _{
Ġanal og
H ub
re act
Ġexpand ed
Object s
ag ues
ĠB a
ĠE gypt
i ary
Ġman ifest
O F
Ġcoff ee
Ġhard ware
ol s
ĠR yan
ure au
am ber
Pro to
Ġrem ained
C ONT
Ġte en
Ġst ats
Sk ip
Ġc ab
ĠOffic er
Ġcalcul ate
Ġb ott
Ġas set
Ġbre ath
ĠH un
iz on
clud es
S ep
or ough
Ġfav our
equ ality
Ġsubject s
h ave
ĠL ay
U ES
' \
ĠOh io
Ġpropos al
c lo
Ġpod cast
ĠS em
act ic
ĠSt aff
H C
Ġtrans mission
rem arks
C ity
Ġliqu id
epend encies
e lect
Ġproced ures
Ġrestrict ions
ag ination
as i
ĠB ern
ak s
... </
Ġmod er
Ġscal ar
ĠH ence
Ġatt ached
Ġsus pect
al igned
> \
r ations
ĠD NA
Ġd ual
Ġrec ording
Ġ' ',
b asic
Ġe le
rad io
g on
ent ed
Ġtell ing
B atch
Ġli e
Ġmiss ed
for Each
in ator
c atch
var iable
Ġch apter
ĠD ark
Ġfrequ ently
N UM
w ing
Ġh ole
clus ions
Ġbr idge
w d
ĠUn it
ro vers
og ene
Ġarbitr ary
Ġclass ification
aw ay
Ġrecogn ition
comp are
N ormal
ĠS on
Ġfor t
Ġserv es
Ġal gorithms
col lect
read er
Ġobject ive
l at
n ative
in ch
ĠC ulture
ĠTh ose
Ġalong side
____ ____
om atic
col First
Russ ia
W arning
Ġaut hent
W ord
Ġprim arily
ĠM atch
ĠH a
Ġb ag
ĠS uch
Ġlist s
Ġs in
ĠSt ock
Ġult imately
Ġeduc ational
> )
E ven
ĠR od
199 3
Ġhappen ing
ex it
B inding
ra ise
Ġinvestig ate
ĠHen ry
Al though
ĠNor thern
amp ion
x html
ren ce
Ġcompre hensive
P ress
or ry
ĠDE FAULT
ain ts
th rough
Ġk ernel
Ġpres ents
In sert
M aterial
Ġnecess arily
Ġg iant
op ens
Ġentertain ment
qu ote
ĠV irtual
un ct
ĠSh ort
B D
Ġdist ingu
â Ħ
E P
Ġex posed
s uch
b ose
Ġvers us
Ġvot ers
Process or
S W
P resent
Ġtyp edef
ĠWAR RAN
se par
ĠOut put
Ġsub scri
Ġsim ulations
th rift
ĠL ow
Z one
ĠGu ard
Ġturn ing
Ġst yles
ĠS IZE
Ġag ric
al ty
M aster
form ed
ĠK h
eng ers
Ġl ap
ĠC ivil
Ġlang uages
semb le
Rem ote
PH P
Ġstrateg ic
ĠRec ord
Ġtem por
199 2
W allet
ĠA G
Ġthrow n
ile vel
Ġs b
AS K
put ation
Ġpl ate
op her
Rev iew
Ġh oliday
The ta
Ġweap ons
=" $
Ġreg ulations
Ġbre aking
Ġr ig
E val
Ġreg ime
cre ated
ĠH istor
Ġ" ";
load er
ĠSp ain
Const raint
Ġsc r
Ġc overs
Ġprofession als
ĉ ĠĠĠĠĠĠĠ
Ġtrend s
Ġopt ical
ic ator
ĠD B
Ġload ing
ant ed
ĠAn th
DO M
ĠSup reme
Ġd rawn
~ $\
L eg
}^{ -
Ġsubsequ ent
Ġext ensive
Ġcy ber
Ġdemonstr ated
Ġw ins
å Ī
Ġs av
Ġh abit
Ġ{ },
ĠTra vel
ä »
arg uments
ĠP ot
ew idth
l us
ĠS P
ĠF ord
qu ir
Ġher o
Res olver
Cont in
) [
ĠEd ition
Ġneigh b
Us age
Ġs elling
Ġant icip
ck s
Ġsit ting
om ent
Ġgu itar
Ġdr iven
Ġr id
Ġhas n
Ġne ither
lish er
Ġcoordin ates
Ġout er
Ġdo se
ĠD eb
Ġres on
ĠPl ace
Ġmet rics
> ;
w arn
ask a
m essages
con vert
exp ression
A xis
: [
Ġlegis lation
A ug
Ġc ouncil
Ġsupp lement
Ġmod ules
Tim er
Ġex clusive
Ġa thlet
Pl atform
ag en
ble m
Ġguid ance
ass ign
y r
ut s
Ġcircum stances
ĠMe an
Ġconstruct ed
Ġfe es
ORD ER
b c
ĠRes ults
A UT
T X
p res
Ġw ine
ĠFurther more
Ġso cket
Ġsch olar
'] );
Pe ople
Ġinteg ral
ĠE ric
ĠT enn
Con sumer
ĠAg ency
Ġp owers
n ob
Ġcr ash
ĠBro ad
s un
Ġcomp ens
HER E
Ġnumer ical
uff ers
ĠJer sey
ĠV ill
e ff
Ġw er
ct ors
Ġvert ices
Ġhistor ic
ack s
Ġs ight
ĠP ract
ly n
Lin q
ĠP os
Ġrun time
Ġsens itive
Ġne uro
ĠMay be
ĠE mer
reg on
ĠP od
d agger
Ġattempt s
h us
Ġ\ ;
Ġinf lation
ĠP ur
ro g
Ġhon or
ĠCor poration
IN ST
Ġoper ate
ĠHel p
ĠSing apore
B el
Ġconst raint
ĠF ish
Render er
j et
Ed ge
ĠStr uct
C ross
ĠTh er
Ġre b
ĠS ong
Ġre verse
Ġl osing
f ake
d atabase
foot note
ps on
f mt
R ate
Ġsl ot
m aking
ĠC hen
Ġant ib
Not Found
ĠStep hen
/ {
W est
el come
Ġext reme
ĠT er
ach er
f all
: @"
Ġsomew hat
d ark
Ġprodu cer
Ġlog ic
ino is
Ġsem i
R elease
Ġend ing
el astic
ĠAL IGN
A SSERT
Ġcon j
ck er
table block
Ġwork er
M essages
on om
Ġb are
ĠMin istry
ĠR og
ress ions
Ġr ising
ĠIm ages
D avid
L SP
Ġour selves
sh ips
ĠCount ry
ĠC ancer
Ġi Phone
not es
Î µ
Ġl ift
kw args
al ert
ri ers
Ġdec ay
B al
() ),
St ar
ĠTh ank
Ġcorrect ly
Ġacc um
ĠFoot ball
ĠH ou
ĠLear ning
/ "
ĠDes cription
con v
y o
Ġb anks
j u
E ar
o ir
AS A
ĠColor ado
Ã ¨
er os
ĠMag azine
ang ers
ĠTh read
ĠL ew
ic an
= [
Ġb ands
Ġdecl ared
ĠL com
Ġprinc ipal
a is
Ġadopt ed
Ġc atalog
Ġal ias
D rag
ĠL ind
cont ents
Ġmain tenance
C ur
Ġthe orem
ĠC lear
Ġcol on
ĠJ enn
ĠC as
m al
h ot
P OS
il k
Ġsur ve
Ġre con
ĠThe atre
ĠWil son
ĠW is
Ġocc asion
ĠG i
i ology
ĠEl izabeth
Al loc
ĠQu ery
Ġcol le
| ^
Ġ" .
t p
bur gh
ug gle
ĠĠĠĠĠĠĠĠĠĠĠĠĠĠĠĠĠĠĠĠĠĠĠĠĠĠĠĠĠĠĠĠ Ġ
el lect
b us
ĠP ri
oc aml
A nt
ĠR eb
ĠF all
Ġco al
Decl aration
tr im
Ġsub scription
Ġf asc
riz ona
Ġ$ _
ĠP en
Ġscen es
< <
direct ory
Ġso le
Ġsurg ery
Ġpay ments
sub mit
âĦ ¢
Ġobserv ation
tes y
Ġst ability
ierarch y
ile y
Gener al
u pp
act ivity
te en
ĠDav is
Ġel if
Ġpred iction
Ġencou rage
ic ide
Ġparticip ate
Ġlog ging
ra q
Ġvis ited
stand ard
T L
ra ined
Ġnew sp
ĠMin nesota
ĠAdd ress
ĠTrans port
ĠB ra
Ġemploy ment
× Ļ
ĠPart ners
G roups
L oop
"/ ></
ĠSw ed
Cont ains
Ġimp ressive
Ġge ometry
subset eq
os ity
- (
S G
Ġop acity
Ġd ress
Form s
Ġimag ine
H ave
d ays
Ġtemper atures
Ġdec or
Ex port
ym ph
em an
Valid ator
Ġstri ke
app y
" },
ext ra
ĠC C
Ġfe aturing
A E
ur ations
Ġdis able
ĠArt icle
ad ed
C ast
ell ite
ĠPr ivate
k et
int eg
Ġh un
ili pp
F i
Ġconsum ption
Ġdemonstr ate
Ġsurpr ising
Ġfound ed
Ġcop ies
ys ical
Ġvict ims
Ġpl astic
F OR
Ġcheck s
Ġ' .
ĠDe ath
St atic
An notation
V irtual
an th
ĠR on
Ġcorrespond s
atur ally
Ġcoordin ate
ĠM ajor
b et
ol is
HE AD
Us ers
ĠSaf ety
Ġre ward
Ġcompos ition
a udio
Ġn ic
get Id
Ġexplicit ly
Ġassum ption
Ġafter noon
ĠH o
V ICE
Ch rist
A K
Ġp atch
Ġp a
st ers
Ġgrow n
0000 0000
Seg ment
Ġgrant ed
Ġwor ry
ĠIm m
Ġyoung er
Ġqu ad
ivers ary
b d
sh ire
Ġh its
Ġend point
æ ĸ
iam i
lic ense
ĠS M
ĠIn nov
ĠH AL
ĠN AV
ĠC SS
Ġval uable
ĠB rian
Ġa ims
tr l
f etch
ĠUn ivers
Ġenjoy ed
ĠW ord
Ġtra il
ap h
Ġtrad ing
C enter
CON FIG
es ian
un ning
Ġop ens
ĠPy thon
Ġg ro
w ik
Ġang ular
/ _
ĠL atin
Ġanal ys
Ġtrack ing
M ich
art ers
ĠD ouble
ur ers
ĠExp ression
D ER
lic enses
Ġjud ge
Ġh ate
Ġnuc le
Ġg aming
E q
Ġ_ .
Ġpull ed
Ġ ----------------------------------------------------------------
ort s
ãĢ Ĥ
cf g
ĠEx ample
A bs
Ġdisc rim
ĠCon serv
ĠT ree
Ġab und
Ġcompet itive
Mon th
ffic ients
Ġe lections
Ġob serve
Ġs yn
Ġap ilevel
ch a
ĠK ong
oc y
H ar
u v
Trans port
Ġbeliev es
Ġil legal
Ġexpect ations
Ġreli able
Ġm ile
ĠK evin
Ġpay load
Ġ( $\
Ġtot ally
Re al
F amily
it ut
pro fit
ĠS W
Ġuncertain ty
ĠSk y
Ġdes ire
ĠB oy
ĠCred it
Ġc rypt
ĠD ise
raz y
Ġsymmet ry
Ġappro val
ĠJes us
Ġnear by
Ġinform ed
Con verter
const ant
P red
P N
i est
Ġintrodu ction
it u
Ġany where
eg as
method s
t l
Ġke eps
ĠRec ords
h pp
Ġ* ,
Î ¹
Ġt icket
Ġc rack
Ġs oul
i ot
ĠB on
H L
ep ing
H tml
class Name
A pr
ĠP DF
ĠCom ments
p od
Ġ' ''
Ġdecre ase
pro gram
Ġcont emporary
STAT US
Ġkn owing
ĠD rag
Ġp apers
Man agement
Ġwe aring
ĠRes pon
ĠM aterial
j ack
m n
ĠPub lished
Ġb id
Ġp ending
Ġeval uated
Ġpe er
pol y
not ations
Ġaware ness
Ġb es
A X
r ons
ĠB all
AT TR
ĠD am
ĠĠĠĠĠĠĠĠĠĠĠĠĠĠĠĠĠĠĠĠĠĠĠĠĠĠĠĠĠĠĠĠ ĠĠĠĠĠĠĠĠĠĠĠĠĠĠĠ
ot ions
ĠD elete
Ġbi as
_ +
ĠC at
Ġappe al
ag a
× ķ
Ġconcent ration
Ġac commod
lo be
L a
P ower
u et
ĠPl us
ri ble
ĠN ever
Ġguid elines
Ġe gg
Ġ$\ {
In ner
grad ient
Sign ature
Ġar ts
Ġnarr ative
Ġprec ision
OR K
Ġindic ating
Ġcover ing
A ST
Ġto x
INS ERT
Ġind ices
ĠR elease
Ġpoint ed
Ex ists
Ġgu ests
Ġlett ers
Ġde pos
con nected
ĠR ow
% "
Ġrep ly
ams ung
Ġf ib
Ġredu cing
Ġb old
S ame
Ġb undle
Ġin structions
Ġadv is
at ile
Ġcomm ands
Ġse es
Ġpl ain
Ġlegis l
cur sor
Ġvot ing
Ġeng agement
Ġent reprene
Ac cept
} %
Arg uments
MOD ULE
Ġput s
G ood
AT OR
po inter
Ġbo ys
Ġam plit
ĠO K
hes is
Ġd ates
ĠM ill
tr m
ĠSm all
Ġbe ar
ĠL ev
ĠAut o
Ġcommon ly
Ġdise ases
ĠC G
Ġprogram ming
cont act
Ġw heel
ĠK enn
ĠBO OST
Ġdisc overy
Ġabs ence
Ġunder stood
Ġin struction
Ġassert True
ĠJac ob
SCR IPT
Ġh ook
av el
Ġ _{
aa aa
Ġcol our
e en
ĠM iller
__ )
fl at
Ġsub mitted
Ġacc ord
ĠG row
cal endar
ĠK ent
Ġpol ynomial
s ig
O C
UM M
Ġph arm
ens itive
unic ations
ra it
Ġal ive
w orth
res ize
Ġhous es
Ġed it
Ġb ought
Ġfore cast
Ġdis appe
, âĢĻ
ann y
ear ing
Ġgu est
int eger
olog ist
S elf
Ġincred ible
ĠD id
se a
L ight
n amed
D rop
Ġste el
Ġregard less
Ġprefer red
Ġcomplex ity
high light
L IST
Ġn s
vert ical
il ib
Ġansw ers
Ġb on
Ġsit uations
t ar
ĠIN TO
ir k
ï¼ Į
ĠG iven
Ġe cosystem
Ġsign als
Ġtem porary
ĠM icro
t ies
Ġarrest ed
Sh ared
ĠBrit ain
Ġtit les
Ġapp lies
Ġcomp atible
ĠW as
Ġtherm al
l u
Ġtok ens
Ġst ages
Ġpick ed
tain ment
List en
van ia
ut ter
Ġ' %
ĠY et
tex trm
ĠE s
Ġspect ral
Ġst ood
b inding
ub s
ĠBuild ing
Ġatmosph ere
rel ative
Ob server
S ch
ĉĉ ĠĠĠ
Ġcour ses
l ap
y ard
Ġapp lying
v ol
The me
Ġen ables
Ġsim ult
ul ous
Ġto m
ĠR os
ĠAir port
Ġl augh
Ġev il
Ġclo sing
Perm ission
ik a
m k
An alysis
ĠK at
Ġst ead
Ġpass es
ip edia
Ð ·
c ers
Ġl ux
Ġwrit ers
ĠMon th
ph ia
ĠRepublic ans
ĠEx pl
Ġg rab
Ġleg acy
Ġm ine
l ot
Ġ ig
ĠT ry
Ġslow ly
Tim estamp
Ġrequire ment
atas ets
Ġre pository
CO M
Ġfl uid
O ld
Ġhor se
o ose
Ġ$ $
ub ern
Enc oding
Ġreve al
ĠT rack
T oday
Ġstreng then
R ob
C md
ff f
li a
ari os
G IN
Ġs ick
ĠRefer ence
Ġh ur
Ġbus y
Ġt ou
B en
Ġacknow led
Ġa wards
Ġm useum
Ġh ist
rt l
C ursor
Ġint ention
G EN
199 1
ĠTor onto
ĠS end
B ounds
ĠO x
st age
ĠHar ry
Ġvict im
t an
Ġcomfort able
ĠS N
Ġmat ched
ç Ķ
part s
ĠCre ates
Ġman ip
over view
o or
ĠHol lywood
sequ ence
Ġfra ud
Jan uary
o en
] ))
ĠConfig uration
ess ed
I ES
Ġfl ash
MA P
ow a
sub ject
on der
Ġopp on
Ġ| =
Ġprinc iple
fer red
Ġo cean
Ġâ Ĩ
m akers
g re
Ġgr ade
Ġco q
se ason
Ġc lip
Ġpre ced
ations hip
Ġeng age
ĠMethod s
sy l
Enumer able
Ġdepend encies
las g
adel phia
pp ers
L ear
OR TED
Ġstrong er
Ġapprox imation
> '
Ġkind s
Ġpay ing
Ġir on
Ġrapid ly
ĠSt ill
Ġen forcement
ĠReg ion
As sembly
Ġessential ly
a ire
is ode
Ġw idget
lin ewidth
Ex pected
Fe atures
H or
Ġcons ent
b ury
re ll
pl ays
l ower
v o
ĠG reg
F inally
MP L
text sc
er as
Ġaward ed
Ġreal ize
plic ations
Ġexpert ise
p in
Ġth in
ĠGr ant
Ġf estival
place ment
Ġcontinu ing
Ġrepe at
Ġs ed
Ġdepend ent
Ġpredict ed
Ġw indows
ĠRes ult
Pre v
ac ent
ĠComm un
st rip
Ġche m
Ã £
w t
âĢ¦ ]
T HE
' _
r uct
ent h
p b
lik ely
cont rib
vent ions
ĠPr ince
á ĥ
ĠPl atform
dep recated
r int
Ġmin ister
ĠA venue
ĠC art
set minus
ĠDO M
ĠPr inc
ser ies
function s
Ġsurv ival
Ġcoupl ing
du cer
ĠS i
Dis c
Ġk illing
ĠB at
Ġ$ |
Ġconsequ ences
bs ite
ane ously
Ġ} }
r ance
Ġdog s
Ġf ault
com plex
Ġbound ed
ĠEast ern
def er
ore st
Pl ace
Ġst ellar
Ġpark ing
Ġcomp ris
Ġf etch
at ibility
ĠV ari
ĠMod ern
> "
Ġr u
el le
Ġg od
Ġcommunic ations
ĠEv ents
g ood
Ġun iverse
chedul er
ĠD og
Ġcon clusion
d rag
Ġo x
ĠO regon
Nav igation
com pute
Up dated
y ers
Ġr ural
Ġrad iation
col on
Ġcl usters
ĠR ose
Ġm arg
Ġpro min
Refer ences
ĠT reat
Ġdistribut ions
Ġin duced
D ependency
m ay
Ġsub set
C HECK
B ER
Ġst ations
be ing
ĠBuild er
Ġgener ator
Ext ensions
as hes
Ġimpl ied
Ġsent ence
p aper
r in
Ġfound er
Ġreal ized
Ġwebs ites
W IN
Ġprinc iples
us al
Ġexecut ed
Set ting
ĠSum mer
t ouch
AS H
ĠM ust
C B
g ression
Ġn ob
Err ors
Ġe lected
Ġcur ves
r ices
ĠO pt
ĠÐ ²
R ows
Ġacqu ired
ĠM E
ĠCon text
DE X
p ages
**** **
c urrency
b led
Ġrecogn ize
LIC ENSE
p rom
Ġn an
Ġv it
Ġen vironments
getElement ById
if i
sw arm
ĠStud ents
pen se
Ġdis appoint
C ounter
Ġsupp lied
Ġw alls
ĠI V
Ver ify
Ġdiv ided
d on
wild fly
Ġem it
Ġde leted
Ġcont rovers
V AR
Met rics
Ġhyp othes
h our
T ile
P romise
ph an
ID E
is ely
Ġb ike
se x
ĠT al
iz ers
Ġamount s
w iki
ĠCh all
alax y
ĠSim ilar
ĠF O
Ġh ack
FI ELD
in ar
he im
it led
f p
t ail
Cont ents
B us
Ġreplace ment
Ġearn ed
Ġ` ``
R andom
ĠSm art
Con sole
in x
Ù Ī
Ġun expected
Ġd elta
trans action
z y
ss l
ĠS ir
to Be
w hat
Ġc ov
eli hood
Ġm ath
Sh are
L IN
Ġlow est
Ġint ensity
Ġmechan isms
ĠG rad
LA Y
nt il
ĠH ong
Ġc ertificate
ĠL E
Ġmagn itude
Ġimprov ing
Ġh all
Ġprof it
A ust
Ġvari ation
ab c
Ġtri als
Ġaff ili
_ *
Ġve get
arg o
re lation
ĠNAV BAR
Ġmeet ings
Ġdraw ing
ob by
Ġmag azine
osp itals
ĠHe art
Ġs le
igen ous
out ube
ĠSen ior
Ġvis ibility
Ġsatisf ies
Ġhy brid
W I
Ġsing er
ĠS ound
enc ode
Ġd a
ri um
Ġkn ock
or i
Ġs essions
op lus
Ġall Classes
the w
Ġmount ain
ĠT alk
ĠL LC
vis or
Ġorgan ized
ious ly
Point s
Array List
Pub lished
Ġr um
ownt own
ĠBy te
Ġarr ang
ĠB ell
att ed
Ġmed icine
Ġinj uries
Ġf ruit
ĠD ream
Ġ' ./
com put
h ang
Ġrece iver
p end
_{ -
ĠH ost
Ġloc ally
oid s
Ġal leg
, $
SO UR
Ġins ights
rypt ed
Ġen umer
ak i
ik es
Ġt ickets
1 12
R ules
Ġwat ched
F N
ĠallClasses Link
Ġhead s
Ġde als
omet imes
Ġapparent ly
Ġinter ior
ug gest
on na
r ating
Ġoptim ization
10 5
Ġre in
Ġcon crete
at ivity
( /
ĠE ll
Ġsk ill
all as
ex amples
c ounter
Ġcomb at
_{ {\
å ®
ĠNet flix
l ined
Ġca using
im ize
H is
Ġinvolv es
sub figure
E st
Ġincor por
Ðµ ÑĢ
ĠGold en
et ies
Ġv ital
patch er
Ġb ug
14 0
Ġp seud
Ġin equality
PRO JECT
riev ed
Ġfin ance
AV E
ĠP S
ĠP rom
log o
ĠI ter
rag ma
ĠA rizona
Vis ual
Run ner
Ġiniti ative
r pc
ĠIll inois
ĠJ osh
Ġstr ange
Ġact ors
Ġv oc
Ġb acter
ĠT en
pon ential
Ġrespect ive
0000 00
EN TRY
c us
H older
Ġf old
ĠP red
Un ited
Ġtrou ble
th ere
ĠDes pite
p ad
g s
u ce
Ġal pha
Ġc odes
ĠL L
Ġs outhern
F eb
Ġin clusion
r ig
Ġp ref
Ġf older
i ors
ĠR h
UE ST
Ġf irms
br and
ĠPar se
at rix
Option al
Ġn am
Ġw arr
Ġprof essor
repe at
D M
ĠIndust ry
ener gy
ĠA k
(" %
O k
å ħ
unk nown
Ġy esterday
.* ;
Ġprov ision
syl vania
Ġv ess
count ry
j d
Ġb ath
nav igation
ĠHot el
Ġinitial ize
Ġj oy
Ser ies
Ġgalax y
Ġowners hip
Ġal cohol
ul i
\ }
Ġcomp iler
ĠN ative
ĠI raq
Ã ±
ĠCl imate
ĠEnvironment al
Ġar my
Di agnostics
ma pping
^{ -\
S pecial
i ations
ĠS elf
Ġinv ariant
Ġreli ef
Ġobvious ly
Ġto ler
Ġyield s
Ä ģ
ĠE ver
IL ITY
gh an
au x
ĠJ ordan
Av ailable
run ner
~~~~ ~~~~
P ut
z o
v y
b lob
end ment
L ib
l ab
em bed
TI ES
p ot
ch art
IL L
ĠT am
Ġtim estamp
ĠG reek
B ottom
Z ero
B ad
10 2
ĠStud ent
We ight
ic ode
xy gen
ĠTh ings
Ġperform ances
Ġprov en
ĠI C
Ġvari ant
ce ived
ĠL oc
OP T
D ATE
e a
ĠC ell
Ġreve als
ock ey
ars ing
Ġhelp ful
ĠD est
Ġshould n
ĠAct ive
he alth
Ġrepresent ative
BU IL
Ġar c
ĠMem bers
ex ecut
ri ends
RA Y
Ġs lo
Ġsing ular
Ġb ulk
ĠSc ient
Ġemph as
iv als
ĠC S
am ps
E Y
Ġch at
rem ote
Ġconvert ed
Ø ¯
Ġpack et
Ġt d
} ",
A ggreg
Ġcomput ing
off s
urre nce
ial s
Ġa ver
Ġf ired
Ġacc used
Ġt iny
Ġacqu isition
op es
Draw ing
B ool
ession al
Ġins ight
ĠWork ing
Ġr ational
r ank
re pository
Ġcalc ulation
FF ER
ĠV en
Ġdel ight
TH ER
Ġfac ulty
Ġent ities
Ġcoe fficients
cer ning
ĠPr ice
ĠC ook
Ġequ ity
Ġing red
ĠCon vert
G rad
Ġpro files
work s
Ġhop es
Ġsh ots
B M
Ġb at
198 9
Ġphys ics
Ġan chor
[] {
Support ed
ĠS anta
" ].
Ï ĥ
ĠL evel
Ġbo at
Ġcut ting
U K
Ġprocess ed
ĠSt ation
r ules
Log in
Ġdepend ence
str ings
Ġro ots
Ġv ice
se lection
UB LIC
ĠC ro
Ġprodu cing
Ġrev olution
... )
on omy
Ġf abric
ĠW IDTH
Ġ' "
UN T
re po
() </
m ass
å Ĳ
Ġmonth ly
Rel ated
Ġhor ror
Ġtheore tical
Ġstat istical
Ġp ic
Ġre ly
Ġtrad ition
Ġ ion
Stand ard
Ġmark s
Ġcapt ured
) ",
Ġ$ [
Ġtr ick
Ġdef ines
Ġrestaur ants
p ur
Column s
ĠE nc
u h
Ġbuy ing
Ġsatisf y
Ġp it
nd rome
sp acing
ĠTr ade
AR G
Det ail
ĠD A
Ġepis odes
ubern etes
w edge
Ġfew er
cre ment
Ġlik es
Ġp arsed
Ġeng aged
C ent
b p
11 1
G erm
Ġemer ging
Ġc rypto
ĠR ail
Ġres olved
T w
ĠSar ah
Ġb le
ĠIn v
Ġcelebr ate
CO MM
Ġbl ank
Ġdram a
u ating
j ax
Ġread s
ĠDi ego
Ġman aging
ĠGover nor
Ġmembers hip
agon al
= %
ĠEconom ics
Ġcomput ation
ĠMarket ing
Ġdeleg ate
ĠM oon
Ġregular ly
T ry
Ġperfect ly
Ġ uri
Ġrelig ion
Ch ain
olv es
es see
ĠT arget
ĠV iet
ak h
Ġbe ach
Ġcomp lement
column s
Ġl y
M c
Ġass ault
Dep th
ne ys
Ġinstall ation
Ġstret ch
l ive
Ġstr uggle
Ġrele ases
u uid
Ġpop ulations
Output Stream
T AG
Ġbe am
ĠNiger ia
ill iant
s r
ĠÐ ½
asc ular
ce st
b id
Ġor ig
create Element
Ġgrad ient
log ging
Ġexpress ions
ch arge
RE CT
S napshot
b est
ĠPerson al
Ġper mit
Ġ( âĢľ
ob e
) {\
Ġy ellow
get Instance
Ġref resh
b ell
Ġt aste
ĠÐ ¸
Re ason
Ġst one
Ġdisc ipl
m ount
En able
ĠP romise
d irection
B order
Ġd st
Ġexhib ition
Ġs oci
row se
Ġport folio
s ure
ar ma
N orth
ĠHou ston
ĠFin ance
ĠL ie
F ac
Ġde cent
s is
Ġdiagn osis
Ġwalk ed
Ġt aught
em ony
her ent
Ġn a
Ġre form
Ġfound ation
ign ore
ĠO nt
C ancel
Ġroom s
head ing
ĠAnn ual
Ġmass es
ĠReview s
Ġg arden
Ġiter ator
c ancel
ether lands
erv es
ifest yle
Ġpur su
ĠG ro
ĠH ay
requ ency
ust ed
S plit
pre vious
ĠM iami
ĠDe ep
Ġnot ification
Part ition
Ġemploy ed
Ġcent ers
load ing
are st
F inal
Ġlo an
can vas
Ġbeh alf
ĠWARRAN TIES
urs ing
inter pre
Ġcomplic ated
omorph ism
S outh
Serial ization
Ġover flow
ĠTra ining
Ġf s
Ġrecommend ations
ab ling
ellect ual
ĠB ru
ĠS ant
Ġany way
F ALSE
Ġ} \
ĠY O
B et
ank a
9 00
Ġfriend ly
Task s
Ġl attice
ĠCom ment
get Type
EN ABLE
or er
Ġvacc ines
ĠVAL UES
Or iginal
t re
NO DE
Ġmolec ular
* {
Ġtarget ed
Ġf lood
UMM ARY
ĠCh apter
RE SS
Ġdiffer ential
ĠIn ternal
et ition
Ġfair ly
Ġsw im
mem bers
I ME
Ġcut s
Ġtax es
an alysis
ĠW ars
10 24
Ġfall s
Ġcont est
Ġsurpr ised
Ġs ensor
Ġident ical
oc he
Ġperiod s
N Y
ter y
roll ing
ex per
ĠA mb
Ġfall ing
ct ic
ĠT ai
Ġwe ights
Ġloss es
Ġoppos ition
\ _
Ã£ o
ĠR oom
anch or
H D
ĠJ son
Ġgover ning
( ()
Ġfr ust
Ġ" '
v ia
as ma
Ġbo ot
d st
Ġserious ly
Ġf inger
or ous
ĠA h
ĠN ation
ens ing
ĠS ize
Ġquant ity
M F
66 66
Ġadvent ure
room s
s pl
valid ation
/ ">
ĠCons ider
de ep
T uple
Ġcook ie
LE TE
Ġinj ured
ĠSh er
ĠFore st
Ġconsider ation
FLA G
Ġdis miss
qu ality
L D
IM IT
Ġc ached
ĠĠĠĠĠĠĠĠĠĠĠĠĠĠĠĠĠĠĠĠĠĠĠĠĠĠĠĠĠĠĠĠ ĠĠ
) _
link s
R a
d ers
ĠD im
Ġwest ern
in ject
Ġsepar ated
ixt ures
_{ (
ribut ed
Ġneut ral
Ï ģ
Ġmach ines
Ġdis order
h istory
ic ular
load ed
M ag
on ia
ĠPro tection
Ġcheck ing
p ed
Ġ\ (
Ġdestroy ed
g ems
Ign ore
ĠPro position
end ers
ĠJ am
Ġvot es
con cat
Â ·
Ġh int
cons in
âĢ¦ .
Ġab andon
Ġclass Name
ĠD oc
Ġse asons
19 60
uck s
it ure
sort Value
Ġatt orney
Ġshe et
Ġregul atory
B ro
ĠV ice
glyph icon
Ġsequ ences
az a
ĠIm port
Ġ- =
AC H
if ting
Ġnor thern
: #
Ġresult ed
Ġdiscuss ions
ĠYear s
Ġfif th
Ġfac ed
Ġill ness
Ġpro jection
: '
Ġcount s
ĠP sych
Ġbro ke
Ġscal ing
C ertificate
ĠC apt
^ -
ĠPh ilipp
ash board
Ġcirc uit
ul um
N ational
â ĸ
sc ss
i op
Ġdeal ing
Ġav ailability
c assandra
(" #
Ġd ies
ĠB uffer
ater al
del ay
em ia
item pty
Ġelig ible
="../../../../../../ ../
ĠS quare
ĠScot land
ĠC lick
ĉ čĊ
Ġlist ing
Ġ Ñģ
Ġtransport ation
s ale
Ġgot o
ail ing
Ġs oc
Ġj s
Ġut ility
ol ly
ver ify
al ias
[ (
Ġcollect ive
ĠL ag
ĠG allery
Ġliter al
re ason
ĠH E
ĠĠĠĠ čĊ
tim estamp
annot ations
Ġfunction ality
Res et
ĠPh arm
S witch
ĠSer ial
ĠEnter tainment
IC ATION
Ġfil ters
h ook
Ġh urt
enc oding
Ad v
enn is
Ġag es
cont ainers
Ġc b
Ġf urn
Ġgovern ments
Ġtr im
cp u
Ġv m
Ġch a
ass oci
ĠU lt
Ġconst ants
et al
refer red
P ad
Ġb ul
s at
om itempty
/* !
Ġhost s
Ġp ace
Ġdeep ly
Ġgen etic
Ġfarm ers
Ġelect ro
us r
Ġguarant ee
Ġm igr
ĠZ end
Ġscal es
ĠB and
Ġent hus
Ø ª
\! \!
Ġperman ent
Ġp in
un a
Ġh at
Sub ject
ĠS ri
ĠT ok
ĠG O
ĠM L
Ġinterpret ation
ou red
Ġwhen ever
IE W
ĠTh om
L icense
Ġp ushed
Ġs ampling
Y Y
ri ent
ch anges
ĠM oh
Ġannounce ment
Ġb ars
US A
Ġgo ogle
re tt
ey ond
us et
Ġsum mar
Ġimprov ements
Ġsh opping
Ġgr ass
ph rase
at io
Ġcl one
Ġcare fully
Ġun us
Ġbas eline
â ĪĴ
Ġr ating
ĠMount ain
D irection
ĠS A
Ġfun ny
ĠPhil adelphia
ĠO P
Ġd uty
Ġweek ly
L ite
ĠU RI
Ġterm inal
ĠPh D
Aut hentication
Ġbas ically
ĠVer ify
Ġinter vention
ĠInt eg
UR N
and o
m ad
Ġorgan ic
Ġtw enty
pt ic
Ġsub sid
Ġuser name
ĠU til
ĠH u
St ub
w alk
p n
str iction
10 4
H er
Cont ract
M arch
d am
Ġ' _
Ġdef ic
, .
act ual
Ġup grade
ogn itive
K it
ĠUS D
ĠM obile
ĠS n
ĠS aint
ĠP aper
Ġfr anch
oc a
Ġinfin ite
ĠIt em
me an
Ġ< -
Sec ret
HO UT
We ek
Ġpack ages
Per iod
Ġnot iced
s ym
f b
ĠHand le
ĠColumb ia
Ð° ÑĤ
Ġcoll apse
ĠAnd erson
Ġvis iting
spe ed
Ġt ip
oll ary
Ġt issue
Ġcalcul ations
ok er
Ġsens itivity
Ġjo ining
Ġt ips
( ['
Ġhe ll
Ġcl s
Ġsudden ly
ĠBit coin
min ute
ĠT og
cri bed
Ġsett lement
Ġspect ra
writ ten
Ġsp okes
ĠO cean
ib ration
ĠP O
ath y
u er
Ġext ensions
var i
Col lect
st ates
T y
plic a
W in
Ġrough ly
Ġpan els
B usiness
H y
ph ant
q view
Ġair port
ĠArch itect
Ġtour nament
C N
Ġun f
Ġpredict ions
Ġf rames
Ġs ought
re ements
st ock
Ġch ronic
Ġfol ks
t em
Ġsp ark
ĠMed ic
des ign
] +
ĠLew is
ĠH D
ĠGu id
Be en
ĠP ed
sh are
ĠFr ont
w hel
eg an
g ies
D an
Ġp ump
Ġconcept s
Ġout standing
arn ings
sk y
Com put
) },
Ġnorm ally
is o
D at
r ont
Ġb asketball
ĠLog ger
Ġim aging
ĠF ix
Ġse ats
ĠWh ich
ĠDr ive
Ġdecl are
aud i
Ġhost ed
od ot
Ã Ĥ
Ġme at
ĠPenn sylvania
ox y
M AN
Ġv ectors
Ġhigh lights
ĠD un
inem a
w as
ĠEd ward
ul us
ink ing
te ch
I p
Ġprodu ces
D ynamic
R S
im itive
Execut or
ch unk
ĠK it
Ġcarry ing
S em
ang el
Ġconvention al
B its
B ecause
Ġtext ure
N ER
With out
d ocker
Th rough
198 8
ĠSt adium
ick en
G reen
Ġcal endar
Ġindust ries
ĠA ws
ĠL java
,\ ,
Ġpil ot
ĠP a
ĠL iter
Ġund ert
Over view
Ob serv
RES ULT
ĠW inter
ĠR aj
âĢ ¯
Ġdesign s
ĠP si
Miss ing
rac es
Ge ometry
Id x
Ġ| \
ĠF L
aw are
ĠF un
d jango
Ġdire ctions
Ġ Ø§
Ġch ose
Ġcan vas
Ġrest ore
ape ut
Ass oci
ĠS UMMARY
Ġpert urb
CRE ATE
ĠĠĠĠĠĠĠĠĠĠĠĠĠĠĠĠĠĠĠĠĠĠĠĠĠĠĠĠĠĠĠĠ ĠĠĠĠĠ
if old
b inary
ĠInd eed
ĠS ab
ĠFore ign
Ġconserv ation
Ġr ub
Ġimpact s
Ġk ne
Th us
< >();
per p
lo re
sub subsection
g if
ĠB ol
ĠE c
Ġcharacter istic
Ġactiv ation
h d
ĠP L
ĠB ased
Ġl ights
Ġref ers
Ġdes criptor
ĠV egas
Control s
Ġident ification
ĉĉĉĉ ĉĉĉĉĉĉ
Ġp ixel
Ġemb edded
F urther
end o
ĠF arm
oc om
........ ........
ĠOther wise
ĠPal est
C MD
Ġne ck
Hel lo
qu al
add Class
C r
Ġm es
G P
is l
TER N
BA SE
ĠL ock
As set
Ġinv ited
T ouch
ĠAdd itionally
ĠS ex
T ensor
Ġparticip ation
ub er
Ġdecl ine
Ġkit chen
$ ^{-
Ġig et
ĠG h
Ġn aturally
ĠL as
ĠAm ong
rou ter
ph ase
(' <
big g
j b
Ġcon clude
ĠS ix
Ġatt ended
F ire
ĠApp end
Ġro se
ĠF I
ĠHar ris
EN V
D en
Ġgrad uate
BO OL
Ġsil ver
LE S
map s
ĠR oll
Com mit
ĠAuthor ity
Ġd inner
Ġmod al
Dep recated
Ġrout es
in formation
\ /
Me an
ĠC ab
Ġsymbol s
Serv let
Ġstruct ural
"> (
ĠJ ane
Ġen emy
ĠClass es
w ind
Ġl oud
ĠĠĠĠĠĠĠĠĠĠĠĠĠĠĠĠĠĠĠĠĠĠĠĠĠĠĠĠĠĠĠĠ ĠĠĠĠ
Ġhead ing
And roid
ĠCom ponent
gress ive
new command
ĠChe m
Germ any
she ll
U CT
ul pt
ĠB C
contin ue
Ġorient ation
**************************************************************** ********
ge o
ĠDown load
ĠAv ailable
In s
Ġst rip
ĠAr m
Ġenh anced
Ġw rap
im ental
ĠD er
t ik
com b
ab etes
s quare
an z
Sh ader
F ixed
) _{
est ions
pr iv
" ];
Ġconstant ly
ĠN othing
pop up
t i
Ġp ixels
3 50
ec lipse
cl s
* ,
over ty
u um
A ctions
ordin ate
Ġa ria
o a
; |
Ġtra ject
ĠS av
Ġqu eries
sh a
im p
Ġt weet
ĠN ature
Res earch
Ġc urrency
Ġmult ip
H AL
Ġask s
istribut ed
ĠPH P
Ġexam ine
ĠT ABLE
Ġpriv ile
Ġsh arp
ĠReg ional
Cre ated
11 5
ĠApp ro
Ġir re
ĠM C
ord on
ĠK y
ĠU sed
ĠIm mutable
Ġelectric ity
Ġcolle agues
ĠLink ed
ä ½
Ġ[ âĢ¦]
im ents
Ġs oph
ise cond
Ġwer en
D iff
Ġg ate
lic ations
st ud
riter ion
ĠA V
ig ator
Ġim plicit
ĠLeg al
Ġmac ro
. ',
u z
Ġde eper
10 3
H A
ĠO DI
Ġman ual
": "
ĠD I
nob r
get String
is ations
ĠS ession
ĠRun time
Ġe ating
sl ide
Ġcon scious
Ġmus cle
IN VALID
pl ain
ĠPat rick
Ġreg ulation
ĠCol umn
Ġb one
LE MENT
Ġaim ed
f ac
Ġse gments
D ITION
Ġam id
con current
C LA
Ġim g
) ^{\
ĠH al
Ġro of
ĠC T
Ġvulner able
Pol y
â Ĩ
Del ay
ĠL ess
Un ique
Ch unk
ĠM B
Ġent ering
Ġequ ality
Ġcom edy
Enc oded
ish op
Ġmin i
Ġqual ified
the less
Ġt f
on line
Ġunivers al
ĠG raph
m obile
l int
Ġco inc
ĠIs lands
sem antic
Or gan
iz ard
Ġj et
XX XX
get Class
ick ing
in ction
Ġimm un
Ġconserv ative
R ot
ĠH ad
Ġo sc
ace ut
Ġconven ient
ĠJ ason
c lip
ush ing
Ġequ ally
ĠCl inton
ĠB ry
Ġdisc ount
il ty
qu ant
l ah
G ui
[ -
ilib rium
Q ual
ĠB ody
Ġw he
}} (\
Ġthink s
B ACK
ĠN ic
ĠAg reement
c ross
ĠJ S
Ġheav ily
ĠAff airs
f ish
m iddle
%%%% %%%%
Ġk il
ĠWith out
= &
st eps
Se pt
ĠLim ited
Ġcontribut ed
Ġ{ %
Ġm igration
Ġchild hood
ĠP arent
LE D
Ġreach ing
clud ing
Ġ' -
es la
ĠR ule
SP ACE
U int
ĠR ound
ĠMult i
================================ ================================
ur is
ĠSy ntax
C ategories
Ġrob ot
oper ative
Ġsatisf ied
ĠJ ay
pe ction
ĠL I
ĠPer formance
Apr il
. -
b uilt
), \
.~ (\
Ġc ounsel
ĠMem ory
ĠAnt on
ir ty
fore ach
ĠB asic
Ġoff ices
Character Offset
F eed
T ex
inter val
ĠM rs
SS ION
od o
ĠC F
ĠB ush
Wh ite
Å ¡
Ġserv ers
tim er
Ġd ictionary
Ġfant astic
Ġin herit
Ġmed ian
Ġt ur
ĠT ony
al so
Ġpost er
less ly
SOUR CE
d ynamic
ig e
I ss
Ġoff ensive
wh o
Ġre ar
ad v
Ġme ets
p ragma
? )
ĠIn f
pos ite
Ġv ibr
get Message
Un iversity
Ġart ificial
Ġmat hemat
Ġsign ing
ĠR oss
Ġsh adow
od ge
Ġpurch ased
ĠM arg
an ches
Ġreject ed
ou st
P riority
Ġsub group
Ġsold iers
Rece ived
ĠâĨ Ĵ
j an
Ġbreak s
Mich ael
ĠP it
ĠEx change
ĠB io
ĠN ations
ĠL at
O wner
Ġdem ands
Ġsustain ability
ĠAust in
d elegate
com position
ĠVAL IGN
Ġthe ories
ĠH old
up id
SU C
ĠRep resent
gener al
ĠEar ly
= $
Ġ// !
Dec imal
Ġdef initions
ĠB reak
Ġspirit ual
Ġaccord ance
uet ooth
an im
ĠDef ense
Ġ-- -
Ġprom otion
Ġb ucket
ĠJe an
C ulture
Ġdo i
Line ar
ĠK elly
Ġperson nel
Int roduction
Am ount
Ġf lying
Ġlog in
Ġt ries
ĠM s
Ġsol o
pro b
Ġbound aries
Ġpro to
Ġoper ational
Ġs lice
ater n
F rames
ĠAg ric
ant ly
Ġmed ic
Ġrout ine
ĠVictor ia
Ġden otes
Ġlik ed
File Name
or able
) }(
Ali as
ĠE P
Ġfant asy
im m
V O
Ġappoint ed
su pp
Ġbre ast
ta h
Mod ified
tool tip
Ġbird s
ounc ed
ch at
Trans ition
Ġdevelop er
Ġ+ \
gener ator
iv a
50 9
ĠSu ccess
ĠU nc
Ġscreen ing
V A
Ġad s
Ġofficial ly
h al
Ġd il
le tt
r ition
ĠS ales
ĠO ptions
Ġord inary
J une
RA ME
Ġcon cerning
ĠSil ver
id al
ach uset
Ġmy th
> [
ĠAd vent
lo cale
Ġpro hib
ĠMod ule
achuset ts
Ġred irect
Ġhor izontal
C annot
Ġdo ors
ou ri
Ġapprec iate
Ġgen re
i Ã³n
ĠG un
, ...
Pr imary
Ġm i
ast y
Ġsuff ering
Ġt ank
ot ive
Ġsomew here
Ġfore ver
198 7
ĠK EY
G iven
N I
Ġwat ers
x sd
{ $\
be at
Do es
Ġl aid
cam el
R UN
eder ation
DE D
ist a
Ġâ Ĥ¬
ĠL ady
Ġexpl oration
f older
Ġplace holder
Ġinvestig ated
elastic search
Ġag ed
T IM
ĠW ind
Ġprem ium
ĠAf ghan
Ġsurv ive
ĠSh are
Ñ ĸ
Up load
ĠSte el
ĠC NN
ĠAlex ander
Ġte a
Ġfl uct
v endor
Ġstart up
ĠP erm
Ex ecute
Ġthous and
and al
Ġscen arios
ĠI F
Ġas ide
ĠD ictionary
Ġl umin
Ġhel per
equ ate
L ive
Ġc ub
N a
F ollow
LO AD
ĠR ome
}$ -
ĠL es
ĠL ar
W ire
Ġim per
S an
p ixel
Ġrep air
ĠInst all
000 1
ad oc
Ġaddress ed
Ġcontract s
Ġmat rices
aceut ical
ĠN atural
he ets
Ġb io
andid ate
RE T
L iteral
ĠPub lish
TR AN
(" \
Ġinvest ments
tim eline
; "
Ġf oo
Named Cell
aur a
ĠDel hi
Ġle ct
Ġperson ality
ĠC HECK
Ġd ump
Hash Map
Ġgener ating
Ð ¹
Ġopp osed
end point
}} ^
b en
Ġbl ind
us cript
re ach
ong o
ĠCom par
Ġbr illiant
ä º
ĠS ave
Ġsuff ered
Ġt urb
ĠC L
Ġrece ives
ĠN um
Ġtra v
A lex
Ġarg ue
ab br
pl ane
d anger
Ġob lig
Ġg ained
ĠS ustain
Ġt all
ĠM it
C M
out heast
Ġg enu
ĠG rid
ĠSe ver
PRO P
ĠC ou
ag an
Run ning
ĠB ridge
xi ety
ĠA st
Ġ&= &
Ġprec isely
rem ark
B reak
Ġinterview s
Ġt sd
Can vas
Loc ale
ĠI gn
z ech
Ġf ro
Ex pect
cl ine
Ġ" >
trans port
m aker
Ġmet ab
ĠMov ie
;| &
Ġdef ensive
ĠOnt ario
umb n
ĠH O
A zure
for all
en ant
Ġfocus es
n ie
t ility
Ġb att
n of
LE N
Ġass ignment
od a
' ].
U AL
Sep ar
ĠK ansas
B uf
Ġmin ing
198 6
GB T
Ġanal yst
ĠA udio
p ing
ĠAnth ony
ar ance
ĠSt udio
is cal
Des ign
Ġo vers
Ġst roke
Rep ly
m atic
Th ree
Ġes cap
S ide
ĠTh anks
Ġb omb
og a
Ġrep orter
ĠSt ories
Comp at
Ġaut hentication
Ġas ympt
pr ice
ĠImp act
C ost
or se
Ġpublic ly
ĠUk rain
U nd
ĠH IV
ag u
Ġle af
Ġevery where
ĠFe ature
ymmet ric
O FF
Ġperson ally
C SS
S en
Ġafford able
ĠH um
friend ly
Read y
Ch anges
itar ian
Filter Database
V ol
Ġch ampionship
ph y
ri k
Ġincor rect
ĠLin ux
Ġb oss
Ġfeel ings
ĠWIT HOUT
il st
Ġor th
olog ists
ĠM ess
er on
Ġh ospitals
s ime
Ġad mitted
Ġb rown
refer ences
r ant
Ġisol ated
D isk
ĠUn less
r as
Ġterr itory
ĠR ick
ĠH ope
ĠO ak
ĠSt op
Ġcor rel
Ġv ir
Ġqu ote
ĠPlan ning
Ġi OS
Ġhydro gen
Ġarr ive
f ailed
Ġrac ing
Ġhop ing
ound ed
P aul
not ify
. :
Mut able
(' ./
Ġnam ely
ĠWis consin
ĠLear n
char acter
Match er
EN CE
ĠAll en
Ġgraph s
im edia
Ġ-- ></
link ed
g p
Ġt uple
Ġbe er
ĠG ab
Ġc ock
ĠSp ot
sime q
ĠC ow
Ġdep loyment
Ġmaintain ed
ĠH art
Ġweap on
Ð¾Ð »
pre pare
AS C
Des pite
T yp
Link ed
Re act
itor ies
if ference
ump y
Form atter
ĠB urn
ĠTh ough
mark et
arch ive
in ions
book s
Ġm eth
EV ENT
Pack et
sc ore
AR K
iv idual
ĠArg ument
Or igin
Ġsu ite
Ġfl av
form ing
198 4
M ust
b ench
ĠMan chester
C he
ess ment
ĠL ang
Pr ice
BU FFER
ĠTenn essee
O cc
M achine
Ġoff ense
ĠC P
$ ).
Ġspe aker
ĠGa ussian
ĠLic ensed
ab ama
ĠE mb
Count ry
d ney
Ġun likely
Ġs ou
ĠR s
win ning
ĠDate Time
ĠBow l
Ï Ģ
ĠL eft
Ġm ilk
in cess
Ġf uck
B N
m ix
ĠPar liament
Ġgen es
ex cept
Ġk in
view port
Ġcol lections
li bs
Ġh al
Ġassum ptions
Ġsc oring
5 12
ĠB arn
ĠAtt orney
it udes
Ġun lock
Ġres cue
! )
Ġman agers
Ġliter ally
Ġs id
h ou
b ow
ĠS SL
p aces
In struction
AT URE
Ex per
Ġhand led
j oint
Ġtim er
c lock
Ġw ake
Ġs alt
ĠG R
local host
ĠO C
Ġmark er
Ġmem ories
se gment
omorph ic
ĠST ART
19 2
ĠE T
Ġinst itution
Ġor bit
Ġj ack
ĠRes erved
ĠSing le
s z
ĠVis it
ogene ous
Ġro y
Ġprote ins
Ġn ations
c ost
t ol
Ġfl ights
ru ction
Th ank
mat ches
Ġdis p
le e
Ġnav bar
Ġpar agraph
ob serv
Ġne ural
th ur
Ġr anges
ĠNe uro
plic ity
ĠMo ore
Ġrestrict ed
ĠCl ark
Ġthreat s
Ġprepar ation
ĠRout e
ĠD atabase
Ġcomp osed
ĠE ss
erv ation
Ġvis its
Ġfocus ing
Ġd ense
sp ot
ant e
ident ity
Ġvot ed
Ġdom inant
Ġpromin ent
AP P
Res pon
fil ters
Ġ' #
second ary
ĠD IS
ĠB ul
E mit
Ġ( %
Ġiniti atives
ĠKe ep
el es
ĠSur vey
10 8
ĠR ange
Ġanaly ze
Ġh am
Ġse ar
ĠHaw ai
ĠMA X
C UR
ĠD allas
g z
ĠH ur
ĠT otal
Ġd atasets
Ġl aser
ĠB BC
ĠS a
10 7
re present
Ġdefault s
ys ics
Ġad mit
Ġ# {
ĠTur key
lin ux
ĠR isk
. ]
ad i
Ġpen alty
l b
Ġref uge
Ġmechan ical
u j
c mp
ext ensions
fe atures
roph y
Ġenter prise
ĠL ib
el and
Ġch ampion
m g
Ġbelong s
W H
ĠM ind
Type Def
ĠCont ract
æ ķ
m ma
ĠF ast
Ġexpand ing
Ġlif etime
Ref lection
ĠB ureau
ĠOrgan ization
ĠPro perties
Ġautom atic
Ġcontr ad
W ARN
Com pletion
ĠSe attle
Mon itor
Ġde prec
dat etime
elf are
ĠTerm s
Ġc razy
Ġth orough
Tr igger
ĠD ave
ĠF ALSE
HO ME
ĠG alaxy
ors es
> %
F ix
ĠĠĠĠĠĠĠĠĠĠĠĠĠĠĠĠĠĠĠĠĠĠĠĠĠĠĠĠĠĠĠĠ ĠĠĠĠĠĠ
oen ix
Ġdef ect
Te am
ĠSt one
Ġany more
N il
Ġt ied
l ings
Ġmer ely
H AND
if iable
ĠE ag
Ġsat ellite
An chor
II I
s ch
igg s
Ðµ ÑĤ
Ġover view
Ġmeaning ful
ĠPort ug
d n
ĠAtl antic
ĠOper ation
Ġlaw yer
Ġmor al
Top ic
Ġanalyz ed
ĠBer lin
Ġnot ation
Ġconver gence
ĠM IT
ĠG ard
Pro f
ĠOx ford
Ġnot ion
âĢĿ )
10 9
Ġconf ident
ber ry
Ġre vers
Ġk w
Ġconfig ured
Ġover whel
Ġflex ible
Ġsimult aneously
S afe
m ade
Â »
ĠClin ical
Ġosc ill
A SS
scal a
Ġcl ar
ĠId ent
ĠR oy
iam ond
P al
B oth
secut ive
Ġrem oval
Ġne ur
ĠCar l
reg ular
ĠLa ure
Ġp ip
ĠHash Map
T om
ill ance
Ġw rapped
Ġl ip
Ġ" ${
est ure
ĠN BA
ĠN etherlands
tik z
Ġj u
T og
par agraph
N eed
Ġ& #
Ġrac es
ĠL abel
ĠM ut
G it
ĠK han
ĠM I
Ġinter section
Ġtalk ed
g rav
Ġdream s
el son
] }
un es
get Attribute
ĠF ant
Ġw et
Ġlux ury
(" .
ĠSim on
ĠIn valid
Ġt one
Ġrespond ed
Th anks
Ġ å
ĠIllegal ArgumentException
M W
OR S
irl ines
Ext ra
Ġcom ic
ĠT X
form er
al gorithm
ĠSt orage
E urope
Ġeng aging
Ġconnect ing
f loor
em ark
ard ing
Oct ober
ap ing
Ġreview ed
Ġs ke
wit zer
Su ite
upload s
ul ative
ĠD or
ĠI owa
Ġinsp iration
Ġsome how
gu ide
ĠM oney
ge on
-------- --
10 6
Ġt ill
Ġg ent
Com pleted
ut down
P REF
Ġw ider
up dated
ĠDev ice
N R
AC HE
Ġin ches
ribut ion
ĠK ind
ĠLe on
ĠS V
pare ncy
Ġb reed
Work er
×Ļ ×
Ġpres idential
De cember
Ġs ender
ĠH an
ĠN avy
N V
ĠM eta
f rames
Ġche ap
iv ities
uff ix
Ġh ol
ĠT E
Ġimm une
WA RE
ig ious
s ass
look ing
Ġm ice
Ġ/* !
unic ipal
Ġconsequ ence
R ich
Ġelse where
iv ia
sk i
D ig
C ould
ĠV in
Ġcare ful
) ^{-
_ [
urre nc
C oin
ĠC orn
iv o
ĠInnov ation
ab stract
back s
ĠMot or
Ġp sy
Ġfl ows
)\ ,
S core
ro it
Ġoutput s
n os
ĠK IND
Bit map
ph ones
im b
Table Row
AR S
not ification
Ġsy ntax
OL D
list ener
ĠE RR
al con
grad le
Ġl oves
Ġlock ed
Ġ$ -
198 5
b n
Ġinter rupt
set ting
Ġs ectors
Ġis instance
L ife
Ġleg it
sp in
r ang
Ġf its
ab a
Ġroad s
ĠSum mary
ĠB attle
Ġres ident
ist ically
Ġhand les
man agement
è ¯
Ġl ibraries
Ġintegr ity
ï ¬
tool bar
Ù Ĭ
ĠA uth
Ġdo ctors
at on
ĠC reek
Ġst uck
Ġc ir
Ġdesign er
h ire
ĠB an
ĠF ive
ik ing
ĠAtl anta
J uly
In f
ord inary
Ġocc as
ic ient
roll ers
Ġstudy ing
×ķ ×
ud a
Ġens uring
ĠUS B
Ġsuper ior
witzer land
cul ate
Ġ á
sd k
at able
Ġd t
ĠM ars
Ġanalys es
un lock
fl ush
list en
Ġo xygen
sol r
Ġview ed
ĠT OP
Ġencourag ed
ast ed
set Attribute
Ġag enda
ĠWe bsite
tr as
Ġcomb ine
X Y
ret val
T M
pe g
Ġmov ements
ĠN ull
ĠCon sole
Ġredu ces
ac er
Ġf o
Ġvari ations
Ġcorre ction
Ġup grad
Ġt act
ia h
le ading
Ġsearch ing
Ġw rapper
u ates
CH AN
24 0
CD ATA
c v
ows ki
Qu ant
label s
Ġgener ations
Ġsymmet ric
Ġass istant
ĠDise ase
/ )
dec ode
d ating
F etch
ĠP ast
rac le
Ġf iber
path s
ĠSchool s
Ġl ung
Ġbox es
ĠMem orial
r and
cre ens
Ġdecl aration
se cret
Ġre putation
L ead
ĠC I
)\ \
Ġequ als
] ->
ĠV ar
Ġh az
ĠPl ant
== =
Ġpain ting
L IB
est ing
Ġprint f
Ġincred ibly
r v
Ġsystem atic
Ġlog o
late st
Ù ĩ
em ies
th ird
attr s
Ġdescri bing
or ce
Ġsac r
ĠMar vel
neg ative
Ġwith draw
ĠM achine
Ġle ts
cy cle
Re pe
Ġsatisf ying
am ount
iss a
Ġsignific ance
SUC CESS
Ġsm ile
Ġarr ival
Ġcol span
V ec
Ġinter mediate
Ġiter ation
Ġex ponential
ĠS EC
ous el
ĠG arden
ter rit
Ġact ress
Ġamplit ude
Ġ. =
Comp are
on i
ĠC lean
ĠB uy
Ġra ising
Ġprec ise
an ia
Aug ust
ĠS in
Ġout break
Ġw x
Ġless ons
Intern ational
Ġl ands
Ġwe ird
Data Type
Ġret rieve
$ $\
go og
)} {\
code c
ang a
ĠD ebug
ĠAl liance
rb an
ut orial
ul p
ĠD M
ĠW ik
Ġcred entials
ĠA F
Int eg
Ġsupp ose
Ġdevelop ments
Model s
Ġan notation
} ))
v ard
pay load
Class Name
ĠN C
Ġeffect iveness
s it
ĠYou th
vis it
Ġdialog ue
un ion
Ġsupp lies
ol ph
g mail
vel ope
ME M
') ->
Ġconf ront
G RO
ĠN ASA
V IEW
45 6
Ġlisten ers
Ġvacc ination
ĠN ich
Ġbl ow
ous ing
Ġgover nor
Sche me
h alf
Ġco ins
Ġher itage
Ġb read
Ġpro c
ĉ ĠĠ
Ġa ug
Ġmer ch
p f
Ġinstr uments
' ):
sw ing
Lower Case
ne ed
Ġpres erve
ĠR ele
ĠĠĠĠĠĠĠĠ ĠĠĊ
Ġnewsp aper
ins ic
ĠG ov
} &
Ġpush ing
r us
pm atrix
ol i
Ġcy cl
ĠN orm
dr iven
c in
Sc an
dis patch
f rag
k ernel
ĠO s
ÑĢ Ðµ
Ġb ass
ur se
Ġref lection
ĠDC HECK
Ġple ased
Ġfranch ise
Ch art
rop ical
Ġper ception
Supp ress
Ġcoe fficient
Set up
Ġpre val
w ave
Ġgl ad
S F
c n
Ġult imate
` )
Ġthem es
re duce
Ġb ull
Ġre actions
ache l
as ant
por ter
ĠT YPE
ĠEmp loy
value Of
ĠMass achusetts
Ġstr uck
__ ,
Ġf t
em ed
ĠG il
Ġemp ower
ap id
P rom
Ġpre t
N umer
ather ine
ĠR ab
e u
per iod
erial ize
Ġs quad
lo sing
ĠT itle
ĠCons ult
en vironment
Ġh ang
Ġb unch
ap olis
is an
ĠL iving
ĠComm unications
ĠC E
Ġint ense
ish ment
Ġex ha
A MP
Access or
lim ited
ech an
19 50
Ġw edding
ĠB udd
Ġdes per
Ġhard er
String Builder
T ake
ĠC lose
Ġicon ic
ast ing
Ġinter active
ĠAnd re
H ard
p ref
T ech
Ġde let
c ity
Ġpro pose
ST ART
40 4
Ġscatter ing
Ġ} ).
ĠL anka
D one
Ġin verse
m ates
k n
n an
g age
ref resh
M IT
Ġm irror
i ere
Ġim plications
FA IL
Ġenc oded
re view
Ġrem oving
ĠD utch
Ġsepar ation
v et
ii i
ĠTh ird
ĠPrem ier
Ġcompet e
Mer ge
ĠB egin
enc er
Ġg ay
ate ful
ĠW ang
grad uate
ĠConst ant
Ġpl asma
om al
Ġglob ally
g raphics
Ġper mitted
f uture
chi at
i pt
ro gen
Ġassum ing
Ġmaintain ing
Sl ot
ĠKore an
Ġ æ
ĠG P
ĠShe l
append Child
m icrosoft
Ġrad i
Ġm oon
Ġs aving
Ġexception s
Ġcer emony
ĠIss ue
Ġexpl oring
ĠTra il
Ġ" _
Re place
ĠÐ ´
ĠS witch
99 99
che ll
Ġth ro
Ġmag net
ub a
Ġd ot
ĠCon nection
erv ing
v i
a que
Ġtom orrow
Ġun like
rid es
con duct
S UP
Ġdis plays
alle st
ĠS port
Ġinv olve
ĠSp irit
ecess ary
V C
Ġrac ial
Ġsort ed
indu ced
Ġg ang
Ġunus ual
M ount
Ġsl ide
trans late
Ġbi ological
b one
ah o
territ ory
à ¦
qu o
Ġart ifact
% "><
Ġg ear
app le
Ġreg ression
13 5
Ġann iversary
Ġprocess or
Ġor al
}^ *
Us es
ren a
Ġq view
Ġrender ed
Ġ" )
Ġsh ips
loy d
Error Code
ĠCam bridge
m its
l it
Ġcharg ing
SH A
Pe er
ĠA WS
Ġcoupl ed
ĠW y
ĠSol utions
Ġre ven
is ons
ĠExp ress
ĠPolit ics
Test ing
Load ing
own ed
D im
Ġrot ate
Ġphil osophy
Ġsupport ers
S chool
ĠN ob
ĠVis ual
Ġac ute
J ames
ĠE ST
d ing
ĠÐ º
Nov ember
ĠF lo
ĠHer itage
S K
Ġcommun icate
^{ +
str ument
ĠComput er
ĠT ab
Ġw ing
Ġpar a
ig s
Ġb lo
Ġin herited
b urn
> {
D TD
() [
met ic
Â Ń
et he
ĠBe aut
cc cc
C irc
ĉĉĉĉ Ċ
ing ham
: =
Ġbirth day
z ym
c ached
igh th
ĠFor um
B T
Valid ate
ĠT IM
p ending
display style
parent Node
ĠV olume
Ġl unch
AC ING
Al ert
f ragment
qu arters
Ġind ent
N ON
ĠC ache
ĠA z
se ed
Ġblock chain
T emp
le ans
ache lor
p iece
ut ers
ĠAtt ribute
ph oto
Vis it
ĠD raw
J o
$ ~
Ġequ ipped
h box
l ad
qu es
Ġsur faces
i em
th y
11 4
includ es
Ġgrav ity
AR CH
Ġcap ability
Par cel
ĠGener ated
] ).
Ġclass ified
RE NT
Wh ich
} )$.
Ġwarr ant
ĠD ays
Ġexam ined
Ġdepend ency
ec ycle
Ġdem ocracy
pl es
ĠWalk er
Own Property
IC K
ĠW ales
var s
ĠBr and
ĠEmp ire
Ġcomp an
ĠC ould
chn ology
enn a
ĠParam eters
Ġmyst ery
add ed
Ġsub stance
ch arg
g em
Ġwin ners
ol k
ĠMary land
Ġpass engers
allow ed
Ġthread s
on ed
Ass ign
ĠS F
ĠAl tern
ol en
fra id
198 3
ĠW ait
ib ling
t ile
n able
Ġm s
M al
ĠD ue
m f
Ġflo ating
D u
c as
ĠWh it
Ġviol ent
ĠG ree
Compar ison
Ġover come
Ġdom ains
Ġsy ndrome
ĠN ev
vert ex
sur face
M ail
Ġdrink ing
}( {\
ip art
ĠJava Script
LA B
P DF
d ependencies
Ġst y
ad apter
Ġex pr
Ġremark able
Ġdis ag
Conn ector
EX PORT
is en
ne ut
om ething
Ġcompens ation
Ġd ating
Ġrequ iring
U G
ĠW H
There fore
Ġnot ify
ĠB u
Ã© s
Ġtim ing
lear ning
__ _
CR IPT
ĠM organ
the y
Ġout door
Ġmodel ing
Ñ Ĩ
run ning
ĠPod cast
am ine
ĠIsrael i
w allet
Ġ= \
Def ined
S UB
Ġback up
ĠLe ave
lic t
Ġtro ops
Ġexhib it
Ġ' ,
ĠFil ter
m ys
Don ald
Ġ{ ?
Int ent
st ory
cent ury
Sept ember
Ġc up
ĠCh rome
Ġap artment
st an
Ġinfe ctions
>< !--
Ġpro be
ĠH it
ink s
et ric
ge ometry
Ġd ial
CE PT
li ers
ĠC over
d ed
ĠB AS
Ġrad ical
ĠMat thew
S ets
Ġcon cluded
ĠF a
14 4
ced ure
ex ecution
Key word
Ġdi et
ĠV R
ĠB ible
N EL
Ġconsist ently
è ¿
ir ical
ĠH ub
Ġcho osing
Ġsuff er
red irect
Ġbur st
m oment
Ġp urs
ĠP E
E p
Ġc able
Ä į
Ġple asure
MA GE
lah oma
qu is
Ġt we
ĠEnt ry
ĠG it
Ġsnap shot
ĠE val
c ourse
Ġlog ical
Ġu ps
Ġprint ed
s ocial
IN IT
it ol
ĠR ey
Ġch rom
11 7
Ġep id
ĠH op
Ġclos ure
w en
Ġdecre ased
om er
Ex it
t oc
ĠS oc
Ġas p
Ġrec ru
om es
ĠCustom er
L at
Spr ing
Ġz oom
Scal ar
Ġnews letter
ADD ING
sub string
sub scribe
Ġpo etry
g ium
NE W
Ġcharacter ized
Ġhypothes is
d istance
cond itions
ĠÂ ±
N U
Look up
Check ed
A f
ocol ate
Ġint ellectual
da pt
Ġm ild
ke ep
ĠC hel
Ġrec urs
M ov
An n
W D
ites pace
AR RAY
Ġest imation
Ġche st
198 2
sc ience
ind ices
fo x
Ġph ases
ĠElect ric
Ġprepar ing
ĠO UT
Cam era
ash ing
ray s
SS AGE
b ucket
ĠP layer
b ug
REQ UEST
Path s
Ġch ip
ancell ationToken
Ġdoll ar
ac o
2 20
à¤ ¾
Ġton ight
pi pe
trans l
Ġn ested
ĠH R
ĠE D
Ġle an
ĠHol y
) }}
Ġhead ed
t v
ĠS cript
car bon
ĠR andom
Ġmort ality
ing ers
Ġexc it
ĠRead ing
D istance
Ġden ied
Ġin fer
Cal endar
ĠB alt
Ġident ifying
ĠTur k
ĠĠĠĠĠĠĠĠĠĠĠĠĠĠĠĠ ĠĠĠĠĊ
Ġrel ating
ĠAl b
S n
Ġh a
Ġent itled
Ġst ops
Event Args
Ġpar ad
L i
Ġmist ake
An im
product s
ĠF ollowing
Ġsuggest ing
ĠSing h
gener ation
Ġpartial ly
S rc
ĠR ender
Ġf est
$ ;
Ġattempt ed
ĠTR UE
TO M
P ane
ellig ent
Ġadj acent
Ġst em
E mp
te le
claim ed
p agination
Ġstream s
Ġ ĉ
oth ers
task s
Mark er
Status Code
Ġg ram
re p
ar o
ĠR ole
u is
Met ric
Ġdocument ary
G raphics
Ġreg istry
Des cribe
D ict
Ġpat ent
ĠF E
ĠA B
be ans
1 19
Ġb g
Ġhuman ity
rou s
U A
ĠT EST
Ġr anging
Ġex clus
Ġbase ball
h ind
å ¤
Ġrec ruit
Ġt s
ĠUkrain ian
Ġg raphics
T ri
F D
z oom
Ġleg s
Ġp ow
amazon aws
other apy
sw er
Ġrepresent ations
B lob
ard o
ĠV iol
Cons ider
ĠW i
Ġdifficult y
ĠEm ail
ĠAl abama
bour ne
Ġproport ion
Ġelect rical
ĠJew s
Ġl ens
A mazon
M o
Ġpro x
Ġst unning
med ium
11 3
google apis
Ġg onna
Ġspeak s
ĠTh row
ĠIslam ic
Ġrec ycl
met rics
Ġd ad
Ġsu gar
ĠDe an
ĠIndian a
L ONG
Ġfl avor
ĠS audi
th ree
Ġcompar able
P ipeline
Ġdis aster
Ġcr imes
Ġgreat ly
Ġnormal ized
Ġfund ed
Ġtr ivial
ĠG OP
Ġt ang
ĠInitial ize
ĠM ission
Ġalign ment
cc a
br ane
Ġrare ly
hel le
Second s
Ġf atal
) }_{
Z oom
Ġposs ess
umn i
Ġvary ing
rop ic
Ph ot
ĠD R
ĠW orth
In ject
ĠP ier
to LowerCase
ul in
ĠO tt
Ġpolit icians
ĠMay or
Ġspe akers
R ober
Ġlap ack
ĠO wn
Fact or
ĠS Y
00 2
ict ions
Ġprov ince
Ġcon secutive
i ov
Ġcomp aring
( []
ĠU SE
Has Been
C lean
project s
Ġpr on
Ġattr s
N ONE
in ance
ĠDo ctor
jav ax
App ly
process or
Const raints
per ature
Ġresid ential
isecond s
child node
Ġm ad
ĠL GBT
Ġcomp ile
Ġevery day
map sto
po i
Dec oder
ĠĠĠĠĠĠĠĠĠĠĠĠĠĠĠĠĠĠĠĠĠĠĠĠĠĠĠĠĠĠĠĠ ĠĠĠĠĠĠĠĠ
um ar
om ed
Com ponents
Ġrank ed
T ON
ĠĠĠĠĠĠĠĠĠĠĠĠĠĠĠĠĠĠĠĠĠĠĠĠĠĠĠĠĠĠĠĠ ĠĠĠĠĠĠĠĠĠĠĠĠĠĠĠĠĠĠĠ
Ġexam ination
Ġcam eras
Mill is
L ow
b ling
Ġdis patch
b ec
Ġb ills
ĠP resent
U Int
Ġassoci ate
Ġscre ens
Ġ{ $
11 8
Ġlic ensed
in os
Ġstead y
aw esome
og y
Ġprom ising
m ill
Ġsche mes
Ġad option
ĠBe ing
L ines
dis k
Ġco operation
gener ic
ĠP AR
Data Source
Ġref used
Ġoper ated
az ure
N eg
p al
ĠS amsung
ĠTest s
P ush
M esh
Ġdep ression
ĠT oken
ath ers
100 00
Ġdi agnostic
sche mas
202 4
S ocial
j or
LO B
Inter op
ĠB lood
ĠJ ess
12 2
ĠCol lect
ter ior
Ġunivers ities
col n
M ix
ĠAut om
ud son
Array s
Ġhe ter
Ġsufficient ly
Ġrul ing
e an
AB ILITY
G T
Ġappoint ment
Ġv oices
ĠDet erm
ĠPer haps
ool s
Ġstrugg ling
u pper
Ġtransform ed
ĠPh ill
ĠS ide
ĠB ORDER
Ġre striction
Ġconfig ure
Ġfavour ite
es cape
ĠM un
render er
G uid
m aml
Ġl ov
OB JECT
Ġl oyal
Ġadv ers
Sub scription
Ġbro thers
t m
Ġpublish ing
c ookie
)$ -
ĠArch ives
am ous
ens ors
Ġvolunte ers
Ġag reements
B LOCK
Ġincre ment
des criptor
Ġdram atic
un ior
Ġed iting
Ġsaf ely
Ġadd r
ann on
Pop up
ĠF ellow
ĠInd ones
ĠMal ays
Ġh oles
In line
ĠR ace
: -
Ġsub t
Ġcampaign s
Ġre start
ĠA zure
at ers
ĠC ra
ĠAss istant
Ġm ic
cript ors
ĠLead ership
ĠJud ge
C V
Sm all
hel lo
Ġingred ients
ĠViet nam
Tool s
Ġh unt
ĠEnt ity
V EL
Ġg host
Ġcell padding
ĠT esla
] ['
ĠUn fortunately
ĠC elebr
Gener ate
Al pha
Ġfrequ ent
ĠB us
m ont
ol o
ĠIns urance
Ġch ains
Ġl uck
ĠSy mbol
A ud
com ments
> `
ĠL P
Ġad verse
s ent
ou ver
Ġd owntown
Trans fer
] ),
spect or
Ġvol umes
Ġdeterm ination
es ides
over flow
ocr atic
BP ACK
ĠCy ber
post s
ĠP el
ĠWork s
Ġas semb
Ġarch ive
Ġdefe at
w ich
sp ark
File Path
ĠInt elligence
Ġen code
Ġop inions
h bar
he art
des cribe
hy thm
ĠCre ative
Ġd iver
2 13
fe ction
Ġin cent
Ġvis itor
ĠJon athan
ĠAd vis
) --
sl ider
script s
4 50
f un
Ġfit ness
Ġpregn ancy
Ġpre vention
build ing
c ref
Ġjournal ist
Ġpri ze
Ġc ul
ĠOffic ial
ick ed
ĠDr ug
F ollowing
Code c
ĠK al
AR GET
ĠInitial ized
Ġc rop
View Controller
Ġattract ive
Ġcre am
k l
ĠM i
att ach
ĠW HERE
Ġt ale
Ġ' @
HasBeen Set
ĠSy dney
t ains
J ack
ĠB uff
ĠPri ze
Ġconvers ations
Ġman uscript
Bl ue
a con
ĠG as
K ernel
ĠT rib
Ġ[ \
ĉĉĉĉĉĉ Ċ
Ġa fraid
çĶ ¨
il lo
Com b
ĠT F
Ġprom oting
Ġdis orders
Ġbut tons
n atural
fact or
P ref
Ġsp ots
Ġdef ining
Ġf ishing
Ġse vent
Ġaccomp an
Ġp overty
Ġb orrow
Ġsing ing
Ġcl othes
ĠJ en
bre aking
db c
Ġend if
ĠM ir
ab e
ĠNot es
Vis itor
Ġf er
ĠDet ails
}} ^{
The orem
Ġsc ulpt
ic ates
Ġn it
Ġdeliver ing
Ġan xiety
ĠE uro
Ġch ances
l ades
ĠAn ne
Ġhar vest
ĠN az
Ġdis crete
Ġpack ed
Requ ire
Ġc ow
ort ed
Function s
Ġun w
in ery
ĠS olar
Ġex ec
et ics
ĠG ET
ĠVill age
o i
ĠCol lections
Ġmask s
Ġsh ipping
Ġlabor atory
ĠPol y
U UID
it utes
Ġob st
\| _{
Ġfit ting
Ġextract ed
Ġlook up
Ġdi pl
b ie
Ġtransfer red
P icker
car lasg
carlasg uns
leg es
ĠTai wan
ac ular
op acity
Menu Item
Ġinvolv ement
n pm
mar shall
Ġout line
pos al
PRO C
Ġlock down
Ġgu ilty
Ġvol t
Ġl iv
ĠTog ether
ĠF BI
H ook
b ird
plement ed
11 6
Mod ifier
Ġres il
ĠChair man
Ġl ake
ĠMc G
b ounds
ent ries
last ic
ĠM ort
. (
k h
Ġcan onical
alt Color
serv let
et c
ut ies
Ent ries
Ġel der
Ġsc oped
ĠChrist opher
D er
å Ĭ
ĠSt yle
ING S
ĠExt ension
uth er
Ġlaw suit
Ġcap s
ĠS cal
ĠI de
ĠSt ew
Ġm ood
f illed
Oper ations
P ixel
Ġmusic ians
) ?
{ },
ĠW I
bar a
Ġt ile
f w
For ward
ĠCor p
pro position
] </
17 0
Pl us
/ (
ĠHamilton ian
c op
inv oke
M obile
ĠCON DITION
ĠB or
olid ays
Ġst er
ĠU tah
pect ives
mut ex
im ore
Ġaffect s
ĠB loom
ĠStr ategy
at om
ĠC PU
arg v
ĠU P
IN DEX
Ġcoll ision
ĠM as
Ñ ħ
Ġexp enses
decl are
Ġaw esome
ĠPe ace
Ġgun s
styles heets
b usiness
Ġmanufact urers
ĠCon struct
S lice
Ġaccount ing
g ent
ĠDis play
ĠP rad
Ġadmin ister
l on
ip age
b oth
For ce
ĠD ick
ul se
" ?>
ĠB h
ĠTr ad
s amples
ĠCont ainer
Ġst upid
) *
Ġ" );
PAR AM
N P
IT H
sb urg
An aly
ĠV ent
ĠN eg
Ġto w
n l
TableRow Color
Ġprodu cers
iff s
Track er
ĠN FT
Ġloc ale
Ġse cre
Ġtreat ments
Ġreported ly
Ġdest ruction
m ov
ĠN ut
Ġhad n
Ġas c
Ġbr anches
+ (
it ational
inn ed
Ð¾ ÑĢ
P ending
Ġs ust
us age
Ġins pect
phot on
CO UNT
Ġemploy er
Î »
atab ases
ĠP apers
ĠM and
Ġimm igr
ĠB ond
ens ities
ION S
ĠO sc
ĠF C
V P
he x
el ve
Ġvari ance
Ġadvert is
Ġamong st
Ch ina
ĠFac ulty
' (
on ing
ĠCr ime
Ġarg ued
ĠMus k
m ust
ib li
Ġact ively
iat ric
Feb ruary
Ġorgan isation
Ġg olf
ĠJust in
Ġgather ed
ĠH ER
iver pool
hash Code
ĠMe eting
ĠS equ
Ġatt ach
ĠS ER
En code
B ucket
default s
FT WARE
Ġr hs
ĠL am
Sc ene
ur u
ort ion
e conom
Ġevery body
ĠTem ple
ĠP u
h ist
Ġent rance
Ġl apt
ound ing
ĠH ero
-------------------------------- ----------------
ĠRuss ell
Ġp uzz
Ġg otten
en o
L R
ĠNS String
Ġmix ing
Ġsal ary
$ :
Ġre aches
Ġconsist ing
ĠDe cl
>( <
ke e
Ġf ract
Ġg ray
ĠOper ations
ĠHow ard
aw t
text ure
Reg istration
T ip
ĠD a
Ġprov isions
ĠB ird
'] ))
ĠThe ory
2 30
Mult iple
h base
Dest roy
ĠProt ocol
ĠG er
ann ah
WR ITE
c amp
Ġ} ),
f av
h w
/** */
ĠW olf
b oy
Ġ urg
ĠF ed
> ${
Ġemploy ers
m ate
// !
T imes
Ġor b
ĠMat rix
sc an
Ext ract
Ġdead line
ĠAr k
/ #
ĠF ollow
c lic
ĠD J
Ġfacilit ate
Ġquad r
enn y
log ical
t frac
ric ulum
Ġcirc ular
S am
Ġform ats
t ax
ertific ates
Block ly
12 4
Ġem ails
Do ctrine
ĠS TR
ĠD ak
umbn ail
Ġdom inated
Ġkey board
avel ength
All ow
Ġgr ants
Ġ" #
M ASK
ĠS creen
ĠG C
al one
Ġimplement ing
Ġaud iences
Ġev ident
Ġg am
ĠK r
ĠĠĠĠĠĠĠĠĠĠĠĠĠĠĠĠĠĠĠĠĠĠĠĠĠĠĠĠĠĠĠĠ ĠĠĠĠĠĠĠĠĠ
f ar
ĠMc K
Ġl ifestyle
set Text
Ġabort ion
iph eral
ort heast
00 5
G F
ĠTechn ologies
B i
ĠT ar
Ġalloc ated
r ates
ail and
ĠStat ement
mark er
C over
Ġarray s
Ġens ures
3 000
io x
! </
Ġv iral
Ġc um
Ġan th
Ġter rible
Ġg it
Ġv ocal
Ġpublic ations
ĠH ans
Ġathlet es
Ġg ains
Ġphenomen on
Ġf i
ĠC ole
Ġen abling
en ue
ĠSh op
Ġprogress ive
Ġex tern
te am
ur d
ĠG ib
Ġmain stream
M art
ĠB ron
ĠH ills
v g
Ġt ort
ex isting
S eq
size of
Ï Ĥ
R IGHT
ĠH ell
198 1
ĠL eb
ĠP UBLIC
Ġem otions
Ġh align
Ġreflect s
ĠâĢ Ŀ
EN C
west ern
nof rame
Ġveter an
/// <
Ġcour ts
m x
Ġcour tesy
Ġin clusive
ro sc
th an
IT LE
ĠN ik
Ġg lobe
LP ADDING
W ORK
ĠCapt ain
ĠS urg
Ġseek s
con g
p es
Ġp or
ĠMar ia
Ġroll ing
Ġr outer
Ġun iqu
ĠEd ge
ĠAdv anced
Ġst rain
TE S
5 000
}} $,
Ġhost ing
ĠMiss ouri
Ġcelebr ation
Ġmoder ate
10 16
Ġtack le
Ġcool ing
reg istry
ĠP as
ĠP ackage
ter ed
Un iform
Ġj ew
G M
Ġc ss
Ġpe ers
Ġsub str
* >(
ĠUp dated
ĠString Builder
Block s
Ġinn oc
Ġbl ame
ari ance
enc il
Ġcrypt oc
Ġr s
. ")
V R
pro duction
Ġh ub
ĠW E
k ed
() ">
Dest ination
> .</
19 79
ĠCEL LPADDING
C ookie
Exp and
Ġshould er
Ġph ones
ĠCEL LSP
ĠRes erve
ĠCELLSP ACING
c losed
ĠP oll
ogen ic
ĠS ay
t rain
Ġdist urb
Ġclose st
ĠF ramework
che stra
s elling
Ġequ ilibrium
initial ize
Ġguarant eed
Ġl ucky
af ka
ĠWIT H
Ð¸ ÑĤ
Ġmanufact urer
pl ant
writ ing
order ed
Ġcy cles
stat ement
Ġs wit
anc ouver
ĠAp pe
Ġcomp iled
Ġsynchron ized
ĠAdd itional
=" {{
Ġwork place
b age
ĠK am
ĠQ ual
Ġo l
Det ector
ĠExper ience
ops is
Ġclub s
Ġsh apes
ĠQu ant
ĠRev olution
Ġs ends
Ġp ounds
Ġcell spacing
ĠArg ent
ĠS K
se en
M usic
S at
ĠCo q
Rece ive
Ġgener ates
om eter
ol utions
}} $.
NG TH
h uman
man ifest
Ġin coming
C a
b matrix
ĠAfghan istan
Ġal location
Equal To
T LS
ĠMag ic
ĠS B
Ã º
rac ed
Ġneighb ors
################ ################
H idden
mat ory
//////////////////////////////// ////////////////////////////////
Ġph rase
S un
Ġderiv ative
Ġcl othing
z i
Ġar med
P a
ĠC os
ĠR ub
Ġt ap
Ġadjust ed
ĠO il
ĠEn able
ĠK ids
Ġder ive
ĠLead er
Ġconfig urations
G ateway
Ð ±
Ġorder ing
ĠEp isode
Ġdes ert
Ġeng ines
Ġprotocol s
app s
F ill
Ġcritic ism
â Ķ
" }
ĠM ail
Ġliber al
ĠB uck
Ġinj ection
ir ates
Ġ( #
eral d
MPL ATE
RO OT
Ġearn ings
Ġadministr ative
Ġentreprene ur
ĠD ur
ĠAd ams
_ -
am ination
ĠPre vious
Struct ure
ĠStr ateg
ĠS pect
Ġdr ives
ĠPolit ical
Ġl l
ĠTH IS
Ġl iver
SER VER
Ġindepend ently
ĠS R
m ers
Ġodd s
er ious
F ake
ous es
lo v
Ġcred its
Ġst abil
L ang
S al
ĠThom pson
Ġdelay ed
ĠAgain st
) >
Ġconsist ency
Ġcross ing
Ġwild life
ĠAL L
ĠB ull
Ġwarm ing
a ac
b undle
t uple
** *
Ġmod ification
h is
Ġc ognitive
Ġhe m
Ġm esh
Ġun ve
our t
ĠSy ria
Ġsimilar ly
ĠOr leans
U sed
Ð¾Ð ´
Ġexception al
Ġtalent ed
ĠSwed en
W rap
h ill
]( #
Ġt ie
Ġme al
Ġhousehold s
Ġeast ern
get s
p k
Ġg lyph
Ġcomput ational
Ġj uris
Ġprom ises
Back end
Lear n
Ġmind s
Ġhe x
R NA
pack et
ĠPalest in
ĠIn iti
+ "
pro c
ol itan
com par
D X
y outube
l arg
ir i
ard ed
ody nam
Ġcompl aint
with out
W arnings
z ens
Ø ³
ref lect
rack et
ĠMar ine
Ġnav igate
Ġconcent rations
re nd
FORM AT
CON ST
! =
Ġflex ibility
Ġvent ure
o j
osc ow
ĠG all
RE AM
Ġpl ug
Ġflow ers
Ġl in
pre view
r ise
Ġs orry
min ipage
end ors
ĠBet ter
! (
O G
\ {\
ĠD al
Ġinitial ized
Ġb ullet
I ll
ĠAdd ed
C trl
ĠHun ter
ĠCONDITION S
ĠS ale
Ġsure ly
Ġtra iler
interpre t
Ġt ar
ĠE rr
ampl ed
ĠU V
Ġground s
p read
Sim ilar
ĠPhilipp ines
w ick
ĠN ash
? (
df s
ĠRequ ired
Al gorithm
f are
Ġport s
pr ises
WE BPACK
ĠLaw rence
Ġs pher
Ġ======= =
Ġat omic
Ġbet a
Ġdig it
quir y
Ġent ropy
ĠT ik
Ġstraight forward
B ag
ext ract
) &
H int
Ġb os
B ench
Ġcon form
so ap
ĠDrag on
( `
M AC
Ġillust rated
ĠEvery thing
input s
() `
Ġr ival
Ġimm igration
lades h
Cred entials
j ud
Ġind irect
Ġstrict ly
p oll
Ġp ill
ĠF iction
ĠForm at
Q t
ul ates
Contin ue
ul ly
Ġbuild s
gr pc
Ġabsor ption
part ition
N D
Ġanaly tics
s With
AT O
ch rome
Aust ral
Ġparticip ating
Ġa est
Ġto String
F ast
ĠJ O
Ġbr ut
CO VID
overs et
B ridge
inst ein
igg ers
the ad
Ġcult ures
Ġret ired
Are Equal
---- ---
ĠM illion
i pher
apt ers
Ġal arm
Ġdr um
Ġdel iber
gl as
d og
S ever
g row
æ ĺ
App le
Ġstock s
ĠMar shall
m ms
ĠE lection
Ġcor ruption
Ġwire less
Ġbare ly
sl ash
g un
ĠG ordon
ĠV eter
ĠCh ap
PRO TO
t bl
Ġrem oves
lect ric
ERT Y
ynchron ous
ĠR ank
Ġtravel ing
ĠÃ ¢
C amp
ts burgh
Ġhighlight ed
ĠE R
ĠC ry
ĠR ot
uc lear
Ġwarn ed
ĠN ear
PI O
Ġvari ants
ĠPut in
P adding
ĠG T
ĠAg ent
A ir
! \
Will iam
ĠPhys ics
' },
r ans
,\ ,\
Ġsav ings
OT TOM
Ġrun ner
s ources
: %
Ġrepresent atives
Ġj e
File System
Per cent
Ġold est
li est
ob s
Enc oder
ĠO THER
De ep
ĠDef inition
Ġp our
St yles
d td
ĉĉĉĉĉĉĉĉ ĉĉĉ
ra ctions
Ġrender ing
Ġfem in
Ġsh it
ĠL ocation
Ġs el
Ġ( `
Ġatt itude
Ġview ers
è ®
Ġtum or
sub scription
ĠL ane
Ġz ip
ĠBAS IS
ĠAnd y
Ġbank ing
Part ial
Ġm ixture
ĠB run
Ġpurs ue
ĠM other
ĠPro file
place holder
ĠM eg
U ntil
Ġtour ism
O O
Ġcos m
vent ory
re ply
Ġto gg
ĠJ oin
Ġreal istic
ĠPr imary
ĠMaterial s
Ġm eters
Ġperform s
St d
" ])
Ġst ub
Ġdistrict s
Ġok ay
Ġp ad
res olved
ĠW oman
ĠProf essional
Ġneigh bour
St age
ipp i
Ġcomp ilation
Ġsynt hetic
Ġo w
ĠF ather
ĠG ary
u ity
f und
S printf
ĠC M
Ġref lected
IMP ORTED
ĠAppend ix
ag netic
Ġadapt ation
Ġret irement
Ġ' ')
Ġcall er
v d
Ġp ipe
Eng lish
Ġbur den
S B
Ġtarget ing
Ġp ione
Ġposs ibilities
d ue
us ive
ĠChar lie
Ġspec ification
Ġcl ause
ĠV i
ant i
br anch
Ġcry stal
Ġfol k
pe ople
ĠOlymp ic
d eveloper
ĠDet roit
V I
Ġbon us
Î ·
Ġconven ience
Ġorgan isations
Ġaddress ing
Ġaccess ed
fin ite
Ġenc ryption
^^ ^^
Ġpos it
Custom er
ĠL ot
55 5
qu er
Name Link
U pper
ĠM ilitary
ffic ial
to o
ĠCo oper
J ul
Ġlight ing
Ġam pl
Ġenthus i
ĠH im
Ġh ip
Ġaccept able
u pt
ĠN at
ĠF ixed
F ace
ĠPh one
ĠH ung
ĠR ules
w ire
ĠA DC
en ario
Ġr anks
separ ator
ĠS ac
ph ony
level and
ene ath
---- -
New ton
ĠGrow th
ĠS now
Ġv on
b ul
Ġ" ;
ĠM uch
ĠH ug
ĠRe ce
St e
jack son
e or
l ua
t iny
ĠU rban
work er
Ġh o
Ġtrigger ed
Ġquant ities
D ist
Ġdeterm ining
ĠZ one
Ġcent uries
art icles
pos ing
ĠInvest ment
Ġs ig
Ġf ert
Ġep ic
d id
Ġsh orter
ĠAb b
ĠParam eter
STR UCT
Ġrecover ed
Ġdef in
Ġemer ged
et o
ar ound
Ġaccomp any
$ ),
Ġcan nab
ĠCON FIG
S uch
p d
Ġview ing
& $
Ġexclus ively
ĠO d
Ġvirt ually
se ctions
em a
Ġport rait
Ġag gressive
Ġsol ving
Ġh ung
EN S
i w
Ġ/ ><
ĠFe atures
Ġcelebr ated
ĠR y
Rel ative
iss on
r h
Ġhit ting
D Y
Ġgr ateful
ĠB rew
ĠAssoci ate
ĠWrit ing
ĠS ET
look up
Ġpopular ity
ĠG round
Ġpoint ing
ĠChall enge
Ġb ot
Americ a
Ġwork force
Ġpropos als
Ġsm oke
Ġener gies
AR B
Ġsepar ately
Ġr iding
Ġen emies
Ġgovern ance
am matory
ĠTok yo
Ph ase
ĠSet tings
dir name
ol ars
INST ANCE
Fr ont
c py
comm unity
Ġacqu ire
Ġc ust
Ġviol ation
Ġt ension
ul s
ĠNot ice
m any
F ROM
}$ )
Al ignment
sign al
Ġp c
12 1
p ipeline
ĠSc i
ab ad
Ġc c
Load ed
ĠChar acter
Ġl ying
Ġprefer ences
el ing
W elcome
ĠB R
as ures
ĠM ET
RO W
Ġexpect ation
n als
pro f
ĠI ron
Ġad mission
ides pread
Ret ry
Ġen orm
FLA GS
p riority
h h
ĠE u
cel ona
Ġburn ing
ro ck
Ġmand atory
Ġdifferent ly
Ġtrans itions
Ġt u
ĠP ear
ĠOk lahoma
D a
O ps
Ġobject ives
Ġstake holders
ir atory
comp ress
æ Ī
Ġph osph
ĠAn imal
Oper and
19 78
æ Ĺ
Ġre serve
Ġpul se
ĠIn fo
&= &
s ame
Att empt
ĠS witzerland
Art ifact
ĠS eg
On line
J O
ar ith
ĠI MP
ust ering
G G
ĠCamp aign
TR A
Ġcomput ers
ĠSO FTWARE
C Sharp
Ġm ales
Ġin ev
Ġlaw yers
ri el
n ate
ĠD elta
S heet
Ġaccess key
ĠPhil ip
AUT H
Con version
Ġob server
ĠCast le
Ġmar ine
ĠB ah
ĠĠĠĠĠ Ċ
Ġexpect s
och astic
------------ -
ME SSAGE
ol as
sche me
Ġdiam ond
F it
Ġ# #
Po jo
uck er
Ġpro s
ĠSt age
Ġt rem
g lob
Ġshort ly
Ġ[ {
st roke
Add itional
ĠH aving
s leep
ĠW right
F acebook
ĠC ome
ĠF DA
Ġver ified
fo od
l ists
Ġinter pol
99 9
Ġm ilit
k ubernetes
r x
Ġsole ly
Dis abled
o T
inc ipal
unit Pattern
Ġspec ifies
Ġdesign ated
E ast
ĠT yp
ph ab
Ġconv ex
g ray
Ġp s
ĠP ap
ĠJ u
id el
æķ °
respon sive
cor rect
Ġcancell ationToken
Ġfollow ers
ong s
ĠPh ase
ens on
3 20
E LEMENT
<? >
Ġven ue
d ump
i ating
W alk
ĠProduct s
} )$,
d type
S ent
h ort
sh ots
W ar
ĠR T
ov iet
Ġprotect ing
Ġaccompan ied
Ġd ys
Ġproject ed
non atomic
Ġextra ordinary
ĠMov ies
Ġfasc inating
Ġcons ensus
M ass
Ġpro l
ĠE state
Ġ< ?
Ġver ification
Ġb il
N ested
Vari ables
v ised
Ġqu ot
ĠDu ke
Ġland ing
Ġaggreg ate
MA IN
__ .
ĠK ate
sh ops
id o
qu estion
D MA
S ender
Ġprotest s
) +\
Ġ ì
Ġmount ains
Ġc av
so ck
Ġsusp ended
Ġsmart phone
rint f
Ġ\ &
n ut
re ng
Ġadvant ages
ĠPro duction
Ġp iano
oc on
li ps
Trans lation
Rober t
ĠX ml
ram a
Ġadapt ed
f ers
re le
ĠT ypes
ĠR ES
ar ms
Ä ĩ
Î ¼
an ne
ir ts
:: $
ĠV ery
ond a
Ġbroad er
ĠM os
Ġwor ried
ĠC B
HO ST
St mt
Ġhard ly
ĠD VD
iss ippi
Ġpoll ution
uff icient
Ġdi abetes
Ġnot able
fil er
atter y
Ġn ick
Ġj ail
apeut ic
Ġcomp ression
ĠQ uality
Pay load
j amin
Ġbar rier
res olution
Ġtrust ed
Author ization
May be
Ġsu icide
Ġrom ance
ed ly
Ġconsider able
l iteral
) -\
IC S
Write Line
Ġconnect ivity
ĠStruct ure
Art icle
Ġdiam eter
Ġtempor al
urs es
L uc
Ġn od
ĠTre nd
Ġinv oked
Pres ident
Ġsp oken
Ġsett led
Ġprot otype
Ġsil ent
Ġob l
c ence
S ink
Ġseem ingly
g ender
Stack Trace
ĠM enu
Ġre cre
Found ation
ynam ics
Ġassess ed
ad ows
se p
ĠA BC
Ġr ally
ĠJenn ifer
Ġor ange
one percent
S ig
Ġgather ing
it ious
ĠRe ports
Separ ator
Ġfor cing
Ġres ort
LIN K
Ġat om
ategor ized
r ust
\ ":
igh bor
ĠN i
ep age
Ġpass age
Ġan cest
Ġ Å
ug ht
Ġphot ography
: &
Ġwh ilst
act or
Ġmax im
iz za
F our
Ġtri ple
Ġtouch down
Ġpsych ological
!! !
Ġbench mark
ot ypes
F oo
ĠD evelop
16 8
Ġco in
ĠM yst
Ġprom ised
spi racy
19 0
Ġsurv iv
: }
F IN
Ġse eds
L im
Ch at
Ġf ut
ĠU TC
oss il
Ġabund ance
Ġsub mission
ew ise
Ġre try
Ar r
Cred it
Ġtrans it
C art
ul u
Ġinter vals
Ġcontain ers
per mission
Ġun n
Ġscr atch
sequ ently
ij ing
// ----------------------------------------------------------------
Ġp ra
Ġab road
ĠAll ah
ĠL ore
Ã ¥
L ess
C apture
Th reshold
Ref resh
Meta Data
C ss
chedul ed
Ġcor por
w indows
ĠM ach
Ġr c
back end
] *
d m
Con struct
Ġinvest ing
ĠNO TE
Ġpre view
Le ave
ic ut
ig ue
stream ing
Ġinflu enced
Ġvac uum
ĠGirl s
ĠAl an
t ables
in fl
Ġanim ated
19 75
block s
Ġoper ates
ĠI ce
R atio
ĠChel sea
Ġphys ically
Ġlett ing
Ġcas ual
us c
Ġtit led
ĠÐ ¾
Ġrepeated ly
ĠSimilar ly
du ces
Ġrad ial
Ġdeterm ines
pp y
å Ń
ĠB oot
ĠJ oy
ig o
C atalog
mult iple
Ġacknow ledge
Ġindic ator
Ġg all
ĠM ade
Ġcook ing
ĠComp etition
h int
Ġagric ultural
Ġdev ast
Ġan ime
dest ination
Ġg race
ĠY an
ĠPract ice
Ġl on
ĠR ic
Ġex cluded
ĠA aron
An notations
Ġt ies
Ġthe atre
Tr ump
J ournal
Ġd s
Ġhor izon
ãģ ®
ĠLin coln
b ank
Ġab ilities
e ast
Ġw is
ĠM om
Al t
Ġlocal ized
ĠInd ependent
Ġ(! (
to Equal
Ġr ounds
onom ous
ounc es
d evelop
ĠO cc
Im ages
ĠT emplate
ĠAnt i
Ġsens ors
ver b
Ġ" [
ĠB ab
Ġed ited
am an
ĠR ain
y our
ort ex
ĠCent ury
B rit
Ġphotograph s
Ġinter faces
Ġbeg un
Ġg ard
Ġl ady
re verse
rece iver
Ġ utils
Ġaug ment
au i
pre vent
Ġfrequ encies
ĠValid ate
Ġindepend ence
n m
Ġinf ected
17 5
Ġbrief ly
Service Model
es a
. ');
C ert
Ġd y
PREF IX
; ,
ĠK a
plic ated
ID S
Ġplace ment
ĠTreat ment
Ġsp o
ele g
help ers
Ġsoph istic
Ġwarn ings
draw able
cam era
is ot
Ġfe as
Ñ Ī
un ate
Ex change
std err
Ġrepl acing
Spe ed
ĠSt ars
ĠKent ucky
Ġn ose
Exp ressions
> $
Ġappe aring
ampl er
P an
Ġattempt ing
end region
Â ±
Rad ius
Ġw ra
ac co
19 76
Ġsurve illance
as a
Ġestablish ment
Ġscript s
ĠStud ios
Ġfail ing
Ġstay ed
ĠB L
N OS
ou rier
Ġdis cret
get Key
ĠCon sumer
d ataset
Ġdo zen
effect ive
ĠEnter prise
ĠCom b
c atalog
Ġp reference
36 5
Ġansw ered
tog ether
| _{
Listen ers
G over
P K
Sh ift
Ġpy thon
In jection
for ced
Ġther ap
Ñ İ
int o
Pro of
\ )
ag greg
S us
MA G
STAT IC
ĠF reedom
ĠSt even
19 77
ĠAn na
P s
over ride
Ġfle et
Ġar row
pack ages
Ġdet ector
Å Ĥ
ĠBru ce
Ġrandom ly
ĠBet ween
remove Class
ĠV A
ĠZ ero
Ġlik elihood
Ġnob ody
sc ene
Al ign
Ġfem ales
ur ches
Ġs phere
bet ween
ĠRE AD
è ¡
Ġjo ins
× Ķ
FUN CTION
Y S
att en
MS G
ra ham
Ġport ray
Ġsurround ed
Ġde composition
xx xx
ant ics
R oll
mod ified
ĠA UT
GEN ER
LE NGTH
Inv oke
T or
Ġdist ances
f our
ĠÃ ł
Ġrom antic
numer ic
epend ence
ĠG ray
Ġaccept ance
L com
ĠE SP
el lo
. ),
Ġpower ed
Ġmolec ules
ad ies
emp loyment
Ġs ink
je ctions
ĠA ve
ĠZ e
ymmet ry
Ġdel ivers
olog ically
âĢ¦ âĢĿ
G UI
ĠS ymfony
S il
sec ure
A ff
ĠF ocus
CL U
ĠAnton io
ĠEmer gency
E lem
E mb
i ota
ĠW ould
} "/>
Ġthere by
F RAME
R oom
v p
ĠAl aska
7 50
pre ced
Ġres idence
Ġlo ans
}{ (
ud ge
y aml
we ak
Ġcomp ound
Ġf ur
Ġpass enger
Ġhe lic
P aint
an aly
33 3
T witter
ul ent
Request s
+ -
ĠM ove
ĠPh oenix
Ġstay ing
ordin ator
Ġcy l
Ġsil ence
Ġan onymous
ĠInter est
S PE
Ġd oses
Pay ment
lot te
ĠW indow
Ġwalk s
add le
ĠB eng
Ġx si
C are
define Property
Tag ged
Ġuncertain ties
ĉĉ Ġ
ĠConst itution
Ã© e
Ġd ip
Ã ¸
the mes
ĠKen ya
EE E
Ġhe aling
Ġcal m
ĠW el
Ġal igned
Ġ' $
Ġcomm ut
ĠBe at
flu id
Th an
Ġut ter
Ġfood s
met ric
ĠInter view
Ġrat ios
ĠPol and
2 11
Ġegg s
G old
date picker
add EventListener
Inst ances
J s
Text View
sub scri
Type Name
oust ic
ĠF riend
em ption
us hes
ĠMean while
on z
? </
Ġd x
ĠP il
pl aced
Vis ibility
Ġ/*! <
Ġblock ed
par allel
ĠScott ish
ĠUn iverse
int age
H I
ĠC row
rows ers
Tok ens
ĠB rowser
Ġsp ir
Ġpro secut
Ġk iss
Ġcar ries
ĠV acc
Ġposs ession
stats models
Ġthe ater
ĠAr thur
Ġa str
ĠGra ham
sect s
I ENT
AD C
Call ed
User name
Sub mit
ĠBen ef
Tra its
` :
R outer
He ap
Read Only
ĠCl aim
Ġless on
or neys
Ġp tr
ĠLab our
WARN ING
Ġf iscal
c od
Ġsubsequ ently
. ";
Ġemph asis
F oot
rg b
Ġtox ic
sl f
Ġdirect ors
cs v
j q
Ph il
Ġrecip ient
vari ables
Rep resent
Ġw idespread
Ind ia
Ġl os
u els
ĠF em
Ġ$ ('#
path y
ĠA le
Ġautom ated
RE L
ĠÎ ¼
s ender
S IGN
Back up
Ġgraph ic
ĠB ed
ast ore
ĠUs ers
Ġanticip ated
Ġb orders
Ġdi agonal
ĠC ut
ĠMet ro
Ġinvent ory
ĠVal ues
Ġan ger
i q
qu ire
pan ic
Ġdeprec ated
P ages
E duc
UT C
Writ ten
Ġat oms
Ġcompos ite
sh ore
Ġjournal ists
L aw
ever y
ĠGree ce
D ataset
ol ine
ĠJ oh
IC AL
in ely
ap l
12 6
iv ot
long rightarrow
Ġharm ony
å ľ
um ing
ĠG ram
ĠTh or
oss ible
sp ired
at ype
ĠW riter
ĠCon vention
cer pt
Cross Ref
ul o
2 10
Ġover se
Ġart istic
Ġrul ed
ĠComm ons
ĠIP v
ĠE li
/ '
TE MPLATE
Ġdeploy ed
uff le
urch ase
Ġdis ability
Ġ/** <
27 0
ir s
Ġin struct
UP DATE
Ap pe
Fore ign
ĠX box
ĠG M
ĉ ĠĠĠĠ
ĠCre ated
Ġman ually
N F
Ġc ited
Stat istics
ĠS el
process ing
Ġun s
or ious
Ġe leg
ĠEx amples
Ġrepl ied
Ġpregn ant
ĠA qu
cast le
Ġden oted
F un
à ®
ĠP anel
ĠV AR
Ġred shift
Ġn erv
Dep artment
is ol
ĠW ire
ps y
ĠE L
Ġin h
az el
i ang
Ġblock ing
ĠH oll
Ġisol ation
Ġemb edding
Ġimportant ly
Ġsh ops
ĠBang ladesh
G l
Ġt ick
Ġ' </
ogn ition
ĠT ro
ĠS ometimes
Ġg allery
ell ers
Ġpublish er
ograph ical
Ġinv asion
C y
Ġt ear
Ġsix th
Sur face
Ñ Ħ
Ġwe igh
Ġsh ifts
Ġagric ulture
ĠW ard
R ay
ĠG A
local s
LE VEL
Ġobtain ing
Ġliter ary
Ġelim inate
ens ively
str y
ass ion
tr ivial
Ġsw ing
Sub scri
Ġaffect ing
ed ges
T ables
ĠA y
****** /
care t
Dep loyment
b u
ĠSche dule
ĠObserv able
ext ends
com fort
second s
ĠAct ivity
Dec ode
Ġcomp atibility
Ġbott le
open api
ĠPat ri
Ġd ining
ĠĠĠĠĠĠĠĠĠĠĠĠĠĠĠĠĠĠĠĠĠĠĠĠĠĠĠĠĠĠĠĠ ĠĠĠĠĠĠĠĠĠĠ
Ġvolt age
ex clude
ig uous
Ġabandon ed
Conf irm
U k
V S
v ature
Ġcar rier
ĠRem ote
hen s
f m
ĠN elson
Mean while
pe er
ey er
ĠP ick
ass ment
ĠF ly
Ġdev iation
Ġar ise
pos er
ash i
}} )
Ġapprox imate
Ġdistingu ish
Ġregard ed
Ð ³
J P
16 9
ĠF ight
Ġpseud o
config ure
is Array
g ui
fect ious
é Ģ
Ġal i
Ġmeas uring
P ing
sen al
Ġatt ending
Ġwant ing
Ġkw args
F all
ct l
Ġel ite
olog ic
c art
All owed
al gebra
Ġclean ing
Ph aser
prec ision
Ġreal m
UN K
Ġrid ic
Ġmarg inal
log ic
Ġe ager
Ġgr pc
Ġencounter ed
ĠRob inson
Ġshel ter
ur ities
C AP
ĠSen ator
ass et
Ġprem ier
FFFF FF
Ġrac ism
Ġlov ely
F at
Ġvar ied
D imension
Ġd ashed
Ġmount ed
Ġf ought
ĠY ang
ad just
ab ul
string ify
ot er
ĠFant asy
ĠĠ čĊ
Ġ$ ,
Form er
ro b
ĠDen ver
}{ |
Ġli ability
Ġrank ing
Ġes c
Be havior
ot or
dem o
olec ular
Ġde ck
Ġd uties
Ġ" +
Ġgrow s
Ġh orses
uk i
g ie
Ġcomp elling
ĠC ape
ac les
do es
x l
Ġcontribut ing
ĠB aker
ĉĉ čĊ
und les
ĠC ategory
road cast
Ġult ra
Ġdefe ated
Ġcir cles
Ġh ire
ĠSpe ed
Ġmax imal
Ġst ere
Ġr amp
Ġm apped
ĠV ancouver
Ġcre ator
19 72
ä¸ Ń
Ġp arks
Ġmer ged
ĠPos ition
() ]
Ġc p
ĠR u
Ġh ired
Ġabs ent
ss on
her ence
serial ize
Ġ$ |\
ĠClass ic
Ġattack ed
Ġcloud s
NotFound Exception
19 74
, {\
19 73
Pro c
19 20
SQL ite
âĢ ³
me asure
Ġtrans parency
In clude
ĠH P
ĠSt orm
Ġbar riers
Pers istent
ĠM oscow
==== =
hed ral
Ġpers istent
ĠAc cept
pt o
Fil ters
ĠL IC
Part icip
ĠN an
Ġdemonstr ates
ĠL iverpool
Ġtop ology
Ġdiscrim ination
16 5
20 3
ĠInt el
Ġauthor ized
ĠC AN
NAME SPACE
act iv
)) $
im ag
Ġcomb ining
ĠK ings
copy right
Ġper pet
Ġf erm
text area
Ġexperi encing
end ant
H ot
Ġmob ility
Im mutable
Ġrep o
Br anch
14 5
Ġang ry
ĠCom plete
] =
ĠCon structor
over lay
Th rows
Ġcre ativity
Ġ um
Ġste am
S ources
Ġmyst erious
Ġaff airs
Ġbelief s
Com ments
Fil ename
ess ing
G reat
if rame
ĠN am
Ġc fg
ĠR A
Dis patcher
C tx
Ġc ere
Ass ignment
f ather
ĠHealth care
pos able
sub Nav
AA AA
Ġw age
Check er
âĸ Ī
Ġtra ins
Ġsuggest ions
o ft
t z
19 30
pos itive
Ġhand lers
Sign al
Ġengine ers
ĠM is
Ġl ymph
ĠR acing
Ġfoot age
F IL
ĠĠĠĠĠĠĠĠĠĠĠĠĠĠĠĠĠĠĠĠĠĠĠĠĠĠĠĠĠĠĠĠ ĠĠĠĠĠĠĠĠĠĠĠĠ
ĠJob s
Ġcompet ing
empl ar
ĠStat istics
) })
Ġnot ing
add er
ĠMon itor
String s
Ġbacter ia
Cl aim
ĠW W
Ġcorre ctions
Ġwork shop
Y P
ĠCap itol
Part s
Ang le
ev a
ot ton
ĠTechn ical
Ġtext s
ĠArab ia
Ġtransl ated
Ġcontrovers ial
h ole
s ized
Ġqu otes
ĠD ist
id i
ĠF ILE
Ġrat ings
ĠLabor atory
ĠG ive
Ġad equate
vers ions
Ġpick s
ĠIn it
ĠHar vard
Ġrefer ring
Ġt emplates
Ġres idual
ĠV M
Ġmist akes
^* $
ĠProgram s
bo ards
N EXT
= .
S PI
Ġf usion
st mt
> /
Ġrenew able
C apt
ĠĠĠĠĠĠĠĠ čĊ
Ġdro ps
un iform
ri ors
d ensity
Ġproduct ivity
Ġjud gment
Ġeth nic
Ġintrodu cing
q q
ĠG TEST
ĠM ode
Ġbel oved
ĠCon struction
ĠAt omic
ĠCommun ication
Ġra ises
ĠPort land
Ġs ons
St ation
Ġperiod ic
ĠF red
---- --
Ġhold er
k ar
control s
Ġcon vey
Ġex pense
ĠCar ter
ĠCO MM
it ter
Ġnon linear
Ã ł
r ug
qu et
DI RECT
h p
Ġback ed
ĠD ance
Ġtra uma
Ġhe ating
tok ens
% ),
G a
ah oo
ic he
Ġchar ity
MA KE
Ġdist ribute
Ġb rew
- ">
d frac
ĠL ater
ĠPublish ing
Ġsem antic
Ke ep
get Text
Ġ} .
Ð¸ Ñı
ĠHigh way
ĠP ART
T ick
13 6
Th ose
Ġlaun ches
Ġexplo red
air y
ord ination
Ġbond s
tensor flow
Com plex
Ġfor um
="@ +
Ġmut ual
Me asure
14 7
Ġqu ark
Ġt ub
ĠQ String
Un able
Ġclass room
qu ick
j ournal
H uman
Ġserial ized
$ {\
Ġcount ing
Ġalleged ly
an imate
Ġalbum s
ment ion
ast ro
Ġown s
ĠSe an
R F
t emplates
Ġf ixture
B s
Ġsub tle
ĠComp anies
Ġclaim ing
ĠF eed
Ġf d
Ġz ones
ĠInter face
ĠBrook lyn
ud o
reg ex
ĠA lice
ĠF alls
Tog gle
ĠMar c
ĠSever al
w ear
12 9
Ġne arest
Ġsm allest
Ġgeneral ized
ĠRest aur
p ic
Ġtun nel
Ġport al
Ġprint ing
Ġb lob
ah a
Ġis ot
L atest
Ġh ill
log y
Ġengine er
conf irm
Ġdecl ined
Ġdir ty
Ġk iller
ĠT a
ter ms
Ġcomp ounds
ĠRes et
Tag Name
ĠG ot
ffff ff
d ale
Ġp ose
Ġb eneath
Ġim posed
ĠIN T
Ġdeg rad
Vari ant
Ġm ature
ĠIm prov
eh icle
Ġd ying
Ġform ing
ĠQ atar
itt ers
Ġcur ious
( @"
Ġefficient ly
Ġc atal
er k
ĠC ONT
Ġtr unc
Ġdis h
}\ ,\
dd ie
19 40
ĠD ATA
Ġcomp ly
ĠFact ory
Ġinterpre ted
s chool
ĠQu ick
ĠS L
Ġpr icing
app ings
ĠPrad esh
oll ar
ene z
le af
Ġsu pers
Ġen zym
Ġminor ity
Ġsp arse
ĠB irth
ĠD rop
ĠT ensor
ĠL aura
Ġpl ates
sh arp
Ġpres um
has OwnProperty
Ġg ross
ass ador
Ġhun ting
f red
at iv
if ice
valid ator
ipp et
Ġover lap
ris k
Ġ[ #
sm art
ĠE DT
fin ity
W O
Ġal ien
Sh adow
Ġfilter ed
ĠA CT
Ġso ck
Ġdecre ases
ĠF ederation
math op
ct rl
ĠDemocr at
External Task
c u
int endo
13 8
Ġqu it
ĠT oy
Ġre ception
ĠB art
ĠI an
Rece iver
in herited
ĠP I
fail ure
Java Script
com merce
ç »
ib bean
ĠJ our
sw ap
ĠC itiz
M iddle
t ake
Ġnov els
Ġmin istry
ĠSum mit
ig a
T OP
Ġextra ction
Ġ{? }
Ġinvestig ations
="# "
Ġund ers
Ġl ambda
but tons
n ik
Ġst olen
Rout ing
ĠMel bourne
ĠNE W
Part y
=' #
Con v
ĠAn alytics
Ġf illing
th ick
ert o
iev al
Ġ ../
2 60
ĠS ent
ĠOr ange
Ex cel
Ġcub ic
19 68
ffect ed
ential ly
ER Y
ĠPart ner
PA SS
ĠCurrent ly
{ })
LO AT
Ġimp ression
Ġconst expr
Ġtown s
ĠSt ev
Ġfluct uations
ĠLu ke
. ).
i ator
ĠR PC
Ġqu oted
Ġdes ktop
Ġep och
mod ifier
om i
ĠCh ron
f aster
Ġf ingers
ĠK rist
sub str
ĠP i
ĠT ru
By Name
ĠP ain
H ide
Ġenjoy ing
ĠS chema
Ġbreak fast
Ġlumin osity
Ġfall en
M or
Ã ĥ
Ġt ape
Ġdead ly
alt ies
Ġsto pping
iv an
=- =-
ĠPro gress
Ġr ice
B ill
miss ing
Ġad apter
ath on
ĠStew art
@ {
ĠCO L
M a
Ã ½
Ġly rics
Ġgenu ine
Ġworld s
Pr imitive
t ot
or ate
Ġb ab
Ġconv in
ï¬ ģ
assert False
Ġvacc inated
15 5
Ġvol atile
ĠG ulf
Cap acity
g ly
Ġt ons
Ġdat etime
N ever
ĠC le
em et
Ġev olved
19 69
Ġtest im
per formance
Ġste pped
Ġencourag ing
Ġbal anced
it ual
ĠTh ailand
TO OL
u art
Ġg rain
Ġbut ter
br as
Ġmet all
Ġdep ict
Ġs ne
Ġd type
w so
Ġn ights
se ek
Ġw elfare
M en
Ġa apt
Ġthrow ing
ai ro
Ġo c
ĠTurk ish
(" <
ĠGener ate
c ord
13 4
Ġthreat ened
ick y
E U
ĠS ony
Ġdef ence
Ġpassion ate
Ġsp ell
Spe aker
Ġrock s
Ġbenef icial
ari ju
H P
N ING
Ġvolunte er
vert ed
ĠTh ink
BUIL D
um bs
á »
Ġfin ancing
Ġint ra
Ġto wer
ĠØ§ ÙĦ
ĠS afe
[ [
ĠA my
Ġtrans mit
Ã¡ n
ĠMet al
Ġspecial ist
="# ">
ĠPer iod
Ġcompl aints
ĠInd igenous
CA A
oth y
Ġsurve ys
it ud
Ġlo ose
Ġte eth
å Ľ
Ġpet ition
Ġman ifold
2 25
Ġc s
Ġre ceptor
ExternalTask Pojo
p ent
ĠFl ow
Ġcollect ing
ĠN ad
Ġcond em
ma jor
del im
b x
Ġs i
ĠC er
Ð¾Ð ¼
ĠL isa
ĠC leveland
Thread ing
Ġsecre ts
Ġphot on
ĠKenn edy
CON F
r ino
Ġsh oes
CP U
Ġslo pe
L arge
Ġsusp ension
ĠBalt imore
Ġtraject ory
Ġre open
ĠN J
Sm art
Ġfil ing
ariju ana
>() </
c id
op les
Ġex clude
D igital
Ġprim itive
Ġon click
K W
Ġ(! $
mon ary
b ecause
Ġrefer enced
m achine
ect ive
ĠRem ember
d iction
More over
Ġle ver
Prot otype
Ġw avelength
Ġj azz
ĠT an
ĠBi ology
Ġh iring
Ġdepart ments
eb ook
ĠAl ert
iz ational
comp act
Ġs its
ook ies
ĠEth iop
get Property
he ld
Ġinst itutional
Ġheart s
] $.
Ġsur ge
\ ;
Ġinvestig ating
Cre ation
HAND LE
ĠF el
LE ASE
ĠPark er
ĠR oot
Ġdocument ed
t cp
Ġhom eless
ĠT ob
Un lock
Ch ris
Rad io
Ġro ster
Ġtri ps
Ġenorm ous
t own
ock ets
P ACK
ĠCh arg
CON NE
ĠP ra
ĠIn cre
le et
IF T
H om
ag g
Ġoppon ents
M LE
focus ed
Ġexha ust
ĠWith in
Ġt une
Ġess ay
ĠMalays ia
Ġalleg ations
ĠEx pect
ĠF ern
Ġbo ards
ĠT ower
ĠArchitect ure
Ġre lying
ĠT el
Ġconf usion
iber nate
ĠA bs
Ġsol ved
Ġ( );
ĠMuslim s
Ġa ux
Ġle ak
en z
ĠV ision
ĠAb d
Perm issions
ĠM echan
Event Handler
ira ble
custom er
W hether
Ġshut down
C li
Ġbehavi ors
Ġ"- //
Ġcert ified
Ġw rest
Ġg al
ĠMa ine
Ġs urre
Ġde code
> ("
ric ane
ĠNew ton
Int o
Ġv ec
Ġj unior
ĠM ED
ĠD ig
Add ed
ĠOper a
m el
Ġaltern atives
Ġgrad ually
ĠColl ins
Ġc url
ra ble
ĠMiss issippi
in ates
ĠDe al
IN LINE
ĠBar celona
Ġf ate
ĠR at
st orm
ĠArch ive
Ø ¨
Ġ} {
Ġquarter back
Ġpost ing
ĠB eyond
}[ \
Ġoccup ied
Ġstri king
max cdn
Ġgr an
Ġconst itu
30 4
Dis able
Ġball ot
Compiler Services
Ġloc als
Ġres ume
Ġp arsing
Ġp g
$ _{
ĠAl bum
tikz picture
Ġt ent
Ġcon ce
Ġinsert ed
S cheduler
Ġb reat
ENT S
ĠChrist ians
Ġjud ges
ĠF er
ĠPat tern
ĠN A
ĠDak ota
ĠB ear
M X
ĠB OTTOM
ation ally
o ct
Ġde emed
Ġrev ision
it ical
in th
art z
Ġpl ugins
ĠSt ack
ed a
ch annels
\ }$.
man aged
Ġchair man
Ġtem ple
st ub
Ġexplo res
ĠMor ning
Ġpo ison
ik h
const raint
V oid
ver bose
m ir
ĠS ql
DE C
script style
c x
Ġinitial ization
ĠGu y
Ġdimension al
ĠAdmin istr
Comp ilation
Mat ches
Operation Exception
ang les
Ġcond itional
m ine
Ġst om
ĠPat ients
ĠK ir
13 2
; %
Ġc ensus
Ġdiscuss ing
S ound
ĠR and
ĠN ap
orient ed
Default s
Ġreli ability
am ilies
ĠPit tsburgh
ĠOC aml
ĠS oviet
ĠC u
Qu ick
ĠSh ah
p ared
ro se
Ġauthent ic
Hor izontal
ĠTr uth
ĠR ate
Ġse aled
ILE D
ĠPre vention
ĠDi agnostic
Ġgold en
Ġlog s
Ġvess el
w al
Ã Ĺ
trans fer
u ke
ĠD eg
Ï ħ
Ġis set
Mod ules
ĠG host
Ġsc ar
Ġcancell ation
ĠCh anges
U TE
Ġtogg le
Ù ģ
DO WN
ĠDef ine
p romise
Ġsim ulated
Head ing
Ġchem istry
ĠCont roller
Ġint elligent
ĠMit chell
ĠTik Tok
In vest
bad ge
Ġhand ed
y ll
Ġback end
Ġaccompl ish
Ġf ool
rient ation
h ai
Ġexpect ing
it ations
Ġm art
ver e
Ġsh ame
11 11
ĠGover n
ĠIS O
Ġcancell ed
Ġmetab ol
TR ACT
net t
fin ish
iz ar
preced ented
ĠN ag
fer ences
Ġb ubble
' +
Ġtop ological
Mod al
Ġs ake
opt im
Ġline up
cons istent
Ġ' {
ĠMor ris
Ġco aches
Ġlegend ary
l r
ĠF riends
ĠV oice
St rip
Fil ed
ĠSw ift
Â «
She ll
ĠAgric ulture
ĠDub ai
Ġpack aging
Ġsum m
ĠF ail
Ġle mma
Ġbar rel
th a
ĠRel ations
Ġ" ")
Ġang les
k le
ĠYO U
Ġbl end
Ġoppon ent
Ġsupp ress
ĠMex ican
Ġret riev
v ation
Ġsp ac
rom agnetic
hat tan
ĠCour se
Ġh ab
ĠIndones ia
g uid
ĠCare er
Ġcom ics
eg u
Ġpre lim
0000 000
Ġweak ness
Ġcannab is
Ġdiff usion
exception s
ĠS erv
20 30
ĠUnivers al
f ight
Ġaltern ate
ĠS ad
om ing
Ġdifficult ies
ĠLouis iana
Ġtw ist
im plementation
C lock
t b
Ġd jango
ĠEl se
ĠUp dates
Ġcitiz en
Ġoccasion ally
Ġcollabor ative
ĠA thlet
end ering
u ator
te in
comp atible
G re
R eq
ĠSu ite
b ars
iv ic
Ġneg lig
ĠT ig
ĠC op
ĠK night
Direct or
Ġinter ventions
... ]
rop olitan
Red irect
hab ilit
Ġaud it
Ġcomb inations
Ġde put
ĠCo al
Ġa qu
ĠHawai i
or ange
Man aged
Ġa uction
ĠOr th
ĠPart icip
Ġl azy
Ġfl ower
Ġ} ));
Ġsec ured
Ġaccur ately
Ġgo og
con c
D ao
mys ql
DE LETE
ced es
] $,
ÑĢ Ð°Ð
ĠCom plex
å ¼
V IS
Ġt ends
0 10
NUM BER
ĠLay out
T ax
Ġwis dom
ĠIss ues
H it
Ġpo em
) '
ĠP un
ĠFl ag
IT S
Ġannounc es
W ed
Ġd w
ĠH unt
Ġpar liament
Ġsoc cer
Ġo ps
Ġbur ied
Ġ( <
Rev ision
ĠAl bert
Ġch amber
Ġpr ide
Ġachiev ing
cont rolled
ãĥ ¼
Ġkne e
O s
Ġoverwhel ming
Ġco aching
Ġparticip ated
ĠN eb
ĠP ow
au er
Ġkey word
s izing
load s
âĢ ħ
Ġcapt ain
Initial ize
enn ial
ĠAn al
am med
Ġsever ity
Ġr ush
Ġrem arks
s ay
Ġmag ical
Ġ ^{
Ġsuff ix
Ġl obby
ĠR C
ĠEx cell
Ġinc idence
Ġb ol
Dan iel
AR M
Ġadv ised
fav icon
Ġsh a
f requency
"> {
Get String
ĠBe ijing
ĠM oz
ĠBe ck
Ġnew est
ĠK o
} ~
ĠF loat
ĠIndust rial
ĠF err
ĠR ing
og ue
erm al
Ġref id
F ar
Ġr h
Ġroll ed
ĠF LA
20 4
ĠPal ace
, </
ĠF ont
Ġt ired
ip es
I BU
det erm
M ajor
Ġcou rage
Ġgent le
Ñģ Ðº
G N
w oman
Var id
ig rate
Ġvol can
Ġcop ied
ĠPr incess
Ġ! !
uc le
Ġdes erve
EO F
Ġb other
ĠM R
... "
P atch
b rit
Ġen semble
ĠApp ly
ĠMe et
ĠAm endment
od ash
ĠQue ens
ĠF iles
ĠTest ing
ĠWar ren
ĠLIC ENSE
Ġh aun
ĠF M
OP EN
rat io
ĠM aking
F M
Ġinteg rate
Ġdam aged
Ġcor rupt
Ġlabel ed
Ġfail ures
p arsed
Ġfl ush
less sim
first row
ĠF an
K S
s and
Ġarrang ements
ĠG ill
ĠT i
Ġactiv ists
ĠG race
Over lay
ĠDou glas
$ };
Ġsl ave
ĠN ep
phab et
Ġher oes
urrenc ies
et ta
19 67
Ġf iring
Ġch icken
IF Y
ve e
ĠNY C
ĠEm ily
Ġh ierarchy
ac ion
ĠNor way
ĠMan ufact
Ġtrem end
ĠS ays
ĠSh ared
big l
Ġtechn ological
Ġdro ve
her o
re strict
ĠDes cribe
ĠEvery one
Ġin cl
St ates
or us
aught ers
bel ow
F ACE
Ġlaunch ing
L and
Ġh anging
ĠBut ton
ĠCall ed
Ġpath way
res pect
Ġlim iting
f ive
Ġ\ ]
Ġforg otten
Ġqu asi
Qu estion
Ġprof its
Ġspect acular
ed ing
ĠST AT
w br
Ġoffer ings
Ġprior ities
Ġf ires
Res olve
Z end
> ../
H i
Ġhot els
Inv ocation
Comp any
ĠPy Object
J apan
Ġ// -->
Ġlab our
power ed
ĠS S
Ġdo zens
go al
ĠD iamond
Ġminim ize
Ġ ÑĤ
Ġche ese
[ ],
Ġj ury
ĠH ousing
ĠMin or
ipl inary
M icro
^{ *
Ġwh is
Ġ" :
ĠV ert
gu ard
Ġsome body
Ġf ed
ĠId entity
for um
or ig
Ġp ocket
Ġpl ots
RE ST
P eter
Ġann ually
Ð» Ð¸
Interop Services
ĠF R
ĠEx hib
Ġsm oking
Ġunder ground
ĠValue Error
ĠR achel
as ive
ĠIn stance
ĠSus an
script size
abs olute
Ġsophistic ated
t alk
um ble
13 9
nos cript
ot he
neut ral
Ġpick ing
Ġelement ary
ĠA w
Ġcont rolling
ili ary
Ġcontinu ously
ordin ates
n io
Ġse am
cons ider
A IN
Ġg aps
ST EM
Ġdet er
ĠWay ne
Ġprov es
Ġhum or
Å ¾
Ġper ceived
Ġsus pected
ĠEconom y
ĠS yn
ĠMad rid
B log
× ¨
Ġsynt hesis
empty set
Ġcons iders
in verse
14 3
Object Meta
* .
Ġeffic acy
su ite
Ġshift ed
ĠT un
comm ands
Ġrecon struction
Ġcontact s
Pred icate
ĠN BC
ĠSt ri
Ġb ags
ĠAdd s
V T
ĠHistor ical
A CTION
ĠL ost
Ġdraw s
ĠS ure
ours es
" </
Ġdev oted
: **
ĠĠĠĠĠĠĠĠĠĠĠĠĠĠĠĠĠĠĠĠĠĠĠĠĠĠĠĠĠĠĠĠ ĠĠĠĠĠĠĠĠĠĠĠĠĠĠĠĠĠĠĠĠĠĠĠ
ĠMod al
N or
Ġwonder ing
Ġcru ise
GRO UP
ENT ER
ĠQu arter
ĠH end
Ġb alls
Ġcle ared
Ġf ru
ĠC ert
g b
âĢ¦ âĢ¦
Over flow
Ġreson ance
Ġconflic ts
ab i
ĠIniti ative
Ġemp irical
Ġoptim ize
ch oice
Ġth rew
Ġall ies
Ġtra its
pay ment
ĠP ad
Ġsh out
ĠâĢ º
roll ment
conf irmed
Ġpresent ing
ĠCamp bell
/ %
N s
à¤ °
N orm
ĠCl uster
ĠLet ter
ar ations
Ġp ink
lay ers
B ank
id ad
work ing
40 1
amp ed
Abs olute
Ġw orship
ĠPhys ical
ud s
C losed
al ia
ili ation
g iven
ĠB B
Ġweight ed
m ind
emp loy
ĠC DC
Ġs que
ĠAl ber
Ġdes k
ĠCra ig
Ġ" --
Ġwind s
T ITLE
ĠTo o
ĠThe ater
Ġso ap
ern ess
Ġas h
Ġcon clusions
Ġsan ctions
Ġprior it
F und
ĠK ay
Ġassoci ations
F s
inal s
ĠRef orm
ĠH eb
con scious
Reg ex
B oot
cur ities
> ';
| -
/ ?
ĠTransport ation
Ġful fill
ĠC ertificate
19 71
ith metic
sh aped
Q UE
ĠEv ans
ĠMult iple
et e
Ġg ig
Ġeth ical
big r
}} }\
Ġachiev ement
,\ \
Debug ger
ul er
="../ _
Ġload er
Collect or
ĠWeek ly
node Type
vis ibility
ĠMur ray
ĠR aw
ĠU l
ab we
ĠW onder
ĠZ hang
Ġb om
Link s
PL ICATION
std out
Ġl oving
ac cur
string u
ĠL ov
Att achment
Vert ical
Ġ! (
Com pute
qu arter
Ġid s
dec oration
Ġnerv ous
as ury
ival ent
osp el
ĠRem arks
[] )
W M
=" ./
Ġc ele
mult ip
ou pl
og onal
ĠS TE
Ġle verage
12 34
Ġconf used
ach ers
Ġbelong ing
Ġcons olid
faster xml
ĠS TD
ĠS U
Ġarrang ement
h it
( ",
ĠJ oint
ĠCom ics
Ġrev ised
> ');
ĠSw iss
T ARGET
Ġl d
ĠD NS
ĠHigh er
pat ient
S ys
ul atory
Ġnation wide
c nt
Ġdis rupt
ĠTh an
Ġdem o
ov en
ĠTrans action
Serial izable
ent ric
Ġb anned
Ġsh ield
2 24
Ġdisc losure
Ġin fra
ĠCal endar
< >(
comp ass
Ġdynam ical
Ġo ct
L T
ĠF ashion
emet ery
ĠFrank lin
Ġsurg ical
Tool bar
Ġ' ../
Ex ec
Ġb rowsers
W ater
Ġpreval ence
Ġconvin ced
b idden
ĠT ags
Ġac res
ig ating
ĠH il
t one
Ġup dating
}} .
Ġlimit ation
pub lish
Ġelder ly
× ª
Ġt ears
Ġrest ored
Ġpo et
ater nal
Ġincorpor ated
Ġun clear
Ġins pection
Ġdeterm in
av an
\! \
s napshot
ĠĠĠĠĠĠĠĠĠĠĠĠĠĠĠĠĠĠĠĠĠĠĠĠĠĠĠĠĠĠĠĠ ĠĠĠĠĠĠĠĠĠĠĠĠĠ
Ġcoast al
Ã ª
Ġfast est
2 64
Ġm unicipal
Ġr m
in tern
en h
Ġg ifts
T ele
ĠCh at
Ġjust ify
ĠArt icles
al tern
ue z
s creens
Ġcompan ion
Ġ( ((
Util ities
Ġmot ivated
Ġderiv atives
D ry
ĠFl ash
Ġrel ate
ĠRob in
ri bs
d ra
Ġb uck
id ency
ĠH at
x e
ĠB ou
ĠF ace
ĠSD K
m other
ĠChe mical
ge bras
Ġent ang
eth yl
re ject
Ġvalid ity
Ġrecommend ation
us k
Ġfriend ship
Ġhead quarters
Elements By
MP TY
z ier
20 8
ĠW A
R ank
L ondon
Un its
ĠJim my
C odes
Ġ( {\
ch arts
list ed
1 2022
Ġactiv ated
Ġcallback s
ĠCamp us
(' \
oc o
S ol
Ġtri angle
imb abwe
um per
Ġis lands
ĠW R
Ġhand ful
Ġreport ers
Ġmethod ology
Ġpract ition
deg ree
ĠTrans fer
ĠAs ync
ĠMar ie
Ġun e
BE GIN
ĠL IMIT
ob i
al ink
U tility
ĠY u
ane an
Ġ/ ></
Ġal ike
b az
act ivate
Ġm k
Ġg fx
L ab
^{ (\
ĠQu estions
Ġsort s
Ġext ending
Co ord
ĠMat hemat
Ġtag ged
H ouse
Ġbi om
s yn
H am
Ġm ere
ĠS PI
ch ant
ĠPlay ers
13 1
plic as
M Q
ĠB os
ĠD ES
ĠL yn
ĠH em
Ġdrink s
fe e
[ ];
Ġle ase
Ġmod ifications
Ġgu ided
RET URN
OD Y
13 7
add y
Ġinv ite
w m
Cl one
Ġstri kes
ĠB LA
H ence
Work ing
c ategories
ib e
pon s
lock ed
font s
Ġcent ered
ĠMur phy
ĠConnect icut
w heel
ĠF ro
Pre view
Ext ended
Ġn ursing
as ia
Ġdepart ure
P in
C lip
p se
Act or
A ge
Ġdis pute
Log ging
ĠRog er
ĠAss essment
W omen
Ġc ig
Ġd ub
Sche dule
Ġstory t
Ġsur f
Ġbro ker
Ġpers pectives
Ġpray er
Ġvac ation
ĠDub lin
ĠERR OR
Ġdemand ing
ĠD ra
Ġadv ances
å ¯
Ġintr ig
P oll
Ġaut orest
Ġcross ed
s il
ethe less
Ġc rown
cri ptions
Un expected
Ġgre y
Ġpre st
DIS ABLE
ĠB rid
ĠB UT
Ġpartnership s
um inate
Ġun set
Ġh olidays
Ġprom oted
resource GroupName
M ike
v n
15 2
Ġcert ification
ĠP rior
ex ist
pl aces
Ġmark ers
ĠCar ibbean
ĠB aby
Suppress Warnings
Ġm as
Ġsim plicity
TE GER
Config ure
ĠN ames
Ġd rew
Ġun ity
all ing
ĠC ultural
Ġdirect ive
ID ENT
sy ntax
Ġdoc s
Ġsus cept
Ġorb ital
amp a
Ġprevent ing
(" -
Ġtab index
Ġf itted
ĠCommission er
Ġlic enses
Iss ue
ĠF ine
ĠK ath
L if
Ġs our
Get Type
Ind ices
Ġpain tings
Ġob s
Ġatt ributed
App ro
ĠIter ator
Ġaccompl ished
ĠâĢ ĭ
u its
v t
../../ ../
Ġcontr ary
ĠE M
ex c
Ch apter
Ġtrad itions
ver ts
ok u
') ).
Start ed
00 3
Ġb ases
Ġsecret ary
Ġcoupl es
R M
Ġscholar ship
Ġthick ness
Ġp ause
inner HTML
ĠB rain
ĠN ord
Ġrender er
Ind icator
Ġdesign ers
ĠAssoci ated
ag ation
Ġlog ged
ĠW a
Ġde ferred
Ġpres cription
Ġt ours
ke ley
Ġcor ners
Initial ized
am ic
In side
rec v
th ink
Ġten ant
Ġlong est
op ter
Ġ. /
Ġp ole
Ġintrodu ces
Ġt ube
Ġacceler ation
Ġst adium
ĠPartners hip
Ġv endor
Ġemb race
Ġn u
pred ict
Ġr ats
Ġy ard
Ġcur vature
AT IVE
Ġtra p
ĠCO M
mac ro
NOS CRIPT
mon itor
Ġse q
Ġvari ability
ĠSpr ings
Ġcorrespond ence
B AD
Ġstrugg les
Ġcha os
M ad
F inder
ĠE S
ĠEn h
Doc s
Json Property
Ġestablish ing
[ _
Ġsequ el
it les
id ity
Ġinflu ences
Ġll vm
Ġdist ant
Ġpure ly
H aving
Ġcrit ics
f lo
s amp
ĠB ug
ific ant
ĠM IN
m os
ĠC ass
Ġdiv ide
Ġaccept s
ĠCor ps
oxy gen
ĠJ a
Ġfund ra
ĠF ake
Im plementation
ĠCo ach
Ġspeed s
ik o
off ee
Ġsubstantial ly
Ġin duction
Ġh ooks
app ropri
Ġth irty
en za
ra h
con sum
fig ures
Ġreg ex
Ġtax pay
umb ai
Ġsw iper
en ium
Ġh ockey
ĠB right
Ġle ather
ĠP D
Ġread ily
Ġclick ing
ĠC atalog
Ġv ig
3 30
n ick
Ġform ulation
Ġste ep
Ġclean up
Ġf ossil
Ġp ig
ĠM OD
ĠDisc overy
b an
get Time
ib lings
ĠSam uel
Ġprof ound
Ġmult ipl
EX P
Ġoblig ations
ĠDocument ation
E s
ĠCom merce
Ġlegisl ative
)) \
K ing
Direct ive
vers al
R en
ĠC V
Mar shall
tra ining
Ġres ign
pub lished
ĠTurn er
M el
job s
Ġc ats
W ild
ia o
ĠM ol
Pub lisher
S and
Ġi i
ĠJ os
Ġout s
Ġautom ation
RE N
it ely
ĠN amed
Ġcare ers
Ġelev ated
ĠL ED
Ġd ancing
Ġg em
}_{ -
ĠBar bara
Ġsatisf action
Ġgrav itational
Ġc ris
ĠL arge
US D
Rec ords
Ġend orse
Ġc od
ĠR av
L o
Man ifest
C riteria
Ġmot ivation
char set
} >
Ġd f
ĠD S
ĠKe ith
Y eah
st ri
ĠStand ards
col ors
ĠN ATO
Ġsu pre
Ġme als
ĠUn like
ev t
Ġcur riculum
Ġcount ies
Ġret ro
à¥ į
b rev
ĠF ab
Ġauthor ization
ĠN ormal
Ġover l
un its
Ġsw ap
ĠB ound
ĠT ips
Ġin aug
Ġ" __
Ġint u
ĠHistor ic
ĠL ex
we ather
bra ins
Ġprop ri
l uc
ĠI M
d istribution
Ġarr anged
m icro
em en
Ã¼ r
vers ation
Ġ ].
Ġ" ");
ĠIn n
Ġmem brane
Ġelect rons
i ological
Ġh orm
Ġimp ly
) }_
g al
View s
$- $
}) =
Ġimport ed
ĠOsc ar
ĠL ower
ĠTrans itional
ĠC old
ĠP f
CO RE
}\ ;\
T urn
Ġhash Code
ĠL ux
19 65
Ġload s
Ġemb od
ĠAnn ounces
Ġther apeutic
USE D
H ex
ĠDirect ory
FO RE
NO WN
Ġpull ing
Ġox id
ch anging
Ġ\ (\
ĠIn j
ĠM aj
Ġimpact ed
Ġlegit imate
Py thon
Ġdiscuss es
Ġt racing
ĠC urt
Ġun precedented
g able
Ġy eah
DE VICE
Byte Array
Ġproport ional
ĠB ag
ĠArt ist
ĠH AVE
Ġw ishes
K EN
ens en
Ġinteg ers
Sub scribe
Ġadvoc ate
* >
Ġman ages
rit is
Ar row
ĠW u
P OL
rest ore
Ġmathemat ical
ist le
ĠCon cert
ĠD raft
Ġf ram
ext ype
ĠCom pute
Ġann oy
Ġs li
ĠCh amber
FN GL
J on
Hel pers
F X
Ġselect ing
Ġdon ations
ac l
| }{
Ġd ensities
Ġde ar
Ġj oke
Ġfin ishing
ĠT rain
Ġimag ination
/ ******/
Â Ģ
ed ition
Ġprelim inary
A h
Ġremain der
ĠK on
sc apes
land o
ĠP ok
Ġag rees
ers ions
AME TER
om o
14 9
au nd
Ġnon profit
ĠS even
g c
b read
Ġcontinu um
Ġover head
ĠChar lotte
Ġd ated
Ġdec imal
get Logger
C ached
ug ar
ĠCol on
Ġd atabases
E r
Tr ust
Ġanaly tical
Ġd war
pre ter
ĠH iggs
Not es
ĠArg s
amb ling
multi row
est y
Res olution
I MAGE
ĠEn sure
ĠW IN
ĠBen jamin
Ġlapt op
Ġdon ation
ĠCond itions
ĠCh ampions
Ġvoc als
http Request
Ġinc idents
Draw able
G od
ĠInt o
Ġvess els
> -
ĠH ind
Observ able
ĠG ay
Ġoccur ring
ĠP sy
________ ________
Ġen force
ĠScient ific
Not ify
Ġfl our
Ġexecut ives
Fr ank
-> {
ĠPro b
Car thy
: @
Ġsh aped
Al tern
ĠGener ic
Ġback ing
ĠCar bon
Ġch ocolate
Ġcre ators
Ġveter ans
SD K
Newton soft
13 3
Ġeditor ial
Ġscient ist
ab ove
n ested
ĠMic helle
Ġch ron
AT T
TH READ
d h
y arn
Ġsust ained
âĶ Ģ
C s
B as
ent o
Ġconsult ation
Ġm akers
ĠP OST
Pol ice
Ġswim ming
Ġ{ !
Ġbel t
15 00
Ġasympt otic
App Compat
R GB
ex emplar
found er
Ġoptim ized
Ġdig est
Ġ\ !
">( </
Ġneur ons
Ġfro zen
ĠJun ior
ĠR ap
ĠO pport
Ġfear s
amm ation
Ġp t
Ġroy al
Ġpharm ac
ID s
Ġsk i
or o
ĠTool s
Å Ł
id y
Ex amples
Ġre semb
Ġke en
Ġatmosph eric
ĠM agn
und ers
}} _{\
heim er
const ants
NE SS
ĠB A
Cl ause
Î º
Ġinvest ed
Ġcompos er
ol er
Ġdecre asing
H ey
ĠDr iver
Ġtoler ance
T em
Ġi Pad
B re
ĠCor porate
thread s
Ġconfirm ation
ĠPortug al
Ġcompet itors
scal ar
ĠGh ana
Ġw ages
sub sec
ge om
Ġinvest or
anc ies
Ġr hythm
14 6
C AL
ĠC BS
14 8
Ġconduct ing
XML Schema
Ġâ ĪĴ
comput er
Ġstruct ured
Int Ptr
Ġforest s
15 7
ract ed
Ġtim eline
Ġtw elve
k ov
ĠStr ong
ĠL aunch
at um
Ġs au
ĠG B
Ġr ug
Ġbe ating
ĠG olf
Ġutil ize
Ġbe ings
> ',
Instance Of
ON LY
20 5
Ġlength s
ic i
Ġup set
ĠField s
Ġnot ifications
Ġspecial ized
Ġm a
Ear ly
Ġde ce
Ġel abor
ex pl
bo ys
BU F
Ð Ł
IR ST
Ġap olog
F B
Ġpres erved
(' ../
LOB AL
ĠSet up
28 0
D ead
sp aces
ĠD MA
Ġun fold
Numer ic
ĠGet ty
K nown
ĠTr igger
ĠCh i
Ġsignal ing
mat ched
!! !!
usal em
it us
IST ER
an on
ĠJ azz
d al
ĠS outheast
ĠP in
end ants
Ġcre atures
sche dule
Ġrel ies
Ġpass phrase
Ġneut ron
ct ree
Ġsh ar
ut o
; "><
Look ing
. $$
UL AR
ĠDep uty
Ġconj ug
m r
op am
PROP ERTY
anc ers
ĠCO MP
Ġfound ing
Ġge ometric
Ġspread ing
Ġad oles
ĠAr c
leg end
B ay
v ance
t ls
les h
Ġequival ence
Ġdiagn osed
ĠLiter ature
F ort
row Color
inherit Doc
e ur
Ġintr insic
ĠAd vert
Ġbe an
as ide
Ġjournal ism
ĠS ample
Arch ive
R eb
Ġexpl aining
k ill
ĠMon te
] ];
An swer
Ġpro gression
Ġcro ps
econom ic
Ġmay or
Get ter
Ġdel icious
Ġpaint ed
k ers
Ġbuy ers
Ġcomplic ations
v art
Ġcon spiracy
Component Model
ĠMad ison
ate ur
ĠNev ada
Ġlaw makers
Ġcry st
ĠCh ain
W T
is ible
ĠÐ ·
Null Exception
hy dro
Af ric
L ev
ĠB eth
ans wer
ĠT ell
jet brains
}) }
inc ial
Ġres ist
RE C
Ġfeed ing
]] ></
ĠFor ward
ĠQu estion
avor ite
Is Null
ĠCh oice
ah l
ĠMan hattan
Ġenc rypted
ĠD ialog
ĠK az
Ġcom ed
ĠM T
Ġconc at
ĠS ym
-- ;
Ġart work
Build ing
ĠBo ys
ĠBat man
ht m
ĠD ocker
ĠA pi
Max imum
à¥ ĩ
Ġcor related
ĠS oph
ĠColl abor
od ium
Ġmer ger
Ġst ochastic
. &
pi res
ĠP ic
Ġm arch
ĠA MD
ĠApp lications
Ġpress ed
L ove
Ġdr one
int ro
request s
ĠT u
Ġt ong
ĠB order
ĠWik ipedia
Ġm os
orient ation
Ġg ut
ĠF rame
ĠCom mercial
Ġsp y
C at
sec ution
Ġsh irt
Ġc inema
st ation
Ġsub scribe
Writ able
15 1
: /
port folio
z ing
ĠSt ein
column width
get Data
inter est
ĠS ud
get Default
Ġt anks
Ġcomplet ing
ĠMin i
Ġ= ================================================================
ĠH udson
enc oded
Ġv endors
ĠU INT
ĠAb u
Ġ* **
J oe
Call able
ÂĢ Â
ek s
list ing
Ä ĥ
) }.
ĠBroad way
ĠF ried
ĠConserv ation
ad vant
L ER
Can ada
ÃŃ a
inem atic
J im
ĠSur v
Ġret rieved
Ġconscious ness
Reg ular
then Return
Rich ard
Ġresp iratory
PO INT
ĠCost a
log ue
ĠAl ways
param ref
}$ }
vis ual
Ġr ings
Ġatt achment
I llegal
19 64
Ġinter ference
ĠSustain able
d w
\ |\
Ġs sl
Ġpart ly
Ġaccess ibility
}} ^{\
Ġnetwork ing
IS H
Ġaccept ing
ĠK ill
m ime
HO W
ĠDE BUG
' =>
Ġsl ots
ĠLi u
ĠC rit
mal ink
TEXT URE
Get ty
ac re
L F
n r
Ġa pt
ĠLeg end
Ġacknowled ged
ĠV el
Ġg ym
cept ors
Key board
ĠPark s
Ġimp ressed
ĠAcad emic
ĠSpe aker
im en
F riday
ĠCirc le
ĠFor ces
ĠAll ow
Ġvulner ability
ocom plete
A WS
H H
ĠCru z
vious ly
unt u
ĠRober ts
ĠOl iver
e ctions
ĠP ope
Ġun safe
Ġwhe els
G D
Ġmin eral
am er
ĠK id
ĠLar ry
ĠB inary
Ġch urches
ĠS ou
ĠContin ue
ĠA irlines
ĠY eah
ĠWal ter
Ġinsp ire
e ing
ĠK yle
Emit ter
lo ys
Ġpen et
Ġset Up
R ock
is i
> )</
hy per
ĠPlan et
ĠCl ar
m ess
Ġs lic
Ġcell ular
H ist
oper ations
ĠE ld
ĠIn side
Ġcomb ines
Ġre nown
c ritical
ĠH app
G s
cur y
Map s
Ġsimilar ity
M argin
ine e
Ġear liest
Ġsh ore
por al
duc ible
Ġexplo sion
ĠO thers
Ġdel ays
ĠH alf
al ph
Ġsucceed ed
unt ary
ĠRuntime Exception
Ġproceed ings
= }
ism atch
Ġnumer ic
HEAD ER
R X
ĠAdvent ure
at ility
] ));
trans parent
(" [
++ ++
SE CON
ĠN intendo
he ta
Throw able
Ġassum es
ĠSub ject
19 00
Ġassert ion
com ed
St ill
member NameLink
spec ified
ĠLGBT Q
Ġco pper
ĠQ t
om on
cc c
Ġair line
Ġcorpor ations
arn ess
Ġwork shops
cr im
SE C
Ġbatter ies
ash a
Ġdis g
url s
Ġpeak s
DE P
Ġse curities
oot ing
Ġre vel
Ġbre ach
ĠM ask
iz a
ĠSc ore
Ġwood en
Ġe ars
Ġdou b
w eg
im ir
[ <
ĠJohn ny
St ock
ĠP K
Ġind ication
x f
Ð ¶
Ġm amm
Ġtele phone
c apture
Ġbr id
Ġdark ness
at ics
IP S
Opt s
ĠBar ry
Ġcontext s
ind ependent
ĠArgent ina
Ġint im
ograph er
Ġmechan ics
Ġmiss ions
' }),
el ist
Ġt orn
ch ing
Ġcomment ary
ad ers
bal ance
ĠM UST
eles cope
ĠBel gium
Ġexcit ement
ion ic
Ġn m
ÑĢ Ð¸
asc ade
B uilt
cal c
Ġhapp iness
C ref
ĠG lass
Ġtre ating
Ġchemical s
Ġdescri ptions
b uck
c ery
ĠP eters
e fficient
Process ing
Ġhope fully
Ġthe sis
ro d
ĠT IME
Ġfoot print
bor ne
Ge orge
ah n
Ġmed ication
Ġc ave
W C
ĠE mber
r ors
ĉ ĠĠĠĠĠĠĠĠĠĠĠ
V el
Ġillust rate
E lect
Ġpolar ization
Ġphil osoph
ĠSp ark
CA SE
d eb
' "
Ġ Ã©
ĠH erm
M id
pro port
Ġprotect ive
dr ive
Bet ween
t un
op ath
ĠG MT
Ġparse Int
ĠK el
Ġt ribute
ĠG PU
Ġappro ached
RO P
al ter
Ġ@ {
Ġwat ches
ĠBuff alo
Ġcorrel ations
ĠT ickets
Ġspect rosc
Ġappear ances
T ODO
ĠM aps
ĠTrans form
Further more
Ġr itual
io let
Ġimprov es
* \
Ġco hort
Ġentertain ing
] <
Loc ator
ĠProject s
Ġed itors
Ġunc over
Ġp orn
ĠĠĠĠĠĠĠĠĠĠĠĠĠĠĠĠĠĠĠĠĠĠĠĠĠĠĠĠĠĠĠĠ ĠĠĠĠĠĠĠĠĠĠĠĠĠĠ
ĠCr iminal
× ľ
ĠCon n
con sumer
pers istence
Ġremember ed
ST REAM
inter action
Ġiter ations
Ġident ifies
T i
or ator
Ġf lip
ĠRespon d
t ou
v r
ĠGener ation
Ġtim ely
Ġign or
Im p
field set
ĠValid ation
AL T
ĠM ack
ĠSaf ari
ĠFre der
ant is
s olid
Ġgener ators
R TC
Ġport ions
as List
ĠE asy
ĠD ifferent
Ġquant itative
Ġtruck s
ĠAdvis ory
prevent Default
set Value
Ġadm its
19 66
Ġper mits
W P
__ ["
List s
Ġconj unction
Ġpre dom
Supp ose
ĠB udget
Ġpred icate
if le
ak u
Th ough
add on
Ġeconom ics
ur ious
Aut om
9 78
ĠCom pl
Ġsum mit
Ġnegot iations
ä¸ Ģ
e cca
c z
ĠP ER
HE D
Ġg reet
ch rom
Ġmon ster
Ġfre ely
ĠSh ape
B inder
in el
sl ug
OP ER
ĉĉĉĉĉ Ċ
Ġtour ists
F ive
ĠD ynamic
ĠAPI s
ĠÐ ±
ĠNever theless
Ġ{ })
Ġincor porate
ĠPhil osophy
Ġadminister ed
Ġconsum e
19 4
it ime
is co
Ġr v
ĠWe ather
l m
Ġ ))
sh ake
um ption
ĠL ed
ĠL atest
' </
30 1
Ġiniti ated
Ġsett le
ĠEffect s
Ġhabit at
ĠT D
Ġrec ipe
Ġsear ches
Ġunn ecessary
n ear
p referred
iev e
ar as
Ġhe aven
ĠSt ay
Ġd os
Ġdam ages
Ġcol leges
Ġactiv ist
im eter
S i
reng th
Ġenc oder
B ur
re cur
Ġgr at
ĉĉĉĉĉĉĉĉ ĉĉĉĉ
ĠM ental
fl ash
Ġcelebr ating
d ater
S dk
Ġrest oration
ĠPer ry
Ġs ail
per or
ĠB row
comm end
ĠCO LSP
ĠCOLSP AN
l ishes
Ġtra ged
Co ins
im o
ĠTele vision
ĠC av
Ġexist ed
M ary
Ġp up
ĠB esides
ĠChem istry
C LO
n x
=" //
nc ient
ind a
ar ial
c ov
Ġass ists
asm ine
Ġearth qu
Ġpl acing
ĠSet ting
Ġdepos it
Ġhaz ard
brit ies
U X
iss ance
/ $
; -
\ }$,
Ġswitch ing
Ġw are
Rec ent
L M
Ġg ateway
Ġag ing
ap on
ĠK umar
Ġretail ers
ĠWork ers
ĠB ishop
ĠProgram me
ĠW allet
ĠZ imbabwe
Ġe uro
iv ari
TIME OUT
Ġimm ers
ĠModel s
ĠHar rison
Res ize
h aw
Ġu pt
ĠK u
ĠTy ler
car ousel
ĠA str
Ġis omorphism
Ġsurv ived
ĠBO OL
Ġs q
Ġshow case
Ġcontribut ors
Ġper f
Ġsystem ic
Ġr iders
Typ ed
ĠBl ues
an alytics
PO SE
ĠC zech
ter min
ĠHill ary
n ia
Comm ands
Ġtable t
U i
Ġcl arity
Ġgu ides
mention ed
lev ant
2 12
al ways
ĠS cale
part icle
L emma
ĠGre ater
Ġt ens
(( (
ĠT err
ce il
IN PUT
Alloc ator
Ġoverse as
ĠB U
Ġb uff
ĠKnow ledge
rupt cy
ro tt
ab lish
ĠL ac
Ġdro pping
parent s
h ma
ĠMe asure
Rel ation
} `
ĠT S
15 8
Hand lers
ĠE ve
h ub
Ġrac ist
ĠDom in
rou t
" +
LE X
ĠA ld
ĠStan ley
AC C
tele phony
S und
Ġob sc
------------ --
Ġsh rink
ĠOver all
Ġc ous
T ur
Ġeval uating
Ġsch olars
Ġc argo
ol ation
Ġch arts
s an
High light
ĠK irk
Me et
Ġd ivers
ĠDom ain
Ġreason ably
H istor
LE FT
Ġt ropical
im er
Ġprogram mes
Ġking dom
ĠK le
re ts
Ġre nd
ĠM ob
Cre ator
Ġemb arr
ha us
Ġinsp iring
Ġpow der
yst er
Ġdu plicate
ĠEV ENT
** :
Ġrespons ibilities
Ġpurch asing
Ġn ons
Ġs isters
SD L
le ave
Ġsm ell
Ġdiscipl ine
ĠF if
Ġdisp ersion
D ot
Ġocc urrence
I FI
Ġentreprene urs
und ef
ĠS ame
Ar n
C LE
W as
Ġaccompany ing
16 6
Ġped est
node Name
wik ipedia
um m
Ġimport s
err anean
St udio
ĠY ES
Ġw ise
Ġle x
4 80
| }
all ed
Ġoper and
CO PY
Ġto ll
($ _
Ġca ption
Ġent ers
Ġindic ators
d ag
cont ract
Input s
Ġre nov
per m
IT ER
ĠSt ra
Ġval ued
Ġprospect s
CK ET
ĠW he
ĠAl ong
Ġprivile ge
) ',
m outh
Ġsc iences
D AT
B F
il ers
ĠM aur
Ġsw ift
ĠEv idence
d ash
Ġfarm ing
B er
R G
In spector
Ġrele asing
Ġdec ides
cur r
ĠDen mark
Ġarg v
Fr ance
Î ³
ĠW ant
ĠTher apy
Ġcryptoc urrency
Ġin ad
op ol
0 100
Ġres c
ĠJul ia
ER O
Pro ducer
Un ion
ĠTh r
inter faces
ĠM all
epend ing
g ra
he ll
Ġacceler ate
DE V
ĠSh adow
}} =
pack ed
T alk
ĠG arc
Ġh iding
pre tty
ĠW HO
ĠS lo
Ġlift ed
Ġposter ior
! ]
Ġband width
Ġm p
ĠD ie
Ġattract ed
ĠEx tra
=" {
g ic
ster dam
Ġaccommod ate
IS O
UD ING
20 6
Fin ished
C U
Ġint imate
E nergy
;\ ;\
q a
Ġd rain
Ġform ul
Ġrent al
A verage
O LE
Ġg lim
14 1
}) ^
habilit ation
rec ords
W ords
comm ended
F LOAT
Ġin ference
ĉĉĉ ĠĠĠ
CL UDING
W ITH
Ġo ught
equ ations
Fat alf
? âĢĻ
Ġvot er
Ġphys ician
get ElementsBy
ĠN ancy
Ġcomplet es
NO TE
Ġm u
ĠL it
n ol
im ity
ĠK an
reat ment
comp iled
Ġm im
Ġj er
Ġconsider ations
ĠHead er
= </
c odes
or ic
ar us
ĠFin land
ĠF IX
ĠBro thers
f re
claim er
Ġdis put
Ġnew er
Ġescap ed
ĠAug sburg
Ġdram atically
or b
AC CESS
ĠMov ement
19 45
Ġarr ives
widget s
D eb
Ġp unch
ĠCond ition
Ġal umin
Ġep it
Ġdiagram s
Ġland ed
ĠForm er
im mer
Ġtransform ations
O rientation
Ġinnoc ent
Ġbatt les
ĠB MW
on er
ose x
Sm ith
ĠÎ ±
per form
Ġbet ting
ĠSwed ish
x it
ĠPhot os
ĠLeg isl
SY S
Ġvar ies
Ġphotograph er
Ġh ug
ob ar
ism iss
Ġclo ses
Ġhigh way
to ctree
ĠK ap
ĠC rown
Ġv iable
Ġcomment ed
pos s
2 15
ĠInd ividual
Ġo d
ĠR NA
Ġnull able
Ġref und
ad ic
t u
call s
FA ILED
AD DR
Ġhop ed
Ġorig ins
Ġre construct
ĠJ uan
Off ice
16 7
ĠR ather
Ġout lined
in ces
exemplar City
A H
Ġ nd
Ġparticip ant
ron ics
Com posite
fl ows
g ather
Ġca ution
Ġutil ized
Ġclin ic
Ġcomp ress
ĠDisc ussion
p ick
Ð½ Ñĭ
Aut hent
ĠBro ther
Is rael
Ġg orge
R ound
ĠS oul
th al
ĠSec urities
ĠOlymp ics
Ġtw in
Ġqual ify
Ġeth ics
am ar
Sl ide
/ ************************************************************************
Ġb icy
Ġviol ations
t ick
v ect
cred it
ĠType Error
Ġspons ored
ke eper
Ġdefault Value
ĠJ av
count ers
Be ing
Ġclim b
Ġimmigr ants
comp any
ĠÐ ¼
ĠP T
Ag ain
ch y
ia z
Ġur ged
Ġcle ver
Ġfrag ments
rot ate
in burgh
itut ed
ĠB illy
ĠY ellow
inc inn
Ġfurn iture
Ġdu o
ĠEqu ity
Ġhar sh
Ġrespond ing
C ong
Ġreg ener
ĠEag les
N othing
æĸ ĩ
Ġdis hes
idd ing
Ġre wards
associ ated
Ġh alo
ĠSh ows
Comm unity
ĠRead er
D ue
ish a
Any Ref
Ge o
Web site
N ick
âĸĪ âĸĪ
ĠC WE
ĠBr anch
r w
av atar
Ġresil ience
Ġtempor arily
Ġl ane
á ½
nt hetic
CharacterOffset Begin
CharacterOffset End
â Ī
ĠP ush
ĠI l
co ins
g ap
Î ²
ign ite
cknow led
iov ascular
; ]
Ġinstant ly
C ut
em ics
andid ates
B US
L ou
ĠS UV
re ck
Ġ rib
ĠM asters
ĠP ool
pr ising
Ġpers u
ĠJer ry
/ ><
ĠV ik
short cut
. \\
Ġcur r
'' '
Ġreven ues
Ġuniqu ely
d ims
Ġcomm od
Ġamb itious
ST M
Ġbg color
ĠU nd
Start ing
Ġfilter ing
Ġstrugg led
Ġden y
s ensitive
ew ay
ĠC arn
bold math
bound ed
integ ration
And rew
ĠR um
ĠThe me
Ġsupp liers
Ġrenown ed
ĠP ictures
ST ER
re ports
Ġd ressed
ject ure
ĠCent ers
Ġb ail
Ġemer ge
ĠCo hen
Ġm others
ï ¸
ĠE ye
Ġpeace ful
R pc
ĠA rena
Ġ" (
18 4
are l
j k
ivers al
Ġtour ist
grav ity
CHAN NEL
Ġst ays
ĠO H
text up
Ġresource GroupName
il ia
co res
Ġs word
ĠAl loc
Ġanaly tic
ĠN om
å º
Ch oice
g ement
Ġpoor ly
ĠTour ism
4 000
F ee
ĠA part
Ġtremend ous
ĠS eb
ĠD istribution
pe st
FIL TER
ĠBe havior
ĠAn im
ĠFa ith
N ear
ĠR ivers
b ial
Ú ©
Ġrad ar
Grad ient
ĠArk ansas
os i
Ġreg isters
ĠScholar ship
Disc overy
Ġm aker
ur ring
Ġd ive
Ġcomp assion
To o
Ġform ally
CL IENT
ĠJer usalem
Ġf et
Ġloop s
ĠH ack
Ġjuris diction
W all
ĠS ter
incinn ati
es c
mar shal
Ġexcell ence
19 5
Ġan not
ĠU pper
ĠK aren
for ge
Per formance
o os
om eters
ĠV ict
CC CC
J eff
ĠM atter
D ark
ok ia
er als
Ġ[] *
Ġprospect ive
( <
Ġt ennis
Ġwork flow
Ġref use
Ġc riterion
ĠIm per
Ġpri est
Pr incipal
ĠHel per
Ġ ,\
om ics
ck e
C AN
ĠMarg aret
P reference
Ġback ward
Ġdis contin
Ġsent ences
m ong
Ġch rome
pro blem
pos itions
Ġgl uc
ĠWild life
ble ms
Ġgrad uated
Ġc oding
> ",
p us
ĠO m
ĠT ak
Ġend less
Ġuniform ly
Ġun a
ĠL ion
B IN
str ategy
ĠWat son
Ġover rid
Rep o
ĠPalestin ian
Ġcontribut or
Cent ral
ĠC ann
th reshold
Ġwel comed
Ġalter ed
ĠC au
g om
aaaa aaaa
Ġvill ages
Ġjump ed
âĢ ²
Ġany body
Ġconv olution
ĠW alt
Ġconnect s
ĠAl gorithm
ĠMc Carthy
Ġstrength s
ass y
author ized
Col ors
() "
Th omas
Ġacc ret
Ġdist inction
ĠMed it
ĠCirc uit
ĠVari able
=" <?
Ġsurprising ly
Ġvari eties
Ġconsum ed
Ġterror ist
d ummy
Im plicit
Ġmem orable
Ġremind ed
ĠReg ulation
x ff
Ġper ipheral
OUT PUT
P ur
de leted
Ġtou ched
ĠC ash
ĠP rec
ĠG aming
Ġaver aged
ĠFish er
ap or
B and
Ġr ated
Ġon set
ost ream
Ġaw s
Ġd ummy
ĠS PE
ĠSpec ifically
ob b
ĠZ oom
% ).
IL D
Ġover night
] ",
Appe arance
Ġpan ic
l c
ut ed
root Scope
Ġend e
Ġdim in
Ġfl aw
æ ī
Ġ ));
ier ra
ATTR IBU
ess a
ĠGL int
ĠU g
Ġpath ways
ĠHall ow
ĠR TC
ĠP ent
Ð¸ Ðµ
P icture
ne um
")) );
Ġc ord
is Valid
ĠM ason
document ation
ĠJ ake
we ights
th ritis
Ġinn ings
in ement
ĠT odd
ĠB apt
Ġsubscri bers
ĠPsych ology
o is
2 17
"> &#
âĨ Ĳ
Ġev olve
te es
sh ine
Sw ift
Ġev olving
Ġn urse
Ġprec ious
ma pper
Ġattack ing
M ON
15 9
) ^\
ĠA DD
The lia
-------- -
ĠH oliday
Ġar ising
ĠEd wards
or ia
Ġdest ruct
ĠEn um
Ġworth y
b ian
et ype
et erm
IG H
Ġrandom ized
ĠCr icket
ad apt
Ġtrans mitted
omb ie
Ġm ast
min imum
Content Type
ĠM M
ĠB rief
Ġcelebr ity
ĠLeg acy
ĠHor se
Ġproduct ive
ĠL uther
get Current
en es
Ġdiv orce
ix on
lo on
ond e
requ ires
d v
Lay ers
Ġscal ed
Ġtestim ony
h n
× Ĳ
Min imum
Bal ancer
l if
ĠSh ar
Europe an
ĠG em
Ġun fortunately
Ġgame play
AN Y
Ġcompar isons
h arm
Ġd in
22 2
Ġ@ @
che str
ĠReg istration
host name
Ġnormal ize
) ];
å® ļ
Ġcust ody
Ġattend ance
en berg
ĠElement ary
Key words
mes h
^* \
in variant
Ġreserv es
ĠCom ing
19 63
sub title
Ġmicro sc
s nap
ĠC risis
ĠF ourier
P AGE
00 7
Ġapplic ants
file Name
Comp ile
L V
U INT
fl ink
CP P
Id le
6 50
Ø ©
Ġdistingu ished
ĠIn sert
] {\
Trans l
ĠCheck s
ĠAuth ors
( -\
Ġd yn
Ġan notations
rev ision
-------- ---
Ġschedul er
] >
ĠT s
Ġplan es
Ġcomp rom
Ġexp end
ro ots
DA Y
Ġmut ation
\ }\
Ġdelight ed
m ile
Ġmand ate
Ġser um
AP PLICATION
Ġw ings
ĠJess ica
ĠD at
orn s
x c
"> ,</
Ġto y
Ġsc andal
ĠGuard ian
ot yp
Ġpro position
ĠBr andon
Ð½ Ð°
B ob
et on
Ġel li
Ġtrad emark
Ġkin etic
n om
Ġo mitted
Ġa f
ĠInd ies
Ġdr unk
PRE SS
Ġrect angle
ĠESP N
enez uel
Rot ation
Ġadvoc ates
ĠC OR
Ġst ating
Ġact ivate
ĠWar ner
ĠJer emy
Ġsleep ing
m and
Ġnow here
Syntax Kind
{ };
Ġm eg
W ashington
Ġdr ift
Ġrecruit ment
ĠD eveloper
ĠK in
Ġimplement ations
ĠCam eron
ĠNash ville
ĠVal ent
Ġm ir
Th ird
t ec
ig ion
get Parent
ĠDefault s
ĠCor onavirus
C ACHE
Ġco at
Ind ent
Ġcam ps
o auth
18 5
C OR
tr ad
ĠJ ar
Ġsl ower
ring e
Ġcor n
Ġpropag ation
w b
be it
ĠGrad uate
ĠS alt
ĠBl uetooth
Ġposition ed
Ġcon current
Ġoff line
å Į
Ġw ore
Ġcab in
s aved
ĠCO PY
Ġkick ed
s qu
te chn
Ġoccas ions
? .
Ġsubst itute
ul sion
L ittle
st ones
Ġshall ow
Ġw it
Ġident ities
any on
âĤ¬ âĦ¢
iod iversity
arant ine
Ġtact ics
ra k
Ġind oor
ĠPl ugin
Ġresearch er
C urrency
duc ing
Na N
ĠSupp ose
F atal
er ie
ach t
Ġfun eral
Ġh i
ĠPro blem
output s
Ġâ ī
P acific
ĠC ox
CL K
Ġdo cker
rang ian
Ġdest inations
L ex
Request ed
Emp loy
LE T
i ar
an ol
Ġrecip ients
ĠMET H
ĠK ash
D ynam
il ine
Im plemented
Ch oose
ĠSe lection
MLE lement
id ually
F ood
Ġrout ing
Di agnostic
Ġprec ip
is ure
Ġapproach ing
Ġaccording ly
Ġp b
R endering
ig m
ĠCam era
ï¿½ ï¿½
ĠM ak
Ġbu zz
14 2
itud inal
udd y
Ġrecon c
"> "
od b
Tw ig
Am ong
Ġo h
Ġc and
support s
ĠEm ma
h op
umb led
Ġt v
Ġun used
mem Item
\% $
ch air
Ġ" ./
read able
ov y
202 5
ut ton
ĠF light
Ð» Ñı
ĠLiber ty
Q R
Ġchalleng ed
ob server
Opt im
Ch ars
ĠL ate
Ġshort age
Ġac oustic
am ation
18 8
Ġp upp
Ar c
agon ist
Ġp ays
Http Request
Ġf ab
read s
Ġdesper ate
N d
D am
p it
ĠF T
aut hent
Ġpsych ology
ri en
ĠL anc
gate way
Ġel astic
Ġdig its
Mut ex
Ġval ley
AL LOW
Ch rome
Rel ationship
Ġrock et
ĠSyntax Kind
we alth
Ġexp ose
ST D
Ra ises
Ġven ues
q t
cap acity
Sl ider
BY TE
ari ans
ĠCont ribut
Ġan omal
Ġsk illed
Ġd ol
W W
ĠS nap
PE G
abul ary
Stud ent
ĠT ed
Ġmut ations
C op
tem perature
Ġdem ocratic
m un
Ã§ Ã£o
os hi
ĠRec ent
Ġbr on
50 1
Cred ential
ĠL if
EX CEPT
Ad just
I AN
S ar
back slash
Ġhom ogeneous
Ġ* _
Ġtrans ient
R x
Stud ents
Ð½ Ð¾
am y
Ġadvoc acy
Uk raine
l iter
se ver
back up
ĠM ER
Ġvibr ant
SV G
ĠIn frastructure
Ġsql ite
X i
ens ation
Ġprev ents
S aturday
Ġt body
ĠC ounter
hl js
Ġvar s
Ġmusic ian
Ġout lets
ĠG onz
ĠRel ated
ph ysical
P aper
ĠU C
ĠN athan
ĠLinked In
Ġrecord ings
B in
Ġcl ustering
ĠC atherine
Ġdes cent
ĠRE G
text color
Pub Med
Ġcount less
N L
w i
Ġare na
Ġw ound
ĠA SC
th lete
Ġmot iv
>> >
ex e
Ġm aj
ĠC ant
ĠB ot
Ġsplit ting
Ġen jo
ps hire
| $
Ġassert False
ĠEl li
C pp
P ull
15 3
Ġreg ards
16 2
ator ies
Ġtensor flow
l ar
y g
Ġn urses
akes pe
amp ing
Ġcap ac
ĠTra its
pub lisher
x ref
Ġtrans cript
Ġtra iling
Ġexhib its
ĠM umbai
ĠL ives
tr on
Ñ ī
Qu ote
Ġrob ots
col lections
M att
ĠL aun
ãĤ Ĵ
Ġrail way
t om
raw l
Pr iv
UM N
Ġeigen values
( %
Ġset Timeout
eng u
Ġatt orneys
Ġadjust ment
Ġaest hetic
n ational
pt s
ĠGe V
El se
ĠCol omb
Ġg est
ĠR uby
ĠInd ians
Ġharm ful
sim ilar
re try
ac iÃ³n
Dis pose
ĠÂ §
Ġcharacter ization
Spe aking
19 62
ogen esis
eval uate
e er
ĠRod rig
ĠAust ria
ret ch
123 456
Ġf lick
Rem ember
Ġgener ous
ĠRele ases
Ġan ten
o ard
Mar shal
Ġobl igation
re a
ĠU TF
Ġinflu ential
Sp ot
Ġbi ology
ĠNE WS
Ġm arijuana
ĠNe il
normal ize
g ot
Ġplan ets
ĠPol ish
Ġcoal ition
ĠO B
ĠSh ang
Ġnut rition
Ġbad ly
Ġexecut or
L aunch
Ġpred ecess
DO CK
ĠN ar
Ġdep icted
ĠHER E
col s
Job s
ĠSand ers
ĠE le
+ ,
ĠR F
jb oss
in ja
Ġconsult ing
ĠC ities
ĠC arm
ĠL ith
Ġdis par
ĠUn known
Ġpoll s
16 4
ber y
man ual
ull ivan
Ġinh abit
/ -
Ġto ss
ĠRel ationship
Ġsl ides
Ġquadr atic
ĠA RE
n at
Sc ott
Ġ ÏĦ
Ġe u
ens ely
med skip
S ports
Ġd aughters
Ġrefuge es
Ġw orn
Ġmem o
Ġprem iere
Ġintern ationally
Ġc v
ĠI oT
ful ness
2 32
Ġperturb ation
ĠMont ana
ĠHash Set
get Context
Ġdesign ing
j p
un ication
ch t
ĠSu z
Ġnot ified
ĠU pon
ĠH appy
Ġbl ast
get User
has Next
Ġmarket place
Ġanalyst s
Ġl ig
oun ge
be am
ĠNetwork s
Ġguarant ees
ir y
phant om
ĠC ounsel
20 9
ĠAr ctic
Ġalloc ate
Ġche er
Work space
ĠS ort
ĠWe ight
Ġstom ach
3 75
le arn
ent ities
Ġ' )
start ed
Ġlit igation
ĠP UR
Ġrece ipt
ĠÃ Ĺ
17 4
oc hem
hen g
GR AM
ĠV I
ĠS old
Or d
Ġcon e
Ġwork space
Ġspec ifying
Ġaut onomous
Ph ys
ĠDou g
w y
Ġcont ributes
og s
Ġdes erves
ĠM ine
ĠN CAA
Out Of
Ġinstrument al
Ġst reak
Ġmill iseconds
sw ift
ĠIm Gui
Ġste al
Ġre ck
}\ |
Ġam end
So ftware
cred entials
atern ion
ĠHallow een
em b
Ġtra ils
x FF
Ġform atted
Ġ/// <
ĠT ouch
bor ough
h yp
Ġl ag
ĠMedit erranean
Ġsac red
Ġfar ms
Ġsevent h
P B
Spec ific
ĠT rip
Ġconsider ably
Ġbehavior al
Ġs ew
Ġw ars
Ġcomp ressed
Ġt ender
Ġwitness ed
ĠApp lied
P rec
Ġver b
Ġen velope
ever se
15 6
az ines
Ġpurch ases
is EqualTo
Ġl ips
be havior
Table Name
! ");
Ġgovern ed
ĠSteel ers
Ġl un
Ġdebug ging
Ġes cal
Ġexcess ive
G AN
H alf
ĠC lo
Ġra pe
ĠDis able
Ġche aper
AC L
c riteria
Ġview er
Ġsold ier
O RE
Number Of
ĠPre view
vel ocity
hand lers
Transform er
r aska
h im
ĠE ither
D ays
rece ive
Ġstat istically
Attr s
We ak
Ġintern ally
ĠFact s
B ooks
Ġg aining
CE P
ĠE sp
ĠF itz
S in
18 00
new line
Ġhe ap
Ġre ign
Ġun employment
Ġbackground s
Fl ush
OFF SET
in ology
dim en
Ð¾ ÑĤ
V ars
Ġp el
ot ics
Ġun stable
Ġobserv able
Ġcapt ures
ĠSurg ery
ĠBern ard
an che
Con sum
ĠMark ets
=" '
read only
he ap
ins ula
irm ingham
ĠVin cent
ĠO VER
Ġindex es
Ġam endment
ĠBel ow
ann ers
akespe are
F W
ĠRE ST
Att ach
Ġretain ed
ĠTh under
Ġdis abilities
el m
Ġdef ending
ah u
Ġd otted
om aly
Ġatt raction
Ġnom inated
ĠMedic are
g ro
ed e
AB C
B tn
Z Z
Ġto b
ine a
Ġfinger print
sp h
Con nected
dep loy
Ġver bose
Ġf oster
Ġrele vance
Ġmess aging
Ġqual ities
math it
tri angle
ĠTrend s
Ġf ade
vis ions
end ent
LOC AL
ĠMar io
p ow
Ġbes ides
ĠLook ing
Ġloc ate
Lin ux
nt hesis
ĠG ene
Ġdec oder
ĠCar los
SE SSION
ĠA round
ĠAl t
ORM AL
vart heta
ĠCh ile
ĠUs age
ular ity
16 1
ĠRe uters
E scape
el n
Ġh ass
Ġbe ars
sing leton
ĠS r
DEF IN
Ġyour s
w x
ĠOr lando
Ġmorph ism
Ġsu ck
40 3
ing o
Ġre use
ĠInt roduction
in crement
19 3
ĠW ag
Ġ' [
ĠGr an
Ġinfl ammation
} ")
Ġ) {
Ġsign atures
asc ii
} |\
Ġg ri
ĠTam il
H a
Ġb ump
ĠC ensus
Ġcount ed
ĠV P
S uggest
In herited
Ġbe ef
ĠFil ms
PAR AMETER
Ġdistinct ive
Ġthere of
is p
Ġess ence
Get Value
Def ine
Get ting
ro c
Bench marks
T er
ere k
ĠSom ething
1 200
ĠTag ged
ĠSh aw
ĠR M
ĠHor ror
size i
Ġmar ry
Ġconf idential
Ġg lo
Ġpharm aceutical
æ İ
ne apolis
Ġbl ink
ri o
B ODY
J ac
f ade
rece ived
Ġstrong est
R oles
in is
ĠL ik
aut hentication
M igration
ĠS or
query Selector
Ġtrans fers
Ġbrut al
Ġthorough ly
Austral ia
Ġtable ts
Ðº Ð°
ADD RESS
Ġaccess ing
Ġdisappoint ed
g res
ĠAr n
ĠEm pty
17 6
Ġpass ive
Ġtong ue
Ġrepro duce
Ġleg ally
Ent ities
Ġreason ing
Ġd rought
x a
Ġexceed s
Ġun ions
ĠForm ula
5 50
19 52
Ġv i
B uy
SL ONG
ac or
D N
Ð¾Ð ³
Ġadvent ures
K ER
D ependencies
ĠS leep
ĠRequ ire
ĠR ud
Sever al
p ag
Ġf are
Non Null
? !
Ġcent res
ĠImm un
Ø ¹
Ġab normal
ç ±
Ġpain ful
Ġper mut
ov ic
Serial ize
il inx
ĠM ix
ĠDirect ors
15 4
ĠM N
div ider
Ġend points
Ġce iling
Or g
ATION S
Ġrespond ents
rec ogn
Dependency Injection
SER VICE
Ġc ategor
ĠMer cedes
is y
REQ UI
l ene
Ġwhere ver
ĠMan aging
d an
up iter
access or
K im
Ġpoly mer
Ġhist ogram
Ġsacr ifice
ung le
16 3
ĠC li
Ġsurviv ors
Ġt abs
Ġbright ness
o pp
so lete
So ft
l v
ĠP le
loc ations
foot notes
ĠI con
Ġ$ ("#
Ġfe ver
Ġint ensive
ctx t
s uggest
For Key
Ġsh ifting
Ġn est
Ġplay off
ĠB our
ĠProv ider
w au
}^{ +
Ġpress ing
ĠAn imation
M Y
å °
in ical
Ġb uffers
Ġ/ ^
M us
ab lished
print StackTrace
ç ½
ĠOpt im
ex act
Ġproceed s
Ġhon ored
Adv anced
Ġsh ower
Ġshe ets
Bo ard
Ignore Case
Ġspokes person
Dis cover
Ġp ie
br al
cul ator
Ġsit uated
Gu ard
Spr ite
ĠSo ft
ĠHy dro
ĠFin n
Ġ" </
ĠCart esian
S OL
ob ic
ĠS id
ĠBl ake
d yn
Qu ota
char At
f ixture
ĠF at
ure ment
18 7
year s
pp le
S uffix
ag ine
Ġret ention
Ġbed room
Ġp ension
ĠU ntil
Ġn ost
ĠL ooks
ĠST ATE
Ġpo ems
Icon Error
we i
Organ ization
he nd
Ġh alt
key words
set Name
d ifferent
ĠEx ternal
Ġcancel ed
ĠC lay
og an
Ġconst rained
Ġconcept ual
t ap
in come
ĠSo on
ĠR io
Ġsuggest ion
$ ^
ur bed
bar rel
status Code
LA S
ï¸ ı
ĠTre k
Ġcontrovers y
FAIL URE
ĠO pp
man age
Circ le
z el
å į
Ġcal ibration
bal ena
it ting
Ġdo ck
Ġavoid ing
prot oc
ENABLE D
b ag
, (
00 4
ĠG NU
ul ence
Log ical
Ġto ile
h dr
rou ting
odynam ic
m are
q s
row sing
> ";
ey e
Ġin vention
Ġint ake
Ġin set
Ġformer ly
F rag
ì Ŀ
Ġachiev ements
s omething
] -->
in cre
ĠC atal
Ġreve aling
end um
Ġdis cre
ert y
æ į
Ġcos mic
ator ial
">< ![
Ġp index
l ag
ement ia
Ġunder go
Ġmid field
Ġch apters
ãģ Ļ
Ġdrag on
Ġsimpl er
ĠStan ford
ber ger
ĠV erm
Ġa u
product ive
ĠF UN
Ġdon ated
tain ed
ct ype
Ġmo ist
ĠPo inter
ĠBase ball
Ã ´
ĠR AM
ĠIs aac
ĠM ans
Ġkn ife
30 2
Ġinit With
ĠEv olution
Ġorth ogonal
Ġpros per
ĠC ool
Ġmet als
seud o
a ired
es ity
Ġdeput y
amb ers
od ox
ĠMil an
Y et
Ġf uels
Ġp raise
ag ain
ĠM AP
ĠO w
}) (
roph ic
ĠIn flu
ĠBrad y
pe x
Ġseason al
ĠP icture
CI AL
ĠGi ants
Ġcas ino
ĠN HL
oc co
ĠM AR
Ġsp ont
Ġequal To
ef an
Ex pl
Ġapplic ant
r ss
Ġtem pt
. ')
us b
ĠCall back
30 3
Ġphys icians
M IC
Z ip
not ag
Tool tip
Comput ed
é ĩ
pro j
f v
Ġa z
Ġwas h
Ġtrans verse
ĠUtil s
Ġtraged y
expand ed
IconError Encoded
appropri ate
Ġmain tains
Ġadapt ive
() }
ot on
In crement
Ġrem inder
SE D
ĠĠĠĠĠĠĠĠĠĠĠĠĠĠĠĠĠĠĠĠĠĠĠĠĠĠĠĠĠĠĠĠ ĠĠĠĠĠĠĠĠĠĠĠĠĠĠĠĠ
ĠGet ting
State Exception
ĠA id
ĠG ender
Mon day
Ġd ign
Ġ ray
ee per
Ġgard ens
b ach
ĠT aking
Ġnot ably
c rypto
Ġ" {
ĠG rey
aff e
ĠPer form
n olds
ĠPhill ips
p aid
ĠR ET
Ġk g
Trans actions
GL enum
ist ency
ĠN T
ĠCh art
ĠW iki
"> '
ĠAl pha
Ġenjo ys
>: ]<
ĠP NG
Ġlocal ization
Ġlack ing
Ġneut rino
7 68
v id
k now
assert Raises
Ġu uid
ĠF u
ĠU ri
CONT RO
Ġ/ .
Ġmod est
60 1
ĠAdv oc
Trans late
W ay
\, {\
ĠSt atic
Ġport able
M AT
The ir
As String
+ $
Ġpro jections
Ġtra pped
ĠRog ers
Ġsp otted
ĠN HS
Ġbreath ing
ĠM otion
You ng
K A
ĠPar ad
Ġsp are
ens itivity
Ġrem ot
ĠSher iff
t ically
Ġconsult ant
17 8
ĠOr chestra
Ġdam n
Ġpop up
CH O
Ġind igenous
Ġenter prises
Ġ$\ {\
Ġprov ing
. #
ff icking
Ġco herent
") ).
Ġinst ability
Ġ( {
http Response
Ġf ighter
Ġl ith
Ġsh o
un stable
Ġbe aring
Cal ifornia
Ġapprec iated
Ġridic ulous
Ġbreak down
Ġdismiss ed
T CP
Ġsp ray
At omic
Ġcolon ial
R ew
Com bo
G H
Ġb ones
ĠNep al
l ining
x d
B uffers
et itive
ser if
ocy tes
ĠI g
ierarch ical
ĠY am
Ġcelebr ates
feed back
Ġhab its
Ġphenomen a
Ġcyber security
Ġin her
Inst ead
Ġthe ft
Th ursday
by e
Ġbow l
ĠReg Exp
execut or
Ġjew el
] ],
Ġg rap
Callback s
Î ¯
Ġ{ :
Neg ative
Ġshock ed
ĠI BM
ast ics
ĠY A
Ġrel ay
Ġindiv idually
W ER
) ";
ĠL en
Un icode
M ur
Ġburn ed
Ġinject ed
V ED
block quote
P LAY
Ġ( .
DE SC
er red
ĠC UR
Ġh over
UM ENT
Ġbab ies
ĠR S
do ors
Ġr am
at ched
ab olic
Ġsa fer
Ġlast ing
Ġlog istics
ä» ¶
Ġinteract ing
ĠThrow able
m usic
:: _
ĠEx port
Te chn
/ :
i otic
I o
O H
Ġv o
Thread s
ĠMO RE
Mix in
sh ader
Ġapprec iation
k k
ĠC ub
Ġcontinu ity
Ġc ad
Ġg ates
ĠJ D
17 1
23 4
K n
im an
ĠF ame
ard i
ph al
ĠT rial
Ġfin est
A wait
æ ³
Out come
ĠHy per
ĠIran ian
a verage
Ph ysical
ĠEx pert
Ġoper a
ĠD ol
Ġcast ing
Ġpop ulated
Ġorgan izational
Ġch lor
ou bt
ot lin
il o
ant om
ĠAtt ack
20 7
Ġpul monary
FE ATURE
ip ient
I OS
S pl
duct or
person al
M ont
Pl ot
Ġimp ose
ĠB P
%%%%%%%% %%%%%%%%
Ġf el
CONT ENT
z h
weg ian
ill ary
Ġcard iac
Ġantib ody
ĠRec overy
bur st
wau kee
F lex
s ound
m itt
ĠT erry
ĠT CP
ĠRe ally
type param
CT L
Ġinnov ations
D TO
ress ing
ic it
dev ices
? ,
rupted Exception
Ġp ng
Ġtra ct
ort on
Ġstar ring
Ġ" *
Ġres ize
pro pto
ĠC offee
Ġoccup ation
Every thing
ĠR oth
ĠM Y
th umb
Di Container
Ġre build
Ġback wards
% );
Ġdiv id
17 7
gom ery
ched ules
Fixture B
P rem
Ġthreat ening
Mark et
ur istic
Ġpat ri
ME DI
Ġco oper
Ġ[ -
c g
St eve
ĠCh and
Ġfile Name
19 6
ĠPat ient
direct ive
æ ł
ĠPrinc ipal
Ġurg ent
ĠD iversity
Ġr ivers
/ ,
ĠEd inburgh
Ġathlet ic
Ġmatch er
Ġfall back
Ġdisag ree
Ġcol ours
Person al
Inter preter
sl ant
Ġpreced ing
der ived
Ġharm on
Ġelectron ics
Ġbes ide
ag le
Im ports
ç± »
fra ction
filter ed
ĠG PS
D istribution
Ġb ay
ol ia
Ġ< ![
pr ison
Ġscr ut
mk dir
US B
ĠGr ade
ĠPal m
DiContainer Benchmarks
Ġu id
Ġpack ets
Ġin quiry
pro per
ten ant
ĠJ ama
Ġover look
ĠEx ecute
Ġhistor ically
IS A
Dis patch
Ġse p
cl ide
Value Pair
ios ity
Ġdes erial
us p
erm at
ĠLay er
Ġreg ulated
n od
Ġunder way
at ia
ent e
el ian
Ġquiet ly
ĠP FNGL
ĠL oop
US H
Ġgrad es
ĠMont real
Ġdownload ed
19 61
Ġso vere
or acle
Ġ& $
ĠG E
ĠJ et
d eps
un used
Ġun changed
Co V
( ',
Ġc ater
ond ers
ĠC ritical
Ġen act
23 5
Pub lish
Ġ( __
c out
r ish
Ð° ÑĢ
Ġgorge ous
ĠRestaur ant
ĠGener ator
Supp lier
ĠEval uation
Ġ' --
log s
ĠT ol
"> #
80 80
bit coin
Ġcoordin ator
it ored
re ction
un i
Ġreg ret
tab End
Ġf ung
Ġp H
B ra
Ġstart ups
ĠRet rieved
Ġlink ing
ĠD WORD
b rowse
INTER N
ĠK re
Ġimp air
ĠC N
Ġpublish ers
r ases
Ġv iv
own ers
Ġch ips
Ġadd iction
eng es
ĠRes ort
Ġl t
ill ery
ĠFire fox
W rong
Ġconst itution
class path
ĠM ouse
A RE
g irl
De leted
Match ers
ov o
ert on
DE CL
Ġtw isted
P RI
ast ian
Project s
Pro b
Ġarr iving
Ġmax imize
With in
Ġgr asp
current Time
Ġass ass
Ġ ub
W IDTH
ĠY e
re z
Ġst ir
Ġshe d
p ause
Ġt races
Ġw ors
cor ner
s ong
Ġdemonstr ation
Ġh oney
ell ular
Ġn erve
ĠS olution
I SS
Ġtool tip
Ex act
sg iving
Ġartifact s
Ġin complete
ĠCh ase
ĠW es
ĠPu erto
ĠEthiop ia
ĠR ect
dig it
ĠO wner
O VER
Ġexplo it
=\ {
ĠSupp ly
.. ...
ĠChe f
ĠTre asury
Ġas ynchronous
C zech
ĠR ac
na ire
Ġavoid ed
ut er
Ġthr illed
ĠC rypto
Ġo m
Ġd Ã©
ay an
ham mad
opens sl
CLU DE
ĠP ac
}/ \
Pro jection
Al ready
Ġprison ers
00 000
j sp
Ġcomp romise
Ġtob acco
A st
m ons
Ġre ass
Ex ist
l azy
ĠPro ceed
Ġgen us
Ġpsy chiat
ç Ľ
Ġ iv
add itional
nov a
inherit doc
ĠM end
op ard
ĠM es
ĠJul ian
ĠF ri
Con nections
Ġche f
h um
spl ice
Ġcr icket
Ġprol ifer
c ock
Ġwitness es
Ġplay offs
c ott
ĠLink s
ĠÐ½ Ðµ
Ġout look
ĠR idge
ol in
Ġfru its
Ġhe sit
Ġc ake
Term s
Ġf reed
Pos itive
({ },
Ġm eter
organ ization
Ġbound ing
est inal
ĠR ew
ĠE E
get Path
r hs
Ġsoci eties
ĠAr senal
As ia
ĠS olid
Ġass ured
ĠL D
Ġcorrect ed
repe ated
Ġhonest ly
effect s
ĠS ARS
ĠF unc
ĠT on
Up dates
edd ings
match er
- %
Ġb ub
Ġexp ans
)-- (
it ics
old ing
Ġdevelop s
D ump
ĠH ours
Ġl hs
Ġpun ct
ãĢĤ </
ĠC incinnati
Ġg a
sub st
cor respond
Ġtravel ed
Dr ive
Ġa ster
Ġcru el
9 11
S af
Ġal umni
mock ito
b ash
ĠCh an
max imum
ob a
ĠPf izer
Ġf ights
ĠObject s
Prot os
ĠRail way
d ashboard
ic ion
ĠB orn
Ġpoll ing
re pos
uk a
ĠArray s
Ġb ugs
ĠStart ing
ĠB H
getElementsBy TagName
sh iv
reg exp
Ġoccas ional
Ġf printf
âĢĻ :
amp ire
ĠElect ronic
Ġimag ery
ĠID s
ĠPet e
ĠAb raham
ĠRev enue
Tra vel
Ġpro long
ĠK B
Ġprest igious
ere f
Ġmem orial
$ ^{
Ġl adies
ĠL uck
sp ort
Ġtrad ed
int ent
Ġdis charge
Ġl overs
Ġen compass
ĠIN TER
Ġdevast ating
ĠEmp loyment
~ (\
Ġemb ry
Ġaw k
div ision
arm ing
Ġpropag anda
Und efined
el ia
ad os
}} </
Ġx hr
ĠL ions
Analy zer
G LOBAL
ct uary
Ġdefect s
Ï ī
Ġelse if
ĠBer keley
y t
sk in
i u
Ġrel ates
Sund ay
x t
ĠRe ed
ach i
Ġhead lines
ĠF ra
Ġencourag es
ĠIR S
Ġbath room
Ġl as
od ic
spe ction
Ġsk etch
Ġstra ins
initial ized
ĠEth ics
Ġneighborhood s
A W
Ġ[ `
Ġs ampled
Ġaff air
um atic
op ing
ĠWood s
Ġtr iggers
Ġexecut ing
ĠS weet
Ġj ar
erm i
ĠBrook s
æĺ ¯
> *
Ġst iff
Ġphot ons
ch ars
ĠCom edy
ĠEqu ation
Image View
. {
ĠW ol
f iction
ĠN PR
Ġpur suit
rot ation
Ġsimpl ified
ĠTh ought
ĠCry stal
M ic
Ġb uses
ĠAl z
Ġfund ament
lasg ow
ĠLIMIT ED
ĠD rama
function al
Ġaddition ally
Ġax es
ĠCurt is
ĠEx ecution
P ART
Ġinv ocation
ä¸ ª
Ġfeas ible
Ġpe oples
footnotes ize
ro les
Ġr pc
Ad am
Ġfunction ing
Ġconst itute
dig est
U uid
Ġbo ats
Hash Code
ĠNich olas
A ws
ĠBrazil ian
Ġ* );
ĠEx pr
Represent ation
Ä Ł
con struction
tra its
ĠUnc ategorized
Ġ ------------------------------------------------
Ġar ises
Associ ation
oc ities
av in
Ġrespect ed
C AT
ĠP OL
user Id
Ġremind s
se min
Ġnormal ization
k an
Ġin fectious
ĠSt re
ĠSch w
} ',
Ġdecor ated
Ġh oly
ĠShe ll
ĠCont emporary
$. }
Ġstoryt elling
ĠN V
Ġdisc losed
ĠTH REE
ĠFI FA
Ġaccret ion
$ '
ĠR ah
Compar ator
* }{
Ġs aves
B G
Ġbeautiful ly
v iol
Ġan isot
ĠCar lo
ĠR d
and ez
ĠÂ «
Ġex terior
Ġ ----------------
op athy
ĠFund ing
Ġmort gage
Ġrelax ation
17 2
R D
ĠT rophy
Ġtra it
expect s
V ote
Stud y
ĠB ald
ä ¿
Tr im
im its
Ġro ok
Ġet ern
Perm alink
ĠLine ar
Ġc ure
res olver
Ġf ond
ivari ate
ĠĠĠĠ ĉ
std lib
wik imedia
Ġconst itutional
ĠW ine
Ġev t
\ ",
Ġh r
ring tone
cel and
E MPTY
ĠB asketball
Pod s
ĠCoal ition
Ġend l
Att rib
18 2
ĠGL enum
enc ia
Ġden om
Ġwonder ed
Re plication
J av
Â ´
ĠU r
g pu
UB LE
Ġa er
Ġte ens
c url
ĠBo ost
no ise
ĠInitial izes
Ġar ithmetic
Ġtal ents
V s
ine es
itt en
Ġwealth y
ĠSe q
ĠBut ler
ĠTop ics
Ġgar bage
ok a
ĠHar per
ĠI Enumerable
ĠG roups
BO X
C losure
og g
Ġexc use
M irror
Ġh ilar
Ġshe ep
Ġgl ory
Ġcar ing
pl ate
sp ons
Ġshould ers
Ġinev itable
Ġpat ches
Ġcre ature
ĠF oo
Ġco ordination
oche mical
30 6
Ġra p
Symbol s
Ġhighlight ing
Brit ish
ĠHam pshire
ĠG ate
cc i
Ġ icons
er gy
Part icle
ul ators
R anges
ĠG UI
che m
d evelopment
á Ī
Ġsu cc
Ġgirl friend
Ġarchitect ural
{ }{
Ġsupport ive
Ġdis advant
EN ER
m q
Ã ¦
Ġround ed
' })
as se
g ames
ĠEd it
Ġple asant
Ġg amma
Ð¾Ð ±
3 10
ac a
Ġfavor ites
Ġadvis ory
ie u
in vest
Ð° Ð»
Ġfoot er
Track ing
Ġth y
and ed
izar re
M gr
M ah
'] [
ĠRun ning
Ġpredom inant
ĠMETH OD
Work flow
ĠSupp lement
ĠF est
Ġspir its
Ġcollect or
> }
con cept
ĠPay ment
) ");
22 1
bro ok
Ġear ning
ĠB ullet
G al
ĠL oss
è ¦
Ġcoll apsed
ĠV lad
inst ances
Ġad res
ĠHe at
Dir ty
ĠV PN
Ġtwe ets
ape st
ĠEgypt ian
S ym
24 5
ĠT ib
Ġcoll isions
B ot
Ġdisappe ared
_ ),
ĠC oin
ft en
cor ollary
ĠB achelor
Ġ* */
Ġfac ial
Ġcon ferences
ativ istic
t ier
arent ly
^* (
U IT
to Array
ĠR FC
OR TS
Ġex ponent
)) :
Ġthro at
Ġre plica
Ex plicit
ĠD anny
ĠJam ie
im iter
Ġen rolled
sh utdown
Ġredu nd
Ġanalyz ing
um ph
ĠCon cept
Over all
Ġtun ed
3 40
yl an
ad en
Ġco res
30 8
Ġqual itative
ĠId aho
ĠO FF
Ġconv ince
ĠSc ar
MS earch
ĠComp are
auth ors
Ġpract ically
el o
Ġact ed
ĠĠĠĠĠĠĠĠĠĠĠĠ čĊ
Ð¾Ð º
Ġenhance ment
à ¹
Ġin ch
H en
und o
Bound ing
:: ~
Ġmake up
LI ED
Ġb ureau
Ġeleg ant
Ġw ast
Ġassert NotNull
ew s
Ġcontact ed
Ġre plication
ĠR ice
TO KEN
ĠJeff erson
* (
Ġ\ [
register ed
AUT O
ch lor
Ġpa ired
h ooks
ĠG W
att achment
~~~~~~~~ ~~~~~~~~
ĠSp ider
ĠGit Hub
Per haps
n P
proport ion
Ġarg ues
Inf os
g ulp
Ġâ Ī
+- +-
Ġcat ast
ĠExcell ence
Ġb ust
Ġorient ed
Ġs inc
Ġim pe
Ġstation ary
WIN DO
Ġspher ical
Ġconf irms
ĠWork shop
Ġconv icted
Ġg esture
Ġpres cribed
o S
Hash Set
fil ing
mid t
ic iency
SE rror
ud ed
T uesday
A dapt
Ġhead line
role um
00 8
Ġd ash
Ġnom ination
Ġsing les
Ð½ Ð¸
Bal ance
Ġtravel ers
tain ing
Ġnewsp apers
ĠP att
se g
D ll
18 3
m eter
Text Field
ĠLind a
Linear Layout
Or Empty
Ġtravel s
Ġter rain
Ġassess ments
j dbc
ĠNic ole
ĠC BD
k al
Ġp riz
ĠP ossible
ĠK os
*} [
ĠEnt reprene
ï¼ ļ
Ġspokes man
est imate
cur ve
Ġby pass
Ġoffset s
Ġgreen house
G row
Ġless er
ĠAn a
fil m
ĠV e
API ENTRY
Ġg ly
ĠB ir
act ivation
miss ible
assert That
Ġg i
18 9
ĠExpl orer
ĠHon or
Eval uation
Ġtr ash
An onymous
Ġsoc io
u u
ĠG URL
ox ic
I Enumerable
P references
ĠT ampa
with in
Ġutil izing
S ix
Ġ$ ^{
Ġaccommod ation
Ġs lip
Ġdiscret ion
m illion
Ġcar cin
ĠUlt ra
M EN
Ġh ike
Ġcheck point
27 5
ĠP P
ling ton
ĠC anyon
SUP P
Ġ\ ,\
Ġd d
ĠHel en
g old
Ġcr ude
Ġexerc ises
Ġprevent ed
ĠAct or
Ġpen alties
ĠA dapt
ĠL G
ĠX XX
3 80
y ellow
Ġc f
Y ES
et ed
ĠArab ic
H on
Ä «
ues e
y ield
Ġf ame
ĠGo ing
ĠFA Q
Ġac ids
ĠDoc uments
: ",
in ent
Ġeconom ies
is se
hen e
r ings
ĠDec ision
ĠWell s
re search
author ization
Spec ification
To Array
17 9
tr ation
' _{
ĠP and
pro logue
Ġunf air
j ab
Initial izer
Ġn odd
Ge V
ĠToy ota
\ -
ĠU T
Ġsu ited
VAR I
or um
Un fortunately
small skip
Ġc ertificates
Ġappropri ately
V ersions
ĠLog in
Ġhar assment
Ġveget ables
L ee
s uffix
Ġal liance
ĠB SD
ĠIn come
Ġaggreg ation
Ġsear ched
Ġbe aches
t odo
ĠO NE
Ġcor rid
S ibling
IM ARY
success ful
Ġre forms
ĠS ync
Ġt ier
pos ium
ĠLead ers
T emplates
if s
Ġv intage
Ġre interpret
Ġpl otted
umb ling
C ES
Ġb arg
i our
ĠT race
F re
ĠMet adata
m ixed
ĠM AC
Ġr ises
Ġpuzz le
p ark
ĠPop ulation
el in
Ġmed al
ĠAs set
ĠOver view
ymph ony
Call ing
Ġcar riers
R P
Ġt issues
ĠW ays
Ġterm ination
ĠVeter ans
r ator
Ġaccount ability
Gr ant
ĠG D
Cont ainers
lick r
Ġmanip ulation
Ġvalid ated
ð Ŀ
Ġf lesh
pro be
ĠM emph
cover age
Ġc d
per missions
ĠEx cel
ĠEag le
as io
B UT
ĠD ir
ier ce
ĠJour ney
| ^{
) (\
ĠAn aly
Ġscatter ed
Ġremot ely
Ġpresent ations
pare n
isting u
B io
G esture
ai res
Ġprom otes
Ġro d
ĠDef ence
Ġv in
ĠNot ification
u ced
ĠC elt
sm ooth
h ibernate
Ġgen ome
ĠClin ic
Ġunve iled
19 1
ĠSh ip
Ġ ic
nav Bar
Ġbe ats
ĠBl u
ĠOff set
P ipe
ear th
Ġtrav elling
Ġtou ches
F rench
ass ed
19 58
im ap
Ġsm iled
ĠAm sterdam
ĠU AE
E ric
J ose
v or
Ġj ets
Ġev ac
Ġdefic it
> ]
lo ose
des cr
P ot
Ġelim inated
Ġtr illion
ĠL ect
Ġcompris ed
charg ed
G reg
c ould
ĠSh akespeare
z b
ag ar
ew ater
F G
V ery
Ġprob abilities
Ġsent iment
Ġwood s
ĠGard ens
ext ended
Ġb out
Ph ysics
Ġafter wards
P et
ĠH S
val ued
Ġrecycl ing
Ad s
Ġcontrad ict
Ġhe d
ĠCru ise
ĠCas ino
le ad
ĠH indu
Ð° Ðº
UNK NOWN
C andidate
tt ify
ĠØ ¨
L IMIT
19 59
ĠFound er
ĠMemph is
ĠC raft
empl ating
Byte String
Ġalgebra ic
Z END
Ġt ast
D ocker
Not ice
v ier
ĠA ST
ĠH az
Ġlic ensing
View port
Ġterror ism
ĠB irmingham
ĠSy rian
sort ed
Sort ed
Ġcrit ically
Ġwa ited
ĠBenef its
ard less
Rem oved
Ġrelax ed
ĠStrateg ic
Event Type
TR ACE
Ġsan it
ic iary
Ġart ic
Ġcompris es
C rypto
ĠP ages
Assert ion
ĠSpot ify
EN SION
Ġintegr ating
Ġunder graduate
Aggreg ate
ĠP G
Prop agation
Ġvit ro
Ġloyal ty
Ġc ement
Ġto ys
e enth
ĠL ists
stack rel
ort ium
Ġr b
Ġt m
Ġarch ae
View Model
cur s
M ARK
Ġobst acles
M oney
left arrow
Ġgra ve
Ġgen ius
sql ite
ĠC ategories
y ii
com pletion
om p
Ġestim ator
ĠLuc as
ĠB ud
ans om
Ġw ounded
ĠB uilt
ĠF resh
ĠF IT
ĠNorth west
B H
ar an
GL uint
Ġpun ishment
] /
ĠA ncient
op eng
Ġu ph
Ġthr iller
Ġsil ly
ĠO PT
ĠAd ult
ĠSustain ability
] "
m otion
ĠS oci
uis ine
)) {
Ġobserv ing
iem ann
cc entric
ĠCor respond
Ġdiv is
Ġmanufact ured
Ġsimpl ify
Ġ\ |\
Ġde alt
Ġserial ize
Ġconfig urable
Ġen rich
DEF INE
Ä ħ
ĠOper ator
out line
ĠCh rom
ĠH H
e asy
st y
ĠN GC
min or
Ġfix es
ĠB ass
Ġtrans cription
Ġb eds
ĠMin neapolis
osph ere
ĠO z
start sWith
FUN C
Ġcontrad iction
g acor
ra ils
âĶĢ âĶĢ
o fficial
Ġp ale
ow l
=" .
idel ity
Ġs z
Ġchar ter
bread cr
Ġc iting
IC ES
ĠP ul
Ġp ec
Ġmed ieval
sw iper
ĠDel aware
Ġpolynomial s
ĠM akes
Ġa eros
ĠC ov
sub menu
Ġs ulf
Im g
Cal c
T en
Ġvalid ator
ĠBe hind
Ġque en
poly mer
Ġdepos its
Ġt ire
Ġhon our
æľ ī
Ġgrad uates
f h
Ĺ ãģ
play back
ĠA verage
ĠPl aces
Ġapp le
du ctions
ip ro
Ġgod s
Ġtraject ories
ĠV ER
ĠPot ter
read ing
ĠMan ual
ĠSur face
ĠB T
ĠA x
Ġpolit ician
Ġlog arith
atin um
Ġse al
ĠSk ip
ĠSat an
S on
ĠB ath
De let
gover nment
unic ip
++ ]
ĠL ength
ĠUn supported
D U
Ġt utorial
ĠC K
Ġcol ored
ĠKit chen
ASC II
38 4
\| _
h fill
Ġbill ions
Ġevolution ary
ĠBeaut y
Pl ain
Ġg el
Ġ$ ('.
Doc uments
Ġ' ');
T racing
ĠU UID
ell ites
ĠG DP
S el
Ġnorm s
f ork
Ġin herent
Ind ian
Config s
ĠBroad cast
Ġb a
sh irt
ĠNeb raska
erc ise
> ");
W il
comp ressed
Sc ience
ĠDO I
Christ ian
s ap
Ind eed
ĠCh ang
Ġliv est
ĠR angers
s af
Ġ[ (
an try
Ġsupp lier
Ġd irt
ĠB S
He art
ĠMathemat ics
Ġh ind
P TR
Ġ Ñĥ
Ġle ar
Ġarg c
tim ing
Let ter
ĠF oster
Ġtra gic
Ġreflect ing
ĠC RE
ĠH arm
Ġrec ession
6 55
ĠAs k
Mod ify
ĠPUR POSE
ĠRey nolds
Ġfif ty
Lear ning
Ġpress ures
Ġt ales
Ġillust rates
ĠUn ity
ĠW ave
all enge
ĠK er
symbol s
Ġpursu ing
ust ration
ĠN umer
St amp
ĠR ou
end l
RO WS
down arrow
EM ENT
Ġmob il
ĠPl ans
Ġp id
Ġchar m
ĠReb ecca
l ane
ĠL akes
reg istration
C ause
MA IL
Ġinvestig ators
pt ical
Ġout let
ib les
> #
Inter faces
' -
ĠAh med
ĠB att
ĠV enezuel
Ġmet av
Ġjour nals
O Auth
Wed nesday
Cre ating
re load
Ġsh ake
Ġ] );
ĠMax imum
Ġcontin uation
Ġbott les
b ill
ĠN H
Co ordinate
istribut ions
- "
ut t
J D
uss els
ĠApp s
{ |
Ġinterview ed
S ensor
am as
ĠViol ence
F lo
lic h
Ġlat ency
V ir
ĠM age
Ġshel f
clide an
Gover nment
Cur ve
P ark
Ġy a
ĠTe aching
Ġmiss ile
ĠBer g
Ġp kg
IT OR
ĠFore cast
Ġcum ulative
P referred
Ġr het
ĠAnn iversary
Ġdegrad ation
Ġcompris ing
Similar ly
Ġacc idents
E conom
he y
li ances
qu in
ope z
F riend
ik er
Ġneg lect
Ġo pi
Ġin k
$\ \
10 80
count s
SP AN
FO UND
prom pt
Ġsub section
Des erial
ĠN I
ĠSh a
Ġpul s
Ġpur ple
ĠProv ince
ĠChampionship s
ĠGu est
De ath
om ore
ĠR oche
In c
ib an
var rho
K now
ĠBLA SLONG
ro e
Ġn umpy
ãĥ ³
Ġdies el
ch r
Ġdrop down
le en
Gener ation
rist ol
REG ISTER
ĠSche me
Ġscan ning
Ġinter cept
l ord
Ġimm unity
Ġacceler ated
J er
Ch ief
Ġcycl ing
Ġl oses
Ġkey words
ĠLaure n
h all
Property Name
Ġb ite
ĠN uclear
ĠEx pected
prov ided
R CC
Ġdown stream
Ġrig id
Ġshare holders
Ġl ua
ws dl
Sh ard
Ġdon ors
Ġschedul ing
Ġinfl ammatory
Educ ation
s App
PI X
Ġdemand ed
Ġwh itespace
Ġsk ew
ĠTe ams
ĠPoint s
Poly gon
cont aining
? '
ĠRen ew
det ect
f ollow
ĠB ind
Ġdirect ories
s cheduler
Ġrespond s
Re alm
ĠF REE
Ġcontin ent
ir q
ll vm
cent ral
Ġreview ing
ĠSp encer
Print f
min i
clean up
C Y
Ġ{ $\
Ġpredict ive
Ġenumer able
Fin ish
cont ribut
Ġclim bing
Ġgl ut
m v
Ġaw ful
ĠE PA
ĠJosh ua
l aunch
user Agent
Ġst ressed
Ġanth rop
> =
Ġun comfort
s ites
ser ting
Ġste ering
s ix
ur ally
ett i
ex change
vet ica
Block Index
ak y
Ġc attle
Ġspecific ations
ÑĢ Ñĥ
Ap ache
ĠBry an
Ġisol ate
default Value
D ou
Ġcart oon
Ġb oring
ĠC ad
æ ŀ
R FC
sm ith
" ):
G U
ĠSpec ifies
ĠJo el
19 55
CT RL
Ġdi agnostics
Ġprox imity
ĠN g
29 0
ĠBr ig
ac ies
å ĩ
ific ent
Ġflo oding
Ġsubst ances
N an
Ġdis ruption
Ġdiss ip
ĠF S
Ġb er
ĠE ff
che l
ĠG ates
the ir
Ġrel atives
MO VE
\ .
ĠF al
rou tes
19 57
Ġsacr ific
ĠAlber ta
navBar Cell
Ġo ste
Ġprompt ed
Ġback s
az i
ĠSc roll
Ġintrig uing
ĠR uth
ĠHol mes
ĠOak land
d ead
ĠP ipeline
ĠExt ract
or an
qu est
XXXX XXXX
Ġd rast
âĢ Į
Ġbr ush
ĠR osen
Ġconcent rated
sat isf
Ġext ensively
Ġbr ick
Ġ'/ '
Ġthe at
ĠB ever
itect ure
Ġvir uses
ap k
SET T
ĠProcess ing
Pl ugins
Ġplace bo
ĠIm plementation
Ġwell ness
Ġhold ers
ĠColumb us
Ġrem ed
Ġkid ney
Ġin comp
âĢĿ :
dir ty
Comput er
Ġacc red
Ġsepar ator
a uses
). </
ĠS plit
Ġsp rintf
u ably
port let
ĠNiger ian
n f
ĠS ocket
Ġan ch
Ġint ro
G I
Ġex changes
per ed
Ġen counters
M otion
add All
ine z
comp ose
Mac ro
phan ie
Ø ´
Ġcor poration
ĠGe o
ĠRet ail
Bit coin
& =\
ic z
Ġindex ed
EX TERN
ĠD ad
k u
ĠL an
x r
ĠH orn
2 16
ĠTe acher
yl um
Ġl ingu
real m
ro v
aw ait
Ġinv isible
atter ing
Ġappe aling
Ġr ides
Ġorgan ised
Ã «
he w
ĠMar cus
ĠGuid elines
ĠB ring
work space
17 3
ha o
ĠRE Q
p ure
g ol
ĠM olecular
Ġchar ming
Ġav iation
Ġin duce
im ens
Ġspot light
Ġtweet ed
iox ide
ĠSQL Exception
Russ ian
c ern
e lection
Ġmedic ations
)} (\
ĠRep orter
eg al
ron es
Ġg erm
23 7
normal ized
ĠPharm aceutical
ĠT akes
' ",
ĠA ub
Ġdist ancing
Char les
ĠCh oose
Ġmod elling
Ġobserv ational
Ġ" @
ĠS UP
Ġt iles
ĠN ak
R B
ĠCh arter
Un ity
Ġk ills
Ġqual ifying
may be
ĠBapt ist
; =
ing e
Ġinter fer
lett ers
Ġg rip
hol m
Ġp unk
ĠM ull
19 48
B IND
Set ter
ĠLiber al
ĠMc Donald
bound ary
W L
Ġappro ve
ĠTra ffic
Ġcounter parts
ĠW ords
Ġacc us
ĠChristian ity
p edia
Ġ ie
Ġmon etary
N ORMAL
Ġsegment ation
ĠD ame
plic ates
Ġgrab bed
al og
es ar
Gu ide
Ġsubsid iary
B on
Ġv ine
Ġpres erving
Ġasp ir
Ġs ans
ĠM ead
wall paper
S olution
g allery
ĠLag rangian
: =\
Ġbook ing
Ġrot ating
ĠCON TRACT
ĠCH AR
Ġj unction
ĠS ources
Ġbit ter
Ġfight ers
Repe at
Ġun limited
Ġposit ively
Ġem itted
ah an
Intern et
Ġt il
E F
ĠD aw
Ġinter sect
Ġex tr
is ers
ĠE instein
ĠW elcome
Ġdis placement
ĠWord Press
D to
Ġwithdraw al
ĠNews letter
ĠS UB
ĠĠĠĠĠĠĠ Ċ
ĠHar vey
tw ig
Ġret reat
Particip ant
") ),
ĠF ill
Mart in
[...]
