{
  "version": "1.0",
  "truncation": null,
  "padding": null,
  "added_tokens": [
    {
      "id": 0,
      "content": "[UNK]",
      "single_word": false,
      "lstrip": false,
      "rstrip": false,
      "normalized": false,
      "special": true
    }
  ],
  "normalizer": null,
  "pre_tokenizer": {
    "type": "Sequence",
    "pretokenizers": [
      {
        "type": "Digits",
        "individual_digits": false
      },
      {
        "type": "ByteLevel",
        "add_prefix_space": false,
        "trim_offsets": true,
        "use_regex": true
      }
    ]
  },
  "post_processor": null,
  "decoder": null,
  "model": {
    "type": "BPE",
    "dropout": null,
    "unk_token": "[UNK]",
    "continuing_subword_prefix": null,
    "end_of_word_suffix": null,
    "fuse_unk": false,
    "byte_fallback": false,
    "vocab": {
      "[UNK]": 0,
      "!": 1,
      "\"": 2,
      "#": 3,
      "$": 4,
      "%": 5,
      "&": 6,
      "'": 7,
      "(": 8,
      ")": 9,
      "*": 10,
      "+": 11,
      ",": 12,
      "-": 13,
      ".": 14,
      "/": 15,
      "0": 16,
      "1": 17,
      "2": 18,
      "3": 19,
      "4": 20,
      "5": 21,
      "6": 22,
      "7": 23,
      "8": 24,
      "9": 25,
      ":": 26,
      ";": 27,
      "<": 28,
      "=": 29,
      ">": 30,
      "?": 31,
      "@": 32,
      "A": 33,
      "B": 34,
      "C": 35,
      "D": 36,
      "E": 37,
      "F": 38,
      "G": 39,
      "H": 40,
      "I": 41,
      "J": 42,
      "K": 43,
      "L": 44,
      "M": 45,
      "N": 46,
      "O": 47,
      "P": 48,
      "Q": 49,
      "R": 50,
      "S": 51,
      "T": 52,
      "U": 53,
      "V": 54,
      "W": 55,
      "X": 56,
      "Y": 57,
      "Z": 58,
      "[": 59,
      "\\": 60,
      "]": 61,
      "^": 62,
      "_": 63,
      "`": 64,
      "a": 65,
      "b": 66,
      "c": 67,
      "d": 68,
      "e": 69,
      "f": 70,
      "g": 71,
      "h": 72,
      "i": 73,
      "j": 74,
      "k": 75,
      "l": 76,
      "m": 77,
      "n": 78,
      "o": 79,
      "p": 80,
      "q": 81,
      "r": 82,
      "s": 83,
      "t": 84,
      "u": 85,
      "v": 86,
      "w": 87,
      "x": 88,
      "y": 89,
      "z": 90,
      "{": 91,
      "|": 92,
      "}": 93,
      "~": 94,
      "¡": 95,
      "¢": 96,
      "£": 97,
      "¤": 98,
      "¥": 99,
      "¦": 100,
      "§": 101,
      "¨": 102,
      "©": 103,
      "ª": 104,
      "«": 105,
      "¬": 106,
      "®": 107,
      "¯": 108,
      "°": 109,
      "±": 110,
      "²": 111,
      "³": 112,
      "´": 113,
      "µ": 114,
      "¶": 115,
      "·": 116,
      "¸": 117,
      "¹": 118,
      "º": 119,
      "»": 120,
      "¼": 121,
      "½": 122,
      "¾": 123,
      "¿": 124,
      "Â": 125,
      "Ã": 126,
      "Ä": 127,
      "Å": 128,
      "Æ": 129,
      "Ç": 130,
      "È": 131,
      "É": 132,
      "Ê": 133,
      "Ë": 134,
      "Ì": 135,
      "Í": 136,
      "Î": 137,
      "Ï": 138,
      "Ð": 139,
      "Ñ": 140,
      "Ò": 141,
      "Ó": 142,
      "Ô": 143,
      "Õ": 144,
      "Ö": 145,
      "×": 146,
      "Ø": 147,
      "Ù": 148,
      "Ú": 149,
      "Û": 150,
      "Ü": 151,
      "Ý": 152,
      "Þ": 153,
      "ß": 154,
      "à": 155,
      "á": 156,
      "â": 157,
      "ã": 158,
      "ä": 159,
      "å": 160,
      "æ": 161,
      "ç": 162,
      "è": 163,
      "é": 164,
      "ê": 165,
      "ë": 166,
      "ì": 167,
      "í": 168,
      "î": 169,
      "ï": 170,
      "ð": 171,
      "ñ": 172,
      "ó": 173,
      "ô": 174,
      "Ā": 175,
      "ā": 176,
      "Ă": 177,
      "ă": 178,
      "Ą": 179,
      "ą": 180,
      "Ć": 181,
      "ć": 182,
      "Ĉ": 183,
      "ĉ": 184,
      "Ċ": 185,
      "ċ": 186,
      "Č": 187,
      "č": 188,
      "Ď": 189,
      "ď": 190,
      "Đ": 191,
      "đ": 192,
      "Ē": 193,
      "ē": 194,
      "Ĕ": 195,
      "ĕ": 196,
      "Ė": 197,
      "ė": 198,
      "Ę": 199,
      "ę": 200,
      "Ě": 201,
      "ě": 202,
      "Ĝ": 203,
      "ĝ": 204,
      "Ğ": 205,
      "ğ": 206,
      "Ġ": 207,
      "ġ": 208,
      "Ģ": 209,
      "ģ": 210,
      "Ĥ": 211,
      "ĥ": 212,
      "Ħ": 213,
      "ħ": 214,
      "Ĩ": 215,
      "ĩ": 216,
      "Ī": 217,
      "ī": 218,
      "Ĭ": 219,
      "ĭ": 220,
      "Į": 221,
      "į": 222,
      "İ": 223,
      "ı": 224,
      "Ĳ": 225,
      "ĳ": 226,
      "Ĵ": 227,
      "ĵ": 228,
      "Ķ": 229,
      "ķ": 230,
      "ĸ": 231,
      "Ĺ": 232,
      "ĺ": 233,
      "Ļ": 234,
      "ļ": 235,
      "Ľ": 236,
      "ľ": 237,
      "Ŀ": 238,
      "ŀ": 239,
      "Ł": 240,
      "ł": 241,
      "Ń": 242,
      "ĠĠ": 243,
      "ĠĠĠĠ": 244,
      "Ġt": 245,
      "in": 246,
      "er": 247,
      "Ġa": 248,
      "on": 249,
      "he": 250,
      "re": 251,
      "at": 252,
      "en": 253,
      "or": 254,
      "st": 255,
      "Ġthe": 256,
      "it": 257,
      "an": 258,
      "Ġc": 259,
      "al": 260,
      "Ġs": 261,
      "ar": 262,
      "es": 263,
      "ĠĠĠ": 264,
      "Ġo": 265,
      "ion": 266,
      "ed": 267,
      "Ġw": 268,
      "ĠĠĠĠĠĠĠĠ": 269,
      "is": 270,
      "Ġf": 271,
      "ing": 272,
      "Ġp": 273,
      "le": 274,
      "Ġb": 275,
      "ou": 276,
      "nd": 277,
      "ic": 278,
      "Ġin": 279,
      "ro": 280,
      "Ġm": 281,
      "as": 282,
      "Ġof": 283,
      "et": 284,
      "Ġd": 285,
      "ct": 286,
      "Ġto": 287,
      "ent": 288,
      "Ġand": 289,
      "el": 290,
      "Ġh": 291,
      "Ġth": 292,
      "am": 293,
      "il": 294,
      "Ġre": 295,
      "om": 296,
      "Ġn": 297,
      "id": 298,
      "ĠĠĠĠĠĠĠ": 299,
      "âĢ": 300,
      "ut": 301,
      "ce": 302,
      "ur": 303,
      "ĠS": 304,
      "Ġl": 305,
      "ol": 306,
      "Ġe": 307,
      "im": 308,
      "ation": 309,
      "ig": 310,
      "ĠT": 311,
      "ot": 312,
      "Ġ(": 313,
      "se": 314,
      "Ġ=": 315,
      "ĠC": 316,
      "ad": 317,
      "iv": 318,
      "ĠA": 319,
      "ch": 320,
      "Ġg": 321,
      "ul": 322,
      "od": 323,
      "if": 324,
      "ĉĉ": 325,
      "Ġis": 326,
      "ra": 327,
      "ow": 328,
      "ĠI": 329,
      ");": 330,
      "Ġfor": 331,
      "Ġ<": 332,
      "ag": 333,
      "un": 334,
      "th": 335,
      "Ġst": 336,
      "Ġv": 337,
      "Ġ{": 338,
      "em": 339,
      "ly": 340,
      "us": 341,
      "ers": 342,
      "Ġbe": 343,
      "ĠM": 344,
      "=\"": 345,
      "pe": 346,
      "Ġon": 347,
      "ay": 348,
      "ate": 349,
      "--": 350,
      "ab": 351,
      "ith": 352,
      "um": 353,
      "ck": 354,
      "ĠP": 355,
      "Ġ$": 356,
      "//": 357,
      "ir": 358,
      "ĠĠĠĠĠĠĠĠĠĠĠ": 359,
      "qu": 360,
      "</": 361,
      "ter": 362,
      "Ġ*": 363,
      "Ġcon": 364,
      "pt": 365,
      "Ġthat": 366,
      "ist": 367,
      "ĠB": 368,
      "ver": 369,
      "av": 370,
      "ht": 371,
      "est": 372,
      "ew": 373,
      "ex": 374,
      "Ġ\\": 375,
      "ess": 376,
      "čĊ": 377,
      "ction": 378,
      "ass": 379,
      "Ġwith": 380,
      "ĠD": 381,
      "ĠR": 382,
      "lo": 383,
      "ri": 384,
      "Ġas": 385,
      "res": 386,
      "âĢĻ": 387,
      "and": 388,
      "ame": 389,
      "20": 390,
      "Ġy": 391,
      "pp": 392,
      "end": 393,
      "ĠF": 394,
      "ort": 395,
      "Ġan": 396,
      "Ġ}": 397,
      "Ġpro": 398,
      "our": 399,
      "Ġwh": 400,
      "Ġal": 401,
      "Ġit": 402,
      "ĠH": 403,
      "ub": 404,
      "ue": 405,
      "ĠN": 406,
      "ĠL": 407,
      "ĠW": 408,
      "op": 409,
      "Ġ\"": 410,
      "ĠE": 411,
      "ity": 412,
      "ke": 413,
      "nt": 414,
      "ill": 415,
      "Ġex": 416,
      "Ġde": 417,
      "ect": 418,
      "ment": 419,
      "ore": 420,
      "age": 421,
      "ere": 422,
      "Ġcom": 423,
      "ĠG": 424,
      "\">": 425,
      "ĠĠĠĠĠĠĠĠĠĠĠĠĠĠĠĠ": 426,
      "rom": 427,
      "os": 428,
      "lass": 429,
      "ĠThe": 430,
      "ĠĠĠĠĠ": 431,
      "art": 432,
      "Ġor": 433,
      "()": 434,
      "ine": 435,
      "Ġthis": 436,
      "ain": 437,
      "urn": 438,
      "**": 439,
      "tr": 440,
      "Ġat": 441,
      "ap": 442,
      "Ġare": 443,
      "oc": 444,
      "Ġr": 445,
      "ive": 446,
      "ld": 447,
      "ight": 448,
      "ies": 449,
      "all": 450,
      "iz": 451,
      "Ġby": 452,
      "Ġu": 453,
      "ure": 454,
      "..": 455,
      "ant": 456,
      "ĠO": 457,
      "ult": 458,
      "ath": 459,
      "ial": 460,
      "con": 461,
      "Ġse": 462,
      "per": 463,
      "Ġhe": 464,
      "ac": 465,
      "pl": 466,
      "ack": 467,
      "turn": 468,
      "ext": 469,
      "ĠâĢ": 470,
      "able": 471,
      "ud": 472,
      "Ġif": 473,
      "ans": 474,
      "li": 475,
      "Ġfrom": 476,
      "ype": 477,
      "Ġwe": 478,
      "00": 479,
      "og": 480,
      "----": 481,
      "ge": 482,
      "ust": 483,
      "get": 484,
      "rou": 485,
      "ĠJ": 486,
      "Ġwas": 487,
      "ff": 488,
      "lic": 489,
      "orm": 490,
      "sp": 491,
      "Ġ'": 492,
      "ave": 493,
      "Ġnot": 494,
      "Ġch": 495,
      "int": 496,
      "ode": 497,
      "ast": 498,
      "Ġsh": 499,
      "==": 500,
      "out": 501,
      "port": 502,
      "Ġ&": 503,
      "ind": 504,
      "ef": 505,
      "are": 506,
      "com": 507,
      "ption": 508,
      "Ġclass": 509,
      "ost": 510,
      "ard": 511,
      "ase": 512,
      "ov": 513,
      "eg": 514,
      "ĠU": 515,
      "ber": 516,
      "ile": 517,
      "Ġyou": 518,
      "ĠĠĠĠĠĠĠĠĠĠĠĠĠĠĠ": 519,
      "ary": 520,
      "ata": 521,
      "ell": 522,
      "{\\": 523,
      "ph": 524,
      "Ġle": 525,
      "Ġ-": 526,
      "ok": 527,
      "In": 528,
      "Ġtr": 529,
      "ire": 530,
      "ated": 531,
      "The": 532,
      "ite": 533,
      "ide": 534,
      "ak": 535,
      "act": 536,
      "ice": 537,
      "ord": 538,
      "ime": 539,
      "ace": 540,
      "Ġhave": 541,
      "ref": 542,
      "Ġreturn": 543,
      "ject": 544,
      "Ġ//": 545,
      "ould": 546,
      "Ġsu": 547,
      "Ġcan": 548,
      "ign": 549,
      "ep": 550,
      "ition": 551,
      "Ġj": 552,
      "Ġint": 553,
      "cl": 554,
      "Ġus": 555,
      "ork": 556,
      "Ġcont": 557,
      "Ġnew": 558,
      "ip": 559,
      "alue": 560,
      "ser": 561,
      "ical": 562,
      "::": 563,
      "->": 564,
      "ong": 565,
      "âĢĿ": 566,
      "ear": 567,
      "str": 568,
      "ich": 569,
      "cc": 570,
      "ia": 571,
      "ence": 572,
      "Ġpl": 573,
      "ance": 574,
      "Ġhas": 575,
      "ĠIn": 576,
      "ang": 577,
      "Ġab": 578,
      "form": 579,
      "Ġcomp": 580,
      "Ġad": 581,
      "one": 582,
      "ens": 583,
      "ublic": 584,
      "Ġall": 585,
      "Con": 586,
      "ild": 587,
      "ĠK": 588,
      "unction": 589,
      "Ġ@": 590,
      "ail": 591,
      "ĠTh": 592,
      "Ġwill": 593,
      "Ġim": 594,
      "201": 595,
      "ĠV": 596,
      ").": 597,
      "Ġ[": 598,
      "ev": 599,
      "Ġk": 600,
      "ry": 601,
      "ec": 602,
      "ib": 603,
      "Ġ</": 604,
      "ations": 605,
      "ress": 606,
      "),": 607,
      "ĉĉĉĉ": 608,
      "St": 609,
      "_{": 610,
      "aram": 611,
      "ory": 612,
      "Ġres": 613,
      "row": 614,
      "ents": 615,
      "pro": 616,
      "ource": 617,
      "Ġ/": 618,
      "ther": 619,
      "'s": 620,
      "hen": 621,
      "Ġun": 622,
      "elf": 623,
      "ount": 624,
      "ull": 625,
      "Ġar": 626,
      "ĠSt": 627,
      "\",": 628,
      "Ġdo": 629,
      "ous": 630,
      "ach": 631,
      "Ġen": 632,
      "ft": 633,
      "du": 634,
      "Ġout": 635,
      "Ġ+": 636,
      "so": 637,
      "ll": 638,
      "19": 639,
      "set": 640,
      "ome": 641,
      "../": 642,
      "();": 643,
      "(\"": 644,
      "ize": 645,
      "ĠĊ": 646,
      "cri": 647,
      "ps": 648,
      "Ġbut": 649,
      "Ġstr": 650,
      "ma": 651,
      "ĠâĢľ": 652,
      "Ġ$\\": 653,
      "gh": 654,
      "Ġwhich": 655,
      "10": 656,
      "ook": 657,
      "ob": 658,
      "ual": 659,
      "iew": 660,
      "Ġup": 661,
      "own": 662,
      "ark": 663,
      "ink": 664,
      "',": 665,
      "Ġme": 666,
      "put": 667,
      "Ġtheir": 668,
      "Ġgo": 669,
      "ml": 670,
      "ple": 671,
      "text": 672,
      "eth": 673,
      "Ġget": 674,
      "tring": 675,
      "ors": 676,
      "fer": 677,
      "ound": 678,
      "te": 679,
      "Ġhis": 680,
      "--------": 681,
      "math": 682,
      "****": 683,
      "ake": 684,
      "Ġmore": 685,
      "erv": 686,
      "div": 687,
      "yst": 688,
      "Ġone": 689,
      "Ġ*/": 690,
      "au": 691,
      "Ex": 692,
      "essage": 693,
      "iel": 694,
      "Ġdis": 695,
      "Ġev": 696,
      "ree": 697,
      "ions": 698,
      "che": 699,
      "Ġpublic": 700,
      "Ġthey": 701,
      "Ġ.": 702,
      "Ġfunction": 703,
      "Ġper": 704,
      "ĠCh": 705,
      "Ġ:": 706,
      "Ġso": 707,
      "ery": 708,
      "err": 709,
      "ield": 710,
      "cre": 711,
      "cal": 712,
      "ER": 713,
      "ool": 714,
      "fig": 715,
      "Ġqu": 716,
      "Ġdef": 717,
      "ne": 718,
      "Ġname": 719,
      "clud": 720,
      "lect": 721,
      "Ġapp": 722,
      "oth": 723,
      "></": 724,
      "span": 725,
      "pect": 726,
      "equ": 727,
      "tt": 728,
      "ings": 729,
      "ely": 730,
      "ĠY": 731,
      "ener": 732,
      "Ġinter": 733,
      "ray": 734,
      "ystem": 735,
      "inal": 736,
      "Ġpr": 737,
      "oll": 738,
      "but": 739,
      "old": 740,
      "ĠĠĠĠĠĠĠĠĠ": 741,
      "Ġwho": 742,
      "irst": 743,
      "ss": 744,
      "oid": 745,
      "ĠĠĠĠĠĠĠĠĠĠĠĠĠĠĠĠĠĠĠ": 746,
      "Ġset": 747,
      "Ġsp": 748,
      "pec": 749,
      "ert": 750,
      "enc": 751,
      "Ġpart": 752,
      "Ġne": 753,
      "Ġman": 754,
      "Ġvar": 755,
      "ug": 756,
      "sh": 757,
      "we": 758,
      "}}": 759,
      "Pro": 760,
      "ates": 761,
      "('": 762,
      "Ġli": 763,
      "Ġob": 764,
      "app": 765,
      "this": 766,
      "ON": 767,
      "><": 768,
      "oint": 769,
      "Name": 770,
      "====": 771,
      "vel": 772,
      "ĉĉĉ": 773,
      "Ġpre": 774,
      "))": 775,
      "Ġover": 776,
      "Ġ|": 777,
      "Ġabout": 778,
      "IN": 779,
      "name": 780,
      "ict": 781,
      "ays": 782,
      "Ġag": 783,
      "Ġits": 784,
      "Ġwere": 785,
      "ian": 786,
      "Ġalso": 787,
      "pr": 788,
      "202": 789,
      "ick": 790,
      "Ġwork": 791,
      "ty": 792,
      "Ġ#": 793,
      "ys": 794,
      "Ġ_": 795,
      "ix": 796,
      "Th": 797,
      "atch": 798,
      "Type": 799,
      "ve": 800,
      "nder": 801,
      "Ġsa": 802,
      "up": 803,
      "^{": 804,
      "../../": 805,
      "over": 806,
      "odel": 807,
      "ish": 808,
      "ax": 809,
      "Ġtime": 810,
      "Ġour": 811,
      "Ġyour": 812,
      "param": 813,
      "igh": 814,
      "to": 815,
      "ose": 816,
      "Ġother": 817,
      "mer": 818,
      "Ġbeen": 819,
      "ics": 820,
      "rit": 821,
      "lement": 822,
      "Ġwhen": 823,
      "ator": 824,
      "erm": 825,
      "}\\": 826,
      "io": 827,
      "wo": 828,
      "Ġany": 829,
      "ram": 830,
      "import": 831,
      "Ġher": 832,
      "}$": 833,
      "ange": 834,
      "Ġyear": 835,
      "://": 836,
      "fter": 837,
      "12": 838,
      "html": 839,
      "Ġte": 840,
      "ove": 841,
      "sum": 842,
      "Ġadd": 843,
      "return": 844,
      "Ġdata": 845,
      "Ġro": 846,
      "les": 847,
      "pon": 848,
      "iss": 849,
      "ribut": 850,
      "atic": 851,
      "abel": 852,
      "line": 853,
      "roup": 854,
      "ific": 855,
      "String": 856,
      "Ġtype": 857,
      "Ġthere": 858,
      "RE": 859,
      "arg": 860,
      "alse": 861,
      "Ġvalue": 862,
      "ont": 863,
      "ng": 864,
      "ater": 865,
      "Id": 866,
      "ĠIt": 867,
      "Ġthan": 868,
      "anc": 869,
      "uct": 870,
      "lock": 871,
      "key": 872,
      "ache": 873,
      "ethod": 874,
      "urre": 875,
      "fo": 876,
      "ST": 877,
      "Ġhref": 878,
      "Ġdes": 879,
      "ie": 880,
      "eng": 881,
      "source": 882,
      "ise": 883,
      "Ġinto": 884,
      "uild": 885,
      "round": 886,
      "ead": 887,
      "ative": 888,
      "aw": 889,
      "Ġoff": 890,
      "Ġ!": 891,
      "},": 892,
      "Ġacc": 893,
      "message": 894,
      "umber": 895,
      "Ġhad": 896,
      "Ġcomm": 897,
      "Ġconst": 898,
      "Ġsome": 899,
      "trans": 900,
      "Ġel": 901,
      "Ġrec": 902,
      "def": 903,
      "als": 904,
      "ĠThis": 905,
      "lation": 906,
      "tern": 907,
      "ues": 908,
      "Ġcol": 909,
      "Ġrequ": 910,
      "Ġself": 911,
      "ock": 912,
      "dd": 913,
      "ĠWe": 914,
      "pport": 915,
      "Ġfirst": 916,
      "rac": 917,
      "Ġcre": 918,
      "Ġend": 919,
      "ning": 920,
      "Ġno": 921,
      "egin": 922,
      "ating": 923,
      "Ġwould": 924,
      "Ġthem": 925,
      "AT": 926,
      "code": 927,
      "200": 928,
      "ception": 929,
      "Ġi": 930,
      "ames": 931,
      "Com": 932,
      "Res": 933,
      "Ġind": 934,
      "Ġsc": 935,
      "ious": 936,
      "right": 937,
      "arch": 938,
      "(\\": 939,
      "Ġpe": 940,
      "read": 941,
      "td": 942,
      "the": 943,
      "nc": 944,
      "ault": 945,
      "Ġonly": 946,
      "Ġ=>": 947,
      "Ġtrans": 948,
      "Ġid": 949,
      "mb": 950,
      "type": 951,
      "ons": 952,
      "Ġkn": 953,
      "cess": 954,
      "11": 955,
      "Ġcl": 956,
      "Ġbet": 957,
      "ally": 958,
      "add": 959,
      "olog": 960,
      "cript": 961,
      "ĠâĢĵ": 962,
      "ade": 963,
      "pos": 964,
      "ID": 965,
      "begin": 966,
      "Ġresult": 967,
      "Ġlike": 968,
      "ility": 969,
      "Ġreg": 970,
      "ember": 971,
      "ner": 972,
      "Ġtwo": 973,
      "Ġuse": 974,
      "htt": 975,
      "Ch": 976,
      "vent": 977,
      "Ġsaid": 978,
      "Ġsub": 979,
      "of": 980,
      "Ġfe": 981,
      "ular": 982,
      "ox": 983,
      "ied": 984,
      "ities": 985,
      "Ġtra": 986,
      "ash": 987,
      "Ġ==": 988,
      "Ġnull": 989,
      "ĠPro": 990,
      "let": 991,
      "Ġback": 992,
      "/>": 993,
      "ĠCom": 994,
      "Ġline": 995,
      "col": 996,
      "Ġact": 997,
      "und": 998,
      "16": 999,
      "cont": 1000,
      "Ġprov": 1001,
      "class": 1002,
      "ices": 1003,
      "__": 1004,
      "Ġpos": 1005,
      "ĠUn": 1006,
      "its": 1007,
      "ople": 1008,
      "OR": 1009,
      "urrent": 1010,
      "Ġinclud": 1011,
      "Ġshe": 1012,
      "Ġmy": 1013,
      "AR": 1014,
      "Ġdif": 1015,
      "Ġatt": 1016,
      "der": 1017,
      "ible": 1018,
      "ational": 1019,
      "Ġunder": 1020,
      "ased": 1021,
      "ement": 1022,
      "List": 1023,
      "Ġmay": 1024,
      "Ġcall": 1025,
      "eb": 1026,
      "Ġinv": 1027,
      "...": 1028,
      "Ġwhat": 1029,
      "##": 1030,
      "uth": 1031,
      "ures": 1032,
      "Ġvoid": 1033,
      "rough": 1034,
      "ptions": 1035,
      "LE": 1036,
      "ble": 1037,
      "ĠHe": 1038,
      "Ġhow": 1039,
      "ww": 1040,
      "ersion": 1041,
      "ms": 1042,
      "ower": 1043,
      "ause": 1044,
      "Ġjust": 1045,
      "ivate": 1046,
      "irect": 1047,
      "18": 1048,
      "_{\\": 1049,
      "\"/>": 1050,
      "15": 1051,
      "Ġtest": 1052,
      "Ġafter": 1053,
      "ask": 1054,
      "Ġorg": 1055,
      "ta": 1056,
      "ined": 1057,
      "ract": 1058,
      "orld": 1059,
      "ows": 1060,
      "):": 1061,
      "Ġerr": 1062,
      "Ġneed": 1063,
      "var": 1064,
      "ey": 1065,
      "Ar": 1066,
      "Ġ`": 1067,
      "Ġspec": 1068,
      "));": 1069,
      "ann": 1070,
      "led": 1071,
      ")$": 1072,
      "son": 1073,
      "ton": 1074,
      "Ġwhere": 1075,
      "string": 1076,
      "ument": 1077,
      "Ġever": 1078,
      "Ġinst": 1079,
      "Ġrem": 1080,
      "AL": 1081,
      "Ġtrue": 1082,
      "day": 1083,
      "back": 1084,
      "Ġem": 1085,
      "ting": 1086,
      "ider": 1087,
      "EN": 1088,
      "Ġ>": 1089,
      "amp": 1090,
      "ek": 1091,
      "raph": 1092,
      "val": 1093,
      "eta": 1094,
      "ages": 1095,
      "sert": 1096,
      "ward": 1097,
      "hed": 1098,
      "********": 1099,
      "Ġval": 1100,
      "Ġrel": 1101,
      "}{": 1102,
      "Ġac": 1103,
      "lection": 1104,
      "pen": 1105,
      "idth": 1106,
      "ĠAr": 1107,
      "Ġpeople": 1108,
      "Ġph": 1109,
      "label": 1110,
      "view": 1111,
      "ank": 1112,
      "Ġam": 1113,
      "Ġstud": 1114,
      "itle": 1115,
      "ature": 1116,
      "ervice": 1117,
      "Ġthese": 1118,
      "ĠNew": 1119,
      "ful": 1120,
      "org": 1121,
      "Ġent": 1122,
      "bject": 1123,
      "fore": 1124,
      "Ġmost": 1125,
      "It": 1126,
      "Ġ)": 1127,
      "translation": 1128,
      "hat": 1129,
      "ru": 1130,
      "loc": 1131,
      "Ġfalse": 1132,
      "Cont": 1133,
      "cond": 1134,
      "Ġshould": 1135,
      "ĠĠĠĠĠĠĠĠĠĠĠĠĠĠĠĠĠĠĠĠĠĠĠĠĠĠĠĠĠĠĠĠ": 1136,
      "âĢľ": 1137,
      "yle": 1138,
      "ody": 1139,
      "Ġelse": 1140,
      "reat": 1141,
      "ments": 1142,
      "self": 1143,
      "Ġthrough": 1144,
      "Ġext": 1145,
      "sc": 1146,
      "Ġhigh": 1147,
      "ric": 1148,
      "resent": 1149,
      "Ġused": 1150,
      "min": 1151,
      "\");": 1152,
      "Ġthen": 1153,
      "ough": 1154,
      ".âĢĿ": 1155,
      "To": 1156,
      "Ġfl": 1157,
      "ream": 1158,
      "Value": 1159,
      "rr": 1160,
      "imes": 1161,
      "ole": 1162,
      "ength": 1163,
      "Ġloc": 1164,
      "////": 1165,
      "----------------": 1166,
      "ĠSe": 1167,
      "\"><": 1168,
      "Ġsuch": 1169,
      "Data": 1170,
      "Ġform": 1171,
      "30": 1172,
      "any": 1173,
      "ins": 1174,
      "air": 1175,
      "25": 1176,
      "Ġplay": 1177,
      "Ġchar": 1178,
      "ier": 1179,
      "ood": 1180,
      "Ġcase": 1181,
      "ient": 1182,
      "ized": 1183,
      "Ġstart": 1184,
      "red": 1185,
      "ĠEx": 1186,
      "arget": 1187,
      "data": 1188,
      "log": 1189,
      "SS": 1190,
      "perty": 1191,
      "Ġprodu": 1192,
      "ited": 1193,
      "eq": 1194,
      "ily": 1195,
      "ffect": 1196,
      "formation": 1197,
      "serv": 1198,
      "be": 1199,
      "Ġfoll": 1200,
      "ern": 1201,
      "Ġdiffer": 1202,
      "uff": 1203,
      "14": 1204,
      "uring": 1205,
      "Ġexp": 1206,
      "Ġco": 1207,
      "ines": 1208,
      "left": 1209,
      "Ġdet": 1210,
      "ĠĠĠĠĠĠĠĠĠĠĠĠĠ": 1211,
      "Ġfinal": 1212,
      "ĠCon": 1213,
      "Ġcould": 1214,
      "'t": 1215,
      "Ġ/**": 1216,
      "ars": 1217,
      "frac": 1218,
      "fl": 1219,
      "ween": 1220,
      "lient": 1221,
      "Ġpol": 1222,
      "ule": 1223,
      "Ġcons": 1224,
      "wn": 1225,
      "ĠSh": 1226,
      "Ġfil": 1227,
      "cite": 1228,
      "Ġx": 1229,
      "ivers": 1230,
      "13": 1231,
      "ets": 1232,
      "Ġstring": 1233,
      "Ġra": 1234,
      "ution": 1235,
      "Ġgener": 1236,
      "ĠĠĠĠĠĠĠĠĠĠĠĠĠĠĠĠĠĠĠĠĠĠĠ": 1237,
      "for": 1238,
      "ava": 1239,
      "Ġbec": 1240,
      "cent": 1241,
      "Ġwell": 1242,
      "heck": 1243,
      "bar": 1244,
      "arent": 1245,
      "Ġcor": 1246,
      "Ġnow": 1247,
      "Ġ--": 1248,
      "ince": 1249,
      "AN": 1250,
      "Ġsim": 1251,
      "ĠAs": 1252,
      "br": 1253,
      "pre": 1254,
      "ts": 1255,
      "value": 1256,
      "Ġsystem": 1257,
      "par": 1258,
      "Ġlist": 1259,
      "Ġlong": 1260,
      "IT": 1261,
      "sub": 1262,
      "Ġmake": 1263,
      "ote": 1264,
      "Exception": 1265,
      "ĠAn": 1266,
      "date": 1267,
      "ĠQ": 1268,
      "Ġass": 1269,
      "other": 1270,
      "ele": 1271,
      "Ġsm": 1272,
      "Ġread": 1273,
      "000": 1274,
      "32": 1275,
      "Ġevery": 1276,
      "Ġdist": 1277,
      "ĠĠĠĠĠĠ": 1278,
      "yp": 1279,
      "man": 1280,
      "Set": 1281,
      "new": 1282,
      "Ġ&&": 1283,
      "erson": 1284,
      "alth": 1285,
      "Ġbetween": 1286,
      "Ġright": 1287,
      "lp": 1288,
      "Ġhim": 1289,
      "ify": 1290,
      "ife": 1291,
      "work": 1292,
      "SE": 1293,
      "Ġsign": 1294,
      "att": 1295,
      "CT": 1296,
      "Ġnumber": 1297,
      "uch": 1298,
      "ĠAl": 1299,
      "Ġyears": 1300,
      "ample": 1301,
      "\")": 1302,
      "action": 1303,
      "iver": 1304,
      "Col": 1305,
      "px": 1306,
      "Ġpoint": 1307,
      "As": 1308,
      "file": 1309,
      "Ġmodel": 1310,
      "ired": 1311,
      "ren": 1312,
      "owing": 1313,
      "($": 1314,
      "atus": 1315,
      "land": 1316,
      "By": 1317,
      "Ġsee": 1318,
      "test": 1319,
      "eter": 1320,
      "17": 1321,
      "roll": 1322,
      "];": 1323,
      "item": 1324,
      "Ġstatic": 1325,
      "ccess": 1326,
      "ond": 1327,
      "rror": 1328,
      "Ġ!=": 1329,
      "Ġ///": 1330,
      "Ġdoes": 1331,
      "mathb": 1332,
      "ason": 1333,
      "Ġlook": 1334,
      "nb": 1335,
      "rm": 1336,
      "co": 1337,
      "Ġeach": 1338,
      "Ġagain": 1339,
      "mary": 1340,
      "Ġmin": 1341,
      "aking": 1342,
      "ience": 1343,
      "Ġsupport": 1344,
      "ĠFor": 1345,
      "Object": 1346,
      "ah": 1347,
      "ives": 1348,
      "Ġhand": 1349,
      "uss": 1350,
      "})": 1351,
      "load": 1352,
      "Ġprivate": 1353,
      "Ġcount": 1354,
      "ists": 1355,
      "DE": 1356,
      "ense": 1357,
      "Get": 1358,
      "ential": 1359,
      "Ġbo": 1360,
      "ants": 1361,
      "$.": 1362,
      "We": 1363,
      "ization": 1364,
      "Tr": 1365,
      "itt": 1366,
      "lob": 1367,
      "Ġmod": 1368,
      "Ġusing": 1369,
      "ished": 1370,
      "rol": 1371,
      "struct": 1372,
      "play": 1373,
      "========": 1374,
      "Ġeven": 1375,
      "ever": 1376,
      "Ġexper": 1377,
      "Test": 1378,
      "cept": 1379,
      "oci": 1380,
      "ĠIf": 1381,
      "ĠTr": 1382,
      "ger": 1383,
      "ĠString": 1384,
      "iven": 1385,
      "$,": 1386,
      "Ġsur": 1387,
      "Ġresp": 1388,
      "Ġmany": 1389,
      "],": 1390,
      "not": 1391,
      "._": 1392,
      "ĠAnd": 1393,
      "Ġwhile": 1394,
      "az": 1395,
      "Ġbr": 1396,
      "face": 1397,
      "Ġobject": 1398,
      "ology": 1399,
      "2022": 1400,
      "().": 1401,
      "ified": 1402,
      "gram": 1403,
      "Ġlast": 1404,
      "gy": 1405,
      ",âĢĿ": 1406,
      "Ġser": 1407,
      "by": 1408,
      "50": 1409,
      "Ġap": 1410,
      "ced": 1411,
      "ĠZ": 1412,
      "}.": 1413,
      "nbsp": 1414,
      "());": 1415,
      "')": 1416,
      "Ġmethod": 1417,
      "Ġmon": 1418,
      "oot": 1419,
      "Ġbecause": 1420,
      "Ġbeing": 1421,
      "Ġ%": 1422,
      "ces": 1423,
      "ared": 1424,
      "Ġoper": 1425,
      "ME": 1426,
      "ler": 1427,
      "Ġbefore": 1428,
      "ision": 1429,
      "Ġdid": 1430,
      "Ġdr": 1431,
      "Ġway": 1432,
      "chn": 1433,
      ".,": 1434,
      "wh": 1435,
      "amb": 1436,
      "ute": 1437,
      "Ġknow": 1438,
      "iness": 1439,
      "size": 1440,
      "Ġed": 1441,
      "Un": 1442,
      ",\\": 1443,
      "ym": 1444,
      "ically": 1445,
      "Ġrun": 1446,
      "rad": 1447,
      "hip": 1448,
      "roid": 1449,
      "Ġcurrent": 1450,
      "comm": 1451,
      "Ġstate": 1452,
      "ik": 1453,
      "requ": 1454,
      "Ġsol": 1455,
      "ott": 1456,
      "Ġsame": 1457,
      "chool": 1458,
      "ency": 1459,
      "time": 1460,
      "Ġfind": 1461,
      "mathcal": 1462,
      "yn": 1463,
      "equation": 1464,
      "Ġav": 1465,
      "Ġdec": 1466,
      "ouse": 1467,
      "Im": 1468,
      "Ġfield": 1469,
      "arn": 1470,
      "Ġbl": 1471,
      "ism": 1472,
      "ĠRes": 1473,
      "Ġvery": 1474,
      "ital": 1475,
      "Error": 1476,
      "100": 1477,
      "Ġgu": 1478,
      "Ġkey": 1479,
      "alk": 1480,
      "Ġexpect": 1481,
      "velop": 1482,
      "CO": 1483,
      "Ġimport": 1484,
      "umn": 1485,
      "Ġfound": 1486,
      "Ġart": 1487,
      "Ġbel": 1488,
      "Ġdisc": 1489,
      "ross": 1490,
      "Ġworld": 1491,
      "location": 1492,
      "way": 1493,
      "Ġlead": 1494,
      "24": 1495,
      "Ġdown": 1496,
      "Ġdevelop": 1497,
      "Sh": 1498,
      "da": 1499,
      "For": 1500,
      "pace": 1501,
      "head": 1502,
      "ident": 1503,
      "Ġhere": 1504,
      "rop": 1505,
      "ĠYou": 1506,
      "me": 1507,
      "ases": 1508,
      "rite": 1509,
      "Ġprocess": 1510,
      "An": 1511,
      "ots": 1512,
      "Ġhelp": 1513,
      "ession": 1514,
      "ush": 1515,
      "order": 1516,
      "Ġboth": 1517,
      "This": 1518,
      "Ġequ": 1519,
      "function": 1520,
      "Ġinformation": 1521,
      "ĠX": 1522,
      "Ġdep": 1523,
      "Ġ||": 1524,
      "Ġshow": 1525,
      "Class": 1526,
      "Ġmed": 1527,
      "Ind": 1528,
      "med": 1529,
      "Key": 1530,
      "inter": 1531,
      "Ġdifferent": 1532,
      "Ġrep": 1533,
      "lear": 1534,
      "Ġthose": 1535,
      "que": 1536,
      "util": 1537,
      "reg": 1538,
      "Ġwant": 1539,
      "summary": 1540,
      "link": 1541,
      "ĠInd": 1542,
      "meric": 1543,
      "http": 1544,
      "su": 1545,
      "rc": 1546,
      "pha": 1547,
      "Se": 1548,
      "ager": 1549,
      "ral": 1550,
      "reak": 1551,
      "ather": 1552,
      "oad": 1553,
      "cription": 1554,
      "go": 1555,
      "Ġmark": 1556,
      "ocument": 1557,
      "ains": 1558,
      "ister": 1559,
      "\":": 1560,
      "til": 1561,
      "Ġarg": 1562,
      "usiness": 1563,
      "Requ": 1564,
      "ends": 1565,
      "opy": 1566,
      "her": 1567,
      "Ġparam": 1568,
      "list": 1569,
      "Ġpass": 1570,
      "}(": 1571,
      "UL": 1572,
      "');": 1573,
      "\";": 1574,
      "public": 1575,
      "Ġfile": 1576,
      "uc": 1577,
      "ght": 1578,
      "url": 1579,
      "search": 1580,
      "].": 1581,
      "ustom": 1582,
      "Ġgood": 1583,
      "rid": 1584,
      "Ġreport": 1585,
      "Ġmuch": 1586,
      "ness": 1587,
      "Ġown": 1588,
      "['": 1589,
      "Ġdon": 1590,
      "Ġfact": 1591,
      "Ġmade": 1592,
      "Ġ/>": 1593,
      "RO": 1594,
      "ogle": 1595,
      "ctions": 1596,
      "bers": 1597,
      "ron": 1598,
      "uthor": 1599,
      "View": 1600,
      "AC": 1601,
      "IC": 1602,
      "field": 1603,
      "22": 1604,
      "ĠâĢĺ": 1605,
      "index": 1606,
      "oh": 1607,
      "âĢ¦": 1608,
      "(),": 1609,
      "itor": 1610,
      "ION": 1611,
      "etwork": 1612,
      "ĠRe": 1613,
      "Ġcontin": 1614,
      "ten": 1615,
      "dis": 1616,
      "}^": 1617,
      "ale": 1618,
      "https": 1619,
      "includ": 1620,
      "}_": 1621,
      "Ġpat": 1622,
      "ector": 1623,
      "ually": 1624,
      "ality": 1625,
      "Ġtop": 1626,
      "Ġvis": 1627,
      "Ġhtt": 1628,
      "oy": 1629,
      "Ġincre": 1630,
      "top": 1631,
      "raw": 1632,
      "~\\": 1633,
      "Ġfam": 1634,
      "Ġpartic": 1635,
      "64": 1636,
      "const": 1637,
      "aj": 1638,
      "fe": 1639,
      "use": 1640,
      "arm": 1641,
      "Ġmust": 1642,
      "File": 1643,
      "lay": 1644,
      "akes": 1645,
      "ribute": 1646,
      "Ġbuild": 1647,
      "uration": 1648,
      ".</": 1649,
      "lobal": 1650,
      "ĠWh": 1651,
      "path": 1652,
      "ression": 1653,
      "uffer": 1654,
      "Ġthree": 1655,
      "Ġcent": 1656,
      "Ġ);": 1657,
      "Ġnon": 1658,
      "Ġdirect": 1659,
      "PE": 1660,
      "Ġz": 1661,
      "ences": 1662,
      "Ġmem": 1663,
      "mod": 1664,
      "Ġthink": 1665,
      "Ġeffect": 1666,
      "Ġprovid": 1667,
      "Ġclo": 1668,
      "Ġthrow": 1669,
      "elta": 1670,
      "pi": 1671,
      "alpha": 1672,
      "ponse": 1673,
      "ĉĉĉĉĉ": 1674,
      "TE": 1675,
      "itial": 1676,
      "iversity": 1677,
      "ission": 1678,
      "rem": 1679,
      "ĠĠĠĠĊ": 1680,
      "Ġcommun": 1681,
      "less": 1682,
      "ĠIs": 1683,
      "Ġperform": 1684,
      "Ġhead": 1685,
      "ĠPh": 1686,
      "loy": 1687,
      "vir": 1688,
      "Ġserv": 1689,
      "On": 1690,
      "unc": 1691,
      "rag": 1692,
      "Ġduring": 1693,
      "Ġteam": 1694,
      "Ġke": 1695,
      "Ġtake": 1696,
      "come": 1697,
      "bs": 1698,
      "itions": 1699,
      "Ġsecond": 1700,
      "Ġchild": 1701,
      ".\"": 1702,
      "script": 1703,
      "ĠSc": 1704,
      "Int": 1705,
      "ability": 1706,
      "Time": 1707,
      "Node": 1708,
      "table": 1709,
      "ope": 1710,
      "Qu": 1711,
      "ĠAmeric": 1712,
      "ape": 1713,
      "Element": 1714,
      "empl": 1715,
      "With": 1716,
      "orth": 1717,
      "Ġstill": 1718,
      "ĠâĢĶ": 1719,
      "Ġassert": 1720,
      "width": 1721,
      "Ġref": 1722,
      "ane": 1723,
      "Ġaut": 1724,
      "Ġ?": 1725,
      "ĠBut": 1726,
      "Ġcar": 1727,
      "LA": 1728,
      "ĠDe": 1729,
      "ural": 1730,
      "Ġevent": 1731,
      "']": 1732,
      "tain": 1733,
      "bo": 1734,
      "uck": 1735,
      "ground": 1736,
      "40": 1737,
      "ected": 1738,
      "/*": 1739,
      "Ġrequest": 1740,
      "wit": 1741,
      "ateg": 1742,
      "Ġsize": 1743,
      "lang": 1744,
      "Info": 1745,
      "Ġgroup": 1746,
      "Ġorder": 1747,
      "Request": 1748,
      "\"></": 1749,
      "nav": 1750,
      "ĠCol": 1751,
      "ailable": 1752,
      "side": 1753,
      "Add": 1754,
      "ats": 1755,
      "Ġopen": 1756,
      "ration": 1757,
      "Ġmov": 1758,
      "iev": 1759,
      "ackage": 1760,
      "ambda": 1761,
      "Event": 1762,
      "23": 1763,
      "ainer": 1764,
      "js": 1765,
      "ension": 1766,
      "Ġnext": 1767,
      "Ġelement": 1768,
      "Ġerror": 1769,
      "vert": 1770,
      "fil": 1771,
      "Ġappro": 1772,
      "Ġpost": 1773,
      "199": 1774,
      "Config": 1775,
      "vious": 1776,
      "UR": 1777,
      "Equ": 1778,
      "els": 1779,
      "Ġgiven": 1780,
      "Ġsl": 1781,
      "System": 1782,
      "ven": 1783,
      "Ġmat": 1784,
      "lex": 1785,
      "PI": 1786,
      "Ġmain": 1787,
      "Ġaround": 1788,
      "Ġlevel": 1789,
      "www": 1790,
      "ffic": 1791,
      "Ġweek": 1792,
      "Ġperson": 1793,
      "/**": 1794,
      "Ġbest": 1795,
      "cur": 1796,
      "Ġprot": 1797,
      "Re": 1798,
      "Ġwrit": 1799,
      "Def": 1800,
      "iving": 1801,
      "TR": 1802,
      "Path": 1803,
      "part": 1804,
      "orn": 1805,
      "igned": 1806,
      "stance": 1807,
      "sy": 1808,
      "Ġsom": 1809,
      "Ġest": 1810,
      "Man": 1811,
      "eters": 1812,
      "word": 1813,
      "2021": 1814,
      "$\\": 1815,
      "section": 1816,
      "Ġrele": 1817,
      "Ġreal": 1818,
      "Ġcontent": 1819,
      "array": 1820,
      "ari": 1821,
      "net": 1822,
      "ched": 1823,
      "ining": 1824,
      "ride": 1825,
      "};": 1826,
      "())": 1827,
      "olean": 1828,
      "ware": 1829,
      "Ġtry": 1830,
      "Param": 1831,
      "plic": 1832,
      "ĠOn": 1833,
      "Ġgame": 1834,
      "Field": 1835,
      "Context": 1836,
      "Ġdel": 1837,
      "ety": 1838,
      "Ġposs": 1839,
      "epend": 1840,
      "Ġear": 1841,
      "pert": 1842,
      "api": 1843,
      "length": 1844,
      "ination": 1845,
      "En": 1846,
      ")\\": 1847,
      "Ġterm": 1848,
      "user": 1849,
      "ively": 1850,
      "ĠHow": 1851,
      "ived": 1852,
      "Text": 1853,
      "Ġstruct": 1854,
      "Ġarray": 1855,
      "Ġtechn": 1856,
      "Ġ/*": 1857,
      "Ġtarget": 1858,
      "Ġcheck": 1859,
      "Ġincluding": 1860,
      "ee": 1861,
      "group": 1862,
      "ior": 1863,
      "Index": 1864,
      "Ġfollowing": 1865,
      "Ġfin": 1866,
      "ĠAd": 1867,
      "oken": 1868,
      "HE": 1869,
      "âĢĶ": 1870,
      "Ġday": 1871,
      "apt": 1872,
      "iter": 1873,
      "ump": 1874,
      "Ġvari": 1875,
      "Ġprogram": 1876,
      "ĠCl": 1877,
      "State": 1878,
      "ift": 1879,
      "icy": 1880,
      "':": 1881,
      "amespace": 1882,
      "mp": 1883,
      "Ġproject": 1884,
      "Ġanal": 1885,
      "Ġsince": 1886,
      "idd": 1887,
      "Ġtitle": 1888,
      "acter": 1889,
      "33": 1890,
      "void": 1891,
      "Ġlocal": 1892,
      "irc": 1893,
      "=\"../../": 1894,
      "2020": 1895,
      "Ġ},": 1896,
      "Al": 1897,
      "Ġmet": 1898,
      "md": 1899,
      "``": 1900,
      "ources": 1901,
      "nal": 1902,
      "Ġconsider": 1903,
      "ocus": 1904,
      "Ġmult": 1905,
      "off": 1906,
      "Ref": 1907,
      "Service": 1908,
      "Ġlife": 1909,
      "pty": 1910,
      "ling": 1911,
      "Over": 1912,
      "indow": 1913,
      "Item": 1914,
      "rame": 1915,
      "Ġlog": 1916,
      "ĠComm": 1917,
      "!--": 1918,
      "ina": 1919,
      "uf": 1920,
      "Ġ(!": 1921,
      "illion": 1922,
      "60": 1923,
      "Map": 1924,
      "Ġsing": 1925,
      "Ġleft": 1926,
      "mu": 1927,
      "Ġagainst": 1928,
      "AD": 1929,
      "21": 1930,
      "IS": 1931,
      "Ġsay": 1932,
      "ternal": 1933,
      "ĠTo": 1934,
      "Array": 1935,
      "ags": 1936,
      "ways": 1937,
      "Ġstand": 1938,
      "Ġpar": 1939,
      "amma": 1940,
      "apache": 1941,
      "28": 1942,
      "****************": 1943,
      "lish": 1944,
      "Ġcreate": 1945,
      "arge": 1946,
      "ait": 1947,
      "=\\": 1948,
      "Ġsmall": 1949,
      "27": 1950,
      "itive": 1951,
      "Ġtext": 1952,
      "ium": 1953,
      "Ġconf": 1954,
      "ification": 1955,
      "Ġplace": 1956,
      "ails": 1957,
      "duct": 1958,
      "ĠUS": 1959,
      "Ġview": 1960,
      "Ġpower": 1961,
      "////////": 1962,
      "Ġdefault": 1963,
      "des": 1964,
      "Ġcour": 1965,
      "icle": 1966,
      "Ġwithout": 1967,
      "Ġpath": 1968,
      "\"\"": 1969,
      "Ġadv": 1970,
      "Ġpresent": 1971,
      "ING": 1972,
      "_\\": 1973,
      "eps": 1974,
      "ries": 1975,
      "Ġrece": 1976,
      "Code": 1977,
      "config": 1978,
      "Ġcare": 1979,
      "Ġuser": 1980,
      "ivity": 1981,
      "Ġbeg": 1982,
      "aut": 1983,
      "ulation": 1984,
      "prot": 1985,
      "âĢĵ": 1986,
      "Ġinvest": 1987,
      "ĠShe": 1988,
      "assert": 1989,
      "[]": 1990,
      "UT": 1991,
      "enu": 1992,
      "Form": 1993,
      "urs": 1994,
      "Ġ});": 1995,
      "Ġpres": 1996,
      "Ġ:=": 1997,
      "oun": 1998,
      "Ġchang": 1999,
      "Des": 2000,
      "lication": 2001,
      "Ġident": 2002,
      "LO": 2003,
      "Ġbusiness": 2004,
      "Or": 2005,
      "node": 2006,
      "AS": 2007,
      "ĠAll": 2008,
      "itional": 2009,
      "Ġaccess": 2010,
      "map": 2011,
      "Ġcond": 2012,
      "cale": 2013,
      "ene": 2014,
      "ĠMar": 2015,
      "viron": 2016,
      "Ġ\\\\": 2017,
      "box": 2018,
      "ega": 2019,
      "Ġresults": 2020,
      "ocial": 2021,
      "ĠĠĠĠĠĠĠĠĠĠĠĠĠĠĠĠĠĠĠĠĠĠĠĠĠĠĠ": 2022,
      "80": 2023,
      "igma": 2024,
      "Not": 2025,
      "comp": 2026,
      "ĠJan": 2027,
      "Ġbook": 2028,
      "Ġlet": 2029,
      "=\"+": 2030,
      "result": 2031,
      "istory": 2032,
      "Ġimp": 2033,
      "ED": 2034,
      "ui": 2035,
      "Ġgr": 2036,
      "Size": 2037,
      "Ġpop": 2038,
      "Ġsk": 2039,
      "Ġold": 2040,
      "Hand": 2041,
      "Att": 2042,
      "aster": 2043,
      "error": 2044,
      "ird": 2045,
      "Is": 2046,
      "Ġhealth": 2047,
      "olv": 2048,
      "Ġet": 2049,
      "mathbb": 2050,
      "ĠCO": 2051,
      "true": 2052,
      "ories": 2053,
      "ches": 2054,
      "ĠPl": 2055,
      "ris": 2056,
      "}_{": 2057,
      "oss": 2058,
      "Ġavailable": 2059,
      "perties": 2060,
      "26": 2061,
      "icon": 2062,
      "pper": 2063,
      "ĠThey": 2064,
      "emplate": 2065,
      "Ġchange": 2066,
      "Ġbeh": 2067,
      "';": 2068,
      "Ġlim": 2069,
      "Ġdev": 2070,
      "aving": 2071,
      "Ġgover": 2072,
      "ately": 2073,
      "IG": 2074,
      "object": 2075,
      "ording": 2076,
      "He": 2077,
      "input": 2078,
      "Ġmonth": 2079,
      "umer": 2080,
      "Ġtri": 2081,
      "Ph": 2082,
      "stand": 2083,
      "ĠThere": 2084,
      "abled": 2085,
      "por": 2086,
      "eturn": 2087,
      "uro": 2088,
      "reate": 2089,
      "usic": 2090,
      "Ġ===": 2091,
      "lected": 2092,
      "point": 2093,
      "color": 2094,
      "iginal": 2095,
      "Ġdem": 2096,
      "App": 2097,
      "Ġanother": 2098,
      "define": 2099,
      "ords": 2100,
      "And": 2101,
      "29": 2102,
      "Ġgoing": 2103,
      "ertain": 2104,
      "}^{": 2105,
      "Ġret": 2106,
      "ering": 2107,
      "\\\\": 2108,
      "New": 2109,
      "my": 2110,
      "ĠSystem": 2111,
      "Ġsays": 2112,
      "omen": 2113,
      "mbol": 2114,
      "earch": 2115,
      "Ġblock": 2116,
      "uture": 2117,
      "outh": 2118,
      "2023": 2119,
      "All": 2120,
      "ready": 2121,
      "ĠGet": 2122,
      "from": 2123,
      "ending": 2124,
      "ĠUniversity": 2125,
      "ounc": 2126,
      "Ġproduct": 2127,
      "Build": 2128,
      "Ġtoo": 2129,
      "ES": 2130,
      "ĠBl": 2131,
      "++": 2132,
      "ypes": 2133,
      "Ġproble": 2134,
      "ports": 2135,
      "body": 2136,
      "Ġwithin": 2137,
      "='": 2138,
      "Ġlaw": 2139,
      "Ġann": 2140,
      "ĠOr": 2141,
      "ĠBe": 2142,
      "ĠMan": 2143,
      "Of": 2144,
      "MA": 2145,
      "Ġinterest": 2146,
      "atures": 2147,
      "Ġvalues": 2148,
      "Ġbreak": 2149,
      "loat": 2150,
      "uman": 2151,
      "sw": 2152,
      "quot": 2153,
      "block": 2154,
      "Ġoptions": 2155,
      "create": 2156,
      "ley": 2157,
      "Ġhapp": 2158,
      "lick": 2159,
      "ules": 2160,
      "Ġ__": 2161,
      "Ġreally": 2162,
      "Result": 2163,
      "aces": 2164,
      "Ġgrow": 2165,
      "ET": 2166,
      "Ġspe": 2167,
      "ouble": 2168,
      "Ġfew": 2169,
      "nection": 2170,
      "gg": 2171,
      "Ġappe": 2172,
      "FF": 2173,
      "cd": 2174,
      "ĠPr": 2175,
      "Ġconfig": 2176,
      "ideo": 2177,
      "place": 2178,
      "no": 2179,
      "ised": 2180,
      "Ġcap": 2181,
      "Ġorgan": 2182,
      "Ġ-->": 2183,
      "ohn": 2184,
      "evel": 2185,
      "align": 2186,
      "nment": 2187,
      "une": 2188,
      "ĠTe": 2189,
      "Ġhome": 2190,
      "acy": 2191,
      "rist": 2192,
      "Ġ{\\": 2193,
      "fin": 2194,
      "bf": 2195,
      "ender": 2196,
      "ormal": 2197,
      "ems": 2198,
      "ĠApp": 2199,
      "Ġschool": 2200,
      "ĠMay": 2201,
      "ators": 2202,
      "ights": 2203,
      "Message": 2204,
      "ently": 2205,
      "default": 2206,
      "Ġcode": 2207,
      "ho": 2208,
      "ai": 2209,
      "Ġdi": 2210,
      "title": 2211,
      "If": 2212,
      "iction": 2213,
      "ique": 2214,
      "ync": 2215,
      "Ġcontext": 2216,
      "US": 2217,
      "Ġfull": 2218,
      "Ġleg": 2219,
      "agement": 2220,
      "Ġgreat": 2221,
      "Ġservice": 2222,
      "aterial": 2223,
      "-\\": 2224,
      "imate": 2225,
      "Ġversion": 2226,
      "Up": 2227,
      "MP": 2228,
      "^{\\": 2229,
      "phi": 2230,
      "ponent": 2231,
      "tes": 2232,
      "odes": 2233,
      "hes": 2234,
      "Ġfour": 2235,
      "Inter": 2236,
      "model": 2237,
      "conom": 2238,
      "tings": 2239,
      "down": 2240,
      "ands": 2241,
      "Ġpur": 2242,
      "irt": 2243,
      "vironment": 2244,
      "Ġbig": 2245,
      "Ġcalled": 2246,
      "include": 2247,
      "pm": 2248,
      "thing": 2249,
      "Ġnil": 2250,
      "bl": 2251,
      "Ġinput": 2252,
      "rap": 2253,
      "Ġturn": 2254,
      "Loc": 2255,
      "ances": 2256,
      "OT": 2257,
      "uage": 2258,
      "lt": 2259,
      "UN": 2260,
      "Val": 2261,
      "ĠCent": 2262,
      "icro": 2263,
      "version": 2264,
      "lambda": 2265,
      "cast": 2266,
      "Ġbased": 2267,
      "ference": 2268,
      "Ġsource": 2269,
      "Ġmeas": 2270,
      "Ġput": 2271,
      "ograph": 2272,
      "Ġjava": 2273,
      "met": 2274,
      "AB": 2275,
      "ittle": 2276,
      "call": 2277,
      "Ġcompany": 2278,
      "pecial": 2279,
      "ged": 2280,
      "Ġ};": 2281,
      "From": 2282,
      "start": 2283,
      "ended": 2284,
      "Ġiss": 2285,
      "####": 2286,
      "Ġmax": 2287,
      "Ġinstance": 2288,
      "ĠIm": 2289,
      "ML": 2290,
      "Ġaddress": 2291,
      "aim": 2292,
      "enn": 2293,
      "ULL": 2294,
      "Ġsuccess": 2295,
      "Ġrequire": 2296,
      "rec": 2297,
      "Model": 2298,
      "info": 2299,
      "Ġstudy": 2300,
      "ober": 2301,
      "af": 2302,
      "see": 2303,
      "Ġbetter": 2304,
      "oper": 2305,
      "ampl": 2306,
      "Ġresearch": 2307,
      "ĠMed": 2308,
      "Trans": 2309,
      "ought": 2310,
      "Query": 2311,
      "state": 2312,
      "bt": 2313,
      "2017": 2314,
      "ables": 2315,
      "Read": 2316,
      "aps": 2317,
      "count": 2318,
      "ilar": 2319,
      "IL": 2320,
      "de": 2321,
      "Ġquest": 2322,
      "isk": 2323,
      "ĠSo": 2324,
      ",\"": 2325,
      "ĠSu": 2326,
      "onse": 2327,
      "ĠEng": 2328,
      "Ġnode": 2329,
      "ething": 2330,
      "ured": 2331,
      "Ġexample": 2332,
      "Fil": 2333,
      "Ġemp": 2334,
      "Ġmight": 2335,
      "oud": 2336,
      "But": 2337,
      "Ġsuper": 2338,
      "2018": 2339,
      "inc": 2340,
      "ards": 2341,
      "Call": 2342,
      "uments": 2343,
      "content": 2344,
      "Ser": 2345,
      "Out": 2346,
      "ival": 2347,
      "Ġcontrol": 2348,
      "Ġindex": 2349,
      "99": 2350,
      "Ġresponse": 2351,
      "Ã©": 2352,
      "Ġless": 2353,
      "2019": 2354,
      "ients": 2355,
      "pped": 2356,
      "rix": 2357,
      "ĠSp": 2358,
      "Reg": 2359,
      "ĠCont": 2360,
      "Ġalways": 2361,
      "ĠNo": 2362,
      "45": 2363,
      "ony": 2364,
      "ĠAt": 2365,
      "Ġrepresent": 2366,
      "sl": 2367,
      "Ġbase": 2368,
      "ret": 2369,
      "ored": 2370,
      "Ġstat": 2371,
      "Ġbro": 2372,
      "max": 2373,
      "uary": 2374,
      "ĠÐ": 2375,
      "beta": 2376,
      "ysis": 2377,
      "iod": 2378,
      "Ġcell": 2379,
      "At": 2380,
      "ailed": 2381,
      "mit": 2382,
      "oin": 2383,
      "--------------------------------": 2384,
      "Ġfamily": 2385,
      "Ġspace": 2386,
      "Ġenc": 2387,
      "Ġsit": 2388,
      "Ġsever": 2389,
      "Ent": 2390,
      "Ġocc": 2391,
      "ĠĠĠĠĠĠĠĠĠĠĠĠ": 2392,
      "mathbf": 2393,
      "ĠEn": 2394,
      "Ġalready": 2395,
      "Log": 2396,
      "olution": 2397,
      "urther": 2398,
      "Ġpay": 2399,
      "ury": 2400,
      "Ġcustom": 2401,
      "Ġnever": 2402,
      "ither": 2403,
      "Ġfree": 2404,
      "Ġsupp": 2405,
      "CE": 2406,
      "Ġimportant": 2407,
      "35": 2408,
      "Ġener": 2409,
      "ume": 2410,
      "Ġeng": 2411,
      "gt": 2412,
      "refer": 2413,
      "Wh": 2414,
      "Table": 2415,
      "hether": 2416,
      "ifier": 2417,
      "Ġes": 2418,
      "using": 2419,
      "Ġplan": 2420,
      "ĠCar": 2421,
      "ention": 2422,
      "ENT": 2423,
      "ours": 2424,
      "atform": 2425,
      "plement": 2426,
      "Ġ,": 2427,
      "Manager": 2428,
      "dt": 2429,
      "rel": 2430,
      "valid": 2431,
      "Ġlink": 2432,
      "Count": 2433,
      "ĠLe": 2434,
      "Ġcal": 2435,
      "ĠCan": 2436,
      "sm": 2437,
      "Ġtem": 2438,
      "Ġallow": 2439,
      "Property": 2440,
      "ibility": 2441,
      "book": 2442,
      "ottom": 2443,
      "Ġbool": 2444,
      "Client": 2445,
      "base": 2446,
      "2016": 2447,
      "Ġinclude": 2448,
      "ĠÂ": 2449,
      "Ġcome": 2450,
      "ajor": 2451,
      "ero": 2452,
      "aun": 2453,
      "Ġwon": 2454,
      "Ġbu": 2455,
      "roller": 2456,
      "lished": 2457,
      "Ġopt": 2458,
      "ĠĠĊ": 2459,
      "prov": 2460,
      "ring": 2461,
      "Ð°": 2462,
      "Ġgot": 2463,
      "Ġrange": 2464,
      "ilon": 2465,
      "Ġeas": 2466,
      "nect": 2467,
      "Response": 2468,
      "ibr": 2469,
      "IP": 2470,
      "Ġhard": 2471,
      "aper": 2472,
      "Ġcolor": 2473,
      "Ġclear": 2474,
      "Ġmean": 2475,
      "Ġins": 2476,
      "ney": 2477,
      "Ġtot": 2478,
      "Ġmessage": 2479,
      "ĠWith": 2480,
      "Ġdesign": 2481,
      "option": 2482,
      "Ġaction": 2483,
      "Ġrest": 2484,
      "bed": 2485,
      "Ġlarge": 2486,
      "ĠPol": 2487,
      "ably": 2488,
      "ĠFr": 2489,
      "01": 2490,
      "AP": 2491,
      "Ġnetwork": 2492,
      "Ġcr": 2493,
      "Ġsrc": 2494,
      "Ġfore": 2495,
      "Ġprom": 2496,
      "Ġmarket": 2497,
      ">&": 2498,
      "Ġbas": 2499,
      "Ġport": 2500,
      "Ġpot": 2501,
      "Pl": 2502,
      "2015": 2503,
      "rack": 2504,
      "Ġposition": 2505,
      "Ġcost": 2506,
      "Ġask": 2507,
      "reen": 2508,
      "ĠNov": 2509,
      "Ġcho": 2510,
      "Ġredu": 2511,
      "=\"../../../../": 2512,
      "google": 2513,
      "gress": 2514,
      "User": 2515,
      "ising": 2516,
      "CH": 2517,
      "Ġsomething": 2518,
      "package": 2519,
      "context": 2520,
      "Ġelect": 2521,
      "Ġide": 2522,
      "method": 2523,
      "ides": 2524,
      "ĠCo": 2525,
      "java": 2526,
      "Ġparent": 2527,
      "with": 2528,
      "false": 2529,
      "leg": 2530,
      "OD": 2531,
      "Ġnear": 2532,
      "do": 2533,
      "Ġexpl": 2534,
      ";&": 2535,
      "Ġthings": 2536,
      "atter": 2537,
      "lete": 2538,
      "check": 2539,
      "Ġshort": 2540,
      "Ġsingle": 2541,
      "ixed": 2542,
      "Su": 2543,
      "sigma": 2544,
      "Ġprovide": 2545,
      "android": 2546,
      "Ġsum": 2547,
      "annel": 2548,
      "Ġexist": 2549,
      "Ġdescri": 2550,
      "Arg": 2551,
      "ĉĉĉĉĉĉ": 2552,
      "hold": 2553,
      "Ġstyle": 2554,
      "uly": 2555,
      "Ð¾": 2556,
      "Ġpossible": 2557,
      "Ġoffic": 2558,
      "run": 2559,
      "Ġacross": 2560,
      "parent": 2561,
      "Ġvol": 2562,
      "next": 2563,
      "Method": 2564,
      "Comm": 2565,
      "alf": 2566,
      "doc": 2567,
      "Ġkeep": 2568,
      "ĠSet": 2569,
      "arning": 2570,
      "What": 2571,
      "sec": 2572,
      "70": 2573,
      "Ġdistribut": 2574,
      "Fact": 2575,
      "Ġoffer": 2576,
      "func": 2577,
      "Override": 2578,
      "Ġ(\\": 2579,
      ">(": 2580,
      "Ġalong": 2581,
      "aff": 2582,
      "rain": 2583,
      "stru": 2584,
      "TD": 2585,
      "Ġtable": 2586,
      "ux": 2587,
      "Ġstd": 2588,
      "ves": 2589,
      "Ġpo": 2590,
      "TH": 2591,
      "lem": 2592,
      "ĠAb": 2593,
      "arrow": 2594,
      "Ġdocument": 2595,
      "Ġcharacter": 2596,
      "Ġinteg": 2597,
      "75": 2598,
      "imal": 2599,
      "31": 2600,
      "Ġfac": 2601,
      "Ġassoci": 2602,
      "Ġexpected": 2603,
      "90": 2604,
      "NA": 2605,
      "agn": 2606,
      "Ġenergy": 2607,
      "Cell": 2608,
      "print": 2609,
      "Ġstory": 2610,
      "ĠMon": 2611,
      "options": 2612,
      "ike": 2613,
      "vers": 2614,
      "wards": 2615,
      "^{-": 2616,
      "ĠJohn": 2617,
      "Ġlittle": 2618,
      "Ġlot": 2619,
      "Ġinitial": 2620,
      "ca": 2621,
      "Dis": 2622,
      "where": 2623,
      "Ġabove": 2624,
      "Ġrespect": 2625,
      "Builder": 2626,
      "Ġrequired": 2627,
      "idual": 2628,
      "Ġfeel": 2629,
      "ĠGu": 2630,
      "ĠĠĠĠĠĠĠĠĠĠ": 2631,
      "How": 2632,
      "creen": 2633,
      "dev": 2634,
      "space": 2635,
      "Ġbackground": 2636,
      "ĠThat": 2637,
      "Ġdays": 2638,
      "style": 2639,
      "Ġwin": 2640,
      "core": 2641,
      "Ġproperty": 2642,
      "Mod": 2643,
      "web": 2644,
      "34": 2645,
      ")}": 2646,
      "Ġaccount": 2647,
      "Ġmatch": 2648,
      "Ġlate": 2649,
      "================": 2650,
      "oto": 2651,
      "thers": 2652,
      "ilde": 2653,
      "Stream": 2654,
      "ĠInst": 2655,
      "Ġwater": 2656,
      "2014": 2657,
      "iple": 2658,
      "Color": 2659,
      "Ġtimes": 2660,
      "static": 2661,
      "uk": 2662,
      "Ġpage": 2663,
      "member": 2664,
      "Ġfar": 2665,
      "Ġleast": 2666,
      "cer": 2667,
      "lease": 2668,
      "ging": 2669,
      "Ġlow": 2670,
      "Pr": 2671,
      "clus": 2672,
      "light": 2673,
      "Ġseason": 2674,
      "db": 2675,
      "css": 2676,
      "tab": 2677,
      "ĠAmerican": 2678,
      "Ġhold": 2679,
      "sk": 2680,
      "ĠIN": 2681,
      "Ġdue": 2682,
      "inary": 2683,
      "imum": 2684,
      "Ġexperience": 2685,
      "Group": 2686,
      "ecut": 2687,
      "init": 2688,
      "atab": 2689,
      "oke": 2690,
      "ĠTest": 2691,
      "Ad": 2692,
      "Ġfr": 2693,
      "Ġmass": 2694,
      "Ġprevious": 2695,
      "lim": 2696,
      "rior": 2697,
      "Ðµ": 2698,
      "respon": 2699,
      "ones": 2700,
      "66": 2701,
      "Ġparticular": 2702,
      "Ġfund": 2703,
      "Ġchildren": 2704,
      "Ġseries": 2705,
      "Ġprof": 2706,
      "ĠJanuary": 2707,
      "Ġcommunity": 2708,
      "Ġsocial": 2709,
      "icense": 2710,
      "Ġlik": 2711,
      "Ġfri": 2712,
      "oney": 2713,
      "Sub": 2714,
      "Ġdom": 2715,
      "Ġfuture": 2716,
      "Ġrad": 2717,
      "sq": 2718,
      "semb": 2719,
      "Util": 2720,
      "ĠReg": 2721,
      "Ġhttp": 2722,
      "Ġjob": 2723,
      "Ġoriginal": 2724,
      "Ġside": 2725,
      "now": 2726,
      "Ġant": 2727,
      "aring": 2728,
      "Ġhttps": 2729,
      "mat": 2730,
      "*}": 2731,
      "lose": 2732,
      "riter": 2733,
      "ĠGo": 2734,
      "Ġoutput": 2735,
      "Ġspecial": 2736,
      "position": 2737,
      "ĠInt": 2738,
      "element": 2739,
      "Ġmap": 2740,
      "Ġindust": 2741,
      "ĠMin": 2742,
      "ĠBy": 2743,
      "ĠAss": 2744,
      "ĠState": 2745,
      "Ġarea": 2746,
      "Ġpast": 2747,
      "Ġsignific": 2748,
      "No": 2749,
      "anguage": 2750,
      "ung": 2751,
      "ison": 2752,
      "Ġdiscuss": 2753,
      "cell": 2754,
      "Ġcountry": 2755,
      "Ġfocus": 2756,
      "orage": 2757,
      "])": 2758,
      "idence": 2759,
      "Cl": 2760,
      "plit": 2761,
      "Ġemploy": 2762,
      "Ġstrong": 2763,
      "ithub": 2764,
      "hand": 2765,
      "Ġmillion": 2766,
      "Ġbody": 2767,
      "current": 2768,
      "roups": 2769,
      "ĠDis": 2770,
      "Ġcur": 2771,
      ";</": 2772,
      "ales": 2773,
      "Ġauthor": 2774,
      "ĠWorld": 2775,
      "Ġable": 2776,
      "Ġgovernment": 2777,
      "rt": 2778,
      "build": 2779,
      "Ġknown": 2780,
      "curity": 2781,
      "Ġimage": 2782,
      "Be": 2783,
      "Status": 2784,
      "dom": 2785,
      "OS": 2786,
      "rodu": 2787,
      "Ġglobal": 2788,
      "ĠOct": 2789,
      "gamma": 2790,
      "fra": 2791,
      "Ġmusic": 2792,
      "ĠList": 2793,
      "mathrm": 2794,
      "pping": 2795,
      "mark": 2796,
      "End": 2797,
      "event": 2798,
      "Token": 2799,
      "amed": 2800,
      "ĠCount": 2801,
      "unk": 2802,
      "ĠNULL": 2803,
      "Ġrecord": 2804,
      "Ġobserv": 2805,
      "argin": 2806,
      "Ġche": 2807,
      "Ġcover": 2808,
      "Ġpract": 2809,
      "Ġcomb": 2810,
      "55": 2811,
      "Source": 2812,
      "namespace": 2813,
      "^\\": 2814,
      "Ed": 2815,
      "Ġdeterm": 2816,
      "IR": 2817,
      "Ġmajor": 2818,
      "Instance": 2819,
      "anel": 2820,
      "Ġobtain": 2821,
      "0000": 2822,
      "used": 2823,
      "ĠAdd": 2824,
      "Ġtotal": 2825,
      "ĠAug": 2826,
      "bit": 2827,
      "Ġmeans": 2828,
      "ians": 2829,
      "Ġuntil": 2830,
      "Ġmaking": 2831,
      "+\\": 2832,
      "ĠSer": 2833,
      "Exp": 2834,
      "Ġmom": 2835,
      "You": 2836,
      "Ġ<<": 2837,
      "opt": 2838,
      "ĠHowever": 2839,
      "raft": 2840,
      "Ġben": 2841,
      "Ġ$(": 2842,
      "Ġhuman": 2843,
      "Ġworking": 2844,
      "ĠEd": 2845,
      "Ġwhether": 2846,
      "delta": 2847,
      "inition": 2848,
      "rho": 2849,
      "=\"#": 2850,
      "Ġdone": 2851,
      "36": 2852,
      "urope": 2853,
      "mber": 2854,
      "((": 2855,
      "abor": 2856,
      "ĠWhen": 2857,
      "Ġbound": 2858,
      "Ġgive": 2859,
      "Ġmeet": 2860,
      "ĠQu": 2861,
      "Image": 2862,
      "ball": 2863,
      "andom": 2864,
      "istic": 2865,
      "Input": 2866,
      "39": 2867,
      "Ġvalid": 2868,
      "Ġpotential": 2869,
      "Ġop": 2870,
      "github": 2871,
      "Ġlove": 2872,
      "Ġmembers": 2873,
      "Ġmedia": 2874,
      "client": 2875,
      "ynam": 2876,
      "](": 2877,
      "ental": 2878,
      "Date": 2879,
      "xy": 2880,
      "Ġhost": 2881,
      "uation": 2882,
      "request": 2883,
      "Ġkind": 2884,
      "OP": 2885,
      "Ġseveral": 2886,
      "Ġtre": 2887,
      "Ġsimilar": 2888,
      "ĠRep": 2889,
      "ids": 2890,
      "sing": 2891,
      "Ġborder": 2892,
      "Bar": 2893,
      "ĠWhat": 2894,
      "active": 2895,
      "aining": 2896,
      "ech": 2897,
      "Rec": 2898,
      "Ġaway": 2899,
      "Ġpoints": 2900,
      "Ġbit": 2901,
      "ĠNot": 2902,
      "ĠĠĠĠĠĠĠĠĠĠĠĠĠĠĠĠĠ": 2903,
      "figure": 2904,
      "ĠWest": 2905,
      "Run": 2906,
      "Ġcompon": 2907,
      "Ġpub": 2908,
      "Ġstudents": 2909,
      "Ġindiv": 2910,
      "Ġund": 2911,
      "Ġcomplet": 2912,
      "}{\\": 2913,
      "igation": 2914,
      "ĠDr": 2915,
      "big": 2916,
      "Ġwhy": 2917,
      "Ġ($": 2918,
      "ĠUnited": 2919,
      "Ġunderstand": 2920,
      "Ġlarg": 2921,
      "vis": 2922,
      "ners": 2923,
      "Ġreview": 2924,
      "ns": 2925,
      "ocol": 2926,
      "Ġlight": 2927,
      "Ġfollow": 2928,
      "Ġwidth": 2929,
      "Ġsy": 2930,
      "unity": 2931,
      "Null": 2932,
      "Ġsure": 2933,
      "Ġdevelopment": 2934,
      "Ġrole": 2935,
      "dir": 2936,
      "Gener": 2937,
      "CC": 2938,
      "38": 2939,
      "ework": 2940,
      "ĠBo": 2941,
      "ĠChrist": 2942,
      "SP": 2943,
      "ilt": 2944,
      "Ġtoget": 2945,
      "Block": 2946,
      "ĠRev": 2947,
      "oop": 2948,
      "Ġservices": 2949,
      "Ġprob": 2950,
      "ONT": 2951,
      "null": 2952,
      "rect": 2953,
      "ĠCal": 2954,
      "ĠApr": 2955,
      "AG": 2956,
      "witch": 2957,
      "Ġtogether": 2958,
      "Options": 2959,
      "Ġgeneral": 2960,
      "Ġproblem": 2961,
      "EL": 2962,
      "ĠNews": 2963,
      "has": 2964,
      "ogn": 2965,
      "theta": 2966,
      "ained": 2967,
      "ĠGe": 2968,
      "cle": 2969,
      "eral": 2970,
      "query": 2971,
      "ĠDo": 2972,
      "artment": 2973,
      "Head": 2974,
      "Ġsignificant": 2975,
      "amples": 2976,
      "]{": 2977,
      "la": 2978,
      "AM": 2979,
      "leq": 2980,
      "iam": 2981,
      "Ġlater": 2982,
      "Par": 2983,
      "2013": 2984,
      "image": 2985,
      "Ġbecome": 2986,
      "ĠĠĠĠĠĠĠĠĠĠĠĠĠĠĠĠĠĠĠĠĠĠĠĠĠĠĠĠĠĠĠ": 2987,
      "Ġtalk": 2988,
      "Ġeither": 2989,
      "respond": 2990,
      "Ġearly": 2991,
      "Ġregion": 2992,
      "times": 2993,
      "args": 2994,
      "child": 2995,
      "OL": 2996,
      "IM": 2997,
      "sel": 2998,
      "irtual": 2999,
      "ication": 3000,
      "ĠNational": 3001,
      "atabase": 3002,
      "YPE": 3003,
      "Ġtrack": 3004,
      "ensure": 3005,
      "Ġamong": 3006,
      "ĠAg": 3007,
      "Ġca": 3008,
      "server": 3009,
      "ills": 3010,
      "Fl": 3011,
      "48": 3012,
      "Ġland": 3013,
      "most": 3014,
      "198": 3015,
      "Ġpolit": 3016,
      "aken": 3017,
      "Ġbeliev": 3018,
      "alt": 3019,
      "Sc": 3020,
      "lin": 3021,
      "Ġcomput": 3022,
      "ĠYork": 3023,
      "iff": 3024,
      "Ġboolean": 3025,
      "otype": 3026,
      "Ġclose": 3027,
      "Equal": 3028,
      "acc": 3029,
      "oo": 3030,
      "Ġlay": 3031,
      "ftware": 3032,
      "rew": 3033,
      "EX": 3034,
      "angle": 3035,
      "$-": 3036,
      "ramework": 3037,
      "ĠFl": 3038,
      "iol": 3039,
      "Ġhistory": 3040,
      "Ġdisplay": 3041,
      "Ġsite": 3042,
      "Ġdefined": 3043,
      "Ġperiod": 3044,
      "Off": 3045,
      "Ġcult": 3046,
      "Ġenough": 3047,
      "Ġ()": 3048,
      "page": 3049,
      "Ġindividual": 3050,
      "Ġdest": 3051,
      "irm": 3052,
      "Ext": 3053,
      "iting": 3054,
      "ached": 3055,
      "Style": 3056,
      "uster": 3057,
      "Ġtoday": 3058,
      "Comp": 3059,
      "Ġevents": 3060,
      "Ġdoesn": 3061,
      "37": 3062,
      "asing": 3063,
      "Ġseen": 3064,
      "ĠThese": 3065,
      "Handler": 3066,
      "ĠDes": 3067,
      "Ġgl": 3068,
      ")</": 3069,
      "Ġload": 3070,
      "umb": 3071,
      "eed": 3072,
      "Ġabs": 3073,
      "Ð¸": 3074,
      "nu": 3075,
      "Ġmove": 3076,
      "Ġoption": 3077,
      "Ġ\"\"\"": 3078,
      "Ġcity": 3079,
      "Ġpress": 3080,
      "ebug": 3081,
      "Ġtrad": 3082,
      "Ġoften": 3083,
      "exp": 3084,
      "ilities": 3085,
      "php": 3086,
      "aged": 3087,
      "ategory": 3088,
      "VID": 3089,
      "oman": 3090,
      "Ġonce": 3091,
      "ributes": 3092,
      "=\"../": 3093,
      "sed": 3094,
      "SC": 3095,
      "De": 3096,
      "Ġtreat": 3097,
      "era": 3098,
      "efore": 3099,
      "aging": 3100,
      "Ġfurther": 3101,
      "ster": 3102,
      "Ġimplement": 3103,
      "Ġyoung": 3104,
      "Ġnews": 3105,
      "Ġperformance": 3106,
      "irl": 3107,
      "ude": 3108,
      "imary": 3109,
      "Base": 3110,
      "ĠFeb": 3111,
      "omet": 3112,
      "Ġcoll": 3113,
      "Ġsat": 3114,
      "HT": 3115,
      "Ġmakes": 3116,
      "ATE": 3117,
      "tau": 3118,
      "Ġpred": 3119,
      "ires": 3120,
      "Ġnum": 3121,
      "ĠCity": 3122,
      "There": 3123,
      "itted": 3124,
      "Ġwomen": 3125,
      "chema": 3126,
      "Pos": 3127,
      "Ġshows": 3128,
      "ĠAct": 3129,
      "Ġlength": 3130,
      "nown": 3131,
      "ius": 3132,
      "Ġfilm": 3133,
      "Ġrisk": 3134,
      "ĠSchool": 3135,
      "ĠMc": 3136,
      "ĠPart": 3137,
      "Line": 3138,
      "adata": 3139,
      "({": 3140,
      "partial": 3141,
      "cul": 3142,
      "ĠMarch": 3143,
      "NS": 3144,
      "Ġcourse": 3145,
      "elete": 3146,
      "Oper": 3147,
      "FA": 3148,
      "button": 3149,
      "gen": 3150,
      "ĠComp": 3151,
      "44": 3152,
      "ptr": 3153,
      "sim": 3154,
      "ĠOne": 3155,
      "Ġindic": 3156,
      "target": 3157,
      "based": 3158,
      "struction": 3159,
      "Ġ+=": 3160,
      "lib": 3161,
      "Ġeconom": 3162,
      "ecess": 3163,
      "izer": 3164,
      "Attribute": 3165,
      "ournal": 3166,
      "case": 3167,
      "....": 3168,
      "Ġcertain": 3169,
      "Ġcamp": 3170,
      "ĠEurope": 3171,
      "Ġthought": 3172,
      "05": 3173,
      "Ġhaving": 3174,
      "reet": 3175,
      "ological": 3176,
      "ĠIntern": 3177,
      "Resource": 3178,
      "adding": 3179,
      "gr": 3180,
      "cember": 3181,
      "select": 3182,
      "Ġcommon": 3183,
      "verage": 3184,
      "Lay": 3185,
      "}(\\": 3186,
      "Ġdidn": 3187,
      "CK": 3188,
      "pected": 3189,
      "igure": 3190,
      "Ġ->": 3191,
      "cor": 3192,
      "EE": 3193,
      "Ġenvironment": 3194,
      "height": 3195,
      "ounter": 3196,
      "rows": 3197,
      "race": 3198,
      "Ġandroid": 3199,
      "df": 3200,
      "Component": 3201,
      "2012": 3202,
      "Ġtell": 3203,
      "Ġcou": 3204,
      "tx": 3205,
      "igital": 3206,
      "Ġdiv": 3207,
      "otion": 3208,
      "ĠGr": 3209,
      "Ġcontinue": 3210,
      "Ġthough": 3211,
      "Buffer": 3212,
      "UE": 3213,
      "Content": 3214,
      "Ġprovided": 3215,
      "emic": 3216,
      "Act": 3217,
      "Hel": 3218,
      "ĠMe": 3219,
      "reed": 3220,
      "ugin": 3221,
      "utions": 3222,
      "Ġclaim": 3223,
      "ements": 3224,
      "Ġconc": 3225,
      "eline": 3226,
      "Str": 3227,
      "append": 3228,
      "Ġtask": 3229,
      "ĠClass": 3230,
      "Ġyet": 3231,
      "'re": 3232,
      "ites": 3233,
      "<!--": 3234,
      "ĠPres": 3235,
      "ĠWill": 3236,
      "Factory": 3237,
      "Ġitem": 3238,
      "Ġphys": 3239,
      "Ġair": 3240,
      "quad": 3241,
      "Ġassum": 3242,
      "ĠPar": 3243,
      "Ġmaterial": 3244,
      "Ġbelow": 3245,
      "ĠMark": 3246,
      "Em": 3247,
      "ops": 3248,
      "///": 3249,
      "udio": 3250,
      "Ġfeatures": 3251,
      "Ġcases": 3252,
      "Ġchanges": 3253,
      "ÑĤ": 3254,
      "Ġvideo": 3255,
      "Ġreason": 3256,
      "Start": 3257,
      "eqref": 3258,
      "Ġadded": 3259,
      "Ġspecific": 3260,
      "Ġothers": 3261,
      "Point": 3262,
      "Ġchall": 3263,
      "Default": 3264,
      "ependent": 3265,
      "REF": 3266,
      "ĠTrans": 3267,
      "ĠReturn": 3268,
      "ana": 3269,
      "Pre": 3270,
      "osp": 3271,
      "Ġcy": 3272,
      "empt": 3273,
      "idget": 3274,
      "year": 3275,
      "flow": 3276,
      "ĠCor": 3277,
      "hel": 3278,
      "Ġthrows": 3279,
      "ilit": 3280,
      "Ġsearch": 3281,
      "lege": 3282,
      "Ġrelations": 3283,
      "Ġsection": 3284,
      "imation": 3285,
      "Ġdate": 3286,
      "Ġvia": 3287,
      "Ġpatients": 3288,
      "posed": 3289,
      "ĠPer": 3290,
      "){": 3291,
      "ief": 3292,
      "Ġdiff": 3293,
      "Ġrate": 3294,
      "anch": 3295,
      "ada": 3296,
      "Ġlearn": 3297,
      "Ġtool": 3298,
      "istry": 3299,
      "medi": 3300,
      "illed": 3301,
      "oph": 3302,
      "Ġclient": 3303,
      "Ġterms": 3304,
      "ĠGener": 3305,
      "Delta": 3306,
      "Ġlabel": 3307,
      "ĠSept": 3308,
      "post": 3309,
      "Ġbegin": 3310,
      "ection": 3311,
      "Ġprotected": 3312,
      "header": 3313,
      "Function": 3314,
      "ĠAf": 3315,
      "ĠDef": 3316,
      "omega": 3317,
      "Equals": 3318,
      "Ġprint": 3319,
      "Version": 3320,
      "Ġeduc": 3321,
      "gener": 3322,
      "eh": 3323,
      "ered": 3324,
      "*/": 3325,
      "Action": 3326,
      "Ġsugg": 3327,
      "change": 3328,
      "host": 3329,
      "Ġsuggest": 3330,
      "olved": 3331,
      "char": 3332,
      "Ġcontinu": 3333,
      "Ġ{@": 3334,
      "Ġstatus": 3335,
      "ĠObject": 3336,
      "last": 3337,
      "Ġanalysis": 3338,
      "xi": 3339,
      "ĠHealth": 3340,
      "json": 3341,
      "sg": 3342,
      "soft": 3343,
      "wise": 3344,
      "Ġep": 3345,
      "ino": 3346,
      "Ġfive": 3347,
      "Sp": 3348,
      "True": 3349,
      "ĠAust": 3350,
      "Ab": 3351,
      "ĠĠĠĠĠĠĠĠĠĠĠĠĠĠ": 3352,
      "gor": 3353,
      "Ġthing": 3354,
      "arr": 3355,
      "Ġcame": 3356,
      "open": 3357,
      "ĠDep": 3358,
      "Ġcopy": 3359,
      "ĠAN": 3360,
      "ĉĊ": 3361,
      "Ġlive": 3362,
      "ided": 3363,
      "stream": 3364,
      "rl": 3365,
      "VER": 3366,
      "ĠUp": 3367,
      "Ġwebs": 3368,
      "}$.": 3369,
      "ounds": 3370,
      "DO": 3371,
      "finished": 3372,
      "ĠSouth": 3373,
      "yles": 3374,
      "Ġ...": 3375,
      "}$,": 3376,
      "ĠJune": 3377,
      "Ġhappen": 3378,
      "Ġcreated": 3379,
      "raphics": 3380,
      "Ġmodels": 3381,
      "Ġred": 3382,
      "ĠApril": 3383,
      "ips": 3384,
      "local": 3385,
      "MS": 3386,
      "typ": 3387,
      "fty": 3388,
      "[\"": 3389,
      "Nav": 3390,
      "atal": 3391,
      "endif": 3392,
      "Ġsw": 3393,
      "Check": 3394,
      "ĠMore": 3395,
      "Ġstream": 3396,
      "Link": 3397,
      "Ġarr": 3398,
      "sequ": 3399,
      "aid": 3400,
      "Ġmag": 3401,
      "Part": 3402,
      "Ġresource": 3403,
      "Ġimpact": 3404,
      "property": 3405,
      "anies": 3406,
      "Ġneeds": 3407,
      "Ð½": 3408,
      "TO": 3409,
      "na": 3410,
      "ensor": 3411,
      "Ġcatch": 3412,
      "izing": 3413,
      "ibrary": 3414,
      "eger": 3415,
      "mon": 3416,
      "ialog": 3417,
      "09": 3418,
      "Ġbi": 3419,
      "ili": 3420,
      "Ġsent": 3421,
      "xml": 3422,
      "Ġonline": 3423,
      "ename": 3424,
      "rowser": 3425,
      ")(": 3426,
      "Task": 3427,
      "ĠStates": 3428,
      "ouch": 3429,
      "ĠRuss": 3430,
      "ĠArt": 3431,
      "push": 3432,
      "65": 3433,
      "Ġinstall": 3434,
      "write": 3435,
      "ĠMy": 3436,
      "Ġparameters": 3437,
      "Ġfeature": 3438,
      "Ġnight": 3439,
      "Ġhigher": 3440,
      "status": 3441,
      "Ġcrit": 3442,
      "Ġfood": 3443,
      "Ġthird": 3444,
      "Ġgames": 3445,
      "Number": 3446,
      "Ġsystems": 3447,
      "Ġupdate": 3448,
      "Ġaccording": 3449,
      "2011": 3450,
      "rest": 3451,
      "Ġtook": 3452,
      "ken": 3453,
      "\\,": 3454,
      "ĠEl": 3455,
      "Ġhy": 3456,
      "iddle": 3457,
      "ks": 3458,
      "ĠDecember": 3459,
      "ĠSch": 3460,
      "Ġcomes": 3461,
      "ĠHar": 3462,
      "infty": 3463,
      "ises": 3464,
      "Ġfail": 3465,
      "Ġcompet": 3466,
      "ĠSec": 3467,
      "indows": 3468,
      "dep": 3469,
      "though": 3470,
      "''": 3471,
      "oved": 3472,
      "gorith": 3473,
      "Ġcolumn": 3474,
      "Ġactiv": 3475,
      "module": 3476,
      "display": 3477,
      "gle": 3478,
      "Prov": 3479,
      "rypt": 3480,
      "jav": 3481,
      "Ġvisit": 3482,
      "Ġindustry": 3483,
      "eqn": 3484,
      "first": 3485,
      "ĠJuly": 3486,
      "tilde": 3487,
      "hib": 3488,
      "aint": 3489,
      "ĠNorth": 3490,
      "Ġver": 3491,
      "Ġden": 3492,
      "à¤": 3493,
      "undle": 3494,
      "Label": 3495,
      "ĠNone": 3496,
      "ges": 3497,
      "08": 3498,
      "Ġcorrespond": 3499,
      "ĠRec": 3500,
      "Ġopport": 3501,
      "pc": 3502,
      "Ġstarted": 3503,
      "Ġ((": 3504,
      "Ġmiss": 3505,
      "49": 3506,
      "Create": 3507,
      "btn": 3508,
      "Ġmonths": 3509,
      "ĠNovember": 3510,
      "ze": 3511,
      "unfinished": 3512,
      "Ġtechnology": 3513,
      "apter": 3514,
      "Ġwrite": 3515,
      "When": 3516,
      "atural": 3517,
      "Ġrespons": 3518,
      "ii": 3519,
      "IV": 3520,
      "istr": 3521,
      "02": 3522,
      "LASS": 3523,
      "signed": 3524,
      "Ġface": 3525,
      "Ġassociated": 3526,
      "Ġbenef": 3527,
      "acity": 3528,
      "Ġage": 3529,
      "Ġamount": 3530,
      "Ġphot": 3531,
      "~~": 3532,
      "Ġcirc": 3533,
      "non": 3534,
      "Ġmar": 3535,
      "Ġattack": 3536,
      "Ġq": 3537,
      "Ġneg": 3538,
      "Ġparameter": 3539,
      "Ġplatform": 3540,
      "dr": 3541,
      "ĠInter": 3542,
      "Ġapplic": 3543,
      "src": 3544,
      "ruary": 3545,
      "Ġpercent": 3546,
      "lip": 3547,
      "ĠĠĠĠĠĠĠĠĊ": 3548,
      "Ġselect": 3549,
      "|\\": 3550,
      "utes": 3551,
      "atory": 3552,
      "maz": 3553,
      "Ġapproach": 3554,
      "Ġintrodu": 3555,
      "TP": 3556,
      "Ġofficial": 3557,
      "Filter": 3558,
      "ÑĢ": 3559,
      "Ġshown": 3560,
      "Ġdouble": 3561,
      "flu": 3562,
      "ĠOctober": 3563,
      "_.": 3564,
      "Ġwatch": 3565,
      "aker": 3566,
      "ancial": 3567,
      "Ġapplication": 3568,
      "ĠSm": 3569,
      "Ġlimit": 3570,
      "2010": 3571,
      "ij": 3572,
      "oding": 3573,
      "istration": 3574,
      "dl": 3575,
      "Ġlooking": 3576,
      "03": 3577,
      "stract": 3578,
      "Load": 3579,
      "avor": 3580,
      "lean": 3581,
      "ĠOF": 3582,
      "////////////////": 3583,
      "find": 3584,
      "Web": 3585,
      "Ġrefer": 3586,
      "Ġcannot": 3587,
      "});": 3588,
      "Ġlower": 3589,
      "strong": 3590,
      "Ġmoney": 3591,
      "Ġtold": 3592,
      "Ġdeal": 3593,
      "Child": 3594,
      "pack": 3595,
      "lying": 3596,
      "container": 3597,
      "witter": 3598,
      "nov": 3599,
      "Ġdeath": 3600,
      "Ġrelease": 3601,
      "Ġquestion": 3602,
      "aul": 3603,
      "Ġfall": 3604,
      "ceed": 3605,
      "Ġhouse": 3606,
      "Ġactually": 3607,
      "78": 3608,
      "irection": 3609,
      "actions": 3610,
      "BU": 3611,
      "fully": 3612,
      "pose": 3613,
      "ĠSeptember": 3614,
      "Ġhalf": 3615,
      "si": 3616,
      "\"]": 3617,
      "ĠVal": 3618,
      "FI": 3619,
      "lections": 3620,
      "$$": 3621,
      "04": 3622,
      "Const": 3623,
      "ĠCounty": 3624,
      "Ġmethods": 3625,
      "yl": 3626,
      "ĠID": 3627,
      "ried": 3628,
      "Ġsubject": 3629,
      "Ġgen": 3630,
      "Ġurl": 3631,
      "ĠAugust": 3632,
      "ĠPark": 3633,
      "II": 3634,
      "obj": 3635,
      "Pol": 3636,
      "Ġcomplex": 3637,
      "urity": 3638,
      "(&": 3639,
      "ABLE": 3640,
      "Ġtax": 3641,
      "Next": 3642,
      "oice": 3643,
      "ĠAm": 3644,
      "aur": 3645,
      "06": 3646,
      "iler": 3647,
      "ham": 3648,
      "One": 3649,
      "Ġconditions": 3650,
      "anced": 3651,
      "std": 3652,
      "inst": 3653,
      "ĠTra": 3654,
      "raint": 3655,
      "icles": 3656,
      "ĠData": 3657,
      "Ġmer": 3658,
      "Ġaddition": 3659,
      "aly": 3660,
      "resh": 3661,
      "mission": 3662,
      "Ġheight": 3663,
      "Ġconsum": 3664,
      "aves": 3665,
      "istor": 3666,
      "ĠBar": 3667,
      "Ġsix": 3668,
      "Ġbar": 3669,
      "Ġtypes": 3670,
      "private": 3671,
      "Ġmodule": 3672,
      "aries": 3673,
      "elling": 3674,
      "ĠEX": 3675,
      ">>": 3676,
      "description": 3677,
      "Ġ]": 3678,
      "chiev": 3679,
      "Ġmultiple": 3680,
      "attr": 3681,
      "Ġtaken": 3682,
      "Ġnecess": 3683,
      "verse": 3684,
      "Ġstructure": 3685,
      "Page": 3686,
      "Ġproperties": 3687,
      "ĠDav": 3688,
      "07": 3689,
      "TER": 3690,
      "Ġinternal": 3691,
      "Ġinit": 3692,
      ".)": 3693,
      "Ġaccept": 3694,
      "Format": 3695,
      "prototype": 3696,
      "Ġreported": 3697,
      "Ġspecified": 3698,
      "Ġnormal": 3699,
      "imension": 3700,
      "Ġbring": 3701,
      "Ġey": 3702,
      "Ġcut": 3703,
      "font": 3704,
      "Ġsequ": 3705,
      "Ġvarious": 3706,
      "That": 3707,
      "Ġago": 3708,
      "Ġmeasure": 3709,
      "Ġeff": 3710,
      "Ġlaun": 3711,
      "Ġelements": 3712,
      "SON": 3713,
      "ERT": 3714,
      "Ġpolicy": 3715,
      "ervices": 3716,
      "Ġmoment": 3717,
      "png": 3718,
      "urb": 3719,
      "coming": 3720,
      "Ġneeded": 3721,
      "Ġblack": 3722,
      "Ġmor": 3723,
      "board": 3724,
      "len": 3725,
      "Ġinstead": 3726,
      "Ġshare": 3727,
      "Ġpersonal": 3728,
      "Ġsimple": 3729,
      "service": 3730,
      "URL": 3731,
      "Ġstandard": 3732,
      "Ġrecent": 3733,
      "GL": 3734,
      "Ġlikely": 3735,
      "Ġroom": 3736,
      "fect": 3737,
      "ttp": 3738,
      "Ġbuilding": 3739,
      "Ġdecl": 3740,
      "Ġlanguage": 3741,
      "idden": 3742,
      "Ġissues": 3743,
      "NO": 3744,
      "Ġemb": 3745,
      "ama": 3746,
      "Ġstates": 3747,
      "aced": 3748,
      "urch": 3749,
      "Ġmen": 3750,
      "Ġbehav": 3751,
      "urg": 3752,
      "Char": 3753,
      "UM": 3754,
      "ĠStud": 3755,
      "Command": 3756,
      "mem": 3757,
      "Ġpaper": 3758,
      "bottom": 3759,
      "Ġfoot": 3760,
      "PC": 3761,
      "}[": 3762,
      "refix": 3763,
      "sembly": 3764,
      "ĠAfter": 3765,
      "lied": 3766,
      "Ġsecurity": 3767,
      "Met": 3768,
      "Ġextends": 3769,
      "Ġcompanies": 3770,
      "pecially": 3771,
      "format": 3772,
      "orem": 3773,
      "RA": 3774,
      "Ġtyp": 3775,
      "Ġwindow": 3776,
      "FONT": 3777,
      "Ġentire": 3778,
      "77": 3779,
      "det": 3780,
      "Ġstep": 3781,
      "95": 3782,
      "Ġdoing": 3783,
      "ĠCOVID": 3784,
      "\".": 3785,
      "mt": 3786,
      "Ġsepar": 3787,
      "Ġimprov": 3788,
      "ledge": 3789,
      "wide": 3790,
      "IO": 3791,
      "Ġprior": 3792,
      "level": 3793,
      "iles": 3794,
      "dated": 3795,
      "Ġworks": 3796,
      "igger": 3797,
      "pol": 3798,
      "Length": 3799,
      "ressed": 3800,
      "iation": 3801,
      "ĠĠĠĠĠĠĠĠĠĠĠĠĊ": 3802,
      "nes": 3803,
      "${": 3804,
      "img": 3805,
      "iences": 3806,
      "symbol": 3807,
      "Ġspect": 3808,
      "Ġeval": 3809,
      "itory": 3810,
      "Ġfun": 3811,
      "Ġtraining": 3812,
      "sole": 3813,
      "ĠPe": 3814,
      "CON": 3815,
      "ply": 3816,
      "Sy": 3817,
      "Ġrather": 3818,
      "Ġparticip": 3819,
      "cm": 3820,
      "Ġhom": 3821,
      "Ob": 3822,
      "vention": 3823,
      "meta": 3824,
      "Ġcontribut": 3825,
      "Ġwebsite": 3826,
      "very": 3827,
      "ensive": 3828,
      "lood": 3829,
      "Ġgetting": 3830,
      "Ġproduction": 3831,
      "Ġalmost": 3832,
      "Return": 3833,
      "Ġserver": 3834,
      "ategy": 3835,
      "Ġexc": 3836,
      "ille": 3837,
      "arter": 3838,
      "navbar": 3839,
      "menu": 3840,
      "ĠHigh": 3841,
      "500": 3842,
      "ensity": 3843,
      "Ġcallback": 3844,
      "Ġusers": 3845,
      "UI": 3846,
      "Output": 3847,
      "Ġtw": 3848,
      "filter": 3849,
      "Ġloss": 3850,
      "Ġformer": 3851,
      "olve": 3852,
      "mm": 3853,
      "Ġarticle": 3854,
      "Ġder": 3855,
      "Ġcomplete": 3856,
      "Ġhours": 3857,
      "foot": 3858,
      "Ġaff": 3859,
      "Ġmind": 3860,
      "project": 3861,
      "roy": 3862,
      "88": 3863,
      "Ġquick": 3864,
      "Ġcommand": 3865,
      "Ġquant": 3866,
      "Spec": 3867,
      "Ġwent": 3868,
      "Ġgroups": 3869,
      "Ġintern": 3870,
      "Ġproducts": 3871,
      "ĠWar": 3872,
      "output": 3873,
      "Ġtaking": 3874,
      "ĠFebruary": 3875,
      "Ġincrease": 3876,
      "efined": 3877,
      "ensions": 3878,
      "fficient": 3879,
      "unit": 3880,
      "Ġrelated": 3881,
      "params": 3882,
      "Ġmember": 3883,
      "Ġwhole": 3884,
      "caption": 3885,
      "Per": 3886,
      "ĠAmerica": 3887,
      "PRO": 3888,
      "Offset": 3889,
      "ĠAfric": 3890,
      "Ġdevice": 3891,
      "Ġunique": 3892,
      "cdot": 3893,
      "Ġformat": 3894,
      "icrosoft": 3895,
      "ĠWork": 3896,
      "Rep": 3897,
      "encies": 3898,
      "Ġadditional": 3899,
      "obile": 3900,
      "ĠCenter": 3901,
      "Ġachiev": 3902,
      "Ġdeg": 3903,
      "ĠHouse": 3904,
      "Ġvirtual": 3905,
      "Ġwalk": 3906,
      "ordin": 3907,
      "po": 3908,
      "Ġpers": 3909,
      "Ġ!==": 3910,
      "response": 3911,
      "Ġwar": 3912,
      "ĠOff": 3913,
      "Ġfront": 3914,
      "Ġdetails": 3915,
      "ifact": 3916,
      "Ġforward": 3917,
      "TYPE": 3918,
      "CL": 3919,
      "aign": 3920,
      "ĠRead": 3921,
      "process": 3922,
      "Cache": 3923,
      "Ġmargin": 3924,
      "47": 3925,
      "atur": 3926,
      "Acc": 3927,
      "just": 3928,
      "ĠRed": 3929,
      "rown": 3930,
      "Ġseem": 3931,
      "mult": 3932,
      "Ġestab": 3933,
      "Ġhowever": 3934,
      "icult": 3935,
      "ĠčĊ": 3936,
      "structor": 3937,
      "Ġprovides": 3938,
      "Last": 3939,
      "Address": 3940,
      "ĠSim": 3941,
      "So": 3942,
      "Valid": 3943,
      "Ġobj": 3944,
      "ERR": 3945,
      "amily": 3946,
      "Ġteach": 3947,
      "Controller": 3948,
      "Ġissue": 3949,
      "selves": 3950,
      "Ġreceived": 3951,
      "isf": 3952,
      "hing": 3953,
      "Ġeffort": 3954,
      "Ġauto": 3955,
      "duc": 3956,
      "Ġheart": 3957,
      "ube": 3958,
      "ĠLicense": 3959,
      "elt": 3960,
      "oring": 3961,
      "Ġcross": 3962,
      "remove": 3963,
      "Ġ[]": 3964,
      "center": 3965,
      "Ġcred": 3966,
      "Ġaverage": 3967,
      "First": 3968,
      "number": 3969,
      "Ġprote": 3970,
      "aven": 3971,
      "Select": 3972,
      "istics": 3973,
      "Aut": 3974,
      "ql": 3975,
      "ĠOut": 3976,
      "ĠThen": 3977,
      "46": 3978,
      "Column": 3979,
      "Ġopp": 3980,
      "Ġgrad": 3981,
      "lier": 3982,
      "Ġpick": 3983,
      "heet": 3984,
      "Ġbad": 3985,
      "num": 3986,
      "ĠIndia": 3987,
      "Ġsong": 3988,
      "Ġmanagement": 3989,
      "update": 3990,
      "Ġcontact": 3991,
      "ees": 3992,
      "joy": 3993,
      "astic": 3994,
      "ĉĉĉĉĉĉĉĉ": 3995,
      "Ġautom": 3996,
      "Ġrights": 3997,
      "42": 3998,
      "cel": 3999,
      "Rem": 4000,
      "py": 4001,
      "comes": 4002,
      "Ð¾Ð": 4003,
      "ores": 4004,
      "Ġtakes": 4005,
      "ĠHis": 4006,
      "andid": 4007,
      "rs": 4008,
      "Ġreturns": 4009,
      "oe": 4010,
      "Ġwords": 4011,
      "Ġrelationship": 4012,
      "Mode": 4013,
      "like": 4014,
      "Ġimm": 4015,
      "Ġwait": 4016,
      "close": 4017,
      "can": 4018,
      "ĠAPI": 4019,
      "********************************": 4020,
      "Ġrout": 4021,
      "Ġexplo": 4022,
      "Ġground": 4023,
      "Ñģ": 4024,
      "chan": 4025,
      "Ġbehind": 4026,
      "ĠPat": 4027,
      "uel": 4028,
      "Ġsym": 4029,
      "Om": 4030,
      "tag": 4031,
      "psi": 4032,
      "ĠGroup": 4033,
      "allet": 4034,
      "\").": 4035,
      "izes": 4036,
      "gl": 4037,
      "ĠSub": 4038,
      "den": 4039,
      "hood": 4040,
      "Ġfunctions": 4041,
      "ATION": 4042,
      "Container": 4043,
      "essages": 4044,
      "Ġrunning": 4045,
      "inding": 4046,
      "Ġexperim": 4047,
      "ĠPresident": 4048,
      "rief": 4049,
      "cap": 4050,
      "IZ": 4051,
      "ington": 4052,
      "CA": 4053,
      "Ġinterface": 4054,
      "ĠChar": 4055,
      "Tag": 4056,
      "ĠResearch": 4057,
      "Ġannounc": 4058,
      "ĠBr": 4059,
      "ociety": 4060,
      "augh": 4061,
      "ĠAcc": 4062,
      "Ġincluded": 4063,
      "long": 4064,
      "igin": 4065,
      "ĠFrom": 4066,
      "Ġfiles": 4067,
      "Ġdepend": 4068,
      "bold": 4069,
      ")$.": 4070,
      "itute": 4071,
      "Ġquality": 4072,
      "atas": 4073,
      "Listener": 4074,
      "instance": 4075,
      "Ġill": 4076,
      "ĠBro": 4077,
      "ascript": 4078,
      "known": 4079,
      "Ġbox": 4080,
      "Ġpack": 4081,
      "Ġlocation": 4082,
      "anks": 4083,
      "anged": 4084,
      "Ġincludes": 4085,
      "Server": 4086,
      "Box": 4087,
      "spec": 4088,
      "Ġss": 4089,
      "\"),": 4090,
      "ĠLaw": 4091,
      "Ġplayers": 4092,
      "eqnarray": 4093,
      "Url": 4094,
      "ĠDon": 4095,
      "Top": 4096,
      "Ġtim": 4097,
      "irit": 4098,
      "Ġdistribution": 4099,
      "Ġscale": 4100,
      "fort": 4101,
      "Ġge": 4102,
      "ĠAc": 4103,
      "returns": 4104,
      "2009": 4105,
      "Sec": 4106,
      "uid": 4107,
      "epsilon": 4108,
      "}_{\\": 4109,
      "Ġstre": 4110,
      "ague": 4111,
      "Refer": 4112,
      "Ġcenter": 4113,
      "Ġconnection": 4114,
      "Ġâ": 4115,
      "Ġoperation": 4116,
      "Ġinf": 4117,
      "Vis": 4118,
      "uses": 4119,
      "Ġsolution": 4120,
      "Ġtour": 4121,
      "iet": 4122,
      "Ġarch": 4123,
      "}}\\": 4124,
      "ĠSee": 4125,
      "Ġfields": 4126,
      "chi": 4127,
      "Ġaffect": 4128,
      "ĠOf": 4129,
      "Ġmatter": 4130,
      "pass": 4131,
      "rab": 4132,
      "BC": 4133,
      "evelop": 4134,
      "ĠTHE": 4135,
      "Ġcurrently": 4136,
      "ha": 4137,
      "miss": 4138,
      "Ġsaf": 4139,
      "mar": 4140,
      "expected": 4141,
      "Ġnone": 4142,
      "Ġadmin": 4143,
      "Ġmode": 4144,
      "ĠBlack": 4145,
      "draw": 4146,
      "uint": 4147,
      "Ġespecially": 4148,
      "Post": 4149,
      "Ġstop": 4150,
      "').": 4151,
      "tool": 4152,
      "<?": 4153,
      "Back": 4154,
      "entry": 4155,
      "Ġhit": 4156,
      "ĠMich": 4157,
      "layout": 4158,
      "68": 4159,
      "airs": 4160,
      "plicit": 4161,
      "ĠStr": 4162,
      "Ġrecogn": 4163,
      "ĠAustral": 4164,
      "HO": 4165,
      "Ġwhite": 4166,
      "otal": 4167,
      "Ġcollection": 4168,
      "ĠPre": 4169,
      "Ġviol": 4170,
      "Ġtemper": 4171,
      "edia": 4172,
      "sqrt": 4173,
      "++)": 4174,
      "ĠDem": 4175,
      "Ġengine": 4176,
      "NAME": 4177,
      "Ġ``": 4178,
      "reference": 4179,
      "UP": 4180,
      "Ġconsidered": 4181,
      "Ġansw": 4182,
      "ĠInternational": 4183,
      "Ġlearning": 4184,
      "ĠSk": 4185,
      "Ġtravel": 4186,
      "IF": 4187,
      "After": 4188,
      "ĠSy": 4189,
      "atives": 4190,
      "ĠType": 4191,
      "Ġitself": 4192,
      "Ġfire": 4193,
      "bor": 4194,
      "ĠHT": 4195,
      "Update": 4196,
      "Ġste": 4197,
      "ĠGoogle": 4198,
      "Ġregard": 4199,
      "acters": 4200,
      "Ġgrowth": 4201,
      "Ġsoftware": 4202,
      "Ġcoming": 4203,
      "Access": 4204,
      "kit": 4205,
      "ipl": 4206,
      "istance": 4207,
      "ĠRE": 4208,
      "Ġquery": 4209,
      "Ġconsist": 4210,
      "Ġaw": 4211,
      "Ġwor": 4212,
      "ondon": 4213,
      "inner": 4214,
      "cial": 4215,
      "ĠDirect": 4216,
      "Ġnational": 4217,
      "else": 4218,
      "annot": 4219,
      "Ġvert": 4220,
      "67": 4221,
      "(_": 4222,
      "ĠHREF": 4223,
      "Ġleaders": 4224,
      "bon": 4225,
      "Ġsche": 4226,
      "Ġbelieve": 4227,
      "Ġattempt": 4228,
      "ĠBrit": 4229,
      "Ġdeep": 4230,
      "Width": 4231,
      "Ġeffects": 4232,
      "iqu": 4233,
      "main": 4234,
      "Ġtreatment": 4235,
      "psilon": 4236,
      "ĠCLASS": 4237,
      "thern": 4238,
      "Ġcondition": 4239,
      "ael": 4240,
      "anger": 4241,
      "Ġroot": 4242,
      "offset": 4243,
      "ouncil": 4244,
      "Row": 4245,
      "Ġweb": 4246,
      "ald": 4247,
      "Button": 4248,
      "apping": 4249,
      "Ġhor": 4250,
      "Ġareas": 4251,
      "Do": 4252,
      "Omega": 4253,
      "Ġlen": 4254,
      "Ġinj": 4255,
      "achine": 4256,
      "^*": 4257,
      "Ġpositive": 4258,
      "Entry": 4259,
      "ĠĠĠĠĠĠĠĠĠĠĠĠĠĠĠĠĠĠĠĠĠĠĠĠĠĠĠĠĠĠĠĠĠĠĠ": 4260,
      "ĠLet": 4261,
      "column": 4262,
      "ĠRem": 4263,
      "Ġful": 4264,
      "Provider": 4265,
      "ĠTV": 4266,
      "Ġsex": 4267,
      "Let": 4268,
      "Ġlines": 4269,
      "rupt": 4270,
      "Ġwriting": 4271,
      "Ġentry": 4272,
      "ĠJust": 4273,
      "Ġextra": 4274,
      "ĠHer": 4275,
      "Ġcomment": 4276,
      "Det": 4277,
      "cho": 4278,
      "Ġanything": 4279,
      "Ġnothing": 4280,
      "gorithm": 4281,
      "ament": 4282,
      "ĠOur": 4283,
      "ae": 4284,
      "iant": 4285,
      "grad": 4286,
      "Ġisn": 4287,
      "Ġconstant": 4288,
      "Ġfilter": 4289,
      "Ġwritten": 4290,
      "Ġsens": 4291,
      "Ġfrequ": 4292,
      "Ġexact": 4293,
      "oom": 4294,
      "Ġgraph": 4295,
      "Case": 4296,
      "vey": 4297,
      "Ġeverything": 4298,
      "ospital": 4299,
      "Ġhot": 4300,
      "Ġoffset": 4301,
      "Mem": 4302,
      "ulations": 4303,
      "ĠOb": 4304,
      "Ġactive": 4305,
      "Ġfollows": 4306,
      "ĠIS": 4307,
      "CP": 4308,
      "Ġtransform": 4309,
      "Ġdoc": 4310,
      "Configuration": 4311,
      "ares": 4312,
      "ĠAng": 4313,
      "2008": 4314,
      "aches": 4315,
      "Ġappear": 4316,
      "bum": 4317,
      "Ġargs": 4318,
      "gn": 4319,
      "Ġdifficult": 4320,
      "hent": 4321,
      "ĠNe": 4322,
      "Types": 4323,
      "support": 4324,
      "CR": 4325,
      "Ġsound": 4326,
      "Ġcorrect": 4327,
      "elebr": 4328,
      "apan": 4329,
      "Ġ<!--": 4330,
      "Ġcommit": 4331,
      "only": 4332,
      "TI": 4333,
      "Ġaud": 4334,
      "older": 4335,
      "Ġfont": 4336,
      "ĠUK": 4337,
      "Ġreference": 4338,
      "Min": 4339,
      "ias": 4340,
      "Target": 4341,
      "ĠDay": 4342,
      "lev": 4343,
      "template": 4344,
      "room": 4345,
      "Ġoutside": 4346,
      "PO": 4347,
      "Ġcontains": 4348,
      "Ġdise": 4349,
      "ĠWeb": 4350,
      "ĠFirst": 4351,
      "ĠGod": 4352,
      "subsection": 4353,
      "Max": 4354,
      "Ġuint": 4355,
      "task": 4356,
      "Dev": 4357,
      "small": 4358,
      "Layout": 4359,
      "ederal": 4360,
      "Ġrow": 4361,
      "Ġscreen": 4362,
      "tty": 4363,
      "ĠRef": 4364,
      "iber": 4365,
      "ĉĠĠĠ": 4366,
      "Ġcomponent": 4367,
      "rapper": 4368,
      "ĠSan": 4369,
      "59": 4370,
      "Ġ${\\": 4371,
      "FO": 4372,
      "ĠArray": 4373,
      "ams": 4374,
      "overy": 4375,
      "QL": 4376,
      "Ġprop": 4377,
      "aily": 4378,
      "Ġexception": 4379,
      "Write": 4380,
      "Ġfloat": 4381,
      "files": 4382,
      "Ġconcern": 4383,
      "attle": 4384,
      "DB": 4385,
      "abs": 4386,
      "Ġprofession": 4387,
      "Ġrandom": 4388,
      "ĠCour": 4389,
      "Ġbuffer": 4390,
      "Ġstaff": 4391,
      "Ġnames": 4392,
      "ocr": 4393,
      "olar": 4394,
      "TS": 4395,
      "Ġenjoy": 4396,
      "Ġsort": 4397,
      "asc": 4398,
      "Ġheld": 4399,
      "ĠKing": 4400,
      "58": 4401,
      "bool": 4402,
      "uate": 4403,
      "ĠNow": 4404,
      "ĠFile": 4405,
      "COL": 4406,
      "```": 4407,
      "ĠEast": 4408,
      ":\"": 4409,
      "Ġbuy": 4410,
      "should": 4411,
      "Process": 4412,
      "Ġsus": 4413,
      "Ġmot": 4414,
      "Dec": 4415,
      "Ġregister": 4416,
      "Big": 4417,
      "ĠGL": 4418,
      "Ġlevels": 4419,
      "Ġhope": 4420,
      "aa": 4421,
      "ĠEm": 4422,
      "Ġ;": 4423,
      "Ġsense": 4424,
      "ĠGerm": 4425,
      "Gamma": 4426,
      "rip": 4427,
      "Ġfriend": 4428,
      "Ġliter": 4429,
      "ĠTrump": 4430,
      "criptor": 4431,
      "RI": 4432,
      "ios": 4433,
      "Ġcalcul": 4434,
      "javascript": 4435,
      "Utils": 4436,
      "Ġstore": 4437,
      "scri": 4438,
      "Ġleading": 4439,
      "57": 4440,
      "ica": 4441,
      "Parameter": 4442,
      "Ġnav": 4443,
      "Ġfight": 4444,
      "vest": 4445,
      "ship": 4446,
      "textbf": 4447,
      "rong": 4448,
      "KE": 4449,
      "Ġshall": 4450,
      "Ġlonger": 4451,
      "Ġidea": 4452,
      "Ġlatest": 4453,
      "Ġvot": 4454,
      "Fe": 4455,
      "ĠAssert": 4456,
      "ĠAssoci": 4457,
      "Ġunit": 4458,
      "Ġexecut": 4459,
      "ĠLog": 4460,
      "author": 4461,
      "()->": 4462,
      "Ġeasy": 4463,
      "Ġpolitical": 4464,
      "dec": 4465,
      "Ġquite": 4466,
      "ĠReview": 4467,
      "Ġrecomm": 4468,
      "float": 4469,
      "]);": 4470,
      "agram": 4471,
      "cret": 4472,
      "scope": 4473,
      "Ġir": 4474,
      "CD": 4475,
      "show": 4476,
      "Ġremove": 4477,
      "Ġpopular": 4478,
      "ming": 4479,
      "Interface": 4480,
      "Ġhandle": 4481,
      "ography": 4482,
      "ĠDepartment": 4483,
      "EO": 4484,
      "Ġbuilt": 4485,
      "force": 4486,
      "ĠTechn": 4487,
      "Ġcontract": 4488,
      "ades": 4489,
      "Ġemer": 4490,
      "rics": 4491,
      "Ġinc": 4492,
      "Ġseems": 4493,
      "more": 4494,
      "parse": 4495,
      "rav": 4496,
      "Ġdynam": 4497,
      "Ġstar": 4498,
      "Ġresources": 4499,
      ")$,": 4500,
      "unt": 4501,
      "My": 4502,
      "Ġroad": 4503,
      "Ġregular": 4504,
      "Ġreve": 4505,
      "ba": 4506,
      "term": 4507,
      "emp": 4508,
      "Ġinside": 4509,
      "Ġess": 4510,
      "Ġensure": 4511,
      "Ġasked": 4512,
      "ART": 4513,
      "zz": 4514,
      "SA": 4515,
      "emph": 4516,
      "Ġinflu": 4517,
      "ĠDE": 4518,
      "nected": 4519,
      "Ġfinancial": 4520,
      "Frame": 4521,
      "Ġcapt": 4522,
      "Ġuses": 4523,
      "Ġpattern": 4524,
      "Ġscal": 4525,
      "match": 4526,
      "Ġfit": 4527,
      "^{(": 4528,
      "cs": 4529,
      "cing": 4530,
      "Ġdraw": 4531,
      "Ġsn": 4532,
      "([": 4533,
      "ĠReturns": 4534,
      "ota": 4535,
      "Ġupon": 4536,
      "Ġchalleng": 4537,
      "Ġnatural": 4538,
      "ĠService": 4539,
      "Ġsend": 4540,
      "require": 4541,
      "ĠBook": 4542,
      "Ġtag": 4543,
      "Ġsolid": 4544,
      "late": 4545,
      "ecute": 4546,
      "Ġallows": 4547,
      "ĠPost": 4548,
      "Ġpredict": 4549,
      "ĠPublic": 4550,
      "Range": 4551,
      "Ġbre": 4552,
      "Ġvacc": 4553,
      "ĠCreate": 4554,
      "Ġstay": 4555,
      "Ġ\\,": 4556,
      "arks": 4557,
      "Ġ{}": 4558,
      "Ġtrying": 4559,
      "ĠSw": 4560,
      "Ġexpression": 4561,
      "ãģ": 4562,
      "vare": 4563,
      "Ġways": 4564,
      "ĠChina": 4565,
      ":</": 4566,
      "Callback": 4567,
      "Ġbroad": 4568,
      "ĠRepublic": 4569,
      "alle": 4570,
      "Ġdecision": 4571,
      "common": 4572,
      "iforn": 4573,
      "pite": 4574,
      "Ġsem": 4575,
      "Ġgre": 4576,
      "43": 4577,
      "ford": 4578,
      "Ġreturned": 4579,
      "Ġcompl": 4580,
      "Ġsatisf": 4581,
      "Header": 4582,
      "bm": 4583,
      "ĠSen": 4584,
      "Ġ~": 4585,
      "Ġprice": 4586,
      "Ġdirectly": 4587,
      "empty": 4588,
      "ĠYour": 4589,
      "Ġcompared": 4590,
      "oon": 4591,
      "Ġprobably": 4592,
      "Ġcharacters": 4593,
      "Ġwhose": 4594,
      "uge": 4595,
      "Ġpublished": 4596,
      "41": 4597,
      "utils": 4598,
      "ĠST": 4599,
      "Ġconduct": 4600,
      "Ġsomeone": 4601,
      "Ġword": 4602,
      "ĠSome": 4603,
      "Unit": 4604,
      "Ġrecently": 4605,
      "Ġdemon": 4606,
      "Ġstudies": 4607,
      "root": 4608,
      "icture": 4609,
      "ĠCheck": 4610,
      "Ġband": 4611,
      "Ġveh": 4612,
      "olid": 4613,
      "ellow": 4614,
      "Ġbeaut": 4615,
      "Ġsession": 4616,
      "Ġselected": 4617,
      "'m": 4618,
      "ese": 4619,
      "Ġforce": 4620,
      "Work": 4621,
      "Ġannounced": 4622,
      "Ġdeb": 4623,
      "Ġeveryone": 4624,
      "ĠOpen": 4625,
      "ara": 4626,
      "}=": 4627,
      "styles": 4628,
      "Ġcam": 4629,
      "Ġign": 4630,
      "Ġplayer": 4631,
      "Ġ**": 4632,
      "ran": 4633,
      "illing": 4634,
      "Ġparty": 4635,
      "ĠLondon": 4636,
      "Ġcountries": 4637,
      "attern": 4638,
      "][": 4639,
      "ecution": 4640,
      "enced": 4641,
      "ctx": 4642,
      "ĠInc": 4643,
      "arp": 4644,
      "Ġfast": 4645,
      "Location": 4646,
      "ĠTime": 4647,
      "break": 4648,
      "Ġavoid": 4649,
      "Ġcook": 4650,
      "Ġdigital": 4651,
      "Bo": 4652,
      "Ġeducation": 4653,
      "56": 4654,
      "ĠDec": 4655,
      "Direct": 4656,
      "ening": 4657,
      "final": 4658,
      "Ġimages": 4659,
      "ka": 4660,
      "Expression": 4661,
      "AV": 4662,
      "Ġanaly": 4663,
      "Ġsets": 4664,
      "Control": 4665,
      "ULT": 4666,
      "Ġreleased": 4667,
      "Inst": 4668,
      "Bl": 4669,
      "Ġconnect": 4670,
      "Ġproblems": 4671,
      "API": 4672,
      "ntax": 4673,
      "irus": 4674,
      "Ġimmedi": 4675,
      "MO": 4676,
      "Ġpain": 4677,
      "SD": 4678,
      "gate": 4679,
      "tree": 4680,
      "ĠChe": 4681,
      "Co": 4682,
      "mut": 4683,
      "ĠEnd": 4684,
      ")=": 4685,
      "Bundle": 4686,
      "None": 4687,
      "ifornia": 4688,
      "itution": 4689,
      "ĠMod": 4690,
      "Ġminutes": 4691,
      "Ġsoon": 4692,
      "cy": 4693,
      "Ġquestions": 4694,
      "Ġstatement": 4695,
      "Go": 4696,
      "itude": 4697,
      "buffer": 4698,
      "BA": 4699,
      "Copy": 4700,
      "Ġmechan": 4701,
      "Ġsurface": 4702,
      "gest": 4703,
      "RL": 4704,
      "ixt": 4705,
      "etch": 4706,
      ")]": 4707,
      "Ġreach": 4708,
      "ĠBen": 4709,
      "'ve": 4710,
      "%%": 4711,
      "ncy": 4712,
      "ufact": 4713,
      "Ġcampaign": 4714,
      "lor": 4715,
      "Ġmemory": 4716,
      "ĠAtt": 4717,
      "Ġempty": 4718,
      "ĠAre": 4719,
      "Ġdeliver": 4720,
      "oz": 4721,
      "ĠAir": 4722,
      "Ġemail": 4723,
      "eft": 4724,
      "}^{\\": 4725,
      "varepsilon": 4726,
      "cr": 4727,
      "ĠOR": 4728,
      "ĠProgram": 4729,
      "Height": 4730,
      "ros": 4731,
      "Ġsimply": 4732,
      "ula": 4733,
      "Ġgirl": 4734,
      "Ġallowed": 4735,
      "Ġrev": 4736,
      "Port": 4737,
      "Ġsetting": 4738,
      "Module": 4739,
      "acing": 4740,
      "iers": 4741,
      "Thread": 4742,
      "NE": 4743,
      "Ġtown": 4744,
      "circ": 4745,
      ".$": 4746,
      "aml": 4747,
      "Ġpolice": 4748,
      "Us": 4749,
      "MM": 4750,
      "Ġhon": 4751,
      "egraphics": 4752,
      "Ġitems": 4753,
      "ĠĠĠĠĠĠĠĠĠĠĠĠĠĠĠĠĠĠĠĠĠ": 4754,
      "includegraphics": 4755,
      "ALL": 4756,
      "ĠCollege": 4757,
      "Ġfa": 4758,
      "Ġapply": 4759,
      "Ġpopulation": 4760,
      "het": 4761,
      "Ġinternational": 4762,
      "Ġdescription": 4763,
      "?âĢĿ": 4764,
      "token": 4765,
      "2007": 4766,
      "Ġcause": 4767,
      "INT": 4768,
      "ĠFound": 4769,
      "ĠÃ": 4770,
      "2000": 4771,
      "BO": 4772,
      "Ġnov": 4773,
      "'),": 4774,
      "Tree": 4775,
      "itch": 4776,
      "Ġobjects": 4777,
      "AND": 4778,
      "Ġgas": 4779,
      "pename": 4780,
      "then": 4781,
      "Ġnecessary": 4782,
      "Ġmatrix": 4783,
      "Ġcollect": 4784,
      "########": 4785,
      "Ġclean": 4786,
      "Ġtree": 4787,
      "ny": 4788,
      "Ġweight": 4789,
      "ĠFin": 4790,
      "Dr": 4791,
      "ĠEnglish": 4792,
      "Op": 4793,
      "Ġwanted": 4794,
      "antic": 4795,
      "Window": 4796,
      "IST": 4797,
      "Ġdam": 4798,
      "ĠEv": 4799,
      "Ġrat": 4800,
      "Ġestim": 4801,
      "PECT": 4802,
      "ua": 4803,
      "tee": 4804,
      "rib": 4805,
      "Ġapprox": 4806,
      "Ġpassed": 4807,
      "Can": 4808,
      "ĠWhile": 4809,
      "ĠGover": 4810,
      "Ġgoal": 4811,
      "Ġapi": 4812,
      "ctor": 4813,
      "Ġprogress": 4814,
      "MD": 4815,
      "Ġlost": 4816,
      "Ġdefine": 4817,
      "conf": 4818,
      "resource": 4819,
      "Ġevidence": 4820,
      "Ġcompar": 4821,
      "Empty": 4822,
      "ĠSeries": 4823,
      "69": 4824,
      "AA": 4825,
      "Ġthemselves": 4826,
      "strict": 4827,
      "Ġrender": 4828,
      "layer": 4829,
      "win": 4830,
      "Ġnote": 4831,
      "alls": 4832,
      "itect": 4833,
      "ls": 4834,
      "cache": 4835,
      "ĠDavid": 4836,
      "edd": 4837,
      "ĠStreet": 4838,
      "chedul": 4839,
      "./": 4840,
      "ĠHere": 4841,
      "Entity": 4842,
      "iece": 4843,
      "Ident": 4844,
      "rightarrow": 4845,
      "document": 4846,
      "Ġdescribed": 4847,
      "Ġprec": 4848,
      "Ġbecame": 4849,
      "scale": 4850,
      "VAL": 4851,
      "SH": 4852,
      "prop": 4853,
      "Local": 4854,
      "osed": 4855,
      "Ġdead": 4856,
      ".;": 4857,
      "Ġarguments": 4858,
      "PR": 4859,
      "quare": 4860,
      "UB": 4861,
      "Ġexisting": 4862,
      "Ġnumer": 4863,
      "rangle": 4864,
      "ĠEar": 4865,
      "Ġexcept": 4866,
      "wood": 4867,
      "Ġspeed": 4868,
      ".}": 4869,
      "Rel": 4870,
      "Dep": 4871,
      "Ġoffice": 4872,
      "}/": 4873,
      "Ġoverride": 4874,
      "ĠScience": 4875,
      "Ġled": 4876,
      "Ġliving": 4877,
      "los": 4878,
      "Ġchanged": 4879,
      "Hash": 4880,
      "CODE": 4881,
      "mitted": 4882,
      "Ġactual": 4883,
      "Ġflow": 4884,
      "Open": 4885,
      "acebook": 4886,
      "riday": 4887,
      "Http": 4888,
      "Ġinvestig": 4889,
      "Ġfavor": 4890,
      "pare": 4891,
      "Ġzero": 4892,
      "Params": 4893,
      "prove": 4894,
      "proof": 4895,
      "'ll": 4896,
      "Ġstage": 4897,
      "Ġflo": 4898,
      "values": 4899,
      "ĠJapan": 4900,
      "cos": 4901,
      "Level": 4902,
      "Ġfriends": 4903,
      "olume": 4904,
      "Ġsupported": 4905,
      "Sim": 4906,
      "}).": 4907,
      "ĠDi": 4908,
      "Ġinfo": 4909,
      "Mon": 4910,
      "Ġdrug": 4911,
      "Ġvict": 4912,
      "Ġreceive": 4913,
      "PS": 4914,
      "Json": 4915,
      "Ġhel": 4916,
      "Ġ>=": 4917,
      "Ġsaw": 4918,
      "Enc": 4919,
      "Ġparts": 4920,
      "Option": 4921,
      "DF": 4922,
      "tra": 4923,
      "Ġeffective": 4924,
      "unic": 4925,
      "ĉĉĉĉĉĉĉ": 4926,
      "mas": 4927,
      "Ġgives": 4928,
      "ropri": 4929,
      "Ġdifference": 4930,
      "Ġmid": 4931,
      "ims": 4932,
      "Search": 4933,
      "Ġlock": 4934,
      "Ġoperator": 4935,
      "Ġoffers": 4936,
      "Position": 4937,
      "ico": 4938,
      "Ġactivity": 4939,
      "Ġpartners": 4940,
      "Kind": 4941,
      "Mat": 4942,
      "tim": 4943,
      "Properties": 4944,
      "izations": 4945,
      "ĠMr": 4946,
      "Ptr": 4947,
      "avy": 4948,
      "Ġmulti": 4949,
      "rated": 4950,
      "command": 4951,
      "Ġwoman": 4952,
      "2006": 4953,
      "nor": 4954,
      "Ġknowledge": 4955,
      "vec": 4956,
      "Ġfailed": 4957,
      "Ġobtained": 4958,
      "omb": 4959,
      "inated": 4960,
      "ivil": 4961,
      "enge": 4962,
      "ifying": 4963,
      "ocal": 4964,
      "%;": 4965,
      "Ġperfect": 4966,
      "\"));": 4967,
      "Script": 4968,
      "INE": 4969,
      "irth": 4970,
      "asons": 4971,
      "Ġargument": 4972,
      "thon": 4973,
      "ĠBusiness": 4974,
      "ilitary": 4975,
      "IGN": 4976,
      "Ġnumbers": 4977,
      "Ġcharg": 4978,
      "ĠForm": 4979,
      "Ġetc": 4980,
      "ĠException": 4981,
      "Ã¡": 4982,
      "Ġtemplate": 4983,
      "gment": 4984,
      "DA": 4985,
      "Ġsil": 4986,
      "Ġround": 4987,
      "Ġcells": 4988,
      "Ġtheory": 4989,
      "ĠOver": 4990,
      "Ġdemonstr": 4991,
      "Ġ::": 4992,
      "Ġprotect": 4993,
      "Ġlives": 4994,
      "andemic": 4995,
      "Ġoperations": 4996,
      "Me": 4997,
      "Ġplaying": 4998,
      ">,": 4999,
      "Ġphase": 5000,
      "Ġvers": 5001,
      "anges": 5002,
      "SO": 5003,
      "Ġmention": 5004,
      "Ġequal": 5005,
      "Connection": 5006,
      "fs": 5007,
      "patch": 5008,
      "79": 5009,
      "Ġphysical": 5010,
      "control": 5011,
      "Ġexpand": 5012,
      "drop": 5013,
      "Ġcandid": 5014,
      ".~\\": 5015,
      "lice": 5016,
      "arily": 5017,
      "frak": 5018,
      "Ġsample": 5019,
      "eve": 5020,
      "Ġiter": 5021,
      "ously": 5022,
      "ustain": 5023,
      "Ġgets": 5024,
      "rial": 5025,
      "300": 5026,
      "Ġque": 5027,
      "free": 5028,
      "ependency": 5029,
      "ĠMet": 5030,
      "Ġbal": 5031,
      "ĠWilliam": 5032,
      "\"))": 5033,
      "PL": 5034,
      "Async": 5035,
      "ida": 5036,
      "msg": 5037,
      "Ġvs": 5038,
      "artifact": 5039,
      "Ġbegan": 5040,
      "Ġ*)": 5041,
      "wner": 5042,
      "Ġrules": 5043,
      "Ġneigh": 5044,
      "ĠPort": 5045,
      "Ġdeveloped": 5046,
      "Ass": 5047,
      "Lambda": 5048,
      "ĠName": 5049,
      "Ġconv": 5050,
      "oder": 5051,
      "Operation": 5052,
      "Host": 5053,
      "Ġlegal": 5054,
      "ACK": 5055,
      "internal": 5056,
      "ĠBuild": 5057,
      "ashington": 5058,
      "Ġframe": 5059,
      "Ġreading": 5060,
      "Ġswitch": 5061,
      "foo": 5062,
      "Ġassess": 5063,
      "Ġprimary": 5064,
      "Match": 5065,
      "Ġnamed": 5066,
      "plete": 5067,
      "tml": 5068,
      "54": 5069,
      "dro": 5070,
      "Ġweeks": 5071,
      "Ġplayed": 5072,
      "=\"_": 5073,
      "which": 5074,
      "ulated": 5075,
      "Ġhimself": 5076,
      "ĠMat": 5077,
      "under": 5078,
      "Serial": 5079,
      "FT": 5080,
      "Ġcareer": 5081,
      "Session": 5082,
      "Ġdark": 5083,
      "sd": 5084,
      "52": 5085,
      "Ġshared": 5086,
      "Prot": 5087,
      "ĠCalifornia": 5088,
      "ancy": 5089,
      ".\\": 5090,
      "clusion": 5091,
      "Ġthroughout": 5092,
      "Ġcelebr": 5093,
      "ĠAnt": 5094,
      "sign": 5095,
      "IZE": 5096,
      "vant": 5097,
      "Ġincreasing": 5098,
      "Ġdesigned": 5099,
      "Ġclin": 5100,
      "gu": 5101,
      "hi": 5102,
      "Ġrac": 5103,
      "raz": 5104,
      "rought": 5105,
      "Change": 5106,
      "rd": 5107,
      "Ġhistor": 5108,
      "boot": 5109,
      "PA": 5110,
      "ulture": 5111,
      "sa": 5112,
      "Impl": 5113,
      "Description": 5114,
      "aled": 5115,
      "=\"../../../../../": 5116,
      "?:": 5117,
      "Ġnet": 5118,
      "try": 5119,
      "Handle": 5120,
      "Ġfeed": 5121,
      "Dir": 5122,
      "Ġ\"\\": 5123,
      "Ġboard": 5124,
      "ĠYear": 5125,
      "ivacy": 5126,
      "Ġimpl": 5127,
      "Ġstarting": 5128,
      "Ġotherwise": 5129,
      "Ġaccur": 5130,
      "car": 5131,
      "device": 5132,
      "Ġworth": 5133,
      "Ġresid": 5134,
      "cope": 5135,
      "ĠFig": 5136,
      "Ġparams": 5137,
      "orph": 5138,
      "atively": 5139,
      "iring": 5140,
      "adow": 5141,
      "Ġcard": 5142,
      "isions": 5143,
      "imately": 5144,
      "akers": 5145,
      "varphi": 5146,
      "Ġfinally": 5147,
      "ĠAnn": 5148,
      "Ġability": 5149,
      "ictionary": 5150,
      "ved": 5151,
      "Ġconfiguration": 5152,
      "Ġseek": 5153,
      "Ġthreat": 5154,
      "Ġinvolved": 5155,
      "Ġattribute": 5156,
      "orge": 5157,
      "reement": 5158,
      "example": 5159,
      "Ġrock": 5160,
      "[\\": 5161,
      "Ġstreng": 5162,
      "boldsymbol": 5163,
      "Ġmis": 5164,
      "Ġnamespace": 5165,
      "Settings": 5166,
      "sets": 5167,
      "geq": 5168,
      "iful": 5169,
      "Ġdistance": 5170,
      "Ġscen": 5171,
      "Current": 5172,
      "leep": 5173,
      "overline": 5174,
      "Ġtowards": 5175,
      "Project": 5176,
      "Ġchannel": 5177,
      "strap": 5178,
      "Ġincreased": 5179,
      "ĠEXPECT": 5180,
      "ĠAL": 5181,
      "Ġleave": 5182,
      "Ġpadding": 5183,
      "skip": 5184,
      "band": 5185,
      "Ġmedical": 5186,
      "ooth": 5187,
      "53": 5188,
      "Ġsafety": 5189,
      "Collection": 5190,
      "rate": 5191,
      "Ġgenerated": 5192,
      "{{": 5193,
      "Ġselection": 5194,
      "Ġjo": 5195,
      "ued": 5196,
      "cons": 5197,
      "Stat": 5198,
      "98": 5199,
      "Down": 5200,
      "Ġrule": 5201,
      "_;": 5202,
      "itable": 5203,
      "Ġsolutions": 5204,
      "oded": 5205,
      "debug": 5206,
      "Ġexists": 5207,
      "!!": 5208,
      "Ġfactor": 5209,
      "Ġbehavior": 5210,
      "aught": 5211,
      "CTION": 5212,
      "ville": 5213,
      "window": 5214,
      "Ġthus": 5215,
      "DI": 5216,
      "ocket": 5217,
      "Ġrelative": 5218,
      "=\"-": 5219,
      "Document": 5220,
      "before": 5221,
      "omic": 5222,
      "ORT": 5223,
      "emy": 5224,
      "ĠâĢ¦": 5225,
      "Ġxml": 5226,
      "ãĥ": 5227,
      "idge": 5228,
      "Ġsuff": 5229,
      "Ġchoice": 5230,
      "ĠExp": 5231,
      "Ġobserved": 5232,
      "Ġrespectively": 5233,
      "xx": 5234,
      "76": 5235,
      "ĠEuropean": 5236,
      "ĠDate": 5237,
      "Ġpurch": 5238,
      "Ġty": 5239,
      "Store": 5240,
      "ĠCanada": 5241,
      "copy": 5242,
      "Ge": 5243,
      "clear": 5244,
      "Ġculture": 5245,
      "51": 5246,
      "More": 5247,
      "}),": 5248,
      "ĠHel": 5249,
      "cp": 5250,
      "Ġwonder": 5251,
      "ĠAND": 5252,
      "aste": 5253,
      "Ġabsol": 5254,
      "ifest": 5255,
      "Ġcorresponding": 5256,
      "ĠUse": 5257,
      "ĠGeneral": 5258,
      "Ġtoken": 5259,
      "Reference": 5260,
      "Tim": 5261,
      "ertific": 5262,
      "Ġimprove": 5263,
      "Ġprevent": 5264,
      "pid": 5265,
      "asic": 5266,
      "Ġpractice": 5267,
      "Ġmodern": 5268,
      "alax": 5269,
      "bra": 5270,
      "nab": 5271,
      "ĠMag": 5272,
      "ters": 5273,
      "Ġscope": 5274,
      "Ġlarger": 5275,
      "sf": 5276,
      "Ġpretty": 5277,
      "Ġacqu": 5278,
      "Ġraise": 5279,
      "XX": 5280,
      "Ġtransfer": 5281,
      "icate": 5282,
      "Ġaltern": 5283,
      "ĠFil": 5284,
      "Ġmaximum": 5285,
      "mathfrak": 5286,
      "hash": 5287,
      "Ġexam": 5288,
      "ĠCON": 5289,
      "Ġdirection": 5290,
      "Ġwrong": 5291,
      "Ġstories": 5292,
      "global": 5293,
      "Ġbrand": 5294,
      "bind": 5295,
      "Sk": 5296,
      "Ġprojects": 5297,
      "Ġinteresting": 5298,
      "rench": 5299,
      "ario": 5300,
      "Ġopportunity": 5301,
      "Ġfem": 5302,
      "Ġcontainer": 5303,
      "ĠInstitute": 5304,
      "1000": 5305,
      "Ġconcept": 5306,
      "ĠAut": 5307,
      "ĠHam": 5308,
      "Ġpull": 5309,
      "berg": 5310,
      "Ġcustomers": 5311,
      "Ġsave": 5312,
      "Ġvector": 5313,
      "Ġdisease": 5314,
      "Ġexpress": 5315,
      "Ġalbum": 5316,
      "ibly": 5317,
      "split": 5318,
      "Ġinsp": 5319,
      "Ġlimited": 5320,
      "Ġcritical": 5321,
      "mazon": 5322,
      "types": 5323,
      "Ġgoes": 5324,
      "erve": 5325,
      "usion": 5326,
      "ĠProject": 5327,
      "ya": 5328,
      "images": 5329,
      "Ġrepl": 5330,
      "Ġplease": 5331,
      "EM": 5332,
      "Ġsurpr": 5333,
      "2005": 5334,
      "Parameters": 5335,
      "},\\": 5336,
      "ilies": 5337,
      "Ġsources": 5338,
      "Ġcontain": 5339,
      "Ġprinc": 5340,
      ":(": 5341,
      "Ġmeeting": 5342,
      "STR": 5343,
      "Are": 5344,
      "Ġcore": 5345,
      "400": 5346,
      "haps": 5347,
      "mes": 5348,
      "Sign": 5349,
      "Ke": 5350,
      "hest": 5351,
      "Helper": 5352,
      "pg": 5353,
      "ĠSing": 5354,
      "ĉĠ": 5355,
      "Ġhum": 5356,
      "Ġsettings": 5357,
      "ĠRel": 5358,
      "Ġmovie": 5359,
      "ĠPaul": 5360,
      "Ġrespond": 5361,
      "Ġlack": 5362,
      "fr": 5363,
      "ds": 5364,
      "normal": 5365,
      "Ġproposed": 5366,
      "product": 5367,
      "ĠHol": 5368,
      "ĠIndian": 5369,
      "overs": 5370,
      "bin": 5371,
      "Ġtransport": 5372,
      "ĠBest": 5373,
      "Ġpm": 5374,
      "ragment": 5375,
      "Ġmicro": 5376,
      "card": 5377,
      "Ġworked": 5378,
      "ĠPal": 5379,
      "ĠNOT": 5380,
      "Home": 5381,
      "Core": 5382,
      "Our": 5383,
      "ĠPy": 5384,
      "ria": 5385,
      "Rev": 5386,
      "ĠLa": 5387,
      "aturday": 5388,
      "ometry": 5389,
      "Ġreli": 5390,
      "ĠDel": 5391,
      "&\\": 5392,
      "aming": 5393,
      "OK": 5394,
      "ils": 5395,
      "Ġball": 5396,
      "Ġoptim": 5397,
      "Ġnature": 5398,
      "Ġtemperature": 5399,
      "ynch": 5400,
      "ulate": 5401,
      "âĢĿ.": 5402,
      "Ġinterview": 5403,
      "Ġfully": 5404,
      "ĠRun": 5405,
      "lands": 5406,
      "Names": 5407,
      "Po": 5408,
      "Ġlinear": 5409,
      "CS": 5410,
      "ĠNote": 5411,
      "ĠEduc": 5412,
      "Ġtests": 5413,
      "Ġcourt": 5414,
      "urt": 5415,
      "evelopment": 5416,
      "make": 5417,
      "render": 5418,
      "ĠCouncil": 5419,
      "stack": 5420,
      "ĠCre": 5421,
      "frame": 5422,
      "Now": 5423,
      "ĠFriday": 5424,
      "ĠTex": 5425,
      "El": 5426,
      "igen": 5427,
      "Ø§": 5428,
      "Ġvariable": 5429,
      "Ġclosed": 5430,
      "mercial": 5431,
      "Ġattention": 5432,
      "ws": 5433,
      "Ġthread": 5434,
      "ĠDan": 5435,
      "Ġtransition": 5436,
      "ĠDet": 5437,
      "Ġundefined": 5438,
      "Ġbooks": 5439,
      "iverse": 5440,
      "itation": 5441,
      "Ġstudent": 5442,
      "COLOR": 5443,
      "classes": 5444,
      "ĠJack": 5445,
      "Ġparse": 5446,
      "ĠArch": 5447,
      "ronic": 5448,
      "artifactId": 5449,
      "Ġqual": 5450,
      "ERROR": 5451,
      "care": 5452,
      "vas": 5453,
      "Ġsequence": 5454,
      "iding": 5455,
      "abilities": 5456,
      "ĠSuper": 5457,
      "ĠSince": 5458,
      "Ġusually": 5459,
      "had": 5460,
      "req": 5461,
      "Font": 5462,
      "ĠJournal": 5463,
      "ted": 5464,
      "ĠTwitter": 5465,
      "ORD": 5466,
      "Ġinnov": 5467,
      "oul": 5468,
      "pop": 5469,
      "equal": 5470,
      "sort": 5471,
      "Ġfixed": 5472,
      "ĠSund": 5473,
      "ologies": 5474,
      "SL": 5475,
      "alysis": 5476,
      "fa": 5477,
      "ĠJames": 5478,
      "border": 5479,
      "EQ": 5480,
      "72": 5481,
      "useum": 5482,
      "oms": 5483,
      "Ġplans": 5484,
      "Iter": 5485,
      "Ġpair": 5486,
      "ĠCourt": 5487,
      "Ġjud": 5488,
      "86": 5489,
      "zer": 5490,
      "ror": 5491,
      "Ġalign": 5492,
      ";->": 5493,
      "Ġstra": 5494,
      "osph": 5495,
      "Ġedge": 5496,
      "ĠMem": 5497,
      "(*": 5498,
      "fill": 5499,
      "IB": 5500,
      "Ġshape": 5501,
      "ĠNS": 5502,
      "Ġson": 5503,
      "Ġmaintain": 5504,
      "Ġactivities": 5505,
      "rome": 5506,
      "Ġones": 5507,
      "Record": 5508,
      "Ġsec": 5509,
      "Ġproper": 5510,
      "Ġsymbol": 5511,
      "Vari": 5512,
      "ĠDO": 5513,
      ")^": 5514,
      "Integer": 5515,
      "Ġdensity": 5516,
      "():": 5517,
      "Ġteams": 5518,
      "icker": 5519,
      "Ġtesting": 5520,
      "mode": 5521,
      "ĠFacebook": 5522,
      "ĠWhite": 5523,
      "that": 5524,
      "'>": 5525,
      "Ġbey": 5526,
      "icket": 5527,
      "ecause": 5528,
      "Ġanyone": 5529,
      "Ġanim": 5530,
      "Mar": 5531,
      "Ġsafe": 5532,
      "Ġdemand": 5533,
      "Ġscient": 5534,
      "Ġcomponents": 5535,
      "delete": 5536,
      "ĠMor": 5537,
      "Ġearlier": 5538,
      "DD": 5539,
      "ĠMal": 5540,
      "ĠOther": 5541,
      "weet": 5542,
      "Ġbeyond": 5543,
      "ying": 5544,
      "sv": 5545,
      "Ġreports": 5546,
      "Ġrot": 5547,
      "mail": 5548,
      "Ġten": 5549,
      "False": 5550,
      "Ġeconomic": 5551,
      "Ġepis": 5552,
      "structure": 5553,
      "send": 5554,
      "agnost": 5555,
      "Ġapplications": 5556,
      "Ġclimate": 5557,
      "isation": 5558,
      "session": 5559,
      "Ġmut": 5560,
      "Ġremain": 5561,
      "ĠGreen": 5562,
      "Ġscience": 5563,
      "ĠWashington": 5564,
      "och": 5565,
      "Ġpandemic": 5566,
      "citep": 5567,
      "Ġ['": 5568,
      "uesday": 5569,
      "ATA": 5570,
      "Ġcentral": 5571,
      "Ġmanufact": 5572,
      "TEST": 5573,
      "Ġgreen": 5574,
      "Template": 5575,
      "Ġrace": 5576,
      "Ġwasn": 5577,
      "iform": 5578,
      "xis": 5579,
      "inder": 5580,
      "Body": 5581,
      "Ġcalls": 5582,
      "second": 5583,
      "access": 5584,
      "DC": 5585,
      "Ġrob": 5586,
      "dest": 5587,
      "rote": 5588,
      "Ġready": 5589,
      "TC": 5590,
      "erc": 5591,
      "hline": 5592,
      "Ġsuccessful": 5593,
      "Order": 5594,
      "ĠTrue": 5595,
      "Ġlooks": 5596,
      "ston": 5597,
      "olic": 5598,
      "Ġcast": 5599,
      "ado": 5600,
      "rael": 5601,
      "Ġmother": 5602,
      "âĢĺ": 5603,
      "Ġmeaning": 5604,
      "Ġsurv": 5605,
      "etime": 5606,
      "ishing": 5607,
      "She": 5608,
      "ĠServices": 5609,
      "ĠMart": 5610,
      "dates": 5611,
      "clude": 5612,
      "GE": 5613,
      "gan": 5614,
      "Menu": 5615,
      "parameter": 5616,
      "ĠBig": 5617,
      "ĠKe": 5618,
      "eler": 5619,
      "tog": 5620,
      "Ġconstruct": 5621,
      "related": 5622,
      "Pass": 5623,
      "edef": 5624,
      "ĠRequ": 5625,
      "Ġappropri": 5626,
      "ĠII": 5627,
      "Ġdatabase": 5628,
      "endar": 5629,
      "ĠCall": 5630,
      "Ġbasis": 5631,
      "URE": 5632,
      "istan": 5633,
      "bound": 5634,
      "Ġfans": 5635,
      "Ð»": 5636,
      "ĠFe": 5637,
      "Ġindependent": 5638,
      "auth": 5639,
      "webkit": 5640,
      "Ġstri": 5641,
      "ini": 5642,
      "Ġpresented": 5643,
      "WS": 5644,
      "groupId": 5645,
      "Ġauth": 5646,
      "(:": 5647,
      "Ġaward": 5648,
      "Ġserious": 5649,
      "Ġsold": 5650,
      "Ġtouch": 5651,
      "Ġbillion": 5652,
      "END": 5653,
      "ago": 5654,
      "NavBar": 5655,
      "rian": 5656,
      "ĠÎ": 5657,
      "ĠMap": 5658,
      "'],": 5659,
      "ĠPM": 5660,
      "Left": 5661,
      "Ġang": 5662,
      "hy": 5663,
      "Ġgreater": 5664,
      "Mult": 5665,
      "focus": 5666,
      "Ġplant": 5667,
      "Ġquickly": 5668,
      "96": 5669,
      "oles": 5670,
      "Ev": 5671,
      "Le": 5672,
      "Ġdro": 5673,
      "Ġsubst": 5674,
      "Ġcache": 5675,
      "ellig": 5676,
      "dat": 5677,
      "Ġrequires": 5678,
      "ĠBer": 5679,
      "Use": 5680,
      "exception": 5681,
      "unities": 5682,
      "orter": 5683,
      "Ġsituation": 5684,
      "jo": 5685,
      "kind": 5686,
      "after": 5687,
      "Ġbank": 5688,
      "toString": 5689,
      "ĠLeg": 5690,
      "Ġsaying": 5691,
      "Ġprograms": 5692,
      "Ġenter": 5693,
      "legal": 5694,
      "ĠĠĠĠĠĠĠĠĠĠĠĠĠĠĠĠĠĠĠĠ": 5695,
      "uri": 5696,
      "obuf": 5697,
      "Ġgave": 5698,
      "Meta": 5699,
      "estamp": 5700,
      "Ġlocated": 5701,
      "Ġslow": 5702,
      "ĠPhil": 5703,
      "Net": 5704,
      "Ġcosts": 5705,
      "ataset": 5706,
      "join": 5707,
      "Ġfair": 5708,
      "Ġrepe": 5709,
      "Ġvolume": 5710,
      "ĠLO": 5711,
      "255": 5712,
      "Device": 5713,
      "ki": 5714,
      "pdf": 5715,
      "Ġscript": 5716,
      "izont": 5717,
      "byte": 5718,
      "Ġcollabor": 5719,
      "{}": 5720,
      "ĠNO": 5721,
      "GET": 5722,
      "Parser": 5723,
      "rees": 5724,
      "ĠBG": 5725,
      "dule": 5726,
      "spect": 5727,
      "iable": 5728,
      "raction": 5729,
      "cat": 5730,
      "Vert": 5731,
      "docs": 5732,
      "Ġproof": 5733,
      "Ġstrategy": 5734,
      "ĠCr": 5735,
      "Invalid": 5736,
      "handle": 5737,
      "Ġlinks": 5738,
      "Mark": 5739,
      "iny": 5740,
      "icine": 5741,
      "PH": 5742,
      "oma": 5743,
      "}}$": 5744,
      "vector": 5745,
      "range": 5746,
      "Ġtherefore": 5747,
      "Ġessential": 5748,
      "Ġfather": 5749,
      "Ġparents": 5750,
      "ĠUk": 5751,
      "Ġcapital": 5752,
      "ancing": 5753,
      "click": 5754,
      "iller": 5755,
      "ena": 5756,
      "ounce": 5757,
      "ãĤ": 5758,
      "Ġmus": 5759,
      "enses": 5760,
      "ĠNor": 5761,
      "Ġhands": 5762,
      "Argument": 5763,
      "Tool": 5764,
      "weight": 5765,
      "operator": 5766,
      "Ġdelete": 5767,
      "Ġdegree": 5768,
      "Ġclick": 5769,
      "equals": 5770,
      "Ġerrors": 5771,
      "Ġmiddle": 5772,
      "ĠSection": 5773,
      "Vector": 5774,
      "ĠPlan": 5775,
      "---": 5776,
      "================================": 5777,
      "Ġhash": 5778,
      "Ġtrust": 5779,
      "Long": 5780,
      "=\"../../../../../../": 5781,
      "interface": 5782,
      "vm": 5783,
      "Ġdomain": 5784,
      "ĠPress": 5785,
      "Ġwide": 5786,
      "Ġstrateg": 5787,
      "oday": 5788,
      "sych": 5789,
      "ein": 5790,
      "ĠMac": 5791,
      "Ġdiscover": 5792,
      "Doc": 5793,
      "ĠAfrica": 5794,
      "Ġdefinition": 5795,
      "2004": 5796,
      "Ġreplace": 5797,
      "ĠJe": 5798,
      "ugins": 5799,
      "inn": 5800,
      "Ag": 5801,
      "ĠAustralia": 5802,
      "urrency": 5803,
      "ona": 5804,
      "ixture": 5805,
      "direct": 5806,
      "ĠLife": 5807,
      "ao": 5808,
      "Ġrates": 5809,
      "Ġsignal": 5810,
      "Parent": 5811,
      "Ġremember": 5812,
      "Ġchoose": 5813,
      "Ġlaunch": 5814,
      "Que": 5815,
      "icks": 5816,
      "Title": 5817,
      "PT": 5818,
      "background": 5819,
      "transform": 5820,
      "Policy": 5821,
      "Bytes": 5822,
      "Sl": 5823,
      "Ġbottom": 5824,
      "Ġnation": 5825,
      "Ġspecies": 5826,
      "ĠRich": 5827,
      "ĠRober": 5828,
      "env": 5829,
      "ĠKey": 5830,
      "Ġcli": 5831,
      "ĠCap": 5832,
      "address": 5833,
      "Assert": 5834,
      "dot": 5835,
      "Ġcouple": 5836,
      "Ġclasses": 5837,
      "media": 5838,
      "Xml": 5839,
      "Ġpackage": 5840,
      "Ġproced": 5841,
      "ĠWed": 5842,
      "inese": 5843,
      "ĠCam": 5844,
      "coin": 5845,
      "rum": 5846,
      "Dom": 5847,
      "Ġmount": 5848,
      "Ġapplied": 5849,
      "Ġnearly": 5850,
      "Ġple": 5851,
      "Ġlo": 5852,
      "Ġroll": 5853,
      "Ġcreating": 5854,
      "Ġhighly": 5855,
      "ategories": 5856,
      "replace": 5857,
      "Rect": 5858,
      "cket": 5859,
      "Ġpush": 5860,
      "Ġtools": 5861,
      "Ġimplementation": 5862,
      "Non": 5863,
      "models": 5864,
      "Ġstorage": 5865,
      "jection": 5866,
      "omas": 5867,
      "GB": 5868,
      "Ver": 5869,
      "ĠMichael": 5870,
      "ĠTop": 5871,
      "Schema": 5872,
      "Ġpresident": 5873,
      "osis": 5874,
      "Ġdrive": 5875,
      "Ġturned": 5876,
      "langle": 5877,
      "Ġimag": 5878,
      "mbox": 5879,
      "Ġheader": 5880,
      "porary": 5881,
      "FL": 5882,
      "Ġeyes": 5883,
      "Has": 5884,
      "ĠTable": 5885,
      "ĠEconom": 5886,
      "Ġer": 5887,
      "inger": 5888,
      "Ġcoordin": 5889,
      "ĠBritish": 5890,
      "del": 5891,
      "Ġord": 5892,
      "ened": 5893,
      "Ġinform": 5894,
      "connect": 5895,
      "Err": 5896,
      "Ġcounter": 5897,
      "Ġwild": 5898,
      "Ġreserv": 5899,
      "Ġfactors": 5900,
      "fn": 5901,
      "han": 5902,
      "ldots": 5903,
      "atically": 5904,
      "Ġlargest": 5905,
      ">();": 5906,
      "Ġperformed": 5907,
      "za": 5908,
      "etic": 5909,
      "73": 5910,
      "Ġfelt": 5911,
      "Ġbrought": 5912,
      "aughter": 5913,
      "ĠSaturday": 5914,
      "hor": 5915,
      "Stack": 5916,
      "Ġorganization": 5917,
      "Ġdirector": 5918,
      "while": 5919,
      "Ġshowed": 5920,
      "Ġremains": 5921,
      "ifies": 5922,
      "Ġblood": 5923,
      "ursday": 5924,
      "ĠOper": 5925,
      "Ġded": 5926,
      "inct": 5927,
      "ĠMus": 5928,
      "Ġfollowed": 5929,
      "ĠassertEquals": 5930,
      "hover": 5931,
      "74": 5932,
      "izontal": 5933,
      "ĠMedia": 5934,
      "85": 5935,
      "Ġworkers": 5936,
      "otimes": 5937,
      "ĠBel": 5938,
      "Reader": 5939,
      "ĠSur": 5940,
      "Ġeasily": 5941,
      "Metadata": 5942,
      "Ġproviding": 5943,
      "urance": 5944,
      "textit": 5945,
      "esh": 5946,
      "(-": 5947,
      "SET": 5948,
      "Click": 5949,
      "Args": 5950,
      "virt": 5951,
      "iled": 5952,
      "nesday": 5953,
      "ĠTexas": 5954,
      "ln": 5955,
      "ĠRob": 5956,
      "ano": 5957,
      "Right": 5958,
      "Ġpressure": 5959,
      "Var": 5960,
      "`.": 5961,
      "fit": 5962,
      "ampions": 5963,
      "Ġparticularly": 5964,
      "ĠPlay": 5965,
      "Ġsal": 5966,
      "63": 5967,
      "export": 5968,
      "Values": 5969,
      "ults": 5970,
      "Ġbeginning": 5971,
      "ĠSum": 5972,
      "iance": 5973,
      "ĠIP": 5974,
      "nap": 5975,
      "Ġoverall": 5976,
      "appa": 5977,
      "ipe": 5978,
      "Ġreduce": 5979,
      "Ġla": 5980,
      "Ġdecre": 5981,
      "ĠSunday": 5982,
      "ses": 5983,
      "widget": 5984,
      "aved": 5985,
      "Ġanswer": 5986,
      "ĠCong": 5987,
      "Ġanti": 5988,
      "ĠUSA": 5989,
      "Ġprefer": 5990,
      "ĉĉĊ": 5991,
      "Ġutil": 5992,
      "ĠEngland": 5993,
      "Ġchance": 5994,
      "boolean": 5995,
      "EC": 5996,
      "\\\"": 5997,
      "Ġbasic": 5998,
      "utf": 5999,
      "Member": 6000,
      "Ġproduced": 6001,
      "iden": 6002,
      "istrict": 6003,
      "Phi": 6004,
      "Ġdetermine": 6005,
      "ITY": 6006,
      "disabled": 6007,
      "graph": 6008,
      "ĠBi": 6009,
      "\\%": 6010,
      "Ġexactly": 6011,
      "ĠVer": 6012,
      "Ġyield": 6013,
      "Ġelem": 6014,
      "Ġecho": 6015,
      "exports": 6016,
      "ĠGold": 6017,
      "ĠJer": 6018,
      "Ġencou": 6019,
      "pers": 6020,
      "Red": 6021,
      "rier": 6022,
      "ĠDemocr": 6023,
      "Writer": 6024,
      "Ġbecomes": 6025,
      "Ġphone": 6026,
      "While": 6027,
      "illa": 6028,
      "callback": 6029,
      "apse": 6030,
      "ĠMonday": 6031,
      "stylesheet": 6032,
      "Ġschools": 6033,
      "Ġunsigned": 6034,
      "icated": 6035,
      "Ġunc": 6036,
      "sive": 6037,
      "Decl": 6038,
      "arant": 6039,
      "icies": 6040,
      "ipal": 6041,
      "ĠView": 6042,
      "rict": 6043,
      "Ġshoot": 6044,
      "admin": 6045,
      "netic": 6046,
      "mical": 6047,
      "Ġcompos": 6048,
      "ÃŃ": 6049,
      "Ġpresence": 6050,
      "itiz": 6051,
      "ighest": 6052,
      "ATH": 6053,
      "Ġpreviously": 6054,
      "iger": 6055,
      "ĠJul": 6056,
      "Ġcompletely": 6057,
      "romise": 6058,
      "Ġtransaction": 6059,
      "greg": 6060,
      "Ġequival": 6061,
      "Render": 6062,
      "Ġnodes": 6063,
      "ĠAssociation": 6064,
      "asy": 6065,
      "Ġconstruction": 6066,
      "clusive": 6067,
      "ĠEducation": 6068,
      "Ġmilitary": 6069,
      "ĠDirector": 6070,
      "LS": 6071,
      "Ðº": 6072,
      "Runtime": 6073,
      "Ġcomments": 6074,
      "Ġquarter": 6075,
      "onic": 6076,
      "pub": 6077,
      "Ġtrade": 6078,
      "Ġbutton": 6079,
      "ĠHall": 6080,
      "ĠFoundation": 6081,
      "asure": 6082,
      "Ġactions": 6083,
      "note": 6084,
      "raine": 6085,
      "Application": 6086,
      "ĠTuesday": 6087,
      "Ġwrote": 6088,
      "ĠCopy": 6089,
      "enty": 6090,
      "})$": 6091,
      "Ã³": 6092,
      "Ġalgorithm": 6093,
      "Ġbyte": 6094,
      "Ġfamilies": 6095,
      "loyment": 6096,
      "Ġpark": 6097,
      "ĠValue": 6098,
      "udget": 6099,
      "ĠĠĠĠĠĠĠĠĠĠĠĠĠĠĠĠĠĠ": 6100,
      "Ġpurpose": 6101,
      "ĠMarket": 6102,
      ">.": 6103,
      "riend": 6104,
      "Ġrestrict": 6105,
      "Ġimmediately": 6106,
      "house": 6107,
      "ĠModel": 6108,
      "aws": 6109,
      "high": 6110,
      "ponents": 6111,
      "Ġenh": 6112,
      "settings": 6113,
      "Ġsales": 6114,
      "ĠAv": 6115,
      "Root": 6116,
      "look": 6117,
      "system": 6118,
      "Ġspread": 6119,
      "Ġblue": 6120,
      "Ġinvolv": 6121,
      "ĠMath": 6122,
      "anned": 6123,
      "Ġbeautiful": 6124,
      "Ġscene": 6125,
      "Ġ(\"": 6126,
      "estival": 6127,
      "edge": 6128,
      "inate": 6129,
      "otes": 6130,
      "Num": 6131,
      "Found": 6132,
      "Ġindividuals": 6133,
      "Cal": 6134,
      "Ġtraditional": 6135,
      "plugin": 6136,
      "Di": 6137,
      "={": 6138,
      "Ġdevices": 6139,
      "ĠId": 6140,
      "ĠOffice": 6141,
      "resents": 6142,
      "hr": 6143,
      "Ġuseful": 6144,
      "igration": 6145,
      "ipeline": 6146,
      "Ġlayer": 6147,
      "ĠURL": 6148,
      "Ġstock": 6149,
      "Ġgiving": 6150,
      "well": 6151,
      "Ġrank": 6152,
      "iate": 6153,
      "apy": 6154,
      "Ġscore": 6155,
      "modal": 6156,
      "uple": 6157,
      "profile": 6158,
      "Ġnegative": 6159,
      "&#": 6160,
      "Ġemployees": 6161,
      "unch": 6162,
      "Debug": 6163,
      "ĠManagement": 6164,
      "Ġconvert": 6165,
      "ĠProf": 6166,
      "cf": 6167,
      "sql": 6168,
      "ĠĠĠĠĠĠĠĠĠĠĠĠĠĠĠĠĠĠĠĠĠĠĠĠĠĠĠĠĠĠĠĠĠĠĠĠĠĠĠ": 6169,
      "Ġnor": 6170,
      "Ġvoice": 6171,
      "Ġflag": 6172,
      "ĠLong": 6173,
      "ĠSam": 6174,
      "Ġdescribe": 6175,
      "____": 6176,
      "Eng": 6177,
      "ĠCompany": 6178,
      "rule": 6179,
      "istribut": 6180,
      "shot": 6181,
      "Cre": 6182,
      "WE": 6183,
      "ĠIO": 6184,
      "ether": 6185,
      "ĠStar": 6186,
      "even": 6187,
      "ipp": 6188,
      "ĠPolicy": 6189,
      "Ġcharge": 6190,
      "Ġnovel": 6191,
      "Ġdou": 6192,
      "IA": 6193,
      "osh": 6194,
      "ĠGlobal": 6195,
      "ĠAngel": 6196,
      "Enabled": 6197,
      "Ġjoin": 6198,
      "ĠBGCOLOR": 6199,
      "Ġextension": 6200,
      "real": 6201,
      "Ġelectric": 6202,
      "Ġbytes": 6203,
      "Ġhous": 6204,
      "Ġ})": 6205,
      "ivery": 6206,
      "Ġrecords": 6207,
      "89": 6208,
      "Ġexhib": 6209,
      "Ġinline": 6210,
      "Ġwriter": 6211,
      "sey": 6212,
      "gin": 6213,
      "ĠMethod": 6214,
      "itors": 6215,
      "Ġcloud": 6216,
      "Ġsen": 6217,
      "Ġ++": 6218,
      "2001": 6219,
      "icons": 6220,
      "Ġther": 6221,
      "ORM": 6222,
      "essor": 6223,
      "buf": 6224,
      "They": 6225,
      "ĠMer": 6226,
      "Ġicon": 6227,
      "Ġbus": 6228,
      "Only": 6229,
      "bb": 6230,
      "Ġsummer": 6231,
      "ira": 6232,
      "Ġhear": 6233,
      "MC": 6234,
      "subset": 6235,
      "ĠNetwork": 6236,
      "Ġfilename": 6237,
      "atalog": 6238,
      "Ġearn": 6239,
      "Api": 6240,
      "Ġheard": 6241,
      "Ġgrowing": 6242,
      "62": 6243,
      "ĠVis": 6244,
      "Ġunderstanding": 6245,
      "Ġchain": 6246,
      "Ġupdated": 6247,
      "ĠJSON": 6248,
      "Ġshift": 6249,
      "ĠEN": 6250,
      "Ġprofessional": 6251,
      "Job": 6252,
      "ĠMusic": 6253,
      "Ġalt": 6254,
      "Ġjav": 6255,
      "ĠFore": 6256,
      "Pub": 6257,
      "Ġeditor": 6258,
      "rames": 6259,
      "----------------------------------------------------------------": 6260,
      "custom": 6261,
      "Security": 6262,
      "otic": 6263,
      "ä¸": 6264,
      "ixel": 6265,
      "component": 6266,
      "ĠDev": 6267,
      "ĠCons": 6268,
      "fields": 6269,
      "Ġshot": 6270,
      "Ġclub": 6271,
      "ĠMost": 6272,
      "Ġadapt": 6273,
      "ĠExt": 6274,
      "Ġstack": 6275,
      "Mock": 6276,
      "Definition": 6277,
      "See": 6278,
      "star": 6279,
      "fact": 6280,
      "Ġgenerate": 6281,
      "SSERT": 6282,
      "IE": 6283,
      "Ġrepresentation": 6284,
      "undred": 6285,
      "71": 6286,
      "rast": 6287,
      "Ġvariables": 6288,
      "ĠBay": 6289,
      "success": 6290,
      "Ġbur": 6291,
      "etimes": 6292,
      "Ġmsg": 6293,
      "Byte": 6294,
      "ĠReport": 6295,
      "Ġmanager": 6296,
      "ĠInformation": 6297,
      "Ġhospital": 6298,
      "Ġmoving": 6299,
      "Boolean": 6300,
      "Ġfirm": 6301,
      "Ġpod": 6302,
      "ĠUser": 6303,
      "Each": 6304,
      "Ġkids": 6305,
      "ĠTom": 6306,
      "di": 6307,
      "Ġprofile": 6308,
      "Ġrelation": 6309,
      "bert": 6310,
      "Ġ('": 6311,
      "osing": 6312,
      "ernel": 6313,
      "nabla": 6314,
      "ĠEvent": 6315,
      "ynchron": 6316,
      "Rule": 6317,
      "Ġalthough": 6318,
      "Ġpages": 6319,
      "Tra": 6320,
      "help": 6321,
      "Ġlibrary": 6322,
      "Storage": 6323,
      "Ġreflect": 6324,
      "Ġproduce": 6325,
      "FC": 6326,
      "ĠUN": 6327,
      "Ġstars": 6328,
      "ested": 6329,
      "Custom": 6330,
      "nonumber": 6331,
      "coll": 6332,
      "Ġthr": 6333,
      "Ġdistributed": 6334,
      "Any": 6335,
      "Pe": 6336,
      "Rout": 6337,
      "Ġpen": 6338,
      "Delete": 6339,
      "ĠCA": 6340,
      "Ġknew": 6341,
      "hs": 6342,
      "ACE": 6343,
      "ĠAlex": 6344,
      "ĠChild": 6345,
      "Ġconnected": 6346,
      "reme": 6347,
      "Ġpatient": 6348,
      "Ġwants": 6349,
      "bootstrap": 6350,
      "bal": 6351,
      "phone": 6352,
      "Ġpoll": 6353,
      "ĠRussia": 6354,
      "eds": 6355,
      "Ġsteps": 6356,
      "Support": 6357,
      "email": 6358,
      "AGE": 6359,
      "Sigma": 6360,
      "$(": 6361,
      "Ġsecret": 6362,
      "aser": 6363,
      "\\!": 6364,
      "Ġcommunities": 6365,
      "ĠBoard": 6366,
      "Ġvariety": 6367,
      "Track": 6368,
      "Ġdownload": 6369,
      "Ġgrant": 6370,
      "Ġlooked": 6371,
      "DS": 6372,
      "ensuremath": 6373,
      "Ġos": 6374,
      "Ġnuc": 6375,
      "ĠError": 6376,
      "kg": 6377,
      "Ġeight": 6378,
      "Ġmask": 6379,
      "ĠAlso": 6380,
      "Ġhuge": 6381,
      "ker": 6382,
      "Descriptor": 6383,
      "security": 6384,
      "Ġmaterials": 6385,
      "irmed": 6386,
      "ĠMicrosoft": 6387,
      "\\|": 6388,
      "2003": 6389,
      "ertificate": 6390,
      "Te": 6391,
      "ĠFrench": 6392,
      "register": 6393,
      "ĠSun": 6394,
      ";\\": 6395,
      "Ġdog": 6396,
      "Ġfigure": 6397,
      "61": 6398,
      "ĠAmazon": 6399,
      "double": 6400,
      "ĠRoad": 6401,
      "ĠIsrael": 6402,
      "Ġcontaining": 6403,
      "ĠBank": 6404,
      "nce": 6405,
      "Ġrelevant": 6406,
      "ĠCommit": 6407,
      "ĠUnder": 6408,
      "ĠAp": 6409,
      "Ġpanel": 6410,
      "Ġcluster": 6411,
      "Here": 6412,
      "ander": 6413,
      "oration": 6414,
      "road": 6415,
      "âĢĿ,": 6416,
      "Ġjour": 6417,
      "FAULT": 6418,
      "`,": 6419,
      "Scope": 6420,
      "Ġprem": 6421,
      "Ġinvoke": 6422,
      "Ġminimum": 6423,
      "scription": 6424,
      "super": 6425,
      "ĠTH": 6426,
      "Ġdirectory": 6427,
      "ĠHead": 6428,
      "Ġseven": 6429,
      "rolled": 6430,
      "'d": 6431,
      "Ġremoved": 6432,
      "Ġpiece": 6433,
      "bi": 6434,
      "Ġmorning": 6435,
      "/\\": 6436,
      "Ġ(*": 6437,
      "Ġwel": 6438,
      "Ġsmaller": 6439,
      "lam": 6440,
      "olf": 6441,
      "ĠAR": 6442,
      "Ġcapacity": 6443,
      "panel": 6444,
      "Ġcref": 6445,
      "store": 6446,
      "venue": 6447,
      "Ġplaces": 6448,
      "Ñĥ": 6449,
      "holder": 6450,
      "missions": 6451,
      "ĠDevelopment": 6452,
      "eries": 6453,
      "full": 6454,
      "iling": 6455,
      "Ġblog": 6456,
      "elegate": 6457,
      "Ġappropriate": 6458,
      "ĠArg": 6459,
      "oted": 6460,
      "Ġult": 6461,
      "ĠTre": 6462,
      "__(": 6463,
      "going": 6464,
      "ĠâĢ¢": 6465,
      "Ġhop": 6466,
      "ĠWeek": 6467,
      "Ġnotice": 6468,
      "Ġefforts": 6469,
      "duction": 6470,
      "bing": 6471,
      "thm": 6472,
      "Ġstation": 6473,
      "ansion": 6474,
      "Network": 6475,
      "orida": 6476,
      "Fields": 6477,
      "framework": 6478,
      "Ġmill": 6479,
      "ĠHistory": 6480,
      "Ġdecided": 6481,
      "ĠChinese": 6482,
      "Ġthous": 6483,
      "pay": 6484,
      "elli": 6485,
      "HECK": 6486,
      "Ġ<=": 6487,
      "Ġaspect": 6488,
      "ĠPub": 6489,
      "ĠHome": 6490,
      "Ġalone": 6491,
      "virtual": 6492,
      "Ġleader": 6493,
      "Ġforms": 6494,
      "ĠEvery": 6495,
      "Ġtrend": 6496,
      "'.": 6497,
      "Ġelection": 6498,
      "cloud": 6499,
      "ĠMA": 6500,
      "Ġdetermined": 6501,
      "nergy": 6502,
      "Ġgeneration": 6503,
      "scal": 6504,
      "ĠCode": 6505,
      "Ġsustain": 6506,
      "iment": 6507,
      "items": 6508,
      "###": 6509,
      "Ġtrain": 6510,
      "ipment": 6511,
      "Ġmoved": 6512,
      "ader": 6513,
      "Ġcarry": 6514,
      "attribute": 6515,
      "Ġjournal": 6516,
      "Ġ'/": 6517,
      "Ġbusinesses": 6518,
      "Ġcorre": 6519,
      "kappa": 6520,
      "]]": 6521,
      "Ġmachine": 6522,
      "ĠGood": 6523,
      "ani": 6524,
      "Ġprim": 6525,
      "unsigned": 6526,
      "Ġdrop": 6527,
      "olec": 6528,
      "Ġspent": 6529,
      "ugg": 6530,
      "Ġequation": 6531,
      "Ġestablished": 6532,
      "site": 6533,
      "ette": 6534,
      "Ġcool": 6535,
      "Ġrequirements": 6536,
      "Ġsmart": 6537,
      "->_": 6538,
      "Car": 6539,
      "ĠWednesday": 6540,
      "Ġcancer": 6541,
      "ĠRad": 6542,
      "ĠEngine": 6543,
      "'))": 6544,
      "raints": 6545,
      "Ġarchitect": 6546,
      "87": 6547,
      "Ġstrict": 6548,
      "mid": 6549,
      "DIR": 6550,
      "ullet": 6551,
      "DL": 6552,
      "words": 6553,
      "MB": 6554,
      "aling": 6555,
      "step": 6556,
      "Ġtal": 6557,
      "Ġbenefits": 6558,
      "reshold": 6559,
      "ignment": 6560,
      "Ġstraight": 6561,
      "Ġmovement": 6562,
      "Ġsometimes": 6563,
      "ĠThursday": 6564,
      "oyal": 6565,
      "ĠApple": 6566,
      "Ġweak": 6567,
      "Author": 6568,
      "Ġvisual": 6569,
      "osen": 6570,
      "tn": 6571,
      "mock": 6572,
      "Ġcru": 6573,
      "ĠTim": 6574,
      "Ġloop": 6575,
      "Ġfailure": 6576,
      "keys": 6577,
      "Ġaware": 6578,
      "Ġcomputer": 6579,
      "Ġdriver": 6580,
      "Ġprocesses": 6581,
      "SION": 6582,
      "ECT": 6583,
      "pute": 6584,
      "Ġfix": 6585,
      "Ġrelig": 6586,
      "ky": 6587,
      "SU": 6588,
      "padding": 6589,
      "ĠSal": 6590,
      "Ġgun": 6591,
      "Ġfederal": 6592,
      "ĠGen": 6593,
      "Art": 6594,
      "Ġsites": 6595,
      "ĠCare": 6596,
      "ĠSmith": 6597,
      "dots": 6598,
      "Ġstrength": 6599,
      "ashion": 6600,
      "Ġoil": 6601,
      "Ġhighest": 6602,
      "Ġorigin": 6603,
      "Ġadvant": 6604,
      "protobuf": 6605,
      "application": 6606,
      "Ġbill": 6607,
      "Ġchallenges": 6608,
      "Ġinvestment": 6609,
      "enter": 6610,
      "Ġassume": 6611,
      "Ġinterpre": 6612,
      "ĠMiss": 6613,
      "Ġappears": 6614,
      "Ġdaily": 6615,
      "ĠFranc": 6616,
      "anging": 6617,
      "ĠField": 6618,
      "language": 6619,
      "Ġcommercial": 6620,
      "ĠSocial": 6621,
      "Ġaim": 6622,
      "Ġdu": 6623,
      "porate": 6624,
      "writ": 6625,
      "Ġtab": 6626,
      "ett": 6627,
      "Ġidentity": 6628,
      "iency": 6629,
      "ĠCommission": 6630,
      "Ġupper": 6631,
      "ĠMo": 6632,
      "Ġeth": 6633,
      "aby": 6634,
      "Draw": 6635,
      "bes": 6636,
      "Ġjson": 6637,
      "}\"": 6638,
      "ests": 6639,
      "oves": 6640,
      "ĠDistrict": 6641,
      "Ġslight": 6642,
      "ĠQue": 6643,
      "Ġwat": 6644,
      "Ġgold": 6645,
      "inally": 6646,
      "97": 6647,
      "Timeout": 6648,
      "Ġenable": 6649,
      "annels": 6650,
      "Ġmobile": 6651,
      "Ġpartner": 6652,
      "ĠTechnology": 6653,
      "Ġconvers": 6654,
      "Ġcontinued": 6655,
      "Ġkeys": 6656,
      "AME": 6657,
      "Ġcoupl": 6658,
      "Ġruns": 6659,
      "Ġunless": 6660,
      "auto": 6661,
      "Ġpoor": 6662,
      "Ġhar": 6663,
      "ĠSte": 6664,
      "Ġsignificantly": 6665,
      "white": 6666,
      "Ġspeak": 6667,
      "anda": 6668,
      "Ġowner": 6669,
      "Classes": 6670,
      "impl": 6671,
      "Ġ\"/": 6672,
      "Ġcentury": 6673,
      "Ġfine": 6674,
      "Ġdream": 6675,
      "NN": 6676,
      "ĠHTML": 6677,
      "_->": 6678,
      "Pattern": 6679,
      "Ġdimension": 6680,
      "Ġspin": 6681,
      "Ġserial": 6682,
      "ĠEven": 6683,
      "ĠMax": 6684,
      "ĠCEO": 6685,
      "dependency": 6686,
      "Ġcompleted": 6687,
      "enum": 6688,
      "Don": 6689,
      "Ã¼": 6690,
      "ĠConst": 6691,
      "ĠShow": 6692,
      "Ġguid": 6693,
      "rage": 6694,
      "icip": 6695,
      "agon": 6696,
      "istant": 6697,
      "Ġsell": 6698,
      "Ġwind": 6699,
      "-->": 6700,
      "Ġhandler": 6701,
      "ocity": 6702,
      "Ġbirth": 6703,
      "Ġidentified": 6704,
      "olver": 6705,
      "ĠPo": 6706,
      "Ġrecommend": 6707,
      "Ġdim": 6708,
      "here": 6709,
      "Am": 6710,
      "Send": 6711,
      "Ġopportunities": 6712,
      "Ġnative": 6713,
      "ĠVol": 6714,
      "Ġpartial": 6715,
      "Ġspirit": 6716,
      "Ġidentify": 6717,
      "Ġmeasures": 6718,
      "Ġpan": 6719,
      "Ġholds": 6720,
      "Ġframework": 6721,
      "ĠPeople": 6722,
      "ĠTimes": 6723,
      "Ret": 6724,
      "insert": 6725,
      "ester": 6726,
      "Ġmonitor": 6727,
      "Ġhyp": 6728,
      "Icon": 6729,
      "Ġahead": 6730,
      "shape": 6731,
      "reedom": 6732,
      "ĠCup": 6733,
      "udd": 6734,
      "Ġtypename": 6735,
      "PRE": 6736,
      "Ġvill": 6737,
      "uit": 6738,
      "ups": 6739,
      "Ġmaster": 6740,
      "grid": 6741,
      "wid": 6742,
      "Ġskills": 6743,
      "riteria": 6744,
      "Ġconcent": 6745,
      "lines": 6746,
      "hadoop": 6747,
      "Ġintroduced": 6748,
      "Since": 6749,
      "lies": 6750,
      "Ġsun": 6751,
      "Ġadjust": 6752,
      "allel": 6753,
      "Ġinstanceof": 6754,
      "Ġ&=": 6755,
      "poses": 6756,
      "Ġopening": 6757,
      "initial": 6758,
      "entity": 6759,
      "ĠVir": 6760,
      "Ġsector": 6761,
      "HTML": 6762,
      "Ġ),": 6763,
      "ifications": 6764,
      "pool": 6765,
      "ĠRussian": 6766,
      "ancer": 6767,
      "las": 6768,
      "comment": 6769,
      "ĠRiver": 6770,
      "west": 6771,
      "ĠTO": 6772,
      "plex": 6773,
      "Ġiniti": 6774,
      "Ġmock": 6775,
      "ĠText": 6776,
      "ĠStart": 6777,
      "cles": 6778,
      "Ġunits": 6779,
      "risis": 6780,
      "Ġhappened": 6781,
      "Ġlicense": 6782,
      "ional": 6783,
      "84": 6784,
      "ĠBack": 6785,
      "DT": 6786,
      "Ġwife": 6787,
      "istent": 6788,
      "Ġpublish": 6789,
      "ĠDefault": 6790,
      "Why": 6791,
      "_(": 6792,
      "crete": 6793,
      "pective": 6794,
      "apers": 6795,
      "iders": 6796,
      "Ġsociety": 6797,
      "_,": 6798,
      "Ġcategory": 6799,
      "Ġamb": 6800,
      "outhern": 6801,
      "ĠLou": 6802,
      "grade": 6803,
      "Ġpool": 6804,
      "ĠCarol": 6805,
      "Ġmissing": 6806,
      "Ġchallenge": 6807,
      "Windows": 6808,
      "Queue": 6809,
      "ĠJew": 6810,
      "ĠEnt": 6811,
      "Ĥ¬": 6812,
      "Ġlang": 6813,
      "{-": 6814,
      "Ġsupply": 6815,
      "ĠCamp": 6816,
      "ĠGovernment": 6817,
      "FILE": 6818,
      "ectors": 6819,
      "aration": 6820,
      "Ġmix": 6821,
      "ĠLeague": 6822,
      "Ġmessages": 6823,
      "Ġpaid": 6824,
      "faces": 6825,
      "Ġexplicit": 6826,
      "nam": 6827,
      "oes": 6828,
      "appro": 6829,
      "footer": 6830,
      "BUG": 6831,
      "IX": 6832,
      "Ġfarm": 6833,
      "ĠPower": 6834,
      "91": 6835,
      "Ġdig": 6836,
      "Extension": 6837,
      "BS": 6838,
      "Obj": 6839,
      "LP": 6840,
      "Cor": 6841,
      "ĠMary": 6842,
      "82": 6843,
      "ARY": 6844,
      "\",\"": 6845,
      "Ġagreement": 6846,
      "ĠRobert": 6847,
      "ocation": 6848,
      "Before": 6849,
      "ooks": 6850,
      "Ġtruth": 6851,
      "\")]": 6852,
      "Ġclinical": 6853,
      "dict": 6854,
      "ODO": 6855,
      ";<": 6856,
      "Ġharm": 6857,
      "Ġradio": 6858,
      "edy": 6859,
      "ĠBase": 6860,
      "Ġcredit": 6861,
      "Ġprotocol": 6862,
      "Google": 6863,
      "ĠGame": 6864,
      "Tests": 6865,
      "inline": 6866,
      "Ġowners": 6867,
      "*)": 6868,
      "ĠFunction": 6869,
      "nel": 6870,
      "Ġcop": 6871,
      "&&": 6872,
      "ĠChurch": 6873,
      "ROM": 6874,
      "rey": 6875,
      "NG": 6876,
      "=\"../../../": 6877,
      "ĠHand": 6878,
      "Ġspot": 6879,
      "Ġhundred": 6880,
      "Ġut": 6881,
      "nections": 6882,
      "aching": 6883,
      "Ġprep": 6884,
      "Ġdistrict": 6885,
      "Ġestablish": 6886,
      "Editor": 6887,
      "ĠLead": 6888,
      "These": 6889,
      "Ġdetail": 6890,
      "ĠSociety": 6891,
      "Ġletter": 6892,
      "Lock": 6893,
      "ĠAM": 6894,
      "Display": 6895,
      "cut": 6896,
      "ĠUs": 6897,
      "}-": 6898,
      "ĠInitial": 6899,
      "assertEquals": 6900,
      "centering": 6901,
      "cover": 6902,
      "herit": 6903,
      "ĠLink": 6904,
      "ursor": 6905,
      "ðŁ": 6906,
      "Ġconserv": 6907,
      "Dialog": 6908,
      "ĠThus": 6909,
      "Ġpowerful": 6910,
      "stat": 6911,
      "ĠĠĠĠĠĠĠĠĠĠĠĠĠĠĠĠĠĠĠĠĠĠĠĠĠ": 6912,
      "LOG": 6913,
      "Ġrepresents": 6914,
      "MENT": 6915,
      "Ġsplit": 6916,
      "2002": 6917,
      "KEY": 6918,
      "Ġwave": 6919,
      "ĠNet": 6920,
      "ĠMad": 6921,
      "Ġcontinues": 6922,
      "NotNull": 6923,
      "ĠAny": 6924,
      "150": 6925,
      "equiv": 6926,
      "ĠDiv": 6927,
      "ĠFree": 6928,
      "Ġgrand": 6929,
      "Ġattributes": 6930,
      "CI": 6931,
      "Ġconver": 6932,
      "Tags": 6933,
      "Initial": 6934,
      "assertEqual": 6935,
      "Ġ{};": 6936,
      "othing": 6937,
      "Ġforeign": 6938,
      "ĠEarth": 6939,
      "ĠSecurity": 6940,
      "Active": 6941,
      "Ġobvious": 6942,
      "atin": 6943,
      "Ġmission": 6944,
      "Ġcaused": 6945,
      "Feature": 6946,
      "Ġconsole": 6947,
      "Symbol": 6948,
      "Ġdespite": 6949,
      "ĠHill": 6950,
      "hentication": 6951,
      "ucket": 6952,
      "azz": 6953,
      "~~~~": 6954,
      "PP": 6955,
      "addr": 6956,
      "Tab": 6957,
      "plements": 6958,
      "scape": 6959,
      "Ġdied": 6960,
      "uated": 6961,
      "eal": 6962,
      "ĠUpdate": 6963,
      "ĠFigure": 6964,
      "iminal": 6965,
      "Ġfootball": 6966,
      "Ġclaims": 6967,
      "Ġeconomy": 6968,
      "Fig": 6969,
      "Widget": 6970,
      "ĠGeorge": 6971,
      "Media": 6972,
      "Sm": 6973,
      "Ġdoor": 6974,
      "azine": 6975,
      "Ġexternal": 6976,
      "ĠHy": 6977,
      "Ġextrem": 6978,
      "Changed": 6979,
      "Ġexpert": 6980,
      "Ġfear": 6981,
      "Channel": 6982,
      "Ġsports": 6983,
      "ĠCommunity": 6984,
      "oving": 6985,
      "ĠSO": 6986,
      "itar": 6987,
      "points": 6988,
      "Ġsamples": 6989,
      "Ġhour": 6990,
      "Ġvote": 6991,
      "rb": 6992,
      "Ġincor": 6993,
      "ĠMa": 6994,
      "Ġillust": 6995,
      "person": 6996,
      "sect": 6997,
      "Ġviews": 6998,
      "Init": 6999,
      "rot": 7000,
      "Ġmur": 7001,
      "ĠTor": 7002,
      "region": 7003,
      "Ġresponsible": 7004,
      "Ġextract": 7005,
      "ĠColor": 7006,
      "gency": 7007,
      "Ġthinking": 7008,
      "inion": 7009,
      "Ġvel": 7010,
      "Ġsett": 7011,
      "StyleID": 7012,
      "prime": 7013,
      "Ġvan": 7014,
      "ci": 7015,
      "RAN": 7016,
      "Rest": 7017,
      "Ġmaybe": 7018,
      "ĠTour": 7019,
      "Ġgalax": 7020,
      "ĠProv": 7021,
      "Note": 7022,
      "Ġhappy": 7023,
      "Ġadvert": 7024,
      "names": 7025,
      "Sum": 7026,
      "âĢ¢": 7027,
      "Ġcivil": 7028,
      "ĠRock": 7029,
      "Internal": 7030,
      "Ġreasons": 7031,
      "Ġexcell": 7032,
      "category": 7033,
      "standing": 7034,
      "thread": 7035,
      "hol": 7036,
      "Ac": 7037,
      "ĠRet": 7038,
      "toggle": 7039,
      "\\[": 7040,
      "Ġratio": 7041,
      "racy": 7042,
      "ĠBO": 7043,
      "ita": 7044,
      "Ġbrowser": 7045,
      "Ġentity": 7046,
      "Ġboost": 7047,
      "Bit": 7048,
      "Show": 7049,
      "Results": 7050,
      "TA": 7051,
      "////////////////////////////////": 7052,
      "IVE": 7053,
      "ĠAward": 7054,
      "Ġvehicle": 7055,
      "ĠFlorida": 7056,
      "WA": 7057,
      "yan": 7058,
      "ĠDC": 7059,
      "ĠEqu": 7060,
      "stone": 7061,
      "94": 7062,
      "install": 7063,
      "ĠStand": 7064,
      "frastructure": 7065,
      "edit": 7066,
      "Ġagree": 7067,
      "Ġcustomer": 7068,
      "Struct": 7069,
      "Database": 7070,
      "allow": 7071,
      "typeof": 7072,
      "track": 7073,
      "Some": 7074,
      "Ġborn": 7075,
      "Func": 7076,
      "lyph": 7077,
      "widet": 7078,
      "[:": 7079,
      "ĠAcad": 7080,
      "serve": 7081,
      "alid": 7082,
      "ĠChristian": 7083,
      "fony": 7084,
      "cmd": 7085,
      "Ġrestaur": 7086,
      "Ġgenerally": 7087,
      "ĠFalse": 7088,
      "Ġideas": 7089,
      "Ġdestroy": 7090,
      "Ġannual": 7091,
      "Ġinterested": 7092,
      "anta": 7093,
      "wrap": 7094,
      "iques": 7095,
      "Ġfig": 7096,
      "fol": 7097,
      "ĠWhy": 7098,
      "Ġnorm": 7099,
      "Psi": 7100,
      "aud": 7101,
      "Ġdir": 7102,
      "93": 7103,
      "Ġadopt": 7104,
      "Ġtoward": 7105,
      "Ġbenefit": 7106,
      "uy": 7107,
      "256": 7108,
      "Ġregions": 7109,
      "Then": 7110,
      "isms": 7111,
      "Ġreached": 7112,
      "ĠBill": 7113,
      "Ġflex": 7114,
      "igr": 7115,
      "margin": 7116,
      ".__": 7117,
      "}}{": 7118,
      "agger": 7119,
      "Ġenabled": 7120,
      "Ġclearly": 7121,
      "Ġserve": 7122,
      "erry": 7123,
      "Ġprocessing": 7124,
      ",-": 7125,
      "eless": 7126,
      "Ġfeet": 7127,
      "Ġlisten": 7128,
      "outer": 7129,
      "ĠSpr": 7130,
      "ĠWil": 7131,
      "Ġorganizations": 7132,
      "Ġkilled": 7133,
      "home": 7134,
      "Ġsurround": 7135,
      "Perm": 7136,
      "Ġartist": 7137,
      "ymfony": 7138,
      "Services": 7139,
      "radius": 7140,
      "ĠFund": 7141,
      "SQL": 7142,
      "erved": 7143,
      "ĠCommittee": 7144,
      "Ð°Ð": 7145,
      "Ġprove": 7146,
      "Ġlif": 7147,
      ")))": 7148,
      "Ġmys": 7149,
      "JSON": 7150,
      "men": 7151,
      ")-": 7152,
      "Ġ\"\"": 7153,
      "@\"": 7154,
      "Register": 7155,
      "Ġplanning": 7156,
      "Ġoppos": 7157,
      "ads": 7158,
      "omy": 7159,
      "stop": 7160,
      "itness": 7161,
      "ĠWell": 7162,
      "pat": 7163,
      "Ġcamera": 7164,
      "password": 7165,
      "ĠOffic": 7166,
      "iki": 7167,
      "Ġfunding": 7168,
      "ĠPage": 7169,
      "Ġcalling": 7170,
      "sb": 7171,
      "Ġalloc": 7172,
      "ĠIsland": 7173,
      "ĠEach": 7174,
      "Ġheavy": 7175,
      "Ã¤": 7176,
      "Ġoccur": 7177,
      "ĠSupport": 7178,
      "Americ": 7179,
      "urred": 7180,
      "ollow": 7181,
      "Ġforces": 7182,
      "Selector": 7183,
      "widetilde": 7184,
      "ĠCentral": 7185,
      "Ġgrid": 7186,
      "Ġgoals": 7187,
      "ĠStat": 7188,
      "Ġdepth": 7189,
      "Ġfavorite": 7190,
      "Float": 7191,
      "Ġ${": 7192,
      "Auth": 7193,
      "Ġadding": 7194,
      "Pool": 7195,
      "life": 7196,
      "Ġsigned": 7197,
      "inem": 7198,
      "ifically": 7199,
      "Ġhtml": 7200,
      "Sing": 7201,
      "Ġdram": 7202,
      "Ġevolution": 7203,
      "elligence": 7204,
      "RC": 7205,
      "Ġroute": 7206,
      "Ġregarding": 7207,
      "Ġofficials": 7208,
      "Files": 7209,
      "Ġshowing": 7210,
      ".'": 7211,
      "ĠSpe": 7212,
      "Attributes": 7213,
      "screen": 7214,
      "GS": 7215,
      "van": 7216,
      "\"`": 7217,
      "Ġreduced": 7218,
      "Ġhidden": 7219,
      "ĠMake": 7220,
      "92": 7221,
      "Ġeffic": 7222,
      "ĠBre": 7223,
      "Ġolder": 7224,
      "Ġwallet": 7225,
      "=\"/": 7226,
      "ĠEq": 7227,
      "ĠFrance": 7228,
      "Ġstuff": 7229,
      "ala": 7230,
      "ĠSil": 7231,
      "}]": 7232,
      "Ġdb": 7233,
      "Ġremote": 7234,
      "Ġbelong": 7235,
      "Ġjobs": 7236,
      "ĠTwo": 7237,
      "annotation": 7238,
      "Ġtrial": 7239,
      "........": 7240,
      "chain": 7241,
      "Ġissu": 7242,
      "ilton": 7243,
      "Ġclos": 7244,
      "Ġattr": 7245,
      "Ġopened": 7246,
      "Ġrare": 7247,
      "zone": 7248,
      "EXT": 7249,
      "83": 7250,
      "HS": 7251,
      "Ġabsolute": 7252,
      "spe": 7253,
      "About": 7254,
      "ĠAccording": 7255,
      "Ġleads": 7256,
      "ĠAuthor": 7257,
      "Ġaudience": 7258,
      "Ġinstr": 7259,
      "Msg": 7260,
      "Ġgovern": 7261,
      "Av": 7262,
      "ĠVAL": 7263,
      ";/": 7264,
      "zeta": 7265,
      "Ġ[];": 7266,
      "Ġreality": 7267,
      "Ġepisode": 7268,
      "UID": 7269,
      "uby": 7270,
      "ĠNode": 7271,
      "Ġwest": 7272,
      "(!": 7273,
      "!âĢĿ": 7274,
      "elines": 7275,
      "icago": 7276,
      "ĠVersion": 7277,
      "Ġinteger": 7278,
      "Full": 7279,
      "ĠTeam": 7280,
      "organ": 7281,
      "elease": 7282,
      "wait": 7283,
      "Ġlegis": 7284,
      "anner": 7285,
      "\">&": 7286,
      "ĠMinister": 7287,
      ".*": 7288,
      "ancel": 7289,
      "Ġfresh": 7290,
      "ĠWomen": 7291,
      "Ġconsequ": 7292,
      "Ġtrigger": 7293,
      "Ġdrink": 7294,
      "ĠĠĠĠĠĠĠĠĠĠĠĠĠĠĠĠĠĠĠĠĠĠĠĠ": 7295,
      "Ġperhaps": 7296,
      "found": 7297,
      "Ġonto": 7298,
      "Fr": 7299,
      "Ġcouldn": 7300,
      "Ġmentioned": 7301,
      "short": 7302,
      "events": 7303,
      "queue": 7304,
      "save": 7305,
      "network": 7306,
      "ĠAbout": 7307,
      "Ġexport": 7308,
      "Ġneut": 7309,
      "Ġdiscussion": 7310,
      "imit": 7311,
      "Ġsto": 7312,
      "connection": 7313,
      "ĠĠĠĠĠĠĊ": 7314,
      "Ġtried": 7315,
      "lers": 7316,
      "Rece": 7317,
      "ĠCH": 7318,
      "Ġjavax": 7319,
      "ĠCy": 7320,
      "Package": 7321,
      "important": 7322,
      "Ġdelay": 7323,
      "STAT": 7324,
      "Ġyourself": 7325,
      "roph": 7326,
      "ruit": 7327,
      "ĠFrancis": 7328,
      "INFO": 7329,
      "LIC": 7330,
      "indent": 7331,
      "txt": 7332,
      "Ġcollege": 7333,
      "argument": 7334,
      "Transaction": 7335,
      "alloc": 7336,
      "Ġseparate": 7337,
      "ien": 7338,
      "orial": 7339,
      "ilation": 7340,
      "Ġwarm": 7341,
      "ĠTask": 7342,
      "Ġoptional": 7343,
      "ogen": 7344,
      ")));": 7345,
      "Ġinsert": 7346,
      "record": 7347,
      "Flags": 7348,
      "tabular": 7349,
      "ĠHuman": 7350,
      "Ġcomparison": 7351,
      ")\"": 7352,
      "ĠInvest": 7353,
      "1999": 7354,
      "riz": 7355,
      "Ġincome": 7356,
      "scroll": 7357,
      "Ġguide": 7358,
      "Ġbiggest": 7359,
      "notation": 7360,
      "Ġfrequency": 7361,
      "123": 7362,
      "Iterator": 7363,
      "Account": 7364,
      "inations": 7365,
      "Ġclients": 7366,
      "lemma": 7367,
      "Ġrise": 7368,
      "dropdown": 7369,
      "MAX": 7370,
      "ĠEmp": 7371,
      "defined": 7372,
      "Ġresulting": 7373,
      "Ġmenu": 7374,
      "FS": 7375,
      "Ġok": 7376,
      "ynamic": 7377,
      "how": 7378,
      "ĠUkraine": 7379,
      "eces": 7380,
      "ĠTherefore": 7381,
      "ĠMult": 7382,
      "tip": 7383,
      "Ġexperi": 7384,
      "ĠGreat": 7385,
      "ango": 7386,
      "Ġmajority": 7387,
      "ĠClub": 7388,
      "ĠDesign": 7389,
      "Ġhelped": 7390,
      "Ġsea": 7391,
      "ĠOnly": 7392,
      "sible": 7393,
      "81": 7394,
      "printf": 7395,
      "Ġexamples": 7396,
      "Ġexchange": 7397,
      "ĠLibrary": 7398,
      "Ġdoll": 7399,
      "Ġsurvey": 7400,
      "Ġcombination": 7401,
      "Ġcertainly": 7402,
      "Prop": 7403,
      "entials": 7404,
      "Ġdanger": 7405,
      "()));": 7406,
      "plugins": 7407,
      "Logger": 7408,
      "Ġinfluence": 7409,
      "Items": 7410,
      "sche": 7411,
      "ĠScott": 7412,
      "inv": 7413,
      "May": 7414,
      "Ġpy": 7415,
      "ĠAction": 7416,
      "Ġfunc": 7417,
      "ja": 7418,
      "Ġreader": 7419,
      "Ġcomfort": 7420,
      "Ġtalking": 7421,
      "Ġscheme": 7422,
      "hav": 7423,
      "ĠLear": 7424,
      "Ġsymmet": 7425,
      "Memory": 7426,
      "cape": 7427,
      "DR": 7428,
      "However": 7429,
      "odies": 7430,
      ")\">": 7431,
      "ĠGets": 7432,
      "Ġpolicies": 7433,
      "Ġstarts": 7434,
      "Ġkept": 7435,
      "atial": 7436,
      "sumer": 7437,
      "Ġrequests": 7438,
      "ICE": 7439,
      "Close": 7440,
      "Ġmagn": 7441,
      "riev": 7442,
      "Ġaren": 7443,
      "ĠLocal": 7444,
      "ulk": 7445,
      "Ġidx": 7446,
      "Ġcat": 7447,
      "ĠBet": 7448,
      "bour": 7449,
      "Ġacad": 7450,
      "wp": 7451,
      "Ġconsult": 7452,
      "ĠMex": 7453,
      "ĠElect": 7454,
      "ĠWindows": 7455,
      "\\{": 7456,
      "cean": 7457,
      "cit": 7458,
      "()).": 7459,
      "ideos": 7460,
      "PM": 7461,
      "Ġfinite": 7462,
      "Generic": 7463,
      "%,": 7464,
      "Proxy": 7465,
      "ensed": 7466,
      "Ġbrief": 7467,
      "cam": 7468,
      "throws": 7469,
      "Cond": 7470,
      "JECT": 7471,
      "Ġpicture": 7472,
      "dependent": 7473,
      "Elements": 7474,
      "ĠGermany": 7475,
      "ĠEnter": 7476,
      "ampionship": 7477,
      "ĠFire": 7478,
      "Ġshut": 7479,
      "ĠjQuery": 7480,
      "Ġgone": 7481,
      "Ġ×": 7482,
      "Ġcommunication": 7483,
      "Main": 7484,
      "Ġsegment": 7485,
      "Ġplot": 7486,
      "LC": 7487,
      "ĠCongress": 7488,
      "Ġcitiz": 7489,
      "Ġresolution": 7490,
      "Ġeye": 7491,
      "bur": 7492,
      "ĠUnion": 7493,
      "Ġio": 7494,
      "gebra": 7495,
      "move": 7496,
      "Ġoffered": 7497,
      "ĠSpecial": 7498,
      "dimension": 7499,
      "READ": 7500,
      "Second": 7501,
      "Ġfill": 7502,
      "Gu": 7503,
      "PAR": 7504,
      "Ġprovider": 7505,
      "Del": 7506,
      "arden": 7507,
      "ĠFamily": 7508,
      "Ġpi": 7509,
      "Ġseconds": 7510,
      "Global": 7511,
      "Ġraised": 7512,
      "ĠTheir": 7513,
      "Br": 7514,
      "Ġconflic": 7515,
      "Ġmatches": 7516,
      "TED": 7517,
      "selected": 7518,
      "iced": 7519,
      "Ġequivalent": 7520,
      "owers": 7521,
      "Ġprotection": 7522,
      "External": 7523,
      "iterator": 7524,
      "Ġfemale": 7525,
      "Step": 7526,
      "ĠTur": 7527,
      "isting": 7528,
      "Ġphoto": 7529,
      "special": 7530,
      "spring": 7531,
      "domain": 7532,
      "mazing": 7533,
      "claim": 7534,
      "schema": 7535,
      "160": 7536,
      "apply": 7537,
      "BR": 7538,
      "each": 7539,
      "ĠThomas": 7540,
      "ishes": 7541,
      "Ġheat": 7542,
      "Med": 7543,
      "Ġ(_": 7544,
      "Parse": 7545,
      "uations": 7546,
      "andra": 7547,
      "numer": 7548,
      "SIZE": 7549,
      "flags": 7550,
      "Ġbrain": 7551,
      "Ġng": 7552,
      "ĠCopyright": 7553,
      "ĠDown": 7554,
      ")/": 7555,
      "effect": 7556,
      "ĠLast": 7557,
      "atever": 7558,
      "Protocol": 7559,
      "Ġ[[": 7560,
      "OST": 7561,
      "Ġquantum": 7562,
      "Ġbuilder": 7563,
      "igan": 7564,
      "ĠAdmin": 7565,
      "ovid": 7566,
      "Ġpropos": 7567,
      "gar": 7568,
      "Ġwish": 7569,
      "ographic": 7570,
      "identifier": 7571,
      "forms": 7572,
      "cribe": 7573,
      "Ġartists": 7574,
      "Ġagent": 7575,
      "rim": 7576,
      "hetic": 7577,
      "120": 7578,
      "Ġjourney": 7579,
      "ola": 7580,
      "Ġtit": 7581,
      "blockList": 7582,
      "Ġrapid": 7583,
      "ĠGrand": 7584,
      "Ġauthors": 7585,
      "Ġattract": 7586,
      "master": 7587,
      "desc": 7588,
      "Ġens": 7589,
      "}+": 7590,
      "itz": 7591,
      "ĠMur": 7592,
      "Ġjoint": 7593,
      "Keys": 7594,
      "linear": 7595,
      "kin": 7596,
      "ĠLos": 7597,
      "night": 7598,
      "Ġprices": 7599,
      "Ġraw": 7600,
      "Ġnoted": 7601,
      "orrow": 7602,
      "ĠBiden": 7603,
      "ĠMuseum": 7604,
      "Ġlic": 7605,
      "emon": 7606,
      "Ġfan": 7607,
      "ĠAS": 7608,
      "Activity": 7609,
      "Ġhelps": 7610,
      "abit": 7611,
      "Ġappoint": 7612,
      "Ġextended": 7613,
      "Ġunknown": 7614,
      "Ġsch": 7615,
      "heel": 7616,
      "reek": 7617,
      "ashed": 7618,
      "Ġprobability": 7619,
      "ĠOption": 7620,
      "Ġstress": 7621,
      "Ġhydro": 7622,
      "ĠHot": 7623,
      "emma": 7624,
      "Pod": 7625,
      "Supp": 7626,
      "cknow": 7627,
      "ĠĠĠĠĠĠĠĠĠĠĠĠĠĠĠĠĠĠĠĠĠĠ": 7628,
      "ĠAfrican": 7629,
      "ĠSol": 7630,
      "ository": 7631,
      "MT": 7632,
      "properties": 7633,
      "ĠFrank": 7634,
      "Ġawait": 7635,
      "Auto": 7636,
      "plet": 7637,
      "ĠCustom": 7638,
      "ĠPass": 7639,
      "Ġinfe": 7640,
      "Ġdiscussed": 7641,
      "Ġfn": 7642,
      "ĠSl": 7643,
      "Ġinner": 7644,
      "Ġgather": 7645,
      "Ñı": 7646,
      "Ġmiles": 7647,
      "handler": 7648,
      "Fail": 7649,
      "contin": 7650,
      "Ġremaining": 7651,
      "matrix": 7652,
      "issions": 7653,
      "âĢī": 7654,
      "Ġconsistent": 7655,
      "Ġenvironmental": 7656,
      "ĠJoe": 7657,
      "Ġuncertain": 7658,
      "Ġresidents": 7659,
      "Ġwall": 7660,
      "primary": 7661,
      "Ġbalance": 7662,
      "igg": 7663,
      "results": 7664,
      "++;": 7665,
      "ĠMel": 7666,
      "Ġdocuments": 7667,
      "UD": 7668,
      "Ġequipment": 7669,
      "Directory": 7670,
      "rev": 7671,
      "Ġhighlight": 7672,
      "zen": 7673,
      "ĠPath": 7674,
      "Ġoperating": 7675,
      "metadata": 7676,
      "Ġbudget": 7677,
      "ora": 7678,
      "Ġachieve": 7679,
      "ĠEnergy": 7680,
      "ĠÂ»": 7681,
      "Events": 7682,
      "ĠNY": 7683,
      "pher": 7684,
      "umin": 7685,
      "Ġcarbon": 7686,
      "\\]": 7687,
      "Ġnorth": 7688,
      "Ġcompare": 7689,
      "Ġleadership": 7690,
      "yes": 7691,
      "Ġfinished": 7692,
      "Ġefficient": 7693,
      "Ġwood": 7694,
      "ĠLin": 7695,
      "Ġfocused": 7696,
      "Conf": 7697,
      "Ġpeak": 7698,
      "oses": 7699,
      "rypto": 7700,
      "adian": 7701,
      "onav": 7702,
      "omorph": 7703,
      "ERS": 7704,
      "none": 7705,
      "$)": 7706,
      "ĠNumber": 7707,
      "Ġvisible": 7708,
      "angular": 7709,
      "ridge": 7710,
      "Ġmarketing": 7711,
      "Inv": 7712,
      "Ġbatter": 7713,
      "ĠWestern": 7714,
      "apped": 7715,
      "Ġsusp": 7716,
      "Ġnetworks": 7717,
      "ĠTheorem": 7718,
      "Ġmotion": 7719,
      "ĠPeter": 7720,
      "pository": 7721,
      "arts": 7722,
      "ĠOh": 7723,
      "BE": 7724,
      "Ġpoly": 7725,
      "Ġalternative": 7726,
      "Ġtypeof": 7727,
      "Book": 7728,
      "upload": 7729,
      "ĠKore": 7730,
      "Ġminor": 7731,
      "Previous": 7732,
      "ĠLand": 7733,
      "ONE": 7734,
      "ady": 7735,
      "erial": 7736,
      "Ġboy": 7737,
      "(){": 7738,
      "ĠLake": 7739,
      "Ġtalent": 7740,
      "Ġchanging": 7741,
      "onym": 7742,
      "Py": 7743,
      "ĠPlease": 7744,
      "recated": 7745,
      "Ġlaunched": 7746,
      "VERSION": 7747,
      "Plugin": 7748,
      "Transform": 7749,
      "iffer": 7750,
      "month": 7751,
      "ĠSpec": 7752,
      "shift": 7753,
      "ĠChristmas": 7754,
      "Ġinvalid": 7755,
      "ĠIOException": 7756,
      "ĠParty": 7757,
      "Ġplus": 7758,
      "Ġschedul": 7759,
      "Ġarrest": 7760,
      "Ġseeing": 7761,
      "TEX": 7762,
      "128": 7763,
      "dim": 7764,
      "Edit": 7765,
      "TABLE": 7766,
      "Ġdriving": 7767,
      "Ġprotest": 7768,
      "ĠGerman": 7769,
      "okes": 7770,
      "ĠPet": 7771,
      "ĠSign": 7772,
      "Ġrich": 7773,
      "widehat": 7774,
      "Ġfinding": 7775,
      "Âł": 7776,
      "libr": 7777,
      "estic": 7778,
      "Ġsale": 7779,
      "losed": 7780,
      "ĠAccess": 7781,
      "allery": 7782,
      "[$": 7783,
      "arc": 7784,
      "asion": 7785,
      "Ġfloor": 7786,
      "ĠJun": 7787,
      "Ġanimals": 7788,
      ")=\\": 7789,
      "Ġdamage": 7790,
      "PORT": 7791,
      "Ġnice": 7792,
      "ĠChief": 7793,
      "Ġconference": 7794,
      "ĠConfig": 7795,
      "Ã¶": 7796,
      "ĠDen": 7797,
      ")).": 7798,
      "Grid": 7799,
      "ipped": 7800,
      "Ġplaced": 7801,
      "Ġarm": 7802,
      "ĠPoint": 7803,
      "Posted": 7804,
      "proto": 7805,
      "Pack": 7806,
      "Ġbed": 7807,
      "formance": 7808,
      ")}\\": 7809,
      "Ġ$.": 7810,
      "Ġcrow": 7811,
      "Ġcombined": 7812,
      "Enum": 7813,
      "Ġsupports": 7814,
      "ĠMount": 7815,
      "}=\\": 7816,
      "Ne": 7817,
      "Ġmyself": 7818,
      "fire": 7819,
      "Ġserved": 7820,
      "bytes": 7821,
      "Ġabstract": 7822,
      "ĠSE": 7823,
      "Ġsleep": 7824,
      "Graph": 7825,
      "ĠMass": 7826,
      "Ġoffering": 7827,
      "ĠParam": 7828,
      "Term": 7829,
      "channel": 7830,
      "Ġspaces": 7831,
      "ĠAndroid": 7832,
      "ĠOp": 7833,
      "Ġupdates": 7834,
      "ĠMedical": 7835,
      "Ġthank": 7836,
      "ivation": 7837,
      "ĠIr": 7838,
      "Ġaudio": 7839,
      "cb": 7840,
      "Ġagreed": 7841,
      "job": 7842,
      "material": 7843,
      "ĠVirgin": 7844,
      "Ġreq": 7845,
      "Ġfol": 7846,
      "uzz": 7847,
      "Ġtechnical": 7848,
      "Ġmeant": 7849,
      "ĠIL": 7850,
      "Loader": 7851,
      "'])": 7852,
      "Print": 7853,
      "Ġexperiences": 7854,
      "Other": 7855,
      "GR": 7856,
      "Ġhappens": 7857,
      "Ġsmooth": 7858,
      "usband": 7859,
      "Ġadministration": 7860,
      "Ġcontrast": 7861,
      "Syntax": 7862,
      "Ġlabor": 7863,
      "ĠProcess": 7864,
      "assets": 7865,
      "ĠMov": 7866,
      "Ġsexual": 7867,
      "ĠFood": 7868,
      "Ġtraffic": 7869,
      "emporary": 7870,
      "ĠÂ£": 7871,
      "Ġrevealed": 7872,
      "Ġpractices": 7873,
      "initely": 7874,
      "Ġappeared": 7875,
      "Desc": 7876,
      "Ġblocks": 7877,
      "ĠSecret": 7878,
      "Ġbattle": 7879,
      "Ġmanaged": 7880,
      "parameters": 7881,
      "Socket": 7882,
      "Ġparties": 7883,
      "Ġdelivery": 7884,
      "cup": 7885,
      "Ġmetal": 7886,
      "Ġenv": 7887,
      "Ġadvantage": 7888,
      "mask": 7889,
      "Ġfeeling": 7890,
      "Ġappend": 7891,
      "ĠDigital": 7892,
      "]:": 7893,
      "SY": 7894,
      "WN": 7895,
      "Ġtopic": 7896,
      "Ġpeace": 7897,
      "tmp": 7898,
      "Ġdaughter": 7899,
      "Ġinteraction": 7900,
      "ĠPhys": 7901,
      "Ġguarant": 7902,
      "Ġdeveloping": 7903,
      "Abstract": 7904,
      "elled": 7905,
      "ĠSciences": 7906,
      "OUT": 7907,
      "ĠLee": 7908,
      "ĠReal": 7909,
      "shall": 7910,
      "area": 7911,
      "ĠCD": 7912,
      "Ġsoft": 7913,
      "bad": 7914,
      "jpg": 7915,
      "Ljava": 7916,
      "black": 7917,
      "getName": 7918,
      "Ġwarn": 7919,
      "Ġfish": 7920,
      "ĠNE": 7921,
      "Ġdrag": 7922,
      "ĠIndex": 7923,
      "Ġneighbor": 7924,
      "Ġsomew": 7925,
      "Ġdraft": 7926,
      "boost": 7927,
      "Ġexerc": 7928,
      "Ġboundary": 7929,
      ")),": 7930,
      "Ġdetailed": 7931,
      "ãĢ": 7932,
      "Ġcrisis": 7933,
      "Ġcompetition": 7934,
      "Ġweap": 7935,
      "Ġknows": 7936,
      "ĠAlthough": 7937,
      "Ġnom": 7938,
      "cpp": 7939,
      "ĠTODO": 7940,
      "children": 7941,
      "chen": 7942,
      "ĠMain": 7943,
      "}^\\": 7944,
      "Ġdie": 7945,
      "friend": 7946,
      "Ġattend": 7947,
      "Statement": 7948,
      "ictor": 7949,
      "orders": 7950,
      "Ġstructures": 7951,
      "\\'": 7952,
      "controller": 7953,
      "total": 7954,
      "ĠPRO": 7955,
      "Ġdifferences": 7956,
      ".~": 7957,
      "axis": 7958,
      "ĠBrown": 7959,
      "onavirus": 7960,
      "Ġil": 7961,
      "ĠEnvironment": 7962,
      "ĠImage": 7963,
      "ĠĠĠĠĠĠĠĠĠĠĠĠĠĠĠĠĠĠĠĠĠĠĠĠĠĠĠĠĠ": 7964,
      "Ġmostly": 7965,
      "Ġbehavi": 7966,
      "Ġintr": 7967,
      "roke": 7968,
      "Ġsouth": 7969,
      "Ġdetect": 7970,
      "sor": 7971,
      "lig": 7972,
      "Ġfunds": 7973,
      "ï¼": 7974,
      "Ġstated": 7975,
      "Ġtrou": 7976,
      "eder": 7977,
      "fail": 7978,
      "uty": 7979,
      "Ġshock": 7980,
      "ĠAngeles": 7981,
      "John": 7982,
      "ĠWho": 7983,
      "manager": 7984,
      "sen": 7985,
      "Ġdynamic": 7986,
      "brief": 7987,
      "Ġcandidate": 7988,
      "ĠIT": 7989,
      "Ġlearned": 7990,
      "ella": 7991,
      "Ġplays": 7992,
      "Ġimplements": 7993,
      "ading": 7994,
      "izable": 7995,
      "Sequ": 7996,
      "cdots": 7997,
      "leton": 7998,
      "Ġpsych": 7999,
      "wrapper": 8000,
      "Ġestimate": 8001,
      "isters": 8002,
      "ĠDu": 8003,
      "Panel": 8004,
      "Ġtrip": 8005,
      "XML": 8006,
      "Ġoccup": 8007,
      "chor": 8008,
      "textwidth": 8009,
      "ĠMany": 8010,
      "awn": 8011,
      "Ġsufficient": 8012,
      "Ġstandards": 8013,
      "Ġmassive": 8014,
      "ura": 8015,
      "Phone": 8016,
      "Spe": 8017,
      "Sw": 8018,
      "Ġmagnetic": 8019,
      "Ġisol": 8020,
      "Ġsenior": 8021,
      "Will": 8022,
      "atters": 8023,
      "ĠPerson": 8024,
      "Ġentertain": 8025,
      "ĠJose": 8026,
      "Ġpartnership": 8027,
      "Layer": 8028,
      "Ġmixed": 8029,
      "Ġwww": 8030,
      "ĠLine": 8031,
      "Ġemotion": 8032,
      "RES": 8033,
      "contains": 8034,
      "HR": 8035,
      "ĠOld": 8036,
      "apper": 8037,
      "ĠWater": 8038,
      "Gr": 8039,
      "ĠMont": 8040,
      "ito": 8041,
      ")^{": 8042,
      "NT": 8043,
      "etes": 8044,
      "ato": 8045,
      "Ġ%}": 8046,
      "typedef": 8047,
      "Ġnoise": 8048,
      "stats": 8049,
      "ulty": 8050,
      "essions": 8051,
      "çļ": 8052,
      "Ġinvestigation": 8053,
      "family": 8054,
      "Ġfuel": 8055,
      "idential": 8056,
      "ĠControl": 8057,
      "war": 8058,
      "ĠFurther": 8059,
      "Ġearth": 8060,
      "Ġtruly": 8061,
      "Category": 8062,
      "Ġgain": 8063,
      "Ġpul": 8064,
      "UTF": 8065,
      "FIG": 8066,
      "Ġcovered": 8067,
      "ĠOrgan": 8068,
      "Ġslightly": 8069,
      "atible": 8070,
      "High": 8071,
      "Ġlaws": 8072,
      "Ġphen": 8073,
      "Ġcultural": 8074,
      "ĠIll": 8075,
      "riage": 8076,
      "Ġdefense": 8077,
      "ĠResource": 8078,
      "Ġcycle": 8079,
      "enumer": 8080,
      "ĠSoftware": 8081,
      "inf": 8082,
      "ĠFind": 8083,
      "git": 8084,
      "ĠSecond": 8085,
      "çļĦ": 8086,
      "isted": 8087,
      "atre": 8088,
      "According": 8089,
      "Ġcry": 8090,
      "icol": 8091,
      "ĠHor": 8092,
      "amin": 8093,
      "tics": 8094,
      "reset": 8095,
      "NULL": 8096,
      "ench": 8097,
      "ĠJava": 8098,
      "ĠChicago": 8099,
      "=(": 8100,
      "ById": 8101,
      "ĠRest": 8102,
      "ĠJud": 8103,
      "GO": 8104,
      "Ġcreation": 8105,
      "Ġfilms": 8106,
      "deg": 8107,
      "Pointer": 8108,
      "Find": 8109,
      "ĠBur": 8110,
      "ĠJo": 8111,
      "Figure": 8112,
      "Ġip": 8113,
      "ĠRichard": 8114,
      "Ġfant": 8115,
      "Ġdepends": 8116,
      "Ġpointer": 8117,
      "}_\\": 8118,
      "Ġwaiting": 8119,
      "Expr": 8120,
      "ĠJim": 8121,
      "Lin": 8122,
      "ĠDom": 8123,
      "Ġtasks": 8124,
      "modules": 8125,
      "asis": 8126,
      "para": 8127,
      "BI": 8128,
      "Ġencoding": 8129,
      "Ġproceed": 8130,
      "Section": 8131,
      "}:": 8132,
      "othes": 8133,
      "}\\,": 8134,
      "lg": 8135,
      "~$": 8136,
      "ĠGuide": 8137,
      "hidden": 8138,
      "Ġodd": 8139,
      "ITE": 8140,
      "Ġautomatically": 8141,
      "ĠBit": 8142,
      "fast": 8143,
      "operation": 8144,
      "ĠEU": 8145,
      "ĠBecause": 8146,
      "Attr": 8147,
      "Ġvision": 8148,
      "Remove": 8149,
      "lie": 8150,
      "ĠMedicine": 8151,
      "Ġtypically": 8152,
      "Ġrecorded": 8153,
      "Matrix": 8154,
      "account": 8155,
      "Ã¢": 8156,
      "sin": 8157,
      "Namespace": 8158,
      "Ġfav": 8159,
      "Ġasync": 8160,
      "Ġthanks": 8161,
      "Headers": 8162,
      "Ġter": 8163,
      "ToString": 8164,
      "Ġtheme": 8165,
      "ĠIns": 8166,
      "Nodes": 8167,
      "Ġur": 8168,
      "Ġbeat": 8169,
      "Ġsetup": 8170,
      "ĠRights": 8171,
      "ĠTerm": 8172,
      "leted": 8173,
      "cluded": 8174,
      "Ġjoined": 8175,
      "Ġpet": 8176,
      "=\"\">": 8177,
      "NavBarCell": 8178,
      "Ġexpansion": 8179,
      "Character": 8180,
      "ĠĠĠĠĠĠĠĠĠĠĠĠĠĠĠĠĠĠĠĠĠĠĠĠĠĠĠĠĠĠĠĠĠĠĠĠĠĠĠĠĠĠĠĠĠĠĠĠĠĠĠĠĠĠĠĠĠĠĠĠĠĠĠĠ": 8181,
      "ĠPC": 8182,
      "ifdef": 8183,
      "PATH": 8184,
      "ĠArts": 8185,
      "250": 8186,
      "Opt": 8187,
      "Region": 8188,
      "MI": 8189,
      "Identifier": 8190,
      "Ġsongs": 8191,
      "%)": 8192,
      "odd": 8193,
      "Ġannounce": 8194,
      "ĠRegister": 8195,
      "Ġspectrum": 8196,
      "}|": 8197,
      "sem": 8198,
      "Ġmental": 8199,
      "Adapter": 8200,
      "ĠJohnson": 8201,
      "======": 8202,
      "IND": 8203,
      "Ġexplore": 8204,
      "Ġship": 8205,
      "Ġ\\{": 8206,
      "Ġ{'": 8207,
      "keyword": 8208,
      "Ġjump": 8209,
      "mutable": 8210,
      "Ġterr": 8211,
      "Ġcoverage": 8212,
      "ickets": 8213,
      "Ġcars": 8214,
      "Ġchief": 8215,
      "USE": 8216,
      "ĠNext": 8217,
      "HER": 8218,
      "Ġregistered": 8219,
      "(__": 8220,
      "akistan": 8221,
      "ĠAI": 8222,
      "kw": 8223,
      "ĠLandroid": 8224,
      "ĠIts": 8225,
      "ĠInternet": 8226,
      "})\\": 8227,
      "unte": 8228,
      "ĠStep": 8229,
      "ifer": 8230,
      "Ġestimated": 8231,
      "600": 8232,
      "safe": 8233,
      "ĠLike": 8234,
      "ĉĉĉĊ": 8235,
      "LINE": 8236,
      "acific": 8237,
      "scribe": 8238,
      "Ġmarkets": 8239,
      "Ġincreases": 8240,
      "ipping": 8241,
      "uries": 8242,
      "power": 8243,
      "attributes": 8244,
      "ĠPolice": 8245,
      "ko": 8246,
      "Ġallowing": 8247,
      "Ġexperiment": 8248,
      "iveness": 8249,
      "Ġsquare": 8250,
      "iration": 8251,
      "va": 8252,
      "Ġimportance": 8253,
      "ĠMartin": 8254,
      "Ġsubsequ": 8255,
      "Failed": 8256,
      "Ġice": 8257,
      "agraph": 8258,
      "Ġintegr": 8259,
      "Ġreject": 8260,
      "icity": 8261,
      "Ġmac": 8262,
      "amm": 8263,
      "world": 8264,
      "Space": 8265,
      "IGHT": 8266,
      "iral": 8267,
      "Â©": 8268,
      "mosph": 8269,
      "Ġconfirmed": 8270,
      "oting": 8271,
      "Ġwhom": 8272,
      "Scroll": 8273,
      "Ġwouldn": 8274,
      "Ġnotes": 8275,
      "rase": 8276,
      "Ġmeasured": 8277,
      "Ġconsumer": 8278,
      "Ġtend": 8279,
      "Ġexcellent": 8280,
      "Ġdistinct": 8281,
      "Ð´": 8282,
      "ushed": 8283,
      "Ġguy": 8284,
      "ĠSpace": 8285,
      "Ġspend": 8286,
      "Ġxmlns": 8287,
      "unately": 8288,
      "Ġeast": 8289,
      "prefix": 8290,
      "DEBUG": 8291,
      "Ġspan": 8292,
      "Ġincred": 8293,
      "Ġwid": 8294,
      "ĠLi": 8295,
      "Ġchosen": 8296,
      "Ġdebug": 8297,
      "ĠCentre": 8298,
      "ĠLouis": 8299,
      "Ġcities": 8300,
      "Ġsecure": 8301,
      "ĠValley": 8302,
      "orney": 8303,
      "Ġviolence": 8304,
      "osoph": 8305,
      "ookie": 8306,
      "present": 8307,
      "Ġhyper": 8308,
      "Ġweekend": 8309,
      "ali": 8310,
      "ĠSports": 8311,
      "Ġweather": 8312,
      "Ġmurder": 8313,
      "IPT": 8314,
      "Ġamazing": 8315,
      "atar": 8316,
      "Ġprev": 8317,
      "Ġaxis": 8318,
      "uan": 8319,
      "Ġpassword": 8320,
      "Collections": 8321,
      "Ġleaving": 8322,
      "Ġdecades": 8323,
      "Ġunivers": 8324,
      "%%%%": 8325,
      "Pay": 8326,
      "expr": 8327,
      "=\"@": 8328,
      "LL": 8329,
      "Two": 8330,
      "FR": 8331,
      "Ġvaccine": 8332,
      "Ġlocations": 8333,
      "ocker": 8334,
      "ĠĠĠĠĠĠĠĠĠĠĠĠĠĠĠĠĠĠĠĠĠĠĠĠĠĠ": 8335,
      "aylor": 8336,
      "HTTP": 8337,
      "Ġlisted": 8338,
      "echo": 8339,
      "Ġapplicable": 8340,
      "tools": 8341,
      "Ap": 8342,
      "ĠIndust": 8343,
      "Ġaffected": 8344,
      "plus": 8345,
      "Ġreserved": 8346,
      "Ġmolec": 8347,
      "Ġrg": 8348,
      "Gen": 8349,
      "ĠSearch": 8350,
      "ingly": 8351,
      "Ġbecoming": 8352,
      "edu": 8353,
      "Ġretail": 8354,
      "gov": 8355,
      "Prefix": 8356,
      "jquery": 8357,
      "filename": 8358,
      "Ġfourth": 8359,
      "ĠON": 8360,
      "LECT": 8361,
      "Success": 8362,
      "ictures": 8363,
      "Ġbinary": 8364,
      "Ġthousands": 8365,
      "Ġencourag": 8366,
      "SER": 8367,
      "Jan": 8368,
      "ĠSaf": 8369,
      "trigger": 8370,
      "Cap": 8371,
      "Variable": 8372,
      "ĠBlock": 8373,
      "ĠTown": 8374,
      "Ġqueue": 8375,
      "Ġconcerns": 8376,
      "800": 8377,
      "ĠLu": 8378,
      "mo": 8379,
      "roud": 8380,
      "Profile": 8381,
      "ĠColl": 8382,
      "Ġtun": 8383,
      "tical": 8384,
      "}</": 8385,
      "Ġadvanced": 8386,
      "ĠWay": 8387,
      "Ġeventually": 8388,
      "bel": 8389,
      "Ġapparent": 8390,
      "iliar": 8391,
      "encing": 8392,
      "Ġstreet": 8393,
      "Ġforced": 8394,
      "Ġacceler": 8395,
      "Ġhers": 8396,
      "ĠArab": 8397,
      "depth": 8398,
      "ensus": 8399,
      "gence": 8400,
      "Ġfinish": 8401,
      "CESS": 8402,
      "Ġcontroller": 8403,
      "Public": 8404,
      "ĠHash": 8405,
      "Ġexplain": 8406,
      "prise": 8407,
      "estion": 8408,
      "1998": 8409,
      "rical": 8410,
      "Ġstored": 8411,
      "picker": 8412,
      "Ġapproximately": 8413,
      "Ġwaves": 8414,
      "Ġfamous": 8415,
      "Ġprepar": 8416,
      "PU": 8417,
      "Ġrelatively": 8418,
      "Ġsolar": 8419,
      "Ġfactory": 8420,
      "Ġexpos": 8421,
      "ulner": 8422,
      "ĠEV": 8423,
      "Constants": 8424,
      "reland": 8425,
      "Sync": 8426,
      "Ġctx": 8427,
      "switch": 8428,
      "ye": 8429,
      "Ġcold": 8430,
      "Ġmist": 8431,
      "Microsoft": 8432,
      "Ġended": 8433,
      ".âĢĻ": 8434,
      "Ġcookies": 8435,
      "ĠUsing": 8436,
      "ĠGl": 8437,
      "when": 8438,
      "ĠAsia": 8439,
      "Scale": 8440,
      "green": 8441,
      "DP": 8442,
      "ga": 8443,
      "ĠAdv": 8444,
      "Double": 8445,
      "Ġflags": 8446,
      "Ġmanage": 8447,
      "Ġexplained": 8448,
      "{(": 8449,
      "dx": 8450,
      "ACT": 8451,
      "Ġflight": 8452,
      "dist": 8453,
      "Ġpositions": 8454,
      "ĠDisc": 8455,
      "Volume": 8456,
      "Ġguess": 8457,
      "apes": 8458,
      "ĠCard": 8459,
      "aver": 8460,
      "limit": 8461,
      "Ġskin": 8462,
      "Ġspeech": 8463,
      "Ġderived": 8464,
      "Ġapprec": 8465,
      "construct": 8466,
      "ONG": 8467,
      "asket": 8468,
      "Ġbright": 8469,
      "Ġsizeof": 8470,
      "Mut": 8471,
      "ĠPR": 8472,
      "platform": 8473,
      "Ġseemed": 8474,
      "ĠLove": 8475,
      "ĠEth": 8476,
      "Ġdetection": 8477,
      "Ġburn": 8478,
      "Ġregul": 8479,
      "Ġarticles": 8480,
      "headers": 8481,
      "uilt": 8482,
      "jar": 8483,
      "Cluster": 8484,
      "Ġplane": 8485,
      "SR": 8486,
      "Ġmodified": 8487,
      "rick": 8488,
      "Dest": 8489,
      "Ġdataset": 8490,
      ">::": 8491,
      "Props": 8492,
      "Ġcalc": 8493,
      "Ġlayout": 8494,
      "Ġpurchase": 8495,
      "Ġcancell": 8496,
      "Ġkill": 8497,
      "Ġconfirm": 8498,
      "Mapping": 8499,
      "Cred": 8500,
      "itutions": 8501,
      "Ġscre": 8502,
      "Ġinfrastructure": 8503,
      "Ġvertical": 8504,
      "Ġfashion": 8505,
      "Ġsuccessfully": 8506,
      "Ġcash": 8507,
      "ndef": 8508,
      "Ġcoach": 8509,
      "URI": 8510,
      "{{\\": 8511,
      "ĠYoung": 8512,
      "Ġcos": 8513,
      "Ġtherm": 8514,
      "Ġadvance": 8515,
      "afe": 8516,
      "eper": 8517,
      "Rad": 8518,
      "Make": 8519,
      "engine": 8520,
      "à¥": 8521,
      "Ġ[],": 8522,
      "prec": 8523,
      ")->": 8524,
      "NOT": 8525,
      "Ġcorner": 8526,
      "Ġwatching": 8527,
      "pan": 8528,
      "issues": 8529,
      "Ġvehicles": 8530,
      "role": 8531,
      "Ġeasier": 8532,
      "ĠAmericans": 8533,
      "Ġtechniques": 8534,
      "Engine": 8535,
      "hide": 8536,
      "Ġcoe": 8537,
      "arsed": 8538,
      "junit": 8539,
      "Ġsympt": 8540,
      "qquad": 8541,
      "Ġhair": 8542,
      "Ġverify": 8543,
      "ĠDuring": 8544,
      "configuration": 8545,
      "kins": 8546,
      "Ġextremely": 8547,
      "Ġpure": 8548,
      "oliday": 8549,
      "Ġtreated": 8550,
      "VE": 8551,
      "Ġflat": 8552,
      "ĠĠĠĠĠĠĠĠĠĠĠĠĠĠĠĠĠĠĠĠĠĠĠĠĠĠĠĠĠĠĠĠĠĠĠĠĠĠĠĠĠĠĠ": 8553,
      "pu": 8554,
      "ĠFort": 8555,
      "ĠTR": 8556,
      "Ġdecisions": 8557,
      "Ġinjury": 8558,
      "}^{(": 8559,
      "TRUE": 8560,
      "Simple": 8561,
      "Ġ>>": 8562,
      "Ġcreative": 8563,
      "Ġhelping": 8564,
      "WR": 8565,
      "Ġmyst": 8566,
      "ultural": 8567,
      "xspace": 8568,
      "Ġcarried": 8569,
      "ji": 8570,
      "'));": 8571,
      "Just": 8572,
      "plication": 8573,
      "ĠCast": 8574,
      "sur": 8575,
      "ĠBlue": 8576,
      "agnostic": 8577,
      "Ġdestination": 8578,
      "iser": 8579,
      "ĠMike": 8580,
      "nil": 8581,
      "Ġoperators": 8582,
      "cher": 8583,
      "eller": 8584,
      "Ġpurposes": 8585,
      "Ġmaps": 8586,
      "------------": 8587,
      "Best": 8588,
      "rine": 8589,
      "ĠWatch": 8590,
      "Ġmeta": 8591,
      "she": 8592,
      "rich": 8593,
      "ĠSource": 8594,
      "Look": 8595,
      "scr": 8596,
      "Ġprotein": 8597,
      "dp": 8598,
      "iana": 8599,
      "Import": 8600,
      "idx": 8601,
      "Trace": 8602,
      "Ġ..": 8603,
      "icians": 8604,
      "losure": 8605,
      "}'": 8606,
      "Common": 8607,
      "operatorname": 8608,
      "Ġexit": 8609,
      "front": 8610,
      "Pop": 8611,
      "ĠFOR": 8612,
      "doi": 8613,
      "ifiers": 8614,
      "Ġconducted": 8615,
      "({\\": 8616,
      "ĠHTTP": 8617,
      "iated": 8618,
      "FLA": 8619,
      "^+": 8620,
      "Ġlett": 8621,
      "################": 8622,
      "structions": 8623,
      "Video": 8624,
      "Ġuniform": 8625,
      "ĠPan": 8626,
      "Ġsan": 8627,
      "uality": 8628,
      "Ġformation": 8629,
      "ĠAT": 8630,
      "Ġbrings": 8631,
      "Ġparticipants": 8632,
      "ĠGames": 8633,
      "Ġtechnologies": 8634,
      "»¿": 8635,
      "thlet": 8636,
      "Ð²": 8637,
      "uous": 8638,
      "endor": 8639,
      "FE": 8640,
      "itionally": 8641,
      "Ġinstalled": 8642,
      "zero": 8643,
      ":\\": 8644,
      "ingu": 8645,
      "ĠGeorg": 8646,
      "Ġ\",": 8647,
      "webpack": 8648,
      "ĠProperty": 8649,
      "ĠJapanese": 8650,
      "alo": 8651,
      "ĠElement": 8652,
      "Ġhusband": 8653,
      "citet": 8654,
      "ï»¿": 8655,
      "exists": 8656,
      "fold": 8657,
      "protected": 8658,
      "protocol": 8659,
      "Ġsharing": 8660,
      "Ġprocedure": 8661,
      "unique": 8662,
      "Ġvac": 8663,
      "reatest": 8664,
      "Ġrecover": 8665,
      "Java": 8666,
      "components": 8667,
      "Ġagency": 8668,
      "?\"": 8669,
      "ĠInteger": 8670,
      "Ġchurch": 8671,
      "ĠEp": 8672,
      "Ġpayment": 8673,
      "ĠWAR": 8674,
      "ĠĠĠĊ": 8675,
      "dimensional": 8676,
      "Ġposted": 8677,
      "Ġfaith": 8678,
      "achment": 8679,
      "Ġprefix": 8680,
      "TIME": 8681,
      "ĠWood": 8682,
      "Generator": 8683,
      "browser": 8684,
      "ĠChris": 8685,
      "ĠExecut": 8686,
      "ALSE": 8687,
      "Ġturns": 8688,
      "logger": 8689,
      "Ġmale": 8690,
      "World": 8691,
      "Ġstrings": 8692,
      "ĠBoth": 8693,
      "approx": 8694,
      "Ġdedicated": 8695,
      "Ġzone": 8696,
      "udden": 8697,
      "Where": 8698,
      "ĠHaw": 8699,
      "edding": 8700,
      "Ġconstructor": 8701,
      "Ġimproved": 8702,
      "ĠOl": 8703,
      "Ġbranch": 8704,
      "Ġfacilities": 8705,
      "Ġsignature": 8706,
      "folio": 8707,
      "Ġexpressed": 8708,
      "appe": 8709,
      "erg": 8710,
      "progress": 8711,
      "OM": 8712,
      "Ġpromise": 8713,
      "news": 8714,
      "Repository": 8715,
      "ati": 8716,
      "urban": 8717,
      "ucky": 8718,
      "norm": 8719,
      "Free": 8720,
      "ez": 8721,
      "Report": 8722,
      "umes": 8723,
      "Duration": 8724,
      "Uri": 8725,
      "gover": 8726,
      "ĠPay": 8727,
      "icing": 8728,
      "erman": 8729,
      "Ġdiagn": 8730,
      "ĠAtl": 8731,
      "Ġdepartment": 8732,
      "report": 8733,
      "Ġmetadata": 8734,
      "Ġindicate": 8735,
      "Comment": 8736,
      "mic": 8737,
      "Ġvelocity": 8738,
      "Ġfreedom": 8739,
      "riority": 8740,
      "ADD": 8741,
      "Ġsupporting": 8742,
      "plan": 8743,
      "Ġec": 8744,
      "ĠLord": 8745,
      "LI": 8746,
      "OB": 8747,
      "ĠFestival": 8748,
      "conn": 8749,
      "uages": 8750,
      "Registry": 8751,
      "props": 8752,
      "Ġissued": 8753,
      "storage": 8754,
      "prev": 8755,
      "Total": 8756,
      "ffff": 8757,
      "Ġchemical": 8758,
      "\"/": 8759,
      "Ġmatching": 8760,
      "101": 8761,
      "duced": 8762,
      "Browser": 8763,
      "ĠMessage": 8764,
      "lik": 8765,
      "ĠJones": 8766,
      "Ġcriminal": 8767,
      "Ġexecution": 8768,
      "ĠHen": 8769,
      "ĠParis": 8770,
      "extern": 8771,
      "ĠToday": 8772,
      "editor": 8773,
      "done": 8774,
      "Ġ$(\\": 8775,
      "Ġbtn": 8776,
      "Ġobservations": 8777,
      "REG": 8778,
      "auge": 8779,
      "Ġdesc": 8780,
      "Domain": 8781,
      "ĠMil": 8782,
      "fd": 8783,
      "Many": 8784,
      "Ġreduction": 8785,
      "oped": 8786,
      "Ġnarr": 8787,
      "Ġcontribution": 8788,
      "ĠSQL": 8789,
      "Ġliterature": 8790,
      "watch": 8791,
      "Play": 8792,
      "Ġanimal": 8793,
      "ĠFoot": 8794,
      "LOCK": 8795,
      "Product": 8796,
      "ĠNon": 8797,
      "duce": 8798,
      "Sharp": 8799,
      "Ġwinning": 8800,
      "library": 8801,
      "Ġloved": 8802,
      "herited": 8803,
      ".\");": 8804,
      "AU": 8805,
      "bits": 8806,
      "Ġgra": 8807,
      "Ġbrother": 8808,
      "zure": 8809,
      "Ġul": 8810,
      "Ġphotos": 8811,
      "Ġarbit": 8812,
      "Ġlab": 8813,
      "ellar": 8814,
      "article": 8815,
      "twitter": 8816,
      "ĠLOG": 8817,
      "Ġduration": 8818,
      "ĠSar": 8819,
      "Ġattacks": 8820,
      "ĠFact": 8821,
      "svg": 8822,
      "secut": 8823,
      "Ġlatter": 8824,
      "Ġbond": 8825,
      "tabs": 8826,
      "ĠJon": 8827,
      "Ġopinion": 8828,
      "tw": 8829,
      "&=": 8830,
      "possible": 8831,
      "Ġleaves": 8832,
      "tons": 8833,
      "INS": 8834,
      "Ġminim": 8835,
      "Ġcircum": 8836,
      "Ġdefinitely": 8837,
      "ĠConference": 8838,
      "Ġadvent": 8839,
      "Russ": 8840,
      "Named": 8841,
      "Ġvirus": 8842,
      "Route": 8843,
      "ĠRequest": 8844,
      "ĠInstagram": 8845,
      "ĠJob": 8846,
      "Ġmetric": 8847,
      "llegal": 8848,
      ">:": 8849,
      "Resources": 8850,
      "ressive": 8851,
      "Ġtrees": 8852,
      "Len": 8853,
      "Ġing": 8854,
      "ĠHospital": 8855,
      "ĠMS": 8856,
      "Ġglass": 8857,
      "Ġprepared": 8858,
      "ĠPop": 8859,
      "Î±": 8860,
      "decl": 8861,
      "poration": 8862,
      "ĠObama": 8863,
      "ĠÂ©": 8864,
      "Ġversions": 8865,
      "ĠÂ·": 8866,
      "andon": 8867,
      "Seg": 8868,
      "serial": 8869,
      "EV": 8870,
      "Delegate": 8871,
      "ih": 8872,
      "Ġhistorical": 8873,
      "ĠTri": 8874,
      "Ġenum": 8875,
      "Ġdisk": 8876,
      "Join": 8877,
      "ĠĠĠĠĠĠĠĠĠĠĠĠĠĠĠĠĠĠĠĠĠĠĠĠĠĠĠĠ": 8878,
      "blue": 8879,
      "Ġring": 8880,
      "ITION": 8881,
      "Ġconven": 8882,
      "Ġvalign": 8883,
      "omial": 8884,
      "ÑĮ": 8885,
      "rift": 8886,
      "Ġdialog": 8887,
      "Ġassets": 8888,
      "ĠØ": 8889,
      "CRE": 8890,
      "ĠFre": 8891,
      "![": 8892,
      "compl": 8893,
      "Wrapper": 8894,
      "Ġtells": 8895,
      "ĠLive": 8896,
      "Ġ'<": 8897,
      "shadow": 8898,
      "}\\\\": 8899,
      "ĠZeal": 8900,
      "Ġherself": 8901,
      "ova": 8902,
      "ĠFederal": 8903,
      "mac": 8904,
      "brid": 8905,
      "Ġusage": 8906,
      "Ġalle": 8907,
      "Ġsynt": 8908,
      "ĠCollection": 8909,
      "ĠStudies": 8910,
      "ĠHttp": 8911,
      "Ġimplemented": 8912,
      "Ġadvice": 8913,
      "Ġpieces": 8914,
      "Compar": 8915,
      "Ġconnections": 8916,
      "Ġpp": 8917,
      "tags": 8918,
      "ĠCarolina": 8919,
      "theme": 8920,
      "ĠPH": 8921,
      "Ġcollected": 8922,
      "ollowing": 8923,
      "water": 8924,
      "Ġcontrols": 8925,
      "ĠHas": 8926,
      "Ġtransparent": 8927,
      "ĠLim": 8928,
      "Ġinternet": 8929,
      "CF": 8930,
      "ĠBob": 8931,
      "Ġplants": 8932,
      "RT": 8933,
      "Ġimplies": 8934,
      "Ġstrategies": 8935,
      "Ġkid": 8936,
      "Ġintended": 8937,
      "Details": 8938,
      "Ġexperts": 8939,
      "ÙĦ": 8940,
      "alian": 8941,
      "Ġindicates": 8942,
      "Ġshares": 8943,
      "mann": 8944,
      "Ġ{{": 8945,
      "ĠJeff": 8946,
      "urer": 8947,
      "Ġ\"<": 8948,
      "Ġclassic": 8949,
      "Photo": 8950,
      "merce": 8951,
      "Ġcommitted": 8952,
      "Ġequations": 8953,
      "Ġstatements": 8954,
      "rawn": 8955,
      "Ġcompact": 8956,
      "Ġoccurred": 8957,
      "Ġresearchers": 8958,
      "Ġtimeout": 8959,
      "ĠAff": 8960,
      "Ġ],": 8961,
      "Ġsurg": 8962,
      "Ġafford": 8963,
      "ĠChange": 8964,
      "ĠVirginia": 8965,
      "Ġcitizens": 8966,
      "Ġloaded": 8967,
      "Ġwhatever": 8968,
      "anish": 8969,
      "Ġinstant": 8970,
      "Ġaccuracy": 8971,
      "PER": 8972,
      "Ġfacility": 8973,
      "=\"${": 8974,
      "Framework": 8975,
      "Ġfilled": 8976,
      "Ġcompute": 8977,
      "pa": 8978,
      "issue": 8979,
      "Ġvideos": 8980,
      "Ġforest": 8981,
      "ĠReact": 8982,
      "Ġ{\"": 8983,
      "iteral": 8984,
      "fly": 8985,
      "Ġtransformation": 8986,
      "Ġemph": 8987,
      "ĠSD": 8988,
      "Ġtensor": 8989,
      "ĠZealand": 8990,
      "ĠIreland": 8991,
      "ĠASSERT": 8992,
      "otted": 8993,
      "Ġguys": 8994,
      "Ġprivacy": 8995,
      "parser": 8996,
      "Ġrul": 8997,
      "Ġmovies": 8998,
      "je": 8999,
      "Tube": 9000,
      "Ġhealthy": 9001,
      "Ġheaders": 9002,
      "Ġcritic": 9003,
      "isc": 9004,
      "Ġdebut": 9005,
      "Ġplatforms": 9006,
      "1990": 9007,
      "cert": 9008,
      "ĠBow": 9009,
      "Ġexperienced": 9010,
      "Ġwitness": 9011,
      "enable": 9012,
      "ĠCath": 9013,
      "Ġcoast": 9014,
      "Ġconsidering": 9015,
      "Ġcandidates": 9016,
      "builder": 9017,
      "tex": 9018,
      "Ġreporting": 9019,
      "METH": 9020,
      "ĠScholar": 9021,
      "ierarch": 9022,
      "ĠFull": 9023,
      "Ġacknow": 9024,
      "Ġsummary": 9025,
      "ĠPakistan": 9026,
      "har": 9027,
      "Ġholding": 9028,
      "ifts": 9029,
      "evin": 9030,
      "Ġexcited": 9031,
      "Ġvent": 9032,
      "Ġsubstant": 9033,
      "since": 9034,
      "}}(": 9035,
      "ĠSand": 9036,
      "Ġrelationships": 9037,
      "Ġcontinuous": 9038,
      "emplates": 9039,
      "hem": 9040,
      "Enumer": 9041,
      "Ġperspective": 9042,
      "Ġcalculated": 9043,
      "ĠExper": 9044,
      "Ġyouth": 9045,
      "Ġtech": 9046,
      "BP": 9047,
      "Ġkeeping": 9048,
      "Sequence": 9049,
      "details": 9050,
      "Ġvary": 9051,
      "enabled": 9052,
      "Ġapproaches": 9053,
      "ENSE": 9054,
      "inant": 9055,
      "ĠCanadian": 9056,
      "Ġentries": 9057,
      "Ġgirls": 9058,
      "Ġphil": 9059,
      "Ġpatterns": 9060,
      "aus": 9061,
      "ĠSupp": 9062,
      "Ġreplaced": 9063,
      "eting": 9064,
      "Ġstudied": 9065,
      "ĠKim": 9066,
      "Ġignore": 9067,
      "Ġformed": 9068,
      "ĠWild": 9069,
      "TV": 9070,
      "napshot": 9071,
      "Ġexperimental": 9072,
      "Ġends": 9073,
      "Ġdeleg": 9074,
      "Ġnuclear": 9075,
      "ĠIE": 9076,
      "Ġfif": 9077,
      "Ġnut": 9078,
      "Ġ).": 9079,
      "JS": 9080,
      "aked": 9081,
      "Ġmanner": 9082,
      "ĠCloud": 9083,
      "Ġideal": 9084,
      "Ã§": 9085,
      "Watch": 9086,
      "Ġplanet": 9087,
      "blog": 9088,
      "game": 9089,
      "Ġchannels": 9090,
      "Ġui": 9091,
      "Ġpassion": 9092,
      "otten": 9093,
      "Ġproxy": 9094,
      "Ġwarning": 9095,
      "Please": 9096,
      "izz": 9097,
      "lix": 9098,
      "ĠKen": 9099,
      "EST": 9100,
      "Ġnavigation": 9101,
      "Ġlogger": 9102,
      "Ġgender": 9103,
      "=\"\"": 9104,
      "expect": 9105,
      "inity": 9106,
      "services": 9107,
      "Ġmotor": 9108,
      "abric": 9109,
      "Ġstable": 9110,
      "ĠEngineering": 9111,
      "ymmet": 9112,
      "History": 9113,
      "Ġapps": 9114,
      "alm": 9115,
      "Ġhaven": 9116,
      "Email": 9117,
      "ĠassertThat": 9118,
      "Ġ\"-": 9119,
      "ĠPolit": 9120,
      "execute": 9121,
      "Year": 9122,
      "ĠOnline": 9123,
      "Ġofficer": 9124,
      "Fin": 9125,
      "ĠAwards": 9126,
      "Ġ&\\": 9127,
      "Ġforeach": 9128,
      "Ġve": 9129,
      "Selection": 9130,
      "Ġangle": 9131,
      "Ġtmp": 9132,
      "Help": 9133,
      "irms": 9134,
      "Ġcrime": 9135,
      "kt": 9136,
      "ĠAcademy": 9137,
      "Ġbird": 9138,
      "Ġà¤": 9139,
      "called": 9140,
      "oston": 9141,
      "fx": 9142,
      "pred": 9143,
      "ighter": 9144,
      "Ġtransl": 9145,
      "bridge": 9146,
      "IMP": 9147,
      "Ġdepending": 9148,
      "=-": 9149,
      "mediate": 9150,
      "Ġpun": 9151,
      "Shape": 9152,
      "eval": 9153,
      "iples": 9154,
      "Every": 9155,
      "Ġspring": 9156,
      "pattern": 9157,
      "Ġaccounts": 9158,
      "ĠAssembly": 9159,
      "irror": 9160,
      "timeout": 9161,
      "coq": 9162,
      "Ġmechanism": 9163,
      "Ġcurve": 9164,
      "Ġprison": 9165,
      "Ġdict": 9166,
      "Ġtested": 9167,
      "initions": 9168,
      "Ġschedule": 9169,
      "Cons": 9170,
      "Ġnine": 9171,
      "dem": 9172,
      "ĠValid": 9173,
      "Ġcauses": 9174,
      "seud": 9175,
      "ariant": 9176,
      "Ġdocumentation": 9177,
      "UST": 9178,
      "Ġatmosph": 9179,
      "Day": 9180,
      "(@": 9181,
      "ĠPA": 9182,
      "oked": 9183,
      "athan": 9184,
      "Ġextend": 9185,
      "Ġbegins": 9186,
      "Ġfeels": 9187,
      "Ġexperiments": 9188,
      "opping": 9189,
      "METHOD": 9190,
      "ĠWalk": 9191,
      "agers": 9192,
      "Role": 9193,
      "Ġgrav": 9194,
      "rf": 9195,
      "itage": 9196,
      "]$": 9197,
      "letter": 9198,
      "Ġkick": 9199,
      "esome": 9200,
      "low": 9201,
      "ĠLight": 9202,
      "Ġdoubt": 9203,
      "Ġstrugg": 9204,
      "Ġmedium": 9205,
      "Ġrepresented": 9206,
      "ĠMO": 9207,
      "ULE": 9208,
      "âĤ¬": 9209,
      "ĠSeason": 9210,
      "Ġrect": 9211,
      "Ġsounds": 9212,
      "Admin": 9213,
      "VM": 9214,
      "jango": 9215,
      "News": 9216,
      "Ġcas": 9217,
      "ĠSep": 9218,
      "nn": 9219,
      "amental": 9220,
      "Agent": 9221,
      "Ġseed": 9222,
      "Ġcapture": 9223,
      "Ġefficiency": 9224,
      "users": 9225,
      "Password": 9226,
      "ĠUI": 9227,
      "awa": 9228,
      "vc": 9229,
      "Mer": 9230,
      "random": 9231,
      "mi": 9232,
      "Ġvulner": 9233,
      "Ġphotograph": 9234,
      "provider": 9235,
      "Â°": 9236,
      "Ġemergency": 9237,
      "cred": 9238,
      "ĠWall": 9239,
      "ĠMexico": 9240,
      "Ġmand": 9241,
      "ANT": 9242,
      "ĠJustice": 9243,
      "','": 9244,
      "Ġreaders": 9245,
      "Ġcompliance": 9246,
      "Ġinterpret": 9247,
      "ifndef": 9248,
      "ĠLook": 9249,
      "Ġrough": 9250,
      "ĠFilm": 9251,
      "Ġton": 9252,
      "Ñĭ": 9253,
      "ĠIran": 9254,
      "Ġsuggests": 9255,
      "Ð¼": 9256,
      "icious": 9257,
      "1997": 9258,
      "sys": 9259,
      "ĠAustralian": 9260,
      "{$": 9261,
      "azy": 9262,
      "110": 9263,
      "neg": 9264,
      "Ġcomplic": 9265,
      "Pi": 9266,
      "Ġmal": 9267,
      "Ġexecutive": 9268,
      "itivity": 9269,
      "Ġunderlying": 9270,
      "Ġ(@": 9271,
      "Ġscroll": 9272,
      "ĠAndrew": 9273,
      "Ġresolve": 9274,
      "ĠOnce": 9275,
      "Cam": 9276,
      "ĠOk": 9277,
      "rapped": 9278,
      "ĠDaniel": 9279,
      "invalid": 9280,
      "ĠCharles": 9281,
      "ĠANY": 9282,
      "Ġtelev": 9283,
      "Ġrevenue": 9284,
      "Ġelim": 9285,
      "Ġfaster": 9286,
      "yer": 9287,
      "Symfony": 9288,
      "Ġpriority": 9289,
      "wan": 9290,
      "Ġcompre": 9291,
      "inet": 9292,
      ".\",": 9293,
      "ĠÐ¿": 9294,
      "utely": 9295,
      "Ġpassing": 9296,
      "ĠVideo": 9297,
      "indexOf": 9298,
      "Ġtele": 9299,
      "gments": 9300,
      "Ġreceiving": 9301,
      "idents": 9302,
      "rat": 9303,
      "Ġliqu": 9304,
      "urable": 9305,
      "FP": 9306,
      "errors": 9307,
      "Ġsport": 9308,
      "Ġconsumers": 9309,
      "Ġ=========": 9310,
      "Ġcontents": 9311,
      "jQuery": 9312,
      "tenance": 9313,
      "ailability": 9314,
      "ĠWIT": 9315,
      "lights": 9316,
      "ĠJes": 9317,
      "MOD": 9318,
      "forward": 9319,
      "Ġeat": 9320,
      ">()": 9321,
      "ĠPenn": 9322,
      "VALUE": 9323,
      "Ġevaluation": 9324,
      "spirit": 9325,
      "Ġwinter": 9326,
      "Ġmoments": 9327,
      "RR": 9328,
      "Language": 9329,
      "loop": 9330,
      "Db": 9331,
      "Ġexplan": 9332,
      "ĠProduct": 9333,
      "('.": 9334,
      "ĠClin": 9335,
      "ĠForce": 9336,
      "Ġspecifically": 9337,
      "Ġinterval": 9338,
      "nodes": 9339,
      "generated": 9340,
      "ĠRoman": 9341,
      "ĠSenate": 9342,
      "Single": 9343,
      "ĠNAME": 9344,
      "ĠRepublican": 9345,
      "mathsf": 9346,
      "Ġinfin": 9347,
      "ĠWilliams": 9348,
      "Ġorient": 9349,
      "Ġpossibly": 9350,
      "shared": 9351,
      "async": 9352,
      "horizontal": 9353,
      "Ġhomes": 9354,
      "igate": 9355,
      "REE": 9356,
      "NC": 9357,
      "Execut": 9358,
      "undefined": 9359,
      "Ġfindings": 9360,
      "Ġcolumns": 9361,
      "Ġdisabled": 9362,
      "Ġhousing": 9363,
      "views": 9364,
      "usters": 9365,
      "ĠRoyal": 9366,
      "Ġindeed": 9367,
      "Ġpolitics": 9368,
      "ĠVictor": 9369,
      "3333": 9370,
      "Ġban": 9371,
      "Ġadvoc": 9372,
      "Ġsimpl": 9373,
      "Ġgap": 9374,
      "Ġcert": 9375,
      "external": 9376,
      "ĠOrder": 9377,
      "Ġplugin": 9378,
      "ĠPhot": 9379,
      "forcement": 9380,
      "Ġexistence": 9381,
      "Stats": 9382,
      "ĠLemma": 9383,
      "definition": 9384,
      "ĠGa": 9385,
      "ĠTrust": 9386,
      "SM": 9387,
      "Ġkm": 9388,
      "Ġmort": 9389,
      "Progress": 9390,
      "ÐµÐ½": 9391,
      "stein": 9392,
      "cceed": 9393,
      "ums": 9394,
      "PD": 9395,
      "Ġdenote": 9396,
      "Cloud": 9397,
      "Ġalert": 9398,
      "displayName": 9399,
      "Ġselector": 9400,
      "ĠNight": 9401,
      "åı": 9402,
      "burg": 9403,
      "Ġtherapy": 9404,
      "ĠComput": 9405,
      "Ġevening": 9406,
      "Ġfamiliar": 9407,
      "Ġexecute": 9408,
      "Ġdat": 9409,
      "ĠDocument": 9410,
      "Ġnumerous": 9411,
      "Ġconfidence": 9412,
      "GA": 9413,
      "ĠRam": 9414,
      "temp": 9415,
      "lywood": 9416,
      "ĠFROM": 9417,
      "loss": 9418,
      "Ġofficers": 9419,
      "ĉĉĉĉĉĉĉĉĉ": 9420,
      "Ġtypical": 9421,
      "Children": 9422,
      "Ġlose": 9423,
      "}},": 9424,
      "ĠPhoto": 9425,
      "ĠMot": 9426,
      "Ġterror": 9427,
      "hemat": 9428,
      "istence": 9429,
      "Selected": 9430,
      "Ġtor": 9431,
      "original": 9432,
      "Ġoccurs": 9433,
      "ĠMD": 9434,
      "Ġcontained": 9435,
      "Ġrepeated": 9436,
      ".<": 9437,
      "prene": 9438,
      "Ġongoing": 9439,
      "Ġacademic": 9440,
      "ĠIss": 9441,
      "ĠCred": 9442,
      "Ġpri": 9443,
      "Ġfunctional": 9444,
      "Ġsupposed": 9445,
      "Ġinstances": 9446,
      "Ġthick": 9447,
      "Ġscientific": 9448,
      "Ġinvestors": 9449,
      "orship": 9450,
      "dialog": 9451,
      "king": 9452,
      "Ġlib": 9453,
      "Ġrecovery": 9454,
      "ummy": 9455,
      "typename": 9456,
      "Ġconvention": 9457,
      "sid": 9458,
      "Ġdiscovered": 9459,
      "ĠLuc": 9460,
      "Ġfee": 9461,
      "detail": 9462,
      "Ġbra": 9463,
      "Ġusual": 9464,
      "PY": 9465,
      "FORM": 9466,
      "ĠIslam": 9467,
      "Ġhearing": 9468,
      "Ġdefe": 9469,
      "ĠMen": 9470,
      "Ġtx": 9471,
      "oval": 9472,
      "ĠKar": 9473,
      "Begin": 9474,
      "cluster": 9475,
      "Ġ(+": 9476,
      "Ġemission": 9477,
      "selector": 9478,
      "Ġconsists": 9479,
      "Ġrgba": 9480,
      "QU": 9481,
      "Ġcaught": 9482,
      "Ġlimits": 9483,
      "TEXT": 9484,
      "Ġanimation": 9485,
      "INTER": 9486,
      "Ġfre": 9487,
      "lan": 9488,
      "ugs": 9489,
      "Bound": 9490,
      ")+": 9491,
      "à¸": 9492,
      "fi": 9493,
      "Ġeq": 9494,
      "ĠCovid": 9495,
      "ĠNiger": 9496,
      "gorithms": 9497,
      "Ġclim": 9498,
      "required": 9499,
      "Ġrecip": 9500,
      "Ġelectron": 9501,
      "ĠJac": 9502,
      "roduction": 9503,
      "Ġapproved": 9504,
      "****************************************************************": 9505,
      "Ġthreshold": 9506,
      "testing": 9507,
      "Ġarchitecture": 9508,
      "Ġlinked": 9509,
      "Endpoint": 9510,
[...]
