#version: 0.2
Ġ Ġ
ĠĠ ĠĠ
i n
e r
o n
Ġ t
ĠĠ Ġ
r e
a t
ĠĠĠĠ ĠĠĠĠ
a n
h e
s t
e n
o r
a l
a r
l e
i on
Ġ c
i t
s e
Ġt he
e s
Ġ a
i s
Ġ f
r o
ĠĠĠĠ ĠĠĠ
i c
d e
in g
Ġ o
c t
Ġ p
e d
a s
a m
Ġ w
Ġ s
e t
Ġ in
Ġ =
Ġ b
u r
en t
ĉ ĉ
< /
an d
= "
u n
Ġo f
) ;
u t
Ġ m
Ġ n
Ġ re
c e
i l
Ġ (
o m
- -
Ġ <
Ġ {
l o
i d
at ion
Ġt o
ĠĠĠĠĠĠĠĠ ĠĠĠ
i m
o l
Ġ and
u l
a g
i g
Ġ h
e l
/ /
Ġ S
Ġ d
i f
e x
i v
Ġ *
a d
o t
Ġt h
č Ċ
a c
t r
p e
Ġ C
Ġ T
at e
u e
Ġ v
as s
Ġ A
" >
Ġ }
e m
p t
t h
am e
a b
u m
l i
c h
Ġ "
u s
a y
Ġ st
l ass
ĠĠĠĠĠĠĠĠ ĠĠĠĠĠĠĠĠ
a p
Ġ $
ct ion
I n
( )
er s
h t
ĠĠĠĠ Ġ
u b
Ġ is
Ġ g
ag e
* *
t er
Ġ M
Ġf or
o de
Ġ l
ur n
on t
e w
i st
a v
s p
Ġ P
r i
al l
o d
i r
or t
Ġ se
es s
en d
= =
it h
-- --
u p
y pe
s s
t urn
q u
Ġc lass
Ġ B
ex t
Ġ de
v er
e ct
Ġ \
e st
Ġ R
o w
o ur
Ġ on
Ġ '
. .
Ġ D
0 0
Ġb e
g et
Ġ e
in e
o c
Ġ L
ĠĠĠĠĠĠĠĠ ĠĠĠĠĠĠĠ
o p
l ic
Ġ F
Ġ N
Ġ if
Ġ H
ab le
m ent
a in
Ġc on
i z
l y
ar t
p ort
a se
Ġ I
ac k
i le
ul t
ro m
- >
pt ion
Ġ G
o un
1 9
Ġ //
Ġ E
er t
re f
an s
lo c
st r
ĉĉ ĉĉ
Ġ </
Ġw ith
Ġre turn
at a
Ġth is
k e
it y
at h
Ġp ro
: :
om p
.. /
Ġa s
o re
al ue
u re
in t
an g
ĠT he
Ġ W
R e
Ġ an
c on
Ġth at
Ġ r
d er
our ce
ig ht
Ġw as
Ġ or
or m
Ġ &
Ġb y
2 0
j ect
Ġ O
o s
Ġw h
Ġ @
Ġt r
u se
Ġ ex
ub lic
Ġ it
" ,
m l
se t
Ġ [
( "
p l
f f
Ġ al
a ct
un ction
o ut
ar am
â Ģ
i al
( );
a ce
iv e
S t
ar y
Ġ -
ess age
er e
Ġ at
i es
Ġ Ċ
> </
re s
d iv
p ro
u g
b er
sp an
Ġf rom
Ġ /
re n
i p
t o
an t
) ,
tr ing
a st
Ġ J
i re
> <
i b
Ġ U
c ri
---- ----
l f
Ġ +
' ,
ul l
ig n
E x
o o
) .
at ed
im e
Ġn ew
../ ../
c l
v e
il l
in d
iz e
Ġc h
it ion
** **
Ġ In
p er
Ġ* /
e g
ic e
d d
s ource
c om
it e
Ġ |
ĉĉ ĉ
Ġ un
b ject
== ==
im port
Ġ he
s er
ht ml
ĠĠĠĠĠĠĠĠ ĠĠĠĠĠĠĠĠĠĠĠ
Ġh ref
Ġ .
Ġn ame
q ue
ar g
_ {
ar d
f orm
ro w
Ġa re
p ut
Ġ :
' s
Ġ y
an ce
( '
Ġn ot
Ġp ublic
or d
ĠĠĠĠĠĠĠĠ Ġ
n ame
v ent
or y
r or
th is
lo w
on g
i a
m essage
c c
N ame
o st
u st
i o
le t
o id
s h
l l
Ġ V
f ig
a k
P ro
f t
i el
Ġ j
Ġf unction
c ode
Ġst r
Ġc ont
u d
or k
Ġs h
m a
) )
tr ans
i de
T ype
i ew
Ġ K
a re
p h
Ġ= >
iel d
E R
on e
t p
t d
l ation
in k
le ment
S tring
Ġ _
oun t
20 1
I d
r a
f er
p aram
en c
Ġ #
r ay
ic h
al se
T he
p p
O N
il d
ren t
am p
Ġt ype
e c
de x
Ġc om
re ss
de f
lo g
C on
c he
a il
re turn
en er
Ġ le
Ġde f
Ġc omp
en s
o g
et h
ke y
/ >
I N
Ġin t
at or
Ġw e
av e
Ġv ar
Ġp l
at ic
que st
s o
en ce
ter n
Ġre s
C ont
c ont
loc k
u ct
c ol
" />
c k
le s
Ġv alue
cri pt
ĠS t
2 00
E n
# #
Ġse t
Ġg et
g e
ro up
D e
de d
r iv
trans lation
Ġ !
ac h
âĢ ĵ
{ \
v ice
ow n
t ype
le ct
o ol
un d
i an
r y
he n
ode l
L ist
li st
in al
Ġ| |
ap p
y st
o ul
el l
R es
eth od
R E
en g
p ert
f o
ac he
Ġ use
ir st
Ġse lf
ĠT h
Ġ= =
ad d
at ch
1 0
a ult
i x
Ġ k
ce ption
um ent
ation s
o v
re e
oul d
t ext
er y
yst em
c re
_ _
it le
e ar
oun d
e p
Ġcon st
all y
Ġn ull
Ġl ine
am es
Ġ$ \
a x
v al
th er
Ġv oid
ab el
T o
ut e
1 8
is h
Ġwh ich
: //
c lass
o b
pe c
"> <
S T
Ġh as
Ġ el
ic al
Ġ ar
y n
o ver
ĠC h
Ġc an
o int
r it
m ath
b o
Ġd o
c al
ers ion
w e
Ġ id
f r
C h
ic t
Ġd ata
p r
r ap
A T
) );
n e
Ġf alse
ar k
str ing
ht tp
// //
Ġh is
Ġ i
Ġ us
" );
um ber
ĠĠĠĠĠĠĠĠĠĠĠĠĠĠĠĠ ĠĠĠĠĠĠĠ
ĠĠĠĠĠĠĠĠ ĠĠĠĠĠ
ad er
A r
Ġ `
l ine
pe ct
v ar
o u
se d
i e
-------- --------
O R
at es
Ġc ol
s um
ang e
loc ation
**** ****
Ġ er
m er
} ,
Ġ >
riv ate
se s
tr ib
Ġ im
se lf
L E
Ġs er
d u
le d
t e
V alue
ing s
Ġ ro
oc k
av a
d ata
h er
Ġa ss
) :
j s
id th
qu al
Ġtr ue
t em
} }
1 2
D ata
S er
Ġo ut
Ġh ave
m in
t on
ption s
e y
I D
u al
Ġ )
A R
c o
n b
T r
Ġ end
C ol
l d
b ack
li ent
b r
f ile
Ġel se
ĠU n
p x
Ġ all
y le
cl u
eng th
ur rent
m s
as k
an n
" )
p re
om e
v alue
Ġd is
Ġ up
Ġ/ **
1 6
or g
if i
S et
pert y
ion s
E N
Ġal so
nb sp
A L
ar ch
r ight
==== ====
u le
Ġstr ing
Ġw ere
ic s
u ff
is s
Ex ception
on se
] ;
ĠĠĠĠ ĠĠ
ĠĠĠĠĠĠĠĠĠĠĠĠĠĠĠĠ ĠĠĠĠĠĠĠĠĠĠĠĠĠĠĠĠ
Ġ --
re ad
r ror
( $
a w
em ber
at er
f ter
^ {
Ġp art
Ġ& &
Ġres ult
he d
ic k
Ġor g
d ate
ar get
Ġ// /
T h
tern al
ro id
Ġp er
S S
Ġst atic
p ace
if ic
Ġa b
an ag
o f
es cri
O bject
a ke
le ction
Ġw ill
st ance
ol d
T est
Ġ Y
y m
Ġon e
Ġa dd
Ġb ut
Ġv al
} $
qu ire
o ve
b ar
Ġf irst
ĠS tring
C omp
at ure
it em
y p
u es
as h
} \
Ġf ile
A n
() .
ĠA r
m ary
Ġ lo
ire ct
t est
Ġ! =
c omp
t a
S e
Ġp re
' )
cc ess
w o
oo k
ent s
E rror
Ġt est
c ess
c a
U n
n ew
() );
r c
s ize
G et
clu de
os ition
' ]
at us
Ġ en
ĠR e
t he
ĠA n
ug h
g r
con d
ĉĉĉĉ ĉ
D E
Ġ %
m and
et a
Ġo ver
b e
eg in
Ġc re
at ive
. _
. </
Ġ x
u ch
p ublic
t il
u ild
l ink
c es
ĠH e
C T
a ction
Ġp rivate
s cript
K ey
Ġc ase
v iew
re am
ĠĠĠĠ Ċ
w ork
n av
is hed
l abel
rap h
A t
m on
c ent
or s
ut h
"> </
Ġt ime
V iew
s ub
od y
qu ot
3 2
" ;
u il
f ore
p s
1 5
ĠI t
Ġpl ay
pl ay
Ġf inal
Ġw hen
F ile
S E
an y
le an
ĠTh is
ag es
19 9
in s
[ '
le ft
Ġf il
o k
Ġa d
a rent
M E
Ġs up
in dex
Ġin ter
ro und
i se
ĠD e
um n
l ay
b egin
m od
ut il
Ġa pp
1 1
g le
ro ll
he ck
f unction
I T
I m
b ut
Ġo ther
Ġs ub
sum mary
( \
enc es
l er
Ġa p
or der
oc ument
n ot
Ġtr ans
ation al
Ġs pec
p end
' );
aram et
ur l
E vent
v el
! --
f ace
Ġw ork
=" ../../
() ,
Ġ list
2 5
o ot
y s
id er
Ġp r
str uct
=" +
Ġit s
Ġs o
ind ow
Ġfor m
Ġ key
Ġthe ir
Ġwh o
ig h
n er
s on
uff er
in ed
Ġ li
w w
Ġ âĢĵ
Ġre g
Ġh ad
Ġo bject
p ar
lo ad
Ġt itle
it ed
C O
g er
t s
Ġ/ >
B y
Ġa g
Q u
f or
loc al
d is
Ġc o
k en
Ġt e
it s
ul ar
A N
er m
Ġn e
t op
l ang
] ,
ĠE n
ĠC on
ĠP ro
ase d
Ġy ou
let e
U L
ack age
t ime
Ġc l
us er
f in
Re fer
Ġt wo
Ġm e
H e
n ing
con st
ĠS e
g roup
" :
p o
1 4
p ath
Ġuse d
Ġon ly
St ate
Ġa ct
1 7
amp le
r ite
C lass
1 00
el y
T ime
in ter
re d
T ext
at ing
ic on
f ield
l and
ib le
on ent
Ġch ar
p en
S h
Re quest
v oid
Ġ );
res ent
m d
ol low
if y
Ġm ethod
t able
Ġ ?
N ode
} )
t tp
_{ \
1 3
Ġbe en
In fo
E lement
ur ation
C om
anag er
Ġof f
Ġn umber
Ġb ack
er n
Ġer ror
ro l
m e
Ġan y
' :
I ON
Ġn o
ames pace
ĠE x
Ġo b
s c
u i
Ġ em
/ *
/ **
I tem
} {
Ġre m
P ath
trib ute
iz ed
ri de
oo lean
Ġe vent
Ġs c
ic es
In dex
() )
` `
Ġin to
is ion
con fig
ic an
Ġm ore
re g
6 4
Con fig
Ġ ent
Ġ-- >
Ġre c
F ield
g round
R O
col or
âĢ Ļ
P E
] .
v ed
Ġass ert
Ġex p
Ġ arg
In t
Cont ext
M ap
op le
ain er
b y
c ed
//// ////
escri ption
a de
Ġth row
l ength
ut ion
L A
Ġa fter
" "
an k
A dd
N ot
w idth
ot t
un c
ĠĠĠĠĠĠĠĠĠĠĠĠĠĠĠĠ ĠĠĠĠĠĠĠĠĠĠĠ
a z
Ġc all
T E
O n
Ġm od
m p
m it
Ġ qu
d t
w ard
op y
Ġh er
Ġp e
w ay
Ġ( !
T R
o use
Ġre l
Ġy ear
ĠN ew
uil der
ap i
io us
in ce
Ġst ate
' ;
ra w
Ġun der
d a
Ar ray
lo b
e q
$ .
tr y
Ġthe n
or n
= '
19 8
Ser vice
re ak
Ġ/ *
o x
Ġst art
F orm
Ġwh ere
Ġ ext
Ġf ollow
C ode
ect or
w ord
ap ache
b lock
it ies
Ġ} );
ifi ed
ist s
Ġg ener
Ġthe y
oo gle
ur ing
Ġar ray
O ver
tr ue
t itle
Ġf ield
il ity
o bject
in clude
at t
o us
sp onse
C E
http s
F or
Ġth ere
fr ac
f l
E qual
ĠT r
## ##
3 0
P I
A s
on d
us h
Ġre quest
ĠA l
as on
******** ********
n ode
m ap
S ize
m odel
Ġs p
Ġb et
ign ed
a ir
Ġdef ault
in put
er ror
res ult
Ġd ist
ect ed
Ġ} ,
Ġd es
pt y
\ \
Ġc urrent
re m
ist er
c ite
} ;
iv ers
Ġin st
2 2
Ġo per
$ ,
W ith
Ġs ize
[ ]
="../../ ../../
Ġpro v
ce pt
Refer ences
val id
lo se
yp es
it ial
yn c
v ersion
U R
M essage
il y
5 0
l t
O r
W e
cre ate
ĠW e
i ent
ĠS h
r m
ment s
n o
we en
ass ert
and ler
Res ult
Ġr un
se arch
r ame
Ġm ay
im es
as ses
en u
en se
pl ate
ain s
e qu
Ġp ol
iz ation
bo x
f e
n ext
> &
Ġsh ould
et urn
or ld
il ter
g t
f rom
Ġf e
ĠG et
Ġj ava
w h
Ġs rc
m y
Ġre quire
def ault
ut o
Ġm odel
lo at
o od
ne ction
Ġ âĢ
al s
m an
mer ican
+ +
19 7
} .
ot h
3 3
able d
Ġp ar
b ody
Ġl ink
enc y
; &
Ġre p
n et
Ġex pect
A l
ate g
j ava
b ase
V al
b f
Ġ= ==
Ġd if
v en
Ġc al
p i
Ġe lement
oc i
Ġim p
Ġin v
Ġer r
F F
it or
Ġ X
n own
it er
O f
t n
lic ation
Ġ Z
i k
in fo
Ġt ext
and roid
Ġcont ent
u ccess
m all
m b
U p
Ġth an
2 4
Ġ ed
Ġm in
st art
U T
w n
ĠI f
cont ent
port s
ag s
L O
2 1
Ġus ing
am b
ĠL e
ĉĉĉĉ ĉĉ
p onse
ir t
c ss
b all
L e
ver t
C H
le m
Ã ©
Ġg roup
co pe
M anager
Ġus er
M odel
ain t
are d
ar ray
ĠC ol
Ġg r
---------------- ----------------
ro p
m ed
and le
L oc
A pp
b ug
Ġsh ow
Ġt arget
se ction
ro ugh
U ser
Ġ_ _
ch ool
Ġcon fig
Ġab out
Ġ u
Ġs ome
st ate
Ġg iv
IN G
ĠS ystem
Qu ery
id ent
L og
r on
Col or
M L
Ġs uch
Ġbet ween
Ġd irect
p art
Ġa cc
Ġl ong
re ate
at s
ust om
a j
u f
S ystem
De f
cl ud
e vent
ĠA s
ub le
in es
Ġ Q
Ġw ould
.. .
u c
Ġ log
Ġ import
A D
Ġp h
cont ext
Ġp o
p ackage
a pt
t ings
Ġ: =
Ġ} ;
ress ion
a h
en ame
l ish
ens ion
UL L
Ġv ersion
; </
ph a
ff set
Ġs he
C K
00 0
=" ../
im p
roll er
an e
ot e
b b
le ar
ĠĠĠĠĠĠĠĠ ĠĠ
or re
ot her
L I
act ory
ĠC om
ve lo
Ġcon s
n amespace
lect ed
Ġ z
I s
ĠJ o
M A
def ine
' t
T able
uth or
O ut
=" #
T D
p oint
b ers
Ġ est
Ġp oint
ar s
he ad
le g
d b
ĠF or
m ethod
o ption
ut es
Ġre ad
we b
pert ies
ith ub
4 0
Ġst yle
f alse
Ġc ode
Pro perty
C lient
a it
Ġwh ile
Ġe ach
ma x
G roup
ers on
Ġc ent
Res ponse
le x
pro t
c ur
id d
Ġf l
Ġpe ople
d uct
n g
Ġs ystem
t ing
al e
Ġb ase
i er
======== ========
t en
r ic
c ore
Tr ans
In ter
sh ip
aramet er
Ġh ttp
Ġc heck
out h
st atic
ant s
d oc
p os
form ation
< !--
Ġn ode
ott om
Ġb ool
Ġ local
w it
math cal
c ount
g ithub
E T
d o
> (
Ġstr uct
od es
D O
F I
li b
t t
equ ation
Ar g
Ġand roid
g oogle
Over ride
c all
Ġp ath
end s
Ġn il
ow er
) </
um er
lob al
Ġcre ate
Ġst d
ĠS et
ivers ity
i able
Ġin put
ĠĠĠĠĠĠĠĠ ĠĠĠĠ
C all
C ount
M ethod
che ck
Ġb lock
ser v
Ġin dex
em ent
Ġf ound
Re g
on s
E D
gr am
Ġcont ext
Ġse cond
us ing
Ġin stance
Ġthe m
Ġs ame
Ġpro t
d own
B uilder
b ol
Ġbe fore
Ġit em
, \
B e
Ġth rough
" .
r an
Ġr ight
19 6
ifi er
l p
arg in
D is
n ull
pr int
er r
EN T
ur y
Ġa c
Ġt em
F rom
ann el
t es
Ġ( )
Ġw rit
) $
Ġs ing
U til
ff ect
ĠĠĠĠĠĠĠĠĠĠĠĠĠĠĠĠ ĠĠĠĠĠĠĠĠĠĠĠĠĠĠĠ
im it
M P
al ign
at ri
ile d
M od
Ġm ost
D ate
e k
A B
ĠĠ Ċ
ist ory
D I
U N
but ton
2 3
Ġm em
ĠO n
Ġst ud
Ġgiv en
m iss
Ġag ain
] (
c lient
if e
Ġb reak
o ptions
Ġdif fer
or th
s k
le ase
A ction
} (
end er
. "
Ġo ptions
cal e
s up
ific ation
o se
our ces
T H
pl ace
A ME
q l
Â ł
de pend
b l
m un
ar n
Ġa m
eg er
qu ery
r ag
f ul
St ream
if t
C l
u ary
st yle
~ \
am ily
Ġfollow ing
ail s
u age
iv ed
ĠA merican
ww w
ain ing
B ar
ph p
ym bol
e ver
r u
a i
i ed
fin ished
al pha
ure s
en e
irt ual
Ġsup port
o ugh
c urrent
] )
re quest
Ġval ues
Ġb uild
Ġy our
Ġor der
A ll
d ir
L o
aramet ers
Ġm ax
Ġm essage
Ġb order
Ġs ign
} ^
ĠĠĠĠĠĠĠĠĠĠĠĠĠĠĠĠ Ġ
d l
r un
Ex ternal
arg s
j av
In put
ast er
r id
lic k
et er
P l
ref er
Ġn on
B lock
iv er
l ished
ain ed
Ġ art
et work
ĠL ist
p an
ac es
} _
add ing
ĠS er
ĠI s
Ġcol or
un finished
St atus
Ġd ocument
aram s
Ġin clud
Im age
Ġ< <
Ġlink s
over n
Ġthe se
im age
Ġd uring
o in
velo p
Ġb oolean
ON T
Ġle ft
ist r
che ma
Ġs ol
Ġl ast
c ord
Ġl arg
Ġm ed
O T
( (
Ġp osition
t ab
ĠN ULL
Ġch ild
P ar
ir c
Ġor ig
00 00
f unc
Ġ ->
S I
Ġw idth
is m
N ew
und le
Ġpro du
Ġg o
he ight
Ð °
e lement
L ay
Ġtr y
2 7
s ide
ĠĠĠĠĠĠĠĠ Ċ
G ener
ĠR es
Ġback ground
ath er
orm al
Comp onent
En d
N av
Ġyear s
a f
ĠUn ited
he ader
B ase
To ken
Ġm et
at ab
Ġ let
Y PE
In stance
h as
Ġf in
w ith
Ġh im
Ġbe ing
b tn
S C
Ġdo es
t x
n ow
Ġs ource
ĠC omp
a pe
Re f
N ull
Ġre fer
2 8
S ub
ĠA ss
6 0
amb da
U E
ĠUn iversity
D es
c d
Ġm ust
Ġb oth
Ex p
S tr
Ġw ell
h n
Ġt able
At tribute
Th is
Ġre sponse
Ð ¾
ser ver
Ġre f
ad i
m et
H andler
Ġm ake
Ġth ree
t arget
Ġp op
Ġne ed
Res ource
ol der
app end
ĠĠĠĠĠĠĠĠ ĠĠĠĠĊ
L ine
Ġ" ""
B uffer
ay s
Ġal low
nav bar
Ġper form
( {
pro perty
Ġ+ =
[ "
6 6
ch o
am ed
Cont ent
ĠS c
act er
U I
che s
R I
se e
Ġto p
a use
ug in
O ptions
Ġ ,
in it
le ss
Ġc orre
19 4
fr ame
Ġo pen
p arent
t ic
Ġbe g
Ġh igh
Ġm ap
p age
l ight
ad ata
js on
atri x
8 0
Ġn ext
Ġte am
ri but
b ed
um e
se mb
9 9
se lect
Ġo ur
ict ion
Ġp ass
id get
x ml
Com mand
in a
tr act
E d
R un
ug ht
l ing
cent er
ic y
Ġv iew
Ġde c
y les
c ast
u x
= \
Ġpro cess
S ource
atab ase
on y
u les
A ct
us ic
us s
oot ball
Ġre ce
V ersion
Ġcont in
ĠO r
v ider
ess ion
ition s
an sp
n s
E X
L ink
w are
Ġs ur
ĉ Ċ
Ġ( $
b s
Def ault
Ġ Ð
ix ed
2 6
Ġm on
o y
N S
r l
Ġm ade
Ġout put
ur al
v ious
5 5
de l
Ġat t
F actory
act ive
e qual
An d
ur s
he et
ro ss
ĠĠĠĠĠĠĠĠ ĠĠĠĠĠĠ
re at
u ck
b uild
ch ild
ul ation
Ġn ow
2 9
n ect
p lo
Ġcal led
rit er
ĠEn g
Ġv is
S P
h o
d ic
log y
a id
iv ity
Ġm atch
) \
ic ense
g raph
ĠM ar
def ined
) {
H el
r al
ĠC l
u ction
Ġa ction
row s
i or
am ma
St art
c ase
F A
Ġpro b
Ġpro perty
Ġdiffer ent
b ottom
ow ever
ang ed
b um
re t
RE F
p or
ot s
u k
s rc
W indow
LA SS
ĠA t
d om
ut ton
r am
P h
ide d
F unction
O per
Ð µ
mod ule
Ġf ind
* /
P oint
Ġf a
st atus
ar m
p rivate
ic a
S c
r ing
p tr
v ices
T O
ail able
ĉĉĉĉ ĉĉĉĉ
ss ion
m ember
ater ial
x y
ial og
C ell
Ġc oun
wit ch
//////// ////////
Ġm any
F rame
m eta
U S
Ġs im
AT E
p y
Ġ$ (
or age
Ġpart ic
s w
im g
w rite
u ally
Ġap pro
lay out
trib utes
Ġm ain
ult ip
3 4
Ġm ov
ir on
Ġl ater
ĠO bject
E E
ad ing
Ġre t
N o
$ {
f irst
Form at
" ]
} );
Ġrec ord
Ġcom mand
row ser
in ation
ide o
Ġplay ers
Ġse ason
Ġre source
p ush
T ask
as cript
// /
m u
le y
op en
ch ar
ĠT est
âĢ Ŀ
N umber
che d
e e
s g
d escription
Ġpro ject
Tr ue
P r
iv es
ĠSt ates
L abel
Ġfe ature
P T
Ġde t
A ss
ition al
Ġ{ @
Ġthrow s
E L
3 9
h at
Ġ\ \
Ġm y
ument s
Ġser vice
sp ace
ĠN one
ca use
ar ly
Ġc lient
eg a
P age
Ġa v
c y
O L
cre en
Ġk nown
re quire
Ġd escri
Ġc ount
str uction
ust er
F ONT
Ġval id
o pt
ĠP h
} _{
ig ma
Ġle vel
imp le
ent ial
l ast
ĠIn d
form at
Ġe ver
Ġp arent
C reate
p ost
at tern
Ġin formation
H T
le v
Ġb ro
c lose
m ark
p c
d es
i um
iv ing
ateg ory
Ġli ke
Ġimp lement
iz er
s igned
19 5
Ġfil m
f low
end if
F l
Ġj ust
Ġap pe
ĠS he
s l
p osition
Ġbe cause
str ong
Ġrep resent
ob j
Ġinclud ing
Ġs ince
_ \
m o
Ġdis play
ĠR eturn
b it
B undle
R eturn
V ER
ot ype
i que
Ġprot ected
Cont roller
m em
R ow
f ind
C heck
A G
Ġm an
math bb
ĠR eg
g ress
} ^{
Ġde velop
g ener
B utton
Ġb l
ir d
p ack
Ġo wn
Ġim age
et s
Ġresult s
f ont
om en
id es
0 1
lo ud
if act
jav ascript
St yle
Ġin itial
u str
Ġ< !--
( &
Equal s
Ġp age
Ġex ec
S ON
P art
N O
pro ject
ĠP r
Ġc ould
201 6
Ġl ang
cont ainer
al let
s pec
il er
$ \
Ġb ased
v ol
v iron
p ng
oc ol
ore d
in c
ĠP ar
er o
Ġ loc
l en
Ġm ark
Ġm argin
List ener
Ġs uccess
ser vice
Ġ url
v is
oc us
t al
h ost
st d
re sponse
ĠC o
3 5
dis play
th s
ab ility
Ġhe ight
n um
m enu
C ache
Ġsup er
- \
AB LE
Ġ( (
f ilter
" ).
param s
up date
at tr
En t
Ġadd ress
Ġf our
Ġl abel
Ġ enc
un e
s ing
ĠC ount
ĠM ay
Ġext ends
Ġo p
P re
ep s
op er
ar i
Val id
ag ue
com mon
ĠC an
ff ic
Ġagain st
b uf
in st
ent ry
Ġser ies
ire d
201 5
ann ot
im ation
st ream
read y
7 5
Ġs mall
it u
so le
Ð ¸
F ilter
Ġdis c
Col umn
l in
M et
B ox
u ro
al t
Ġ low
u id
ang le
ĠA dd
ur ch
ear ch
om et
P ol
Ġp ost
r s
Ġd own
ar ri
tr a
Ġf ont
semb ly
il li
Ġpl ace
Ġsing le
< ?
c er
p ol
rem ove
ig ation
Ġre n
Ch ild
ex p
Ġid ent
ad ers
ĠC ont
i ag
and ard
T I
S pec
A d
P RO
ĠJo hn
Ġ{ \
uil t
Ġin clude
Ġf ootball
ĠA d
and om
IN T
Ġun til
Ġs chool
it al
ĠH REF
M ode
" ),
un k
L ength
UR L
ĠC LASS
Lay out
ĠW orld
g y
: </
Ġal bum
ock et
Ġrequire d
og raph
Ġa ut
A P
i od
Ġr ange
`` `
Ġn um
Col lection
ĠI N
p m
st yles
Ġp resent
ĠĠĠĠĠĠĠĠĠĠĠĠĠĠĠĠ ĠĠĠĠĠĠĠĠĠĠĠĠĠĠĠĠĠĠĠ
Ġo cc
T em
Ġest ab
ang es
ref ix
Ġa uto
201 4
se c
Ġse e
D el
^ {\
ĠI m
ure d
Ġ ]
U rl
Ġpr int
ar ning
s ol
Ġe qu
b eta
iv ely
i ence
ph i
am l
P O
i ally
struct or
l ambda
Ġex ample
ad o
tern ational
Ġl ength
m t
is on
im ary
L ast
_ .
Ġpro gram
A S
Ġp res
ĠJ an
Ġp ub
a u
G L
Ġo pt
ĠN ational
al y
at form
ĠP l
ĠF e
3 6
ator s
a e
201 7
im um
M O
miss ion
com e
ĠâĢ ľ
Ex t
A C
Ġcons ider
de v
o ke
d f
pect ed
Ch ar
r t
N AME
Ġcol umn
Ñ Ĥ
o le
to ol
v es
lect or
bo ard
I L
. ,
an ces
c ache
Out put
in stance
E S
Ġb ir
Ġm at
9 0
b in
sp ond
Ġal ign
or ies
Ġex ist
Re ad
ER R
Ġ! ==
overn ment
Ġp ort
it t
M em
ak ing
ot o
Ser ver
ic ro
U M
CO L
ĠAn d
Ġexpect ed
ar row
al th
' ).
Ġa ccess
4 5
t ag
k it
c ame
str act
res h
D et
od ing
sh ow
lo t
math bf
ĠB e
="../../../../ ../
l s
D o
F irst
ĠA ll
3 7
> >
qu ence
idd en
Ġc atch
Ġbe came
Ġwith in
o ffset
Ã ¡
ĠIn t
C ON
T YPE
g o
B ack
S up
port ed
plo y
Ġcon d
We b
++ )
~ ~
3 8
ib ility
el s
ak es
fo ot
Ġh and
viron ment
Pro vider
ig ger
ĠG ener
ĠW ar
d ay
z e
el se
Ġcall back
Ġo ption
on ents
Up date
Ġmod ule
D B
O b
app ing
Ġ[ ]
ĠC al
ĠC ar
3 1
b ook
ĠG e
201 3
Ġspec ified
Ġde pend
Ġup date
O ffset
s cri
n umber
Ġe ffect
201 0
refer ence
yn am
as ic
util s
Ġse ver
par se
aj or
Add ress
set s
Ġd id
Ġever y
s m
I G
Ġcon f
Ġc r
Ġcom mun
ĠY ork
201 1
Ġwh at
ĠT e
ĠT o
Ġf amily
ĠE X
ex ec
ĠAr ray
out put
**************** ****************
de t
ĠA PI
Ġch ange
col umn
Ent ity
al k
um b
ĠCount y
Ġp rom
amp les
Ġwith out
en n
W idth
d at
Ġs k
il on
Ġt er
ĠSt ate
ward s
Ġst atus
ĠB rit
Ġh ere
r ist
ĠJ ul
Ġt ri
ass word
g ing
T ypes
Ġc are
w rap
C C
l a
M S
R em
Ġdist ribut
im al
Ġ čĊ
le ased
Ġw indow
Ġdef ined
ĠH T
201 2
m ain
( _
E m
Ġin it
ĉ ĠĠĠ
cl asses
i et
ĠN ov
pro cess
ud io
Ġser ver
Ġcont rol
s i
Ġl a
styles heet
) }
Ġh ost
T P
Ð ½
u it
s cope
e f
Ġare a
op s
201 8
d ocument
Ġf act
T arget
Ġc ell
Ġn one
| -
prot otype
iv al
Ġp erson
s mall
pro to
Ġform at
ĠS chool
un it
Ġdo uble
Ġs ong
En try
ĠP ol
Ġp arameter
=" -
eng ine
art ifact
ĉĉĉĉ ĉĉĉ
T ree
Ġs um
V ar
s d
ri or
ĠD o
Ġg ame
ic ally
w indow
o ff
Ġpre vious
m ut
ch ange
am ent
ĠA pp
return s
ĠM in
Ġpol it
Ġp os
let ed
#### ####
Ġt ask
um p
ĠW h
Ġhe lp
ra ft
ER T
] );
20 19
Ġre al
un g
ĠF r
A ccess
ĠS outh
ac y
ustr al
ĠB l
it ive
tem plate
Ġd iv
ĠC ent
4 4
Ġin cre
ĠW est
Ġto tal
end ing
l ap
e ad
ug ust
0 5
ac ed
ĠL icense
Ġ* *
Ġc opy
Config uration
f a
I f
P osition
ith er
Ġde ath
if f
s igma
ry pt
Ġsh ort
Ġinter face
Ġro le
i ans
() ->
C ase
P er
Ġo ld
Ġarg s
clu ded
Ġ( \
ire ction
ord s
Ġin ternal
ĠG erm
F e
Ġf loat
le vel
Ġorg an
Ġb ook
V is
b ig
b ool
Ġass oci
P arameter
I O
Ġav ailable
Ġ es
Ġpo ss
ic le
a ded
I C
Ġob j
Cont ainer
T ag
li p
Ġn etwork
ed ia
av ing
Ġn av
Util s
ct o
Ġw on
amp ion
CO DE
re en
c s
Ġw ant
pt ember
ĠN o
ĠG L
ult i
ĠF ile
ord ing
g l
on ly
He ader
way s
) (
* }
Ġqu ery
O pen
so ft
ist or
I S
f inal
at ely
Ñ Ģ
u int
ĠâĢ Ķ
Ġcre ated
a ut
b ind
V AL
Ġp arameters
m ber
Ġ q
M ax
Ġlarg e
. $
Ġfile s
cto ber
Ġf ore
Ġl aw
ĠI D
ro ot
u ed
="../../../../ ../../
ad io
Ġm usic
at al
str ap
Ġvar iable
Le vel
Ġh ow
n ess
Ġc ur
ansp ort
Ġm ember
ĠJan uary
M in
Un it
ĠB y
Ġm ove
cript or
Ġorig inal
H ttp
in ess
old s
fig ure
Ġan n
Ġl ife
^{ -
Inter face
ist ry
ac ing
Ġl ay
it ory
f loat
d irect
Ġe ven
ct x
C o
ro y
t ree
math rm
He ight
Ġin s
om an
P C
g en
bo ot
ĠR ep
res ource
: "
' ),
ens or
a im
m atch
ĠG r
Ġw orld
del ta
Ġth ose
Z E
Ġd om
Ġu int
] [
N D
artifact Id
200 9
Ġl en
Ġw ay
adi us
% ;
200 8
Ġsever al
st ore
F O
7 0
Ġoff ic
l ate
( [
b uffer
al es
Ġcon nection
ut ure
ĠE d
riv er
en ded
Se e
; ->
Con nection
Ġv ery
in ner
t ask
Ġse ction
Cont rol
O P
Ġis s
cont rol
ap er
qu ad
B U
ĠM arch
pr il
. /
ĠC lass
ĠT ype
Ġre leased
in ary
t ml
ĠA ugust
wh ere
Ġde st
Ġ{ }
to ken
ac ity
4 8
ĠY ou
ã ģ
Ġreg ion
re l
b a
Ġd ue
Ġs ide
Re cord
Call back
li ed
Ġchar acter
Ex ec
Ġob t
Ġf ull
Ġc ap
com mand
Em pty
ĠG u
le ge
A PI
Ġ et
mod al
h av
ess ages
H E
Ġs pace
Ġs aid
el ine
ĠS up
J son
ĠSe ptember
Ġd ate
Ġal ong
j e
b orn
Loc ation
group Id
om ic
que ue
Ġa w
Ð¾ Ð
til de
ĠU S
ĠReturn s
R ange
c or
d raw
g amma
> ,
sh ould
Ġp adding
% %
D ocument
Ġn ear
c an
ad a
Ġb uffer
+ \
A M
200 0
Ġb ound
Mod ule
ultip le
Ġ* )
P e
Ġal ready
ad s
F ont
Ġj o
ĠO ctober
20 20
Ġmem bers
Ġb ody
Set tings
ĠTh ere
he ther
g or
ache d
Ġm ode
m ar
Ġan other
ur ther
Con st
de st
W rite
Ġreturn ed
ut ed
or iz
H ash
Ã ³
f il
' '
se cond
use d
de vice
Ġv ol
ce mber
D escription
t imes
ĠU p
be fore
0 8
Ġtr ack
r ation
ĠO F
er a
im ate
lay er
COL OR
il ar
ĠJ une
Ġf rame
ĠĠĠĠĠĠĠĠĠĠĠĠĠĠĠĠ ĠĠĠĠĠ
I P
Ġar ound
S earch
h am
P arams
AT ION
g ed
T op
c i
" ))
200 7
Ġ row
Ġst ill
Ġv er
Ġfil ter
ĠJul y
ren der
K E
] {
th on
0 7
im ent
Th read
em pty
a uthor
bo ve
A cc
uro pe
UL T
n on
Ġp ower
Ġse arch
he l
ĠC reate
0 2
Ġp arams
S ec
Ġfor mer
M enu
Ġle g
pre c
d rop
p atch
ĠA ustral
Ġw rite
: (
c ul
de bug
l it
200 6
N ext
Ġinst all
an c
Ġh ouse
ĠThe y
Ġde l
Ġc lo
idd le
f s
d ict
Ġevent s
Ġgener al
ca ption
action s
an el
Ch ange
anag ement
ĠA pril
g est
Q L
ca de
O ption
il it
ot al
PE CT
back ground
ent ity
Ġex per
Ġst ream
w ise
S cript
() :
model s
e v
} {\
A b
pt h
Ġn amed
Ġplay ed
Ñ ģ
ft ware
U P
ĠS p
ens ions
et ch
S chema
S H
" ));
ĠH owever
Ġc ity
an a
ĠN orth
ĠN S
{ {
Ġlo ok
Ġt yp
Ġb el
ma il
n d
con f
Ġchild ren
ip p
ĠA ct
oc ial
Ġfil ename
Ġ" \
ĠC ity
Ġe arly
A V
Ġ> =
us iness
the ta
^ \
Pro cess
ĠDe f
W ork
Im pl
st it
ĠP art
ug ins
ms g
v ers
Ġx ml
Ser ial
ut er
ĠNov ember
in o
Ġa bove
ĠI I
ĠV al
ĠL og
b order
ro du
P A
N one
i as
Ġb r
Ġd on
Ġoff set
A g
Ġrece ived
Ġc ustom
? :
ĠAss ert
t im
Q ue
X X
Pro perties
gor ith
h ash
6 7
ĠR ec
O p
ys is
le q
ĠBrit ish
ce ll
ir m
Ġreturn s
hen tic
Ġover ride
' >
ĠDe cember
Pro ject
Ġro ot
Ġm ag
ST R
im ages
ĠEx ception
Ġc our
ar r
S ession
k nown
Ġelement s
E CT
cur ity
in ternal
Ã Ń
DI R
Int eger
Ġc lose
P o
re st
he s
Nav Bar
po se
c ard
de lete
St ore
c m
a ff
fer ence
Ġrem ove
s ign
st er
C urrent
ĠD ata
I t
Ġ ::
Ġd r
Ġa uthor
al ysis
ĠB r
Ġg l
file s
Ġmethod s
6 5
0 4
Ġf ail
As ync
n u
r ho
In st
val ues
ã ĥ
Ġspec ific
Par ser
R out
Ġre lation
Ġd ay
l ong
Ġh ome
Ġdes ign
av es
o ice
ĠM an
a uth
c ap
Ġb and
ur g
Ġbir ths
doc s
ex pected
ĠA b
ver se
Ġv irtual
Ġt ake
=" /
Exp ression
br uary
ĉĉ Ċ
Ġren der
a fe
n a
al f
h ip
Loc al
, "
Ġw in
ta u
enc ies
cent ury
Ġent ry
t ers
I con
8 8
se ssion
en v
Ġg overnment
Ġde cl
k ind
tem pt
P tr
ampion ship
Ġf re
d ist
P os
Ġh istory
ĠD E
ex ample
Ġ ke
C opy
Ġat tribute
ĠLe ague
br ary
Ġpoint s
D irect
i j
ĠM e
Ġb est
Ġoper ation
Ġb o
Ġe ither
Ġhe ad
val u
$ -
trans form
et y
as ure
t ed
t ax
ick er
Ġprov ided
ĠE urope
Ġs yn
C A
web kit
g gle
inter face
it es
Ġper iod
Ġm iss
Ġm ajor
ĠK ing
h over
lic e
Ġc lear
ym f
P ort
w idget
Ġpro f
param eter
ymf ony
M atch
b reak
B O
s end
ĠR em
Ġm er
part ial
Ġpro perties
E Q
0 6
} /
200 5
à ¤
ĠN ot
Ġw omen
ĠB G
Del ta
ol ve
oriz ont
ad ow
s v
================ ================
at ter
25 5
( :
to String
Ġg lobal
i sed
foot er
ĠEX PECT
Ġs pe
boot strap
e ded
Ġhas h
Pro t
ur ity
eq ref
Ġrefer ence
Hel per
m ode
Ġacc ount
0 9
Ġre sp
Or der
R ender
ren ch
j oin
arg e
od er
AL L
v an
i res
Ġlang uage
) ]
Ġj av
Ġt ag
n ap
& #
ä ¸
est amp
ill ion
lic it
Ġfil ms
Ġl imit
Ġc ar
ĠA fter
R L
R ect
ĠS o
depend ent
Ġcom mon
Ġ ...
on es
Ġb uilt
ĠD is
Ġt ypes
Tem plate
re w
Ġde ter
ma ke
um an
Ġfield s
SE T
f oo
Ġhttp s
Ġcont ains
Ġcent er
De vice
Refer ence
Ġk now
Ġun defined
C ore
ĠW hen
=" _
pl ugin
ight s
g es
ra de
m m
Ġtem plate
st ack
Ġin dic
equal s
s cale
Ġm uch
Ġin cluded
Oper ation
pro p
Ġf r
Ġv ert
sk ip
Ġl and
ip al
H O
ord in
Le ft
Ġ location
Ġ[ '
Ġto wn
orizont al
Ġapp lication
ĠFe bruary
Ġcomp onent
D L
Ġf ree
} (\
T ER
ĠCh ar
im ension
## #
lev ision
ut ions
c at
'] ,
Ġcomp et
Ġcol lection
Ġcorre spond
Ġs cope
ri es
c opy
B A
Ġsim ilar
y l
0 3
ĠTr ans
Ġcare er
leg ate
ĠCh rist
Ġh andle
ã Ĥ
Ġ( "
I ter
g lobal
ĠBG COLOR
Ġar ch
Ġe qual
ĠR o
Ġposs ible
cl us
S p
T ool
s im
A fter
Ġs ent
Ġto ken
}$ ,
Ġem pty
U B
iction ary
P arameters
c lick
4 7
Ġplay er
sup port
h a
ERR OR
dis abled
Ġt imes
c p
ent ion
H andle
Ġn ormal
ed er
OR T
set tings
om ega
p op
og n
c lear
4 9
ĠB ar
d ated
Ġc ert
block List
De fin
T itle
illi am
re et
| \
v m
U se
Ġs ite
H ost
M M
up le
N ames
Ġ` `
Ġact ive
Ġhe ld
Ġres pect
ĠT O
Ġd er
y c
ĠEng lish
G e
Test s
ance l
or ig
O ne
Val ues
Ġit er
t ypes
ex ports
Ġd one
D ec
ult ure
200 4
Met adata
av en
}$ .
Ġte ch
Ġpop ulation
Ġ ~
Ġad ded
Ġin fo
A merican
Ġp ay
pan el
ĠP er
am il
po sed
ĠĠĠĠĠĠĠĠĠĠĠĠĠĠĠĠ ĠĠĠĠ
D ir
Ġcomp any
c r
Ġrem ov
Ġc ause
l im
O S
Ġdescri bed
Ġloc ated
Ġbeg an
V ector
ĠF l
Ġpar se
ĠR ob
N um
ist ic
r ics
In valid
Ġd at
ur i
Ġw hether
add ress
D own
Ġt erm
icon s
ĠO R
Ġarg uments
h andle
IN E
Ġ} )
="../../ ../
Ġex ception
-- >
H istory
ex port
Ġa ge
7 7
id ual
Ġse lected
Ġc ache
Cl asses
p adding
Ġestab lished
Ġinst ead
sp lit
200 1
Ġbeg in
T im
che du
Ġg ood
s ystem
ĠĠĠĠĠĠĠĠĠĠĠĠĠĠĠĠ ĠĠĠĠĠĠĠĠĠĠĠĠĠĠĠĠĠĠĠĠĠĠĠ
p is
4 2
Ġst ore
S k
S ign
graph ics
Ġ ;
ob ile
r ary
En g
a uto
c ustom
ut or
ĠM c
code d
Ġg u
Ã ¼
Ġe cho
annot ation
v ector
istr ict
v ing
Ġinv oke
> ();
ix t
ynam ic
re p
s q
med ia
ĠC heck
depend ency
ens ure
s uccess
Ġn amespace
Tr ack
icro soft
Ġch annel
U s
j o
Ġpartic ular
oun ded
P arent
ĠM ap
Ġspec ial
re place
ac cess
S O
AR T
Ġe v
B uild
App lication
Ġn ames
ĠH is
Ġt urn
R el
as sed
u a
A re
Ġconfig uration
ot ion
Ġpub lished
Arg ument
D raw
K ind
F alse
en um
G ET
De bug
C L
> .
Ġh ig
pos itory
Ġb ox
ĠJ ap
Ġde lete
re q
ex ception
s ort
m i
ĉ Ġ
Ġto ok
v irtual
med i
Ġsol id
Ġv ia
A pi
Ġappe ar
Ass ert
ĠB o
_ ;
ft y
OR D
qu ent
Re ader
Ġse par
Ġre lease
} "
Ġwrit ten
w s
c il
Ġpro duct
ĠC or
ĠC oun
i i
k a
20 21
ĠIn ter
H as
ener gy
By tes
Ġin line
-------------------------------- --------------------------------
by te
Ġlo ad
V I
he m
( *
to ggle
w ide
g reg
St ack
Ġcont ainer
S ION
in ition
P RE
W h
Ġp ut
T ab
in fty
arg ument
` .
Ġfunction s
AT H
comp onent
Ġun signed
") ]
y d
Ġr a
M on
c ert
6 8
C al
9 5
pl it
$ $
Ġcl ub
Arg s
our s
Ġse ssion
th ough
ĠN ame
v as
Ġtrans form
il le
Ġc over
Ġv ill
Ġby te
r ange
g n
t i
he lp
Ġd en
ĠS w
Ġre st
Ġre du
Ġmodel s
De cl
R A
gorith m
ĠS tr
ad min
gr ad
D D
= {
ar ies
co q
o logy
Ġd escription
ond on
Ġo s
ĠA fr
ĠH igh
s ql
De lete
li es
f n
res sed
t y
p ag
Se lect
end ar
ĠTr ue
at tribute
-- -
ograph y
; <
Ġc or
Ġ Ã
Ġfa iled
id s
ach ine
iter al
Ġt im
Ġorig in
OR M
Ġj son
th ers
W E
Ġassoci ated
frame work
ore m
Ġe lect
se l
ound s
Ġhe ader
ĠC ON
Ġc amp
Ġg raph
M ock
field s
Ġstruct ure
V er
m aterial
pl ugins
R oot
ĠD ate
P ackage
Ġm ass
Ġth ird
Ġ qual
P aram
r ict
Ġf ew
Ġj ob
est ed
f ocus
En c
Pol icy
Ġin d
X ml
By te
b oolean
Ġal t
ct or
R ight
200 3
ĠJ SON
LI C
Ġs at
p g
AN D
\ ,
quire d
log ical
row n
ard s
c over
En abled
f ord
Ġst andard
ri p
r r
Ġb it
ang ular
Ġle ss
in line
d s
we ight
4 6
N on
Ġun it
Ġl ate
ĠSe e
con nect
ers ist
Ġs w
L ong
Ġmed ia
c loud
re cord
Ġcontin ue
Ġv e
ĠA cc
op h
ĠCol lege
B ody
ĠE ast
ĠD ep
Ġd raw
Ġ( '
Ġs witch
Ġbuild ing
ase s
call back
ĠP e
f g
Re p
l n
w in
Ġde vice
W riter
ilit ary
D om
ly ing
Ġobject s
A ut
h r
ĠA ir
Ġwe ek
ro s
ins ert
div idual
es h
Ġn ational
ĠR un
Ġd atabase
ens ity
m ock
FA ULT
ĠM o
$ (
t ip
oci ation
Ġst ation
Ġs end
iz es
AT A
ĠM od
B ind
ĠHT ML
Ġser ved
da pt
I M
ark s
istr ation
D ialog
Ġint rodu
Ġ Qu
EN D
Ġ+ +
C P
B oolean
Ġed uc
ado op
y ear
Ġ" /
H P
ĠThe se
Ġac cept
je ction
Ġby tes
V ert
Ġg en
ug gest
CH E
a a
Ġl ight
Ġbe low
Ġ' /
8 5
ĠL a
Ġcent ury
item s
k s
Ġm sg
Ġdirect ory
B l
lang uage
x i
Ġg ames
prec ated
a fter
ak er
Ġv ideo
ri end
ic o
Ch anged
Defin ition
Ġs cale
h an
F il
ing ton
do uble
V E
Ġm ultiple
200 2
b m
get her
__ (
aw s
ul a
ĠĠĠĠĠĠ Ċ
Ġex cept
iz ing
Dis play
ĠP res
ne y
er ing
att le
ature s
ĠI O
i ke
er ed
Ġreg ister
Ed it
Ġs ix
Ġwork s
Ġf ive
ver age
app lication
C lick
} [
U RE
ĠN e
' ))
T e
ak en
ĠL ondon
Ġch anges
C an
Ð° Ð
ĠA mer
ab or
b or
Ġe lection
et ers
Ġap i
ĠF rench
AG E
eq n
ĠW illiam
Ġm en
ĠH ouse
Ġint eg
ch or
c md
Ġsuccess ful
Ġse lect
x is
Ġc rit
9 6
ĠH ar
Ġtrans action
Ġ engine
SS ERT
ed it
R ule
rag ment
g u
app ed
arri ed
ĠS ub
Ġre ason
âĢ Ķ
"" "
Ġ< =
reg ister
ri ef
Ġme an
Ġsh own
Lo ad
Ã ¤
ĠR ed
Ġle ast
Ġprob lem
un ch
St orage
Ġal ways
9 7
a ught
G raph
TE ST
5 7
p assword
ĠR uss
Field s
Ġon ce
m at
v ision
sh ot
ĠS T
ĠAr g
Ġth read
ist ics
ran ch
Des criptor
F T
Ġse lection
Ġg e
G N
` ,
ĠM on
Ch annel
Ġto ol
c pp
ĠW ith
urs or
S ymfony
urn al
d r
omet ry
act ers
Ġb orn
8 6
co in
p ri
& &
i ant
Ġof ten
A A
tr ack
Ġoper ator
Ġfeature s
; /
ab ly
ĠWe b
key word
rap per
ĠO ne
C ustom
ly mp
Ġt ree
ser ved
inst all
Ġspec ies
Ġjav ax
20 22
Ob j
P ost
ca pe
ĠB ase
c irc
ĠM y
ĠCh ampionship
Ġm atrix
Ġstr ong
vol ution
Ġstart ed
itu de
ĠF ig
ĠS ec
li er
ol ved
ĠD istrict
ĠM ath
Ġst op
em ail
Ġs cript
M eta
ĠE rror
ch ron
Ġcoun try
s cal
Ġf ac
st ep
h adoop
Ġp ack
Ġatt ack
Ġassert Equals
CT ION
and id
con nection
Ġimport ant
Ġcan not
a ul
Ġdist rict
Que ue
ĠGerm an
Ġb g
m ic
im pl
Ġarg ument
199 9
ru pt
Ġat tempt
reg ion
ĠO pen
Ġprov ide
p ub
ĠH er
ps i
ab s
Ġex pl
Trans action
Ġam ount
O K
ĠD es
Ġw ater
un signed
G E
=" @
ateg y
Ø §
5 00
Ġv ector
m argin
Ġgr ad
iss ion
lap se
ĠS k
Ġw allet
h older
B ig
Ġvar ious
Ġcom b
Ext ension
as ing
N et
J ob
Ġsup p
ĠV alue
//////////////// ////////////////
Ġ energy
oun g
ĠD av
il ities
J SON
Th at
ase t
a o
oun ter
Ġcon trib
it ect
ĠQ ue
iag n
Ġshow s
KE Y
Act ive
x x
ĠU ser
Ġad min
ĠL o
Ġgroup s
Ġre search
ĠĠĠĠĠĠĠĠĠĠĠĠĠĠĠĠ ĠĠĠĠĠĠĠĠĠ
9 8
ĠR E
I I
ĠE vent
et ime
Ġte levision
Result s
100 0
Ġa ir
i ol
ĉĉĉ Ċ
A dapt
Ġann oun
. *
al d
str aint
tr ies
Ġset tings
ĠĠĠĠĠĠĠĠĠĠĠĠĠĠĠĠ ĠĠ
ub e
M ember
key s
c ategory
HT ML
con n
ĠL O
o sp
Ġra ise
ĠSer vice
Ġme ans
M D
Ġp assed
Ġre port
t hen
Ġp ackage
Ġbut ton
Ġ( *
Ġdif f
M sg
com ment
Ġf urther
Ġdevelop ment
rior ity
i ation
Ġam ong
ĠB ro
al le
cd ot
C re
am a
con trib
lo s
wh ite
ar p
ĠIn ternational
@ "
al low
F ound
Ġh tml
ol l
Ġro und
am era
Ġf low
o om
O m
add r
f ull
Sh ow
act or
Ġperform ance
ĠS ch
ĠP ark
O M
ip eline
ĠS an
Ġser vices
itt le
Ġact iv
Ġat tr
Ġc apt
ĠA m
==== ==
drop down
Acc ount
sum er
J ECT
Ġb tn
ĠN or
Ġsupport ed
air s
hav ior
ern el
in n
Ġter ms
ĠN OT
ĠU RL
Ġstud y
Ġcorre ct
r adius
| |
D oc
Ġp ot
oo st
z er
Ġd b
mod ules
ut f
=" ">
id ence
m ost
Ġcon vert
a iled
Ġrun ning
ly ph
FI LE
Ġa ff
j query
O D
TE D
L java
ĠPh il
Ġne ver
() {
proto buf
ur b
Ġs l
her it
om b
ag ing
in itial
ag ed
"> &
S A
Time out
B C
om atic
W idget
h s
Ġinstance of
ĠAr t
sq rt
Ġd i
Ġc irc
gr id
S L
R ed
th ing
Ġn umer
Ã ¶
5 6
sub section
P op
S end
Ġr andom
sc roll
Ġrel ative
w ner
f ill
Ġbe come
ann er
and s
ain ts
Ġconsider ed
Ġh aving
Ġdef ine
el low
mit ted
} _{\
Ġe lem
By Id
S cope
Ġadd itional
Ġn g
Ġsub ject
Ġd ied
' .
if orn
r is
ot a
Ġph ys
h i
ed s
if orm
n one
F loat
Ġitem s
Ġ ),
Ġst at
P erm
D F
Ġ ign
Ġl ines
Ġw ar
ĠC up
\ "
Ġmem ory
G r
Ġcl aim
L ock
or ph
ve c
Ġst ates
P ool
Ġcon n
ĠDef ault
al led
Fl ags
VER SION
eps ilon
Ġn ov
ĠT ime
N etwork
In s
rom ise
M ENT
f ly
( !
om ent
Ġn ec
print f
ts d
Var iable
M ark
res ses
ĠM ed
al loc
Ġprodu ction
Item s
Ġ% }
Run time
ĠD iv
hentic ation
li ke
sh ort
Ġn eg
Ġin dividual
8 7
Ġs on
S ER
Ġn orth
[ :
u el
Ġwe b
Ġlow er
n ormal
Ġen vironment
Id ent
Ġs m
In ternal
Ġdet ails
rom e
h igh
ĠP y
Ġmov ed
ch i
Ġgener ated
ch annel
leg al
r d
Ġinv est
iforn ia
( -
.. ..
ĠC re
n umer
S D
Ġde g
s ave
oci ety
em s
ĠG roup
let ion
im ated
=" "
IT Y
Act ivity
or ge
st ats
ĠGener al
s f
Pe ople
m ove
yn tax
ç ļ
ĠS um
Ġb usiness
ub y
j ust
() ).
Ġag re
ĠP ort
F r
ps ilon
E ach
sh ape
che me
EX T
Ġd oc
ch an
Ġs ort
} ),
Ġinter est
Ġex ists
Ġst ep
M e
B it
ang uage
ĠInd ian
ar a
4 1
çļ Ħ
Ġcon sole
Ġsign ific
SI ZE
Log ger
R et
U ID
st and
Ġcurrent ly
Ġim pro
In it
}} \
ie f
Ġcase s
ang o
* )
l g
_ ->
ĠR iver
ĠF orm
Ġbl ack
en a
iagn ost
ĠM ich
rid ge
4 3
ar io
is f
Ġh app
th rows
ce l
Window s
Ġn odes
Ġs cal
Ġright s
land s
Ġc ref
Ġact ual
Ġocc ur
ol ution
ĠA g
ign ment
pr imary
P ATH
On ly
] :
b ased
th read
Ġm ock
En um
{ }
du c
tx t
Ġ[ ];
Ġallow ed
L iving
Ġle d
5 8
en ch
() ));
Ġto o
un ic
Ġn et
\\ \\
as sets
re c
5 9
Ġto gether
Ġ quest
)) )
ĠC our
Ġ ide
ĠO ut
sp ring
Lo ader
Ġre pl
In itial
Om ega
import ant
ang er
LO G
Ġt w
Ġexp ression
b urg
ĠL oc
not e
Ġvill age
oo se
Ġcommun ity
un t
Ġp at
Ġerror s
use um
Ġre d
Ġp attern
c ar
uck et
C D
qu are
r ate
Sec urity
L ib
Ġh andler
Ġso ftware
Ġm ight
ĠF ran
. __
ill s
se lected
ĠE l
ĠEng land
ĠF alse
oc r
S um
ĠF irst
Ġs outh
b ert
p ress
av y
text bf
)) );
Ġprodu ced
ar ing
fl ags
s chema
ĠCal ifornia
G rid
ook s
h ib
g it
Ġh owever
iv il
TE X
ĠI S
ĠĠĠĠĠĠĠĠĠĠĠĠĠĠĠĠ ĠĠĠĠĠĠĠĠ
cont roller
Ġwork ing
sup er
Ġpr act
Ġset s
Ġs om
ĠK ey
Ġ{ };
t yp
Ġh istor
Ġ$ {
Ġ{ '
Ġbg color
ĠU se
re al
199 0
ĠP o
as y
id ing
av el
8 9
Ġr ule
Ġa verage
type of
fl u
pro perties
Ġfor ce
Ġli brary
te ction
Ġo pp
Ġadd ition
_ ,
p ay
f ree
Ġch anged
Str uct
Ġd ays
R est
Ġchar acters
Adapt er
Ġs imple
Ġcomp lex
Ġfollow s
Ġpl an
a ign
ol ver
Ġh alf
ach ing
MA X
ock er
Ġm illion
Ġset ting
Ġdistribut ion
25 6
one y
f amily
Ġcomp lete
S ing
li de
ve y
Trans form
pro duct
cre t
Not Null
ill a
P AR
Ġuse s
nap shot
z on
ad cast
-> _
eqn array
atal og
Ġad v
at ural
Ġqu ant
4 00
Pro xy
AD D
ĠR oy
h orizontal
Ġp ur
P anel
. \
ie ve
Hel p
5 1
Ġcons ist
at io
G amma
Ġs creen
scri ption
i os
ĠRep ublic
M edia
Direct ory
ut ing
NavBar Cell
ict ure
T ABLE
Ġr ate
Ġconst ant
An y
Ġke ep
++ ;
ĠPart y
bs ite
is ing
Ġkey s
m anager
Ġcl uster
ĠAustral ia
'] )
se curity
Ġc ross
include graphics
AR Y
s ite
Event s
assert Equal
s creen
ex ternal
ook ie
" `
Gener ic
16 0
b rowser
Re ce
anag ed
F in
Ex pr
Des c
Ġre cent
ĠB er
Ġst ar
assert Equals
At tributes
Ġro t
ĠB ut
ix el
av er
g ment
Ġs ample
event s
E M
A uth
Ġser ial
ter m
', '
IN FO
ession al
Ġc ost
apt er
view s
ar ded
Ġst ack
Ġestab lish
F unc
Mem ory
Ġm aterial
Ġs pect
E l
Ġp y
Ġab le
Ġb ar
a el
av ed
ĠC opy
as is
com ing
ent er
des c
st op
} </
Ġcal cul
u z
ip s
M ain
h andler
Ġf unc
ĠEn d
b al
Se lector
ĠM et
Ġoper ations
ile s
Ġ io
ĠT ext
m ing
Ġd irection
Ġf em
SC RI
Ġe ar
Ġcond ition
M ar
Com mon
ĠN ote
ĠĠĠĠĠĠĠĠĠĠĠĠĠĠĠĠ ĠĠĠĠĠĠ
qu ires
Iter ator
Ed itor
Ġw ait
ane se
B R
Ġ= ========
Ġst ory
B rowser
Ġl im
sol ute
199 8
Ġcond itions
com m
IG N
Ġc ame
S ymbol
Ġreg ular
Ġtr aining
Ġdoes n
Ġ" "
form s
) ">
P ack
ĠF ield
Ġappro x
ĠL android
D ist
ĠAs sembly
comp onents
ad ian
M an
D atabase
by tes
ĠS pec
d im
Ġother wise
) "
get Element
Ġac ross
w ild
7 6
Ġf uture
ĠO lymp
Ġcon struct
Ġ icon
em ph
M y
Ġcon nect
Ġapp lic
ĠCon fig
Ġ$ {\
ĠO per
str ict
tr igger
ast ic
Ġs ymbol
A m
X ML
Ġtem p
n ames
Ġinclud es
Con f
ï ¼
I F
p icker
able s
ĠD r
Po inter
BU G
m aster
ĠO ption
Ġoffic ial
Ġat tributes
To String
un der
v are
Ġcont ain
ĠTO DO
Th ere
Ġrel ated
Ġs old
ĠV ersion
C lose
I R
ĠPres ident
~~ ~~
}^ {\
Ġs ure
e ach
j ob
ĠM ethod
Ġexist ing
8 2
ul ated
not ation
M atrix
} ).
mut able
3 00
_ (
UT F
ĠM ark
Ġm ale
Ġin c
e cho
Ġw est
VAL UE
A c
Ġwrit er
Ġpolit ical
Ġf ather
In v
Ġne eded
Ð »
Prot ocol
h idden
Ġw ord
ĠS m
Ġwh ite
; "
miss ions
ixt ure
ĠP al
Ġcomp leted
ĠA ward
L S
Ġobt ain
Ġent ity
pro file
Ġ[ [
ĠA p
D U
Ġpol icy
n t
ĠInd ia
w rit
Ġwrit ing
Ġob serv
Ġs ay
ĠM al
Ġb ind
ĠAmer ica
ĠV AL
n ers
Pl ugin
t mp
J ava
Ġw ent
Ġsignific ant
Ġass um
re sp
c b
if est
k w
ĠAr my
v a
p ool
Ġre q
N ULL
n i
Ġmax imum
) /
ĠC O
Ġse en
SCRI PT
W S
] ]
Ġal loc
Ġf n
Ġdeath s
get Name
Ġs ocial
Ġse quence
re es
Ġz ero
ĠE m
M apping
Ñ ĥ
[ $
ac count
ĠH el
Ġme asure
l ines
are a
Lay er
RO M
du ction
In d
for ce
Ġdeter min
tab s
S uccess
log ger
iter ator
h ing
Ġs uggest
w est
Re pository
S w
i ents
Key s
ĠCh urch
ug e
Ġe ast
ĠD em
Ġh uman
ĠN ode
y a
Sc roll
stit ute
sh all
Ġf all
nav List
Ġas ync
w ait
7 2
m as
5 4
Ġannoun ced
met adata
Ġm aking
ĠD on
######## ########
Ġb uilder
} =
ic les
ut able
col lection
ential s
C S
Ġin ternational
ar ation
Ġnec ess
dom ain
=" ${
Ġcorrespond ing
ĠĠĠĠĠĠĠĠĠĠĠĠĠĠĠĠĠĠĠĠĠĠĠĠĠĠĠĠĠĠĠĠ ĠĠĠĠĠĠĠĠĠĠĠ
ĠB el
Ġdistribut ed
Ġed itor
Ã §
mit te
app ly
eth ing
A uto
y es
Ġext ension
Ġs ym
n el
p k
point s
", "
ĠO b
Ġs igned
at ory
Ġf lo
l imit
Ġun ique
Ġle ad
J o
Ġr ank
Ġt aken
in v
W hen
par ser
config uration
) ).
P attern
) =
enc ed
Ġ Â
Ġtest s
Rem ove
at ives
Ġsystem s
Ġ lock
s witch
Mem bers
vare psilon
G S
result s
ĠFr ance
Ġo l
Ġaw ait
Ġ( _
Ġg reat
art s
Ġint eger
S ocket
ar ison
Ġimplement s
cont ains
D uration
ĠA N
Ġpartic ip
ĠF rom
Ġ" <
ĠCoun cil
Par se
198 0
Ġin valid
ĠS ome
å ı
ick et
ĠR oman
Pr int
v ille
Ġde bug
id a
File s
5 2
ic ult
head ers
ST AT
[ \
Ġf ar
Ġbet ter
Ġcl asses
Ġr g
Ġcom ment
7 8
. ~\
Ġcre d
art ment
am s
De pend
t otal
Ġde v
h ide
Ġstud ents
i pe
Ġimplement ation
ĠN O
ther n
N E
P ORT
Ġe pis
) ),
it ing
d ot
< !
P ay
fer red
net work
ag o
Rout e
ĠJ ames
wrap per
Be fore
Ġc ast
pl atform
) $.
Ġpo inter
h ome
pro ps
Pro file
ro te
ber g
at tributes
Ġin f
S QL
j ar
Do uble
ĠThe n
om as
^ *
Ġc a
Ġfl ag
m ine
ĠW ork
ĠEurope an
le ms
ĠIO Exception
D est
Ġph ot
Ġxml ns
web pack
Con d
L et
Ġmiss ing
Ġhig her
Ġtr ad
prot ected
199 6
and ra
ren cy
ĠV er
ĠI P
wild fly
ĉĉĉĉ ĉĉĉĉĉ
S Y
r ule
Ġn ative
Ġstr ict
s or
sw arm
l ers
h ood
de cl
Ġem ploy
Ġm anager
ĠL ib
S cale
a ur
Ġe con
oper ator
ĠSt reet
Ab stract
ĠCan ada
ance ll
in i
str aints
ĠRob ert
Ġclo sed
199 7
Ġwho se
Ġdef inition
Ġl ive
Ġo thers
b ad
33 33
Ġre place
ĠC all
Ġg row
. )
ed itor
F ail
sh adow
Ġpr imary
Ġtype of
ul ate
d ialog
f c
u ous
tool s
N G
ĠS en
Ġ= ======
n il
Ġc tx
Ġapp oint
ĠM ag
overn or
var phi
P L
con s
Ġwork ed
5 3
all classes
Ġre ported
Ġm id
Se cond
Ġpart s
f it
h and
ĠP ublic
Ġpolit ic
fil ename
s y
ri e
p refix
et ing
Ġhe alth
Ġy et
b ound
r ine
ĠB uild
col Last
chedu le
right arrow
Ġ\ ,
Ġen abled
8 4
ra z
197 0
-------- ----
Ġf und
w er
Ġent ire
Ġsat isf
Ġm ilitary
f ail
ĠT ask
ON E
ot ed
o ught
N e
Ġan alysis
Ġtrans ition
Fe ature
Ġit self
Ġcont aining
Se lected
j ango
ul er
pe at
n es
ĠI d
> :
ĠS im
col lapse
Ð º
Ġh ard
id x
Det ails
ĠF il
ĠĠĠĠĠĠĠĠĠĠĠĠĠĠĠĠ ĠĠĠĠĠĠĠĠĠĠĠĠĠ
ail way
ĠC ode
Y ou
ir it
Ġsol ution
F ull
k o
Ġenc oding
Ġde but
Ġapp ly
Ġpop ular
$ /
c ut
Ġh old
Ġst age
Ġof fer
Ġjo ined
S ync
Back ground
Ġt ab
S eg
s ymbol
Ġp aint
Ġcon structor
t body
Char acter
Ġcol l
ĠGe orge
ĠV iew
her n
col First
Ġpres ident
C R
CHE CK
Ġ[ ],
F ailed
re set
aj ax
Ġdist ance
Ġli k
ific ate
child ren
Eng ine
ĠUn ion
%% %%
ĠRes ource
Reg ister
ge q
b on
Ġins ert
Ġsc ore
vent ion
Ġf ire
Ġk ind
Ġoption al
Ġ$ .
At tr
ĠD irect
Ġ" ,
ap s
A p
pro vider
wh ich
Ġline ar
Ser vices
Ġj Query
Ġperform ed
pro of
d p
Re c
comp iler
her ited
^{ (
av or
Ġpart y
ff ff
L D
A v
se quent
Ġopen ed
ĠG oogle
ĠRe act
ree k
Ġp aper
ĠS ing
r angle
Ġrec ogn
iv en
Ġ ui
an ies
ĠĠĠĠĠĠĠĠĠĠĠĠĠĠĠĠ ĠĠĠĠĠĠĠĠĠĠ
Ġmat ches
k er
Ġg round
Ġlo st
ant ic
}, \
g an
R AN
Ġt en
er ies
Ġf ig
ĠM odel
Ġe valu
F LA
Ġf ixed
Ġth ough
out hern
br id
P assword
ĠR ich
fr ak
re y
Ġsh ape
Ġdirect ly
unic ipal
er ial
ĠUp date
. }
Ġs ave
ĠM ount
lo ader
Y ear
ĠI E
Ġpass word
Ġiss ue
Ġgener ate
ĠF unction
pe ed
Ġsize of
Ag ent
RE AD
ĠAss ociation
">< !--
V ol
no logy
param eters
m aven
Cl uster
9 4
f aces
ident ifier
ap os
T C
Pro duct
det ail
ĠF I
S pace
mitte e
k ens
Ġres ources
ĠH ol
ash ington
Ã³ n
p ass
t ags
ens us
Ġlay er
Ġco q
Ġdom ain
9 1
Pro ps
ĠL ong
ĠSt e
Ġremov ed
ri an
Ġdescri be
N odes
Ġd ir
() </
F C
re ater
199 5
Ġfr ont
Ġprov ides
Ġt x
Ġar r
ri a
Ġexp ress
Are a
ĠDav id
r ift
Ġwe ight
Ġm arried
he st
. ");
ĠRoy al
j unit
P erson
FF FF
Ġvariable s
Ġ" -
wit ter
O UT
por ary
ĠGet s
Ġ ip
Se lection
Ġc andid
om y
Ġro ute
ĠReg ister
St ats
ĠDiv ision
Ġa ch
Ġ? >
test s
ĠZ e
Ġacc ording
ĠAcc ording
ĠA ND
(' .
ut ive
de c
Gener ator
ĠAr ch
ĠM or
Not e
prot ocol
j pg
Collection s
= >
yc le
TEX T
Ġneed s
I ZE
S U
Ġg ive
; }
ol ic
' re
C I
Ġd ig
ĠP re
AL SE
ie ved
ĠBl ack
ĠCent er
i ber
om in
i us
el li
il led
Se ction
r b
ĠPro v
e ffect
W A
Ġin dependent
Reg ion
log in
O ff
if ies
b and
Ġ ],
ansp arent
exec ute
Or ig
Ġd ensity
Ġa way
ĠInt eger
x s
pre v
A X
S o
State ment
ĠCh ina
G lobal
Ġpl atform
ex tern
Ġp ast
? >
wo od
G B
ĠIn itial
( __
ĠO ther
ex pr
m ask
CE SS
or ded
ound ation
Ġw rote
Ġare as
P lay
Ġdef e
Ġs u
ser ial
ĠU I
Ġdevelop ed
Ġarch itect
Ġr ather
b ra
Ġ util
z a
str y
ĠH ash
Ġim ages
math frak
b olds
__ __
r ase
Im p
pro gress
ĠM ont
Ġus ers
Ġdirect or
Ident ifier
b uilder
199 4
Ġc e
Ġin flu
C ategory
Ġcomp onents
Ġli b
9 3
gener ated
ĠCom mand
Const ants
ĠIn st
. âĢĿ
Ġpos itive
ĠM em
B AR
6 2
Con n
' ));
Ġs s
Ġb ottom
: #
FI G
bolds ymbol
LE CT
par a
> ::
Ġa uth
N OT
Ġcon tract
) $,
se ss
equ iv
ur a
P S
it o
Ġallow s
ĠL et
or a
ig r
ens ive
W rapper
Ġex tra
Text ure
Reg istry
9 2
199 3
ĠJ ava
P refix
j a
m en
d one
Res ources
Ad min
UR I
ex ists
ĠCour t
Ġw ide
Ġwe bsite
ific ations
the me
ĠW il
TI ME
Ġg ot
er ve
199 2
l legal
act iv
P ER
Tr ace
Ġle ading
ĠF in
tem p
Ġh idden
F R
Ġv oc
ask et
ĠM ac
Ġcert ain
Ġth us
Ġlog ger
b rief
ĠS ince
var iable
Ġcon struction
ĠM er
ĠC r
g in
ĠL ou
Ġobt ained
d ates
Ġpro p
Ġv iol
Ġm aint
ack son
m ore
St ep
al ity
Ġc ore
Ġ' <
serv ices
mo z
use s
ĠT HE
C RE
Ġco ordin
Ġ queue
N amespace
c lo
AR N
Ġp ress
6 3
o log
it ch
Ġj oin
p a
el f
Ġc op
id ers
Ġa void
om s
Ġp aram
cd n
ĠD an
ĠM art
h line
if def
ache s
ĠP aul
Ġnav igation
ĠGerm any
E rr
= #
oc aml
Ġh ar
x html
st orage
Ġfin ished
Ġ ill
ify ing
ĠSt ud
. '
ine se
Ġbe h
P R
IT E
S imple
Ġr adio
I MP
user name
d x
Ġs uff
O pt
fe ature
Ġpro file
He aders
Ġeduc ation
ĠJ er
Ġth ink
Ġw aves
resh old
at ible
sh ared
l as
im ately
m id
ct rine
Ġin du
ĠH ttp
ð Ł
l or
Ġph ase
type def
umn i
en ed
Ġun its
ĠM essage
Ġc lean
Ġmet adata
Ġthe ory
ul ly
escri be
ĠV ol
Ġgo ing
Ġnot e
Ġpro gress
sv g
ĠPro ject
ĠOr der
L android
HT TP
ĠA SSERT
ĠAustral ian
ĠComp any
em ents
Ġb al
b ot
ĠT able
o ss
ill ing
ĠRe ad
p df
ĠD et
Ġw r
un ique
ar ter
sh ire
Ġm ount
ĠJ e
us form
numer usform
th at
T x
S R
Ġfore ach
all ery
Ġrepresent ation
Ġ[ "
Ġin side
Ġ Î
ĠT em
m es
L P
as ync
le ep
ĠW indow
qu ency
Ġgo al
Ġrepl aced
index Of
ĠN AME
P layer
Ġtem per
ĠDep artment
Ġvis it
ĠĠĠĠĠĠĠĠĠĠĠĠĠĠĠĠ Ċ
= &
.. .</
os ite
g rade
in valid
m ult
ĠL com
ĠD uring
Ġp refix
Vis ible
am az
Ġtyp ename
ĠJap an
f x
Ġs plit
y e
an ded
Ġdest roy
oot h
{ %
Ġch urch
Pro gress
R ole
f d
Ġmon th
O B
Ġlo ss
A uthor
U ri
over line
Ġ{ {
H R
Date Time
Ġh om
let on
pr ing
led ge
Frame work
Ġb rowser
Ġab solute
IN D
Ġup per
Ġen ough
M B
Ġm akes
R PC
Ġal gorithm
Ġtr ansport
Ġb ig
error s
Ġchar set
s ys
8 1
Ġp air
Ġun known
sh ift
p ull
Ġrespect ively
r uby
Ġfin ally
( @
Ġpar ser
f lex
ĠB O
Ġprof essional
EE EE
ri al
spring framework
re lease
Ġst orage
Ġrec orded
PA CK
as sembly
ad es
er g
L INE
}} $
Ġsong s
Inst all
m ouse
L ambda
Ġset t
ank s
c ing
an i
ĠRe quest
CT YPE
; )
il i
Ġresp ons
B r
ĠL aw
al a
iz able
. <
Ġh on
Ġlo op
D at
(' /
loc ity
Inter val
p are
om a
c os
8 3
t k
Ġout side
az z
Ġteam s
A CT
clud es
Ġm ar
are t
det ails
Ġne igh
Ġed ge
or ing
ĠM ary
Ġ ×
Ġsur face
ĠHT TP
) ->
Gener ated
6 1
Ġro ck
res ources
li ament
ĠW ashington
ĠArray List
Ġappro ach
Ġcall s
Ġen um
s ur
Ġc md
Ġdeg ree
^ ^
P ublic
Ġl iter
Ä ±
b le
(' #
D T
ĠH en
Ġm essages
ar ily
ĠA cade
Ġnull ptr
h ref
H ER
ph one
ar ator
c is
ro ke
require d
Ġnum bers
ĠĠĠĠĠĠĠĠĠĠĠĠĠĠĠĠ ĠĠĠĠĠĠĠĠĠĠĠĠ
ax is
ĠM at
se ct
Ġvis ible
Ġin struction
Ġrg ba
f ixed
Ġr ules
12 8
D b
7 4
! [
Ġset up
PO ST
Dom ain
Ġcontin ued
spec ial
riter ia
s afe
n y
w ig
u y
st at
ĠP ost
ĠM ore
d ers
ot es
Ġk m
I B
D C
Ġpre vent
en able
il ation
ĠD el
L L
eder al
Ġf ight
) ^
wh ile
ĠIn dex
is l
g a
LO CK
Ġt akes
Ġfl ags
7 9
z one
check box
ro t
199 1
Ġde al
ĠM usic
Ġas k
en abled
ĠCom mun
os er
Ġcon v
cite p
se y
Ġlarg er
DO CTYPE
on ym
Ġapp end
Ġsh ared
Ġup on
iz ations
Ġhe aders
Com ment
is k
ĠLO G
V M
n ab
Ġr ace
o sed
py thon
n odes
ĠCopy right
ME TH
Ġm enu
Ġ ];
w ik
Ġtime out
ont o
At t
Ġoff ice
ed ge
Ñ ı
li ance
t ar
B E
ĠEx ec
Ġcon duct
ĠH all
ĠS am
an o
Ġcom e
ĠP en
ro le
ĠM iss
ĠIs land
Ġex act
6 9
and er
ID TH
Ġst e
7 3
fr ag
ĠO ver
print ln
O ther
k m
Ġrequest s
app a
ĠM ex
amaz on
DE FAULT
U SE
ĠCol lection
g lyph
r andom
Ġf riend
fl ag
ĠP ub
ĠAn g
ĠĠĠĠĠĠĠĠĠĠĠĠĠĠĠĠĠĠĠĠĠĠĠĠĠĠĠĠĠĠĠĠ ĠĠĠĠĠĠĠĠĠĠĠĠĠĠĠĠĠĠĠĠĠĠĠĠĠĠĠĠĠĠĠĠ
T A
ĠT ur
em on
ĠS ociety
; ">
EEEE FF
ĠV ir
ĠT ex
Ġfollow ed
Ġaut omatic
ĠJ ust
Ġtrans late
b asic
Ġpot ential
Ġd aught
Ġbe havior
St at
P y
ac ro
W N
TR UE
text it
Ġs itu
ĠIt al
Ġpre c
EL D
Ġinst alled
Ġlong er
() ))
uit ar
Ġ ensure
Ġm ot
Ġs il
W R
Pro p
O ST
Ġstart ing
ang ing
Ġs imp
J S
ĠG o
7 1
est ival
us ers
ĠIn stitute
Ġid x
Ġrelation ship
Ġim medi
ass andra
Ġlay out
ĠP ress
ĠN umber
time out
ĠL eg
Ġnov el
C ur
M ake
196 0
end or
U D
Ġh it
Ġse curity
hel per
De legate
Ġdirect ed
pp ed
Ġread ing
Ġsom ething
N ow
b es
Ġre view
F ORM
Ġblock s
Ġhe l
Ġt reat
Ġ{ "
Ġf ocus
Re quired
C red
å Ī
Sk ip
Ġiss ues
. ",
Ġm d
ĠCol or
w atch
ĠA ction
ten ded
ic en
Ġv ict
" ],
ex pect
Ġ eng
Element s
W allet
Ġpr inc
Ġall Classes
ancell ation
c lean
Ġdisc over
Ġper cent
\ %
Ġde part
Ġexp licit
s ocket
p attern
v o
clus ion
ĠallClasses Link
var iant
ĠSe ction
Ġn or
An imation
ival ent
Ġm iddle
ig en
ĠS O
option al
Ġapp lied
refer red
Re port
Ġpro xy
Sh ape
alle l
Ġw ife
res ents
Ġup dated
Sum mary
ĠT V
side bar
orre ct
at o
Ġform ed
á ĥ
f ix
ig ration
th row
t c
st e
ick s
cont in
Ġmod ern
ĠC EL
Ġintrodu ced
Ġet c
en ers
Ġy ield
Ġme as
Ġcent ral
Ġcon tr
Ġre tr
ĠB ay
ess or
' ];
c it
ed y
Ġch ain
NavBar Font
Ġb asic
ĠT own
b g
ĠRec ords
Ġw ords
con sole
k i
Ġt mp
Ġy oung
w arning
C ap
En umer
AN G
Se quence
u an
ĠKing dom
p ing
Ġassert That
Ġt ro
com es
C ert
RE Q
ĠS ur
Ġal though
Ġprevious ly
Ġnecess ary
ĠAfr ican
Ġpro of
con struct
METH OD
Ġl ittle
S ort
p ite
Ġalbum s
ĠCan adian
oun try
Ġquest ion
Ġc ategory
ĠRuss ian
Ġass ist
own er
Ġmon ths
ate way
A CE
ateg ories
M ask
ĠTh omas
et te
Ġpro posed
Ġsign al
ĠC ong
Ġcomp anies
w riter
v c
cre d
ra el
n def
ext ension
ifi ers
Ġpro ps
L anguage
Be an
ĠTe ch
T otal
he ll
ĠP ath
u ation
amil ies
ĠG ames
F ragment
ĠG reen
am pl
Ġe ff
en ing
Ġcamp aign
Ġopt im
bl ank
g s
N T
st ar
/ "
pan ish
DE BUG
M at
=" $
Ġfact or
sign ature
S creen
ĠC ath
Ġus ually
C ast
V ideo
Return s
quot e
Not ification
Ġf actory
ã Ģ
M ouse
EN SE
ĠN AV
M ulti
ĠE ND
Ġb ad
al and
Ġread only
velo per
ĠSup er
ĠRo ad
ĠC am
G ame
Im port
ver ter
ĠH istor
v ideo
Ġan aly
Ġc ut
it a
Ġde p
s ince
D ictionary
ĠS IZE
is ation
y g
= -
L en
Ġlarg est
up load
Ġex ternal
urn ament
Ġp rior
198 9
d en
ĠA lex
F ind
= (
ĠCl ub
End point
Ġl iving
O F
Sing le
Ġpl ugin
ä »
Ġ' \
Vert ex
ĠCent ral
asket ball
Ġun less
E C
g reen
RE S
check ed
ĠL ine
Ġcoun ter
Id s
in ct
Ġm ulti
Ġdes igned
Ph i
d c
r um
ĠB ig
w ell
Ġn p
Ġf ounded
VAL ID
y per
M icrosoft
e ch
Ġe lected
ld ots
E mail
Ġt ax
En coded
Ġs ources
j d
p u
Ġcour se
Ã ¨
ĠF re
Ġm anagement
re v
ĠIn c
Ġcomp let
if ndef
ĠR out
Ġ ).
="../../../../../../ ../
ir med
Ġex it
a res
ul ations
cl uster
Ġval ign
ĠTh at
ag ent
ĠB est
Comp iler
(" /
ĠD ay
F ig
Ġem ail
get Value
ffic ial
Ġvol ume
Ġn atural
Ġ@ "
y r
Ġhim self
Ġexper iment
Ġab stract
g oto
ĠU K
line ar
ĠJap anese
orig in
Ġf it
Ġt ell
Ġf ace
Ġrece ive
Ġappe ared
Ġo wner
Method s
Ġcont roller
198 8
art icle
Ġex port
» ¿
Ġdes c
Ġm oment
I gn
P HP
Ġbir th
ï »¿
M ath
d atabase
/ \
Ġr aw
k y
p ed
ce ed
l at
ar ian
ĠS QL
US ER
ĠWh ite
pl ates
ĠAfr ica
INT ER
'] ['
G en
Ã £
Ġs b
ĠD ocument
ĠK e
Ġgr ant
Ġappoint ed
ong s
Ġal tern
ĠD i
IT ION
cre te
Ġstr ings
pro xy
ind ent
Ġre quires
um my
ĠJ ew
Ġf un
à ¸
Ġpro ces
res olve
D S
ach ment
ĠM useum
imit ive
al i
an imation
G oogle
Ġd im
sub set
ict or
trans ition
Ġen able
Ġtr a
AN CE
test ing
ĠIm age
ĠNAV BAR
lang le
Ġal most
P P
Ġplay ing
ĠH o
osp ital
S ql
or ter
: \
Ġ" $
ma zon
Ġen v
B ound
ĠC he
ploy ment
Ġd am
ĠA LI
Ġact ually
Ġprot ocol
cl one
F S
comp ile
ĠU N
ue st
w hen
ĠL em
M ARY
ĠT im
qu es
Ġm ask
B egin
H and
" ].
Ġfail ure
Ġb uf
F L
Ġopt s
Ġrecord s
ĠWh ile
ĠSc ott
******************************** ********************************
Ġt sd
w all
z ure
Ġp ool
Ġpart ial
, -
ĠM ax
Ġsub sequent
D ATA
met ric
org an
Ġle arn
Ġ( [
Ġb inary
Ġschool s
Ġpl aces
Event Listener
uf act
P air
Ġo k
um in
un defined
Sup port
Ġtr igger
r ish
play er
Fl ag
Argument Exception
ĠY ear
M er
ĠAcade my
ro ute
Ġ Ø
f ire
s ample
iss ues
S K
in et
L a
ĠO ff
ra ction
Ġe ight
ic ation
Ġm other
Ġd imension
Ġcont act
Sh ort
I VE
h l
Det ail
Ġ ri
ĠP at
Ġrun s
St op
Ġd rop
Ġme chan
Ġd u
I ST
ĠDem ocr
Ġ ul
al ed
ut ation
Å ¡
P UT
} -
Ġdisc uss
Ġvert ical
nab la
Ġfootball ers
Ġdis abled
PRO JECT
Ġd iag
Ġspe ed
cond ition
MO DU
ĠVal id
Ġro ad
pe ople
select or
ST ATE
g ame
Ġbo ard
Ġstate ment
Ġ que
% "
velop ment
ĠOr ig
MODU LE
down load
Ġs chema
lo aded
S l
lo ok
ĠChrist ian
Valid ation
Valid ator
Ġs ql
Ġpro per
ĠCh inese
up lic
Ġt aking
ĠWest ern
os en
h ere
d uration
Ġs us
Ġm aster
ĠALI GN
S igma
æ ľ
bl ue
ĠLou is
run time
Child ren
T S
ĠL at
at omic
ĠTex as
ud a
Ġsc roll
Ġlist ener
ĠE lement
Form s
ĠFor ce
Ġb ranch
con structor
orig inal
Ġver ify
ĠMich ael
li brary
}) $
at ively
NS String
opt s
ĠChar les
ĠSt art
m box
ĠR el
tr l
ĠF ore
ĠSe cond
ann ing
Ġj ud
is Empty
de pth
# {
Ġre set
re land
Ġcolumn s
P ub
al ax
ĠMin ister
valid ate
M ove
Ġan imation
re act
ĠIn put
Ġal umni
Ñ ĭ
st on
dest roy
ĠItal ian
ĠĠĠĠĠĠĠĠĠĠĠĠĠĠĠĠ ĠĠĠĠĠĠĠĠĠĠĠĠĠĠ
k appa
ĠE mp
com mit
Ġfor ces
Ġsign ature
th rift
ĠSh ow
Pro gram
mer c
F low
ĠS al
lo op
ie ce
ĠVir gin
S cal
ap is
H igh
ĠE ar
PT ION
L in
Ġch art
M I
Ġinv olved
l am
âĢ ľ
ov a
ĠG old
{ -
Ġc ursor
D A
duc ation
id ents
getElement ById
Ġfor ward
M IN
van ced
ĠH istory
s lice
( --
ĠB en
ĠAN Y
ĠM ake
Ġcoun tries
ĠV is
} ]
ab it
az ine
P ass
Input Stream
ĠT or
s b
kw args
198 7
typ ename
p resent
OR Y
: `
Ġprob lems
P si
ĠZe aland
str ument
SS L
re port
Ġlist ed
ĠD ec
Ġp anel
ĠM a
ĠV ector
Ġthrough out
S ave
W arning
io graph
ann ed
Al low
Ġsum mary
Ġe q
yn chron
arn ings
Ġrel ig
Ġse m
Re v
pol icy
: @"
or se
Not es
Ġle ague
Ġwho le
ĠĠĠ Ċ
{ "
in y
r f
En ter
ĠSum mer
Ġb us
Ġf ix
/ {
st ant
c le
pro v
Ġaction s
Exec ution
Ġre ct
f ol
V ENT
Ġst and
i ers
STR ING
Ġbegin ning
Ġco up
VI CE
s ync
198 6
Ã£ o
W ORD
ap pro
is set
AP P
Ð ¼
Ġar riv
Ġjo urnal
C ALL
ser ve
sup ported
high light
Ġg uitar
ĠT er
Test Case
ac c
irc raft
in herit
j i
Ġbro adcast
Ġe as
Ġc lick
N ative
ex it
\ |
Ġd riv
Ġincre ase
ĠCar ol
he ast
Ġmark et
h ar
Ġ" ";
stand ing
Ar ch
Ġ' ';
ĠA R
Ġth ings
Ñ Į
anc ial
SE LECT
ĠK ore
Ġa xis
over view
: [
us r
ĠB oolean
ĠFran cis
ĠG reat
IO Exception
OR TED
d i
Î ¿
Id entity
u ages
Ġre ached
Ġbook s
nav igation
object s
ĠP oint
ĠT ok
Con sumer
il s
az y
ac le
Null able
se quence
ĠOption al
v let
Ġg ave
ĠOlymp ics
ĠCom mon
Ġm is
F older
mer ge
Ġm us
ans ion
CO MP
Ġs ound
æ ĸ
T ra
Ġrem ote
h ouse
Ġ> >
Ġexec ute
ĠRes ult
198 4
ier arch
L imit
Ġsecond s
Ġl icense
Bind ing
tr ace
S ample
ĠG od
D river
Ġdet ail
Ġs en
Ġpre dict
Ġin ner
h old
is ions
M iss
all s
op ed
Ġign ore
omet imes
Ġdocument ation
WE B
Ġtr ansparent
0000 0000
ĠM ad
Al loc
ched uler
z ip
circ le
Ġad apt
tt y
struct ure
pec ially
c atch
D iagnost
lip se
ul k
RE G
Ġpub lish
Ġob served
C F
Ġdaught er
Ġsp an
B atch
Ġnav bar
b oost
sp acing
vis ible
Ġag ent
Ġk illed
Ġre ally
Ġd river
cal endar
C loud
e ffic
> )
de g
ist ers
Serial izer
Pro to
ab ilities
ĠH ow
R R
ist an
Ġp or
Ġmatch ing
Ġ ..
Ġle aders
_ );
i ences
Ġex tract
group s
L iteral
Ġre ject
Ġsmall er
Ġrepresent ed
C G
t or
ĠT H
Ġact ivity
ĠF ootball
Û Į
pe ated
u ite
Ġrem aining
Con structor
\ [
u dd
Ġle arning
ĠB lock
S ince
MO DE
Ġ ans
LO C
ss l
t f
N A
ing u
sing le
at re
W orld
st able
al ert
ĠO p
Ġcour t
Ġinter val
ĠJo se
at ar
En vironment
f actory
Ġd ict
cre ated
ĠP RO
ic ol
dis able
Ġd ram
ot on
ile vel
Ġre ader
Ġeffect s
ro om
Ġmin imum
p le
j Query
ĠF oundation
() ),
oper ation
on ce
Ġ" ",
gener ate
Const ant
& \
ORD ER
Re lease
P U
Ġ â
Ġmed al
ç Ķ
us ion
Ä ģ
Ġs ports
ext end
Ġde lay
Tr ansport
re ct
in f
Ġsc en
Ġqu ick
set up
Ġto ur
; \
Ġgr id
Ġtest ing
Ġequ ation
Ġdiff icult
Ġsh are
ĠI ll
rel ated
low er
d ots
t ics
pre t
Ġde ep
Ġ ig
Ġd ise
con vert
Rem ote
Ġsh ip
198 5
FI ELD
b ro
sub mit
w ar
am i
Ġinst it
ĠSm ith
Ġepis ode
d river
ĉ ĠĠĠĠĠ
/ _
Ġfem ale
Ġfor ms
Ġeff ort
a ud
App end
DE F
Ġch all
Ġthere fore
ĠRe f
Ġbuild ings
sc ss
Ġf ill
G ER
pl us
Object s
Ġse lector
Ġc ard
ĠT om
L ower
Ġc ivil
ĠSc ience
ĠC lient
e lem
DO M
ĠA re
N UM
19 50
an ch
ollow ing
C lear
P H
Ġgrad u
ĠI llegal
H tml
Ġpresent ed
Ġcre ating
center ing
n p
Ġc ult
de p
ĠP ri
ĠAl so
hav i
Ġcon cept
act ivity
Ġlik ely
ĠF ROM
comp lete
ĠReg ion
ĠA v
irt y
ry ption
ĉ čĊ
ac cept
Ġthe me
n ative
ĠPro perty
f etch
Ġlo aded
F E
Ġdepend encies
ĠIs rael
trans action
Ġse cret
Ġde mon
ĠE q
cal led
Ġconn ected
CH AR
ir a
i ses
ĠA ut
vert ical
ĠR et
Oper ator
S im
th m
Ġde m
Ġap ilevel
Ġart ists
Ġ\ "
Ġsp ent
Map per
Ġs ys
Ġspec ify
ĠEx p
Ġh olds
Ġorigin ally
am el
O wn
Ġfin ish
å ®
ï¼ Į
im a
ĠL in
F n
ing er
Ar t
G R
ic ago
P rivate
Ġse gment
d ash
Nav igation
Ġ ir
brid ge
Ġse ven
Ġent ries
d iff
r adio
v s
Ġpl aced
ĠM us
Ġel if
ĠN etwork
Ġcon c
Ġex hib
Ġgiv es
H ub
Ġvalid ate
Ġstud ies
> "
Ġdeter mine
Ġro om
Ġed it
as c
Ġexp lo
Depend ency
Ġbeh ind
ut ch
ĠRem ove
Ġco ach
fr ont
Pro v
M ed
Ġ' ./
Us age
Ġevent ually
Ġexec ution
Ġm ixed
Ġp ush
St atic
Ġelect ron
ĠSet s
ĠEx t
Ġse c
å Ĳ
Ġstruct ures
Ġacc ur
N N
}} {
ri ends
m essages
re ce
Res olver
common s
de precated
Ġuse ful
c f
ĠCath olic
IN S
Ð ´
Ġm unicipal
Ġst ri
198 3
! \
G u
icen sed
arg uments
ON G
ĠS ource
second s
i ro
Ġop acity
Ġpol ice
Ġ rows
ensure math
ĠPar is
Not Found
'] );
ĠL ife
log o
Ø ±
Draw ing
ĠX ML
non umber
Ġrep resents
du ce
/ ">
Ġorgan ization
Vol ume
Th row
ud o
ĠW IDTH
ĠP eter
ant a
method s
Ġde pth
Ġperson al
1 20
ĠDE FAULT
N ormal
Ġsh ift
Ġ_ ,
for Each
erm an
k t
Ġse x
B asic
Ġst ored
Ġ" %
W ait
ren ce
ge bra
R aw
f mt
m atrix
Un known
d y
ĠGr and
Ġpre v
Ġact or
d ig
66 66
Ġst ations
Render er
ĠâĢ ĺ
Ġart icle
Ġreg ard
ĉ ĠĠĠĠĠĠĠ
D em
Î ±
ĠRich ard
ed back
ĠB ill
Ġ" .
ĠSo ftware
ĠD B
ĠOn ly
ul ator
Ġf mt
Pl atform
w p
r g
D ATE
Ġass ume
< <
b i
face book
ĠLoc al
merc ial
En v
Am ount
sh al
Ġ' '
er ved
R T
ĠT op
ill er
Con nect
Ġes pecially
ĠL os
Ġst ated
W ord
M T
re me
oc ation
ens itive
Tim er
bl ack
Ġdis k
Q U
C ar
ĠL java
Ġb ene
D ay
Ġ ">
en ge
, '
ĠL ake
d k
Ġsimp ly
n n
ĠP age
ĠGe org
Log in
, âĢĿ
M essages
Ġre ve
A li
ag ger
s imple
15 0
ous ly
Ġsur v
Ġm ut
ĠC amp
ĠFr ank
Ġtech n
raz il
% ,
b its
ĠM ock
: '
o on
Ġcomp ared
IN ST
os itory
Ġn ight
Ġb asis
ĠG ame
ĠĠĠĠĠĠĠĠĠĠ Ċ
Ġst aff
assert True
o ch
load ing
ĠS un
ĠI reland
Ġ} }
198 2
Ġm eta
Ġart ist
lement ation
ĠM ass
S yntax
ĠN av
Ġcomp ute
Ġent ered
A udio
word s
Ġf oc
ĠP lay
bo se
Ġth ought
Ġ{ },
l arge
ag er
Ġcall ing
ix els
Ġcol span
Ġlevel s
i ate
ĠAp ache
k ins
Ġdec ision
A xis
ol f
C ursor
D iv
Ġlim ited
ir ing
ĠC ast
ĠWindow s
Ġcom mit
Ð ²
Ġto uch
Ä ĩ
197 9
c our
Str ategy
Ġtr ade
se par
ar ia
Ġcap ital
glyph icon
C ONT
Group Name
Ġle ader
an cy
s n
Ġneg ative
ce eded
Ġprov ider
lo od
Ġautomatic ally
ut down
tern et
tab ular
Ġa ud
direct ory
Ġcre ation
f ound
z ero
mem ory
ĠRe search
12 3
ot imes
Ġident ity
Ġg as
ĠS panish
Ġst ars
Seg ment
ĠD u
An notation
S ur
Us ers
ĠHen ry
lic ense
ig an
Ġ> >>
Ġtemper ature
ic ient
Ġres olve
V ID
t ex
ab ric
ĠG overnment
Ġsepar ate
st rip
oc key
ish op
Ġ' .
Ġ' ',
] ))
; |
ch ain
Ġbe comes
Cont act
=\ "
ĠP an
å ħ
A F
Ġnot hing
Ġrec over
\ ]
Process or
Ġversion s
Ġphys ical
Ġre comm
Set ting
Ġcomp are
Ġp ick
pe ar
ĠCom mission
Pre v
T ags
mon th
Ġvar i
Ġcont ents
on al
he el
Ġappro pri
B S
Ġequ ivalent
Ġm ention
C md
Ġhig hest
Ġtrans fer
2 13
id ae
y y
Comp at
. """
Ġd ro
form ance
get Id
F ree
l an
ex ist
ver y
Ġbro ther
ĠA ust
Ġf oot
chedu led
ĠM ain
ĠM icrosoft
Ġte ach
ĠRes ponse
b atch
Ġs aw
ĠEng ine
Ġg old
Ġs ch
Cond ition
ĠJ son
F ocus
ĠW omen
Ġs n
Ġto wards
ĠW rite
C LASS
Y Y
ĉĉĉĉ ĉĉĉĉĉĉ
in der
ĠV ictor
R ate
Ġt ags
N ET
c assandra
Ġ ðŁ
ĠW AR
ass ign
Ġpl ant
Ġext ended
In ner
Ġrem ain
Ġf ully
M aterial
i en
b log
Ðµ Ð½
Ġper missions
fl at
ĠT wo
ad or
Ġe ffic
Ġmov ement
ĠSt atus
Ġig et
Ġd uration
S pan
(" #
B order
en ses
ag raph
st one
sel ves
AN T
im s
Ġto day
ĠĠĠĠĠĠĠĠĠĠĠĠĠĠĠĠĠĠĠĠĠĠĠĠĠĠĠĠĠĠĠĠ Ġ
Ġpolitic ian
D rop
TR Y
Ġa udio
ur t
) -
Ġmod ified
ĠÐ ¿
Ġcol lect
Sh ould
Ġdat aset
ĠAn ge
Ġ ess
S ep
sub scri
Ġf ast
Ġident ifier
Ä į
Ġ$ _
Ġin j
Ġm oney
ab out
en code
Ġ' %
Ġindu stry
cont act
Ġso on
Ġgener ally
F UN
( .
C apt
head ing
I V
Ġocc up
Ġem bed
Ġg reater
be an
ĠD escription
Ins ert
def inition
os h
at i
ov iet
Ġmin or
Comp lete
pr ime
ov ers
Ġmod al
s in
B inary
ĠAnd roid
Ġus age
ĠA S
UR CE
ĠB it
el t
ol ar
Ġp ri
Ġm achine
s ym
T erm
Lib rary
p erson
Ġ_ .
Ġagre ed
ĠSer ies
Group s
cont ents
to Be
d ing
G o
Ġlist ing
AT TR
ĠPro f
ĠCom mittee
Ed ge
Ġear lier
Ġw x
Ġf amilies
ĠFl or
Row s
Ġrem ained
Over view
uff ers
Ġmin utes
Ġc ulture
ce ler
E arly
} +
d jango
C aml
wide tilde
b c
\ '
ven ue
ĠVirgin ia
Ġun ion
w br
ail y
C ard
c fg
w d
hem atic
Ġdemon str
Pl ace
M ore
;| &
197 2
am ing
ĠH ill
medi ate
197 6
.* ;
198 1
i Ã³n
ĠB ack
Ġh ours
Ġter min
pol y
elli j
Ġclass Name
Add r
Fail ure
F ore
Ġf lex
Ġp an
Sh ared
ĠWAR RAN
Ġmer ge
L ight
Ġexper ience
lib s
se q
Ġresult ing
D rag
Ġm ultip
ribut ion
const ant
Con sole
pend ing
Ġbl ue
Ġsuccessful ly
ĠFil m
es ome
o logical
Ġass ign
ol a
M IT
J oin
L ook
Ġdiffer ence
Ġimmedi ately
W rit
N amed
Ġve h
Ġtr ain
element s
Ex ample
T ile
int ellij
ĠC ustom
tr im
Ġfour th
Fr ames
Ġaw arded
Pe er
Ex port
g z
Ġpract ice
ph rase
St ub
Ġframe work
Ġv an
ĠC G
Ġrepresent ing
A UT
form ed
Ġfeature d
Ġmat ter
Ġb ur
et ween
Tim estamp
uss ian
Ġinv ol
Ġh ot
greg ate
p at
Ġmean ing
De precated
Ġbound ary
Ġinteg r
en umer
lem ma
ĠM edia
ĠSec ret
Ġeffect ive
om orph
class Name
Ġj s
ro ad
lic t
F act
ĠSw ed
Ġcol lege
ant e
Ġan ti
ib ly
HER E
Ġt re
LO W
The me
Ġsc ient
G ui
aw n
ĠAb stract
} '
ced ure
ĠL ink
HE AD
Ġp urch
ĠB ook
em it
Ġsing er
E ST
ĠS pace
ff f
ec ause
Ġf ood
view port
Ġpro to
l ated
Ġ ^
tim estamp
$ _
ĠD en
Ġtask s
ĠCo q
d imension
Ġre strict
197 8
stit ution
ĠCh icago
" /
B ottom
pk g
Ġent er
B UI
Ġprob ably
Ġprodu cer
Ġnew s
Ġw alk
ge o
ch art
T F
Ġsc ene
tool tip
Arg uments
re po
s a
Ġon line
196 8
Ġs ocket
Ġass igned
Ġsyn chron
Ġa ircraft
ag ma
ul let
Ġb ank
en ant
ĠPro gram
it an
Ġcause d
Ġappe ars
re ader
sub ject
ĠR ock
ig er
n ob
resent ation
Ġincre asing
ĠI mp
I E
Error s
ch a
ĠM el
se m
scal a
V AR
ari ant
Ġlo ve
ĠIt s
197 5
P od
) [
Ġrem ains
function s
Ġimp act
ĠConfig uration
Ġch unk
Ġc he
B B
b ing
Ġdec ided
at ur
or ient
Ġsp in
ĠĠĠĠĠĠĠĠĠĠĠĠĠĠĠĠĠĠĠĠĠĠĠĠĠĠĠĠĠĠĠĠ ĠĠĠĠĠĠĠĠĠĠĠĠĠĠĠ
cover y
as ion
> '
Sign ature
= [
ĠM il
ic ip
LI ST
Ġev idence
197 4
run ner
Ac cept
T V
ĠT R
Ġcrit ic
Ġr ai
s ure
Ġt d
it z
Ġd raft
Ġpe ak
pl an
alt Color
Enc oding
int eger
Re al
UM MARY
r pc
\\\\ \\\\
Ġdepend s
ro uter
ĠW IT
b uilt
Ġm ix
Ġvalid ation
ĠRuss ia
ĠAr ts
XX XX
ancellation Token
197 7
rypt ed
Ġp lot
ĠN ow
Con straint
AR G
ĠAn y
Ġp od
! !
6 00
Ġar ia
FF ER
è ¯
CON FIG
l int
ĠB A
Ġre served
ĠPro cess
S ite
Ġp ages
Ġestablish ments
Ġinst ances
" },
Ġp en
I AL
av ailable
ĠHe alth
exp ression
Ġb atch
f i
comp are
Ġfin ite
T Y
In formation
m obile
Eng lish
un ched
m ms
Ġh o
Ġstud ied
se ll
Array List
Ġconnection s
Ġ quot
ĠBo ard
Ġto urnament
ch anged
are er
m k
= %
ĠLib rary
Ġdiv ision
Ġreg ions
Jo hn
iet y
Ġd ark
ex tra
ri b
M C
B ounds
ĠSc ot
Ġproduct s
Ġcompet ition
li e
to uch
Ġc ancel
TI ES
A SSERT
ĠVAL IGN
s ig
re pository
Z one
im in
g g
ersist ent
Do ctrine
De pth
Ð° Ð½
) ",
Ġd a
ĠDe lete
can vas
Ġch arge
ad y
Perm ission
rem arks
We ight
{ $
Ġdest ination
Ġder ived
C enter
c up
Ġide a
Ġas sembly
B ool
ĠP et
refer ences
Ġleg al
Ġcandid ate
ĠMex ico
g if
w x
R UN
ĠAnge les
B ook
Ġoccur red
Ġdef in
sc r
Ġadd resses
Ġtim estamp
rem ote
Ġs cheme
> ;
cl aim
b x
dis patch
Q ual
b d
lo ur
UN D
S V
( ()
comp ute
Ġlet ter
u uid
cur sor
F inal
y an
ian a
ĠSt ar
Ġpay load
Ġhigh light
Ġstud ent
p ad
av ity
NO DE
Ġcons ists
Ġst ats
ent al
s ent
Ġtype def
net ic
> ()
Ġg alax
Ġle ave
yl van
Ġt alk
ĠIt aly
Pl an
ĠC ap
Ġprob ability
Ġsc ience
/* !
ĠChampionship s
r ich
Ġlog ging
un ct
str a
G EN
b lob
Ġsk ip
f ast
STAT US
E ffect
H ome
ĠC OL
Ġn orm
ĠV ar
$ )
Ġproject s
"> (
ĠA c
rit ory
res ize
\ {
Ġpart ition
ic ies
Ġopen ing
Ġs amples
Ġd ialog
Ch ain
Ï Ħ
Ġl ack
Ġ Query
æ ķ
create Element
Ġm ult
m ulti
se lection
Ġg ir
a udio
} :
for ward
L eg
197 3
G O
or ial
s r
e a
Ġ< -
an chor
} |
C ounter
valid ation
Sh ader
og ram
Cont ents
ug by
grad ient
Ġconc ern
Ġf ragment
ig ate
Ġrequest ed
Ġprocess ing
b at
ĠS aint
H older
Ġprodu ce
Ġrun time
ä ½
ĠD O
**** **
p aper
C oin
ĠO ld
Ġwh om
/ .
Ġm apping
AT ED
om ial
Ġr adius
ut s
pro gram
Ġs ays
de cor
Ġpr im
Ġ{ %
Ġim g
Ġvert ex
Ġacc omp
Ġt ensor
Ġs ync
Ġp riv
get Instance
ĠThe orem
Ġs ometimes
g ers
ore s
le br
Ġlabel s
ĠEn t
vol ume
ĠB ur
in em
ic ate
Ġsc ored
ä º
Name Link
Ġbro ught
Ġcon sum
ov ed
ipp ed
cre ment
p air
Ġplace holder
Ġf rag
p ower
Re set
ĠM P
Ġend point
string s
ĠST ART
iograph y
a ren
ĠTh us
s ome
ĠF ind
ĠS UMMARY
Ġan im
Ġcomp uter
Ġal ias
ĠL u
ĠSt ep
plo t
not es
( ['
if fer
Ob server
Ġc it
Ġwe ak
File Name
ĠC SS
AT OR
Ġover all
> %
Ġgr and
197 1
Ġwrit ers
ĠFig ure
ĠM ost
Cont ains
à ¥
ĠK ar
C ulture
z z
ĠE ach
ĠTe am
Ġfore ign
Ġ ----------------------------------------------------------------
) ^{
Ġtr avel
ĠS il
ĠT imes
ot ing
Ġapprox imately
Ġlo t
Ġar bit
grad le
Ġfig ure
Ġg a
Ġex amples
B Y
h y
ĠN avy
B al
Ġol der
196 9
Ġb asketball
ĠH ere
Ġinitial ize
Ġm ur
Ġtrad itional
w orld
Ġre v
w allet
Ġg un
Gener al
R ob
Ġsup ports
ĠI tem
p icture
ĠPar liament
Å Ĥ
Task s
19 40
C B
ĠF estival
Decl aration
Ġd ie
Ex ists
Miss ing
Ġs uc
ĠNew s
um s
D irection
Ġw atch
Lo op
_ )
Con vert
Ġtrans lation
ir ror
Ġqual ity
serv able
ĠApp lication
Ġapplic ations
Ġm anaged
n ight
ĠSup port
ĠUn der
lev ant
Ù Ĩ
S M
clus ive
j ax
ĠP op
log ging
ect ors
Ġcrit ical
Ġcom es
Ġs aved
Ġm ouse
ylvan ia
RE D
è ¿
ĠAr ab
ĠFlor ida
Column s
Ġad opt
ĠS imple
Ġman ufact
k l
Ġch oice
v in
String Builder
S m
CO MM
i h
serv ation
Point s
ĠOrig inal
Ver ify
ap es
ys ical
194 5
F uture
de lay
ĠS earch
s yn
rypt o
ad oc
Ġmod ify
p id
sol r
Ġch arg
or ation
Met rics
K it
Ġr atio
ersist ence
Ġdom in
ian o
Ġlo ading
Ġpr ison
ĠAn n
y ing
(' <
lo or
t witter
p b
Ġc b
ĠC D
And roid
Aut hentication
ĠCong ress
Ġget s
ĠTh read
En able
(" %
Ġnot ed
fe fe
Ġ Å
C ancel
Ġprogram s
} =\
RA Y
St andard
EN V
Option al
ast e
ĠO h
ĠCre ates
Ġdis able
aw a
LE D
ĠOut put
z eta
Error f
port un
The n
W IN
Ġincre ased
D uring
Ġpath s
ud get
iv ery
Ġde b
ill is
Ġcap acity
U ses
jav ax
M ay
Ġmet ric
ĠM ur
Ġplay s
(" \
z en
ĠD OM
d ark
Ġp ark
iver se
n ic
Ġme et
ĠIn v
Ex pected
Ġregister ed
de m
ĠL and
) =\
b us
t ensor
ĠCarol ina
Ġl atter
ĠS E
ig a
pre ad
on ed
ĠCont ext
ãĢ Ĥ
get Type
Ġposition s
p ages
Ñģ ÑĤ
Ser vlet
Ġnot ice
aly tics
Ġg reen
D ynamic
Ġs ense
c u
Ġen ded
UB LIC
12 7
Ġe p
por ation
S em
im ents
sk i
ĠG en
lic enses
196 7
up s
S ome
ar c
Ġs af
Output Stream
on ical
es ian
LE TE
DE X
al o
d anger
Ñ ĩ
} ",
Î µ
b an
gu ide
Ġp ull
To uch
Ġw oman
ĠAt l
ierarch y
Ġover flow
column s
19 30
Ġpur pose
U ST
ĠU s
ĉĉ ĠĠĠ
ĠAl though
AT CH
( /
j et
f older
19 64
Ġde ad
Ġal ert
ĠMart in
T AG
ĠSer ver
po inter
p riv
() ">
gener ator
lo ts
Ġfe el
Ġappropri ate
ok ed
Ign ore
Ġdetermin ed
As set
Ġcommand s
rt l
Ġref lect
ĠBy te
el astic
get String
ĠE r
BUI LD
N V
lo ss
ĠĠĠĠĠĠĠĠĠĠĠĠĠĠĠĠĠĠĠĠĠĠĠĠĠĠĠĠĠĠĠĠ ĠĠĠĠĠ
MA P
od ay
not ations
ĠO l
Ġun d
Ġa cade
P red
ĠA wards
In struction
sd k
Î ¹
Ġpres ence
Ġre ach
Ġ' ''
o e
G IN
å ¤
Run ner
Ġsh all
ĠB razil
br and
Ġc ensus
t l
Ġ il
ĠProv ince
× ķ
B ro
ĠU RI
12 5
k top
text width
Ġv s
LE MENT
B IT
Ġvoc als
Ġd ynam
Ġsh ot
Ġfre quency
Ġb its
n c
and o
âĢ ¦
ĠHistor ic
sk y
ion e
g ments
b our
Ġn uc
i qu
ĠS oviet
Ext ensions
and a
Ð¾Ð ²
Ġf etch
> \
re peat
Ġk ing
Ġb attle
bind ing
A ST
25 0
Ġ" '
Ġown ed
" ];
10 1
oo g
Ġg oto
ĠCh ild
c ancel
BU FFER
F amily
ĠP ac
u v
0000 00
w a
ĠS D
w arn
pr agma
Ġactiv ities
ĠI ter
Ġgener ation
SO URCE
n os
Id x
Ġv m
Ġr ap
ĠL ay
M anagement
Ġf older
ss ible
Ġadmin istr
Ġthem selves
8 00
is c
S core
ĠF ort
å Ĭ
un lock
Ġwh y
D on
Ġneigh bor
Ġ` ``
D TD
P romise
ns ylvania
ĠW ales
Ġse qu
Ġb ring
Ġs quare
Ġn ature
lin ux
ak a
r ad
Ġd rag
Ġcomp iler
al og
ĠT ra
amazon aws
WEB PACK
ĠM r
ĠB uilder
Ġ& #
Re quire
ĠE li
R C
S plit
m ac
Ġparent s
L icense
ĠO S
Diagnost ics
Å į
Ġ uri
Ġex ports
>< !--
Ã ±
Ġrespons ible
ĠB ank
Ġdown load
) +
ab c
Ġed ition
ic ode
19 20
A bs
sp irit
ĠI rish
T wo
F OR
am in
P Y
S he
d irection
ĠS ocial
top ic
Ph one
Ġstr ategy
ARN ING
Ġapplic able
Ġch oose
Ġview s
) }\
ec k
__ )
F ixture
ĠCol umb
Ġm icro
ol id
on ic
Ġparticular ly
Ġdo ing
Be en
Table Row
================================ ================================
der r
FI X
LA Y
IMP ORTED
M any
Ġrelation s
C areer
Ġwin ning
v ement
-------- --
et t
Action s
Ġcal c
Ġst eps
B its
Ġ- =
ta iled
cd ots
Ġtech nology
ent ly
Ġ' "
Line ar
RES ULT
ĠCl asses
Ġd ynamic
ip er
Ġ| =
Ġvis ual
Loc ale
ĠCont rol
atri ate
Ġaccept ed
{ (
ĠAd min
lic ations
Ġl at
Ġcom mercial
S napshot
LIC ENSE
I Z
S N
UE ST
S witch
Ġimplement ed
R andom
er v
Ge ometry
n am
Ġill ustr
M achine
B uf
196 5
ĠC ross
not ify
clud ing
m apping
at ial
Ġ( -
T uple
ĠU til
ĠT our
in x
Ġw ave
ĠLog ger
Ġmov ie
12 34
uplic ate
dat etime
ĠK h
ĠH ot
Ġtr ace
tr ansport
po ses
Ġm anag
onym ous
Ġmajor ity
ĠE ducation
ĠF OR
o z
eg ative
Orig in
Ġcon ver
18 0
annot ations
Ġstud io
ĠEmp ire
m al
Ġab ility
link s
Ġpar sed
un ior
Ġ-- ></
ren g
Ġ& =
Ġm or
Ġmed ical
Ġ eth
t wo
ch er
T y
Ġrai sed
ip her
Ġr ad
Ġr iver
> ${
sw ing
ĠB rown
Ġecon omic
Ġph il
Ġse ll
Ġe arn
Dis patch
Ġla unched
um es
Ġocc urs
Exec utor
ans as
Ġpo et
E Y
ru les
Ġb ug
Ġrep ository
F ALSE
Ġch osen
Ġs al
ĠPy thon
am ous
Ġredu ce
C CESS
ĠI ran
ĠĠĠĠĠĠĠĠĠĠĠĠĠĠĠĠĠĠĠĠĠĠĠĠĠĠĠĠĠĠĠĠ ĠĠ
Ġf s
Ġat tended
Ġne ut
ĠL ove
S ame
che n
Ġde cre
ĠPar se
Ġs low
ĠV irtual
C trl
Ġpr ice
so ap
Ø ¯
Ġcomp arison
ĠH on
ĠJose ph
ĠEn ter
196 6
rel ative
s un
j ac
ĠR est
h om
CRE ATE
ap ers
Ġinput s
Ġ' #
Ġexp anded
ĠĠĠĠ čĊ
. ~
Con verter
RE E
B est
ĠSt ream
Copy right
fin ite
f old
ograph ic
Ġpro ve
ust ers
T L
Ġla unch
Pack et
AR D
ell ig
Ġinit ially
inter val
Ġseason s
^ +
' ll
mon d
ur er
ĠF ree
on a
ĠDirect or
G HT
ref s
ĉ ĠĠ
< >();
R ot
ĠDe v
ell a
ĠW al
ĠM ember
Fil ms
ĠNor thern
item pty
Ġappear ance
D r
om itempty
yd ro
f p
D iff
Ġw arning
s id
ĠA mazon
Ġcoll abor
Ġnew sp
Ġres olution
m ag
we et
ĠH andle
Del ay
Ġve locity
] +
Ġtrans actions
Ġun iform
pre vious
Ġp p
O wner
arch ive
ĠSec urity
Ġbound s
pro b
BO OL
Ġassert True
Re ason
Dec imal
Ġco ast
al ias
Ġe asy
n orm
ĠD own
tim eline
ĠA uthor
Ġuser name
get Class
Ġcell s
i ated
act ual
ign ore
HO ME
Ġ( %
Control s
it les
l ad
Ġest imated
oot strap
h pp
Ġnor thern
as hed
T er
ĠWARRAN TIES
}_ \
T ING
Ġconstruct ed
get Message
C lo
Ġper mission
ĠPen nsylvania
P riority
.... ....
ad r
Ġd st
R ules
! </
dic ate
Ġse ek
TO M
ĠC ore
ĠEx ample
g i
Ġmus ical
stats models
appro x
is hes
k in
Ġa mb
Ġcell padding
il ing
Ġb i
col lect
RE CT
Part ition
Ġiter ator
Ġmov ing
Ġa apt
' }
ĠG a
ĠO Caml
uz z
enc oding
Ã ¸
Ġz one
ĠH aw
Ġst ay
s heet
ĠII I
Ġany thing
Ġindic ates
ĠRun time
ench mark
t ts
per iment
I X
Ġin sp
ĠP romise
Ġw idget
Ġadd ing
}^ \
% "><
d rag
Ġfin ancial
ĠB uffer
æ ĺ
M aster
ĠB attle
ec lipse
ĠS ign
h ol
ĠC A
ĠH am
Ġrecent ly
end point
Ġan chor
Ġs outhern
l ab
ĠVAL UE
ĠRout e
adi um
Ġs afe
Ġmiss ion
T l
Ù Ħ
}} (
ys ql
ca pt
c li
con cat
çĶ ¨
Ġcell spacing
Sh arp
am ount
ong o
Re place
ĠIn s
Ġme eting
ixt ures
Ġorder ed
los ure
ĠSpec ial
Ġ\ {
U A
ĠH ome
Ġ" ${
Ġknow ledge
V irtual
ĉĉĉĉ Ċ
Ġcl one
Ġconf irm
ĠG lobal
Ġch ampionship
Ġon es
Ġ angle
cit et
ed u
Ġdel ta
Ġser ve
Ġmost ly
Ġfor ced
ĠĠĠĠĠĠĠĠĠĠĠĠĠĠĠĠ ĠĠĠĠĊ
Ser ies
Ã ¥
Ġc hem
ĠCont ent
ĠLo ad
Ġp ul
in ity
ex amples
Ġde legate
du cer
L Y
os oph
eng er
Ġf if
G C
×ķ ×
arri age
CO UN
F ixed
ĠG reek
ed om
add Class
M utable
ĠStr uct
ivers al
ib li
ist ogram
fol io
Det ector
Ġmark ed
ĠArg ument
Ġcon straints
h base
con current
}) \
pr ite
Ġcontin uous
hel lo
Ġis land
ke e
av icon
IN VALID
h ard
w an
e b
Ġ* ,
Bit map
Ġ# {
po i
Ġ' _
Ġin herit
ain ment
Ġc ached
ĠA tt
c ounter
Ġtool s
Mon th
ĠG al
D ER
ĠY oung
Ġgo als
sh are
Ġwant ed
no frame
Ġr ailway
f ake
Ġr adi
c raft
second ary
Ġin n
local host
ĠRe ference
att ed
h d
it ation
Ġatt ention
ver ify
>( <
eth er
ĠĠĠĠĠĠĠĠĠĠĠĠĠĠĠĠĠĠĠĠĠĠĠĠĠĠĠĠĠĠĠĠ ĠĠĠĠ
oun der
(' ./
ĠOff ice
Ġgrow th
Menu Item
Lo ading
~~~~ ~~~~
c ient
p res
Ġvar iety
ĠD ist
Serial ization
Ġj oint
v endor
er c
Ġgo es
Ġ' @
local e
Î ½
Sup ported
U sing
ĠA ccess
}\ \
m ann
Ġs uit
ĠL anguage
IL ITY
Up load
le e
Ġdefe ated
Ġrefer ences
Ġexp and
pos al
fore ach
lo v
ĠS end
Act iv
che mas
ĠL i
t w
Ġto ld
Ch art
em y
Enumer able
ĠO f
ĠUn it
SP AN
rupt ed
TR AN
Ġcount y
u ing
ost on
let es
Ġsum mer
B ad
d ocker
f b
de code
ĠSp ain
Ġtyp ically
Ġop portun
Ġr an
ĠIn valid
": "
Ġs uffer
L at
ct ree
Ġcom mission
on ses
L IN
ĠW ood
lement s
ĠLe e
m iddle
Ġst yles
ain ers
ch unk
%%%% %%%%
greg ation
ref resh
Ġwr ong
vent ory
m ov
ish ing
ĠSer ial
Ġsp aces
Ġal pha
tim er
ĠF our
p et
lo y
ĠJo urnal
Ġagre ement
P ane
Ġcont ained
ĠK EY
Ġan t
Ġcomb ined
a ui
Ġmap s
Ġcon version
10 24
ĠIllegal ArgumentException
Ġarchitect ure
google apis
196 3
Ġex c
Ġprom ise
f ort
Ù ħ
Ġin come
ent h
j ackson
li k
] ->
Mod ifier
') ->
us band
ĠPe ople
Ġconvert ed
Ġl iteral
SI S
Ġp airs
ĠA ws
Ġtrack s
ĠVal ley
Ġdis patch
aw esome
ĠCh ange
ĠJ S
Ġde tection
Ġh um
im ize
Ġce lebr
=" {{
pro d
Ch unk
Re act
Ġread y
Exec ute
View Controller
ĠThere fore
b p
ĠU k
} %
Ġshe ll
ĠS ir
Ġb rief
ĠR adio
C or
ĠM iddle
ter min
e es
Ġcol on
Ġa ward
ot ic
ĠF ALSE
ĠP ass
Ġc y
Ġf avor
Ġar m
ĠC H
Ex tra
ce an
Ġl ived
196 2
S ources
ĠO N
N ON
b el
Ġem it
ph oton
Trans ition
q quad
Ġfe e
Ġexec uted
Ġc loud
ĠF C
a is
Ġcent re
ĠDo uble
ool s
Int ent
Ġv ote
V ec
op am
qu is
Ġbel ong
Ġf ederal
ons ive
SS ION
De v
ĠJ im
Ġredu ced
ĠM ov
Ġar my
ĠM ajor
ol k
Ġstat istics
Ġ' -
O W
iss ue
Ġis n
uff ix
Ġdes criptor
de ep
Ġpack et
ĠComp onent
ip ment
Hash Map
os a
D ig
ĠW hat
Ġstart s
Ġexpl an
. ',
shall er
Ġtry ing
Ġrefer red
LO AD
set Text
Av ailable
Ġdecl are
ĠB al
air man
ĠIn it
In jection
be ans
Ġinflu ence
k g
Ġmag azine
Ġask ed
Ġprint f
p ic
w t
Ġh yp
Ġe volution
ĠGener ated
Ġr u
r ick
Ġpl ane
OT TOM
Ġget ting
cp u
ĠC ard
Ġa ffect
ow ers
h istory
Ġtop ic
194 4
Ð ¿
D R
ĠÐ ²
Ġ======= =
= $
} },
Ġcomp atible
ĠC ivil
in cludes
ĠBO OST
ir ation
Cre ated
Ġdet ect
max cdn
Ġoffic er
Ġm otion
ĠE RR
go ing
ĠBl ue
Ġp riority
ĉĉĉĉĉĉĉĉ ĉĉĉ
cl s
code c
Ġch o
Ġex change
Ġ angular
h u
Ġs it
s z
F urther
Ġsing les
Ġk w
ĠM en
Data Type
ĠCon vert
c mp
Ġest im
S W
Code c
s lide
st ates
t ile
ĠCh annel
Down load
Ġest imate
st andard
Ġex pr
Ġfl at
Ġturn ed
Ġdid n
ord ers
Trans lation
P RI
ay a
Ġhe avy
Ġth ing
Ġis instance
decl are
55 5
] \
ult y
Ġr isk
Ġde vices
ĠIm mutable
Ġco effic
frag ment
C annot
nob r
Ġdecl ared
exec ution
ĠDe velopment
ĠP ack
N C
1 10
è ®
ĠH as
ĠO fficial
Ġdist inct
SP ACE
EN ABLE
Ġhe art
Ġnumer ous
Ï ĥ
Ġbe coming
FLA GS
Ġs ens
Ġ$ (\
label s
Ġp ain
A I
A CK
Ġw ind
Dis k
BA SE
ĠB ob
Ġ å
ole c
Ġarbit rary
æķ °
le et
196 1
sh a
Ġb oost
sub Nav
d st
! "
Ġown ers
ful ly
list ener
Ġc amera
pag ination
Ġas pect
get Attribute
Ġlang uages
ĠP AR
] </
Col l
M ust
}^{ (
Ġquant um
Ġse a
Text View
il ly
Ġf ails
Ġcheck ed
Ġindividual s
Ġcover ed
n ce
un ded
sc ore
des ign
ĠB ad
ĠR h
Ġim m
Ġb in
ent y
ĠAdd ress
ĠM id
f ect
d iction
Ġrecord ing
ĠBrit ain
ĠT ABLE
Ġpress ure
atter y
R o
Ġcomplet ely
E P
b ounds
Ġhigh ly
ĠSt andard
und red
ĠDemocr atic
ĠG ood
Ġprinc ip
ust rial
] $
E mit
Or gan
ino is
Ġsen ior
ĠLem ma
trans late
ĠDe bug
Ġb re
up dated
C amera
Match er
æ Ī
Ġmod ules
HO UT
gy pt
Ġ< ?
Cal endar
Ġint ended
s en
mat ches
Ġdram a
l u
Ġdepart ment
Ã¡ n
om er
ak ers
U AL
amil ton
ADD ING
il a
ĠS outhern
ĠP HP
F N
C LI
et es
cor por
Ġident ified
Un der
Ġs ending
'] .
E W
ĠIn formation
Ġb io
ail ing
ser ies
not ification
ID E
ĠCon ference
por ter
unk nown
s cape
ol ate
Ġn ation
ĠOh io
Ġexp ansion
Ä ĥ
Wh ile
mem bers
port ion
Track er
> .</
display Name
" ])
c op
OR K
Ġre direct
Ġcop ies
H S
ent ially
ĠT ri
ĠT OP
Ex pect
is ms
late st
Ġeas ily
s ive
' m
Work er
Ġdocument s
Ġrelig ious
Ġlog in
b ell
m c
ĠAs ia
Ġs light
RE A
Ġmon itor
Ass ociation
P i
ĠNS String
enn is
pay load
tool bar
UR N
Ġelection s
b old
b undle
Ð ·
Res p
at ers
ĠC urrent
Ġsol utions
cur rency
Ġp sy
Ġprot ect
Ġann ual
ĠN ull
Ġext end
ĠMich igan
ĠJ ack
Ġen umer
C UR
Ġweek s
Ġs ender
Ġad just
' ve
Ġnear ly
Ġp ipeline
s pe
per cent
Ġg overn
194 2
TableRow Color
Ġprov iding
Per iod
ch at
Format ter
serv let
Z ero
Ġelect ric
7 00
B ridge
TER N
Ġk ernel
Ġw ood
Ġcar ry
Ġtreat ment
- (
ĠJ ac
Ġf arm
As sembly
Ġadd r
T ex
E VENT
c ountry
ĠP ak
de legate
S ide
Ġt or
Ġclass ical
Ġrot ate
ĠE v
ĠS y
pect ive
er ry
Con tract
SET TING
ĠL ord
reng th
ouse l
ip ient
Ġ onto
ĠPr int
Ġcl s
P resent
s is
Ġ& \
ĠEd ward
Ġsecond ary
, $
Ġre levant
ĠM i
lim its
Ġcapt ure
Ġpartic le
Ġexact ly
i ar
Ġh usband
se x
- ">
Run ning
k ernel
ĠMod al
burg h
" ?>
Ġtext ure
Ġes cape
Ġproces ses
> ../
ĠB ORDER
ĠPac ific
Ġ" );
Ġwork ers
SER VER
="@ +
alt y
link ed
F ac
ĠS ar
**************************************************************** ********
art esian
Ġtr ust
Ġc arried
Ġqu arter
Ġcomp osed
un a
rop y
== =
Ġser ving
N ational
ĠS H
G it
ĠM ah
Ġhistor ical
Ġconst it
Ġpo or
bin ary
red irect
ĠC apt
com mun
ri ed
Ġle aving
az ure
tic le
ur ations
Ġor d
Ġquick ly
D ict
ĠT YPE
Rel ation
ĠGu ide
pri se
/ )
Ġmur der
Open Tl
eg ration
Ġcommun ities
Ġbind ing
Ġp lease
Ġm o
ĠG raph
Ġcomp uted
u ce
194 8
SS AGE
Ġgener ic
re spond
em bed
On ce
Ġb ridge
as er
Ġliter ature
Ġign ored
th umb
Sup er
Ġor ient
yg on
gorith ms
Ġw rapper
te am
ĠS l
app le
ell ing
ĠAs ian
Ġc at
Ġre ports
ĠO x
Ġgen us
Ġr ail
FLA G
Ġl if
ĠY our
ĠJer sey
e ven
â Ķ
ident ity
de fer
Ġc lock
AC ING
ard en
Ġlate st
Ġde mand
in ject
ĠC loud
P ower
Ġde leted
Tem p
ops is
Pr imary
Ġs ociety
iss ions
Com mit
Ġcit iz
Ġp i
Ġin ject
Ġthrow n
Un ited
Ġcon straint
ĠĠĠĠĠĠĠĠĠĠĠĠĠĠĠĠĠĠĠĠĠĠĠĠĠĠĠĠĠĠĠĠ ĠĠĠĠĠĠ
ĠT ro
ĠAre a
ĠR ow
ĠH a
Rece ived
r ank
Look up
ous ing
Ġfootball er
Ġ' ,
ĠPub lished
to ctree
C M
ĠS yn
}\ ,
ĠR ender
over ning
EN TRY
Ġs izes
Ġform ation
He ad
sl ider
195 6
fe atures
pub lish
Ġ Ñģ
Ġindic ate
depend encies
B o
ĠP ower
D P
Ġl ives
) |
Ġ ice
Ġcom ing
Ġp ers
(" .
B rit
Ġpar a
g re
ph y
195 9
ĠEar th
p ur
ĠO ur
draw able
Ġreturn ing
x space
separ ator
Po jo
ĠCh ief
W hat
st ab
In f
Ġcoordin ates
od d
ĠA uto
Ġpro pag
Ġar rest
d td
FORM AT
pre pare
PO S
Ã º
W atch
Ġmain ly
At trib
inal s
Ġno ise
ĉĉ čĊ
Un ique
Ã© e
Ġclaim ed
ĠTR UE
ach use
cour se
p rom
ĠJew ish
U sed
M usic
Ġbal ance
AR GET
I p
w ater
ig ator
Model s
Ġst ories
Ġmention ed
S elf
ac er
Ġro les
Ġw rap
ĠHash Map
h ook
ĠJohn son
Ġshow ing
dimension al
Ġf riends
Ġdec or
Ġp il
Ġfore st
Ġsitu ation
Lin q
D ry
P ush
ĠL ab
part s
Ġimpro ve
L SP
m ount
ĠK ent
text ure
Ġcomp letion
d ynamic
Ġw ays
g ems
M ag
19 39
Ġn omin
Ġequ ations
="../ _
Ġv on
ĠA li
Ġfre quent
ĉ ĠĠĠĠ
Ġimp lied
ater n
as i
An alysis
ur able
195 8
achuse tts
Ġs ites
Ġe ase
Ġnew ly
Ġact ors
g ood
ĠRep resent
99 99
Ġhar mon
Ġun iversity
195 7
pt on
Ï ģ
Ġpart ies
ction s
Sc ene
ĠT ag
CO M
od o
ĠScot land
Ġ" ;
ĠC ur
ĠJ ones
=- =-
ĠM AX
eder ation
arg v
at ibility
Ġse at
ph ony
ĠB ow
Ġp ending
yn omial
M ov
pe g
An im
pack ages
B I
Ġlaw s
ĠGeorg ia
AV E
F atal
ĠD utch
ul p
g ov
K ernel
Ġimp lies
ĠK ong
ĠRes p
Ġt f
ri ent
Ġse em
ĠB or
var s
ĠP rem
Ġcom ments
wide hat
Ġg it
br aries
Ġde dic
Ġ} ).
Mod ified
AR RAY
fl ush
Ġsupp lied
W rap
ĠSer vices
194 3
P ixel
ĠN ative
B LE
al so
Ġrece iving
an im
ĠCon f
In ternational
Ġcan vas
ĠDate Time
D id
INS ERT
Ġf oo
ĠL ight
Ġspect rum
00 1
K e
Ġsuff icient
L com
ĠN um
d on
F etch
pi pe
e val
__ ,
Al ert
in herited
m oment
ĠCor poration
Record s
Ali as
Se q
Ġb undle
Ġb ass
Ġb all
quad ron
a ired
Ab out
pop up
Ġorgan izations
Ġvict ory
Sup press
Ġinst ant
g lob
contin ue
BA CK
Has Been
ĠL ie
L C
Met ric
194 1
lect ric
Ġpar allel
SU CCESS
ĠIs lam
de ed
Ġl ab
Ġh ide
B reak
M ount
u lo
Ġdefault s
iagnost ic
Ġse ems
as set
exp and
ĠD om
00 5
ĠIll inois
ec es
ĠB oth
in ent
itt ed
; %
elastic search
wik i
Ġn ine
Sep arator
Ġ ang
m anagement
ste in
Ġ$ ('#
Ġinter action
> `
() ]
member NameLink
Ġsh oot
w r
Ġdel iver
enumer ate
ĠSh ort
inc ipal
Ġsh ips
F actor
RE SS
ĠQue en
Ġhel per
value Of
Ch anges
File Path
ĠM any
ĠRe port
h ave
Sec ret
em porary
anc ing
Å ¾
log ies
set ting
ipp ing
dist ance
A SS
Acc ording
min us
Ġ" #
ade l
Ġdo ub
c lip
T wig
rit ical
Ġprof essor
met ry
fil ters
ĠPol and
ĠAl bert
194 6
pl ain
D Y
Ġlook ing
T yp
ĠB ern
Ġunder lying
Ġc os
Ġdisc us
b ucket
v i
T ip
Ġ ath
Co ordin
ĠC E
S ports
Ex ist
Tool s
Ġf raction
ĠEnt ity
serv ative
Ġa x
erial ize
spec ific
P ipeline
Ġbe y
Dist ance
Ġp al
' },
Ġw or
Ġevery thing
D ITION
lement ed
Ġgiv ing
Ġden ote
O FF
19 55
MP L
ĠWIT HOUT
Ġch ief
ST ART
ĠString Builder
ĠSen ate
* ,
u j
Ġwork er
E r
med ium
process or
ĠPort ug
N ONE
te en
ne q
ab eth
ĠJ ud
Ġhelp ed
################ ################
ĠS em
Part icip
Ð° ÑĤ
Ġ" )
Mark er
se qu
r ical
ĠCent re
IT LE
S yn
____ ____
b ury
Ġup dates
urb an
map s
LP ADDING
st ion
Ġcomp act
qu ant
f aster
Ġpe er
Ġ æ
Ġg overning
ir al
ĠL uc
fa iled
ĠThe ir
row Color
Ġind ices
A SE
db c
` )
p n
ext ensions
a ight
st o
R adius
t ical
Ðµ ÑĢ
REQ UEST
fr ames
ĠB oston
ĠM anagement
Pay ment
W r
__ ["
pro c
RO W
conn ected
W in
amp ions
ĠFrancis co
- $
itu ency
ĠM os
Ġpolitic ians
l ator
Ġf iction
Ġsay ing
ĠCEL LPADDING
ĠF ix
ĠCEL LSP
ĠCELLSP ACING
ĠA ff
Ġdr ug
Cert ificate
I ss
ĠEn vironment
Ġfe ed
Ġoffic ers
cre ens
Ġoper ators
ĠIn ternal
} &
Ġcomp osition
Ġfe at
depend ence
Ġexplan ation
Ġqu eries
Ġal leg
' \
Ġf i
S peed
Access or
HasBeen Set
Ġn s
Valid ate
met rics
ĠD atabase
Ġlist s
Ġpl ans
Ġcalcul ate
ĠRec ord
Ġgrant ed
Ġc ities
L ines
p ared
Ġans wer
ĠSecret ary
Sup p
Ġchannel s
task s
ab y
194 7
ĠC ro
Ġoper ated
( `
Ġth reat
ĠPro t
Ġf irm
sub string
}} {\
ĠB E
cache d
H ere
Ġ/ ></
Ġ" _
Ġbey ond
ĠR ay
ĠT ree
DE D
d escribe
Ġse ed
Ġf ake
Ġloc ations
pro duction
In dic
Array s
ĠV an
Ġto kens
pect or
Ġqu ite
gener al
× Ļ
ME M
We ek
ub ble
B ER
c ookie
Ġassoci ation
Ġcur ve
WA RE
Ġr ing
Ġgu ar
dat aset
E LEMENT
ĠOper ation
Part y
Mon itor
Ġhapp en
M s
e ff
nos cript
es cape
E q
ul pt
art ers
ĠR am
Icon Error
ic ations
RE T
Set up
ĠCol umn
Ġv oice
y o
ys ics
} -\
vert ex
Lower Case
est er
ĠN on
ĠG overnor
195 2
Ġ. =
Are Equal
ren a
{ {\
z h
ĠU P
Ġcontr ast
Ġed ges
Ġaltern ative
f all
Ġac quired
n ate
ik i
Ġhand ling
Ġout er
Ġc ycle
Ġbro ad
Ġend if
Ġdes pite
re duce
Ġdisplay ed
ĠK IND
Vis itor
Block s
40 4
Ġn om
W I
start s
Vis ual
ĠA L
Ġg oogle
resp onsive
f avicon
Ex it
t m
Ġcomb ination
ĠS oc
un nel
Ġregion al
Ġinter view
N ECT
He ap
ĠW ay
Ġo il
P ut
r ain
IconError Encoded
math sf
ĠOr gan
pear ance
ĠÐ ½
Ġiss ued
] ['
ĠG ir
Ġnot es
Ġdes ired
D one
lap sed
Ġsubsequent ly
Ġsection s
ay lor
att ach
Ø ª
! =
t oc
as m
ĠMass achusetts
Ġcoun cil
V O
Ġret ired
p ipeline
Ġwest ern
st age
} +\
ç »
lic a
U UID
Ġc lip
Ġoffer ed
w ill
Ġde tailed
Ġd ictionary
Get String
man ifest
ac ion
Ġse mi
Ġ ens
Ġoper ating
ĠF ire
Ġdiscover ed
ell er
//////////////////////////////// ////////////////////////////////
195 4
Ġs ister
Ġcon cent
g p
ĠB OTTOM
ĠE gypt
ĠG ar
Ġscal ar
M ac
eg r
Brit ish
ĠDe fin
e h
T T
op es
Str ip
M ut
Test ing
Ġlimit ations
Ġmaterial s
faster xml
P adding
Ġh ospital
ĠW HERE
Ġcomp liance
Ġder iv
Class Name
å Ń
ĠPhil ipp
tr ait
script s
t one
re ason
Ġallow ing
194 9
STR U
it ors
Ġre li
B us
Ġm obile
cs v
Ġdestroy ed
Ù Ī
ĠEast ern
ĠColumb ia
Ġ// !
ke ep
LE S
ace book
am er
item ize
TH ER
part y
^^ ^^
over flow
ĠP UBLIC
ĠRe al
' d
FA IL
Ġreason s
? (
Java Script
En tries
Ġattr s
Ġre verse
con v
Ġbel ieved
st ub
ĠAct ive
ĠPl aces
: &
path s
Comp onents
Ġdes cent
External Task
p od
ĠH amilton
ac o
Ġconsist ent
ĠMod ule
B ucket
Label s
parent Node
Ġre spond
ĠJ es
p in
S UB
ic ine
u et
Set s
B L
ĠCon nect
+ "
cul ate
ck now
ĠDes ign
Own Property
Ġ- \
Dest roy
Ġcom edy
Can vas
look up
ĠSt an
Ġpass ing
attr s
v et
first row
Ġchall eng
ex cept
ĉĉĉĉĉĉ Ċ
comp lex
Oper ations
ch rome
ĠCo ast
]( #
ĠJ r
ĠL ast
M illis
ĠThe atre
Ġclass ification
ĠRem arks
Ġmet rics
> {
Ġf amous
> [
Ġ// -->
roll ers
ex clude
St ud
Ġt s
_ [
ip h
Ġmed ian
Graph ics
ĠLat in
Ref lection
Fe atures
Ġro ll
mer ce
Ġgu ide
Ġh abit
Ġin corpor
Ġassum ed
let s
on omy
Ġtim er
Ġs ph
Ġle ads
% )
project s
ĠW ater
op acity
Ġm useum
ĠJ ackson
p aces
Pr ice
ĠS ol
dir name
: %
Ref resh
The se
Ġpre m
RO OT
re lation
ĠS C
Ġge ometry
c uss
ird s
f re
og gle
! (
out heast
Ġsur vey
] ).
ĠĠĠĠĠĠĠĠ čĊ
Ġgener ator
ĠExp ression
sur face
O ld
ic ans
\ /
Ġl l
Ġco ins
ĠB ol
P icker
AR CH
Ġrot ation
Ġcorrect ly
ExternalTask Pojo
Rout er
Ġtri al
ĠC a
Ġstr aight
list s
P lot
gr pc
rid es
Ass ign
S G
ĠF rame
ĠP lease
Pop up
ĠPr ince
ub ern
ĠS ymbol
O PTION
ĠWilliam s
Al pha
ĠCor ps
195 3
Person al
mut ex
me an
C irc
x sd
Ġperson nel
an alysis
al g
it age
T ry
Ġprec ision
ĠR ailway
he x
Ġprinc ipal
ĠIn f
render er
' =>
M ail
Ġh yper
Ġnetwork s
Ġmag n
T ax
h space
Ġy oun
V D
omet ric
Ġaut om
aw t
="# "
PRO P
ĠS af
ock s
valid ator
ĠI F
Struct ure
ĠInitial ize
Ġv ers
Un iform
the ad
Ġ\ |
Ġfact ors
Ġsur round
Ġm ind
ap h
urn e
Ġcre ates
Ġatt ached
ĠS pring
G UI
ĠO P
initial ize
ail ability
Ġr are
over lay
ox y
s hell
ĠN a
ĠPol ish
Ġ/ ><
ellig ence
Ġv en
ic ed
c n
Ġclub s
Tr igger
H int
50 9
Ġal gebra
do or
Ġde ploy
Ġform al
h olds
st or
ĠH uman
St age
ĠIN TO
Ġadmin istration
to Equal
Ġpro cedure
uck y
Ġ ut
é Ģ
Ġin strument
Scal ar
Ġth reshold
Ġlog ic
Ġcapt ured
t v
ot or
G RO
Ġconf irmed
AT URE
att ing
Sub ject
Ġ" [
ĠScott ish
Ġobserv ations
Comp letion
n amed
i ency
under line
the orem
ĠL icensed
ĠPl an
ĠD er
ĠB usiness
ĠA th
ĠD CHECK
n pm
se gment
MA GE
append Child
out er
Stack Trace
Ġexist ence
ĠG i
m ad
Conf irm
C r
or er
ampl ing
ĠD I
ĠM aster
ĠTok en
ĠAt tribute
put y
Top ic
mod ifier
Ġcorre lation
ĠOx ford
mult icol
m ix
Ġun cert
ĠH ung
ĠF ar
Data Source
'] ))
. ")
() [
GL enum
pre view
P M
ur ies
ab stract
Ù ĩ
Ġexperiment al
ook ies
P lease
Wh ere
am ber
Ġmag netic
set Attribute
Con straints
Ġunder stand
s chemas
ĠSe lect
non atomic
Ġflo or
ME SSAGE
te ch
Sh adow
ist ant
S lot
ĠI L
Ï Ģ
I ME
Ġg uest
Check ed
Ġpr ime
Mod al
æ Ĺ
Ġag o
ĠF urther
IN IT
Ġdim ensions
? </
Ġh ockey
ĠL iber
Ġs i
ad apter
S rc
$ }
ĠW ill
ĠCon nection
Ġearn ed
Ġprogram ming
ĠN ext
an try
L ang
Ġdig ital
) }{
Con s
RE NT
l ua
Ġp ixel
Ġpack ages
cept or
195 1
ĠO ptions
Ġy outh
Q t
ack s
Ġto String
FFFF FF
ĠSe a
ition ally
S cheme
EN CE
Ġt uple
-------------------------------- ----------------
Com mun
Ġpart ners
ĠT w
Ġsyn the
è ¡
Ġnot ification
sh op
Ġcult ural
Ġpy thon
Path s
W ill
Ġremov es
stream ing
D ao
E valu
th ur
Ġb old
ĠK en
\ _
C ountry
ĠB asic
P ending
Ġend s
Pro f
M esh
Pay load
Ġfil ters
INST ANCE
ĠN ight
ph ase
h ow
Enc oder
A IN
Ġretr ieve
v space
Ġaut hentication
ug g
P aint
ĠL im
D en
ĠW in
ing ham
s amp
Sc an
ĠH ong
fe ed
NG TH
Ġdiv ided
and y
ĠS und
Ġh undred
ĠM IT
ut enant
el come
Ġcon cert
Ġcopy right
multicol umn
av ers
arri er
Rel ative
Ġab s
Ġp ixels
Sub scri
se cret
ĠHe ad
Ġexec utive
Ġv ec
des criptor
illi seconds
Ġin form
19 36
an cer
ul ing
ĠB Y
Z oom
ĠTech nology
W arnings
Ġexplicit ly
n ail
T ensor
( {\
Ġquest ions
A zure
j oy
ĠCon sole
t ario
ĠPro p
ĠC ache
Ġp iece
ĠC reek
ĠS i
Ġup load
il arly
c aret
att al
ĠE con
AC CE
In ject
Bl ack
OB JECT
ĠB ang
:: $
> ()</
B LOCK
X Y
m ultip
// ----------------------------------------------------------------
cript ors
EX PORT
ess aging
Ġtra ffic
Ġhe nce
Ġth r
Ġex tr
Ġb ucket
ĠL I
c py
s peed
Ġvert ices
Lo aded
de mo
ĠAnd rew
Ġident ify
Ġproper ly
rop ol
Ġattack s
ĠJe an
to LowerCase
pr ice
pack et
ĠW is
Ġdepend ing
ĠT ry
ĠC lear
Second s
ĠU sing
i Äĩ
ĠGu ard
Ġcalcul ated
ĠA k
Ġ} ),
Ġind ent
IN DEX
no logies
ĠM O
A lt
F ill
ĠM u
semb le
E st
s quare
V ariant
ell ar
Ġa im
os ing
date picker
St yles
al igned
ĠL ater
Ġs an
Ġn a
Ġcom m
Ġpur poses
over ride
Ġbe havi
ĠW all
ĠD ictionary
Ġsc r
Ġp ref
Ġprov ince
Ġp atch
Ġdedic ated
ent ries
sess ment
COUN T
C lean
help ers
Ġtw ice
Ġrel atively
E qu
Ġen code
w i
Ġh or
Ġimp licit
b ian
ase ts
H ow
Ġan notation
Ġcheck s
ĠAlex ander
on ia
Ġdet ected
Vis ibility
Ġnear by
Ġform ula
Status Code
d n
Ġmer ged
Mer ge
ribut ed
* >(
ak s
che ster
pp ing
Ġart icles
Ġfor t
W ORK
ĠBer lin
] ),
ĠSh ould
Ġmunicipal ity
Ġtrans ferred
A MP
J s
ĠÂ £
m x
G ateway
Ġdat etime
Ġc p
AUT H
Ġw ild
place holder
alk er
ĠSt ation
Ġcor ner
ĠPol ice
Ġshow ed
size of
Ġre peated
Ġ" +
H ook
ĠG it
Ġwe ap
Ġoff ers
Ġke pt
ĠUS A
Per cent
t ail
Ġpol y
Ġm arriage
W est
ĉĉ Ġ
Ġprim arily
Ġ"- //
run ning
Ġmet al
ship s
Ġli es
Ġeffort s
or i
PRO C
Ġact ress
}} _
Ġcontrib ution
H ave
Ġrequire ments
}} }
An chor
/ '
Ġpartic les
Ġs lot
od ies
en vironment
Ġp et
Ġf air
ut ors
at ype
Ġcompet ed
ex tract
} "/>
Ġpro tection
ĠJust ice
ĠN et
sp i
Ġren amed
up per
ge ometry
FR AME
Ġext ensions
Ġfl ux
S ig
C ookie
ro vers
hash Code
ĠF ilter
C SS
ĠKore a
y er
Capt ure
it ical
ĠC irc
Ġh our
ĠS yntax
S ent
N a
end region
pe ction
Ã ł
/** */
n able
ry st
==== =
are st
Ġhouse s
Ġm olec
Ġinvest ig
U i
sub scription
z oom
s ources
Ġtarget s
Ġin herited
Read y
Ġto po
ĠW hether
19 18
per mission
... )
Ġen coded
com ments
Ġa wards
local s
sc an
Ġprom oted
Ġsepar ated
B ased
ĠP erson
Ã© s
en o
ĠRepublic an
z abeth
inv oke
is a
al ing
ĠAn ton
å ľ
ni ques
ĠĠĠĠĠĠĠĠĠĠĠĠĠĠĠĠĠĠĠĠĠĠĠĠĠĠĠĠĠĠĠĠ ĠĠĠĠĠĠĠĠĠĠĠĠĠĠĠĠĠĠĠ
M ix
Ġc er
Ġle aves
s amples
Back end
Ġtro ops
Ġlook up
Ġsyn tax
av our
ĠH ospital
AS H
; ]
Ġlocal ized
Ġdr ive
g ence
Ġf ellow
in verse
fl uid
Ġslight ly
Ġr c
M o
um a
ĠĠĠĠĠĠĠĠĠĠĠĠĠĠĠĠĠĠĠĠĠĠĠĠĠĠĠĠĠĠĠĠ ĠĠĠĠĠĠĠĠ
L ike
, .
V EL
ath an
="# ">
WR ITE
P res
Ġex am
ĠI R
default s
c ross
âĶ Ģ
riter ion
ĠJe ff
ĠA D
Def ined
Ġcon sumer
Ġcert ificate
Ġconst ants
FT WARE
Ġmat hematic
"> &#
Ġem ission
Sur face
ĠRet rie
ĠA ri
br anch
enn es
est ure
Ġr ates
19 37
et c
g ui
Ġlo s
ĠJ ob
ĠVer ify
M R
ĠJ on
r v
f ac
Sh ift
and box
Up dated
ĠP arameters
ĠCon s
Ġbel ieve
de mic
a us
Ġconfig ure
ĠD ar
ä¸ Ń
ĠL ittle
Ġdam age
st ud
operator name
' $
Ġcoordin ate
lect ron
reg istry
Ġx si
ĠC HE
Ġw all
Ġlay ers
Dest ination
ew idth
Ġ à¤
Sub scription
Ġsim pl
SH A
we ek
u er
ret ch
Ġenc our
allow ed
ĠV iet
ph ia
19 38
ĠIs lands
per iod
D im
s ender
MS G
Ġadopt ed
Cred entials
Ġcandid ates
Ġthe orem
Te am
ze ch
font s
Ġtable s
Ġres idents
Ġexp ressed
ate st
Ġadv ant
N ested
ak i
Ġconf lict
O k
ra q
ĠK n
ĠDan iel
Ġauth ors
Ġ ĉ
ĠMethod s
O cc
[] )
c uda
Ġro b
Ġeast ern
Ġcommon ly
l iteral
is er
Ð¾Ð »
ĠR ail
Ġw inner
ĠTr ump
ĠS V
config ure
ĠSt at
Rep ly
RI GHT
Ġfif th
tr ain
t own
ĠArg ent
ra ise
Ġcommun ication
ra structure
ĠP ackage
f uture
Ġconduct ed
Ġro uter
Ġkw args
Ġreject ed
------------ -
) }$
ĠD ig
Hel lo
tr i
Ġarriv ed
aa aa
Ġepis odes
` :
y ll
ĠR PC
Ġ' ')
c x
if er
Ġacade mic
Des ign
Ġv ary
Ġ[ #
ĠSup reme
m is
rodu ction
N umer
Re q
19 19
Ġdescri bes
Ġat tract
Ġsort ed
Ġcomp ilation
reg ex
Ġmeas ured
Ġp ert
A ustral
back end
Ġc as
ul y
Ġcon vention
Al ignment
Ġt ile
at ile
ĠBel g
Ġdepend ency
I A
met ic
Ġf ine
qu o
ĠS ET
Ġab ort
[ -
yd ney
a ux
Ġtem porary
Ass ignment
Ġl abor
ag a
Ġ. /
Un iversity
ĠCommun ity
adel phia
d ays
c ue
Ġa st
oun ce
Ġal one
0000 000
ĠP si
ites pace
Ġpro te
nes ota
F P
AB ILITY
Ġs cheduled
qu ick
Ġindic ating
iz ers
Ġor bit
Ġm ail
ĠC at
S uite
ĠT EST
Orig inal
clo sed
ĠF ederal
ĠTh ree
. ');
Ġc yc
S heet
ĠMus lim
" }
Ġpl us
App ly
Ġd ut
Event Args
Ġcorrespond s
Ġp urs
ik a
C ity
Dec oder
Ġdiscus sed
Back up
Ġ( ;
ĠReg iment
ĠBro ok
ĠVictor ia
19 2
Ġt ail
s By
sp ark
DI S
Ġappear ances
5 12
ĠCre ated
d m
F ix
Ġro utes
Ġsp irit
S UP
v n
ĠH and
Ġr m
ubern etes
Comp arison
Trans fer
Ġin tern
Ġco uple
dis k
Ġfoc used
" </
__ .
b t
on der
Ġsuggest ed
Ġqual ified
pan ded
ĠS ession
bal ena
Ġbene f
Î ·
ĠPr ime
SI GN
ul g
no indent
Ġattempt s
ĠAd ded
C tx
ĠS a
Ġclaim s
ext ype
in er
ĠB a
Oper and
Ġst ub
Conn ector
ash ion
Ġint ent
l us
Reg istration
Ġr hs
Ġnewsp aper
Ġser ious
Co ins
ĠProf essor
ict ed
de veloper
Qu ant
Ġsome one
Ġbase ball
" |
s leep
H ex
Ġdiag ram
Ġmechan ism
Ġse ctor
ĠCHE CK
Ġmod es
remove Class
Ġhon or
b ench
Ġcon ference
Ġn ested
' ):
ĠB C
Ġlink ed
---- ---
LO B
Ġreve aled
cond itions
ĠH arr
ch ant
text area
ĠR ights
Ġkey board
Ġgalax ies
D imension
I FI
se udo
div ision
att ice
ap ed
Ġjob s
Ġ$ $
OR S
Ġsc an
N ov
b ec
Ðµ ÑĤ
Ret ry
Pre vious
Ġ( );
ĠO s
Ġpart ner
Ġth ous
Ġs napshot
stylesheet s
ĠSt ore
ĠW ell
Ġg lob
ĠMin istry
ĠOlymp ic
H ide
ĠG rid
10 2
Function s
sp in
LIN K
PT S
ict ures
com b
P rom
state ment
subscri be
c amera
Equal To
Ġf ish
per or
Ġp ure
Ġcomp oser
Ġcirc le
Ġsub scri
short cut
Ġaccur acy
Ġlocal e
Co ord
p referred
Ġeffic ient
y al
ĠS us
p riority
Ġtrans formation
ĠOther wise
Ã ¢
Ġdist ingu
prec ision
Ġalong side
Ġ(! (
Ġach ieved
S outh
text tt
Ġequal s
math scr
Ġmed ium
if rame
S afe
us hed
ĠĠĠĠĠĠĠĠĠĠĠĠĠĠĠĠĠĠĠĠĠĠĠĠĠĠĠĠĠĠĠĠ ĠĠĠĠĠĠĠĠĠ
Ġconfig ured
ĠAcc ount
CL U
att ers
Ġre store
us age
">( </
C ould
Ġsignificant ly
Ġcon sec
an th
Ġsold iers
Ñ ĸ
Ġem er
\ ,\
igh th
case s
Ġad vanced
ind ices
Ġinterest ing
ĠĠĠĠĠ Ċ
te le
Cont in
ro g
Ġsc atter
Ġc ss
H owever
Ġpass phrase
Ġlim its
ĠB re
Up per
ĠVALUE S
im inal
Ġre con
Ġdeg rees
Ġer a
He alth
P at
B ut
Ġst reet
Ġun able
LO AT
w eg
ĠB ecause
ĠP ut
ĠD ub
Ġ' $
> /
Ġrap id
m ay
Ġcol ors
vers ation
Ġwide ly
j an
ĠK enn
el i
ĠQ String
Ġassist ant
ort heast
Ġtri ed
ffff ff
ĠJo e
serial ize
ib ling
Ġper man
Ġcred entials
tr m
decor ation
AND LE
Ġexper iments
Ġsm ooth
Ġd yn
ring tone
ins on
M ult
T imes
input s
Ġbeg ins
---- -
Al ign
19 14
H C
form er
un te
vis ibility
H z
ĠJava Script
Rece ive
T ick
STRU CT
c amel
å Ľ
Ġorgan ized
ĠP ay
Ġd t
LE NGTH
app ings
Å Ł
Ġcomp ut
ĠW rit
SD K
U int
Ex tract
Ġs port
<? >
S chedule
Ġst able
l ife
Ġdise ase
bad ge
[] {
ĠB on
19 35
ĠV AR
Ġ" ./
MA SK
et ic
quest ion
Ġmark er
c ity
100 00
ĠKore an
Ġan cient
% .
ou ch
ĠPri ze
C ent
å ¼
s ass
) *
Ġs chedule
Ġso ft
B lob
Ġhouse holds
writ ten
Ġcontrib utions
Ġcomp ile
Ġaff ected
new s
oc o
S lice
s uch
S F
Ġcomp ar
PRE FIX
> ("
List eners
U Int
19 00
, </
ĠRe v
Ġs pread
Ġrecomm ended
Ġcover age
block s
Dependency Injection
Ġpay ment
per ial
h int
r ink
Ġperform ing
est ic
Ġcause s
An notations
ĠV ill
eg o
Ġsc ulpt
Ex cel
St ar
Ġocc asion
Ġsaf ety
Spec ial
Ġach ie
Un able
Sw ift
CH AN
Ġs ales
× ª
Ġregard ing
st derr
\ ":
ĠCON FIG
ow a
ĠCON DITION
foot note
d iag
Ġk ill
p al
Gener ate
: /
ĠK o
ct rl
part ition
tex trm
Ġrecogn ized
C MD
ĠD raw
Ġleaders hip
mark er
Ġvis ited
u um
Ġs oc
Ġgradu ated
ĠPro perties
cons in
en ance
Ġex pert
place ment
st eps
av atar
Ġauthor ity
Ġtem por
ĠB BC
ial ect
po ch
Ġor ders
Ġsub stant
Ġact ing
() `
F oo
gener ic
11 1
Ġfl ight
ĠCon st
g overnor
Ġmot or
d ump
ĠU sed
19 33
Ġg ap
ĠR og
ĠTrans itional
l aw
af ka
ly n
ĠCh rome
ĠI gn
Ġch anging
Ġ' ../
ether lands
ref lect
work er
m aml
P al
Ġ ult
Ġpro jection
ra ine
Ġv ac
n io
get Text
DE C
å ¯
Ġadv ance
Ġl y
re verse
Allow ed
Ġe le
v g
Ġmin ister
Stat istics
h aps
ĠC R
13 0
F ROM
St mt
=" //
Ġinter pre
ph an
ĠÃ ł
ĠB and
ron ze
Ġse ss
ĠRe volution
Ġpe ace
Ġfeat uring
Comp leted
Ġadministr ative
ĠP rivate
Ġcol lected
ĠSum mary
l ig
p ref
Ġg ain
F re
NotFound Exception
Ñ Ĩ
| ^
z y
19 34
An gle
TO OL
Ġm s
Ġm k
B g
d am
ĠF inal
Ġso lo
Ġexp atriate
TEXT URE
ĠT aylor
S n
ĠC F
Comp are
ad ded
Ġpattern s
ĠStep hen
a ug
ĠAir port
ĠTr ansport
st roke
App Compat
ĠBA SIS
ĠG ro
sc ene
Ġim ag
Ġad ult
Ġsatisf ies
c orre
ĠS in
Ð ¹
BY TE
FUN CTION
c v
T K
r ices
ĠPub lish
ist ance
// !
ith metic
Ġnot ify
k h
ĠRe view
}^{ -
ĠM atch
sh iv
ĠN ations
\ }$
Ġr aces
m ust
m acro
Ġinitial ized
Ġin tr
Ġme ant
Ġa gr
qu arters
Ġb uy
l ive
Author ization
ĠCon stant
ĠF ollowing
jac ent
(" <
; ,
ĠL y
Ġre try
ĠS ize
MA KE
u pt
Ġtech niques
Ġdef ines
Ġser ves
Ġcontrol led
ĠSO FTWARE
ĠÐ ¸
Fore ign
re ports
ĠF ixed
R GB
T ARGET
ad v
r as
Ġopt imal
Ġport ion
L ife
app s
19 17
ãģ ®
ĠWe ek
ĠCon struct
m n
ament al
Ġre views
id o
Ġst rength
ĠEli zabeth
Ġro ut
Ġcre w
S ender
Ġvar iant
Gr ad
Ġref resh
] >
se ason
ide os
ĠWil son
ĠCoun try
b ullet
rep ly
Meta Data
ĠG er
Ġposs ibly
User name
Indic ator
Ġg lyph
Key word
Cl ause
ĠR ome
lin ewidth
Ġprom pt
char acter
/ #
Ġ/ .
pre vent
1 12
un n
Ġh ook
reate st
ĠS her
ĠL ew
ĠUn less
Ġinter pret
T X
Ġpol ynomial
Ġhash Code
ac on
ĠCONDITION S
Ġin variant
19 28
Ġfac ilities
Ġs lice
ĠAn other
az el
b as
y ard
Ġh ousing
dest ination
P ress
ER S
L ite
r and
Ġt itles
Ġpl anned
Ġk n
ir th
[ <
Ġgrow ing
3 60
Ġc atalog
Ġcon ven
order ed
Ġext rem
e valu
Variable s
TO DO
he im
ub ic
P K
Ġsil ver
Ġs qu
Ġsub scription
or acle
enc il
ĠIn ternet
Al gorithm
c lock
U C
Ġres olved
ep age
Over lay
t uple
In line
F ake
Ġc ategories
AME TER
ĠÐ º
Ġequ ipment
act ic
is o
li a
ĠR aj
Ġr ural
DE P
Ġe lev
k es
Ġd aily
ampl er
Ġj ump
poly mer
Ġinteg ration
Ġd jango
b one
Re vision
D er
Ġtr ained
St d
ip ients
ag on
ĠSc iences
rib ute
ĠT arget
Dis abled
ĠB ox
With out
Ġproces sed
Ġcontrol s
PA SS
{ },
H is
Ġsub mit
Ġstr ateg
mem Item
Art ifact
Ġ ../
ul f
isl ative
Pr imitive
19 29
HO ST
Ġtyp ical
Ġinc orrect
Ġsub set
Ġh ydro
im iter
tab End
ma j
ĠG l
Ġhost ed
R adio
ĉĉĉĉĉĉĉĉ ĉĉĉĉ
ĠU SE
D i
ĠS ymfony
LI B
The ta
LIC ATION
ĠPol icy
f w
const ants
s at
Fil ters
Ġd ual
Ġprom inent
h ill
Ġpol l
h ab
Ġfr ames
ĠAl low
g em
ĠÐ ´
ĠS ong
Ġteach er
Particip ant
ibli ography
Ġt rees
DO CK
hl js
Ġph one
Ġg rew
ĠP layer
Me asure
Ġ(! $
M ajor
) _
op her
L ive
Ġc odes
ĠOn tario
Ġcont est
our i
ĠS ydney
ll a
ret val
' }),
( ",
Ġv otes
; -
ĉ ĠĠĠĠĠĠĠĠĠĠĠ
ĠS SL
uc ene
at able
ĠD est
DE LETE
Ġn arrow
Ġem b
File System
Ġdi am
Error Code
H er
T oggle
po ssible
ĠM ic
read cr
bo urne
R atio
Ġp itch
Ġf elt
post s
ĠS ports
Ġact s
++ ++
Ġs ides
ist ical
f actor
Ġp aid
Ġp icture
ĠR od
( @"
Î »
ĠQue ens
> ');
urn ame
Ġdiffer ences
ĠS on
Ġm ath
ĠResp ond
t le
mb ed
ĠL ive
Ġre po
o ir
window s
] -->
Ġc art
ĠW ild
id ge
ĠStud ies
cor ded
ĠH un
om ics
ĠCam bridge
y arn
Ġ utils
Ġlarg ely
Tag Name
j sp
velo pe
Ġofficial s
ĠTur k
ĠA WS
] *
[ (
Debug ger
ok es
Ġr ac
ĠA venue
(" -
button s
M ultiple
add EventListener
Ġsim ulation
Ġthread s
PAR AM
le af
M AN
Ġ[ {
em et
Ġad vert
ĠMin nesota
m ers
ĠL abel
Ġ( #
umin ate
for ge
Ġ! !
ĠBr ig
che stra
Ġan ce
y aml
conf irm
****** /
get Key
' _
itect ure
Ġt ick
Ġneighbor hood
ĠR ange
N I
custom er
Ġ( `
Ġel imin
ĠG ra
Ġmat ched
Ġsupp ly
end o
thread s
Ġinstit utions
ĠM ike
vis or
rop ical
Ġwait ing
Ġpol icies
MA IN
Ġm igr
cuss ion
ĠV en
ãĥ ¼
Un mar
Ġoffic ially
ĠI raq
Ġmusic ians
ĠW el
ĠO tt
Ġpre pare
Ġstore s
r x
tr ay
ĠC ase
c as
ir k
19 10
Ġcontin ues
has er
ĠT re
Ġsex ual
Custom er
ir y
For ce
D ot
ĠDe vice
Ġw arn
car ousel
ĠRe quired
Ġwindow s
In clude
Found ation
ĠC as
ear ning
Exp ress
iv ial
Rout ing
ĠD A
Ġass ignment
s lf
Ġbe at
ĠL es
Ġ\ (
G erman
Rece iver
ol ute
ast ers
to kens
Ġdro pped
col ors
C atalog
ĠPak istan
iffer ent
Ġc c
ĠB ridge
amb ig
Ġmeas ures
19 32
ĠDis play
Ġlet ters
s ch
Y our
Â °
Cal led
or ange
y ml
ask a
ĠB ind
ĠS ym
m f
Ġincre ases
ons or
ce eds
oc omp
String s
) '
M obile
ĠG ET
Ġe igen
pay ment
par sed
Ġsynchron ized
Any Ref
Ġbe aut
ĠS anta
S PE
Ġr at
Ġsh op
TE GER
Ġst ock
Style ID
Ġ( <
Ġjo urn
g c
Fe ed
ĠA T
Pro b
Ġexception s
ĠC y
ĠPhil adelphia
T ITLE
ak h
ĠM arg
ĠB ell
c ow
ĠCont ainer
Ġ$\ {
get Property
Ġfind ing
Ġhistor ic
on om
Ġ" ")
ĠA sh
Ġpre par
Ġb ill
Ġwin ners
v t
< \
ĠM atrix
ç ½
x l
Request s
Ġe c
ĠPe ak
Ġro ugh
enn a
> ';
ĠH an
ang a
ĠWis consin
Prot otype
ĠB oy
Wh ite
Ġpol ar
Ġspe ech
Ġs in
ist a
st mt
__ _
Ġm ac
SER VICE
f loor
Ġc fg
Ġon click
I tal
An aly
Ġh orizontal
row se
m ultiple
Ġan imated
Ph ase
Ġexpress ions
Ġcl imate
tem plates
w ing
Ġde comp
command s
Inst ances
ĠSwed ish
ĠMed ical
Ġw orth
NO SCRIPT
e ast
Ġveh icle
ren d
O rient
Ġ' </
ĠF loat
D escribe
=" <?
á »
ĠR en
ĠS pe
se ed
table s
Ġb oy
Ġp index
Ġpolit ics
work s
ĠTor onto
Ġmount ain
Ġp s
process ing
Ġcan cer
Ġthe ore
Th an
ĠĠĠĠĠĠĠĠĠĠĠĠĠĠĠĠĠĠĠĠĠĠĠĠĠĠĠĠĠĠĠĠ ĠĠĠĠĠĠĠĠĠĠ
Ġre start
ap ol
Ġrec urs
ĠF lo
ec ycle
str iction
ĠIm Gui
iz ard
ch arts
ĠG il
c am
Ġdecl aration
F rench
ag en
æ ī
ĠM ust
j oint
Ġb lood
mod ified
ĠD rag
Ġb illion
ĠB as
Ġcom bin
Ġab sor
] <
LE VEL
Ġscient ific
Part s
ĠR a
Ġcr ime
av is
../../ ../
Ġcont rovers
Thread ing
s creens
Ġal gorithms
Ġb ounded
equal ity
; =
ĠP arameter
s ocial
ĠAn th
ĠH ig
ĠFore ign
19 24
ĠR om
Ġho pe
bo ss
ĠSur vey
Dispatch er
c ategories
High light
Pro c
Ġnumer ical
exception s
Ġp tr
col l
Ġparticip ated
Ġstate ments
ĠInst all
Ġdiscuss ion
Ġnuc lear
ĠA uth
Write Line
z o
ĠS ab
ĠN orm
Ġreplace ment
Ġtell s
ĠT ab
Part ial
Ġstrong ly
E lem
ĠCh ris
emet ery
L ONG
M argin
Ġnot able
subset eq
u ate
V C
× Ķ
u cc
ĠD at
Ġphil osoph
O ur
ick y
ĠB rowser
s ock
Ġsuc ceeded
erv ation
ack et
Ġtri p
C over
T LS
miss ing
Ġbel ie
imp lementation
P TED
Ġ# #
Ġpro ved
variable s
attal ion
Col lector
Ġgrad ient
Pub lish
Check er
cy cle
ch anges
Ġas ym
Ġl t
i ary
cc cc
ĠI V
Ġwe ights
Ġdef end
ĠE qu
S ch
ĠG allery
Ġgu ard
Ġfem ales
il ib
19 27
C ss
Ġman ifest
Ġinv oked
av id
G A
ĠN etherlands
el ly
ĠEn c
Im mutable
ĠG re
an alytics
Ġreg istry
Ġevalu ate
var i
g ar
Table s
inter pret
ann a
sign al
E MP
ĠPro duct
ĠForm at
ĠTh row
ĠC ub
Ġd ates
Ġengine ering
Ġrem ember
Ġoutput s
ĠT urn
Th reshold
M iddle
Ġinter ested
at om
ĠStruct ure
x ref
ĠD ATA
H ar
S ING
Ġ Ø§
Perm issions
J an
ĠIn stance
ĠF uture
Ġen joy
Im ages
Ġ\ ;
Ġfig ures
Ġm and
Ġexp onent
19 22
ĠH ost
Ġsett lement
ast y
F ire
Ġl ambda
f riend
Ġc url
go al
Ġpower ful
Ġide as
B ranch
ĠMed al
Ġarray s
ĠSet tings
w as
ĠE P
in cluding
Ġm iles
Ġend ing
Ġf ru
ert o
19 31
ĠGener ic
Ġst rip
Ġsurround ing
Ġ$ |
Ġfac ility
weg ian
Ġ ion
ĠO THER
ĠP R
> )</
Ġbro ken
Ġes cap
al gorithm
Ġri se
h our
MS earch
ĠF ont
ĠS ave
wall paper
Ġinstruction s
s lot
Ġinter section
Ġref ers
00 2
att en
ĠO UT
ĠO ffic
A CTION
ĠC WE
R ound
H idden
or ney
andid ate
CK ET
C ost
ä¸ Ģ
Ġto ward
cl ine
Ġlo ader
sub str
Ġhold ing
Red irect
Ã ½
Con version
ĠT ool
zon a
Ġent ities
ap ore
Ġfil led
P ages
h alf
~ $
Ġph oto
ĠDu ke
GRO UP
Ġ{ })
ĠÂ ©
ĠT ai
ac l
Fil ename
Ġtechn ical
ĠS at
19 21
ĠS chema
Ġcomp utation
Ġinteg ral
ĠF amily
b ower
control s
ak ed
Ġpl ants
R pc
ĠS P
Event Handler
ig o
st an
ur ches
Ġent r
ĠCon structor
1 15
i y
He ading
Serial izable
el a
Ġatt end
Ġart ifact
Ġdec ay
\\\\\\\\ \\\\\\\\
Ġb ran
V ote
Ġrun ner
Ġga uge
ĠS M
K EN
} `
Ġrender ed
Ġprom otion
Ġsuff ix
od a
m icrosoft
ane ous
M anaged
Ġhe at
ud es
Ġ($ \
Ġ( ),
Ġli e
Ġach ieve
[ ];
Ġop in
( []
n an
A SC
XML Schema
Ġest ate
par agraph
H orizontal
ĠS and
At tempt
Ġpro ceed
play back
Ġd ance
Ġll vm
ĠPrem ier
av al
pe er
l on
19 26
sm art
ateg or
ver al
H L
ĠS cript
ĠSt adium
h w
s pect
Ġfre edom
For ward
=" ./
con straint
Ġdefin itions
Ġw ing
pro f
Ġunder standing
Ġs pring
ipp et
cknow led
Ġc li
a que
Ġfund s
m ime
Ġv o
Link ed
Ġb udget
Ġapp arent
ĠSt orage
ĠCol l
p ixel
ĠK im
el ist
DI RECT
Act or
W ARNING
Ġprec ise
int on
[ _
F oot
uet ooth
? ?
Ġper fect
Ġiter ation
el d
comp iled
ĠTr ust
Ġrep ly
Ġr s
Ġch ampion
is Array
Default s
Ġw it
os ity
all enge
ĠA pi
14 4
) },
å º
Ġout line
Ġmeasure ments
Ġter ritory
ĠBe fore
Ġredu ction
Ġr ugby
S cheduler
Draw able
S in
erg i
Ġco al
CD ATA
C odes
. ";
S pe
ĠL ady
ÃŃ a
ĠArg s
B ag
Ġclient s
Log ging
Ġ' {
Ġback end
Ð¾ ÑĢ
L ow
capt ure
C our
Ġbr and
@ {
ĠIP v
l iving
Input s
s ame
h al
Ġrece iver
Ġv es
Ġevalu ation
Be havior
R U
14 0
ĠSt ock
B iography
Ġb right
---- --
m ont
field set
GEN ER
Ġb ot
O lymp
Ġpar liament
job s
P an
Ġm ill
Ġinsp ired
l b
Ġapprox imation
Mod ules
M ost
um ps
Ġem ph
Ġind ustrial
5 000
Ġb as
B ot
it ivity
Ġp asses
utor ial
has OwnProperty
Ġcom mittee
St e
Browser Detector
Initial ize
D a
Ġcollection s
] ];
æĺ ¯
* .
($ _
Ġturn s
Is Null
enc ing
w ind
Ġuncert aint
ĠColor ado
channel s
ĠF air
jav ase
1 16
ĠR ight
Ã ª
First Name
ĠTr igger
rec v
t z
Fig ure
big g
Ġc m
Ġg ather
ĠD im
Ġchem ical
Ġg ained
ĠV ideo
ĠD or
ĠH al
ĠW inter
ĠA UT
numer ic
= </
ser if
Ġd og
ĠBe ach
sp here
ge om
Ġc ars
Ġtr im
ĠZ end
19 25
Ġgr pc
ĠW at
Ġhand led
Ġpurch ased
Ġst roke
ĠDo ug
C lip
AR B
ĠEn able
[ ],
ĠG reg
Ġs leep
Ġtr uth
ab e
Inv oke
Ġin str
Ġfac ulty
vis it
ĠH ind
Ġv ectors
z ed
O G
nav Bar
ie val
Ġopportun ity
Ġm acro
Ġcons ult
ĠA lf
Ġcustom er
"> Â
w orth
Ġal ter
Par cel
19 15
pen ded
Sh are
d ating
ĠSwed en
_{ (
ĠAth let
Ġinc ident
Ġsom ew
ĠR os
Ġc ookie
ĠR ule
: **
Ġresult ed
UP DATE
ah oma
ĠN E
ropol itan
Ġear th
ĠL abor
Ø ³
ore st
? "
Ġas set
ĠH ard
icult ural
Ġd s
get Time
Ġsupport ing
ĠM ulti
ĠW ars
m ysql
ĠTown ship
Ġpi eces
ĠS cal
M F
ĠD ocker
w m
19 12
Alloc ator
ĠM un
kee per
Byte Array
dim en
Ġre peat
ĠIndian a
og rap
Ġfunction al
ĠX ml
Ġab and
N R
ĠL ang
gu ard
Ġso ap
Ġmin im
Ġcall er
ĠAb out
19 23
Ġsym metry
Ġth ick
CC CC
DO WN
ĠĠĠĠĠĠĠĠĠĠĠĠĠĠ Ċ
Ġloc ally
O C
Pred icate
Ġlist eners
Ġb urn
ic ian
ĠF ull
vent h
ĠL ock
df s
Ġpat ients
Ġde code
ĠT y
k n
bit coin
ĠInd ones
b est
Ġdynam ics
Reg ex
Ġ-- -
Ġle s
iz z
ĠH ay
s izing
ĠD am
Ġchall enge
conf irmed
th ird
ĠB ishop
] }
UN K
ERT Y
ennes see
ĠOn ce
sh ots
ĠEd itor
ĠL ook
ĠB utton
Ġmin imal
Ġst one
: -
Ġbel ongs
t bl
ID ENT
Ġ" --
Con struct
"/ ></
Ġnov els
Ġext ent
Ġenc ounter
ĠL td
ĠF acebook
A IL
al ink
Ġpar ish
R oom
leg end
ACCE PTED
Fr ont
ic ht
V T
UM ENT
Ġ urban
ĠDocument ation
Comp lex
ĠApp le
Ð¸ ÑĤ
Ġscen ario
ro tt
ĠE ven
Suppress Warnings
MA C
ĠDes pite
n l
Ġengine er
ĠC orn
ĠTem plate
W omen
Ġdefe at
Ġle af
an imate
IG HT
ĠĠ čĊ
Ġg overnor
Ġimport ance
ic ity
Ġsec ure
ab il
ĠM ilitary
ĠR us
10 5
10 4
ĠPro file
Ġacc um
de ploy
ver bose
we ak
Ġc s
H I
Ġacc ident
ĉĉĉĉĉ Ċ
Ġadvant age
Ġcol lapse
Sub mit
Ġg ar
Ġse ats
ĠSte ve
S ol
Ġte le
fe e
> ";
Ġp hen
ĠCar l
Ġmoment um
ÑĢ Ðµ
as p
Ar r
0 100
ĠFr ont
Ġp in
W IT
Ġpublic ation
Ġauthor ities
ĠM obile
En code
Un its
Ġo dd
Ġdraw n
P riv
PAR AMETER
** :
p d
Ġsh adow
un stable
ĠGold en
Ġ- &
Ġperson s
Ï ħ
S mall
ĠGener ate
Ġfind s
Ġ} ));
Ġimpro ved
im b
ces sed
By Name
_ *
ĠB udd
Mat ches
PO INT
}} _{
' +
ĠPl ace
Ġres ident
ĠT itle
Ġd f
Ġspecific ally
ç ±
ĠV o
v ia
navBar Cell
ill ery
ĠCapt ain
ro ck
ĠLe vel
ne ut
BU TE
Ġadd s
ur is
inner HTML
Read Only
Cap acity
Ġcomp iled
viron ments
ĠCOL SPAN
Ġch ance
ĠS ite
ĠValue Error
ĠIm port
< >(
ĠC atalog
Ġhe av
Ġspect ral
Ġp referred
æ ł
Ġreg ime
>: ]<
L T
A ud
N il
l av
ĠS ant
c atalog
Ġf ounder
id ad
ĠFore st
×Ļ ×
ĠSt op
reg on
ĠQ t
ro unded
F ollowing
is is
Ġ/* !
æ İ
19 16
Not ify
Ġtre ated
screens aver
Ġth erm
Ġm ach
Dat aset
Ġt end
Ã¼ r
ĠC C
Ġtown s
ĠN az
Ġid s
ĠF ight
. &
ĠTrans action
Ġp ip
ĠEngine ering
Ġsp atial
Ġart s
ĠAn t
* >
Ġopp osite
Ġt body
if ul
Ġac celer
Ġleg end
Last Name
Ġcl in
Ġarg v
ĠR on
ĠS TR
å Į
g oog
ĠInter face
ĠA M
ĠAmer icans
Que stion
Ġsw im
Ġse gments
^{ -\
t ick
p ersistence
s napshot
set minus
Ġmaint ain
exist ing
ĠK itt
A wards
g able
ĠApp end
Ġmin ute
Ġperform ances
æ į
orient ation
Ġtitle d
Ġdocument ary
Ġecon omy
RET URN
æĸ ĩ
ĠF ox
Ġrecogn ition
Ġmeasure ment
ĠMiss ouri
G uid
t cp
sub figure
I BUTE
we ather
C riteria
Ġreg istration
S ink
Ġinter rupt
ynchron ous
Ġat trib
F ee
omorph ism
ĠCon d
az e
Ñ ħ
ĠTest s
DOCK ED
Ġc riteria
Ġis ol
Ġpaint ing
Ï Ĥ
ĠF ederation
ĠB i
ens is
ĠG ree
ord an
let ter
lock ed
th rough
h p
co ordin
Un til
un iform
Ġs pl
Ġband s
ç± »
getElement sBy
Prov ince
ev t
Ġp ra
Ġb log
Ġm ales
us al
V P
string ify
11 4
ĠL L
port folio
Type Name
N EL
get Current
reg ular
S ound
west ern
Ġte aching
ab solute
Ġsymbol s
ĠA zure
ost er
TI C
ĠJac ob
Cre ation
Ġ Ä
p ot
ur ance
ĠLay out
Ġ _{
w b
ĠT al
Ġp ag
Ġan alog
ss on
Link s
v ard
Ġem p
Ġcirc um
A ff
Ġto ggle
Ġhe x
LE N
Ġpar sing
De ployment
col on
Ġinvest igation
Ġin finite
-> {
int ent
ĠFI LE
ĠC zech
B tn
Ġt al
am m
Ġcl usters
De ath
Ġlo an
Ġoptim ization
ĠF und
u de
ai ses
Ġ rom
Ġ= ================================================================
Loc ator
ust ed
F ace
Sign al
Pop ulated
Ġr ational
ĠK ansas
es c
ENT ER
Ġb ow
os is
cur r
Bl ue
Comp ute
La unch
APP LICATION
std out
CLI ENT
ĠDE BUG
r ated
se ud
ĠW ait
ĠPro position
é ĩ
or ough
mark et
char set
ä» ¶
og ene
S printf
Cl one
ĠMar ia
c ost
ach er
as ide
Ġpl anning
iv a
un i
ĠW ord
ct l
ĠH ence
ĠMem ory
ĠM ET
ĠCast le
Ġcr ick
ĠJew s
z i
ocomp lete
Ġsp ot
View s
ĠN Y
VI EW
ĠL ike
ĠSund ay
F LOAT
Ġvis ibility
Ġcl ause
Ġ! (
0 10
f act
v ements
ĠC lose
ĠF i
ĠDav is
Ġfrequent ly
r at
inter faces
Ġ$ ("#
U TE
d h
) ";
Ġis set
ĠValid ate
ĠVar iable
Command s
Py thon
ĠNO TE
Ġ| \
FI L
Ġrepresent ative
Emit ter
z ing
Ġincre ment
z ier
o i
od s
ab b
** *
ĠP O
ĠA C
Key board
ĠOb servable
ĠMore over
ĠH y
ĠS witch
ĠCol on
Ġr ich
Fin der
C a
ĠB ru
en ario
ĠAtl antic
Ġcont emporary
Ġcomp l
1234 5
h ot
Ġrest aur
ĠL ow
activ ate
ĠP ur
ĠE st
' "
Ġpre tty
ĠTur key
Ġf ell
Ġser v
Linear Layout
Ġsuffer ed
ĠP u
Ch at
å °
et ry
pl ane
Ent ities
Ġf resh
Ġdi pl
Ġwr apped
Ġhapp ens
ent ities
n ie
t re
oxy gen
Olymp ic
ut ter
ĠTr ack
Ġenvironment al
Ġaud ience
Ad ded
Ġaccount s
Ġ Ã©
es sed
Ġcheck ing
Ġrank ed
ĠD un
ĠB et
Ã «
re store
Ġneg ot
Ġintrodu ce
cons ist
print StackTrace
Ap pearance
Ġ} .
ĠĠĠĠĠĠĠĠĠĠĠĠĠĠĠĠĠĠĠĠĠĠĠĠĠĠĠĠĠĠĠĠ ĠĠĠĠĠĠĠĠĠĠĠĠĠĠĠĠĠĠĠĠĠĠĠ
ur st
amp aign
Ġv ice
Ġinvol ving
Ġse d
re ject
ro b
Ġp iano
ĠN oth
fin ity
ĠK al
M en
Dist ribution
Ġw ish
Ġpain ter
Ġbe am
Ġtechn ique
in ing
Ġs lo
Operation Exception
ĠCon stitution
Ġb omb
ĠAr thur
å į
og en
ĠRepresent atives
Ġparse Int
ĠResource Manager
PRO TO
Ġw rest
Ñ Ī
Man ifest
Ġre lying
Ã§ Ã£o
Ġentire ly
Ġstop ped
get Default
Ġwe ather
Ġth er
widget s
hed ral
i ri
Ġp owers
ĠO k
en ess
DE VICE
Ġemploy ed
op lus
Ġhand s
Ġb lo
st ory
Ġfe et
ust on
Ġmedal ists
âĶĢ âĶĢ
ĠMount ain
iv o
ĠAff airs
Ð¾Ð ´
Ġresp onses
Ġs ig
Ġm al
prevent Default
list en
ord on
Ġatt ach
Ġa f
20 23
Ġaccess key
Ġinstall ation
Ġpri est
arg o
J ap
NUM BER
Ġr anges
Ġli ber
S an
at on
Ġc overs
Ġadv oc
Ġcamp us
Ġveh icles
s aved
Ġy ellow
Ġas sets
copy right
s ap
Ġdis p
Ġcost s
ĠBO OL
ĠIN T
Ġlist ening
Å «
Ġappro aches
J ust
P reference
th ree
out line
Ġt aught
s yntax
clus ions
> -
l ings
mark s
* {
Ġhand lers
B T
Ġle ct
N orth
ĠC op
Vert ical
Att achment
NO TE
Ġs ust
Can adian
M al
Ġn ob
de termin
Ġs a
Block Index
Ġhost s
Perm alink
Ġde precated
G P
I MAGE
la unch
ĠAs ync
tra its
Ġdevelop ing
An g
Image View
Ġcoeffic ients
car bon
add on
Ġassum ption
p f
ĠH or
fefe fe
"> #
Ġsuit able
Comp osite
we alth
ĠV i
Ġdistrict s
ĠL IC
j boss
Ġret ire
re ci
ĠChrist mas
Ġconsec utive
ul s
Ġde ployment
Ġli braries
-- ;
Ġinit i
fail ure
he t
ĠG h
Ġhyp ot
Arch ive
ĠE rr
Ġsch olar
Ġ" :
S hell
å® ļ
Ġscript s
Ġf ans
Ind ices
Ġman age
ĠD C
ĠĠĠĠĠĠĠĠĠĠĠĠĠĠĠĠĠĠĠĠĠĠĠĠĠĠĠĠĠĠĠĠ ĠĠĠĠĠĠĠĠĠĠĠĠ
get Logger
y led
------------ --
Ġfunction ality
then Return
ic ulture
om ot
ash board
n r
ip edia
lay ers
Ġ ì
Ġf ired
19 13
Ġclear ly
Ġinter pol
ĠI ce
Ġjournal ist
R S
ĠM anager
Ġaut hentic
m its
C lock
V oid
sub title
Ġmay be
Ġv ent
(' ../
M X
O RE
ĠCollection s
b io
Ġappro ved
std lib
Ġz ip
ear s
al con
ĠE very
Ġdesign ated
ĠMc C
rg b
Ġm orph
(" ")]
erc ise
H ANDLE
assert False
Ġyoun ger
=" {
ĠC S
ext ends
ĠMem orial
Ġcon j
Ġam pl
NE W
ĠS ound
T i
C op
Ġobserv ation
(" [
Ġleg acy
ĠRuntime Exception
om ething
Ġalloc ated
Ġenc ryption
Ġpercent age
List s
Ġpl ugins
( <
h dr
Ġcal endar
un ion
Ġz oom
Ġ< ![
Ġf aster
ol i
ĠB ooks
out s
/ ******/
el n
DEF IN
I ll
BE GIN
ÑĢ Ð°Ð
Ġattempt ed
To kens
Ġr ain
Ġwrit es
ĠFI X
du ced
Ġc ool
Ġrecomm end
ly wood
Ġc ab
Ġbl ank
Ġback up
ĠĠĠĠ ĉ
Ġspec ifies
get Data
Ġw ire
ĠP ier
ĠR andom
ĠO cean
maj or
sw ap
Ġs po
or row
Ġdo ctor
d ummy
ĠR ose
User Agent
St ates
: @
12 2
Ġs un
Ġopp osition
Ġmay or
Ge ography
Ġ ing
Ġserial ized
Ġ" ");
hi ber
Ġm anner
| }
Ġtw enty
^ -
ĠDe cl
Json Property
ab a
ĠFin ally
Ġg fx
mon itor
ag r
ĠJ unior
Opt s
Ġtest ed
ru ption
Ġg ene
ĠP erm
iv ot
Ġpl ain
ĠNoth ing
) &
se ls
10 7
p ip
ĠE th
sl ug
M ultip
/ %
Ġw ins
Ġop am
Ġcred it
F rag
Ġinit With
ĠT ennessee
un its
ä¸ ª
Instance Of
ĠM unicipal
ĠEx press
f oundation
ari os
abric ator
Ġdepend ent
pt s
Ġg rade
Pre view
Th rough
}} </
set Value
Ġw a
hiber nate
) ',
w so
ĠN iger
ĠB run
ue se
Ġcallback s
B ibliography
Supp lier
Âł Âł
Ä «
Ġnot ation
ĠAt omic
Ġowners hip
ate ur
Ġident ical
ĠL INE
ĠM enu
ĠBar on
re cur
ic ial
P ref
ĠG iven
A U
f ish
Reg ular
A mazon
read only
Ġup grade
Ġfl ush
Ġopp osed
Ġrender er
m ass
Ch oice
ĠR ad
F D
t ainment
Ġmagn itude
ĠLin ux
ic ing
sol id
Ġdef ense
Ġpsy cho
Ġlook s
ĠS ql
Ġd ense
Ġlearn ed
Ġmass ive
Ġsc oring
ĠMex ican
ĠA bb
A ir
_{ -
cont ainers
Ġch arts
Sports people
ĠP it
ins ic
Ġs ock
version s
an ced
ĠLIC ENSE
t iny
Ġad apter
re hen
Un lock
Ġcur ves
lic ated
Ġmat rices
AC CESS
Ġalign ment
ĠE ric
Ġlo sing
ĠP ers
col n
lear ning
ĠF ellow
last ic
Ġ} \
sh arp
w alk
æ ³
A WS
Ġf ashion
NO WN
rows ers
sup ports
Block ly
ar se
get Context
Orient ation
s cheme
Ġse q
Ġinitial ization
ĠB h
ug ar
ĠBuild ing
log ic
ĠB an
Ġs lide
sub subsection
ĠAr m
T ri
ĠI ss
Ġconsist ing
m aker
log ue
ĠMod ern
ĠPhilipp ines
m anaged
ĠChild ren
Ġcom mitted
Ġreg ex
"> ,</
ĠLe on
Ġol dest
19 11
o es
ĠNor way
Ġprov ision
e ur
co ins
ST RE
An sw
$ ^{-
FA CE
' ><
\ }
if ference
ĠL ooks
p ause
Ġ* _
ä ¿
Ġresource Culture
ist ed
bum s
CA A
P references
ĠBr ad
oll ary
ĠUk raine
ĠC ulture
ĠE ner
I llegal
V e
ĠO K
ĠGL enum
Ġcitiz ens
ĠAri zona
Rel ated
ref ox
ĠO regon
Ġden otes
ap el
is Valid
fl ux
pan ic
ult ural
ĠPhil ip
Ġread s
Ġmor ning
LE FT
19 08
cal c
l ined
ĠSt ory
Ã ´
ct ors
Cache d
MA G
ĠRe set
="../ ..
f un
Over flow
ĠM A
ĠI MP
Ġsim ulations
c art
] ));
param ref
ff ee
Th rows
Ġestim ates
ĠLew is
_{ {\
ĠInst ead
ok er
ĠW ho
E mp
est ing
Ge o
am an
ĠFre der
11 11
-------- ---
Ġw ants
access or
ĠU TC
Iss ue
h abit
Inv ocation
Ġjud ge
Ġsent ence
Ġbehavi our
tr ip
ĠF ac
ĠH AL
Res olve
Al though
id i
ĠS el
Ġl icensed
p ick
atur day
Im g
BO DY
W illiam
n ed
ivers ities
re ets
SC A
Ġflo ating
Ġb an
Ġg ender
Ġag ents
Ġexpl ained
Typ ed
Ġprom ote
Ġaff ili
B etween
Ġd ot
Ġnomin ated
wit zer
Ġad jacent
m ne
Re corded
trans fer
ĠL ind
c are
Y P
F IN
ĠE N
_ +
ĠSing apore
Ġhand les
m any
Ġ{ $
Ġbur ied
s chedule
ĠCh art
Ġdirect ive
class v
Ġhe ard
ĠC ert
w ick
ON LY
o auth
ell ite
Ch rist
1 18
S dk
dash board
Ġfund ing
es is
resource GroupName
Ġanim als
AR K
ĠMary land
/ $
ich ol
ĠAnd erson
inter action
Initial ized
Ġcoup ling
Ġb ond
2 11
V A
Q UE
Ñ İ
vet ica
24 0
R M
B D
ĠPl ant
S ys
Ġh orse
Ġinter actions
ri k
m achine
Ġviol ence
ĠViet nam
)) {
class path
v r
Ġl attice
) ?
Throw able
Ġwhere as
View ById
Fil m
Ġin equality
ure au
9 00
Ġnormal ized
ph oto
e le
Ġs quad
B usiness
ĠT witter
Ġext ensive
REA CH
t wig
D X
N U
AS K
ĠM it
request s
en z
Abs olute
sp l
ĠS quadron
eng ers
Ġy ards
d atab
Ġfight ing
U INT
TR ACT
Ġd x
div ider
B M
Ġitem Members
c out
\ .
Ġd type
S prite
() "
inc ial
Ġphys ics
witzer land
Ġapp lies
Ġco lour
ĠGL int
fin ish
Ġsign ing
ĠS av
ĠRo ss
j q
as hes
g ray
l c
ĠF actory
CON NECT
iven ess
ĠA ud
Clo sed
Ġarrest ed
Rec ogn
Ġinj ury
Ġc ancellationToken
Rep resentation
ĠPal est
ID s
Re po
ĠSt aff
Ġterm inal
Ġf ixture
" +
In c
OP EN
ĠMos cow
ĠS W
Ġa head
x e
Ġpre pared
M LE
Ġad res
C ross
å ĩ
ut her
Ã ¦
Ġtr ansp
Ġ) {
Re cur
Ġorient ation
SI L
Ġ" (
res olved
Dis able
h or
t ol
n ested
99 9
Res ize
book s
Ġgir l
if ts
Ġ" </
od ot
3 000
18 90
n eg
Ġc row
Ġsequ ences
Ex amples
Ġscal ing
Ġtrans lated
ĠF ish
Ġar ms
ĠC ost
Ġ um
De code
type Name
Ġqu adr
COMM AND
Ġindic ated
Ġca using
CON ST
HEAD ER
g ra
Ġsuggest s
Ġconstit ution
ĠM iller
Ġin comp
hes is
(( (
Imp lemented
off s
e ction
G reen
Ġst uff
ant ics
{ })
am ar
Ġharmon y
Ã ĳ
Ġcontrib uted
F ast
ĠH art
Ġpre ced
ĠEn um
Ġquant ity
Ġembed ded
G a
g mail
prot oc
Ġsu ite
FN GL
q a
TH READ
MPL ATE
Ġar c
oper ating
ile y
Ġch airman
Cre ator
Ġin verse
Ġc ov
Ú ©
ĠA h
ĠP RI
ĠT an
1 32
Ġvill ages
Ġthe atre
br ace
aut hentication
Ġaccur ate
ig e
), \
ĠPro duction
ĠHigh way
ĠM achine
Ġinter act
}} (\
ĠP ot
V R
Ġen emy
Ġsc oped
S ens
file Name
m g
sc ill
uff le
ĠF R
Ġemploy ees
10 3
ĠAss oci
y ou
Ġa ver
Ġem erg
Ġb odies
U K
c odes
ĠK r
fl ash
ĠFe ature
lo ose
Ġob serve
Ġdec ades
Ġcr ash
R ich
ĠAd am
P LA
h ance
c g
d type
ad apt
B el
Ġeduc ated
ĠL IM
Ġhel ps
Ġintrodu ction
ĠSim on
Ġmanag ers
e in
ĠSD K
Ġf d
block quote
Ġb ronze
app y
ul ating
Tra its
Ð¾ ÑĤ
ĠF oot
d ater
Ġf estival
de velop
as List
Ġ* */
ĠR ect
Ġsign als
Ġstar ring
Http Request
ĠBase ball
h ub
document ation
Ġstandard s
ĠVal ues
und les
Com bo
Ġjav adoc
!\ !\
he ap
Ġn arr
ĠIter ator
ĠM ir
Ġult imately
cred entials
æľ ī
n egative
10 9
Ġeas ier
! ");
Ġcharg ed
FA I
periment al
Ġequal ity
ott ed
rem ark
2 20
call s
wh at
Ġcur r
Rot ation
h ist
Ġsym metric
Ġr ating
ĠLoc ation
io ce
Ġde leg
Ġj e
Ġelectron ic
ri um
ĠG ran
ĠT a
ĠFor ces
Ġexper i
="../../../../../../ ../../
Ġhouse hold
;& #
ch rom
Component Model
ĠD a
r ust
Ġplan et
Ġpro portion
ĠA udio
Ġmov es
33 3
P ersistent
Ġob vious
ĠHel p
Ġprem ier
Ġrender ing
n P
ryst al
ant om
ĠERR OR
IT ER
Ġspect ra
Max imum
Ġre serv
Ġob server
Ġtri es
a ac
ĠAr k
Ġman ip
Ġide al
Ġtrad ition
Ġreal ity
Ġen force
Res olution
Ġcommand er
Ġb ulk
Ġopt ical
Att ach
Ġ( ,
Ġfe edback
ĠLIM IT
Ġm apped
ev in
Ġp le
ĠI owa
Ġh ole
ambig uation
Ġh all
Ġcould n
Ġ$ [
' </
url s
u is
with out
b n
od b
ĠL P
} ))
Ġsing ular
ac iÃ³n
E v
it able
C LO
x ff
c ers
kl ahoma
Ġe vol
Ġdistribut ions
Ġfund amental
Ġd anger
Ġre action
Ġclose ly
sec ure
en ix
oper ations
ĠHar ry
ĠJ ane
Ġex posed
Ġpro test
r ub
ĠS mall
Ġb lob
') ).
STAT IC
F M
ro it
-------- -
ym n
Ġ$ ('.
ĠA mb
ind ic
ORM AL
w ers
ĠLe ft
unt u
"> "
UM N
Ġcalc ulation
H on
ĠKent ucky
Ġspec ification
Ġtool tip
ĠMal ays
Ġclo sure
n ov
Ġt y
s ong
be at
Ġdom estic
Ġsatisf y
le ans
ĠPl atform
Trans actions
Ġpre dicate
Ġfa ith
int o
> $
16 9
ĠM ill
en kins
Organ ization
NAME SPACE
iss ip
ĠOffic er
Serial ize
G ed
ĠL ar
ĠMo z
w edge
define Property
p romise
Tool bar
Ġm it
Î ¼
à¤ ¾
ĠSpace watch
rain ian
wh o
er al
igr ants
serv ers
Ġperman ent
Ġag ree
open api
Ġm esh
Ġe val
ĠR ol
alle st
Ġset Up
Ġpro c
ĠW allet
A cade
el ve
des cr
Ġcrit ics
Ġcharg es
ĠC OM
> #
II I
pol l
ap k
ĠE qual
ĠD ark
ĠB at
m aint
oc used
Ġev t
Ġback ing
re view
Ġman ual
ĠGa ussian
get User
Ġlist en
Te ch
Ġhapp ened
ĠĠĠĠĠĠĠĠĠĠĠĠĠĠĠĠĠĠĠĠĠĠĠĠĠĠĠĠĠĠĠĠ ĠĠĠĠĠĠĠĠĠĠĠĠĠ
12 4
Ġrem ark
ĠSing le
u ity
Icon Success
ul us
")) );
le w
Ġlow est
w ich
as a
Ġk il
Ġsol ve
Ġli qu
un ix
Ġvoc al
ĠP osition
per ature
fg han
Austral ian
rot ate
en coded
Ġst orm
ĠK han
IN PUT
text sc
Ġre serve
ok en
d agger
Ph oto
Ä Ł
'' '
ĠE ll
ic ut
r atio
Ġcan onical
ĠVol ume
ph ab
Ġcomplex ity
ĠEnter tainment
ĠExec utive
ov y
ĠG ib
P atch
Ġ ur
O s
Ġbutton s
io logy
Ġset Timeout
in struction
Ġ+ \
> ",
aver se
ĠC hen
um bs
Wr ong
min ute
Ġp t
XXXX XXXX
ard o
g uid
Ġsatisf ied
Ġdebug ging
Ġst ellar
az a
ha us
Text Field
Ġh int
c url
Ġprot otype
Attr s
et ition
ĠW H
> ',
Ġb ias
Get ter
ĠHe ader
m ong
TR ACE
Ġformer ly
Ġs pend
On Search
Ġplatform s
Non Null
Ġref used
ĠCont roller
ĠD oc
j u
ĠS ri
] =
Ex change
li est
in ces
V ars
Ġarch ive
ĠS Y
Ġdo or
ĠRe lease
Ġsch ol
ĠMel bourne
Ġguar ante
Ġpert urb
i ot
al one
cover age
CA SE
d id
get C
S amples
Util ities
Ġmaint ained
19 05
Ġrec ipient
b readcr
Ġf ul
Direct ive
(' \
Ġdiscover y
ĠP a
Ġent ert
R ank
ver b
ĠS uch
Ġpor tray
ĠEner gy
Ġ iron
ĠV M
ST EM
ĠHol y
Ġa id
node Type
Null Exception
ĠCl ark
Ġinstit ution
Help ers
Ġp b
Ġoper ate
Ġdraw ing
ĠU l
I CE
ĠJ os
ĠId ent
unit test
Ġin dependence
dom in
ĠL E
Ġgalax y
Fin ished
Ġclo sing
f v
' ></
ĠM ove
Ġkey word
Ġd ump
N or
c rypto
ĠV ert
al tern
ĠS ER
IconSuccess Encoded
ĠF low
Ġyield s
et ype
st ri
SE CON
re dis
ĠDef ine
ĠS ort
P haser
S uffix
CON F
the mes
se p
ĠCall back
Ġl it
ÐµÐ½ Ð¸
tensor flow
M r
contrib s
Ġd ocker
Ġn am
ç½ ®
in th
ĠB all
ene z
C N
Ġdr ums
Ġhead quarters
ATTR IBUTE
Ġpro g
OL DER
ograp her
list ing
list ed
host name
ĠC ape
ĠA P
ĠM ode
for all
Click Listener
ke leton
ĠQueens land
ĠT i
Ġsix th
ur r
ĠM B
% );
read able
k et
u ent
Ġrelig ion
Ġ ));
"> '
Ġc aught
å Ĩ
Ġm ist
inem a
Ġh its
Process ing
ĠL yn
ĠLab our
ĠGr ant
Hand lers
æ ŀ
Ġmembers hip
OP ER
ĠC ab
ĠH E
H istor
ivers ary
USE D
ab ama
g h
ĠF ord
Ġdefault Value
Ġcor por
record s
Ġdriv ers
Ġsm art
S ym
Ġoccup ied
at ched
Prot os
Ġlog ical
Ġphen omen
/ (
col s
ĠMag azine
M igration
SE SSION
ĠEn sure
ant asy
Ġe ye
g ro
AA AA
ache lor
Ġaspect s
Ġpre diction
D M
query Selector
Na N
sp h
Ġto wer
Ġper haps
d og
} >
f ade
DE V
er os
Ġ( {
Fl ush
ĠB ody
b rew
[ [
in crement
Ġre form
Ġcomb at
.~ (\
ç Ľ
16 8
Ġimmedi ate
SCRIPT ION
Ġsk ills
FAI LED
åı ĸ
k ov
ib ration
Ġarr ang
g res
Ġr acing
Ġco lo
Ġm es
li ps
ĠM as
ĠB urn
U V
ĠO pt
Start ed
Ġret ain
ĠLin coln
ĠB ra
Imp lementation
ar o
Ġeffic iency
Ġprocess or
opt im
P in
inherit Doc
Ġ/** <
ifi able
Ged mo
Ġenc rypted
Ġdec imal
Ġdesc end
ĠS quare
itle d
k ing
m esh
ĠE C
b urn
ĠD ue
RO P
INTER N
Ġ* **
back up
Ġfl uid
ĠB us
Ġresource GroupName
Ġdr ink
Pro pag
ap l
Ġhapp y
Ġin coming
Ġm ent
m icro
Ġhard ware
Ġalleg ed
ĠGree ce
Ġextrem ely
an aly
G iven
ĠW ind
O ps
ĠB os
E ducation
iv als
d al
Ġcr iminal
p us
Ġcapt ain
Ġs urname
P aired
pre tty
Writ able
ĠF all
lic ts
ĠAdmin istration
E ast
ĠPro gress
S B
Ġcheck sum
Ġf old
Character Offset
i ations
Ġpurch ase
v p
Aut hentic
t b
hand lers
Ġus ual
organ ization
Ġbo ught
Ð ±
do es
19 06
Ġgir ls
30 4
B AD
ĠQ ual
d w
Ġc ros
Ġeffect ively
Ġ@ @
Ġpartners hip
Ġdevelop ers
de leted
ĠAust ria
cast le
c us
end l
current Time
ĠCont in
b ash
D AT
ä¸ į
ĠBro ad
direct ive
Doc s
Ġsett led
ar ity
ĠW ed
Pro ducer
sp ot
19 09
loc ations
Re cent
Ġcount s
s an
L im
Content Type
Ġexhib ition
00 000
T ube
ĠCl uster
ĠTh ird
comp ress
ĠS witzerland
Ġwe alth
Ġadapt ed
Ġprodu cing
ag ues
"> .</
ĠSaf ari
ĠT en
Ch rome
comp act
Ġ" {
ĠB rian
ĠS ide
An other
ĠSk y
Ġobject ive
ĠNor wegian
TIME OUT
Number Of
user Id
load s
ĠEm peror
ADD R
Ġpil ot
Ġh a
Code Attribute
Ġhistor ian
Ġf avour
Ar ticle
Ġbene fit
ENABLE D
Ġv ot
LOB AL
mk dir
Ġh y
cl er
( %
TO KEN
x f
x t
it i
iv ation
ĠE VENT
List View
Ġch apter
Ġprodu ces
A pis
source forge
Transform er
10 6
Ġl in
k ar
br ains
se ek
p ane
Ġpost s
Ġexec utor
Ġdriv ing
Callback s
sect s
Ġpat ient
3 20
ĠC PU
ĠSt ack
ĠSt yle
Ġp un
Ġca ref
Ä Ļ
ig gers
For Key
PROP ERTY
Config ure
Dec or
Ġde ferred
ĠTh rough
per p
ĠCh ile
Or g
A ws
? .
æ Ŀ
Ġprincip le
ĠLem mon
Ġal location
=" '
Ġdescri bing
) ];
ĠR ound
ĠK er
Ġent itled
getElementsBy TagName
ĠF ame
] ",
Ġpresident ial
itor ies
g ulp
v y
EX CE
Ġtr ains
w ave
sup p
} ")
built in
Conn ected
ĠP as
Ġbro thers
ĠMar shall
Ġphot ograph
Ġdis put
EQ UAL
CLU DE
re try
Te levision
ĠExt ension
Ġinn ov
Numer ic
ĠE s
Ñ Ħ
CP U
Ġexpl ain
Ġmusic ian
ĠC OP
bar s
V ill
). </
Ġnull able
W ords
ĠA ge
ĠZ h
Ġshe et
Ä ħ
FE ATURE
Ġform ats
Z end
Ġc ru
Ġb ench
S chool
D iag
Ġw inter
ĠProt ocol
r in
or ro
Ġtrans mission
ĠG ram
fe edback
root Scope
ĠFurther more
CA CHE
datab ind
Ġbr ain
ĠLink ed
Ġf an
Ġo c
ul um
Ġv ir
ta h
Get Type
Ġinter ior
F ixtures
Ġrepl acing
dis ambiguation
ER Y
Ġinter mediate
ĠB ah
dic ates
b oth
me asure
issip pi
lic ity
ĠCal led
E urope
ĠOper a
Log ical
r ans
ocr atic
map per
ĠL iter
ĠP aram
Ġvar iation
Ġim pl
Ġs sl
ĠJes us
Ġk ick
ĠUS B
lo ating
T ON
ĠS R
N EXT
h ann
19 07
Ġreg arded
Or Empty
CO RE
"> )</
Ġst ages
math comp
s u
ex panded
ate ver
ĠB inary
Depend encies
ĠB u
Ġres cue
Rect angle
In to
ub er
ĠCheck s
ADD RESS
ap pe
j as
ag ram
ĠI Enumerable
LOC AL
Ar n
ĉĉĉ ĠĠĠ
exp ress
B in
Ġ` --
ĠMar ine
Ġsubstant ial
Ġpe ers
Ġpre mi
Byte String
so lete
get Parent
ĠType Error
ĠHash Set
Ġp id
Ġinterest s
le ave
19 04
an ia
Ġes c
ag g
Ġjoin ing
ĠB egin
Ġk illing
eli hood
ĠEx pr
Ġs ons
ĠIslam ic
ines ses
N egative
ĠS eg
d yn
ex e
w ifi
Ġap art
Ġopin ion
el led
Ġso le
Com b
Ġ ].
G esture
ĠĠĠĠĠĠĠĠĠĠĠĠĠĠĠĠĠĠĠĠĠĠĠĠĠĠĠĠĠĠĠĠ ĠĠĠĠĠĠĠĠĠĠĠĠĠĠ
ĠBill board
ĠAdd s
B IN
ĠSt one
Ġco aches
Ġscen es
ex tr
ĠEar l
av it
Ġ& =&
) _{
Ġweap ons
m r
Ġdoc s
i ator
ĠH ans
Ġ ))
border ed
size i
Sort ed
ov es
ug u
ĠV K
Ġb id
Bal ance
Ġex tern
Ġar ithmetic
CONT ENT
) ^{\
Call able
Ġ] );
ĠSen ior
ĠPl ugin
end a
Ġsim ult
æį ®
Ex tended
åľ ¨
ĠT ony
Ġbro ke
ĠA z
Ġsh ut
m ob
Ġevery one
N ay
N ER
Ġj azz
ĠN ames
St ation
if old
Ġtr ail
Ġwith draw
Ġflow s
Ġstri ke
res olution
][ <
ĠEn try
a ire
Ġdisc r
Cl ub
t ake
P icture
F X
Ap pro
ĠTurk ish
Ġcomp os
Ð ³
Ġn ick
ĠTok yo
W ar
Ġposs ibility
pub lished
ĠWal ter
Ġf uel
Git Hub
R G
Ġa ux
Ġag ency
r int
Ġ è
Ġb rowsers
ĠV ice
Ġclean up
Ġt ip
Dem o
ĠT erm
}) $.
un used
P ull
Ġn ortheast
if ecycle
P AGE
Inst ant
ok ing
P G
writ eln
Add itional
Ð¾Ð ±
Ġvol umes
ic ians
Ġo scill
Ġrespons ibility
b ul
Ġ' )
UT C
P ad
FIL TER
Ġat mo
ĠMan chester
. ')
}} ^
f our
ig rate
OFF SET
Ph abricator
+ -
Ġp ipe
Col ors
Ġs ale
Ġtem plates
Ġb oot
Ġpr imitive
A W
F B
ĠD NS
ĠIsrael i
De ep
:// $
Ġaw s
C V
ri er
Ġl ake
Ġpers pective
o a
Ġc ro
aw are
qu et
C XX
Ġcon crete
ang ers
ĠW ARNING
rece ive
æ Ķ
Ġdr um
ĠHow ard
Ġv ideos
ĠDo ctor
ĠIns ert
j k
is lation
et he
Ġu uid
log s
Ġaccess ible
ac ht
has Next
Ġshort ly
ĠK a
ph ere
ĠB eng
ĠK at
igen ous
S lide
Ġstream s
ĠT yp
Ġsum mar
uck ets
Ġassoci ate
10 8
Work s
Ġdepend ence
Ch o
Comp atible
Ġ[ `
B uilt
Non null
ism atch
ci i
Ġs ac
Ġly rics
ĠSe q
Ġver bose
am ond
Ġoper and
Ġ{ ?
Ġbran ches
go als
ĠĠĠĠĠĠĠĠĠĠĠĠĠĠĠĠ ĠĠĠĠĠĠĠĠĊ
Ġ' [
Ġag gregate
un es
Circ le
Int Literal
Ġstart up
ol y
UL AR
Ġcirc uit
å ½
Ġw alls
ĠRegion al
Ġt error
jet brains
ĠL ank
Require ment
> @
Ġtr unc
Ġfoot er
Util ity
Ġapp lying
Ġrec ru
B IND
Ġnorm ally
Ġconsider ing
ãĤ Ĵ
ĠHel per
D an
Ġprote in
Ġsol ar
Ġor th
3 50
A E
n ia
State Exception
T M
omorph ic
ĠRE AD
Ph il
Ġhot el
i em
Ġw arnings
S pring
Ġrefer enced
Ġcomp atibility
Sl ider
Cur ve
Const ituency
tele phony
i pl
$ ).
ĠO klahoma
Cur rency
Pro duction
ik h
LE AN
Ġbrief ly
he alth
mem item
P TR
b ors
g allery
ĠC lo
ĠAll en
Ġcop ied
Ġan imal
b u
Ġgener ating
RE ST
urch ase
ĠP ref
Ġscal es
Ġtemp le
lov ak
Ġarg ued
ĠInf antry
Ġr pc
ĠDi ego
Ġdirect ors
Ġm yst
Tool tip
mal ink
l arg
g ate
Ġfilter ed
b uffers
ĠS TD
e en
r ating
Ġnuc le
l ucene
Ġ( ((
re load
Min imum
um per
ĠD ream
ĠJ un
,\ ,
At Index
u art
S at
ĠMem bers
ert y
Ġs ans
Col lect
ĠB ureau
n est
Ġcancel led
Ġf olk
Ġscore s
per form
Ġed ited
ak t
^ (
ĠH om
Ġso ught
st ances
Ġdel ivery
Ġs and
ĠS u
Ġconcern s
Ġinter faces
Ġnumer us
Comp ilation
N P
Ġs ensor
Ġh un
Pub Key
View er
ad os
IF Y
d riv
ĠC P
ĠP A
Ð¾Ð ¼
w en
Ġoper a
Ġeduc ational
in cess
Ġfile Name
Sin ergi
in ction
Ġip ut
re ement
keyword s
Ġm ile
æĹ ¶
start ed
Ø ¨
Ġre pro
mid i
St amp
Not able
Ġinvest ment
ĠF LA
Ġdeliver ed
O VER
ĠAm ong
Ġsitu ated
ĠCommon wealth
Re view
ect ure
ang les
Ġm igration
sp aces
ar ations
ĠW ol
Ġcho ices
Ġf aced
j dbc
ĠM att
ĠVis ual
Ġf ought
Ġher self
Z ip
é ¡
ĠTem ple
Ġl ift
Ġattack ed
Ar row
Comp ar
INTERN AL
Ġst ands
ĠP M
IN LINE
Ġdep ict
ar on
im ination
Ġsup posed
Ġt il
Ġd ust
ch ars
is i
Ġre aching
Ġeng ines
cho ice
Cred ential
ĠY ES
Y ea
Pack ages
Pos itive
M ilitary
O IN
") ).
inn ed
W H
Ãĳ Ãĳ
Un expected
Mod ify
Ġtrack ing
> {{
ag u
ĠComp ute
N ORMAL
vis ual
ĠB lo
18 80
Ġh uge
ĠP C
Ġd w
section s
19 01
ĠRes ources
Ġrequire ment
b ank
ĠG lo
int ro
Ġlog s
ĠD al
}$ -
ĠAnth ony
Ġfl ash
che mes
ioce se
rid ay
CL UD
H AL
h it
ĠK y
n ok
Ġ ÑĤ
Ġat om
Recorded Vote
ĠI l
k ubernetes
q t
Pr incipal
"> =</
Comp any
Ġrelationship s
ĠT el
gr avity
ĠAl abama
Ġcharacter istic
CLUD ING
n ical
C AL
Pol y
LA B
Call ing
Ġnumer ic
lector al
n ik
Ġwas n
qu iring
ĠHo uston
Ignore Case
Spec ific
ĠDig ital
Ġrecover y
ĠT ar
Ġo ps
s ime
m atic
em ony
tt ify
REQ UI
Connection s
Ġc ubic
ĠN ever
ap y
ĠB ulg
Ġpaint ings
Ind ent
ĠG C
+ (
Ġd ummy
ĠP attern
Ġd ry
ell s
N orm
Map s
ens ors
Ġremov ing
Ġe g
ĠC ONT
t odo
ĠÐ ·
Ter min
H it
< '
Ġconnect ing
M UL
Ġun set
ĠâĢ ł
ott en
> =
S us
Ð°Ð »
ĠC are
SH OT
rupted Exception
m q
product s
ane ously
g ol
ĠSil ver
AT IVE
ĠSh ared
Ġs parse
normal ize
ĠPat rick
ĠW y
t pl
Ġeth nic
Ġch ose
× ľ
M icro
ĠSet ting
sub division
ĠM S
D avid
ĠF er
13 6
ĠAg ain
sime q
" <
ud son
Button s
ro les
Ġcon cat
' })
m ir
. (
ĠA ST
ec ess
pm atrix
Ġre striction
STRE AM
Ġc d
ĠB attalion
Ġro of
Ġfound ing
Ġoff ices
Pro jection
) }(
19 03
Ġman ually
B inder
Ġf ly
ĠD omin
ĠCO VID
Ġ$ -
B orn
work space
Ġworld wide
OUT PUT
e led
ĠA fghan
Ġro ots
H ouse
ĠU INT
ĠHe art
ĠAr men
Ġmix ing
el lo
Ġlaw yer
Ġcon str
Ke ep
ĠCon n
TR A
R oman
Ġheav ily
s il
Ġre vision
de ps
Ġsh a
Ġvol atile
e lection
Ġv irt
in ian
Ġrece ives
() }
log ist
Ġliter ary
att achment
Ġpro posal
ĠM aur
Ġro bot
ĠAn ne
ĠJ ay
Table Name
Ind ian
Thread s
Ġappear ing
Ġle x
now ledge
ab br
I ES
pl ating
Ġser vers
vent ure
ĠN CAA
Ġdise stab
ĠD escribe
Ġhom es
ĠT F
ss h
Ġfound ation
oth s
Un ion
node Name
ĠG T
b re
S uch
External Project
ĠH amp
MO VE
Ġco in
Red uce
Ġcar bon
Ð Ł
Ġinsert ed
Ġover view
Ġreport ing
Ġsing ers
Ġb rown
Id le
Ġs ink
ĠA le
ce ived
d ns
Ġc ards
Ġprogram me
Ġg reatest
ĠJ ordan
ä¸ º
Ġtheore tical
E B
ĠCOP Y
ĠSh im
l r
ĠEx amples
12 6
Ġapp s
CO PY
---------------------------------------------------------------- ----------
The y
ĠSet up
%%%%%%%% %%%%%%%%
Out come
Ġl p
ial s
per missions
- %
Ġg ray
ĠT oday
ol ished
Ġd ol
M acro
ĠT reat
Ġar row
Off ice
H D
ĠPo inter
> *
ub b
LI MIT
Install ation
Ġc le
enn y
Ġgraph s
Con str
ĠF a
Ġh op
ĠPar ser
ĠAr ticle
User Id
ĠVill age
ĠS n
st ers
ĠM eta
Qu ick
Ġair port
)} {\
pro logue
Ġa ired
({ },
Ġre new
m usic
ĠUtil s
H ard
k an
ĠN ag
ĠN FL
G allery
Ġsports people
s uffix
F i
In herited
ific ates
dist ribution
Ġt ar
sing leton
ĠU r
Ġcollabor ation
sh ake
Ġag ed
render ing
ĠConnect icut
ilib rium
è ¦
Ob servable
Ġcomp ression
Char Field
ĠD ialog
dig est
================ ========
Ġb ed
Comp arator
E mbed
aw ay
R ay
ĠPortug uese
Ġcalcul ations
Ġs outheast
un def
ĠU UID
ant ly
Ġsess ions
Ġrough ly
EMP TY
M ass
ct ype
ĠT rade
s qu
Ġcommission ed
) ](
Ġcent uries
ĠT ypes
G ood
Ġm art
Ġd oll
ost ream
sh ader
Ġinteg ers
Ġretire ment
M c
Ġutil ity
Ġvol unte
azel cast
Answ er
19 02
ĠB ug
ĠS lo
sp ort
vent ions
Ġt ur
th reshold
Ġro yal
Ġper mit
C ATION
ĠC L
ĠN ik
t ls
Ġp ad
Ã© n
ig id
6666 66
com mod
ab i
M us
M ich
Ġat omic
Int roduction
Ġin habit
× ¨
Ġrob ust
S al
Ġbus inesses
Ġinf rastructure
ph ysical
Ġdat asets
SY S
Ġintegr ated
Ġprof ession
Fin ally
h um
Ġon Click
ĠD WORD
Ġd y
Ġl azy
Ġre volution
Sh utdown
eter min
Ġne ither
ĠD ur
b id
w ire
P B
Ġtr av
ĠPo pe
ĠM E
quis ition
ĠC red
L ater
Sh ard
IT S
ĠS DL
Inter op
c nt
Ġ<!-- [
( ',
Ġne arest
aut hentic
% ">
ĠD ie
F it
H EL
ĠPro b
char At
. [
ĠTe levision
ĠExec ute
sk in
Ġrestrict ed
d v
Ġcon cluded
g b
li x
11 7
Ġmod ification
/ ************************************************************************
Ġres on
) ^{-
Ġsub mitted
ĠD ir
Ġh older
L em
"> @
Per formance
F ootball
R aises
bar a
g un
ĠP DF
Ġ[ \
eq z
Ġcover ing
ĠWork s
ĠC artesian
13 5
Ġtherm al
) ");
Ġany one
nap shots
Ġto t
ĠInv est
enc er
Request ed
i u
ĠDon ald
sw ift
det ect
ed ition
ant ed
Ġcharacter istics
R ew
ĠDoug las
Ġ{ !
type param
ĠA st
Ġcomp uting
scal ar
Ġ' --
for um
s he
re start
.$ $
up les
Ã¶ r
ĠG ordon
Mix in
Ġp apers
depend s
ad just
auth ors
TO P
g iven
ĠLouis iana
Ġpredict ed
se g
Th us
Ġinv ited
Pl us
ĠC emetery
Ġpres erve
B uffers
Ġres istance
C he
ar ound
all as
ann y
d ensity
Ġe poch
ĠNav al
Ġtrigger ed
b ia
\ )
Ġp m
fil led
Ġcompet itions
ĠArgent ina
os lav
Ġst ress
ĠArray s
Ġestablish ment
SN AP
Get Value
=" .
inherit doc
re strict
i pt
ĠG ene
ĠMo on
th ere
ĠD iagnostic
Ġch ron
Des erial
Y ES
ab ort
Ġincorpor ated
Ġch urches
Ġjust ice
ĠS om
ĠC ategory
Ġg lass
Mar shal
CONT RO
Ġbound aries
NE SS
t ik
ĠP rom
EN SION
Mar shaller
Ġrest ored
han ced
(" _
ĠQue bec
Ġl umin
Ġr v
ĠZ one
ra ils
F ault
H ot
T or
B G
Ġf ranch
FO UND
ul ner
Ġint elligence
Ġmet res
V S
Ġex clude
Ġsh utdown
null able
ĠHot el
) \\
f ixture
n x
Ġ ):
Ph ysical
Ġevalu ated
ĠSV G
build ing
ĠDep end
Ġgood s
ĠS ix
ĠB ull
Ġm asses
parse Int
ĠSw iss
Ġinflu enced
Ġconfig urations
s uite
Result Set
ĠBit coin
Ġex cess
14 7
q view
new command
M arch
ogene ous
OL D
ver ts
Ġconsist ed
pre dict
ĠHarr is
min imum
Text Box
ST D
') [
View Model
RE SOURCE
ĠMiss issippi
ĠJ uan
ĠV ER
es lint
ass oci
EX P
Ã µ
bal ance
Å Ļ
Ver b
d ied
Spec ification
b ow
Ġess ential
Ġthous ands
TE MPLATE
ãģ Ļ
= _
assert That
re ach
el le
lic as
WIN DO
Ġin set
Ġre ception
Ġcap able
ĠOrgan ization
Ġperiod s
l v
CK S
ĠHaw ai
TH ON
Hash Code
ĠTH IS
c z
Ġw arm
de z
to Array
Grad ient
ĠS IL
se a
ide a
Ġmin ing
el son
Ġ{ :
Ġm m
mock ito
Ġcr isis
ĠV in
k u
Sm art
"> :
Ġvers us
Ġbenef its
es a
Ġcomp ri
ĠO ct
ĠOr th
hold ers
ĠR aw
lap s
") ),
ĠM rs
)\ ,
aw ait
ĠCE O
ĠC LI
cent ral
Print f
Ġp ause
ĠInt ent
D ays
ĠF ast
re vision
:: _
ĠU TF
eg e
end ment
Ġl hs
Ġm p
ab ling
ãĥ ³
Project s
ĠD ick
As String
d up
ch arge
In ventory
inger print
Ġput s
ĠC ensus
ĠN ev
Ġsubject s
Ġpart ially
ĠLINE AR
ĠSt udio
Ġc v
Tr im
Ġ= =====
ĠM aterial
Ġco inc
ĠSt atic
ĠE uro
ĠG uid
ME TA
Ġconver gence
D J
ĠN an
W ater
D to
per malink
ĠJ am
Ġp up
ĠS aturday
sp y
ant on
ĠG ard
........ ........
i ac
in burgh
E very
us b
de cess
Up dates
success ful
'] [
Des criptors
Dis c
let ing
is EqualTo
D TO
app ers
im o
ne ed
ĠDirect ory
St roke
ĠM D
host s
FUN C
ĠB ry
FAIL URE
Ġpublic ations
g ateway
Ġs ampling
SI G
Ã© r
Ġa pt
ton soft
f ork
Ġv oted
t ot
x c
4 50
pen se
000 1
ĠWh it
Ġdesign er
em an
ched uling
Ġbreak ing
ĠN ichol
ĠLie utenant
Ġ ener
ĠO ak
Ġneigh bour
v oc
ĠTr aining
sp lice
ĠÐ ±
ĠDe ad
Com ments
ĠB UT
Ġh am
PO SE
j b
d in
Comp ile
Ã³ w
Ġt ennis
str ategy
enc oder
. {
m or
Spec ify
ar ith
neut ral
ance led
match er
havi ors
De leted
Ġsk in
M Q
over ty
add itional
el and
ĠS uccess
18 98
"> {{
Ġcr icket
Ġ" *
Ġrespect ive
ĠDef ense
Ġcoll ision
L arge
Ġ[ &
min or
ari ance
As pect
EE E
Ġun lock
Ġin deed
lad esh
us cript
r df
/ :
lic es
Ġorder ing
ĠN ormal
Exp and
Form er
ĠP OST
r ino
ag le
ab bit
Ġres ol
IN X
user content
AL LOC
Lin ux
WIT H
cap acity
ĠCro at
Ġleg islation
Ġsomew hat
Ġsl ave
un ing
Ag gregate
it als
Ġconf idence
á º
ĠHon or
Î ¯
ĠC art
W M
ug o
ic ular
Ġsoc cer
Ġiter ate
od ox
Ġint el
ĠS elf
Ġg uid
initial ized
Ġi i
Ġter rit
ĠI ron
att an
w char
ĠY outh
ab ad
ts burgh
Work flow
ĠLiber al
ĠA ug
3333 3333
Ġ= \
Ġint ention
Opt im
ced ures
uk i
Ġs alt
Ġm arg
Al location
Ġm illiseconds
Ġ} }</
}} ^{
Ġnormal ize
Ġm ob
ĠH H
ham mad
L ess
ĠGr ad
Action Bar
Ġsw iper
Ġradi ation
Ġgun s
ĠBrig ade
" ):
Ù ģ
Ġsub sid
ĠÐ ¼
Ġremain der
p ine
é Ļ
ĠMat the
æ Ń
Pl ugins
Ġst ating
ams ung
Op acity
Ġsearch Box
{ $\
iss ance
Ġj et
Ġgener ates
id en
ent e
man ual
Ġh air
h ls
c ov
L azy
U uid
ĠB uck
Ġpract ices
Ġm i
E scape
Re ception
ber ry
P DF
Ġper mitted
}} $,
ux er
Work space
comp any
Ġaband oned
12 1
Ġnam ely
I FT
Ġretr ieved
Ġf leet
Ġform atted
Ġstat istical
VAR I
get Int
ĠValid ation
Ġarg c
] ):
ul se
al gebra
ĠAnton io
S il
19 0
rol led
starts With
ĠIn dependent
enez uel
ĠMo ore
linked ExternalProject
ic he
on i
Ġb es
ah n
Ġbig gest
ĠAl loc
GL uint
Target s
ĠE arly
;" |
P ipe
at in
Ġparticip ants
Ġbe an
ans wer
ĠAg ency
Ġregard less
or um
Ġl aid
ob server
ĠAnd re
Ġacc used
ĠBelg ium
k le
to k
ĠSoc orro
im ore
AL LOW
Ġ"\ "
m outh
omp son
Ġabs ence
Ġ( &
Ġhum ans
r ss
b az
Ġin aug
Cal c
P ag
Foreign Key
ĠR O
Ġun safe
is ons
om ents
G T
ĠP red
Ġde cade
ust ic
ĠD ak
Ġnum py
Ġst ability
writ ing
Ġstand ing
ĠAdd itionally
ĠH op
AR GS
DE SC
Ġste el
p ow
11 3
ĠPortug al
Ġcol d
ĠK ur
O PT
ĠKe ep
ĠR oc
q s
sql ite
Å Ħ
ov o
ĠSt age
Al tern
con sumer
ĠHol lywood
ĠN ick
linkedExternalProject Path
Ġpot entially
Heading Color
J ames
ĠReg Exp
Ġw heel
Ġdis crete
) >
R B
m ate
ĠPri x
ter ms
$ ;
:: ~
valid ators
par allel
Ġeng aged
Ġs we
rot ation
ĠK az
Pol ygon
is p
Ġclass ified
ĠCh ampions
Ġpost ed
Ġint ensity
ĠMET HO
it ative
e or
Ġunder st
MLE lement
i ang
set Property
oot hing
... "
ĠC lean
Ġab und
al ways
Pre c
tr on
Ġrelease s
P ur
m ma
c id
M U
my Item
ab ul
avel ength
ol s
ĠM otor
set Name
Ġf printf
Y es
m os
DIS ABLE
ĠU ri
is en
n oc
Type Def
T CP
UB LE
ve locity
Ġtop ics
ÃŃ n
Diagnost ic
o h
Ġwhen ever
UNK NOWN
ĠN am
Ġkeep ing
ĠP ap
Ġport s
f ather
Ġf ade
duc ational
P en
Ġv ision
ant ee
ĠMin or
Ġpl ate
em pl
ĠAn alysis
che ll
Ġcer emony
K nown
u ches
Ġsw ap
Ġcoeffic ient
Pro of
+ '
om ation
ut t
AUT O
table block
ĠCatalog ue
Ġdes erial
Ġclass ic
RE C
L ANG
inc or
ĠÃ ī
get Path
Ġpoet ry
f ollow
M Y
)) :
Ġ* =
cre ation
man ded
out ube
SNAP SHOT
Fatal f
ĠRE G
ĠR yan
pl orer
ili ary
inst ances
Th ree
ion ic
ĠP sy
Ġil legal
ĠL ower
ĠBrazil ian
Ġelse if
aud i
sl ash
oriz on
Ġden ied
W IDTH
Ġl n
am ents
Ġmatch er
add All
Ġc arri
ï¼ ļ
Ġfinish ing
C at
K HR
Ġcom ic
res olver
Ġpat ent
ĠWh ere
ĠHer itage
in formation
Mut ex
Ġparticip ate
r idden
ig ious
7 68
ĠDis ney
Ġres ize
al ter
Match ers
Ġfall s
Ġexp los
Ã§ o
EX PECT
ĠD rop
Ġun expected
Ġprint ed
80 80
d ag
Ġre ign
ĠObject s
So ft
ul ative
vert ed
r te
Ġan not
S ongs
ĠS ample
ro utes
part icle
ail and
Ġre in
Ġentr ance
Ġvar char
Ġd uplicate
18 70
ĠA DD
RA W
assert Raises
M ime
Ġm ort
US B
Ġp c
BU F
ĠDefin ition
Ġ ----------------
group ed
J av
exec utor
4 80
S uggest
Ġru led
il lo
ol ly
ĠDe puty
Display Name
Ro les
ĠD ave
ÑĢ Ð¸
er on
Ġpro files
Ġth in
Ġver ification
I o
=-=- =-=-
ĠF M
L F
Ġg ate
El se
ĠDet roit
Ġf ault
ĠPr imary
un set
È Ļ
Ġwork flow
Ġcur rency
b anner
Ġb om
ĠM C
ĠEm pty
pre dicate
pro fit
cul ator
Fin ish
Ġhe ap
Ġref lection
ĠIndones ia
Stud ent
r ane
Cl aim
Version s
amp s
Ġm ine
18 99
Ġs ensitive
ĠE ver
spec ified
\ {\
G LOBAL
ĠP arent
incor por
Ġear liest
="# !"
ĠDan ish
Leg acy
ok u
F un
x r
Ġp ione
tri angle
Ġto ler
27 0
A ugust
st ock
sh utdown
ĠF inn
ograph ics
c riteria
ĠIm perial
Ġ[] *
ĠM ond
Ch ars
Ġlock ed
ĠF unc
ĠG ab
phab et
$ ~
L B
å Ģ
g ot
ä ¼
ĠA gr
bl ur
Ġstr len
**************** ********
hom epage
Ġrout ine
Ġcross ing
pre ter
ĠN ap
d ac
Ġcour ses
\ ",
Ġa ren
Ġaccomp an
F old
ĠK evin
ĠC ell
Hash Set
Ġmod er
Ġ'/ '
ĠAl an
re comm
ĠHar vard
ä ¹
ĠH RESULT
Ġlog o
The orem
b en
Re peat
ĠS port
Ġspe ak
à¥ į
Ġc ler
V K
> ");
level and
it ics
un wrap
æ Į
ac cord
A ge
ĠH ockey
Ġac id
Ġar med
ĠH il
rece ived
' (
ĠRem ote
ME DI
an es
EX TERN
ap sed
ĠB SD
s uggest
the less
C OR
rece iver
C ritical
put ation
ĠDe ath
ĠMet adata
Ġch air
M gr
op ic
18 95
fre quency
AR M
Ġpublish ing
ip age
Ġr ival
ĠAb d
pop over
>{ @
Ġdefin ing
ĠSk ip
12345 67
ĠR ET
Ġinv asion
ĠNot es
Ġg one
ĠLa ure
ĠInitial ized
Ġa ug
ĠRes erve
[ @
Ġjourn ey
Ġcast le
Ġasym pt
C Y
ĠDen mark
urr ican
ĠN ob
20 2
Ġ ^{
Ġp it
ro uting
Index Of
ĠI r
conn ector
y ellow
é Ĺ
REF ER
\| _{
n m
æ Ģ
Th umb
Ġs wit
qu er
Ġinterpret ation
S ensor
leg es
Se ason
ĳ ¼
Ġexperi enced
B and
ĠW idget
DEFIN ED
int egration
Ġspec ifying
Enc ryption
Ġsh ock
Ġdifferent ial
reg istration
Ġex cell
Ġher o
il ine
Ġhigh way
R ussian
ĠD VD
Ðº Ð°
CON TEXT
F ar
ĠSt ew
ĠPu erto
F ran
Ġa str
Build ings
Ġcl im
Med al
Render ing
Ġcontain ers
}} $.
12 9
Ġtranslate Y
U IT
t om
ĠEd it
St udio
"> {
Ġb on
Instance State
++ ]
Ġre interpret
Compiler Services
D K
Ġ[ ])
Ġvar s
Ġim pr
Ġg allery
Ġconv ex
ĠMi ami
end ers
Ġh ooks
SP H
* (
ynam ics
am o
ĠCol omb
Ġdec ide
Vis it
MA IL
um ed
ĠSam uel
PRE SS
github usercontent
ĠB ranch
Ġnecess arily
Http Servlet
ĠP i
Ġe yes
IG H
Ġfall back
Ġvis itor
' ",
Ġu id
ĠF ern
ĠI C
ĠMed icine
Ġextract ed
B log
S DL
"> [
. :
Dis pose
Ġb enchmark
ass ador
Ġlo se
Trans late
è §
ex c
ĠUs age
$ $\
S ibling
ic ide
//////////////////////////////////////////////////////////////// ////////
b etween
val s
format ter
PHP Excel
Ġ quote
Ġre ar
Ġent ering
Ġact resses
d ictionary
O fficial
re quires
an ion
Ġse aled
r p
Rob ert
P ars
}} )
ĠCom ment
x hr
t age
Q T
ĠEd inburgh
Ġp kg
So ftware
Ad just
Ġsecret ary
ĠDub lin
2 64
g ap
âĢĿ .
key board
d ale
Ġ' *
Ġpar agraph
Ġloc omot
con tract
Out Of
ĠP ho
tr ansparent
ht m
Ġdrop down
Ġsk y
Ġb irds
pro position
PI O
Exp atriate
Al ready
Ġorgan isation
e z
Inf os
ĠRE ST
atern ion
ĠL as
ĠĠĠĠĠĠĠĠĠĠĠĠĠĠĠĠĠĠĠĠĠĠĠĠĠĠĠĠĠĠĠĠ ĠĠĠĠĠĠĠĠĠĠĠĠĠĠĠĠ
Ġt err
ĠUn supported
ĠBow l
ĠB ush
final s
ĠB reak
Ġen vironments
LI ED
Ġf urn
bootstrap cdn
F W
j vm
roll ing
un ately
ather ine
Ġ/// <
Ġab b
user Agent
Ġs printf
ĠP ed
Ġ@ {
Ġl ic
Ġtemper atures
thumb nail
D irty
Ġperform s
y ers
ĠS A
ith uan
ĠT ensor
Ġtrans mit
ĠMe an
fl ater
/ ',
Ġt icket
b usiness
Ġac commod
Buffer ed
bl ast
18 96
ĠSystem s
alt imore
Ġt ight
Ġthe ad
Ĩ Ĵ
om eter
ĠSing h
18 97
Ġcon form
Analy zer
s us
å ·
Ġis lands
Ġcon clusion
Ġchalleng es
Ġch ampions
H A
Ġdesign s
Ġamount s
Tool Strip
æķ° æį®
ib ilities
col One
ĠLaw rence
å ¾
min ipage
H ierarchy
: ",
ĠPh illi
Ġb uffers
Ġcon clude
Ġf atal
Ġp our
Ġins pect
C ENTER
] "
ĠG O
alloc ate
comp arison
incorpor ated
ER O
Ġpublish er
ĠCont act
md c
Ġinj ured
In crement
Ġl ua
Code Dom
Ġsql ite
ĠSE LECT
pres erve
scal atest
get All
Ġk new
u ke
Ġrec all
Ġclo ser
x si
Dis covery
list eners
ĠFreder ick
ĠMay or
Ġ ib
ĠF ood
work flow
ĠSyntax Kind
sp ir
igh bor
Ġa cknowled
C ATE
Ġembed ding
mark down
Rem oved
er ase
class Frame
Ġh ired
Ġs oci
real m
Ġbase line
iss on
Ġdut y
Ġs z
Ġres igned
Call s
p es
Ġgradu ate
ĠR oot
Ġpresent ation
J une
ul i
Ġpass enger
table View
j p
Ġem otion
ĠTrans form
Ġrepresent ations
ĠS to
/* .
Ġal i
Ġpen alty
Ã¨ re
B UT
lo on
F all
ĠD og
Ġbit map
ĠW atch
ĠEx change
Ġdist ribute
ĠThrow able
ĠR ap
hen s
T rip
>. <
ĠH AVE
Î ³
id al
Ġro oms
ĠH it
ĠS U
cc c
Ġsh ares
ĠN atural
Ġ? ?
Ġadapt ation
ed ing
Ġsur g
ãĤ ¹
i op
Ġm irror
sort ed
Ð½ Ñĭ
at trib
el if
ĠStud ios
Ġinvest igate
Se qu
Exception s
ĠF A
Ġserial ize
collection s
ĠWe bsite
tr aining
CP P
Ġaltern ate
ra ke
Ġin vent
C AP
p ym
ĠK on
Ġpres erved
Ġ' ;
prov iders
Î º
L ex
ĠK am
Bro adcast
h yper
g ies
ital ic
YY YY
] ],
Ġun iversal
Data Set
Ġr id
Inter faces
ĠSQL Exception
Ġde mo
ĠGL uint
s ound
Qu ota
ĠM ot
Ġscient ists
Ġv eter
ws dl
def in
Ġcustom ers
20 4
IT EM
A pril
G lob
Ġ" __
Ġlos ses
Initial izer
or o
map sto
Ġlog ged
DE CL
Ġcon sequence
Ġenc oder
ival ence
i q
ĠLeg islative
L M
Ex act
Ġtransform ed
Ġassist ance
GB T
Q Name
E val
Ġphilosoph y
Sc oped
ig uous
17 0
Ġindu ced
U id
Ġp d
S izes
ĠO t
Object ive
M otion
> ")
und o
At omic
ot os
Ġbo at
Ġd Ã©
Ġdec isions
ĠC ow
= }
Ġx hr
Ġuncertaint y
^{ +
az ines
Ġest imation
ĠØ ¨
in ch
olog ist
Ġre lay
Ġglyph icon
Ġun us
em p
tim ing
20 3
Ġoffer ing
W ire
ĠR ot
View port
ĠCon vention
ee ded
ram a
spec ies
P D
uff icient
ĠV e
Ġacc essed
) `
be havior
C losure
Ġexper iences
MB OL
ĠDe ep
R ST
ĠH u
Ġt ack
Ġrecord ings
Ital ian
at ches
ĠC ru
Å Ľ
ĠL ore
B attery
m illion
ĠW alker
her its
ĠArk ansas
b age
ĠUk rainian
ag an
sub menu
Ġess entially
x FF
Ġph p
Ī Ĵ
S el
Ġret ained
è¡ Į
unic ode
U tf
ĉĉĉ Ġ
mut ation
Ġschol ars
ĠðŁ ĳ¼
ĠðŁĳ¼ </
Pl ain
Ġir re
ct ic
b ird
ĠOr chestra
Ġtra ject
Ġcitiz en
ĠUp per
Ġo prot
Propag ation
h ai
Assert ion
ĠThe me
ĠAtl anta
Ġs ends
ĠG len
> ]
H o
Ġregular ly
DEF INE
oun ced
Ġconcern ed
Ġdyn asty
r us
filter ed
ĠProp Types
ĠT otal
(' -
Ġse g
We ak
IS O
SE D
Ġth umb
æĸ ¹
ĠC hem
ĠCommand er
D ummy
Tem plates
OB J
Ġescap ed
2 60
ĠExec ution
Ġhe ar
R oy
Tree Node
w heel
ĠSc ient
C AT
IN TEGER
cover ed
ĠHistor ical
-- ">
Jap anese
greg ator
Ġinhabit ants
ĠM I
h us
ĠBr and
Ġcompet e
l azy
Ġv el
ecess ary
get Node
h ive
ay an
fl are
Ġh ierarchy
per m
ĠSe ason
DI O
G M
Ġp refer
ĠS K
the tic
cer ning
Ġtopo logy
ĉĉĉĉĉĉĉĉ ĉĉĉĉĉ
SY STEM
moz illa
P ause
å ¸
v ik
Ġc raft
ĠF red
Ġprov iders
LO T
Ġtranslate X
Ġsub str
Ġrect angle
PLA CE
Ġ' ');
cl ing
Un icode
ot er
Add resses
Bound ing
Or d
Ġsystem atic
raw ler
Ġalloc ate
Ġoper ates
des ktop
PO M
Ġget Name
re pos
TH E
Serial ized
g ather
Ġfac ilit
ĠM and
40 1
ON ENT
ul ates
Ġcr uc
Ġun icode
d ro
ĠBro adcast
è¡ ¨
ĠOpen SSL
Ġform ally
ĠH ills
Lock ed
ro zen
Ġbreak s
insert ion
CUR RENT
Ġthem es
ers hip
Ġassert False
im er
Ad s
~~~~~~~~ ~~~~~~~~
Â ½
16 5
C orre
Ġen ables
ine a
Ġk id
ç ī
"> $
L int
ust ries
d escri
net t
Ġpredict ions
Ð°Ð º
~ $\
Defin itions
sh im
q r
callback s
rop ic
ĠE U
ĠJ av
part ment
rid ges
Ġscr atch
ĠAuthor ity
Ġ_ ("
ver sed
Ġinstr uments
da o
ĠU rl
Un defined
Ġend l
E OF
æ ģ
ash i
omb re
publish er
ĠM ER
Ġj unior
ĠSh ape
be low
Ġauthor ization
Ar c
Ġclose st
ĠS peed
ĠF ake
}) $,
COM PI
SR C
pl aced
ĠV k
comp atible
clean up
he at
Ġpro hib
>> >
get Item
ĠEvent s
Ġdecre ase
Ġampl itude
Ġcon tribute
ĠE D
ĠCO MM
Ġinvol ves
mar shall
Value Type
="@ {
syn opsis
ĠCh airman
Start ing
Ġinv ocation
draw er
Ġderiv ative
id le
Ġland scape
fold ing
H over
ĠAn na
is ations
ĠBern ard
Ġ ------------------------------------------------
re peated
Ġne ural
Ġactiv ation
ĠInitial izes
qu encies
SV G
Ġdomin ant
get Resource
Ġtouch down
Ġdeb ate
SPH INX
K ER
f ar
loc ated
New s
J uly
UR POSE
em ale
ak u
im ap
Ġd ialect
åĬ ł
Ġopportun ities
Ġtw elve
ant i
Ġt m
Jan uary
- "
Ġimport ed
h ooks
o j
l ater
ĠPe ace
Ĺ ãģ
O Auth
p md
æİ ¥
y our
Ġun iversities
ĠSh ah
Ġc line
Track ing
z es
O ctober
Ġsph er
ia h
Vill ages
Ġfile d
m essaging
Ġnow rap
æĪ Ĳ
Ù Ĭ
ĠDefault s
Ġsever e
Ġm ental
ri o
Ġun iverse
se en
D ark
ĠG arden
D ump
ow ski
ĠF el
ĠP ush
Ġ{} ",
Ġd ream
ĠM ission
Ġaccept s
bor ough
Ġarriv al
c xx
bo y
comp ressed
Ġbring ing
Ġse ar
Ġ*/ ;
ĠMark et
Ġ' ../../
R oll
30 1
æ³ ķ
ĠPer formance
s cheduler
fe ction
ic i
ĠP rep
Ġund ert
Ġrep orter
Ġdiag onal
Ġmach ines
Ġpro x
=' #
bit map
æĸ °
b idden
ĠComp uter
Ġt abs
Ġse l
Ġres idence
Ġscatter ing
ĠLIMIT ED
M AT
Ġc ook
Ġ" ../
Ġconcent ration
Ġ' :
Ġch rome
Loc ations
Ġview ed
INST ALL
Ġteach ers
Ġshoot ing
h c
ĠL ess
ĠĠĠĠĠĠĠĠĠĠĠĠĠĠĠĠĠĠĠĠĠĠĠĠĠĠĠĠĠĠĠĠ ĠĠĠĠĠĠĠĠĠĠĠĠĠĠĠĠĠ
Ġvict ims
Ġb ishop
Ġro uting
Ġpoint ed
p ers
Ġf ib
)$ -
ĠG on
ĠGit Hub
D ocker
Byte Buffer
ro bot
ĠR io
Ðµ Ð»
ĠN ic
able View
Ġassum ing
Ġass ault
k k
Rest ore
18 89
ĠWel sh
sp rite
k ill
18 93
Un supported
ĠF ound
ish ops
Ġs f
ĠV ec
lear n
ir q
Ġannoun ce
LA RE
Ġobt aining
Ġemph as
sl ides
or ce
Ġde veloper
Ġs cheduler
Ġj uris
Ġpract ical
213 07
Ġan th
Ġm ilit
op eng
Ġindex es
Ġro ads
Ġdis s
fer ences
comp letion
Ġn an
eg as
Ġ"/ "
CCCC FF
Ġ? ></
13 4
Ġun used
ĠKenn edy
Ġex clusive
model Version
ĠF oo
xy gen
Ġland s
L ab
h box
evalu ate
Ã Ł
ĠG NU
C ycle
Sc ott
Ġsuc ceed
Ð¾ Ð½
Ġrel ax
Ġresearch ers
Ġneut ral
Ġc orn
Ġexp os
Ġg ro
Ġ" #{
J MS
C Sharp
ĠD ynamic
ĠG all
Ġstr ugg
ĠApp ly
? ,
}$ )
Ġmaint enance
it ize
ace ae
ĠK u
Ñ ī
Out er
pa ren
ĠTh ailand
H ASH
;-> <
Enumer ator
* \
> }
ĠR ace
ĠB ound
Ġmin i
ce il
S CHE
j amin
ĠM ong
Ġfriend ly
Ġcomb ine
Ġrestrict ions
ik o
Ġpra ised
Ġt unnel
sol ution
ĠK elly
ĠĠĠĠĠĠĠĠĠĠĠĠĠĠĠĠĠĠĠĠĠĠĠĠĠĠĠĠĠĠĠĠ ĠĠĠĠĠĠĠĠĠĠĠĠĠĠĠĠĠĠĠĠĠĠĠĠĠĠĠ
Ġpro sec
Me an
t ap
(" {
ĠY an
Foot er
Ġprodu cers
ĠHamilton ian
Ġmed icine
Do es
TI P
3 75
EN S
: }
ĠGir l
ACT IVE
Ġdisplay s
Ä Ľ
own ed
ĠB ag
prom pt
ĠM IN
Ġmap per
Ġground s
Ġlocal ity
b ai
14 3
Ġst reets
Ap ache
de vices
null ptr
Ġ* (
WA IT
0 200
p ent
Ġmag ic
ĠTH REE
a ine
(" ");
Ġmolec ular
Ġre act
L and
16 6
(" ./
Ġcap abilities
Ġw id
ĠP eters
T urn
ĠE mail
default Value
Ġmet ers
ho le
files ystem
max imum
ort on
Ġdriv en
ĠAlf red
Ġcon servation
Ġatt achment
ĠFile s
Ġte en
Ġtr uck
Ag gregation
subNav List
her ent
ĠMalays ia
Ġthe ories
Ġab c
Ġen hance
00 3
ult an
ĠAust in
Sp acing
Ġdecomp osition
f h
ĠSe veral
i am
Ġan notations
Ġdomin ated
Ġcour ts
orient ed
ĠS ud
Ġent ropy
M ont
Coordin ate
sc ious
ĠPal ace
W ild
ov al
DA O
18 88
ĠBru ce
ĠPh one
set State
v k
ĠB io
ext ended
ĠD b
Ġcheck point
Ġcarry ing
$ _{
Ġt ied
ANG LE
con sum
Ġf ear
Ġsh aring
util ity
ĠLay er
x a
ĠA V
Ġclip board
Ġtab index
ĠP un
err no
; (
Q String
ĠB arn
s ink
Ð ¶
Ġo vers
Ġp ersist
search Box
Ġpost er
Ġmark s
render ed
ig s
pro j
There fore
on line
pis ode
M vc
EN UM
cor ner
Ġder ive
18 85
Ġdirect ories
________ ________
Ġcent ers
Full Name
tik z
As sets
Ġed u
Object Type
E O
isl ature
ĠS creen
ĠPol y
Up grade
Ġremov al
ĠWIT H
Ġappro val
SE C
ĠB etween
ĠE p
18 92
Ġfl uct
vis ory
Ġdirection s
r er
as cii
Bo ard
To Array
Ġlif etime
P aul
et o
Ġget ter
Ġe u
? )
ĠU tah
Ext ent
Cover age
Ġ[ (
Ġf lying
Ã¡ s
ĠResult s
ĠC atal
Ġaccomp any
COL UMN
ĠAl tern
ĠPublish ing
15 2
Ill uminate
em a
ĠFl ag
Ġimpro vement
ĠGL sizei
ĠMP s
Ġt ropical
Ġprison ers
l bl
Ð¾Ð º
in ated
output s
ĠFIX ME
m igration
et ched
| _{
G l
(' _
Ġpop ulations
ĠS pr
åħ ¥
00000000 00000000
qual ity
Ġrad ial
Str ict
Ġann iversary
Ġtal ent
F ollow
Ġpri ze
Ġwork space
ĠIn fo
lik ely
Tab s
ĠHung arian
Ġ[ -
re tt
ĠP ad
Ġcre ative
ĠK night
Ġvari ations
ĠText ure
ÏĦ Î¿
Ġindic ator
ĠD aily
N an
Iter able
f m
ĠA BC
fore ign
Ins pector
R X
ĠB ootstrap
ĠL anc
ĠI M
G G
QU ERY
Ġw aters
de velopment
[ ^
ĠBang ladesh
Ġth anks
Ġde pos
ĠTh ompson
et ary
Ġvalid ator
åı ¯
Ġsph ere
Ġsepar ation
Ġpan els
Ġstd out
dat as
ĠF arm
ĠB art
Ġten ant
ins ula
Ġdom ains
: =
ĠS ep
Ġ' &
cat Desc
Ġcomp rehen
On line
BUILD DIR
ph er
d oxygen
Ġ' __
ĠCh amber
ĠO wn
Ø ´
Ġpr on
ĠG UI
====== =
ib us
sp her
Ġag encies
Ġstudy ing
ĠFrame work
}{ |
ĠAl ert
ĠConst ants
enc rypted
b ach
Ġvari ance
art icles
ass ignment
dim s
ĠAust rian
W ay
A fr
Ġt urb
Ġext reme
Ġisol ated
ĠA RI
ĠEx ternal
ĠK il
B ug
Ġc pu
Ġrec ur
empty set
Ġcirc ular
pi res
CH ANT
ob s
ED IT
Ġden oted
Fl ash
Ġ# ##
Ġbase s
T om
List en
Ġs now
amil iar
m alloc
ST AMP
Key Value
åĲ į
Se ptember
DI V
M ATCH
ĠR ugby
B ur
Ġr t
p index
Is Valid
track er
Cred it
ug gle
g ow
Ġcond itional
che str
or al
il st
ĠC it
ke ley
cal culate
at iv
Ġrac ial
ec ko
author ized
ĠU int
Sc anner
âĢĿ ,
dec imal
Ġsign s
Ð½ Ð¾
B N
} ',
18 94
Ġcharacter ized
ĠFin land
R F
Ġp seudo
Ġdetermin es
Ġd iver
Ġon going
ĠT uple
Command Line
re ll
k r
ĠOb ama
ĠF riday
ĠMETHO D
ĠB uff
Ass oci
ĠD NA
PR INT
å¯ ¹
ĠMount ains
ĉĉĉ čĊ
ĠEcon omic
Ġaccompan ied
Ġdiv isions
xx xx
ĠField s
Ġp overty
Ġover lay
Re porter
ĠA ch
Ġval ley
TI M
ĠCommun ist
ĠK ings
ir s
apol is
Y S
ĠAct ivity
FO S
j om
get Field
ĠAl liance
18 91
Ġagr icultural
A lex
String Utils
SY MBOL
Al so
ĠPit tsburgh
Ġon mouse
Job s
D uplicate
Ġa ware
un checked
Pl ane
Ġsuccess or
author ization
s ensitive
Ġm atters
ĠOn line
Fl at
ul u
ĠST AT
Ch oose
ĠEd ge
re z
Ġhelp ing
un safe
ĠB ou
ten ant
) {\
illa ume
Ġtrans itions
n ick
ĠS N
ield s
sequ ences
Ġcolon ial
v irt
ĠE ss
Ġexp ensive
Ġp ng
ĠW R
ip es
Ġ$ ('
dis miss
Ġret ail
ĠI SO
ear Down
w ml
Ġcomp ens
Sec ure
p edia
Ve locity
Ġch rom
Ġ[ _
ex clusion
Ġad mitted
release s
ĠP ear
MP LE
ens ing
Ġarch ae
Ġgr avity
Ġfranch ise
n f
m el
18 60
ar us
Ġpop up
) +\
ĠF UN
B ootstrap
R ailway
d ie
M irror
ĠD ance
Ġes lint
O O
AS A
ĠHamp shire
ter y
Non User
Ġre dis
ĠSen ator
$ ),
C art
Ġdemonstr ated
be haviors
Ġecon om
ĠFrank lin
] /
sequent ly
Ġex ercise
expect s
U AGE
c od
ĠAl ban
pt ic
v ised
Ġpop ulated
Ġhe ads
In strument
Ġincreasing ly
ang el
ĠAl b
status Code
ath on
Inter action
ĠRail road
ĠAR M
Ġas semb
AD ER
ĠRus sell
ĠC el
Ġman uscript
Ġ( __
Ġtr ailing
Int egration
SUP P
ant ine
claim ed
è¦ ģ
ĠO ffset
for ced
Acade mic
de ployment
prob lem
h bar
ĠP URPOSE
Prob lem
} ">
LA ST
Ġres ign
Ġd iagnostic
Ġmov ies
ĠChrist opher
ĠPer form
ĠA SC
ĠTe le
Quant ity
ĠG un
ä¸ ĭ
el rte
Ġpro be
ĠDe an
ĠSm art
port al
ific ial
Ġreg iment
Ġvary ing
track s
ĠSe attle
skip Nav
T w
ver ity
ĠMor ris
rec ogn
Ġliqu id
s ized
parent s
ĠC UR
Con sum
exec utions
ĠMet ropolitan
ĠF ried
Ġconst ituency
& =
ĠChar acter
] ])
6 55
Def ine
ĠQue ue
e i
å Ŀ
Ġc trl
ĠV enezuel
Ġsing ing
d g
. ">
S am
m ixed
ĠJo hann
al bum
S pl
/ </
ag ement
Ġyour self
Ġdig est
ĠP in
ĠCal endar
t an
ĠMat hematic
T rade
}) (
Ġmonitor ing
ĠT amil
Ġweek ly
d frac
Ġp ray
Ġsufficient ly
Ġs q
get s
ĠN ep
Ġnew Value
ribut ions
æģ ¯
Xml Element
app lications
R anges
Ġsimult aneously
Ġ` $
ĠF riend
T own
ra f
ĠAc cept
å ¹
Ġb anks
( _.
Ġsurv ived
Ġt ank
Ġdeploy ed
ĠMarg aret
= ${
ug oslav
FO REACH
W P
und a
lot te
ä½ ¿
Ġas c
avers al
S on
ĠR T
LE ASE
Nov ember
ĠAct or
4 000
ĠB atch
Ġstrateg ies
ĠCo oper
>: <
GR AM
ra ises
Debugger NonUser
Ġsh ader
vert ices
Ġse venth
ren ame
ĠBo ys
Ġq view
ĠLim ited
in ations
ĠW right
ge on
IFI ER
Ġpremier ed
Ġsepar ator
ĠMont real
1 19
List Item
ĠC er
V m
DI SP
T ur
Ġemerg ency
Match ing
Ġsell ing
Ġbelong ing
Ġin ternet
Ġcrick eters
Ġhypot hesis
s ion
he art
ĠAUT H
Ġf ol
PE G
Access ibility
Ġun a
ĠG ray
spec s
level s
PRO CESS
it elist
Ġpre view
_ -
D MA
US H
ĠSpec ifies
er gy
as se
ĠHung ary
ĠN ash
IT NESS
ĠMc G
Ġarr anged
ĠMet ro
l ift
Ġg oog
ĠMc K
^^^^ ^^^^
Ġlong est
F lex
Ġbo ys
Ġste am
ĠC MD
o ct
Ġh al
display style
ĠR ole
ĠStew art
Channel s
Ġt c
up grade
Ġdiam eter
g ms
15 5
Ġexplo re
Å ¿
Ġm oth
ess ions
del a
å ī
r aries
rott le
Ġsus pended
Ġim possible
Ġb os
Ġf est
ĠK it
ĠN elson
has Class
Ġinterpre ted
ĠVi enna
Ġm u
Qu ote
ĠM ut
c orrect
Ġhe ading
map reduce
ac a
Ġuser Id
por al
= .
Ġencounter ed
Ġdet ector
ĠYear s
ĠDo es
De vices
P AT
Ġpay ments
Ġv a
LE T
W T
ĠTai wan
il t
ãĤ ĭ
Ġmy th
port let
Ġiter ations
ĠAss istant
activ em
Ġfrag ments
Ġguar antee
Ġport ions
14 6
class List
ĠT ig
Ġpriv ile
us c
lect ual
Ġdig it
Ġreason able
Ġwh atever
l m
ãĥ Ī
ĠImmutable List
2 10
ĠT s
F our
Express ions
ĠPack ages
key frames
i at
iv ated
et al
ĠD allas
+ =
De cember
ĠAPI s
ĠEv ans
Ġwh itespace
we ights
Interop Services
r hs
ĠNav igation
) }}
Ġtext s
ĠNov a
ĠOtt oman
doc utils
ĠF ive
Par allel
cloud flare
p v
Ġg em
ir ates
cred it
Ġmark ets
Fe edback
Property Name
"] ["
mat ched
p iece
pre ttify
br as
Don ald
Ġb eta
Ġam et
ĠRes erved
Ġmanufact uring
"/> .
Ġsh arp
Act ual
ml abel
ĠDe veloper
BO X
ĠM OD
åĪ °
d irty
Ġform ing
Element Type
subscription Id
Ġpublic ly
Ġsp ons
Ġup dating
Ġreal m
Ġpass engers
ĠM ail
ĠW ard
>& #
" &
d ue
Ġc ited
Gener ation
Ġmount ed
l st
) -\
Ġrapid ly
ĠH erm
DO C
ed a
zer bai
Ġmk dir
Ġde puty
ann on
Ġgraph ics
ĠP assword
Ġ{ *}
AL PH
up al
Ġbeaut iful
ĠAn imation
f are
Ġi OS
Ġscen arios
aw k
ed ges
pag er
ĠDis able
h op
LOC ATION
Ġimpr ison
Ġnot ably
M ARK
om o
account s
Play ers
IAL IZ
Pr im
Ġcomp osite
in ria
ĠB es
AN Y
ĠCamp bell
P referred
Ġv ast
be zier
Ġal igned
ĠAut hentication
Ġspe aking
M W
f req
ĠRog er
Le ave
usal em
ĠS S
ãĢ ģ
chrom ium
Ġre pe
ĠL earning
(" ",
pl er
ĠRob inson
ĠIllegal StateException
n it
Î ®
contains Key
Block ing
ĠAdd itional
em ploy
ĠLog in
ĠCap ital
r w
Ġ$ |\
Ġsub group
Ð¸ Ñģ
Ġcircum stances
ad vert
**** *
At om
Unmar shaller
c ill
Ġsatisf ying
ĠM ix
Dim ensions
Ġenc rypt
Pointer Exception
und ers
Ġapprox imate
ig ible
B i
is Function
Ġappe al
Ġdef ensive
ual ity
pro portion
ĠW IN
ol ia
ĠT LS
ĠSup p
ĠJos Ã©
ç §
iver pool
ĠMar ie
Ġsee ing
Ġsil ent
l ag
". /
Ġconst expr
sh rink
Ġdemonstr ate
H ooks
: !
ĠG las
Ġhost name
" })
Ġview port
Ġdam aged
Ġ} {
Part icle
Ab ort
apt ist
Ġconst itu
P ersistence
ĠJud ge
/ ?
wik ipedia
Ġh ack
ĠY e
ĠK an
Prov iders
Ġf ra
Ġ{ &
CHANT ABILITY
ĠAd ams
S ector
ĠCo le
memItem Left
Ġf er
Ġassum ptions
Ġbe ar
TIC ULAR
17 5
Ġp a
Ġillustr ated
$ :
Ġin duct
Rep lication
18 87
an imated
ĠP atri
ĠOper ations
Bal ancer
14 5
R a
Ġins urance
Ġnorth west
ob a
sp onsor
18 86
Ġrecon struction
Ġo mitted
ĠUp on
ne z
Ġret val
60 1
dec oder
Ġoccup ation
Ġcon servative
Event Type
NS Mutable
Ġ' \\
rb an
ĠLine ar
Ġs quadron
ĠC orre
ĠAn ti
Pol itical
aval ry
G old
memItem Right
R ing
Ġrg b
Ġmar ine
Ġ ../../
em pt
38 4
typeName Label
atic s
ĠSh ar
ĠCh ampion
ĠT ax
St eps
Comp act
Inter pol
Ġmark eting
18 65
Ġassert ion
Ġrecover ed
Ġsynthe tic
à ¹
node js
ĠNot ification
con g
MAG ES
irm ingham
ĠC leveland
CHAN GE
Ġb ootstrap
ol ph
de e
Dig est
M ON
im ir
Ġappoint ment
send coins
Product s
Con current
photon ui
U G
uk a
Ġthe ater
Ġb s
get Content
Ġsitu ations
hill dev
orange hilldev
g pu
ĠN UM
}{ (
Ret rie
ĠMov ement
h m
ĠT ake
Ġst ood
Ġcorre ction
ĠVAR CHAR
T oo
Gu ide
Un install
> ".
u its
ĠU E
Ġrestaur ant
s andbox
Ã¼ n
Ġprincip les
` ](
Ġident ification
ai ro
od ge
Ġseek ing
Ġsat ellite
Ġal co
ĠMur ray
f ixtures
Ġb low
Symbol s
Index es
ch t
Second ary
ĠR ES
fe at
w c
id ency
par s
'=> '
u able
olid ay
ĠOrig in
ment ion
Ġlook ed
Ġover lap
è® ¾
ĠAg ent
ĠR ural
ĠĠĠĠĠĠĠĠ ĠĊ
ot he
f name
ĠCent ury
big l
Ġpaint ed
ĠP L
ĠR uby
S PI
cdn js
Ġassert NotNull
H istogram
ĠCar ter
B en
ĠCON TRACT
b rowse
th a
ĠB altimore
get State
MEM ORY
ĠG ulf
ĠMon o
> ?
Ġhundred s
macro def
back s
ĠL ane
t oday
R ad
EX EC
co ord
Ġsm allest
iv an
ley ball
rane an
FA CT
M art
ID S
Ġround s
Ġs chemes
lo tt
ĠSh adow
pr ising
ĠID s
Ġn ations
v est
Ġm b
Ġdec oder
/ @
ĠColon el
ĠDak ota
ĠC ook
mut ed
ĠYou Tube
iagnost ics
ĠMa ine
Ġph rase
DE SCRIPTION
Sw ap
ĠVis it
Ġequ ipped
d ll
Ġnot ion
Ġmov ements
Ġmark up
PAR ATOR
Ġpan demic
Position s
commun ity
Ġs pending
trans lated
ĠA CTION
Ġgener a
Ġed iting
ri x
ast ery
ex act
IP v
ĠN ar
ĠBro thers
è ¨
è ¾
ĠH tml
C am
ll vm
Ġath let
e asy
m gr
Ġex iting
et ics
ĠOr leans
rep ren
Ġdelay ed
Ġkn ock
= */
ĠEx tract
SH ORT
u ations
con straints
ĠCons ider
; :
oid s
Ġp seud
Ġmag net
ro ut
Ġstrict ly
typ ed
activem q
Ġm outh
Ġsignific ance
min i
Ġwor st
Ġf aces
å ±
Ġtri angle
ĠCurrent ly
A mer
oc al
lo d
Ġath letes
v ature
Ġp ersistent
Ġst retch
sh aped
API ENTRY
ĠP os
22 2
ain able
Ġimplement ations
Check Box
m aking
Le ague
Ġ* );
An n
jav ac
xx x
V k
S ynchron
ĠFunction s
li braries
IN CLUDE
Y LE
Ge orge
target s
ĠG PU
Ġcontin uing
ĠOrth odox
C WE
ĠGir ls
Ġab use
B P
ĠH D
ĠC rown
ĠE asy
Ġsp y
Ġcritic ism
register ed
Ġst ops
ĠR y
RE SP
init With
C MAKE
Ġtr ivial
n th
Ġt ill
jav adoc
Ġre aches
Ġat oms
Coll ision
cont rollers
Ġpaint ers
ob e
Ġ/ ^
ular ity
ĠS ocket
em en
Get s
Inter ceptor
Ġal ive
Ġoff ensive
Ġsepar ately
ÑĨ Ð¸
l hs
15 00
Ġre load
Ġr aid
Ġeven ing
Ġst adium
av g
Ġlocal s
Mock ito
Ġbeh alf
ing ly
ĠE mer
ĠRoman ia
ĠB ab
Fre quency
Ġdecor ated
Ġv oting
sp er
big r
Q R
x d
ĠB uilt
W ifi
Ġcontr ad
ma de
ĠS IGN
ĠFi refox
Ġst mt
Ġdut ies
Tra it
Aud it
Ġb t
Ġan onymous
ST ORE
Ġin clusion
ĠCom ics
c rypt
con cept
B oth
è ½
re tr
Ġresident ial
Ġcompos ers
g rey
de ll
Ġ" &
sp rint
Ġle mma
writ ers
Dem ographics
Con v
w right
Ġg ateway
Ġc ancellation
b mp
b ast
Ġch at
gol ang
Ġif rame
Ġthink ing
Ġme ets
alloc ator
get Column
ĠS ans
m iral
Ðº Ð¸
m otion
Comp osition
Ġequ ilibrium
Middle ware
Return Value
Ġro se
Ġequal To
ĠAfghan istan
/ ,
Tab Index
ur ers
S ocial
co up
Ġs aving
dd en
ĠDom ain
ĠMER CHANTABILITY
Ġpopular ity
Ġfall ing
Ġth ank
Ġ" @
ĠE ffect
D NS
N eg
ĠA rena
man age
ĠCommon s
S panish
Ġ ])
Ġmer chant
ĠLank a
Ġunderst ood
ĉ ĠĠĠĠĠĠĠĠĠĠĠĠĠĠĠ
ĠM organ
S ong
R IDE
ig ue
ĠRe vision
Ġjud ges
r n
Ġb ars
Ph p
aj a
FILE S
e enth
Ġhe aring
soft ware
Ġcon current
ĠPy Object
× ©
Ġt om
Ġchar s
Ġv ic
q q
ĠS ac
Ġland ing
Rout es
Ġactiv ist
L R
Ġgr an
S i
{ |
s al
Des ktop
T ASK
18 50
Co lour
ĠM ars
AL IGN
Bind ings
¦ Ĥ
Ġmanag ing
p ersist
Ġg ang
app oint
open ssl
h attan
C y
Date Format
Te le
header link
A wait
im en
key Code
Ġse es
len ium
Red is
ĠC e
H AS
ĠN eg
) }_{
p aint
') ),
if s
h h
ĠM ouse
tag Name
Ġc up
Ġtrans l
Ġrank ing
G reater
th ick
OnSearch Select
Ġturn ing
C nt
ä ¾
Pro vision
ym e
ĠAr n
open ed
s ens
ĉĉ ĠĠ
Config s
Ġs oul
Ġpol ling
ro ph
Ġp ed
Http Client
n v
ens ities
Ð°Ð ´
Ġacc ord
F K
ĠCom Visible
edit able
ter ior
ĠNew Page
`` .
or us
fort unately
L ER
ä» ¥
13 7
l is
-- )
insert Before
Ġfem in
C orrect
stream s
Ġt ort
dd ie
Ġcon cerning
) ")
ĠTh ough
ĠR ub
data Type
Ġgreat ly
ĠPRO VID
: .
al ph
Ġside bar
och astic
Ġpre d
ĠV ik
; ;
Ġt ie
des erialize
Decl ared
Sing leton
st ation
Ġb b
ir ical
13 3
ç ¤
ĠSchool s
_ "
Ġ× Ķ
or ne
Ġn b
mis sed
Ġph ases
ĠW oman
ĠSer ge
tr ivial
C riterion
ĠR ud
Ġoccasion ally
pt o
ĠSar ah
ĠX XX
dir s
cy c
R en
2 30
ĠW alk
åĽ ŀ
) })
j ena
ĠD MA
A mb
14 9
lo ut
p w
Ġh istogram
enc ia
TRAN S
}( {\
ast s
Ġad vice
il io
Ġst ead
ĠSp ark
Ġin fer
ang ent
++ ){
Ġpriv acy
Mich ael
Ġh over
im edia
an z
Ġwon der
Sh op
18 64
ou ver
consist ent
al ia
Ġ========= ==
acc um
, (
ĠGra ham
Ġd ashed
ator ial
Tim eline
Ġ" ).
mine craft
Ġhe aded
og a
Document ation
ĥ ½
pack aging
18 84
Ġpres ents
ì Ŀ
Ġout come
Ġsim ilarly
Ðµ Ð¼
prof iler
Ġf o
Ġw ounded
Europe an
B ank
Ġm il
Ġpre decess
: ]
Ġcom ed
Cour se
Exp licit
ĠEd ition
G tk
att les
Ġp reference
ĠIn deed
Ġdecl ine
40 3
ĠMar shal
ĠPr inc
ĠCh ron
sph inx
W arn
Ġb orders
pack ed
T rees
ĠH um
ĠI con
Num bers
Ġnumber Of
B rows
ĠP od
: {
Res erved
cur ve
s ensor
Enc rypt
con tr
Ġexist ed
ch arg
oo led
CT RL
an ne
de ad
ĠC os
Ġquot a
loy ee
Ġbound ing
rest ling
f iction
Ġc ash
Ġreg isters
Ġquant ities
ĠIMP LIED
// -->
ĠTo urnament
) }.
ĠV I
Ġvisit ors
An alytics
Ġ} ];
ĠR EQ
18 81
ĠMov ie
m ill
Ġr ivers
contrib uted
ĠĠĠĠĠĠĠ Ċ
Ġs ail
mar ine
ur u
Ġ================================================================= ========
strict Equal
Ġ Ñĥ
Ġo ct
z end
DO UBLE
Ġnewsp apers
Ġher itage
Ġpick ed
A MS
Ġref uge
Ġve get
PASS WORD
Ġemploy ment
ĠA lice
http Request
P ressed
ĠE S
IST S
N eeded
Ġdisc ipl
Bl ank
A ware
il og
on er
Ġ" ]
Ġattempt ing
ĠA qu
avit ational
Ġbr ig
W heel
u ario
A cl
Ġm oments
ĠB aker
ĠCh allenge
Start Time
Vertex Attrib
M IL
B er
Qual ifier
f ers
Ġg rey
18 61
Ġinter cept
Ġjournal ists
Ġven ues
:: __
currentTime Millis
lo dy
Ġex ceed
Ġconvention al
A verage
ĠI T
MO D
m v
t u
ir ms
Ġsh apes
tic les
Cell s
wr apped
ĉ ĠĊ
ĠPAR TICULAR
ĠJon athan
ro oms
N d
ĠB ot
ĠT ob
symbol s
Ġp x
qu arter
Tr ust
t ain
ĠJ ason
activ ation
Ġc f
Bound ary
Ġm el
Ġde struction
Ġproto buf
G lyph
J ar
he tic
Ġcomput ational
SECON DS
Imp licit
Ã ī
oc on
ĠRun nable
per formance
ĠST ATE
work ing
Ġstr uck
ĠBe at
connection s
Ġâ ĨĴ
ĠĠĠĠĠĠĠĠĠĠĠĠĠĠĠĠĠĠĠĠĠĠĠĠĠĠĠĠĠĠĠĠ ĠĠĠĠĠĠĠĠĠĠĠĠĠĠĠĠĠĠ
Ġ% (
Ġ(* .
m ates
ĠJim my
en sed
Ð½ Ð¸
Error Message
grad uate
ĠB ed
Ġstar red
Ġg uilt
Pr inter
O LEAN
um ar
ĠM ack
Ġshould n
Ġhelp ers
ALPH A
ub a
ĠJ azz
Hand ling
ĠA F
erm ine
¶ </
Prot ected
o fficial
b ishop
Cap abilities
Ġso il
Ġconsider able
Extract or
Con trib
RE L
Ġdram atic
bm atrix
d an
Ch arts
ĠH andler
type NameLink
13 8
ĠP or
Re peated
ĠP K
Ġaut orest
ub les
hard ware
op les
ĠMay be
ĠCon figure
Ġmod ifications
__ );
Ġco ord
Ð¾Ð ³
Ġattrib uted
Ġr uling
C s
ft p
prov ided
Ġtensor flow
Real m
om bo
ĠInput Stream
om at
Ġdig its
ĠR ico
ĠRe place
ĠPerm ission
Ġr b
be am
in ja
Ġinterval s
ĠPro xy
Ġp ushed
ĠT ak
Ð» Ð¸
in str
ac cur
Ġchild hood
ĠH ell
mo ke
Ġw avelength
client s
ĠNot Implemented
Ġgen re
it udes
G overnment
Ġver b
is abs
ĠH ero
ĠBrook lyn
ĠRo om
ĠA I
T s
ra ig
l ar
Ġre vol
ĠB ible
Ġren ov
Ġbr ick
Ġm utable
[ ![
ĠDet ails
ces ses
Ġsp ell
Check point
Set ter
} ],
Ġc um
Ch anging
AT FORM
count s
Ġn pm
(' :
ĠPr incess
S leep
iter ranean
is ot
ĠP rior
c ia
ĠM aj
)) $
Version UID
v able
inn ers
18 00
ĠJer usalem
Ġk o
C ategories
ĠId entity
ĠCon servative
Ġfre quencies
M id
Ġvari ants
Ð°Ð½ Ð¸
BUT TON
Ġo d
Ex ports
ĠCar ib
Ġ\ &
Ġcor rupt
V ari
form ula
OPTION S
field Name
May be
at ivity
if etime
Ġsouth west
Ġsp ark
(' %
Ġvis bl
Document s
Trans lator
Ġmis sed
13 9
Min or
ĠKar l
position s
Ġart istic
Place holder
ĠS ax
New tonsoft
effect s
ĠR u
7 20
De ad
Person nel
ĠFR AME
cri ption
Ġstruct ural
ĠPro to
ĠComp lex
vis ited
D ue
ĠElement ary
ĠStan ley
t id
Ġconsum ption
1 200
ĠF ail
'] :
ĠSy ria
re ck
l ane
Ġo m
ĠM is
inst ein
D ock
x forms
he ld
Ġre venue
------------ ---
gra ded
ĠMad rid
18 62
Ġadvert ising
2 32
ä½¿ çĶ¨
ĠN ation
ack ets
ne e
Contin ue
Ġ ist
iz en
Ġend points
op enc
Ġpro pose
Ġdef ect
< >
co ustic
Ġun iqu
Ġoff sets
h ig
name of
text color
2 25
Ġcl azz
G PU
UN IT
8 75
g ender
De ploy
if le
av i
Ġsem antic
Ġhor ror
ĠÐ½ Ð°
ĠArch ive
Ġtx t
Im ports
Log s
ĠGu y
C li
Ġst y
comp leted
Reg Exp
atur ally
Ġreli ef
Cent ral
ok emon
UR ATION
AC L
Evalu ation
Ġ ĉĉ
Ġt all
Ġex cluded
inter pol
Ġnot ifications
ASC II
D eg
">Â ¶</
#### #
ina e
Cond itional
m isc
Lay ers
ĠURL s
assert Same
Ġnav al
Ġdeal ing
ĠB asketball
file path
Ġmem orial
Fe bruary
comp at
p ix
ĠPort land
in el
Ġtable Name
Ġd ating
Cons ider
yn e
net ty
is olate
Ġr ay
Ġsur ve
00 7
math op
Ġcon versation
ĠStud ent
J e
CA ST
Ġimpro vements
h azelcast
ĠR OW
Ġc rypt
L y
Ġparticip ation
text Color
ipher al
ap ro
ĠMatthe w
DebuggerNonUser CodeAttribute
. #
link col
abul ary
\\\\\\\\\\\\\\\\ \\\\\\\\\\\\\\\\
Ġwe bs
ĠBy tes
Ġn ur
ĠO B
Ġdebut ed
Ġcall able
ç Ĳ
ĠT u
CH ED
ocr acy
Class Loader
P et
it ime
Ġfact s
Ġx s
ĠCon trib
Al bums
stat istics
Ġphot os
Ġo x
Ġcritic ized
Ġdist ances
Ġredu cing
15 1
Ġmeet ings
Ġcomp aring
Ġw s
ĠNe ed
ĠO blast
ENT IAL
control led
h uman
Ġcap s
Y M
ĠS ync
ĠRe ce
Ġv ulner
). __
Ġpo em
Prof iler
Ġexpos ure
H en
et on
Offset s
Ġindependent ly
Message Box
Lem ma
def s
Ġv it
P ART
T oday
e per
get Bytes
T ap
Ø§ ÛĮ
Ġs ight
Ġdistingu ished
}} .
Ġf acing
Ġconf licts
ĠCH AR
Ġguarante ed
Ġ ic
W D
ĠUn icode
ever y
ĠL iverpool
19 3
jsp x
pre d
Ġconven ience
Build ing
"/ ><
ĠW ing
Ġn ice
Occ ur
Ġdev iation
form ats
Ġserial izer
Ġaff airs
ĠDet ail
Clean up
d ma
({ '
18 63
du stry
Ġhabit at
& )
st ors
Un ary
inst alled
Ġca ption
ĠDef ence
f link
str cmp
ST OP
initial izer
Ġ========= =
ent o
ĠK ir
log out
ĠNew ton
w y
Ġre ly
Ġtown ship
T icks
Ġcol le
Ġgovern ments
er ves
as ma
cell s
7 50
il o
m eter
lin der
ãĢĤ </
18 82
check er
Ġg rown
Ġpr ices
åŃ Ĺ
amp led
Aut ow
}[ \
ĠB order
b uck
Ġf itted
umb ent
Framework Bundle
B F
gener ation
ĠB ey
ĠDown load
indic ator
Default Value
ĠGu illaume
R ating
Cont ainers
ĠNaz i
Ġcorpor ate
Edit able
R D
Ġco us
Ġbusiness man
d ock
ĠP aint
Ġ` .
Ã± a
set Enabled
In variant
t icket
ĠT rip
ĠPro tection
onom ous
C LE
n ear
sc ar
Ġsu dden
Ġconcept s
X Path
Ġmet all
J ew
ĠAl bum
ĠMag ic
Ġkil omet
) <
con c
eh icle
Ġv tk
Ġoper ational
Ġread ers
H W
Ġw ww
Ø ²
Ġim mun
Ġdocument ed
Ġmechan isms
ĠP il
SO CKET
ĠS ent
ĠG ot
table Name
ĠBroad way
Property Changed
ĠE valu
Ġcred ited
; "><
Un grouped
LAB EL
Ġd iverse
ert on
Ð ¡
... ,
Ġperiod ic
nok ia
Ġgu ess
Ġh ill
ĠNiger ia
P UBLIC
O PTS
Ġdifficult y
ic ast
& =&
Prec ision
Ġ utf
qual ified
à¤ °
Ġr is
$- $
Ġsh ard
Ġcode c
Change Listener
= $(
ap on
Ġb ul
card s
Ġvis iting
Ġknow s
Ġtransport ation
ve e
Ġclin ical
ĠR ank
nes ses
ĠP NG
Ġas ynchronous
ra ham
uto ff
ol en
ĠC M
ĠMunicipal ity
b abel
G ap
ĠM icro
test ng
ĠG em
ĠCat hedral
k v
ĠW a
ĠN ad
web site
Ġcr imes
Qu eries
Ġcount ies
" \
22 4
h ind
maint ainer
og onal
ĠMic hel
r h
IST ER
lo de
ort ex
ĠE ston
fin der
13 1
Ġentert ainment
on ded
Ġt ex
Ġw ed
Stream s
PRE V
ĠModel s
Start up
Y aml
Ġv endor
act ical
ĠComp are
F s
Ġqual ifying
ĠP ictures
Ġcommun ications
ĠSc ene
Ġfavor ite
Ġh i
ctx t
Ġintegr ity
ub untu
Ġfor k
bas ename
Ġm a
Le af
ĠA B
pos able
F H
ĠB undle
18 75
Ġord inary
ĠS plit
ĠA CE
ht c
is Null
ĠA y
ĠD river
Ġdata Type
full comment
Ġst im
Ġprecise ly
L i
Call er
}^ *
EXCE PTION
Qual ified
Ġelse where
ĠRe ader
Ï Į
tr ust
ĠPol itical
get Parameter
is an
Http Response
ĠNorm an
imp licit
Ġspo ke
Ġprov incial
ĠB ool
ĠSe lection
PHP Parser
G ram
Ġbuild s
ĠUn iversal
Subscri ber
ĠR and
Grid View
um i
+- +-
to o
ĠL ithuan
Ġreg ression
end um
Ġcomp ound
ĠAthlet ic
ex plo
Mark up
Index ed
Ġstream ing
del ivery
T ake
Ġfru it
effic ient
/ ",
ĠThe ater
ex change
ĠH old
Ġtech nologies
Ġcomp lement
d z
L earning
if ting
andid ates
COMP ONENT
ĠB irmingham
Ġtyp ed
k ube
on ian
Ġre putation
top Nav
Ġc rown
ĠAd vanced
Rec ipients
on load
ut a
Ġcon volution
ro v
ĠLOG GER
PI X
ĠLe v
Ġscal a
m und
Manager Service
Ġking dom
Ĥ ¬
ĠM ult
ĠDo ctrine
ch oose
Ġatt orney
ĠB ased
ä¸ Ĭ
ĠS UB
ĠB illy
ĠSt ev
ib r
Ġrepresent atives
Ġrom antic
× ŀ
Ġb igger
sw agger
Al umni
prec ation
p ure
in ode
50 1
ĠMer ge
ex cludes
control cap
V L
Ġv i
ãģ «
Exist ing
Ġany where
P rior
ĠBind ing
Ġgr ass
ĠGu inea
B ob
Ġne uro
Ġsh allow
ad ic
Ġdistingu ish
b et
arg c
es ses
Ġb link
elf are
Ġs pr
Ġpro cedures
ĠCl one
Ġl ap
Ġemploy ee
( /\
ĠSt orm
Ġen semble
ĠF light
ĠT EXT
ĠSw ift
and as
Ġun e
Ġtri b
i ota
ad esh
Ġass ass
Ġip sum
n od
Mon o
666666 67
ĠT ower
le ading
R DF
iter ation
{ }{
ĠA w
\ ">
ĠF ITNESS
ĠDr ive
Ï ī
26 3
AV A
ĠH end
ĠSal v
am d
comp uter
K n
ĠD M
ĠCl inton
Ġj unction
C ampaign
Ġg c
lo yd
ĠJ u
Ġconn ector
ĠMond ay
ä¸Ń çļĦ
__( /*!
s ynchron
ç Ĥ
Ġelement ary
ĠPr ice
ĠAppend ix
Ġfit ting
} ");
Ġh ip
Gu ard
ĠW ang
Ġindex ed
ĠRep ository
google ads
ah oo
Ġtool bar
ĠR ain
Res ume
bottom Nav
Ter ms
ve al
Ġfinal s
Ġstay ed
ĠA LL
s outh
Ġe at
ĠS ources
Im mediate
A jax
N L
urrican e
c losure
ĠBen jamin
M EN
Ġg arden
}\ ,\
Ġguitar ist
D ie
ĠB ud
v oice
Ġt orn
ĠGe o
Register ed
h istogram
ĠC ultural
ĠN BA
20 8
Table Model
child Nodes
find ViewById
k b
urs day
45 6
S en
ĠPier re
W W
Ġtr ading
av o
ĠI van
ĠM UST
ts a
Ġweap on
V ED
Ġf abric
Ġcoup les
A K
M a
ĠWay ne
full screen
er ance
B ecause
C assandra
Ġanaly ze
ĠA PP
Ġcoast al
\ !
accord ion
Ã§ a
ST M
ãģ Ĺãģ
Ġver ified
': '
. ),
ĠHttp Response
ĠCar los
, %
Ġav ailability
H ours
Ġp g
S py
Instance Id
Ġdefe ating
is Set
ĠL ists
ĠDel hi
at tempt
Ġd ated
Ġmer ger
Ġsur rounded
iel der
oth y
ĠSim ilarly
RE EN
Char acters
in dependent
un til
um bo
__ ((
Ġconsist ency
Ġh ub
Ġelev ation
ag em
ĠK os
Autow ired
; ",
ĠT RI
Or Default
Decor ator
Ġ ----------
Rot ate
A th
18 76
Ġblock ed
Ġcertain ly
lim ited
b ur
ov ing
Ġfilter ing
ĠF ine
Ġdaught ers
~ &
$ "
new Builder
ch r
ĠPref ecture
y outube
ĠWar ren
Ġforest s
Ġhy brid
ç¤ º
ĠT CP
scroll Top
Mar shall
INTER FACE
ab ove
Ġside Weight
al ym
ĠF ailed
n ol
Log ic
ĠLO CK
Ġre ward
Ġplace ment
mod ern
s af
Ġm ysql
ress or
Ġp ian
ish ment
Ġelimin ated
Ġst em
pro cessed
leg ation
Ġdis connect
Ġcom mut
Ġsu icide
Ġs ounds
Click ed
From String
tr unc
ĠG reater
ĠG URL
w l
ĠC arn
omin ator
k afka
18 83
Th ird
anc ouver
A Y
Ġcon front
)) ]
Ġsub stitute
Ġdol or
à¥ ĩ
Ġ\ (\
mem or
Ġdecl ined
Ġw ides
ss f
Ġ\ ]
ĠF T
ĠCal culate
Ġh r
st orm
F riend
Ġpass age
SE PARATOR
WI SE
x path
Ġl d
Ġcompet itive
Ġ// $
P ick
ĠF ab
res ume
Ġens ures
ĠS audi
int egr
Ġexpect ation
E AR
al is
Ed ges
ok a
Local ized
ĠRetrie ve
ĠAl gorithm
ĠG ary
m irror
D ROP
T icket
on ing
her o
2 12
An not
Ġfew er
ib lings
AX B
Ġg rows
ear ing
Ġcompet ing
Ġprint ing
SUPP ORTED
Ġmigr ations
d istrict
ren gt
li ers
hand led
in ator
EN ER
re pr
Ġthous and
S olution
D WORD
Ġs vg
Th omas
H H
v codec
cy clo
Ġtri ple
Ġbox es
` ;
ĠInd ians
Ġinvol vement
18 68
Ġb ird
Ġpre gn
18 78
ĠMit chell
Web Kit
Se ek
b uff
it ter
({ "
mem name
ow s
pos itive
åŃ ĺ
SIGN ED
ater al
Ġassum es
Ġsub stit
Ð° ÑĢ
} ~
Ġg od
C fg
Ġsh orter
Return Type
Ġ( ).
serial izer
Ġt p
Function al
Ġrecurs ive
B ooks
Ġredu ces
Ġ` <
ĠE mit
py test
Ġlength s
b ay
Ġno except
u o
ĠE lectric
it ure
Ġf p
Ġext ens
Ġgr am
ĠMax imum
MO DI
CHAN NEL
dist ributed
ĠL ex
âĢ ¢
C atch
Ġi prot
Ġtim ing
IN F
çĲ Ĩ
ter ritory
Ġsur faces
Ġexec utable
ĠF un
Ġor ange
Qual ity
Ġance stor
Ġexhib it
ĠIran ian
ĠCommun ications
ĠP riv
G I
Ġb attery
first Child
Ġcenter ed
re leased
Ġ\ '
Un ity
× Ĳ
NS Dictionary
Bit coin
j peg
ĠY es
ĠArg uments
Ġmax imal
rit ic
iss a
ĠF ormal
ĠYork shire
ĠAthlet ics
x b
Ð» Ñı
Ġre quiring
ĠM ak
Ġk it
Ġcelebr ated
Ġ*/ ,
Ġout standing
Named Cell
Pre pare
ĠGlas gow
Ġd d
oc os
Ġrep air
ij ing
get File
Field Name
breadcr umb
Ġge ometric
LE X
Ac celer
A sc
ĠA dapt
Ġsens itivity
V B
ĠSe quence
f lip
Or Builder
PACK AGE
x sl
Ġener gies
Ad vanced
ris ing
ĠEgypt ian
St encil
Ġin direct
C artesian
Ġmount ains
Man age
ĠBelg ian
ĠS PI
iv ia
g om
el ines
ĠF E
c ref
Ġdis contin
Ġman ifold
Ġp as
Ġprepar ation
R x
Ġpat ron
io v
cond uct
up pet
Ġmag azines
Ġul tr
ab ar
Ġ' );
Det ection
TYPE S
Ġenumer able
ĠN amed
Ġvot ers
Ġrank s
ir l
ĠF leet
ph r
Ġ( []
Ġbel ief
ĠOr ange
Ã© t
Ġves sels
mem Separator
ĠAtt orney
sprint f
Ġcomp ressed
ĠIn dicates
tr insic
aaaa aaaa
=" __
Count s
Ġexcell ent
clus ively
ĠAt tributes
bind ings
ĠJ osh
ij i
Ġsurg ery
g lib
and al
Ġperson ality
Ġres olver
ĠY ang
ĠGL float
ĠDemocr ats
p ark
ĠUn ity
ĠJohn ny
get Last
Ġsearch ing
Ġas sessment
Min utes
Ġfail ing
Ġapparent ly
in os
Ġ{ });
ĠM eg
Ġgovern ed
à ¦
ens on
pro files
AB C
Sc enario
Ġbefore Each
15 7
Ġtri als
f loating
win ning
Ġf amiliar
Not ifications
Rec v
C AN
18 72
Ġgeneral ized
as ions
ĠO Auth
ek yll
RAN GE
Sol r
ĠR ic
ey er
ift y
Level s
g row
ar th
Relation ship
get Child
ip v
Ġun do
ĠTra il
Ġst derr
ne eds
Ł ¥
Bro ker
glob als
18 71
Ġcos mo
ĠDer by
Ġlumin osity
ĠPho enix
Ġafter wards
tem perature
h ours
Ġflow ers
c aster
Ġoptim ize
ĠBig Decimal
st ad
>: ][<
ĠAuth ors
Ġqu asi
>? [<
ĠR ab
ep he
++++ ++++
ĠMan hattan
Ġc ookies
at ra
Ġcomp licated
ĠR FC
Ġmed ieval
ĠComp lete
Ġr and
play ing
Ġkind s
icen ses
Ġred shift
Ġserial VersionUID
ĠSc roll
Ġauthor ized
dr ive
Ġw ine
file Path
num py
ĠBE GIN
up iter
R TC
ĠL uther
ĠSh a
Ġobserv able
add le
ĠArab ic
cre st
WR AP
Ġcol leges
ma iler
Ġsp oken
h ad
Seg ments
class method
ĠComp iler
Runtime Exception
ĠA f
min a
åĩ º
ĠP S
ĠUn like
ĠPr im
ĠTro phy
e se
Ġabsor ption
Ġin jection
Par sed
Ġscal ed
Play ing
Ġc t
Ġlimit ation
ĠN icol
Ġfiction al
\ -
key down
Ġdown town
Ġexec uting
e lectron
ro d
Group Id
v art
Ġcrow d
ĠL ud
")) )
m eth
Ġco ords
Fac et
Ġfoc uses
ĠA zerbai
hib ition
column width
Ġcom ma
ĠAl aska
İ ·
Ġcontext s
Ġda emon
can onical
Ġdrug s
Ġ< >
EXT ENSION
s ites
nes day
ĠStud y
30 2
ĠCamp aign
Ġreg ulations
Ġitem prop
PRE C
n orth
ToolStrip MenuItem
Ġinit iated
ighth ouse
align ment
Ġmem o
Ġ" ."
! ]
ĠIn struction
ĠV erm
g wt
pro ducer
apt ers
br aska
Ġaccess or
gl Get
Ġwe ar
STR A
ĠN ord
ierarch ical
Ġ$ ,
ĠW r
ĠUP nP
Ġcl ar
ĠU g
Ġ iv
num bers
Ġdef ence
ĠY ugoslav
S cheduled
equ ations
ĠD ET
Ġshort cut
oul der
le ad
15 9
lo re
Ġinflu ential
ĠE SP
Ġax es
Ġviol in
per ience
ĠUn ivers
Ġweek end
cc a
ĠMont e
Ġaccompany ing
ac re
ĠCh anges
Ġnom ination
= ['
ST ACK
number Of
ĠBl ues
Ġconfirm ations
ĠSerial izable
, {\
Ġcruc ial
unit Pattern
Ch an
Der ived
ide l
os hi
comp uted
ĠSt ars
HEL P
Ġunus ual
R P
18 79
s ay
w g
Ġ/*! <
al ib
ĠM es
B ulk
ee per
ĠHawai i
D st
ĠFI FA
=" "/>
Run nable
ĠLI ABILITY
In side
Ġactiv ists
eg ral
ĠCond ition
\ }$.
ch ip
ĠConf eder
Publish er
ĠC I
Ġde fer
String Value
Account s
ĠSpec ific
Ġaim ed
N ear
g md
Ġcol s
ĠCl ar
ĠM ind
!! !!
AL TER
ĠI an
ĠE V
ass igned
Ġfail ures
Ġmunicipal ities
n om
ĠK ath
ĠFre edom
Ġdeb t
ł ģ
M appings
Ġd ip
Ġrow span
ĠM otion
ĠF etch
Ġpeak ed
Ġmem cpy
M or
Ġfil med
s lick
ĠV ic
In Progress
Type Info
Ġf its
66 6
K ing
f ocused
Ġover rides
subscri ptions
ĠUnsupported OperationException
lection s
READ ME
d ings
v b
ĠUn iverse
% =
ĠBer keley
lish ments
$ &
8 000
(' [
Can onical
ASS IGN
re search
Ġh arm
col group
ach i
ĠWith out
Ġincomp atibility
p ixels
ĠR ing
ĠPh ot
ĠL ad
Re search
ĠClass ic
Ġrep lication
ĠAnd y
Ġask ing
Order ed
Type Id
Ġw el
ĠBuffer ed
Ġencour aged
On ClickListener
mark up
Ġdanger ous
E t
ĠS PE
ĠBar bara
ĠS afe
rom ag
sp arse
Ġbind ings
T W
ĠD etermin
Ġop ens
Ï Ĩ
ĠT IME
ĠC lick
Ġsuper ior
M aker
ĠR angers
Ġrec ipients
en berg
ĠS now
fl ate
Ġsl ider
Ġdis order
y ield
comp ose
ĠP anel
Ġpl ug
che v
Ġmod ifier
ĠArgument NullException
Ġdiv is
Ġres idual
hy thm
ĠSTD METHOD
S aved
ĠN g
ĠPre vious
ĠUn known
ĠAng ular
Combo Box
Url s
Vert ices
ri se
ĠF itz
ĠK ind
Ġimplement ing
inal ity
Ġconven ient
LA BLE
Ġb ott
Ġfull Comment
ĠSH ALL
Service Client
Ġmon ument
ĠCarib bean
j ab
ĠM ess
H our
hol m
] $.
t el
Class ification
Ġspe aker
un is
tr avis
ĠO cc
ĉĉĉĉĉĉĉĉ ĉĉĉĉĉĉ
C as
rep resent
ĠNev ada
g host
18 67
Ġde coded
Ġ` ${
17 6
For Testing
Drop down
cord ova
war f
> ().
Ġt v
Ġel der
Upper Case
ĠR acing
28 0
ĠPro test
u h
Ġmiss ions
Ġqu it
Al ive
ĠRout er
Pol l
osp itals
Ġcred its
ä¸Ģ ä¸ª
friend ly
/ ${
dev tools
Ġp ictures
th an
ĠL GBT
ĠH at
au er
Ġtr ait
14 8
Ġf erm
act ics
gr p
F ULL
ĠPr adesh
cred ited
14 1
Stream ing
Diag ram
que e
B enchmark
ĠL iving
che my
ĠSe ven
Ġt iny
Ġatmo sphere
uplic ates
ĠDA MAGES
U LE
Ġviol ation
f ive
Ġre use
2 33
v ance
igr ations
Ġs ax
en viron
c annot
schema Location
Tax a
lo dash
one percent
m peg
I Enumerable
N s
Ġg ift
ĠB LA
im ator
Ġblock ing
Ġpack ets
TE MP
av ery
Ġre name
al am
less sim
Work ing
pro posal
ĠProf essional
Ġspirit ual
} ";
ĠChar lie
P ers
Ġrandom ly
M oths
V ATE
Ġquot ed
Ġdatabase s
B oss
n at
ath ers
dis connect
imit ives
Ġfind ings
Ġy es
}} _{\
Dr ive
M ongo
Trans formation
) ])
CT L
ĠU C
Ġpo le
Ġt rend
Ġre construct
ĠG P
Ġstr uggle
om on
us erm
ĠBor ough
Ġas sess
LI GHT
A st
St and
å Ļ
lo sing
END ING
ĠF al
UI Color
"] :
b ounded
O gre
Ġan om
new line
ah l
aren ess
M il
Ð Ĵ
ĠBar ry
Ġcaref ul
P ager
Layout Params
cap s
ĠCOPY RIGHT
ĠG LE
Ġapp reci
ĠC over
Ġex ceeds
SE ARCH
Ġmax im
IL L
inherit ance
Ġthreat ened
User Name
sv c
Ġd ub
ack er
Ġintern ally
ich i
ĠAp pro
ĠV a
Aut omatic
3 30
Ġenforce ment
Ã Ĺ
VER TEX
ĠJ OIN
ep och
åī į
inet ic
ĠUs ers
Î ¬
Filter Database
Ġtempor al
ĠSyn opsis
ĠSoc cer
]] ></
Ġdoub les
or ous
Ġp ump
Ġm v
ĠPer u
Short cut
Ġexpl ains
c ms
- }
Ġl as
ĠB ron
()) {
ĠTh ose
ues day
o ft
Ġover write
ĠÎ ±
g art
t ier
ĠL amb
box es
^* $
ĠFinn ish
. ]
Int Ptr
Fl ora
åĻ ¨
Ġg ay
cit ation
ï ¿
ĠL ength
s With
ah o
Ġt t
Ġo u
sl ant
Form ats
Ġshe l
H op
ĠWh y
ĠSte el
Ġreve als
ĠB achelor
Ġnew er
18 74
Ġtalk ing
Ġterrit ories
Ġ[ :
Object Meta
Ġw aste
I ce
. ;
ĠD id
arn ess
P NG
g al
Ġis olate
Ġhistor ians
Ġtr ick
Ġdes ire
Per form
E F
um ing
Ġsub class
( ::
ur bs
Ġan imate
co ords
ĠPROVID ED
Ġgrad ually
stri pe
ĠCirc uit
Ġpropag ation
Ġback ward
Ġcontrib utors
Rest art
ĠF ather
ĠZ ero
Spec ified
ĠInst alled
:: -
i est
Å ¼
AD MIN
ĠF alls
Ġsound track
acion es
Ġslo pe
ses sed
ĠW restling
H IGH
Ġtempor arily
W all
cre ator
ge bras
Ġcap ability
ĠIN CLUDING
ĠJ ama
ĠHo pe
ĠA rial
ĠS outheast
P ixels
18 77
et ies
Ġw er
ĠTr ace
ĠAlex and
. %
Ġanaly tic
Ġend block
We ather
Ġmon arch
Ġâ Ķ
Ġe lectoral
Icon s
M oney
res izable
INTER VAL
Prom pt
] $,
rist ol
Conf lict
ĠCommission er
ot ions
$/ .
G F
c ritical
ĠSp irit
Ġparliament ary
test Data
DA Y
Ġr h
}} ^{\
Ġind igenous
bro adcast
æŀ ľ
Ġl aser
Ph ysics
ĠCon struction
aver age
% {
Ġartifact s
ON SE
Ġcol lector
Ġimport s
Ġh ist
C ause
ĉĉĉĉ Ġ
Ġqu iet
ĠH O
Ġref lected
ster dam
PY THON
UST OM
å¼ ı
R ol
Ġpart itions
u pe
Spec ies
file set
Ġstrong er
Ġinvestig ated
Coordin ates
it arian
Ġw p
}} /
Medal ists
T mp
it ely
Ġun like
Ġw ake
ĠE mber
18 73
CALL TYPE
Ġwit ness
term inal
Comp ound
rengt hen
Ġj q
NS Array
Ġconv icted
Ġdef init
Ġcomment ed
8 90
ov iÄĩ
Cap ability
Ġpro tests
st s
W alk
Ġorbit al
Ġget Value
ET HER
au de
Ġan tic
Ġcol lapsed
alax y
bour g
S un
develop ers
"> :</
ĠS ongs
Ġrail road
× §
ĠC riteria
ier ra
let t
Ġpo ets
Ġwides pread
Ġneut ron
E ducational
im ode
ĠB row
ĠT X
Ġtrack er
ression al
Ġcontrovers y
$ ('#
ĠS ay
ĠEx pected
Ġac quisition
Ġ ë
ate ch
ra i
Ġsk ill
M aint
sh ard
ĠE ug
ĠGener ator
oth ic
ĠC es
Ġreli able
; .
l ite
=" %
ĠP ont
ri el
ST YLE
h yp
ĠL ANG
sw iper
/ &
Ġpop ulate
Ġserial ization
rg ba
Ġres ort
ĠSIGN AL
STRA INT
L ifecycle
s low
Ġm ne
ĠT am
fig ures
Ġstring With
Ġsupp lies
ĠLo op
Ġf ishing
E con
M ixed
agent o
f abric
64 0
ĠC arm
Ġd p
18 66
Ca ption
Ġ' +
Un do
view er
bor ne
T our
Ġm eg
AB ASE
ĠO d
sess ions
serv atory
xy z
og g
hel m
Ġspecial ized
ĠPhil osoph
ĠOper ator
vis ions
Pars ing
Z ERO
Ġagre ements
ĠJ ar
Place ment
ĠT RA
en os
Leg end
TRAN SL
mod ify
FI RST
Ġenumer ate
sr v
b ill
get Status
ur as
ĠIN TEGER
names paces
ĠSer bia
Ġ& $
in ery
ru id
F LOW
Code d
Ġconsider ation
ĠQu ant
it us
stud ent
ĠW olf
Ġexp edition
ĠPh ysics
cert ificate
Ġmechan ical
Ġh ls
out e
Access Token
s udo
c andidate
Ġfor wards
Con struction
User Bundle
ĠChar lotte
Dat um
` );
IO S
Ġbro ker
CONTRO L
De veloper
ĠCO MP
s nap
ĠC Tx
ĠF ly
H uman
Ver bose
ass y
from Now
Ġphot ography
Ġapp ended
dim ensions
Ġw et
Ġfor th
p refs
Ġjust ify
ap id
ĠQue stion
Ġcommun e
Bl end
Ø§ Ø±
}) }
Anim ator
ĠD ays
Ġbl k
b ias
** /
Gr ant
get Request
Ġlo b
ĠCr icket
ĠAng el
ĠN ature
Test er
t utorial
ĠSh ang
deg ree
equals IgnoreCase
Ġlaw yers
Ġcle ared
r Ã©
Ġv acc
us k
A ML
E s
ĠA CT
Ġg iant
g m
ĠM ongo
Ġsent enced
ĠRoman ian
Ġn ut
lo p
list item
ĠM other
long rightarrow
WINDO W
Ġintel lectual
DO MAIN
Ġb a
14 2
ĠCl aret
A ba
ot ton
vent ures
Comp uter
an onymous
ext ent
Ġmin isters
Ġinterpol ation
Ġm ess
Ref s
return Value
15 4
Ġsym pt
C andidate
ĠIn clude
ĠCh apter
ĠĠĠĠĠĠĠĠĠĠĠĠ čĊ
ĠD J
è¯ ·
Ġd iversity
ĠM T
ion es
ari ate
ĠDel ta
Ġcomprehen sive
Ġch amber
Ġadult s
r st
lf ind
log ists
h ire
IDENT IFIER
Ġlo ops
ç ´
MUL TI
St ory
áĥ Ĳ
ĠCONT ENT
SCHE MA
L ou
ç ¼
pos ing
ĠT ools
23 5
ĠComp ile
Ä ĵ
Ġreal ized
ĠEqual s
i w
sub net
ĠInt el
Con cept
Comp uted
rem oved
ĠTreat y
] '
ag les
ĠU SS
Ġneut rino
ag gregate
Ġcontrovers ial
em ed
ĠL iga
pe m
PE D
Ġcollect ive
ä¿ ¡
ĠRepresent ative
L G
[] []
ĠOl iver
Ġcompar able
a rency
Ġv ch
Ġac quire
With in
b ac
if th
Ġde ck
Ġaug ment
AC C
ĠVert ex
or ian
rem aining
Ġcur vature
Ġshift ed
con struction
()); </
dis pose
ĠHind u
h istor
ĠH orn
Type Error
top ics
ĠP ipeline
ĠN amespace
scal ed
ĠFin ance
æľ ¬
Dec ision
17 2
Ġalco hol
air line
is ch
Qu ad
80 211
iff s
ĠEnvironment al
() )));
FRAME S
Re verse
EN O
c ookies
ĠV as
Ġweight ed
Ġinj uries
Ġb acter
Scal ing
Ġover se
ĠCirc le
und ant
activ ated
ĠFI ELD
f amilies
Ġrep lica
ught er
15 3
ĠPro vider
Glob als
Ġb are
Ġsupport ers
Access ible
S phere
Ġdep icted
jd k
ĠLe ader
inv oice
Ġput ting
ĠIss ue
or f
Ġcre ator
n ut
Ġm as
E ven
20 5
Ġcoup led
Ġves sel
18 40
Ġmodel ing
Col s
at z
Ġget attr
è®¾ ç½®
Ġtopo logical
Ġc od
ĠE lectron
ĠĠĠĠĠĠĠĠĠĠĠĠĠĠĠĠĠĠĠĠĠĠĠĠĠĠĠĠĠĠĠĠ ĠĠĠĠĠĠĠĠĠĠĠĠĠĠĠĠĠĠĠĠĠĠĠĠĠĠĠĠĠĠĠ
Ġext ending
Ġw arr
ĠC ass
Wait For
ro sc
åı ĳ
Ġinstrument al
L aw
ĠC T
Ġd ire
ud ge
member Of
Ġreve al
Activ ation
l iter
ãĤ ¯
Ġt on
get Num
Ġswim ming
ĠL en
Ġdiscuss ions
Jo urnal
;\ ;\
art z
ĠDE LETE
00 4
cont aining
Ch inese
è ´
Ġb ash
Ġho les
DF S
( ["
P resentation
i Name
é Ŀ
LA PI
a head
ĠFran ces
T enant
ain ter
mar shal
Â ·
18 2
ar an
De velopment
Ġnon linear
ĠPar ish
Ġvict im
@ @
ins ide
Ġportray ed
ĠP P
Ġphot on
pattern s
ĠColomb ia
ĉĉĉĉ ĠĠĠ
Ġwh ilst
mail to
inc inn
B ill
Ġann ually
Ġr ising
ĠM ach
Ġchampionship s
g ue
Ġcyc les
Ġmand atory
se lenium
Ġp aramet
15 8
Bl ur
J K
ĠW as
TA IL
ĠP ow
uc lide
ĠMoz illa
ĠDET AIL
Comp ression
Cond itions
Z END
ĠO MIT
Ġrel ating
Mouse Event
wallet Main
DIRECT ORY
z eg
Mod ifiers
Ġdoc utils
Ġrecogn ize
Ġven ue
P t
Y ARN
Ġd irty
ĠC ancellationToken
not ifications
GENER IC
Ġs av
ĠInt elligence
Ġsaf ely
Ġ{? }
An onymous
ING S
Ġarrang ement
">Â «
Ġconfig urable
map red
Ġpres sed
v iz
ĠMed iterranean
altern ate
E p
| }{
Http Kernel
SH IFT
Ġhon our
"] );
Ġf oss
AIN ER
ĠRich mond
dot net
A x
um l
ĠB rew
Ġdisplay Name
Ġport al
up dates
Ġstart Time
Ġb ag
Ġth irty
Ġab road
Ġactiv ated
ym an
ii i
Ġexp ired
Assert ions
# .
ok o
ĠP FNGL
ave led
ins pect
ĠR ails
ĠV egas
ĠI o
ĠP ic
ĠD raft
greg ated
int el
det ach
Draw er
s ymfony
ot ypes
ĠThe ory
ĠIll uminate
j er
get Object
ĠTig ers
m apped
check ered
Ġart illery
16 7
Buffer Size
æĸĩ ä»¶
ĠPark er
Ġattract ed
coordin ate
Ġmed als
qu iry
yy yy
ĠARI SING
et itions
Ġemer ged
Ġfun ded
Z Z
} ));
OR ITY
Ġsuffer ing
Ġn aturally
Ġget Type
Ġcontrib uting
fol k
Ġexponent ial
Ġpack ed
D am
ik es
In str
Syntax Kind
Tr acing
Ġproject ed
Ġexpl oration
To List
ĠCG Rect
Ġvac uum
G rade
if ace
Ġa ims
C rypto
( ...
Ġtest Get
Ġslow ly
E sc
W ell
ĠK un
Ġst ride
ĠCG Float
D ll
Ġenjoy ed
- '
uc lear
Ġelect ro
ĠLI ABLE
Ġsimilar ity
Ġge o
ĠMu hammad
im i
Web View
dis crete
izz le
18 69
Ġsequ el
ĠPer iod
15 6
Ġf iring
Ġd rew
ĠT IM
20 6
Ġjuris diction
Ġas ks
Rest rict
Scroll View
ĠĠĠĠĠĠĠĠĠĠĠĠĠĠĠĠĠĠĠĠĠĠĠĠĠĠĠĠĠĠĠĠ ĠĠĠĠĠĠĠĠĠĠĠĠĠĠĠĠĠĠĠĠ
g d
incinn ati
W elcome
16 4
ph antom
pr im
}_{ -
Cre ating
Ġelectron s
Occ urs
Ġel s
sp inner
ĠSh ip
L atest
ĠL an
ĠH orse
io let
Dist ributed
mon s
R V
type col
mod es
user id
ĠHun ter
é ¢
ĠDet ermine
ĠTim er
get Source
Ġpart ly
Ð°Ð ²
ĠStat istics
ãĤ ¤
Ġsu cc
ĠF err
($ (
N AM
m ud
Ġh aven
res erve
q p
Protocol s
Ġchar ter
Ã ²
ĠVin cent
Ġh alo
Ġarr ive
ĠRect angle
ĉĉ ĠĠĠĠĠĠĠ
Not hing
ĠAp pe
ĠB B
te enth
N LS
or ia
Tem plating
ĠData Type
RE LEASE
Ġimp ress
: ',
ĠH udson
JSON Object
ï¿ ½
with in
Ġpo ems
or bit
Ġdetermin ing
Ġwalk ing
Ġres ume
Ġactiv ate
re cent
ĠT ed
ĠHarr ison
ĠTurn er
pro be
l w
Ġcom fort
RO LE
ĠMar vel
Del ivery
istr ative
ĠCub a
Ġelect rical
Ġsurv iving
L ittle
in fin
Ġliber al
S af
Ġin ference
z k
b ecause
$ };
u ched
Ð°ÑĤ ÑĮ
ac les
ĠNichol as
ĠG round
Ġsupp ress
ĠC onse
Ġformat ter
K B
P eter
S igned
ĠC NN
Cho oser
h is
ĠB omb
En ergy
ie u
inst ant
)) \
Ġadd ressed
ĠS aints
ĠBe aut
background Color
In verse
RU LE
28 8
Members hip
Ġproportion al
="../../../../ ..
ĠS ultan
Attribute Value
ĠQu ick
Ġw ider
M is
Ġre semb
Ġ" \\
: _
Ġ --------------------------------
Ġs lots
ĠRobert s
="../../../../.. "><
lic ate
ĠCh air
ĠArt ist
Ġtermin ated
Da emon
IsNull OrEmpty
enn ial
over load
om ing
jo urnal
sym pad
ĠBlock ly
ĠVictor ian
ĠFac ulty
Ġa coustic
ĠU rban
Pop Point
ĠF ill
Ġagr iculture
qu it
che m
Rec order
ĠM PI
recur sive
ine e
ĠV lad
Ġgradu ating
ĠB aptist
23 4
" =>
Ġse p
K ar
co lo
Se ed
ex perimental
op ol
VARI ABLE
inter rupt
Le e
ç łģ
ul atory
amp ed
Ġke eps
ĠC BS
iz ar
Ġstrateg ic
ĠM ol
ĠTech nical
à ®
oc am
Ġdepart ure
ĠIn dustry
Pol icies
Char les
ĠState ment
Ġc able
Ġthe at
S parse
n ecessary
w al
en ne
quant ity
ident ial
\% $
Ġs prite
Ġrad ical
Ġinc idents
ĠFUN CTION
O h
sp ath
ĠO VER
ul as
w ant
St ock
ps z
ĠCoun ter
ĠActive Record
B udget
Ġg t
Ġwill ing
strip ed
M ale
ĠR oll
Ġbeg un
ĠCol lect
ert ow
Ġpre domin
NET WORK
åĬ ¨
Ġoptim ized
Ġex ha
no op
con verter
dispatch er
Ġgr avitational
en ames
Ġcut s
Ġdise ases
)) ))
Ġrare ly
Ġd ans
ht able
pr imitive
Print ln
Ġcor ruption
Ġestablish ing
bound ary
ld ap
Ġne ur
B SD
Ġm os
Ġrest oration
F iction
18 5
By Key
ah an
c amp
18 7
un confirmed
ĠIter able
ac i
Ġbe ach
ĠF erm
Ġex clusively
block ing
Ġamong st
g fx
sv n
Â »
tr ansp
ĠJ enn
time zone
Co ords
SE QU
Ġnav igate
çĤ ¹
r vm
ĠR ick
Ġset ter
Ġa jax
ĠH ad
EN G
b ulk
DB C
ĠFin ancial
Ġr x
@ ",
Ġsold ier
W ARN
dd d
O Caml
S LO
get Max
b illing
ĠD IS
é Ķ
script size
ĠRod r
D istrict
PI PE
no ise
Av ailability
ĠU V
ĠForm ula
ĠCr ime
18 8
DEC LARE
="../.. ">
SY NC
ä½ į
ĠInter ruptedException
D EN
åĪ Ĩ
; //
ĠK irk
Arch itecture
de b
40 5
Ġcomplet ing
\ }$,
ĠJ a
_ '
H om
Ġam ateur
ç ¬
ĠĠĠĠĠĠĠĠĠĠĠĠĠĠĠĠĠĠĠĠĠĠĠĠĠĠĠĠĠĠĠĠ ĠĠĠĠĠĠĠĠĠĠĠĠĠĠĠĠĠĠĠĠĠĠĠĠĠĠĠĠĠĠĠĠĠĠĠ
Ġcomplet es
spe aker
cel ona
Des pite
ĠEx port
Ġearth qu
Con vention
d rew
ĠFe atures
ĠDO C
fac et
H F
Ġbr ings
ĠMil an
Ġex ported
Ġgen etic
ĠTer ritory
& ,
A w
Ġen demic
ST ER
re ts
ĠM ask
ĠBuff alo
de ck
DI ST
ĠMuslim s
Ġe ighth
ĠR AF
compare To
SPE C
av ia
Sw ed
act ed
As sessment
Ġequ ivalence
M utation
è ±
Prof essional
> -->
iv ic
um ption
ĠV ancouver
cre ase
Mov ie
z ig
ĠL am
XX X
} |\
Ġr anging
per f
Re covery
Ġele ven
ow l
N ever
p assed
Port al
Ġwood en
oc op
20 9
Ġu k
d raft
vari ance
ro st
ĠArt illery
ĠAlbert a
Ġform atting
lim inary
Ġout break
Ġdon ated
f ing
ĠColl ins
Hon ours
Ġfeel ing
Ġcom memor
ĠB urg
( **
K V
Ġexp ires
p ressed
ud p
ĠMon th
ĠAssert ion
har mon
ent i
" '
S ampler
OG LE
F raction
P IN
ĠRem oves
may be
b lo
el in
ĠPRI MARY
Ġm anga
ĠY ii
ĠSer bian
new Instance
VI SI
big array
get Next
A sp
Ser vers
umb le
rans late
v card
uclide an
3333 33
Ġwor ship
ĠGi ants
Ġd c
e ign
Ġo cean
"> ()</
r adi
comp oser
ar ms
Ġiniti ative
Ġg olf
anc etype
Ġmathematic s
ia o
serial ization
c make
× ¢
RO LL
ãĥ ĥ
ancell or
ĠV ari
do ctrine
Watch er
ĠT S
Com ma
ĠChrist ians
C ut
Ġref id
U X
ban on
starts with
ra id
st retch
Ġc arrier
exp licit
fall back
reg ression
) ((
abor ation
b ane
Ġ= ~
ĠCan al
X HR
ĠB og
Ġb one
child node
find utils
c rop
BYTE S
]( /
Generated Message
il ers
Ġhe lic
Ġpoint ing
Ġunder ground
Ġqu ark
Ġres id
Ġfind utils
Ġgraph ic
Ġinter active
ĠWar ner
el m
Ġmathematic al
b link
ĠCar lo
Î Ń
em ens
ĠR an
V iol
ĠDefin es
h dfs
Ġcon verter
ink s
Ġdecl arations
s chool
Ġyoun gest
Ġan al
ov an
}} "
Ġt a
test case
ci pe
ĠIgn ore
Ġdiscr imin
uss ia
A ck
Int egr
Ġphys ician
Ġcab inet
Names paces
uzz le
T reat
B oot
ĠFr ames
Ġcirc les
P N
s izes
Ġ* >
ĠC ob
Ġfiles ystem
Ġt win
Ġr ub
start Time
Ä± n
ĠAl pha
Ġtri be
Method Name
Ġcoal ition
ĠH ide
les cope
Ġh at
Ġor chestra
Pl ug
as pect
Ġ= ================
Ġpolar ization
Ġcous in
J NI
Of Type
Track s
ĠI de
Ġg ard
Ġresp onded
Ġlie utenant
18 59
ĠFor um
ĠN BC
Cal culator
ĠAl ways
Ġang les
K i
Ġseem ed
H AN
lovak ia
Pat ient
Ġd ress
min utes
alloc ated
Disc ography
d ip
next Token
Ġfair ly
Ġfor Key
ĠSt and
Ph ys
urn aments
add Child
VO ID
ĠG rey
ĠÐ½ Ðµ
Ġm x
ear n
Table HeadingColor
Ġasympt otic
f lix
iz a
App s
V tbl
={ '
of ill
B attle
K S
Ġt ribut
Ġalloc ator
pro jection
Ġident ifying
r ice
Check box
P ing
è ĥ½
ĠT ib
Is olate
16 3
J ul
k ie
assert Is
nav igator
Ġsol ving
ĠD S
Ġl ac
reg exp
ĠIN VALID
Fact ories
Ġchunk s
claim er
as l
ĠF S
roll ment
ĠM ans
Ġorig ins
="../.. ">Â«
loy ment
Ġro unded
Ġcontin uation
READ Y
ĠZ oo
Ġlab eled
ST OR
ĠBy z
v ect
Ġpor trait
du al
Ġa u
Ġp sz
ĠBe ijing
CI AL
v d
form atted
syn the
Ġpoint ers
sat isf
Ġpy test
F ab
script style
b w
Ġb loc
}) ^
ĠEn cyclo
us a
ĠLL VM
Br ush
to gether
H ung
p ension
Log o
ĠSlo ven
Ġc ategor
Ġob lig
FR AG
ĠCont ains
Ġdec rypt
Ġs d
(" :
prop ri
ĠV ariant
middle ware
Ð¾Ð» ÑĮ
D ashboard
ĠIN DEX
MODI FI
h ou
Ġsub mission
er ender
imp lements
Ġt foot
Ġel it
Î ¸
am ation
ĠNe braska
om i
Play list
se gments
Ġa qu
Ġconsum e
/ ~
Ġ= ================================
uc ceeded
ĠSte ven
ĠK now
Ġsh ipping
Ġent repren
Ġhas attr
ĠBit map
Ġst ochastic
="# "><
Ġf at
pos als
= /
string u
17 7
aut ocomplete
! ",
ĠW ik
Ġt ren
ĠLiter ature
g son
ĠC RE
at is
Ġlast ed
Aut omation
-> __
ĠAl ger
fil m
ĠM ason
ĠSym phony
Ġm ature
Ġcons ensus
em ies
Ġdis appe
not ice
ĠK le
ĠAr c
Ã ®
Ġid le
H alf
er ving
Ġst rengthen
Roy al
mo jom
ĠNS Mutable
. ).
process ors
PL ATFORM
bl k
Ġmar ry
| $
ĠT ol
m ics
ĠC urt
ri pp
ĠJSON Object
ĠS r
Ġnomin ations
ĠN ON
ĠL ions
pro g
18 30
im ity
add resses
BIN ARY
it ations
ĠY u
Ġover ridden
Ġact ed
Rich ard
è¿ Ķ
Ġb anned
ĠEX PRESS
duc ible
Ġn aming
sequ ential
ÏĢ Î¿
ĠN i
Ġvalid ity
ĠByte Buffer
ĠK i
Ġsol ved
Evalu ator
T ol
Def unct
B razil
s To
Ġre build
Ġnarr ative
ĠS oul
ĠP ast
ĠW es
Ġch mod
Ġfile path
ad vanced
sim ilar
Ġmanufact urer
Ġag es
Battery Stats
ĠC row
Ġdoll ars
get First
add Action
Inv oice
Ġdimension al
sp awn
ĠB ir
S aint
ĠA DC
li ber
}) =
IC S
Tool Tip
laps ible
rt c
Ġassoci ations
Percent age
ĠWith in
open source
g old
Ġneigh bors
t ies
ĠH ug
ĠS id
Ġco operation
ĠN umer
ash a
. \\
Ġcom ics
ĠCom b
ulo us
p reference
ĠB log
CG Float
Ġquot es
qu eries
Ġt ape
h ort
Ġel li
LI BR
ĠP air
Deserial izer
] {\
cy cler
set ter
RE SH
18 48
Ġclaim ing
_ ),
am pton
16 1
: <
ĠTr inity
Ġlik elihood
] ',
ĠS F
Ġget Default
Ġexpand ing
quent ly
ign ite
ĠB un
, \\
G uest
e ase
è± ¡
Ġab sl
ĠLeg end
m art
Ġlo ose
dela ide
Ġk ids
ick ing
ĠByte Array
Ġretr ie
Ġtr aveled
Ã¶ n
RO ID
Ġvis its
Ġarchitect ural
>< ![
T ail
Ġsim ulated
bat im
ist ani
ĠAct iv
P s
loc ator
È Ľ
He art
l apping
in ate
ocam lfind
at um
ĠM yst
Ġdes ert
reach able
f ab
Ġderiv atives
Ġaver aged
H a
in us
, &
Ġl ingu
Ġbelie ves
ee e
st own
ĠC lay
Ġsp onsor
Ġrefer ring
Ne ed
ĠU ART
TIME STAMP
userm odel
Ġm ixture
Ġj ar
Ġen hanced
Ġget All
uzz y
N aming
Ġqu ad
del im
ĠEx pect
Check s
ĠVenezuel a
s ix
ick en
leg acy
ĠC Wallet
ĠS LOT
Service Provider
Ġcas ual
l iga
ĠM ultiple
ĠBeng al
Ġ( .
ĠL is
col lapsed
] ="
Ġis ot
ĠR TC
SETTING S
ĠJ oint
http Response
ĠL ag
ĠF ragment
Ġsp awn
ĠUp dates
ĠNull PointerException
ĠM aced
ĠEnd point
[] >
UT ION
Ġleg islative
Afr ican
Ġpower ed
Jew ish
ro po
entry Set
RG BA
× ĳ
match ing
Ġf led
Sc r
Ġsub net
Bl uetooth
D ifference
Hel vetica
Ġa zure
Ġstat ue
catch all
Ġguilt y
ĠShe ll
ĠPr imitive
36 5
Man ip
ĠDi amond
spe ech
ĠS pect
Ġgr ab
ĠT E
ĠSh op
Ġmake up
Ġl icenses
Ġb er
16 2
BIND ING
ĠT C
ph al
class ification
Port s
File Info
act s
Ġany way
Mus ical
W nd
18 57
avor ite
ĠY am
30 3
ĠRe ading
Term inal
(" ../
Ġfor get
Ġde ps
ĠArch itecture
CF G
ĠCo ordin
Read able
Ġtranslation s
Ġjourn als
ĠWARRAN TY
ĠE sp
Ġ} }"
ĠPh D
Web Socket
at che
ĠA bs
S CO
new Value
25 4
ĠCON NECT
Test Method
in variant
Re ject
C rypt
t frac
Ġcons ent
Ġmart ial
ĠM asters
og ue
Or Update
İ· åıĸ
Ret ention
Ġn est
ĠL ate
ĠB ond
ĠC BlockIndex
P ix
st udio
cl ause
J ac
ĠDepend ency
Ġc inema
Sens io
Ġper f
index es
Ġfight er
Ġd ies
Script s
Ġbad ge
Ġc aching
he ta
ĠØ§ ÙĦ
ç ¨
An imated
æ Ľ
iv odes
Ġqual ify
et ur
Ġin formed
Ġis Equal
SING LE
end ant
P aste
ĠTime Unit
ĠMun ich
å ¿
APIENTRY P
Ġkey words
close st
Ġt i
Ġfun ctor
Ġp k
Ġp ow
I de
Ġp lots
ĠE le
ĠðŁ ı
åĢ ¼
17 8
S ir
Ġc tor
leg ated
IMP ORT
Ġchalleng ing
as io
Ġconstitution al
ĠAm sterdam
Ġtarget ed
A rena
Ġc ul
LE CTION
Ã¤ n
Recogn izer
og o
Top ology
Ġe co
00 6
Check sum
ĠWH ETHER
S ans
U ART
EN C
at an
pl aces
ĠS cale
ĠN A
bell ion
Ġ( @
ĠTest ing
ĠMap s
H ence
Ġbroadcast ing
lo sed
oper and
Pub lished
Present er
ĠJeff erson
D umper
i oc
ĠS z
v im
Ġun ders
P OL
over eign
Ġcol ony
ĠCon cert
M agento
est ab
ĠRep resents
Op code
Ġo g
ç Ń
Ġsol ver
spl ash
tr ap
Ġch ains
Ġdemand s
h ang
W il
Ġb ridges
Field Type
Ġprov isions
flu ence
Ġphotograph s
BO OST
ivodes hip
ĠC amera
ĠĠĠĠĠĠĠĠĠĠĠĠĠĠĠĠĠĠĠĠĠĠĠĠĠĠĠĠĠĠĠĠ ĠĠĠĠĠĠĠĠĠĠĠĠĠĠĠĠĠĠĠĠĠ
W HERE
Ġscient ist
Ġocc asions
IC AL
Te X
adi ents
Ġb arrier
Http Foundation
Ġpet ition
Ġs pre
Rep lica
Ġf t
str len
Ġg amma
Ġfix es
ãĥ¼ ãĥ
Ġan ime
ĠSt ill
ÑĤ Ð¸
In flater
ĠMar c
Ġm ime
zer os
ĠB lood
ĠImp lementation
Ġdisestab lished
am ine
ĠK ap
Ġper cussion
re ats
ĠX HTML
SI C
Ġaud it
mer ged
en i
ĠH ub
ĠFRAME S
ig ion
Ġfl avor
Ġfor cing
Ġgroup ed
Ġurl s
Web API
up loader
Ãµ es
Ġpul se
Ġtransform ations
}% &
Ġe cc
>< ?
Ġsk ipped
Ġget Class
ĠB right
= <
sm oothing
ĠS EC
Ð° Ñģ
ĠC V
Ġident ifies
HttpServlet Request
Ġ( {\
ĠT rib
Ġcl an
opt er
Ver ification
wait For
UN T
ĠRob in
Subscri be
ĠOTHER WISE
W as
access ibility
Ġconcat en
Brows able
å »
Ġv ault
ĠB ristol
append To
as ures
Ðµ Ðº
ĠCo al
ĠC old
Ð¾ Ñģ
Ġg ithub
ĠG TEST
Ġap artment
Sp ot
ĠP au
Pro tection
Ġminor ity
ĠT I
Ġhon ors
ĠV iol
ĠRetrie ved
b ag
Logger Factory
Fore ground
ĠM oney
pr inter
ĠAn tar
MODE L
J oint
Ġf antasy
uck land
Ġopp onents
ĠI B
Ã¤ r
ĠSpr ings
Ġinter sect
30 8
SH OW
ĠOper and
ix on
Thread Pool
De p
Ġanim ations
Ġpul led
b org
ĠInt Ptr
Ġtrans ient
ĠG rade
Ġal phabet
ĠC amb
ap pearance
Ġis l
Ġbeaut y
in strument
Ġtro uble
Ġdev oted
Ġt ies
ation ally
Ġdis missed
n h
ĠS ah
AT TA
Column Name
ĠRE F
Ġconnect s
Ġtell ing
Ġimm igrants
'] ),
Ġful fill
| .
); </
Ġlo ads
ĠI DE
Ġmet av
ĠEd wards
Ġnon atomic
ĠDet ect
f u
i Sector
ov ich
Ġgener ators
ĠDI RECT
U Integer
arri ors
Ġexpert s
d ifferent
Ġ# [
ĠPr incipal
Ġsurv ive
to UpperCase
IP S
Ġl ig
ĠLog ical
Ġinn ings
ac s
ĠL loyd
un pack
ĠPh ys
ĠOb j
Generated Code
Ġeigen values
CONNECT ION
Ġf Ã¼r
Ġinv olve
æĪ ·
lang uages
Ġent ers
ĠJer ry
it ual
M apped
Ġf usion
Illegal ArgumentException
ur d
Ġfin ance
Ġatt ending
Ġdiv ide
ograph ical
ĠFil ip
}, {
effect ive
Unmar shal
ND ER
Ġband width
OPER ATION
D escri
Ġback wards
P rem
Service Response
Ġrepeated ly
Ġre b
N B
amp a
51 20
Ġ" ../../
ãģ §
ĠRed ist
Ġdynam ical
ak o
To Int
first Name
ĠMor oc
pre sto
ĠInd ustrial
ĠC ant
ĠâĢ ¦
View Group
Sem antic
m vc
L ng
S a
Ġlab our
Ġa de
T AB
}} =
sub sec
ĠPack et
Ġf ires
Pro x
ĠCon sumer
Ġc oding
Ġcomp ress
RE SET
Ġdec ides
ann i
Ġc sv
ĠN ear
Ġfest ivals
d rip
get Response
Ġthere by
Ġcampaign s
dig it
More over
Ġdecre ases
ĠGh ana
Ġhe ter
Ġmer ely
With Error
Sep ar
Ø ¹
Ġselect ing
ingu ished
y t
ag ar
Ġst ere
cho ices
ĠI da
Ali ases
pe z
> ());
P ac
ĠAg reement
Ġb sl
C ancellationToken
im its
Node Type
Ġsec ured
F ort
Ã© d
Is rael
åĮ ħ
Ġem itted
Ġsim ulate
ĠMont ana
Ġsem antics
Ġth orough
ref ptr
De ps
Media Type
ĠV el
================================================================ ========
] []
18 4
Ġreported ly
Ġquadr atic
rit es
UI View
H old
d uplicate
r q
L ondon
ĠHis panic
ĠArab ia
e o
Ġin struct
Ġc rystal
assert NotNull
ĠH ave
Re ports
ĠAng lo
ĉĉĉ ĠĠ
Ġgram mar
ĠV oice
Ġtra its
R W
uc er
olog ists
_ %
f k
ĉĉ ĠĠĠĠ
Ġcontrib utor
$ ^{
h ana
Ġpos it
v tk
19 1
ï ¸
ap pear
Ġval uable
Ġerr no
Ġabb rev
Ġb uff
Ġsup pose
in tr
Ġf asc
J ose
ĠT ouch
amer as
MEDI A
Ġbon us
om ed
Ġdem olished
Ġb ath
ĠTrans fer
ĠCon tract
get Mock
An t
V o
unknown Fields
ĠCert ificate
Ġf iber
Ġnot ranslate
Al ways
Out line
m ul
Ġhydro gen
Ġsh ore
Ġle ase
ist ing
Que st
Ġextension Registry
ĠSTDMETHOD CALLTYPE
Ġb aby
Ġrun Test
config s
he ses
ar x
fl atten
Ġten ure
aud it
ĠLu is
Ġbut ter
Ġdisp ersion
Cont rollers
ĠUS ER
Ġbuffer ed
ĠTer ry
ĠW i
An ce
Ġuniform ly
Ġhor ses
è ĩ
ĠF riends
End points
Ġsurv iv
ĠB uch
Ð½ Ð°
è Ģ
ĉ ĠĠĠĠĠĠĠĠ
ul ers
ĠP aper
Ġtrans it
Ġorgan isations
. (*
p ersistent
Ġ Ú©
po ss
Ġc riterion
ĠP ATH
( -\
ax es
ĠKe ith
Spec s
ĠVo ivodeship
ĠM AC
De ferred
Ġmor al
Ġmaint aining
Ġlocomot ives
ĠP rag
hen g
Ġel igible
Ġclick ed
Ġre write
Ġpass ion
Ġview ers
ĠHer bert
v v
ĠH ob
V OL
In herit
No Error
St ored
che l
Ġ` /
Ġsett lements
ĠSign al
Ġleg s
it is
ap a
ph on
Ġviol ent
ĠDen ver
urn ey
f ancy
ĠC raig
Ġp yl
Ġ|| =
RESP ONSE
ĠK in
k al
B IG
M u
| --------------------------------------------------------------------------
ĠGr ace
Ġcombin ations
Ġm appings
us ive
ber ger
Ð ŀ
er ci
ĠC atherine
Ġtax es
J O
em e
uch y
HE IGHT
s ans
y u
Ġalgebra ic
Ġb ullet
Ġpredecess or
un install
ĠAss ign
Enumer ation
Ġtalk s
Ġin ventory
ĠCost a
h all
it ution
decl aration
Mark et
Ġart ificial
ĠBr is
Ġfarm ers
Ġcon sequences
Ġtr iggers
remove Child
Ġm ong
ĠM ade
ĠCont emporary
recomm ended
ĠCOL OR
ĠPen insula
Ġstats models
Test Utils
G ate
g ames
y ii
clo ver
Ġ! $
Fr ank
Ġbus y
Ġsp acing
w arded
iv y
ãģ Ħ
ĠT alk
Ġ\ *
Ġun f
l ifer
Field Value
ĠT ORT
ĠHig her
\ }\
Ġis omorphism
ĠE u
ĠHe brew
Ġread able
ĠTest Case
Gr and
Ġdoub t
Ġconj unction
ĠRe quire
US A
us hes
Ġg ra
ĠRed is
Ġy aml
(' ');
et e
C amp
br ight
Ġaffect s
as ant
Ġchar ity
ĠP H
h b
Ġt um
Ġco aching
Wh y
Ġstraight forward
st ride
Ġag gregation
akes pe
ĠS cope
P js
Un signed
Ġob st
test er
W alker
ĉ ĠĠĠĠĠĠĠĠĠ
ON Y
Ġbio logical
Ġst abil
ĠP le
CharacterOffset End
CharacterOffset Begin
ĠH ann
ENT S
Comb ine
Dis connect
Public Key
net beans
\ ;
ĠT x
normal ized
ĠEnc oding
Ex tr
38 6
Ġc rop
it r
Wh itespace
Ġc n
Ġpurs ue
Ðµ Ð´
Ġparticip ating
Ġ` "
Ġoption ally
ad itional
ĠD irection
Context Menu
ĠK el
Ġevol ved
Ġtri bes
Ġun successful
(' --
Effect s
h ssf
al ive
Ġk ube
Token izer
L atch
Ġleg it
ĠD yn
ĠS IG
use Summary
b enchmark
av ern
j ira
le asing
Ġimpro ving
Ġwatch ing
. -
ast rop
Config urations
u in
set Timeout
sol ved
ĠOver all
M ad
ĠL ost
Ġra ising
Ġshop ping
code haus
ĠEx it
Per formed
che f
ĠPh ysical
SS H
mix ins
un ed
Ġst ake
L ost
ĠB eck
fl ight
Ġpat rol
em b
com bo
ĠS ak
ĠMah ar
ĠD h
ins ky
17 3
åı £
W F
s am
Ġs oph
up on
P ID
lic an
p om
DEP TH
ï¸ ı
Frame buffer
ĠH amb
ĠBar celona
Ġadmin ister
Ġkeyboard s
s ched
B on
ma zing
ĠWeb Kit
az i
Ġs nap
c ke
Ġopp onent
Ġtermin ate
( |
As semb
QUE UE
Ġali ases
ĠSocial ist
Prototype Of
ĠLabor atory
Ġequ ally
ĠQ R
ot lin
Ġy ii
NS Integer
Ġhas n
Ġg all
Ġpo se
W ARD
ay er
get X
4 28
PA Y
Ġspe akers
ĠG arc
Re quires
Re cipe
quot a
: $
contact s
Sm ith
ar ial
Ġfoc using
Edit ing
ĠVER SION
Ġj ury
ĠVerm ont
Ġpos session
ĠPers ian
Br and
Ġre ven
Ġd os
ĠP ool
Ġun cle
24 5
xml ns
Ġc x
Ġinflu ences
ĠChristian ity
ĠW riter
18 58
LE G
he e
f ault
Ġt id
M ex
ren ces
ric ulum
Ġsuggest ing
Scott ish
s lots
F ly
P ot
title d
ĠUP DATE
4 32
Ġre min
Ġmuseum s
n ost
v out
ack ed
atern al
is pan
inv ocation
Ä Ĺ
ol ine
e lected
M and
ch apter
Ġad vis
ĠFour ier
}} ;
Ġdist inction
Ġwrest ling
Ġemotion al
et ches
Ġel lips
adv ance
in ic
Ġc am
Ġcommit ment
Ġmanag es
Ġwe aring
P iece
22 22
Ġch ip
Ġdef ending
Ġrepro duce
Ġc argo
ĠEn umer
ĠGerm ans
Ã °
av an
c ould
system s
clip board
Group Layout
Ġdescri ptions
bo at
Ġsit ting
df p
ĠMad ison
8 64
s ms
Ġch ained
r type
Ġill ness
ĠN ET
do ja
diag ram
/ <
le z
il ia
ull ivan
`` ,
Ġcons olid
do ctype
gro ovy
Ġb ubble
ĠUE FA
p it
Over rides
param name
ĠSing les
{ '
Ġa z
ME T
Ġparse Float
IFI CATION
Im m
ĠNot ify
Ġcon dem
start ing
Ġph on
f its
ov en
e u
Ġ Ïĥ
as ym
Ġ* >(
Ġclo thing
Ġtoler ance
Ġdiff usion
FO RE
ĠKen ya
ĠE lect
msg s
writ able
ĠPsy cho
Sh ip
ĠTo String
akespe are
Ġcontract s
J et
is cal
ä½ ľ
ĠMean while
F acebook
ing o
Up dater
Method Call
Ġsplit ting
) ],
Ġre fin
und ertow
ST AR
I CT
ĠM all
ĠJ ess
s omething
ĠB ear
Big Decimal
$ ^
co lour
AI LABLE
Configure Await
Ù ¾
tr fs
Ġch a
^{ *
ĠB ird
request ed
ĠLar ry
CATE G
T witter
Cont ain
Ġaccept able
Ġel astic
inter op
ci pl
ĠWat son
j on
æ ı
chi at
da emon
Ð°Ð ¹
ent ine
. ';
OR IZ
NO OP
arr ison
col lector
Tim ing
front end
BIT S
ITER AL
ĠS ad
Ġclass ifier
Ġin complete
Col on
Ġdescend ants
Ġfluct uations
ĠT on
Ģ </
ĠMock ito
t ro
gress ive
check point
EX IT
base line
ĠDrag on
CH O
ĠAt hens
ĠSH A
Measure ment
S ales
Ð°Ð ¼
N ING
Mod ern
Ġcheck box
l ime
Sp in
track ing
Value Error
spher ic
c gi
Ġp arks
bro ker
r age
n of
au kee
multi row
Ġcombin ing
M ur
b h
Ġp name
Ġin fr
æĸ¹ æ³ķ
Ġmolec ules
4 20
en velope
Ġon Create
ĠCustom er
H ig
Ġcho osing
ĠH ugh
str action
ĠCall ing
dis covery
Christ ian
P or
ew ay
Ġans wers
w ang
to Have
Ġmon o
Ġit al
Ġextens ively
o lo
ENT ITY
ĠAv iation
Ġcontact s
Ġconfirm ation
Ġ= "
18 54
ĠStud ents
off ice
prov ide
Ġup loaded
<!-- [
ĠstringWith Format
Ġre built
Ġinf antry
D ns
ĠGon z
f printf
Ġm r
ĠS ame
ie fs
}} }\
Ġfre ed
G LE
st a
top ology
ro e
Ġtr uly
Writ ten
ķ ãĤ
content Type
v id
stud y
ĠS ex
ĠGuard ian
30 6
ĠAzerbai jan
Ġdisput e
Not Supported
T rap
ject ure
Ġcivil ian
h on
ub es
L V
ĠP atch
Ġadministr ator
L iter
l ishes
anc ers
Request Id
Ġr uby
}/ ${
=" &
ng doc
E lastic
Ġpeak s
Ġw ings
iagn osis
D N
P ic
ut ely
æł ĩ
ĠSerial ize
ç «
B ed
Ã ¯
Ġim perial
Ġspons ored
Ġtr ap
P airs
text Content
Ġuncertaint ies
ĠL ion
Let ter
ow ed
ĠArch ives
Ġsus pect
sent ence
( ?
Ð Ŀ
Priv ile
ĠED IT
ĠEl li
â ĪĴ
Ġpe oples
ro se
Ġconsum ers
; {
Ġd ock
Ġsl aves
Ġgrand father
C pu
Ġc lang
ĠA delaide
00 8
Ø§ ÙĨ
Ġev il
Ġsort ing
Ġdu o
ĠK ay
ĠSecond ary
m ile
g uest
Ġd up
Ġgr ain
cur y
Ġconj ug
Built in
m other
ce ded
Ġtr acing
Ġev ac
Ġelectric ity
ĠM ul
ling ton
uct or
ĠĠĠĠĠĠĠĠĠĠĠĠĠĠĠĠĠĠĠĠĠĠĠĠĠĠĠĠĠĠĠĠ ĠĠĠĠĠĠĠĠĠĠĠĠĠĠĠĠĠĠĠĠĠĠĠĠ
ym ore
ĠPh ase
Ġlat itude
Ġcros sed
Ġsympt oms
Ġt ier
Mag ic
ĠPhilipp ine
ĠBroadcast ing
M illiseconds
ham crest
Ġ ride
unders core
Ġarg ue
Inject or
Ġcom manded
h yd
Ġ\ ,\
Ġvol tage
S qu
ĠL LC
ĠHe avy
Ġphenomen on
2 15
get Width
oo f
Ġmonth ly
w izard
inst ancetype
j ump
Ġw orse
ĠLe banon
ĠROW SPAN
ĠS ig
Ġun translated
To k
Ġrock s
ĠLat ino
ĠH OLDER
Ġpl ural
0 39
Ġo w
}) ();
ĠPer ry
Lo ss
tal k
áĥ ĺ
FOR CE
C ube
g dx
In dividual
Ġcarri es
Ġgr ants
dat asets
Ġdialog ue
ĠS alt
Ġ' ?
Ġqual ifier
M eter
c rawler
or b
ĠPay ment
PROTO COL
Ġfra ud
f ielder
ĠM ig
cal cul
foot notes
ĠArgent ine
) --
Ġhighlight ed
Ġb ay
ĠAss ume
Sp inner
ĠHol land
Ġhom ogeneous
ĠL D
ĠPh oto
Ġdel imiter
H yper
post gres
PAT TERN
ĠG R
Ġim posed
Ġinter views
Exp iration
Ġlet s
V oice
get Properties
åı Ĥ
ĠS G
Ġorth ogonal
Ġind ustries
ĠThe od
embed ded
v ch
File system
Ġbo ats
stack rel
ĠG as
R m
est yle
plus plus
b pm
Ġl iv
get Size
Ġaffili ated
Ġpremi ere
p il
tern oon
Ġer ected
ĠB ath
ĠTim estamp
Ġswit ched
Fall back
Ġm eth
LA IM
ĠHel en
ĠN C
Ġengine ers
Ġconstruct ors
Ġdifficult ies
G UID
ĠN at
ĠMur phy
Ġt one
Ġm arch
ĠM ann
present ation
Pro cedure
× Ĺ
Code Analysis
custom ize
W ave
Ġtim eline
ĠScal a
att ened
ĠDel aware
Ġad vers
Relative Layout
Ġoc aml
18 55
Ġmy self
ĠOR DER
Ġupper case
Ġplay offs
gom ery
Ġt ap
17 1
Ġg ulp
ĠH av
ĠBer g
] ()
Ġus b
ie v
lin eno
fil ing
V IS
An ti
ĠC K
Ġdis ag
corre lation
Image Path
Ġmark ers
Ġ× ľ
Ġflo od
Spe aker
ĠD one
ĠStan ford
lott ed
Ġvar ies
ĠRog ers
ĠEth iop
leg iate
Ġt b
Ġprote ins
ĠNep al
åĪ Ĺ
ins pection
Ġpreced ing
( #
M arg
Ġperturb ation
M odes
ĠC incinnati
Ġab sent
Ġre located
17 4
ĠN ASA
v ote
r fc
ĠP enn
ĠW u
ĠEX ISTS
Ġnot ing
Ġsl ides
unct uation
ĠS core
ĠT ang
ĠUn ique
33 7
ĠHel vetica
Ġbl ind
ç İ
ĠR ivers
Ġtraject ory
Ġprov inces
ĠGil bert
ĠP icture
ĠIdent ifier
is y
get ter
Ġon Changed
key Set
ĠCom merce
Ġcon sect
Ġ( +
ĠTo gether
Embed ded
en queue
ĠD ol
17 9
ĠPol l
un s
ond s
D RI
ÑĢ Ñĥ
Ġsax oph
Ġed itions
B ubble
c orn
ĠN AT
Ġmiddle ware
z t
iv ar
Ġview er
Ġan ten
Ġown s
vari ants
ĠP rest
Ġal liance
Ġdirect ives
Ġz ones
Ġz eros
ĠAt tempt
Author ity
design ated
c wd
part icip
uc le
UN I
C e
lic h
Ġswitch ing
=' /
dat atype
Film ography
J ump
in ventory
So ap
ĠScient ific
ĠPar alym
Ġg re
tx fee
b oun
class ifier
× ł
ĠProv ides
qu iet
Ġas h
last Name
Ar ticles
s ar
Ġp icker
ur ator
th y
ĠGe ometry
w aukee
í ķ
ĠR ules
ĠBe an
illi e
f und
18 56
search box
uck er
Ġ é
ic us
AT T
Ġ Ùħ
Football ers
part icles
hand les
Ġdiag no
Ġspher ical
ne ver
J Unit
ut ures
Ġcontin uum
ĠN HL
Ġun changed
Ġcont ested
Ġsl ug
Ġneighbor ing
do jo
äº Ĩ
SE CTION
Ġpar ad
Ġc mp
the s
Ð°Ð ·
Ġextr action
f el
ÑĢ Ð¾Ð²
multip ly
qu ate
Ex panded
Ġacceler ation
Ġvir us
bit Field
ĠFl ash
B eta
ĠR idge
eta iled
ent ric
Ġb orrow
Ġ$ <
Ġpl acing
Ġtrad itions
Ġadjust ed
ĠM ort
App lications
Data Provider
Austral ia
() ");
ĠSh aw
tr an
Ġsubsid iary
M essaging
ĠB ul
Ġrat ios
d os
Un safe
TRANSL ATE
Ã¡ l
Ð°Ð ¿
c oder
ĠB LOCK
ĠU lt
ĠDiv is
ĠInter rupt
sem antic
ch k
AD C
Ġex pose
Ġmin es
Ġport folio
ç º
}$ }
Ġs r
Run With
ĠEcon omics
I CON
Ġp ic
E poch
du ces
ee ee
Ġinaug ural
ĠRET URN
S pect
d to
havi our
Ġp block
ĠIns pector
Resource Manager
U k
Or Create
iter ate
h orn
an other
min ster
ĠWork ers
åĽ ¾
in z
ens en
Ġf lip
ne o
Ġpl asma
cred its
ĠSy rian
Ġemph asis
= ="
S quare
b ib
cess ion
P LAY
ĠCh ap
$ ("#
k el
W ho
dis p
ĠFish er
Ġwed ding
Ġover head
ĠHe aders
Ã© es
18 1
ship ping
CRE T
Ġ icons
iber nate
Sk in
\ +
__ ))
ĠY ale
äº İ
con version
Po ssible
ĠAUT O
Ġsculpt ure
Ġintr insic
ĠG ay
h aving
Ġbirth day
p R
t lement
ĠÃ ģ
ĠAir lines
Ġh orizon
ĠJo y
Ð¾Ð ¹
Ġl ights
Ġprom oting
18 9
Nav igator
Ġunit test
Ġaux iliary
v l
ra h
Ġget Id
ĠR F
Tem porary
c ott
et ta
jet ty
Ġi e
ĠRem ember
Ġp ane
Fr ance
ĠS or
################################ ################################
C ities
ĠL A
Pass phrase
ie vement
Contact s
Ġc u
18 47
">( <
Ġn it
com merce
E OL
check s
/ ><
22 6
Ġm c
Res olved
Ġform ulation
ĠPart ners
Ġorigin ated
Ġinsp iration
å ŀ
In coming
åĲ İ
NON YM
Ġnick name
R ivers
ĠMon itor
BO OLEAN
Sp ark
dec rypt
Order By
Ġestim ator
Ġz a
Ġform ations
Ġcorre ctions
urs ing
ĠPalest inian
Not ice
Ġorgan ised
ĠS ony
prot ect
ĠB arr
iv ariate
æī Ģ
UIT ableView
ĠNever theless
put s
br ane
j ack
Ġt iles
it ud
Asset ic
ĠP Y
F und
ft ime
b ie
ĠL ux
ĠIce land
is Not
Ġen abling
Ġlink ing
w av
ĠMy SQL
quick fix
ĠCh a
check sum
Ġa rena
ind a
Reg ions
Ġc ogn
gr and
CG Rect
former ly
ro at
Ġrep os
NS URL
Ø§ ÙĦ
Ġfor g
est imate
Ġr ated
wn d
based ir
">< ?
Ġa ui
Ġcomp anion
ur istic
å» º
db us
Sup pose
ĠFoot notes
ĠS Ã£o
pre pend
Ġtext area
è¿Ķ åĽŀ
power ed
X i
ij it
O ID
S AT
en es
Ġmut ual
ethe us
res erved
mitte es
$ {\
c ube
Ġw elcome
== '
Pro be
Ġdis miss
****** *
ÃĳÃĳ ÃĳÃĳ
R ock
j ud
n is
Ġde letion
Ġmurder ed
in ia
comp ression
call er
ĠL arge
ĠIn dependence
Ġem igrants
r anges
E A
Tr ansp
agr ang
Ġh ass
22 1
ĠInv oke
(' ../../
year s
Ġprotocol s
2 14
ĠB ert
CLO SE
ĠDest roy
ĠG B
Primary Key
ĠC ancel
ĠP RE
Ġr ig
~~ ~
it ness
document Element
ĠC annot
Ġco oper
44 4
Ïĥ Î·
ĠProduction s
G ar
d rome
Ġtr aded
Ġtrans verse
Ġdist ort
Pre par
ĠArmen ian
ĠM s
Writ ers
P F
Ġglob ally
ĠOver ride
Wait ing
$ '
ring ton
HP P
ĠCroat ia
# [
User Data
VISI BLE
al er
Death s
Ġcrick eter
Does Not
") [
ĠE ither
Ġencour age
ĠT as
Ġ' .'
ener ated
Key Event
ĠCom mit
Ġc rypto
Comp anies
Ġpal ace
Î ´
Ġn d
ĠY O
... ");
pe ek
88 59
VAR CHAR
ĠW alt
ĠSpec ify
Re public
Rob ot
cond itional
deep Equal
E MAIL
ĠT oy
Ġconsum ed
3 64
P x
ĠDis k
ĠSim ilar
art a
SY NONYM
n Height
Ġp references
Ġsk i
ĠFor ward
ĠScot ia
li o
ĠH unt
property Name
ĠIm ages
romag netic
al ready
ĠAn aly
Integer Field
Ġpay ing
uch i
ĠE lastic
à¤ ¿
Ġup stream
me eting
CL K
18 52
ĠFe b
sort able
raz y
is In
ĠA uckland
ni h
comp ilation
illi an
ĠTime out
R aster
Ġg p
ĠD uration
u ced
H i
| _
Ġre actions
get Entity
[...]
