{
  "version": "1.0",
  "truncation": null,
  "padding": null,
  "added_tokens": [
    {
      "id": 0,
      "content": "[UNK]",
      "single_word": false,
      "lstrip": false,
      "rstrip": false,
      "normalized": false,
      "special": true
    }
  ],
  "normalizer": null,
  "pre_tokenizer": {
    "type": "Sequence",
    "pretokenizers": [
      {
        "type": "Digits",
        "individual_digits": false
      },
      {
        "type": "ByteLevel",
        "add_prefix_space": false,
        "trim_offsets": true,
        "use_regex": true
      }
    ]
  },
  "post_processor": null,
  "decoder": null,
  "model": {
    "type": "BPE",
    "dropout": null,
    "unk_token": "[UNK]",
    "continuing_subword_prefix": null,
    "end_of_word_suffix": null,
    "fuse_unk": false,
    "byte_fallback": false,
    "vocab": {
      "[UNK]": 0,
      "!": 1,
      "\"": 2,
      "#": 3,
      "$": 4,
      "%": 5,
      "&": 6,
      "'": 7,
      "(": 8,
      ")": 9,
      "*": 10,
      "+": 11,
      ",": 12,
      "-": 13,
      ".": 14,
      "/": 15,
      "0": 16,
      "1": 17,
      "2": 18,
      "3": 19,
      "4": 20,
      "5": 21,
      "6": 22,
      "7": 23,
      "8": 24,
      "9": 25,
      ":": 26,
      ";": 27,
      "<": 28,
      "=": 29,
      ">": 30,
      "?": 31,
      "@": 32,
      "A": 33,
      "B": 34,
      "C": 35,
      "D": 36,
      "E": 37,
      "F": 38,
      "G": 39,
      "H": 40,
      "I": 41,
      "J": 42,
      "K": 43,
      "L": 44,
      "M": 45,
      "N": 46,
      "O": 47,
      "P": 48,
      "Q": 49,
      "R": 50,
      "S": 51,
      "T": 52,
      "U": 53,
      "V": 54,
      "W": 55,
      "X": 56,
      "Y": 57,
      "Z": 58,
      "[": 59,
      "\\": 60,
      "]": 61,
      "^": 62,
      "_": 63,
      "`": 64,
      "a": 65,
      "b": 66,
      "c": 67,
      "d": 68,
      "e": 69,
      "f": 70,
      "g": 71,
      "h": 72,
      "i": 73,
      "j": 74,
      "k": 75,
      "l": 76,
      "m": 77,
      "n": 78,
      "o": 79,
      "p": 80,
      "q": 81,
      "r": 82,
      "s": 83,
      "t": 84,
      "u": 85,
      "v": 86,
      "w": 87,
      "x": 88,
      "y": 89,
      "z": 90,
      "{": 91,
      "|": 92,
      "}": 93,
      "~": 94,
      "¡": 95,
      "¢": 96,
      "£": 97,
      "¤": 98,
      "¥": 99,
      "¦": 100,
      "§": 101,
      "¨": 102,
      "©": 103,
      "ª": 104,
      "«": 105,
      "¬": 106,
      "®": 107,
      "¯": 108,
      "°": 109,
      "±": 110,
      "²": 111,
      "³": 112,
      "´": 113,
      "µ": 114,
      "¶": 115,
      "·": 116,
      "¸": 117,
      "¹": 118,
      "º": 119,
      "»": 120,
      "¼": 121,
      "½": 122,
      "¾": 123,
      "¿": 124,
      "Â": 125,
      "Ã": 126,
      "Ä": 127,
      "Å": 128,
      "Æ": 129,
      "Ç": 130,
      "È": 131,
      "É": 132,
      "Ê": 133,
      "Ë": 134,
      "Ì": 135,
      "Í": 136,
      "Î": 137,
      "Ï": 138,
      "Ð": 139,
      "Ñ": 140,
      "Ò": 141,
      "Ó": 142,
      "Ô": 143,
      "Õ": 144,
      "Ö": 145,
      "×": 146,
      "Ø": 147,
      "Ù": 148,
      "Ú": 149,
      "Û": 150,
      "Ü": 151,
      "Ý": 152,
      "Þ": 153,
      "ß": 154,
      "à": 155,
      "á": 156,
      "â": 157,
      "ã": 158,
      "ä": 159,
      "å": 160,
      "æ": 161,
      "ç": 162,
      "è": 163,
      "é": 164,
      "ê": 165,
      "ë": 166,
      "ì": 167,
      "í": 168,
      "î": 169,
      "ï": 170,
      "ð": 171,
      "ñ": 172,
      "ó": 173,
      "ô": 174,
      "Ā": 175,
      "ā": 176,
      "Ă": 177,
      "ă": 178,
      "Ą": 179,
      "ą": 180,
      "Ć": 181,
      "ć": 182,
      "Ĉ": 183,
      "ĉ": 184,
      "Ċ": 185,
      "ċ": 186,
      "Č": 187,
      "č": 188,
      "Ď": 189,
      "ď": 190,
      "Đ": 191,
      "đ": 192,
      "Ē": 193,
      "ē": 194,
      "Ĕ": 195,
      "ĕ": 196,
      "Ė": 197,
      "ė": 198,
      "Ę": 199,
      "ę": 200,
      "Ě": 201,
      "ě": 202,
      "Ĝ": 203,
      "ĝ": 204,
      "Ğ": 205,
      "ğ": 206,
      "Ġ": 207,
      "ġ": 208,
      "Ģ": 209,
      "ģ": 210,
      "Ĥ": 211,
      "ĥ": 212,
      "Ħ": 213,
      "ħ": 214,
      "Ĩ": 215,
      "ĩ": 216,
      "Ī": 217,
      "ī": 218,
      "Ĭ": 219,
      "ĭ": 220,
      "Į": 221,
      "į": 222,
      "İ": 223,
      "ı": 224,
      "Ĳ": 225,
      "ĳ": 226,
      "Ĵ": 227,
      "ĵ": 228,
      "Ķ": 229,
      "ķ": 230,
      "ĸ": 231,
      "Ĺ": 232,
      "ĺ": 233,
      "Ļ": 234,
      "ļ": 235,
      "Ľ": 236,
      "ľ": 237,
      "Ŀ": 238,
      "ŀ": 239,
      "Ł": 240,
      "ł": 241,
      "Ń": 242,
      "ĠĠ": 243,
      "ĠĠĠĠ": 244,
      "in": 245,
      "er": 246,
      "on": 247,
      "Ġt": 248,
      "ĠĠĠ": 249,
      "re": 250,
      "at": 251,
      "ĠĠĠĠĠĠĠĠ": 252,
      "an": 253,
      "he": 254,
      "st": 255,
      "en": 256,
      "or": 257,
      "al": 258,
      "ar": 259,
      "le": 260,
      "ion": 261,
      "Ġc": 262,
      "it": 263,
      "se": 264,
      "Ġthe": 265,
      "es": 266,
      "Ġa": 267,
      "is": 268,
      "Ġf": 269,
      "ro": 270,
      "ĠĠĠĠĠĠĠ": 271,
      "ic": 272,
      "de": 273,
      "ing": 274,
      "Ġo": 275,
      "ct": 276,
      "Ġp": 277,
      "ed": 278,
      "as": 279,
      "am": 280,
      "Ġw": 281,
      "Ġs": 282,
      "et": 283,
      "Ġin": 284,
      "Ġ=": 285,
      "Ġb": 286,
      "ur": 287,
      "ent": 288,
      "ĉĉ": 289,
      "</": 290,
      "and": 291,
      "=\"": 292,
      "un": 293,
      "Ġof": 294,
      ");": 295,
      "ut": 296,
      "Ġm": 297,
      "Ġn": 298,
      "Ġre": 299,
      "ce": 300,
      "il": 301,
      "Ġ(": 302,
      "om": 303,
      "--": 304,
      "Ġ<": 305,
      "Ġ{": 306,
      "lo": 307,
      "id": 308,
      "ation": 309,
      "Ġto": 310,
      "ĠĠĠĠĠĠĠĠĠĠĠ": 311,
      "im": 312,
      "ol": 313,
      "Ġand": 314,
      "ul": 315,
      "ag": 316,
      "ig": 317,
      "Ġh": 318,
      "el": 319,
      "//": 320,
      "ĠS": 321,
      "Ġd": 322,
      "if": 323,
      "ex": 324,
      "iv": 325,
      "Ġ*": 326,
      "ad": 327,
      "ot": 328,
      "Ġth": 329,
      "čĊ": 330,
      "ac": 331,
      "tr": 332,
      "pe": 333,
      "ĠC": 334,
      "ĠT": 335,
      "ate": 336,
      "ue": 337,
      "Ġv": 338,
      "ass": 339,
      "ĠA": 340,
      "\">": 341,
      "Ġ}": 342,
      "em": 343,
      "pt": 344,
      "th": 345,
      "ame": 346,
      "ab": 347,
      "um": 348,
      "li": 349,
      "ch": 350,
      "Ġ\"": 351,
      "us": 352,
      "ay": 353,
      "Ġst": 354,
      "lass": 355,
      "ĠĠĠĠĠĠĠĠĠĠĠĠĠĠĠĠ": 356,
      "ap": 357,
      "Ġ$": 358,
      "ction": 359,
      "In": 360,
      "()": 361,
      "ers": 362,
      "ht": 363,
      "ĠĠĠĠĠ": 364,
      "ub": 365,
      "Ġis": 366,
      "Ġg": 367,
      "age": 368,
      "**": 369,
      "ter": 370,
      "ĠM": 371,
      "Ġfor": 372,
      "ode": 373,
      "Ġl": 374,
      "urn": 375,
      "ont": 376,
      "ew": 377,
      "ist": 378,
      "av": 379,
      "sp": 380,
      "ĠP": 381,
      "ri": 382,
      "all": 383,
      "od": 384,
      "ir": 385,
      "ort": 386,
      "Ġse": 387,
      "ess": 388,
      "end": 389,
      "==": 390,
      "ith": 391,
      "----": 392,
      "up": 393,
      "ype": 394,
      "ss": 395,
      "turn": 396,
      "qu": 397,
      "Ġclass": 398,
      "ĠB": 399,
      "ext": 400,
      "Ġde": 401,
      "ver": 402,
      "ect": 403,
      "Ġ\\": 404,
      "est": 405,
      "ĠR": 406,
      "ow": 407,
      "our": 408,
      "Ġon": 409,
      "Ġ'": 410,
      "..": 411,
      "ĠD": 412,
      "00": 413,
      "Ġbe": 414,
      "get": 415,
      "Ġe": 416,
      "ine": 417,
      "oc": 418,
      "ĠL": 419,
      "ĠĠĠĠĠĠĠĠĠĠĠĠĠĠĠ": 420,
      "op": 421,
      "lic": 422,
      "ĠF": 423,
      "ĠN": 424,
      "Ġif": 425,
      "ĠH": 426,
      "able": 427,
      "ment": 428,
      "ain": 429,
      "Ġcon": 430,
      "iz": 431,
      "ly": 432,
      "art": 433,
      "port": 434,
      "ase": 435,
      "ĠI": 436,
      "ack": 437,
      "ile": 438,
      "ult": 439,
      "rom": 440,
      "->": 441,
      "ption": 442,
      "ĠG": 443,
      "oun": 444,
      "19": 445,
      "Ġ//": 446,
      "ĠE": 447,
      "ert": 448,
      "ref": 449,
      "ans": 450,
      "loc": 451,
      "str": 452,
      "ĉĉĉĉ": 453,
      "Ġ</": 454,
      "Ġwith": 455,
      "Ġreturn": 456,
      "ata": 457,
      "Ġthis": 458,
      "ke": 459,
      "ity": 460,
      "ath": 461,
      "Ġpro": 462,
      "::": 463,
      "omp": 464,
      "../": 465,
      "Ġas": 466,
      "ore": 467,
      "alue": 468,
      "ure": 469,
      "int": 470,
      "ang": 471,
      "ĠThe": 472,
      "ĠW": 473,
      "Re": 474,
      "Ġan": 475,
      "con": 476,
      "Ġthat": 477,
      "Ġr": 478,
      "der": 479,
      "ource": 480,
      "ight": 481,
      "Ġwas": 482,
      "Ġor": 483,
      "orm": 484,
      "Ġ&": 485,
      "Ġby": 486,
      "20": 487,
      "ject": 488,
      "ĠO": 489,
      "os": 490,
      "Ġwh": 491,
      "Ġ@": 492,
      "Ġtr": 493,
      "use": 494,
      "Ġex": 495,
      "ublic": 496,
      "Ġit": 497,
      "\",": 498,
      "ml": 499,
      "set": 500,
      "Ġ[": 501,
      "(\"": 502,
      "pl": 503,
      "ff": 504,
      "Ġal": 505,
      "act": 506,
      "unction": 507,
      "out": 508,
      "aram": 509,
      "âĢ": 510,
      "ial": 511,
      "();": 512,
      "ace": 513,
      "ive": 514,
      "St": 515,
      "ary": 516,
      "Ġ-": 517,
      "essage": 518,
      "ere": 519,
      "Ġat": 520,
      "ies": 521,
      "ĠĊ": 522,
      "></": 523,
      "res": 524,
      "div": 525,
      "pro": 526,
      "ug": 527,
      "ber": 528,
      "span": 529,
      "Ġfrom": 530,
      "Ġ/": 531,
      "ren": 532,
      "ip": 533,
      "to": 534,
      "ant": 535,
      "),": 536,
      "tring": 537,
      "ast": 538,
      "ĠJ": 539,
      "ire": 540,
      "><": 541,
      "ib": 542,
      "ĠU": 543,
      "cri": 544,
      "--------": 545,
      "lf": 546,
      "Ġ+": 547,
      "',": 548,
      "ull": 549,
      "ign": 550,
      "Ex": 551,
      "oo": 552,
      ").": 553,
      "ated": 554,
      "ime": 555,
      "Ġnew": 556,
      "../../": 557,
      "cl": 558,
      "ve": 559,
      "ill": 560,
      "ind": 561,
      "ize": 562,
      "Ġch": 563,
      "ition": 564,
      "****": 565,
      "ĠIn": 566,
      "per": 567,
      "Ġ*/": 568,
      "eg": 569,
      "ice": 570,
      "dd": 571,
      "source": 572,
      "com": 573,
      "ite": 574,
      "Ġ|": 575,
      "ĉĉĉ": 576,
      "Ġun": 577,
      "bject": 578,
      "====": 579,
      "import": 580,
      "Ġhe": 581,
      "ser": 582,
      "html": 583,
      "ĠĠĠĠĠĠĠĠĠĠĠĠĠĠĠĠĠĠĠ": 584,
      "Ġhref": 585,
      "Ġ.": 586,
      "Ġname": 587,
      "que": 588,
      "arg": 589,
      "_{": 590,
      "ard": 591,
      "form": 592,
      "row": 593,
      "Ġare": 594,
      "put": 595,
      "Ġ:": 596,
      "'s": 597,
      "Ġy": 598,
      "ance": 599,
      "('": 600,
      "Ġnot": 601,
      "Ġpublic": 602,
      "ord": 603,
      "ĠĠĠĠĠĠĠĠĠ": 604,
      "name": 605,
      "vent": 606,
      "ory": 607,
      "ror": 608,
      "this": 609,
      "low": 610,
      "ong": 611,
      "ia": 612,
      "message": 613,
      "cc": 614,
      "Name": 615,
      "ost": 616,
      "ust": 617,
      "io": 618,
      "let": 619,
      "oid": 620,
      "sh": 621,
      "ll": 622,
      "ĠV": 623,
      "fig": 624,
      "ak": 625,
      "Pro": 626,
      "ft": 627,
      "iel": 628,
      "Ġj": 629,
      "Ġfunction": 630,
      "code": 631,
      "Ġstr": 632,
      "Ġcont": 633,
      "ud": 634,
      "ork": 635,
      "Ġsh": 636,
      "ma": 637,
      "))": 638,
      "trans": 639,
      "ide": 640,
      "Type": 641,
      "iew": 642,
      "ĠK": 643,
      "are": 644,
      "ph": 645,
      "Ġ=>": 646,
      "ield": 647,
      "ER": 648,
      "one": 649,
      "tp": 650,
      "td": 651,
      "lation": 652,
      "ink": 653,
      "lement": 654,
      "String": 655,
      "Ġ_": 656,
      "ount": 657,
      "201": 658,
      "Id": 659,
      "ra": 660,
      "fer": 661,
      "param": 662,
      "enc": 663,
      "Ġ#": 664,
      "ray": 665,
      "ich": 666,
      "alse": 667,
      "The": 668,
      "pp": 669,
      "ON": 670,
      "ild": 671,
      "rent": 672,
      "amp": 673,
      "Ġtype": 674,
      "ec": 675,
      "dex": 676,
      "Ġcom": 677,
      "ress": 678,
      "def": 679,
      "log": 680,
      "Con": 681,
      "che": 682,
      "ail": 683,
      "return": 684,
      "ener": 685,
      "Ġle": 686,
      "Ġdef": 687,
      "Ġcomp": 688,
      "ens": 689,
      "og": 690,
      "eth": 691,
      "key": 692,
      "/>": 693,
      "IN": 694,
      "Ġint": 695,
      "ator": 696,
      "Ġwe": 697,
      "ave": 698,
      "Ġvar": 699,
      "Ġpl": 700,
      "atic": 701,
      "quest": 702,
      "so": 703,
      "ence": 704,
      "tern": 705,
      "Ġres": 706,
      "Cont": 707,
      "cont": 708,
      "lock": 709,
      "uct": 710,
      "col": 711,
      "\"/>": 712,
      "ck": 713,
      "les": 714,
      "Ġvalue": 715,
      "cript": 716,
      "ĠSt": 717,
      "200": 718,
      "En": 719,
      "##": 720,
      "Ġset": 721,
      "Ġget": 722,
      "ge": 723,
      "roup": 724,
      "De": 725,
      "ded": 726,
      "riv": 727,
      "translation": 728,
      "Ġ!": 729,
      "ach": 730,
      "âĢĵ": 731,
      "{\\": 732,
      "vice": 733,
      "own": 734,
      "type": 735,
      "lect": 736,
      "ool": 737,
      "und": 738,
      "ian": 739,
      "ry": 740,
      "hen": 741,
      "odel": 742,
      "List": 743,
      "list": 744,
      "inal": 745,
      "Ġ||": 746,
      "app": 747,
      "yst": 748,
      "oul": 749,
      "ell": 750,
      "Res": 751,
      "ethod": 752,
      "RE": 753,
      "eng": 754,
      "pert": 755,
      "fo": 756,
      "ache": 757,
      "Ġuse": 758,
      "irst": 759,
      "Ġself": 760,
      "ĠTh": 761,
      "Ġ==": 762,
      "add": 763,
      "atch": 764,
      "10": 765,
      "ault": 766,
      "ix": 767,
      "Ġk": 768,
      "ception": 769,
      "ument": 770,
      "ations": 771,
      "ov": 772,
      "ree": 773,
      "ould": 774,
      "text": 775,
      "ery": 776,
      "ystem": 777,
      "cre": 778,
      "__": 779,
      "itle": 780,
      "ear": 781,
      "ound": 782,
      "ep": 783,
      "Ġconst": 784,
      "ally": 785,
      "Ġnull": 786,
      "Ġline": 787,
      "ames": 788,
      "Ġ$\\": 789,
      "ax": 790,
      "val": 791,
      "ther": 792,
      "Ġvoid": 793,
      "abel": 794,
      "To": 795,
      "ute": 796,
      "18": 797,
      "ish": 798,
      "Ġwhich": 799,
      "://": 800,
      "class": 801,
      "ob": 802,
      "pec": 803,
      "\"><": 804,
      "ST": 805,
      "Ġhas": 806,
      "Ġel": 807,
      "ical": 808,
      "Ġar": 809,
      "yn": 810,
      "over": 811,
      "ĠCh": 812,
      "Ġcan": 813,
      "oint": 814,
      "rit": 815,
      "math": 816,
      "bo": 817,
      "Ġdo": 818,
      "cal": 819,
      "ersion": 820,
      "we": 821,
      "Ġid": 822,
      "fr": 823,
      "Ch": 824,
      "ict": 825,
      "Ġdata": 826,
      "pr": 827,
      "rap": 828,
      "AT": 829,
      "));": 830,
      "ne": 831,
      "Ġfalse": 832,
      "ark": 833,
      "string": 834,
      "http": 835,
      "////": 836,
      "Ġhis": 837,
      "Ġi": 838,
      "Ġus": 839,
      "\");": 840,
      "umber": 841,
      "ĠĠĠĠĠĠĠĠĠĠĠĠĠĠĠĠĠĠĠĠĠĠĠ": 842,
      "ĠĠĠĠĠĠĠĠĠĠĠĠĠ": 843,
      "ader": 844,
      "Ar": 845,
      "Ġ`": 846,
      "line": 847,
      "pect": 848,
      "var": 849,
      "ou": 850,
      "sed": 851,
      "ie": 852,
      "----------------": 853,
      "OR": 854,
      "ates": 855,
      "Ġcol": 856,
      "sum": 857,
      "ange": 858,
      "location": 859,
      "********": 860,
      "Ġer": 861,
      "mer": 862,
      "},": 863,
      "Ġ>": 864,
      "rivate": 865,
      "ses": 866,
      "trib": 867,
      "Ġim": 868,
      "self": 869,
      "LE": 870,
      "Ġser": 871,
      "du": 872,
      "led": 873,
      "te": 874,
      "Value": 875,
      "ings": 876,
      "Ġro": 877,
      "ock": 878,
      "ava": 879,
      "data": 880,
      "her": 881,
      "Ġass": 882,
      "):": 883,
      "js": 884,
      "idth": 885,
      "qual": 886,
      "Ġtrue": 887,
      "tem": 888,
      "}}": 889,
      "12": 890,
      "Data": 891,
      "Ser": 892,
      "Ġout": 893,
      "Ġhave": 894,
      "min": 895,
      "ton": 896,
      "ptions": 897,
      "ey": 898,
      "ID": 899,
      "ual": 900,
      "Ġ)": 901,
      "AR": 902,
      "co": 903,
      "nb": 904,
      "Tr": 905,
      "Ġend": 906,
      "Col": 907,
      "ld": 908,
      "back": 909,
      "lient": 910,
      "br": 911,
      "file": 912,
      "Ġelse": 913,
      "ĠUn": 914,
      "px": 915,
      "Ġall": 916,
      "yle": 917,
      "clu": 918,
      "ength": 919,
      "urrent": 920,
      "ms": 921,
      "ask": 922,
      "ann": 923,
      "\")": 924,
      "pre": 925,
      "ome": 926,
      "value": 927,
      "Ġdis": 928,
      "Ġup": 929,
      "Ġ/**": 930,
      "16": 931,
      "org": 932,
      "ifi": 933,
      "Set": 934,
      "perty": 935,
      "ions": 936,
      "EN": 937,
      "Ġalso": 938,
      "nbsp": 939,
      "AL": 940,
      "arch": 941,
      "right": 942,
      "========": 943,
      "ule": 944,
      "Ġstring": 945,
      "Ġwere": 946,
      "ics": 947,
      "uff": 948,
      "iss": 949,
      "Exception": 950,
      "onse": 951,
      "];": 952,
      "ĠĠĠĠĠĠ": 953,
      "ĠĠĠĠĠĠĠĠĠĠĠĠĠĠĠĠĠĠĠĠĠĠĠĠĠĠĠĠĠĠĠĠ": 954,
      "Ġ--": 955,
      "read": 956,
      "rror": 957,
      "($": 958,
      "aw": 959,
      "ember": 960,
      "ater": 961,
      "fter": 962,
      "^{": 963,
      "Ġpart": 964,
      "Ġ&&": 965,
      "Ġresult": 966,
      "hed": 967,
      "ick": 968,
      "Ġorg": 969,
      "date": 970,
      "arget": 971,
      "Ġ///": 972,
      "Th": 973,
      "ternal": 974,
      "roid": 975,
      "Ġper": 976,
      "SS": 977,
      "Ġstatic": 978,
      "pace": 979,
      "ific": 980,
      "Ġab": 981,
      "anag": 982,
      "of": 983,
      "escri": 984,
      "Object": 985,
      "ake": 986,
      "lection": 987,
      "Ġwill": 988,
      "stance": 989,
      "old": 990,
      "Test": 991,
      "ĠY": 992,
      "ym": 993,
      "Ġone": 994,
      "Ġadd": 995,
      "Ġbut": 996,
      "Ġval": 997,
      "}$": 998,
      "quire": 999,
      "ove": 1000,
      "bar": 1001,
      "Ġfirst": 1002,
      "ĠString": 1003,
      "Comp": 1004,
      "ature": 1005,
      "item": 1006,
      "yp": 1007,
      "ues": 1008,
      "ash": 1009,
      "}\\": 1010,
      "Ġfile": 1011,
      "An": 1012,
      "().": 1013,
      "ĠAr": 1014,
      "mary": 1015,
      "Ġlo": 1016,
      "irect": 1017,
      "test": 1018,
      "Ġ!=": 1019,
      "comp": 1020,
      "ta": 1021,
      "Se": 1022,
      "Ġpre": 1023,
      "')": 1024,
      "ccess": 1025,
      "wo": 1026,
      "ook": 1027,
      "ents": 1028,
      "Error": 1029,
      "Ġtest": 1030,
      "cess": 1031,
      "ca": 1032,
      "Un": 1033,
      "new": 1034,
      "());": 1035,
      "rc": 1036,
      "size": 1037,
      "Get": 1038,
      "clude": 1039,
      "osition": 1040,
      "']": 1041,
      "atus": 1042,
      "Ġen": 1043,
      "ĠRe": 1044,
      "the": 1045,
      "ĠAn": 1046,
      "ugh": 1047,
      "gr": 1048,
      "cond": 1049,
      "ĉĉĉĉĉ": 1050,
      "DE": 1051,
      "Ġ%": 1052,
      "mand": 1053,
      "eta": 1054,
      "Ġover": 1055,
      "be": 1056,
      "egin": 1057,
      "Ġcre": 1058,
      "ative": 1059,
      "._": 1060,
      ".</": 1061,
      "Ġx": 1062,
      "uch": 1063,
      "public": 1064,
      "til": 1065,
      "uild": 1066,
      "link": 1067,
      "ces": 1068,
      "ĠHe": 1069,
      "CT": 1070,
      "action": 1071,
      "Ġprivate": 1072,
      "script": 1073,
      "Key": 1074,
      "Ġcase": 1075,
      "view": 1076,
      "ream": 1077,
      "ĠĠĠĠĊ": 1078,
      "work": 1079,
      "nav": 1080,
      "ished": 1081,
      "label": 1082,
      "raph": 1083,
      "At": 1084,
      "mon": 1085,
      "cent": 1086,
      "ors": 1087,
      "uth": 1088,
      "\"></": 1089,
      "Ġtime": 1090,
      "View": 1091,
      "sub": 1092,
      "ody": 1093,
      "quot": 1094,
      "32": 1095,
      "\";": 1096,
      "uil": 1097,
      "fore": 1098,
      "ps": 1099,
      "15": 1100,
      "ĠIt": 1101,
      "Ġplay": 1102,
      "play": 1103,
      "Ġfinal": 1104,
      "Ġwhen": 1105,
      "File": 1106,
      "SE": 1107,
      "any": 1108,
      "lean": 1109,
      "ĠThis": 1110,
      "ages": 1111,
      "199": 1112,
      "ins": 1113,
      "['": 1114,
      "left": 1115,
      "Ġfil": 1116,
      "ok": 1117,
      "Ġad": 1118,
      "arent": 1119,
      "ME": 1120,
      "Ġsup": 1121,
      "index": 1122,
      "Ġinter": 1123,
      "round": 1124,
      "ise": 1125,
      "ĠDe": 1126,
      "umn": 1127,
      "lay": 1128,
      "begin": 1129,
      "mod": 1130,
      "util": 1131,
      "Ġapp": 1132,
      "11": 1133,
      "gle": 1134,
      "roll": 1135,
      "heck": 1136,
      "function": 1137,
      "IT": 1138,
      "Im": 1139,
      "but": 1140,
      "Ġother": 1141,
      "Ġsub": 1142,
      "summary": 1143,
      "(\\": 1144,
      "ences": 1145,
      "ler": 1146,
      "Ġap": 1147,
      "order": 1148,
      "ocument": 1149,
      "not": 1150,
      "Ġtrans": 1151,
      "ational": 1152,
      "Ġspec": 1153,
      "pend": 1154,
      "');": 1155,
      "aramet": 1156,
      "url": 1157,
      "Event": 1158,
      "vel": 1159,
      "!--": 1160,
      "face": 1161,
      "Ġwork": 1162,
      "=\"../../": 1163,
      "(),": 1164,
      "Ġlist": 1165,
      "25": 1166,
      "oot": 1167,
      "ys": 1168,
      "ider": 1169,
      "Ġpr": 1170,
      "struct": 1171,
      "=\"+": 1172,
      "Ġits": 1173,
      "Ġso": 1174,
      "indow": 1175,
      "Ġform": 1176,
      "Ġkey": 1177,
      "Ġtheir": 1178,
      "Ġwho": 1179,
      "igh": 1180,
      "ner": 1181,
      "son": 1182,
      "uffer": 1183,
      "ined": 1184,
      "Ġli": 1185,
      "ww": 1186,
      "ĠâĢĵ": 1187,
      "Ġreg": 1188,
      "Ġhad": 1189,
      "Ġobject": 1190,
      "par": 1191,
      "load": 1192,
      "Ġtitle": 1193,
      "ited": 1194,
      "CO": 1195,
      "ger": 1196,
      "ts": 1197,
      "Ġ/>": 1198,
      "By": 1199,
      "Ġag": 1200,
      "Qu": 1201,
      "for": 1202,
      "local": 1203,
      "dis": 1204,
      "Ġco": 1205,
      "ken": 1206,
      "Ġte": 1207,
      "its": 1208,
      "ular": 1209,
      "AN": 1210,
      "erm": 1211,
      "Ġne": 1212,
      "top": 1213,
      "lang": 1214,
      "],": 1215,
      "ĠEn": 1216,
      "ĠCon": 1217,
      "ĠPro": 1218,
      "ased": 1219,
      "Ġyou": 1220,
      "lete": 1221,
      "UL": 1222,
      "ackage": 1223,
      "time": 1224,
      "Ġcl": 1225,
      "user": 1226,
      "fin": 1227,
      "Refer": 1228,
      "Ġtwo": 1229,
      "Ġme": 1230,
      "He": 1231,
      "ning": 1232,
      "const": 1233,
      "ĠSe": 1234,
      "group": 1235,
      "\":": 1236,
      "po": 1237,
      "14": 1238,
      "path": 1239,
      "Ġused": 1240,
      "Ġonly": 1241,
      "State": 1242,
      "Ġact": 1243,
      "17": 1244,
      "ample": 1245,
      "rite": 1246,
      "Class": 1247,
      "100": 1248,
      "ely": 1249,
      "Time": 1250,
      "inter": 1251,
      "red": 1252,
      "Text": 1253,
      "ating": 1254,
      "icon": 1255,
      "field": 1256,
      "land": 1257,
      "ible": 1258,
      "onent": 1259,
      "Ġchar": 1260,
      "pen": 1261,
      "Sh": 1262,
      "Request": 1263,
      "void": 1264,
      "Ġ);": 1265,
      "resent": 1266,
      "md": 1267,
      "ollow": 1268,
      "ify": 1269,
      "Ġmethod": 1270,
      "table": 1271,
      "Ġ?": 1272,
      "Node": 1273,
      "})": 1274,
      "ttp": 1275,
      "_{\\": 1276,
      "13": 1277,
      "Ġbeen": 1278,
      "Info": 1279,
      "Element": 1280,
      "uration": 1281,
      "Com": 1282,
      "anager": 1283,
      "Ġoff": 1284,
      "Ġnumber": 1285,
      "Ġback": 1286,
      "ern": 1287,
      "Ġerror": 1288,
      "rol": 1289,
      "me": 1290,
      "Ġany": 1291,
      "':": 1292,
      "ION": 1293,
      "Ġno": 1294,
      "amespace": 1295,
      "ĠEx": 1296,
      "Ġob": 1297,
      "sc": 1298,
      "ui": 1299,
      "Ġem": 1300,
      "/*": 1301,
      "/**": 1302,
      "Item": 1303,
      "}{": 1304,
      "Ġrem": 1305,
      "Path": 1306,
      "tribute": 1307,
      "ized": 1308,
      "ride": 1309,
      "oolean": 1310,
      "Ġevent": 1311,
      "Ġsc": 1312,
      "ices": 1313,
      "Index": 1314,
      "())": 1315,
      "``": 1316,
      "Ġinto": 1317,
      "ision": 1318,
      "config": 1319,
      "ican": 1320,
      "Ġmore": 1321,
      "reg": 1322,
      "64": 1323,
      "Config": 1324,
      "Ġent": 1325,
      "Ġ-->": 1326,
      "Ġrec": 1327,
      "Field": 1328,
      "ground": 1329,
      "RO": 1330,
      "color": 1331,
      "âĢĻ": 1332,
      "PE": 1333,
      "].": 1334,
      "ved": 1335,
      "Ġassert": 1336,
      "Ġexp": 1337,
      "Ġarg": 1338,
      "Int": 1339,
      "Context": 1340,
      "Map": 1341,
      "ople": 1342,
      "ainer": 1343,
      "by": 1344,
      "ced": 1345,
      "////////": 1346,
      "escription": 1347,
      "ade": 1348,
      "Ġthrow": 1349,
      "length": 1350,
      "ution": 1351,
      "LA": 1352,
      "Ġafter": 1353,
      "\"\"": 1354,
      "ank": 1355,
      "Add": 1356,
      "Not": 1357,
      "width": 1358,
      "ott": 1359,
      "unc": 1360,
      "ĠĠĠĠĠĠĠĠĠĠĠĠĠĠĠĠĠĠĠĠĠĠĠĠĠĠĠ": 1361,
      "az": 1362,
      "Ġcall": 1363,
      "TE": 1364,
      "On": 1365,
      "Ġmod": 1366,
      "mp": 1367,
      "mit": 1368,
      "Ġqu": 1369,
      "dt": 1370,
      "ward": 1371,
      "opy": 1372,
      "Ġher": 1373,
      "Ġpe": 1374,
      "way": 1375,
      "Ġ(!": 1376,
      "TR": 1377,
      "ouse": 1378,
      "Ġrel": 1379,
      "Ġyear": 1380,
      "ĠNew": 1381,
      "uilder": 1382,
      "api": 1383,
      "ious": 1384,
      "ince": 1385,
      "Ġstate": 1386,
      "';": 1387,
      "raw": 1388,
      "Ġunder": 1389,
      "da": 1390,
      "Array": 1391,
      "lob": 1392,
      "eq": 1393,
      "$.": 1394,
      "try": 1395,
      "Ġthen": 1396,
      "orn": 1397,
      "='": 1398,
      "198": 1399,
      "Service": 1400,
      "reak": 1401,
      "Ġ/*": 1402,
      "ox": 1403,
      "Ġstart": 1404,
      "Form": 1405,
      "Ġwhere": 1406,
      "Ġext": 1407,
      "Ġfollow": 1408,
      "Code": 1409,
      "ector": 1410,
      "word": 1411,
      "apache": 1412,
      "block": 1413,
      "ities": 1414,
      "Ġ});": 1415,
      "ified": 1416,
      "ists": 1417,
      "Ġgener": 1418,
      "Ġthey": 1419,
      "oogle": 1420,
      "uring": 1421,
      "Ġarray": 1422,
      "Over": 1423,
      "true": 1424,
      "title": 1425,
      "Ġfield": 1426,
      "ility": 1427,
      "object": 1428,
      "include": 1429,
      "att": 1430,
      "ous": 1431,
      "sponse": 1432,
      "CE": 1433,
      "https": 1434,
      "For": 1435,
      "Ġthere": 1436,
      "frac": 1437,
      "fl": 1438,
      "Equal": 1439,
      "ĠTr": 1440,
      "####": 1441,
      "30": 1442,
      "PI": 1443,
      "As": 1444,
      "ond": 1445,
      "ush": 1446,
      "Ġrequest": 1447,
      "ĠAl": 1448,
      "ason": 1449,
      "****************": 1450,
      "node": 1451,
      "map": 1452,
      "Size": 1453,
      "model": 1454,
      "Ġsp": 1455,
      "Ġbet": 1456,
      "igned": 1457,
      "air": 1458,
      "Ġdefault": 1459,
      "input": 1460,
      "error": 1461,
      "result": 1462,
      "Ġdist": 1463,
      "ected": 1464,
      "Ġ},": 1465,
      "Ġdes": 1466,
      "pty": 1467,
      "\\\\": 1468,
      "Ġcurrent": 1469,
      "rem": 1470,
      "ister": 1471,
      "cite": 1472,
      "};": 1473,
      "ivers": 1474,
      "Ġinst": 1475,
      "22": 1476,
      "Ġoper": 1477,
      "$,": 1478,
      "With": 1479,
      "Ġsize": 1480,
      "[]": 1481,
      "=\"../../../../": 1482,
      "Ġprov": 1483,
      "cept": 1484,
      "References": 1485,
      "valid": 1486,
      "lose": 1487,
      "ypes": 1488,
      "itial": 1489,
      "ync": 1490,
      "version": 1491,
      "UR": 1492,
      "Message": 1493,
      "ily": 1494,
      "50": 1495,
      "lt": 1496,
      "Or": 1497,
      "We": 1498,
      "create": 1499,
      "ĠWe": 1500,
      "ient": 1501,
      "ĠSh": 1502,
      "rm": 1503,
      "ments": 1504,
      "no": 1505,
      "ween": 1506,
      "assert": 1507,
      "andler": 1508,
      "Result": 1509,
      "Ġrun": 1510,
      "search": 1511,
      "rame": 1512,
      "Ġmay": 1513,
      "imes": 1514,
      "asses": 1515,
      "enu": 1516,
      "ense": 1517,
      "plate": 1518,
      "ains": 1519,
      "equ": 1520,
      "Ġpol": 1521,
      "ization": 1522,
      "box": 1523,
      "fe": 1524,
      "next": 1525,
      ">&": 1526,
      "Ġshould": 1527,
      "eturn": 1528,
      "orld": 1529,
      "ilter": 1530,
      "gt": 1531,
      "from": 1532,
      "Ġfe": 1533,
      "ĠGet": 1534,
      "Ġjava": 1535,
      "wh": 1536,
      "Ġsrc": 1537,
      "my": 1538,
      "Ġrequire": 1539,
      "default": 1540,
      "uto": 1541,
      "Ġmodel": 1542,
      "loat": 1543,
      "ood": 1544,
      "nection": 1545,
      "ĠâĢ": 1546,
      "als": 1547,
      "man": 1548,
      "merican": 1549,
      "++": 1550,
      "197": 1551,
      "}.": 1552,
      "oth": 1553,
      "33": 1554,
      "abled": 1555,
      "Ġpar": 1556,
      "body": 1557,
      "Ġlink": 1558,
      "ency": 1559,
      ";&": 1560,
      "Ġrep": 1561,
      "net": 1562,
      "Ġexpect": 1563,
      "Al": 1564,
      "ateg": 1565,
      "java": 1566,
      "base": 1567,
      "Val": 1568,
      "bf": 1569,
      "Ġ===": 1570,
      "Ġdif": 1571,
      "ven": 1572,
      "Ġcal": 1573,
      "pi": 1574,
      "Ġelement": 1575,
      "oci": 1576,
      "Ġimp": 1577,
      "Ġinv": 1578,
      "Ġerr": 1579,
      "FF": 1580,
      "itor": 1581,
      "ĠX": 1582,
      "nown": 1583,
      "iter": 1584,
      "Of": 1585,
      "tn": 1586,
      "lication": 1587,
      "ĠZ": 1588,
      "ik": 1589,
      "info": 1590,
      "Ġtext": 1591,
      "android": 1592,
      "Ġcontent": 1593,
      "uccess": 1594,
      "mall": 1595,
      "mb": 1596,
      "Up": 1597,
      "Ġthan": 1598,
      "24": 1599,
      "Ġed": 1600,
      "Ġmin": 1601,
      "start": 1602,
      "UT": 1603,
      "wn": 1604,
      "ĠIf": 1605,
      "content": 1606,
      "ports": 1607,
      "ags": 1608,
      "LO": 1609,
      "21": 1610,
      "Ġusing": 1611,
      "amb": 1612,
      "ĠLe": 1613,
      "ĉĉĉĉĉĉ": 1614,
      "ponse": 1615,
      "irt": 1616,
      "css": 1617,
      "ball": 1618,
      "Le": 1619,
      "vert": 1620,
      "CH": 1621,
      "lem": 1622,
      "Ã©": 1623,
      "Ġgroup": 1624,
      "cope": 1625,
      "Manager": 1626,
      "Ġuser": 1627,
      "Model": 1628,
      "aint": 1629,
      "ared": 1630,
      "array": 1631,
      "ĠCol": 1632,
      "Ġgr": 1633,
      "--------------------------------": 1634,
      "rop": 1635,
      "med": 1636,
      "andle": 1637,
      "Loc": 1638,
      "App": 1639,
      "bug": 1640,
      "Ġshow": 1641,
      "Ġtarget": 1642,
      "section": 1643,
      "rough": 1644,
      "User": 1645,
      "Ġ__": 1646,
      "chool": 1647,
      "Ġconfig": 1648,
      "Ġabout": 1649,
      "Ġu": 1650,
      "Ġsome": 1651,
      "state": 1652,
      "Ġgiv": 1653,
      "ING": 1654,
      "ĠSystem": 1655,
      "Query": 1656,
      "ident": 1657,
      "Log": 1658,
      "ron": 1659,
      "Color": 1660,
      "ML": 1661,
      "Ġsuch": 1662,
      "Ġbetween": 1663,
      "Ġdirect": 1664,
      "part": 1665,
      "Ġacc": 1666,
      "Ġlong": 1667,
      "reate": 1668,
      "ats": 1669,
      "ustom": 1670,
      "aj": 1671,
      "uf": 1672,
      "System": 1673,
      "Def": 1674,
      "clud": 1675,
      "event": 1676,
      "ĠAs": 1677,
      "uble": 1678,
      "ines": 1679,
      "ĠQ": 1680,
      "Ġwould": 1681,
      "...": 1682,
      "uc": 1683,
      "Ġlog": 1684,
      "Ġimport": 1685,
      "AD": 1686,
      "Ġph": 1687,
      "context": 1688,
      "Ġpo": 1689,
      "package": 1690,
      "apt": 1691,
      "tings": 1692,
      "Ġ:=": 1693,
      "Ġ};": 1694,
      "ression": 1695,
      "ah": 1696,
      "ename": 1697,
      "lish": 1698,
      "ension": 1699,
      "ULL": 1700,
      "Ġversion": 1701,
      ";</": 1702,
      "pha": 1703,
      "ffset": 1704,
      "Ġshe": 1705,
      "CK": 1706,
      "000": 1707,
      "=\"../": 1708,
      "imp": 1709,
      "roller": 1710,
      "ane": 1711,
      "ote": 1712,
      "bb": 1713,
      "lear": 1714,
      "ĠĠĠĠĠĠĠĠĠĠ": 1715,
      "orre": 1716,
      "other": 1717,
      "LI": 1718,
      "actory": 1719,
      "ĠCom": 1720,
      "velo": 1721,
      "Ġcons": 1722,
      "namespace": 1723,
      "lected": 1724,
      "Ġz": 1725,
      "Is": 1726,
      "ĠJo": 1727,
      "MA": 1728,
      "define": 1729,
      "'t": 1730,
      "Table": 1731,
      "uthor": 1732,
      "Out": 1733,
      "=\"#": 1734,
      "TD": 1735,
      "point": 1736,
      "bers": 1737,
      "Ġest": 1738,
      "Ġpoint": 1739,
      "ars": 1740,
      "head": 1741,
      "leg": 1742,
      "db": 1743,
      "ĠFor": 1744,
      "method": 1745,
      "option": 1746,
      "utes": 1747,
      "Ġread": 1748,
      "web": 1749,
      "perties": 1750,
      "ithub": 1751,
      "40": 1752,
      "Ġstyle": 1753,
      "false": 1754,
      "Ġcode": 1755,
      "Property": 1756,
      "Client": 1757,
      "ait": 1758,
      "Ġwhile": 1759,
      "Ġeach": 1760,
      "max": 1761,
      "Group": 1762,
      "erson": 1763,
      "Ġcent": 1764,
      "Response": 1765,
      "lex": 1766,
      "prot": 1767,
      "cur": 1768,
      "idd": 1769,
      "Ġfl": 1770,
      "Ġpeople": 1771,
      "duct": 1772,
      "ng": 1773,
      "Ġsystem": 1774,
      "ting": 1775,
      "ale": 1776,
      "Ġbase": 1777,
      "ier": 1778,
      "================": 1779,
      "ten": 1780,
      "ric": 1781,
      "core": 1782,
      "Trans": 1783,
      "Inter": 1784,
      "ship": 1785,
      "arameter": 1786,
      "Ġhttp": 1787,
      "Ġcheck": 1788,
      "outh": 1789,
      "static": 1790,
      "ants": 1791,
      "doc": 1792,
      "pos": 1793,
      "formation": 1794,
      "<!--": 1795,
      "Ġnode": 1796,
      "ottom": 1797,
      "Ġbool": 1798,
      "Ġlocal": 1799,
      "wit": 1800,
      "mathcal": 1801,
      "count": 1802,
      "github": 1803,
      "ET": 1804,
      "do": 1805,
      ">(": 1806,
      "Ġstruct": 1807,
      "odes": 1808,
      "DO": 1809,
      "FI": 1810,
      "lib": 1811,
      "tt": 1812,
      "equation": 1813,
      "Arg": 1814,
      "Ġandroid": 1815,
      "google": 1816,
      "Override": 1817,
      "call": 1818,
      "Ġpath": 1819,
      "ends": 1820,
      "Ġnil": 1821,
      "ower": 1822,
      ")</": 1823,
      "umer": 1824,
      "lobal": 1825,
      "Ġcreate": 1826,
      "Ġstd": 1827,
      "ĠSet": 1828,
      "iversity": 1829,
      "iable": 1830,
      "Ġinput": 1831,
      "ĠĠĠĠĠĠĠĠĠĠĠĠ": 1832,
      "Call": 1833,
      "Count": 1834,
      "Method": 1835,
      "check": 1836,
      "Ġblock": 1837,
      "serv": 1838,
      "Ġindex": 1839,
      "ement": 1840,
      "Ġfound": 1841,
      "Reg": 1842,
      "ons": 1843,
      "ED": 1844,
      "gram": 1845,
      "Ġcontext": 1846,
      "Ġsecond": 1847,
      "using": 1848,
      "Ġinstance": 1849,
      "Ġthem": 1850,
      "Ġsame": 1851,
      "Ġprot": 1852,
      "down": 1853,
      "Builder": 1854,
      "bol": 1855,
      "Ġbefore": 1856,
      "Ġitem": 1857,
      ",\\": 1858,
      "Be": 1859,
      "Ġthrough": 1860,
      "\".": 1861,
      "ran": 1862,
      "Ġright": 1863,
      "196": 1864,
      "ifier": 1865,
      "lp": 1866,
      "argin": 1867,
      "Dis": 1868,
      "null": 1869,
      "print": 1870,
      "err": 1871,
      "ENT": 1872,
      "ury": 1873,
      "Ġac": 1874,
      "Ġtem": 1875,
      "From": 1876,
      "annel": 1877,
      "tes": 1878,
      "Ġ()": 1879,
      "Ġwrit": 1880,
      ")$": 1881,
      "Ġsing": 1882,
      "Util": 1883,
      "ffect": 1884,
      "ĠĠĠĠĠĠĠĠĠĠĠĠĠĠĠĠĠĠĠĠĠĠĠĠĠĠĠĠĠĠĠ": 1885,
      "imit": 1886,
      "MP": 1887,
      "align": 1888,
      "atri": 1889,
      "iled": 1890,
      "Mod": 1891,
      "Ġmost": 1892,
      "Date": 1893,
      "ek": 1894,
      "AB": 1895,
      "ĠĠĊ": 1896,
      "istory": 1897,
      "DI": 1898,
      "UN": 1899,
      "button": 1900,
      "23": 1901,
      "Ġmem": 1902,
      "ĠOn": 1903,
      "Ġstud": 1904,
      "Ġgiven": 1905,
      "miss": 1906,
      "Ġagain": 1907,
      "](": 1908,
      "client": 1909,
      "ife": 1910,
      "Ġbreak": 1911,
      "options": 1912,
      "Ġdiffer": 1913,
      "orth": 1914,
      "sk": 1915,
      "lease": 1916,
      "Action": 1917,
      "}(": 1918,
      "ender": 1919,
      ".\"": 1920,
      "Ġoptions": 1921,
      "cale": 1922,
      "sup": 1923,
      "ification": 1924,
      "ose": 1925,
      "ources": 1926,
      "TH": 1927,
      "place": 1928,
      "AME": 1929,
      "ql": 1930,
      "Âł": 1931,
      "depend": 1932,
      "bl": 1933,
      "mun": 1934,
      "arn": 1935,
      "Ġam": 1936,
      "eger": 1937,
      "query": 1938,
      "rag": 1939,
      "ful": 1940,
      "Stream": 1941,
      "ift": 1942,
      "Cl": 1943,
      "uary": 1944,
      "style": 1945,
      "~\\": 1946,
      "amily": 1947,
      "Ġfollowing": 1948,
      "ails": 1949,
      "uage": 1950,
      "ived": 1951,
      "ĠAmerican": 1952,
      "www": 1953,
      "aining": 1954,
      "Bar": 1955,
      "php": 1956,
      "ymbol": 1957,
      "ever": 1958,
      "ru": 1959,
      "ai": 1960,
      "ied": 1961,
      "finished": 1962,
      "alpha": 1963,
      "ures": 1964,
      "ene": 1965,
      "irtual": 1966,
      "Ġsupport": 1967,
      "ough": 1968,
      "current": 1969,
      "])": 1970,
      "request": 1971,
      "Ġvalues": 1972,
      "Ġbuild": 1973,
      "Ġyour": 1974,
      "Ġorder": 1975,
      "All": 1976,
      "dir": 1977,
      "Lo": 1978,
      "arameters": 1979,
      "Ġmax": 1980,
      "Ġmessage": 1981,
      "Ġborder": 1982,
      "Ġsign": 1983,
      "}^": 1984,
      "ĠĠĠĠĠĠĠĠĠĠĠĠĠĠĠĠĠ": 1985,
      "dl": 1986,
      "run": 1987,
      "External": 1988,
      "args": 1989,
      "jav": 1990,
      "Input": 1991,
      "aster": 1992,
      "rid": 1993,
      "lick": 1994,
      "eter": 1995,
      "Pl": 1996,
      "refer": 1997,
      "Ġnon": 1998,
      "Block": 1999,
      "iver": 2000,
      "lished": 2001,
      "ained": 2002,
      "Ġart": 2003,
      "etwork": 2004,
      "ĠList": 2005,
      "pan": 2006,
      "aces": 2007,
      "}_": 2008,
      "adding": 2009,
      "ĠSer": 2010,
      "ĠIs": 2011,
      "Ġcolor": 2012,
      "unfinished": 2013,
      "Status": 2014,
      "Ġdocument": 2015,
      "arams": 2016,
      "Ġinclud": 2017,
      "Image": 2018,
      "Ġ<<": 2019,
      "Ġlinks": 2020,
      "overn": 2021,
      "Ġthese": 2022,
      "image": 2023,
      "Ġduring": 2024,
      "oin": 2025,
      "velop": 2026,
      "Ġboolean": 2027,
      "ONT": 2028,
      "Ġleft": 2029,
      "istr": 2030,
      "chema": 2031,
      "Ġsol": 2032,
      "Ġlast": 2033,
      "cord": 2034,
      "Ġlarg": 2035,
      "Ġmed": 2036,
      "OT": 2037,
      "((": 2038,
      "Ġposition": 2039,
      "tab": 2040,
      "ĠNULL": 2041,
      "Ġchild": 2042,
      "Par": 2043,
      "irc": 2044,
      "Ġorig": 2045,
      "0000": 2046,
      "func": 2047,
      "Ġ->": 2048,
      "SI": 2049,
      "Ġwidth": 2050,
      "ism": 2051,
      "New": 2052,
      "undle": 2053,
      "Ġprodu": 2054,
      "Ġgo": 2055,
      "height": 2056,
      "Ð°": 2057,
      "element": 2058,
      "Lay": 2059,
      "Ġtry": 2060,
      "27": 2061,
      "side": 2062,
      "ĠĠĠĠĠĠĠĠĊ": 2063,
      "Gener": 2064,
      "ĠRes": 2065,
      "Ġbackground": 2066,
      "ather": 2067,
      "ormal": 2068,
      "Component": 2069,
      "End": 2070,
      "Nav": 2071,
      "Ġyears": 2072,
      "af": 2073,
      "ĠUnited": 2074,
      "header": 2075,
      "Base": 2076,
      "Token": 2077,
      "Ġmet": 2078,
      "atab": 2079,
      "Ġlet": 2080,
      "YPE": 2081,
      "Instance": 2082,
      "has": 2083,
      "Ġfin": 2084,
      "with": 2085,
      "Ġhim": 2086,
      "Ġbeing": 2087,
      "btn": 2088,
      "SC": 2089,
      "Ġdoes": 2090,
      "tx": 2091,
      "now": 2092,
      "Ġsource": 2093,
      "ĠComp": 2094,
      "ape": 2095,
      "Ref": 2096,
      "Null": 2097,
      "Ġrefer": 2098,
      "28": 2099,
      "Sub": 2100,
      "ĠAss": 2101,
      "60": 2102,
      "ambda": 2103,
      "UE": 2104,
      "ĠUniversity": 2105,
      "Des": 2106,
      "cd": 2107,
      "Ġmust": 2108,
      "Ġboth": 2109,
      "Exp": 2110,
      "Str": 2111,
      "Ġwell": 2112,
      "hn": 2113,
      "Ġtable": 2114,
      "Attribute": 2115,
      "This": 2116,
      "Ġresponse": 2117,
      "Ð¾": 2118,
      "server": 2119,
      "Ġref": 2120,
      "adi": 2121,
      "met": 2122,
      "Handler": 2123,
      "Ġmake": 2124,
      "Ġthree": 2125,
      "target": 2126,
      "Ġpop": 2127,
      "Ġneed": 2128,
      "Resource": 2129,
      "older": 2130,
      "append": 2131,
      "ĠĠĠĠĠĠĠĠĠĠĠĠĊ": 2132,
      "Line": 2133,
      "Ġ\"\"\"": 2134,
      "Buffer": 2135,
      "ays": 2136,
      "Ġallow": 2137,
      "navbar": 2138,
      "Ġperform": 2139,
      "({": 2140,
      "property": 2141,
      "Ġ+=": 2142,
      "[\"": 2143,
      "66": 2144,
      "cho": 2145,
      "amed": 2146,
      "Content": 2147,
      "ĠSc": 2148,
      "acter": 2149,
      "UI": 2150,
      "ches": 2151,
      "RI": 2152,
      "see": 2153,
      "Ġtop": 2154,
      "ause": 2155,
      "ugin": 2156,
      "Options": 2157,
      "Ġ,": 2158,
      "init": 2159,
      "less": 2160,
      "Ġcorre": 2161,
      "194": 2162,
      "frame": 2163,
      "Ġopen": 2164,
      "parent": 2165,
      "tic": 2166,
      "Ġbeg": 2167,
      "Ġhigh": 2168,
      "Ġmap": 2169,
      "page": 2170,
      "light": 2171,
      "adata": 2172,
      "json": 2173,
      "atrix": 2174,
      "80": 2175,
      "Ġnext": 2176,
      "Ġteam": 2177,
      "ribut": 2178,
      "bed": 2179,
      "ume": 2180,
      "semb": 2181,
      "99": 2182,
      "select": 2183,
      "Ġour": 2184,
      "iction": 2185,
      "Ġpass": 2186,
      "idget": 2187,
      "xml": 2188,
      "Command": 2189,
      "ina": 2190,
      "tract": 2191,
      "Ed": 2192,
      "Run": 2193,
      "ught": 2194,
      "ling": 2195,
      "center": 2196,
      "icy": 2197,
      "Ġview": 2198,
      "Ġdec": 2199,
      "yles": 2200,
      "cast": 2201,
      "ux": 2202,
      "=\\": 2203,
      "Ġprocess": 2204,
      "Source": 2205,
      "atabase": 2206,
      "ony": 2207,
      "ules": 2208,
      "Act": 2209,
      "usic": 2210,
      "uss": 2211,
      "ootball": 2212,
      "Ġrece": 2213,
      "Version": 2214,
      "Ġcontin": 2215,
      "ĠOr": 2216,
      "vider": 2217,
      "ession": 2218,
      "itions": 2219,
      "ansp": 2220,
      "ns": 2221,
      "EX": 2222,
      "Link": 2223,
      "ware": 2224,
      "Ġsur": 2225,
      "ĉĊ": 2226,
      "Ġ($": 2227,
      "bs": 2228,
      "Default": 2229,
      "ĠÐ": 2230,
      "ixed": 2231,
      "26": 2232,
      "Ġmon": 2233,
      "oy": 2234,
      "NS": 2235,
      "rl": 2236,
      "Ġmade": 2237,
      "Ġoutput": 2238,
      "ural": 2239,
      "vious": 2240,
      "55": 2241,
      "del": 2242,
      "Ġatt": 2243,
      "Factory": 2244,
      "active": 2245,
      "equal": 2246,
      "And": 2247,
      "urs": 2248,
      "heet": 2249,
      "ross": 2250,
      "ĠĠĠĠĠĠĠĠĠĠĠĠĠĠ": 2251,
      "reat": 2252,
      "uck": 2253,
      "build": 2254,
      "child": 2255,
      "ulation": 2256,
      "Ġnow": 2257,
      "29": 2258,
      "nect": 2259,
      "plo": 2260,
      "Ġcalled": 2261,
      "riter": 2262,
      "ĠEng": 2263,
      "Ġvis": 2264,
      "SP": 2265,
      "ho": 2266,
      "dic": 2267,
      "logy": 2268,
      "aid": 2269,
      "ivity": 2270,
      "Ġmatch": 2271,
      ")\\": 2272,
      "icense": 2273,
      "graph": 2274,
      "ĠMar": 2275,
      "defined": 2276,
      "){": 2277,
      "Hel": 2278,
      "ral": 2279,
      "ĠCl": 2280,
      "uction": 2281,
      "Ġaction": 2282,
      "rows": 2283,
      "ior": 2284,
      "amma": 2285,
      "Start": 2286,
      "case": 2287,
      "FA": 2288,
      "Ġprob": 2289,
      "Ġproperty": 2290,
      "Ġdifferent": 2291,
      "bottom": 2292,
      "owever": 2293,
      "anged": 2294,
      "bum": 2295,
      "ret": 2296,
      "REF": 2297,
      "por": 2298,
      "ots": 2299,
      "uk": 2300,
      "src": 2301,
      "Window": 2302,
      "LASS": 2303,
      "ĠAt": 2304,
      "dom": 2305,
      "utton": 2306,
      "ram": 2307,
      "Ph": 2308,
      "ided": 2309,
      "Function": 2310,
      "Oper": 2311,
      "Ðµ": 2312,
      "module": 2313,
      "Ġfind": 2314,
      "*/": 2315,
      "Point": 2316,
      "Ġfa": 2317,
      "status": 2318,
      "arm": 2319,
      "private": 2320,
      "ica": 2321,
      "Sc": 2322,
      "ring": 2323,
      "ptr": 2324,
      "vices": 2325,
      "TO": 2326,
      "ailable": 2327,
      "ĉĉĉĉĉĉĉĉ": 2328,
      "ssion": 2329,
      "member": 2330,
      "aterial": 2331,
      "xy": 2332,
      "ialog": 2333,
      "Cell": 2334,
      "Ġcoun": 2335,
      "witch": 2336,
      "////////////////": 2337,
      "Ġmany": 2338,
      "Frame": 2339,
      "meta": 2340,
      "US": 2341,
      "Ġsim": 2342,
      "ATE": 2343,
      "py": 2344,
      "Ġ$(": 2345,
      "orage": 2346,
      "Ġpartic": 2347,
      "sw": 2348,
      "img": 2349,
      "write": 2350,
      "ually": 2351,
      "Ġappro": 2352,
      "layout": 2353,
      "tributes": 2354,
      "Ġmain": 2355,
      "ultip": 2356,
      "34": 2357,
      "Ġmov": 2358,
      "iron": 2359,
      "Ġlater": 2360,
      "ĠObject": 2361,
      "EE": 2362,
      "ading": 2363,
      "Ġret": 2364,
      "No": 2365,
      "${": 2366,
      "first": 2367,
      "Format": 2368,
      "\"]": 2369,
      "});": 2370,
      "Ġrecord": 2371,
      "Ġcommand": 2372,
      "rowser": 2373,
      "ination": 2374,
      "ideo": 2375,
      "Ġplayers": 2376,
      "Ġseason": 2377,
      "Ġresource": 2378,
      "push": 2379,
      "Task": 2380,
      "ascript": 2381,
      "///": 2382,
      "mu": 2383,
      "ley": 2384,
      "open": 2385,
      "char": 2386,
      "ĠTest": 2387,
      "âĢĿ": 2388,
      "Number": 2389,
      "ched": 2390,
      "ee": 2391,
      "sg": 2392,
      "description": 2393,
      "Ġproject": 2394,
      "True": 2395,
      "Pr": 2396,
      "ives": 2397,
      "ĠStates": 2398,
      "Label": 2399,
      "Ġfeature": 2400,
      "PT": 2401,
      "Ġdet": 2402,
      "Ass": 2403,
      "itional": 2404,
      "Ġ{@": 2405,
      "Ġthrows": 2406,
      "EL": 2407,
      "39": 2408,
      "hat": 2409,
      "Ġ\\\\": 2410,
      "Ġmy": 2411,
      "uments": 2412,
      "Ġservice": 2413,
      "space": 2414,
      "ĠNone": 2415,
      "cause": 2416,
      "arly": 2417,
      "Ġclient": 2418,
      "ega": 2419,
      "Page": 2420,
      "Ġav": 2421,
      "cy": 2422,
      "OL": 2423,
      "creen": 2424,
      "Ġknown": 2425,
      "require": 2426,
      "Ġdescri": 2427,
      "Ġcount": 2428,
      "struction": 2429,
      "uster": 2430,
      "FONT": 2431,
      "Ġvalid": 2432,
      "opt": 2433,
      "ĠPh": 2434,
      "}_{": 2435,
      "igma": 2436,
      "Ġlevel": 2437,
      "imple": 2438,
      "ential": 2439,
      "last": 2440,
      "ĠInd": 2441,
      "format": 2442,
      "Ġever": 2443,
      "Ġparent": 2444,
      "Create": 2445,
      "post": 2446,
      "attern": 2447,
      "Ġinformation": 2448,
      "HT": 2449,
      "lev": 2450,
      "Ġbro": 2451,
      "close": 2452,
      "mark": 2453,
      "pc": 2454,
      "des": 2455,
      "ium": 2456,
      "iving": 2457,
      "ategory": 2458,
      "Ġlike": 2459,
      "Ġimplement": 2460,
      "izer": 2461,
      "signed": 2462,
      "195": 2463,
      "Ġfilm": 2464,
      "flow": 2465,
      "endif": 2466,
      "Fl": 2467,
      "Ġjust": 2468,
      "Ġappe": 2469,
      "ĠShe": 2470,
      "sl": 2471,
      "position": 2472,
      "Ġbecause": 2473,
      "strong": 2474,
      "Ġrepresent": 2475,
      "obj": 2476,
      "Ġincluding": 2477,
      "Ġsince": 2478,
      "_\\": 2479,
      "mo": 2480,
      "Ġdisplay": 2481,
      "ĠReturn": 2482,
      "bit": 2483,
      "Bundle": 2484,
      "Return": 2485,
      "VER": 2486,
      "otype": 2487,
      "ique": 2488,
      "Ġprotected": 2489,
      "Controller": 2490,
      "mem": 2491,
      "Row": 2492,
      "find": 2493,
      "Check": 2494,
      "AG": 2495,
      "Ġman": 2496,
      "mathbb": 2497,
      "ĠReg": 2498,
      "gress": 2499,
      "}^{": 2500,
      "Ġdevelop": 2501,
      "gener": 2502,
      "Button": 2503,
      "Ġbl": 2504,
      "ird": 2505,
      "pack": 2506,
      "Ġown": 2507,
      "Ġimage": 2508,
      "ets": 2509,
      "Ġresults": 2510,
      "font": 2511,
      "omen": 2512,
      "ides": 2513,
      "01": 2514,
      "loud": 2515,
      "ifact": 2516,
      "javascript": 2517,
      "Style": 2518,
      "Ġinitial": 2519,
      "ustr": 2520,
      "Ġ<!--": 2521,
      "(&": 2522,
      "Equals": 2523,
      "Ġpage": 2524,
      "Ġexec": 2525,
      "SON": 2526,
      "Part": 2527,
      "NO": 2528,
      "project": 2529,
      "ĠPr": 2530,
      "Ġcould": 2531,
      "2016": 2532,
      "Ġlang": 2533,
      "container": 2534,
      "allet": 2535,
      "spec": 2536,
      "iler": 2537,
      "$\\": 2538,
      "Ġbased": 2539,
      "vol": 2540,
      "viron": 2541,
      "png": 2542,
      "ocol": 2543,
      "ored": 2544,
      "inc": 2545,
      "ĠPar": 2546,
      "ero": 2547,
      "Ġloc": 2548,
      "len": 2549,
      "Ġmark": 2550,
      "Ġmargin": 2551,
      "Listener": 2552,
      "Ġsuccess": 2553,
      "service": 2554,
      "Ġurl": 2555,
      "vis": 2556,
      "ocus": 2557,
      "tal": 2558,
      "host": 2559,
      "std": 2560,
      "response": 2561,
      "ĠCo": 2562,
      "35": 2563,
      "display": 2564,
      "ths": 2565,
      "ability": 2566,
      "Ġheight": 2567,
      "num": 2568,
      "menu": 2569,
      "Cache": 2570,
      "Ġsuper": 2571,
      "-\\": 2572,
      "ABLE": 2573,
      "Ġ((": 2574,
      "filter": 2575,
      "\").": 2576,
      "params": 2577,
      "update": 2578,
      "attr": 2579,
      "Ent": 2580,
      "Ġaddress": 2581,
      "Ġfour": 2582,
      "Ġlabel": 2583,
      "Ġenc": 2584,
      "une": 2585,
      "sing": 2586,
      "ĠCount": 2587,
      "ĠMay": 2588,
      "Ġextends": 2589,
      "Ġop": 2590,
      "Pre": 2591,
      "eps": 2592,
      "oper": 2593,
      "ari": 2594,
      "Valid": 2595,
      "ague": 2596,
      "common": 2597,
      "ĠCan": 2598,
      "ffic": 2599,
      "Ġagainst": 2600,
      "buf": 2601,
      "inst": 2602,
      "entry": 2603,
      "Ġseries": 2604,
      "ired": 2605,
      "2015": 2606,
      "annot": 2607,
      "imation": 2608,
      "stream": 2609,
      "ready": 2610,
      "75": 2611,
      "Ġsmall": 2612,
      "itu": 2613,
      "sole": 2614,
      "Ð¸": 2615,
      "Filter": 2616,
      "Ġdisc": 2617,
      "Column": 2618,
      "lin": 2619,
      "Met": 2620,
      "Box": 2621,
      "uro": 2622,
      "alt": 2623,
      "Ġlow": 2624,
      "uid": 2625,
      "angle": 2626,
      "ĠAdd": 2627,
      "urch": 2628,
      "earch": 2629,
      "omet": 2630,
      "Pol": 2631,
      "Ġpost": 2632,
      "rs": 2633,
      "Ġdown": 2634,
      "arri": 2635,
      "tra": 2636,
      "Ġfont": 2637,
      "sembly": 2638,
      "illi": 2639,
      "Ġplace": 2640,
      "Ġsingle": 2641,
      "<?": 2642,
      "cer": 2643,
      "pol": 2644,
      "remove": 2645,
      "igation": 2646,
      "Ġren": 2647,
      "Child": 2648,
      "exp": 2649,
      "Ġident": 2650,
      "aders": 2651,
      "ĠCont": 2652,
      "iag": 2653,
      "andard": 2654,
      "TI": 2655,
      "Spec": 2656,
      "Ad": 2657,
      "PRO": 2658,
      "ĠJohn": 2659,
      "Ġ{\\": 2660,
      "uilt": 2661,
      "Ġinclude": 2662,
      "Ġfootball": 2663,
      "ĠAd": 2664,
      "andom": 2665,
      "INT": 2666,
      "Ġuntil": 2667,
      "Ġschool": 2668,
      "ital": 2669,
      "ĠHREF": 2670,
      "Mode": 2671,
      "\"),": 2672,
      "unk": 2673,
      "Length": 2674,
      "URL": 2675,
      "ĠCLASS": 2676,
      "Layout": 2677,
      "ĠWorld": 2678,
      "gy": 2679,
      ":</": 2680,
      "Ġalbum": 2681,
      "ocket": 2682,
      "Ġrequired": 2683,
      "ograph": 2684,
      "Ġaut": 2685,
      "AP": 2686,
      "iod": 2687,
      "Ġrange": 2688,
      "```": 2689,
      "Ġnum": 2690,
      "Collection": 2691,
      "ĠIN": 2692,
      "pm": 2693,
      "styles": 2694,
      "Ġpresent": 2695,
      "ĠĠĠĠĠĠĠĠĠĠĠĠĠĠĠĠĠĠĠĠĠĠĠĠĠĠĠĠĠĠĠĠĠĠĠ": 2696,
      "Ġocc": 2697,
      "Tem": 2698,
      "Ġestab": 2699,
      "anges": 2700,
      "refix": 2701,
      "Ġauto": 2702,
      "2014": 2703,
      "sec": 2704,
      "Ġsee": 2705,
      "Del": 2706,
      "^{\\": 2707,
      "ĠIm": 2708,
      "ured": 2709,
      "Ġ]": 2710,
      "Url": 2711,
      "Ġprint": 2712,
      "arning": 2713,
      "sol": 2714,
      "Ġequ": 2715,
      "beta": 2716,
      "ively": 2717,
      "ience": 2718,
      "phi": 2719,
      "aml": 2720,
      "PO": 2721,
      "ially": 2722,
      "structor": 2723,
      "lambda": 2724,
      "Ġexample": 2725,
      "ado": 2726,
      "ternational": 2727,
      "Ġlength": 2728,
      "mt": 2729,
      "ison": 2730,
      "imary": 2731,
      "Last": 2732,
      "_.": 2733,
      "Ġprogram": 2734,
      "AS": 2735,
      "Ġpres": 2736,
      "ĠJan": 2737,
      "Ġpub": 2738,
      "au": 2739,
      "GL": 2740,
      "Ġopt": 2741,
      "ĠNational": 2742,
      "aly": 2743,
      "atform": 2744,
      "ĠPl": 2745,
      "ĠFe": 2746,
      "36": 2747,
      "ators": 2748,
      "ae": 2749,
      "2017": 2750,
      "imum": 2751,
      "MO": 2752,
      "mission": 2753,
      "come": 2754,
      "ĠâĢľ": 2755,
      "Ext": 2756,
      "AC": 2757,
      "Ġconsider": 2758,
      "dev": 2759,
      "oke": 2760,
      "df": 2761,
      "pected": 2762,
      "Char": 2763,
      "rt": 2764,
      "NAME": 2765,
      "Ġcolumn": 2766,
      "ÑĤ": 2767,
      "ole": 2768,
      "tool": 2769,
      "ves": 2770,
      "lector": 2771,
      "board": 2772,
      "IL": 2773,
      ".,": 2774,
      "ances": 2775,
      "cache": 2776,
      "Output": 2777,
      "instance": 2778,
      "ES": 2779,
      "Ġbir": 2780,
      "Ġmat": 2781,
      "90": 2782,
      "bin": 2783,
      "spond": 2784,
      "Ġalign": 2785,
      "ories": 2786,
      "Ġexist": 2787,
      "Read": 2788,
      "ERR": 2789,
      "Ġ!==": 2790,
      "overnment": 2791,
      "Ġport": 2792,
      "itt": 2793,
      "Mem": 2794,
      "aking": 2795,
      "oto": 2796,
      "Server": 2797,
      "icro": 2798,
      "UM": 2799,
      "COL": 2800,
      "ĠAnd": 2801,
      "Ġexpected": 2802,
      "arrow": 2803,
      "alth": 2804,
      "').": 2805,
      "Ġaccess": 2806,
      "45": 2807,
      "tag": 2808,
      "kit": 2809,
      "came": 2810,
      "stract": 2811,
      "resh": 2812,
      "Det": 2813,
      "oding": 2814,
      "show": 2815,
      "lot": 2816,
      "mathbf": 2817,
      "ĠBe": 2818,
      "=\"../../../../../": 2819,
      "ls": 2820,
      "Do": 2821,
      "First": 2822,
      "ĠAll": 2823,
      "37": 2824,
      ">>": 2825,
      "quence": 2826,
      "idden": 2827,
      "Ġcatch": 2828,
      "Ġbecame": 2829,
      "Ġwithin": 2830,
      "offset": 2831,
      "Ã¡": 2832,
      "ĠInt": 2833,
      "CON": 2834,
      "TYPE": 2835,
      "go": 2836,
      "Back": 2837,
      "Sup": 2838,
      "ported": 2839,
      "ploy": 2840,
      "Ġcond": 2841,
      "Web": 2842,
      "++)": 2843,
      "~~": 2844,
      "38": 2845,
      "ibility": 2846,
      "els": 2847,
      "akes": 2848,
      "foot": 2849,
      "Ġhand": 2850,
      "vironment": 2851,
      "Provider": 2852,
      "igger": 2853,
      "ĠGener": 2854,
      "ĠWar": 2855,
      "day": 2856,
      "ze": 2857,
      "else": 2858,
      "Ġcallback": 2859,
      "Ġoption": 2860,
      "onents": 2861,
      "Update": 2862,
      "Ġmodule": 2863,
      "DB": 2864,
      "Ob": 2865,
      "apping": 2866,
      "Ġ[]": 2867,
      "ĠCal": 2868,
      "ĠCar": 2869,
      "31": 2870,
      "book": 2871,
      "ĠGe": 2872,
      "2013": 2873,
      "Ġspecified": 2874,
      "Ġdepend": 2875,
      "Ġupdate": 2876,
      "Offset": 2877,
      "scri": 2878,
      "number": 2879,
      "Ġeffect": 2880,
      "2010": 2881,
      "reference": 2882,
      "ynam": 2883,
      "asic": 2884,
      "utils": 2885,
      "Ġsever": 2886,
      "parse": 2887,
      "ajor": 2888,
      "Address": 2889,
      "sets": 2890,
      "Ġdid": 2891,
      "Ġevery": 2892,
      "sm": 2893,
      "IG": 2894,
      "Ġconf": 2895,
      "Ġcr": 2896,
      "Ġcommun": 2897,
      "ĠYork": 2898,
      "2011": 2899,
      "Ġwhat": 2900,
      "ĠTe": 2901,
      "ĠTo": 2902,
      "Ġfamily": 2903,
      "ĠEX": 2904,
      "exec": 2905,
      "ĠArray": 2906,
      "output": 2907,
      "********************************": 2908,
      "det": 2909,
      "ĠAPI": 2910,
      "Ġchange": 2911,
      "column": 2912,
      "Entity": 2913,
      "alk": 2914,
      "umb": 2915,
      "ĠCounty": 2916,
      "Ġprom": 2917,
      "amples": 2918,
      "Ġwithout": 2919,
      "enn": 2920,
      "Width": 2921,
      "dat": 2922,
      "Ġsk": 2923,
      "ilon": 2924,
      "Ġter": 2925,
      "ĠState": 2926,
      "wards": 2927,
      "Ġstatus": 2928,
      "ĠBrit": 2929,
      "Ġhere": 2930,
      "rist": 2931,
      "ĠJul": 2932,
      "Ġtri": 2933,
      "assword": 2934,
      "ging": 2935,
      "Types": 2936,
      "Ġcare": 2937,
      "wrap": 2938,
      "CC": 2939,
      "la": 2940,
      "MS": 2941,
      "Rem": 2942,
      "Ġdistribut": 2943,
      "imal": 2944,
      "ĠčĊ": 2945,
      "leased": 2946,
      "Ġwindow": 2947,
      "Ġdefined": 2948,
      "ĠHT": 2949,
      "2012": 2950,
      "main": 2951,
      "(_": 2952,
      "Em": 2953,
      "Ġinit": 2954,
      "ĉĠĠĠ": 2955,
      "classes": 2956,
      "iet": 2957,
      "ĠNov": 2958,
      "process": 2959,
      "udio": 2960,
      "Ġserver": 2961,
      "Ġcontrol": 2962,
      "si": 2963,
      "Ġla": 2964,
      "stylesheet": 2965,
      ")}": 2966,
      "Ġhost": 2967,
      "TP": 2968,
      "Ð½": 2969,
      "uit": 2970,
      "scope": 2971,
      "ef": 2972,
      "Ġarea": 2973,
      "ops": 2974,
      "2018": 2975,
      "document": 2976,
      "Ġfact": 2977,
      "Target": 2978,
      "Ġcell": 2979,
      "Ġnone": 2980,
      "|-": 2981,
      "prototype": 2982,
      "ival": 2983,
      "Ġperson": 2984,
      "small": 2985,
      "proto": 2986,
      "Ġformat": 2987,
      "ĠSchool": 2988,
      "unit": 2989,
      "Ġdouble": 2990,
      "Ġsong": 2991,
      "Entry": 2992,
      "ĠPol": 2993,
      "Ġparameter": 2994,
      "=\"-": 2995,
      "engine": 2996,
      "artifact": 2997,
      "ĉĉĉĉĉĉĉ": 2998,
      "Tree": 2999,
      "Ġsum": 3000,
      "Var": 3001,
      "sd": 3002,
      "rior": 3003,
      "ĠDo": 3004,
      "Ġgame": 3005,
      "ically": 3006,
      "window": 3007,
      "off": 3008,
      "Ġprevious": 3009,
      "mut": 3010,
      "change": 3011,
      "ament": 3012,
      "ĠApp": 3013,
      "returns": 3014,
      "ĠMin": 3015,
      "Ġpolit": 3016,
      "Ġpos": 3017,
      "leted": 3018,
      "########": 3019,
      "Ġtask": 3020,
      "ump": 3021,
      "ĠWh": 3022,
      "Ġhelp": 3023,
      "raft": 3024,
      "ERT": 3025,
      "]);": 3026,
      "2019": 3027,
      "Ġreal": 3028,
      "ung": 3029,
      "ĠFr": 3030,
      "Access": 3031,
      "ĠSouth": 3032,
      "acy": 3033,
      "ustral": 3034,
      "ĠBl": 3035,
      "itive": 3036,
      "template": 3037,
      "Ġdiv": 3038,
      "ĠCent": 3039,
      "44": 3040,
      "Ġincre": 3041,
      "ĠWest": 3042,
      "Ġtotal": 3043,
      "ending": 3044,
      "lap": 3045,
      "ead": 3046,
      "ugust": 3047,
      "05": 3048,
      "aced": 3049,
      "ĠLicense": 3050,
      "Ġ**": 3051,
      "Ġcopy": 3052,
      "Configuration": 3053,
      "fa": 3054,
      "If": 3055,
      "Position": 3056,
      "ither": 3057,
      "Ġdeath": 3058,
      "iff": 3059,
      "sigma": 3060,
      "rypt": 3061,
      "Ġshort": 3062,
      "Ġinterface": 3063,
      "Ġrole": 3064,
      "ians": 3065,
      "()->": 3066,
      "Case": 3067,
      "Per": 3068,
      "Ġold": 3069,
      "Ġargs": 3070,
      "cluded": 3071,
      "Ġ(\\": 3072,
      "irection": 3073,
      "ords": 3074,
      "Ġinternal": 3075,
      "ĠGerm": 3076,
      "Fe": 3077,
      "Ġfloat": 3078,
      "level": 3079,
      "Ġorgan": 3080,
      "Ġbook": 3081,
      "Vis": 3082,
      "big": 3083,
      "bool": 3084,
      "Ġassoci": 3085,
      "Parameter": 3086,
      "IO": 3087,
      "Ġavailable": 3088,
      "Ġes": 3089,
      "Ġposs": 3090,
      "icle": 3091,
      "aded": 3092,
      "IC": 3093,
      "Ġobj": 3094,
      "Container": 3095,
      "Tag": 3096,
      "lip": 3097,
      "Ġnetwork": 3098,
      "edia": 3099,
      "aving": 3100,
      "Ġnav": 3101,
      "Utils": 3102,
      "cto": 3103,
      "Ġwon": 3104,
      "ampion": 3105,
      "CODE": 3106,
      "reen": 3107,
      "cs": 3108,
      "Ġwant": 3109,
      "ptember": 3110,
      "ĠNo": 3111,
      "ĠGL": 3112,
      "ulti": 3113,
      "ĠFile": 3114,
      "ording": 3115,
      "gl": 3116,
      "only": 3117,
      "Header": 3118,
      "ways": 3119,
      ")(": 3120,
      "*}": 3121,
      "Ġquery": 3122,
      "Open": 3123,
      "soft": 3124,
      "istor": 3125,
      "IS": 3126,
      "final": 3127,
      "ately": 3128,
      "ÑĢ": 3129,
      "uint": 3130,
      "ĠâĢĶ": 3131,
      "Ġcreated": 3132,
      "aut": 3133,
      "bind": 3134,
      "VAL": 3135,
      "Ġparameters": 3136,
      "mber": 3137,
      "Ġq": 3138,
      "Max": 3139,
      "Ġlarge": 3140,
      ".$": 3141,
      "Ġfiles": 3142,
      "ctober": 3143,
      "Ġfore": 3144,
      "Ġlaw": 3145,
      "ĠID": 3146,
      "root": 3147,
      "ued": 3148,
      "=\"../../../../../../": 3149,
      "adio": 3150,
      "Ġmusic": 3151,
      "atal": 3152,
      "strap": 3153,
      "Ġvariable": 3154,
      "Level": 3155,
      "Ġhow": 3156,
      "ness": 3157,
      "Ġcur": 3158,
      "ansport": 3159,
      "Ġmember": 3160,
      "ĠJanuary": 3161,
      "Min": 3162,
      "Unit": 3163,
      "ĠBy": 3164,
      "Ġmove": 3165,
      "criptor": 3166,
      "Ġoriginal": 3167,
      "Http": 3168,
      "iness": 3169,
      "olds": 3170,
      "figure": 3171,
      "Ġann": 3172,
      "Ġlife": 3173,
      "^{-": 3174,
      "Interface": 3175,
      "istry": 3176,
      "acing": 3177,
      "Ġlay": 3178,
      "itory": 3179,
      "float": 3180,
      "direct": 3181,
      "Ġeven": 3182,
      "ctx": 3183,
      "Co": 3184,
      "roy": 3185,
      "tree": 3186,
      "mathrm": 3187,
      "Height": 3188,
      "Ġins": 3189,
      "oman": 3190,
      "PC": 3191,
      "gen": 3192,
      "boot": 3193,
      "ĠRep": 3194,
      "resource": 3195,
      ":\"": 3196,
      "'),": 3197,
      "ensor": 3198,
      "aim": 3199,
      "match": 3200,
      "ĠGr": 3201,
      "Ġworld": 3202,
      "delta": 3203,
      "Ġthose": 3204,
      "ZE": 3205,
      "Ġdom": 3206,
      "Ġuint": 3207,
      "][": 3208,
      "ND": 3209,
      "artifactId": 3210,
      "2009": 3211,
      "Ġlen": 3212,
      "Ġway": 3213,
      "adius": 3214,
      "%;": 3215,
      "2008": 3216,
      "Ġseveral": 3217,
      "store": 3218,
      "FO": 3219,
      "70": 3220,
      "Ġoffic": 3221,
      "late": 3222,
      "([": 3223,
      "buffer": 3224,
      "ales": 3225,
      "Ġconnection": 3226,
      "uture": 3227,
      "ĠEd": 3228,
      "river": 3229,
      "ended": 3230,
      "See": 3231,
      ";->": 3232,
      "Connection": 3233,
      "Ġvery": 3234,
      "inner": 3235,
      "task": 3236,
      "Ġsection": 3237,
      "Control": 3238,
      "OP": 3239,
      "Ġiss": 3240,
      "control": 3241,
      "aper": 3242,
      "quad": 3243,
      "BU": 3244,
      "ĠMarch": 3245,
      "pril": 3246,
      "./": 3247,
      "ĠClass": 3248,
      "ĠType": 3249,
      "Ġreleased": 3250,
      "inary": 3251,
      "tml": 3252,
      "ĠAugust": 3253,
      "where": 3254,
      "Ġdest": 3255,
      "Ġ{}": 3256,
      "token": 3257,
      "acity": 3258,
      "48": 3259,
      "ĠYou": 3260,
      "ãģ": 3261,
      "Ġregion": 3262,
      "rel": 3263,
      "ba": 3264,
      "Ġdue": 3265,
      "Ġside": 3266,
      "Record": 3267,
      "Callback": 3268,
      "lied": 3269,
      "Ġcharacter": 3270,
      "Exec": 3271,
      "Ġobt": 3272,
      "Ġfull": 3273,
      "Ġcap": 3274,
      "command": 3275,
      "Empty": 3276,
      "ĠGu": 3277,
      "lege": 3278,
      "API": 3279,
      "Ġet": 3280,
      "modal": 3281,
      "hav": 3282,
      "essages": 3283,
      "HE": 3284,
      "Ġspace": 3285,
      "Ġsaid": 3286,
      "eline": 3287,
      "ĠSup": 3288,
      "Json": 3289,
      "ĠSeptember": 3290,
      "Ġdate": 3291,
      "Ġalong": 3292,
      "je": 3293,
      "born": 3294,
      "Location": 3295,
      "groupId": 3296,
      "omic": 3297,
      "queue": 3298,
      "Ġaw": 3299,
      "Ð¾Ð": 3300,
      "tilde": 3301,
      "ĠUS": 3302,
      "ĠReturns": 3303,
      "Range": 3304,
      "cor": 3305,
      "draw": 3306,
      "gamma": 3307,
      ">,": 3308,
      "should": 3309,
      "Ġpadding": 3310,
      "%%": 3311,
      "Document": 3312,
      "Ġnear": 3313,
      "can": 3314,
      "ada": 3315,
      "Ġbuffer": 3316,
      "+\\": 3317,
      "AM": 3318,
      "2000": 3319,
      "Ġbound": 3320,
      "Module": 3321,
      "ultiple": 3322,
      "Ġ*)": 3323,
      "Pe": 3324,
      "Ġalready": 3325,
      "ads": 3326,
      "Font": 3327,
      "Ġjo": 3328,
      "ĠOctober": 3329,
      "2020": 3330,
      "Ġmembers": 3331,
      "Ġbody": 3332,
      "Settings": 3333,
      "ĠThere": 3334,
      "hether": 3335,
      "gor": 3336,
      "ached": 3337,
      "Ġmode": 3338,
      "mar": 3339,
      "Ġanother": 3340,
      "urther": 3341,
      "Const": 3342,
      "dest": 3343,
      "Write": 3344,
      "Ġreturned": 3345,
      "uted": 3346,
      "oriz": 3347,
      "Hash": 3348,
      "Ã³": 3349,
      "fil": 3350,
      "''": 3351,
      "second": 3352,
      "used": 3353,
      "device": 3354,
      "Ġvol": 3355,
      "cember": 3356,
      "Description": 3357,
      "times": 3358,
      "ĠUp": 3359,
      "before": 3360,
      "08": 3361,
      "Ġtrack": 3362,
      "ration": 3363,
      "ĠOF": 3364,
      "era": 3365,
      "imate": 3366,
      "layer": 3367,
      "COLOR": 3368,
      "ilar": 3369,
      "ĠJune": 3370,
      "Ġframe": 3371,
      "ĠĠĠĠĠĠĠĠĠĠĠĠĠĠĠĠĠĠĠĠĠ": 3372,
      "IP": 3373,
      "Ġaround": 3374,
      "Search": 3375,
      "ham": 3376,
      "Params": 3377,
      "ATION": 3378,
      "ged": 3379,
      "Top": 3380,
      "ci": 3381,
      "\"))": 3382,
      "2007": 3383,
      "Ġrow": 3384,
      "Ġstill": 3385,
      "Ġver": 3386,
      "Ġfilter": 3387,
      "ĠJuly": 3388,
      "render": 3389,
      "KE": 3390,
      "]{": 3391,
      "thon": 3392,
      "07": 3393,
      "iment": 3394,
      "Thread": 3395,
      "empty": 3396,
      "author": 3397,
      "bove": 3398,
      "Acc": 3399,
      "urope": 3400,
      "ULT": 3401,
      "non": 3402,
      "Ġpower": 3403,
      "Ġsearch": 3404,
      "hel": 3405,
      "ĠCreate": 3406,
      "02": 3407,
      "Ġparams": 3408,
      "Sec": 3409,
      "Ġformer": 3410,
      "Menu": 3411,
      "Ġleg": 3412,
      "prec": 3413,
      "drop": 3414,
      "patch": 3415,
      "ĠAustral": 3416,
      "Ġwrite": 3417,
      ":(": 3418,
      "cul": 3419,
      "debug": 3420,
      "lit": 3421,
      "2006": 3422,
      "Next": 3423,
      "Ġinstall": 3424,
      "anc": 3425,
      "Ġhouse": 3426,
      "ĠThey": 3427,
      "Ġdel": 3428,
      "Ġclo": 3429,
      "iddle": 3430,
      "fs": 3431,
      "dict": 3432,
      "Ġevents": 3433,
      "Ġgeneral": 3434,
      "caption": 3435,
      "actions": 3436,
      "anel": 3437,
      "Change": 3438,
      "anagement": 3439,
      "ĠApril": 3440,
      "gest": 3441,
      "QL": 3442,
      "cade": 3443,
      "Option": 3444,
      "ilit": 3445,
      "otal": 3446,
      "PECT": 3447,
      "background": 3448,
      "entity": 3449,
      "Ġexper": 3450,
      "Ġstream": 3451,
      "wise": 3452,
      "Script": 3453,
      "():": 3454,
      "models": 3455,
      "ev": 3456,
      "}{\\": 3457,
      "Ab": 3458,
      "pth": 3459,
      "Ġnamed": 3460,
      "Ġplayed": 3461,
      "Ñģ": 3462,
      "ftware": 3463,
      "UP": 3464,
      "ĠSp": 3465,
      "ensions": 3466,
      "etch": 3467,
      "Schema": 3468,
      "SH": 3469,
      "\"));": 3470,
      "ĠHowever": 3471,
      "Ġcity": 3472,
      "ana": 3473,
      "ĠNorth": 3474,
      "ĠNS": 3475,
      "{{": 3476,
      "Ġlook": 3477,
      "Ġtyp": 3478,
      "Ġbel": 3479,
      "mail": 3480,
      "nd": 3481,
      "conf": 3482,
      "Ġchildren": 3483,
      "ipp": 3484,
      "ĠAct": 3485,
      "ocial": 3486,
      "Ġfilename": 3487,
      "Ġ\"\\": 3488,
      "ĠCity": 3489,
      "Ġearly": 3490,
      "AV": 3491,
      "Ġ>=": 3492,
      "usiness": 3493,
      "theta": 3494,
      "^\\": 3495,
      "Process": 3496,
      "ĠDef": 3497,
      "Work": 3498,
      "Impl": 3499,
      "stit": 3500,
      "ĠPart": 3501,
      "ugins": 3502,
      "msg": 3503,
      "vers": 3504,
      "Ġxml": 3505,
      "Serial": 3506,
      "uter": 3507,
      "ĠNovember": 3508,
      "ino": 3509,
      "Ġabove": 3510,
      "ĠII": 3511,
      "ĠVal": 3512,
      "ĠLog": 3513,
      "border": 3514,
      "rodu": 3515,
      "PA": 3516,
      "None": 3517,
      "ias": 3518,
      "Ġbr": 3519,
      "Ġdon": 3520,
      "Ġoffset": 3521,
      "Ag": 3522,
      "Ġreceived": 3523,
      "Ġcustom": 3524,
      "?:": 3525,
      "ĠAssert": 3526,
      "tim": 3527,
      "Que": 3528,
      "XX": 3529,
      "Properties": 3530,
      "gorith": 3531,
      "hash": 3532,
      "67": 3533,
      "ĠRec": 3534,
      "Op": 3535,
      "ysis": 3536,
      "leq": 3537,
      "ĠBritish": 3538,
      "cell": 3539,
      "irm": 3540,
      "Ġreturns": 3541,
      "hentic": 3542,
      "Ġoverride": 3543,
      "'>": 3544,
      "ĠDecember": 3545,
      "Project": 3546,
      "Ġroot": 3547,
      "Ġmag": 3548,
      "STR": 3549,
      "images": 3550,
      "ĠException": 3551,
      "Ġcour": 3552,
      "arr": 3553,
      "Session": 3554,
      "known": 3555,
      "Ġelements": 3556,
      "ECT": 3557,
      "curity": 3558,
      "internal": 3559,
      "ÃŃ": 3560,
      "DIR": 3561,
      "Integer": 3562,
      "Ġclose": 3563,
      "Po": 3564,
      "rest": 3565,
      "hes": 3566,
      "NavBar": 3567,
      "pose": 3568,
      "card": 3569,
      "delete": 3570,
      "Store": 3571,
      "cm": 3572,
      "aff": 3573,
      "ference": 3574,
      "Ġremove": 3575,
      "sign": 3576,
      "ster": 3577,
      "Current": 3578,
      "ĠData": 3579,
      "It": 3580,
      "Ġ::": 3581,
      "Ġdr": 3582,
      "Ġauthor": 3583,
      "alysis": 3584,
      "ĠBr": 3585,
      "Ġgl": 3586,
      "files": 3587,
      "Ġmethods": 3588,
      "65": 3589,
      "04": 3590,
      "Ġfail": 3591,
      "Async": 3592,
      "nu": 3593,
      "rho": 3594,
      "Inst": 3595,
      "values": 3596,
      "ãĥ": 3597,
      "Ġspecific": 3598,
      "Parser": 3599,
      "Rout": 3600,
      "Ġrelation": 3601,
      "Ġday": 3602,
      "long": 3603,
      "Ġhome": 3604,
      "Ġdesign": 3605,
      "aves": 3606,
      "oice": 3607,
      "ĠMan": 3608,
      "auth": 3609,
      "cap": 3610,
      "Ġband": 3611,
      "urg": 3612,
      "Ġbirths": 3613,
      "docs": 3614,
      "expected": 3615,
      "ĠAb": 3616,
      "verse": 3617,
      "Ġvirtual": 3618,
      "Ġtake": 3619,
      "=\"/": 3620,
      "Expression": 3621,
      "bruary": 3622,
      "ĉĉĊ": 3623,
      "Ġrender": 3624,
      "afe": 3625,
      "na": 3626,
      "alf": 3627,
      "hip": 3628,
      "Local": 3629,
      ",\"": 3630,
      "Ġwin": 3631,
      "tau": 3632,
      "encies": 3633,
      "century": 3634,
      "Ġentry": 3635,
      "ters": 3636,
      "Icon": 3637,
      "88": 3638,
      "session": 3639,
      "env": 3640,
      "Ġgovernment": 3641,
      "Ġdecl": 3642,
      "kind": 3643,
      "tempt": 3644,
      "Ptr": 3645,
      "ampionship": 3646,
      "Ġfre": 3647,
      "dist": 3648,
      "Pos": 3649,
      "Ġhistory": 3650,
      "ĠDE": 3651,
      "example": 3652,
      "Ġke": 3653,
      "Copy": 3654,
      "Ġattribute": 3655,
      "ĠLeague": 3656,
      "brary": 3657,
      "Ġpoints": 3658,
      "Direct": 3659,
      "ij": 3660,
      "ĠMe": 3661,
      "Ġbest": 3662,
      "Ġoperation": 3663,
      "Ġbo": 3664,
      "Ġeither": 3665,
      "Ġhead": 3666,
      "valu": 3667,
      "$-": 3668,
      "transform": 3669,
      "ety": 3670,
      "asure": 3671,
      "ted": 3672,
      "tax": 3673,
      "icker": 3674,
      "Ġprovided": 3675,
      "ĠEurope": 3676,
      "Ġsyn": 3677,
      "CA": 3678,
      "webkit": 3679,
      "ggle": 3680,
      "interface": 3681,
      "ites": 3682,
      "Ġperiod": 3683,
      "Ġmiss": 3684,
      "Ġmajor": 3685,
      "ĠKing": 3686,
      "hover": 3687,
      "lice": 3688,
      "Ġclear": 3689,
      "ymf": 3690,
      "Port": 3691,
      "widget": 3692,
      "Ġprof": 3693,
      "parameter": 3694,
      "ymfony": 3695,
      "Match": 3696,
      "break": 3697,
      "BO": 3698,
      "send": 3699,
      "ĠRem": 3700,
      "Ġmer": 3701,
      "partial": 3702,
      "Ġproperties": 3703,
      "EQ": 3704,
      "06": 3705,
      "}/": 3706,
      "2005": 3707,
      "à¤": 3708,
      "ĠNot": 3709,
      "Ġwomen": 3710,
      "ĠBG": 3711,
      "Delta": 3712,
      "olve": 3713,
      "orizont": 3714,
      "adow": 3715,
      "sv": 3716,
      "================================": 3717,
      "atter": 3718,
      "255": 3719,
      "(:": 3720,
      "toString": 3721,
      "Ġglobal": 3722,
      "ised": 3723,
      "footer": 3724,
      "ĠEXPECT": 3725,
      "Ġspe": 3726,
      "bootstrap": 3727,
      "eded": 3728,
      "Ġhash": 3729,
      "Prot": 3730,
      "urity": 3731,
      "eqref": 3732,
      "Ġreference": 3733,
      "Helper": 3734,
      "mode": 3735,
      "Ġaccount": 3736,
      "09": 3737,
      "Ġresp": 3738,
      "Order": 3739,
      "Render": 3740,
      "rench": 3741,
      "join": 3742,
      "arge": 3743,
      "oder": 3744,
      "ALL": 3745,
      "van": 3746,
      "ires": 3747,
      "Ġlanguage": 3748,
      ")]": 3749,
      "Ġjav": 3750,
      "Ġtag": 3751,
      "nap": 3752,
      "&#": 3753,
      "ä¸": 3754,
      "estamp": 3755,
      "illion": 3756,
      "licit": 3757,
      "Ġfilms": 3758,
      "Ġlimit": 3759,
      "Ġcar": 3760,
      "ĠAfter": 3761,
      "RL": 3762,
      "Rect": 3763,
      "ĠSo": 3764,
      "dependent": 3765,
      "Ġcommon": 3766,
      "Ġ...": 3767,
      "ones": 3768,
      "Ġbuilt": 3769,
      "ĠDis": 3770,
      "Ġtypes": 3771,
      "Template": 3772,
      "rew": 3773,
      "Ġdeter": 3774,
      "make": 3775,
      "uman": 3776,
      "Ġfields": 3777,
      "SET": 3778,
      "foo": 3779,
      "Ġhttps": 3780,
      "Ġcontains": 3781,
      "Ġcenter": 3782,
      "Device": 3783,
      "Reference": 3784,
      "Ġknow": 3785,
      "Ġundefined": 3786,
      "Core": 3787,
      "ĠWhen": 3788,
      "=\"_": 3789,
      "plugin": 3790,
      "ights": 3791,
      "ges": 3792,
      "rade": 3793,
      "mm": 3794,
      "Ġtemplate": 3795,
      "stack": 3796,
      "Ġindic": 3797,
      "equals": 3798,
      "scale": 3799,
      "Ġmuch": 3800,
      "Ġincluded": 3801,
      "Operation": 3802,
      "prop": 3803,
      "Ġfr": 3804,
      "Ġvert": 3805,
      "skip": 3806,
      "Ġland": 3807,
      "ipal": 3808,
      "HO": 3809,
      "ordin": 3810,
      "Left": 3811,
      "Ġlocation": 3812,
      "Ġ['": 3813,
      "Ġtown": 3814,
      "orizontal": 3815,
      "Ġapplication": 3816,
      "ĠFebruary": 3817,
      "Ġcomponent": 3818,
      "DL": 3819,
      "Ġfree": 3820,
      "}(\\": 3821,
      "TER": 3822,
      "ĠChar": 3823,
      "imension": 3824,
      "###": 3825,
      "levision": 3826,
      "utions": 3827,
      "cat": 3828,
      "'],": 3829,
      "Ġcompet": 3830,
      "Ġcollection": 3831,
      "Ġcorrespond": 3832,
      "Ġscope": 3833,
      "ries": 3834,
      "copy": 3835,
      "BA": 3836,
      "Ġsimilar": 3837,
      "yl": 3838,
      "03": 3839,
      "ĠTrans": 3840,
      "Ġcareer": 3841,
      "legate": 3842,
      "ĠChrist": 3843,
      "Ġhandle": 3844,
      "ãĤ": 3845,
      "Ġ(\"": 3846,
      "Iter": 3847,
      "global": 3848,
      "ĠBGCOLOR": 3849,
      "Ġarch": 3850,
      "Ġequal": 3851,
      "ĠRo": 3852,
      "Ġpossible": 3853,
      "clus": 3854,
      "Sp": 3855,
      "Tool": 3856,
      "sim": 3857,
      "After": 3858,
      "Ġsent": 3859,
      "Ġtoken": 3860,
      "}$,": 3861,
      "Ġempty": 3862,
      "UB": 3863,
      "ictionary": 3864,
      "Parameters": 3865,
      "click": 3866,
      "47": 3867,
      "Ġplayer": 3868,
      "support": 3869,
      "ha": 3870,
      "ERROR": 3871,
      "disabled": 3872,
      "Ġtimes": 3873,
      "cp": 3874,
      "ention": 3875,
      "Handle": 3876,
      "Ġnormal": 3877,
      "eder": 3878,
      "ORT": 3879,
      "settings": 3880,
      "omega": 3881,
      "pop": 3882,
      "ogn": 3883,
      "clear": 3884,
      "49": 3885,
      "ĠBar": 3886,
      "dated": 3887,
      "Ġcert": 3888,
      "blockList": 3889,
      "Defin": 3890,
      "Title": 3891,
      "illiam": 3892,
      "reet": 3893,
      "|\\": 3894,
      "vm": 3895,
      "Use": 3896,
      "Ġsite": 3897,
      "Host": 3898,
      "MM": 3899,
      "uple": 3900,
      "Names": 3901,
      "Ġ``": 3902,
      "Ġactive": 3903,
      "Ġheld": 3904,
      "Ġrespect": 3905,
      "ĠTO": 3906,
      "Ġder": 3907,
      "yc": 3908,
      "ĠEnglish": 3909,
      "Ge": 3910,
      "Tests": 3911,
      "ancel": 3912,
      "orig": 3913,
      "One": 3914,
      "Values": 3915,
      "Ġiter": 3916,
      "types": 3917,
      "exports": 3918,
      "Ġdone": 3919,
      "Dec": 3920,
      "ulture": 3921,
      "2004": 3922,
      "Metadata": 3923,
      "aven": 3924,
      "}$.": 3925,
      "Ġtech": 3926,
      "Ġpopulation": 3927,
      "Ġ~": 3928,
      "Ġadded": 3929,
      "Ġinfo": 3930,
      "American": 3931,
      "Ġpay": 3932,
      "panel": 3933,
      "ĠPer": 3934,
      "amil": 3935,
      "posed": 3936,
      "ĠĠĠĠĠĠĠĠĠĠĠĠĠĠĠĠĠĠĠĠ": 3937,
      "Dir": 3938,
      "Ġcompany": 3939,
      "cr": 3940,
      "Ġremov": 3941,
      "Ġcause": 3942,
      "lim": 3943,
      "OS": 3944,
      "Ġdescribed": 3945,
      "Ġlocated": 3946,
      "Ġbegan": 3947,
      "Vector": 3948,
      "ĠFl": 3949,
      "Ġparse": 3950,
      "ĠRob": 3951,
      "Num": 3952,
      "istic": 3953,
      "rics": 3954,
      "Invalid": 3955,
      "Ġdat": 3956,
      "uri": 3957,
      "Ġwhether": 3958,
      "address": 3959,
      "Down": 3960,
      "Ġterm": 3961,
      "icons": 3962,
      "ĠOR": 3963,
      "Ġarguments": 3964,
      "handle": 3965,
      "INE": 3966,
      "Ġ})": 3967,
      "=\"../../../": 3968,
      "Ġexception": 3969,
      "-->": 3970,
      "History": 3971,
      "export": 3972,
      "Ġage": 3973,
      "77": 3974,
      "idual": 3975,
      "Ġselected": 3976,
      "Ġcache": 3977,
      "Classes": 3978,
      "padding": 3979,
      "Ġestablished": 3980,
      "Ġinstead": 3981,
      "split": 3982,
      "2001": 3983,
      "Ġbegin": 3984,
      "Tim": 3985,
      "chedu": 3986,
      "Ġgood": 3987,
      "system": 3988,
      "ĠĠĠĠĠĠĠĠĠĠĠĠĠĠĠĠĠĠĠĠĠĠĠĠĠĠĠĠĠĠĠĠĠĠĠĠĠĠĠ": 3989,
      "pis": 3990,
      "42": 3991,
      "Ġstore": 3992,
      "Sk": 3993,
      "Sign": 3994,
      "graphics": 3995,
      "Ġ;": 3996,
      "obile": 3997,
      "rary": 3998,
      "Eng": 3999,
      "auto": 4000,
      "custom": 4001,
      "utor": 4002,
      "ĠMc": 4003,
      "coded": 4004,
      "Ġgu": 4005,
      "Ã¼": 4006,
      "Ġecho": 4007,
      "annotation": 4008,
      "vector": 4009,
      "istrict": 4010,
      "ving": 4011,
      "Ġinvoke": 4012,
      ">();": 4013,
      "ixt": 4014,
      "ynamic": 4015,
      "rep": 4016,
      "sq": 4017,
      "media": 4018,
      "ĠCheck": 4019,
      "dependency": 4020,
      "ensure": 4021,
      "success": 4022,
      "Ġnamespace": 4023,
      "Track": 4024,
      "icrosoft": 4025,
      "Ġchannel": 4026,
      "Us": 4027,
      "jo": 4028,
      "Ġparticular": 4029,
      "ounded": 4030,
      "Parent": 4031,
      "ĠMap": 4032,
      "Ġspecial": 4033,
      "replace": 4034,
      "access": 4035,
      "SO": 4036,
      "ART": 4037,
      "Ġev": 4038,
      "Build": 4039,
      "Application": 4040,
      "Ġnames": 4041,
      "ĠHis": 4042,
      "Ġturn": 4043,
      "Rel": 4044,
      "assed": 4045,
      "ua": 4046,
      "Are": 4047,
      "Ġconfiguration": 4048,
      "otion": 4049,
      "Ġpublished": 4050,
      "Argument": 4051,
      "Draw": 4052,
      "Kind": 4053,
      "False": 4054,
      "enum": 4055,
      "GET": 4056,
      "Debug": 4057,
      "CL": 4058,
      ">.": 4059,
      "Ġhig": 4060,
      "pository": 4061,
      "Ġbox": 4062,
      "ĠJap": 4063,
      "Ġdelete": 4064,
      "req": 4065,
      "exception": 4066,
      "sort": 4067,
      "mi": 4068,
      "ĉĠ": 4069,
      "Ġtook": 4070,
      "virtual": 4071,
      "medi": 4072,
      "Ġsolid": 4073,
      "Ġvia": 4074,
      "Api": 4075,
      "Ġappear": 4076,
      "Assert": 4077,
      "ĠBo": 4078,
      "_;": 4079,
      "fty": 4080,
      "ORD": 4081,
      "quent": 4082,
      "Reader": 4083,
      "Ġsepar": 4084,
      "Ġrelease": 4085,
      "}\"": 4086,
      "Ġwritten": 4087,
      "ws": 4088,
      "cil": 4089,
      "Ġproduct": 4090,
      "ĠCor": 4091,
      "ĠCoun": 4092,
      "ii": 4093,
      "ka": 4094,
      "2021": 4095,
      "ĠInter": 4096,
      "Has": 4097,
      "energy": 4098,
      "Bytes": 4099,
      "Ġinline": 4100,
      "----------------------------------------------------------------": 4101,
      "byte": 4102,
      "Ġload": 4103,
      "VI": 4104,
      "hem": 4105,
      "(*": 4106,
      "toggle": 4107,
      "wide": 4108,
      "greg": 4109,
      "Stack": 4110,
      "Ġcontainer": 4111,
      "SION": 4112,
      "inition": 4113,
      "PRE": 4114,
      "Wh": 4115,
      "Ġput": 4116,
      "Tab": 4117,
      "infty": 4118,
      "argument": 4119,
      "`.": 4120,
      "Ġfunctions": 4121,
      "ATH": 4122,
      "component": 4123,
      "Ġunsigned": 4124,
      "\")]": 4125,
      "yd": 4126,
      "Ġra": 4127,
      "Mon": 4128,
      "cert": 4129,
      "68": 4130,
      "Cal": 4131,
      "95": 4132,
      "plit": 4133,
      "$$": 4134,
      "Ġclub": 4135,
      "Args": 4136,
      "ours": 4137,
      "Ġsession": 4138,
      "though": 4139,
      "ĠName": 4140,
      "vas": 4141,
      "Ġtransform": 4142,
      "ille": 4143,
      "Ġcover": 4144,
      "Ġvill": 4145,
      "Ġbyte": 4146,
      "range": 4147,
      "gn": 4148,
      "ti": 4149,
      "help": 4150,
      "Ġden": 4151,
      "ĠSw": 4152,
      "Ġrest": 4153,
      "Ġredu": 4154,
      "Ġmodels": 4155,
      "Decl": 4156,
      "RA": 4157,
      "gorithm": 4158,
      "ĠStr": 4159,
      "admin": 4160,
      "grad": 4161,
      "DD": 4162,
      "={": 4163,
      "aries": 4164,
      "coq": 4165,
      "ology": 4166,
      "Ġdescription": 4167,
      "ondon": 4168,
      "Ġos": 4169,
      "ĠAfr": 4170,
      "ĠHigh": 4171,
      "sql": 4172,
      "Delete": 4173,
      "lies": 4174,
      "fn": 4175,
      "ressed": 4176,
      "ty": 4177,
      "pag": 4178,
      "Select": 4179,
      "endar": 4180,
      "ĠTrue": 4181,
      "attribute": 4182,
      "---": 4183,
      "ography": 4184,
      ";<": 4185,
      "Ġcor": 4186,
      "ĠÃ": 4187,
      "Ġfailed": 4188,
      "ids": 4189,
      "achine": 4190,
      "iteral": 4191,
      "Ġtim": 4192,
      "Ġorigin": 4193,
      "ORM": 4194,
      "Ġjson": 4195,
      "thers": 4196,
      "WE": 4197,
      "Ġassociated": 4198,
      "framework": 4199,
      "orem": 4200,
      "Ġelect": 4201,
      "sel": 4202,
      "ounds": 4203,
      "Ġheader": 4204,
      "ĠCON": 4205,
      "Ġcamp": 4206,
      "Ġgraph": 4207,
      "Mock": 4208,
      "fields": 4209,
      "Ġstructure": 4210,
      "Ver": 4211,
      "material": 4212,
      "plugins": 4213,
      "Root": 4214,
      "ĠDate": 4215,
      "Package": 4216,
      "Ġmass": 4217,
      "Ġthird": 4218,
      "Ġqual": 4219,
      "Param": 4220,
      "rict": 4221,
      "Ġfew": 4222,
      "Ġjob": 4223,
      "ested": 4224,
      "focus": 4225,
      "Enc": 4226,
      "Policy": 4227,
      "Ġind": 4228,
      "Xml": 4229,
      "Byte": 4230,
      "boolean": 4231,
      "Ġalt": 4232,
      "ctor": 4233,
      "Right": 4234,
      "2003": 4235,
      "ĠJSON": 4236,
      "LIC": 4237,
      "Ġsat": 4238,
      "pg": 4239,
      "AND": 4240,
      "\\,": 4241,
      "quired": 4242,
      "logical": 4243,
      "rown": 4244,
      "ards": 4245,
      "cover": 4246,
      "Enabled": 4247,
      "ford": 4248,
      "Ġstandard": 4249,
      "rip": 4250,
      "rr": 4251,
      "Ġbit": 4252,
      "angular": 4253,
      "Ġless": 4254,
      "inline": 4255,
      "ds": 4256,
      "weight": 4257,
      "46": 4258,
      "Non": 4259,
      "Ġunit": 4260,
      "Ġlate": 4261,
      "ĠSee": 4262,
      "connect": 4263,
      "ersist": 4264,
      "Ġsw": 4265,
      "Long": 4266,
      "Ġmedia": 4267,
      "cloud": 4268,
      "record": 4269,
      "Ġcontinue": 4270,
      "Ġve": 4271,
      "ĠAcc": 4272,
      "oph": 4273,
      "ĠCollege": 4274,
      "Body": 4275,
      "ĠEast": 4276,
      "ĠDep": 4277,
      "Ġdraw": 4278,
      "Ġ('": 4279,
      "Ġswitch": 4280,
      "Ġbuilding": 4281,
      "ases": 4282,
      "callback": 4283,
      "ĠPe": 4284,
      "fg": 4285,
      "Rep": 4286,
      "ln": 4287,
      "win": 4288,
      "Ġdevice": 4289,
      "Writer": 4290,
      "ilitary": 4291,
      "Dom": 4292,
      "lying": 4293,
      "Ġobjects": 4294,
      "Aut": 4295,
      "hr": 4296,
      "ĠAir": 4297,
      "Ġweek": 4298,
      "ros": 4299,
      "insert": 4300,
      "dividual": 4301,
      "esh": 4302,
      "Ġnational": 4303,
      "ĠRun": 4304,
      "Ġdatabase": 4305,
      "ensity": 4306,
      "mock": 4307,
      "FAULT": 4308,
      "ĠMo": 4309,
      "$(": 4310,
      "tip": 4311,
      "ociation": 4312,
      "Ġstation": 4313,
      "Ġsend": 4314,
      "izes": 4315,
      "ATA": 4316,
      "ĠMod": 4317,
      "Bind": 4318,
      "ĠHTML": 4319,
      "Ġserved": 4320,
      "dapt": 4321,
      "IM": 4322,
      "arks": 4323,
      "istration": 4324,
      "Dialog": 4325,
      "Ġintrodu": 4326,
      "ĠQu": 4327,
      "END": 4328,
      "Ġ++": 4329,
      "CP": 4330,
      "Boolean": 4331,
      "Ġeduc": 4332,
      "adoop": 4333,
      "year": 4334,
      "Ġ\"/": 4335,
      "HP": 4336,
      "ĠThese": 4337,
      "Ġaccept": 4338,
      "jection": 4339,
      "Ġbytes": 4340,
      "Vert": 4341,
      "Ġgen": 4342,
      "uggest": 4343,
      "CHE": 4344,
      "aa": 4345,
      "Ġlight": 4346,
      "Ġbelow": 4347,
      "Ġ'/": 4348,
      "85": 4349,
      "ĠLa": 4350,
      "Ġcentury": 4351,
      "items": 4352,
      "ks": 4353,
      "Ġmsg": 4354,
      "Ġdirectory": 4355,
      "Bl": 4356,
      "language": 4357,
      "xi": 4358,
      "Ġgames": 4359,
      "precated": 4360,
      "after": 4361,
      "aker": 4362,
      "Ġvideo": 4363,
      "riend": 4364,
      "ico": 4365,
      "Changed": 4366,
      "Definition": 4367,
      "Ġscale": 4368,
      "han": 4369,
      "Fil": 4370,
      "ington": 4371,
      "double": 4372,
      "VE": 4373,
      "Ġmultiple": 4374,
      "2002": 4375,
      "bm": 4376,
      "gether": 4377,
      "__(": 4378,
      "aws": 4379,
      "ula": 4380,
      "ĠĠĠĠĠĠĊ": 4381,
      "Ġexcept": 4382,
      "izing": 4383,
      "Display": 4384,
      "ĠPres": 4385,
      "ney": 4386,
      "ering": 4387,
      "attle": 4388,
      "atures": 4389,
      "ĠIO": 4390,
      "ike": 4391,
      "ered": 4392,
      "Ġregister": 4393,
      "Edit": 4394,
      "Ġsix": 4395,
      "Ġworks": 4396,
      "Ġfive": 4397,
      "verage": 4398,
      "application": 4399,
      "Click": 4400,
      "}[": 4401,
      "URE": 4402,
      "ĠNe": 4403,
      "'))": 4404,
      "Te": 4405,
      "aken": 4406,
      "ĠLondon": 4407,
      "Ġchanges": 4408,
      "Can": 4409,
      "Ð°Ð": 4410,
      "ĠAmer": 4411,
      "abor": 4412,
      "bor": 4413,
      "Ġelection": 4414,
      "eters": 4415,
      "Ġapi": 4416,
      "ĠFrench": 4417,
      "AGE": 4418,
      "eqn": 4419,
      "ĠWilliam": 4420,
      "Ġmen": 4421,
      "ĠHouse": 4422,
      "Ġinteg": 4423,
      "chor": 4424,
      "cmd": 4425,
      "Ġsuccessful": 4426,
      "Ġselect": 4427,
      "xis": 4428,
      "Ġcrit": 4429,
      "96": 4430,
      "ĠHar": 4431,
      "Ġtransaction": 4432,
      "Ġengine": 4433,
      "SSERT": 4434,
      "edit": 4435,
      "Rule": 4436,
      "ragment": 4437,
      "gu": 4438,
      "apped": 4439,
      "arried": 4440,
      "ĠSub": 4441,
      "Ġreason": 4442,
      "âĢĶ": 4443,
      "\"\"\"": 4444,
      "Ġ<=": 4445,
      "register": 4446,
      "rief": 4447,
      "Ġmean": 4448,
      "Ġshown": 4449,
      "Load": 4450,
      "Ã¤": 4451,
      "ĠRed": 4452,
      "Ġleast": 4453,
      "Ġproblem": 4454,
      "unch": 4455,
      "Storage": 4456,
      "Ġalways": 4457,
      "97": 4458,
      "aught": 4459,
      "Graph": 4460,
      "TEST": 4461,
      "57": 4462,
      "password": 4463,
      "ĠRuss": 4464,
      "Fields": 4465,
      "Ġonce": 4466,
      "mat": 4467,
      "vision": 4468,
      "shot": 4469,
      "ĠST": 4470,
      "ĠArg": 4471,
      "Ġthread": 4472,
      "istics": 4473,
      "ranch": 4474,
      "Descriptor": 4475,
      "FT": 4476,
      "Ġselection": 4477,
      "Ġge": 4478,
      "GN": 4479,
      "`,": 4480,
      "ĠMon": 4481,
      "Channel": 4482,
      "Ġtool": 4483,
      "cpp": 4484,
      "ĠWith": 4485,
      "ursor": 4486,
      "Symfony": 4487,
      "urnal": 4488,
      "dr": 4489,
      "ometry": 4490,
      "acters": 4491,
      "Ġborn": 4492,
      "86": 4493,
      "coin": 4494,
      "pri": 4495,
      "&&": 4496,
      "iant": 4497,
      "Ġoften": 4498,
      "AA": 4499,
      "track": 4500,
      "Ġoperator": 4501,
      "Ġfeatures": 4502,
      ";/": 4503,
      "ably": 4504,
      "ĠWeb": 4505,
      "keyword": 4506,
      "rapper": 4507,
      "ĠOne": 4508,
      "Custom": 4509,
      "lymp": 4510,
      "Ġtree": 4511,
      "served": 4512,
      "install": 4513,
      "Ġspecies": 4514,
      "Ġjavax": 4515,
      "2022": 4516,
      "Obj": 4517,
      "Post": 4518,
      "cape": 4519,
      "ĠBase": 4520,
      "circ": 4521,
      "ĠMy": 4522,
      "ĠChampionship": 4523,
      "Ġmatrix": 4524,
      "Ġstrong": 4525,
      "volution": 4526,
      "Ġstarted": 4527,
      "itude": 4528,
      "ĠFig": 4529,
      "ĠSec": 4530,
      "lier": 4531,
      "olved": 4532,
      "ĠDistrict": 4533,
      "ĠMath": 4534,
      "Ġstop": 4535,
      "email": 4536,
      "Ġscript": 4537,
      "Meta": 4538,
      "ĠError": 4539,
      "chron": 4540,
      "Ġcountry": 4541,
      "scal": 4542,
      "Ġfac": 4543,
      "step": 4544,
      "hadoop": 4545,
      "Ġpack": 4546,
      "Ġattack": 4547,
      "ĠassertEquals": 4548,
      "CTION": 4549,
      "andid": 4550,
      "connection": 4551,
      "Ġimportant": 4552,
      "Ġcannot": 4553,
      "aul": 4554,
      "Ġdistrict": 4555,
      "Queue": 4556,
      "ĠGerman": 4557,
      "Ġbg": 4558,
      "mic": 4559,
      "impl": 4560,
      "Ġargument": 4561,
      "1999": 4562,
      "rupt": 4563,
      "Ġattempt": 4564,
      "region": 4565,
      "ĠOpen": 4566,
      "Ġprovide": 4567,
      "pub": 4568,
      "ĠHer": 4569,
      "psi": 4570,
      "abs": 4571,
      "Ġexpl": 4572,
      "Transaction": 4573,
      "Ġamount": 4574,
      "OK": 4575,
      "ĠDes": 4576,
      "Ġwater": 4577,
      "unsigned": 4578,
      "GE": 4579,
      "=\"@": 4580,
      "ategy": 4581,
      "Ø§": 4582,
      "500": 4583,
      "Ġvector": 4584,
      "margin": 4585,
      "Ġgrad": 4586,
      "ission": 4587,
      "lapse": 4588,
      "ĠSk": 4589,
      "Ġwallet": 4590,
      "holder": 4591,
      "Big": 4592,
      "Ġvarious": 4593,
      "Ġcomb": 4594,
      "Extension": 4595,
      "asing": 4596,
      "Net": 4597,
      "Job": 4598,
      "Ġsupp": 4599,
      "ĠValue": 4600,
      "////////////////////////////////": 4601,
      "Ġenergy": 4602,
      "oung": 4603,
      "ĠDav": 4604,
      "ilities": 4605,
      "JSON": 4606,
      "That": 4607,
      "aset": 4608,
      "ao": 4609,
      "ounter": 4610,
      "Ġcontrib": 4611,
      "itect": 4612,
      "ĠQue": 4613,
      "iagn": 4614,
      "Ġshows": 4615,
      "KEY": 4616,
      "Active": 4617,
      "xx": 4618,
      "ĠUser": 4619,
      "Ġadmin": 4620,
      "ĠLo": 4621,
      "Ġgroups": 4622,
      "Ġresearch": 4623,
      "ĠĠĠĠĠĠĠĠĠĠĠĠĠĠĠĠĠĠĠĠĠĠĠĠĠ": 4624,
      "98": 4625,
      "ĠRE": 4626,
      "II": 4627,
      "ĠEvent": 4628,
      "etime": 4629,
      "Ġtelevision": 4630,
      "Results": 4631,
      "1000": 4632,
      "Ġair": 4633,
      "iol": 4634,
      "ĉĉĉĊ": 4635,
      "Adapt": 4636,
      "Ġannoun": 4637,
      ".*": 4638,
      "ald": 4639,
      "straint": 4640,
      "tries": 4641,
      "Ġsettings": 4642,
      "ĠĠĠĠĠĠĠĠĠĠĠĠĠĠĠĠĠĠ": 4643,
      "ube": 4644,
      "Member": 4645,
      "keys": 4646,
      "category": 4647,
      "HTML": 4648,
      "conn": 4649,
      "ĠLO": 4650,
      "osp": 4651,
      "Ġraise": 4652,
      "ĠService": 4653,
      "Ġmeans": 4654,
      "MD": 4655,
      "Ġpassed": 4656,
      "Ġreport": 4657,
      "then": 4658,
      "Ġpackage": 4659,
      "Ġbutton": 4660,
      "Ġ(*": 4661,
      "Ġdiff": 4662,
      "Msg": 4663,
      "comment": 4664,
      "Ġfurther": 4665,
      "Ġdevelopment": 4666,
      "riority": 4667,
      "iation": 4668,
      "Ġamong": 4669,
      "ĠBro": 4670,
      "alle": 4671,
      "cdot": 4672,
      "Cre": 4673,
      "ama": 4674,
      "contrib": 4675,
      "los": 4676,
      "white": 4677,
      "arp": 4678,
      "ĠInternational": 4679,
      "@\"": 4680,
      "allow": 4681,
      "Found": 4682,
      "Ġhtml": 4683,
      "oll": 4684,
      "Ġround": 4685,
      "amera": 4686,
      "Ġflow": 4687,
      "oom": 4688,
      "Om": 4689,
      "addr": 4690,
      "full": 4691,
      "Show": 4692,
      "actor": 4693,
      "Ġperformance": 4694,
      "ĠSch": 4695,
      "ĠPark": 4696,
      "OM": 4697,
      "ipeline": 4698,
      "ĠSan": 4699,
      "Ġservices": 4700,
      "ittle": 4701,
      "Ġactiv": 4702,
      "Ġattr": 4703,
      "Ġcapt": 4704,
      "ĠAm": 4705,
      "======": 4706,
      "dropdown": 4707,
      "Account": 4708,
      "sumer": 4709,
      "JECT": 4710,
      "Ġbtn": 4711,
      "ĠNor": 4712,
      "Ġsupported": 4713,
      "airs": 4714,
      "havior": 4715,
      "ernel": 4716,
      "inn": 4717,
      "Ġterms": 4718,
      "ĠNOT": 4719,
      "ĠURL": 4720,
      "Ġstudy": 4721,
      "Ġcorrect": 4722,
      "radius": 4723,
      "||": 4724,
      "Doc": 4725,
      "Ġpot": 4726,
      "oost": 4727,
      "zer": 4728,
      "Ġdb": 4729,
      "modules": 4730,
      "utf": 4731,
      "=\"\">": 4732,
      "idence": 4733,
      "most": 4734,
      "Ġconvert": 4735,
      "ailed": 4736,
      "Ġrunning": 4737,
      "lyph": 4738,
      "FILE": 4739,
      "Ġaff": 4740,
      "jquery": 4741,
      "OD": 4742,
      "TED": 4743,
      "Ljava": 4744,
      "ĠPhil": 4745,
      "Ġnever": 4746,
      "(){": 4747,
      "protobuf": 4748,
      "urb": 4749,
      "Ġsl": 4750,
      "herit": 4751,
      "omb": 4752,
      "aging": 4753,
      "initial": 4754,
      "aged": 4755,
      "\">&": 4756,
      "SA": 4757,
      "Timeout": 4758,
      "BC": 4759,
      "omatic": 4760,
      "Widget": 4761,
      "hs": 4762,
      "Ġinstanceof": 4763,
      "ĠArt": 4764,
      "sqrt": 4765,
      "Ġdi": 4766,
      "Ġcirc": 4767,
      "grid": 4768,
      "SL": 4769,
      "Red": 4770,
      "thing": 4771,
      "Ġnumer": 4772,
      "Ã¶": 4773,
      "56": 4774,
      "subsection": 4775,
      "Pop": 4776,
      "Send": 4777,
      "Ġrandom": 4778,
      "scroll": 4779,
      "Ġrelative": 4780,
      "wner": 4781,
      "fill": 4782,
      "Ġbecome": 4783,
      "anner": 4784,
      "ands": 4785,
      "aints": 4786,
      "Ġconsidered": 4787,
      "Ġhaving": 4788,
      "Ġdefine": 4789,
      "ellow": 4790,
      "mitted": 4791,
      "}_{\\": 4792,
      "Ġelem": 4793,
      "ById": 4794,
      "Scope": 4795,
      "Ġadditional": 4796,
      "Ġng": 4797,
      "Ġsubject": 4798,
      "Ġdied": 4799,
      "'.": 4800,
      "iforn": 4801,
      "ris": 4802,
      "ota": 4803,
      "Ġphys": 4804,
      "hi": 4805,
      "eds": 4806,
      "iform": 4807,
      "none": 4808,
      "Float": 4809,
      "Ġitems": 4810,
      "Ġ),": 4811,
      "Ġstat": 4812,
      "Perm": 4813,
      "DF": 4814,
      "Ġign": 4815,
      "Ġlines": 4816,
      "Ġwar": 4817,
      "ĠCup": 4818,
      "\\\"": 4819,
      "Ġmemory": 4820,
      "Gr": 4821,
      "Ġclaim": 4822,
      "Lock": 4823,
      "orph": 4824,
      "vec": 4825,
      "Ġstates": 4826,
      "Pool": 4827,
      "Ġconn": 4828,
      "ĠDefault": 4829,
      "alled": 4830,
      "Flags": 4831,
      "VERSION": 4832,
      "epsilon": 4833,
      "Ġnov": 4834,
      "ĠTime": 4835,
      "Network": 4836,
      "Ins": 4837,
      "romise": 4838,
      "MENT": 4839,
      "fly": 4840,
      "(!": 4841,
      "oment": 4842,
      "Ġnec": 4843,
      "printf": 4844,
      "tsd": 4845,
      "Variable": 4846,
      "Mark": 4847,
      "resses": 4848,
      "ĠMed": 4849,
      "alloc": 4850,
      "Ġproduction": 4851,
      "Items": 4852,
      "Ġ%}": 4853,
      "Runtime": 4854,
      "ĠDiv": 4855,
      "hentication": 4856,
      "like": 4857,
      "short": 4858,
      "Ġneg": 4859,
      "Ġindividual": 4860,
      "87": 4861,
      "Ġson": 4862,
      "SER": 4863,
      "Ġnorth": 4864,
      "[:": 4865,
      "uel": 4866,
      "Ġweb": 4867,
      "Ġlower": 4868,
      "normal": 4869,
      "Ġenvironment": 4870,
      "Ident": 4871,
      "Ġsm": 4872,
      "Internal": 4873,
      "Ġdetails": 4874,
      "rome": 4875,
      "high": 4876,
      "ĠPy": 4877,
      "Ġmoved": 4878,
      "chi": 4879,
      "Ġgenerated": 4880,
      "channel": 4881,
      "legal": 4882,
      "rd": 4883,
      "Ġinvest": 4884,
      "ifornia": 4885,
      "(-": 4886,
      "....": 4887,
      "ĠCre": 4888,
      "numer": 4889,
      "SD": 4890,
      "Ġdeg": 4891,
      "save": 4892,
      "ociety": 4893,
      "ems": 4894,
      "ĠGroup": 4895,
      "letion": 4896,
      "imated": 4897,
      "=\"\"": 4898,
      "ITY": 4899,
      "Activity": 4900,
      "orge": 4901,
      "stats": 4902,
      "ĠGeneral": 4903,
      "sf": 4904,
      "People": 4905,
      "move": 4906,
      "yntax": 4907,
      "çļ": 4908,
      "ĠSum": 4909,
      "Ġbusiness": 4910,
      "uby": 4911,
      "just": 4912,
      "()).": 4913,
      "Ġagre": 4914,
      "ĠPort": 4915,
      "Fr": 4916,
      "psilon": 4917,
      "Each": 4918,
      "shape": 4919,
      "cheme": 4920,
      "EXT": 4921,
      "Ġdoc": 4922,
      "chan": 4923,
      "Ġsort": 4924,
      "}),": 4925,
      "Ġinterest": 4926,
      "Ġexists": 4927,
      "Ġstep": 4928,
      "Me": 4929,
      "Bit": 4930,
      "anguage": 4931,
      "ĠIndian": 4932,
      "ara": 4933,
      "41": 4934,
      "çļĦ": 4935,
      "Ġconsole": 4936,
      "Ġsignific": 4937,
      "SIZE": 4938,
      "Logger": 4939,
      "Ret": 4940,
      "UID": 4941,
      "stand": 4942,
      "Ġcurrently": 4943,
      "Ġimpro": 4944,
      "Init": 4945,
      "}}\\": 4946,
      "ief": 4947,
      "Ġcases": 4948,
      "ango": 4949,
      "*)": 4950,
      "lg": 4951,
      "_->": 4952,
      "ĠRiver": 4953,
      "ĠForm": 4954,
      "Ġblack": 4955,
      "ena": 4956,
      "iagnost": 4957,
      "ĠMich": 4958,
      "ridge": 4959,
      "43": 4960,
      "ario": 4961,
      "isf": 4962,
      "Ġhapp": 4963,
      "throws": 4964,
      "cel": 4965,
      "Windows": 4966,
      "Ġnodes": 4967,
      "Ġscal": 4968,
      "Ġrights": 4969,
      "lands": 4970,
      "Ġcref": 4971,
      "Ġactual": 4972,
      "Ġoccur": 4973,
      "olution": 4974,
      "ĠAg": 4975,
      "ignment": 4976,
      "primary": 4977,
      "PATH": 4978,
      "Only": 4979,
      "]:": 4980,
      "based": 4981,
      "thread": 4982,
      "Ġmock": 4983,
      "Enum": 4984,
      "{}": 4985,
      "duc": 4986,
      "txt": 4987,
      "Ġ[];": 4988,
      "Ġallowed": 4989,
      "Living": 4990,
      "Ġled": 4991,
      "58": 4992,
      "ench": 4993,
      "()));": 4994,
      "Ġtoo": 4995,
      "unic": 4996,
      "Ġnet": 4997,
      "\\\\\\\\": 4998,
      "assets": 4999,
      "rec": 5000,
      "59": 5001,
      "Ġtogether": 5002,
      "Ġquest": 5003,
      ")))": 5004,
      "ĠCour": 5005,
      "Ġide": 5006,
      "ĠOut": 5007,
      "spring": 5008,
      "Loader": 5009,
      "Ġrepl": 5010,
      "Initial": 5011,
      "Omega": 5012,
      "important": 5013,
      "anger": 5014,
      "LOG": 5015,
      "Ġtw": 5016,
      "Ġexpression": 5017,
      "burg": 5018,
      "ĠLoc": 5019,
      "note": 5020,
      "Ġvillage": 5021,
      "oose": 5022,
      "Ġcommunity": 5023,
      "unt": 5024,
      "Ġpat": 5025,
      "Ġerrors": 5026,
      "useum": 5027,
      "Ġred": 5028,
      "Ġpattern": 5029,
      "car": 5030,
      "ucket": 5031,
      "CD": 5032,
      "quare": 5033,
      "rate": 5034,
      "Security": 5035,
      "Lib": 5036,
      "Ġhandler": 5037,
      "Ġsoftware": 5038,
      "Ġmight": 5039,
      "ĠFran": 5040,
      ".__": 5041,
      "ills": 5042,
      "selected": 5043,
      "ĠEl": 5044,
      "ĠEngland": 5045,
      "ĠFalse": 5046,
      "ocr": 5047,
      "Sum": 5048,
      "ĠFirst": 5049,
      "Ġsouth": 5050,
      "bert": 5051,
      "press": 5052,
      "avy": 5053,
      "textbf": 5054,
      ")));": 5055,
      "Ġproduced": 5056,
      "aring": 5057,
      "flags": 5058,
      "schema": 5059,
      "ĠCalifornia": 5060,
      "Grid": 5061,
      "ooks": 5062,
      "hib": 5063,
      "git": 5064,
      "Ġhowever": 5065,
      "ivil": 5066,
      "TEX": 5067,
      "ĠIS": 5068,
      "ĠĠĠĠĠĠĠĠĠĠĠĠĠĠĠĠĠĠĠĠĠĠĠĠ": 5069,
      "controller": 5070,
      "Ġworking": 5071,
      "super": 5072,
      "Ġpract": 5073,
      "Ġsets": 5074,
      "Ġsom": 5075,
      "ĠKey": 5076,
      "Ġ{};": 5077,
      "typ": 5078,
      "Ġhistor": 5079,
      "Ġ${": 5080,
      "Ġ{'": 5081,
      "Ġbgcolor": 5082,
      "ĠUse": 5083,
      "real": 5084,
      "1990": 5085,
      "ĠPo": 5086,
      "asy": 5087,
      "iding": 5088,
      "avel": 5089,
      "89": 5090,
      "Ġrule": 5091,
      "Ġaverage": 5092,
      "typeof": 5093,
      "flu": 5094,
      "properties": 5095,
      "Ġforce": 5096,
      "Ġlibrary": 5097,
      "tection": 5098,
      "Ġopp": 5099,
      "Ġaddition": 5100,
      "_,": 5101,
      "pay": 5102,
      "free": 5103,
      "Ġchanged": 5104,
      "Struct": 5105,
      "Ġdays": 5106,
      "Rest": 5107,
      "Ġcharacters": 5108,
      "Adapter": 5109,
      "Ġsimple": 5110,
      "Ġcomplex": 5111,
      "Ġfollows": 5112,
      "Ġplan": 5113,
      "aign": 5114,
      "olver": 5115,
      "Ġhalf": 5116,
      "aching": 5117,
      "MAX": 5118,
      "ocker": 5119,
      "Ġmillion": 5120,
      "Ġsetting": 5121,
      "Ġdistribution": 5122,
      "256": 5123,
      "oney": 5124,
      "family": 5125,
      "Ġcomplete": 5126,
      "Sing": 5127,
      "lide": 5128,
      "vey": 5129,
      "Transform": 5130,
      "product": 5131,
      "cret": 5132,
      "NotNull": 5133,
      "illa": 5134,
      "PAR": 5135,
      "Ġuses": 5136,
      "napshot": 5137,
      "zon": 5138,
      "adcast": 5139,
      "->_": 5140,
      "eqnarray": 5141,
      "atalog": 5142,
      "Ġadv": 5143,
      "atural": 5144,
      "Ġquant": 5145,
      "400": 5146,
      "Proxy": 5147,
      "ADD": 5148,
      "ĠRoy": 5149,
      "horizontal": 5150,
      "Ġpur": 5151,
      "Panel": 5152,
      ".\\": 5153,
      "ieve": 5154,
      "Help": 5155,
      "51": 5156,
      "Ġconsist": 5157,
      "atio": 5158,
      "Gamma": 5159,
      "Ġscreen": 5160,
      "scription": 5161,
      "ios": 5162,
      "ĠRepublic": 5163,
      "Media": 5164,
      "Directory": 5165,
      "uting": 5166,
      "NavBarCell": 5167,
      "icture": 5168,
      "TABLE": 5169,
      "Ġrate": 5170,
      "Ġconstant": 5171,
      "Any": 5172,
      "Ġkeep": 5173,
      "++;": 5174,
      "ĠParty": 5175,
      "bsite": 5176,
      "ising": 5177,
      "Ġkeys": 5178,
      "manager": 5179,
      "Ġcluster": 5180,
      "ĠAustralia": 5181,
      "'])": 5182,
      "security": 5183,
      "Ġcross": 5184,
      "includegraphics": 5185,
      "ARY": 5186,
      "site": 5187,
      "Events": 5188,
      "assertEqual": 5189,
      "screen": 5190,
      "external": 5191,
      "ookie": 5192,
      "\"`": 5193,
      "Generic": 5194,
      "160": 5195,
      "browser": 5196,
      "Rece": 5197,
      "anaged": 5198,
      "Fin": 5199,
      "Expr": 5200,
      "Desc": 5201,
      "Ġrecent": 5202,
      "ĠBer": 5203,
      "Ġstar": 5204,
      "assertEquals": 5205,
      "Attributes": 5206,
      "Ġrot": 5207,
      "ĠBut": 5208,
      "ixel": 5209,
      "aver": 5210,
      "gment": 5211,
      "Ġsample": 5212,
      "events": 5213,
      "EM": 5214,
      "Auth": 5215,
      "Ġserial": 5216,
      "term": 5217,
      "','": 5218,
      "INFO": 5219,
      "essional": 5220,
      "Ġcost": 5221,
      "apter": 5222,
      "views": 5223,
      "arded": 5224,
      "Ġstack": 5225,
      "Ġestablish": 5226,
      "Func": 5227,
      "Memory": 5228,
      "Ġmaterial": 5229,
      "Ġspect": 5230,
      "El": 5231,
      "Ġpy": 5232,
      "Ġable": 5233,
      "Ġbar": 5234,
      "ael": 5235,
      "aved": 5236,
      "ĠCopy": 5237,
      "asis": 5238,
      "coming": 5239,
      "enter": 5240,
      "desc": 5241,
      "stop": 5242,
      "}</": 5243,
      "Ġcalcul": 5244,
      "uz": 5245,
      "ips": 5246,
      "Main": 5247,
      "handler": 5248,
      "Ġfunc": 5249,
      "ĠEnd": 5250,
      "bal": 5251,
      "Selector": 5252,
      "ĠMet": 5253,
      "Ġoperations": 5254,
      "iles": 5255,
      "Ġio": 5256,
      "ĠText": 5257,
      "ming": 5258,
      "Ġdirection": 5259,
      "Ġfem": 5260,
      "SCRI": 5261,
      "Ġear": 5262,
      "Ġcondition": 5263,
      "Mar": 5264,
      "Common": 5265,
      "ĠNote": 5266,
      "ĠĠĠĠĠĠĠĠĠĠĠĠĠĠĠĠĠĠĠĠĠĠ": 5267,
      "quires": 5268,
      "Iterator": 5269,
      "Editor": 5270,
      "Ġwait": 5271,
      "anese": 5272,
      "BR": 5273,
      "Ġ=========": 5274,
      "Ġstory": 5275,
      "Browser": 5276,
      "Ġlim": 5277,
      "solute": 5278,
      "1998": 5279,
      "Ġconditions": 5280,
      "comm": 5281,
      "IGN": 5282,
      "Ġcame": 5283,
      "Symbol": 5284,
      "Ġregular": 5285,
      "Ġtraining": 5286,
      "Ġdoesn": 5287,
      "Ġ\"\"": 5288,
      "forms": 5289,
      ")\">": 5290,
      "Pack": 5291,
      "ĠField": 5292,
      "Ġapprox": 5293,
      "ĠLandroid": 5294,
      "Dist": 5295,
      "ĠAssembly": 5296,
      "components": 5297,
      "adian": 5298,
      "Man": 5299,
      "Database": 5300,
      "bytes": 5301,
      "ĠSpec": 5302,
      "dim": 5303,
      "Ġotherwise": 5304,
      ")\"": 5305,
      "getElement": 5306,
      "Ġacross": 5307,
      "wild": 5308,
      "76": 5309,
      "Ġfuture": 5310,
      "ĠOlymp": 5311,
      "Ġconstruct": 5312,
      "Ġicon": 5313,
      "emph": 5314,
      "My": 5315,
      "Ġconnect": 5316,
      "Ġapplic": 5317,
      "ĠConfig": 5318,
      "Ġ${\\": 5319,
      "ĠOper": 5320,
      "strict": 5321,
      "trigger": 5322,
      "astic": 5323,
      "Ġsymbol": 5324,
      "Am": 5325,
      "XML": 5326,
      "Ġtemp": 5327,
      "names": 5328,
      "Ġincludes": 5329,
      "Conf": 5330,
      "ï¼": 5331,
      "IF": 5332,
      "picker": 5333,
      "ables": 5334,
      "ĠDr": 5335,
      "Pointer": 5336,
      "BUG": 5337,
      "master": 5338,
      "ĠOption": 5339,
      "Ġofficial": 5340,
      "Ġattributes": 5341,
      "ToString": 5342,
      "under": 5343,
      "vare": 5344,
      "Ġcontain": 5345,
      "ĠTODO": 5346,
      "There": 5347,
      "Ġrelated": 5348,
      "Ġsold": 5349,
      "ĠVersion": 5350,
      "Close": 5351,
      "IR": 5352,
      "ĠPresident": 5353,
      "~~~~": 5354,
      "}^{\\": 5355,
      "Ġsure": 5356,
      "each": 5357,
      "job": 5358,
      "ĠMethod": 5359,
      "Ġexisting": 5360,
      "82": 5361,
      "ulated": 5362,
      "notation": 5363,
      "Matrix": 5364,
      "}).": 5365,
      "mutable": 5366,
      "300": 5367,
      "_(": 5368,
      "UTF": 5369,
      "ĠMark": 5370,
      "Ġmale": 5371,
      "Ġinc": 5372,
      "echo": 5373,
      "Ġwest": 5374,
      "VALUE": 5375,
      "Ac": 5376,
      "Ġwriter": 5377,
      "Ġpolitical": 5378,
      "Ġfather": 5379,
      "Inv": 5380,
      "Ġneeded": 5381,
      "Ð»": 5382,
      "Protocol": 5383,
      "hidden": 5384,
      "Ġword": 5385,
      "ĠSm": 5386,
      "Ġwhite": 5387,
      ";\"": 5388,
      "missions": 5389,
      "ixture": 5390,
      "ĠPal": 5391,
      "Ġcompleted": 5392,
      "ĠAward": 5393,
      "LS": 5394,
      "Ġobtain": 5395,
      "Ġentity": 5396,
      "profile": 5397,
      "Ġ[[": 5398,
      "ĠAp": 5399,
      "DU": 5400,
      "Ġpolicy": 5401,
      "nt": 5402,
      "ĠIndia": 5403,
      "writ": 5404,
      "Ġwriting": 5405,
      "Ġobserv": 5406,
      "Ġsay": 5407,
      "ĠMal": 5408,
      "Ġbind": 5409,
      "ĠAmerica": 5410,
      "ĠVAL": 5411,
      "ners": 5412,
      "Plugin": 5413,
      "tmp": 5414,
      "Java": 5415,
      "Ġwent": 5416,
      "Ġsignificant": 5417,
      "Ġassum": 5418,
      "resp": 5419,
      "cb": 5420,
      "ifest": 5421,
      "kw": 5422,
      "ĠArmy": 5423,
      "va": 5424,
      "pool": 5425,
      "Ġreq": 5426,
      "NULL": 5427,
      "ni": 5428,
      "Ġmaximum": 5429,
      ")/": 5430,
      "ĠCO": 5431,
      "Ġseen": 5432,
      "SCRIPT": 5433,
      "WS": 5434,
      "]]": 5435,
      "Ġalloc": 5436,
      "Ġfn": 5437,
      "Ġdeaths": 5438,
      "getName": 5439,
      "Ġsocial": 5440,
      "Ġsequence": 5441,
      "rees": 5442,
      "Ġzero": 5443,
      "ĠEm": 5444,
      "Mapping": 5445,
      "Ñĥ": 5446,
      "[$": 5447,
      "account": 5448,
      "ĠHel": 5449,
      "Ġmeasure": 5450,
      "lines": 5451,
      "area": 5452,
      "Layer": 5453,
      "ROM": 5454,
      "duction": 5455,
      "Ind": 5456,
      "force": 5457,
      "Ġdetermin": 5458,
      "tabs": 5459,
      "Success": 5460,
      "logger": 5461,
      "iterator": 5462,
      "hing": 5463,
      "Ġsuggest": 5464,
      "west": 5465,
      "Repository": 5466,
      "Sw": 5467,
      "ients": 5468,
      "Keys": 5469,
      "ĠChurch": 5470,
      "uge": 5471,
      "Ġeast": 5472,
      "ĠDem": 5473,
      "Ġhuman": 5474,
      "ĠNode": 5475,
      "ya": 5476,
      "Scroll": 5477,
      "stitute": 5478,
      "shall": 5479,
      "Ġfall": 5480,
      "navList": 5481,
      "Ġasync": 5482,
      "wait": 5483,
      "72": 5484,
      "mas": 5485,
      "54": 5486,
      "Ġannounced": 5487,
      "metadata": 5488,
      "Ġmaking": 5489,
      "ĠDon": 5490,
      "################": 5491,
      "Ġbuilder": 5492,
      "}=": 5493,
      "icles": 5494,
      "utable": 5495,
      "collection": 5496,
      "entials": 5497,
      "CS": 5498,
      "Ġinternational": 5499,
      "aration": 5500,
      "Ġnecess": 5501,
      "domain": 5502,
      "=\"${": 5503,
      "Ġcorresponding": 5504,
      "ĠĠĠĠĠĠĠĠĠĠĠĠĠĠĠĠĠĠĠĠĠĠĠĠĠĠĠĠĠĠĠĠĠĠĠĠĠĠĠĠĠĠĠ": 5505,
      "ĠBel": 5506,
      "Ġdistributed": 5507,
      "Ġeditor": 5508,
      "Ã§": 5509,
      "mitte": 5510,
      "apply": 5511,
      "ething": 5512,
      "Auto": 5513,
      "yes": 5514,
      "Ġextension": 5515,
      "Ġsym": 5516,
      "nel": 5517,
      "pk": 5518,
      "points": 5519,
      "\",\"": 5520,
      "ĠOb": 5521,
      "Ġsigned": 5522,
      "atory": 5523,
      "Ġflo": 5524,
      "limit": 5525,
      "Ġunique": 5526,
      "Ġlead": 5527,
      "Jo": 5528,
      "Ġrank": 5529,
      "Ġtaken": 5530,
      "inv": 5531,
      "When": 5532,
      "parser": 5533,
      "configuration": 5534,
      ")).": 5535,
      "Pattern": 5536,
      ")=": 5537,
      "enced": 5538,
      "ĠÂ": 5539,
      "Ġtests": 5540,
      "Remove": 5541,
      "atives": 5542,
      "Ġsystems": 5543,
      "Ġlock": 5544,
      "switch": 5545,
      "Members": 5546,
      "varepsilon": 5547,
      "GS": 5548,
      "results": 5549,
      "ĠFrance": 5550,
      "Ġol": 5551,
      "Ġawait": 5552,
      "Ġ(_": 5553,
      "Ġgreat": 5554,
      "arts": 5555,
      "Ġinteger": 5556,
      "Socket": 5557,
      "arison": 5558,
      "Ġimplements": 5559,
      "contains": 5560,
      "Duration": 5561,
      "ĠAN": 5562,
      "Ġparticip": 5563,
      "ĠFrom": 5564,
      "Ġ\"<": 5565,
      "ĠCouncil": 5566,
      "Parse": 5567,
      "1980": 5568,
      "Ġinvalid": 5569,
      "ĠSome": 5570,
      "åı": 5571,
      "icket": 5572,
      "ĠRoman": 5573,
      "Print": 5574,
      "ville": 5575,
      "Ġdebug": 5576,
      "ida": 5577,
      "Files": 5578,
      "52": 5579,
      "icult": 5580,
      "headers": 5581,
      "STAT": 5582,
      "[\\": 5583,
      "Ġfar": 5584,
      "Ġbetter": 5585,
      "Ġclasses": 5586,
      "Ġrg": 5587,
      "Ġcomment": 5588,
      "78": 5589,
      ".~\\": 5590,
      "Ġcred": 5591,
      "artment": 5592,
      "ams": 5593,
      "Depend": 5594,
      "total": 5595,
      "Ġdev": 5596,
      "hide": 5597,
      "Ġstudents": 5598,
      "ipe": 5599,
      "Ġimplementation": 5600,
      "ĠNO": 5601,
      "thern": 5602,
      "NE": 5603,
      "PORT": 5604,
      "Ġepis": 5605,
      ")),": 5606,
      "iting": 5607,
      "dot": 5608,
      "<!": 5609,
      "Pay": 5610,
      "ferred": 5611,
      "network": 5612,
      "ago": 5613,
      "Route": 5614,
      "ĠJames": 5615,
      "wrapper": 5616,
      "Before": 5617,
      "Ġcast": 5618,
      "platform": 5619,
      ")$.": 5620,
      "Ġpointer": 5621,
      "home": 5622,
      "props": 5623,
      "Profile": 5624,
      "rote": 5625,
      "berg": 5626,
      "attributes": 5627,
      "Ġinf": 5628,
      "SQL": 5629,
      "jar": 5630,
      "Double": 5631,
      "ĠThen": 5632,
      "omas": 5633,
      "^*": 5634,
      "Ġca": 5635,
      "Ġflag": 5636,
      "mine": 5637,
      "ĠWork": 5638,
      "ĠEuropean": 5639,
      "lems": 5640,
      "ĠIOException": 5641,
      "Dest": 5642,
      "Ġphot": 5643,
      "Ġxmlns": 5644,
      "webpack": 5645,
      "Cond": 5646,
      "Let": 5647,
      "Ġmissing": 5648,
      "Ġhigher": 5649,
      "Ġtrad": 5650,
      "protected": 5651,
      "1996": 5652,
      "andra": 5653,
      "rency": 5654,
      "ĠVer": 5655,
      "ĠIP": 5656,
      "wildfly": 5657,
      "ĉĉĉĉĉĉĉĉĉ": 5658,
      "SY": 5659,
      "rule": 5660,
      "Ġnative": 5661,
      "Ġstrict": 5662,
      "sor": 5663,
      "swarm": 5664,
      "lers": 5665,
      "hood": 5666,
      "decl": 5667,
      "Ġemploy": 5668,
      "Ġmanager": 5669,
      "ĠLib": 5670,
      "Scale": 5671,
      "aur": 5672,
      "Ġecon": 5673,
      "operator": 5674,
      "ĠStreet": 5675,
      "Abstract": 5676,
      "ĠCanada": 5677,
      "ancell": 5678,
      "ini": 5679,
      "straints": 5680,
      "ĠRobert": 5681,
      "Ġclosed": 5682,
      "1997": 5683,
      "Ġwhose": 5684,
      "Ġdefinition": 5685,
      "Ġlive": 5686,
      "Ġothers": 5687,
      "bad": 5688,
      "3333": 5689,
      "Ġreplace": 5690,
      "ĠCall": 5691,
      "Ġgrow": 5692,
      ".)": 5693,
      "editor": 5694,
      "Fail": 5695,
      "shadow": 5696,
      "Ġprimary": 5697,
      "Ġtypeof": 5698,
      "ulate": 5699,
      "dialog": 5700,
      "fc": 5701,
      "uous": 5702,
      "tools": 5703,
      "NG": 5704,
      "ĠSen": 5705,
      "Ġ=======": 5706,
      "nil": 5707,
      "Ġctx": 5708,
      "Ġappoint": 5709,
      "ĠMag": 5710,
      "overnor": 5711,
      "varphi": 5712,
      "PL": 5713,
      "cons": 5714,
      "Ġworked": 5715,
      "53": 5716,
      "allclasses": 5717,
      "Ġreported": 5718,
      "Ġmid": 5719,
      "Second": 5720,
      "Ġparts": 5721,
      "fit": 5722,
      "hand": 5723,
      "ĠPublic": 5724,
      "Ġpolitic": 5725,
      "filename": 5726,
      "sy": 5727,
      "rie": 5728,
      "prefix": 5729,
      "eting": 5730,
      "Ġhealth": 5731,
      "Ġyet": 5732,
      "bound": 5733,
      "rine": 5734,
      "ĠBuild": 5735,
      "colLast": 5736,
      "chedule": 5737,
      "rightarrow": 5738,
      "Ġ\\,": 5739,
      "Ġenabled": 5740,
      "84": 5741,
      "raz": 5742,
      "1970": 5743,
      "------------": 5744,
      "Ġfund": 5745,
      "wer": 5746,
      "Ġentire": 5747,
      "Ġsatisf": 5748,
      "Ġmilitary": 5749,
      "fail": 5750,
      "ĠTask": 5751,
      "ONE": 5752,
      "oted": 5753,
      "ought": 5754,
      "Ne": 5755,
      "Ġanalysis": 5756,
      "Ġtransition": 5757,
      "Feature": 5758,
      "Ġitself": 5759,
      "Ġcontaining": 5760,
      "Selected": 5761,
      "jango": 5762,
      "uler": 5763,
      "peat": 5764,
      "nes": 5765,
      "ĠId": 5766,
      ">:": 5767,
      "ĠSim": 5768,
      "collapse": 5769,
      "Ðº": 5770,
      "Ġhard": 5771,
      "idx": 5772,
      "Details": 5773,
      "ĠFil": 5774,
      "ĠĠĠĠĠĠĠĠĠĠĠĠĠĠĠĠĠĠĠĠĠĠĠĠĠĠĠĠĠ": 5775,
      "ailway": 5776,
      "ĠCode": 5777,
      "You": 5778,
      "irit": 5779,
      "Ġsolution": 5780,
      "Full": 5781,
      "ko": 5782,
      "Ġencoding": 5783,
      "Ġdebut": 5784,
      "Ġapply": 5785,
      "Ġpopular": 5786,
      "$/": 5787,
      "cut": 5788,
      "Ġhold": 5789,
      "Ġstage": 5790,
      "Ġoffer": 5791,
      "Ġjoined": 5792,
      "Sync": 5793,
      "Background": 5794,
      "Ġtab": 5795,
      "Seg": 5796,
      "symbol": 5797,
      "Ġpaint": 5798,
      "Ġconstructor": 5799,
      "tbody": 5800,
      "Character": 5801,
      "Ġcoll": 5802,
      "ĠGeorge": 5803,
      "ĠView": 5804,
      "hern": 5805,
      "colFirst": 5806,
      "Ġpresident": 5807,
      "CR": 5808,
      "CHECK": 5809,
      "Ġ[],": 5810,
      "Failed": 5811,
      "reset": 5812,
      "ajax": 5813,
      "Ġdistance": 5814,
      "Ġlik": 5815,
      "ificate": 5816,
      "children": 5817,
      "Engine": 5818,
      "ĠUnion": 5819,
      "%%%%": 5820,
      "ĠResource": 5821,
      "Register": 5822,
      "geq": 5823,
      "bon": 5824,
      "Ġinsert": 5825,
      "Ġscore": 5826,
      "vention": 5827,
      "Ġfire": 5828,
      "Ġkind": 5829,
      "Ġoptional": 5830,
      "Ġ$.": 5831,
      "Attr": 5832,
      "ĠDirect": 5833,
      "Ġ\",": 5834,
      "aps": 5835,
      "Ap": 5836,
      "provider": 5837,
      "which": 5838,
      "Ġlinear": 5839,
      "Services": 5840,
      "ĠjQuery": 5841,
      "Ġperformed": 5842,
      "proof": 5843,
      "dp": 5844,
      "Rec": 5845,
      "compiler": 5846,
      "herited": 5847,
      "^{(": 5848,
      "avor": 5849,
      "Ġparty": 5850,
      "ffff": 5851,
      "LD": 5852,
      "Av": 5853,
      "sequent": 5854,
      "Ġopened": 5855,
      "ĠGoogle": 5856,
      "ĠReact": 5857,
      "reek": 5858,
      "Ġpaper": 5859,
      "ĠSing": 5860,
      "rangle": 5861,
      "Ġrecogn": 5862,
      "iven": 5863,
      "Ġui": 5864,
      "anies": 5865,
      "ĠĠĠĠĠĠĠĠĠĠĠĠĠĠĠĠĠĠĠĠĠĠĠĠĠĠ": 5866,
      "Ġmatches": 5867,
      "ker": 5868,
      "Ġground": 5869,
      "Ġlost": 5870,
      "antic": 5871,
      "},\\": 5872,
      "gan": 5873,
      "RAN": 5874,
      "Ġten": 5875,
      "eries": 5876,
      "Ġfig": 5877,
      "ĠModel": 5878,
      "Ġevalu": 5879,
      "FLA": 5880,
      "Ġfixed": 5881,
      "Ġthough": 5882,
      "outhern": 5883,
      "brid": 5884,
      "Password": 5885,
      "ĠRich": 5886,
      "frak": 5887,
      "rey": 5888,
      "Ġshape": 5889,
      "Ġdirectly": 5890,
      "unicipal": 5891,
      "erial": 5892,
      "ĠUpdate": 5893,
      ".}": 5894,
      "Ġsave": 5895,
      "ĠMount": 5896,
      "loader": 5897,
      "Year": 5898,
      "ĠIE": 5899,
      "Ġpassword": 5900,
      "Ġissue": 5901,
      "Ġgenerate": 5902,
      "ĠFunction": 5903,
      "peed": 5904,
      "Ġsizeof": 5905,
      "Agent": 5906,
      "READ": 5907,
      "ĠAssociation": 5908,
      "\"><!--": 5909,
      "Vol": 5910,
      "nology": 5911,
      "parameters": 5912,
      "maven": 5913,
      "Cluster": 5914,
      "94": 5915,
      "faces": 5916,
      "identifier": 5917,
      "apos": 5918,
      "TC": 5919,
      "Product": 5920,
      "detail": 5921,
      "ĠFI": 5922,
      "Space": 5923,
      "mittee": 5924,
      "kens": 5925,
      "Ġresources": 5926,
      "ĠHol": 5927,
      "ashington": 5928,
      "Ã³n": 5929,
      "pass": 5930,
      "tags": 5931,
      "ensus": 5932,
      "Ġlayer": 5933,
      "Ġcoq": 5934,
      "Ġdomain": 5935,
      "91": 5936,
      "Props": 5937,
      "ĠLong": 5938,
      "ĠSte": 5939,
      "Ġremoved": 5940,
      "rian": 5941,
      "Ġdescribe": 5942,
      "Nodes": 5943,
      "Ġdir": 5944,
      "()</": 5945,
      "FC": 5946,
      "reater": 5947,
      "1995": 5948,
      "Ġfront": 5949,
      "Ġprovides": 5950,
      "Ġtx": 5951,
      "Ġarr": 5952,
      "ria": 5953,
      "Ġexpress": 5954,
      "Area": 5955,
      "ĠDavid": 5956,
      "rift": 5957,
      "Ġweight": 5958,
      "Ġmarried": 5959,
      "hest": 5960,
      ".\");": 5961,
      "ĠRoyal": 5962,
      "junit": 5963,
      "Person": 5964,
      "FFFF": 5965,
      "Ġvariables": 5966,
      "Ġ\"-": 5967,
      "witter": 5968,
      "OUT": 5969,
      "porary": 5970,
      "ĠGets": 5971,
      "Ġip": 5972,
      "Selection": 5973,
      "Ġcandid": 5974,
      "omy": 5975,
      "Ġroute": 5976,
      "ĠRegister": 5977,
      "Stats": 5978,
      "ĠDivision": 5979,
      "Ġach": 5980,
      "Ġ?>": 5981,
      "tests": 5982,
      "ĠZe": 5983,
      "Ġaccording": 5984,
      "ĠAccording": 5985,
      "ĠAND": 5986,
      "('.": 5987,
      "utive": 5988,
      "dec": 5989,
      "Generator": 5990,
      "ĠArch": 5991,
      "ĠMor": 5992,
      "Note": 5993,
      "protocol": 5994,
      "jpg": 5995,
      "Collections": 5996,
      "=>": 5997,
      "ycle": 5998,
      "TEXT": 5999,
      "Ġneeds": 6000,
      "IZE": 6001,
      "SU": 6002,
      "Ġgive": 6003,
      ";}": 6004,
      "olic": 6005,
      "'re": 6006,
      "CI": 6007,
      "Ġdig": 6008,
      "ĠPre": 6009,
      "ALSE": 6010,
      "ieved": 6011,
      "ĠBlack": 6012,
      "ĠCenter": 6013,
      "iber": 6014,
      "omin": 6015,
      "ius": 6016,
      "elli": 6017,
      "illed": 6018,
      "Section": 6019,
      "rb": 6020,
      "ĠProv": 6021,
      "effect": 6022,
      "WA": 6023,
      "Ġindependent": 6024,
      "Region": 6025,
      "login": 6026,
      "Off": 6027,
      "ifies": 6028,
      "band": 6029,
      "Ġ],": 6030,
      "ansparent": 6031,
      "execute": 6032,
      "Orig": 6033,
      "Ġdensity": 6034,
      "Ġaway": 6035,
      "ĠInteger": 6036,
      "xs": 6037,
      "prev": 6038,
      "AX": 6039,
      "So": 6040,
      "Statement": 6041,
      "ĠChina": 6042,
      "Global": 6043,
      "Ġplatform": 6044,
      "extern": 6045,
      "Ġpast": 6046,
      "?>": 6047,
      "wood": 6048,
      "GB": 6049,
      "ĠInitial": 6050,
      "(__": 6051,
      "ĠOther": 6052,
      "expr": 6053,
      "mask": 6054,
      "CESS": 6055,
      "orded": 6056,
      "oundation": 6057,
      "Ġwrote": 6058,
      "Ġareas": 6059,
      "Play": 6060,
      "Ġdefe": 6061,
      "Ġsu": 6062,
      "serial": 6063,
      "ĠUI": 6064,
      "Ġdeveloped": 6065,
      "Ġarchitect": 6066,
      "Ġrather": 6067,
      "bra": 6068,
      "Ġutil": 6069,
      "za": 6070,
      "stry": 6071,
      "ĠHash": 6072,
      "Ġimages": 6073,
      "mathfrak": 6074,
      "bolds": 6075,
      "____": 6076,
      "rase": 6077,
      "Imp": 6078,
      "progress": 6079,
      "ĠMont": 6080,
      "Ġusers": 6081,
      "Ġdirector": 6082,
      "Identifier": 6083,
      "builder": 6084,
      "1994": 6085,
      "Ġce": 6086,
      "Ġinflu": 6087,
      "Category": 6088,
      "Ġcomponents": 6089,
      "Ġlib": 6090,
      "93": 6091,
      "generated": 6092,
      "ĠCommand": 6093,
      "Constants": 6094,
      "ĠInst": 6095,
      ".âĢĿ": 6096,
      "Ġpositive": 6097,
      "ĠMem": 6098,
      "BAR": 6099,
      "62": 6100,
      "Conn": 6101,
      "'));": 6102,
      "Ġss": 6103,
      "Ġbottom": 6104,
      ":#": 6105,
      "FIG": 6106,
      "boldsymbol": 6107,
      "LECT": 6108,
      "para": 6109,
      ">::": 6110,
      "Ġauth": 6111,
      "NOT": 6112,
      "Ġcontract": 6113,
      ")$,": 6114,
      "sess": 6115,
      "equiv": 6116,
      "ura": 6117,
      "PS": 6118,
      "ito": 6119,
      "Ġallows": 6120,
      "ĠLet": 6121,
      "ora": 6122,
      "igr": 6123,
      "ensive": 6124,
      "Wrapper": 6125,
      "Ġextra": 6126,
      "Texture": 6127,
      "Registry": 6128,
      "92": 6129,
      "1993": 6130,
      "ĠJava": 6131,
      "Prefix": 6132,
      "ja": 6133,
      "men": 6134,
      "done": 6135,
      "Resources": 6136,
      "Admin": 6137,
      "URI": 6138,
      "exists": 6139,
      "ĠCourt": 6140,
      "Ġwide": 6141,
      "Ġwebsite": 6142,
      "ifications": 6143,
      "theme": 6144,
      "ĠWil": 6145,
      "TIME": 6146,
      "Ġgot": 6147,
      "erve": 6148,
      "1992": 6149,
      "llegal": 6150,
      "activ": 6151,
      "PER": 6152,
      "Trace": 6153,
      "Ġleading": 6154,
      "ĠFin": 6155,
      "temp": 6156,
      "Ġhidden": 6157,
      "FR": 6158,
      "Ġvoc": 6159,
      "asket": 6160,
      "ĠMac": 6161,
      "Ġcertain": 6162,
      "Ġthus": 6163,
      "Ġlogger": 6164,
      "brief": 6165,
      "ĠSince": 6166,
      "variable": 6167,
      "Ġconstruction": 6168,
      "ĠMer": 6169,
      "ĠCr": 6170,
      "gin": 6171,
      "ĠLou": 6172,
      "Ġobtained": 6173,
      "dates": 6174,
      "Ġprop": 6175,
      "Ġviol": 6176,
      "Ġmaint": 6177,
      "ackson": 6178,
      "more": 6179,
      "Step": 6180,
      "ality": 6181,
      "Ġcore": 6182,
      "Ġ'<": 6183,
      "services": 6184,
      "moz": 6185,
      "uses": 6186,
      "ĠTHE": 6187,
      "CRE": 6188,
      "Ġcoordin": 6189,
      "Ġqueue": 6190,
      "Namespace": 6191,
      "clo": 6192,
      "ARN": 6193,
      "Ġpress": 6194,
      "63": 6195,
      "olog": 6196,
      "itch": 6197,
      "Ġjoin": 6198,
      "pa": 6199,
      "elf": 6200,
      "Ġcop": 6201,
      "iders": 6202,
      "Ġavoid": 6203,
      "oms": 6204,
      "Ġparam": 6205,
      "cdn": 6206,
      "ĠDan": 6207,
      "ĠMart": 6208,
      "hline": 6209,
      "ifdef": 6210,
      "aches": 6211,
      "ĠPaul": 6212,
      "Ġnavigation": 6213,
      "ĠGermany": 6214,
      "Err": 6215,
      "=#": 6216,
      "ocaml": 6217,
      "Ġhar": 6218,
      "xhtml": 6219,
      "storage": 6220,
      "Ġfinished": 6221,
      "Ġill": 6222,
      "ifying": 6223,
      "ĠStud": 6224,
      ".'": 6225,
      "inese": 6226,
      "Ġbeh": 6227,
      "PR": 6228,
      "ITE": 6229,
      "Simple": 6230,
      "Ġradio": 6231,
      "IMP": 6232,
      "username": 6233,
      "dx": 6234,
      "Ġsuff": 6235,
      "Opt": 6236,
      "feature": 6237,
      "Ġprofile": 6238,
      "Headers": 6239,
      "Ġeducation": 6240,
      "ĠJer": 6241,
      "Ġthink": 6242,
      "Ġwaves": 6243,
      "reshold": 6244,
      "atible": 6245,
      "shared": 6246,
      "las": 6247,
      "imately": 6248,
      "mid": 6249,
      "ctrine": 6250,
      "Ġindu": 6251,
      "ĠHttp": 6252,
      "ðŁ": 6253,
      "lor": 6254,
      "Ġphase": 6255,
      "typedef": 6256,
      "umni": 6257,
      "ened": 6258,
      "Ġunits": 6259,
      "ĠMessage": 6260,
      "Ġclean": 6261,
      "Ġmetadata": 6262,
      "Ġtheory": 6263,
      "ully": 6264,
      "escribe": 6265,
      "ĠVol": 6266,
      "Ġgoing": 6267,
      "Ġnote": 6268,
      "Ġprogress": 6269,
      "svg": 6270,
      "ĠProject": 6271,
      "ĠOrder": 6272,
      "Landroid": 6273,
      "HTTP": 6274,
      "ĠASSERT": 6275,
      "ĠAustralian": 6276,
      "ĠCompany": 6277,
      "ements": 6278,
      "Ġbal": 6279,
      "bot": 6280,
      "ĠTable": 6281,
      "oss": 6282,
      "illing": 6283,
      "ĠRead": 6284,
      "pdf": 6285,
      "ĠDet": 6286,
      "Ġwr": 6287,
      "unique": 6288,
      "arter": 6289,
      "shire": 6290,
      "Ġmount": 6291,
      "ĠJe": 6292,
      "usform": 6293,
      "numerusform": 6294,
      "that": 6295,
      "Tx": 6296,
      "SR": 6297,
      "Ġforeach": 6298,
      "allery": 6299,
      "Ġrepresentation": 6300,
      "Ġ[\"": 6301,
      "Ġinside": 6302,
      "ĠÎ": 6303,
      "ĠTem": 6304,
      "mes": 6305,
      "LP": 6306,
      "async": 6307,
      "leep": 6308,
      "ĠWindow": 6309,
      "quency": 6310,
      "Ġgoal": 6311,
      "Ġreplaced": 6312,
      "indexOf": 6313,
      "ĠNAME": 6314,
      "Player": 6315,
      "Ġtemper": 6316,
      "ĠDepartment": 6317,
      "Ġvisit": 6318,
      "ĠĠĠĠĠĠĠĠĠĠĠĠĠĠĠĠĊ": 6319,
      "=&": 6320,
      "...</": 6321,
      "osite": 6322,
      "grade": 6323,
      "invalid": 6324,
      "mult": 6325,
      "ĠLcom": 6326,
      "ĠDuring": 6327,
      "Ġprefix": 6328,
      "Visible": 6329,
      "amaz": 6330,
      "Ġtypename": 6331,
      "ĠJapan": 6332,
      "fx": 6333,
      "Ġsplit": 6334,
      "ye": 6335,
      "anded": 6336,
      "Ġdestroy": 6337,
      "ooth": 6338,
      "{%": 6339,
      "Ġchurch": 6340,
      "Progress": 6341,
      "Role": 6342,
      "fd": 6343,
      "Ġmonth": 6344,
      "OB": 6345,
      "Ġloss": 6346,
      "Author": 6347,
      "Uri": 6348,
      "overline": 6349,
      "Ġ{{": 6350,
      "HR": 6351,
      "DateTime": 6352,
      "Ġhom": 6353,
      "leton": 6354,
      "pring": 6355,
      "ledge": 6356,
      "Framework": 6357,
      "Ġbrowser": 6358,
      "Ġabsolute": 6359,
      "IND": 6360,
      "Ġupper": 6361,
      "Ġenough": 6362,
      "MB": 6363,
      "Ġmakes": 6364,
      "RPC": 6365,
      "Ġalgorithm": 6366,
      "Ġtransport": 6367,
      "Ġbig": 6368,
      "errors": 6369,
      "Ġcharset": 6370,
      "sys": 6371,
      "81": 6372,
      "Ġpair": 6373,
      "Ġunknown": 6374,
      "shift": 6375,
      "pull": 6376,
      "Ġrespectively": 6377,
      "ruby": 6378,
      "Ġfinally": 6379,
      "(@": 6380,
      "Ġparser": 6381,
      "flex": 6382,
      "ĠBO": 6383,
      "Ġprofessional": 6384,
      "EEEE": 6385,
      "rial": 6386,
      "springframework": 6387,
      "release": 6388,
      "Ġstorage": 6389,
      "Ġrecorded": 6390,
      "PACK": 6391,
      "assembly": 6392,
      "ades": 6393,
      "erg": 6394,
      "LINE": 6395,
      "}}$": 6396,
      "Ġsongs": 6397,
      "Install": 6398,
      "mouse": 6399,
      "Lambda": 6400,
      "Ġsett": 6401,
      "anks": 6402,
      "cing": 6403,
      "ani": 6404,
      "ĠRequest": 6405,
      "CTYPE": 6406,
      ";)": 6407,
      "ili": 6408,
      "Ġrespons": 6409,
      "Br": 6410,
      "ĠLaw": 6411,
      "ala": 6412,
      "izable": 6413,
      ".<": 6414,
      "Ġhon": 6415,
      "Ġloop": 6416,
      "Dat": 6417,
      "('/": 6418,
      "locity": 6419,
      "Interval": 6420,
      "pare": 6421,
      "oma": 6422,
      "cos": 6423,
      "83": 6424,
      "tk": 6425,
      "Ġoutside": 6426,
      "azz": 6427,
      "Ġteams": 6428,
      "ACT": 6429,
      "cludes": 6430,
      "Ġmar": 6431,
      "aret": 6432,
      "details": 6433,
      "Ġneigh": 6434,
      "Ġedge": 6435,
      "oring": 6436,
      "ĠMary": 6437,
      "Ġ×": 6438,
      "Ġsurface": 6439,
      "ĠHTTP": 6440,
      ")->": 6441,
      "Generated": 6442,
      "61": 6443,
      "Ġrock": 6444,
      "resources": 6445,
      "liament": 6446,
      "ĠWashington": 6447,
      "ĠArrayList": 6448,
      "Ġapproach": 6449,
      "Ġcalls": 6450,
      "Ġenum": 6451,
      "sur": 6452,
      "Ġcmd": 6453,
      "Ġdegree": 6454,
      "^^": 6455,
      "Public": 6456,
      "Ġliter": 6457,
      "Ä±": 6458,
      "ble": 6459,
      "('#": 6460,
      "DT": 6461,
      "ĠHen": 6462,
      "Ġmessages": 6463,
      "arily": 6464,
      "ĠAcade": 6465,
      "Ġnullptr": 6466,
      "href": 6467,
      "HER": 6468,
      "phone": 6469,
      "arator": 6470,
      "cis": 6471,
      "roke": 6472,
      "required": 6473,
      "Ġnumbers": 6474,
      "ĠĠĠĠĠĠĠĠĠĠĠĠĠĠĠĠĠĠĠĠĠĠĠĠĠĠĠĠ": 6475,
      "axis": 6476,
      "ĠMat": 6477,
      "sect": 6478,
      "Ġvisible": 6479,
      "Ġinstruction": 6480,
      "Ġrgba": 6481,
      "fixed": 6482,
      "Ġrules": 6483,
      "128": 6484,
      "Db": 6485,
      "74": 6486,
      "![": 6487,
      "Ġsetup": 6488,
      "POST": 6489,
      "Domain": 6490,
      "Ġcontinued": 6491,
      "special": 6492,
      "riteria": 6493,
      "safe": 6494,
      "ny": 6495,
      "wig": 6496,
      "uy": 6497,
      "stat": 6498,
      "ĠPost": 6499,
      "ĠMore": 6500,
      "ders": 6501,
      "otes": 6502,
      "Ġkm": 6503,
      "IB": 6504,
      "DC": 6505,
      "Ġprevent": 6506,
      "enable": 6507,
      "ilation": 6508,
      "ĠDel": 6509,
      "LL": 6510,
      "ederal": 6511,
      "Ġfight": 6512,
      ")^": 6513,
      "while": 6514,
      "ĠIndex": 6515,
      "isl": 6516,
      "ga": 6517,
      "LOCK": 6518,
      "Ġtakes": 6519,
      "Ġflags": 6520,
      "79": 6521,
      "zone": 6522,
      "checkbox": 6523,
      "rot": 6524,
      "1991": 6525,
      "Ġdeal": 6526,
      "ĠMusic": 6527,
      "Ġask": 6528,
      "enabled": 6529,
      "ĠCommun": 6530,
      "oser": 6531,
      "Ġconv": 6532,
      "citep": 6533,
      "sey": 6534,
      "Ġlarger": 6535,
      "DOCTYPE": 6536,
      "onym": 6537,
      "Ġappend": 6538,
      "Ġshared": 6539,
      "Ġupon": 6540,
      "izations": 6541,
      "Ġheaders": 6542,
      "Comment": 6543,
      "isk": 6544,
      "ĠLOG": 6545,
      "VM": 6546,
      "nab": 6547,
      "Ġrace": 6548,
      "osed": 6549,
      "python": 6550,
      "nodes": 6551,
      "ĠCopyright": 6552,
      "METH": 6553,
      "Ġmenu": 6554,
      "Ġ];": 6555,
      "wik": 6556,
      "Ġtimeout": 6557,
      "onto": 6558,
      "Att": 6559,
      "Ġoffice": 6560,
      "edge": 6561,
      "Ñı": 6562,
      "liance": 6563,
      "tar": 6564,
      "BE": 6565,
      "ĠExec": 6566,
      "Ġconduct": 6567,
      "ĠHall": 6568,
      "ĠSam": 6569,
      "ano": 6570,
      "Ġcome": 6571,
      "ĠPen": 6572,
      "role": 6573,
      "ĠMiss": 6574,
      "ĠIsland": 6575,
      "Ġexact": 6576,
      "69": 6577,
      "ander": 6578,
      "IDTH": 6579,
      "Ġste": 6580,
      "73": 6581,
      "frag": 6582,
      "ĠOver": 6583,
      "println": 6584,
      "Other": 6585,
      "km": 6586,
      "Ġrequests": 6587,
      "appa": 6588,
      "ĠMex": 6589,
      "amazon": 6590,
      "DEFAULT": 6591,
      "USE": 6592,
      "ĠCollection": 6593,
      "glyph": 6594,
      "random": 6595,
      "Ġfriend": 6596,
      "flag": 6597,
      "ĠPub": 6598,
      "ĠAng": 6599,
      "ĠĠĠĠĠĠĠĠĠĠĠĠĠĠĠĠĠĠĠĠĠĠĠĠĠĠĠĠĠĠĠĠĠĠĠĠĠĠĠĠĠĠĠĠĠĠĠĠĠĠĠĠĠĠĠĠĠĠĠĠĠĠĠĠ": 6600,
      "TA": 6601,
      "ĠTur": 6602,
      "emon": 6603,
      "ĠSociety": 6604,
      ";\">": 6605,
      "EEEEFF": 6606,
      "ĠVir": 6607,
      "ĠTex": 6608,
      "Ġfollowed": 6609,
      "Ġautomatic": 6610,
      "ĠJust": 6611,
      "Ġtranslate": 6612,
      "basic": 6613,
      "Ġpotential": 6614,
      "Ġdaught": 6615,
      "Ġbehavior": 6616,
      "Stat": 6617,
      "Py": 6618,
      "acro": 6619,
      "WN": 6620,
      "TRUE": 6621,
      "textit": 6622,
      "Ġsitu": 6623,
      "ĠItal": 6624,
      "Ġprec": 6625,
      "ELD": 6626,
      "Ġinstalled": 6627,
      "Ġlonger": 6628,
      "()))": 6629,
      "uitar": 6630,
      "Ġensure": 6631,
      "Ġmot": 6632,
      "Ġsil": 6633,
      "WR": 6634,
      "Prop": 6635,
      "OST": 6636,
      "Ġstarting": 6637,
      "anging": 6638,
      "Ġsimp": 6639,
      "JS": 6640,
      "ĠGo": 6641,
      "71": 6642,
      "estival": 6643,
      "users": 6644,
      "ĠInstitute": 6645,
      "Ġidx": 6646,
      "Ġrelationship": 6647,
      "Ġimmedi": 6648,
      "assandra": 6649,
      "Ġlayout": 6650,
      "ĠPress": 6651,
      "ĠNumber": 6652,
      "timeout": 6653,
      "ĠLeg": 6654,
      "Ġnovel": 6655,
      "Cur": 6656,
      "Make": 6657,
      "1960": 6658,
      "endor": 6659,
      "UD": 6660,
      "Ġhit": 6661,
      "Ġsecurity": 6662,
      "helper": 6663,
      "Delegate": 6664,
      "Ġdirected": 6665,
      "pped": 6666,
      "Ġreading": 6667,
      "Ġsomething": 6668,
      "Now": 6669,
      "bes": 6670,
      "Ġreview": 6671,
      "FORM": 6672,
      "Ġblocks": 6673,
      "Ġhel": 6674,
      "Ġtreat": 6675,
      "Ġ{\"": 6676,
      "Ġfocus": 6677,
      "Required": 6678,
      "Cred": 6679,
      "åĪ": 6680,
      "Skip": 6681,
      "Ġissues": 6682,
      ".\",": 6683,
      "Ġmd": 6684,
      "ĠColor": 6685,
      "watch": 6686,
      "ĠAction": 6687,
      "tended": 6688,
      "icen": 6689,
      "Ġvict": 6690,
      "\"],": 6691,
      "expect": 6692,
      "Ġeng": 6693,
      "Elements": 6694,
      "Wallet": 6695,
      "Ġprinc": 6696,
      "ĠallClasses": 6697,
      "ancellation": 6698,
      "clean": 6699,
      "Ġdiscover": 6700,
      "Ġpercent": 6701,
      "\\%": 6702,
      "Ġdepart": 6703,
      "Ġexplicit": 6704,
      "socket": 6705,
      "pattern": 6706,
      "vo": 6707,
      "clusion": 6708,
      "ĠallClassesLink": 6709,
      "variant": 6710,
      "ĠSection": 6711,
      "Ġnor": 6712,
      "Animation": 6713,
      "ivalent": 6714,
      "Ġmiddle": 6715,
      "igen": 6716,
      "ĠSO": 6717,
      "optional": 6718,
      "Ġapplied": 6719,
      "referred": 6720,
      "Report": 6721,
      "Ġproxy": 6722,
      "Shape": 6723,
      "allel": 6724,
      "Ġwife": 6725,
      "resents": 6726,
      "Ġupdated": 6727,
      "Summary": 6728,
      "ĠTV": 6729,
      "sidebar": 6730,
      "orrect": 6731,
      "ato": 6732,
      "Ġformed": 6733,
      "áĥ": 6734,
      "fix": 6735,
      "igration": 6736,
      "throw": 6737,
      "tc": 6738,
      "ste": 6739,
      "icks": 6740,
      "contin": 6741,
      "Ġmodern": 6742,
      "ĠCEL": 6743,
      "Ġintroduced": 6744,
      "Ġetc": 6745,
      "eners": 6746,
      "Ġyield": 6747,
      "Ġmeas": 6748,
      "Ġcentral": 6749,
      "Ġcontr": 6750,
      "Ġretr": 6751,
      "ĠBay": 6752,
      "essor": 6753,
      "'];": 6754,
      "cit": 6755,
      "edy": 6756,
      "Ġchain": 6757,
      "NavBarFont": 6758,
      "Ġbasic": 6759,
      "ĠTown": 6760,
      "bg": 6761,
      "ĠRecords": 6762,
      "Ġwords": 6763,
      "console": 6764,
      "ki": 6765,
      "Ġtmp": 6766,
      "Ġyoung": 6767,
      "warning": 6768,
      "Cap": 6769,
      "Enumer": 6770,
      "ANG": 6771,
      "Sequence": 6772,
      "uan": 6773,
      "ĠKingdom": 6774,
      "ping": 6775,
      "ĠassertThat": 6776,
      "Ġtro": 6777,
      "comes": 6778,
      "Cert": 6779,
      "REQ": 6780,
      "ĠSur": 6781,
      "Ġalthough": 6782,
      "Ġpreviously": 6783,
      "Ġnecessary": 6784,
      "ĠAfrican": 6785,
      "Ġproof": 6786,
      "construct": 6787,
      "METHOD": 6788,
      "Ġlittle": 6789,
      "Sort": 6790,
      "pite": 6791,
      "Ġalbums": 6792,
      "ĠCanadian": 6793,
      "ountry": 6794,
      "Ġquestion": 6795,
      "Ġcategory": 6796,
      "ĠRussian": 6797,
      "Ġassist": 6798,
      "owner": 6799,
      "Ġmonths": 6800,
      "ateway": 6801,
      "ACE": 6802,
      "ategories": 6803,
      "Mask": 6804,
      "ĠThomas": 6805,
      "ette": 6806,
      "Ġproposed": 6807,
      "Ġsignal": 6808,
      "ĠCong": 6809,
      "Ġcompanies": 6810,
      "writer": 6811,
      "vc": 6812,
      "cred": 6813,
      "rael": 6814,
      "ndef": 6815,
      "extension": 6816,
      "ifiers": 6817,
      "Ġprops": 6818,
      "Language": 6819,
      "Bean": 6820,
      "ĠTech": 6821,
      "Total": 6822,
      "hell": 6823,
      "ĠPath": 6824,
      "uation": 6825,
      "amilies": 6826,
      "ĠGames": 6827,
      "Fragment": 6828,
      "ĠGreen": 6829,
      "ampl": 6830,
      "Ġeff": 6831,
      "ening": 6832,
      "Ġcampaign": 6833,
      "Ġoptim": 6834,
      "blank": 6835,
      "gs": 6836,
      "NT": 6837,
      "star": 6838,
      "/\"": 6839,
      "panish": 6840,
      "DEBUG": 6841,
      "Mat": 6842,
      "=\"$": 6843,
      "Ġfactor": 6844,
      "signature": 6845,
      "Screen": 6846,
      "ĠCath": 6847,
      "Ġusually": 6848,
      "Cast": 6849,
      "Video": 6850,
      "Returns": 6851,
      "quote": 6852,
      "Notification": 6853,
      "Ġfactory": 6854,
      "ãĢ": 6855,
      "Mouse": 6856,
      "ENSE": 6857,
      "ĠNAV": 6858,
      "Multi": 6859,
      "ĠEND": 6860,
      "Ġbad": 6861,
      "aland": 6862,
      "Ġreadonly": 6863,
      "veloper": 6864,
      "ĠSuper": 6865,
      "ĠRoad": 6866,
      "ĠCam": 6867,
      "Game": 6868,
      "Import": 6869,
      "verter": 6870,
      "ĠHistor": 6871,
      "video": 6872,
      "Ġanaly": 6873,
      "Ġcut": 6874,
      "ita": 6875,
      "Ġdep": 6876,
      "since": 6877,
      "Dictionary": 6878,
      "ĠSIZE": 6879,
      "isation": 6880,
      "yg": 6881,
      "=-": 6882,
      "Len": 6883,
      "Ġlargest": 6884,
      "upload": 6885,
      "Ġexternal": 6886,
      "urnament": 6887,
      "Ġprior": 6888,
      "1989": 6889,
      "den": 6890,
      "ĠAlex": 6891,
      "Find": 6892,
      "=(": 6893,
      "ĠClub": 6894,
      "Endpoint": 6895,
      "Ġliving": 6896,
      "OF": 6897,
      "Single": 6898,
      "Ġplugin": 6899,
      "ä»": 6900,
      "Ġ'\\": 6901,
      "Vertex": 6902,
      "ĠCentral": 6903,
      "asketball": 6904,
      "Ġunless": 6905,
      "EC": 6906,
      "green": 6907,
      "RES": 6908,
      "checked": 6909,
      "ĠLine": 6910,
      "Ġcounter": 6911,
      "Ids": 6912,
      "inct": 6913,
      "Ġmulti": 6914,
      "Ġdesigned": 6915,
      "Phi": 6916,
      "dc": 6917,
      "rum": 6918,
      "ĠBig": 6919,
      "well": 6920,
      "Ġnp": 6921,
      "Ġfounded": 6922,
      "VALID": 6923,
      "yper": 6924,
      "Microsoft": 6925,
      "ech": 6926,
      "Ġelected": 6927,
      "ldots": 6928,
      "Email": 6929,
      "Ġtax": 6930,
      "Encoded": 6931,
      "Ġsources": 6932,
      "jd": 6933,
      "pu": 6934,
      "Ġcourse": 6935,
      "Ã¨": 6936,
      "ĠFre": 6937,
      "Ġmanagement": 6938,
      "rev": 6939,
      "ĠInc": 6940,
      "Ġcomplet": 6941,
      "ifndef": 6942,
      "ĠRout": 6943,
      "Ġ).": 6944,
      "=\"../../../../../../../": 6945,
      "irmed": 6946,
      "Ġexit": 6947,
      "ares": 6948,
      "ulations": 6949,
      "cluster": 6950,
      "Ġvalign": 6951,
      "ĠThat": 6952,
      "agent": 6953,
      "ĠBest": 6954,
      "Compiler": 6955,
      "(\"/": 6956,
      "ĠDay": 6957,
      "Fig": 6958,
      "Ġemail": 6959,
      "getValue": 6960,
      "fficial": 6961,
      "Ġvolume": 6962,
      "Ġnatural": 6963,
      "Ġ@\"": 6964,
      "yr": 6965,
      "Ġhimself": 6966,
      "Ġexperiment": 6967,
      "Ġabstract": 6968,
      "goto": 6969,
      "ĠUK": 6970,
      "linear": 6971,
      "ĠJapanese": 6972,
      "origin": 6973,
      "Ġfit": 6974,
      "Ġtell": 6975,
      "Ġface": 6976,
      "Ġreceive": 6977,
      "Ġappeared": 6978,
      "Ġowner": 6979,
      "Methods": 6980,
      "Ġcontroller": 6981,
      "1988": 6982,
      "article": 6983,
      "Ġexport": 6984,
      "»¿": 6985,
      "Ġdesc": 6986,
      "Ġmoment": 6987,
      "Ign": 6988,
      "PHP": 6989,
      "Ġbirth": 6990,
      "ï»¿": 6991,
      "Math": 6992,
      "database": 6993,
      "/\\": 6994,
      "Ġraw": 6995,
      "ky": 6996,
      "ped": 6997,
      "ceed": 6998,
      "lat": 6999,
      "arian": 7000,
      "ĠSQL": 7001,
      "USER": 7002,
      "ĠWhite": 7003,
      "plates": 7004,
      "ĠAfrica": 7005,
      "INTER": 7006,
      "']['": 7007,
      "Gen": 7008,
      "Ã£": 7009,
      "Ġsb": 7010,
      "ĠDocument": 7011,
      "ĠKe": 7012,
      "Ġgrant": 7013,
      "Ġappointed": 7014,
      "ongs": 7015,
      "Ġaltern": 7016,
      "ĠDi": 7017,
      "ITION": 7018,
      "crete": 7019,
      "Ġstrings": 7020,
      "proxy": 7021,
      "indent": 7022,
      "Ġrequires": 7023,
      "ummy": 7024,
      "ĠJew": 7025,
      "Ġfun": 7026,
      "à¸": 7027,
      "Ġproces": 7028,
      "resolve": 7029,
      "DS": 7030,
      "achment": 7031,
      "ĠMuseum": 7032,
      "imitive": 7033,
      "ali": 7034,
      "animation": 7035,
      "Google": 7036,
      "Ġdim": 7037,
      "subset": 7038,
      "ictor": 7039,
      "transition": 7040,
      "Ġenable": 7041,
      "Ġtra": 7042,
      "ANCE": 7043,
      "testing": 7044,
      "ĠImage": 7045,
      "ĠNAVBAR": 7046,
      "langle": 7047,
      "Ġalmost": 7048,
      "PP": 7049,
      "Ġplaying": 7050,
      "ĠHo": 7051,
      "ospital": 7052,
      "Sql": 7053,
      "orter": 7054,
      ":\\": 7055,
      "Ġ\"$": 7056,
      "mazon": 7057,
      "Ġenv": 7058,
      "Bound": 7059,
      "ĠChe": 7060,
      "ployment": 7061,
      "Ġdam": 7062,
      "ĠALI": 7063,
      "Ġactually": 7064,
      "Ġprotocol": 7065,
      "clone": 7066,
      "FS": 7067,
      "compile": 7068,
      "ĠUN": 7069,
      "uest": 7070,
      "when": 7071,
      "ĠLem": 7072,
      "MARY": 7073,
      "ĠTim": 7074,
      "ques": 7075,
      "Ġmask": 7076,
      "Begin": 7077,
      "Hand": 7078,
      "\"].": 7079,
      "Ġfailure": 7080,
      "Ġbuf": 7081,
      "FL": 7082,
      "Ġopts": 7083,
      "Ġrecords": 7084,
      "ĠWhile": 7085,
      "ĠScott": 7086,
      "****************************************************************": 7087,
      "Ġtsd": 7088,
      "wall": 7089,
      "zure": 7090,
      "Ġpool": 7091,
      "Ġpartial": 7092,
      ",-": 7093,
      "ĠMax": 7094,
      "Ġsubsequent": 7095,
      "DATA": 7096,
      "metric": 7097,
      "organ": 7098,
      "Ġlearn": 7099,
      "Ġ([": 7100,
      "Ġbinary": 7101,
      "Ġschools": 7102,
      "Ġplaces": 7103,
      "EventListener": 7104,
      "ufact": 7105,
      "Pair": 7106,
      "Ġok": 7107,
      "umin": 7108,
      "undefined": 7109,
      "Support": 7110,
      "Ġtrigger": 7111,
      "rish": 7112,
      "player": 7113,
      "Flag": 7114,
      "ArgumentException": 7115,
      "ĠYear": 7116,
      "Mer": 7117,
      "ĠAcademy": 7118,
      "route": 7119,
      "ĠØ": 7120,
      "fire": 7121,
      "sample": 7122,
      "issues": 7123,
      "SK": 7124,
      "inet": 7125,
      "La": 7126,
      "ĠOff": 7127,
      "raction": 7128,
      "Ġeight": 7129,
      "ication": 7130,
      "Ġmother": 7131,
      "Ġdimension": 7132,
      "Ġcontact": 7133,
      "Short": 7134,
      "IVE": 7135,
      "hl": 7136,
      "Detail": 7137,
      "Ġri": 7138,
      "ĠPat": 7139,
      "Ġruns": 7140,
      "Stop": 7141,
      "Ġdrop": 7142,
      "Ġmechan": 7143,
      "Ġdu": 7144,
      "IST": 7145,
      "ĠDemocr": 7146,
      "Ġul": 7147,
      "aled": 7148,
      "utation": 7149,
      "Å¡": 7150,
      "PUT": 7151,
      "}-": 7152,
      "Ġdiscuss": 7153,
      "Ġvertical": 7154,
      "nabla": 7155,
      "Ġfootballers": 7156,
      "Ġdisabled": 7157,
      "PROJECT": 7158,
      "Ġdiag": 7159,
      "Ġspeed": 7160,
      "condition": 7161,
      "MODU": 7162,
      "ĠValid": 7163,
      "Ġroad": 7164,
      "people": 7165,
      "selector": 7166,
      "STATE": 7167,
      "game": 7168,
      "Ġboard": 7169,
      "Ġstatement": 7170,
      "Ġque": 7171,
      "%\"": 7172,
      "velopment": 7173,
      "ĠOrig": 7174,
      "MODULE": 7175,
      "download": 7176,
      "Ġschema": 7177,
      "loaded": 7178,
      "Sl": 7179,
      "look": 7180,
      "ĠChristian": 7181,
      "Validation": 7182,
      "Validator": 7183,
      "Ġsql": 7184,
      "Ġproper": 7185,
      "ĠChinese": 7186,
      "uplic": 7187,
      "Ġtaking": 7188,
      "ĠWestern": 7189,
      "osen": 7190,
      "here": 7191,
      "duration": 7192,
      "Ġsus": 7193,
      "Ġmaster": 7194,
      "ĠALIGN": 7195,
      "Sigma": 7196,
      "æľ": 7197,
      "blue": 7198,
      "ĠLouis": 7199,
      "runtime": 7200,
      "Children": 7201,
      "TS": 7202,
      "ĠLat": 7203,
      "atomic": 7204,
      "ĠTexas": 7205,
      "uda": 7206,
      "Ġscroll": 7207,
      "Ġlistener": 7208,
      "ĠElement": 7209,
      "Forms": 7210,
      "ĠForce": 7211,
      "Ġbranch": 7212,
      "constructor": 7213,
      "original": 7214,
      "Ġverify": 7215,
      "ĠMichael": 7216,
      "library": 7217,
      "})$": 7218,
      "atively": 7219,
      "NSString": 7220,
      "opts": 7221,
      "ĠCharles": 7222,
      "ĠStart": 7223,
      "mbox": 7224,
      "ĠRel": 7225,
      "trl": 7226,
      "ĠFore": 7227,
      "ĠSecond": 7228,
      "anning": 7229,
      "Ġjud": 7230,
      "isEmpty": 7231,
      "depth": 7232,
      "#{": 7233,
      "Ġreset": 7234,
      "reland": 7235,
      "Ġcolumns": 7236,
      "Pub": 7237,
      "alax": 7238,
      "ĠMinister": 7239,
      "validate": 7240,
      "Move": 7241,
      "Ġanimation": 7242,
      "react": 7243,
      "ĠInput": 7244,
      "Ġalumni": 7245,
      "Ñĭ": 7246,
      "ston": 7247,
      "destroy": 7248,
      "ĠItalian": 7249,
      "ĠĠĠĠĠĠĠĠĠĠĠĠĠĠĠĠĠĠĠĠĠĠĠĠĠĠĠĠĠĠ": 7250,
      "kappa": 7251,
      "ĠEmp": 7252,
      "commit": 7253,
      "Ġforces": 7254,
      "Ġsignature": 7255,
      "thrift": 7256,
      "ĠShow": 7257,
      "Program": 7258,
      "merc": 7259,
      "Flow": 7260,
      "ĠSal": 7261,
      "loop": 7262,
      "iece": 7263,
      "ĠVirgin": 7264,
      "Scal": 7265,
      "apis": 7266,
      "High": 7267,
      "ĠEar": 7268,
      "PTION": 7269,
      "Lin": 7270,
      "Ġchart": 7271,
      "MI": 7272,
      "Ġinvolved": 7273,
      "lam": 7274,
      "âĢľ": 7275,
      "ova": 7276,
      "ĠGold": 7277,
      "{-": 7278,
      "Ġcursor": 7279,
      "DA": 7280,
      "ducation": 7281,
      "idents": 7282,
      "getElementById": 7283,
      "Ġforward": 7284,
      "MIN": 7285,
      "vanced": 7286,
      "ĠHistory": 7287,
      "slice": 7288,
      "(--": 7289,
      "ĠBen": 7290,
      "ĠANY": 7291,
      "ĠMake": 7292,
      "Ġcountries": 7293,
      "ĠVis": 7294,
      "}]": 7295,
      "abit": 7296,
      "azine": 7297,
      "Pass": 7298,
      "InputStream": 7299,
      "ĠTor": 7300,
      "sb": 7301,
      "kwargs": 7302,
      "1987": 7303,
      "typename": 7304,
      "present": 7305,
      "ORY": 7306,
      ":`": 7307,
      "Ġproblems": 7308,
      "Psi": 7309,
      "ĠZealand": 7310,
      "strument": 7311,
      "SSL": 7312,
      "report": 7313,
      "Ġlisted": 7314,
      "ĠDec": 7315,
      "Ġpanel": 7316,
      "ĠMa": 7317,
      "ĠVector": 7318,
      "Ġthroughout": 7319,
      "Save": 7320,
      "Warning": 7321,
      "iograph": 7322,
      "anned": 7323,
      "Allow": 7324,
      "Ġsummary": 7325,
      "Ġeq": 7326,
      "ynchron": 7327,
      "arnings": 7328,
      "Ġrelig": 7329,
      "Ġsem": 7330,
      "Rev": 7331,
      "policy": 7332,
      ":@\"": 7333,
      "orse": 7334,
      "Notes": 7335,
      "Ġleague": 7336,
      "Ġwhole": 7337,
      "ĠĠĠĊ": 7338,
      "{\"": 7339,
      "iny": 7340,
      "rf": 7341,
      "Enter": 7342,
      "ĠSummer": 7343,
      "Ġbus": 7344,
      "Ġfix": 7345,
      "/{": 7346,
      "stant": 7347,
      "cle": 7348,
      "prov": 7349,
      "Ġactions": 7350,
      "Execution": 7351,
      "Ġrect": 7352,
      "fol": 7353,
      "VENT": 7354,
      "Ġstand": 7355,
      "iers": 7356,
      "STRING": 7357,
      "Ġbeginning": 7358,
      "Ġcoup": 7359,
      "VICE": 7360,
      "sync": 7361,
      "1986": 7362,
      "Ã£o": 7363,
      "WORD": 7364,
      "appro": 7365,
      "isset": 7366,
      "APP": 7367,
      "Ð¼": 7368,
      "Ġarriv": 7369,
      "Ġjournal": 7370,
      "CALL": 7371,
      "serve": 7372,
      "supported": 7373,
      "highlight": 7374,
      "Ġguitar": 7375,
      "ĠTer": 7376,
      "TestCase": 7377,
      "acc": 7378,
      "ircraft": 7379,
      "inherit": 7380,
      "ji": 7381,
      "Ġbroadcast": 7382,
      "Ġeas": 7383,
      "Ġclick": 7384,
      "Native": 7385,
      "exit": 7386,
      "\\|": 7387,
      "Ġdriv": 7388,
      "Ġincrease": 7389,
      "ĠCarol": 7390,
      "heast": 7391,
      "Ġmarket": 7392,
      "har": 7393,
      "Ġ\"\";": 7394,
      "standing": 7395,
      "Arch": 7396,
      "Ġ'';": 7397,
      "ĠAR": 7398,
      "Ġthings": 7399,
      "ÑĮ": 7400,
      "ancial": 7401,
      "SELECT": 7402,
      "ĠKore": 7403,
      "Ġaxis": 7404,
      "overview": 7405,
      ":[": 7406,
      "usr": 7407,
      "ĠBoolean": 7408,
      "ĠFrancis": 7409,
      "ĠGreat": 7410,
      "IOException": 7411,
      "ORTED": 7412,
      "di": 7413,
      "Î¿": 7414,
      "Identity": 7415,
      "uages": 7416,
      "Ġreached": 7417,
      "Ġbooks": 7418,
      "navigation": 7419,
      "objects": 7420,
      "ĠPoint": 7421,
      "ĠTok": 7422,
      "Consumer": 7423,
      "ils": 7424,
      "azy": 7425,
      "acle": 7426,
      "Nullable": 7427,
      "sequence": 7428,
      "ĠOptional": 7429,
      "vlet": 7430,
      "Ġgave": 7431,
      "ĠOlympics": 7432,
      "ĠCommon": 7433,
      "Ġmis": 7434,
      "Folder": 7435,
      "merge": 7436,
      "Ġmus": 7437,
      "ansion": 7438,
      "COMP": 7439,
      "Ġsound": 7440,
      "æĸ": 7441,
      "Tra": 7442,
      "Ġremote": 7443,
      "house": 7444,
      "Ġ>>": 7445,
      "Ġexecute": 7446,
      "ĠResult": 7447,
      "1984": 7448,
      "ierarch": 7449,
      "Limit": 7450,
      "Ġseconds": 7451,
      "Ġlicense": 7452,
      "Binding": 7453,
      "trace": 7454,
      "Sample": 7455,
      "ĠGod": 7456,
      "Driver": 7457,
      "Ġdetail": 7458,
      "Ġsen": 7459,
      "Ġpredict": 7460,
      "Ġinner": 7461,
      "hold": 7462,
      "isions": 7463,
      "Miss": 7464,
      "alls": 7465,
      "oped": 7466,
      "Ġignore": 7467,
      "ometimes": 7468,
      "Ġdocumentation": 7469,
      "WEB": 7470,
      "Ġtransparent": 7471,
      "00000000": 7472,
      "ĠMad": 7473,
      "Alloc": 7474,
      "cheduler": 7475,
      "zip": 7476,
      "circle": 7477,
      "Ġadapt": 7478,
      "tty": 7479,
      "structure": 7480,
      "pecially": 7481,
      "catch": 7482,
      "Diagnost": 7483,
      "lipse": 7484,
      "ulk": 7485,
      "REG": 7486,
      "Ġpublish": 7487,
      "Ġobserved": 7488,
      "CF": 7489,
      "Ġdaughter": 7490,
      "Ġspan": 7491,
      "Batch": 7492,
      "Ġnavbar": 7493,
      "boost": 7494,
      "spacing": 7495,
      "visible": 7496,
      "Ġagent": 7497,
      "Ġkilled": 7498,
      "Ġreally": 7499,
      "Ġdriver": 7500,
      "calendar": 7501,
      "Cloud": 7502,
      "effic": 7503,
      ">)": 7504,
      "deg": 7505,
      "isters": 7506,
      "Serializer": 7507,
      "Proto": 7508,
      "abilities": 7509,
      "ĠHow": 7510,
      "RR": 7511,
      "istan": 7512,
      "Ġpor": 7513,
      "Ġmatching": 7514,
      "Ġ..": 7515,
      "Ġleaders": 7516,
      "_);": 7517,
      "iences": 7518,
      "Ġextract": 7519,
      "groups": 7520,
      "Literal": 7521,
      "Ġreject": 7522,
      "Ġsmaller": 7523,
      "Ġrepresented": 7524,
      "CG": 7525,
      "tor": 7526,
      "ĠTH": 7527,
      "Ġactivity": 7528,
      "ĠFootball": 7529,
      "ÛĮ": 7530,
      "peated": 7531,
      "uite": 7532,
      "Ġremaining": 7533,
      "Constructor": 7534,
      "\\[": 7535,
      "udd": 7536,
      "Ġlearning": 7537,
      "ĠBlock": 7538,
      "Since": 7539,
      "MODE": 7540,
      "Ġans": 7541,
      "LOC": 7542,
      "ssl": 7543,
      "tf": 7544,
      "NA": 7545,
      "ingu": 7546,
      "single": 7547,
      "atre": 7548,
      "World": 7549,
      "stable": 7550,
      "alert": 7551,
      "ĠOp": 7552,
      "Ġcourt": 7553,
      "Ġinterval": 7554,
      "ĠJose": 7555,
      "atar": 7556,
      "Environment": 7557,
      "factory": 7558,
      "Ġdict": 7559,
      "created": 7560,
      "ĠPRO": 7561,
      "icol": 7562,
      "disable": 7563,
      "Ġdram": 7564,
      "oton": 7565,
      "ilevel": 7566,
      "Ġreader": 7567,
      "Ġeffects": 7568,
      "room": 7569,
      "Ġminimum": 7570,
      "ple": 7571,
      "jQuery": 7572,
      "ĠFoundation": 7573,
      "()),": 7574,
      "operation": 7575,
      "once": 7576,
      "Ġ\"\",": 7577,
      "generate": 7578,
      "Constant": 7579,
      "&\\": 7580,
      "ORDER": 7581,
      "Release": 7582,
      "PU": 7583,
      "Ġâ": 7584,
      "Ġmedal": 7585,
      "çĶ": 7586,
      "usion": 7587,
      "Äģ": 7588,
      "Ġsports": 7589,
      "extend": 7590,
      "Ġdelay": 7591,
      "Transport": 7592,
      "rect": 7593,
      "inf": 7594,
      "Ġscen": 7595,
      "Ġquick": 7596,
      "setup": 7597,
      "Ġtour": 7598,
      ";\\": 7599,
      "Ġgrid": 7600,
      "Ġtesting": 7601,
      "Ġequation": 7602,
      "Ġdifficult": 7603,
      "Ġshare": 7604,
      "ĠIll": 7605,
      "related": 7606,
      "lower": 7607,
      "dots": 7608,
      "tics": 7609,
      "pret": 7610,
      "Ġdeep": 7611,
      "Ġig": 7612,
      "Ġdise": 7613,
      "convert": 7614,
      "Remote": 7615,
      "Ġship": 7616,
      "1985": 7617,
      "FIELD": 7618,
      "bro": 7619,
      "submit": 7620,
      "war": 7621,
      "ami": 7622,
      "Ġinstit": 7623,
      "ĠSmith": 7624,
      "Ġepisode": 7625,
      "driver": 7626,
      "ĉĠĠĠĠĠ": 7627,
      "/_": 7628,
      "Ġfemale": 7629,
      "Ġforms": 7630,
      "Ġeffort": 7631,
      "aud": 7632,
      "Append": 7633,
      "DEF": 7634,
      "Ġchall": 7635,
      "Ġtherefore": 7636,
      "ĠRef": 7637,
      "Ġbuildings": 7638,
      "scss": 7639,
      "Ġfill": 7640,
      "GER": 7641,
      "plus": 7642,
      "Objects": 7643,
      "Ġselector": 7644,
      "Ġcard": 7645,
      "ĠTom": 7646,
      "Lower": 7647,
      "Ġcivil": 7648,
      "ĠScience": 7649,
      "ĠClient": 7650,
      "elem": 7651,
      "DOM": 7652,
      "ĠAre": 7653,
      "NUM": 7654,
      "1950": 7655,
      "anch": 7656,
      "ollowing": 7657,
      "Clear": 7658,
      "PH": 7659,
      "Ġgradu": 7660,
      "ĠIllegal": 7661,
      "Html": 7662,
      "Ġpresented": 7663,
      "Ġcreating": 7664,
      "centering": 7665,
      "np": 7666,
      "Ġcult": 7667,
      "dep": 7668,
      "ĠPri": 7669,
      "ĠAlso": 7670,
      "havi": 7671,
      "Ġconcept": 7672,
      "activity": 7673,
      "Ġlikely": 7674,
      "ĠFROM": 7675,
      "complete": 7676,
      "ĠRegion": 7677,
      "ĠAv": 7678,
      "irty": 7679,
      "ryption": 7680,
      "ĉčĊ": 7681,
      "accept": 7682,
      "Ġtheme": 7683,
      "native": 7684,
      "ĠProperty": 7685,
      "fetch": 7686,
      "Ġloaded": 7687,
      "FE": 7688,
      "Ġdependencies": 7689,
      "ĠIsrael": 7690,
      "transaction": 7691,
      "Ġsecret": 7692,
      "Ġdemon": 7693,
      "ĠEq": 7694,
      "called": 7695,
      "Ġconnected": 7696,
      "CHAR": 7697,
      "ira": 7698,
      "ises": 7699,
      "ĠAut": 7700,
      "vertical": 7701,
      "ĠRet": 7702,
      "Operator": 7703,
      "Sim": 7704,
      "thm": 7705,
      "Ġdem": 7706,
      "Ġapilevel": 7707,
      "Ġartists": 7708,
      "Ġ\\\"": 7709,
      "Ġspent": 7710,
      "Mapper": 7711,
      "Ġsys": 7712,
      "Ġspecify": 7713,
      "ĠExp": 7714,
      "Ġholds": 7715,
      "Ġoriginally": 7716,
      "amel": 7717,
      "Own": 7718,
      "Ġfinish": 7719,
      "å®": 7720,
      "ï¼Į": 7721,
      "ima": 7722,
      "ĠLin": 7723,
      "Fn": 7724,
      "inger": 7725,
      "Art": 7726,
      "GR": 7727,
      "icago": 7728,
      "Private": 7729,
      "Ġsegment": 7730,
      "dash": 7731,
      "Navigation": 7732,
      "Ġir": 7733,
      "bridge": 7734,
      "Ġseven": 7735,
      "Ġentries": 7736,
      "diff": 7737,
      "radio": 7738,
      "vs": 7739,
      "Ġplaced": 7740,
      "ĠMus": 7741,
      "Ġelif": 7742,
      "ĠNetwork": 7743,
      "Ġconc": 7744,
      "Ġexhib": 7745,
      "Ġgives": 7746,
      "Hub": 7747,
      "Ġvalidate": 7748,
      "Ġstudies": 7749,
      ">\"": 7750,
      "Ġdetermine": 7751,
      "Ġroom": 7752,
      "Ġedit": 7753,
      "asc": 7754,
      "Ġexplo": 7755,
      "Dependency": 7756,
      "Ġbehind": 7757,
      "utch": 7758,
      "ĠRemove": 7759,
      "Ġcoach": 7760,
      "front": 7761,
      "Prov": 7762,
      "Med": 7763,
      "Ġ'./": 7764,
      "Usage": 7765,
      "Ġeventually": 7766,
      "Ġexecution": 7767,
      "Ġmixed": 7768,
      "Ġpush": 7769,
      "Static": 7770,
      "Ġelectron": 7771,
      "ĠSets": 7772,
      "ĠExt": 7773,
      "Ġsec": 7774,
      "åĲ": 7775,
      "Ġstructures": 7776,
      "Ġaccur": 7777,
      "NN": 7778,
      "}}{": 7779,
      "riends": 7780,
      "messages": 7781,
      "rece": 7782,
      "Resolver": 7783,
      "commons": 7784,
      "deprecated": 7785,
      "Ġuseful": 7786,
      "cf": 7787,
      "ĠCatholic": 7788,
      "INS": 7789,
      "Ð´": 7790,
      "Ġmunicipal": 7791,
      "Ġstri": 7792,
      "1983": 7793,
      "!\\": 7794,
      "Gu": 7795,
      "icensed": 7796,
      "arguments": 7797,
      "ONG": 7798,
      "ĠSource": 7799,
      "seconds": 7800,
      "iro": 7801,
      "Ġopacity": 7802,
      "Ġpolice": 7803,
      "Ġrows": 7804,
      "ensuremath": 7805,
      "ĠParis": 7806,
      "NotFound": 7807,
      "']);": 7808,
      "ĠLife": 7809,
      "logo": 7810,
      "Ø±": 7811,
      "Drawing": 7812,
      "ĠXML": 7813,
      "nonumber": 7814,
      "Ġrepresents": 7815,
      "duce": 7816,
      "/\">": 7817,
      "Ġorganization": 7818,
      "Volume": 7819,
      "Throw": 7820,
      "udo": 7821,
      "ĠWIDTH": 7822,
      "ĠPeter": 7823,
      "anta": 7824,
      "methods": 7825,
      "Ġdepth": 7826,
      "Ġpersonal": 7827,
      "120": 7828,
      "ĠDEFAULT": 7829,
      "Normal": 7830,
      "Ġshift": 7831,
      "Ġ_,": 7832,
      "forEach": 7833,
      "erman": 7834,
      "kt": 7835,
      "Ġsex": 7836,
      "Basic": 7837,
      "Ġstored": 7838,
      "Ġ\"%": 7839,
      "Wait": 7840,
      "rence": 7841,
      "gebra": 7842,
      "Raw": 7843,
      "fmt": 7844,
      "matrix": 7845,
      "Unknown": 7846,
      "dy": 7847,
      "ĠGrand": 7848,
      "Ġprev": 7849,
      "Ġactor": 7850,
      "dig": 7851,
      "6666": 7852,
      "Ġstations": 7853,
      "Renderer": 7854,
      "ĠâĢĺ": 7855,
      "Ġarticle": 7856,
      "Ġregard": 7857,
      "ĉĠĠĠĠĠĠĠ": 7858,
      "Dem": 7859,
      "Î±": 7860,
      "ĠRichard": 7861,
      "edback": 7862,
      "ĠBill": 7863,
      "Ġ\".": 7864,
      "ĠSoftware": 7865,
      "ĠDB": 7866,
      "ĠOnly": 7867,
      "ulator": 7868,
      "Ġfmt": 7869,
      "Platform": 7870,
      "wp": 7871,
      "rg": 7872,
      "DATE": 7873,
      "Ġassume": 7874,
      "<<": 7875,
      "bi": 7876,
      "facebook": 7877,
      "ĠLocal": 7878,
      "mercial": 7879,
      "Env": 7880,
      "Amount": 7881,
      "shal": 7882,
      "Ġ''": 7883,
      "erved": 7884,
      "RT": 7885,
      "ĠTop": 7886,
      "iller": 7887,
      "Connect": 7888,
      "Ġespecially": 7889,
      "ĠLos": 7890,
      "Ġstated": 7891,
      "Word": 7892,
      "MT": 7893,
      "reme": 7894,
      "ocation": 7895,
      "ensitive": 7896,
      "Timer": 7897,
      "black": 7898,
      "Ġdisk": 7899,
      "QU": 7900,
      "Car": 7901,
      "ĠLjava": 7902,
      "Ġbene": 7903,
      "Day": 7904,
      "Ġ\">": 7905,
      "enge": 7906,
      ",'": 7907,
      "ĠLake": 7908,
      "dk": 7909,
      "Ġsimply": 7910,
      "nn": 7911,
      "ĠPage": 7912,
      "ĠGeorg": 7913,
      "Login": 7914,
      ",âĢĿ": 7915,
      "Messages": 7916,
      "Ġreve": 7917,
      "Ali": 7918,
      "agger": 7919,
      "simple": 7920,
      "150": 7921,
      "ously": 7922,
      "Ġsurv": 7923,
      "Ġmut": 7924,
      "ĠCamp": 7925,
      "ĠFrank": 7926,
      "Ġtechn": 7927,
      "razil": 7928,
      "%,": 7929,
      "bits": 7930,
      "ĠMock": 7931,
      ":'": 7932,
      "oon": 7933,
      "Ġcompared": 7934,
      "INST": 7935,
      "ository": 7936,
      "Ġnight": 7937,
      "Ġbasis": 7938,
      "ĠGame": 7939,
      "ĠĠĠĠĠĠĠĠĠĠĊ": 7940,
      "Ġstaff": 7941,
      "assertTrue": 7942,
      "och": 7943,
      "loading": 7944,
      "ĠSun": 7945,
      "ĠIreland": 7946,
      "Ġ}}": 7947,
      "1982": 7948,
      "Ġmeta": 7949,
      "Ġartist": 7950,
      "lementation": 7951,
      "ĠMass": 7952,
      "Syntax": 7953,
      "ĠNav": 7954,
      "Ġcompute": 7955,
      "Ġentered": 7956,
      "Audio": 7957,
      "words": 7958,
      "Ġfoc": 7959,
      "ĠPlay": 7960,
      "bose": 7961,
      "Ġthought": 7962,
      "Ġ{},": 7963,
      "large": 7964,
      "ager": 7965,
      "Ġcalling": 7966,
      "ixels": 7967,
      "Ġcolspan": 7968,
      "Ġlevels": 7969,
      "iate": 7970,
      "ĠApache": 7971,
      "kins": 7972,
      "Ġdecision": 7973,
      "Axis": 7974,
      "olf": 7975,
      "Cursor": 7976,
      "Div": 7977,
      "Ġlimited": 7978,
      "iring": 7979,
      "ĠCast": 7980,
      "ĠWindows": 7981,
      "Ġcommit": 7982,
      "Ð²": 7983,
      "Ġtouch": 7984,
      "Äĩ": 7985,
      "1979": 7986,
      "cour": 7987,
      "Strategy": 7988,
      "Ġtrade": 7989,
      "separ": 7990,
      "aria": 7991,
      "Ġcapital": 7992,
      "glyphicon": 7993,
      "CONT": 7994,
      "GroupName": 7995,
      "Ġleader": 7996,
      "ancy": 7997,
      "sn": 7998,
      "Ġnegative": 7999,
      "ceeded": 8000,
      "Ġprovider": 8001,
      "lood": 8002,
      "Ġautomatically": 8003,
      "utdown": 8004,
      "ternet": 8005,
      "tabular": 8006,
      "Ġaud": 8007,
      "directory": 8008,
      "Ġcreation": 8009,
      "found": 8010,
      "zero": 8011,
      "memory": 8012,
      "ĠResearch": 8013,
      "123": 8014,
      "otimes": 8015,
      "Ġidentity": 8016,
      "Ġgas": 8017,
      "ĠSpanish": 8018,
      "Ġstars": 8019,
      "Segment": 8020,
      "ĠDu": 8021,
      "Annotation": 8022,
      "Sur": 8023,
      "Users": 8024,
      "ĠHenry": 8025,
      "license": 8026,
      "igan": 8027,
      "Ġ>>>": 8028,
      "Ġtemperature": 8029,
      "icient": 8030,
      "Ġresolve": 8031,
      "VID": 8032,
      "tex": 8033,
      "abric": 8034,
      "ĠGovernment": 8035,
      "Ġseparate": 8036,
      "strip": 8037,
      "ockey": 8038,
      "ishop": 8039,
      "Ġ'.": 8040,
      "Ġ'',": 8041,
      "]))": 8042,
      ";|": 8043,
      "chain": 8044,
      "Ġbecomes": 8045,
      "Contact": 8046,
      "=\\\"": 8047,
      "ĠPan": 8048,
      "åħ": 8049,
      "AF": 8050,
      "Ġnothing": 8051,
      "Ġrecover": 8052,
      "\\]": 8053,
      "Processor": 8054,
      "Ġversions": 8055,
      "Ġphysical": 8056,
      "Ġrecomm": 8057,
      "Setting": 8058,
      "Ġcompare": 8059,
      "Ġpick": 8060,
      "pear": 8061,
      "ĠCommission": 8062,
      "Prev": 8063,
      "Tags": 8064,
      "month": 8065,
      "Ġvari": 8066,
      "Ġcontents": 8067,
      "onal": 8068,
      "heel": 8069,
      "Ġappropri": 8070,
      "BS": 8071,
      "Ġequivalent": 8072,
      "Ġmention": 8073,
      "Cmd": 8074,
      "Ġhighest": 8075,
      "Ġtransfer": 8076,
      "213": 8077,
      "idae": 8078,
      "yy": 8079,
      "Compat": 8080,
      ".\"\"\"": 8081,
      "Ġdro": 8082,
      "formance": 8083,
      "getId": 8084,
      "Free": 8085,
      "lan": 8086,
      "exist": 8087,
      "very": 8088,
      "Ġbrother": 8089,
      "ĠAust": 8090,
      "Ġfoot": 8091,
      "cheduled": 8092,
      "ĠMain": 8093,
      "ĠMicrosoft": 8094,
      "Ġteach": 8095,
      "ĠResponse": 8096,
      "batch": 8097,
      "Ġsaw": 8098,
      "ĠEngine": 8099,
      "Ġgold": 8100,
      "Ġsch": 8101,
      "Condition": 8102,
      "ĠJson": 8103,
      "Focus": 8104,
      "ĠWomen": 8105,
      "Ġsn": 8106,
      "Ġtowards": 8107,
      "ĠWrite": 8108,
      "CLASS": 8109,
      "YY": 8110,
      "ĉĉĉĉĉĉĉĉĉĉ": 8111,
      "inder": 8112,
      "ĠVictor": 8113,
      "Rate": 8114,
      "Ġtags": 8115,
      "NET": 8116,
      "cassandra": 8117,
      "ĠðŁ": 8118,
      "ĠWAR": 8119,
      "assign": 8120,
      "Ġplant": 8121,
      "Ġextended": 8122,
      "Inner": 8123,
      "Ġremain": 8124,
      "Ġfully": 8125,
      "Material": 8126,
      "ien": 8127,
      "blog": 8128,
      "ÐµÐ½": 8129,
      "Ġpermissions": 8130,
      "flat": 8131,
      "ĠTwo": 8132,
      "ador": 8133,
      "Ġeffic": 8134,
      "Ġmovement": 8135,
      "ĠStatus": 8136,
      "Ġiget": 8137,
      "Ġduration": 8138,
      "Span": 8139,
      "(\"#": 8140,
      "Border": 8141,
      "enses": 8142,
      "agraph": 8143,
      "stone": 8144,
      "selves": 8145,
      "ANT": 8146,
      "ims": 8147,
      "Ġtoday": 8148,
      "ĠĠĠĠĠĠĠĠĠĠĠĠĠĠĠĠĠĠĠĠĠĠĠĠĠĠĠĠĠĠĠĠĠ": 8149,
      "Ġpolitician": 8150,
      "Drop": 8151,
      "TRY": 8152,
      "Ġaudio": 8153,
      "urt": 8154,
      ")-": 8155,
      "Ġmodified": 8156,
      "ĠÐ¿": 8157,
      "Ġcollect": 8158,
      "Should": 8159,
      "Ġdataset": 8160,
      "ĠAnge": 8161,
      "Ġess": 8162,
      "Sep": 8163,
      "subscri": 8164,
      "Ġfast": 8165,
      "Ġidentifier": 8166,
      "Äį": 8167,
      "Ġ$_": 8168,
      "Ġinj": 8169,
      "Ġmoney": 8170,
      "about": 8171,
      "encode": 8172,
      "Ġ'%": 8173,
      "Ġindustry": 8174,
      "contact": 8175,
      "Ġsoon": 8176,
      "Ġgenerally": 8177,
      "FUN": 8178,
      "(.": 8179,
      "Capt": 8180,
      "heading": 8181,
      "IV": 8182,
      "Ġoccup": 8183,
      "Ġembed": 8184,
      "Ġgreater": 8185,
      "bean": 8186,
      "ĠDescription": 8187,
      "Insert": 8188,
      "definition": 8189,
      "osh": 8190,
      "ati": 8191,
      "oviet": 8192,
      "Ġminor": 8193,
      "Complete": 8194,
      "prime": 8195,
      "overs": 8196,
      "Ġmodal": 8197,
      "sin": 8198,
      "Binary": 8199,
      "ĠAndroid": 8200,
      "Ġusage": 8201,
      "ĠAS": 8202,
      "URCE": 8203,
      "ĠBit": 8204,
      "elt": 8205,
      "olar": 8206,
      "Ġpri": 8207,
      "Ġmachine": 8208,
      "sym": 8209,
      "Term": 8210,
      "Library": 8211,
      "person": 8212,
      "Ġ_.": 8213,
      "Ġagreed": 8214,
      "ĠSeries": 8215,
      "Groups": 8216,
      "contents": 8217,
      "toBe": 8218,
      "ding": 8219,
      "Go": 8220,
      "Ġlisting": 8221,
      "ATTR": 8222,
      "ĠProf": 8223,
      "ĠCommittee": 8224,
      "Edge": 8225,
      "Ġearlier": 8226,
      "Ġwx": 8227,
      "Ġfamilies": 8228,
      "ĠFlor": 8229,
      "Rows": 8230,
      "Ġremained": 8231,
      "Overview": 8232,
      "uffers": 8233,
      "Ġminutes": 8234,
      "Ġculture": 8235,
      "celer": 8236,
      "Early": 8237,
      "}+": 8238,
      "django": 8239,
      "Caml": 8240,
      "widetilde": 8241,
      "bc": 8242,
      "\\'": 8243,
      "venue": 8244,
      "ĠVirginia": 8245,
      "Ġunion": 8246,
      "wbr": 8247,
      "aily": 8248,
      "Card": 8249,
      "cfg": 8250,
      "wd": 8251,
      "hematic": 8252,
      "Ġdemonstr": 8253,
      "Place": 8254,
      "More": 8255,
      ";|&": 8256,
      "1972": 8257,
      "aming": 8258,
      "ĠHill": 8259,
      "mediate": 8260,
      "1976": 8261,
      ".*;": 8262,
      "1981": 8263,
      "iÃ³n": 8264,
      "ĠBack": 8265,
      "Ġhours": 8266,
      "Ġtermin": 8267,
      "poly": 8268,
      "ellij": 8269,
      "ĠclassName": 8270,
      "Addr": 8271,
      "Failure": 8272,
      "Fore": 8273,
      "Ġflex": 8274,
      "Ġpan": 8275,
      "Shared": 8276,
      "ĠWARRAN": 8277,
      "Ġmerge": 8278,
      "Light": 8279,
      "Ġexperience": 8280,
      "libs": 8281,
      "seq": 8282,
      "Ġresulting": 8283,
      "Drag": 8284,
      "Ġmultip": 8285,
      "ribution": 8286,
      "constant": 8287,
      "Console": 8288,
      "pending": 8289,
      "Ġblue": 8290,
      "Ġsuccessfully": 8291,
      "ĠFilm": 8292,
      "esome": 8293,
      "ological": 8294,
      "Ġassign": 8295,
      "ola": 8296,
      "MIT": 8297,
      "Join": 8298,
      "Look": 8299,
      "Ġdifference": 8300,
      "Ġimmediately": 8301,
      "Writ": 8302,
      "Named": 8303,
      "Ġveh": 8304,
      "Ġtrain": 8305,
      "elements": 8306,
      "Example": 8307,
      "Tile": 8308,
      "intellij": 8309,
      "ĠCustom": 8310,
      "trim": 8311,
      "Ġfourth": 8312,
      "Frames": 8313,
      "Ġawarded": 8314,
      "Peer": 8315,
      "Export": 8316,
      "gz": 8317,
      "Ġpractice": 8318,
      "phrase": 8319,
      "Stub": 8320,
      "Ġframework": 8321,
      "Ġvan": 8322,
      "ĠCG": 8323,
      "Ġrepresenting": 8324,
      "AUT": 8325,
      "formed": 8326,
      "Ġfeatured": 8327,
      "Ġmatter": 8328,
      "Ġbur": 8329,
      "etween": 8330,
      "Timestamp": 8331,
      "ussian": 8332,
      "Ġinvol": 8333,
      "Ġhot": 8334,
      "gregate": 8335,
      "pat": 8336,
      "Ġmeaning": 8337,
      "Deprecated": 8338,
      "Ġboundary": 8339,
      "Ġintegr": 8340,
      "enumer": 8341,
      "lemma": 8342,
      "ĠMedia": 8343,
      "ĠSecret": 8344,
      "Ġeffective": 8345,
      "omorph": 8346,
      "className": 8347,
      "Ġjs": 8348,
      "road": 8349,
      "lict": 8350,
      "Fact": 8351,
      "ĠSwed": 8352,
      "Ġcollege": 8353,
      "ante": 8354,
      "Ġanti": 8355,
      "ibly": 8356,
      "HERE": 8357,
      "Ġtre": 8358,
      "LOW": 8359,
      "Theme": 8360,
      "Ġscient": 8361,
      "Gui": 8362,
      "awn": 8363,
      "ĠAbstract": 8364,
      "}'": 8365,
      "cedure": 8366,
      "ĠLink": 8367,
      "HEAD": 8368,
      "Ġpurch": 8369,
      "ĠBook": 8370,
      "emit": 8371,
      "Ġsinger": 8372,
      "EST": 8373,
      "ĠSpace": 8374,
      "fff": 8375,
      "ecause": 8376,
      "Ġfood": 8377,
      "viewport": 8378,
      "Ġproto": 8379,
      "lated": 8380,
      "Ġ^": 8381,
      "timestamp": 8382,
      "$_": 8383,
      "ĠDen": 8384,
      "Ġtasks": 8385,
      "ĠCoq": 8386,
      "dimension": 8387,
      "Ġrestrict": 8388,
      "1978": 8389,
      "stitution": 8390,
      "ĠChicago": 8391,
      "\"/": 8392,
      "Bottom": 8393,
      "pkg": 8394,
      "Ġenter": 8395,
      "BUI": 8396,
      "Ġprobably": 8397,
      "Ġproducer": 8398,
      "Ġnews": 8399,
      "Ġwalk": 8400,
      "geo": 8401,
      "chart": 8402,
      "TF": 8403,
      "Ġscene": 8404,
      "tooltip": 8405,
      "Arguments": 8406,
      "repo": 8407,
      "sa": 8408,
      "Ġonline": 8409,
      "1968": 8410,
      "Ġsocket": 8411,
      "Ġassigned": 8412,
      "Ġsynchron": 8413,
      "Ġaircraft": 8414,
      "agma": 8415,
      "ullet": 8416,
      "Ġbank": 8417,
      "enant": 8418,
      "ĠProgram": 8419,
      "itan": 8420,
      "Ġcaused": 8421,
      "Ġappears": 8422,
      "reader": 8423,
      "subject": 8424,
      "ĠRock": 8425,
      "iger": 8426,
      "nob": 8427,
      "resentation": 8428,
      "Ġincreasing": 8429,
      "ĠImp": 8430,
      "IE": 8431,
      "Errors": 8432,
      "cha": 8433,
      "ĠMel": 8434,
      "sem": 8435,
      "scala": 8436,
      "VAR": 8437,
      "ariant": 8438,
      "Ġlove": 8439,
      "ĠIts": 8440,
      "1975": 8441,
      "Pod": 8442,
      ")[": 8443,
      "Ġremains": 8444,
      "functions": 8445,
      "Ġimpact": 8446,
      "ĠConfiguration": 8447,
      "Ġchunk": 8448,
      "Ġche": 8449,
      "BB": 8450,
      "bing": 8451,
      "Ġdecided": 8452,
      "atur": 8453,
      "orient": 8454,
      "Ġspin": 8455,
      "ĠĠĠĠĠĠĠĠĠĠĠĠĠĠĠĠĠĠĠĠĠĠĠĠĠĠĠĠĠĠĠĠĠĠĠĠĠĠĠĠĠĠĠĠĠĠĠ": 8456,
      "covery": 8457,
      "asion": 8458,
      ">'": 8459,
      "Signature": 8460,
      "=[": 8461,
      "ĠMil": 8462,
      "icip": 8463,
      "LIST": 8464,
      "Ġevidence": 8465,
      "1974": 8466,
      "runner": 8467,
      "Accept": 8468,
      "TV": 8469,
      "ĠTR": 8470,
      "Ġcritic": 8471,
      "Ġrai": 8472,
      "sure": 8473,
      "Ġtd": 8474,
      "itz": 8475,
      "Ġdraft": 8476,
      "Ġpeak": 8477,
      "plan": 8478,
      "altColor": 8479,
      "Encoding": 8480,
      "integer": 8481,
      "Real": 8482,
      "UMMARY": 8483,
      "rpc": 8484,
      "\\\\\\\\\\\\\\\\": 8485,
      "Ġdepends": 8486,
      "router": 8487,
      "ĠWIT": 8488,
      "built": 8489,
      "Ġmix": 8490,
      "Ġvalidation": 8491,
      "ĠRussia": 8492,
      "ĠArts": 8493,
      "XXXX": 8494,
      "ancellationToken": 8495,
      "1977": 8496,
      "rypted": 8497,
      "Ġplot": 8498,
      "ĠNow": 8499,
      "Constraint": 8500,
      "ARG": 8501,
      "ĠAny": 8502,
      "Ġpod": 8503,
      "!!": 8504,
      "600": 8505,
      "Ġaria": 8506,
      "FFER": 8507,
      "è¯": 8508,
      "CONFIG": 8509,
      "lint": 8510,
      "ĠBA": 8511,
      "Ġreserved": 8512,
      "ĠProcess": 8513,
      "Site": 8514,
      "Ġpages": 8515,
      "Ġestablishments": 8516,
      "Ġinstances": 8517,
      "\"},": 8518,
      "Ġpen": 8519,
      "IAL": 8520,
      "available": 8521,
      "ĠHealth": 8522,
      "expression": 8523,
      "Ġbatch": 8524,
      "fi": 8525,
      "compare": 8526,
      "Ġfinite": 8527,
      "TY": 8528,
      "Information": 8529,
      "mobile": 8530,
      "English": 8531,
      "unched": 8532,
      "mms": 8533,
      "Ġho": 8534,
      "Ġstudied": 8535,
      "sell": 8536,
      "ArrayList": 8537,
      "Ġconnections": 8538,
      "Ġquot": 8539,
      "ĠBoard": 8540,
      "Ġtournament": 8541,
      "changed": 8542,
      "areer": 8543,
      "mk": 8544,
      "=%": 8545,
      "ĠLibrary": 8546,
      "Ġdivision": 8547,
      "Ġregions": 8548,
      "John": 8549,
      "iety": 8550,
      "Ġdark": 8551,
      "extra": 8552,
      "rib": 8553,
      "MC": 8554,
      "Bounds": 8555,
      "ĠScot": 8556,
      "Ġproducts": 8557,
      "Ġcompetition": 8558,
      "lie": 8559,
      "touch": 8560,
      "Ġcancel": 8561,
      "TIES": 8562,
      "ASSERT": 8563,
      "ĠVALIGN": 8564,
      "sig": 8565,
      "repository": 8566,
      "Zone": 8567,
      "imin": 8568,
      "gg": 8569,
      "ersistent": 8570,
      "Doctrine": 8571,
      "Depth": 8572,
      "Ð°Ð½": 8573,
      ")\",": 8574,
      "Ġda": 8575,
      "ĠDelete": 8576,
      "canvas": 8577,
      "Ġcharge": 8578,
      "ady": 8579,
      "Permission": 8580,
      "remarks": 8581,
      "Weight": 8582,
      "{$": 8583,
      "Ġdestination": 8584,
      "Ġderived": 8585,
      "Center": 8586,
      "cup": 8587,
      "Ġidea": 8588,
      "Ġassembly": 8589,
      "Bool": 8590,
      "ĠPet": 8591,
      "references": 8592,
      "Ġlegal": 8593,
      "Ġcandidate": 8594,
      "ĠMexico": 8595,
      "gif": 8596,
      "wx": 8597,
      "RUN": 8598,
      "ĠAngeles": 8599,
      "Book": 8600,
      "Ġoccurred": 8601,
      "Ġdefin": 8602,
      "scr": 8603,
      "Ġaddresses": 8604,
      "Ġtimestamp": 8605,
      "remote": 8606,
      "Ġscheme": 8607,
      ">;": 8608,
      "claim": 8609,
      "bx": 8610,
      "dispatch": 8611,
      "Qual": 8612,
      "bd": 8613,
      "lour": 8614,
      "UND": 8615,
      "SV": 8616,
      "(()": 8617,
      "compute": 8618,
      "Ġletter": 8619,
      "uuid": 8620,
      "cursor": 8621,
      "Final": 8622,
      "yan": 8623,
      "iana": 8624,
      "ĠStar": 8625,
      "Ġpayload": 8626,
      "Ġhighlight": 8627,
      "Ġstudent": 8628,
      "pad": 8629,
      "avity": 8630,
      "NODE": 8631,
      "Ġconsists": 8632,
      "Ġstats": 8633,
      "ental": 8634,
      "sent": 8635,
      "Ġtypedef": 8636,
      "netic": 8637,
      ">()": 8638,
      "Ġgalax": 8639,
      "Ġleave": 8640,
      "ylvan": 8641,
      "Ġtalk": 8642,
      "ĠItaly": 8643,
      "Plan": 8644,
      "ĠCap": 8645,
      "Ġprobability": 8646,
      "Ġscience": 8647,
      "/*!": 8648,
      "ĠChampionships": 8649,
      "rich": 8650,
      "Ġlogging": 8651,
      "unct": 8652,
      "stra": 8653,
      "GEN": 8654,
      "blob": 8655,
      "Ġskip": 8656,
      "fast": 8657,
      "STATUS": 8658,
      "Effect": 8659,
      "Home": 8660,
      "ĠCOL": 8661,
      "Ġnorm": 8662,
      "ĠVar": 8663,
      "$)": 8664,
      "Ġprojects": 8665,
      "\">(": 8666,
      "ĠAc": 8667,
      "ritory": 8668,
      "resize": 8669,
      "\\{": 8670,
      "Ġpartition": 8671,
      "icies": 8672,
      "Ġopening": 8673,
      "Ġsamples": 8674,
      "Ġdialog": 8675,
      "Chain": 8676,
      "ÏĦ": 8677,
      "Ġlack": 8678,
      "ĠQuery": 8679,
      "æķ": 8680,
      "createElement": 8681,
      "Ġmult": 8682,
      "multi": 8683,
      "selection": 8684,
      "Ġgir": 8685,
      "audio": 8686,
      "}:": 8687,
      "forward": 8688,
      "Leg": 8689,
      "1973": 8690,
      "GO": 8691,
      "orial": 8692,
      "sr": 8693,
      "ea": 8694,
      "Ġ<-": 8695,
      "anchor": 8696,
      "}|": 8697,
      "Counter": 8698,
      "validation": 8699,
      "Shader": 8700,
      "ogram": 8701,
      "Contents": 8702,
      "ugby": 8703,
      "gradient": 8704,
      "Ġconcern": 8705,
      "Ġfragment": 8706,
      "igate": 8707,
      "Ġrequested": 8708,
      "Ġprocessing": 8709,
      "bat": 8710,
      "ĠSaint": 8711,
      "Holder": 8712,
      "Ġproduce": 8713,
      "Ġruntime": 8714,
      "ä½": 8715,
      "ĠDO": 8716,
      "******": 8717,
      "paper": 8718,
      "Coin": 8719,
      "ĠOld": 8720,
      "Ġwhom": 8721,
      "/.": 8722,
      "Ġmapping": 8723,
      "ATED": 8724,
      "omial": 8725,
      "Ġradius": 8726,
      "uts": 8727,
      "program": 8728,
      "Ġsays": 8729,
      "decor": 8730,
      "Ġprim": 8731,
      "Ġ{%": 8732,
      "Ġimg": 8733,
      "Ġvertex": 8734,
      "Ġaccomp": 8735,
      "Ġtensor": 8736,
      "Ġsync": 8737,
      "Ġpriv": 8738,
      "getInstance": 8739,
      "ĠTheorem": 8740,
      "Ġsometimes": 8741,
      "gers": 8742,
      "ores": 8743,
      "lebr": 8744,
      "Ġlabels": 8745,
      "ĠEnt": 8746,
      "volume": 8747,
      "ĠBur": 8748,
      "inem": 8749,
      "icate": 8750,
      "Ġscored": 8751,
      "äº": 8752,
      "NameLink": 8753,
      "Ġbrought": 8754,
      "Ġconsum": 8755,
      "oved": 8756,
      "ipped": 8757,
      "crement": 8758,
      "pair": 8759,
      "Ġplaceholder": 8760,
      "Ġfrag": 8761,
      "power": 8762,
      "Reset": 8763,
      "ĠMP": 8764,
      "Ġendpoint": 8765,
      "strings": 8766,
      "ĠSTART": 8767,
      "iography": 8768,
      "aren": 8769,
      "ĠThus": 8770,
      "some": 8771,
      "ĠFind": 8772,
      "ĠSUMMARY": 8773,
      "Ġanim": 8774,
      "Ġcomputer": 8775,
      "Ġalias": 8776,
      "ĠLu": 8777,
      "ĠStep": 8778,
      "plot": 8779,
      "notes": 8780,
      "(['": 8781,
      "iffer": 8782,
      "Observer": 8783,
      "Ġcit": 8784,
      "Ġweak": 8785,
      "FileName": 8786,
      "ĠCSS": 8787,
      "ATOR": 8788,
      "Ġoverall": 8789,
      ">%": 8790,
      "Ġgrand": 8791,
      "1971": 8792,
      "Ġwriters": 8793,
      "ĠFigure": 8794,
      "ĠMost": 8795,
      "Contains": 8796,
      "à¥": 8797,
      "ĠKar": 8798,
      "Culture": 8799,
      "zz": 8800,
      "ĠEach": 8801,
      "ĠTeam": 8802,
      "Ġforeign": 8803,
      "Ġ----------------------------------------------------------------": 8804,
      ")^{": 8805,
      "Ġtravel": 8806,
      "ĠSil": 8807,
      "ĠTimes": 8808,
      "oting": 8809,
      "Ġapproximately": 8810,
      "Ġlot": 8811,
      "Ġarbit": 8812,
      "gradle": 8813,
      "Ġfigure": 8814,
      "Ġga": 8815,
      "Ġexamples": 8816,
      "BY": 8817,
      "hy": 8818,
      "ĠNavy": 8819,
      "Bal": 8820,
      "Ġolder": 8821,
      "1969": 8822,
      "Ġbasketball": 8823,
      "ĠHere": 8824,
      "Ġinitialize": 8825,
      "Ġmur": 8826,
      "Ġtraditional": 8827,
      "world": 8828,
      "Ġrev": 8829,
      "wallet": 8830,
      "Ġgun": 8831,
      "General": 8832,
      "Rob": 8833,
      "Ġsupports": 8834,
      "ĠItem": 8835,
      "picture": 8836,
      "ĠParliament": 8837,
      "ÅĤ": 8838,
      "Tasks": 8839,
      "1940": 8840,
      "CB": 8841,
      "ĠFestival": 8842,
      "Declaration": 8843,
      "Ġdie": 8844,
      "Exists": 8845,
      "Missing": 8846,
      "Ġsuc": 8847,
      "ĠNews": 8848,
      "ums": 8849,
      "Direction": 8850,
      "Ġwatch": 8851,
      "Loop": 8852,
      "_)": 8853,
      "Convert": 8854,
      "Ġtranslation": 8855,
      "irror": 8856,
      "Ġquality": 8857,
      "servable": 8858,
      "ĠApplication": 8859,
      "Ġapplications": 8860,
      "Ġmanaged": 8861,
      "night": 8862,
      "ĠSupport": 8863,
      "ĠUnder": 8864,
      "levant": 8865,
      "ÙĨ": 8866,
      "SM": 8867,
      "clusive": 8868,
      "jax": 8869,
      "ĠPop": 8870,
      "logging": 8871,
      "ectors": 8872,
      "Ġcritical": 8873,
      "Ġcomes": 8874,
      "Ġsaved": 8875,
      "Ġmouse": 8876,
      "ylvania": 8877,
      "RED": 8878,
      "è¿": 8879,
      "ĠArab": 8880,
      "ĠFlorida": 8881,
      "Columns": 8882,
      "Ġadopt": 8883,
      "ĠSimple": 8884,
      "Ġmanufact": 8885,
      "kl": 8886,
      "Ġchoice": 8887,
      "vin": 8888,
      "StringBuilder": 8889,
      "Sm": 8890,
      "COMM": 8891,
      "ih": 8892,
      "servation": 8893,
      "Points": 8894,
      "ĠOriginal": 8895,
      "Verify": 8896,
      "apes": 8897,
      "ysical": 8898,
      "1945": 8899,
      "Future": 8900,
      "delay": 8901,
      "ĠSearch": 8902,
      "syn": 8903,
      "rypto": 8904,
      "adoc": 8905,
      "Ġmodify": 8906,
      "pid": 8907,
      "solr": 8908,
      "Ġcharg": 8909,
      "oration": 8910,
      "Metrics": 8911,
      "Kit": 8912,
      "Ġratio": 8913,
      "ersistence": 8914,
      "Ġdomin": 8915,
      "iano": 8916,
      "Ġloading": 8917,
      "Ġprison": 8918,
      "ĠAnn": 8919,
      "ying": 8920,
      "('<": 8921,
      "loor": 8922,
      "twitter": 8923,
      "pb": 8924,
      "Ġcb": 8925,
      "ĠCD": 8926,
      "Android": 8927,
      "Authentication": 8928,
      "ĠCongress": 8929,
      "Ġgets": 8930,
      "ĠThread": 8931,
      "Enable": 8932,
      "(\"%": 8933,
      "Ġnoted": 8934,
      "fefe": 8935,
      "ĠÅ": 8936,
      "Cancel": 8937,
      "Ġprograms": 8938,
      "}=\\": 8939,
      "RAY": 8940,
      "Standard": 8941,
      "ENV": 8942,
      "Optional": 8943,
      "aste": 8944,
      "ĠOh": 8945,
      "ĠCreates": 8946,
      "Ġdisable": 8947,
      "awa": 8948,
      "LED": 8949,
      "ĠOutput": 8950,
      "zeta": 8951,
      "Errorf": 8952,
      "portun": 8953,
      "Then": 8954,
      "WIN": 8955,
      "Ġincreased": 8956,
      "During": 8957,
      "Ġpaths": 8958,
      "udget": 8959,
      "ivery": 8960,
      "Ġdeb": 8961,
      "illis": 8962,
      "Ġcapacity": 8963,
      "Uses": 8964,
      "javax": 8965,
      "May": 8966,
      "Ġmetric": 8967,
      "ĠMur": 8968,
      "Ġplays": 8969,
      "(\"\\": 8970,
      "zen": 8971,
      "ĠDOM": 8972,
      "dark": 8973,
      "Ġpark": 8974,
      "iverse": 8975,
      "nic": 8976,
      "Ġmeet": 8977,
      "ĠInv": 8978,
      "Expected": 8979,
      "Ġregistered": 8980,
      "dem": 8981,
      "ĠLand": 8982,
      ")=\\": 8983,
      "bus": 8984,
      "tensor": 8985,
      "ĠCarolina": 8986,
      "Ġlatter": 8987,
      "ĠSE": 8988,
      "iga": 8989,
      "pread": 8990,
      "oned": 8991,
      "ĠContext": 8992,
      "ãĢĤ": 8993,
      "getType": 8994,
      "Ġpositions": 8995,
      "pages": 8996,
      "ÑģÑĤ": 8997,
      "Servlet": 8998,
      "Ġnotice": 8999,
      "alytics": 9000,
      "Ġgreen": 9001,
      "Dynamic": 9002,
      "Ġsense": 9003,
      "cu": 9004,
      "Ġended": 9005,
      "UBLIC": 9006,
      "127": 9007,
      "Ġep": 9008,
      "poration": 9009,
      "Sem": 9010,
      "iments": 9011,
      "ski": 9012,
      "ĠGen": 9013,
      "licenses": 9014,
      "1967": 9015,
      "ups": 9016,
      "Some": 9017,
      "arc": 9018,
      "Ġsaf": 9019,
      "OutputStream": 9020,
      "onical": 9021,
      "esian": 9022,
      "LETE": 9023,
      "DEX": 9024,
      "alo": 9025,
      "danger": 9026,
      "Ñĩ": 9027,
      "}\",": 9028,
      "Îµ": 9029,
      "ban": 9030,
      "guide": 9031,
      "Ġpull": 9032,
      "Touch": 9033,
      "Ġwoman": 9034,
      "ĠAtl": 9035,
      "ierarchy": 9036,
      "Ġoverflow": 9037,
      "columns": 9038,
      "1930": 9039,
      "Ġpurpose": 9040,
      "UST": 9041,
      "ĠUs": 9042,
      "ĉĉĠĠĠ": 9043,
      "ĠAlthough": 9044,
      "ATCH": 9045,
      "(/": 9046,
      "jet": 9047,
      "folder": 9048,
      "1964": 9049,
      "Ġdead": 9050,
      "Ġalert": 9051,
      "ĠMartin": 9052,
      "TAG": 9053,
      "ĠServer": 9054,
      "pointer": 9055,
      "priv": 9056,
      "()\">": 9057,
      "generator": 9058,
      "lots": 9059,
      "Ġfeel": 9060,
      "Ġappropriate": 9061,
      "oked": 9062,
      "Ignore": 9063,
      "Ġdetermined": 9064,
      "Asset": 9065,
      "Ġcommands": 9066,
      "rtl": 9067,
      "Ġreflect": 9068,
      "ĠByte": 9069,
      "elastic": 9070,
      "getString": 9071,
      "ĠEr": 9072,
      "BUILD": 9073,
      "NV": 9074,
      "loss": 9075,
      "ĠĠĠĠĠĠĠĠĠĠĠĠĠĠĠĠĠĠĠĠĠĠĠĠĠĠĠĠĠĠĠĠĠĠĠĠĠ": 9076,
      "MAP": 9077,
      "oday": 9078,
      "notations": 9079,
      "ĠOl": 9080,
      "Ġund": 9081,
      "Ġacade": 9082,
      "Pred": 9083,
      "ĠAwards": 9084,
      "Instruction": 9085,
      "sdk": 9086,
      "Î¹": 9087,
      "Ġpresence": 9088,
      "Ġreach": 9089,
      "Ġ'''": 9090,
      "oe": 9091,
      "GIN": 9092,
      "å¤": 9093,
      "Runner": 9094,
      "Ġshall": 9095,
      "ĠBrazil": 9096,
      "brand": 9097,
      "Ġcensus": 9098,
      "tl": 9099,
      "Ġil": 9100,
      "ĠProvince": 9101,
      "×ķ": 9102,
      "Bro": 9103,
      "ĠURI": 9104,
      "125": 9105,
      "ktop": 9106,
      "textwidth": 9107,
      "Ġvs": 9108,
      "LEMENT": 9109,
      "BIT": 9110,
      "Ġvocals": 9111,
      "Ġdynam": 9112,
      "Ġshot": 9113,
      "Ġfrequency": 9114,
      "Ġbits": 9115,
      "nc": 9116,
      "ando": 9117,
      "âĢ¦": 9118,
      "ĠHistoric": 9119,
      "sky": 9120,
      "ione": 9121,
      "gments": 9122,
      "bour": 9123,
      "Ġnuc": 9124,
      "iqu": 9125,
      "ĠSoviet": 9126,
      "Extensions": 9127,
      "anda": 9128,
      "Ð¾Ð²": 9129,
      "Ġfetch": 9130,
      ">\\": 9131,
      "repeat": 9132,
      "Ġking": 9133,
      "Ġbattle": 9134,
      "binding": 9135,
      "AST": 9136,
      "250": 9137,
      "Ġ\"'": 9138,
      "Ġowned": 9139,
      "\"];": 9140,
      "101": 9141,
      "oog": 9142,
      "Ġgoto": 9143,
      "ĠChild": 9144,
      "cancel": 9145,
      "BUFFER": 9146,
      "Family": 9147,
      "ĠPac": 9148,
      "uv": 9149,
      "000000": 9150,
      "wa": 9151,
      "ĠSD": 9152,
      "warn": 9153,
      "pragma": 9154,
      "Ġactivities": 9155,
      "ĠIter": 9156,
      "Ġgeneration": 9157,
      "SOURCE": 9158,
      "nos": 9159,
      "Idx": 9160,
      "Ġvm": 9161,
      "Ġrap": 9162,
      "ĠLay": 9163,
      "Management": 9164,
      "Ġfolder": 9165,
      "ssible": 9166,
      "Ġadministr": 9167,
      "Ġthemselves": 9168,
      "800": 9169,
      "isc": 9170,
      "Score": 9171,
      "ĠFort": 9172,
      "åĬ": 9173,
      "unlock": 9174,
      "Ġwhy": 9175,
      "Don": 9176,
      "Ġneighbor": 9177,
      "Ġ```": 9178,
      "DTD": 9179,
      "Promise": 9180,
      "nsylvania": 9181,
      "ĠWales": 9182,
      "Ġsequ": 9183,
      "Ġbring": 9184,
      "Ġsquare": 9185,
      "Ġnature": 9186,
      "linux": 9187,
      "aka": 9188,
      "rad": 9189,
      "Ġdrag": 9190,
      "Ġcompiler": 9191,
      "alog": 9192,
      "ĠTra": 9193,
      "amazonaws": 9194,
      "WEBPACK": 9195,
      "ĠMr": 9196,
      "ĠBuilder": 9197,
      "Ġ&#": 9198,
      "Require": 9199,
      "ĠEli": 9200,
      "RC": 9201,
      "Split": 9202,
      "mac": 9203,
      "Ġparents": 9204,
      "License": 9205,
      "ĠOS": 9206,
      "Diagnostics": 9207,
      "Åį": 9208,
      "Ġuri": 9209,
      "Ġexports": 9210,
      "><!--": 9211,
      "Ã±": 9212,
      "Ġresponsible": 9213,
      "ĠBank": 9214,
      "Ġdownload": 9215,
      ")+": 9216,
      "abc": 9217,
      "Ġedition": 9218,
      "icode": 9219,
      "1920": 9220,
      "Abs": 9221,
      "spirit": 9222,
      "ĠIrish": 9223,
      "Two": 9224,
      "FOR": 9225,
      "amin": 9226,
      "PY": 9227,
      "She": 9228,
      "direction": 9229,
      "ĠSocial": 9230,
      "topic": 9231,
      "Phone": 9232,
      "Ġstrategy": 9233,
      "ARNING": 9234,
      "Ġapplicable": 9235,
      "Ġchoose": 9236,
      "Ġviews": 9237,
      ")}\\": 9238,
      "eck": 9239,
      "__)": 9240,
      "Fixture": 9241,
      "ĠColumb": 9242,
      "Ġmicro": 9243,
      "olid": 9244,
      "onic": 9245,
      "Ġparticularly": 9246,
      "Ġdoing": 9247,
      "Been": 9248,
      "TableRow": 9249,
      "================================================================": 9250,
      "derr": 9251,
      "FIX": 9252,
      "LAY": 9253,
      "IMPORTED": 9254,
      "Many": 9255,
      "Ġrelations": 9256,
      "Career": 9257,
      "Ġwinning": 9258,
      "vement": 9259,
      "----------": 9260,
      "ett": 9261,
      "Actions": 9262,
      "Ġcalc": 9263,
      "Ġsteps": 9264,
      "Bits": 9265,
      "Ġ-=": 9266,
      "tailed": 9267,
      "cdots": 9268,
      "Ġtechnology": 9269,
      "ently": 9270,
      "Ġ'\"": 9271,
      "Linear": 9272,
      "RESULT": 9273,
      "ĠClasses": 9274,
      "Ġdynamic": 9275,
      "iper": 9276,
      "Ġ|=": 9277,
      "Ġvisual": 9278,
      "Locale": 9279,
      "ĠControl": 9280,
      "atriate": 9281,
      "Ġaccepted": 9282,
      "{(": 9283,
      "ĠAdmin": 9284,
      "lications": 9285,
      "Ġlat": 9286,
      "Ġcommercial": 9287,
      "Snapshot": 9288,
      "LICENSE": 9289,
      "IZ": 9290,
      "SN": 9291,
      "UEST": 9292,
      "Switch": 9293,
      "Ġimplemented": 9294,
      "Random": 9295,
      "erv": 9296,
      "Geometry": 9297,
      "nam": 9298,
      "Ġillustr": 9299,
      "Machine": 9300,
      "Buf": 9301,
      "1965": 9302,
      "ĠCross": 9303,
      "notify": 9304,
      "cluding": 9305,
      "mapping": 9306,
      "atial": 9307,
      "Ġ(-": 9308,
      "Tuple": 9309,
      "ĠUtil": 9310,
      "ĠTour": 9311,
      "inx": 9312,
      "Ġwave": 9313,
      "ĠLogger": 9314,
      "Ġmovie": 9315,
      "1234": 9316,
      "uplicate": 9317,
      "datetime": 9318,
      "ĠKh": 9319,
      "ĠHot": 9320,
      "Ġtrace": 9321,
      "transport": 9322,
      "poses": 9323,
      "Ġmanag": 9324,
      "onymous": 9325,
      "Ġmajority": 9326,
      "ĠEducation": 9327,
      "ĠFOR": 9328,
      "oz": 9329,
      "egative": 9330,
      "Origin": 9331,
      "Ġconver": 9332,
      "180": 9333,
      "annotations": 9334,
      "Ġstudio": 9335,
      "ĠEmpire": 9336,
      "mal": 9337,
      "Ġability": 9338,
      "links": 9339,
      "Ġparsed": 9340,
      "unior": 9341,
      "Ġ--></": 9342,
      "reng": 9343,
      "Ġ&=": 9344,
      "Ġmor": 9345,
      "Ġmedical": 9346,
      "Ġeth": 9347,
      "two": 9348,
      "cher": 9349,
      "Ty": 9350,
      "Ġraised": 9351,
      "ipher": 9352,
      "Ġrad": 9353,
      "Ġriver": 9354,
      ">${": 9355,
      "swing": 9356,
      "ĠBrown": 9357,
      "Ġeconomic": 9358,
      "Ġphil": 9359,
      "Ġsell": 9360,
      "Ġearn": 9361,
      "Dispatch": 9362,
      "Ġlaunched": 9363,
      "umes": 9364,
      "Ġoccurs": 9365,
      "Executor": 9366,
      "ansas": 9367,
      "Ġpoet": 9368,
      "EY": 9369,
      "rules": 9370,
      "Ġbug": 9371,
      "Ġrepository": 9372,
      "FALSE": 9373,
      "Ġchosen": 9374,
      "Ġsal": 9375,
      "ĠPython": 9376,
      "amous": 9377,
      "Ġreduce": 9378,
      "CCESS": 9379,
      "ĠIran": 9380,
      "ĠĠĠĠĠĠĠĠĠĠĠĠĠĠĠĠĠĠĠĠĠĠĠĠĠĠĠĠĠĠĠĠĠĠ": 9381,
      "Ġfs": 9382,
      "Ġattended": 9383,
      "Ġneut": 9384,
      "ĠLove": 9385,
      "Same": 9386,
      "chen": 9387,
      "Ġdecre": 9388,
      "ĠParse": 9389,
      "Ġslow": 9390,
      "ĠVirtual": 9391,
      "Ctrl": 9392,
      "Ġprice": 9393,
      "soap": 9394,
      "Ø¯": 9395,
      "Ġcomparison": 9396,
      "ĠHon": 9397,
      "ĠJoseph": 9398,
      "ĠEnter": 9399,
      "1966": 9400,
      "relative": 9401,
      "sun": 9402,
      "jac": 9403,
      "ĠRest": 9404,
      "hom": 9405,
      "CREATE": 9406,
      "apers": 9407,
      "Ġinputs": 9408,
      "Ġ'#": 9409,
      "Ġexpanded": 9410,
      "ĠĠĠĠčĊ": 9411,
      ".~": 9412,
      "Converter": 9413,
      "REE": 9414,
      "Best": 9415,
      "ĠStream": 9416,
      "Copyright": 9417,
      "finite": 9418,
      "fold": 9419,
      "ographic": 9420,
      "Ġprove": 9421,
      "usters": 9422,
      "TL": 9423,
      "Ġlaunch": 9424,
      "Packet": 9425,
      "ARD": 9426,
      "ellig": 9427,
      "Ġinitially": 9428,
      "interval": 9429,
      "Ġseasons": 9430,
      "^+": 9431,
      "'ll": 9432,
      "mond": 9433,
      "urer": 9434,
      "ĠFree": 9435,
      "ona": 9436,
      "ĠDirector": 9437,
      "GHT": 9438,
      "refs": 9439,
      "ĉĠĠ": 9440,
      "<>();": 9441,
      "Rot": 9442,
      "ĠDev": 9443,
      "ella": 9444,
      "ĠWal": 9445,
      "ĠMember": 9446,
      "Films": 9447,
      "ĠNorthern": 9448,
      "itempty": 9449,
      "Ġappearance": 9450,
      "Dr": 9451,
      "omitempty": 9452,
      "ydro": 9453,
      "fp": 9454,
      "Diff": 9455,
      "Ġwarning": 9456,
      "sid": 9457,
      "ĠAmazon": 9458,
      "Ġcollabor": 9459,
      "Ġnewsp": 9460,
      "Ġresolution": 9461,
      "mag": 9462,
      "weet": 9463,
      "ĠHandle": 9464,
      "Delay": 9465,
      "Ġvelocity": 9466,
      "]+": 9467,
      "Ġtransactions": 9468,
      "Ġuniform": 9469,
      "previous": 9470,
      "Ġpp": 9471,
      "Owner": 9472,
      "archive": 9473,
      "ĠSecurity": 9474,
      "Ġbounds": 9475,
      "prob": 9476,
      "BOOL": 9477,
      "ĠassertTrue": 9478,
      "Reason": 9479,
      "Decimal": 9480,
      "Ġcoast": 9481,
      "alias": 9482,
      "Ġeasy": 9483,
      "norm": 9484,
      "ĠDown": 9485,
      "timeline": 9486,
      "ĠAuthor": 9487,
      "Ġusername": 9488,
      "getClass": 9489,
      "Ġcells": 9490,
      "iated": 9491,
      "actual": 9492,
      "ignore": 9493,
      "HOME": 9494,
      "Ġ(%": 9495,
      "Controls": 9496,
      "itles": 9497,
      "lad": 9498,
      "Ġestimated": 9499,
      "ootstrap": 9500,
      "hpp": 9501,
      "Ġnorthern": 9502,
      "ashed": 9503,
      "Ter": 9504,
      "ĠWARRANTIES": 9505,
      "}_\\": 9506,
      "TING": 9507,
      "Ġconstructed": 9508,
      "getMessage": 9509,
      "Clo": 9510,
      "Ġpermission": 9511,
      "ĠPennsylvania": 9512,
      "Priority": 9513,
      "........": 9514,
      "adr": 9515,
      "Ġdst": 9516,
      "Rules": 9517,
      "!</": 9518,
      "dicate": 9519,
      "Ġseek": 9520,
      "TOM": 9521,
      "ĠCore": 9522,
      "ĠExample": 9523,
      "gi": 9524,
      "Ġmusical": 9525,
      "statsmodels": 9526,
      "approx": 9527,
      "ishes": 9528,
      "kin": 9529,
      "Ġamb": 9530,
      "Ġcellpadding": 9531,
      "iling": 9532,
      "Ġbi": 9533,
      "collect": 9534,
      "RECT": 9535,
      "Partition": 9536,
      "Ġiterator": 9537,
      "Ġmoving": 9538,
      "Ġaapt": 9539,
      "'}": 9540,
      "ĠGa": 9541,
      "ĠOCaml": 9542,
      "uzz": 9543,
      "encoding": 9544,
      "Ã¸": 9545,
      "Ġzone": 9546,
      "ĠHaw": 9547,
      "Ġstay": 9548,
      "sheet": 9549,
      "ĠIII": 9550,
      "Ġanything": 9551,
      "Ġindicates": 9552,
      "ĠRuntime": 9553,
      "enchmark": 9554,
      "tts": 9555,
[...]
