#version: 0.2
Ġ t
i n
h e
Ġ Ġ
Ġ a
o n
r e
e r
a t
Ġt he
Ġ s
e n
o r
a l
i t
Ġ o
i s
a n
e s
Ġ c
Ġ w
a r
e d
Ġ f
i on
ĠĠ ĠĠ
Ġ p
n d
Ġ b
Ġo f
in g
Ġ in
i c
l e
r o
Ġ m
a s
Ġ d
Ġa nd
Ġt o
Ġ \
o u
c t
e l
e t
en t
Ġ $
Ġ h
Ġt h
i l
s t
o m
i g
Ġ re
a m
Ġ n
at ion
Ġ e
i m
r a
o l
o t
Ġ T
Ġ S
Ġ l
Ġ is
i d
Ġ (
c e
v e
Ġ A
u t
Ġ C
Ġ g
â Ģ
Ġf or
{ \
u r
c h
s e
l y
o w
Ġ on
v er
ĠĠ Ġ
Ġ I
u l
Ġ M
Ġb e
ĠĠĠĠ ĠĠĠĠ
a d
it h
Ġs t
u s
Ġth at
q u
a y
a b
u m
i r
u n
Ġ P
o d
Ġ B
e m
i f
Ġc on
Ġw ith
Ġa s
t er
_ {
2 0
a g
r i
en d
e g
Ġa l
Ġa n
Ġ F
Ġ H
h t
he r
Ġ R
t h
Ġp ro
Ġw e
is t
at h
Ġ D
ĠT he
Ġ$ \
e ct
re s
an d
Ġ L
a c
Ġ v
p p
Ġ W
er s
at e
Ġw h
Ġb y
o s
Ġ it
č Ċ
it y
es t
o p
Ġ N
i v
Ġa t
Ġe x
m ath
Ġ G
ig ht
t a
Ġc om
o c
ro m
o re
Ġa re
Ġ E
Ġd e
il l
p h
ct ion
e x
Ġ &
u re
es s
e w
ar t
Ġw as
Ġ y
Ġ Ċ
Ġ =
u b
p t
} \
i es
1 9
in e
âĢ Ļ
an t
Ġ he
Ġf rom
Ġ or
u p
^ {
} $
i al
m ent
or t
l d
i ve
m a
g e
n t
k e
al l
ou r
u d
Ġs e
it e
Ġ r
Ġ J
re f
p l
ĠĠĠĠ ĠĠĠ
Ġ O
T he
Ġth is
Ġs h
as s
e re
a ve
p e
o g
el l
i z
} }
ic h
Ġc h
Ġn ot
p er
( \
ra c
ar d
f t
ic al
u st
u nd
20 1
r an
ul t
in t
am e
at ed
ex t
b er
Ġ le
Ġ âĢ
u e
Ġ -
ĉ ĉ
c l
or m
' s
f f
Ġc l
eg in
b egin
p s
0 0
Ġ U
ag e
. .
it ion
Ġh ave
as t
Ġcom p
ig n
a re
c al
Ġc an
ar y
ac k
Ġ K
_ {\
) $
Ġ <
Ġ "
o st
s p
Ġs u
a k
Ġp l
en s
Ġin t
on g
e ar
ation s
d e
ĠI n
ab le
Ġ us
i a
a v
ou t
} {
Ġw he
i an
d u
= "
Ġwh ich
) ,
i re
- -
a ce
c on
id e
Ġal l
im e
Ġa b
ou ld
u g
) ;
or k
a p
Ġ {
Ġ k
c c
f rac
Ġh as
or d
a in
i p
as e
ĠS t
e qu
t her
i b
e q
om e
} ,
a ct
r m
in d
ion s
) .
Ġ un
ou s
o k
Ġs p
Ġ V
Ġ im
t ext
r ight
ic e
Ġy ou
Ġ j
r y
s o
< /
c ite
ab el
Ġa d
en ce
an g
f orm
t he
Ġh is
a ch
r u
Ġa pp
ĠT h
Ġ en
i e
u se
ĠĠĠĠĠĠĠĠ ĠĠĠĠĠĠĠĠ
Ġon e
et a
/ /
Ġm e
ol l
Ġre s
math b
1 0
Ġw ill
Ġb ut
l abel
c om
r ic
i le
, \
20 0
an ce
$ ,
al ly
er v
el y
o ver
Ġcon t
ent s
or y
Ġ if
equ ation
ro w
f ere
I n
$ .
ow n
Ġo ut
Ġp art
on e
Ġp er
Ġd is
ou nd
o v
ĠC h
o se
re e
or s
res s
Ġal so
âĢ Ŀ
Ġthe ir
w o
ol d
Ġm od
ar k
p ort
ur n
Ġ qu
p ro
} )
math cal
f ig
c es
Ġd o
le ft
ir st
Ġwe re
Ġa r
} .
ta in
Ġ *
o b
Ġe v
at es
Ġ }
ri b
l l
j ect
} (
l ic
is h
Ġm ore
er m
e p
Ġ +
Ġo b
w e
cl ud
Ġn e
Ġ up
ver s
Ġthe y
Ġ ro
en er
ĠĠĠĠĠĠĠĠ ĠĠĠ
m er
} ^
ran s
Ġ Y
p le
ou nt
l i
o ok
} _
Ġn ew
am b
o ve
at a
re d
Ġit s
Ġo ther
v el
~ \
Ġs o
s um
Ġm an
Ġs c
ic s
ph a
ter n
l ine
Ġs y
Ġt wo
un ction
ver y
d a
Ġa g
r it
Ġo ver
al pha
Ġwh o
im es
o int
Ġ |
a ke
Ġcl ass
y s
e c
Ġt ime
k s
Ġf irst
o od
ul ar
1 8
on d
) \
he d
Ġbe en
m b
ĠI t
ĠĠĠĠ Ġ
g et
" >
t e
ar i
il d
Ġw ork
i el
Ġs et
od e
r ing
ĠâĢ ľ
ut ion
ay s
n e
c ent
Ġo ur
Ġde f
h at
pt ion
1 2
Ġh ad
t o
Ġ her
le ct
Ġthe re
Ġab out
Ġd es
v i
el ta
$ \
amb da
a pp
f ter
ra y
Ġl i
Ġth an
Ġt e
Ġb et
oll ow
et h
ĠW e
o f
Ġan y
s c
Ġd if
ig h
at er
s s
l es
Ġp re
st em
Ġ [
on s
n g
iel d
und er
Ġex p
Ġwhe n
am ma
u al
Ġv al
is s
Ġon ly
Ġs a
ing s
pe c
Ġs ome
c ed
Ġint o
Ġy ear
i x
Ġwhe re
Ġa cc
Ġt ra
at ive
_ \
ation al
m u
Ġs ub
an s
ug h
y pe
r am
ra ph
ou g
um ber
c a
ĠH e
Ġof f
ĠU n
Ġw ould
= \
d ot
iz e
Ġsu ch
d ition
Ġf unction
Ġ\ \
S t
Ġcon s
if ic
ig ma
Ġf ollow
c k
ot h
s ub
} ^{
} _{
Ġfor m
ĠâĢ ĵ
Ġre g
a il
mathb b
Ġre l
at ing
a w
h o
Ġk n
oc k
ĠTh is
- \
Ġmod el
res ent
as ed
ic t
Ġ '
Ġres ult
Ġp e
c re
ro up
Ġ ra
t urn
ol og
eg a
Ġf l
o x
s et
Ġp h
ro und
ic k
^ {\
Ġcom m
Ġsh ow
Ġ {\
a x
Ġin ter
is e
Ġs im
Ġthe n
Ġn o
o ol
Ġp os
ph i
* *
in ed
1 1
e f
on t
el f
in k
in al
ub lic
s h
ul l
p art
Ġg ener
il ity
Ġcon st
Ġ under
op le
i ed
n ing
we en
id ent
ar am
Ġd ist
Ġg et
it ies
l ambda
Ġthe m
Ġc or
Ġpl ay
le m
p os
i ent
1 5
Ġb l
Ġdif fere
Ġin clud
b f
Ġf e
ment s
c ess
p r
in ce
o y
u res
Ġs he
Ġt rans
p i
at or
-- --
t il
Ġa ct
Ġe qu
Ġin d
Ġthe se
w ard
Ġc o
Ġbet ween
p ut
it s
u es
Ġin v
19 9
ib le
Ġpro v
W e
ect ion
Ġm ay
Ġsy stem
Ġg o
Ġd ata
1 6
il on
it ed
i o
se ction
Ġp ol
ow er
ro ugh
ps ilon
= =
ru ct
al s
Ġa fter
Ġ use
ĠC om
mathb f
.. .
d er
T h
Ġe ff
t t
in s
Ġst ud
n ce
Ġat t
Ġe ach
l and
b ar
Ġ( \
s igma
c y
Ġli ke
Ġl oc
Ġg iv
Ġc ol
Ġsa id
le t
at ure
Ġs m
ar g
1 3
ar ch
Ġpro b
he re
( )
Ġm ost
Ġre sp
Ġp oint
Ġus ed
^{ -
ri v
Ġa m
} {\
an n
al ign
Ġpro du
our ce
Ġre c
re at
ĠP ro
c he
it t
r al
ur ing
ĠN ew
or ld
ere d
w id
Ġy our
Ġm at
b eta
Ġ i
ad e
a ir
oug h
Ġh ow
an ge
il y
r t
1 4
Ġpe ople
Ġas s
us s
er t
Ġre turn
Ġw ell
Ġl ine
1 7
ĠR e
con d
is m
u ch
Ġsu pp
Ġex t
Ġb ack
Ġth rough
R e
Ġwh at
ist s
n er
Ġj ust
âĢ ĵ
Ġs ol
+ \
ĠF or
ot e
ar ray
i vers
am p
Ġc ase
g amma
in es
o ot
ĠA l
Ġ .
y n
iz ed
Ġm y
Ġdiffere nt
ra ct
as h
Ġ ent
Ġc ur
math rm
e ver
Ġs ign
* }
Ġse e
Ġ end
ĠĠĠĠĠĠĠĠ ĠĠĠĠĠĠĠ
p end
Ġs pec
Ġn umber
Ġin st
en g
ou n
r ho
\ \
ar s
Ġapp ro
Ġ x
m in
eth od
ire ct
mer ic
Ġb u
Ġs ur
2 5
^ \
Ġp r
Ġf il
ab l
ĠS e
d elta
) }
Ġs ame
t on
3 0
per t
ut e
Ġ Q
ic es
Ġh im
w n
ical ly
ta u
the ta
Ġ /
he n
Ġ est
E x
Ġv ari
iz ation
it em
id er
ĠD e
] {
Ġc ould
er g
Ġre p
re n
Ġne ed
Ġh igh
m an
Ġ Z
v al
Ġus ing
Ġag ain
Ġpart ic
oc i
le q
c dot
am ple
Ġa c
$ -
at t
f ul
as on
Ġb oth
f or
am es
- >
" ,
an y
Ġo per
vel op
Ġc all
Ġre qu
Ġn ow
form ation
Ġn on
}$ ,
fig ure
Ġm in
b ig
}$ .
s y
Ġch ar
Ġe very
r on
ot her
Ġg roup
n u
Ġyear s
part ial
if e
er n
ver t
is ion
ĠA n
f l
Ġf act
ect ed
o h
aram et
ĉĉ ĉĉ
Ġdis c
Ġd et
Ġ :
Ġe m
er r
ĠA s
Ġt erm
ĠS h
Ġ X
c ol
ut h
} (\
Ġf ield
ch ool
ag es
vi ew
Ġt r
ar row
Ġ ed
de f
Ġst ate
at ic
or n
ĠL e
m m
a h
Ġde c
E R
Ġth ree
Ġ ke
Ġp ublic
Ġ| |
eq ref
eq n
t imes
Ġbe ing
Ġgiv en
p m
p ar
g an
' t
Ġs erv
y p
as es
Ġc ent
v ar
ft y
Ġman y
Ġwh ile
. ,
re nt
Ġev en
em ent
2 2
Ġ //
v ent
Ġs er
Ġst r
Ġle ad
ot s
om ega
w ay
Ġm em
Ġr ight
iv ely
in fty
Ġf in
Ġf ound
ĠA meric
Ġper form
p en
Ġ very
til de
is hed
5 0
d ay
Ġse cond
Ġc re
al ity
ak ing
ca use
qu ad
Ġl ong
Ġb el
19 8
ro ss
i er
Ġad d
Ġsh ould
Ġbe cause
Ġval ue
Ġar t
Ġfollow ing
w ork
i k
Ġkn ow
le ction
2 1
Ġeff ect
in ing
Ġ< /
ir c
f ore
u c
ent ial
ion al
ers on
wid th
Ġ z
Ġst art
olog y
Ġdo es
: //
ant s
00 0
et s
Ġor der
s erv
Ġn ame
Ġc a
ĠC l
at her
.. /
er ing
re ad
t ing
a z
Ġs ing
: :
Ġm on
Ġsm all
C on
ran g
Ġw ay
Ġ @
s on
t en
| \
Ġm ethod
I t
res p
or th
w w
P ro
Ġf ind
2 4
ess age
Ġdes c
o id
D elta
se c
al e
l ed
ivers ity
Ġan al
ab ility
ar ly
Ġm ake
an k
Ġg u
ch n
Ġex pl
Ġd id
Ġm ade
) )
âĢ ľ
Ġbe fore
v en
ire d
ou se
m l
ĠC on
ar ge
Ġf am
20 19
Ġre f
ĠI nd
ce pt
h i
he s
ur al
\ ,
ri pt
b y
Th is
are d
Ġpro cess
Ġ u
m s
ul ation
201 8
en cy
x i
sp ace
r id
m e
i ence
Ġresult s
Ġc ount
w here
v ed
. âĢĿ
Ġde velop
Ġex per
a j
e k
Ġm ed
n ot
n ess
Ġth ose
i ew
y le
at ch
I N
ter s
Ġd uring
Ġre ad
o ad
ĠA nd
Ġob tain
' ,
ĠS c
Ġp resent
eqn array
Ġl ast
Ġs ince
Ġl ook
Ġsupp ort
ra d
O N
g ram
Ġcont in
Ġ$ (
r um
n ces
over n
2 3
Ġd irect
Ġh and
a u
er y
ot t
S T
el s
Ġs l
} }\
Ġme as
Ġm uch
)$ .
o le
ore m
Ġ el
Ġp aramet
Ġt ype
$ $
ou th
a ction
e e
ri x
Ġhe re
u ally
if ied
an e
l ation
le ment
s q
Ġd own
Ġprob lem
} [
e psilon
Ġhe l
Ġpos s
ps i
C h
Ġd i
ĠE x
F or
Ġm ass
ro l
Ġre m
Ġr un
b ers
le x
et work
ric t
Ġre al
Ġb ound
19 7
ĠA d
h ip
Ġt est
ag n
ff ic
Ġin cre
in clud
iss ion
ar n
i qu
iv es
Ġte am
Ġw orld
Ġcon dition
Ġen erg
ĠH ow
b l
r ation
Ġre le
Ġg ood
en se
Ġm ult
Ġin formation
sp an
Ġc ar
at eg
l ess
Ġg l
Ġm et
b e
Ġm ain
Ġsp ace
ur y
Ġo wn
ĠS p
A R
i or
} _{\
al th
m ed
ra w
n ame
4 0
it al
. "
A T
m od
ĠB l
m ber
O m
Ġto p
ĠI f
ĠI s
al k
b all
vi ous
( "
c er
Ġ `
v es
s im
od y
Ġo pt
c o
d iv
Ġrep resent
Ġw rit
201 7
---- ----
Ġresp ect
Ġdist rib
ak es
um n
i ous
ro p
in ess
ĠC ol
Ġe lect
Ġp res
Ġst ill
Ġc he
l ang
A s
ĠF ig
Ġl im
( );
if t
if y
Ġp a
Om ega
ĠA r
ere st
in a
Ġa v
Ġbe c
resp ond
Ġ #
sq rt
us ic
^ *
Ġst and
os s
f ra
Ġst ruct
Ġl arge
> </
Ġb ro
mb ol
C om
as k
Ġcomm un
)$ ,
G amma
Ġa round
Ġt ake
Ġo pen
ĠĠ Ċ
Ġchar act
Ġim port
ĠP h
Ġ ve
it ive
Ġf our
Ġ$ {\
e b
Ġall ow
ĠĠĠĠĠĠĠĠ Ġ
Ġob serv
Ġprov id
Ġre port
le y
Ġloc al
tern al
> <
201 6
1 00
om en
ur ther
2 7
Ġenerg y
ĠP l
ht t
Ġinclud ing
ĠUn iversity
6 0
ol ution
Ġle vel
ĉĉ ĉ
Ġp ower
oh n
Ġle t
Ġagain st
Ġp op
Ġcons ider
Ġhel p
Ġl ist
2 8
Ġ >
ut ions
em ber
ct or
Ġst at
ar m
Ġ ident
re en
R E
Ġgener al
Ġv is
Ġ ,
eng th
fere nces
Ġre st
t r
Ġdes ign
Ġm ark
Ġcur rent
iv ed
t rans
b s
raph ics
cc ess
Ġb ased
Ġas sum
ĠM ar
right arrow
v are
Ġra d
ĠS he
Ġd on
b m
im ens
Ġw ant
l og
^{ (
Ġs cal
sub section
} =
b ack
ro du
r is
Ġth ink
Ġpro ject
un e
2 6
om et
Ġdesc rib
r and
et y
Ġ\ ,
ĠM ay
Ġor ig
Ġc al
p re
vare psilon
Ġp ass
text bf
ir d
Ġg ame
rang le
ĠâĢ Ķ
f ace
ĠCom m
at ely
en e
um er
n on
ĠAmeric an
Ġb est
Ġs elf
ial ly
s ide
Ġab ove
ĠO n
us iness
201 5
Ġcor respond
c m
Ġcon tain
Ġt em
) =
Ġp at
pl ay
o ber
}^ {\
ord ing
Ġbu ild
Ġmeas ure
Ġte chn
g er
ĠY ou
en n
Ġs ay
Ġle ft
s elf
Ġpro pert
ht ml
Ġ čĊ
ĠR es
, âĢĿ
ist ory
um ent
Ġl ife
ĠB ut
s k
is ed
s ource
il ar
Ġbe h
../ ../
av ing
Ġcon f
ord s
re am
eta il
in c
) :
iv al
Ġc le
u le
ĠUn ited
Ã ©
rac k
Ġt ri
Ġm ov
g g
201 4
2 9
Ġm ust
Ġint erest
Ġs up
ĠW h
_ _
l im
Ġin f
Ġin it
Ġpro f
Ġ err
Ġest im
Ġkn own
Ġp ost
ĠE ng
Ġre ce
Ġint eg
O R
ca ption
Ġp erson
Ġ et
Ġex ample
Ġwith in
Ġpro gram
Ġpro t
g or
w h
âĢ ¦
A S
t ab
ur s
at ors
Ġch ild
n ew
r ist
Ġad dition
== ==
an c
Ġcon n
u ro
Ġ* /
p or
Ġob ject
e ad
ĠT e
Ġhe ad
ĠA ll
Ġc our
Ġs at
d d
includ eg
includeg raphics
Ġd em
ĠâĢ ĺ
i um
T o
ch i
ac es
Ġs um
re m
y m
Ġcor re
orm al
com m
Ġb ook
op e
Ġn etwork
am pl
re qu
or ies
b old
th is
Ġwith out
in ation
Ġpartic ular
de pend
ub l
Ġn ext
' '
** **
Ġval ues
b le
Ġd ay
or g
m essage
Ġd en
Ġpl ace
pos ition
ar get
Ġg ra
overn ment
A n
ĠThe y
uth or
ĠT o
a i
ĠĠĠĠĠĠĠĠĠĠĠĠĠĠĠĠ ĠĠĠ
3 3
s er
Ġs chool
Ġf inal
ĠM an
Ġl aw
ĠU S
var phi
Ġh ref
A N
Ġre ma
vers ion
er o
201 3
Ġsing le
Ġd ue
Ġcomp ut
B y
Ġcall ed
Re ferences
Ġstud y
Ġal ong
. ~\
ific ation
Ġfam ily
fere nce
Ġan other
os ed
Ġn ear
Ġim p
Ġb re
Ġb as
gor ith
Ġl ow
ens ure
og raph
ent ion
Ġf ew
Ġb o
ad d
em ph
are nt
4 5
ys is
re g
fra k
Ġde pend
Ġsh own
Ġp ar
ge q
w ays
ens ity
over line
Ġd el
a im
A L
a ult
ĠC an
E N
Ġinv est
im al
t s
Ġdisc uss
Ġo cc
ĠJ ohn
Ġre du
i ver
ic le
) ^
Ġa ction
ĠB e
Ġis s
Ġs pe
ref ore
ĠC ent
Ġqu ant
& \
st r
ĠHow ever
19 6
201 2
. }
B ig
it le
Ġp ot
t d
Ġdet erm
Ġch o
Ġsp ect
al se
Ġg reat
Ġto t
Ġser ies
Ġt urn
i j
pro of
Ġan n
ill ion
iv id
i od
c ul
ĠC ar
Ġad v
Ġl ater
Ġcharact er
se e
3 2
d is
Ġme an
Ġc ap
at s
in ition
aj or
iv ity
l er
ir on
}, \
Ġ- -
ĠO r
at ures
Ġfil m
ĠA t
Ġtr ue
ve c
im ent
u pp
} ).
a ps
Ġev ent
Ġmodel s
ress ion
iv ing
3 5
Ġterm s
c or
Ġsim ilar
ri es
w ith
Ġh ig
tern ational
ail able
id d
l oc
i ents
x im
ist ic
Ġv iew
âĢ Ķ
Ġshow s
( '
Ġd om
Ġw in
Ġor gan
yn am
Ġprodu ct
th s
Ġc are
e ps
pl oy
R es
A l
201 0
Ġl arg
in ks
Ġh old
math frak
Ġ )
sy mbol
a f
st and
Ġs k
Ġh um
Ġfollow s
n o
ward s
Ġse ver
N ame
L et
is ter
c ur
ro ll
[ \
201 1
8 0
Ġs ection
ru ction
ĠF ran
mm et
cl ass
Ġl a
Ġposs ible
Ġe as
l ing
et ic
lang le
Ġs ays
ur ch
C l
O n
Ġch ang
E S
Ġg row
ĠJ u
Ġs ize
Ġdef ined
ĠJ an
Ġpoint s
it her
ri end
us h
Ġpos ition
Ġse ason
g round
Ġstr ong
Ġto o
Ġimport ant
h line
as ter
Ġapp ear
ian s
Ġf ull
Ġh ome
or ph
an ces
Ġass oci
Ġ ide
Ġl ess
op er
Ġsever al
t y
Ġo pp
con t
oug ht
is on
ĠSt ates
op t
c ode
Ġare a
b ra
Ġre se
Ġcontin u
pl ic
Ġph ot
ĠC o
Ġle g
m p
is f
Ġcont rol
at ter
I D
Ġc ou
Ġpre vious
oc ial
Ġa ff
ex p
} }$
ĠC ount
9 0
b ox
n abl
/ >
ab ly
I d
e v
che s
Ġp red
ore d
o or
Ġcom b
ĠS y
it er
Ġa ut
Ġd er
end ed
es c
Ġo ld
ĠĠĠĠĠĠĠĠĠĠĠĠĠĠĠĠ ĠĠĠĠĠĠĠĠĠĠĠĠĠĠĠĠ
itt le
Ġp riv
Ġex ist
ĠW orld
ĠThe re
Ġc rit
Ġs om
T ype
L ambda
Ġgo ing
Ġch ange
Ġf ree
Ġl ight
s m
iqu e
bold symbol
A C
Ġpot ential
ld ots
mb ox
p d
Ġint rodu
du ct
ĠN ational
Ġ _
Ġm usic
im port
Ġbet ter
ce ption
e y
it ud
Ġqu est
Ġpl an
t able
ke y
Ġm om
ĠG e
ob al
Ġf r
ur b
I f
app a
ĠY ork
ix ed
Ġdistrib ution
Ġoff ic
Ġt yp
Ġre ally
Ġt imes
m at
i am
P hi
our ces
t ime
en ces
Ġar g
Ġle ast
u x
Ġstruct ure
ne y
Ġpol it
le g
ĠP ol
St ring
Ġtot al
Ġsh ort
w are
Ġd etail
Ġb usiness
Ġh app
s f
} ;
Ġim pro
Ġsu ccess
Ġun til
us ed
ĠA ust
ĠN o
L E
Ġen g
Ġm ax
Ġcont rib
ĠA ug
sc ript
on se
Ġav ailable
ĠĠĠĠ ĠĠ
al f
I C
Ġre cent
od es
ra g
ot imes
cent er
Ġf oot
Ġc ell
re l
I T
nabl a
Ġman ag
ord er
Ġapp lic
" />
ĠThe n
Ġsign ific
em s
0 5
on ent
ard s
ĠA pr
os p
u ck
ide o
Ġ= >
ĠO ct
he ad
200 9
Ġ Â
Ġdif f
un g
depend ent
cl us
H e
Ġde v
k appa
non umber
Ġd eg
Ġs ide
ĠF l
w it
Ġm agn
Ġs it
Ġwe ek
con st
ĠA pp
Ġf urther
U n
trans lation
is ing
m ult
b it
ra p
ight s
v iron
er tain
am ent
g in
Ġplay ers
0 1
. \
ĠB y
Ġb ig
ab les
Ġst ates
ĠG u
id es
it or
b um
Ġp ut
Ġh ard
3 1
gorith m
3 6
em pt
Ġcomp any
om an
ĠJu ly
olog ical
l in
ĠA rt
o ff
Ġest abl
t ype
Ġm ight
Ġv ar
cite p
Ġb and
u k
200 8
ĠS chool
Ġper iod
Ġm ajor
ut es
u ff
} )$
Ġne ver
c le
Ġv ol
Ġperform ance
Ġph ys
ĠW ar
im um
ĠP r
} ),
Ġke y
w ide
ĠM arch
ĠM ed
Ġsat isf
Ġpa per
4 8
Ġinclud e
ut ure
ĠJ une
Ġal ways
7 5
f ield
ic y
Ġa ver
Ġl and
et er
Ġc ost
Ġsol ution
read y
Ġr ange
Ġin s
u ary
se qu
Ġind ic
uro pe
Ġanal ysis
Ġm ot
ac he
Ġcomp let
19 5
r ite
Ġinv ol
Ġse qu
ur g
ww w
# #
I I
col or
re turn
Ġst re
Ġr ate
con om
Ġcomp lex
Ġbel ie
I S
a ut
lect ed
Ġparamet ers
on y
A M
Ġg overnment
Ġe arly
pp ed
c irc
Ġobtain ed
ĠM in
text it
Ġel se
Ġrec ord
ĠL et
3 4
Ġm ove
Ġan t
pp er
Ġreg ion
ĠSt ate
pos ed
b r
\ |
com p
st it
.. ..
Ġlim it
Ġst ory
Ġt arget
ĠS outh
in o
sub set
Ġthe ory
V al
st yle
ar ning
L ist
if f
i i
st er
\ %
Ġpro m
A r
al es
c hed
il de
Ġappro ach
id th
S h
Ġprov ide
le te
Ġp ath
ag ue
p aram
Ġb i
ĠC ity
il t
Ġg ive
}} {
b o
t op
th ough
7 0
th ing
ater ial
ict ion
Ġsignific ant
Ġappro xim
ip le
ĠS o
" .
ensure math
Ġd ensity
a pe
Ġse en
Ġd r
9 9
ang u
as ing
ĠC al
Ġsystem s
Ġt ry
S igma
Ġ !
ri ption
u ation
ĠA ss
Ġf ac
pt ember
our s
c it
op y
Ġf ar
id ence
Ġc ity
Ġli k
ĠA ir
eth ing
Ġfunction s
ĠB rit
ust om
Ġme ans
Ġ q
n ow
E D
y l
ĠCh rist
3 8
Ġe le
s l
ent ly
on es
g o
g es
Ġs ong
Ġmem bers
Ġ` `
Ġw ater
Ġc oll
ampl es
il it
Ġl og
Ġmat rix
P s
ĠM c
r r
Ġcom e
Ġh y
en c
in ter
m ost
Ġre d
ĠApr il
Ġl inks
Ġconst ant
Ġacc ess
Ġspec ial
Ġg raph
ak en
Ġw omen
Ġf und
F ig
Ġf oc
ĠW ith
Ġc over
ow s
Ġequ ation
Ġf ore
ĠThe se
Ġal ready
200 7
Ġserv ice
wid et
ĠW ill
Ġde ath
our n
\ [
d raw
Ġcl aim
ĠF eb
Ġinit ial
and om
am ed
r ary
viron ment
Â ł
ivid ual
oc ument
ĠCount y
ĠE n
Ġe p
Ġh tt
Ġst ring
dot s
Ġp ract
Ġhig her
Ġac ross
Ġg ot
) (
ĠE urope
u ild
Ġab s
ĠAug ust
Ġl ittle
ĠM e
ch ie
4 4
ĠP art
Ġdescrib ed
, "
Ġs ource
il es
z e
3 7
Ġh aving
widet ilde
E C
ĠA b
ad a
Ġrel ations
le ge
/ \
ma x
ul es
Ġin c
Ġto get
Ġtoget her
3 9
Ġm ap
U S
htt p
Ġc r
Ġacc ount
Ġn ull
re w
Ġcondition s
ri ed
Ġof ten
Ġcons id
ĠR ep
Ġe ither
Ġam ong
Ġsup er
in ary
0 7
A P
Ġcal cul
ran sp
Ġen c
\ !
l oad
h old
h am
her n
Ġ vert
ĠN orth
s w
ac y
Ġl ower
p ect
ra ft
Ġal bum
Ġp air
ove mber
ĠSe ptember
Ġbec ome
ĠC or
Ġorig inal
Ġw on
Ġfor mer
ire ction
on al
ĠO ne
Ġcorrespond ing
6 4
Ġbel ow
Ġt re
i us
ĠP ar
ĠTh at
Ġp ubl
Ġn eg
Ġa uthor
ib ility
ist or
Ġim age
Ġ version
0 8
' )
an a
Ġc irc
Ġchild ren
ĠOct ober
Ġmom ent
Ġrespect ively
Ġab le
Ġm ar
ĠH ar
Ġcount ry
ĠR eg
ĠJan uary
Ġf alse
et ing
Ġstand ard
Ġsom ething
Ġerr or
Ġen ough
C ol
Ġl ay
est s
Ġt ext
Ġf ive
0 4
pr ime
ra in
Ġfe atures
0 6
Ġc ross
Ġd at
il i
Ġsu gg
ce mber
ĠG erm
Ġd ays
{ -
Ġpriv ate
at ural
Ġ( $
Ġtem per
Ġ es
ĠA f
b ut
Ġa ir
ĠS ch
ly ing
Ġph ase
ver se
Ġhe alth
one y
20 20
Ġe mb
Ġh istory
200 6
h y
Ġre view
ĠE d
Ġa way
g y
Ġth ird
og le
Ġas k
Ġst ar
] ,
Ġrese arch
Ġf riend
Ġc ases
n a
Ġp ort
Ġm aking
re t
a ul
ĠAust ral
Ġd imens
b ased
Ġparamet er
ure d
Ġth ings
i ke
Ġtra ining
Ġhum an
ic ro
Ġatt ack
C O
Ġbec ame
Ġre t
Ġbl ack
Ġfe ature
end ing
} -
ur ation
s cal
Ġcomm on
z eta
Ġse par
f o
oun c
cent ering
ĠW hen
in ally
Ġc amp
} +
Ġf ail
ect or
Ġh om
um p
a int
ĠB ar
Ġp ay
Ġind ividual
Ġg r
ab or
Ġke ep
Ġre pl
Ġp ri
v ing
Ġth ough
S S
i ol
Ġm en
Ġto ok
Ġg e
E T
Ġin put
I nt
a it
ĠP res
Ġyou ng
Ġin fl
ress ed
Ġf uture
ĠE q
Ġcommun ity
ch an
Ġaver age
av a
Ġf requ
re st
Ġassoci ated
ru ary
l ish
Ġro le
ĠM ore
um e
Ġconsid ered
d ata
ug ht
ĠĠĠĠĠĠĠĠ ĠĠĠĠĠ
al t
Ġl oss
ĠA g
Ġm illion
Ġv ia
a e
Ġl ength
Ġan g
itud e
ĠN ovember
Ġrequ ire
Ġvari ous
\ {
Ġ= =
ar ing
\ ]
Ġj o
H ow
Ġpro of
] .
Ġc ertain
c ap
Ġexp ect
I nd
Ġcons ist
Ġre ason
ac ed
Ġinvest ig
f unction
ple ment
ro id
Ġunder stand
0 9
le v
S e
Ġr andom
5 5
Ġc y
Ġd ynam
Ġd ou
ra ction
Ġp ast
4 9
il ities
f er
Ġmethod s
A nd
ut ed
Ġbeh av
~ ~
) =\
b ook
a ff
ĠA fter
R O
Ġl ot
tab ular
Ġt itle
Ġ& =
Ġcont ent
wh ich
0 2
ĠB o
c os
Ġv oid
th m
val ue
h ib
Ġhow ever
ĠDe cember
ffic ient
ou d
Ġdevelop ment
ill ed
Ġem ploy
Ġev ents
Ġcon c
Ġcl ose
Ġfe el
ta ct
Ġ id
Ġn ormal
Ġs ocial
Ġw ar
ot es
ort s
Ġpos itive
om orph
itt ed
ell ing
; \
Ġs ix
" )
Ġexp ected
c ast
row n
pl it
ĠQ u
m y
ort un
og n
Ġw ind
Ġs em
Ġa chie
Ġcomp et
Ġd one
st ring
al ax
ir t
op s
pp ing
s ize
ear ch
Ġt aken
Ġfoot ball
ĠC he
ĠW est
Ġline ar
Ġb en
"> <
Ġg en
) }\
Ġc ult
c her
ograph y
ĠG l
ann el
ir l
20 00
Ġh ouse
Ġin dependent
Ġg ames
} =\
Ġl ines
ener al
ond on
Ġe ar
Ġpropert ies
Ġwh y
P h
em ma
N ew
W ith
p oint
Ġh alf
b or
D E
ĠThe orem
Ġl ove
Ġth us
Ġsim ple
0 3
ian ce
Ġ ill
-------- --------
Ġche ck
Ġwork ing
i ps
Ġs ite
Ex ternal
200 5
d om
ĠS ection
on ents
ĠR ec
Ġl angu
ĠK ing
ed er
ĠR uss
Ġsy mmet
il le
ĠD av
al y
c ell
Ġn ode
Ġve ctor
f oot
Ġm aterial
Ġsur face
Ġacc ording
Ġg round
Ġprodu ction
Ġwhe ther
n ers
Ġa ge
Ġb ir
Ġcour se
ul ations
4 7
Ġth ought
Ġpr im
Ġc ame
Ġp ress
) ^{
g roup
Ġk ind
Ġpropert y
Ġt w
Ġe lement
ĠFeb ruary
re ed
L L
ill s
Ġc ut
ens ion
am a
Ġind ust
Ġt reat
4 6
Ġm akes
ĠS an
I m
The re
w ise
ord in
ap an
O b
Ġex act
{ (
Ġus er
ĠP er
Ġv ideo
m it
Ġs ens
Ġgroup s
P l
Ġs ent
Ġfin ite
Ġbe com
Ġsc he
Ġon ce
ul a
Ġanal y
s el
ĠP ark
Ġ& &
ĠH ouse
ĠE l
um b
$ )
itt ing
o on
ĠCom p
ĠL a
Ġal gorithm
er a
Ġpred ict
m ary
Ġplay ed
g ed
s ing
med i
ess ion
iz ing
Ġbre ak
ounc il
Ġrele ased
Ġr ather
end s
Ġfact or
}\ ,
Ġmat ch
Ġst ep
ĠS ec
id s
Ġrequ ired
is k
Ġf ig
A ll
9 5
cdot s
Ġde p
ĠT ra
ĠM on
D e
Ġmult i
Ġpro p
Ġb ase
ĠD ep
Ġed uc
Ġobserv ed
ĠM y
ĠH is
Ġd irection
S et
Ġother s
Ġb ody
Ġev al
Ġle arn
l o
B C
Ġwrit ten
6 5
Ġprovid ed
Ġrel ated
Ġwork s
Ġpro posed
d own
ie f
Ġr at
} ]
Ġm iss
Ġz ero
ourn al
} |
du c
Ġar ch
erv ice
200 4
wide hat
n b
Ġele ments
. ~
n ode
ĠA m
ig en
Ġne cess
ĠM ark
i res
us ing
u f
}^ \
Ġcl os
Ġpop ulation
}_ \
{ {\
Ġstud ents
le ase
Ġbuild ing
Ġal most
h ood
Ġcou pl
q quad
ric k
Ġh ost
ul ly
C ont
Ġinter action
ra int
ast ic
Ġmed ia
ĠI m
ge bra
Ġscal e
Ġn umer
ish ing
ĠP e
Ġquest ion
Ġs ound
li ke
S c
ĠS ince
D ata
Ġexper ience
ĠAf ric
Ġdef ine
d ate
Ġa rm
Ġf un
Ġe conom
Ġto wn
u ed
L e
Ġserv ices
s in
Ġc ode
^ +
w ed
Ġinclud ed
Ġl o
g ress
Ġcre ate
Ġact iv
r ated
I G
ĠL ondon
A D
ĠNew s
ĠCh ar
Ġmem ber
Ġe ver
o ch
Ġp ur
ĠB ro
Ġreg ular
ĠH am
amp ions
Ġhe ld
g l
m ing
ĠI nt
ĠS m
m ore
Ġbl ock
ot ed
m ark
av es
ĠG o
I M
lem ma
ac hes
Ġp o
Ġb ring
Ġb it
}} (
Ġs w
ĠN e
ĠC ont
ĠBrit ish
& =
ĠH igh
Ġcle ar
}) \
Ġn ight
ed d
ac hed
Ġdef inition
es e
Ġexper iment
im ate
r s
Ġgl obal
Ps i
ut il
Ġto day
Ġexpl ain
Ġcl ust
O S
ult s
y ear
ott om
Ġbe gin
y ing
Ġrece ived
e le
Ġ %
se mb
Ġequ ival
Ġgiv es
Ġun it
Ġquant um
, -
B ut
ce ed
sm all
ma il
O T
a pt
I ON
Ġex ists
Ġle arning
M od
and s
Ġim pl
Ġconst ruct
li ed
Ġp an
Ġj ob
ĠN ot
htt ps
id ed
Ġspec ific
ĠH er
en ed
ĠS er
Ġst yle
Ġback ground
on ic
b b
Ġcan not
ar ies
Ġen vironment
Ġent ire
ĠO b
6 6
Ġl abel
app ro
ĠD is
Ġdid n
A t
Ġim plement
Ġt aking
Ġd ri
Ġy et
Ġstart ed
e ff
Ġn ational
i et
g en
ĠĠĠĠĠĠĠĠĠĠĠĠĠĠĠĠ ĠĠĠĠĠĠĠ
ad em
Ġcon text
loc ation
Ġex ec
ĠI I
ĠA ct
Ġoper ator
rac y
Ġde al
ing ton
Ġstr ateg
Ġc ustom
Ġmat ter
A d
Ġch all
Ġh or
Ġadd ress
ĠPres ident
" );
Ġl ive
Ġw ent
ĠAmeric a
Ġso ft
Val ue
ic ult
Ġeffect s
Y ou
ĠV al
f e
Ġnew s
Ġlarg er
Ġtemper ature
idd le
Ġchang es
4 2
Ġf ixed
) ]
ren ch
Ġmark et
s up
Ġreport ed
Ġwh ose
ĠFig ure
Ġresp onse
**** ****
m on
ĠĠĠĠ Ċ
ĠT r
W hat
Ġtrans ition
av y
Ġdist ance
Ġsequ ence
ĠEng lish
bs ite
Ġsp in
F rom
math sf
in it
led ge
ĠW hat
Ġt rack
ĠD o
oper ator
Ġaddition al
iv en
h an
Ġact ually
c up
Ġb ar
ĠIn ternational
Ġimpro ve
Ġsugg est
Ġ\ {
ic les
Ġref er
rum p
text width
ma p
end er
ĠA rm
f ord
Ġd est
. )
is es
min ist
f rom
st ate
un ch
l ist
h a
ĠS im
C C
Ġprob ability
ĠA ng
ransp ort
Ġn atural
Ġme chan
Ġth ing
' re
Ġam ount
ĠJ apan
ĠM ich
Ġfield s
sk ip
uc le
Ġwe ight
}^{ (
oci ety
n own
Ġcomp lete
Ġg as
Ġassum e
att le
ĠF rom
S p
Ġs ure
Ġw ords
200 3
pd f
a el
u el
( $
Ġbu ilt
Ġg alax
ove red
Ġf all
o res
Ġsub ject
l a
at rix
pro p
e al
Ġd iv
Ġor d
f ile
ĠSt ud
( {\
Ġf ile
Ġbe gan
ĠD ist
ag er
p ly
nb sp
Ġt alk
H E
Ġa ud
Ġinst ead
Ġs qu
ind ent
t ic
nd er
d t
oun ter
4 3
at ory
// //
Q u
at ives
Ġcol or
}\ \
Ġp ack
Ġcare er
Ġfr ont
st ar
Ġeffect ive
Ġfl ow
Ġmult iple
Ġf av
m ar
port s
Ġcomp ared
ect ions
Ġind ex
re c
pec ially
Ġ ...
it ect
ic ol
Ġst atic
ilit ary
Ġcomp ar
G et
Ġv iol
a ign
re et
l ight
op h
ag ram
Ġcomp an
Ġloc ated
in st
U R
Ġpubl ished
Ġ$ (\
b t
8 5
ar a
Ġs ample
Ġeff ic
as c
Ġwho le
ĠF irst
ari ant
a use
rid ge
um bers
Ġdoes n
Ġpre c
Ġt akes
U T
p x
==== ====
ist ics
d imens
Ġo p
ĠWill iam
Ġst ation
t est
) -
equ iv
Ġincre ase
Ġcon fig
ĠTh us
Ġthe refore
Ġpartic ip
Ġoffic ial
Ġper cent
Ġp arent
m id
r ig
at ively
b ody
Ġro und
os ition
Ġnot e
ĠS up
us es
ĉ Ċ
M S
Ġse arch
Ġvis it
and id
] ;
ict ure
P S
Ġresp ons
Ġf ace
ĠSy stem
om s
Ġt ell
Ġcom es
ĠL emma
Ġadd ed
Ġl ink
Ġdeg ree
4 1
Ġdom ain
A pp
oun ced
Ġcre ated
Ġlik ely
Ġdiffere nce
Ġn amed
th at
Ġn ov
Ġed ge
ens ive
rr or
Ġout put
Ġsol utions
| ^
Ġeng ine
ol ar
qu e
A B
Ġplay er
S ee
Ġbro ad
v an
Ġlangu age
Ġne igh
if orn
Ġprovid es
E n
i ber
Ġdiff icult
c ing
Ġequ ations
" :
d en
k en
Ġl ate
I s
ĠCol lege
Ġmon ths
r im
Ġdem on
Ġimp act
W hen
o oth
B l
} :
N ot
Ġm oney
Ġt able
l or
Ġ und
ind ex
ul ated
Ġpolit ical
Ġbas is
es tern
ĠLe ague
p ath
Ġpresent ed
V iew
Ġs ense
Ġproblem s
ĠM od
Ġun ique
ic ation
ag s
Ġl iter
} +\
Ġlead ing
Ġpri or
h space
ol ic
D ef
Ġto ld
he l
Ġc ateg
Ġw rite
it es
Ġcontain s
r ast
et t
k ing
Ġatt empt
at ur
Ġ& \
}} {\
ĠD r
Ġcent ral
Ġ ver
200 2
iforn ia
ĠCent er
IN G
9 7
Ġbound ary
ĠU K
or ge
Ġinst ance
Ġim ages
cit et
en ing
200 1
Ġe lection
Ġtrans form
ag ing
Ġset s
Ġset t
Ġcl ub
Ġinfl u
Ġ- \
5 00
M an
Ġconst ruction
Ġrec ogn
r c
Ġpol icy
Ġdetail s
ĠD em
Ġse em
Ġinclud es
Ġrequ est
ĠD es
om b
Ġsh all
ign ed
operator name
ir m
Ġfl u
Ġac cept
Ġd ocument
] $
Ġreg ard
Ġestabl ished
Ġneed s
el oc
ew ork
f in
à ¤
iz es
oc r
ĠM or
6 7
Ġl at
x space
ur l
F F
un c
ve y
Ġits elf
um ents
Ġval id
W h
u it
ĠInd ia
b orn
9 8
k y
Ġon line
ot a
ĠL aw
ĠP at
Ġ/ **
) );
Ġide a
ĠC our
at us
' $
if orm
an ks
art ment
Ġiss ue
scal e
it te
A A
Ġcent er
Ġphys ical
err or
Ġprof ess
} -\
ĠA cc
Ġhtt p
l ink
Ġare as
Ġwe ak
Ġp age
li er
n es
Ġro ad
Ġst ars
Ġbeh ind
ĠA c
im ents
( -
ĠSt e
Ġf ood
g ing
ĠS en
Ġag o
ch ange
Ġiss ues
o e
Ġtra dition
ou l
Ġre ve
d ag
Ġcomp onent
Ġd ig
Ġe y
Ġsign al
Ġmet ric
no indent
al le
sel ves
at form
ber g
Ġocc ur
Ġben ef
Ã ¡
ar ily
lev ision
i ation
ov ed
| -
iv il
C H
Ġden ote
Ġdat as
k nown
) {
Ġstud ies
f ect
Ġ// /
n eq
Ġm ention
Ġf ram
z z
Ġequ al
ag ed
8 8
Ġspec ies
\ ,\
Ġ: =
t ra
I R
Ġfil ms
Ġpro ve
Com p
o ke
O ne
Ġt ax
n ote
ĠO ur
Ġconst raint
Ġdirect ly
Ġhold s
Ġpr inc
C T
Ġp ref
ĠRep ublic
ic o
Ġlook ing
A meric
ĠT V
ĠD ef
20 21
ic on
ous ly
9 6
in ated
Ġrele ase
Ex ception
m ission
Ġopt im
Ġv ill
ib rary
Ġpart y
ĠDav id
Ġup on
Ġl ed
Ġcont ract
Ġw ave
ĠD i
Ġcomp onents
Ġcl osed
Ġneed ed
Ġ ess
ĠG roup
ĠT rump
umer ate
Cl ass
dimens ional
C D
il ton
Ġmon th
Ġs ex
Ġsc en
ĠAss oci
el t
Ob ject
Ġqu ite
Ġco ordin
Ġcho ice
Ġpop ular
in n
v ille
Ġprodu ced
Ġes pecially
Ġperson al
) }{
A G
Ġcol lection
c ial
a ur
oc al
Ġperform ed
5 7
clus ion
Ġde ep
S ince
Ġp ie
Ġgener ated
Ġs us
Ġdevelop ed
Ġv eloc
Ġwe bsite
Ġad j
ot o
Ġsim ply
ĠSt ring
S E
Ġfor ward
L O
Ġst age
b and
h ing
Ġcon duct
ĠCal ifornia
Ġn ucle
sh ip
Ġdo ing
Ġgo al
ĠC O
ĠF rench
ari o
ĠP aul
p ite
ell ow
$ }
ĠC ouncil
o ice
Ġwh ite
] [
ĠR ed
Ġf it
ro te
sc r
Ġincre asing
Ġpres ident
Ġindust ry
Ġy ield
Ġp ers
ĠE ast
Ġelect ron
k er
Ġout side
ber t
Ġart icle
Ġin du
the orem
ill ing
Ġdis play
Ġep is
en umerate
Ġca pt
Ġn umbers
R ec
use um
a res
I L
Ġqu ality
ut ive
N o
Ġro t
Ġbecom es
v is
Ġto ol
wo od
Ġsuccess ful
ĠSt reet
Ġin sp
row s
Ġcorre ct
c ome
Ġc andid
land s
Ġh ot
u ra
T R
Ġcon tact
item ize
] \
Ġimpl ies
Ġim m
om ial
Ġm ind
) }$
ĠBl ack
Ġev olution
Ġ! =
Ġse ems
Ġst ri
Ġb ad
Ġco e
S P
p ublic
Ġm ag
Ġcol umn
Ġrel ation
b ound
Ġmagn etic
ĠInd ian
ic ip
Ġcompan ies
& &
pert y
Ġst e
Ġfoc us
ĠO ff
N N
S o
ran ch
Ġallow s
Ġh istor
ĠCh ina
Ġb ox
ic a
cre t
Ġfor ce
n av
' m
anc ial
ĠH ol
Ġgrow th
or ing
l ength
A fter
Ġch arg
Ġcamp aign
enc ies
Ġan sw
Ġtechn ology
op l
ĠAustral ia
Ġb all
Ġrepresent ation
pl ace
dis play
7 7
all ed
Ġf em
Ġl ost
b re
Ġin ternational
b urg
Ġapplic ation
ĠJ ust
Ġcent ury
Ġcon ver
St ate
r ant
Ġ _{
ĠA nt
Ġopp ortun
Ġf ire
omorph ism
ric es
stit ute
un t
ran ge
" ;
Ġtyp es
c an
6 8
Ġqu ick
Ġdemon str
at al
el ine
Ġr ank
Ġag re
Ġw or
Ġset ting
ĠH ere
Ġmax imum
Ġse cur
Ġlevel s
Ġspe ed
Ġh ours
le vel
ĠP al
Ġexp ression
E rror
a ugh
Ġw ord
Ġann ounced
oc ks
d s
Ġintrodu ced
Ġbelie ve
ĉĉĉĉ ĉ
Ġpart s
Ġh on
U N
Ġs ources
Ġcrit ical
v space
l ong
T est
Ġv ict
I P
n y
p ack
Ġs old
Ġal gebra
Ġw alk
}} }
Ġsmall er
ic it
( ).
Ġinterest ing
us ion
Ġd ark
Ġhe art
The n
ĠComm un
Ġs on
Ġg re
Ġsh are
Ġ Ð
Ġrun ning
ad es
Ġbehav ior
ĠO f
ĠN ow
Ġde cl
ĠD ay
ĠThe refore
Ġapp lied
Ġro b
Ġf ather
Ġr isk
Ġ ?
Ġsu ff
}} _
ĠC ons
Ġm id
Ġw idth
ĠE m
Ġproduct s
x y
ĠJ ames
Ġright s
Ġrest rict
Ġcom ing
Ġspect rum
Ġm or
ot ic
am s
Ġeas y
ub e
Ġde cre
ma z
Ġg ain
Ġtrans fer
p ol
as ons
appro x
ĠDep artment
j s
Ġget ting
ri an
and er
Ġpat tern
Ġu pper
au ge
ĠHe alth
M L
mult icol
i en
ĠWh ile
Ġpol ice
ĠEurope an
os en
Ġdeterm ined
"> </
ag ement
Ġeval u
Ġne ut
er ve
ĠCan ada
E E
Americ an
ens or
r ong
Ġre ach
oy al
ash ington
Ġdec ision
s pec
Ġrecent ly
ĠM al
Ġlong er
Ġconc ern
Ġhim self
Ġim medi
Ġus es
Ġor g
5 8
v olution
Ġev idence
id a
ĠG reen
Ġm ix
ĠEng land
r un
Ġcontin ue
Ġus ers
. </
multicol umn
i os
Ġcon sum
Ġtra vel
ra b
ob ile
j oy
pt ions
ĠT able
r ate
under line
e ed
() );
rib ute
Ġpro ced
Ġd ate
199 9
Ġ ir
n ov
Ġd raw
Ġv an
ang le
e in
5 6
f ill
ist ry
Ġw rote
Ġt ask
Ġestim ate
K ey
itte e
Ġinvol ved
Ġvari ables
i ers
Ġal tern
Ġg irl
ĠTh om
ĠR ober
Ġin side
ĠP ort
O r
Ġf ight
Ġ\ |
v ant
Ġknow ledge
ĠG od
Ġnecess ary
Ġstre ng
Ġcour t
Ġd am
u ge
o o
Ġtreat ment
F orm
ac her
Ġw atch
ri ate
Ġloc ation
. _
ri er
eder al
Ġm essage
T ime
Ġrat io
Ġro om
Ġsecur ity
ac ity
Ġs il
y a
^ -
e an
P i
) +
Ġill ust
Ġto wards
Ġconn ected
hi ps
i ences
Ġe mer
ct ors
M P
Ġres id
ag o
em ents
S y
Ġ rac
s plit
ra z
comm and
ĠDist rict
D is
\ }$
Ġve h
h and
mod el
Ġdimens ion
Ġwork ed
Ġcell s
ĠR ich
O ver
ans ion
Ġpat ients
ĠG eneral
Ġb orn
Ġst ra
n s
n orm
ĠRes earch
n et
Ġprob ably
ĠN ote
Ġe igen
Ġm ach
Ġh it
ĠD irect
Ġcom ment
=" +
Ġd riv
Ġ\ ;
Ġplay ing
Ġ vers
Ġin j
Ġass ert
Ġc red
Ġrel ative
` `
G e
math scr
ĠGerm an
is ation
oun tain
Ġfrequ ency
ĠIn ter
Ġal though
Ġdev ice
d o
ur ity
Ġoff ice
Ġarch itect
d ist
ĠC up
Ġch annel
y ond
ĠCh ampions
Ġobject s
Ġchar ge
ĠB ook
Ġn orth
ĠCour t
Ġc am
Ġlead ers
M A
Ġcon cept
ify ing
M ore
oc ol
st ruct
ent al
ĠM art
ar th
ĠM r
g ence
ĠD an
Ġaut om
ail y
ction s
Ġdou ble
Ġmanag ement
Ġal ign
ac c
os ing
Ġnot hing
Ġdesign ed
Ġserv ed
' ve
Ġeduc ation
199 8
el i
alle l
ec ause
Ġh ol
ay er
Ġp ick
g ra
Ġa ward
Ġm other
Ġsa w
ĠW ork
in y
Ġl iving
Ġd ied
Ġwrit ing
ak er
text rm
cent ury
R equ
a per
E qu
d ro
ĠR iver
Ġus ually
is ions
g s
e es
ĠB el
O D
w ord
ri ef
k a
Ġrema ins
Ġthrough out
Ġequival ent
pre t
Ġmod e
Ġacc om
Ġveloc ity
ĠF il
p ace
Ġcurrent ly
it z
ĠL ist
Ġact ive
A b
Ġme et
e ch
Ġany thing
Ġask ed
ĠJ ack
Ġdist rict
Ġsc reen
N ow
ĠH all
ĠT rans
ab s
I V
l n
Ġn ature
Ġmod ern
8 7
ru le
Ġ Ã
The ta
Ġg rad
ro y
it ing
Ġapp ly
Ġge omet
Ġav oid
ĠI N
f r
! --
Ġre ference
}^{ -
Ġrad io
Ġnov el
Ġt ro
O f
un k
Ġm ilitary
{ }
ta int
ar p
Ġa im
Ġallow ed
ĠG a
t ical
Ġexp ress
ĠS ome
Ġno ise
P e
F il
O ur
Ġsh ift
ar ter
ĠSc ience
in i
ĠCl ass
Ġe ight
S C
ap ter
Ġoff er
Ġmov ed
n ormal
am ily
Ġthem selves
qu ot
Ġatt ention
Ġpe ak
} /
Ġse lected
p ose
ĠW ashington
~ $
er c
Ġso on
line ar
he st
Ġreg ions
Ġex hib
Ġj ud
Ġt ree
Ġoper ators
w ell
al d
Ġam pl
T E
ition s
Ġw all
ĠTe chn
in ct
Ġlim ited
Ġpres ence
Ġst aff
F ile
ect s
p an
e ks
us er
ac ing
omet imes
Ġad minist
Ġw oman
ug g
Ġf ast
ark s
N ote
r d
O P
Ġfig ure
Ġst op
Ġlarg est
ers ion
ĠCh urch
uss ian
' );
ĠO ut
irt ual
H ere
Ġsm ooth
pro t
Ġtry ing
Ġeas ily
ĠB ay
M C
5 9
Ġsu fficient
m itted
Ġac qu
Ġh yp
5 2
osp ital
Ġneg ative
Ġsome one
ĠĠĠĠĠĠĠĠ ĠĠ
ĠS ub
Ġpract ice
in os
Ġon es
con n
5 1
Ġcharact ers
Ġt en
Ð °
Ġper fect
che ck
P ost
big g
Ġs outh
Ġen joy
S U
yn omial
D F
Ġear lier
ri e
Ġqu al
Ð ¾
Ġ/ >
in put
A dd
Ġpress ure
Ġstart ing
tr ue
il s
ĠAir port
p ng
Ġdiscuss ed
Ġc ele
wit ch
}} _{
Ġmin utes
Ġder iv
ĠPart y
ad o
Ġl ack
iz ations
Ã ³
Ġ$ |
Ġra ce
Ġs eg
il ies
Ġa x
Ġun cer
bo ard
< \
Ġcon clud
ĠM usic
Ġdirect or
b on
Ġd ro
Ġthe orem
Ġto ur
est ival
=" ../../
Ġass ist
ĠIn c
ĠMich ael
Ġmechan ism
Ġg ave
tt y
ĠWh ite
Ġte levision
ĠD on
F irst
ef ore
Ġopt ions
foot note
_ +
p c
T ext
* {
Ġbir ths
Ġch ain
Ġcount ries
5 4
out hern
if old
Ġstat ement
ĠFran ce
Ġfollow ed
sum mary
pro d
app ing
ri a
EN T
act ive
} '
dag ger
ĠGe orge
B e
upp ort
Ġant i
Ġt ransport
Ġfl ux
Ġbook s
( ),
^{ -\
Ġread ing
as hed
ok en
ĠĠĠĠĠĠĠĠ ĠĠĠĠ
Ġ$\ {
ĠD iv
Ġwant ed
Ġcont roll
v ol
Ġexact ly
ĠR ef
ant ic
Ġpl atform
ĠP ress
Ġchall eng
Ġsur v
Ġsupport ed
ĠAr ch
199 6
Ġmain tain
m en
st on
8 6
ĠS um
199 0
Ġreve al
Ġoper ation
S O
Ġm icro
Ġet c
ĠF ound
ĠS pec
Ġdef ault
wit ter
Ġcho ose
Ġr ules
Ġg auge
it ch
ort hern
ib ly
Ġprim ary
{ $
Ġresult ing
Ġfe ed
Ġf ully
Ġlead s
Ġst ay
A cc
Ġevery thing
ĠIn stitute
5 3
Ġw ays
00 00
Ġn ames
ĠG ra
d i
Ġrelations hip
ĠC ap
Ġde part
m iss
) {\
ĠC ong
Ġr ule
199 7
Ġpro per
Ġad apt
T hat
Ġvol ume
Ġquest ions
ĠAssoci ation
Ġvari able
) |
vent ion
P R
Ġst ream
S ub
\ '
Ġmot ion
Ġcol lect
ĠL eg
Ġsl ow
Ġ ri
Ġse lect
ĠS ing
Ġmov ie
Ġredu ced
Ġd ed
ing u
d et
ĠQ ue
Ġar riv
k et
Ġun iform
Ġro ck
ĠG et
T r
Ġis n
er ia
ĠM at
r ide
en ge
Ġsol id
8 9
se y
Ġbo ard
min us
Ġoper ations
cre te
Ġobserv ations
Ġext ra
ĠPh il
ĠR oad
Ġm us
Ġconn ection
ĠP ost
pr int
Ġexp and
Ġlay er
Ġover all
Ġbl ue
+ +
Ġsa f
Ġl oad
Ġc ast
ĠA ward
N A
Ġestabl ish
ul let
Ġit er
Ġmem ory
Ġapplic ations
Ġt er
v est
ri al
air s
ree k
i pl
ĠY ear
ĠM ac
an i
it ar
ob ject
Ġincre ased
on a
ro s
e ared
Ġbe aut
ĠM a
u racy
ĠP re
A tt
ĠIn st
Ġpan el
m et
In st
[ '
Ġappear s
Ġgo es
wed ge
Ġdi agram
Ġexpl icit
ĠV ol
7 6
uf act
ĠS w
ad ian
Ġde ad
V ert
Ġsit uation
w rit
sh ift
Ġsoft ware
Ġth reat
ar c
Ġsc ore
ĠA lex
Ġclass ical
ines e
ĠL ou
Ġgra du
}} ,
Ġhy per
Ġfriend s
Ġin equ
Ġsche me
Ġs amples
Ġcontinu ous
\ }
u i
Ġess ential
Ġstud ied
iqu es
Ġdeterm ine
ĠM et
Ġca use
3 00
l t
esc ription
ĠP ublic
Ġ( $\
Ġb al
Ã Ń
Ġar ray
Ġex cept
over y
ur t
pl ate
ĠG old
ly mp
Ã ¼
subset eq
Ġget s
Ġsl ight
Ġgra v
ĠB en
ĠS am
ĠF e
ma in
Ġhe nce
B S
C E
Ġteam s
opl us
Ġprevious ly
tern et
ond er
or age
_{ {\
Ġcomplet ely
/ *
I F
att ice
Ġdis e
Ġcur ve
it able
Ġsymmet ry
Ġcon sequ
Ġthe rm
Ġse lection
i ant
ew idth
E vent
Ġw ide
uth ors
ĠAng el
! !
Ġex am
9 4
ĠHam ilton
ĠT om
ill er
av en
b our
Ġ$ -
Ġper t
ir ing
ĠRober t
Ġpr int
' ll
Ġhigh ly
ell ar
ĠĠĠ Ċ
Ġfram ework
Ġcomp act
ĠM ag
9 3
199 5
Ġan im
ĠO ther
Ġo ption
Ġr ates
Ġre comm
Ġche m
Ġt al
m es
O M
Ġmeasure d
l am
Ġwe eks
Ġb rand
R eg
Ġfact ors
ĠR ob
ex as
Ġstra ight
ĠAn n
Ġbe yond
c ase
Ġappro p
text tt
Ġact ivity
Ġmean ing
re me
Ġex c
Ġexp ansion
M y
Ġle ave
Ġpartic les
Ġmin imum
Ġad opt
T e
Ġc ore
Ġm is
Ġuse ful
Ġv s
Ġprocess es
_{ (
Ġstruct ures
Re ad
P C
Ġc opy
Ġun its
7 8
Ġar bit
w in
ang er
ĠB est
Ġf raction
Ġgalax ies
h aps
Ġcompar ison
ar r
Ġinter view
if ier
od ing
Ġclass es
Ġup d
Ġc ard
um an
und le
f il
Ġfin ally
Ġgener ally
ĠA re
ĠJ ew
9 2
m d
Ġnetwork s
ole an
Ġch osen
/ **
Ġform s
Ġ- ->
lim its
Ġpr ice
' ]
Ġfav or
Ġw ait
Ġsc ient
Ġreturn ed
Ġpol ynomial
Ġachie ve
Ġpl ane
Ġrel ig
Ġw orth
i ency
Ġrequ ires
ap i
Ġf air
c is
ĠP o
er ry
et urn
b a
ĠDem ocr
Ġdynam ics
Ġn odes
ĠB re
ir it
Ġevery one
E d
Ġmoment um
G L
semb ly
Ġleg al
n el
Ġsay ing
ĠRe view
' :
id ing
m as
Ġhtt ps
N ode
Ġc ry
ol f
ĠGerm any
ĠS ur
7 2
Ġshow ed
Ġparticular ly
Ġcontrib ution
ed y
Ġagre ement
Ġn orm
Ð µ
Ġpartic le
S im
Ġab ility
Ġstrateg y
Ġsur pr
T able
Ġarg ument
Ġfin ancial
Ġre pe
Ġt rac
S he
k i
Ġ( -
for ce
Ġsh ape
Ġc os
ĠIs ra
Ġem ission
Ġ ult
Ġme eting
How ever
Ġs n
Ġcult ure
Ġform ula
Ġtra in
Ġm aps
con fig
ĠK e
P E
Ġder ived
Ġexper iments
el er
Ġrele vant
res ents
ĠM ex
ĠComp any
res h
Ġident ity
Ġl atter
_ *
Ġprofess ional
Ġstat us
} %
Ġdr ug
ul s
Ġ ensure
s u
Ġb ur
Ġw ife
Ġcons erv
ab ase
Con fig
idd en
Ġbound ed
oc ation
ĠSc ott
lin ewidth
Ġ ~
Ġm ale
set minus
O ut
Ġst eps
ĠV ir
$ _
Ġtra de
)\ ,
Ġprodu ce
F L
ĠR em
Ġt im
P ath
Ġob ser
Ġ );
Ġl ives
Ġsy mbol
Ġdesc ription
Ġh ope
Ġ },
Ġb order
rop y
Ġinter pret
ĠAfric a
Ġdescrib e
Ġnear ly
ĠM us
is her
rid ay
a ud
Ġbro ther
In ter
ĠM ary
Ġcontinu ed
C L
Requ est
ĠA N
cl es
ĠF urther
Ġhe ight
Ġapproxim ation
Ġ$ [
an ced
S er
duc ation
Ġvill age
ĠĠĠĠĠĠĠĠĠĠĠĠĠĠĠĠ ĠĠĠĠĠĠĠĠĠĠĠ
Ġ row
Ġde b
om in
Ġexist ing
Ġex amples
E L
Ġse ven
Ġfr ame
bl ock
ĠR ad
Ġcom pl
Ġuncer taint
con s
pt y
ĠP et
ĠJ ul
Ġext ended
Ġ( )
Ġpert urb
Ind ex
Ġconsist ent
Ġvari ety
ĠW il
mer cial
o z
res ult
Ġh op
Ġelect ric
ul ate
Ġform ation
Ġcoupl ing
Ġbro ught
re es
ĠG reat
Ġsc ience
p id
In fo
Ġm arg
Ġbel ong
P re
Ġd augh
as ks
def inition
S ervice
Ġrun s
), \
Ġ â
ĠF in
Ġin ternal
ach ing
Ġc ounter
riv ial
Ġpol ar
t itle
Ġ }\
Ġfor ces
il arly
ect ive
Ġgre ater
Ġh ous
Ġcon cent
g u
ĠM iss
Ġconst it
om a
p aramet
ter m
Ġneigh bor
reed om
Ġabs ol
ĠN or
ĠUn ion
ĠM ad
ann ed
Ġim ag
oll ary
Ġbas ic
ĠS ervice
O L
20 22
Ġdatas et
M ed
ĠS al
o at
N S
Ġfam ilies
he ight
Ġvert ex
ig ation
Ġsignificant ly
Ġd ram
Ġp urch
Ġcomm and
ĠIs land
ĠPro gram
velop ment
ir al
ĠD ec
it a
Ġf ix
ĠC re
Ġclust er
Ġbegin ning
B uild
E M
ĠL and
Ġl ic
bl ack
ch o
N et
r or
Ġchang ed
com ing
Ġemb edd
T rans
B A
P r
Ġopt imal
Ġschool s
u a
ĠS ociety
_{ -
re y
Ġsim pl
ĠE v
Ġp en
Ġsong s
Ġsub set
an cy
Ġp ull
p age
ind er
) /
Ġsp at
Ġident ified
ace book
Ġform ed
ĠS und
Ġcap ital
o om
v oid
ĠS un
Ġepis ode
Ġse c
s ol
P ol
ĠSt ar
in em
ĠY our
ut ing
ĠSe e
al o
res hold
Ġres olution
h ost
ĠD el
p ost
Ġsub sequ
n ames
Ġw id
Ġcont rast
so ft
ĠN ov
Ġcomput er
f ess
erv ices
Ġpre tty
Ġnumer ical
Ġopen ed
Ġhig hest
ot ing
Ġpl aces
Ġrep resents
ĠPro position
| |
Ġg reen
align ed
Ġsh ot
B ar
T S
] (
6 3
ĠCl ub
ĠAl so
C o
,\ ,
Ġg overn
Ġw rong
Ġst ories
ab ilities
in ite
199 4
Ġdiscuss ion
Ġm ole
w ar
b i
Ġcou ple
Ġmention ed
ĠD ata
ĠArm y
f ree
) }(
Ġk illed
st ack
c el
F ield
Ġpl ant
Ġp ark
() )
Ġapp oint
M ap
Ġt ru
t es
Ġe mail
an o
9 1
t em
Ġser ious
ĠChrist ian
Ġpro gress
d eg
Ġturn ed
ĠT or
Ġmed ical
abl ed
Ġ| \
Ġk m
ĠT exas
Ġb ank
ĠS l
Ġlat est
Ġprof ile
Ġacc uracy
ot ion
198 0
Ġgiv ing
Ġredu ce
## ##
Ð ¸
in ner
Ġp m
ĠF ore
is hes
ĠA P
ĠUS A
Ġ\ (
Ġsim ulations
Ġorig in
Ġstud ent
Ġc ool
Ġestim ated
Ġhe avy
Ġcalcul ated
Ġmin im
Ġass ess
h as
ect ing
et her
Ġsc ene
Ġj ournal
6 2
ĠCent ral
Ġmov ing
8 4
r at
Ġcomplet ed
Ġm iddle
Ġinst it
G o
Ġother wise
ĠH ill
ĠSm ith
Ġproced ure
b ase
al a
az ine
ru pt
g t
P art
Ġbl ood
b in
Ġtradition al
b uild
Ġdec ay
Ġs en
Ġcle arly
R A
en a
ĠO ver
Ġd ual
\ "
Ġpl ot
C S
Ġ+ \
Ġmeasure ments
= -
Ġp ain
Ġexperiment al
st ream
ĠGo ogle
ĠCh inese
end ix
ot hes
Con text
st ant
Ġres ources
? âĢĿ
' \
Ġrad ius
Ġas pect
Ġex pert
as ure
i h
Ġcl oud
ven ue
Ġimmedi ately
u ations
ĠThom as
ĠT ur
Ġspe ak
cont ent
z a
if ically
$ (
sub figure
Ġdec ided
ro om
c ount
ĠRuss ian
= (
in f
h ouse
Ġvis ual
Ġg un
ĠO pen
i ra
ĠH ence
F l
A ss
7 4
ĠR oman
Ġbu y
Ġpa int
ĠB er
onal d
Ġde but
Ġadv ant
ffic ients
Ġob vious
al ian
ĠB ill
ĠFl or
st art
Ġsp aces
ell ig
Ġb ottom
M M
F T
Ġgener ation
Ġsum mer
ĠPl an
ĠR el
Ġc ru
Ġb r
Ġc ivil
Ġpre vent
ĠAc adem
Ġoff ers
ĠB usiness
Ġjo ined
' _
re al
Ġcateg ory
ĠC D
g n
I A
8 2
Ġsqu are
ĠRe ad
Ġ/ *
ed s
Ġeconom ic
Ġdig ital
Ġany one
yp es
iz er
Ġpre p
Col or
E q
Ġpol y
6 1
Ġext ract
The se
ĠR oyal
cur rent
Ġm ur
D A
Ġ&= &
Ġsh oot
Ġup date
= {
Ġpre m
Ġf a
}} (\
Ġapp eared
ĠT ime
Ġcar ry
Ġspect ral
Ġthe ore
ĠO F
ĠS et
ic ago
ar ant
Ġsatisf ies
Ġexist ence
col on
199 3
T H
G B
Ġactiv ities
Ġpur pose
Ġs ometimes
E O
7 3
Ġpl ans
[ ]
Ġsy n
C P
ĠM em
Ġcons ists
Ġman ufact
ĠM useum
E nd
6 9
Ġdem and
' ;
Ġtrans l
at re
ri z
ĠT HE
ĠAfric an
ĠSup er
Ġdepend s
Ġbir th
ĠO lymp
ĠH istory
ĠAustral ian
r as
Ġmove ment
Ġquick ly
Ġg old
199 2
ĠG rand
Ġc it
ust ain
ĠB ig
ult ure
Ġ( !
ist an
ĠM ont
E X
og ue
Ġcorrespond s
Fig ure
Ġ ign
il er
Ġconstraint s
or ter
Ġincre ases
atur day
z er
C ode
Ġin cor
Ġch urch
Pe ople
fl ow
Ġrepl ace
Ġcomb ination
ing er
Ġinteg ral
Ġsign ed
ĠFran cis
j o
Ġrepresent ed
AT E
por ary
ar l
Ġj oint
ĠMore over
ollow ing
Ġf ine
ro ad
ĠR ock
C he
ĠK ore
rodu ction
Ġa uthors
Ġm ut
( (
C an
ĠL at
Ġdirect ed
def ault
Ġcorre lation
erm an
Ġth row
C A
Ġon to
action s
Ã ¶
il ed
ĠMin ister
Ġp oor
Ġse cret
ap ache
Ġrema in
Ġre ached
ĠM ost
ĠI r
Ġwas n
ĠS T
Ġ} );
Ġrecord ed
8 3
ĠG overnment
ĠComm ission
ĠCong ress
ind ing
ym pt
) _{
Ġparent s
Ġl attice
Ġext rem
: \
F A
c ore
ern el
Ġmiss ing
Ġpie ce
Ġprogram s
Ġs ort
Ġcele br
ime q
and a
Ġconfig uration
Ġscal ar
Ġp le
pro du
s imeq
gorith ms
Ġdom in
Ġa mb
ĠÂ £
ĠC amp
\! \!
Ġcon v
Ġrema ining
Ġact ual
Ġwind ow
ĠOff ice
Ġstreng th
7 9
Ġlead er
Ġext ension
Ġed ges
ĠCar ol
olog ies
ĠP M
st o
Ġst ore
Ġliter ature
Ġprovid ing
Ġca used
Ġang le
Ġra il
Ġproject s
Ġassum ption
Ġunderstand ing
ĠF riday
Ġcoll abor
for all
Ġdet ection
Ġapprop riate
val ues
Ġvert ices
Ġb rief
Ġa w
) ^{\
Ġsit es
per p
Wh ile
ĠT op
ĠH en
Ġgr ant
sy ch
7 1
Ġv oice
ĠA tt
z ero
ow ers
Ġdef e
we ight
ĠD uring
Ġtechn iques
M ar
) ^{-
p at
Ġapproxim ately
Ġsur round
col umn
}$ -
ĠPro ject
ĠB rown
y mmet
4 00
c ases
v a
ĠS k
Ġfl at
ĠFound ation
ĠT wo
E nt
Ġmod ule
l ines
Ġrece ive
H T
Ġhor iz
Ġst ated
Ġinflu ence
loc al
ck now
if ul
ĠT own
ent y
ĠP eter
ur rent
Ġnot ed
Ġansw er
Ġocc up
E lement
ĠJ er
Ġdri ve
R ef
og ene
Mod el
the n
ud d
Ġg rand
atter ing
Ġ ]
Ġsim ulation
Ġcom ments
Ġfem ale
os h
sub subsection
N ext
Ġcomp ute
Ġf elt
It em
Ġintrodu ce
Ġh arm
ĠH el
et te
Ġv ac
Ġpart ners
Ġhand s
Ġh ar
we b
wh ile
al ysis
Ġcle an
n eg
Com m
Ġinequ ality
riv ate
.~ (\
Ġreport s
Ġpass ed
P er
ĠL u
8 1
ĠL ife
ĠDirect or
ĠW ind
ĠAl though
Ġsp ent
m ethod
s ur
ay out
Ar ray
cre ate
Ġlook s
ament al
Ġopportun ity
ĠJ ose
und red
Ġopen ing
Ġeffic ient
ĠRich ard
T V
ĠU p
ic ks
Ġwe b
ict or
Ġprop ag
ĠDiv ision
Ġerr ors
Ġmach ine
Ġcoe fficients
Ġslight ly
an ish
ud get
Ġpolit ic
g ener
^{ +
ic ated
i as
al g
Ġan c
Ġf ans
Ġp ure
il ib
ĠRuss ia
Ġp hen
Ġb us
ĠW estern
Ġappro aches
ass ert
ask et
G roup
j ava
Ġident ify
Ġdist inct
Ġsp orts
M e
ĠM er
ĠT imes
Ġaction s
Ġn ation
ash ion
{ $\
Ġc at
ĠAcc ording
ĠE arth
ot al
L og
H and
Ġdaugh ter
g ent
es ter
ch ar
we et
ĠD en
Ġe arn
Ġdev ices
ĠW omen
Ġresp ond
ro t
d x
}^ *
Ġun ivers
ĠF acebook
ĠM o
Ġsaf ety
in fo
Ġr ing
S I
ĠC ath
ĠMan agement
Ġrel atively
H istory
Ġcontain ing
at ically
The y
Ġ __
Ġt ensor
y an
f it
ĠT est
ĠS u
ĠM el
re ct
Ġevent ually
Ġart ist
y r
Ġag ent
li ament
D o
ĠComm ittee
Ġpl aced
Ġin de
ĠLou is
Ġin form
ĠS ol
Ġm ess
Ġal one
ĠE ducation
Ġmar ried
Ġro ot
S ize
g rad
Ġth ick
il ing
es h
" "
erv ed
Ġsh ip
Ġte acher
iver se
P A
ĠSund ay
ond ay
f irst
Ġsp read
li ent
S pec
ĠVir gin
âĢĿ .
//// ////
Ġshow ing
Ġref lect
m ann
Ġdistrib utions
Sy stem
Ġmeas ures
Ġcorre l
ill a
h om
Ġs ector
Ġpro te
ch ild
ĠG r
ĠSer ies
Ġinst rum
Ġs ampl
N e
Ġst able
Ġla un
ĠF orm
Ġart ists
S M
Ġex cit
ĠBo ard
w est
= '
Ġb ul
T D
Ġw ild
Ġhe ard
ĠSe cond
Ġ ut
et ime
Ġmod es
i pp
com ple
Ġdeath s
Ġch ance
ĠG ood
y les
Ġo dd
om ic
or ation
ap ers
Ġpl ays
ĠU nder
p onse
se ud
="../../ ../../
Ġlaw s
Ġorgan ization
as y
Ġv ote
ĠCan adian
ĠA M
l ig
$ ).
197 0
AS S
val id
mod ule
F C
ri um
Ġqu arter
Ġin ner
ĠMed ia
Ġsepar ate
S R
uff er
Ġo il
in v
def ine
ĠL os
ens us
Ġo w
ec k
Ġform al
ĠJ ournal
199 1
}} ^
Ġsh ared
Ġres ol
Ġcur ves
Ġacc ur
Ġro ll
M essage
os ite
Ġinv ariant
******** ********
Ġgrow ing
b el
Ġfil ter
new command
Ġcomb ined
ic ity
C ount
S A
Ġres ource
Ġconf ir
$ ^{-
ound s
Ġcontrib utions
Ġdise ase
$ $\
Ġinteraction s
Ġlist ed
.... ....
Ġt un
it ors
Ġent ry
ĠE qu
> &
or ial
Ġfour th
Ġdis k
ve x
Ġmin or
Ġ ;
ĠB ank
act ory
mat rix
Ġf arm
Ġs al
Ġl if
Ġdes pite
Ġc ook
ĠN etwork
ĠFlor ida
Ġmass ive
) }{\
Ġmeasure ment
Ġdepend ence
ĠFran k
Ġcap acity
st ract
Ñ Ĥ
ĠPl ay
ri ve
upp ose
Ġinterest ed
' d
Ġto uch
Ġmor ning
m ic
d es
Ġ= \
Ġestim ates
k in
ĠO per
Ġmajor ity
ĠB i
ĠJapan ese
ĠE ach
Ġcost s
Ġabs or
se ct
ĠPro v
Ġey es
im age
Ġgener ate
Ġf irm
Ġrepl aced
F e
Ġinst all
Ġden otes
act er
Ġit em
Ġ util
Ġdiffere nces
un icip
ĠA ut
cher s
at o
ĠB ur
Th us
. $
ĠM ass
Ð ½
Ġal gorithms
c r
re p
b ed
ic ations
a o
Ġ$ $
b ottom
c d
r ons
Ġcl ient
Ġindividual s
con text
Ġth reshold
Ġenc ou
Im age
ĠG ames
Ġs rc
re land
T C
ul ed
Ġarbit rary
Ġdetail ed
Ġent er
L ast
Ġqu ad
ĠW ed
it ation
sk i
Ġcal c
Ġm er
Ġsing ular
Ġtrans formation
Ġatt ract
Ġcompet ition
ex ample
P L
Ġwrit er
Ġag ree
Ġcommun ication
ust er
d im
ĠO h
Ġr ise
Ġcar ried
pm atrix
ĠS aturday
Ġt it
---------------- ----------------
Ġcl in
Ġb illion
g est
ĠPe ople
Ġpair s
Ġinter face
Ġc atch
k m
Ġexp ressed
ell ed
Ġbehav i
Ġ} ;
Ã ¤
' }
Ġc op
Ġhe at
Ġcomp are
ruct ure
ell er
er red
b ullet
od ay
g raph
f alse
ol k
Ġth ous
qu are
on ly
os is
ĠCh icago
Con n
Ġor ient
ĠKing dom
Ġt or
ĠL ake
Ġcandid ate
ĠEx p
Ġassum ed
Ġbe g
Ġfail ed
O C
f ort
Ġra pid
Ġhy dro
od er
ĉĉĉĉ ĉĉ
Ġco ach
text sc
c ss
rel ated
Ġd u
Ġspat ial
ĠS il
C all
az z
Ġaltern ative
Ġcan cer
Ġcy cle
urs day
)\ \
go ogle
ist ical
de v
ĠP an
Ġcol lege
Ġit ems
Ġs le
Ġtr ust
ĠDe velopment
ol a
s he
con tain
Ġp icture
ĠS ocial
st atic
ag raph
Ġyield s
ag onal
ĠC am
Ġ> >
ĠAt l
Ġ= ==
S D
ov ing
ear s
d b
f aces
display style
} )$.
Ġsymmet ric
ĠH ot
pos es
ĠJ un
Ġspect ra
t x
Ġnucle ar
Ġd ivid
pro b
Ġcom mercial
( {
Ġs ociety
Ġex ternal
pos s
ell a
S L
Ġeff ort
Ġs ales
U L
ad y
in ity
Ġre v
ĠChar les
ĠE ven
Ġor b
anc ing
U LL
Ġal leg
Ġmost ly
ĠCh ild
f s
pro cess
\| _{
he mat
Ġmaterial s
fere nt
ĠJ o
Ġpower ful
ĠI ran
ĠO ffic
che n
Ġn il
Ġj ava
Ġdep th
ĠL ie
ĠMart in
p g
Ġrespons ible
15 0
S ource
ues day
Ġqu as
yn c
st ein
Ġb ranch
ĠE nd
E ng
Ġopt ical
) --
Ġh uge
omorph ic
rib ution
h bar
Ġpro ceed
ĠS ervices
Ġfin ished
ner gy
L iving
ĠH ome
os ure
l ies
lic k
ĠSh ow
ĠPar is
ay lor
Ġtr uth
Ġprov ed
r ich
Ġqu e
am ely
ĠIt s
row ser
th let
Ġst ellar
_ -
Ġp lease
com position
Ġkn ew
b as
Ġfore ign
Ġredu ction
ĠJ ud
ĠAcadem y
ve re
ann els
r ical
Ġs ch
m ma
Ġhe ar
1 000
lic ation
om y
ab il
Ġw est
sy stem
os c
)$ -
p ass
H z
Ġpar allel
Ġw ants
Ġm ission
Ġn one
Ġtyp ically
ĠM icro
Ġex change
Ġw onder
Ġph one
{ {
Ġmanag er
Ġreg ist
Ġtyp ical
t ri
}} ^{
198 9
rem ark
Ġcrit ic
og s
C R
ĠD u
Ġrec ords
ĠSec ret
B L
ch ang
A ct
ab y
Ġm orph
i ate
B ox
ra ge
Ex p
Ġre asons
Ġre const
Ġcomput ed
all s
Ġb attle
Ġgu arant
B ack
Ġw ood
Ġcirc le
a ver
ĠL ong
pt on
Ġv ary
Ġeff orts
c ular
ĠB r
ĠArt s
d l
ĠAngel es
Ġcommun ities
ig an
ĠC L
Ġann ual
Ġconstruct ed
ĠZ eal
f inal
Ġmat rices
se arch
Ġreg ime
ĠM ur
Ġinteg r
ĠS ta
ject ion
irc raft
ĠM ax
ĠT im
Ġra re
is l
ĠH y
oot ball
Ġread y
c ks
op en
ĠF estival
Ġcon vert
b an
Ġcomp osition
Ġseg ment
Ġn av
Ġh undred
Ġres ist
od ot
Ġtest ing
Ġide al
ott ed
ith ub
Ġst rict
he m
k es
Ġapp arent
m c
nes day
ĠEng ine
ĠThe ir
Ġnot ice
ĠI ll
Ġlet ter
Ġtre nd
Ġe ast
str ong
Ġar rest
Ġn om
Ġstrong ly
Ġm aster
as tern
ĠIsra el
Ġhapp en
as ion
P T
Ġm obile
Ġas ympt
ou ble
Ġb ill
ĠZeal and
ot ype
N R
includ e
d em
Ġwork ers
ig ration
Ġ eth
Ġd oc
Ġclass ification
C re
Ġconsider ing
if ies
Ġide as
Ġs end
Ġobser ve
Ġla unch
Ġop in
Ġp oll
Ġmass es
pro position
h box
Ġser ver
Ġdifferent ial
Ġa p
stand ing
S ec
M ethod
Ġrem oved
ĠW ood
) _
ĠFil m
Ġs plit
ĠĠĠĠĠĠĠĠ ĠĠĠĠĠĠ
Ġf ederal
Ġsem i
T op
ĠS pe
. ;
Ġfind ing
ĠM onday
ĠMex ico
Ġres on
ĠU s
c uss
Ġprocess ing
ell i
T ra
Ġjo in
ĠB ob
ĠM il
Ġveh icle
a a
go ing
ĠGa ussian
=" ../
pack age
ĠI D
Ġf reedom
Ġlook ed
Ġrem ember
Ġform at
R el
ou nce
ĠL ove
ĠW al
ul f
Ġadvant age
as er
Ġa part
Ġgalax y
ĠâĢ ¦
Ġtra ffic
Ñ Ģ
O W
ran k
por ate
A V
ĠHamilton ian
Ġinde ed
Ġse a
Ġmet al
ib r
c s
h ab
l s
; &
Ġclaim s
ĠWe ek
ilib rium
ĠJ im
U E
p icture
Ġindic ate
ĠH ig
Ġchall enge
Ġgu itar
ĠL y
p a
Ġposition s
ĠC a
map sto
Ġinter val
g ar
Ġcustom ers
Ġser ve
Ġachie ved
ard en
Ġdistrib uted
Ġgo als
ce an
Ġun known
Ġg ap
ĠI reland
Ġcall s
Ġfunction al
ĠP ri
Ġsur vey
ĠC H
ok es
if ferent
Ġw at
\ _
ic ine
198 8
vi ation
ĠB et
Ġb right
R ep
Ġin nov
Ġdis app
on ential
Ġsom ew
U ser
Ġto ward
sp ect
Ġus ual
Ġst o
C ons
ener gy
' (
fin ished
The orem
n ight
19 60
Ġthan k
Ġman ifold
\ {\
ĠH aw
ĠT re
=" #
ĠLe e
Ġfund amental
rib e
asket ball
Ġd ra
k ins
Ġm erg
im b
Ġindic ates
ĠIt alian
Ġpro port
Ġarchitect ure
$ ;
i ated
Ġcoordin ates
Ġbuild ings
Ġlo op
L ine
Ġh ole
1 20
he tic
Ġke pt
ĠE very
ĠYou ng
d oc
ĠT witter
Ġk ids
Ġhapp ened
ĠT our
Man ager
&= &
ĠB u
or a
names pace
us band
$ ~
ĠA rab
ip al
c ar
ĠL in
ific ations
ĠE lect
Ġs un
Ġper haps
Ġ Î
}( {\
Ġro ute
Ġal t
Ġtri ed
Ġeffic iency
k l
J ohn
ĠTe am
Ġt asks
ĠSt ep
ri age
Ġp ush
Ġar rang
ĠR ail
Ġsatisf y
k o
ĠO ld
Ġst ress
mult i
g ithub
Ġle ague
Ġch ief
Ġpa id
Ġhelp ed
P D
Ġm ixed
Ġcre ating
ĠL i
pd ate
Ġs ave
Ġorig inally
Ġcent re
Ġstr ugg
Ġindu ced
art s
Ġcam era
Ġphen omen
n ext
m ass
Ġtool s
init ely
Ġa ware
Ġun ion
ĠA v
H S
Qu ery
G u
Ġm ill
c ript
} &
ĠGe org
sc ill
A rt
Ġs witch
am ing
Ġimplement ation
Ġsp irit
ric s
j av
Ġcontain ed
ĠV er
ĠChampions hip
ĠCon n
fere d
Ġdis p
ĠF inally
Ġac adem
ĠPro fess
og en
Ġed itor
Ġmin imal
ont al
Ġdest roy
Ġv irtual
Ġs pl
Ġpr ison
Ġs ections
Ġ er
| _{
Ġem p
ĠTechn ology
Ġregard ing
Ġw el
clus ive
Ġex ception
Ġinvestig ation
r l
ĠV ictor
Ġve ctors
D es
y er
Ġsy nt
Ġvict im
Ġobserv ation
ĠS aint
âĢ ĺ
Ġro ugh
Ġsp ot
Ġreturn s
Ġinteg er
198 7
lic t
Ġra ised
cl aim
Ġprot ected
Ġconver gence
======== ========
itud es
Ġsc attering
it ness
Ġadd ing
ĠSp ace
ud e
Ġpart ies
O ther
P P
; </
st ra
ran e
t ik
Ġle aving
ĠÂ »
l aw
os es
en ame
Ġcomput ation
ĠJ ac
ĠFor ce
ĠIn formation
d ing
ĠG ame
âĢĿ ,
ĠW ho
Ġplan et
] )
ĠR E
ĠB as
Ex t
pert ies
Ġg rid
ĠWe b
Ġold er
Ġim plic
Ġsub t
Ġcit iz
G C
Ġpol ic
roll er
Ġspec ified
cont in
Ġfore st
e vent
f old
C or
ĠâĢ ¢
Ġass ign
ĠC ast
ograph ic
F urther
) +\
all ery
ĠVal ley
ock ed
ĠJohn son
ro ph
Ġtri al
Ġwin ning
ic an
Ġexplain ed
Ġcl imate
a fter
Ġl um
set s
Ġchem ical
ĠTh ursday
maz on
Ġtra ined
Ġb inary
Pro perty
ip ment
Ġreveal ed
stit ution
ron ic
ad ow
ĠIt aly
Ġt ick
ĠU sing
Ġdo or
m osp
ĠG al
en ess
ĠB oth
Ñ ģ
Res ult
u ing
ĠD et
Ġmagn itude
Ġcontin ues
Ġover l
c all
~~ ~~
ĠL ibrary
Ġp ages
ĠP enn
Ġrem ove
ĠP ac
ph p
Ġbe am
ĠI II
Ġt end
Ġconclud e
ĠH istor
act or
ON T
ful ly
L a
raz il
Ġs ustain
ĠVirgin ia
ĠCent re
Ġwh om
ĠU N
ĠHe ad
Ġdet ect
Ġelect ed
Ġofficial s
) </
Ġfil es
c at
M ay
R em
Ġor th
ĠG en
od ies
bl ue
Ġc overed
Ġb oy
r ont
Ġr ang
el ess
Ġre ality
Ġstart s
Ġlearn ed
) },
n ull
M R
bre ak
ĠĠĠĠĠĠĠĠĠĠĠĠĠĠĠĠ ĠĠĠĠĠĠĠĠĠĠĠĠĠĠĠ
U s
ta il
ĠH a
ĠCh ief
ĠT uesday
g reg
O ff
ĠH or
Ġax is
Ġo scill
re nce
~ $\
B I
Ġb rain
sc he
Ġpred iction
ĠW ay
Ġbeaut iful
ĠCath olic
od ed
ic ate
ing ly
ĠIs lam
Ġd rop
C lient
u ous
Ġdimens ions
Ġof fered
Ġimpro ved
c f
cknow led
Ġlaun ched
Ġl ies
ĠSum mer
it ivity
Ġprot ocol
Ġadj ust
Ġimport ance
Ġsy m
Ġpl us
Ġn et
con dition
Acc ording
Ġlim its
ed ia
198 6
Ġand roid
Res ponse
< !--
} )$,
ateg ory
Ġocc urs
ph as
s uch
Ġend ed
[ (
rib utes
Ġtechn ique
ĠB uild
ĠA wards
Ġd ream
ar se
Ġrequire ments
ĠDe v
Ġdeg rees
Ġturn s
L abel
Ġampl itude
ell s
ĠCommun ity
E W
ĠRec ords
ian a
ellig ence
Ġcalcul ations
g r
im a
ĠĠĠĠĠĠĠĠĠĠĠĠĠĠĠĠ Ġ
Ġaud ience
H ead
Ġcalc ulation
EC T
Ġmain ly
Ġst orage
Ġ ice
f ont
op ic
Ġdriv ing
C M
Ġad vert
id el
Ġflu ct
ĠB ecause
Ġ$ {
tik z
Ġown ers
Ġsol ar
) -\
ĠPh ys
} }$,
Ġappear ance
A m
D ate
here nt
Ġrem ark
s ign
F inally
Ġpart ial
int eg
Ġd ie
Ġc row
Ġb ra
S ome
ĠH on
Ġoper ating
Ġfor ced
ogene ous
Ġpro pos
ĠG L
} }$.
Ġex cell
ut y
Ġph il
ĠSp ring
Ġa head
Ġplan ning
ĠV is
Ġr an
ĠFurther more
t wo
Ġeval uation
up s
Ġdepend ing
Ġfound ed
t ag
ĠEn ter
Ġanal og
ĠE p
j a
b al
Ġtherm al
are n
Ġis ol
Ġtechn ical
Ġview s
Ġarg uments
F R
un ct
V ER
Ġthink ing
ĠWed nesday
Ġtest s
ĠJ ones
ĠP ower
ens ions
Ġtheore tical
Ġdel ay
agn etic
Ġa st
Ġqu ery
ĠSp anish
) )$
Ġsa fe
Ġsen ior
ĠSt and
ph one
ian o
Ġnot ation
D P
Ġbecom ing
Ġh ospital
g a
-- -
ĉ Ġ
ob s
Ġb udget
ĠLe ad
g color
ut ch
av ed
Ġsugg ests
Ġsol ve
ĠS and
d ir
A ut
Ġfl oor
Ġsm art
ap se
Ġrec all
Ġlay ers
Ġad m
Ġscen ario
Ġh our
Ġattack s
c ong
l ow
Ġacc eler
Ġco ast
p ot
R ight
Ġrese ar
Ġmot iv
Ġd aily
198 4
on ical
od d
Ġwe ap
Ð¾ Ð
ili pp
Ch ar
Ġmed ium
Ġpat ient
un finished
}{ |
Ġel im
Int roduction
Ġbl og
con f
ĠF ree
am m
Ġf an
c ut
d at
em porary
Ġch annels
ĠSc ot
Ġconn ect
ĠMod el
Ġallow ing
Ġhyp othes
ĠF ield
Ġfe et
Ġpart ition
198 5
Ġoptim ization
}{ (
Ġext ends
Ġphot o
Ġen h
Ġcon j
Ġcon ven
ĠM en
ĠC r
ip age
Ġc ov
ĠH uman
qu ery
}\ ,\
L S
M em
Ġpers pect
est ic
D ep
Ġphys ics
en ced
h ow
Ġfam ous
Ġbe at
Ġrefer red
Ġa ircraft
ĠA R
Ġto urn
Ġcharg ed
}$ )
Ġp urs
am in
Ġcertain ly
l ife
ĠC le
ĠS ar
Ġ( "
Ġexpl ore
Ġcy cl
min ipage
y e
? ?
rap y
ĠL ag
Ġuncertaint y
Ġrest aur
Ġpe ace
G l
S ch
Ġrecomm end
ĠS M
Ġk ernel
D S
ynam ic
Ġbenef it
Ġhapp y
P M
ic ed
Ġcom plic
$ ),
hen s
% )
ve ctor
Ġdist ingu
form s
) }_{
Ġsex ual
ost on
Ġcon ference
Ġneighbor hood
Ġman ner
Ġh usband
d r
The refore
Ġsuggest ed
Ġs ession
Ġrot ation
Ġcon vers
w rite
Ġev ol
por ation
i pped
Ġinc ome
M in
W ork
ĠC are
Ġaut o
Ġn or
Ġme ant
Ġf rag
ĠC y
Ġey e
ĠPol icy
Ġact s
ĠSpec ial
Ġhand le
Ġp ix
Ġeconom y
ĠP ak
b rid
- $
et ry
t arget
at i
umn i
ru it
Ġst ations
Ġinteg ration
Ġ$ |\
for ward
I ST
Ġtr ig
Ġquad r
he nt
Ġscal es
Ġc old
U sing
ĠHen ry
i ative
Ġch ampions
ur ies
w a
Ġgraph s
: }
ock et
ov a
f unc
Ġ ens
ĠI S
ĠK h
Ġdam age
AT ION
Ġwhere as
Ġoffic er
ĠAd d
Ġtre es
T P
D M
Ġclust ers
m ut
Ġl ab
ol es
Ġmus ical
Ġf re
Ġle aves
oth ing
ĠC oll
omet ric
Ġed ition
Ġrad iation
x x
ar ian
Ġst uff
Ġst d
our ney
m ond
Ġmod ified
big l
Ġ ion
Ġdel iver
1 10
Ġgrad ient
ĠSen ate
Ġear th
ult ural
n um
z en
Ġd anger
Ġtalk ing
Ġp et
Ġb gcolor
ĠE conom
M on
Ġchang ing
Ġstre et
j i
ĠWilliam s
al i
Ġem pty
Ġinf inite
Ġmay be
Ġir re
Ġth r
ĠR un
v in
Ġprinc iple
urb an
Ġc ars
ere nce
Ġf resh
ĠN Y
in ations
un it
Ġc ities
Ġis land
ĠOb ama
H el
B O
ĠL og
in et
p o
Ġprot ect
Ġw ish
Build er
if er
Ġsk ills
Ġextrem ely
ĠApp le
Ġconfir med
p y
ĠM u
Ġang ular
ict ed
Ġfeature d
Ġdisc overed
S m
Ġt ag
Ġcandid ates
ĠM any
Ġr ich
Ġj ump
Ġappoint ed
Ġcomplex ity
E l
Ġw arm
Ġd ial
Ġdynam ic
ĠCh ris
Ġfail ure
Ġstat istics
ĠL ine
ad ium
igh ter
av el
Ġrob ust
n umber
ĠM ike
ĠBl ue
Ġhouse hold
ĠGl obal
clus ions
R un
aw a
Ġsc hed
Ġ ^
and roid
u um
Ġfund ing
Ġn ine
Ġrema ined
Ġm iles
ma ke
Ġthan ks
ish op
big r
In put
Post ed
ĠDes ign
E m
l ib
ĠL ic
Ġf ashion
def ined
, {\
ĠRe port
ĠJ eff
Ġspe ech
Ġloc ations
Ġs ides
, $
Ġmon itor
Ġbig gest
ĠB ack
ĠOr der
Ġ- >
P oint
T Y
St ream
res ults
Ġm ountain
ĠW ater
un te
ig ital
ur ance
Ġhistor ical
Ġord ers
it age
C al
sh ire
P aramet
) }}
> (
fl oor
Ġvari ation
Ġmanag ed
B ase
ĠCarol ina
Ġconduct ed
math op
ĠC ard
Ġbenef its
Ġbroad cast
Ġsub stant
ide os
ĠL iber
is ters
Ġsub group
Ġnumer ous
ĠAs ia
Ġvert ical
Ġst ability
Ġdat abase
Ġc ert
Ġalbum s
Ġscal ing
ĠS wed
ĠF ootball
Ġrelig ious
Ġcult ural
ars er
ĠF amily
Ġp seud
int on
c ref
st ep
ĠJ on
Ġatt end
$ {\
Ġag ents
Ġd oll
Ġadminist ration
ent ed
Ġaccur ate
Ġn ice
Ġg one
Ġat mosp
se lect
he t
Ġb ool
uck y
Ġcoe fficient
ict ures
Ġow ner
Ġgeomet ry
Ġdi agn
Ġresid ents
Ġcr im
Ġposs ibly
ĠT ri
a id
F I
Over ride
Ġcred it
ĠM ethod
Ġre action
Ġmat ches
ran ce
Ġtra ject
m em
ĠL ord
$ _{
Ġtell s
ĠE mp
Ġhapp ens
i em
ens es
âĢ ¢
ĠC ross
Ġabsol ute
ak a
c alled
ĠJose ph
but ton
ĠChar l
Ġart icles
h igh
sy l
i ro
Ġem phas
ĠT aylor
Ġinit ially
cc cc
Ġexp onential
Ġinc ident
Ġcoordin ate
add ing
os op
ap ed
ĠAb out
du le
Ġext end
etail s
Ġbal ance
Ġsc ored
ĠMc C
ys elf
Ġequ ipment
Ġbound s
Ġcould n
Ġ[ \
Ġtre ated
U M
cl ose
h ar
f riend
Ġfl ag
Ġpart ner
b u
Ġfoc used
st able
25 0
ĠF und
ĠR am
Ġsett ings
Ġsu itable
ĠIn ternet
Ġp il
ĠSec urity
Ġact ing
Ġb ond
Ġun less
D on
Ġdiv ision
Ġdri ver
Ġstat istical
Ġred shift
Ġp ool
or row
ĠAn y
less sim
Ġk ing
Ġt ail
oc key
w an
Ġsatisf ying
Ġl ibrary
du ction
198 3
ĠT em
H ome
Ġcalcul ate
O per
is er
pro ject
n n
Ġhe ro
Ġcharg es
Ġord ered
ĠS ports
Ġb ed
ult ane
inal s
Ġunder lying
ĠF ort
Ġenvironment al
L A
ĠT ype
Ġposs ibility
L C
Ġpolic ies
Ġde composition
ris is
ĠE ll
Ġinvest ment
se cond
Ġd ust
Ġdepart ment
ĠL ab
Ġr id
Ġorgan izations
Ġinvestig ate
d y
ĠWh y
Ġchalleng es
Ġobject ive
s at
Ġact or
D D
Ġf le
ĠAnd rew
Ġw aves
U til
com es
Ġb in
ĠF ar
ĠCon ference
Ġsupp ly
Ġaff ect
Ġdis crete
Ġab und
ĠB ra
Ġ$ .
Ġsc ript
t an
Ġl ived
Ġp sych
sc ape
\ ;
Ġproject ion
Ġf if
S ection
Ġ ^{
Ġaff ected
c are
\ )
ĠSt at
ĠE nergy
ĠIr ish
Ġgl ass
Ġbl ocks
ĠBrit ain
Ġemploy ees
ĠA ff
iven ess
198 2
Ġpr ime
if act
Ġre li
i able
Ġpattern s
Ġent ertain
Ġk ill
ĠCol or
Ġch air
e lement
Ġelectron ic
ul i
> >
script style
ans as
ĠPol ice
Ġ\ (\
ate ver
Ġrel ax
opt ion
R L
Ġst ock
Ġcol lected
Ġevalu ate
d el
ov es
Ġcover age
w ater
,\ \
or ney
eng er
Ġv oc
ĠS uch
c over
ĉ ĠĠĠ
Ġbu ff
v ari
Ġcon vex
Ġtrac ks
cl ient
og rap
van ia
Ġgu y
R S
it an
ĠW all
it ative
Inst ance
Ġco inc
lection s
l ast
ĠS U
av or
ĠN ight
Ġn ative
poss ible
pt o
p arent
W hy
M et
St art
is ely
Ġcor ner
Ġband s
Ġfind s
sk y
ĠW ild
Ġle mma
Ġdes ired
Ġfa ith
$ :
rom e
ad s
ĠMus lim
Ġdet ected
Ġcomm it
Ġdi am
ĠN S
Ġm apping
ĠFrancis co
ubl ished
Ġvict ory
ar iance
Ġclaim ed
Ġt ransp
il ation
ind ow
Ġfig ures
in ate
exp ected
let s
Ġdescrib es
omet ry
Ġm ist
l ock
Ġn arrow
u zz
ĠB razil
Ġaward ed
or ig
ĠMed ical
s g
ĠC EO
N av
act ic
Ġpredict ed
Ġsus p
G ener
ĠR o
erson al
Ġinvol ving
app ed
Comp onent
Ġh idden
Pro v
Ġmarg in
Ġmot or
Ġent ropy
ĠS outhern
Ġveh icles
Ġra ise
ĠD own
Ġn amely
ĠB ow
ink ing
ap es
S H
est ed
ortun ately
Ġden oted
ĠG overn
ph ant
E P
d escription
t rack
Ġbehavi our
st one
ĠEx ec
Ġli qu
cal e
ĠR eturn
Ġend s
Ġmom ents
ĠM iddle
ĠCol umb
Ġcapt ure
ath an
Ġsum mar
ĠPol it
a uthor
Ġl ie
Ġloc ally
so le
: =
Ġknow s
fl u
Ġb urn
ag on
ĠC P
19 50
Cont ent
gy pt
T ag
Ġcharacter istic
ad ing
Ġp p
^* $
ĠJ oe
M ark
Ġor bit
Ġapp lying
Ġpre par
N umber
ĠĠĠĠĠĠĠĠ Ċ
ad ata
' .
us al
Ġgu ess
opt ions
on to
U p
B M
Ġcons ult
de c
Ġri ver
Ġr ig
ug in
Ġspec ifically
Ġleaders hip
ĠA G
Ġcirc um
St atus
Ġrepe ated
ain s
ĠE U
ĠN orthern
ĠJew ish
Ġm yself
197 9
ĠRad io
Ġadopt ed
Ġinst ant
Ġcomm ission
ĠL im
Ġf ill
Ġded icated
Ġcre ation
ĠChrist mas
Ġneut r
ĠCo ast
l en
Ġde ploy
ĠM ot
u an
ĠG re
Ġwid ely
Ġmark ed
t frac
Ġopp osite
Ġc m
v ature
w er
Ġnew sp
A ction
Ġe q
Ġconsequ ence
f a
] }
ĠV an
Ġsp ring
u er
Ġrepresent ations
Ġsp ort
back ground
6 00
Ġf ant
Ġviol ence
Go ogle
j ust
Ã ¨
g ency
Ġhigh light
Ġ il
ĠPro t
ĠA uthor
cy cl
Ġdown load
Ġpack age
Ġfl ight
D R
ier arch
T O
T ER
Ã ¢
ve e
Ġsing er
li k
198 1
f i
ĠD aily
ĠL ast
r ame
Ġdevelop ing
ĠDan iel
Ġjob s
Ġwrit ers
Ġfeed back
Ġl abor
ra q
Ġestim ation
form ance
I O
Ġstud io
$ };
maz ing
ĠK en
ĠP C
C ar
] $.
sh ow
Ġequ ilibrium
Ġcre w
ĠJ es
T wo
ĠB ern
Ġse at
or al
s en
$ {
h u
Ġsee ing
Ġf uel
h ol
ĠL ike
ĠSp ain
ĠN ULL
ĠL ear
Ġanim als
Ġbro ken
Ġaspect s
in er
por al
z y
b ury
leg al
Ġprot ection
Ġsh ock
head er
Ġtw ice
Ġre tain
ĠOr gan
Ġconf idence
Ġint ended
ĠDemocr atic
ist ent
M ax
Ġv ision
? "
Ġex erc
k ers
, ...
\ }$.
Ġdisc over
Ġpolit ics
syl vania
er ior
s d
Ġdatas ets
ĠA mazon
Ġsh ut
Ġcomput ing
Ġimplement ed
S um
Ġdef ense
) )\
Ġdis s
Ġcon vent
Res ults
on ed
Ġread er
Ġindic ated
ĠF ire
Ġexpl an
ĠW rit
Ġbi as
V D
Ġflu id
Ġcr ime
ĠM id
}) }
Ġs ell
L ink
Ġis omorphism
Ġbeg ins
Ġ{ $
Ġcomp ris
Ġiss ued
il bert
ĠJust ice
Ġwould n
ĠThe atre
}} _{\
in du
Ġnot es
Ġexec utive
ad or
Ġb os
ĠOb ject
Ġinteg rated
Ġf lex
pro v
Ġdec ades
Ġsampl ing
pt ic
Ġtri p
Ġport ion
Ġoffic ers
Ġtrans mission
Ã §
Ġsufficient ly
Ġf erm
ĠAs sum
Ġpur poses
rast ructure
ĠE r
im ately
ig r
i y
Ġin n
ĠB oston
Ġwe ights
ĠPac ific
Ġopportun ities
ĠB ase
Ġsign als
Ġfavor ite
wh ite
ĠRe al
ĠInd eed
ĠPh ilipp
requ est
}[ \
im g
B o
B ook
A F
Ġmulti plic
Ġun iversity
ĠInd ust
ĠOn ly
Ġopin ion
ris on
amp ion
ĠF red
Ġag reed
Ø §
P RO
F unction
Ġthe ories
Ġt error
W ill
el a
Ġp owers
ĠK im
Ġqu ark
medi ate
ĠJack son
ab eth
ob e
b ro
ĠL ight
ĉĉĉĉ ĉĉĉĉ
ĠAN D
Ġf ear
b ell
" ).
ĠSe a
ig er
Ġfe at
ili ar
ĠU k
pro perty
Ġ< <
ul er
D uring
is c
Ġca ref
Ġ\ &
Ġinvol ve
long rightarrow
ys et
( [
ã Ĥ
ĠI P
o ir
AM E
ist ed
M O
Ġweek end
ap os
d frac
ĠSt r
ER T
ion e
ĠV iew
ch ron
Ġ\ !
Ġown ed
B R
ins on
id ents
n i
Ġexpl o
Ġgirl s
he ast
il ly
Ġseem ed
| }
ĠS ong
Ġinter act
Ġinter section
}} )
Ġexplicit ly
f ound
ĠW alk
enn is
Ġcl ick
st ood
app end
ã ĥ
Ġentire ly
opy right
Ġperform ing
Ġent ered
e per
Ġs outhern
Ġd raft
ĠA L
Ġassum ptions
ĠW ell
Ġexcell ent
ro g
pl an
Ġcos m
}) =
ud den
j oint
ĠT er
sc ope
Ġsecond s
t w
Ġare n
h ang
ĠG irl
erv es
}) ^
Ġinj ury
Ġint ensity
ĠM ult
Ġtourn ament
Ġfac ilities
Ġcont rad
ĠIn vest
ĠP rem
Ġbo olean
Ġbelie ved
Ġprote in
Ġj et
ik i
w orld
Ġh air
ed u
ĠR ay
. /
Ġgrav it
Ġmag azine
p op
Ġins ert
x ml
ĠM ic
Ġbusiness es
Ch ild
d f
Ġb ird
och astic
ĠWil son
Ġthous ands
Ġstand ards
mod els
Ġcall ing
A Y
i ota
ult y
ĠP op
C ase
Ġm unicip
ĠAn other
dition al
t ure
Ġcry st
c i
Ġreview s
Ġpie ces
Ġsc ope
Ġen em
ĠW he
Ġin verse
che ster
Ġencou rag
Ġapp eal
Ġsim ultane
ro b
Ġconst ants
Ġupd ated
Ġf ib
el se
Ġz one
Ġk ick
Ġcitiz ens
l as
Ġne ural
ĠApp endix
z ed
Ġher self
Ġgu ide
Ġconcern s
ĠP oint
Ġclos er
Al though
ĠQue en
Ġcateg ories
Ġsecond ary
lang u
Ġc ouncil
ĉĉ Ċ
Ġt ight
] $,
us hed
ca pe
Ġsatisf ied
ĠS ir
b et
ĠCar l
ĠE X
Ġs ister
Ġth read
Ġp al
ĠBe ach
Ġass igned
Ġsequ ences
ĠL o
ĠC ivil
Ġcomp at
d esc
Ġnecess arily
Ġh ab
Ġbul k
Ġvis ible
ĠCom put
Ġenerg ies
r ative
Equ al
ĠN one
ens ities
f ind
il a
ed ge
}} .
Ġperspect ive
197 8
al gebra
N O
Ġmur der
D T
ann ot
Ġdoc uments
ĠA ud
Ġter rit
G R
Ġlum inos
y o
Ġpredict ions
Ġf ell
Ġtemper atures
Ġadv anced
Ġc ere
P H
ĠAs sembly
197 2
^{ *
arg s
Ġprec isely
ĠC all
Che ck
ul ating
circ le
ĠSecret ary
V is
Ġexc ited
m i
ĠF ederal
Ġderiv ative
ĠC ur
Ġmatch ing
ĠF our
Ġcontroll ed
Ġw itness
Att ribute
Ġbre aking
Ġvers ions
Ġn orthern
ĠC A
ad el
ĠAg ain
ject ed
ĠJ r
197 6
ĠG ar
Ġnear by
ĠM ajor
eli hood
empt yset
Ġ rom
ĠC amb
ĠSt an
Ġmax im
][ ]{
el ly
Ġfin ish
Ġdram a
ĠScot land
ne ver
burg h
Ġapp rec
ï ¿
ly wood
et ch
W rit
pro duct
s pe
Ġhel ps
ĠOh io
Ġ }{
D irect
8 00
Ġ\ ]
$ &
}_{ -
ut or
bra ce
ĠRepublic an
ast e
e z
197 4
ct ic
= #
Ġreg ional
Ġcar bon
Ġshe ll
ĠC ase
ĠB al
Ġdi agonal
. &
Ã³ n
Ġf ellow
per iment
Ġyou th
ak ed
Ġdivid ed
;\ ;\
S te
Ġst ack
h or
a us
ĠPar liament
,\ ,\
ĠT H
ĠAd minist
J ust
Ġfeel ing
N ull
pre c
Ġpl ants
an ta
or ough
Ġ( {\
ib li
C ell
c oh
ac ent
ĠB rad
c ard
Ġpost ed
} );
a ug
Ġtru ly
Ġinsp ired
Ġout er
Ġem ot
n am
Ġkeep ing
ĠR os
197 5
Ġs ale
ĠN avy
ĠL ittle
ĠStud ies
ĠP ass
ĠM ountain
Ġk id
ï¿ ½
med skip
Ġben ch
ĠG ener
Ġrec ording
Ġfac ility
D ist
par agraph
ps on
ov iet
Ġt rivial
Ġclass ic
] {\
Bl ock
ent ry
Ġfor t
197 7
Ġwe ather
ã ģ
ĠH ospital
ino is
ĠAmeric ans
Ġt urb
ver b
D ec
" ),
Ġcount y
f ull
ĠMicro soft
Ġcharacter istics
Ġmax imal
Ġw al
Ġtra ce
Ġcom fort
Ġsur g
OR T
Ġfund s
Ġd ance
ĠA p
Ġdi ver
ĠKore a
Ġlarg ely
Ġyour self
et al
paramet er
Ġcontrol s
m eta
Ġb asketball
fl oat
j son
nav bar
Ġv ir
d iff
An other
Ġhe av
ple t
ĠT w
ĠB ol
ou rier
t iny
K e
pl ane
Ġsupp osed
ĠOlymp ics
aram s
Ġl ift
}} ^{\
Ġf aster
O ptions
A c
Ġrepresent ing
O pen
! âĢĿ
P at
RE F
Ġb att
ul se
ent h
Ġclos ely
ĠC R
Ġanc ient
Ġca uses
ro vers
ĠD C
P age
ĠJer sey
Ġadv ance
form al
Ġclin ical
R eturn
Ġparticip ants
ĠS af
ur ations
Ġaud io
ĠD E
ens ed
Ġdemonstr ate
depend ence
Ġarriv ed
}} }\
s ch
ĠD ar
Ġ" ""
the re
ĠO l
Ġgrav ity
erv ation
v art
Ġprodu cer
Ġcon clusion
| }{
p ool
ĠE gypt
Ġrad ial
Ġtrans lation
ĠR om
langu age
ost er
rop ic
ĠPr ime
he ta
Ġeffect ively
ĠMich igan
10 1
p rivate
Ġelection s
ĠL ive
Ġmar riage
Ġsk y
Ġex clud
D C
Ġemploy ed
ĠT O
Ġenh ance
or ters
Ġw ire
ĠD onald
ism s
IN E
bt n
Ġaccept ed
vent ure
Ġcustom er
Ġprinc ipal
Ġ ×
ĠC M
Ġpath s
M en
ĠSte ve
pr ise
[ "
Ġsuccessful ly
Ġsupport ing
Ġli ber
ur i
gra de
L oad
Ġpass ing
Ġscient ific
Ġserv ing
ĠN on
Ġvers us
Ġessential ly
Ġpract ical
K E
Ġ iron
Ġpro min
al gorithm
Ġwin ner
ĠS us
Ġsh o
Ġj ourney
ĠK n
Ġcomp osed
e lect
ĠE st
ord an
Ġun s
Ġf illed
Ġarm y
Ġinst ruction
Ġsle ep
Ġconc ert
Ġte le
Ġsu c
ĠI raq
ĠR ights
ĠN ext
ord ers
eg er
Ġatt ended
t ree
ot he
197 3
v s
ĠB a
Ġr ational
Ġoff ering
er ies
Ġp rices
Ġmat hemat
ĠM ah
h ard
Ġlangu ages
ĠK ong
ĠR en
cuss ion
Ġsubsequ ent
Ġstrateg ies
um es
ien ced
br as
ep end
ĠN av
h ot
à ¥
Ġcan onical
A p
ĠK ent
Ġlow est
form at
el d
atur ally
Ġb ridge
Ġder ive
im er
Ġrecogn ition
Ġsurround ing
Ġw ww
ĠSch olar
Ġnon linear
at on
ou pl
Ġlabel s
Ġs and
Pro of
am ber
b p
Ġthem e
N on
Ab out
Ġp it
ĠS at
/ (
bm atrix
Ġext ent
[ -
ĠB oy
F O
iz abeth
Ġacc ident
Ġprop ose
ĠW ales
ograp her
ic ular
ĠBro ok
ĠProfess or
Ġintrodu ction
ch or
Ġhold ing
Ġhous ing
semb le
ĠS om
ĠTh ree
Ġco al
Ġpl anned
Ġse vere
m al
avel ength
Ġmark eting
c oll
ĠB ir
cle ar
ident ial
Ġmix ing
Ġv ideos
ĠG i
II I
Ġcur vature
Ġun f
ĠH ard
ann a
Ġ+ =
ĠF air
P o
Ġpriv acy
Ġact ress
Tr ue
Ġimprove ment
Ġm es
S che
ĠG reek
D B
empt y
ĠH and
p ush
ĠWind ows
s rc
Ġhot el
Ġincor por
Ġprep ared
Ġphot on
ĠF ood
Ġb undle
Ġquant ities
H ence
ĠC at
d irect
on ym
Ġgu ys
F actory
ĠS her
ĠM A
T A
ĠBro ad
Ġprim arily
Ä ģ
lo op
t ings
Ġrec over
ĠM as
Ġun iverse
ĠAs ian
G iven
W E
Ġstand s
ut ely
S ON
Ġth in
not es
Ġal umni
Ġs izes
ri p
Ġphot os
am i
Ġorgan ized
m o
al ing
Ġsomew hat
ĠIn f
Ġdou bt
M ult
Ġag ency
ĠIn it
Ġsound s
Ġ ,\
AN D
Ġeas ier
Ġassoci ation
ĠB ell
all ow
Ġcommon ly
ĠGeorg ia
ress ive
Ġm ac
Ġgeneral ized
D av
T oken
Ġdra wn
ipl es
par ison
Ġre produ
ĠM P
Ġv en
ĠI d
or i
new s
Ġlist en
Ġse asons
Ġarm s
Ġasympt otic
script size
)-- (
Cons ider
ĠW in
Ġsec ure
it ory
ĠEx t
Ġident ical
Ġmov es
M at
Ġgener ic
Ġmess ages
) }_
ĠO nce
ĠO x
Ġm el
Ġd rum
aw n
Comm and
ĠEmp ire
ev in
rick et
Ġdemonstr ated
Ġpl as
if est
ĠG iven
ĠO R
Ġreason able
T em
Ġtop ological
Ġdel i
ES S
Ġunivers al
Ġwait ing
form ed
Ġmole cular
Ġsuc ceed
ĠU r
Ġ era
st at
Ġcrow d
ĠM aster
An y
g eneral
Ġdepend ent
ĠGe V
}} =
h ire
L P
Ġd og
Ġsupp ose
Ġdisc rim
Ġsc ores
Ġdimens ional
ĠU se
H O
Ġf ish
Ġwor st
12 8
Ġdec isions
im ages
196 8
Ġwatch ing
__ __
Hand ler
D r
ĠH T
l arge
oc us
Ġabs ence
Ġent ries
em b
ge bras
Ġcoupl ed
m t
out s
A re
R I
as p
Ġconf lict
Ġro ut
ĠC ro
Ġ$ ,
ĠS P
Ġsp an
Ġen able
Ġexper iences
sl ash
lement ary
Ġ ing
og g
Ġex ceed
Ġtop ic
Ġex cess
eg o
Ġinter ior
ĠM ain
ĠS D
s upport
og ether
Ġtro ub
L ong
ari os
Ġmagn et
est ion
AB LE
Ġcl ients
Ġv ot
let on
Ġk in
Ġcomput ational
al ities
ic ious
om ent
h r
Ĥ ¬
out e
Ġhypothes is
Ġar c
} ~
L emma
ru ck
Ġdirection s
a ught
Ġb atter
ĠEn vironment
ir ty
Ġa f
ĠPak istan
ĠK ey
inst ein
Ġdou b
t yp
AR T
ĠA st
Ġvac uum
fig ures
Ġdeli very
Ġequ ality
Ġengine ering
Ġre ferences
Ġdynam ical
Ġinterpret ation
Ġsp end
Ġa mazing
Ġunder stood
H C
l ers
} |\
M T
ĠA ction
Ġc atal
ĠL ocal
Ġm useum
ta ch
red it
is a
Ġpl ate
X X
Ġsum mary
Ġmark ets
Ġacadem ic
m n
up date
ĠW at
D i
ĠS C
vart heta
Ġnot ion
ook ing
Ġth rows
Ġcho ices
Ġprogram ming
Ġoccur red
Ġsens itive
Ġembedd ing
Ġfight ing
Ġassum ing
te en
b ug
196 9
ĠA T
Ġeven ing
ĠPh ot
Ġb an
AL L
s id
Al so
Ġre ct
U I
Ġann ounce
ĠN et
\ }\
ĠĠĠĠĠĠĠĠ ĠĠĠĠĊ
Ġch art
g reen
197 1
Ġp ip
ĠPenn sylvania
ĠM ov
: =\
st atus
ak s
ĠRe v
i pe
Ġac id
u v
ĠS N
edd ing
ĠH un
ĠF ox
Ġwor se
m ode
Ġvar iance
Ġevalu ated
Le ft
Ġcorre ctions
" ]
Ġmanufact ure
Ġcontrib ute
ĠO p
Ġexpress ions
ob j
force ment
ro sc
ail ed
18 0
Ġadv oc
V ersion
Ġ( (
Ġcol on
* /
Ġg ate
ell o
16 0
ĠT oday
ay a
= .
ĠCor poration
ĠK enn
Ġrepresent ative
Ġdecre ase
ra ined
es ides
Ġpurch ase
B uffer
al so
pe ople
Ġmov ies
cont rol
ĠE nt
dition ally
Ġbring s
ax is
Ġb ow
Ġsp ac
Ġrece iving
eng ers
ram ework
ar ity
Ġcorre ction
Ġcover ing
asc ript
Ġrelations hips
ĠI T
ser ver
Ġsim plic
+ (
Ġcrim inal
fr ame
d ney
Ġfil ed
Ġmult ip
Ġconcern ed
Ġro les
> \
ĠS on
Ġindust rial
AC K
Ġapproxim ate
Ġquant ity
ar ters
Ġs udden
column width
Ġs an
P ort
Ġre nd
}$ }
Ġdeterm in
Ġbo ost
ĠM att
Ġf old
ð Ł
point s
ĠSt ory
Ġhelp ing
r ins
Ġepis odes
H L
Ġst orm
ĠP age
ĠIll inois
d ocument
Ġconn ections
ĠSc iences
ĠR h
Ġdef initely
ĠS ep
Ġtest ed
Ġalleg ed
Ġresear chers
Ġmed al
G A
Ġcover s
Ġ ..
serv ice
Ġp un
Ġan imal
\ }$,
ive red
Ġpract ices
Ġca ught
Ġact ors
Ġdet ector
Ġconcent ration
Se cond
am l
Ġs we
Ġpres ents
Ġcol our
Ġc art
rang ian
B U
ĠL ew
ĠS ign
Ġfluct uations
Ġ urban
ĠSt ation
tikz picture
Ġcapt ured
ĠV ill
Ġelect ro
Ġadv ice
ĠI R
rit ical
ĠTr ust
Ġsign s
ĠB attle
Ġg ift
Ġag greg
ĠW ars
st e
cl ine
v o
ĠL abor
olog ist
Def ault
de p
Ġdef end
Ġprof iles
Ġsp ons
ĠPr ince
Ġsh aring
at iv
ad ed
ind s
im ation
Ġliqu id
Ġfam iliar
Ġcomp re
Ġaccount s
w orth
ĠEngine ering
Res ource
Ġemb od
ĠInst ead
Ġc risis
sl ant
Ġw estern
\% $
& =\
ĠT y
Ġstand ing
Ġsat ell
Ġfind ings
B B
ĠHig gs
ĠChe ck
reg ular
E ach
f ast
ĠP y
A g
ĠB ang
Ġfew er
iss on
Ġneut ral
Ġwh atever
it ter
Ġc e
Ġsupport s
ĠP en
ub ble
Ġsup erv
ĠS i
b ot
ĠH ong
Ġposs ess
Ġfeat uring
Ġset up
resp onse
g ers
Â °
Ġcre ative
Ġautom atically
P op
ĠR et
C urrent
ĠH om
ors hip
Ġread ers
Ġcap able
er al
pt ed
ĠA sh
ĠE astern
St yle
Ġg rew
pl ot
ĠSe ason
Ġjust ice
Ġv ent
ir ror
Ġmin ister
ĠR og
ak i
Ġm ere
Ġcomm ut
Ġcru cial
ĠTor onto
Ġp apers
L ocal
ul ner
Ġl oved
og onal
ĠN C
the less
end ar
Ġext ensive
Ġcirc uit
em ic
sc ious
Ġcomm ittee
Ġacqu ired
Ġs ac
fil ter
ug by
Ġded u
Ġoff set
au x
ĠR a
E arly
W orld
B E
ra ine
Ġhum ans
Ġfif th
A ust
et ts
Ġm ental
Ġt um
in ating
Ġext reme
ce ived
h l
Ġsign ature
Ġexpand ed
Ġhe aring
Ġgreat est
ru ption
Ġcom edy
Ġsh ares
G E
Ġspe aking
Ġst ead
includ ing
Ġrec ip
Ġdeb ate
Ar g
multi row
ĠB on
Ġgener ating
ĠR od
Ġexper ienced
ĠF re
ĠGu ard
j pg
ap ore
Ġp ra
Ġfootball ers
Ġn arr
u z
re ll
Ġl ose
cl ip
Ġdro pped
ĠB BC
Ġc ash
ĠC as
osop hy
st ances
it o
ĠN OT
Ġfav our
ĠT al
R R
Ġmed ian
Ġwe alth
un a
ii i
12 5
Ġeigen values
Ġdriv en
R ed
ak ers
ĠOr ig
Ġd ense
ul ing
ER R
Ġquas i
Ġcon d
. \\
se x
Ġnew ly
sequ ently
! "
ĠB and
B i
Ġm ent
ĠCh air
Ġsk in
ain ed
s i
Ġluminos ity
196 7
es ian
N ational
Ġtrans action
Ġserv es
Ġgu ard
Ġappro ved
Ġb odies
sh ould
ant ly
out put
sub sec
âĢ ī
Ġinc red
ĠV ideo
Ġinf o
Ġpotential ly
ĠChild ren
Ġstat ements
Ġd ashed
p res
in ction
ĠN ick
equ ations
or gan
rib uted
Ġd x
Ġper man
X i
Ġan om
Ġa wards
ĠGovern or
is ot
ant um
F ONT
Ġauthor ities
Ġlink ed
ĠH o
Ġst ochastic
Ġhon or
Ġstre t
ymmet ric
ĠĠĠĠĠĠĠĠĠĠĠĠĠĠĠĠĠĠĠĠĠĠĠĠĠĠĠĠĠĠĠĠ ĠĠĠĠĠĠĠĠĠĠĠĠĠĠĠĠĠĠĠĠĠĠĠĠĠĠĠĠĠĠĠĠ
han ced
h av
ĠBook s
st d
p ower
Ġauthor ity
P O
12 3
st yles
Ġhom es
ĠC irc
Ġillust r
tt p
t z
Ġhous es
Ġco oper
Ġsh ips
ĠCon f
Ġsup ers
k it
ol is
v y
Ġre ar
Ġsto pped
ĠW is
ĠE u
riv acy
00 1
S N
rib ed
19 40
C ent
Ġpolitic ian
Ġsepar ation
Ġneg ot
Ġcrit eria
S ing
ach us
ĠP R
duc ible
Ġcomm itted
ĠEd ward
Ġis ot
Ġrough ly
ĠS oviet
G eneral
Ġf aces
Ġp ed
ĠÂ ·
ĠAre a
19 30
id ay
Ġg ender
More over
u ated
Ġb ass
ĠSup reme
com put
oc cer
comm on
H ar
Ġcont rovers
Ġg ene
Ġmin ute
L ocation
Ġsur faces
ĠRep resent
ĠN ever
Ġf ont
g ment
rag on
Ġm eta
S uppose
Ġend ing
Ġab use
Ġw arn
ĠB ad
ĠI V
We b
Ġvari ations
ar ma
Ġinstit utions
ĠB C
os er
Ġ{ };
C are
^{ (\
ĠS upport
ĠL td
Eng lish
J an
iction ary
196 4
Se lect
Ġes cape
ĠN a
ĠCons ider
k ind
ir ation
h ave
Form at
ib ilities
Ġ esc
Ġequival ence
neg ative
iss ue
Ġt on
not ag
S l
ann er
Ġele v
are st
Ġne ither
ri or
Ġinvol ves
Ġrem ote
Ġattempt s
D esc
Ġph ases
ĠM ount
Ġinterest s
Ġinf rastructure
^* \
ĠK ir
v als
Ġg iant
$- $
Ġvol unte
L i
Ġalong side
pl us
em an
Ġscen es
In it
Ġoper ated
ĠB rand
Ġprof ession
Ġconf irm
Ġredu ces
( -\
ĠB all
Ġearn ed
Ġregist ered
ĠAd am
en ance
Ġout come
ĠGu ide
re lation
ort ion
Ġim possible
Ġconsist ing
ĠCont rol
ĠS ky
M ost
ĠC ost
Ġc ab
ĠD igital
Ġh aven
Ġstrong er
ow nt
G en
E very
N C
ef ined
Con st
Ġupd ates
ĠComm on
le ments
Cre ate
Ġrespect ive
D O
Ġinter mediate
ac le
Ġjud ge
Ġhy brid
Ġresist ance
s ince
and ra
ph ia
Ġfl ood
Ġshoot ing
ub b
\ |\
O h
P ar
T ask
d rop
ĠFore st
an th
ĠT urn
fr ont
Ġre ward
Ġprofess or
D em
Ġlic ense
miss ions
Ġv on
p et
hens ive
Ġanal ys
requ ire
B efore
ĠJ ean
achus etts
ĠĠ čĊ
196 5
enn es
G a
par allel
w hen
ĠA venue
Ġm il
ĠE vent
ar ith
Ġinst ances
ĠExec utive
ĠF C
ir ical
Ġfrequ ently
ang ular
) })
ĠI mm
Ð »
Ġdel ivered
Ġperturb ation
U pdate
Ġg ar
Ġrecogn ized
Ġt ang
Ġ riv
ĠUn ivers
ro ot
u able
Ġst im
Ġest ate
f act
Ġsent ence
) [
Ġc as
B undle
ĠC ru
UR L
Ġdec ade
et ies
S ign
Ġ$\ {\
ĠTh rough
Ġm ort
ĠAn th
ĠA D
Ġvoc als
Ġcop ies
Ġtal ks
ow ered
s quare
) ^\
Ġa thlet
Ġexp osure
riz ona
ĠS O
Ġsub sc
Ġf ol
ren cy
Ġst ored
Ġreconst ruction
Ġint elligence
ĠJac ob
h al
n amed
Ġimmedi ate
ou ch
Ġwall s
i pping
Ġsepar ated
S F
ĠL uc
Ġte aching
ver age
ĠEl izabeth
cl osed
Ġtot ally
ĠSystem s
ol s
Ġn ut
ĠF ord
adel phia
Ġpublic ation
Ġsens itivity
form ing
ĠColumb ia
Ġperform ances
Ġh un
Ġexec ution
Ġgravit ational
n ic
B P
Ġd ry
19 45
Ġins urance
w ave
' ).
ĠS em
Ġhistor ic
Ġcont emporary
men u
Ġs ight
al ty
Ġbring ing
ual ity
Ġin ternet
ab et
ra ys
Ġp uls
ĠC ode
Ġinvestig ated
phant om
Ġb omb
ĠSan ta
Ġsynt hes
Ġpoint ed
O K
196 6
Def inition
ibli ography
ad i
ĠD M
Ġdomin ant
. [
ĠD NA
Ġprogram me
. '
gl obal
Ġre fere
fin ite
Ġsee k
th on
Ġident ification
oot st
ib ration
script scriptstyle
tain ment
& -
ĠLat in
w s
}\ |
text up
Ġl osing
ĠM ap
Ġillust rated
~ (\
Ġs quad
ĠSo ft
ur st
cor ollary
Ġput ting
Ġaccom pl
) ).
ĠMin istry
Ġsur ve
Ġun able
math it
it led
ref erence
ur d
Ġreg ul
ĠE ric
Ġult imately
Ġh ierarch
Ġc ir
à ¦
pt r
ĠAlex ander
] ]
Ġgeomet ric
ta ke
ĠM ach
Ġpolar ization
Ġt ack
Ph oto
w ill
Ġconvent ional
Fil ter
Ġhon est
; "
y es
ĠLic ense
Ġconserv ation
angu age
E v
id ae
Ġind ices
Ġc reat
p red
T ags
ĠD ark
Ġpolitic ians
Ġ{ @
ĠD am
st ic
Ġrestrict ed
ĠStep hen
ĠD oug
Ġte en
- (
D escription
Ġfact s
Ġs oul
ĠT erm
Ġm ask
Ġtarget s
is or
ĠPro b
CO L
Ġprec ise
bold math
ph ot
Ġn aturally
Ġfe els
Ġf iction
25 6
e ven
ĠReg ister
un s
jav ascript
Ġlet ters
T rack
Ġarrest ed
Ġre tail
Ġcollabor ation
u on
oc y
comp onent
Ġfrequ encies
ĠO N
ic ial
Ġconfig urations
25 5
e h
Ġ à¤
og ram
Ġf itting
en ant
Ġmod er
Ġra in
nes ota
m ember
er on
Ġtem plate
Ġsold iers
ĠP lease
: </
ĠAP I
Ġw ins
Ġ url
Ġe at
Ġdec ide
Ġin clusion
ootst rap
B est
IN T
ch ain
inst ance
Con tain
Ġscen arios
Un ited
a is
Ġver ify
stack rel
S earch
up le
ff ee
Ġchalleng ing
rep resent
l ayout
Ġc ro
ial og
Ġf ly
Ġman age
! ]
ĠE th
Ġtechn ologies
Ġgen us
Ġpass ion
R C
ĠSy dney
Ġsu it
ĠM arg
ynam ics
19 20
Ġmechanism s
Q L
s upp
Ġse ed
ĠR ight
param s
reg on
Ġsw im
ĠS che
k g
c raft
Ã ±
Ġch apter
Ġc ub
ĠDav is
Ġdeg ener
Ġprec ision
ĠR est
$. }
Ġ{ }
ad er
Ġin hib
Ġstraight forward
Ġk illing
Ġfac ilit
Ġres c
m atch
Ġmetric s
text color
J o
Ġdom estic
Ġent ity
ĠK ar
oc racy
j u
H om
os a
Ġpan els
ys ical
af e
Ġb aby
Ġh alo
Ġm al
Ġc av
ever al
y ou
U nder
W ell
ĠOn line
ou red
ile y
ĠL ow
ask a
com b
are t
w atch
C ON
Ġl y
op es
As sum
Equ als
Ġproper ly
Val id
Ġcomplic ated
Out put
Ph one
Ġst ages
ĠDes pite
ĠS a
ĠV iet
ĠG P
Ġpropos al
ĠL ore
Ġreal ized
od cast
Ġfl ows
Ġa id
i ary
Le vel
D own
)} (\
l ights
ivers ary
Ġwill ing
Ġn ob
13 0
Ġinst alled
Ġdiscuss ions
Ġpresent ation
is lation
ĠChampions hips
^* (
Col umn
Ġweap ons
ĠW here
ar on
Ġhundred s
Ġnormal ized
sh ort
ĠD utch
z ing
ĠG rant
Ġdom inated
V ol
Ġf estival
im ary
ear ing
um a
ag en
Ġrespons ibility
H igh
Ġhoriz ontal
th ur
ĠM L
ĠA li
Ġro ots
Cont roller
Ð º
Un iversity
Ġadj acent
Ġexplan ation
Ġyoung er
Ġw avelength
Ġref ers
Ġconj ug
Ġask ing
âĢĻ .
Ġdef ines
ĠG ro
Ġdefe ated
od ge
Ġcolumn s
Ġbuff er
cer ning
ĠM C
ĠD ate
Ġ _{\
is ode
ĠAn alysis
Ġre new
Ġwin ter
Ġmet all
Ġh its
Ġcomp ens
ĠF ollowing
f ol
r ase
ĠM O
ĠCount ry
Ġc raft
iss ions
Ġabsol utely
Ġ- --
ag a
! \
h fill
Ġsol ving
I B
ĠK now
Ġprodu ces
Ġcharacter ized
Ġg ather
q l
ĠL O
Ġperiod ic
spec ial
ĠB ul
Ġad ult
ĠN AS
Ġsubsequ ently
ĠR ose
Ġrestaur ant
Ch rist
M c
sy m
ject ive
Ġs now
um ps
Ġv otes
Ġ }}
Ġdi verse
Ġpref er
D L
Ġcon sec
_{ +
Ġ\ ,\
art icle
Ġso le
Ġaff ord
Ġr ide
ĠV en
&= &\
Ġhor se
ĠA k
Ġexplain s
Ġuncertaint ies
G r
Ġsimultane ously
Sc ript
ĠInd epend
Ġm m
at he
Ġwas te
St ar
contain er
cul es
ut t
Ġh a
Ġreg ister
ĠM iller
Ġh ang
H is
Ġdo ctor
p ed
ĠS E
rem ove
| ^{
Ġrequire ment
ĠAnd roid
ĠA ge
Ġst ick
Ġb ought
Ġ< !--
// /
Ġderiv atives
ĠM ill
Ġprom ote
ĠB ru
w as
ph y
ĠSt art
ĠAnt on
S up
ER S
Ġuniform ly
Ġsurpr ising
M r
ĠPh oto
Ġsystem atic
. âĢĻ
Ġb ran
ov al
Ġprodu cing
Ġform ulation
ane ous
R ad
igr ants
or ry
Ġmodel ing
Ġabsor ption
ĠH op
ĠĠĠĠĠĠĠĠĠĠĠĠĠĠĠĠ ĠĠĠĠĠĠĠĠĠĠĠĠĠĠĠĠĠĠĠ
ater n
L ayout
ord on
Ġh all
}{ *
V er
ĠF ull
Ġocc asion
ra v
ĠT am
Ġorient ation
ĠR yan
ĠHar ry
A E
ĠH ay
ĠBer lin
G S
ĠOx ford
ere r
ph ase
and y
ĠScott ish
St ep
ou ston
( &
Ġsh op
back slash
Ġsim ilarly
New s
Ġ* *
Ġelect rons
N otes
ĠMass achusetts
Ġhard ware
Ġl ens
ĠColor ado
B rit
Ġcol ors
Ġpromin ent
G P
Ġatt ached
Ġc odes
ĠC ub
Ġmat ters
ent ity
Ġturn ing
Ġman ip
g ot
b efore
enc ing
rom agnetic
y ard
sy mmet
ĠPort ug
Ġhoriz on
Ġexpl os
ĠB efore
Ġr ural
G M
Ġd uration
ĠSta ff
ĠĠĠĠĠĠĠĠĠĠĠĠĠĠĠĠ ĠĠĠĠĠ
Ġnewsp aper
Ġrapid ly
sh all
Ġin tern
s es
ĠG R
Ġag ric
ĠC reek
T ube
Ġdrug s
ĠCl inton
ex ists
ĠM ath
Ġd ensities
Ġv irt
Ġat oms
Ġstrict ly
her ical
Ġread s
Ġdisc overy
Ġexpect ation
Ġv ess
ow ski
Ġd ress
ĠDe ad
az e
inv ariant
w ords
Ġtit les
ian g
Ġm it
Ġpop ulations
osp it
F S
}$ \
Ġrail way
ĠD om
Ġpost s
Ġvary ing
bour ne
Ġv ulner
Ġproport ional
pl es
Ġperson nel
Ġl es
ĠC ond
Ġl ock
Ġy es
F M
ĠF ourier
ĠArt icle
o a
con sin
ĠB rian
Ġre venue
\! \
rins ic
ob serv
ĠVictor ia
Add ress
Ġatmosp here
Ġm ount
ist ence
ĠF inal
ĠJ ordan
c p
f iles
y ers
Ġre form
e ah
ĠP ay
Ġdestroy ed
ĠE s
ly n
p resent
ow a
ĠP A
ĠO nt
ĠW atch
ĠIs lands
ĠTur key
Ġquadr atic
end if
Ġfor get
Ġincreasing ly
L ength
Ġm ob
class es
ĠH as
Ġsp ending
Ġsche dule
Ġrec overy
Ġexp ensive
Ġestablish ments
ro ke
Ġra w
196 3
Ġsc r
oc ated
ĠMark et
Ġab and
w ing
List ener
//////// ////////
Ġlog ic
Ġbut ton
ĠL ady
Dav id
ug s
@ {
Ġhol es
Ġrelig ion
h s
T ypes
Ġcont est
M ain
su ccess
Ġgener ator
Ġv eter
ple x
sh op
Ġst ores
Ġch a
pre ne
ĠA ccess
Ġto ken
spec ific
P ack
ĠS uppose
ĠR oss
U C
Ġdiff usion
D ev
Ġse es
& &\
ex ec
ĠSing apore
Ġsil ver
ast y
Ġbrief ly
| $
W here
Ġdefinition s
St at
iz able
writ er
Ġde viation
b en
ific ial
But ton
ul us
ic ide
Ġresult ed
Ġcamp us
St ud
_ .
J u
âĢĻ ,
V I
in ch
Ġneutr ino
Ġ urg
Ġacc ord
Ġpro ud
Ġemer gency
rop ical
et ary
paramet ers
Ġbas eline
el le
Ġworld wide
b c
Ġart s
Ġopp osition
ĠHot el
ĠAnd erson
196 2
Ġtransition s
th rough
e en
Y es
n ed
M E
k ern
{ (\
Ġad vers
Ġclub s
Ġdis pl
Ġconsum er
Ġanaly tic
Ġslow ly
Ġv ast
Ġaut hent
ĠCL ASS
styles he
ĠK at
ä ¸
Ġtro ops
7 00
Ġab stract
Ġacc ret
Ġsh arp
Ġdisplay ed
Ġp ray
v as
< ?
b rane
$ ^{
Ġtrans verse
Ġexpert s
A uthor
Ġm outh
ĠF ile
Ġp ictures
Ġv ice
Ġk it
Ge V
D at
ĠGold en
ject ure
re prene
Ġexerc ise
Ġdanger ous
ĠMed icine
Ġb are
ul pt
Ġreport ing
Ġsee king
Ġre nt
Ġre in
Ġconvers ation
Ġdes cent
ĠH REF
Ġan not
G O
ĠHistor ic
ĠT ext
erv ing
Ġcontinu um
ĠDis c
ĠĠĠĠĠĠĠĠĠĠĠĠĠĠĠĠ ĠĠĠĠ
d est
viron ments
b ec
C le
ic ian
ĠB or
ĠStr ateg
Ġfor th
) (\
ess ions
Ġcor porate
ve ct
ĠP rom
Ġsched uled
down arrow
Ġst one
ĠM S
Ġconven ient
Ġbl ow
Ġse ats
Ġr is
ĠB an
co in
ĠP ack
Ġtop ology
ag ues
oun sel
Ġl aser
AG E
Ġvictim s
ar ia
Ġinstit ution
ĠS n
$ ^
Ġsol o
S outh
ĠN ether
Ġalgebra ic
ĠS upp
Ġbig ger
M any
is ition
Ġsche mes
Ġredu cing
Ġsum m
Ġcut s
Ġdecre ases
Ġaccom mod
ĠBel g
ĠP ubl
f amily
ĠHol lywood
) }.
Ġf its
Ġiter ation
con duct
Â ©
Ġret ired
ura ble
ĠF ac
Ġmod ules
d oor
dis c
O ct
ĠP ers
i ot
Ġvis ited
' ),
w all
ĠMag azine
ok ing
Ġ$ ^{
Ġapparent ly
im p
Ġc ensus
Ġsp oke
ĠS ab
ĠE N
ĠL es
Ġapplic able
ĠF all
comple te
ĠI ss
$\ ,
ĠSim ilarly
\| _
r ine
S u
Ġon going
al ed
ĠAdminist ration
Ġla ugh
Ġbound aries
M ode
Ġst abil
aw s
Ġscient ists
O p
Ġe cho
ĠS ant
ĠR equ
Ġhom ogeneous
Ġy ards
ou ri
A ccess
a ire
Ġrestrict ion
Ġcoll ision
Ġt rib
mod ules
ĠKore an
Ġapp lies
Ġsit uations
iam i
Ġn an
Ġtransfer red
me an
Ġhab it
Ġs elling
st ery
ĠR ome
H D
eder ation
g ather
ĠPal est
ĠG allery
Ġisol ated
aint enance
ĠMe an
Ġstri ke
Ġconsider ation
function s
Ġpre ced
n m
ĠY es
ativ istic
Ġleg isl
Ġassess ment
Ġsurg ery
Y ear
IG N
g ame
ra ce
Ġbo ys
d ifferent
Ġteacher s
Ġpercent age
Ġconsum ption
ĠW el
Ġoper ate
pro pto
Ġgu est
Ġcall back
Ġsus pect
Ġatt ribute
Ġdomain s
ĠC art
P ublic
Ġacc used
Ġord inary
Ġwalk ing
u y
Ġdri vers
Ġplas ma
Ġperiod s
Ġm and
struct ure
j an
Ġt elling
Ġpay ment
mult line
el ian
Ġinstrum ent
en um
Ġcompat ible
ĠN FL
Pro ject
P res
ast s
F P
ymmet ry
Ġsubject s
} /\
Ġanaly ze
ĠB ox
Pro t
erm i
Ġqu ot
er ion
Q ue
ĠSt adium
Ġsens or
A pr
sup er
ĠBuild ing
Ġent ang
mer ce
Ġdecl ared
Ġpartners hip
ĠH art
iem ann
tern oon
Ġtem poral
on ia
Ġd iversity
Ġshe l
M ich
ific ate
Ġmiss ed
U rl
ĠD un
iam ond
Ġopp osed
Ġrob ot
' _{
el esc
off set
ĠPol and
}. }
or ous
Ġcorrel ations
Ä ĩ
ĠMin nesota
ĠD O
Ġp itch
ta x
ĠG er
du ate
roll ed
Ġview ed
Ġd im
sp in
ĠA rizona
Ġamount s
Ġbase ball
Ġorth ogonal
ĠIm age
B en
es ome
Ġb ath
Ġthought s
Ġch ose
ĠLag rangian
A nt
F ollowing
Ġloss es
ĠP ut
T arget
ĠJew s
Ġleg end
s n
Ġa cknowled
Ġh ist
Ġe c
Ġg od
Ġqu iet
Ġb id
Ġexhib it
Ġc ards
med ia
d am
ĠN ame
% ,
Ġ\ [
t age
ag an
Ġf iber
T T
En c
ĠC ON
ĠL ater
Rec ord
Ġpro position
over s
ch a
ĠA I
Ġhealth y
A ug
Ġca using
ĠĠĠĠĠĠĠĠĠĠĠĠĠĠĠĠ ĠĠ
{ |
ĠLew is
Ġl ists
ĠStand ard
m ad
ri ers
Ġrat ios
Ġneigh b
ĠEx pl
ĠPhil adelphia
Ġsp here
s ite
Ġwel come
V E
Ġorb ital
Ġgrant ed
ĠR aj
up arrow
B bb
ĠT ransport
ĠP ot
Ġdist ances
h ou
z o
ĠK evin
Ġtal ent
Ġp y
U RE
ĠBro ther
R ow
ĠA S
IT Y
text sf
ĠG ree
og y
Ġobvious ly
Re v
Å į
az a
foot notes
}) ^{
Ġair port
Ġ! ==
Ġresid ual
B H
196 1
Ġ elli
ĠO t
Ġf ault
ĠSh ort
Ã £
th ick
ĠB at
se ason
ra ud
Ġun iqu
ĠE ff
S k
Ġcr ash
conn ected
f ortunately
Ġstre ets
Ġsurpr ise
Ġpart ially
Ġf ab
Pl ay
Ġs ad
Ġreturn ing
H er
D I
Ġproced ures
inem a
Ġreve als
Ġvisit ors
Ġas sets
ĠProv ince
ĠT ok
ploy ment
ĠNether lands
Ġfound er
ĠC ustom
ĠT ony
Ġb ag
ĠL ind
Ġeas tern
Ġch ampion
Ġfl oat
Ġfl o
par se
ĠM oh
Ġdesc ript
ester day
Ġd ip
ound ed
ĠT ro
#### ####
Ġsymbol s
B ecause
Ġy ellow
*} [
ĠD er
ct x
y stem
Ġsuff ered
Ġat omic
Ġint ent
Ġb ott
Ġhead s
Ġcan cell
U K
`` `
footnotes ize
t ask
14 0
Ġus age
ĠAtl antic
ĠB ridge
ĠA z
ĠCon st
Ġw ing
d ensity
ĠO cean
Ġtw enty
Ġthe rapy
ĠJ enn
hed ral
Ġassist ant
att r
field s
d ouble
Ġindic ating
ers hip
Ġdiagram s
) ),
ĠJes us
Ġf er
Ġconstit u
ĠO regon
Ġtra il
p erson
p ie
ĠN ations
ab out
Ġl ots
alax y
] ^
Ġf asc
Ġ })
Mem bers
Ġwhe never
Ġdescrib ing
w ho
Ġform ul
Ġrandom ly
="../../../../ ../
re ement
f ire
Ġland scape
Ġoffic ially
Ġgain ed
Ġmonitor ing
Ser ver
T ree
Ġweight ed
t ed
ĠDemocr ats
Ġdis put
Ġw ine
ĠV eg
}{ {\
small skip
prot otype
Ġenjoy ed
Ġb ars
Ġbro ke
Ġstudy ing
c ers
Ġleg islation
ĠSt ock
ik a
Ġm ine
ĠB ab
Ġpass es
b its
Ġirre ducible
ĠAff airs
. $$
ĠRes ults
Ġchampions hip
el lect
Ġbo at
Ġbelong s
Ġcomp aring
Ġstruct ural
ĠSt one
Ġpolynomial s
im its
Ġl it
Ġinput s
M F
Ġcomplet ion
Ġpres c
Ġret rie
ĠF OR
Ġwe ar
Ġmag ic
re nd
ĠM ember
ĠN O
Ġexcit ing
ĠPro cess
Ġv o
Ġlik elihood
Ġsing les
ĠDe ath
ĠAr gent
% .
Ġw a
p ay
ĠOffic er
Ġdisp ersion
ĠCh all
et he
ĠM oon
O rig
Ġcompar able
ĠJ am
Ġgood s
ĠDis ney
Pro cess
ĠSim on
ost ic
oc a
ep ing
W rite
ĠH ung
gress ive
C ache
Ġs itting
ĠF riend
Ġst ood
oid s
Ġheav ily
ĠW inter
.& .&
n ol
om er
ĠF uture
ym ph
Ġf at
Ġp ump
N ames
$\ \
ĠCor ollary
cy cle
ĠH an
Ġre volution
ĠTr ue
f n
ch annel
Ġindu ction
10 5
Ġgrow n
Ġout comes
ĠA h
ownt own
form er
per ial
Or der
Ġrac es
ĠMon te
ĠM ake
id al
ĠLe on
ĠCamb ridge
aw ay
ĠS H
3 60
ĠD ue
ist ing
Ġbeaut y
Ġaccess ible
Ġad ults
Ġdef ining
Ġbench mark
C ap
ack s
P ass
Ġt aught
Ġre plic
Ġsol ved
ĠT R
Ġ[ ]
im m
ĉĉĉĉ ĉĉĉ
}^{ +
C lick
Ġret ire
ĠC orn
Ġextract ed
$ '
Ġb anks
Paramet er
ĠCol lection
Ġsim ulated
ĠCont in
Ġpil ot
Ġaff ili
ĠCre ate
Ġfac ing
Ġa u
ĠPri ze
Ġdoll ars
Ġadvert ising
Ġreg ression
Ġrequ ests
Ġag encies
coh ol
Ġcomb at
Ġas sembly
Ġreson ance
ĠTur k
Ġfall s
V ideo
1 12
Ġo x
Cont rol
ist ant
Ġhost ed
19 44
ĠDef inition
Ġhe ter
Ġw ra
chang ed
ĠC ab
Prov ider
im pl
Ġadd s
ĠN az
ĠD ream
p ref
Ġimp ly
Ġembedd ed
ĠÂ ©
cor respond
F rame
Ġm o
st s
Ġtop ics
ĠOlymp ic
Ġs in
m oment
old er
ect ors
U se
left arrow
t ics
Ġphot ograph
{ .
ĠPr inc
ma king
Ġcompre hensive
E ven
Ġvot ers
195 9
Ġcontroll er
ĠC ulture
ro it
g han
Ġh ate
ri ver
Ġde bt
en berg
W idth
ĠEnter tainment
ĠWis consin
Ġdefe at
ĠS av
end a
ĠOnt ario
ĠReg ion
Ġpl enty
Ġil legal
Ġwin ners
Ġen vironments
Ġa ug
Ġcommun ications
ĠMan ager
Ġreach ing
Ġb inding
Ġre vers
equ al
off s
ĠA mb
op her
Ġen hanced
Ġinfl ation
Ġsimplic ity
ĠOffic ial
c ross
w ick
ĠE dition
ĠL iter
ĠT ake
ĠLear ning
l ower
ĠCap tain
Big g
ĠAg ency
Ġ ~\
R T
Ġconsequ ences
: (
Ġen semble
Z E
aw are
ĠChe m
qu arters
Ġdesign s
S w
U P
ĠC NN
get s
) _{\
Ġcoll apse
10 2
=\ {
k h
Ġun us
ĠOb serv
Ġd t
Ġrespons es
Ġcross ing
195 8
ĠCh annel
aud i
Ġcon volution
Bl ack
Ġguarant ee
Ġpix el
ennes see
dom ain
ĠFore ign
Ġsym pt
c ategory
=" -
os ph
ĠE P
Ġcarry ing
Ġb its
un es
Ġarg ue
Ġin her
Ġfair ly
Ġpurch ased
I E
om atic
ĠTh ose
ĠDi ego
Ġconcept s
bin om
,... ,
++ )
st ates
ma kers
ok ed
Ent ry
ĠK a
ĠC E
ĠC ook
ĠU V
Ġs ending
ra ble
Ġatt ributes
el son
IC E
Ġex port
her ic
ĠJ ane
ĠMan chester
Ġwonder ful
K S
ĠN umber
........ ........
Ġwrit es
Ġcompet itive
ĠH ouston
ĠTra ining
Ġeduc ational
Ġtraject ory
Ġindependent ly
Ġtrack ing
d ers
Ġch iral
i ac
part icle
Ġneigh bour
ĠMod ern
Ġtransform ations
resp ect
Ġrecomm ended
Ch ang
P an
Ġassist ance
if iers
at in
ĠL A
Ġcircum stances
ĠS ound
const ruct
Ġcompl aint
v ard
mod al
ateg ories
idel ines
\ },
p ers
il st
Ġg ro
Ġreli able
Ġsub space
ĠPat rick
ĠYou Tube
com ment
ac cess
} >
Ġprov ider
Ġro y
b ad
V ID
ĠHe art
col n
F IG
D et
Ġser ial
P N
ĠG ib
m aster
g ood
rib le
ol i
Ġsch olar
ĠRe volution
A v
ĠS ite
Ġexhib ition
r ations
Ġprinc iples
TY PE
b urn
li x
Ġpl astic
Ġconvert ed
Ġaf ternoon
or ient
raz y
Ġmill ions
Ñ ĥ
Ġs weet
put ation
V ar
Ġval uable
Ġob st
Ġpro sec
Ġimag ine
ĠCo oper
ĠD at
ant e
Ġass ault
ĠPl ace
Ġaim s
ĠM D
ĠMo ore
ur ric
se p
Ġs ought
% ;
Ġprov en
Ġin dependence
Ġentertain ment
Ġbatter y
M usic
Ġreplace ment
um in
cre en
prob lem
ĠM it
AC T
Ġconsec utive
M D
ĠB udd
Ġmorph ism
Ġwhe el
Ġre act
195 7
Ġstead y
ann y
ĠRail way
Ġplatform s
con c
P lease
ĠB ush
ĠCl in
S W
Ġsignific ance
us cript
ĠQue ens
Ġemot ional
an es
Ġprov ince
ĠAr ray
ass um
j e
Aust ral
hold er
Ġdocument ary
ig e
Ġpull ed
Ġsc oring
Ġreal istic
F ull
ail s
Ġcook ies
v ia
Ġacc um
ĠH ilbert
Ġprot est
Ġferm ion
m ony
Ġreal ize
ak h
Ġcon cerning
Î ±
art ifact
Ġsl ope
lik ely
Ġd il
N one
Ġinj ured
Ġsatell ite
Ġcon crete
11 1
d riv
Ġstring s
Ġlo an
Ġparticip ate
ĠR oll
St r
Ġaccret ion
Ġpick ed
place ment
tain ed
Ġprob e
ĠAm ong
Ġreconst ruct
ob by
d on
res ource
195 6
Ġne ur
E Q
Off set
and al
ĠF IG
Ġexpl oration
Ġc yl
Ġcl ock
V ari
Ġh at
ĠComm and
Ġc od
Ġpers ons
Ġh al
19 48
h us
Ġconsum ers
d ict
s is
Ġpref erred
is ations
) }$.
Ġim aging
ic ians
\ }.
ĠM rs
requ ency
ĠAl gorithm
Ġtra v
Ġsett lement
Care er
ĠR on
f all
l u
here nce
st op
st ers
st ore
Ġinter vals
ĠSc ient
Ġro of
Ġcre ates
Ġsubstant ial
t or
ers et
i at
ut her
vent h
Pro p
ar ry
Ġle ct
ĠK ansas
Ġde pos
W est
ĠSen ior
Ġste el
ĠN ig
Ex ec
Ġequ ipped
$ }}
Ġenem y
Ġpresident ial
ol itan
var rho
bet ween
ĠS ix
in dependent
ĠMem orial
sc reen
int end
ul ator
S ym
Ġinv ent
Ġv ort
d ash
id ers
ili ary
ar ation
D el
Ġexp osed
vious ly
Ġterrit ory
i est
Ġ: :
In ternational
S pe
Pro position
ĠS ho
Ġconserv ative
ĠMar c
Ġanaly zed
ant ry
( _
Ġke ys
H R
Ġ ic
st ud
at ar
Ġkind s
AC E
ĠJ ay
Ġcount s
C N
Ġfram es
Ġexam ine
Ġhe ll
Ġarg ued
Ġb rowser
ĠG ab
ĠSwed en
Ġo k
Ġper mut
all as
ĠMat the
ĠEq s
Ġd ates
Ġev il
M I
ĠB urn
ul ous
19 42
ĠF arm
e ach
ĠMal ays
se a
Ġcounter part
s v
Ġdes ire
cl ide
Ġto ugh
l ayer
\, {\
ĠS quare
Ġrepl acing
ĠB ry
F ont
Ġmusic ians
our se
19 39
) >
ĠAll en
ĠR ic
qu es
ip her
ra it
ĠYear s
tem plate
Ġabund ance
m ag
l b
Ġr ating
Back ground
L R
ĠPhilipp ines
ce il
writ ten
ĠIslam ic
Ġar rive
Ġup coming
Ã£ o
Ġdec or
Ġfe as
Ġequ ally
Ġgener ators
Ġlabel ed
Ġdest ination
Ġang les
Ā Ā
j k
IV E
Ġpaint ing
ĠUk raine
b ool
l ay
ish ment
Sh ow
l ook
ĠR oy
Ar ch
ĠCh ange
ail ability
if ting
Ġant icip
Ġcho osing
ĠK al
ĠP itt
ze ch
_{ -\
Ġt all
O nce
Ġperfect ly
Ġdisapp oint
Ġpre v
F ind
res ol
th an
Ġfac ed
^+ $
Ġcoupl ings
Ġ\ {\
comm un
Ġcon version
Ġf lying
ĠSar ah
Ġh ockey
Ġut ility
Ġdistingu ish
Ġfe e
AP I
W ho
se m
s ample
Ġour selves
Ġturb ul
Ġre ly
B N
Ġc ache
ĠInd ones
Ġcommit ment
Ġterm inal
per iod
sh ips
Ġjo ining
U D
ab ove
Ġep och
es is
it ro
D eb
Ġlog arith
ov en
ĠS earch
ĠSur vey
app y
ĠReg ional
Ġfact ory
Ġst range
Ġperman ent
Ġs av
Ġ rows
Ġfore cast
ig a
On ly
Ent ity
ist ically
Ġansw ers
P osition
Ġen ables
Ġmon ot
Fil ms
Ġe gg
m atic
ĠD or
Ġpre gn
ĠMar ia
h ome
du ctor
iz z
Ġre cept
Ġappear ing
Ġdeal ing
ĠU ser
Ġro oms
Ġcool ing
rack et
Ġimprove ments
ow ed
B el
Ġcondition al
p ress
Ju ly
che stra
as ters
A ng
ĠE mer
Ġcent ers
m ay
Ġdiff er
. (\
Ġd ies
ĠSt ill
Ġsc an
sub equations
arg o
ĠPrem ier
ĠPro duct
T I
He ight
F eb
Ġs oci
Ġtri es
Ġrank ed
t rivial
w t
ĠCons erv
Ġins ight
ĠSil ver
at ivity
ĠL em
Ġdraw ing
Ġinv ention
N orth
Ġv oting
Ġsimilar ity
ĠB arn
Ġbelie ves
Ġrece iver
ĠP ier
ol ly
10 4
ĠCl ark
Ġbre ath
sh ape
ĠDu ke
Ġdep ict
ĠI l
clide an
Ġstation ary
ST ATE
Ġadapt ed
ĠT a
Ġk il
fol io
on om
Ġb on
Ġh o
Ġmechan ical
th ree
Ġmanufact uring
}^ +
fl at
Ġw arning
Ġimp ressive
Ġcontain er
Ġpubl isher
Ġmen u
m arg
Ġphot ons
Ġcollect ive
ĠQ CD
Ġclass ified
appro xim
ĠK r
ĠL ook
Ġnot able
19 41
Ġsc ulpt
ĠG reg
ator ial
Ġemp irical
Ġdiam eter
ĠAd ditionally
end ment
s ome
g ov
ĠEqu ation
Y our
Further more
Ġclos ure
enn a
b ow
B as
ĠI mp
ĠDe ep
ot te
ĠM iami
ĠR ick
ĠF A
Ġr u
Ġaccom pan
ĠIndian a
ĠP S
m ont
Ġinv ited
H am
ĠStud y
J une
ĠCh ang
Ġcosm ological
ĠM un
Ġfound ation
or ne
f ly
Brit ish
] =
n umer
ĠV i
ĠT ai
oid al
Ġd a
ple te
Ġgra de
ĠConn ect
olog ists
Ġp ulse
ĠDo ctor
Ap J
;\ ;
Ġw ond
P RE
ĠP a
Ġal ive
ĠH al
Ġ{ $\
Ġkin etic
G ood
Ġdi pl
CO DE
Ġ ur
ur ches
Ġdis order
ĠC T
on na
ĠM ilitary
195 5
S ports
w ich
}[ !
cl oud
Ġcol le
Ġinvest ors
osc ow
: "
Ġrac ing
id ance
Ġregard ed
C F
Ġeng aged
Ġeigen value
Ä ±
à ¸
ĠO s
in cess
ine ar
Ġb one
Ġenc oding
Ġal gebras
Ġdecre asing
qu ir
ĠTra vel
ĠO ak
**************** ****************
init ial
Ġre aches
ĠF ront
Ġex clusive
ĠP resent
Ġmole cules
C ond
Ġlaw yer
Ġwind ows
in ternal
el and
er as
Ġ\ |\
I ter
) }$,
S ol
Ġtroub le
Ġper mission
Ġl en
ĠP ath
ĠV ari
Ġarriv al
Ġinter ference
L eg
re tt
Ġpseud o
Ġcom ic
ub er
ut s
ĠIsra eli
Ġin ference
Ġsmall est
M ac
s ort
Ġunit ary
ĠD ave
ĠG h
b olic
rad ius
ĠTe ch
ĠC urrent
lim it
ĠFin ancial
F ree
Ass oci
ĠT an
Ġag es
b d
Ġre normal
Ī Ĵ
Ġar ise
ĠHar ris
ser ies
Ġa ux
ĠCap ital
r in
Ġke eps
Ġpen alty
ch arge
return s
mid rule
Ġp iano
Ġhas h
ĠV ice
Ġinj uries
ĠN orm
() ->
um s
Ġte ch
Ġcirc ular
ĠT en
}) =\
Ġmaintain ed
Ġimpro ving
ĠL ib
Ġal ter
Ġm ic
Å ¡
ĠAl ice
ĠH D
Ġwe aring
Ġres erved
M s
Ġf ranch
Ġcontrib uted
ĠCor ps
Ġaddress es
Ġdis miss
Ġdr ink
ĠB E
igen ous
b es
Ġan isot
Ġharm onic
an alysis
Ġpark ing
let ter
un ing
def n
Ġadd ressed
ĠL as
Ġhelp ful
Ġd uty
P aul
F OR
p ur
Ġvalid ation
Ġfail s
Ġcorrect ly
Ch ange
P ub
ĠTh anks
Ġ ðŁ
Ġre b
= >
D ocument
I X
Ġf ruit
Ġappear ances
Ġgl ob
Sp ace
Ġsepar ately
ĠL ink
un ning
ĠDef ense
Ġbe ach
ĠP DF
Ġcon formal
rac ks
EX T
ou stic
Ġlist ing
Ġhapp ening
195 3
ke ys
pro fit
sh arp
reg ion
t n
ĠJ oh
Ġ\ }
Ġm aintenance
Ġactiv ation
t oken
Ġfac ulty
Ġent itled
ĠEd itor
Ġv oted
u ity
ang a
g rid
Ġsub section
Ġv ocal
3 50
Ġo cean
ĠC S
195 2
ĠLab our
\ }_{
ĠReturn s
Ġneg lig
g ments
ĠL yn
l an
ĠTh ird
ig ious
rand om
sing le
athe red
Head er
Ġphenomen on
oy d
ĠT ennessee
ir ms
ĠPro p
ĠK han
\ /
Ġregular ly
indu ced
= -\
P G
ol y
Ġexpect ations
s ession
Pro perties
Ġattempt ed
ĠG ard
Ġre verse
ut ors
ĠCon stitution
Ġrese mb
cite alt
Ġapp s
Ġgeneral ization
D en
util s
n etwork
Ġmed icine
Ġtri ple
w eg
h ash
ĠRec ord
Ġjournal ist
ĠE T
COL OR
ĠB ased
19 47
Ġme ets
em pl
k ov
ĠArch itect
Ġf itted
ĠBl og
Ġconn ecting
add ress
Ġd ict
t otal
c ounter
ĠY et
Ġn a
Ġfun ny
W S
u int
ene z
t im
c ache
g b
Ġadminist rative
Ġde vi
Ġpl ots
Ġexec uted
Ġdifficult y
Ġadm its
V AL
Ġis omorphic
Ġr ising
Ġb ary
Ġto m
nol imits
Ġnot iced
be an
ibr aries
ch ing
Ġref lection
Ġrang es
T im
Ġex it
ĠW as
g i
Ġsurv ival
}{ }
cl osure
Ġhor ror
Ġing red
big cup
Ġaug ment
Ġde let
Ġemploy ment
ry st
l arg
l ined
Ġsyn chron
Ġcorrespond ence
19 43
AT A
Ġampl itudes
il ty
ffic ial
Ġprep are
Ġprom oted
conn ection
Ġpar liament
ar o
on i
ĠP rivacy
u h
Ġla id
Ġfrag ment
Ġde leg
n ie
ĠD VD
ro le
Ġinnov ation
195 4
Ġco herent
Ġcap abilities
out heast
R ob
che ll
Ġgovern or
Ġtra ding
ĠPol ish
Ġfall ing
H ttp
Un it
om as
cl ick
over ty
ĠLa ure
Ġcontinu ing
Ġcoll isions
Ġfil ename
Util s
ordin ate
ug ins
Ġsp herical
ĠAr thur
ĠB ishop
Ġop ens
D om
w indow
Ġ( +
wit zer
Ġg ay
ĠSe attle
Ġappro val
M arch
ĠR iemann
Ġgu ests
Ġconver ges
it is
per ature
ĠSy ria
ig ate
ĠAnth ony
ĠWh it
ĠD a
ab ama
19 46
ĠJ ason
c ert
ĠJ osh
leq slant
od a
Ġdist urb
Ġsh r
ĠF L
Ġcon e
Ġto ler
Ġref used
ĠK elly
Ġconstit ution
op ed
ĠCl oud
ĠP RO
back s
ST R
Ġregard less
H ash
ĠN atural
Ġse ar
Ġtrig ger
Ġelement ary
Ġge odes
per or
Ġseg ments
Ġ ),
ache lor
Em pty
ocr atic
Ġcheck ed
ĠT ax
artifact Id
Ġcir cles
S ur
Ġcap tain
Ġtri als
Ġinterpret ed
ĠAuthor ity
Ġt ank
ĠAf ghan
Ġa er
D ay
Ġdec ays
T itle
Ġs aved
Ù Ħ
Ġc ricket
B D
âĢ¦ .
Ġanc est
Ġmach ines
d ashed
Re view
Ġdevelop ers
ĠGree ce
L o
Mod ule
jo in
s end
re q
Ġroad s
Ġform ing
ĠInd ex
Ġconclud ed
ĠAd v
Ġref uge
ĠT reat
Ġfun ctor
Ġwat ers
Ġto wer
ĠHaw ai
ĠS port
mat htt
Ġsub sid
Ġaccord ance
ĠSoft ware
Ġserious ly
Ġcon vention
Ġthe atre
C V
Ġmark s
Ġg arden
Ġpeak s
iv ation
e val
Ġdis cret
C ref
s or
B T
trans form
Ġne arest
lim inary
sim ple
ĠSm all
ĠHol y
Conn ection
v m
ure au
Ġinstrum ents
Ġco ffee
is p
ĠO w
] );
G reen
C ast
ĠB alt
Ġmix ture
in ian
Ġanaly tical
ra ise
ĠCh apter
\ [\
ĠU pdate
ĠH um
Ġbe ar
; ->
Ġspl itting
Ġpo etry
ho le
comple x
witzer land
b order
Ġad venture
Ġprem i
Ġpost erior
Ġbelie f
F ix
ĠP ed
x s
ellect ual
ors es
re v
B ased
Ġmathemat ical
ik ip
val ued
ĠTh ough
Ġprof it
ta h
L ike
Ġsuper ior
Ġdeterm ination
Ġgun s
Ġprom pt
Ġestim ator
ill iant
ĠCan cer
Ġprom ise
Ġt ables
Ġa de
Ġte ach
ron ze
am ps
Ġob j
Ġorb its
E p
Ġt issue
id ity
ĠF ermi
is ons
ick er
old s
Ġun like
Pol it
v able
% %
Ġstri p
}} ,\
Ġve get
ĠA C
xy gen
ĠLin coln
p air
ĠPo isson
Rec all
Ġperform s
im ated
pol y
new line
l oss
Ġlist ening
ur is
Big l
ist a
Ġinform ed
ter ior
det erm
b ul
Ġprior ity
Inter face
ĠMay be
ĠI owa
l ie
ĠD omin
W H
Ġhand ling
Ġde als
Ġle af
ĠF ind
ho en
bel ow
ph an
^* _
Ġatt orney
ĠMel bourne
Ġad mitted
ĠD id
hold ers
st an
ĠWith out
Ġnov els
Ġencou rage
Ġcy cles
Ġvol tage
ĠJ ava
sec urity
Ġstrugg le
ĠH erm
styleshe et
G G
s a
Ġat om
ĠO pt
Ġpar ad
ĠHow ard
Ġin hab
Ġi Phone
periment al
ĠH ave
ha ust
Ġpropag ation
sum er
Big r
Ġbreak s
Ġris ks
Ġknow ing
Ġgen etic
ĠMiss ouri
Ġ[ [
ĠR ab
Ġro se
ĠCast le
lem an
Ġpl otted
Ġhydro gen
19 49
Ġevery where
Ã¡ n
ool s
ĠNor way
ĠE uro
ĠB rig
ĠY outh
Ġ Ø
Ġd war
ĠF a
ĠR ub
ath y
ĠExp ress
Ġent ering
ĠMor gan
R ange
Ġmin i
Ġfl av
Ġcele b
AS E
EN D
m f
AT H
ed ing
de bug
l ate
Ġpay ing
ĠAl f
Ġoff ices
vert ed
Pre vious
Contain er
L T
Ġneut ron
Ġb rown
pot ential
le e
Ġev ident
l at
Ġcon sole
onym ous
Ġg ang
Ġcour ses
Ġclust ering
") );
Ġag ed
Ġcaref ully
ĠTra de
ĠB att
Ġcut ting
Ġcan cel
Ġf olk
R ober
| _{\
_{ [
Ġst ruck
Ġsp okes
Ġcontrad iction
ag u
ĠViet nam
Ġint rinsic
Ð ²
ĠIn s
Ġp adding
ĠN E
ent er
Ġpip eline
13 5
Ġly rics
b uffer
Ġtru ck
Ġmin ing
ut able
ard o
Ġtit led
Ġr um
Ġmembers hip
10 6
Ġs oph
10 3
t i
ikip edia
ĠR oute
ex pl
M a
Ġnorm ally
u j
ĠMot or
Ġtrend s
Ġcere mony
Will iam
N E
Ġwat ched
Ġoccup ied
Ġen abled
ah oma
ĠMary land
Ġv acc
=" _
Ġgreat ly
Ġacqu isition
Ġpass engers
Ġnarr ative
" ))
Ġmere ly
Ġant ib
S an
Ġtri angle
dev ice
Ġstrateg ic
ter y
Ġhost s
Ġrequest ed
> ,
HT ML
g on
W A
pro file
ĠAr k
du al
inter face
A f
} <
Ġt rick
195 1
Ġprepar ation
Ġt ens
the ory
nt z
fra red
as i
ĠF ellow
Ġcomb inations
and o
ĠAcc ount
ĠB h
ĠM ove
ĠG arden
Ġlif etime
el ve
ĠCom b
Ġatt raction
int ro
Ġspe aker
Ġperturb ations
Â ®
Ġbrother s
Mich ael
d ra
Ġnormal ization
ĠMc G
Ġ icon
Ġpr on
Ġcryst al
P ORT
Ġintrodu cing
ĠE arly
}\ ;
Ġaware ness
Ġocc as
conn ect
an aly
Ġf ired
Ġinter pol
H y
in th
Ġprov es
ĠHer itage
Ġtransform ed
Ġprob abilities
ĠE instein
le ading
ĠC it
Right arrow
G F
Ġsix th
Ġman ifest
Ġsing ing
Ġrestrict ions
Ġm irror
O ption
9 00
Ġelectric ity
Ġbas ically
em et
Ġarg s
="../../../../ ../../
Ġfl ash
O pt
Th read
ĠG all
Ġtick et
g iven
re a
Ġpass enger
Ġcomp lement
ĠE c
Ġspac etime
ĠMex ican
Ġd y
group Id
V M
ash i
ĠI L
P os
ĠPl aces
w p
Ġgr ass
Ġproject ed
Ġsus pend
U psilon
Ġtown s
Ġs ke
Ġn ic
ĠN ob
Ġde lete
Ġinst ruct
ĠRes ources
Ġdeterm ines
Ġany where
UL T
ab olic
ram a
van ced
pp ers
W indow
Ġillust rate
Ġiter ations
ĠB G
Ġh ospit
Ġlik ed
ĠT ag
Ġsy nd
Ġpix els
Ġpublic ly
Ġrel ief
Ġpo et
Ġdisc ipl
ĠR ound
pd ated
ĠU l
Ġexpand ing
ĠDi rac
el ines
Ġcompet e
Ġengine er
ĠN ich
Ġj un
Ġas ks
rop olitan
}{* }{
Ġman uscript
Ġm ail
Ġal ert
Ġparticip ated
ĠP H
ss on
Ġso il
the y
F ound
Ġaver aged
H as
\, ,
e a
ĠR ow
st age
. },
Ġf inger
ĠC atal
b ecause
Ġb atch
est abl
ch ant
le arning
pro perties
Config uration
k t
ĠCh o
) &
S em
Ġhousehold s
D an
stand ard
ĠA thlet
11 5
d z
Ġmeet ings
not in
Ġy esterday
Ġne ck
Ġbird s
Ġtra ins
Ġwire less
Ġinv al
sat isf
Ġp atch
ĠT rack
Ġsub mitted
Ġanalys es
Ġt iny
ĠMay or
ĠVeg as
Ġlimit ations
Ġtransport ation
Ġreg ulations
sp ring
re nder
Ġal cohol
Ã ¸
Ġsurv ive
Ġwor ry
ĠD ick
Ġinteg ers
Ġtr unc
g ate
l ad
19 18
Ġresol ve
Ġrecogn ize
ec ess
ĠC ra
F i
Ġann iversary
est yle
Ġsudden ly
Ġhol iday
Ġorder ing
Ġcloud s
)= (
ac on
ry pt
Ġimplic it
P ER
Oper ation
Ġcl ar
ar ial
ĠMark eting
ĠP ract
Ġc rack
| _
Ġign ore
' $.
Ġvisit ing
Ġdirect ory
Ġinnov ative
ĠCh ap
OR D
Ġmarg inal
pert urb
Ġf raud
ĠPro du
w he
ĠE ag
ĠU RL
ĠIm ages
Ġo vers
Ġproport ion
D onald
b oth
L ife
Ġw ider
ĠC ape
Ġsk ill
Ġwe bs
b ian
Ġport ray
Ġresol ved
Ġpro hib
t ically
Ġthous and
Ġrele ases
kl ahoma
i ors
ĠS A
ious ly
ĠDet roit
Ġtick ets
b est
om ot
o is
Sum mary
u u
ĠB erg
t ml
ag h
annot ation
Ġsett led
Ph ys
G ame
ĠM oscow
b ib
Ġ> =
Ġre jected
Ġelect rical
Ġphil osophy
RO M
n one
h h
ĠWalk er
Ġhead er
Ġrepe at
ĠM eg
Ġ( @
Ġinv oke
Ġdeterm ining
Ġtrans mit
w estern
bound ed
Apr il
Ġcon clusions
Ġbus y
Ġaim ed
Ġund efined
Ġshort ly
} ~\
j et
Ġst ake
ĠF er
ĠMov ie
ĠS ex
att ered
Ġf ake
Ġtri ang
r ition
Ġform ally
Ġcorrel ated
ĠLim ited
Ġadapt ation
ĠRel ations
Ġchair man
c am
Ġsynt hetic
Ã© e
ĠS audi
ul um
Ġfr ust
R ich
l ass
ĠG un
ĠMark ov
Ġdis ag
text normal
ĠEconom ic
Ġattack ed
ĠL anguage
bl ing
Ġfriend ly
Ġregist ration
Ġmanag ers
' }\
Ġconsider able
Ġh ook
Ġro utes
Ġhe lic
ĠM i
ĠUn iverse
Ġult ra
ĠN ik
' )$
10 8
}} =\
Ġt ension
ĠAG N
T ab
ma ker
Ġ Å
ĠC ore
ĠMar ine
Ġinflu enced
ĠN ev
}_{ {\
Pro b
ĠNew ton
ĠBl ock
Ġelse where
ĠPart ners
Ġgradu ate
Ġrang ing
Ġthere by
ĠPh ill
se par
ĠF ive
ĠThom pson
Ġconsist ency
Ġtun nel
Ġchild hood
ĠG ordon
ĠV in
Re ference
ĠHigh way
B re
d p
ip art
Ġs ick
}} )$
Ġoverl ap
Med ia
plic it
Ġun likely
Ġsympt oms
en v
Ġhas n
Ġcomb ine
Ġdesign ated
Ġtraject ories
ĠCom ments
ĠS F
N etwork
Ġcrit erion
T otal
t b
orig inal
ubl in
Ġbrand s
Ġhop es
ĠĠĠĠ ĠĠĊ
he im
re ens
Ġvan ishes
ĠN ash
âĢ ĭ
t ypes
19 36
ĠCar lo
G raph
Ġt ied
ens ing
Ġemploy ee
E st
ĠP as
Ġ} {\
Ġint ention
Ġk ne
Ġrequ iring
W omen
Ġfin it
ï ¼
ud a
ĠKent ucky
Ġbran ches
Ġunus ual
ĠW y
D ir
Ser ial
Ġgrow s
Ġsuggest ing
ĠW olf
rosc opic
ĠK o
ik es
Ġbar rier
Ġgener ates
Ġimm un
Ġdep icted
GB T
iz ontal
2 20
em ail
Ġpure ly
B oth
| =
Ġprov ision
ĠAtl anta
Ġparticip ation
N AME
ĠS W
Ġu int
Ġcomb ining
hoen ix
Ġdesign er
G ET
or b
tt ing
Ġt ends
Ġlight s
ĠM ars
Ġre actions
Ġprovid ers
ather ine
ĠF unction
Ġ{ {
Ġdecl ine
ĠVill age
d ed
Ġlik es
19 00
ous es
ater al
Ġconf ront
& $
)} _{\
M B
emet ery
19 14
Ġch ap
Ġ" \
Ġp ole
ĠTh ings
row th
, .
ĠDo es
L oc
Ġrec overed
she ll
Ġrep orter
Ġdise ases
ĠS R
Ġanalog ous
Ġbl ind
}. \
ĠUn it
Ġput s
Ġrece ives
t witter
C y
Ġfoc uses
Ġent reprene
M o
ĠG ene
Ġm art
Ġgradu ated
man ifold
ĠN ature
M art
Ġk inem
Ġed ited
de ep
Ġsurpr ised
Ġimplic ations
iv a
Ġbeh alf
mathbb m
Ġen forcement
im ore
EE E
ĠAl an
ĠĠĠĠĠĠĠĠĠĠĠĠĠĠĠĠ ĠĠĠĠĠĠĠĠ
. -
at ics
Ġviol ation
Ġemer ging
Ġchain s
Ġmeas uring
19 38
Ġneighb ors
ĠSwed ish
ĠSt ew
Ġrec urs
mon th
nov ation
Ex ample
Ġâ Ĩ
Ġsch ol
rid ges
Ġt ab
ĠC ow
1 18
Ġnav igation
B r
ĠB O
Ġremark able
ĠH ug
Ġart ificial
ap ing
Ġfe es
Ġassoci ate
Ġdistrict s
ĠE ss
ĠSaf ety
qu ality
AR Y
Ġto x
Ñ ı
it ure
) |\
A lex
l m
ĠTok yo
em en
U V
ĠD R
Ġen velop
cent ral
Ġcopy right
Ġg host
C K
Å Ĥ
s un
Ġs ed
ĠAust in
$ _{\
et o
ĠPe ace
â Ĥ¬
ĠB ull
Ġqual ified
er k
i ology
Ġel ig
elesc ope
ĠH ad
Ġeffect iveness
0000 00
ang o
Ġdiss ip
Ġincorpor ated
Ġoff ensive
Ġl ux
Ġrad ical
C ore
Ġtarget ed
Ġpos it
Ġh urt
Ġj av
ĠS in
Gl obal
ĠEX P
Ġident ifying
Ġfem ales
Ġmor al
au ra
dep th
bar a
ap olis
ĠF ederation
ĠN ative
Ġp ushed
ĠD ur
ĠS witzerland
A cknowled
ogg le
\| ^
Ġch rom
Ġoutput s
Ġr uled
ĠL am
ri k
Ġw rest
ut ies
Ġd ogs
ĠW ord
Ġwhere in
Ġmove ments
Ġwalk ed
ĠAn ne
h ist
J son
elf are
Ġclos ing
ĠTra il
Sche ma
cc c
Ġsubset s
Ġcov ariance
Ġdem ands
m ers
Rel ated
Ġc up
Ġexp onent
ĠW ol
Ġh am
l av
Ġany way
Ġinf ection
Ġade qu
pan el
Ġinstruction s
Ġdispl ays
ut enant
ĠDe an
Ġweek ly
) "
as hes
ĠVal ue
ĠD rive
ER E
ĠL iving
Ġre putation
Ġvari ant
Ġinst ability
Ġpres erve
G s
~ (
Ġent rance
ĠH ans
int s
Ġb oss
Ġun ity
v c
ĠP ur
Ġgen re
ĠH it
Ġf ro
Ġshe et
Des pite
iz ers
Ġper m
Ġassign ment
or se
p aper
ĠC hen
/ .
Ġt ip
n c
Ġj azz
ĠG ram
Ġrem oving
ra pper
ix el
her s
Ġn ations
ĠT rib
Th rough
ĠTem ple
w hat
Ġtrans actions
u its
ĠB ah
v irtual
ĠIndust ry
H A
Ġem issions
Ġproject ive
sub stack
App lication
J ames
Ġcrit ics
Ġold est
Ġ ^{\
Ġsuff ering
C ho
Ġbi ke
v dots
Ġm ock
Ã© s
ĠInt erest
ent ric
' $,
Ġfant asy
ĠAl bert
10 7
we ak
Ġweak ly
deg ree
og a
ul ative
Ġfootball er
ĠBl ood
h alf
level and
ĠP aper
ĠG alaxy
id en
ĠAl abama
ĠF ant
Ġriv al
. }\
w ait
ĠY ang
Ġbur ied
con v
ĠS ac
P ersonal
Ġsupp orters
int o
Ġche ap
Ġbox es
Ġprom otion
Ġext ensions
erv ised
ĠAll iance
ĠMc K
ord ered
ĠCommun ications
et ition
ĠB us
f actor
)} =
bl og
ĠS L
Ġfoc using
Â Ģ
ĠA BC
Ġher itage
Ġent hus
ia h
weg ian
Con f
olog ically
Ð ´
ĠM other
cons istent
}\ !
b ind
Ġbi ological
Ġgen es
Ġweap on
end ers
D raw
ĠY an
ĠNAS A
n an
sp i
app lication
ĠInst agram
ĠK y
Ġhead ed
ĠCol on
ĠT OD
Ġcont ents
Ġun stable
ĠF un
Ġm i
out ube
Ġeng ines
ple ctic
ĠBow l
as et
19 17
Ġgu idance
ĠF ed
ĠD allas
oc he
Ġad mit
Ġmerg er
A K
ĠI C
Ġsp arse
Ġsho pping
Ġdis joint
Men u
ÂĢ Â
Label s
Ġaff ine
ĠM ir
f ix
rupt ed
Ġorgan ic
Ġcent ered
load s
& #
ĠS ource
Ġb old
const ant
M icro
u is
Set tings
ĠPl us
}, {\
ĠM obile
ne ut
Ġprote ins
Ġground s
ĠEx ample
i Ã³n
am an
Ġsem antic
Ġfarm ers
ĉĉĉ Ċ
p ing
Ġterm in
Ġeng age
ĠV ersion
tri angle
Ġl ying
Ġover ride
Ġindu ces
H ost
ĠAtt orney
ĠM ess
t re
Ġth orough
S en
ĠEx per
Ġprom ising
Ġcon scious
B F
N OT
Ġg ram
P al
Ġsh ots
ĠApp ro
ĠJun ior
Ġco hom
Ġf urn
hy per
b ootstrap
Ġcar rier
ĠM and
Ġexpl ored
Ġtherm od
cc a
r f
Ġde eper
ge red
Ġdeep ly
anc ell
T om
St ore
L in
ipp i
ch t
v skip
Ġoper ational
Ġth inks
, ~
Ġdes k
Ġautom atic
Ġrem oval
Re al
Ġp ione
Ġb oot
Ġinter vention
ĠC zech
Ġgen u
}) )
d ays
Ġf ought
ĠO k
Ã º
ort ed
Ġlay out
Ġarm ed
}_{ (
N Y
19 37
Ġo xygen
Ġcos mic
ain ing
ĠB ible
ĠB ird
Ġme at
Ġb il
Ġscreen ing
Ġ$\ |
Ġe ase
Ġout standing
st ance
Ġpri ze
ĠSing h
M al
lect ric
ens ively
Ġb le
Ġh ide
o il
Ġfl avor
ĠBru ce
ern ame
Ġconst rained
Ġbe er
Ġ{ {\
Ġcons ent
N P
Ġsub str
Ġfle et
C ustom
Ġowners hip
}) -
ass oci
ank a
igh ters
ann on
Ġres erv
ic ing
Ġexam ined
ib l
T oday
f ramework
Ġd rag
h our
ub s
ĠAl tern
ERR OR
Ġw edding
Ġent ities
c oupl
P arams
Ġanom al
end or
Th ree
P arent
' ',
Ð ¼
driv en
Ġover come
ant i
Ġdo ors
Ġaccompan ied
ĠPr ice
Ġsh orter
Ġrem ind
rict ion
Ġl ad
over set
n ik
ĠB uff
Ġliter ary
ourn als
Ġinit iative
Ġrel ating
M ean
Ġshift s
V ector
Paramet ers
Ġeng agement
ĠPer formance
r ise
Ġex haust
Ġmanag ing
ĠLeg isl
V P
Ġdel ight
iff s
ĠC opyright
Ġsh adow
ren ew
ion ed
dist ance
ard ing
eth yl
Ġtem porary
ol ph
Ġrep air
ĠH ell
Hel per
Ġl ake
Ġf usion
ig m
ĠN eg
ĠLe ft
ĠJud ge
Ġpublic ations
Ġde formation
Ġun expected
19 33
ĠF ather
ch arg
Ġinter sect
Ġign ored
Ġan ten
ache l
ĠI ron
ĠEu clidean
Ġs essions
Ġprofession als
am ents
uer to
ĠB eng
dist ribution
h over
C a
ĠRepublic ans
Ġlimit ing
Ġfranch ise
Ġcelebr ate
Ġast ron
ĠP ear
J apan
ĠP sych
op ter
ĠSchool s
we alth
Ġs wit
ĠW i
ĠProb lem
ĠIn sp
ro d
Ġcent uries
k w
================ ================
Ġspirit ual
Ġtrans c
Ġdedu ce
x it
Assum e
S ION
Ġover view
m aterial
ĠH ills
Ġacceler ation
Ġenc ounter
r b
Th anks
doc s
Ġleg s
F E
Ġgovern ments
w hel
ĠE rror
F in
Ġdial ogue
Sim ilarly
× Ļ
b oy
c opy
St ack
Ġline arly
Ġr hy
Ġt aste
Ġcr imes
Ġmunicip ality
on ing
ĠChair man
uk i
at ers
Ġt one
ĠHT ML
foot er
Ġp sy
19 35
Ġgu ilty
ĠMe V
N T
ĠR oom
Ġ& $
Ġbr illiant
Ġst em
Ġnegot i
b one
we ek
st ory
Ġattract ive
ĠChrist opher
Nav Bar
ĠAnton io
Ġf uck
ang ers
Ġfrequ ent
24 0
Ġequ als
c ost
Ġround s
Ġmy th
Ġcatal og
equ als
ĠAssum e
ĠSt ore
L D
Ġpar se
S ession
Ġinf inity
S upp
ro ck
Ġ* )
ĠN ation
est amp
ĠSp irit
Ġat tach
l ab
Ġas ide
ĠH oll
s burgh
j ar
Ġ$ <
Ġquot ient
Ġhyper bolic
al actic
Ġrank ing
Ġfil t
Ġviol ent
ĠO S
ĠRes p
Ġmulti pl
Ġref lected
char acter
re port
ĠR ace
ic ut
Ġrelax ation
f ixed
\| _{\
Ġd owntown
ial s
Ġconstant ly
Ġphys ically
Ġincred ible
= {\
ĠB H
Ġn urs
Ġsustain able
ĠF M
ail and
Ġbu ying
Ġj ets
Ġwork er
Ġd inner
ms g
Ġ }$
o ft
. ]
: #
R et
â Ĩ
ere nces
li est
Ġim posed
Ġcl ip
Ġpotential s
Col lection
Ġsac r
. :
ĠR O
Ġcomfort able
Ġcritic ism
Ġc ounsel
iss ippi
enn y
Int eger
Ġveloc ities
ĠEnvironment al
P aram
Ġst yles
Ġembod iment
claim ed
qu ark
() :
im it
Ġmay or
Ġperson ally
r ating
Ġt ur
ĠL ang
ĠS el
d ale
ĠEp isode
ĠNig eria
aut o
ĠAnn ual
Ġcomp oser
ĠH old
Ġfil ters
ĠD ub
ĠR y
m ates
ro se
um ar
ĠStud ent
Ġhe ating
S i
Ġ$ $\
=" /
ĠS ri
Ġst rain
Ġexcit ation
E urope
t ex
Ġprodu cers
Ġplan ets
Ġlat ent
ĠF O
f ather
bre aking
ick en
l floor
C I
ĠAss ert
ol id
ĠH u
ĠB ureau
Call back
li ver
) |^
ĠPro perty
C opy
Ġpubl ishing
T ests
ential s
ĠA le
ren a
gra v
eff ect
IN D
S upport
Ġcav ity
ĠG ulf
on line
ma ps
Ġj oy
Ġr uling
Ġqu eries
Ġfin ance
ĠM ission
Ġretire ment
Ġc um
Ġsomew here
Ġw et
B s
Ġefficient ly
M iss
Ġimm igration
Ġwh ilst
c b
as m
S ET
Ġformal ism
ĠSh ould
Ġbre ast
ĠInt eg
Ġorgan isation
Ġm g
Ġconsist ently
B ody
f lix
Ġoption al
res ize
ĠFin ance
C am
Ġleg it
Ġreg ulation
Ġestablish ment
ĠMem bers
Ġdest ruction
on omy
r ator
w ind
__ (
win ning
L ear
de lete
Ġperson ality
Ġcaref ul
] ^{
ĠVol ume
ĠTurk ish
Ġd ating
ĠCharl ie
IM E
ĠE mb
Ġar ises
Ġne uro
ĠNot ice
Ġshift ed
amb ig
ĠP L
Ġpack et
ex port
f our
ĠĠĠĠĠĠĠĠĠĠĠĠĠĠĠĠ ĠĠĠĠĠĠ
ĠC rit
Ġexp at
play er
Ġtransl ated
I con
w al
Ġcomp rom
c ustom
itud inal
10 9
Form er
' >
in cre
Ġfund ed
Ġliter ally
ĠPlan ning
ed ef
P ref
work s
Ġinterview s
Ġmy ster
Ġan th
Ġ\ *
T rump
Ġhom omorphism
Ġintegr als
tri ang
p in
ur se
ĠB run
Ġst up
Ġwebs ites
Ġsegment ation
ĠPolit ics
Ġvol umes
ick ing
bu ilt
Ġt y
Im pl
Ġt ie
ĠStud ents
Ġh ill
Ġnot ing
ĠV o
ins ert
iv ated
el ing
ĠAn na
T erm
ĠGirl s
ĠB art
Aug ust
ĠMatthe w
W al
ĠK am
ĠSpec ifically
ag g
ĠL E
sequ ence
Ġhead quarters
ĠC ele
ĠH ero
in ement
ĠS S
r floor
L at
spe ed
marg in
Ġob lig
Ġm igration
ĠNever theless
Ġspec ify
ĠZ e
ĠB os
ograph ical
Ġaux iliary
es y
× ķ
ut ter
19 29
Ġlength s
t ry
am ination
Ġcour ts
ĠDoug las
sp aces
Ġdram atic
Ġm ile
Pl an
Ġmechan ics
Ġm esh
Î ¿
19 19
Ġnon zero
ĠL P
Ġdef ensive
ĠS quad
Ġcl im
ĠN elson
11 4
T M
ort heast
ĠEv ents
b rowser
Ġinit i
Ġm ales
ĠB S
ĠO pp
Ġp in
ĠD ocument
ĠO klahoma
Ġb ases
web kit
ON E
Rober t
ĠCom ment
big skip
ĠRog er
Ġasympt ot
ĠProt ection
ri el
Ġcontract s
Ġdirect ors
Ġpass age
Ġsign ing
}| ^
Ġcon jecture
ĠAnd y
Ġwith draw
Ġbos on
W atch
Ġrestaur ants
ĠK er
' }$
enez uel
ĠD ance
Ġdevelop ments
Ġaband oned
T HE
ron es
Ġx ml
f ish
Ġh ack
}_ +
Ġp ace
ĠFor um
Ġhigh lights
Ġp ose
Ġj u
vert ex
F rench
ĠB R
ĠLe vel
= (\
ĠPolit ical
Ä į
ĠL ane
Ġ$- $
Ġh ip
Ġentang lement
ok er
Con tact
ĠB ond
Ġstream ing
G erman
ĠMic hel
Ġill ness
Ġres ident
}= (
Ġden ied
Ġtim ing
ĠCent ury
me asure
Ġoper ates
c ule
Ġmoder ate
ĠIndepend ent
Ġmil k
ber ry
N L
ou ver
ord inary
A ir
ĠT ask
Ġsh apes
ĠAn aly
Ġhop ing
Ġres erve
Ġf irms
is y
ĠY O
Ġco aches
Ġmod ify
Ġre ject
Ġcompl iance
Ġre nder
itar ian
Ġsampl ed
ĠC redit
ĠC os
ĠFor ces
Ġrepresent atives
Ġpl ain
le ep
ang el
ĠR id
\, .
ard ed
Ġc able
Ġtw ist
} &\
Ġsuff ices
Dis play
}} }$
Tem plate
Ġcam eras
as ant
ĠWe bsite
miss ible
Ġcompet ed
Ġvis its
ĠC ell
Ġ âĢĻ
Ġg ent
ik h
t ot
m ate
Ġcollection s
vent ures
Ġb ull
ĠF le
Ġfab ric
urric ane
F inal
or ce
J ack
ĠS everal
ĠH IV
Ġp ric
En ter
ĠĠĠĠĠĠĠĠĠĠĠĠĠĠĠĠ ĠĠĠĠĠĠĠĠĠ
f g
Ġmod ification
w rap
Ġmus cle
pro ve
D oc
Ġb at
un iform
Ġdis contin
Ġsuff er
Ġens ures
Ġannounce ment
Ġp aram
or ia
ĠN ic
ĠN BA
Ġra ising
ĠMalays ia
ĠBe at
Ġsome how
ol as
Ġdr ift
Ġmonth ly
? :
view s
Ġfem in
Ġimag inary
19 34
p atch
Ġc ited
Ġnumer ically
uc ks
Ġformul as
oc hem
C opyright
ĠR ot
Ġph on
le ans
ĠReg iment
Ġcount ing
Ġobserv able
}) _{
ĠM s
Ġmem ories
ob i
ĠL iver
, '
Ġcal ibration
Ġbelong ing
Ġext raction
Ġt act
Ġgener ations
pl ugin
ĠAg ric
ĠLore ntz
Ġapart ment
w alk
Ġclos est
M ENT
S al
onom ous
z an
Ġp overty
Ġtax es
ir i
oun ces
ĠW oman
hand le
z one
ab e
) !
K L
AR D
ir ates
ĠW H
Ġm ilit
F alse
Ġj ack
be ing
sup ervised
ĠWal ter
Ġinstall ation
ed it
Ġin cl
clus ively
ass ador
E ff
V A
di ag
ĠPl ayer
Ġreflect s
ĠRuss ell
cont rib
ĠEx ception
Com put
ĠSt ars
12 7
d irection
Ġint ense
p mb
me as
Ġfeel ings
Ġobtain ing
ie val
Ġext ending
ev ents
Ġrema inder
( :
ĠThe ory
Ġpar ish
AN T
Ġmut ual
19 28
Ġland ing
Ġflex ible
Ed itor
he res
Ġleg acy
ll i
Ġvir us
Ġarrang ed
b ing
Ġsub stit
Ġdev oted
Ġout per
Ġas set
Ġsu icide
Ġpro sp
Ġbu ck
Ġhealth care
dis abled
B et
R ule
ro oms
equ ival
ĠB it
abl ing
add le
Ġstar ring
od ox
ĠJ ess
Ġaff ects
S am
Ġf est
) )$.
Ġde put
Ġwere n
ch itz
Ġcontinu ity
c od
Ġh ired
im ir
Ġresc ue
M W
ĠChall enge
Ġpro ton
ĠD J
Ġin duct
ol o
lev ant
ef ully
] _{
or able
Ġvar ies
rec ord
Ġinvolve ment
Ġalign ment
Ġrare ly
Ch annel
Ġrec ru
respect ively
Val ues
Ġp arams
Pub Med
ah n
Ġpar agraph
Ġc ul
Ġman ual
^- $
en z
Ġunivers ities
az y
Ġspeak ers
ĠReview s
Ġthick ness
ĠSw iss
cos ystem
f ony
anc el
C s
ĠN GC
h ook
ĠM E
nt il
Ġan xi
Ġf ract
ĠW ard
ĠRes erve
W ind
ant ed
n ecess
h skip
R est
ush ing
ĠF ried
le in
center line
ad min
T or
all ing
inc ial
Ġn um
ĠP ra
iz on
Dis c
. ),
Ġw ake
Ġr ings
Ġs ons
ĠHar vard
Ġtrans it
ĠElect ric
ĠR F
Ġgr ate
Ġcub ic
). }
17 0
De cl
Ġmet ers
Ġtem ple
Ġland s
ĠP O
$ --
uch y
P tr
cl uster
ig s
Ġrespond ed
Ġvill ages
ĠRem ark
ate ur
Ġcomp osite
Ġnom inated
ĠM ind
ĠEx change
Ġvan ishing
b n
Sh ort
ĠCon tact
em ed
Ġshe ar
ĠS ales
Ġobserv ables
$ (\
Ġres idential
Ġreview ed
( *
s ys
ĠDel hi
Ġr ub
Ġhom ot
ĠU tah
{ [
im od
Ġs alt
ĠAd ams
Ġcond ens
19 10
Ġhead ing
U ST
-- >
ĠSp ect
ĠS elf
19 15
Ġfavour ite
Ġmet res
Oct ober
}}\ ,
Ġinv ariance
ĠAd vis
, âĢĻ
p ic
19 32
ari ate
urs or
Ġfant astic
ĠLaw rence
Ġav ailability
Ġprint ed
i op
h arm
E s
Ġsecret ary
ĠKenn edy
Ġcl imb
ĠF al
> $
sol id
Ġcar ries
ĠGra ham
Ġatt ributed
S n
Ġwal let
Ġhard er
Ġins ights
A ud
Ġconsid ers
am er
depend ency
Ġd ot
Ġque ue
ĠL LC
ra pe
ĠK ings
d ynamic
Ġs ectors
ĠFred er
Ġtransp arent
left rightarrow
m ade
ĠS ud
ĠB uck
}} }{
ĠBase ball
sim ilar
ĠD ublin
ĠWork s
ĠEXP ECT
co q
ĠCon sequently
pos ing
math ds
r h
ĠPro of
ĠJon athan
ĠAust ria
Ġ$ [\
mult ip
Ġgener ality
make box
Ġcontrad ict
Com parison
fo o
Ġarrang ement
c rit
Ġcomp eting
Ġd s
ĠP ope
Ġamong st
ĠStud io
ĠF BI
Â ·
Ġroy al
Ġl oyal
Ġe ating
ĠT ree
Ġanim ation
Ġ ).
b us
ract ed
Ġac oustic
}} +
Ġm oon
ĠLouis iana
hav ior
eng ine
Ġmat ched
As ync
Ġ ĉ
Ġd amp
Ġmod uli
Ġmaintain ing
Ġ erg
N ov
O ld
ĠIndones ia
Ġsens ors
ir th
Ġv ital
Ġp ic
ĠM aterial
Ġpres erved
Ġo s
K K
ĠW ang
import ant
Ġaccur ately
Ġ( '
book s
27 0
Exp ression
Ġlog ical
ment ioned
19 16
Ġexhib its
N G
Ġs occer
ĠF R
tx t
)) )
ĠMar vel
Ġelli ptic
Ġb unch
se en
( |
Ġt ort
H on
ampl ing
Ġl oud
* \
al ion
ĠOr th
ĠR ain
ĠMur ray
Ġch arts
Ġmar ine
Ġmusic ian
ĠC C
ens itive
F amily
ĠMed al
Ġfinit ely
ill ery
e ast
-------------------------------- --------------------------------
ĠJ e
ĠUn fortunately
pos itive
ÃŃ a
! )
Ġre ven
Ġderiv ation
ke e
child ren
P AR
Ġthem es
Ġc ogn
ĠAl bum
Ġinsp iration
writ ing
Ġab elian
ik ing
Ind eed
ĠM agn
Ġcon figure
ĠComput er
no ise
Ġup grad
h n
j amin
ĠOr leans
Ġsurround ed
ams ung
Ġapprec iate
Ġsurve ys
ag ers
ĠP rivate
Ġlo ops
Ġfeas ible
Ġpo em
iss a
Ġfol ks
con ver
2 13
z i
Ġcoll aps
ĠG ary
renew command
ĠP ap
ĠRob inson
Ñ Į
Ġliber al
sc ar
o pp
anc ouver
Ġpoint ing
a uth
th in
ĠV iol
op ing
' )\
to String
Ġcap ability
as a
ĠD al
ef e
St and
display math
Ġenc ry
ĠD est
hel p
Class es
ar atus
part y
Ã¼ r
ĠStew art
## #
Ġch amber
Ġ\, ,
Ġphot ographer
Ġneglig ible
Ġposs ibilities
C oll
ĠR an
Ġpay ments
ĠK night
leg es
ob uf
Ġcolle agues
Ġint ellectual
ĠM unicip
ĠE ver
Ġmotiv ated
m ove
ĠAg reement
or o
Ġagre es
Ġtang ent
prot ect
ĠP ersonal
ĠM ort
f requency
ĠBelg ium
11 3
â Ħ
ĠF inn
Ġc razy
in burgh
ĠCr ime
p f
Wh ite
Ġsubstant ially
Ġt ube
ĠSen ator
F ore
J ul
Ġprom ot
Ġch ronic
ĠBrook lyn
Ø ±
T w
Ġprocess or
EC K
er os
Ġcont rary
trans ition
se q
al ph
ĠPal ace
ple ments
ĠK it
I LL
Ġdis aster
Ġvari ed
Ġcelebr ated
m outh
ĠPhys ics
Ġgre y
Cl uster
Ġinteract ing
ira ble
Ġv ib
Ġmeaning ful
lic ations
res olution
Ġfor got
comp act
Ġencourag ed
C ity
' ],
ig g
Ġsp ots
W R
ĠSt ories
qu ant
ore f
Ġver ified
ĠOrgan ization
ĠJ os
ĠArgent ina
ĠC leveland
AR E
G ra
Ġrecommend ations
' =
ĠAl b
ĠPhil ip
Ġtum or
X T
g ray
sh ot
cal cul
Ġsl ot
Ġaw ait
Ġjun ior
iss ues
\ }}
am ous
us ive
ĠLeg al
s yn
Ġpe er
Ġsymmet ries
ĠM os
d in
ĠNe ed
Ġg olf
11 7
t ensor
Ġdemonstr ates
Ġmy stery
Ġany more
Ġcomput ers
Ġpriv ile
ĠPort land
Ġdis cre
des ign
Ġr ugby
ect ure
Ġsub mit
omet er
is ers
Ġload ed
Ġret ro
e fficient
ul o
Ġm ad
bor ough
G D
ĠB ou
eff ective
Ġas semb
Ġdo i
re place
Ġjud ges
Ġel astic
ĠP erson
Ġgain s
P y
Ġphenomen a
Ġsit uated
ĠMuslim s
Ġsearch ing
Com b
Ġhierarch y
4 50
Ġcred its
qu ote
Ġover whel
Ġp uzz
ĠD ak
Ġemer ged
Ġhigh way
bas ic
tem perature
ass ets
Ġth rown
Ġt ub
t own
rat io
Ġint u
oun ters
d if
)\ ,\
ĠAnt i
Ġf ishing
h ill
c ov
Ġlaw yers
an ies
ĠPat ri
11 6
Ġathlet es
Ñ ĭ
ĠF ly
ĠC ass
E rr
Ġste ep
Ġkit chen
ĠBG COLOR
Ġinval id
ĠT alk
ĠWeek ly
Ġdistingu ished
h ad
Ġsure ly
ĠC ert
ĠF r
Ġpopular ity
Ġs ends
$ /
Fil m
k n
ĠAb d
Ġfor cing
Ġwind s
ct rine
und erset
F ollow
Ġgu idelines
S ong
Ġvari ability
S ep
p he
P ublished
ĠS oc
ill o
Ġgradu ally
ĠAfghan istan
ĠTe levision
US A
Ġsp oken
ĠMiss issippi
G old
sc ribe
P arser
Ġlocal ization
Ġsynthes is
ĠK az
) }^
Ġm ouse
Ġen v
Ġst ops
W ar
B ro
Ġm ild
au er
ĠStud ios
Ġelect romagnetic
b ridge
par a
r ically
ĠTh ailand
Ġprocess ed
Ġt ill
^ +\
f und
acc ount
Ġind irect
rac le
ucle ar
at en
Ġdocument ation
Ġis lands
19 31
Se ptember
ĠP hoenix
ex cept
ed ition
ĠSt age
Ġtransl ate
Id ent
ĠF ab
}\ }$
ĠO il
Ġdem ocracy
Ġdr inking
Ï Ħ
Ġthe ater
R oot
Ġcomp ound
ĠD ays
ĠD ie
Ġin jection
ag ger
Ġstri king
ĠArm en
ĠĠĠĠĠĠĠĠĠĠĠĠĠĠĠĠĠĠĠĠĠĠĠĠĠĠĠĠĠĠĠĠ ĠĠĠĠĠĠĠ
ĠC av
g ression
ĠP ast
ĠHistor ical
ĠG as
F N
Ġthreat s
Ġst rang
ric ks
ĠP red
+ |
al ia
oth y
Ġport folio
iss ance
Ġsupp lement
ĠI an
iv ities
Ġ )$
Ġt we
d or
Ġto w
P I
ĠPubl ishing
Ġdam aged
ript or
ĠP un
Ġconf ident
Ġinn oc
Ġar ising
p adding
He alth
f ocus
Ġrom antic
Ġcontinu ously
Ġevol ved
ou p
Ġcomp ression
Ġc ock
e u
over ning
ab ad
Re port
y y
ce ive
rel ax
M us
Ġshould n
Ġchar ity
Ġexclud ed
Ġcy ber
ĠF ame
Ġfl ights
Ġorient ed
Ġd up
d c
Pol icy
Ġal le
Ġop acity
' -
Ġdes per
Ġqu arks
ĠOrig inal
Ġcor ruption
tr im
Ġd ose
ĠM ust
Ġexception al
Ġt ropical
ĠIn v
Ġdiagn osis
Ġsup ern
ĠQueens land
Ġdisc ount
ĠA qu
19 22
W he
Ġp odcast
B usiness
Sup er
Ġt ennis
Ġel der
t ons
ĠT el
ĠC u
Ġpass word
Ġch urches
ET H
asc ular
ge on
ur u
Ġor ange
Ġdo ctors
Ġval ley
Ġintrodu ces
Ġsqu ares
^{ [
Ġb ol
Ġkn ock
Ġte a
Ġwal ks
ĠShe l
ĠL GBT
Ġr anks
Ġmur d
An n
ĠRepresent atives
ex ternal
Ġconven ience
ĉ čĊ
Ġnames pace
st ation
P rim
m ix
Ġtouch down
ĠT ar
ag ar
ĠPl ant
19 27
comp at
ĠCar ter
Ġg all
ess ed
ĠTe le
Ġdeg rad
Ġs ake
Com ment
ĠJu an
o ys
Ġatt itude
Ġcompris es
l ades
ly ph
12 1
pr imary
Ġdecre ased
Ġlabor atory
C ross
ram es
Ġinv asion
Ġmultiplic ation
v ideo
ĠS ay
are r
ist ance
Ġorgan isations
l on
ues e
Ġoper a
ĠS I
Ġdis abled
Ġexpert ise
Ġc rown
] _
IG HT
2 10
}( -
Ġexec ute
qu er
Comm un
ĠW right
Ġg athered
Ġillustr ates
ĠR at
Ġb es
Ġbirth day
ĠSm art
~ {\
ab i
ig rant
Ġfore ver
Ġem otion
Ġd otted
ĠBalt imore
ĠG ill
v ance
N ovember
Ġdep ression
}$ ).
ĠWh ich
ĠSam uel
min ute
ol en
ips chitz
ond s
Ġadvant ages
Ġinequ alities
ĠConnect icut
upp er
ĠRec all
Init ial
U B
Ġvari ants
lim ited
Ġtext s
Hand le
Sc ott
Ġpref ix
ĠTown ship
h ai
ĠD ragon
ig ger
Ġf ul
S un
ĠAl ber
Ġre named
b urst
k k
ĠU nd
N um
Ġtalk ed
Ev ents
Ġguarant eed
ĠI ce
pl ugins
S Y
12 4
Ġuniqu ely
In s
k ip
Ġrel ativistic
Com mon
19 24
to ol
b ran
Ġres ign
De ath
LO G
Â »
correspond ing
Ġjournal ists
ĠB ed
ĠSe lect
Ġminim ize
iv als
b ird
Ġton ight
Ġcontrovers ial
M atch
fra id
b x
Ġsucceed ed
ict ional
Ġstay ed
Ġsole ly
Ġper mit
n l
Ġcheck ing
Ġsp ark
Ù ħ
Read er
ĠH E
L and
build ing
Ġquant itative
Ġdetermin istic
L u
Ġl ib
P ool
ĠPet ers
E mail
Ġm ice
Ġsus cept
ĠT ower
big gl
u ct
Ġband width
Ġc ow
ul u
og an
sh aped
ĠJ SON
ĠTai wan
duc ing
Ġg ray
Ġread ily
Ġwe ird
Ġsuper conduct
sur face
m ac
Ġsupp ressed
ĠE uler
00 5
Ġdes ert
' (\
vers ely
Ġmerg ed
Ġby tes
opt imal
ellig ent
Ġst adium
or us
Ġse p
ant on
z es
O bs
ĠPol y
Ġenc oder
ĠBet ween
}{ $
ĠInt elligence
Ġult imate
cknow ledge
Ġrout ine
Ġut ter
] :
set tings
Ġcohom ology
ĠE dd
Ġj unction
ĠTh ank
bound s
M ass
Ġp or
c ritical
Ġmain stream
Ġrel ies
val uation
Ph il
Ġt ale
comp onents
Ġvulner able
ĠCamp bell
Ġeth nic
Ġart istic
ĠBar ry
ĠArch ives
Ġregul atory
od ic
h uman
Ġpre liminary
ĠN ear
Ġdifficult ies
{ %
âĦ ¢
ĠOper a
g ements
re du
Ġformer ly
Ġl ip
Ġtw elve
ĠMor ris
text style
ĠN i
Ġrac ial
ĠF act
H H
ĠPh D
C ur
Can adian
$ =
Ġst ating
Ġvan ish
l g
is an
Ġoccup ation
ĠL l
Th ank
Ġclass ifier
ĠCont ent
Ġreported ly
sc ience
}^{ (\
Ġres idence
Ġsupp lies
P ress
Ġfin ishing
rain ian
> ();
Ġthreat ened
Ġex clusively
Ġcharacter ization
ĠP uerto
w ang
ĠGu y
nabl ed
Ġsto pping
Ġrem arks
Ġsol it
Ġvalid ity
Ġmountain s
ign ment
ĠG il
Ġst uck
hat tan
ĠEv ans
RE E
rie ved
ĠO K
Ġcry pt
IT E
D IR
Ġser vers
arm ac
id o
12 2
ĠBe aut
ĠCh ile
Ġn ick
Ġenc oded
n est
te chn
> .
Ġg ates
C r
Ġdiver gence
Ġj uris
ock er
Ġcas ual
const raint
ĠS olar
ĠWar ren
ĠR and
ĠF em
aps hot
Jan uary
Q U
iv an
ĠJ oy
Ġg ear
ĠCom ics
ĠMean while
ĠCol omb
aut oref
p read
Ġph osph
qu antum
Ġb ins
ail ing
ĠCor p
Ġrepeated ly
ĠMethod s
phot on
our t
ib bean
Ġ+ +
ps hire
In v
Ġbur st
web pack
Ġpres um
e ing
f un
Ġlight ing
Ġeduc ated
Ġpaint ings
Ġb om
Ġrece ption
Pack age
ĠT un
rect ed
bo ards
Ġmist ake
less ly
C G
Ġin herent
ĠP oll
19 12
Ġ( âĢľ
ĠB aker
ĠR ap
Ġg aming
ĠT ob
Ġcomm ander
intend o
ĠPitt sburgh
ĠThe ater
Ġh orses
ĠL en
Ġche cks
Ġsingular ity
pie ce
Ġaff airs
ore r
Ġgeodes ic
ĠF isher
[ $
ex ports
Ġmicro sc
ut er
ab a
ph ys
ĠSt orm
le ased
Ġ\\ [
Ġpro xy
ĠF ern
Ġexpl oring
Ġcompens ation
und les
2 30
Ġdef ence
Bl ue
Ġcompris ing
Ġfacilit ate
Ġrel ate
ew ise
Ġ[ '
Ġpre t
Ġcooper ation
Dev ice
Ù Ĩ
L ook
}) (
ĠP ublished
Mult i
ĠS ony
ĠPro f
ĠBo ys
ac cept
th ird
p q
Ġa cknowledge
ĠJust in
M or
ĠS oul
im eter
Ġdro ps
C B
Ġph rase
14 4
chang es
\ -
Ġan chor
Ġcateg or
Ġv ic
i Äĩ
Ġf is
Ġann ih
bigg r
Ġaw esome
ĠNor wegian
Ġdrum s
ick ets
L ight
ĉ ĠĠĠĠĠ
Ġferm ions
Ġreason ing
ĠH end
ann ah
ĠG T
19 23
Ġpart ly
19 25
V s
ĠCons ult
Ġmetall icity
Ġle tting
}} -
' ))
Ġindust ries
in ces
Ġcomm ands
ir k
S uch
ĠAut o
Ġmod ular
Ġpush ing
Ġadapt ive
ĠâĨ Ĵ
ĠM aur
ĠSim ilar
wid get
Ġback ing
A rm
ph ones
ĠK ate
with out
Ġinvestig ations
Ġsuspend ed
T ax
Sec urity
Feb ruary
ĠMon th
Ġimpact s
~~~~ ~~~~
S yn
ĠW W
Ġven ue
m illion
int erest
Ġ rib
ĠMet ro
Ġobser ver
Ġpermut ation
app er
Ġst ere
}$ $
re r
Associ ation
ĠG O
ĠRe lease
Ġin vert
ĠS now
s b
S ervices
Ġun w
ing ers
Ġg ran
De cember
Ġprov ing
D id
on z
Ġtor us
ĠF reedom
ĠO bs
Ġl unch
Ġaccept ance
f are
ĠH im
the se
ĠE arl
Ġsil ent
) /\
tra ined
red ited
P ad
ĠC ome
Not ice
ĠNC AA
Ġke V
ĠArab ia
ors ion
Ġident ities
12 6
ĠJim my
chi at
ĠCl imate
Ġdesc end
Ġreprodu ce
re view
ĠV I
C ategory
Ġrep ly
Ġall ocation
ĠT otal
Ġphotograph s
c pp
19 26
ij ing
Ġby te
Ġres ort
ĠG raph
ĠBl u
ĠN ap
ir ts
): =\
R a
ĠP il
Ġelim inate
P erm
ĠT E
Ġcompan ion
19 21
Ġsent ences
ĠWrit ing
F ran
Writ er
Ġl oves
Ġglob ally
m g
ri ors
abet es
li ers
in formation
Ġse venth
gener ated
ĠUr ban
Cont in
ill ance
$& $
ere my
ĠMar shall
Ġdream s
á ĥ
Ġfraction al
Ġguarant ees
us ers
act eria
Ġim per
Ġelig ible
Ġplan es
. (
Ġlocal ized
Ph ot
}$ ;
ift y
Z Z
ĠC her
ym n
L M
ĠB rew
ĠM es
inn ed
Ġminor ity
Ġcoupl es
Ġdriv es
pl ates
M eta
ĠV enezuel
Ġimpro ves
ĠDen mark
Ġdeploy ed
ĠWay ne
}}\ \
ĠChrist ians
ĠA B
Ġbal anced
Ġmanifold s
Ġd uties
Ġcontrib uting
Ġj ail
S eg
? )
D etails
ic he
Spec ial
ac ular
Ġopin ions
Ġnucle i
sub float
Ġp ars
ĠL ess
Ġsupp lied
ug u
Ġre ign
@ {}
Ġin aug
moment um
Deb ug
um ann
Ġsym plectic
Ġpurs ue
Ġre cre
re ction
Ġf o
op les
P ay
Ġphot ography
se lected
Pr int
Ġclaim ing
Ġobserv ational
Ġcons ensus
ĠCon vention
ĠLu ke
ĠApp lication
tra ining
yn asty
cons ider
Ġappoint ment
ad ic
ĠF ix
Ġincor rect
Ġtack le
Ġagric ultural
L Y
Ġrecord ings
Ġdual ity
G T
ab ol
comp ass
Ob j
ĠMit chell
Ġw ides
block List
17 5
symmet ric
Ġdevelop er
ĠGal actic
Ġt weet
Ġf illing
ĠĠĠĠĠĠĠĠĠĠĠĠĠĠĠĠ ĠĠĠĠĠĠĠĠĠĠĠĠ
S end
c n
Ġaccept able
Ġsummar ized
Ġcon gress
Ġag enda
igh bor
Pres ident
fig s
ĠRes ource
Ġt ies
Ġs i
Ġcan n
` ,
Ġpet ition
K ind
A I
In valid
Ġb eta
Ġbl ank
sur ance
ĠBl ues
Ġas c
k ar
as g
ĠC rim
Ġconf lic
vol ume
m art
h yp
5 12
er ver
ĠM aj
d etails
Ġe cosystem
ĠLiver pool
ĠEd inburgh
I AL
ĠMar ie
M ag
Ġsurv iv
ĠS yn
Ġth ro
Ġswim ming
ĠCont ract
Ġbeg un
ation ally
Ġhard ly
MA X
ĠP i
ĠClass ic
M er
Ġrad i
ed a
Ġdel iber
Sing le
Fe ature
est ions
Ġenem ies
st ats
ĠP ic
uck er
Ġinhab it
Ġqu ote
ming ham
sche ma
ĠHawai i
Ġb orrow
ĠA y
D iv
Ġd ated
Acc ount
Met adata
Ġsimpl ified
FF FF
Ġrefer ring
ĠCamp aign
ĠIm perial
ĠMag ic
ĠS ide
; <
Ġj son
config uration
st ration
he ro
Ġkil omet
X ml
Ġpropos als
Ġcl othing
ĠAss istant
Ġregular ization
ĠC oul
Ġview ers
const ruction
L java
Ġvess el
Ġcomp ounds
= [
l r
Ġproof s
ĠT s
ĠAl aska
i ref
ĠR av
Ġflow ers
Ġbright ness
ĠMarg aret
Ġqu bit
ur ious
Ġl ung
}} +\
Ġapp aratus
Ġoscill ations
plement ation
BL P
D ouble
ĠBar on
Fig ures
ĠL ower
Ġmem brane
Ġfunction ality
hy dro
ĠHun ter
pos itory
ĠBrother s
ã Ģ
m icro
19 0
p rom
ĠCl ar
Ġfound ing
p olar
ĠSt ev
C at
Ġcross ed
B ound
item s
Ġcommun icate
ĠMat hemat
\' {
Ġtr im
cm d
ĠM all
ĠPortug al
Ġachie ves
Ġh itting
J ECT
ĠSe pt
ĠB Y
T ake
ac o
Ġg raphics
Ġsurv ived
ĠCh amber
est one
ay an
ij k
Ġbuild er
om ed
FA ULT
sc ription
Ġcampaign s
ĠSte el
ĠH ockey
Ġcl othes
fe ature
Ġ\ :
E nabled
k ens
) ~\
g age
Ġlic ensed
ĠĠĠĠ ĠĊ
ĠK arl
ĠH R
ash ing
T ransport
Ġs hed
ue z
Ġprom oting
w art
ĠP ref
Ġup grade
Ġb ene
ĠPe ak
d ig
ĠWhe ther
ĠP ant
l ov
Ġstret ch
ĠCommon wealth
Ġob sc
Ġprim itive
, (
ter ms
Ġanim ated
=" "
ĠWith in
ĠPer haps
Ġr ally
Ġsequ ential
' ,\
Ġover se
ĠPark er
ic ons
m etic
war z
Ġparticip ating
ĠPr int
ĠConst ruction
G reat
Ġre vol
ro us
D ue
ĠPri or
Ġvolunte ers
}{ $\
in line
Ġâ Ĥ¬
ĠL oc
We ek
hor izontal
` .
ĠT ig
Ġrest ored
usal em
Ġsequ el
ĠC F
Act ive
ĠBe ing
ĠCro at
ens on
ĠBar bara
el astic
om on
Ġtr ump
Ġvari eties
Ġdetect ors
Ġs urn
ĠMach ine
j ud
C ard
}] $
oc ese
Ġste am
ĠDep uty
ĠK rist
Ġinter active
Ġple ased
L aw
Ġb ullet
Ġca ps
Ġbare ly
ĠV ancouver
Ġview ing
al og
Ġf ulf
Ġb ronze
B ur
ĠC row
sp ot
by te
it ual
Ġlong itudinal
Ġext inction
Ġtom orrow
) <
ĠC el
Ġh ur
Ġe lem
s pl
_ ;
G H
T F
sm ooth
ĠColl ins
ran ean
Ġas p
ab is
ĠA rena
Ġ\ #
Ġel abor
Ġj ew
ĠPr incess
ĠI O
ĠK an
Ġembedd ings
Ġt ips
th read
S ources
Ġlong est
h ig
Ġb read
ĠH aving
Ġapprop ri
are a
Ġple asure
riv ing
ĠF alse
ari ants
ĠO cc
ht bp
l iving
3 20
T ool
ut o
14 5
ĠBre xit
. *
ut ers
process ing
ĠS NR
Ġart ifact
ĠSte ven
Ġgra in
ĠL anc
ĠMad rid
p any
| {\
ĠN at
Ġ( *
ĠC rown
ĠCra ig
Ġpre val
Ġlux ury
rape ut
Ġrad ii
t ar
Ġear liest
Ġdepart ure
ĠSh ah
Ġdiscrim in
set length
19 13
33 33
LE CT
P a
ex act
Ġrot ating
Ġball s
oth s
De lete
ĠCharl otte
Ġemphas is
Ġparamet riz
Ġunder ground
ĠE le
ĠE li
Ġsoph istic
Ġjav ax
p b
Ġs aving
quir y
}^{ *
or ious
w ild
Ġimp ose
W id
Ġse cre
e or
Ġexam ination
R ect
Ġtravel ing
Ġprot ests
Or gan
Ġcurrent s
Ġchem istry
Ġmotiv ation
Ġrom ance
ĠG ot
g h
Bi ography
Ġpl ug
is o
ĠOper ations
ĠLead ership
Ġp ill
ĠT i
s qu
om ing
Ge orge
M ember
bo olean
Ġshould er
Ġfl ags
Ġpar a
Ġschol ars
Ġingred ients
produ ction
D ialog
Ġin line
it atively
Ġdi et
ĠLabor atory
Ġscal ed
Ġgl ad
st ellar
Ġin ev
ĠLiber al
Ġhol omorphic
} "
clud e
b ach
cess ion
ou ter
ĠD og
d ue
Ġveter an
prot obuf
Ġep id
Ġswitch ing
Ġload ing
Ġcomplet es
Ġvo ices
ĠSt ra
Ġstup id
Ġf ed
ĠMont real
comp are
Ġin coming
ĠEm peror
Ġconf usion
ĠJ en
Ġper mitted
ĠH ope
e als
c in
Ġ$ -\
2 25
Ġcon dem
13 4
qu al
ĠLead er
Ġexpat riate
Ġdist ant
h op
s ong
Ġburn ing
S il
m ill
Ġearth qu
Ġconver ge
Ġal ien
Ġposs ession
Ġs orry
ke ley
che m
Ġlaws uit
ĠD ifferent
ĠLeg end
ress ing
ens en
âĢ¦ ]
ow ell
Î ¹
re ach
____ ____
Ġneg lect
Ġsimpl er
ĠMult i
ĠN eb
ĠR ank
Ġn ont
Ġsm ile
ĠG M
ĠN BC
à¤ ¾
Ġless ons
J ac
ĠStan ley
Ġh az
le tt
Ġconsist ed
TE ST
ĠG ran
clip se
ĠR S
c ient
Pl ot
Ġo ct
O H
Ġsh ield
Ġ< =
Ġen orm
Ġl uck
ĠI M
Ġau ction
ĠH ind
Ass ert
ĠSpe ed
Ġd rew
Ġoccasion ally
Ġun ve
ĠV ery
Ġsu gar
cos ity
ĠOther wise
ĠJ azz
Ġal igned
Ġaut omorphism
iv o
ĠFe ature
ĠBroad way
ĠFriend s
ĠU pper
Ġ ray
="../../ ../
s ig
Ġn g
Ġspeak s
ac re
Ġmodel ed
ĠMa ine
Ġcoinc ides
By tes
T L
ĠN EW
ĠBul gar
Ġwides pread
Ġdiscrim ination
ĠO ri
spi racy
Ġexplos ion
Ġtrans mitted
Ġfoot age
S chool
Ġstream s
Ġout door
ĠP el
ĠN ad
ĠCh ron
inst all
Se lected
Ġg est
Bo olean
Ġens uring
ĠF el
d ark
Ġdip ole
ĠO range
ĠU lt
Ġflux es
Ġobject ives
Ġassum es
f ac
ĠIran ian
ie ve
od s
Ġtra iler
Ġcycl ic
ĠCP U
ail ure
Ġconsider ably
Ġactiv ists
'' .
ia o
x rightarrow
Ġpar ity
az ines
ĠT ab
Ġter rible
ount ered
M aster
Eng ine
Ġdifferent ly
ĠUn like
Ġint rig
Ġg ard
ĠM ason
Ġestabl ishing
Ġm ood
imens ion
â ĪĴ
Char acter
ĠCl aim
oc ate
Ġdis placement
Ġprem ium
Ġconcent rations
re ck
ĠR ules
b ibliography
Ġobserv ing
By te
Ġtw isted
ul ates
Ġmod ifications
ĠAr n
ĠJohn ny
Ġinflu ences
Ġ ions
Ġgr ants
ĠComm ons
ole cular
ĠHon or
Ġ )\
f d
Ġb ug
St orage
Ġindic ator
ĠG ate
ere n
Ġcur rency
Ġconnect ivity
ĠArk ansas
ĠD etails
Ġact ively
Ġunder ta
AS H
Ġoccur ring
}] \
P et
Ġd ad
rap ol
Trans action
ĠC ultural
Ġwar rant
") ]
* {-
Pro fess
Ab stract
Ġg allery
ĠRob in
ĠDen ver
Ġintegr ity
ts d
ryst al
Ġb io
Ġattract ed
19 11
ove re
Con clusion
cho ose
Ġhighlight ed
KE Y
ĠT ogether
IT H
Ġab road
Ġam id
met ric
Ġdelay ed
ist ration
Ġar row
Ġconjug ate
Ġstr at
ce ut
Ġpred omin
Ġs oc
do i
_{ (\
Ġprom ised
um my
ous ing
g un
Ġhuman ity
tra ce
Ġst eal
ĠChe l
ac les
t c
Ġmoment a
Ġcom ed
con j
Ġsp ins
Ġrec ur
Ġvent ure
Ġt une
ĠK itt
ĠFrank lin
Ġv it
Ġgrate ful
ĠM oney
M ad
W in
ĠWork ing
ĠE M
th a
od ium
Ġsl ice
ĠUp on
Ġr iding
Ġprotocol s
Ġdecl ined
Ġup load
Ġhand led
te ch
Ġpaint ed
ens is
F our
15 5
Ġmet adata
O B
Ġcommut ative
Ġstreng then
t oggle
ch art
h aw
Ġm eth
ĠB illy
Ġconsider ations
ress es
ĠCre ative
Ġreserv oir
& +
r ish
Ġsp ont
ĠIn n
Ġprepar ing
Act ivity
ĠD ra
Ġa fraid
Ġph ones
ud son
ĠP ad
ĠN ep
Ġent ers
20 23
not ation
o ons
Ġsusp ension
ĠOper ation
ĠC old
ann es
sin h
Ġabs ent
t ies
iv ariate
Î ½
arma ceut
N D
W el
Ġaver aging
Ġsa il
X Y
as is
!! !
ĠO d
Ġcal endar
) ~
ht b
Ġfit ness
Ġprogress ive
roph y
Ġretain ed
ĠSt re
" =>
de velop
ĠMan hattan
sq l
ath on
P erson
Ġ\ }$
Ġadvers arial
Ġpro l
ak u
ĠG ray
ĠT oy
Ġimpl ied
Ġess ay
ĠB esides
Ġuns igned
ĠOr chestra
Ġqu art
ĠCar ibbean
^{ {\
Ġdiv ide
Ġcorrect ed
ab c
Ġmob ility
Ġinteg rate
ĠRead ing
lades h
Ù Ī
Ġnot ably
Ġlect ure
Ġenvelop e
ĠF ight
Ġsynd rome
ĠS ad
ĠGr iff
Ġarrang ements
}, \\
Ġsimpl est
ĠSus an
Austral ian
Ġforest s
Ġ' '
Ġg ross
Ġenc ountered
Ġattempt ing
Ġrat ings
ĠM I
Ġsk etch
own ed
Ġrest ore
Ã ¥
Ġin cent
Ġsh it
Ġevery body
Pat tern
o i
RE AD
}) }\
ro c
Ġbon us
Ġeng aging
et ics
Ġcult ures
Ġatt ending
ĠB ron
Ġan nu
h ref
ho o
at ile
am az
), (
cos h
Ġbl ame
top rule
Ġche st
Ġrec ruit
Ġbond s
at om
ĠB orn
Jo in
own er
he art
Ġsee ks
Ġpack ages
ST M
d etail
{ +
ĠC BS
}} ^{(
t ures
Ġfor um
Ġext ensively
Ġin ject
ed ly
Ġweak er
=" ">
ah a
j or
Ġobtain s
ĠO liver
ĠF alls
for ced
r ust
an im
Ġland mark
Ġinstrum ental
ID S
Ġreconstruct ed
Ġqu oted
ĠL isa
L y
P eter
M ake
}. $
ĠAgain st
b rand
ĠG W
Ġcommission ed
Ġrel ay
be y
Ed it
ĠProfess ional
am ic
Ġcontroll ing
Ġim plements
ĠC over
Ġvess els
P DF
e very
Ġl ibraries
Ġlogarith mic
Ġm ath
Ġpri est
Ġmon op
ĠK u
n p
ĠD ouble
ĠA ld
Ġed it
ĠStrateg y
Ġcomput ations
Ġacqu ire
Ġpoly mer
Ġmanufacture r
Ġpat ent
ar ms
uss ia
Ġsubstr ate
ĠFin land
Ġp ounds
pr ison
hes is
b ie
Ġceleb ration
ĠSe an
us k
ĠN N
Ġelim inated
Ġa pi
Ġl ov
ĠF ine
der iv
ro v
Ġde ck
Pro duct
ĠN A
ĠK il
Ġg overning
cc entric
). $$
\!\! \!\!
Ġpen et
h is
ĠPro duction
Ġdis ks
M atrix
Ġm as
ĠDe velop
ĠR io
rel ations
Ġdisput e
J S
pro gram
K ing
Ġg amma
B orn
ourn ament
ĠA the
ĠNet flix
Ġdeploy ment
Des ign
Ġhar vest
fra ction
ĠCh a
Ġp up
ĠAir lines
Ġpo ison
- $\
air y
Ġcoast al
ĠV eter
$ }\
Ġaccount ing
19 08
M ajor
Ġneighbor ing
l ive
Ġre n
L ondon
Ġc ous
Ġf ate
ĠM uch
Ġtext ure
ĠAd vanced
ĠA aron
Ar gs
is ible
gg ed
7 50
ĠK ids
eb ox
Ġmethod ology
it ime
Ġreal ization
O k
s witch
ĠI o
Ġdo zen
sh ore
ĠL ost
ĠBen jamin
W W
Ġt et
ical s
Ġexponential ly
Ġsc ream
Ġtw in
[ {\
}} }{\
ĠL ot
Ġcard inal
ph ysical
ĠS eg
Ind ian
n ear
Ġw elfare
ĠD ise
call back
Ġimp ression
g tr
ĠHel p
O lymp
Ġf oss
Ġoptim ized
ĠArt ist
row ing
Ġseem ingly
ĠNav al
ant ics
Ġp our
bor ne
Ġimm igrants
ĠI de
ĠP ictures
ari ju
Ġde cent
em p
Ġgrad ients
ĠTer rit
ĠH ost
H P
Ġgrad ed
ine e
on ce
list ed
E ducation
Ġbelie fs
ot ton
Ġpair ing
Ġenter prise
ĠEx hib
"> &
ri en
In f
Ġvirt ually
Ġd ub
col head
f m
Ġdeput y
Ġinf er
ĠPr imary
18 90
uls ion
Ġactiv ist
G AN
Ġover head
co ordinate
im et
ariju ana
big oplus
leg ate
s ave
Ġ' /
av ailable
ĠRe yn
ĠSt ream
Ġdef inite
ĠĠĠĠĠĠĠĠĠĠĠĠĠĠĠĠ ĠĠĠĠĠĠĠĠĠĠ
Ġrepl ied
pass word
Arg ument
ĠR s
Ġex terior
Ġmanufacture rs
ĠSing le
us p
group s
J P
- {\
Ġaltern ate
ĠF ast
ars ity
Ġc inema
Ġfor b
Ġatmosp heric
Sy mbol
it ious
ĠG round
Ġdiscuss ing
ling ton
Ġsw ing
l st
Ġdist inction
ION S
Ġver ification
ĠQue bec
00 2
M ock
ex ception
M N
Ġamb ig
Ġad s
ĠSh are
Ġintegr ating
ĠF iction
Ġdwar f
s olution
B al
Ġn m
m agn
ar ound
ĠInit ial
Ch ina
is en
L ive
ĠBl oom
UN D
t p
ig o
b g
Ġaccom pany
pl ant
omin ations
ĠE R
ĠBre ak
ik o
ethe less
ç ļ
im s
Ġpubl ish
Ġas ymmetry
H a
Ext ension
Ġsing ers
Ġachie ving
Ġinvestig ating
Ġse eds
ĠH indu
ĠE V
Que ue
Ġpref erence
Ġdef ic
ĠJer usalem
drop down
Ġoff ense
necess ary
pat tern
ĠO ption
Th omas
q q
fra g
Ġbehavi ors
Ġroll ing
ĠJ a
h ind
he astern
Ġcomp ilation
ener ate
Ġconj unction
ĠH orn
var pi
op a
Ġin ches
D BLP
Ġevery day
I ES
Field s
Child ren
13 6
ett i
am ine
Ġle an
Ġcomp os
ass y
el o
xim ity
Ġbr ut
Ġtra pped
ĠCo hen
Ġevolution ary
Ġutil ized
ry ing
Ġanom aly
\\ \
D u
Ġproject ions
Ġcast le
ĠK ind
ĠUnivers al
um m
un ique
os oph
Ġbroad er
resize box
Ġincor porate
Ġalleg ations
Ġneur ons
}$ :
cont roller
Ġopp onents
ĠL ad
Ġdevi ations
ĠG ay
Ġsum s
ĠIn surance
Ġdoll ar
Ġt ags
Ġadjust ed
A wards
v v
it i
r k
R ay
Ġmiss ions
ĠC arn
Ġconf used
Ġp owered
ĠB eck
Ġp ul
P ower
H ol
ĠN ag
ĠE state
] ^{\
Ġcom ics
ĠCru z
Ñģ ÑĤ
×ķ ×
g as
Ġex ports
ĠR C
pred ict
Ġab ilities
ĠEconom ics
Ġp ub
ĠA my
d n
12 9
ĠRe act
Ġdec ides
Ġh ung
ars on
Ġhistor ian
Ġt ap
Ġint ra
uk a
Ġinn ings
ĠM erc
Ġtrac es
Ġtele phone
ov ich
Ġincred ibly
ĠK ur
Ġcert ificate
Ġt ar
Ġarch ae
Ġtra p
umb ered
Ã ł
O fficial
19 2
Ġaud iences
Ġhand ed
Ġcoal ition
Ġsh ops
Ġevalu ating
Su ccess
contain s
con vex
m other
A uth
F lo
H istor
aren cy
ĠM ack
c z
ix on
M OD
Ġhad n
F s
Ġprison ers
Ġdegener ate
Sym fony
}} _\
Ġmid field
Ġch ances
ve ctors
ĠN ar
Ġl ocked
Ġa z
Ġass ass
ĠDak ota
Y PE
Ġnob ody
ĠIss ue
+ $
Î µ
ig ion
ap or
ĠBay esian
Ġth irty
V C
Ġqu bits
Ġimportant ly
ĠM ul
Ġassert Equals
Ġagric ulture
ĠM is
b os
Ġcoinc ide
ĠR u
Ġi i
ĠTurn er
ĠT ak
asg ow
US E
Ġfall en
Ġe leg
! [
$ ^\
Ġenhance ment
ok a
Ġappro ached
Ġfail ing
Ġep ic
N a
em a
Ġr ated
Ġmount ed
H ave
ĠPortug uese
ac co
vel oc
Ġwild life
ed itor
Ġstructure d
Ġvort ex
Ġl ady
s ized
ĠS ym
un ion
ĠGi ants
cast le
D er
ĠM R
Rich ard
face book
çļ Ħ
ĠSer ver
class ical
Ġwarn ed
Ġadequ ate
}$ ),
opt im
IF A
Ġlog o
ĠBrazil ian
B it
Ġper ception
Ġ" /
B a
Ġcut off
an chor
Ġcre am
ĠMove ment
Ġa ired
5 000
ĠS ett
^* (\
ado op
Ġcompet itions
Ġengine ers
L ock
Ġt rem
ĠCommission er
ĠO tt
iter ranean
iz ard
ĠP rix
Ġca usal
pend icular
Ġhospit als
Ġdis h
Ġte eth
ag ent
Ġcell ular
Ġb ills
ĠAv ailable
Ġflex ibility
Ġd elta
ĠCo al
cur ve
Ġill um
qu et
Ġhun ting
ĠM ade
l iter
Ġk iss
ook ie
scal ebox
Ġbatt les
Ġutil ize
Ġsingular ities
l ag
Ġr ice
em on
om es
ĠDef ault
Ġisot ropic
. ).
Ġle ak
ll a
Pro gram
Ġt err
Ġbranch ing
Wind ows
ĠRober ts
Ġrad iative
H aving
ĠAr g
St ation
ĠGra ce
S ocial
ord ination
over rightarrow
Ġinflu ential
S cal
Ġadj oint
ĠP rad
Ġdem ol
ĠHam pshire
r n
F lor
By Id
Ġexist ed
$ ^{\
ĠBe ijing
Ġinsp ection
Ġnucle us
u ate
ra h
e lection
ĠB ec
ĠEd ge
unt ed
ĠArch ive
Ġcon g
ĠL arry
Ġsm oke
Ġsp ell
Ġpl ates
sc roll
z ens
ier ra
vent ions
L ie
n atural
Ġsc atter
Ġthere in
i u
Ġb ubble
Ġsc attered
Ġaggreg ate
res a
b ai
u id
ĠPer ry
Ġto kens
ext ension
ul in
ĠTechn ical
orient ed
M el
Ġprov isions
ab atic
f ers
w oman
cle an
c v
S at
ĠTh or
Ġc er
Ġopp onent
Ġindu ce
s it
Ġen abling
abil istic
ĠB ranch
in ced
st ock
n ia
M ath
Ġhomot opy
d m
Ġmole cule
P rom
Ġgold en
Ġdisapp ear
ĠM ol
Ã Ĺ
Ġp arks
19 05
}\ )
p al
ĠFant asy
Ġcor ners
Ex pl
ĠMor ning
ĠCam eron
Ġsh ipping
Ġcharacter ize
ĠSe ven
Ġg ri
Ġred und
Ġ ell
pos al
to o
ĠC ensus
ent o
im ony
par ing
Ġhe m
Ġ\, .
Ġqual itative
at ial
ĠP D
h um
3 000
ĠK el
Ġag gressive
out ing
am med
ox y
h idden
Ġadd itive
Ã ´
Ġsub stance
Ġg onna
Ġro cks
bibliography style
Ġmer ge
u art
Ġpain ter
Ġk iller
}) ^{-
ĠJenn ifer
Ġh ub
ig roup
Ġrig id
ric ulum
Ġrot ational
): =
Ġsp ir
ĠR ule
ĠM essage
Ġscient ist
ĠKir k
q ed
)} =\
Ġno isy
Ġextra ordinary
A x
ĠL anka
ĠC arm
reg ister
Ġm os
ĠC ox
ĠLe ban
N umer
om i
hol m
gtr sim
ĠZ one
Ġaccompl ished
m iddle
Cl oud
Ġcalcul ating
ĠIndust rial
Ġm sg
}. $$
Ġfl ower
Ð½ Ð¸
Ġrid ic
Ġfre ely
Ġlet s
' +
m ock
AT ED
as ive
ĠR T
Ġpro s
)$ $
ĠL ion
ow ing
Ġbut ter
Ġcontrovers y
Ġl ucky
it ian
B Y
à ®
Ġstrugg ling
Ġw ounded
ĠMin or
Ġor al
s elling
Ġspeed s
ou b
itz er
ĠInd ians
que ue
M ill
ros so
grad ient
pro to
Ġsear ches
j query
ĠR acing
ĠConserv ative
gra duate
rist ol
pt ive
ĠB ody
if ice
Ġrobust ness
orig in
ĠÐ ¿
Ġneighbour hood
c op
ress ions
B ER
eq q
Ġalleged ly
ke ep
]{ ./
Ġequ ity
E V
y outube
ĠS id
Ġsy mp
Ġspec ification
w en
ĠBar cel
r ates
Ġc oding
}} )\
the ir
Ġin ert
Ġexplo it
flu id
Ġde com
ĠIn novation
ĠG host
typ edef
Ġin frared
ĠSpring s
sh ops
ack now
r arily
Ġimm une
ĠSu ccess
Ġnewsp apers
ĠI E
ĠG arc
in ely
hom ogeneous
}= -
==== ==
I mm
ĠNev ada
Ġselect ing
Ġsubt le
ĠP ick
}) :
ĠCarl os
16 5
osp el
Ġs id
F iles
r ink
Ġb orders
Ġsk ew
ĠV AL
Ġed iting
Chang ed
idel ity
Ġdev ast
ĠMur phy
ĠB enn
Res earch
Ġvalid ate
Ġcomb in
ĠBern ard
AN G
Ġdiff ers
as ia
ĠÃ ¢
d k
Ġmyster ious
Ġtem por
N ever
u cc
if iable
ĠN an
Ġgraph ic
Ġcollect ing
E ast
Ġapproxim ations
Ġgl uon
ĠN am
T ur
Ġven ues
Ġsc reens
Ġasymptot ically
' }(
1 19
rib utions
Ġn ights
Ġic onic
+ {\
ĠJ erry
J im
Ġmod elling
app ly
In formation
Ġj ury
Ġper ceived
ĠHill ary
×Ļ ×
system s
ĠBir mingham
ĠL aura
bottom rule
ĠTerm s
ĠE lection
15 00
Ġhost ing
ĠN othing
Ġcitiz en
ĠT D
RE D
Ġcharg ing
Ġn od
id ad
Ġconv inced
m ot
ov ic
Ġdescript ions
Ġoccur rence
ĠSp ot
ĠE ve
Ġl in
Ġcount ies
ĠC ould
ĠDemocr at
Ġbank ing
_{ {
Ġun clear
integ er
N F
Ġjo ins
Aut o
raise box
Pro file
Ġt ons
Ð ·
A U
ĠY u
ĠIs a
Ġh oney
13 2
Ġrhy thm
p es
ps y
^{ *}
L ove
it ol
Ġgenu ine
Ġch at
Ġansw ered
ĠKe ith
Ġrest oration
ĠG ov
Ġcont raction
et on
Ġrun ner
Ġlo ose
Ag ain
Ġb ot
Ġad min
, }
Ġbl ast
ĠEnter prise
ĠLiter ature
Ġconcent rated
Ġnont rivial
Th m
Ġstreng ths
Ġst unning
B ill
fl ux
ĠGuard ian
Ġbene ath
ĠM om
f am
ĠDef ine
ĠL ux
ĠA u
ĠV ent
coll apse
... ,
ĠCle arly
e igen
Ġc ust
Ġde emed
Ġc ave
ĠAnd re
f ar
Ġking dom
W il
Ġpl acing
Ġsub stitute
In ternal
Ġ( #
ateg y
iz a
Ġper pet
Ġl ap
ym atrix
Ġpoor ly
ĠWar ner
] \\
ĠL HC
de cess
Ġout line
ond o
ĠF ish
Ġsp iral
ins ula
Ġh tml
J SON
s ame
ĠAlex and
ĠW E
Ġwood en
Ġd ots
ĠN ord
" |
Ġi OS
b at
ĠK on
= }
Ġch ip
Ġtour ism
an cer
Ġtal ented
Ġenthus i
Ġm arch
pro j
d one
Å «
Sc ope
in ar
Ġval ued
Europe an
ĠA SS
ĠImp act
Ġbe ating
ab ul
Ch ris
ĠFig s
r ub
amp a
ĠTe acher
Ġst roke
Im port
Ġgo ogle
Ġd ump
ĠF itz
Cl ose
Ġdig it
i w
Ġz ones
Ġdis orders
f x
r v
Ġm apped
ĠN iger
Te chn
id ation
Ġneg lected
L I
S B
un ting
Ġiniti atives
R ussian
p us
ĠJ oint
13 7
Ch apter
Ġtun ing
bran es
Ġvis cosity
ĠY uk
ocol ate
Ġimplement ing
g ap
an ne
Ġrad ar
at omic
~~ ~
Ġemot ions
Dat abase
Ġarriv es
b is
Ġuncer tain
Ġinit iated
Ġri vers
Re lease
ĠFl ight
Ġa est
ed i
Ġsc roll
Û Į
Ġpsych ological
ĠWe yl
Ġbo ards
friend ly
Ġt ast
Ġfast est
ĠP E
19 09
ĠLin ux
ĠM ix
Ġcap ac
Hel p
Ġco res
ine a
ĠB aby
d v
at z
vari able
H en
r us
Ġkey board
di agram
bound ary
M sg
Is ra
Ġperturb ative
amp ed
ĠT rain
}{ !
ound ing
Ġregular ity
... ]
Ġang ry
o es
ĠW a
att ribute
Ġsophistic ated
H I
ash a
e eq
equ ence
ĠC ut
Ġsil ence
ĠB right
m r
Ġtreat ments
Ġdepend encies
ĠY a
Ġinc idents
) },\
^ *}
ĠSy rian
ret ch
Ġ io
Ġprot otype
Ġd ying
Ġplace ment
Ġgot ten
Ġcomment ed
ĠA F
ĠF is
Ġhabit at
Ġt ape
Ġdro ve
t ip
Ġsub graph
N or
ass ment
] }\
J ob
cons ist
Ġaff ecting
S QL
Ġcor por
IP T
ĠU TC
Ġpreced ing
Ġautom ated
Ġcol ored
p n
or bit
ph abet
Ġwork shop
inc inn
)$ }
Ġfasc inating
Ġevol ve
ogen ic
AN CE
Ġst er
ĠM B
ĠO P
Ġneutr inos
ose x
Ġre write
Ġad op
Ġequival ently
ĠN icol
19 06
T ri
he ld
ĠT arget
Micro soft
Ob serv
ĠBarcel ona
cept ions
Over view
Int eg
Ġegg s
Ġl obby
Ġrob ots
he ll
Ġco in
Ġpresent ing
em or
Ġmark er
ï »
}) ^{\
Ġs li
othe rapy
ĠO scar
Ġup set
ĠW AR
iv ic
ĠMountain s
Ġlif estyle
Ġexp ans
Ġpo inter
ĠSquad ron
ĠM Ps
ĠK ath
ĠC emetery
Ġcolon ial
Ġdeliver ing
ar an
Ġd b
Ġel ite
ĠN ode
acknow led
Ġw ings
Ġbar rel
akes pe
ĠÎ ¼
ĠMar sh
LE D
in ery
st eps
ĠCit iz
ĠRes ponse
Ġcomplet ing
is ors
Ġsat ur
Ġsec ured
L ou
ĠR ico
di agonal
Ġrecommend ation
Ġsusp ected
ĠBe yond
Ġrem emb
U ID
ĠT erry
bra ham
Ġdaugh ters
eg e
exp ect
L ead
ĠN intendo
ra k
Ġg aps
Ġproceed s
ĠC ole
Ġl iv
UT H
Ġannu ally
)) =
ĠUk rainian
Ġre cycl
Ġme al
mid t
hand ed
ĠBill board
Ġpol es
pol icy
m ind
Ġentreprene ur
Ġnegoti ations
ham mad
Olymp ic
Ġin sect
Ġadopt ion
ĠMov ies
ÑĢ Ð°
Ġsh ore
ĠU g
Ġturbul ence
NR AS
ĠInf antry
incinn ati
R oman
ĠG ets
ĠHe b
å ı
L arge
r Ã©
ĠO wn
Ġunder go
A W
V R
g re
13 3
Ġr itual
Ġl ingu
VER SION
Ġconv icted
ĠR ud
ĠNaz i
d ynamics
Ġmem orial
Ġafford able
E lect
Ġal pha
ĠW orth
F rank
m und
Ġb tn
Ġn ose
Pan el
ĠP aramet
Ġb is
M ot
ĠMet ropolitan
t f
ĠD iamond
ĠF ro
Ġvari ational
Ġprom ises
f its
ĠG olf
Ġcam ps
S ER
app rop
d iction
ĠOver all
ĠA ve
Ġapproxim ated
ĠIm port
( $\
Ġmind s
Ġpres erving
Ġodd s
ĠFac ulty
ĠPalest inian
Ġsimpl ify
ĠF ollow
B ay
ĠTe V
Ġsupp ression
ĠSh a
Ġsold ier
f ollow
condition s
19 04
Ġout lined
Ġsummar ize
ĠB ud
20 2
B G
Ġcon ce
f ollowing
Ġenorm ous
ĠR L
OR Y
Ġped est
ĠV erm
Ġpre vention
ĠBang ladesh
Ġgather ing
Ġd ancing
ĠMe chan
B ibliography
P rior
ĠW onder
Ġsk i
Ġpo ems
Ġembod iments
l vert
C amp
Ġkne e
P Y
tem p
* {\
Ñ ĩ
x ymatrix
[ :
e V
osp here
ust ers
ov o
Ġcontact s
ĠT it
ĠT on
S everal
ĠHor se
U LE
ffic iency
Ġrev ised
Ġspons ored
AM P
ir s
Ġthe sis
ï» ¿
ĠG C
', '
ĠE lementary
Ġmunicip al
Ġanten na
Ġcontrib utes
Ġco pper
Af ric
ĠG rey
ĠCost a
ĠBo olean
ĠAlf red
ĠE D
Ġsuggest ions
Ġconvers ations
ĠR ing
Ġcompar isons
Ġn ons
b ank
\\ [
ell ers
ĠM ak
Ge ography
ex per
ĠHig her
Ġer u
f ive
It ems
m ir
b ia
et erm
prot ected
ĠS amsung
ĠC IA
Time out
ĠS ect
ĠP arent
Ġr am
\ `
Ġsum mit
ĠL ock
Ð¾Ð ²
os itory
Ġrun time
she et
ĠM ail
ĠH unt
ing ham
ick et
ari ous
Ġtarget ing
Ġr if
ĠHar rison
establ ished
ob a
Sim ple
f p
id ency
Ġan onymous
be at
f iction
ĠArchitect ure
p ull
19 07
ĠD rag
Ġrail road
ĠS urg
id i
ĠL uther
itte es
}) }{
ops is
Ġe ccentric
ĠT aking
arg ument
ow der
Ġdiv isions
Ġste pped
Ġdec oder
Ġmeas urable
Ġmass less
Ġnom ination
Ġprot ecting
ĠL ipschitz
Ġas h
b ol
Ġvolunte er
ĠM ut
Ġmes on
ĠM ong
tain ing
ĠDan ish
ĠF an
ĠD eg
pan ic
ĠK os
Ġf aint
SI ZE
associ ated
ĠP in
ĠD elta
Ġinhabit ants
ed ed
ĠL ED
ĠScient ific
ĠDef ence
akespe are
ĠMax well
)} }\
Ġres et
Ġpres erves
Ġrect angle
Ġf atal
Ġle ver
Ġpro spect
Ġhe x
Direct ory
E u
W alk
ĠS occer
I ll
R ail
ĠL arge
ro e
Ġsu ite
13 8
ĠCh ampion
2 60
Ġjud gment
h d
ess ages
ĠT ib
Ġrele vance
ĠKen ya
Ã© n
Ġa fore
Ġvol can
ol ia
ot ypes
Ġlearn s
cor relation
Ġinf erred
Ġcancell ation
Ġar rows
l ia
f b
d dot
cont rolled
Ġt orn
Ġb anned
ĠR achel
ick ed
Ġf iring
Ġindic ation
ĠMem ory
", "
) )$,
Ġrenormal ization
Ġext rapol
{ |\
ĠT ol
Ġcol ours
ĠAl t
Ġcyl inder
Ġpremi ere
Ġdisp ers
ĠMe eting
ad ows
add y
comm ut
Ġexperiment ally
ĠComm ander
\" {
ĠC hern
Ġe V
ĠSol utions
Ġexp ense
pl atform
mark et
ian ces
P ut
ĠNorm an
ĠSh ang
act ing
A ST
Ġun e
Ġquant ization
ĠD oc
Ġassert ion
Ġsc andal
ĠDr ug
att y
itt en
Ġcov ariant
pl ac
ĠR ange
Ġreli ability
Ġt ent
sat z
apt ist
ĠA x
Ġt ribute
De ep
Ġth rew
Ġmod est
Ġdetermin ant
Ġh orn
H ub
ĉ ĠĠ
gl s
m ount
IN S
G rid
f c
id ays
ĠAb u
Ġpoll ution
Ġemphas ize
pr ises
w right
âĢĿ )
Ġreason ably
V ill
m itting
ĠB io
g ement
ĠVin cent
Ġs its
ĠCon fig
Ġconn ects
ern els
conom ic
l brace
Ġw orship
ur istic
s al
ĠAl ong
ĠSal v
Ġdemand ing
= $
Ġhand ler
ore l
ĠNe il
t rain
Ġl ag
ĠFreder ick
R ock
ĠY am
ĠInter view
Ġhero es
Ġdraw s
c ott
ĠTechn ologies
L ee
}; \
| }{\
Ġmod ulation
act ivity
ĠB egin
Ġwor ried
ob b
Ġwant ing
Ġassess ed
log ger
Ġaddress ing
Ġillust ration
hab ilit
Ġco herence
Ġorig ins
UT C
Ä ĥ
sc ore
Ġinter pre
Ġpra ised
amb ers
{\ '
ĠCol lect
de cl
ĠZ hang
ĠM oz
represent ation
qu is
ĠMad ison
ĠVis ual
ĠC I
ĠLe ave
ĠT ed
anc ies
ĠQ ual
Ġmedal ists
ster dam
Ga ussian
Ġt idal
ĠC lick
ĠD ig
ĠâĢ Ŀ
ĠWat son
Ġinstance of
Ġb rick
3 30
Ġbel t
ĠÃ ł
ces ter
Ġsub div
Ġac ute
Ġsustain ed
S cale
Ġ( .
sen al
Ġj e
N orm
Ġmot ions
Ġhyp ers
18 00
reed y
ĠF u
int age
Ġform ulated
Ġb ind
ĠN HL
Sh ould
Ġbackground s
OP T
ĠF ROM
Ġpro ximity
ĠCom merce
ĠS ent
Ġn erv
ĠE ST
Ġexplain ing
ĠB A
Ġsk ip
J ava
ĠStat istics
19 01
ĠK id
man ager
ĠKe ep
MS E
ĠV oice
ĠMas ters
Ġinvest ments
Ġphot ometric
Ġob s
il ia
Ġon set
Con struct
Ġa xi
Ġachieve ment
Ġc argo
Ġm im
S G
** *
[ ]{
Ġcha os
ĠW or
ateg or
Ġdef ending
ip eline
alt ies
ĠWel sh
Ġf ighter
Ġind igenous
ĠSong s
Ġd ressed
Ġpers u
Ġex empl
harm onic
ĠF I
ad vant
Ġconserv ed
Me V
Ġst olen
Ġcal m
Con clusions
ĠS ometimes
ud ge
ific ant
Ġcomp iled
En vironment
ĠBrig ade
ĠB L
Ġair line
Ġdu o
M ike
em e
Ġwe igh
Ġcapt ures
ĠOrth odox
Ġaccompl ish
b atch
ĠW es
Ġf ool
ĠY e
Ġinv ariants
g it
n od
Ġbreak fast
UT F
ĠBer keley
ull ivan
assert Equal
Ġtradition s
Ser ies
ĠH at
b uf
m el
Ġd ivers
Ġcogn itive
Ï ĥ
the ore
Ġjoint ly
ĀĀ ĀĀ
ĠA LL
p arser
Ġb acteria
Ġres igned
Ġapp endix
Load er
Ġ[ ];
ĠPr im
e enth
Ġconsequ ently
ess ment
Ġpract ition
Ġspecial ist
ĠRich mond
i ov
ĠK ay
w iki
t v
j ack
Pro xy
Ġcyl ind
ced es
ber ger
algorithm ic
, +
ĠD rama
Ġper pendicular
ĠSc i
ĠJ ama
Ġ( [
Ġpre st
ĠGl asgow
Ġra pe
_ ,
^* ,
Pl ace
Ġ" "
ĠM ans
err ors
20 8
Ġact ed
alth ough
Desc riptor
}, $
Ġper f
Ġw is
Ġoccas ions
}\, ,
Ġdiscuss es
ĠL an
Cond ition
f olk
=" @
N V
vi ol
w d
Down load
Ġbos ons
Pl ayer
H F
Ġthermod ynamic
K im
ĠCh art
ak ov
ĠÂ §
Ġap olog
J un
OR K
Ġsurve illance
A pi
Rad io
Ġdim in
Ġsav ings
F rag
be it
14 6
Ġa qu
ĠCoul omb
ĠM atch
ĠMed iterranean
}} ^\
Sm ith
es ters
ĠForm er
Ġincre ment
Ġsubsc ription
ĠE SP
Ġrel ates
veloc ity
ĠCub a
Ġabund ances
ĠSt atus
we i
ĠTransport ation
Ġpre decess
Ġoverse as
ĠRequ est
F act
ĠD ir
Ġlimit ation
M ilitary
ĠT u
ounc ing
ĠC ant
Ġanticip ated
Ġsl ower
Ġsqu ared
do es
A h
ĠJ ob
Ġall ies
land o
key word
ĠCirc uit
Ġm amm
ĠE sp
Ġloc omot
ĠCl ay
Ġstay ing
id x
ĠW ikipedia
Ac adem
ĠJ eremy
ĠDe al
Ġsaf ely
Ġst yl
ĠB ass
14 3
chang ing
ĠHung ary
Y Y
Ġim prison
18 80
en able
colon eqq
Ġwarm ing
et ta
Fl ow
Ġvis ibility
Ġflo ating
ĠPh ase
ĠRe ference
count ry
Ġafore mentioned
2 15
Ġan ime
m ask
Ġsmart phone
os lav
por ated
og raphics
z h
B rowser
ĠLe v
With out
Ġharm on
Ġterror ist
g iving
Ġrecip ient
Log ger
Ġpregn ant
Ġsh ar
Ġconstruct ing
T ABLE
duc ational
Ġ\| _{
ech o
Ġemail s
}} }}
im edia
ĠU I
ĠR andom
ĠRail road
d ie
Ġanxi ety
Ġdepart ments
k now
ĠEvery thing
E t
Ġb ab
Ġl os
B ad
iv ia
Ġplan ar
Ġback ward
equ ilibrium
Ġfollow ers
Ġs s
Ã ª
. __
Mem ory
ĠDat abase
Ġhist ogram
inc or
Ġsent iment
Ġdiv isor
S ample
zer bai
C rit
Ġab ortion
Ġbo ats
H or
Prot ocol
Ġint elligent
Ġland ed
ĠL INE
14 7
Ġcomposition s
Ġreg imes
ĠChristian ity
ĠT itle
ut f
Ġsuccess or
Ã «
Ġcomb ines
Ġtem p
Dep end
æ ľ
Ġ Ä
ĠB urg
R oute
Ġaccommod ate
n il
Ġde form
Ġafter wards
au kee
Ġadv ances
B er
Ġexp enses
Ġle pton
ith metic
Ġhum or
Ġweak ness
Ġaut onomous
man y
ish ops
Ġcons olid
period ic
)$ )
M AP
over view
ĠBatt alion
Ġpost ing
weight ed
M apping
Ġa ster
ĠVi enna
oc on
um i
_{ |
sub ject
Ġco aching
ox ide
ĠL ate
l it
ambig uation
Ġun changed
ĠS ustain
J on
ĠT ournament
pl er
l attice
ĠGre ater
Ġback ed
H o
R o
yp ical
Ġstri kes
Ġarbit rarily
S K
ĠS ale
ĠS alt
ĠEm ily
Ġconfigure d
AD D
Ġsh aped
ha us
Ġcol leges
ĠReyn olds
Ġconclud es
Ham ilton
ĠĠĠĠĠĠĠĠĠĠĠĠĠĠĠĠ ĠĠĠĠĠĠĠĠĠĠĠĠĠ
ĠL ith
Ġspecial ized
ut ives
ĠCom plex
Ġstat s
ĠG OP
Ġbenef icial
Ġm ature
ĠAm endment
ol ute
con e
le ad
ey er
Ġshall ow
Are a
ĠEx cell
Ġout break
... "
Ġs lic
ĠEm ma
ĠCO VID
Ġthrow ing
Ð ¹
P red
Ġpack ed
; /
Ġinf ected
P V
Ï ģ
erg y
Ġepoch s
Mean while
() {
Tra ce
Ġcancell ed
ph al
ĠNich olas
com parison
Ġfis cal
Pl ugin
to ols
ĠV irtual
ĠI F
Ġbott le
Ġfactor ization
Ġf ingers
ĠExper ience
Ġp icks
Ġh int
Ġblock ed
L ow
D est
Te levision
Ġdesign ers
Ġp and
re ason
b eq
under brace
Ġok ay
Ġcomplet eness
ĠS r
?? ??
Ġconduct ing
M id
ub a
clud ing
aver age
Ġlov ely
i pt
ĠS oph
Ġcomplaint s
Ġcon form
Ġgovern ed
Ġto urs
Ġsubgroup s
k el
Ġtransform s
Ġagre ements
Ġsuperv ised
Ġlab our
Ġtre ating
){ $
M NRAS
ĠCh and
taint y
ounc ill
Ġprint ing
ĠK l
Ġdr illing
Ġac res
Wid get
ĠC ov
Ġcomment ary
Ġp ink
ĠW ould
() ));
h ide
ur ities
ĠId ent
Ġpass ive
cast ing
Ġ\\ \
ĠEgypt ian
L ayer
pot ent
AT O
Method s
Ġcross es
ĠCommun ist
ic z
ke eper
C NN
r brace
ĠClin ical
19 03
Ġrend ered
N ormal
J ew
ev olution
ĠN L
Ġanisot ropy
Ġp ec
Ġarchitect ural
Ġeconom ics
Le ave
######## ########
Ġrecept or
Ġcont our
ĠCond ition
Ġlegend ary
Ġad missible
ĠTh ink
20 5
Ġsho es
Ġd ictionary
Ġlist ener
ern ess
Ġmathemat ics
ivers al
or ic
Â Ń
Ġimp ressed
Ġw ars
est on
h all
Ġal arm
Ġmed ieval
ce q
âĢ¦ âĢ¦
Do es
or ro
ĠA w
col Last
ĠIn stit
Ġcomplex es
ĠA da
Ġir regular
M ont
Ġcou p
ĠE ight
ĠCon stant
Def ine
ĠP ent
Ġmultiplic ity
ĠCl iff
P rivate
ok u
Ġfriend ship
Ġactiv ated
An alysis
Ġbur den
ĠFil ms
con scious
Ġco ins
Ġcompet itors
D iff
ĠM ario
att ices
n ut
bl ank
elect ron
}} -\
Ġst om
Ġcomp elling
per formance
tab s
ĠTr uth
Ġpick ing
ra ising
Ġinterpol ation
N AS
ĠAct ive
Ġun c
ĠFl ore
So ft
ĠP erm
} '$
Ġw ishes
Ġvic inity
( !
ĠSh aw
ĠCons ervation
Ġwra pped
ĠSt op
cell color
Ġcourt esy
ĠT odd
us hes
dimens ion
Th ough
Ġfilter ing
Ġinter faces
Ġmag azines
Ġcur ious
g ba
Ġb ipart
N EW
ĠH udson
Ġlegisl ative
Ġisol ation
Ġob l
Ġassoci ations
non ym
ult an
cor r
Ġencourag ing
ĠRog ers
Ġtra ct
Ġoptim ize
G Hz
ho e
iz ar
Ġli ver
St op
nu cle
Ġpresc ription
Ġin clusive
eng u
M il
). $
ar ab
Ġeight h
ta wa
}}{ (
H ot
Ġaccess ed
Ġra ys
ON G
ĠTo o
Ġb undles
Ġpredict ive
ĠCont emporary
yl an
Ġdeb ug
F G
ĠU E
ĠD anny
Ġ Ø§
pl ain
ĠK ill
Ġdem ocratic
n or
-- \
y on
ynam ical
cel and
ETH OD
ĠM end
Ġbe ams
w aukee
p icker
ĠS K
Ġport rait
uch i
Ġfaith ful
serv ices
ab ases
ĠPlan ck
D uration
Ġabsor bed
and ed
Ġcl ause
Run time
i per
ĠQu arter
Ġstat istically
Ind ia
Ġcomp lementary
ĠB asketball
ĠR isk
Ġexcit ations
b ast
ĠLet ter
Ġ[ âĢ¦]
rosc opy
ĠF E
as ta
Ġport ions
ĠE C
ir r
Ġtra dem
ĠCommun ication
Ġsurv iving
ĠW rite
ĠĠĠĠĠĠĠ Ċ
bour g
ĠThe ore
Ġspread ing
ĠRid ge
h p
inter pret
Ġlegit imate
method s
Ġturbul ent
Ġev ac
ĠInt el
ag ain
Ġback up
ĠL ions
A li
Select or
Ġro ster
ĠN ancy
Dep artment
{- }
ĠSte in
-> ]
Ġcatal ogue
Ġmin istry
col First
ĠS QL
Ġpart itions
f lex
Ġc asc
ĠV ision
ĠM T
Ġarchitect ures
k al
Ġpray er
Ġle verage
assum ption
n odes
en o
Ġstrong est
Ġmort ality
Ġhot els
H ig
13 1
ĠForm ula
os hi
Ġl ane
M AN
Dis cussion
pr ising
36 5
Ġhere in
Ġphys ician
Ġoverwhel ming
ĠVenezuel a
Ġdocument ed
}$ &
Ġfood s
W C
Ġg ig
Ġk ernels
M ary
b ishop
ĠW ing
Ġport s
Pop ulated
ĠBuff alo
00 3
Ġconstit ute
ĠHar vey
h adoop
g al
he alth
ou x
), \\
Ġamb ient
ĠC er
ĠBet ter
rot ate
Ġtag ged
Ġpref erences
assert Equals
G N
ch air
( @
g ue
ĠB eth
Ġ$\ |\
requ ired
Ġ} (
ĠPy thon
Ġinher ited
L ater
spect rum
al ong
Ġanomal ous
ĠC V
ĠPier re
ĠColomb ia
B ob
ĠCustom er
Ù Ĭ
Ġs isters
resp ons
ĠAud io
E nergy
Ġbar riers
ĠCa uchy
ind a
P resent
ĠCom edy
Ġsign atures
16 8
final s
19 02
inter action
Ġfraction s
rapeut ic
AT CH
X ML
ĠCo ach
ĠH az
ĠP le
ĠBat man
ris k
ĠAd venture
Ġcritic ized
ish a
ĠN ut
Ġp orn
Ġrem n
geq slant
Ġown s
ir med
ĠK in
D H
T aking
rol og
pert ure
ĠN athan
rack ets
w ould
Ġs ink
Ġdo zens
Ġmist akes
ĠRet rieved
//////////////// ////////////////
Ġmaxim ize
r aska
ĠE mail
rel ative
Ġcert ified
ma xim
Ġtri ps
Ġarch ive
Ġsqu ee
Ġorgan ised
pan cy
ĠNetwork s
Ð ¿
ĠCl aud
ah u
ĠD B
ĠSh op
ĠTam il
Ġattack ing
resol ved
Ġfun c
Ġcounterpart s
- )
Ġdel ays
ĠGl ass
ĠGl en
om ething
ck er
ah ler
F ootball
Â Ĵ
ĠR ugby
ar us
Ġforgot ten
F ar
() ).
pol it
Ġman ages
Ġen compass
ĠAg ent
Dan iel
Ġun em
Ġdes irable
c as
ĠN P
Const raint
ie v
ĠPlan et
bro ok
Work s
ĠPrad esh
Ġdef ects
Ġpath way
ĠCh an
pro ps
Ġad mission
Ġan ger
Ġmag ical
g auge
ĠV lad
Re act
vis ible
Ġsh ame
ĠN R
ĠL I
Ġpolar ized
re z
am y
Ġgu ided
âĢ¦ âĢĿ
Ġb uses
ĠI van
Book s
Ġend point
Ġsl ave
Ġaff air
J ournal
c amp
gener ation
ĠRoman ia
ĠA round
ĠEm ploy
Ġsc rew
ĠE ug
ost ics
Ġsc ar
er ial
Ġmurd ered
S V
Y eah
Ġf ur
Ġ( ;
Ġjo ke
ill ary
scal ar
u ce
en abled
sc apes
Sim ilar
l c
Sports people
o ard
Ġy ard
Ġdram atically
Ġsim ulate
Ġst ocks
Ġworld s
ĠLat est
plet ion
ĠS cal
Ã© t
ĠS EC
Ġrandom ized
Ġmetall ic
om o
Ġpredict s
Ġdelet ed
ic ates
on ian
ich i
Ġscholar ship
Ġper ipher
ĠEd wards
Am ong
Ġkid n
FI LE
umb ai
Ġd ining
p ub
Ġmagn itudes
A bs
amb ling
ĠQu estion
Ġcook ing
Ġhang ing
Ġb esides
z b
ĠQ uality
ĠV ik
ĠB ath
sh a
28 0
Ġfix ing
NavBar Cell
AR CH
Ġreg ret
ST AT
H ard
type of
ĠD ennis
ĠProduct s
Wh ich
ĠSaint s
Ġab ol
ĠT ell
Ġshow er
ĠB our
OM E
Ġspan ning
_ (
ĠN J
ĠCon c
Ġra ises
Ġapproach ing
ĠRiemann ian
ĠV ict
Ġanaly zing
Ġpr ide
ĠCl are
Ġdown stream
Ġdel ivers
l ibrary
Ġf ier
ĠMont ana
* )
f ef
ĠAssum ption
2 12
Ġsett le
Ġpe ers
Ġsurn ame
Ġtour ist
as ury
Ġst iff
Ġtrav elling
r int
Ġd ys
ĠSer ge
| }\
Ġinteg rable
F D
H ouse
ele ments
Ġsound track
Ġtox ic
Ġconf ined
Ġtriang les
}) +
G al
at able
Ġsur f
ĠSh akespeare
AC H
ĠMu hammad
al go
Ġquarter back
Ġ å
ess a
Ġj Query
ĠSh ar
Ġrep orters
ĠI da
ĠFig ures
oc co
f itting
ĠP icture
ivid ually
Ġnorm s
Ġf li
FOR M
L ower
Ad apter
ĠTre k
b v
Ġemer ge
T x
ol ine
Ġt elescope
ĠB ristol
ĠT es
v ac
Ġdon ated
s chool
Ġcou rage
Ġr amp
Ġqual ifying
}\, .
ĠS ymph
ĠG A
Ġsub mission
ID E
^* _{
Ġann oy
15 2
Ġcirc uits
B u
.\ ]
ĠF err
ĠL ex
Ġart work
Ġm a
Ġion ization
Ġelev ated
ĠF at
g ie
N ET
Ġdomin ate
ĠF ashion
f eld
ent e
ĠG onz
Ġconflic ts
orne ys
ĠTig ers
Th ose
Ġdimension less
ĠSum mit
ich let
ĠLie utenant
A BC
ĠB rid
Ġsl ide
Ġtravel ed
Vert ex
Ġdipl om
Ġrefuge es
Ġdismiss ed
14 8
Ġdis sol
ĠAgric ulture
exp ression
Ġhon our
Ġto ll
)$ ;
ĠAust rian
th rows
ĠV el
uns igned
ĠSt rong
Ġhop ed
Ġcent res
Fl ags
L en
ĠWood s
ys on
ĠPet e
Ġball ot
ĠPract ice
b inding
Ġgl obe
Ġearthqu ake
in sp
uck land
rad io
W ang
th row
Ġdro pping
ĠCat hedral
}= -\
Ġhom ology
ĉ ĠĠĠĠĠĠĠ
An aly
ag i
ort on
atern al
Ġb ay
Ġre vis
Ġch icken
form ula
augh ter
Ġconstitution al
ĠBir th
em ption
Ġun fold
object s
Ġtrans ient
ĠTy ler
ĠTh an
L ag
{ "
B AR
ĠR ivers
ĠAr c
I EEE
j p
Ġtrig gered
= &
Ġpron ounced
sh adow
rosso ver
ĠHoll and
v et
m usic
Ġn ortheast
Ġv iable
Q CD
Ġco arse
az i
ĠFran ces
ins ky
Ġbad ly
ĠMet al
)) ^
ess el
W ord
loc ks
fl ags
Ġal umin
Ġproceed ings
ĠBas ic
ob ic
Ġadvoc ate
Ġsurprising ly
vi o
Ġestim ating
Ġ= ========
Ġminim izing
á »
O s
em ia
ĠB ert
Ġpull ing
ĠCh i
OW N
F un
Ġ% }
N ULL
ĠMu eller
ĠC G
" `
Ġtype of
Ġthere of
Ġgra ce
ĠT X
Te am
ĠL ud
Ġlift ed
in her
_ ->
ĠAlber ta
Ġnut rition
Ġbi ology
Ġref ined
ogene ity
ĠSand ers
Ġh ire
ĠE ld
ĠRe ports
Ġt orsion
Ġearn ings
i q
Ġbuild s
Ġvol unt
IS E
Ġc rop
}$ ~
ĠEth iop
ĠX box
im on
18 5
print f
R NA
ĠB og
ĠH ash
pen cer
m itt
iz za
k ernel
ĠY ellow
Reg ion
ĠSt ri
Ġdef ect
Ġavoid ed
ĠMil an
Ġexpl ores
ch oice
$ ~\
Ġthe at
Ġcab inet
con tact
ĠSw ift
6 50
F acebook
Ġrememb ered
W ait
ĠR osen
pos able
ĠSim ple
Ġall iance
Ġalt ered
13 9
ĠHit ler
Ġbary on
ĠHar per
ĠK ol
ca pt
ĠO bl
ĠA CT
Ġrac ist
Ġf n
ex amples
qu est
ĠC atherine
Ġhierarch ical
ĠD raft
G overnment
re lease
ĠR angers
ĠS ure
set up
k u
ĠLiber ty
st ad
] }$
)- (
Ġdistinct ive
cl ock
bas is
Ġb reat
To String
Ġacknowled ged
Ġarriv ing
ĠM ann
build er
J ose
Å Ł
Ġp ocket
ke es
Ġdemon stration
pref ix
Ġident ifies
Ġhe aling
Ġt ong
Ġfl ed
)} ]
ĠSD SS
Iter ator
anc ers
Ġgr asp
Ġaltern atives
It s
r ceil
ĠU pdated
oc o
ĠCamp us
( (\
r ators
!! !!
Ġcon vey
Ġp ion
c ass
cre asing
ĠCol umn
W O
t ok
Ġ ],
mar ine
ĠNash ville
Ġb racket
no align
fef efe
vers al
ĠC lient
ĠStan ford
ens ely
Ġshel ter
er ie
ĠD A
Ġswit ched
Ġv in
_{\ {
Ġle pt
ĠFa ith
ĠLegisl ative
App endix
Japan ese
ĠB ear
Ġem itted
Ġcon spiracy
Ġed itors
Ġdepend ency
ĠYork shire
H ey
ist le
oc aml
ĠIt em
Ġc f
rac ing
ĠAst ron
Ġinc idence
Ġdest ro
Ġp unct
Ġattend ance
al gebras
ĠPl atform
}} %
o j
Ġfrag ments
Ġpat ches
h art
Ġt ired
Ġviol ations
ĠV A
is i
.. ...
Ġkn ot
ĠB B
Ġexhib ited
Ġp c
ĠC ricket
symmet ry
ĠGh ana
Ġelect oral
th lete
ex istence
ĠAd ditional
Ġfeed ing
Ġburn ed
14 9
ĠAl ban
}$ \\
row se
). \
ĠLi u
ĠInvest ment
ort ex
ep he
ard i
b rief
role um
/ _
Ġe uro
w ere
ĠD raw
Ġspect acular
ĠN otes
Ġsw ord
fe ed
Ġche ese
}: \
ĠF ace
Ġdi abetes
Ġsens ing
Ġsent enced
tain s
ĠA bs
Ġhand ful
ĠIn put
Ġtra ged
oll o
T s
ĠS old
ĠVictor ian
Ġass ists
Ġc inem
ĠĠĠĠĠĠĠĠĠĠĠĠĠĠĠĠ ĠĠĠĠĠĠĠĠĠĠĠĠĠĠ
li um
hand ler
ist ered
Ġall ocated
Ġman ually
Ġpost er
Ġlo ans
ĠGener ation
ĠO H
Ġchalleng ed
Ġpric ing
Ġapp end
Ġdiff e
Ġinnoc ent
ew ay
Ġinvert ible
ĠRe ed
Sm all
18 98
ĠS creen
col lection
t mp
ĠAd m
oper ative
Ġprof ound
ĠS witch
Ġtrem end
Ġc ree
mem ory
Ġv ig
Ġtun ed
Not able
Ġcat aly
Ġpregn ancy
Ġch ron
hem atic
ĠD od
Ġfib ers
ĠJ ake
Ġpe oples
Ġnorth west
ĠHug hes
Ġf ires
15 6
Ġqual ify
min ster
Ġc ig
bal ance
Ġnerv ous
S ar
R en
dot ted
rodu ced
Ġr ic
ĠD I
Ġmon ument
Ġen er
Ġ& -
Ad min
m us
v ity
ĠG Hz
ĠC ad
Ġwhe els
ĠPan el
Ġful fill
ĠH em
Ġif f
ĠT rad
Ġcont amination
Ġf ears
op edia
ĠSo on
Cent er
) _\
ĠLear n
ĠP os
ĠV ector
Ġs ne
E lements
e ur
Ad ditional
ol er
20 3
ĠW u
check mark
M ur
23 5
ĠM ob
Ġn est
im als
ĠPark s
ĠSher iff
the o
Ġco at
Ã ĥ
18 99
Conn ect
eg al
Ke ys
Ġf ictional
Ġst ays
You ng
US Y
ĠH ack
18 70
20 4
Ġt anks
ĠX ML
Ġw ound
âĢ ²
Ġanal ogue
com fort
g om
ĠOak land
ĠA braham
se lection
Ġdead line
ro ute
Ġmer ch
b ane
Ġcl arity
Ġadv ised
Ġcum ulative
Ġg ast
ĠArt ists
Stand ard
t le
umb ent
Ġmed i
w ig
Ġres erves
Christ ian
ĠL ik
ber y
Not Null
2 16
B order
as sembly
ring e
Ġconvolution al
res et
Ġconstruct or
Direct or
L ittle
sm art
Ġuniqu eness
Ġgirl friend
ĠBob by
ic ating
ill ation
\% ,
ĠW inn
Ġline up
Ġcontinu ation
small matrix
ac a
ĠV ic
ob tained
Ġclean ing
Ġconscious ness
d ated
ĠEx amples
Gener ic
dis ambiguation
ĠPro test
Ġsup erg
ĠD escription
p are
Ġk pc
it ic
}\ |_{
k ed
Ġin jective
Ġmaintain s
Rem ove
Ġke en
Ġauthent ication
Ġener get
ic ator
May be
c ity
sche me
ĠFle et
as ures
ĠH ur
by e
Sc roll
Ġmon ster
mat ory
Ġin version
Ġb ridges
Ġs orts
ĠAN Y
Ġreson ant
amaz on
R ole
it ance
ĠAm sterdam
^+ _
P ers
n ell
Al tern
ĠHel en
Rec ent
ĠEag les
Ġv i
Ġpair wise
ancell or
ĠR ural
ĠH ab
ĠCom mercial
ley ball
Ġw ore
ĠJeff erson
reg ation
in j
Ġr h
Ġfl ip
Ġm erc
G W
nd um
ve ction
Char les
Ġp ipe
ĠF ri
fl ag
ĠPhill ips
C AR
L ab
Ġto y
ĠC incinnati
ĠS ug
Ġun ified
Ġaccording ly
ĠInt roduction
Ġjuris diction
ĠPlay ers
l ceil
av ier
Ġfinal s
OR M
Ġob ey
prot ocol
Ġcru ise
Ġ\ )
ut ton
ĠH alf
Ġbl ues
AN S
ac er
Mart in
14 2
ĠSh adow
Ġless on
Ġexpect s
Â ±
Ġfro zen
K M
ĠRod rig
Ġad i
Ġchar m
t alk
Ġin complete
ĠG B
rac es
Polit ical
ĠM aking
ĠR ole
Ġprov incial
ĠSh ip
D etail
Ġjournal ism
ĠB ot
v or
ĠW ells
ÃŃ n
rel ativistic
Ġanalog y
r vert
Cent ral
b ur
UR I
Ġdiagn ostic
flu ence
M ach
Ã¨ re
Ġbe ings
ĠR ather
Ġeditor ial
m un
Ġdead ly
ĠFl ash
@{ }}
M ove
ĠD ol
Ġprogram mes
p u
Ġver b
Ġp ending
uss els
inc ar
Ġtoler ance
agon ist
end ors
Ġemb arr
Ġcol span
ĠA U
ĠQu antum
ced ure
C ert
I J
Ø ¯
Ġres cal
ĠAnt ar
Pol y
f erm
ĠA ra
ĠC e
Ġtest imony
Ġinsert ed
r gb
ĠD oll
Ġreal m
Ġconduct ivity
rav ity
Ġre nown
ĠJul ia
idd ing
Ġl on
F W
Ġn u
ĠC inema
o S
ĠHung arian
C ong
ĠB achelor
Ġhom eless
En um
ĠU P
with in
ĠÃ ī
ĠChel sea
met adata
22 4
'] )
Ġsome body
Ġfun eral
ĠS Y
ĠP ere
Ġdesign ing
ĠLl oyd
J eff
ĠP AR
ĠJ ets
Ġgra ins
ĠR ah
ĠPar ish
impl ies
ĠPro file
att ributes
Ġfest ivals
ĠCele br
Ġf ut
ym p
Ġpropag ator
ach t
vert ical
Ġm arijuana
-> _
ĠD ictionary
C red
te am
H uman
ĠS V
Ġ( ,
Ġmin eral
ĠWe ather
ĠS ans
ast ically
Ġcar riers
M obile
ĠU C
ab we
ĠAn imal
ĠWild life
F unc
Ġtour ists
Ġle x
Ġmin us
fl ows
j j
Ġcomp ass
Ġcous in
ĠSt yle
Ġprevent ing
ring ton
ĠE DT
Ġsp ite
Ġwealth y
Ġin ad
ĠM illion
15 4
S ave
c ation
pre v
Cor ollary
Ġlat ency
Ġenjoy ing
k an
ah an
ĠLeon ard
;" |
ĠP T
Ġd ash
A gent
g ender
ĠSt ef
section s
Ġthread s
., ][]{
H u
Ġtra ded
ĠB ak
ĠPer iod
Ġpro c
)) );
L em
ĠW rest
99 9
sh ared
ĠSp ider
TR Y
14 1
ĠVol unte
Ġnot ations
. ][]{
ĠCon cert
nav List
Ġinf initely
ĠHT TP
ĠCour se
s ided
ĠLu is
ĠB rain
ore n
ĠC urt
The ir
d al
Ġmon omial
Int erest
Ġpl aus
ie u
18 97
b ay
Ġprob abilistic
K n
Ġfil med
Ġfarm ing
Ġsustain ability
im ates
b undle
Ġcred ited
ĠMod els
| ,
ĠM N
ĠS weet
Ġsm oking
à¥ į
Ġro uting
I Z
T ech
Ġw age
ĠPut in
Ġtravel s
math rel
ĠNe uro
Ġign or
ĠAthlet ic
][ '
Ġli ability
Ġguitar ist
ĠGr ass
ĠDown load
Ġgeneral ize
Ġsuccess ive
Ġcreat ures
Ġauthor ized
Ġf u
Ġjust ify
Ġhead ers
v dash
Ġcor rupt
Ġal i
10 24
imb abwe
O G
ĠP U
Ġdissip ation
s outh
ĠDe cl
ĠS outheast
Ġjust ified
Ġ[ -
Ġrecogn ised
] +
Ġelev ation
a qu
ĠÂ ±
Ġexclud e
Ġp iv
ĠDisc overy
Ġiter ative
Ġcount ed
pro ved
Ġprof its
Ġpuls es
And rew
ĠPhys ical
ĠNY C
enn ial
am ation
col lect
Ġscr atch
15 8
Ġrend ering
ĠL oss
Ġrelax ed
Ġoscill ation
D U
Ġdup lic
EL D
Ġd ynasty
if th
\, $
ĠBo eing
Ġc ris
H i
Ġt x
ĠE ar
l ooking
us a
Ġsan ctions
Stat ement
Ġexec utives
Ġlink ing
Flo at
Ġrock et
ĠS ox
ĠM W
ĠCirc le
U pdated
Ġo mitted
ĠArab ic
Ġirre levant
Ġpro ps
bo ys
sup set
Ġg alactic
Ġspat ially
Ġwe aken
ĠCle an
s z
Ġcontext s
Ġavoid ing
S ame
Ġre vel
Vol ume
st orm
ĠTh under
che z
ĠYO U
Ġmin isters
Ġf are
ĠB omb
ĠF oster
Ġax es
ator ies
000 1
ĠH ousing
pt ical
Ġemploy er
Ġf ighters
at im
ĠS ierra
ĠW ire
Ġbreak down
ident ity
coupl ing
ĠR oche
Ġbre ach
Ġt ears
Ġm akers
ĠGu ild
Ġchap ters
C ost
Att ributes
O O
ĠV eh
Inst ead
Ġele ven
r ases
G od
ĠN uclear
pi res
pre ced
Ġbe ars
ĠCrim inal
B on
Ġt riv
Ġtechn ological
ser ial
Ed ge
im uth
ĠV ar
++ ;
Ġintern ationally
Å ¾
Ġp ale
ĠG rad
ĠMar x
Ġb ump
Ġsup erm
Bas ic
B egin
'' $
prov ider
Ġd rain
Ġspokes man
ĠK aren
pr ice
ĠMichel le
ĠNep al
re ts
w y
ĠP av
Ġpat ri
Ġbel oved
Pass word
33 3
pp e
^+ (
head ers
ke V
v ision
: [
Ġloc ality
item ent
ĠF IFA
Ġactress es
Ġsecre ts
15 7
ĠVis it
18 95
plac ian
ĠBut ler
Ġ>> >
Ġaccept ing
Ġind ividually
ĠAssoci ated
It alian
Ġde alt
t ags
ĠâĢ ł
Ġcollabor ative
Ġident ifier
dec ay
ĠRef s
Ġveter ans
* }\
ub le
)\ |_{
cd n
Ġmorph isms
Ġdiv orce
S elf
arc sec
oc c
Ġ$ ^
ĠRest aur
R andom
00 4
oper ation
ĠS z
ĠC N
Ġb icy
F ac
ĠR ice
ict ions
Ġb rig
Th ird
ĠDe ut
Ġsu ited
ĠPer u
Ġdiam ond
R oyal
Ġre q
ow ards
Ġevol ving
part icular
ĠChar acter
contin uous
u ating
c ro
ĠM otion
Ġredshift s
Cl ub
Ġreveal ing
IL D
Ġoscill ator
ĠA part
ma jor
ĠAn cient
pe at
Ġdist ortion
multip ut
ma re
ĠM IT
Ġ{ "
Ġplay offs
Ġp ension
Ġrele asing
Ġfore ground
ĠFellow ship
if i
dis k
( .
v d
Ġpack ets
] _{\
ĠEff ect
ĠColon el
\ @
ar as
p ublished
Ġpl ur
pro gress
ot er
Vari able
) *
G rand
c ence
.\ ,\
S ta
ov an
ie ce
he imer
Ġj ournals
Ġc attle
}{ -
Ġyoung est
, ,
Ġz eros
3 80
ĠN H
! }
pr im
ĠComp etition
al in
ĠJul ian
F K
L anguage
ĠR aw
Ex pr
Ġn erve
Ġdes erve
16 9
Ġpract ically
Res ol
ĠPhil osophy
Ġwis dom
ĠR R
Ġwond ering
Ġg a
Se lection
Ġd ir
( __
Ġcre ator
G re
ĠTOD O
Ġar ithmetic
Can ada
ex pr
Ġ ul
Ġmet abol
Ġtri angular
TE XT
ant om
L iter
We ight
R ot
add r
I mp
at ility
ĠGra de
zy me
Ġconc aten
ist ani
ĠE ye
Ġtrust ed
P ubl
other wise
Sh are
Ġsat uration
ha o
ĠN y
ĠMed ic
tz mann
c u
en vironment
18 60
unc an
Ġfl our
Ġlab elled
F ailed
in z
Ġs overe
Ù ĩ
ĠLuc as
ĠIn side
Ġsc iences
Ġqu en
App ro
ĠK umar
Ġtradition ally
aj ax
Ġs ew
Ġrep ublic
Ġsem antics
hook rightarrow
ere k
ĠN HS
Ġfluct uation
eg u
tr igger
Ġdis rupt
A z
Ġm s
Ġide als
Ġ\ %
gu ide
Ġbin aries
ĠS ax
ĠProgram me
or ange
am pton
Ġw orn
rest rict
' })
ĠCle ar
ĠE L
ther mal
Ġde ce
ign er
integ ral
Ġh iding
Ġreg ards
16 6
al most
ĠA zerbai
Ġpresc ribed
amp ire
T ok
n as
}}( {\
\ ).
ĠEmer gency
les h
d ialog
am matory
3 75
ĠS ob
Ġu i
ĠAb stract
Ġdiscre pancy
V ir
ent i
ud ed
ĠK ap
Ġpun ishment
ĠT ry
ĠC SS
in aries
itro gen
ĠS FR
ĠF am
Ġt ribe
att ing
Ġm ig
p ine
ili ation
Ġemploy ers
ĠB ee
ĠAd vert
Ġen force
Ġlic ence
ig ator
ĠP sy
F uture
ĠW ant
ben ch
Ġ( ),
Ġf ru
Ġ$( {\
Rec ently
15 3
Ġsub script
Ġblock ing
ĠR NA
Ġsh irt
prec ated
5 50
ah l
ĠPubl isher
Ġxml ns
Ġsp acing
Ġdon ations
Ġcor n
approp riate
Ġp ig
Ġfoss il
ĠB un
Ġwork shops
CO MP
im an
ĠR af
ph on
iter ator
Ġfilt ered
T own
Orig inal
, $$
is ch
Ġlast ed
Ġarg ues
Ġar rays
18 96
Ġlog ging
ĠB ris
Ġsubsid iary
St ill
ordin ates
Ġb rane
m k
Fil ed
Ġfac ial
15 1
Pol ice
get Name
ract ing
Ġl as
Ġsh ifting
Ġbound ing
be cca
check ed
Ġ= &
Ġ" ,
Ġheart s
.&.& .&.&
} --\
ill es
b age
sup ers
est imate
ĠCh oice
u ons
ĠI celand
ad joint
T ON
amb le
trans fer
Ġlater al
Ġquant ify
approxim ation
ĠSt uart
ĠBeng al
]{ $
ĠSur v
agn ostic
Ġlaunch ing
Pro duction
ĠW ag
ok o
U r
ĠLe o
ĠNeb raska
Ġb ishop
ĠLINE AR
Ġdr inks
ĠPar ad
ĠRepresent ative
ed ges
ĠM ari
und ay
Ġattack er
comb ination
Wel come
ĠI gn
Ġmanufact ured
n ob
pend ing
ĠDe b
Equ ation
Ġemploy ing
Ġdifferent iable
Ġmac ro
Ġl ymph
Ġdoub les
Austral ia
ĠWork ers
Ġsimultane ous
r ift
st ead
st retch
ĠRec ently
Ġartifact s
ark er
es ity
cer pt
Ġnucle on
T y
ĠBl ake
Ġgovern ance
Ġwavelength s
m ons
Ġv iral
aur us
P ATH
Ġsouth west
Ġla pt
Ġcivil ian
am o
ĠN AME
osoph ical
P ac
Ġcab in
t l
th us
}: =\
Ġpur ple
Ġphil osop
ĠSoc orro
ug ged
. <
E G
verb atim
w ear
* ,
Ġcomp ly
22 2
bb ed
ĠY emen
Ġs our
Ġsal ary
Ġstrugg les
W ater
à¤ °
Ä «
|\ ,
support ed
ĠB ald
c ially
ĠA viation
Ġy eah
Ġra p
Ġplay off
comp iler
=" ${
IS H
Ġs outheast
ĠA ctor
ĠĠĠĠĠĠĠĠĠĠĠĠĠĠĠĠĠĠĠĠĠĠĠĠĠĠĠĠĠĠĠĠ ĠĠĠĠĠĠĠĠĠĠĠ
app endix
Ġless er
Ġsurg ical
Ġad verse
he nd
24 5
Ġclass room
Ġnav al
Ġelder ly
Ġqu it
ĠMan ufact
Ġassist ed
ca ps
Ġtransp arency
ĠGab riel
ĠS ave
ĠInit iative
Ġb if
ĠS or
Ġdisapp eared
Ġw ard
prop ag
ĠB udget
Ġadvert is
Ġal ike
ĠK illing
W ashington
O F
Ġelectron ics
Tag ged
ĠA A
Ġwitness es
att s
Ġcle ver
Ġimag ination
Us ers
C hen
Ġre lying
ai ro
0 10
Ġsurviv ors
Ġlack ing
in fl
Sp ring
)\ ;
Ġsche ma
Ġblock chain
W ed
et e
ĠHe avy
Ġentertain ing
Ġexcept ions
}}{ {\
Ġb ags
ĠK ash
Ġmuseum s
Ġgard ens
Ġpro gression
Ġdecl aration
Ġ= ======
00 7
Ġacknowled ges
Ġall oc
pr inc
ĠD j
Ġtru cks
Ġtempor arily
R F
is se
Ġgra ve
Ġprior i
Ġcryst all
ĠR A
ĠEvery one
C art
arch y
ĠSud an
Ġrid ers
ĠN ak
Ġpra ise
Ġcal ib
ĠAd S
uls ive
Ġbe aring
Ġas ync
i ological
il o
valid ation
habilit ation
var iance
ĠClar ke
ĠK yle
B ern
ĠPhilipp ine
arch ive
aj a
ĠPal m
ĠA uckland
g rim
H op
ĠM ig
ipl inary
Ġsatisf action
ĠR alph
Ġle ather
Ġcle ared
%% %%
Ġgra phe
Ġcompat ibility
Ġnot ions
Ġdark ness
ĠCom plete
L ib
s ocial
ĠFour th
nt hesis
) )}
om p
Ġare na
Ġconfir ms
Ġkick ed
Ġform ats
30 4
ĠGu inea
Ġas ymmetric
S ocket
Ġbos onic
ĠMaterial s
ĠW ait
=\ ,
Ġr ush
Ġrac ism
d og
h im
Ġe ars
ĠA V
ĠĠĠĠĠĠĠĠĠĠĠĠĠĠĠĠ Ċ
Ġinvest ed
Ġant is
Ġe ager
ĠGP U
rac ed
OC K
ĠL amb
ĠJ ar
ĠJos Ã©
P arse
M u
ĠEn c
Ġax ial
ach i
Ġi Pad
Ġcro ps
ĠSch r
Ġh ills
Ġis t
Ġconst rain
Ġsoci eties
ĠP ul
ĠSymph ony
Ġ( _
n x
Ġlaun ches
ĠK un
Ġreflect ing
Ġhad ron
p it
ĠP rison
ent ropy
Ġpassion ate
l ift
Ġr gba
Ġun success
Ġpl ugin
Ġal phabet
Ġexceed s
Ġab st
Ġcur riculum
Ġc ra
Ġbl ess
der ived
ĠH ub
">< !--
P OS
ĠR M
st ars
t m
a very
de cor
res ources
Ġmiss ile
s r
clud ed
by tes
ĠR ou
qu estion
ĠIndepend ence
Ġportray ed
abul ary
ĠStat ement
Ġcreat ivity
Ġmod ulus
[ [
Ġtend ency
Ġmagnet ization
| $.
Ġhad ronic
Ġsignal ing
ĠNS W
ul atory
h istory
Ġbank rupt
um ble
ri o
... )
Ġstat istic
im o
ar in
Ġmet als
in ion
Ġen code
Ġpers istent
h ots
Ġroll ed
aster y
ĠB aptist
ph rase
Ġstart up
init es
Ġperm its
op al
Ġep it
Ġl oving
ale y
Ġcycl ing
VI EW
ma ch
Ġen roll
Ġproduct ivity
Ġnow here
Ġconcept ual
K A
qu ire
Ġthr iller
ĠEag le
h m
re ne
g ic
ĠM az
L U
ĠHar bor
Se ason
Ġdet ecting
Ġdamp ing
ĠT error
Ġgra b
Ġdomin ates
Al gorithm
St ruct
w rapper
all classes
ij i
Ġesc aped
ĠV R
Ġutil izing
od ec
){ $\
ĠCM B
ĉĉĉĉ ĉĉĉĉĉ
Ġdevelop s
Ġgrand father
Ġreson ances
ĠJess ica
Ġannih ilation
t k
Ġre forms
ĠD P
V V
Ġcompris ed
Ġrenown ed
im en
le igh
ĠH ob
ia z
acter ial
at ra
Ġs addle
ĠG rowth
Ġdef icit
Ġtransl ations
Ġab oard
ĠArn old
l ord
Ġout flow
udd y
ĠCy ber
Ġrenew able
Ġ Ñģ
ĠShang hai
{ #
ĠH app
Ġresear cher
up iter
ĠT ru
ĠCl ose
ĠSu ite
R ate
ass o
Ġpar abolic
ĠZ ero
ĠVerm ont
Ġne u
Ġachieve ments
Head ers
Ġl ang
run ning
un ed
æ ĸ
ĠE volution
Ġrec alled
ug oslav
Ġdesk top
Ġgain ing
Ġcor ollary
le en
Ġan satz
ĠVal ent
pg f
c ir
Ġam ateur
16 7
Ġk ills
Ġencry ption
Ġover night
Ġmicrosc opic
ĠH ubble
com ed
c ategor
fil ename
Ġoutper forms
ĠTib et
Ġchar ter
Ġaddition ally
^* $.
Ġmark ers
ĠSpe aker
Dist ribution
n orth
ĠTreat ment
ĠE t
Ġworth y
Ġinstitution al
ut ory
mb f
gom ery
ĠHol mes
ĠH ttp
ĠNov a
ĠOr lando
Ġhor r
Ġ ip
Ġfurn iture
Ġparticip ant
Ġinter cept
Ġess ence
Through out
ĠG oth
Ġmark ing
ĠI BM
it us
Ġterrit ories
p her
ĠC ou
art icles
) ]{
Col lections
hent ication
M IN
S a
Ġsuggest ion
Ġneighborhood s
armaceut ical
N odes
\ ),
Ġdon ation
Ġviol in
Ġhold er
Ï Ģ
un ov
ar u
rol ogy
Ġcart oon
Ġloc us
Al bum
Ġb ust
ĠSy l
ĠG ive
ĠCon sumer
F ive
Ġins u
Ġdis ability
Ġsevere ly
List en
Ã ¦
ĠProgram s
3 40
andid ate
Ġd irty
ĠG ang
Ġcook ie
Ġfermion ic
ĠO m
Ġsp o
Ġloc als
T i
ent a
ĠOther s
Ġf riction
ĠTh ai
Ġfail ures
Ste ve
ĠC B
pe ak
Ġestim ators
Ġun cle
ĠHeb rew
) }^{
M arg
Ġn inth
ĠMus ical
Ġmorph ology
Ex amples
on ically
Ġch lor
Ġle ar
Ġsumm ation
Ġun ions
}) }{\
BU G
ĠP odcast
20 6
Ġdemand ed
Ġbi ased
Ġstar red
Ġmand atory
Sec ret
ĠJ ung
van ishing
perturb ative
Ġcomm od
CO M
Ġeth ical
ĠD L
Ġe arning
Ġrefere n
Ġtrunc ated
ĠObserv atory
B rown
ĠÂ «
found er
a que
at io
Ġp upp
Ġre conc
K R
K T
C ould
ĠÐ ²
Ġpurs uit
y u
ĠFinn ish
is enberg
Ġhar sh
MOD ULE
op ath
Ġj umps
Aud io
Ġany body
() </
Ġdiscipl ine
ĠL oad
Ġc ens
ĠB ach
ĠR uth
ine es
olog ic
Ġphot ometry
Dom ain
M ex
ĠE mm
Ġcur ved
Ġun necessary
im ag
Ġrem oves
Line ar
1 200
Ġt ear
al one
Ġtor que
ular ity
Ġexpect ing
ma ven
' }{
t body
ins ki
le ases
ĠComp anies
ĠI SO
ĠDise ase
Ġsac red
3 10
ert s
Ġanaly tics
Ġan ch
Ġmake up
Ġfle w
row ave
Cle arly
N I
Ġsh ocked
log in
Ġsk illed
9 11
Ġdisag ree
ĠV as
Set ting
Ø ª
Ġgraphe ne
a ired
Ġconcert s
Ġdis closure
ĠRec ent
test ing
ĠGra duate
Ġpat rol
Ġnation wide
Ġdiagn osed
@ {\
Ġsimilar ities
Ġl un
che l
Ġtwe ets
Ġcomm emor
-------- ----
compat ible
ul k
Ġre wards
Ġhe aven
ĠUS D
Ġh ull
us form
Ġpro gen
cor rect
Ġdiff use
20 7
uc hed
ce iver
Ġmod ulo
ĠK ra
Ġsupers ymmetry
numer usform
ĠG PS
und efined
Ġvac ation
om al
uck et
Ġenc ounters
ĠAssoci ate
ĠD ame
Ġspect roscopic
Ġperspect ives
l f
Ġsub stitution
Ġca ption
Ġdegrad ation
ĠM ull
ĠMil waukee
add ed
ĠL ov
Ġcomprom ise
Ġbl end
}$ };
Ġfl aw
ĠIss ues
an ia
Ġ" -
equival ent
ĠSc ript
sh own
r ar
ĠL R
pp y
. }}
Ch inese
ĠK re
Ġtheore ms
fore ach
Ġmar ry
ĠOt tawa
' },
ĠP rec
j ob
ut orial
Ġsl ip
the m
ĠCond itions
ine q
ĠW R
z hou
Ġcann abis
B road
M ic
^ -\
d g
Ġcust ody
yn man
ĠTr inity
Ġsec ular
ĠBi ology
Ġterror ism
27 5
Ġparad igm
ĠCy cl
ĠS ays
ĠBelg ian
Ġbl ur
Ġt uple
Ġdisappoint ed
Ġo h
Ġconstitu ency
ĠU ntil
Ġliter al
15 9
Ġmanip ulation
ĠM umbai
Ġex otic
Ġre pository
ĠG and
Ġacceler ated
an che
ĠMun ich
neut ral
Ġhypothes es
ĠWall ace
ĠBu y
Ġann ounces
Ġcha otic
Ġnom inal
K B
Ġp arser
ĠTom my
ĠHer ald
Ġincorpor ating
Ġdec oupl
ĠRem ember
ab stract
ari um
Ġres um
Ġannot ation
Ġh unt
ĠR ES
Ġbeh ave
Ġam endment
m agnetic
Ġspont aneous
ĠS pencer
ĠPart icip
preced ented
ĠRe id
OL D
Q UE
p seud
p owered
st own
38 8
ĠS ak
Ġp unch
Ġbeat en
Part icip
ĠB order
ov ak
_+ $
Ġpil ots
bell ion
ĠFe atures
ĠGard ens
Ġw are
rit ies
Ġposition ed
Ġmut ation
uli ar
Ġid x
R AN
Ġcol ony
bor o
C ategories
Ġpo ets
Ġcomplic ations
is ure
Ġim g
F riday
Ġpsych ology
Ġthorough ly
ĠW A
Ġcor on
Ġc ant
Ġco q
ĠN urs
Ġpos es
Ġport al
writ ers
Ġre written
Ġpropag anda
Ġshe af
scal ing
ĠM idd
ĠD esc
observ ed
Ġdis advant
Ġle ase
18 89
Ġexplan ations
Ġdifferent iation
Ġrig orous
Ġelabor ate
ass er
Ġdial og
17 6
$ ]
D b
h orn
Ġtrib es
S aint
l um
Ġbusiness man
Ġfar ms
ield s
-\ !
ĠBenn ett
S ync
f ail
ft en
Ġgr at
Ġemp ower
4 80
ĠP ink
om ers
Ġexp onents
Ġanaly tically
Ġp ian
pl ots
Ġf ame
oy le
m ust
Ġdef ender
d an
ian e
Ġprevent ed
Pref ix
ĠT iger
Ġc ad
AM ES
× Ķ
Ġ$ %
Ġret reat
T urn
ant ine
Â «
Ġsupp ress
Ġoccas ional
Ġcorpor ations
ic iary
A mazon
ĠSe bast
2 11
ĠWrit er
y ll
{ }\
ĠColumb us
ĠK E
Rem ark
ĠK err
Ġtri o
18 7
ĠYan kees
ol ith
ĠUs ed
ĠS oci
Ġdepict s
E U
ĠJam ie
a uc
ĠNorth west
ĠSc ar
ron ics
ĠESP N
work ing
Ġlog ger
ĠRes erved
Ġsacr ifice
ĠF oot
ĠNe umann
charg ed
Ġc ord
ĠNew castle
co e
if ully
ere nt
Ġpredomin antly
c aster
Ġshe ets
Ġcare ers
S ite
18 94
Ġsuperv ision
Reg ister
Ġupd ating
Ġch ips
ĠPh one
ĠStrateg ic
b inary
v ir
B ra
Ġcont ours
Ġimplement ations
in vest
i encing
Ġgod s
ĠB orel
Ġsatell ites
ĠW alt
ĠN ormal
40 4
ĠColl abor
P air
n othing
ĠConf eder
O UT
Ġor che
Ġgift s
car bon
Ġsur jective
ä º
elect ric
Ġb ell
ĠD aw
Phys Rev
Ġdat abases
Ġvirt ue
e i
exp ansion
Ġdam ages
AL SE
Ġstrugg led
L INE
f illed
omorphism s
Ġanisot ropic
Ġdef in
}), \
F rance
m ov
Ġdecl are
ĠCor porate
leg raph
Ġcapt uring
Ġsymbol ic
un ks
per m
exec ute
18 50
S EC
Ġl ighter
oca ust
IC K
IS A
â Ķ
cre ated
Con ver
Ġnon negative
ĠPalest ine
pr us
Ġyield ing
Ġhop efully
ole v
ĠTour ism
ĠL it
16 2
ĠEconom y
uzz y
ĠR ams
ĠMarc us
oc ur
ract ive
Ġconfirm ation
ĠM M
pl oys
Ġsem icon
' ^
m oz
ĠAn a
} </
" ].
ĠC apt
ĠIn ternal
Ġrefere ndum
ĠJ obs
Ġspect roscopy
Ġproduction s
App le
Ġf t
ĠAthe ns
M ah
sign ature
Ġpeace ful
Ġw ise
ĠMe et
Trans form
ĠCurrent ly
Ġ um
Ġstat ue
n ick
Ġpa ired
Ġout going
et ooth
ĠProdu ctions
iat ric
ĠLeban on
Ġexp edition
ĠDub ai
Ġa uth
rest rial
att en
Sc ience
Cal ifornia
ä »
ĠD S
Ġdec oding
ĠSch warz
Ġtraged y
ĠB es
Ġn ominations
me chan
IT S
Ġby pass
Ġcombin atorial
Ġwitness ed
om ar
Ġanaly st
Ġgu ards
ĠC raw
as ympt
c ous
ĠC ool
Ġsup rem
Ġro d
Ġpres ervation
. }.
Ġb out
Ġinvent ory
% ),
18 65
Ġpoll s
Ġh alt
an ch
ĠJ in
Pro gress
act ers
n r
ast ics
TR UE
ĠMO RE
Rep ublic
ĠFil ip
Ġcompos ers
Ġsing let
v ary
Ġtermin ology
l ap
erg us
Ġdebut ed
Ġw rap
te in
arent ly
ĠAtt ack
Ġposit ively
Ġsl opes
18 92
Ġappropri ately
Ġkinem atic
all oc
Res ources
ĠÃ Ĺ
ĠP aint
Ġtre asure
list ing
Ġund ers
Al t
run ner
ĠBen ef
clud es
d iamond
ĠM ills
B inary
Ġnews letter
Ġmed ic
ĠB uch
Ġbuy ers
ela ide
E r
any on
Ġdies el
Ġo ught
ph or
Ġparliament ary
re ma
ĠS B
ĠSt okes
D IS
18 93
ĠSp ons
n ational
ĠP ain
ĠH urricane
ĠT rophy
Ġconsult ant
st orage
ĠK or
}} |
ext ra
enc ia
P b
ĠWar riors
Ġacc us
)} +
comp ose
29 6
ĠL ac
Ġalt itude
Ġl ig
ĠB P
Ġconsult ation
Ġmem orable
ĠMon itor
product ive
ing o
On line
Ġaccommod ation
ĠM AR
ĠEdd ie
S ir
on ormal
ĠCol in
Ġtra ils
Ġbi om
ogen esis
ĠL is
label ed
enc il
,\ ;
Not ification
Ġnew est
Ġse am
)+ (
Ġgame play
ĠH appy
Ġsem igroup
index Of
Ġpeak ed
4 000
Ġattraction s
ĠLith uan
Ġsports people
Ġanth rop
up load
Ġn aked
Ch arl
Ġnetwork ing
Ġcelebr ity
Ġtens ors
Un fortunately
å ®
Ġa perture
V ec
}{ .
b ands
Ġsched uling
30 1
Ġshe ep
Ins ert
man uel
ĠS ah
con serv
Ġinter change
ock ets
Ġorig inated
{ -\
Ġadi abatic
al ry
ure r
In vest
min imum
< !
ĠOtt oman
Ġprop ri
Ġre he
ĠF est
ĠP RE
triang leq
pro xy
sh ine
Sk ip
K O
es pecially
Ġter rain
Ġleg ally
Ġint im
ink owski
Ġ\ '
Ġperform ers
ĠMathemat ics
ĠM ock
Ġsuperconduct ing
I ran
ou bt
Ġindic ators
^* $,
sl ice
Over all
ĠB ag
Ġend orse
Ġviol ated
3 25
j ournal
{ }{
ĠK lein
PO ST
Ġpredict ing
âĢĿ :
ĠInt o
en es
Ġamb itious
z el
Ġemer gence
Ġopp osing
ĠMer cedes
Ġtrans cript
Ġref use
t elling
Ġtact ics
s amples
Ġrele g
av an
B ottom
Ġs el
Ġpop ulated
ĠAdd ress
conver gence
ur as
EN SE
Ġfif teen
ĠA er
Ġsupers ymmetric
ï¿½ ï¿½
ĠS ai
allow ed
Ġdam n
ĠG ilbert
g m
ĠC ategory
Ġen umer
H M
c ourse
ĠD y
ĠB anks
ĠO C
Ġf ifty
Ġnot ification
p ark
ĠLind a
Ġspl its
Ġsh ocks
Ġr ises
ĠSum mary
Ġhelic opter
ĠGro ve
Ġw orm
ĠBel ow
S us
Rep ository
Ġca ution
Ġemp ire
am as
ĠN ames
Ġhon ors
Ġre ass
iz ational
ĠResp ons
}\ |\
I l
ĠT ang
sp ort
. \,
et itive
ĠD IS
Ġoblig ations
g ive
Ġor chestra
in ters
v p
m obile
el ia
ĠB ent
ĠE sc
ad j
Ġinter ventions
Ġ? >
Ġres il
il inear
17 8
Ġ ug
thin space
Ġg orge
Ġdraw ings
18 85
18 88
g ary
z ier
Ġurg ed
Ġaccompany ing
d ied
ĠMin i
V an
ĠBry an
c atch
ĠBar ack
Ġhol idays
th ood
ĠRel igion
Ġb ones
ope z
Ġab bre
................ ................
Ġwork place
Ġind oor
Ġathlet ic
ĠT at
function al
Ġm uon
Ġeth ics
ĠRic ci
s an
Ġconcent rate
P od
t ests
Ġcelebr ating
Ex per
Ġsp y
whe el
ri ent
os i
Ġp enn
ĠG ross
ĠPro perties
Ġf ights
O cc
nt hetic
st re
50 1
ht m
Ġ{ (
Ġrun ners
Ġhistor ically
Ġretrie ve
ish i
Ġshort est
D s
i ants
- ,
en ario
Ġexpress ing
ĠMunicip al
Gener ator
ĠR ate
IS O
the me
ĠCroat ia
ĠM ik
ĠIn j
23 4
Ġque en
ĠDel aware
Ġclin ic
Art icle
Pro ps
un i
| <
ĠArm ed
Ġint imate
}} }(
Ġtrans fers
16 4
Ġwrest ling
Ġvis itor
Ġconv ince
Ġdesper ate
Ġend e
ĠK as
Ġment ions
it ars
Ġhon ored
ĠElect ronic
Ġpremi ered
c ock
ĠStand ards
ma pping
Ġcomm ute
bi ased
; }
Ġrespons ibilities
Ġ\ ,\,
ĠEx pert
Ġinterview ed
Q ual
Ġdis hes
ĠLand roid
prob ability
ĠBor is
Ġaugment ed
Ġcon greg
Ġadjust ment
ĠH ugh
Ġparamet ric
us ername
ats u
it ations
Ġen rich
Ġpand emic
ĠGa uss
ps frag
ĠBrad ley
incor porated
M att
w ent
ĠL S
Ġ[ "
Ġunf ortunately
g overnment
Ġtra its
16 1
ĠS ize
Ġvot er
'' '
s ix
ĠSt ructure
/ $
ĠRe form
ĠPot ter
R ank
iv ate
Ġpsy chiat
\% )
ĠHor ror
Ġapprec iated
Ï Ĥ
Ġthe rap
ĠB ears
ĠN u
Re ception
Ġthreat ening
ĠIll ust
ential ly
ĠGl enn
Ġrot ate
ĠE ston
)^{ -\
Ġwel comed
ert on
ĠAcadem ic
Ġload s
h agen
Ġcomp ares
Ġsur ge
Ġden y
Ġsimplic ial
Ġl oses
ĠBrook s
Ġb rackets
AR N
eli very
Ġaffili ated
en os
ĠS ED
20 9
ĠIn fo
ĠVen ice
te enth
ĠLe eds
17 4
Ġsepar able
: @
Id entity
." );
T unes
Ġc rossover
Ġtri um
ĠSer bia
Ġp ist
st ick
Ġwas h
ile vel
fil m
Ġflood ing
ĠV e
17 7
A H
r ational
Ġse vent
av our
ĠPal mer
Ġharm ony
Ġste ering
N ick
Ġz oom
Ġadminist ered
Ġco ordination
F ort
s il
Â ½
ĠCh ase
C AL
)\ )
Ġtong ue
, [
ig ue
00 6
Ġtra ff
D igital
h istor
in as
ud s
Ġqual ities
C RE
ĠC op
in verse
C arl
vent ional
Const ants
H aw
Ġm ism
ĠO z
' _{\
ĠH O
ur face
ĠL abel
Ġinf ections
M Hz
ĠCon struct
ĠTOD AY
n om
}^{ -\
y ang
Ġv ibr
Ġthro at
Ġimm ers
p ag
Ġs ulf
Ġprest igious
ran o
ĠPop ular
ĠT ool
Ġsu ck
Ġtremend ous
< <
Ġfavor able
Ġsculpt ure
ange red
cycl opedia
Ġrev ision
ĠAp ache
m ans
part ition
IM PORT
Ġst ones
Ġqu otes
Ġfin est
ĠT M
ĠN as
ach ment
ion ic
ip eg
19 3
Writ ten
A st
Ġout lets
ĠIO Exception
O wn
Ġb ail
le w
ĠL com
os ures
Ġpre view
ĠCh uck
vel t
J oe
L AS
ĠMe asure
Ġpay load
Ġpresum ably
ĠB und
ri ans
ĠAut om
d j
}} [
Ġjump ed
Ġm aj
ch at
Ġim posing
D a
l inks
Ġc ube
att ed
Ġt ilt
b racket
Per formance
L ibrary
ĠBa iley
; )
18 91
EE EE
tr uth
ĠBro s
ĠN AV
pen se
ĠP owell
ĠIn stitution
M ix
in ous
ff ield
\% .
Ġcryst als
se mi
Ġminim ization
ĠJeff rey
ĠMc Donald
Ġcirc ulation
55 5
ĠInt eger
At l
ubb ard
Ġprev ents
ĠPro gress
C u
Ġstom ach
Ġloc ate
Ġwid ths
Ġpit cher
16 3
inter val
Î »
}} ;
Lear n
Wal let
Ġsp otted
is ory
)$ :
ĠDir ichlet
Ġgrad es
Ġm aker
ĠD h
Ġsp anned
IN TER
k le
Ġcollaps ed
ĠAthlet ics
... </
ina e
Ġarg uing
ĠIraq i
ibl ings
ĠL L
wh ose
Com plete
Ġdis par
ĠZ imbabwe
ra de
Sp an
T our
) }}{
i ating
18 8
aw i
ad just
load ing
ĠGreg ory
Ġspecific ations
ĠAdvis ory
Prob lem
Ġour s
Ġcan vas
part s
ĠPhot os
Ġcon ductor
an ol
ĠP oss
ĠHe aven
Ġj er
Ġexc itement
eg el
Pl us
Ġp ays
ĠL if
Ġto ss
Ġche er
g z
ĠPresident ial
Ġdemonstr ating
Ġprosp ects
il ateral
ĠD rum
/ "
Ġtra uma
Ġresp ected
Ġpath ways
ĠFlore nce
L ic
sq cup
const rained
Ġst ir
ĠJo an
ĠAh med
)} +\
Ġvacc ine
sp here
ook s
Ġac ids
Bet ween
ĠAl pha
Ġten ure
) ">
ĠGerm ans
}} /
get Value
ct uary
ups ilon
Ġin ning
ĠC ord
Ġc iting
del ay
Ch art
ĠJ et
K P
Ġdes erves
ĠEll is
omin ator
Ġto uched
ĠĠĠĠ čĊ
ff ff
In sp
ĠC ash
Ġemb race
Ġtimes cale
AP P
Ġ{ '
at op
ram ento
ast ed
z hang
ass ing
ĠL akes
Z hang
ĠN ATO
Ġund erm
Ã Ł
F ire
ĠIda ho
- .
ON D
N ative
17 1
ena issance
Ġvisual ization
Po inter
sign al
ap is
j unit
Ġfilm ing
Ġpat ron
Ġb other
ĠGarc ia
ĠA j
Ġox ide
Ġintrig uing
he nce
Ġprot esters
Ġmerg ing
Ġin quiry
Ġbes ide
ĠS ullivan
pl ess
sm ith
f air
ĠP rest
ĠHe at
ĠHis panic
G rad
ĠL ines
Ad am
Ġprol ifer
AV E
Ġsport ing
Ġaggreg ation
Ġc her
Ġassemb led
Ġexper iencing
Song s
cy l
emph is
Ð ±
ĠH S
ĠF eed
ĠAmb assador
ĠPaul i
l ater
18 4
ĠH amb
Ġcre ature
Ex tra
ann i
Ġtable t
] ,\
t oc
math ord
Ġce iling
ĠP ont
set ting
ĠThrough out
ak ar
Ġdr one
Ġridic ulous
b ons
c ue
ĠDirect ors
ĠHy per
rid or
plet ed
ĠM ine
Gener ated
link ed
ote chn
ry s
U nd
Ġre nov
ĠS end
ĠEN D
itt y
W ood
p rior
med ium
Ad S
New ton
Lear ning
l p
Ġmother s
Ġpreval ence
c ool
ph oto
Ġoff line
A ff
18 9
ĠP ok
Ġsol ves
ĠH ait
Ġinitial ization
Cle ar
ĠSy mbol
ol an
Ġsystem atically
Ġsl avery
aud io
ĠH i
oun ge
Ġplanet ary
Ġn urse
ĠCh arg
Ġsa x
Ġpal ace
and ez
CD M
Ġcivil ians
g ae
Ġretail ers
F und
Ġen jo
Sp anish
w arn
ĠG az
S pect
f an
er als
ĠSol id
oot s
Ġaz imuth
ĠCap itol
Ġin jected
Ġcast ing
ĠPo incar
ĠC risis
ĠAll ah
Ġimp lying
re leased
ĠD ylan
EN CE
ĠUs ers
Ġh orm
Ġr ats
ĠCan al
elling ton
est e
ĠS cre
Ġes cal
ĠHealth care
uis ine
ĠC ay
Ġsize of
100 00
D ifferent
oc cup
c ategories
m orph
ĠCard inal
ol in
con sole
^* )
'' )
prec ision
Z ero
Ġgram mar
ĠIo T
Ġed itions
ting ham
tikz cd
ĠTerrit ory
ĠInd igenous
al am
30 3
ĠB ever
\ :
i encies
Ġtem plates
k pc
}{ (\
% "
hig her
ĠProt ocol
ĠCon text
Ġl attices
40 1
Ġobst acles
S creen
pro port
Ġcr ude
Ġinstant ly
ĠLink ed
B esides
ĠD awn
ex isting
Ġrel atives
Comb ining
he x
per cent
Ġelim ination
H ello
ĠR G
ĠB orough
c ot
de velopment
Ġconvent ions
Ġreg ulated
plan es
A X
id y
cl er
Text ure
Ġform ulate
Ġhapp iness
Ġun precedented
ĠHe ath
_* $
Ġinsu fficient
=\ !
rub y
}= {\
Ġincl ination
L imit
t abl
Ġrel uct
Ġdegener acy
ĠOpt im
W D
ne ys
h on
ĠDev il
17 9
ices ter
Ġch unk
ic ode
ĠF P
R ender
n is
Ġvulner ability
Ġto mb
led on
Ġco h
Ġhistor ians
I gn
Ġm ines
ĠP om
Ġref inement
B us
CL ASS
Ġch ore
T aylor
Ġtransc ription
? !
ĠR AM
ĠCom ic
ask at
t bl
ine z
ĠTh r
ĠIm prove
Inst all
Ġremind ed
Ġnever theless
L ooking
') );
Ġâ ĪĴ
^{- (
ĠBrand on
gg ing
ym es
Ġsm ell
mem bers
Ġsuscept ibility
Ġmer chant
Ġprec ip
ĠC rystal
Ġcon ferences
ud er
Ġreven ge
ĠE aster
UN T
atter y
Ġt sd
}=\ {
st ed
Ġt ram
}^ -
Ġmod al
print s
set counter
23 2
itect ure
en ius
Ġc ats
Ġro ok
Ġmut ually
Ġcon current
Ġch ocolate
Ġsil icon
t uple
17 2
)\, ,
dat aset
? >
Ġast roph
ĠB ound
Ġshow case
Ġam end
)= -\
od ia
}\ {
Ġint ensive
ĠPo etry
Ġexcess ive
ĠHop kins
Ġ$ +
ok ia
ingu ished
ag le
dis cuss
d iam
ĠC ob
az ar
down load
Ch icago
E mb
be am
log o
ut a
ĠH av
Ġ... ,
Get ty
ĠAdm iral
Ġv endors
Te X
dra wn
S aturday
Ġauthent ic
d w
Ġcondens ate
Ġhaz ard
n ice
Ġbroadcast ing
Ġfilt ration
Ġeffic acy
ĠKn ights
ĠCare er
ç Ķ
ĠV a
Ġsl aves
Ġbut tons
18 87
ugh ter
ĠH aven
ĠS ets
CL A
ĠNor folk
Ġboy friend
Ġa viation
ĠA ur
ĠBrown ian
ĠG E
Ġdepos it
26 4
let te
B ERT
ĠS ultan
ĠL ooking
Ġsmooth ing
Ġs ung
ett es
Ġun t
Ġcomp ress
ĠRep ly
ĠAnn iversary
R ic
x html
ĠIm ag
Ġunderta ken
Ġcrit ically
Ġmunicip alities
mark s
ot ics
Ġacc idents
Ġpar as
Ġsort ed
ĠKnow ledge
Ġdynam ically
Ġb ugs
ĠAr ctic
Ġunve iled
Ġbed room
ĠT ampa
ĠP ub
ĠB in
Ġb arg
)}\ \
Part y
Ġs ang
ĠPen insula
m os
Ġatt en
ĠInd ividual
Ġinsp iring
Ġfin ancing
on de
ĠIsa ac
ĠCoal ition
in valid
| ^{\
ĠAng els
R N
st en
ubb les
Ġcert ification
Ġsyn tax
Ġthe rapeutic
Acknowled gements
å ħ
atic an
rag ue
Ġplaus ible
sw arm
spect ral
BP ACK
ĠMult iple
roph ic
W arning
Count ry
ĠP and
Ġgl uc
Sh ape
ĠSom ething
18 61
ĠV ers
Ġpol ym
Build ings
Ġag ing
k ward
ident ified
b w
Ġinv ented
Comp at
P F
Ġund erest
Ġhe ated
ir atory
cycl ic
D am
y our
ĠBr ussels
m or
&& &&
Ġprem ier
Ġriv als
Ġpress ures
ENT S
ĠStart ing
Ġstre ak
pos ite
ĠT as
Ġsm oot
ĠB erry
Ġpl aint
ere rs
v on
IC S
ew ard
A u
18 2
ĠH our
Ġtime out
av in
comput e
ĠArt icles
j ab
Ġappeal ing
+ }
ĠR us
Ġreprodu ced
8 50
k j
Reg istry
$ _\
à §
Ġrevers ed
Ġcho oses
Ġal beit
Ġresid ue
sk a
Ġmerg ers
ĠD uncan
Ġinv ite
Ġfor ty
ĠK i
Ġlast ing
Ġaccount ed
rog ate
ĠP it
ogn ition
ĠDes ert
ĠR GB
bo at
)= -
Ġdefe ating
Ġplur ality
ig ating
97 8
Ġbet ray
bo ost
ta king
Ġhand les
w arning
ĠM ale
Ġsp ray
Ġlens ing
ĠB T
Ġk g
Ġcosm ology
B ol
Ġeleg ant
Ġwork force
que z
ĠW ine
Ġc tx
Ġcru el
E ll
ĠA id
Ġsleep ing
17 3
Ġil leg
Ġpublisher s
ĠChap el
omet own
Ġthrough put
b id
Î ·
ĠC ities
al tern
Ġdecor ated
M ov
ri pp
C irc
ĠM iles
Ġa thlete
oc used
ed uc
ic ion
rit is
z ig
30 5
× ¨
ĠT all
ĠMc L
oph one
R ound
Ġlaw makers
F eed
rom atic
ĠLe vi
F red
L es
che t
Con sumer
S equence
OR S
ĠSw an
Ġlif ting
Ġsu cc
Ġsub spaces
Ġinter ven
Ġhal os
ol ves
c A
ass ed
ĠFl ag
Ġinsp ire
up loads
Ġ" $
Ġoffer ings
G er
ĠH us
res on
Ġmet er
ĠBan ach
ĠCh ad
py thon
deg enerate
ĠA ub
uff le
K er
ĠH ass
K it
t uning
Ġspace craft
ibl ical
N i
Ġp owder
eg an
ĠF DA
oun s
ĠY ale
Q A
th ink
Ġj am
overn or
ĠExcell ence
ĠK erry
Ġflow ing
Ġperman ently
Valid ation
rang er
tabular newline
Ġelectro de
F UN
Ġbe ats
v ation
Ġnurs ing
ĠAd ult
Ġ< -
Ġreven ues
Ġm anga
ĠPers ian
L F
Ġcontact ed
Ġto ile
PD ATE
spring framework
C as
ĠApp lications
ĠAss essment
Ġbatter ies
Ġinaug ural
ĠPsych ology
cal c
Ġre pro
Ġbi ography
iff e
Ġnecess ity
Ġunf air
CT ION
roll ing
Ġwood s
he ng
Ġprom pted
Ġfund ament
Ġdistrib ute
CH ECK
ĠDec ision
Ġbu zz
gu ard
Ġfuck ing
b usiness
can onical
Ġg aug
18 86
N M
Ġse al
Ġad ventures
DO CT
Ġforb idden
izar re
Ġpart on
), $
Ġclass ify
sh are
Ge org
big cap
} &=&
op ol
Ġquestion ed
Ex pat
wart z
sm ash
K en
Ġd os
ian i
Ġadvoc ates
vari ables
Ġpuzz le
B ind
g c
Ġto uring
Ġintu itive
Ġun ited
opl an
ĠWest minster
Î ¼
K a
ĠB MW
Ġro oted
ĠEx tra
Ġaver ages
w i
ĠWrest ling
ĠT ot
ĠS ame
Ġoverl apping
Ġrect angular
Ġkn ife
Vis ible
h aul
ident ifier
bre ve
Ġen rolled
l ated
ĠRe b
pl oad
Ġpec uliar
Ã Ĥ
Ġ verse
O w
qu bit
Ġar cs
Ġaud it
U ri
\ ;\
Ġthere after
Ġinter fer
Ġet ern
part icles
Ġgradu ating
Ġdipl omatic
Ġ} _{
ĠLet ters
Ġg ly
Ġexpans ions
Ġp ad
Ġre min
Ġprem ises
rob ust
e ak
Ġp el
ĠS qu
Ġl ith
18 62
ĠOw en
Ġlad ies
ĠO g
Ġh il
Ġcat ast
Ġdivid ing
ĠRem ove
ÑĢ Ðµ
o fficial
ĠP aram
ad v
ĠG ift
Ġto b
Ġpolit ically
n z
W F
] =\
t ransport
Ġl anes
t ens
Ġdem o
mod ern
Ġproduct ive
)}{ (
W rapper
fe atures
p ages
ĠP or
US ER
ĠJ S
ok i
Ġreg iment
ĠH arm
22 1
pd ates
B rand
Ġbro ker
22 3
Ġbi jection
c ies
ĠCom ing
ric ting
ram id
Ġfin ishes
Ġw ors
ĠBudd hist
bal anced
Ġpredecess or
Ġf ung
Ġexc av
ul ent
ĠW ITH
fin ity
Ġimag ery
ear ly
LO CK
desc ribed
ĠV ert
ĠUS B
il ogy
Ġsp are
Ġchar set
Ġretrie val
s afe
atin um
ĠS ession
d B
A verage
ĠG aza
sv g
Ġaltern ating
Ġfib re
ĠViol ence
ane y
Ġd ign
imb ledon
C lim
c ould
Ġsh a
dat abase
I ss
Ġtransport ed
ĠBris bane
Ġim perial
Ġ ub
Ġd airy
wild fly
ĠR ush
Ġsur pass
Å Ħ
ĠPlay Station
avor ite
Return s
ĠC anyon
I sl
Ġl azy
N eg
Ġdec iding
{- .
he y
ar is
g irl
act ed
ll ll
ĠVeter ans
Ġspir its
ed o
With in
Ġinev itable
ĠT her
Ġart ic
Ġp unk
n ai
ĠDist ribution
Ġrecip ients
yn chron
Ġhol y
;\;\ ;\;\
Ġna ive
Ġph rases
ĠHer bert
AC C
ĠAb bey
A gg
ĠSh in
analy tic
s ampling
ne um
gener ic
Ġrenew ed
ĠJul ie
Ġsett lements
ĠLu cy
Ġche aper
à¥ ĩ
ag ne
Ġf id
um per
W ould
ĠE valuation
el ong
Ġgu ides
Ġmed ication
ĠG MT
ĠA ber
ĠArray List
Ġpractition ers
os ion
ĠRichard son
ĠIndian apolis
st rip
play ing
Ġw and
Ġorth onormal
Ġindex ed
0 25
Ġout s
f ake
Ġ ib
Ġlabel ing
Ġg y
Ġhom osex
produ ced
Jose ph
Ġp ile
Ġre ck
be en
.... ..
\, (
p k
comp ress
L iber
Ġm asks
m and
Ġconstit utes
Ġh iring
Ġre un
ric ia
ek ing
Ġcur sor
Ġdep ths
Ġem ploys
Ġexp end
22 6
p ad
ĠS aw
ĠPeters burg
Ġcomp ressed
rib ers
19 4
}) \\
print ln
Ġrecurs ive
? }
}^{ {\
Ch ief
Ġpros per
ĠAb b
Ġbow l
th reshold
th al
ĠVlad imir
ĠLyn ch
ĠSc ore
Ġconsum ed
Ġalt ogether
Ġcor pus
ĠLat ino
å ¤
ĠG y
ĠJosh ua
( |\
ĠHar old
SS M
Ġdet erior
ĠBeaut y
Ġdon or
Pr ice
stud y
P ak
\ >
y d
Ġscan ning
od o
18 6
Ġthr one
Ġentang led
ĠMan uel
ur ally
ort ium
Ġmart ial
W ild
av g
ĠSim pson
ĠK end
ic ht
M arc
ens itivity
ĠCE LL
Ġjump ing
Ġ\ "
Ġen larg
ĠL odge
l Vert
Ġp ap
Ġ& =\
ne apolis
ac cur
Ġtransl ates
ĠW ave
ĠTrans ition
_* \
ĠHon da
Ġt ier
et ric
ĠAl ger
Ġcere mon
ĠChem istry
we ather
23 8
Ġmut ations
Ġenjo ys
ĠC ounsel
Ġpossess es
RE G
ĠMont gomery
ĠBulgar ia
b ranch
Ġt ile
Ġbe ef
ĠR aid
ĠG rid
ov sky
Ġvin yl
ĠUn less
S ix
ĠT yp
ĠArmen ian
Afric an
lev ard
l ot
Ġm ant
ĠY ugoslav
2 14
e lem
Ġex clusion
}) +\
ĠAzerbai jan
Ġ[ (
Ġexam ining
Ġaccept s
Ġn ested
id ered
r ules
ĠCong o
Ġsacr ific
R end
Ġabsor b
S ound
66 66
em ark
is ive
Ġterm ination
ĠToy ota
osp ace
ĠGene va
Ex perimental
ĠR B
Eff ect
h it
m ouse
Ġlisten ers
Ġrevolution ary
Ã³ w
el in
M ask
y t
qu art
ose velt
min imal
U ntil
$\ %
ĠAd elaide
ĠLaw s
s ent
Ġd ans
Ġsp heres
Ġmore over
ĠArm strong
ĠCO L
lim inaries
ĠTre asury
) ^*
j ee
arm ing
ĠGl obe
)\, .
Ġchampions hips
Ġcost ume
ĠN ine
ĠTrans it
ong o
ĠInst rum
Ġcomp rise
Ġbreath ing
Ġeigen states
Expat riate
22 7
la us
Ġflu ores
Ġchemical s
ef ul
ann ers
B rian
ĠH z
ext end
ĠRay mond
P ic
ĠS G
ĠFran co
ĠN om
Ġkn ots
ĠK urt
mm ode
Ġtown ship
ĠF actory
30 2
ĠS uff
s ay
pl aced
18 81
Ġpro long
}) ]
edd y
r ina
im mer
Ġfinal e
Ep isode
ĠF olk
Ġcomputation ally
app le
ig hed
Ġvill ain
Prim ary
ĠI EEE
Ġpack aging
18 84
Ġbrut al
DOCT YPE
ĠT itan
ĠH ess
ĠW ere
ell ite
ĠCard inals
ĠBit coin
b eck
p ure
V O
Pr inc
se min
Ġnew er
B ank
F ast
T witter
Ġme als
Ġsepar ating
Ġpermut ations
ĠCy prus
Ġdel icious
s child
ĠPre vious
å Ī
ĠAssum ing
Ac cept
Ġcardinal ity
ogen ous
ĠM atter
et ed
Ġscr ut
}} ^{-
p ract
K D
Col lege
if mmode
ĠQ atar
E A
Â £
ĠG ust
Ġmultiplic ative
ĠIn g
Ġdest inations
× ľ
ĠR ac
Jew ish
al ias
ĠRe ally
ack ed
ĠStev ens
Ġm d
ĠC W
Ġinf ect
Ġhar assment
r ice
Ġexplo ited
W ire
@ \
ĠD ow
oc om
Ġn itrogen
Ġamb assador
Ġo mit
mer ge
Ġpuls ar
Ġrec ipe
hold s
Rail way
Y et
o ct
Ġround ed
ĠEll en
ĠDen ote
D rop
Ġre jection
Ġunder way
Ġh ug
Ġgen ius
iling ual
ĠRes ort
l ived
26 5
Ġbe aches
18 64
Ġselect or
Ġstake holders
Ġpost p
in us
}$. }
Ġdelight ed
B razil
Ġexc use
Ġd ragon
ĠS ang
ex ist
00 8
Ġsubject ed
and ro
ĠEv il
f u
sl ide
am ount
18 82
W estern
ow itz
Ġcul min
Ġd z
ĠW end
ĠTh ought
Ident ifier
en i
Ġfil ing
pm od
it ational
Ġproblem atic
n at
AR S
g p
Ġcor poration
Le ague
Ġprec ious
st roke
for th
ĠUnd erg
c C
im i
Numer ical
f urt
spec ies
on so
Ġam ino
ĠAr senal
ĠDer by
pp ler
Ġaest hetic
ĠTre nd
d h
ust ed
Ġbuck et
art en
St ats
'' (
Rec ip
t al
Ġcor ps
23 1
fill draw
ĠC raft
lim sup
Ġp ressed
Ġnon profit
Ã ī
ed e
DE s
Ġdef ended
ĠTrib une
Ġc ake
Ġopen ly
ĠSpace watch
Ġ ~~
Ġcont ra
In c
K h
18 1
Ġqual itatively
z ip
ott i
ĠI g
ĠLand au
\ },\
ex it
online cite
Ġ ];
ĠR i
get Element
)} -
ĠPed ro
ÂĢÂ Ļ
Ġb oring
d uration
Ġprivile ge
ĠCab inet
Ġin cur
": "
ĠX X
Ġmet ast
Ġmo ist
ĠMy stery
Ġobl igation
Ġl akes
]{ @{}
ĠD ad
ĠAr s
ĠC ry
Ġrec urrent
Ġunder graduate
atal og
Ġphon on
Ġche f
y en
ĠTh read
rad iation
urch ase
T a
ĠM aced
ĠA chie
ur bs
ĠB ullet
Ġconv inc
Ġgrand mother
D ark
ĠD ale
ch apter
ĠW id
G EN
Ġ æ
ĠHe ights
arg uments
ĠL inks
f at
| +
Ġover flow
Ġin tact
all a
Ġen zyme
RE T
ur an
se cret
ĠM atrix
ir ie
sp acing
ar ians
Enc oded
ĠAl leg
Ġtradem ark
ĠT rial
VAL UE
Ġval uation
ĠPr ide
Ad ditionally
Ġcitizens hip
ĠH off
ĠBarn es
up ta
co herent
Ġinf inites
Ġgener ous
Ġjud icial
ĠPatri ots
ull ah
VAL ID
ĠTreat y
stan bul
Ġfold er
ĠCl aire
Ġmed als
graph s
ĠFem ale
Ġphys icians
18 63
ĠA ri
ĠJo in
Ġenerget ic
Ġpar ade
Ġscript s
et imes
raph ic
11 11
Ġm ol
ul ators
comm ons
Ġign oring
Ġb er
4 40
C ulture
m ixed
ĠH P
Ġexerc ises
ĠYuk awa
c art
Ġrefere e
t u
Ġeth n
M aterial
Ġse ized
Ġgener a
29 0
f actory
ĠZ ion
he v
ĠSh ore
Al pha
Ġinvest or
ĠHard y
Ġbab ies
m otion
Oper ator
ĠM ead
ant o
Ġsol ver
- }
an mar
pre vious
Ġst ance
ĠGib bs
ĠB rief
Vis it
enz ie
Ġoff shore
me ans
Ġimplicit ly
L uc
Ġmonot onic
Ġcricket ers
Seg ment
al is
ĠDis cussion
Ġseason al
ing ale
ĠB row
up les
Ġ[ ],
ĠGib son
ge ometric
exp and
ĠN umer
r Vert
Ġcalcul us
ers en
Inter val
Ġf reed
Ġdiscover s
F n
ĠB U
Ġst ab
Ġclimb ing
m ile
ĠB M
ĠRe uters
g reat
cl ed
ĠÐ ½
Ġgraph ical
V irtual
Ġend less
Ġbas elines
ĠLa placian
Ġbit ter
ĠW ords
Ġsl ots
Ġfar mer
ĠS pi
Form s
Me asure
Ġinsert ion
Ġw ages
Ġforth coming
Ġfair ness
Ġh ind
0 20
$\ {
Ġtreat y
hard t
Ġsem if
Ã§ Ã£o
ergus on
h ift
Ġc and
Ġresol utions
3 70
E ric
us c
Ġdis charge
Ġr het
Ġsear ched
x t
st rom
An imation
Ġemb ark
arth y
Ġpro poses
ER Y
UR N
Ġ" <
ĠPhot ography
ighbor hood
Ġbomb ing
7 20
ud es
Ġgl ac
ĠApp lied
Ġdr unk
P U
ĠSte phan
Ġexcell ence
ĠMic he
Vis ual
Ġ( {
Ġmort gage
ĠT ouch
dis cussion
Sp in
Ġtheore tically
T er
Ġt ales
Per haps
n ar
W I
EEEE FF
os ity
Ġfore ach
norm als
Ġshell s
ĠP ool
. ",
} <\
ĠLyn n
) ?
ĠTag ged
Ġg al
ĠCarol ine
ĠH I
Ġ\ ;\;
dis crete
IC T
Ġspons or
e as
s sec
w u
ĠN M
dif ference
mod ified
ET A
ĠUg anda
L os
ĠAnaly tics
ĠHall ow
ĠTri p
abl o
construct or
Ġgen ome
ĠL or
Ġper cussion
Ġrece ipt
Ġart illery
Ġtob acco
ĠR ib
eqn o
ĠRes ult
ĠLeg acy
ĠTes la
m v
Ġcrow ds
Ġ' <
ĠOpp ortun
Ph ase
Ġingred ient
Âł Âł
Ġadvoc acy
18 75
vio let
Qu ant
Ġlit igation
Ġprov inces
Ġrest art
Ġthe ft
Ġinvest ing
Ġd umb
Ġcomp iler
reat ment
b eg
e ither
ĠDi pl
Ġthreshold s
Ġwithdraw al
(' /
Ġconstruction s
m eter
sc ss
Ġadop ting
X iv
ruct ive
B all
nd ef
Ġtechn ically
Ġvers a
m tx
ĠP apers
ol and
ĠJ ourney
× ª
ĠN LO
ER N
HT TP
S unday
Ġph armac
ĠPublic ations
18 76
Ġfl are
it ches
Ġ$( -
ĠTrans fer
o op
v id
Ġbif ur
ĠF ocus
r ino
Ġdis ruption
plic ation
Ġaccum ulation
s ync
Ġwell s
Ġgen res
}^* $
r atic
Ġw reck
IG H
ĠB ened
Ġch ord
Ġtow ers
ir teen
Ġbipart ite
Ġtim eline
SE LECT
ĠOut put
au i
ĠF ramework
Ġdis closed
Ġaugment ation
And roid
Ġbox ing
19 1
ĠL ives
ĠAltern atively
P UT
Ġt ender
V ery
ĠC li
ĠR onald
Ġassign ments
Ġterror ists
F riend
Ġh olog
Ġcrim inals
Ġpos ed
ĠH ers
Rep resent
A sh
cy cles
Con sequently
ĠR H
ĠU T
poss ibly
Date Time
ig i
Ġredund ant
f uture
ĠTe en
K N
ĠPear l
Ġfin anc
F B
ic i
ĠPer th
IT ION
Mod ern
commut ative
ĠAd rian
d V
Ġcl one
ĠPl aza
ĠHerm itian
op ard
Ġatt orneys
Ġi Tunes
m atter
Ġv oy
Ġacc ent
Ġjew el
y i
am inated
stit uting
=" $
ĠO rt
Ġdepos its
year s
Co in
Ġresign ation
Ġin set
Ġperipher al
Ġ Ã©
le an
ific ates
Ġex changes
23 7
Pl atform
Names pace
Ġall Classes
kins on
A mb
Ġconf inement
Americ a
Ġnob le
\ &
Be ing
Id s
ih ad
stit u
ĠCal cul
18 3
Ġphys ic
t ion
ĠM ode
Ġsil ly
Ġmal icious
Un known
Ġnav igate
ĠEvent ually
Ġrent al
V S
aps ed
ĠDur ham
Ġd irt
ell ular
Ġdomin ance
b ys
ĠComput ing
W N
) ->
Ġfulf illed
Ġhist ories
Ġflo ors
uit ively
B rien
Ġab normal
ĠV ern
g lyph
jav u
Ġgar age
D OM
ĠS ections
Ġhonest ly
ĠML B
K G
re b
Ġc ref
tt i
22 8
pro c
su cc
Ġper missions
Ġanaly sts
Cal cul
) &=&
ĠRe becca
ĠWrit ers
ĠR enaissance
ĠChem ical
ir ate
Ġbas in
ĠallClasses Link
ĠL ay
Ġkn ocked
IM P
ograph s
Ġstud ios
different ial
/ {
string s
Ġdraft ed
Ġbre eding
ra its
IN K
Ġlack s
check box
Ġaband on
Ġinitial ize
3 45
am oto
Ġpri ests
Ġn inet
Ġvis ually
Ġprot ective
Ġspin or
b org
ng th
ĠWinn ipeg
B ean
ĠS ER
Ġnom inee
ĠA sp
Ġde ar
ĠAct ually
Ġclar ify
J y
ĠS TE
ĠW on
Ġstim ulation
Ġupgrad ed
Ġqu arters
e lected
ĠCom pl
d river
p ixel
St ructure
] -
Let ter
Ġrespond ing
sw er
ĠExhib ition
C ONT
al an
IMPORT ED
de javu
C redit
ill on
Ġcomput es
ĠL av
Ġte ens
Ġpartners hips
Hen ry
| $,
ari us
Ġass ured
un known
ĠThe od
ell ation
oh an
L B
Ġin consistent
Ġl over
U pper
Lou is
con clusion
Ġtra gic
y g
lic ense
Me et
s ho
ĠD rew
Ġhe ights
Ġback bone
resol ve
C ritical
il ion
Ġdrum mer
commun ications
Ð ³
Ġt u
Ġmem oir
}: =
$ ^{+
Ġaw kward
ĠSt ruct
Ġpain ters
Ġretrie ved
G erm
å Ĳ
Ġob esity
ĠOcc up
at em
Ġperturb ed
or f
load ed
int roduction
ĠV illa
ĠObl ast
Ġgl ory
Ġsle e
ĠJes se
ĠAp ollo
pol ynomial
Lat est
Ġun bounded
y z
_{ *
att ention
Fl ag
Ġhospit ality
Ä Ł
ĠA CC
if a
Ġf oster
Ġbroad ly
Ġche ss
ĠM n
col sep
struct ures
16 00
Te V
WH M
ĠCert ificate
0 12
p ion
q a
second ary
" ],
Ġpen alties
Ġinvestig ators
Ġinform ative
{ }^
P ot
b h
) &=
22 9
Ġtransform ing
ĠEll i
ĠJama ica
B uff
fl ush
l ocked
Ġsyn c
ochem ical
Ġsatur ated
ĠA way
4 20
ĠV II
col m
ĠChe f
() ))
ĠB ring
Ġtim ber
b ag
ID TH
28 8
Ġaw ful
Obs erve
ĠMaur ice
ĠB ran
Ġimport ed
ĠHop f
ho ff
Ġequ iv
ĠPro ceed
Ġpain ful
im ath
ract or
ĠLa place
18 83
Ġmot if
Ġsuper position
h ouses
ĠCal gary
ĠÐ ¸
ĠImm un
18 78
' }}
al p
ĠOb viously
ĠLem mon
le af
th ose
ĠS ed
Ġcl ay
rr rr
_+ (
or ption
Ġl enses
De legate
C over
ĠH il
dom in
mont on
if ference
Ġle agues
Ġaer ial
D ynamic
Ġpup ils
Ġloyal ty
p ent
Sub ject
ĠN I
Ġs ender
Ġbom bs
ĠG ent
chie f
ĠHol iday
ï¼ Į
ĠMor occo
ĠSus sex
s ources
Ġillustr ations
g mail
an ium
Ġsupposed ly
Ġintu ition
Ġend points
ĠH odge
Ġbil inear
Ġh i
ĠCont est
ĠJo el
ĠTH IS
ĠNiger ian
ĠL il
$ [
Ġs iblings
Isra el
D ES
0 11
ge ometry
Ġred es
ĠRom ance
F ramework
est y
Ġdisc s
for cing
Ġrank ings
Ġsmooth ly
ĠSol omon
WE BPACK
F ocus
Ġconf idential
Ġtrav elled
Ġentreprene urs
ed ged
ell ows
ĠSh i
R aw
ĠR d
ĠSl oven
li u
Ġt issues
Ġor acle
ĠL C
Ġcelebr ates
J ones
Y S
Ġbelong ed
ĠD iet
ĠD NN
Ġmult ic
Ġaccum ulated
P ark
Ġgu itars
Profess ional
ĠĠĠĠĠĠĠĠĠĠĠĠĠĠĠĠĠĠĠĠĠĠĠĠĠĠĠĠĠĠĠĠ Ġ
ĠLO G
ĠT C
10 16
ĠCom pton
ios ity
i otic
edd ed
ĠGe off
Ġadvers ary
ad os
NavBar Font
r g
Ġmes ons
ĠPrinc ipal
ub ern
omet ime
ĠF lying
Ġabund ant
Ġgradu ation
hel per
F re
p ole
Ġm igrants
30 8
Ġselect ive
24 7
Ġview er
Ġinitial ized
Ġattach ment
Ġm irr
Ġg el
ĠMor rison
ĠM ental
ĠSte am
ĠLeg ion
Ġlegisl ature
Ġtri plet
Ġfirm ly
Ļ Ĥ
Ġc ure
ĠTh u
Ġrecruit ment
Ġf iref
Ġg am
âĶ Ģ
Ġhe d
Ġbath room
Ġn aming
Ġres ume
ĠCH ECK
Ġ ^{-
ĠAd ventures
ĠGu est
Li u
Ġre bounds
Ġcl an
Ġdefend ers
Ġfound ations
omb ie
ĠMerc ury
80 2
Ġfoc al
Ġtet ra
it ored
Ġcompass ion
s ocket
Ġremin is
b ath
D river
agn et
ĠClass es
ĠRo osevelt
Frag ment
sp ective
hed ron
ĉĉĉĉ Ċ
w yn
ĠSt orage
Ġsh out
Ðµ Ð½
redu ced
ĠP osition
Med al
Ġtourn aments
ĠC MS
IN FO
ĠP am
read er
Ġcount less
press ure
re li
Vill ages
de al
ĠGo ing
Mach ine
Ġtransmit ter
top ic
yl um
ĠSac ramento
C ounter
S ide
if def
IC ENSE
Ġsuper hero
Ġunem ployment
ĠH ood
Ġtort ure
ĠA verage
Ġli ps
ĠIndust ries
Ġvib rant
T alk
c ery
imod al
Ġth y
Ġdeb ris
Ġind ie
ole y
ĠAsh ley
incre asing
T X
Ġpre y
Ġancest ors
ĠJ upiter
ĠK ick
ĠShe ll
Requ ired
Ġfix es
Ġsk ull
a ine
Ġsuper b
Ġkilomet ers
Ġatt itudes
sh i
B ey
ĠPre vention
ĠSl ovak
Ġor n
ĠLe af
Ġpurch asing
Ġf idelity
}) -\
Ġswit ches
g reek
Str ategy
ĠL ak
Ġnull ptr
W at
ĠClass ical
rob enius
Ġback s
J ud
Ġrem inds
Ġmonot one
Ġnation ally
am on
ĠGrand e
Ġd Ã©
Ġg ases
oper ators
spec ified
Ġs aves
ke eping
Ġlogarith m
ĠC rist
ang les
Ġwrit ings
ĠBe hind
Ġhor rible
Ġaim ing
Ġorb ifold
Ġcontin ent
ific ent
own ers
ĠHy dro
intend ent
u ably
as se
Ġca f
Ġinv itation
Ġmem or
Ġtub es
Ġf lesh
Un like
ra ining
ĠM Hz
el ike
Ġc otton
Ġf right
Ġscal ars
18 77
Ġbi ases
Ġreal ised
ĠGroup s
n ative
Ġcost ly
Ġlog in
ĠArch bishop
c ats
ĠWork shop
N eed
ad ays
Ġpurs uing
Ġb iod
ot yp
min im
j b
Ġl ob
ĠG DP
ĠY eah
Ġheav ier
Ġannot ations
ĠHallow een
! ,
raction s
ĠTw enty
ĠCitiz ens
normals ize
it he
ĠRoman ian
ĠMar in
on er
) <\
ut z
ĠW ake
Ġexclud ing
ast ing
m om
Ã¡ s
Im ages
V ictor
Ġexhib itions
ĠProject s
Ġmer it
ĠM AC
Ġt ensions
Ġpress ing
categor ized
Ġanalys ed
g ies
ĠField s
Ġteen age
Ġformul ae
od el
ĠShe ffield
Ġnic ely
Ġsub algebra
ĠCan on
ĠCam era
atern ity
App lying
determ ined
Ġdestro ying
cor related
se ver
ĠW ellington
Ġshel f
Ġde position
ĠAnd rea
F older
Ġgorge ous
Ġb ootstrap
ĠEr nest
Ġcon gest
Ġmach inery
Ġfree ze
ï ¬
Ġprior ities
ĠS askat
ĠBl air
Ġr ides
Ġprohib ited
Ġow ing
ĠBre tt
Ġobst acle
st rict
av i
Ġtunnel ing
ĠKr ish
Ġo c
Ñ Ĩ
et es
23 9
ol ics
ĠE W
Ġtouch ing
ĠN g
ĠSh ows
Ġpr ince
M iddle
ĠM eta
head ed
Ġcompl ain
Ġout let
C ome
T imes
ĠI MF
FF ER
ĠDem ocracy
18 40
ĠE S
og on
ĠQu estions
Ġconv iction
Ġmic rowave
M i
w ire
is che
ĠM emphis
ĠL uck
Ġpresent ations
alax ies
ib les
open hagen
Ġsh aded
ĠBroad casting
us ions
ĠHero es
ĠT elescope
ak y
h of
ex plicit
new page
Sc ient
row eak
Ġrel ativity
Ġshould ers
Ġdr ill
h size
en burg
Ġn p
ĠHe y
og o
condition al
Ġinv isible
ĠRe ve
Ġquiet ly
Ġbehavior al
ĠArch ae
p ars
ĠC ork
ĠBurn s
ĠC ec
ĠRh ode
Ġg em
se gment
ĠM inkowski
ĠCh in
le ys
con cept
Ġprocess ors
Ġevalu ations
ras er
Ġth umb
ĠP G
ĠL ocation
Ġm ud
Ġyour s
Ġins ult
man agement
Ġbeaut ifully
Ġn s
ard less
sing ular
Ġdis able
M ouse
os ome
=\ "
sh al
und ers
mult iple
Ġn ost
oul os
F IN
ĠG D
isp here
2 17
Ġch ase
Ġemb ry
Ġdescend ants
names e
F ood
Ã ¯
ĠS hen
to Be
app ings
Ġsa iling
ĠCon cept
em ission
Ġser um
cont ents
id ian
Ġst ressed
ĠZ ar
Ġread only
ĠZ amb
Ġsu its
Ġsem ic
Off ice
ĠBol tzmann
h ma
Ġhous ed
Ġse aled
ĠDet erm
Ġdiscret ization
ĠWe ight
Ġport able
FL AG
ĠInterest ingly
Ġcylind rical
ĠU til
ĠEngine er
Ġrub ber
18 67
Ġ[ ...]
ĠS it
D oug
mod es
Ġreg ener
f ine
Ġlog s
SS L
l if
ip olar
Ġspec ulation
ri ber
Ġsp ans
ĠHen ri
Ġn umbered
Ï ħ
18 79
Ġcr ashed
Ġpione er
k top
Ġpen al
arm acy
3 12
ĠDE FAULT
Ġdoub led
ĠCom parison
Ġencourag es
Ġperform er
ĠPer fect
oc ide
Ġun lock
}) _
18 68
ro ots
ĠPrinc eton
et able
Ġplant ed
Ġsusp icious
Ġprot ons
(\ {
Ġout rage
Ġlength y
Ġemphas ized
former ly
ĠRes olution
ĠASS ERT
ĠSecond ary
D ATA
leg iate
Commun ity
G rant
k r
Ġflav our
}$ }\
Ġfunction ing
Ġsex ually
Ġconsult ing
D ar
ĠM Y
oy a
Con stant
est ock
mathb in
d ia
}) _{\
ĠEff ects
Ġback wards
Ġobser vers
> ::
Ġle mm
ĠPak istani
ĠNov el
ĠM aps
it on
ĠN atal
ĠDomin ican
Ġimpl ant
math ring
Ġen um
, -\
Ġbur sts
Ġint r
23 3
ĠHol ocaust
comp ile
ĠQu ick
ingu ish
Ġin ch
ĠAndrew s
os cal
Ġspec ially
Ġ( -\
Ġfor wards
Ġsp ine
Ġbuy er
ĠS ara
it ated
ĠL ed
Ġadv isor
R PC
Ġalumin um
b right
ĠS ter
ĠP orter
Ġem it
Ġdem ographic
W ay
Ġpro to
Ġvolunt ary
d anger
h in
ĠT ex
ordin ator
Ġprosp ective
Ġt at
ĠSup erman
Ġswe pt
b ring
H ung
as ync
Ġabs urd
St an
ĠN T
Ġc ement
EN G
ĠV atican
ĠH ern
k ill
Ġgeomet rical
ploy ed
Ġdeliber ately
Ġst raw
ĠBur ton
ĠWat ers
ĠPart ner
att i
Ġkid ney
D ig
ĠG or
Ġmet eor
Ġdub bed
o qu
ĠPartners hip
Ġple asant
4 30
Ġcl ips
ĠMan ila
ĠWy oming
Ġat tained
ä ½
Ġin take
ĠG ates
- |
R ussia
Ġpro x
Ø ³
ve ment
ik er
Ġmac roscopic
Ġheter ogeneous
ĠI SS
Ġarch ives
Ġsuspect s
S wed
ĠF T
Ġopt imum
ĠDav ies
Q C
Ġf art
Ġdeleg ate
ĠF ul
}) /
Ġevent ual
ĠNot tingham
]{ $\
rac ies
ĠPl ate
un n
ias m
Ġrecru ited
% ).
K w
ĠW er
E val
ext ensions
ĠCol lections
ĠA ges
Ġ" [
ĠSch ol
ĠProm ise
Ã± a
rt imes
accur ate
Ġcommand ed
z t
Ġpot ato
Ġminim a
Ġm ast
onic a
"" "
Ġresemb les
ĠLe icester
Ġell ips
6 40
Ġc emetery
Ġout look
Ġswe ep
iov ascular
Ġ\ ;\
Ġac claimed
ĠIP v
: -
ĠF ear
Ġv ow
ĠØ§ ÙĦ
Start ing
are l
ĠIn tern
ĠH ua
Ġadminist rator
Ġsubsequ ence
Ġrel ie
Ġam ple
ĠBre nd
bra ket
Ġcard iac
if ndef
Ġper me
Ġadd iction
{( -
lass ical
Ġdis g
rib ing
ĠO ptions
Ġprot agonist
Ġsw ap
ĠG ren
Ġlad der
N B
Ġte aches
ac iÃ³n
}\ }
26 9
integ ration
ven ile
Ġinf ant
ĠLaure n
ĠHend erson
arab ic
hel m
ĠN W
sc attering
Î º
Ġins isted
Ġglass es
J D
Ġrot ations
rm k
24 8
} ''
Ġsp arsity
R M
Ġt a
ĠB elt
Ð¾Ð »
ne ath
osp in
Ġeigen vectors
Point s
ip es
che ss
ĠCar roll
j l
ĠSy nd
ĠI RS
ours es
at omy
b ial
lik elihood
Ġinter im
ĠMunicip ality
}\ ]
ĠAbd ul
0 50
Res p
ĠH annah
Acknowled gments
in ent
av ia
ĠBy z
G ate
ĠAlexand ria
ĠW imbledon
t ouch
iel sen
w at
}_{ +
cer tain
Ġin con
le arn
ĠS USY
23 6
Ġencry pted
ĠC ritical
ĠSt ay
g rowth
ay ette
Ġdispl aced
r up
d yn
Ġpe pt
Ġu ph
ĠPan ama
Academ ic
cass andra
Ġwhere by
Ġcent r
Ġfig ured
Ġb eds
ĠL M
Ġstreng the
Ġrid ge
ĠPoint s
ĠC AN
ĠCar bon
Ġsk et
ĠReg ulation
ĠS of
ĠNot re
Ġmotor cycle
Ġf isher
Ġhead line
ĠNe u
eff ects
ear chers
ĠConn ection
dor ff
ĠD ust
ĠL java
Ġc uisine
ĠA W
un al
rom y
Ġdesign ation
N EXT
Col lect
Ġcont ested
ĠRes Net
ĠReg ulations
Ġfort une
Ġsuff ers
ĠSub ject
Ġapprec iation
ĠM t
ob ia
au f
ap unov
Ġred irect
Ġcooper ative
R P
Ñ ħ
Ġwar fare
Ġcred entials
v b
ĠL iz
ak is
18 72
pay ers
ĠKenn eth
Ġtrunc ation
B log
ib a
EN S
ĠCase y
ĠH yp
ĠTh ing
Â ´
ĠR oc
Ġab rupt
Ġestabl ishes
Ġincorpor ates
Ġanomal ies
ĠR ut
ĠB elf
ĠF resh
ĠD ied
ba um
av oid
R D
Ġdiv ine
M ut
Ġt iles
Ġp i
Reg ular
Ġdie lectric
Ġtim ely
amm ation
in ians
ir us
pos ium
ĠPop ulation
Ġsynchron ization
Mon th
ĠT ales
Ġlist ened
Ġprior it
g old
ĠE b
ĠDom ain
Ġveget ables
om ical
R G
U G
orth y
Col umb
Ġ ig
ĠConsider ing
Ġfru its
\, $\
PRO C
S port
ĠNAV BAR
Ġun anim
Ġ} ^{
Ġ& &\
Ġorgan ize
Ġtrib al
W all
Ġframework s
ĠPref ecture
Ġd ive
ĠFl ow
Ġdecom posed
Ġdevast ating
ĠH oney
ear ance
Ġval ign
ĠBou levard
ĠMon ster
Ġfragment ation
ox ic
Rem ember
maxim um
D NA
is le
Ġc ater
ĠAng lo
Ġlect ures
ĠM oss
iqu it
ch all
ĠP ars
Ġident ically
gener ate
Ġfun ctors
Const ruction
U AL
ĠT ong
Qu estion
Ġdemol ished
nav igation
prov ided
f red
Ġ umb
or um
ra pped
ĠG ender
})- (\
es ar
ĠD rop
}} ]
na issance
Ġneighbour ing
Ġox id
run time
il ight
ĠCa uc
DE FAULT
B g
. ''
Ġf ert
Ġe ject
Ð° ÑĤ
ĠRestaur ant
e conomic
Ġint end
ĠEc u
f rames
RA Y
Dist rict
ĠFor ward
Bel ow
side bar
ĠG em
Ġviol ating
ĠTun is
pl ays
ĠIl legal
ĠH ours
ip ot
ĠSh annon
Ġreb els
ir ling
inos a
ĠSocial ist
re act
Ġinstant aneous
ĠBrad y
ĠT rent
ĠR V
ĠSI ZE
Ġa pt
ĠC ort
ict ured
consist ency
Ġv intage
ĠCho ose
Ġemer ges
f est
Ġend ors
Ġflag ship
B or
}- {\
DE BUG
Ð° Ð½
18 71
st ri
Ġteen ager
$ |
ĠGu itar
ĠD iana
cent ric
RE SS
scal a
ĠHer z
ĠE lement
ĠE ducational
out heastern
per fect
ĠIs ing
c O
Ġdon ors
ĠM pc
sub script
ĠApp eals
ĠN V
inf all
30 6
H erm
Ġcondition ing
ĠAccording ly
Ġw ines
_* (
g rand
3 90
C apt
Ġp ier
cm id
Ġprom otes
30 7
}{ |\
ass ign
f w
T ile
Ġg ut
Th ursday
Ġsid ew
3 15
ĠM ets
qu o
worth y
M onday
head ing
Ġcoordin ator
In g
En umer
Ġf ond
ĠH od
ĠS Ne
ort ions
ru ce
St age
ĠC ounter
Ġhead lines
Ġsever ity
Ġpack ing
ĠLegisl ature
Ġo m
Ġsc ary
ĠRock y
C Y
u ke
Fe atures
T exas
ĠEm irates
ĠBeat les
G reek
Ġp ants
ĠL F
ĠEngine ers
MO DE
Ġb ore
25 7
ĠPack age
U A
ĠHa us
ad ers
s ensitive
ĠJ ur
tan h
at ta
Ġend emic
Ġref res
time out
path s
enn ium
v ine
ib an
Ġdwar fs
C W
ps line
}= (\
ch rot
ĠU AV
Mark er
Ġg odd
ĠAll an
AM A
vis ual
v ens
Ġsupp liers
Ġref uses
ING S
Ġm ate
Ġre lic
ĠBab a
Ġm elt
Ġl overs
ĠMin neapolis
Ġcontract ed
Ġad vent
Ġprob able
ĠD erek
Ġtriv ially
Ġ }.
sw ick
Sw ift
m ol
ĠZ ach
dis able
ĠB D
ST AR
ĠLog an
Ke ep
ĠRh odes
28 5
__ _
em bourg
ĠImm igration
Ġcontain ers
ĠId entity
p ubl
ĠD in
Build ing
F oot
}| $
Ġtal ents
en za
è ¯
rem arks
Ġtrac ed
em ale
ĠCh rome
Ġinf antry
Ġsuccess ion
IC ATION
Ġmus cles
S ql
[...]
