{
  "version": "1.0",
  "truncation": null,
  "padding": null,
  "added_tokens": [
    {
      "id": 0,
      "content": "[UNK]",
      "single_word": false,
      "lstrip": false,
      "rstrip": false,
      "normalized": false,
      "special": true
    }
  ],
  "normalizer": null,
  "pre_tokenizer": {
    "type": "Sequence",
    "pretokenizers": [
      {
        "type": "Digits",
        "individual_digits": false
      },
      {
        "type": "ByteLevel",
        "add_prefix_space": false,
        "trim_offsets": true,
        "use_regex": true
      }
    ]
  },
  "post_processor": null,
  "decoder": null,
  "model": {
    "type": "BPE",
    "dropout": null,
    "unk_token": "[UNK]",
    "continuing_subword_prefix": null,
    "end_of_word_suffix": null,
    "fuse_unk": false,
    "byte_fallback": false,
    "vocab": {
      "[UNK]": 0,
      "!": 1,
      "\"": 2,
      "#": 3,
      "$": 4,
      "%": 5,
      "&": 6,
      "'": 7,
      "(": 8,
      ")": 9,
      "*": 10,
      "+": 11,
      ",": 12,
      "-": 13,
      ".": 14,
      "/": 15,
      "0": 16,
      "1": 17,
      "2": 18,
      "3": 19,
      "4": 20,
      "5": 21,
      "6": 22,
      "7": 23,
      "8": 24,
      "9": 25,
      ":": 26,
      ";": 27,
      "<": 28,
      "=": 29,
      ">": 30,
      "?": 31,
      "@": 32,
      "A": 33,
      "B": 34,
      "C": 35,
      "D": 36,
      "E": 37,
      "F": 38,
      "G": 39,
      "H": 40,
      "I": 41,
      "J": 42,
      "K": 43,
      "L": 44,
      "M": 45,
      "N": 46,
      "O": 47,
      "P": 48,
      "Q": 49,
      "R": 50,
      "S": 51,
      "T": 52,
      "U": 53,
      "V": 54,
      "W": 55,
      "X": 56,
      "Y": 57,
      "Z": 58,
      "[": 59,
      "\\": 60,
      "]": 61,
      "^": 62,
      "_": 63,
      "`": 64,
      "a": 65,
      "b": 66,
      "c": 67,
      "d": 68,
      "e": 69,
      "f": 70,
      "g": 71,
      "h": 72,
      "i": 73,
      "j": 74,
      "k": 75,
      "l": 76,
      "m": 77,
      "n": 78,
      "o": 79,
      "p": 80,
      "q": 81,
      "r": 82,
      "s": 83,
      "t": 84,
      "u": 85,
      "v": 86,
      "w": 87,
      "x": 88,
      "y": 89,
      "z": 90,
      "{": 91,
      "|": 92,
      "}": 93,
      "~": 94,
      "¡": 95,
      "¢": 96,
      "£": 97,
      "¤": 98,
      "¥": 99,
      "¦": 100,
      "§": 101,
      "¨": 102,
      "©": 103,
      "ª": 104,
      "«": 105,
      "¬": 106,
      "®": 107,
      "¯": 108,
      "°": 109,
      "±": 110,
      "²": 111,
      "³": 112,
      "´": 113,
      "µ": 114,
      "¶": 115,
      "·": 116,
      "¸": 117,
      "¹": 118,
      "º": 119,
      "»": 120,
      "¼": 121,
      "½": 122,
      "¾": 123,
      "¿": 124,
      "Â": 125,
      "Ã": 126,
      "Ä": 127,
      "Å": 128,
      "Æ": 129,
      "Ç": 130,
      "È": 131,
      "É": 132,
      "Ê": 133,
      "Ë": 134,
      "Ì": 135,
      "Í": 136,
      "Î": 137,
      "Ï": 138,
      "Ð": 139,
      "Ñ": 140,
      "Ò": 141,
      "Ó": 142,
      "Ô": 143,
      "Õ": 144,
      "Ö": 145,
      "×": 146,
      "Ø": 147,
      "Ù": 148,
      "Ú": 149,
      "Û": 150,
      "Ü": 151,
      "Ý": 152,
      "Þ": 153,
      "ß": 154,
      "à": 155,
      "á": 156,
      "â": 157,
      "ã": 158,
      "ä": 159,
      "å": 160,
      "æ": 161,
      "ç": 162,
      "è": 163,
      "é": 164,
      "ê": 165,
      "ë": 166,
      "ì": 167,
      "í": 168,
      "î": 169,
      "ï": 170,
      "ð": 171,
      "ñ": 172,
      "ò": 173,
      "ó": 174,
      "ô": 175,
      "Ā": 176,
      "ā": 177,
      "Ă": 178,
      "ă": 179,
      "Ą": 180,
      "ą": 181,
      "Ć": 182,
      "ć": 183,
      "Ĉ": 184,
      "ĉ": 185,
      "Ċ": 186,
      "ċ": 187,
      "Č": 188,
      "č": 189,
      "Ď": 190,
      "ď": 191,
      "Đ": 192,
      "đ": 193,
      "Ē": 194,
      "ē": 195,
      "Ĕ": 196,
      "ĕ": 197,
      "Ė": 198,
      "ė": 199,
      "Ę": 200,
      "ę": 201,
      "Ě": 202,
      "ě": 203,
      "Ĝ": 204,
      "ĝ": 205,
      "Ğ": 206,
      "ğ": 207,
      "Ġ": 208,
      "ġ": 209,
      "Ģ": 210,
      "ģ": 211,
      "Ĥ": 212,
      "ĥ": 213,
      "Ħ": 214,
      "ħ": 215,
      "Ĩ": 216,
      "ĩ": 217,
      "Ī": 218,
      "ī": 219,
      "Ĭ": 220,
      "ĭ": 221,
      "Į": 222,
      "į": 223,
      "İ": 224,
      "ı": 225,
      "Ĳ": 226,
      "ĳ": 227,
      "Ĵ": 228,
      "ĵ": 229,
      "Ķ": 230,
      "ķ": 231,
      "ĸ": 232,
      "Ĺ": 233,
      "ĺ": 234,
      "Ļ": 235,
      "ļ": 236,
      "Ľ": 237,
      "ľ": 238,
      "Ŀ": 239,
      "ŀ": 240,
      "Ł": 241,
      "ł": 242,
      "Ń": 243,
      "Ġt": 244,
      "in": 245,
      "he": 246,
      "ĠĠ": 247,
      "Ġa": 248,
      "on": 249,
      "re": 250,
      "er": 251,
      "at": 252,
      "Ġthe": 253,
      "Ġs": 254,
      "en": 255,
      "or": 256,
      "al": 257,
      "it": 258,
      "Ġo": 259,
      "is": 260,
      "an": 261,
      "es": 262,
      "Ġc": 263,
      "Ġw": 264,
      "ar": 265,
      "ed": 266,
      "Ġf": 267,
      "ion": 268,
      "ĠĠĠĠ": 269,
      "Ġp": 270,
      "nd": 271,
      "Ġb": 272,
      "Ġof": 273,
      "ing": 274,
      "Ġin": 275,
      "ic": 276,
      "le": 277,
      "ro": 278,
      "Ġm": 279,
      "as": 280,
      "Ġd": 281,
      "Ġand": 282,
      "Ġto": 283,
      "Ġ\\": 284,
      "ou": 285,
      "ct": 286,
      "el": 287,
      "et": 288,
      "ent": 289,
      "Ġ$": 290,
      "Ġh": 291,
      "Ġth": 292,
      "il": 293,
      "st": 294,
      "om": 295,
      "ig": 296,
      "Ġre": 297,
      "am": 298,
      "Ġn": 299,
      "ation": 300,
      "Ġe": 301,
      "im": 302,
      "ra": 303,
      "ol": 304,
      "ot": 305,
      "ĠT": 306,
      "ĠS": 307,
      "Ġl": 308,
      "Ġis": 309,
      "id": 310,
      "Ġ(": 311,
      "ce": 312,
      "ve": 313,
      "ĠA": 314,
      "ut": 315,
      "ĠC": 316,
      "Ġg": 317,
      "âĢ": 318,
      "Ġfor": 319,
      "{\\": 320,
      "ur": 321,
      "ch": 322,
      "se": 323,
      "ly": 324,
      "ow": 325,
      "Ġon": 326,
      "ver": 327,
      "ĠĠĠ": 328,
      "ĠI": 329,
      "ul": 330,
      "ĠM": 331,
      "Ġbe": 332,
      "ĠĠĠĠĠĠĠĠ": 333,
      "ad": 334,
      "ith": 335,
      "Ġst": 336,
      "us": 337,
      "Ġthat": 338,
      "qu": 339,
      "ay": 340,
      "ab": 341,
      "um": 342,
      "ir": 343,
      "un": 344,
      "ĠP": 345,
      "od": 346,
      "ĠB": 347,
      "em": 348,
      "if": 349,
      "Ġcon": 350,
      "Ġwith": 351,
      "Ġas": 352,
      "ter": 353,
      "_{": 354,
      "20": 355,
      "ag": 356,
      "ri": 357,
      "end": 358,
      "eg": 359,
      "Ġal": 360,
      "Ġan": 361,
      "ĠF": 362,
      "ĠH": 363,
      "ht": 364,
      "her": 365,
      "ĠR": 366,
      "th": 367,
      "Ġpro": 368,
      "Ġwe": 369,
      "ist": 370,
      "ath": 371,
      "ĠD": 372,
      "ĠThe": 373,
      "Ġ$\\": 374,
      "ect": 375,
      "res": 376,
      "and": 377,
      "ĠL": 378,
      "ac": 379,
      "Ġv": 380,
      "pp": 381,
      "ĠW": 382,
      "ers": 383,
      "ate": 384,
      "Ġwh": 385,
      "Ġby": 386,
      "os": 387,
      "Ġit": 388,
      "čĊ": 389,
      "ity": 390,
      "est": 391,
      "op": 392,
      "ĠN": 393,
      "iv": 394,
      "Ġat": 395,
      "Ġex": 396,
      "math": 397,
      "ĠG": 398,
      "ight": 399,
      "ta": 400,
      "Ġcom": 401,
      "oc": 402,
      "rom": 403,
      "ore": 404,
      "Ġare": 405,
      "ĠE": 406,
      "Ġde": 407,
      "ill": 408,
      "ph": 409,
      "ction": 410,
      "ex": 411,
      "Ġ&": 412,
      "ure": 413,
      "ess": 414,
      "ew": 415,
      "art": 416,
      "Ġwas": 417,
      "Ġy": 418,
      "ĠĊ": 419,
      "Ġ=": 420,
      "ub": 421,
      "pt": 422,
      "}\\": 423,
      "ies": 424,
      "19": 425,
      "ine": 426,
      "âĢĻ": 427,
      "ant": 428,
      "Ġhe": 429,
      "Ġfrom": 430,
      "Ġor": 431,
      "up": 432,
      "^{": 433,
      "}$": 434,
      "ial": 435,
      "ment": 436,
      "ort": 437,
      "ld": 438,
      "ive": 439,
      "ma": 440,
      "ge": 441,
      "nt": 442,
      "ke": 443,
      "all": 444,
      "our": 445,
      "ud": 446,
      "Ġse": 447,
      "ite": 448,
      "Ġr": 449,
      "ĠJ": 450,
      "ref": 451,
      "pl": 452,
      "ĠĠĠĠĠĠĠ": 453,
      "ĠO": 454,
      "The": 455,
      "Ġthis": 456,
      "Ġsh": 457,
      "ass": 458,
      "ere": 459,
      "ave": 460,
      "pe": 461,
      "og": 462,
      "ell": 463,
      "iz": 464,
      "}}": 465,
      "ich": 466,
      "Ġch": 467,
      "Ġnot": 468,
      "per": 469,
      "(\\": 470,
      "rac": 471,
      "ard": 472,
      "ft": 473,
      "ical": 474,
      "ust": 475,
      "und": 476,
      "201": 477,
      "ran": 478,
      "ult": 479,
      "int": 480,
      "ame": 481,
      "ated": 482,
      "ext": 483,
      "ber": 484,
      "Ġle": 485,
      "ĠâĢ": 486,
      "ue": 487,
      "Ġ-": 488,
      "ĉĉ": 489,
      "cl": 490,
      "orm": 491,
      "'s": 492,
      "ff": 493,
      "Ġcl": 494,
      "egin": 495,
      "begin": 496,
      "ps": 497,
      "00": 498,
      "ĠU": 499,
      "age": 500,
      "..": 501,
      "ition": 502,
      "Ġhave": 503,
      "ast": 504,
      "Ġcomp": 505,
      "ign": 506,
      "are": 507,
      "cal": 508,
      "Ġcan": 509,
      "ary": 510,
      "ack": 511,
      "ĠK": 512,
      "_{\\": 513,
      ")$": 514,
      "Ġ<": 515,
      "Ġ\"": 516,
      "ost": 517,
      "sp": 518,
      "Ġsu": 519,
      "ak": 520,
      "Ġpl": 521,
      "ens": 522,
      "Ġint": 523,
      "ong": 524,
      "ear": 525,
      "ations": 526,
      "de": 527,
      "ĠIn": 528,
      "able": 529,
      "Ġus": 530,
      "ia": 531,
      "av": 532,
      "out": 533,
      "}{": 534,
      "Ġwhe": 535,
      "ian": 536,
      "du": 537,
      "=\"": 538,
      "Ġwhich": 539,
      "),": 540,
      "ire": 541,
      "--": 542,
      "ace": 543,
      "con": 544,
      "ide": 545,
      "Ġall": 546,
      "ime": 547,
      "Ġab": 548,
      "ould": 549,
      "ug": 550,
      ");": 551,
      "ork": 552,
      "ap": 553,
      "Ġ{": 554,
      "Ġk": 555,
      "cc": 556,
      "frac": 557,
      "Ġhas": 558,
      "ord": 559,
      "ain": 560,
      "ip": 561,
      "ase": 562,
      "ĠSt": 563,
      "equ": 564,
      "ther": 565,
      "ib": 566,
      "eq": 567,
      "ome": 568,
      "},": 569,
      "act": 570,
      "rm": 571,
      "ind": 572,
      "ions": 573,
      ").": 574,
      "Ġun": 575,
      "ous": 576,
      "ok": 577,
      "Ġsp": 578,
      "ĠV": 579,
      "Ġim": 580,
      "text": 581,
      "right": 582,
      "ice": 583,
      "Ġyou": 584,
      "Ġj": 585,
      "ry": 586,
      "so": 587,
      "</": 588,
      "cite": 589,
      "abel": 590,
      "Ġad": 591,
      "ence": 592,
      "ang": 593,
      "form": 594,
      "the": 595,
      "Ġhis": 596,
      "ach": 597,
      "ru": 598,
      "Ġapp": 599,
      "ĠTh": 600,
      "Ġen": 601,
      "ie": 602,
      "use": 603,
      "ĠĠĠĠĠĠĠĠĠĠĠĠĠĠĠĠ": 604,
      "Ġone": 605,
      "eta": 606,
      "//": 607,
      "Ġme": 608,
      "oll": 609,
      "Ġres": 610,
      "mathb": 611,
      "10": 612,
      "Ġwill": 613,
      "Ġbut": 614,
      "label": 615,
      "com": 616,
      "ric": 617,
      "ile": 618,
      ",\\": 619,
      "200": 620,
      "ance": 621,
      "$,": 622,
      "ally": 623,
      "erv": 624,
      "ely": 625,
      "over": 626,
      "Ġcont": 627,
      "ents": 628,
      "ory": 629,
      "Ġif": 630,
      "equation": 631,
      "row": 632,
      "fere": 633,
      "In": 634,
      "$.": 635,
      "own": 636,
      "Ġout": 637,
      "Ġpart": 638,
      "one": 639,
      "Ġper": 640,
      "Ġdis": 641,
      "ound": 642,
      "ov": 643,
      "ĠCh": 644,
      "ose": 645,
      "ree": 646,
      "ors": 647,
      "ress": 648,
      "Ġalso": 649,
      "âĢĿ": 650,
      "Ġtheir": 651,
      "wo": 652,
      "old": 653,
      "Ġmod": 654,
      "ark": 655,
      "port": 656,
      "urn": 657,
      "Ġqu": 658,
      "pro": 659,
      "})": 660,
      "mathcal": 661,
      "fig": 662,
      "ces": 663,
      "Ġdo": 664,
      "left": 665,
      "irst": 666,
      "Ġwere": 667,
      "Ġar": 668,
      "}.": 669,
      "tain": 670,
      "Ġ*": 671,
      "ob": 672,
      "Ġev": 673,
      "ates": 674,
      "Ġ}": 675,
      "rib": 676,
      "ll": 677,
      "ject": 678,
      "}(": 679,
      "lic": 680,
      "ish": 681,
      "Ġmore": 682,
      "erm": 683,
      "ep": 684,
      "Ġ+": 685,
      "Ġob": 686,
      "we": 687,
      "clud": 688,
      "Ġne": 689,
      "Ġup": 690,
      "vers": 691,
      "Ġthey": 692,
      "Ġro": 693,
      "ener": 694,
      "ĠĠĠĠĠĠĠĠĠĠĠ": 695,
      "mer": 696,
      "}^": 697,
      "rans": 698,
      "ĠY": 699,
      "ple": 700,
      "ount": 701,
      "li": 702,
      "ook": 703,
      "}_": 704,
      "Ġnew": 705,
      "amb": 706,
      "ove": 707,
      "ata": 708,
      "red": 709,
      "Ġits": 710,
      "Ġother": 711,
      "vel": 712,
      "~\\": 713,
      "Ġso": 714,
      "sum": 715,
      "Ġman": 716,
      "Ġsc": 717,
      "ics": 718,
      "pha": 719,
      "tern": 720,
      "line": 721,
      "Ġsy": 722,
      "Ġtwo": 723,
      "unction": 724,
      "very": 725,
      "da": 726,
      "Ġag": 727,
      "rit": 728,
      "Ġover": 729,
      "alpha": 730,
      "Ġwho": 731,
      "imes": 732,
      "oint": 733,
      "Ġ|": 734,
      "ake": 735,
      "Ġclass": 736,
      "ys": 737,
      "ec": 738,
      "Ġtime": 739,
      "ks": 740,
      "Ġfirst": 741,
      "ood": 742,
      "ular": 743,
      "18": 744,
      "ond": 745,
      ")\\": 746,
      "hed": 747,
      "Ġbeen": 748,
      "mb": 749,
      "ĠIt": 750,
      "ĠĠĠĠĠ": 751,
      "get": 752,
      "\">": 753,
      "te": 754,
      "ari": 755,
      "ild": 756,
      "Ġwork": 757,
      "iel": 758,
      "Ġset": 759,
      "ode": 760,
      "ring": 761,
      "ĠâĢľ": 762,
      "ution": 763,
      "ays": 764,
      "ne": 765,
      "cent": 766,
      "Ġour": 767,
      "Ġdef": 768,
      "hat": 769,
      "ption": 770,
      "12": 771,
      "Ġhad": 772,
      "to": 773,
      "Ġher": 774,
      "lect": 775,
      "Ġthere": 776,
      "Ġabout": 777,
      "Ġdes": 778,
      "vi": 779,
      "elta": 780,
      "$\\": 781,
      "ambda": 782,
      "app": 783,
      "fter": 784,
      "ray": 785,
      "Ġli": 786,
      "Ġthan": 787,
      "Ġte": 788,
      "Ġbet": 789,
      "ollow": 790,
      "eth": 791,
      "ĠWe": 792,
      "of": 793,
      "Ġany": 794,
      "sc": 795,
      "Ġdif": 796,
      "igh": 797,
      "ater": 798,
      "ss": 799,
      "les": 800,
      "Ġpre": 801,
      "stem": 802,
      "Ġ[": 803,
      "ons": 804,
      "ng": 805,
      "ield": 806,
      "under": 807,
      "Ġexp": 808,
      "Ġwhen": 809,
      "amma": 810,
      "ual": 811,
      "Ġval": 812,
      "iss": 813,
      "Ġonly": 814,
      "Ġsa": 815,
      "ings": 816,
      "pec": 817,
      "Ġsome": 818,
      "ced": 819,
      "Ġinto": 820,
      "Ġyear": 821,
      "ix": 822,
      "Ġwhere": 823,
      "Ġacc": 824,
      "Ġtra": 825,
      "ative": 826,
      "_\\": 827,
      "ational": 828,
      "mu": 829,
      "Ġsub": 830,
      "ans": 831,
      "ugh": 832,
      "ype": 833,
      "ram": 834,
      "raph": 835,
      "oug": 836,
      "umber": 837,
      "ca": 838,
      "ĠHe": 839,
      "Ġoff": 840,
      "ĠUn": 841,
      "Ġwould": 842,
      "=\\": 843,
      "dot": 844,
      "ize": 845,
      "Ġsuch": 846,
      "dition": 847,
      "Ġfunction": 848,
      "Ġ\\\\": 849,
      "St": 850,
      "Ġcons": 851,
      "ific": 852,
      "igma": 853,
      "Ġfollow": 854,
      "ck": 855,
      "oth": 856,
      "sub": 857,
      "}^{": 858,
      "}_{": 859,
      "Ġform": 860,
      "ĠâĢĵ": 861,
      "Ġreg": 862,
      "ail": 863,
      "mathbb": 864,
      "Ġrel": 865,
      "ating": 866,
      "aw": 867,
      "ho": 868,
      "Ġkn": 869,
      "ock": 870,
      "ĠThis": 871,
      "-\\": 872,
      "Ġmodel": 873,
      "resent": 874,
      "ased": 875,
      "ict": 876,
      "Ġ'": 877,
      "Ġresult": 878,
      "Ġpe": 879,
      "cre": 880,
      "roup": 881,
      "Ġra": 882,
      "turn": 883,
      "olog": 884,
      "ega": 885,
      "Ġfl": 886,
      "ox": 887,
      "set": 888,
      "Ġph": 889,
      "round": 890,
      "ick": 891,
      "^{\\": 892,
      "Ġcomm": 893,
      "Ġshow": 894,
      "Ġ{\\": 895,
      "ax": 896,
      "Ġinter": 897,
      "ise": 898,
      "Ġsim": 899,
      "Ġthen": 900,
      "Ġno": 901,
      "ool": 902,
      "Ġpos": 903,
      "phi": 904,
      "**": 905,
      "ined": 906,
      "11": 907,
      "ef": 908,
      "ont": 909,
      "elf": 910,
      "ink": 911,
      "inal": 912,
      "ublic": 913,
      "sh": 914,
      "ull": 915,
      "part": 916,
      "Ġgener": 917,
      "ility": 918,
      "Ġconst": 919,
      "Ġunder": 920,
      "ople": 921,
      "ied": 922,
      "ning": 923,
      "ween": 924,
      "ident": 925,
      "aram": 926,
      "Ġdist": 927,
      "Ġget": 928,
      "ities": 929,
      "lambda": 930,
      "Ġthem": 931,
      "Ġcor": 932,
      "Ġplay": 933,
      "lem": 934,
      "pos": 935,
      "ient": 936,
      "15": 937,
      "Ġbl": 938,
      "Ġdiffere": 939,
      "Ġinclud": 940,
      "bf": 941,
      "Ġfe": 942,
      "ments": 943,
      "cess": 944,
      "pr": 945,
      "ince": 946,
      "oy": 947,
      "ures": 948,
      "Ġshe": 949,
      "Ġtrans": 950,
      "pi": 951,
      "ator": 952,
      "----": 953,
      "til": 954,
      "Ġact": 955,
      "Ġequ": 956,
      "Ġind": 957,
      "Ġthese": 958,
      "ward": 959,
      "Ġco": 960,
      "Ġbetween": 961,
      "put": 962,
      "its": 963,
      "ues": 964,
      "Ġinv": 965,
      "199": 966,
      "ible": 967,
      "Ġprov": 968,
      "We": 969,
      "ection": 970,
      "Ġmay": 971,
      "Ġsystem": 972,
      "Ġgo": 973,
      "Ġdata": 974,
      "16": 975,
      "ilon": 976,
      "ited": 977,
      "io": 978,
      "section": 979,
      "Ġpol": 980,
      "ower": 981,
      "rough": 982,
      "psilon": 983,
      "==": 984,
      "ruct": 985,
      "als": 986,
      "Ġafter": 987,
      "Ġuse": 988,
      "ĠCom": 989,
      "mathbf": 990,
      "...": 991,
      "der": 992,
      "Th": 993,
      "Ġeff": 994,
      "tt": 995,
      "ins": 996,
      "Ġstud": 997,
      "nce": 998,
      "Ġatt": 999,
      "Ġeach": 1000,
      "land": 1001,
      "bar": 1002,
      "Ġ(\\": 1003,
      "sigma": 1004,
      "cy": 1005,
      "Ġlike": 1006,
      "Ġloc": 1007,
      "Ġgiv": 1008,
      "Ġcol": 1009,
      "Ġsaid": 1010,
      "let": 1011,
      "ature": 1012,
      "Ġsm": 1013,
      "arg": 1014,
      "13": 1015,
      "arch": 1016,
      "Ġprob": 1017,
      "here": 1018,
      "()": 1019,
      "Ġmost": 1020,
      "Ġresp": 1021,
      "Ġpoint": 1022,
      "Ġused": 1023,
      "^{-": 1024,
      "riv": 1025,
      "Ġam": 1026,
      "}{\\": 1027,
      "ann": 1028,
      "align": 1029,
      "Ġprodu": 1030,
      "ource": 1031,
      "Ġrec": 1032,
      "reat": 1033,
      "ĠPro": 1034,
      "che": 1035,
      "itt": 1036,
      "ral": 1037,
      "uring": 1038,
      "ĠNew": 1039,
      "orld": 1040,
      "ered": 1041,
      "wid": 1042,
      "Ġyour": 1043,
      "Ġmat": 1044,
      "beta": 1045,
      "Ġi": 1046,
      "ade": 1047,
      "air": 1048,
      "ough": 1049,
      "Ġhow": 1050,
      "ange": 1051,
      "ily": 1052,
      "rt": 1053,
      "14": 1054,
      "Ġpeople": 1055,
      "Ġass": 1056,
      "uss": 1057,
      "ert": 1058,
      "Ġreturn": 1059,
      "Ġwell": 1060,
      "Ġline": 1061,
      "17": 1062,
      "ĠRe": 1063,
      "cond": 1064,
      "ism": 1065,
      "uch": 1066,
      "Ġsupp": 1067,
      "Ġext": 1068,
      "Ġback": 1069,
      "Ġthrough": 1070,
      "Re": 1071,
      "Ġwhat": 1072,
      "ists": 1073,
      "ner": 1074,
      "Ġjust": 1075,
      "âĢĵ": 1076,
      "Ġsol": 1077,
      "+\\": 1078,
      "ĠFor": 1079,
      "ote": 1080,
      "array": 1081,
      "ivers": 1082,
      "amp": 1083,
      "Ġcase": 1084,
      "gamma": 1085,
      "ines": 1086,
      "oot": 1087,
      "ĠAl": 1088,
      "Ġ.": 1089,
      "yn": 1090,
      "ized": 1091,
      "Ġmy": 1092,
      "Ġdifferent": 1093,
      "ract": 1094,
      "ash": 1095,
      "Ġent": 1096,
      "Ġcur": 1097,
      "mathrm": 1098,
      "ever": 1099,
      "Ġsign": 1100,
      "*}": 1101,
      "Ġsee": 1102,
      "Ġend": 1103,
      "ĠĠĠĠĠĠĠĠĠĠĠĠĠĠĠ": 1104,
      "pend": 1105,
      "Ġspec": 1106,
      "Ġnumber": 1107,
      "Ġinst": 1108,
      "eng": 1109,
      "oun": 1110,
      "rho": 1111,
      "\\\\": 1112,
      "ars": 1113,
      "Ġappro": 1114,
      "Ġx": 1115,
      "min": 1116,
      "ethod": 1117,
      "irect": 1118,
      "meric": 1119,
      "Ġbu": 1120,
      "Ġsur": 1121,
      "25": 1122,
      "^\\": 1123,
      "Ġpr": 1124,
      "Ġfil": 1125,
      "abl": 1126,
      "ĠSe": 1127,
      "delta": 1128,
      ")}": 1129,
      "Ġsame": 1130,
      "ton": 1131,
      "30": 1132,
      "pert": 1133,
      "ute": 1134,
      "ĠQ": 1135,
      "ices": 1136,
      "Ġhim": 1137,
      "wn": 1138,
      "ically": 1139,
      "tau": 1140,
      "theta": 1141,
      "Ġ/": 1142,
      "hen": 1143,
      "Ġest": 1144,
      "Ex": 1145,
      "Ġvari": 1146,
      "ization": 1147,
      "item": 1148,
      "ider": 1149,
      "ĠDe": 1150,
      "]{": 1151,
      "Ġcould": 1152,
      "erg": 1153,
      "Ġrep": 1154,
      "ren": 1155,
      "Ġneed": 1156,
      "Ġhigh": 1157,
      "man": 1158,
      "ĠZ": 1159,
      "val": 1160,
      "Ġusing": 1161,
      "Ġagain": 1162,
      "Ġpartic": 1163,
      "oci": 1164,
      "leq": 1165,
      "cdot": 1166,
      "ample": 1167,
      "Ġac": 1168,
      "$-": 1169,
      "att": 1170,
      "ful": 1171,
      "ason": 1172,
      "Ġboth": 1173,
      "for": 1174,
      "ames": 1175,
      "->": 1176,
      "\",": 1177,
      "any": 1178,
      "Ġoper": 1179,
      "velop": 1180,
      "Ġcall": 1181,
      "Ġrequ": 1182,
      "Ġnow": 1183,
      "formation": 1184,
      "Ġnon": 1185,
      "}$,": 1186,
      "figure": 1187,
      "Ġmin": 1188,
      "big": 1189,
      "}$.": 1190,
      "sy": 1191,
      "Ġchar": 1192,
      "Ġevery": 1193,
      "ron": 1194,
      "other": 1195,
      "Ġgroup": 1196,
      "nu": 1197,
      "Ġyears": 1198,
      "partial": 1199,
      "ife": 1200,
      "ern": 1201,
      "vert": 1202,
      "ision": 1203,
      "ĠAn": 1204,
      "fl": 1205,
      "Ġfact": 1206,
      "ected": 1207,
      "oh": 1208,
      "aramet": 1209,
      "ĉĉĉĉ": 1210,
      "Ġdisc": 1211,
      "Ġdet": 1212,
      "Ġ:": 1213,
      "Ġem": 1214,
      "err": 1215,
      "ĠAs": 1216,
      "Ġterm": 1217,
      "ĠSh": 1218,
      "ĠX": 1219,
      "col": 1220,
      "uth": 1221,
      "}(\\": 1222,
      "Ġfield": 1223,
      "chool": 1224,
      "ages": 1225,
      "view": 1226,
      "Ġtr": 1227,
      "arrow": 1228,
      "Ġed": 1229,
      "def": 1230,
      "Ġstate": 1231,
      "atic": 1232,
      "orn": 1233,
      "ĠLe": 1234,
      "mm": 1235,
      "ah": 1236,
      "Ġdec": 1237,
      "ER": 1238,
      "Ġthree": 1239,
      "Ġke": 1240,
      "Ġpublic": 1241,
      "Ġ||": 1242,
      "eqref": 1243,
      "eqn": 1244,
      "times": 1245,
      "Ġbeing": 1246,
      "Ġgiven": 1247,
      "pm": 1248,
      "par": 1249,
      "gan": 1250,
      "'t": 1251,
      "Ġserv": 1252,
      "yp": 1253,
      "ases": 1254,
      "Ġcent": 1255,
      "var": 1256,
      "fty": 1257,
      "Ġmany": 1258,
      "Ġwhile": 1259,
      ".,": 1260,
      "rent": 1261,
      "Ġeven": 1262,
      "ement": 1263,
      "22": 1264,
      "Ġ//": 1265,
      "vent": 1266,
      "Ġser": 1267,
      "Ġstr": 1268,
      "Ġlead": 1269,
      "ots": 1270,
      "omega": 1271,
      "way": 1272,
      "Ġmem": 1273,
      "Ġright": 1274,
      "ively": 1275,
      "infty": 1276,
      "Ġfin": 1277,
      "Ġfound": 1278,
      "ĠAmeric": 1279,
      "Ġperform": 1280,
      "pen": 1281,
      "Ġvery": 1282,
      "tilde": 1283,
      "ished": 1284,
      "50": 1285,
      "day": 1286,
      "Ġsecond": 1287,
      "Ġcre": 1288,
      "ality": 1289,
      "aking": 1290,
      "cause": 1291,
      "quad": 1292,
      "Ġlong": 1293,
      "Ġbel": 1294,
      "198": 1295,
      "ross": 1296,
      "ier": 1297,
      "Ġadd": 1298,
      "Ġshould": 1299,
      "Ġbecause": 1300,
      "Ġvalue": 1301,
      "Ġart": 1302,
      "Ġfollowing": 1303,
      "work": 1304,
      "ik": 1305,
      "Ġknow": 1306,
      "lection": 1307,
      "21": 1308,
      "Ġeffect": 1309,
      "ining": 1310,
      "Ġ</": 1311,
      "irc": 1312,
      "fore": 1313,
      "uc": 1314,
      "ential": 1315,
      "ional": 1316,
      "erson": 1317,
      "width": 1318,
      "Ġz": 1319,
      "Ġstart": 1320,
      "ology": 1321,
      "Ġdoes": 1322,
      "://": 1323,
      "ants": 1324,
      "000": 1325,
      "ets": 1326,
      "Ġorder": 1327,
      "serv": 1328,
      "Ġname": 1329,
      "Ġca": 1330,
      "ĠCl": 1331,
      "ather": 1332,
      "../": 1333,
      "ering": 1334,
      "read": 1335,
      "ting": 1336,
      "az": 1337,
      "Ġsing": 1338,
      "::": 1339,
      "Ġmon": 1340,
      "Ġsmall": 1341,
      "Con": 1342,
      "rang": 1343,
      "Ġway": 1344,
      "Ġ@": 1345,
      "son": 1346,
      "ten": 1347,
      "|\\": 1348,
      "Ġmethod": 1349,
      "It": 1350,
      "resp": 1351,
      "orth": 1352,
      "ww": 1353,
      "Pro": 1354,
      "Ġfind": 1355,
      "24": 1356,
      "essage": 1357,
      "Ġdesc": 1358,
      "oid": 1359,
      "Delta": 1360,
      "sec": 1361,
      "ale": 1362,
      "led": 1363,
      "iversity": 1364,
      "Ġanal": 1365,
      "ability": 1366,
      "arly": 1367,
      "Ġmake": 1368,
      "ank": 1369,
      "Ġgu": 1370,
      "chn": 1371,
      "Ġexpl": 1372,
      "Ġdid": 1373,
      "Ġmade": 1374,
      "))": 1375,
      "âĢľ": 1376,
      "Ġbefore": 1377,
      "ven": 1378,
      "ired": 1379,
      "ouse": 1380,
      "ml": 1381,
      "ĠCon": 1382,
      "arge": 1383,
      "Ġfam": 1384,
      "2019": 1385,
      "Ġref": 1386,
      "ĠInd": 1387,
      "cept": 1388,
      "hi": 1389,
      "hes": 1390,
      "ural": 1391,
      "\\,": 1392,
      "ript": 1393,
      "by": 1394,
      "This": 1395,
      "ared": 1396,
      "Ġprocess": 1397,
      "Ġu": 1398,
      "ms": 1399,
      "ulation": 1400,
      "2018": 1401,
      "ency": 1402,
      "xi": 1403,
      "space": 1404,
      "rid": 1405,
      "me": 1406,
      "ience": 1407,
      "Ġresults": 1408,
      "Ġcount": 1409,
      "where": 1410,
      "ved": 1411,
      ".âĢĿ": 1412,
      "Ġdevelop": 1413,
      "Ġexper": 1414,
      "aj": 1415,
      "ek": 1416,
      "Ġmed": 1417,
      "not": 1418,
      "ness": 1419,
      "Ġthose": 1420,
      "iew": 1421,
      "yle": 1422,
      "atch": 1423,
      "IN": 1424,
      "ters": 1425,
      "Ġduring": 1426,
      "Ġread": 1427,
      "oad": 1428,
      "ĠAnd": 1429,
      "Ġobtain": 1430,
      "',": 1431,
      "ĠSc": 1432,
      "Ġpresent": 1433,
      "eqnarray": 1434,
      "Ġlast": 1435,
      "Ġsince": 1436,
      "Ġlook": 1437,
      "Ġsupport": 1438,
      "rad": 1439,
      "ON": 1440,
      "gram": 1441,
      "Ġcontin": 1442,
      "Ġ$(": 1443,
      "rum": 1444,
      "nces": 1445,
      "overn": 1446,
      "23": 1447,
      "Ġdirect": 1448,
      "Ġhand": 1449,
      "au": 1450,
      "ery": 1451,
      "ott": 1452,
      "ST": 1453,
      "els": 1454,
      "Ġsl": 1455,
      "}}\\": 1456,
      "Ġmeas": 1457,
      "Ġmuch": 1458,
      ")$.": 1459,
      "ole": 1460,
      "orem": 1461,
      "Ġel": 1462,
      "Ġparamet": 1463,
      "Ġtype": 1464,
      "$$": 1465,
      "outh": 1466,
      "action": 1467,
      "ee": 1468,
      "rix": 1469,
      "Ġhere": 1470,
      "ually": 1471,
      "ified": 1472,
      "ane": 1473,
      "lation": 1474,
      "lement": 1475,
      "sq": 1476,
      "Ġdown": 1477,
      "Ġproblem": 1478,
      "}[": 1479,
      "epsilon": 1480,
      "Ġhel": 1481,
      "Ġposs": 1482,
      "psi": 1483,
      "Ch": 1484,
      "Ġdi": 1485,
      "ĠEx": 1486,
      "For": 1487,
      "Ġmass": 1488,
      "rol": 1489,
      "Ġrem": 1490,
      "Ġrun": 1491,
      "bers": 1492,
      "lex": 1493,
      "etwork": 1494,
      "rict": 1495,
      "Ġreal": 1496,
      "Ġbound": 1497,
      "197": 1498,
      "ĠAd": 1499,
      "hip": 1500,
      "Ġtest": 1501,
      "agn": 1502,
      "ffic": 1503,
      "Ġincre": 1504,
      "includ": 1505,
      "ission": 1506,
      "arn": 1507,
      "iqu": 1508,
      "ives": 1509,
      "Ġteam": 1510,
      "Ġworld": 1511,
      "Ġcondition": 1512,
      "Ġenerg": 1513,
      "ĠHow": 1514,
      "bl": 1515,
      "ration": 1516,
      "Ġrele": 1517,
      "Ġgood": 1518,
      "ense": 1519,
      "Ġmult": 1520,
      "Ġinformation": 1521,
      "span": 1522,
      "Ġcar": 1523,
      "ateg": 1524,
      "less": 1525,
      "Ġgl": 1526,
      "Ġmet": 1527,
      "be": 1528,
      "Ġmain": 1529,
      "Ġspace": 1530,
      "ury": 1531,
      "Ġown": 1532,
      "ĠSp": 1533,
      "AR": 1534,
      "ior": 1535,
      "}_{\\": 1536,
      "alth": 1537,
      "med": 1538,
      "raw": 1539,
      "name": 1540,
      "40": 1541,
      "ital": 1542,
      ".\"": 1543,
      "AT": 1544,
      "mod": 1545,
      "ĠBl": 1546,
      "mber": 1547,
      "Om": 1548,
      "Ġtop": 1549,
      "ĠIf": 1550,
      "ĠIs": 1551,
      "alk": 1552,
      "ball": 1553,
      "vious": 1554,
      "(\"": 1555,
      "cer": 1556,
      "Ġ`": 1557,
      "ves": 1558,
      "sim": 1559,
      "ody": 1560,
      "Ġopt": 1561,
      "co": 1562,
      "div": 1563,
      "Ġrepresent": 1564,
      "Ġwrit": 1565,
      "2017": 1566,
      "--------": 1567,
      "Ġrespect": 1568,
      "Ġdistrib": 1569,
      "akes": 1570,
      "umn": 1571,
      "ious": 1572,
      "rop": 1573,
      "iness": 1574,
      "ĠCol": 1575,
      "Ġelect": 1576,
      "Ġpres": 1577,
      "Ġstill": 1578,
      "Ġche": 1579,
      "lang": 1580,
      "As": 1581,
      "ĠFig": 1582,
      "Ġlim": 1583,
      "();": 1584,
      "ift": 1585,
      "ify": 1586,
      "Ġpa": 1587,
      "Omega": 1588,
      "ĠAr": 1589,
      "erest": 1590,
      "ina": 1591,
      "Ġav": 1592,
      "Ġbec": 1593,
      "respond": 1594,
      "Ġ#": 1595,
      "sqrt": 1596,
      "usic": 1597,
      "^*": 1598,
      "Ġstand": 1599,
      "oss": 1600,
      "fra": 1601,
      "Ġstruct": 1602,
      "Ġlarge": 1603,
      "></": 1604,
      "Ġbro": 1605,
      "mbol": 1606,
      "Com": 1607,
      "ask": 1608,
      "Ġcommun": 1609,
      ")$,": 1610,
      "Gamma": 1611,
      "Ġaround": 1612,
      "Ġtake": 1613,
      "Ġopen": 1614,
      "ĠĠĊ": 1615,
      "Ġcharact": 1616,
      "Ġimport": 1617,
      "ĠPh": 1618,
      "Ġve": 1619,
      "itive": 1620,
      "Ġfour": 1621,
      "Ġ${\\": 1622,
      "eb": 1623,
      "Ġallow": 1624,
      "ĠĠĠĠĠĠĠĠĠ": 1625,
      "Ġobserv": 1626,
      "Ġprovid": 1627,
      "Ġreport": 1628,
      "ley": 1629,
      "Ġlocal": 1630,
      "ternal": 1631,
      "><": 1632,
      "2016": 1633,
      "100": 1634,
      "omen": 1635,
      "urther": 1636,
      "27": 1637,
      "Ġenergy": 1638,
      "ĠPl": 1639,
      "htt": 1640,
      "Ġincluding": 1641,
      "ĠUniversity": 1642,
      "60": 1643,
      "olution": 1644,
      "Ġlevel": 1645,
      "ĉĉĉ": 1646,
      "Ġpower": 1647,
      "ohn": 1648,
      "Ġlet": 1649,
      "Ġagainst": 1650,
      "Ġpop": 1651,
      "Ġconsider": 1652,
      "Ġhelp": 1653,
      "Ġlist": 1654,
      "28": 1655,
      "Ġ>": 1656,
      "utions": 1657,
      "ember": 1658,
      "ctor": 1659,
      "Ġstat": 1660,
      "arm": 1661,
      "Ġident": 1662,
      "reen": 1663,
      "RE": 1664,
      "Ġgeneral": 1665,
      "Ġvis": 1666,
      "Ġ,": 1667,
      "ength": 1668,
      "ferences": 1669,
      "Ġrest": 1670,
      "tr": 1671,
      "Ġdesign": 1672,
      "Ġmark": 1673,
      "Ġcurrent": 1674,
      "ived": 1675,
      "trans": 1676,
      "bs": 1677,
      "raphics": 1678,
      "ccess": 1679,
      "Ġbased": 1680,
      "Ġassum": 1681,
      "ĠMar": 1682,
      "rightarrow": 1683,
      "vare": 1684,
      "Ġrad": 1685,
      "ĠShe": 1686,
      "Ġdon": 1687,
      "bm": 1688,
      "imens": 1689,
      "Ġwant": 1690,
      "log": 1691,
      "^{(": 1692,
      "Ġscal": 1693,
      "subsection": 1694,
      "}=": 1695,
      "back": 1696,
      "rodu": 1697,
      "ris": 1698,
      "Ġthink": 1699,
      "Ġproject": 1700,
      "une": 1701,
      "26": 1702,
      "omet": 1703,
      "Ġdescrib": 1704,
      "rand": 1705,
      "ety": 1706,
      "Ġ\\,": 1707,
      "ĠMay": 1708,
      "Ġorig": 1709,
      "Ġcal": 1710,
      "pre": 1711,
      "varepsilon": 1712,
      "Ġpass": 1713,
      "textbf": 1714,
      "ird": 1715,
      "Ġgame": 1716,
      "rangle": 1717,
      "ĠâĢĶ": 1718,
      "face": 1719,
      "ĠComm": 1720,
      "ately": 1721,
      "ene": 1722,
      "umer": 1723,
      "non": 1724,
      "ĠAmerican": 1725,
      "Ġbest": 1726,
      "Ġself": 1727,
      "ially": 1728,
      "side": 1729,
      "Ġabove": 1730,
      "ĠOn": 1731,
      "usiness": 1732,
      "2015": 1733,
      "Ġcorrespond": 1734,
      "cm": 1735,
      "Ġcontain": 1736,
      "Ġtem": 1737,
      ")=": 1738,
      "Ġpat": 1739,
      "play": 1740,
      "ober": 1741,
      "}^{\\": 1742,
      "ording": 1743,
      "Ġbuild": 1744,
      "Ġmeasure": 1745,
      "Ġtechn": 1746,
      "ger": 1747,
      "ĠYou": 1748,
      "enn": 1749,
      "Ġsay": 1750,
      "Ġleft": 1751,
      "self": 1752,
      "Ġpropert": 1753,
      "html": 1754,
      "ĠčĊ": 1755,
      "ĠRes": 1756,
      ",âĢĿ": 1757,
      "istory": 1758,
      "ument": 1759,
      "Ġlife": 1760,
      "ĠBut": 1761,
      "sk": 1762,
      "ised": 1763,
      "source": 1764,
      "ilar": 1765,
      "Ġbeh": 1766,
      "../../": 1767,
      "aving": 1768,
      "Ġconf": 1769,
      "ords": 1770,
      "ream": 1771,
      "etail": 1772,
      "inc": 1773,
      "):": 1774,
      "ival": 1775,
      "Ġcle": 1776,
      "ule": 1777,
      "ĠUnited": 1778,
      "Ã©": 1779,
      "rack": 1780,
      "Ġtri": 1781,
      "Ġmov": 1782,
      "gg": 1783,
      "2014": 1784,
      "29": 1785,
      "Ġmust": 1786,
      "Ġinterest": 1787,
      "Ġsup": 1788,
      "ĠWh": 1789,
      "__": 1790,
      "lim": 1791,
      "Ġinf": 1792,
      "Ġinit": 1793,
      "Ġprof": 1794,
      "Ġerr": 1795,
      "Ġestim": 1796,
      "Ġknown": 1797,
      "Ġpost": 1798,
      "ĠEng": 1799,
      "Ġrece": 1800,
      "Ġinteg": 1801,
      "OR": 1802,
      "caption": 1803,
      "Ġperson": 1804,
      "Ġet": 1805,
      "Ġexample": 1806,
      "Ġwithin": 1807,
      "Ġprogram": 1808,
      "Ġprot": 1809,
      "gor": 1810,
      "wh": 1811,
      "âĢ¦": 1812,
      "AS": 1813,
      "tab": 1814,
      "urs": 1815,
      "ators": 1816,
      "Ġchild": 1817,
      "new": 1818,
      "rist": 1819,
      "Ġaddition": 1820,
      "====": 1821,
      "anc": 1822,
      "Ġconn": 1823,
      "uro": 1824,
      "Ġ*/": 1825,
      "por": 1826,
      "Ġobject": 1827,
      "ead": 1828,
      "ĠTe": 1829,
      "Ġhead": 1830,
      "ĠAll": 1831,
      "Ġcour": 1832,
      "Ġsat": 1833,
      "dd": 1834,
      "includeg": 1835,
      "includegraphics": 1836,
      "Ġdem": 1837,
      "ĠâĢĺ": 1838,
      "ium": 1839,
      "To": 1840,
      "chi": 1841,
      "aces": 1842,
      "Ġsum": 1843,
      "rem": 1844,
      "ym": 1845,
      "Ġcorre": 1846,
      "ormal": 1847,
      "comm": 1848,
      "Ġbook": 1849,
      "ope": 1850,
      "Ġnetwork": 1851,
      "ampl": 1852,
      "requ": 1853,
      "ories": 1854,
      "bold": 1855,
      "this": 1856,
      "Ġwithout": 1857,
      "ination": 1858,
      "Ġparticular": 1859,
      "depend": 1860,
      "ubl": 1861,
      "Ġnext": 1862,
      "''": 1863,
      "****": 1864,
      "Ġvalues": 1865,
      "ble": 1866,
      "Ġday": 1867,
      "org": 1868,
      "message": 1869,
      "Ġden": 1870,
      "Ġplace": 1871,
      "position": 1872,
      "arget": 1873,
      "Ġgra": 1874,
      "overnment": 1875,
      "An": 1876,
      "ĠThey": 1877,
      "uthor": 1878,
      "ĠTo": 1879,
      "ai": 1880,
      "ĠĠĠĠĠĠĠĠĠĠĠĠĠĠĠĠĠĠĠ": 1881,
      "33": 1882,
      "ser": 1883,
      "Ġschool": 1884,
      "Ġfinal": 1885,
      "ĠMan": 1886,
      "Ġlaw": 1887,
      "ĠUS": 1888,
      "varphi": 1889,
      "Ġhref": 1890,
      "AN": 1891,
      "Ġrema": 1892,
      "version": 1893,
      "ero": 1894,
      "2013": 1895,
      "Ġsingle": 1896,
      "Ġdue": 1897,
      "Ġcomput": 1898,
      "By": 1899,
      "Ġcalled": 1900,
      "References": 1901,
      "Ġstudy": 1902,
      "Ġalong": 1903,
      ".~\\": 1904,
      "ification": 1905,
      "Ġfamily": 1906,
      "ference": 1907,
      "Ġanother": 1908,
      "osed": 1909,
      "Ġnear": 1910,
      "Ġimp": 1911,
      "Ġbre": 1912,
      "Ġbas": 1913,
      "gorith": 1914,
      "Ġlow": 1915,
      "ensure": 1916,
      "ograph": 1917,
      "ention": 1918,
      "Ġfew": 1919,
      "Ġbo": 1920,
      "add": 1921,
      "emph": 1922,
      "arent": 1923,
      "45": 1924,
      "ysis": 1925,
      "reg": 1926,
      "frak": 1927,
      "Ġdepend": 1928,
      "Ġshown": 1929,
      "Ġpar": 1930,
      "geq": 1931,
      "ways": 1932,
      "ensity": 1933,
      "overline": 1934,
      "Ġdel": 1935,
      "aim": 1936,
      "AL": 1937,
      "ault": 1938,
      "ĠCan": 1939,
      "EN": 1940,
      "Ġinvest": 1941,
      "imal": 1942,
      "ts": 1943,
      "Ġdiscuss": 1944,
      "Ġocc": 1945,
      "ĠJohn": 1946,
      "Ġredu": 1947,
      "iver": 1948,
      "icle": 1949,
      ")^": 1950,
      "Ġaction": 1951,
      "ĠBe": 1952,
      "Ġiss": 1953,
      "Ġspe": 1954,
      "refore": 1955,
      "ĠCent": 1956,
      "Ġquant": 1957,
      "&\\": 1958,
      "str": 1959,
      "ĠHowever": 1960,
      "196": 1961,
      "2012": 1962,
      ".}": 1963,
      "Big": 1964,
      "itle": 1965,
      "Ġpot": 1966,
      "td": 1967,
      "Ġdeterm": 1968,
      "Ġcho": 1969,
      "Ġspect": 1970,
      "alse": 1971,
      "Ġgreat": 1972,
      "Ġtot": 1973,
      "Ġseries": 1974,
      "Ġturn": 1975,
      "ij": 1976,
      "proof": 1977,
      "Ġann": 1978,
      "illion": 1979,
      "ivid": 1980,
      "iod": 1981,
      "cul": 1982,
      "ĠCar": 1983,
      "Ġadv": 1984,
      "Ġlater": 1985,
      "Ġcharacter": 1986,
      "see": 1987,
      "32": 1988,
      "dis": 1989,
      "Ġmean": 1990,
      "Ġcap": 1991,
      "ats": 1992,
      "inition": 1993,
      "ajor": 1994,
      "ivity": 1995,
      "ler": 1996,
      "iron": 1997,
      "},\\": 1998,
      "Ġ--": 1999,
      "ĠOr": 2000,
      "atures": 2001,
      "Ġfilm": 2002,
      "ĠAt": 2003,
      "Ġtrue": 2004,
      "vec": 2005,
      "iment": 2006,
      "upp": 2007,
      "}).": 2008,
      "aps": 2009,
      "Ġevent": 2010,
      "Ġmodels": 2011,
      "ression": 2012,
      "iving": 2013,
      "35": 2014,
      "Ġterms": 2015,
      "cor": 2016,
      "Ġsimilar": 2017,
      "ries": 2018,
      "with": 2019,
      "Ġhig": 2020,
      "ternational": 2021,
      "ailable": 2022,
      "idd": 2023,
      "loc": 2024,
      "ients": 2025,
      "xim": 2026,
      "istic": 2027,
      "Ġview": 2028,
      "âĢĶ": 2029,
      "Ġshows": 2030,
      "('": 2031,
      "Ġdom": 2032,
      "Ġwin": 2033,
      "Ġorgan": 2034,
      "ynam": 2035,
      "Ġproduct": 2036,
      "ths": 2037,
      "Ġcare": 2038,
      "eps": 2039,
      "ploy": 2040,
      "Res": 2041,
      "Al": 2042,
      "2010": 2043,
      "Ġlarg": 2044,
      "inks": 2045,
      "Ġhold": 2046,
      "mathfrak": 2047,
      "Ġ)": 2048,
      "symbol": 2049,
      "af": 2050,
      "stand": 2051,
      "Ġsk": 2052,
      "Ġhum": 2053,
      "Ġfollows": 2054,
      "no": 2055,
      "wards": 2056,
      "Ġsever": 2057,
      "Name": 2058,
      "Let": 2059,
      "ister": 2060,
      "cur": 2061,
      "roll": 2062,
      "[\\": 2063,
      "2011": 2064,
      "80": 2065,
      "Ġsection": 2066,
      "ruction": 2067,
      "ĠFran": 2068,
      "mmet": 2069,
      "class": 2070,
      "Ġla": 2071,
      "Ġpossible": 2072,
      "Ġeas": 2073,
      "ling": 2074,
      "etic": 2075,
      "langle": 2076,
      "Ġsays": 2077,
      "urch": 2078,
      "Cl": 2079,
      "On": 2080,
      "Ġchang": 2081,
      "ES": 2082,
      "Ġgrow": 2083,
      "ĠJu": 2084,
      "Ġsize": 2085,
      "Ġdefined": 2086,
      "ĠJan": 2087,
      "Ġpoints": 2088,
      "ither": 2089,
      "riend": 2090,
      "ush": 2091,
      "Ġposition": 2092,
      "Ġseason": 2093,
      "ground": 2094,
      "Ġstrong": 2095,
      "Ġtoo": 2096,
      "Ġimportant": 2097,
      "hline": 2098,
      "aster": 2099,
      "Ġappear": 2100,
      "ians": 2101,
      "Ġfull": 2102,
      "Ġhome": 2103,
      "orph": 2104,
      "ances": 2105,
      "Ġassoci": 2106,
      "Ġide": 2107,
      "Ġless": 2108,
      "oper": 2109,
      "Ġseveral": 2110,
      "ty": 2111,
      "Ġopp": 2112,
      "cont": 2113,
      "ought": 2114,
      "ison": 2115,
      "ĠStates": 2116,
      "opt": 2117,
      "code": 2118,
      "Ġarea": 2119,
      "bra": 2120,
      "Ġrese": 2121,
      "Ġcontinu": 2122,
      "plic": 2123,
      "Ġphot": 2124,
      "ĠCo": 2125,
      "Ġleg": 2126,
      "mp": 2127,
      "isf": 2128,
      "Ġcontrol": 2129,
      "atter": 2130,
      "ID": 2131,
      "Ġcou": 2132,
      "Ġprevious": 2133,
      "ocial": 2134,
      "Ġaff": 2135,
      "exp": 2136,
      "}}$": 2137,
      "ĠCount": 2138,
      "90": 2139,
      "box": 2140,
      "nabl": 2141,
      "/>": 2142,
      "ably": 2143,
      "Id": 2144,
      "ev": 2145,
      "ches": 2146,
      "Ġpred": 2147,
      "ored": 2148,
      "oor": 2149,
      "Ġcomb": 2150,
      "ĠSy": 2151,
      "iter": 2152,
      "Ġaut": 2153,
      "Ġder": 2154,
      "ended": 2155,
      "esc": 2156,
      "Ġold": 2157,
      "ĠĠĠĠĠĠĠĠĠĠĠĠĠĠĠĠĠĠĠĠĠĠĠĠĠĠĠĠĠĠĠĠ": 2158,
      "ittle": 2159,
      "Ġpriv": 2160,
      "Ġexist": 2161,
      "ĠWorld": 2162,
      "ĠThere": 2163,
      "Ġcrit": 2164,
      "Ġsom": 2165,
      "Type": 2166,
      "Lambda": 2167,
      "Ġgoing": 2168,
      "Ġchange": 2169,
      "Ġfree": 2170,
      "Ġlight": 2171,
      "sm": 2172,
      "ique": 2173,
      "boldsymbol": 2174,
      "AC": 2175,
      "Ġpotential": 2176,
      "ldots": 2177,
      "mbox": 2178,
      "pd": 2179,
      "Ġintrodu": 2180,
      "duct": 2181,
      "ĠNational": 2182,
      "Ġ_": 2183,
      "Ġmusic": 2184,
      "import": 2185,
      "Ġbetter": 2186,
      "ception": 2187,
      "ey": 2188,
      "itud": 2189,
      "Ġquest": 2190,
      "Ġplan": 2191,
      "table": 2192,
      "key": 2193,
      "Ġmom": 2194,
      "ĠGe": 2195,
      "obal": 2196,
      "Ġfr": 2197,
      "urb": 2198,
      "If": 2199,
      "appa": 2200,
      "ĠYork": 2201,
      "ixed": 2202,
      "Ġdistribution": 2203,
      "Ġoffic": 2204,
      "Ġtyp": 2205,
      "Ġreally": 2206,
      "Ġtimes": 2207,
      "mat": 2208,
      "iam": 2209,
      "Phi": 2210,
      "ources": 2211,
      "time": 2212,
      "ences": 2213,
      "Ġarg": 2214,
      "Ġleast": 2215,
      "ux": 2216,
      "Ġstructure": 2217,
      "ney": 2218,
      "Ġpolit": 2219,
      "leg": 2220,
      "ĠPol": 2221,
      "String": 2222,
      "Ġtotal": 2223,
      "Ġshort": 2224,
      "ware": 2225,
      "Ġdetail": 2226,
      "Ġbusiness": 2227,
      "Ġhapp": 2228,
      "sf": 2229,
      "};": 2230,
      "Ġimpro": 2231,
      "Ġsuccess": 2232,
      "Ġuntil": 2233,
      "used": 2234,
      "ĠAust": 2235,
      "ĠNo": 2236,
      "LE": 2237,
      "Ġeng": 2238,
      "Ġmax": 2239,
      "Ġcontrib": 2240,
      "ĠAug": 2241,
      "script": 2242,
      "onse": 2243,
      "Ġavailable": 2244,
      "ĠĠĠĠĠĠ": 2245,
      "alf": 2246,
      "IC": 2247,
      "Ġrecent": 2248,
      "odes": 2249,
      "rag": 2250,
      "otimes": 2251,
      "center": 2252,
      "Ġfoot": 2253,
      "Ġcell": 2254,
      "rel": 2255,
      "IT": 2256,
      "nabla": 2257,
      "Ġmanag": 2258,
      "order": 2259,
      "Ġapplic": 2260,
      "\"/>": 2261,
      "ĠThen": 2262,
      "Ġsignific": 2263,
      "ems": 2264,
      "05": 2265,
      "onent": 2266,
      "ards": 2267,
      "ĠApr": 2268,
      "osp": 2269,
      "uck": 2270,
      "ideo": 2271,
      "Ġ=>": 2272,
      "ĠOct": 2273,
      "head": 2274,
      "2009": 2275,
      "ĠÂ": 2276,
      "Ġdiff": 2277,
      "ung": 2278,
      "dependent": 2279,
      "clus": 2280,
      "He": 2281,
      "Ġdev": 2282,
      "kappa": 2283,
      "nonumber": 2284,
      "Ġdeg": 2285,
      "Ġside": 2286,
      "ĠFl": 2287,
      "wit": 2288,
      "Ġmagn": 2289,
      "Ġsit": 2290,
      "Ġweek": 2291,
      "const": 2292,
      "ĠApp": 2293,
      "Ġfurther": 2294,
      "Un": 2295,
      "translation": 2296,
      "ising": 2297,
      "mult": 2298,
      "bit": 2299,
      "rap": 2300,
      "ights": 2301,
      "viron": 2302,
      "ertain": 2303,
      "ament": 2304,
      "gin": 2305,
      "Ġplayers": 2306,
      "01": 2307,
      ".\\": 2308,
      "ĠBy": 2309,
      "Ġbig": 2310,
      "ables": 2311,
      "Ġstates": 2312,
      "ĠGu": 2313,
      "ides": 2314,
      "itor": 2315,
      "bum": 2316,
      "Ġput": 2317,
      "Ġhard": 2318,
      "31": 2319,
      "gorithm": 2320,
      "36": 2321,
      "empt": 2322,
      "Ġcompany": 2323,
      "oman": 2324,
      "ĠJuly": 2325,
      "ological": 2326,
      "lin": 2327,
      "ĠArt": 2328,
      "off": 2329,
      "Ġestabl": 2330,
      "type": 2331,
      "Ġmight": 2332,
      "Ġvar": 2333,
      "citep": 2334,
      "Ġband": 2335,
      "uk": 2336,
      "2008": 2337,
      "ĠSchool": 2338,
      "Ġperiod": 2339,
      "Ġmajor": 2340,
      "utes": 2341,
      "uff": 2342,
      "})$": 2343,
      "Ġnever": 2344,
      "cle": 2345,
      "Ġvol": 2346,
      "Ġperformance": 2347,
      "Ġphys": 2348,
      "ĠWar": 2349,
      "imum": 2350,
      "ĠPr": 2351,
      "}),": 2352,
      "Ġkey": 2353,
      "wide": 2354,
      "ĠMarch": 2355,
      "ĠMed": 2356,
      "Ġsatisf": 2357,
      "Ġpaper": 2358,
      "48": 2359,
      "Ġinclude": 2360,
      "uture": 2361,
      "ĠJune": 2362,
      "Ġalways": 2363,
      "75": 2364,
      "field": 2365,
      "icy": 2366,
      "Ġaver": 2367,
      "Ġland": 2368,
      "eter": 2369,
      "Ġcost": 2370,
      "Ġsolution": 2371,
      "ready": 2372,
      "Ġrange": 2373,
      "Ġins": 2374,
      "uary": 2375,
      "sequ": 2376,
      "Ġindic": 2377,
      "urope": 2378,
      "Ġanalysis": 2379,
      "Ġmot": 2380,
      "ache": 2381,
      "Ġcomplet": 2382,
      "195": 2383,
      "rite": 2384,
      "Ġinvol": 2385,
      "Ġsequ": 2386,
      "urg": 2387,
      "www": 2388,
      "##": 2389,
      "II": 2390,
      "color": 2391,
      "return": 2392,
      "Ġstre": 2393,
      "Ġrate": 2394,
      "conom": 2395,
      "Ġcomplex": 2396,
      "Ġbelie": 2397,
      "IS": 2398,
      "aut": 2399,
      "lected": 2400,
      "Ġparameters": 2401,
      "ony": 2402,
      "AM": 2403,
      "Ġgovernment": 2404,
      "Ġearly": 2405,
      "pped": 2406,
      "circ": 2407,
      "Ġobtained": 2408,
      "ĠMin": 2409,
      "textit": 2410,
      "Ġelse": 2411,
      "Ġrecord": 2412,
      "ĠLet": 2413,
      "34": 2414,
      "Ġmove": 2415,
      "Ġant": 2416,
      "pper": 2417,
      "Ġregion": 2418,
      "ĠState": 2419,
      "posed": 2420,
      "br": 2421,
      "\\|": 2422,
      "comp": 2423,
      "stit": 2424,
      "....": 2425,
      "Ġlimit": 2426,
      "Ġstory": 2427,
      "Ġtarget": 2428,
      "ĠSouth": 2429,
      "ino": 2430,
      "subset": 2431,
      "Ġtheory": 2432,
      "Val": 2433,
      "style": 2434,
      "arning": 2435,
      "List": 2436,
      "iff": 2437,
      "ii": 2438,
      "ster": 2439,
      "\\%": 2440,
      "Ġprom": 2441,
      "Ar": 2442,
      "ales": 2443,
      "ched": 2444,
      "ilde": 2445,
      "Ġapproach": 2446,
      "idth": 2447,
      "Sh": 2448,
      "Ġprovide": 2449,
      "lete": 2450,
      "Ġpath": 2451,
      "ague": 2452,
      "param": 2453,
      "Ġbi": 2454,
      "ĠCity": 2455,
      "ilt": 2456,
      "Ġgive": 2457,
      "}}{": 2458,
      "bo": 2459,
      "top": 2460,
      "though": 2461,
      "70": 2462,
      "thing": 2463,
      "aterial": 2464,
      "iction": 2465,
      "Ġsignificant": 2466,
      "Ġapproxim": 2467,
      "iple": 2468,
      "ĠSo": 2469,
      "\".": 2470,
      "ensuremath": 2471,
      "Ġdensity": 2472,
      "ape": 2473,
      "Ġseen": 2474,
      "Ġdr": 2475,
      "99": 2476,
      "angu": 2477,
      "asing": 2478,
      "ĠCal": 2479,
      "Ġsystems": 2480,
      "Ġtry": 2481,
      "Sigma": 2482,
      "Ġ!": 2483,
      "ription": 2484,
      "uation": 2485,
      "ĠAss": 2486,
      "Ġfac": 2487,
      "ptember": 2488,
      "ours": 2489,
      "cit": 2490,
      "opy": 2491,
      "Ġfar": 2492,
      "idence": 2493,
      "Ġcity": 2494,
      "Ġlik": 2495,
      "ĠAir": 2496,
      "ething": 2497,
      "Ġfunctions": 2498,
      "ĠBrit": 2499,
      "ustom": 2500,
      "Ġmeans": 2501,
      "Ġq": 2502,
      "now": 2503,
      "ED": 2504,
      "yl": 2505,
      "ĠChrist": 2506,
      "38": 2507,
      "Ġele": 2508,
      "sl": 2509,
      "ently": 2510,
      "ones": 2511,
      "go": 2512,
      "ges": 2513,
      "Ġsong": 2514,
      "Ġmembers": 2515,
      "Ġ``": 2516,
      "Ġwater": 2517,
      "Ġcoll": 2518,
      "amples": 2519,
      "ilit": 2520,
      "Ġlog": 2521,
      "Ġmatrix": 2522,
      "Ps": 2523,
      "ĠMc": 2524,
      "rr": 2525,
      "Ġcome": 2526,
      "Ġhy": 2527,
      "enc": 2528,
      "inter": 2529,
      "most": 2530,
      "Ġred": 2531,
      "ĠApril": 2532,
      "Ġlinks": 2533,
      "Ġconstant": 2534,
      "Ġaccess": 2535,
      "Ġspecial": 2536,
      "Ġgraph": 2537,
      "aken": 2538,
      "Ġwomen": 2539,
      "Ġfund": 2540,
      "Fig": 2541,
      "Ġfoc": 2542,
      "ĠWith": 2543,
      "Ġcover": 2544,
      "ows": 2545,
      "Ġequation": 2546,
      "Ġfore": 2547,
      "ĠThese": 2548,
      "Ġalready": 2549,
      "2007": 2550,
      "Ġservice": 2551,
      "widet": 2552,
      "ĠWill": 2553,
      "Ġdeath": 2554,
      "ourn": 2555,
      "\\[": 2556,
      "draw": 2557,
      "Ġclaim": 2558,
      "ĠFeb": 2559,
      "Ġinitial": 2560,
      "andom": 2561,
      "amed": 2562,
      "rary": 2563,
      "vironment": 2564,
      "Âł": 2565,
      "ividual": 2566,
      "ocument": 2567,
      "ĠCounty": 2568,
      "ĠEn": 2569,
      "Ġep": 2570,
      "Ġhtt": 2571,
      "Ġstring": 2572,
      "dots": 2573,
      "Ġpract": 2574,
      "Ġhigher": 2575,
      "Ġacross": 2576,
      "Ġgot": 2577,
      ")(": 2578,
      "ĠEurope": 2579,
      "uild": 2580,
      "Ġabs": 2581,
      "ĠAugust": 2582,
      "Ġlittle": 2583,
      "ĠMe": 2584,
      "chie": 2585,
      "44": 2586,
      "ĠPart": 2587,
      "Ġdescribed": 2588,
      ",\"": 2589,
      "Ġsource": 2590,
      "iles": 2591,
      "ze": 2592,
      "37": 2593,
      "Ġhaving": 2594,
      "widetilde": 2595,
      "EC": 2596,
      "ĠAb": 2597,
      "ada": 2598,
      "Ġrelations": 2599,
      "lege": 2600,
      "/\\": 2601,
      "max": 2602,
      "ules": 2603,
      "Ġinc": 2604,
      "Ġtoget": 2605,
      "Ġtogether": 2606,
      "39": 2607,
      "Ġmap": 2608,
      "US": 2609,
      "http": 2610,
      "Ġcr": 2611,
      "Ġaccount": 2612,
      "Ġnull": 2613,
      "rew": 2614,
      "Ġconditions": 2615,
      "ried": 2616,
      "Ġoften": 2617,
      "Ġconsid": 2618,
      "ĠRep": 2619,
      "Ġeither": 2620,
      "Ġamong": 2621,
      "Ġsuper": 2622,
      "inary": 2623,
      "07": 2624,
      "AP": 2625,
      "Ġcalcul": 2626,
      "ransp": 2627,
      "Ġenc": 2628,
      "\\!": 2629,
      "load": 2630,
      "hold": 2631,
      "ham": 2632,
      "hern": 2633,
      "Ġvert": 2634,
      "ĠNorth": 2635,
      "sw": 2636,
      "acy": 2637,
      "Ġlower": 2638,
      "pect": 2639,
      "raft": 2640,
      "Ġalbum": 2641,
      "Ġpair": 2642,
      "ovember": 2643,
      "ĠSeptember": 2644,
      "Ġbecome": 2645,
      "ĠCor": 2646,
      "Ġoriginal": 2647,
      "Ġwon": 2648,
      "Ġformer": 2649,
      "irection": 2650,
      "onal": 2651,
      "ĠOne": 2652,
      "Ġcorresponding": 2653,
      "64": 2654,
      "Ġbelow": 2655,
      "Ġtre": 2656,
      "ius": 2657,
      "ĠPar": 2658,
      "ĠThat": 2659,
      "Ġpubl": 2660,
      "Ġneg": 2661,
      "Ġauthor": 2662,
      "ibility": 2663,
      "istor": 2664,
      "Ġimage": 2665,
      "Ġversion": 2666,
      "08": 2667,
      "')": 2668,
      "ana": 2669,
      "Ġcirc": 2670,
      "Ġchildren": 2671,
      "ĠOctober": 2672,
      "Ġmoment": 2673,
      "Ġrespectively": 2674,
      "Ġable": 2675,
      "Ġmar": 2676,
      "ĠHar": 2677,
      "Ġcountry": 2678,
      "ĠReg": 2679,
      "ĠJanuary": 2680,
      "Ġfalse": 2681,
      "eting": 2682,
      "Ġstandard": 2683,
      "Ġsomething": 2684,
      "Ġerror": 2685,
      "Ġenough": 2686,
      "Col": 2687,
      "Ġlay": 2688,
      "ests": 2689,
      "Ġtext": 2690,
      "Ġfive": 2691,
      "04": 2692,
      "prime": 2693,
      "rain": 2694,
      "Ġfeatures": 2695,
      "06": 2696,
      "Ġcross": 2697,
      "Ġdat": 2698,
      "ili": 2699,
      "Ġsugg": 2700,
      "cember": 2701,
      "ĠGerm": 2702,
      "Ġdays": 2703,
      "{-": 2704,
      "Ġprivate": 2705,
      "atural": 2706,
      "Ġ($": 2707,
      "Ġtemper": 2708,
      "Ġes": 2709,
      "ĠAf": 2710,
      "but": 2711,
      "Ġair": 2712,
      "ĠSch": 2713,
      "lying": 2714,
      "Ġphase": 2715,
      "verse": 2716,
      "Ġhealth": 2717,
      "oney": 2718,
      "2020": 2719,
      "Ġemb": 2720,
      "Ġhistory": 2721,
      "2006": 2722,
      "hy": 2723,
      "Ġreview": 2724,
      "ĠEd": 2725,
      "Ġaway": 2726,
      "gy": 2727,
      "Ġthird": 2728,
      "ogle": 2729,
      "Ġask": 2730,
      "Ġstar": 2731,
      "],": 2732,
      "Ġresearch": 2733,
      "Ġfriend": 2734,
      "Ġcases": 2735,
      "na": 2736,
      "Ġport": 2737,
      "Ġmaking": 2738,
      "ret": 2739,
      "aul": 2740,
      "ĠAustral": 2741,
      "Ġdimens": 2742,
      "based": 2743,
      "Ġparameter": 2744,
      "ured": 2745,
      "Ġthings": 2746,
      "ike": 2747,
      "Ġtraining": 2748,
      "Ġhuman": 2749,
      "icro": 2750,
      "Ġattack": 2751,
      "CO": 2752,
      "Ġbecame": 2753,
      "Ġret": 2754,
      "Ġblack": 2755,
      "Ġfeature": 2756,
      "ending": 2757,
      "}-": 2758,
      "uration": 2759,
      "scal": 2760,
      "Ġcommon": 2761,
      "zeta": 2762,
      "Ġsepar": 2763,
      "fo": 2764,
      "ounc": 2765,
      "centering": 2766,
      "ĠWhen": 2767,
      "inally": 2768,
      "Ġcamp": 2769,
      "}+": 2770,
      "Ġfail": 2771,
      "ector": 2772,
      "Ġhom": 2773,
      "ump": 2774,
      "aint": 2775,
      "ĠBar": 2776,
      "Ġpay": 2777,
      "Ġindividual": 2778,
      "Ġgr": 2779,
      "abor": 2780,
      "Ġkeep": 2781,
      "Ġrepl": 2782,
      "Ġpri": 2783,
      "ving": 2784,
      "Ġthough": 2785,
      "SS": 2786,
      "iol": 2787,
      "Ġmen": 2788,
      "Ġtook": 2789,
      "Ġge": 2790,
      "ET": 2791,
      "Ġinput": 2792,
      "Int": 2793,
      "ait": 2794,
      "ĠPres": 2795,
      "Ġyoung": 2796,
      "Ġinfl": 2797,
      "ressed": 2798,
      "Ġfuture": 2799,
      "ĠEq": 2800,
      "Ġcommunity": 2801,
      "chan": 2802,
      "Ġaverage": 2803,
      "ava": 2804,
      "Ġfrequ": 2805,
      "rest": 2806,
      "Ġassociated": 2807,
      "ruary": 2808,
      "lish": 2809,
      "Ġrole": 2810,
      "ĠMore": 2811,
      "ume": 2812,
      "Ġconsidered": 2813,
      "data": 2814,
      "ught": 2815,
      "ĠĠĠĠĠĠĠĠĠĠĠĠĠ": 2816,
      "alt": 2817,
      "Ġloss": 2818,
      "ĠAg": 2819,
      "Ġmillion": 2820,
      "Ġvia": 2821,
      "ae": 2822,
      "Ġlength": 2823,
      "Ġang": 2824,
      "itude": 2825,
      "ĠNovember": 2826,
      "Ġrequire": 2827,
      "Ġvarious": 2828,
      "\\{": 2829,
      "Ġ==": 2830,
      "aring": 2831,
      "\\]": 2832,
      "Ġjo": 2833,
      "How": 2834,
      "Ġproof": 2835,
      "].": 2836,
      "Ġcertain": 2837,
      "cap": 2838,
      "Ġexpect": 2839,
      "Ind": 2840,
      "Ġconsist": 2841,
      "Ġreason": 2842,
      "aced": 2843,
      "Ġinvestig": 2844,
      "function": 2845,
      "plement": 2846,
      "roid": 2847,
      "Ġunderstand": 2848,
      "09": 2849,
      "lev": 2850,
      "Se": 2851,
      "Ġrandom": 2852,
      "55": 2853,
      "Ġcy": 2854,
      "Ġdynam": 2855,
      "Ġdou": 2856,
      "raction": 2857,
      "Ġpast": 2858,
      "49": 2859,
      "ilities": 2860,
      "fer": 2861,
      "Ġmethods": 2862,
      "And": 2863,
      "uted": 2864,
      "Ġbehav": 2865,
      "~~": 2866,
      ")=\\": 2867,
      "book": 2868,
      "aff": 2869,
      "ĠAfter": 2870,
      "RO": 2871,
      "Ġlot": 2872,
      "tabular": 2873,
      "Ġtitle": 2874,
      "Ġ&=": 2875,
      "Ġcontent": 2876,
      "which": 2877,
      "02": 2878,
      "ĠBo": 2879,
      "cos": 2880,
      "Ġvoid": 2881,
      "thm": 2882,
      "value": 2883,
      "hib": 2884,
      "Ġhowever": 2885,
      "ĠDecember": 2886,
      "fficient": 2887,
      "oud": 2888,
      "Ġdevelopment": 2889,
      "illed": 2890,
      "Ġemploy": 2891,
      "Ġevents": 2892,
      "Ġconc": 2893,
      "Ġclose": 2894,
      "Ġfeel": 2895,
      "tact": 2896,
      "Ġid": 2897,
      "Ġnormal": 2898,
      "Ġsocial": 2899,
      "Ġwar": 2900,
      "otes": 2901,
      "orts": 2902,
      "Ġpositive": 2903,
      "omorph": 2904,
      "itted": 2905,
      "elling": 2906,
      ";\\": 2907,
      "Ġsix": 2908,
      "\")": 2909,
      "Ġexpected": 2910,
      "cast": 2911,
      "rown": 2912,
      "plit": 2913,
      "ĠQu": 2914,
      "my": 2915,
      "ortun": 2916,
      "ogn": 2917,
      "Ġwind": 2918,
      "Ġsem": 2919,
      "Ġachie": 2920,
      "Ġcompet": 2921,
      "Ġdone": 2922,
      "string": 2923,
      "alax": 2924,
      "irt": 2925,
      "ops": 2926,
      "pping": 2927,
      "size": 2928,
      "earch": 2929,
      "Ġtaken": 2930,
      "Ġfootball": 2931,
      "ĠChe": 2932,
      "ĠWest": 2933,
      "Ġlinear": 2934,
      "Ġben": 2935,
      "\"><": 2936,
      "Ġgen": 2937,
      ")}\\": 2938,
      "Ġcult": 2939,
      "cher": 2940,
      "ography": 2941,
      "ĠGl": 2942,
      "annel": 2943,
      "irl": 2944,
      "2000": 2945,
      "Ġhouse": 2946,
      "Ġindependent": 2947,
      "Ġgames": 2948,
      "}=\\": 2949,
      "Ġlines": 2950,
      "eneral": 2951,
      "ondon": 2952,
      "Ġear": 2953,
      "Ġproperties": 2954,
      "Ġwhy": 2955,
      "Ph": 2956,
      "emma": 2957,
      "New": 2958,
      "With": 2959,
      "point": 2960,
      "Ġhalf": 2961,
      "bor": 2962,
      "DE": 2963,
      "ĠTheorem": 2964,
      "Ġlove": 2965,
      "Ġthus": 2966,
      "Ġsimple": 2967,
      "03": 2968,
      "iance": 2969,
      "Ġill": 2970,
      "----------------": 2971,
      "Ġcheck": 2972,
      "Ġworking": 2973,
      "ips": 2974,
      "Ġsite": 2975,
      "External": 2976,
      "2005": 2977,
      "dom": 2978,
      "ĠSection": 2979,
      "onents": 2980,
      "ĠRec": 2981,
      "Ġlangu": 2982,
      "ĠKing": 2983,
      "eder": 2984,
      "ĠRuss": 2985,
      "Ġsymmet": 2986,
      "ille": 2987,
      "ĠDav": 2988,
      "aly": 2989,
      "cell": 2990,
      "Ġnode": 2991,
      "Ġvector": 2992,
      "foot": 2993,
      "Ġmaterial": 2994,
      "Ġsurface": 2995,
      "Ġaccording": 2996,
      "Ġground": 2997,
      "Ġproduction": 2998,
      "Ġwhether": 2999,
      "ners": 3000,
      "Ġage": 3001,
      "Ġbir": 3002,
      "Ġcourse": 3003,
      "ulations": 3004,
      "47": 3005,
      "Ġthought": 3006,
      "Ġprim": 3007,
      "Ġcame": 3008,
      "Ġpress": 3009,
      ")^{": 3010,
      "group": 3011,
      "Ġkind": 3012,
      "Ġproperty": 3013,
      "Ġtw": 3014,
      "Ġelement": 3015,
      "ĠFebruary": 3016,
      "reed": 3017,
      "LL": 3018,
      "ills": 3019,
      "Ġcut": 3020,
      "ension": 3021,
      "ama": 3022,
      "Ġindust": 3023,
      "Ġtreat": 3024,
      "46": 3025,
      "Ġmakes": 3026,
      "ĠSan": 3027,
      "Im": 3028,
      "There": 3029,
      "wise": 3030,
      "ordin": 3031,
      "apan": 3032,
      "Ob": 3033,
      "Ġexact": 3034,
      "{(": 3035,
      "Ġuser": 3036,
      "ĠPer": 3037,
      "Ġvideo": 3038,
      "mit": 3039,
      "Ġsens": 3040,
      "Ġgroups": 3041,
      "Pl": 3042,
      "Ġsent": 3043,
      "Ġfinite": 3044,
      "Ġbecom": 3045,
      "Ġsche": 3046,
      "Ġonce": 3047,
      "ula": 3048,
      "Ġanaly": 3049,
      "sel": 3050,
      "ĠPark": 3051,
      "Ġ&&": 3052,
      "ĠHouse": 3053,
      "ĠEl": 3054,
      "umb": 3055,
      "$)": 3056,
      "itting": 3057,
      "oon": 3058,
      "ĠComp": 3059,
      "ĠLa": 3060,
      "Ġalgorithm": 3061,
      "era": 3062,
      "Ġpredict": 3063,
      "mary": 3064,
      "Ġplayed": 3065,
      "ged": 3066,
      "sing": 3067,
      "medi": 3068,
      "ession": 3069,
      "izing": 3070,
      "Ġbreak": 3071,
      "ouncil": 3072,
      "Ġreleased": 3073,
      "Ġrather": 3074,
      "ends": 3075,
      "Ġfactor": 3076,
      "}\\,": 3077,
      "Ġmatch": 3078,
      "Ġstep": 3079,
      "ĠSec": 3080,
      "ids": 3081,
      "Ġrequired": 3082,
      "isk": 3083,
      "Ġfig": 3084,
      "All": 3085,
      "95": 3086,
      "cdots": 3087,
      "Ġdep": 3088,
      "ĠTra": 3089,
      "ĠMon": 3090,
      "De": 3091,
      "Ġmulti": 3092,
      "Ġprop": 3093,
      "Ġbase": 3094,
      "ĠDep": 3095,
      "Ġeduc": 3096,
      "Ġobserved": 3097,
      "ĠMy": 3098,
      "ĠHis": 3099,
      "Ġdirection": 3100,
      "Set": 3101,
      "Ġothers": 3102,
      "Ġbody": 3103,
      "Ġeval": 3104,
      "Ġlearn": 3105,
      "lo": 3106,
      "BC": 3107,
      "Ġwritten": 3108,
      "65": 3109,
      "Ġprovided": 3110,
      "Ġrelated": 3111,
      "Ġworks": 3112,
      "Ġproposed": 3113,
      "down": 3114,
      "ief": 3115,
      "Ġrat": 3116,
      "}]": 3117,
      "Ġmiss": 3118,
      "Ġzero": 3119,
      "ournal": 3120,
      "}|": 3121,
      "duc": 3122,
      "Ġarch": 3123,
      "ervice": 3124,
      "2004": 3125,
      "widehat": 3126,
      "nb": 3127,
      "Ġelements": 3128,
      ".~": 3129,
      "node": 3130,
      "ĠAm": 3131,
      "igen": 3132,
      "Ġnecess": 3133,
      "ĠMark": 3134,
      "ires": 3135,
      "using": 3136,
      "uf": 3137,
      "}^\\": 3138,
      "Ġclos": 3139,
      "Ġpopulation": 3140,
      "}_\\": 3141,
      "{{\\": 3142,
      "Ġstudents": 3143,
      "lease": 3144,
      "Ġbuilding": 3145,
      "Ġalmost": 3146,
      "hood": 3147,
      "Ġcoupl": 3148,
      "qquad": 3149,
      "rick": 3150,
      "Ġhost": 3151,
      "ully": 3152,
      "Cont": 3153,
      "Ġinteraction": 3154,
      "raint": 3155,
      "astic": 3156,
      "Ġmedia": 3157,
      "ĠIm": 3158,
      "gebra": 3159,
      "Ġscale": 3160,
      "Ġnumer": 3161,
      "ishing": 3162,
      "ĠPe": 3163,
      "Ġquestion": 3164,
      "Ġsound": 3165,
      "like": 3166,
      "Sc": 3167,
      "ĠSince": 3168,
      "Data": 3169,
      "Ġexperience": 3170,
      "ĠAfric": 3171,
      "Ġdefine": 3172,
      "date": 3173,
      "Ġarm": 3174,
      "Ġfun": 3175,
      "Ġeconom": 3176,
      "Ġtown": 3177,
      "ued": 3178,
      "Le": 3179,
      "Ġservices": 3180,
      "sin": 3181,
      "Ġcode": 3182,
      "^+": 3183,
      "wed": 3184,
      "Ġincluded": 3185,
      "Ġlo": 3186,
      "gress": 3187,
      "Ġcreate": 3188,
      "Ġactiv": 3189,
      "rated": 3190,
      "IG": 3191,
      "ĠLondon": 3192,
      "AD": 3193,
      "ĠNews": 3194,
      "ĠChar": 3195,
      "Ġmember": 3196,
      "Ġever": 3197,
      "och": 3198,
      "Ġpur": 3199,
      "ĠBro": 3200,
      "Ġregular": 3201,
      "ĠHam": 3202,
      "ampions": 3203,
      "Ġheld": 3204,
      "gl": 3205,
      "ming": 3206,
      "ĠInt": 3207,
      "ĠSm": 3208,
      "more": 3209,
      "Ġblock": 3210,
      "oted": 3211,
      "mark": 3212,
      "aves": 3213,
      "ĠGo": 3214,
      "IM": 3215,
      "lemma": 3216,
      "aches": 3217,
      "Ġpo": 3218,
      "Ġbring": 3219,
      "Ġbit": 3220,
      "}}(": 3221,
      "Ġsw": 3222,
      "ĠNe": 3223,
      "ĠCont": 3224,
      "ĠBritish": 3225,
      "&=": 3226,
      "ĠHigh": 3227,
      "Ġclear": 3228,
      "})\\": 3229,
      "Ġnight": 3230,
      "edd": 3231,
      "ached": 3232,
      "Ġdefinition": 3233,
      "ese": 3234,
      "Ġexperiment": 3235,
      "imate": 3236,
      "rs": 3237,
      "Ġglobal": 3238,
      "Psi": 3239,
      "util": 3240,
      "Ġtoday": 3241,
      "Ġexplain": 3242,
      "Ġclust": 3243,
      "OS": 3244,
      "ults": 3245,
      "year": 3246,
      "ottom": 3247,
      "Ġbegin": 3248,
      "ying": 3249,
      "Ġreceived": 3250,
      "ele": 3251,
      "Ġ%": 3252,
      "semb": 3253,
      "Ġequival": 3254,
      "Ġgives": 3255,
      "Ġunit": 3256,
      "Ġquantum": 3257,
      ",-": 3258,
      "But": 3259,
      "ceed": 3260,
      "small": 3261,
      "mail": 3262,
      "OT": 3263,
      "apt": 3264,
      "ION": 3265,
      "Ġexists": 3266,
      "Ġlearning": 3267,
      "Mod": 3268,
      "ands": 3269,
      "Ġimpl": 3270,
      "Ġconstruct": 3271,
      "lied": 3272,
      "Ġpan": 3273,
      "Ġjob": 3274,
      "ĠNot": 3275,
      "https": 3276,
      "ided": 3277,
      "Ġspecific": 3278,
      "ĠHer": 3279,
      "ened": 3280,
      "ĠSer": 3281,
      "Ġstyle": 3282,
      "Ġbackground": 3283,
      "onic": 3284,
      "bb": 3285,
      "Ġcannot": 3286,
      "aries": 3287,
      "Ġenvironment": 3288,
      "Ġentire": 3289,
      "ĠOb": 3290,
      "66": 3291,
      "Ġlabel": 3292,
      "appro": 3293,
      "ĠDis": 3294,
      "Ġdidn": 3295,
      "At": 3296,
      "Ġimplement": 3297,
      "Ġtaking": 3298,
      "Ġdri": 3299,
      "Ġyet": 3300,
      "Ġstarted": 3301,
      "eff": 3302,
      "Ġnational": 3303,
      "iet": 3304,
      "gen": 3305,
      "ĠĠĠĠĠĠĠĠĠĠĠĠĠĠĠĠĠĠĠĠĠĠĠ": 3306,
      "adem": 3307,
      "Ġcontext": 3308,
      "location": 3309,
      "Ġexec": 3310,
      "ĠII": 3311,
      "ĠAct": 3312,
      "Ġoperator": 3313,
      "racy": 3314,
      "Ġdeal": 3315,
      "ington": 3316,
      "Ġstrateg": 3317,
      "Ġcustom": 3318,
      "Ġmatter": 3319,
      "Ad": 3320,
      "Ġchall": 3321,
      "Ġhor": 3322,
      "Ġaddress": 3323,
      "ĠPresident": 3324,
      "\");": 3325,
      "Ġlive": 3326,
      "Ġwent": 3327,
      "ĠAmerica": 3328,
      "Ġsoft": 3329,
      "Value": 3330,
      "icult": 3331,
      "Ġeffects": 3332,
      "You": 3333,
      "ĠVal": 3334,
      "fe": 3335,
      "Ġnews": 3336,
      "Ġlarger": 3337,
      "Ġtemperature": 3338,
      "iddle": 3339,
      "Ġchanges": 3340,
      "42": 3341,
      "Ġfixed": 3342,
      ")]": 3343,
      "rench": 3344,
      "Ġmarket": 3345,
      "sup": 3346,
      "Ġreported": 3347,
      "Ġwhose": 3348,
      "ĠFigure": 3349,
      "Ġresponse": 3350,
      "********": 3351,
      "mon": 3352,
      "ĠĠĠĠĊ": 3353,
      "ĠTr": 3354,
      "What": 3355,
      "Ġtransition": 3356,
      "avy": 3357,
      "Ġdistance": 3358,
      "Ġsequence": 3359,
      "ĠEnglish": 3360,
      "bsite": 3361,
      "Ġspin": 3362,
      "From": 3363,
      "mathsf": 3364,
      "init": 3365,
      "ledge": 3366,
      "ĠWhat": 3367,
      "Ġtrack": 3368,
      "ĠDo": 3369,
      "operator": 3370,
      "Ġadditional": 3371,
      "iven": 3372,
      "han": 3373,
      "Ġactually": 3374,
      "cup": 3375,
      "Ġbar": 3376,
      "ĠInternational": 3377,
      "Ġimprove": 3378,
      "Ġsuggest": 3379,
      "Ġ\\{": 3380,
      "icles": 3381,
      "Ġrefer": 3382,
      "rump": 3383,
      "textwidth": 3384,
      "map": 3385,
      "ender": 3386,
      "ĠArm": 3387,
      "ford": 3388,
      "Ġdest": 3389,
      ".)": 3390,
      "ises": 3391,
      "minist": 3392,
      "from": 3393,
      "state": 3394,
      "unch": 3395,
      "list": 3396,
      "ha": 3397,
      "ĠSim": 3398,
      "CC": 3399,
      "Ġprobability": 3400,
      "ĠAng": 3401,
      "ransport": 3402,
      "Ġnatural": 3403,
      "Ġmechan": 3404,
      "Ġthing": 3405,
      "'re": 3406,
      "Ġamount": 3407,
      "ĠJapan": 3408,
      "ĠMich": 3409,
      "Ġfields": 3410,
      "skip": 3411,
      "ucle": 3412,
      "Ġweight": 3413,
      "}^{(": 3414,
      "ociety": 3415,
      "nown": 3416,
      "Ġcomplete": 3417,
      "Ġgas": 3418,
      "Ġassume": 3419,
      "attle": 3420,
      "ĠFrom": 3421,
      "Sp": 3422,
      "Ġsure": 3423,
      "Ġwords": 3424,
      "2003": 3425,
      "pdf": 3426,
      "ael": 3427,
      "uel": 3428,
      "($": 3429,
      "Ġbuilt": 3430,
      "Ġgalax": 3431,
      "overed": 3432,
      "Ġfall": 3433,
      "ores": 3434,
      "Ġsubject": 3435,
      "la": 3436,
      "atrix": 3437,
      "prop": 3438,
      "eal": 3439,
      "Ġdiv": 3440,
      "Ġord": 3441,
      "file": 3442,
      "ĠStud": 3443,
      "({\\": 3444,
      "Ġfile": 3445,
      "Ġbegan": 3446,
      "ĠDist": 3447,
      "ager": 3448,
      "ply": 3449,
      "nbsp": 3450,
      "Ġtalk": 3451,
      "HE": 3452,
      "Ġaud": 3453,
      "Ġinstead": 3454,
      "Ġsqu": 3455,
      "indent": 3456,
      "tic": 3457,
      "nder": 3458,
      "dt": 3459,
      "ounter": 3460,
      "43": 3461,
      "atory": 3462,
      "////": 3463,
      "Qu": 3464,
      "atives": 3465,
      "Ġcolor": 3466,
      "}\\\\": 3467,
      "Ġpack": 3468,
      "Ġcareer": 3469,
      "Ġfront": 3470,
      "star": 3471,
      "Ġeffective": 3472,
      "Ġflow": 3473,
      "Ġmultiple": 3474,
      "Ġfav": 3475,
      "mar": 3476,
      "ports": 3477,
      "Ġcompared": 3478,
      "ections": 3479,
      "Ġindex": 3480,
      "rec": 3481,
      "pecially": 3482,
      "Ġ...": 3483,
      "itect": 3484,
      "icol": 3485,
      "Ġstatic": 3486,
      "ilitary": 3487,
      "Ġcompar": 3488,
      "Get": 3489,
      "Ġviol": 3490,
      "aign": 3491,
      "reet": 3492,
      "light": 3493,
      "oph": 3494,
      "agram": 3495,
      "Ġcompan": 3496,
      "Ġlocated": 3497,
      "inst": 3498,
      "UR": 3499,
      "Ġpublished": 3500,
      "Ġ$(\\": 3501,
      "bt": 3502,
      "85": 3503,
      "ara": 3504,
      "Ġsample": 3505,
      "Ġeffic": 3506,
      "asc": 3507,
      "Ġwhole": 3508,
      "ĠFirst": 3509,
      "ariant": 3510,
      "ause": 3511,
      "ridge": 3512,
      "umbers": 3513,
      "Ġdoesn": 3514,
      "Ġprec": 3515,
      "Ġtakes": 3516,
      "UT": 3517,
      "px": 3518,
      "========": 3519,
      "istics": 3520,
      "dimens": 3521,
      "Ġop": 3522,
      "ĠWilliam": 3523,
      "Ġstation": 3524,
      "test": 3525,
      ")-": 3526,
      "equiv": 3527,
      "Ġincrease": 3528,
      "Ġconfig": 3529,
      "ĠThus": 3530,
      "Ġtherefore": 3531,
      "Ġparticip": 3532,
      "Ġofficial": 3533,
      "Ġpercent": 3534,
      "Ġparent": 3535,
      "mid": 3536,
      "rig": 3537,
      "atively": 3538,
      "body": 3539,
      "Ġround": 3540,
      "osition": 3541,
      "Ġnote": 3542,
      "ĠSup": 3543,
      "uses": 3544,
      "ĉĊ": 3545,
      "MS": 3546,
      "Ġsearch": 3547,
      "Ġvisit": 3548,
      "andid": 3549,
      "];": 3550,
      "icture": 3551,
      "PS": 3552,
      "Ġrespons": 3553,
      "Ġface": 3554,
      "ĠSystem": 3555,
      "oms": 3556,
      "Ġtell": 3557,
      "Ġcomes": 3558,
      "ĠLemma": 3559,
      "Ġadded": 3560,
      "Ġlink": 3561,
      "Ġdegree": 3562,
      "41": 3563,
      "Ġdomain": 3564,
      "App": 3565,
      "ounced": 3566,
      "Ġcreated": 3567,
      "Ġlikely": 3568,
      "Ġdifference": 3569,
      "Ġnamed": 3570,
      "that": 3571,
      "Ġnov": 3572,
      "Ġedge": 3573,
      "ensive": 3574,
      "rror": 3575,
      "Ġoutput": 3576,
      "Ġsolutions": 3577,
      "|^": 3578,
      "Ġengine": 3579,
      "olar": 3580,
      "que": 3581,
      "AB": 3582,
      "Ġplayer": 3583,
      "See": 3584,
      "Ġbroad": 3585,
      "van": 3586,
      "Ġlanguage": 3587,
      "Ġneigh": 3588,
      "iforn": 3589,
      "Ġprovides": 3590,
      "En": 3591,
      "iber": 3592,
      "Ġdifficult": 3593,
      "cing": 3594,
      "Ġequations": 3595,
      "\":": 3596,
      "den": 3597,
      "ken": 3598,
      "Ġlate": 3599,
      "Is": 3600,
      "ĠCollege": 3601,
      "Ġmonths": 3602,
      "rim": 3603,
      "Ġdemon": 3604,
      "Ġimpact": 3605,
      "When": 3606,
      "ooth": 3607,
      "Bl": 3608,
      "}:": 3609,
      "Not": 3610,
      "Ġmoney": 3611,
      "Ġtable": 3612,
      "lor": 3613,
      "Ġund": 3614,
      "index": 3615,
      "ulated": 3616,
      "Ġpolitical": 3617,
      "Ġbasis": 3618,
      "estern": 3619,
      "ĠLeague": 3620,
      "path": 3621,
      "Ġpresented": 3622,
      "View": 3623,
      "Ġsense": 3624,
      "Ġproblems": 3625,
      "ĠMod": 3626,
      "Ġunique": 3627,
      "ication": 3628,
      "ags": 3629,
      "Ġliter": 3630,
      "}+\\": 3631,
      "Ġleading": 3632,
      "Ġprior": 3633,
      "hspace": 3634,
      "olic": 3635,
      "Def": 3636,
      "Ġtold": 3637,
      "hel": 3638,
      "Ġcateg": 3639,
      "Ġwrite": 3640,
      "ites": 3641,
      "Ġcontains": 3642,
      "rast": 3643,
      "ett": 3644,
      "king": 3645,
      "Ġattempt": 3646,
      "atur": 3647,
      "Ġ&\\": 3648,
      "}}{\\": 3649,
      "ĠDr": 3650,
      "Ġcentral": 3651,
      "Ġver": 3652,
      "2002": 3653,
      "ifornia": 3654,
      "ĠCenter": 3655,
      "ING": 3656,
      "97": 3657,
      "Ġboundary": 3658,
      "ĠUK": 3659,
      "orge": 3660,
      "Ġinstance": 3661,
      "Ġimages": 3662,
      "citet": 3663,
      "ening": 3664,
      "2001": 3665,
      "Ġelection": 3666,
      "Ġtransform": 3667,
      "aging": 3668,
      "Ġsets": 3669,
      "Ġsett": 3670,
      "Ġclub": 3671,
      "Ġinflu": 3672,
      "Ġ-\\": 3673,
      "500": 3674,
      "Man": 3675,
      "Ġconstruction": 3676,
      "Ġrecogn": 3677,
      "rc": 3678,
      "Ġpolicy": 3679,
      "Ġdetails": 3680,
      "ĠDem": 3681,
      "Ġseem": 3682,
      "Ġincludes": 3683,
      "Ġrequest": 3684,
      "ĠDes": 3685,
      "omb": 3686,
      "Ġshall": 3687,
      "igned": 3688,
      "operatorname": 3689,
      "irm": 3690,
      "Ġflu": 3691,
      "Ġaccept": 3692,
      "Ġdocument": 3693,
      "]$": 3694,
      "Ġregard": 3695,
      "Ġestablished": 3696,
      "Ġneeds": 3697,
      "eloc": 3698,
      "ework": 3699,
      "fin": 3700,
      "à¤": 3701,
      "izes": 3702,
      "ocr": 3703,
      "ĠMor": 3704,
      "67": 3705,
      "Ġlat": 3706,
      "xspace": 3707,
      "url": 3708,
      "FF": 3709,
      "unc": 3710,
      "vey": 3711,
      "Ġitself": 3712,
      "uments": 3713,
      "Ġvalid": 3714,
      "Wh": 3715,
      "uit": 3716,
      "ĠIndia": 3717,
      "born": 3718,
      "98": 3719,
      "ky": 3720,
      "Ġonline": 3721,
      "ota": 3722,
      "ĠLaw": 3723,
      "ĠPat": 3724,
      "Ġ/**": 3725,
      "));": 3726,
      "Ġidea": 3727,
      "ĠCour": 3728,
      "atus": 3729,
      "'$": 3730,
      "iform": 3731,
      "anks": 3732,
      "artment": 3733,
      "Ġissue": 3734,
      "scale": 3735,
      "itte": 3736,
      "AA": 3737,
      "Ġcenter": 3738,
      "Ġphysical": 3739,
      "error": 3740,
      "Ġprofess": 3741,
      "}-\\": 3742,
      "ĠAcc": 3743,
      "Ġhttp": 3744,
      "link": 3745,
      "Ġareas": 3746,
      "Ġweak": 3747,
      "Ġpage": 3748,
      "lier": 3749,
      "nes": 3750,
      "Ġroad": 3751,
      "Ġstars": 3752,
      "Ġbehind": 3753,
      "ĠAc": 3754,
      "iments": 3755,
      "(-": 3756,
      "ĠSte": 3757,
      "Ġfood": 3758,
      "ging": 3759,
      "ĠSen": 3760,
      "Ġago": 3761,
      "change": 3762,
      "Ġissues": 3763,
      "oe": 3764,
      "Ġtradition": 3765,
      "oul": 3766,
      "Ġreve": 3767,
      "dag": 3768,
      "Ġcomponent": 3769,
      "Ġdig": 3770,
      "Ġey": 3771,
      "Ġsignal": 3772,
      "Ġmetric": 3773,
      "noindent": 3774,
      "alle": 3775,
      "selves": 3776,
      "atform": 3777,
      "berg": 3778,
      "Ġoccur": 3779,
      "Ġbenef": 3780,
      "Ã¡": 3781,
      "arily": 3782,
      "levision": 3783,
      "iation": 3784,
      "oved": 3785,
      "|-": 3786,
      "ivil": 3787,
      "CH": 3788,
      "Ġdenote": 3789,
      "Ġdatas": 3790,
      "known": 3791,
      "){": 3792,
      "Ġstudies": 3793,
      "fect": 3794,
      "Ġ///": 3795,
      "neq": 3796,
      "Ġmention": 3797,
      "Ġfram": 3798,
      "zz": 3799,
      "Ġequal": 3800,
      "aged": 3801,
      "88": 3802,
      "Ġspecies": 3803,
      "\\,\\": 3804,
      "Ġ:=": 3805,
      "tra": 3806,
      "IR": 3807,
      "Ġfilms": 3808,
      "Ġprove": 3809,
      "Comp": 3810,
      "oke": 3811,
      "One": 3812,
      "Ġtax": 3813,
      "note": 3814,
      "ĠOur": 3815,
      "Ġconstraint": 3816,
      "Ġdirectly": 3817,
      "Ġholds": 3818,
      "Ġprinc": 3819,
      "CT": 3820,
      "Ġpref": 3821,
      "ĠRepublic": 3822,
      "ico": 3823,
      "Ġlooking": 3824,
      "Americ": 3825,
      "ĠTV": 3826,
      "ĠDef": 3827,
      "2021": 3828,
      "icon": 3829,
      "ously": 3830,
      "96": 3831,
      "inated": 3832,
      "Ġrelease": 3833,
      "Exception": 3834,
      "mission": 3835,
      "Ġoptim": 3836,
      "Ġvill": 3837,
      "ibrary": 3838,
      "Ġparty": 3839,
      "ĠDavid": 3840,
      "Ġupon": 3841,
      "Ġled": 3842,
      "Ġcontract": 3843,
      "Ġwave": 3844,
      "ĠDi": 3845,
      "Ġcomponents": 3846,
      "Ġclosed": 3847,
      "Ġneeded": 3848,
      "Ġess": 3849,
      "ĠGroup": 3850,
      "ĠTrump": 3851,
      "umerate": 3852,
      "Class": 3853,
      "dimensional": 3854,
      "CD": 3855,
      "ilton": 3856,
      "Ġmonth": 3857,
      "Ġsex": 3858,
      "Ġscen": 3859,
      "ĠAssoci": 3860,
      "elt": 3861,
      "Object": 3862,
      "Ġquite": 3863,
      "Ġcoordin": 3864,
      "Ġchoice": 3865,
      "Ġpopular": 3866,
      "inn": 3867,
      "ville": 3868,
      "Ġproduced": 3869,
      "Ġespecially": 3870,
      "Ġpersonal": 3871,
      ")}{": 3872,
      "AG": 3873,
      "Ġcollection": 3874,
      "cial": 3875,
      "aur": 3876,
      "ocal": 3877,
      "Ġperformed": 3878,
      "57": 3879,
      "clusion": 3880,
      "Ġdeep": 3881,
      "Since": 3882,
      "Ġpie": 3883,
      "Ġgenerated": 3884,
      "Ġsus": 3885,
      "Ġdeveloped": 3886,
      "Ġveloc": 3887,
      "Ġwebsite": 3888,
      "Ġadj": 3889,
      "oto": 3890,
      "Ġsimply": 3891,
      "ĠString": 3892,
      "SE": 3893,
      "Ġforward": 3894,
      "LO": 3895,
      "Ġstage": 3896,
      "band": 3897,
      "hing": 3898,
      "Ġconduct": 3899,
      "ĠCalifornia": 3900,
      "Ġnucle": 3901,
      "ship": 3902,
      "Ġdoing": 3903,
      "Ġgoal": 3904,
      "ĠCO": 3905,
      "ĠFrench": 3906,
      "ario": 3907,
      "ĠPaul": 3908,
      "pite": 3909,
      "ellow": 3910,
      "$}": 3911,
      "ĠCouncil": 3912,
      "oice": 3913,
      "Ġwhite": 3914,
      "][": 3915,
      "ĠRed": 3916,
      "Ġfit": 3917,
      "rote": 3918,
      "scr": 3919,
      "Ġincreasing": 3920,
      "Ġpresident": 3921,
      "Ġindustry": 3922,
      "Ġyield": 3923,
      "Ġpers": 3924,
      "ĠEast": 3925,
      "Ġelectron": 3926,
      "ker": 3927,
      "Ġoutside": 3928,
      "bert": 3929,
      "Ġarticle": 3930,
      "Ġindu": 3931,
      "theorem": 3932,
      "illing": 3933,
      "Ġdisplay": 3934,
      "Ġepis": 3935,
      "enumerate": 3936,
      "Ġcapt": 3937,
      "Ġnumbers": 3938,
      "Rec": 3939,
      "useum": 3940,
      "ares": 3941,
      "IL": 3942,
      "Ġquality": 3943,
      "utive": 3944,
      "No": 3945,
      "Ġrot": 3946,
      "Ġbecomes": 3947,
      "vis": 3948,
      "Ġtool": 3949,
      "wood": 3950,
      "Ġsuccessful": 3951,
      "ĠStreet": 3952,
      "Ġinsp": 3953,
      "rows": 3954,
      "Ġcorrect": 3955,
      "come": 3956,
      "Ġcandid": 3957,
      "lands": 3958,
      "Ġhot": 3959,
      "ura": 3960,
      "TR": 3961,
      "Ġcontact": 3962,
      "itemize": 3963,
      "]\\": 3964,
      "Ġimplies": 3965,
      "Ġimm": 3966,
      "omial": 3967,
      "Ġmind": 3968,
      ")}$": 3969,
      "ĠBlack": 3970,
      "Ġevolution": 3971,
      "Ġ!=": 3972,
      "Ġseems": 3973,
      "Ġstri": 3974,
      "Ġbad": 3975,
      "Ġcoe": 3976,
      "SP": 3977,
      "public": 3978,
      "Ġmag": 3979,
      "Ġcolumn": 3980,
      "Ġrelation": 3981,
      "bound": 3982,
      "Ġmagnetic": 3983,
      "ĠIndian": 3984,
      "icip": 3985,
      "Ġcompanies": 3986,
      "&&": 3987,
      "perty": 3988,
      "Ġste": 3989,
      "Ġfocus": 3990,
      "ĠOff": 3991,
      "NN": 3992,
      "So": 3993,
      "ranch": 3994,
      "Ġallows": 3995,
      "Ġhistor": 3996,
      "ĠChina": 3997,
      "Ġbox": 3998,
      "ica": 3999,
      "cret": 4000,
      "Ġforce": 4001,
      "nav": 4002,
      "'m": 4003,
      "ancial": 4004,
      "ĠHol": 4005,
      "Ġgrowth": 4006,
      "oring": 4007,
      "length": 4008,
      "After": 4009,
      "Ġcharg": 4010,
      "Ġcampaign": 4011,
      "encies": 4012,
      "Ġansw": 4013,
      "Ġtechnology": 4014,
      "opl": 4015,
      "ĠAustralia": 4016,
      "Ġball": 4017,
      "Ġrepresentation": 4018,
      "place": 4019,
      "display": 4020,
      "77": 4021,
      "alled": 4022,
      "Ġfem": 4023,
      "Ġlost": 4024,
      "bre": 4025,
      "Ġinternational": 4026,
      "burg": 4027,
      "Ġapplication": 4028,
      "ĠJust": 4029,
      "Ġcentury": 4030,
      "Ġconver": 4031,
      "State": 4032,
      "rant": 4033,
      "Ġ_{": 4034,
      "ĠAnt": 4035,
      "Ġopportun": 4036,
      "Ġfire": 4037,
      "omorphism": 4038,
      "rices": 4039,
      "stitute": 4040,
      "unt": 4041,
      "range": 4042,
      "\";": 4043,
      "Ġtypes": 4044,
      "can": 4045,
      "68": 4046,
      "Ġquick": 4047,
      "Ġdemonstr": 4048,
      "atal": 4049,
      "eline": 4050,
      "Ġrank": 4051,
      "Ġagre": 4052,
      "Ġwor": 4053,
      "Ġsetting": 4054,
      "ĠHere": 4055,
      "Ġmaximum": 4056,
      "Ġsecur": 4057,
      "Ġlevels": 4058,
      "Ġspeed": 4059,
      "Ġhours": 4060,
      "level": 4061,
      "ĠPal": 4062,
      "Ġexpression": 4063,
      "Error": 4064,
      "augh": 4065,
      "Ġword": 4066,
      "Ġannounced": 4067,
      "ocks": 4068,
      "ds": 4069,
      "Ġintroduced": 4070,
      "Ġbelieve": 4071,
      "ĉĉĉĉĉ": 4072,
      "Ġparts": 4073,
      "Ġhon": 4074,
      "UN": 4075,
      "Ġsources": 4076,
      "Ġcritical": 4077,
      "vspace": 4078,
      "long": 4079,
      "Test": 4080,
      "Ġvict": 4081,
      "IP": 4082,
      "ny": 4083,
      "pack": 4084,
      "Ġsold": 4085,
      "Ġalgebra": 4086,
      "Ġwalk": 4087,
      "}}}": 4088,
      "Ġsmaller": 4089,
      "icit": 4090,
      "().": 4091,
      "Ġinteresting": 4092,
      "usion": 4093,
      "Ġdark": 4094,
      "Ġheart": 4095,
      "Then": 4096,
      "ĠCommun": 4097,
      "Ġson": 4098,
      "Ġgre": 4099,
      "Ġshare": 4100,
      "ĠÐ": 4101,
      "Ġrunning": 4102,
      "ades": 4103,
      "Ġbehavior": 4104,
      "ĠOf": 4105,
      "ĠNow": 4106,
      "Ġdecl": 4107,
      "ĠDay": 4108,
      "ĠTherefore": 4109,
      "Ġapplied": 4110,
      "Ġrob": 4111,
      "Ġfather": 4112,
      "Ġrisk": 4113,
      "Ġ?": 4114,
      "Ġsuff": 4115,
      "}}_": 4116,
      "ĠCons": 4117,
      "Ġmid": 4118,
      "Ġwidth": 4119,
      "ĠEm": 4120,
      "Ġproducts": 4121,
      "xy": 4122,
      "ĠJames": 4123,
      "Ġrights": 4124,
      "Ġrestrict": 4125,
      "Ġcoming": 4126,
      "Ġspectrum": 4127,
      "Ġmor": 4128,
      "otic": 4129,
      "ams": 4130,
      "Ġeasy": 4131,
      "ube": 4132,
      "Ġdecre": 4133,
      "maz": 4134,
      "Ġgain": 4135,
      "Ġtransfer": 4136,
      "pol": 4137,
      "asons": 4138,
      "approx": 4139,
      "ĠDepartment": 4140,
      "js": 4141,
      "Ġgetting": 4142,
      "rian": 4143,
      "ander": 4144,
      "Ġpattern": 4145,
      "Ġupper": 4146,
      "auge": 4147,
      "ĠHealth": 4148,
      "ML": 4149,
      "multicol": 4150,
      "ien": 4151,
      "ĠWhile": 4152,
      "Ġpolice": 4153,
      "ĠEuropean": 4154,
      "osen": 4155,
      "Ġdetermined": 4156,
      "\"></": 4157,
      "agement": 4158,
      "Ġevalu": 4159,
      "Ġneut": 4160,
      "erve": 4161,
      "ĠCanada": 4162,
      "EE": 4163,
      "American": 4164,
      "ensor": 4165,
      "rong": 4166,
      "Ġreach": 4167,
      "oyal": 4168,
      "ashington": 4169,
      "Ġdecision": 4170,
      "spec": 4171,
      "Ġrecently": 4172,
      "ĠMal": 4173,
      "Ġlonger": 4174,
      "Ġconcern": 4175,
      "Ġhimself": 4176,
      "Ġimmedi": 4177,
      "Ġuses": 4178,
      "Ġorg": 4179,
      "58": 4180,
      "volution": 4181,
      "Ġevidence": 4182,
      "ida": 4183,
      "ĠGreen": 4184,
      "Ġmix": 4185,
      "ĠEngland": 4186,
      "run": 4187,
      "Ġcontinue": 4188,
      "Ġusers": 4189,
      ".</": 4190,
      "multicolumn": 4191,
      "ios": 4192,
      "Ġconsum": 4193,
      "Ġtravel": 4194,
      "rab": 4195,
      "obile": 4196,
      "joy": 4197,
      "ptions": 4198,
      "ĠTable": 4199,
      "rate": 4200,
      "underline": 4201,
      "eed": 4202,
      "());": 4203,
      "ribute": 4204,
      "Ġproced": 4205,
      "Ġdate": 4206,
      "1999": 4207,
      "Ġir": 4208,
      "nov": 4209,
      "Ġdraw": 4210,
      "Ġvan": 4211,
      "angle": 4212,
      "ein": 4213,
      "56": 4214,
      "fill": 4215,
      "istry": 4216,
      "Ġwrote": 4217,
      "Ġtask": 4218,
      "Ġestimate": 4219,
      "Key": 4220,
      "ittee": 4221,
      "Ġinvolved": 4222,
      "Ġvariables": 4223,
      "iers": 4224,
      "Ġaltern": 4225,
      "Ġgirl": 4226,
      "ĠThom": 4227,
      "ĠRober": 4228,
      "Ġinside": 4229,
      "ĠPort": 4230,
      "Or": 4231,
      "Ġfight": 4232,
      "Ġ\\|": 4233,
      "vant": 4234,
      "Ġknowledge": 4235,
      "ĠGod": 4236,
      "Ġnecessary": 4237,
      "Ġstreng": 4238,
      "Ġcourt": 4239,
      "Ġdam": 4240,
      "uge": 4241,
      "oo": 4242,
      "Ġtreatment": 4243,
      "Form": 4244,
      "acher": 4245,
      "Ġwatch": 4246,
      "riate": 4247,
      "Ġlocation": 4248,
      "._": 4249,
      "rier": 4250,
      "ederal": 4251,
      "Ġmessage": 4252,
      "Time": 4253,
      "Ġratio": 4254,
      "Ġroom": 4255,
      "Ġsecurity": 4256,
      "acity": 4257,
      "Ġsil": 4258,
      "ya": 4259,
      "^-": 4260,
      "ean": 4261,
      "Pi": 4262,
      ")+": 4263,
      "Ġillust": 4264,
      "Ġtowards": 4265,
      "Ġconnected": 4266,
      "hips": 4267,
      "iences": 4268,
      "Ġemer": 4269,
      "ctors": 4270,
      "MP": 4271,
      "Ġresid": 4272,
      "ago": 4273,
      "ements": 4274,
      "Sy": 4275,
      "Ġrac": 4276,
      "split": 4277,
      "raz": 4278,
      "command": 4279,
      "ĠDistrict": 4280,
      "Dis": 4281,
      "\\}$": 4282,
      "Ġveh": 4283,
      "hand": 4284,
      "model": 4285,
      "Ġdimension": 4286,
      "Ġworked": 4287,
      "Ġcells": 4288,
      "ĠRich": 4289,
      "Over": 4290,
      "ansion": 4291,
      "Ġpatients": 4292,
      "ĠGeneral": 4293,
      "Ġborn": 4294,
      "Ġstra": 4295,
      "ns": 4296,
      "norm": 4297,
      "ĠResearch": 4298,
      "net": 4299,
      "Ġprobably": 4300,
      "ĠNote": 4301,
      "Ġeigen": 4302,
      "Ġmach": 4303,
      "Ġhit": 4304,
      "ĠDirect": 4305,
      "Ġcomment": 4306,
      "=\"+": 4307,
      "Ġdriv": 4308,
      "Ġ\\;": 4309,
      "Ġplaying": 4310,
      "Ġvers": 4311,
      "Ġinj": 4312,
      "Ġassert": 4313,
      "Ġcred": 4314,
      "Ġrelative": 4315,
      "``": 4316,
      "Ge": 4317,
      "mathscr": 4318,
      "ĠGerman": 4319,
      "isation": 4320,
      "ountain": 4321,
      "Ġfrequency": 4322,
      "ĠInter": 4323,
      "Ġalthough": 4324,
      "Ġdevice": 4325,
      "do": 4326,
      "urity": 4327,
      "Ġoffice": 4328,
      "Ġarchitect": 4329,
      "dist": 4330,
      "ĠCup": 4331,
      "Ġchannel": 4332,
      "yond": 4333,
      "ĠChampions": 4334,
      "Ġobjects": 4335,
      "Ġcharge": 4336,
      "ĠBook": 4337,
      "Ġnorth": 4338,
      "ĠCourt": 4339,
      "Ġcam": 4340,
      "Ġleaders": 4341,
      "MA": 4342,
      "Ġconcept": 4343,
      "ifying": 4344,
      "More": 4345,
      "ocol": 4346,
      "struct": 4347,
      "ental": 4348,
      "ĠMart": 4349,
      "arth": 4350,
      "ĠMr": 4351,
      "gence": 4352,
      "ĠDan": 4353,
      "Ġautom": 4354,
      "aily": 4355,
      "ctions": 4356,
      "Ġdouble": 4357,
      "Ġmanagement": 4358,
      "Ġalign": 4359,
      "acc": 4360,
      "osing": 4361,
      "Ġnothing": 4362,
      "Ġdesigned": 4363,
      "Ġserved": 4364,
      "'ve": 4365,
      "Ġeducation": 4366,
      "1998": 4367,
      "eli": 4368,
      "allel": 4369,
      "ecause": 4370,
      "Ġhol": 4371,
      "ayer": 4372,
      "Ġpick": 4373,
      "gra": 4374,
      "Ġaward": 4375,
      "Ġmother": 4376,
      "Ġsaw": 4377,
      "ĠWork": 4378,
      "iny": 4379,
      "Ġliving": 4380,
      "Ġdied": 4381,
      "Ġwriting": 4382,
      "aker": 4383,
      "textrm": 4384,
      "century": 4385,
      "Requ": 4386,
      "aper": 4387,
      "Equ": 4388,
      "dro": 4389,
      "ĠRiver": 4390,
      "Ġusually": 4391,
      "isions": 4392,
      "gs": 4393,
      "ees": 4394,
      "ĠBel": 4395,
      "OD": 4396,
      "word": 4397,
      "rief": 4398,
      "ka": 4399,
      "Ġremains": 4400,
      "Ġthroughout": 4401,
      "Ġequivalent": 4402,
      "pret": 4403,
      "Ġmode": 4404,
      "Ġaccom": 4405,
      "Ġvelocity": 4406,
      "ĠFil": 4407,
      "pace": 4408,
      "Ġcurrently": 4409,
      "itz": 4410,
      "ĠList": 4411,
      "Ġactive": 4412,
      "Ab": 4413,
      "Ġmeet": 4414,
      "ech": 4415,
      "Ġanything": 4416,
      "Ġasked": 4417,
      "ĠJack": 4418,
      "Ġdistrict": 4419,
      "Ġscreen": 4420,
      "Now": 4421,
      "ĠHall": 4422,
      "ĠTrans": 4423,
      "abs": 4424,
      "IV": 4425,
      "ln": 4426,
      "Ġnature": 4427,
      "Ġmodern": 4428,
      "87": 4429,
      "rule": 4430,
      "ĠÃ": 4431,
      "Theta": 4432,
      "Ġgrad": 4433,
      "roy": 4434,
      "iting": 4435,
      "Ġapply": 4436,
      "Ġgeomet": 4437,
      "Ġavoid": 4438,
      "ĠIN": 4439,
      "fr": 4440,
      "!--": 4441,
      "Ġreference": 4442,
      "}^{-": 4443,
      "Ġradio": 4444,
      "Ġnovel": 4445,
      "Ġtro": 4446,
      "Of": 4447,
      "unk": 4448,
      "Ġmilitary": 4449,
      "{}": 4450,
      "taint": 4451,
      "arp": 4452,
      "Ġaim": 4453,
      "Ġallowed": 4454,
      "ĠGa": 4455,
      "tical": 4456,
      "Ġexpress": 4457,
      "ĠSome": 4458,
      "Ġnoise": 4459,
      "Pe": 4460,
      "Fil": 4461,
      "Our": 4462,
      "Ġshift": 4463,
      "arter": 4464,
      "ĠScience": 4465,
      "ini": 4466,
      "ĠClass": 4467,
      "Ġeight": 4468,
      "SC": 4469,
      "apter": 4470,
      "Ġoffer": 4471,
      "Ġmoved": 4472,
      "normal": 4473,
      "amily": 4474,
      "Ġthemselves": 4475,
      "quot": 4476,
      "Ġattention": 4477,
      "Ġpeak": 4478,
      "}/": 4479,
      "Ġselected": 4480,
      "pose": 4481,
      "ĠWashington": 4482,
      "~$": 4483,
      "erc": 4484,
      "Ġsoon": 4485,
      "linear": 4486,
      "hest": 4487,
      "Ġregions": 4488,
      "Ġexhib": 4489,
      "Ġjud": 4490,
      "Ġtree": 4491,
      "Ġoperators": 4492,
      "well": 4493,
      "ald": 4494,
      "Ġampl": 4495,
      "TE": 4496,
      "itions": 4497,
      "Ġwall": 4498,
      "ĠTechn": 4499,
      "inct": 4500,
      "Ġlimited": 4501,
      "Ġpresence": 4502,
      "Ġstaff": 4503,
      "File": 4504,
      "ects": 4505,
      "pan": 4506,
      "eks": 4507,
      "user": 4508,
      "acing": 4509,
      "ometimes": 4510,
      "Ġadminist": 4511,
      "Ġwoman": 4512,
      "ugg": 4513,
      "Ġfast": 4514,
      "arks": 4515,
      "Note": 4516,
      "rd": 4517,
      "OP": 4518,
      "Ġfigure": 4519,
      "Ġstop": 4520,
      "Ġlargest": 4521,
      "ersion": 4522,
      "ĠChurch": 4523,
      "ussian": 4524,
      "');": 4525,
      "ĠOut": 4526,
      "irtual": 4527,
      "Here": 4528,
      "Ġsmooth": 4529,
      "prot": 4530,
      "Ġtrying": 4531,
      "Ġeasily": 4532,
      "ĠBay": 4533,
      "MC": 4534,
      "59": 4535,
      "Ġsufficient": 4536,
      "mitted": 4537,
      "Ġacqu": 4538,
      "Ġhyp": 4539,
      "52": 4540,
      "ospital": 4541,
      "Ġnegative": 4542,
      "Ġsomeone": 4543,
      "ĠĠĠĠĠĠĠĠĠĠ": 4544,
      "ĠSub": 4545,
      "Ġpractice": 4546,
      "inos": 4547,
      "Ġones": 4548,
      "conn": 4549,
      "51": 4550,
      "Ġcharacters": 4551,
      "Ġten": 4552,
      "Ð°": 4553,
      "Ġperfect": 4554,
      "check": 4555,
      "Post": 4556,
      "bigg": 4557,
      "Ġsouth": 4558,
      "Ġenjoy": 4559,
      "SU": 4560,
      "ynomial": 4561,
      "DF": 4562,
      "Ġearlier": 4563,
      "rie": 4564,
      "Ġqual": 4565,
      "Ð¾": 4566,
      "Ġ/>": 4567,
      "input": 4568,
      "Add": 4569,
      "Ġpressure": 4570,
      "Ġstarting": 4571,
      "true": 4572,
      "ils": 4573,
      "ĠAirport": 4574,
      "png": 4575,
      "Ġdiscussed": 4576,
      "Ġcele": 4577,
      "witch": 4578,
      "}}_{": 4579,
      "Ġminutes": 4580,
      "Ġderiv": 4581,
      "ĠParty": 4582,
      "ado": 4583,
      "Ġlack": 4584,
      "izations": 4585,
      "Ã³": 4586,
      "Ġ$|": 4587,
      "Ġrace": 4588,
      "Ġseg": 4589,
      "ilies": 4590,
      "Ġax": 4591,
      "Ġuncer": 4592,
      "board": 4593,
      "<\\": 4594,
      "Ġconclud": 4595,
      "ĠMusic": 4596,
      "Ġdirector": 4597,
      "bon": 4598,
      "Ġdro": 4599,
      "Ġtheorem": 4600,
      "Ġtour": 4601,
      "estival": 4602,
      "=\"../../": 4603,
      "Ġassist": 4604,
      "ĠInc": 4605,
      "ĠMichael": 4606,
      "Ġmechanism": 4607,
      "Ġgave": 4608,
      "tty": 4609,
      "ĠWhite": 4610,
      "Ġtelevision": 4611,
      "ĠDon": 4612,
      "First": 4613,
      "efore": 4614,
      "Ġoptions": 4615,
      "footnote": 4616,
      "_+": 4617,
      "pc": 4618,
      "Text": 4619,
      "*{": 4620,
      "Ġbirths": 4621,
      "Ġchain": 4622,
      "Ġcountries": 4623,
      "54": 4624,
      "outhern": 4625,
      "ifold": 4626,
      "Ġstatement": 4627,
      "ĠFrance": 4628,
      "Ġfollowed": 4629,
      "summary": 4630,
      "prod": 4631,
      "apping": 4632,
      "ria": 4633,
      "ENT": 4634,
      "active": 4635,
      "}'": 4636,
      "dagger": 4637,
      "ĠGeorge": 4638,
      "Be": 4639,
      "upport": 4640,
      "Ġanti": 4641,
      "Ġtransport": 4642,
      "Ġflux": 4643,
      "Ġbooks": 4644,
      "(),": 4645,
      "^{-\\": 4646,
      "Ġreading": 4647,
      "ashed": 4648,
      "oken": 4649,
      "ĠĠĠĠĠĠĠĠĠĠĠĠ": 4650,
      "Ġ$\\{": 4651,
      "ĠDiv": 4652,
      "Ġwanted": 4653,
      "Ġcontroll": 4654,
      "vol": 4655,
      "Ġexactly": 4656,
      "ĠRef": 4657,
      "antic": 4658,
      "Ġplatform": 4659,
      "ĠPress": 4660,
      "Ġchalleng": 4661,
      "Ġsurv": 4662,
      "Ġsupported": 4663,
      "ĠArch": 4664,
      "1996": 4665,
      "Ġmaintain": 4666,
      "men": 4667,
      "ston": 4668,
      "86": 4669,
      "ĠSum": 4670,
      "1990": 4671,
      "Ġreveal": 4672,
      "Ġoperation": 4673,
      "SO": 4674,
      "Ġmicro": 4675,
      "Ġetc": 4676,
      "ĠFound": 4677,
      "ĠSpec": 4678,
      "Ġdefault": 4679,
      "witter": 4680,
      "Ġchoose": 4681,
      "Ġrules": 4682,
      "Ġgauge": 4683,
      "itch": 4684,
      "orthern": 4685,
      "ibly": 4686,
      "Ġprimary": 4687,
      "{$": 4688,
      "Ġresulting": 4689,
      "Ġfeed": 4690,
      "Ġfully": 4691,
      "Ġleads": 4692,
      "Ġstay": 4693,
      "Acc": 4694,
      "Ġeverything": 4695,
      "ĠInstitute": 4696,
      "53": 4697,
      "Ġways": 4698,
      "0000": 4699,
      "Ġnames": 4700,
      "ĠGra": 4701,
      "di": 4702,
      "Ġrelationship": 4703,
      "ĠCap": 4704,
      "Ġdepart": 4705,
      "miss": 4706,
      "){\\": 4707,
      "ĠCong": 4708,
      "Ġrule": 4709,
      "1997": 4710,
      "Ġproper": 4711,
      "Ġadapt": 4712,
      "That": 4713,
      "Ġvolume": 4714,
      "Ġquestions": 4715,
      "ĠAssociation": 4716,
      "Ġvariable": 4717,
      ")|": 4718,
      "vention": 4719,
      "PR": 4720,
      "Ġstream": 4721,
      "Sub": 4722,
      "\\'": 4723,
      "Ġmotion": 4724,
      "Ġcollect": 4725,
      "ĠLeg": 4726,
      "Ġslow": 4727,
      "Ġri": 4728,
      "Ġselect": 4729,
      "ĠSing": 4730,
      "Ġmovie": 4731,
      "Ġreduced": 4732,
      "Ġded": 4733,
      "ingu": 4734,
      "det": 4735,
      "ĠQue": 4736,
      "Ġarriv": 4737,
      "ket": 4738,
      "Ġuniform": 4739,
      "Ġrock": 4740,
      "ĠGet": 4741,
      "Tr": 4742,
      "Ġisn": 4743,
      "eria": 4744,
      "ĠMat": 4745,
      "ride": 4746,
      "enge": 4747,
      "Ġsolid": 4748,
      "89": 4749,
      "sey": 4750,
      "Ġboard": 4751,
      "minus": 4752,
      "Ġoperations": 4753,
      "crete": 4754,
      "Ġobservations": 4755,
      "Ġextra": 4756,
      "ĠPhil": 4757,
      "ĠRoad": 4758,
      "Ġmus": 4759,
      "Ġconnection": 4760,
      "ĠPost": 4761,
      "print": 4762,
      "Ġexpand": 4763,
      "Ġlayer": 4764,
      "Ġoverall": 4765,
      "Ġblue": 4766,
      "++": 4767,
      "Ġsaf": 4768,
      "Ġload": 4769,
      "Ġcast": 4770,
      "ĠAward": 4771,
      "NA": 4772,
      "Ġestablish": 4773,
      "ullet": 4774,
      "Ġiter": 4775,
      "Ġmemory": 4776,
      "Ġapplications": 4777,
      "Ġter": 4778,
      "vest": 4779,
      "rial": 4780,
      "airs": 4781,
      "reek": 4782,
      "ipl": 4783,
      "ĠYear": 4784,
      "ĠMac": 4785,
      "ani": 4786,
      "itar": 4787,
      "object": 4788,
      "Ġincreased": 4789,
      "ona": 4790,
      "ros": 4791,
      "eared": 4792,
      "Ġbeaut": 4793,
      "ĠMa": 4794,
      "uracy": 4795,
      "ĠPre": 4796,
      "Att": 4797,
      "ĠInst": 4798,
      "Ġpanel": 4799,
      "met": 4800,
      "Inst": 4801,
      "['": 4802,
      "Ġappears": 4803,
      "Ġgoes": 4804,
      "wedge": 4805,
      "Ġdiagram": 4806,
      "Ġexplicit": 4807,
      "ĠVol": 4808,
      "76": 4809,
      "ufact": 4810,
      "ĠSw": 4811,
      "adian": 4812,
      "Ġdead": 4813,
      "Vert": 4814,
      "Ġsituation": 4815,
      "writ": 4816,
      "shift": 4817,
      "Ġsoftware": 4818,
      "Ġthreat": 4819,
      "arc": 4820,
      "Ġscore": 4821,
      "ĠAlex": 4822,
      "Ġclassical": 4823,
      "inese": 4824,
      "ĠLou": 4825,
      "Ġgradu": 4826,
      "}},": 4827,
      "Ġhyper": 4828,
      "Ġfriends": 4829,
      "Ġinequ": 4830,
      "Ġscheme": 4831,
      "Ġsamples": 4832,
      "Ġcontinuous": 4833,
      "\\}": 4834,
      "ui": 4835,
      "Ġessential": 4836,
      "Ġstudied": 4837,
      "iques": 4838,
      "Ġdetermine": 4839,
      "ĠMet": 4840,
      "Ġcause": 4841,
      "300": 4842,
      "lt": 4843,
      "escription": 4844,
      "ĠPublic": 4845,
      "Ġ($\\": 4846,
      "Ġbal": 4847,
      "ÃŃ": 4848,
      "Ġarray": 4849,
      "Ġexcept": 4850,
      "overy": 4851,
      "urt": 4852,
      "plate": 4853,
      "ĠGold": 4854,
      "lymp": 4855,
      "Ã¼": 4856,
      "subseteq": 4857,
      "Ġgets": 4858,
      "Ġslight": 4859,
      "Ġgrav": 4860,
      "ĠBen": 4861,
      "ĠSam": 4862,
      "ĠFe": 4863,
      "main": 4864,
      "Ġhence": 4865,
      "BS": 4866,
      "CE": 4867,
      "Ġteams": 4868,
      "oplus": 4869,
      "Ġpreviously": 4870,
      "ternet": 4871,
      "onder": 4872,
      "orage": 4873,
      "_{{\\": 4874,
      "Ġcompletely": 4875,
      "/*": 4876,
      "IF": 4877,
      "attice": 4878,
      "Ġdise": 4879,
      "Ġcurve": 4880,
      "itable": 4881,
      "Ġsymmetry": 4882,
      "Ġconsequ": 4883,
      "Ġtherm": 4884,
      "Ġselection": 4885,
      "iant": 4886,
      "ewidth": 4887,
      "Event": 4888,
      "Ġwide": 4889,
      "uthors": 4890,
      "ĠAngel": 4891,
      "!!": 4892,
      "Ġexam": 4893,
      "94": 4894,
      "ĠHamilton": 4895,
      "ĠTom": 4896,
      "iller": 4897,
      "aven": 4898,
      "bour": 4899,
      "Ġ$-": 4900,
      "Ġpert": 4901,
      "iring": 4902,
      "ĠRobert": 4903,
      "Ġprint": 4904,
      "'ll": 4905,
      "Ġhighly": 4906,
      "ellar": 4907,
      "ĠĠĠĊ": 4908,
      "Ġframework": 4909,
      "Ġcompact": 4910,
      "ĠMag": 4911,
      "93": 4912,
      "1995": 4913,
      "Ġanim": 4914,
      "ĠOther": 4915,
      "Ġoption": 4916,
      "Ġrates": 4917,
      "Ġrecomm": 4918,
      "Ġchem": 4919,
      "Ġtal": 4920,
      "mes": 4921,
      "OM": 4922,
      "Ġmeasured": 4923,
      "lam": 4924,
      "Ġweeks": 4925,
      "Ġbrand": 4926,
      "Reg": 4927,
      "Ġfactors": 4928,
      "ĠRob": 4929,
      "exas": 4930,
      "Ġstraight": 4931,
      "ĠAnn": 4932,
      "Ġbeyond": 4933,
      "case": 4934,
      "Ġapprop": 4935,
      "texttt": 4936,
      "Ġactivity": 4937,
      "Ġmeaning": 4938,
      "reme": 4939,
      "Ġexc": 4940,
      "Ġexpansion": 4941,
      "My": 4942,
      "Ġleave": 4943,
      "Ġparticles": 4944,
      "Ġminimum": 4945,
      "Ġadopt": 4946,
      "Te": 4947,
      "Ġcore": 4948,
      "Ġmis": 4949,
      "Ġuseful": 4950,
      "Ġvs": 4951,
      "Ġprocesses": 4952,
      "_{(": 4953,
      "Ġstructures": 4954,
      "Read": 4955,
      "PC": 4956,
      "Ġcopy": 4957,
      "Ġunits": 4958,
      "78": 4959,
      "Ġarbit": 4960,
      "win": 4961,
      "anger": 4962,
      "ĠBest": 4963,
      "Ġfraction": 4964,
      "Ġgalaxies": 4965,
      "haps": 4966,
      "Ġcomparison": 4967,
      "arr": 4968,
      "Ġinterview": 4969,
      "ifier": 4970,
      "oding": 4971,
      "Ġclasses": 4972,
      "Ġupd": 4973,
      "Ġcard": 4974,
      "uman": 4975,
      "undle": 4976,
      "fil": 4977,
      "Ġfinally": 4978,
      "Ġgenerally": 4979,
      "ĠAre": 4980,
      "ĠJew": 4981,
      "92": 4982,
      "md": 4983,
      "Ġnetworks": 4984,
      "olean": 4985,
      "Ġchosen": 4986,
      "/**": 4987,
      "Ġforms": 4988,
      "Ġ-->": 4989,
      "limits": 4990,
      "Ġprice": 4991,
      "']": 4992,
      "Ġfavor": 4993,
      "Ġwait": 4994,
      "Ġscient": 4995,
      "Ġreturned": 4996,
      "Ġpolynomial": 4997,
      "Ġachieve": 4998,
      "Ġplane": 4999,
      "Ġrelig": 5000,
      "Ġworth": 5001,
      "iency": 5002,
      "Ġrequires": 5003,
      "api": 5004,
      "Ġfair": 5005,
      "cis": 5006,
      "ĠPo": 5007,
      "erry": 5008,
      "eturn": 5009,
      "ba": 5010,
      "ĠDemocr": 5011,
      "Ġdynamics": 5012,
      "Ġnodes": 5013,
      "ĠBre": 5014,
      "irit": 5015,
      "Ġeveryone": 5016,
      "Ed": 5017,
      "Ġmomentum": 5018,
      "GL": 5019,
      "sembly": 5020,
      "Ġlegal": 5021,
      "nel": 5022,
      "Ġsaying": 5023,
      "ĠReview": 5024,
      "':": 5025,
      "iding": 5026,
      "mas": 5027,
      "Ġhttps": 5028,
      "Node": 5029,
      "Ġcry": 5030,
      "olf": 5031,
      "ĠGermany": 5032,
      "ĠSur": 5033,
      "72": 5034,
      "Ġshowed": 5035,
      "Ġparticularly": 5036,
      "Ġcontribution": 5037,
      "edy": 5038,
      "Ġagreement": 5039,
      "Ġnorm": 5040,
      "Ðµ": 5041,
      "Ġparticle": 5042,
      "Sim": 5043,
      "Ġability": 5044,
      "Ġstrategy": 5045,
      "Ġsurpr": 5046,
      "Table": 5047,
      "Ġargument": 5048,
      "Ġfinancial": 5049,
      "Ġrepe": 5050,
      "Ġtrac": 5051,
      "She": 5052,
      "ki": 5053,
      "Ġ(-": 5054,
      "force": 5055,
      "Ġshape": 5056,
      "Ġcos": 5057,
      "ĠIsra": 5058,
      "Ġemission": 5059,
      "Ġult": 5060,
      "Ġmeeting": 5061,
      "However": 5062,
      "Ġsn": 5063,
      "Ġculture": 5064,
      "Ġformula": 5065,
      "Ġtrain": 5066,
      "Ġmaps": 5067,
      "config": 5068,
      "ĠKe": 5069,
      "PE": 5070,
      "Ġderived": 5071,
      "Ġexperiments": 5072,
      "eler": 5073,
      "Ġrelevant": 5074,
      "resents": 5075,
      "ĠMex": 5076,
      "ĠCompany": 5077,
      "resh": 5078,
      "Ġidentity": 5079,
      "Ġlatter": 5080,
      "_*": 5081,
      "Ġprofessional": 5082,
      "Ġstatus": 5083,
      "}%": 5084,
      "Ġdrug": 5085,
      "uls": 5086,
      "Ġensure": 5087,
      "su": 5088,
      "Ġbur": 5089,
      "Ġwife": 5090,
      "Ġconserv": 5091,
      "abase": 5092,
      "Config": 5093,
      "idden": 5094,
      "Ġbounded": 5095,
      "ocation": 5096,
      "ĠScott": 5097,
      "linewidth": 5098,
      "Ġ~": 5099,
      "Ġmale": 5100,
      "setminus": 5101,
      "Out": 5102,
      "Ġsteps": 5103,
      "ĠVir": 5104,
      "$_": 5105,
      "Ġtrade": 5106,
      ")\\,": 5107,
      "Ġproduce": 5108,
      "FL": 5109,
      "ĠRem": 5110,
      "Ġtim": 5111,
      "Path": 5112,
      "Ġobser": 5113,
      "Ġ);": 5114,
      "Ġlives": 5115,
      "Ġsymbol": 5116,
      "Ġdescription": 5117,
      "Ġhope": 5118,
      "Ġ},": 5119,
      "Ġborder": 5120,
      "ropy": 5121,
      "Ġinterpret": 5122,
      "ĠAfrica": 5123,
      "Ġdescribe": 5124,
      "Ġnearly": 5125,
      "ĠMus": 5126,
      "isher": 5127,
      "riday": 5128,
      "aud": 5129,
      "Ġbrother": 5130,
      "Inter": 5131,
      "ĠMary": 5132,
      "Ġcontinued": 5133,
      "CL": 5134,
      "Request": 5135,
      "ĠAN": 5136,
      "cles": 5137,
      "ĠFurther": 5138,
      "Ġheight": 5139,
      "Ġapproximation": 5140,
      "Ġ$[": 5141,
      "anced": 5142,
      "Ser": 5143,
      "ducation": 5144,
      "Ġvillage": 5145,
      "ĠĠĠĠĠĠĠĠĠĠĠĠĠĠĠĠĠĠĠĠĠĠĠĠĠĠĠ": 5146,
      "Ġrow": 5147,
      "Ġdeb": 5148,
      "omin": 5149,
      "Ġexisting": 5150,
      "Ġexamples": 5151,
      "EL": 5152,
      "Ġseven": 5153,
      "Ġframe": 5154,
      "block": 5155,
      "ĠRad": 5156,
      "Ġcompl": 5157,
      "Ġuncertaint": 5158,
      "cons": 5159,
      "pty": 5160,
      "ĠPet": 5161,
      "ĠJul": 5162,
      "Ġextended": 5163,
      "Ġ()": 5164,
      "Ġperturb": 5165,
      "Index": 5166,
      "Ġconsistent": 5167,
      "Ġvariety": 5168,
      "ĠWil": 5169,
      "mercial": 5170,
      "oz": 5171,
      "result": 5172,
      "Ġhop": 5173,
      "Ġelectric": 5174,
      "ulate": 5175,
      "Ġformation": 5176,
      "Ġcoupling": 5177,
      "Ġbrought": 5178,
      "rees": 5179,
      "ĠGreat": 5180,
      "Ġscience": 5181,
      "pid": 5182,
      "Info": 5183,
      "Ġmarg": 5184,
      "Ġbelong": 5185,
      "Pre": 5186,
      "Ġdaugh": 5187,
      "asks": 5188,
      "definition": 5189,
      "Service": 5190,
      "Ġruns": 5191,
      "),\\": 5192,
      "Ġâ": 5193,
      "ĠFin": 5194,
      "Ġinternal": 5195,
      "aching": 5196,
      "Ġcounter": 5197,
      "rivial": 5198,
      "Ġpolar": 5199,
      "title": 5200,
      "Ġ}\\": 5201,
      "Ġforces": 5202,
      "ilarly": 5203,
      "ective": 5204,
      "Ġgreater": 5205,
      "Ġhous": 5206,
      "Ġconcent": 5207,
      "gu": 5208,
      "ĠMiss": 5209,
      "Ġconstit": 5210,
      "oma": 5211,
      "paramet": 5212,
      "term": 5213,
      "Ġneighbor": 5214,
      "reedom": 5215,
      "Ġabsol": 5216,
      "ĠNor": 5217,
      "ĠUnion": 5218,
      "ĠMad": 5219,
      "anned": 5220,
      "Ġimag": 5221,
      "ollary": 5222,
      "Ġbasic": 5223,
      "ĠService": 5224,
      "OL": 5225,
      "2022": 5226,
      "Ġdataset": 5227,
      "Med": 5228,
      "ĠSal": 5229,
      "oat": 5230,
      "NS": 5231,
      "Ġfamilies": 5232,
      "height": 5233,
      "Ġvertex": 5234,
      "igation": 5235,
      "Ġsignificantly": 5236,
      "Ġdram": 5237,
      "Ġpurch": 5238,
      "Ġcommand": 5239,
      "ĠIsland": 5240,
      "ĠProgram": 5241,
      "velopment": 5242,
      "iral": 5243,
      "ĠDec": 5244,
      "ita": 5245,
      "Ġfix": 5246,
      "ĠCre": 5247,
      "Ġcluster": 5248,
      "Ġbeginning": 5249,
      "Build": 5250,
      "EM": 5251,
      "ĠLand": 5252,
      "Ġlic": 5253,
      "black": 5254,
      "cho": 5255,
      "Net": 5256,
      "ror": 5257,
      "Ġchanged": 5258,
      "coming": 5259,
      "Ġembedd": 5260,
      "Trans": 5261,
      "BA": 5262,
      "Pr": 5263,
      "Ġoptimal": 5264,
      "Ġschools": 5265,
      "ua": 5266,
      "ĠSociety": 5267,
      "_{-": 5268,
      "rey": 5269,
      "Ġsimpl": 5270,
      "ĠEv": 5271,
      "Ġpen": 5272,
      "Ġsongs": 5273,
      "Ġsubset": 5274,
      "ancy": 5275,
      "Ġpull": 5276,
      "page": 5277,
      "inder": 5278,
      ")/": 5279,
      "Ġspat": 5280,
      "Ġidentified": 5281,
      "acebook": 5282,
      "Ġformed": 5283,
      "ĠSund": 5284,
      "Ġcapital": 5285,
      "oom": 5286,
      "void": 5287,
      "ĠSun": 5288,
      "Ġepisode": 5289,
      "Ġsec": 5290,
      "sol": 5291,
      "Pol": 5292,
      "ĠStar": 5293,
      "inem": 5294,
      "ĠYour": 5295,
      "uting": 5296,
      "ĠSee": 5297,
      "alo": 5298,
      "reshold": 5299,
      "Ġresolution": 5300,
      "host": 5301,
      "ĠDel": 5302,
      "post": 5303,
      "Ġsubsequ": 5304,
      "names": 5305,
      "Ġwid": 5306,
      "Ġcontrast": 5307,
      "soft": 5308,
      "ĠNov": 5309,
      "Ġcomputer": 5310,
      "fess": 5311,
      "ervices": 5312,
      "Ġpretty": 5313,
      "Ġnumerical": 5314,
      "Ġopened": 5315,
      "Ġhighest": 5316,
      "oting": 5317,
      "Ġplaces": 5318,
      "Ġrepresents": 5319,
      "ĠProposition": 5320,
      "||": 5321,
      "Ġgreen": 5322,
      "aligned": 5323,
      "Ġshot": 5324,
      "Bar": 5325,
      "TS": 5326,
      "](": 5327,
      "63": 5328,
      "ĠClub": 5329,
      "ĠAlso": 5330,
      "Co": 5331,
      ",\\,": 5332,
      "Ġgovern": 5333,
      "Ġwrong": 5334,
      "Ġstories": 5335,
      "abilities": 5336,
      "inite": 5337,
      "1994": 5338,
      "Ġdiscussion": 5339,
      "Ġmole": 5340,
      "war": 5341,
      "bi": 5342,
      "Ġcouple": 5343,
      "Ġmentioned": 5344,
      "ĠData": 5345,
      "ĠArmy": 5346,
      "free": 5347,
      ")}(": 5348,
      "Ġkilled": 5349,
      "stack": 5350,
      "cel": 5351,
      "Field": 5352,
      "Ġplant": 5353,
      "Ġpark": 5354,
      "())": 5355,
      "Ġappoint": 5356,
      "Map": 5357,
      "Ġtru": 5358,
      "tes": 5359,
      "Ġemail": 5360,
      "ano": 5361,
      "91": 5362,
      "tem": 5363,
      "Ġserious": 5364,
      "ĠChristian": 5365,
      "Ġprogress": 5366,
      "deg": 5367,
      "Ġturned": 5368,
      "ĠTor": 5369,
      "Ġmedical": 5370,
      "abled": 5371,
      "Ġ|\\": 5372,
      "Ġkm": 5373,
      "ĠTexas": 5374,
      "Ġbank": 5375,
      "ĠSl": 5376,
      "Ġlatest": 5377,
      "Ġprofile": 5378,
      "Ġaccuracy": 5379,
      "otion": 5380,
      "1980": 5381,
      "Ġgiving": 5382,
      "Ġreduce": 5383,
      "####": 5384,
      "Ð¸": 5385,
      "inner": 5386,
      "Ġpm": 5387,
      "ĠFore": 5388,
      "ishes": 5389,
      "ĠAP": 5390,
      "ĠUSA": 5391,
      "Ġ\\(": 5392,
      "Ġsimulations": 5393,
      "Ġorigin": 5394,
      "Ġstudent": 5395,
      "Ġcool": 5396,
      "Ġestimated": 5397,
      "Ġheavy": 5398,
      "Ġcalculated": 5399,
      "Ġminim": 5400,
      "Ġassess": 5401,
      "has": 5402,
      "ecting": 5403,
      "ether": 5404,
      "Ġscene": 5405,
      "Ġjournal": 5406,
      "62": 5407,
      "ĠCentral": 5408,
      "Ġmoving": 5409,
      "84": 5410,
      "rat": 5411,
      "Ġcompleted": 5412,
      "Ġmiddle": 5413,
      "Ġinstit": 5414,
      "Go": 5415,
      "Ġotherwise": 5416,
      "ĠHill": 5417,
      "ĠSmith": 5418,
      "Ġprocedure": 5419,
      "base": 5420,
      "ala": 5421,
      "azine": 5422,
      "rupt": 5423,
      "gt": 5424,
      "Part": 5425,
      "Ġblood": 5426,
      "bin": 5427,
      "Ġtraditional": 5428,
      "build": 5429,
      "Ġdecay": 5430,
      "Ġsen": 5431,
      "Ġclearly": 5432,
      "RA": 5433,
      "ena": 5434,
      "ĠOver": 5435,
      "Ġdual": 5436,
      "\\\"": 5437,
      "Ġplot": 5438,
      "CS": 5439,
      "Ġ+\\": 5440,
      "Ġmeasurements": 5441,
      "=-": 5442,
      "Ġpain": 5443,
      "Ġexperimental": 5444,
      "stream": 5445,
      "ĠGoogle": 5446,
      "ĠChinese": 5447,
      "endix": 5448,
      "othes": 5449,
      "Context": 5450,
      "stant": 5451,
      "Ġresources": 5452,
      "?âĢĿ": 5453,
      "'\\": 5454,
      "Ġradius": 5455,
      "Ġaspect": 5456,
      "Ġexpert": 5457,
      "asure": 5458,
      "ih": 5459,
      "Ġcloud": 5460,
      "venue": 5461,
      "Ġimmediately": 5462,
      "uations": 5463,
      "ĠThomas": 5464,
      "ĠTur": 5465,
      "Ġspeak": 5466,
      "content": 5467,
      "za": 5468,
      "ifically": 5469,
      "$(": 5470,
      "subfigure": 5471,
      "Ġdecided": 5472,
      "room": 5473,
      "count": 5474,
      "ĠRussian": 5475,
      "=(": 5476,
      "inf": 5477,
      "house": 5478,
      "Ġvisual": 5479,
      "Ġgun": 5480,
      "ĠOpen": 5481,
      "ira": 5482,
      "ĠHence": 5483,
      "Fl": 5484,
      "Ass": 5485,
      "74": 5486,
      "ĠRoman": 5487,
      "Ġbuy": 5488,
      "Ġpaint": 5489,
      "ĠBer": 5490,
      "onald": 5491,
      "Ġdebut": 5492,
      "Ġadvant": 5493,
      "fficients": 5494,
      "Ġobvious": 5495,
      "alian": 5496,
      "ĠBill": 5497,
      "ĠFlor": 5498,
      "start": 5499,
      "Ġspaces": 5500,
      "ellig": 5501,
      "Ġbottom": 5502,
      "MM": 5503,
      "FT": 5504,
      "Ġgeneration": 5505,
      "Ġsummer": 5506,
      "ĠPlan": 5507,
      "ĠRel": 5508,
      "Ġcru": 5509,
      "Ġbr": 5510,
      "Ġcivil": 5511,
      "Ġprevent": 5512,
      "ĠAcadem": 5513,
      "Ġoffers": 5514,
      "ĠBusiness": 5515,
      "Ġjoined": 5516,
      "'_": 5517,
      "real": 5518,
      "Ġcategory": 5519,
      "ĠCD": 5520,
      "gn": 5521,
      "IA": 5522,
      "82": 5523,
      "Ġsquare": 5524,
      "ĠRead": 5525,
      "Ġ/*": 5526,
      "eds": 5527,
      "Ġeconomic": 5528,
      "Ġdigital": 5529,
      "Ġanyone": 5530,
      "ypes": 5531,
      "izer": 5532,
      "Ġprep": 5533,
      "Color": 5534,
      "Eq": 5535,
      "Ġpoly": 5536,
      "61": 5537,
      "Ġextract": 5538,
      "These": 5539,
      "ĠRoyal": 5540,
      "current": 5541,
      "Ġmur": 5542,
      "DA": 5543,
      "Ġ&=&": 5544,
      "Ġshoot": 5545,
      "Ġupdate": 5546,
      "={": 5547,
      "Ġprem": 5548,
      "Ġfa": 5549,
      "}}(\\": 5550,
      "Ġappeared": 5551,
      "ĠTime": 5552,
      "Ġcarry": 5553,
      "Ġspectral": 5554,
      "Ġtheore": 5555,
      "ĠOF": 5556,
      "ĠSet": 5557,
      "icago": 5558,
      "arant": 5559,
      "Ġsatisfies": 5560,
      "Ġexistence": 5561,
      "colon": 5562,
      "1993": 5563,
      "TH": 5564,
      "GB": 5565,
      "Ġactivities": 5566,
      "Ġpurpose": 5567,
      "Ġsometimes": 5568,
      "EO": 5569,
      "73": 5570,
      "Ġplans": 5571,
      "[]": 5572,
      "Ġsyn": 5573,
      "CP": 5574,
      "ĠMem": 5575,
      "Ġconsists": 5576,
      "Ġmanufact": 5577,
      "ĠMuseum": 5578,
      "End": 5579,
      "69": 5580,
      "Ġdemand": 5581,
      "';": 5582,
      "Ġtransl": 5583,
      "atre": 5584,
      "riz": 5585,
      "ĠTHE": 5586,
      "ĠAfrican": 5587,
      "ĠSuper": 5588,
      "Ġdepends": 5589,
      "Ġbirth": 5590,
      "ĠOlymp": 5591,
      "ĠHistory": 5592,
      "ĠAustralian": 5593,
      "ras": 5594,
      "Ġmovement": 5595,
      "Ġquickly": 5596,
      "Ġgold": 5597,
      "1992": 5598,
      "ĠGrand": 5599,
      "Ġcit": 5600,
      "ustain": 5601,
      "ĠBig": 5602,
      "ulture": 5603,
      "Ġ(!": 5604,
      "istan": 5605,
      "ĠMont": 5606,
      "EX": 5607,
      "ogue": 5608,
      "Ġcorresponds": 5609,
      "Figure": 5610,
      "Ġign": 5611,
      "iler": 5612,
      "Ġconstraints": 5613,
      "orter": 5614,
      "Ġincreases": 5615,
      "aturday": 5616,
      "zer": 5617,
      "Code": 5618,
      "Ġincor": 5619,
      "Ġchurch": 5620,
      "People": 5621,
      "flow": 5622,
      "Ġreplace": 5623,
      "Ġcombination": 5624,
      "inger": 5625,
      "Ġintegral": 5626,
      "Ġsigned": 5627,
      "ĠFrancis": 5628,
      "jo": 5629,
      "Ġrepresented": 5630,
      "ATE": 5631,
      "porary": 5632,
      "arl": 5633,
      "Ġjoint": 5634,
      "ĠMoreover": 5635,
      "ollowing": 5636,
      "Ġfine": 5637,
      "road": 5638,
      "ĠRock": 5639,
      "Che": 5640,
      "ĠKore": 5641,
      "roduction": 5642,
      "Ġauthors": 5643,
      "Ġmut": 5644,
      "((": 5645,
      "Can": 5646,
      "ĠLat": 5647,
      "Ġdirected": 5648,
      "default": 5649,
      "Ġcorrelation": 5650,
      "erman": 5651,
      "Ġthrow": 5652,
      "CA": 5653,
      "Ġonto": 5654,
      "actions": 5655,
      "Ã¶": 5656,
      "iled": 5657,
      "ĠMinister": 5658,
      "Ġpoor": 5659,
      "Ġsecret": 5660,
      "apache": 5661,
      "Ġremain": 5662,
      "Ġreached": 5663,
      "ĠMost": 5664,
      "ĠIr": 5665,
      "Ġwasn": 5666,
      "ĠST": 5667,
      "Ġ});": 5668,
      "Ġrecorded": 5669,
      "83": 5670,
      "ĠGovernment": 5671,
      "ĠCommission": 5672,
      "ĠCongress": 5673,
      "inding": 5674,
      "ympt": 5675,
      ")_{": 5676,
      "Ġparents": 5677,
      "Ġlattice": 5678,
      "Ġextrem": 5679,
      ":\\": 5680,
      "FA": 5681,
      "core": 5682,
      "ernel": 5683,
      "Ġmissing": 5684,
      "Ġpiece": 5685,
      "Ġprograms": 5686,
      "Ġsort": 5687,
      "Ġcelebr": 5688,
      "imeq": 5689,
      "anda": 5690,
      "Ġconfiguration": 5691,
      "Ġscalar": 5692,
      "Ġple": 5693,
      "produ": 5694,
      "simeq": 5695,
      "gorithms": 5696,
      "Ġdomin": 5697,
      "Ġamb": 5698,
      "ĠÂ£": 5699,
      "ĠCamp": 5700,
      "\\!\\!": 5701,
      "Ġconv": 5702,
      "Ġremaining": 5703,
      "Ġactual": 5704,
      "Ġwindow": 5705,
      "ĠOffice": 5706,
      "Ġstrength": 5707,
      "79": 5708,
      "Ġleader": 5709,
      "Ġextension": 5710,
      "Ġedges": 5711,
      "ĠCarol": 5712,
      "ologies": 5713,
      "ĠPM": 5714,
      "sto": 5715,
      "Ġstore": 5716,
      "Ġliterature": 5717,
      "Ġproviding": 5718,
      "Ġcaused": 5719,
      "Ġangle": 5720,
      "Ġrail": 5721,
      "Ġprojects": 5722,
      "Ġassumption": 5723,
      "Ġunderstanding": 5724,
      "ĠFriday": 5725,
      "Ġcollabor": 5726,
      "forall": 5727,
      "Ġdetection": 5728,
      "Ġappropriate": 5729,
      "values": 5730,
      "Ġvertices": 5731,
      "Ġbrief": 5732,
      "Ġaw": 5733,
      ")^{\\": 5734,
      "Ġsites": 5735,
      "perp": 5736,
      "While": 5737,
      "ĠTop": 5738,
      "ĠHen": 5739,
      "Ġgrant": 5740,
      "sych": 5741,
      "71": 5742,
      "Ġvoice": 5743,
      "ĠAtt": 5744,
      "zero": 5745,
      "owers": 5746,
      "Ġdefe": 5747,
      "weight": 5748,
      "ĠDuring": 5749,
      "Ġtechniques": 5750,
      "Mar": 5751,
      ")^{-": 5752,
      "pat": 5753,
      "Ġapproximately": 5754,
      "Ġsurround": 5755,
      "column": 5756,
      "}$-": 5757,
      "ĠProject": 5758,
      "ĠBrown": 5759,
      "ymmet": 5760,
      "400": 5761,
      "cases": 5762,
      "va": 5763,
      "ĠSk": 5764,
      "Ġflat": 5765,
      "ĠFoundation": 5766,
      "ĠTwo": 5767,
      "Ent": 5768,
      "Ġmodule": 5769,
      "lines": 5770,
      "Ġreceive": 5771,
      "HT": 5772,
      "Ġhoriz": 5773,
      "Ġstated": 5774,
      "Ġinfluence": 5775,
      "local": 5776,
      "cknow": 5777,
      "iful": 5778,
      "ĠTown": 5779,
      "enty": 5780,
      "ĠPeter": 5781,
      "urrent": 5782,
      "Ġnoted": 5783,
      "Ġanswer": 5784,
      "Ġoccup": 5785,
      "Element": 5786,
      "ĠJer": 5787,
      "Ġdrive": 5788,
      "Ref": 5789,
      "ogene": 5790,
      "Model": 5791,
      "then": 5792,
      "udd": 5793,
      "Ġgrand": 5794,
      "attering": 5795,
      "Ġ]": 5796,
      "Ġsimulation": 5797,
      "Ġcomments": 5798,
      "Ġfemale": 5799,
      "osh": 5800,
      "subsubsection": 5801,
      "Next": 5802,
      "Ġcompute": 5803,
      "Ġfelt": 5804,
      "Item": 5805,
      "Ġintroduce": 5806,
      "Ġharm": 5807,
      "ĠHel": 5808,
      "ette": 5809,
      "Ġvac": 5810,
      "Ġpartners": 5811,
      "Ġhands": 5812,
      "Ġhar": 5813,
      "web": 5814,
      "while": 5815,
      "alysis": 5816,
      "Ġclean": 5817,
      "neg": 5818,
      "Comm": 5819,
      "Ġinequality": 5820,
      "rivate": 5821,
      ".~(\\": 5822,
      "Ġreports": 5823,
      "Ġpassed": 5824,
      "Per": 5825,
      "ĠLu": 5826,
      "81": 5827,
      "ĠLife": 5828,
      "ĠDirector": 5829,
      "ĠWind": 5830,
      "ĠAlthough": 5831,
      "Ġspent": 5832,
      "method": 5833,
      "sur": 5834,
      "ayout": 5835,
      "Array": 5836,
      "create": 5837,
      "Ġlooks": 5838,
      "amental": 5839,
      "Ġopportunity": 5840,
      "ĠJose": 5841,
      "undred": 5842,
      "Ġopening": 5843,
      "Ġefficient": 5844,
      "ĠRichard": 5845,
      "TV": 5846,
      "ĠUp": 5847,
      "icks": 5848,
      "Ġweb": 5849,
      "ictor": 5850,
      "Ġpropag": 5851,
      "ĠDivision": 5852,
      "Ġerrors": 5853,
      "Ġmachine": 5854,
      "Ġcoefficients": 5855,
      "Ġslightly": 5856,
      "anish": 5857,
      "udget": 5858,
      "Ġpolitic": 5859,
      "gener": 5860,
      "^{+": 5861,
      "icated": 5862,
      "ias": 5863,
      "alg": 5864,
      "Ġanc": 5865,
      "Ġfans": 5866,
      "Ġpure": 5867,
      "ilib": 5868,
      "ĠRussia": 5869,
      "Ġphen": 5870,
      "Ġbus": 5871,
      "ĠWestern": 5872,
      "Ġapproaches": 5873,
      "assert": 5874,
      "asket": 5875,
      "Group": 5876,
      "java": 5877,
      "Ġidentify": 5878,
      "Ġdistinct": 5879,
      "Ġsports": 5880,
      "Me": 5881,
      "ĠMer": 5882,
      "ĠTimes": 5883,
      "Ġactions": 5884,
      "Ġnation": 5885,
      "ashion": 5886,
      "{$\\": 5887,
      "Ġcat": 5888,
      "ĠAccording": 5889,
      "ĠEarth": 5890,
      "otal": 5891,
      "Log": 5892,
      "Hand": 5893,
      "Ġdaughter": 5894,
      "gent": 5895,
      "ester": 5896,
      "char": 5897,
      "weet": 5898,
      "ĠDen": 5899,
      "Ġearn": 5900,
      "Ġdevices": 5901,
      "ĠWomen": 5902,
      "Ġrespond": 5903,
      "rot": 5904,
      "dx": 5905,
      "}^*": 5906,
      "Ġunivers": 5907,
      "ĠFacebook": 5908,
      "ĠMo": 5909,
      "Ġsafety": 5910,
      "info": 5911,
      "Ġring": 5912,
      "SI": 5913,
      "ĠCath": 5914,
      "ĠManagement": 5915,
      "Ġrelatively": 5916,
      "History": 5917,
      "Ġcontaining": 5918,
      "atically": 5919,
      "They": 5920,
      "Ġ__": 5921,
      "Ġtensor": 5922,
      "yan": 5923,
      "fit": 5924,
      "ĠTest": 5925,
      "ĠSu": 5926,
      "ĠMel": 5927,
      "rect": 5928,
      "Ġeventually": 5929,
      "Ġartist": 5930,
      "yr": 5931,
      "Ġagent": 5932,
      "liament": 5933,
      "Do": 5934,
      "ĠCommittee": 5935,
      "Ġplaced": 5936,
      "Ġinde": 5937,
      "ĠLouis": 5938,
      "Ġinform": 5939,
      "ĠSol": 5940,
      "Ġmess": 5941,
      "Ġalone": 5942,
      "ĠEducation": 5943,
      "Ġmarried": 5944,
      "Ġroot": 5945,
      "Size": 5946,
      "grad": 5947,
      "Ġthick": 5948,
      "iling": 5949,
      "esh": 5950,
      "\"\"": 5951,
      "erved": 5952,
      "Ġship": 5953,
      "Ġteacher": 5954,
      "iverse": 5955,
      "PA": 5956,
      "ĠSunday": 5957,
      "onday": 5958,
      "first": 5959,
      "Ġspread": 5960,
      "lient": 5961,
      "Spec": 5962,
      "ĠVirgin": 5963,
      "âĢĿ.": 5964,
      "////////": 5965,
      "Ġshowing": 5966,
      "Ġreflect": 5967,
      "mann": 5968,
      "Ġdistributions": 5969,
      "System": 5970,
      "Ġmeasures": 5971,
      "Ġcorrel": 5972,
      "illa": 5973,
      "hom": 5974,
      "Ġsector": 5975,
      "Ġprote": 5976,
      "child": 5977,
      "ĠGr": 5978,
      "ĠSeries": 5979,
      "Ġinstrum": 5980,
      "Ġsampl": 5981,
      "Ne": 5982,
      "Ġstable": 5983,
      "Ġlaun": 5984,
      "ĠForm": 5985,
      "Ġartists": 5986,
      "SM": 5987,
      "Ġexcit": 5988,
      "ĠBoard": 5989,
      "west": 5990,
      "='": 5991,
      "Ġbul": 5992,
      "TD": 5993,
      "Ġwild": 5994,
      "Ġheard": 5995,
      "ĠSecond": 5996,
      "Ġut": 5997,
      "etime": 5998,
      "Ġmodes": 5999,
      "ipp": 6000,
      "comple": 6001,
      "Ġdeaths": 6002,
      "Ġchance": 6003,
      "ĠGood": 6004,
      "yles": 6005,
      "Ġodd": 6006,
      "omic": 6007,
      "oration": 6008,
      "apers": 6009,
      "Ġplays": 6010,
      "ĠUnder": 6011,
      "ponse": 6012,
      "seud": 6013,
      "=\"../../../../": 6014,
      "Ġlaws": 6015,
      "Ġorganization": 6016,
      "asy": 6017,
      "Ġvote": 6018,
      "ĠCanadian": 6019,
      "ĠAM": 6020,
      "lig": 6021,
      "$).": 6022,
      "1970": 6023,
      "ASS": 6024,
      "valid": 6025,
      "module": 6026,
      "FC": 6027,
      "rium": 6028,
      "Ġquarter": 6029,
      "Ġinner": 6030,
      "ĠMedia": 6031,
      "Ġseparate": 6032,
      "SR": 6033,
      "uffer": 6034,
      "Ġoil": 6035,
      "inv": 6036,
      "define": 6037,
      "ĠLos": 6038,
      "ensus": 6039,
      "Ġow": 6040,
      "eck": 6041,
      "Ġformal": 6042,
      "ĠJournal": 6043,
      "1991": 6044,
      "}}^": 6045,
      "Ġshared": 6046,
      "Ġresol": 6047,
      "Ġcurves": 6048,
      "Ġaccur": 6049,
      "Ġroll": 6050,
      "Message": 6051,
      "osite": 6052,
      "Ġinvariant": 6053,
      "****************": 6054,
      "Ġgrowing": 6055,
      "bel": 6056,
      "Ġfilter": 6057,
      "newcommand": 6058,
      "Ġcombined": 6059,
      "icity": 6060,
      "Count": 6061,
      "SA": 6062,
      "Ġresource": 6063,
      "Ġconfir": 6064,
      "$^{-": 6065,
      "ounds": 6066,
      "Ġcontributions": 6067,
      "Ġdisease": 6068,
      "$$\\": 6069,
      "Ġinteractions": 6070,
      "Ġlisted": 6071,
      "........": 6072,
      "Ġtun": 6073,
      "itors": 6074,
      "Ġentry": 6075,
      "ĠEqu": 6076,
      ">&": 6077,
      "orial": 6078,
      "Ġfourth": 6079,
      "Ġdisk": 6080,
      "vex": 6081,
      "Ġminor": 6082,
      "Ġ;": 6083,
      "ĠBank": 6084,
      "actory": 6085,
      "matrix": 6086,
      "Ġfarm": 6087,
      "Ġsal": 6088,
      "Ġlif": 6089,
      "Ġdespite": 6090,
      "Ġcook": 6091,
      "ĠNetwork": 6092,
      "ĠFlorida": 6093,
      "Ġmassive": 6094,
      ")}{\\": 6095,
      "Ġmeasurement": 6096,
      "Ġdependence": 6097,
      "ĠFrank": 6098,
      "Ġcapacity": 6099,
      "stract": 6100,
      "ÑĤ": 6101,
      "ĠPlay": 6102,
      "rive": 6103,
      "uppose": 6104,
      "Ġinterested": 6105,
      "'d": 6106,
      "Ġtouch": 6107,
      "Ġmorning": 6108,
      "mic": 6109,
      "des": 6110,
      "Ġ=\\": 6111,
      "Ġestimates": 6112,
      "kin": 6113,
      "ĠOper": 6114,
      "Ġmajority": 6115,
      "ĠBi": 6116,
      "ĠJapanese": 6117,
      "ĠEach": 6118,
      "Ġcosts": 6119,
      "Ġabsor": 6120,
      "sect": 6121,
      "ĠProv": 6122,
      "Ġeyes": 6123,
      "image": 6124,
      "Ġgenerate": 6125,
      "Ġfirm": 6126,
      "Ġreplaced": 6127,
      "Fe": 6128,
      "Ġinstall": 6129,
      "Ġdenotes": 6130,
      "acter": 6131,
      "Ġitem": 6132,
      "Ġutil": 6133,
      "Ġdifferences": 6134,
      "unicip": 6135,
      "ĠAut": 6136,
      "chers": 6137,
      "ato": 6138,
      "ĠBur": 6139,
      "Thus": 6140,
      ".$": 6141,
      "ĠMass": 6142,
      "Ð½": 6143,
      "Ġalgorithms": 6144,
      "cr": 6145,
      "rep": 6146,
      "bed": 6147,
      "ications": 6148,
      "ao": 6149,
      "Ġ$$": 6150,
      "bottom": 6151,
      "cd": 6152,
      "rons": 6153,
      "Ġclient": 6154,
      "Ġindividuals": 6155,
      "context": 6156,
      "Ġthreshold": 6157,
      "Ġencou": 6158,
      "Image": 6159,
      "ĠGames": 6160,
      "Ġsrc": 6161,
      "reland": 6162,
      "TC": 6163,
      "uled": 6164,
      "Ġarbitrary": 6165,
      "Ġdetailed": 6166,
      "Ġenter": 6167,
      "Last": 6168,
      "Ġquad": 6169,
      "ĠWed": 6170,
      "itation": 6171,
      "ski": 6172,
      "Ġcalc": 6173,
      "Ġmer": 6174,
      "Ġsingular": 6175,
      "Ġtransformation": 6176,
      "Ġattract": 6177,
      "Ġcompetition": 6178,
      "example": 6179,
      "PL": 6180,
      "Ġwriter": 6181,
      "Ġagree": 6182,
      "Ġcommunication": 6183,
      "uster": 6184,
      "dim": 6185,
      "ĠOh": 6186,
      "Ġrise": 6187,
      "Ġcarried": 6188,
      "pmatrix": 6189,
      "ĠSaturday": 6190,
      "Ġtit": 6191,
      "--------------------------------": 6192,
      "Ġclin": 6193,
      "Ġbillion": 6194,
      "gest": 6195,
      "ĠPeople": 6196,
      "Ġpairs": 6197,
      "Ġinterface": 6198,
      "Ġcatch": 6199,
      "km": 6200,
      "Ġexpressed": 6201,
      "elled": 6202,
      "Ġbehavi": 6203,
      "Ġ};": 6204,
      "Ã¤": 6205,
      "'}": 6206,
      "Ġcop": 6207,
      "Ġheat": 6208,
      "Ġcompare": 6209,
      "ructure": 6210,
      "eller": 6211,
      "erred": 6212,
      "bullet": 6213,
      "oday": 6214,
      "graph": 6215,
      "false": 6216,
      "olk": 6217,
      "Ġthous": 6218,
      "quare": 6219,
      "only": 6220,
      "osis": 6221,
      "ĠChicago": 6222,
      "Conn": 6223,
      "Ġorient": 6224,
      "ĠKingdom": 6225,
      "Ġtor": 6226,
      "ĠLake": 6227,
      "Ġcandidate": 6228,
      "ĠExp": 6229,
      "Ġassumed": 6230,
      "Ġbeg": 6231,
      "Ġfailed": 6232,
      "OC": 6233,
      "fort": 6234,
      "Ġrapid": 6235,
      "Ġhydro": 6236,
      "oder": 6237,
      "ĉĉĉĉĉĉ": 6238,
      "Ġcoach": 6239,
      "textsc": 6240,
      "css": 6241,
      "related": 6242,
      "Ġdu": 6243,
      "Ġspatial": 6244,
      "ĠSil": 6245,
      "Call": 6246,
      "azz": 6247,
      "Ġalternative": 6248,
      "Ġcancer": 6249,
      "Ġcycle": 6250,
      "ursday": 6251,
      ")\\\\": 6252,
      "google": 6253,
      "istical": 6254,
      "dev": 6255,
      "ĠPan": 6256,
      "Ġcollege": 6257,
      "Ġitems": 6258,
      "Ġsle": 6259,
      "Ġtrust": 6260,
      "ĠDevelopment": 6261,
      "ola": 6262,
      "she": 6263,
      "contain": 6264,
      "Ġpicture": 6265,
      "ĠSocial": 6266,
      "static": 6267,
      "agraph": 6268,
      "Ġyields": 6269,
      "agonal": 6270,
      "ĠCam": 6271,
      "Ġ>>": 6272,
      "ĠAtl": 6273,
      "Ġ===": 6274,
      "SD": 6275,
      "oving": 6276,
      "ears": 6277,
      "db": 6278,
      "faces": 6279,
      "displaystyle": 6280,
      "})$.": 6281,
      "Ġsymmetric": 6282,
      "ĠHot": 6283,
      "poses": 6284,
      "ĠJun": 6285,
      "Ġspectra": 6286,
      "tx": 6287,
      "Ġnuclear": 6288,
      "Ġdivid": 6289,
      "prob": 6290,
      "Ġcommercial": 6291,
      "({": 6292,
      "Ġsociety": 6293,
      "Ġexternal": 6294,
      "poss": 6295,
      "ella": 6296,
      "SL": 6297,
      "Ġeffort": 6298,
      "Ġsales": 6299,
      "UL": 6300,
      "ady": 6301,
      "inity": 6302,
      "Ġrev": 6303,
      "ĠCharles": 6304,
      "ĠEven": 6305,
      "Ġorb": 6306,
      "ancing": 6307,
      "ULL": 6308,
      "Ġalleg": 6309,
      "Ġmostly": 6310,
      "ĠChild": 6311,
      "fs": 6312,
      "process": 6313,
      "\\|_{": 6314,
      "hemat": 6315,
      "Ġmaterials": 6316,
      "ferent": 6317,
      "ĠJo": 6318,
      "Ġpowerful": 6319,
      "ĠIran": 6320,
      "ĠOffic": 6321,
      "chen": 6322,
      "Ġnil": 6323,
      "Ġjava": 6324,
      "Ġdepth": 6325,
      "ĠLie": 6326,
      "ĠMartin": 6327,
      "pg": 6328,
      "Ġresponsible": 6329,
      "150": 6330,
      "Source": 6331,
      "uesday": 6332,
      "Ġquas": 6333,
      "ync": 6334,
      "stein": 6335,
      "Ġbranch": 6336,
      "ĠEnd": 6337,
      "Eng": 6338,
      "Ġoptical": 6339,
      ")--": 6340,
      "Ġhuge": 6341,
      "omorphic": 6342,
      "ribution": 6343,
      "hbar": 6344,
      "Ġproceed": 6345,
      "ĠServices": 6346,
      "Ġfinished": 6347,
      "nergy": 6348,
      "Living": 6349,
      "ĠHome": 6350,
      "osure": 6351,
      "lies": 6352,
      "lick": 6353,
      "ĠShow": 6354,
      "ĠParis": 6355,
      "aylor": 6356,
      "Ġtruth": 6357,
      "Ġproved": 6358,
      "rich": 6359,
      "Ġque": 6360,
      "amely": 6361,
      "ĠIts": 6362,
      "rowser": 6363,
      "thlet": 6364,
      "Ġstellar": 6365,
      "_-": 6366,
      "Ġplease": 6367,
      "composition": 6368,
      "Ġknew": 6369,
      "bas": 6370,
      "Ġforeign": 6371,
      "Ġreduction": 6372,
      "ĠJud": 6373,
      "ĠAcademy": 6374,
      "vere": 6375,
      "annels": 6376,
      "rical": 6377,
      "Ġsch": 6378,
      "mma": 6379,
      "Ġhear": 6380,
      "1000": 6381,
      "lication": 6382,
      "omy": 6383,
      "abil": 6384,
      "Ġwest": 6385,
      "system": 6386,
      "osc": 6387,
      ")$-": 6388,
      "pass": 6389,
      "Hz": 6390,
      "Ġparallel": 6391,
      "Ġwants": 6392,
      "Ġmission": 6393,
      "Ġnone": 6394,
      "Ġtypically": 6395,
      "ĠMicro": 6396,
      "Ġexchange": 6397,
      "Ġwonder": 6398,
      "Ġphone": 6399,
      "{{": 6400,
      "Ġmanager": 6401,
      "Ġregist": 6402,
      "Ġtypical": 6403,
      "tri": 6404,
      "}}^{": 6405,
      "1989": 6406,
      "remark": 6407,
      "Ġcritic": 6408,
      "ogs": 6409,
      "CR": 6410,
      "ĠDu": 6411,
      "Ġrecords": 6412,
      "ĠSecret": 6413,
      "BL": 6414,
      "chang": 6415,
      "Act": 6416,
      "aby": 6417,
      "Ġmorph": 6418,
      "iate": 6419,
      "Box": 6420,
      "rage": 6421,
      "Exp": 6422,
      "Ġreasons": 6423,
      "Ġreconst": 6424,
      "Ġcomputed": 6425,
      "alls": 6426,
      "Ġbattle": 6427,
      "Ġguarant": 6428,
      "Back": 6429,
      "Ġwood": 6430,
      "Ġcircle": 6431,
      "aver": 6432,
      "ĠLong": 6433,
      "pton": 6434,
      "Ġvary": 6435,
      "Ġefforts": 6436,
      "cular": 6437,
      "ĠBr": 6438,
      "ĠArts": 6439,
      "dl": 6440,
      "ĠAngeles": 6441,
      "Ġcommunities": 6442,
      "igan": 6443,
      "ĠCL": 6444,
      "Ġannual": 6445,
      "Ġconstructed": 6446,
      "ĠZeal": 6447,
      "final": 6448,
      "Ġmatrices": 6449,
      "search": 6450,
      "Ġregime": 6451,
      "ĠMur": 6452,
      "Ġintegr": 6453,
      "ĠSta": 6454,
      "jection": 6455,
      "ircraft": 6456,
      "ĠMax": 6457,
      "ĠTim": 6458,
      "Ġrare": 6459,
      "isl": 6460,
      "ĠHy": 6461,
      "ootball": 6462,
      "Ġready": 6463,
      "cks": 6464,
      "open": 6465,
      "ĠFestival": 6466,
      "Ġconvert": 6467,
      "ban": 6468,
      "Ġcomposition": 6469,
      "Ġsegment": 6470,
      "Ġnav": 6471,
      "Ġhundred": 6472,
      "Ġresist": 6473,
      "odot": 6474,
      "Ġtesting": 6475,
      "Ġideal": 6476,
      "otted": 6477,
      "ithub": 6478,
      "Ġstrict": 6479,
      "hem": 6480,
      "kes": 6481,
      "Ġapparent": 6482,
      "mc": 6483,
      "nesday": 6484,
      "ĠEngine": 6485,
      "ĠTheir": 6486,
      "Ġnotice": 6487,
      "ĠIll": 6488,
      "Ġletter": 6489,
      "Ġtrend": 6490,
      "Ġeast": 6491,
      "strong": 6492,
      "Ġarrest": 6493,
      "Ġnom": 6494,
      "Ġstrongly": 6495,
      "Ġmaster": 6496,
      "astern": 6497,
      "ĠIsrael": 6498,
      "Ġhappen": 6499,
      "asion": 6500,
      "PT": 6501,
      "Ġmobile": 6502,
      "Ġasympt": 6503,
      "ouble": 6504,
      "Ġbill": 6505,
      "ĠZealand": 6506,
      "otype": 6507,
      "NR": 6508,
      "include": 6509,
      "dem": 6510,
      "Ġworkers": 6511,
      "igration": 6512,
      "Ġeth": 6513,
      "Ġdoc": 6514,
      "Ġclassification": 6515,
      "Cre": 6516,
      "Ġconsidering": 6517,
      "ifies": 6518,
      "Ġideas": 6519,
      "Ġsend": 6520,
      "Ġobserve": 6521,
      "Ġlaunch": 6522,
      "Ġopin": 6523,
      "Ġpoll": 6524,
      "Ġmasses": 6525,
      "proposition": 6526,
      "hbox": 6527,
      "Ġserver": 6528,
      "Ġdifferential": 6529,
      "Ġap": 6530,
      "standing": 6531,
      "Sec": 6532,
      "Method": 6533,
      "Ġremoved": 6534,
      "ĠWood": 6535,
      ")_": 6536,
      "ĠFilm": 6537,
      "Ġsplit": 6538,
      "ĠĠĠĠĠĠĠĠĠĠĠĠĠĠ": 6539,
      "Ġfederal": 6540,
      "Ġsemi": 6541,
      "Top": 6542,
      "ĠSpe": 6543,
      ".;": 6544,
      "Ġfinding": 6545,
      "ĠMonday": 6546,
      "ĠMexico": 6547,
      "Ġreson": 6548,
      "ĠUs": 6549,
      "cuss": 6550,
      "Ġprocessing": 6551,
      "elli": 6552,
      "Tra": 6553,
      "Ġjoin": 6554,
      "ĠBob": 6555,
      "ĠMil": 6556,
      "Ġvehicle": 6557,
      "aa": 6558,
      "going": 6559,
      "ĠGaussian": 6560,
      "=\"../": 6561,
      "package": 6562,
      "ĠID": 6563,
      "Ġfreedom": 6564,
      "Ġlooked": 6565,
      "Ġremember": 6566,
      "Ġformat": 6567,
      "Rel": 6568,
      "ounce": 6569,
      "ĠLove": 6570,
      "ĠWal": 6571,
      "ulf": 6572,
      "Ġadvantage": 6573,
      "aser": 6574,
      "Ġapart": 6575,
      "Ġgalaxy": 6576,
      "ĠâĢ¦": 6577,
      "Ġtraffic": 6578,
      "ÑĢ": 6579,
      "OW": 6580,
      "rank": 6581,
      "porate": 6582,
      "AV": 6583,
      "ĠHamiltonian": 6584,
      "Ġindeed": 6585,
      "Ġsea": 6586,
      "Ġmetal": 6587,
      "ibr": 6588,
      "cs": 6589,
      "hab": 6590,
      "ls": 6591,
      ";&": 6592,
      "Ġclaims": 6593,
      "ĠWeek": 6594,
      "ilibrium": 6595,
      "ĠJim": 6596,
      "UE": 6597,
      "picture": 6598,
      "Ġindicate": 6599,
      "ĠHig": 6600,
      "Ġchallenge": 6601,
      "Ġguitar": 6602,
      "ĠLy": 6603,
      "pa": 6604,
      "Ġpositions": 6605,
      "ĠCa": 6606,
      "mapsto": 6607,
      "Ġinterval": 6608,
      "gar": 6609,
      "Ġcustomers": 6610,
      "Ġserve": 6611,
      "Ġachieved": 6612,
      "arden": 6613,
      "Ġdistributed": 6614,
      "Ġgoals": 6615,
      "cean": 6616,
      "Ġunknown": 6617,
      "Ġgap": 6618,
      "ĠIreland": 6619,
      "Ġcalls": 6620,
      "Ġfunctional": 6621,
      "ĠPri": 6622,
      "Ġsurvey": 6623,
      "ĠCH": 6624,
      "okes": 6625,
      "ifferent": 6626,
      "Ġwat": 6627,
      "\\_": 6628,
      "icine": 6629,
      "1988": 6630,
      "viation": 6631,
      "ĠBet": 6632,
      "Ġbright": 6633,
      "Rep": 6634,
      "Ġinnov": 6635,
      "Ġdisapp": 6636,
      "onential": 6637,
      "Ġsomew": 6638,
      "User": 6639,
      "Ġtoward": 6640,
      "spect": 6641,
      "Ġusual": 6642,
      "Ġsto": 6643,
      "Cons": 6644,
      "energy": 6645,
      "'(": 6646,
      "finished": 6647,
      "Theorem": 6648,
      "night": 6649,
      "1960": 6650,
      "Ġthank": 6651,
      "Ġmanifold": 6652,
      "\\{\\": 6653,
      "ĠHaw": 6654,
      "ĠTre": 6655,
      "=\"#": 6656,
      "ĠLee": 6657,
      "Ġfundamental": 6658,
      "ribe": 6659,
      "asketball": 6660,
      "Ġdra": 6661,
      "kins": 6662,
      "Ġmerg": 6663,
      "imb": 6664,
      "Ġindicates": 6665,
      "ĠItalian": 6666,
      "Ġproport": 6667,
      "Ġarchitecture": 6668,
      "$;": 6669,
      "iated": 6670,
      "Ġcoordinates": 6671,
      "Ġbuildings": 6672,
      "Ġloop": 6673,
      "Line": 6674,
      "Ġhole": 6675,
      "120": 6676,
      "hetic": 6677,
      "Ġkept": 6678,
      "ĠEvery": 6679,
      "ĠYoung": 6680,
      "doc": 6681,
      "ĠTwitter": 6682,
      "Ġkids": 6683,
      "Ġhappened": 6684,
      "ĠTour": 6685,
      "Manager": 6686,
      "&=&": 6687,
      "ĠBu": 6688,
      "ora": 6689,
      "namespace": 6690,
      "usband": 6691,
      "$~": 6692,
      "ĠArab": 6693,
      "ipal": 6694,
      "car": 6695,
      "ĠLin": 6696,
      "ifications": 6697,
      "ĠElect": 6698,
      "Ġsun": 6699,
      "Ġperhaps": 6700,
      "ĠÎ": 6701,
      "}({\\": 6702,
      "Ġroute": 6703,
      "Ġalt": 6704,
      "Ġtried": 6705,
      "Ġefficiency": 6706,
      "kl": 6707,
      "John": 6708,
      "ĠTeam": 6709,
      "Ġtasks": 6710,
      "ĠStep": 6711,
      "riage": 6712,
      "Ġpush": 6713,
      "Ġarrang": 6714,
      "ĠRail": 6715,
      "Ġsatisfy": 6716,
      "ko": 6717,
      "ĠOld": 6718,
      "Ġstress": 6719,
      "multi": 6720,
      "github": 6721,
      "Ġleague": 6722,
      "Ġchief": 6723,
      "Ġpaid": 6724,
      "Ġhelped": 6725,
      "PD": 6726,
      "Ġmixed": 6727,
      "Ġcreating": 6728,
      "ĠLi": 6729,
      "pdate": 6730,
      "Ġsave": 6731,
      "Ġoriginally": 6732,
      "Ġcentre": 6733,
      "Ġstrugg": 6734,
      "Ġinduced": 6735,
      "arts": 6736,
      "Ġcamera": 6737,
      "Ġphenomen": 6738,
      "next": 6739,
      "mass": 6740,
      "Ġtools": 6741,
      "initely": 6742,
      "Ġaware": 6743,
      "Ġunion": 6744,
      "ĠAv": 6745,
      "HS": 6746,
      "Query": 6747,
      "Gu": 6748,
      "Ġmill": 6749,
      "cript": 6750,
      "}&": 6751,
      "ĠGeorg": 6752,
      "scill": 6753,
      "Art": 6754,
      "Ġswitch": 6755,
      "aming": 6756,
      "Ġimplementation": 6757,
      "Ġspirit": 6758,
      "rics": 6759,
      "jav": 6760,
      "Ġcontained": 6761,
      "ĠVer": 6762,
      "ĠChampionship": 6763,
      "ĠConn": 6764,
      "fered": 6765,
      "Ġdisp": 6766,
      "ĠFinally": 6767,
      "Ġacadem": 6768,
      "ĠProfess": 6769,
      "ogen": 6770,
      "Ġeditor": 6771,
      "Ġminimal": 6772,
      "ontal": 6773,
      "Ġdestroy": 6774,
      "Ġvirtual": 6775,
      "Ġspl": 6776,
      "Ġprison": 6777,
      "Ġsections": 6778,
      "Ġer": 6779,
      "|_{": 6780,
      "Ġemp": 6781,
      "ĠTechnology": 6782,
      "Ġregarding": 6783,
      "Ġwel": 6784,
      "clusive": 6785,
      "Ġexception": 6786,
      "Ġinvestigation": 6787,
      "rl": 6788,
      "ĠVictor": 6789,
      "Ġvectors": 6790,
      "Des": 6791,
      "yer": 6792,
      "Ġsynt": 6793,
      "Ġvictim": 6794,
      "Ġobservation": 6795,
      "ĠSaint": 6796,
      "âĢĺ": 6797,
      "Ġrough": 6798,
      "Ġspot": 6799,
      "Ġreturns": 6800,
      "Ġinteger": 6801,
      "1987": 6802,
      "lict": 6803,
      "Ġraised": 6804,
      "claim": 6805,
      "Ġprotected": 6806,
      "Ġconvergence": 6807,
      "================": 6808,
      "itudes": 6809,
      "Ġscattering": 6810,
      "itness": 6811,
      "Ġadding": 6812,
      "ĠSpace": 6813,
      "ude": 6814,
      "Ġparties": 6815,
      "Other": 6816,
      "PP": 6817,
      ";</": 6818,
      "stra": 6819,
      "rane": 6820,
      "tik": 6821,
      "Ġleaving": 6822,
      "ĠÂ»": 6823,
      "law": 6824,
      "oses": 6825,
      "ename": 6826,
      "Ġcomputation": 6827,
      "ĠJac": 6828,
      "ĠForce": 6829,
      "ĠInformation": 6830,
      "ding": 6831,
      "ĠGame": 6832,
      "âĢĿ,": 6833,
      "ĠWho": 6834,
      "Ġplanet": 6835,
      "])": 6836,
      "ĠRE": 6837,
      "ĠBas": 6838,
      "Ext": 6839,
      "perties": 6840,
      "Ġgrid": 6841,
      "ĠWeb": 6842,
      "Ġolder": 6843,
      "Ġimplic": 6844,
      "Ġsubt": 6845,
      "Ġcitiz": 6846,
      "GC": 6847,
      "Ġpolic": 6848,
      "roller": 6849,
      "Ġspecified": 6850,
      "contin": 6851,
      "Ġforest": 6852,
      "event": 6853,
      "fold": 6854,
      "Cor": 6855,
      "ĠâĢ¢": 6856,
      "Ġassign": 6857,
      "ĠCast": 6858,
      "ographic": 6859,
      "Further": 6860,
      ")+\\": 6861,
      "allery": 6862,
      "ĠValley": 6863,
      "ocked": 6864,
      "ĠJohnson": 6865,
      "roph": 6866,
      "Ġtrial": 6867,
      "Ġwinning": 6868,
      "ican": 6869,
      "Ġexplained": 6870,
      "Ġclimate": 6871,
      "after": 6872,
      "Ġlum": 6873,
      "sets": 6874,
      "Ġchemical": 6875,
      "ĠThursday": 6876,
      "mazon": 6877,
      "Ġtrained": 6878,
      "Ġbinary": 6879,
      "Property": 6880,
      "ipment": 6881,
      "Ġrevealed": 6882,
      "stitution": 6883,
      "ronic": 6884,
      "adow": 6885,
      "ĠItaly": 6886,
      "Ġtick": 6887,
      "ĠUsing": 6888,
      "Ġdoor": 6889,
      "mosp": 6890,
      "ĠGal": 6891,
      "eness": 6892,
      "ĠBoth": 6893,
      "Ñģ": 6894,
      "Result": 6895,
      "uing": 6896,
      "ĠDet": 6897,
      "Ġmagnitude": 6898,
      "Ġcontinues": 6899,
      "Ġoverl": 6900,
      "call": 6901,
      "~~~~": 6902,
      "ĠLibrary": 6903,
      "Ġpages": 6904,
      "ĠPenn": 6905,
      "Ġremove": 6906,
      "ĠPac": 6907,
      "php": 6908,
      "Ġbeam": 6909,
      "ĠIII": 6910,
      "Ġtend": 6911,
      "Ġconclude": 6912,
      "ĠHistor": 6913,
      "actor": 6914,
      "ONT": 6915,
      "fully": 6916,
      "La": 6917,
      "razil": 6918,
      "Ġsustain": 6919,
      "ĠVirginia": 6920,
      "ĠCentre": 6921,
      "Ġwhom": 6922,
      "ĠUN": 6923,
      "ĠHead": 6924,
      "Ġdetect": 6925,
      "Ġelected": 6926,
      "Ġofficials": 6927,
      ")</": 6928,
      "Ġfiles": 6929,
      "cat": 6930,
      "May": 6931,
      "Rem": 6932,
      "Ġorth": 6933,
      "ĠGen": 6934,
      "odies": 6935,
      "blue": 6936,
      "Ġcovered": 6937,
      "Ġboy": 6938,
      "ront": 6939,
      "Ġrang": 6940,
      "eless": 6941,
      "Ġreality": 6942,
      "Ġstarts": 6943,
      "Ġlearned": 6944,
      ")},": 6945,
      "null": 6946,
      "MR": 6947,
      "break": 6948,
      "ĠĠĠĠĠĠĠĠĠĠĠĠĠĠĠĠĠĠĠĠĠĠĠĠĠĠĠĠĠĠĠ": 6949,
      "Us": 6950,
      "tail": 6951,
      "ĠHa": 6952,
      "ĠChief": 6953,
      "ĠTuesday": 6954,
      "greg": 6955,
      "Off": 6956,
      "ĠHor": 6957,
      "Ġaxis": 6958,
      "Ġoscill": 6959,
      "rence": 6960,
      "~$\\": 6961,
      "BI": 6962,
      "Ġbrain": 6963,
      "sche": 6964,
      "Ġprediction": 6965,
      "ĠWay": 6966,
      "Ġbeautiful": 6967,
      "ĠCatholic": 6968,
      "oded": 6969,
      "icate": 6970,
      "ingly": 6971,
      "ĠIslam": 6972,
      "Ġdrop": 6973,
      "Client": 6974,
      "uous": 6975,
      "Ġdimensions": 6976,
      "Ġoffered": 6977,
      "Ġimproved": 6978,
      "cf": 6979,
      "cknowled": 6980,
      "Ġlaunched": 6981,
      "Ġlies": 6982,
      "ĠSummer": 6983,
      "itivity": 6984,
      "Ġprotocol": 6985,
      "Ġadjust": 6986,
      "Ġimportance": 6987,
      "Ġsym": 6988,
      "Ġplus": 6989,
      "Ġnet": 6990,
      "condition": 6991,
      "According": 6992,
      "Ġlimits": 6993,
      "edia": 6994,
      "1986": 6995,
      "Ġandroid": 6996,
      "Response": 6997,
      "<!--": 6998,
      "})$,": 6999,
      "ategory": 7000,
      "Ġoccurs": 7001,
      "phas": 7002,
      "such": 7003,
      "Ġended": 7004,
      "[(": 7005,
      "ributes": 7006,
      "Ġtechnique": 7007,
      "ĠBuild": 7008,
      "ĠAwards": 7009,
      "Ġdream": 7010,
      "arse": 7011,
      "Ġrequirements": 7012,
      "ĠDev": 7013,
      "Ġdegrees": 7014,
      "Ġturns": 7015,
      "Label": 7016,
      "Ġamplitude": 7017,
      "ells": 7018,
      "ĠCommunity": 7019,
      "EW": 7020,
      "ĠRecords": 7021,
      "iana": 7022,
      "elligence": 7023,
      "Ġcalculations": 7024,
      "gr": 7025,
      "ima": 7026,
      "ĠĠĠĠĠĠĠĠĠĠĠĠĠĠĠĠĠ": 7027,
      "Ġaudience": 7028,
      "Head": 7029,
      "Ġcalculation": 7030,
      "ECT": 7031,
      "Ġmainly": 7032,
      "Ġstorage": 7033,
      "Ġice": 7034,
      "font": 7035,
      "opic": 7036,
      "Ġdriving": 7037,
      "CM": 7038,
      "Ġadvert": 7039,
      "idel": 7040,
      "Ġfluct": 7041,
      "ĠBecause": 7042,
      "Ġ${": 7043,
      "tikz": 7044,
      "Ġowners": 7045,
      "Ġsolar": 7046,
      ")-\\": 7047,
      "ĠPhys": 7048,
      "}}$,": 7049,
      "Ġappearance": 7050,
      "Am": 7051,
      "Date": 7052,
      "herent": 7053,
      "Ġremark": 7054,
      "sign": 7055,
      "Finally": 7056,
      "Ġpartial": 7057,
      "integ": 7058,
      "Ġdie": 7059,
      "Ġcrow": 7060,
      "Ġbra": 7061,
      "Some": 7062,
      "ĠHon": 7063,
      "Ġoperating": 7064,
      "Ġforced": 7065,
      "ogeneous": 7066,
      "Ġpropos": 7067,
      "ĠGL": 7068,
      "}}$.": 7069,
      "Ġexcell": 7070,
      "uty": 7071,
      "Ġphil": 7072,
      "ĠSpring": 7073,
      "Ġahead": 7074,
      "Ġplanning": 7075,
      "ĠVis": 7076,
      "Ġran": 7077,
      "ĠFurthermore": 7078,
      "two": 7079,
      "Ġevaluation": 7080,
      "ups": 7081,
      "Ġdepending": 7082,
      "Ġfounded": 7083,
      "tag": 7084,
      "ĠEnter": 7085,
      "Ġanalog": 7086,
      "ĠEp": 7087,
      "ja": 7088,
      "bal": 7089,
      "Ġthermal": 7090,
      "aren": 7091,
      "Ġisol": 7092,
      "Ġtechnical": 7093,
      "Ġviews": 7094,
      "Ġarguments": 7095,
      "FR": 7096,
      "unct": 7097,
      "VER": 7098,
      "Ġthinking": 7099,
      "ĠWednesday": 7100,
      "Ġtests": 7101,
      "ĠJones": 7102,
      "ĠPower": 7103,
      "ensions": 7104,
      "Ġtheoretical": 7105,
      "Ġdelay": 7106,
      "agnetic": 7107,
      "Ġast": 7108,
      "Ġquery": 7109,
      "ĠSpanish": 7110,
      "))$": 7111,
      "Ġsafe": 7112,
      "Ġsenior": 7113,
      "ĠStand": 7114,
      "phone": 7115,
      "iano": 7116,
      "Ġnotation": 7117,
      "DP": 7118,
      "Ġbecoming": 7119,
      "Ġhospital": 7120,
      "ga": 7121,
      "---": 7122,
      "ĉĠ": 7123,
      "obs": 7124,
      "Ġbudget": 7125,
      "ĠLead": 7126,
      "gcolor": 7127,
      "utch": 7128,
      "aved": 7129,
      "Ġsuggests": 7130,
      "Ġsolve": 7131,
      "ĠSand": 7132,
      "dir": 7133,
      "Aut": 7134,
      "Ġfloor": 7135,
      "Ġsmart": 7136,
      "apse": 7137,
      "Ġrecall": 7138,
      "Ġlayers": 7139,
      "Ġadm": 7140,
      "Ġscenario": 7141,
      "Ġhour": 7142,
      "Ġattacks": 7143,
      "cong": 7144,
      "low": 7145,
      "Ġacceler": 7146,
      "Ġcoast": 7147,
      "pot": 7148,
      "Right": 7149,
      "Ġresear": 7150,
      "Ġmotiv": 7151,
      "Ġdaily": 7152,
      "1984": 7153,
      "onical": 7154,
      "odd": 7155,
      "Ġweap": 7156,
      "Ð¾Ð": 7157,
      "ilipp": 7158,
      "Char": 7159,
      "Ġmedium": 7160,
      "Ġpatient": 7161,
      "unfinished": 7162,
      "}{|": 7163,
      "Ġelim": 7164,
      "Introduction": 7165,
      "Ġblog": 7166,
      "conf": 7167,
      "ĠFree": 7168,
      "amm": 7169,
      "Ġfan": 7170,
      "cut": 7171,
      "dat": 7172,
      "emporary": 7173,
      "Ġchannels": 7174,
      "ĠScot": 7175,
      "Ġconnect": 7176,
      "ĠModel": 7177,
      "Ġallowing": 7178,
      "Ġhypothes": 7179,
      "ĠField": 7180,
      "Ġfeet": 7181,
      "Ġpartition": 7182,
      "1985": 7183,
      "Ġoptimization": 7184,
      "}{(": 7185,
      "Ġextends": 7186,
      "Ġphoto": 7187,
      "Ġenh": 7188,
      "Ġconj": 7189,
      "Ġconven": 7190,
      "ĠMen": 7191,
      "ĠCr": 7192,
      "ipage": 7193,
      "Ġcov": 7194,
      "ĠHuman": 7195,
      "query": 7196,
      "}\\,\\": 7197,
      "LS": 7198,
      "Mem": 7199,
      "Ġperspect": 7200,
      "estic": 7201,
      "Dep": 7202,
      "Ġphysics": 7203,
      "enced": 7204,
      "how": 7205,
      "Ġfamous": 7206,
      "Ġbeat": 7207,
      "Ġreferred": 7208,
      "Ġaircraft": 7209,
      "ĠAR": 7210,
      "Ġtourn": 7211,
      "Ġcharged": 7212,
      "}$)": 7213,
      "Ġpurs": 7214,
      "amin": 7215,
      "Ġcertainly": 7216,
      "life": 7217,
      "ĠCle": 7218,
      "ĠSar": 7219,
      "Ġ(\"": 7220,
      "Ġexplore": 7221,
      "Ġcycl": 7222,
      "minipage": 7223,
      "ye": 7224,
      "??": 7225,
      "rapy": 7226,
      "ĠLag": 7227,
      "Ġuncertainty": 7228,
      "Ġrestaur": 7229,
      "Ġpeace": 7230,
      "Gl": 7231,
      "Sch": 7232,
      "Ġrecommend": 7233,
      "ĠSM": 7234,
      "Ġkernel": 7235,
      "DS": 7236,
      "ynamic": 7237,
      "Ġbenefit": 7238,
      "Ġhappy": 7239,
      "PM": 7240,
      "iced": 7241,
      "Ġcomplic": 7242,
      "$),": 7243,
      "hens": 7244,
      "%)": 7245,
      "vector": 7246,
      "Ġdistingu": 7247,
      "forms": 7248,
      ")}_{": 7249,
      "Ġsexual": 7250,
      "oston": 7251,
      "Ġconference": 7252,
      "Ġneighborhood": 7253,
      "Ġmanner": 7254,
      "Ġhusband": 7255,
      "dr": 7256,
      "Therefore": 7257,
      "Ġsuggested": 7258,
      "Ġsession": 7259,
      "Ġrotation": 7260,
      "Ġconvers": 7261,
      "write": 7262,
      "Ġevol": 7263,
      "poration": 7264,
      "ipped": 7265,
      "Ġincome": 7266,
      "Min": 7267,
      "Work": 7268,
      "ĠCare": 7269,
      "Ġauto": 7270,
      "Ġnor": 7271,
      "Ġmeant": 7272,
      "Ġfrag": 7273,
      "ĠCy": 7274,
      "Ġeye": 7275,
      "ĠPolicy": 7276,
      "Ġacts": 7277,
      "ĠSpecial": 7278,
      "Ġhandle": 7279,
      "Ġpix": 7280,
      "Ġeconomy": 7281,
      "ĠPak": 7282,
      "brid": 7283,
      "-$": 7284,
      "etry": 7285,
      "target": 7286,
      "ati": 7287,
      "umni": 7288,
      "ruit": 7289,
      "Ġstations": 7290,
      "Ġintegration": 7291,
      "Ġ$|\\": 7292,
      "forward": 7293,
      "IST": 7294,
      "Ġtrig": 7295,
      "Ġquadr": 7296,
      "hent": 7297,
      "Ġscales": 7298,
      "Ġcold": 7299,
      "Using": 7300,
      "ĠHenry": 7301,
      "iative": 7302,
      "Ġchampions": 7303,
      "uries": 7304,
      "wa": 7305,
      "Ġgraphs": 7306,
      ":}": 7307,
      "ocket": 7308,
      "ova": 7309,
      "func": 7310,
      "Ġens": 7311,
      "ĠIS": 7312,
      "ĠKh": 7313,
      "Ġdamage": 7314,
      "ATION": 7315,
      "Ġwhereas": 7316,
      "Ġofficer": 7317,
      "ĠAdd": 7318,
      "Ġtrees": 7319,
      "TP": 7320,
      "DM": 7321,
      "Ġclusters": 7322,
      "mut": 7323,
      "Ġlab": 7324,
      "oles": 7325,
      "Ġmusical": 7326,
      "Ġfre": 7327,
      "Ġleaves": 7328,
      "othing": 7329,
      "ĠColl": 7330,
      "ometric": 7331,
      "Ġedition": 7332,
      "Ġradiation": 7333,
      "xx": 7334,
      "arian": 7335,
      "Ġstuff": 7336,
      "Ġstd": 7337,
      "ourney": 7338,
      "mond": 7339,
      "Ġmodified": 7340,
      "bigl": 7341,
      "Ġion": 7342,
      "Ġdeliver": 7343,
      "110": 7344,
      "Ġgradient": 7345,
      "ĠSenate": 7346,
      "Ġearth": 7347,
      "ultural": 7348,
      "num": 7349,
      "zen": 7350,
      "Ġdanger": 7351,
      "Ġtalking": 7352,
      "Ġpet": 7353,
      "Ġbgcolor": 7354,
      "ĠEconom": 7355,
      "Mon": 7356,
      "Ġchanging": 7357,
      "Ġstreet": 7358,
      "ji": 7359,
      "ĠWilliams": 7360,
      "ali": 7361,
      "Ġempty": 7362,
      "Ġinfinite": 7363,
      "Ġmaybe": 7364,
      "Ġirre": 7365,
      "Ġthr": 7366,
      "ĠRun": 7367,
      "vin": 7368,
      "Ġprinciple": 7369,
      "urban": 7370,
      "Ġcars": 7371,
      "erence": 7372,
      "Ġfresh": 7373,
      "ĠNY": 7374,
      "inations": 7375,
      "unit": 7376,
      "Ġcities": 7377,
      "Ġisland": 7378,
      "ĠObama": 7379,
      "Hel": 7380,
      "BO": 7381,
      "ĠLog": 7382,
      "inet": 7383,
      "po": 7384,
      "Ġprotect": 7385,
      "Ġwish": 7386,
      "Builder": 7387,
      "ifer": 7388,
      "Ġskills": 7389,
      "Ġextremely": 7390,
      "ĠApple": 7391,
      "Ġconfirmed": 7392,
      "py": 7393,
      "ĠMu": 7394,
      "Ġangular": 7395,
      "icted": 7396,
      "Ġfeatured": 7397,
      "Ġdiscovered": 7398,
      "Sm": 7399,
      "Ġtag": 7400,
      "Ġcandidates": 7401,
      "ĠMany": 7402,
      "Ġrich": 7403,
      "Ġjump": 7404,
      "Ġappointed": 7405,
      "Ġcomplexity": 7406,
      "El": 7407,
      "Ġwarm": 7408,
      "Ġdial": 7409,
      "Ġdynamic": 7410,
      "ĠChris": 7411,
      "Ġfailure": 7412,
      "Ġstatistics": 7413,
      "ĠLine": 7414,
      "adium": 7415,
      "ighter": 7416,
      "avel": 7417,
      "Ġrobust": 7418,
      "number": 7419,
      "ĠMike": 7420,
      "ĠBlue": 7421,
      "Ġhousehold": 7422,
      "ĠGlobal": 7423,
      "clusions": 7424,
      "Run": 7425,
      "awa": 7426,
      "Ġsched": 7427,
      "Ġ^": 7428,
      "android": 7429,
      "uum": 7430,
      "Ġfunding": 7431,
      "Ġnine": 7432,
      "Ġremained": 7433,
      "Ġmiles": 7434,
      "make": 7435,
      "Ġthanks": 7436,
      "ishop": 7437,
      "bigr": 7438,
      "Input": 7439,
      "Posted": 7440,
      "ĠDesign": 7441,
      "Em": 7442,
      "lib": 7443,
      "ĠLic": 7444,
      "Ġfashion": 7445,
      "defined": 7446,
      ",{\\": 7447,
      "ĠReport": 7448,
      "ĠJeff": 7449,
      "Ġspeech": 7450,
      "Ġlocations": 7451,
      "Ġsides": 7452,
      ",$": 7453,
      "Ġmonitor": 7454,
      "Ġbiggest": 7455,
      "ĠBack": 7456,
      "ĠOrder": 7457,
      "Ġ->": 7458,
      "Point": 7459,
      "TY": 7460,
      "Stream": 7461,
      "results": 7462,
      "Ġmountain": 7463,
      "ĠWater": 7464,
      "unte": 7465,
      "igital": 7466,
      "urance": 7467,
      "Ġhistorical": 7468,
      "Ġorders": 7469,
      "itage": 7470,
      "Cal": 7471,
      "shire": 7472,
      "Paramet": 7473,
      ")}}": 7474,
      ">(": 7475,
      "floor": 7476,
      "Ġvariation": 7477,
      "Ġmanaged": 7478,
      "Base": 7479,
      "ĠCarolina": 7480,
      "Ġconducted": 7481,
      "mathop": 7482,
      "ĠCard": 7483,
      "Ġbenefits": 7484,
      "Ġbroadcast": 7485,
      "Ġsubstant": 7486,
      "ideos": 7487,
      "ĠLiber": 7488,
      "isters": 7489,
      "Ġsubgroup": 7490,
      "Ġnumerous": 7491,
      "ĠAsia": 7492,
      "Ġvertical": 7493,
      "Ġstability": 7494,
      "Ġdatabase": 7495,
      "Ġcert": 7496,
      "Ġalbums": 7497,
      "Ġscaling": 7498,
      "ĠSwed": 7499,
      "ĠFootball": 7500,
      "Ġreligious": 7501,
      "Ġcultural": 7502,
      "arser": 7503,
      "ĠFamily": 7504,
      "Ġpseud": 7505,
      "inton": 7506,
      "cref": 7507,
      "step": 7508,
      "ĠJon": 7509,
      "Ġattend": 7510,
      "${\\": 7511,
      "Ġagents": 7512,
      "Ġdoll": 7513,
      "Ġadministration": 7514,
      "ented": 7515,
      "Ġaccurate": 7516,
      "Ġnice": 7517,
      "Ġgone": 7518,
      "Ġatmosp": 7519,
      "select": 7520,
      "het": 7521,
      "Ġbool": 7522,
      "ucky": 7523,
      "Ġcoefficient": 7524,
      "ictures": 7525,
      "Ġowner": 7526,
      "Ġgeometry": 7527,
      "Ġdiagn": 7528,
      "Ġresidents": 7529,
      "Ġcrim": 7530,
      "Ġpossibly": 7531,
      "ĠTri": 7532,
      "aid": 7533,
      "FI": 7534,
      "Override": 7535,
      "Ġcredit": 7536,
      "ĠMethod": 7537,
      "Ġreaction": 7538,
      "Ġmatches": 7539,
      "rance": 7540,
      "Ġtraject": 7541,
      "mem": 7542,
      "ĠLord": 7543,
      "$_{": 7544,
      "Ġtells": 7545,
      "ĠEmp": 7546,
      "Ġhappens": 7547,
      "iem": 7548,
      "enses": 7549,
      "âĢ¢": 7550,
      "ĠCross": 7551,
      "Ġabsolute": 7552,
      "aka": 7553,
      "called": 7554,
      "ĠJoseph": 7555,
      "button": 7556,
      "ĠCharl": 7557,
      "Ġarticles": 7558,
      "high": 7559,
      "syl": 7560,
      "iro": 7561,
      "Ġemphas": 7562,
      "ĠTaylor": 7563,
      "Ġinitially": 7564,
      "cccc": 7565,
      "Ġexponential": 7566,
      "Ġincident": 7567,
      "Ġcoordinate": 7568,
      "adding": 7569,
      "osop": 7570,
      "aped": 7571,
      "ĠAbout": 7572,
      "dule": 7573,
      "Ġextend": 7574,
      "etails": 7575,
      "Ġbalance": 7576,
      "Ġscored": 7577,
      "ĠMcC": 7578,
      "yself": 7579,
      "Ġequipment": 7580,
      "Ġbounds": 7581,
      "Ġcouldn": 7582,
      "Ġ[\\": 7583,
      "Ġtreated": 7584,
      "UM": 7585,
      "close": 7586,
      "har": 7587,
      "friend": 7588,
      "Ġflag": 7589,
      "Ġpartner": 7590,
      "bu": 7591,
      "Ġfocused": 7592,
      "stable": 7593,
      "250": 7594,
      "ĠFund": 7595,
      "ĠRam": 7596,
      "Ġsettings": 7597,
      "Ġsuitable": 7598,
      "ĠInternet": 7599,
      "Ġpil": 7600,
      "ĠSecurity": 7601,
      "Ġacting": 7602,
      "Ġbond": 7603,
      "Ġunless": 7604,
      "Don": 7605,
      "Ġdivision": 7606,
      "Ġdriver": 7607,
      "Ġstatistical": 7608,
      "Ġredshift": 7609,
      "Ġpool": 7610,
      "orrow": 7611,
      "ĠAny": 7612,
      "lesssim": 7613,
      "Ġking": 7614,
      "Ġtail": 7615,
      "ockey": 7616,
      "wan": 7617,
      "Ġsatisfying": 7618,
      "Ġlibrary": 7619,
      "duction": 7620,
      "1983": 7621,
      "ĠTem": 7622,
      "Home": 7623,
      "Ġcalculate": 7624,
      "Oper": 7625,
      "iser": 7626,
      "project": 7627,
      "nn": 7628,
      "Ġhero": 7629,
      "Ġcharges": 7630,
      "Ġordered": 7631,
      "ĠSports": 7632,
      "Ġbed": 7633,
      "ultane": 7634,
      "inals": 7635,
      "Ġunderlying": 7636,
      "ĠFort": 7637,
      "Ġenvironmental": 7638,
      "LA": 7639,
      "ĠType": 7640,
      "Ġpossibility": 7641,
      "LC": 7642,
      "Ġpolicies": 7643,
      "Ġdecomposition": 7644,
      "risis": 7645,
      "ĠEll": 7646,
      "Ġinvestment": 7647,
      "second": 7648,
      "Ġdust": 7649,
      "Ġdepartment": 7650,
      "ĠLab": 7651,
      "Ġrid": 7652,
      "Ġorganizations": 7653,
      "Ġinvestigate": 7654,
      "dy": 7655,
      "ĠWhy": 7656,
      "Ġchallenges": 7657,
      "Ġobjective": 7658,
      "sat": 7659,
      "Ġactor": 7660,
      "DD": 7661,
      "Ġfle": 7662,
      "ĠAndrew": 7663,
      "Ġwaves": 7664,
      "Util": 7665,
      "comes": 7666,
      "Ġbin": 7667,
      "ĠFar": 7668,
      "ĠConference": 7669,
      "Ġsupply": 7670,
      "Ġaffect": 7671,
      "Ġdiscrete": 7672,
      "Ġabund": 7673,
      "ĠBra": 7674,
      "Ġ$.": 7675,
      "Ġscript": 7676,
      "tan": 7677,
      "Ġlived": 7678,
      "Ġpsych": 7679,
      "scape": 7680,
      "\\;": 7681,
      "Ġprojection": 7682,
      "Ġfif": 7683,
      "Section": 7684,
      "Ġ^{": 7685,
      "Ġaffected": 7686,
      "care": 7687,
      "\\)": 7688,
      "ĠStat": 7689,
      "ĠEnergy": 7690,
      "ĠIrish": 7691,
      "Ġglass": 7692,
      "Ġblocks": 7693,
      "ĠBritain": 7694,
      "Ġemployees": 7695,
      "ĠAff": 7696,
      "iveness": 7697,
      "1982": 7698,
      "Ġprime": 7699,
      "ifact": 7700,
      "Ġreli": 7701,
      "iable": 7702,
      "Ġpatterns": 7703,
      "Ġentertain": 7704,
      "Ġkill": 7705,
      "ĠColor": 7706,
      "Ġchair": 7707,
      "element": 7708,
      "Ġelectronic": 7709,
      "uli": 7710,
      ">>": 7711,
      "scriptstyle": 7712,
      "ansas": 7713,
      "ĠPolice": 7714,
      "Ġ\\(\\": 7715,
      "atever": 7716,
      "Ġrelax": 7717,
      "option": 7718,
      "RL": 7719,
      "Ġstock": 7720,
      "Ġcollected": 7721,
      "Ġevaluate": 7722,
      "del": 7723,
      "oves": 7724,
      "Ġcoverage": 7725,
      "water": 7726,
      ",\\\\": 7727,
      "orney": 7728,
      "enger": 7729,
      "Ġvoc": 7730,
      "ĠSuch": 7731,
      "cover": 7732,
      "ĉĠĠĠ": 7733,
      "Ġbuff": 7734,
      "vari": 7735,
      "Ġconvex": 7736,
      "Ġtracks": 7737,
      "client": 7738,
      "ograp": 7739,
      "vania": 7740,
      "Ġguy": 7741,
      "RS": 7742,
      "itan": 7743,
      "ĠWall": 7744,
      "itative": 7745,
      "Instance": 7746,
      "Ġcoinc": 7747,
      "lections": 7748,
      "last": 7749,
      "ĠSU": 7750,
      "avor": 7751,
      "ĠNight": 7752,
      "Ġnative": 7753,
      "possible": 7754,
      "pto": 7755,
      "parent": 7756,
      "Why": 7757,
      "Met": 7758,
      "Start": 7759,
      "isely": 7760,
      "Ġcorner": 7761,
      "Ġbands": 7762,
      "Ġfinds": 7763,
      "sky": 7764,
      "ĠWild": 7765,
      "Ġlemma": 7766,
      "Ġdesired": 7767,
      "Ġfaith": 7768,
      "$:": 7769,
      "rome": 7770,
      "ads": 7771,
      "ĠMuslim": 7772,
      "Ġdetected": 7773,
      "Ġcommit": 7774,
      "Ġdiam": 7775,
      "ĠNS": 7776,
      "Ġmapping": 7777,
      "ĠFrancisco": 7778,
      "ublished": 7779,
      "Ġvictory": 7780,
      "ariance": 7781,
      "Ġclaimed": 7782,
      "Ġtransp": 7783,
      "ilation": 7784,
      "indow": 7785,
      "Ġfigures": 7786,
      "inate": 7787,
      "expected": 7788,
      "lets": 7789,
      "Ġdescribes": 7790,
      "ometry": 7791,
      "Ġmist": 7792,
      "lock": 7793,
      "Ġnarrow": 7794,
      "uzz": 7795,
      "ĠBrazil": 7796,
      "Ġawarded": 7797,
      "orig": 7798,
      "ĠMedical": 7799,
      "sg": 7800,
      "ĠCEO": 7801,
      "Nav": 7802,
      "actic": 7803,
      "Ġpredicted": 7804,
      "Ġsusp": 7805,
      "Gener": 7806,
      "ĠRo": 7807,
      "ersonal": 7808,
      "Ġinvolving": 7809,
      "apped": 7810,
      "Component": 7811,
      "Ġhidden": 7812,
      "Prov": 7813,
      "Ġmargin": 7814,
      "Ġmotor": 7815,
      "Ġentropy": 7816,
      "ĠSouthern": 7817,
      "Ġvehicles": 7818,
      "Ġraise": 7819,
      "ĠDown": 7820,
      "Ġnamely": 7821,
      "ĠBow": 7822,
      "inking": 7823,
      "apes": 7824,
      "SH": 7825,
      "ested": 7826,
      "ortunately": 7827,
      "Ġdenoted": 7828,
      "ĠGovern": 7829,
      "phant": 7830,
      "EP": 7831,
      "description": 7832,
      "track": 7833,
      "Ġbehaviour": 7834,
      "stone": 7835,
      "ĠExec": 7836,
      "Ġliqu": 7837,
      "cale": 7838,
      "ĠReturn": 7839,
      "Ġends": 7840,
      "Ġmoments": 7841,
      "ĠMiddle": 7842,
      "ĠColumb": 7843,
      "Ġcapture": 7844,
      "athan": 7845,
      "Ġsummar": 7846,
      "ĠPolit": 7847,
      "author": 7848,
      "Ġlie": 7849,
      "Ġlocally": 7850,
      "sole": 7851,
      ":=": 7852,
      "Ġknows": 7853,
      "flu": 7854,
      "Ġburn": 7855,
      "agon": 7856,
      "ĠCP": 7857,
      "1950": 7858,
      "Content": 7859,
      "gypt": 7860,
      "Tag": 7861,
      "Ġcharacteristic": 7862,
      "ading": 7863,
      "Ġpp": 7864,
      "^*$": 7865,
      "ĠJoe": 7866,
      "Mark": 7867,
      "Ġorbit": 7868,
      "Ġapplying": 7869,
      "Ġprepar": 7870,
      "Number": 7871,
      "ĠĠĠĠĠĠĠĠĊ": 7872,
      "adata": 7873,
      "'.": 7874,
      "usal": 7875,
      "Ġguess": 7876,
      "options": 7877,
      "onto": 7878,
      "Up": 7879,
      "BM": 7880,
      "Ġconsult": 7881,
      "dec": 7882,
      "Ġriver": 7883,
      "Ġrig": 7884,
      "ugin": 7885,
      "Ġspecifically": 7886,
      "Ġleadership": 7887,
      "ĠAG": 7888,
      "Ġcircum": 7889,
      "Status": 7890,
      "Ġrepeated": 7891,
      "ains": 7892,
      "ĠEU": 7893,
      "ĠNorthern": 7894,
      "ĠJewish": 7895,
      "Ġmyself": 7896,
      "1979": 7897,
      "ĠRadio": 7898,
      "Ġadopted": 7899,
      "Ġinstant": 7900,
      "Ġcommission": 7901,
      "ĠLim": 7902,
      "Ġfill": 7903,
      "Ġdedicated": 7904,
      "Ġcreation": 7905,
      "ĠChristmas": 7906,
      "Ġneutr": 7907,
      "ĠCoast": 7908,
      "len": 7909,
      "Ġdeploy": 7910,
      "ĠMot": 7911,
      "uan": 7912,
      "ĠGre": 7913,
      "Ġwidely": 7914,
      "Ġmarked": 7915,
      "tfrac": 7916,
      "Ġopposite": 7917,
      "Ġcm": 7918,
      "vature": 7919,
      "wer": 7920,
      "Ġnewsp": 7921,
      "Action": 7922,
      "Ġeq": 7923,
      "Ġconsequence": 7924,
      "fa": 7925,
      "]}": 7926,
      "ĠVan": 7927,
      "Ġspring": 7928,
      "uer": 7929,
      "Ġrepresentations": 7930,
      "Ġsport": 7931,
      "background": 7932,
      "600": 7933,
      "Ġfant": 7934,
      "Ġviolence": 7935,
      "Google": 7936,
      "just": 7937,
      "Ã¨": 7938,
      "gency": 7939,
      "Ġhighlight": 7940,
      "Ġil": 7941,
      "ĠProt": 7942,
      "ĠAuthor": 7943,
      "cycl": 7944,
      "Ġdownload": 7945,
      "Ġpackage": 7946,
      "Ġflight": 7947,
      "DR": 7948,
      "ierarch": 7949,
      "TO": 7950,
      "TER": 7951,
      "Ã¢": 7952,
      "vee": 7953,
      "Ġsinger": 7954,
      "lik": 7955,
      "1981": 7956,
      "fi": 7957,
      "ĠDaily": 7958,
      "ĠLast": 7959,
      "rame": 7960,
      "Ġdeveloping": 7961,
      "ĠDaniel": 7962,
      "Ġjobs": 7963,
      "Ġwriters": 7964,
      "Ġfeedback": 7965,
      "Ġlabor": 7966,
      "raq": 7967,
      "Ġestimation": 7968,
      "formance": 7969,
      "IO": 7970,
      "Ġstudio": 7971,
      "$};": 7972,
      "mazing": 7973,
      "ĠKen": 7974,
      "ĠPC": 7975,
      "Car": 7976,
      "]$.": 7977,
      "show": 7978,
      "Ġequilibrium": 7979,
      "Ġcrew": 7980,
      "ĠJes": 7981,
      "Two": 7982,
      "ĠBern": 7983,
      "Ġseat": 7984,
      "oral": 7985,
      "sen": 7986,
      "${": 7987,
      "hu": 7988,
      "Ġseeing": 7989,
      "Ġfuel": 7990,
      "hol": 7991,
      "ĠLike": 7992,
      "ĠSpain": 7993,
      "ĠNULL": 7994,
      "ĠLear": 7995,
      "Ġanimals": 7996,
      "Ġbroken": 7997,
      "Ġaspects": 7998,
      "iner": 7999,
      "poral": 8000,
      "zy": 8001,
      "bury": 8002,
      "legal": 8003,
      "Ġprotection": 8004,
      "Ġshock": 8005,
      "header": 8006,
      "Ġtwice": 8007,
      "Ġretain": 8008,
      "ĠOrgan": 8009,
      "Ġconfidence": 8010,
      "Ġintended": 8011,
      "ĠDemocratic": 8012,
      "istent": 8013,
      "Max": 8014,
      "Ġvision": 8015,
      "?\"": 8016,
      "Ġexerc": 8017,
      "kers": 8018,
      ",...": 8019,
      "\\}$.": 8020,
      "Ġdiscover": 8021,
      "Ġpolitics": 8022,
      "sylvania": 8023,
      "erior": 8024,
      "sd": 8025,
      "Ġdatasets": 8026,
      "ĠAmazon": 8027,
      "Ġshut": 8028,
      "Ġcomputing": 8029,
      "Ġimplemented": 8030,
      "Sum": 8031,
      "Ġdefense": 8032,
      "))\\": 8033,
      "Ġdiss": 8034,
      "Ġconvent": 8035,
      "Results": 8036,
      "oned": 8037,
      "Ġreader": 8038,
      "Ġindicated": 8039,
      "ĠFire": 8040,
      "Ġexplan": 8041,
      "ĠWrit": 8042,
      "Ġbias": 8043,
      "VD": 8044,
      "Ġfluid": 8045,
      "Ġcrime": 8046,
      "ĠMid": 8047,
      "})}": 8048,
      "Ġsell": 8049,
      "Link": 8050,
      "Ġisomorphism": 8051,
      "Ġbegins": 8052,
      "Ġ{$": 8053,
      "Ġcompris": 8054,
      "Ġissued": 8055,
      "ilbert": 8056,
      "ĠJustice": 8057,
      "Ġwouldn": 8058,
      "ĠTheatre": 8059,
      "}}_{\\": 8060,
      "indu": 8061,
      "Ġnotes": 8062,
      "Ġexecutive": 8063,
      "ador": 8064,
      "Ġbos": 8065,
      "ĠObject": 8066,
      "Ġintegrated": 8067,
      "Ġflex": 8068,
      "prov": 8069,
      "Ġdecades": 8070,
      "Ġsampling": 8071,
      "ptic": 8072,
      "Ġtrip": 8073,
      "Ġportion": 8074,
      "Ġofficers": 8075,
      "Ġtransmission": 8076,
      "Ã§": 8077,
      "Ġsufficiently": 8078,
      "Ġferm": 8079,
      "ĠAssum": 8080,
      "Ġpurposes": 8081,
      "rastructure": 8082,
      "ĠEr": 8083,
      "imately": 8084,
      "igr": 8085,
      "iy": 8086,
      "Ġinn": 8087,
      "ĠBoston": 8088,
      "Ġweights": 8089,
      "ĠPacific": 8090,
      "Ġopportunities": 8091,
      "ĠBase": 8092,
      "Ġsignals": 8093,
      "Ġfavorite": 8094,
      "white": 8095,
      "ĠReal": 8096,
      "ĠIndeed": 8097,
      "ĠPhilipp": 8098,
      "request": 8099,
      "}[\\": 8100,
      "img": 8101,
      "Bo": 8102,
      "Book": 8103,
      "AF": 8104,
      "Ġmultiplic": 8105,
      "Ġuniversity": 8106,
      "ĠIndust": 8107,
      "ĠOnly": 8108,
      "Ġopinion": 8109,
      "rison": 8110,
      "ampion": 8111,
      "ĠFred": 8112,
      "Ġagreed": 8113,
      "Ø§": 8114,
      "PRO": 8115,
      "Function": 8116,
      "Ġtheories": 8117,
      "Ġterror": 8118,
      "Will": 8119,
      "ela": 8120,
      "Ġpowers": 8121,
      "ĠKim": 8122,
      "Ġquark": 8123,
      "mediate": 8124,
      "ĠJackson": 8125,
      "abeth": 8126,
      "obe": 8127,
      "bro": 8128,
      "ĠLight": 8129,
      "ĉĉĉĉĉĉĉĉ": 8130,
      "ĠAND": 8131,
      "Ġfear": 8132,
      "bell": 8133,
      "\").": 8134,
      "ĠSea": 8135,
      "iger": 8136,
      "Ġfeat": 8137,
      "iliar": 8138,
      "ĠUk": 8139,
      "property": 8140,
      "Ġ<<": 8141,
      "uler": 8142,
      "During": 8143,
      "isc": 8144,
      "Ġcaref": 8145,
      "Ġ\\&": 8146,
      "Ġinvolve": 8147,
      "longrightarrow": 8148,
      "yset": 8149,
      "([": 8150,
      "ãĤ": 8151,
      "ĠIP": 8152,
      "oir": 8153,
      "AME": 8154,
      "isted": 8155,
      "MO": 8156,
      "Ġweekend": 8157,
      "apos": 8158,
      "dfrac": 8159,
      "ĠStr": 8160,
      "ERT": 8161,
      "ione": 8162,
      "ĠView": 8163,
      "chron": 8164,
      "Ġ\\!": 8165,
      "Ġowned": 8166,
      "BR": 8167,
      "inson": 8168,
      "idents": 8169,
      "ni": 8170,
      "Ġexplo": 8171,
      "Ġgirls": 8172,
      "heast": 8173,
      "illy": 8174,
      "Ġseemed": 8175,
      "|}": 8176,
      "ĠSong": 8177,
      "Ġinteract": 8178,
      "Ġintersection": 8179,
      "}})": 8180,
      "Ġexplicitly": 8181,
      "found": 8182,
      "ĠWalk": 8183,
      "ennis": 8184,
      "Ġclick": 8185,
      "stood": 8186,
      "append": 8187,
      "ãĥ": 8188,
      "Ġentirely": 8189,
      "opyright": 8190,
      "Ġperforming": 8191,
      "Ġentered": 8192,
      "eper": 8193,
      "Ġsouthern": 8194,
      "Ġdraft": 8195,
      "ĠAL": 8196,
      "Ġassumptions": 8197,
      "ĠWell": 8198,
      "Ġexcellent": 8199,
      "rog": 8200,
      "plan": 8201,
      "Ġcosm": 8202,
      "})=": 8203,
      "udden": 8204,
      "joint": 8205,
      "ĠTer": 8206,
      "scope": 8207,
      "Ġseconds": 8208,
      "tw": 8209,
      "Ġaren": 8210,
      "hang": 8211,
      "ĠGirl": 8212,
      "erves": 8213,
      "})^": 8214,
      "Ġinjury": 8215,
      "Ġintensity": 8216,
      "ĠMult": 8217,
      "Ġtournament": 8218,
      "Ġfacilities": 8219,
      "Ġcontrad": 8220,
      "ĠInvest": 8221,
      "ĠPrem": 8222,
      "Ġboolean": 8223,
      "Ġbelieved": 8224,
      "Ġprotein": 8225,
      "Ġjet": 8226,
      "iki": 8227,
      "world": 8228,
      "Ġhair": 8229,
      "edu": 8230,
      "ĠRay": 8231,
      "./": 8232,
      "Ġgravit": 8233,
      "Ġmagazine": 8234,
      "pop": 8235,
      "Ġinsert": 8236,
      "xml": 8237,
      "ĠMic": 8238,
      "Ġbusinesses": 8239,
      "Child": 8240,
      "df": 8241,
      "Ġbird": 8242,
      "ochastic": 8243,
      "ĠWilson": 8244,
      "Ġthousands": 8245,
      "Ġstandards": 8246,
      "models": 8247,
      "Ġcalling": 8248,
      "AY": 8249,
      "iota": 8250,
      "ulty": 8251,
      "ĠPop": 8252,
      "Case": 8253,
      "Ġmunicip": 8254,
      "ĠAnother": 8255,
      "ditional": 8256,
      "ture": 8257,
      "Ġcryst": 8258,
      "ci": 8259,
      "Ġreviews": 8260,
      "Ġpieces": 8261,
      "Ġscope": 8262,
      "Ġenem": 8263,
      "ĠWhe": 8264,
      "Ġinverse": 8265,
      "chester": 8266,
      "Ġencourag": 8267,
      "Ġappeal": 8268,
      "Ġsimultane": 8269,
      "rob": 8270,
      "Ġconstants": 8271,
      "Ġupdated": 8272,
      "Ġfib": 8273,
      "else": 8274,
      "Ġzone": 8275,
      "Ġkick": 8276,
      "Ġcitizens": 8277,
      "las": 8278,
      "Ġneural": 8279,
      "ĠAppendix": 8280,
      "zed": 8281,
      "Ġherself": 8282,
      "Ġguide": 8283,
      "Ġconcerns": 8284,
      "ĠPoint": 8285,
      "Ġcloser": 8286,
      "Although": 8287,
      "ĠQueen": 8288,
      "Ġcategories": 8289,
      "Ġsecondary": 8290,
      "langu": 8291,
      "Ġcouncil": 8292,
      "ĉĉĊ": 8293,
      "Ġtight": 8294,
      "]$,": 8295,
      "ushed": 8296,
      "cape": 8297,
      "Ġsatisfied": 8298,
      "ĠSir": 8299,
      "bet": 8300,
      "ĠCarl": 8301,
      "ĠEX": 8302,
      "Ġsister": 8303,
      "Ġthread": 8304,
      "Ġpal": 8305,
      "ĠBeach": 8306,
      "Ġassigned": 8307,
      "Ġsequences": 8308,
      "ĠLo": 8309,
      "ĠCivil": 8310,
      "Ġcompat": 8311,
      "desc": 8312,
      "Ġnecessarily": 8313,
      "Ġhab": 8314,
      "Ġbulk": 8315,
      "Ġvisible": 8316,
      "ĠComput": 8317,
      "Ġenergies": 8318,
      "rative": 8319,
      "Equal": 8320,
      "ĠNone": 8321,
      "ensities": 8322,
      "find": 8323,
      "ila": 8324,
      "edge": 8325,
      "}}.": 8326,
      "Ġperspective": 8327,
      "1978": 8328,
      "algebra": 8329,
      "NO": 8330,
      "Ġmurder": 8331,
      "DT": 8332,
      "annot": 8333,
      "Ġdocuments": 8334,
      "ĠAud": 8335,
      "Ġterrit": 8336,
      "GR": 8337,
      "Ġluminos": 8338,
      "yo": 8339,
      "Ġpredictions": 8340,
      "Ġfell": 8341,
      "Ġtemperatures": 8342,
      "Ġadvanced": 8343,
      "Ġcere": 8344,
      "PH": 8345,
      "ĠAssembly": 8346,
      "1972": 8347,
      "^{*": 8348,
      "args": 8349,
      "Ġprecisely": 8350,
      "ĠCall": 8351,
      "Check": 8352,
      "ulating": 8353,
      "circle": 8354,
      "ĠSecretary": 8355,
      "Vis": 8356,
      "Ġexcited": 8357,
      "mi": 8358,
      "ĠFederal": 8359,
      "Ġderivative": 8360,
      "ĠCur": 8361,
      "Ġmatching": 8362,
      "ĠFour": 8363,
      "Ġcontrolled": 8364,
      "Ġwitness": 8365,
      "Attribute": 8366,
      "Ġbreaking": 8367,
      "Ġversions": 8368,
      "Ġnorthern": 8369,
      "ĠCA": 8370,
      "adel": 8371,
      "ĠAgain": 8372,
      "jected": 8373,
      "ĠJr": 8374,
      "1976": 8375,
      "ĠGar": 8376,
      "Ġnearby": 8377,
      "ĠMajor": 8378,
      "elihood": 8379,
      "emptyset": 8380,
      "Ġrom": 8381,
      "ĠCamb": 8382,
      "ĠStan": 8383,
      "Ġmaxim": 8384,
      "][]{": 8385,
      "elly": 8386,
      "Ġfinish": 8387,
      "Ġdrama": 8388,
      "ĠScotland": 8389,
      "never": 8390,
      "burgh": 8391,
      "Ġapprec": 8392,
      "ï¿": 8393,
      "lywood": 8394,
      "etch": 8395,
      "Writ": 8396,
      "product": 8397,
      "spe": 8398,
      "Ġhelps": 8399,
      "ĠOhio": 8400,
      "Ġ}{": 8401,
      "Direct": 8402,
      "800": 8403,
      "Ġ\\]": 8404,
      "$&": 8405,
      "}_{-": 8406,
      "utor": 8407,
      "brace": 8408,
      "ĠRepublican": 8409,
      "aste": 8410,
      "ez": 8411,
      "1974": 8412,
      "ctic": 8413,
      "=#": 8414,
      "Ġregional": 8415,
      "Ġcarbon": 8416,
      "Ġshell": 8417,
      "ĠCase": 8418,
      "ĠBal": 8419,
      "Ġdiagonal": 8420,
      ".&": 8421,
      "Ã³n": 8422,
      "Ġfellow": 8423,
      "periment": 8424,
      "Ġyouth": 8425,
      "aked": 8426,
      "Ġdivided": 8427,
      ";\\;\\": 8428,
      "Ste": 8429,
      "Ġstack": 8430,
      "hor": 8431,
      "aus": 8432,
      "ĠParliament": 8433,
      ",\\,\\": 8434,
      "ĠTH": 8435,
      "ĠAdminist": 8436,
      "Just": 8437,
      "Ġfeeling": 8438,
      "Null": 8439,
      "prec": 8440,
      "Ġplants": 8441,
      "anta": 8442,
      "orough": 8443,
      "Ġ({\\": 8444,
      "ibli": 8445,
      "Cell": 8446,
      "coh": 8447,
      "acent": 8448,
      "ĠBrad": 8449,
      "card": 8450,
      "Ġposted": 8451,
      "});": 8452,
      "aug": 8453,
      "Ġtruly": 8454,
      "Ġinspired": 8455,
      "Ġouter": 8456,
      "Ġemot": 8457,
      "nam": 8458,
      "Ġkeeping": 8459,
      "ĠRos": 8460,
      "1975": 8461,
      "Ġsale": 8462,
      "ĠNavy": 8463,
      "ĠLittle": 8464,
      "ĠStudies": 8465,
      "ĠPass": 8466,
      "ĠMountain": 8467,
      "Ġkid": 8468,
      "ï¿½": 8469,
      "medskip": 8470,
      "Ġbench": 8471,
      "ĠGener": 8472,
      "Ġrecording": 8473,
      "Ġfacility": 8474,
      "Dist": 8475,
      "paragraph": 8476,
      "pson": 8477,
      "oviet": 8478,
      "Ġtrivial": 8479,
      "Ġclassic": 8480,
      "]{\\": 8481,
      "Block": 8482,
      "entry": 8483,
      "Ġfort": 8484,
      "1977": 8485,
      "Ġweather": 8486,
      "ãģ": 8487,
      "ĠHospital": 8488,
      "inois": 8489,
      "ĠAmericans": 8490,
      "Ġturb": 8491,
      "verb": 8492,
      "Dec": 8493,
      "\"),": 8494,
      "Ġcounty": 8495,
      "full": 8496,
      "ĠMicrosoft": 8497,
      "Ġcharacteristics": 8498,
      "Ġmaximal": 8499,
      "Ġwal": 8500,
      "Ġtrace": 8501,
      "Ġcomfort": 8502,
      "Ġsurg": 8503,
      "ORT": 8504,
      "Ġfunds": 8505,
      "Ġdance": 8506,
      "ĠAp": 8507,
      "Ġdiver": 8508,
      "ĠKorea": 8509,
      "Ġlargely": 8510,
      "Ġyourself": 8511,
      "etal": 8512,
      "parameter": 8513,
      "Ġcontrols": 8514,
      "meta": 8515,
      "Ġbasketball": 8516,
      "float": 8517,
      "json": 8518,
      "navbar": 8519,
      "Ġvir": 8520,
      "diff": 8521,
      "Another": 8522,
      "Ġheav": 8523,
      "plet": 8524,
      "ĠTw": 8525,
      "ĠBol": 8526,
      "ourier": 8527,
      "tiny": 8528,
      "Ke": 8529,
      "plane": 8530,
      "Ġsupposed": 8531,
      "ĠOlympics": 8532,
      "arams": 8533,
      "Ġlift": 8534,
      "}}^{\\": 8535,
      "Ġfaster": 8536,
      "Options": 8537,
      "Ac": 8538,
      "Ġrepresenting": 8539,
      "Open": 8540,
      "!âĢĿ": 8541,
      "Pat": 8542,
      "REF": 8543,
      "Ġbatt": 8544,
      "ulse": 8545,
      "enth": 8546,
      "Ġclosely": 8547,
      "ĠCR": 8548,
      "Ġancient": 8549,
      "Ġcauses": 8550,
      "rovers": 8551,
      "ĠDC": 8552,
      "Page": 8553,
      "ĠJersey": 8554,
      "Ġadvance": 8555,
      "formal": 8556,
      "Ġclinical": 8557,
      "Return": 8558,
      "Ġparticipants": 8559,
      "ĠSaf": 8560,
      "urations": 8561,
      "Ġaudio": 8562,
      "ĠDE": 8563,
      "ensed": 8564,
      "Ġdemonstrate": 8565,
      "dependence": 8566,
      "Ġarrived": 8567,
      "}}}\\": 8568,
      "sch": 8569,
      "ĠDar": 8570,
      "Ġ\"\"\"": 8571,
      "there": 8572,
      "ĠOl": 8573,
      "Ġgravity": 8574,
      "ervation": 8575,
      "vart": 8576,
      "Ġproducer": 8577,
      "Ġconclusion": 8578,
      "|}{": 8579,
      "pool": 8580,
      "ĠEgypt": 8581,
      "Ġradial": 8582,
      "Ġtranslation": 8583,
      "ĠRom": 8584,
      "language": 8585,
      "oster": 8586,
      "ropic": 8587,
      "ĠPrime": 8588,
      "heta": 8589,
      "Ġeffectively": 8590,
      "ĠMichigan": 8591,
      "101": 8592,
      "private": 8593,
      "Ġelections": 8594,
      "ĠLive": 8595,
      "Ġmarriage": 8596,
      "Ġsky": 8597,
      "Ġexclud": 8598,
      "DC": 8599,
      "Ġemployed": 8600,
      "ĠTO": 8601,
      "Ġenhance": 8602,
      "orters": 8603,
      "Ġwire": 8604,
      "ĠDonald": 8605,
      "isms": 8606,
      "INE": 8607,
      "btn": 8608,
      "Ġaccepted": 8609,
      "venture": 8610,
      "Ġcustomer": 8611,
      "Ġprincipal": 8612,
      "Ġ×": 8613,
      "ĠCM": 8614,
      "Ġpaths": 8615,
      "Men": 8616,
      "ĠSteve": 8617,
      "prise": 8618,
      "[\"": 8619,
      "Ġsuccessfully": 8620,
      "Ġsupporting": 8621,
      "Ġliber": 8622,
      "uri": 8623,
      "grade": 8624,
      "Load": 8625,
      "Ġpassing": 8626,
      "Ġscientific": 8627,
      "Ġserving": 8628,
      "ĠNon": 8629,
      "Ġversus": 8630,
      "Ġessentially": 8631,
      "Ġpractical": 8632,
      "KE": 8633,
      "Ġiron": 8634,
      "Ġpromin": 8635,
      "algorithm": 8636,
      "Ġwinner": 8637,
      "ĠSus": 8638,
      "Ġsho": 8639,
      "Ġjourney": 8640,
      "ĠKn": 8641,
      "Ġcomposed": 8642,
      "elect": 8643,
      "ĠEst": 8644,
      "ordan": 8645,
      "Ġuns": 8646,
      "Ġfilled": 8647,
      "Ġarmy": 8648,
      "Ġinstruction": 8649,
      "Ġsleep": 8650,
      "Ġconcert": 8651,
      "Ġtele": 8652,
      "Ġsuc": 8653,
      "ĠIraq": 8654,
      "ĠRights": 8655,
      "ĠNext": 8656,
      "orders": 8657,
      "eger": 8658,
      "Ġattended": 8659,
      "tree": 8660,
      "othe": 8661,
      "1973": 8662,
      "vs": 8663,
      "ĠBa": 8664,
      "Ġrational": 8665,
      "Ġoffering": 8666,
      "eries": 8667,
      "Ġprices": 8668,
      "Ġmathemat": 8669,
      "ĠMah": 8670,
      "hard": 8671,
      "Ġlanguages": 8672,
      "ĠKong": 8673,
      "ĠRen": 8674,
      "cussion": 8675,
      "Ġsubsequent": 8676,
      "Ġstrategies": 8677,
      "umes": 8678,
      "ienced": 8679,
      "bras": 8680,
      "epend": 8681,
      "ĠNav": 8682,
      "hot": 8683,
      "à¥": 8684,
      "Ġcanonical": 8685,
      "Ap": 8686,
      "ĠKent": 8687,
      "Ġlowest": 8688,
      "format": 8689,
      "eld": 8690,
      "aturally": 8691,
      "Ġbridge": 8692,
      "Ġderive": 8693,
      "imer": 8694,
      "Ġrecognition": 8695,
      "Ġsurrounding": 8696,
      "Ġwww": 8697,
      "ĠScholar": 8698,
      "Ġnonlinear": 8699,
      "aton": 8700,
      "oupl": 8701,
      "Ġlabels": 8702,
      "Ġsand": 8703,
      "Proof": 8704,
      "amber": 8705,
      "bp": 8706,
      "Ġtheme": 8707,
      "Non": 8708,
      "About": 8709,
      "Ġpit": 8710,
      "ĠSat": 8711,
      "/(": 8712,
      "bmatrix": 8713,
      "Ġextent": 8714,
      "[-": 8715,
      "ĠBoy": 8716,
      "FO": 8717,
      "izabeth": 8718,
      "Ġaccident": 8719,
      "Ġpropose": 8720,
      "ĠWales": 8721,
      "ographer": 8722,
      "icular": 8723,
      "ĠBrook": 8724,
      "ĠProfessor": 8725,
      "Ġintroduction": 8726,
      "chor": 8727,
      "Ġholding": 8728,
      "Ġhousing": 8729,
      "semble": 8730,
      "ĠSom": 8731,
      "ĠThree": 8732,
      "Ġcoal": 8733,
      "Ġplanned": 8734,
      "Ġsevere": 8735,
      "mal": 8736,
      "avelength": 8737,
      "Ġmarketing": 8738,
      "coll": 8739,
      "ĠBir": 8740,
      "clear": 8741,
      "idential": 8742,
      "Ġmixing": 8743,
      "Ġvideos": 8744,
      "ĠGi": 8745,
      "III": 8746,
      "Ġcurvature": 8747,
      "Ġunf": 8748,
      "ĠHard": 8749,
      "anna": 8750,
      "Ġ+=": 8751,
      "ĠFair": 8752,
      "Po": 8753,
      "Ġprivacy": 8754,
      "Ġactress": 8755,
      "True": 8756,
      "Ġimprovement": 8757,
      "Ġmes": 8758,
      "Sche": 8759,
      "ĠGreek": 8760,
      "DB": 8761,
      "empty": 8762,
      "ĠHand": 8763,
      "push": 8764,
      "ĠWindows": 8765,
      "src": 8766,
      "Ġhotel": 8767,
      "Ġincorpor": 8768,
      "Ġprepared": 8769,
      "Ġphoton": 8770,
      "ĠFood": 8771,
      "Ġbundle": 8772,
      "Ġquantities": 8773,
      "Hence": 8774,
      "ĠCat": 8775,
      "direct": 8776,
      "onym": 8777,
      "Ġguys": 8778,
      "Factory": 8779,
      "ĠSher": 8780,
      "ĠMA": 8781,
      "TA": 8782,
      "ĠBroad": 8783,
      "Ġprimarily": 8784,
      "Äģ": 8785,
      "loop": 8786,
      "tings": 8787,
      "Ġrecover": 8788,
      "ĠMas": 8789,
      "Ġuniverse": 8790,
      "ĠAsian": 8791,
      "Given": 8792,
      "WE": 8793,
      "Ġstands": 8794,
      "utely": 8795,
      "SON": 8796,
      "Ġthin": 8797,
      "notes": 8798,
      "Ġalumni": 8799,
      "Ġsizes": 8800,
      "rip": 8801,
      "Ġphotos": 8802,
      "ami": 8803,
      "Ġorganized": 8804,
      "mo": 8805,
      "aling": 8806,
      "Ġsomewhat": 8807,
      "ĠInf": 8808,
      "Ġdoubt": 8809,
      "Mult": 8810,
      "Ġagency": 8811,
      "ĠInit": 8812,
      "Ġsounds": 8813,
      "Ġ,\\": 8814,
      "AND": 8815,
      "Ġeasier": 8816,
      "Ġassociation": 8817,
      "ĠBell": 8818,
      "allow": 8819,
      "Ġcommonly": 8820,
      "ĠGeorgia": 8821,
      "ressive": 8822,
      "Ġmac": 8823,
      "Ġgeneralized": 8824,
      "Dav": 8825,
      "Token": 8826,
      "Ġdrawn": 8827,
      "iples": 8828,
      "parison": 8829,
      "Ġreprodu": 8830,
      "ĠMP": 8831,
      "Ġven": 8832,
      "ĠId": 8833,
      "ori": 8834,
      "news": 8835,
      "Ġlisten": 8836,
      "Ġseasons": 8837,
      "Ġarms": 8838,
      "Ġasymptotic": 8839,
      "scriptsize": 8840,
      ")--(": 8841,
      "Consider": 8842,
      "ĠWin": 8843,
      "Ġsecure": 8844,
      "itory": 8845,
      "ĠExt": 8846,
      "Ġidentical": 8847,
      "Ġmoves": 8848,
      "Mat": 8849,
      "Ġgeneric": 8850,
      "Ġmessages": 8851,
      ")}_": 8852,
      "ĠOnce": 8853,
      "ĠOx": 8854,
      "Ġmel": 8855,
      "Ġdrum": 8856,
      "awn": 8857,
      "Command": 8858,
      "ĠEmpire": 8859,
      "evin": 8860,
      "ricket": 8861,
      "Ġdemonstrated": 8862,
      "Ġplas": 8863,
      "ifest": 8864,
      "ĠGiven": 8865,
      "ĠOR": 8866,
      "Ġreasonable": 8867,
      "Tem": 8868,
      "Ġtopological": 8869,
      "Ġdeli": 8870,
      "ESS": 8871,
      "Ġuniversal": 8872,
      "Ġwaiting": 8873,
      "formed": 8874,
      "Ġmolecular": 8875,
      "Ġsucceed": 8876,
      "ĠUr": 8877,
      "Ġera": 8878,
      "stat": 8879,
      "Ġcrowd": 8880,
      "ĠMaster": 8881,
      "Any": 8882,
      "general": 8883,
      "Ġdependent": 8884,
      "ĠGeV": 8885,
      "}}=": 8886,
      "hire": 8887,
      "LP": 8888,
      "Ġdog": 8889,
      "Ġsuppose": 8890,
      "Ġdiscrim": 8891,
      "Ġscores": 8892,
      "Ġdimensional": 8893,
      "ĠUse": 8894,
      "HO": 8895,
      "Ġfish": 8896,
      "Ġworst": 8897,
      "128": 8898,
      "Ġdecisions": 8899,
      "images": 8900,
      "1968": 8901,
      "Ġwatching": 8902,
      "____": 8903,
      "Handler": 8904,
      "Dr": 8905,
      "ĠHT": 8906,
      "large": 8907,
      "ocus": 8908,
      "Ġabsence": 8909,
      "Ġentries": 8910,
      "emb": 8911,
      "gebras": 8912,
      "Ġcoupled": 8913,
      "mt": 8914,
      "outs": 8915,
      "Are": 8916,
      "RI": 8917,
      "asp": 8918,
      "Ġconflict": 8919,
      "Ġrout": 8920,
      "ĠCro": 8921,
      "Ġ$,": 8922,
      "ĠSP": 8923,
      "Ġspan": 8924,
      "Ġenable": 8925,
      "Ġexperiences": 8926,
      "slash": 8927,
      "lementary": 8928,
      "Ġing": 8929,
      "ogg": 8930,
      "Ġexceed": 8931,
      "Ġtopic": 8932,
      "Ġexcess": 8933,
      "ego": 8934,
      "Ġinterior": 8935,
      "ĠMain": 8936,
      "ĠSD": 8937,
      "support": 8938,
      "ogether": 8939,
      "Ġtroub": 8940,
      "Long": 8941,
      "arios": 8942,
      "Ġmagnet": 8943,
      "estion": 8944,
      "ABLE": 8945,
      "Ġclients": 8946,
      "Ġvot": 8947,
      "leton": 8948,
      "Ġkin": 8949,
      "Ġcomputational": 8950,
      "alities": 8951,
      "icious": 8952,
      "oment": 8953,
      "hr": 8954,
      "Ĥ¬": 8955,
      "oute": 8956,
      "Ġhypothesis": 8957,
      "Ġarc": 8958,
      "}~": 8959,
      "Lemma": 8960,
      "ruck": 8961,
      "Ġdirections": 8962,
      "aught": 8963,
      "Ġbatter": 8964,
      "ĠEnvironment": 8965,
      "irty": 8966,
      "Ġaf": 8967,
      "ĠPakistan": 8968,
      "ĠKey": 8969,
      "instein": 8970,
      "Ġdoub": 8971,
      "typ": 8972,
      "ART": 8973,
      "ĠAst": 8974,
      "Ġvacuum": 8975,
      "figures": 8976,
      "Ġdelivery": 8977,
      "Ġequality": 8978,
      "Ġengineering": 8979,
      "Ġreferences": 8980,
      "Ġdynamical": 8981,
      "Ġinterpretation": 8982,
      "Ġspend": 8983,
      "Ġamazing": 8984,
      "Ġunderstood": 8985,
      "HC": 8986,
      "lers": 8987,
      "}|\\": 8988,
      "MT": 8989,
      "ĠAction": 8990,
      "Ġcatal": 8991,
      "ĠLocal": 8992,
      "Ġmuseum": 8993,
      "tach": 8994,
      "redit": 8995,
      "isa": 8996,
      "Ġplate": 8997,
      "XX": 8998,
      "Ġsummary": 8999,
      "Ġmarkets": 9000,
      "Ġacademic": 9001,
      "mn": 9002,
      "update": 9003,
      "ĠWat": 9004,
      "Di": 9005,
      "ĠSC": 9006,
      "vartheta": 9007,
      "Ġnotion": 9008,
      "ooking": 9009,
      "Ġthrows": 9010,
      "Ġchoices": 9011,
      "Ġprogramming": 9012,
      "Ġoccurred": 9013,
      "Ġsensitive": 9014,
      "Ġembedding": 9015,
      "Ġfighting": 9016,
      "Ġassuming": 9017,
      "teen": 9018,
      "bug": 9019,
      "1969": 9020,
      "ĠAT": 9021,
      "Ġevening": 9022,
      "ĠPhot": 9023,
      "Ġban": 9024,
      "ALL": 9025,
      "sid": 9026,
      "Also": 9027,
      "Ġrect": 9028,
      "UI": 9029,
      "Ġannounce": 9030,
      "ĠNet": 9031,
      "\\}\\": 9032,
      "ĠĠĠĠĠĠĠĠĠĠĠĠĊ": 9033,
      "Ġchart": 9034,
      "green": 9035,
      "1971": 9036,
      "Ġpip": 9037,
      "ĠPennsylvania": 9038,
      "ĠMov": 9039,
      ":=\\": 9040,
      "status": 9041,
      "aks": 9042,
      "ĠRev": 9043,
      "ipe": 9044,
      "Ġacid": 9045,
      "uv": 9046,
      "ĠSN": 9047,
      "edding": 9048,
      "ĠHun": 9049,
      "ĠFox": 9050,
      "Ġworse": 9051,
      "mode": 9052,
      "Ġvariance": 9053,
      "Ġevaluated": 9054,
      "Left": 9055,
      "Ġcorrections": 9056,
      "\"]": 9057,
      "Ġmanufacture": 9058,
      "Ġcontribute": 9059,
      "ĠOp": 9060,
      "Ġexpressions": 9061,
      "obj": 9062,
      "forcement": 9063,
      "rosc": 9064,
      "ailed": 9065,
      "180": 9066,
      "Ġadvoc": 9067,
      "Version": 9068,
      "Ġ((": 9069,
      "Ġcolon": 9070,
      "*/": 9071,
      "Ġgate": 9072,
      "ello": 9073,
      "160": 9074,
      "ĠToday": 9075,
      "aya": 9076,
      "=.": 9077,
      "ĠCorporation": 9078,
      "ĠKenn": 9079,
      "Ġrepresentative": 9080,
      "Ġdecrease": 9081,
      "rained": 9082,
      "esides": 9083,
      "Ġpurchase": 9084,
      "Buffer": 9085,
      "also": 9086,
      "people": 9087,
      "Ġmovies": 9088,
      "control": 9089,
      "ĠEnt": 9090,
      "ditionally": 9091,
      "Ġbrings": 9092,
      "axis": 9093,
      "Ġbow": 9094,
      "Ġspac": 9095,
      "Ġreceiving": 9096,
      "engers": 9097,
      "ramework": 9098,
      "arity": 9099,
      "Ġcorrection": 9100,
      "Ġcovering": 9101,
      "ascript": 9102,
      "Ġrelationships": 9103,
      "ĠIT": 9104,
      "server": 9105,
      "Ġsimplic": 9106,
      "+(": 9107,
      "Ġcriminal": 9108,
      "frame": 9109,
      "dney": 9110,
      "Ġfiled": 9111,
      "Ġmultip": 9112,
      "Ġconcerned": 9113,
      "Ġroles": 9114,
      ">\\": 9115,
      "ĠSon": 9116,
      "Ġindustrial": 9117,
      "ACK": 9118,
      "Ġapproximate": 9119,
      "Ġquantity": 9120,
      "arters": 9121,
      "Ġsudden": 9122,
      "columnwidth": 9123,
      "Ġsan": 9124,
      "Port": 9125,
      "Ġrend": 9126,
      "}$}": 9127,
      "Ġdetermin": 9128,
      "Ġboost": 9129,
      "ĠMatt": 9130,
      "Ġfold": 9131,
      "ðŁ": 9132,
      "points": 9133,
      "ĠStory": 9134,
      "Ġhelping": 9135,
      "rins": 9136,
      "Ġepisodes": 9137,
      "HL": 9138,
      "Ġstorm": 9139,
      "ĠPage": 9140,
      "ĠIllinois": 9141,
      "document": 9142,
      "Ġconnections": 9143,
      "ĠSciences": 9144,
      "ĠRh": 9145,
      "Ġdefinitely": 9146,
      "ĠSep": 9147,
      "Ġtested": 9148,
      "Ġalleged": 9149,
      "Ġresearchers": 9150,
      "Ġmedal": 9151,
      "GA": 9152,
      "Ġcovers": 9153,
      "Ġ..": 9154,
      "service": 9155,
      "Ġpun": 9156,
      "Ġanimal": 9157,
      "\\}$,": 9158,
      "ivered": 9159,
      "Ġpractices": 9160,
      "Ġcaught": 9161,
      "Ġactors": 9162,
      "Ġdetector": 9163,
      "Ġconcentration": 9164,
      "Second": 9165,
      "aml": 9166,
      "Ġswe": 9167,
      "Ġpresents": 9168,
      "Ġcolour": 9169,
      "Ġcart": 9170,
      "rangian": 9171,
      "BU": 9172,
      "ĠLew": 9173,
      "ĠSign": 9174,
      "Ġfluctuations": 9175,
      "Ġurban": 9176,
      "ĠStation": 9177,
      "tikzpicture": 9178,
      "Ġcaptured": 9179,
      "ĠVill": 9180,
      "Ġelectro": 9181,
      "Ġadvice": 9182,
      "ĠIR": 9183,
      "ritical": 9184,
      "ĠTrust": 9185,
      "Ġsigns": 9186,
      "ĠBattle": 9187,
      "Ġgift": 9188,
      "Ġaggreg": 9189,
      "ĠWars": 9190,
      "ste": 9191,
      "cline": 9192,
      "vo": 9193,
      "ĠLabor": 9194,
      "ologist": 9195,
      "Default": 9196,
      "dep": 9197,
      "Ġdefend": 9198,
      "Ġprofiles": 9199,
      "Ġspons": 9200,
      "ĠPrince": 9201,
      "Ġsharing": 9202,
      "ativ": 9203,
      "aded": 9204,
      "inds": 9205,
      "imation": 9206,
      "Ġliquid": 9207,
      "Ġfamiliar": 9208,
      "Ġcompre": 9209,
      "Ġaccounts": 9210,
      "worth": 9211,
      "ĠEngineering": 9212,
      "Resource": 9213,
      "Ġembod": 9214,
      "ĠInstead": 9215,
      "Ġcrisis": 9216,
      "slant": 9217,
      "Ġwestern": 9218,
      "\\%$": 9219,
      "&=\\": 9220,
      "ĠTy": 9221,
      "Ġstanding": 9222,
      "Ġsatell": 9223,
      "Ġfindings": 9224,
      "BB": 9225,
      "ĠHiggs": 9226,
      "ĠCheck": 9227,
      "regular": 9228,
      "Each": 9229,
      "fast": 9230,
      "ĠPy": 9231,
      "Ag": 9232,
      "ĠBang": 9233,
      "Ġfewer": 9234,
      "isson": 9235,
      "Ġneutral": 9236,
      "Ġwhatever": 9237,
      "itter": 9238,
      "Ġce": 9239,
      "Ġsupports": 9240,
      "ĠPen": 9241,
      "ubble": 9242,
      "Ġsuperv": 9243,
      "ĠSi": 9244,
      "bot": 9245,
      "ĠHong": 9246,
      "Ġpossess": 9247,
      "Ġfeaturing": 9248,
      "Ġsetup": 9249,
      "response": 9250,
      "gers": 9251,
      "Â°": 9252,
      "Ġcreative": 9253,
      "Ġautomatically": 9254,
      "Pop": 9255,
      "ĠRet": 9256,
      "Current": 9257,
      "ĠHom": 9258,
      "orship": 9259,
      "Ġreaders": 9260,
      "Ġcapable": 9261,
      "eral": 9262,
      "pted": 9263,
      "ĠAsh": 9264,
      "ĠEastern": 9265,
      "Style": 9266,
      "Ġgrew": 9267,
      "plot": 9268,
      "ĠSeason": 9269,
      "Ġjustice": 9270,
      "Ġvent": 9271,
      "irror": 9272,
      "Ġminister": 9273,
      "ĠRog": 9274,
      "aki": 9275,
      "Ġmere": 9276,
      "Ġcommut": 9277,
      "Ġcrucial": 9278,
      "ĠToronto": 9279,
      "Ġpapers": 9280,
      "Local": 9281,
      "ulner": 9282,
      "Ġloved": 9283,
      "ogonal": 9284,
      "ĠNC": 9285,
      "theless": 9286,
      "endar": 9287,
      "Ġextensive": 9288,
      "Ġcircuit": 9289,
      "emic": 9290,
      "scious": 9291,
      "Ġcommittee": 9292,
      "Ġacquired": 9293,
      "Ġsac": 9294,
      "filter": 9295,
      "ugby": 9296,
      "Ġdedu": 9297,
      "Ġoffset": 9298,
      "aux": 9299,
      "ĠRa": 9300,
      "Early": 9301,
      "World": 9302,
      "BE": 9303,
      "raine": 9304,
      "Ġhumans": 9305,
      "Ġfifth": 9306,
      "Aust": 9307,
      "etts": 9308,
      "Ġmental": 9309,
      "Ġtum": 9310,
      "inating": 9311,
      "Ġextreme": 9312,
      "ceived": 9313,
      "hl": 9314,
      "Ġsignature": 9315,
      "Ġexpanded": 9316,
      "Ġhearing": 9317,
      "Ġgreatest": 9318,
      "ruption": 9319,
      "Ġcomedy": 9320,
      "Ġshares": 9321,
      "GE": 9322,
      "Ġspeaking": 9323,
      "Ġstead": 9324,
      "including": 9325,
      "Ġrecip": 9326,
      "Ġdebate": 9327,
      "Arg": 9328,
      "multirow": 9329,
      "ĠBon": 9330,
      "Ġgenerating": 9331,
      "ĠRod": 9332,
      "Ġexperienced": 9333,
      "ĠFre": 9334,
      "ĠGuard": 9335,
      "jpg": 9336,
      "apore": 9337,
      "Ġpra": 9338,
      "Ġfootballers": 9339,
      "Ġnarr": 9340,
      "uz": 9341,
      "rell": 9342,
      "Ġlose": 9343,
      "clip": 9344,
      "Ġdropped": 9345,
      "ĠBBC": 9346,
      "Ġcash": 9347,
      "ĠCas": 9348,
      "osophy": 9349,
      "stances": 9350,
      "ito": 9351,
      "ĠNOT": 9352,
      "Ġfavour": 9353,
      "ĠTal": 9354,
      "RR": 9355,
      "Ġmedian": 9356,
      "Ġwealth": 9357,
      "una": 9358,
      "iii": 9359,
      "125": 9360,
      "Ġeigenvalues": 9361,
      "Ġdriven": 9362,
      "Red": 9363,
      "akers": 9364,
      "ĠOrig": 9365,
      "Ġdense": 9366,
      "uling": 9367,
      "ERR": 9368,
      "Ġquasi": 9369,
      "Ġcond": 9370,
      ".\\\\": 9371,
      "sex": 9372,
      "Ġnewly": 9373,
      "sequently": 9374,
      "!\"": 9375,
      "ĠBand": 9376,
      "Bi": 9377,
      "Ġment": 9378,
      "ĠChair": 9379,
      "Ġskin": 9380,
      "ained": 9381,
      "si": 9382,
      "Ġluminosity": 9383,
      "1967": 9384,
      "esian": 9385,
      "National": 9386,
      "Ġtransaction": 9387,
      "Ġserves": 9388,
      "Ġguard": 9389,
      "Ġapproved": 9390,
      "Ġbodies": 9391,
      "should": 9392,
      "antly": 9393,
      "output": 9394,
      "subsec": 9395,
      "âĢī": 9396,
      "Ġincred": 9397,
      "ĠVideo": 9398,
      "Ġinfo": 9399,
      "Ġpotentially": 9400,
      "ĠChildren": 9401,
      "Ġstatements": 9402,
      "Ġdashed": 9403,
      "pres": 9404,
      "inction": 9405,
      "ĠNick": 9406,
      "equations": 9407,
      "organ": 9408,
      "ributed": 9409,
      "Ġdx": 9410,
      "Ġperman": 9411,
      "Xi": 9412,
      "Ġanom": 9413,
      "Ġawards": 9414,
      "ĠGovernor": 9415,
      "isot": 9416,
      "antum": 9417,
      "FONT": 9418,
      "Ġauthorities": 9419,
      "Ġlinked": 9420,
      "ĠHo": 9421,
      "Ġstochastic": 9422,
      "Ġhonor": 9423,
      "Ġstret": 9424,
      "ymmetric": 9425,
      "ĠĠĠĠĠĠĠĠĠĠĠĠĠĠĠĠĠĠĠĠĠĠĠĠĠĠĠĠĠĠĠĠĠĠĠĠĠĠĠĠĠĠĠĠĠĠĠĠĠĠĠĠĠĠĠĠĠĠĠĠĠĠĠĠ": 9426,
      "hanced": 9427,
      "hav": 9428,
      "ĠBooks": 9429,
      "std": 9430,
      "power": 9431,
      "Ġauthority": 9432,
      "PO": 9433,
      "123": 9434,
      "styles": 9435,
      "Ġhomes": 9436,
      "ĠCirc": 9437,
      "Ġillustr": 9438,
      "ttp": 9439,
      "tz": 9440,
      "Ġhouses": 9441,
      "Ġcooper": 9442,
      "Ġships": 9443,
      "ĠConf": 9444,
      "Ġsupers": 9445,
      "kit": 9446,
      "olis": 9447,
      "vy": 9448,
      "Ġrear": 9449,
      "Ġstopped": 9450,
      "ĠWis": 9451,
      "ĠEu": 9452,
      "rivacy": 9453,
      "001": 9454,
      "SN": 9455,
      "ribed": 9456,
      "1940": 9457,
      "Cent": 9458,
      "Ġpolitician": 9459,
      "Ġseparation": 9460,
      "Ġnegot": 9461,
      "Ġcriteria": 9462,
[...]
