#version: 0.2
Ġ Ġ
t h
i n
o n
Ġ a
e r
Ġ th
ĠĠ ĠĠ
r e
t i
e n
Ġth e
Ġ s
o r
a l
t e
Ġ c
Ġ \
i s
Ġ o
e s
a r
ti on
a n
Ġ $
l e
Ġ f
Ġ w
Ġ t
Ġ p
m a
r o
in g
Ġo f
Ġ in
Ġ b
n d
Ġ d
a t
e d
e l
e t
a s
ĠĠ Ġ
i c
r a
i g
Ġa nd
ĠĠĠĠ ĠĠĠĠ
Ġt o
{ \
i t
e c
en t
Ġ m
o u
Ġ h
Ġ re
l a
o m
Ġ e
Ġ n
s t
Ġ is
o l
a m
Ġ (
c e
i d
_ {
a tion
i l
c h
q u
T h
t a
l o
Ġ$ \
i m
Ġf or
v e
č Ċ
u s
Ġ g
o d
u r
l y
ma th
v er
u m
o t
e g
Ġ =
u l
en d
i th
Ġ S
Ġ &
t r
s i
Ġc on
Ġth at
g e
Ġ on
} \
i f
ĠĠĠĠ ĠĠĠ
p h
te d
Ġ l
s e
} $
h t
u n
^ {
t er
Ġ A
i te
Ġ C
Ġ v
Th e
Ġb e
a c
a d
c al
Ġw ith
o w
ĉ ĉ
u re
Ġ Ċ
Ġ I
Ġa s
u t
Ġw h
Ġp ro
re f
p p
Ġw e
i r
Ġa n
Ġa l
ig ht
x t
2 0
} }
â Ģ
ra c
Ġ <
( \
b le
er e
in e
Ġ ma
t s
Ġ M
eg in
u b
re s
d e
b egin
Ġa re
- -
= "
it y
Ġb y
p er
a te
Ġ F
an d
) ;
i v
Ġ P
Ġe x
o re
_ {\
Ġ {
) $
Ġc om
c tion
et a
< /
f t
Ġ B
es s
s p
} {
Ġd e
ti c
ro m
m ent
Ġ The
o p
e qu
ti m
Ġ it
f rac
Ġ L
r i
} ,
Ġ R
e w
Ġth is
c t
Ġ H
Ġ T
c ite
Ġa t
ĠĠĠĠĠĠĠĠ ĠĠĠĠĠĠĠĠ
as s
Ġ D
er s
e q
Ġ W
Ġ or
e m
r ight
} )
Ġ us
u p
Ġs h
te xt
b el
i z
u e
Ġs t
Ġf rom
Ġ N
Ġ E
ec t
f or
y s
o s
l i
ou r
/ /
la bel
a p
r an
am e
math b
m b
, \
t o
Ġ -
lo w
Ġs p
Ġ *
ig n
is t
Ġ G
tion s
Ġc h
ĠĠĠĠĠĠĠĠ ĠĠĠ
r m
a ve
Ġc an
Ġ y
Ġ }
$ ,
Ġcom p
k e
c l
le ft
in t
$ .
Ġs u
0 0
p s
f ig
ic h
si on
f f
d i
equ ation
math cal
Ġc l
im p
th er
l d
} .
en ce
u nd
al l
y p
d a
p ar
a b
ti ve
. .
" >
Ġp ar
as e
an t
a ge
o c
il l
Ġ Th
} (
a re
a ch
Ġ +
ec tion
es t
d s
ti al
} ^
ĠĠĠĠ Ġ
or t
~ \
id e
Ġh ave
d u
Ġ if
Ġ le
} _
âĢ Ļ
Ġn ot
en er
20 1
I n
a ce
c on
el l
Ġm od
tr i
ar y
Ġ O
ph a
) .
a y
Ġs e
Ġ "
Ġm e
Ġwh ich
u d
al pha
c c
l ine
b er
p ro
ti l
Ġd is
l ic
Ġre s
a v
te m
f er
s um
m u
o g
Ġ lo
un ction
) \
) ,
a g
at a
ur n
ĠI n
Ġo b
i on
Ġcl ass
an g
ro w
ic al
i es
Ġs ta
Ġ r
a ble
Ġa pp
u st
od e
i le
1 0
s s
$ \
el ta
or k
Ġ un
an ce
p t
yp e
en s
v el
in d
am ma
Ġ k
on g
ac k
Ġp o
_ \
* *
ul t
c k
c om
Ġ\ \
ation s
s er
i al
eg a
o ver
s ub
= \
Ġal l
n t
ta in
d ot
Ġh as
mathb b
ou t
} ^{
Ġw as
Ġ U
Ġa d
Ġex p
er m
} _{
Ġ [
ar i
Ġ i
ar d
s o
h o
Ġ qu
as t
i re
Ġv al
ou s
st r
ra y
ig ma
am p
b u
= =
tim es
Ġ J
Ġf unction
Ġn e
f in
- \
ou nd
ou ld
o f
e x
ac t
a k
Ġa b
la tion
a ted
g et
om e
t urn
^ {\
-- --
tim e
ph i
Ġs et
( )
ent s
or d
re e
Ġ j
Ġon e
Ġw ill
s c
w e
Ġin ter
at or
Ġmod el
Ġ ra
i el
o st
la mb
i p
lamb da
s et
Ġ '
w o
en c
Ġ imp
th e
1 9
ul ar
b f
te s
Ġ {\
Ġp er
Ġ K
Ġ V
h at
mathb f
ow n
u g
ra ph
for m
ti t
p i
Ġd o
Ġ âĢ
e ar
ĠĠĠĠĠĠĠĠ ĠĠĠĠĠĠĠ
Ġn o
id th
on d
um ber
Ġe v
l es
Ġa r
il on
Ġs tr
ig h
s ection
Ġd if
ol low
ps ilon
u al
or y
a pp
ĠW e
Ġp re
s igma
an s
al ign
p o
l l
Ġo ur
la y
ti es
ite m
v i
Ġal so
on e
b eta
^{ -
Ġt wo
our ce
ar k
math rm
} {\
Ġh e
Ġ( \
Ġ te
o k
c ent
Ġf ollow
Ġo ut
ĉĉ ĉĉ
ir st
b ar
1 2
tri bu
j ect
ys tem
Ġn ew
Ġre p
til de
p ut
ic e
n e
C on
ic s
th eta
ra m
* }
Ġe qu
Ġth ere
x i
+ \
Ġb o
g amma
le d
Ġcon t
Ġy ou
Ġd ata
Ġc or
Ġsu ch
Ġ en
iz e
Ġ ver
w h
Ġs ub
Ġ time
\ \
Ġm ore
at ure
Ġp a
Ġcon s
or s
or m
d er
w idth
Ġt ran
] {
W e
ol u
Ġg ener
cl ud
' s
fig ure
Ġb ut
Ġre turn
^ \
Ġwh ere
Ġb et
Ġo ver
Ġ //
v al
Ġdif fer
i x
Ġ< /
p tion
c ol
ar ray
) }
le q
r ho
.. /
y n
e f
le ment
Ġ x
- >
c dot
ma tion
ta u
d elta
o x
iel d
Ġs o
r y
Ġ ro
20 0
: :
Ġon ly
t ing
el f
$ -
ti cal
is h
c ri
th od
i a
ul l
Ġs a
ĠTh is
Ġan y
am et
und er
Ġl ine
Ġd es
}$ ,
s h
v ar
du c
Ġc o
| \
in al
ro up
Ġp h
Ġthe ir
u ct
}$ .
Ġsh ow
c re
o te
si tion
Ġs ome
d iv
Ġo ther
Ġa cc
Ġit s
Ġe ach
Ġ up
Ġc ol
o se
} (\
id er
Ġth en
ub lic
e p
b ig
Ġth an
eq ref
Ġre g
il ity
p r
c ap
res s
Ġg iv
Ġ /
Ġc ase
u es
o ve
Ġo p
o b
Ġ .
1 1
m l
Ġwh en
Ġl i
Ġcon st
we en
ft y
a us
in fty
Ġf irst
n u
in k
v ed
âĢ Ŀ
ul ts
Ġ @
) )
par tial
Ġw ork
m p
ar row
om ega
Ġ :
is e
g er
v es
er r
a in
di tion
ess age
Ġm an
Ġt ra
te x
Ġ |
p end
Ġsp ec
Ġthe se
Ġbet ween
Ġp r
it s
g es
s ec
" ,
h e
Ġ u
Ġre sp
Ġh igh
ar t
Ġs ystem
in ce
Ġg et
eq n
Ġd ec
' ,
sp ace
( "
m all
Ġval ue
at ing
amp le
sp an
Ġthe y
m s
Ġin t
> </
m in
D elta
res ent
Ġbe en
as ed
d ic
s f
le c
Ġus ing
Ġv ari
ta b
ti f
Ġ Y
Ġapp ro
r ic
Ġa g
ro und
h i
Ġn umber
Ġin to
Ġn on
1 5
ĉĉ ĉ
Ġe ff
( );
Ġe xt
n ame
qu ad
n ing
> <
im e
il d
ou n
c ess
Ġ es
m m
Ġt r
en sion
Ġus ed
Ġus e
olu tion
t y
g y
en tial
ol d
} [
\ ,
1 6
res p
ore m
Ġc ur
Ġde fin
P ro
Ġ$ (
iz ation
ĠF or
ol ds
ul ti
} }\
Ġs c
n i
p m
f ore
)$ .
ou nt
Ġg o
Ġtran s
Ġ under
r t
on s
o id
Ġw ere
Ġs im
Ġfor m
s im
en g
ol og
Ġsta te
Ġgiv en
ter n
Ġpar amet
ch i
l an
g le
Ġme thod
u la
tr ing
---- ----
a th
Ġ id
de f
Ġde f
iz ed
e ver
cent er
1 3
$ $
ra tion
Ġa c
s q
E R
E x
Ġb ec
n o
Ġ `
../ ../
al ly
Ġ X
c es
Ġre qu
Ġl ar
Ġdiffer ent
Ġf e
i an
ĠC h
lo g
Ġ z
Ġt ype
e psilon
F or
O m
} _{\
Ġre la
2 2
ĠĠĠĠĠĠĠĠ Ġ
ug h
in s
Ġma y
Ġc al
wh ere
Ġ la
Ġt erm
ta ble
Ġcons ider
p si
Ġob tain
Ġpar tic
Ġs ame
Ġres ults
u de
== ==
ht ml
eqn array
Ġb ound
f ter
m od
1 4
Om ega
Ġob ser
t t
if ic
Ġor der
f o
ment s
Ġpro v
Ġab out
as es
u le
Ġh ref
2 5
ĠâĢ ľ
a x
ĠI t
Ġs ec
ate s
Ġp ublic
lo ck
ĠĠĠĠĠĠĠĠĠĠĠĠĠĠĠĠ ĠĠĠ
tri x
^ *
Ġs ign
Ġres ult
ĠF ig
Ġch ar
y mb
ar ch
Ġk n
as ure
ing s
ymb ol
as h
w ide
text bf
)$ ,
vel y
Ġp ol
Ġfollow ing
le m
s ource
G amma
Ġf act
g or
sq rt
Ġh is
Ġcom m
ou g
ir c
b e
Ġs er
for mation
ec k
ic i
in clud
ic k
tr ans
Ġ* /
raph ics
Ġan al
Ġn ame
w ork
Ġo per
sub section
Ġ Q
Ġcomp le
o v
n g
i ed
Ġ --
th is
O N
Ġw ould
m essage
1 8
** **
i ve
S T
ec ted
an n
ĠĠ Ċ
ang le
ver y
a u
t on
z e
al s
. ,
Ġse e
ot s
v are
Ġ čĊ
i b
cap tion
^{ (
Ġ #
Ġsu pp
ti vely
Ġw ell
vare psilon
I N
d d
ver s
el y
includ eg
ro ugh
includeg raphics
}^ {\
Ġdis c
} =
in ts
a tive
Ġ low
Ġ _
Ġbo th
ti v
c m
( '
f ra
2 1
Ġ end
Ġf ield
re d
t d
e v
ĠP ro
ec ts
on t
eng th
Ġdis tribu
ener gy
Ġ$ {\
aus e
n er
um n
il y
Ġper form
Ġm in
Ġsp ace
) =
b m
ma ge
re nt
Ġh ow
Ġ >
Ġ\ ,
ke y
: //
in ed
Ġm ost
Ġme asure
Ġwh o
Ġd ire
l u
N ame
right arrow
Ġ el
Ġne ed
C om
ra w
ran gle
Ġ= >
al ity
k s
Ġs mall
S t
uct ure
Ġb ack
al se
Ġs ur
3 0
Ġas s
p le
Ġ err
an ge
in es
Ġas sum
Ġpro per
t en
C h
cal e
Ġd en
T o
m e
et work
Ġst ar
ti ma
Ġcor resp
Ġg roup
Ġpo int
in ing
p re
c ed
Ġpro ble
imp ort
im ension
em ph
p os
te g
ation al
ens ure
Ġex per
var phi
enc y
. ~\
Ġpro cess
ge q
. }
e xt
& \
T ype
A T
gor ith
u ch
v ice
i ew
Ġp os
is ts
R E
Ġs elf
um er
ect or
re ad
at ch
n on
d is
Ġin v
Ġd i
I d
2 3
1 7
ab ility
pro of
ex p
Ġdes cri
Ġth rough
il ar
Th is
Ġin de
u c
oug h
Ġs te
a ys
Ġma ss
Ġval ues
b olds
Ġf in
r it
ĠĠĠĠĠĠĠĠĠĠĠĠĠĠĠĠ ĠĠĠĠĠĠĠĠĠĠĠĠĠĠĠĠ
over line
l it
R es
bolds ymbol
at er
i tion
am b
5 0
n ew
S tring
/ >
1 00
fra k
Ġ energy
Ġe very
Ġad d
h line
vi ew
B ig
a ke
b o
Ġof f
et ric
si ble
Ġte st
}, \
) ^
Ġy our
le ct
ro p
Ġs imp
orm al
sc ri
Ġre c
ar g
Ġp e
s k
Ġy ear
c ode
ro ss
b r
lo c
m o
ic es
cl ass
et s
}) .
[ \
y le
v ec
ĠS t
Ġsh ould
Ġ Z
l ing
m er
po sition
Ġm ulti
Ġw or
Ġl im
Ġ ed
Ġ ran
re turn
' '
A R
Ġst ud
oc i
ad d
" />
n ot
le ction
is m
Ġd ist
trans lation
2 4
Ġli ke
Ġdo es
Ġwh ile
b ack
er t
a i
s on
Ġ )
Ġthe m
er o
ow er
Ġs ing
Ġin cre
Ġc lo
is ion
Ġlo cal
} }$
t ype
Ġn ow
ec tive
Ġp res
f ace
Ġf ind
} ;
le ar
math frak
ht t
# #
Ġm o
Ġa fter
re qu
um ent
.. .
) :
ĠI f
Ġgener al
ra te
ro l
ens ity
l angle
Ġcor re
S S
u th
c o
Ġh ad
ĠA s
A s
am es
Ġab ove
Ġe lement
ĠĠĠĠ ĠĠ
L et
oc k
si ze
i tial
Ġlar ge
Ġb el
par am
Ġth ree
b ox
ma in
b it
i e
Ġmodel s
Ġh er
I D
l im
Ġde pend
V al
m on
Ġpar t
n ab
Ġin st
Ġb u
ma t
ur ing
ld ots
Ġes tima
ĠC om
is sion
cite p
duc ed
Ġc re
u lation
Ġfollow s
Ġcon tain
ical ly
amb da
Ġtr ue
P hi
ar get
a ult
Ġ right
Ġcorresp ond
Ġ ,
Ġsh own
du ction
y mm
Ġre al
Ġdefin ed
ic t
i ties
Ġs ol
cl ude
L ambda
v en
Ġstr ucture
Ġc ould
r r
tex tit
ensure math
Ġrep resent
p lay
Ġn etwork
Ġl ong
Ġ !
er n
Ġid en
s u
app a
O R
et erm
b ra
s ing
nab la
L E
n ess
Ġle t
Ġin formation
ac ter
Ġ tem
se e
ac tion
la ce
Ġver y
Ġs ince
ire d
Ġa m
en ted
or ph
Ġev en
gorith m
Ġma t
ow ever
Ġin clud
vi ous
te st
u te
3 2
p d
Ġs ize
Ġle ad
k appa
Ġfe ature
er y
mb ox
res sion
Ġbec ause
Ġto p
19 9
qu e
s ed
L ist
Ġh and
\ |
Ġsec ond
le t
m ed
_ _
ma x
ce ption
} )$
t op
Ġf il
are d
Ġf ound
Ġwh at
Ġg ra
ur ther
c or
\ %
Ġcont in
m an
Ġproble m
o times
w ard
yn am
ur al
Ġc ent
o th
Ġf inal
Ġappro ach
. \
Ġma g
w ith
ĠC on
b y
u di
Ġs ch
ff ici
ti sf
ta te
Ġn ull
Ġ ent
enc es
w w
o per
olog y
k ing
Ġreg ion
Ġdistribu tion
iel ds
el s
r al
od y
4 0
B y
ĠA l
Ġra di
vel op
Ġcal c
ys is
Ġt ak
ĠĠĠĠĠĠĠĠ ĠĠĠĠĠ
}) ,
i o
Ġin s
Ġpro b
R e
la ck
c irc
Ġ= =
Ġex ample
re n
Ġv ar
Ġman y
Ġle ar
or g
Ġma x
as k
Ġh el
Ġimp ort
Ġparamet ers
ec tively
lo b
on ent
E N
non umber
m ark
com p
ord er
i j
Ġsim ilar
}} {
Ġs ection
i er
Ġal low
l ess
e e
Ġin teg
' )
ti ce
o le
con t
Ġma in
Ġf alse
ĠH e
Ġw ay
Ġcon n
dot s
ec h
Ġsa id
Ġre ad
Ġj ust
Ġb ased
"> <
g ram
Ġterm s
tit le
p or
et ry
A L
Ġsa tisf
Ġle vel
\ [
Ġh ere
00 0
S igma
f ul
Ġd eterm
and om
Ġkn ow
d ata
l er
l ish
l ass
Ġprov id
r ite
tic s
center ing
Ġp lan
Ġcur rent
ĠTh en
es e
Ġm on
ut o
Ġpartic ular
A r
col or
Ġv oid
Ġ` `
E n
si tive
re at
3 3
m and
ent ly
Ġs um
Ġa v
Ġoper ator
Ġdisc us
a w
A N
Ġg raph
Ġma trix
ot ential
Ġma ke
ix ed
Ġor g
/ \
a il
S E
iv ate
ĠâĢ ĵ
scri pt
s elf
Ġ( $
Ġst and
Ġpa per
Ġd er
ĠW h
us ion
Ġm y
Ġsu per
6 0
Ġth ose
i or
in ter
Ġ q
ĠT o
f ile
e y
re am
D E
l at
si ve
ĠA n
ic ation
on se
du ct
re g
\ !
Ġpre dic
F ig
Ġbe ing
Ġshow s
Ġch o
wide tilde
iv al
Ġag ain
ĠTh ere
en se
g s
{ -
as on
Ġs olution
lec tr
Ġobtain ed
] ,
Ġr un
Ġin itial
c i
} -
tab ular
Ġad dition
loc ation
P ar
d raw
Ġde te
Ġchar acter
ĠR e
O b
I t
Ġm ust
Ġb as
op le
Ġexper im
Ġpo ints
) (
Ġerr or
Ġop tim
C ol
if t
g round
Ġfunction s
im um
Ġp lay
Ġe m
str ing
eta il
Ġd ensity
od es
ĠD e
Ġsh e
Ġequ ation
val ue
Ġcon str
Ġparamet er
Ġstud y
Ġs equ
Ġd ue
ual ly
Ġobser v
re ak
Ġ& &
st yle
la te
Ġin dic
v ent
Ġdire ct
" )
" );
Ġd at
Ġsing le
b ed
Ġl ast
pr ime
Ġcorrespond ing
2 7
Ġa ction
til l
Ġp resent
ma trix
du ce
Ġm em
-------- --------
ĠL et
ĠE x
Ġel se
ver t
8 0
en e
fer ence
Ġp ower
tit y
tiv ity
Ġ et
Ġc ap
an ts
t al
Ġma p
Ġlim it
ad er
ot t
} +
f unction
ĠĠĠĠ Ċ
4 5
Ġline ar
n ode
Ġbe h
ach e
in c
r id
em ma
Ġ left
Ġun i
u ction
in de
ĠĠĠĠĠĠĠĠĠĠĠĠĠĠĠĠ ĠĠĠĠĠĠĠ
p x
ro id
da y
Ġte ch
S et
Ġpos sible
Ġs cal
\ {
Ġt yp
D ata
a ti
in ation
la ble
Ġme an
Ġconst ant
amp les
Ġp otential
li es
e ed
S er
Ġin put
~ ~
o ther
Ġfin ite
g o
b ers
) }\
Ġcon dition
\ ]
ab les
th ing
w ar
an c
ĠN ew
6 4
Ġstr ing
A C
a ir
ĠH owever
Ġc ar
20 20
z eta
ĠE q
Ġv is
) =\
Ġbe fore
I T
Ġpa th
Ġappro xi
Val ue
ĠThe orem
Ġresp ectively
if ied
Ġm uch
n b
Ġn ode
Ġanal ysis
7 5
9 9
} =\
pp er
o int
c ur
S p
Ġex ist
at ter
an y
; \
th m
201 8
Ġint ro
ver se
or ted
ĠR es
{ (
ou p
cc ess
Ġpro of
av a
Ġsta tes
is tic
se arch
201 9
Ġc oun
ti g
201 7
Ġde velop
ĠS h
Ġd imension
} ]
u ration
Ġwith in
Ġ %
s l
A l
lob al
tr y
I f
Ġ& =
2 8
l us
Ġcomple x
di tions
Ġpe ople
A M
ure s
**** ****
Ġthe ory
I C
Ġor ig
ce pt
g roup
A t
==== ====
Ġstr ong
Ġd eg
Ġspec tr
] ;
Ġra te
0 5
3 5
om orph
Ġpa ir
f il
) ^{
Ġt ake
pro p
ma ges
Ġ key
Ġv ector
$ )
Ġr andom
Ġi mage
Ġt ri
on al
D e
Ġwith out
l ight
Ġph ase
ula tions
text width
Ġl ist
lo t
C O
2 6
A n
Ġal gorithm
Ġf ram
Ġapp lic
li ent
Ġc all
Ġa ct
9 0
per ature
m it
i od
Ġass oci
( $
Ġpre vious
ro ll
if e
o ol
Ġar g
Ġg u
' t
Ġre f
lo ad
Ġm ed
op e
}_ \
Ġin f
m ary
iv ed
ma p
j ects
Ġlo ok
201 6
pos ed
Ġcontin u
ĠS p
Ġperform ance
Ġd own
}^ \
Ġm om
Ġran ge
r c
are nt
// //
Ġto tal
} |
Ġsta tic
our ces
fo ot
ĠS ection
Ġcom b
ti s
r on
cdot s
] .
c er
Ġh y
d t
s mall
d es
âĢ ľ
M od
i i
Ġs till
v ir
ant um
lem ma
Ġs ymm
wide hat
0 1
Ġcont rol
Ġt arget
i ble
Ġne xt
Ġmethod s
ord ing
Ġop en
ent al
b ility
Ġd uring
nb sp
W h
math sf
Ġa ver
if y
c ted
al ax
l ink
. ~
}) \
pend ent
cri pt
w n
e ps
Ġlo g
ma g
Ġgo od
. âĢĿ
rac t
rr or
op y
al th
an ces
Ġf am
Ġcon tribu
Ġd ynam
at us
ac es
se qu
ul es
inde x
Ġ\ {
ind ow
Ġ lay
ĉĉĉĉ ĉ
Ġa round
}^{ (
, -
S h
Ġlow er
ai lable
d ate
tical ly
us e
Ġyear s
Ġsign ific
Ġm ark
Ġv iew
Ġb est
oc us
ith er
A S
re m
w ay
Ġdes ign
Ġimp ro
2 9
ĠA r
pd f
Ġ/ **
}} (
q quad
ĠU ni
Ġ ke
C T
Ġs ource
ag es
con st
I nd
Ġext end
is on
) );
B u
Ġe lectr
ĠFig ure
Ġiden tif
ge bra
si f
Ġdef ine
ĠI nd
^ +
Ġe ar
Ġsystem s
& =
ĠO n
Con t
201 5
}\ ,
Ġf our
Ġcon f
Ġph ot
Ġdi ag
P si
O n
ter s
st ar
Ġimport ant
Ġcon ditions
il li
Ġconst ra
n ote
Ġe as
Ġ enc
Ġma de
Ġo cc
Ġz ero
Ġpr ivate
Ġn ormal
Ex ception
Ġob ject
Ġal ong
lec ted
Ġsupp ort
ust er
Ġl ength
Ġch ange
}\ \
b or
Ġre le
Ġb lock
ĠL emma
Ġproper ties
i k
Ġlo c
ĉ Ċ
m id
Ġhel p
lo y
Ġhigh er
Ġcon ver
20 21
H e
oper ator
Ġex ists
Ġtem perature
c up
Ġprob ability
u pp
ff er
ne tic
Ġcomm un
al u
l ist
v ari
x space
ĠS tring
Ġcomp ut
) ]
Ġtra ining
Ġpo sitive
Ġ$ (\
ĠA nd
ur b
{ {\
wh ich
G et
Ġm et
Ġstand ard
Ġfact or
o h
ap e
r ing
Ġev ent
Ġa uth
Ġobser ved
Ġf urther
Ġc ases
sub set
im al
ly ing
s cale
it er
is ed
Ġch eck
( ).
in ary
c os
j s
A P
Ġ& \
L L
E D
o od
20 22
Ġ times
a h
Ġf ile
Ġf ull
Ġdif f
Ġdat as
rac k
pp ing
Ġse ver
ol l
Ġch ang
olu tions
Ġsignific ant
de fin
ĠB y
app ro
Ġ// /
U n
id ual
Ġst udi
ma te
3 4
p ublic
V iew
as sif
Ġev alu
l ue
ar s
st and
7 0
Ġ ide
tion al
on ents
sk ip
ula ted
as ing
e ffici
Ġver sion
htt p
w it
Ġd id
i ted
Ġl ight
} :
v ing
ott om
ĠA d
Ġc lear
oc ument
Ġf ree
n av
w ays
Ġg alax
a f
Ġab s
Ġle ast
Ġ! =
] $
Ġcal led
us h
htt ps
Ġg e
Ġequ ival
Ġf requ
"> </
| ^
Ġc oup
Ġph ys
Ġpro posed
Ġth us
3 6
Ġmat ch
O p
Ġp op
Ġ text
Ġbeh av
Ġcomp ar
cite t
Ġfeature s
e ma
es sion
Ġf lu
Ġkn own
Ġne ar
Ġcon text
Ġus er
S tate
ord in
Ġ: =
Ġrequ ire
Ġh im
l and
Ġcon fig
Ġbel ow
Ġqu antum
ur l
" ;
si an
E rror
201 4
Ġinclud ing
4 8
Ġp ass
() );
Ġmom ent
Ġinde x
Ġsequ ence
y m
Ġf ixed
re en
f ield
Ġassum e
p ath
h space
Ġassoci ated
ĠS ch
Ob ject
olog ical
Ġl ess
Ġcomple te
Ġc ross
equ iv
R O
} +\
ĠA pp
Ġexp ected
g ed
e k
ind ent
Ġlear ning
cl usion
Ġw rit
Ġav ailable
Ġqu an
w ise
on ds
f rom
5 5
Ġc ode
ile d
sc r
s te
b ased
Ġl ines
Com p
Ġst art
em ber
I I
li ed
W ith
t le
am s
Ġbet ter
vir on
Ġwor ld
ou ble
=" +
Ġsimp le
Ġd etail
Ġp ers
Ġpro gram
ang u
Ġd r
Ġapp ear
}} {\
C lass
st ate
w are
Ġf it
Ġe mp
n eq
Ġs ample
b ut
Ġprov ide
Ġs cale
Ġlo ss
Ġfor mu
ack age
sp ec
m ul
' $
I ON
Ġeff ect
d imension
Ġ im
Ġback ground
Ġd el
) -
Ġinter est
Ġpo sition
Ġc irc
v ices
in ess
. _
I S
Ġper iod
( {\
ag er
o ff
par t
Ġanal y
tern al
] [
un c
l ength
umer ate
In t
or ts
Ġcons ist
} -\
he ad
Ġs em
ct or
it al
Ġp an
Ġresp ect
foot note
ĠN o
um p
Ġpo st
ann el
6 6
ig en
ol umn
read y
s in
per ty
et y
Ġacc u
! --
Ġout put
Ġden ote
Ġset ting
Ġc over
d o
Ġf ew
M e
iv en
A pp
the orem
9 5
ust om
Ġre cent
Ġcont ent
Ġs ay
Ġ- \
a z
Ġc ell
3 8
K ey
ic y
Ġs k
Ġinst ance
k es
201 3
ra g
Ġp l
qu ot
Th ere
I M
d en
d own
Ġw idth
st ra
Ġproper ty
ut ure
Ġexp ect
) }{
Ġex act
vers ity
po int
Ġsp in
P E
Ġse par
ĠS ince
Ġdist ance
Ġme ans
it or
ens or
en umerate
Ġelement s
Ġaver age
r is
Ġste p
Ġc y
Ġf low
a ther
Ġt urn
b ody
Ġwe ight
la ted
ĠTh ese
Ġequ ations
g ra
operator name
) {
Ġbound ary
av ing
ou se
. </
0 4
T est
] \
Ġe ither
Ġb i
ed ge
Ġan other
, âĢĿ
Ġb ro
ser t
item ize
row s
T ime
Ġv el
Ġre ce
v space
da g
Ġ title
E T
Ġqu es
Ġre m
mul tic
i ence
Ġre ma
lic it
under line
math scr
id ent
ĠM ore
om in
an e
Ġb reak
Ġ| |
=" ../../
u tr
si te
tic es
Ġo wn
3 7
h ip
Ġsur face
3 1
li p
Ġn umer
n et
Ġh al
pt y
Ġf ields
Ġh om
A B
Ġa chi
n al
v an
Ġdire ction
` `
Ġ label
Ġc er
t ra
Ġconsider ed
sp lit
multic olumn
Ġa ff
at tern
Ġm en
3 9
ĠB ut
ew ork
R equ
E S
res h
no indent
ec ess
ĠTh us
Ġv ia
Ġsever al
b s
( -
' );
us er
L o
R ec
Ġg ive
mod el
id es
Ġra ti
Ġ/ >
is ter
$ }
n ow
Ġdescri bed
ĠP h
inal ly
) }$
ĠA t
om ial
L O
re p
0 2
Ġv ol
Ġde p
oc ity
0 8
ta ck
Ġc ost
ri or
e ther
Ġed ge
em e
og le
x y
la im
c le
~ $
Ġse en
dis play
Ġimp lies
A D
Ġden o
Ġ\ |
Ġf ocus
Ġal ways
ator s
sum mary
Ġs ide
um e
}} _
b b
e V
Ġd on
Ġcl assif
0 6
dimension al
Ġs olutions
Ġc our
( ),
\ ,\
tic le
ames p
ĠL e
in put
Ġre search
F ile
Ġp ur
Ġn at
re t
Ġlar ger
N N
" :
Ġcol or
201 2
Ġin clude
Ġl at
N o
Ġgiv es
Ġh tt
b lock
Ġco effici
Ġval id
Ġrequ ired
Ġdefin ition
ne xt
Q u
ge ther
Ġb and
g ing
Ġcomp u
ves tig
ch eck
Ġrela tions
Ġbu ild
ech an
T ext
ĠĠĠĠĠĠĠĠ ĠĠĠĠ
Ġsu g
ega tive
m ost
rac tion
Ġ ?
ic on
ir d
al e
y ing
Ġal ready
\ }$
Ġst ra
j or
4 4
big g
[ '
h er
tribu te
& &
pp ed
al le
us iness
F rom
Ġ ec
{ }
Ġno te
0 7
or ies
Ġm is
Ġgener ated
i um
ĠâĢ ĺ
Ġcomp onent
ww w
mo oth
I R
ĠS o
viron ment
ran s
L e
Ġpro te
Ġexp ression
Ġl ink
r ule
Ġp lace
appro x
Ġf ar
Ġspec ific
u ra
om en
f ill
Ġe mb
Ġadd ress
Ġre fer
te q
tr ue
ĠS er
Ġrela ted
Ġi mages
19 8
p ng
amesp ace
text tt
Ġset s
in o
P T
E vent
angu age
ear ch
Ġla w
Ġun it
Ġg row
Ġm ight
Ġse arch
Ġw ant
Ġpro ve
ĠC O
U T
}} }
ĠY ou
C C
ĠĠĠĠĠĠĠĠ ĠĠ
line ar
ate g
U R
if orm
L A
Ġth ink
6 5
N ode
ĠU n
nd er
Ġg lobal
ter ial
' :
Ġocc ur
Ġwe ak
ateg ory
ish ed
Ġagain st
Ġc r
O T
Ġg ame
Ġal gebra
s w
0 3
Ġa uto
g en
ĠC ol
I G
M an
ur ity
F F
ac tions
Ġ-- >
I tem
Ġpro duct
d ec
n ormal
ref er
201 1
Ġinde pendent
y mp
cal l
k en
te ger
P i
k et
Ġre lation
con fig
Ġw rite
In fo
Ġ _{
tr m
E lement
ec u
Ġmag netic
Ġin div
id ence
) +
Ġp la
Ġch ild
th at
Ġrepresent ation
u til
m ore
ate ly
Ġthere fore
Ġh ard
ĠT able
led ge
tex trm
ti tion
g ence
Ġestima te
' ]
f lo
A dd
Ġh olds
Ġachi e
^ -
+ +
om es
rac y
E qu
Ġpro duc
0 9
p l
se teq
A d
mer ic
Ġinv ol
ore d
m ulti
l in
Ġb ase
Ġrep res
Ġser ies
Ġmulti ple
b ound
Ġe igen
} /
l n
ic ro
Ġequ al
fin ite
po se
st ance
Ġb lack
/ *
as tic
Ġreg ular
ĠĠĠĠĠĠĠĠĠĠĠĠĠĠĠĠ ĠĠĠĠĠĠĠĠĠĠĠ
Ġdiffer ence
Ġcontain s
Ġfam ily
ver sion
amet er
ma tic
4 9
ed d
Ġeff ective
Ġcomp onents
th ough
Ġeff ects
Ġvari ables
T R
Ġli k
Ð ¾
u i
Ġco ordin
D es
g est
p c
Th en
Ġn ecess
T r
ĠThe y
c y
Ġcomp ared
ri es
Ġclo se
P ath
iz ing
Ġsh ort
over n
Ġto o
Ġspec ial
Ġeff ici
Ġcan not
Ġcol umn
Ġd iv
err or
Ġl ife
ĠThere fore
w ord
ĠA ll
ĠS ec
Ġspectr um
Ġre ason
s ide
D is
Ġin vestig
Ġt ry
o ok
ide o
Ġt re
Ġis s
ac c
S ince
Th eta
um an
ole an
cri ption
Ġpre c
Ġaddition al
Ġc ri
Ġstar s
g ener
Ġcl uster
Ġcre ate
al k
Ġimp lement
Ġo pp
âĢ ¦
P S
Ġorig inal
Ġvel ocity
med i
Ind ex
Ġn um
Ġw ave
7 8
) ,\
E E
Ġ\ ;
at s
ĠC ar
< \
et er
O ver
sub seteq
= '
u ation
iv ing
k n
ta g
war ds
Ġs yn
Ġf und
/ **
}^{ -
Con text
um ents
ch ed
Ġtran sition
M L
Ġar ray
j ective
Ġ$\ {
min us
com mand
Ġacc ount
o ot
201 0
Ġre st
Ġac ross
ĠO b
el ine
Ġwh ether
Ġindiv idual
ict ure
Ġ item
C H
oc ial
yn omial
Ġresp onse
P h
Ġit er
C D
ser v
u ary
p late
Ġmax imum
O r
n orm
ĠN ote
Ġf uture
str uct
Ġen ough
ĠW ith
or iz
Ġcomm on
Ġ );
Ġre ach
Ġm echan
v oid
M ap
il ities
A nd
p ol
Con fig
or th
Ġp rac
Ġhy per
t ation
" "
Ġmod e
Ġvari ous
Ġsu ccess
Ġd ay
Ġf ac
pro d
li ke
Ġev olution
lish ed
i res
6 8
ĠT r
r ide
} '
ce p
on om
line width
ĠâĢ Ķ
og raph
() )
Ġdo main
V er
o y
Ġt ask
ou d
V ert
an k
i ti
Ġacc ording
4 7
Ġ$ |
am il
ch ar
Ġa ble
inc ip
Ġsign al
Ġhe ad
Ġto gether
Ã ©
S e
ap i
Ġ ill
Ġ },
Ġprovid ed
m y
is ing
if f
val id
P r
Requ est
a tic
I s
Ġbas is
ress ed
Ġdeg ree
Ġrati o
m d
Ġsp ect
e ff
our s
Ġ( $\
Ġne utr
Ġunder stand
Ġdatas et
Ġcer tain
lic ation
Ġexp lo
Ġb en
) |
{ $
n s
T able
Ġimpro ve
Ġhow ever
Ġem ission
Ġpres ented
O f
he ight
c r
ab ly
b t
i ent
^{ -\
Ġt able
ula te
}} ,
IN G
ph er
Ġ Ð
' ;
end s
g t
Ġinv ari
und le
O S
m ission
str uction
Ġm ove
Ġacc ess
l ong
Ġev ents
Ser vice
Ġtech n
Ġre str
}} _{
a it
Ġs ite
Ġthe orem
p e
Ġdef ault
Ġh app
me thod
Ġuni que
6 7
si tions
ist ory
Ġare a
ĠS ystem
Ġorg an
l s
Ġse em
dag ger
Ġ( -
Ġ( !
Ġcontinu ous
iz es
ĠM e
Ġrela tive
m ar
Ġa mp
set minus
l or
A ll
ho od
o in
st er
ign ed
op lus
Ex p
Ġg as
Ġge om
Ġpr im
con n
in a
c ell
Ġdetail s
ial ly
end er
au ge
\ }
Ġ} );
Ġflu x
sub figure
Ġf la
M S
ĠA meric
b ase
N ote
rit er
t ot
00 00
## ##
U S
Ġd one
8 5
Ġmat ter
ram e
r and
res ult
te ad
_ +
Ġin equ
Ġm etric
Ġu pper
Ġf ig
on ic
il der
Ġtak en
Ġtech ni
ĠĠĠ Ċ
qu are
ĠD is
us ing
M A
Ġfrequ ency
Ġexp la
Ġapp lied
et urn
omorph ism
w edge
Ġob jects
T E
Ġno ise
Ġcent er
Ġsta tis
Ġ$ -
.. ..
Ġnat ural
or ld
u k
Ġam ong
P o
ĠWh en
t urb
Ġgroup s
Ġs mooth
Ġwh ose
ap ache
Ġs it
[ ]
le vel
Ġder iv
ac y
or n
$ _
lo cal
Ġro le
D ef
Ġdec re
en ti
Ġequival ent
s up
le g
Ġg round
able d
* {
Ġ$ [
Ġpol ynomial
v is
Ġlay er
i ver
la tions
N ew
ĠF e
( (
ta ge
Ġobserv ations
h and
ra ted
200 9
ect ors
Ar ray
mb er
c lo
Ġemp loy
un e
bo ok
S ize
7 7
i ous
roll er
align ed
9 8
ul ly
ĠP ar
ĠE n
Ġb egin
Ð °
Ġgalax ies
Ġun cer
j ection
S P
Ġsc en
f low
Ġbehav ior
r ary
ĠUni versity
Ġre d
od ing
Ġchang es
lim its
Ġp ut
Ġp rior
Ġvari able
S ch
Ġcho ice
Ġo ld
ir t
Ġrequ est
="../../ ../../
Ġas sert
Ġ/ *
Ġn odes
Ġprovid es
ab s
Ġtrans form
en u
_ *
Mod el
a tial
= {
Ġw ar
\ '
Ġbound ed
_{ (
Ġ |\
Ġgo ing
s tit
ĠM od
ĠO ne
Ġne igh
Ð µ
Ġincre ase
4 6
Ġg reat
Ġpro ject
av es
alle l
Ġde mon
Ġsmall er
end ing
cont ent
r u
s ch
Ġof ten
B ut
Ġh ence
] (
Ġcur ve
Ġre view
re l
Ġsymm etry
Ġs rc
an sion
F ield
. "
Ġdiag ram
Ġoperator s
ĠU S
ion s
Ġinter action
Ġlear n
kn own
Ġp erm
C ode
c an
Ġb ig
Ġallow s
> &
Ġdirect ly
Ġclo sed
illi on
l t
A G
ob ject
st ack
Ġg re
cre ate
Ġins tead
st o
Ġso ft
Ġver tex
Ġa x
oll ary
qu es
m ic
Ġen ti
col umn
N et
F T
Ġbo ok
l ar
Ġphys ical
Ġtyp es
200 8
ĉĉĉĉ ĉĉ
Ġma terial
Ġsu ffici
Ġst re
_{ {\
Ġd ouble
Ġapp ly
Ġproble ms
le y
wit ch
amil ton
Col or
di ent
ĠB e
c ore
Ġp attern
ĠR ec
Ġdis cre
Ġs amples
Ġsa ys
Ġma jor
b lack
b ul
Ġke ep
: \
re ct
Ġen vironment
R ep
f e
Ġbec omes
O ut
O D
Ġan g
Ġhe alth
L og
le te
H and
ou th
Ġte am
it tle
Ġ ir
) /
Ġst yle
H E
Ġapproxi mation
N S
)\ ,
def ault
aus sian
ĠP r
Ġ\ (
Ġoptim al
Ġra ther
Ġh ome
Ġ }\
col on
Ġbec ome
ll ar
Ġemb edd
Ġs ources
S ec
Ġpro ced
}} (\
ĠI s
//// ////
ĠC or
Ġf ore
Ġexp licit
is s
Ġma kes
rop y
Ġdeterm ined
I L
Ġl ater
In ter
4 2
Ġad j
Ġs en
defin ition
Ġch annel
arg in
Ġformu la
Ġmon th
ĠR ep
ĠO ur
Ġsub set
Ġwe b
Ġun iform
ran ch
9 6
T D
9 7
ce ed
we b
in fo
com m
u ck
ĠM on
b a
c ss
******** ********
ĠPro position
Ġma ps
id ed
ĠC ent
re c
Ġc laim
c ase
Ġ ti
Ġal most
t or
M essage
Ġques tion
Ġf a
n amespace
ĠO r
Ġp ress
rate gy
M P
ch ange
Ġcri tical
age ment
) }(
Ġdynam ics
ta ct
Ġsatisf ies
L a
âĢ Ķ
Ġapplic ation
Ġexperim ents
. $
S ub
Ġpro p
Ġregion s
Ġpartic le
os en
enc ies
d le
A A
Ġwor ds
f act
ic tion
iv es
C E
Ġdete ction
EN T
Ġincre asing
l ang
g raph
Ġquan ti
as ter
ĠJ an
_{ -
= (
Ġconn ected
ĠS et
iv ial
Ġinter val
Ġtran sp
Ġcoup ling
R eg
v ant
Ġb usiness
U N
es ts
Ġch all
} %
Ġh aving
Ġaccu racy
{ $\
Ġc aus
ĠD ec
Ġag ree
Ġ ~
le ase
Ġpartic les
Ġj ava
E nd
ĠM an
Ġfram ework
Ġop tions
n a
ar ies
b ottom
ĠS e
Ġser vice
N ow
Ġradi us
Ġdiscus sed
ĠA ss
}$ -
Ġhe ight
Ġg auge
en ing
Ġar bit
con text
Ġsim ulations
Ġn uc
Ġconstr uction
yn c
B ar
' \
ĠG et
Ġnum bers
E q
ar ds
Ġcom e
O ne
Ġsc atter
p age
ash ed
8 8
Ġen g
$ (
tain er
new command
end ix
tif ic
ĠH ere
Ġm essage
al y
Ġm er
= -
ĠE u
for all
Ġp lot
Ġgra v
Ġro b
n it
e ak
Ġnumer ical
O ur
) ^{\
ĠC o
es ted
Ġwrit ten
ma il
la p
m ing
bu g
es is
ith ub
,\ ,
ran ge
4 3
Ġspectr al
lat form
Ġat om
com e
c ast
Ġn egative
Ġsch eme
Ġpr incip
to col
Ġtak ing
Ġcompar ison
Ġt reat
200 7
ac ity
text sc
Ġh old
sub subsection
d b
' _
Ġne ver
Ġwork s
âĢ ĵ
Ġcent ral
Ġhal f
Ġext ension
Ġscen ari
oh n
r un
Ġp ay
Ġcon c
Ġre ally
) _{
Ġ= ==
Ġat tack
Ġto ol
Ġt ree
Ġpe ak
H ere
Ġmoment um
cur rent
ĠH ence
yp es
Ġf ail
Ġcomp ute
200 6
Ġconstr uct
ific ation
Ġmulti p
d eg
and roid
Ġc are
U ser
Ġ+ \
S upp
Ġmeasure d
Ġcorre ct
st atic
us ic
) {\
Ġcomp act
i mage
Ġstudi es
Ġth ird
val ues
Ġre l
AT E
Ġcour se
5 7
au th
M M
Ġ} ;
Ġma king
\ "
oug ht
en ame
os ed
\! \!
Ġpol ar
; &
Ġdiscus sion
is k
Ġcon ven
su pp
Ġs eg
gorith ms
S C
ĠS te
Ġd omin
---------------- ----------------
ad e
Ġdis play
Ġc ustom
Ġar ch
Ġdiff ic
ex ample
Ġst o
Ġh uman
def ine
re ed
th ers
S ystem
Ġc ount
in clude
Ġwe ek
ĠTh at
Ġd a
Ġes tab
mod ule
Ġtak es
Ġamp lit
c ases
ĠR ef
Ġth erm
Me thod
li er
or ds
Ġs ense
Ġver tices
Ġt w
ass ert
Ġch ain
G ener
ĠCom p
Ġsp atial
ymp to
P C
d oc
G L
Man ager
B e
Ġnetwork s
and id
Ġg overn
=" ../
st art
Ġpan el
S U
g ithub
Ġp age
Ġcorresp onds
ng th
Wh en
Ġresult ing
f alse
P I
duc es
al t
Ġman if
ac tive
Ġle g
Ġv an
per p
ern el
Ġcontribu tion
er a
Ġapproxi mate
Ġperform ed
ite ct
20 23
as ks
ĠS ta
u ter
Ġmin imum
Ġauth or
Ġsch ool
Ġinequ ality
Ġrep ort
5 8
z ero
4 1
Ġdec ay
M C
Ġun til
ri er
5 6
Ġcon tr
in f
ĠP ol
Ġill ust
; </
======== ========
Ġc ut
re mark
Ġlat tice
il i
sim eq
p matrix
Ġclass es
j ava
Ġre ference
Ġclass ical
u x
d im
ĠL i
P R
Ġpa ti
O M
Ġmo tion
ov ing
ef ore
ĠS ci
p onse
ug ht
ar ily
Ġc os
Ġear ly
Ġder ived
Ġassum ption
Ġ_ _
Ġmeasure ments
p tions
re ate
Ġrep orted
p ackage
ĠE ng
Ġd ocument
Ġper turb
Ġcho ose
F irst
Ġ ]
ĠM ar
Ġconstra ints
Ġan n
b in
)\ \
Ġcoeffici ents
d l
op s
Ġdec om
on y
en sive
Ġsol id
Ġw in
el i
Ġintro duced
$ ).
r ont
ĠF rom
d x
M ore
end ed
Ġexp ansion
Ġf un
Ð ¸
U LL
Fig ure
Ġsug ges
Ġenti re
Ġl iter
is ms
S c
ber t
D F
Ġm id
t ure
Ġlik ely
r up
Ġcalc ulated
al og
( {
Ġn am
S O
Ġth ough
ĠM ay
Ġand roid
ma s
Ġs ocial
Ġd raw
Ġlead ing
~ $\
Ġon ce
ĠH amilton
Ġus ers
in y
Ġdescri be
) ^{-
=" #
G roup
iz er
Ġsimp ly
ĠĠĠĠĠĠĠĠĠĠĠĠĠĠĠĠ Ġ
ef ul
ĠMore over
h om
Ġmen tion
z ed
.~ (\
Ġsim ulation
p a
f it
amet ers
in os
Ġfram e
I F
Ġ ess
ĠĠĠĠĠĠĠĠ ĠĠĠĠĠĠ
}^ *
Ġlead s
Ñ Ĥ
bul let
Ġfil ter
Ġneed ed
ve x
Ġl ittle
urther more
Ġconfig uration
< !--
op tion
Ġed ges
im ilar
Ġinter pre
Ġconsist ent
Ġa way
R ef
Ġplan e
ĠĠĠĠĠĠĠĠĠĠĠĠĠĠĠĠ ĠĠĠĠĠĠĠĠĠĠĠĠĠĠĠ
^{ +
}} ^
Ġn il
Res ult
, "
ĠM ed
Ġrec ord
pro cess
er ing
$ ^{-
r s
Ġnecess ary
Ġdistribu tions
Ġpro duction
Ġt rac
tr ices
ĠS he
ten tion
N ot
h as
Ġscal ar
ag ed
Ġadd ed
ĠC l
Ġinterest ing
ro duction
olu te
) }{\
Ġu til
Ġd ays
ate gor
Ġw ater
7 6
ph ere
Ġde ep
D ec
resh old
\ _
Ġarg ument
ve y
Ġdeno tes
Ġmod ule
ĠR o
Ġl anguage
f irst
Pro perty
s ol
Ġf lo
f ree
Ġ ensure
Ġdescri ption
Ġb ody
Ġus es
Ġneed s
Ġcorre lation
Ġb it
le x
is ted
T rans
Ġpar tial
Ġt ensor
Ġw indow
Ġn orm
Ġse lection
re es
E xt
Ġthe ore
Ġsp eed
S I
} )$.
ne y
Ġam ount
Ġb order
d ir
Ġal gorithms
og ene
Ġ&= &
Ġ und
ĠC an
Ġdepend s
P re
Ġs amp
Ġlo ad
su per
$ $\
fin ished
on es
)$ -
pr int
Ġ= \
n um
200 5
\| _{
Ġrequ ires
Ġqu as
od er
Ġf ive
Ġcorre ction
Ġup date
Ġinteg ral
L ine
Ġmark et
Ġres ource
p ort
Ġch osen
5 00
sequ ence
Ġof fer
) </
ap s
Ġpol icy
Ġor bit
I P
Ġcomp any
Ġpers on
Ġpos si
w rite
Ġf l
id den
Ġdevelop ment
ĠĠĠĠĠĠĠĠ Ċ
g g
Ġre duced
Ġcur ves
is es
dition al
Ġh ar
Ġproced ure
n ull
Ġprocess es
F il
c d
H owever
ra di
Ġexperim ental
Ġeas y
Ġimp act
Ġdiffic ult
Ġsh ape
ti k
p ec
> (
Ġcompu ted
Ġchar ge
Ġdec ision
Sp ec
c it
Ġse lected
Ġg ot
p ts
fil es
Ġstre ngth
ab ase
Ġex amples
Ġ row
a ma
Ġerr ors
Ġvol ume
se m
map sto
Ġcon v
c s
Ġon line
Ġdiscus s
il ib
Ġus eful
e lement
Ġbo x
Ġin finite
}} ^{
Ġb ar
ĠM in
A c
d r
Ġcommun ity
ĠC al
Ġreg ard
ĠP o
Ġknow ledge
Ġpres ence
Ġad ap
ĠM ark
z z
Ġan gle
li b
F e
Ġinter nal
D ate
ran t
Ġsh all
se mb
Qu ery
Ġmin im
Ġdeterm ine
b and
Ġspect ra
Ġ Â
à ¤
Ġsp aces
Ġeas ily
Ġinvari ant
or age
f for
Ġcol lection
Ġwho le
Ġfact ors
b its
Ġs ent
ĠF irst
Ġwh y
Ġd ual
Ġexperim ent
Ġconn ection
un finished
k er
The orem
{ {
con s
Ġqu ality
Ġat t
ous ly
ĠD o
ol der
l en
Ġy et
d ist
Ġapplic ations
20 00
Ġst d
A ction
ĠG o
ator y
Ġp ul
Ġbo ol
Ġstudi ed
fin ed
b i
Ġth row
Ġsp lit
N ext
com ple
ed u
Ġp ast
un ch
Th us
Ġrepres ents
L S
ma tions
| _{
Ġsupp orted
Ġfig ure
E C
id s
Ġrele vant
H T
el er
Ġste llar
Ġloc ation
ph p
Ġtrans fer
b l
Ġp ub
Ġexper ience
In put
ĠT ra
Ġmem bers
Ġstud ents
Ġste ps
ĠR eg
u tes
Ġexact ly
] )
6 9
go ogle
ĠG u
Ġv ideo
Ġh ear
Ġan ti
od ot
ev ent
b ur
I mp
Ġintro duce
Ġres olution
7 9
ĠG aussian
Ġj ob
5 9
ĠS tate
Ġh ost
Ġinclud ed
Ġal tern
Ġmag nit
F act
pro position
Ġdepend ence
C lient
L T
n ers
m c
Ġth ings
Ġext ra
Ġc andid
f unc
qu ery
Ġpop ulation
C ount
Ġsome thing
C all
Ġdis k
Ġapproach es
Ġincre ases
Ġ ve
Ġst rategy
Ġmem ory
Ġpro m
. )
ĠQ u
Ġad van
Ġsymm etric
' }
ag raph
j av
Ġarbit rary
Ġran k
B ox
\ {\
omorph ic
m ma
ĠA g
Ġits elf
ds h
_ -
Ġma trices
Ġwork ing
Ġ$ {
ĠS upp
5 4
g ress
Ġ- >
b old
Ġcom es
add ing
Ð ½
Ġpro file
id en
y l
E M
Ġ$ $
Over ride
ok en
ĠD es
T H
Ġd ark
D B
$ ;
Ġpair s
h an
A cc
ec tions
Ġf ully
Ġst ream
are n
Res ponse
Ġmod es
Ġb lue
Ġoper ation
p ri
ec ause
) _
ilib ri
I mage
Ġra tes
Ġconver gence
W hat
Ġav oid
uc ted
Ġsignificant ly
7 2
t arget
a o
Ġin teger
irt ual
}{ |
ĠP er
U til
un g
ri ed
S o
Ġpar ts
u ly
$ ~
} &
5 1
) },
Ġcomput ation
Ġh oriz
Ġc ategory
Ġlevel s
Ġlo t
Ġcomp are
Ġestima tes
Ġas ympto
' (
d ro
r ics
ĠB o
p lan
k y
Ġy ields
op t
Ġw ord
p id
f ont
Ġinf lu
Ġc ore
st ream
Ġon es
Ġs ure
Ġclassif ication
Ġh istory
c ref
Ġr ule
v o
Ġac tive
st s
p icture
ati ves
ĠD i
Ġgener ate
but ton
E d
Ġstructure s
s ur
h y
ic ity
Ġhtt p
b all
P P
5 2
Ġqu ad
f ect
arg s
Ġinclud es
il t
Ġl and
ab ilities
Ġme et
C l
ar p
Ġd ate
Ġclo s
Ġcol l
ust ers
Ġrema ins
s ystem
Ġide a
200 4
b as
ĠA cc
Ġact ually
Ġfor ce
tik z
Ġprop ag
per ties
ĠO p
an te
Ġro ot
Ġelectr on
S D
ip age
Ġobser ve
Ġma ch
int y
N R
u ed
min ipage
Ġp ack
E X
al es
}{ (
Ġf ace
ĠN ow
~~ ~~
5 3
Ġs ymbol
Ġinter actions
Ġiden tity
Ġre con
Ġt or
Ġst ory
Ġmed ia
Ġo thers
d f
Ġhtt ps
ub e
Ġins ide
B lock
c el
ti mation
str ong
b lue
one y
) +\
Ġess ential
Ġh ol
Ġse lect
Ġgo al
lay er
c f
h bar
on ential
d at
Ġfor ward
ĠN ational
Ġma s
ta inty
Ġk ind
igh ted
display style
Ġs low
Ñ Ģ
u ations
8 6
ĠHamilton ian
e le
I V
Ġl atter
ĉĉĉĉ ĉĉĉĉ
pd ate
Ġan sw
g l
Ġgrow th
Ġorig in
p ost
ot o
pec ially
Ġben ef
Ġarch itect
Ġmeasure ment
ĠA ug
op en
S M
vers al
Ġb inary
tif ication
o o
Ġextend ed
Ġestima ted
ap ter
al g
Ġim medi
ĠĠĠĠĠĠĠĠ ĠĠĠĠĊ
Bu ilder
Ġb al
ĠI N
Ġv ectors
Ġrec over
si ties
h box
p an
} }$,
Ġv o
ting s
Ġd ig
Ġfor mation
P er
G C
b ly
Ġqu ite
Ġex ecu
fin ition
p la
n umber
Ġ< <
ter m
Comp onent
Ġfe el
un it
) -\
8 9
ĠG ener
a j
op tions
con g
Ġdiffer ential
ilibri um
Ġgalax y
8 7
bu ild
im in
bt n
ON T
is ation
Ġcre ated
Ġin du
Ġchild ren
des cription
Ġse ason
St ream
tribu tes
Ġdevelop ed
} )$,
Ġoff ic
p g
Ġh yp
Ġo ption
Ġhe av
Ġsta ble
Ġd ri
Ġs light
} }$.
c ount
Ġbel ie
N av
Ġqu ery
ur y
Res ource
Ġa im
Ġoptim ization
ra d
g r
se lect
Ġcirc le
Ġm orph
te in
Ġde al
H z
if fer
L P
ind ing
Ġstate ment
Ġpress ure
Ġt asks
rop e
ĠD ata
Ġ ;
St atus
}$ )
un ity
Ġas k
Ġcoordin ates
Ġappro pri
Ġf lat
Ġcomm and
ber g
ĠIn ter
Ġat tention
ĠN e
Ġtrans formation
part ment
: }
C o
ill s
Ġb ranch
ĠL ist
O P
Ġi mag
v ector
im g
mat ch
B C
Ġconf ir
Ġs ix
eta iled
Ġexist ing
7 3
Con n
z ation
b reak
Ġgra dient
Ġsatisf y
Ġsimp l
p ack
Ġpredic tion
en n
s es
A ss
ĠS u
Ġstr uct
no v
ig ger
Ġa ge
Ġc li
b es
Ġop tical
Ġauth ors
he ader
L ay
Ġlong er
Ġo sc
m eta
Ġf ri
cl es
Ġexist ence
res ults
Ġqu ark
Ġanal og
$ {
Ġf raction
In stance
Ð¾ Ð
ag ing
$ ),
s g
ĠA fter
Ġor d
c ing
Ġpartic ip
ĠJ ohn
st ract
on ly
op ic
ĠJan uary
ont al
6 3
B ase
d el
Ġb ul
Ġf all
a uto
Ġf ix
ight s
C P
Ġchall en
Ġvan ish
Ġdep th
less sim
an a
Ġinter face
Ġ ...
Ġover all
[ (
Ġth reshold
C ur
el se
Ġabs olute
Ġn eg
8 4
H el
Ġfe ed
Ġcoun ter
Ġscatter ing
Ġin ner
se ud
c lient
) )$
h ic
ĠR em
Ġ( )
Ġiss ue
At tribute
row ser
[ "
7 4
in it
ĠW hat
F orm
T ag
Ġstar ting
Ġ$ |\
ma ss
n os
) }_{
it able
V ID
Ġmo lec
ĠN ULL
Ġcons ists
Ġrecent ly
&= &
}( {\
per im
Ġrun ning
Ġg ain
th en
ri ef
tr an
c at
Ġr isk
g u
S ource
Ġbound s
ĠL o
our nal
Ġcontin ue
en ess
a res
Ġrep e
ĠWh ile
Ġbas ic
Ġes pecially
A b
Ġextend s
ĠM o
Ġlim ited
Ġp i
imp le
Ġc opy
Ġrec og
ic ense
Ġtechni ques
app end
ol ic
pro perty
il la
el ess
Ġm illion
Ġnot ation
c us
nav bar
Ġproduc ts
Int roduction
requ est
Ġother wise
ĠS c
Ġp ix
ĠC ont
de pend
9 4
Ġn ature
ogene ous
iz ations
ck now
ĠA c
Ġrestr ic
Ġconstra int
ĉĉ Ċ
ĠB u
9 3
con f
There fore
F A
m t
Ġs cre
s cal
Ġex cept
ing u
-- -
in ct
Ġser vices
am ental
Ġm icro
ind er
Ġre duce
Ġbel ong
ĠV al
U E
L i
Ġcontribu tions
Ġb ottom
ell ing
Ġin c
Ġcomp o
l ast
,\ \
Ġ" ""
Ġto wards
3 00
Ġcon clude
Ġachie ve
C S
ch ild
Ġspec ified
Ġsta ge
Ġcon sum
Ġwh ite
Ġsuccess ful
200 3
Ġth ought
Th ese
ra in
Ġre dsh
L ink
ir al
Ġassum ed
Ġbo olean
R I
Ġa ir
d frac
Ġlay ers
ĠN one
Ġre duction
Ñ ģ
Ġexp and
Ġde vi
f aces
m em
s ymm
Com mand
ĠP a
in ner
Ġmass es
ĠM y
an i
Ġl um
\ )
Ġm argin
Ġcontr ast
, $
Ġte ll
Ġbro ad
er c
ad ata
Ġallow ed
p arent
Ġdatas ets
Ġp ort
Ġamplit ude
ff ic
Ġt ag
Ġre mo
Ġrep la
- $
La bel
Ġcoun try
9 2
Ġin duced
ĠI I
Ġneigh bor
y les
F unction
Ġf av
Ġabs or
Ġobserv ation
ĠSp ec
sh ow
Ġgraph s
Ġ+ =
Ġvis ual
Ġa ut
al ysis
) }}
x ml
s rc
6 2
v ol
Ġax is
P ol
h el
s ign
Ġt rack
Ġs ound
cc cc
Ġg rid
flo or
ĠW orld
Ġlo op
mod els
Ġk ernel
ob ile
vari ant
di ag
ser ver
da ted
RE F
Ġs quare
ĠC lass
Ġout side
y ear
Ġaccu rate
p y
ĠRes earch
. /
Y ou
Ġstr ict
N D
oun ter
Ġmagnit ude
ĠM a
Ġcomb ination
on ical
,\ ,\
Ġre ve
Ġ$ .
Ġ[ \
ran k
( [
Ġres on
ĠAmeric an
100 0
ĠS ub
Ġoper ations
x x
Ġfor ms
Ġpar tition
Ġp ure
le an
Ġs m
duc ing
if ically
Ġidentif ied
R ight
Ġstra ight
ĠC ons
ug in
ra tic
Ġr ules
Ġdisc over
] }
h igh
so ft
Ġle mma
ad ing
Ġpro duce
y ond
ER T
lo ts
Ġiss ues
Ġlo ve
s a
ĠS T
Ġpres er
Ġagree ment
D o
id get
A V
j son
Ġper cent
Ġc lient
N umber
Ġs w
Ġtra ject
Ġn one
Ġro und
Cont ent
^* $
Ġidentif y
flo at
d ing
ra ft
Ġp arent
Ġth ick
Ġcomp an
G B
Ġcomplex ity
Ġang ular
oun ts
tif y
ĠM c
Ġmin imal
Ġar ticle
F inally
ĠG e
ĠE qu
Ġdoes n
um b
$ };
ho st
Ġto day
Ġuncer tainty
O L
Ġseg ment
Ver sion
Ġform al
f a
Ġliter ature
Ġex hi
Ġcl usters
it ing
clo se
Hand ler
Ġcalc ulations
r l
Ġex cit
Ġcalc ulation
Ġmechan ism
Ġg en
ra p
ar ante
Ġseem s
Ġec onom
us ed
o sp
Ġus ually
el ves
Ġcontain ing
od ed
T oken
Ġreg ime
} );
udi o
Ġnew s
8 2
ign ment
ategor ies
Ġbe am
Ġscal ing
Y PE
p ass
Ġsub ject
Bu ffer
Ġg ap
Ġpro f
Ġmeasure s
U sing
Ġf i
m et
Ġappear s
p tr
R un
Ġsit uation
6 1
n ed
Ġde vice
ĠF inally
7 1
] $.
Ġe mer
Ġgovern ment
Ġent er
Op tions
en ed
il er
ĠO ct
Ġd etailed
Ġm es
Ġpro duced
il it
p ush
$ :
ann els
Ġcon tact
ob j
Ġpati ents
Ġdeno ted
Ġexp onential
Ġst atus
id ing
ad a
z on
Ġdistribu ted
pr ivate
Ġp latform
Ġtreat ment
| }{
it z
Ġsp eak
ĠH ar
ĠB ar
ste p
os s
) --
E L
Ġm usic
\ ;
z ing
ĠEu rope
S tr
for ward
Ġsh are
Ġy ield
ĠS ee
R eturn
at t
O per
LA SS
Ġc amp
Ġimplement ation
R em
ĠI D
" ]
ĠT est
Ġide al
\ }$.
v ider
Ġcon vex
ĠIn tern
Ġindic ates
ograph y
Ġat tem
t ree
sequ ently
h am
Ġr ing
B undle
Ġtheore tical
Ġ ener
Ġex am
S ection
Ġ tim
O C
st atus
M B
em pt
i mages
Ġin sp
ma tically
Ġp refer
Ġex ternal
L oc
om an
Ġm ix
M R
S u
S L
er al
Ġev idence
Ġes timation
Ġfor mat
Ġappropri ate
Ġv ary
Ġtherm al
Ġro tation
$ _{
ud es
am ily
is try
a a
sc ope
Ġclear ly
Ġmention ed
Ġfl uct
lic e
Ġprote cted
Ġgener ation
Ġup on
rac ted
Ġdiscre te
Ch eck
Ġent ropy
U p
tribu tion
Ġ\ ]
Ġpar allel
Ġpol y
in st
D A
it ch
T ra
Ġbehav i
Ġdete ct
j ected
for ce
ve e
Ġnuc le
Ġph en
ĠNew s
Fact ory
defin ed
Ġfunction al
re al
Ġcoeffici ent
Ġsing ular
ul i
Ġsoft ware
big l
re la
Ġs ys
}} )
Ġor th
Ġsatisf ying
par ameter
8 3
Ġper fect
Ġcon cent
ma ke
Ġk ine
}} _{\
Ġe ffor
k a
C L
Ġ( (
Ġbe yond
for mat
ĠA pr
Ġ ^
Ġd est
ys et
fil ter
Ġstrong ly
Ġg ames
Ġdimension s
P U
Ġarg uments
v ised
* /
Ġsh ift
Ġscenari o
lay out
t x
}[ \
C A
Ġser ver
Ġhigh ly
ynam ic
Ġe lect
g ies
: =
Ġevalu ation
N e
9 1
Ġweight s
ĠA b
Ġconsider ing
Ġhyp oth
si tivity
big r
Re ad
ult ure
Ġag ent
P age
Ġrece ived
S R
Ġf ast
L ast
te l
S ty
Ġcell s
Ġprim ary
ĠD ef
as cript
ta tive
in u
Ġcomplete ly
Ġc at
A fter
] $,
le ge
ann ot
Ġrob ust
A uth
H ow
an ti
a fter
Ġ\ !
Ġdiffer ences
r as
AM E
Con s
ĠUni ted
Ġgener ally
o res
f ind
200 1
ĠY ork
t frac
C ase
C or
Ġform er
Ch ar
Ġpi ec
cont rol
Ġpro ved
P oint
bra ce
Ġscal es
ĠU sing
Ġopp ort
$ &
Ġp ick
b matrix
al gorithm
par agraph
) )\
For mat
Ġne ural
M ax
Ġc riter
> >
Ġcalc ulate
S te
}) }
Ġtra ined
R el
.. .,
di rect
}\ ,\
anc ial
ch astic
200 2
Ġs us
S F
ĠE d
am era
ĠO F
Ġ{ $
f i
ol ar
Ġc atch
Ġradi o
Ġgu arante
M D
ar c
p lace
tain s
b al
s m
Ġcap ture
Ġfil es
imilar ly
Ġques tions
Ġcy cle
Ġslight ly
n es
up date
Ġconc ern
][ ]{
Ġet c
q l
Ġgre ater
Ġs witch
math op
Ġqu ick
Ġv s
in i
Ġbuild ing
Ġprac tice
ĠM arch
Ġw atch
d y
Ġc ity
ĠF urthermore
}} .
p is
o ber
Ġshow ed
F I
bo ard
ĠAs sum
Ġsc ore
Th at
tot ype
T T
ĠL a
Ġrela tively
Ġv irtual
Ġeffici ency
S ON
ol ve
Ġal though
param s
Tr ue
ĠS ome
Ġpro por
anc y
Ġyou ng
O ff
Ġsec urity
Ġ\ (\
ĠD r
Ġpol i
Ġsol ve
W indow
lem ented
el low
Ġh ole
Ġli ve
D D
sh ip
Ġinv est
s y
T em
Ġw omen
st d
Ġlook ing
om etry
ĠC ity
resp onse
Ġre mark
ĠR us
er g
Ġrema ining
ch ang
ig gs
, {\
ĠSch ool
Ġdecom position
empt yset
semb ly
Ġe ver
V ER
Equ al
Ġ< !--
ist ration
N O
Ġfund amental
Ġrem ove
ist or
Ġact ual
ĠP re
Ġvari ety
ĠR eturn
Ġevalu ate
ti ves
Ġsum mar
Ġgeom etry
str ucture
si a
Ġmean ing
f la
Ġcomp e
Ġve hic
al let
p ite
l ines
il le
Ġrepresent ations
ar se
wit ter
Ġare as
ut ation
Ġprevious ly
Ġre comm
Ġstar ted
Ġas p
om etric
Ġtem por
N ull
ĠA dd
c over
Ġed uc
Ġquas i
Ġs tri
ĠAl so
Ġsamp ling
v ature
em pty
Ġrepres ented
ĠOb ject
k it
ĠV er
Ġth ing
t wo
clusion s
Ġun its
ock et
d ed
str y
Ġtra in
Ġsub group
Ġtransp ort
Ġv ac
Ġcoll ision
ad o
Ġres ources
8 1
ĠSci ence
j oint
Ġcoordin ate
}} ^{\
ĠS ep
Ġpro tocol
Ġpro jection
Ġ ion
u ff
ĠT ype
ent ry
Ġcomm it
Ġlar gest
Ġw ays
Ġch em
ĠW ork
Ġtyp ical
}_{ -
m os
al gebra
fin al
ess ages
ref ix
Ġtest ing
tit u
ĠApp endix
Ġoff set
D i
ial og
) })
Ġequ ilibrium
d om
it ory
i tions
o ti
D ep
St art
Ġdid n
P A
ou l
ram ework
Ġdist inct
Ġcol la
4 00
Ġma pping
ĠH ow
B ack
Ġ ign
Cont roller
IN T
ĠP res
ĠMod el
im es
Ġem pty
ĠE ach
p lot
jav ascript
Ġtechn ology
to ol
Ġqu e
Ġloc ated
Ġindic ate
Ġn ight
etail s
Ġm ar
Ġw ide
Ġb in
Ġmach ine
= .
Def ault
AB LE
Ġf ront
// /
Ġann oun
Ġto ok
al low
ove mber
ig ation
+ (
Ġver tical
Pro of
os ing
Ġd oc
wh ile
Ġcurrent ly
) }_
Ġexp ressed
figure s
Ġdete cted
dic tion
ble m
inos ity
L emma
t un
Ġconst ants
s igned
tt p
ar ing
Ġear lier
' re
c a
Ġin verse
Ġsuffici ent
Ġeng ine
re w
Ġm i
t iny
T ask
ant om
Ġn av
Ġrelations hip
ers on
s uch
ĠHe alth
multi row
c ar
Ġb r
P O
ĠT e
Ġdemon stra
Ġsetting s
Ġent ry
Ġphen omen
Ġdesign ed
Ġinteg r
de v
Ġlim its
Ġmas sive
Ġre li
Ġa rm
P RO
Ġfil m
Ġh ours
Ġbeh ind
io ta
lic ity
| |
Ġansw er
We b
R L
d et
Col umn
I m
R ow
Ġrep lace
M in
ĠJ une
st able
column width
Ġob vious
ad ow
Ġacc eler
ĠN ot
Ġad v
C reate
Ġembedd ing
Ġsuffici ently
P os
s d
g ent
un i
form s
Ġrele ase
om s
Ġgrav it
Ġvis it
Ġ{ };
so le
av el
}) =
ĠT ech
Ġ$ ,
Ġob j
Ġestab lish
ch ron
ĠĠĠĠĠĠĠĠĠĠĠĠĠĠĠĠ ĠĠĠĠĠĠĠĠĠĠĠĠĠĠĠĠĠĠĠ
Ġc ame
ut ing
Ġincre ased
Ġpr int
Ġ ^{
long rightarrow
Ġstatis tical
Ġb right
if ts
tif act
Ġst ation
m ode
[ -
;\ ;\
Ġre t
Ġunderstand ing
re lated
a e
pre c
Ġf erm
te mber
Ch ild
form al
r yp
an o
tri es
Ġre call
Ġconstr ucted
Ġdepend ing
Ġapp lying
et al
Ġsec tions
no ther
Ġresp on
Ġno vel
P L
f s
Ġe q
Ġis o
ĠS outh
] {\
m is
Ġsug gest
or ing
par ison
Ġin cor
Ġg reen
sl ash
ĠH igh
Ġj oint
Ġcommun ication
Ġth rows
un k
Ġpredic ted
Ġqu al
et ch
ĠT rans
ran g
ge br
Ġvari ation
Ġaction s
is ely
Ġreturn s
Ġcom ing
ĠE l
Ġpredic tions
ĠA ust
r ist
Ġmatch ing
ch o
ill ing
ur s
ĠL ag
Ġunder lying
Ġdo ing
Ġac tivity
Ġmanif old
Ġ\ &
\ }\
F ONT
ĠA f
ĠĠĠĠĠĠĠĠĠĠĠĠĠĠĠĠĠĠĠĠĠĠĠĠĠĠĠĠĠĠĠĠ ĠĠĠĠĠĠĠĠĠĠĠĠĠĠĠĠĠĠĠĠĠĠĠĠĠĠĠĠĠĠĠĠ
var theta
Ġb os
out put
e fined
for d
Ġassum ptions
}$ }
Ġdiag onal
$ {\
Ġb ring
st rate
m enu
Ar g
d iff
math it
H ence
ĠCent er
Ġbi as
Ġmax imal
Ġcomb ined
ib ration
Ġir re
k i
R A
Ġte ach
Ġpop ular
ry st
ol ved
Ġdi ver
Ġ }{
Ġon to
ĠCh ar
mag netic
h a
reed om
Ġass ess
a tively
ã ģ
B S
C ell
Ġf ont
ĠC ount
Ġcont ra
Wh ile
: </
Ġd ro
Ġ url
v ision
class es
st yles
c lear
h ar
/ (
D M
Ġhand le
end if
Ġeffici ent
v s
Ġp seud
mit ted
b ing
is tics
\ }$,
Ġphys ics
Ġc a
tr ivial
But ton
U I
con tainer
Ġinvol ved
n n
Ġmonth s
gebr as
Res ults
V is
Ġsta bility
^{ *
Ġsem i
OR T
Ġde mand
Ġo dd
ĠApr il
Ġinteg ration
sub sec
Ġindu stry
re a
Ġcl oud
auth or
tikz picture
Ġpers onal
ser vice
Ġcomput ational
Ġac tiv
Ġnam ely
Ġachie ved
}) ^
Ġhy dro
Ġd ust
}} =
Ġdes ired
g reg
ĠCO VID
Ġc m
Ġt un
Ġmem ber
m ann
en tion
Ġuncer tain
Op en
ĠL ie
Ġcon sequence
Ġtechni que
Ġcontain ed
\ |\
ĠM ich
Ġhigh est
" ).
Ġtest s
Sty le
Ġb all
ollow ing
Ġf ood
Ġbelie ve
& =\
Ġch annels
}} }\
ĠDec ember
o ke
ph ys
Ġbu ilt
iv acy
cl us
Ġstra teg
ura tions
Out put
Ġm oving
T op
w ell
Ġcon cept
Ġthrough out
`` `
off set
C al
a ut
ou rier
S H
M E
} ~
ire ct
Ġpro pose
Ġw aves
Ġfinal ly
n ap
Val id
Ġw all
Ġset up
Ġco ol
Ġarchitect ure
re st
D O
ul er
Ġasympto tic
ĠC oun
List ener
in stance
m i
Ġla ck
f rame
br ary
Ġshow ing
> \
Ġus ual
U pdate
Ġin tr
AT ION
Ġmod ified
Ġwhere as
Ġdis per
a ff
Ġtyp ically
| }
^{ (\
Ġext rem
t yp
I O
Ġf air
lo op
row n
Ġinde ed
Ġener gies
b p
Ġe y
ĠJ uly
I ST
Ġtr ivial
Ġab ility
pro ject
Ġdynam ic
Ġlocal ly
Ġimmedi ately
Ġtop ological
Ġsa f
B U
wh ite
Ġb l
Ġder ive
com ing
Ġvari ance
: =\
} |\
Ġob jective
Ġn et
Ġphot on
Ġw on
Ġb ad
sk i
tif ied
Ġcharacter istic
' ).
lic k
Ġla te
\% $
rem ove
med skip
ĠInd eed
Add ress
Ġpur pose
Ġag o
Ġredsh ift
Ġ{ @
for mations
ro ot
Ġcon j
Ġexplicit ly
L ength
ature s
b ib
ch mark
ad s
t w
Ġf ine
UR L
Ġro t
Ġfollow ed
Ġis omorphism
tic les
C ON
Ġp ush
ure d
text color
ĠG al
Ġsta ck
Ġt al
Ġgeneral ized
ro y
as c
ist ance
Ġmax im
ĠF ound
Ġs ession
br id
Ġoccur s
sec ond
Ġcan onical
N A
X X
Ġderiv ative
ĠG roup
lap se
Ġex ception
Ġre pro
ĠD av
Ġman agement
Ġprincip le
< ?
Ġs qu
M y
olog ies
b on
Ġcur vature
refer ence
am l
Ġc ause
ro sc
Ġradi al
Ġpr ice
Fil ter
S A
Ġ* *
Ġnon linear
V ar
v a
ĠN ovember
Ġwor th
ĠP e
stit ute
pro to
exp ected
Ġrec ur
Ġh it
( &
eli hood
@ {
de pendent
ĠP art
Ġd ashed
Ġitem s
D P
Ġgo es
Ġexpla in
Ġcomput ing
Ġun known
D C
ĠO f
ot stra
ax is
Ġac qu
g ather
ĉ ĠĠĠ
Cons ider
N E
f lu
lar ge
Ġapproximate ly
as ons
Ġparticular ly
script size
he et
ph antom
Ġde ath
po ints
ver ti
th ere
ĠP lan
requ ire
ĠI R
" .
as er
) ^\
avel ength
mod al
po ch
Ġab und
G iven
Ġblock s
per s
)-- (
Ġsatisf ied
ĠO ut
om b
ect ing
ĠC E
Ġd x
cal led
Ġtra vel
| ^{
Ġsys te
ul ating
Ġget ting
//////// ////////
ma ted
Ġmo tiv
F R
ir ing
ati ble
Ġheav y
Ġm oney
Ġ( {\
199 9
Ġlabel s
Ġv i
Ġs pher
bu f
Ġ{ }
c il
1 20
Ġplay ers
Ġdeg rees
ĠEx p
Ġget s
g lobal
duc ible
Ġrun s
Ġprocess ing
th on
Ġpath s
Ġst op
Ġsh ared
Ġw ait
ĠC LASS
m ult
ĠSta tes
ib ility
l ig
G R
de p
Ġwrit ing
Ġhe at
h ol
T ree
Supp ose
B o
Lay out
ĠOct ober
Ġacc om
C ar
ĠN orth
m ember
Ġsequ ences
no tag
Ġreve al
Ġco inc
medi ate
es ter
f l
Ġf oot
ĠE ar
p op
vi e
sem ble
en tic
E Q
an ks
Ġradi ation
Ġaltern ative
and s
Ġsur vey
ĠB ay
B A
Ġ$\ {\
Ġs ector
ĠW ar
Ġh idden
Equ als
Ġrela x
c p
Ġlum inosity
Ġprec isely
f ull
r d
ĠO ff
sl ant
G N
Ġweb site
Ġtre nd
n y
15 0
Ġin str
M T
d ocument
ĠP ark
vi ties
ci ted
Ġinflu ence
Ġor ient
Ġfind ing
Ġpo sitions
! \
br uary
M ode
! ]
i as
et ries
ad em
Ġ math
Ġint ensity
ĠE X
ĠĠĠĠĠĠĠĠĠĠĠĠĠĠĠĠ ĠĠĠĠĠ
More over
u el
at ri
ĠA PI
Col lection
ĠL og
M on
Ġdynam ical
Ġneigh b
ĠSep tember
at tr
Ġinvestig ate
Ġar r
Ġre main
Ġno tice
Ġh ouse
En tity
Ġ[ ]
Ġelectr ic
rop ic
Ġplay er
}{ *
Ġthan k
enc ed
ite s
Ġdat abase
C R
ch ain
Ġc lean
Ġm eta
ĠCh ris
om ic
ĠAug ust
her ent
h al
Se lect
Ġdimension al
ĠB ro
ĠF ran
gener al
Ġdeterm in
Ġw ind
ĉ Ġ
ĠCom m
par se
ĠGo ogle
a ign
we ight
( -\
AR T
" ),
tain ed
Ġequival ence
Ġn or
j o
ĠH REF
Ġf rag
Ġno thing
Ġt ax
X i
Ġto ld
_ .
ur ch
Ġlink s
Ġm ind
e val
Ġar t
ĠO ther
ult ane
Par ameter
Ġra pid
Ġbul k
g n
Ġspec ies
Ġat tribute
Ġj et
D T
G e
ĠS U
Ġnear ly
Ġb rief
ed ia
Ġsto chastic
u it
scri pts
og onal
ec ute
ang er
C ache
pro b
serv ation
ac tic
w indow
D S
rid ge
Ġadd ing
199 8
' >
i en
Ġsu itable
="../../../../ ../
Ġelect ro
Ġex change
ĠT ime
Ġcon duc
Ġdist ingu
CO L
circ le
Ġb undle
F rame
Ġhas h
Ġbu ffer
ĠR ed
Ġquanti ties
Ġcap acity
^* \
equation s
em es
Ġcos m
Ġp en
Ġinter ested
m om
ev en
u um
=" -
D R
ĠPro gram
Ġpattern s
S ee
st an
Ġpub lished
ĠB lack
Ġp or
Ġinter n
re lation
ti vities
Ġen h
te ll
Ġs end
ĠS an
ot ing
back slash
r ong
comp onent
re me
Ġr ise
e lectr
ĠW est
Ġsu ff
op tim
Ġeigen values
con d
Ġexpla ined
xt ure
Ġp ackage
tima te
Ġdel ay
M o
d ash
Ġst ress
H S
Ġapp e
ak ing
u ge
Ġad op
ad y
p atch
ĠĠĠĠĠĠĠĠĠĠĠĠĠĠĠĠ ĠĠĠĠ
Ġgrav ity
Ġqu ar
Ġcompan ies
b efore
Ġprob ably
ing er
ist ent
rang ian
ĠCount y
ĠWe b
uc ial
K E
Ġde vices
ĠN S
c ard
$ ^{
Ġreg ister
il es
Ġro om
oci ety
Ġacc re
Ġgener ic
Ġver ify
ver age
. \\
Ġw alk
sh ort
Ġpro ceed
sh ould
Ġw ent
B O
Ġdis e
m n
}\ |
cre te
Ġsp read
Ġd rop
Ġprovid ing
g reen
Ġst ore
form ed
Ġtra ce
par ameters
^* (
Ġtool s
the tic
Ġimp lemented
cor ollary
W idth
M et
P H
ER R
in teg
par allel
Ġre nder
Ġsc ope
ch or
Ġs izes
el ines
ĠG iven
lic ations
ĉĉĉĉ ĉĉĉ
Cont rol
- (
ĠH iggs
U rl
n egative
Sch ema
E m
ĠG eV
Ġmid dle
tem plate
Ġsol ar
k ern
Ġadvan tage
pro te
j pg
ran e
Ġf reedom
cl ine
ĠG reen
R R
k in
ier arch
Ġtem plate
Ġcandid ate
z y
re ction
Ġtrans mission
ip eline
Ġhypoth esis
Ġmet rics
Ġc red
Ġ })
A p
Ġcorrection s
Ġc op
sp ective
la m
++ )
Le ft
ish ing
resp ond
Ser ver
com mon
Lo cal
em an
Ġro ugh
' ),
r ich
Ġbehavi our
ta ch
Ġp icture
z er
Ġ! ==
Ġar gs
L ong
ir m
Ġopp o
D ev
ar tifact
Ġassum ing
Ġhar mon
Ġ\ ,\
Ġevalu ated
el t
ang ular
la w
S um
vari ance
Le vel
Ġthe ories
T arget
Ġfin ancial
I B
Ġin fer
b en
ĠS ur
Ġcall back
Ġcom ment
12 8
Ġimpro ved
erm an
ar ith
sh ot
ar ge
$. }
or ig
Ġdete ctor
Ġstatis tics
bold math
F L
z a
ĠAr ray
in ted
Ġcom mu
Ġthe ms
Q L
ĠS uch
% ;
C M
G o
Ġtra de
Ġexper i
Ġa w
Ġestab lished
v ect
ra pper
Ġh ot
ĠAl though
i ke
int ro
ĠG L
un ct
ĠD E
l ings
{ (\
25 5
Ġthems elves
th eless
)} (\
Ġfluct uations
s us
ĠDe partment
Ġ }}
Ġent ries
ĠInd ia
ma ins
.... ....
z h
res sive
Ġiter ation
ĠL aw
Ġs il
ĠA m
Ġe mail
ou ch
Ġplan et
b um
Ġpro files
Config uration
\! \
mod ules
h fill
Ġindic es
$- $
Ġoffic ial
ĠS w
*} [
S ym
M em
c ategory
ĠSt ud
Ġcharacter s
) ).
Ġo uter
Ġrecog n
Ġs ong
Ġj o
up le
Ġnormal ized
\| _
k m
Ġsur pr
Ġstud ent
Ġgiv ing
is ot
Pro vider
ĠI m
Ġbegin ning
c ut
Ġd ot
Ġpolar ization
ob s
Ġconv olution
Ġrequire ments
Ð »
S earch
n am
W ork
d rop
is son
footnote size
As sum
il bert
a el
ip e
Ġto ken
ĠS M
otstra p
pro totype
Ġperturb ation
ul us
& &\
( _
Ġres er
Ġsign als
l as
S ta
tic k
up s
Ġ ,\
ĠT HE
Ġimport ance
En try
#### ####
Ġsepar ate
Ġsugges ts
ĠH is
pos es
ĠFe bruary
or ter
Ġchang ed
Ġinde pend
Ġfeed back
Ġno ted
Ġa mb
Ġquan tity
Ġsite s
r or
Ã ¡
Ġright s
ĠAf ric
D L
Ġis ot
F O
Ġsem an
Ġmin utes
G S
Ġs l
ĠSupp ose
ing ton
AC K
E ach
de vice
Ġf rac
ac ing
Ġup d
bur g
ĠIn t
Util s
Ġc ard
Ġle d
f ields
Ġuncertain ties
be led
Ġcomb in
ph ot
Ġbas eline
Ġuniform ly
25 6
Ġn ames
H C
Ġevery thing
ĠL icense
Ġequ ality
text up
ur ally
Ġneutr ino
M ulti
con dition
cont inu
f old
ther n
Ġb ur
ĠU p
Ġs lo
Ġexpression s
ĠS tr
b ot
="../../../../ ../../
ii i
Ġmis sing
) (\
ac ts
Ġsh ock
Ġremo ved
N on
Ġdisper sion
Ġrece ive
Ġag ents
Ġconfig urations
set s
' _{
) }.
tig ht
k o
ĠS m
ĠR E
> ,
ĠOp en
Ġcompo sition
Ġnuc lear
com ment
ĠR i
Ġim m
Ġad min
Ġel lip
ĠM ax
Ġsch ed
left arrow
t ask
~ (\
v ents
Ġsupp ose
b et
ĠO ver
Ġan om
s or
Ġle ave
T ypes
00 1
em p
Ġgravit ational
16 0
} /\
k ip
v ille
ou ple
t an
stack rel
I A
Ġc ategories
Ġt en
Ġv acc
| $
Ġcompu ter
h ere
$\ ,
ĠF in
ĠIntern ational
k ind
er ies
W rite
i ans
Ġread er
ra tions
an ted
res ource
ĠAmeric a
Con tainer
Ġsim ultane
Ġcon duct
Ġhal o
s quare
De finition
Ġdig ital
Pro cess
Ġent ang
Ġfav or
F C
Po sition
artifact Id
radi us
Ġrele ased
ren ce
se p
F ont
ĠG ra
d iffer
Ġdemon strate
text sf
Ġpredic t
Ġ tes
CO DE
ĠCh ina
Ġp as
vel oper
Ġ$ ^{
Ġcolla bor
h aps
Ġexp ress
down arrow
ph as
Ġm ixed
Ġf ire
}. }
Ġ-- -
Ġinst all
ct x
ou ra
Ġla test
ject ure
D at
M O
Ġindic ated
Ġoff ers
ex ists
si vely
() ->
te e
T e
go ing
P D
Ġso on
Ġs ens
bel ian
B L
b c
En c
$ ^
wh en
}$ \
ari ties
ad es
Ġany thing
Ġcoup led
Ġneighbor hood
Ġgeom etric
Ġvis ible
ĠTech n
Ġv io
plan e
it le
Ġchem ical
ã ĥ
ĠN etwork
Ġin j
ĠĠĠĠĠĠĠĠĠĠĠĠĠĠĠĠ ĠĠ
back ground
th ick
ĠH ouse
ra tes
Ġflo at
par ticle
low er
Ġhear t
y a
up arrow
o ph
T S
Ġquad ratic
Ġden se
ST ATE
ĠT V
T O
Ġp adding
s en
B R
Ġw avelength
ĠF ourier
N one
b order
styles heet
C opy
Ġprec ision
Ġpossi bility
Ġpr ime
Ġflu id
P l
icro soft
Ġperiod ic
g a
bo ol
ĠCons ider
Ġsp an
ir ical
Ġatom s
j oy
Ġtra ditional
Ġpl as
cus sion
ir us
ĠAcc ording
af e
: (
b il
Ġabsor ption
supp ort
Ġre duces
Ġdevi ation
trans form
Ġra tional
Ġexp lan
n el
Ġb eg
ĠU K
Ġcaus ed
Ġexplo re
Ġinst ances
) ),
im ary
Ġres id
v or
: "
Ġac cept
Ġlo ck
Ġ ..
group Id
ĠH er
T C
Cur rent
Ġgener ating
Ġtrans lation
H ash
Ġmed ium
Ġth read
) [
ĠM ag
Ġres idual
ir th
Ġdeg ener
ĉĉĉ Ċ
w in
**************** ****************
Ġosc il
Ġf le
Ġvac uum
Ġhel d
Ġformu lation
ĠO R
s ince
&= &\
ic o
V ari
Ġiden tical
M atch
Ġrepla ced
Ġscenari os
Ġt ail
=\ {
tif ier
re et
Ġask ed
Ġup dated
P M
Ġlo st
Ġpre p
Ġass ign
H ttp
. $$
hi ps
P a
il s
ce il
ĠA ir
ĠEng lish
G eV
Ġb rand
ĠI mp
e ech
Ġtry ing
Un it
ound s
ĠM or
Ġext ract
Ġdirection s
Par ams
ĠAust ral
Ġaff ect
u a
Ġm ut
Ġph ases
1 10
ĠF ile
m f
ri ve
F la
Ġcom ments
i ef
im its
He ader
ers hip
Ġden sities
sh ape
Ġag greg
] ^
Ġdel iver
Ġtemperature s
si bility
ĠPres ident
w t
Ġreg ression
Ġtr uth
Ġpro gress
H om
Ġmix ing
] );
Ġj us
spec ial
Ġsol ving
Ġh ope
var rho
ri ver
Ġg lu
w ave
M enu
Ġprof ession
s ect
s v
Ġdepend ent
m al
Ġrecon struction
Ġno tion
z en
ĠMe thod
$\ \
ĠFound ation
ĠD em
Ġconf idence
Ġto uch
ĠĠĠĠ ĠĠĊ
v as
Ġtop ology
form ance
Ġmaterial s
Ġnecess arily
o ta
mid rule
Ġhom ogeneous
Ġm or
prop to
Ġcolumn s
return s
ĠAss oci
R ev
ap an
Loc ation
C ref
mult line
ĠD M
b d
Ġfit ting
Ġfrequ encies
ĠE xt
pt on
Ġma sk
ĠG R
Ġalgebra ic
t ml
Ġ\ |\
re q
Ġfam il
reg ular
Ġcar ry
R ange
h ash
ug ins
Ġcan cel
Ġtempor al
o ted
He ight
Ġis n
t n
C F
S ign
Ġanaly tic
ĠD ay
wo od
Ġdecre ase
Ġl en
Ġ\ [
p res
g rid
Ġac cep
C an
A ccess
Ġfri end
Ġc ryst
E l
ĠC ur
en um
lim it
Ġquick ly
Ġincor por
Ġlearn ed
Ġsen sitivity
Ġcar ried
" ))
Ġ> =
Ġtrans action
ud get
Ġturn s
ĠCor ollary
if ies
D own
ond er
Ġme as
to ken
ĠAl gorithm
Ġocc up
i ra
Ġstraight forward
Ġr ig
Ġdescri bes
Ġst orage
Ġread ing
Ġsim ulated
in variant
Ġcontinu um
Ġstrateg ies
g an
pan el
s ession
Ġinter mediate
Ġband s
bu ffer
Ġreturn ed
bin om
ar a
function s
Ġse x
Ġs om
clus ive
\ },
Ġtran sitions
Ġre ct
ĠCh eck
Ġl ies
Ġcost s
AN D
ĠRe view
Ġsta ff
Ġuni versal
ner gy
ins ic
in itial
In st
Ġp atch
Ġ Ã
Ġ â
Ġl ens
Ġsta ted
W E
sp ort
if ted
Ġ\ {\
i ps
Ġe poch
n umer
ĠP ost
_{ +
t ypes
Ġad vers
Ġfamil ies
$ '
co in
ã Ĥ
}) ^{
Ġu int
H O
") );
Ġprogram s
Ġd ip
ĠC our
n ol
Ġc amera
comple te
C K
Z E
Ġdecre ases
u int
Ġform ed
Ġhoriz ontal
T YPE
ĠC ap
d ouble
S ome
ph ase
Ġpar ty
Ġpass ed
id ers
S im
ag ue
lic ated
Ġman ner
Ġpo or
18 0
un t
erm i
S cript
de bug
Ġpolynomial s
ĠU nder
en v
Ġcoun tries
Ġ ~\
Ġhigh light
o e
Ġb re
G E
er ior
Ġl isted
ĠS en
IG N
Ġk m
Em pty
ĠA ng
e ach
Ġar c
Ġfor ces
n eg
lo od
J son
Ġ* )
Ġat mos
st ri
Ġord ers
Ġn ational
Ġmodel ing
do main
Des cription
Ġloc ations
lo ss
stit u
ĠR un
Ġattem pt
o om
Ġorth ogonal
s ample
w orld
web kit
ond on
Ġ _{\
Ġar ti
Ġf ight
M app
{ |
G u
ĠLag rangian
Ġdiff usion
v olution
Off set
ĠA ct
Ġlow est
Ġec ho
f ony
ĠReturn s
Ġp lus
ĠĠ čĊ
Ġsaf ety
199 7
ĠSer ies
Ġinter section
Ġac ts
\ }.
y r
Ġt alk
Ġpropor tional
aren ts
Ġe pis
Ġimprove ment
Ġpix el
ot al
Ġsum mary
199 6
ĠB ecause
Ġconj ug
M ark
Ġinput s
ð Ł
ĠB en
}[ !
ni an
ub ble
Ġchar ged
it a
ed eral
Ġgener ator
Ġtre es
me asure
util s
Ġdisc r
ĠY our
ĠCol lege
F S
man if
D oc
me an
struct or
u fact
Ġsc ience
lo s
ul ator
Ġse ven
Ġmath ema
ni tion
, ...,
Ġs ort
Ġstar ts
dition ally
al ities
j oin
Ch ang
Ġtr igger
Ġ{ $\
Ġmain ly
Ġs at
li k
id a
U s
Ġelectr ons
ĠR el
Ġfa iled
Ġf ill
Ġenh ance
d ensity
} >
tiv istic
K e
if orn
Ġsub space
Ser ial
Ġchang ing
text normal
Ġpro jects
const ra
ĠS im
}} ,\
}{ }
Ġsc ene
=" /
Ġt end
ĠS at
Ġeduc ation
Ġinteg rated
Par ser
\ /
Ġmolec ular
iforn ia
) >
Ġsen sitive
ĠA R
Ġindividual s
ĠP M
Ġp ull
ric k
ste ad
Ġrandom ly
}^{ +
Ġm arg
Ġh ierarch
Ġsepar ation
N AME
Ġoppo site
Ġvari ations
d ens
ĠSu per
A E
lec tive
Ġcandid ates
Ġexpect ation
Ġcamp aign
Ġderiv atives
e es
e ks
Inter face
n m
Ġli brary
ĠSer vice
ir it
Ġre asons
c ache
h r
Ġben chmark
COL OR
c ro
con ver
Ġd edu
et r
B E
cl ic
m es
atri x
k l
12 5
Ġde ad
Ġmed ical
ch e
ap es
Ġchallen ge
h av
ins tein
Ġin fo
Ġmom ents
big cup
O ption
Ġcl in
et ing
not ation
ta x
math tt
Ġp m
ra ys
W S
Ġcorre lations
Ġorbit al
ĠSt ar
ĠC reate
Exp ression
ĠS D
por ts
j i
Ġmain tain
Ġin ference
ĠP y
Ġnam ed
Ġpoli tical
ify ing
t ty
ĠGener al
Pro perties
Ġpre vent
' .
$ }}
Ġrep orts
c opy
st ro
Ġmod ern
ĠG od
Ġro ad
Ġirre ducible
Mod ule
w rit
Ġrestr iction
i tive
Ø §
sing le
v c
Ġsa w
ĠIn stitute
small skip
ĠIn c
v ity
reg ion
Ñ ĥ
si p
Ġre tri
L R
Ġf aster
Ġsk y
Ġwe ighted
12 3
ic ted
lement ary
Ġpar ams
U se
p air
Ġh on
Ġessential ly
it ation
h ave
Ġdefin es
Ch ange
if ier
Ġ ::
V AL
re nder
Pro position
Ġtraject ory
ol i
ĠB er
Ġw rong
Ġdefin itions
ĠB ook
Ġrecomm end
Ġprec ise
Ġb atch
Ġc ouple
Ġenc oding
Ġc ele
Ġun less
) }$.
Ġas ymm
n etwork
D ir
tr ict
U M
at tle
sp in
i us
Ġt ang
^+ $
Ġ tight
Id en
ĠEurope an
clud ed
Ġem phas
Ġbal ance
ar ity
ĠB oth
Ġa cknow
os itory
ti le
B P
Ġh istor
Ġmod ules
Ġsta y
T ests
Th read
Ġmorph ism
ar m
ä ¸
ti an
V M
Ġdiagram s
Ġv or
mom ent
def n
ab e
Ġcharacter istics
h s
am ent
T P
\ }_{
ur i
sh ift
Ġtechn ical
}{* }{
Ġfun ctor
equ al
ĠD ate
Ġcho ices
g ers
I E
AL L
Ġcover age
ĠM r
ĠH el
Ġsyste matic
add ress
anc ing
sub equations
cite alt
Call back
stan tial
Ġdiffer enti
Ġsur faces
Ġfil ename
Ġun ion
Ġal ign
M ain
la b
ĠL y
Ġapp arent
Ġinterpre tation
' m
Ġstrict ly
Ġt urb
ĠH ol
ĠK ing
g gle
ic ies
Ġadj ac
ver b
ĠB G
Ġinter act
Ġplay ed
ult ural
Or der
Ġgra du
n one
ph one
N G
ĠRem ark
Ġcon clusion
doc s
et te
ac ob
r andom
}^ +
Ġsch emes
Ap J
Ġtrans verse
{ .
Ġs al
iction ary
Ġtri ple
Ġscre en
Ġdri ve
Con st
Ġreach ed
tic ip
w s
ĠN OT
f ocus
Ġl ives
Ġsur round
\ [\
new line
annot ation
Ġd t
cl ick
Ġco ok
Ġchallen ges
The y
qu id
h ed
ace book
ĠB i
Ġdise ase
Ġaccre tion
Ġext racted
ĠS un
ĠEqu ation
Conn ection
F i
Ġh um
Ġregard ing
ight arrow
ir l
Ġcr ucial
M ar
Ġallow ing
Ġlik elihood
end ar
ĠP ublic
f n
tot al
Big g
T ran
i ers
C ore
Ġo w
Ġhoriz on
Ġen joy
ro om
Ġw anted
I con
ĠDav id
ow ers
velop ment
ing ly
ST R
' ve
Ġmet all
Ġaff ected
osp ital
Ġw id
ch annel
Ġat tributes
Ġevery one
}) =\
Ð° Ð
Ġpart ners
Ġuni qu
B B
] =
foot er
Ġal one
25 0
Ġc odes
s end
To ol
Ġsom ew
and ard
Ġdr ug
Ġcont ract
th es
ma terial
Ġg l
Ġexp lor
ĠL O
Ġdist ances
po lation
Ġcomp atible
D ocument
ĠB ri
Ġac tivities
In teger
R ed
Ġc ache
ĠE nd
ĠTr ump
) _{\
Ġopport unity
tr ightarrow
sequ ent
Ġsome one
Ġchall eng
Ġal gebras
B efore
\| ^
Ġw ish
an el
Ġauto matically
Rec ord
Ġin iti
Ġinst al
ist ence
Ġsugges ted
Ġover ride
ent er
ĠS imilarly
A g
T ab
T wo
================ ================
symm etric
ĠT wo
Ġanaly ze
Ġpo ol
Ġ" \
;\ ;
U LT
Ġmon ot
le f
M F
r g
rom e
ti zation
Ġ er
il led
Ġen able
conn ected
AP I
resent ation
C ap
AG E
! !
Ġprac tical
Ġ\ }
Pro ject
ĠB el
Ġorient ation
ven tion
Ġcall s
Ġsh ell
ĠI S
Par ameters
Ġplay ing
ĠS N
Ġin clusion
Ġphot ons
Ġdemonstra ted
Ġread y
Set tings
lear ning
og en
p ower
fra g
Ġto ward
ĠE duc
Com ple
imp l
Ġvary ing
Ġund efined
Ġa ug
' =
' ll
h oriz
( :
ĠU se
ĠC re
Ġsome times
Ġadop ted
de lete
Ġhapp ens
199 5
ĠSec ond
ing le
, .
at ural
) }$,
ash ion
f lat
Ã Ń
Pro p
Ġsc ores
f ramework
Ġcol lect
ĠTr ue
Ġhapp en
Ġmost ly
ic ations
Ġide as
Ġannoun ced
Ġtra ffic
ynam ics
Ġmon itor
Ġconn ections
Ġcol lected
Ġinvol ving
Ġth reat
Ġsimilar ly
Ġfri ends
de mic
pol y
inter face
Ġrati os
ĠDe finition
C N
Ġreason able
ĠA L
Ġf its
b ind
Ġj ud
Ġref lect
Ġra ise
com b
Ġtrans formations
Ġcre ating
b olic
u ro
ĠD ire
Ġexecu tion
) &
Ġf ib
Ġm us
ic a
An y
ĠD on
Ġsimp licity
ĠG r
Ġg ran
Ġvalid ation
Ġestima tor
lo ok
Ġdo mains
Ġfail ure
ĠM ath
Ġcontrol s
c ross
T im
ĠW il
en a
Ġr ich
Ġmark ed
Ġpro pos
st ood
med ia
ĠCoun cil
Ġm essages
ĠE ven
P art
st ates
ĠA GN
le v
Ġge odes
Ext ension
tri but
ura ble
Ġx ml
Ġdr iving
Ġgrow ing
ĠC R
Ġrefer ences
Ġanal ys
equ als
Ġeigen value
Ġd ra
omorph isms
Ġadj ust
Ġa p
Ġg ave
ĠT op
P ass
r b
Ġmajor ity
ĠJ apan
ĠL eg
Ġcat alog
Rec all
lan k
tribu ted
Ġm obile
Ġbo ard
Ġpol ice
Ġgeneral ization
Ġs ave
Ġpan els
Hel per
Ġrespon sible
Ġinvestig ated
Ġdomin ant
pro perties
Ġsign ature
Tem plate
di ents
## #
Ġintern ational
Ġrepresent ing
Ġl iving
vir t
Ġg r
ĠCal ifornia
Ġlook s
U ni
P s
Ġlog arith
el es
IN E
i et
ta c
_{ [
Ġla unch
us ted
D IR
Ġex ceed
v m
le ep
Ġsimilar ity
ĠEq s
PE CT
Ġver sus
ot or
cal c
B M
\, {\
A U
g ray
Ġeff ectively
cl uster
; ->
Ġsa fe
Ġwe eks
ari o
Ġsus p
ĠH T
m argin
qu ark
Ġs phere
per iod
av ity
ĠC NN
oun g
Ġem it
L C
Ġphot o
rid ay
G raph
Ġsub stantial
Nav Bar
h l
Ġabs ence
p ub
ta il
Ġbreak ing
in ternal
Ġass igned
ĠC ON
Ġd ou
ĠB usiness
Ġcosm ological
}\ ;
I ter
cl ide
Ġrestric ted
Ġemploy ed
conn ection
Ġconver ges
ĠPh ys
Ġpla ys
scripts cript
s yn
Ġoff ice
Ġin struction
D I
su ccess
ĠM ap
Ġse ed
Ġen tity
ate ll
Ġcontribu te
ĠIn formation
Ġex cited
scriptscript style
& #
ĠA uth
_{ -\
tell ig
h over
m its
ĠĠĠĠĠĠĠĠĠĠĠĠĠĠĠĠ ĠĠĠĠĠĠĠĠ
ĠW illi
Ġ rows
^* _
Ġcriter ia
lo se
Ġpower ful
co q
anc el
Ġd ed
b re
f g
Ġextrem ely
Ġmin or
. ;
requ ency
val ued
Ph ys
and ra
S tack
c are
T ER
F urthermore
Ġbu y
ear s
in v
Ġin duction
Ġatom ic
block List
| _
ĠF il
Ġd uration
D raw
O K
Ġsub t
as et
ĠM ost
Ġp lease
ĠH ilbert
() :
ĠL ear
tit ude
Ġemp irical
S ession
6 00
Imp l
Ste p
Ġimp ly
ĠU V
Ġeffor t
clide an
| _{\
ment ation
Ġpossi bly
Ġtre ated
Ġperform ing
Ġexhi bit
Ġsol ved
}{ {\
ma zon
ĠM ac
Ġorgan ization
Ġin nov
Ġcoup lings
Ġneutr al
Ġbec ame
Ġh op
Ġth in
es tern
OR M
Ġvehic le
Ġferm ion
Ġnat urally
ar ial
ĠR ad
v dots
bo otstrap
Ġtes ted
Ġis omorphic
10 1
sp ect
Ġch iral
Ġli e
Ġiter ations
Ġcare er
ĠR ob
ĠCan ada
s ys
Ġunit ary
com es
Ġfla g
Ġsp ot
Ġpla ced
r f
Ġn arrow
Al though
ic ons
d ashed
f amily
j k
ĠC H
nol imits
Ġcondition al
ext ension
ĠL ondon
Ġal bum
\, ,
ĠT witter
app lication
Ġdel i
Ġorder ed
ĠG overn
Ġch ance
Ġvi ol
form ing
' $.
Ġbenef it
Ġstation ary
as y
Ġmet al
s at
ar ma
Ġattack s
leq slant
Ġre ward
ĠR equ
ig ration
un ities
Ġtop ic
Ġde lete
Ġmeet ing
iz able
s ome
St ore
bel ow
a ver
ĠV ol
Ġdep loy
st on
ĠSt reet
Ġprob abilities
Ġwork ed
Ġcluster ing
ĠV is
Ġj oin
T itle
an ced
ĠQ CD
ret ch
Ġp ages
Ġre action
Ġpost erior
ren ch
ĠD el
Ġpropag ation
E CT
p adding
in ction
Lo ad
ab or
App lication
ful ly
c lip
ĠWh ite
P lan
comple x
Ġm u
ĠRep ublic
h u
fin ity
av en
Ġcustom ers
ĠI P
Ġsta bil
Ġinterval s
cript or
h old
Ġj av
C I
est amp
Ġrefer red
not in
rack et
Ġprincip al
Ġs we
w rap
Ġleg al
ri a
c ustom
Re ference
oc ks
Ġdefin ite
P ORT
te ction
Ġasp ects
ser ved
Ġrepe ated
-- >
ĠRe ad
Ġfram es
Ġpix els
es ti
han ced
P ost
ĠCh rist
Ġs ides
i pped
ĠD en
du al
Ġcompar ing
Ġca ref
to String
dic t
Ġfi ber
ms g
Ġsymbol s
Ġre normal
Ã ³
Ġcompar able
=" _
ag o
und ers
ic ated
Ġcon formal
aw a
Ġpres ents
ti sh
Ġc ub
ag ram
Ġturn ed
C G
a ur
st ain
d p
ĠS um
tem por
Ġe ight
II I
ĠO per
G ET
ab ove
} ~\
pro v
Ġsec onds
$ _{\
ĠEx ception
ecu tive
ut or
depend ency
ĠS i
Ġ rac
Ġdes pite
Ġco variance
li ance
} <
ĉ čĊ
Ġspec ifically
Ġillust rated
Ġpseud o
}} =\
pl ugin
Q ue
HT ML
k ov
tri angle
B H
ill er
ĠM al
d eterm
Ġpar se
C lick
Ġg ene
P tr
Ġcont roller
Ġpr ivacy
V ector
ĠT ran
Ġresp ective
w idget
Ġper spective
Ġreson ance
H ome
us es
ĠN ame
Ġslo pe
we ak
Ġcomple ted
Ġconsist ing
rep lace
f ixed
hand le
ĠĠĠĠĠĠĠĠĠĠĠĠĠĠĠĠ ĠĠĠĠĠĠ
Ġcl ick
N um
pro duct
P e
sub stack
ĠM em
ine ar
Ġrec ords
Ġdiv is
Ġen semble
Ġeconom ic
stand ing
Ġkine tic
Ġw oman
Ġturb ul
dis abled
Ġstrong er
)= (
f r
con v
ĠPro ject
Ġref lection
Acc ording
ĠEar th
Ġconfir med
Ġdomin ated
ass um
Ġapplic able
ĠC ase
h ard
Ġch e
Ġfocus ed
Ġupd ates
Ġe mo
Ġtraject ories
' ],
Ġdire cted
Ġfe as
Ġinteg ers
A m
ĠAn y
und ay
spec tr
re y
Ġthan ks
ĠĠĠĠĠĠĠĠĠĠĠĠĠĠĠĠĠĠĠĠĠĠĠĠĠĠĠĠĠĠĠĠ ĠĠĠĠĠĠĠ
Ġcontain er
O ther
os h
spec ific
Pol icy
ĠS to
= -\
Ġembedd ed
Ġsimultane ously
Ġinter view
Ġamplit udes
Bu ild
import ant
ro t
}} )$
Ġv ic
Ġhim self
ĠF ermi
lec ts
hy per
ir cles
Ġp y
As ync
Ġpul se
Ġmatch es
Ġd u
Ġdefin ing
] ]
Ġeffor ts
ĠVal ue
Ġsh arp
Ġplot ted
Ġinst ant
Ġser ious
Ġal loc
ĠN ext
Ġchalleng ing
ĠT ri
* \
Right arrow
Val ues
ĠPo isson
j a
and er
Ġ& $
p lus
ĠĠĠĠĠĠĠĠĠĠĠĠĠĠĠĠ ĠĠĠĠĠĠĠĠĠ
U RE
Ġbeg an
by te
oid al
for mu
) |\
Ġro ck
ash ington
ĠP al
G M
ed y
Ġg rant
sch ema
d est
Ġpur ch
Ġuni verse
I X
ema il
Ġcontra diction
Sym fony
ĠOff ice
Ġex cell
Ġb ary
$ /
Ġdecre asing
Ġresp ond
Ġm ission
ac cess
% %
Ġunder stood
Ġplan ning
il ing
am ond
Ġdistingu ish
tiv eness
ra ti
> .
or ge
Ġst ories
' ))
199 4
oti ent
Ġpiec e
ĠH all
Ġde m
Ġm ul
Ġinvestig ation
h ome
ĠIn st
A cknow
ĠM ulti
ĠI mage
A nother
Ġwork ers
Ġspher ical
N C
. }\
leg al
ilit ary
Ġan isot
Ġidentif ication
to ggle
U psilon
th esis
' )$
P ort
Ġproduc es
w ords
| =
M a
Ġpre tty
} &\
ĠL ong
R ender
s imple
leg ate
Ġma ster
ven ue
Ġj ump
Ġra re
over set
Ġplas ma
virt ual
ĠB r
Ġsm art
to gram
ide os
Ġpol icies
l anguage
ĠE rror
Ġinvol ves
c as
Ġinter ior
E rr
ĠL ife
Ġbenef its
Ġexp os
Ġcharacter ized
pl ugins
ĠA ND
ay lor
Ġnormal ization
Ġrequire ment
i ant
ĠInd ian
Ġwid ely
Ġclo ser
Oper ation
}) _{
& $
ĠJ SON
ĠN or
av ed
H D
Ġe lection
ol es
ĠP l
Ġcover ing
Ġdown load
Ġmo vie
Ġapp lies
Ġto ur
Ġman ufact
exp orts
ra ise
f ly
i ented
oci ties
âĢĿ .
Ġsu stain
is o
k w
F alse
Ġte ams
B as
ERR OR
ning s
ib rary
Ġflow s
Ġin her
Ġevent ually
t z
ĠE very
OR D
}. \
Ġ$\ |
pro file
="../../ ../
Ġt ro
AT H
ĠBG COLOR
Ġab stract
H as
Ġdiscussion s
de ep
ĠK e
Ġla beled
Ġsuccessful ly
Ġo s
Ġto wn
Ġle aves
Dev ice
Ġread s
Ġpur poses
Ġpaper s
Ġang les
Ġp lots
ĠT ex
' $,
Ġrough ly
H ost
S ION
ĠV iew
Ġra w
Ġpl ans
ĠThe ir
V ol
Ġspace time
li e
sh e
ul as
Ġl aser
Ġcover ed
Ġrem ote
Ġosc ill
am i
Ġcol d
Big l
Ġser ve
sur face
Ġsur v
Ġpro position
Ġpan demic
Ġcontrol led
Ġdis joint
Ġph one
angu ages
Class es
Ġentang lement
Ġsegment ation
Ġinf lation
phys ical
b ro
es ides
Ġimp licit
E ng
se par
co ordin
' }\
ĠJ ack
W A
Ġf em
Ġconn ect
rosc opic
cep ts
appro xi
cell color
ĠF acebook
Ġad opt
Ġ ),
Ġpla ces
Dis play
C re
ĠU ser
EN D
Ġ[ '
ĠU k
Ġes cap
Ġto t
st ore
re size
ĠEduc ation
ist ing
ĠDi rac
~ (
Ġconcent ration
Ġaff ine
. (\
are st
Ġsub sequent
al ty
Ġsubset s
G G
Ġelectr onic
cl oud
Ġ{ {
W ar
sk y
ex perim
St ar
Ġin ser
)} _{\
r floor
Ġg ate
H R
for tun
se q
Ġimp os
Ġj ournal
\ -
P Y
Ġfour th
P RE
t b
Ġdiscr imin
Ġc ulture
ch er
or ation
Big r
ĠB est
ĠE ast
Ġhe ader
Ġlat ent
ĠSh ow
Ġmes h
ĠD an
AN T
F E
ĠBay es
lig ible
Ġquar ter
ĠM er
& -
l floor
Ġexplan ation
ra b
tab ility
F lo
Ġmin i
Ġmechan isms
Ðµ Ð
Ġgu id
Ġa udi
hom ology
Ġbook s
Ġpotential ly
IT Y
Ġbelong s
Ġcommun ities
Ġby te
Ġel imin
Ġview s
al ing
te ch
c b
ĠA rt
, ~
ĠOn ly
ĠT O
ick er
scri ption
? âĢĿ
Ġhy brid
G D
pro blem
Ġsmall est
p ay
Ġcomp licated
) |^
U V
Ġan i
Ġmove ment
od ay
Ġext reme
au tif
Ġout come
Ġperturb ations
Hand le
the ory
Ġneutr on
} "
Ġext ent
Ġinv oke
u zz
Ġsecond ary
k g
om ing
Ġconduc ted
. },
Ġvanish es
Ġin it
Ġinc ident
t ensor
Ġh uge
inde pendent
ult ra
Ġ$- $
Ġoutput s
ĠL ore
Ex ample
ĠB ig
] ^{
Ġintro duction
De bug
ma tics
ĠF riday
ĠN O
chi ve
S N
ke ys
ĠN GC
Ġabund ance
Ġb ra
F ound
Ġsay ing
Ġn ative
Sh ow
E P
Ġ icon
Ġp le
ar r
ĠS O
ĠJ ournal
Ġgener ators
fo o
bound ed
bet ween
h older
dis tribution
Ġm m
ren cy
Ġintr insic
B bb
exp ort
ĠH y
super vised
Ġrem ember
Ġb its
R ad
viron ments
Ġclos ely
Ġa ware
( *
Ġinstr ument
Ġwhen ever
set tings
Ġ Î
Ñ ı
A v
an alysis
Ġ$ [\
R ou
Ġweak ly
N etwork
Ġsupp orts
ser ies
C B
cc c
Ġmed ian
sq l
in ds
ĠâĢ ¦
h ow
Assum e
Ġ ĉ
Ġc ast
ĠPro f
Ex pr
re h
b x
Ġcap ital
ines e
8 00
ĠE vent
Ġsepar ated
rac ting
Ġa f
sh arp
Ġfin ish
Ġst ored
c ope
Ġcol our
al so
Par am
Ġversion s
Ġ }$
ra tive
Ġcon dens
l b
Ġdec ays
ser ve
Ġbro ught
Ġra ce
Al so
p ic
Re ader
Ġsplit ting
ĠM A
> ();
arg ument
C V
Ġp arents
ĠMich ael
Ġout per
ron ic
A uto
ut ter
y an
ĠK ey
w p
ĠEx ample
tr ucture
per son
Ġb udget
Ġdedu ce
Ġh or
Ġprote ct
m ove
N T
sc ape
ic ine
Ġfin ds
ĠJ ust
chang ed
od ec
Ġcon vers
Ġsyn chron
ĠSer vices
G en
ĠA lex
Ġcriter ion
Ġtr unc
Ġsp arse
Ġparticip ants
ĠM C
Ġdiag nos
th an
ĠEX PECT
AC T
ĠAssum e
ĠJ ames
Ġact ing
__ (
Ġinitial ly
Ġsu ffer
ĠB ack
ir ror
air s
Ġsh ot
` .
l m
f ound
ac le
ur day
sh ell
ar ticle
reg ister
G r
ST M
amp ion
Ġtri al
am er
e per
ĠR ich
In itial
s witch
Ġper haps
c ounter
Ġz one
}^{ (\
Ġ$ <
U nder
199 3
S V
const ant
Ġor bits
Ġpro jective
Ġke ys
= (\
AC E
ta ted
Ġtarget s
t ons
}) )
ĠHT ML
ti tions
v skip
f ast
lec tic
F IG
nt z
P ackage
Ġ ri
Ġlinear ly
}_{ {\
led g
ec tivity
iv il
l r
ĠMon te
Ġsp eech
mathbb m
p mb
tr im
Sec ond
ĠU RL
Ġpass ing
Met adata
Ġpati ent
Ġd y
rup t
Ġbo ost
dep th
ane ous
Ġc la
Ġsub section
Ġconven tional
is y
Ar gs
D ialog
tri ang
Ġke pt
at al
Ġco herent
Ġharmon ic
in line
Ġw allet
ĠB ra
Ġcol ors
Ġchar ges
sub float
Ġh und
it ness
Ġdr iven
g iven
ĠM id
Ġj son
Ġqual it
s amp
Ġindepend ently
l g
In valid
ĠL ap
Ġ} {\
H igh
cm d
lear ly
Ġbro ken
Ġro ots
Ġbut ton
u v
Ġbound aries
u ma
Ġ+ +
ĠI ts
po ol
Ġdirect ory
Ġtri ang
Ġn amespace
ĠL and
Ġrecog nition
e at
Ġdraw n
E V
Ġf ans
Ġfle xi
di rection
De lete
H M
Ġhel ps
Ġcre ation
o mas
ho ok
sy ch
Ġellip tic
cor respond
Ġun signed
Ġcirc um
D irect
ta ges
Ġany one
Ġmarg inal
get s
Ġvel ocities
Ġdiv ided
Ġa ward
Ġrepresent ative
aw s
ad min
Ġfind ings
an aly
Ġend s
math ds
P arent
ĠC r
Ġw onder
o ch
sol id
Ġnon zero
es tima
ak es
Ġ ing
Ġth ous
rom ise
Ġro ll
Ġfinite ly
Com parison
c oup
Ġperm ission
_ ;
n p
Ġmo ves
Ġrecord ed
ens es
s el
Ġmo ther
ĠI II
ĠA M
r ase
-------------------------------- --------------------------------
Ġa udio
ell er
Ġcour t
)} =
ed it
ol f
fact or
Ġ til
se y
ĠG lobal
Ġindic ating
Ġ< =
um ps
âĢ ĺ
Ġsuff ices
ri end
Ġhol es
li ps
] :
war m
ab il
sp aces
Ġte le
Ġlet ter
Ġw al
Ġeas ier
Ġseman tic
gra de
Ġenc oura
R S
ĠF urther
ĠF unction
Ġda mage
}) -
ig u
; <
Ġsent ence
a iled
Ġanaly tical
Ġlaw s
ver tex
ĠS unday
ras tructure
org an
Ġda ily
ĠW ashington
d omin
v in
Ġb us
im it
pr imary
A pi
Ġ ×
ate st
199 0
Ġproper ly
ari ant
Ġv ision
TE ST
fra red
Ġcollision s
Sum mary
Ġin line
G A
ĠMark ov
S w
Ġin duces
On ly
Ġstr ings
Ġcy l
u u
Ġcirc ular
Ġs un
ti p
Ġsuper con
entic ation
Ġ$ $\
ĠG old
ig er
ĠB as
Ġstate ments
ĠEu clidean
Ġinvol ve
ent y
od d
By tes
Ġan ni
AT A
u pper
use um
id el
ch itz
sp ring
). }
Ġconf lic
11 1
Ġterm in
Ġcirc uit
Ġcon e
Ġb illion
R ect
ic ate
Ġanalog ous
B ody
Ex perim
Ġal t
l ined
By te
esti val
Ġdis app
Ġed itor
ĠC hi
horiz ontal
Ġpeak s
Ġsp ent
Ġadjac ent
tem p
G O
ck et
Ġover lap
Ġfig ures
Ġdirect or
Ġop in
pass word
Ġpro be
@ {}
}_{ (
Ġs ymp
S imilarly
ĠIn stead
D el
Ġwas n
Ġclassif ier
Ġby tes
ĠM at
Ġs atell
\| _{\
ĠF und
Ġf irm
ess or
Ġpartial ly
Ġli quid
ograph ic
}} }{
gener ated
E s
ig ital
F P
C ustom
U P
ma k
Ġcho osing
Ġins titu
nap shot
M eta
ĠRes ults
w ill
IM E
' ',
") ]
Ġoper ating
ĠF ore
art in
ĠM L
Ġas ser
bo olean
se lected
c laim
symm etry
k ens
Ġgener ality
ĠPol icy
Ġb lood
ĠDe velopment
ĠS y
Ġtri angle
Ġcontin ues
ou ds
dec om
Ġrequ ests
' }$
Ġconstra ined
C s
}= (
ĠP ub
ma ster
ĠTechn ology
ĠE nergy
Ġcool ing
ĠM usic
Ġsomew hat
sec tions
R T
B it
ulti mate
ĠP ress
Ac tive
ta ke
ĠW ed
ach ing
Ġopen ing
ues day
Ġstruct ural
}_ +
B ook
Ġm al
ro te
Ġste ady
b ad
h skip
ili ary
199 2
Ġconsist ency
on ym
pher ic
Ġar ise
d z
Ġop acity
h ouse
)) )
Ġdec ided
Ġvo ice
ĠDire ctor
ĠIn itial
B ound
ra ine
ĠM et
g in
ater ial
ram es
) !
a ug
A ut
char acter
FA ULT
ever theless
) )$.
un iform
ĠP ort
Ġrob ot
{ %
ĠBu ild
t ur
li ography
Ġcorre lated
Ġhom ot
ĠAss ert
\, .
N ames
d ynamic
ĠPa ul
ons es
Ġg old
th read
in er
at o
Ġpub lish
Ġne ur
R ule
tra ining
Ġgo als
ĠA I
Ġ( *
Ġpre par
ho le
F ields
U L
}\ }$
Ġreal istic
h ang
config uration
Ġintegr als
Ġappear ance
ĠB H
Ġanaly zed
En abled
sequ ences
Ġs on
Ġequ als
Ġcaus es
w all
Ġexcell ent
Ġguarante e
ĠA P
S W
fortun ately
j ust
CT ION
Ġconven ient
p otential
Ġacc es
Ġtri p
$ (\
Ġcertain ly
Ġw ants
t xt
D r
Ġus age
f ail
ĠAssoci ation
phot on
ĠF alse
Ġc ircles
B I
Ġtrac king
Ġn ation
ĠM il
Ġqu otient
ĠF orm
Ġdescri bing
ï ¼
Ġkeep ing
ific ations
ĠS ol
ĠP DF
ecu tion
Ġtr ust
er ve
Ġsch ema
ĠAfric a
G P
Ġorder ing
\ }}
g i
auto ref
Ġpro g
conn ect
Ġsepar ately
et ri
Ġw ild
Ġenc oder
Ġcontinu ed
Ġt ab
unders et
p f
on a
th rough
J ECT
Ġsamp led
Sp ace
Bo olean
ĠN umber
at tribute
OD O
comp onents
ĠA T
Ġlog ic
Ġexcit ation
Ġcli mate
Ġcan cer
um in
ts d
W riter
no ise
33 33
ten ess
Con f
S i
Ġey es
B F
in cre
Ġad mits
Ġpl ant
Ġvehic les
Ġimag ing
Ġro ute
ĠC all
Ġcor ner
urs day
P ub
ĠC A
Ġperform s
ĠT ext
la c
Ġ{ {\
Ġh our
Ġgu ide
s ess
Ġillust rate
Ġ' /
ine ment
Ġb irth
ĠB ur
Ġsec ret
Ġcy cles
ĠB al
l ife
ps chitz
Ġgener ates
f ol
Ġex cess
Ġmo ved
Ġp owers
R o
Ġa ux
Ġcorrect ly
}\ !
ĠMon day
sc reen
Ġen vironments
Ġopport unities
item s
ou ts
ĠW indow
ĠL in
Ġm ock
call back
ub y
R C
ĠAustral ia
Ġsur ve
par a
Ġf ashion
autif ul
Ġsupp ly
Ġsign ed
ĠAr ch
j et
N OT
nes day
Ġw ire
Ġdis sip
ĠUS A
Ã ¤
Ġp ri
Sc ope
ĠS E
Ġse p
v est
g p
Ġaver aged
Ġin finity
ĠV ir
Ġhand s
ĠLo cal
Arg ument
Que ue
Ġsk ills
~~~~ ~~~~
Ġman ager
ĠP lay
Ġf ather
Ġexp onent
bas ic
' d
c pp
des cri
Ġclin ical
Ġcon jecture
à ¥
Ġc avity
ĠU pdate
Ġque ue
tri b
Ġen abled
Ġf elt
}, {\
Ġcred it
s un
ĠCon n
la bility
Ġre ality
ist ant
Ġsum mer
x rightarrow
ĠTex as
Ġa pi
ĠCour t
th ree
ĠI O
Ġnumer ically
ow ski
Ġqu eries
] _{
ĠRec all
ĠA rm
Ġs ensor
ĠM us
st ats
Ġde le
Ġra d
exp and
ught er
e ve
ĠF ield
stand ard
tran sition
Ġdri ver
ĠG ame
Ġdoc uments
s ig
( .
Ġran ges
Ġb tn
Ġ\, ,
ew ise
y cle
lus h
Ġcal ibration
Ġde formation
ĠC ode
K ind
^- $
c op
Ġcorrespond ence
ĠBo ard
Ġcent re
r ink
b rane
as i
od ies
Ġcol lapse
Ġgu ess
M I
ĠA mazon
ĠT R
Ġimmedi ate
tific ate
}$ ).
rac ts
Ġdis order
Ġstand s
Ġcomp osed
st op
if ting
ĠE con
ĠM eV
ĠD ev
Ġ( "
at en
ĠSm ith
ĠC opy
Ġd war
` ,
ul arities
ĠS al
eg ment
{ [
K S
ĠA nother
Ġdeterm ines
ut f
Ġun stable
}( -
inst all
c ov
resp ectively
P attern
Ġ\ #
Ġorgan ized
ĠMed ia
ĠMan agement
ĠSp ace
Ġcommon ly
( |
am ing
ĠCol or
equ ival
Ġspec ify
ĠD ep
Ġen ables
Ġpotential s
}} }$
Ġiso lated
ĠC P
Ġb rain
hel p
S he
ĠI sl
in ity
âĢĿ ,
Ġla bor
yp to
Ġsyn thetic
"" "
Ġrelax ation
[ $
( !
U LE
Ġembedd ings
Ġreveal ed
C ho
Ġbrief ly
ev ents
K L
h ref
P erm
Ġf ul
Ġv ideos
Ġd s
; /
Ġour s
land s
EE E
optim al
Ġrelations hips
Ġhard ware
Ġcoun ts
ro s
ĠĠĠĠĠĠĠĠĠĠĠĠĠĠĠĠ ĠĠĠĠĠĠĠĠĠĠĠĠ
Ġf light
Ġinter ference
Ġtw ice
am in
er ry
ad ed
Ac tivity
ĠD a
ĠRus sia
ĠB ob
Ġtrans mit
o on
Ġcomp reh
' )\
sim ilar
erm any
Ð º
Ġp ipeline
Ġcon servation
Ġdes c
Ġtrans late
Ġcar bon
Ġpro j
ens us
M ember
Ġal le
Ġcomple tion
Ġformal ism
Ob j
Ġsh aring
test s
re v
Ġsh ear
ap y
ass ets
ĠU s
Ġperiod s
center line
m en
for ma
ator ial
Ġhyper bolic
R oot
}| ^
Ġclos ure
Ġ ^{\
b ilities
w ild
Ġlead er
^{ [
Ġjav ax
ĠEng ine
au x
Ġschool s
adem ic
ĠT or
k ins
J SON
Ġpul s
Ġinterpre ted
ç ļ
ĠSat urday
SE T
M ock
Ġsp irit
Ġdisplay ed
ach ed
Ġc row
Ġ( '
ĠLore ntz
ĠAn n
Ġcheck ed
onom y
Ġcon sole
\' {
Ġde veloper
s mooth
Ġs cript
Ġs ales
Ġreal ized
oun ted
Ġbos on
çļ Ħ
P op
str ucted
w as
ul ing
ĠP at
cent ric
Ġpro ves
ĠSpec ifically
ĠS am
Ġcombin ations
clud es
j query
Ġre ducing
web pack
cep tions
u lo
pa per
0000 00
Ġjob s
ex ternal
à ¸
ĠS C
Ġentire ly
ger y
Ġey e
la re
uto ff
}}\ ,
Ġanom al
ĠDem oc
Ġpart ner
==== ==
tr on
d v
ec tiveness
Ġmathema tical
s ymbol
__ __
ĠW al
Ġ\\ [
Ġre ly
v ideo
Ġb inding
res olution
}) (
top rule
St orage
tain ing
Ġs n
Ġform ulas
des c
Ġdevelop ing
ĠT em
Ġexam ine
@ "
Ġh tml
rati o
M atrix
Ġg lob
Ġconsider ation
Ġresearch ers
il os
ĠCh inese
> $
Ġw rote
y y
L ock
ĠE instein
Ġwrit er
f ix
Trans action
ĠĠĠĠĠĠĠĠĠĠĠĠĠĠĠĠ ĠĠĠĠĠĠĠĠĠĠ
text style
}}\ \
ĠT om
ĠDes ign
fig s
re ci
mis sible
VER SION
Ġdecision s
ex ception
Ġactiv ation
Ġrecover y
ĠJ acob
U ID
S yn
ad ers
}} +
ip ment
Ġdiscover ed
[ :
un signed
= $
ĠC ho
Ġacceler ation
Ġth er
=" ">
qu ote
ed ef
^ +\
ĠR ev
$ --
tra ce
Ġasp ect
Ġprofession al
Ġextension s
Ġ" /
Des c
Ġ ultimate
F ull
po sitions
Ġj our
Ġen hanced
rec ord
X T
scale box
) }^
Ġgeodes ic
Ġemploy ees
Ġneg ligible
Fig ures
di tive
Ġcli ents
cer ning
f requency
ĠS earch
Ġlook ed
ig inal
P AR
AR Y
ĠZ e
w er
form er
Ġconcern s
deg ree
B ased
en tity
)\ ,\
go od
ĠN E
Ġass ignment
Ġclaim s
im als
p ot
Ġa head
ĠG en
}} ^{(
ht bp
ĠAg ain
ĠCom mit
Ġfund ing
á ĥ
Ġman ip
Ġtherm od
force ment
tem perature
ĠS k
/ .
Ġaccom p
Ġsh oot
ĠA ction
Ġmag ne
ĠOn ce
Ġcos mic
Ġb low
Ġderiv ation
Ġcomm erc
ĠL ast
ĠD at
ĠH and
or bit
pi x
display math
Ġn ice
ov ies
Ġinvari ance
Ġm sg
, (
ĠN et
Ġw el
ĠPro cess
ĠS ocial
B ecause
}} -
bib liography
sa tisf
Auth or
ĠC ong
Ġfil led
Ġreli able
B s
m ented
ro b
Ġl anguages
ado op
Ġperm utation
ar n
Ġhe ard
Ġcustom er
Ġpo inted
Ġf aces
}{ $\
ĠA re
B T
Ġinequ alities
ort ing
Ġord inary
rela x
D en
ĠAnd roid
Ex ternal
ss ue
Ġa belian
ĠB ase
Sec urity
T rack
l ash
Ġfail s
Des criptor
S end
ari a
Ġn a
ĠSo ft
Ġsta ges
' ,\
ĠA N
Ġc lock
Ġenvironment al
Ġ\ }$
ra ble
Ġappe ared
Ġb ars
et o
Ġcomb ining
M s
Ġutil ity
ĠCar lo
Ġadvers arial
as ion
ant ly
Ed it
Ġfit ted
cons istent
ĠAn alysis
En um
Ġh ous
drop down
process ing
ĠP ower
Ġinvest ment
Ġlong it
Ġregular ization
Ġb ond
ro g
ĠB O
) <
Ġm ys
Ġfil ters
Ġprov en
ol ving
Ġvanish ing
S Y
G lobal
Ġb ank
$& $
Ġb rowser
d etails
Ġmod ify
Ġfa ith
Ġcl ub
G s
ta ched
Ġd og
Ġ[ [
Ġout comes
Gener al
1 12
By Id
Ġparamet ri
prote ct
Ġfeas ible
tra ined
key word
Ñ ĭ
b g
Ġpres ident
Ġview ed
G ra
s ave
. *
ari an
as te
ik i
B D
ĠH ome
Ñ Į
Ġinst ability
Chang ed
it t
Ġvari ant
Ġser ial
=" @
d al
ne utr
Ġcryst al
F in
comp are
ĠW ill
IC E
() {
Ġprote ction
Ġpo inter
Ġp late
velop e
Ġpro jected
ĠT uesday
ĠĠĠĠ ĠĊ
pol ar
od al
G rid
): =\
Ġpop ulations
ĠD iv
la tes
n c
}$ ;
14 0
Ġcomp lement
Ġco homology
j ar
Ġacc ounts
Ġp ion
Ġc um
Ġf o
Ġsit uations
ote l
Ġcover s
Ġs ociety
Ġsc an
T erm
Ġne ither
m ock
T V
ti te
= {\
S cale
set length
ĠY ear
Ġkn ew
ledg ments
oc ation
Ġm ilitary
Ġdiver gence
d c
ĠÐ ¿
Ch annel
E ff
ens ors
}} +\
Ġ\| _{
M ed
s ym
Ġwor st
? :
Ġg rand
par ts
A SS
ĠApp le
ĠG ood
FI LE
Ġpresent ation
er os
D ire
ach es
p attern
Ġ à¤
in sert
Ġsever e
al actic
Ġdot ted
ĠD O
Ġelement ary
ĠT aylor
Ġseg ments
que ue
Ġadvan ced
te sian
ĠE uler
Ġmetall icity
ĠWe ek
ĠH istory
Ġrapid ly
um es
erc ise
ist an
) /\
ĠRus sian
* {-
Ġf resh
make box
la d
alax y
}] $
Ġg ather
ĠBri tish
col lapse
Ġachi ev
Ġexpos ure
Ġd ir
sh all
L in
writ ten
S m
ĠCh ild
Ġtang ent
z ens
ed er
ual ity
) ~\
ĠW ay
ru it
cont roller
W N
Ġb log
Ġphot os
Ġle aving
Ġd b
act or
con tains
includ ing
ĠF rench
Ġachie ves
Ġobserv ables
ĠT H
13 0
Ġwor se
ĠM S
oper ation
ĠQ ue
X ml
an chor
lef trightarrow
ou thern
Ġg lass
s n
eq q
ĠT im
tr igger
Ġign ore
Ġacc um
ct ors
bigg r
Ġimplement s
ĠP an
Ġt er
ĠN av
Ġc od
Ġensure s
Ġcon clusions
KE Y
10 5
t rack
c ost
ĠN ov
Ġres olve
EX T
b les
_ (
v ation
Ġow ner
serv ative
Ġfac ilit
Ġrepla cing
Ġlocal ized
Ġlimit ations
Ġtri ed
ET H
Ġde v
Ġsymm etries
F ix
}] \
ĠS ign
Ġpr ices
Ġsingular ity
Ġvari ability
ĠD uring
M ENT
Ġlo ops
Ġk ids
clud ing
Ġ est
Ġp refix
Ġimag inary
ch y
Ġnav igation
el d
do or
Ġpro ton
ĠD ue
bottom rule
_{ {
Ġcons titu
' (\
ĠC amp
bigg l
os c
sc roll
ch es
}{ $
ĠA v
Ġintro ducing
Ġfrac tional
r ating
place ment
]{ ./
âĢ ¢
ĠS pr
un ched
}$ $
or row
m ix
r ig
ĠI ll
ĠEng land
Ġmolec ules
Ġinstance of
Ġ ur
Ġcenter ed
T F
ĠT imes
y es
3 60
ph en
Ġeffici ently
Ġe th
ti ties
ĠInd ex
Ġfac ts
Ġoscil lations
lement ation
T otal
Ġ ice
ĠY oung
Ġstr ug
+ |
ĠP R
Ġf er
ĠL u
ĠL ink
big skip
ĠS a
Tag s
Ġcon cepts
ĠCom mission
ĠNo tice
Ġcor por
IV E
ĠTh ursday
Ġin valid
sh adow
Ġmultip lication
Ġepis ode
ch em
Ġal ignment
li ers
Ġanalys es
Ġtor us
Ġimpos sible
P anel
Ġsc i
ĠF ree
Ass ert
g on
Ġd ialog
ĠWed nesday
ĠLear ning
ul ner
ab out
duc tive
or tion
Acc ount
Ġmod er
Ġdi versity
effici ent
comp act
Ġlead ers
D etails
ĠS I
}) }\
g ame
Ġn g
Char acter
Ġ% }
Ġcop ies
Ġlocal ization
Ġst ock
199 1
v v
ER S
Con clusion
ĠB an
f c
Ġd rag
os es
ĠU N
Ġhelp ful
Fla gs
Ġproof s
Ġref ers
Ġconver sion
ĠC D
ĠS ing
ch en
in her
}, \\
a ults
t ors
ential s
qu ality
s olution
G AN
Ġo il
ph y
. __
pro j
% )
Ġneighb ors
ti tive
=" ${
ĠB et
ly ph
++ ;
Ġhapp ened
p q
tr l
w a
el astic
Ġc ris
Ġcl ouds
au di
Ġcompe tition
MA X
Ġprogram ming
Ġstudy ing
Pre vious
pla ys
l ers
Ġobserv able
ĠC as
Ġhom omorphism
Â ł
b rowser
Ġrela tivistic
n il
ĠVer sion
Ġsurpr ising
n l
ĠS ociety
b our
Ġmor ning
ĠCont rol
ĠCE O
ag nos
Ġde b
ĠT ask
ĠM any
Ġar ises
w est
p b
Ġphenomen on
Ġassert Equals
J ob
ult y
Flo at
ĠSt udi
d k
ang o
] _
+ $
Ġam ounts
tain ment
Ġ$ -\
Mapp ing
tellig ence
W idget
() ).
re str
or a
Ġlimit ing
ĠB ank
P ay
Window s
ĠCol lection
ĠL ou
Ġcomput ations
Ġdetermin istic
sec urity
Ġhol omorphic
pla tes
ĠĠĠĠĠĠĠĠĠĠĠĠĠĠĠĠ ĠĠĠĠĠĠĠĠĠĠĠĠĠ
Ġsec ure
~ {\
g it
Ġmay be
ĠP H
Ġpercent age
ĠS P
F M
h idden
Ġcomp ens
', '
Item s
Ġpa id
bo th
Ġ )$
big oplus
Ġold er
ab it
c is
in duced
P y
Ġplan ets
N P
y er
Ġperm it
sum er
ĠRo ad
h adoop
Ġpro xy
), (
"> &
ai lability
Ed itor
Ġcommerc ial
O PT
g ency
Time out
o la
Ġhydro gen
Ġbe autiful
onal d
M edia
Ġenc ounter
st age
RO M
f x
Ġmen u
Go ogle
Ġpure ly
fe ature
A rea
Com b
s afe
ati o
Su ccess
Ab out
=" "
Ġmanif olds
ĠCent ral
g tr
dist ance
con vex
eff ect
Ġb atter
Ġded icated
Ġt ends
col lection
P ool
bibliography style
tool s
Ġconver ge
n ames
per turb
tific ial
cons ider
Dep end
vol ume
ĠIs ra
Ġdi verse
Ġradi i
Ġcomb ine
2 13
][ '
es h
ĠO ption
Z Z
b atch
Ġpack et
5 12
Ġdec ades
ht b
Ġvol tage
ma sk
M at
ĠComp any
ĠD R
tab s
Ġthink ing
Ġtrac ks
Wh y
Ġmi xture
ĠA S
Ġaux iliary
st one
ien tific
M ay
ic ago
w ater
Ind eed
Ġferm ions
Ġsequ ential
Ġn an
ĠBayes ian
N L
ol ver
con j
ĠA uto
On ce
ĠGal actic
z one
q q
Ġdi ameter
Ġext ensive
Ġbusiness es
ĠF lor
ilos oph
Ġmod uli
Ġar ticles
Ġrig id
u ted
ĠAd min
Ġconsum ption
Ġex it
Ġarg ue
der iv
tribu tions
Ġn orth
Ġtop ics
b ecause
t mp
) *
f d
Ġpiec es
it ter
Ġfla vor
Ġh ospital
A x
Ġloss es
Ġlink ed
it o
te en
Ġf unc
Ġadv ance
f un
Ġobserv ational
ul lable
Ġsign s
Ġinstal led
ĠN on
Ġreach es
7 00
ĠGovern ment
ula tive
Rec e
Ġv ote
char ge
g ov
& +
Ġre verse
ĠM icrosoft
' -
[ {\
ledge ments
Ġcub ic
over view
Ġcross ing
up load
UT F
Po inter
Ã ¼
Ġne arest
M any
uni que
Fe ature
ec ho
% ,
B rowser
In ternal
A ni
proto buf
Ġth r
E vents
^ *}
ĠM ain
ST AT
" `
Ġpar ties
ĠAd ditionally
Ġclassif ied
ĠP ath
Ġoffer ed
Ġpa in
Ġcon vert
re newcommand
Ġdepend encies
Ġ ultra
am ed
Ġinsp ired
Ġaccep ted
col head
Ġsupport ing
cep ti
en berg
is ons
Ġres olved
", "
B en
vari able
Con stra
Ġrestr ict
und les
Ġm iles
ĠC are
app ly
ĠJ ul
Ġsee ing
Ġd im
\\ \
Ġdip ole
Log ger
}; \
Ġcap t
rac tive
Ġenc ryp
Ġlar g
Ġis su
Ġcall ing
\!\! \!\!
p ed
ĠC L
Ġrel ig
xy matrix
Ġband width
dr iven
Ġ[ ];
Ġeff ectiveness
ab y
Ġl es
Ġexperi ences
Ġp od
ĠP age
âĢ ī
Ġr ating
Ġmag net
M ag
ĠM i
F rag
Ġc lip
anc er
T M
eng ine
Ġb urn
var pi
er ial
ĠH ill
ec e
and a
im inal
Ġel astic
Ġdo or
Ġcontinu ity
Ġp ump
00 5
correspond ing
S cal
Ġchain s
g ls
ĠCon sequently
ore l
Ġf ederal
= [
Ġsurround ing
Ġdep icted
Ġaddress es
Ġcut s
et ers
D ouble
}} }{\
Ġpre m
fol io
Ġf usion
ord an
Ġn ine
] ^{\
n ight
Ġlarg ely
qu antum
Ġ Ø
ĠSt andard
Ġal ter
Ġj ets
Ã ¶
Th m
ĠCon fig
Ġte les
f m
Ġaim s
ĠN ode
Ġmod ification
BU G
Ġresp onses
em ann
all ery
iti an
No tice
differ ent
Ġsummar ized
moment um
ann ed
v ance
ĠSte p
Ġver ified
Pro xy
M OD
S ur
Ġs ell
e ties
os ted
Ġcap able
Ġ ðŁ
D uration
Ġequ ipped
v ectors
Ġpre ced
Ġaw ait
LO G
Ġf an
b ol
u able
}$ ),
on ed
res et
p es
Ġinf rastructure
Ġun ity
Ġnear by
ĠâĢ ¢
T A
Lo ader
m etric
ĠA D
Ġsp orts
Ġhelp ed
Ġwe ather
oun tain
Ġrece iver
Ġeconom y
L M
Ġquark s
M ac
, }
() ));
manif old
ĠB ased
add r
Ġnumer ous
as p
Ġdiscover y
Com ment
] \\
resize box
Ġqu bit
cy cle
Ġneighb our
Ġext raction
Ġtell s
Ġd ream
Ġcommu tative
ĠG PU
Ġdest roy
pre dic
Ġinteract ing
ĠĠĠĠĠĠĠĠĠĠĠĠĠĠĠĠĠĠĠĠĠĠĠĠĠĠĠĠĠĠĠĠ ĠĠĠĠĠĠĠĠĠĠĠ
Ġ\ :
Ġsignific ance
Ġb ed
enc ing
Ġpass word
Ġhomot opy
Ġspeak ing
U D
po sitive
Ġtechn ologies
Ġs ym
Ġcol lege
continu ous
Ġminim ize
k t
ĠĠĠĠĠĠĠ Ċ
Ġbright ness
Ġw itness
Ġd anger
la g
gtr sim
ĠJ ava
colon eqq
Ġpo se
Ġt ables
Ġn u
ĠPe ople
S to
Ġ( [
DB LP
th in
Ġwar m
Ġg irl
ĠC PU
s warm
Lay er
Ġexpand ed
Ġadap tive
IT E
ĠM ad
Ġcapture d
T ABLE
log ger
ĠH uman
Ġfin ished
] }\
assif ication
Ġ= ========
C at
aus s
n odes
Ġb id
ree k
al i
Ġsh ifts
Ġann ual
in n
op ed
) ">
S ymbol
Ã §
Ġl icense
Ġtot ally
ta gs
Ġflux es
Ġprote in
Ġro ut
ock er
Ġproced ures
A re
method s
Ġorgan izations
Ġsymp lectic
th r
ĠUk raine
Ġdual ity
Ġcent ury
Ġcomp ression
d if
el le
ĠTe am
Ġpos sess
Ġ erg
Ġrest aur
Ġse a
get Element
}} )\
ĠO ffic
ON E
ann er
S ingle
Ġexplo red
ud y
ĠS il
Ġassoci ation
). $$
Ġout flow
ĠP lease
Ġg iant
not ations
}} _\
orig in
e th
Ġdeterm ination
ĠP A
pro tocol
ĠMe an
Ġhand ler
$ }\
Ġb ins
d ark
en able
Ġt we
( $\
ati s
wild fly
ex act
M c
M sg
ĠM ex
Ad apter
Ġb orn
ĠS NR
Ġl ists
cri tical
group s
To String
ĠT ur
w ang
ok ing
oid s
exp ect
Ġcollabor ation
Ġpor tion
Wh ere
ĠS yn
Ġi i
Ġlogarith mic
Ġra ised
ĠL at
ĠM ach
dis c
au chy
ud inal
Back ground
H y
Ġlist en
Ġno tes
ĠC S
Ġke V
$ =
) ~
Ġbig gest
ĠWil son
Ġm ur
Ġprov ider
la in
Ġdiv ision
Ġhapp y
ĠMa jor
c tive
Ġpropos al
lar ation
ĠSec urity
Ġrestric tions
| {\
Ġde bug
( --
Ġappear ing
erm itian
ĠNew ton
exp ression
Ġorig inally
' +
Ġb la
ti er
ur ance
nav List
Ġfor ced
Ġover view
ma ps
ic ial
B r
Ġimprove ments
ĠE mp
Ġs outh
}\ )
ĠV ari
Ġat tr
) },\
ĠM ake
lin ec
ati bility
Ġexp ensive
Ġconcern ed
Ġconvolution al
ĠRep ort
type of
E val
Ab stract
h d
D est
Ġflo or
cle an
Ġatmos phere
ĠR ight
Ġsc ientific
ĠT our
p in
Ñģ ÑĤ
Ġepoch s
Ġ\, .
Ġimpro ves
ĠL ee
Ġapp reci
NR AS
flu id
cho ose
Ġlength s
Ġescap e
s id
_ ,
algorithm ic
st at
Ġacces sible
l brace
vers ely
child ren
S ER
ate ver
Ġfore ign
Ġsh apes
Ġdeterm ining
G a
Ġcompo site
Ġa part
Ġd il
ĠN a
ĠComm unity
= }
Ġoption al
ĠCl ub
Ġcon crete
oc aml
F low
ĠI V
ens ed
un ing
At tributes
Ph one
Ġsee k
Ġprim arily
Ġconfir m
Ġsqu ares
ap ed
Ġd amp
Ġbr ings
err ors
Run time
t c
}^{ *
Ke ys
198 9
Ġl ic
Ġtrans actions
Ġfam ili
coordin ate
ĠB it
S QL
gra dient
ĠWindow s
ĠUn ion
Ġsing ularities
Ġoptim ized
requ ired
Ġcould n
stit uting
her ence
al f
J ava
ention ed
Ġclass ic
ĠS W
electr ic
Ġd elta
ĠFran ce
Ġman aged
ĠD C
Ġmonitor ing
Rep ository
w ho
ĠB ol
SI ZE
I LE
O B
Ġf if
Com mon
ĠF lo
re nd
Ġobtain ing
Ġcy clic
}. $
ĠH D
u an
Ġmet adata
th rows
id x
Mem ory
$ ^{\
si tes
}$ :
ĠH op
set up
Ġdifficult y
acc ount
Ġexponential ly
Ġcomple tes
i os
Ġrect angle
H ub
Ġm ob
Ð ²
ma y
Ġsub graph
Ġknow s
Ġwait ing
s ort
all en
g ue
Ġrobust ness
Ġc as
k k
Ġvari ational
Gener ic
ĠC up
. '
z es
T x
F ollowing
ĠSpec ial
L U
Cl uster
Ġg un
E u
Ġfil ms
Ġfavor ite
ĠWh y
ad ic
F ail
Ġe lem
Ġsu cc
P ATH
Ġs ight
Ġp in
Ġconn ecting
Ġcount ing
tab ly
S imple
Ġbegin s
Ġuniqu ely
ĠG ermany
ĠR ock
Ġarti st
mu table
ĠA ward
): =
Ġguarante es
Ġdef ense
ir ls
Ġtransp arent
f b
Ġcre ates
s r
Ġtransform ed
eman nian
NavBar Cell
Ġdiscre p
)} =\
Ġreview s
Ġh eter
Ġc utoff
Ġisot ropic
a per
ĠGe orge
do i
ĠP en
In it
h aus
Ġpo le
Ġcr ypto
Ġnucle i
Ġregular ity
RI PT
cre en
19 80
f p
ter ms
ĠAuth or
Ġw ife
o tes
equ ence
Ġbel ief
}} }}
ĠN N
Ġdeli very
Ġrem oving
J S
w ait
H H
Ġhistor ical
M ath
ymm etric
Ġsched ule
oul omb
//////////////// ////////////////
mid dle
Ġthick ness
ĠL ook
Ġaudi ence
)) );
Ġenc oded
Ġequ ally
Re al
AD D
Ġtran si
ce an
Ġb an
at ar
Ġ ).
- {\
'] )
Fil es
Ġprep ared
ĠDef ine
ĠN Y
pol icy
_{ (\
Ð ¼
F ailed
Ġv ulner
Ġins ight
Ġcoinc ides
ĠTh omas
10 2
ĠP RO
å ı
pro ps
Ġco q
Ġ{ '
B ro
war z
Ġst uff
ĠTh rough
verti ble
Ġover la
Ġgra dients
ĠCommit tee
P ack
diag ram
script style
ĠSci ences
ĠPro of
_ ->
ĠD own
ur t
man ager
Ġopen ed
^* (\
ĠM ary
27 0
ĠT ODO
acc u
ĠR oy
ĠW ell
t k
ĠP oint
Ġrepro duce
ĠJ ose
th eme
Ġg ender
C lose
ard en
Ġinter polation
)$ }
Ġexpla ins
c u
Ġad ds
Ġterm inal
@{ }}
om y
Ġsub stitu
Ġint ended
ren ts
{ }\
Hel p
Ġdetect ors
ĠG re
ĠP op
A F
Ġslow ly
Ġtr uly
com parison
ER E
Ġno isy
ĠA p
Ġcom for
Ġgra ded
Ġplatform s
ĠP O
ĠT erm
ever al
Ġpar ity
me tic
Ġn om
M ost
ĠG W
p ag
prote cted
get Name
Ñ ĩ
Ġoccur red
}{ !
b ec
Ġbec oming
l st
+ }
ĠRe al
ĠH am
Ġvalid ate
Ġsupercon duct
Ġs ending
Ġcon ference
ed itor
Ġto kens
clo sed
Ġdest ination
ad ap
F ind
ĠP C
ĠH aw
Ġmechan ical
Ġv illa
ak er
}) ^{\
Ġsp ac
ĠE V
under brace
Ġdi e
Rel ated
x s
on av
Ġdegener ate
Ġre lies
Ġexper ts
p icker
li ve
Ġtyp ename
rela tive
Ġtem p
ici ous
per t
ĠRes ource
X ML
it ors
ĠG rant
Û Į
ĠH a
ov a
Ġelectro magnetic
N umer
in formation
Ġcon tribut
Ġf re
ĠN AS
ig an
00 2
Ġprac tices
- $\
Select or
par tite
Ġscal ed
di alog
Ġk ick
ĠG erman
ĠOb serv
ĠB a
{ |\
}) }{
Ġb ag
Ġdec ide
\" {
ill is
abil istic
Ġo k
ĠH ash
Ġre q
ig roup
ĠC he
M u
p ress
ĠS ource
* )
ran es
Ġs lot
Ġ il
Ġsimpl ified
ĠW he
Ġvic tim
es timate
Ðµ Ð½
}. $$
ree ment
Ġfund s
f ire
lim inary
Ġpro mo
V ec
ĠP S
Ġlay out
Ġapproxi mations
' }(
Ġp itch
E very
Ġad verti
et t
Ġle af
ĠM ass
ĠDe ep
y e
Ġpropor tion
ĠAr ts
Ġyour self
ĠCom ple
Ġan ten
ord ers
ĠDef ault
######## ########
cur ve
Ġc e
F ree
Ġat tached
f ar
l vert
G EN
ĠS V
il inear
-> _
with out
m kern
Ġar rive
Ġset t
ĠJ o
ĠM essage
Ġvor tex
roll ing
Ġvar ies
< !
ĠAb out
s b
Ġar range
Ġso le
Ġsp ins
k h
Ġcharacter ization
f ac
th us
play er
ack now
Ġdis ks
ĠB S
h yp
f ront
Ġproduc ing
11 5
ĠBo olean
Se lection
Ġd oll
Ġcon sequences
ĠM D
ĠC er
par amet
Ġprefer red
IN D
M NRAS
are a
J an
illi ons
ce q
ĠF uture
Direct ory
Ġex ecute
S ync
M SE
hom ogeneous
Ġdec oder
Pr int
Ġaccurate ly
Ġneutr inos
fla gs
Ġconjug ate
bound ary
Ġprior ity
Ġanni hi
print f
ĠF ix
C NN
'' .
RE AD
Ġph on
ĠN evertheless
Ġinterpre t
Ġla unched
Method s
ĠF amily
hand ler
ĠOr gan
Ġmeas uring
Ġfrequ ently
Ġquanti tative
Ġrun time
Ġb are
P N
Ġm otor
ict ures
Ġcaus al
t p
sin h
Ġenti ties
ener ate
Ġb ij
t f
Ġp at
ĠM el
Ġman age
at omic
Ġstand ards
^{ {\
D on
Ġtrend s
Ġdr ink
ĠF ollowing
Ġfoot ball
Ġear th
us ers
Ġin d
add le
e a
q ed
Ġal location
Ġobser ver
Ġthe me
Ġor iented
t body
f riend
Ġd ied
| }{\
Ġidentif ying
Ġqu bits
Ġexper t
Gener ator
r brace
iz ers
ĠD ir
Ġs tim
M AP
Ġmode led
Ġtal king
Ġo pt
Ġf n
B est
hal f
view s
N ormal
Ġfew er
Ġr is
Ġfe et
p refix
ĠW omen
Ġacknow led
D iv
z i
ĠB ill
Ġ[ -
es ome
Ġing re
Ġmatch ed
ich let
Ġt ack
U SE
Ġt ension
Ġ( .
ste in
F s
Ġg one
Ġradi ative
Ġsh ares
ĠFlor ida
Not Null
et ary
ĠIntern et
ĠF ar
rg b
al a
Ġg rows
az ine
Supp ort
Ġ tit
tr ine
Ġopin ion
ĠLi pschitz
Ġapproxi mated
Ġreve als
}) ^{-
it on
ĠB lock
I ES
] +
c n
t rac
Ġfam ous
Ġregister ed
ne igh
all classes
Ġthous ands
Pro file
ste llar
Ġcont ents
head ers
Ġcons ult
Ġ$\ |\
ĠLe ague
Ġv irus
Reg ion
Ġhierarch y
Ġdevi ations
Ġ ul
Ġh o
FF FF
ĠCar ol
em bed
}) :
Ġasympto tically
M N
w atch
ĠC ustom
Ġhis togram
T w
Ġcon cerning
Ġcard inal
Ġ )\
ass oci
ĠB l
Ġb ath
IG HT
ab i
Ġcol lective
ĠG a
z o
Ġequival ently
Ġ" "
12 7
}} ^\
Ġcompreh ensive
Ġv irt
J ohn
ic ular
S uch
ma zing
Ġd et
tra in
d n
Ġ\\ \
uc tive
ab olic
Ġobvious ly
Ġsh ut
Ġp p
G Hz
ast ro
13 5
Ġser ved
Ġexplor ation
U C
Ġs leep
Enc oded
R ob
c v
Ġar ising
Ġs ter
Ġvari ants
Ġarbit r
B AR
ĠL os
Ġpar ad
lik ely
ĠR iver
Ġwin ning
Ġsh adow
[ ->
Ġk inds
Ġphot ometric
Ġcons ecutive
u er
ro le
ĠE m
Ġhe ating
assert Equal
ĠCopy right
Ġfamili ar
M is
Ġad mit
ĠS H
lic ate
Ġsurve ys
: [
Ġ> >
ĠCent re
Ġpar a
Su per
Rem ove
Ġofficial s
Ġin come
cor relation
Ġcap abilities
Ġphenomen a
ĠE s
ĠChris tian
ĠĠĠĠĠĠĠĠĠĠĠĠĠĠĠĠ Ċ
E ven
cos ity
hav ior
bound s
Ġ= ======
Tra ce
Ġassess ment
ĠMed ical
de te
F unc
198 8
; }
test ing
198 7
m ers
ĠMin ister
}\, ,
Ġm irror
Ġr id
n atural
pro gress
alle y
Ġsupp ressed
h ide
ab ric
Ġconven ience
Ġbox es
Ġmultip lic
Ġbar rier
duc ts
ab c
Ġ ],
P G
ex amples
ĠReg ion
mon th
ĠRo bert
Ġobtain s
Ġanom aly
b one
99 99
is ters
ĠI E
Pl ugin
Ġlife time
Ġas ync
ĠL ibrary
onav irus
Ġcons tit
P lay
Ġequ ipment
M er
Ġe V
iv ely
ess el
Ġimpro ving
Ġoffer ing
ffici ent
ĠĠĠĠĠĠĠĠĠĠĠĠĠĠĠĠ ĠĠĠĠĠĠĠĠĠĠĠĠĠĠ
ĠM ur
w rapper
ag ent
Ġi o
the o
Ġamp l
Ġval ign
I EEE
Ġnon trivial
ser vices
Ġpa int
@ {\
at re
par tition
Ġjo ined
Ġrepe at
H ar
n as
is ition
ĠAs sembly
}= -
Ġrece iving
fil ename
S ample
le vant
Ġin cl
f all
us s
Ġk illed
Ġaddress ed
ob jects
ĠÂ »
ĠCh icago
in to
W R
Ġmoment a
p latform
Ġclaim ed
ĠR am
gra vity
int en
ĠF rank
ĠE v
Ġsh o
Ġexhi bits
inter val
ul ted
Ġnot ing
Ġlead ership
Par se
Ġf ish
ak a
O F
)$ $
Ġvacc ine
lat tice
met adata
Ġadap ted
)} ]
ĠCh urch
Ġatt end
cor r
Ġsk in
ĠL HC
ĠFig s
lo sed
in ue
Th rough
Ġsub jects
le ts
10 4
t witter
ĠF OR
)) =
Ġmod ular
Ġfem ale
til ity
Pro tocol
} --
Ġpair ing
M ake
cos h
ĠD u
Ġo c
Ġarchitect ures
b est
v dash
ĠDis trict
ĉĉĉĉ ĉĉĉĉĉ
rior ity
Ġs y
Def ine
s imp
Ġxml ns
ĠP ass
comp iler
ĠEn vironment
aj ax
Ġ? >
ĠI C
urb an
h es
end or
O UT
}) +
Ġnew ly
X Y
vi a
3 50
at tributes
Ġsatell ite
lip se
an ish
im ination
Ġmeas urable
^* ,
ĠB ern
ri ers
C ategory
d one
ula tes
2 20
s ame
ab atic
Ġend point
Iter ator
S ocket
re ds
iter ator
Ġsh orter
Ġat tach
Ġregard less
S ol
Ġprov ing
Ġextend ing
V E
ĠGu ide
Ġad ditive
Ġrequ iring
Ġ( _
se lection
th ese
ĠC C
al go
Ġp il
) )$,
Ġobserv ing
Ġabsolute ly
Ġjour ney
diag onal
AN G
ĠW rite
m r
ard ing
r vert
AR N
ĠS imilar
Ġdocument ation
Ġprom ising
Sc roll
ĠLi ke
ĠSoft ware
A gent
lo ader
um ann
ĠI r
Ġattem pts
assert Equals
idel ity
id ential
[ ]{
pend icular
Do main
Ġfac ilities
}, $
ar di
ĠM O
Ġbu ilder
ex ec
Ġfla v
scri be
r ceil
Ġr ings
Ġarti sts
h ot
Ġint en
Ġ[ ],
w d
}$ &
Ġmarket ing
al gebras
T L
Ġm el
Ġval uable
Ġr g
Ġpro min
po le
by tes
Ġe ase
E mail
ĠJ ew
In f
pro vider
Ġread ers
ĠF R
l ceil
d dot
TE XT
or i
Ġpreser ve
pre v
R est
ok ed
ĠOther wise
olog ically
d etail
Ġpay ment
). $
ract or
{- }
ĠJohn son
vious ly
Ġme ant
d ig
Ġexpand ing
Ġext inction
ĠComm un
ma ch
ĠB lue
Ġfla gs
Ġmark ets
Pos ted
des ign
Ġsqu ared
Ġw est
Ġpar am
Ġp sych
Rou te
P F
Ġengine ering
is er
Ġcharacter ize
gra d
Ġmer ge
B N
sh ared
loy ment
Ġsh ifted
Ġmotiv ated
ĠR ic
Ø ±
Ġp ed
ma ven
com mu
ĠEn ter
p us
Ġasymm etry
Ġch art
ĠK ore
Ġn m
ob serv
Ġsh or
Ver tex
Ġro les
b lank
Ġare n
Ġdemonstra tes
Ġsimp ler
Ġc ra
\% ,
Ġsimpl est
........ ........
P ER
Con clusions
ĠP ut
Ġsupp osed
um my
ĠChrist mas
Ġc ities
G aussian
ĠR ay
ĠM artin
vel ocity
LE CT
Ġbig ger
ĠL android
p u
er ed
Ġhe ur
ĠA tt
ĠIsl and
Ġleg is
Ġenhance ment
Eng ine
Ġc iti
Ġsummar ize
ĠG raph
al d
-------- ----
h n
Ġquanti zation
ĠK ar
Reg ister
at on
Ġconven tion
Ġg amma
Ġre write
ict or
B oth
Ġc ultural
Ġbranch ing
Ġaver aging
as sembly
Pass word
Ġma pped
d ynamics
ĠL ine
b racket
ĠE U
Ġb ug
ĠC ov
ĠRe act
ĠUni verse
ĠG reat
Ġaff ects
L ower
ri al
ub er
Ġbo y
State ment
Ġ ens
N ULL
Ġag reed
),\ \
Ġcent ers
Ġcour ses
\ @
ĠP eter
Ġprim itive
s qu
}$ ~
}}{ (
par ser
check mark
Ġimp osed
Ġassum es
ĠFran cis
Ġsp end
Ġinfer red
ro tate
Ġf r
L ear
j ango
">< !--
b os
Ġteach er
ĠWe yl
D iff
\\ [
re lations
Ġre in
Ġf old
10 6
un te
Ġcal ib
_{ |
tur bed
am ber
ĠI T
Ġs lice
ĠS ports
b eq
ĠJ ones
ura ted
ĠV AL
mission s
E SS
Ġno tic
ff ff
ĠT eV
ĠA ccess
)} }\
] }$
ĠWh ere
Ġrecon structed
10 24
dot ted
sc ore
Ġperturb ative
ig m
} '$
Ġ" <
Ġvio lation
Ġmys elf
ish er
Ġan imals
x html
j e
Ġen velope
ĠS F
Ġreser ved
Ġarm s
C red
rup ted
S en
Ġtor sion
= &
ĠS af
Ġexperi enced
Ġcris is
electr on
ni e
Ġprocess ed
Ġconsum er
Ġser ves
Ġfeel ing
10 8
Ġm ic
Ġform ally
flu x
Ġmanif est
el a
G T
e igen
Ġstra in
as hi
col Last
Ġlet ters
ext ra
Ġfe e
Ġe p
ĠPart y
ĠW ho
Ġign ored
ok es
Con ver
Ġex cluded
f eed
Ġvalid ity
) _\
ex ecute
Ġa ffor
Ġconstruct or
av ailable
Ġcomple teness
us form
Ġv ot
ĠF ood
numer usform
~~ ~
Ġrot ational
C ross
b log
if er
Ġinvari ants
^{ *}
dd en
Ġintro duces
P lease
om er
ĠD igital
ĠPro perty
K K
iffer ent
Ġsimpl ify
Ġch apter
Ġcoinc ide
ĠChi ef
i able
Ġal igned
ĠH TT
Me V
assum ption
Q U
sc atter
valid ation
period ic
g ap
) "
H L
14 4
Î ±
Ġpro x
van ced
Ġrot ating
our se
ĠIn put
ã Ģ
ec tives
f lex
new s
we ighted
Ġa id
Ġproj ections
ĠB row
orig inal
p en
Ġr u
}) ,\
ĠE ff
L java
Ġthere by
d m
Ġl ift
Ġad missible
R a
! âĢĿ
ĠM useum
Ex ec
inter pre
S k
T l
Ġco res
Ġver ification
ran ts
ad ian
Ġas sembly
Ġload ed
ser ial
Ġlog ical
Ġcont our
Ġm ental
j d
Ġmultip licity
Ġimp lications
Ġillust rates
Ġsus cepti
d or
Ġmechan ics
24 0
( (\
com put
ĠW ater
adem y
ĠC at
Ġtag s
10 3
Ġc oc
Ġcar s
CO MP
fil led
ĠB rown
element s
Ġdivis or
ĠIn teger
Ġc ivil
d ue
sp eed
> :
Ġconflic t
Ġac ademic
B el
class ical
Ġw ww
ĠF ull
fore ach
ĠPh ot
col First
und efined
fla g
Ġres istance
Ġin jective
Ġfactor ization
ama zon
Ġb ill
ĠF ind
V ideo
k ernel
_{\ {
.\ ]
Ġdes cent
en abled
que e
w orth
ĠC y
log in
Ġmut ual
ĠL ight
ern els
Ġe ast
Ġmod elling
Ġb old
( __
Ġas sets
ri an
Ġbranch es
Ġconver ted
Dis cussion
let ter
Ġcorre cted
Ġsum s
Ġ[ "
f our
Ġhum ans
Ġw ood
Ġb ott
Ġadj oint
Ġrecover ed
Ġ" ,
ĠO ld
}} ;
Ġins ights
ĠPro v
m k
ĠAssum ption
Ġc ref
res ources
+ {\
ĠWilli am
us band
ĠL ove
Ġse es
)$ )
Ġgen us
Ġevalu ating
Ġs la
Ġevery where
Line ar
b us
ac tivity
Ġreal ization
arge ted
Ġannoun ce
r uby
se en
ĠS L
um s
Ġarbitr arily
ĠAfric an
Ġreason ing
st ances
frac tion
ous tic
ĠR a
D av
Ġh air
M id
raise box
Ġda ughter
ak i
Con dition
Ġintegr ating
ear ing
ĠW estern
Ġc ategor
Ġ} (
Vari able
Ġreport ing
ĠCong ress
B i
ĠK en
em i
Ġpar k
}\, .
Ġres et
rup tion
ETH OD
us tice
Ġ ions
198 6
Ġfair ly
Ġm il
Ġon going
.\ ,\
W rapper
ĠC ore
ĠJ oe
e el
Ġ ray
le ading
A I
Ġto ler
Ġcele b
! [
ĠB ell
Ġle ak
formu la
Ġex ec
Ġincreasing ly
c li
ĠG ets
sub ject
Ġexperiment ally
Ġrema inder
vari ate
Ġtype of
ĠC oulomb
mem ory
ĠStudi es
com mit
Ġf uel
ur er
F W
xy gen
Ġsk ew
{ "
b an
Ġfor get
ch a
app endix
Ġweak er
ĠMethod s
66 66
Ġturbul ence
ĠAd am
N odes
ĠSt art
$ ~\
ĠIO Exception
ac tiv
Ġa di
Ġs ti
Ġiden tities
geq slant
Ġform ing
tic ular
Ġrecomm ended
ĠM iss
Ġpair wise
Ġpen alty
Ġsc r
Ġoutper forms
? >
Ġlongit udinal
Ġg rate
T ok
e eq
ma pping
Ġprincip les
Ġrenormal ization
Ġperfect ly
Ġmagnit udes
mon ic
)$ ;
U B
Ġs up
ration al
Ġfore cast
Ġf ol
Ġlog ger
Ġours elves
n ear
ĠA ff
Ġev ident
ĠE lectr
Com par
Ġplan ar
ĉ ĠĠ
Ġsong s
Ġqualit ative
Ġin version
UR I
Ġpreser ves
bu ilder
Ġlo se
L en
e b
oun ce
! }
Ġhypoth es
)) ^
Ġhand ling
ĠC F
ĠB iden
Ġsp ring
Ġcons iders
Ġag ency
> ::
Ġfac ility
at ers
Ġcompe titive
Ġma cro
the y
Ġsens ors
Ġtun nel
j ob
Ġdiff e
Dat abase
check ed
ĠCom mand
EC K
ver tical
w br
Ġwall s
ĠF ac
10 7
Se lected
Ġrequ ested
itect ure
? "
aut y
lic es
Ġansw ers
L ight
() </
^* _{
mo z
Ġoptim ize
iden tifier
Ġb odies
sat z
ĠÂ ©
Ġsu dden
Ġref lected
ĠVir gin
» ¿
pro gram
ere f
Me an
Ġdr ift
ĠÂ £
Re fer
Ġp ref
N a
P ublic
D s
Ġresid ents
ĠB E
Ġcontinuous ly
ail s
ups ilon
Ġapp end
ĠY es
Ġwh om
st orage
Ġapp s
Ġc oding
sh op
ĠW ood
Ġma c
Cor ollary
ent ropy
Ġexecu ted
Inter val
}} -\
eff ective
Ġregard ed
Ġin coming
con ditions
Ġco arse
f av
L arge
Ġover come
/ {
Ġconc aten
Ġdefinite ly
sc ss
ask et
ĠJ im
ï »¿
ĠLou is
Ġmicro sc
ard ed
Ġran ging
| }\
Ġfore st
S l
Ġdescri pt
tempor ary
ap t
D ue
ĠA nt
Ġvis cosity
)\ |_{
Ġw ra
< <
h h
Ġch ief
Ġfact ory
? ?
T y
Ġtw ist
Ġs in
Ġf ake
ins on
Ġin vertible
Ġcalc ulating
g re
R ole
ĠApp lication
" ],
ĠC V
ĠV an
Ġbound ing
p ur
ma sh
Ġhealth y
ol ves
}\ |\
Ġb attle
C r
Ġtr im
b ition
st atis
Ġdepend ency
col l
st ation
Ġmi tig
Ġprotocol s
j unit
ĠS ect
ĠL abor
Ġcaref ully
ĠIsra el
Ġthere in
on i
A meric
Ad min
lic ial
Ġconsist ently
11 4
Ġdis placement
Ġmeaning ful
ĠB re
9 00
ĠC auchy
Ġhom ology
Ġabund ances
ĠE M
ĠC ross
Ph oto
equ ilibrium
Ġbos ons
Ġre v
AL SE
ĠS ky
ĠT ake
hook rightarrow
Ġcon servative
the ore
ĠWith out
th le
ĠMed icine
IN FO
M ove
Ġb ridge
v y
ĠG rand
Ġfor th
Ġacknow ledge
ĠSupp ort
Ġmod al
F urther
Ġl ang
ĠH en
user name
t ar
Ġload ing
ed s
Ġin sert
Ġc tx
ĠAng eles
ĠC T
Ġdeal ing
imp lies
ĠW atch
M ask
Ġcommand s
Bas ic
Ġc ro
Ġsen ior
al la
ĠInd ust
Ġreplace ment
Ġprep are
py thon
DE BUG
tri p
Ġ' <
radi o
Ġch ose
i pher
ĠB efore
Ġmethod ology
ĠSch olar
Ġhold ing
Ġsize of
c oun
Ġguarante ed
Ġredsh ifts
ĠM P
ĠCl oud
ĠCur rent
ith metic
ĠP ay
Ġani mation
Ġapp endix
Y Y
Ġ" -
'' $
in valid
ro magnetic
Ġmis s
Ġcon figure
Ġpar agraph
Ġbreak s
ĠR O
198 5
Ġglob ally
} </
ĠV ector
Ġcur rents
aw are
n ob
Ġmass less
Ġin jection
Ġde partment
Ġread ily
Ġad vice
Ġminim izing
b n
Ġhelp ing
Ġadmin istration
Ġmod ulation
Ġreal ize
Ser vices
ĠR ights
sch eme
G ame
tific ations
Gener ated
Date Time
Ġamb igu
ke V
Ġreach ing
om p
P layer
Ġsim ulate
Ġindic ator
ĠB lo
Ġclos est
Ġl if
ĠU I
C RE
u ition
c ts
Ġun like
Ġa z
Ġsk ip
Ġar row
Ġstre et
p ull
Ġglu on
B al
l c
f ollow
et ro
=" $
hi bit
at om
ĠOr der
ad j
ĠS QL
Ġdro pped
ĠW H
}\ |_{
Ġsu it
Ġre venue
AN CE
Ġa mazing
Ġoscil lation
Ġpos ted
Ġseem ed
re view
Ġperform ances
Ġst retch
Al gorithm
cons ist
... </
Ġimp lied
ĠF ire
|\ ,
ĠPy thon
l legal
al loc
ĠN am
å Ī
multi ple
Ġinter net
ĠJ e
ĠH ttp
\, $
19 2
Ġprom ise
n als
ĠV alley
Ġs ends
Ġcre ative
Ġre actions
r n
Ġweek end
Ġ' '
Ġt x
Ġcheck ing
){ $
Ġle pton
Ġchar set
Ġ\ %
Ġan no
., ][]{
Ð ´
Ġs old
Ġestima ting
Ġissu ed
Sh ape
edd ing
Ġexpect ations
Ġpurch ase
Ġdetermin ant
Ġdesign s
S B
lac ian
Ġwar ning
J oin
over rightarrow
Ġper pendicular
Ġt a
P air
t ration
Ġcri tic
198 4
Ġar tificial
}$ \\
D em
Ġformu lated
Ġpass es
Ġtun ing
ĠA C
li brary
ĠJ un
chang es
, $$
Ġex ercise
D a
B l
Ġt uple
IT ION
Ġdeveloper s
B lack
dec ay
En ter
}$ };
du ration
bas is
Sh ort
ĠS R
Ġsuggest ing
oc o
Ġk ernels
osp it
)- (
T ri
Ĥ ¬
bur st
r ons
ĠF ort
load ing
ĠRi emannian
index Of
inten ance
Ġan ticip
. ");
. ][]{
Ġsent ences
k u
F ramework
ĠL ake
Ġstream ing
Ġ tick
ĠA SS
Ġinstruction s
CH ECK
Ġz eros
Ġmes on
ĠEx perim
ĠStud ents
W orld
g h
Ġdis abled
Ġincor rect
bel l
Ġhead ers
A ST
T ube
P refix
Ġfall s
Ġtri als
Ġk pc
s ched
b ow
Ġsub mit
Ġran king
t l
ĠC ard
Q CD
cd n
Ġdec ade
ĠSec ret
supp orted
Ġb undles
Ġn ar
ĠL anguage
Const ants
ĠCh ange
ij k
Ġphot ograph
arc sec
Ġend ed
ĠI den
Pro gram
Ġviol ence
Ġadvan tages
Ġde part
Ġs and
') );
Ġpossi bilities
Ġrece ives
o ma
od ge
ĠC learly
Ġmorph isms
CT YPE
par ty
L anguage
Ġincre di
s lice
Ġpar ser
Ġsu c
fit ting
e u
D uring
le ton
aw n
Imp ort
br and
Ġconsider ations
ĠB orel
Ġv ast
w an
Ġpol es
T or
id ay
sing ular
Ġd ots
or ough
ĠC a
Iden tifier
Ġpe ace
re cted
Ġwindow s
pr ise
od ic
th row
Ġs aved
small matrix
s ure
D ay
ĠĠĠĠĠĠĠĠ ĠĠĊ
ĠPlan ck
prec ated
ĠA lice
Ġt sd
ol s
At tr
Text ure
res olved
ĠRes p
om eter
ĠHe ad
Ġfrag ment
Vis ible
Ġput ting
B er
Ġun able
b rief
r k
Ġwe ap
re ce
Ġc ash
ic ing
G reen
en sively
Ġoper ate
Pro gress
ata ble
la red
Ġenc ode
ma king
ĠS FR
In teg
or ous
Ġuniqu eness
G F
Ġsci enti
da ble
o T
S kip
f on
Ġiter ative
Ġf ear
Ġcheck s
" ].
al ian
ĠThe ore
Perm ission
Ġultimate ly
ti st
ran ce
ĠK n
Ġutil ize
Ġar rows
Ġinteg rable
\ ).
ath an
Ġin frared
Ġnucle us
u id
Pro duct
ba tim
A udio
ach el
J ust
Ġp al
ĠOn line
Ġinter fer
Ġsuc ceed
spring framework
Ġadap tation
Ġdis plays
Ġpur su
Ġpublic ation
j ack
Ġp ot
Ġa de
t uple
Ġcaref ul
A X
Ġland scape
F ORM
p lots
ĠM u
Ġv ice
i ro
Ġco variant
Ġmach ines
Ġwh atever
Ġmur der
sv g
Ġgeneral ize
Ġgreat ly
yp t
. âĢĻ
Ġmed i
el ly
Ġappro ved
app ed
Ġpar titions
Ġfi la
ĠD NA
ti zed
ps on
ĠO S
ol or
Ġcompan ion
Ġreg istration
An alysis
). \
n ecess
del ay
Ġdwar f
ĠD B
ĠÐ ²
DO CTYPE
Ġcook ies
d h
spectr um
e ved
)}\ \
Ġdissip ation
. ",
er ved
ĠD ocument
ost er
Ġfocus es
Rem ark
ci ent
ĠRequ est
Ġco ach
zh ang
Ġs tem
R F
Ġprov ision
Ġcontr ary
it ar
ĠRef s
W I
cal endar
}-- \
}: \
Ġch urch
Ġexplo it
B atch
ĠO N
}: =\
as ts
Ġneur ons
Ġpost s
ic ts
con trib
n ative
| $.
v p
Ġb ases
DE FAULT
Ġexcit ations
is a
Ġh ers
down load
$\ %
Ġmo tions
Ġphot ometry
ĠV ideo
S ched
Ġli b
1 19
EE EE
L imit
Ġco herence
f ollowing
ut ations
Ġa xi
C a
Ġscen es
al and
rep resent
Ġwould n
ĠD irect
ĠK now
* ,
Ġre ar
system s
; ">
Ġg ray
math rel
Ġsto res
print ln
Collection s
}) }{\
ĠM as
17 0
Ġf ault
Ġall Classes
ĠP L
Ġinj ury
Ġm ovies
10 9
row th
Ġarr ival
}= -\
Ġimp ose
Ġ ly
Ġde eper
Ġbatter y
Ġb is
etr ical
ĠallClasses Link
Ġs an
onym ous
Ġd up
Ġdimension less
Ġanomal ous
Ġnull ptr
Ġsh ip
) )}
Ġir on
F ore
Ġt um
Ġab use
n ic
or ange
Ġestima tors
ĠSur vey
Ġt mp
Res ources
Over view
Ġmin ute
em s
edu led
imp ro
Ġprepar ation
R andom
ter ior
w ind
Ġf ant
inter action
ĠApp ro
Ġpo si
Ġmer ger
ol o
Ġtim ing
Ġhierarch ical
ĠC la
ĠA sia
Ġdifferenti able
Ġtext ure
h ad
ĠJ er
s amples
t m
ĠH ard
Ġm ort
Ġphys ically
ĠVal id
Ġa ges
is tr
ĠR L
ĠDir ichlet
Ġdec oding
Equ ation
scal ing
Ġstand ing
stri al
Ġg ar
Ġpres cri
ou ter
check box
ever y
> [
c ancel
ĠK im
$ ^\
, +
ilosoph y
o is
(' /
triang leq
Ġpro to
ĠJ eff
Open Tl
Ġag rees
Ġh ero
ĠR GB
Ġconn ectivity
ass andra
ap os
Ġspect roscopic
or se
Ġover head
Ġres cal
Ġhund reds
l ighted
Ð° Ð½
Ġgu y
ĠĠĠĠĠĠĠĠĠĠĠĠĠĠĠĠĠĠĠĠĠĠĠĠĠĠĠĠĠĠĠĠ Ġ
ur ies
ĠP ac
Ġacqu ired
ĠIn f
Ġocc asion
ĠArray List
ĠS ar
Ġbe at
! "
ĠJ ordan
Ġob st
Ġadap t
Con tact
E ar
ĠMark et
PO ST
ĠS ym
Ġsuper ior
B ra
Ġthermod ynamic
rep resentation
}{ .
Ġinteg rate
ĠS and
/ _
constra int
multi p
le e
Ġb ind
Ã £
Ġmod ulo
Ġconvers ation
Ġremark able
P ut
* }\
Pro b
ĠF L
ĠT oday
Ġturn ing
Child ren
az z
Ġ} _{
Ġexception al
Ġinter ests
Ġswitch ing
Ġ" ",
il ds
ĠCom b
ĠT own
Ġe a
ĠT ag
] _{\
C ard
ĠPro blem
Ġy ellow
T IME
ĠF estival
ä »
b ranch
Ġpoint ing
N V
Ã ¨
W allet
Î ¿
Ġcl ar
Ġpas sion
spectr al
A O
Ġpredic tive
Ġro tate
Ġinf ection
Ġad vent
ord ance
Ġref lects
ĠH as
ĠSe ason
ĠPol ice
mb f
S ep
Form s
tabular newline
App endix
Ġsuper vised
ri age
Ġsubgroup s
Ġcommit ted
u j
$ ]
ĠL ay
Ġmod ifications
Element s
R PC
Ġde vo
or ient
Ġs ale
^+ _
other wise
Ġtime out
Ġif f
11 3
ĠC MB
ol is
Ġy es
Ð¾Ð ²
amilton ian
Ġtw isted
Ġexcit ing
S ave
Ġindepend ence
ine q
Ġ Ñģ
semb les
ut y
ĠRi emann
ĠMex ico
' ^
Ġfilter ing
in teger
ĠH on
Ġc f
Ġauto matic
Ġsyn thesis
ĠFe b
/ "
In v
Ġgre atest
Rep ort
vis ible
ues tion
Ġanisot ropy
Ġencoura ge
M icrosoft
' ];
Ġk id
Ġrecogn ized
ĠR oman
Ġatt ractive
c la
comp ile
Ġnot ations
cur rency
ĠH o
c od
ear t
Ġbal anced
Copy right
L ie
Ġfocus ing
la bor
no align
Y es
Ġdiv ide
Ġenter ed
ĠM aster
5 000
ps frag
ĠA ri
ĠN AV
W ord
Ġ= &
ĠM en
sh ips
am ination
Ġt err
^* $.
Ġdis trict
Ġsa ke
ma ts
Frag ment
re land
,\,\ ,\,\
lim in
PRO JECT
ĠCon ference
S G
g ressive
\ ),
ira ble
4 50
Ġprob abilistic
) ]{
ĠT E
Ġprom pt
H is
comp ute
ĠWilli ams
Ġbehavi ors
ĠTh ree
Ġpreser ving
ï¼ Į
' },
Ġj Query
Ù Ĩ
Ġbelong ing
ĠHTT P
Ġturbul ent
RE Q
Ġcompar isons
Phys Rev
IF AR
samp ling
ay es
Y our
re pos
,- .
}} |
ther mal
Ġwork er
ici ans
Ġback ward
ir ds
OR Y
rep ort
MOD ULE
F OR
{ #
sign ature
ĠH E
scal ar
St ats
ex tern
L INE
Ġwatch ing
ĠL ive
Ġflexi ble
19 70
ĠAr g
lement s
ĠSD SS
Ġadv oc
De te
Ġan chor
Ġpolar ized
le in
Ġaccom mod
N amespace
on ce
ev olution
Ġincre ment
Ġdec or
Ġlat ency
Ġ era
ĠA ut
W ang
Ġe lev
A Y
ev in
Ġ\ )
Ġsex ual
con tact
Ġinnov ation
) ->
Ġre new
* {\
A K
11 6
A ct
war ning
phys ics
Ġconsum ers
Ġsurv ival
ix el
G al
Ġdiff ers
Ġcontra dic
Ġcap ability
Ġhom es
Return s
ogene ity
sp i
ex cept
Ġtriang les
Ġreg imes
12 4
ĠM I
Ġspatial ly
ext end
g auge
Ġs ectors
i ors
ĠSystem s
l its
act ing
Ġfore ach
Ġf inger
Ġh usband
ge x
un ic
ĠSc ott
11 7
tac ts
Ġrg ba
Ġmark s
int on
ac ted
2 30
en o
Ġtransform s
U ST
B G
R P
tr as
Ġs ql
' ]['
Ġm and
,\ ;
load ed
}^ -
ĠPar is
cl one
Ġman us
ĠAc ademy
Ġd ictionary
ĠG ames
tif ying
ĠC red
be ing
Ed ge
est ingly
ĠProf essor
Ġcol le
de m
dis k
A bs
ur c
ani mation
Ġh ook
Trans form
xt ures
m ouse
Ġdeliver ed
ĠM ike
ĠN AME
Ġdiscrep ancy
Ġshe et
Ġcr iminal
Ġexam ined
Ġemphas ize
ti e
u ated
ĠE ND
ĠJapan ese
Ġleg end
Ġsk etch
Ġv en
ĠStud y
L android
ĠAm ong
thr ift
AM P
ĠCh ampion
Ġ' \
Ġli ber
Ġm ale
Ġun likely
Ã³ n
' }{
Ġpredic ts
conver gence
as ync
sp acing
run time
Ġk ill
() ))
Ġen um
12 1
ĠY ang
Ġmotiv ation
Ġdou bt
da ys
I J
Ġqu en
Ġg ates
ke ep
$ _\
Ġarg ued
- |
ĠEngine ering
ĠJ on
ĉ ĠĠĠĠĠĠĠ
Ġre ti
Ġassoci ate
Ġh a
Be an
Ġsem igroup
Ġout line
Ġdef ect
z il
Ġin direct
og ni
Ġscre ening
Ġcomp liance
In formation
ĠU l
ĠFig ures
pro c
Ġsound s
b undle
T ech
Ġconstra in
oc ia
ĠF all
Ġlo ved
D er
dat aset
Ġp c
Ġsym pt
R i
ĠO k
Ġmoder ate
ĠL uc
a verage
Ġhon est
l p
Ġade qu
æ ľ
\% .
Ġm ig
M IN
ah ler
Ġc us
ĠT w
v id
al ed
Ġa stro
Ġinitial ization
| ,
US Y
W atch
Ġasser tion
Set ting
^* $,
Ġprom ote
S equence
om o
Ġconsider able
ĠC lin
Ġw inter
Ġsto pped
h olds
ĠT ab
Ġcomp la
Requ ired
) }^{
Draw ing
Ġpro fit
Reg istry
par ticles
ĠAd S
ĠDes cription
ĠM aterial
ĠSt ream
Pro ps
d ers
f und
ĠC M
pro xy
Ġcor ollary
m icro
ĠG alaxy
ict ory
\ `
prop ag
Ġbroad cast
) }}{
nd ef
ĠAt lan
ĠT re
omes tic
Ġg aps
ĠP ack
ĠDes pite
ĠF ederal
iv idual
Op tim
if def
Ġconstruct ing
Ġacqu isition
s burg
lim ited
198 3
ĠDan iel
Ġact or
INT ER
Ġf ellow
^* )
Ġsearch es
Ġ rm
Ġ@ "
ro ute
Ġpre liminary
bal ance
ĠB ow
ĠCor por
P ower
Com m
Ġar ithmetic
A W
ĠP i
He aders
r at
End point
}{ -
o cal
L I
g z
tis m
Ġan notation
Ġpromin ent
y ou
ent ral
New s
ĠSt ra
Ġh its
( @
Ġv ir
ĠB R
Ġend ing
alk er
ĠP ers
con c
ed i
Ġcont raction
Ġprior i
Ġselect ing
it age
Ġpar abolic
Ġpatch es
Ġplan ts
ynam ical
Ġris ks
. <
2 10
ĠD ar
j u
ater al
Ġan imal
Ġrec ording
ĠTra ining
ĠMid dle
p ing
Â °
Ġteach ing
Ġo xygen
gu ide
F ocus
ĠInst agram
C enter
i mag
im eter
Ġaut omorphism
depend ence
Ġn p
re lease
Ġexp osed
rela tivistic
}} %
ĠL ow
p resent
Ġremo val
Ġb ow
ĠG ar
orem entioned
ĠB on
Ġsubstantial ly
log o
im od
sc ious
ĠCom put
Ġec centric
Ani mation
W H
ti a
D etail
L ag
00 3
Ġwire less
ĠG Hz
Ġcont ours
Ġstrug g
ĠH u
)\ ;
ma jor
hel per
Ġjud ge
Ġmon omial
Ġatmos pheric
? }
Ġsto pping
F LA
Ġcr ime
c ence
Ġbring ing
typ edef
ma c
Ġ& -
Ã£ o
w hat
ĠPol i
Ġf illing
C er
L D
R ate
}=\ {
Ġbary on
B a
Ġw ider
k top
Ġso ph
Ġra in
mer ge
Ġpre v
coup ling
nu cle
Ġint ui
cm id
she et
ĠP ak
ars ity
Ġindu strial
os a
Ġsp iral
_+ $
Cl oud
rosc opy
Ġpla in
Ġke eps
Ġm ess
v it
ID TH
ĠD NN
^+ (
Ġinfinite ly
en ger
ion e
ĠE val
Ġav ailability
ĠAmeric ans
t v
ĠA rab
Al low
Ġshe af
Ġsp ont
ost on
M ouse
op ts
ro ke
ĠN P
Ġneg lect
cmid rule
æ ĸ
Ï Ħ
ĠS ED
fe atures
ĠDiv ision
ad joint
Sp an
ĠCE LL
Ġ{ "
as tern
Ġnon negative
D b
oper ative
or b
Pr im
act ory
Ġdamp ing
Ġu i
fer red
EEEE FF
per formance
Ġguid ance
ĠJose ph
12 2
EN SE
Ġbur st
eg o
list ing
Ġyou th
F UN
integ ral
Y ear
Ġconduc tivity
do es
}} }(
Ġsch eduled
dat abase
Ġin duce
ques tion
AT ED
LO CK
Comp at
Ġinitial ize
oun ced
I AL
Ġh aven
Ġvari ed
ĠL P
Ġcon served
ress ing
Ġstructure d
incip al
ĠR F
ĠPhys ics
De legate
ad i
Ġti dal
D G
g as
Ġ tic
ign er
ud ge
A SE
Ġpropag ator
ens ing
vi o
Ġs now
]{ $
Ġevolution ary
lo v
Ġfe els
RE D
Ġmaxim ize
Ġfrac tions
Ġmagne tization
t bl
Ġh abit
j p
ak ed
OM E
n od
Ġ$ ^
if urc
b inding
vis or
Ġex clusive
Ġgain s
O O
ex it
exp ansion
Ġin comp
Ġrec ip
cont ents
ĠF our
| ^{\
Ġin telligence
du ate
Ġneg lected
ex pr
in ations
ĠCh ang
Ġion ization
AR D
Us ers
w art
Ġkine matic
ir s
198 2
Ġbre ath
Ġhers elf
Ġrela te
ut s
Ġcum ulative
)} +
cri pts
Ġinvest ors
order ed
}^{ -\
Ġ\ ,\,
Ġful fill
Ġs oci
Ġaf orementioned
ĠOr iginal
Ar ch
iv ially
Lo op
Ġas set
Ġwe alth
Ġemission s
med ium
g ate
Ġreson ant
im uth
ĠI d
pix el
g ot
ĠPh il
Ġst at
over ning
r ical
] ,\
Ġinstitu tions
on to
With out
Wh ite
S imilar
ĠA B
sem i
M ich
. (
cre ated
Ġt ensors
TR UE
Ġemer ging
Cal c
s ync
uck y
Li ke
H istory
Oper ator
Ġpl ugin
ĠNAV BAR
c atch
&& &&
Ġcur sor
Ġopp osed
Ġca ught
Ġas king
face book
Ġ urban
Ġ{ (
RE G
Ġminim ization
' _{\
ĠF re
ĠW IT
12 6
11 8
Ġplan ned
ul se
. ]
ĠL ord
ra ud
14 5
Ġd raft
Ġ rom
Ġbelie ved
to gether
s eg
ĠAnd rew
ĠRich ard
Ġn ur
Ġpreser ved
ĠVirgin ia
Ġc asc
ĠM atch
ĠF ro
Ġwavelength s
} ''
av y
F n
Ġcounter part
Ġemer gency
' })
n or
p k
Ġcancel lation
Ġexp ort
ĠUn it
I gn
P ers
Ġsepar able
con struct
}\ {
Ġs ke
ĠH ubble
De ep
ĠR andom
the ast
ass ign
Ġutil ized
Ġheav ily
G W
ĠFor ce
ĠV i
Ġan c
b inary
Ġquan tify
t ouch
Ġpr on
Ġtransi ent
Ġnav bar
ĠL STM
Ġm s
gg reg
min imum
c lock
ch ro
var sigma
En vironment
L em
Ġannihi lation
% .
Ġteles cope
Ġsee king
ut ch
Ġexecu tive
Â ©
Ġo mit
Ġsure ly
Lo ok
o tic
Ġdraw ing
sq cup
U ri
est yle
ou red
Ġen umer
ed ges
Ġmat ters
prob ability
tz mann
r ules
âĢĻ ,
om m
in verse
Ġnucle on
V V
Ġreson ances
W ell
NavBar Font
Ġread only
St andard
Ġmob ility
w i
ĠRes ponse
PH P
pro duction
L eg
ogni tive
ob tained
Ġcombin atorial
{ -\
Ġin er
ĠZe aland
ĠW rit
f li
Ġfe at
B ind
ĠO C
Ġdro ps
G ui
\% )
Ġspeak er
, '
or ters
high light
Ġins urance
Ġ" $
Ġbas elines
label s
u ous
ĠV irtual
. }.
Ġcyl ind
Ġcr ash
)} +\
Ġauto ma
Ġ( +
ĠB rand
ab ling
Ġa u
Ġre tail
ĠCont ent
Ġparamet ric
l Vert
ĠPh oto
Ġax es
ph rase
Ġther apy
3 20
ch art
A li
Ġint ra
Ġpublic ly
ĠB esides
CO MM
Ġ ];
ĠCon f
or ial
st retch
ĠAustral ian
Ġkn ot
man y
Ġto m
Ġbin aries
ĠRad io
dis cussion
yn man
15 2
ĠL ab
u its
on ically
IM PORT
ĠW ild
ĠBan ach
Ġspecific ation
ir k
ĠCov id
ĠCh em
ĠCh apter
ro ad
ĉĉĉĉ Ċ
Ġtr uck
B ottom
res olve
ĠTh ose
ĠW i
T I
Ġim per
War ning
AR CH
ex istence
00 4
Ġgu ys
A ug
Ġpack ages
ĠT ree
Ġbro ther
p n
Ġsur jective
ĠT al
ĠSp anish
Ġup coming
Ġac id
us ive
Ġfor cing
Ġassert That
ĠI tem
Ġax ial
="../../../../../../ ../
ik ip
ino is
ĠÐ ½
g lyph
Ġwas te
Ġperm an
Ġis land
ĠC ost
Ġnotic ed
Ġvari eties
F inal
Ġtrac es
Ġseman tics
%% %%
ĠB C
Ġgraph ene
Ġ& =\
Ġa ds
Ġconsider ably
Ġregion al
ĠF ROM
kw args
Ġt on
ĠB ox
ĠDo es
ĠN ight
EL D
Ġsole ly
Ġremark s
up les
ĠN C
, ...
Ġplan es
ĠAN Y
Ġcommit ment
L iter
Ġdist ortion
Ġcyl inder
ĠRes Net
cl ing
Ġcommun ications
. \,
ĠH om
Ġtheore ms
ĠAl tern
own er
Ġlat tices
RE E
lic ense
)$ :
c C
ĠW in
Ġidentif ier
am ps
Ġb ubble
UN D
it an
fer m
Ġf at
ĠCan adian
T X
Ġexplo sion
Ġd ict
Ġt argeted
Re view
qu et
Ġcomplex es
con sole
Ġres ulted
am el
Ġop ts
Ġwrite s
Ġoccur rence
}) \\
Ġ( @
m g
b v
Ġincorpor ate
Ġ+ (
Ġmag n
i y
pr im
Ġsol ver
Ġeven ing
ater n
ord on
(' .
Ġsum mation
iden tity
), $
ĠLe ft
Ġprovid ers
d on
Ġred und
Ġal pha
Ġs addle
Ġdec oup
000 1
er ving
k ar
Ġen v
Ġsat uration
Ġcon sequently
Ġcomp ris
I ds
un a
ĠI reland
ĠG ib
av g
tr al
pp ings
ĠMin istry
ĉ ĠĠĠĠĠ
Ġra ys
Ġanaly tically
di e
Ġat tributed
as m
Ch ain
# {
AS H
getElement ById
Ġoffic er
Ġciti zens
un ov
Mem bers
lect or
arg ed
19 0
Ġinitial ized
ge o
=\ ,
time out
Ġwill ing
Ġcomp lementary
s ocket
ĠIn teg
Ġh ex
DE F
Ġev olve
ĠC laim
ĠM is
17 5
Ġg irls
> "
l um
ul um
Const ant
Sh ould
ly wood
ĠF oot
approxi mation
In tern
inc ar
Ġcons ensus
ĠF O
Ġsp acing
D rop
ĠRes ult
ĠGe org
Acknow ledgements
Ġle ver
prec ision
Ġrecogn ize
pre p
HT TP
col sep
Ġun changed
Ġfilter ed
id ents
Ġcolla ps
Ġvol unte
Ġpul ses
ĠP ri
z ip
Ġnorm ally
Ġasymm etric
^ -\
til es
ĠL com
Ġcorre l
us ual
]{ @{}
Ġan satz
tempor al
. }}
ĠĠĠĠĠĠĠĠĠĠĠĠĠĠĠĠĠĠĠĠĠĠĠĠĠĠĠĠĠĠĠĠ ĠĠĠĠĠĠĠĠĠĠĠĠĠĠĠ
)\, ,
iss ues
}{ (\
tis tics
tikz cd
ul atory
Ġsupp ression
ĠT y
ĠA rea
Ġstrength s
Vol ume
hold ers
br aries
ĠT i
13 6
Ġ( {
D om
I Z
ikip edia
h is
Ġsp ending
ĠSt an
ĠR en
Ġc le
st ab
ag ers
Ġpartners hip
ĠM ont
Ġm igration
al p
ĠASS ERT
Ġtra ding
on ormal
Ġsimp licial
Pro v
Ġdef ects
ĠJack son
Ġdanger ous
Ġrep ository
end ent
ĠSh ould
V A
Ġman ual
{- .
get Value
ces sion
ĠStud ent
m orph
Ġcontribu tes
âĢĻ .
: @"
Ġshoot ing
ĠOb ama
la beled
ĠH ospital
Ġcomputation ally
li bs
Dec l
Ġh ospit
be an
van ishing
arg uments
re pre
C lear
Ġdist urb
| <
Ġhear ing
sign al
big cap
sh al
refer red
typ ename
Ġst yles
Ġlimit ation
Ġstatis tically
ĠStr ucture
Ġwal king
Ġman ually
app ing
. -
riter ia
US ER
ĠThe ory
;\;\ ;\;\
Ġmolec ule
gener ic
ĠD ark
Ġlist ener
Ġsub sequently
Ġreg ret
ĠY et
Ġanalog ue
ch ester
Ġuni versity
No tification
ob served
Ġanisot ropic
ĠYou Tube
P UT
ĠJ ustice
Ã ¢
Ġrele vance
r v
Ġcaus ing
Ġprogram me
Ġst orm
er en
ĠW ord
Ġpr ison
te t
Ġadj usted
B inary
associ ated
rack ets
multi put
ĠCom mon
Ġfif th
ĠB la
li u
at z
ab in
Ġvol umes
lic a
Ġed it
no thing
ĠIt aly
cur sor
si bly
uk awa
198 1
Ġprefer ence
ick s
Ġen rich
Event Listener
ent a
VAL ID
Ø ¯
Down load
Ġ ...,
ĠĠĠĠ ĉ
)^{ -\
structure s
T i
M ach
rac tions
Ġhund red
Di agnos
Ġreturn ing
ĠS ets
Ġed ition
u ble
: `
( |\
Str uct
Ġsearch ing
Ġsucc es
ust ration
h ab
link s
Ġcircum stances
fact ory
M r
New ton
Ġmod ulus
ĠC li
Ġn ested
op tional
iv ile
the ir
P DF
å ħ
55 5
ab stract
Ġmis sed
Ġfluct uation
App ro
Comb ining
å ®
L Y
O ST
r Vert
h ou
trans action
Ġrespon sibility
Ġanaly zing
cf g
Valid ation
Ġb eta
ĠG P
m ond
Comple te
Ġpro ud
rm k
ul ties
Ġen em
Depend ency
N ET
22 5
W W
T aking
t re
Ġc md
Ġround s
linec ite
ĠS mall
S pr
ĠI ran
Ġgrate ful
× ķ
Ġop ens
Ġoscill ator
Ġth orough
Ġm ild
Ġcapt ures
ĠA wards
con structor
I ll
ur ities
Ġhous ing
ik es
g oto
ĠA z
Ġcent r
ĠC oll
k pc
al most
ĠTh anks
Ġsing let
is ations
ti ous
Valid ator
Ġnav ig
ĠSt ory
math ring
vo ke
dis crete
ĠM ah
ll ll
en ario
Ġor ange
En v
v b
å Ĳ
ĠE g
audi o
Ġac oustic
ian o
Ġdes tr
ĠM R
Ġtra p
ste ps
Ġo x
)\ )
V C
ann a
omin ator
Ġwel come
^{- (
l int
Ġsyn thes
ss on
W ait
add ed
ĠS us
Ġass ist
Ġaug mentation
P res
Ġstr ange
ĠM ari
IN ST
Ġdevo ted
Ġdeg rad
v let
p aren
Ġd ry
ĠE P
har monic
og n
Ġpe er
Or ig
Ġgra de
Ġpoli tics
Ġde but
igh test
Ġpre d
lim sup
ole v
Ġc ube
ir ms
ĠMa the
B ounds
Ġm d
OC K
Ġfermion ic
ĠUn fortunately
str ings
onom ous
Ġv on
)= -
Ġmonot onic
Ġser vers
Ġvo la
Fla g
Pr ivate
Ġmanus cript
forma tive
repre ne
S elf
gener ate
S creen
ĠPr ivacy
ĠNAS A
sch ild
al o
Ġelimin ate
SS L
ĠG ro
ç Ķ
Ġ[ (
tim eline
el li
mathb in
Ġm illions
Ġs ac
p seud
il de
ĠL im
ĠPub lished
] =\
ĠB rit
t os
Ġsh rink
\ ;\
s z
ĠSI ZE
d g
Ġm ouse
Ġsub spaces
Ġstri p
ced ure
Ag ain
H u
nes ota
Ġass istance
Ġhead s
Ġj unction
Ġto ugh
Ġ$( {\
Ġhealth care
Ġlabel led
Ġcar ds
roll ers
Ġcrow d
Ġsub mitted
H o
qu anti
| +
on linecite
100 00
ĠSch r
B Y
B ERT
dec re
irc raft
Ġdis p
Ġlens ing
vi ation
ab ul
Ġfil tration
Ġj s
Ġout lined
Ġtimes cale
Ġs ink
Ġown ers
0 10
Ġs b
ĠSc ot
ep ler
Ġgre y
> '
u ate
od s
Ġbuild ings
qu bit
ĠÐ ¸
L u
Ġ lying
ĠOption al
f v
Ġch ampion
Ġdegener acy
ĠIn vest
V D
Ġparticip ate
Ġsc roll
j b
di amond
ti ble
Ġo mitted
Ġstream s
Comp iler
f lush
(" /
ĠMan ager
F G
Ġhigh lighted
ĠLap lacian
n at
Ġb io
Ġremo ves
Ġjus tice
}) +\
Ġro of
ĉĉ čĊ
Ġoper ational
Ġfacilit ate
Des pite
po si
Ġd om
ink owski
Ġaggreg ation
ch ing
Ġaggreg ate
Ġf ly
)} -
Ġti p
Ġbas ically
amer as
Ġcor onavirus
con clusion
ĠC G
en te
ĠC lient
select or
AR R
Ġtri angular
uc ts
r h
ĠRe ference
Ġ$ +
cept or
Ġg alactic
ĠC ath
side bar
Ġsub tle
qu ar
with in
N orm
Ġdrug s
ĠChild ren
Ch en
H I
bi ased
nav igation
{ +
ĠD oc
S ql
ĠM eta
Ġfix ing
Ġste ep
Ġnorm s
ĠL ittle
ĠJ es
P ress
Ġdistingu ished
Ġillust ration
Ġal ert
K M
Ġre ject
om ics
Ġrecon struct
Ġacc ordance
deg enerate
pm od
Ġmus ical
Ġtrunc ated
Ġrout ine
G ood
Ġpack ets
ĠS imple
vi ve
}$. }
ver batim
Ġdiscre tization
S an
k ers
pla in
limin aries
ĠH R
Ġexp onents
Ġcol ored
E G
Sp lit
ti se
ĠG C
D ictionary
ĠT aking
St op
File Name
ti li
mer ce
ĠCh ern
Ġmer ely
Ġst ations
ap is
Ġtrans mitted
Ġinher it
Ġat ten
T yp
Ġmembers hip
ĠEd itor
ĠB Y
op es
re ason
16 5
ĠB ul
ĠT a
trans fer
IC ENSE
etr ically
w riter
qu al
ĠI mm
Ġhad ron
B egin
Ġ ">
VAL UE
DE s
L at
Ġachiev ing
si zed
- }
mu st
ĠĠĠĠĠĠĠĠĠĠĠĠĠĠĠĠĠĠĠĠĠĠĠĠĠĠĠĠĠĠĠĠ ĠĠ
Ġun expected
Ġsympt oms
ĠN iger
ĠSt atus
Ġch air
ĠFil m
Ġlist ening
s is
constra ined
ĠDen ote
Ġlabor atory
V I
ĠOut put
W rit
ĠT er
Th ree
)\ |
Ġ$ %
We ight
H a
s ent
Ġsc ored
Ġaccept ance
Ġcardinal ity
Ġimag ine
F D
Ġhost s
Ġport folio
An aly
sh own
Ġ< -
30 4
bo ost
F uture
Pol y
Ġbos onic
SE LECT
ĠMich igan
ĠAn aly
sub mit
mod es
at tention
gra ded
_* $
Ġrestaur ant
Ġg overning
Ġmultiplic ative
Î µ
est ing
Ġguid elines
p ref
E nergy
Ġwe ar
N U
in tel
C learly
ĠC irc
Iden tity
eck er
qu asi
Con sumer
0 15
ĠP rem
ĠChar les
L ow
Ġauthor ity
Ġdri vers
ff ee
Ġhighlight s
Ġbi ological
Ġinstr uments
Ġcamp us
cas ts
Ġpreced ing
ĠCal c
Ġemit ted
; )
cor rect
ĠCo q
C LASS
ne ed
Ġcor ners
Ġser ving
Ġent ering
ĠWhe ther
ph ab
)}{ (
y o
Ġcomp iler
Ġre written
=\ !
ub s
12 9
LO C
s phere
Ġqu iet
Ġdown stream
Ġthrough put
p red
T ex
res on
Ġde als
re ma
Ġsta ke
ĠP T
-\ !
O wn
Ġhal os
dest roy
Ġh ide
valid ate
Ġgra in
pos able
Ġtrans it
Ġn ega
Ġcorpor ate
st ery
13 4
Ġuni vers
Ġrema ined
H er
{ }{
Ġwin ner
tun ing
ĠR V
3 000
O h
le xi
AT CH
pre vious
ĠLe vel
ĠÂ ·
Ġhypothes es
j our
Ġ' ';
Ġpl enty
Ġjo ining
perturb ative
resh olds
) &=
ĠN LO
19 79
su fficient
aw ay
Ġoccur ring
_* \
Str ucture
ob olev
i math
r int
Ġ\ "
Ġsur gery
Ġad ults
BP ACK
ĠF inal
su cc
Ġfunction ality
Ġsurpr ise
ĠN atural
O k
ID E
SC RIPT
D IS
Ġpay load
Ġvis ibility
Ġf ell
ĠBro ok
ĠRoy al
Ġm ph
column s
$ ^{+
Ġt ube
Ġf ro
Me asure
Ġvis ited
Ġcontext s
con e
link ed
ear ance
ul f
ĠP U
Nav igation
y si
14 3
Ġcomm ission
}}{ {\
ĠFin ancial
Ġhar m
Ġmonot one
enc il
UT H
duc er
}} ]
ON G
ĠAL IGN
w al
ĠT urn
Ġsol ves
Ġmag ic
off s
Ġin set
Ġmu on
) <\
Ġneighbor ing
Ġcommit tee
Ġs i
ĠReg ister
d B
nov a
Ġadi abatic
Ġw a
}} [
m essages
Ġoffic ers
M aterial
S K
im m
Ġapproxi ma
M aster
ĠNe umann
ĠC ell
ĠDis ney
Ġv ictory
Ġrecommend ation
P latform
T ake
ud it
Ġdifferent ly
Ph ase
art an
Ġa st
ĠRem ove
C ancel
Serial izer
co ok
ĠN eed
Ġle verage
Ġst ats
Ġp ictures
ential ly
ĠMod els
Ġex clude
T eV
ĠĠĠĠĠĠĠĠĠĠĠĠĠĠĠĠĠĠĠĠĠĠĠĠĠĠĠĠĠĠĠĠ ĠĠĠĠĠ
rr rr
Ġs av
/ {\
con struction
Ġref inement
}: =
ĠM N
ĠĠĠĠ čĊ
ĠSen ate
Ġel ig
\ #
s ight
} <\
Ġjoint ly
ĠPa per
Ġcon cludes
Ġf oo
Ġspan ning
M or
ĠD etails
em on
13 2
Ġfl ash
Ġlet ting
× Ļ
ef ault
it ting
Ġcompu tes
ĠIn tel
Ġanalog y
em ic
ĠPer formance
An notation
Ex ecution
Ġcounter parts
equival ent
cho ice
Ġt iny
Ðµ ÑĢ
Ġflexi bility
c ategories
Ġfav our
j j
Ġthought s
v able
ge om
Ġblock chain
Ġtr ig
ĠIt alian
rob ust
N ative
Z ero
Ġpl astic
Pro blem
ĠBrow nian
am ount
Ġpl ug
Ġsh allow
Ġr ising
is Empty
qu is
ĠAug sburg
Ġ$( -
Ġext ensively
Fi xture
ĠH or
Ġtransfer red
ĠI mages
}}( {\
ĠF A
F B
Ù ħ
rt l
Ġt error
Ġar rays
Ġyield ing
W ill
Ġsmooth ing
gra dle
Ġmas ks
Ġacknowled ges
Ġsp ons
Ġco ast
dis able
Ġle x
Pro to
Ġcele bra
Inst all
im ity
ian a
P B
Ġgrow n
ĠAdmin istration
C oun
Ġdiff use
Ġquad rup
S ame
n orth
U pper
And roid
NS String
in finite
Ġbu f
o z
Ġinter faces
ri e
C ast
or ption
as ympto
comb ination
Î ¹
=\ "
Te X
)= -\
st ers
ian ts
Ġin n
be am
sh ots
b h
b is
Doc trine
v ary
D river
m v
Ġmicrosc opic
ge ometric
Ġrecommend ations
il ly
os er
ma cro
il st
n r
ĠOp tim
sec ts
im ent
display Name
Y M
po inter
Ġteach ers
graph s
ĠSpr ing
pre ceq
Ġsustain able
Ġle pt
te am
Ob jects
Ġaz imuth
Ġb rane
cre d
Ġdis patch
oth ing
Ġwal ks
ong o
Ġbackground s
ide al
/ $
ric tion
me as
d w
Ġlo ts
ul sion
Ġshor test
CD M
k r
}) _{\
15 5
m iss
Ġmaintain ing
ĠCarol ina
Ġg enu
Ġhard er
ĠA sh
pp ers
ys h
is enberg
D U
}^* $
ble ms
Exp and
W ho
Ġw ins
Ġclassif y
Con structor
Ġh un
la h
Ġpro ps
Ġcar ries
D id
Ġh otel
Ġreli ability
t ow
ap ore
b ranes
ĠS S
Ġab st
end a
Ġcarry ing
b ling
commu tative
tili ties
Ġimp acts
ĠF air
Ġgra ins
m ut
od a
Ġpen al
ĠS Ne
Ġfac ing
ĠM ock
Ġpar ton
){ $\
Experim ental
p ted
ar ound
Ġemo tional
Ġsign atures
Ġthread s
Ġdecre ased
at tach
Ġdeb ate
Ġv oting
Ġappro val
head ing
gener ator
] ))
hi o
(" #
ile vel
Ġselect or
Ġh all
)\, .
Ġeigen vectors
Ġdef end
0 25
ĠE W
Ġquad r
C ONT
Ġel if
Ġcondens ate
Ġdomin ates
Ġpermission s
Numer ical
n ger
os ystem
v r
Ġtal ent
ĠS till
ss ec
24 5
par k
R aw
Se par
Ġc ere
Ġhad ronic
Ġfall ing
2 60
Ġmem brane
Ġobj ectives
ĠC I
Rem ote
Ġknow ing
Ġneighbour hood
vari ables
! (
ĠC os
Ax is
n an
tab les
H A
tr uth
sp ot
he im
Ġide als
m cited
mcited efault
Ġalong side
ORD ER
Â ®
}) ]
ĠCon text
ĠFrancis co
D rag
)+ (
Ġl ived
per ture
min imal
Vis ual
j an
ĠB ad
App end
Ġmon op
ow ed
Ġb racket
p al
Ġmin ing
pe ak
s ources
th ew
Ġretri eval
p ages
Ġint ent
c A
Ġend points
Ġcomp ac
Ġb ifurc
Ġbi partite
Ġaddition ally
Ġfa int
Ġexplor ing
Ġg ro
SS M
c M
Th row
S egment
igh th
Ġwidth s
Ġd ance
can onical
Ġmanufact uring
13 7
Ġfore ground
Ġco al
back s
ĠTh om
En umer
PAR AM
ĠC u
id ity
pol ynomial
Pre v
Ġdescri ptions
m ms
ĠM obile
Ġimplement ing
enn y
ĠP rac
\, (
ĠA U
Ġtriple t
Ġbij ection
Ù Ħ
yn chron
Ġcomp atibility
Ġrelig ious
So ft
Un known
Ġsuperconduct ing
Ġmon o
Ġresidual s
Ex amples
ĠF W
% "
(\ {
ss l
second ary
r ats
ur ious
break ing
Ġcon g
D ATA
per m
ic ator
ĠCar tesian
/ ">
Process or
Ġf ruit
ams ung
d river
ĠD ub
ĠD ouble
Ġdele ted
3 30
Ġexceed s
Ġ$( '
ĠC ook
Ġorth onormal
Ġsens ing
h ence
45 6
Ġfund ed
e ah
amp lit
re cur
Ġspect roscopy
in ated
Ġaug mented
ĠCh air
Ġg ram
Ġput s
O pt
Ġapparent ly
O w
S ci
Ġeigen states
Ġsched uling
Ġaccep table
for Each
Ġsk ill
XX XX
i pping
H F
Ġd ates
ĠB ang
T rac
R us
Ġval ued
ĠN L
tif acts
to c
Ġelse where
Ġarr ived
Ġ} ^{
Ġslow er
ĠV ictor
| &
ĠSer ver
\ &
Ġgene tic
re act
neigh bor
St rategy
ic an
Ġpick ed
fli x
Ä ±
14 9
it ro
Ġb ol
ĠB oston
leg end
Ġheur istic
Ġre lying
G H
book s
ĠF P
Ġdo se
cent ral
Ser ies
f ake
ili pp
fin ing
CE PT
Ġperm utations
Ð° ÑĤ
Ob serve
Ġan notations
Ġeng agement
Con sequently
Ad S
b ited
Ġconcent rated
to Be
Mod els
Ġin clusive
Group s
ĠBro ad
Ġgradu ally
Ġre vers
j ec
continu ity
asket ball
c H
ĠN i
ĠCon st
oh er
ĠDa ily
Ġsp arsity
los ure
L AS
He alth
ĠN FL
Ġm im
Ġre jected
Ġlog ging
Rec ently
paramet ric
Per formance
c O
Ġover flow
as ets
Ġyou nger
ĠLO G
D u
l iv
Ġbo otstrap
> )
z ier
ĠJ S
Ġdiffic ulties
re ach
ay a
Ġma intenance
inher it
Ġsubstitu tion
ĠĠĠĠĠĠĠĠĠĠĠĠĠĠĠĠĠĠĠĠĠĠĠĠĠĠĠĠĠĠĠĠ ĠĠĠĠ
if old
L ibrary
Ġball s
enc oding
or iented
Ġhand led
V S
Ġlo sing
ĠRepublic an
Ġdevelop ments
Ġauthor ities
ĠI llegal
ĠW all
f etch
Ġper turbed
Log in
h istory
Enc oding
Ġv eter
or di
Z hang
Ġens uring
Ġrecur sive
ub es
ud ent
necess ary
ĠR od
Ġb ilinear
if ndef
16 8
N I
ran ged
enc ode
view port
}^{ {\
Ġc up
Ġo d
Input Stream
F un
g if
Ġno tions
| $,
Ġoccup ied
}\ ]
ĠIn nov
tran sp
scal a
Ġin ver
od o
ir r
ĠEx ecutive
}) -\
S mall
bor n
ĠT ro
ĠE T
math ord
Ġscienti sts
[ [
19 77
ĠC IFAR
oh en
os is
c ue
ph an
Ġ' ./
/* !
WE BPACK
ra ce
Ġdeploy ment
Ġdis ag
Ġscatter ed
th reshold
out ing
Ġimp ressive
ile y
Ġformu late
ĠB log
ĠK E
ĠS ite
Am ount
ans as
al ert
Ġev olved
Ġd z
Ġdetect ing
ĠQu ery
Ġpre gn
Ġag encies
ĠO ly
ff ers
Ġinter ven
Ġtem plates
Ġdes irable
b lob
h our
Ġdynam ically
Ġadverti sing
v ac
H tml
Ġdisc ip
Ġvot ers
ĠPak istan
IN S
T ouch
Ġanten na
Ġsem ic
abe th
determ in
ĠJ r
Ġde bt
ĠE th
C la
u z
ĠR ou
D imension
is set
F N
ag a
ple t
Ġworld wide
$\ {
M W
Ġ" ";
Ġpredic ting
dif ference
Ġsoph istic
Ġcor pus
r in
o ved
Ġw ine
f aster
cl s
Ġin formed
Ġh ang
Ġs orted
- .
c x
Ġon set
ma de
ĠX ML
14 7
Ġcap ac
Ġla ugh
Ġtim estamp
H ave
Ġaccount ing
ĠArm y
Dep th
ta kes
mo tion
Ġconf usion
p rom
}| $
Ġqualit atively
L STM
Ġmain tained
Ġme ets
)}\ ,
st orm
tran sport
repos itory
UN T
Ġra m
** *
mak ers
[] {\
Ġbrand s
ĠS up
O ct
mid t
ĠConfig uration
Ġsession s
IMPORT ED
P V
J y
ĠAnd erson
Ġeduc ational
ĠA ge
L ef
âĢ ĭ
Ġauto mated
em pl
Ġbe auty
rec ated
Argument Exception
Ġf idelity
Ġlear ns
ul ators
cover y
ĉĉĉĉ ĉĉĉĉĉĉ
Ġle ague
ag on
ot ent
M ass
we et
bi as
. [
ĠSh ort
Ġrandom ized
Mapp er
ĠH ad
dor ff
Ġ$ _
ĠW ang
Ġch unk
}= {\
N i
Ġsp lits
Ġcut ting
() ),
Ġrel ating
Ġsw im
q a
en vironment
MO DE
K it
Ġliter al
ĠS ty
ens en
lik elihood
Ġelectr ical
Ġ} .
mat ter
Ġequ iv
Ġar ts
g lu
ĠD L
S a
ĠSte ve
m ime
Ġa apt
Ġincl ination
Ġse at
Den ote
Ġfound ation
D OM
Ġdemand s
Tim er
ĠAg ency
zon a
Ġtal ks
path s
Ġlist ing
" },
di um
:\ :\
ben ius
2 80
ĠMin nesota
m obile
Con v
direct ory
Ġdiagnos is
Ġinnov ative
c ert
Ġs napshot
Ð¾Ð »
Ġfib ers
Ġdem oc
ĠP as
ĠB and
ĠG T
ĠH ub
In struction
": "
l is
ĠAp ache
ac on
ĠAb stract
ĠS A
Ġfit ness
ad or
Ġsh op
Ġs quee
Ġreview ed
Ġmin us
ĠSch warz
Ġf oli
ues ts
qu ir
Q A
r times
ap unov
eg as
Ġf abric
ĠAcc ount
Sta tic
Ġc ameras
The me
ĠE ric
ĠF ellow
ĠPh ase
ĠBe ach
Ġsimultane ous
d dots
Ġat tor
refer ences
} &=&
Ġphon on
o ft
ask a
Ġcon cluded
Ġepis odes
Ġ ~~
ĠCon dition
Ġy ards
ĠSt ore
Ġ' .
Id x
F older
Ġacc ident
Ġhapp ening
Ġcontinu ation
P b
onom ic
Ġpuls ar
ĠP ur
set ting
ĠPro p
AC H
F rames
li j
AR S
19 78
ĠRes ources
{( -
Ġamb ient
99 9
_+ (
Ġd omestic
Ġentang led
co h
approxi mate
Ġtri es
Ġdeath s
B V
Ġimplement ations
Ġalle ged
; "
Ġf id
lip tic
| -
ĉĉ ĠĠĠ
g ar
Ġor b
Re lease
Con sole
ĠIll inois
Ġsupp ress
ph e
str ict
Ð ¿
op ing
Ġclassif iers
ff f
ĠB ru
Ġstatis tic
us r
Ġbe ams
de precated
******************************** ********************************
Ġm g
Ġre tain
20 2
13 3
Cur sor
Ch ris
ta ken
'' )
allen ge
Ġappe al
Ġcontribu ted
Ġupd ating
Ġprocess or
Ġpay ments
ĠM icro
IC ATION
C ost
ĠPac ific
ĠM W
Sp eed
ĠLap lace
au er
IO Exception
Ġout going
c assandra
vi an
ĠSp ain
sub script
40 4
Ġrob ots
STR ING
int roduction
are t
13 8
Ġauth entic
Ġingre dients
cer tain
B K
Ġtun ed
Ġf lex
g al
ĠP lace
star s
}_{ +
top ic
cor related
Ġgener ative
Ġ utter
ĠG AN
d rag
Ġsch olar
Ġsub sequence
Err ors
Ġfight ing
R G
ryp to
Ġad ult
v x
Ġwin ds
ĠR yan
Ġ_ ,
C oin
CON FIG
}) _
Ġvisual ization
ĠBra zil
S eg
Ġprefer ences
A ng
ĠC e
List en
B order
Ġf etch
v t
ab a
Res olver
Sp in
Ġemploy ing
Ġe pid
ge ometry
Ġdist inction
19 4
\ },\
Ġany where
Ġmore over
e lem
i ration
ĠF i
ä º
Not Found
' }}
ĠL ib
Ġaccom pan
Ġchar ging
Ġdist ant
nam ed
Ġnom inal
ĠT eles
Ġinvestig ations
}{* }{\
Al g
Label s
ĠA li
Liter al
Ġd ash
Ġcosm ology
Ġk ing
Ġoper ated
rop ical
d yn
ĠI ter
vis ual
ĠPar ameters
R M
el la
ĠS outhern
Ġcomp ound
raph ic
00 7
stri p
}\ !\
Ch apter
Ġp unct
el come
ann on
Ġ ig
o il
22 4
as is
Ġfeature d
Ġexp orts
new page
Al loc
Ġdescript or
Ġc au
ao tic
Ġvo cal
Ġb anks
o S
co herent
Eff ect
co hol
determ ined
Ġs ister
ĠH un
get Id
Ġre ver
Ġw x
Ġinsp ection
g c
Ġto urn
po site
st ability
Ġcontribut ing
Ġex terior
Ġob ey
Ġbro ader
}} ^{-
ĠW IDTH
Ġla b
Ġap ilevel
Americ an
Ġp our
Ġplace ment
Ġfeat uring
Ġ> >>
f rames
ĠL ic
Ġsupp lied
Ġv ent
Ġ' ',
amp ling
ĠC SS
ag ues
ĠTh ough
cl assif
Ġpil ot
ĠTheore ms
Spec ial
enc oder
et c
00 6
Ġdes ire
and o
ec raft
pg f
; |&
D ynamic
Ġvic inity
ma tical
ĠImp ort
e h
P al
th al
Ġparticip ation
Ġimplicit ly
Constra int
Ġadvers ary
Ġcopy right
ĠT yp
dot sc
de tection
ĠRe lease
Ġinter sect
Ġsuper symmetry
O W
Ġsp ots
Ġtro uble
ĠD OM
cri be
S eq
sp ired
Ġmar ried
Ġa perture
Acknow ledgments
ĠBook s
Ġstrateg ic
}= (\
Ġgran ted
Ġdomin ate
ĠBit coin
Ġf mt
ĠAdd ress
h op
ati ent
Ġgain ed
C ity
Ġthrow n
experim ents
ĠS ingle
p unct
Ġth resholds
Ġcap tion
B inding
f air
Ġbi ased
}\ }
ĠE C
an es
ĠColor ado
R GB
Ġb aby
reat ment
} ')
Ġfrequ ent
ĠM ember
oin ted
K w
Ġpro gen
Ġtele vision
u ating
Ġ\ ;\;
X iv
Ġ{ %
ĠEx per
g lob
Ġr ide
hy dro
ĠB rad
Ġretri eve
Dav id
Ġp ip
read er
ey ond
a os
high er
Ġan cient
ĠHop f
Ġmes ons
Ġb onds
}^{ [
'] );
Ġex c
aus dorff
_* (
Ġi Phone
Ġmini ma
i h
'' (
= %
T HE
Al tern
ĠI L
ĠV o
Ġgen es
set counter
exp lo
RE S
Ġ_ .
AM ES
ĠL S
anc ies
hand ed
nap shots
Ġ\ '
ĠCh annel
Ġf s
ĠR os
N ullable
re duced
M ix
Ù ĩ
Ġc b
ro matic
Ġcl im
\, $\
pre ad
ĠY ukawa
sp arse
Ġfac ulty
Ġre fined
Ġclo sing
ĠAn th
Ġpers ons
Ġs ocket
d ense
ĠP erson
Ġa str
ors hip
sim al
Sign ature
ce ived
Ġfile d
App lying
d V
ath y
Ġtra pped
Ġreason ably
Ġvilla ge
ĠKore a
enti ment
Ġun bounded
Ġti ssue
Ġtempor ary
N F
Ġcer tificate
Ġ" .
Ġwonder ful
ĠL E
tern oon
phi a
ĠRec ently
ach er
ĠKing dom
ĠC ro
Ġ\ }$.
Ġfun ctors
ĠPr ime
Ġtack le
w iki
cccc cccc
um ar
@ \
s ug
Ġvisit ors
Ġcla use
Ġpro totype
Conn ect
M G
Ġb unch
Ġsc oring
Ġen for
ĠR ow
s ided
pres erving
_{ _
11 11
ĠCred it
Ġsp anned
Ġpoly top
e ated
bra ket
ĠM E
19 76
D W
Q R
ĠB ound
j Query
f an
et ti
ĠAssum ing
Ġdoll ars
E mp
ust ain
ĠW is
}\ ;\
ĠT otal
ĠG O
itch en
p ad
ro d
Ġen abling
33 3
P lace
p et
m x
Ġcon temporary
jack son
ĠThe atre
ĠL arge
Cont ents
sh are
}{ |\
ĠLe ad
\ }^
15 3
Ġval ence
Ġinter active
e z
Ġindex ed
Ġgood s
Ġrelax ed
14 6
\| _\
N GC
Ġeng age
analy tic
ta king
m rm
s egment
li ament
ĠMc C
ĠÐ º
}} /
ol y
Ġfe es
Ġsuper symmetric
S ig
Ġcl one
Ġ( -\
Ġaware ness
Ġro utes
ĠFe ature
clus ively
Ġtr ivially
ĠPo incar
ĠI sing
Ġtrunc ation
pr ice
Ġdo ctor
comm ons
Ġown ed
Ðµ ÑĤ
I mages
Ġv ib
Ġinter vention
Res earch
Dire ction
Ph ot
s al
è ¯
Ġs s
Ġdise ases
Ġp ray
ä ½
MM ARY
L F
}_ *
s mash
max imum
ag ger
, -\
k j
G re
Ġla g
ĠST ART
C ounter
C ov
Ġoff line
illis ec
13 9
STAT US
Ġbe ar
Ġe le
res ted
rem ote
Li u
Tran sport
Ġcirc uits
16 9
Ġemploy ee
ld raw
Ġscal ars
ar on
Ġf estival
}' \
B reak
com par
ĠMe asure
Ġv oc
es cap
ĠClass es
. """
ino sities
$ }.
Ġunder go
Ġcoun table
Ġparameter ized
LE MENT
re ngth
Ġs ad
L y
Ġrem ind
T ile
gener ation
Ġmorph ology
S ite
fil ldraw
)$ \
Ġplace holder
ific ant
pot ent
ĠH ermitian
Ġsit ting
ĠP ra
p ure
Ġfre ely
In ner
ĠH ave
chro tron
ĠTr ust
) &\
Ġar cs
ri tical
20 5
$ },
.* ;
}\ }_{
Ġcollection s
S witch
Ġref resh
Ġpass age
D ist
lec ular
Ġcon fined
AV E
ĠDE FAULT
Ġre nt
ĠL iter
cor rection
Î ½
H P
me ans
p at
Ġspeed s
Ġdec line
re po
ly n
th y
mod ified
Ġaim ed
\ :
bal anced
Ġpul led
$. \\
st udy
ĠC olumn
OR K
ow a
ĠN ick
IL D
Ġabs ent
Ġdetection s
is si
Ġneg oti
al tern
ĠEcon omic
Sw ift
Ġcar rier
' |
var nothing
pro ve
T ilde
Int ro
n of
} ],
Ġsp ort
Ġcomp r
Ġimp lying
Ġcre w
Ġinstal lation
tan h
app y
og ram
Ġre wards
er ts
Ġreser vo
ro uter
eli ke
ox y
ĠEx amples
Ġaccording ly
Us age
acknow ledgments
Icon Error
ĠH art
Ġsec re
ester day
ĠSto ck
ial s
Ġcomb ines
Ġ" %
tif ies
_ );
Ġauth entication
Ġfar m
ab ases
ĠL L
m eter
m ixed
}{ @{}
par ticular
chang ing
Ġdiagnos tic
Ġfla re
Po ints
def i
ĠM B
cal ar
remark s
Ġgovern ed
ĠSe lect
Ġloc us
C md
ĠÐ ´
glyph icon
Ġpres cription
on ia
Ġextrem al
ĠP et
Ġcount y
A verage
Ġpla us
Ġbi ases
ĠC ulture
ry ing
Ġt rick
Ù Ī
M ETHOD
ir med
ular ity
Ġdec lared
Ġz oom
ĠS elf
Ġb on
Ġra il
Ġdialog ue
ĠD ifferent
rag ma
Ġsh ocks
c ot
B ad
ĠSe a
)} ;
t ol
]{ $\
ĠDe ad
Ġ& &\
() ">
we ek
Ġf older
s lo
Ġe at
Ġel abor
IconError Encoded
Ġener ge
f mt
ĠD A
Add r
ĠS everal
ĠRo om
Ġmer ging
ĠB io
iz abeth
ĠD er
Ġtra il
uu id
Ġb rackets
ĠM T
pro fit
M essages
eta ble
sup set
Ġacceler ated
Ġstudi o
ĠGR B
ĠA sian
Ġs ed
ĠCom par
ĠQu antum
es sian
ĠRec ord
ur is
Ġsh aded
18 8
Ġimportant ly
Ġcont amination
Ġb rown
who se
og y
3 75
S n
B IT
Ge ometry
v n
ĠD P
ĠE mer
conver ted
bre ve
can vas
re ll
ĠC over
Ġcontinu ing
Ġf asc
Ġh ur
A tt
x iv
Ġle m
equiv ariant
s ocial
U A
Ġec osystem
ĠSw ed
V O
ĠF a
) ^*
ĠC amb
sh a
ion ization
Ġsu ite
ĠS ize
mark s
ĠLeg end
Ġver sa
)} )$
n ice
B ool
ver ify
ĠM iller
tr insic
Ġcont racts
writ ing
Ġes tate
Test Case
ĠP SF
mu la
Ġsub algebra
Ġw ake
Ġsophistic ated
IM P
c z
14 8
class Name
FF ER
ĠRic ci
) &=&
bas eline
Ġn s
Ġattack er
SS ION
c g
AS K
sc an
c F
l f
y u
_{ *
ĠN um
bes gue
Ġh ack
mem bers
differ ential
2 15
Ġ\ ;\
Ġsum mand
Ġa ircraft
ĠM att
V ICE
ĠM inkowski
Ġ< \
Ġg lo
sen sitive
Ġsugges tions
Fail ure
Ġa ria
ra f
Ġf ed
ĠCh en
create Element
ĠSto kes
sh aped
ĠRemark s
ĠT ax
Ġregular ly
g raphics
ro tation
Ġrecur rent
c ous
)/ (
) &=\
Ob serv
Ð ·
Ġcomp ares
ĠSec tions
Dep recated
Ġli braries
Ġm outh
ĠGeorg ia
ĠAn ti
Ġch at
Ġch rom
Ġparad igm
+\ !
Ġ âĢĻ
}[ (
Ġsyn tax
ch an
ac l
ac cept
b k
ot ation
d jango
tab len
Ġdecom posed
Column s
Th anks
rec ision
Mis sing
ec ell
ĠTh ird
aren cy
00 8
u f
Spec ifically
Ġprofession als
ent ang
LO W
Ext ra
22 2
ar chive
ĠT ele
Des ign
Ġh em
ĠSing apore
Ġtunnel ing
lu a
Ġprote ins
match ing
Ġgre w
Dete ctor
ĠE lement
Ġdis able
ĠMax well
Ġs ender
Render er
w ere
el o
ĠF low
OL D
ĠAc tive
Ġinf ected
Ġmac roscopic
Ġm ent
ar o
Ġgener ations
ĠBol tzmann
ĠP la
ĠE vents
ĠPol y
aver aged
20 8
ocia tive
ver sities
ĠF C
fold ing
par ity
R N
ĠT S
ĠF ox
w ould
Ġs outhern
ARR ANT
Row s
jour nals
U K
Ġg host
Ġ{ },
ĠCap ital
ĠMach ine
Ġs elling
Ġin complete
> %
C ook
Ġsp oke
Col l
ĠÃ ł
è ¿
ĠUn like
Ġbl ind
Ġcont ro
F ixed
an ni
Ġh ate
Ġan onymous
$. \
exp licit
, {
L and
Ġvis its
[-> ]
id ually
' /
Ġbenef icial
Ġsub strate
pher es
Ġlogarith m
ĠL td
ĠG auss
Ġsyn c
Array List
S un
eng ers
j ax
Ġsur vive
Ġent ers
Ġle ct
Sh ared
e as
Ġclass Name
Ġint ense
13 1
sl ashed
Ġdeploy ed
S at
Ġiden tically
Ġp ec
h c
ĠQue en
n f
Z one
LA Y
di am
Ġconcent rations
19 60
}) /
ĠH I
D TD
K n
Ġflo ating
à¤ ¾
Ġpropos als
Ġtrigger ed
ĠB reak
includ es
ĠOb serve
su it
ref n
- )
Ġun supervised
Ġh ist
Ġpush ed
big wedge
Ġgu itar
par box
< -
ĠI F
Ġcons ent
Ġph arma
Ġag ric
h size
ĠLi ber
Ġaltern ating
[ $\
ĠE N
ĠTh read
enn is
ĠDav is
normal ized
ĠW ARRANT
EN V
Ġte tra
ĠM atrix
Ġgu ard
Ġkine matics
Ġcommu te
Ġexpansion s
bu ilt
In stead
Per iod
Ï ĥ
] &
Ġvo tes
` :
Ġpre val
B lue
}} },
Ð¾ ÑĢ
work s
4 80
ĠO P
p rior
ĠĠĠĠĠĠĠĠĠĠĠĠĠĠĠĠĠĠĠĠĠĠĠĠĠĠĠĠĠĠĠĠ ĠĠĠĠĠĠ
ĠCO L
Ġint uition
Ġtell ing
____ ____
b urn
AT OR
w ich
ĠBuild ing
Ġso il
> =
de x
rep res
d anger
tab colsep
ĠCoun try
h uman
ĠT arget
op am
23 5
, [
L ib
Ġnu tri
ĠD id
ĠCol umb
ĠAg reement
and y
ĠCo ast
b idden
Ġev olving
P an
Ġma il
ĠN A
ĠBas ic
Ġf raud
resp on
Ġ\| _
if i
sp atial
tim er
on line
| (
ĠPa uli
Ġpoly mer
] ^-
Ġinser ted
ĠWith in
alt Color
o i
19 75
elf are
estima ted
Ġ river
th ird
Ġresid ue
â Ī
al ong
ĠC ancer
Ġplanet ary
DE X
R et
Ġtransport ation
Ġti le
ĠS olar
Dat aset
}$ \,
hed ral
ro se
Ġpri ors
Ġgeom etries
Ġexper tise
xi ma
ist rative
Ġstri ke
Ġreal izations
. :
v d
}$ }\
ĠR S
Tw ig
ĠN ormal
ap ing
' =\
ĠR est
mak ecell
ir i
: #
em ed
I refn
Ġp un
Ġincorpor ated
Ġ`` `
ĠTeles cope
ok er
Ġv ital
H older
ĠOffic er
am an
ah n
Al pha
Q C
ĠS ong
met rics
ĠCon tact
A pr
B ur
Ġhon or
y ers
re duction
ĠLat in
consist ency
Ġcl arity
Mon th
ĠN ash
un known
ĠH z
ĠTra vel
Ġweb sites
neutr al
se x
H ook
Ex ists
em ission
" /
Ø ª
AP P
con vert
Ġa thle
Ġdeep ly
Ġscr atch
Ñ ħ
OPT ION
ĠPart ners
incre asing
Ġst ops
the ad
Ġsti ff
ĠK ong
Ġel lips
eak er
Ġrender ing
T AG
ang les
ss ues
pos al
Ġpiec ewise
7 50
ĉĉ Ġ
0 16
A z
Res p
iz z
Ġsuscepti bility
+ (\
text subscript
}, \,
HE AD
Ġo cean
Ġco ffee
lo ys
lic enses
F eed
M ust
19 73
19 5
Del ay
el son
)) =\
Ġsyste matically
Ġemo tion
Ġoverla pping
or ry
Ġcomp eting
}, {
vers ary
Ġf riction
Be en
T asks
18 5
rep eat
lish er
Ġconj unction
sp ath
Ġt une
})- (\
(" %
C over
14 2
nob r
Lo cale
L IST
LO AD
u ters
$ |
o sition
Ġrepresent atives
Ġdec lare
mon ot
R ay
Ġde pos
i ev
ĠS end
Ġrad ical
til lation
Ġconstruction s
p ipeline
å ¤
tic a
Ġad vis
: '
di a
Ġf irms
w id
L IN
ni k
Ġformula e
ĠIn cre
} &=
ĠR og
ĠD rag
)\ }$
Ġco vari
C irc
Ġswe et
}{! }{
S NR
Ġh olog
ĠF ast
c D
c oc
Ġen jo
ĠBy te
ord ination
ĠSt and
Ġ ï
}( (
O ld
vis it
Ġinc idence
4 000
or o
Ġp uzz
A ggreg
lay ers
ump y
au i
Ġevalu ations
ĠF isher
ĠR G
ting ale
Ġexplan ations
cur ves
or ov
numer ical
Ġfaith ful
Ġrep air
mon y
b w
own ed
Po jo
d am
æ ķ
RE T
Ġheter ogeneous
at ric
Menu Item
Lef trightarrow
constra ints
ĠOC aml
run ning
Arg uments
Ġirre levant
P ad
Un iform
ĠMay be
\ (
r pc
^* $-
Ġsubt raction
uff le
Ġdestroy ed
la ps
NO DE
Ġacqu ire
T s
ĠO hio
Ġbu ilds
ign ore
ARN ING
ĠL LC
b A
ĠB ud
a tivity
cal es
FI ELD
ber ger
u y
Ġencounter ed
ĠS ho
ĠPr int
Par tition
ĠW at
K er
Ġleg acy
}) )$
f ine
Ġb lo
end point
lu x
Ġ till
ens tein
Ġaf ternoon
Ġspin or
Ġ( %
ĠM Hz
mm ode
Ġachiev able
he alth
amazon aws
ĠL ew
ĠS ession
lim inf
ĠMo on
C y
ed e
aw esome
ĠNetwork s
Ġdimension ality
ĠE D
Ġdel ays
Ġun usual
block s
Mach ine
ĠA venue
og nition
Ġs tick
if iers
Ġhas n
ĠLo ad
^{ '
S al
Ġcol on
star ts
Met rics
Ġl as
Ġsol di
Ġtrans lated
add plot
ul sive
ni pp
o pp
Ġin form
ferm ion
m ys
df n
assert True
N s
ĠB ERT
Ġpas sive
itz er
Ġ\ [\
un ning
descri bed
Ġh i
Ġint ention
Ġidentif ies
}) }$
s ass
la tex
ĠA la
Ġcol ours
Ġbeh ave
Ġdwar fs
Ġnor thern
) ",
ou ston
scatter ing
re dsh
ĠE mb
0 11
Ġ$< $
ex ist
Ġencryp tion
Ġemploy ment
super script
ĠC ast
se ason
ee a
ãĢ Ĥ
En able
ĠS on
Ġspher es
] ).
Ġpar king
ĠTran sition
ĠM ove
ad oc
stats models
Ġgran ts
Ġcont rolling
exp onential
ĠLand au
le ad
Ġun ified
Ġte en
sw ing
ic it
phab et
if mmode
ex isting
Ġm ine
Ġst roke
å Ĭ
w x
Ġb acter
cl assification
{ ,
con ditional
yn olds
ĠG B
Ġact ors
spec tives
Ġ' %
bo ot
R ic
ac les
pro jection
Ġenter tainment
Ġn ic
ct ree
ĠR om
Ġconstit ute
Ġp ic
ĠCl uster
}}$ -
Ġnar rative
W he
Ġn ond
min im
ĠHen ry
Ġrela tes
Com put
Ġs le
Ġun e
spect ra
Ġalloc ated
f mf
Through out
rotate box
Ġreg ulations
ĠNam ely
pp ler
in ch
Ġsub scri
Ver ify
Ġadequ ate
log ging
Set up
ĠSaf ety
ĠO K
ĠB oy
Ġabsor bed
15 00
__ )
ĠLa bel
[ -\
Ġrot ations
Ġne uro
k now
out ube
dis patch
tis tic
_{ |\
Ġmulti variate
ĠI oT
Ġmar riage
Ġob sc
) })\
ĠSU MMARY
til s
Ġproduc er
Ġbu cket
Ġinflu enced
r us
Control s
ĠS em
Res et
Ġun clear
row eak
Q ual
m or
rog ate
Ser vlet
Ġmed icine
ĠSum mary
Ġvulner able
h ex
Ġ& $\
rop ri
Ġim g
ĠRec ords
Ġcommun icate
T opic
Ass et
end o
no tes
Ġen forcement
ĠFe ynman
po i
S core
Ġhead ing
Ġre volution
}) \,
hal o
tr um
ĠL ar
Ġrig orous
k an
ĠDe lete
r ison
Option al
Ġrep ly
ti d
state ment
{ },
A lex
Ġtor que
M Hz
ant ine
ĠU RI
ĠMod ern
Tim estamp
O s
yl van
19 74
Requ ire
H OME
Ġmove ments
Ġutil izing
Ġbul ge
Plan ck
t one
Ġtoler ance
Ġval uation
}- {\
ĠSecret ary
ĠAri zona
ĠA F
Ġsub scription
H aving
Ġc ult
N Y
ĠPro perties
Ġprox imity
Ġhol iday
ĠA str
)} -\
ag ain
~ ,
ĠSta ff
Ġlum inosities
K T
ĠF r
ĠW I
ĠComp onent
U ses
b ard
ps line
Ġsusp ect
dis tributed
Ġwork flow
He ad
E v
n k
Ġsuper position
C u
Ġg ri
sol r
Ġrepeated ly
ma ker
Ġproceed s
it Hub
Ġmark er
over y
Ġlog in
} ",
Ġin ductive
ĠT OP
Ġr ush
app le
_{ _{
tim estamp
Ġenjoy ed
TR AN
ord inary
po on
ĠC FT
Ġcar di
P erson
Ġmonth ly
i u
Ġpro tons
Ġc ognitive
K im
Exp ected
Ġgeom etrical
Ġtheore tically
E nt
Ġt ac
Ġany more
Ġarrange ment
Ġper ception
Ġcong ru
al led
}) (\
as tically
Ġhydro dynamic
u racy
Ġoccup ation
Ġtit les
le af
Ġpro test
Ġ ÑĤ
jav ax
E mb
it ten
Ġro uting
e ast
ĠV illa
le ted
Ġmer gers
Ġcatalog ue
Ġro uter
ris k
pos sible
Ġback bone
V AR
y al
Ġre lay
ĠH ong
Ġsol it
un lock
pend ing
allow ed
Ġseed s
=- =-
is tically
Ġpay ing
match es
Ġout standing
Ġp t
pro por
op acity
}| ^{
_ )
â Ħ
Ġcomp ressed
$ [
end ers
Ġsem is
ĠTran sport
ne e
- {
f uture
ĠDat abase
ir ically
Ġim mer
ch at
con cat
Up dated
Ġhistor ic
ĠJ son
arg o
prov ided
der ived
be it
iv ari
B et
Ġv ibration
Ġspont aneous
21 7
Ġax ion
Ġaward ed
th a
Ġi p
T oday
ec lipse
Ġt d
ĠO x
Ad ditional
BL IC
experim ent
Ġup grade
Ġna ive
Ġcol span
Ġ Ã©
Ġfac ed
Ġinvestig ating
Ġaver ages
R ank
Ġfair ness
M pc
ĠP hi
ĠCorpor ation
Ġinv ent
| |\
2 16
C he
Ġsh ots
00 000
F ollow
Ġco ins
h b
Av ailable
am big
ĠDemoc ratic
intel lij
Ġwh eel
ĠO w
Ġcommu tes
Exp ort
si ans
ĠK evin
ĠT D
ĠD ra
Dis patch
P lot
Ġcross es
function al
UR CE
Ġs oul
Ġh az
Ob server
Ġperman ent
15 4
Ġbenchmark s
te or
ĠFil ter
pag ination
P W
si e
ĠC ru
ĠM g
ĠM pc
ĠR ule
V s
ĠTra de
Ġp ending
Ġg aming
: &
descri be
Ġc s
Ad ditionally
h p
ind ices
wh el
ĠComp uter
Ġmut ually
Ġview ing
Ġstri king
ĠFore st
ĠRel ations
Ġ ----------------------------------------------------------------
Ġcalc ulus
w u
c P
H ol
Ġt aste
ĠH i
Ġch aotic
Ġintui tive
Tra ining
D istance
ĠPro duct
ĠH ur
_ +\
Ġno table
)] \
c rit
Ġex haus
Ġpers istent
Ġf lip
os ph
Ġcod imension
)] $
Ġdete c
Ġrest ore
Ġch amber
en tific
ĠI SM
Ġ< ?
ĠL A
20 4
p kg
tool tip
ĠDe ath
UR N
v ic
Ġindiv idually
H amiltonian
c mp
k ine
ĠS obolev
Lear ning
pack et
3 25
Ġretri eved
Ġanno tated
( ()
================================ ================================
eff ects
ĠD onald
t u
hic le
reg on
Ġpec uli
Ġinstant aneous
Ġcon ject
P od
st udi
Ġcomm ut
×ķ ×
W il
: $
y ellow
ĠP lus
b id
] )$
in j
tellig ent
min ute
G old
ĠĠĠĠĠĠĠĠĠĠĠĠĠĠĠĠĠĠĠĠĠĠĠĠĠĠĠĠĠĠĠĠĠĠĠĠĠĠĠĠĠĠĠĠĠĠĠĠĠĠĠĠĠĠĠĠĠĠĠĠĠĠĠĠ ĠĠĠĠĠĠĠĠĠĠĠĠĠĠĠĠĠĠĠĠĠĠĠĠĠĠĠĠĠĠĠĠĠĠĠĠĠĠĠĠĠĠĠĠĠĠĠĠĠĠĠĠĠĠĠĠĠĠĠĠĠĠĠĠ
Ġaff ili
NN s
15 8
ĠSum mer
Ġexp r
MP L
ĠL R
At tach
ĠSm art
Ġf ron
ĠP rom
Ġt ur
Ġ& +
cs v
W IN
Ġs ou
at op
Ġsp ark
Ġqu ote
sl ide
}' _
UE ST
\ >
M al
ick en
Ġaff ecting
bib item
ure au
Ġh osted
ĠSer ial
P ush
Ġp iv
ext ended
Ġil legal
CC ESS
Ġcontradic ts
) }}{\
Ã ±
Ġj umps
ĠF ord
ĠS USY
r x
vec tive
go al
ge ms
text superscript
Ġg a
accu racy
Ġn eck
Ġden ominator
Å ¡
IM O
Ï ģ
ber n
ĠHel p
d ynamical
Ġd uty
ĠMajor ana
r p
SF R
ĠLa ure
Ġid x
}( [
ĠOly mp
ra q
Ġoptim ality
' ].
C trl
ĠR T
Ġvor tices
ph oto
tes y
i la
g m
Ġo u
Ġbelie ves
L ee
ow nt
+ {
Ġg aug
ĠY O
st ration
20 3
Ġdiscus sing
Ġex ceptions
con ven
uni versal
Ġ um
Sh are
alax ies
Ġinstrument al
load s
Ġw rap
ĠL inear
Ġche ap
C odec
ĠN u
pher ical
frag ment
Auth entication
burg h
Ġret ro
Ġcre di
Rel ative
ĠJew ish
Ġal ive
Ġsucces sive
Ġin herent
Ġlabel ing
ĠP E
ĠR h
G raphics
OT T
Ġrecur sion
B on
s ay
Ġpredic ate
Ġorbit als
o led
y z
ĠK err
array stretch
"; "
ĠVAL IGN
ĠF un
R ules
Ġr ural
M g
ASS ERT
ĠPr ivate
ĠIr ish
ri ends
Ġbl ur
manif olds
Ġbus y
Ġrem n
) ^{(
Ġc rack
(" \
res sible
Ġti ed
Tem p
imp lementation
Ġch ip
Ġtic ket
Ġaccompan ied
} ',
Ġcur ved
G IN
A H
gra ined
Ġfrag ments
Ġs ought
Ġpool ing
ĠA u
Ġpart ly
inu ous
Ġdelay ed
! </
s outh
Ġrank ed
ur ers
Ġany way
O H
ĠP AR
Ġsaf ely
Ġgradu ate
Ġphenomen ological
C amera
P unct
Ġlegis lation
& +\
ĠM IT
Ġs alt
Name Link
ĠMus lim
Ġrele ases
experim ental
D an
Pro c
pis ode
ĠObserv atory
ter y
Jan uary
mu x
m cite
cell s
Ġs mo
ĠN ature
ĠHe isenberg
Con tains
qu an
on ing
ĠU AV
Ġlem mas
Ġpos es
ĠDemoc rats
H ard
), $$
il arities
}\ }$.
ĠO h
Bu f
ĠJacob ian
sim ulation
ĠB or
ĠTh er
2 11
2 12
Ġwith draw
Ġconstant ly
per cent
un ks
i lation
dist ingu
Ġ- (
w allet
ĠPar se
' )$.
Ġin jected
Ġh et
External Task
Ġexam ination
fon ts
/ (\
ch est
Ġex clusively
dis cus
Action s
ine ma
im s
Ġuser name
general ized
F amily
operator s
ar ab
ĠLe besgue
Ġent reprene
Ġ&= &\
Ġpron ounced
Ġfix es
ĠCre ates
act ual
Trans lation
B ridge
up dated
h ill
Ġweap ons
+ |\
ap or
Ġconfir ms
IE W
oc cur
be hav
Ġdo i
Ġg uests
App Compat
Ġcomfor table
Ġtravel ing
Ġconduct ance
get Type
Ġinfinite simal
H am
19 72
J o
Ġd B
or able
ep ing
ĠAd vanced
| ^{-
Ġincredi ble
}^{ *}
ĠK epler
to o
Ġgu est
ĠMon th
Ġappropri ately
Tran sition
der r
Ġestablish ing
Ġop tically
Ġde formations
str ument
RE CT
Error f
Ġinter po
15 6
ĠNor thern
Ġpod cast
>( <
ĠMod ule
Ġnew sp
Ġ$ >
Re ason
] }(
S everal
m echan
div ision
>< !--
Ġaltern atives
Ġdra matic
"> (
get Instance
clo sure
tiv ation
s ymp
um ented
ĠT itle
Ġelectr icity
ĠVis ual
Ġis omorphisms
ĠĠĠĠĠĠĠĠĠĠĠĠĠĠĠĠ ĠĠĠĠĊ
IF I
z oom
Ġma ppings
he at
extension s
de mo
Ġapp oint
ĠChar acter
Ġto x
Ġal ias
16 7
Ġvirt ually
Ġis ometry
Ġinher ited
Ġsy nd
, ~\
Ġgeodes ics
m q
Ġimp urity
sd k
N ON
V R
Ġindic ation
des h
F ac
Ġcryst als
Ġchem istry
Ġmultip lier
s il
S ing
te p
od ers
Ġy r
ĠS witch
Ġcell ular
ĠApp lying
ĠS hi
Ġste el
N M
In jection
Ġar tifacts
Ġmeet ings
Ġaut onomous
deriv ative
orient ation
ex ecution
Ġpoor ly
ĠEar ly
ĠV en
Ġfin ance
ĠBri an
k le
Serial ization
An n
control led
æ ĺ
v g
ro ck
Ġm ountain
ell s
ĠP od
15 7
ĠH odge
ĠM art
UT E
ll l
Ġthous and
Ġas ks
se ver
ĠH al
Ġhyper surface
Ġvictim s
y ang
f its
Ġj e
Ġa wards
Ġequiv ariant
Uni versity
ĠT an
Ġear n
Bit map
ExternalTask Pojo
T uple
hed ron
" ];
Ġattem pted
t ens
E W
Ġparametri zation
alth ough
k el
Ġran ks
Ġelig ible
V P
y ard
ĠWh it
ĠM SE
Q Q
\ })
ĠK al
ĠĠĠĠĠĠĠĠĠĠĠĠĠĠĠĠĠĠĠĠĠĠĠĠĠĠĠĠĠĠĠĠ ĠĠĠĠĠĠĠĠ
t asks
ĠTo gether
IL ITY
chem ical
atern ion
B its
table block
Ġsequ el
cover ed
Ġig et
23 4
ĠAlex ander
th umb
d S
In sert
ĠCom ments
Ign ore
Ġcent roid
al ias
ĠNe ural
15 1
( ['
IM IT
in x
ĠD I
Ġf urn
ate way
Ġman aging
ri ble
Ġdesign ing
enn es
equival ence
asp ect
mach ine
ĠH az
ryst al
bu la
ĠA stro
ma trices
Ġemer ge
K B
Ġb lank
Ġstrong est
Ġhyper parameters
Ġsub stitute
ĠMA X
}\, {\
ĠLy apunov
Ġrepro duced
AT TR
ĠL as
hi er
Or gan
nit ude
M i
Ġre n
Ġro oms
Ġmon oidal
ĠInd ep
Ġin ject
Ġdi amond
Man agement
ĠLin ux
f older
ĠD W
Fact or
) '
Ġreg ulation
Ġvacc ines
thin space
ĠN SF
andid ate
abe tes
ho o
Ġfib re
con sin
Ġorgan ic
eps fig
ĠB at
__ ["
max cdn
H i
g ro
Ġtick ets
Ġsatell ites
\ }}\
es tri
Ġsome how
Ġaddress ing
Ġg ift
Ġaccomp lish
Ġpoint wise
Ġ ^{-
K P
*}[ !
Constra ints
t g
ĠW as
[ ][
ĠIn ternal
ĠLabor atory
Eval uation
Ġear ned
ĠF la
Ġlock ed
Ġde ple
tem pt
LE S
olog ist
h or
f w
ĠT M
abul ary
C as
d up
Ñ Ĩ
\, ,\
osp in
Ġtermin ology
lem an
Ġco in
LE TE
ĠJ ob
Ġdemon str
decom position
Experim ents
R ich
un ion
ĠE dition
date time
ic ian
ĠH istor
Ġho pping
Ġg raphics
Ġdiscuss es
ĠD ise
Ġmultip lied
Ġspeak ers
ĠSup reme
c aus
ĠSet ting
be a
T Q
Run ning
ĠS ymbol
Ġ )^
ĠMean while
od rom
el led
ĠT es
}} }_
... )
faster xml
Ġas ide
comm un
ĠHar ry
ĠOrgan ization
Ġoptim um
Ġmark ers
Ġconfigure d
0 12
bf series
ad van
Ġvis iting
oc y
ĠMo vie
0000 0000
() ]
Ġstre ets
ĠHol lywood
Syn tax
}' (
Dec laration
pro t
c L
Ġprescri bed
w ick
Ġtw enty
Ġfunction als
ĠInter estingly
F ast
Ġsub stituting
lin ux
ĠM om
ĠHand le
get String
ĠAr ticle
Ġster e
Ġwe aring
Ġoper ates
Ġsyn chrotron
. ).
list en
: -
at tack
spec ified
di ver
n x
Ġth under
ĠE ver
L ap
ak ov
Lo ading
p ragma
tit led
ber ts
14 1
ad just
process or
ver tices
Ġspec ifies
16 6
Ġb ought
M etric
th ink
ĠWh ich
vi ted
Ġsol o
Ġiso lation
all as
T ensor
ĠT ok
Ġbo ys
s olutions
ch apter
Ġ' "
vary ing
Ġtreat ments
}} )$.
google apis
M ET
}_{ [
ans wer
i vers
Scal ar
A ff
Ġiniti ative
ĠB L
Pre dic
Ġneur on
Ġcompens ation
Ġqu oted
sg n
ĠV iet
Ġinv olution
Ġh ull
Ġst one
Ġdra ma
Ġin cur
la del
= >
amplit ude
len eck
stream ing
> ()
Ġcon tacts
ĠM ust
RA Y
Ġtrans lations
-------- --
Ġpropag ating
Ġpermit ted
28 8
ic z
ĠE ss
x z
ĠB lu
Ex ecute
ylvan ia
Ġh am
an de
] -
f box
y d
le igh
SE D
tiv ated
ĠP latform
T ick
ĠM atter
Ġar rested
ess ment
ĠAir port
Ġjus tified
var s
T a
Ġcomp iled
oc ent
em it
ag onal
Al t
ĠG reg
Pub lished
Ġ| =
oth esis
ass o
R UN
C ulture
war n
Fe atures
Ġre min
lst listing
Ġimp osing
19 3
Ġrare ly
appro ach
Ġin hibit
Ġdr ives
Ġp et
Ġin ev
ĠC ivil
Ġsomew here
inher ited
h dots
Ġpublic ations
Ġpol l
F ar
ul p
Ġsol iton
ĠD IS
ĠLog ger
Ġti ps
Ġdecom pose
Ġc ow
Ġdiffe omorphism
ĠL ik
Ġ uri
Ġfrag mentation
Ġdiv iding
ĠB all
Ġg est
Ġrecur rence
D IF
Ġf ibration
ĠG M
Ġpar sed
ordi al
Ġen force
Ġgot o
Ġgo ogle
inter acting
ops is
z an
Ġvi able
B esides
Ġro bo
ĠChampion ship
ĠCom parison
Ġelection s
Ð¾ ÑĤ
¿ ½
ĠP D
ĠU sed
Ġsmooth ness
Ġintegr ity
pend ed
Ġru led
mat ched
se ed
Ġbehav es
y c
unic ip
ĠP layer
Ġpoli tic
Pe ople
ĠI de
Ġev olves
Ġhous es
Ġout liers
Ġd eta
item pty
ĠC lear
ivari ate
| >
we ights
}\| _
Work er
Ġdog s
Ġambigu ity
Eq n
ĠMag azine
5 50
ĠMod al
Ġmul tic
Ġin tel
om itempty
Ġ- =
F r
}) ^\
A ir
ĠH ausdorff
ĠP romise
eli very
Ġemer gence
ĠAd ditional
Ġ($ (
RE SS
Ġtext s
og on
ival ent
Ġle gs
ber ry
Ġe g
Ġcy ber
ĠKE Y
c amp
ĠG i
/** */
Ġadv ances
jec ta
Ġinteg rand
ĠDis tribution
pd ates
ladel phia
ĠTrans former
asc ular
ĠĠĠĠĠĠĠĠ čĊ
ĠR R
ĠD FT
Ġcan vas
Ġde x
Ġwor ry
ph on
Ġor acle
ĠL I
TER N
Ġerg odic
ĠN at
Comple x
Ġserious ly
Ġconvers ations
Ġmodel led
}+ (
Ġanomal ies
no tify
Ġastro physical
çĶ ¨
20 9
ĠT ABLE
Ġlong est
S il
T B
cor ner
F ace
Ġm utation
en ko
ĠP ot
Ġsat urated
ĠNet flix
num bers
ef ully
ĠPers onal
ĠC ra
ric ulum
36 5
. ''
B st
ĠPr ice
Ġhel ium
domin ated
os phere
T W
u ing
tit udes
Ġazimuth al
Ġsl ide
ĠP ic
Ġ' ''
Ġweek ly
integ ration
{$ {\
æ Ī
b z
C hi
ĠPh ilipp
tic ity
P ixel
Ġfound ed
q w
es timation
ĠK o
Ġcur rency
Group Name
R en
P resent
Ġconver gent
ĠI M
ic ode
A u
ĠF M
la test
Ġadjac ency
effici ents
lo re
ph ones
Ġquas ars
en sitive
ĠR A
ĠR ate
oding er
cur l
F our
en et
, &
Ġmanip ulation
bur y
w alk
Ĩ Ĵ
in frared
ĠO ri
Ġcross over
all ing
in ous
ĠSt ation
str ut
Ġframework s
u rate
Ġcontext ual
Ġno tification
ĠMem bers
Ġconn ects
Ġplaus ible
Assum ing
Ġres olutions
| .
re ment
Ġexp ects
station ary
OTT OM
++ ++
ÑĢ Ð°Ð
o ints
ĠGal ois
ĠO DI
St ub
W in
B us
ore n
ĠImage Net
small er
, âĢĻ
ĠH essian
ar Xiv
âĦ ¢
Ġver b
Ġkn ots
om ed
Comp are
Qu antum
Ġd ies
om al
ad v
Ġr um
ĠCl inton
duc tivity
Ġcon scious
Ġlo an
Ġspread ing
Ġcollect ing
ogen ous
in ar
ĠMo ore
ĠP anel
L B
d an
adap tive
man agement
ryp t
Ġli kes
Ġdiscrimin ator
v endor
Ġd ens
ĠJ osh
Over all
Ġtwe ets
re call
Ġreg ulatory
! \!
ĠC ox
text backslash
' _\
S ound
ĠPh arma
ĠÂ ±
Pro f
Ġwh ilst
Ð¸ ÑĤ
le ave
Ġbifurc ation
ub bles
Pr ice
oul li
Ã© s
sur vey
build ing
Ġsudden ly
S tage
h ist
Or iginal
Ġsynchron ization
x u
Ġan not
ĠR ose
S ets
P Q
ĠJ en
Rep lace
ul s
Ġshe aves
L ines
^ ^
ĠH ot
col lect
Ġ-- ></
Rec ent
ĠMem ory
Ġassign ments
ession al
ĠOver all
Ġfila ment
y i
Ġcomb at
{ }^
de veloper
to ctree
Ġcompu ters
L icense
Ġp ace
ĠK illing
Ġstrug gle
BU FFER
or al
ĠĠĠĠĠĠĠĠĠĠĠĠĠĠĠĠĠĠĠĠĠĠĠĠĠĠĠĠĠĠĠĠ ĠĠĠĠĠĠĠĠĠĠĠĠĠĠĠĠĠĠĠ
Do es
Ġbur sts
Ġcasc ade
Ġpr icing
ĠS ample
be en
ĠI MF
ĠF E
O ri
Ġweight ing
accu rate
Ġ/ \
{\ '
h base
al one
< >();
row ave
cap ture
ĠMy r
Ġch ronic
s an
net t
press ure
Ġ& #
vio let
19 6
Ġcell padding
ĠCom ment
Ġmer ged
Ġdegrad ation
r put
Ġfriend ly
Ġemphas is
est or
diff usion
$ +$
ĠC ele
min i
W ave
Ġpre domin
Ġcell spacing
f ish
Test ing
un stable
Ġl ux
ĠE R
e ither
ent ation
ad ditional
= ~
ro oms
Ġinten sities
ĠL ater
Ġst ood
Conver ter
Ġto wer
igen ous
Ġ\ {(
Ġvacc ination
}& =\
17 6
View Controller
ĠIndust ry
ĠO pp
ĠEx pl
Ġa ster
Ġcolle agues
ĠFro benius
ĠE nt
C SS
Ġco operation
ĠK ol
Ñ İ
cr yp
D ry
ic ide
h m
ĠIn vestig
Ġw idget
Ġw et
Ġsil ver
Ġdi electric
; -
Diagnos tics
Ġse asons
Ġ" '
Ġc p
Ġta ught
Ġk illing
ĠPro b
Ġavoid ing
B usiness
ĠA rc
Ġ+ +(
Ġbo at
N ational
Ac cept
Ġcon form
Extension s
d ra
Ġkn ock
27 5
sw ap
Ġj oy
Ow ner
Ġpr ivile
ĠDr ug
Multi ple
ĠEval uation
Ġsusp ension
Ġwra pped
align at
Ġindic ators
Ġd ic
ĠS quare
ĠZ hang
Ġeccentric ity
ser ving
l k
30 1
Ġappreci ate
plan es
radi ation
ĠCat alog
re ens
DE D
estima tes
Ġdesc end
N at
Ġsta ys
com ments
Ġlight s
Ġir regular
SP AN
c ity
nof rame
l ant
Ġdat abases
= {(
ĠG rid
Ġexplo iting
P OS
ĠP sych
Ġdiscr imination
Ġan tis
Ġres um
- (\
L ife
Ġpro hi
Ġm useum
Ġeng aged
P romise
20 7
in ating
Ġab and
S trip
Ġac tively
Ġgenu ine
ĠSen ior
Ġa uction
15 9
Ġal cohol
Ġra ising
18 7
Ġpe ers
E instein
ous el
Trans fer
ĠArg ument
Ġelect roweak
al lation
Ġrefer ring
eler ation
ĠB P
Ä į
Ġhard ly
CE SS
18 9
Ġprim es
fin itions
d R
38 4
ĠEd ge
N eed
resp onds
Ġcal endar
E t
)=\ {
ns ylvania
Ġun biased
ynchron ous
Ġg ras
ĠM M
\/ }
Ġmort ality
ĠEl izabeth
Y ang
ĠG reek
="@ +
Ġup load
Ġnil potent
}, $$
ĠL java
rac le
ĠInt roduction
: %
c S
ĠSh er
/ [
$ }{
ot ype
ĠS ound
Ġ ut
p tive
ĠD G
ĠRec e
H B
Ġw estern
L ab
Dis k
Ġreli ef
am ar
] ),
Ġcon duction
Ġdra matically
Ġgre edy
ĠO ptions
Ġaltern ate
ĠW E
ĠSan ta
ĠL es
/ )
Ġhop es
Dis tribution
Ġnon empty
k im
Ġto y
ĠK r
ĠHar ris
b ank
S ort
i int
ĠR ound
Ġown ership
Ġincorpor ating
un its
iss ue
}^* \
. &
00 9
ĠGu id
Ġden oting
comp ass
Ġref ere
ĠH eart
SE C
ĠComp ute
ed a
Ġcalib rated
i est
ĠTh ings
ĠV e
Ġequ ity
Ġtran sf
Ġcred entials
Ġtourn ament
17 3
Ġ å
ĠSar ah
r w
Ġfound er
Ġ' _
)= {\
= &\
Ġs lots
}} &
Ġsuper vision
Ġcross ed
h f
ag greg
ĠV ice
enc er
P riority
50 9
Ġbu ying
itor ies
C li
ill ance
C hat
v ard
U nd
ĠRun time
Ġinflu ences
×Ļ ×
V irtual
d st
Ġde formed
Ġoptim izer
\% }
> ;
ĠH otel
AR G
Ġemp irically
er ves
Int ent
Ġeigen vector
è ®
Ġin homogeneous
ĠM s
Ġacc used
trans late
uzz y
ben ch
Ġfid ucial
}. )
Ġleg i
(' <
ĠTor onto
m el
Pr imary
ĠEnvironment al
19 68
it ative
id al
Ġmo on
) }_\
** /
Ġfail ures
ĠT en
> {
Com mit
por ted
Ġe u
ĠH ouston
Ġellip tical
ĠConsider ing
Ġs aving
=" {{
Ġamong st
ĠCho ose
Ġcomp ounds
const ants
pos sibly
Cre ated
19 7
il ateral
S ide
40 1
ig e
Ġinv oked
icon duct
list ener
Ġjus tify
mag ne
Ġan xi
Ġover whel
B in
Ġt y
Ġlinear ized
H op
Dec imal
Ġshow er
he v
ĠComp ared
redsh ift
ĠSchwarz schild
s ho
Ġvis cous
Ġanaly se
I so
ĠI mag
Ġpur s
Ġth ro
st ries
ĠK L
K A
ĠO regon
Ġwrit ers
oun tains
17 2
Ġpresent ing
cont inue
Ġprof essor
annot ations
Ġph rase
ĠTo ol
cal ling
'' \
Ġslo pes
Ġpopular ity
Ġopin ions
* .
al ph
Ġoptim izing
R atio
ysh ift
ĠInitial ize
Ġb one
EV ENT
box times
IC S
ĠD raw
ĠD eterm
sub Nav
16 2
Ġ( âĢľ
ds on
M arch
Ġin formative
Ġinser tion
Ġ- &
ĠBel ow
\!\! \!
Table Row
Co ordin
ĠG A
w b
Ġhit ting
c ube
be havior
b ach
j l
g b
Ġ' #
ĠPh D
Ġm ill
Ġexhi bition
0 24
cer tainty
less ly
Z oom
ĠF ALSE
ĠG un
w avelength
Ġb orrow
g age
Ġl in
ĠDi ego
P ic
ac o
H K
ĠR M
ec ke
Po isson
23 1
ĠH an
id ge
Ġdecay ing
Ġinst anti
normal size
* (
ot er
ĠMil ky
as ymp
ĠN umer
ĠP os
g cd
] </
Ġsim ilarities
er tion
ĠPar ameter
show s
l on
Ġc ached
Ġle ts
L ICENSE
Ġsuff ix
ĠC lick
Ġbar riers
Orig in
Ġc c
17 7
Ġcon verse
}) )\
Ġs lices
ĠE ll
bul k
! )
oher ence
ĠF ried
AB C
Ġf ract
Ġsu ited
ĠVal ues
M obile
ta rea
}\ {\
Ġshort ly
ĠMark eting
k al
Ġre vision
ĠD og
Ġun lock
mark et
dec or
ĠM ars
Ġcl s
~ .
Ġro oted
ob e
d td
ĠRepublic ans
ĠFW HM
abs olute
Chang es
Z h
Ġpropag ate
Ġmag azine
ĠO nt
âĢ¦ ]
Ġcoun cil
Intern ational
j ournal
ire ction
Ġhel icity
b end
Exp ect
riter ion
Ġk w
Ġph ilosophy
22 1
ĠM rs
fil ters
ĠEn tity
B ul
Ġs ick
ĠV egas
TR Y
}+ {\
Ġtimes cales
In cre
Ġtra dition
PR L
ĠSte phen
> ${
Ġinj uries
Ġb le
it ure
Ġres il
19 50
Ġaccess ed
Am ong
). \]
Ï Ģ
ĠH IV
ob servation
on na
escap e
Ġlept ons
Ġtyp edef
Ġpion e
el liptic
Ġindu stries
RE SU
, +\
ig g
ether lands
mer c
lar ger
follow s
Ġthe sis
R B
? )
Ġsub system
Ġpre vents
16 4
Rel ation
ĠT X
up iter
Ġpush ing
ĠChris to
Ġqu iver
is ible
^- _
ĉĉĉĉĉĉĉĉ ĉĉĉ
Ġh at
b ab
Ġrestaur ants
Fig s
Ġw rapper
Ġpoly gon
ĠEn c
get Attribute
dec ode
c ub
Ġpa ired
Ġtransform er
> ../
ĠN ation
Ġar chive
;\;\ ;
get Class
Ġad mitted
Ġmem ories
Ġmul tim
Ġt s
ĠG ran
ĠUn less
Run ner
Ġhand les
Ġtrans lates
con sum
2 64
Ġmin ister
ĠFoot ball
ĠSu ccess
et z
ĠSim on
op tical
ĉ ĠĠĠĠ
lect ual
coun try
ĠA mb
gra duate
reed y
tr unc
b R
version s
Ġrec i
Ġbu ck
Ġmin ds
Ġf ired
Sch eme
Imp lementation
Ġshould n
Ġconf inement
cl usters
pro ducts
ee k
ĠL ind
3 40
ĠC B
}} }(\
c G
Ġs entiment
ta h
ĠM oh
ĠMi ami
PT R
sto chastic
^* _{\
}/ {
ici ties
ĠS EC
Ġy esterday
1 200
~~~~~~~~ ~~~~~~~~
Ġqual ified
Ġtum or
ĠK h
Ġiter ator
ĠF ed
Ġexplo ited
Ġd ans
ĠR etri
Ġ$ {{\
Ġde legate
Ġstart up
q r
ch annels
it eness
ĠNo tes
Ġwatch ed
Ġfro zen
20 6
Ġm ount
C W
Ġcylind rical
> -
Ġparametri zed
ĠWARRANT IES
}] $.
Ġcon current
oc or
LE D
="../ _
ĠInnov ation
ĠCom pton
STR U
Ġreflect ing
Ġpy thon
tr ic
Cho ose
ne ys
ĠD or
)= (\
S ys
Output Stream
Ġanalys ed
p as
mic ron
ick ing
nod ata
Ġceleb rate
Ġ======= =
Ġnon local
ĠPlan ning
st ock
Ġis om
NE W
Ġv m
Ġ# {
Ġsepar ating
Tool s
ĠF ramework
ĠR H
Ġcomp ile
Ġconv ection
Ġe leg
ff ix
ĠRe ynolds
ĠBu ffer
ĠB urn
Ġprint f
N amed
U AL
Ð¾Ð ´
Ġcontr as
ĠA G
ag an
% "><
Ġenem y
v phantom
ĠT rack
ĠM arg
Ġprac tically
Ġavoid ed
qu oted
ĠUk rain
Ġapproach ing
C annot
an tic
As sembly
17 4
S afe
Sh ader
Ġpro sec
ĠG er
Ġev il
g ences
ĠC ohen
^* )$
K ernel
' }(\
Sc ene
Ġ& \\
li a
pack ages
mes h
Ġeigen functions
Exec utor
Ġexpla ining
S outh
ĠGib bs
tem ark
â Ĥ¬
ĠGold en
du ality
ĠExt ension
Ġsynchron ized
ĠA k
Ġemer ged
ĠWork ing
C ould
Ġob lig
Ġen thus
Ġmonot onically
C Y
C ALL
âĢ ¯
Ġt one
serv let
Ġre formu
Ġannounce ment
ĠT ables
sc reens
}}$ )
{\ ,
Ġpar sing
BO OL
Ġrender ed
ac ion
ic ates
Ġ( ``
Ġcon test
ren ces
dim en
Rad ius
ĠDef ense
Ġiter atively
add Class
Ġgather ed
Ġrect angular
Mod ified
ĠTR UE
be ans
7 68
lo cale
}. \\
Ġch aos
ang ers
Text View
ul in
bu cket
U sed
ĠE r
Ġsing er
MA SS
m ol
cp u
ĠS eg
ĠF ixed
Ġrad ar
get Message
Ġz ones
ĠP erm
Ġsub mission
Ġvir ial
pr iv
ĠÐ¿ ÑĢ
Ġsh ifting
Ġed iting
ĠFin ance
observ ations
Ġsmooth ly
Ġe jecta
ĠSub section
mis sing
J s
Ġl ane
(' #
ĠI raq
ĠK ent
Ġbeh alf
Ġcoup les
p v
Ġtre ating
Ġiter ate
ĠJ ay
ĠMat thew
ST ART
C amp
Ġpredic tor
c am
; %
ch ap
Ġcho oses
ĠCol labor
Y S
p ip
conj ug
no tification
Ġun w
ĠJ oh
Ġben ch
ĠGener ated
16 3
Ġrelig ion
ire cted
0 14
M esh
s ell
ĠT ry
local host
Ġflat ten
P rom
cc i
17 1
ĠG ram
b right
ĠG as
Ġrating s
Ġrein forcement
M AN
Ġextra po
ĠS ex
0 30
Ġd ump
reg ions
ĠH H
Ġk il
ĠE astern
Ġconf ident
worth y
Ġg arden
Ġsign ing
Ġt ens
oci ation
ĠE L
Ġburn ing
id o
Ġsac r
separ ator
arab ic
Ġl ifting
Ġactiv ated
az ure
Ġt ric
con current
M ail
v oc
qu er
EN CE
PE C
g pp
ĠS SL
ĠF S
ĠD ream
ĠM ountain
Ġdedu ced
h w
ĠL ess
ex cit
Ġill ness
ĠS ave
ĠP ackage
Ġ )}
Ġend owed
F ALSE
Ġinter sects
p ipe
}{ {
ĠSet tings
ear ly
Ġsurpr ised
rb an
Ġf iction
ann y
Ġsuffer ing
Ġlook up
Ġal i
res sively
ĠG yr
ĠPro duction
ĠLag range
Ġinter s
: {\
ic acy
Mich ael
ui tively
ĠCli mate
Ġe lected
pi ece
uc lear
Ġblock ing
../../ ../
Ġcondition ed
ĠJer sey
C ut
Ġextra polation
Ä ģ
as test
Ġmet ers
IC T
O FF
measure d
19 71
ĠA LL
Re act
c N
Ġquanti zed
ĠP I
sp ects
Ġr ub
non linear
GEN ER
J D
Data Type
BA SE
sur faces
Ġcapt uring
Ġst uck
friend ly
prep are
Ġposi tively
== =
0 22
Ġv it
Ġcap s
Ġbe ach
}. \]
Ġp aren
ĠCh ap
18 4
Ġinst abilities
Ġin vited
' )}
h pp
Ġcook ie
ol as
Ð¾Ð ¼
asympto tic
ĠDis cussion
Ġestablish es
Ġredund ant
AR GET
S napshot
Ġinterview s
Ġb asketball
equ ality
ab ri
ex clude
}$ (
con duct
H iggs
Enc oder
Ġd f
Ġar ranged
L ive
ĠS ir
ĠĠĠĠĠĠĠĠĠĠĠĠĠĠĠĠĠĠĠĠĠĠĠĠĠĠĠĠĠĠĠĠ ĠĠĠĠĠĠĠĠĠ
cop es
av oid
Ġoff ensive
ch ant
Ġ} ^{\
eak ing
Ġconjug ation
ĠVis it
en h
}) |
Ġattor ney
Mod ifier
en ix
Hash Map
Ġpr inted
OR S
Ġquas ar
theore tic
ĠLink ed
Ġ' -
R eq
per f
t ang
æķ °
Ġsw ap
Ġ\! \
ĠW inter
}}\ ,\
ĠS tage
Ġchar m
Ġmor al
Ġsho pping
Ġcos ine
Supp orted
app ropri
Ġspec ifying
ĠAll en
eto oth
for th
ĠLim ited
ĠGr ass
19 69
au ra
cont in
Per cent
Ġb rid
ti que
Ġmod est
og gle
Ġw ing
Ġpr uning
Ġ\ |^
ĠL ang
ĠD oug
Ġ ĉĉ
Ġobst acle
Ġco h
j us
Ġorient ations
ref resh
Ġex otic
ĠAnn ual
ĠS ri
e lect
an no
ĠK a
es tab
ĠL oc
^- (
Ġfun ny
Ġthreat s
Ġfar mers
ĠS in
ĉĉĉĉĉĉ Ċ
k p
ADD ING
S in
) }^{\
ra it
Ġmil k
os hi
AT URE
Separ ator
h on
ĠS n
Ġcompe te
M il
Ġdis connected
Ġanaly tics
ĠS OC
Ġdo ors
Ġad option
ĠUS D
graph ic
0 13
Ġsuper gravity
Ġencoura ged
ĠS l
band s
q s
Ġsurround ed
Ġ\ >
coordin ates
RESU LT
Ġab bre
Ġful filled
put y
lass ical
Ġval ley
Ġconcept ual
Ġmultip lying
b X
poly mer
Var id
Ġquadr ature
c ould
set Text
iv ity
x f
Ġc ited
ĠIn s
V IEW
ĠCon versely
Ġsurprising ly
Ð ³
Ġ Ø§
ĠV in
ĠCh rome
s uc
On line
ĠLew is
dec oration
Ġinstitu tion
ĠPH P
Ġmaxim izing
ĠSw ift
iz ability
ver si
PRO P
ĠG ene
Ġscre ens
or er
brid ge
Ġbr illi
ĠAtt or
ĠCath olic
Ġpack ing
Ġsp ike
depend encies
ĠI owa
Un fortunately
âĢ¦ .
ĠSch ema
G ER
ĠK elly
ĠSet up
em er
Pa per
D ig
T ip
un ed
g f
Ġc ot
Ġi OS
Ġbi ke
Match er
ĠBO OST
Ġhyper plane
ĠF I
Ġgraph ical
Ġdesign er
8 50
ill ary
Ġparticip ant
ĠWis consin
ĠA WS
mar shall
Ġinj ured
ĠWrit ing
] },
Ġt uples
ĠS ales
Ġstack ed
aw t
ĠB B
Ġmus cle
O cc
Ġout break
ĠCon jecture
Ġin consistent
ĠC am
ĠP CA
ĠF red
Te am
L ang
ish es
Ġacc ounted
E F
Ġfore ver
ĠH O
& -\
J acob
ĠEcon omics
); \
Ġassess ed
eqn o
W est
c ourse
Ġl ip
pro jects
}{! }{\
K G
ĠJ ason
Ġingre dient
Ã º
23 2
n z
Ġtim er
Ġparticip ating
Ġh urt
Con vert
vers arial
ĠPro tection
W illi
Q uestion
R D
Ġspecial ized
Ġimp lication
ou rag
Ġrela tivity
3 15
ĠSt udio
0 50
ĠD S
align ment
Ġlight ing
Ġadd r
c odes
Ġcus p
B ACK
a bel
. ),
for ge
cccc c
Bu cket
A J
ĠIn stance
Ġsymbol ic
Ġcele br
Ġb esides
he ets
ia o
Ġla id
ĠO sc
+ }$
ref lect
') ->
ĠNS String
sc ene
ĠN ative
! }\
k T
Ġpurs ue
ĠP it
}\ }$,
B ern
oc cer
Track er
)) ^{
ĠH ost
M EM
Ġre combination
cl in
A ust
V el
Ġse lects
oc om
& \\
Ġtor ic
n ail
re gex
ĠBrit ain
oura ge
F it
Ġwe igh
ĠIn valid
olog ists
17 8
Ġinsp iration
Ġp ow
Ġpeculi ar
ĠB ridge
ĠBu ilder
Ġbro ke
ĠW ars
bos on
Ġsub sid
Ġatt ract
Ġair port
coup led
Rece ived
Ġder iving
SP AC
vo ice
er v
Ġpol lu
Ġcollabor ative
ĠD rive
Ġtr usted
Ġpro poses
Ġreservo ir
D roid
ĠEx change
structure d
æ Ĺ
fer ences
PRO C
complex ity
expand after
el ve
Comp onents
ĠJ am
ho ff
Ġinter sections
co ol
Block s
C ategories
ĠA h
lic t
or acle
Ġfac ial
ĠComple x
ond o
illisec onds
Ġprim ordial
& $\
3 45
Ġd ress
ĠJava Script
D one
F ire
Ġs igma
cy l
s it
ĠG allery
ĠLemma s
ĠJacob i
N evertheless
ard o
Ð½ Ð¾
R NA
tool bar
Ġprepar ing
polar ized
ĠS ET
b usiness
AS P
Ġbre ast
Ġre dd
ĠB orn
ĠPen nsylvania
D ash
ĠAdd ed
T ables
in ely
Par tial
ĠF er
Ġaug ment
oriz ontal
Ġ} }\
Ġtarget ing
um ble
Ġex clusion
Ġoppo sition
ut down
s impl
Ġwalk ed
coll ision
ab b
od el
ol ly
ĠS av
ĠT F
6 50
ur g
uck er
run ner
eval uation
fav icon
" ?>
re verse
text sl
2 90
th ur
Ġt all
Ġatt ended
ĠR s
Ġdisc s
Ġf lying
stitu tion
) ?
; ,
For ce
Ġpen et
Ġadvent ure
dis per
ĠH aving
ĠL D
Ġme at
CH AR
App ly
Ġanticip ated
ĠEnter tainment
ĠPr ince
* [
Ġcred its
lish ing
With in
ĠJes us
ĠS B
Ġst ocks
Ġis instance
ent ries
IC K
ĠU C
Ġsub script
^+ $,
Ġgovern ments
Ġtax es
Ġ$(' #
ish op
Ġ Ñ
Ġc ry
con tr
Ġimm une
as ta
ĠMN IST
ex change
ĠPhi ladelphia
vit ational
ĠM and
Ġt ank
pro cal
Ġnormal ize
Ġoutper form
ĠAff airs
Ġelimin ated
Ġsp ir
3 80
Ġcont amin
AR K
ĠPl ant
Ġiniti ated
C os
i ma
Ġsp okes
ar poon
^* =
ĠA verage
Ġun seen
ĠSch ed
ers tein
Ġext racting
Ġrandom ness
den oted
Ġen orm
Ġflight s
Ġadjust ment
Ġgr ass
N B
Ä ĥ
de fer
Ġatt raction
ĠState ment
Cont ract
al ink
i q
ĠB ORDER
ĠE mail
ĠIR S
x p
HO UT
ĠR u
Apr il
loy d
ĠExp ression
}/ {\
Ġadop ting
) ].
T imes
comp uted
Sh arp
it ations
L aw
ges tion
ĠAg ent
c trl
il lo
ĠM eg
Ġno tify
vi ate
Ġtra v
ownt own
ou ri
iz ard
ir re
a ac
Ġsimple x
O DE
Ġion ized
Sim ulation
Ġprog ression
Ġdec on
over lay
}[ {\
ĠP DE
Uni que
ev a
Ġconcent rate
Ġprem ium
ĠRegion al
Î ·
Ġb read
Sec ret
J une
Ġre lic
23 8
Ġev id
AS C
si x
Ġh ub
---- -
ĠU P
Ġb lob
light s
Ġ\ }$,
Ġd inner
ĠD ES
ĠMem orial
ĠAnt on
ĠDate Time
Ġfol ks
Ġst ub
Â ±
ĠA udio
ĠB egin
Ġra ises
Ġmitig ate
ĠFe atures
ĠNiger ia
di es
Ġg y
Ġrec ipe
\{ (
Refer ences
log ic
0 75
op lan
Ġsuffer ed
h fil
Ġt f
ID S
Ġti e
Ġimp ression
Ġro se
alla x
Ġcom edy
Ġlink ing
` )
ta tively
lear n
Ġ }),
Ġimp acted
Ġdec laration
Sch warz
ation ally
ĠD est
ĠB ody
Ġcompact ness
depend s
P REF
re search
ĠDown load
(" .
g am
- ">
Ġoffset s
AC S
l ining
Ġ. \
look ing
ĠR PC
Ð¾Ð ±
ĠN orm
Ġdestr uction
Y N
{ ,}
ĠD y
ĠE S
tific ates
Ġl oud
b ag
Ġpo sitivity
ment al
c E
M V
Ġcur l
ĠS po
> .</
Ġ$[ -
r q
D ict
ĠP ear
ourag ing
We ek
roll ment
Ġwave function
mag nitude
We ak
Ġdifferenti ation
ĠM DP
ĠPro tocol
Hel lo
Ġaccomp lished
Ġdep icts
fa iled
s lot
(' ./
ĠN ic
Ġjud g
ĠW igner
4 75
Ġcon vective
Path s
Ar ticle
ĠFore ign
c odec
Ġdemonstr ating
Ġ/ ><
Ġend if
Ġass istant
Ġ" #
ĠD ave
ĠAust in
B ag
N orth
ÐµÐ½ Ð¸
( /
ar ticles
Ġchild hood
odrom y
ĠL ocation
ĠDis play
16 1
ens on
Ġcolor ing
g iving
Comp ute
}, ~\
qu it
Ġper spectives
Ġlater al
ĠS cal
pos ing
o tion
ĠPer haps
ĠC MS
} &=&\
Ġb es
Ġgra b
est one
sec onds
hy thm
Ġfor mats
pseud o
SO URCE
c raft
18 3
Ġ{ })
sec ret
Ġas c
P lus
be zier
Ġcryst all
FFFF FF
b io
ĠR aj
ag en
f ive
Ġd imin
Ġple asure
T om
ĠW D
Ġte x
Ġcompris es
J P
V L
Ġseem ingly
Ġrescal ing
ter ed
Ġcoun sel
p od
Ġatt racted
Wh ich
ĠSe attle
Ġrenormal ized
= |
Ġ' @
Coun try
Ġemo tions
lec tively
b la
ĠL ock
ke e
manif est
Ġaccommod ate
Ġdouble t
Ġrep orter
ï ¿½
ĠC lo
ĠI SO
d in
}$ }}
text ure
br is
ĠM es
)| ^{
ak h
ĠI ce
wit ched
iv o
ĠSp eed
_- $
ch el
J ack
ĠR an
Ġtransp arency
P en
\ (\
la ve
Ġsimpl ifies
ĠV ery
Ġpla tes
3 10
ch arged
Ġb irds
ĠJ u
S ect
pro per
Ġinvest ments
Compar ing
ĠResp ond
$ ^+$
dis p
ĠDo ppler
de velop
ch unk
ĠB ose
win ning
Ġoff ense
ĠR AM
id i
_+ ^
L IB
Ġcompe tit
17 9
w r
}] .
ĠU L
Ġbur den
ĠSil ver
ĠIm Gui
Ġ" ;
P ADDING
nos cript
Ø ³
re direct
=\ {\
}] $,
Ġhouse hold
ĠMaterial s
ĠR C
Ġen sembles
Ġimm un
ĠR NN
ĠR ank
S ent
Ġout door
Ġsub category
Ġbott leneck
Ġmy ster
ĠOper ation
Ġperson ality
v f
Ġthink s
Ġ& :=
con clusions
ĠK y
m og
ce u
.} ~\
Ġindex es
Ġse ats
arg v
Ġsuper nova
bas elines
Ġt ropical
Ġal phabet
pair s
× Ķ
ĠF IR
-------------------------------- ----------------
ĠT oken
Ġspecific ations
ĠL ady
P ane
Format ter
ĠReview s
Ġtrac ing
distingu ish
us age
Ġtw in
ĠN V
ĠClin ical
oc key
ra bility
ĠL F
ors es
Ġw eren
ne ural
WA RE
Ġc raft
ĠT ony
Ġback up
Ġemb ed
ĠN othing
FUN C
pr ising
Ġlik ed
el and
ĠA ws
j ump
ag u
ĠPat rick
w ing
Ġtil es
Ġmonotonic ity
D ot
-> ]
ĠLear n
Ġre act
di rected
FORM AT
}^{ +\
s low
ĠI ssue
pop up
L G
incip le
restr icted
Ali as
ain ter
Ġw elfare
ra ge
ĠEqu ations
ĠA x
< $
Ġthunder storm
4 95
Ġc of
IN VALID
pay load
ĠT ai
ĠRep resent
ab lation
E mit
Ġencryp ted
ER N
ol id
log ical
^+ ,
Ġanten nas
qu o
Ġlog istic
Sub ject
SU CCESS
ari ance
Ġ }).
K W
& (
Ġh int
__ ,
ĠS tack
star ting
+ "
Ġ" ./
Ġgroup oid
se man
Ġp sy
is cal
D eg
F etch
p z
Ġref ine
ĠScholar ship
ĠComb ining
ys on
Ġsee ks
iv an
}) ).
String Builder
0 20
Ġsustain ability
ĠR ender
18 6
Ġb reed
Ġ$ *
)\ }_{
Mod al
M ills
Ġmis match
cross ing
23 3
Ġoff ices
f lip
}} )$,
Ġtail s
2 14
ãģ ®
Ġhost ing
Ġminim izes
re li
C AP
Ġmaxim ally
ĠAg ric
ank a
7 20
lar ing
Ġe ating
ĠF ive
Ġbreak down
c B
st a
sh ock
Ġrecur sively
Ġmultip ly
] ->
il ty
g d
ç »
at ype
} ]{
th em
Ġliter ally
ĠM F
ĠTh ank
Sto kes
c amera
29 5
Ġfo cal
Ġt rem
PD ATE
) ],
Ġsp ans
ĠSt one
ipher al
us et
For ward
ction s
circ led
Ġdemon stration
ĠL M
Ġconvex ity
ĠE ag
bar a
achel or
ma to
AM S
Ġro ads
} "/>
d os
o U
Ġdef aults
ĠS ER
Sm ith
od i
Ġman agers
ĠSt op
ĠRec ent
Read y
pro ton
lit er
o vian
ho ma
Ġcomp ilation
Ġconduct ing
ic ed
ere quis
g han
ĠIm mutable
w c
Ġs id
ĠN ur
A rt
ĠM echan
ĠThom pson
sec ure
cook ie
Ġod ds
W F
D H
pla ced
a belian
for t
ov ich
co eff
ĠS itter
Ġsupp lementary
Ġfeas ibility
22 9
ĠAl low
Ġ\; ,
Ġdi am
D onald
li est
Ġdig its
E lectr
ĠCamb ridge
ĠIn iti
G i
Ġgen re
L AB
( `
40 5
Ġaccomp any
ograph ical
ĠO ak
C lean
ti um
pp y
ĠM ul
ĠP ick
ĠS olutions
f u
Å ¾
as spath
Ġ" _
B ER
wide text
Pe er
I ts
th s
ric ket
az y
Ġvalid ated
b j
Ġload s
ug al
Up load
Ġj ack
CRE ATE
ĠE rr
22 6
" }
re duce
ho sts
ĠV M
Ġkey word
Ġsub manifold
P ipeline
Ġrep utation
ĠComput ing
ĠS ix
ĠH um
Ġch ir
Ġam id
IT LE
Es tima
9 78
'' }
Ġflav our
ĠPU BLIC
le ases
ĠCl ark
Ġmet als
hier arch
Ġc u
ĠJe an
si zing
Â ·
st rategy
ĠD un
Ġ* ,
in ate
AN GE
irection al
la tive
IS A
ĠDat aset
uk i
}\ |^
Ġbroad ening
}} }_{
18 2
Ġanswer ed
Ġgu ided
AA AA
Ġvio lated
Ġhet ero
}$ &$
Ġcomple ting
lit z
Ġcoun ted
A rr
Ð½ Ñĭ
ĠS ou
ious ly
ĠAuthor ity
Ġl unch
ĠHy per
Hy per
there fore
âĪ Ĵ
Ġ( `
ues tions
H s
In clude
) &=&\
Ġp s
ĠHamilton ians
TableRow Color
Ġin sufficient
ĠF ollow
Ġat tained
Ġdep ression
Ġdemand ing
st ory
ĠV ar
ĠPh one
R ew
ĠF act
Ġj un
Ġsupp lement
30 5
Ġcr u
ĠS amsung
ĠAltern atively
Ġ ties
Ġs tic
ĠBe ing
Ġf li
ĠC artan
ĠColumb ia
Ġspirit ual
6 25
[ (\
Ġn od
Ġhel per
ĠL ev
Ġsur rogate
pre ced
ĠR ange
T OP
ĠM LP
Ġcovari ates
Ġdesign ated
ĠV R
Ġcampaign s
arg min
ĠImp act
Ġpossess es
ĠCre ated
Ã© e
bar s
Ġb ump
Mon itor
ĠL ower
Ġl ifted
B ol
R W
ĠCon struction
t in
eg er
Ġâ Ĥ¬
ĠConn ection
Th ird
Ġpla cing
p ace
å Ń
ull er
Ġthem es
sp ection
l ists
22 3
Mid dle
ogen ic
utor ial
Par ticip
normal font
Ġtend ency
Ġdif fraction
Ġex cluding
ĠA ST
Ġfeel ings
we i
Ġasympto tics
con figure
Function s
Ġc rop
Ġ( #
ap olis
s ound
Ġcomfor t
oot stra
Pay ment
ĠS G
ĠB OTTOM
22 8
comp atible
ĠSci entific
Ġconstit utes
fig ref
Ġexp ense
Ġmain tains
ĠLi u
################ ################
i ang
Ġsuper fluid
re tt
19 1
)\ }
hi bition
Ġperson nel
respon sive
ĠSta dium
Ġpolytop e
M n
Ġmathema tics
y x
sub string
Ġdec ode
Ġd eter
at um
du st
cy cles
assum ing
ĠS GD
p ow
ĠSt orage
Ġorb ifold
})$ -
ĠDe bug
Ġhop ing
ub a
ĠN etherlands
Ġ' ,
im ir
Ġacceler ate
en z
ĠH old
Ġassoci ations
Ġcorrect ness
Ġharmon y
Ġfr ust
ote ls
Pre liminaries
Ġint rac
ĠA V
ĠD omin
MB ER
ĠAnth ony
ĠMulti ple
Ġfant astic
Ġblock ed
S el
ĠH S
Ġinter stellar
ĠĠĠĠĠĠĠĠ ĠĊ
Cer tificate
ĠSp ect
i per
S us
W u
it arian
Ġdo ctors
rol led
ĠIllegal ArgumentException
ĠF eder
w ire
he avy
22 7
Ġb ot
ĠQ uestion
Look up
Ġ ^\
Ġm k
}} :
in tern
}^* (
Ġâ ĨĴ
Ġlic ensed
Ġk in
ĠY ears
Ġ[ âĢ¦]
Ġsix th
\% $.
ĠSt rategy
q p
Ġdiver gent
Ġin ches
b ian
F und
ĠC W
are to
strong ly
Ġreser ve
Ġplate au
ĠA ni
Ġspect ro
Ġeng ines
ĠBer lin
de legate
im an
Ġex empl
ĠR oss
Ġdef ensive
on z
Has Been
ĠWH ERE
ik a
Ref resh
bro ad
10 16
Ġdistribu te
Ġpack ed
ec urity
lic ates
$ |\
ĠM ill
sc apes
24 8
Ġiner tial
th ose
ĠH ST
tain ers
f h
The ir
algebra ic
mod ular
Ġfla res
ĠP P
Ġle an
ĠM otor
aa aa
dete ct
Sub stituting
look up
Ġbare ly
ĠIP v
d q
us al
ĠDev ice
La TeX
Ġsl iding
Ġdead line
lat in
2 99
trans formation
Ġsummar izes
Rep resentation
Ġminim izer
interpre t
ins ki
Dependency Injection
ĠD elta
Ġj u
ENT S
uma bly
K ar
ig a
co lation
Ġassert True
Ġcon es
Ad ap
Ġ" );
dis tributions
^+ _{
feed back
Ġn ano
Ġdiv ides
E LEMENT
vis ibility
ves ted
nucle on
Ġsh el
sw er
Rad io
ĠR ace
em b
nam ely
* }{
Ġre direct
ĠB ry
C ond
ĠR on
ig s
}( -\
Ġup stream
Ġpartition ing
Ġqu ies
M IT
Ġarm y
om eters
ass erstein
m oving
Ġag ed
DE C
entral ized
dat ab
N u
Ġpro s
ĠD allas
ĠZ h
. ',
ĠVol ume
agnos tic
te es
Ġch ances
ĠY a
di rec
p riority
Ġsupp lies
Ġpurch ased
Ġske leton
av or
draw able
p referred
Ġbright er
ĠChar lie
ĠAv ailable
col ors
Ġaffor dable
V e
hol m
Ã ł
ĠW R
Reg istration
Ġconven tions
end ment
Ġconc ert
d ocker
Di rac
ĠLe on
Ġid emp
ĠM AP
Ġview point
Ġgeneral izes
à¥ ĩ
Ġprog ressive
Ġholog raphic
Ġobst acles
ĠCo oper
rac ies
\! -\!
ĉ ĠĠĠĠĠĠĠĠĠĠĠ
ĠJ ane
Ġan ne
cap acity
Ġcont rollers
ĠK ir
Bel ow
ĠA BC
ub i
Ġtra vers
Ġch ap
Ġfree ze
Ġk itchen
0 35
Ġinf ections
23 7
Ġb ass
tr u
Ġda mag
ĠPre dic
ĠEg ypt
A nt
r ases
Ġte a
SPAC ING
Ġex cite
ĠC N
ĠB uck
Consider ing
Ġaccum ulation
EN ABLE
The ore
a que
Supp ress
M as
ing ers
ĠO cean
Bbb k
M ul
Par ts
eman tic
Ġped estri
ĠSty le
Ġsol vable
Ġpull back
rop ies
Ġlisten ers
G RO
n ology
per mission
sl ider
ound ed
Ġ// -->
enn ifer
S can
60 6
Ġfurther more
50 1
os calar
v u
}$ =
Ġvis ually
g ui
us ually
Ġsh ield
ac i
ĠM oney
con str
Ġb ird
Ġpers istence
Ġen compass
19 67
Ar row
V o
g rowth
ĠSe lection
N d
al ways
Ġhospit als
orth ogonal
__ .
first row
Ġrescal ed
Ġon t
Ġless ons
Ġvirt ue
ma d
ĠC orn
D ao
ma tes
ĠK lein
Ġbelief s
as ant
ol ph
Ġeng aging
Ġviol ent
be at
ĠBlo ch
^{ **
ĠR ap
ĠFor mat
Ġsc ans
}_{\ {
el lo
Ġac ute
ou ville
ĠHigh er
; {\
ĠSchool s
Ġharmon ics
ĠK u
Mark er
Sur face
care t
ĠMal ay
Ġmetall ic
Ġmal icious
ĠAtlan ta
ĠB us
] }{
c T
ĠU E
Found ation
RO OT
ymm etry
acc ording
Ġp orts
cor rected
Ġminor ity
H W
Ġp it
)$ ).
per fect
enti ties
Ġclar ify
ĠL C
J K
ĠS VM
Ġsav ings
)) _{
Ġcelebra ted
measure ment
control s
Ġ" +
ĠMC MC
Q P
19 64
edu ce
l ift
HasBeen Set
n h
ceu tical
Ġd am
Y au
Ġbary ons
Ex it
_- (
S hi
Ġn odal
ĠT YPE
Un til
Ġres cue
ĠTerm s
y ield
satisf ies
g mail
Ġenerge tic
tac tic
ĠGovern or
Star ting
é Ģ
Ar rays
ĠOb viously
w f
Ġperson ally
ĠAss istant
Ġiniti atives
; ]
Ġproble matic
ranch ise
Ġd st
ĠW ikipedia
- ,
Ġun labeled
deg r
26 3
ding er
Ġhad rons
Ġh ell
Vari ant
Ġrm s
T Z
Ġdraw s
Ġow ing
g ain
)) (
Ġback end
Ġc able
Class Name
ĠHash Map
4 20
CV PR
Ġpuls ars
ĠIsl ands
^{+ }
A f
\,\ ,
Ġscan ning
Pack et
in ject
Ġl n
ĠString Builder
si o
ĠKe ep
ĠA bs
Ġsubt racted
ac ces
ul pt
ĠC lose
Check ed
Ġf astest
Ġfor bidden
}| }
ĠH ay
igu ing
B log
scal ed
is i
ĠC lar
sub t
F ill
ä¸ Ń
ĠV I
tag on
P at
tri bs
D ark
a ud
ĠP G
Ġill umin
Ġc ul
cover age
Ġv ec
Can vas
)} |
K D
Ġterm ination
ĠS lo
? </
cite alp
Ġemp ower
db c
Ġdivis ors
nice frac
Ġroll ing
Py thon
ĠRam an
Ġun ital
C U
Ġco ordination
upload s
ir ty
Ġoffic ially
ass ump
ĠPal est
Ġemp loys
FA IL
ĠPre vious
23 6
R V
Trans former
Ġw ond
ĠSt ories
Ġdevelop s
Ġvola tility
]{ .
Ġ/ ></
fact ors
F ake
Ġk a
ĠCon vert
Ch art
{ }_
row ing
ĠCELL PADDING
2 18
Ġlo gs
center ed
Ġvio lations
S ocial
sim ulations
ĠCELL SPACING
og a
Ġsum ming
ÐµÐ ´
consider ed
}}$ }
dimension s
g ives
26 5
h k
Ġdepart ure
Ã§ Ã£o
F atal
ĠR and
Ġ$\ #
ring e
Ġlum inous
arc ia
g un
ĠS ide
ĠP or
An notations
STRU CT
Ġ æ
Ġpick ing
cap tions
24 7
ĠG arden
ĠRe LU
f ew
pro blems
An gle
CO UNT
ME SS
ĠS ustain
Ġprom oting
tr ust
ĠĠĠĠĠĠĠĠĠĠĠĠĠĠĠĠĠĠĠĠĠĠĠĠĠĠĠĠĠĠĠĠ ĠĠĠĠĠĠĠĠĠĠ
Ġar rest
D im
ĠM ission
Ġevery day
Ġfinish es
S am
pop ulation
Rep ly
ĠThrough out
or on
Ġheight s
Ġ. /
[ <
ici ency
Ġexam ining
O G
oc a
Ġalgorithm ic
ant on
ĠK K
Ġent rance
ĠC ache
ech eck
ACT ION
ayes ian
parent Node
â Ķ
ĠCons ult
K o
h ind
ĠAt tack
statis tics
ĠE lection
con tribution
Ġnever theless
over flow
ĠK ansas
EX PORT
Ġma xima
0 33
Al ert
Ġground s
ĠEmp loy
{ .}
Ġbirth day
Ġcla uses
ĠW alker
Li pschitz
ra pped
un es
p ick
Ã ¥
File Path
p rac
Ġaxi oms
oun ters
ides pread
ĠLe vi
Ġgrid s
Ġcentr ality
Ġra mp
ĠWIT HOUT
ĠC ow
Ġenter prise
.~ (
78 9
ĠE OS
D N
ogon ality
sub fig
ĉĉĉĉĉ Ċ
Cal endar
/ #
D J
Ġas semble
ĠD rop
ĠWork s
ec es
restr iction
Ġdig it
ĠCommun ications
Ġs cripts
Ġg lad
ĠGa ia
INST ANCE
wit zer
Ch unk
mit t
ptr c
Ġton ight
ape u
Ġjo ins
comb ined
sub scribe
âĢĿ )
Ġfor got
Ġre nd
Ġstr uck
28 5
T ry
Ġs napshots
ĠW olf
Eq s
Ġtalk ed
Ġsynd rome
is ta
Ġg ent
um ination
Ġw aters
Ġconfir mation
ĠWeb site
}$ '
ĠCO M
ĠStra teg
Ġcorrel ator
J uly
om i
Ġtran sc
ĠRequ ired
op ens
Ġpower ed
Sh adow
ĠLe ave
Ġg it
Ġformu lations
l inary
Ġnecess ity
ĠB ir
ĠL GB
ĠQ ual
ĠH in
pp le
Ġun necessary
ax ial
^+ }
My r
Ġhor ror
Ġsur ge
x c
ĠR ick
Ġat titude
Ġeff icacy
o a
mark ed
ex am
A mazon
Ġres ort
Ġsil icon
ou x
Ġdepth s
ĠScot land
Ġtransform ing
' }^
to Equal
Ġconcaten ation
Ġ[ {
Ġmonop ole
en tive
Ġz ip
ĠW ard
j ets
er vation
}} |\
iv als
Ġmy stery
V an
j m
ĠO UT
)( -
Ġcategor ical
Ġsp urious
Stack Trace
FLA GS
Ġat tain
inal s
Ġg ear
pub lished
ĠFor um
glu on
' )$,
cre ation
Ġpos it
Ġ\| _{\
Ġwas h
Sign al
Ġaccum ulated
Ġdetec table
ĠAttor ney
if ford
ĠD ist
30 2
Ġvoc abulary
Ġlaw yer
å ľ
ĠLead ership
] ^{-
ram id
Ġfund ament
ĠDel hi
ĠTh ink
Ġdiag n
J ames
m art
ĠR ather
ĠN ev
Lower Case
ING S
I mm
ĠD iffer
up ta
ĠLeg al
ĠÐ ¼
render er
ĠM HD
Ġsem iconduct
Ġaggreg ated
merc ial
ĠUp dated
H V
Ġchar ts
ĠJ ud
W rap
e te
ĠB A
H uman
/ }
Y P
ĠU T
ĠDe an
L oss
Ġs el
pre view
REQ UEST
ĠCon ver
ĠTrans form
ĠT ik
Ġbut ter
Dec ember
q t
Ġenc odes
Ġattempt ing
Ġass ociative
> {\
ĠP ad
initial ize
s ender
ĠR ES
M LE
ĠG irl
Ġaffor d
ĠL yn
Ġregular ized
Load ed
Ġlegi timate
ĠUkrain ian
] ^\
| )
Ġprob es
Ġdeliver ing
ĠSa int
ĠK S
ĠC lean
Ġlo ose
row Color
Ġavoid s
ĠIN T
Ġreduction s
ĠTrans fer
lb rack
ĠB essel
work er
ĠF ish
sm art
ben chmark
Ġmic rowave
Ġac y
u tion
ack s
top ology
ĠEd ward
Ġ" ${
Ġmis take
{\ "
Ġpro c
Ġ\ }_{
Ġr uling
AN S
Ð» Ð¸
ĠP V
ĠB ush
Ġforecast ing
ĠAf ghan
Java Script
co efficients
N ONE
| _\
ps y
etro it
Ġnavig ate
Ġper f
B an
ĠOffic ial
k b
ĠM itch
ĠN ich
t cp
ĠG round
Ġinter play
3 12
ĠB BC
ĠL MC
ĠK er
ĠCre ative
ĠL oss
Ġign oring
ĠM organ
Tr igger
Th ough
ta tes
Ġto w
P adding
g ender
ĠĠĠ čĊ
Mean while
ĠMax imum
Pa int
S td
] >
,\ ,\,
ĠS ame
iss a
ou ver
Ġobser vers
n ick
c ies
Ġ lambda
fil er
lum inosity
à¤ °
Valid ate
Sta tistics
Ġre jection
ĠC HE
set Attribute
F ermi
Ġtrip les
ĠN H
ĠT ak
ĠIn telligence
Ġad mission
PC A
l v
ach uset
Ġcau tion
ec om
c ategor
32 7
D ITION
ac ute
H ER
ke leton
Ġpo etry
gather ed
ĠD NS
En tries
dir name
OS C
Oct ober
ĠC ould
ĠUS B
Ġinvolve ment
ĠD T
Ġconflic ts
19 65
ĠSte in
Ġper ceived
ĠM uch
Dest ination
achuset ts
Ġhor se
}( {
Ġquadrup ole
c ached
ren ormal
Ġm ounted
Ġtriang ulation
ĠOnt ario
Ġlo ves
um bs
ge b
Î »
re vision
C ent
ock ets
G rad
z ech
ĠK IND
Ġfoli ation
ennes see
in ian
Ġhistogram s
Ġapproxima ting
Ġsm ile
x e
ri z
Ġtra ins
ĠN BA
f re
ring tone
ĠAd ams
ĠN an
ĠPhys ical
ĠLa unch
ĠI a
tow ards
: \\
Vis itor
Ġsmart phone
ĠJ ac
US A
ĠRes erved
d ney
Ġtran sitive
Ġag gressive
Ġla titude
decre asing
Ġd ad
h ub
Ġvo ted
ph ony
ĠPo sition
ĠCommun ication
)} }$
Ġterr itory
6 40
Ġr hs
IN IT
Ref lection
Ġ\\ [-
Ġemer ges
m ir
he ating
ĠS ent
ĠFirst ly
RE NT
ĠStar ting
Âł Âł
ether ian
n pm
Ġv ox
Ġpre vention
dest ination
ob jective
L im
ĠOr ig
Ġde leg
Ġcli que
Big gl
Ġdro pping
ĠC MD
Ġno tably
ĠPoli tics
ĠCh ain
propag ation
Th ank
Ġrec ruit
horiz on
Pay load
ĠP ier
inter cal
sur ance
}| _{
ĠPer iod
Max imum
Ġ\; .
I r
b eg
Ġtop ologically
ĠMan chester
Ġtrig gers
ĠU TC
ob tain
ĠCon v
Ġswitch es
ĠBow l
ins ky
Ġrevers ed
L com
ĠSh are
}- (
r ings
)| $
Ġpro mp
]( #
ĠRo berts
zh ou
"> &#
CO M
Ġres is
tw isted
nipp et
ic ating
Ú ©
)\ |^
St at
spec ially
Ġsearch ed
Ġprior iti
ur u
Ġgener ically
Ġtransmit ter
we ather
Ġinterven tions
Ġsoldi ers
! =
Ġpo ison
Ġd oping
Ġin telligent
ol en
ĠR ole
Dest roy
******** ****
Ġt ent
Ġfila ments
Ġampl ification
N il
ĠArch itecture
h et
[ _
ĠM AC
erial ize
AB ILITY
f red
Â Ń
Ġapplic ability
Ġsmooth ed
ĠPar ticip
ĠBlo om
ac ed
ĠR ome
ĠT ensor
Ġstabil izer
DE S
Ġb g
ir ts
Ġob struction
IN DEX
Ġarr ives
0 45
c X
==== =
iden tified
ĠS el
inter actions
ĠD ictionary
A ge
Ġb ending
append Child
ĠFac ulty
& {\
Ġre versal
ĠT ar
ĠMc K
des criptor
decom p
Ġlo cale
Ġi ii
optim ization
ĠF T
ĠCon sole
Ġre calling
Q t
ĠBu ff
? (
M AC
Ġint ensive
pro f
ĠAt tribute
short cut
m us
et ched
TH ER
ĠComple te
Mer ge
Ġor al
Ġbut tons
co res
styles heets
Vis it
Ġ$ +$
Pa ul
\, }
mark er
schema s
ĠT ick
amp ions
Ġpur ple
Eu rope
order ing
Ġincredi bly
Ġprogen itor
g ical
Ġd ressed
over s
Ġcra zy
calc ulated
ph ic
Un like
auth ors
mu tex
Sec onds
d og
() [
ark s
emp loy
B and
ar bit
Ġlo go
conf irmed
witzer land
elastic search
E r
Ġconc ave
ĠC el
ere z
0 18
Ġminim ized
trac king
ans en
pro files
amil ies
Ġtwe et
Ġv iral
,\ ]
an th
u w
Ġ(- .
Ass ign
ĠC ris
char ts
ĠOx ford
ĠB ottom
Ġheav ier
J e
Ġassign s
Ġcompo sitions
Ġpublish ing
ather ine
Ġcondition ing
bb on
Ġpass engers
ĠF al
ĠInd ones
ane ously
ti ff
Ġcoinc idence
Ġtom orrow
b Z
Ġpress ures
El se
ĠR ub
FLA G
v w
Ġsatisf action
Ġoutflow s
W ould
ĠDe te
_* (\
Aug ust
i ot
Ġa es
Ġli ver
Ġenc ouraging
N AS
Ġdisc ount
)\ |_
Ġla pt
r ator
Lear n
mix ing
Ġd Ã©
NG TH
25 4
Ġd ial
b ac
ma tr
ter min
Big gr
ootstra p
Ġn ations
dec oder
Ġl ingu
Ge o
Ġemit ting
Ġ( <
app s
ey er
~ &
è ¡
ĠY an
v k
33 6
Ġcompu table
0 17
ld er
Ġ" )
Ġ\! \!
Ġgroup ed
Pop up
si bilities
, *
Ġprac tition
aff ected
J ournal
ĠB og
L ip
Ġre tained
ĠV A
Ġrec ru
AC CEPT
Ġb ubbles
sl f
member NameLink
ĠP rior
if ference
B ranch
Ġag enda
Ġaut omorphisms
Ġhalo es
cat alog
Ġ| {\
Ġdou bly
appropri ate
ÐµÐ ¼
ĠN ik
Ġres ident
): \
Ġmask ed
ĠCour se
ul ous
gra v
ĠG l
Ġpol ym
disc ip
I ENT
}) .}
Ġb less
ĠC ut
â Ĩ
Ġ} ^
Ġperiod icity
Ġnonlinear ity
30 3
F IR
n ical
Ġd w
ĠE RR
. ")
25 2
Long rightarrow
Ġrespond ed
fail ure
g alaxies
ĠQ ED
c annot
squ ares
ĠLic ensed
IS O
ĠF DA
U UID
ĠL iving
ĠCh allenge
ĠZ ero
N LO
ĠG S
Ġshell s
Ġpick s
ĠLay er
L uc
ĠR isk
0 100
value Of
Ġsett led
v ark
sc ience
Ġimm ig
Ġ\ }.
ĠV L
ĠAl liance
Ġrestric ting
PA SS
ĠS ay
}} ),
Ġg ay
ĠAtlan tic
gr pc
Ġvolunte ers
Ġdis advan
Ġhist ories
Ġn ights
Ġ| ^
Ġgraph ic
Ġdeli ber
E A
23 9
e i
ĠB ou
ĠIn fo
ĠC DT
si le
ĠNewton ian
ra ther
^{* }$
$. )
in z
Ġref uge
x a
ĠPro file
Enumer able
Ġab ilities
ĠTur key
ĠRE AD
Ġshould er
24 4
B W
ĠF F
Ġsp ite
Ġenorm ous
D ifferent
Ġf m
ĠCON FIG
Ġlock down
im i
Ġcod ew
ĠW u
N ovember
P ending
Ġal beit
Ġp ipe
De fined
Lin q
ĠM RI
Ġflav ors
' }$.
q c
ro ut
ID ENT
Ġinver ted
Q M
g old
our ced
Ġtransf ers
ĠN ull
Ġport al
Ġh ab
m arg
Ġdecoup ling
Ġlight er
Ġrac ing
30 7
hash Code
Ġattach ment
Ġloc ate
Ġinf lam
fl align
Own Property
T ON
Ġsub stance
ĠAd vent
W al
f req
le mm
R u
Ġflu ids
Rou ter
Ġb row
Ġlo s
Ġess ence
ĠO DE
24 6
ĠDise ase
con jecture
Ġsurve illance
Ġla ke
cept ual
Ġ$ >$
Ġ$\ ,
ĠI gn
Ġnormal ised
quad ratic
M ad
Ġperm its
ĠMathe matics
A rm
h il
Ġs ib
Ġb ranes
" ])
Ġbal ancing
sh iv
Ġ _\
Ġuni versities
ĠStr ong
ĠGR Bs
n om
en es
itro gen
ust s
Ġweap on
Ġatten uation
N am
S amples
Ġbe er
bal ena
Ġf ading
process ed
ĠConst ant
mod ifier
ĠF arm
Ġamp le
Ġf lush
col n
Ġcon ce
ho enix
Ġpos et
K h
ĠC hat
attr s
Ġw idespread
Ġc ock
ĠC reek
Ġm it
ST AR
Ġutil ization
Ġal leg
ĠPar liament
Allow ed
ath ers
Ex act
ĠSt ars
å ¯
C UR
ad apter
ĠN ations
ĠU pper
Ġph ones
Ma jor
[ ][]{
Ġpass phrase
~$ {\
å Ľ
3 70
Ġquanti tatively
ĠQu ar
ĠN ar
Ġfer romagnetic
Ġel imination
Ġkw args
Ġdis continuity
Ġneighborhood s
T aylor
ĠAd ap
us c
oc on
ĠCom pe
L ite
squ ared
ĠMor se
Ġdissip ative
Ġco operative
Di agram
ĠB eyond
ec ycle
ĉĉĉĉĉĉĉĉ ĉĉĉĉĉĉĉĉ
ĠWIT H
min or
ĠAccording ly
Ġiner tia
c id
Ar n
Ġ[ $
Ġteles copes
S y
Ġdate time
Ġprevent ing
col ogy
ss s
Ġher itage
Gener ate
I p
ĠG ET
Ġdisorder ed
per ed
Ġhome omorphism
Ġlux ury
Ġw inding
Ġp df
Ġple ased
N ested
W P
Th reshold
mas sive
la cing
Ġunit arity
valid ator
Ġexplo res
b ary
Ġexhi bited
Ġ ,\\
ut z
Ġde emed
Ġdisc arded
\% $,
r cl
st y
Ġg allery
Ġl it
ĠĠĠĠĠĠĠĠĠĠĠĠĠĠĠĠĠĠĠĠĠĠĠĠĠĠĠĠĠĠĠĠ ĠĠĠĠĠĠĠĠĠĠĠĠ
Ġflu ores
] *
Ġm ice
ĠR ules
ĠUs ers
25 3
ĠSing h
Ġst ating
B ob
× ª
effici ency
Ġicon ic
Ġexec uting
Ġdis s
Ġviol ating
E B
Ġb at
L HC
li ver
ĠCar l
ĠD ynamic
ĠS MB
Ġdomin ance
Ġdecom positions
K r
ĠL am
B lo
Ġwave let
ĠN IR
ĠBet ween
Ġellip se
j obs
m ill
process es
Ġpaint ing
ĠQ uality
] /
Ġs lit
Ġis ospin
Ġmod ifying
] \,
in ser
ĠĠĠĠĠĠĠĠĠĠĠ Ċ
ong s
u ator
Ġsim ulator
Al ign
T urn
Ġt an
Ġenc ounters
cover ing
bro ken
quoted bl
Sep tember
W ORK
ĠD ick
B row
Ġn omin
Ġcross ings
B LOCK
Cred entials
g alaxy
text quotedbl
Ġstiff ness
titu tion
la homa
rac ks
M usic
ati ents
R X
Ġan tic
pe er
ĠCon ditions
Ġorgan isation
Experim ent
R IGHT
S up
ĠB AS
ĠD am
ĠRe ading
26 2
hel lo
ĠGener ate
N UM
l q
col our
)$. }
ces sive
ĠYou th
Ġmar tingale
Ġsh ed
Ġcor ruption
St ation
max imal
top ological
baselines kip
i ar
Ġla d
AR RAY
Ġstake holders
W ire
Ġpreval ence
lo gy
amesp aces
}^+ $
à¥ į
ĠM ode
Ġdist inc
loc ations
Ġcondens ation
WR ITE
h en
te le
Ġc abin
Ġa partment
fl uct
network s
mem Item
J O
FT WARE
re cent
Ġtechn ological
Al ignment
Ġre use
sequ ential
Ġgra ding
ĠRem ote
%%%% %%%%
r ise
40 3
is omorphism
28 6
Ġf iring
tis tical
vent ory
ple te
' ][
to LowerCase
Ġp ad
No tes
F oo
t ro
Ġsp atio
Ind icator
ĠF ock
sp ark
xi om
F oot
ãĥ ¼
> /
], [
Ġph ysi
Ġ ))
ĠTra il
comp iled
ĠS K
Ġvo ices
Ġassign ing
ov y
ins tead
x ref
repres ented
ĠL G
\, {
tor sion
ĠHer itage
an ies
ĠExp ect
Ġclean ing
am ous
Sch ool
Rus sia
ĠTem plate
' }),
B ri
m ess
30 8
Ġdream s
back end
Ġpres idential
Ġsh aped
ĠSta tistics
onom ical
ĠR HS
ĠExper ience
Ġimmer sion
ĠDe veloper
rid es
by e
Ġcall er
if rame
Ġ' $
samp led
A UTH
="# "
AN N
Ġrest ored
Ġinvent ory
ĠS TR
Ġex erc
ĠT ypes
g aussian
ĠSe pt
="# ">
Ġantis ymmetric
ĠC CD
ĠDec ision
Ġabst raction
}, ...,
lit eral
Ġorigin ating
Ġcontro versi
ĠIs la
ĠBern oulli
are l
ĠW ind
d ump
Back up
Ġrefere e
AT O
h it
Ġto String
Ġwork shop
Ġiso late
post s
radi al
ĠI MP
Ġweak ness
lock ed
'' _
comp ared
G ar
Ġ& (
ĠInter face
Ġcl ump
Ġkey words
ĠTr igger
Ġadmin ister
es pecially
oper ating
Ġcompr ised
Ġc av
Ġm ari
Ġdeli vers
or st
ĠB attle
and al
non atomic
: \,
Ġcomp elling
AM L
Str ong
Ġ"- //
requ ires
Ġsuff ers
Ġanti fer
ch rome
T witter
Ġh ail
25 7
Ġcomm utation
' }{\
ing ual
R outing
cr imin
Eng lish
et ype
n P
val s
ĠĠ ĉ
st mt
S olution
ĠSp irit
t une
Ġop tics
Ġfail ing
ĠJust in
M illis
ili ation
oxy gen
Ġpos session
ie ve
19 66
St udent
ĠD eg
ĠG ard
Build ing
ĠCurrent ly
Ġsus pended
statis tical
anc ouver
fra id
Ġelabor ate
ĠSy dney
inter section
M icro
Ð ¹
ĠP attern
ĠW ales
it ored
Ġthermod ynamics
)$ ]
ĠB EC
H int
T an
Ġtang ential
Ġfant asy
w y
ĠR ain
Ch ina
e poch
Ġvor ticity
Ġt ape
> `
J ul
Ġfollow ers
el ing
ĠK os
Ġdi et
Ġemail s
s om
ra k
ĠE volution
inter est
tr icts
_{ [\
eg el
18 1
Ġmet as
Ġtag ged
}\, (
ĠE pisode
Ġme th
Ġlear ner
CO VID
vari ety
K R
Ġin elastic
Ġcre am
tig ation
Ġis ometric
ĠM n
ĠB rowser
Ġen titled
ron es
Ġdomin ating
ĠApp ly
ĠSol id
Ġb ib
ven ted
Ġautoma ton
ch iral
l arg
Ġintr iguing
ĠCollection s
Cook ie
6 55
ĠK el
in cess
Ġdon or
Ġre form
Ġch est
local ly
ĠB run
po or
4 60
C lo
Ġw orm
ĠV a
heim er
ĠE ve
ber ta
Ġparameter ization
Ġutil izes
Ġg ang
cep ted
Ġre vised
Ġwe ird
Ġcharacter izing
Ġab lation
other mal
: ]
Ġun ve
ĠE dd
ound ing
Q T
Ġneighb ours
ĠJon athan
Ġ/ .
comm unity
ĠVictor ia
ĠBel g
Ġt ale
ap tic
um mer
ri k
Ġtrac ed
Ġden ied
Ġwin ners
Ġdes per
ener gies
Ġdis aster
[-> ,
}\ }\
Ġt ar
F IN
M om
Ġhospit ality
imp ly
ĠAr chive
sup seteq
A pis
ĠJ oint
Ġpublish er
, (\
ll bracket
ĠO s
sub scription
Ġrefer enced
incip les
Ġrestric ts
k ed
Ġun correlated
ĠT C
20 24
ĠPrem ier
h ai
ĠO B
Ġrep ulsive
ch r
Ġcal or
ĠD ur
SER VER
Ġsupp orters
up d
Reg ular
+ -
Ġfavor able
ĠM AT
D OCK
Ġv essel
ind ividual
ink s
ĠB ull
or tions
ĠLet ter
ĠP si
Ñ Ī
Ġpri ze
× ¨
ĠK han
Ġreg ards
Ġfasc inating
y outube
ĠHaw ai
B AL
frac tive
Ġshe ets
Ġdoll ar
vi ol
linec olor
ĠOper ations
24 3
Ġunivers ality
u ce
imp licit
Ġmon oid
Ġdiver gences
term inal
iv a
/ -
}} [\
Ġsing ing
Ġund ers
ĠAct ually
Î ¼
ĠExp ress
Cho ice
Ġ\ },
vari ants
ĠClass ic
Ġaccept ing
Comple tion
Ġpro tot
Ġintel lectual
Rec on
oc cup
Ġad verse
Con versely
Ġwave form
] }{\
s leep
ĠO il
Y oung
ĠW a
ĠU rban
Ġgeneral ised
xx x
spec ies
Ġsoft max
P t
{\ ,\
MESS AGE
E O
ous ing
Ġtra its
MA IN
8 75
Ġ. =
bad ge
E ST
ĠCon stra
b mod
pol ating
Ġleak age
in vol
Ġl l
Ġmon odromy
i ents
separ ated
3 90
sh rink
preced ented
Ġc ave
å ¼
bu ck
27 9
Ġconf used
Co ins
C MD
dec lare
Ġbase ball
d ar
---- ---
Let t
F acebook
Ġpor tions
_ [
r lap
Ġs lip
satisf ying
St mt
ĠD utch
z illa
Sim ons
Ġcom ic
ĠS r
ov ic
osc ow
g ive
hol omorphic
] +\
Ġconjug acy
ĠBer ry
ĠM ind
bo y
Ġdrink ing
M el
clo s
rr bracket
OB JECT
C e
rest ore
Ġaccep ts
ĠM enu
the ight
Sm art
Ġacy clic
s and
Ġa ud
BU ILD
car bon
level s
ĠF ight
Ġcontras tive
\ }^{
ĠVilla ge
to on
Mar shall
Ġmod alities
un ately
end ors
ĠGener ation
$ ''
0 80
Q E
Q N
d N
laps ed
Ġh older
Ġglu ons
Ġnewsp aper
Ġcomp et
Ġgather ing
b eck
m yp
Ġs witched
st rength
Ġepid emic
Ã ª
Le ave
Dec oder
ine quality
}_ -
Ġcol linear
ĠRou te
K O
pp i
re ports
Ġhem is
Vis ibility
T ODO
Ġw edding
Ġsug ar
unit ary
Ġl ifts
ret ched
D iffer
Ġpost er
S ug
ĠT ests
Ð¾Ð ³
in ery
ĠT W
Ġel ong
mog orov
Ġre ven
ĠB eck
SO s
depend ing
ĠFellow ship
aspect ratio
n ag
Ï Ĥ
Ġdec ent
}= [
Ġreflection s
> }
IC AL
CL U
te ss
// ----------------------------------------------------------------
met all
æĸ ĩ
Ġbounded ness
ilibri a
Ġmis takes
Ġrapid ity
Ġ} (\
4 40
k x
ĠSupp lementary
ĠCr ime
in vestig
ĠK ap
rep ly
Cap ture
in fer
Ġsatisf actory
Q s
Ġm ile
ĠK an
Ġsemic lassical
h az
Ġre sembles
0 60
Ġ iv
ti sts
Ġstrength en
Rece ive
Status Code
Ġappe aling
ĠST AT
I a
Ġmaxim ization
9 80
ĠA UC
ni kov
vark appa
Ġcl umps
Ġcar riers
Ġr s
ĠDe tection
stro ke
ĠM un
Ġthere of
Ġalter ed
MPL ATE
}~ (
ex ecu
> ()</
// !
ĠV el
Sty les
ĠF eed
Ġex changes
35 5
Ġatt ractor
12 34
ĠS core
An chor
similar ity
Prim itive
ĠPrac tice
C ES
tun ed
Ġcompac tification
Phys ical
ad missible
iter ation
Ġattr s
Ġmand atory
Ġan ch
B g
ĠB in
Ġpath way
ĠRay leigh
st rom
Ġquan tified
Ġ$ }
ue z
ah a
eg u
Ġdi abetes
Co ord
Ġquar tic
D up
ec tious
m ob
Ï ħ
ĠD al
input s
bl ur
ug s
Ġprob able
Ġund irected
custom er
reg ression
Ġsimpl ification
st en
=" //
$ )}
K a
up id
sh ops
24 9
ext ype
Ġsequential ly
Ġkey board
Ġout ward
St ra
re action
War nings
{- }\
Ġsynthes ized
cor por
Ġin door
Ġrep lica
Ġschema tic
cy clic
}}, {\
T oggle
ch ip
Cat alog
Ġstrugg ling
ac er
ĠAl ong
Ġproduc ers
ĠU SE
à ¦
ĠE ns
Ġl uck
AT T
R H
Ġdec e
acknow ledgements
P K
ti r
20 48
col ored
Listen ers
Ġcommut ator
ac s
art z
Ġdec ides
ĠJ udge
ĠPh ilosophy
ĠPoli tical
S rc
Ġthe ta
Ġdr astically
Ġagree ments
f eld
ĠUp on
Ġcur riculum
\| ^{
Sh ift
Ġass ault
Ġoccasion ally
oco late
Ġextra ordinary
Uni ted
ardi an
G ro
Ġ\ @
ĠG ov
as si
iti ves
ote ch
ĠF ront
P ACK
n able
Ġcancel led
ILE D
T en
Ġph osph
De partment
volution al
s ph
ĠN J
ĠS ab
Ġon click
to k
Ġaudi ences
n ets
Ġper c
re mo
con taining
ast y
Ġprom ises
wart z
per turbed
ich e
Ġge o
aff ine
Ġs quad
Ġre gex
AP PL
Ġinser ting
Ġconstitu ent
ĠB ureau
" </
ĠL iver
Ġtrem end
_{ ,
_ -\
d E
Ġmim ic
Â »
Ġd ating
Ġprocess ors
ĠW ait
Ġorig ins
Ġt ap
C laim
ĠB lood
pro x
Ġoscill ators
Ġdec oherence
Ð½ Ð¸
Ġrac es
ĠG OP
Ġim balance
af ka
Ġl t
ĠL ED
Ġsystem ic
ut sch
Ġbroad ly
M artin
S lot
Ġh oney
H aw
ĠM V
scal es
Â Ģ
Ġdis orders
Ġdivis ible
thread s
] -->
over ride
com bin
Ġl un
ĠArch ives
C FT
g low
Ġper colation
Ġspeak s
ĠIndep endent
pos er
Ġold est
j sp
P ref
s napshot
is te
Ġfavour ite
' ):
Ġp ink
ĠN az
Ġapp ointed
^{\ ,
st derr
Ġapproach ed
ĠA belian
Ġst y
24 2
Ġcom mod
lat on
ĠMass achusetts
ĠF an
ĠTrans action
integ rated
Ġbrilli ant
ip olar
Multi p
u h
Acc es
ĠM IN
| ^\
Ġas ynchronous
Ġcompact ly
dat asets
organ ization
ĠB inary
ĠEvery thing
Ġro tated
ĠKore an
Ġd S
In ser
Ġround ed
H en
y our
me th
ĠAr gent
Ġutil s
Ġincorpor ates
ĠD ays
ĠB D
Ġla zy
Ġsol vers
33 7
ĠCustom er
g rey
z ag
Ġre dis
Ġsched uler
f ts
ĠH it
Po sitive
Ġanni versary
ĠG Cs
ĠĠĠĠĠĠĠĠĠĠĠĠ ĠĠĊ
}} }$.
Ġcon vey
Ġen velop
Ġtrans l
C tx
~ }
p w
long mapsto
ĠB F
nov ae
ĠCont ract
Ġan th
nos tic
ĠBet ter
W L
Ġacc oun
SH A
Ġb ounce
def aults
25 8
clear page
Ġfoot print
ĠB eng
ĠU tah
Ġ\, {\
Sub mit
to kens
co ins
Ġgot ten
Ġd ub
Ġcor ona
b ys
ĠC ME
ĠAn ne
L am
g ger
Th ose
end region
as ym
comp uter
Ð°Ð º
G ateway
Ġs eq
Ġhash Code
0 34
Ġhyp o
] (\
resp ect
Ġsh ipping
MA KE
erg i
Ġp ra
Ġtra pping
; =
ĠC ategory
Ġsh ips
H idden
ĠIndian a
ext rac
Ġjournal ist
P ages
Ġc dt
Ġquies cent
ĠV eter
V ir
ĠL T
ĠG PS
Ġres ol
32 8
Ġmonomial s
Ġcr imes
ass et
hu ang
place holder
ri p
H ex
Ġj am
fla re
Ġsort ing
/ '
ĠF ant
Ġrepe ating
ST O
$\% $
m il
Ġin distinguish
)\ ]
wall paper
ĠDu ke
Ġpsych ological
ib ly
rem um
ĠO H
ÂĢ Â
IS H
ti tem
ĠW y
P recision
ĠD ak
Ġ} _
Ġdim er
ĠO THER
Ex cel
Ġreveal ing
Ñ ī
window s
em ale
ĠMar shall
Oper ations
ĠP ast
Access or
ran ging
Ġcomm uting
Ġconver ging
Ġarrange ments
Ġpop ulated
ĠE FT
Ġstabil ization
ĠFunction s
B la
Ġill umination
as ide
arch itecture
Comp any
Ġer up
ĠM ort
Ġed ited
cor responds
Ġchrom os
F lat
ĠO cc
Ġins ensitive
x l
Ġcompris ing
S heet
j ee
yn ski
\! =\!
ĠComm ons
W elcome
Ġdrop out
i w
pe ople
Ġmanufact urers
Ġrestric tive
numer ic
A IL
ĠSome times
n v
ĠS MC
Ġâ Ī
ator ies
Ġscal ability
Ġt ub
ba ma
n ested
ĠS now
ĠF ail
U l
ant or
ĠC ay
S em
+ ,
Im g
ĠTes la
ĠTransition al
_{\ !
' )^
ĠPr im
Abs olute
end i
ĠT ennessee
ĠAc tivity
PP ORT
ĠA A
Ġresid ential
cur r
ĠExperim ental
Ġmention ing
Ġread out
measure ments
rows ers
theore tical
ĠH erm
Permission s
ĠV ision
Ġco ales
ĠSp ort
den ote
ĠF ocus
size of
Ġfeed ing
'] ))
ta ur
filter ed
Ġreal m
istr ator
j ac
w ik
z el
Ġun safe
Author ization
Ġ( );
ĠM ix
Ġrepro duces
tab End
Ġrest art
H ilbert
ne tes
Bro ad
ĠF actory
B re
ĠE SP
ĠMin i
ĠVer ify
ĠHub bard
bern ate
J M
Ġ= -
Ġsever ity
Ġpre t
L ex
Ġd ummy
}_{ (\
decom posable
d ote
Ñ ĸ
à ¹
AR M
fl ash
ish ment
ĠW el
Ġann ulus
Ġb att
30 6
Ġbehavior al
Ġcere mony
ĠH F
Ġpropag ators
LE V
' )=
bit coin
ren a
F ront
m ount
M en
m ph
Ġcomp rom
Ġanxi ety
>> >
}/ (
Ġincrement al
ap oration
ĠK ids
Ġspher ically
S Z
ta tivity
ĠG ordon
Ġhar vest
ĠH ero
Ġdocument ary
F a
Ġ' ')
Ġpr imal
Be havior
SD K
CC CC
Ġast rom
Ġbon us
b ond
er k
Ġre try
Ġgold en
i pt
Ġclo thes
uber netes
ä¸ Ģ
f ib
Ġke yp
Browser Detector
0 27
ass ume
person al
Ġsuper potential
Ġliber al
ĠC amera
mu lation
32 9
ĠSecond ly
pre vent
cal ib
ĠH ung
pro posed
Ġthe atre
Ġsp ell
fin es
Ġworld s
Ġfore sts
studi ed
s ense
ins ide
ĠN ear
May be
Ġsemis imple
G rant
S Q
ut ors
log arith
Ġcor onal
Ġalgebra ically
Ġf ate
ĠTok yo
IT S
Ġex tern
l ifer
neutr ino
quir y
lu c
Ġc oded
ĠT T
ĠD etroit
ast ing
Ġdo zen
Ġabsor bing
ĠA lan
CP U
Ġroof s
Sta tes
Qu ad
ĠG D
en space
Ġde ferred
Ġar tifact
Ġtri ps
B eta
^* ,\
ĠEx cell
Ġdup licate
pers istence
Ġw ings
Ġpollu tion
j amin
pre diction
ĠAz ure
A h
b ic
ou b
command s
ĠB ag
Ġtop ologies
S lice
Ġse am
Ġc fg
ext ract
Ġtrack er
fund amental
Ġexpress ing
ĠLorentz ian
x b
ĠM ol
Ġ# #
per form
Ad am
Ġreg istry
Ġdiscrimin ant
ug ging
Ġrest oration
e ing
Ġmorph ological
Ġpromo tion
ĠTai wan
od ium
ĠL anka
ĠG rowth
ĠMary land
h aw
ĠMag ic
c um
i our
ANG LE
c R
{ +}
di ted
ĠO wn
29 6
Mu table
use box
ĠCNN s
d W
Ø ¨
ĠW oman
ĠM ail
Ġpat ent
P ark
Cal led
Ġglo be
Ġadap ter
F l
con cent
reg istry
Ġprotect ing
B ell
ht m
Â «
Ġx si
. %
power ed
Ġeth ical
ĠMay or
Ġbin omial
Ġnotice able
ĠIn surance
ĠR MS
Part y
Ġwork load
Ġprov ince
cur vature
Ġhand ed
Ġpos ed
Ġproduc tivity
35 7
Ġ// !
Ġin timate
ij ing
pay ment
Ġcharacter izes
, </
Ġg al
LE NGTH
Spr ing
Ġreg isters
RO W
Ġmain stream
cccc cc
m outh
ĠO l
ĠA qu
Ġpro long
Ġfle et
ĠN R
arc min
Ġadmin istrative
Ġremn ant
M Y
0 40
@ {-
defin ite
Ðµ Ð»
{\ |
W i
Ġpay off
orbit al
h ler
(\ |
Ġathle tes
U int
ĠB aker
amb ers
T ak
resp ective
æ ī
Ġlo ader
qu as
Ġveter an
class v
Ġbi ology
ĠEu ro
Ġpredomin antly
Ġsp oken
Ġhyper parameter
ĠMe eting
Ġphotograph s
ang a
ĠB atch
Ġdis tillation
O ps
^{( -
ĠDo ctor
it ol
Ġcritic ism
en na
TEXT URE
Ġclo thing
remove Class
Ġcompens ate
29 4
sp ector
Ġst unning
serial ize
far cs
ĠA CT
ĠViet nam
ert z
h ero
o or
Ġ )$.
}$ ~\
ĠD ocker
Ġstr ide
Ġrecip ient
Conn ector
Ġexp enses
ĠJ upiter
24 1
Ġconstr ucts
Ġeas tern
Ġnews letter
Ġm irr
Ġl ung
ĠTechn ologies
ĠCal abi
Link ed
Ġheter ogeneity
i op
Ġsal ary
ĠSO FTWARE
Ġde mo
33 5
K ing
g w
Ġlaw suit
B ot
sch ool
id ad
Ġsc in
Ġcontain ers
ol ars
ene tic
ĠApp lications
sh i
ĠZ one
ĠD ATA
Ġglu ing
ĠK enn
ĠAl aska
b low
Ġpass enger
Ġrom ance
Ġspace times
* >(
\ )-
ut ures
ĠZ ar
ĠP rep
rot ating
ra de
ĠO T
ĠRes erve
Ġdiscre tized
l isted
Ġiter ated
E U
P icker
Ġcost ly
ĠM ic
Ġhe ated
x sd
ĠR IS
Ġcomp lications
Ġun resolved
sched ule
ĠV GG
p ion
te o
Ġfol k
L AT
ig o
Ġaw esome
Ġmanufact urer
Ġdemoc racy
R etry
qu ette
App earance
Ġorigin ate
u led
dec l
Fore ign
Ġj ew
ĠĠĠĠĠĠĠĠĠĠĠĠĠĠĠĠĠĠĠĠĠĠĠĠĠĠĠĠĠĠĠĠ ĠĠĠĠĠĠĠĠĠĠĠĠĠĠĠĠĠĠĠĠĠĠĠ
Ġ\ `
Car lo
$- $\
h owever
id ays
Ġpolitic ians
Ġbl end
N H
ID s
Ġsubgraph s
m ind
Ġhead ed
ĠAd vis
Ġinv isible
Ġvulner ability
. ');
e ys
Ġun precedented
comput ation
WI SE
ĠU r
(" -
Ġrecord ings
E uler
Ġcy cl
ĠI EEE
new theorem
Ġengine ers
H orizontal
an ne
ĠA ve
Ġprec ip
Ġprovision s
qu eness
Ġscal able
Ġbeg un
C MS
iz za
Ġnega tively
d id
g able
fla vor
{ }_{
Ġadjust ing
ĠRequ ire
N or
source forge
HO ST
ĠD EC
3 21
Ġquanti le
F ran
Ġwish es
R v
mon itor
han a
de velopment
embed ding
t om
000 2
User name
LE X
Ġact ress
Ġg lue
ĠS IL
Des cribe
Custom er
ene ath
tribut ing
Conver gence
Ġgram mar
> ');
Ex change
play back
EX P
Back end
| \\
Ġview ers
D ensity
P in
z ar
if est
^* }\
ĠPro ducts
Ġacknowled ged
st ub
ĠD iff
Ġstack ing
Ġb omb
Ġhe ap
ĠPro te
| /
ĠS audi
Ġdip lo
Ġf ishing
0 90
Ġr c
IG O
umin ate
ĠCon sumer
Ġear nings
ĠPol ish
Ġdepos it
erm al
ĠS ac
Ġmark ing
Ġis lands
ĠCh andra
ĠÐ ±
ĠProgram me
Ġtouch down
Ġacces sibility
Ġcorrel ators
Un able
UT O
ĠTH IS
Ġdis ruption
Ġc ad
De finitions
ĠAr gs
impro ved
Ġme al
Ġdec k
ER Y
Data Source
Ġimm igration
Ġear liest
)$ \\
$\ ,\
Ġthorough ly
Ġc aching
ous es
S ources
Ġgovern or
ĠP N
ĠR ail
Ġob s
mb b
Ġvibration al
27 3
ĠSch ur
B lob
Ġre po
bur sts
Ġreti rement
P rep
ĠJ oin
' }$,
Ġf ranchise
26 7
s By
lan e
ĠAT LAS
=\ ;
Ġsw ing
where as
star ted
Ġprop ri
mys ql
Ġa fraid
cur y
Ġpuzz le
ĠF ields
ĠK it
ĠProcess ing
Ġdil aton
oti ents
w estern
: .
Ġs its
ec onomic
hel pers
Ġrac ial
ĠS cale
ad get
Ġpregn ancy
other apy
in th
ĠN LP
am ard
ĠAssoci ate
× ľ
G ed
y cling
10 80
GC N
n ar
Ġdiver ges
Ġ' ../
ĠPr imary
ĠAn na
bour ne
i que
ref lection
MS earch
Ġconsum ed
Ġdisapp ear
}) ),
26 9
Ġpoly g
a ire
19 63
P atch
\ }\\
all s
Ġceleb ration
Ġven ue
Ġsta ying
ĠSp in
SU B
Ġdef eat
ar ts
Dis abled
Cred it
L V
Ġb ills
Su ite
an other
Fil ters
Ġlad der
Pro totype
En cryp
æĺ ¯
Ġcan c
Ġg od
graph y
datab ind
Ġwork place
amer on
U U
ĠB os
ĠTh row
ĠS even
pi lation
Inter estingly
J ones
add EventListener
Ġland ing
util ity
\!\! \
Ġlever aging
W D
ĠEff ect
ACCEPT ED
LE N
57 6
Ġmut ations
ec tic
Ġl ucky
ag g
andid ates
Ġdir ty
ĠB PS
Ġhand ful
Ġcongru ence
b lo
Ġf t
Con struct
pr ises
Ġvisual ize
Ġma d
isot ropic
Ġsub division
ian chi
DOCK ED
Ġm ere
key words
sen sitivity
C odes
70 7
access or
h phantom
Rec ur
ĠTest ing
Ġrepla ces
id is
EN TRY
Ġreli ably
Ġz eta
Ġinflation ary
{ })
Ġequ atorial
Ġgu ilty
oper ations
iny l
ĠM aking
Ġcomp romise
Pro j
bo ards
e ating
D et
ir atory
ĠD D
tex tarea
Ġhighlight ing
] %
y en
allow s
ĠM other
Ġve g
C am
t bp
Ġvis itor
Ġbott le
morph ism
D ATE
Ġan t
ĠMar ine
Ġla p
ol ine
b read
Ġlif estyle
le ased
la unch
b C
soft ware
................ ................
c ord
Ġ$\ {(
ig ator
ĠCas imir
ĠK ind
Qu ick
( <
IEEE eqnarray
H ide
-> }[
NotFound Exception
Ġconstr uctive
Ġorgan isations
Ġemphas ized
U X
Res olution
P rior
Ġarg v
Ġfrac tal
W itten
S b
$-- $
Ġc ulti
ari b
Ġch ips
lo on
ĠS olution
ĠG H
tem plates
A k
C ube
et up
Ġst oring
ĠN ak
Ġclub s
cut s
Ġpull ing
Th omas
Ġwhere in
q i
ul ant
fo od
Ġexperi encing
P ix
27 7
^+ $.
Ġprom ised
COMM AND
re ts
Ġoptim isation
work ing
Ġdistinc tive
Ġdoc umented
Ġd v
com position
C losed
ĠJ oy
mat or
Im mutable
e asy
28 7
Ð¾Ð ¹
h aving
Ġ(! (
ĠRob inson
ĠSwed en
e ur
Ġn itrogen
ok u
Ġcur ious
Ġcondens ed
Ġcompla int
C AT
et ale
ul u
}} }$,
Ġpre view
28 9
35 2
ĠT rend
Ke ep
Ġl on
ĉĉĉĉĉĉĉĉ ĉĉĉĉ
Ġbr ightest
Ġp b
ĠE E
\\ [-
f olds
mu ch
Ġsignal ing
S CH
ĠGener ic
Dire ctor
Ġp iano
ĠN FT
App le
25 00
Ġatt ending
} *{
il ot
ĠP in
Ġlocal ity
dis cre
ĠHar vard
Ġcomp ress
Ġb ull
posi ted
mat ure
Gra dient
ĠK ron
Ġsubt racting
ĠBrook lyn
Ġpath ways
Initial ize
Ġ`` \
Ġre ceptor
Ġm ot
4 10
ĠD AG
s pherical
ĠH ell
G PU
g k
oss il
Write Line
Ġgeom etrically
ĠCompar ing
ON D
Ġfi xture
Icon Success
">( </
Ġ= (
e en
ĠD J
level and
ĠMon itor
Ġmaxim izes
ĠF ace
ĠD CHECK
Ġmultiple t
) )\\
F ROM
Ġsil ent
ĠMus k
Ġd os
Ġal arm
Ġengine er
:: $
tis an
Ġoscill ating
Ġdecoup led
ere my
In ject
*} %
urch ase
x shift
ĠK at
, ''
AG ES
hed ra
screens aver
K u
f ram
ĠS ud
^{ ++
Ġrecover s
Ġsuscepti ble
et ta
ĠS Y
ĠO d
Ġflow ers
ĠCO MM
18 00
RE C
Ġres idence
t odo
ĉ ĠĊ
Ġm arch
Ob viously
Ġcer tified
F re
Ġforth coming
Ġsolit ons
unit Pattern
Ġpro spects
}) },
Dispatch er
F ro
Ġb oss
Ġ- {\
tw ist
ject ory
Ġc ss
Ġaxi om
Ġe pic
ĠCont roller
domin ant
Ġappoint ment
ĠF ILE
syn chron
paramet ri
d F
ms kip
G ordon
Ġhad n
Ġinstant on
do ors
Ġsepar ates
Ġstem s
ĠQ R
ĠPut in
duc ibility
ĠQ String
por al
conn ections
finite ly
reson ant
= }\
red is
ĠIsra eli
w eg
ro ots
ou los
pro ved
Ġswe ep
Ġtro ops
&+ &
ĠY u
Ñģ Ðº
Ġdes ktop
H il
25 9
{ ``
car ousel
suc ceq
pol es
Form er
ĠV acc
Ġout lier
ĠSh im
sp irit
d ummy
Ġf on
sql ite
ĠH ER
H it
Ġper ipheral
s af
Ġde uter
rac es
iz ar
Ġ* _
Ġevery body
Ver b
Ġhaz ard
Ġk nee
tribut or
27 1
ĠHow ard
MS G
4 99
ĠB oh
ex ceptions
W ARNING
tim ing
ĠK ur
ĠCl assification
Ġ{ -
Ġsc ar
32 6
copy right
{\ #
ĠM OD
ĠD F
bf m
m h
Ġsh r
* -
Ġ) ^{
ours es
Ġdisapp oint
Ġconsum e
Ġ' </
Ġdirection al
Ġland s
Ġdownload ed
] <
Ġl ig
ffff ff
Ġfor um
ĠAnd y
.. ...
ĠMin or
PARAM ET
V IS
ĠExperim ent
ul ent
Ġauthor ized
unt u
L ess
ĠProgram s
Ġlo ans
ak s
}| =
ĠQu ick
Vari ables
l j
ĠF BI
48 5
m ega
19 62
ĠF D
$\ ;
TE MPLATE
Ġcentral ized
mat ory
Ġentreprene ur
Ġclass room
Ġarr iving
ĠPDF s
W ORD
Ġansw ering
Ass ignment
Ġstack s
We yl
26 8
Ġeffici encies
om on
N egative
av al
Ġde bris
mid way
[ {
ĠN ever
Ġh ints
iden tification
Ġcour ts
ĠCon tainer
g overn
ĠN eg
26 6
imod ule
c py
Ġun fortunately
discus sed
38 5
LIN K
re levant
ĠS witzerland
Ġne bula
!! !!
Ġde alt
ĠW orth
IconSuccess Encoded
Ġf u
oll ar
select font
Ġp ounds
lic as
Ġcoal ition
Ġsever ely
hy brid
4 30
o j
Ġh ip
Ġban king
Whe ther
ĠAstr onomy
Ġreci procal
ĠF ly
Ġcomp ly
Log ging
Ð½ Ð°
Ġmar ine
Ġdescript ors
or pdf
ĠJ a
Ġdire ctive
60 1
Ġprof ound
Ġm unicip
J ac
He ading
Ġpre processing
ĠDo main
ĠRob in
3 11
] |
ĠBru ce
ar ms
Ġg erm
Ġpers ist
P ART
ĠO t
Ġlo b
$& $\
Ġf ingers
B rand
Ġre med
ĠH P
ĠG ray
Are Equal
n oc
rad ar
Ġf ool
Ġcat astro
prov ide
Ġnumer ator
Ġt ubes
ct an
non ym
Ġopp onent
Ext ended
ĠS om
}} }^{
ĠM ount
Q S
supp orts
ĠPri ze
F LO
S z
d it
bers ecurity
DO WN
expand ed
ĠHun ter
T ur
ĠP ush
Un its
tell ing
Ġg lyph
25 1
mag net
Ġani mated
f k
35 3
tex orpdf
D K
an alog
ab und
pr incipal
64 6
flow s
m icrosoft
ĠL ot
Ġgroup ing
ĠSh op
Ġclassif ying
eder ated
ĠGPU s
: **
D AR
ch t
quar ters
ĠP ed
16 00
PE G
av atar
Ġcollaps ed
model ing
$ }\\
te matic
Ġmem o
Ġoscill atory
texorpdf string
> ';
c V
Min imum
ĠOk lahoma
omo tive
is dom
Ġpre defined
Ġcontroversi al
Ġestablish ment
Ġter rible
Ġpres umably
ĠSw iss
le ans
ok ia
File System
Ġpred ecess
in struction
Ġd jango
ĠD ig
f ted
pre tty
Ġrelation al
Ġcub es
sp ons
St udy
Ġg ross
ĠC row
ĠCom edy
E volution
ag in
Sub scription
ev ing
ĠCON DITION
Ġdeple tion
Av g
Ġeleg ant
ol k
rect angle
Ġachieve ment
Ġver ifies
ĠEs tima
ĠL ane
ENT ER
ĠE asy
AND LE
or ce
Ã ¸
ĠÐ ·
get Text
__ _
ĠW right
Ġr ival
ĠL if
)\ !
Ġdis continuous
Ġel der
ĠĠĠĠĠĠĠĠĠĠĠĠĠĠĠĠĠĠĠĠĠĠĠĠĠĠĠĠĠĠĠĠ ĠĠĠĠĠĠĠĠĠĠĠĠĠ
Ver tical
S AT
ffici ency
Ġprint ing
wh eel
W at
F ort
Ġpre condition
Rel ations
Equal To
se min
45 5
port folio
Any Ref
re dd
es a
ro bot
ĠR oll
Ġlack ing
ĠLaw rence
Ġf atal
ac ci
Ġsepar ations
m entioned
Ġoverwhel ming
arg max
quark s
APPL ICATION
ST EM
40 8
ĠInvest ment
ĠW allet
get Property
get Current
item sep
(" <
ba um
S till
ay an
ĠR aw
Ġsta gger
enc oded
Ġwar ned
ĠColl ins
ist le
Ġmultip liers
Ġsett lement
chest ra
X R
ĠChristo pher
=" <?
ass ment
ene z
Ġch ord
Ġpre cession
Ġdifferenti ate
ĠRus sell
Ġbo ards
Ġs lab
Ġtra iler
t rees
ĠM illion
Ġmod ality
year s
Ġmeta bol
ĠFlo at
Ġbary onic
Ġjudg ment
ĠS ey
im odal
Ġg iants
zz i
K now
Ġra tion
ĠCO MP
Cap acity
A IN
\! +\!
//////////////////////////////// ////////////////////////////////
c riteria
tri ple
|| _
ans on
Ġcour tesy
Ġpartition ed
^{* }_{
rom ov
Ġequival ences
V i
ĠM ilitary
illi ps
Fin ite
() `
Ġremark ably
Ġc ust
sub scri
under standing
Ġrun ner
qu ick
)) -
jav ase
|}{ }
M ur
------------ -
Requ ests
v on
}} }^
ard less
Ġtal ented
b age
Ġexpand s
Rev ision
Ġmission s
F ourier
Ġf uzzy
Ġanalog ously
Ġr ises
Ġref used
}$ ]
ass er
des cr
Link s
Ġposi tives
ke eper
Ġimp ed
ĠBut ton
Ġco pper
Ġwar nings
tor us
~ ~\
Ġdecor ated
Ġcult ures
ol in
$ "
T ARGET
ĠG lo
28 3
um ni
Ġposition ed
Ġdiscrimin ative
P ick
ĠCor respond
Ġnow here
FUN CTION
ĠR B
ver ty
Con struction
Ġre ducible
Ġaim ing
ĠCamp aign
S ar
focus ed
}) }.
Fe bruary
Ġd ich
ext ends
ĠCon struct
Ġvio late
Ġs orry
ĠM IMO
Ġup ward
ĠCo ordin
ĠLik ewise
W C
Ġauto mation
ĠInt ro
b vec
ĠX box
Lo oking
ĠRep lace
ĠS cript
Ġtw elve
Sci ence
Ġvent ure
ĠB erg
Ġab ortion
ĠF err
sk in
Ġmon itored
y aml
it box
EN S
R ULE
Ġv in
ĠÎ ¼
2 19
I ssue
cr ypt
ak ers
ĠÐ½ Ð°
ĠM oscow
ah l
mes on
Tag Name
i ation
Ġag g
Ġreported ly
R otation
j unction
Rece iver
ĠAfghan istan
| |_{
ç ½
ĠBe the
Ġalloc ate
ĠNav y
ĠH yp
ke ley
IT H
Ġbacter ia
b ird
I Q
H or
there um
)] ^
ĠNe uro
Ġequ ilibria
Ġdiscre ti
id ental
Ġdou bling
U PDATE
Ġb orders
ĠN ag
0 23
enc ryp
ĠR MSE
Ġhuman ity
Input s
Ged mo
nu clear
Ġenc losed
root Scope
[...]
