{"[UNK]":0,"!":1,"\"":2,"#":3,"$":4,"%":5,"&":6,"'":7,"(":8,")":9,"*":10,"+":11,",":12,"-":13,".":14,"/":15,"0":16,"1":17,"2":18,"3":19,"4":20,"5":21,"6":22,"7":23,"8":24,"9":25,":":26,";":27,"<":28,"=":29,">":30,"?":31,"@":32,"A":33,"B":34,"C":35,"D":36,"E":37,"F":38,"G":39,"H":40,"I":41,"J":42,"K":43,"L":44,"M":45,"N":46,"O":47,"P":48,"Q":49,"R":50,"S":51,"T":52,"U":53,"V":54,"W":55,"X":56,"Y":57,"Z":58,"[":59,"\\":60,"]":61,"^":62,"_":63,"`":64,"a":65,"b":66,"c":67,"d":68,"e":69,"f":70,"g":71,"h":72,"i":73,"j":74,"k":75,"l":76,"m":77,"n":78,"o":79,"p":80,"q":81,"r":82,"s":83,"t":84,"u":85,"v":86,"w":87,"x":88,"y":89,"z":90,"{":91,"|":92,"}":93,"~":94,"¡":95,"¢":96,"£":97,"¤":98,"¥":99,"¦":100,"§":101,"¨":102,"©":103,"ª":104,"«":105,"¬":106,"®":107,"¯":108,"°":109,"±":110,"²":111,"³":112,"´":113,"µ":114,"¶":115,"·":116,"¸":117,"¹":118,"º":119,"»":120,"¼":121,"½":122,"¾":123,"¿":124,"Â":125,"Ã":126,"Ä":127,"Å":128,"Æ":129,"Ç":130,"È":131,"É":132,"Ê":133,"Ë":134,"Ì":135,"Í":136,"Î":137,"Ï":138,"Ð":139,"Ñ":140,"Ò":141,"Ó":142,"Ô":143,"Õ":144,"Ö":145,"×":146,"Ø":147,"Ù":148,"Ú":149,"Û":150,"Ü":151,"Ý":152,"Þ":153,"ß":154,"à":155,"á":156,"â":157,"ã":158,"ä":159,"å":160,"æ":161,"ç":162,"è":163,"é":164,"ê":165,"ë":166,"ì":167,"í":168,"î":169,"ï":170,"ð":171,"ò":172,"ó":173,"ô":174,"Ā":175,"ā":176,"Ă":177,"ă":178,"Ą":179,"ą":180,"ć":181,"Ĉ":182,"ĉ":183,"Ċ":184,"ċ":185,"Č":186,"č":187,"Ď":188,"ď":189,"Đ":190,"đ":191,"Ē":192,"ē":193,"Ĕ":194,"ĕ":195,"Ė":196,"ė":197,"Ę":198,"ę":199,"Ě":200,"ě":201,"Ĝ":202,"ĝ":203,"ğ":204,"Ġ":205,"ġ":206,"Ģ":207,"ģ":208,"Ĥ":209,"ĥ":210,"Ħ":211,"ħ":212,"Ĩ":213,"ĩ":214,"Ī":215,"ī":216,"Ĭ":217,"ĭ":218,"Į":219,"į":220,"İ":221,"ı":222,"Ĳ":223,"ĳ":224,"Ĵ":225,"ĵ":226,"Ķ":227,"ķ":228,"ĸ":229,"Ĺ":230,"ĺ":231,"Ļ":232,"ļ":233,"Ľ":234,"ľ":235,"Ŀ":236,"ŀ":237,"Ł":238,"ł":239,"Ń":240,"ĠĠ":241,"th":242,"in":243,"on":244,"Ġa":245,"er":246,"Ġth":247,"ĠĠĠĠ":248,"re":249,"ti":250,"en":251,"Ġthe":252,"Ġs":253,"or":254,"al":255,"te":256,"Ġc":257,"Ġ\\":258,"is":259,"Ġo":260,"es":261,"ar":262,"tion":263,"an":264,"Ġ$":265,"le":266,"Ġf":267,"Ġw":268,"Ġt":269,"Ġp":270,"ma":271,"ro":272,"ing":273,"Ġof":274,"Ġin":275,"Ġb":276,"nd":277,"Ġd":278,"at":279,"ed":280,"el":281,"et":282,"as":283,"ĠĠĠ":284,"ic":285,"ra":286,"ig":287,"Ġand":288,"ĠĠĠĠĠĠĠĠ":289,"Ġto":290,"{\\":291,"it":292,"ec":293,"ent":294,"Ġm":295,"ou":296,"Ġh":297,"Ġre":298,"la":299,"om":300,"Ġe":301,"Ġn":302,"st":303,"Ġis":304,"ol":305,"am":306,"Ġ(":307,"ce":308,"id":309,"_{":310,"ation":311,"il":312,"ch":313,"qu":314,"Th":315,"ta":316,"lo":317,"Ġ$\\":318,"im":319,"Ġfor":320,"ve":321,"čĊ":322,"us":323,"Ġg":324,"od":325,"ur":326,"ly":327,"math":328,"ver":329,"um":330,"ot":331,"eg":332,"Ġ=":333,"ul":334,"end":335,"ith":336,"ĠS":337,"Ġ&":338,"tr":339,"si":340,"Ġcon":341,"Ġthat":342,"ge":343,"Ġon":344,"}\\":345,"if":346,"ĠĠĠĠĠĠĠ":347,"ph":348,"ted":349,"Ġl":350,"se":351,"}$":352,"ht":353,"un":354,"^{":355,"ter":356,"ĠA":357,"ite":358,"ĠC":359,"Ġv":360,"The":361,"Ġbe":362,"ac":363,"ad":364,"cal":365,"Ġwith":366,"ow":367,"ĉĉ":368,"ure":369,"ĠĊ":370,"ĠI":371,"Ġas":372,"ut":373,"Ġwh":374,"Ġpro":375,"ref":376,"pp":377,"Ġwe":378,"ir":379,"Ġan":380,"Ġal":381,"ight":382,"xt":383,"20":384,"}}":385,"âĢ":386,"rac":387,"Ġ<":388,"(\\":389,"ble":390,"ere":391,"ine":392,"Ġma":393,"ts":394,"ĠM":395,"egin":396,"ub":397,"res":398,"de":399,"begin":400,"Ġare":401,"--":402,"=\"":403,"ity":404,"Ġby":405,"per":406,"ate":407,"ĠF":408,"and":409,");":410,"iv":411,"ĠP":412,"Ġex":413,"ore":414,"_{\\":415,"Ġ{":416,")$":417,"Ġcom":418,"ction":419,"eta":420,"</":421,"ft":422,"ĠB":423,"ess":424,"sp":425,"}{":426,"Ġde":427,"tic":428,"rom":429,"ment":430,"ĠThe":431,"op":432,"equ":433,"tim":434,"Ġit":435,"frac":436,"ĠL":437,"ri":438,"},":439,"ĠR":440,"ew":441,"Ġthis":442,"ct":443,"ĠH":444,"ĠT":445,"cite":446,"Ġat":447,"ĠĠĠĠĠĠĠĠĠĠĠĠĠĠĠĠ":448,"ass":449,"ĠD":450,"ers":451,"eq":452,"ĠW":453,"Ġor":454,"em":455,"right":456,"})":457,"Ġus":458,"up":459,"Ġsh":460,"text":461,"bel":462,"iz":463,"ue":464,"Ġst":465,"Ġfrom":466,"ĠN":467,"ĠE":468,"ect":469,"for":470,"ys":471,"os":472,"li":473,"our":474,"//":475,"label":476,"ap":477,"ran":478,"ame":479,"mathb":480,"mb":481,",\\":482,"to":483,"Ġ-":484,"low":485,"Ġsp":486,"Ġ*":487,"ign":488,"ist":489,"ĠG":490,"tions":491,"Ġch":492,"ĠĠĠĠĠĠĠĠĠĠĠ":493,"rm":494,"ave":495,"Ġcan":496,"Ġy":497,"Ġ}":498,"$,":499,"Ġcomp":500,"ke":501,"cl":502,"left":503,"int":504,"$.":505,"Ġsu":506,"00":507,"ps":508,"fig":509,"ich":510,"sion":511,"ff":512,"di":513,"equation":514,"mathcal":515,"Ġcl":516,"imp":517,"ther":518,"ld":519,"}.":520,"ence":521,"und":522,"all":523,"yp":524,"da":525,"par":526,"ab":527,"tive":528,"..":529,"\">":530,"Ġpar":531,"ase":532,"ant":533,"age":534,"oc":535,"ill":536,"ĠTh":537,"}(":538,"are":539,"ach":540,"Ġ+":541,"ection":542,"est":543,"ds":544,"tial":545,"}^":546,"ĠĠĠĠĠ":547,"ort":548,"~\\":549,"ide":550,"Ġhave":551,"du":552,"Ġif":553,"Ġle":554,"}_":555,"âĢĻ":556,"Ġnot":557,"ener":558,"201":559,"In":560,"ace":561,"con":562,"ell":563,"Ġmod":564,"tri":565,"ary":566,"ĠO":567,"pha":568,").":569,"ay":570,"Ġse":571,"Ġ\"":572,"Ġme":573,"Ġwhich":574,"ud":575,"alpha":576,"cc":577,"line":578,"ber":579,"pro":580,"til":581,"Ġdis":582,"lic":583,"Ġres":584,"av":585,"tem":586,"fer":587,"sum":588,"mu":589,"og":590,"Ġlo":591,"unction":592,")\\":593,"),":594,"ag":595,"ata":596,"urn":597,"ĠIn":598,"Ġob":599,"ion":600,"Ġclass":601,"ang":602,"row":603,"ical":604,"ies":605,"Ġsta":606,"Ġr":607,"able":608,"Ġapp":609,"ust":610,"ode":611,"ile":612,"10":613,"ss":614,"$\\":615,"elta":616,"ork":617,"Ġun":618,"ance":619,"pt":620,"ype":621,"ens":622,"vel":623,"ind":624,"amma":625,"Ġk":626,"ong":627,"ack":628,"Ġpo":629,"_\\":630,"**":631,"ult":632,"ck":633,"com":634,"Ġ\\\\":635,"ations":636,"ser":637,"ial":638,"ega":639,"over":640,"sub":641,"=\\":642,"Ġall":643,"nt":644,"tain":645,"dot":646,"Ġhas":647,"mathbb":648,"out":649,"}^{":650,"Ġwas":651,"ĠU":652,"Ġad":653,"Ġexp":654,"erm":655,"}_{":656,"Ġ[":657,"ari":658,"Ġi":659,"ard":660,"so":661,"ho":662,"Ġqu":663,"ast":664,"ire":665,"Ġval":666,"ous":667,"str":668,"ray":669,"igma":670,"amp":671,"bu":672,"==":673,"times":674,"ĠJ":675,"Ġfunction":676,"Ġne":677,"fin":678,"-\\":679,"ound":680,"ould":681,"of":682,"ex":683,"act":684,"ak":685,"Ġab":686,"lation":687,"ated":688,"get":689,"ome":690,"turn":691,"^{\\":692,"----":693,"time":694,"phi":695,"Ġset":696,"()":697,"ents":698,"ord":699,"ree":700,"Ġj":701,"Ġone":702,"Ġwill":703,"sc":704,"we":705,"Ġinter":706,"ator":707,"Ġmodel":708,"Ġra":709,"iel":710,"ost":711,"lamb":712,"ip":713,"lambda":714,"set":715,"Ġ'":716,"wo":717,"enc":718,"Ġimp":719,"the":720,"19":721,"ular":722,"bf":723,"tes":724,"Ġ{\\":725,"Ġper":726,"ĠK":727,"ĠV":728,"hat":729,"mathbf":730,"own":731,"ug":732,"raph":733,"form":734,"tit":735,"pi":736,"Ġdo":737,"ĠâĢ":738,"ear":739,"ĠĠĠĠĠĠĠĠĠĠĠĠĠĠĠ":740,"Ġno":741,"idth":742,"ond":743,"umber":744,"Ġev":745,"les":746,"Ġar":747,"ilon":748,"Ġstr":749,"igh":750,"section":751,"Ġdif":752,"ollow":753,"psilon":754,"ual":755,"ory":756,"app":757,"ĠWe":758,"Ġpre":759,"sigma":760,"ans":761,"align":762,"po":763,"ll":764,"Ġour":765,"lay":766,"ties":767,"item":768,"vi":769,"Ġalso":770,"one":771,"beta":772,"^{-":773,"Ġtwo":774,"ource":775,"ark":776,"mathrm":777,"}{\\":778,"Ġhe":779,"Ġ(\\":780,"Ġte":781,"ok":782,"cent":783,"Ġfollow":784,"Ġout":785,"ĉĉĉĉ":786,"irst":787,"bar":788,"12":789,"tribu":790,"ject":791,"ystem":792,"Ġnew":793,"Ġrep":794,"tilde":795,"put":796,"ice":797,"ne":798,"Con":799,"ics":800,"theta":801,"ram":802,"*}":803,"Ġequ":804,"Ġthere":805,"xi":806,"+\\":807,"Ġbo":808,"gamma":809,"led":810,"Ġcont":811,"Ġyou":812,"Ġdata":813,"Ġcor":814,"Ġsuch":815,"Ġen":816,"ize":817,"Ġver":818,"wh":819,"Ġsub":820,"Ġtime":821,"\\\\":822,"Ġmore":823,"ature":824,"Ġpa":825,"Ġcons":826,"ors":827,"orm":828,"der":829,"width":830,"Ġtran":831,"]{":832,"We":833,"olu":834,"Ġgener":835,"clud":836,"'s":837,"figure":838,"Ġbut":839,"Ġreturn":840,"^\\":841,"Ġwhere":842,"Ġbet":843,"Ġover":844,"Ġ//":845,"val":846,"Ġdiffer":847,"ix":848,"Ġ</":849,"ption":850,"col":851,"array":852,")}":853,"leq":854,"rho":855,"../":856,"yn":857,"ef":858,"lement":859,"Ġx":860,"->":861,"cdot":862,"mation":863,"tau":864,"delta":865,"ox":866,"ield":867,"Ġso":868,"ry":869,"Ġro":870,"200":871,"::":872,"Ġonly":873,"ting":874,"elf":875,"$-":876,"tical":877,"ish":878,"cri":879,"thod":880,"ia":881,"ull":882,"Ġsa":883,"ĠThis":884,"Ġany":885,"amet":886,"under":887,"Ġline":888,"Ġdes":889,"}$,":890,"sh":891,"var":892,"duc":893,"Ġco":894,"|\\":895,"inal":896,"roup":897,"Ġph":898,"Ġtheir":899,"uct":900,"}$.":901,"Ġshow":902,"cre":903,"ote":904,"sition":905,"Ġsome":906,"div":907,"Ġother":908,"Ġacc":909,"Ġits":910,"Ġeach":911,"Ġup":912,"Ġcol":913,"ose":914,"}(\\":915,"ider":916,"Ġthen":917,"ublic":918,"ep":919,"big":920,"Ġthan":921,"eqref":922,"Ġreg":923,"ility":924,"pr":925,"cap":926,"ress":927,"Ġgiv":928,"Ġ/":929,"Ġcase":930,"ues":931,"ove":932,"Ġop":933,"ob":934,"Ġ.":935,"11":936,"ml":937,"Ġwhen":938,"Ġli":939,"Ġconst":940,"ween":941,"fty":942,"aus":943,"infty":944,"Ġfirst":945,"nu":946,"ink":947,"ved":948,"âĢĿ":949,"ults":950,"Ġ@":951,"))":952,"partial":953,"Ġwork":954,"mp":955,"arrow":956,"omega":957,"Ġ:":958,"ise":959,"ger":960,"ves":961,"err":962,"ain":963,"dition":964,"essage":965,"Ġman":966,"Ġtra":967,"tex":968,"Ġ|":969,"pend":970,"Ġspec":971,"Ġthese":972,"Ġbetween":973,"Ġpr":974,"its":975,"ges":976,"sec":977,"\",":978,"he":979,"Ġu":980,"Ġresp":981,"Ġhigh":982,"art":983,"Ġsystem":984,"ince":985,"Ġget":986,"eqn":987,"Ġdec":988,"',":989,"space":990,"(\"":991,"mall":992,"Ġvalue":993,"ating":994,"ample":995,"span":996,"Ġthey":997,"ms":998,"Ġint":999,"></":1000,"min":1001,"Delta":1002,"resent":1003,"Ġbeen":1004,"ased":1005,"dic":1006,"sf":1007,"lec":1008,"Ġusing":1009,"Ġvari":1010,"tab":1011,"tif":1012,"ĠY":1013,"Ġappro":1014,"ric":1015,"Ġag":1016,"round":1017,"hi":1018,"Ġnumber":1019,"Ġinto":1020,"Ġnon":1021,"15":1022,"ĉĉĉ":1023,"Ġeff":1024,"();":1025,"Ġext":1026,"name":1027,"quad":1028,"ning":1029,"><":1030,"ime":1031,"ild":1032,"oun":1033,"cess":1034,"Ġes":1035,"mm":1036,"Ġtr":1037,"ension":1038,"Ġused":1039,"Ġuse":1040,"olution":1041,"ty":1042,"gy":1043,"ential":1044,"old":1045,"}[":1046,"\\,":1047,"16":1048,"resp":1049,"orem":1050,"Ġcur":1051,"Ġdefin":1052,"Pro":1053,"Ġ$(":1054,"ization":1055,"ĠFor":1056,"olds":1057,"ulti":1058,"}}\\":1059,"Ġsc":1060,"ni":1061,"pm":1062,"fore":1063,")$.":1064,"ount":1065,"Ġgo":1066,"Ġtrans":1067,"Ġunder":1068,"rt":1069,"ons":1070,"oid":1071,"Ġwere":1072,"Ġsim":1073,"Ġform":1074,"sim":1075,"eng":1076,"olog":1077,"Ġstate":1078,"Ġgiven":1079,"tern":1080,"Ġparamet":1081,"chi":1082,"lan":1083,"gle":1084,"Ġmethod":1085,"ula":1086,"tring":1087,"--------":1088,"ath":1089,"Ġid":1090,"def":1091,"Ġdef":1092,"ized":1093,"ever":1094,"center":1095,"13":1096,"$$":1097,"ration":1098,"Ġac":1099,"sq":1100,"ER":1101,"Ex":1102,"Ġbec":1103,"no":1104,"Ġ`":1105,"../../":1106,"ally":1107,"ĠX":1108,"ces":1109,"Ġrequ":1110,"Ġlar":1111,"Ġdifferent":1112,"Ġfe":1113,"ian":1114,"ĠCh":1115,"log":1116,"Ġz":1117,"Ġtype":1118,"epsilon":1119,"For":1120,"Om":1121,"}_{\\":1122,"Ġrela":1123,"22":1124,"ĠĠĠĠĠĠĠĠĠ":1125,"ugh":1126,"ins":1127,"Ġmay":1128,"Ġcal":1129,"where":1130,"Ġla":1131,"Ġterm":1132,"table":1133,"Ġconsider":1134,"psi":1135,"Ġobtain":1136,"Ġpartic":1137,"Ġsame":1138,"Ġresults":1139,"ude":1140,"====":1141,"html":1142,"eqnarray":1143,"Ġbound":1144,"fter":1145,"mod":1146,"14":1147,"Omega":1148,"Ġobser":1149,"tt":1150,"ific":1151,"Ġorder":1152,"fo":1153,"ments":1154,"Ġprov":1155,"Ġabout":1156,"ases":1157,"ule":1158,"Ġhref":1159,"25":1160,"ĠâĢľ":1161,"ax":1162,"ĠIt":1163,"Ġsec":1164,"ates":1165,"Ġpublic":1166,"lock":1167,"ĠĠĠĠĠĠĠĠĠĠĠĠĠĠĠĠĠĠĠ":1168,"trix":1169,"^*":1170,"Ġsign":1171,"Ġresult":1172,"ĠFig":1173,"Ġchar":1174,"ymb":1175,"arch":1176,"Ġkn":1177,"asure":1178,"ings":1179,"ymbol":1180,"ash":1181,"wide":1182,"textbf":1183,")$,":1184,"vely":1185,"Ġpol":1186,"Ġfollowing":1187,"lem":1188,"source":1189,"Gamma":1190,"Ġfact":1191,"gor":1192,"sqrt":1193,"Ġhis":1194,"Ġcomm":1195,"oug":1196,"irc":1197,"be":1198,"Ġser":1199,"formation":1200,"eck":1201,"ici":1202,"includ":1203,"ick":1204,"trans":1205,"Ġ*/":1206,"raphics":1207,"Ġanal":1208,"Ġname":1209,"work":1210,"Ġoper":1211,"subsection":1212,"ĠQ":1213,"Ġcomple":1214,"ov":1215,"ng":1216,"ied":1217,"Ġ--":1218,"this":1219,"ON":1220,"Ġwould":1221,"message":1222,"18":1223,"****":1224,"ive":1225,"ST":1226,"ected":1227,"ann":1228,"ĠĠĊ":1229,"angle":1230,"very":1231,"au":1232,"ton":1233,"ze":1234,"als":1235,".,":1236,"Ġsee":1237,"ots":1238,"vare":1239,"ĠčĊ":1240,"ib":1241,"caption":1242,"^{(":1243,"Ġ#":1244,"Ġsupp":1245,"tively":1246,"Ġwell":1247,"varepsilon":1248,"IN":1249,"dd":1250,"vers":1251,"ely":1252,"includeg":1253,"rough":1254,"includegraphics":1255,"}^{\\":1256,"Ġdisc":1257,"}=":1258,"ints":1259,"ative":1260,"Ġlow":1261,"Ġ_":1262,"Ġboth":1263,"tiv":1264,"cm":1265,"('":1266,"fra":1267,"21":1268,"Ġend":1269,"Ġfield":1270,"red":1271,"td":1272,"ev":1273,"ĠPro":1274,"ects":1275,"ont":1276,"ength":1277,"Ġdistribu":1278,"energy":1279,"Ġ${\\":1280,"ause":1281,"ner":1282,"umn":1283,"ily":1284,"Ġperform":1285,"Ġmin":1286,"Ġspace":1287,")=":1288,"bm":1289,"mage":1290,"rent":1291,"Ġhow":1292,"Ġ>":1293,"Ġ\\,":1294,"key":1295,"://":1296,"ined":1297,"Ġmost":1298,"Ġmeasure":1299,"Ġwho":1300,"Ġdire":1301,"lu":1302,"Name":1303,"rightarrow":1304,"Ġel":1305,"Ġneed":1306,"Com":1307,"raw":1308,"rangle":1309,"Ġ=>":1310,"ality":1311,"ks":1312,"Ġsmall":1313,"St":1314,"ucture":1315,"Ġback":1316,"alse":1317,"Ġsur":1318,"30":1319,"Ġass":1320,"ple":1321,"Ġerr":1322,"ange":1323,"ines":1324,"Ġassum":1325,"Ġproper":1326,"ten":1327,"Ch":1328,"cale":1329,"Ġden":1330,"To":1331,"me":1332,"etwork":1333,"Ġstar":1334,"tima":1335,"Ġcorresp":1336,"Ġgroup":1337,"Ġpoint":1338,"ining":1339,"pre":1340,"ced":1341,"Ġproble":1342,"import":1343,"imension":1344,"emph":1345,"pos":1346,"teg":1347,"ational":1348,"ensure":1349,"Ġexper":1350,"varphi":1351,"ency":1352,".~\\":1353,"Ġprocess":1354,"geq":1355,".}":1356,"ext":1357,"&\\":1358,"Type":1359,"AT":1360,"gorith":1361,"uch":1362,"vice":1363,"iew":1364,"Ġpos":1365,"ists":1366,"RE":1367,"Ġself":1368,"umer":1369,"ector":1370,"read":1371,"atch":1372,"non":1373,"dis":1374,"Ġinv":1375,"Ġdi":1376,"Id":1377,"23":1378,"17":1379,"ability":1380,"proof":1381,"exp":1382,"Ġdescri":1383,"Ġthrough":1384,"ilar":1385,"This":1386,"Ġinde":1387,"uc":1388,"ough":1389,"Ġste":1390,"ays":1391,"Ġmass":1392,"Ġvalues":1393,"bolds":1394,"Ġfin":1395,"rit":1396,"ĠĠĠĠĠĠĠĠĠĠĠĠĠĠĠĠĠĠĠĠĠĠĠĠĠĠĠĠĠĠĠĠ":1397,"overline":1398,"lit":1399,"Res":1400,"boldsymbol":1401,"ater":1402,"ition":1403,"amb":1404,"50":1405,"new":1406,"String":1407,"/>":1408,"100":1409,"frak":1410,"Ġenergy":1411,"Ġevery":1412,"Ġadd":1413,"hline":1414,"view":1415,"Big":1416,"ake":1417,"bo":1418,"Ġoff":1419,"etric":1420,"sible":1421,"Ġtest":1422,"},\\":1423,")^":1424,"Ġyour":1425,"lect":1426,"rop":1427,"Ġsimp":1428,"ormal":1429,"scri":1430,"Ġrec":1431,"arg":1432,"Ġpe":1433,"sk":1434,"Ġyear":1435,"code":1436,"ross":1437,"br":1438,"loc":1439,"mo":1440,"ices":1441,"class":1442,"ets":1443,"}).":1444,"[\\":1445,"yle":1446,"vec":1447,"ĠSt":1448,"Ġshould":1449,"ĠZ":1450,"ling":1451,"mer":1452,"position":1453,"Ġmulti":1454,"Ġwor":1455,"Ġlim":1456,"Ġed":1457,"Ġran":1458,"return":1459,"''":1460,"AR":1461,"Ġstud":1462,"oci":1463,"add":1464,"\"/>":1465,"not":1466,"lection":1467,"ism":1468,"Ġdist":1469,"translation":1470,"24":1471,"Ġlike":1472,"Ġdoes":1473,"Ġwhile":1474,"back":1475,"ert":1476,"ai":1477,"son":1478,"Ġ)":1479,"Ġthem":1480,"ero":1481,"ower":1482,"Ġsing":1483,"Ġincre":1484,"Ġclo":1485,"ision":1486,"Ġlocal":1487,"}}$":1488,"type":1489,"Ġnow":1490,"ective":1491,"Ġpres":1492,"face":1493,"Ġfind":1494,"};":1495,"lear":1496,"mathfrak":1497,"htt":1498,"##":1499,"Ġmo":1500,"Ġafter":1501,"requ":1502,"ument":1503,"...":1504,"):":1505,"ĠIf":1506,"Ġgeneral":1507,"rate":1508,"rol":1509,"ensity":1510,"langle":1511,"Ġcorre":1512,"SS":1513,"uth":1514,"co":1515,"Ġhad":1516,"ĠAs":1517,"As":1518,"ames":1519,"Ġabove":1520,"Ġelement":1521,"ĠĠĠĠĠĠ":1522,"Let":1523,"ock":1524,"size":1525,"itial":1526,"Ġlarge":1527,"Ġbel":1528,"param":1529,"Ġthree":1530,"box":1531,"main":1532,"bit":1533,"ie":1534,"Ġmodels":1535,"Ġher":1536,"ID":1537,"lim":1538,"Ġdepend":1539,"Val":1540,"mon":1541,"Ġpart":1542,"nab":1543,"Ġinst":1544,"Ġbu":1545,"mat":1546,"uring":1547,"ldots":1548,"Ġestima":1549,"ĠCom":1550,"ission":1551,"citep":1552,"duced":1553,"Ġcre":1554,"ulation":1555,"Ġfollows":1556,"Ġcontain":1557,"ically":1558,"ambda":1559,"Ġtrue":1560,"Phi":1561,"arget":1562,"ault":1563,"Ġright":1564,"Ġcorrespond":1565,"Ġ,":1566,"Ġshown":1567,"duction":1568,"ymm":1569,"Ġreal":1570,"Ġdefined":1571,"ict":1572,"ities":1573,"Ġsol":1574,"clude":1575,"Lambda":1576,"ven":1577,"Ġstructure":1578,"Ġcould":1579,"rr":1580,"textit":1581,"ensuremath":1582,"Ġrepresent":1583,"play":1584,"Ġnetwork":1585,"Ġlong":1586,"Ġ!":1587,"ern":1588,"Ġiden":1589,"su":1590,"appa":1591,"OR":1592,"eterm":1593,"bra":1594,"sing":1595,"nabla":1596,"LE":1597,"ness":1598,"Ġlet":1599,"Ġinformation":1600,"acter":1601,"Ġtem":1602,"see":1603,"action":1604,"lace":1605,"Ġvery":1606,"Ġsince":1607,"ired":1608,"Ġam":1609,"ented":1610,"orph":1611,"Ġeven":1612,"gorithm":1613,"Ġmat":1614,"owever":1615,"Ġinclud":1616,"vious":1617,"test":1618,"ute":1619,"32":1620,"pd":1621,"Ġsize":1622,"Ġlead":1623,"kappa":1624,"Ġfeature":1625,"ery":1626,"mbox":1627,"ression":1628,"Ġbecause":1629,"Ġtop":1630,"199":1631,"que":1632,"sed":1633,"List":1634,"Ġhand":1635,"\\|":1636,"Ġsecond":1637,"let":1638,"med":1639,"__":1640,"max":1641,"ception":1642,"})$":1643,"top":1644,"Ġfil":1645,"ared":1646,"Ġfound":1647,"Ġwhat":1648,"Ġgra":1649,"urther":1650,"cor":1651,"\\%":1652,"Ġcontin":1653,"man":1654,"Ġproblem":1655,"otimes":1656,"ward":1657,"ynam":1658,"ural":1659,"Ġcent":1660,"oth":1661,"Ġfinal":1662,"Ġapproach":1663,".\\":1664,"Ġmag":1665,"with":1666,"ĠCon":1667,"by":1668,"udi":1669,"Ġsch":1670,"ffici":1671,"tisf":1672,"tate":1673,"Ġnull":1674,"Ġent":1675,"ences":1676,"ww":1677,"oper":1678,"ology":1679,"king":1680,"Ġregion":1681,"Ġdistribution":1682,"ields":1683,"els":1684,"ral":1685,"ody":1686,"40":1687,"By":1688,"ĠAl":1689,"Ġradi":1690,"velop":1691,"Ġcalc":1692,"ysis":1693,"Ġtak":1694,"ĠĠĠĠĠĠĠĠĠĠĠĠĠ":1695,"}),":1696,"io":1697,"Ġins":1698,"Ġprob":1699,"Re":1700,"lack":1701,"circ":1702,"Ġ==":1703,"Ġexample":1704,"ren":1705,"Ġvar":1706,"Ġmany":1707,"Ġlear":1708,"org":1709,"Ġmax":1710,"ask":1711,"Ġhel":1712,"Ġimport":1713,"Ġparameters":1714,"ectively":1715,"lob":1716,"onent":1717,"EN":1718,"nonumber":1719,"mark":1720,"comp":1721,"order":1722,"ij":1723,"Ġsimilar":1724,"}}{":1725,"Ġsection":1726,"ier":1727,"Ġallow":1728,"less":1729,"ee":1730,"Ġinteg":1731,"')":1732,"tice":1733,"ole":1734,"cont":1735,"Ġmain":1736,"Ġfalse":1737,"ĠHe":1738,"Ġway":1739,"Ġconn":1740,"dots":1741,"ech":1742,"Ġsaid":1743,"Ġread":1744,"Ġjust":1745,"Ġbased":1746,"\"><":1747,"gram":1748,"Ġterms":1749,"title":1750,"por":1751,"etry":1752,"AL":1753,"Ġsatisf":1754,"Ġlevel":1755,"\\[":1756,"Ġhere":1757,"000":1758,"Sigma":1759,"ful":1760,"Ġdeterm":1761,"andom":1762,"Ġknow":1763,"data":1764,"ler":1765,"lish":1766,"lass":1767,"Ġprovid":1768,"rite":1769,"tics":1770,"centering":1771,"Ġplan":1772,"Ġcurrent":1773,"ĠThen":1774,"ese":1775,"Ġmon":1776,"uto":1777,"Ġparticular":1778,"Ar":1779,"color":1780,"Ġvoid":1781,"Ġ``":1782,"En":1783,"sitive":1784,"reat":1785,"33":1786,"mand":1787,"ently":1788,"Ġsum":1789,"Ġav":1790,"Ġoperator":1791,"Ġdiscus":1792,"aw":1793,"AN":1794,"Ġgraph":1795,"Ġmatrix":1796,"otential":1797,"Ġmake":1798,"ixed":1799,"Ġorg":1800,"/\\":1801,"ail":1802,"SE":1803,"ivate":1804,"ĠâĢĵ":1805,"script":1806,"self":1807,"Ġ($":1808,"Ġstand":1809,"Ġpaper":1810,"Ġder":1811,"ĠWh":1812,"usion":1813,"Ġmy":1814,"Ġsuper":1815,"60":1816,"Ġthose":1817,"ior":1818,"inter":1819,"Ġq":1820,"ĠTo":1821,"file":1822,"ey":1823,"ream":1824,"DE":1825,"lat":1826,"sive":1827,"ĠAn":1828,"ication":1829,"onse":1830,"duct":1831,"reg":1832,"\\!":1833,"Ġpredic":1834,"Fig":1835,"Ġbeing":1836,"Ġshows":1837,"Ġcho":1838,"widetilde":1839,"ival":1840,"Ġagain":1841,"ĠThere":1842,"ense":1843,"gs":1844,"{-":1845,"ason":1846,"Ġsolution":1847,"lectr":1848,"Ġobtained":1849,"],":1850,"Ġrun":1851,"Ġinitial":1852,"ci":1853,"}-":1854,"tabular":1855,"Ġaddition":1856,"location":1857,"Par":1858,"draw":1859,"Ġdete":1860,"Ġcharacter":1861,"ĠRe":1862,"Ob":1863,"It":1864,"Ġmust":1865,"Ġbas":1866,"ople":1867,"Ġexperim":1868,"Ġpoints":1869,")(":1870,"Ġerror":1871,"Ġoptim":1872,"Col":1873,"ift":1874,"ground":1875,"Ġfunctions":1876,"imum":1877,"Ġplay":1878,"Ġem":1879,"string":1880,"etail":1881,"Ġdensity":1882,"odes":1883,"ĠDe":1884,"Ġshe":1885,"Ġequation":1886,"value":1887,"Ġconstr":1888,"Ġparameter":1889,"Ġstudy":1890,"Ġsequ":1891,"Ġdue":1892,"ually":1893,"Ġobserv":1894,"reak":1895,"Ġ&&":1896,"style":1897,"late":1898,"Ġindic":1899,"vent":1900,"Ġdirect":1901,"\")":1902,"\");":1903,"Ġdat":1904,"Ġsingle":1905,"bed":1906,"Ġlast":1907,"prime":1908,"Ġcorresponding":1909,"27":1910,"Ġaction":1911,"till":1912,"Ġpresent":1913,"matrix":1914,"duce":1915,"Ġmem":1916,"----------------":1917,"ĠLet":1918,"ĠEx":1919,"Ġelse":1920,"vert":1921,"80":1922,"ene":1923,"ference":1924,"Ġpower":1925,"tity":1926,"tivity":1927,"Ġet":1928,"Ġcap":1929,"ants":1930,"tal":1931,"Ġmap":1932,"Ġlimit":1933,"ader":1934,"ott":1935,"}+":1936,"function":1937,"ĠĠĠĠĊ":1938,"45":1939,"Ġlinear":1940,"node":1941,"Ġbeh":1942,"ache":1943,"inc":1944,"rid":1945,"emma":1946,"Ġleft":1947,"Ġuni":1948,"uction":1949,"inde":1950,"ĠĠĠĠĠĠĠĠĠĠĠĠĠĠĠĠĠĠĠĠĠĠĠ":1951,"px":1952,"roid":1953,"day":1954,"Ġtech":1955,"Set":1956,"Ġpossible":1957,"Ġscal":1958,"\\{":1959,"Ġtyp":1960,"Data":1961,"ati":1962,"ination":1963,"lable":1964,"Ġmean":1965,"Ġconstant":1966,"amples":1967,"Ġpotential":1968,"lies":1969,"eed":1970,"Ser":1971,"Ġinput":1972,"~~":1973,"other":1974,"Ġfinite":1975,"go":1976,"bers":1977,")}\\":1978,"Ġcondition":1979,"\\]":1980,"ables":1981,"thing":1982,"war":1983,"anc":1984,"ĠNew":1985,"64":1986,"Ġstring":1987,"AC":1988,"air":1989,"ĠHowever":1990,"Ġcar":1991,"2020":1992,"zeta":1993,"ĠEq":1994,"Ġvis":1995,")=\\":1996,"Ġbefore":1997,"IT":1998,"Ġpath":1999,"Ġapproxi":2000,"Value":2001,"ĠTheorem":2002,"Ġrespectively":2003,"ified":2004,"Ġmuch":2005,"nb":2006,"Ġnode":2007,"Ġanalysis":2008,"75":2009,"99":2010,"}=\\":2011,"pper":2012,"oint":2013,"cur":2014,"Sp":2015,"Ġexist":2016,"atter":2017,"any":2018,";\\":2019,"thm":2020,"2018":2021,"Ġintro":2022,"verse":2023,"orted":2024,"ĠRes":2025,"{(":2026,"oup":2027,"ccess":2028,"Ġproof":2029,"ava":2030,"Ġstates":2031,"istic":2032,"search":2033,"2019":2034,"Ġcoun":2035,"tig":2036,"2017":2037,"Ġdevelop":2038,"ĠSh":2039,"Ġdimension":2040,"}]":2041,"uration":2042,"Ġwithin":2043,"Ġ%":2044,"sl":2045,"Al":2046,"lobal":2047,"try":2048,"If":2049,"Ġ&=":2050,"28":2051,"lus":2052,"Ġcomplex":2053,"ditions":2054,"Ġpeople":2055,"AM":2056,"ures":2057,"********":2058,"Ġtheory":2059,"IC":2060,"Ġorig":2061,"cept":2062,"group":2063,"At":2064,"========":2065,"Ġstrong":2066,"Ġdeg":2067,"Ġspectr":2068,"];":2069,"Ġrate":2070,"05":2071,"35":2072,"omorph":2073,"Ġpair":2074,"fil":2075,")^{":2076,"Ġtake":2077,"prop":2078,"mages":2079,"Ġkey":2080,"Ġvector":2081,"$)":2082,"Ġrandom":2083,"Ġimage":2084,"Ġtri":2085,"onal":2086,"De":2087,"Ġwithout":2088,"light":2089,"Ġphase":2090,"ulations":2091,"textwidth":2092,"Ġlist":2093,"lot":2094,"CO":2095,"26":2096,"An":2097,"Ġalgorithm":2098,"Ġfram":2099,"Ġapplic":2100,"lient":2101,"Ġcall":2102,"Ġact":2103,"90":2104,"perature":2105,"mit":2106,"iod":2107,"Ġassoci":2108,"($":2109,"Ġprevious":2110,"roll":2111,"ife":2112,"ool":2113,"Ġarg":2114,"Ġgu":2115,"'t":2116,"Ġref":2117,"load":2118,"Ġmed":2119,"ope":2120,"}_\\":2121,"Ġinf":2122,"mary":2123,"ived":2124,"map":2125,"jects":2126,"Ġlook":2127,"2016":2128,"posed":2129,"Ġcontinu":2130,"ĠSp":2131,"Ġperformance":2132,"Ġdown":2133,"}^\\":2134,"Ġmom":2135,"Ġrange":2136,"rc":2137,"arent":2138,"////":2139,"Ġtotal":2140,"}|":2141,"Ġstatic":2142,"ources":2143,"foot":2144,"ĠSection":2145,"Ġcomb":2146,"tis":2147,"ron":2148,"cdots":2149,"].":2150,"cer":2151,"Ġhy":2152,"dt":2153,"small":2154,"des":2155,"âĢľ":2156,"Mod":2157,"ii":2158,"Ġstill":2159,"vir":2160,"antum":2161,"lemma":2162,"Ġsymm":2163,"widehat":2164,"01":2165,"Ġcontrol":2166,"Ġtarget":2167,"ible":2168,"Ġnext":2169,"Ġmethods":2170,"ording":2171,"Ġopen":2172,"ental":2173,"bility":2174,"Ġduring":2175,"nbsp":2176,"Wh":2177,"mathsf":2178,"Ġaver":2179,"ify":2180,"cted":2181,"alax":2182,"link":2183,".~":2184,"})\\":2185,"pendent":2186,"cript":2187,"wn":2188,"eps":2189,"Ġlog":2190,"mag":2191,"Ġgood":2192,".âĢĿ":2193,"ract":2194,"rror":2195,"opy":2196,"alth":2197,"ances":2198,"Ġfam":2199,"Ġcontribu":2200,"Ġdynam":2201,"atus":2202,"aces":2203,"sequ":2204,"ules":2205,"index":2206,"Ġ\\{":2207,"indow":2208,"Ġlay":2209,"ĉĉĉĉĉ":2210,"Ġaround":2211,"}^{(":2212,",-":2213,"Sh":2214,"Ġlower":2215,"ailable":2216,"date":2217,"tically":2218,"use":2219,"Ġyears":2220,"Ġsignific":2221,"Ġmark":2222,"Ġview":2223,"Ġbest":2224,"ocus":2225,"ither":2226,"AS":2227,"rem":2228,"way":2229,"Ġdesign":2230,"Ġimpro":2231,"29":2232,"ĠAr":2233,"pdf":2234,"Ġ/**":2235,"}}(":2236,"qquad":2237,"ĠUni":2238,"Ġke":2239,"CT":2240,"Ġsource":2241,"ages":2242,"const":2243,"Ind":2244,"Ġextend":2245,"ison":2246,"));":2247,"Bu":2248,"Ġelectr":2249,"ĠFigure":2250,"Ġidentif":2251,"gebra":2252,"sif":2253,"Ġdefine":2254,"ĠInd":2255,"^+":2256,"Ġear":2257,"Ġsystems":2258,"&=":2259,"ĠOn":2260,"Cont":2261,"2015":2262,"}\\,":2263,"Ġfour":2264,"Ġconf":2265,"Ġphot":2266,"Ġdiag":2267,"Psi":2268,"On":2269,"ters":2270,"star":2271,"Ġimportant":2272,"Ġconditions":2273,"illi":2274,"Ġconstra":2275,"note":2276,"Ġeas":2277,"Ġenc":2278,"Ġmade":2279,"Ġocc":2280,"Ġzero":2281,"Ġprivate":2282,"Ġnormal":2283,"Exception":2284,"Ġobject":2285,"Ġalong":2286,"lected":2287,"Ġsupport":2288,"uster":2289,"Ġlength":2290,"Ġchange":2291,"}\\\\":2292,"bor":2293,"Ġrele":2294,"Ġblock":2295,"ĠLemma":2296,"Ġproperties":2297,"ik":2298,"Ġloc":2299,"ĉĊ":2300,"mid":2301,"Ġhelp":2302,"loy":2303,"Ġhigher":2304,"Ġconver":2305,"2021":2306,"He":2307,"operator":2308,"Ġexists":2309,"Ġtemperature":2310,"cup":2311,"Ġprobability":2312,"upp":2313,"ffer":2314,"netic":2315,"Ġcommun":2316,"alu":2317,"list":2318,"vari":2319,"xspace":2320,"ĠString":2321,"Ġcomput":2322,")]":2323,"Ġtraining":2324,"Ġpositive":2325,"Ġ$(\\":2326,"ĠAnd":2327,"urb":2328,"{{\\":2329,"which":2330,"Get":2331,"Ġmet":2332,"Ġstandard":2333,"Ġfactor":2334,"oh":2335,"ape":2336,"ring":2337,"Ġevent":2338,"Ġauth":2339,"Ġobserved":2340,"Ġfurther":2341,"Ġcases":2342,"subset":2343,"imal":2344,"lying":2345,"scale":2346,"iter":2347,"ised":2348,"Ġcheck":2349,"().":2350,"inary":2351,"cos":2352,"js":2353,"AP":2354,"Ġ&\\":2355,"LL":2356,"ED":2357,"ood":2358,"2022":2359,"Ġtimes":2360,"ah":2361,"Ġfile":2362,"Ġfull":2363,"Ġdiff":2364,"Ġdatas":2365,"rack":2366,"pping":2367,"Ġsever":2368,"oll":2369,"Ġchang":2370,"olutions":2371,"Ġsignificant":2372,"defin":2373,"ĠBy":2374,"appro":2375,"Ġ///":2376,"Un":2377,"idual":2378,"Ġstudi":2379,"mate":2380,"34":2381,"public":2382,"View":2383,"assif":2384,"Ġevalu":2385,"lue":2386,"ars":2387,"stand":2388,"70":2389,"Ġide":2390,"tional":2391,"onents":2392,"skip":2393,"ulated":2394,"asing":2395,"effici":2396,"Ġversion":2397,"http":2398,"wit":2399,"Ġdid":2400,"ited":2401,"Ġlight":2402,"}:":2403,"ving":2404,"ottom":2405,"ĠAd":2406,"Ġclear":2407,"ocument":2408,"Ġfree":2409,"nav":2410,"ways":2411,"Ġgalax":2412,"af":2413,"Ġabs":2414,"Ġleast":2415,"Ġ!=":2416,"]$":2417,"Ġcalled":2418,"ush":2419,"https":2420,"Ġge":2421,"Ġequival":2422,"Ġfrequ":2423,"\"></":2424,"|^":2425,"Ġcoup":2426,"Ġphys":2427,"Ġproposed":2428,"Ġthus":2429,"36":2430,"Ġmatch":2431,"Op":2432,"Ġpop":2433,"Ġtext":2434,"Ġbehav":2435,"Ġcompar":2436,"citet":2437,"Ġfeatures":2438,"ema":2439,"ession":2440,"Ġflu":2441,"Ġknown":2442,"Ġnear":2443,"Ġcontext":2444,"Ġuser":2445,"State":2446,"ordin":2447,"Ġ:=":2448,"Ġrequire":2449,"Ġhim":2450,"land":2451,"Ġconfig":2452,"Ġbelow":2453,"Ġquantum":2454,"url":2455,"\";":2456,"sian":2457,"Error":2458,"2014":2459,"Ġincluding":2460,"48":2461,"Ġpass":2462,"());":2463,"Ġmoment":2464,"Ġindex":2465,"Ġsequence":2466,"ym":2467,"Ġfixed":2468,"reen":2469,"field":2470,"Ġassume":2471,"path":2472,"hspace":2473,"Ġassociated":2474,"ĠSch":2475,"Object":2476,"ological":2477,"Ġless":2478,"Ġcomplete":2479,"Ġcross":2480,"equiv":2481,"RO":2482,"}+\\":2483,"ĠApp":2484,"Ġexpected":2485,"ged":2486,"ek":2487,"indent":2488,"Ġlearning":2489,"clusion":2490,"Ġwrit":2491,"Ġavailable":2492,"Ġquan":2493,"wise":2494,"onds":2495,"from":2496,"55":2497,"Ġcode":2498,"iled":2499,"scr":2500,"ste":2501,"based":2502,"Ġlines":2503,"Comp":2504,"Ġstart":2505,"ember":2506,"II":2507,"lied":2508,"With":2509,"tle":2510,"ams":2511,"Ġbetter":2512,"viron":2513,"Ġworld":2514,"ouble":2515,"=\"+":2516,"Ġsimple":2517,"Ġdetail":2518,"Ġpers":2519,"Ġprogram":2520,"angu":2521,"Ġdr":2522,"Ġappear":2523,"}}{\\":2524,"Class":2525,"state":2526,"ware":2527,"Ġfit":2528,"Ġemp":2529,"neq":2530,"Ġsample":2531,"but":2532,"Ġprovide":2533,"Ġscale":2534,"Ġloss":2535,"Ġformu":2536,"ackage":2537,"spec":2538,"mul":2539,"'$":2540,"ION":2541,"Ġeffect":2542,"dimension":2543,"Ġim":2544,"Ġbackground":2545,"Ġdel":2546,")-":2547,"Ġinterest":2548,"Ġposition":2549,"Ġcirc":2550,"vices":2551,"iness":2552,"._":2553,"IS":2554,"Ġperiod":2555,"({\\":2556,"ager":2557,"off":2558,"part":2559,"Ġanaly":2560,"ternal":2561,"][":2562,"unc":2563,"length":2564,"umerate":2565,"Int":2566,"orts":2567,"Ġconsist":2568,"}-\\":2569,"head":2570,"Ġsem":2571,"ctor":2572,"ital":2573,"Ġpan":2574,"Ġrespect":2575,"footnote":2576,"ĠNo":2577,"ump":2578,"Ġpost":2579,"annel":2580,"66":2581,"igen":2582,"olumn":2583,"ready":2584,"sin":2585,"perty":2586,"ety":2587,"Ġaccu":2588,"!--":2589,"Ġoutput":2590,"Ġdenote":2591,"Ġsetting":2592,"Ġcover":2593,"do":2594,"Ġfew":2595,"Me":2596,"iven":2597,"App":2598,"theorem":2599,"95":2600,"ustom":2601,"Ġrecent":2602,"Ġcontent":2603,"Ġsay":2604,"Ġ-\\":2605,"az":2606,"Ġcell":2607,"38":2608,"Key":2609,"icy":2610,"Ġsk":2611,"Ġinstance":2612,"kes":2613,"2013":2614,"rag":2615,"Ġpl":2616,"quot":2617,"There":2618,"IM":2619,"den":2620,"down":2621,"Ġwidth":2622,"stra":2623,"Ġproperty":2624,"uture":2625,"Ġexpect":2626,")}{":2627,"Ġexact":2628,"versity":2629,"point":2630,"Ġspin":2631,"PE":2632,"Ġsepar":2633,"ĠSince":2634,"Ġdistance":2635,"Ġmeans":2636,"itor":2637,"ensor":2638,"enumerate":2639,"Ġelements":2640,"Ġaverage":2641,"ris":2642,"Ġstep":2643,"Ġcy":2644,"Ġflow":2645,"ather":2646,"Ġturn":2647,"body":2648,"Ġweight":2649,"lated":2650,"ĠThese":2651,"Ġequations":2652,"gra":2653,"operatorname":2654,"){":2655,"Ġboundary":2656,"aving":2657,"ouse":2658,".</":2659,"04":2660,"Test":2661,"]\\":2662,"Ġeither":2663,"Ġbi":2664,"edge":2665,"Ġanother":2666,",âĢĿ":2667,"Ġbro":2668,"sert":2669,"itemize":2670,"rows":2671,"Time":2672,"Ġvel":2673,"Ġrece":2674,"vspace":2675,"dag":2676,"Ġtitle":2677,"ET":2678,"Ġques":2679,"Ġrem":2680,"multic":2681,"ience":2682,"Ġrema":2683,"licit":2684,"underline":2685,"mathscr":2686,"ident":2687,"ĠMore":2688,"omin":2689,"ane":2690,"Ġbreak":2691,"Ġ||":2692,"=\"../../":2693,"utr":2694,"site":2695,"tices":2696,"Ġown":2697,"37":2698,"hip":2699,"Ġsurface":2700,"31":2701,"lip":2702,"Ġnumer":2703,"net":2704,"Ġhal":2705,"pty":2706,"Ġfields":2707,"Ġhom":2708,"AB":2709,"Ġachi":2710,"nal":2711,"van":2712,"Ġdirection":2713,"``":2714,"Ġlabel":2715,"Ġcer":2716,"tra":2717,"Ġconsidered":2718,"split":2719,"multicolumn":2720,"Ġaff":2721,"attern":2722,"Ġmen":2723,"39":2724,"ĠBut":2725,"ework":2726,"Requ":2727,"ES":2728,"resh":2729,"noindent":2730,"ecess":2731,"ĠThus":2732,"Ġvia":2733,"Ġseveral":2734,"bs":2735,"(-":2736,"');":2737,"user":2738,"Lo":2739,"Rec":2740,"Ġgive":2741,"model":2742,"ides":2743,"Ġrati":2744,"Ġ/>":2745,"ister":2746,"$}":2747,"now":2748,"Ġdescribed":2749,"ĠPh":2750,"inally":2751,")}$":2752,"ĠAt":2753,"omial":2754,"LO":2755,"rep":2756,"02":2757,"Ġvol":2758,"Ġdep":2759,"ocity":2760,"08":2761,"tack":2762,"Ġcost":2763,"rior":2764,"ether":2765,"Ġedge":2766,"eme":2767,"ogle":2768,"xy":2769,"laim":2770,"cle":2771,"~$":2772,"Ġseen":2773,"display":2774,"Ġimplies":2775,"AD":2776,"Ġdeno":2777,"Ġ\\|":2778,"Ġfocus":2779,"Ġalways":2780,"ators":2781,"summary":2782,"Ġside":2783,"ume":2784,"}}_":2785,"bb":2786,"eV":2787,"Ġdon":2788,"Ġclassif":2789,"06":2790,"dimensional":2791,"Ġsolutions":2792,"Ġcour":2793,"(),":2794,"\\,\\":2795,"ticle":2796,"amesp":2797,"ĠLe":2798,"input":2799,"Ġresearch":2800,"File":2801,"Ġpur":2802,"Ġnat":2803,"ret":2804,"Ġlarger":2805,"NN":2806,"\":":2807,"Ġcolor":2808,"2012":2809,"Ġinclude":2810,"Ġlat":2811,"No":2812,"Ġgives":2813,"Ġhtt":2814,"block":2815,"Ġcoeffici":2816,"Ġvalid":2817,"Ġrequired":2818,"Ġdefinition":2819,"next":2820,"Qu":2821,"gether":2822,"Ġband":2823,"ging":2824,"Ġcompu":2825,"vestig":2826,"check":2827,"Ġrelations":2828,"Ġbuild":2829,"echan":2830,"Text":2831,"ĠĠĠĠĠĠĠĠĠĠĠĠ":2832,"Ġsug":2833,"egative":2834,"most":2835,"raction":2836,"Ġ?":2837,"icon":2838,"ird":2839,"ale":2840,"ying":2841,"Ġalready":2842,"\\}$":2843,"Ġstra":2844,"jor":2845,"44":2846,"bigg":2847,"['":2848,"her":2849,"tribute":2850,"&&":2851,"pped":2852,"alle":2853,"usiness":2854,"From":2855,"Ġec":2856,"{}":2857,"Ġnote":2858,"07":2859,"ories":2860,"Ġmis":2861,"Ġgenerated":2862,"ium":2863,"ĠâĢĺ":2864,"Ġcomponent":2865,"www":2866,"mooth":2867,"IR":2868,"ĠSo":2869,"vironment":2870,"rans":2871,"Le":2872,"Ġprote":2873,"Ġexpression":2874,"Ġlink":2875,"rule":2876,"Ġplace":2877,"approx":2878,"Ġfar":2879,"Ġspecific":2880,"ura":2881,"omen":2882,"fill":2883,"Ġemb":2884,"Ġaddress":2885,"Ġrefer":2886,"teq":2887,"true":2888,"ĠSer":2889,"Ġrelated":2890,"Ġimages":2891,"198":2892,"png":2893,"amespace":2894,"texttt":2895,"Ġsets":2896,"ino":2897,"PT":2898,"Event":2899,"anguage":2900,"earch":2901,"Ġlaw":2902,"Ġunit":2903,"Ġgrow":2904,"Ġmight":2905,"Ġsearch":2906,"Ġwant":2907,"Ġprove":2908,"ĠCO":2909,"UT":2910,"}}}":2911,"ĠYou":2912,"CC":2913,"ĠĠĠĠĠĠĠĠĠĠ":2914,"linear":2915,"ateg":2916,"UR":2917,"iform":2918,"LA":2919,"Ġthink":2920,"65":2921,"Node":2922,"ĠUn":2923,"nder":2924,"Ġglobal":2925,"terial":2926,"':":2927,"Ġoccur":2928,"Ġweak":2929,"ategory":2930,"ished":2931,"Ġagainst":2932,"Ġcr":2933,"OT":2934,"Ġgame":2935,"Ġalgebra":2936,"sw":2937,"03":2938,"Ġauto":2939,"gen":2940,"ĠCol":2941,"IG":2942,"Man":2943,"urity":2944,"FF":2945,"actions":2946,"Ġ-->":2947,"Item":2948,"Ġproduct":2949,"dec":2950,"normal":2951,"refer":2952,"2011":2953,"Ġindependent":2954,"ymp":2955,"call":2956,"ken":2957,"teger":2958,"Pi":2959,"ket":2960,"Ġrelation":2961,"config":2962,"Ġwrite":2963,"Info":2964,"Ġ_{":2965,"trm":2966,"Element":2967,"ecu":2968,"Ġmagnetic":2969,"Ġindiv":2970,"idence":2971,")+":2972,"Ġpla":2973,"Ġchild":2974,"that":2975,"Ġrepresentation":2976,"util":2977,"more":2978,"ately":2979,"Ġtherefore":2980,"Ġhard":2981,"ĠTable":2982,"ledge":2983,"textrm":2984,"tition":2985,"gence":2986,"Ġestimate":2987,"']":2988,"flo":2989,"Add":2990,"Ġholds":2991,"Ġachie":2992,"^-":2993,"++":2994,"omes":2995,"racy":2996,"Equ":2997,"Ġproduc":2998,"09":2999,"pl":3000,"seteq":3001,"Ad":3002,"meric":3003,"Ġinvol":3004,"ored":3005,"multi":3006,"lin":3007,"Ġbase":3008,"Ġrepres":3009,"Ġseries":3010,"Ġmultiple":3011,"bound":3012,"Ġeigen":3013,"}/":3014,"ln":3015,"icro":3016,"Ġequal":3017,"finite":3018,"pose":3019,"stance":3020,"Ġblack":3021,"/*":3022,"astic":3023,"Ġregular":3024,"ĠĠĠĠĠĠĠĠĠĠĠĠĠĠĠĠĠĠĠĠĠĠĠĠĠĠĠ":3025,"Ġdifference":3026,"Ġcontains":3027,"Ġfamily":3028,"version":3029,"ameter":3030,"matic":3031,"49":3032,"edd":3033,"Ġeffective":3034,"Ġcomponents":3035,"though":3036,"Ġeffects":3037,"Ġvariables":3038,"TR":3039,"Ġlik":3040,"Ð¾":3041,"ui":3042,"Ġcoordin":3043,"Des":3044,"gest":3045,"pc":3046,"Then":3047,"Ġnecess":3048,"Tr":3049,"ĠThey":3050,"cy":3051,"Ġcompared":3052,"ries":3053,"Ġclose":3054,"Path":3055,"izing":3056,"Ġshort":3057,"overn":3058,"Ġtoo":3059,"Ġspecial":3060,"Ġeffici":3061,"Ġcannot":3062,"Ġcolumn":3063,"Ġdiv":3064,"error":3065,"Ġlife":3066,"ĠTherefore":3067,"word":3068,"ĠAll":3069,"ĠSec":3070,"Ġspectrum":3071,"Ġreason":3072,"side":3073,"Dis":3074,"Ġinvestig":3075,"Ġtry":3076,"ook":3077,"ideo":3078,"Ġtre":3079,"Ġiss":3080,"acc":3081,"Since":3082,"Theta":3083,"uman":3084,"olean":3085,"cription":3086,"Ġprec":3087,"Ġadditional":3088,"Ġcri":3089,"Ġstars":3090,"gener":3091,"Ġcluster":3092,"Ġcreate":3093,"alk":3094,"Ġimplement":3095,"Ġopp":3096,"âĢ¦":3097,"PS":3098,"Ġoriginal":3099,"Ġvelocity":3100,"medi":3101,"Index":3102,"Ġnum":3103,"Ġwave":3104,"78":3105,"),\\":3106,"EE":3107,"Ġ\\;":3108,"ats":3109,"ĠCar":3110,"<\\":3111,"eter":3112,"Over":3113,"subseteq":3114,"='":3115,"uation":3116,"iving":3117,"kn":3118,"tag":3119,"wards":3120,"Ġsyn":3121,"Ġfund":3122,"/**":3123,"}^{-":3124,"Context":3125,"uments":3126,"ched":3127,"Ġtransition":3128,"ML":3129,"Ġarray":3130,"jective":3131,"Ġ$\\{":3132,"minus":3133,"command":3134,"Ġaccount":3135,"oot":3136,"2010":3137,"Ġrest":3138,"Ġacross":3139,"ĠOb":3140,"eline":3141,"Ġwhether":3142,"Ġindividual":3143,"icture":3144,"Ġitem":3145,"CH":3146,"ocial":3147,"ynomial":3148,"Ġresponse":3149,"Ph":3150,"Ġiter":3151,"CD":3152,"serv":3153,"uary":3154,"plate":3155,"Ġmaximum":3156,"Or":3157,"norm":3158,"ĠNote":3159,"Ġfuture":3160,"struct":3161,"Ġenough":3162,"ĠWith":3163,"oriz":3164,"Ġcommon":3165,"Ġ);":3166,"Ġreach":3167,"Ġmechan":3168,"void":3169,"Map":3170,"ilities":3171,"And":3172,"pol":3173,"Config":3174,"orth":3175,"Ġprac":3176,"Ġhyper":3177,"tation":3178,"\"\"":3179,"Ġmode":3180,"Ġvarious":3181,"Ġsuccess":3182,"Ġday":3183,"Ġfac":3184,"prod":3185,"like":3186,"Ġevolution":3187,"lished":3188,"ires":3189,"68":3190,"ĠTr":3191,"ride":3192,"}'":3193,"cep":3194,"onom":3195,"linewidth":3196,"ĠâĢĶ":3197,"ograph":3198,"())":3199,"Ġdomain":3200,"Ver":3201,"oy":3202,"Ġtask":3203,"oud":3204,"Vert":3205,"ank":3206,"iti":3207,"Ġaccording":3208,"47":3209,"Ġ$|":3210,"amil":3211,"char":3212,"Ġable":3213,"incip":3214,"Ġsignal":3215,"Ġhead":3216,"Ġtogether":3217,"Ã©":3218,"Se":3219,"api":3220,"Ġill":3221,"Ġ},":3222,"Ġprovided":3223,"my":3224,"ising":3225,"iff":3226,"valid":3227,"Pr":3228,"Request":3229,"atic":3230,"Is":3231,"Ġbasis":3232,"ressed":3233,"Ġdegree":3234,"Ġratio":3235,"md":3236,"Ġspect":3237,"eff":3238,"ours":3239,"Ġ($\\":3240,"Ġneutr":3241,"Ġunderstand":3242,"Ġdataset":3243,"Ġcertain":3244,"lication":3245,"Ġexplo":3246,"Ġben":3247,")|":3248,"{$":3249,"ns":3250,"Table":3251,"Ġimprove":3252,"Ġhowever":3253,"Ġemission":3254,"Ġpresented":3255,"Of":3256,"height":3257,"cr":3258,"ably":3259,"bt":3260,"ient":3261,"^{-\\":3262,"Ġtable":3263,"ulate":3264,"}},":3265,"ING":3266,"pher":3267,"ĠÐ":3268,"';":3269,"ends":3270,"gt":3271,"Ġinvari":3272,"undle":3273,"OS":3274,"mission":3275,"struction":3276,"Ġmove":3277,"Ġaccess":3278,"long":3279,"Ġevents":3280,"Service":3281,"Ġtechn":3282,"Ġrestr":3283,"}}_{":3284,"ait":3285,"Ġsite":3286,"Ġtheorem":3287,"pe":3288,"Ġdefault":3289,"Ġhapp":3290,"method":3291,"Ġunique":3292,"67":3293,"sitions":3294,"istory":3295,"Ġarea":3296,"ĠSystem":3297,"Ġorgan":3298,"ls":3299,"Ġseem":3300,"dagger":3301,"Ġ(-":3302,"Ġ(!":3303,"Ġcontinuous":3304,"izes":3305,"ĠMe":3306,"Ġrelative":3307,"mar":3308,"Ġamp":3309,"setminus":3310,"lor":3311,"All":3312,"hood":3313,"oin":3314,"ster":3315,"igned":3316,"oplus":3317,"Exp":3318,"Ġgas":3319,"Ġgeom":3320,"Ġprim":3321,"conn":3322,"ina":3323,"cell":3324,"Ġdetails":3325,"ially":3326,"ender":3327,"auge":3328,"\\}":3329,"Ġ});":3330,"Ġflux":3331,"subfigure":3332,"Ġfla":3333,"MS":3334,"ĠAmeric":3335,"base":3336,"Note":3337,"riter":3338,"tot":3339,"0000":3340,"####":3341,"US":3342,"Ġdone":3343,"85":3344,"Ġmatter":3345,"rame":3346,"rand":3347,"result":3348,"tead":3349,"_+":3350,"Ġinequ":3351,"Ġmetric":3352,"Ġupper":3353,"Ġfig":3354,"onic":3355,"ilder":3356,"Ġtaken":3357,"Ġtechni":3358,"ĠĠĠĊ":3359,"quare":3360,"ĠDis":3361,"using":3362,"MA":3363,"Ġfrequency":3364,"Ġexpla":3365,"Ġapplied":3366,"eturn":3367,"omorphism":3368,"wedge":3369,"Ġobjects":3370,"TE":3371,"Ġnoise":3372,"Ġcenter":3373,"Ġstatis":3374,"Ġ$-":3375,"....":3376,"Ġnatural":3377,"orld":3378,"uk":3379,"Ġamong":3380,"Po":3381,"ĠWhen":3382,"turb":3383,"Ġgroups":3384,"Ġsmooth":3385,"Ġwhose":3386,"apache":3387,"Ġsit":3388,"[]":3389,"level":3390,"Ġderiv":3391,"acy":3392,"orn":3393,"$_":3394,"local":3395,"Ġrole":3396,"Def":3397,"Ġdecre":3398,"enti":3399,"Ġequivalent":3400,"sup":3401,"leg":3402,"Ġground":3403,"abled":3404,"*{":3405,"Ġ$[":3406,"Ġpolynomial":3407,"vis":3408,"Ġlayer":3409,"iver":3410,"lations":3411,"New":3412,"ĠFe":3413,"((":3414,"tage":3415,"Ġobservations":3416,"hand":3417,"rated":3418,"2009":3419,"ectors":3420,"Array":3421,"mber":3422,"clo":3423,"Ġemploy":3424,"une":3425,"book":3426,"Size":3427,"77":3428,"ious":3429,"roller":3430,"aligned":3431,"98":3432,"ully":3433,"ĠPar":3434,"ĠEn":3435,"Ġbegin":3436,"Ð°":3437,"Ġgalaxies":3438,"Ġuncer":3439,"jection":3440,"SP":3441,"Ġscen":3442,"flow":3443,"Ġbehavior":3444,"rary":3445,"ĠUniversity":3446,"Ġred":3447,"oding":3448,"Ġchanges":3449,"limits":3450,"Ġput":3451,"Ġprior":3452,"Ġvariable":3453,"Sch":3454,"Ġchoice":3455,"Ġold":3456,"irt":3457,"Ġrequest":3458,"=\"../../../../":3459,"Ġassert":3460,"Ġ/*":3461,"Ġnodes":3462,"Ġprovides":3463,"abs":3464,"Ġtransform":3465,"enu":3466,"_*":3467,"Model":3468,"atial":3469,"={":3470,"Ġwar":3471,"\\'":3472,"Ġbounded":3473,"_{(":3474,"Ġ|\\":3475,"Ġgoing":3476,"stit":3477,"ĠMod":3478,"ĠOne":3479,"Ġneigh":3480,"Ðµ":3481,"Ġincrease":3482,"46":3483,"Ġgreat":3484,"Ġproject":3485,"aves":3486,"allel":3487,"Ġdemon":3488,"Ġsmaller":3489,"ending":3490,"content":3491,"ru":3492,"sch":3493,"Ġoften":3494,"But":3495,"Ġhence":3496,"](":3497,"Ġcurve":3498,"Ġreview":3499,"rel":3500,"Ġsymmetry":3501,"Ġsrc":3502,"ansion":3503,"Field":3504,".\"":3505,"Ġdiagram":3506,"Ġoperators":3507,"ĠUS":3508,"ions":3509,"Ġinteraction":3510,"Ġlearn":3511,"known":3512,"Ġperm":3513,"Code":3514,"can":3515,"Ġbig":3516,"Ġallows":3517,">&":3518,"Ġdirectly":3519,"Ġclosed":3520,"illion":3521,"lt":3522,"AG":3523,"object":3524,"stack":3525,"Ġgre":3526,"create":3527,"Ġinstead":3528,"sto":3529,"Ġsoft":3530,"Ġvertex":3531,"Ġax":3532,"ollary":3533,"ques":3534,"mic":3535,"Ġenti":3536,"column":3537,"Net":3538,"FT":3539,"Ġbook":3540,"lar":3541,"Ġphysical":3542,"Ġtypes":3543,"2008":3544,"ĉĉĉĉĉĉ":3545,"Ġmaterial":3546,"Ġsuffici":3547,"Ġstre":3548,"_{{\\":3549,"Ġdouble":3550,"Ġapply":3551,"Ġproblems":3552,"ley":3553,"witch":3554,"amilton":3555,"Color":3556,"dient":3557,"ĠBe":3558,"core":3559,"Ġpattern":3560,"ĠRec":3561,"Ġdiscre":3562,"Ġsamples":3563,"Ġsays":3564,"Ġmajor":3565,"black":3566,"bul":3567,"Ġkeep":3568,":\\":3569,"rect":3570,"Ġenvironment":3571,"Rep":3572,"fe":3573,"Ġbecomes":3574,"Out":3575,"OD":3576,"Ġang":3577,"Ġhealth":3578,"Log":3579,"lete":3580,"Hand":3581,"outh":3582,"Ġteam":3583,"ittle":3584,"Ġir":3585,")/":3586,"Ġstyle":3587,"HE":3588,"Ġapproximation":3589,"NS":3590,")\\,":3591,"default":3592,"aussian":3593,"ĠPr":3594,"Ġ\\(":3595,"Ġoptimal":3596,"Ġrather":3597,"Ġhome":3598,"Ġ}\\":3599,"colon":3600,"Ġbecome":3601,"llar":3602,"Ġembedd":3603,"Ġsources":3604,"Sec":3605,"Ġproced":3606,"}}(\\":3607,"ĠIs":3608,"////////":3609,"ĠCor":3610,"Ġfore":3611,"Ġexplicit":3612,"iss":3613,"Ġmakes":3614,"ropy":3615,"Ġdetermined":3616,"IL":3617,"Ġlater":3618,"Inter":3619,"42":3620,"Ġadj":3621,"Ġsen":3622,"definition":3623,"Ġchannel":3624,"argin":3625,"Ġformula":3626,"Ġmonth":3627,"ĠRep":3628,"ĠOur":3629,"Ġsubset":3630,"Ġweb":3631,"Ġuniform":3632,"ranch":3633,"96":3634,"TD":3635,"97":3636,"ceed":3637,"web":3638,"info":3639,"comm":3640,"uck":3641,"ĠMon":3642,"ba":3643,"css":3644,"****************":3645,"ĠProposition":3646,"Ġmaps":3647,"ided":3648,"ĠCent":3649,"rec":3650,"Ġclaim":3651,"case":3652,"Ġti":3653,"Ġalmost":3654,"tor":3655,"Message":3656,"Ġquestion":3657,"Ġfa":3658,"namespace":3659,"ĠOr":3660,"Ġpress":3661,"rategy":3662,"MP":3663,"change":3664,"Ġcritical":3665,"agement":3666,")}(":3667,"Ġdynamics":3668,"tact":3669,"Ġsatisfies":3670,"La":3671,"âĢĶ":3672,"Ġapplication":3673,"Ġexperiments":3674,".$":3675,"Sub":3676,"Ġprop":3677,"Ġregions":3678,"Ġparticle":3679,"osen":3680,"encies":3681,"dle":3682,"AA":3683,"Ġwords":3684,"fact":3685,"iction":3686,"ives":3687,"CE":3688,"Ġdetection":3689,"ENT":3690,"Ġincreasing":3691,"lang":3692,"graph":3693,"Ġquanti":3694,"aster":3695,"ĠJan":3696,"_{-":3697,"=(":3698,"Ġconnected":3699,"ĠSet":3700,"ivial":3701,"Ġinterval":3702,"Ġtransp":3703,"Ġcoupling":3704,"Reg":3705,"vant":3706,"Ġbusiness":3707,"UN":3708,"ests":3709,"Ġchall":3710,"}%":3711,"Ġhaving":3712,"Ġaccuracy":3713,"{$\\":3714,"Ġcaus":3715,"ĠDec":3716,"Ġagree":3717,"Ġ~":3718,"lease":3719,"Ġparticles":3720,"Ġjava":3721,"End":3722,"ĠMan":3723,"Ġframework":3724,"Ġoptions":3725,"na":3726,"aries":3727,"bottom":3728,"ĠSe":3729,"Ġservice":3730,"Now":3731,"Ġradius":3732,"Ġdiscussed":3733,"ĠAss":3734,"}$-":3735,"Ġheight":3736,"Ġgauge":3737,"ening":3738,"Ġarbit":3739,"context":3740,"Ġsimulations":3741,"Ġnuc":3742,"Ġconstruction":3743,"ync":3744,"Bar":3745,"'\\":3746,"ĠGet":3747,"Ġnumbers":3748,"Eq":3749,"ards":3750,"Ġcome":3751,"One":3752,"Ġscatter":3753,"page":3754,"ashed":3755,"88":3756,"Ġeng":3757,"$(":3758,"tainer":3759,"newcommand":3760,"endix":3761,"tific":3762,"ĠHere":3763,"Ġmessage":3764,"aly":3765,"Ġmer":3766,"=-":3767,"ĠEu":3768,"forall":3769,"Ġplot":3770,"Ġgrav":3771,"Ġrob":3772,"nit":3773,"eak":3774,"Ġnumerical":3775,"Our":3776,")^{\\":3777,"ĠCo":3778,"ested":3779,"Ġwritten":3780,"mail":3781,"lap":3782,"ming":3783,"bug":3784,"esis":3785,"ithub":3786,",\\,":3787,"range":3788,"43":3789,"Ġspectral":3790,"latform":3791,"Ġatom":3792,"come":3793,"cast":3794,"Ġnegative":3795,"Ġscheme":3796,"Ġprincip":3797,"tocol":3798,"Ġtaking":3799,"Ġcomparison":3800,"Ġtreat":3801,"2007":3802,"acity":3803,"textsc":3804,"Ġhold":3805,"subsubsection":3806,"db":3807,"'_":3808,"Ġnever":3809,"Ġworks":3810,"âĢĵ":3811,"Ġcentral":3812,"Ġhalf":3813,"Ġextension":3814,"Ġscenari":3815,"ohn":3816,"run":3817,"Ġpay":3818,"Ġconc":3819,"Ġreally":3820,")_{":3821,"Ġ===":3822,"Ġattack":3823,"Ġtool":3824,"Ġtree":3825,"Ġpeak":3826,"Here":3827,"Ġmomentum":3828,"current":3829,"ĠHence":3830,"ypes":3831,"Ġfail":3832,"Ġcompute":3833,"2006":3834,"Ġconstruct":3835,"ification":3836,"Ġmultip":3837,"deg":3838,"android":3839,"Ġcare":3840,"User":3841,"Ġ+\\":3842,"Supp":3843,"Ġmeasured":3844,"Ġcorrect":3845,"static":3846,"usic":3847,"){\\":3848,"Ġcompact":3849,"image":3850,"Ġstudies":3851,"Ġthird":3852,"values":3853,"Ġrel":3854,"ATE":3855,"Ġcourse":3856,"57":3857,"auth":3858,"MM":3859,"Ġ};":3860,"Ġmaking":3861,"\\\"":3862,"ought":3863,"ename":3864,"osed":3865,"\\!\\!":3866,"Ġpolar":3867,";&":3868,"Ġdiscussion":3869,"isk":3870,"Ġconven":3871,"supp":3872,"Ġseg":3873,"gorithms":3874,"SC":3875,"ĠSte":3876,"Ġdomin":3877,"--------------------------------":3878,"ade":3879,"Ġdisplay":3880,"Ġcustom":3881,"Ġarch":3882,"Ġdiffic":3883,"example":3884,"Ġsto":3885,"Ġhuman":3886,"define":3887,"reed":3888,"thers":3889,"System":3890,"Ġcount":3891,"include":3892,"Ġweek":3893,"ĠThat":3894,"Ġda":3895,"Ġestab":3896,"module":3897,"Ġtakes":3898,"Ġamplit":3899,"cases":3900,"ĠRef":3901,"Ġtherm":3902,"Method":3903,"lier":3904,"ords":3905,"Ġsense":3906,"Ġvertices":3907,"Ġtw":3908,"assert":3909,"Ġchain":3910,"Gener":3911,"ĠComp":3912,"Ġspatial":3913,"ympto":3914,"PC":3915,"doc":3916,"GL":3917,"Manager":3918,"Be":3919,"Ġnetworks":3920,"andid":3921,"Ġgovern":3922,"=\"../":3923,"start":3924,"Ġpanel":3925,"SU":3926,"github":3927,"Ġpage":3928,"Ġcorresponds":3929,"ngth":3930,"When":3931,"Ġresulting":3932,"false":3933,"PI":3934,"duces":3935,"alt":3936,"Ġmanif":3937,"active":3938,"Ġleg":3939,"Ġvan":3940,"perp":3941,"ernel":3942,"Ġcontribution":3943,"era":3944,"Ġapproximate":3945,"Ġperformed":3946,"itect":3947,"2023":3948,"asks":3949,"ĠSta":3950,"uter":3951,"Ġminimum":3952,"Ġauthor":3953,"Ġschool":3954,"Ġinequality":3955,"Ġreport":3956,"58":3957,"zero":3958,"41":3959,"Ġdecay":3960,"MC":3961,"Ġuntil":3962,"rier":3963,"56":3964,"Ġcontr":3965,"inf":3966,"ĠPol":3967,"Ġillust":3968,";</":3969,"================":3970,"Ġcut":3971,"remark":3972,"Ġlattice":3973,"ili":3974,"simeq":3975,"pmatrix":3976,"Ġclasses":3977,"java":3978,"Ġreference":3979,"Ġclassical":3980,"ux":3981,"dim":3982,"ĠLi":3983,"PR":3984,"Ġpati":3985,"OM":3986,"Ġmotion":3987,"oving":3988,"efore":3989,"ĠSci":3990,"ponse":3991,"ught":3992,"arily":3993,"Ġcos":3994,"Ġearly":3995,"Ġderived":3996,"Ġassumption":3997,"Ġ__":3998,"Ġmeasurements":3999,"ptions":4000,"reate":4001,"Ġreported":4002,"package":4003,"ĠEng":4004,"Ġdocument":4005,"Ġperturb":4006,"Ġchoose":4007,"First":4008,"Ġ]":4009,"ĠMar":4010,"Ġconstraints":4011,"Ġann":4012,"bin":4013,")\\\\":4014,"Ġcoefficients":4015,"dl":4016,"ops":4017,"Ġdecom":4018,"ony":4019,"ensive":4020,"Ġsolid":4021,"Ġwin":4022,"eli":4023,"Ġintroduced":4024,"$).":4025,"ront":4026,"ĠFrom":4027,"dx":4028,"More":4029,"ended":4030,"Ġexpansion":4031,"Ġfun":4032,"Ð¸":4033,"ULL":4034,"Figure":4035,"Ġsugges":4036,"Ġentire":4037,"Ġliter":4038,"isms":4039,"Sc":4040,"bert":4041,"DF":4042,"Ġmid":4043,"ture":4044,"Ġlikely":4045,"rup":4046,"Ġcalculated":4047,"alog":4048,"({":4049,"Ġnam":4050,"SO":4051,"Ġthough":4052,"ĠMay":4053,"Ġandroid":4054,"mas":4055,"Ġsocial":4056,"Ġdraw":4057,"Ġleading":4058,"~$\\":4059,"Ġonce":4060,"ĠHamilton":4061,"Ġusers":4062,"iny":4063,"Ġdescribe":4064,")^{-":4065,"=\"#":4066,"Group":4067,"izer":4068,"Ġsimply":4069,"ĠĠĠĠĠĠĠĠĠĠĠĠĠĠĠĠĠ":4070,"eful":4071,"ĠMoreover":4072,"hom":4073,"Ġmention":4074,"zed":4075,".~(\\":4076,"Ġsimulation":4077,"pa":4078,"fit":4079,"ameters":4080,"inos":4081,"Ġframe":4082,"IF":4083,"Ġess":4084,"ĠĠĠĠĠĠĠĠĠĠĠĠĠĠ":4085,"}^*":4086,"Ġleads":4087,"ÑĤ":4088,"bullet":4089,"Ġfilter":4090,"Ġneeded":4091,"vex":4092,"Ġlittle":4093,"urthermore":4094,"Ġconfiguration":4095,"<!--":4096,"option":4097,"Ġedges":4098,"imilar":4099,"Ġinterpre":4100,"Ġconsistent":4101,"Ġaway":4102,"Ref":4103,"Ġplane":4104,"ĠĠĠĠĠĠĠĠĠĠĠĠĠĠĠĠĠĠĠĠĠĠĠĠĠĠĠĠĠĠĠ":4105,"^{+":4106,"}}^":4107,"Ġnil":4108,"Result":4109,",\"":4110,"ĠMed":4111,"Ġrecord":4112,"process":4113,"ering":4114,"$^{-":4115,"rs":4116,"Ġnecessary":4117,"Ġdistributions":4118,"Ġproduction":4119,"Ġtrac":4120,"trices":4121,"ĠShe":4122,"tention":4123,"Not":4124,"has":4125,"Ġscalar":4126,"aged":4127,"Ġadded":4128,"ĠCl":4129,"Ġinteresting":4130,"roduction":4131,"olute":4132,")}{\\":4133,"Ġutil":4134,"Ġdays":4135,"ategor":4136,"Ġwater":4137,"76":4138,"phere":4139,"Ġdeep":4140,"Dec":4141,"reshold":4142,"\\_":4143,"Ġargument":4144,"vey":4145,"Ġdenotes":4146,"Ġmodule":4147,"ĠRo":4148,"Ġlanguage":4149,"first":4150,"Property":4151,"sol":4152,"Ġflo":4153,"free":4154,"Ġensure":4155,"Ġdescription":4156,"Ġbody":4157,"Ġuses":4158,"Ġneeds":4159,"Ġcorrelation":4160,"Ġbit":4161,"lex":4162,"isted":4163,"Trans":4164,"Ġpartial":4165,"Ġtensor":4166,"Ġwindow":4167,"Ġnorm":4168,"Ġselection":4169,"rees":4170,"Ext":4171,"Ġtheore":4172,"Ġspeed":4173,"SI":4174,"})$.":4175,"ney":4176,"Ġamount":4177,"Ġborder":4178,"dir":4179,"Ġalgorithms":4180,"ogene":4181,"Ġ&=&":4182,"Ġund":4183,"ĠCan":4184,"Ġdepends":4185,"Pre":4186,"Ġsamp":4187,"Ġload":4188,"super":4189,"$$\\":4190,"finished":4191,"ones":4192,")$-":4193,"print":4194,"Ġ=\\":4195,"num":4196,"2005":4197,"\\|_{":4198,"Ġrequires":4199,"Ġquas":4200,"oder":4201,"Ġfive":4202,"Ġcorrection":4203,"Ġupdate":4204,"Ġintegral":4205,"Line":4206,"Ġmarket":4207,"Ġresource":4208,"port":4209,"Ġchosen":4210,"500":4211,"sequence":4212,"Ġoffer":4213,")</":4214,"aps":4215,"Ġpolicy":4216,"Ġorbit":4217,"IP":4218,"Ġcompany":4219,"Ġperson":4220,"Ġpossi":4221,"write":4222,"Ġfl":4223,"idden":4224,"Ġdevelopment":4225,"ĠĠĠĠĠĠĠĠĊ":4226,"gg":4227,"Ġreduced":4228,"Ġcurves":4229,"ises":4230,"ditional":4231,"Ġhar":4232,"Ġprocedure":4233,"null":4234,"Ġprocesses":4235,"Fil":4236,"cd":4237,"However":4238,"radi":4239,"Ġexperimental":4240,"Ġeasy":4241,"Ġimpact":4242,"Ġdifficult":4243,"Ġshape":4244,"tik":4245,"pec":4246,">(":4247,"Ġcomputed":4248,"Ġcharge":4249,"Ġdecision":4250,"Spec":4251,"cit":4252,"Ġselected":4253,"Ġgot":4254,"pts":4255,"files":4256,"Ġstrength":4257,"abase":4258,"Ġexamples":4259,"Ġrow":4260,"ama":4261,"Ġerrors":4262,"Ġvolume":4263,"sem":4264,"mapsto":4265,"Ġconv":4266,"cs":4267,"Ġonline":4268,"Ġdiscuss":4269,"ilib":4270,"Ġuseful":4271,"element":4272,"Ġbox":4273,"Ġinfinite":4274,"}}^{":4275,"Ġbar":4276,"ĠMin":4277,"Ac":4278,"dr":4279,"Ġcommunity":4280,"ĠCal":4281,"Ġregard":4282,"ĠPo":4283,"Ġknowledge":4284,"Ġpresence":4285,"Ġadap":4286,"ĠMark":4287,"zz":4288,"Ġangle":4289,"lib":4290,"Fe":4291,"Ġinternal":4292,"Date":4293,"rant":4294,"Ġshall":4295,"semb":4296,"Query":4297,"Ġminim":4298,"Ġdetermine":4299,"band":4300,"Ġspectra":4301,"ĠÂ":4302,"à¤":4303,"Ġspaces":4304,"Ġeasily":4305,"Ġinvariant":4306,"orage":4307,"ffor":4308,"Ġcollection":4309,"Ġwhole":4310,"Ġfactors":4311,"bits":4312,"Ġsent":4313,"ĠFirst":4314,"Ġwhy":4315,"Ġdual":4316,"Ġexperiment":4317,"Ġconnection":4318,"unfinished":4319,"ker":4320,"Theorem":4321,"{{":4322,"cons":4323,"Ġquality":4324,"Ġatt":4325,"ously":4326,"ĠDo":4327,"older":4328,"len":4329,"Ġyet":4330,"dist":4331,"Ġapplications":4332,"2000":4333,"Ġstd":4334,"Action":4335,"ĠGo":4336,"atory":4337,"Ġpul":4338,"Ġbool":4339,"Ġstudied":4340,"fined":4341,"bi":4342,"Ġthrow":4343,"Ġsplit":4344,"Next":4345,"comple":4346,"edu":4347,"Ġpast":4348,"unch":4349,"Thus":4350,"Ġrepresents":4351,"LS":4352,"mations":4353,"|_{":4354,"Ġsupported":4355,"Ġfigure":4356,"EC":4357,"ids":4358,"Ġrelevant":4359,"HT":4360,"eler":4361,"Ġstellar":4362,"Ġlocation":4363,"php":4364,"Ġtransfer":4365,"bl":4366,"Ġpub":4367,"Ġexperience":4368,"Input":4369,"ĠTra":4370,"Ġmembers":4371,"Ġstudents":4372,"Ġsteps":4373,"ĠReg":4374,"utes":4375,"Ġexactly":4376,"])":4377,"69":4378,"google":4379,"ĠGu":4380,"Ġvideo":4381,"Ġhear":4382,"Ġanti":4383,"odot":4384,"event":4385,"bur":4386,"Imp":4387,"Ġintroduce":4388,"Ġresolution":4389,"79":4390,"ĠGaussian":4391,"Ġjob":4392,"59":4393,"ĠState":4394,"Ġhost":4395,"Ġincluded":4396,"Ġaltern":4397,"Ġmagnit":4398,"Fact":4399,"proposition":4400,"Ġdependence":4401,"Client":4402,"LT":4403,"ners":4404,"mc":4405,"Ġthings":4406,"Ġextra":4407,"Ġcandid":4408,"func":4409,"query":4410,"Ġpopulation":4411,"Count":4412,"Ġsomething":4413,"Call":4414,"Ġdisk":4415,"Ġapproaches":4416,"Ġincreases":4417,"Ġve":4418,"Ġstrategy":4419,"Ġmemory":4420,"Ġprom":4421,".)":4422,"ĠQu":4423,"Ġadvan":4424,"Ġsymmetric":4425,"'}":4426,"agraph":4427,"jav":4428,"Ġarbitrary":4429,"Ġrank":4430,"Box":4431,"\\{\\":4432,"omorphic":4433,"mma":4434,"ĠAg":4435,"Ġitself":4436,"dsh":4437,"_-":4438,"Ġmatrices":4439,"Ġworking":4440,"Ġ${":4441,"ĠSupp":4442,"54":4443,"gress":4444,"Ġ->":4445,"bold":4446,"Ġcomes":4447,"adding":4448,"Ð½":4449,"Ġprofile":4450,"iden":4451,"yl":4452,"EM":4453,"Ġ$$":4454,"Override":4455,"oken":4456,"ĠDes":4457,"TH":4458,"Ġdark":4459,"DB":4460,"$;":4461,"Ġpairs":4462,"han":4463,"Acc":4464,"ections":4465,"Ġfully":4466,"Ġstream":4467,"aren":4468,"Response":4469,"Ġmodes":4470,"Ġblue":4471,"Ġoperation":4472,"pri":4473,"ecause":4474,")_":4475,"ilibri":4476,"Image":4477,"Ġrates":4478,"Ġconvergence":4479,"What":4480,"Ġavoid":4481,"ucted":4482,"Ġsignificantly":4483,"72":4484,"target":4485,"ao":4486,"Ġinteger":4487,"irtual":4488,"}{|":4489,"ĠPer":4490,"Util":4491,"ung":4492,"ried":4493,"So":4494,"Ġparts":4495,"uly":4496,"$~":4497,"}&":4498,"51":4499,")},":4500,"Ġcomputation":4501,"Ġhoriz":4502,"Ġcategory":4503,"Ġlevels":4504,"Ġlot":4505,"Ġcompare":4506,"Ġestimates":4507,"Ġasympto":4508,"'(":4509,"dro":4510,"rics":4511,"ĠBo":4512,"plan":4513,"ky":4514,"Ġyields":4515,"opt":4516,"Ġword":4517,"pid":4518,"font":4519,"Ġinflu":4520,"Ġcore":4521,"stream":4522,"Ġones":4523,"Ġsure":4524,"Ġclassification":4525,"Ġhistory":4526,"cref":4527,"Ġrule":4528,"vo":4529,"Ġactive":4530,"sts":4531,"picture":4532,"atives":4533,"ĠDi":4534,"Ġgenerate":4535,"button":4536,"Ed":4537,"Ġstructures":4538,"sur":4539,"hy":4540,"icity":4541,"Ġhttp":4542,"ball":4543,"PP":4544,"52":4545,"Ġquad":4546,"fect":4547,"args":4548,"Ġincludes":4549,"ilt":4550,"Ġland":4551,"abilities":4552,"Ġmeet":4553,"Cl":4554,"arp":4555,"Ġdate":4556,"Ġclos":4557,"Ġcoll":4558,"usters":4559,"Ġremains":4560,"system":4561,"Ġidea":4562,"2004":4563,"bas":4564,"ĠAcc":4565,"Ġactually":4566,"Ġforce":4567,"tikz":4568,"Ġpropag":4569,"perties":4570,"ĠOp":4571,"ante":4572,"Ġroot":4573,"Ġelectron":4574,"SD":4575,"ipage":4576,"Ġobserve":4577,"Ġmach":4578,"inty":4579,"NR":4580,"ued":4581,"minipage":4582,"Ġpack":4583,"EX":4584,"ales":4585,"}{(":4586,"Ġface":4587,"ĠNow":4588,"~~~~":4589,"53":4590,"Ġsymbol":4591,"Ġinteractions":4592,"Ġidentity":4593,"Ġrecon":4594,"Ġtor":4595,"Ġstory":4596,"Ġmedia":4597,"Ġothers":4598,"df":4599,"Ġhttps":4600,"ube":4601,"Ġinside":4602,"Block":4603,"cel":4604,"timation":4605,"strong":4606,"blue":4607,"oney":4608,")+\\":4609,"Ġessential":4610,"Ġhol":4611,"Ġselect":4612,"Ġgoal":4613,"layer":4614,"cf":4615,"hbar":4616,"onential":4617,"dat":4618,"Ġforward":4619,"ĠNational":4620,"Ġmas":4621,"tainty":4622,"Ġkind":4623,"ighted":4624,"displaystyle":4625,"Ġslow":4626,"ÑĢ":4627,"uations":4628,"86":4629,"ĠHamiltonian":4630,"ele":4631,"IV":4632,"Ġlatter":4633,"ĉĉĉĉĉĉĉĉ":4634,"pdate":4635,"Ġansw":4636,"gl":4637,"Ġgrowth":4638,"Ġorigin":4639,"post":4640,"oto":4641,"pecially":4642,"Ġbenef":4643,"Ġarchitect":4644,"Ġmeasurement":4645,"ĠAug":4646,"open":4647,"SM":4648,"versal":4649,"Ġbinary":4650,"tification":4651,"oo":4652,"Ġextended":4653,"Ġestimated":4654,"apter":4655,"alg":4656,"Ġimmedi":4657,"ĠĠĠĠĠĠĠĠĠĠĠĠĊ":4658,"Builder":4659,"Ġbal":4660,"ĠIN":4661,"Ġvectors":4662,"Ġrecover":4663,"sities":4664,"hbox":4665,"pan":4666,"}}$,":4667,"Ġvo":4668,"tings":4669,"Ġdig":4670,"Ġformation":4671,"Per":4672,"GC":4673,"bly":4674,"Ġquite":4675,"Ġexecu":4676,"finition":4677,"pla":4678,"number":4679,"Ġ<<":4680,"term":4681,"Component":4682,"Ġfeel":4683,"unit":4684,")-\\":4685,"89":4686,"ĠGener":4687,"aj":4688,"options":4689,"cong":4690,"Ġdifferential":4691,"ilibrium":4692,"Ġgalaxy":4693,"87":4694,"build":4695,"imin":4696,"btn":4697,"ONT":4698,"isation":4699,"Ġcreated":4700,"Ġindu":4701,"Ġchildren":4702,"description":4703,"Ġseason":4704,"Stream":4705,"tributes":4706,"Ġdeveloped":4707,"})$,":4708,"Ġoffic":4709,"pg":4710,"Ġhyp":4711,"Ġoption":4712,"Ġheav":4713,"Ġstable":4714,"Ġdri":4715,"Ġslight":4716,"}}$.":4717,"count":4718,"Ġbelie":4719,"Nav":4720,"Ġquery":4721,"ury":4722,"Resource":4723,"Ġaim":4724,"Ġoptimization":4725,"rad":4726,"gr":4727,"select":4728,"Ġcircle":4729,"Ġmorph":4730,"tein":4731,"Ġdeal":4732,"Hz":4733,"iffer":4734,"LP":4735,"inding":4736,"Ġstatement":4737,"Ġpressure":4738,"Ġtasks":4739,"rope":4740,"ĠData":4741,"Ġ;":4742,"Status":4743,"}$)":4744,"unity":4745,"Ġask":4746,"Ġcoordinates":4747,"Ġappropri":4748,"Ġflat":4749,"Ġcommand":4750,"berg":4751,"ĠInter":4752,"Ġattention":4753,"ĠNe":4754,"Ġtransformation":4755,"partment":4756,":}":4757,"Co":4758,"ills":4759,"Ġbranch":4760,"ĠList":4761,"OP":4762,"Ġimag":4763,"vector":4764,"img":4765,"match":4766,"BC":4767,"Ġconfir":4768,"Ġsix":4769,"etailed":4770,"Ġexisting":4771,"73":4772,"Conn":4773,"zation":4774,"break":4775,"Ġgradient":4776,"Ġsatisfy":4777,"Ġsimpl":4778,"pack":4779,"Ġprediction":4780,"enn":4781,"ses":4782,"Ass":4783,"ĠSu":4784,"Ġstruct":4785,"nov":4786,"igger":4787,"Ġage":4788,"Ġcli":4789,"bes":4790,"Ġoptical":4791,"Ġauthors":4792,"header":4793,"Lay":4794,"Ġlonger":4795,"Ġosc":4796,"meta":4797,"Ġfri":4798,"cles":4799,"Ġexistence":4800,"results":4801,"Ġquark":4802,"Ġanalog":4803,"${":4804,"Ġfraction":4805,"Instance":4806,"Ð¾Ð":4807,"aging":4808,"$),":4809,"sg":4810,"ĠAfter":4811,"Ġord":4812,"cing":4813,"Ġparticip":4814,"ĠJohn":4815,"stract":4816,"only":4817,"opic":4818,"ĠJanuary":4819,"ontal":4820,"63":4821,"Base":4822,"del":4823,"Ġbul":4824,"Ġfall":4825,"auto":4826,"Ġfix":4827,"ights":4828,"CP":4829,"Ġchallen":4830,"Ġvanish":4831,"Ġdepth":4832,"lesssim":4833,"ana":4834,"Ġinterface":4835,"Ġ...":4836,"Ġoverall":4837,"[(":4838,"Ġthreshold":4839,"Cur":4840,"else":4841,"Ġabsolute":4842,"Ġneg":4843,"84":4844,"Hel":4845,"Ġfeed":4846,"Ġcounter":4847,"Ġscattering":4848,"Ġinner":4849,"seud":4850,"client":4851,"))$":4852,"hic":4853,"ĠRem":4854,"Ġ()":4855,"Ġissue":4856,"Attribute":4857,"rowser":4858,"[\"":4859,"74":4860,"init":4861,"ĠWhat":4862,"Form":4863,"Tag":4864,"Ġstarting":4865,"Ġ$|\\":4866,"mass":4867,"nos":4868,")}_{":4869,"itable":4870,"VID":4871,"Ġmolec":4872,"ĠNULL":4873,"Ġconsists":4874,"Ġrecently":4875,"&=&":4876,"}({\\":4877,"perim":4878,"Ġrunning":4879,"Ġgain":4880,"then":4881,"rief":4882,"tran":4883,"cat":4884,"Ġrisk":4885,"gu":4886,"Source":4887,"Ġbounds":4888,"ĠLo":4889,"ournal":4890,"Ġcontinue":4891,"eness":4892,"ares":4893,"Ġrepe":4894,"ĠWhile":4895,"Ġbasic":4896,"Ġespecially":4897,"Ab":4898,"Ġextends":4899,"ĠMo":4900,"Ġlimited":4901,"Ġpi":4902,"imple":4903,"Ġcopy":4904,"Ġrecog":4905,"icense":4906,"Ġtechniques":4907,"append":4908,"olic":4909,"property":4910,"illa":4911,"eless":4912,"Ġmillion":4913,"Ġnotation":4914,"cus":4915,"navbar":4916,"Ġproducts":4917,"Introduction":4918,"request":4919,"Ġotherwise":4920,"ĠSc":4921,"Ġpix":4922,"ĠCont":4923,"depend":4924,"94":4925,"Ġnature":4926,"ogeneous":4927,"izations":4928,"cknow":4929,"ĠAc":4930,"Ġrestric":4931,"Ġconstraint":4932,"ĉĉĊ":4933,"ĠBu":4934,"93":4935,"conf":4936,"Therefore":4937,"FA":4938,"mt":4939,"Ġscre":4940,"scal":4941,"Ġexcept":4942,"ingu":4943,"---":4944,"inct":4945,"Ġservices":4946,"amental":4947,"Ġmicro":4948,"inder":4949,"Ġreduce":4950,"Ġbelong":4951,"ĠVal":4952,"UE":4953,"Li":4954,"Ġcontributions":4955,"Ġbottom":4956,"elling":4957,"Ġinc":4958,"Ġcompo":4959,"last":4960,",\\\\":4961,"Ġ\"\"\"":4962,"Ġtowards":4963,"300":4964,"Ġconclude":4965,"Ġachieve":4966,"CS":4967,"child":4968,"Ġspecified":4969,"Ġstage":4970,"Ġconsum":4971,"Ġwhite":4972,"Ġsuccessful":4973,"2003":4974,"Ġthought":4975,"These":4976,"rain":4977,"Ġredsh":4978,"Link":4979,"iral":4980,"Ġassumed":4981,"Ġboolean":4982,"RI":4983,"Ġair":4984,"dfrac":4985,"Ġlayers":4986,"ĠNone":4987,"Ġreduction":4988,"Ñģ":4989,"Ġexpand":4990,"Ġdevi":4991,"faces":4992,"mem":4993,"symm":4994,"Command":4995,"ĠPa":4996,"inner":4997,"Ġmasses":4998,"ĠMy":4999,"ani":5000,"Ġlum":5001,"\\)":5002,"Ġmargin":5003,"Ġcontrast":5004,",$":5005,"Ġtell":5006,"Ġbroad":5007,"erc":5008,"adata":5009,"Ġallowed":5010,"parent":5011,"Ġdatasets":5012,"Ġport":5013,"Ġamplitude":5014,"ffic":5015,"Ġtag":5016,"Ġremo":5017,"Ġrepla":5018,"-$":5019,"Label":5020,"Ġcountry":5021,"92":5022,"Ġinduced":5023,"ĠII":5024,"Ġneighbor":5025,"yles":5026,"Function":5027,"Ġfav":5028,"Ġabsor":5029,"Ġobservation":5030,"ĠSpec":5031,"show":5032,"Ġgraphs":5033,"Ġ+=":5034,"Ġvisual":5035,"Ġaut":5036,"alysis":5037,")}}":5038,"xml":5039,"src":5040,"62":5041,"vol":5042,"Ġaxis":5043,"Pol":5044,"hel":5045,"sign":5046,"Ġtrack":5047,"Ġsound":5048,"cccc":5049,"Ġgrid":5050,"floor":5051,"ĠWorld":5052,"Ġloop":5053,"models":5054,"Ġkernel":5055,"obile":5056,"variant":5057,"diag":5058,"server":5059,"dated":5060,"REF":5061,"Ġsquare":5062,"ĠClass":5063,"Ġoutside":5064,"year":5065,"Ġaccurate":5066,"py":5067,"ĠResearch":5068,"./":5069,"You":5070,"Ġstrict":5071,"ND":5072,"ounter":5073,"Ġmagnitude":5074,"ĠMa":5075,"Ġcombination":5076,"onical":5077,",\\,\\":5078,"Ġreve":5079,"Ġ$.":5080,"Ġ[\\":5081,"rank":5082,"([":5083,"Ġreson":5084,"ĠAmerican":5085,"1000":5086,"ĠSub":5087,"Ġoperations":5088,"xx":5089,"Ġforms":5090,"Ġpartition":5091,"Ġpure":5092,"lean":5093,"Ġsm":5094,"ducing":5095,"ifically":5096,"Ġidentified":5097,"Right":5098,"Ġstraight":5099,"ĠCons":5100,"ugin":5101,"ratic":5102,"Ġrules":5103,"Ġdiscover":5104,"]}":5105,"high":5106,"soft":5107,"Ġlemma":5108,"ading":5109,"Ġproduce":5110,"yond":5111,"ERT":5112,"lots":5113,"Ġissues":5114,"Ġlove":5115,"sa":5116,"ĠST":5117,"Ġpreser":5118,"Ġagreement":5119,"Do":5120,"idget":5121,"AV":5122,"json":5123,"Ġpercent":5124,"Ġclient":5125,"Number":5126,"Ġsw":5127,"Ġtraject":5128,"Ġnone":5129,"Ġround":5130,"Content":5131,"^*$":5132,"Ġidentify":5133,"float":5134,"ding":5135,"raft":5136,"Ġparent":5137,"Ġthick":5138,"Ġcompan":5139,"GB":5140,"Ġcomplexity":5141,"Ġangular":5142,"ounts":5143,"tify":5144,"ĠMc":5145,"Ġminimal":5146,"Ġarticle":5147,"Finally":5148,"ĠGe":5149,"ĠEqu":5150,"Ġdoesn":5151,"umb":5152,"$};":5153,"host":5154,"Ġtoday":5155,"Ġuncertainty":5156,"OL":5157,"Ġsegment":5158,"Version":5159,"Ġformal":5160,"fa":5161,"Ġliterature":5162,"Ġexhi":5163,"Ġclusters":5164,"iting":5165,"close":5166,"Handler":5167,"Ġcalculations":5168,"rl":5169,"Ġexcit":5170,"Ġcalculation":5171,"Ġmechanism":5172,"Ġgen":5173,"rap":5174,"arante":5175,"Ġseems":5176,"Ġeconom":5177,"used":5178,"osp":5179,"Ġusually":5180,"elves":5181,"Ġcontaining":5182,"oded":5183,"Token":5184,"Ġregime":5185,"});":5186,"udio":5187,"Ġnews":5188,"82":5189,"ignment":5190,"ategories":5191,"Ġbeam":5192,"Ġscaling":5193,"YPE":5194,"pass":5195,"Ġsubject":5196,"Buffer":5197,"Ġgap":5198,"Ġprof":5199,"Ġmeasures":5200,"Using":5201,"Ġfi":5202,"met":5203,"Ġappears":5204,"ptr":5205,"Run":5206,"Ġsituation":5207,"61":5208,"ned":5209,"Ġdevice":5210,"ĠFinally":5211,"71":5212,"]$.":5213,"Ġemer":5214,"Ġgovernment":5215,"Ġenter":5216,"Options":5217,"ened":5218,"iler":5219,"ĠOct":5220,"Ġdetailed":5221,"Ġmes":5222,"Ġproduced":5223,"ilit":5224,"push":5225,"$:":5226,"annels":5227,"Ġcontact":5228,"obj":5229,"Ġpatients":5230,"Ġdenoted":5231,"Ġexponential":5232,"Ġstatus":5233,"iding":5234,"ada":5235,"zon":5236,"Ġdistributed":5237,"private":5238,"Ġplatform":5239,"Ġtreatment":5240,"|}{":5241,"itz":5242,"Ġspeak":5243,"ĠHar":5244,"ĠBar":5245,"step":5246,"oss":5247,")--":5248,"EL":5249,"Ġmusic":5250,"\\;":5251,"zing":5252,"ĠEurope":5253,"Str":5254,"forward":5255,"Ġshare":5256,"Ġyield":5257,"ĠSee":5258,"Return":5259,"att":5260,"Oper":5261,"LASS":5262,"Ġcamp":5263,"Ġimplementation":5264,"Rem":5265,"ĠID":5266,"\"]":5267,"ĠTest":5268,"Ġideal":5269,"\\}$.":5270,"vider":5271,"Ġconvex":5272,"ĠIntern":5273,"Ġindicates":5274,"ography":5275,"Ġattem":5276,"tree":5277,"sequently":5278,"ham":5279,"Ġring":5280,"Bundle":5281,"Ġtheoretical":5282,"Ġener":5283,"Ġexam":5284,"Section":5285,"Ġtim":5286,"OC":5287,"status":5288,"MB":5289,"empt":5290,"images":5291,"Ġinsp":5292,"matically":5293,"Ġprefer":5294,"Ġexternal":5295,"Loc":5296,"oman":5297,"Ġmix":5298,"MR":5299,"Su":5300,"SL":5301,"eral":5302,"Ġevidence":5303,"Ġestimation":5304,"Ġformat":5305,"Ġappropriate":5306,"Ġvary":5307,"Ġthermal":5308,"Ġrotation":5309,"$_{":5310,"udes":5311,"amily":5312,"istry":5313,"aa":5314,"scope":5315,"Ġclearly":5316,"Ġmentioned":5317,"Ġfluct":5318,"lice":5319,"Ġprotected":5320,"Ġgeneration":5321,"Ġupon":5322,"racted":5323,"Ġdiscrete":5324,"Check":5325,"Ġentropy":5326,"Up":5327,"tribution":5328,"Ġ\\]":5329,"Ġparallel":5330,"Ġpoly":5331,"inst":5332,"DA":5333,"itch":5334,"Tra":5335,"Ġbehavi":5336,"Ġdetect":5337,"jected":5338,"force":5339,"vee":5340,"Ġnucle":5341,"Ġphen":5342,"ĠNews":5343,"Factory":5344,"defined":5345,"Ġfunctional":5346,"real":5347,"Ġcoefficient":5348,"Ġsingular":5349,"uli":5350,"Ġsoftware":5351,"bigl":5352,"rela":5353,"Ġsys":5354,"}})":5355,"Ġorth":5356,"Ġsatisfying":5357,"parameter":5358,"83":5359,"Ġperfect":5360,"Ġconcent":5361,"make":5362,"Ġkine":5363,"}}_{\\":5364,"Ġeffor":5365,"ka":5366,"CL":5367,"Ġ((":5368,"Ġbeyond":5369,"format":5370,"ĠApr":5371,"Ġ^":5372,"Ġdest":5373,"yset":5374,"filter":5375,"Ġstrongly":5376,"Ġgames":5377,"Ġdimensions":5378,"PU":5379,"Ġarguments":5380,"vised":5381,"*/":5382,"Ġshift":5383,"Ġscenario":5384,"layout":5385,"tx":5386,"}[\\":5387,"CA":5388,"Ġserver":5389,"Ġhighly":5390,"ynamic":5391,"Ġelect":5392,"gies":5393,":=":5394,"Ġevaluation":5395,"Ne":5396,"91":5397,"Ġweights":5398,"ĠAb":5399,"Ġconsidering":5400,"Ġhypoth":5401,"sitivity":5402,"bigr":5403,"Read":5404,"ulture":5405,"Ġagent":5406,"Page":5407,"Ġreceived":5408,"SR":5409,"Ġfast":5410,"Last":5411,"tel":5412,"Sty":5413,"Ġcells":5414,"Ġprimary":5415,"ĠDef":5416,"ascript":5417,"tative":5418,"inu":5419,"Ġcompletely":5420,"Ġcat":5421,"After":5422,"]$,":5423,"lege":5424,"annot":5425,"Ġrobust":5426,"Auth":5427,"How":5428,"anti":5429,"after":5430,"Ġ\\!":5431,"Ġdifferences":5432,"ras":5433,"AME":5434,"Cons":5435,"ĠUnited":5436,"Ġgenerally":5437,"ores":5438,"find":5439,"2001":5440,"ĠYork":5441,"tfrac":5442,"Case":5443,"Cor":5444,"Ġformer":5445,"Char":5446,"Ġpiec":5447,"control":5448,"Ġproved":5449,"Point":5450,"brace":5451,"Ġscales":5452,"ĠUsing":5453,"Ġopport":5454,"$&":5455,"Ġpick":5456,"bmatrix":5457,"algorithm":5458,"paragraph":5459,"))\\":5460,"Format":5461,"Ġneural":5462,"Max":5463,"Ġcriter":5464,">>":5465,"Ġcalculate":5466,"Ste":5467,"})}":5468,"Ġtrained":5469,"Rel":5470,"...,":5471,"direct":5472,"}\\,\\":5473,"ancial":5474,"chastic":5475,"2002":5476,"Ġsus":5477,"SF":5478,"ĠEd":5479,"amera":5480,"ĠOF":5481,"Ġ{$":5482,"fi":5483,"olar":5484,"Ġcatch":5485,"Ġradio":5486,"Ġguarante":5487,"MD":5488,"arc":5489,"place":5490,"tains":5491,"bal":5492,"sm":5493,"Ġcapture":5494,"Ġfiles":5495,"imilarly":5496,"Ġquestions":5497,"Ġcycle":5498,"Ġslightly":5499,"nes":5500,"update":5501,"Ġconcern":5502,"][]{":5503,"Ġetc":5504,"ql":5505,"Ġgreater":5506,"Ġswitch":5507,"mathop":5508,"Ġquick":5509,"Ġvs":5510,"ini":5511,"Ġbuilding":5512,"Ġpractice":5513,"ĠMarch":5514,"Ġwatch":5515,"dy":5516,"Ġcity":5517,"ĠFurthermore":5518,"}}.":5519,"pis":5520,"ober":5521,"Ġshowed":5522,"FI":5523,"board":5524,"ĠAssum":5525,"Ġscore":5526,"That":5527,"totype":5528,"TT":5529,"ĠLa":5530,"Ġrelatively":5531,"Ġvirtual":5532,"Ġefficiency":5533,"SON":5534,"olve":5535,"Ġalthough":5536,"params":5537,"True":5538,"ĠSome":5539,"Ġpropor":5540,"ancy":5541,"Ġyoung":5542,"Off":5543,"Ġsecurity":5544,"Ġ\\(\\":5545,"ĠDr":5546,"Ġpoli":5547,"Ġsolve":5548,"Window":5549,"lemented":5550,"ellow":5551,"Ġhole":5552,"Ġlive":5553,"DD":5554,"ship":5555,"Ġinvest":5556,"sy":5557,"Tem":5558,"Ġwomen":5559,"std":5560,"Ġlooking":5561,"ometry":5562,"ĠCity":5563,"response":5564,"Ġremark":5565,"ĠRus":5566,"erg":5567,"Ġremaining":5568,"chang":5569,"iggs":5570,",{\\":5571,"ĠSchool":5572,"Ġdecomposition":5573,"emptyset":5574,"sembly":5575,"Ġever":5576,"VER":5577,"Equal":5578,"Ġ<!--":5579,"istration":5580,"NO":5581,"Ġfundamental":5582,"Ġremove":5583,"istor":5584,"Ġactual":5585,"ĠPre":5586,"Ġvariety":5587,"ĠReturn":5588,"Ġevaluate":5589,"tives":5590,"Ġsummar":5591,"Ġgeometry":5592,"structure":5593,"sia":5594,"Ġmeaning":5595,"fla":5596,"Ġcompe":5597,"Ġvehic":5598,"allet":5599,"pite":5600,"lines":5601,"ille":5602,"Ġrepresentations":5603,"arse":5604,"witter":5605,"Ġareas":5606,"utation":5607,"Ġpreviously":5608,"Ġrecomm":5609,"Ġstarted":5610,"Ġasp":5611,"ometric":5612,"Ġtempor":5613,"Null":5614,"ĠAdd":5615,"cover":5616,"Ġeduc":5617,"Ġquasi":5618,"Ġstri":5619,"ĠAlso":5620,"Ġsampling":5621,"vature":5622,"empty":5623,"Ġrepresented":5624,"ĠObject":5625,"kit":5626,"ĠVer":5627,"Ġthing":5628,"two":5629,"clusions":5630,"Ġunits":5631,"ocket":5632,"ded":5633,"stry":5634,"Ġtrain":5635,"Ġsubgroup":5636,"Ġtransport":5637,"Ġvac":5638,"Ġcollision":5639,"ado":5640,"Ġresources":5641,"81":5642,"ĠScience":5643,"joint":5644,"Ġcoordinate":5645,"}}^{\\":5646,"ĠSep":5647,"Ġprotocol":5648,"Ġprojection":5649,"Ġion":5650,"uff":5651,"ĠType":5652,"entry":5653,"Ġcommit":5654,"Ġlargest":5655,"Ġways":5656,"Ġchem":5657,"ĠWork":5658,"Ġtypical":5659,"}_{-":5660,"mos":5661,"algebra":5662,"final":5663,"essages":5664,"refix":5665,"Ġtesting":5666,"titu":5667,"ĠAppendix":5668,"Ġoffset":5669,"Di":5670,"ialog":5671,")})":5672,"Ġequilibrium":5673,"dom":5674,"itory":5675,"itions":5676,"oti":5677,"Dep":5678,"Start":5679,"Ġdidn":5680,"PA":5681,"oul":5682,"ramework":5683,"Ġdistinct":5684,"Ġcolla":5685,"400":5686,"Ġmapping":5687,"ĠHow":5688,"Back":5689,"Ġign":5690,"Controller":5691,"INT":5692,"ĠPres":5693,"ĠModel":5694,"imes":5695,"Ġempty":5696,"ĠEach":5697,"plot":5698,"javascript":5699,"Ġtechnology":5700,"tool":5701,"Ġque":5702,"Ġlocated":5703,"Ġindicate":5704,"Ġnight":5705,"etails":5706,"Ġmar":5707,"Ġwide":5708,"Ġbin":5709,"Ġmachine":5710,"=.":5711,"Default":5712,"ABLE":5713,"Ġfront":5714,"///":5715,"Ġannoun":5716,"Ġtook":5717,"allow":5718,"ovember":5719,"igation":5720,"+(":5721,"Ġvertical":5722,"Proof":5723,"osing":5724,"Ġdoc":5725,"while":5726,"Ġcurrently":5727,")}_":5728,"Ġexpressed":5729,"figures":5730,"Ġdetected":5731,"diction":5732,"blem":5733,"inosity":5734,"Lemma":5735,"tun":5736,"Ġconstants":5737,"signed":5738,"ttp":5739,"aring":5740,"Ġearlier":5741,"'re":5742,"ca":5743,"Ġinverse":5744,"Ġsufficient":5745,"Ġengine":5746,"rew":5747,"Ġmi":5748,"tiny":5749,"Task":5750,"antom":5751,"Ġnav":5752,"Ġrelationship":5753,"erson":5754,"such":5755,"ĠHealth":5756,"multirow":5757,"car":5758,"Ġbr":5759,"PO":5760,"ĠTe":5761,"Ġdemonstra":5762,"Ġsettings":5763,"Ġentry":5764,"Ġphenomen":5765,"Ġdesigned":5766,"Ġintegr":5767,"dev":5768,"Ġlimits":5769,"Ġmassive":5770,"Ġreli":5771,"Ġarm":5772,"PRO":5773,"Ġfilm":5774,"Ġhours":5775,"Ġbehind":5776,"iota":5777,"licity":5778,"||":5779,"Ġanswer":5780,"Web":5781,"RL":5782,"det":5783,"Column":5784,"Im":5785,"Row":5786,"Ġreplace":5787,"Min":5788,"ĠJune":5789,"stable":5790,"columnwidth":5791,"Ġobvious":5792,"adow":5793,"Ġacceler":5794,"ĠNot":5795,"Ġadv":5796,"Create":5797,"Ġembedding":5798,"Ġsufficiently":5799,"Pos":5800,"sd":5801,"gent":5802,"uni":5803,"forms":5804,"Ġrelease":5805,"oms":5806,"Ġgravit":5807,"Ġvisit":5808,"Ġ{};":5809,"sole":5810,"avel":5811,"})=":5812,"ĠTech":5813,"Ġ$,":5814,"Ġobj":5815,"Ġestablish":5816,"chron":5817,"ĠĠĠĠĠĠĠĠĠĠĠĠĠĠĠĠĠĠĠĠĠĠĠĠĠĠĠĠĠĠĠĠĠĠĠ":5818,"Ġcame":5819,"uting":5820,"Ġincreased":5821,"Ġprint":5822,"Ġ^{":5823,"longrightarrow":5824,"Ġstatistical":5825,"Ġbright":5826,"ifts":5827,"tifact":5828,"Ġstation":5829,"mode":5830,"[-":5831,";\\;\\":5832,"Ġret":5833,"Ġunderstanding":5834,"related":5835,"ae":5836,"prec":5837,"Ġferm":5838,"tember":5839,"Child":5840,"formal":5841,"ryp":5842,"ano":5843,"tries":5844,"Ġrecall":5845,"Ġconstructed":5846,"Ġdepending":5847,"Ġapplying":5848,"etal":5849,"Ġsections":5850,"nother":5851,"Ġrespon":5852,"Ġnovel":5853,"PL":5854,"fs":5855,"Ġeq":5856,"Ġiso":5857,"ĠSouth":5858,"]{\\":5859,"mis":5860,"Ġsuggest":5861,"oring":5862,"parison":5863,"Ġincor":5864,"Ġgreen":5865,"slash":5866,"ĠHigh":5867,"Ġjoint":5868,"Ġcommunication":5869,"Ġthrows":5870,"unk":5871,"Ġpredicted":5872,"Ġqual":5873,"etch":5874,"ĠTrans":5875,"rang":5876,"gebr":5877,"Ġvariation":5878,"Ġactions":5879,"isely":5880,"Ġreturns":5881,"Ġcoming":5882,"ĠEl":5883,"Ġpredictions":5884,"ĠAust":5885,"rist":5886,"Ġmatching":5887,"cho":5888,"illing":5889,"urs":5890,"ĠLag":5891,"Ġunderlying":5892,"Ġdoing":5893,"Ġactivity":5894,"Ġmanifold":5895,"Ġ\\&":5896,"\\}\\":5897,"FONT":5898,"ĠAf":5899,"ĠĠĠĠĠĠĠĠĠĠĠĠĠĠĠĠĠĠĠĠĠĠĠĠĠĠĠĠĠĠĠĠĠĠĠĠĠĠĠĠĠĠĠĠĠĠĠĠĠĠĠĠĠĠĠĠĠĠĠĠĠĠĠĠ":5900,"vartheta":5901,"Ġbos":5902,"output":5903,"efined":5904,"ford":5905,"Ġassumptions":5906,"}$}":5907,"Ġdiagonal":5908,"${\\":5909,"Ġbring":5910,"strate":5911,"menu":5912,"Arg":5913,"diff":5914,"mathit":5915,"Hence":5916,"ĠCenter":5917,"Ġbias":5918,"Ġmaximal":5919,"Ġcombined":5920,"ibration":5921,"Ġirre":5922,"ki":5923,"RA":5924,"Ġteach":5925,"Ġpopular":5926,"ryst":5927,"olved":5928,"Ġdiver":5929,"Ġ}{":5930,"Ġonto":5931,"ĠChar":5932,"magnetic":5933,"ha":5934,"reedom":5935,"Ġassess":5936,"atively":5937,"ãģ":5938,"BS":5939,"Cell":5940,"Ġfont":5941,"ĠCount":5942,"Ġcontra":5943,"While":5944,":</":5945,"Ġdro":5946,"Ġurl":5947,"vision":5948,"classes":5949,"styles":5950,"clear":5951,"har":5952,"/(":5953,"DM":5954,"Ġhandle":5955,"endif":5956,"Ġefficient":5957,"vs":5958,"Ġpseud":5959,"mitted":5960,"bing":5961,"istics":5962,"\\}$,":5963,"Ġphysics":5964,"Ġca":5965,"trivial":5966,"Button":5967,"UI":5968,"container":5969,"Ġinvolved":5970,"nn":5971,"Ġmonths":5972,"gebras":5973,"Results":5974,"Vis":5975,"Ġstability":5976,"^{*":5977,"Ġsemi":5978,"ORT":5979,"Ġdemand":5980,"Ġodd":5981,"ĠApril":5982,"Ġintegration":5983,"subsec":5984,"Ġindustry":5985,"rea":5986,"Ġcloud":5987,"author":5988,"tikzpicture":5989,"Ġpersonal":5990,"service":5991,"Ġcomputational":5992,"Ġactiv":5993,"Ġnamely":5994,"Ġachieved":5995,"})^":5996,"Ġhydro":5997,"Ġdust":5998,"}}=":5999,"Ġdesired":6000,"greg":6001,"ĠCOVID":6002,"Ġcm":6003,"Ġtun":6004,"Ġmember":6005,"mann":6006,"ention":6007,"Ġuncertain":6008,"Open":6009,"ĠLie":6010,"Ġconsequence":6011,"Ġtechnique":6012,"Ġcontained":6013,"\\|\\":6014,"ĠMich":6015,"Ġhighest":6016,"\").":6017,"Ġtests":6018,"Style":6019,"Ġball":6020,"ollowing":6021,"Ġfood":6022,"Ġbelieve":6023,"&=\\":6024,"Ġchannels":6025,"}}}\\":6026,"ĠDecember":6027,"oke":6028,"phys":6029,"Ġbuilt":6030,"ivacy":6031,"clus":6032,"Ġstrateg":6033,"urations":6034,"Output":6035,"Ġmoving":6036,"Top":6037,"well":6038,"Ġconcept":6039,"Ġthroughout":6040,"```":6041,"offset":6042,"Cal":6043,"aut":6044,"ourier":6045,"SH":6046,"ME":6047,"}~":6048,"irect":6049,"Ġpropose":6050,"Ġwaves":6051,"Ġfinally":6052,"nap":6053,"Valid":6054,"Ġwall":6055,"Ġsetup":6056,"Ġcool":6057,"Ġarchitecture":6058,"rest":6059,"DO":6060,"uler":6061,"Ġasymptotic":6062,"ĠCoun":6063,"Listener":6064,"instance":6065,"mi":6066,"Ġlack":6067,"frame":6068,"brary":6069,"Ġshowing":6070,">\\":6071,"Ġusual":6072,"Update":6073,"Ġintr":6074,"ATION":6075,"Ġmodified":6076,"Ġwhereas":6077,"Ġdisper":6078,"aff":6079,"Ġtypically":6080,"|}":6081,"^{(\\":6082,"Ġextrem":6083,"typ":6084,"IO":6085,"Ġfair":6086,"loop":6087,"rown":6088,"Ġindeed":6089,"Ġenergies":6090,"bp":6091,"Ġey":6092,"ĠJuly":6093,"IST":6094,"Ġtrivial":6095,"Ġability":6096,"project":6097,"Ġdynamic":6098,"Ġlocally":6099,"Ġimmediately":6100,"Ġtopological":6101,"Ġsaf":6102,"BU":6103,"white":6104,"Ġbl":6105,"Ġderive":6106,"coming":6107,"Ġvariance":6108,":=\\":6109,"}|\\":6110,"Ġobjective":6111,"Ġnet":6112,"Ġphoton":6113,"Ġwon":6114,"Ġbad":6115,"ski":6116,"tified":6117,"Ġcharacteristic":6118,"').":6119,"lick":6120,"Ġlate":6121,"\\%$":6122,"remove":6123,"medskip":6124,"ĠIndeed":6125,"Address":6126,"Ġpurpose":6127,"Ġago":6128,"Ġredshift":6129,"Ġ{@":6130,"formations":6131,"root":6132,"Ġconj":6133,"Ġexplicitly":6134,"Length":6135,"atures":6136,"bib":6137,"chmark":6138,"ads":6139,"tw":6140,"Ġfine":6141,"URL":6142,"Ġrot":6143,"Ġfollowed":6144,"Ġisomorphism":6145,"ticles":6146,"CON":6147,"Ġpush":6148,"ured":6149,"textcolor":6150,"ĠGal":6151,"Ġstack":6152,"Ġtal":6153,"Ġgeneralized":6154,"roy":6155,"asc":6156,"istance":6157,"Ġmaxim":6158,"ĠFound":6159,"Ġsession":6160,"brid":6161,"Ġoccurs":6162,"second":6163,"Ġcanonical":6164,"NA":6165,"XX":6166,"Ġderivative":6167,"ĠGroup":6168,"lapse":6169,"Ġexception":6170,"Ġrepro":6171,"ĠDav":6172,"Ġmanagement":6173,"Ġprinciple":6174,"<?":6175,"Ġsqu":6176,"My":6177,"ologies":6178,"bon":6179,"Ġcurvature":6180,"reference":6181,"aml":6182,"Ġcause":6183,"rosc":6184,"Ġradial":6185,"Ġprice":6186,"Filter":6187,"SA":6188,"Ġ**":6189,"Ġnonlinear":6190,"Var":6191,"va":6192,"ĠNovember":6193,"Ġworth":6194,"ĠPe":6195,"stitute":6196,"proto":6197,"expected":6198,"Ġrecur":6199,"Ġhit":6200,"(&":6201,"elihood":6202,"@{":6203,"dependent":6204,"ĠPart":6205,"Ġdashed":6206,"Ġitems":6207,"DP":6208,"Ġgoes":6209,"Ġexplain":6210,"Ġcomputing":6211,"Ġunknown":6212,"DC":6213,"ĠOf":6214,"otstra":6215,"axis":6216,"Ġacqu":6217,"gather":6218,"ĉĠĠĠ":6219,"Consider":6220,"NE":6221,"flu":6222,"large":6223,"Ġapproximately":6224,"asons":6225,"Ġparticularly":6226,"scriptsize":6227,"heet":6228,"phantom":6229,"Ġdeath":6230,"points":6231,"verti":6232,"there":6233,"ĠPlan":6234,"require":6235,"ĠIR":6236,"\".":6237,"aser":6238,")^\\":6239,"avelength":6240,"modal":6241,"poch":6242,"Ġabund":6243,"Given":6244,"Ġblocks":6245,"pers":6246,")--(":6247,"Ġsatisfied":6248,"ĠOut":6249,"omb":6250,"ecting":6251,"ĠCE":6252,"Ġdx":6253,"called":6254,"Ġtravel":6255,"|^{":6256,"Ġsyste":6257,"ulating":6258,"Ġgetting":6259,"////////////////":6260,"mated":6261,"Ġmotiv":6262,"FR":6263,"iring":6264,"atible":6265,"Ġheavy":6266,"Ġmoney":6267,"Ġ({\\":6268,"1999":6269,"Ġlabels":6270,"Ġvi":6271,"Ġspher":6272,"buf":6273,"Ġ{}":6274,"cil":6275,"120":6276,"Ġplayers":6277,"Ġdegrees":6278,"ĠExp":6279,"Ġgets":6280,"global":6281,"ducible":6282,"Ġruns":6283,"Ġprocessing":6284,"thon":6285,"Ġpaths":6286,"Ġstop":6287,"Ġshared":6288,"Ġwait":6289,"ĠCLASS":6290,"mult":6291,"ĠStates":6292,"ibility":6293,"lig":6294,"GR":6295,"dep":6296,"Ġwriting":6297,"Ġheat":6298,"hol":6299,"Tree":6300,"Suppose":6301,"Bo":6302,"Layout":6303,"ĠOctober":6304,"Ġaccom":6305,"Car":6306,"ĠNorth":6307,"member":6308,"Ġsequences":6309,"notag":6310,"Ġreveal":6311,"Ġcoinc":6312,"mediate":6313,"ester":6314,"fl":6315,"Ġfoot":6316,"ĠEar":6317,"pop":6318,"vie":6319,"semble":6320,"entic":6321,"EQ":6322,"anks":6323,"Ġradiation":6324,"Ġalternative":6325,"ands":6326,"Ġsurvey":6327,"ĠBay":6328,"BA":6329,"Ġ$\\{\\":6330,"Ġsector":6331,"ĠWar":6332,"Ġhidden":6333,"Equals":6334,"Ġrelax":6335,"cp":6336,"Ġluminosity":6337,"Ġprecisely":6338,"full":6339,"rd":6340,"ĠOff":6341,"slant":6342,"GN":6343,"Ġwebsite":6344,"Ġtrend":6345,"ny":6346,"150":6347,"Ġinstr":6348,"MT":6349,"document":6350,"ĠPark":6351,"vities":6352,"cited":6353,"Ġinfluence":6354,"Ġorient":6355,"Ġfinding":6356,"Ġpositions":6357,"!\\":6358,"bruary":6359,"Mode":6360,"!]":6361,"ias":6362,"etries":6363,"adem":6364,"Ġmath":6365,"Ġintensity":6366,"ĠEX":6367,"ĠĠĠĠĠĠĠĠĠĠĠĠĠĠĠĠĠĠĠĠĠ":6368,"Moreover":6369,"uel":6370,"atri":6371,"ĠAPI":6372,"Collection":6373,"ĠLog":6374,"Mon":6375,"Ġdynamical":6376,"Ġneighb":6377,"ĠSeptember":6378,"attr":6379,"Ġinvestigate":6380,"Ġarr":6381,"Ġremain":6382,"Ġnotice":6383,"Ġhouse":6384,"Entity":6385,"Ġ[]":6386,"Ġelectric":6387,"ropic":6388,"Ġplayer":6389,"}{*":6390,"Ġthank":6391,"enced":6392,"ites":6393,"Ġdatabase":6394,"CR":6395,"chain":6396,"Ġclean":6397,"Ġmeta":6398,"ĠChris":6399,"omic":6400,"ĠAugust":6401,"herent":6402,"hal":6403,"Select":6404,"Ġdimensional":6405,"ĠBro":6406,"ĠFran":6407,"general":6408,"Ġdetermin":6409,"Ġwind":6410,"ĉĠ":6411,"ĠComm":6412,"parse":6413,"ĠGoogle":6414,"aign":6415,"weight":6416,"(-\\":6417,"ART":6418,"\"),":6419,"tained":6420,"Ġequivalence":6421,"Ġnor":6422,"jo":6423,"ĠHREF":6424,"Ġfrag":6425,"Ġnothing":6426,"Ġtax":6427,"Xi":6428,"Ġtold":6429,"_.":6430,"urch":6431,"Ġlinks":6432,"Ġmind":6433,"eval":6434,"Ġart":6435,"ĠOther":6436,"ultane":6437,"Parameter":6438,"Ġrapid":6439,"Ġbulk":6440,"gn":6441,"Ġspecies":6442,"Ġattribute":6443,"Ġjet":6444,"DT":6445,"Ge":6446,"ĠSU":6447,"Ġnearly":6448,"Ġbrief":6449,"edia":6450,"Ġstochastic":6451,"uit":6452,"scripts":6453,"ogonal":6454,"ecute":6455,"anger":6456,"Cache":6457,"prob":6458,"servation":6459,"actic":6460,"window":6461,"DS":6462,"ridge":6463,"Ġadding":6464,"1998":6465,"'>":6466,"ien":6467,"Ġsuitable":6468,"=\"../../../../../":6469,"Ġelectro":6470,"Ġexchange":6471,"ĠTime":6472,"Ġconduc":6473,"Ġdistingu":6474,"COL":6475,"circle":6476,"Ġbundle":6477,"Frame":6478,"Ġhash":6479,"Ġbuffer":6480,"ĠRed":6481,"Ġquantities":6482,"Ġcapacity":6483,"^*\\":6484,"equations":6485,"emes":6486,"Ġcosm":6487,"Ġpen":6488,"Ġinterested":6489,"mom":6490,"even":6491,"uum":6492,"=\"-":6493,"DR":6494,"ĠProgram":6495,"Ġpatterns":6496,"See":6497,"stan":6498,"Ġpublished":6499,"ĠBlack":6500,"Ġpor":6501,"Ġintern":6502,"relation":6503,"tivities":6504,"Ġenh":6505,"tell":6506,"Ġsend":6507,"ĠSan":6508,"oting":6509,"backslash":6510,"rong":6511,"component":6512,"reme":6513,"Ġrise":6514,"electr":6515,"ĠWest":6516,"Ġsuff":6517,"optim":6518,"Ġeigenvalues":6519,"cond":6520,"Ġexplained":6521,"xture":6522,"Ġpackage":6523,"timate":6524,"Ġdelay":6525,"Mo":6526,"dash":6527,"Ġstress":6528,"HS":6529,"Ġappe":6530,"aking":6531,"uge":6532,"Ġadop":6533,"ady":6534,"patch":6535,"ĠĠĠĠĠĠĠĠĠĠĠĠĠĠĠĠĠĠĠĠ":6536,"Ġgravity":6537,"Ġquar":6538,"Ġcompanies":6539,"before":6540,"Ġprobably":6541,"inger":6542,"istent":6543,"rangian":6544,"ĠCounty":6545,"ĠWeb":6546,"ucial":6547,"KE":6548,"Ġdevices":6549,"ĠNS":6550,"card":6551,"$^{":6552,"Ġregister":6553,"iles":6554,"Ġroom":6555,"ociety":6556,"Ġaccre":6557,"Ġgeneric":6558,"Ġverify":6559,"verage":6560,".\\\\":6561,"Ġwalk":6562,"short":6563,"Ġproceed":6564,"should":6565,"Ġwent":6566,"BO":6567,"Ġdise":6568,"mn":6569,"}\\|":6570,"crete":6571,"Ġspread":6572,"Ġdrop":6573,"Ġproviding":6574,"green":6575,"Ġstore":6576,"formed":6577,"Ġtrace":6578,"parameters":6579,"^*(":6580,"Ġtools":6581,"thetic":6582,"Ġimplemented":6583,"corollary":6584,"Width":6585,"Met":6586,"PH":6587,"ERR":6588,"integ":6589,"parallel":6590,"Ġrender":6591,"Ġscope":6592,"chor":6593,"Ġsizes":6594,"elines":6595,"ĠGiven":6596,"lications":6597,"ĉĉĉĉĉĉĉ":6598,"Control":6599,"-(":6600,"ĠHiggs":6601,"Url":6602,"negative":6603,"Schema":6604,"Em":6605,"ĠGeV":6606,"Ġmiddle":6607,"template":6608,"Ġsolar":6609,"kern":6610,"Ġadvantage":6611,"prote":6612,"jpg":6613,"rane":6614,"Ġfreedom":6615,"cline":6616,"ĠGreen":6617,"RR":6618,"kin":6619,"ierarch":6620,"Ġtemplate":6621,"Ġcandidate":6622,"zy":6623,"rection":6624,"Ġtransmission":6625,"ipeline":6626,"Ġhypothesis":6627,"Ġmetrics":6628,"Ġcred":6629,"Ġ})":6630,"Ap":6631,"Ġcorrections":6632,"Ġcop":6633,"spective":6634,"lam":6635,"++)":6636,"Left":6637,"ishing":6638,"respond":6639,"Server":6640,"common":6641,"Local":6642,"eman":6643,"Ġrough":6644,"'),":6645,"rich":6646,"Ġbehaviour":6647,"tach":6648,"Ġpicture":6649,"zer":6650,"Ġ!==":6651,"Ġargs":6652,"Long":6653,"irm":6654,"Ġoppo":6655,"Dev":6656,"artifact":6657,"Ġassuming":6658,"Ġharmon":6659,"Ġ\\,\\":6660,"Ġevaluated":6661,"elt":6662,"angular":6663,"law":6664,"Sum":6665,"variance":6666,"Level":6667,"Ġtheories":6668,"Target":6669,"Ġfinancial":6670,"IB":6671,"Ġinfer":6672,"ben":6673,"ĠSur":6674,"Ġcallback":6675,"Ġcomment":6676,"128":6677,"Ġimproved":6678,"erman":6679,"arith":6680,"shot":6681,"arge":6682,"$.}":6683,"orig":6684,"Ġdetector":6685,"Ġstatistics":6686,"boldmath":6687,"FL":6688,"za":6689,"ĠArray":6690,"inted":6691,"Ġcommu":6692,"Ġthems":6693,"QL":6694,"ĠSuch":6695,"%;":6696,"CM":6697,"Go":6698,"Ġtrade":6699,"Ġexperi":6700,"Ġaw":6701,"Ġestablished":6702,"vect":6703,"rapper":6704,"Ġhot":6705,"ĠAlthough":6706,"ike":6707,"intro":6708,"ĠGL":6709,"unct":6710,"ĠDE":6711,"lings":6712,"{(\\":6713,"255":6714,"Ġthemselves":6715,"theless":6716,")}(\\":6717,"Ġfluctuations":6718,"sus":6719,"ĠDepartment":6720,"Ġ}}":6721,"Ġentries":6722,"ĠIndia":6723,"mains":6724,"........":6725,"zh":6726,"ressive":6727,"Ġiteration":6728,"ĠLaw":6729,"Ġsil":6730,"ĠAm":6731,"Ġemail":6732,"ouch":6733,"Ġplanet":6734,"bum":6735,"Ġprofiles":6736,"Configuration":6737,"\\!\\":6738,"modules":6739,"hfill":6740,"Ġindices":6741,"$-$":6742,"Ġofficial":6743,"ĠSw":6744,"*}[":6745,"Sym":6746,"Mem":6747,"category":6748,"ĠStud":6749,"Ġcharacters":6750,")).":6751,"Ġouter":6752,"Ġrecogn":6753,"Ġsong":6754,"Ġjo":6755,"uple":6756,"Ġnormalized":6757,"\\|_":6758,"km":6759,"Ġsurpr":6760,"Ġstudent":6761,"Ġgiving":6762,"isot":6763,"Provider":6764,"ĠIm":6765,"Ġbeginning":6766,"cut":6767,"Ġdot":6768,"Ġpolarization":6769,"obs":6770,"Ġconvolution":6771,"Ġrequirements":6772,"Ð»":6773,"Search":6774,"nam":6775,"Work":6776,"drop":6777,"isson":6778,"footnotesize":6779,"Assum":6780,"ilbert":6781,"ael":6782,"ipe":6783,"Ġtoken":6784,"ĠSM":6785,"otstrap":6786,"prototype":6787,"Ġperturbation":6788,"ulus":6789,"&&\\":6790,"(_":6791,"Ġreser":6792,"Ġsignals":6793,"las":6794,"Sta":6795,"tick":6796,"ups":6797,"Ġ,\\":6798,"ĠTHE":6799,"Ġimportance":6800,"Entry":6801,"########":6802,"Ġseparate":6803,"Ġsuggests":6804,"ĠHis":6805,"poses":6806,"ĠFebruary":6807,"orter":6808,"Ġchanged":6809,"Ġindepend":6810,"Ġfeedback":6811,"Ġnoted":6812,"Ġamb":6813,"Ġquantity":6814,"Ġsites":6815,"ror":6816,"Ã¡":6817,"Ġrights":6818,"ĠAfric":6819,"DL":6820,"Ġisot":6821,"FO":6822,"Ġseman":6823,"Ġminutes":6824,"GS":6825,"Ġsl":6826,"ĠSuppose":6827,"ington":6828,"ACK":6829,"Each":6830,"device":6831,"Ġfrac":6832,"acing":6833,"Ġupd":6834,"burg":6835,"ĠInt":6836,"Utils":6837,"Ġcard":6838,"Ġled":6839,"fields":6840,"Ġuncertainties":6841,"beled":6842,"Ġcombin":6843,"phot":6844,"Ġbaseline":6845,"Ġuniformly":6846,"256":6847,"Ġnames":6848,"HC":6849,"Ġeverything":6850,"ĠLicense":6851,"Ġequality":6852,"textup":6853,"urally":6854,"Ġneutrino":6855,"Multi":6856,"condition":6857,"continu":6858,"fold":6859,"thern":6860,"Ġbur":6861,"ĠUp":6862,"Ġslo":6863,"Ġexpressions":6864,"ĠStr":6865,"bot":6866,"=\"../../../../../../":6867,"iii":6868,"Ġmissing":6869,")(\\":6870,"acts":6871,"Ġshock":6872,"Ġremoved":6873,"Non":6874,"Ġdispersion":6875,"Ġreceive":6876,"Ġagents":6877,"Ġconfigurations":6878,"sets":6879,"'_{":6880,")}.":6881,"tight":6882,"ko":6883,"ĠSm":6884,"ĠRE":6885,">,":6886,"ĠOpen":6887,"Ġcomposition":6888,"Ġnuclear":6889,"comment":6890,"ĠRi":6891,"Ġimm":6892,"Ġadmin":6893,"Ġellip":6894,"ĠMax":6895,"Ġsched":6896,"leftarrow":6897,"task":6898,"~(\\":6899,"vents":6900,"Ġsuppose":6901,"bet":6902,"ĠOver":6903,"Ġanom":6904,"sor":6905,"Ġleave":6906,"Types":6907,"001":6908,"emp":6909,"Ġgravitational":6910,"160":6911,"}/\\":6912,"kip":6913,"ville":6914,"ouple":6915,"tan":6916,"stackrel":6917,"IA":6918,"Ġcategories":6919,"Ġten":6920,"Ġvacc":6921,"|$":6922,"Ġcomputer":6923,"here":6924,"$\\,":6925,"ĠFin":6926,"ĠInternational":6927,"kind":6928,"eries":6929,"Write":6930,"ians":6931,"Ġreader":6932,"rations":6933,"anted":6934,"resource":6935,"ĠAmerica":6936,"Container":6937,"Ġsimultane":6938,"Ġconduct":6939,"Ġhalo":6940,"square":6941,"Definition":6942,"Ġdigital":6943,"Process":6944,"Ġentang":6945,"Ġfavor":6946,"FC":6947,"Position":6948,"artifactId":6949,"radius":6950,"Ġreleased":6951,"rence":6952,"sep":6953,"Font":6954,"ĠGra":6955,"differ":6956,"Ġdemonstrate":6957,"textsf":6958,"Ġpredict":6959,"Ġtes":6960,"CODE":6961,"ĠChina":6962,"Ġpas":6963,"veloper":6964,"Ġ$^{":6965,"Ġcollabor":6966,"haps":6967,"Ġexpress":6968,"downarrow":6969,"phas":6970,"Ġmixed":6971,"Ġfire":6972,"}.}":6973,"Ġ---":6974,"Ġinstall":6975,"ctx":6976,"oura":6977,"Ġlatest":6978,"jecture":6979,"Dat":6980,"MO":6981,"Ġindicated":6982,"Ġoffers":6983,"exists":6984,"sively":6985,"()->":6986,"tee":6987,"Te":6988,"going":6989,"PD":6990,"Ġsoon":6991,"Ġsens":6992,"belian":6993,"BL":6994,"bc":6995,"Enc":6996,"$^":6997,"when":6998,"}$\\":6999,"arities":7000,"ades":7001,"Ġanything":7002,"Ġcoupled":7003,"Ġneighborhood":7004,"Ġgeometric":7005,"Ġvisible":7006,"ĠTechn":7007,"Ġvio":7008,"plane":7009,"itle":7010,"Ġchemical":7011,"ãĥ":7012,"ĠNetwork":7013,"Ġinj":7014,"ĠĠĠĠĠĠĠĠĠĠĠĠĠĠĠĠĠĠ":7015,"background":7016,"thick":7017,"ĠHouse":7018,"rates":7019,"Ġfloat":7020,"particle":7021,"lower":7022,"Ġheart":7023,"ya":7024,"uparrow":7025,"oph":7026,"TS":7027,"Ġquadratic":7028,"Ġdense":7029,"STATE":7030,"ĠTV":7031,"TO":7032,"Ġpadding":7033,"sen":7034,"BR":7035,"Ġwavelength":7036,"ĠFourier":7037,"None":7038,"border":7039,"stylesheet":7040,"Copy":7041,"Ġprecision":7042,"Ġpossibility":7043,"Ġprime":7044,"Ġfluid":7045,"Pl":7046,"icrosoft":7047,"Ġperiodic":7048,"ga":7049,"bool":7050,"ĠConsider":7051,"Ġspan":7052,"irical":7053,"Ġatoms":7054,"joy":7055,"Ġtraditional":7056,"Ġplas":7057,"cussion":7058,"irus":7059,"ĠAccording":7060,"afe":7061,":(":7062,"bil":7063,"Ġabsorption":7064,"support":7065,"Ġreduces":7066,"Ġdeviation":7067,"transform":7068,"Ġrational":7069,"Ġexplan":7070,"nel":7071,"Ġbeg":7072,"ĠUK":7073,"Ġcaused":7074,"Ġexplore":7075,"Ġinstances":7076,")),":7077,"imary":7078,"Ġresid":7079,"vor":7080,":\"":7081,"Ġaccept":7082,"Ġlock":7083,"Ġ..":7084,"groupId":7085,"ĠHer":7086,"TC":7087,"Current":7088,"Ġgenerating":7089,"Ġtranslation":7090,"Hash":7091,"Ġmedium":7092,"Ġthread":7093,")[":7094,"ĠMag":7095,"Ġresidual":7096,"irth":7097,"Ġdegener":7098,"ĉĉĉĊ":7099,"win":7100,"********************************":7101,"Ġoscil":7102,"Ġfle":7103,"Ġvacuum":7104,"Ġheld":7105,"Ġformulation":7106,"ĠOR":7107,"since":7108,"&=&\\":7109,"ico":7110,"Vari":7111,"Ġidentical":7112,"Match":7113,"Ġreplaced":7114,"Ġscenarios":7115,"Ġtail":7116,"=\\{":7117,"tifier":7118,"reet":7119,"Ġasked":7120,"Ġupdated":7121,"PM":7122,"Ġlost":7123,"Ġprep":7124,"Ġassign":7125,"Http":7126,".$$":7127,"hips":7128,"Pa":7129,"ils":7130,"ceil":7131,"ĠAir":7132,"ĠEnglish":7133,"GeV":7134,"Ġbrand":7135,"ĠImp":7136,"eech":7137,"Ġtrying":7138,"Unit":7139,"ounds":7140,"ĠMor":7141,"Ġextract":7142,"Ġdirections":7143,"Params":7144,"ĠAustral":7145,"Ġaffect":7146,"ua":7147,"Ġmut":7148,"Ġphases":7149,"110":7150,"ĠFile":7151,"mf":7152,"rive":7153,"Fla":7154,"Ġcomments":7155,"ief":7156,"imits":7157,"Header":7158,"ership":7159,"Ġdensities":7160,"shape":7161,"Ġaggreg":7162,"]^":7163,"Ġdeliver":7164,"Ġtemperatures":7165,"sibility":7166,"ĠPresident":7167,"wt":7168,"Ġregression":7169,"Ġtruth":7170,"Ġprogress":7171,"Hom":7172,"Ġmixing":7173,"]);":7174,"Ġjus":7175,"special":7176,"Ġsolving":7177,"Ġhope":7178,"varrho":7179,"river":7180,"Ġglu":7181,"wave":7182,"Menu":7183,"Ġprofession":7184,"sect":7185,"sv":7186,"Ġdependent":7187,"mal":7188,"Ġreconstruction":7189,"Ġnotion":7190,"zen":7191,"ĠMethod":7192,"$\\\\":7193,"ĠFoundation":7194,"ĠDem":7195,"Ġconfidence":7196,"Ġtouch":7197,"ĠĠĠĠĠĠĊ":7198,"vas":7199,"Ġtopology":7200,"formance":7201,"Ġmaterials":7202,"Ġnecessarily":7203,"ota":7204,"midrule":7205,"Ġhomogeneous":7206,"Ġmor":7207,"propto":7208,"Ġcolumns":7209,"returns":7210,"ĠAssoci":7211,"Rev":7212,"apan":7213,"Location":7214,"Cref":7215,"multline":7216,"ĠDM":7217,"bd":7218,"Ġfitting":7219,"Ġfrequencies":7220,"ĠExt":7221,"pton":7222,"Ġmask":7223,"ĠGR":7224,"Ġalgebraic":7225,"tml":7226,"Ġ\\|\\":7227,"req":7228,"Ġfamil":7229,"regular":7230,"Ġcarry":7231,"Range":7232,"hash":7233,"ugins":7234,"Ġcancel":7235,"Ġtemporal":7236,"oted":7237,"Height":7238,"Ġisn":7239,"tn":7240,"CF":7241,"Sign":7242,"Ġanalytic":7243,"ĠDay":7244,"wood":7245,"Ġdecrease":7246,"Ġlen":7247,"Ġ\\[":7248,"pres":7249,"grid":7250,"Ġaccep":7251,"Can":7252,"Access":7253,"Ġfriend":7254,"Ġcryst":7255,"El":7256,"ĠCur":7257,"enum":7258,"limit":7259,"Ġquickly":7260,"Ġincorpor":7261,"Ġlearned":7262,"Ġsensitivity":7263,"Ġcarried":7264,"\"))":7265,"Ġ>=":7266,"Ġtransaction":7267,"udget":7268,"Ġturns":7269,"ĠCorollary":7270,"ifies":7271,"Down":7272,"onder":7273,"Ġmeas":7274,"token":7275,"ĠAlgorithm":7276,"Ġoccup":7277,"ira":7278,"Ġstraightforward":7279,"Ġrig":7280,"Ġdescribes":7281,"Ġstorage":7282,"Ġreading":7283,"Ġsimulated":7284,"invariant":7285,"Ġcontinuum":7286,"Ġstrategies":7287,"gan":7288,"panel":7289,"session":7290,"Ġintermediate":7291,"Ġbands":7292,"buffer":7293,"Ġreturned":7294,"binom":7295,"ara":7296,"functions":7297,"Ġsex":7298,"Ġsom":7299,"clusive":7300,"\\},":7301,"Ġtransitions":7302,"Ġrect":7303,"ĠCheck":7304,"Ġlies":7305,"Ġcosts":7306,"AND":7307,"ĠReview":7308,"Ġstaff":7309,"Ġuniversal":7310,"nergy":7311,"insic":7312,"initial":7313,"Inst":7314,"Ġpatch":7315,"ĠÃ":7316,"Ġâ":7317,"Ġlens":7318,"Ġstated":7319,"WE":7320,"sport":7321,"ifted":7322,"Ġ\\{\\":7323,"ips":7324,"Ġepoch":7325,"numer":7326,"ĠPost":7327,"_{+":7328,"types":7329,"Ġadvers":7330,"Ġfamilies":7331,"$'":7332,"coin":7333,"ãĤ":7334,"})^{":7335,"Ġuint":7336,"HO":7337,"\"));":7338,"Ġprograms":7339,"Ġdip":7340,"ĠCour":7341,"nol":7342,"Ġcamera":7343,"complete":7344,"CK":7345,"ZE":7346,"Ġdecreases":7347,"uint":7348,"Ġformed":7349,"Ġhorizontal":7350,"TYPE":7351,"ĠCap":7352,"double":7353,"Some":7354,"phase":7355,"Ġparty":7356,"Ġpassed":7357,"iders":7358,"Sim":7359,"ague":7360,"licated":7361,"Ġmanner":7362,"Ġpoor":7363,"180":7364,"unt":7365,"ermi":7366,"Script":7367,"debug":7368,"Ġpolynomials":7369,"ĠUnder":7370,"env":7371,"Ġcountries":7372,"Ġ~\\":7373,"Ġhighlight":7374,"oe":7375,"Ġbre":7376,"GE":7377,"erior":7378,"Ġlisted":7379,"ĠSen":7380,"IGN":7381,"Ġkm":7382,"Empty":7383,"ĠAng":7384,"each":7385,"Ġarc":7386,"Ġforces":7387,"neg":7388,"lood":7389,"Json":7390,"Ġ*)":7391,"Ġatmos":7392,"stri":7393,"Ġorders":7394,"Ġnational":7395,"Ġmodeling":7396,"domain":7397,"Description":7398,"Ġlocations":7399,"loss":7400,"stitu":7401,"ĠRun":7402,"Ġattempt":7403,"oom":7404,"Ġorthogonal":7405,"sample":7406,"world":7407,"webkit":7408,"ondon":7409,"Ġ_{\\":7410,"Ġarti":7411,"Ġfight":7412,"Mapp":7413,"{|":7414,"Gu":7415,"ĠLagrangian":7416,"Ġdiffusion":7417,"volution":7418,"Offset":7419,"ĠAct":7420,"Ġlowest":7421,"Ġecho":7422,"fony":7423,"ĠReturns":7424,"Ġplus":7425,"ĠĠčĊ":7426,"Ġsafety":7427,"1997":7428,"ĠSeries":7429,"Ġintersection":7430,"Ġacts":7431,"\\}.":7432,"yr":7433,"Ġtalk":7434,"Ġproportional":7435,"arents":7436,"Ġepis":7437,"Ġimprovement":7438,"Ġpixel":7439,"otal":7440,"Ġsummary":7441,"1996":7442,"ĠBecause":7443,"Ġconjug":7444,"Mark":7445,"Ġinputs":7446,"ðŁ":7447,"ĠBen":7448,"}[!":7449,"nian":7450,"ubble":7451,"Ġcharged":7452,"ita":7453,"ederal":7454,"Ġgenerator":7455,"Ġtrees":7456,"measure":7457,"utils":7458,"Ġdiscr":7459,"ĠYour":7460,"ĠCollege":7461,"FS":7462,"manif":7463,"Doc":7464,"mean":7465,"structor":7466,"ufact":7467,"Ġscience":7468,"los":7469,"ulator":7470,"Ġseven":7471,"Ġmathema":7472,"nition":7473,",...,":7474,"Ġsort":7475,"Ġstarts":7476,"ditionally":7477,"alities":7478,"join":7479,"Chang":7480,"Ġtrigger":7481,"Ġ{$\\":7482,"Ġmainly":7483,"Ġsat":7484,"lik":7485,"ida":7486,"Us":7487,"Ġelectrons":7488,"ĠRel":7489,"Ġfailed":7490,"Ġfill":7491,"Ġenhance":7492,"density":7493,"}>":7494,"tivistic":7495,"Ke":7496,"iforn":7497,"Ġsubspace":7498,"Serial":7499,"Ġchanging":7500,"textnormal":7501,"Ġprojects":7502,"constra":7503,"ĠSim":7504,"}},\\":7505,"}{}":7506,"Ġscene":7507,"=\"/":7508,"Ġtend":7509,"ĠSat":7510,"Ġeducation":7511,"Ġintegrated":7512,"Parser":7513,"\\/":7514,"Ġmolecular":7515,"ifornia":7516,")>":7517,"Ġsensitive":7518,"ĠAR":7519,"Ġindividuals":7520,"ĠPM":7521,"Ġpull":7522,"rick":7523,"stead":7524,"Ġrandomly":7525,"}^{+":7526,"Ġmarg":7527,"Ġhierarch":7528,"Ġseparation":7529,"NAME":7530,"Ġopposite":7531,"Ġvariations":7532,"dens":7533,"ĠSuper":7534,"AE":7535,"lective":7536,"Ġcandidates":7537,"Ġexpectation":7538,"Ġcampaign":7539,"Ġderivatives":7540,"ees":7541,"eks":7542,"Interface":7543,"nm":7544,"Ġlibrary":7545,"ĠService":7546,"irit":7547,"Ġreasons":7548,"cache":7549,"hr":7550,"Ġbenchmark":7551,"COLOR":7552,"cro":7553,"conver":7554,"Ġdedu":7555,"etr":7556,"BE":7557,"clic":7558,"mes":7559,"atrix":7560,"kl":7561,"125":7562,"Ġdead":7563,"Ġmedical":7564,"che":7565,"apes":7566,"Ġchallenge":7567,"hav":7568,"instein":7569,"Ġinfo":7570,"Ġmoments":7571,"bigcup":7572,"Option":7573,"Ġclin":7574,"eting":7575,"notation":7576,"tax":7577,"mathtt":7578,"Ġpm":7579,"rays":7580,"WS":7581,"Ġcorrelations":7582,"Ġorbital":7583,"ĠStar":7584,"ĠCreate":7585,"Expression":7586,"ĠSD":7587,"ports":7588,"ji":7589,"Ġmaintain":7590,"Ġinference":7591,"ĠPy":7592,"Ġnamed":7593,"Ġpolitical":7594,"ifying":7595,"tty":7596,"ĠGeneral":7597,"Properties":7598,"Ġprevent":7599,"'.":7600,"$}}":7601,"Ġreports":7602,"copy":7603,"stro":7604,"Ġmodern":7605,"ĠGod":7606,"Ġroad":7607,"Ġirreducible":7608,"Module":7609,"writ":7610,"Ġrestriction":7611,"itive":7612,"Ø§":7613,"single":7614,"vc":7615,"Ġsaw":7616,"ĠInstitute":7617,"smallskip":7618,"ĠInc":7619,"vity":7620,"region":7621,"Ñĥ":7622,"sip":7623,"Ġretri":7624,"LR":7625,"Ġfaster":7626,"Ġsky":7627,"Ġweighted":7628,"123":7629,"icted":7630,"lementary":7631,"Ġparams":7632,"Use":7633,"pair":7634,"Ġhon":7635,"Ġessentially":7636,"itation":7637,"have":7638,"Ġdefines":7639,"Change":7640,"ifier":7641,"Ġ::":7642,"VAL":7643,"render":7644,"Proposition":7645,"Ġtrajectory":7646,"oli":7647,"ĠBer":7648,"Ġwrong":7649,"Ġdefinitions":7650,"ĠBook":7651,"Ġrecommend":7652,"Ġprecise":7653,"Ġbatch":7654,"Ġcouple":7655,"Ġencoding":7656,"Ġcele":7657,"Ġunless":7658,")}$.":7659,"Ġasymm":7660,"network":7661,"Dir":7662,"trict":7663,"UM":7664,"attle":7665,"spin":7666,"ius":7667,"Ġtang":7668,"^+$":7669,"Ġtight":7670,"Iden":7671,"ĠEuropean":7672,"cluded":7673,"Ġemphas":7674,"Ġbalance":7675,"arity":7676,"ĠBoth":7677,"Ġacknow":7678,"ository":7679,"tile":7680,"BP":7681,"Ġhistor":7682,"Ġmodules":7683,"Ġstay":7684,"Tests":7685,"Thread":7686,"Ġmorphism":7687,"arm":7688,"ä¸":7689,"tian":7690,"VM":7691,"Ġdiagrams":7692,"Ġvor":7693,"moment":7694,"defn":7695,"abe":7696,"Ġcharacteristics":7697,"hs":7698,"ament":7699,"TP":7700,"\\}_{":7701,"uri":7702,"shift":7703,"Ġtechnical":7704,"}{*}{":7705,"Ġfunctor":7706,"equal":7707,"ĠDate":7708,"Ġchoices":7709,"gers":7710,"IE":7711,"ALL":7712,"Ġcoverage":7713,"ĠMr":7714,"ĠHel":7715,"Ġsystematic":7716,"address":7717,"ancing":7718,"subequations":7719,"citealt":7720,"Callback":7721,"stantial":7722,"Ġdifferenti":7723,"Ġsurfaces":7724,"Ġfilename":7725,"Ġunion":7726,"Ġalign":7727,"Main":7728,"lab":7729,"ĠLy":7730,"Ġapparent":7731,"Ġinterpretation":7732,"'m":7733,"Ġstrictly":7734,"Ġturb":7735,"ĠHol":7736,"ĠKing":7737,"ggle":7738,"icies":7739,"Ġadjac":7740,"verb":7741,"ĠBG":7742,"Ġinteract":7743,"Ġplayed":7744,"ultural":7745,"Order":7746,"Ġgradu":7747,"none":7748,"phone":7749,"NG":7750,"ĠRemark":7751,"Ġconclusion":7752,"docs":7753,"ette":7754,"acob":7755,"random":7756,"}^+":7757,"Ġschemes":7758,"ApJ":7759,"Ġtransverse":7760,"{.":7761,"Ġsal":7762,"ictionary":7763,"Ġtriple":7764,"Ġscreen":7765,"Ġdrive":7766,"Const":7767,"Ġreached":7768,"ticip":7769,"ws":7770,"ĠNOT":7771,"focus":7772,"Ġlives":7773,"Ġsurround":7774,"\\[\\":7775,"newline":7776,"annotation":7777,"Ġdt":7778,"click":7779,"Ġcook":7780,"Ġchallenges":7781,"They":7782,"quid":7783,"hed":7784,"acebook":7785,"ĠBi":7786,"Ġdisease":7787,"Ġaccretion":7788,"Ġextracted":7789,"ĠSun":7790,"ĠEquation":7791,"Connection":7792,"Fi":7793,"Ġhum":7794,"Ġregarding":7795,"ightarrow":7796,"irl":7797,"Ġcrucial":7798,"Mar":7799,"Ġallowing":7800,"Ġlikelihood":7801,"endar":7802,"ĠPublic":7803,"fn":7804,"total":7805,"Bigg":7806,"Tran":7807,"iers":7808,"Core":7809,"Ġow":7810,"Ġhorizon":7811,"Ġenjoy":7812,"room":7813,"Ġwanted":7814,"Icon":7815,"ĠDavid":7816,"owers":7817,"velopment":7818,"ingly":7819,"STR":7820,"'ve":7821,"Ġmetall":7822,"Ġaffected":7823,"ospital":7824,"Ġwid":7825,"channel":7826,"Ġattributes":7827,"Ġeveryone":7828,"})=\\":7829,"Ð°Ð":7830,"Ġpartners":7831,"Ġuniqu":7832,"BB":7833,"]=":7834,"footer":7835,"Ġalone":7836,"250":7837,"Ġcodes":7838,"send":7839,"Tool":7840,"Ġsomew":7841,"andard":7842,"Ġdrug":7843,"Ġcontract":7844,"thes":7845,"material":7846,"Ġgl":7847,"Ġexplor":7848,"ĠLO":7849,"Ġdistances":7850,"polation":7851,"Ġcompatible":7852,"Document":7853,"ĠBri":7854,"Ġactivities":7855,"Integer":7856,"Red":7857,"Ġcache":7858,"ĠEnd":7859,"ĠTrump":7860,")_{\\":7861,"Ġopportunity":7862,"trightarrow":7863,"sequent":7864,"Ġsomeone":7865,"Ġchalleng":7866,"Ġalgebras":7867,"Before":7868,"\\|^":7869,"Ġwish":7870,"anel":7871,"Ġautomatically":7872,"Record":7873,"Ġiniti":7874,"Ġinstal":7875,"istence":7876,"Ġsuggested":7877,"Ġoverride":7878,"enter":7879,"ĠSimilarly":7880,"Ag":7881,"Tab":7882,"Two":7883,"================================":7884,"symmetric":7885,"ĠTwo":7886,"Ġanalyze":7887,"Ġpool":7888,"Ġ\"\\":7889,";\\;":7890,"ULT":7891,"Ġmonot":7892,"lef":7893,"MF":7894,"rg":7895,"rome":7896,"tization":7897,"Ġer":7898,"illed":7899,"Ġenable":7900,"connected":7901,"API":7902,"resentation":7903,"Cap":7904,"AGE":7905,"!!":7906,"Ġpractical":7907,"Ġ\\}":7908,"Project":7909,"ĠBel":7910,"Ġorientation":7911,"vention":7912,"Ġcalls":7913,"Ġshell":7914,"ĠIS":7915,"Parameters":7916,"Ġplaying":7917,"ĠSN":7918,"Ġinclusion":7919,"Ġphotons":7920,"Ġdemonstrated":7921,"Ġready":7922,"Settings":7923,"learning":7924,"ogen":7925,"power":7926,"frag":7927,"Ġtoward":7928,"ĠEduc":7929,"Comple":7930,"impl":7931,"Ġvarying":7932,"Ġundefined":7933,"Ġaug":7934,"'=":7935,"'ll":7936,"horiz":7937,"(:":7938,"ĠUse":7939,"ĠCre":7940,"Ġsometimes":7941,"Ġadopted":7942,"delete":7943,"Ġhappens":7944,"1995":7945,"ĠSecond":7946,"ingle":7947,",.":7948,"atural":7949,")}$,":7950,"ashion":7951,"flat":7952,"ÃŃ":7953,"Prop":7954,"Ġscores":7955,"framework":7956,"Ġcollect":7957,"ĠTrue":7958,"Ġhappen":7959,"Ġmostly":7960,"ications":7961,"Ġideas":7962,"Ġannounced":7963,"Ġtraffic":7964,"ynamics":7965,"Ġmonitor":7966,"Ġconnections":7967,"Ġcollected":7968,"Ġinvolving":7969,"Ġthreat":7970,"Ġsimilarly":7971,"Ġfriends":7972,"demic":7973,"poly":7974,"interface":7975,"Ġratios":7976,"ĠDefinition":7977,"CN":7978,"Ġreasonable":7979,"ĠAL":7980,"Ġfits":7981,"bind":7982,"Ġjud":7983,"Ġreflect":7984,"Ġraise":7985,"comb":7986,"Ġtransformations":7987,"Ġcreating":7988,"bolic":7989,"uro":7990,"ĠDire":7991,"Ġexecution":7992,")&":7993,"Ġfib":7994,"Ġmus":7995,"ica":7996,"Any":7997,"ĠDon":7998,"Ġsimplicity":7999,"ĠGr":8000,"Ġgran":8001,"Ġvalidation":8002,"Ġestimator":8003,"look":8004,"Ġdomains":8005,"Ġfailure":8006,"ĠMath":8007,"Ġcontrols":8008,"cross":8009,"Tim":8010,"ĠWil":8011,"ena":8012,"Ġrich":8013,"Ġmarked":8014,"Ġpropos":8015,"stood":8016,"media":8017,"ĠCouncil":8018,"Ġmessages":8019,"ĠEven":8020,"Part":8021,"states":8022,"ĠAGN":8023,"lev":8024,"Ġgeodes":8025,"Extension":8026,"tribut":8027,"urable":8028,"Ġxml":8029,"Ġdriving":8030,"Ġgrowing":8031,"ĠCR":8032,"Ġreferences":8033,"Ġanalys":8034,"equals":8035,"Ġeigenvalue":8036,"Ġdra":8037,"omorphisms":8038,"Ġadjust":8039,"Ġap":8040,"Ġgave":8041,"ĠTop":8042,"Pass":8043,"rb":8044,"Ġmajority":8045,"ĠJapan":8046,"ĠLeg":8047,"Ġcatalog":8048,"Recall":8049,"lank":8050,"tributed":8051,"Ġmobile":8052,"Ġboard":8053,"Ġpolice":8054,"Ġgeneralization":8055,"Ġsave":8056,"Ġpanels":8057,"Helper":8058,"Ġresponsible":8059,"Ġinvestigated":8060,"Ġdominant":8061,"properties":8062,"Ġsignature":8063,"Template":8064,"dients":8065,"###":8066,"Ġinternational":8067,"Ġrepresenting":8068,"Ġliving":8069,"virt":8070,"Ġgr":8071,"ĠCalifornia":8072,"Ġlooks":8073,"Uni":8074,"Ps":8075,"Ġlogarith":8076,"eles":8077,"INE":8078,"iet":8079,"tac":8080,"_{[":8081,"Ġlaunch":8082,"usted":8083,"DIR":8084,"Ġexceed":8085,"vm":8086,"leep":8087,"Ġsimilarity":8088,"ĠEqs":8089,"PECT":8090,"Ġversus":8091,"otor":8092,"calc":8093,"BM":8094,"\\,{\\":8095,"AU":8096,"gray":8097,"Ġeffectively":8098,"cluster":8099,";->":8100,"Ġsafe":8101,"Ġweeks":8102,"ario":8103,"Ġsusp":8104,"ĠHT":8105,"margin":8106,"quark":8107,"Ġsphere":8108,"period":8109,"avity":8110,"ĠCNN":8111,"oung":8112,"Ġemit":8113,"LC":8114,"Ġphoto":8115,"riday":8116,"Graph":8117,"Ġsubstantial":8118,"NavBar":8119,"hl":8120,"Ġabsence":8121,"pub":8122,"tail":8123,"Ġbreaking":8124,"internal":8125,"Ġassigned":8126,"ĠCON":8127,"Ġdou":8128,"ĠBusiness":8129,"Ġcosmological":8130,"}\\;":8131,"Iter":8132,"clide":8133,"Ġrestricted":8134,"Ġemployed":8135,"connection":8136,"Ġconverges":8137,"ĠPhys":8138,"Ġplays":8139,"scriptscript":8140,"syn":8141,"Ġoffice":8142,"Ġinstruction":8143,"DI":8144,"success":8145,"ĠMap":8146,"Ġseed":8147,"Ġentity":8148,"atell":8149,"Ġcontribute":8150,"ĠInformation":8151,"Ġexcited":8152,"scriptscriptstyle":8153,"&#":8154,"ĠAuth":8155,"_{-\\":8156,"tellig":8157,"hover":8158,"mits":8159,"ĠĠĠĠĠĠĠĠĠĠĠĠĠĠĠĠĠĠĠĠĠĠĠĠ":8160,"ĠWilli":8161,"Ġrows":8162,"^*_":8163,"Ġcriteria":8164,"lose":8165,"Ġpowerful":8166,"coq":8167,"ancel":8168,"Ġded":8169,"bre":8170,"fg":8171,"Ġextremely":8172,"Ġminor":8173,".;":8174,"requency":8175,"valued":8176,"Phys":8177,"andra":8178,"Stack":8179,"care":8180,"TER":8181,"Furthermore":8182,"Ġbuy":8183,"ears":8184,"inv":8185,"Ġinduction":8186,"Ġatomic":8187,"blockList":8188,"|_":8189,"ĠFil":8190,"Ġduration":8191,"Draw":8192,"OK":8193,"Ġsubt":8194,"aset":8195,"ĠMost":8196,"Ġplease":8197,"ĠHilbert":8198,"():":8199,"ĠLear":8200,"titude":8201,"Ġempirical":8202,"Session":8203,"600":8204,"Impl":8205,"Step":8206,"Ġimply":8207,"ĠUV":8208,"Ġeffort":8209,"clidean":8210,"|_{\\":8211,"mentation":8212,"Ġpossibly":8213,"Ġtreated":8214,"Ġperforming":8215,"Ġexhibit":8216,"Ġsolved":8217,"}{{\\":8218,"mazon":8219,"ĠMac":8220,"Ġorganization":8221,"Ġinnov":8222,"Ġcouplings":8223,"Ġneutral":8224,"Ġbecame":8225,"Ġhop":8226,"Ġthin":8227,"estern":8228,"ORM":8229,"Ġvehicle":8230,"Ġfermion":8231,"Ġnaturally":8232,"arial":8233,"ĠRad":8234,"vdots":8235,"bootstrap":8236,"Ġtested":8237,"Ġisomorphic":8238,"101":8239,"spect":8240,"Ġchiral":8241,"Ġlie":8242,"Ġiterations":8243,"Ġcareer":8244,"ĠRob":8245,"ĠCanada":8246,"sys":8247,"Ġunitary":8248,"comes":8249,"Ġflag":8250,"Ġspot":8251,"Ġplaced":8252,"rf":8253,"Ġnarrow":8254,"Although":8255,"icons":8256,"dashed":8257,"family":8258,"jk":8259,"ĠCH":8260,"nolimits":8261,"Ġconditional":8262,"extension":8263,"ĠLondon":8264,"Ġalbum":8265,"\\,,":8266,"ĠTwitter":8267,"application":8268,"Ġdeli":8269,"Ġordered":8270,"ĠGovern":8271,"Ġchance":8272,"Ġviol":8273,"forming":8274,"'$.":8275,"Ġbenefit":8276,"Ġstationary":8277,"asy":8278,"Ġmetal":8279,"sat":8280,"arma":8281,"Ġattacks":8282,"leqslant":8283,"Ġreward":8284,"ĠRequ":8285,"igration":8286,"unities":8287,"Ġtopic":8288,"Ġdelete":8289,"Ġmeeting":8290,"izable":8291,"some":8292,"Store":8293,"below":8294,"aver":8295,"ĠVol":8296,"Ġdeploy":8297,"ston":8298,"ĠStreet":8299,"Ġprobabilities":8300,"Ġworked":8301,"Ġclustering":8302,"ĠVis":8303,"Ġjoin":8304,"Title":8305,"anced":8306,"ĠQCD":8307,"retch":8308,"Ġpages":8309,"Ġreaction":8310,"Ġposterior":8311,"rench":8312,"ĠDel":8313,"Ġpropagation":8314,"ECT":8315,"padding":8316,"inction":8317,"Load":8318,"abor":8319,"Application":8320,"fully":8321,"clip":8322,"ĠWhite":8323,"Plan":8324,"complex":8325,"Ġmu":8326,"ĠRepublic":8327,"hu":8328,"finity":8329,"aven":8330,"Ġcustomers":8331,"ĠIP":8332,"Ġstabil":8333,"Ġintervals":8334,"criptor":8335,"hold":8336,"Ġjav":8337,"CI":8338,"estamp":8339,"Ġreferred":8340,"notin":8341,"racket":8342,"Ġprincipal":8343,"Ġswe":8344,"wrap":8345,"Ġlegal":8346,"ria":8347,"custom":8348,"Reference":8349,"ocks":8350,"Ġdefinite":8351,"PORT":8352,"tection":8353,"Ġaspects":8354,"served":8355,"Ġrepeated":8356,"-->":8357,"ĠRead":8358,"Ġframes":8359,"Ġpixels":8360,"esti":8361,"hanced":8362,"Post":8363,"ĠChrist":8364,"Ġsides":8365,"ipped":8366,"ĠDen":8367,"dual":8368,"Ġcomparing":8369,"Ġcaref":8370,"toString":8371,"dict":8372,"Ġfiber":8373,"msg":8374,"Ġsymbols":8375,"Ġrenormal":8376,"Ã³":8377,"Ġcomparable":8378,"=\"_":8379,"ago":8380,"unders":8381,"icated":8382,"Ġconformal":8383,"awa":8384,"Ġpresents":8385,"tish":8386,"Ġcub":8387,"agram":8388,"Ġturned":8389,"CG":8390,"aur":8391,"stain":8392,"dp":8393,"ĠSum":8394,"tempor":8395,"Ġeight":8396,"III":8397,"ĠOper":8398,"GET":8399,"above":8400,"}~\\":8401,"prov":8402,"Ġseconds":8403,"$_{\\":8404,"ĠException":8405,"ecutive":8406,"utor":8407,"dependency":8408,"ĠSi":8409,"Ġrac":8410,"Ġdespite":8411,"Ġcovariance":8412,"liance":8413,"}<":8414,"ĉčĊ":8415,"Ġspecifically":8416,"Ġillustrated":8417,"Ġpseudo":8418,"}}=\\":8419,"plugin":8420,"Que":8421,"HTML":8422,"kov":8423,"triangle":8424,"BH":8425,"iller":8426,"ĠMal":8427,"determ":8428,"Ġparse":8429,"Click":8430,"Ġgene":8431,"Ptr":8432,"Ġcontroller":8433,"Ġprivacy":8434,"Vector":8435,"ĠTran":8436,"Ġrespective":8437,"widget":8438,"Ġperspective":8439,"Ġresonance":8440,"Home":8441,"uses":8442,"ĠName":8443,"Ġslope":8444,"weak":8445,"Ġcompleted":8446,"Ġconsisting":8447,"replace":8448,"fixed":8449,"handle":8450,"ĠĠĠĠĠĠĠĠĠĠĠĠĠĠĠĠĠĠĠĠĠĠ":8451,"Ġclick":8452,"Num":8453,"product":8454,"Pe":8455,"substack":8456,"ĠMem":8457,"inear":8458,"Ġrecords":8459,"Ġdivis":8460,"Ġensemble":8461,"Ġeconomic":8462,"standing":8463,"Ġkinetic":8464,"Ġwoman":8465,"Ġturbul":8466,"disabled":8467,"Ġstronger":8468,")=(":8469,"fr":8470,"conv":8471,"ĠProject":8472,"Ġreflection":8473,"According":8474,"ĠEarth":8475,"Ġconfirmed":8476,"Ġdominated":8477,"assum":8478,"Ġapplicable":8479,"ĠCase":8480,"hard":8481,"Ġche":8482,"Ġfocused":8483,"Ġupdates":8484,"Ġemo":8485,"Ġtrajectories":8486,"'],":8487,"Ġdirected":8488,"Ġfeas":8489,"Ġintegers":8490,"Am":8491,"ĠAny":8492,"unday":8493,"spectr":8494,"rey":8495,"Ġthanks":8496,"ĠĠĠĠĠĠĠĠĠĠĠĠĠĠĠĠĠĠĠĠĠĠĠĠĠĠĠĠĠĠĠĠĠĠĠĠĠĠĠ":8497,"Ġcontainer":8498,"Other":8499,"osh":8500,"specific":8501,"Policy":8502,"ĠSto":8503,"=-\\":8504,"Ġembedded":8505,"Ġsimultaneously":8506,"Ġinterview":8507,"Ġamplitudes":8508,"Build":8509,"important":8510,"rot":8511,"}})$":8512,"Ġvic":8513,"Ġhimself":8514,"ĠFermi":8515,"lects":8516,"hyper":8517,"ircles":8518,"Ġpy":8519,"Async":8520,"Ġpulse":8521,"Ġmatches":8522,"Ġdu":8523,"Ġdefining":8524,"]]":8525,"Ġefforts":8526,"ĠValue":8527,"Ġsharp":8528,"Ġplotted":8529,"Ġinstant":8530,"Ġserious":8531,"Ġalloc":8532,"ĠNext":8533,"Ġchallenging":8534,"ĠTri":8535,"*\\":8536,"Rightarrow":8537,"Values":8538,"ĠPoisson":8539,"ja":8540,"ander":8541,"Ġ&$":8542,"plus":8543,"ĠĠĠĠĠĠĠĠĠĠĠĠĠĠĠĠĠĠĠĠĠĠĠĠĠ":8544,"URE":8545,"Ġbegan":8546,"byte":8547,"oidal":8548,"formu":8549,")|\\":8550,"Ġrock":8551,"ashington":8552,"ĠPal":8553,"GM":8554,"edy":8555,"Ġgrant":8556,"schema":8557,"dest":8558,"Ġpurch":8559,"Ġuniverse":8560,"IX":8561,"email":8562,"Ġcontradiction":8563,"Symfony":8564,"ĠOffice":8565,"Ġexcell":8566,"Ġbary":8567,"$/":8568,"Ġdecreasing":8569,"Ġrespond":8570,"Ġmission":8571,"access":8572,"%%":8573,"Ġunderstood":8574,"Ġplanning":8575,"iling":8576,"amond":8577,"Ġdistinguish":8578,"tiveness":8579,"rati":8580,">.":8581,"orge":8582,"Ġstories":8583,"'))":8584,"1994":8585,"otient":8586,"Ġpiece":8587,"ĠHall":8588,"Ġdem":8589,"Ġmul":8590,"Ġinvestigation":8591,"home":8592,"ĠInst":8593,"Acknow":8594,"ĠMulti":8595,"ĠImage":8596,"Another":8597,"Ġworkers":8598,"Ġspherical":8599,"NC":8600,".}\\":8601,"legal":8602,"ilitary":8603,"Ġanisot":8604,"Ġidentification":8605,"toggle":8606,"Upsilon":8607,"thesis":8608,"')$":8609,"Port":8610,"Ġproduces":8611,"words":8612,"|=":8613,"Ma":8614,"Ġpretty":8615,"}&\\":8616,"ĠLong":8617,"Render":8618,"simple":8619,"legate":8620,"Ġmaster":8621,"venue":8622,"Ġjump":8623,"Ġrare":8624,"overset":8625,"Ġplasma":8626,"virtual":8627,"ĠBr":8628,"Ġsmart":8629,"togram":8630,"ideos":8631,"Ġpolicies":8632,"language":8633,"ĠError":8634,"Ġinvolves":8635,"cas":8636,"Ġinterior":8637,"Err":8638,"ĠLife":8639,"Ġbenefits":8640,"Ġexpos":8641,"Ġcharacterized":8642,"plugins":8643,"ĠAND":8644,"aylor":8645,"Ġnormalization":8646,"Ġrequirement":8647,"iant":8648,"ĠIndian":8649,"Ġwidely":8650,"Ġcloser":8651,"Operation":8652,"})_{":8653,"&$":8654,"ĠJSON":8655,"ĠNor":8656,"aved":8657,"HD":8658,"Ġelection":8659,"oles":8660,"ĠPl":8661,"Ġcovering":8662,"Ġdownload":8663,"Ġmovie":8664,"Ġapplies":8665,"Ġtour":8666,"Ġmanufact":8667,"exports":8668,"raise":8669,"fly":8670,"iented":8671,"ocities":8672,"âĢĿ.":8673,"Ġsustain":8674,"iso":8675,"kw":8676,"False":8677,"Ġteams":8678,"Bas":8679,"ERROR":8680,"nings":8681,"ibrary":8682,"Ġflows":8683,"Ġinher":8684,"Ġeventually":8685,"tz":8686,"ĠEvery":8687,"ORD":8688,"}.\\":8689,"Ġ$\\|":8690,"profile":8691,"=\"../../../":8692,"Ġtro":8693,"ATH":8694,"ĠBGCOLOR":8695,"Ġabstract":8696,"Has":8697,"Ġdiscussions":8698,"deep":8699,"ĠKe":8700,"Ġlabeled":8701,"Ġsuccessfully":8702,"Ġos":8703,"Ġtown":8704,"Ġleaves":8705,"Device":8706,"Ġreads":8707,"Ġpurposes":8708,"Ġpapers":8709,"Ġangles":8710,"Ġplots":8711,"ĠTex":8712,"'$,":8713,"Ġroughly":8714,"Host":8715,"SION":8716,"ĠView":8717,"Ġraw":8718,"Ġplans":8719,"ĠTheir":8720,"Vol":8721,"Ġspacetime":8722,"lie":8723,"she":8724,"ulas":8725,"Ġlaser":8726,"Ġcovered":8727,"Ġremote":8728,"Ġoscill":8729,"ami":8730,"Ġcold":8731,"Bigl":8732,"Ġserve":8733,"surface":8734,"Ġsurv":8735,"Ġproposition":8736,"Ġpandemic":8737,"Ġcontrolled":8738,"Ġdisjoint":8739,"Ġphone":8740,"anguages":8741,"Classes":8742,"Ġentanglement":8743,"Ġsegmentation":8744,"Ġinflation":8745,"physical":8746,"bro":8747,"esides":8748,"Ġimplicit":8749,"Eng":8750,"separ":8751,"coordin":8752,"'}\\":8753,"ĠJack":8754,"WA":8755,"Ġfem":8756,"Ġconnect":8757,"roscopic":8758,"cepts":8759,"approxi":8760,"cellcolor":8761,"ĠFacebook":8762,"Ġadopt":8763,"Ġ),":8764,"Ġplaces":8765,"Display":8766,"Cre":8767,"ĠUser":8768,"END":8769,"Ġ['":8770,"ĠUk":8771,"Ġescap":8772,"Ġtot":8773,"store":8774,"resize":8775,"ĠEducation":8776,"isting":8777,"ĠDirac":8778,"~(":8779,"Ġconcentration":8780,"Ġaffine":8781,".(\\":8782,"arest":8783,"Ġsubsequent":8784,"alty":8785,"Ġsubsets":8786,"GG":8787,"Ġelectronic":8788,"cloud":8789,"Ġ{{":8790,"War":8791,"sky":8792,"experim":8793,"Star":8794,"Ġinser":8795,")}_{\\":8796,"rfloor":8797,"Ġgate":8798,"HR":8799,"fortun":8800,"seq":8801,"Ġimpos":8802,"Ġjournal":8803,"\\-":8804,"PY":8805,"Ġfourth":8806,"PRE":8807,"tb":8808,"Ġdiscrimin":8809,"Ġculture":8810,"cher":8811,"oration":8812,"Bigr":8813,"ĠBest":8814,"ĠEast":8815,"Ġheader":8816,"Ġlatent":8817,"ĠShow":8818,"Ġmesh":8819,"ĠDan":8820,"ANT":8821,"FE":8822,"ĠBayes":8823,"ligible":8824,"Ġquarter":8825,"ĠMer":8826,"&-":8827,"lfloor":8828,"Ġexplanation":8829,"rab":8830,"tability":8831,"Flo":8832,"Ġmini":8833,"Ġmechanisms":8834,"ÐµÐ":8835,"Ġguid":8836,"Ġaudi":8837,"homology":8838,"Ġbooks":8839,"Ġpotentially":8840,"ITY":8841,"Ġbelongs":8842,"Ġcommunities":8843,"Ġbyte":8844,"Ġelimin":8845,"Ġviews":8846,"aling":8847,"tech":8848,"cb":8849,"ĠArt":8850,",~":8851,"ĠOnly":8852,"ĠTO":8853,"icker":8854,"scription":8855,"?âĢĿ":8856,"Ġhybrid":8857,"GD":8858,"problem":8859,"Ġsmallest":8860,"pay":8861,"Ġcomplicated":8862,")|^":8863,"UV":8864,"Ġani":8865,"Ġmovement":8866,"oday":8867,"Ġextreme":8868,"autif":8869,"Ġoutcome":8870,"Ġperturbations":8871,"Handle":8872,"theory":8873,"Ġneutron":8874,"}\"":8875,"Ġextent":8876,"Ġinvoke":8877,"uzz":8878,"Ġsecondary":8879,"kg":8880,"oming":8881,"Ġconducted":8882,".},":8883,"Ġvanishes":8884,"Ġinit":8885,"Ġincident":8886,"tensor":8887,"Ġhuge":8888,"independent":8889,"ultra":8890,"Ġ$-$":8891,"Ġoutputs":8892,"ĠLore":8893,"Example":8894,"ĠBig":8895,"]^{":8896,"Ġintroduction":8897,"Debug":8898,"matics":8899,"ĠFriday":8900,"ĠNO":8901,"chive":8902,"SN":8903,"keys":8904,"ĠNGC":8905,"Ġabundance":8906,"Ġbra":8907,"Found":8908,"Ġsaying":8909,"Ġnative":8910,"Show":8911,"EP":8912,"Ġicon":8913,"Ġple":8914,"arr":8915,"ĠSO":8916,"ĠJournal":8917,"Ġgenerators":8918,"foo":8919,"bounded":8920,"between":8921,"holder":8922,"distribution":8923,"Ġmm":8924,"rency":8925,"Ġintrinsic":8926,"Bbb":8927,"export":8928,"ĠHy":8929,"supervised":8930,"Ġremember":8931,"Ġbits":8932,"Rad":8933,"vironments":8934,"Ġclosely":8935,"Ġaware":8936,"(*":8937,"Ġinstrument":8938,"Ġwhenever":8939,"settings":8940,"ĠÎ":8941,"Ñı":8942,"Av":8943,"analysis":8944,"Ġ$[\\":8945,"Rou":8946,"Ġweakly":8947,"Network":8948,"Ġsupports":8949,"series":8950,"CB":8951,"ccc":8952,"Ġmedian":8953,"sql":8954,"inds":8955,"ĠâĢ¦":8956,"how":8957,"Assume":8958,"Ġĉ":8959,"Ġcast":8960,"ĠProf":8961,"Expr":8962,"reh":8963,"bx":8964,"Ġcapital":8965,"inese":8966,"800":8967,"ĠEvent":8968,"Ġseparated":8969,"racting":8970,"Ġaf":8971,"sharp":8972,"Ġfinish":8973,"Ġstored":8974,"cope":8975,"Ġcolour":8976,"also":8977,"Param":8978,"Ġversions":8979,"Ġ}$":8980,"rative":8981,"Ġcondens":8982,"lb":8983,"Ġdecays":8984,"serve":8985,"Ġbrought":8986,"Ġrace":8987,"Also":8988,"pic":8989,"Reader":8990,"Ġsplitting":8991,"ĠMA":8992,">();":8993,"argument":8994,"CV":8995,"Ġparents":8996,"ĠMichael":8997,"Ġoutper":8998,"ronic":8999,"Auto":9000,"utter":9001,"yan":9002,"ĠKey":9003,"wp":9004,"ĠExample":9005,"tructure":9006,"person":9007,"Ġbudget":9008,"Ġdeduce":9009,"Ġhor":9010,"Ġprotect":9011,"move":9012,"NT":9013,"scape":9014,"icine":9015,"Ġfinds":9016,"ĠJust":9017,"changed":9018,"odec":9019,"Ġconvers":9020,"Ġsynchron":9021,"ĠServices":9022,"Gen":9023,"ĠAlex":9024,"Ġcriterion":9025,"Ġtrunc":9026,"Ġsparse":9027,"Ġparticipants":9028,"ĠMC":9029,"Ġdiagnos":9030,"than":9031,"ĠEXPECT":9032,"ACT":9033,"ĠAssume":9034,"ĠJames":9035,"Ġacting":9036,"__(":9037,"Ġinitially":9038,"Ġsuffer":9039,"ĠBack":9040,"irror":9041,"airs":9042,"Ġshot":9043,"`.":9044,"lm":9045,"found":9046,"acle":9047,"urday":9048,"shell":9049,"article":9050,"register":9051,"Gr":9052,"STM":9053,"ampion":9054,"Ġtrial":9055,"amer":9056,"eper":9057,"ĠRich":9058,"Initial":9059,"switch":9060,"Ġperhaps":9061,"counter":9062,"Ġzone":9063,"}^{(\\":9064,"Ġ$<":9065,"Under":9066,"1993":9067,"SV":9068,"constant":9069,"Ġorbits":9070,"Ġprojective":9071,"Ġkeys":9072,"=(\\":9073,"ACE":9074,"tated":9075,"Ġtargets":9076,"tons":9077,"}))":9078,"ĠHTML":9079,"titions":9080,"vskip":9081,"fast":9082,"lectic":9083,"FIG":9084,"ntz":9085,"Package":9086,"Ġri":9087,"Ġlinearly":9088,"}_{{\\":9089,"ledg":9090,"ectivity":9091,"ivil":9092,"lr":9093,"ĠMonte":9094,"Ġspeech":9095,"mathbbm":9096,"pmb":9097,"trim":9098,"Second":9099,"ĠURL":9100,"Ġpassing":9101,"Metadata":9102,"Ġpatient":9103,"Ġdy":9104,"rupt":9105,"Ġboost":9106,"depth":9107,"aneous":9108,"Ġcla":9109,"Ġsubsection":9110,"Ġconventional":9111,"isy":9112,"Args":9113,"Dialog":9114,"triang":9115,"Ġkept":9116,"atal":9117,"Ġcoherent":9118,"Ġharmonic":9119,"inline":9120,"Ġwallet":9121,"ĠBra":9122,"Ġcolors":9123,"Ġcharges":9124,"subfloat":9125,"Ġhund":9126,"itness":9127,"Ġdriven":9128,"given":9129,"ĠMid":9130,"Ġjson":9131,"Ġqualit":9132,"samp":9133,"Ġindependently":9134,"lg":9135,"Invalid":9136,"ĠLap":9137,"Ġ}{\\":9138,"High":9139,"cmd":9140,"learly":9141,"Ġbroken":9142,"Ġroots":9143,"Ġbutton":9144,"uv":9145,"Ġboundaries":9146,"uma":9147,"Ġ++":9148,"ĠIts":9149,"pool":9150,"Ġdirectory":9151,"Ġtriang":9152,"Ġnamespace":9153,"ĠLand":9154,"Ġrecognition":9155,"eat":9156,"Ġdrawn":9157,"EV":9158,"Ġfans":9159,"Ġflexi":9160,"direction":9161,"Delete":9162,"HM":9163,"Ġhelps":9164,"Ġcreation":9165,"omas":9166,"hook":9167,"sych":9168,"Ġelliptic":9169,"correspond":9170,"Ġunsigned":9171,"Ġcircum":9172,"Direct":9173,"tages":9174,"Ġanyone":9175,"Ġmarginal":9176,"gets":9177,"Ġvelocities":9178,"Ġdivided":9179,"Ġaward":9180,"Ġrepresentative":9181,"aws":9182,"admin":9183,"Ġfindings":9184,"analy":9185,"Ġends":9186,"mathds":9187,"Parent":9188,"ĠCr":9189,"Ġwonder":9190,"och":9191,"solid":9192,"Ġnonzero":9193,"estima":9194,"akes":9195,"Ġing":9196,"Ġthous":9197,"romise":9198,"Ġroll":9199,"Ġfinitely":9200,"Comparison":9201,"coup":9202,"Ġpermission":9203,"_;":9204,"np":9205,"Ġmoves":9206,"Ġrecorded":9207,"enses":9208,"sel":9209,"Ġmother":9210,"ĠIII":9211,"ĠAM":9212,"rase":9213,"----------------------------------------------------------------":9214,"Ġaudio":9215,"eller":9216,"Ġcourt":9217,")}=":9218,"edit":9219,"olf":9220,"factor":9221,"Ġtil":9222,"sey":9223,"ĠGlobal":9224,"Ġindicating":9225,"Ġ<=":9226,"umps":9227,"âĢĺ":9228,"Ġsuffices":9229,"riend":9230,"Ġholes":9231,"lips":9232,"]:":9233,"warm":9234,"abil":9235,"spaces":9236,"Ġtele":9237,"Ġletter":9238,"Ġwal":9239,"Ġeasier":9240,"Ġsemantic":9241,"grade":9242,"Ġencoura":9243,"RS":9244,"ĠFurther":9245,"ĠFunction":9246,"Ġdamage":9247,"})-":9248,"igu":9249,";<":9250,"Ġsentence":9251,"ailed":9252,"Ġanalytical":9253,"Ġlaws":9254,"vertex":9255,"ĠSunday":9256,"rastructure":9257,"organ":9258,"Ġdaily":9259,"ĠWashington":9260,"domin":9261,"vin":9262,"Ġbus":9263,"imit":9264,"primary":9265,"Api":9266,"Ġ×":9267,"atest":9268,"1990":9269,"Ġproperly":9270,"ariant":9271,"Ġvision":9272,"TEST":9273,"frared":9274,"Ġcollisions":9275,"Summary":9276,"Ġinline":9277,"GA":9278,"ĠMarkov":9279,"Sw":9280,"Ġinduces":9281,"Only":9282,"Ġstrings":9283,"Ġcyl":9284,"uu":9285,"Ġcircular":9286,"Ġsun":9287,"tip":9288,"Ġsupercon":9289,"entication":9290,"Ġ$$\\":9291,"ĠGold":9292,"iger":9293,"ĠBas":9294,"Ġstatements":9295,"ĠEuclidean":9296,"Ġinvolve":9297,"enty":9298,"odd":9299,"Bytes":9300,"Ġanni":9301,"ATA":9302,"upper":9303,"useum":9304,"idel":9305,"chitz":9306,"spring":9307,").}":9308,"Ġconflic":9309,"111":9310,"Ġtermin":9311,"Ġcircuit":9312,"Ġcone":9313,"Ġbillion":9314,"Rect":9315,"icate":9316,"Ġanalogous":9317,"Body":9318,"Experim":9319,"Ġalt":9320,"lined":9321,"Byte":9322,"estival":9323,"Ġdisapp":9324,"Ġeditor":9325,"ĠChi":9326,"horizontal":9327,"Ġpeaks":9328,"Ġspent":9329,"Ġadjacent":9330,"temp":9331,"GO":9332,"cket":9333,"Ġoverlap":9334,"Ġfigures":9335,"Ġdirector":9336,"Ġopin":9337,"password":9338,"Ġprobe":9339,"@{}":9340,"}_{(":9341,"Ġsymp":9342,"Similarly":9343,"ĠInstead":9344,"Del":9345,"Ġwasn":9346,"Ġclassifier":9347,"Ġbytes":9348,"ĠMat":9349,"Ġsatell":9350,"\\|_{\\":9351,"ĠFund":9352,"Ġfirm":9353,"essor":9354,"Ġpartially":9355,"Ġliquid":9356,"ographic":9357,"}}}{":9358,"generated":9359,"Es":9360,"igital":9361,"FP":9362,"Custom":9363,"UP":9364,"mak":9365,"Ġchoosing":9366,"Ġinstitu":9367,"napshot":9368,"Meta":9369,"ĠResults":9370,"will":9371,"IME":9372,"'',":9373,"\")]":9374,"Ġoperating":9375,"ĠFore":9376,"artin":9377,"ĠML":9378,"Ġasser":9379,"boolean":9380,"selected":9381,"claim":9382,"symmetry":9383,"kens":9384,"Ġgenerality":9385,"ĠPolicy":9386,"Ġblood":9387,"ĠDevelopment":9388,"ĠSy":9389,"Ġtriangle":9390,"Ġcontinues":9391,"ouds":9392,"decom":9393,"Ġrequests":9394,"'}$":9395,"Ġconstrained":9396,"Cs":9397,"}=(":9398,"ĠPub":9399,"master":9400,"ĠTechnology":9401,"ĠEnergy":9402,"Ġcooling":9403,"ĠMusic":9404,"Ġsomewhat":9405,"sections":9406,"RT":9407,"Bit":9408,"ultimate":9409,"ĠPress":9410,"Active":9411,"take":9412,"ĠWed":9413,"aching":9414,"Ġopening":9415,"uesday":9416,"Ġstructural":9417,"}_+":9418,"Book":9419,"Ġmal":9420,"rote":9421,"Ġsteady":9422,"bad":9423,"hskip":9424,"iliary":9425,"1992":9426,"Ġconsistency":9427,"onym":9428,"pheric":9429,"Ġarise":9430,"dz":9431,"Ġopacity":9432,"house":9433,")))":9434,"Ġdecided":9435,"Ġvoice":9436,"ĠDirector":9437,"ĠInitial":9438,"Bound":9439,"raine":9440,"ĠMet":9441,"gin":9442,"aterial":9443,"rames":9444,")!":9445,"aug":9446,"Aut":9447,"character":9448,"FAULT":9449,"evertheless":9450,"))$.":9451,"uniform":9452,"ĠPort":9453,"Ġrobot":9454,"{%":9455,"ĠBuild":9456,"tur":9457,"liography":9458,"Ġcorrelated":9459,"Ġhomot":9460,"ĠAssert":9461,"\\,.":9462,"Names":9463,"dynamic":9464,"ĠPaul":9465,"onses":9466,"Ġgold":9467,"thread":9468,"iner":9469,"ato":9470,"Ġpublish":9471,"Ġneur":9472,"Rule":9473,"training":9474,"Ġgoals":9475,"ĠAI":9476,"Ġ(*":9477,"Ġprepar":9478,"hole":9479,"Fields":9480,"UL":9481,"}\\}$":9482,"Ġrealistic":9483,"hang":9484,"configuration":9485,"Ġintegrals":9486,"Ġappearance":9487,"ĠBH":9488,"Ġanalyzed":9489,"Enabled":9490,"sequences":9491,"Ġson":9492,"Ġequals":9493,"Ġcauses":9494,"wall":9495,"Ġexcellent":9496,"Ġguarantee":9497,"ĠAP":9498,"SW":9499,"fortunately":9500,"just":9501,"CTION":9502,"Ġconvenient":9503,"potential":9504,"Ġacces":9505,"Ġtrip":9506,"$(\\":9507,"Ġcertainly":9508,"Ġwants":9509,"txt":9510,"Dr":9511,"Ġusage":9512,"fail":9513,"ĠAssociation":9514,"photon":9515,"ĠFalse":9516,"Ġcircles":9517,"BI":9518,"Ġtracking":9519,"Ġnation":9520,"ĠMil":9521,"Ġquotient":9522,"ĠForm":9523,"Ġdescribing":9524,"ï¼":9525,"Ġkeeping":9526,"ifications":9527,"ĠSol":9528,"ĠPDF":9529,"ecution":9530,"Ġtrust":9531,"erve":9532,"Ġschema":9533,"ĠAfrica":9534,"GP":9535,"Ġordering":9536,"\\}}":9537,"gi":9538,"autoref":9539,"Ġprog":9540,"connect":9541,"Ġseparately":9542,"etri":9543,"Ġwild":9544,"Ġencoder":9545,"Ġcontinued":9546,"Ġtab":9547,"underset":9548,"pf":9549,"ona":9550,"through":9551,"JECT":9552,"Ġsampled":9553,"Space":9554,"Boolean":9555,"ĠNumber":9556,"attribute":9557,"ODO":9558,"components":9559,"ĠAT":9560,"Ġlogic":9561,"Ġexcitation":9562,"Ġclimate":9563,"Ġcancer":9564,"umin":9565,"tsd":9566,"Writer":9567,"noise":9568,"3333":9569,"teness":9570,"Conf":9571,"Si":9572,"Ġeyes":9573,"BF":9574,"incre":9575,"Ġadmits":9576,"Ġplant":9577,"Ġvehicles":9578,"Ġimaging":9579,"Ġroute":9580,"ĠCall":9581,"Ġcorner":9582,"ursday":9583,"Pub":9584,"ĠCA":9585,"Ġperforms":9586,"ĠText":9587,"lac":9588,"Ġ{{\\":9589,"Ġhour":9590,"Ġguide":9591,"sess":9592,"Ġillustrate":9593,"Ġ'/":9594,"inement":9595,"Ġbirth":9596,"ĠBur":9597,"Ġsecret":9598,"Ġcycles":9599,"ĠBal":9600,"life":9601,"pschitz":9602,"Ġgenerates":9603,"fol":9604,"Ġexcess":9605,"Ġmoved":9606,"Ġpowers":9607,"Ro":9608,"Ġaux":9609,"Ġcorrectly":9610,"}\\!":9611,"ĠMonday":9612,"screen":9613,"Ġenvironments":9614,"Ġopportunities":9615,"items":9616,"outs":9617,"ĠWindow":9618,"ĠLin":9619,"Ġmock":9620,"callback":9621,"uby":9622,"RC":9623,"ĠAustralia":9624,"Ġsurve":9625,"para":9626,"Ġfashion":9627,"autiful":9628,"Ġsupply":9629,"Ġsigned":9630,"ĠArch":9631,"jet":9632,"NOT":9633,"nesday":9634,"Ġwire":9635,"Ġdissip":9636,"ĠUSA":9637,"Ã¤":9638,"Ġpri":9639,"Scope":9640,"ĠSE":9641,"Ġsep":9642,"vest":9643,"gp":9644,"Ġaveraged":9645,"Ġinfinity":9646,"ĠVir":9647,"Ġhands":9648,"ĠLocal":9649,"Argument":9650,"Queue":9651,"Ġskills":9652,"~~~~~~~~":9653,"Ġmanager":9654,"ĠPlay":9655,"Ġfather":9656,"Ġexponent":9657,"basic":9658,"'d":9659,"cpp":9660,"descri":9661,"Ġclinical":9662,"Ġconjecture":9663,"à¥":9664,"Ġcavity":9665,"ĠUpdate":9666,"Ġqueue":9667,"trib":9668,"Ġenabled":9669,"Ġfelt":9670,"},{\\":9671,"Ġcredit":9672,"sun":9673,"ĠConn":9674,"lability":9675,"Ġreality":9676,"istant":9677,"Ġsummer":9678,"xrightarrow":9679,"ĠTexas":9680,"Ġapi":9681,"ĠCourt":9682,"three":9683,"ĠIO":9684,"Ġnumerically":9685,"owski":9686,"Ġqueries":9687,"]_{":9688,"ĠRecall":9689,"ĠArm":9690,"Ġsensor":9691,"ĠMus":9692,"stats":9693,"Ġdele":9694,"Ġrad":9695,"expand":9696,"ughter":9697,"eve":9698,"ĠField":9699,"standard":9700,"transition":9701,"Ġdriver":9702,"ĠGame":9703,"Ġdocuments":9704,"sig":9705,"(.":9706,"Ġranges":9707,"Ġbtn":9708,"Ġ\\,,":9709,"ewise":9710,"ycle":9711,"lush":9712,"Ġcalibration":9713,"Ġdeformation":9714,"ĠCode":9715,"Kind":9716,"^-$":9717,"cop":9718,"Ġcorrespondence":9719,"ĠBoard":9720,"Ġcentre":9721,"rink":9722,"brane":9723,"asi":9724,"odies":9725,"Ġcollapse":9726,"Ġguess":9727,"MI":9728,"ĠAmazon":9729,"ĠTR":9730,"Ġimmediate":9731,"tificate":9732,"}$).":9733,"racts":9734,"Ġdisorder":9735,"Ġstands":9736,"Ġcomposed":9737,"stop":9738,"ifting":9739,"ĠEcon":9740,"ĠMeV":9741,"ĠDev":9742,"Ġ(\"":9743,"aten":9744,"ĠSmith":9745,"ĠCopy":9746,"Ġdwar":9747,"`,":9748,"ularities":9749,"ĠSal":9750,"egment":9751,"{[":9752,"KS":9753,"ĠAnother":9754,"Ġdetermines":9755,"utf":9756,"Ġunstable":9757,"}(-":9758,"install":9759,"cov":9760,"respectively":9761,"Pattern":9762,"Ġ\\#":9763,"Ġorganized":9764,"ĠMedia":9765,"ĠManagement":9766,"ĠSpace":9767,"Ġcommonly":9768,"(|":9769,"aming":9770,"ĠColor":9771,"equival":9772,"Ġspecify":9773,"ĠDep":9774,"Ġenables":9775,"Ġpotentials":9776,"}}}$":9777,"Ġisolated":9778,"ĠCP":9779,"Ġbrain":9780,"help":9781,"She":9782,"ĠIsl":9783,"inity":9784,"âĢĿ,":9785,"Ġlabor":9786,"ypto":9787,"Ġsynthetic":9788,"\"\"\"":9789,"Ġrelaxation":9790,"[$":9791,"(!":9792,"ULE":9793,"Ġembeddings":9794,"Ġrevealed":9795,"Cho":9796,"Ġbriefly":9797,"events":9798,"KL":9799,"href":9800,"Perm":9801,"Ġful":9802,"Ġvideos":9803,"Ġds":9804,";/":9805,"Ġours":9806,"lands":9807,"EEE":9808,"optimal":9809,"Ġrelationships":9810,"Ġhardware":9811,"Ġcounts":9812,"ros":9813,"ĠĠĠĠĠĠĠĠĠĠĠĠĠĠĠĠĠĠĠĠĠĠĠĠĠĠĠĠ":9814,"Ġflight":9815,"Ġinterference":9816,"Ġtwice":9817,"amin":9818,"erry":9819,"aded":9820,"Activity":9821,"ĠDa":9822,"ĠRussia":9823,"ĠBob":9824,"Ġtransmit":9825,"oon":9826,"Ġcompreh":9827,"')\\":9828,"similar":9829,"ermany":9830,"Ðº":9831,"Ġpipeline":9832,"Ġconservation":9833,"Ġdesc":9834,"Ġtranslate":9835,"Ġcarbon":9836,"Ġproj":9837,"ensus":9838,"Member":9839,"Ġalle":9840,"Ġcompletion":9841,"Ġformalism":9842,"Obj":9843,"Ġsharing":9844,"tests":9845,"rev":9846,"Ġshear":9847,"apy":9848,"assets":9849,"ĠUs":9850,"Ġperiods":9851,"centerline":9852,"men":9853,"forma":9854,"atorial":9855,"Ġhyperbolic":9856,"Root":9857,"}|^":9858,"Ġclosure":9859,"Ġ^{\\":9860,"bilities":9861,"wild":9862,"Ġleader":9863,"^{[":9864,"Ġjavax":9865,"ĠEngine":9866,"aux":9867,"Ġschools":9868,"ademic":9869,"ĠTor":9870,"kins":9871,"JSON":9872,"Ġpuls":9873,"Ġinterpreted":9874,"çļ":9875,"ĠSaturday":9876,"SET":9877,"Mock":9878,"Ġspirit":9879,"Ġdisplayed":9880,"ached":9881,"Ġcrow":9882,"Ġ('":9883,"ĠLorentz":9884,"ĠAnn":9885,"Ġchecked":9886,"onomy":9887,"Ġconsole":9888,"\\'{":9889,"Ġdeveloper":9890,"smooth":9891,"Ġscript":9892,"Ġsales":9893,"Ġrealized":9894,"ounted":9895,"Ġboson":9896,"çļĦ":9897,"Pop":9898,"structed":9899,"was":9900,"uling":9901,"ĠPat":9902,"centric":9903,"Ġproves":9904,"ĠSpecifically":9905,"ĠSam":9906,"Ġcombinations":9907,"cludes":9908,"jquery":9909,"Ġreducing":9910,"webpack":9911,"ceptions":9912,"ulo":9913,"paper":9914,"000000":9915,"Ġjobs":9916,"external":9917,"à¸":9918,"ĠSC":9919,"Ġentirely":9920,"gery":9921,"Ġeye":9922,"lare":9923,"utoff":9924,"}}\\,":9925,"Ġanomal":9926,"ĠDemoc":9927,"Ġpartner":9928,"======":9929,"tron":9930,"dv":9931,"ectiveness":9932,"Ġmathematical":9933,"symbol":9934,"____":9935,"ĠWal":9936,"Ġ\\\\[":9937,"Ġrely":9938,"video":9939,"Ġbinding":9940,"resolution":9941,"})(":9942,"toprule":9943,"Storage":9944,"taining":9945,"Ġsn":9946,"Ġformulas":9947,"desc":9948,"Ġdeveloping":9949,"ĠTem":9950,"Ġexamine":9951,"@\"":9952,"Ġhtml":9953,"ratio":9954,"Matrix":9955,"Ġglob":9956,"Ġconsideration":9957,"Ġresearchers":9958,"ilos":9959,"ĠChinese":9960,">$":9961,"Ġwrote":9962,"yy":9963,"Lock":9964,"ĠEinstein":9965,"Ġwriter":9966,"fix":9967,"Transaction":9968,"ĠĠĠĠĠĠĠĠĠĠĠĠĠĠĠĠĠĠĠĠĠĠĠĠĠĠ":9969,"textstyle":9970,"}}\\\\":9971,"ĠTom":9972,"ĠDesign":9973,"figs":9974,"reci":9975,"missible":9976,"VERSION":9977,"Ġdecisions":9978,"exception":9979,"Ġactivation":9980,"Ġrecovery":9981,"ĠJacob":9982,"UID":9983,"Syn":9984,"aders":9985,"}}+":9986,"ipment":9987,"Ġdiscovered":9988,"[:":9989,"unsigned":9990,"=$":9991,"ĠCho":9992,"Ġacceleration":9993,"Ġther":9994,"=\"\">":9995,"quote":9996,"edef":9997,"^+\\":9998,"ĠRev":9999,"$--":10000,"trace":10001,"Ġaspect":10002,"Ġprofessional":10003,"Ġextensions":10004,"Ġ\"/":10005,"Desc":10006,"Ġultimate":10007,"Full":10008,"positions":10009,"Ġjour":10010,"Ġenhanced":10011,"record":10012,"XT":10013,"scalebox":10014,")}^":10015,"Ġgeodesic":10016,"Ġemployees":10017,"Ġnegligible":10018,"Figures":10019,"ditive":10020,"Ġclients":10021,"cerning":10022,"frequency":10023,"ĠSearch":10024,"Ġlooked":10025,"iginal":10026,"PAR":10027,"ARY":10028,"ĠZe":10029,"wer":10030,"former":10031,"Ġconcerns":10032,"degree":10033,"Based":10034,"entity":10035,")\\,\\":10036,"good":10037,"ĠNE":10038,"Ġassignment":10039,"Ġclaims":10040,"imals":10041,"pot":10042,"Ġahead":10043,"ĠGen":10044,"}}^{(":10045,"htbp":10046,"ĠAgain":10047,"ĠCommit":10048,"Ġfunding":10049,"áĥ":10050,"Ġmanip":10051,"Ġthermod":10052,"forcement":10053,"temperature":10054,"ĠSk":10055,"/.":10056,"Ġaccomp":10057,"Ġshoot":10058,"ĠAction":10059,"Ġmagne":10060,"ĠOnce":10061,"Ġcosmic":10062,"Ġblow":10063,"Ġderivation":10064,"Ġcommerc":10065,"ĠLast":10066,"ĠDat":10067,"ĠHand":10068,"orbit":10069,"pix":10070,"displaymath":10071,"Ġnice":10072,"ovies":10073,"Ġinvariance":10074,"Ġmsg":10075,",(":10076,"ĠNet":10077,"Ġwel":10078,"ĠProcess":10079,"ĠSocial":10080,"Because":10081,"}}-":10082,"bibliography":10083,"satisf":10084,"Author":10085,"ĠCong":10086,"Ġfilled":10087,"Ġreliable":10088,"Bs":10089,"mented":10090,"rob":10091,"Ġlanguages":10092,"adoop":10093,"Ġpermutation":10094,"arn":10095,"Ġheard":10096,"Ġcustomer":10097,"Ġpointed":10098,"Ġfaces":10099,"}{$\\":10100,"ĠAre":10101,"BT":10102,"Ġinequalities":10103,"orting":10104,"Ġordinary":10105,"relax":10106,"Den":10107,"ĠAndroid":10108,"External":10109,"ssue":10110,"Ġabelian":10111,"ĠBase":10112,"Security":10113,"Track":10114,"lash":10115,"Ġfails":10116,"Descriptor":10117,"Send":10118,"aria":10119,"Ġna":10120,"ĠSoft":10121,"Ġstages":10122,"',\\":10123,"ĠAN":10124,"Ġclock":10125,"Ġenvironmental":10126,"Ġ\\}$":10127,"rable":10128,"Ġappeared":10129,"Ġbars":10130,"eto":10131,"Ġcombining":10132,"Ms":10133,"Ġutility":10134,"ĠCarlo":10135,"Ġadversarial":10136,"asion":10137,"antly":10138,"Edit":10139,"Ġfitted":10140,"consistent":10141,"ĠAnalysis":10142,"Enum":10143,"Ġhous":10144,"dropdown":10145,"processing":10146,"ĠPower":10147,"Ġinvestment":10148,"Ġlongit":10149,"Ġregularization":10150,"Ġbond":10151,"rog":10152,"ĠBO":10153,")<":10154,"Ġmys":10155,"Ġfilters":10156,"Ġproven":10157,"olving":10158,"Ġvanishing":10159,"SY":10160,"Global":10161,"Ġbank":10162,"$&$":10163,"Ġbrowser":10164,"details":10165,"Ġmodify":10166,"Ġfaith":10167,"Ġclub":10168,"Gs":10169,"tached":10170,"Ġdog":10171,"Ġ[[":10172,"Ġoutcomes":10173,"General":10174,"112":10175,"ById":10176,"Ġparametri":10177,"protect":10178,"Ġfeasible":10179,"trained":10180,"keyword":10181,"Ñĭ":10182,"bg":10183,"Ġpresident":10184,"Ġviewed":10185,"Gra":10186,"save":10187,".*":10188,"arian":10189,"aste":10190,"iki":10191,"BD":10192,"ĠHome":10193,"ÑĮ":10194,"Ġinstability":10195,"Changed":10196,"itt":10197,"Ġvariant":10198,"Ġserial":10199,"=\"@":10200,"dal":10201,"neutr":10202,"Ġcrystal":10203,"Fin":10204,"compare":10205,"ĠWill":10206,"ICE":10207,"(){":10208,"Ġprotection":10209,"Ġpointer":10210,"Ġplate":10211,"velope":10212,"Ġprojected":10213,"ĠTuesday":10214,"ĠĠĠĠĠĊ":10215,"polar":10216,"odal":10217,"Grid":10218,"):=\\":10219,"Ġpopulations":10220,"ĠDiv":10221,"lates":10222,"nc":10223,"}$;":10224,"140":10225,"Ġcomplement":10226,"Ġcohomology":10227,"jar":10228,"Ġaccounts":10229,"Ġpion":10230,"Ġcum":10231,"Ġfo":10232,"Ġsituations":10233,"otel":10234,"Ġcovers":10235,"Ġsociety":10236,"Ġscan":10237,"Term":10238,"Ġneither":10239,"mock":10240,"TV":10241,"tite":10242,"={\\":10243,"Scale":10244,"setlength":10245,"ĠYear":10246,"Ġknew":10247,"ledgments":10248,"ocation":10249,"Ġmilitary":10250,"Ġdivergence":10251,"dc":10252,"ĠÐ¿":10253,"Channel":10254,"Eff":10255,"ensors":10256,"}}+\\":10257,"Ġ\\|_{":10258,"Med":10259,"sym":10260,"Ġworst":10261,"?:":10262,"Ġgrand":10263,"parts":10264,"ASS":10265,"ĠApple":10266,"ĠGood":10267,"FILE":10268,"Ġpresentation":10269,"eros":10270,"Dire":10271,"aches":10272,"pattern":10273,"Ġà¤":10274,"insert":10275,"Ġsevere":10276,"alactic":10277,"Ġdotted":10278,"ĠDO":10279,"Ġelementary":10280,"ĠTaylor":10281,"Ġsegments":10282,"queue":10283,"Ġadvanced":10284,"tesian":10285,"ĠEuler":10286,"Ġmetallicity":10287,"ĠWeek":10288,"ĠHistory":10289,"Ġrapidly":10290,"umes":10291,"ercise":10292,"istan":10293,")/\\":10294,"ĠRussian":10295,"*{-":10296,"Ġfresh":10297,"makebox":10298,"lad":10299,"alaxy":10300,"}]$":10301,"Ġgather":10302,"ĠBritish":10303,"collapse":10304,"Ġachiev":10305,"Ġexposure":10306,"Ġdir":10307,"shall":10308,"Lin":10309,"written":10310,"Sm":10311,"ĠChild":10312,"Ġtangent":10313,"zens":10314,"eder":10315,"uality":10316,")~\\":10317,"ĠWay":10318,"ruit":10319,"controller":10320,"WN":10321,"Ġblog":10322,"Ġphotos":10323,"Ġleaving":10324,"Ġdb":10325,"actor":10326,"contains":10327,"including":10328,"ĠFrench":10329,"Ġachieves":10330,"Ġobservables":10331,"ĠTH":10332,"130":10333,"Ġworse":10334,"ĠMS":10335,"operation":10336,"ĠQue":10337,"Xml":10338,"anchor":10339,"leftrightarrow":10340,"outhern":10341,"Ġglass":10342,"sn":10343,"eqq":10344,"ĠTim":10345,"trigger":10346,"Ġignore":10347,"Ġaccum":10348,"ctors":10349,"biggr":10350,"Ġimplements":10351,"ĠPan":10352,"Ġter":10353,"ĠNav":10354,"Ġcod":10355,"Ġensures":10356,"Ġconclusions":10357,"KEY":10358,"105":10359,"track":10360,"cost":10361,"ĠNov":10362,"Ġresolve":10363,"EXT":10364,"bles":10365,"_(":10366,"vation":10367,"Ġowner":10368,"servative":10369,"Ġfacilit":10370,"Ġreplacing":10371,"Ġlocalized":10372,"Ġlimitations":10373,"Ġtried":10374,"ETH":10375,"Ġdev":10376,"Ġsymmetries":10377,"Fix":10378,"}]\\":10379,"ĠSign":10380,"Ġprices":10381,"Ġsingularity":10382,"Ġvariability":10383,"ĠDuring":10384,"MENT":10385,"Ġloops":10386,"Ġkids":10387,"cluding":10388,"Ġest":10389,"Ġprefix":10390,"Ġimaginary":10391,"chy":10392,"Ġnavigation":10393,"eld":10394,"door":10395,"Ġproton":10396,"ĠDue":10397,"bottomrule":10398,"_{{":10399,"Ġconstitu":10400,"'(\\":10401,"ĠCamp":10402,"biggl":10403,"osc":10404,"scroll":10405,"ches":10406,"}{$":10407,"ĠAv":10408,"Ġintroducing":10409,"Ġfractional":10410,"rating":10411,"placement":10412,"]{./":10413,"âĢ¢":10414,"ĠSpr":10415,"unched":10416,"}$$":10417,"orrow":10418,"mix":10419,"rig":10420,"ĠIll":10421,"ĠEngland":10422,"Ġmolecules":10423,"Ġinstanceof":10424,"Ġur":10425,"Ġcentered":10426,"TF":10427,"ĠTimes":10428,"yes":10429,"360":10430,"phen":10431,"Ġefficiently":10432,"Ġeth":10433,"tities":10434,"ĠIndex":10435,"Ġfacts":10436,"Ġoscillations":10437,"lementation":10438,"Total":10439,"Ġice":10440,"ĠYoung":10441,"Ġstrug":10442,"+|":10443,"ĠPR":10444,"Ġfer":10445,"ĠLu":10446,"ĠLink":10447,"bigskip":10448,"ĠSa":10449,"Tags":10450,"Ġconcepts":10451,"ĠCommission":10452,"ĠNotice":10453,"Ġcorpor":10454,"IVE":10455,"ĠThursday":10456,"Ġinvalid":10457,"shadow":10458,"Ġmultiplication":10459,"Ġepisode":10460,"chem":10461,"Ġalignment":10462,"liers":10463,"Ġanalyses":10464,"Ġtorus":10465,"Ġimpossible":10466,"Panel":10467,"Ġsci":10468,"ĠFree":10469,"Assert":10470,"gon":10471,"Ġdialog":10472,"ĠWednesday":10473,"ĠLearning":10474,"ulner":10475,"about":10476,"ductive":10477,"ortion":10478,"Account":10479,"Ġmoder":10480,"Ġdiversity":10481,"efficient":10482,"compact":10483,"Ġleaders":10484,"Details":10485,"ĠSI":10486,"})}\\":10487,"game":10488,"Ġng":10489,"Character":10490,"Ġ%}":10491,"Ġcopies":10492,"Ġlocalization":10493,"Ġstock":10494,"1991":10495,"vv":10496,"ERS":10497,"Conclusion":10498,"ĠBan":10499,"fc":10500,"Ġdrag":10501,"oses":10502,"ĠUN":10503,"Ġhelpful":10504,"Flags":10505,"Ġproofs":10506,"Ġrefers":10507,"Ġconversion":10508,"ĠCD":10509,"ĠSing":10510,"chen":10511,"inher":10512,"},\\\\":10513,"aults":10514,"tors":10515,"entials":10516,"quality":10517,"solution":10518,"GAN":10519,"Ġoil":10520,"phy":10521,".__":10522,"proj":10523,"%)":10524,"Ġneighbors":10525,"titive":10526,"=\"${":10527,"ĠBet":10528,"lyph":10529,"++;":10530,"Ġhappened":10531,"pq":10532,"trl":10533,"wa":10534,"elastic":10535,"Ġcris":10536,"Ġclouds":10537,"audi":10538,"Ġcompetition":10539,"MAX":10540,"Ġprogramming":10541,"Ġstudying":10542,"Previous":10543,"plays":10544,"lers":10545,"Ġobservable":10546,"ĠCas":10547,"Ġhomomorphism":10548,"Âł":10549,"browser":10550,"Ġrelativistic":10551,"nil":10552,"ĠVersion":10553,"Ġsurprising":10554,"nl":10555,"ĠSociety":10556,"bour":10557,"Ġmorning":10558,"ĠControl":10559,"ĠCEO":10560,"agnos":10561,"Ġdeb":10562,"ĠTask":10563,"ĠMany":10564,"Ġarises":10565,"west":10566,"pb":10567,"Ġphenomenon":10568,"ĠassertEquals":10569,"Job":10570,"ulty":10571,"Float":10572,"ĠStudi":10573,"dk":10574,"ango":10575,"]_":10576,"+$":10577,"Ġamounts":10578,"tainment":10579,"Ġ$-\\":10580,"Mapping":10581,"telligence":10582,"Widget":10583,"()).":10584,"restr":10585,"ora":10586,"Ġlimiting":10587,"ĠBank":10588,"Pay":10589,"Windows":10590,"ĠCollection":10591,"ĠLou":10592,"Ġcomputations":10593,"Ġdeterministic":10594,"security":10595,"Ġholomorphic":10596,"plates":10597,"ĠĠĠĠĠĠĠĠĠĠĠĠĠĠĠĠĠĠĠĠĠĠĠĠĠĠĠĠĠ":10598,"Ġsecure":10599,"~{\\":10600,"git":10601,"Ġmaybe":10602,"ĠPH":10603,"Ġpercentage":10604,"ĠSP":10605,"FM":10606,"hidden":10607,"Ġcompens":10608,"','":10609,"Items":10610,"Ġpaid":10611,"both":10612,"Ġ)$":10613,"bigoplus":10614,"Ġolder":10615,"abit":10616,"cis":10617,"induced":10618,"Py":10619,"Ġplanets":10620,"NP":10621,"yer":10622,"Ġpermit":10623,"sumer":10624,"ĠRoad":10625,"hadoop":10626,"Ġproxy":10627,"),(":10628,"\">&":10629,"ailability":10630,"Editor":10631,"Ġcommercial":10632,"OPT":10633,"gency":10634,"Timeout":10635,"ola":10636,"Ġhydrogen":10637,"Ġbeautiful":10638,"onald":10639,"Media":10640,"Ġencounter":10641,"stage":10642,"ROM":10643,"fx":10644,"Ġmenu":10645,"Google":10646,"Ġpurely":10647,"feature":10648,"Area":10649,"Comb":10650,"safe":10651,"atio":10652,"Success":10653,"About":10654,"=\"\"":10655,"Ġmanifolds":10656,"ĠCentral":10657,"gtr":10658,"distance":10659,"convex":10660,"effect":10661,"Ġbatter":10662,"Ġdedicated":10663,"Ġtends":10664,"collection":10665,"Pool":10666,"bibliographystyle":10667,"tools":10668,"Ġconverge":10669,"names":10670,"perturb":10671,"tificial":10672,"consider":10673,"Depend":10674,"volume":10675,"ĠIsra":10676,"Ġdiverse":10677,"Ġradii":10678,"Ġcombine":10679,"213":10680,"]['":10681,"esh":10682,"ĠOption":10683,"ZZ":10684,"batch":10685,"Ġpacket":10686,"512":10687,"Ġdecades":10688,"htb":10689,"Ġvoltage":10690,"mask":10691,"Mat":10692,"ĠCompany":10693,"ĠDR":10694,"tabs":10695,"Ġthinking":10696,"Ġtracks":10697,"Why":10698,"Ġmixture":10699,"ĠAS":10700,"Ġauxiliary":10701,"stone":10702,"ientific":10703,"May":10704,"icago":10705,"water":10706,"Indeed":10707,"Ġfermions":10708,"Ġsequential":10709,"Ġnan":10710,"ĠBayesian":10711,"NL":10712,"olver":10713,"conj":10714,"ĠAuto":10715,"Once":10716,"ĠGalactic":10717,"zone":10718,"qq":10719,"Ġdiameter":10720,"Ġextensive":10721,"Ġbusinesses":10722,"ĠFlor":10723,"ilosoph":10724,"Ġmoduli":10725,"Ġarticles":10726,"Ġrigid":10727,"uted":10728,"ĠAdmin":10729,"Ġconsumption":10730,"Ġexit":10731,"Ġargue":10732,"deriv":10733,"tributions":10734,"Ġnorth":10735,"Ġtopics":10736,"because":10737,"tmp":10738,")*":10739,"fd":10740,"Ġpieces":10741,"itter":10742,"Ġflavor":10743,"Ġhospital":10744,"Ax":10745,"Ġlosses":10746,"Ġlinked":10747,"ito":10748,"teen":10749,"Ġfunc":10750,"Ġadvance":10751,"fun":10752,"Ġobservational":10753,"ullable":10754,"Ġsigns":10755,"Ġinstalled":10756,"ĠNon":10757,"Ġreaches":10758,"700":10759,"ĠGovernment":10760,"ulative":10761,"Rece":10762,"Ġvote":10763,"charge":10764,"gov":10765,"&+":10766,"Ġreverse":10767,"ĠMicrosoft":10768,"'-":10769,"[{\\":10770,"ledgements":10771,"Ġcubic":10772,"overview":10773,"Ġcrossing":10774,"upload":10775,"UTF":10776,"Pointer":10777,"Ã¼":10778,"Ġnearest":10779,"Many":10780,"unique":10781,"Feature":10782,"echo":10783,"%,":10784,"Browser":10785,"Internal":10786,"Ani":10787,"protobuf":10788,"Ġthr":10789,"Events":10790,"^*}":10791,"ĠMain":10792,"STAT":10793,"\"`":10794,"Ġparties":10795,"ĠAdditionally":10796,"Ġclassified":10797,"ĠPath":10798,"Ġoffered":10799,"Ġpain":10800,"Ġconvert":10801,"renewcommand":10802,"Ġdependencies":10803,"Ġultra":10804,"amed":10805,"Ġinspired":10806,"Ġaccepted":10807,"colhead":10808,"Ġsupporting":10809,"cepti":10810,"enberg":10811,"isons":10812,"Ġresolved":10813,"\",\"":10814,"Ben":10815,"variable":10816,"Constra":10817,"Ġrestrict":10818,"undles":10819,"Ġmiles":10820,"ĠCare":10821,"apply":10822,"ĠJul":10823,"Ġseeing":10824,"Ġdim":10825,"\\\\\\":10826,"Ġdipole":10827,"Logger":10828,"};\\":10829,"Ġcapt":10830,"ractive":10831,"Ġencryp":10832,"Ġlarg":10833,"Ġissu":10834,"Ġcalling":10835,"\\!\\!\\!\\!":10836,"ped":10837,"ĠCL":10838,"Ġrelig":10839,"xymatrix":10840,"Ġbandwidth":10841,"driven":10842,"Ġ[];":10843,"Ġeffectiveness":10844,"aby":10845,"Ġles":10846,"Ġexperiences":10847,"Ġpod":10848,"ĠPage":10849,"âĢī":10850,"Ġrating":10851,"Ġmagnet":10852,"Mag":10853,"ĠMi":10854,"Frag":10855,"Ġclip":10856,"ancer":10857,"TM":10858,"engine":10859,"Ġburn":10860,"varpi":10861,"erial":10862,"ĠHill":10863,"ece":10864,"anda":10865,"iminal":10866,"Ġelastic":10867,"Ġdoor":10868,"Ġcontinuity":10869,"Ġpump":10870,"005":10871,"corresponding":10872,"Scal":10873,"Ġchains":10874,"gls":10875,"ĠConsequently":10876,"orel":10877,"Ġfederal":10878,"=[":10879,"Ġsurrounding":10880,"Ġdepicted":10881,"Ġaddresses":10882,"Ġcuts":10883,"eters":10884,"Double":10885,"}}}{\\":10886,"Ġprem":10887,"folio":10888,"Ġfusion":10889,"ordan":10890,"Ġnine":10891,"]^{\\":10892,"night":10893,"Ġlargely":10894,"quantum":10895,"ĠØ":10896,"ĠStandard":10897,"Ġalter":10898,"Ġjets":10899,"Ã¶":10900,"Thm":10901,"ĠConfig":10902,"Ġteles":10903,"fm":10904,"Ġaims":10905,"ĠNode":10906,"Ġmodification":10907,"BUG":10908,"Ġresponses":10909,"emann":10910,"allery":10911,"itian":10912,"Notice":10913,"different":10914,"Ġsummarized":10915,"momentum":10916,"anned":10917,"vance":10918,"ĠStep":10919,"Ġverified":10920,"Proxy":10921,"MOD":10922,"Sur":10923,"Ġsell":10924,"eties":10925,"osted":10926,"Ġcapable":10927,"ĠðŁ":10928,"Duration":10929,"Ġequipped":10930,"vectors":10931,"Ġpreced":10932,"Ġawait":10933,"LOG":10934,"Ġfan":10935,"bol":10936,"uable":10937,"}$),":10938,"oned":10939,"reset":10940,"pes":10941,"Ġinfrastructure":10942,"Ġunity":10943,"Ġnearby":10944,"ĠâĢ¢":10945,"TA":10946,"Loader":10947,"metric":10948,"ĠAD":10949,"Ġsports":10950,"Ġhelped":10951,"Ġweather":10952,"ountain":10953,"Ġreceiver":10954,"Ġeconomy":10955,"LM":10956,"Ġquarks":10957,"Mac":10958,",}":10959,"()));":10960,"manifold":10961,"ĠBased":10962,"addr":10963,"Ġnumerous":10964,"asp":10965,"Ġdiscovery":10966,"Comment":10967,"]\\\\":10968,"resizebox":10969,"Ġqubit":10970,"cycle":10971,"Ġneighbour":10972,"Ġextraction":10973,"Ġtells":10974,"Ġdream":10975,"Ġcommutative":10976,"ĠGPU":10977,"Ġdestroy":10978,"predic":10979,"Ġinteracting":10980,"ĠĠĠĠĠĠĠĠĠĠĠĠĠĠĠĠĠĠĠĠĠĠĠĠĠĠĠĠĠĠĠĠĠĠĠĠĠĠĠĠĠĠĠ":10981,"Ġ\\:":10982,"Ġsignificance":10983,"Ġbed":10984,"encing":10985,"Ġpassword":10986,"Ġhomotopy":10987,"Ġspeaking":10988,"UD":10989,"positive":10990,"Ġtechnologies":10991,"Ġsym":10992,"Ġcollege":10993,"continuous":10994,"Ġminimize":10995,"kt":10996,"ĠĠĠĠĠĠĠĊ":10997,"Ġbrightness":10998,"Ġwitness":10999,"Ġdanger":11000,"lag":11001,"gtrsim":11002,"ĠJava":11003,"coloneqq":11004,"Ġpose":11005,"Ġtables":11006,"Ġnu":11007,"ĠPeople":11008,"Sto":11009,"Ġ([":11010,"DBLP":11011,"thin":11012,"Ġwarm":11013,"Ġgirl":11014,"ĠCPU":11015,"swarm":11016,"Layer":11017,"Ġexpanded":11018,"Ġadaptive":11019,"ITE":11020,"ĠMad":11021,"Ġcaptured":11022,"TABLE":11023,"logger":11024,"ĠHuman":11025,"Ġfinished":11026,"]}\\":11027,"assification":11028,"Ġ=========":11029,"Cat":11030,"auss":11031,"nodes":11032,"Ġbid":11033,"reek":11034,"ali":11035,"Ġshifts":11036,"Ġannual":11037,"inn":11038,"oped":11039,")\">":11040,"Symbol":11041,"Ã§":11042,"Ġlicense":11043,"Ġtotally":11044,"tags":11045,"Ġfluxes":11046,"Ġprotein":11047,"Ġrout":11048,"ocker":11049,"Ġprocedures":11050,"Are":11051,"methods":11052,"Ġorganizations":11053,"Ġsymplectic":11054,"thr":11055,"ĠUkraine":11056,"Ġduality":11057,"Ġcentury":11058,"Ġcompression":11059,"dif":11060,"elle":11061,"ĠTeam":11062,"Ġpossess":11063,"Ġerg":11064,"Ġrestaur":11065,"Ġsea":11066,"getElement":11067,"}})\\":11068,"ĠOffic":11069,"ONE":11070,"anner":11071,"Single":11072,"Ġexplored":11073,"udy":11074,"ĠSil":11075,"Ġassociation":11076,").$$":11077,"Ġoutflow":11078,"ĠPlease":11079,"Ġgiant":11080,"notations":11081,"}}_\\":11082,"origin":11083,"eth":11084,"Ġdetermination":11085,"ĠPA":11086,"protocol":11087,"ĠMean":11088,"Ġhandler":11089,"$}\\":11090,"Ġbins":11091,"dark":11092,"enable":11093,"Ġtwe":11094,"($\\":11095,"atis":11096,"wildfly":11097,"exact":11098,"Mc":11099,"Msg":11100,"ĠMex":11101,"Adapter":11102,"Ġborn":11103,"ĠSNR":11104,"Ġlists":11105,"critical":11106,"groups":11107,"ToString":11108,"ĠTur":11109,"wang":11110,"oking":11111,"oids":11112,"expect":11113,"Ġcollaboration":11114,"Ġportion":11115,"Where":11116,"ĠSyn":11117,"Ġii":11118,"Ġlogarithmic":11119,"Ġraised":11120,"ĠLat":11121,"ĠMach":11122,"disc":11123,"auchy":11124,"udinal":11125,"Background":11126,"Hy":11127,"Ġlisten":11128,"Ġnotes":11129,"ĠCS":11130,"ĠkeV":11131,"$=":11132,")~":11133,"Ġbiggest":11134,"ĠWilson":11135,"Ġmur":11136,"Ġprovider":11137,"lain":11138,"Ġdivision":11139,"Ġhappy":11140,"ĠMajor":11141,"ctive":11142,"Ġproposal":11143,"laration":11144,"ĠSecurity":11145,"Ġrestrictions":11146,"|{\\":11147,"Ġdebug":11148,"(--":11149,"Ġappearing":11150,"ermitian":11151,"ĠNewton":11152,"expression":11153,"Ġoriginally":11154,"'+":11155,"Ġbla":11156,"tier":11157,"urance":11158,"navList":11159,"Ġforced":11160,"Ġoverview":11161,"maps":11162,"icial":11163,"Br":11164,"Ġimprovements":11165,"ĠEmp":11166,"Ġsouth":11167,"}\\)":11168,"ĠVari":11169,"Ġattr":11170,")},\\":11171,"ĠMake":11172,"linec":11173,"atibility":11174,"Ġexpensive":11175,"Ġconcerned":11176,"Ġconvolutional":11177,"ĠReport":11178,"typeof":11179,"Eval":11180,"Abstract":11181,"hd":11182,"Dest":11183,"Ġfloor":11184,"clean":11185,"Ġatmosphere":11186,"ĠRight":11187,"Ġscientific":11188,"ĠTour":11189,"pin":11190,"ÑģÑĤ":11191,"Ġepochs":11192,"Ġ\\,.":11193,"Ġimproves":11194,"ĠLee":11195,"Ġappreci":11196,"NRAS":11197,"fluid":11198,"choose":11199,"Ġlengths":11200,"Ġescape":11201,"sid":11202,"_,":11203,"algorithmic":11204,"stat":11205,"Ġaccessible":11206,"lbrace":11207,"versely":11208,"children":11209,"SER":11210,"atever":11211,"Ġforeign":11212,"Ġshapes":11213,"Ġdetermining":11214,"Ga":11215,"Ġcomposite":11216,"Ġapart":11217,"Ġdil":11218,"ĠNa":11219,"ĠCommunity":11220,"=}":11221,"Ġoptional":11222,"ĠClub":11223,"Ġconcrete":11224,"ocaml":11225,"Flow":11226,"ĠIV":11227,"ensed":11228,"uning":11229,"Attributes":11230,"Phone":11231,"Ġseek":11232,"Ġprimarily":11233,"Ġconfirm":11234,"Ġsquares":11235,"aped":11236,"Ġdamp":11237,"Ġbrings":11238,"errors":11239,"Runtime":11240,"tc":11241,"}^{*":11242,"Keys":11243,"1989":11244,"Ġlic":11245,"Ġtransactions":11246,"Ġfamili":11247,"coordinate":11248,"ĠBit":11249,"SQL":11250,"gradient":11251,"ĠWindows":11252,"ĠUnion":11253,"Ġsingularities":11254,"Ġoptimized":11255,"required":11256,"Ġcouldn":11257,"stituting":11258,"herence":11259,"alf":11260,"Java":11261,"entioned":11262,"Ġclassic":11263,"ĠSW":11264,"electric":11265,"Ġdelta":11266,"ĠFrance":11267,"Ġmanaged":11268,"ĠDC":11269,"Ġmonitoring":11270,"Repository":11271,"who":11272,"ĠBol":11273,"SIZE":11274,"ILE":11275,"OB":11276,"Ġfif":11277,"Common":11278,"ĠFlo":11279,"rend":11280,"Ġobtaining":11281,"Ġcyclic":11282,"}.$":11283,"ĠHD":11284,"uan":11285,"Ġmetadata":11286,"throws":11287,"idx":11288,"Memory":11289,"$^{\\":11290,"sites":11291,"}$:":11292,"ĠHop":11293,"setup":11294,"Ġdifficulty":11295,"account":11296,"Ġexponentially":11297,"Ġcompletes":11298,"ios":11299,"Ġrectangle":11300,"Hub":11301,"Ġmob":11302,"Ð²":11303,"may":11304,"Ġsubgraph":11305,"Ġknows":11306,"Ġwaiting":11307,"sort":11308,"allen":11309,"gue":11310,"Ġrobustness":11311,"Ġcas":11312,"kk":11313,"Ġvariational":11314,"Generic":11315,"ĠCup":11316,".'":11317,"zes":11318,"Tx":11319,"Following":11320,"ĠSpecial":11321,"LU":11322,"Cluster":11323,"Ġgun":11324,"Eu":11325,"Ġfilms":11326,"Ġfavorite":11327,"ĠWhy":11328,"adic":11329,"Fail":11330,"Ġelem":11331,"Ġsucc":11332,"PATH":11333,"Ġsight":11334,"Ġpin":11335,"Ġconnecting":11336,"Ġcounting":11337,"tably":11338,"Simple":11339,"Ġbegins":11340,"Ġuniquely":11341,"ĠGermany":11342,"ĠRock":11343,"Ġartist":11344,"mutable":11345,"ĠAward":11346,"):=":11347,"Ġguarantees":11348,"Ġdefense":11349,"irls":11350,"Ġtransparent":11351,"fb":11352,"Ġcreates":11353,"sr":11354,"Ġtransformed":11355,"emannian":11356,"NavBarCell":11357,"Ġdiscrep":11358,")}=\\":11359,"Ġreviews":11360,"Ġheter":11361,"Ġcutoff":11362,"Ġisotropic":11363,"aper":11364,"ĠGeorge":11365,"doi":11366,"ĠPen":11367,"Init":11368,"haus":11369,"Ġpole":11370,"Ġcrypto":11371,"Ġnuclei":11372,"Ġregularity":11373,"RIPT":11374,"creen":11375,"1980":11376,"fp":11377,"terms":11378,"ĠAuthor":11379,"Ġwife":11380,"otes":11381,"equence":11382,"Ġbelief":11383,"}}}}":11384,"ĠNN":11385,"Ġdelivery":11386,"Ġremoving":11387,"JS":11388,"wait":11389,"HH":11390,"Ġhistorical":11391,"Math":11392,"ymmetric":11393,"Ġschedule":11394,"oulomb":11395,"////////////////////////////////":11396,"middle":11397,"Ġthickness":11398,"ĠLook":11399,"Ġaudience":11400,")));":11401,"Ġencoded":11402,"Ġequally":11403,"Real":11404,"ADD":11405,"Ġtransi":11406,"cean":11407,"Ġban":11408,"atar":11409,"Ġ).":11410,"-{\\":11411,"'])":11412,"Files":11413,"Ġprepared":11414,"ĠDefine":11415,"ĠNY":11416,"policy":11417,"_{(\\":11418,"Ð¼":11419,"Failed":11420,"Ġvulner":11421,"Ġinsight":11422,"Ġcoincides":11423,"ĠThomas":11424,"102":11425,"ĠPRO":11426,"åı":11427,"props":11428,"Ġcoq":11429,"Ġ{'":11430,"Bro":11431,"warz":11432,"Ġstuff":11433,"ĠThrough":11434,"vertible":11435,"Ġoverla":11436,"Ġgradients":11437,"ĠCommittee":11438,"Pack":11439,"diagram":11440,"scriptstyle":11441,"ĠSciences":11442,"ĠProof":11443,"_->":11444,"ĠDown":11445,"urt":11446,"manager":11447,"Ġopened":11448,"^*(\\":11449,"ĠMary":11450,"270":11451,"ĠTODO":11452,"accu":11453,"ĠRoy":11454,"ĠWell":11455,"tk":11456,"ĠPoint":11457,"Ġreproduce":11458,"ĠJose":11459,"theme":11460,"Ġgender":11461,"Close":11462,"arden":11463,"Ġinterpolation":11464,")$}":11465,"Ġexplains":11466,"cu":11467,"Ġadds":11468,"Ġterminal":11469,"@{}}":11470,"omy":11471,"Ġsubstitu":11472,"Ġintended":11473,"rents":11474,"{}\\":11475,"Help":11476,"Ġdetectors":11477,"ĠGre":11478,"ĠPop":11479,"AF":11480,"Ġslowly":11481,"Ġtruly":11482,"comparison":11483,"ERE":11484,"Ġnoisy":11485,"ĠAp":11486,"Ġcomfor":11487,"Ġgraded":11488,"Ġplatforms":11489,"ĠPO":11490,"ĠTerm":11491,"everal":11492,"Ġparity":11493,"metic":11494,"Ġnom":11495,"Most":11496,"ĠGW":11497,"pag":11498,"protected":11499,"getName":11500,"Ñĩ":11501,"Ġoccurred":11502,"}{!":11503,"bec":11504,"Ġbecoming":11505,"lst":11506,"+}":11507,"ĠReal":11508,"ĠHam":11509,"Ġvalidate":11510,"Ġsuperconduct":11511,"Ġsending":11512,"Ġconference":11513,"editor":11514,"Ġtokens":11515,"closed":11516,"Ġdestination":11517,"adap":11518,"Find":11519,"ĠPC":11520,"ĠHaw":11521,"Ġmechanical":11522,"Ġvilla":11523,"aker":11524,"})^{\\":11525,"Ġspac":11526,"ĠEV":11527,"underbrace":11528,"Ġdie":11529,"Related":11530,"xs":11531,"onav":11532,"Ġdegenerate":11533,"Ġrelies":11534,"Ġexperts":11535,"picker":11536,"live":11537,"Ġtypename":11538,"relative":11539,"Ġtemp":11540,"icious":11541,"pert":11542,"ĠResource":11543,"XML":11544,"itors":11545,"ĠGrant":11546,"ÛĮ":11547,"ĠHa":11548,"ova":11549,"Ġelectromagnetic":11550,"Numer":11551,"information":11552,"Ġcontribut":11553,"Ġfre":11554,"ĠNAS":11555,"igan":11556,"002":11557,"Ġpractices":11558,"-$\\":11559,"Selector":11560,"partite":11561,"Ġscaled":11562,"dialog":11563,"Ġkick":11564,"ĠGerman":11565,"ĠObserv":11566,"ĠBa":11567,"{|\\":11568,"})}{":11569,"Ġbag":11570,"Ġdecide":11571,"\\\"{":11572,"illis":11573,"abilistic":11574,"Ġok":11575,"ĠHash":11576,"Ġreq":11577,"igroup":11578,"ĠChe":11579,"Mu":11580,"press":11581,"ĠSource":11582,"*)":11583,"ranes":11584,"Ġslot":11585,"Ġil":11586,"Ġsimplified":11587,"ĠWhe":11588,"Ġvictim":11589,"estimate":11590,"ÐµÐ½":11591,"}.$$":11592,"reement":11593,"Ġfunds":11594,"fire":11595,"liminary":11596,"Ġpromo":11597,"Vec":11598,"ĠPS":11599,"Ġlayout":11600,"Ġapproximations":11601,"'}(":11602,"Ġpitch":11603,"Every":11604,"Ġadverti":11605,"ett":11606,"Ġleaf":11607,"ĠMass":11608,"ĠDeep":11609,"ye":11610,"Ġproportion":11611,"ĠArts":11612,"Ġyourself":11613,"ĠComple":11614,"Ġanten":11615,"orders":11616,"ĠDefault":11617,"################":11618,"curve":11619,"Ġce":11620,"Free":11621,"Ġattached":11622,"far":11623,"lvert":11624,"GEN":11625,"ĠSV":11626,"ilinear":11627,"->_":11628,"without":11629,"mkern":11630,"Ġarrive":11631,"Ġsett":11632,"ĠJo":11633,"ĠMessage":11634,"Ġvortex":11635,"rolling":11636,"Ġvaries":11637,"<!":11638,"ĠAbout":11639,"sb":11640,"Ġarrange":11641,"Ġsole":11642,"Ġspins":11643,"kh":11644,"Ġcharacterization":11645,"fac":11646,"thus":11647,"player":11648,"acknow":11649,"Ġdisks":11650,"ĠBS":11651,"hyp":11652,"front":11653,"Ġproducing":11654,"115":11655,"ĠBoolean":11656,"Selection":11657,"Ġdoll":11658,"Ġconsequences":11659,"ĠMD":11660,"ĠCer":11661,"paramet":11662,"Ġpreferred":11663,"IND":11664,"MNRAS":11665,"area":11666,"Jan":11667,"illions":11668,"ceq":11669,"ĠFuture":11670,"Directory":11671,"Ġexecute":11672,"Sync":11673,"MSE":11674,"homogeneous":11675,"Ġdecoder":11676,"Print":11677,"Ġaccurately":11678,"Ġneutrinos":11679,"flags":11680,"Ġconjugate":11681,"boundary":11682,"Ġpriority":11683,"Ġannihi":11684,"printf":11685,"ĠFix":11686,"CNN":11687,"''.":11688,"READ":11689,"Ġphon":11690,"ĠNevertheless":11691,"Ġinterpret":11692,"Ġlaunched":11693,"Methods":11694,"ĠFamily":11695,"handler":11696,"ĠOrgan":11697,"Ġmeasuring":11698,"Ġfrequently":11699,"Ġquantitative":11700,"Ġruntime":11701,"Ġbare":11702,"PN":11703,"Ġmotor":11704,"ictures":11705,"Ġcausal":11706,"tp":11707,"sinh":11708,"Ġentities":11709,"enerate":11710,"Ġbij":11711,"tf":11712,"Ġpat":11713,"ĠMel":11714,"Ġmanage":11715,"atomic":11716,"Ġstandards":11717,"^{{\\":11718,"Don":11719,"Ġtrends":11720,"Ġdrink":11721,"ĠFollowing":11722,"Ġfootball":11723,"Ġearth":11724,"users":11725,"Ġind":11726,"addle":11727,"ea":11728,"qed":11729,"Ġallocation":11730,"Ġobserver":11731,"Ġtheme":11732,"Ġoriented":11733,"tbody":11734,"friend":11735,"Ġdied":11736,"|}{\\":11737,"Ġidentifying":11738,"Ġqubits":11739,"Ġexpert":11740,"Generator":11741,"rbrace":11742,"izers":11743,"ĠDir":11744,"Ġstim":11745,"MAP":11746,"Ġmodeled":11747,"Ġtalking":11748,"Ġopt":11749,"Ġfn":11750,"Best":11751,"half":11752,"views":11753,"Normal":11754,"Ġfewer":11755,"Ġris":11756,"Ġfeet":11757,"prefix":11758,"ĠWomen":11759,"Ġacknowled":11760,"Div":11761,"zi":11762,"ĠBill":11763,"Ġ[-":11764,"esome":11765,"Ġingre":11766,"Ġmatched":11767,"ichlet":11768,"Ġtack":11769,"USE":11770,"Ġtension":11771,"Ġ(.":11772,"stein":11773,"Fs":11774,"Ġgone":11775,"Ġradiative":11776,"Ġshares":11777,"ĠFlorida":11778,"NotNull":11779,"etary":11780,"ĠInternet":11781,"ĠFar":11782,"rgb":11783,"ala":11784,"Ġgrows":11785,"azine":11786,"Support":11787,"Ġtit":11788,"trine":11789,"Ġopinion":11790,"ĠLipschitz":11791,"Ġapproximated":11792,"Ġreveals":11793,"})^{-":11794,"iton":11795,"ĠBlock":11796,"IES":11797,"]+":11798,"cn":11799,"trac":11800,"Ġfamous":11801,"Ġregistered":11802,"neigh":11803,"allclasses":11804,"Ġthousands":11805,"Profile":11806,"stellar":11807,"Ġcontents":11808,"headers":11809,"Ġconsult":11810,"Ġ$\\|\\":11811,"ĠLeague":11812,"Ġvirus":11813,"Region":11814,"Ġhierarchy":11815,"Ġdeviations":11816,"Ġul":11817,"Ġho":11818,"FFFF":11819,"ĠCarol":11820,"embed":11821,"}):":11822,"Ġasymptotically":11823,"MN":11824,"watch":11825,"ĠCustom":11826,"Ġhistogram":11827,"Tw":11828,"Ġconcerning":11829,"Ġcardinal":11830,"Ġ)\\":11831,"associ":11832,"ĠBl":11833,"Ġbath":11834,"IGHT":11835,"abi":11836,"Ġcollective":11837,"ĠGa":11838,"zo":11839,"Ġequivalently":11840,"Ġ\"\"":11841,"127":11842,"}}^\\":11843,"Ġcomprehensive":11844,"Ġvirt":11845,"John":11846,"icular":11847,"Such":11848,"mazing":11849,"Ġdet":11850,"train":11851,"dn":11852,"Ġ\\\\\\":11853,"uctive":11854,"abolic":11855,"Ġobviously":11856,"Ġshut":11857,"Ġpp":11858,"GHz":11859,"astro":11860,"135":11861,"Ġserved":11862,"Ġexploration":11863,"UC":11864,"Ġsleep":11865,"Encoded":11866,"Rob":11867,"cv":11868,"Ġarising":11869,"Ġster":11870,"Ġvariants":11871,"Ġarbitr":11872,"BAR":11873,"ĠLos":11874,"Ġparad":11875,"likely":11876,"ĠRiver":11877,"Ġwinning":11878,"Ġshadow":11879,"[->":11880,"Ġkinds":11881,"Ġphotometric":11882,"Ġconsecutive":11883,"uer":11884,"role":11885,"ĠEm":11886,"Ġheating":11887,"assertEqual":11888,"ĠCopyright":11889,"Ġfamiliar":11890,"Mis":11891,"Ġadmit":11892,"ĠSH":11893,"licate":11894,"Ġsurveys":11895,":[":11896,"Ġ>>":11897,"ĠCentre":11898,"Ġpara":11899,"Super":11900,"Remove":11901,"Ġofficials":11902,"Ġincome":11903,"correlation":11904,"Ġcapabilities":11905,"Ġphenomena":11906,"ĠEs":11907,"ĠChristian":11908,"ĠĠĠĠĠĠĠĠĠĠĠĠĠĠĠĠĊ":11909,"Even":11910,"cosity":11911,"havior":11912,"bounds":11913,"Ġ=======":11914,"Trace":11915,"Ġassessment":11916,"ĠMedical":11917,"dete":11918,"Func":11919,"1988":11920,";}":11921,"testing":11922,"1987":11923,"mers":11924,"ĠMinister":11925,"}\\,,":11926,"Ġmirror":11927,"Ġrid":11928,"natural":11929,"progress":11930,"alley":11931,"Ġsuppressed":11932,"hide":11933,"abric":11934,"Ġconvenience":11935,"Ġboxes":11936,"Ġmultiplic":11937,"Ġbarrier":11938,"ducts":11939,"abc":11940,"Ġ],":11941,"PG":11942,"examples":11943,"ĠRegion":11944,"month":11945,"ĠRobert":11946,"Ġobtains":11947,"Ġanomaly":11948,"bone":11949,"9999":11950,"isters":11951,"ĠIE":11952,"Plugin":11953,"Ġlifetime":11954,"Ġasync":11955,"ĠLibrary":11956,"onavirus":11957,"Ġconstit":11958,"Play":11959,"Ġequipment":11960,"Mer":11961,"ĠeV":11962,"ively":11963,"essel":11964,"Ġimproving":11965,"Ġoffering":11966,"fficient":11967,"ĠĠĠĠĠĠĠĠĠĠĠĠĠĠĠĠĠĠĠĠĠĠĠĠĠĠĠĠĠĠ":11968,"ĠMur":11969,"wrapper":11970,"agent":11971,"Ġio":11972,"theo":11973,"Ġampl":11974,"Ġvalign":11975,"IEEE":11976,"Ġnontrivial":11977,"services":11978,"Ġpaint":11979,"@{\\":11980,"atre":11981,"partition":11982,"Ġjoined":11983,"Ġrepeat":11984,"Har":11985,"nas":11986,"isition":11987,"ĠAssembly":11988,"}=-":11989,"Ġreceiving":11990,"filename":11991,"Sample":11992,"levant":11993,"Ġincl":11994,"fall":11995,"uss":11996,"Ġkilled":11997,"Ġaddressed":11998,"objects":11999,"ĠÂ»":12000,"ĠChicago":12001,"into":12002,"WR":12003,"Ġmomenta":12004,"platform":12005,"Ġclaimed":12006,"ĠRam":12007,"gravity":12008,"inten":12009,"ĠFrank":12010,"ĠEv":12011,"Ġsho":12012,"Ġexhibits":12013,"interval":12014,"ulted":12015,"Ġnoting":12016,"Ġleadership":12017,"Parse":12018,"Ġfish":12019,"aka":12020,"OF":12021,")$$":12022,"Ġvaccine":12023,"lattice":12024,"metadata":12025,"Ġadapted":12026,")}]":12027,"ĠChurch":12028,"Ġattend":12029,"corr":12030,"Ġskin":12031,"ĠLHC":12032,"ĠFigs":12033,"losed":12034,"inue":12035,"Through":12036,"Ġsubjects":12037,"lets":12038,"104":12039,"twitter":12040,"ĠFOR":12041,"))=":12042,"Ġmodular":12043,"Ġfemale":12044,"tility":12045,"Protocol":12046,"}--":12047,"Ġpairing":12048,"Make":12049,"cosh":12050,"ĠDu":12051,"Ġoc":12052,"Ġarchitectures":12053,"best":12054,"vdash":12055,"ĠDistrict":12056,"ĉĉĉĉĉĉĉĉĉ":12057,"riority":12058,"Ġsy":12059,"Define":12060,"simp":12061,"Ġxmlns":12062,"ĠPass":12063,"compiler":12064,"ĠEnvironment":12065,"ajax":12066,"Ġ?>":12067,"ĠIC":12068,"urban":12069,"hes":12070,"endor":12071,"OUT":12072,"})+":12073,"Ġnewly":12074,"XY":12075,"via":12076,"350":12077,"attributes":12078,"Ġsatellite":12079,"lipse":12080,"anish":12081,"imination":12082,"Ġmeasurable":12083,"^*,":12084,"ĠBern":12085,"riers":12086,"Category":12087,"done":12088,"ulates":12089,"220":12090,"same":12091,"abatic":12092,"Ġendpoint":12093,"Iterator":12094,"Socket":12095,"reds":12096,"iterator":12097,"Ġshorter":12098,"Ġattach":12099,"Ġregardless":12100,"Sol":12101,"Ġproving":12102,"Ġextending":12103,"VE":12104,"ĠGuide":12105,"Ġadditive":12106,"Ġrequiring":12107,"Ġ(_":12108,"selection":12109,"these":12110,"ĠCC":12111,"algo":12112,"Ġpil":12113,"))$,":12114,"Ġobserving":12115,"Ġabsolutely":12116,"Ġjourney":12117,"diagonal":12118,"ANG":12119,"ĠWrite":12120,"mr":12121,"arding":12122,"rvert":12123,"ARN":12124,"ĠSimilar":12125,"Ġdocumentation":12126,"Ġpromising":12127,"Scroll":12128,"ĠLike":12129,"ĠSoftware":12130,"Agent":12131,"loader":12132,"umann":12133,"ĠIr":12134,"Ġattempts":12135,"assertEquals":12136,"idelity":12137,"idential":12138,"[]{":12139,"pendicular":12140,"Domain":12141,"Ġfacilities":12142,"},$":12143,"ardi":12144,"ĠMO":12145,"Ġbuilder":12146,"exec":12147,"Ġflav":12148,"scribe":12149,"rceil":12150,"Ġrings":12151,"Ġartists":12152,"hot":12153,"Ġinten":12154,"Ġ[],":12155,"wd":12156,"}$&":12157,"Ġmarketing":12158,"algebras":12159,"TL":12160,"Ġmel":12161,"Ġvaluable":12162,"Ġrg":12163,"Ġpromin":12164,"pole":12165,"bytes":12166,"Ġease":12167,"Email":12168,"ĠJew":12169,"Inf":12170,"provider":12171,"Ġreaders":12172,"ĠFR":12173,"lceil":12174,"ddot":12175,"TEXT":12176,"ori":12177,"Ġpreserve":12178,"prev":12179,"Rest":12180,"oked":12181,"ĠOtherwise":12182,"ologically":12183,"detail":12184,"Ġpayment":12185,").$":12186,"ractor":12187,"{-}":12188,"ĠJohnson":12189,"viously":12190,"Ġmeant":12191,"dig":12192,"Ġexpanding":12193,"Ġextinction":12194,"ĠCommun":12195,"mach":12196,"ĠBlue":12197,"Ġflags":12198,"Ġmarkets":12199,"Posted":12200,"design":12201,"Ġsquared":12202,"Ġwest":12203,"Ġparam":12204,"Ġpsych":12205,"Route":12206,"PF":12207,"Ġengineering":12208,"iser":12209,"Ġcharacterize":12210,"grad":12211,"Ġmerge":12212,"BN":12213,"shared":12214,"loyment":12215,"Ġshifted":12216,"Ġmotivated":12217,"ĠRic":12218,"Ø±":12219,"Ġped":12220,"maven":12221,"commu":12222,"ĠEnter":12223,"pus":12224,"Ġasymmetry":12225,"Ġchart":12226,"ĠKore":12227,"Ġnm":12228,"observ":12229,"Ġshor":12230,"Vertex":12231,"Ġroles":12232,"blank":12233,"Ġaren":12234,"Ġdemonstrates":12235,"Ġsimpler":12236,"Ġcra":12237,"\\%,":12238,"Ġsimplest":12239,"................":12240,"PER":12241,"Conclusions":12242,"ĠPut":12243,"Ġsupposed":12244,"ummy":12245,"ĠChristmas":12246,"Ġcities":12247,"Gaussian":12248,"ĠRay":12249,"ĠMartin":12250,"velocity":12251,"LECT":12252,"Ġbigger":12253,"ĠLandroid":12254,"pu":12255,"ered":12256,"Ġheur":12257,"ĠAtt":12258,"ĠIsland":12259,"Ġlegis":12260,"Ġenhancement":12261,"Engine":12262,"Ġciti":12263,"Ġsummarize":12264,"ĠGraph":12265,"ald":12266,"------------":12267,"hn":12268,"Ġquantization":12269,"ĠKar":12270,"Register":12271,"aton":12272,"Ġconvention":12273,"Ġgamma":12274,"Ġrewrite":12275,"ictor":12276,"Both":12277,"Ġcultural":12278,"Ġbranching":12279,"Ġaveraging":12280,"assembly":12281,"Password":12282,"Ġmapped":12283,"dynamics":12284,"ĠLine":12285,"bracket":12286,"ĠEU":12287,"Ġbug":12288,"ĠCov":12289,"ĠReact":12290,"ĠUniverse":12291,"ĠGreat":12292,"Ġaffects":12293,"Lower":12294,"rial":12295,"uber":12296,"Ġboy":12297,"Statement":12298,"Ġens":12299,"NULL":12300,"Ġagreed":12301,"),\\\\":12302,"Ġcenters":12303,"Ġcourses":12304,"\\@":12305,"ĠPeter":12306,"Ġprimitive":12307,"squ":12308,"}$~":12309,"}}{(":12310,"parser":12311,"checkmark":12312,"Ġimposed":12313,"Ġassumes":12314,"ĠFrancis":12315,"Ġspend":12316,"Ġinferred":12317,"rotate":12318,"Ġfr":12319,"Lear":12320,"jango":12321,"\"><!--":12322,"bos":12323,"Ġteacher":12324,"ĠWeyl":12325,"Diff":12326,"\\\\[":12327,"relations":12328,"Ġrein":12329,"Ġfold":12330,"106":12331,"unte":12332,"Ġcalib":12333,"_{|":12334,"turbed":12335,"amber":12336,"ĠIT":12337,"Ġslice":12338,"ĠSports":12339,"beq":12340,"ĠJones":12341,"urated":12342,"ĠVAL":12343,"missions":12344,"ESS":12345,"Ġnotic":12346,"ffff":12347,"ĠTeV":12348,"ĠAccess":12349,")}}\\":12350,"]}$":12351,"ĠWhere":12352,"Ġreconstructed":12353,"1024":12354,"dotted":12355,"score":12356,"Ġperturbative":12357,"igm":12358,"}'$":12359,"Ġ\"<":12360,"Ġviolation":12361,"Ġmyself":12362,"isher":12363,"Ġanimals":12364,"xhtml":12365,"je":12366,"Ġenvelope":12367,"ĠSF":12368,"Ġreserved":12369,"Ġarms":12370,"Cred":12371,"rupted":12372,"Sen":12373,"Ġtorsion":12374,"=&":12375,"ĠSaf":12376,"Ġexperienced":12377,"Ġcrisis":12378,"electron":12379,"nie":12380,"Ġprocessed":12381,"Ġconsumer":12382,"Ġserves":12383,"Ġfeeling":12384,"108":12385,"Ġmic":12386,"Ġformally":12387,"flux":12388,"Ġmanifest":12389,"ela":12390,"GT":12391,"eigen":12392,"Ġstrain":12393,"ashi":12394,"colLast":12395,"Ġletters":12396,"extra":12397,"Ġfee":12398,"Ġep":12399,"ĠParty":12400,"ĠWho":12401,"Ġignored":12402,"okes":12403,"Conver":12404,"Ġexcluded":12405,"feed":12406,"Ġvalidity":12407,")_\\":12408,"execute":12409,"Ġaffor":12410,"Ġconstructor":12411,"available":12412,"Ġcompleteness":12413,"usform":12414,"Ġvot":12415,"ĠFood":12416,"numerusform":12417,"~~~":12418,"Ġrotational":12419,"Cross":12420,"blog":12421,"ifer":12422,"Ġinvariants":12423,"^{*}":12424,"dden":12425,"Ġintroduces":12426,"Please":12427,"omer":12428,"ĠDigital":12429,"ĠProperty":12430,"KK":12431,"ifferent":12432,"Ġsimplify":12433,"Ġchapter":12434,"Ġcoincide":12435,"ĠChief":12436,"iable":12437,"Ġaligned":12438,"ĠHTT":12439,"MeV":12440,"assumption":12441,"QU":12442,"scatter":12443,"validation":12444,"periodic":12445,"gap":12446,")\"":12447,"HL":12448,"144":12449,"Î±":12450,"Ġprox":12451,"vanced":12452,"Ġrotating":12453,"ourse":12454,"ĠInput":12455,"ãĢ":12456,"ectives":12457,"flex":12458,"news":12459,"weighted":12460,"Ġaid":12461,"Ġprojections":12462,"ĠBrow":12463,"original":12464,"pen":12465,"Ġru":12466,"}),\\":12467,"ĠEff":12468,"Ljava":12469,"Ġthereby":12470,"dm":12471,"Ġlift":12472,"Ġadmissible":12473,"Ra":12474,"!âĢĿ":12475,"ĠMuseum":12476,"Exec":12477,"interpre":12478,"Sk":12479,"Tl":12480,"Ġcores":12481,"Ġverification":12482,"rants":12483,"adian":12484,"Ġassembly":12485,"Ġloaded":12486,"serial":12487,"Ġlogical":12488,"Ġcontour":12489,"Ġmental":12490,"jd":12491,"Ġmultiplicity":12492,"Ġimplications":12493,"Ġillustrates":12494,"Ġsuscepti":12495,"dor":12496,"Ġmechanics":12497,"240":12498,"((\\":12499,"comput":12500,"ĠWater":12501,"ademy":12502,"ĠCat":12503,"Ġtags":12504,"103":12505,"Ġcoc":12506,"Ġcars":12507,"COMP":12508,"filled":12509,"ĠBrown":12510,"elements":12511,"Ġdivisor":12512,"ĠInteger":12513,"Ġcivil":12514,"due":12515,"speed":12516,">:":12517,"Ġconflict":12518,"Ġacademic":12519,"Bel":12520,"classical":12521,"Ġwww":12522,"ĠFull":12523,"foreach":12524,"ĠPhot":12525,"colFirst":12526,"undefined":12527,"flag":12528,"Ġresistance":12529,"Ġinjective":12530,"Ġfactorization":12531,"amazon":12532,"Ġbill":12533,"ĠFind":12534,"Video":12535,"kernel":12536,"_{\\{":12537,".\\]":12538,"Ġdescent":12539,"enabled":12540,"quee":12541,"worth":12542,"ĠCy":12543,"login":12544,"Ġmutual":12545,"ĠLight":12546,"ernels":12547,"Ġeast":12548,"Ġmodelling":12549,"Ġbold":12550,"(__":12551,"Ġassets":12552,"rian":12553,"Ġbranches":12554,"Ġconverted":12555,"Discussion":12556,"letter":12557,"Ġcorrected":12558,"Ġsums":12559,"Ġ[\"":12560,"four":12561,"Ġhumans":12562,"Ġwood":12563,"Ġbott":12564,"Ġadjoint":12565,"Ġrecovered":12566,"Ġ\",":12567,"ĠOld":12568,"}};":12569,"Ġinsights":12570,"ĠProv":12571,"mk":12572,"ĠAssumption":12573,"Ġcref":12574,"resources":12575,"+{\\":12576,"ĠWilliam":12577,"usband":12578,"ĠLove":12579,"Ġsees":12580,")$)":12581,"Ġgenus":12582,"Ġevaluating":12583,"Ġsla":12584,"Ġeverywhere":12585,"Linear":12586,"bus":12587,"activity":12588,"Ġrealization":12589,"argeted":12590,"Ġannounce":12591,"ruby":12592,"seen":12593,"ĠSL":12594,"ums":12595,"Ġarbitrarily":12596,"ĠAfrican":12597,"Ġreasoning":12598,"stances":12599,"fraction":12600,"oustic":12601,"ĠRa":12602,"Dav":12603,"Ġhair":12604,"Mid":12605,"raisebox":12606,"Ġdaughter":12607,"aki":12608,"Condition":12609,"Ġintegrating":12610,"earing":12611,"ĠWestern":12612,"Ġcategor":12613,"Ġ}(":12614,"Variable":12615,"Ġreporting":12616,"ĠCongress":12617,"Bi":12618,"ĠKen":12619,"emi":12620,"Ġpark":12621,"}\\,.":12622,"Ġreset":12623,"ruption":12624,"ETHOD":12625,"ustice":12626,"Ġions":12627,"1986":12628,"Ġfairly":12629,"Ġmil":12630,"Ġongoing":12631,".\\,\\":12632,"Wrapper":12633,"ĠCore":12634,"ĠJoe":12635,"eel":12636,"Ġray":12637,"leading":12638,"AI":12639,"Ġtoler":12640,"Ġceleb":12641,"![":12642,"ĠBell":12643,"Ġleak":12644,"formula":12645,"Ġexec":12646,"Ġincreasingly":12647,"cli":12648,"ĠGets":12649,"subject":12650,"Ġexperimentally":12651,"Ġremainder":12652,"variate":12653,"Ġtypeof":12654,"ĠCoulomb":12655,"memory":12656,"ĠStudies":12657,"commit":12658,"Ġfuel":12659,"urer":12660,"FW":12661,"xygen":12662,"Ġskew":12663,"{\"":12664,"ban":12665,"Ġforget":12666,"cha":12667,"appendix":12668,"Ġweaker":12669,"ĠMethods":12670,"6666":12671,"Ġturbulence":12672,"ĠAdam":12673,"Nodes":12674,"ĠStart":12675,"$~\\":12676,"ĠIOException":12677,"activ":12678,"Ġadi":12679,"Ġsti":12680,"Ġidentities":12681,"geqslant":12682,"Ġforming":12683,"ticular":12684,"Ġrecommended":12685,"ĠMiss":12686,"Ġpairwise":12687,"Ġpenalty":12688,"Ġscr":12689,"Ġoutperforms":12690,"?>":12691,"Ġlongitudinal":12692,"Ġgrate":12693,"Tok":12694,"eeq":12695,"mapping":12696,"Ġprinciples":12697,"Ġrenormalization":12698,"Ġperfectly":12699,"Ġmagnitudes":12700,"monic":12701,")$;":12702,"UB":12703,"Ġsup":12704,"rational":12705,"Ġforecast":12706,"Ġfol":12707,"Ġlogger":12708,"Ġourselves":12709,"near":12710,"ĠAff":12711,"Ġevident":12712,"ĠElectr":12713,"Compar":12714,"Ġplanar":12715,"ĉĠĠ":12716,"Ġsongs":12717,"Ġqualitative":12718,"Ġinversion":12719,"URI":12720,"Ġpreserves":12721,"builder":12722,"Ġlose":12723,"Len":12724,"eb":12725,"ounce":12726,"!}":12727,"Ġhypothes":12728,"))^":12729,"Ġhandling":12730,"ĠCF":12731,"ĠBiden":12732,"Ġspring":12733,"Ġconsiders":12734,"Ġagency":12735,">::":12736,"Ġfacility":12737,"aters":12738,"Ġcompetitive":12739,"Ġmacro":12740,"they":12741,"Ġsensors":12742,"Ġtunnel":12743,"job":12744,"Ġdiffe":12745,"Database":12746,"checked":12747,"ĠCommand":12748,"ECK":12749,"vertical":12750,"wbr":12751,"Ġwalls":12752,"ĠFac":12753,"107":12754,"Selected":12755,"Ġrequested":12756,"itecture":12757,"?\"":12758,"auty":12759,"lices":12760,"Ġanswers":12761,"Light":12762,"()</":12763,"^*_{":12764,"moz":12765,"Ġoptimize":12766,"identifier":12767,"Ġbodies":12768,"satz":12769,"ĠÂ©":12770,"Ġsudden":12771,"Ġreflected":12772,"ĠVirgin":12773,"»¿":12774,"program":12775,"eref":12776,"Mean":12777,"Ġdrift":12778,"ĠÂ£":12779,"Refer":12780,"Ġpref":12781,"Na":12782,"Public":12783,"Ds":12784,"Ġresidents":12785,"ĠBE":12786,"Ġcontinuously":12787,"ails":12788,"upsilon":12789,"Ġappend":12790,"ĠYes":12791,"Ġwhom":12792,"storage":12793,"Ġapps":12794,"Ġcoding":12795,"shop":12796,"ĠWood":12797,"Ġmac":12798,"Corollary":12799,"entropy":12800,"Ġexecuted":12801,"Interval":12802,"}}-\\":12803,"effective":12804,"Ġregarded":12805,"Ġincoming":12806,"conditions":12807,"Ġcoarse":12808,"fav":12809,"Large":12810,"Ġovercome":12811,"/{":12812,"Ġconcaten":12813,"Ġdefinitely":12814,"scss":12815,"asket":12816,"ĠJim":12817,"ï»¿":12818,"ĠLouis":12819,"Ġmicrosc":12820,"arded":12821,"Ġranging":12822,"|}\\":12823,"Ġforest":12824,"Sl":12825,"Ġdescript":12826,"temporary":12827,"apt":12828,"Due":12829,"ĠAnt":12830,"Ġviscosity":12831,")\\|_{":12832,"Ġwra":12833,"<<":12834,"hh":12835,"Ġchief":12836,"Ġfactory":12837,"??":12838,"Ty":12839,"Ġtwist":12840,"Ġsin":12841,"Ġfake":12842,"inson":12843,"Ġinvertible":12844,"Ġcalculating":12845,"gre":12846,"Role":12847,"ĠApplication":12848,"\"],":12849,"ĠCV":12850,"ĠVan":12851,"Ġbounding":12852,"pur":12853,"mash":12854,"Ġhealthy":12855,"olves":12856,"}\\|\\":12857,"Ġbattle":12858,"Cr":12859,"Ġtrim":12860,"bition":12861,"statis":12862,"Ġdependency":12863,"coll":12864,"station":12865,"Ġmitig":12866,"Ġprotocols":12867,"junit":12868,"ĠSect":12869,"ĠLabor":12870,"Ġcarefully":12871,"ĠIsrael":12872,"Ġtherein":12873,"oni":12874,"Americ":12875,"Admin":12876,"licial":12877,"Ġconsistently":12878,"114":12879,"Ġdisplacement":12880,"Ġmeaningful":12881,"ĠBre":12882,"900":12883,"ĠCauchy":12884,"Ġhomology":12885,"Ġabundances":12886,"ĠEM":12887,"ĠCross":12888,"Photo":12889,"equilibrium":12890,"Ġbosons":12891,"Ġrev":12892,"ALSE":12893,"ĠSky":12894,"ĠTake":12895,"hookrightarrow":12896,"Ġconservative":12897,"theore":12898,"ĠWithout":12899,"thle":12900,"ĠMedicine":12901,"INFO":12902,"Move":12903,"Ġbridge":12904,"vy":12905,"ĠGrand":12906,"Ġforth":12907,"Ġacknowledge":12908,"ĠSupport":12909,"Ġmodal":12910,"Further":12911,"Ġlang":12912,"ĠHen":12913,"username":12914,"tar":12915,"Ġloading":12916,"eds":12917,"Ġinsert":12918,"Ġctx":12919,"ĠAngeles":12920,"ĠCT":12921,"Ġdealing":12922,"implies":12923,"ĠWatch":12924,"Mask":12925,"Ġcommands":12926,"Basic":12927,"Ġcro":12928,"Ġsenior":12929,"alla":12930,"ĠIndust":12931,"Ġreplacement":12932,"Ġprepare":12933,"python":12934,"DEBUG":12935,"trip":12936,"Ġ'<":12937,"radio":12938,"Ġchose":12939,"ipher":12940,"ĠBefore":12941,"Ġmethodology":12942,"ĠScholar":12943,"Ġholding":12944,"Ġsizeof":12945,"coun":12946,"Ġguaranteed":12947,"Ġredshifts":12948,"ĠMP":12949,"ĠCloud":12950,"ĠCurrent":12951,"ithmetic":12952,"ĠPay":12953,"Ġanimation":12954,"Ġappendix":12955,"YY":12956,"Ġ\"-":12957,"''$":12958,"invalid":12959,"romagnetic":12960,"Ġmiss":12961,"Ġconfigure":12962,"Ġparagraph":12963,"Ġbreaks":12964,"ĠRO":12965,"1985":12966,"Ġglobally":12967,"}</":12968,"ĠVector":12969,"Ġcurrents":12970,"aware":12971,"nob":12972,"Ġmassless":12973,"Ġinjection":12974,"Ġdepartment":12975,"Ġreadily":12976,"Ġadvice":12977,"Ġminimizing":12978,"bn":12979,"Ġhelping":12980,"Ġadministration":12981,"Ġmodulation":12982,"Ġrealize":12983,"Services":12984,"ĠRights":12985,"scheme":12986,"Game":12987,"tifications":12988,"Generated":12989,"DateTime":12990,"Ġambigu":12991,"keV":12992,"Ġreaching":12993,"omp":12994,"Player":12995,"Ġsimulate":12996,"Ġindicator":12997,"ĠBlo":12998,"Ġclosest":12999,"Ġlif":13000,"ĠUI":13001,"CRE":13002,"uition":13003,"cts":13004,"Ġunlike":13005,"Ġaz":13006,"Ġskip":13007,"Ġarrow":13008,"Ġstreet":13009,"pull":13010,"Ġgluon":13011,"Bal":13012,"lc":13013,"follow":13014,"etro":13015,"=\"$":13016,"hibit":13017,"atom":13018,"ĠOrder":13019,"adj":13020,"ĠSQL":13021,"Ġdropped":13022,"ĠWH":13023,"}\\|_{":13024,"Ġsuit":13025,"Ġrevenue":13026,"ANCE":13027,"Ġamazing":13028,"Ġoscillation":13029,"Ġposted":13030,"Ġseemed":13031,"review":13032,"Ġperformances":13033,"Ġstretch":13034,"Algorithm":13035,"consist":13036,"...</":13037,"Ġimplied":13038,"ĠFire":13039,"|\\,":13040,"ĠPython":13041,"llegal":13042,"alloc":13043,"ĠNam":13044,"åĪ":13045,"multiple":13046,"Ġinternet":13047,"ĠJe":13048,"ĠHttp":13049,"\\,$":13050,"192":13051,"Ġpromise":13052,"nals":13053,"ĠValley":13054,"Ġsends":13055,"Ġcreative":13056,"Ġreactions":13057,"rn":13058,"Ġweekend":13059,"Ġ''":13060,"Ġtx":13061,"Ġchecking":13062,"){$":13063,"Ġlepton":13064,"Ġcharset":13065,"Ġ\\%":13066,"Ġanno":13067,".,][]{":13068,"Ð´":13069,"Ġsold":13070,"Ġestimating":13071,"Ġissued":13072,"Shape":13073,"edding":13074,"Ġexpectations":13075,"Ġpurchase":13076,"Ġdeterminant":13077,"Ġdesigns":13078,"SB":13079,"lacian":13080,"Ġwarning":13081,"Join":13082,"overrightarrow":13083,"Ġperpendicular":13084,"Ġta":13085,"Pair":13086,"tration":13087,"Ġcritic":13088,"1984":13089,"Ġartificial":13090,"}$\\\\":13091,"Dem":13092,"Ġformulated":13093,"Ġpasses":13094,"Ġtuning":13095,"ĠAC":13096,"library":13097,"ĠJun":13098,"changes":13099,",$$":13100,"Ġexercise":13101,"Da":13102,"Bl":13103,"Ġtuple":13104,"ITION":13105,"Ġdevelopers":13106,"Black":13107,"decay":13108,"Enter":13109,"}$};":13110,"duration":13111,"basis":13112,"Short":13113,"ĠSR":13114,"Ġsuggesting":13115,"oco":13116,"Ġkernels":13117,"ospit":13118,")-(":13119,"Tri":13120,"Ĥ¬":13121,"burst":13122,"rons":13123,"ĠFort":13124,"loading":13125,"ĠRiemannian":13126,"indexOf":13127,"intenance":13128,"Ġanticip":13129,".\");":13130,".][]{":13131,"Ġsentences":13132,"ku":13133,"Framework":13134,"ĠLake":13135,"Ġstreaming":13136,"Ġtick":13137,"ĠASS":13138,"Ġinstructions":13139,"CHECK":13140,"Ġzeros":13141,"Ġmeson":13142,"ĠExperim":13143,"ĠStudents":13144,"World":13145,"gh":13146,"Ġdisabled":13147,"Ġincorrect":13148,"bell":13149,"Ġheaders":13150,"AST":13151,"Tube":13152,"Prefix":13153,"Ġfalls":13154,"Ġtrials":13155,"Ġkpc":13156,"sched":13157,"bow":13158,"Ġsubmit":13159,"Ġranking":13160,"tl":13161,"ĠCard":13162,"QCD":13163,"cdn":13164,"Ġdecade":13165,"ĠSecret":13166,"supported":13167,"Ġbundles":13168,"Ġnar":13169,"ĠLanguage":13170,"Constants":13171,"ĠChange":13172,"ijk":13173,"Ġphotograph":13174,"arcsec":13175,"Ġended":13176,"ĠIden":13177,"Program":13178,"Ġviolence":13179,"Ġadvantages":13180,"Ġdepart":13181,"Ġsand":13182,"'));":13183,"Ġpossibilities":13184,"Ġreceives":13185,"oma":13186,"odge":13187,"ĠClearly":13188,"Ġmorphisms":13189,"CTYPE":13190,"party":13191,"Language":13192,"Ġincredi":13193,"slice":13194,"Ġparser":13195,"Ġsuc":13196,"fitting":13197,"eu":13198,"During":13199,"leton":13200,"awn":13201,"Import":13202,"brand":13203,"Ġconsiderations":13204,"ĠBorel":13205,"Ġvast":13206,"wan":13207,"Ġpoles":13208,"Tor":13209,"iday":13210,"singular":13211,"Ġdots":13212,"orough":13213,"ĠCa":13214,"Identifier":13215,"Ġpeace":13216,"rected":13217,"Ġwindows":13218,"prise":13219,"odic":13220,"throw":13221,"Ġsaved":13222,"smallmatrix":13223,"sure":13224,"Day":13225,"ĠĠĠĠĠĠĠĠĠĠĊ":13226,"ĠPlanck":13227,"precated":13228,"ĠAlice":13229,"Ġtsd":13230,"ols":13231,"Attr":13232,"Texture":13233,"resolved":13234,"ĠResp":13235,"ometer":13236,"ĠHead":13237,"Ġfragment":13238,"Visible":13239,"Ġputting":13240,"Ber":13241,"Ġunable":13242,"brief":13243,"rk":13244,"Ġweap":13245,"rece":13246,"Ġcash":13247,"icing":13248,"Green":13249,"ensively":13250,"Ġoperate":13251,"Progress":13252,"atable":13253,"lared":13254,"Ġencode":13255,"making":13256,"ĠSFR":13257,"Integ":13258,"orous":13259,"Ġuniqueness":13260,"GF":13261,"Ġscienti":13262,"dable":13263,"oT":13264,"Skip":13265,"fon":13266,"Ġiterative":13267,"Ġfear":13268,"Ġchecks":13269,"\"].":13270,"alian":13271,"ĠTheore":13272,"Permission":13273,"Ġultimately":13274,"tist":13275,"rance":13276,"ĠKn":13277,"Ġutilize":13278,"Ġarrows":13279,"Ġintegrable":13280,"\\).":13281,"athan":13282,"Ġinfrared":13283,"Ġnucleus":13284,"uid":13285,"Product":13286,"batim":13287,"Audio":13288,"achel":13289,"Just":13290,"Ġpal":13291,"ĠOnline":13292,"Ġinterfer":13293,"Ġsucceed":13294,"springframework":13295,"Ġadaptation":13296,"Ġdisplays":13297,"Ġpursu":13298,"Ġpublication":13299,"jack":13300,"Ġpot":13301,"Ġade":13302,"tuple":13303,"Ġcareful":13304,"AX":13305,"Ġlandscape":13306,"FORM":13307,"plots":13308,"ĠMu":13309,"Ġvice":13310,"iro":13311,"Ġcovariant":13312,"Ġmachines":13313,"Ġwhatever":13314,"Ġmurder":13315,"svg":13316,"Ġgeneralize":13317,"Ġgreatly":13318,"ypt":13319,".âĢĻ":13320,"Ġmedi":13321,"elly":13322,"Ġapproved":13323,"apped":13324,"Ġpartitions":13325,"Ġfila":13326,"ĠDNA":13327,"tized":13328,"pson":13329,"ĠOS":13330,"olor":13331,"Ġcompanion":13332,"Ġregistration":13333,"Analysis":13334,").\\":13335,"necess":13336,"delay":13337,"Ġdwarf":13338,"ĠDB":13339,"ĠÐ²":13340,"DOCTYPE":13341,"Ġcookies":13342,"dh":13343,"spectrum":13344,"eved":13345,")}\\\\":13346,"Ġdissipation":13347,".\",":13348,"erved":13349,"ĠDocument":13350,"oster":13351,"Ġfocuses":13352,"Remark":13353,"cient":13354,"ĠRequest":13355,"Ġcoach":13356,"zhang":13357,"Ġstem":13358,"RF":13359,"Ġprovision":13360,"Ġcontrary":13361,"itar":13362,"ĠRefs":13363,"WI":13364,"calendar":13365,"}--\\":13366,"}:\\":13367,"Ġchurch":13368,"Ġexploit":13369,"Batch":13370,"ĠON":13371,"}:=\\":13372,"asts":13373,"Ġneurons":13374,"Ġposts":13375,"icts":13376,"contrib":13377,"native":13378,"|$.":13379,"vp":13380,"Ġbases":13381,"DEFAULT":13382,"Ġexcitations":13383,"isa":13384,"Ġhers":13385,"download":13386,"$\\%":13387,"Ġmotions":13388,"Ġphotometry":13389,"ĠVideo":13390,"Sched":13391,"Ġlib":13392,"119":13393,"EEEE":13394,"Limit":13395,"Ġcoherence":13396,"following":13397,"utations":13398,"Ġaxi":13399,"Ca":13400,"Ġscenes":13401,"aland":13402,"represent":13403,"Ġwouldn":13404,"ĠDirect":13405,"ĠKnow":13406,"*,":13407,"Ġrear":13408,"systems":13409,";\">":13410,"Ġgray":13411,"mathrel":13412,"Ġstores":13413,"println":13414,"Collections":13415,"})}{\\":13416,"ĠMas":13417,"170":13418,"Ġfault":13419,"ĠallClasses":13420,"ĠPL":13421,"Ġinjury":13422,"Ġmovies":13423,"109":13424,"rowth":13425,"Ġarrival":13426,"}=-\\":13427,"Ġimpose":13428,"Ġly":13429,"Ġdeeper":13430,"Ġbattery":13431,"Ġbis":13432,"etrical":13433,"ĠallClassesLink":13434,"Ġsan":13435,"onymous":13436,"Ġdup":13437,"Ġdimensionless":13438,"Ġanomalous":13439,"Ġnullptr":13440,"Ġship":13441,"))}":13442,"Ġiron":13443,"Fore":13444,"Ġtum":13445,"Ġabuse":13446,"nic":13447,"orange":13448,"Ġestimators":13449,"ĠSurvey":13450,"Ġtmp":13451,"Resources":13452,"Overview":13453,"Ġminute":13454,"ems":13455,"eduled":13456,"impro":13457,"Ġpreparation":13458,"Random":13459,"terior":13460,"wind":13461,"Ġfant":13462,"interaction":13463,"ĠAppro":13464,"Ġposi":13465,"Ġmerger":13466,"olo":13467,"Ġtiming":13468,"Ġhierarchical":13469,"ĠCla":13470,"ĠAsia":13471,"Ġdifferentiable":13472,"Ġtexture":13473,"had":13474,"ĠJer":13475,"samples":13476,"tm":13477,"ĠHard":13478,"Ġmort":13479,"Ġphysically":13480,"ĠValid":13481,"Ġages":13482,"istr":13483,"ĠRL":13484,"ĠDirichlet":13485,"Ġdecoding":13486,"Equation":13487,"scaling":13488,"Ġstanding":13489,"strial":13490,"Ġgar":13491,"Ġprescri":13492,"outer":13493,"checkbox":13494,"every":13495,">[":13496,"cancel":13497,"ĠKim":13498,"$^\\":13499,",+":13500,"ilosophy":13501,"ois":13502,"('/":13503,"triangleq":13504,"Ġproto":13505,"ĠJeff":13506,"OpenTl":13507,"Ġagrees":13508,"Ġhero":13509,"ĠRGB":13510,"Ġconnectivity":13511,"assandra":13512,"apos":13513,"Ġspectroscopic":13514,"orse":13515,"Ġoverhead":13516,"Ġrescal":13517,"Ġhundreds":13518,"lighted":13519,"Ð°Ð½":13520,"Ġguy":13521,"ĠĠĠĠĠĠĠĠĠĠĠĠĠĠĠĠĠĠĠĠĠĠĠĠĠĠĠĠĠĠĠĠĠ":13522,"uries":13523,"ĠPac":13524,"Ġacquired":13525,"ĠInf":13526,"Ġoccasion":13527,"ĠArrayList":13528,"ĠSar":13529,"Ġbeat":13530,"!\"":13531,"ĠJordan":13532,"Ġobst":13533,"Ġadapt":13534,"Contact":13535,"Ear":13536,"ĠMarket":13537,"POST":13538,"ĠSym":13539,"Ġsuperior":13540,"Bra":13541,"Ġthermodynamic":13542,"representation":13543,"}{.":13544,"Ġintegrate":13545,"ĠSand":13546,"/_":13547,"constraint":13548,"multip":13549,"lee":13550,"Ġbind":13551,"Ã£":13552,"Ġmodulo":13553,"Ġconversation":13554,"Ġremarkable":13555,"Put":13556,"*}\\":13557,"Prob":13558,"ĠFL":13559,"ĠToday":13560,"Ġturning":13561,"Children":13562,"azz":13563,"Ġ}_{":13564,"Ġexceptional":13565,"Ġinterests":13566,"Ġswitching":13567,"Ġ\"\",":13568,"ilds":13569,"ĠComb":13570,"ĠTown":13571,"Ġea":13572,"ĠTag":13573,"]_{\\":13574,"Card":13575,"ĠProblem":13576,"Ġyellow":13577,"TIME":13578,"ĠFestival":13579,"ä»":13580,"branch":13581,"Ġpointing":13582,"NV":13583,"Ã¨":13584,"Wallet":13585,"Î¿":13586,"Ġclar":13587,"Ġpassion":13588,"spectral":13589,"AO":13590,"Ġpredictive":13591,"Ġrotate":13592,"Ġinfection":13593,"Ġadvent":13594,"ordance":13595,"Ġreflects":13596,"ĠHas":13597,"ĠSeason":13598,"ĠPolice":13599,"mbf":13600,"Sep":13601,"Forms":13602,"tabularnewline":13603,"Appendix":13604,"Ġsupervised":13605,"riage":13606,"Ġsubgroups":13607,"Ġcommitted":13608,"uj":13609,"$]":13610,"ĠLay":13611,"Ġmodifications":13612,"Elements":13613,"RPC":13614,"Ġdevo":13615,"orient":13616,"Ġsale":13617,"^+_":13618,"otherwise":13619,"Ġtimeout":13620,"Ġiff":13621,"113":13622,"ĠCMB":13623,"olis":13624,"Ġyes":13625,"Ð¾Ð²":13626,"amiltonian":13627,"Ġtwisted":13628,"Ġexciting":13629,"Save":13630,"Ġindependence":13631,"ineq":13632,"ĠÑģ":13633,"sembles":13634,"uty":13635,"ĠRiemann":13636,"ĠMexico":13637,"'^":13638,"Ġfiltering":13639,"integer":13640,"ĠHon":13641,"Ġcf":13642,"Ġautomatic":13643,"Ġsynthesis":13644,"ĠFeb":13645,"/\"":13646,"Inv":13647,"Ġgreatest":13648,"Report":13649,"visible":13650,"uestion":13651,"Ġanisotropy":13652,"Ġencourage":13653,"Microsoft":13654,"'];":13655,"Ġkid":13656,"Ġrecognized":13657,"ĠRoman":13658,"Ġattractive":13659,"cla":13660,"compile":13661,"Ġnotations":13662,"currency":13663,"ĠHo":13664,"cod":13665,"eart":13666,"Ġbalanced":13667,"Copyright":13668,"Lie":13669,"Ġfocusing":13670,"labor":13671,"noalign":13672,"Yes":13673,"Ġdivide":13674,"Ġentered":13675,"ĠMaster":13676,"5000":13677,"psfrag":13678,"ĠAri":13679,"ĠNAV":13680,"Word":13681,"Ġ=&":13682,"ĠMen":13683,"ships":13684,"amination":13685,"Ġterr":13686,"^*$.":13687,"Ġdistrict":13688,"Ġsake":13689,"mats":13690,"Fragment":13691,"reland":13692,",\\,\\,\\,\\":13693,"limin":13694,"PROJECT":13695,"ĠConference":13696,"SG":13697,"gressive":13698,"\\),":13699,"irable":13700,"450":13701,"Ġprobabilistic":13702,")]{":13703,"ĠTE":13704,"Ġprompt":13705,"His":13706,"compute":13707,"ĠWilliams":13708,"Ġbehaviors":13709,"ĠThree":13710,"Ġpreserving":13711,"ï¼Į":13712,"'},":13713,"ĠjQuery":13714,"ÙĨ":13715,"Ġbelonging":13716,"ĠHTTP":13717,"Ġturbulent":13718,"REQ":13719,"Ġcomparisons":13720,"PhysRev":13721,"IFAR":13722,"sampling":13723,"ayes":13724,"Your":13725,"repos":13726,",-.":13727,"}}|":13728,"thermal":13729,"Ġworker":13730,"icians":13731,"Ġbackward":13732,"irds":13733,"ORY":13734,"report":13735,"MODULE":13736,"FOR":13737,"{#":13738,"signature":13739,"ĠHE":13740,"scalar":13741,"Stats":13742,"extern":13743,"LINE":13744,"Ġwatching":13745,"ĠLive":13746,"Ġflexible":13747,"1970":13748,"ĠArg":13749,"lements":13750,"ĠSDSS":13751,"Ġadvoc":13752,"Dete":13753,"Ġanchor":13754,"Ġpolarized":13755,"lein":13756,"Ġaccommod":13757,"Namespace":13758,"once":13759,"evolution":13760,"Ġincrement":13761,"Ġdecor":13762,"Ġlatency":13763,"Ġera":13764,"ĠAut":13765,"Wang":13766,"Ġelev":13767,"AY":13768,"evin":13769,"Ġ\\)":13770,"Ġsexual":13771,"contact":13772,"Ġinnovation":13773,")->":13774,"Ġrenew":13775,"*{\\":13776,"AK":13777,"116":13778,"Act":13779,"warning":13780,"physics":13781,"Ġconsumers":13782,"Ġsurvival":13783,"ixel":13784,"Gal":13785,"Ġdiffers":13786,"Ġcontradic":13787,"Ġcapability":13788,"Ġhomes":13789,"Returns":13790,"ogeneity":13791,"spi":13792,"except":13793,"Ġtriangles":13794,"Ġregimes":13795,"124":13796,"ĠMI":13797,"Ġspatially":13798,"extend":13799,"gauge":13800,"Ġsectors":13801,"iors":13802,"ĠSystems":13803,"lits":13804,"acting":13805,"Ġforeach":13806,"Ġfinger":13807,"Ġhusband":13808,"gex":13809,"unic":13810,"ĠScott":13811,"117":13812,"tacts":13813,"Ġrgba":13814,"Ġmarks":13815,"inton":13816,"acted":13817,"230":13818,"eno":13819,"Ġtransforms":13820,"UST":13821,"BG":13822,"RP":13823,"tras":13824,"Ġsql":13825,"']['":13826,"Ġmand":13827,",\\;":13828,"loaded":13829,"}^-":13830,"ĠParis":13831,"clone":13832,"Ġmanus":13833,"ĠAcademy":13834,"Ġdictionary":13835,"ĠGames":13836,"tifying":13837,"ĠCred":13838,"being":13839,"Edge":13840,"estingly":13841,"ĠProfessor":13842,"Ġcolle":13843,"dem":13844,"disk":13845,"Abs":13846,"urc":13847,"animation":13848,"Ġhook":13849,"Transform":13850,"xtures":13851,"mouse":13852,"Ġdelivered":13853,"ĠMike":13854,"ĠNAME":13855,"Ġdiscrepancy":13856,"Ġsheet":13857,"Ġcriminal":13858,"Ġexamined":13859,"Ġemphasize":13860,"tie":13861,"uated":13862,"ĠEND":13863,"ĠJapanese":13864,"Ġlegend":13865,"Ġsketch":13866,"Ġven":13867,"ĠStudy":13868,"Landroid":13869,"ĠAmong":13870,"thrift":13871,"AMP":13872,"ĠChampion":13873,"Ġ'\\":13874,"Ġliber":13875,"Ġmale":13876,"Ġunlikely":13877,"Ã³n":13878,"'}{":13879,"Ġpredicts":13880,"convergence":13881,"async":13882,"spacing":13883,"runtime":13884,"Ġkill":13885,"()))":13886,"Ġenum":13887,"121":13888,"ĠYang":13889,"Ġmotivation":13890,"Ġdoubt":13891,"days":13892,"IJ":13893,"Ġquen":13894,"Ġgates":13895,"keep":13896,"$_\\":13897,"Ġargued":13898,"-|":13899,"ĠEngineering":13900,"ĠJon":13901,"ĉĠĠĠĠĠĠĠ":13902,"Ġreti":13903,"Ġassociate":13904,"Ġha":13905,"Bean":13906,"Ġsemigroup":13907,"Ġoutline":13908,"Ġdefect":13909,"zil":13910,"Ġindirect":13911,"ogni":13912,"Ġscreening":13913,"Ġcompliance":13914,"Information":13915,"ĠUl":13916,"ĠFigures":13917,"proc":13918,"Ġsounds":13919,"bundle":13920,"Tech":13921,"Ġconstrain":13922,"ocia":13923,"ĠFall":13924,"Ġloved":13925,"Der":13926,"dataset":13927,"Ġpc":13928,"Ġsympt":13929,"Ri":13930,"ĠOk":13931,"Ġmoderate":13932,"ĠLuc":13933,"average":13934,"Ġhonest":13935,"lp":13936,"Ġadequ":13937,"æľ":13938,"\\%.":13939,"Ġmig":13940,"MIN":13941,"ahler":13942,"Ġcus":13943,"ĠTw":13944,"vid":13945,"aled":13946,"Ġastro":13947,"Ġinitialization":13948,"|,":13949,"USY":13950,"Watch":13951,"Ġassertion":13952,"Setting":13953,"^*$,":13954,"Ġpromote":13955,"Sequence":13956,"omo":13957,"Ġconsiderable":13958,"ĠClin":13959,"Ġwinter":13960,"Ġstopped":13961,"holds":13962,"ĠTab":13963,"Ġcompla":13964,"Required":13965,")}^{":13966,"Drawing":13967,"Ġprofit":13968,"Registry":13969,"particles":13970,"ĠAdS":13971,"ĠDescription":13972,"ĠMaterial":13973,"ĠStream":13974,"Props":13975,"ders":13976,"fund":13977,"ĠCM":13978,"proxy":13979,"Ġcorollary":13980,"micro":13981,"ĠGalaxy":13982,"ictory":13983,"\\`":13984,"propag":13985,"Ġbroadcast":13986,")}}{":13987,"ndef":13988,"ĠAtlan":13989,"ĠTre":13990,"omestic":13991,"Ġgaps":13992,"ĠPack":13993,"ĠDespite":13994,"ĠFederal":13995,"ividual":13996,"Optim":13997,"ifdef":13998,"Ġconstructing":13999,"Ġacquisition":14000,"sburg":14001,"limited":14002,"1983":14003,"ĠDaniel":14004,"Ġactor":14005,"INTER":14006,"Ġfellow":14007,"^*)":14008,"Ġsearches":14009,"Ġrm":14010,"Ġ@\"":14011,"route":14012,"Ġpreliminary":14013,"balance":14014,"ĠBow":14015,"ĠCorpor":14016,"Power":14017,"Comm":14018,"Ġarithmetic":14019,"AW":14020,"ĠPi":14021,"Headers":14022,"rat":14023,"Endpoint":14024,"}{-":14025,"ocal":14026,"LI":14027,"gz":14028,"tism":14029,"Ġannotation":14030,"Ġprominent":14031,"you":14032,"entral":14033,"News":14034,"ĠStra":14035,"Ġhits":14036,"(@":14037,"Ġvir":14038,"ĠBR":14039,"Ġending":14040,"alker":14041,"ĠPers":14042,"conc":14043,"edi":14044,"Ġcontraction":14045,"Ġpriori":14046,"Ġselecting":14047,"itage":14048,"Ġparabolic":14049,"Ġpatches":14050,"Ġplants":14051,"ynamical":14052,"Ġrisks":14053,".<":14054,"210":14055,"ĠDar":14056,"ju":14057,"ateral":14058,"Ġanimal":14059,"Ġrecording":14060,"ĠTraining":14061,"ĠMiddle":14062,"ping":14063,"Â°":14064,"Ġteaching":14065,"Ġoxygen":14066,"guide":14067,"Focus":14068,"ĠInstagram":14069,"Center":14070,"imag":14071,"imeter":14072,"Ġautomorphism":14073,"dependence":14074,"Ġnp":14075,"release":14076,"Ġexposed":14077,"relativistic":14078,"}}%":14079,"ĠLow":14080,"present":14081,"Ġremoval":14082,"Ġbow":14083,"ĠGar":14084,"orementioned":14085,"ĠBon":14086,"Ġsubstantially":14087,"logo":14088,"imod":14089,"scious":14090,"ĠComput":14091,"Ġeccentric":14092,"Animation":14093,"WH":14094,"tia":14095,"Detail":14096,"Lag":14097,"003":14098,"Ġwireless":14099,"ĠGHz":14100,"Ġcontours":14101,"Ġstrugg":14102,"ĠHu":14103,")\\;":14104,"major":14105,"helper":14106,"Ġjudge":14107,"Ġmonomial":14108,"Ġatmospheric":14109,"?}":14110,"Ġstopping":14111,"FLA":14112,"Ġcrime":14113,"cence":14114,"Ġbringing":14115,"typedef":14116,"mac":14117,"Ġ&-":14118,"Ã£o":14119,"what":14120,"ĠPoli":14121,"Ġfilling":14122,"Cer":14123,"LD":14124,"Rate":14125,"}=\\{":14126,"Ġbaryon":14127,"Ba":14128,"Ġwider":14129,"ktop":14130,"Ġsoph":14131,"Ġrain":14132,"merge":14133,"Ġprev":14134,"coupling":14135,"nucle":14136,"Ġintui":14137,"cmid":14138,"sheet":14139,"ĠPak":14140,"arsity":14141,"Ġindustrial":14142,"osa":14143,"Ġspiral":14144,"_+$":14145,"Cloud":14146,"roscopy":14147,"Ġplain":14148,"Ġkeeps":14149,"Ġmess":14150,"vit":14151,"IDTH":14152,"ĠDNN":14153,"^+(":14154,"Ġinfinitely":14155,"enger":14156,"ione":14157,"ĠEval":14158,"Ġavailability":14159,"ĠAmericans":14160,"tv":14161,"ĠArab":14162,"Allow":14163,"Ġsheaf":14164,"Ġspont":14165,"oston":14166,"Mouse":14167,"opts":14168,"roke":14169,"ĠNP":14170,"Ġneglect":14171,"cmidrule":14172,"æĸ":14173,"ÏĦ":14174,"ĠSED":14175,"features":14176,"ĠDivision":14177,"adjoint":14178,"Span":14179,"ĠCELL":14180,"Ġ{\"":14181,"astern":14182,"Ġnonnegative":14183,"Db":14184,"operative":14185,"orb":14186,"Prim":14187,"actory":14188,"Ġdamping":14189,"Ġui":14190,"ferred":14191,"EEEEFF":14192,"performance":14193,"Ġguidance":14194,"ĠJoseph":14195,"122":14196,"ENSE":14197,"Ġburst":14198,"ego":14199,"listing":14200,"Ġyouth":14201,"FUN":14202,"integral":14203,"Year":14204,"Ġconductivity":14205,"does":14206,"}}}(":14207,"Ġscheduled":14208,"database":14209,"Ġinduce":14210,"question":14211,"ATED":14212,"LOCK":14213,"Compat":14214,"Ġinitialize":14215,"ounced":14216,"IAL":14217,"Ġhaven":14218,"Ġvaried":14219,"ĠLP":14220,"Ġconserved":14221,"ressing":14222,"Ġstructured":14223,"incipal":14224,"ĠRF":14225,"ĠPhysics":14226,"Delegate":14227,"adi":14228,"Ġtidal":14229,"DG":14230,"gas":14231,"Ġtic":14232,"igner":14233,"udge":14234,"ASE":14235,"Ġpropagator":14236,"ensing":14237,"vio":14238,"Ġsnow":14239,"]{$":14240,"Ġevolutionary":14241,"lov":14242,"Ġfeels":14243,"RED":14244,"Ġmaximize":14245,"Ġfractions":14246,"Ġmagnetization":14247,"tbl":14248,"Ġhabit":14249,"jp":14250,"aked":14251,"OME":14252,"nod":14253,"Ġ$^":14254,"ifurc":14255,"binding":14256,"visor":14257,"Ġexclusive":14258,"Ġgains":14259,"OO":14260,"exit":14261,"expansion":14262,"Ġincomp":14263,"Ġrecip":14264,"contents":14265,"ĠFour":14266,"|^{\\":14267,"Ġintelligence":14268,"duate":14269,"Ġneglected":14270,"expr":14271,"inations":14272,"ĠChang":14273,"Ġionization":14274,"ARD":14275,"Users":14276,"wart":14277,"Ġkinematic":14278,"irs":14279,"1982":14280,"Ġbreath":14281,"Ġherself":14282,"Ġrelate":14283,"uts":14284,"Ġcumulative":14285,")}+":14286,"cripts":14287,"Ġinvestors":14288,"ordered":14289,"}^{-\\":14290,"Ġ\\,\\,":14291,"Ġfulfill":14292,"Ġsoci":14293,"Ġaforementioned":14294,"ĠOriginal":14295,"Arch":14296,"ivially":14297,"Loop":14298,"Ġasset":14299,"Ġwealth":14300,"Ġemissions":14301,"medium":14302,"gate":14303,"Ġresonant":14304,"imuth":14305,"ĠId":14306,"pixel":14307,"got":14308,"ĠPhil":14309,"Ġstat":14310,"overning":14311,"rical":14312,"],\\":14313,"Ġinstitutions":14314,"onto":14315,"Without":14316,"White":14317,"Similar":14318,"ĠAB":14319,"semi":14320,"Mich":14321,".(":14322,"created":14323,"Ġtensors":14324,"TRUE":14325,"Ġemerging":14326,"Calc":14327,"sync":14328,"ucky":14329,"Like":14330,"History":14331,"Operator":14332,"Ġplugin":14333,"ĠNAVBAR":14334,"catch":14335,"&&&&":14336,"Ġcursor":14337,"Ġopposed":14338,"Ġcaught":14339,"Ġasking":14340,"facebook":14341,"Ġurban":14342,"Ġ{(":14343,"REG":14344,"Ġminimization":14345,"'_{\\":14346,"ĠFre":14347,"ĠWIT":14348,"126":14349,"118":14350,"Ġplanned":14351,"ulse":14352,".]":14353,"ĠLord":14354,"raud":14355,"145":14356,"Ġdraft":14357,"Ġrom":14358,"Ġbelieved":14359,"together":14360,"seg":14361,"ĠAndrew":14362,"ĠRichard":14363,"Ġnur":14364,"Ġpreserved":14365,"ĠVirginia":14366,"Ġcasc":14367,"ĠMatch":14368,"ĠFro":14369,"Ġwavelengths":14370,"}''":14371,"avy":14372,"Fn":14373,"Ġcounterpart":14374,"Ġemergency":14375,"'})":14376,"nor":14377,"pk":14378,"Ġcancellation":14379,"Ġexport":14380,"ĠUnit":14381,"Ign":14382,"Pers":14383,"Ġseparable":14384,"construct":14385,"}\\{":14386,"Ġske":14387,"ĠHubble":14388,"Deep":14389,"ĠRandom":14390,"theast":14391,"assign":14392,"Ġutilized":14393,"Ġheavily":14394,"GW":14395,"ĠForce":14396,"ĠVi":14397,"Ġanc":14398,"binary":14399,"Ġquantify":14400,"touch":14401,"Ġpron":14402,"Ġtransient":14403,"Ġnavbar":14404,"ĠLSTM":14405,"Ġms":14406,"ggreg":14407,"minimum":14408,"clock":14409,"chro":14410,"varsigma":14411,"Environment":14412,"Lem":14413,"Ġannihilation":14414,"%.":14415,"Ġtelescope":14416,"Ġseeking":14417,"utch":14418,"Ġexecutive":14419,"Â©":14420,"Ġomit":14421,"Ġsurely":14422,"Look":14423,"otic":14424,"Ġdrawing":14425,"sqcup":14426,"Uri":14427,"estyle":14428,"oured":14429,"Ġenumer":14430,"edges":14431,"Ġmatters":14432,"probability":14433,"tzmann":14434,"rules":14435,"âĢĻ,":14436,"omm":14437,"inverse":14438,"Ġnucleon":14439,"VV":14440,"Ġresonances":14441,"Well":14442,"NavBarFont":14443,"Ġreadonly":14444,"Standard":14445,"Ġmobility":14446,"wi":14447,"ĠResponse":14448,"PHP":14449,"production":14450,"Leg":14451,"ognitive":14452,"obtained":14453,"Ġcombinatorial":14454,"{-\\":14455,"Ġiner":14456,"ĠZealand":14457,"ĠWrit":14458,"fli":14459,"Ġfeat":14460,"Bind":14461,"ĠOC":14462,"Ġdrops":14463,"Gui":14464,"\\%)":14465,"Ġspeaker":14466,",'":14467,"orters":14468,"highlight":14469,"Ġinsurance":14470,"Ġ\"$":14471,"Ġbaselines":14472,"labels":14473,"uous":14474,"ĠVirtual":14475,".}.":14476,"Ġcylind":14477,"Ġcrash":14478,")}+\\":14479,"Ġautoma":14480,"Ġ(+":14481,"ĠBrand":14482,"abling":14483,"Ġau":14484,"Ġretail":14485,"ĠContent":14486,"Ġparametric":14487,"lVert":14488,"ĠPhoto":14489,"Ġaxes":14490,"phrase":14491,"Ġtherapy":14492,"320":14493,"chart":14494,"Ali":14495,"Ġintra":14496,"Ġpublicly":14497,"ĠBesides":14498,"COMM":14499,"Ġ];":14500,"ĠConf":14501,"orial":14502,"stretch":14503,"ĠAustralian":14504,"Ġknot":14505,"many":14506,"Ġtom":14507,"Ġbinaries":14508,"ĠRadio":14509,"discussion":14510,"ynman":14511,"152":14512,"ĠLab":14513,"uits":14514,"onically":14515,"IMPORT":14516,"ĠWild":14517,"ĠBanach":14518,"Ġspecification":14519,"irk":14520,"ĠCovid":14521,"ĠChem":14522,"ĠChapter":14523,"road":14524,"ĉĉĉĉĊ":14525,"Ġtruck":14526,"Bottom":14527,"resolve":14528,"ĠThose":14529,"ĠWi":14530,"TI":14531,"Ġimper":14532,"Warning":14533,"ARCH":14534,"existence":14535,"004":14536,"Ġguys":14537,"Aug":14538,"Ġpackages":14539,"ĠTree":14540,"Ġbrother":14541,"pn":14542,"Ġsurjective":14543,"ĠTal":14544,"ĠSpanish":14545,"Ġupcoming":14546,"Ġacid":14547,"usive":14548,"Ġforcing":14549,"ĠassertThat":14550,"ĠItem":14551,
[...]
