#version: 0.2
Ġ Ġ
ĠĠ ĠĠ
Ġ t
i n
e r
o n
a t
r e
h e
Ġ a
e n
ĠĠ Ġ
o r
ĠĠĠĠ ĠĠĠĠ
s t
a l
Ġt he
i on
l e
a r
i t
Ġ c
s e
a n
i s
Ġ f
Ġ o
c t
d e
r o
Ġ p
Ġ s
in g
Ġ w
m e
i c
Ġ b
Ġ in
e d
en t
Ġ =
e s
n d
Ġo f
ĠĠĠĠ ĠĠĠ
ĉ ĉ
u r
Ġ $
Ġ \
Ġ re
Ġ {
Ġ n
a s
Ġt h
Ġ (
Ġt o
u t
e t
Ġ m
) ;
i g
a c
i l
Ġ e
u n
Ġa nd
Ġ d
at ion
Ġ *
o l
t h
u l
i f
e l
Ġ h
m p
r a
i d
l o
ct ion
Ġ v
o t
/ /
ĠĠĠĠĠĠĠĠ ĠĠĠ
p e
i v
Ġ is
Ġ T
Ġ }
c e
- -
a b
at e
Ġ S
q u
č Ċ
g e
Ġ <
a d
a me
Ġf or
u m
t er
Ġ st
Ġ C
c h
t e
Ġ g
r i
Ġ l
Ġ A
u s
_ {
o m
a m
p t
Ġc on
l y
ĠĠĠĠ Ġ
= "
u e
Ġ de
Ġ I
en d
ur n
v er
Ġb e
s s
x t
at h
it h
i st
h t
i m
Ġ se
o de
Ġ on
* *
Ġ "
o w
Ġth is
t urn
u b
Ġth at
t r
< /
o d
u p
a p
as s
v e
( )
ĠĠĠĠĠĠĠĠ ĠĠĠĠĠĠĠĠ
e w
m ent
a y
i r
{ \
Ġ M
t a
Ġ '
Ġ if
un ction
Ġ &
Ġp ro
er s
y pe
e ct
Ġ P
= =
Ġc o
â Ģ
or t
an d
Ġa n
Ġw ith
Ġ$ \
in e
it e
0 0
s p
ab le
u re
Ġa l
ul t
a ge
i z
o p
a se
Ġ R
Ġ B
ig ht
Ġ F
Ġ D
I n
e st
Ġw h
l ass
Ġa s
ar t
m ath
o re
ac k
c on
it y
o c
ĠT he
ĠĠĠĠĠĠĠĠ ĠĠĠĠĠĠĠ
in t
k e
Ġ //
-- --
ro m
Ġre turn
pt ion
re f
Ġe x
er e
p h
l i
Ġ L
o u
Ġ H
g et
Ġ @
Ġf unction
p er
" >
m a
c al
Ġb y
Ġ E
Ġ N
Ġ or
a g
i al
Ġ it
i me
Ġ Ċ
at a
al ue
o ur
ĉĉ ĉĉ
j ect
i le
l ic
Ġ G
Ġ +
Ġ W
iv e
Ġw e
Ġ -
} \
p ro
} $
e g
Ġa re
Ġ me
Ġ r
f f
or m
^ {
o s
Ġ at
te xt
Ġ i
f t
b er
ac e
c o
i es
Ġt r
al l
Ġ u
re s
2 0
e m
es s
il l
. .
Ġf rom
t o
st r
it ion
p ar
Ġv ar
an s
a re
se t
) ,
an t
Ġ O
- >
in d
) .
Ġc h
c k
o ut
Ġ y
Ġn ot
ar y
th is
ig n
' ,
} }
i re
Ġ [
Ġ* /
Ġ /
o o
Ġc lass
( \
l u
C on
b ject
" ,
or d
Ġ lo
s c
n t
Ġs h
a v
at ed
( );
ra y
s er
: :
le ment
a ct
e qu
Ġw as
a ve
se d
Ġ le
eg in
t y
er r
an g
} ,
Ġ U
1 9
p s
v ent
b egin
Ġre s
( '
Ġn ew
iz e
a st
ĉĉ ĉ
Ġ :
i de
Ġa r
ro w
ĠĠĠĠĠĠĠĠ Ġ
f ig
Ġco mp
Ġ he
de f
e xt
T he
( "
Ġ _
ul l
ic h
en s
) $
Ġc an
ic al
e x
i p
_{ \
an ce
o me
f orm
S t
en ce
Ġst r
Ġ un
ab el
l f
Ġ J
lo w
p ut
f r
th er
our ce
re turn
Ġ |
ĠĠĠĠĠĠĠĠ ĠĠĠĠĠĠĠĠĠĠĠ
Ġn ame
N ame
** **
en er
ĠI n
el l
ation s
âĢ Ļ
p ort
ub lic
v ar
ri b
} {
n ame
) )
ar d
il d
Ġ j
---- ----
or k
r ight
tr ing
e f
par am
ic e
ac h
c c
d d
Ġde f
d u
d i
Ġ .
o st
a k
ta in
e c
fr ac
on g
Ġ< /
Ġh ave
at or
i b
u st
Ġ !
de x
o g
en g
ke y
p l
1 0
== ==
ul d
i el
Ġa p
e q
a in
Ġse t
l l
P ro
ĠT h
or y
i mp
er t
om m
on e
t he
Ġh as
Ġwh ich
u nd
iel d
un t
u g
s o
le ct
l ine
l abel
. _
c ite
u le
a mp
Ġ k
E x
le ft
pe ct
Ġv alue
re ss
20 1
Ġ V
ption s
' s
t ype
s h
math b
m l
um ber
en c
ode l
b o
re e
he n
al se
E R
Ġd o
de d
o id
Ġe l
$ .
y st
r m
o int
c lu
Ġ `
um ent
eng th
o f
T ype
i ew
c he
$ ,
ow n
Ġ âĢ
Ġal l
v al
f er
w e
Ġ us
Ġcon t
Ġp ublic
m s
at ch
pe c
i x
e p
Ġw ill
i o
o uld
Ġ K
rib ut
} )
ro up
Ġ err
id th
t t
ou nd
er y
, \
Ġg et
S tring
ol d
et a
a ult
Ġt ype
yst em
math cal
u al
Ġ& &
Ġd ata
T o
d iv
ap p
Ġin ter
\ \
.. /
in k
at es
equ ation
c re
c ol
} .
ir st
Ġ qu
ion s
I N
Ġo ut
in al
Ġd is
i a
an ge
s um
Ġs u
u ct
Ġp l
2 00
Ġo b
C o
O N
se s
A r
Ġi mp
Ġ #
Ġon e
Ġin t
Ġres ult
e ar
Ġt ime
Ġp ar
b ack
m o
} (
Ġ >
Ġm a
in ed
Ġa b
le d
Ġtr ue
r iv
Ġcon st
y n
Ġc ol
ur re
Ġel se
Ġn ull
v el
Ġa ss
Ġ| |
ar g
m b
th od
Ġ )
Ġp art
] ;
ac he
s ub
d a
l d
Ġ up
o ver
ph a
lo ck
ar k
~ \
} ^
Ġ= =
ic s
le s
ing s
S T
f unction
} _
ad d
Ġp er
Ġse lf
Ġv al
Ġp re
I d
a u
imp ort
Ġs p
_ _
r r
al pha
Ġb ut
Ġf alse
C h
R E
er v
R es
nd er
d ata
at ic
e mp
> </
Ġc ase
t il
am b
Ġb o
or s
Ġ x
od ule
1 2
w o
i se
ro und
Ġre qu
u d
ss age
o b
i an
e y
ite m
str ing
ul ar
os ition
m in
ĠS t
Ġ/ **
urre nt
v alue
r it
Ġal so
t on
T h
' )
u es
f o
f or
g ra
ter n
clu de
c ode
Ġstr ing
ri pt
at ive
sp an
b ar
r y
per ty
Ġs ub
t ime
Ġo ver
L ist
Ġw hen
c om
Ġo bject
A T
ce ption
ĠTh is
Ġ ro
le ction
V alue
m ber
' );
ĠĠĠĠĠĠĠĠĠĠĠĠĠĠĠĠ ĠĠĠĠĠĠĠ
ig h
Ġn e
amb da
if i
R e
ad er
Ġ= ==
Ġs o
Ġy ou
ent s
] ,
el y
Ġn o
Ġo ther
} ;
Ġan y
i e
on t
ame ter
) );
n e
> <
Ġ id
Ġfor m
sp on
ĠC h
**** ****
Ġv oid
) \
if ic
at ure
a il
ht ml
n ot
Ġs up
p p
Ġ} ,
c lass
l ength
un c
Ġin st
O bject
$ \
// //
D ata
sp ace
g er
Ġh is
Ġ Y
am ma
Ġ end
L E
Ġf irst
Ġm ore
Ġ en
Ġth ere
le t
1 6
p x
: //
is h
Ġu se
tr ans
u ild
s on
Ġa dd
t d
= \
ol low
mathb b
Ġon ly
ser v
m ary
o se
se lf
c ent
E rr
it s
Ġex p
ic k
m u
Ġt wo
1 8
Ġtr ans
re ad
f ter
ĠW e
Ġthe ir
Ġs ome
_ \
p i
Ġ key
ar get
Ġl ine
c es
ĠĠĠĠ ĠĠ
âĢ Ŀ
O R
} _{
( $
are nt
ĠĠĠĠĠĠĠĠ ĠĠĠĠĠ
Ġt est
co mp
" );
id er
Ġre g
d ot
Ġap p
ig ma
E N
Ġd if
-------- --------
Ġw ork
g a
t ot
h o
d ate
Ġ= >
as h
Ġ! =
Ġm an
} ^{
oc k
A L
I D
Ġ\ \
d er
Ġm odel
- \
c ess
ire ct
ar ch
Ġa d
le m
as k
../ ../
Ġit s
Ġc all
Ġme thod
s ource
C ol
a x
l ation
Ġn umber
A R
is s
Ġe xt
Ġw ere
Ġf ollow
==== ====
Ġar g
Ġa g
/ **
me ssage
ar ray
riv ate
Ġst ate
o k
E lement
Ġbe en
3 2
y s
ib le
res ent
Ġs pec
Ġg ener
W e
amp le
n g
Ġthe y
Ġu sed
Ġ ?
a w
p re
T r
Ġthe n
S et
ph i
^ {\
te st
Ġwh ere
c l
Ġc re
w ork
con d
N ode
Ġe lement
al s
ra me
Ġe vent
1 1
) :
h at
u i
# #
w idth
u ff
Ġh ref
f ile
Ġo ur
ol ut
Ġs c
Ġc omm
at ing
il ity
se ction
ĠĠĠĠĠĠĠĠĠĠĠĠĠĠĠĠ ĠĠĠĠĠĠĠĠĠĠĠĠĠĠĠĠ
S S
Ġsu ch
Ġth an
n er
re qu
K ey
Ġb et
" )
n ew
at er
ht t
lo g
al ign
Ġ} ;
l ambda
y p
Ġin to
Err or
cc ess
li ent
ĠI t
E vent
he ck
ro ll
Ġe qu
Ġd ist
Ġc or
Ġg iv
ĉĉĉĉ ĉ
o v
Co mp
Ġ{ \
ĠU n
w h
Ġb ack
1 5
ind ow
il ter
p art
oc ument
str uct
um n
p end
ut h
n ing
Ġcon s
Ġpro v
Ġf ield
io us
b f
Ġu nder
Ġre l
ĠâĢ ľ
Ġar ray
oo k
de l
iz ed
P ar
ay s
m er
con t
Ġ );
Ġn ode
il on
] .
Ġe ach
y le
Ġc om
b r
S e
mathb f
tot ype
in ce
le an
2 5
n ode
I T
Ar ray
m an
/ >
s ize
Ġ: =
Ġl i
ps ilon
in dex
c a
Ġf ile
it le
Ġwh o
f ore
l ate
Ġ} );
Ġerr or
T est
ĠC o
Ġp oint
bo x
ase d
Ġa ct
l er
Ġch ar
od y
at us
tr y
Ġdif fer
f ace
Ġsh ow
ĠC on
E n
d is
ra ct
ag es
ation al
we en
re am
ĠR e
p r
Ex ception
s igma
T ime
pl ay
Ġ( !
ur l
ic es
ug h
Ġof f
o us
Ġ ra
In dex
it ies
Ġor g
in ter
C lass
Ġ im
b eta
" :
lo c
Ġl ist
ang le
Ġm ay
v en
* }
Ġ/ *
S E
G et
ord er
ĠI f
1 00
Ġ %
t able
l a
Ġab out
Ġg o
B y
D E
k en
le te
^{ -
U n
au se
ment s
F or
Q u
us h
he d
ĠP ro
Ġre p
Con t
Ġ X
erv ice
Ġat t
if y
() .
Ġp h
til de
Ġ( \
Ġus ing
Ġt ra
a ction
" />
v iew
cal l
er n
iz ation
on ent
ot e
Ġ ent
Ġsh ould
pro totype
Ġo ptions
sum mary
g round
1 4
in s
r ite
ifi ed
Ġc al
Ġo per
C T
/ *
ra ph
1 3
Ġh ad
lo b
+ \
Ġbet ween
H e
in clude
Ġthe se
fig ure
} {\
u me
Ġw ould
Ġp ol
Ġc urrent
c ed
a ke
Ġy ear
() );
+ +
g amma
F ile
ers ion
Ġgiv en
math rm
' ;
at t
Ġ z
Ġs ystem
al ly
Ġcor re
' :
d ing
Ġp o
Ġn on
Ġ// /
uff er
Ġt e
g le
port s
p en
Ġst atic
ut e
"> <
ou g
A N
ver s
ol og
^ \
R equ
Ġcon tain
t op
Ġs er
r c
ff ect
lo ad
r ho
it ial
ĠF or
Ġf inal
o ptions
ĠĠĠĠĠĠĠĠ ĠĠĠĠ
Ġpro b
re ak
ribut e
[ '
p ath
Ġ --
Ġp e
re d
" ;
ra w
ist s
Ġst art
ĠH e
6 4
del ta
or g
t s
ĠS tring
] {
() ,
mo ve
n o
ire d
j s
St ate
ĠA r
S h
on s
Ġh and
Ġa c
time s
ver y
m all
Ġs ame
w w
Ġm at
Ġa fter
o ve
ens ion
the ta
cal e
l ist
) }
a ir
ro l
ut il
Ġn il
b y
g r
d ition
M E
oo lean
y mb
1 7
Ġf e
Ġh igh
le q
Ġg roup
D ef
g y
Ġpar ameter
Ġp rivate
ver t
ymb ol
co unt
Ġde sc
D e
o ol
P ath
av a
i ent
c dot
ĉ ĠĠĠ
ro ugh
w ard
Ġk n
Ġm in
ĠS e
an n
$ -
per t
ur ation
ta u
er m
form ation
.. .
O f
col or
Ġor der
et h
U L
trans lation
Ġdiffer ent
re n
s ign
it ed
Ġex pect
ut ton
V iew
en se
T ext
Ġval ues
b ig
con st
R ef
ra p
}$ ,
le ar
Ġbe c
l ink
def ined
Ġh er
3 0
m ap
def ault
Ġ_ _
ical ly
ri ption
}$ .
Ġs ign
D el
Ġ$ (
ri x
il y
Ġr ight
ro p
P I
Ġthe m
19 9
ar row
Ġin dex
Ġs ize
' ]
eq ref
A s
f unc
def ine
olut ion
} (\
se c
Ġdef ault
v oid
in es
o bject
) {
me mber
t ing
op le
co pe
n b
P E
Ġap pro
5 0
Ġf act
Ġ Q
Ġstr uct
T E
Ġth row
R O
. </
Ġse e
Ġp ath
Ġwh ile
M ap
are d
ce pt
' t
A n
E qu
htt p
ĠE x
part ial
Ġass ert
v ed
e vent
g roup
re g
ress ion
e ver
Ġ Z
Ġinst ance
h er
cre ate
ot t
W ith
ction s
Ġm ost
Ġpro du
te ct
ir c
res ult
Requ est
ft y
Ġs a
In fo
c omm
g in
Ġ ed
p m
ĠĠĠĠĠĠĠĠĠĠĠĠĠĠĠĠ ĠĠĠĠĠĠĠĠĠĠĠ
n u
an k
sc ript
ĠA n
Ġe st
um er
Ġdo es
p ack
C ode
C O
in fty
qu e
m odule
ist er
ag er
Ġrequ est
Ġprov ide
in put
ĠA s
Ġfollow ing
oc i
f ul
S ystem
is ion
Ġh ow
se e
ur ing
te mp
ar ge
pert ies
nb sp
enc es
| \
$ $
Ġa cc
n et
ra g
ent ial
w n
lo se
m it
s q
S ize
Ġpart ic
Ġth rough
T R
2 4
Ġvar i
or ld
O n
I te
Con text
u ch
an c
//// ////
Ġ( )
u se
V al
ĠâĢ ĵ
Ġw ell
l ay
Ġd irect
Ġl ong
ff set
` `
Ġt ext
ome ga
Ġ! ==
e lement
f ield
et urn
ri de
00 0
() )
val id
H and
p ri
st ance
is m
ma x
Ġt emp
ar s
Ġne ed
err or
Ġresult s
Ġin put
st er
ĠD e
h as
ĉĉĉĉ ĉĉ
ow er
ou se
enc y
ĠN ew
spon se
Qu ery
Ġre ad
I ON
ument s
I C
M an
tern al
Del ta
Ġc l
Ġbo th
A tt
tt p
y m
se arch
l ag
se lect
p o
******** ********
it er
le x
oug h
ĠA l
F ield
able d
A C
c ript
ĠĠ Ċ
orm al
eq n
r t
Ġlo cal
U R
iv ers
Con fig
Ġs ource
t ab
st ate
is hed
me d
Ġf ound
Ġm odule
Ġm ap
qu ad
Ġcon text
r on
Ġs im
Ġcons ider
we b
O r
p oint
ĠG et
Ġma x
ing le
M L
cent er
tain er
gra ph
Ġl ast
A dd
Ġs he
Ġj ust
Ġpl ay
Ġli ke
old s
Ġr un
Ġn ow
Ġt arget
ab ility
2 2
F orm
st art
Ġ/ >
Ġimp ort
ure s
th ing
it or
ap i
Ġre c
lob al
b e
Ġc heck
Ġcall back
p osition
] )
Ġsup port
Ġma ke
iv ely
l ing
Ġpe ople
Ġst ud
Ġc ode
Ġto p
Ġm ust
Ġ ,
Ġc ent
ĠT r
. ,
x i
st yle
U p
wh ere
Ġo pt
yn c
\ ,
Ġre f
Ġbec ause
Th is
tr ue
i k
am s
pl ace
l and
Ġwh at
ass ert
ant s
Ġf ind
if t
me thod
Ġbe fore
vel op
Ġm y
A l
ore m
L e
an e
Pro perty
u mp
al ity
g or
Ġa ut
3 3
ur s
t ings
Ġse cond
b lock
Ġb ase
o ther
p ublic
. $
Ġob tain
b m
ff ic
A t
loc ation
in ition
4 0
Ġob serv
L A
} }\
Ġt yp
Ġp r
)$ .
con fig
Ġm ult
n ect
ic on
Ġle ft
Ġback ground
le ss
in ing
s up
v ious
ord s
mer ic
c m
ri ct
Ġe very
Ġpro cess
Ġch ild
Ġb reak
Ġcon fig
} [
Ġlo w
Ġs ur
et work
lo at
Ġde c
ro id
Ġy our
Ġag ain
Ar g
lic ation
Ġd ocument
p on
M ess
Ġe ffect
im it
Ġal low
Ġcont in
Ġb el
f e
mp ty
E D
eth od
Ġn ext
en u
Ite m
Ġrep resent
Ġp osition
us s
Ġcon dition
b ase
M A
ot s
In ter
as on
m ark
Ġb ound
Ġm od
" "
ust om
In t
p ush
id ent
f rom
s k
Ġcre ate
G roup
N ot
Ġco uld
uth or
Ġbe ing
ĠS h
end s
op y
N ew
me s
P h
8 0
e psilon
[ ]
O b
Ġd i
id d
U T
Ġse lect
O ver
L O
ix ed
D is
Ġp ri
us er
I m
Ġ čĊ
Res ult
u c
Ġf il
S ervice
re ate
( {
Ġdist ribut
w ide
Ġman y
m on
u f
eqn array
ro ss
======== ========
Ġin formation
as ses
Ġsa id
D es
* /
n av
b l
me di
Ġlo g
I S
b ug
Ġan al
an sp
re at
a z
b ody
Ġor ig
M odel
iss ion
O ptions
2 1
uild er
le g
Co unt
Ġl arge
ul ation
Ġin v
Ġin clu
me ga
ific ation
} );
p os
Ġv iew
Ġw idth
Ġdef ined
C all
Ġs mall
l p
Ġs ince
t es
ps i
oo gle
I s
t en
D O
ĉ Ġ
er o
F rom
Ġyear s
Ġme as
Ġf in
O mega
Ġcont ent
p y
} _{\
w ith
ac es
Ġth ree
ct or
Ġpro perty
Ġ( $
O ut
ott om
d o
Ġ+ =
ers on
sq rt
ĠS et
c urrent
)$ ,
ĠĠĠĠ Ċ
"> </
ect or
Ġsp ace
ar n
6 0
roll er
ap ache
Ġrequ ire
Ġw rit
Ġs imp
che ck
) (
C H
Ġ$ {\
n ext
a pe
âĢ ĵ
ur al
o ot
id get
b utton
de pend
j o
ang u
F F
Ġb lock
2 3
Ġus er
s ide
Ġe ven
Ġid ent
r id
m odel
E nd
d ic
l ight
F unction
ile d
^ *
Ġv ery
c ase
Mess age
G E
ser ver
ann el
Ġin itial
Ġs ol
Ġm ain
ec ut
Ġdis c
Ġl ength
our ces
ĠC ol
Ġle t
Ġh ere
act er
w it
or n
he ad
A D
an y
S er
i er
con text
Ġp resent
v are
t al
G amma
d oc
M P
pon se
f ra
n on
che d
Ġcal led
ĠF ig
Ġm atch
ath er
d own
il ar
return s
ub le
ener gy
end er
ĉ ĠĠĠĠĠĠĠ
---------------- ----------------
Ġre fer
ch ild
ne ction
vare psilon
ta il
ĠA meric
it u
im ation
vers ion
L oc
w ord
s im
Ġper form
ual ly
Ġm on
~ ~
m m
UL L
Ġres pect
iv ed
Ġcorre spon
Ġin cre
olog y
Ġin te
che s
Ġex ample
d ay
ĠĠĠĠĠĠĠĠ ĠĠ
Ġw ay
Ġco unt
if e
Ġbo ol
Ġex per
um b
en ame
c or
h and
lic k
Ġtr y
Ġr ange
iv er
graph ics
v ice
ca ption
Ġv is
] );
r al
de sc
iv es
Ġt itle
Ġle ad
S ty
f in
To ken
Ġth ose
U N
ex p
sub section
ir t
s pec
v es
Ġpo ss
yn am
w ay
Ġt ak
In put
Ġle vel
ens ure
he ight
= '
Ġv ersion
ch ool
re move
Ex p
able s
ob j
Tr ans
over n
m ult
text bf
Ġde pend
Ġin clude
M ethod
Ġe v
Ġ\ ,
e k
ĠG L
IN G
Ġ q
^{ (
Ġ url
ĠR eturn
a ut
op er
Ġre al
ĠA ss
Ġcol or
Ġb l
I G
o pt
cont ent
) =
f alse
L o
Ġre t
gor ith
qu ence
i or
R eg
ifi er
b it
bo ve
C lient
tect ed
A S
Ġkn ow
} =
d f
it ive
Ġt er
Ġp arent
ivers ity
ail able
p arent
tr ic
ser t
A pp
Ġex ist
ra di
Ġout put
oc us
ic y
ator s
}^ {\
Ġp os
A ll
++ )
Res ponse
Ġ< <
Ġme ssage
htt ps
L og
( (
Man ager
im age
a it
Ġinter n
Ġa bove
qu ery
read y
and om
Ġc ur
m y
arg in
at s
t arget
E S
ĠI s
o x
t itle
act ive
Ġb ased
Ġp res
ĠCo mp
Ġb r
include graphics
Ġde velop
ri es
Se lect
Ġfe ature
Ġd uring
le ase
T H
Ġl ink
ĠL e
at tern
Ġdesc rib
out h
2 7
m at
im ate
9 9
EN T
Ġh im
angu age
am ily
Ġval id
l ish
ta g
re t
Ġm ark
Ġo pen
ĠO n
A B
im al
ar i
at tr
Ch ild
O O
r ic
ist ory
r angle
Col or
m d
ime s
00 00
Ġgener al
Ġun defined
l en
Ġlo c
ol ume
St atus
c ss
t n
N umber
ch n
Ġa v
ig ger
Ġs ingle
Def ault
r u
var i
G L
Ġimp lement
t ic
and ard
im ension
in fo
F act
Ġma de
n ess
right arrow
Ġh ttp
Ġre sponse
Ġ energy
St ream
4 5
2 8
U til
ow ever
add ing
im um
Ġp op
an el
pro perty
Ġre st
o h
st atic
Ġ enc
Ġd id
D ate
Ġa ction
[ \
\\ \\
Ġb uild
Ġb order
or th
al e
var phi
' '
Sty le
Ġch ang
d b
Ġd en
S ub
li b
o ption
Ġparameter s
Ġst yle
Ġarg uments
Ġob j
ge q
Ġmeas ure
19 8
om ain
ex ports
Ġim age
W idth
Ġm ass
lo y
er ence
. âĢĿ
T able
Ġadd ition
] (
Ġde ter
A nd
Att ribute
c ore
s i
lu gin
ĠĠĠĠĠĠĠĠĠĠĠĠĠĠĠĠ Ġ
ww w
a h
l im
7 5
ate g
al th
gra m
et s
ve c
Ġwith out
x y
C omm
} ).
Im age
Ġ item
i que
Ġre ce
H T
in ary
pro of
emp h
ĠO bject
. /
Ġp ass
! --
n ull
Ġw ant
Ġse ction
ĉ Ċ
ch i
B ig
( _
in ation
Ġo p
2 6
lo t
irt ual
Ġm ode
I f
at ter
Ġch ange
ac y
f ilter
u di
Ġcomp ut
Ġw indow
or age
ĠT est
Ġn etwork
Ġwith in
ur ity
ĠTh ere
9 0
.. ..
Ġlo ok
ĠA nd
Hand ler
ur ther
ĠC omm
Ġl en
d s
ĉ ĠĠĠĠĠĠĠĠĠĠĠ
c ul
ir on
in it
an ces
Ġo wn
g ress
Ġd at
Ġelement s
o un
S ource
iv al
al k
g n
B ase
app end
Ġo ld
Ġs um
Ġexpect ed
requ ire
requ est
Ġs at
l ast
. ~\
ro du
Ġap pe
row s
ys is
so ft
Ġc lo
L ine
C ell
Ġa m
over line
struct or
E xt
ĠS ystem
ith er
## ##
Ġd own
f rame
d raw
Ġbe h
N S
n s
arg s
ĠĠĠĠĠĠĠĠĠĠĠĠĠĠĠĠ ĠĠĠĠĠĠĠĠĠĠĠĠĠĠĠ
Ġo cc
iv ity
ith ub
ribut es
d ir
he ther
Ġpre vious
In stance
. "
ip le
i od
Ġpro ject
in c
str u
ex pect
rom ise
Ġpartic ular
Ġfunction s
ef ore
Ġpro perties
Ġm ag
Ġg u
I P
ib r
p age
Ġst d
ĠT o
Ġco un
E X
=" ../../
h old
Ġj ava
co me
Equ al
dis play
w are
w ays
Ġhe ight
d t
I L
r l
e ad
& \
C E
Cont ent
b s
Ġt able
ĠR es
Ġm uch
t ed
sign ed
pro p
o od
c lient
6 6
at ely
Ġs rc
Ġ( (
Ġspec ified
i ence
n umber
B lock
ic ense
b olds
p ose
en e
Ġw orld
B uffer
fra k
j son
ter s
3 5
. }
bolds ymbol
I t
Par ameter
c ap
du ct
Res ource
l it
] [
us ing
pt r
re l
ge st
ap er
Ġd on
ĠN ULL
Comp onent
f ind
7 0
Ġb oolean
) ^
u ck
N ull
> (
or ph
Ġf rame
m od
Ġprob lem
ens ity
I mp
S p
St art
g ithub
Ġp ower
Ġl aw
Ġorig inal
] $
Y PE
L ength
Ġv er
L et
gorith m
lic e
Ġcon f
ar ning
Ġfollow s
and s
Ġst ill
Ġcont rol
201 5
}, \
2 9
Ġinclu ding
Ġarg s
U S
ch ar
R ow
P oint
Ġsim ilar
Ġdef ine
F ilter
un k
c an
Ġsup er
Ġsh own
re en
Ġsu ccess
l t
J S
e ps
A ME
rit er
Ġe lect
O T
f low
Ġs pect
pack age
s ing
w ise
Ġpoint s
ĠUn iversity
Ġcomm un
l ang
Over ride
E d
o le
Ġl abel
Ġass oci
h line
Ġl imit
iz er
Ġre du
ord ing
Ġg ra
Ġqu ant
v iron
o ffset
Ġ[ ]
Ġp ost
ra int
Ġchar acter
s w
: "
Ġto tal
B uilder
U ser
H E
Ġposs ible
Col lection
Ġagain st
i j
Ġ ]
Ġe ar
on d
val u
Ġhe lp
al le
Ġc a
b ind
Ġcol umn
Ġt ake
math frak
} }$
is on
Ã ©
amp les
ar r
Ġt ri
L ay
Ġc lear
ad ata
re c
O per
Ġmodel s
c irc
T ag
v is
Ġb ro
ve st
is f
F rame
Ġmethod s
ite ms
l in
en ded
Ġre ma
ic ro
Ġ et
wit ch
f irst
ver se
Ġse quence
p rivate
g ener
g es
ib ility
Ġd ue
ore d
ld ots
s rc
201 6
Ġqu ery
up date
l angle
Ġs erv
ref ix
L ambda
ym me
Ġs che
g oogle
Ġter ms
D ec
Ġo ption
0 1
Ġinter est
201 4
y c
name space
S tr
Ġf our
Ġd er
Ġav ailable
G ener
Ġrequ ired
} ),
Ġcol lection
Ġf ilter
ab ase
, "
Ġis s
Ġu int
Ġm ak
par se
w rite
Ġpl ace
Ġra di
Ġstruct ure
Ġj o
A ss
Ġs k
ĠB y
20 19
lo cal
A d
Ġit er
h ip
Ġser ies
li ed
Ġ{ @
te x
t oc
pr int
c er
ol ve
3 4
Ġ Ð
Ġal ready
R ec
. \
app a
Ġl ay
Ġa round
l at
ver age
Ġkn own
ĠS c
it al
Ġ` `
Ġpro m
Ġg raph
Ġmat rix
201 7
type of
end if
s l
201 8
C ache
Ġup date
ĠH owever
ĠR eg
end ing
ĠThe n
p ol
he ader
Ġreg ion
lu ster
_ .
W indow
row ser
Ġgo od
k it
Ġdis play
He ight
AT E
Ġs ervice
ot ential
ma il
Ph i
yp es
e e
ĉ ĠĠĠĠĠ
5 5
Ġdistribut ion
k appa
ĠP ar
on y
Ġf ull
/ \
O P
O ffset
U I
V ersion
ateg ory
a f
Ġe mp
ĠI N
Ġg overn
\ |
con tainer
ĠE n
ĠReturn s
Ġevent s
he s
ĠĠĠĠĠĠĠĠ ĠĠĠĠĠĠ
J son
Ð °
Ġ-- >
ord in
ot imes
ist ic
depend ent
b ra
Ġp age
Re ad
s f
m atch
Ġin dic
i i
l ished
i res
Ġc ar
op en
b tn
Ġhe ad
O M
li es
S pec
se mb
a iled
Ġm ov
Ġ{ };
j or
Ġn ormal
ĠA dd
u ary
Equ als
m box
List ener
n ab
m t
U E
Ġr ule
( [
Ġre port
//////// ////////
ur y
4 8
C ase
Ġme an
lag s
g t
ĠD ef
ĠI nd
c ast
col umn
ire ction
Ġreturn s
Ġco ur
UR L
b ottom
et y
C K
p c
201 3
o ff
stru ction
Ġg r
ĉĉĉĉ ĉĉĉ
A P
âĢ ľ
so le
Ġc lose
r ation
cite p
Ġoff set
Ġ es
ater ial
Ġt ask
Ġs ide
ĠP h
ĠAr ray
om en
Ġco py
sp lit
Fact ory
Ġse ver
ide o
lic it
3 6
ess ion
to ol
ĠAmeric an
Ġd iv
unt ime
Ġb as
Ġa ccess
Ġw hether
D I
' ).
ut ure
Form at
at rix
h ost
Ġan other
ĠA d
Ġg lobal
g o
B e
a ded
idd en
li p
Ġg ame
ensure math
3 8
av ing
Ġab s
Ġshow s
ER T
r un
Ġsat isf
Ġp erson
Ġt erm
w indow
ĠO r
if f
st ro
M em
v ider
ch ange
ĠL ist
N o
} )$
C heck
; &
Ġin f
le v
Ġbe st
rap per
de s
Ġass ume
viron ment
Ġte chn
ache d
ĠW h
ac ity
p ng
nab la
ens ions
on ents
Ġc ap
Ġt ag
od ing
s g
Ġcontin u
3 9
T P
Ġe ither
\ [
i ct
ER R
text it
ial ly
og raph
Des c
We b
Ġst ates
Ġf ail
st atus
ĠN o
ex ample
H el
, âĢĿ
Ð ¾
S c
' ),
R ange
v as
F I
ens or
s cope
Ġline ar
ph p
Ġ ke
qu ot
=" +
M S
al f
i sed
Ġme di
s cale
A A
cl us
P age
201 2
Ġ[ ];
x ml
d om
Ġ- >
M odule
19 7
? :
g ing
Ġprovide d
toc ol
ĠA ll
C ON
C reate
Ġconst ant
Ġcomp onent
t x
L abel
in a
Ġ ge
ĠUn ited
Ġstud y
Val id
ir d
b uf
O S
> >
on ly
ent ion
Ġc lient
T D
desc ription
f ill
Ġl ater
Ġw rite
Ġimport ant
Ġph ase
Call back
oh n
Ġc ell
ro ot
Ġintern al
Ġcorrespon ding
Ġcom b
}} {
P art
Ġtr ansp
Ġal ong
c ell
M ode
po sed
non umber
Ġs cal
Ġobject s
Con tainer
Ġm ove
P re
ri st
Ġp air
Ġro ot
ial og
ĠC an
3 1
ta x
Ġle g
om ic
P ol
Ġcomp let
I M
b uild
\ %
" ).
4 4
Ġex ists
us ic
S igma
in st
Ġs pe
ĠY ou
Ġp otential
S up
im ent
A ction
U rl
Ġ ~
ĠM ar
in ess
s mall
om ent
ĠR o
m ission
Ġstr ong
Ġ" ""
f ont
Ġst andard
te ger
Ġal ways
o ice
ĠL et
Ġs cale
ĠS o
temp late
T ypes
Ġ> =
Ġde tail
0 5
Ġs ay
Ġi de
ĠA t
e v
l ap
" .
form at
ffic ient
expect ed
u ro
fo ot
Ġinte gr
Ð µ
Ġle ss
n ow
Ġv ector
201 1
3 7
l s
Ġlo ad
ss ion
Ġth ink
f oo
id ual
Ġf ree
n own
um an
ĠB ut
as sed
an ch
app ly
x is
Ġint rodu
Ġs olution
( &
Ġfield s
[ "
er ences
as ing
Ġn ear
r ule
> &
u str
Ġpro tected
param s
call back
il li
Ġin vest
Ġre move
" ),
Ġl ife
f n
Ġprodu ct
B ar
d at
Ġcontain s
E T
ĠS he
Ġcal cul
Ġf amily
j e
Ġin du
Ġd one
Ġar t
g ed
M et
Ġobtain ed
m enu
b ul
Con st
Ġc atch
Ġp ort
Ġb ook
ra m
Ġf ore
app ing
Ġm argin
\ !
ĠE ng
ill ion
Ġle ast
s m
T ask
ĠU S
{ }
" ]
Tr ue
ast er
Ġsh ort
b all
ar m
j ava
c it
IN T
ĠA pp
Ġcomp lex
Ġper iod
it ut
ry pt
el se
Ġst atus
u int
Ġres ource
A M
ĠH T
Ġun til
T arget
mo unt
20 10
A ct
Ch ar
Ġoper ator
} -
Ġs chool
Ġh ome
Ġthrow s
S P
Ġr andom
Ġdef inition
T O
Ġtime s
: (
\ ]
in stance
C C
re place
ĠE rr
dot s
p ost
Ġform at
N ext
ĠThe y
Ġapp ly
Ġre nder
Inter face
Ġ$ .
un e
Ġcon nect
Ġsever al
pro cess
Ġz ero
Ġd ensity
st ream
Out put
Ġp ack
Ġex ecut
F A
L ink
Ġme ans
ĠJ S
ĠF r
Col umn
ĠM ath
Ġh ost
sh ow
Ġp aper
Ġdif f
Ġext ends
Ġb ody
E L
I I
wide tilde
yn tax
comm and
Ġinter face
ot o
and roid
Ġdeter m
Ġappro x
{ -
t le
ĉĉĉĉ ĉĉĉĉ
Ġlow er
=" #
Ġchild ren
Ġd ay
Ġn one
Ġcondition s
Ġorg an
A ut
s u
P osition
ra in
v an
Ġpro p
ĠS p
F e
u sed
Ġequ ation
out put
B utton
e ach
Ġbeh av
re sponse
Ġ row
d ocument
P RO
F ig
Ġst ep
Ġse arch
mb ers
Ġc irc
sk ip
ur ch
Ġc are
Ġb us
Ġb uffer
ĠSt ate
Ġanal ysis
Ġassoci ated
Ġse par
T YPE
re nder
T op
ĠW hen
Ġset s
Ġn eg
Ġd ate
Ġf ew
ĠĠĠĠĠĠĠĠ Ċ
Ġt urn
a int
N O
Ġser ver
ĠE X
Up date
i ction
Ġcase s
in ner
6 5
iz ing
am il
st ract
Ġperform ance
Ġf lu
pri me
ĠA PI
S che
ist ent
d rop
sc he
ĠSt ates
Cont roller
ock et
Ġpre di
Ġd ynam
Ġthe ory
Ġsign ific
b b
Ġr ate
R ep
e ded
und er
z eta
B U
Ġc ustom
Ġadd ress
6 7
Ġp ut
ward s
Ġf ont
ĠL icense
v ing
oc ial
web kit
Ġinst ead
b ook
i um
Ġac count
Ġspec ific
ec ess
it es
el s
ct x
Ġare a
st and
oper ator
\ {
S C
a i
le vel
ap ter
) ]
**************** ****************
center ing
Ġme m
Ġtyp es
ĠG e
Ġspec ial
Ġf urther
ab s
m ar
Ġtrans form
Ġbel ow
st ack
ĠâĢ Ķ
ul er
ase s
C l
=" ../
V ER
Ġre cent
ĠM an
Ġcre ated
Ġqu est
Ġsimp le
wh ich
Ġtemp late
p th
st d
ab ly
il t
} +
d ist
c ache
` .
Ġre co
le y
Ġappro ach
c at
ĠI D
ol ved
res sed
Ġex pl
Ġs cope
Ġe as
ĠF e
Ġc r
ĠT ype
M O
l ong
Ġpar se
Ġpl an
; </
c lose
jo in
T emp
ĠS up
He ader
B ox
Ġfil m
t ri
Ġarg ument
m id
ac ed
ig ation
Ġcont ribut
; \
Ġpro gram
Ġoper ation
ĠC al
u k
riv er
ent er
t ml
alle l
or iz
Ġpro of
Ġtrans ition
Ġrel ations
Ġa uthor
par ameter
Ġm ight
Ġc ref
ĠThe se
S I
Ġre search
he et
Ġcomp ar
ĠM ay
val ues
n um
Ob j
Ġe mpty
Ġimp ro
R un
Ġst ream
ĠD o
Ġco up
H ash
back ground
R em
em ma
D ocument
Ġl ines
Ġp assed
Ġcent er
me ta
) =\
Ġrespect ively
str ong
Ġequ al
Ġgovern ment
or ies
a de
ag ed
i ps
M ax
R L
Ġcan not
Ġph ys
Ġv ia
Ġ& =
Ġm er
er tain
ĠThe orem
P er
ĠP ol
Ġpol it
Ġtype of
om orph
Ġ ;
B ack
emp ty
Time out
sh ould
itu de
Ġto o
Ġre spon
Ġde g
un it
ad ow
A g
tab ular
b uffer
Ð ¸
ĠC heck
ug gest
Ġl ight
Ġh app
( -
re st
ĠJ ohn
ĠG ener
) </
D ep
M in
op s
âĢ Ķ
} =\
o ke
urs or
util s
Ġl a
0 4
Ġtr ack
R ender
i as
olog ical
z e
8 8
Ġdi ag
200 9
f loat
Ġro le
D F
Ġde l
AB LE
i ed
ĠE q
ac ing
Ġal gorithm
b a
M atch
p atch
) }\
th m
t ree
W rite
R eturn
Ġrefer ence
er ature
Ġcontain er
Ġch annel
i ans
get her
D B
am ent
Ġwe ight
C L
Ġest ab
Ġre d
Ġf ixed
Ġnode s
p ed
ist ry
Ġhand le
Ġbet ter
Ġd r
Ġreturn ed
ĠT e
Ġ{ }
iz es
se l
n ormal
Ġb u
Ġp adding
Ġm ot
Le ft
ĠC ar
Ġpar ams
Ġp ub
th s
Ġsystem s
Ġc ache
// /
trans form
Ġma jor
ang ed
at io
re m
und le
Ġrec ord
b reak
Ġin it
0 2
Pro vider
k s
Ġap i
Ġst rict
ĠSe ction
Ġin div
age ment
ma in
Ġest im
="../../ ../../
ibr ary
4 9
Ġin s
ĠAss ert
ump t
) ^{
Ġhas h
ch o
p df
Ġre mo
A PI
Ġv irtual
Ġsup p
s v
m ode
E E
Ġb it
U M
iv ing
s a
I O
action s
P si
Ġsignific ant
se cond
Ser ver
for med
A ccess
r ange
m ost
Ġad ded
Ġre ason
al t
} /
4 7
Ref erences
ent ry
ol l
q l
Ġs m
ick er
N AME
c ur
Ġatt ribute
W h
ĠSe e
Comm and
im er
un ded
ur b
ĠâĢ ĺ
ĠN ot
Ġpos itive
g en
Ġhigh er
D o
Ñ Ĥ
Ġmult iple
ĠN one
c y
by te
b efore
ĠC l
20 20
W idget
0 8
S ec
lu g
im ages
ĠW orld
ĠY ork
ear ch
idd le
g l
$ )
Ġme mbers
ec ute
6 8
Ġt ree
ri e
ta ct
P r
ĠB o
200 8
Ġ ...
Ġ eng
Ġfin ite
E mpty
de bug
P P
Ġv ert
Ġcomm and
Ġne ver
Ġde sign
Ġdo uble
Ġc la
ĠCo un
Ġaut o
{ (
id ence
tain s
Par ams
Th ere
od er
Ġde v
Ġrel ative
re ed
h ash
Ġchang es
Ġn umer
Ġe valu
not ation
O ption
Ch ange
Ġun it
Ġn ecess
b order
ĠN ational
Ġf l
P l
Ġse en
ĠJ an
Ġe lem
Ġm oment
C an
th ough
K ind
} |
Ġoff ic
Ġg row
Ġaddition al
icro soft
9 5
pt ure
p op
Ġconsider ed
Ġp ay
r ing
i ol
Ġst ore
pro to
T ree
Ġh istory
Ġto ken
Ġequ ival
Ġdescrib ed
the n
Ġbo x
is ing
ĠErr or
Ġdist ance
ul y
line ar
a fter
Ġs ymme
ed ia
en n
Ġl arg
Ġw on
c os
hand le
Lay out
Ġindiv idual
0 7
Ġcontin ue
}^ \
c el
lem ma
Ġme t
Ġfeature s
Ġand roid
4 2
rib e
b ased
Ġwe ek
oo st
th at
Ġpr int
Ġgo ing
Ġbe gin
th ers
Ġexp ression
Ġf n
ph er
Ġg ive
er man
cdot s
Ġg l
wide hat
ent ly
f il
im g
web pack
old er
spec ial
V is
. ~
if orm
imp le
ome try
P o
Ġte am
y les
S cript
k nown
de v
on al
Ġact ive
ĠS outh
E ach
F T
Ġf requ
gr id
Ġse c
Ġex act
semb ly
sc roll
ty p
En try
__ (
Ġname space
olut e
ĠĠĠĠĠĠĠĠĠĠĠĠ Ċ
ĠC reate
Ġth us
Ġfile s
Ġent ry
f s
our s
ĠN ote
d ated
Ġ[ '
Ġto ol
tt ps
LA SS
pro ject
ĠS ub
Le vel
s in
` ,
ĠC lass
ch an
ĠR ep
Exp ression
Ġco st
res h
Ġbl ack
ate gy
fer ence
Pro p
R A
con nect
uro pe
Ġon ce
% ;
ch ie
ge bra
ap pro
ĠA ct
serv able
Pro perties
Select or
Ġst at
}_ \
udi o
pl it
0 3
Ġk ind
\\\\ \\\\
vari ant
olut ions
at ural
w in
b ound
b oolean
imension al
set s
Ġ* *
bo ol
Ġc ross
P os
Ġc rit
N av
Ġapp lication
Ġdisc uss
ul a
S O
Ġf low
Ð ½
ref erence
Ġrel ated
Ġh ttps
y mp
serv ice
200 7
Ġd om
Ġf uture
enc ies
Ġtra ining
Ġgener ated
Ġgroup s
al ax
Ġfact or
ĠS ince
Ġconfig uration
Ġl anguage
p a
u id
ind ent
oug ht
0 6
`` `
to ken
Un it
T I
bo ard
ra ction
Ġh y
< ?
ĠD is
ĠĠĠĠĠĠĠĠĠĠĠĠĠĠĠĠ ĠĠĠĠĠĠĠĠĠĠĠĠĠĠĠĠĠĠĠ
Ġs ample
D ir
or ig
c lo
Ġrepresent ation
je ction
he l
Util s
ĠM in
ĠF ile
il ities
Q ue
er a
Ġin dependent
}\ ,
Ġs s
Ġe mb
pp ed
E nt
M od
ag ing
ar ies
ig en
sh ip
j av
ion al
stro y
c lear
Ġear ly
$ {
l n
a uthor
Ġ< =
re q
Ġd omain
F irst
oo g
Ġcomp lete
it tle
not e
Ġf ar
200 0
ĠO b
Ġ\ {
ĠS er
ĠIn st
Ġloc ation
Ġd raw
C opy
Ġtemp erature
P O
text width
C om
m iss
Ġkey s
Ġph ot
0 9
Ġinstance of
Ġro t
u x
} ]
() ->
Ġcorre ct
im s
Ġs ent
Ġcon struct
, -
Ġh ard
Ġc ertain
se qu
ĠU p
Ġanal y
Ġg reat
Ġli k
s ort
Ġf loat
Lo ad
ĠT O
Ġcon nection
h r
Ġvari able
PE CT
Ġab le
200 6
umb ers
ic ation
ĠB e
O ne
il it
}) \
Ġset tings
ber t
V E
Ġf it
equ iv
Id ent
Ġa verage
ĠCh rist
res ource
Ġed ge
Ġ* )
ĉ ĠĠĠĠ
ly ing
Ġan g
Ġme mber
in sert
sh ift
Ġwrit ten
li ke
f l
ĠR ef
Ġp ract
ra ft
S U
V er
ĠW ith
& =
ĠC ont
O pen
" `
ase t
âĢ ¦
}} (
4 6
sub set
leg ate
Ġco ordin
Name s
q quad
R ule
Ġcomm on
Ġp attern
D irect
V AL
Ġappe ar
in o
< !--
Ġs ort
5 7
Ġre ally
Ġselect ed
Ġto gether
$ (
c up
Ġhand ler
ĠW ar
cont rol
Set tings
St ore
g an
set tings
ĠS te
dis abled
ĠC or
net ic
le ms
Ġ items
S H
Ġof ten
ĠS ec
Ġsub ject
Ġc luster
C D
Ġcoun try
Ġbe come
ft ware
RE F
Ġs uggest
M eta
Cont rol
Add ress
================ ================
h over
Ġobserv ed
Oper ation
Config uration
K E
UL T
bul let
Ġal ign
p or
ã ģ
math sf
Hand le
Ġt re
to String
ĠW est
Ġun ique
I ter
R ight
Ġm usic
ĠFig ure
w idget
ic a
Ġlink s
ĠA N
Ġdetail s
Ġke ep
i ents
._ _
Ġst op
Ġass ign
un defined
HT ML
Ġvar ious
om an
B ind
25 5
Ġam ong
Ġj ob
key s
ca de
Ġa chie
Ġprob ability
Ġse m
iv en
d irect
ul ations
Ġerr ors
Ġqu e
ed ge
Ġf und
_ ,
Ġst ack
ĠR em
ide d
li de
^ +
L I
4 3
Ġh uman
Ġen ough
ĠL emma
}^{ (
Ġpri or
Ġacc ording
ON T
ĠO ne
ĠD es
m ut
' $
igh b
ad o
ĠM ore
In valid
Ġreg ular
Ġset ting
f ocus
Ġhow ever
Pro cess
nav bar
P arent
Ġpro f
as cript
Ġde lete
de lete
Ġ+ +
Ġhe alth
Ġconst raint
Ġch ain
H ttp
Ñ Ģ
( *
' ))
Ġpro posed
ĉ ĠĠĠĠĠĠĠĠ
ed er
Ġd oc
C R
tr igger
Â ł
b um
Ġs ing
Ġac cept
ad a
f g
Ġapp lic
Ġemp loy
ch art
Ġd irection
r um
ĠE urope
Ġsupport ed
Ġa mount
S cope
D at
al y
cre en
il er
By tes
Ġ$ (\
te ction
Ġac ross
T ER
ĠE nd
Ġx ml
ĠD ata
ir m
ri ef
d l
ge x
Ġ} )
Ġh old
Ġat tr
c lick
{ {\
oo se
Ġp ur
Ġwh ose
Ġ" \
t ask
er ing
ĠP art
Ġsol id
7 7
ĠĠĠĠĠĠĠĠĠĠĠĠĠĠĠĠ ĠĠĠĠĠ
s ystem
ms g
f inal
H ost
Ġreg ister
R ect
B oolean
S D
Ġ( '
ĠP l
Ġwork s
Ġde cl
Ġs ure
Ġover ride
yc le
Ġp at
} :
Ġnot e
on es
Ġen vironment
Ġname s
en umer
Ġtak en
j ust
equ al
}\ \
ub e
st ore
A b
Ġ ign
() {
B ody
Ġmax imum
it ory
5 8
To ol
L ast
g ment
M ult
C ore
port ed
a j
et ch
ou ch
rag ment
ĉ ĠĠĠĠĠĠĠĠĠĠĠĠĠĠĠ
R I
ĠEX PECT
P tr
Ġex ception
n ap
ast ic
) -
x space
ĠO ct
OR T
Ġb ind
ext end
Ġh o
200 5
" ))
ĠS chool
ic le
Ġl im
Ser ial
Ġdoes n
ĠS k
ĠP res
Ġh aving
_ ;
Ġco me
ĠM on
c s
ĠD ep
in ternal
ĠA b
let ed
ĠD ate
Ġf ocus
Arg s
ist or
and id
m ore
R el
Ġn g
co un
Val ues
Ġne eded
AN D
y ing
g reg
Ġb en
St orage
E Q
led ge
Ġm aterial
Ġar ch
Ġvari ables
E l
Ġother wise
ide s
Ġdirect ly
ĠO F
Ġa w
P C
5 9
ĠA ug
c opy
AT ION
IN E
__ __
( !
M M
ut es
Ġb and
AR T
cit et
Loc al
ĠB rit
ĠM e
p ass
& &
Ġbound ary
{ {
> ,
Ġcomp any
o om
Ġpre c
ĠJS ON
Z E
uss ian
le ge
Ġtyp ename
} +\
V ert
id ing
Ġl iter
me m
O wn
Ġf oot
Ġpol icy
ĠP r
G e
Ġquant um
Ġse lection
typ es
Ġsome thing
oun g
i ke
el oc
Ġmedi a
A fter
Ġcon ver
Loc ation
sup er
Ġright s
Ġinclu ded
W ork
Ġg alax
ĠIn ter
ff ff
Ġw omen
co mes
| ^
re p
Ġ& \
yn ch
Ġth ird
Ġby tes
P ort
Ġcomp onents
ar p
ĠE vent
Ġrece ived
ĠTh at
index Of
D own
C urrent
Ġexper iment
ab or
ce ed
Ġw ord
Ġre lation
Th read
ERR OR
Ex ternal
Ġlarg er
as ic
Ġwork ing
" ));
n a
Ġst ar
6 9
Ġf unc
ri ed
b le
ĠG r
comm on
Ġr ather
ang es
Ġunder stand
Ġprovide s
Ġim ages
he nt
ĠN S
t ip
Ġv olume
ĉĉ Ċ
AL L
Ġw ords
sc r
t ra
Ġsur face
Ġl ate
ve ctor
b in
ĠF unction
Ġopt im
As ync
y ear
urre n
al es
S ymbol
qu are
operator name
Ġg ot
ĠĠĠĠĠĠĠĠĠĠĠĠĠĠĠĠ ĠĠĠĠ
file s
Ass ert
ist ration
ĠE d
ĠN ame
Parameter s
st ar
Ġbus iness
Ġbehav ior
Ġm illion
( {\
Ġbec ame
ult ure
Ġc ity
ĠTr ans
re et
o ber
ĠCoun ty
Ġform er
Ġexp licit
Q L
ĠO R
Ġprom ise
() :
Ġdevelop ment
Ġden ote
me t
h igh
g gle
fin ished
AC K
M on
F O
at al
s y
iction ary
. )
lay er
ĠG u
Ref erence
Ġgiv es
Ġse em
Ġco ver
appro x
Ġact ual
Ġle arning
Ġn um
ist ics
Ġde ath
Ġe con
lay out
Ġm ar
' ],
N one
Ġallow s
Ġcl asses
av es
am l
Ġf ac
n eq
p k
Ġlo ss
h space
ĠTh us
o unt
oriz ont
ho od
Ġf ig
i qu
Hel per
Ġhe ader
Con nection
GE T
Ġs witch
Ġw in
at form
P romise
Ġst ory
P ack
c d
te mber
Ġwe ak
.... ....
er red
Re ader
con f
Ġsp in
Ġexist ing
li er
) /
Ġacc ur
Temp late
ST R
Ġcon c
Ġdesc ription
Ġbel ie
pr il
Ġj Query
5 6
ĠIn tern
ri p
Ġb ar
r s
Ġh olds
Ġmem ory
4 1
Ġcommun ity
Ġar r
pre c
Ġse ason
Ġth ings
en um
M enu
y l
re w
st op
P od
Ġatt ack
id s
Ġs ays
5 00
Ġthere fore
8 7
Ġdeg ree
et er
ĠL o
Ġbut ton
] \
le ased
ep tember
Ġex cept
ic ol
} -\
Ġs ocial
C P
S earch
Ġfor ce
ĠEx ception
Ġp ast
ern el
Ġs ite
en ers
radi us
ĠI S
200 4
Ġselect or
M ark
Ġc amp
Ġex ports
g lobal
Ġmak ing
ot ed
ĠM arch
A c
Arg ument
Ġapp lied
inter face
oo th
-- -
Ġf ive
Ġequ ations
ure d
Ġsuccess ful
Ġcontain ing
O p
Ġp ers
Ġf ri
D oc
Ñ ģ
Ġit self
ul ated
umpt ion
ĠT HE
He ad
) }{
Ġag ree
st ep
R out
act ers
ĠT ra
ĠJ uly
Ġobserv able
Ġ ill
ĠJan uary
Desc ription
ĠJ o
ĠT able
ug ht
F ont
ser ve
col lection
Ġ( *
9 7
I nd
ic ons
Ġed uc
S ession
Ġmak es
S A
ĠB l
Ġs ong
Ġneed s
}} {\
Ġquest ion
Ġp anel
Ġf r
ame s
P i
the orem
Or der
b ed
ĠU RL
k ing
st amp
S L
Ġd ays
N et
ce mber
Ġh alf
P T
Ð¾ Ð
CO DE
up le
S ign
al low
Ġlay er
Ġin fo
om ial
Ġext ension
CO L
ĠN ode
Ġcol l
Ġmat ter
Ġact iv
ĠP er
Ġ Â
G raph
ĠC ity
Ġs w
Ġy ield
ĠJ une
f act
ach ine
Ġf ul
St ack
iss ing
F unc
9 6
d r
ĠWe b
Que ue
Ġb ig
Ġat temp
Ġl and
l or
orizont al
Ġpart s
l ines
jav ascript
re ct
mit ted
Ġth ough
child ren
Ġf all
ar ing
C A
Des cript
medi a
Ġde st
it able
Ġ- \
enumer ate
ru pt
Ġcon vert
Ġn av
ature s
Ġcurrent ly
Ġrun ning
Ġdiffer ence
B ound
f ree
Ġent ire
Ġs ymbol
in itial
ove mber
S ince
h ib
Ġaut om
P ri
Ġo pp
\ "
Event s
Ġexp lo
Ġy et
ansp ort
Sche ma
Ġby te
Ġs olutions
Ġt w
Ġpop ulation
Ġu ses
ĠA fter
event s
ĠN orth
u ed
\ ,\
ap s
9 8
Ġsc ript
Ġc ame
inal ly
Ġper cent
Ġl ittle
ĠN e
W riter
Ġimp lies
F ONT
F n
a e
ss ages
Ġco e
Ġre view
Ar r
ot es
un g
ched uler
ex ception
Ġn atural
c r
Ġsign al
ard s
ag ger
ĠB OO
Ġal bum
Ġa ge
p lugin
er c
reg ister
Ġa xis
Ġclo sed
an a
JS ON
co ver
N ote
Ġc ut
Ġde m
W hen
Ġs ources
ix el
ta ge
Ġf ailed
att ribute
Ġg en
Ġup per
Sc roll
Pol icy
) +
ter m
the me
Ġin d
ustr al
100 0
Ġtak es
S te
Ġbas is
At tr
Ġimplement ation
Ġan t
Ġn umbers
N E
Ġv eloc
if act
Ġact ually
Ġh om
ĠT ime
R oot
Ġnecess ary
per p
s lice
ĠR ec
we ight
Ġiss ue
TE ST
Ġcomm it
Ġexpl ain
ĠD E
= {
ĠAug ust
Ġh tml
ĠHT ML
import ant
-> _
Ġle arn
Ġpro ve
res hold
D S
Ġopt s
du c
urn al
++ ;
tic le
Ġw ater
) }$
Ġeffect ive
De lete
ur i
Ġ[ ],
C S
ĠM c
ic ult
ition s
o sed
ĠC our
ĠA pril
IG N
ax is
item ize
res ents
select ed
Tr ack
ĠS eptember
$ }
at ively
ĠCh ar
h am
ot a
x x
te e
Rec ord
ĠOct ober
ynch ron
ing ton
In teger
Ġd imension
c p
Ġstud ents
ĠG erman
d imensional
Ġv iol
Ġg round
C al
il s
ĠS ch
p anel
8 5
a ff
one y
Ġbu ilt
Ġde vice
ĠI nt
z z
Ġeffect s
ache s
i ation
Ġplay ers
Ġde tect
Ġmult ip
Ġallow ed
Ġw ide
Ġne ighb
Ġtr igger
Ġo thers
Ġme chan
oc r
su ccess
Ġc tx
Ġw ait
is k
i ef
ur g
aut o
Ġext ra
_ (
Ġal most
arg uments
un finished
Pro ps
N ow
h a
pe at
Ġt reat
Ġserv ices
mult i
ĠM ark
medi ate
Ġ ),
' re
par allel
at ives
Node s
Ġm sg
point s
ag ue
no indent
The n
Ġch art
#### ####
Ġun signed
Ġa ff
ol ver
Ġin sert
Ġa way
Ġ Ã
U RE
Ġname d
S u
result s
Ġre lease
d ere
Ġde ep
Ġexp ress
Ġcol lect
Ġc he
Ġn ational
p icker
CT ION
Ġ( _
pro ps
ĠDef ault
mp l
lo or
cre t
I R
Ġre place
def inition
Key s
Ġ\ |
Ġlead ing
ĠF irst
ĠDe cember
Po inter
S k
O L
i xt
V olume
a uth
Ġde s
Ġinte ger
Ġto ok
ang ular
Par ser
} '
Ġs end
Ġsh all
Ġw ar
clus ion
Ġs ix
Pro ject
ĠS pec
de tail
en v
Ġwe b
Ġcour se
Ġcomp ared
Ġp ress
Ġprob lems
select or
Ġa void
Ġ< !--
In st
ĠR E
Ġchang ed
Imp l
Ġ' /
i pher
que ue
P S
anc el
table block
ĠM y
Def inition
Ġ ::
v space
V ari
Element s
ma ke
* )
Ġpr inc
ĠL og
M D
On ly
ã ĥ
Ġgener ate
By te
Ġb ottom
Ġme et
ĠP o
Ġ$ -
ĠD OM
ĠB ar
5 4
Ġequival ent
ĠĠĠĠĠĠĠĠĠĠĠĠĠĠĠĠ ĠĠ
ĠU se
En abled
\ }$
row n
n ost
de st
Ġpre vent
ix in
ĠN ovember
Ġang ular
New ton
hold er
Ġa ffect
Ã ¡
L S
a a
Ġr ank
ator y
Ġin line
bl ue
Ġ( "
math scr
200 3
Ġ_ .
ĠF rom
n ers
er ed
lug ins
Ġin side
ound ation
ul ate
Descript or
Ġassert Equals
ro me
it ect
Ġpro ces
SE T
~ $
Act ive
~~ ~~
Ġimpro ve
Ġdeter min
if ies
Ġj son
ĠThere fore
Th at
Ġal gebra
U s
U B
Ġdat abase
Ġlo op
an ded
Ġpo inter
Name space
se ssion
}} _
V ector
Ġoper ations
Ġse ssion
et ime
5 2
Ġcomp et
Ġv ideo
Ġs itu
Ġstart ed
H P
Met adata
Ġser ial
de ed
s end
b its
g s
for ce
Ġde al
In it
n orm
Ġpresent ed
8 6
comp onent
ous ly
s d
Ġch all
Ġsh ape
Ġpolit ical
200 1
) |
iter ator
OR D
Ġincre ase
Ġatt ributes
un ch
F alse
Ġdirect ory
Ġwho le
) {\
l anguage
H O
in f
op h
re me
Ġst ars
ĠH igh
ĠP ublic
p g
w rap
Ġg as
Ġlo t
ĠA fr
te q
Ġreco gn
D D
it ute
Ġbuild ing
P ost
Ġinter val
e lem
En c
B C
ĠC re
ĠV al
dere q
under line
De vice
Ġwrit ing
Ġtak ing
Ġ ensure
min us
Ġest imate
Ġf lag
ĠA g
i ag
s pect
p adding
5 1
re ater
) ),
ĠS T
Ġremo ved
P RE
TE X
Ent ity
ĠC LASS
Ġtest s
Ġe igen
am a
Ġm en
m argin
sh adow
: </
her it
l us
st rap
ã Ĥ
ser ial
oci ety
Ġpri mary
Ġs plit
Ġinclude s
Ġsh ift
st yles
G B
Ġe ff
Own Property
Ġsc roll
Ġof fer
add ress
Ġhe ld
l ers
Ġ> >>
Ġprodu ction
Ġmag netic
ĠH is
Field s
Ġs ense
Ġemb ed
th on
ynam ic
ĠS ome
Ġb i
P A
Ġsimp ly
t mp
Ġchar acters
X X
Ġr atio
I F
om b
6 2
Ġwh y
or ing
ĠB ase
ĠPres ident
i et
or ter
Trans form
to ggle
Ġdescrib e
Ġb ir
( :
Ġhapp en
)) )
Ġdeterm ine
N N
S yntax
con s
Ġrequ ires
a ul
ar io
Ġw ave
C lick
5 3
ĠA ustral
Ġc andid
br uary
sa fe
Ġas k
6 3
Ġreport ed
Ġch oice
= (
Ġsu ff
ate gor
P attern
Ġin ner
un ity
Ġcon sole
W rapper
') );
C lo
Ġ Qu
}} }
}} ,
sq l
ĠC opy
d im
EX T
O K
Par se
ight s
Ġbe comes
P R
drop down
ĠĠĠĠĠĠĠĠĠĠĠĠĠĠĠĠĠĠĠĠĠĠĠĠĠĠĠĠĠĠĠĠ ĠĠĠĠĠĠĠĠĠĠĠĠĠĠĠĠĠĠĠĠĠĠĠĠĠĠĠĠĠĠĠĠ
8 9
T A
Ġre leased
Ġapp end
z ero
g ence
ĠI mp
pi ct
Ġco re
ĠC ON
uck et
-------------------------------- --------------------------------
ĠP re
Ġme tric
ĠTr ue
ĠGet s
Ġpredi ct
Ġorig in
ĠI I
DO M
ĠM ap
Ġde mon
^ -
SS ERT
Ġiss ues
d x
con structor
Ġpub lished
p ing
M ock
al ysis
Ġabs olute
Ġf a
c ut
ex port
Ġdistribut ed
Newton soft
Dis play
Ġstate ment
F ail
Ġsmall er
ĠE xt
Ġ( -
P L
Ġdiff icult
nap sh
ĠM ed
se teq
Ġmark et
du le
Ġre q
di ent
g ers
AT A
ĠRe act
Ġ$ {
Ġsc en
Ġspect rum
do uble
Ġpro per
Ġe p
OR M
$ _
os ite
Ġev olution
end ar
re mark
. '
Ġt ell
type def
Ġtransp arent
Ġde b
ist ing
in line
yn omial
ĠH REF
Ob servable
fin ite
Ġmult i
Ġlik ely
: \
ĠĠĠ Ċ
< \
ach ing
Ġvis it
il le
mult icol
Ġre pl
c ing
ĠF orm
ook s
Ġd ig
C ustom
ĠN OT
Ġneg ative
Ġwh ite
ĠAmeric a
Ġth read
Ġst re
sub sc
L ong
c ustom
Se lection
Ġp ref
Ġref lect
os en
ĠV alue
Ġcon struction
B efore
] ]
Ġphys ical
V G
v olution
Ġ _{
Ite ms
k ens
O D
Ġper formed
bl ack
Ġinf lu
al let
ill s
Ġconnect ed
Ġs ens
ĠTO DO
Ġ' <
ilit ary
art ment
ĠR equ
KE Y
text rm
[ $
Ġup on
multicol umn
X ml
S cale
f ull
com ing
Ġv ol
Window s
re es
Se e
ĠD av
T ra
Ġa ir
doc s
field s
Par am
S o
ans ion
Ġf ix
Ġ" "
he lp
ock er
Ġcomp are
F loat
Ġ" /
ĠI E
De bug
Ġo s
de pth
ĠC ent
Ġs l
ĠB r
cl asses
Ġveloc ity
T itle
Ġver tex
Ġr g
ĠT H
ify ing
Ġv ers
B l
Ġne ut
bit r
pri mary
Result s
Ġimp act
Ġincre asing
au ge
ĠH ouse
P lugin
Ġmin imum
Ġdeterm ined
) ">
Ġout side
Ġcom ment
h ide
Ġcent ral
200 2
pre t
Ġa uth
ut er
{ "
m ic
Ġde cre
Ġdemon str
Dec l
Ġpartic ip
( /
tr ack
Ġsche me
Ġrule s
\ '
ĠBrit ish
il ation
Ġme ta
Ġde p
ĠK ing
Ġcomp ute
Ext ension
ik i
Ġrep resents
pro d
ĠS an
Ġval ign
Ġinvest ig
k er
ograph y
e le
Ġ$\ {
Ġf un
ĠE l
Ġt alk
Ġb inary
Ġ ^
sub seteq
Ġstr ings
Ġradi us
P ass
c ategory
Ġexper ience
om s
Ġuse ful
Ġframe work
el low
c ard
M B
4 00
w ner
A re
are a
de vice
Ġl ive
h an
ort s
iv il
N um
ĠM em
Ġdat aset
Ġlong er
R untime
mat rix
U P
Ġc au
The ta
ĠR ed
Ġh ouse
app lication
", "
Ġext ract
ĠD r
ĠH ar
Ġre m
}^{ -
ĠD ist
Ġrespon s
Ġd im
Ġ\ ;
trans ition
Ġfrequ ency
ĠI O
Ġthe orem
by tes
Ġn ative
Ġ ess
ĠEng lish
25 6
est ed
Ġre ject
N G
frame work
n ce
cre te
In itial
Ġad min
Y ou
in y
ĠRe ad
im ents
M e
in v
ol ic
opt s
H as
bo ot
//////////////// ////////////////
ĠĠĠĠĠĠĠĠĠĠĠĠĠĠĠĠ ĠĠĠĠĠĠĠĠĠĠĠĠĠĠĠĠĠĠĠĠĠĠĠ
ĠFe bruary
Ġeng ine
erv ices
ca pe
in ct
D ictionary
Ġt ax
Ġintern ational
Ġ{ },
model s
ert ific
mo z
Ġ$ |
ve y
N on
Ġg rid
hand ler
r an
gra dient
Ġcomp act
h s
L L
Iter ator
Ġto day
Ch annel
m ouse
z one
Ġinst all
av or
ĠP e
sh ape
st o
S ION
ond on
Ġf ace
da pt
Ġpro ced
Ġpro gra
Ġreg ions
ĠE ast
M C
Ġcrit ical
de c
Ġ util
ĠW indow
{ $
CH E
IT Y
}$ \
Ġ round
Pro to
Ed itor
Ġreg ard
Ġb rowser
us ion
Ġus ers
tot al
el li
se ct
Ġmat ches
sv g
Ġsec urity
Ġtrans fer
i ses
Ġbe gan
6 1
App lication
lev ant
h ere
Ġbro ad
ĠCour t
Ġ_ ,
Ġb its
n es
time out
ac cess
Ġresult ing
Ġun iform
Ġenc ode
Ġfor ward
g u
EN D
c b
equ als
ly ph
^{ -\
ile s
Ġ ir
= -
ĠG roup
Ġlist ener
A pi
Ġth ought
ĠP ri
ro ad
Ġsub st
Ġloc ated
B undle
Ġplay ed
i ber
Ġres ources
N etwork
Ġh ar
ip el
di ct
assert Equals
Att ributes
Ġben ef
Ġso ftware
C lose
Ġestab lished
Dat abase
a ign
f a
om y
unc il
e h
3 00
Ġfil ename
res olve
Ġcon structor
( __
ĠG a
Ġfe el
ew idth
Ġcall s
T C
(' .
Ġcons istent
Ġcoun ter
ĠI m
Ġme d
pre v
Ġappro pri
de g
Ġcur ve
lim its
ĠO pen
ed itor
se ss
im ately
Ġpro gress
Ch anged
Ġra ise
=" _
li ct
Ġal tern
is ions
ĠBOO ST
Ġque ue
7 8
Ġide a
Ġflu x
omorph ism
Error f
Ġstart ing
u el
ĠD irect
Pro xy
Ġder iv
U se
foot note
eder al
Event Listener
un signed
ta int
k a
enc ed
Ġsu fficient
s ure
Ġcon duct
Ġtransp ort
Ġm ention
Ġp refix
ĠL O
re set
' >
Ġprodu ced
s cal
Ġc ategory
Ġoption al
Ġy oung
Ġn uc
ĠH ere
I E
Ġintrodu ced
AC E
Ġcompar ison
p romise
Se cond
Ġpro ps
Ġd rop
ĠIntern ational
S Y
Ġspe ed
cont in
R et
ĠS w
Ġor d
Ġob server
Ġan n
Ġad v
or ity
Ġstud ies
L in
op lus
um in
ĠA p
rid ge
ĠIn itial
> .
sel ves
at ically
m ask
Str uct
Ġder ived
\ }
Ġh idden
pec ially
Ġt ensor
wh ile
Ġdisc us
Ġ' ';
text tt
C re
Ġet c
d ates
Ġe lection
ĠS ervice
Ġan no
S end
Ġident ity
ĠN ow
Ġoper ators
Ġmon th
M ore
for Each
ĠD ec
Ġw ent
J ob
Ġmap s
L ock
j Query
D ialog
Ġoffic ial
d ash
Ġplay er
Ġelect ron
Rem ove
set minus
Ġtrans action
cont roller
SI ZE
ren ch
se quence
ro s
ĠReg ister
ĠL aw
Ġin valid
cm d
c ar
D A
Ġcomp an
Ġcare er
cc ording
Ex ecut
Ġpol ynomial
Ġdid n
ĠV AL
k ind
R ed
_ *
i us
v m
Ġre ct
ĠĠĠĠĠĠĠĠĠĠĠĠĠĠĠĠ ĠĠĠĠĠĠĠĠĠ
s ince
Ġ( $\
_{ (
test ing
ec ause
: [
Ġt mp
iz ations
In ternal
7 2
ĠCol lege
12 8
Ġs amples
ĠO ver
M atrix
Ġpro file
al loc
f aces
or al
m ock
ĠA tt
w edge
ro t
Ġhe nce
J o
A xis
v ision
Ġn et
ab ilities
FA ULT
A p
z er
Ġto wn
TR Y
P refix
_ ->
Ġan sw
st ers
Ġinter action
e in
Reg ister
ĠN umber
L en
ĠEx p
B uild
Ġd b
Ġform ula
Lo ader
S R
7 4
ĠC all
Ġse qu
Ġe ver
Ġman if
ĠO ut
de cl
n one
Sh ared
w rit
Ġobserv ations
Ġc ri
ĠM o
lin ewidth
Ġf ill
Ġar bitr
Ġc lean
AT H
Ġc ause
ĠC enter
Ġbas ic
ĠAr g
Ġ ],
Ġcomput ed
ĠS im
class Name
Ġ$ [
at ial
it ing
M ENT
ĠM ethod
Ġth ing
Ġcontinu ous
ĠL oc
Ġd ir
ĠO ther
f ail
V ar
Ġdo ing
Ġno ise
lap se
Ġp od
Ġ ];
ĠW ork
d omain
oci ation
Ġtra dition
ĠN O
os itory
## #
Ġdevelop ed
199 9
t ical
L P
' \
ch ain
imp l
Se ction
M edia
' .
Head ers
Ġare as
ri a
ber g
ac c
ens ive
ĠO ur
Ġco mes
00 1
p ers
ĠP ark
napsh ot
s ave
ar an
)) );
ĠG od
ĠW illi
Ġn orm
Ġs creen
ĠK ey
}} _{
ĠG o
pro du
I X
Sec urity
Ġev idence
F ull
ant ic
av y
n eg
pro gress
ĉ ĠĠĠĠĠĠĠĠĠĠĠĠ
T ab
ĠC ode
Ġst age
FI LE
Ġp lot
Ġcont ract
Ã ³
8 4
Ġde bug
Ġhe l
/** */
ado op
re al
M sg
Ġno thing
Ġsc ore
ĠL ondon
rop y
b and
col on
Ġro b
_ +
ĠM a
ers hip
urren cy
Ġf ire
has OwnProperty
d agger
Ġdom in
Ġe mission
Ġex port
C or
Ġsub sc
ĠCon st
as hed
) ).
ym f
g oog
is ation
ra st
r ong
a res
Ġsh ared
pos able
m as
ymf ony
Ġcla im
Ġbo unded
att ice
p are
> ::
ĠL a
radi ent
Ġm ut
anc ial
Ġde pth
pk g
Ġfact ory
Not Null
Ġpack age
lo ok
D ist
W E
9 3
t xt
amil ton
ag raph
Ġf mt
Ġ` ``
P e
Ġinterest ing
Ġd a
ch annel
Ġspe ak
print f
f ord
ĠH and
Ġca pture
Ġst orage
am era
Ġfoot ball
if orn
Ġful ly
Ġdec ision
COL OR
Ġup dated
mod al
Ġun cer
h idden
sup port
C a
Ġgra v
Ġexact ly
ic an
ĠS tr
M ath
Ġpart ial
Ident ifier
att le
struct ure
A uth
Ġas ync
Ġfr ont
ĠWh ile
Ġfinal ly
D raw
en ing
ĠH er
Ð »
Ġa mpl
Ġse gment
9 2
Ġs ound
ĠV er
P AR
com ment
Lay er
Ġst ation
W ord
serv ed
ip al
Ġes pecially
ĠP y
Mem ory
s witch
re spon
Ġsp an
ind er
B A
N e
Ex pect
Ġrequest s
ang er
module s
Ġb ad
| |
DI R
Ġm is
res ses
Ġv an
i os
ĠĠĠĠĠĠĠĠĠĠĠĠĠĠĠĠ ĠĠĠĠĠĠĠĠ
w s
met adata
align ed
Ġb al
str y
Ġd riv
h om
f it
Ġle d
X ML
er ies
MA X
p refix
Ġf amil
Ġbound s
> ();
ic o
ĠW hat
8 2
add Class
equ ality
iforn ia
IT E
} "
Ġch oose
Ġan imation
ra el
ĠGener al
iv ial
[ :
Ġcre d
Ġg ain
f lags
ar ded
Ġm ask
Ġj ud
Ġ$ $
9 1
lo ader
ĉĉĉ Ċ
Ġad van
ĠĠĠĠĠĠĠĠĠĠĠĠĠĠĠĠ ĠĠĠĠĠĠ
Ġdiscus sed
P ool
Ġres olution
Ġ} \
Ġpart y
Ġl ibrary
Ġc lick
Ġin c
Ġcent ury
Ġin variant
Ġp lugin
oll ary
Ġa ctions
O pt
Ġchar ge
ĠA rm
Ġlo ve
u a
ra d
sh ort
F lags
in n
Ġ ).
ipel ine
Ã Ń
id ers
O F
miss ions
ĠPro position
Ġsp aces
ash ington
Ġgalax ies
Ġmatch ing
Ġrema ins
Ġinv oke
L ower
Ġh istor
Ġmon ths
cond ition
Ġpe ak
Ġs outh
Ġstre ng
Ġbel ong
G lobal
Ġtime out
at ur
medi ately
en abled
as ons
ĠDep artment
Ġlevel s
ri se
Ġext end
Ġeas y
ut f
o ch
Ġsh are
Ġsymme try
new command
9 4
Ġvert ices
ĠM ich
em it
Ġmot ion
Ġrelations hip
Ġdepend s
Ġw atch
s ol
rypt o
12 3
Ġknow ledge
ĠJ ap
Ġstr ategy
Ġex amples
ĠO per
b oost
ĠD em
ell ar
TE D
con struct
form s
Ġenc oding
} %
ĠA m
Aut o
Ġconc ern
con nection
Ġqu ality
id x
create Element
Ġset up
Ġarch itect
Ġeduc ation
' _
Ġm iddle
el f
ab br
Ġpl atform
B OO
ert urb
Ġh yp
Ġcont roller
d en
Ġu i
ex ists
E q
he st
un ic
Ġgame s
Ġw alk
ĠA ir
bs ite
is ms
Ġg reater
e ff
r or
Ġhy per
Ġjo in
Ġno vel
Ġlarge st
itut ion
b rief
Ġst eps
Cl asses
Ġcour t
loy ment
Ġcount ries
\\\\\\\\ \\\\\\\\
Ġpartic le
ĠC O
leg al
Ġestab lish
Ġ| \
ĠO ption
Ġfig ure
head ers
Ġal loc
ĠAr t
ex pr
p id
amp ion
Ġill ustr
Ġg auge
M y
Ġsatisf ies
"" "
Ġfor ms
Ġed itor
E ng
Ġpres ence
sh al
Ġde stroy
Ġrecent ly
Ġus ually
aw s
sum er
Ġw or
wh ite
Pr int
) }(
ĠT ext
Ġext ended
ĠPh il
sub figure
coun ter
Ġres olve
__ )
Ġ er
parameter s
w ait
sche ma
ar ation
se ud
art ifact
ser ies
att ributes
case s
et es
C F
Ġed ges
Ġsc atter
s ome
Ġfail ure
IN S
H ere
Gener ic
y al
Mem ber
Ġqu ite
To String
Ġhead ers
Ġqu al
Ġar ticle
u it
W S
Ġop port
Ġm oney
ffic ients
R AN
Ġvis ible
r andom
Ġm ock
or ary
ma z
Ġdis k
ĠCopy right
Ġcon tact
ar ily
pro perties
M ar
Ġen abled
Ġst udi
Ġon es
Ġt ab
P op
Ġgo al
c i
ä ¸
Ġrg ba
Ġmin im
Ġdynam ics
), \
\! \!
ex ec
h adoop
Ġtrans late
Ġpair s
Ġclass ical
add r
Ġp ick
Ġch osen
f lag
Ġpop ular
n il
) _
() ).
Ġcoordin ates
err ors
M icrosoft
Ġf ast
reg ion
Ġcon cept
d iff
anc y
b on
ĠA ut
ĠS D
Ġd ark
sc reen
Ġo k
ĠM odel
7 6
Ġan gle
U ID
ĠH el
ST ATE
ch or
Ġinv olved
Ġex ternal
Ġde lay
Ġrema ining
net work
ĠS en
ĠH ol
Ġe m
not ations
ategor ies
cl one
Ġi o
Ob server
Ġcorrespon d
el er
f d
Ġpro to
C luster
n ey
Ġm ilitary
G rid
Ġto ld
Ġconstraint s
L IC
Ġnumer ical
y g
Ġsm ooth
de stroy
l arge
app ed
Ġa dapt
l imit
th row
Ġprevious ly
big g
Ġpro tocol
Ġre levant
s heet
D eta
ĠG overn
Ġapprox imation
Ġgrow th
Ġsk ip
1 10
te gr
Ġseem s
A GE
w hen
or ge
h y
the mes
av ed
An imation
Ste p
B r
_{ {\
n def
umer able
ame l
ĠQ ue
ribut ion
Ġappropri ate
Ġperson al
Ġopt imal
d one
Sh ow
Ġbl ue
Ġcontribut ion
I B
ed it
Ġscal ar
Ġ[ [
Ġspect ral
Ġde comp
ĠS y
Ġun its
ra b
Ġn ature
Ġradi o
Test s
assert Equal
Ġproces ses
Inter val
ĠTr ump
de t
ĠEurope an
Fe ature
ĠJ ust
ome tric
Ġs low
ĠU N
ot al
s ider
ad min
H istory
(' ./
F N
Ġpartic les
Ġs ave
SS L
Ġeas ily
Ġign ore
R ad
C ap
ĠCal ifornia
8 3
Ġal though
Ġch arg
Ġme ssages
d y
_{ -
Ġd uration
} ~~
Ġh it
* {
Ġserv ed
ĠRep ublic
il ing
ĠX ML
CHE CK
if fer
Ġlead s
t or
v a
Ġmag n
** /
Ġapplic ations
Ġm id
ĠG oogle
Const raint
D iv
A meric
con sole
ĠH ence
Ġp erturb
ĠV ersion
lo aded
Ġpar ser
Ġredu ce
iver se
con tains
Ġfil ms
lo op
An y
on ic
ĠF ield
ĠCh urch
R est
EN TRY
' ];
unc ed
gorith ms
End point
Ġch unk
d rag
Ġlim ited
}} (\
Ġlo ck
Ġlo aded
er ve
Ġs y
Ġb uf
N ative
p attern
G R
ĠCh ina
Ġex ecute
a el
co very
ĠP al
ĠM A
S eg
air s
Ġf raction
M ouse
Ġmov ed
Ġstruct ures
Ġ> >
ĠUp date
G S
Ġmeasure d
k et
L INE
Ġm apping
S ingle
Ġra d
Ġrest rict
Ġ' \
ĠM ess
P ORT
Ġuncer taint
in valid
Ġth erm
TEX T
)\ ,
Ġf lags
Ð º
Ġse x
=" -
Ġen able
HT TP
8 1
Ġp ush
b rowser
A v
Ġcorrespon ds
ertific ate
Ġon line
f ect
B it
Ġgr ant
Ġpl ane
20 21
) [
Ġim mediately
Con dition
Direct ory
7 3
d ro
Ġexp ansion
r is
T e
b old
hent ication
Ġmoment um
Ġwork ed
l am
let ion
ĠM et
use um
h i
BU G
Ġnew s
Ġto uch
Ġcomplet ed
ĠWindow s
' }
File s
D U
Ġ~ ~\
Ġin equality
Ġp riv
for all
Ġm issing
Ġstudi ed
p lot
Ġimplement s
if ndef
ty pen
Ag ent
Ġd rag
Ġcalcul ated
UR I
multi row
% ,
as ure
& #
mon th
rec ord
Ġtest ing
node s
tr ics
Pro tocol
Collection s
nt he
ir it
s ur
Ġexper iments
@ "
Ġan im
F ailed
st at
iz able
Ġany thing
Ġde tection
T S
ST AT
typen ame
Ġcoup ling
ic en
Ġpre v
B ut
i ate
text bullet
Log ger
enc ode
ll ap
N ULL
ĠRe search
m i
il led
ĠR un
r ics
Ġprop ag
Ġrece ive
O ur
) ^{\
ve x
AL SE
ixt ure
Ġs us
ĠB oolean
Ġnetwork s
Ġredu ced
Re ce
State ment
li br
199 8
Ġn or
ma ster
ig r
Ġfe ed
Ġass umption
ic ator
w ords
d uration
> '
Ġexp onent
Ġbegin ning
ĠC SS
Ġvert ical
mer ge
Ġmodule s
vent ion
Ġbelie ve
on ical
) _{
ĠHT TP
u ses
op ed
ent ity
J E
F R
}$ }
c f
con cat
P erm
ĠH ow
orig inal
Ġlo st
ĠIn c
ĠS m
Ġdec ay
ie ce
Ġess ential
Ġfollow ed
Ġprof ession
Ġarbitr ary
gener ate
Ġun less
Style ID
Ġcompan ies
Ġc ursor
Ġh on
Comp ar
Ġim m
Pro gress
de p
ific ations
o ss
Ġpath s
I con
Ġb uilder
En um
clo ud
v olume
check box
pro duct
S ocket
W hat
Ġ icon
ĠM r
an notation
Ġthrough out
Ġcamp aign
St op
Ġindu stry
r ices
Ġ+ \
i pe
par a
Ġappe ars
,\ ,
ĠIs rael
Ġra w
Or ig
Name d
7 9
S um
}$ -
lev ision
ĠD O
ĠCo uncil
Ġto wards
VER SION
ĠF rench
A V
li ance
ot ion
Ġatt ention
Ġpol ar
> \
ĠP aul
Ġal t
rel ated
par ser
v s
ore st
D om
r d
Ġre ve
Ġad opt
Child ren
Ġ[ "
proto buf
sub subsection
Ġocc ur
ĠP ost
man ager
Ġtype def
ĠH amilton
lic ity
Ġsitu ation
D uration
Ġaccur acy
Ġis n
D C
Con f
Ġe cho
ĠF oundation
Ġt en
ĠW ashington
Ġproduct s
can vas
Ġpract ice
Ġprob ably
re sp
Ġsim ulations
Ġprodu ce
ON E
r f
ĠU ser
S im
ĠP romise
Ġl atter
F ound
pe ated
D R
Ġst and
Ac count
P anel
Ġcoe fficients
u ge
S cal
\| _{
Ġintegr al
ĠMore over
Ġr isk
Ġ rows
Ġc ast
Ġinst ances
Ã ¼
se lection
w rapper
Frame work
ish ing
ri al
Sp an
iag nost
Ġmean ing
Ġmod ified
p ub
Ġb ul
Ġproced ure
Ġmeasure ments
fil ename
() ));
if def
Ġrel ig
ĉĉĉĉ ĉĉĉĉĉ
al o
ymp tot
Ġt ick
ĠE ar
ĠF urther
Ġj av
pass word
Ġqu ick
[ (
ect ors
. *
ĠU I
pro tected
ne ctions
Ñ ĥ
Ġear lier
th rows
ĠU K
Ġpur pose
ix els
Ġex hib
B E
H owever
em bed
Ġro ute
ir ing
D est
7 1
id a
Ġbr ing
Ġread ing
Ġexist ence
Ġret rie
ist r
Ad apter
ĠI P
Ġfact ors
Ġbeh ind
Ġagree ment
is Array
Ġbr anch
ut able
ad ing
Ġspec ies
ĠN or
Ġget s
F UN
reed om
check ed
] :
ig hest
F C
Ġd ual
Ġw ays
p lugins
Ġcolumn s
v c
TR UE
D rag
Ġp ul
Ġs on
L imit
ĠM icrosoft
artifact Id
ov a
In v
rodu ction
Ġoff ice
Ġst ra
prec ated
N V
ĠInd ia
ĠDav id
st orage
ĠB er
ĠAl so
w ar
at ible
S ync
Ġcre ating
Tr ace
Ġmet adata
Ġre set
.~ (\
U ri
b el
Ġmode s
ĠO ff
U SE
pro xy
D omain
ĠHe alth
Ġh ours
Const ants
hes is
tr l
ro te
Ġrepresent ed
B rowser
Ġtask s
Ġent ries
in i
{ $\
Ġthe ore
en able
s ime
ential s
. [
S ort
e mail
Ġ- =
Ġblock s
LO G
w ell
Ġleg al
ad r
', '
ad s
ĠA L
oc used
Ġgener ally
l ates
i ency
ĠT ask
By Id
'] )
pm atrix
ĠRem ove
Ġent ity
Ġprec ise
sime q
w atch
ob ile
Ġlook ing
Ġn ight
UT F
Select ed
% %
d ialog
E V
Ġachie ve
Ġb orn
) ^{-
) "
Ġfri end
p ress
N D
Ġ= \
Ġe q
comp lete
Ġac qu
b urg
Ġthem selves
Ġ) {
tain ed
Con nect
DE F
= }
Ġchall eng
name s
land s
Ġcal c
y es
Fig ure
res ize
p ay
og ene
om ite
Ġwrit er
Ġgener ation
Ġindic ates
at ches
Ġl attice
Ġgra du
cal led
ass ign
Ġrec ords
Rout e
f ixed
styles heet
ub ern
Ġman agement
Sp ace
riter ia
Ġm ouse
p od
Ġor bit
Ġnot ice
omite mpty
Ġl if
W A
element s
ĠC om
Ġc lu
ĠIO Exception
Ġpar am
) \\
clu ster
Ġcall ing
ĠR el
ĠD on
ĠCol lection
Ġpart ition
ĠF alse
$ ).
ing u
ĠCan ada
ĠInd ian
b orn
Ġb ank
group s
ĠB G
Ġs amp
S ER
Ġmod ern
def er
F E
ĠĠĠĠĠĠĠĠĠĠĠĠĠĠĠĠ ĠĠĠĠĠĠĠĠĠĠ
s ymbol
group Id
RO M
Ġsub set
H R
boot strap
ck now
="../../../../ ../
16 0
Ġre comm
Ġexp and
wit ter
ĠSc ience
ist ed
ĠAr ch
Ġ\ (
ic ies
ĠE ach
z y
for ward
B P
Co un
Ġf ather
ĠInst itute
Ġexperiment al
Ġth reshold
ĠEng land
ier arch
Ġestim ated
Trans action
Ġdi ed
Ġ' '
text sc
Ġtra de
ta iled
re act
Ġpres ident
Ġunder lying
pict ure
Ġag o
v irtual
Ġm ind
ĠLe ague
De legate
Sh ape
test s
ĠSt ud
M ask
Ġget ting
U sing
an imation
ĠJ ava
Ġ{ {
Ġgu aran
* }{
pro b
option al
$ $\
sc ss
Ġbe y
vis ible
$ ^{-
Ġtrans formation
A li
B inary
Ġrun s
I ST
Ġs quare
ĠNew s
Ġcorre lation
sec urity
Ġin cor
ĠPro ject
ĠIn teger
Ġtechn ology
arg ument
w p
Re act
e ffect
ĠĠĠĠĠĠ Ċ
Ġcirc le
Ġg oog
Ġlabel s
Ġbey ond
Ġor ient
Ġant i
Ġautom atically
un ique
ubern etes
ĠIn dex
Y ear
AR Y
b i
Ġecon omic
Ġde signed
ifi ers
ĠP ort
al led
ĠA R
ut ed
O ff
Ġge ometry
Ġl icense
Ġre ader
ĠCre ates
" ],
) }{\
Ġm ix
Ġl iving
ĠP ath
inst all
Ġab stract
ac ro
g g
ar a
h av
is hes
wo od
ol ving
Nav Bar
Ġcomplet ely
is ode
Ġh align
Ġcur ves
; ->
re y
Ġst ored
Ġpress ure
Ġcan cel
r untime
di ag
Ġvalid ation
ĠB en
Ġsim ulation
ĠCon fig
}~~ {
O UT
f mt
en ge
ĠC ong
Ġv ill
parent Node
Ġ" ,
ĠR et
Ġu nd
IN D
] ))
Ġwe bsite
Ġdynam ic
T ick
f amily
Ġcon v
I LE
Ġcont rast
g ments
in et
lo ts
au di
Su ccess
Ed it
EN SE
ess or
Ġs light
ident ifier
LO CK
33 33
as ync
Ġw idget
h ref
-------- ----
Ġdis abled
RE AD
Render er
Ġh ot
Ġl ack
Ġprocess ing
I MP
ĠB el
ok ed
ict ure
e ch
Ġ' "
th read
ct u
Ġden otes
ĠI d
Ġact ivity
Ġover all
Ġdistribut ions
un n
Ġman ager
ament al
s ite
hel per
Ġw rong
Ġdesc ript
Ġfin ancial
velop ment
pro tocol
Con structor
Ġb oost
ak es
S imple
if ically
M T
Ġcons ists
H igh
B S
up load
ĠD im
Ġlay out
omorph ic
Ġst able
Ġ' ',
Ġr ates
199 7
Wh ile
s ingle
E C
Ġ" $
}} ^
Requ ire
ĠA ng
sequ ently
ce ptions
pro v
Ġ" <
Ġd ro
err y
199 0
Ġsup ports
Ġtry ing
D et
ĠE qu
Ġuint ptr
y a
append Child
t wo
| -
Ġs il
view s
Gener ator
ra pped
Ġle ave
\ _
iqu es
n umer
Ġintrodu ce
an o
ot ing
Ġvis ual
Ġsing ular
B R
ol ar
Ġop acity
F LA
Ġcl ub
1 20
I V
)$ -
Pro file
Ġdim ensions
s ass
equ ence
Ġparticular ly
JE CT
ill a
Ġp aint
lo od
re v
M ove
Ġdist inct
VAL UE
H A
Ġpro xy
Text ure
M apping
Ġex am
Ġe mer
Ġcl one
f ort
tool bar
G r
cc cc
Ġte ach
P U
Ġch o
s pe
Ġ" -
Comm on
ĠM or
Ġdirect or
tri m
j oint
Ġc li
Ġform ation
Ġcom ing
Ġincre ases
ub y
urre d
ĠDist rict
b ers
re du
ole c
g i
; }
n ov
} )$.
Ġdiscuss ion
Ġsymme tric
ĉ ĠĠ
ĠM od
INS ERT
al ed
Ġk ernel
Ġid x
ult ural
depend ency
Ġsa f
Ġf ood
ed s
D b
Ġexecut ion
Ġcon clude
Ġm enu
Ġread y
ĠM ag
Ġevery thing
Ġpol ice
Lin q
Ġin ject
$ /
erv ed
Ġal gorithms
Ġm ixed
) },
Ġver ify
Ġcalcul ate
Do uble
Ġassume d
Ġe mail
he ll
g reen
Tag s
ĠĠĠĠĠĠĠĠĠĠĠĠĠĠĠĠ ĠĠĠĠĠĠĠĠĠĠĠĠĠ
ri an
Ġw rote
Ġ" ",
ĠBl ack
foot er
ig ration
b u
Ġun known
F S
o sp
Vis ible
^{ +
le ep
Ġhim self
ic ate
}~~{ }$\
r b
U ES
Th us
ĠM ax
Ġob serve
ill ing
Ġident ify
second s
Ġident ified
ĠS O
A CT
: =
Ġclo ud
Ġf lat
ivers al
il ib
requ ired
av en
ĠH ash
ib ly
oun ded
F L
Reg istry
Ġtreat ment
v ideo
Ġconst ants
clu ded
Ġtra vel
display Name
n n
Ġv ict
Ġcontain ed
ma g
ĠJ ames
Ġmat rices
Ġsp atial
pro file
sp aces
as c
ĠVal id
mo us
v ille
Ġsize of
ar ter
En v
F low
ĠR ich
' (
The orem
Ġsignificant ly
Mult i
m c
Ġext reme
tool s
radi o
ĠU sing
The se
ang o
Ġdist rict
it ch
s ys
Ġhigh ly
Ġfore ach
Ġn orth
iter al
== =
Ġf em
Ġposition s
Ġauth ors
Ab stract
i ated
ĠA c
map sto
Ġsepar ate
Ġre ach
ip p
et te
Ġc b
Ġ' .
Ġcap ital
Ġfor ces
Ġiter ator
) ->
Americ an
ĠM al
ĠAN D
D P
ĠJ ew
st able
ĠB uild
Ġsc ient
pend ing
R R
tag s
ĠG reen
Ġcoordin ate
}{ *}{
Ġocc urs
}^ *
Ġdepend ence
f x
Ġqu as
Ġgener ic
ĠM ake
m n
man n
Ġquest ions
199 6
" /
F lag
Can vas
c lip
Ġab ility
ĠOn ly
get Name
Ġ' $
~ $\
Ġ&= &
and er
Ġspect ra
tr ansp
ĠB ay
Ġcan vas
ĠSt reet
ok ie
b ad
ĠSet s
Ġgo es
Ġh ighest
Ġm icro
ribut ed
int elli
ĠO f
Ġag ent
ĠComm it
Ġattemp t
Ġhigh light
Ġsign ed
ac le
f ire
Ġv ectors
intelli j
no ther
S ome
ĠAustral ia
Pack age
Ġestim ates
, $
pro position
D IT
Ġd river
] +
f i
Ġe fficient
m ma
ĠAss ociation
Ġl ib
ack et
Ġm achine
ĠD el
Ġc ivil
ĠC he
F ind
Ġrepl aced
Ġimplement ed
pp ing
Ġst ri
-- >
____ ____
Ġprogra ms
um ing
Ġyield s
15 0
Ġw est
TI ME
ĠH istory
sp ring
Ġas pect
Ġindic ate
ĠGa ussian
Ġp ure
ĠV iew
Ġrefer ences
H tml
b al
r g
mit ive
Ġen um
Ġd ise
ime d
valid ate
ĠDem ocr
fact ory
ollow ing
ct r
Ġtri p
ĠP at
Ġc it
RE S
Ġcell s
ĠB ro
Ġ ut
Ġm orph
ĠSt art
W R
it z
Sub sc
Ġde part
Ġbehav i
om in
ĠA SSERT
ĠBG COLOR
O B
j query
8 00
Ġclear ly
w t
ĠD iv
Row s
ĠAN Y
l ated
k y
form ance
Ġbook s
Ġmention ed
Ã ¤
m al
AT TR
ir al
mid rule
M ain
t ik
! <
Ġask ed
Ġm aster
e cho
ition al
Ver tex
sc ill
li a
Ġread only
ony mous
' ve
con tain
Ġhe art
j ob
Ġwant ed
Ġ{ '
\ {\
Ġsc ience
B IT
Ġcontribut ions
od ot
tab s
Ġmov ie
Bind ing
el t
Ġpo ol
dic ate
Ġsatisf y
RE E
out er
Ġp a
ak er
i h
om as
Ġexplicit ly
N OT
circ le
ĠL ong
Ġincre ased
ĠĠĠĠĠĠĠĠĠĠĠĠĠĠĠĠĠĠĠĠĠĠĠĠĠĠĠĠĠĠĠĠ ĠĠĠĠĠĠĠĠĠĠĠ
ĠRes ource
N R
l an
f ix
! !
oc ation
Ġansw er
Ġho pe
ist an
Ġdes ired
Ġstra ight
ĠP ress
t c
Ġd am
Vari able
Ġreg ime
Ġ{ *}
w est
ĠGe orge
y e
ĠL eg
A uthor
l as
ĠD ay
Ð° Ð
ub ble
ro ute
Tr ansport
po inter
Ġfamil ies
Reg ion
Ġvari ety
set up
Ġadd ing
all s
Ġtr ace
ex ecute
Ġo wner
p ool
Ġg radient
Ġt ro
pl us
="../../../../ ../../
Ġres id
Ġcomb ination
ĠUn ion
Ġent er
ç ļ
N A
ĠĠĠĠĠĠĠĠĠĠĠĠĠĠĠĠ ĠĠĠĠĠĠĠĠĠĠĠĠ
ĠG ra
Dep end
u ous
ing er
Ex pr
Lower Case
M R
po ses
ĠE mber
gra de
ĠRequ est
çļ Ħ
Ġmeasure ment
S w
Ġs aw
ĠE lement
| _{
Ġf air
Ġas ymptot
Ġappro aches
Ġcandid ate
al g
Com ment
comp are
Ġex change
i ences
Ġmer ge
$ ;
Ġliter ature
ar c
d river
C I
N T
libr ary
Ġanal og
. ");
icen sed
. ",
Ġst ellar
Ġso on
ĠMess age
ĠZ end
S QL
L ook
IG HT
ĠA nt
Ġl at
Ġdiag ram
Ġsur v
ĠChrist ian
Ġme tal
comp ile
ĠPart y
s b
ĠT R
ri um
Ġrot ation
Comp lete
Ġde tailed
or ded
att ach
Ġcap acity
r ift
Ġon to
vert ical
Ġnot ation
Ġtra in
co in
R ole
E M
z ip
requ ires
Ġdis cover
Ġc ulture
en ed
ct ors
Ġj oint
ĠIN TO
' m
on ce
"> &
Ġform al
ĠWilli am
Ġin finite
Ġl ives
remove Class
TH OD
Ġrema in
l g
ate way
ĠT V
ĠT ex
ul ator
ag o
P ATH
G en
Ġconver gence
W N
ase ts
detail s
mit ter
t w
Ġter min
; /
******************************** ********************************
Ġmeas ures
Ġmov ing
Ġ% }
b ut
s ample
I gn
Ġsa fe
k i
tr ace
( @
c lean
Ġrepresent ing
clus ive
- $
os ing
ĠTe chn
oper ation
C SS
ĠK e
ĠW il
\\ \
Arg uments
G LE
tik z
el astic
en ses
t ouch
log ger
Ġ ul
Ġre mark
> "
Ġanno unced
ĠD et
ĠA T
Test Case
IC E
Comp leted
ir ror
c ancel
Ġdefault s
Ġro om
ĠPro perty
Ġmechan ism
Ġg reen
load ing
ĠW AR
AT ED
Ġg ave
Fail ure
us iness
G C
exp ression
P ER
S ervices
Ġfin ished
Ġcont ents
; <
Ġneighb or
ne ut
Ġper fect
ĠAn y
} &
Ġp en
Ġinter actions
Ġse cret
Ġsche ma
ĠEx ample
anc er
}} ^{
atal og
Ġnear ly
Ġconf lict
ĠM at
Ġar riv
Ġpar allel
Ġcontinu ed
own er
Ġcon figure
Ġdocument s
199 5
dis able
Ġpro ceed
P ers
Ġex it
ob server
ic les
(' /
Ġfore ign
ch anged
ĠFr ance
clu ding
z a
st on
ĠWh ite
S M
Ġf ight
t ick
Ġco sm
Ġth reat
h aps
Ġ il
D rop
ĠAfr ica
Ġstud ent
Ġc ard
ut ing
Ġg ap
Ġocc up
Ġinflu ence
f c
s ive
a pt
Dis posable
) +\
V M
CE SS
vari ance
St ats
display style
$ ~
Ġre ached
h ome
Ġclass ification
Ġw rapper
p ace
it ar
Ġfor med
ther n
Ġprov iding
object s
Ġbo ard
Ġc ycle
Ġad just
sup ported
") ]
ch unk
y y
set Attribute
ĠR iver
h ips
ak ing
Ġspec ify
Ġcom ments
Ġvers ions
Ġunderstand ing
T otal
Ġbind ing
ele br
ro ke
Ġcomb ined
ffic iency
ĠComm ission
Ġb in
k m
D T
Ġob vious
ĠD an
ext ension
ilib rium
Ġplay ing
dis patch
p u
Ġw ind
Ġde sp
Ġ' -
B O
ĠPro v
Ġm other
Ġ( [
Ġproject s
ĠIm age
W ORD
Ġ ion
Ġlay ers
Ġrest ri
comp onents
to LowerCase
L a
sh ared
orig in
ĉ ĠĠĠĠĠĠĠĠĠ
L ibrary
Ġconstruct ed
F ORM
anch or
Ġro ck
Ġre li
ĠA ward
Ġv s
ugh ter
ĠDes c
t iny
RA Y
Ġst e
Ġclass Name
ĠS um
up lic
Ġcau sed
en a
f lu
FN GL
I VE
Ġopen ed
str ument
" },
st ats
AT CH
Ġen v
ĠLO G
ann ed
. $$
) -\
ĠOption al
Ġus age
d ig
Id s
ã Ģ
re peat
Man y
Method s
Ġschool s
Requ ired
DE BUG
m ical
' ll
R o
CO MP
C lear
Back ground
sc ape
Ġcon serv
Imp ort
Ġview s
H S
ĠM ult
F ocus
w arn
p ull
Ġ" '
Ġdifferent ial
Ġm olec
b c
Str ategy
Date Time
ab e
de cor
ac count
Ġstreng th
Ġo dd
Ġt or
Ġte levision
Ġr ace
_ );
Ġdepend ing
Ġrel atively
Res ources
Ġgalax y
Ġparent s
in herit
Ġt d
ĠV is
Ġcre ation
Ġf ederal
j ac
r ate
fr ont
Ġmed ical
Ġth ick
z ure
}( {\
g it
ĠM art
bo se
STR ING
Ġjo ined
aj ax
at omic
Ġr ing
Ġo scill
Ġin verse
Ġopt ical
Jo in
ab ric
iss ues
Ġch urch
........ ........
Ġf ine
Ġdo ub
ful ly
ĠS che
Ġtr uth
Ã ¶
Al ign
ip age
s n
Ġinter pret
w hat
ĠM ary
ist ical
Ġst yles
Ġsign ature
Ġst aff
: '
Ġcon cent
b g
Ġmin utes
W ait
Ġapprox imately
J ava
Ġsecond s
Ġco p
Ġsome times
R C
ĠVAL UES
Ġb ur
Ġen jo
ist ers
F il
ĠT emp
ign ore
ĠV ir
ri er
Ġout er
Ġre v
ine se
- (
subsc ribe
Ġpro jection
Ġ" ";
olog ies
mp t
a N
Ġim ag
T imer
Ġfund amental
st ic
re lease
F l
M er
ch mark
ĠA ccording
ud get
ast e
f ound
ro le
et ween
Ġvalid ate
uss ia
lat form
Ġp ages
Ġshow ing
Ġrespons ible
ur ations
Ġde tected
Ġmove ment
und red
en ess
Ġprov ed
P y
Ġe ast
Ġcon version
S cheduler
Ġtechn iques
Ġass ist
os ity
INT ER
ĠAl though
F in
Sh ort
Ġoptim ization
Ġassign ed
ation Token
se y
ĠJ ack
ĠS VG
O ther
x s
ur a
Ġnot ed
P UT
C ALL
ĠComp any
Ġ ult
Sup port
LE CT
Ġapp oint
ĠA ction
Ġpl aces
w arning
F IG
Ġw oman
. <
Ġp ull
ĠIn put
g lyph
a o
} )$,
Sh arp
Ġsum mary
Ġtr ust
ĠH all
s uch
ymme tric
C B
pre vent
sec ut
Ġstrong ly
D river
Ġmajor ity
Ġr untime
up s
19 80
Ġres on
="../../ ../
Ġinst ant
Ġorgan ization
Ġw ife
ĠC lo
Ġv eh
Ġa mb
&= &
Ġjo urnal
inter val
act iv
} }$,
ĠW rite
c ursor
ĠB ra
h bar
cent ury
ĠF our
Ġin sp
ent al
low er
m ing
ĠB ack
Ġc m
br id
Ġabs or
con g
ir med
ĠSe cond
} }$.
ĠRo bert
ĉ ĠĠĠĠĠĠĠĠĠĠĠĠĠĠĠĠĠĠĠ
Ġjav ax
B asic
Ġlim its
duc ation
k o
Ġshow ed
s ync
Ġex c
op ic
Con ver
ĠS ociety
Ġexp ressed
ab il
ro y
ane se
ss l
ĠB ig
ĠApp end
high light
Ġf reedom
Ġelect ric
RE Q
Ġexecut ed
ĠHamilton ian
Ġdiffer ences
Ġhyp ot
Ġslight ly
Ġde ad
Ġv ac
map s
Ġb rief
ell ig
Ġsc ene
FF FF
b uilder
ĠS QL
Ġqu adr
DE FAULT
ĠCol or
C ategory
Ġtyp ically
Ġse ctions
lo tt
ogene ous
f lex
Ġw orth
ĠP RO
Ġ$ |\
Ġclu sters
18 0
C LASS
ĠL ou
Pro totype
has er
in ject
ID E
Ass ign
Ġxml ns
Are a
T ouch
uf act
199 4
I A
( .
Mark er
ĠE mp
ib ling
l ig
i ro
An notation
Ġcomput ation
Ġmin imal
Ex ample
ĠM er
ic ode
Ġmagn itude
ext ra
du led
Ġf avor
Ġpro tect
}$ )
s ig
B ool
Ġst ated
j unit
Ġapplic able
y r
Ġd ialog
k ubernetes
ang ing
Ġtradition al
Ġse ctor
Ġload ing
j pg
@ {
> ;
ĠN etwork
Serial izer
ĠBo ard
hen omen
Ġpub lish
o mp
h ol
H z
App end
] }
Ġre served
Label s
Ñ ı
ĠF inally
Ġc ss
Ġrem ote
D ATA
S equence
B lob
Ġpre t
Ġst ay
Ġc y
Ġs ociety
Ġac comp
Ġl ang
ĠPro gram
s imple
Ġc md
Ġscatter ing
ĠRes ult
Ġaltern ative
Ġset t
j ango
Ġre asons
) )$
Ġf oo
Ġep isode
Ġpass word
Ġdescript or
min ipage
ĠGerman y
In sert
ordin ate
F inally
b en
o on
Ġactiv ities
c amel
d p
Ġp seud
ĠCommit tee
Ġun ion
ri min
Ġd x
Ġevalu ate
go ing
A ng
se par
St at
pro vider
ĠPro f
Ġf ragment
=" /
Ġdest ination
Ġattr s
Argument Exception
B its
res ources
Ġstart s
ï ¼
angu ages
Oper ator
) }}
Ġbro ught
he mat
m aterial
um my
Ġcon ven
ME THOD
Ġide al
Ġprov ider
Ġs ynchron
' ].
Ġind ices
Ġrequest ed
Ġ{ $
urs ive
Ġhar mon
ĠB u
lo cale
ĠMich ael
'] );
G u
R T
less sim
pre vious
) }_{
N ormal
transp arent
k w
m ix
c ref
ra se
ĠTex as
Ġpo or
Ġdr ug
h orizontal
Ġsome one
PRO C
Ġover flow
ad ian
Ġa x
Ġdel ta
Ġredu ction
Ġto ur
side bar
(' <
ĠR oman
Ġ' ,
ĠU nder
A G
ol ves
Bound s
tool tip
Ġb ug
Ġre call
B o
C red
Ġq q
VAL ID
F ragment
Ġg ir
ĠM ac
ĠR ad
ĠCh ild
ail y
ĠF in
i ary
Ġscen ario
Null able
: }
Int roduction
maz on
Ġstr ateg
Ġscal ing
k es
$ ),
Ġcalc ulation
ĠA re
ĠF ind
," ./
Ġbe g
Ġdev ices
ap is
ĠF il
Ġ' %
T ABLE
ĠC ath
Ġre ports
C RE
or ation
Ġin her
h ave
P ublic
m ass
r ons
od ay
ac cept
D ay
Ġtyp ical
ĠGovern ment
Read y
Ġh ole
un ce
}{ |
ĠEx ecut
t k
Ġpredi ction
Ġpr ice
Ġw arn
ON G
t ensor
pop up
Ġregister ed
e val
(' #
Mon th
Ġsequ ences
ĠU til
L anguage
Ġinterest ed
B egin
Ġs cheduler
Ġlet ter
o pe
al d
Ġle ader
Ġgiv ing
Ġobserv ation
25 0
Ġes cape
V ideo
ĠB lock
Q U
at in
Ġe ight
pect ive
Ġd ie
Ġh ol
Ġpl aced
h box
Ġcommun ication
os er
P air
fe ature
Ġcalcul ations
Ġlist ed
ri m
ens us
Eng ine
he el
Ġb atch
ill er
ree k
Pro duct
sp lice
19 70
del ay
Ġprofession al
Ġmod ify
ex tern
Ġindu ced
Ch unk
Ġb undle
n y
There fore
P ref
RE G
umpt ions
Ġindividual s
Ġw arning
ur able
Ġfunction al
/* !
Ġpro port
ĠM usic
Ġex cit
anc ell
Ġtag s
f lat
D M
Ġin j
b asic
config uration
Ġnormal ized
B atch
P lay
Ġst rain
attr s
Ġsuccessful ly
Ġdirect ed
Ġgraph s
ĠSe lect
al gorithm
ĠM us
ĠG lobal
" ].
cl a
D iagnost
p ref
Ġn ation
Ġse ven
lement ation
S K
S ame
Ġdeg rees
W atch
ĠD ocument
ue st
ĠP DF
# {
d c
######## ########
op acity
ĠPl an
Ġcode s
s ocket
Ġmat ched
j a
Ġre gex
Ġpol y
st ein
ĠSec ret
Ġp p
pl atform
Ġcar ry
ĠH AL
pl an
Ġ ..
Ġiter ation
0000 00
itu des
D L
erc ial
Ġampl itude
z en
Ġre sp
OR Y
ctr ine
Ġcomput er
l legal
Ġevent ually
Ġsp ent
IN FO
ĠM ex
Con vert
ĠY ear
j i
ĠĠĠĠĠĠĠĠĠĠĠĠĠĠĠĠ ĠĠĠĠĠĠĠĠĠĠĠĠĠĠ
con vert
c pp
Ġh or
eng ine
ĠArm y
199 3
ĠI R
Ġm asses
12 5
date picker
ank s
Id x
e es
ow ers
it a
on a
)) \
ap ers
Lo op
H ER
re ject
Deta ils
Ġdecomp osition
ĠLoc al
ĠT ur
Ġconsider ing
Ġlate st
Ġd raft
ĠZ e
an imate
Ġs en
() ))
j ax
Ġcomp osition
Ġpar sed
Ġser ious
{ %
Char acter
Ġg lob
Ġro ad
gener ated
Z one
199 2
er ial
T T
are t
[ -
Ġdocument ation
ĠM ost
Ġ! !
Pass word
Ġweight s
im ated
it ivity
p air
ilar ly
get Element
Ġrec orded
b t
DU LE
Ed ge
Ġmass ive
s lide
MO DULE
Ġag reed
Ġl umin
sc hed
ys ics
Ġw rap
C M
ĠD uring
(" ./
Ġcon vex
}{ (
ĠH ttp
Ġh ide
OR TED
PO ST
=" "
ĠAfr ican
AA AA
ĠA lex
ser vers
P ay
T wo
Ġ@ "
ly mp
c fg
Ġtool s
! [
**** **/
ĠPro cess
key word
Ġs ys
default s
es ian
Ġevalu ation
h ar
ap es
sequ ent
ĠP oint
Ġ/* !<
\\ &
s at
Ġmeet ing
Ġ" %
a fe
Ġs ql
Ġfri ends
Ġse ll
Ġflu ctu
get Attribute
}\ ,\
Ġcit iz
Ġchannel s
d irection
Object s
ĠM edia
Ġsub group
ĠSh ow
Ġk m
ĠI ter
Ġrequire ments
Ġh undred
A bs
ĠO p
De v
Ġ' _
c atch
Valid ation
F r
/ (
est ival
ĠW IT
re lation
mut able
is Empty
t frac
Ġintegr ation
sk i
> :
Ġ ener
in vert
all ery
function s
resent ation
Ġdec ided
{ },
Ġc yc
big l
c ross
Ġcomplex ity
C ursor
IP T
$ &
ĠOb servable
ace book
Ġp y
stru ctions
n ative
w ill
const ant
ĠPar ameter
} </
H ow
Un known
Ġopport unity
Ġtheore tical
b lob
P Y
Ġp henomen
ĠA cade
de ep
Ch ain
ant om
Ġwork ers
An alysis
y er
Ġequ ip
ven ue
ĠV i
Ġ\ ]
Ġstat istics
Ġp iece
Ġleg is
ĠCong ress
ab c
ĠP HP
E lem
Ġent ropy
ph one
ĉĉĉĉĉĉ Ċ
ve e
Ġser ve
script size
Ġc elebr
Ġcoll abor
Ġmain tain
fin ity
Ġim g
p an
li ament
Att ach
Return s
Ġachie ved
Ġle mma
Ġtherm al
(" /
sy ch
R aw
Ġcoe fficient
Trans ition
ION S
Ġp ixel
ar ia
r v
Ġarchitect ure
k in
Ġend point
Ġfind ing
ex ecut
br ace
Ġf lex
Al low
an i
Ġ rise
ĠB Y
Ġreco ver
ĠT wo
ont able
Ser ies
ĠS M
Ġsay ing
Add r
Ġin deed
Ġacc eler
LO W
Ġhe avy
ĠL ine
Ġlog ger
lic ations
P rivate
Ġag greg
Ġe ase
Ġs ync
Ġto kens
AD D
w orld
Ġsol ve
Ġprinc iple
M IN
Ġinput s
ĠComm on
Ġsp read
Rep ository
Ġres olved
ĠJo urnal
Ġscal es
m atic
it o
Ð ´
Ġ ens
Ġpay load
i ar
l ations
av el
ĠB ill
pl ain
^* $
ĠOr der
Act ivity
fl ush
MA P
t body
qu ote
Ġt ail
part s
Ġsimp l
FF ER
p f
big r
NS String
Ġpattern s
M ixin
'] ['
vari able
Up load
C tx
col lapse
ig ator
Point s
anc is
or ial
Ġappe ared
Ġlog ic
C ar
Ġcre ates
ĠFurther more
ĠOff ice
AR RAY
el i
to Be
Ġ} ).
Ġ[ \
Column s
sl ider
ri ptions
ĠL ie
Ġk illed
Ġpur poses
ĠP ub
se q
re gex
ĠR ussian
_ )
Ġqu ark
S creen
ĠM useum
ĠCh inese
Ġequ ality
Ġme trics
Ġuncertaint y
En umerable
Ġst ories
Ġdis crete
}} }\
ĠAs sembly
B al
U D
Ġre con
Ġnuc lear
m k
yg on
Ġden oted
Ġv ote
ĠL L
ust ain
Ġp urch
AN T
Ġj s
ĠT imes
ĠWAR RAN
Ġtrans lation
p ag
Ġlist eners
Ġassert That
Ġho sp
Ġgu ide
N C
Ġsc an
/ .
b ot
ĠS ource
B ottom
Ġmaterial s
Group s
h ook
m ac
ĠHand le
ĠA li
Ġbe am
ĠC ustom
ĠV ol
Ġs n
serv ices
Ġd ust
_ -
op es
Ġsong s
ĠB ecause
get Value
g ies
Ġdef ines
ph ase
ra ms
e lect
a ur
F older
b atch
ĠSte p
rel ative
Ġsem i
Ġrot ate
EN ER
clus ions
uff ers
Ġsatisf ying
Ġident ifier
Ġ' #
ĠR ussia
Ġneut r
ĠDirect or
Ġ" .
w riter
Ġprec ision
En ter
Ġexpress ions
ĠMin ister
Ġ' [
ĠSec urity
ce eded
Ġ ^{
ĠCh ampion
Ġprior ity
Ġe fficiency
Ġf lo
ĠSer ies
ĠP et
Err ors
Ġtra ined
b p
ĠC up
\ }$.
Ġc lock
ction ary
art icle
ok en
ĠS ur
S F
Ġdist ingu
stand ing
math op
is set
} ],
D IS
Res olver
Ġus ual
per iment
ĠI mm
ĠFor ce
Ġa udio
if est
Ġsh ip
Ġdel iver
Ġapply ing
Ġpol icies
av ailable
C ast
ĠN AME
Ġocc urred
() `
ĠC OM
UN D
Ġra pid
Ġorder ed
co gn
T F
] $.
Ġp ixels
Ġlocal ly
$ :
Ġs ch
dis c
neut ral
Met rics
199 1
Ġis ol
ĠM ock
ĠM ain
b d
C ur
}} _{\
Ġm us
assert True
ĠSm ith
Ġaw ait
j et
z oom
Ġbir ths
ph ere
> ()
exp and
v ol
ĠW hether
Not ification
ri end
ĠH ome
ĠE ducation
Ġ| =
r ich
b or
ĠP en
ĠAp ache
Ġj ump
Ġ' ')
Ġturn ed
ext ends
Ġb illion
Ġquick ly
or ient
MO DE
Expect ed
Ġcar ried
Ġir re
Con tains
user name
Ġs ymp
ĠSo ftware
Ġopen ing
ĉĉ ĠĠĠ
Ġp icture
coun try
Ġhapp ens
Ġm or
Ġdi ct
mat ches
M I
Enc oding
ĠR ob
are n
ĠK ore
Ġgener ator
Group Name
ĠC lear
ĠTh omas
par agraph
Ġinitial ize
Ġin tr
,\ \
Ġatt ract
ĠB it
$ _{
add EventListener
Mess ages
S ql
em on
gener al
Ġs ites
not es
C ancel
Ġs qu
En vironment
ĠD at
ĠJap an
lap sed
Ġ eth
Ġdis able
Ġphys ics
trans late
ĠS E
F ree
Ġinter pre
Ġeff orts
me ssages
az y
Ġeff ort
Ã §
h pp
Ġh um
ĠVir gin
mem ory
Ġz one
Ġcon j
Ġsur vey
+ (
ĠG al
Ad min
Ġth ous
Valid ator
p b
p ower
ys ical
Ġb g
) })
i en
Ġfail s
al ias
B B
Ġb tn
Ġvill age
con n
ĠC G
P ub
ode s
am az
Ġcon nections
Ġpart ners
ĠA v
im ing
Ġ\ !
Ġlaw s
sub str
(" %
C md
Ġre peated
rib ed
pol icy
Ġenc our
Ġx hr
Del ay
Ġcheck ed
act or
Ġc e
S ch
In f
as er
ĠV ector
play er
un ct
Ġ$ _
cont ents
CH AR
Ġdat asets
Ġnuc le
Ġset Timeout
Ġrob ust
ĠT or
Ġa cade
Ġal ias
Rule s
al gebra
Ġpart ies
) --
6 00
Ġinst itut
Ġregard ing
sp here
ĠG old
f old
in ity
Ġs izes
ĠCon vert
x ff
ex ternal
Ġs lice
list ener
ĠDe lete
Ġcomput ational
Ġinter section
ref resh
Ġtra ject
d ocker
Re set
Ġgrav it
ĠS al
Ġcan onical
p res
Ġra ised
comm it
act ual
rypto JS
Ġso ft
ver b
Ġm ale
Ġimport ance
Ġatt ach
onal d
ĠB ank
Fe atures
ĠH en
Us age
ĠG iven
Dis patch
Ġe mit
ĠS u
Ġ â
as y
V irtual
EX PORT
and ra
ĠRet rie
/ ******/
Ġf ocused
Ġthe me
Th row
F urther
Ġ utils
ffff ff
ĠS am
Ġhel per
Ġup dates
( ['
Ġ ĉ
AR B
] *
Ġexplain ed
Ġp ending
S ave
ĠCent ral
Ġrepresent ations
Ġtop ic
Ġpri me
ĠB est
M ake
at ched
Ġcommun ities
ĠWest ern
s quare
Ġcol ors
AT OR
ĠL ink
}} )
LO C
W rit
Ġde t
ĠB ook
Ġp ain
str ings
Ġchang ing
ĠC A
ĠC H
Ġbir th
node Name
ord ers
Ġcost s
ĠSc ott
Ġpass ing
ra ined
Ġext ensions
ver tex
ĠD en
Ġd ip
Ñ Į
sl ash
A cc
Ġdescrib es
C G
f p
Ġ{ "
anc ing
ĠL android
ut ation
ĠI ran
Ġst ability
Ġmark ed
us ers
ĠSh ort
Ġshe ll
am ous
bound s
Ð ²
ĠIs land
AN CE
Ġmedi um
ĠPar se
Ġindic ating
Ġc ached
form al
Ġest imation
ext ensions
ĠFr ancis
ĠF lor
ĠIn deed
Ġdem and
St atic
over flow
ro om
() ),
/ {
Ġcandid ates
f ake
Ġsubst ant
Ġmot iv
ĠAb stract
Ġcoup le
,\ ,\
ĠC ap
he ta
Ġgrow ing
Ġgr and
ĠCar ol
Ġmark er
l ings
Ġre member
Ch art
}) (
Ġweek s
P layer
Ġallow ing
m is
Ġas sess
Ġmar ried
ĠJ er
Ġmost ly
Clo ud
ĠP op
The lia
E ffect
Ġr at
st ates
Ġbehavi our
Ġs ocket
Ġass umptions
D ig
ĠBy te
Ġcontrol s
Ġact s
es cape
u um
org an
Ġd t
Ð ¼
enc oding
Ġide as
}) }
Ġa udi
ĠD i
ĠN ext
En code
Ñ ĭ
Ġas sembly
A SSERT
Ġpat ients
Ġv oc
Ġold er
Ġf ake
Ġrece iver
S G
] $,
comp ute
Loc ale
depend ence
Ġwas n
S he
c urrency
Ġmin or
if ts
Ġbul k
Sup ported
ist ence
Ġpret ty
serial ize
Ġpl ans
Ġre verse
ierarch y
iffer ent
Sum mary
mult ip
st one
ĠP ass
: `
lip se
ĠT op
ĠG reat
Ġdepend encies
Ġe arn
bind ing
âĢĿ .
r int
ag r
}[ \
Ġsufficient ly
BU FFER
me an
Ġca pt
) >
long rightarrow
ĠP age
Ġb ias
spec ific
H ome
f ast
L Y
Ġbroad cast
Not Found
Ġper missions
t i
Ġdis p
Ġp i
Ġsu itable
neg ative
mo b
tr ivial
Ġfour th
X Y
log in
Class Name
Ġarray s
A F
G N
ist og
ĠSt atus
Ġ$ ,
S l
gra d
Ġproper ly
Ġrefer red
Ġsu c
prevent Default
~~~~ ~~~~
Cont ents
it ors
Ġal one
Execut ion
De ep
MA GE
Pro of
ograph ic
Ġal pha
Ġmod ul
Al loc
c line
ĠJ ose
Graph ics
ter min
Ġsum mar
Ġdefinition s
G o
Ġmax im
ĠS ymfony
D iff
ĠE ven
Ġte ams
Ġde legate
10 1
FI X
Ġro ugh
Ca pture
W IN
Ġ(! (
Ġd u
G ER
Ġb all
z ed
ĠS ign
ap pe
}_{ {
Ġequ ilibrium
stro ke
column s
script style
B ook
= >
M LE
w d
orn ey
ĠC R
Ex ists
Ġstate ments
d frac
sub string
Ġop in
t l
ĠM iss
Ġign ored
Ġde code
Ġcol lege
Ġacc um
li k
ĠP FNGL
Ġcan cell
at ibility
Ġin come
Ġinst alled
ic ago
t ract
| }
DE X
Ġenjo y
Ġmay be
__ .
Ġcon sequence
block List
st ra
am ing
Ġhy dro
con v
ent y
am er
Ġc ategories
Ġw allet
ĠC ase
name d
ĠB rown
ĉĉĉĉ Ċ
Ġw aves
empty set
Ġext ent
Ġstat istical
> )
sign ature
v art
Ġlo ader
ĠU sed
Ġwh om
de code
A udio
C ook
Ġname ly
Ġco ol
Dep th
Ġsp irit
tic les
Look up
ãĢ Ĥ
connect ed
, {\
Ġt err
Ġm ission
Ġman ufact
Ġadvan tage
Ġcla ims
FLA G
Ġevery one
Scal ar
ĠD S
u er
f ol
B Y
ĠS uch
ell ing
Ġcharacter istic
Ġm ur
P HP
Ġvari ation
Ġal leg
st andard
ĠGL int
C enter
\ ;
P haser
198 9
ry ption
let s
' +
Ġatt ached
F ixed
elastic search
tri angle
Pl ace
Ġneighbor hood
Ġ\ "
\ /
Ġm ount
ĠRich ard
Ġtechn ique
as sembly
Ġp lease
qu ant
Ġlead ers
ĠEar th
Ġmon itor
Ġinter act
=" @
Ġph oto
;\ ;\
Ġsupp lied
Ġdis patch
ur t
Ġwhere as
se m
ĠI L
} ))
List eners
t an
Ġchall enge
Ġw ire
hav ior
ĠA mazon
end or
ĠF ROM
Ġin herit
h l
Ġbe aut
12 7
t imer
Const ant
cre d
Ġtre nd
ĠM ass
ĠCath olic
Rem ote
Ġn p
aw a
p erson
ĠBo th
-- ;
T Y
bm atrix
sub mit
ĠM odule
Ġinv oked
Ġsatisf ied
ex it
Gener ated
Ġlearn ed
Ġc amera
\ )
Ġ ----------------------------------------------------------------
Ġaccur ate
å ı
j ar
ĠF ix
ub b
ĠSup er
ĠO lymp
os h
Ġdesp ite
re ce
n p
Ġmax imal
Ġman aged
contin ue
Lo aded
ĠRo yal
Decl aration
Ġpro pos
nthe tic
. ',
ĠL ife
audi o
S pe
' d
= .
Ġh orizontal
ig gers
T erm
Ġrelig ious
20 22
c li
SH A
rule s
v ature
sub ject
ĠL in
ĠH ill
Ġobject ive
Ident ity
Ø §
In to
Re v
Ġparse Int
re port
on ed
Seg ment
ĠDiv ision
M s
requ ency
Ġincor por
Ġco inc
RES ULT
S rc
Ġs al
g ather
ĠIs lam
Ġdiag onal
Coun ter
ĠP eter
ĠR ights
Ġpr ison
ibr ation
Ġinter pol
aw iki
re ason
Ġtr ivial
NO DE
L eg
Ġthan k
Ġb os
medi awiki
th ere
Sh ould
ĠS ocial
D r
Ġman ner
H C
Ġoriginal ly
Ġliter al
66 66
Ġcorrect ly
$ {\
lic a
ĠS yntax
[ ],
igh ter
Ġc ipher
as sets
Pl an
N UM
Ġf s
ule s
const raint
ĠA rab
Ġhand ling
0 10
ĠAustral ian
ul ing
is Function
ĠAppend ix
sh all
ĠC amp
ov ed
amaz on
Ġmain ly
Ġdirect ive
V AR
Ġhe at
Ġencode d
ĠU s
ig gs
ĠArray List
L ike
ĠCont rol
Sh ader
ĠF l
Mem bers
dat abase
Ġtri al
Ġa cknow
az ine
Sk ip
lic ense
S plit
Ġcont radi
U int
EL D
I ZE
Re lease
================================ ================================
Ġcover ed
ĠF acebook
ĠRo ad
Ġp urs
ĠLou is
P DF
ĠPol icy
st or
sched uler
ff f
remark s
Ġup load
G oogle
Ġcor por
eli hood
) }_
Ġm o
ĠCl ub
n ail
al ert
Ġpl ant
ĠSt ream
d ynamic
Ġp atch
}} .
\\\\\\\\\\\\\\\\ \\\\\\\\\\\\\\\\
Ġint ended
oriz on
Ġel li
tikz picture
d ark
Ġa ver
medi um
Ġderiv ative
Ġin fra
al i
Ġsh ock
G iven
Ġg old
li e
Ġpack et
B order
F ALSE
HE AD
method s
e ven
Ġcomput ing
Ġf irm
ĠL i
col lect
valid ation
ĠC lient
Ġse ed
Ġda ughter
ĠIt s
Ġident ical
u v
Ġcl imate
comp lex
Ġdepend ent
SE LECT
Ġaffect ed
ĠEng ine
Ġsub sequent
und ay
ĠCon text
l aw
B L
Ġpredict ed
Ġ} {
ri age
Ġa ware
Ġtre ated
label s
ce il
ĠPr int
m en
im its
Ġtre es
Ġinter view
Ġapp arent
ri ber
ĠOther wise
=\ "
Conver ter
Ġpro totype
Ġl ies
face book
F ix
Ġnav igation
Ġposs ibility
ner gy
cre ment
Ġsamp ling
Ġart ist
Ġtime stamp
Ġco verage
Ġr ational
ĠIn formation
Ġiter ate
Ġder ive
Pe ople
Ġconvert ed
? >
Ġend s
( []
de velop
N ET
ĠF OR
Ġchar set
Ġan chor
Re port
ĠH uman
semb le
in teger
ĠC E
ites pace
att ed
Ġdise ase
Ġre peat
cal cul
Ġfa ith
ter rit
Ġmanif old
ĠS pe
Pro gram
W orld
ĠAd min
Ġemp has
Ġche mical
) ",
ra q
Tr igger
Ġpl us
local host
\ }\
ult ane
r ank
Ġ// !
b inary
ĠCan adian
Ġlimit ations
Ġfor ced
ĠFr ank
Ġguaran te
h ouse
}) =
de precated
$ };
ĠL y
Run ner
ĠL ibrary
I AL
TH ER
Ġdef e
R ate
L emma
umb nail
Ġm om
U ST
BP ACK
Ġcomm ercial
al ing
ire ctions
Ġwait ing
T x
Ġpl ays
look up
ch a
ĠD ir
mark er
ec es
Ġto ward
S ur
sh ips
Ġel im
ĠS SL
mm ing
On ce
Option al
at re
W arning
Ġ-- -
Input Stream
| }{
ĠE V
Ġconf irm
Ġprecise ly
it led
us al
rt l
Ġembed ding
ĠB uffer
cal endar
ĠAn n
Sty les
ĠDe ep
Ġsche dule
tr ansport
N aN
Ġpredi ctions
it ation
v g
ĠS un
Ġred shift
Ġlook s
t ries
nav igation
Ġb right
r ick
S N
Ġbenef it
pt ic
illi seconds
Ġsuggest s
ĠExp ression
19 60
territ ory
com b
Ext ensions
f ailed
ĠL os
reate st
LI ST
J ohn
re land
Ag greg
ĠS pr
Ġsaf ety
m ay
et c
Ġnecess arily
][ ]{
uff ix
member Of
S ample
Ġs b
t f
Ġdis s
h ard
ĠB i
Ġd ense
OP T
ĠL and
Ġcau ses
Ġt end
TI ES
c ert
Ġcop ies
od ies
Ġimp licit
Re al
}) ^
Ġcirc um
Ġ' ''
Ġart ists
" ];
Form atter
**************************************************************** ********
Ġloc ations
Us ers
H ence
Ġs it
Ġattack s
list eners
p ad
}_{ -
as m
Ġab ort
att ing
in tegr
Ġasymptot ic
Sign ature
qu est
Ġ} }
Ġf erm
Set ting
ĠP lease
N d
ĠR out
m its
Ġcrit ic
re ader
reg ular
Ġrad ial
Ġcomplet ion
U nder
Ġdr ive
Ġtext ure
MP L
P adding
at o
ĠJ ac
ellig ence
/ "
In ner
ĠSp an
}} ^{\
ut down
ĠĠĠĠĠĠĠĠĠĠĠĠĠĠĠĠ Ċ
Ġord ers
per iod
Re place
BOO L
IO Exception
Ġadopt ed
ĠPe ople
ĠSt andard
"/ ></
Con sider
198 8
Ġis omorphism
i ota
ot ic
v o
Ġradi ation
iz ers
Ġsuggest ed
g oto
S pr
Ġra il
ĠÐ ¿
ĠFlor ida
er ce
Ġoff ers
Ġtop ological
Ġecon omy
A SS
ĠS imple
Ġke pt
Ġg un
ĠD B
M ount
y an
ore ign
ap h
Ġpower ful
T V
ĠSt ar
br as
Ġra re
am i
EV ENT
ĠAcade my
B ucket
ĠW ill
ĠC urrent
{ })
Ġt x
un ities
ĠDe velopment
Z ero
ĠReg Exp
Ġ} ),
Ġw ild
[ _
ĠF ree
B uf
ymme try
de legate
ĠĠĠĠĠĠĠĠĠĠĠĠĠĠĠĠĠĠĠĠĠĠĠĠĠĠĠĠĠĠĠĠ Ġ
ĠT om
ol a
vart heta
ĠS ymbol
Ġf ol
, ...
w er
pri se
198 7
h d
ĠWARRAN TIES
Ġdisc rimin
Ġen h
Ġinvest igation
Ġexpl an
Ġinitial ly
sh ire
. """
C trl
Ġs old
ĠS ervices
< !
Ġor th
Ġf if
< <
ĠMA X
spect or
Ġsol ar
spring framework
ĠW rit
ĠA uthor
Ġi i
Ġposs ibly
Ġener gies
Be an
Ġreturn ing
al so
help ers
Ġimpro ved
Ġper haps
] ->
ore s
Ġf rag
th rift
ĠB usiness
ĠS ing
u an
ca des
ĠP O
$ ^{
NavBar Cell
Ġperiod ic
Ġro ll
bl ank
ĠComm and
âĢĿ ,
ol f
node Type
os c
Ġch ance
py thon
IL ITY
Ġ' @
f rag
up per
Ġne ural
* \
ĠGL enum
Ġplan et
= $
Ġorgan izations
Process or
po ch
Ġvari ance
S m
ĠR ock
iv ery
it t
P M
Ġfilter s
ĠM il
Con tain
In formation
\ }$,
Ġopp osite
Ġab und
Z oom
b an
ĠSpec ial
Ġturn s
Ġgeneral ized
form er
++ ]
ĠN on
Ġaccept ed
ay lor
Ġsum mer
Ġnon linear
ens ities
ĉĉĉĉ ĉĉĉĉĉĉ
P H
Ġevalu ated
LIC ENSE
we ak
ĠI r
ĠC ast
w a
m aml
v in
Ġjob s
Ġd ra
Orig in
Ġphot on
I Z
Ġb udget
ĠM any
M a
s ch
column width
ĠOut put
` )
Ġexp anded
0000 000
Ġspe ech
ra ise
b ib
ĠS earch
Ġfin ish
cl s
ĠY our
Con sole
redu ce
Ġind ent
Ġinvestig ate
os oph
Ġside s
lic enses
it ative
! \
se ll
Ġcomb in
act ic
. ');
ag ation
ĠChar les
Ġph il
contain ers
Ġadmin istration
Ġann ual
Ġpolit ic
Ġs ending
}} =
define Property
Ġgener ating
char acter
Ġtechn ical
and a
if ul
k t
comp ar
Ġla unch
_ [
Ġdef erred
AN G
Ġtarget s
ĠThe ir
Ðµ Ð½
M o
avel ength
P ixel
m ixin
id ential
S V
à ¤
Ġsh ot
Ġdisplay ed
; "
on Error
abe led
Ġ' )
Ġlook up
is er
H AL
Ġimp lied
lo ss
ĠDef inition
Ġgrav ity
Ġen ded
Ġcitiz ens
F ake
class ic
ĠUS A
Ġf elt
Ġpe ace
Ġrel ax
Ġ\ (\
D ynamic
Man agement
S W
pt o
rit ical
direct ory
ï »
ĠÃ ĥ
Ġst ress
LE TE
Ġs pher
z h
end ant
Ġfem ale
Ġbal ance
Time stamp
Ġs lo
ĠO ffic
}, {"
ĠF ILE
AR D
Map per
T ile
Ġw ish
ï» ¿
an aly
trans action
Ġoper ating
Ġsex ual
Ġdeath s
uplic ate
ĠO P
Ġwon der
ĠIt al
uc ial
Ġcallback s
ĠRes ponse
: =\
ge les
IM IT
D one
b as
10 24
Ġframe s
) &
ĠMan agement
S witch
f etch
A UT
button Element
50 9
Comp iler
th ick
ĠCh icago
Ġcharg ed
u zz
ĠY UI
dist ance
par k
Ġsh adow
jac ent
ĠSup port
Ġhappen ed
Ġsymbol s
Ġhelp ed
ge bras
Ġd ashed
Ġindu st
ĠVirgin ia
iven ess
Ġst och
an im
ĠT own
Ġthe ories
1 12
ER S
Ġcomp atible
S VG
Ġd st
WE BPACK
inner HTML
rop ic
Ġo il
Ġin fer
ĠR est
Ġ Query
\ |\
c le
u ing
pl ane
Ġsign als
Task s
sc an
Ġh our
Ġc lip
Ġs aved
Ġorient ation
al og
Ġz oom
ĠM ad
ph antom
ist ency
m oment
col l
IL D
Diagnost ics
Ġm d
figure s
P latform
over ning
Ġtra ffic
ĠT YPE
Ġpro pose
ĠR ender
Ġequival ence
az z
F ill
ĠAmeric ans
Ġlo cale
n i
ĠPar is
Part s
} |\
ĠE val
p in
Ġdig ital
Ġm ath
198 6
SC R
> $
Ġelect ed
ĠKing dom
Ġw all
ĠLo ad
Ġw it
Ġ' </
iss ions
sk y
rows ers
ev t
Function s
produ ction
Ġpro tection
h istory
sub sec
p ared
u uid
Ġd imensional
Ġh ook
Ġass uming
Ar ch
ĠI raq
Se par
m apping
Ġsur round
E mail
Con tact
fil led
ok es
( ?:
ĠType Error
Ġunder st
j q
Ġcor ner
lement s
we et
Ġf aster
Ġf av
Ġr ich
ĠW omen
Ġinter mediate
T er
ĠJap anese
writ ten
R GB
L java
] {\
Ġpers pective
Ġhand lers
Ġcomp liance
decl are
Serial ization
Re gex
Ġint ensity
Ġequ als
ĠConfig uration
ĠRe port
Ġun iversal
Ġs an
S elf
es h
St ub
Sup pose
ĠCont ent
ash ion
ĠM ont
ĠG R
Ġembed ded
Ġhistor ical
Ġf etch
The y
d k
Ġde dic
ĠĠ čĊ
q q
ari os
R andom
Ġinv olving
} ~
^{ (\
Ġb re
Ġany one
CT YPE
Ġv oice
ĠP R
inter op
Sche me
ig an
he ast
Ã³ n
ĠE con
Ġcopy right
Ġquant ity
A ccording
M F
=" ${
Ġofficial s
ĠAn geles
ĠM iddle
Ġrecomm end
ĠI II
un safe
Av ailable
Ali as
D id
IN IT
Ġper mission
Ġhe ard
Ġb ands
M ay
Ġprinc ipal
P D
Ġ" #
R ot
il bert
int s
ig er
Ġassert True
Ġdi ctionary
Dec imal
Ġb ill
ĠO ld
ĠO N
Ġ uri
Hel p
not ag
Ġcheck s
: @"
L ines
un ched
Ġst ock
ĠM IT
F amily
t ile
L T
Ġin nov
c ached
Ġpre dicate
as ion
Ġag ents
Ġd iver
ve ct
ĠTH IS
up dated
Ġperform ing
Ġf ounded
Pack et
i em
ĠM el
Ġthrow n
ound s
se p
irc raft
pol y
Ä ±
ĠJ ud
ĠB re
ask et
ĠComp onent
CON T
Ġj et
lement ed
Ġn ested
ĠN av
Ġnot ification
Ġw ants
ur se
E ST
are st
Ġc riteria
og onal
Ġnumer ous
g ame
Ġapp lies
ĠP rivate
Type Def
med skip
ĠS il
p et
Ġsecond ary
ĠSecret ary
k ins
Ġspec ifically
Ġtri ed
print ln
Object Meta
Def ined
Ġsepar ated
ex amples
Ġg oogle
... )
ar ith
Ġbenef its
Ġstr ug
lic ated
od d
place holder
p riv
w all
k l
ĠP si
ĠRe view
ĠI reland
Ġbro ken
Ġel if
ID TH
Ġleg end
X i
Perm ission
SY S
ident ity
Ġact ing
Sub ject
Ġpa id
Ġf arm
k g
å Ī
ĠĠĠĠĠĠĠĠĠĠĠĠĠĠĠĠĠĠĠĠĠĠĠĠĠĠĠĠĠĠĠĠ ĠĠĠĠĠĠĠĠĠĠĠĠĠĠĠ
v i
99 99
UR CE
Ġmag net
Ġpres erv
rag ma
ĠE nt
if ference
Ġat mo
Ġnot ion
Ġm arg
filter s
ub ic
ĠAr ts
ĠCo unt
ĠB ob
i ref
sl ant
Ġhypot hesis
CON FIG
x f
Ġbelong s
Ġcontin ues
ĠF re
Ġrender ed
Ġdetect or
Ġcur vature
K it
Ġm obile
AR N
ĠJ es
oun tain
Ġappear ance
13 0
P df
u ke
}{*}{ $
p ages
am in
Ġn arrow
Pri ority
Ġn s
Ġquant ities
re verse
frame s
r as
ĠSt at
Nd Ex
ĠC ore
M issing
button s
ĠĠĠĠĠĠĠĠĠĠĠĠĠĠĠĠĠĠĠĠĠĠĠĠĠĠĠĠĠĠĠĠ ĠĠ
Ġfl ush
getElement ById
Ġstoch astic
ĠH istor
Ġp ipeline
ph ot
Ġs in
Ġcri m
clo sed
comp iler
; ">
Ġchalleng es
Ġapprox imate
Ġin strument
T uple
ma ges
direct ive
me ter
ĠE very
ĠA ust
ĠY oung
B M
Ġc ultural
li des
equ ations
Ã ¨
=" ">
w ave
RE D
L R
Ġle aving
interop Require
al a
Ġh uge
Ġcollect ed
D irection
ĠP lay
Ġrestri ction
Path s
p resent
= [
US ER
un ately
F OR
ii i
RE CT
Ġ( {\
t ics
R atio
sp in
ĠSer ver
Ġ\ &
h ab
More over
IN ST
Ġa ward
se gment
Ġlumin osity
ĠO S
Ġs yntax
Ġt imer
m f
Ġlow est
ĠT ag
Mod ified
Ġreason able
Ġqu arter
Ġessential ly
Ġauthor ity
198 4
Ġvis ibility
Ġlink ed
string ify
Compar ison
Ġt ables
n ol
cre ated
Ġs ustain
b log
Ġconfig urations
ĠMex ico
L i
size i
Ġre ality
Error Code
M aterial
ĠCon sider
un iform
Ġlist s
Ġt ur
Ġextreme ly
Up per
ĠT w
ĠVer ify
Ġs ports
ĠApp lication
Ġim mediate
duc ible
Ġl abor
Ġfeed back
down load
Ġent ered
Ġsim ultane
Ġ! (
Ġk new
ma ven
Ġdraw n
we ek
198 5
ĠOb ama
ĠF ilter
Ġeffect ively
ĠL iber
Dist ance
Ġindic ated
ir ation
Ġde leted
at ar
Ġexponent ial
al and
Ġar m
f loor
* ,
Ġte le
Ġdecl are
p ite
a ver
Ġme ant
Ġ* */
Ġlead ership
, '
sche dule
not ify
Ġplace holder
fe ed
^* (
Ġnull ptr
Ġtw ice
i ations
ynam ics
Ġcon vent
glyph icon
rec ated
Ġh us
ret ch
Ġadv ance
P erson
an alysis
ĠInst ead
Ġg overning
Ġex ceed
Second s
As sembly
g ray
Named Cell
h ow
ĠJust ice
Ġsort ed
ĠS af
ĉ čĊ
) *
or a
Ġtrack s
Ġwide ly
Ġdynam ical
Ġcrim inal
nt il
V ICE
) (\
Ġst ats
Ġcon vers
Ġp an
({ },
Ġar rest
Comp are
inv oke
ĠIn ternal
A ST
Ġcon clusion
G IN
}\ |
ĠI llegal
ĠS unday
Can not
Ġeigen values
Ġ Î
Ġdiv ision
ĠP an
i ra
\% $
Ġquas i
ro g
Ġdown load
Ġwork er
ĠDe bug
O wner
Ġcomp ile
0000 0000
A ctions
at iv
Ġretrie ve
ĠMart in
ĠR x
S ite
chart s
ar ity
Ġ' ');
ĠB ur
ĠF T
char At
in variant
Ġco her
Ġnew ly
ĠL icensed
rid ay
g if
Ġmat hemat
ĠF rame
) }.
ar ian
w iki
ĠO h
ĠCh annel
Ġcent re
rem ote
LA PI
Ġinter rupt
ĠGe org
ĠS ol
Ġsp ac
ate ver
, .
Ġfig ures
ss ible
Ġtransition s
ref ul
e per
Ġflu id
Ġde cades
Ġcorre ction
N umer
Ġlog ging
Ġconf idence
Ġdiscover ed
sche me
un ing
c hen
S lice
Ġcompet ition
text ure
Ġcho ices
l ar
Filter Database
STAT US
s r
Ġ= ====
K e
Ġhe ar
Ġbro ther
ĠN E
Ġcli ents
F at
LE MENT
M at
} ",
Ġcan cer
DO CTYPE
Ver ify
m iddle
An chor
MLE lement
B I
Ġ} ));
E mitter
render er
Ġpre par
Al pha
S napshot
Ġsup pose
Ġar c
x hr
d ays
GL enum
Gener al
Ġreject ed
ĠCor por
Ġto String
Ġgravit ational
ĠM ur
ar se
Ġt error
Ñģ ÑĤ
Ġl ie
Ġmur der
ĠJ ul
Ġconduct ed
H ook
Ġphase s
Ġinterpret ation
Ġro ut
ĠL ay
^{ *
ĠF ALSE
F oo
14 0
L iteral
ins ic
Ge ometry
ĠR ail
ĠI ll
^* \
Ġbe coming
ĠJ e
Ġgo als
Control s
Ġpre m
Ġl anguages
ĠA ccess
F uture
Match er
ĠSc ot
ĠS N
Ġfil led
Q ual
Ġact or
Ġcertain ly
Ġaspect s
ic ed
ig ate
ĠV ari
ec ycle
G a
l ator
ing ly
HER E
Ġbuild ings
Ġb attle
St andard
EN ABLE
ĠIntern et
ĠCh ange
Ġcl in
ĠH as
Ġfluctu ations
Ġ< -
agr ang
initial ize
istog ram
Ġp owers
n el
ob s
/ #
Depend ency
UN T
S printf
Ġa im
Ġoffer ed
Dis k
ian a
Su ite
uss ion
it ely
is son
Ġqu eries
App ly
an ced
Ġdecl ared
ĠT OP
Ġproces sed
f b
Ġdemonstr ate
Ġ$\ {\
S ymfony
] ).
Ġ\ ,\
P ush
st rip
Ġc fg
Ġadd s
ĠJew ish
Ġtop ology
ov es
ad y
Ġadd resses
ĠSup pose
b ro
ĠM O
urb an
ĠCon structor
Dis abled
Ġstr m
Ġsubsc ription
; )
ou ses
cor ollary
FI ELD
ä »
le ave
w ik
Ġwhen ever
=" $
Ġf amous
ĠSer ial
Ġli ber
A zure
C irc
mar shal
C ut
ru ption
app ings
Ġdiv ided
D uring
L ang
Ġc ities
TER N
ĠB E
AC H
do jo
Ġexpect ation
Ġcomm ands
b one
Ġfund ing
HO UT
Ġviol ence
Ġappoint ed
ĠL ast
Ġl ived
an notations
ag netic
text normal
s un
Ġpro files
ĠG ood
param ref
ĠC D
Ġper mut
! ]
it an
. \\
En able
ens itive
Ñ ĩ
ref lect
get Instance
Ġc as
Ġexplo re
Ġcomp iler
pro t
c ient
temp orary
W ill
Ġrender er
Com b
A E
alle st
ĠRe al
= %
Ġat omic
top ic
ĠDE FAULT
ur er
i able
Ign ore
Ġc atalog
F oundation
Ġcred it
Ġg oto
ĠH a
time stamp
Ġtrans mission
Ġinvest ment
c mp
co up
Ġch ief
L icense
z il
ĠAnd roid
Per iod
RE SS
ĠEn ter
ĠGr and
S em
h fill
ĠE U
ĠCol umn
ĠCh ief
Status Code
PRO P
Met ric
Ġs ales
Hash Map
ĠOr ig
S ide
W in
11 1
pro c
ĠF ederal
Ġsens itive
vel ope
Ġph one
Ġad ult
Ð° Ð½
O ld
ĠG en
Ġle aves
Ġen umer
Ġm s
Ġpri mar
| $
ĠHen ry
ta ke
We ight
D im
Ġ" _
: #
b us
S can
ĠW ell
o y
(" #
Ġde pict
Ac cept
( -\
Ġb log
te en
Ġb lood
f ragment
ĠSpan ish
ĠSen ate
198 3
Vis ual
F inal
S ibling
ri ses
Ġcharg es
Ġdevelop ing
B reak
Ġn om
ĠL ake
Ġcontrol led
H ub
L D
/ _
TA G
riter ion
in er
Ġs yn
ĠRef erence
ion e
ous ing
t z
ong o
ĠSh ould
\ -
Ã £
Ġdepend ency
temp t
Prop agation
__ ,
Ġv ec
Ġrequire ment
Valid ate
ĠS U
Ġro ots
im a
P OS
Ġplan ning
ĠP ower
ĠItal ian
mult iple
ĠProf essor
Ġs lide
ĠT re
ĠSup reme
The me
(" \
P ut
Ġde du
Ġbase line
ron ic
ab out
Ġhand led
Ġre action
Ġsee k
Ġemploy ees
ĠJava Script
get Time
Inst all
Ġc ert
Ġd anger
ĠU RI
Ġto t
M ed
Ġinv olve
Sec ret
Ġca reful
eth er
Ġread s
Ġd ut
ĠMus lim
g able
bar s
5 12
Ġ? >
Ġenvironment al
Ġoffic er
th rough
Ġb rowsers
ĠA ff
Ġpar ame
rypt ed
Ġsen ior
Ġrespon d
Ġinc ident
re pos
p ur
Ġcla imed
ag ent
Key word
re hen
B ased
ĠE m
Ġfind s
ĠCon nect
Ġst uff
Ġaw s
Ġres ist
ĠTechn ology
Ġiss ued
path s
Ġelim in
et ic
L ite
M achine
ĠZe aland
st rict
ur ance
Ġcomp osed
Ġpseud o
P s
Ġdec or
back slash
ĠJose ph
Ġrema ined
H AS
ĠIn valid
ater n
n m
fe atures
Ġch ampion
Ġintegr ated
Ġstrict ly
Cont ract
Ġe mber
road cast
on omy
ult y
ab y
Ġm ill
Ġpro te
order ed
r uby
in her
Ġf ra
ĠG ame
ï¼ Į
Ch anges
C ard
Ġpol l
Ġinsert ed
{ (\
T LS
~ (\
Ġo l
an es
Ġentire ly
Ġt uple
l int
IMP ORTED
C ity
19 2
ĠW al
Ġd irections
L at
ĠUn it
ibr aries
Al though
s hell
Ġf an
Ġse gments
var rho
Ġpart ner
ĠÂ £
b x
] ),
Ġrep ository
Ġent ang
Ġrect angle
ĠHe ad
atur day
H older
Back end
198 2
C ss
mob ile
Ġr ig
$. }
Ġdem ocr
Ġpolit ics
w as
Ġcorre ctions
Ġdeb ut
Ġar ticles
ĠVi ctor
Ġb lob
LO AD
Get ter
ĠTh read
head ing
n ight
urren ce
inst ein
Ġwin ning
ĠE v
ĠG raph
Ġd aily
gra v
Ġscient ific
Ġmom ents
le e
ĠW alk
Ġex ec
B ad
A SE
k ernel
ĠR ow
Ġhe x
Ġvac uum
T ex
be an
y ui
Ġpl ain
ordin ates
ĠImm utable
ac er
Ġex pert
7 00
å ®
Ġal ert
U Int
Ġh alo
\| _
alle y
Ġp sych
) ^\
ug ment
d ating
sc opic
cond itions
Ġd y
gy pt
() </
Ġuniform ly
Ġ\ [
B AR
Ġat oms
Ġse a
Ġmod al
h alf
Ġbel ief
Ġmix ing
Ġen force
m ime
ĠF oot
Ġlo s
ke ep
L ight
ell er
Ġ ,\
sup p
e ction
Load ing
leg end
aw n
Tag Name
h u
s en
Ġmanif est
s ion
C UR
Ġperturb ation
ac ific
Ġtest ed
Ġp et
p le
% )
ĠN ative
(' ../
Ġref resh
ĠLe e
L ib
la im
ĠĠĠĠĠĠĠĠĠĠĠĠĠĠĠĠĠĠĠĠĠĠĠĠĠĠĠĠĠĠĠĠ ĠĠĠĠĠ
fore ach
text area
Ġsepar ation
ip les
ver bose
Ġdepart ment
Ġcons ult
O C
ĠJ son
Ġconf irmed
agrang ian
n ic
Ġe le
hel lo
Ġro les
He alth
Ġm acro
Ġex erc
ORD ER
ĠW ay
Ġw rapped
Ġadmin istr
ST ART
Ġre produ
Mer ge
Ġemploy ed
Ġrelations hips
Rad ius
Ġexp r
Ġredu ces
Ġover lap
t p
ĠOn ce
Dec oder
Ġinitial ized
P G
ĠF ort
Ġnot es
ind icator
Ġb ucket
] =
H AND
stack rel
Ġlarg ely
Ġextract ed
d st
100 00
Ġprodu ces
Ġfun ctor
Ġrestrict ed
Ġdef ining
A nother
ĠH y
s id
Ġgu itar
x e
Ġ' ./
atur ally
Ġopin ion
Re ason
Ġtr unc
Ġv m
ĠRec ords
Ġge ometric
ĠJohn son
ick y
G LAPI
the less
ic ular
text up
w ater
ĠInitial ize
Fat alf
IN VALID
Ġn ine
Ġla unched
ĠC ivil
Ġcol lapse
ĠP ut
}} }$}
at i
interopRequire Default
Ġr anges
| ^{
ail ability
' _{
æ ľ
Ġtemperature s
Ġhus band
SP ACE
Ġacade mic
f all
Direct ive
Ar t
ĠAL IGN
ĠF und
Ġ ].
Ġsh oot
el come
Ġ" ${
in cluding
SS AGE
ĠH am
) ?
ĠAs ia
Ġsupp ly
Ġbreak ing
is is
Ġstrateg ies
ĠS aint
Ġb old
Ġ= ========
Ġf ear
os is
down arrow
ĠĠĠĠĠĠĠĠĠĠĠĠĠĠĠĠĠĠĠĠĠĠĠĠĠĠĠĠĠĠĠĠ ĠĠĠĠ
Ġorgan ized
ĠJ im
over ride
Ġf abric
Ġsub section
Cont in
Ġexecut ive
Rel ative
ĠL ord
Ġsk y
TR AN
Ġpost er
Ġdecre ase
ĠG rid
ir ical
ĠIt aly
CO MM
ĠGe V
Ġinstitut ions
ul ating
p n
Ġ" [
Ġclose ly
SO URCE
BA SE
Ġcon ference
Ġad vert
Ġt a
Ġcri me
Ġrecogn ition
oss ible
on om
kw args
ĠP M
Ġqu ot
Ġcoup led
Ġs lot
Ġiter ations
lect or
ĠCarol ina
ĠWIT HOUT
ce an
pre pare
sp acing
p ic
E st
Work er
Ġcol on
Ġsc oped
Ġ. =
Pre vious
19 50
ge ometry
Th reshold
Ġ( `
is c
Ġi p
Ġinterest s
Ġcon volution
Ġun iversity
let es
ĠC F
Ġbelie ved
Ġdedic ated
ro uter
V ec
Ġex cell
Ġear th
Ġal ter
dat etime
ost on
Ġsche mes
og en
Ġhosp ital
Ġdriv ing
Ġf ired
ĠL I
ĠF estival
Ġ _{\
ct rl
Ġa ircraft
air man
Ġbound aries
Ġsupport ing
197 9
S afe
viron ments
Ġes cap
Ġquadr atic
Ġen counter
sp her
ĠI te
ĠFil m
Ġpotential ly
me asure
Ġabs ence
n am
ĠSh ared
Ġw avelength
ĠI V
pri ority
Cook ie
Ġfore st
ĠEn vironment
II I
p ragma
ĠH iggs
ĠP erson
l ife
us hed
to kens
ĠS IZE
ĠE ND
van ced
ĠA S
Ġsp ot
W rap
ĠB ern
ĠArg ument
st age
Ġunderst ood
ynchron ous
Ġr ac
Ã£ o
Ġin set
Ġan om
Ġr an
ver ify
s z
Ġassoci ation
Ġjo urn
in ction
ress ions
D em
Ġaudi ence
Ang le
bu ilt
Un expected
Ġport ion
FA IL
d ag
gle w
Ġt s
au x
We ek
M AC
">< !--
place ment
ic ated
Ġdro pped
s izing
. (
Ġown ed
Ġde precated
rint f
Res ize
ut ch
Ġwrit es
An im
ĠEn c
Trans fer
ent ries
ixt ures
DE D
Ġt ile
ext ract
Ġdescrib ing
Ġhand s
Ġalgebra ic
tag Name
ð Ł
ĠCol umb
is ot
O FF
Ġthink ing
Ġcoll ision
ad or
ĠS end
Ġpract ical
Ġcapture d
Access or
Fact or
ĠA nother
Ġcondition al
f ly
ic ial
Ġbeg ins
Ġex cess
over view
Comm it
Ġg ather
Ġf ru
3 60
Ġc at
C ertificate
ind u
ĠH on
{ |
root Scope
co okie
Set s
Ġscen arios
ĠD CHECK
Ġmov es
ĠN et
] ];
With out
198 1
ĠDef ine
Line ar
ur ies
fact or
Ex it
Module s
Ġdev iation
Ġinte gers
\! \
Ġsec ure
E ar
ĠBrit ain
Ġd oll
task s
ĠDo uble
std err
ch anges
Pers istent
D ATE
Ġman ip
oc omp
ts d
E P
EN V
Ġun iverse
et al
sh a
Ġd ot
E valu
Con sumer
$ ^
Ġcl s
to Equal
u ation
ac on
=" '
Ġthous ands
L IN
serv ation
Y Y
Ġconst itut
ĠNo thing
ust ed
Ġtri m
Ġis land
Ġprimar ily
Pro v
Dest roy
t b
left arrow
D MA
ick s
Ġoutput s
ĠL ove
ĠC ross
File Name
mult line
Ġneutr ino
Ġopport unities
P res
Ġattemp ts
th ree
Ġcont ribute
P icker
me tric
Ġin clusion
co ordinate
Ġ[ {
p d
EE EE
Ġcollection s
ĠIn it
du mp
ct ree
ĠM en
ĠFour ier
Ġf loor
ĠMem ber
Ġstandard s
Ġbg color
Ġacc ret
ĠB asic
Ġenh ance
Ġed it
å Ĳ
Ġb rain
ject ure
Ġp m
ĠAct ive
UT C
Ġut ility
over lay
Ġben chmark
Ġrecogn ized
ĠAl low
ĠE lect
Ġt ang
T yp
var s
Ġdec isions
Att rib
ĠRec ord
f un
In spector
ĠK IND
Ġun iqu
Ġs napshot
in os
if er
con tact
ĠS i
Ġhom ogeneous
Comp letion
sequ ences
up arrow
W arn
Ġeas ier
Ġrepresent ative
} /\
ion ic
comp ress
^ ^
Ġco ach
Ġme dic
Ġsup erv
ong s
Ġimprove ment
ition ally
GL uint
Nav igation
ng doc
act ivity
Elements By
Ġr c
ĠO ptions
Ġis ot
> `
in ery
Ġint ent
] ^
t ar
if rame
ĠGL sizei
Pre v
Ġexplan ation
p ixel
Ġcons isting
me mbers
ho le
ĠS Y
Ġcomm only
Tool s
ĠF riday
... </
Ġfit ting
Ġpolynomial s
Ġinit i
Filter s
on gest
read only
Ġp ad
A K
ĠM ove
ĠE nergy
Ex port
ĠX ml
Ġan ce
Ġtool tip
h al
ME M
Hand lers
Ġcr ucial
Ġin form
Ġp in
Cre ated
Ġelectron ic
Ġadvan ced
Ġsk in
ab our
L android
Ġe poch
Ġare n
g z
Ġmedi an
end point
&= &\
197 8
( /\
Un iform
Ġstraight forward
Part ition
Wh ere
An aly
)} (\
Un defined
Ġins pect
Ġdist ances
Ġconcern s
ĠC a
ĠC r
Ġfrequ encies
Ġpriv acy
Ġf ans
B ACK
Pro b
Ġgener ates
Ġgrant ed
ĠAut o
U V
ĠV irtual
ĠW ed
r ink
bold math
rg b
ĠH ot
it les
view port
Ġref lection
ĠSp ace
Ġreve aled
() [
value Of
Ġincre ment
ip edia
B LOCK
text color
Ġref ers
Array s
)-- (
ĠNS String
nthe size
Ġveh icle
Ġs parse
p aper
Ġtell s
=\ {
Ġnew sp
Ġpolar ization
er g
normal ize
z ier
Con n
$ '
Sh adow
Ġresid ents
Ġs phere
ĠComm unity
r ical
Ġco ast
} >
Ġdestroy ed
ĠTR UE
Ġbo ot
Ġserv es
b ucket
Ġ" )
F etch
Output Stream
ĠâĢ ¦
Ġcharacter istics
in verse
ĠCent re
Ġf light
En umer
ans as
E Y
ĠT er
Ġnormal ize
Ġmus ical
M utable
Ġabsor ption
Ġaw arded
Ġpar agraph
Ġsub mit
Ġrender ing
UM ENT
Ġrespon ses
Ġcon sumer
ĠTe am
link s
Oper ations
rel ations
Ġconfigure d
Ġsimilar ly
Opt s
Ġintrodu ction
Ġweight ed
Ġcomp ression
Ġp le
ĠW ood
Ġd s
e b
Ġsol ving
Ġoffic ers
": "
ĠDesc ription
I ME
Ġthan ks
Ġli qu
A m
ish op
str m
Ġst roke
Ġpanel s
IN DEX
SCR IPT
Ġpercent age
OR K
Ġcount s
F ac
ĠÐ ²
WA RE
ĠPol it
CO M
ĠN ull
Ġred irect
Ge V
Ġpi eces
Ġuncertaint ies
unn el
Al so
19 75
UE ST
ĠMa jor
M aster
Ġcontinu um
or row
Ġcomm ission
at ers
Ġbu y
Reg Exp
s ent
Ġpro min
pr ising
Ġh orizon
ĠA D
yl van
Ġreplace ment
ĠPal est
Ġcon d
Ġent ities
math tt
Ġk ill
Ġdep loy
ĠGener ate
am ount
Aut hentication
ĠB ol
Ġsche duled
ĠU int
Ġwe ap
il ine
Ġco ok
Ġmar riage
au i
P ending
Ġjud ge
sur face
ĠGL uint
: -
de script
Ġpre pare
Ġte aching
%% %%
ĠOr gan
G ui
at ivity
å ħ
S erv
s ources
e valu
a head
Ġirre ducible
reg istry
LA B
ĠPar liament
Ġt al
ume d
Execut or
ĠC ryptoJS
c are
197 6
gener ator
un te
ĠS ingle
Constraint s
ĠD own
& =\
Ab out
de sign
at able
ĠClo ud
Ġth r
lement ary
Ġa head
P ower
Pop up
A X
second ary
int ro
Act iv
Ġthis Arg
s ame
ĠPro p
Ġderiv atives
g ood
Ġmolec ular
sh arp
con ver
Ġne ither
Ġconj ug
Run ning
Ġf ellow
ib ilities
au d
od o
Ġsk ills
ĠU k
ĠT witter
Ġcomp ilation
Pri mary
Ġp apers
Mult iple
Ġ( #
p ick
*} [
ard en
> ',
MA SK
Ġelection s
ri ent
comm ons
Ġassign ment
b est
10 4
-- )
Ġcheck ing
bin om
ĠS C
Ġco okie
IT ER
(" .
s ym
if old
Ġlist en
D er
ĠLog ger
ĠS W
att en
Ġout line
sp i
Ġmor ning
ĠE gypt
Al gorithm
ĠP ack
ĠT oken
Ġadv oc
P ages
* >(
Ġfeature d
Ġrec urs
G O
ĠG ames
b undle
de m
x html
pay load
197 7
og gle
ĠDes ign
Ġth in
Ġst ations
LA Y
Ġcon cat
ĠC irc
ĠT ool
d n
ĠCheck s
Ġfund s
N ONE
Co ord
../../ ../
pub lish
10 5
Ġproport ional
Ġrece iving
-------------------------------- ----------------
Ġcommit ted
Ġsol di
Log in
Ġexper i
fort unately
id ents
Ġprodu cer
ĠDemocr atic
Ġv ision
Ġcon n
Ġserv ing
S ig
d ensity
Ġ/ ^
Ġcr yst
z ing
ak istan
Ġorth ogonal
197 4
di ction
enc ing
ĠCon f
Mon itor
ĠC are
Ġ( ((
T L
get Id
han ced
Ġelect rons
ĠT ree
') ).
ĠO l
Ġhold ing
ĠT ry
Ġsome what
$- $
Ġjust ice
Ð¾Ð ²
Ġaut orest
Link ed
AP P
Ġalign ment
ĠR ight
Ġkeep ing
ad apter
Ġclo ser
Ġdomin ant
Ġat om
unk nown
Ġreg istry
Ġlet ters
F P
ab stract
Ġalbum s
Ġ" ./
Ġc s
Ġres idual
Ġdam age
T IM
Tra its
W ords
new line
ĠS H
art esian
Ex cel
Ġreg ression
R S
dist ribution
Http Request
K ernel
ĠSim ilarly
log ging
ç Ķ
\ [\
In tern
G ra
ĠCor ollary
ĠC S
C LA
Ġrough ly
ĠAl gorithm
Ġm iles
Ġtemp orary
Ġconcern ed
ĠStr uct
> ';
Ġc row
E OF
mb ed
ines ses
W alk
ap ed
cc c
ov iet
ĠAdd s
Ġ' {
h ot
ĠH osp
mathbb m
ĠK ar
Ġf re
Ġdemonstr ated
ĠTH REE
Ġrest ore
Ġmorph ism
Ġvari ations
i ant
ouse l
A U
ĠBl ue
ĠJ eff
}{ {\
Code c
roll ers
ĠT aylor
ĠE RR
$\ ,
eng er
` :
ĠJ ones
Ġregion al
ex isting
c n
comp act
ĠDe v
ĠStud ies
fin ish
cont rib
Ġin vert
Ġv ot
Ġf ashion
du al
ed u
f older
fail ure
ĠI gn
Ġ` $
ĠT im
Ġconst expr
Ġcompar ing
Ġ ice
t bl
et ing
Ġ$ ^{
Ġhel ps
CH AN
Subsc ription
ag ers
And roid
ĠW ord
-------- --
Cal endar
type param
he x
ĠC ard
asket ball
' },
s amp
ĠA M
uck ets
Ġpref erred
Ġtalk ing
ĠV alley
ĠCOM M
Ġbeaut iful
um ul
ĠÂ §
Ġinv olves
AT URE
iss ue
File Path
Cal led
Ġvers us
N eg
ch er
ĠA cc
has Class
Ġb on
ylvan ia
Ġ\ |\
Ġpres erve
Up dated
control s
EEEE FF
}. }
Ġsurround ing
% "
ĠC C
Ġf its
Ġform ulation
Ġd ome
Ġs un
S PE
ĠC EL
pro pto
ĠRout e
String s
k n
AB ILITY
Ġparticip ants
Ð ¿
ian o
U ntil
IC Ag
pro gram
S y
= &
A I
Å ¡
get Type
H om
P ress
es ome
At A
Ġ# {
_{ +
ĠN ov
Ġdecre ases
Ġhand les
PRE FIX
Ġsens itivity
Ġg ender
ct xt
Ġpe er
ĠR untime
> }
API ENTRY
Ġpart ially
BIT S
c ycle
Ġrespect ive
ĠS ta
am ber
Event Args
Bit map
St d
Ġtemp oral
ĠA wards
ĠU SE
Hel lo
Ġp il
co ords
Ġre form
ack s
Ġb ridge
F IL
V ID
Ġad vers
mat ched
i per
ut ative
ĠSouth ern
ĠWil son
Ġan notation
M atches
197 3
table s
Ġresearch ers
c lock
ME SSAGE
ĠPy thon
Ġg lu
Ġneg ot
ĠM E
s he
Ġsup posed
and box
Ġclo sure
Ġth er
T ry
ancell ationToken
Ġf older
10 2
Ġn a
Ġd ensities
P red
Ġaccount s
// !
ĠĠĠĠĠĠĠĠĠĠĠĠĠĠĠĠĠĠĠĠĠĠĠĠĠĠĠĠĠĠĠĠ ĠĠĠĠĠĠ
Ġguaran tee
Ġdis covery
Ġc p
on Next
ĠL ike
B en
Ġdiff usion
ro tt
N il
Ġmon ot
Ġregard less
r atio
ou sed
ĠCon tainer
Ġfact s
PI X
Ġvar ying
Ġdomain s
Ġb an
j k
Ġsat ell
Ġcover ing
ĠParameter s
Ġscore s
AR G
Ġorder ing
ribut ions
pl ays
197 2
14 4
v et
Ph ase
ĠS ize
Ġst rip
ĠL anguage
opt im
M ac
Ġad jacent
P resent
Ġ era
Ġk ing
is or
Ph one
ĠF ire
L iving
CRE ATE
TEXT URE
ĠW all
ĠF ixed
arg v
to ctree
Ġanaly ze
Ġ(! $
ĠAg ain
Rece ived
/ )
Per cent
at ile
m ust
ĠMed ical
pag ination
Ġpre pared
C N
Ġimp ossible
LO B
NG TH
dis pose
BOO ST
V D
\ },
Set up
est er
R PC
Ġhe av
Ġc ertificate
Desc ribe
\ }.
t ol
Ġsm allest
periment al
In struction
dom in
es ides
process ing
Ġst ead
primary Key
k ers
l ined
abs olute
Pro position
Ġp un
ass andra
Ġpar sing
ĠL ook
ĠAdd ress
im b
foot notes
Ġstore s
ĠP ers
Ġcircum st
Ġs pl
ott ed
? âĢĿ
b etween
Ġed ition
ĠC P
Ġwindow s
Ref lection
ĠN Y
ol o
inet ic
ach inery
Ġun able
oci ated
G ame
ĠR ay
Ġdetermin es
C CESS
Ġpro position
Ġle ague
Ġexc ited
ret val
Ġremo ving
16 4
gu ide
ĠD A
Ġk ids
Ġfac ilities
ĠM atch
sc ore
it age
W allet
sol id
ĠWe ek
Ġcr isis
ur st
Ġsent ence
ord ova
ĠF amily
æ ĸ
o e
ĠC ache
cor rect
le ton
ĠD M
Attr s
ch oice
In ject
Ret ry
spe ed
ĉĉ Ġ
ĠFrancis co
Ġmodel ing
rupt ed
Ġm apped
Ġsystem atic
Ġdomin ated
bel ow
Ġanaly tic
f uture
| _
st e
Ġorbit al
Ġwrit ers
ĠS aturday
M ost
t witter
h n
Ġg one
Ġev t
Ġtransform ations
ĠAtt ribute
Cred entials
Ġsim ulated
//////////////////////////////// ////////////////////////////////
C U
D en
per cent
rot ate
M ust
mut ex
F IN
cer ning
with out
An notations
urs day
Ġag ency
Ġrespons ibility
w alk
Ġre tain
ver sed
LE V
Ġcirc ular
res olved
! =
ĠEn able
$ \\
Ġecon om
G RO
g overn
ic ates
ĠB oston
mon d
Ġcoun ty
Fil ename
is Object
ĠAnd rew
Ġinitial ization
Ġtrans actions
C ref
B ER
ide os
Ġstrong er
1 18
R IGHT
Ġst ands
T X
Ġteach er
ĠCon sole
Ġlength s
H idden
lott ed
Ġinsp ired
ĠMed ic
M ut
Array List
ĠRe set
Ġpre ced
Ġpar k
G P
Ġcomp licated
_ ('./
b ell
n pm
ĠM u
ST RE
Ġ[] *
Default s
Ġdisp ersion
Model s
Ġsm art
Ġ{ %
sub equations
gener ic
H orizontal
ip art
Ġrandom ly
D on
Ġdef ense
Ġext ensive
part icle
ab ove
f ac
Z end
or ough
ĠL agrangian
Ġassert ion
ues day
.* ;
& &\
ĠUn less
Ġst reet
iref ox
on Completed
ĠS P
Ġsur faces
,... ,
$ }}
P lot
Ġg uest
ĠSt ore
se x
Ġn aturally
ang les
Callback s
Ġin struction
Ġsub space
us age
v v
Col l
ri z
bo unded
Ġm unic
U A
is o
on to
ĠJes us
ĠGu ide
al go
] /
Ġlik elihood
Ġdiag nost
In line
mix ins
Ġp al
Ġh ab
Ġbig gest
ap l
Post ed
Ġrecon struction
? "
Ext ra
erm i
Ġlocal ized
Ġinterval s
or ters
) }$.
Ġnear by
Res pon
Ġauthor ities
Ġinter ior
Ġcorre lations
Ġ{ $\
Ġpl as
ge o
ic ing
dat aset
ĠRem ark
Dec ode
c x
ĠRad io
Ġoper ate
B F
V C
Ġwh atever
Ġbus inesses
Ġr s
Ġtrans verse
w ing
code s
Ġflow s
Assign ment
ind ices
rom agnetic
key Code
ĠL atin
Ġinter sect
Ġsum m
ĠIr ish
Ġad apter
Fe ed
Ġto ggle
Ġpoint ed
par sed
sy nthesize
ĠS ar
ĠN ever
Ch ars
Ġdiag rams
ĠAd ded
Ġar row
iem ann
Ġ* _
ĠC amb
Ġimp ly
Ġpres ents
h our
set ting
int on
Ġn arr
ver al
Ġf resh
Ġvar y
ĠR ange
W H
+ "
ä ½
Ġrece ives
Down load
Ġident ification
Ġw arm
ĠRepublic an
Track er
sign al
ocomp lete
ns ylvania
ĠNor thern
Ġperform s
Ġcommit tee
'] ))
OR S
w an
Ġc old
Ġcol our
Ġdiscuss ions
ur is
ĠF ar
Copy right
SU B
d m
ĠL IC
ĠAss ume
init ely
Ġprogra mming
umn i
l b
the ad
19 68
ĠLo op
Test ing
] ['
RE T
H ave
FORM AT
Ġtrack ing
ph y
ist ant
B u
ĠR am
Block s
FT WARE
lic as
ĠIn vest
Ġy oun
inc ipal
ativ istic
ro vers
nol imits
ĠE p
ĠKore a
S lot
Ġcomp ens
Ent ries
Ġ Ñģ
Ġm igr
B el
Ġpat ient
ĠCorpor ation
Ġb odies
NavBar Font
BU ILD
start s
Ġ\ {\
n ob
Big g
ĠCon ference
or se
Ġ* ,
' =
}) ^{
en o
ĠCh rome
ĠR ule
) }$,
Ġ= ================================================================
get Text
D a
Ġconven ient
Ġ ing
Ġsc r
ap os
Dispatch er
Reg istration
ĠBra zil
Ġaccret ion
en ance
vers al
nes day
cor respon
SU PP
et ies
Sh ift
ĠE DIT
ĠCall back
sh are
Ġmod ification
Ġbr and
] ));
g iven
el ian
Ġ$ $.
Ġy outh
Ġprof essor
ĠJack son
om a
Ġpers ons
Sup er
ĠWilli ams
M ag
Ġc ult
ad ium
Ġpen al
ĠB AS
LE NGTH
Ġmer ged
Ġn ice
ab b
ĠD ig
ĠG ENER
footnotes ize
qu al
Ġ" >
ut ter
S lide
F it
first Child
ĠB al
ĠD MA
âĢ¦ .
K S
Ġfe et
desc ribe
Ġcharacter ized
{ };
ĠValid ate
s amples
Ġ} .
[ ])
F ace
RO W
Ġper man
Ġb ra
Ġco al
ĠK EY
Ġview port
tag es
a ug
Ġa ria
ex cept
ant ly
op her
Ġphil osoph
AS C
Ġsubstant ial
ĠC OL
res pect
Ġp asses
math it
f requency
ĠB efore
ĠDe vice
con figure
Ġe ye
) _{\
ver ts
Ġf iction
Ġfunction ality
Ġme sh
}) ();
Ġterm inal
I SE
Ġestim ator
Ġs leep
Ġex ceptions
activ ate
run ner
omorph isms
ĠB et
P lease
Ġneut ral
small skip
Ġcould n
]( #
cept or
Ġspect ro
ĠNO TE
i y
}) );
B us
ak a
Ġknow s
Ġho les
d jango
pe ople
Ġis omorphic
form ing
eter min
Ġphot ograph
Ġman age
OB JECT
mm ar
Ġlook ed
( --
Block ly
Ġinterpre ted
d v
ĠO k
ĠSw ed
ĠC NN
Ġap art
Ġreco very
ĠG reek
me trics
Ġ( %
Cl one
Ġprov ision
process or
ĠS ty
allow ed
ab eth
Ġpropag ation
ĠJac ob
4 000
H ide
err ing
Ġout come
)= (
Ġm ist
Ġr id
Ġsimultane ously
Ġfilter ed
cut s
Ġerr no
19 69
Write Line
ĠAr ticle
Ġrec ording
Ġp ng
O k
Ġm useum
big cup
Ġex clude
ĠLIC ENSE
Ġar range
Sup p
ent h
query Selector
our se
Ġt ight
Ġspec ifies
re mo
Ġprom ote
Ġsouth ern
) '
Ġinfra structure
c ipher
ĠI F
ĠI T
bo th
je ctions
ec lipse
Ġstop ped
v able
at on
Ġ\ }
ĠM IN
ĠMon day
Ġend ing
Ġl it
d riv
Y P
ĠChampion ship
Ġsee ing
Imp orts
: /
B D
ĠV an
Ġdriv en
" }
Ġincor rect
Ġd og
LO AT
In clude
ĠW ater
Ġg lyph
red irect
Ġadd r
run ning
get Message
E very
') ->
ĠL ear
Ġsuff ix
Ġm al
Ġ" ")
E v
ĠI ss
ĠM atrix
ine ment
U AL
Ġm iss
C lip
pack et
Ġ ri
( ',
g ency
R eq
Ġun safe
Ġwe alth
SER VER
Ġd ream
C ulture
Ġmat ters
t ou
r n
Ġcustom ers
l ab
Ġco vers
Ġ# #
Ġb urn
get ElementsBy
N I
ĠD est
de tect
ĠT ABLE
g ent
\ }_{
ĠT our
Ġrecomm ended
Ġrat ios
Ġdeb ate
Dep recated
Ġappear ing
l ive
ĠEx pect
19 67
numer ic
Struct ure
co q
separ ator
Ġcosm ological
gr pc
c v
Ġ ur
A MP
j ack
ĠĠĠĠĠĠĠĠĠĠĠĠĠĠĠĠĠĠĠĠĠĠĠĠĠĠĠĠĠĠĠĠ ĠĠĠĠĠĠĠĠ
Ġnor thern
Ġequip ment
Ġher o
Ġ ~\
dis k
________ ________
Ġreg istration
C lean
Ġtrans formed
uc lide
Ġcar bon
Ġcomb ine
re po
Ġserial ized
Ġord inary
ĠP akistan
valu ed
Ġ& $
ĠJ r
ol ate
or i
Ġdec ide
frame d
** *
ch rome
Ġen vironments
Ġsing er
os cal
ro ve
CO UNT
Ġtrigger ed
B i
get String
co st
x d
UR N
Ġ" );
11 5
T ensor
Ġf i
Ġst udio
Separ ator
Th rough
Ġem ot
Ġclo sing
B est
le ading
& $
ĠM aster
Ġcall er
Ġ/** <
Ġsup ers
ĠDate Time
ĠL ore
per formance
get Class
Dep loyment
ĠCon struct
en ant
at om
Ð ·
Ġuser name
sk in
F atal
LEV EL
ĠD ictionary
ul ner
ĠM S
Hel pers
Ġindu ction
Ġinvestig ated
Ġaut hent
Ġsimp licity
au sed
late st
Enc oder
Ġad vis
Ġengine ering
ĠF I
def n
ĠF act
Ġsol ved
sh ims
Ġget ter
Bl ack
}^ +
_{ [
Ġc trl
Ġde cade
ĠP acific
Pro du
vis ibility
ĠG ET
uclide an
ir y
Un ique
(" ../
For ward
View s
ST M
FUN CTION
B N
M ill
Comp ilation
{ .
Spec ial
Rec ords
Ġphot ons
Ġm ental
Con s
Ġsitu ations
] ',
sp ark
Ġcomp atibility
res olution
ĠJ on
ĠM B
prob lem
end ment
Ġspeak ing
s ible
ĠG C
ĠRequ ired
var d
Ġrepl acing
Ġre try
Ġprob e
Ġb low
hold ers
Ġend if
n of
Ġle af
Ġsql ite
Ġatt ended
Ġconcent ration
ath an
de termin
à ¸
ĠMich igan
Ġwor st
CE PT
Ġpay ment
ĠChrist mas
numer us
urn ament
1 16
/ ">
Ġleg acy
ĠPro b
Ġsh op
Ġperiod s
Ap J
ĠL u
Ġpract ices
d on
c u
child Nodes
ĠInitial izes
Ġ ray
Ġas sets
Ġpref er
Ġw ood
g lob
iz z
ane ous
ĠCON DIT
24 0
Ġpo et
Ġh ousing
Ġcompar able
Ġreson ance
ĠS oviet
H ex
. #
ĠK enn
pi pe
D ict
Ġrelig ion
es sed
Ġd ates
am ond
Ġvict ory
197 1
Ġgu ess
ĠPro perties
ĠAb out
Ġrec ip
Mar shal
ag greg
Ġscal ed
Pl ain
ĠIte m
Abs olute
numerus form
Ġillustr ated
an ches
ĠM ot
open api
ICAg ICAg
all classes
miss ing
Ġexper iences
}^{ +
Ġfrequ ently
g ol
Ġv on
ov ing
Qu ant
[ ^
Ġsh arp
Ġgener ators
ĠE st
Ġaccess ible
Rece ive
b az
Ġeigen value
st ub
ĠW ho
ĠD IS
rest ore
secut ive
Ġhapp y
}) =\
ell a
Ġmy self
r and
Ġre construct
ord an
S heet
Ġneg lect
le f
Ġsu ite
b n
Re call
Ġpri mitive
Ġdef ect
Ġslo pe
Ġin ference
Ġclose st
For ce
__ ["
cons istent
Big r
D ash
ĠIn v
cor ner
us r
Ġv irt
ĠD er
ĠB an
ĠSO FTWARE
ĠB S
oid al
_{ -\
Ġf oc
G ateway
ĠB ul
ĠL abor
Ġno op
se cret
Ġexp os
Ġm and
Ġapprox im
ĠCOMM AND
ad just
Ġsur ve
ĠJ ob
vis it
__ _
ĠM C
Ġis instance
repos itory
ĠU V
ĠEd itor
f our
cp u
Ġre ly
ĠM ust
Ġa ux
con current
Ġarriv ed
ĠW in
ĠPen nsylvania
Im mediate
Ġen em
ino is
ict ures
ĠB ad
Ġsh aring
Ġmag azine
+ '
Big l
ame d
Ġm illiseconds
Ġso le
Request s
ĠP osition
ĠS em
Ġaut hentication
PO INT
Ġ/ ><
Ġvari ant
ĠO O
Pro c
Ġfac ility
Ġto ler
. ")
Ġal location
? (
ĠGeorg ia
Ġun ivers
Ġsh ares
ĠCONDIT IONS
A H
el ist
Ġ' :
descript or
Ġreport ing
Ġen umerable
ar ial
Ġdistingu ish
man y
Ġres ize
Ġview ed
U sed
in dependent
Bal ancer
Ġ" ;
;\ ;
x c
con duct
br acket
Ġcluster ing
il a
Ġcomp iled
Ex ecute
ĠCar lo
ap ters
OL D
C V
Ġab use
Ġan cient
Ġg rew
ma ining
Ġh ierarchy
Ġse ss
ĠJ un
Ġconsider ation
Ġr hs
is ons
me tic
new s
ĠH ilbert
Cap acity
[ ];
Orig inal
ĠN avy
ĠCal led
Ġg reatest
Ġrep ly
w ild
Ġmechan isms
ĉĉĉĉ ĉĉĉĉĉĉĉ
BY TE
Ġr iver
n c
member of
Ä ģ
rehen sive
ĠÐ ½
Ġvis ited
W ARN
UB LIC
Ġst abil
m ad
Ġc c
ĠD raw
IN ED
ĠOh io
ic ient
Ġreal ized
Ġpres c
i w
ed itable
ĠEqu ation
Ext ract
Ġfor t
Ġexcell ent
R M
en ario
Over view
Ġopp osed
Ġp lugins
Ġl ift
l m
Ġo mitted
10 8
ar b
)) {
Ġindust rial
Ġm yst
Ġse p
ca pture
Ġch apter
ens ing
ĠR a
Ġf iber
Ġtraject ory
Check ed
Ġlog arith
ot ent
In s
Ġfe e
nav List
ĠBAS IS
med y
dest ination
Ġcon crete
er os
Ex ec
RO C
Data Type
ap ps
Ġpropos al
Ġgu ard
Ġfind ings
et t
Ġpop ulations
ĠWh ere
Ġv ice
d z
ĠĠĠĠĠĠĠĠĠĠĠĠĠĠĠĠ ĠĠĠĠĊ
> /
S eq
ĠSum mer
}[ !
um s
ĠSt an
Ġf aces
Ġj q
Ġf le
Deta il
e very
Ġar my
ĠFoot ball
ĠGL float
(" <
ĠSp ain
Ġc ere
ĠH aw
Ġindependent ly
ĠWh y
Ġchalleng ing
ight arrow
Ġde ps
v ia
Ġen semble
:: $
40 4
Ġc ubic
Ġaff ine
le af
Î ¿
[ ]{
G M
Ġhard ware
Ġbrief ly
ad ded
123 45
ĠChild ren
r pc
Ġnormal ization
es Module
IN LINE
Ġfall back
ĠHosp ital
}{ }
Ġtri angle
ĠDan iel
P atch
Ġpro ton
sub stack
ro unded
ap id
ĠM D
Ġpresent ation
Ġcircumst ances
Ġconserv ation
N EL
con c
Ġm it
S ources
ival ent
ĠScot land
. ";
ĠL ittle
Ġult imately
Ġneut ron
uck y
Ñ ĸ
Th an
ĠOper ation
Ġf ib
St ar
Ġacqu ired
br anch
Ġsimilar ity
S ta
J an
Ġlegis lation
b es
script scriptstyle
de comp
Ġme mo
leq slant
Attach ment
ĠCon dition
Ġfac ilit
ĠĠĠĠĠ Ċ
Allow ed
11 7
lib s
ac o
Ġa ugment
Ġexhib it
Vis itor
ĠRetrie ved
STAT IC
d ashed
em s
Ġenc oder
Ġdo or
Ġens ures
^+ $
e a
ex act
am d
Ġr is
M AN
ĠPol ice
: %
Ġkey board
Ġge odes
Ġen ables
Ġf d
ĠExecut ive
ĠSt op
Ġcirc uit
ĠMethod s
P al
19 64
"/> .
Ġdecre asing
P B
Ġins urance
Ġcap able
Ġnot ify
ĠD C
Stop ped
Ġacknow led
ĠReg ion
Ġe yes
Ġviol ation
V O
Ġsplit ting
Ġ urban
Ġcl ause
ow ski
By Name
Ġatt orney
ĠB uilder
Ġw ww
ĠDefault s
ĠF ollowing
Ġfall s
ĠA WS
Ġs we
}} ,\
l r
Ġsem antic
J ust
Ġshe et
G A
Ġh op
Un lock
File System
pre view
ĠComp ute
scroll Top
ĠT IM
Ġint elligence
ĠB ow
Index Of
Ġconver ges
Ġdep loyment
L ow
S PI
Ġun expected
\, ,
H D
M vc
Ġ ath
out line
Ġact ors
ĠGu ard
el d
Gener ate
. (*
Ġre new
âĢ ĺ
Ġconc ert
cite alt
Ðµ ÑĢ
ĠP a
Th rows
iv ari
col Last
ĠQue en
F D
ĠEq s
o ul
not ification
ĠL ight
ĠTr ust
ĠM i
Ġal gebras
th an
state ment
ro zen
M argin
iz abeth
he ap
ent ed
UN K
at ype
ĠK ong
ure au
ĠCh ris
ĠTh ree
' $.
andid ate
M ATCH
Word Array
Ġin structions
I p
ĠTr ansport
Ġdecl aration
ces sed
F oot
Ġro utes
Ġatt end
Ġmin ister
ĠTest s
Ġspec ification
os a
Ġdef in
19 65
se ed
ĠO x
ĠF uture
Ġt body
Pay load
Ind icator
Ġunit ary
Ġearn ed
Ġw a
ly wood
Ġf ish
d ue
ĠH arr
ĠForm at
ap y
Ġs vg
i Ã³n
Lay ers
Vert ical
ĠL abel
| =
ab ort
ex clude
dir name
und les
S n
ul as
Ġin dependence
ĠJer sey
m r
ĠS and
d anger
develop er
ra ine
Ġemp irical
Ġcal endar
Ġcoll isions
Ġre serv
ph rase
ĠĠĠĠĠĠĠĠĠĠĠĠĠĠĠĠĠĠĠĠĠĠĠĠĠĠĠĠĠĠĠĠ ĠĠĠĠĠĠĠĠĠ
ĠColumb ia
H ooks
CD ATA
u ce
Ġconvent ional
& -
1 32
d ers
not in
u set
olut ely
/ '
ĠM P
Over lay
com ments
> ');
Ġse at
Ġcur r
---- ---
encode d
Ġisol ated
Ġcontradi ction
In tegr
O RE
ĠPri me
p at
tr ightarrow
decor ation
Ġsuc ceed
Ġrun ner
ĠEast ern
ĠCE O
p otential
ĠCan vas
P ane
Ġde leg
ĠL uc
g ov
ĠT ro
Comp onents
Ġid s
REQ UEST
ĠB ind
do es
text sf
Ġcyc les
Ġ{ !
Ġhom ot
is y
p ow
fol io
Ġmarg inal
non atomic
Ġprint f
View port
Ġanim als
ly n
Further more
Ġcommun ic
burg h
Ġ/// <
itor ies
} <
L C
Ġst ages
Ð° ÑĤ
col First
Ġs ink
Pri mitive
Ġ( ;
ĠTh rough
CON ST
vari ables
9 00
st eps
S ys
t v
Ġalleg ed
az ure
Ġtur bul
OP EN
ĠE ns
ator ial
valid ator
_ ("./
Ġsch olar
HAND LE
ĠM ike
Ġl aser
Ġl abeled
STRE AM
Ġn an
Ġalloc ated
eder ation
Ġapp rec
T w
æ ķ
Ġdraw ing
sd k
Ġstation ary
A cknow
C lock
ĠMark ov
Ġc ars
ĠSc iences
i NdEx
Ġgir l
BU TE
Con version
inter pret
---- -
ĠAre a
hy per
B ro
Ġa id
ĠB a
Ġacc ident
Î ±
IS H
= -\
ro b
Ġhe aring
ph ysical
Ġstruct ural
Ġsc ored
ĠĠĠĠĠĠĠĠĠĠĠĠĠĠĠĠĠĠĠĠĠĠĠĠĠĠĠĠĠĠĠĠ ĠĠĠĠĠĠĠĠĠĠĠĠĠĠĠĠĠĠĠ
t re
Ġent ertain
last ic
ĠW ales
Sign al
ĠB on
w orth
Def ine
Frame s
WR ITE
lo ating
Ġ& #
Ġneg lig
ĠF ull
Ġdis cret
E LEMENT
Ġamount s
Ġoper ated
ĠM id
Ġfe as
\| ^
oot strap
get s
I ss
ĠD a
As set
c raft
ĠT ab
ĠW ild
10 7
Ġbl ank
ĠJo e
window s
lik ely
ĠD onald
Ass ume
Ġexp osed
Ġt ip
10 3
Cl ause
Ġsepar ately
se en
Ġcont rovers
part ition
V ERR
I BUTE
scal ar
Ġ" --
19 30
or er
ĠLe ft
APIENTRY P
A mount
TR ACT
Ġm m
Over flow
f an
19 40
ĠGENER ATED
| _{\
ĠThe atre
Ġclass ic
Ġrec ursive
bra ins
Ġmov ies
pro x
ĠDeep Copy
dd en
R ound
S an
To kens
B bb
ĉĉĉĉĉ Ċ
Ġpromin ent
Ġacc ord
Ġsus pect
ĠE S
Ġin coming
Ġil legal
Ġtr uly
Ġpublic ation
er ate
Rel ations
ĠD rag
RE NT
Ġag ric
EN CE
n able
Ġprodu cing
size of
ĠRe lease
y aml
Meta Data
Ġlo ops
Ġp lots
Ġfamil iar
c as
Ġprinc iples
Ġbutton s
Ġfe at
ĠH ard
Ġc av
Res olve
ĠMult i
S olver
Render ing
Ġne arest
ĠMon te
19 66
subsc ription
Ġin vent
E ven
ĠF loat
}} =\
IN CL
N ested
par s
ĠImp ort
US H
Ġgeneral ization
exp anded
is Valid
ĠS cal
Ġwor se
is a
DE LETE
event Name
, (
Ġstudy ing
field set
ĠT uesday
~ (
11 4
RO OT
Ġ iron
Ġest ate
t uple
Ġpar a
link ed
pre dicate
Ġopp osition
comp atible
oc key
Check er
Ġcustom er
\, {\
ĠEmp ire
ĠK en
SS ION
ĠComm un
time line
ren ce
Ġappro ved
Ġst ub
Ġlif etime
g p
ĠRe v
t ically
Ġbo y
il ly
Ġrapid ly
o ir
Ġdome stic
sat isf
Ġc riterion
Ġbound ing
ĠC lose
Ġdeal ing
Ġb id
jet brains
ĠAdmin istration
ĠC ur
cal c
Ġexp ensive
Ġre volution
N ON
Ġm u
H H
x a
ĠTh ursday
enc il
Ġmark ets
ers core
Ġindex es
D av
su ite
Ġcut s
Ġf ault
ĠCol l
Ġpro g
) |\
ĠPro du
A nt
Ġown ership
Ġmeta v
Ġdesc ent
Ġintr insic
ĠF oo
C ert
Ġmot or
Ġveh icles
High light
Ġch iral
ĠJew s
ĠS ir
part y
ir ms
Ġprob abilities
u ity
Ġin n
Ġcon cerning
um a
F ollowing
L ONG
Ġnon zero
Part ial
Ġp lotted
col lapsed
ĠAc count
ph an
Ġb ars
Ġkind s
Ġsp end
ĠConst itution
callback s
Ġe val
P ipeline
W ORK
Ġg ate
Ġbe at
Ġco variance
T OO
Ġarg ued
Ġredu cing
ar ters
and o
Ġinher ited
char Code
' )$
Ġif rame
Ġc ru
Ä į
ĠS TR
Ġgen us
Ġdis joint
normal ized
% .
el lect
Ġimp l
Top ic
Ġd iverse
Ġdr ink
Ġtemp lates
Ġcon tr
Ġcirc les
P aint
ĠC HE
ĠP C
Ġto u
MS G
ĠĠĠĠĠĠĠĠĠĠĠĠĠĠĠĠĠĠĠĠĠĠĠĠĠĠĠĠĠĠĠĠĠĠĠĠĠĠĠĠĠĠĠĠĠĠĠĠĠĠĠĠĠĠĠĠĠĠĠĠĠĠĠĠ ĠĠĠĠĠĠĠĠĠĠĠĠĠĠĠĠĠĠĠĠĠĠĠĠĠĠĠĠĠĠĠĠĠĠĠĠĠĠĠĠĠĠĠĠĠĠĠĠĠĠĠĠĠĠĠĠĠĠĠĠĠĠĠĠ
Ġmin ute
ĠIll inois
W D
Ġinf lation
Ġsp ring
HO ME
Ġv e
Ġdis appe
ĠAs ian
ĠBOO L
Ġb ary
Sup press
UM M
ĠK ent
Ġv en
ĠT urn
Ġcon formal
sche mas
re nt
arch ive
Ġw ra
Ġback end
Ġman ually
Ġh its
Ġreview s
Ġcon sequences
deg ree
ĠIllegal ArgumentException
] ^{
p al
ĠT arget
T oggle
/ ,
F B
10 6
Ġ} (
Pol y
Sh ip
Ġclass ified
ĠâĢ ¢
Mod ifier
St roke
ĠO THER
Ġsign s
Ġexperi enced
math ds
ĠC as
Ġdec imal
v dots
Ġsub sequently
O cc
ĠNew ton
ĠD ue
ä º
ter ms
ĠCal cul
Ġscript s
Ġp c
Ġs ig
Ġspher ical
Ġk inetic
Right arrow
Ġcorrespond ence
ĠG ir
R UN
Ġcon vention
Ġdetermin ing
Ġnew Value
IT H
ĠB ush
ĠWed nesday
00 000
ĠE N
D ot
Ġqual ified
" ])
D imension
Ġentang lement
cd n
ic ity
Ġ' ;
LI B
S core
PROP ERT
get Data
Ġobtain ing
Ġconven ience
is l
ĠR h
Ġlegis l
Ä ĩ
work er
Ġre ward
b ecause
Ġ{ ?
ach uset
Serv let
ĠTh row
ĠOver ride
c ussion
S uch
h olds
IE W
user Agent
man ual
O ct
Ġtop ics
ĠF inal
eg o
Be en
Ġl icensed
ĠSe a
ree ment
Position s
Ġgu id
ĠT oday
C ould
w art
ĠS l
Ġjourn ey
lin ux
ott en
de velopment
^* _
T ables
>< !--
Ġ" :
d AtA
ĠL ow
Rout er
achuset ts
Ġs ac
ĠW atch
ick et
il iary
ens ors
k ube
ĠT enn
ĠF oreign
EE E
Ġneighb our
GLE W
ex emp
ĠT EST
F ixture
Ġliqu id
Ġexam ine
end ers
Ġse l
f ade
Ġco ords
Ġc le
Ġpack ages
ĠHel per
Ġ) );
Ad ded
ĠB as
Ġampl itudes
19 45
B ecause
ĠV ideo
ĠW ait
Ġelli ptic
ĠS us
imp lementation
Ġag encies
lic es
lect ic
k h
At om
Ġcon secutive
ĠV iet
p rom
Ġprom ises
Mod al
Syntax Kind
prec ision
ĠC ulture
10 9
cur r
Ph oto
Ġspac etime
() ]
lear ning
Ġcred entials
Ġa ud
ate st
Ġar ms
ĠDat abase
VERR IDE
Ġh al
SU CCESS
W est
mod ified
Ġincreasing ly
Ġconcent r
Ġmark up
put y
char set
}} )$
5 000
Ġang les
Ġsubject s
Thread ing
Ġm ent
Ġre sc
cur ve
Ġtransfer red
un its
ĠPo isson
lu x
ĠM ic
Ġor bits
re ve
ĠC luster
' $,
lo dash
Ġarg ue
in son
Ġ' &
},{" ./
Ġyour self
Ġe c
C ent
Menu Item
ap im
( ()
Ġpl anned
ys ql
Oper and
ĠEngine ering
Ġsl ider
depend encies
ĠUS B
ic ip
Ġ{ });
Ġ$\ |
Ġconserv ative
co ut
aa aa
Ġle ak
Ġhelp ing
ĠHash Map
Ġguarante ed
Ġdel ivery
fl ash
o ices
el ly
bl ur
S ink
Ġcomp osite
Ġposter ior
Ġcomplet es
ĠN ations
(' \
Ġflo ating
s qu
Ġval u
H int
Ġp tr
Ġ@ {
Ġad vice
l antic
form atter
Ġs ister
sh op
ĠH op
en vironment
ma jor
19 20
ĠSpr ing
Ġrest aur
vel oc
PI O
G T
Ġp itch
script s
lo v
ĠW IDTH
ĠF ermi
< >();
Ġr ural
Pe er
Ġse ar
ir th
ĠCo ast
log o
Ġfor th
Ġplas ma
ĠP lugin
s lot
Read Only
ĠB ell
Ġvol unte
Event Handler
lock ed
ĠS a
ĠH ong
inn ed
RE ST
Ġthread s
Ref resh
ĠAdd itionally
Ġs ender
Ġgir ls
Ġrob ot
sh int
Ġcons istency
Ġlog ical
Ġpro test
lf loor
Ġwest ern
') :
M irror
ĠS ite
gest ure
Not es
Ġplatform s
Ġvan ishes
) |^
Ġs ensor
rf loor
m icrosoft
ĠB ox
end ants
Ġv ast
Rel ated
ĠH ost
Inst ances
Im mutable
Ġa rise
Ġproced ures
Ġd iversity
Ġ" +
Ġgr pc
) ',
he at
Ġpers istent
b olic
Re view
Ġs ale
ĠIter ator
pen ded
} ~\
g uid
Prop Types
f v
ĠMin istry
FR AME
l on
ĠMem ory
2 24
Ġcancell ationToken
Ġfif th
Ġproject ive
O rient
ĠI MP
ĠE C
IC ATION
"> '
C UMENT
ĠT one
ide l
Ġcho osing
Ġdoub t
ĠG ar
Ġsub sets
Ġdec oder
[ [
Ġcap abilities
Ġdi ameter
MP TY
Ðµ ÑĤ
atter y
Ġge ome
Symbol s
Ġca using
ecess ary
Ġsur prising
Form s
dig est
ĠM L
ĠL ew
ĠQ CD
I mages
T i
K EN
S el
Spr ite
ĠR iemann
olog ist
d imension
DEF INED
D TD
Ġconst rained
Ġbreak s
j it
ĠC ro
Ġcon sum
ĠEvent s
Cache d
ĠGr ant
) !
Ġpost ed
Ġweak ly
Ġc ros
STR U
Ġatmo sphere
ĠB SD
Ġs ends
Ġon going
S ender
Ġsy nthetic
ĠB ound
Ġlist ing
Ind ices
Ġchain s
v p
d w
Ġpop up
n an
Ġm ob
Re vision
% );
pt on
> %
Ġ( __
F LOAT
include s
display math
Ġlist ening
$ _{\
Ġex tern
S tage
ĠResult s
ant ics
Ġperform ances
Ġtechn ologies
Ġresult ed
ĠU TF
Ġnumer ic
Ġm ac
in ian
p ause
ĠR og
Ġhundred s
Ġnorm ally
M r
t m
cla im
Ġpr ices
Ð ¹
Ġsee med
ĠR andom
Ġappe al
Ġpurch ase
Ġ$ $\
Ġg it
man ifest
Ġca ught
ĠA uth
Ġl ibraries
Ġexerc ise
St ates
remove Child
ĠÐ ´
EN C
rot ation
)} _{\
ĠEd ward
as hes
iz ard
Ġhome s
Ġread ers
Ġassoci ate
hed ral
M AR
Ġpul se
ĠW HERE
Ġcollabor ation
ĠUn icode
Ġint ention
ĠAn onymous
ch ars
Pre view
Ġabund ance
Ġrestri ctions
2 13
ĠO pt
ĠBro ok
pe g
ĠD ar
Ġvalid ity
or bit
99 9
Ġin fin
Ġqu ote
t ls
ch ant
. âĢĻ
ĠS ession
ĠS ave
Å Ĥ
ĠA GN
Ġas set
sec ure
ĠB attle
project s
ul f
o th
ĠS cript
qu ality
w heel
Ġpl ants
ĠN ight
Ġreli able
j u
Ġwould n
d ings
Ġb omb
Ġh aven
A ff
ĠStep hen
ĠL ive
C r
itect ure
Ġmathemat ical
ĠS ys
+ -
Ġsub str
Ġadapt ed
' }\
* >
Ġlo se
end a
Ġstead y
Ġhe ter
H y
ĠDo es
Ġ ig
ĠD rop
J Token
PRO JECT
M ail
Ġinter ference
ĠR om
Ġelement ary
hand lers
L U
ĠT ri
ĠW is
G G
Ġobservable Proto
( `
ĠF A
Clo sure
ol id
Ġd ump
Ġdec ays
Ġharmon y
Ġk id
Ġf ell
Ġf uel
Ġindic ator
Ġmembers hip
Ġfavor ite
************************************************************************ ****
Time s
Ġwe ather
Eng lish
od a
ual ity
Ġtw enty
Ġcorpor ate
ĠĠĠĠĠĠĠĠĠĠĠĠĠĠĠĠĠĠĠĠĠĠĠĠĠĠĠĠĠĠĠĠ ĠĠĠĠĠĠĠĠĠĠĠĠ
Ġsp ending
an de
ap ore
Ġdedu ce
oused own
o i
flu id
C ipher
id al
M c
ar ance
TO DO
ĠAlex ander
Ġhistor ic
Ġ$ <
Ġremo val
ĠCon nection
Ġconnect ing
over ty
w ind
IT LE
nes ses
Ġin finity
u ction
$& $
ĠD I
Ġperturb ations
Ġhum ans
Ġv ir
oc he
Ġteach ers
âĢ ¢
. (\
Ġfav our
is String
Ġk ine
Aut om
Ġlo gin
do or
trans fer
Ġn omin
Tool bar
Ġis set
df s
Ġremo ves
Ð¾Ð »
sc ious
Ġexplain s
comp uted
ref er
20 2
} ',
X HR
B T
= (\
ch oose
sp read
ar ound
bound ary
Ġtro ops
ĠCHE CK
Ġs port
block s
ĠIsrael i
Ġdo ctor
getElementsBy TagName
Ġal i
Ġsoldi ers
ĠN AV
ĠOx ford
f riend
ra it
F M
19 63
urn e
cons ider
Ġs oc
Ġfight ing
. }\
aw are
v y
i q
D X
ĠSk Pdf
3 50
Ġhy brid
ĠL E
ĠB ased
Ġcamp us
Ġart ifact
Ġh ooks
Ġtot ally
ĠC PU
Ġanaly tical
Be havior
Dest ination
ipp et
un def
Ġper mit
Ġlos ses
Ġvict ims
tensor flow
K L
ach ines
Ġl in
let ter
ul p
Ġh ouses
} &\
sw ap
Ġc yl
N ational
roll ing
ff ee
Ġma il
}_{ {\
Ġproject ed
Ġanalog ous
Ġsee king
g ap
ĠDes pite
Ġta ught
Ġas c
Ġcoup lings
) <
Ġv ideos
) `
ĠH A
Ġsuff ices
st ri
19 62
ĠMan ager
ĠAn alysis
Ġp t
Ġd jango
Ġcross ing
Ġemploy ment
xy gen
ĠEnt ity
ĠK im
Ġpermut ation
over set
Ġreal istic
L ng
row se
View Controller
ĠPr ince
ĠK h
ĠMass achusetts
Ġcon temporary
Ġse ats
Ġan isot
ed y
Ġad mits
arr Index
ĠOlymp ics
calcul ate
Ġstand ing
ph ab
Dir ty
Ġsub mitted
Ġa wards
th ur
Ġv i
Ġtraject ories
Ġz ip
Ġb ubble
un es
I MAGE
Ġclin ical
mon y
ir k
ĠA P
Ġcol span
Ġbr ings
ad ic
Ġcons umption
l tr
Ġour selves
Ġar ts
un a
on line
ig uous
Wh y
hom ology
Ġsp ons
ĠExt ension
ke leton
Ġv ulner
AUT H
Tool Group
N P
d ifferent
g h
pp ers
}^{ (\
Ġharmon ic
pos itive
S uffix
ĠD iagnost
ĠO K
ul ates
const ants
th umb
Ġsignific ance
Ġalign ed
ĠRem oves
? ?
Des ign
Ġco s
Ġstream s
ul se
Ġs mo
IT ION
tra its
G radient
Ġfac ulty
ifi able
ĠCont in
d id
ĠÐ º
Ġan tic
col ors
as i
les cope
ĠÐ ¸
H is
Ġeduc ational
27 0
du ate
Ġcenter ed
V ol
AR GET
ĠConst ant
Ġcomb ining
ced ure
Ġfeel ing
Ġ} )(
Ġ* =
is ition
(' $
spec ified
y ou
ĠF air
Ġcr ash
ĠF ac
aut ore
Ġre act
D ump
Ġoffer ing
Ġexpos ure
ĠCon s
U i
Ġcent ers
Ġful fill
USE D
Â Ń
vari ants
Ġpl ate
inter pol
document Element
Volume Source
Ġscen es
TE GER
m istry
mu x
Ġun stable
ĠM ah
}) _{
comm ands
ĠD u
Rel ation
pg sql
ĠB and
ĠCon verts
che ster
Cre ation
Ġparse Float
" ?>
Mill is
h ang
ĠB C
\\\\\\\\\\\\\\\\\\\\\\\\\\\\\\\\ \\\\\\\\\\\\\\\\\\\\\\\\\\\\\\\\
Ġquot ient
U psilon
// ----------------------------------------------------------------
ĠG i
em ber
12 4
è ¿
temp lates
DI RECT
b ury
13 5
Draw ing
S IGN
l ad
z i
lu a
Ġp ray
Ġneighb ors
Comp uted
INST ANCE
Ġprov es
H L
ĠB rowser
Ġdra ma
ab ling
Ġex cluded
O W
Ġpost s
ĠSt orage
ĠLe vel
ĠP S
Sur face
å ¤
(' :
R ob
P an
Ġcon e
I ES
Ġlo dash
' ',
ĠĠĠĠ čĊ
ĠH E
Ġse asons
ATTR IBUTE
. ;
Ġch ose
r x
Op acity
Ġ$ [\
ma king
ĠAff airs
work s
Ġphenomen on
j d
Ġh arm
dir ty
nt z
Ġwill ing
c aret
fg han
Ġscient ists
Ġch rome
Ġaccept s
Ġun ity
R TC
Ï Ħ
* (
Ġfl ash
Ġassist ance
Ġinterpol ation
ĠRep resent
Ġl ambda
Ġdoc s
Ġconcept s
me as
Ġk w
ĠS TD
Ġd il
Ġvot ers
Ġserial ize
................ ................
s ar
Ġre aches
Ġdetermin ation
ĠĠĠĠĠĠĠĠ ĠĠĊ
G est
ĠL IMIT
Vari ant
Wh ite
ĠVAL IGN
Ġreg arded
Ġa f
rep resent
LE S
c py
C amera
f ollow
uff icient
ment ion
Ġsegment ation
Ġterr itory
Table Row
ch itz
Ġb ed
ierarch ical
Ġabs olutely
l ating
Ġsy nt
F s
Util ities
J s
ĠEl izabeth
Ã º
ĠDir ac
ĠBer lin
sup ports
Ġ ]);
ĠJe an
ĉ ĠĠĠĠĠĠĠĠĠĠĠĠĠĠĠĠĠĠĠĠĠĠĠ
}) -
, ~
int o
l iteral
input s
ĠF ellow
Ġhelp ful
Ġcoher ent
ost er
ĠRe volution
Ġtrip le
! (
Ġsh apes
ĠB inary
ĠN az
= #
S outh
uff le
Ġillustr ate
HO ST
Ġfair ly
Ġhe ap
Ġme son
* ="
apim achinery
Ġret ired
Sche dule
00 2
S i
ĠO UT
19 61
ĠGovern or
ĠB lo
t rain
Ġre venue
ent a
Ġt ries
Ġs ight
Ġdetermin istic
Ġhon or
ĠSte ve
et ary
rop ol
c assandra
Ġsur g
Ġjo ining
fil er
Ġl azy
L arge
Ġtherm od
aut orest
Ġin str
Ġcre ative
Ġobvious ly
h int
ĠT ake
n l
Ġd war
ĠId ent
ĠMod ern
ãĢĤ </
ay a
Ġ" ");
Fl ush
Comp lex
pi ed
Ġgain ed
Ġcomp rehensive
Ġfew er
Ġ[ -
Z Z
c op
Ġanaly zed
ĠMe an
Imp lemented
Ġap ps
PAR AM
Ġassess ment
Ġassume s
under set
Ġput ting
Ġen hanced
ce ived
ĠH ands
Ġhost s
ph ia
st reet
ific ial
Ġmultip lication
Ġ iv
Ġlocal s
Sl ider
Ġlinear ly
Ġocc asion
CL I
qu es
Ġmarket ing
S hell
Ġre in
ĠB each
Dat aset
Ġpure ly
Ġalong side
ers ions
TE MPL
ĠDav is
Ġphys ic
Q A
B ag
Ã ±
oper ations
Ġtr iggers
de mo
back end
assert False
ĠA ST
Ġfor Each
Ġdis put
ĠQ t
Ġb asketball
Ġsubst itut
det ach
r ig
ĠS at
Ġch a
Ġv otes
est ing
] </
FUN C
Ġd otted
Red irect
ov ie
CT RL
Data Source
veloc ity
Spe ed
AR CH
Ġpeak s
ed ges
Ġg amma
Ġhas n
Bind er
Ġdeliver ed
ĠS ports
ĠIslam ic
respon sive
car ousel
s yn
ĠC au
Ġinj ury
Ġpass ion
ĠR ome
ĠNot ice
T M
\, .
std out
Re ject
pro j
r idden
Ġ ----------------
y o
ĠE instein
Ġpro hib
Ġp ump
St ud
ld s
v ance
> .</
U C
Ġs ought
P RI
Ġ} {\
Ġnewsp aper
Ind ent
er un
Pred icate
Ġdef late
ch arge
Ø ±
ak i
ĠB ang
Ġtrans lated
orient ation
al tern
Ġfile d
ĠD ub
ched uling
d h
ĠC ook
Ġan imal
Ġacceler ation
ys i
Ġpat ent
iv ot
sup erv
Ġprogram me
Ġactiv ation
Ġe lev
ail s
Ġfilter ing
ĠAd am
Ġax es
exemp lar
no ise
Ġm irror
ĠC at
is en
. },
g re
Ġw alls
Ġsynchron ized
Null Exception
ĠApp le
Ġal umni
ĠPl ace
Sim ilarly
IT S
\ }}
a us
Ġexper ts
Sub mit
ai ses
Ġvolume s
Â °
Ġher self
n ested
Con figure
ĠPro duct
m q
Ġp ag
Ġcomp ress
h yp
del phia
Perm issions
ĠP ay
çĶ ¨
String Builder
Rout ing
Ġcombin ations
Ġ$ ('#
ĠG TEST
GE X
ĠOrig inal
T ube
ĠA C
Ġautom atic
Ġv eter
M AT
Comp ile
Un able
Ġob servers
ĠV olume
list en
Ġb igger
Ġcollect ive
Ġg ray
' }$
), (
Log ging
Ġclean up
Bo th
B H
seud o
Ġcyc lic
out heast
get Property
Stack Trace
( |
') [
im ited
ĠMedic ine
Ġcool ing
Ð ±
s il
Ġequ ally
ĠA I
ĠComp ar
Ġsh ips
{ [
ĠG reg
NE W
Warn ings
Ġs cre
ãģ ®
Ġaver aged
ĠF ish
inherit doc
ĠN C
Ġdut y
Ġ' \\
ĠC e
Ġco uncil
miss ible
ĠPub lish
Ġreve al
brid ge
code c
ĠSaf ari
Ex change
Ġrecogn ize
Ġadd ressed
( %
Ġprov en
ile vel
rest rict
ĠN a
Ġv ent
ĠĠĠĠĠĠĠĠĠĠĠĠĠĠĠĠĠĠĠĠĠĠĠĠĠĠĠĠĠĠĠĠ ĠĠĠĠĠĠĠĠĠĠ
maz ing
Dis able
the ory
Ġmonitor ing
Ġf old
CP U
st ud
ĠCh art
phot on
ĠT ensor
S ent
let ing
pan ic
2 20
Ġcour ts
Ġmag ic
Ġcon clusions
Comp ute
Ġconst itu
Ġrema inder
Ġmain tained
oid s
ĠJ oh
or ous
ĠB lu
P K
Ġveloc ities
Ġs ock
Ġmark s
Ġ\, ,
Vis ibility
ne ighb
ĠA sh
Ġ ^{\
y ers
ĠS ort
11 3
Ġbr anches
ĠCoun try
ĠC omb
un ion
ĠE uclidean
Ġm igration
Ġdanger ous
s ock
new Value
Ġret ire
Ġdrug s
x sd
12 6
set Text
Ġinf late
M ixed
LE FT
ask a
> {
Ġc ro
Ġw inner
^{ [
IN PUT
ĠC ub
Ġad mit
Ġ} $
Set ter
ĠP od
Co ords
pert urb
E scape
Ġstrug g
Col ors
ĠString Builder
he alth
la zy
ĠEns ure
Ġver ified
UMM ARY
ĠG it
g c
ĠInter face
AC HE
---- --
! "
C ross
cent ral
ivers ary
Ġle ct
v endor
Le ave
}. \
U UID
ow a
Ġyoun ger
ĠC ra
Ġcontain ers
}\ ;
rib es
Ġprocess or
Ġpotential s
) ];
Ġfor get
ĠF ox
pack ages
Ġ" *
mb r
ĠSD L
Code Analysis
Field Value
ind s
Ġoptim ized
al ways
class List
E mber
om er
Ġan imate
pt s
Ġindu ces
á ĥ
and y
Ã ¸
Ġident ifying
}= (
h it
ĉĉ čĊ
ĠT yp
Ġpro mpt
XX XX
in tern
man aged
Ġindex ed
Prototype Of
Ġan onymous
Rep ly
Ġimm igr
Ġform atted
Ġcommit ment
Ġpenal ty
ĠAPI ENTRY
re ach
x b
Ġarch ive
ĠN ormal
Ġover view
Ġg iant
Ġelect ro
Ġheav ily
Ġa ims
Ġform ats
\| _{\
Ch rist
Pod s
omm od
av ail
Ġs oci
c id
ack ets
Ġd ance
igh th
B ul
P t
Ġdo jo
Numer ic
ch y
Ġper mitted
Ġm ixin
UD ING
Ġtra iling
te ch
Ġex emp
12 2
Ġanno unce
SP AN
min imum
temp erature
ellect ual
Ch rome
Ġshould n
Ġv es
Ġkey word
get Key
') \
Bind ings
ĠGener ic
Ġdis posable
sub float
ĠJ ordan
Ġweap ons
DO WN
vers ions
ĠA udio
Ġrout ine
append To
respon d
ron o
æ ĺ
Ġle x
ĠOper a
}} }{
Ġd ocker
Ġpriv ile
F ire
Ġins ight
Ġresist ance
NO WN
RO P
ri ers
Ġmatch er
Do ctrine
ĠP A
Ġbox es
g ot
im iter
) )$.
x FF
d ater
ĠC ost
pop over
E mit
Ġup dating
ĠColor ado
ĠTh ose
Ġpres erved
erm it
e fficient
Ñ Ĩ
Ġas king
Ġref uge
Dis posed
ĠM ode
Ġimplement ations
D i
Ġfound ation
Ġerrno Err
------------ -
Ġt ack
ĠSpec ifically
G uid
Ġ-- ></
now ledge
Ġreprodu ce
ĠM ount
B ridge
r us
t cp
li ers
ĠD eta
Ear ly
Ġworld wide
m ixed
======== ====
ĠJ u
ĠTor onto
Ġimp osed
Inter op
ENT S
Un marshal
Ġaff il
contin uous
ĠR TC
e ast
17 0
ĠNAV BAR
Are Equal
\ ":
AME TER
ĠP rem
ĠSy ria
He ap
br and
Ġdiss ip
Ġis Array
Ġpres idential
Ġreg ulations
L F
Ġsuper Class
Ġk ick
Ġlimit ing
Ġparame tri
Ġderiv ation
Align ment
ĠB la
Ġmed al
Ġsuc ceeded
Ġwatch ing
ĠMe V
Ġprov iders
( ",
s an
ĠP arent
ĠL ater
mark s
lap sible
set Timeout
LE D
if ecycle
do i
Ġh ack
In jection
Ġco medy
AS A
ĠS on
Un ited
Ġdis order
ĠS R
Ġ[ #
Ġpro x
k ov
IC AL
ĠO nt
prov ide
Ġre aching
un shift
ĠAs ync
ĠTra its
ĠR os
Group Version
ĠG er
v skip
Ġsatell ite
Ġcon jecture
H ar
ital ic
ĠFr an
Ġ` _.
Ġgovern ments
Byte Array
M ass
v js
ne ed
ang el
Ġas ynchronous
Ġperman ent
re pre
t ap
G reen
Ġ'/ '
scal a
Ġin fe
Out Of
Con struct
N pgsql
Tool tip
ord on
ĠA ge
Ġbring ing
Ġgener ality
Ġhab it
Ġperson nel
hand led
ips chitz
Î µ
Ġnumer ically
s yntax
"> (
" +
å Ĭ
}| ^
Ġg fx
Ġr v
Ġsu dden
Ġlat ent
Ġs sl
k ern
ĠGo String
Ġdefault Value
Ġattemp ted
Ġde formation
ins pect
Z ip
equal ities
Ġsh ut
Operation Exception
iline ar
p q
Ġcal ibration
ist ically
SD L
in formation
ĠB ody
; (
PIX I
Im g
ig a
Ġsamp led
Ġ/ \
ĠSet up
Al ert
ĠHol y
US Y
P ull
is ations
V IEW
at ri
pro tect
ĠDiagnost ic
] ",
h w
s napshot
(" [
Ġre pe
Ġy es
Typ ed
V T
Ġout comes
ĠD utch
ast ers
f ar
Ġlo ved
c ategories
cre asing
16 8
Î ¹
ĠQ String
Ġent itled
exemplar City
lim ited
ann a
con sin
Ġgradu ate
ĠS ET
Ġfit ted
B tn
re view
riz ona
id en
V S
rop ical
Ġrg b
Ġs wit
Initial ize
Ġt ends
Ġobserv ables
re ll
Ġb t
ĠD etermin
Ġall Classes
widget s
ĠÂ ©
Ġrequ iring
M esh
PROPERT Y
Ġdig its
c yc
b ec
Ġb uffers
Coun try
Ġconcat en
Å ¾
Get String
Connect or
s imp
ĠH o
OFF SET
oo thing
Ġent ering
k ar
enn a
ĠDis play
ĠC red
C MD
ĠA fghan
Ġh over
ĠM iller
un ed
Ġev ident
Ġwh itespace
Ġoffset s
Ġab and
ĠSt ack
Ġintegr als
Ġintrodu cing
Contain ers
Ġdifficult y
ith metic
Ġse es
ĠE ric
Ġfin itely
Ġrelax ation
PRO TO
he t
ĠAn th
è ¯
Ġinter faces
Ġdeb t
n ear
/* .
Ġc ash
m x
)} =
LE N
ĠS her
Java Script
Ġhost ed
F ast
Ġse q
s is
repre ne
ĠB ooks
ok ing
us ual
Upper Case
) }^
ism atch
ĠAng ular
ĠW ars
filter ed
+ |
Y es
GRO UP
ĠF ood
moz illa
all enge
ĠHe ader
################ ################
F ROM
th ird
Ġpod s
ect ed
rec ords
oci ate
Clo sed
ĠD ark
p ipeline
([ "
ĠC apt
Ġe mitted
Ġg lass
Ġsu it
execut ion
ĠST ART
ĠRes erved
ant i
P HA
sim ilar
>( <
Ġ( []
ĠÂ »
Ġconvers ation
Ġprov isions
b id
Ġproport ion
Get Type
Y S
C Sharp
z o
Ġpolitic ians
ĠAm ong
expect s
up les
it ize
12 1
000 1
Ġex clusive
CO PY
ĠB utton
Ġne ur
Un its
Ġequip ped
Imp lementation
ĠV ice
writ ing
Ġexpand ing
Ġmer ely
Ġarrest ed
Ġclass ifier
ĠR en
o auth
Ġa st
Ġro uter
= _
Ġepisode s
ertific ates
l ain
Ġh int
Ġpartners hip
ĠF irefox
assert Same
Ð¾ ÑĢ
T ON
WARN ING
Ù Ħ
pe er
ev in
Ġt f
ĠĠĠĠĠĠĠ Ċ
ĠP ur
ĠRe call
serial izer
Ġl y
ad i
Ġimprove ments
Ġt ear
Ġk not
ipher al
at im
Ġguarante es
) ~
sp irit
Ġgood s
Ġcosm ic
ut r
Ġ" </
pr ice
Ġpro secut
inst ances
pro fit
ĠCl inton
Ġman ual
Ġre start
Sh are
Ġun set
Ġretrie ved
MA IN
channel s
Ġb are
Ġdist ort
ex ist
Ġinst ability
> [
Ġdoll ars
w ho
CT OR
initial ized
Ġdef initely
Ġsuff ered
Index ed
ĠB BC
Ġparticip ate
Ġc ensus
big skip
Up dates
Ġhomot opy
Ġb ond
TR A
ĠSpec ifies
T ri
sp ot
B G
ag ues
tra ining
ĠUk raine
ri ends
ab i
Rot ation
$ (\
ĠPol and
Comp at
! </
ĠC K
ĠWith out
comp ilation
Ġser vers
T y
+ $
; |
th reshold
ĠS to
oc o
default Value
ime di
t os
TH E
c us
). }
(' ');
respect ively
Ġn ations
ac cur
Ġcount ing
ĠD oug
! ');
be ans
Ġlo sing
ug by
ĠMc C
Ġadministr ative
F inder
qu ark
W ell
Ġa de
Ġescap ed
sp ir
Ġcon test
ada pt
S mall
Ġput s
h ooks
F W
match er
Ġco pied
ĠPhil ipp
Ġsequ ential
ĠT y
pe ction
ĠCon serv
ĠL at
Ġs alt
Ma jor
Ġun like
lim inary
d td
amazon aws
ĠH or
ard ing
s olution
ĠK on
NotFound Exception
Ġmill ions
ID s
ĠCamb ridge
Ġemploy ee
Ġenforce ment
R ST
Ġto urnament
Ġtrans mit
ic ide
IS O
or ange
ĠApp ly
æ Ī
E mbed
Ġaffect s
2 30
Ġp ipe
Ġdip lo
19 59
Ġ rom
00 5
" </
Ġsever e
s ender
' <
Ġcorre lated
he ses
Ġk illing
Ġcon cluded
CL K
Animation Frame
m v
Ġreal ize
Ġt itles
}} }$
min ute
% "><
er al
Ġhot el
ĠScott ish
Ġsw ap
H I
ĠP erm
ĠE th
3 000
ress ive
ac l
ĠSing apore
Ġtang ent
sm ooth
Ġform ulas
Conf lict
Col s
ĠHol lywood
Ġ{ {\
Ġdef er
oun tains
ĠR od
ul atory
T ax
From String
ĠA B
ĠL td
h ist
Ġf usion
Ġcom fort
<? >
^ +\
col s
âĢĻ ,
Ġnav igator
= {\
ĠL ET
Ġacc ommod
ĠAg ency
}\ }$
rep ly
Ġland scape
Ġ( {
ĠallClasses Link
Ġexpect ations
Ġ\ #
Vari ables
ĠL ang
? )
ct ype
Ġj uris
ĠTur key
Ġel astic
Ġcap ability
Ã ¥
ul um
Back up
spher ic
Qu ota
V ars
c ritical
h h
ant ed
PA SS
Ġset Up
Or acle
=" ./
quest ion
cell s
Ġsol o
ĠHistor ic
jack son
compar ison
Ġtyp ed
Res olution
ur ches
ĠL ib
ĠCl asses
$ --
Man ifest
Ġdriv ers
ome ter
ĠC OP
Ter min
ĠM I
-------- -
Ġassist ant
Ġpolitic ian
un lock
ĠV ar
ĠAt omic
Orient ation
ĠIn stance
ĠDemocr ats
d ney
insert Before
Ġres ign
Ġpublic ly
Ġn ob
Ġhelp ers
Inv oke
DEF INE
Ġrep orter
Ġw inter
Ġfore cast
ĠP AR
Ġr u
R F
Ġchar s
Ġform ally
Ch oice
Ġhyper bolic
Ġout per
17 5
Ġcell padding
Ġst orm
Ã¡ n
ĠS UMMARY
Ġend points
p ix
Ġcontribut ed
Ñ ħ
Ġsett lement
Ġ utf
ch at
F ul
Ġt ar
ĠTr ack
iter ate
Ġw er
Ġsh orter
Trans lation
ĠA DC
Ġprov ince
ss on
Ġspec ifying
ĠO VERRIDE
ag on
p mb
ĠC T
ĠP NG
: &
h or
Ġinter net
host name
Ġappro val
l apping
L ive
Ġg od
ip ality
tain ment
Ġc art
Ġm ort
K ER
nes ota
VER TEX
Ġturn ing
Ġbase s
G it
Custom er
u z
ĠB H
sh ake
url s
Ġemer gency
Ġa rises
Re peat
ĠSche ma
/ $
20 4
is NaN
Ġsound s
ck er
off s
ĠPo inter
Ġbur st
Key Value
grav ity
child node
charCode At
Ä ĥ
Ar row
Pol ygon
sol r
Al t
ĠS eg
Ġdrop down
iv idual
Ġoccup ied
19 58
11 11
19 48
enn is
un ter
Dec or
ol i
b rew
arr ing
ĠF C
Ġfeat uring
D ifference
Ġt unnel
Ġdepict ed
Ġrec ru
Ġgu y
se g
20 8
vis ual
Ġbos on
Type Name
ct l
CON F
sort ed
sing ular
Ġarg v
Br anch
ĠA UT
ĠIs lands
ub er
Ġvalid ator
Ġin equalities
op ens
unic ations
ĠHands ontable
l st
)\ ,\
db c
p ane
Ġre tail
Start ed
h us
19 39
id ay
Ġelse if
C atch
Ġp s
sw arm
Ġ ../../../
Input Widget
ether lands
19 18
Ġsh allow
}}\ ,
ĠP L
âĢĻ .
Map s
y ellow
Ġh air
ile y
ĠA venue
if ting
H er
Ġ' ../
lay ers
Ġc f
post s
Ġstri ke
C laim
Track ing
us cript
ad oc
Ġan not
Reg ular
h c
fra ction
local s
Not ice
ĠM arg
get Context
Ġ' __
man agement
ĠSet tings
Ġelse where
l c
Ġpaint ing
Ġy ellow
=" {{
ĠR ic
Ġcommunic ations
Ġvalu able
Initial ized
14 7
] _{
T ip
Ġagree ments
on i
st aging
D ocker
Ġtransform s
Ġc urrency
ĠB ible
ĠSt ory
Bound ing
pol l
Ġcontinu ity
in x
}( -
Imp licit
Ġvan ishing
DIS ABLE
Ġanom al
se ls
I FT
URI Component
ILE D
Writ able
res olver
s lds
1 19
ĠPri ze
CON NE
ent ric
ĠA lice
Ġexcit ation
AL LOW
Ġexecut ing
ĠY es
' (\
d yn
re cogn
qu ick
U TE
ĠVis ual
G D
i ors
Ġs i
tr unc
}, {\
v b
------------ --
Ġthere by
Ġcontinu ing
WIN DO
ĠF all
ĠCom ment
Ġme ss
Ġc tor
Ġle s
Ġhon est
ĠUn iverse
Ġpri est
ĠRes ources
Ġvict im
$ ^\
g row
ee ded
n ik
this Arg
ĠDef ense
Ġarr ive
TEMPL ATE
ĠN eg
ĠPhil a
Ġt sd
Ġ$- $
ĠTemp late
N orm
te le
ĠY et
G ENER
pol ar
Ġk ube
ra ble
19 44
N U
ĠG ib
Ġcre w
form ula
Ġth ir
AD DR
Ġab elian
sql ite
Ġass ault
pl er
ĠÐ ¾
( $.
}$ ).
Ġhealth y
- '
Ġslow ly
Ġacc essed
es is
ĠG re
Ġfeas ible
Ġshift ed
We ak
ĠIN T
ich ol
ĠSystem s
12 34
Ġpoint ing
FIL TER
ph oto
Ġformal ism
der iv
ĠDis able
de sh
ĠC L
Ġdis plays
g ar
ĠS A
Ġown ers
lott able
Index es
de term
ĠB ridge
> ",
me l
Ġcontext s
Me asure
eng ers
stop Propagation
Ġincre di
ĠL P
Un icode
S ym
pre ter
ĠS ER
Ġwarn ings
^- $
ĠE uler
ĠV AR
Ġes c
d am
author ization
set Value
ĠF L
ĠN GC
âĢ¦. âĢ¦.
to Array
s leep
bib li
Ġcryst al
close st
NAME SPACE
Ġb ag
ĠPort ug
Sc ene
Ġreve als
Ġcompet itive
Me an
St rip
\!\! \!\!
Key board
Comp osite
Ġcol le
18 43
or b
Ġgreat ly
our i
Pub lish
copy right
Ġre actor
ener ated
ĠLore ntz
Ġneglig ible
19 56
ĠD WORD
Ġc line
13 6
str ategy
{ }{
Author ization
ĠSt ock
app le
Ġre put
Ġm ixture
ĠEV ENT
Ġfoc uses
SE CON
ĠH art
Ġreflect ed
r k
du ctor
Ġexpl oration
ĠTra de
Ġimpro ving
Ġfraction al
Ġg ene
Ġbeh alf
Ġminim ize
book s
Target s
Ġf asc
hash Code
Ġke eps
HEAD ER
Ġuniqu ely
Ġso ul
Ġent r
La unch
ĠPhila delphia
P riv
Ġbank s
Ġin variance
an th
Ġansw ers
var pi
g mail
x rightarrow
="# ">
Ġim aging
Trans late
gress ive
or tex
ĠF ont
Ġcook ies
ak ed
End points
B in
Ġmechan ical
as p
Ġad vent
ĠEn try
Ġsp oke
ĠVal ues
be at
et ooth
}$ $
clo sure
U uid
Ġhydro gen
ar ations
Ġnav bar
ĠE mpty
CR IPT
ĠBuild ing
LIN K
): =\
Ġback ward
Ġdefe ated
f m
Ġaff ord
F rag
p aint
est im
}} +\
y cl
load s
Ġre write
ĠSk ip
opt imal
r at
ĠN orm
om ics
and al
ĠAnd erson
vious ly
ag a
Ġ å
Ġimag inary
uth er
Ġin jection
Ġinst itution
A ug
ĠH ung
Ġap ilevel
dat as
Ġform atter
ĠSan ta
ĠLew is
vert ices
Ġacc used
Ġpar ad
2 10
ĠWIT H
Ġcomm utative
ĠS mall
ĠG ro
Ġnot able
remove EventListener
ĠPh ot
che stra
Ġdes ire
ug ar
ĠK n
serv let
Ã© s
ĠPro tocol
Enumer ator
Ġult ra
c url
Ñ Ī
ĠVictor ia
nav igator
Ġrad ical
Ġlaw yer
un bind
Ġ' .'
ĠL ock
Ġefficient ly
Ġacknow ledge
st ion
im ers
ĠCon sequently
aut om
ĠV ill
ro ck
Ġsh ifts
Ġset ter
Ġin direct
}} +
Ġvol tage
ĠLear ning
ĠP riv
md c
ĠSt ation
ĠCollection s
Ġm oral
ort heast
List s
re try
Ġtext area
MO VE
(' [
aw ay
}_{ (
iss ip
M N
ĠL com
Work space
Ġdig it
Ġsepar ator
At tempt
ĠTh ird
Th ree
ĠNever theless
Ġnot ing
z end
Ġmer ger
ĠIn sert
M iddle
ĠB ru
def erred
Ġeast ern
govern or
ĠKore an
Ġvoc als
Ġapparent ly
TH READ
C ost
V IS
Ġcomp oser
' })
Ġprote in
us ive
ĠP UBLIC
Ġre lies
Ġst retch
19 41
C he
ĠOffic er
ĠP ot
v t
Y our
Ġun def
ĠE ll
Ġqu oted
BO X
con vex
19 57
de ps
L ER
g log
ĠF ord
Ġeng aged
? ,
ĠAtt orney
google apis
ĠGener ated
ĠT ok
F ault
R anges
Ġse vent
m achine
ĠF R
n os
itar ian
Rad io
enc oder
Det ector
ĠD ATA
get Default
col og
Ġag es
ut orial
C fg
on ing
LOC AL
In deed
Ġencounter ed
Ġaggreg ate
Ġrefer enced
Ph ysics
Com ments
Ġden ied
w rapped
Off ice
to k
li ber
Ġlog s
S at
Add itional
u j
di e
Ġfound er
ĠComp osite
Ge o
F em
ING S
Ġbelie ves
ow nt
ADD ING
V A
Ġwith draw
as set
Ġmolec ules
Man aged
Instance Of
Ġm ime
qu et
ĠA ws
Ġlocal ization
sp er
s ocial
con j
ĠEx amples
Fin ished
Ġproof s
ĠAt lantic
Cur ve
Process ing
ĠDe ath
Ġup grade
Ġglob ally
Ġb ass
ĠH RESULT
FAIL URE
ĠA lf
e ah
ve ctors
F oreign
Ph ys
Part icle
Ke ep
ĠSc ient
ÑĢ Ðµ
m icro
Î ½
Int ent
inher its
Ġin duct
Ġequal To
C AP
led gments
Ġ( +
ĠAir port
dd dd
conf irm
ĠLET TER
ab a
ĠSD K
Binary Tree
Ġn ic
ĠV en
d or
ĠG ree
ĠT F
ĠCO MP
ĠWis consin
Ġweek end
on ia
Ġstrateg ic
umul ative
Ġd ummy
le ans
b ow
Ġdocument ary
Ġdynam ically
Ġbar rier
Ġdisc ip
P ad
Ġsub tract
s uffix
ore l
ĠPh oto
- {\
qu arters
amp ing
8 000
ig ious
ĠB rian
center line
Link s
ĠT ax
LE AN
è ¡
Ġst im
ĠL apl
ER O
D ie
Ġ ĉĉ
al actic
V ersions
ĠR aw
Ġcomp lement
Ġ Ø
to UpperCase
Ġif f
Ġsimpl ified
rel ax
it ud
arg o
Ġfootball ers
. ]
Ġdec oding
ĠOnt ario
superv ised
ĠM aterial
ĠSup p
B ra
80 80
ape x
} ]$
Ġinject ed
P N
ĠG LE
Ġpar liament
Ġconsider able
19 55
Hand ling
Ġsh a
ĠLe ad
19 42
rott le
x ffff
Ġpro ud
}} </
ar on
( @"
X Path
Ġrecover ed
Ġm k
ok er
14 3
Ġver ification
Button s
Ġaccord ance
cr umb
Ġrel ating
Ġl l
Ġcomput ations
g ate
Alloc ator
Ġstrug gle
out ube
F all
g b
qu ate
Not ify
ĠD om
Ġ" {
k k
DE VICE
UL AR
', \
ol ars
ĠK r
Ġrep o
ĠA rizona
in crement
ĠL java
ĠĠĠĠĠĠĠĠĠĠĠĠĠĠĠĠĠĠĠĠĠĠĠĠĠĠĠĠĠĠĠĠ ĠĠĠĠĠĠĠĠĠĠĠĠĠĠĠĠĠĠĠĠĠĠĠ
U nd
Equal To
Ġp overty
PA GE
web shims
Ġ\ }$
Ġun likely
ĠHe art
section s
S B
Mult ip
H W
driv en
Ġp df
S ound
ĠR us
Ġig et
Ġ{ (
ĠProv ince
no op
Sp acing
Rep lication
x ym
Ġre nt
Ġexplo red
v iol
ĠBu dd
/ %
ater al
ENT ER
ces ses
ĠLink ed
ĠFe ature
Ġcontr ary
ĠH D
Ġ[ `
m g
Ġsub sid
R ich
}\ !
Ġserial izer
Ġa mazing
st an
TIME OUT
gra ded
ĠFr ont
Ġc ab
Comm ands
correspon ding
c amera
}{ $
Ġenem y
æķ °
Ġinteract ing
af ka
A sc
ut s
Ġenc ryption
Request ed
ĠS UB
Ġcopy ing
Ġcard inal
autore f
ĠEcon omic
Ġd w
@ {}
d in
Ġeven ing
(( (
Ġchart s
B etween
ĠE ffect
Des erial
str start
Ġtor us
ĠB UT
ãĥ ¼
Ġref used
ĠSk y
Ġpos it
w allet
E mp
Ġgeodes ic
ON LY
ig ible
Ġphot os
Ġt iming
Ġmedic ine
Ass ociation
Ġa jax
U INT
Ġp or
serial ized
it ter
Exp licit
bo urne
P at
ri ction
ĠO B
Ġmodul i
User name
Ġanim ated
Ġsingular ity
f aster
ĠD am
C LO
Ġadapt ation
h p
ma kers
ur d
Ġgrow n
: @
Ġtell ing
Ġ. /
Ġband width
ĠHar ry
Ġcomp ressed
Sta mp
Ġd ash
Inv ocation
Sh ard
="../../../../../../ ../
ĠD or
p us
ou ston
ĠCont roller
Ġte en
max imum
Ġf aced
' -
ID ENT
Conf irm
Ġimp lications
Ġris ks
ĠSim ilar
ĠC ome
Ġboot strap
Ġg rows
Ġ" (
}}\ \
il st
Ġ' *
ĠDesc ribe
Ġdiver gence
b la
Ġext raction
sm art
) /\
C at
in ations
Ġb b
Ġoffic ially
ĠTrans action
ĠUtil s
ĠT reat
phab et
Ġjud gment
th umbnail
Ġhol omorphic
ant t
Ġemot ional
Ġp ot
ĠS L
=' #
Th m
Ġcomp la
cre p
radi ents
P reference
Exp and
ĠOb serv
Fr ont
Ġoscill ations
n ed
Dis pose
ĠT an
it als
Ġf acing
R X
Ġst ops
ĠS PI
Ã© e
log ic
s aved
> ";
Ġde struction
Ġbase ball
Ġman aging
Ġform atting
ĠB rad
Ġinstall ation
Content Type
Ġcell spacing
Ġplan ets
14 5
3 20
ĠInst all
Al tern
N ER
request s
;| &
ĠDis ney
d g
ord ion
Ġevery where
ors ion
ynam ically
' "
REQ UI
be zier
ĠSur vey
rib ers
P rom
ĠLIMIT ED
LI ED
Ġcarry ing
H it
may be
T OM
ĠMar shal
Dav id
ou stic
Ġs ad
r ac
B IN
Ġwit ness
RET URN
Ġd uplicate
Û Į
ĠĠĠĠĠĠĠĠ čĊ
Ġobserv ational
Ġeffect iveness
per iments
K K
Is Null
Ġregular ly
unic ode
LOB AL
bo unce
Dev ices
Ġf ly
cont ributed
Ġmark ers
ĠAl tern
po ssible
Ġmetal licity
xym atrix
ĠB reak
lef trightarrow
Ġcons iders
Col lector
target s
Ġcancell ation
indu ced
Ġm ountain
pre dict
Ġparticip ation
M IT
E m
que e
ty ped
Ġsymme tries
ĠF orest
Aut hent
Ġembed dings
elf are
Circ le
Ġh a
Ġmod ular
Ġprint ed
^ *}
Ġsub t
B rit
cap acity
Ġol dest
Ġresource GroupName
Ġtarget ed
FFFF FF
ĠH al
Ġf estival
ĠA mb
C are
file Name
Cal cul
Ġc raft
Ġext rem
Ġpo le
}} ^{(
Ġremark able
è ®
Dim ensions
Ġeth nic
ĠName space
â Ķ
Json Property
Ġadvers arial
33 3
Ġsk ew
ĠDig ital
Ġaux iliary
l x
ĠR ose
ĠOlymp ic
Ġtool bar
Tick s
12 9
Ġarriv al
u pt
U K
ag ram
Ġde gener
ED IT
effect ive
Ġrail way
Subsc riber
g ateway
bad ge
13 1
19 47
Ġmeaning ful
ĠN etherlands
napsh ots
A CTION
Ġv oting
pl aced
ine ma
Ġclear Timeout
Ġanaly ses
Bl ue
GR AM
the y
ĠMin nesota
n ecessary
ĠI C
get Parent
H ard
es see
Ġshoot ing
Ġcri mes
p es
ph ysics
ĠRE G
> =
Ġan notations
Ġform ing
38 4
Ġimplement ing
ĠF ound
Ġinflu enced
N Unit
Ġre vision
ĠAPI s
ĠT al
alax y
b idden
ĠT i
. -
Ġadult s
I o
ĠN N
Ġo ct
FO RE
ol er
-------- ---
Ġplace ment
Ġr uling
ĠH O
TableRow Color
ĠC reek
Ġdat etime
effect s
ĠViet nam
ĠC lean
_{ (\
H over
ĠG P
ĠĠĠĠĠĠĠĠĠĠĠĠĠĠĠĠĠĠĠĠĠĠĠĠĠĠĠĠĠĠĠĠ ĠĠĠĠĠĠĠĠĠĠĠĠĠ
ĠSet ting
ĠT itle
im ize
ov y
Ġa mp
p v
Ġext ending
FLA GS
B ug
il lo
ĠCOP Y
Component Model
ĠOffic ial
rol led
Ext ent
Ġdemocr acy
et o
ject ive
ĠS ong
top rule
Event Type
ut ion
R pc
ĠLay out
19 46
å Ń
Ġgovern ed
ĠERR OR
ag an
r ison
Load Balancer
to gether
ĠTrans form
Ġar ising
erm ine
Ġdevelop ers
Ġdiv ide
Ġleg it
Cap ability
UB LE
Ġhappen ing
d up
ul us
ĠValue Error
R a
m acro
Ġ" __
Q t
ing ham
Ġb ow
Ġgradu ated
ivari ate
G ood
Ġph rase
Ġ[ ])
pret ty
ĠBel g
Ġb ins
Rem oved
el led
Ġpurch ased
Ġradi i
Doc s
k ip
ĠTur k
ĠH ay
ĠP ART
UP DATE
Ġcl ar
int enance
' </
Ġl ongest
ĠN iger
16 5
Ġpart itions
Ġconsistent ly
00 3
Ġchunk s
Ġdig est
mit ives
Ġpro spect
Ġsqu ares
4 50
h skip
Ġh all
19 54
ĠL abour
ĠIn tegr
ex c
Ġevent Name
Stat istics
Ġcontradi ct
Ġ ))
AC CESS
ey l
A ctor
qu o
au ses
ĠL es
Ex ist
DE P
Or gan
collection s
}$ ;
RE GEX
key down
Ġconfig urable
resource GroupName
od al
Ġsearch ing
ĠPO ST
}, {}
mention ed
() }
}] \
] ])
Ġvari ants
Ġport ray
J O
Ġlimit ation
me sh
Ġmin ing
P ACK
ĠBo y
ik a
sc atter
c ers
ĠH an
Ð ³
ĠF ake
av g
Ġfl avor
Ġout standing
V oid
co uple
19 00
ak s
Ġestablish ments
ro it
ĠK o
Ġcomb at
ĠF lo
il ty
em an
Vertex Attrib
Ġal ive
ĠD NA
current Time
h op
Def erred
wild fly
l v
f lip
comp ressed
Ġbelong ing
ze ch
Ġcareful ly
od ge
Ġover lay
Ġf ixture
Ġb ought
Ġt c
get File
osc ow
Ġin cl
ĠCh apter
li est
ĠÃ ł
Ġ` <
ri me
T ITLE
Ġinnov ation
g ui
Ġres olver
decor ate
Ġj e
b ol
s ymmetric
ĠB P
el ve
E val
col n
Ġe g
Ġbas ically
Compar ator
mark et
C nt
b urn
Ù Ĩ
ma ker
Un iversity
parse Int
Ġde pos
ĠSy dney
Ġ' );
HT MLElement
W illi
Ġsess ions
ysi html
T rip
é Ģ
ath y
Ġinter cept
C ryptoJS
Ġw ider
ĠK ansas
Ġh older
Ġphilosoph y
Ġrel ativistic
Bl ur
T oday
Ġo ps
ĠO s
Ġpick ed
Ġaccomp an
add itional
orth and
y arn
Ġ( ++
13 7
Ġunivers ities
() ">
ĠGLE W
Ġh r
ĠFe b
13 8
ermit ian
Leg end
olog ically
sk top
ĠB egin
velop er
can onical
Fig ures
ĠP IX
F our
19 0
W ITH
n or
Ġvar ies
="# "
ĠF low
15 2
Ġsubsc ribe
Ġencour age
Ġiterate e
ĠKe ep
Rece iver
U G
Ġnode Name
P TR
o es
Ġaccur ately
Ġp kg
ĠJud ge
Ġf er
Ġphenomen a
ĠL ess
ens ively
Text Node
Ġg ay
ĠP ra
unit Pattern
Ġmod ifications
s uggest
NUM BER
t odo
With Error
coup ling
ur ric
Ġdirect ives
Ġcour ses
Do es
Ġ\, .
Ġfe els
Ġstre ets
Ġp ose
Ġco homology
n atural
19 53
Ġ{ })
ST ORE
o ses
Ġb ott
ĠA MD
text style
Mut ex
Ġ ------------------------------------------------
w ire
Ġstr ange
th in
Ġse ctors
Ġvis itor
Ġm ine
Ġp ushed
Ġsp acing
ic ast
man ifold
AD C
ll ing
Ġro uting
Ġm art
~~ ~
ĠSta ff
Ġmut ual
Ġt ension
Re cogn
K nown
Ġ* (
ĠAl loc
40 1
] ^{\
Ï ģ
Ġsh or
Ġpro c
}} ;
Ġmeas uring
me js
Ġm achines
P in
ob serve
Ġvisit ors
ĠF lag
Ġ\ :
ĠProv ides
ĠM att
est imate
Ġorient ed
a que
D iag
for ced
olog ists
ĠArg ent
Ġdir ty
ĠR GB
Ġco operation
RE C
Ġfail ures
Ġregular ization
M al
de generate
ĠK al
pre sto
13 4
Ġmeet ings
ĠSyntax Kind
wik ipedia
n th
moment um
Ġconver ge
Ġdec line
meter y
ĠO C
PAR AMETER
Ġeng age
Ġsett led
Ġen velope
B s
19 43
Ġrank ed
2 25
Ġdb Info
Ġantic ip
Ġmanif olds
Assert ion
ĠP latform
NE SS
ĠInd icates
Ġav ailability
ĠMem orial
Ġi OS
TO KEN
un expected
Ġv oted
16 9
AS H
Ġsupp ressed
id o
T ARGET
ey ond
Ġdesign ated
T or
Ġpil ot
ĠK at
Ġsub graph
Ġdist urb
ĠAnt on
Ġp name
ref s
Ġcor ners
- "
In crement
}, \\
Ġshe ar
I Enumerable
ĠG allery
small er
ĠP layer
Ġhom omorphism
Ġdebug ging
Ġanim ations
El se
ĠMary land
Ġany way
ĠM ill
ĠEx ecute
call s
ick ing
Ġcrow d
g tr
Ġover come
ĠC op
ĠF LA
Ġbro ke
is Defined
Ġt iny
OT TOM
ĠP it
ĠN atural
l ng
Ġtrend s
a verage
re newcommand
Loc ator
Ġfile Name
Ġgra de
Da emon
Ġg host
_{ {
Ġrule d
ĠP ush
Ġw elcome
Pro jection
Ġsimpl ify
}; \
Ġz eros
Ġsing les
Ġb ubb
el a
sw ing
Ġfocus ing
Ġact ress
Ġoptim ize
te am
Ġvari ability
R D
19 52
ĠPro file
Ġco q
Ġlo an
Ġinte gra
n v
ĠRo ss
ĠSty le
parent s
ĠP os
Ġco oper
big oplus
ĠF ast
AT IVE
Ð¸ ÑĤ
Ġdemonstr ates
asm ine
I llegal
f ocused
Ġf urn
ĠH MS
Ġun used
IL L
ĠL ady
Ġk il
Ġpass age
ĠS K
system s
A jax
ĠSTD METHOD
ĠPre Arg
ĠGold en
Ġgovern or
ĠCan not
Ġsummar ized
] _
de leted
ĠX XX
igen ous
17 6
ĠLe on
Ġvan ish
) ::
Ġco ord
ĠT a
Ġinv ocation
Ġr anging
Ġadapt ive
Ġman uscript
19 49
ready State
Ġtri als
return Value
ich ael
Ġcol s
Ġint ellectual
erun ner
Ġbind ings
ol y
see k
Ġca ption
M usic
end o
AAAA AAAA
Ġb eta
ĠN ash
co hol
| .
Ġt abs
ĠC la
}} -
Ġsil ver
" ):
Ġoper ates
L SP
ĠA zure
Ġqu iet
key frames
Ġmotiv ated
ĠCl ark
F ACE
i ers
read crumb
Ġreg isters
ĠP P
app oint
] }\
start ed
per mission
war z
ist a
Rep licas
ĠEn um
? </
ĠPol ish
ume s
w so
Ġ================================================================= ========
W T
ser if
ext ended
$ =
Ġtransport ation
ĠCap ital
Ġhighlight ed
Fl ash
n r
Ġr ating
Ġtalk s
ĠC hen
h dr
Max imum
Ġmusic ians
Ġdr ift
ĠD R
id ae
}) }\
å® ļ
Ġsurg ery
Ġinv ited
ĠPol y
Ġexhib ition
Ġcloud s
Ġc od
Ġpop ulated
Ġ Å
Ġsp rintf
com bo
Ġadvert ising
st mt
sc or
ĠA F
app y
ĠGal actic
page X
Ġprom oted
ĠH it
Ġenjoy ed
regex p
ĠC ell
74 21
Ġcav ity
Par cel
ĠHar vard
h uman
Util ity
Ġliber al
': '
Ġdeep ly
ĠIndian a
N orth
Ġb ath
ĠFin ancial
Ġinstr uments
Ġ$ -\
OUT PUT
ap sed
Pr ice
Ġreflect s
ĠChampion ships
Ġrelease s
Ġance stor
Ġdesign s
FE ATURE
ĠJ ane
ĠD oc
sub st
Ġany where
ĠW el
co her
c rypto
Ġtensor flow
EX CEPT
ĠMag azine
Ġhe ating
[ {\
Ġw ins
ĠS elf
Ġu uid
Ġoff ices
Deep Copy
> ${
tt ify
Ġf inger
Ġg radients
Ġcons ist
(' -
Ġcor ruption
Ġexception al
Ġcond ens
ĠF a
Ġg ift
ĠB or
ĠRel ations
Spr ing
* }\
Ġthous and
Ġchain ing
Ġv acc
d ummy
}. $
US B
build Agent
al ter
},{} ],
ache lor
ç »
Ġop ens
f ollowing
ĠPro of
Ġclub s
Ġre actions
Ġf lip
ĠR T
ast y
ĠCON TRACT
Ġperfect ly
s lides
Ġp ictures
Ġob lig
Ġ' +
ĠEx change
Ġfall ing
Ġmanufact uring
rec ision
ĠDE BUG
Ġ( @
et ition
ĠB road
ĠD ocker
text Content
Ad just
Ġw heel
ession al
INTER N
Ġdefe at
p ager
ĠM oh
car bon
b urst
sh ifts
L ess
ĠCh ain
aren cy
Ġdistingu ished
i pt
Ġcheck box
ĠW ik
verse ly
Ġ\| _{
Ġachie ves
ter ior
Ġst ride
Ã ¢
Ġe asing
Ġsell ing
Ġover write
PO SE
M id
w en
Ġst one
:: ~
DI V
ĠAss ign
ĠM ask
Ex amples
Ġsimp ler
BE GIN
Ġintern ally
Ġexpect s
Ġsuper ior
ĠFunction s
Ġhash Code
ĠL iter
Check box
ab olic
AC ING
!! !!
Ġe missions
Ï ĥ
s us
Ġqu bit
is ible
ĠD aily
Ġb lo
Ġident ities
Ġexhib its
i at
Ġpol ygon
å ľ
Ġsupp ress
ĠA V
ĠSt atic
sin h
ĠDe ad
ĠM enu
ge om
Ġlif ecycle
U ses
Ġdual ity
Ġj ets
Ġtop Level
Ġacqu isition
Ġad mitted
Plain Object
i est
f link
sc ene
r w
Ġr ising
attach ment
] \\
ict ed
er or
bal ance
co ok
D ER
Ġa str
ht bp
L M
P lugins
il de
Code s
ĠAssert ion
c sv
Ġ ðŁ
Ġbe ar
Intern ational
f av
Ġground s
L ife
Ġl ens
N s
R aises
v oc
Ġd ry
Ġe at
ĠS audi
ch arg
P F
ĠS cheduler
Ġsum s
draw able
Ġ"/ "
ex ceptions
the se
tra ined
Ġsymp lectic
ĠW at
conf irmed
ĠDi ego
Ġre normal
ãģ Ļ
Ġrecurs ively
po i
ĠWh it
ĠLoc ation
ĠUs age
ĠStruct ure
Ġbuild s
Ġt ap
Ġc ategor
bottom rule
q s
Ġadjust ed
ĠT ony
Ġa stro
: ]
ach er
ĠSim on
Ġdem ands
Ġferm ions
: **
Ġw aste
int ent
res izable
\' {
Ġra in
Ġs z
ĠB ureau
ant asy
Debug ger
ĠĠĠĠĠĠĠĠĠĠĠĠĠĠĠĠĠĠĠĠĠĠĠĠĠĠĠĠĠĠĠĠ ĠĠĠĠĠĠĠĠĠĠĠĠĠĠ
G EN
ĠW y
inherit Doc
fig s
st ors
date Format
http Request
Ġprepar ation
eloc ity
el le
end region
Ġattemp ting
Ġdev oted
Handle TypeDef
aph it
diag ram
(' _
A x
L ANG
thod ox
EN SION
Ñ İ
get Current
ĠV ER
New s
Ġp reference
ĠD b
ĠIP v
test case
um ann
Ġrepresent atives
ĠF F
Ġswitch ing
ĠLin ux
on ym
Ġp lug
ĠO cean
LA S
Ġpos sess
Ġsw im
Ġvar s
Ġcompar isons
DA Y
S ol
Ġfra ud
Å į
< >
Ġdiagnost ic
b our
dir s
Cal c
Ġde eper
ig roup
Serial izable
Ġbo ys
Ġb orders
Ġhead s
Ġev il
Ġwalk ing
ĠL ind
Dist ribution
B er
aphit pc
ĠB ORDER
Ġrank ing
Ġimag ine
Ġne uro
umin ate
Ġproto buf
ĠD id
n od
symbol s
s ontable
} `
ĠD uke
aut hent
Ġpack ets
eq q
Ġconsum ers
Ġ )$
ĠA bb
Ġar med
Sub st
ĠD ES
ĠY ES
cred entials
quant um
M obile
sh ader
col head
DE CL
Ġtax es
ĠS ound
Ġl ab
ann y
Ġf at
ĠDetermin es
Rec ursive
Ġrig id
Ġdis ks
Ġint u
Ġsign ing
Ġimm igration
C li
Ġback up
(_ .
Ġgraph ics
Ġaltern ate
Ġflux es
ĠS av
ĠSt one
Ġt ort
l arg
Depend encies
Property Name
Ġdip ole
Dig est
SD K
be ing
ip es
Ġelect romagnetic
ĠCurrent ly
__ );
ograph ical
ĠG l
Place holder
Ġstream ing
tou ches
Ġmechan ics
Ġestablish ment
Ġsurve ys
R x
j ud
Ġr m
comp iled
hom ogeneous
Ġo mit
reg on
ĠEd ge
Ġpy thon
At Index
Ġ" &
tr on
")) );
ĠTra ining
Ġcent uries
S CHE
ST EM
ĠI SO
u its
19 51
ĠM ilitary
R G
Ġthe mes
Con clusion
ĠTh ough
Rep lica
BU F
dep loy
N eeded
Ġregex p
G erman
}) :
13 9
Ġpar ity
D ue
ĠS F
Initial izer
Ġoccup ation
Ġd ol
Ġw arr
2 60
Ġa xi
ĠC orn
ĠMo ore
Ġ ×
Ġc url
Ġjournal ist
ĠSen ior
unt ing
Ġde e
amp ions
r p
Ġtrans f
ĠL ar
NR AS
ĠSt adium
ĠAnonymous Observable
ownt own
( <
Ġin formed
RA G
Ġdiscrimin ation
Ġu id
on load
T riv
on der
owner Document
V I
Ġoper ational
Ġalloc ate
ĠDA MAGE
SE C
with in
Ġann ih
ĠDo ctor
Ġnarr ative
yst yle
Ġsc ul
Ġf unded
Lin ux
Ġ===== ==
t om
m ousedown
Ġtr uck
Ġcalcul ating
CON TEXT
Ġdifferent ly
Ġlock ed
i ating
c nt
ĠM it
ĠF ail
Ġimp ose
ht b
ĠI M
St rict
E urope
Ġdiff ers
Cre ator
et he
arb age
Ġmove ments
mon itor
ud son
Ġurl s
Mark up
ĠCar l
Ġch air
Ġlo ts
Ġdis ag
Ġv ic
). $$
status Code
Ġnow rap
ĠAfghan istan
p ressed
ak en
30 4
gr p
Ġsim ulate
set length
CHAN NEL
ĠValid ation
VAR I
B AD
Ġad joint
Ġmis sed
' /
O h
S uggest
ĠS quare
Ġprof it
ĠAp pe
Ġre use
ID S
Ġdelay ed
lo s
Ġbright ness
Ġ\\ [
ĠCor ps
ffic ial
%; ">
Ġs quad
Ġin hab
Ġmin i
icon Element
mat ically
render ed
remo ved
ab ul
ol s
ĠTenn essee
C AN
OD Y
Match ing
ig e
Ġext inction
F ar
Ġconflict s
b ing
ag en
diag onal
Ġspirit ual
ĠAll en
Ġla id
w ick
~~~~~~~~ ~~~~~~~~
Ġb aby
Ġm ir
comp uter
bibli ograph
) ~\
@ \
Ġm ile
Ġc ra
Ġocc urrence
Ġcoinc ides
Ġprov ing
cos h
Inf os
Ġex ha
Ġinvest ors
2 15
rep resentation
. ).
Ġse g
Ġun changed
Ġ ride
Ġrepeated ly
FA ILED
q ed
Ġs av
Ġaccept able
sp l
con struction
å ¼
ĠVis it
Ġsign atures
P a
Ġshort ly
icen ses
ASC II
all as
Ġ um
st ory
mar shall
& +
Ġ( <
W W
d og
ĠBay esian
* {-
Ġfix es
Watch er
Ġdetect ors
r ace
re maining
ĠI owa
'] (
next Sibling
out s
itud inal
Read Write
ĠAr thur
ate ful
col lapsible
Ġdis placement
}} }{\
Ð¾Ð ´
Ġthe ad
gol ang
ĠF unc
amp ed
Ġdis crep
L uc
Rep o
scroll bar
Ġgu ys
CONT ENT
it atively
Ġtr acing
14 8
t own
55 5
Ġun a
C atalog
Ġhead ing
Ù ħ
Ġ\ \\
Ġfrag ments
DE C
Ġann iversary
Ġbehavi ors
ĠH amp
bibliograph ystyle
ab ama
ĠP K
gu ard
19 19
ĠW inter
ĠR ES
CONT RO
R ank
Ġb att
ĠDo ctrine
c ke
log s
F un
ĠPat rick
Ġr ings
ia h
ul omb
U X
page Y
ĠAd vis
ĠR ect
3333 3333
Rep orter
ĠAr k
Ġknow ing
l brace
w ang
rom ium
St mt
sh own
ĠĠĠĠĠĠĠĠĠĠĠĠĠĠĠĠĠĠĠĠĠĠĠĠĠĠĠĠĠĠĠĠ ĠĠĠĠĠĠĠĠĠĠĠĠĠĠĠĠ
Ġmunic ipal
or med
ĠE valu
D an
ĠMark et
mod ifier
label Element
Or d
f w
Ġob st
Ġhealth care
ĠB all
ĠD NS
font s
custom er
Ġs q
con version
rie ve
Ġde si
ĠM achine
Ġprom ising
le in
Ġpreced ing
Ġs oph
oc aml
bas is
Ġme ets
v r
sp rintf
ĠAr gs
et ched
ch apter
OP ER
m ot
13 3
cover ed
ĠA h
Ġinher its
dim ensions
ĠM rs
Ġc ards
an iter
ĠA th
ĠF IX
Ġtemp or
ĠHT MLElement
Pl umb
To Array
faster xml
Ob serve
V P
c rc
Ġrest ored
20 3
ĠKenn edy
++ ];
Ġph on
, [
c ity
ĠStud y
æ Ĺ
hl js
ĠSys call
X aml
ĠPro tection
the w
ĠURL s
With in
iffer ential
constraint s
gtr sim
Ã ł
add le
ĠUn like
Ġexponent ially
get Path
16 6
ĠL HC
Qu eries
rog ate
Ġw p
ol is
C AL
IST ER
M en
he tic
li x
resize box
{ ``
ĠS NR
Ġtrans ient
Print ln
ĠO t
Ġoper and
Ġl ic
Ġtranslate X
Ġun f
): =
Ġover head
Q UE
ĠDec l
Ġgen etic
nob r
Ġd ots
ge m
67 8
Ġe cc
Ġer g
Ġemer ging
es ses
ign ite
ib lings
Gest ure
read able
Ġbl ur
xx x
Ġphys ically
ĠTr igger
Ġsem antics
ex e
View er
Co ordinate
INTERN AL
Ġsuff ering
min or
scroll Left
Rect angle
Ġcon front
ĠH ouston
pp le
O ps
y ard
Ġevalu ating
am ination
ĠHA VE
clean up
ĠI Enumerable
ĠCh airman
2 80
dec oder
ĠT erm
wit zer
Ġport s
T OP
Sort ed
ro utes
Ġin ser
}. $$
ĠU ri
Ġnovel s
Ġfin ance
Ġcom ma
el son
s ce
Ġd type
ah n
AR M
h base
'' .
ĠCont ract
. ')
Ġca usal
Ġv tk
Ġatt ributed
Ġsimple st
s ound
Ex ports
grad le
Ġb la
ĠM s
oc a
ĠL A
W ire
Co in
Ġsuggest ing
; ,
Ġart ificial
Call s
ĠMiss ouri
Ġattach ment
Ġdef ic
Ġobserv ing
h ad
Ġtal ent
Id le
f abric
scor lib
sp arse
pre pend
ĠPe ace
ĠR on
inter action
S ep
Ġold Value
Wh itespace
Ġaware ness
Ġy ards
Port s
ĠUn fortunately
Ap pe
mon ic
ĠTe le
Ca pt
ĠB us
inf late
Ġtown s
ĠW i
EN S
Ġposs ibilities
Ġr aces
Ġnon trivial
ĠR yan
other wise
C ACHE
ĠRE AD
ĠFrame work
S il
ĠM oscow
. ),
* .
Ġcancel led
ĠPhil ip
Ġfe es
ĠTe ch
Ġregular ity
Ġconstitut ional
Ġretire ment
Ġto wer
ĠAc cept
IC K
Exp ressions
ĠR ol
Ġs aving
Bound ary
Ġpre gn
Con v
Q T
k v
Ġsuper conduct
Ġcontinu ously
ĠMax imum
ub es
Ġhor se
Ġtoler ance
M X
Ġde generate
co ordinates
Ġpreserv es
Ġsole ly
ĠRep resents
Ġparticip ated
Pay ment
W ild
ĠU INT
di o
| ,
Ġcons ent
Ġtro uble
ĠW idget
Ġx s
Ġback wards
Ġs now
verb atim
map per
Condition al
Ġmaintain ing
is cal
Ġs and
G AN
Ġe lems
period ic
}$ ),
ĠCapt ain
N L
^* (\
Ġisot ropic
ĠR ot
Ġ) :
success ful
vet ica
Ġent reprene
ĠMay be
Ġinfer red
L atin
Ġc ited
19 36
Ġke V
Ġcontract s
Ġsit ting
Ġp ione
}_ +
AL LOC
ere f
n ie
Serial ize
ĠMo on
ĠAn aly
Vis it
Ġout flow
Ar ticle
ropol itan
ĠAdd itional
co verage
Ġsuff er
L ear
en ix
Ġin ert
14 1
E MPTY
Ġpublic ations
decl type
ENABLE D
E p
T ake
(/ ^
Transform er
Ġl ands
ĠI l
ĠPh ysics
he ets
reed y
tr ical
Ġma intenance
Ġappear ances
ĠTra it
Ġion ic
} '$
An ce
Neg ative
ew ise
Ġdirect ors
G map
Ġm ic
ml ink
list ed
Ġcon current
e igen
CLI ENT
P ixels
s lug
M art
et aphitpc
Ġm p
ĠT otal
ĠHarr is
M NRAS
Ġb undles
k u
Pr inter
Ġth orough
pe ek
ĠLin coln
ĠAn imation
hom a
g ro
As String
Ġver bose
19 38
Ġassert False
Ġ< ?
Ġexceed s
W M
Ġpre view
cor relation
Ġ Ã©
Ġ[ (
Ġexcit ing
ĠBit coin
witzer land
Ġde als
Ġsort ing
Ġpl ural
g as
ĠArray s
flu x
Ġcons ensus
Ġst y
T one
on er
Ġremark s
' }),
Ġa imed
Ed ges
Ġan ten
Ġ` .
Suppress Warnings
Ġw ake
Ġ\ '
n io
19 17
F ollow
Ġtrans it
Ġreput ation
r brace
ĠT ai
Ġcame l
tt ing
el m
Ġd d
ash i
pre d
de cess
Ġincorpor ated
ĠE r
Ga ussian
Ġthick ness
Ġ ÑĤ
Ġ# ##
Ġauthor ization
ĠEar ly
evalu ate
UNK NOWN
\ .
c od
y ield
ĠW E
Ġselect ors
we alth
elect ron
ang ers
ĠChrist ians
meta v
find er
Art ifact
par ame
Ð° Ð»
CA SE
Has Been
15 5
abil istic
Ġmode led
ĠPr inc
q a
Th ird
f ixture
Project s
19 34
Persistent Volume
Ġc rypt
++ ){
e u
Des pite
exp licit
PRE SS
Ġ( /
vis ited
libr aries
i ot
N ever
Ġ( .
Ġbro thers
}} _\
ĠJ ay
DE SC
match ing
l ater
In former
Ġun usual
ĠE T
ib li
Ġreason ing
Ġvisit ing
am an
og enerated
pro jection
âĢ ĭ
CT X
Ġserious ly
ĠN ick
list ing
00 4
ĠR PC
ĠC ONT
ĠIMP LIED
Ġis Object
ĠS oc
ĠS HA
Ar n
Ġdialog ue
S izes
l ists
(" -
R ay
ĠN P
For Key
ent ropy
ĠC lin
Ġlogarith mic
Ġjust ify
Ġw ing
ĠM obile
Ġcharacter ization
Ġx y
ĠP anel
ĠPack age
it on
Ġfrequ ent
Ġar rows
}{ $\
Ġresc ue
inst ant
Ġsur prise
Ġwonder ful
ãĤ Ĵ
ĠDet ermine
C tor
Ġ' --
ĠOn line
o ct
Ġful filled
G UI
ĠOrgan ization
Ġpay ments
Node List
ops is
ĠWrit es
atern ion
L ater
Ġg a
Pro f
Ġdev iations
un s
Ġconjug ate
T oo
**************** ********
ĉĉĉĉĉĉĉĉ ĉĉĉĉ
su it
W IDTH
S amp
Ġsqu ared
name spaces
Ġshe l
iff s
sh ot
Ġair port
Ġspeak er
Ġte ch
DI O
cat alog
Scal ing
Ġover ridden
Number Of
scale box
assert Raises
U IT
Ġsc oring
Ġd ram
Co ordinates
Ġadd itive
ST Y
Ġenc lo
ĠM ER
ĠB lob
FO UND
] ],
ĠS ample
ER Y
pro mpt
ro d
Ġentertain ment
ĠS ide
Le af
R W
Ġst ood
it elist
Ġun icode
Work flow
Ġhouse hold
V s
sess ment
** :
ic ut
ĠPalest inian
Ġm ilit
Ġre named
Ġas semb
ri k
vent ions
ĠHow ard
[ @
| {\
Ġdevelop ments
. &
IC S
H alf
ĠST AT
Ġblock Size
') {
19 14
ĠV M
struct ive
Ġn m
22 2
Ġbus y
R U
d ense
ro se
qu arter
Ġferm ion
RO WS
Ġcorrect ed
as List
Text View
]{ ./
Ġpat ches
INCL U
: ",
ed a
A ge
Ġ[' $
mo v
ĠExt ract
P FNGL
Over load
reg istration
ĠRE ST
ĠPo pe
ĠQu ant
ĠSm art
A ustral
method Name
Ġ( âĢľ
u y
ĠFact ory
Ġrecip ient
Ġco arse
p ure
ver ity
2 64
ses sed
UR POSE
Ġquark s
Ġd yn
Ġsingular ities
d type
2 32
te chn
Ġstructure d
! âĢĿ
Ġpro jections
Ġquant itative
ĠG ene
pro gra
val s
Ġx si
SC A
Ġp up
ĠP attern
Ġag rees
14 9
Ġreli ef
M ULT
Ġlog ged
Ed itable
Ġmultip licity
Ġon Error
b ian
Ġt one
Ġradi ative
quot ed
T CP
Ġsub class
Out er
Ġc oding
In side
"] :
Ġvol atile
progress ive
Ġbranch ing
ORM AL
Ġmod ifier
Ġg ro
inher ited
Ġillustr ates
N ING
Ñ Ħ
Ġd ial
re peated
ing e
Ġtext s
ar o
clus ively
Ġinter active
am m
Ġback ing
sc opy
)$ $
Ab ort
Ġtw isted
Ġgra ded
Contin ue
Ġinit With
FIN ISH
, </
St udio
ĠP sych
exp onent
D st
al one
Ġh ist
] "
Ġprevent s
Fin ish
Input s
ÑĢ Ð¸
($ _
comp leted
sp y
14 6
is i
Ġtra ding
st retch
In gress
z es
Per formance
Ġany more
V R
IAL IZ
re ng
ro uting
Ġg enu
big gl
Ġret Val
ĠM eta
Ġiniti ative
TP ROC
be havior
A MS
le ad
ĠE ss
De leted
Ġas ymmetry
lem an
Ġcut off
ĠP rom
CK ET
il i
ious ly
M icro
S us
Ġexp ose
Ġscr atch
Ġsurv ival
Ġob ey
Ġmin ority
}\, ,
Ġmount ed
ĠAuthor ity
Ġconstruct ing
}} }}
ĠS ql
Ġco ins
AT T
Ġ"- //
Ġreconstruct ed
el if
ĠTr ace
pres erve
ĠEx pr
Ġver b
st ellar
ĠInd ones
ĠR ound
ĠID s
G lob
cap s
Ġsl ave
ĠP ier
Evalu ation
Ġwe bs
usal em
Ġ*/ ,
ĠK evin
str ation
so ap
O Auth
ĠS el
l ane
Event Emitter
ĠPri or
cho ices
inject or
Ġnucle i
L IMIT
S ing
Ġf atal
Ġw el
%%%% %%%%
z c
w ich
aut ocomplete
enn y
ĠMer ge
C urrency
ht m
Ġs ake
Ġbr acket
im ity
Ð¾Ð ¼
Ġsurv ive
Ġserial ization
ĠM ountain
Ġprotocol s
ADD RESS
)) =
Diagnost ic
Ġ' ?
ĠS ant
colon eqq
I EEE
id ge
Ġmultip lic
//////////////////////////////////////////////////////////////// ////////
Ġident ifies
e V
ĠN ob
leg acy
Ġst em
ul i
pend icular
ĠSh ape
Ġasymptot ically
Ġapproxim ations
Ġelectric ity
Ġobtain s
EX TERN
ĠB at
Ġt itled
15 8
}$ :
Ġreg ulation
dist inct
Ġst ake
Ġexam ined
Ġkw args
key board
Ġdefin ite
================================ ================
Ġpre liminary
Ġcontinu ation
D ays
Ġelimin ate
"> {
co v
Ġviol ent
> *
Ġfoot er
G F
Ġf ires
D NS
in th
J ac
19 37
\\ [
) },\
ard o
15 7
S yn
Ġselect ing
ä¸ Ģ
en de
Coll ision
L atest
ĠI mages
omp son
Iter able
lu c
ĠRe ce
block quote
comp letion
Ġaccess key
d ra
s al
20 5
ymp h
m orph
ca iro
âĶ Ģ
Ġguid ance
ĠE P
re load
)} =\
S al
ne eds
big gr
AM D
Ġf ade
Ġme s
Ġintrodu ces
Ext ended
c ordova
Arch ive
}$ ~
ĠIn fo
14 2
Ġenc rypted
rib le
log Identifier
ke eper
-> ]
emit ter
Ġin qu
Ġtranslate Y
Ġref id
Ġin variants
Ġthought s
ĠU ART
Ġman agers
26 2
uer to
ow ed
Ġdistrict s
Iss ue
Ġcompens ation
Ġp ause
pro cessed
Ġgener ations
iv als
ĠA DD
ĠF ederation
;& #
ĠP E
Ex ceptions
ee ee
Ġaccomp any
18 8
ank a
Ġfor g
under brace
Ġto ugh
Ġrel ate
Fil ms
Ù Ī
ĠSt ill
. :
module Name
EQ UAL
ĠD ynamic
Ġstart up
Ã ª
lo ut
ĠObject s
Ġaccount ing
UM N
=- =-
ĠSwed en
ĠCon vention
Ġdiv isor
Ġpul led
ĠSub sc
pl orer
Ġconsider ations
Ġtr aces
stream ing
Ġequival ently
he art
ol ation
å Ľ
sp h
Ġch airman
ĠS ri
P aul
ĠFor ces
ab atic
set State
Connect ed
F old
Ġse aled
ĠL ipschitz
ob i
7 68
Ġ@ }
f ish
ÑĢ Ð°Ð
ĠMex ican
aw t
Par allel
Ġvari ational
ps is
Ġsear ches
Ġdise ases
ĠÐ ·
Ġt on
Ġfor cing
Ġattract ive
weight ed
ac ies
Ġlink ing
Ġp it
Ġro yal
Ġstop ping
ĠO ak
UB E
ĠHel p
Ġtick et
Ġsubstant ially
ĠSum mary
Ġget Default
ĠDet ect
ĠG URL
Ġin clusive
inter faces
ord inary
ĠĠĠĠ ĉ
Ġ( );
Head ing
N Log
Ġt y
v d
Ġpun ish
B and
ĠI o
oc al
ĠĠ ĉ
par er
'] [
ĠC ab
Encode d
Ġchampion ship
Ġdet ach
Ġbal anced
Ġcoinc ide
Ġprom otion
o ured
SUPP ORTED
F i
Leg acy
ene z
RA W
ĠMem bers
ĠRuntime Exception
lu etooth
Ġcompan ion
^{ {\
Ġgr ants
Un supported
Ġd f
Ġi e
ur istic
Ġocc as
Ġp sy
Min imum
\" {
ren a
ĠSu ccess
Ġs ons
class name
t oms
Ġis Function
am ents
get All
Ġdist ribute
T rim
full screen
ĠHot el
Ġread ily
ur ers
ĠS pect
Ġk ern
ĠSw ift
Ġsustain able
3 75
C amel
ĠCon tact
C s
Ġreal ization
ĠCo oper
offset Width
Ġpet ition
6 25
ĠPl aces
ĠComp lex
g d
Ġsummar ize
o les
IN TEGER
}= -
i ph
Ġpublish ing
or ce
lu ck
Ġ$ ('<
ĠSil ver
Ġp iano
MA KE
Ġt ied
Ġ'- '
Ġl icenses
ĠImp lement
Ġdetermin ant
L azy
Ġstr uck
Ġthe atre
Ġfail ing
Ġimpro ves
Dis covery
Ġaggreg ation
m or
ĠPer formance
PAR ATOR
D ynamically
Ver b
ups ilon
Ġbi ological
STRU CT
{ |\
Ġ âĢĻ
ĠSe ason
Ġ[ ].
min i
H ours
AB C
Ġexecut or
Ġ ../
M arch
Ġno isy
Y UI
ĠI ce
ĠO regon
M gr
u u
Ġp our
ĠCEL LP
Ġpreserv ing
w eg
ĠCELLP ADDING
Ġing re
to o
CO RE
Ġpres sed
Ġsh rink
ĠD ick
Ar c
b uffers
Ġpointer s
init With
st ree
ĠS witch
Ġ$\ |\
Fem to
)} }\
DE S
rg ba
ASS IGN
is Undefined
mode s
j an
}} )\
Ġsup ern
cell color
ĠMet adata
Ġsp rite
ific ant
IF Y
ĠCEL LSP
ĠCELLSP ACING
ĠC UR
Ġsome where
Compar er
ĠGree ce
N a
SE SSION
~ {\
D Y
V ED
back s
}{ !
Ġgr an
Throw able
Spec ific
? \
ĠField s
] _{\
pi res
gra duate
x l
ĠYou Tube
( (\
Ġs cheduling
Ġcont our
Ġaff airs
M ON
u dd
ool s
comp at
Ġgu ilty
ĠDet roit
Ġcontribut ing
Ġed ited
Ġv ortex
Ġ> ::
D ro
ĠT each
lev ance
Ġpair ing
def s
open ssl
ĠÐ ¼
ĠNe ed
f uel
Ġco res
Ġ}) ();
Ġgain s
invert ed
ĠExp ress
Ġs park
ĠP H
ĠSe lection
Ġch urches
Ġm appings
ĠD ra
Ġtermin ation
ĠG OO
Aggreg ation
ĠC art
ĠA SC
acc ordion
Ġbur ied
CT L
con cept
^{ *}
ĠT E
ĠF S
Err s
ĠP ract
Ġmeas urable
exp lo
dec ay
ĠT err
Ġnot ifications
ĠY ang
Ġj un
React or
Ġdifficult ies
ĠIN CL
Ġoption ally
Ag ain
no thing
C riteria
aut hentication
s lf
N or
ĠB L
19 33
Or Default
be am
ass ador
ĠD ream
Ġup coming
me th
Ġneutr inos
ĠComp are
I tal
Ġqu bits
Ġar ithmetic
6 55
Inf of
Ġa z
Ġgra in
Ġsaf ely
ma de
Ġinter vention
r h
ĠE ver
ost ream
ĠIm Gui
ĠMal ays
B IND
up on
) )$,
Ġh istogram
B ODY
jav ax
C amp
ĠReg ional
Ġ' =
Ġsch olars
}} },
Ġcrit ics
L and
und o
J NI
LE ASE
me ss
Ġstr len
! ");
ĠCalcul ate
issip pi
ĠR O
2 11
ĠEnter tainment
d ifference
z render
ĠS in
Ġhouse holds
Ġens uring
ĠK elly
Ġconvolution al
15 1
ĠAl abama
K ube
=" {
Ch apter
ĠSe veral
lan ta
). $
semb les
ĠB urn
alt Color
get ter
ust er
Ġob s
Ġra ising
/ ',
Ġre versed
ĠC artesian
Ġmer ging
ĠQue ens
e eq
db Info
west ern
se ason
}) ^{-
Ġ"\ "
+ {\
B uffers
re nd
Ġestablish ing
l ishes
Ġarbitr arily
back up
integr ation
g ression
lu ent
Po jo
ĠK a
Add resses
Ġvoc al
ĠAut om
Ġtrunc ated
B K
($ (
i ac
HasBeen Set
pos al
co ord
Ġrot ational
Ġsix th
v ens
Ġ æ
Ġed iting
- $\
Ġjud ges
Ġhyp ers
ay er
ĠA k
Opt im
l attice
} ")
job s
ri ev
ĠEx ternal
Ġ($ (
ĠFl ash
XX X
Ġacqu ire
in el
Ġl hs
ĠA gr
Ġtrans mitted
Ġf iring
AN Y
leg es
ĠAnth ony
}) }{
bar a
Ġfriend ly
Ġrobust ness
19 35
Ġdel ays
Ġinj ured
author ized
Ġ` {
ĠW as
Cap abilities
nof rame
:" -
re tt
Inter faces
] '
build ing
Ġp ra
ĠM as
s af
Ġengine er
GB T
Ġround s
p iece
u de
Ġcomplet eness
Ġ gesture
ather ine
Ĺ ãģ
ĠRepublic ans
Ġsent ences
Ġb ipart
g ls
st ock
Ġse d
Ġaccompan ied
Â ©
8 75
ĠC y
Ġencour aged
erunner DB
is Null
iv ation
EX P
ĠB orel
Ġphot ometric
}, $
get Node
ynchron ously
R P
Ġwor ry
Ġro oms
PRE C
ich let
Ġeng ines
condition al
Brit ish
re vision
ĠP ref
Ġmod erate
Full Year
ĠG W
e en
Ġl d
( $\
s nap
ĠE mer
Ġinnov ative
Ġf ought
ĠRail way
ĠB ishop
âĢ¦ âĢ¦
Ġfactor ization
D AT
k ub
SR C
add on
Ġcere mony
Ġre serve
Ġanom aly
B UT
Ġgradu ally
ĠLI ABILITY
Ġcheck sum
Ġg ar
te es
Ġmin us
HAS H
ah oo
ĠC it
LAB LE
Ġintegr ating
Ġp b
V iol
Ġfl av
ĠPh D
ĠLiber al
Stream s
ester day
Å Ł
Ġ/ ></
Qu ote
Ġdevelop er
ain s
)$ }
Respon der
ĠJ O
$ ]
, }
Ex act
anch ise
Ġt il
Ġflex ible
b v
Ĥ ¬
Ĩ Ĵ
ĠC ru
TR ACE
Ġapprox imated
ĠR FC
Ġchild hood
Ġpay ing
ĠC M
G al
s ight
ĠRe place
rece iver
Ġint ense
Ġcontribut ors
ĠChar acter
E ast
Ġcharacter ize
ĠPolit ical
ĠIn ner
Ġcommun icate
make box
div ider
Ġfill ing
ĠH ave
onom ous
i ator
ĠZ ero
Al ready
ak h
+ }
ĠM UST
ED TLS
Ġrot ating
Ġhom ology
Ġch rom
Ġthere in
ĠM eg
Ġf printf
Ġdisc lo
' }(
off ice
amb ig
Ġcritic ism
Ġmotiv ation
sh im
ĠN ASA
cre ation
Ġdeploy ed
PE G
P ag
Ġmay or
Start ing
Relations hip
le et
m irror
Ġcon scious
ĠS S
au er
Ġsol ver
}) ^{\
g ue
ĠN ation
Ġprofession als
Ġsil ent
b et
f ive
av al
ĠKent ucky
Ġjuris diction
c art
Ġcipher text
ĠN UM
Ġb ot
Ġp f
Ġaccept ance
act ing
Ġaver aging
ĠExpect ed
:"- "`
ĠG ard
Ġsp y
ĠPro gress
Ġg rey
Ġreal m
ĠT uple
IT NESS
o z
Ġmoment a
cor r
ĠS n
Ġredu nd
Seg ments
Ġcomp lain
Ġresult Arr
ut enant
Ġcon form
Ġp id
ss h
20 6
loy d
us able
Con nections
å ¯
Ġcoun sel
15 4
ĠCh ap
ĠT en
ĠH ug
oc c
ĠN um
Ġarg c
Invalid ArgumentException
ath ers
Ġweak er
Ġnot iced
Linked Library
Ġs la
Ġl ying
prov ides
Type Of
equ ivalent
Ġrecommend ations
Hash Code
Dynamically LinkedLibrary
ac les
Ã «
Col lect
Ġcar rier
Definition s
^^ ^^
ĠPh ys
ĠC zech
sc opes
ĠWork s
read Only
Ġtra p
Ġcurrent s
Match ers
ch r
ĠType Script
m ysql
u art
v dash
Equ ation
dec imal
Ġoverride s
_ '
ber ry
" \
Pl us
la homa
Ġcolle agues
access or
sw er
weight s
Ġtra il
Ġinvestig ations
s low
ĠB run
Ġintegr ate
Ġepoch s
ĠThe ory
ĠL ower
rece ive
Pr incipal
F ore
}$ &
s ink
Ġsh utdown
Ġcomp ound
Ġre interpret
ĠE dition
v n
ĠN FL
base line
Ġvis its
drag gable
A lex
ĠUn ivers
Ġtw ist
force ment
ĠJer usalem
Ġaccording ly
ĠP rep
Ġinvolve ment
re ction
he m
n orth
Ġcom bo
Al location
Ġc t
_{ |
S ING
Ġmodul o
ik h
Ġfacilit ate
ĠH ad
can not
ĠMi ami
ä¸ Ń
ustr y
k an
scal ing
Ġbelief s
Ġe V
J uly
def in
is Stopped
raise box
idel ity
Ġj ury
ĠPar ser
Ġh ub
ĠP URPOSE
Ġ[ _
sc ar
' ",
Ġear liest
Ġname spaces
Ġsu icide
Form ats
ĠSh are
Ġimplicit ly
Ġpe ers
Ġinter fer
Ġdist inction
30 1
mem Item
Ġp ed
per form
19 29
Ġoccur ring
Ġpropos als
P en
ĠLeg isl
break ing
ĠMuslim s
Ġre jection
CH ANT
Ex isting
type Name
ĠLay er
)$ )
av ascript
Ġcar ries
ĠWalk er
Ġtri angles
Ġvari ed
DB LP
ĠRed ist
ĠA bra
Ġel igible
atri ate
[ <
ĠP atch
Ġtri angular
un set
Cell s
Aggreg ate
Ġg allery
G lyph
Ġon click
ol ly
ĠNot ification
Ġb rown
ĠS witzerland
Pre vent
V B
im ir
ĠTurk ish
ĠCast le
ke e
Ġscroll ing
MEM ORY
ĉĉĉ ĠĠĠ
15 3
Computed Style
ard own
ĠNode List
ĠS PE
Ġemphas is
un used
M ime
ĠFre der
lim in
Ġwin ners
n x
ĠMar ia
ĠP aper
ur face
Ġfru it
ĠSD SS
ĠO ffset
am on
Ġin complete
Ġbl ind
ĠPart ners
Ġsens ors
Ġ$ ('
ĠSar ah
ĠC MS
Ġcomp os
R oll
if etime
23 4
Ġindust ries
Ġtag Name
Ġreg imes
ĠPlan ck
="@ +
> -
ĠM ouse
se mi
") ).
ĠSp irit
Fin ite
ob serv
Ã§ Ã£o
Prob lem
ĠG T
Com bo
vent ory
ĠK ind
dispatch er
es cap
Ġgen re
O s
Analy zer
Ġrestaur ant
Ġ" !
ĠS eq
Ġext ensively
itut ional
ot er
ĠK er
B a
"> "
Ġy aml
Un ion
m ong
Ġspecial ized
m otion
Ġ===== ===
Ġto m
C ategories
16 7
version ed
' ^
loy ee
Ġplan es
feed back
15 6
dis p
as is
end um
(' %
s ap
Ġrac ial
), \\
render ing
n as
ĠM un
ben ch
ĠTe V
ta h
ME DI
y u
il ateral
col group
Ġsus cept
Ġdut ies
Ġi NdEx
Print f
00 8
ĠL arge
Ġev olved
Ġrare ly
ĠLa ure
A verage
Ġcom ic
as io
Ġquant ization
Value Type
l ighter
At omic
Ġ" ."
term inal
sc ience
19 10
ct ic
ĠG PU
Ġfound ing
Ġgr ace
CA ST
ĠN ichol
L ie
CALL TYPE
Ġapp ended
F G
Ġund o
ac cel
ĠW A
Ġsupp orters
Ġliter ary
> )</
t oday
Ġfol k
Ġ= &
io let
Mod ify
dot ted
ĠD al
J ames
ĠR ole
Ġwe ar
Ġwidth s
ĠProb lem
Ġabs ent
Ġget Name
Ġ) \
Ġt t
ĠPART IC
ĠClear ly
ĠG h
ĠA ud
ĠL en
ĠCol on
Ġc rc
ĠDe an
ĠCau chy
create Class
Ġblock ing
Ġh ockey
)- (
Ġattack ed
Acknow ledge
C LE
H PP
M Q
w hel
X Object
z illa
st ation
Ġali ases
$ }\
alloc ate
ĠHash Set
Ġpre d
End ian
n osis
Te am
Ã¼ r
ĠFin ance
ĠYear s
Ġsing ing
P aste
Ġre written
ĠInter rupt
e asing
r ating
ĠW eyl
W ISE
). \
ĠAl bert
ĠMan chester
Ġre tained
Ġac oustic
Ġdirect ories
gener ation
ĠStud ent
r ans
Min utes
sv c
set Data
Rem ark
ĠShort cuts
Ġr b
al most
Ġpart ly
c riteria
e se
Gener ation
Ġ nd
Requ ires
Media Element
ĠB arn
lic al
Ġsp ins
get Mock
ĠUp dates
Py thon
ĠS ab
s outh
coun ters
ĠWith in
Ġp ow
ass umption
resh olds
Ġbeaut y
ĠIn clude
ain ter
ĠReg iment
Ġconj unction
ann on
ĠU P
i u
al ph
Pol it
Ġkern els
Work Item
Ġmagn itudes
nov ation
Ġt ie
cess ion
Ġdwar f
ĠTh anks
i op
å Ģ
Ġh ierarchical
; "><
A W
-- \
: {
Ï Ģ
track er
Ġuniqu eness
ĠC ape
lic ate
Ġsure ly
Un ary
Ġde lim
Ġconst rain
Ġadvan tages
Ġtrans c
Ġturbul ence
OPT ION
l ceil
AR GS
az el
Ġconnect ivity
> ");
so lete
Ġvari eties
Ġther apy
M W
ĠF reedom
erv ation
Ġv ital
qu ire
Ġ% #
Ġ[ ]);
Ġauthor ized
Ġad m
d ns
align ment
ĠA z
Ġv ibr
(" ",
E u
p ot
cre ase
la unch
å °
iv a
og g
ĠCent ury
ĠP ed
ĠF E
Ġdef endant
C OR
starts With
( ...
State Exception
Ġgraph ic
az a
Ġpurs ue
Ġpack ed
Mess aging
Ġfac et
Ġro of
Fall back
ĠC lick
ess ions
Ġqu otes
+ =
Ġw s
ĠV in
loc ations
ha us
] |
im als
ĠR CC
% =
Ġneighb oring
D N
ĠFig s
ĠG PIO
ST AR
spec s
IP S
AC L
Ġden omin
] }$
Ġinsert ion
R ew
Ġ} _{
ĠS ame
Ġrel ay
Get Value
m cite
ĠD un
level s
register ed
A RE
ins ide
Ġb ol
ĠN aN
ĠL ength
b eq
} ());
ĠC os
SY NC
DE V
ĠPhilipp ines
ACT IVE
Ġarr anged
tern oon
Ġc ler
J une
T W
il og
ir ds
Co ins
L u
Ġlo ose
Ġsubst itute
) ");
es a
fall back
ĠAust in
B V
AS K
G s
Bu ilt
ĠHistor ical
of ill
Ġpoet ry
S ock
ĠIn finity
Ġref erring
Ġly rics
W ho
he im
Ph ot
equ ilibrium
ric ulum
f ather
[] }
Ġproceed ings
Ġcapt ures
pro f
Ġins ights
| }{\
et ype
ĠRem ote
ig m
ab lished
18 7
ĠMar ine
r ceil
ĠT LS
Ġal cohol
V tbl
Ġview ing
od b
Ġj unction
ĠEnvironment al
Ġab b
ĠSwed ish
se a
Key Down
"> &#
Ġorgan isation
ĠDocument ation
C op
Ġres ort
g m
ll a
Ġsh ader
Ġdesc riptions
ĠH ans
Ġoper a
ĠAg reement
Ġas ide
bo y
Ġred shifts
Ġclick ed
Jan uary
Ġo xygen
im m
De ad
ĠComp uter
Ref er
T abs
e ign
for ge
Ġdesign er
Ġarchitect ures
Ġw atched
Ġpref erences
AUT O
L ex
ĠPolit ics
AP PL
ect l
ĠD allas
}} ^\
\, $
Ġmon op
x it
Ġhas her
Ġmy th
Ġcut ting
Ġsub groups
ĠCo ulomb
Ġelect rical
}}{ (
en ium
Ġutil ize
re ports
im ap
Ġprepar ing
is p
lect ric
W ar
ĠS ix
ĠSe pt
Ġm outh
ĠD ave
Ġcelebr ated
Ġ} ]);
ĠG ordon
Ġpublish er
ĠPrem ier
. ][]{
Sk in
ĠT D
ÐµÐ½ Ð¸
Ġexperiment ally
ĠD ur
ag ain
ab lish
ĠC am
n f
ĠUS ART
m ate
inter sect
SER VICE
Ġst amp
15 00
DO UBLE
Ġm il
Ġqu ota
Ġste el
Ġh i
per m
Ġimport s
Aug ust
Ġg ang
ĠB os
ex change
Ġload s
uzz y
r hs
Ġhost name
get Logger
outer Height
le c
err no
Sc oped
ĠD ak
Ġext rap
ĠZ one
ĠInter est
Ġimp ressive
L em
Ġsuggest ions
æĺ ¯
or acle
ĠL em
ĠTw ig
ĠP ear
algorithm ic
ĠE ither
ĠMel bourne
an not
Ġpr inter
Âł Âł
q r
Ġf p
en kins
00 7
CHANT ABILITY
ATTR IB
move To
Ġport ions
Ġenhance ment
d ynamics
17 8
Ġc aching
Ġo prot
ĠB U
or ry
Ġw aters
iv ia
de mn
Ġconf usion
') ),
Ġad missible
ĠDirect ory
Ġ... ,
Ġcon ce
ĠF ried
| <
ĠS tage
23 5
i ri
log ical
Ġrecurs ion
ap ing
Ro bert
z an
Ġreview ed
Ġtou ches
Ġnomin ated
Ġc rop
ij k
ĠCre ated
ĠPARTIC ULAR
inc ial
Ġeng agement
Ġappoint ment
T OT
^* ,
Ġo cean
has Next
ĠBr and
Ġcoher ence
LE X
{ #
Ġhor ror
ĠR aj
con sumer
E t
)\ |_{
dat ab
im ore
17 2
Ġpain ter
net t
Ġsome how
Text Field
Ġrank s
cred it
' });
ĠP as
ĠR C
ast s
ob servable
ĠTemp le
Ġexpert ise
A pril
/ :
}\ )
Ġagric ultural
7 50
ĠPerson al
ĠAn ne
45 6
Triv ia
_{\ {
Ġarrange ment
A wait
get Item
t pl
ail ing
Ġt ensors
border ed
struct ures
Ġmunic ipality
ĠJ am
ĠLeg end
Ġh opes
Ġab road
Ġsur pri
ĠRo y
bo ss
az e
Ġb orrow
om ing
ir s
Ġbro ader
Ġs igma
li um
Ġmethod ology
ĠDep end
Pref erences
{- }
j amin
ss ibly
ĠMar shall
}\, .
Ġperturb ative
ĠV eg
Ġinj uries
>() </
Ġscroll bar
ĠO cc
N OS
M or
n umbers
ĠRo ber
vis ions
ĠST ATE
ĠF ame
d ims
AL IGN
or able
Ġreg ulatory
Ġtr ick
Bl ank
w arded
Ġper ipheral
it ure
Ġconver ter
ĠF ather
font Size
Ġaccomp lish
ĠAss umption
Ġlaw yers
Ġ` '
(( *
Sim ilar
Ġt ropical
ĠN umer
Ġg rap
Web GL
xx xx
u da
Ġres ume
Ġcont rollers
Ref s
M appings
Ġv a
}: \
ĠDE F
Ġr t
Ġsh ard
cor por
PHP Excel
c ms
y outube
in finite
' />
prov ided
Ġse cre
tri p
win ning
arc sec
ĠA BC
the ore
op les
Ġb lu
class ical
ĠPub lished
ĠInd ust
D uplicate
Ġp ix
Ġthermod ynamic
Pi pe
ĠOper ations
Ġt uning
as pect
$ ~\
Con clusions
Ġobject ives
Ġhead quarters
ĠP AT
ĠF riend
A rm
s ix
pod s
å Į
HE LP
asc ii
rec v
Ste ps
ĠThe ore
ĠChrist opher
M ichael
ĠR F
2 12
ĠIgn ore
)$ ;
Ġaut ogenerated
Option Widget
v ary
ĠT S
ĠAd vanced
ĠVari able
Res erved
att ices
H a
}{ -
Ġsat ur
ĠF BI
+- +-
Ġmorph isms
Ġt ies
15 9
ĠAm endment
ĠPHP Excel
len ium
Ġc txt
Ġh at
Ġlong itudinal
Ġconsider ably
ĠAd ams
ĠState ment
Ġsymp toms
ĠSe attle
ĠHer itage
in tr
q t
Ġco gn
ent ities
ĠAl liance
Ġdocument ed
h ill
Ġconstant ly
ĠBe at
flag ged
Ġa fore
Ġag ed
Ġperson ality
Ġdemocr atic
l av
Tr ansp
amil ies
Ġimp er
Ġre nd
lic ial
30 3
ĠÐ ±
$ ^{\
g antt
ro ut
Ġsecret ary
e lection
Ġst ating
ĠW IN
f loating
Ġg aps
D H
Ġout going
Produ cer
Ġsac r
er ver
Ġd c
der ived
TRAN S
ĠB ah
ĠQue ue
Ġrecon c
T ou
ĠSen ator
b ank
c ourse
Ġdecode d
Res p
SE PARATOR
Person al
Ġcounter part
}) +
Ġh ate
math ring
ev olution
Ġslow er
ĠAss istant
Ġt ill
Ġs ibling
19 32
P et
field Layout
Part y
ĠCom ments
Ġo w
Ġp x
> ("
me tal
Loc ations
hand les
ĠMc G
ĠLine ar
Ġthreat s
ST ACK
No thing
:: _
ĠM ovie
orient ed
EN UM
60 1
Ġfem in
c orn
Th umbnail
definition s
C Y
å º
B ootstrap
ĠT X
m ates
data Type
J oint
ĠC ategory
CHAN GE
Ġex clusively
Ġ(! _
Ġintegr ity
ï ¿
ĠD omin
rupted Exception
Q R
sh utdown
ĠCh ern
ä» ¶
ĠThrow able
Und o
M ot
Ġent ers
Ġgun s
D K
igh ters
Qu ick
G PU
cccc cc
Ġnucle us
Ġcal ibr
Ġtick s
Ġ$ ('.
add Listener
struct ured
pl aces
Node Type
G LOBAL
Ġdif fe
DI F
Ġ ])
Ġro ads
Ġbin aries
I J
sort able
Order ed
ĠM organ
Ġimmigr ants
ps frag
bind ings
ĠN an
Ġemer ged
di ents
re ens
ass ociated
a ac
Ġw elfare
ĠS ED
ĠOpen SSL
XML Schema
Ġso il
Ġmod ulation
IG EN
Ġcr icket
j ump
k ill
ron ze
ft en
Ġpair wise
Ġinit iated
Ġwrit able
g pu
C NN
pub lished
Ġvulner able
Ġtrust ed
Node Name
ĠL as
b ubble
on error
ĠB ug
ract ive
it i
order By
Ġappend ix
Reject ed
Ġhard er
un wrap
own ed
ĠMiss issippi
ĠS cale
ĠIn dependent
result Arr
amer as
g id
Ġdram atic
ĠMER CHANTABILITY
open ed
Ġb ump
ter y
thread s
ĠW riter
c rit
ĠA bs
fore ign
ĠLaw rence
Ġinter views
ol k
Rec ent
19 15
D onald
Ġm as
il iation
ĠF ive
ST D
KEY WORD
4 80
E F
Ġc x
Ġg ates
Ġper pendicular
Ġjournal ists
\ @
ĠP uerto
al gebras
Ġminim izing
go al
qu is
Ġsk ill
Ent ities
ra ctions
hook rightarrow
ĠF ore
19 5
ĠAl an
Ġinject ive
ĠX Element
w m
Ġen abling
b roadcast
ĠY outh
; ",
Ġ ions
Ġreserv oir
ĠD VD
chi at
sp rite
min imal
Ġrep lica
6666 66
c am
Ġdis appoint
Ġcle ared
Clean up
ax es
Ġsp okes
Ġdo ctors
Character Offset
Runtime Exception
T om
18 2
Render ed
elect ric
IN ER
host s
greg ation
æ ī
Ġsur rounded
ĠG uid
ĠW oman
Ġact ively
Ġpopular ity
d word
Ġneighbour hood
j p
ST ER
Oct ober
b ias
Ġsu cc
16 1
ĠS afe
Prop el
Ġform ulated
outer Width
16 2
< >(
h ub
19 22
Ġartifact s
at ially
ĠR M
Enc ryption
ag le
integr al
Ðµ Ð»
ĠCON FIG
cla imer
Ġhighlight s
CUR RENT
ob served
urric ane
is an
Ø ¯
sub script
Ġbos ons
Ġ// ---
ĠL ag
ĠSub ject
N M
Ignore Case
P ID
Ġ// ===
Ġsp iral
ĠF ro
hen e
web gl
Ġbackground s
spect rum
Inter pol
em en
Ġher itage
ĠSTDMETHOD CALLTYPE
Ġbo at
ĠArg uments
f are
n k
Descript ors
)) ^
inv ocation
\% ,
P b
Ġclu mp
ac ian
Ġdr um
Assert ions
pattern s
S en
Ġc d
ĠS imp
Ġdiagnost ics
{ }\
Ġad s
Ġintegra ble
ĠE M
Ġmot ions
rim inal
Ġf irms
COM PI
g allery
res ume
19 28
Ġthe ater
ĠCh air
ethe less
" ][
co uld
ĠM ission
19 31
R ename
H ot
re dis
ig o
uplic ates
Ġexplo it
ĠMc K
Ġimpact s
ĠH H
Ġes lint
ãĥ ³
Ġs ans
izz le
(" _
enc er
With Context
ĠGL double
MB OL
ĠWal ter
Ġ@ @
ĠO Auth
Offset s
++ ++
Temp lates
imp lies
Ġstr at
Ġachie ving
iss ance
awa ii
Job s
or o
Ġsk etch
f und
CON TA
ĠAt lanta
Me V
Ġsy nd
Ġbre ath
; ',
ĠR oot
Ġaut omorphism
Ġdis pose
im ony
S af
Ġneglect ed
H istogram
Ġpl aint
Ġbit map
ĠJ Query
Ġamong st
Care er
F requency
Sp in
Ġan th
k ed
over eign
aw esome
33 5
flex box
m alloc
Ġpl enty
CLA RE
' ></
} ')
W as
st ride
len e
M utation
b io
Cor ollary
IS ING
36 5
Ġqual itative
list item
Ġcoal ition
Ġexist ed
e ase
ĠF arm
ui Gmap
ge ms
Ġcl oned
Ġad mission
Ġsynt hesis
P V
19 21
tain ing
ch ard
ĠCh amber
Ġda emon
ĠMat hemat
Ġdata Type
rid ges
m illi
Dig its
F lex
Ġpar ish
ĠPy Object
Ġown s
@{ }}
Sh utdown
sw iper
Ġc umulative
get C
pm od
mouse up
pare n
ĠAuth ors
ĠT I
ĠP haser
Ġviol ations
ĠCommon wealth
Prov iders
Ġc ry
Pos itive
th a
Ġinvert ible
Up grade
Ġcons ume
ĠOk lahoma
y our
bit coin
Aff inity
S olution
B an
ĠH I
J ack
S py
ce q
geq slant
ĠB esides
ke ley
Ġpop ulate
ĠK han
in ces
cos ity
, &
ĠM ut
ĠAd S
Ġcitiz en
Second ary
Rest art
Ġinfin itely
ph on
SA FE
di jit
ï¿ ½
Ð¾ ÑĤ
pref erred
ĠH IV
Ġemphas ize
Ġpaint ings
Ġsh im
ur ious
Ðº Ð°
ĠRes erve
Ġf ract
ĠRetrie ve
ĠÂ ·
ĠHigh way
scal ed
ĠConnect icut
ain ed
SS ING
Ġlat ency
Ġnorm s
Ġd Ã©
arn ess
Ġiter able
ĠOb server
Ġcompet e
( #
TR IG
Dis cussion
ĠW R
Ġas ks
Sw ap
z f
sp el
ĠCal endar
Ġtrack er
Ġfarm ers
d al
Drop down
sup ers
Ġj shint
è ¦
ĠPer form
qu eries
Buffer ed
ĠHand ler
Ġskip ped
R ing
Ġf lying
ĠS equence
Ġg ateway
+ /
prov iders
ancell ation
sat z
is Number
ĠF ITNESS
Ġsequ el
product s
Ġnot ably
ĉĉĉ Ġ
ĠJ ason
Par sing
Or Empty
o a
op ing
mon ths
al ion
Ġprogress ive
:: -
Ġpar abolic
+ |\
GL int
random Number
I AN
ĠF red
T ap
ĠG ulf
ft p
Ġcon sequently
ular ity
dist ributed
N umbers
Ġem otion
ĠI con
B ubble
pro port
F LOW
)) }
p assed
dim en
ĠB R
ĠF M
et cd
Ġglu on
Comp act
Ġindex Of
AD ER
Rec omm
ĠS ex
IP v
ĠC over
Ġde liber
sw ipe
ĠU UID
Call Check
19 27
ad joint
Ġstd out
ĠSc roll
tick s
ĠS lo
Ġtw elve
se gments
Ġcheck er
Ġmodul us
Ġbr ackets
ĠT ypes
Ġtrans lations
ĠConst ants
Ġqu ad
24 5
Ġport folio
M ix
built in
Ġcontrovers ial
I ll
Event Target
ĠUp per
Ġshort cut
S pect
Ġstreng then
pay ment
ta ken
19 16
hat tan
ĠIn f
Ġcompet ing
Full Name
Ġsupp lies
assembly data
ĠIss ue
ĠU pon
class ification
Ġl abour
Ä ħ
Ġmode lling
Ġch amber
mid t
Ðº Ð¸
z ation
ĠC AN
ĠD omain
urch ase
Ġoscill ator
Ġpro mp
ĠDoug las
Ġwer en
Ġentr ance
C ycle
ĠU rb
Ġval ued
ĠA CT
sp inner
g rey
re por
Ġover se
ĠNor way
Ġspl its
set Property
Ġassert ions
alt imore
id i
ä¸ ª
ĠV ec
ant on
ĠB log
ĠH u
Ġs ick
ĠB ag
*} {\
Rest ore
Der ived
Ġ ic
comp oser
Ġlabor atory
Ġs nap
Ġref inement
append ix
] ){
Ġrespon ded
L aw
ĠS plit
}= -\
Ġen de
ĠN ature
A ES
Ġcol lapsed
g auge
ph ony
ĠPriv acy
over rightarrow
Ġcol ored
ĠNot Implemented
Ġencode URIComponent
Ġre name
([ ^
ĠCh anges
W P
Ġsymbol ic
ĠSpec ify
Ġp icker
Fac ade
ĠS CB
Log ical
ĠMay or
Ġover whel
ĠL ab
connect or
ĠLouis iana
){ $
Ð¾ Ð½
Det ach
ĠS ocket
Ġis lands
O m
Ġel abor
che ll
ĠPRO VID
Ð ¶
ĠB att
Ġabund ances
Ġcon gr
æ Į
19 6
Ġag enda
rece ived
Scroll bar
Re search
ĠInt elligence
Ã ½
l iter
Ġmut able
Ġ! $
Ġst ere
count s
., ][]{
ĠNot es
Ġst arring
Ġdis contin
ĠĠĠĠĠĠĠĠĠĠĠĠĠĠĠĠĠĠĠĠĠĠĠĠĠĠĠĠĠĠĠĠ ĠĠĠĠĠĠĠĠĠĠĠĠĠĠĠĠĠ
ĠL imited
ext ent
Ġfem ales
ĠS ect
). </
Ġsp oken
Ġdist ant
upload s
Ġnumber Of
Ġinfe ction
re mes
Ġr val
Ġout lined
Ġb le
F K
ul sion
Ġk it
16 3
remove Attr
Ġtermin ated
in cess
j j
Ġt um
ĠPro xy
ĠB uck
ĠO PT
Con current
Ġ/ .
Ġ; ;
Draw able
samp ling
Ġwork space
An imate
invalid Params
ĠBru ce
C ritical
ĠSt udio
ĠStud ents
Ġatmo spheric
tr ation
Table Name
l ift
Ġe ject
Foot er
Ġabort ion
Ġn pm
================ ==
co vers
ĠUn supported
Ġspan ning
J ap
Ġhol iday
Ġst ick
Ġoscill ation
. \,
Ġend l
READ Y
ĠDeta ils
ĠLeg al
ĠK now
Ġphot ometry
ĠEl se
ĠArch ive
Ġinstrument al
Ġaband oned
oo led
c rypt
N Y
)) :
ITER ATION
dispatch Event
m ine
ĠM icro
Char Code
Ġprem ier
Ġf rozen
enumer able
1 200
Ġre ven
Ġsp ont
ck o
Tree Node
ĠOper ator
ans wer
Ġevolution ary
ĠCirc uit
ĠS yn
Clo sing
ĠBr anch
c g
rec ursive
Ġgr ateful
) _\
ch ip
REG ISTER
Ġme ters
b h
m ce
Ġv endor
ret ty
Ġbeh ave
ĠMon th
Ġaffect ing
Ġfre ely
ex perimental
pack ed
b os
ÃŃ a
Ġin version
dd ot
alloc ator
Condition s
let ic
. {
ĠB ootstrap
Ġcont rolling
Ġclo ses
ĠFor um
Ġ$ ("#
ĠA LL
mis sed
S ports
Ġconst itute
Ġc ot
ĠName d
wik imedi
Ġv it
m ul
ri el
Ġdro ps
Ġz ones
yy yy
Ġw ed
Ġparticip ating
pe st
ĠK it
Ġph p
.\ ]
ITE M
ob servers
Z ERO
tr ust
18 5
Ġfix ing
Ġin cent
Ġj azz
W I
ĠT CP
set ter
ĠSaf ety
Ġb attery
Ġconst itution
ĠT ar
ĠN ap
fuel ux
ĠC ancer
ĠMed al
Se ek
ĠSchool s
EDIT OR
Ġblock ed
Ġres idence
ĠFIX ME
the ir
du les
unt il
R CC
m art
Ġres ident
Config s
ĠRes pon
Ġgoogle api
ol ine
Ġac id
triangle q
position s
Ġimport ed
Ġaf ternoon
Ġ$ ^
File Info
Ġfr anchise
ogene ity
Ġstri king
Ġprom oting
ĠAR M
ow s
ĠComm unications
QU ERY
us a
ĠDe puty
Ġill ness
apid ata
op eng
ĠN A
Ġtravel ing
Ġtalk ed
Ġnon atomic
ĠTrans itional
Ġbon ds
) ";
ĠD river
19 24
mark up
Pref erred
Sche duled
ĠRo om
ĠComp ile
Ġinfra red
net ty
Att ached
Ġwire Type
W ater
Ġ\ %
mat ics
t ion
Ġcoup les
E sc
Ġexcit ations
gra ms
30 2
Ġwire less
Ġd ress
Ġprint ing
urren ces
ĠM ir
dep loyment
Writ ten
>> >
j peg
n oc
ĠN elson
Ġins pection
CLO SE
Ġsoph istic
b ash
sm ash
P ur
Ġsupp ression
Ġopin ions
Ġtra ins
t u
P AT
ĠC ensus
ĠB etween
c ation
bul k
Ġconver ts
Ġestim ating
Ġde mo
Ġiter ative
top ology
Ġfle et
C art
ig g
luc ene
ST OP
ate ur
ĠRef lect
S eptember
g al
Ġsh orthand
ĠMod al
ĠShort cut
( ?
Ġinv asion
dat atype
T s
ĠOP EN
ĠK y
ex istence
Ġsub div
w b
aggreg ate
Ġwarr ant
Ġsubst itution
ĠAn notation
Ġbr ane
Ġincorpor ate
ĠDO CUMENT
ĠAust ria
Ã ¦
Ġgroup ed
b rowse
comb ine
Ġdimension less
L ifecycle
ĠAnd re
Ed iting
Ġperson ally
Ġade quate
Ance stor
h ind
Ġf est
S a
ĠN ev
am ar
od ic
initial izer
** */
A ware
55 55
base Url
ma gn
DI ST
ĠI de
ag s
it is
Ġr ival
Ġal phabet
ival ence
ĠRef s
OB J
ump y
ĠG il
}} -\
Ġgeneral ize
re name
ĠP ho
out il
Ð½ Ð¾
p lots
Ġc up
f ixtures
Ġnot ations
S IG
Ġco variant
ĠAnn ual
set Disposable
ĠT rib
end points
ĠBan ach
event Type
Lat Lng
con nections
Sm art
O VER
offset Height
ĠR ab
set Name
ĠU lt
pur ple
Ġcon fer
Ġwh ilst
art icles
ĠR and
Ġplan ar
Ġll vm
' ><
Ġin ev
Ġn ick
I r
tr uth
ra ppers
Ġcounter parts
i our
| }\
ĠArch ives
ra ge
Ġmanip ulation
SCHE MA
r ational
ĠD ialog
ĠExecut ion
Ġwide spread
ĠD ie
Track s
0000000 1
< '
z A
ĠS ud
separ ated
, $$
ĠC MB
n ate
Ġ( $.
ĠM ail
o op
19 12
Ġdis aster
function al
Ġ" \\
Ġassert NotNull
Ġre load
ul s
19 25
red raw
flagged Element
ĠF er
Ġkn ock
Ġfore ground
Ġm ales
el lo
ĠU TC
Pol l
ĠCoun ter
H op
ig ade
ell s
Ġthir ty
ĠM ars
property Name
Ġprodu cers
ĠCON ST
Ġ' ').
Ġent hus
Ġun e
ĠV iol
Integr ation
pers istent
3 64
> {{
Ġcomp lementary
END ING
Ġor ange
ĠJ enn
L B
hes ized
ĠPri mary
iz en
lear n
ob e
Ġguide lines
b ach
Ġc ube
Red uce
Ġre lying
Ġle tting
ĠS ac
ad ler
ĠTh ank
amp l
Ġover lapping
Ġm i
p airs
is PlainObject
Ġliter ally
Ġis Valid
WINDO W
A ML
Ġsp ans
Ġlegisl ative
ĠW ard
ĠMult iple
V IC
ĠRepresent atives
ĠSQL ITE
ĠG NU
Ġcomplex es
ad os
ir q
Ġdef end
ĠF ill
Ġscreen ing
N ORMAL
Ġfore ver
Per f
Ġde form
Ġcent r
Ġactiv ate
ĠG ray
Ġ" #{
Ġindu ce
ans ions
s ized
17 1
level and
xy z
æ ł
Gr ant
u in
get User
G old
P IN
Ġres cal
Ġformer ly
Ġh ired
Ġpl astic
ĠB ry
Ġprob abilistic
Ġa di
Ġgen es
AS N
S amples
the o
G Hz
Ġrep air
Ġten ant
ĠWik ipedia
ose x
From Range
id ually
.\ ,\
Ġw id
F req
Ġ- (
Ġbeg un
Ġvirt ually
OutOf Range
v k
Ġjud icial
Ġpropag ate
igh test
ugh ters
Ġfra ctions
Ġe mitter
RE L
De cember
writ able
Unexpected EOF
$\ %
acc um
mouse over
Ġf lood
ĠB acon
Char Field
ĠI ron
ĠR ules
ip ient
class CallCheck
Cred ential
glob als
Ġnon negative
} --\
U ART
ens en
determ ined
Ġtemp le
unit test
@ -
Ġecc entric
interpol ate
In variant
la desh
Ġwork flow
ĠC ow
dition al
ĠH old
up port
ĠV I
Ġmodule Name
prop Name
ĠMot or
ch anging
tr ically
c xx
ĠArm en
Ġweek ly
Ġsus pended
ç Ľ
ĠTh ompson
Ġcampaign s
Ġturbul ent
Time line
ĉ ĠĠĠĠĠĠĠĠĠĠĠĠĠ
ĠG arden
ĠE dd
N ovember
fl atten
ac cent
Ġreason ably
! }
coup led
temp ts
f ancy
Test er
}: =\
Ġpre domin
mouse move
output s
ĠEd it
Ġconcentr ated
exp ansion
ĠPit ts
Ġre levance
un ication
Ġstat istic
ĠBack bone
ĠTrans fer
ĠBase ball
Ġvill ages
Î ·
pl ural
| $.
} ";
an other
reg ions
ĠAl ways
So ft
C hen
ĠCh ile
iv an
sh aped
Ð½ Ñĭ
dash board
up al
Ġbuffer ed
Ġattract ed
28 8
Ġte lescope
V elocity
t iming
in ator
Ġestim ators
ant ine
ĠCon tains
B roadcast
Ġafore mentioned
at z
20 7
Ġinflu ential
Mode s
ĠPre vent
So ftware
Hand les
Ġth umb
m om
ine q
Ġwor ship
Ġr acing
Ġtest Case
Open GL
ãģ Ĺãģ
Ġwalk s
Ġpo les
http Response
! )
Ġt ank
work ing
ap olis
Ġb ij
ĠP ast
att rib
Ġconclude s
ĠCred it
H on
M acro
ĠSch olar
Full Screen
} "/>
Rout es
Ġord inal
Ġv ort
}\ |_{
Argument NullException
id ad
prob ability
s x
in ating
------------ ---
ĠMat thew
Ġc aut
ĠG ab
* -
FL USH
File Widget
Ġread able
Ġphotograph s
he ld
Ġd amping
Ġf t
RI X
ĠK u
ali ases
ĠC atch
Re peated
recogn ized
R en
Ġt ract
Ġro se
Display Name
// #
Ġle ts
Inter preter
Tw ig
ch t
Err UnexpectedEOF
NO TE
U tf
i ates
Ġut ter
Ġinsp iration
i ang
ĠUn known
Dependency Injection
document ation
Ġd up
Ġscatter ed
Ġb uckets
Ġd owntown
00 6
sq cup
ist ance
Ro les
we ets
ĠVAL UE
Ġassoci ations
h ours
u is
qu er
AT FORM
In finity
Ġdissip ation
ĠR y
Ph ysical
T B
ij ing
Ġs f
ent e
Ġeduc ated
fit ting
w g
de couple
ĠArab ia
+ ,
c rop
' }}
ĠC V
ĠC old
W il
ĠS park
Ġcont raction
erv ing
Ġre ign
pt ical
Ġactiv ists
querySelector All
ĠAtt ach
19 4
dig it
Ġb unch
") ),
REF ER
nos cript
ĠMB EDTLS
Ġiniti atives
ĠConst raint
; ;
ĠH ubble
ĠN ik
weg ian
Res ume
Ġmain stream
ta king
al ink
In her
Ġ{? }
Ġtra verse
Ġgather ed
G reater
cc a
}) }{\
A cl
Ter ms
M EN
c oc
ĠTh er
Ġcont ributes
27 5
sw ift
Ġrecommend ation
Send Fields
ĠB art
LE T
ĠModel s
Field Name
Ġresid ential
Decor ator
External Task
i ative
iv o
Ġco in
× ķ
H o
Ġprison ers
L ittle
est yle
Ġen orm
Sec ure
sc oped
comp osition
C andidate
De ath
× Ļ
De leg
Ġspeak ers
Ġt rem
] []
mo ther
Register ed
Ġun lock
Ġlight s
ĠRus sell
Ġcompar ator
G W
B on
ĠSE LECT
Ġrefuge es
æ ŀ
ĠRiemann ian
ĠS can
ĠJ osh
Serial ized
Ġme l
Ġsat uration
à ¥
ĠINCL UDING
Ġra ises
C as
SH IFT
Ġthreat ened
enez uel
Ch o
ĉĉ ĠĠĠĠĠĠĠ
Ø ª
RE SET
comp ression
^* _{
M ic
ĠC ancellationToken
g ender
ill ance
ĠG len
Ġpro tests
Y ES
|\ ,
ĠGL boolean
}), \
embed ded
Ġinn oc
N EXT
il ers
Ġ ist
ĠIn fan
reng th
f ab
ĠLe ave
ĠTre as
f red
Americ a
ul ators
Ġcap ac
Ġexpl oring
field Name
Ġb s
ĠF un
ĠFig ures
Ġm im
Ġhe aded
Ġcla zz
ExternalTask Pojo
Ġneur ons
h ou
19 13
desc ribed
oper ators
ĠWork er
Ġo x
ĠL GBT
Ġaddress ing
ĠAct iv
Ġterror ist
Ġs ym
Ġadd EventListener
file path
() (
Ġatt itude
Ġign oring
Ġf id
17 7
ĠOr thodox
Ġsurv ived
Ord inal
N an
Ð Ł
mk dir
ĠIran ian
Work s
Ã ´
ic ians
Ġcomput ers
Append ix
ĠPROVID ED
F rench
on na
st ored
ĠE lection
Work ing
Can onical
Ġwavelength s
ĠW right
dis crete
Ġretrie val
setAttribute NS
Ġsitu ated
ĠE uro
W F
background Color
Embed ded
ĠW it
Ch an
@ {\
. %
B LE
c amp
ro v
Ġcap s
ĠVill age
g reatest
ens itivity
json p
ĠS ync
Ġv o
am ine
19 23
66 6
ĠSw iss
, âĢĻ
z Index
Ġn k
Ġloc ate
'' $
Ġdatabase s
ĠC IA
Ġmap per
rect angle
work space
Ġmaxim ize
Ġlocal Storage
TYPE S
Ġrenormal ization
' ')
ĠWe ak
DO CUMENT
ĠRead Only
r ising
">( </
Ġstreng ths
assign ment
ĠJon athan
32 5
ath on
Ġcyl inder
Ġanal yst
Ġinstant iate
ffect ed
har monic
FI RST
Ġaccompany ing
Ġb reed
ĠT ouch
ĠAl bum
ĠS EC
Ġm ild
ag u
it zer
Web Socket
ĠS olar
trans lated
Ġpri m
ĠG Hz
D EN
ĠAl b
b readcrumb
Ġ[ $
ĠMar ion
C b
Ġc pu
Ġw x
Ġto x
Ä Ļ
M otion
Ġqu art
uc lear
ĠM M
Willi am
Ġinflu ences
look ahead
Pers ist
Ġult imate
E A
Ġun necessary
List er
ĠS IGN
}} /
Web Kit
Hash Set
disc ussion
Ġjoint ly
Ġk o
w al
ĠK ra
ĠĠĠĠĠĠĠĠ ĠĊ
Ġtra its
ance led
ig s
Ġart istic
STY LE
Ġev olve
plus plus
Decl ared
PDF JS
ue se
V V
Ġdee med
K B
ĠF O
graph ic
CI AL
ĠChristian ity
ĠSam uel
ic ators
}\ |\
Acc eler
Ġanomal ous
datab ind
add er
++ ,
ĠOr leans
P airs
Ġ" ]
Ġtest Get
Ġsee ks
Channel s
X T
17 4
Ġion ization
in te
cont ract
ential ly
Ph il
ĠComp lete
Ġsuccess ive
Rep resentation
ĠWar ren
]{ $
ro ots
Ġmand atory
3 30
ĠH ope
ang a
Ġfaith ful
ĠCanvas Graphics
ĠFish er
Ġbir ds
unt u
ry p
Ġdiscrep ancy
A ir
Ġsp atially
en berg
(" ");
Ġs me
Call able
ĠB OTTOM
ĠPass word
av atar
PRO CESS
Ġadv ances
Ġaccum ulator
Ġw ine
Ġcor ollary
ĠCl imate
S un
ve led
aw ait
ĠA pi
ĠGe ometry
Ġmusic ian
: .
Ġun w
Ġprior i
ĠL iving
Ġdoll ar
Ġw o
Type Symbol
Ġtax pay
Document ation
Ġ/ =
Ġpass phrase
m ill
; %
a is
b k
Ġcontribut or
enta ho
h m
=" .
up grade
pro cedure
Ġtermin ate
H i
H our
Ġinitial izer
A dapt
Ġt orsion
Ġcomp ares
Ġcomm ut
Ġfeel ings
AL PHA
Ġsub tle
18 9
ĠBy tes
control led
P LAY
W ave
stat istics
Ġactiv ated
GLAPI ENTRY
L d
ear ly
mod ify
D LL
D eg
br ane
ta stic
enn ial
Sem antic
ce led
ĠPo ssible
ĠAUT H
æľ ī
request ed
ref ptr
om al
() "
Ġhuman ity
Ġsys call
19 26
ĠCOPY RIGHT
wikimedi aui
Ġ" @
Ġimportant ly
Access ibility
SY STEM
Ġillustr ation
ĠFrank lin
Ġexam ination
Ġagric ulture
Ġorgan isations
Ġde prec
Ġf li
Ġf iscal
fe e
Ġdep ression
high charts
Ġcomput es
ĠO wn
const rained
Ġmagnet ization
) ](
S to
Pro tos
^* $.
Ġparent Node
")) )
Ġpropag ator
ĠId entity
Ġf o
ĠPh ase
fold ing
Ð» Ð¸
W ay
ul ous
Type Meta
SE L
year s
Ġproceed s
< -
Ġt act
ĠW ol
ĠAp pro
ICAgICAg ICAgICAg
ĠA PP
ĠM ong
ĠE W
G I
w ant
Pop ulated
Ġf ed
ac iÃ³n
19 3
Type Error
Ġpri ze
single ton
ro les
urs ing
Pre parer
^+ (
ĠPer iod
;\;\ ;\;\
lp Vtbl
'' '
ic z
ther mal
log ue
Enc rypt
Ġâ ĨĴ
ĠOr chestra
Ġcolon ial
ĠRog er
H am
Ġ< >
D WORD
l hs
w x
r anges
Ġt et
ob tained
Field Location
Ġspectro scopic
S pl
Ġas ymmetric
- %
k r
)} ]
ynam ical
ĠCar ter
un ning
ĠTok yo
Ġtheore ms
BUT TON
Comp osition
Ġ\ )
ak ov
Ġbary on
ĠL anka
Ġlo b
Ġpass engers
FT ER
Ġcelebr ate
ĠTe levision
Bl end
ad ers
mask FromRange
Ġ( &
all Errs
Ġpredict s
Ġexha ust
ĠE s
ĠG ot
ĠAl ber
andid ates
ST OR
then Return
17 9
Or Update
Ġinv oking
40 3
W heel
ĠSH ALL
/ ?
Pres ident
ĠGir l
ĠMove ment
Ġinhab it
G overn
p ixels
in burgh
ĠEX PRESS
ĠDAMAGE S
x Axis
Ġch ip
Ġm oon
end l
Ġsudden ly
0 75
Account s
th y
real m
R oman
Ġret ro
ĠComm ons
w r
M IX
ãĥ Ī
Ident ifiers
li us
Ġide als
Ġisol ate
M sk
ik es
Ġsingle ton
Cor rect
M u
op lay
Tr ust
Ġutil ized
Ġper pet
Î »
ĠV o
ĠAng el
Ġhard ly
Ġcontact s
d ll
ĠL INE
Ġreson ances
p ension
ĠF UN
Ġ) (
indicator Element
ĠUn iversal
ĠP in
ĠChar lie
*/ ;
ass y
Char acters
T ail
Ġcan celed
17 3
ĠCon figure
Ġwidget s
Ġ* **
W ashington
ped ia
D lg
Ġthink s
ĠDes cript
Ġalter ed
y ll
ĠĠĠĠĠĠĠĠĠĠĠĠĠ Ċ
Ġcode c
El m
A O
Ġcor rupt
May be
New Error
H ol
ĠL uther
_ "
convert ed
F X
Stream ing
analy tics
Ġbro ker
spe ction
B usiness
con e
sp ired
TH REE
ĠArk ansas
Ġstay ed
E nergy
Ġmut ation
s ensitive
Ġwe aring
Par sed
Inter action
&& &&
Ġbur den
pe z
Ġconduct ivity
Ġvalid ated
Ġsem igroup
select FileWidget
and atory
dat atable
Ġtab index
Ġp ane
Ġh urt
Ġmonot onic
Ġrel ates
åľ ¨
Ġgra mmar
Ġsuperv ised
ĠC u
yn olds
Ġarch ae
ĠDr ive
l ens
us ually
ĠB ear
ĠF ine
Ġfootball er
23 7
on Change
st rain
RE PL
Ġmass less
ee per
Ġlik es
ĠT IME
Ġle pton
] >
b w
er ase
}\ {
] <
C AT
SUPP ORT
oth y
W omen
key words
check mark
Sh im
pre ced
some thing
Ġt idal
clear Timeout
Ġun clear
Res olved
Ġwind s
Ġamb ig
graph s
or ne
Ġre min
dis connect
ĠH aving
Ġcont ours
Ġpre pend
lot te
Token Type
c ube
ĠAv ailable
Ġaccess or
ĠDak ota
R ol
j shint
Ġz lib
on z
Ġcy ber
Ġcros sed
clu sters
ĠWe bsite
Date Format
Ġa u
Out line
No Error
rain ian
Ġge o
Ġsubsc riber
V ERT
c ue
B orn
b abel
im ag
raw ler
im uth
Ġve get
an imated
Ġappropri ately
insert ion
ĠOverride s
Ġdecl ined
Ġcred its
Ġ ub
ĠY O
Ġc ameras
Ġoutper forms
Ġabb rev
D ummy
Ġoff ensive
B ur
20 9
ĠGra ham
Ġcapt ain
] ';
Json Serializer
Ġ' :'
P resentation
å ĩ
Ġcardinal ity
b ast
ĠAnton io
}^{ *
= */
ĠLL C
Ġorig ins
ĠR ather
P ic
Ġcall able
Ġlo yal
Ch at
Ġmolec ule
Ġcon served
}/ {
\\\\\\\\\\\\\\\\\\\\\\\\\\\\\\\\\\\\\\\\\\\\\\\\\\\\\\\\\\\\\\\\ \\\\\\\\\\\\\\\\\\\\\\\\\\\\\\\\\\\\\\\\\\\\\\\\\\\\\\\\\\\\\\\\
Ġoccasion ally
e o
[] ):
Ġass ass
fav icon
H uman
ce se
form ats
Ġequ ity
({ '
Ġaccomp lished
b reve
Ġbr illi
ĠPer haps
I l
inst alled
Ġanaly zing
Pri or
Ġk pc
ĠP red
short cut
H ierarchy
Ġin hib
}$ };
" '
Ġl ane
get OwnProperty
}^{ -\
Ġexplo sion
A w
s ymmetry
& ,
Element Type
m outh
M ongo
select All
Dev Div
Ġjq Lite
Pro vision
ĠQue bec
Ġco ffee
T urn
ĠR ank
Mouse Down
on ically
Ġsepar able
Ġi prot
c z
t ips
Ġt p
taint y
Ġs lides
ç ½
jo urnal
ĠS quad
ĠP T
du ction
net s
ĠTime out
Ġb acter
Thread s
re start
Ġget Value
ĠSpe aker
ĠGener ates
Ġs lots
Re verse
Ġcombin atorial
18 4
topic data
Autom ation
Ġste ep
Ġmob ility
Ġlegit imate
Ġb om
ĠH ills
}$ \\
Ġre draw
EX PECT
Pre pare
as ide
Command Line
Ġdecre ased
index es
Ġcr ack
) ]{
Ġrecord ings
ĉĉĉ čĊ
p aste
de ad
sub Nav
up dates
25 7
ĠP i
Ġdis miss
Ġfile path
Ġdifferent iable
ĠW ang
G RE
cook ies
ĠI CU
if ur
- }
Ġm ismatch
ĠTest Case
ĠPet ers
25 8
ĠCH AR
st y
has is
st ars
An onymous
Ġpolar ized
ĠAss ociate
ĠInd ustry
Url s
Ġde letion
Ġl ake
Ġswit ched
Ġ ~~
ĠH om
Ġph arm
ĠArgent ina
S equ
Ġ& -
Is Valid
Ġswe ep
f h
c plusplus
ĠM R
æ İ
us hes
ĠM other
Ġra mp
ĠWork ing
p entaho
Ex perimental
yn man
yc lo
19 1
enc rypt
start Time
Read able
)+ (
f ork
ograph er
Ġval ley
less ly
ĠN ic
ĠNaz i
Lock ed
ill ery
Ġf reed
amilton ian
Ġdesi rable
C rypto
ĠM os
S leep
Ġun emp
Ġret val
Ġcollect ing
Ġindic ation
ĠY an
^* $,
Ġpass enger
Te X
ĠD ifferent
ĠS V
Ġray s
Ġ icons
ĠCol lect
Volume s
ĠInfan try
Ġdown stream
Count s
ellig ent
List Options
ĠSign ature
S am
w y
Ġ= ================
Ġdiscuss ing
h anded
IM ARY
r ust
Ġra m
ac a
ĠE mail
nu cle
ĠG lob
18 00
ĠR ub
lo ys
As pect
let ics
Ġb ail
j stree
en sed
conver gence
Ġb alls
Ġque ues
Ġbe an
Ġex ported
last IndexOf
Ġb link
RAN GE
Ġannounce ment
Ġcons umed
mag netic
ĠAT TR
Ġb io
C u
] ,\
Ġnav igate
ĠP ic
select able
Ġmultip lier
âĶĢ âĶĢ
Q Q
ĠB altimore
Get s
iv ially
Ġfield Name
fill Color
Ġsm oothing
Ġfiles ystem
Of Type
19 11
alth ough
Ġfluctu ation
Ġanisot ropy
) }^{
Co verage
iter able
Ġlog o
ĠDir ichlet
* {\
Connection Interface
Ð¾Ð ³
ctu ation
COMM AND
t in
Pol icies
ĠB ab
Ġenc rypt
]] ></
ro oms
Ġu a
Ġflex ibility
tes y
execut or
Ġsumm ation
NOS CRIPT
Ġprom ised
Tra it
ĠJ uan
... "
Ġconv icted
ache l
ĠTh ings
Ġth umbnail
Ġmonth ly
Ġbe ach
ĠMan hattan
J ar
ĠB ull
)}\ \
) }}{
Ġreson ant
Comb ining
F raction
BIN ARY
2 90
k b
se lenium
id ency
D ao
ur ities
v ue
Un less
P icture
Ġunder go
me try
Ch oose
SE Q
Form atting
Ġindiv idually
Ġsurpri sed
imp licit
ĠH unt
Ġob sc
pers istence
un i
y ii
Ġa pert
ĠS r
*/ )
Ġche mistry
á »
Ġevery body
ol en
ĠP ap
Ġnegot iations
ĠPl ant
look ing
Ġdisput e
Ġ^ =
h on
Ġimp rison
an te
ib bean
Ġmain tains
Dem o
, %
A ud
per missions
sur ance
] ):
Pl ane
d ale
Ġc us
ĠP D
Wait For
M igration
ke V
Ġab st
umb le
F lat
g ulp
); \
Cor ner
i Äĩ
arr Item
Ġj ail
Ġconnect s
}}( {\
An not
Ġdue Time
ben chmark
Ġweap on
j sp
Ġpri mal
mark ed
Ġafter wards
final ize
subsc riptions
ĠProp Types
Ġre ar
Ġmem ories
Ġemploy er
Ġdetect ing
Byte Buffer
OPT IONS
W ang
Ġob l
M us
S dk
n z
ĠR L
In verse
Ġacknowled ges
lu sters
Ġclaim ing
V m
s ong
ia o
M i
Ġ$( {\
Ġhypot heses
RE SOURCE
ĠUp dated
appro pri
-> {
Ġtag ged
d ip
ĠN AT
Ġmathemat ics
ĠWh ich
ĠCo q
ĠEcon omics
X hr
ĠF al
friend ly
ĠMean while
Ġs weet
ĠR ico
lo de
ĠĠĠĠĠĠĠĠĠĠĠĠĠĠĠĠĠĠĠĠĠĠĠĠĠĠĠĠĠĠĠĠ ĠĠĠĠĠĠĠĠĠĠĠĠĠĠĠĠĠĠ
ĠWrit ing
m usic
m ont
ĠSy rian
( |\
D ifferent
Ġprote ins
it ious
iss a
Ġjust ified
Cre ating
P ause
ĠB roadcast
ĠC ould
ä¸ į
p aused
ĠFile s
w br
ĠU tah
track s
Mod ifiers
ĠC atal
ĠMark er
28 57
Comp ression
Ġpush ing
ãĤ ĭ
2 33
ve gi
s ymfony
my Form
Ġsuccess or
Ġalleg ations
Ġr hy
un checked
Ġuncer tain
Ġnot ions
ll ll
Ġc ust
ĠS ep
sc enario
Ġle pt
ĠH awaii
Ġmut ex
h ive
ĠPar am
Sp atial
et on
ac ht
comm utative
port let
Act ual
del a
F re
part icular
Appe arance
mm y
ĠE li
c wd
Ġcare t
Ġfun ny
Ġsurv iv
AH OO
D TO
in ated
Equ ality
Ġviol ated
ot ive
ĠHand les
ĠSt ra
re search
Ġsub stance
)^{ -\
ĠSte wart
- ">
Ġconvent ions
Ġcheck point
- |
=\ ,
R B
Ġ` "
Check s
le tt
Ġvis cosity
Ġlik ed
Ġrob ots
Ġt uples
ĠT aking
pect ives
Ġpul ses
ĠW a
Ġhistor ian
te enth
ĠM T
Ġincredi ble
Ġdis connected
ĠTest ing
Ġsophistic ated
% '
ne e
Det ection
LA ST
datas ource
rec urse
E G
ĠA U
I OS
ad vanced
Ġcommand er
H F
}=\ {
M ATH
ass o
mal ink
Start Time
ĠPHP Unit
ad van
start ing
Ġsl ash
Ġterror ism
_* (
sc reens
Log s
Ġpoor ly
Ġtest imony
5 50
Ġdo ors
ordin ator
ongs To
Ġmon omial
Ġcomplet ing
ĠMur ray
Ġmyst ery
ĠF ab
ĠStat istics
e ither
B ay
o ad
ĠU rl
hav iour
Ġcurrent Time
ĠW HE
Image View
x path
Ġdrag ging
Ġun ified
ĠC LI
ĠSelect or
g res
get Content
udi os
Ġper ception
Ġper ceived
Form er
ĠMalays ia
ĠB aker
Ġrep lication
ĠPerm ission
Ġsub mission
par ity
Ġanalog ue
oscal ing
ĠRe member
Inst ant
ĠCon sumer
é ĩ
Th umb
Ġexp ired
") {
tag on
B oost
k top
s ynchron
WR AP
IB LE
ĠD T
n w
y i
Pro be
âĢĿ )
Ġben ch
o ided
ou ver
Ġl ua
R oom
Ġconf ined
Dis p
Client Rect
ĠCe metery
Interop Services
ĠE rn
Ġstart Time
Ġla ugh
co e
greatest Difference
CONNE CT
C la
Qual ity
s uc
Ġli ability
H aving
Ġinvest ments
Ġinvestig ating
j boss
l inary
m igr
up iter
Ġb one
es lint
side d
ch astic
data Item
ĠJo in
ĠDis c
Ġcons isted
22 1
re pr
ĠC I
ĠG B
ĠTra vel
Br ush
Ġst oring
ãĤ ¹
Ġt rib
Ġvir us
Ġtime scale
Ġactiv ist
Ġwe ird
null able
resource Name
ch ing
Ġpass ive
CD M
c andidate
ĠP ad
18 6
ĠFe atures
2 14
ĠL ooks
Ġw rest
Ġdepart ure
Ġanalog y
M oment
ĠB orn
Ù Ĭ
Ġnull able
inc ar
ĠCommission er
Ġt all
oc omm
ĠAR ISING
w ould
get Date
Ġ* );
Ġtempor arily
bit map
Ġre b
vis itor
Return Type
Image Data
an ies
Dro pped
{ -\
ĠM is
In Progress
ĠP RE
List View
PR INT
ĠL imit
RE ND
Ġsur jective
Ġto w
ĠR S
ĠBen jamin
4 32
sub title
contain ing
h is
ĠHop f
CODE S
ĠH ell
R SA
di ctionary
B ob
Ġcompla int
ĠA CTION
ang led
ĠGe o
)) ]
ĠBelg ium
th ink
Ġpos session
Buffer Size
Te ch
strict Equal
Ne ed
T aking
\ ).
Le ading
Ġautom ated
ĠCamp aign
)} +
Chunk s
T oler
)( (
mbr ane
van ishing
Ġep ide
Ġse eds
int roduction
Ġal arm
Ġexplain ing
Ġhosp itals
ĠLI ABLE
v ity
Ġoff line
: $
Ð° Ðº
` ](
25 4
Ġf oss
ĠJ oint
jo urn
T mp
get Int
ĠAct ivity
Ġin aug
ak ers
SE QU
ĠAd vent
zh ang
ĠD ance
CF G
cent ric
Ed m
ĠK ings
Ġvic inity
Ġcl im
Trans lator
Ġcompar er
bi ased
MO D
Access Token
Ġelimin ated
' %
P ART
b at
L y
ĠC B
ĠIndones ia
key up
â Ĩ
Re jection
e con
ic ulture
DD A
Ġcyl ind
ut ility
Ġ ì
ĠRob inson
re ma
Ġtra pped
Ġconnect or
ĠMet ro
/ );
no align
ed ition
ĠS creen
){ $\
Ġposition ed
first row
user Id
Ġchar ity
track ing
ĠO scar
sc roller
Pub lished
Ġfor um
" ]);
Ġdis connect
Ġde leting
Ġgenu ine
Ġ} ];
Ġal ien
MP LE
Ġs overeign
st ead
ur ring
remove All
Ġp k
Ġisol ation
check er
Foreign Key
C ERT
ĠN ON
hen ce
18 90
Sc enario
Ġkey words
Ġel der
PRI V
ĠNiger ia
G ate
Ġ` --
l ators
ĠG row
Ġro unded
J ul
me ans
Ġkine matic
Ġn ut
im o
ä¸ º
F Sharp
ink owski
E s
Ġpre decess
Ġatt ending
E r
ĠBang ladesh
p el
CL R
form atted
Ġforest s
Ġshor test
ĠT imer
IST S
Clear ly
b ility
ĠAtt ributes
Ġt une
ĠB es
Ġlabel led
Ġacade m
s child
Ġwebs ites
m ir
Ä Ł
Ġw et
serial ization
j b
"> \
NS URL
Ġpredict ive
Ġann ually
ĠSpe ed
Phys Rev
ĠWHE THER
Ġconf ident
m arg
Se veral
Qu ad
Ġgra d
xs lt
Ġconfirm ation
tz mann
18 1
Ġne ck
Ġpsych ological
100 0000
Ġp ec
Ġs pars
Ġconvert ing
Ġc able
ĠT alk
ĠE GL
vis or
el n
insert ed
ĠJun ior
ĠTown ship
[' @
ĠPDF JS
l ace
di ctions
Ġra p
ser r
Ġcomb ines
ĠBar on
ul iar
APPL ICATION
ad j
be it
Ġc er
ĠSome times
Ġthe sis
Ġs lices
âĢĵ âĢĵ
Ġweb kit
s With
Ġis o
assert That
Ġh ill
ak ai
st icky
Ġguest s
Ġle verage
Ġmethod Name
. }.
Ġpl acing
anc ies
en queue
ĠAnd y
Ġdecl arations
sig Bytes
æĸ ĩ
è¦ ģ
Ø§ ÙĦ
re ts
Ġon Click
str ated
lim sup
Ġstack ed
Ġmetal lic
tick et
Ġcommission ed
ĠOTHER WISE
al ong
clo sing
ĠR io
alt ies
tract or
Ġman ages
AA A
Ġdam aged
Ġdefect s
E AR
ĠR N
pro g
Inter ceptor
release s
Ġfin ishing
rel ativistic
ĠCo hen
organ ization
ĠMont real
ĠM AC
Ġpre g
= ="
dd d
& )
w i
Dr ive
ĠL D
ĠRequ ire
ĠGit Hub
A mb
ĠDest roy
v nd
ĠDr ug
b ly
ng Model
ĠGa uss
Ġnewsp apers
ĠE IGEN
Ġselect s
as ant
x p
ĠRe ader
H K
22 7
ĠStr ategy
Sel enium
EX TPROC
"> ,</
re pe
Ġn ortheast
ĠS FR
Ġqu it
Rec ently
att ack
s ites
ĠC ultural
Ġex terior
Ġcomp ose
Ġsol ves
filter text
Ġj u
Effect s
cos ystem
ym ce
ibli ography
Ġel apsed
b j
Ġw heat
ĠH W
Ġtra v
^* )
ĠNav al
ĠBow l
ĠDep recated
Ġfl att
Ġaudi ences
ĠPublish ing
] =\
^+ _
3 45
] /*.
p seudo
ert s
" })
ne ver
Ali ases
Ġpar king
ĠTo gether
dev ices
mock ito
Scan ner
An swer
Ġminim ization
Ġ// -->
ron es
get Child
in ja
x F
path name
Valid ity
Ġt ube
ĠG reater
SO L
ĠCommon JS
ĠG ary
act ory
Ġel s
ĠK os
ĠPIX I
ĠD ol
Ġap artment
Tex Coord
> ')
ĠT EXT
19 08
mod ern
H istor
ut t
ĠE mit
ĠPro to
Sw ift
] ')
Ob serv
Ġdeep copy
ĠMor ris
ĠPro vider
int rodu
_+ $
22 6
urs ion
Book mark
' |
Ġr ugby
ack now
"> #
account s
Ġt ex
Ġp as
Ġ$ %
def group
Ġb es
ĠY uk
o val
Ġt iles
tabular newline
P recision
ĠF el
Inject or
' }{
ĠAg ent
ĠS port
Ġanaly tically
m apped
_* $
inter section
\ ",
ĠBe ck
G uest
Ġro l
Ġaccess ing
DOM Node
auth ors
Ġquant ify
Ġassign ments
Ġle ver
ome d
Ġw ounded
ort on
ĠB uff
bo lev
Ġad option
ĠC rime
s izes
id ity
Ġexp ense
Ġdiv isions
ĠA str
tr iggers
CC CC
: _
Que stion
ĠG alaxy
Th anks
E W
H old
Ġlaw suit
ĠPr ice
æ ³
] -
u ant
medi an
' _{\
ĠT ORT
ĠD og
Ġam endment
Ġparticip ant
or ption
Ġglob als
- )
dr ive
Ġtack le
Ġhigh way
Visual Studio
ĠBrook lyn
Ġh ang
_ <
min utes
ĠSh adow
C MS
ve ction
ĠJ os
Ġexecut able
Ñ ī
Ġuse Capture
Ġreg ret
Ġsynchron ization
lov ak
ĠW ind
ãģ «
Ġpresc ribed
n at
tr an
ĠInd ians
Ġn b
ul o
} ()
res erved
in Array
US ART
iter ation
Ġless ons
SQL ITE
Ġarrange ments
Ġins ufficient
Ġspeak s
Ġav oided
und erscore
ix on
table Name
Place ment
Ġs urre
om on
E lastic
ag g
fac et
um ar
ir l
Ġcre ator
Ġaccum ulated
ĠEv ans
sp atial
Ġsec ular
Ge orge
Ġjav ascript
f ine
ĠD iff
Ġacknowled ged
Ġprox imity
Ġ" ,"
yst ate
ĠLe ader
ĠHigh er
utr ition
Error Message
_* \
Walk er
ĠCard inal
Ġor b
ĠAn na
SH ORT
Ġng Model
Ġcros ses
3 40
get Selection
Ġextra ordinary
D u
Ġcol ours
Ġapprec iate
pro toc
Ġint ra
), $
uck er
chain able
Ġenumer ation
m os
ĠD ise
DE SCRIPT
Al g
small matrix
duc ing
H u
Ġmultip ly
ĠScient ific
abul ary
ic ious
Ġth resholds
loc ated
Ġchar ter
g f
St ock
big cap
Ġcol leges
ĠWeb Kit
free ze
ĠC leveland
ak o
ĠFor ward
Ġh am
Ġcount ies
Pre ttify
S ocial
Ġl t
T ur
um m
ĠConserv ative
An n
Ġconstruct ors
b ay
n ice
Ġpaint ed
I cons
Ġdef ence
h alo
\, (
ĠNe umann
Ġp ace
un ge
en z
am o
ĠP ick
SECON DS
Ġref ined
Ġtransp arency
Ġess ay
h ls
ĠC OR
tra vis
Ġannih ilation
Ġle ase
Ġto k
ĠG all
og a
ĠCo al
$/ ,
C PP
K er
Ġstr ongest
comp ose
Ġd ating
ãĢ ģ
Fe bruary
Ġkil ome
un ix
18 3
T AB
Ġt ens
un ov
Ġeconom ics
Ġpermut ations
ĠEx per
Ġferm ionic
Ġvent ure
im ath
ass ment
}) \\
ID R
Is rael
original Event
ROWS ER
Ġdelim iter
str len
COL UMN
IF ORM
LAB EL
r ice
ic he
Ġv oices
time zone
Ġthrough put
ray s
Ġaddition ally
ĠB O
computer output
p ie
Ġst adium
åı ĸ
) ],
a qu
N g
] ].
Ġcollect or
Feed back
Ġg c
ĠM unic
foo bar
ĠLabor atory
C ls
v x
:: __
or um
n ick
Ġen comp
Ġcount ed
List en
ĠOb serve
ĠG A
Ġdistort ion
depend s
Ġmist ake
Ġr x
iber nate
ing ale
Ġl p
ĠD P
ĠCol omb
ĠLo ader
AV A
Ġaws util
ĠEx it
create TextNode
| (
Ġ< ![
Ġt issue
Mar shall
spir acy
ĠM aps
}{ .
RO LL
ĠB order
Ġmu on
Ġde light
ĠUrb an
Ġa ster
Ġgroup ing
number Of
ribut or
Ġsus pic
iv ic
Ġh ip
ĠMarg aret
ĠK an
Ġchain ed
ref lection
li ant
Ġh az
ĠMar vel
Ġwalk ed
ge ometric
Top ology
ĠCG Rect
Ġdecor ated
b ership
ĠS ay
ik ing
pol ygon
d an
h ai
Ġu v
Ġscul pt
44 3
h ort
Ġcons olid
Ġnom inal
neighb or
ymph ony
local Storage
0 30
b ird
d ent
Ġc ul
Ġin consistent
D s
Ġirre levant
Ġdegener acy
Ġ" ../
Ġdomin ates
Ġcontrovers y
Ġl x
remove Attribute
styles heets
Ġhal os
Ġ{ :
Al ways
check s
Ġsynchron ous
Ï Ĥ
unc ing
PO INTER
Ġtro ub
ĠBlo om
b right
ĠĠĠĠĠĠĠĠĠĠĠĠĠĠĠĠĠĠĠĠĠĠĠĠĠĠĠĠĠĠĠĠ ĠĠĠĠĠĠĠĠĠĠĠĠĠĠĠĠĠĠĠĠĠĠĠĠĠĠĠ
Ġbirth day
Ġe ffic
Ġch r
3 80
Ġamb ient
Ġsuggest ion
ET A
Ï ħ
ac re
it ary
Ġp uzz
id le
List Item
Ġvolunte ers
Ġjo ins
E lect
Ġd p
Ġath letes
d if
ĠDescript or
od ers
Ġal lies
in set
RE LEASE
Ġrest oration
ĠRead ing
Ġ rib
ow ards
= /
Ġm illi
Ġthrow ing
Ġir regular
Ġrec urse
Ġdomin ate
Ġclick s
Ġfri ction
J e
ĠPer forms
ĠImmutable Array
che v
ĠBo ys
ĠT ower
val on
Ġstd err
Proc Address
ref n
Full screen
ĠBro thers
pers ist
ĠVeg as
ĠComposite Disposable
g age
Ġadi abatic
Ġ} ]
ĠA w
23 1
Ġrem n
P NG
Inst ead
Ġcy cl
Ġfin ishes
in ely
ĠK az
æ į
ĠQ ual
Ġg arden
Ġfib ers
H its
Ġdis claimer
Comp atible
ir ates
ĠMic hel
PE D
Ġcapt uring
ĠEar l
amer on
ĠPitts burgh
k el
)$ :
RE SP
Ġde puty
popup ToolGroup
ĠO tt
ENT IAL
IC U
ĠTer ms
direct ives
F ULL
Ġ& =\
RGB A
Ġclass ify
Ġshop ping
Ġview ers
stack ed
ĠASC II
ĠAnt i
or ate
Ġ\ ,\,
Con d
ĠC BS
approx imation
SCA LE
ĠThe me
Ġgr ass
Ġin struct
play back
h um
Ġnot ified
Pro filer
ĠSche dule
Ġc v
Ġbipart ite
ah ler
[...]
