{
  "version": "1.0",
  "truncation": null,
  "padding": null,
  "added_tokens": [
    {
      "id": 0,
      "content": "[UNK]",
      "single_word": false,
      "lstrip": false,
      "rstrip": false,
      "normalized": false,
      "special": true
    }
  ],
  "normalizer": null,
  "pre_tokenizer": {
    "type": "Sequence",
    "pretokenizers": [
      {
        "type": "Digits",
        "individual_digits": false
      },
      {
        "type": "ByteLevel",
        "add_prefix_space": false,
        "trim_offsets": true,
        "use_regex": true
      }
    ]
  },
  "post_processor": null,
  "decoder": null,
  "model": {
    "type": "BPE",
    "dropout": null,
    "unk_token": "[UNK]",
    "continuing_subword_prefix": null,
    "end_of_word_suffix": null,
    "fuse_unk": false,
    "byte_fallback": false,
    "vocab": {
      "[UNK]": 0,
      "!": 1,
      "\"": 2,
      "#": 3,
      "$": 4,
      "%": 5,
      "&": 6,
      "'": 7,
      "(": 8,
      ")": 9,
      "*": 10,
      "+": 11,
      ",": 12,
      "-": 13,
      ".": 14,
      "/": 15,
      "0": 16,
      "1": 17,
      "2": 18,
      "3": 19,
      "4": 20,
      "5": 21,
      "6": 22,
      "7": 23,
      "8": 24,
      "9": 25,
      ":": 26,
      ";": 27,
      "<": 28,
      "=": 29,
      ">": 30,
      "?": 31,
      "@": 32,
      "A": 33,
      "B": 34,
      "C": 35,
      "D": 36,
      "E": 37,
      "F": 38,
      "G": 39,
      "H": 40,
      "I": 41,
      "J": 42,
      "K": 43,
      "L": 44,
      "M": 45,
      "N": 46,
      "O": 47,
      "P": 48,
      "Q": 49,
      "R": 50,
      "S": 51,
      "T": 52,
      "U": 53,
      "V": 54,
      "W": 55,
      "X": 56,
      "Y": 57,
      "Z": 58,
      "[": 59,
      "\\": 60,
      "]": 61,
      "^": 62,
      "_": 63,
      "`": 64,
      "a": 65,
      "b": 66,
      "c": 67,
      "d": 68,
      "e": 69,
      "f": 70,
      "g": 71,
      "h": 72,
      "i": 73,
      "j": 74,
      "k": 75,
      "l": 76,
      "m": 77,
      "n": 78,
      "o": 79,
      "p": 80,
      "q": 81,
      "r": 82,
      "s": 83,
      "t": 84,
      "u": 85,
      "v": 86,
      "w": 87,
      "x": 88,
      "y": 89,
      "z": 90,
      "{": 91,
      "|": 92,
      "}": 93,
      "~": 94,
      "¡": 95,
      "¢": 96,
      "£": 97,
      "¤": 98,
      "¥": 99,
      "¦": 100,
      "§": 101,
      "¨": 102,
      "©": 103,
      "ª": 104,
      "«": 105,
      "¬": 106,
      "®": 107,
      "¯": 108,
      "°": 109,
      "±": 110,
      "²": 111,
      "³": 112,
      "´": 113,
      "µ": 114,
      "¶": 115,
      "·": 116,
      "¸": 117,
      "¹": 118,
      "º": 119,
      "»": 120,
      "¼": 121,
      "½": 122,
      "¾": 123,
      "¿": 124,
      "Â": 125,
      "Ã": 126,
      "Ä": 127,
      "Å": 128,
      "Æ": 129,
      "Ç": 130,
      "È": 131,
      "É": 132,
      "Ê": 133,
      "Ë": 134,
      "Ì": 135,
      "Í": 136,
      "Î": 137,
      "Ï": 138,
      "Ð": 139,
      "Ñ": 140,
      "Ò": 141,
      "Ó": 142,
      "Ô": 143,
      "Õ": 144,
      "Ö": 145,
      "×": 146,
      "Ø": 147,
      "Ù": 148,
      "Ú": 149,
      "Û": 150,
      "Ü": 151,
      "Ý": 152,
      "Þ": 153,
      "ß": 154,
      "à": 155,
      "á": 156,
      "â": 157,
      "ã": 158,
      "ä": 159,
      "å": 160,
      "æ": 161,
      "ç": 162,
      "è": 163,
      "é": 164,
      "ê": 165,
      "ë": 166,
      "ì": 167,
      "í": 168,
      "î": 169,
      "ï": 170,
      "ð": 171,
      "ó": 172,
      "ô": 173,
      "Ā": 174,
      "ā": 175,
      "Ă": 176,
      "ă": 177,
      "Ą": 178,
      "ą": 179,
      "Ć": 180,
      "ć": 181,
      "Ĉ": 182,
      "ĉ": 183,
      "Ċ": 184,
      "ċ": 185,
      "Č": 186,
      "č": 187,
      "Ď": 188,
      "ď": 189,
      "Đ": 190,
      "đ": 191,
      "Ē": 192,
      "ē": 193,
      "Ĕ": 194,
      "ĕ": 195,
      "Ė": 196,
      "ė": 197,
      "Ę": 198,
      "ę": 199,
      "Ě": 200,
      "ě": 201,
      "Ĝ": 202,
      "ĝ": 203,
      "Ğ": 204,
      "ğ": 205,
      "Ġ": 206,
      "ġ": 207,
      "Ģ": 208,
      "ģ": 209,
      "Ĥ": 210,
      "ĥ": 211,
      "Ħ": 212,
      "ħ": 213,
      "Ĩ": 214,
      "ĩ": 215,
      "Ī": 216,
      "ī": 217,
      "Ĭ": 218,
      "ĭ": 219,
      "Į": 220,
      "į": 221,
      "İ": 222,
      "ı": 223,
      "Ĳ": 224,
      "ĳ": 225,
      "Ĵ": 226,
      "ĵ": 227,
      "Ķ": 228,
      "ķ": 229,
      "ĸ": 230,
      "Ĺ": 231,
      "ĺ": 232,
      "Ļ": 233,
      "ļ": 234,
      "Ľ": 235,
      "ľ": 236,
      "Ŀ": 237,
      "ŀ": 238,
      "Ł": 239,
      "ł": 240,
      "Ń": 241,
      "ĠĠ": 242,
      "ĠĠĠĠ": 243,
      "Ġt": 244,
      "in": 245,
      "er": 246,
      "on": 247,
      "at": 248,
      "re": 249,
      "he": 250,
      "Ġa": 251,
      "en": 252,
      "ĠĠĠ": 253,
      "or": 254,
      "ĠĠĠĠĠĠĠĠ": 255,
      "st": 256,
      "al": 257,
      "Ġthe": 258,
      "ion": 259,
      "le": 260,
      "ar": 261,
      "it": 262,
      "Ġc": 263,
      "se": 264,
      "an": 265,
      "is": 266,
      "Ġf": 267,
      "Ġo": 268,
      "ct": 269,
      "de": 270,
      "ro": 271,
      "Ġp": 272,
      "Ġs": 273,
      "ing": 274,
      "Ġw": 275,
      "me": 276,
      "ic": 277,
      "Ġb": 278,
      "Ġin": 279,
      "ed": 280,
      "ent": 281,
      "Ġ=": 282,
      "es": 283,
      "nd": 284,
      "Ġof": 285,
      "ĠĠĠĠĠĠĠ": 286,
      "ĉĉ": 287,
      "ur": 288,
      "Ġ$": 289,
      "Ġ\\": 290,
      "Ġre": 291,
      "Ġ{": 292,
      "Ġn": 293,
      "as": 294,
      "Ġth": 295,
      "Ġ(": 296,
      "Ġto": 297,
      "ut": 298,
      "et": 299,
      "Ġm": 300,
      ");": 301,
      "ig": 302,
      "ac": 303,
      "il": 304,
      "Ġe": 305,
      "un": 306,
      "Ġand": 307,
      "Ġd": 308,
      "ation": 309,
      "Ġ*": 310,
      "ol": 311,
      "th": 312,
      "ul": 313,
      "if": 314,
      "el": 315,
      "Ġh": 316,
      "mp": 317,
      "ra": 318,
      "id": 319,
      "lo": 320,
      "ction": 321,
      "Ġv": 322,
      "ot": 323,
      "//": 324,
      "ĠĠĠĠĠĠĠĠĠĠĠ": 325,
      "pe": 326,
      "iv": 327,
      "Ġis": 328,
      "ĠT": 329,
      "Ġ}": 330,
      "ce": 331,
      "--": 332,
      "ab": 333,
      "ate": 334,
      "ĠS": 335,
      "qu": 336,
      "čĊ": 337,
      "ge": 338,
      "Ġ<": 339,
      "ad": 340,
      "ame": 341,
      "Ġfor": 342,
      "um": 343,
      "ter": 344,
      "Ġst": 345,
      "ĠC": 346,
      "ch": 347,
      "te": 348,
      "Ġg": 349,
      "ri": 350,
      "Ġl": 351,
      "ĠA": 352,
      "us": 353,
      "_{": 354,
      "om": 355,
      "am": 356,
      "pt": 357,
      "Ġcon": 358,
      "ly": 359,
      "ĠĠĠĠĠ": 360,
      "=\"": 361,
      "ue": 362,
      "Ġde": 363,
      "ĠI": 364,
      "end": 365,
      "urn": 366,
      "ver": 367,
      "Ġbe": 368,
      "ss": 369,
      "xt": 370,
      "ath": 371,
      "ith": 372,
      "ist": 373,
      "ht": 374,
      "im": 375,
      "Ġse": 376,
      "ode": 377,
      "Ġon": 378,
      "**": 379,
      "Ġ\"": 380,
      "ow": 381,
      "Ġthis": 382,
      "turn": 383,
      "ub": 384,
      "Ġthat": 385,
      "tr": 386,
      "</": 387,
      "od": 388,
      "up": 389,
      "ap": 390,
      "ass": 391,
      "ve": 392,
      "()": 393,
      "ĠĠĠĠĠĠĠĠĠĠĠĠĠĠĠĠ": 394,
      "ew": 395,
      "ment": 396,
      "ay": 397,
      "ir": 398,
      "{\\": 399,
      "ĠM": 400,
      "ta": 401,
      "Ġ'": 402,
      "Ġif": 403,
      "unction": 404,
      "Ġ&": 405,
      "Ġpro": 406,
      "ers": 407,
      "ype": 408,
      "ect": 409,
      "ĠP": 410,
      "==": 411,
      "Ġco": 412,
      "âĢ": 413,
      "ort": 414,
      "and": 415,
      "Ġan": 416,
      "Ġwith": 417,
      "Ġ$\\": 418,
      "ine": 419,
      "ite": 420,
      "00": 421,
      "sp": 422,
      "able": 423,
      "ure": 424,
      "Ġal": 425,
      "ult": 426,
      "age": 427,
      "iz": 428,
      "op": 429,
      "ase": 430,
      "ĠR": 431,
      "ĠB": 432,
      "ight": 433,
      "ĠF": 434,
      "ĠD": 435,
      "In": 436,
      "est": 437,
      "Ġwh": 438,
      "lass": 439,
      "Ġas": 440,
      "art": 441,
      "math": 442,
      "ore": 443,
      "ack": 444,
      "con": 445,
      "ity": 446,
      "oc": 447,
      "ĠThe": 448,
      "ĠĠĠĠĠĠĠĠĠĠĠĠĠĠĠ": 449,
      "int": 450,
      "ke": 451,
      "Ġ//": 452,
      "----": 453,
      "rom": 454,
      "Ġreturn": 455,
      "ption": 456,
      "ref": 457,
      "Ġex": 458,
      "ere": 459,
      "ph": 460,
      "li": 461,
      "ĠL": 462,
      "ou": 463,
      "ĠH": 464,
      "get": 465,
      "Ġ@": 466,
      "Ġfunction": 467,
      "per": 468,
      "\">": 469,
      "ma": 470,
      "cal": 471,
      "Ġby": 472,
      "ĠE": 473,
      "ĠN": 474,
      "Ġor": 475,
      "ag": 476,
      "ial": 477,
      "Ġit": 478,
      "ime": 479,
      "ĠĊ": 480,
      "ata": 481,
      "alue": 482,
      "our": 483,
      "ĉĉĉĉ": 484,
      "ject": 485,
      "ile": 486,
      "lic": 487,
      "ĠG": 488,
      "Ġ+": 489,
      "ĠW": 490,
      "ive": 491,
      "Ġwe": 492,
      "Ġ-": 493,
      "}\\": 494,
      "pro": 495,
      "}$": 496,
      "eg": 497,
      "Ġare": 498,
      "Ġme": 499,
      "Ġr": 500,
      "ff": 501,
      "orm": 502,
      "^{": 503,
      "os": 504,
      "Ġat": 505,
      "text": 506,
      "Ġi": 507,
      "ft": 508,
      "ber": 509,
      "ace": 510,
      "co": 511,
      "ies": 512,
      "Ġtr": 513,
      "all": 514,
      "Ġu": 515,
      "res": 516,
      "20": 517,
      "em": 518,
      "ess": 519,
      "ill": 520,
      "..": 521,
      "Ġfrom": 522,
      "to": 523,
      "str": 524,
      "ition": 525,
      "par": 526,
      "Ġvar": 527,
      "ans": 528,
      "are": 529,
      "set": 530,
      "),": 531,
      "ant": 532,
      "ĠO": 533,
      "->": 534,
      "ind": 535,
      ").": 536,
      "Ġch": 537,
      "ck": 538,
      "out": 539,
      "Ġy": 540,
      "Ġnot": 541,
      "ary": 542,
      "this": 543,
      "ign": 544,
      "',": 545,
      "}}": 546,
      "ire": 547,
      "Ġ[": 548,
      "Ġ*/": 549,
      "Ġ/": 550,
      "oo": 551,
      "Ġclass": 552,
      "(\\": 553,
      "lu": 554,
      "Con": 555,
      "bject": 556,
      "\",": 557,
      "ord": 558,
      "Ġlo": 559,
      "sc": 560,
      "nt": 561,
      "Ġsh": 562,
      "av": 563,
      "ated": 564,
      "();": 565,
      "ray": 566,
      "ser": 567,
      "::": 568,
      "lement": 569,
      "act": 570,
      "equ": 571,
      "Ġwas": 572,
      "ave": 573,
      "sed": 574,
      "Ġle": 575,
      "egin": 576,
      "ty": 577,
      "err": 578,
      "ang": 579,
      "},": 580,
      "ĠU": 581,
      "19": 582,
      "ps": 583,
      "vent": 584,
      "begin": 585,
      "Ġres": 586,
      "('": 587,
      "Ġnew": 588,
      "ize": 589,
      "ast": 590,
      "ĉĉĉ": 591,
      "Ġ:": 592,
      "ide": 593,
      "Ġar": 594,
      "row": 595,
      "ĠĠĠĠĠĠĠĠĠ": 596,
      "fig": 597,
      "Ġcomp": 598,
      "Ġhe": 599,
      "def": 600,
      "ext": 601,
      "The": 602,
      "(\"": 603,
      "Ġ_": 604,
      "ull": 605,
      "ich": 606,
      "ens": 607,
      ")$": 608,
      "Ġcan": 609,
      "ical": 610,
      "ex": 611,
      "ip": 612,
      "_{\\": 613,
      "ance": 614,
      "ome": 615,
      "form": 616,
      "St": 617,
      "ence": 618,
      "Ġstr": 619,
      "Ġun": 620,
      "abel": 621,
      "lf": 622,
      "ĠJ": 623,
      "low": 624,
      "put": 625,
      "fr": 626,
      "ther": 627,
      "ource": 628,
      "return": 629,
      "Ġ|": 630,
      "ĠĠĠĠĠĠĠĠĠĠĠĠĠĠĠĠĠĠĠ": 631,
      "Ġname": 632,
      "Name": 633,
      "****": 634,
      "ener": 635,
      "ĠIn": 636,
      "ell": 637,
      "ations": 638,
      "âĢĻ": 639,
      "port": 640,
      "ublic": 641,
      "var": 642,
      "rib": 643,
      "}{": 644,
      "name": 645,
      "))": 646,
      "ard": 647,
      "ild": 648,
      "Ġj": 649,
      "--------": 650,
      "ork": 651,
      "right": 652,
      "tring": 653,
      "ef": 654,
      "param": 655,
      "ice": 656,
      "ach": 657,
      "cc": 658,
      "dd": 659,
      "Ġdef": 660,
      "du": 661,
      "di": 662,
      "Ġ.": 663,
      "ost": 664,
      "ak": 665,
      "tain": 666,
      "ec": 667,
      "frac": 668,
      "ong": 669,
      "Ġ</": 670,
      "Ġhave": 671,
      "ator": 672,
      "ib": 673,
      "ust": 674,
      "Ġ!": 675,
      "dex": 676,
      "og": 677,
      "eng": 678,
      "key": 679,
      "pl": 680,
      "10": 681,
      "====": 682,
      "uld": 683,
      "iel": 684,
      "Ġap": 685,
      "eq": 686,
      "ain": 687,
      "Ġset": 688,
      "ll": 689,
      "Pro": 690,
      "ĠTh": 691,
      "ory": 692,
      "imp": 693,
      "ert": 694,
      "omm": 695,
      "one": 696,
      "the": 697,
      "Ġhas": 698,
      "Ġwhich": 699,
      "und": 700,
      "ield": 701,
      "unt": 702,
      "ug": 703,
      "so": 704,
      "lect": 705,
      "line": 706,
      "label": 707,
      "._": 708,
      "cite": 709,
      "ule": 710,
      "amp": 711,
      "Ġk": 712,
      "Ex": 713,
      "left": 714,
      "pect": 715,
      "Ġvalue": 716,
      "ress": 717,
      "201": 718,
      "ĠV": 719,
      "ptions": 720,
      "'s": 721,
      "type": 722,
      "sh": 723,
      "mathb": 724,
      "ml": 725,
      "umber": 726,
      "enc": 727,
      "odel": 728,
      "bo": 729,
      "ree": 730,
      "hen": 731,
      "alse": 732,
      "ER": 733,
      "Ġdo": 734,
      "ded": 735,
      "oid": 736,
      "Ġel": 737,
      "$.": 738,
      "yst": 739,
      "rm": 740,
      "oint": 741,
      "clu": 742,
      "Ġ`": 743,
      "ument": 744,
      "ength": 745,
      "of": 746,
      "Type": 747,
      "iew": 748,
      "che": 749,
      "$,": 750,
      "own": 751,
      "ĠâĢ": 752,
      "Ġall": 753,
      "val": 754,
      "fer": 755,
      "we": 756,
      "Ġus": 757,
      "Ġcont": 758,
      "Ġpublic": 759,
      "ms": 760,
      "atch": 761,
      "pec": 762,
      "ix": 763,
      "ep": 764,
      "Ġwill": 765,
      "io": 766,
      "ould": 767,
      "ĠK": 768,
      "ribut": 769,
      "})": 770,
      "roup": 771,
      "Ġerr": 772,
      "idth": 773,
      "tt": 774,
      "ound": 775,
      "ery": 776,
      ",\\": 777,
      "Ġget": 778,
      "String": 779,
      "old": 780,
      "eta": 781,
      "ault": 782,
      "Ġtype": 783,
      "ystem": 784,
      "mathcal": 785,
      "ual": 786,
      "Ġ&&": 787,
      "Ġdata": 788,
      "To": 789,
      "div": 790,
      "app": 791,
      "Ġinter": 792,
      "\\\\": 793,
      "../": 794,
      "ink": 795,
      "ates": 796,
      "equation": 797,
      "cre": 798,
      "col": 799,
      "}.": 800,
      "irst": 801,
      "Ġqu": 802,
      "ions": 803,
      "IN": 804,
      "Ġout": 805,
      "inal": 806,
      "Ġdis": 807,
      "ia": 808,
      "ange": 809,
      "sum": 810,
      "Ġsu": 811,
      "uct": 812,
      "Ġpl": 813,
      "200": 814,
      "Ġob": 815,
      "Co": 816,
      "ON": 817,
      "ses": 818,
      "Ar": 819,
      "Ġimp": 820,
      "Ġ#": 821,
      "Ġone": 822,
      "Ġint": 823,
      "Ġresult": 824,
      "ear": 825,
      "Ġtime": 826,
      "Ġpar": 827,
      "back": 828,
      "mo": 829,
      "}(": 830,
      "Ġ>": 831,
      "Ġma": 832,
      "ined": 833,
      "Ġab": 834,
      "led": 835,
      "Ġtrue": 836,
      "riv": 837,
      "Ġconst": 838,
      "yn": 839,
      "Ġcol": 840,
      "urre": 841,
      "Ġelse": 842,
      "Ġnull": 843,
      "vel": 844,
      "Ġass": 845,
      "Ġ||": 846,
      "arg": 847,
      "mb": 848,
      "thod": 849,
      "Ġ)": 850,
      "Ġpart": 851,
      "];": 852,
      "ache": 853,
      "sub": 854,
      "da": 855,
      "ld": 856,
      "Ġup": 857,
      "over": 858,
      "pha": 859,
      "lock": 860,
      "ark": 861,
      "~\\": 862,
      "}^": 863,
      "Ġ==": 864,
      "ics": 865,
      "les": 866,
      "ings": 867,
      "ST": 868,
      "function": 869,
      "}_": 870,
      "add": 871,
      "Ġper": 872,
      "Ġself": 873,
      "Ġval": 874,
      "Ġpre": 875,
      "Id": 876,
      "au": 877,
      "import": 878,
      "Ġsp": 879,
      "__": 880,
      "rr": 881,
      "alpha": 882,
      "Ġbut": 883,
      "Ġfalse": 884,
      "Ch": 885,
      "RE": 886,
      "erv": 887,
      "Res": 888,
      "nder": 889,
      "data": 890,
      "atic": 891,
      "emp": 892,
      "></": 893,
      "Ġcase": 894,
      "til": 895,
      "amb": 896,
      "Ġbo": 897,
      "ors": 898,
      "Ġx": 899,
      "odule": 900,
      "12": 901,
      "wo": 902,
      "ise": 903,
      "round": 904,
      "Ġrequ": 905,
      "ud": 906,
      "ssage": 907,
      "ob": 908,
      "ian": 909,
      "ey": 910,
      "item": 911,
      "string": 912,
      "ular": 913,
      "osition": 914,
      "min": 915,
      "ĠSt": 916,
      "Ġ/**": 917,
      "urrent": 918,
      "value": 919,
      "rit": 920,
      "Ġalso": 921,
      "ton": 922,
      "Th": 923,
      "')": 924,
      "ues": 925,
      "fo": 926,
      "for": 927,
      "gra": 928,
      "tern": 929,
      "clude": 930,
      "code": 931,
      "Ġstring": 932,
      "ript": 933,
      "ative": 934,
      "span": 935,
      "bar": 936,
      "ry": 937,
      "perty": 938,
      "Ġsub": 939,
      "time": 940,
      "Ġover": 941,
      "List": 942,
      "Ġwhen": 943,
      "com": 944,
      "Ġobject": 945,
      "AT": 946,
      "ception": 947,
      "ĠThis": 948,
      "Ġro": 949,
      "lection": 950,
      "Value": 951,
      "mber": 952,
      "');": 953,
      "ĠĠĠĠĠĠĠĠĠĠĠĠĠĠĠĠĠĠĠĠĠĠĠ": 954,
      "igh": 955,
      "Ġne": 956,
      "ambda": 957,
      "ifi": 958,
      "Re": 959,
      "ader": 960,
      "Ġ===": 961,
      "Ġso": 962,
      "Ġyou": 963,
      "ents": 964,
      "],": 965,
      "ely": 966,
      "Ġno": 967,
      "Ġother": 968,
      "};": 969,
      "Ġany": 970,
      "ie": 971,
      "ont": 972,
      "ameter": 973,
      "));": 974,
      "ne": 975,
      "><": 976,
      "Ġid": 977,
      "Ġform": 978,
      "spon": 979,
      "ĠCh": 980,
      "********": 981,
      "Ġvoid": 982,
      ")\\": 983,
      "ific": 984,
      "ature": 985,
      "ail": 986,
      "html": 987,
      "not": 988,
      "Ġsup": 989,
      "pp": 990,
      "Ġ},": 991,
      "class": 992,
      "length": 993,
      "unc": 994,
      "Ġinst": 995,
      "Object": 996,
      "$\\": 997,
      "////": 998,
      "Data": 999,
      "space": 1000,
      "ger": 1001,
      "Ġhis": 1002,
      "ĠY": 1003,
      "amma": 1004,
      "Ġend": 1005,
      "LE": 1006,
      "Ġfirst": 1007,
      "Ġmore": 1008,
      "Ġen": 1009,
      "Ġthere": 1010,
      "let": 1011,
      "16": 1012,
      "px": 1013,
      "://": 1014,
      "ish": 1015,
      "Ġuse": 1016,
      "trans": 1017,
      "uild": 1018,
      "son": 1019,
      "Ġadd": 1020,
      "td": 1021,
      "=\\": 1022,
      "ollow": 1023,
      "mathbb": 1024,
      "Ġonly": 1025,
      "serv": 1026,
      "mary": 1027,
      "ose": 1028,
      "self": 1029,
      "cent": 1030,
      "Err": 1031,
      "its": 1032,
      "Ġexp": 1033,
      "ick": 1034,
      "mu": 1035,
      "Ġtwo": 1036,
      "18": 1037,
      "Ġtrans": 1038,
      "read": 1039,
      "fter": 1040,
      "ĠWe": 1041,
      "Ġtheir": 1042,
      "Ġsome": 1043,
      "_\\": 1044,
      "pi": 1045,
      "Ġkey": 1046,
      "arget": 1047,
      "Ġline": 1048,
      "ces": 1049,
      "ĠĠĠĠĠĠ": 1050,
      "âĢĿ": 1051,
      "OR": 1052,
      "}_{": 1053,
      "($": 1054,
      "arent": 1055,
      "ĠĠĠĠĠĠĠĠĠĠĠĠĠ": 1056,
      "Ġtest": 1057,
      "comp": 1058,
      "\");": 1059,
      "ider": 1060,
      "Ġreg": 1061,
      "dot": 1062,
      "Ġapp": 1063,
      "igma": 1064,
      "EN": 1065,
      "Ġdif": 1066,
      "----------------": 1067,
      "Ġwork": 1068,
      "ga": 1069,
      "tot": 1070,
      "ho": 1071,
      "date": 1072,
      "Ġ=>": 1073,
      "ash": 1074,
      "Ġ!=": 1075,
      "Ġman": 1076,
      "}^{": 1077,
      "ock": 1078,
      "AL": 1079,
      "ID": 1080,
      "Ġ\\\\": 1081,
      "der": 1082,
      "Ġmodel": 1083,
      "-\\": 1084,
      "cess": 1085,
      "irect": 1086,
      "arch": 1087,
      "Ġad": 1088,
      "lem": 1089,
      "ask": 1090,
      "../../": 1091,
      "Ġits": 1092,
      "Ġcall": 1093,
      "Ġmethod": 1094,
      "source": 1095,
      "Col": 1096,
      "ax": 1097,
      "lation": 1098,
      "Ġnumber": 1099,
      "AR": 1100,
      "iss": 1101,
      "Ġext": 1102,
      "Ġwere": 1103,
      "Ġfollow": 1104,
      "========": 1105,
      "Ġarg": 1106,
      "Ġag": 1107,
      "/**": 1108,
      "message": 1109,
      "array": 1110,
      "rivate": 1111,
      "Ġstate": 1112,
      "ok": 1113,
      "Element": 1114,
      "Ġbeen": 1115,
      "32": 1116,
      "ys": 1117,
      "ible": 1118,
      "resent": 1119,
      "Ġspec": 1120,
      "Ġgener": 1121,
      "We": 1122,
      "ample": 1123,
      "ng": 1124,
      "Ġthey": 1125,
      "Ġused": 1126,
      "Ġ?": 1127,
      "aw": 1128,
      "pre": 1129,
      "Tr": 1130,
      "Ġthen": 1131,
      "Set": 1132,
      "phi": 1133,
      "^{\\": 1134,
      "test": 1135,
      "Ġwhere": 1136,
      "cl": 1137,
      "Ġcre": 1138,
      "work": 1139,
      "cond": 1140,
      "Node": 1141,
      "Ġelement": 1142,
      "als": 1143,
      "rame": 1144,
      "Ġevent": 1145,
      "11": 1146,
      "):": 1147,
      "hat": 1148,
      "ui": 1149,
      "##": 1150,
      "width": 1151,
      "uff": 1152,
      "Ġhref": 1153,
      "file": 1154,
      "Ġour": 1155,
      "olut": 1156,
      "Ġsc": 1157,
      "Ġcomm": 1158,
      "ating": 1159,
      "ility": 1160,
      "section": 1161,
      "ĠĠĠĠĠĠĠĠĠĠĠĠĠĠĠĠĠĠĠĠĠĠĠĠĠĠĠĠĠĠĠĠ": 1162,
      "SS": 1163,
      "Ġsuch": 1164,
      "Ġthan": 1165,
      "ner": 1166,
      "requ": 1167,
      "Key": 1168,
      "Ġbet": 1169,
      "\")": 1170,
      "new": 1171,
      "ater": 1172,
      "htt": 1173,
      "log": 1174,
      "align": 1175,
      "Ġ};": 1176,
      "lambda": 1177,
      "yp": 1178,
      "Ġinto": 1179,
      "Error": 1180,
      "ccess": 1181,
      "lient": 1182,
      "ĠIt": 1183,
      "Event": 1184,
      "heck": 1185,
      "roll": 1186,
      "Ġequ": 1187,
      "Ġdist": 1188,
      "Ġcor": 1189,
      "Ġgiv": 1190,
      "ĉĉĉĉĉ": 1191,
      "ov": 1192,
      "Comp": 1193,
      "Ġ{\\": 1194,
      "ĠUn": 1195,
      "wh": 1196,
      "Ġback": 1197,
      "15": 1198,
      "indow": 1199,
      "ilter": 1200,
      "part": 1201,
      "ocument": 1202,
      "struct": 1203,
      "umn": 1204,
      "pend": 1205,
      "uth": 1206,
      "ning": 1207,
      "Ġcons": 1208,
      "Ġprov": 1209,
      "Ġfield": 1210,
      "ious": 1211,
      "bf": 1212,
      "Ġunder": 1213,
      "Ġrel": 1214,
      "ĠâĢľ": 1215,
      "Ġarray": 1216,
      "ook": 1217,
      "del": 1218,
      "ized": 1219,
      "Par": 1220,
      "ays": 1221,
      "mer": 1222,
      "cont": 1223,
      "Ġ);": 1224,
      "Ġnode": 1225,
      "ilon": 1226,
      "].": 1227,
      "Ġeach": 1228,
      "yle": 1229,
      "Ġcom": 1230,
      "br": 1231,
      "Se": 1232,
      "mathbf": 1233,
      "totype": 1234,
      "ince": 1235,
      "lean": 1236,
      "25": 1237,
      "node": 1238,
      "IT": 1239,
      "Array": 1240,
      "man": 1241,
      "/>": 1242,
      "size": 1243,
      "Ġ:=": 1244,
      "Ġli": 1245,
      "psilon": 1246,
      "index": 1247,
      "ca": 1248,
      "Ġfile": 1249,
      "itle": 1250,
      "Ġwho": 1251,
      "fore": 1252,
      "late": 1253,
      "Ġ});": 1254,
      "Ġerror": 1255,
      "Test": 1256,
      "ĠCo": 1257,
      "Ġpoint": 1258,
      "box": 1259,
      "ased": 1260,
      "Ġact": 1261,
      "ler": 1262,
      "Ġchar": 1263,
      "ody": 1264,
      "atus": 1265,
      "try": 1266,
      "Ġdiffer": 1267,
      "face": 1268,
      "Ġshow": 1269,
      "ĠCon": 1270,
      "En": 1271,
      "dis": 1272,
      "ract": 1273,
      "ages": 1274,
      "ational": 1275,
      "ween": 1276,
      "ream": 1277,
      "ĠRe": 1278,
      "pr": 1279,
      "Exception": 1280,
      "sigma": 1281,
      "Time": 1282,
      "play": 1283,
      "Ġ(!": 1284,
      "url": 1285,
      "ices": 1286,
      "ugh": 1287,
      "Ġoff": 1288,
      "ous": 1289,
      "Ġra": 1290,
      "Index": 1291,
      "ities": 1292,
      "Ġorg": 1293,
      "inter": 1294,
      "Class": 1295,
      "Ġim": 1296,
      "beta": 1297,
      "\":": 1298,
      "loc": 1299,
      "Ġlist": 1300,
      "angle": 1301,
      "Ġmay": 1302,
      "ven": 1303,
      "*}": 1304,
      "Ġ/*": 1305,
      "SE": 1306,
      "Get": 1307,
      "order": 1308,
      "ĠIf": 1309,
      "100": 1310,
      "Ġ%": 1311,
      "table": 1312,
      "la": 1313,
      "Ġabout": 1314,
      "Ġgo": 1315,
      "By": 1316,
      "DE": 1317,
      "ken": 1318,
      "lete": 1319,
      "^{-": 1320,
      "Un": 1321,
      "ause": 1322,
      "ments": 1323,
      "For": 1324,
      "Qu": 1325,
      "ush": 1326,
      "hed": 1327,
      "ĠPro": 1328,
      "Ġrep": 1329,
      "Cont": 1330,
      "ĠX": 1331,
      "ervice": 1332,
      "Ġatt": 1333,
      "ify": 1334,
      "().": 1335,
      "Ġph": 1336,
      "tilde": 1337,
      "Ġ(\\": 1338,
      "Ġusing": 1339,
      "Ġtra": 1340,
      "action": 1341,
      "\"/>": 1342,
      "view": 1343,
      "call": 1344,
      "ern": 1345,
      "ization": 1346,
      "onent": 1347,
      "ote": 1348,
      "Ġent": 1349,
      "Ġshould": 1350,
      "prototype": 1351,
      "Ġoptions": 1352,
      "summary": 1353,
      "ground": 1354,
      "14": 1355,
      "ins": 1356,
      "rite": 1357,
      "ified": 1358,
      "Ġcal": 1359,
      "Ġoper": 1360,
      "CT": 1361,
      "/*": 1362,
      "raph": 1363,
      "13": 1364,
      "Ġhad": 1365,
      "lob": 1366,
      "+\\": 1367,
      "Ġbetween": 1368,
      "He": 1369,
      "include": 1370,
      "Ġthese": 1371,
      "figure": 1372,
      "}{\\": 1373,
      "ume": 1374,
      "Ġwould": 1375,
      "Ġpol": 1376,
      "Ġcurrent": 1377,
      "ced": 1378,
      "ake": 1379,
      "Ġyear": 1380,
      "());": 1381,
      "++": 1382,
      "gamma": 1383,
      "File": 1384,
      "ersion": 1385,
      "Ġgiven": 1386,
      "mathrm": 1387,
      "';": 1388,
      "att": 1389,
      "Ġz": 1390,
      "Ġsystem": 1391,
      "ally": 1392,
      "Ġcorre": 1393,
      "':": 1394,
      "ding": 1395,
      "Ġpo": 1396,
      "Ġnon": 1397,
      "Ġ///": 1398,
      "uffer": 1399,
      "Ġte": 1400,
      "gle": 1401,
      "ports": 1402,
      "pen": 1403,
      "Ġstatic": 1404,
      "ute": 1405,
      "\"><": 1406,
      "oug": 1407,
      "AN": 1408,
      "vers": 1409,
      "olog": 1410,
      "^\\": 1411,
      "Requ": 1412,
      "Ġcontain": 1413,
      "top": 1414,
      "Ġser": 1415,
      "rc": 1416,
      "ffect": 1417,
      "load": 1418,
      "rho": 1419,
      "itial": 1420,
      "ĠFor": 1421,
      "Ġfinal": 1422,
      "options": 1423,
      "ĠĠĠĠĠĠĠĠĠĠĠĠ": 1424,
      "Ġprob": 1425,
      "reak": 1426,
      "ribute": 1427,
      "['": 1428,
      "path": 1429,
      "Ġ--": 1430,
      "Ġpe": 1431,
      "red": 1432,
      "\";": 1433,
      "raw": 1434,
      "ists": 1435,
      "Ġstart": 1436,
      "ĠHe": 1437,
      "64": 1438,
      "delta": 1439,
      "org": 1440,
      "ts": 1441,
      "ĠString": 1442,
      "]{": 1443,
      "(),": 1444,
      "move": 1445,
      "no": 1446,
      "ired": 1447,
      "js": 1448,
      "State": 1449,
      "ĠAr": 1450,
      "Sh": 1451,
      "ons": 1452,
      "Ġhand": 1453,
      "Ġac": 1454,
      "times": 1455,
      "very": 1456,
      "mall": 1457,
      "Ġsame": 1458,
      "ww": 1459,
      "Ġmat": 1460,
      "Ġafter": 1461,
      "ove": 1462,
      "ension": 1463,
      "theta": 1464,
      "cale": 1465,
      "list": 1466,
      ")}": 1467,
      "air": 1468,
      "rol": 1469,
      "util": 1470,
      "Ġnil": 1471,
      "by": 1472,
      "gr": 1473,
      "dition": 1474,
      "ME": 1475,
      "oolean": 1476,
      "ymb": 1477,
      "17": 1478,
      "Ġfe": 1479,
      "Ġhigh": 1480,
      "leq": 1481,
      "Ġgroup": 1482,
      "Def": 1483,
      "gy": 1484,
      "Ġparameter": 1485,
      "Ġprivate": 1486,
      "vert": 1487,
      "ymbol": 1488,
      "count": 1489,
      "Ġdesc": 1490,
      "De": 1491,
      "ool": 1492,
      "Path": 1493,
      "ava": 1494,
      "ient": 1495,
      "cdot": 1496,
      "ĉĠĠĠ": 1497,
      "rough": 1498,
      "ward": 1499,
      "Ġkn": 1500,
      "Ġmin": 1501,
      "ĠSe": 1502,
      "ann": 1503,
      "$-": 1504,
      "pert": 1505,
      "uration": 1506,
      "tau": 1507,
      "erm": 1508,
      "formation": 1509,
      "...": 1510,
      "Of": 1511,
      "color": 1512,
      "Ġorder": 1513,
      "eth": 1514,
      "UL": 1515,
      "translation": 1516,
      "Ġdifferent": 1517,
      "ren": 1518,
      "sign": 1519,
      "ited": 1520,
      "Ġexpect": 1521,
      "utton": 1522,
      "View": 1523,
      "ense": 1524,
      "Text": 1525,
      "Ġvalues": 1526,
      "big": 1527,
      "const": 1528,
      "Ref": 1529,
      "rap": 1530,
      "}$,": 1531,
      "lear": 1532,
      "Ġbec": 1533,
      "link": 1534,
      "defined": 1535,
      "Ġher": 1536,
      "30": 1537,
      "map": 1538,
      "default": 1539,
      "Ġ__": 1540,
      "ically": 1541,
      "ription": 1542,
      "}$.": 1543,
      "Ġsign": 1544,
      "Del": 1545,
      "Ġ$(": 1546,
      "rix": 1547,
      "ily": 1548,
      "Ġright": 1549,
      "rop": 1550,
      "PI": 1551,
      "Ġthem": 1552,
      "199": 1553,
      "arrow": 1554,
      "Ġindex": 1555,
      "Ġsize": 1556,
      "']": 1557,
      "eqref": 1558,
      "As": 1559,
      "func": 1560,
      "define": 1561,
      "olution": 1562,
      "}(\\": 1563,
      "sec": 1564,
      "Ġdefault": 1565,
      "void": 1566,
      "ines": 1567,
      "object": 1568,
      "){": 1569,
      "member": 1570,
      "ting": 1571,
      "ople": 1572,
      "cope": 1573,
      "nb": 1574,
      "PE": 1575,
      "Ġappro": 1576,
      "50": 1577,
      "Ġfact": 1578,
      "ĠQ": 1579,
      "Ġstruct": 1580,
      "TE": 1581,
      "Ġthrow": 1582,
      "RO": 1583,
      ".</": 1584,
      "Ġsee": 1585,
      "Ġpath": 1586,
      "Ġwhile": 1587,
      "Map": 1588,
      "ared": 1589,
      "cept": 1590,
      "'t": 1591,
      "An": 1592,
      "Equ": 1593,
      "http": 1594,
      "ĠEx": 1595,
      "partial": 1596,
      "Ġassert": 1597,
      "ved": 1598,
      "event": 1599,
      "group": 1600,
      "reg": 1601,
      "ression": 1602,
      "ever": 1603,
      "ĠZ": 1604,
      "Ġinstance": 1605,
      "her": 1606,
      "create": 1607,
      "ott": 1608,
      "With": 1609,
      "ctions": 1610,
      "Ġmost": 1611,
      "Ġprodu": 1612,
      "tect": 1613,
      "irc": 1614,
      "result": 1615,
      "Request": 1616,
      "fty": 1617,
      "Ġsa": 1618,
      "Info": 1619,
      "comm": 1620,
      "gin": 1621,
      "Ġed": 1622,
      "pm": 1623,
      "ĠĠĠĠĠĠĠĠĠĠĠĠĠĠĠĠĠĠĠĠĠĠĠĠĠĠĠ": 1624,
      "nu": 1625,
      "ank": 1626,
      "script": 1627,
      "ĠAn": 1628,
      "Ġest": 1629,
      "umer": 1630,
      "Ġdoes": 1631,
      "pack": 1632,
      "Code": 1633,
      "CO": 1634,
      "infty": 1635,
      "que": 1636,
      "module": 1637,
      "ister": 1638,
      "ager": 1639,
      "Ġrequest": 1640,
      "Ġprovide": 1641,
      "input": 1642,
      "ĠAs": 1643,
      "Ġfollowing": 1644,
      "oci": 1645,
      "ful": 1646,
      "System": 1647,
      "ision": 1648,
      "Ġhow": 1649,
      "see": 1650,
      "uring": 1651,
      "temp": 1652,
      "arge": 1653,
      "perties": 1654,
      "nbsp": 1655,
      "ences": 1656,
      "|\\": 1657,
      "$$": 1658,
      "Ġacc": 1659,
      "net": 1660,
      "rag": 1661,
      "ential": 1662,
      "wn": 1663,
      "lose": 1664,
      "mit": 1665,
      "sq": 1666,
      "Size": 1667,
      "Ġpartic": 1668,
      "Ġthrough": 1669,
      "TR": 1670,
      "24": 1671,
      "Ġvari": 1672,
      "orld": 1673,
      "On": 1674,
      "Ite": 1675,
      "Context": 1676,
      "uch": 1677,
      "anc": 1678,
      "////////": 1679,
      "Ġ()": 1680,
      "use": 1681,
      "Val": 1682,
      "ĠâĢĵ": 1683,
      "Ġwell": 1684,
      "lay": 1685,
      "Ġdirect": 1686,
      "Ġlong": 1687,
      "ffset": 1688,
      "``": 1689,
      "Ġtext": 1690,
      "omega": 1691,
      "Ġ!==": 1692,
      "element": 1693,
      "field": 1694,
      "eturn": 1695,
      "ride": 1696,
      "000": 1697,
      "())": 1698,
      "valid": 1699,
      "Hand": 1700,
      "pri": 1701,
      "stance": 1702,
      "ism": 1703,
      "max": 1704,
      "Ġtemp": 1705,
      "ars": 1706,
      "Ġneed": 1707,
      "error": 1708,
      "Ġresults": 1709,
      "Ġinput": 1710,
      "ster": 1711,
      "ĠDe": 1712,
      "has": 1713,
      "ĉĉĉĉĉĉ": 1714,
      "ower": 1715,
      "ouse": 1716,
      "ency": 1717,
      "ĠNew": 1718,
      "sponse": 1719,
      "Query": 1720,
      "Ġread": 1721,
      "ION": 1722,
      "uments": 1723,
      "IC": 1724,
      "Man": 1725,
      "ternal": 1726,
      "Delta": 1727,
      "Ġcl": 1728,
      "Ġboth": 1729,
      "Att": 1730,
      "ttp": 1731,
      "ym": 1732,
      "search": 1733,
      "lag": 1734,
      "select": 1735,
      "po": 1736,
      "****************": 1737,
      "iter": 1738,
      "lex": 1739,
      "ough": 1740,
      "ĠAl": 1741,
      "Field": 1742,
      "abled": 1743,
      "AC": 1744,
      "cript": 1745,
      "ĠĠĊ": 1746,
      "ormal": 1747,
      "eqn": 1748,
      "rt": 1749,
      "Ġlocal": 1750,
      "UR": 1751,
      "ivers": 1752,
      "Config": 1753,
      "Ġsource": 1754,
      "tab": 1755,
      "state": 1756,
      "ished": 1757,
      "med": 1758,
      "Ġfound": 1759,
      "Ġmodule": 1760,
      "Ġmap": 1761,
      "quad": 1762,
      "Ġcontext": 1763,
      "ron": 1764,
      "Ġsim": 1765,
      "Ġconsider": 1766,
      "web": 1767,
      "Or": 1768,
      "point": 1769,
      "ĠGet": 1770,
      "Ġmax": 1771,
      "ingle": 1772,
      "ML": 1773,
      "center": 1774,
      "tainer": 1775,
      "graph": 1776,
      "Ġlast": 1777,
      "Add": 1778,
      "Ġshe": 1779,
      "Ġjust": 1780,
      "Ġplay": 1781,
      "Ġlike": 1782,
      "olds": 1783,
      "Ġrun": 1784,
      "Ġnow": 1785,
      "Ġtarget": 1786,
      "ability": 1787,
      "22": 1788,
      "Form": 1789,
      "start": 1790,
      "Ġ/>": 1791,
      "Ġimport": 1792,
      "ures": 1793,
      "thing": 1794,
      "itor": 1795,
      "api": 1796,
      "Ġrec": 1797,
      "lobal": 1798,
      "be": 1799,
      "Ġcheck": 1800,
      "Ġcallback": 1801,
      "position": 1802,
      "])": 1803,
      "Ġsupport": 1804,
      "Ġmake": 1805,
      "ively": 1806,
      "ling": 1807,
      "Ġpeople": 1808,
      "Ġstud": 1809,
      "Ġcode": 1810,
      "Ġtop": 1811,
      "Ġmust": 1812,
      "Ġ,": 1813,
      "Ġcent": 1814,
      "ĠTr": 1815,
      ".,": 1816,
      "xi": 1817,
      "style": 1818,
      "Up": 1819,
      "where": 1820,
      "Ġopt": 1821,
      "ync": 1822,
      "\\,": 1823,
      "Ġref": 1824,
      "Ġbecause": 1825,
      "This": 1826,
      "true": 1827,
      "ik": 1828,
      "ams": 1829,
      "place": 1830,
      "land": 1831,
      "Ġwhat": 1832,
      "assert": 1833,
      "ants": 1834,
      "Ġfind": 1835,
      "ift": 1836,
      "method": 1837,
      "Ġbefore": 1838,
      "velop": 1839,
      "Ġmy": 1840,
      "Al": 1841,
      "orem": 1842,
      "Le": 1843,
      "ane": 1844,
      "Property": 1845,
      "ump": 1846,
      "ality": 1847,
      "gor": 1848,
      "Ġaut": 1849,
      "33": 1850,
      "urs": 1851,
      "tings": 1852,
      "Ġsecond": 1853,
      "block": 1854,
      "Ġbase": 1855,
      "other": 1856,
      "public": 1857,
      ".$": 1858,
      "Ġobtain": 1859,
      "bm": 1860,
      "ffic": 1861,
      "At": 1862,
      "location": 1863,
      "inition": 1864,
      "40": 1865,
      "Ġobserv": 1866,
      "LA": 1867,
      "}}\\": 1868,
      "Ġtyp": 1869,
      "Ġpr": 1870,
      ")$.": 1871,
      "config": 1872,
      "Ġmult": 1873,
      "nect": 1874,
      "icon": 1875,
      "Ġleft": 1876,
      "Ġbackground": 1877,
      "less": 1878,
      "ining": 1879,
      "sup": 1880,
      "vious": 1881,
      "ords": 1882,
      "meric": 1883,
      "cm": 1884,
      "rict": 1885,
      "Ġevery": 1886,
      "Ġprocess": 1887,
      "Ġchild": 1888,
      "Ġbreak": 1889,
      "Ġconfig": 1890,
      "}[": 1891,
      "Ġlow": 1892,
      "Ġsur": 1893,
      "etwork": 1894,
      "loat": 1895,
      "Ġdec": 1896,
      "roid": 1897,
      "Ġyour": 1898,
      "Ġagain": 1899,
      "Arg": 1900,
      "lication": 1901,
      "Ġdocument": 1902,
      "pon": 1903,
      "Mess": 1904,
      "Ġeffect": 1905,
      "imit": 1906,
      "Ġallow": 1907,
      "Ġcontin": 1908,
      "Ġbel": 1909,
      "fe": 1910,
      "mpty": 1911,
      "ED": 1912,
      "ethod": 1913,
      "Ġnext": 1914,
      "enu": 1915,
      "Item": 1916,
      "Ġrepresent": 1917,
      "Ġposition": 1918,
      "uss": 1919,
      "Ġcondition": 1920,
      "base": 1921,
      "MA": 1922,
      "ots": 1923,
      "Inter": 1924,
      "ason": 1925,
      "mark": 1926,
      "Ġbound": 1927,
      "Ġmod": 1928,
      "\"\"": 1929,
      "ustom": 1930,
      "Int": 1931,
      "push": 1932,
      "ident": 1933,
      "from": 1934,
      "sk": 1935,
      "Ġcreate": 1936,
      "Group": 1937,
      "Not": 1938,
      "Ġcould": 1939,
      "uthor": 1940,
      "Ġbeing": 1941,
      "ĠSh": 1942,
      "ends": 1943,
      "opy": 1944,
      "New": 1945,
      "mes": 1946,
      "Ph": 1947,
      "80": 1948,
      "epsilon": 1949,
      "[]": 1950,
      "Ob": 1951,
      "Ġdi": 1952,
      "idd": 1953,
      "UT": 1954,
      "Ġselect": 1955,
      "Over": 1956,
      "LO": 1957,
      "ixed": 1958,
      "Dis": 1959,
      "Ġpri": 1960,
      "user": 1961,
      "Im": 1962,
      "ĠčĊ": 1963,
      "Result": 1964,
      "uc": 1965,
      "Ġfil": 1966,
      "Service": 1967,
      "reate": 1968,
      "({": 1969,
      "Ġdistribut": 1970,
      "wide": 1971,
      "Ġmany": 1972,
      "mon": 1973,
      "uf": 1974,
      "eqnarray": 1975,
      "ross": 1976,
      "================": 1977,
      "Ġinformation": 1978,
      "asses": 1979,
      "Ġsaid": 1980,
      "Des": 1981,
      "*/": 1982,
      "nav": 1983,
      "bl": 1984,
      "medi": 1985,
      "Ġlog": 1986,
      "IS": 1987,
      "bug": 1988,
      "Ġanal": 1989,
      "ansp": 1990,
      "reat": 1991,
      "az": 1992,
      "body": 1993,
      "Ġorig": 1994,
      "Model": 1995,
      "ission": 1996,
      "Options": 1997,
      "21": 1998,
      "uilder": 1999,
      "leg": 2000,
      "Count": 2001,
      "Ġlarge": 2002,
      "ulation": 2003,
      "Ġinv": 2004,
      "Ġinclu": 2005,
      "mega": 2006,
      "ification": 2007,
      "});": 2008,
      "pos": 2009,
      "Ġview": 2010,
      "Ġwidth": 2011,
      "Ġdefined": 2012,
      "Call": 2013,
      "Ġsmall": 2014,
      "lp": 2015,
      "Ġsince": 2016,
      "tes": 2017,
      "psi": 2018,
      "oogle": 2019,
      "Is": 2020,
      "ten": 2021,
      "DO": 2022,
      "ĉĠ": 2023,
      "ero": 2024,
      "From": 2025,
      "Ġyears": 2026,
      "Ġmeas": 2027,
      "Ġfin": 2028,
      "Omega": 2029,
      "Ġcontent": 2030,
      "py": 2031,
      "}_{\\": 2032,
      "with": 2033,
      "aces": 2034,
      "Ġthree": 2035,
      "ctor": 2036,
      "Ġproperty": 2037,
      "Ġ($": 2038,
      "Out": 2039,
      "ottom": 2040,
      "do": 2041,
      "Ġ+=": 2042,
      "erson": 2043,
      "sqrt": 2044,
      "ĠSet": 2045,
      "current": 2046,
      ")$,": 2047,
      "ĠĠĠĠĊ": 2048,
      "\"></": 2049,
      "ector": 2050,
      "Ġspace": 2051,
      "arn": 2052,
      "60": 2053,
      "roller": 2054,
      "apache": 2055,
      "Ġrequire": 2056,
      "Ġwrit": 2057,
      "Ġsimp": 2058,
      "check": 2059,
      ")(": 2060,
      "CH": 2061,
      "Ġ${\\": 2062,
      "next": 2063,
      "ape": 2064,
      "âĢĵ": 2065,
      "ural": 2066,
      "oot": 2067,
      "idget": 2068,
      "button": 2069,
      "depend": 2070,
      "jo": 2071,
      "angu": 2072,
      "FF": 2073,
      "Ġblock": 2074,
      "23": 2075,
      "Ġuser": 2076,
      "side": 2077,
      "Ġeven": 2078,
      "Ġident": 2079,
      "rid": 2080,
      "model": 2081,
      "End": 2082,
      "dic": 2083,
      "light": 2084,
      "Function": 2085,
      "iled": 2086,
      "^*": 2087,
      "Ġvery": 2088,
      "case": 2089,
      "Message": 2090,
      "GE": 2091,
      "server": 2092,
      "annel": 2093,
      "Ġinitial": 2094,
      "Ġsol": 2095,
      "Ġmain": 2096,
      "ecut": 2097,
      "Ġdisc": 2098,
      "Ġlength": 2099,
      "ources": 2100,
      "ĠCol": 2101,
      "Ġlet": 2102,
      "Ġhere": 2103,
      "acter": 2104,
      "wit": 2105,
      "orn": 2106,
      "head": 2107,
      "AD": 2108,
      "any": 2109,
      "Ser": 2110,
      "ier": 2111,
      "context": 2112,
      "Ġpresent": 2113,
      "vare": 2114,
      "tal": 2115,
      "Gamma": 2116,
      "doc": 2117,
      "MP": 2118,
      "ponse": 2119,
      "fra": 2120,
      "non": 2121,
      "ched": 2122,
      "Ġcalled": 2123,
      "ĠFig": 2124,
      "Ġmatch": 2125,
      "ather": 2126,
      "down": 2127,
      "ilar": 2128,
      "returns": 2129,
      "uble": 2130,
      "energy": 2131,
      "ender": 2132,
      "ĉĠĠĠĠĠĠĠ": 2133,
      "--------------------------------": 2134,
      "Ġrefer": 2135,
      "child": 2136,
      "nection": 2137,
      "varepsilon": 2138,
      "tail": 2139,
      "ĠAmeric": 2140,
      "itu": 2141,
      "imation": 2142,
      "version": 2143,
      "Loc": 2144,
      "word": 2145,
      "sim": 2146,
      "Ġperform": 2147,
      "ually": 2148,
      "Ġmon": 2149,
      "~~": 2150,
      "mm": 2151,
      "ULL": 2152,
      "Ġrespect": 2153,
      "ived": 2154,
      "Ġcorrespon": 2155,
      "Ġincre": 2156,
      "ology": 2157,
      "Ġinte": 2158,
      "ches": 2159,
      "Ġexample": 2160,
      "day": 2161,
      "ĠĠĠĠĠĠĠĠĠĠ": 2162,
      "Ġway": 2163,
      "Ġcount": 2164,
      "ife": 2165,
      "Ġbool": 2166,
      "Ġexper": 2167,
      "umb": 2168,
      "ename": 2169,
      "cor": 2170,
      "hand": 2171,
      "lick": 2172,
      "Ġtry": 2173,
      "Ġrange": 2174,
      "iver": 2175,
      "graphics": 2176,
      "vice": 2177,
      "caption": 2178,
      "Ġvis": 2179,
      "]);": 2180,
      "ral": 2181,
      "desc": 2182,
      "ives": 2183,
      "Ġtitle": 2184,
      "Ġlead": 2185,
      "Sty": 2186,
      "fin": 2187,
      "Token": 2188,
      "Ġthose": 2189,
      "UN": 2190,
      "exp": 2191,
      "subsection": 2192,
      "irt": 2193,
      "spec": 2194,
      "ves": 2195,
      "Ġposs": 2196,
      "ynam": 2197,
      "way": 2198,
      "Ġtak": 2199,
      "Input": 2200,
      "Ġlevel": 2201,
      "ensure": 2202,
      "height": 2203,
      "='": 2204,
      "Ġversion": 2205,
      "chool": 2206,
      "remove": 2207,
      "Exp": 2208,
      "ables": 2209,
      "obj": 2210,
      "Trans": 2211,
      "overn": 2212,
      "mult": 2213,
      "textbf": 2214,
      "Ġdepend": 2215,
      "Ġinclude": 2216,
      "Method": 2217,
      "Ġev": 2218,
      "Ġ\\,": 2219,
      "ek": 2220,
      "ĠGL": 2221,
      "ING": 2222,
      "Ġq": 2223,
      "^{(": 2224,
      "Ġurl": 2225,
      "ĠReturn": 2226,
      "aut": 2227,
      "oper": 2228,
      "Ġreal": 2229,
      "ĠAss": 2230,
      "Ġcolor": 2231,
      "Ġbl": 2232,
      "IG": 2233,
      "opt": 2234,
      "content": 2235,
      ")=": 2236,
      "false": 2237,
      "Lo": 2238,
      "Ġret": 2239,
      "gorith": 2240,
      "quence": 2241,
      "ior": 2242,
      "Reg": 2243,
      "ifier": 2244,
      "bit": 2245,
      "bove": 2246,
      "Client": 2247,
      "tected": 2248,
      "AS": 2249,
      "Ġknow": 2250,
      "}=": 2251,
      "df": 2252,
      "itive": 2253,
      "Ġter": 2254,
      "Ġparent": 2255,
      "iversity": 2256,
      "ailable": 2257,
      "parent": 2258,
      "tric": 2259,
      "sert": 2260,
      "App": 2261,
      "Ġexist": 2262,
      "radi": 2263,
      "Ġoutput": 2264,
      "ocus": 2265,
      "icy": 2266,
      "ators": 2267,
      "}^{\\": 2268,
      "Ġpos": 2269,
      "All": 2270,
      "++)": 2271,
      "Response": 2272,
      "Ġ<<": 2273,
      "Ġmessage": 2274,
      "https": 2275,
      "Log": 2276,
      "((": 2277,
      "Manager": 2278,
      "image": 2279,
      "ait": 2280,
      "Ġintern": 2281,
      "Ġabove": 2282,
      "query": 2283,
      "ready": 2284,
      "andom": 2285,
      "Ġcur": 2286,
      "my": 2287,
      "argin": 2288,
      "ats": 2289,
      "target": 2290,
      "ES": 2291,
      "ĠIs": 2292,
      "ox": 2293,
      "title": 2294,
      "active": 2295,
      "Ġbased": 2296,
      "Ġpres": 2297,
      "ĠComp": 2298,
      "Ġbr": 2299,
      "includegraphics": 2300,
      "Ġdevelop": 2301,
      "ries": 2302,
      "Select": 2303,
      "Ġfeature": 2304,
      "Ġduring": 2305,
      "lease": 2306,
      "TH": 2307,
      "Ġlink": 2308,
      "ĠLe": 2309,
      "attern": 2310,
      "Ġdescrib": 2311,
      "outh": 2312,
      "27": 2313,
      "mat": 2314,
      "imate": 2315,
      "99": 2316,
      "ENT": 2317,
      "Ġhim": 2318,
      "anguage": 2319,
      "amily": 2320,
      "Ġvalid": 2321,
      "lish": 2322,
      "tag": 2323,
      "ret": 2324,
      "Ġmark": 2325,
      "Ġopen": 2326,
      "ĠOn": 2327,
      "AB": 2328,
      "imal": 2329,
      "ari": 2330,
      "attr": 2331,
      "Child": 2332,
      "OO": 2333,
      "ric": 2334,
      "istory": 2335,
      "rangle": 2336,
      "Color": 2337,
      "md": 2338,
      "imes": 2339,
      "0000": 2340,
      "Ġgeneral": 2341,
      "Ġundefined": 2342,
      "len": 2343,
      "Ġloc": 2344,
      "olume": 2345,
      "Status": 2346,
      "css": 2347,
      "tn": 2348,
      "Number": 2349,
      "chn": 2350,
      "Ġav": 2351,
      "igger": 2352,
      "Ġsingle": 2353,
      "Default": 2354,
      "ru": 2355,
      "vari": 2356,
      "GL": 2357,
      "Ġimplement": 2358,
      "tic": 2359,
      "andard": 2360,
      "imension": 2361,
      "info": 2362,
      "Fact": 2363,
      "Ġmade": 2364,
      "ness": 2365,
      "rightarrow": 2366,
      "Ġhttp": 2367,
      "Ġresponse": 2368,
      "Ġenergy": 2369,
      "Stream": 2370,
      "45": 2371,
      "28": 2372,
      "Util": 2373,
      "owever": 2374,
      "adding": 2375,
      "imum": 2376,
      "Ġpop": 2377,
      "anel": 2378,
      "property": 2379,
      "Ġrest": 2380,
      "oh": 2381,
      "static": 2382,
      "Ġenc": 2383,
      "Ġdid": 2384,
      "Date": 2385,
      "Ġaction": 2386,
      "[\\": 2387,
      "\\\\\\\\": 2388,
      "Ġbuild": 2389,
      "Ġborder": 2390,
      "orth": 2391,
      "ale": 2392,
      "varphi": 2393,
      "''": 2394,
      "Style": 2395,
      "Ġchang": 2396,
      "db": 2397,
      "Ġden": 2398,
      "Sub": 2399,
      "lib": 2400,
      "option": 2401,
      "Ġparameters": 2402,
      "Ġstyle": 2403,
      "Ġarguments": 2404,
      "Ġobj": 2405,
      "geq": 2406,
      "Ġmeasure": 2407,
      "198": 2408,
      "omain": 2409,
      "exports": 2410,
      "Ġimage": 2411,
      "Width": 2412,
      "Ġmass": 2413,
      "loy": 2414,
      "erence": 2415,
      ".âĢĿ": 2416,
      "Table": 2417,
      "Ġaddition": 2418,
      "](": 2419,
      "Ġdeter": 2420,
      "And": 2421,
      "Attribute": 2422,
      "core": 2423,
      "si": 2424,
      "lugin": 2425,
      "ĠĠĠĠĠĠĠĠĠĠĠĠĠĠĠĠĠ": 2426,
      "www": 2427,
      "ah": 2428,
      "lim": 2429,
      "75": 2430,
      "ateg": 2431,
      "alth": 2432,
      "gram": 2433,
      "ets": 2434,
      "vec": 2435,
      "Ġwithout": 2436,
      "xy": 2437,
      "Comm": 2438,
      "}).": 2439,
      "Image": 2440,
      "Ġitem": 2441,
      "ique": 2442,
      "Ġrece": 2443,
      "HT": 2444,
      "inary": 2445,
      "proof": 2446,
      "emph": 2447,
      "ĠObject": 2448,
      "./": 2449,
      "Ġpass": 2450,
      "!--": 2451,
      "null": 2452,
      "Ġwant": 2453,
      "Ġsection": 2454,
      "ĉĊ": 2455,
      "chi": 2456,
      "Big": 2457,
      "(_": 2458,
      "ination": 2459,
      "Ġop": 2460,
      "26": 2461,
      "lot": 2462,
      "irtual": 2463,
      "Ġmode": 2464,
      "If": 2465,
      "atter": 2466,
      "Ġchange": 2467,
      "acy": 2468,
      "filter": 2469,
      "udi": 2470,
      "Ġcomput": 2471,
      "Ġwindow": 2472,
      "orage": 2473,
      "ĠTest": 2474,
      "Ġnetwork": 2475,
      "Ġwithin": 2476,
      "urity": 2477,
      "ĠThere": 2478,
      "90": 2479,
      "....": 2480,
      "Ġlook": 2481,
      "ĠAnd": 2482,
      "Handler": 2483,
      "urther": 2484,
      "ĠComm": 2485,
      "Ġlen": 2486,
      "ds": 2487,
      "ĉĠĠĠĠĠĠĠĠĠĠĠ": 2488,
      "cul": 2489,
      "iron": 2490,
      "init": 2491,
      "ances": 2492,
      "Ġown": 2493,
      "gress": 2494,
      "Ġdat": 2495,
      "Ġelements": 2496,
      "oun": 2497,
      "Source": 2498,
      "ival": 2499,
      "alk": 2500,
      "gn": 2501,
      "Base": 2502,
      "append": 2503,
      "Ġold": 2504,
      "Ġsum": 2505,
      "Ġexpected": 2506,
      "require": 2507,
      "request": 2508,
      "Ġsat": 2509,
      "last": 2510,
      ".~\\": 2511,
      "rodu": 2512,
      "Ġappe": 2513,
      "rows": 2514,
      "ysis": 2515,
      "soft": 2516,
      "Ġclo": 2517,
      "Line": 2518,
      "Cell": 2519,
      "Ġam": 2520,
      "overline": 2521,
      "structor": 2522,
      "Ext": 2523,
      "ĠSystem": 2524,
      "ither": 2525,
      "####": 2526,
      "Ġdown": 2527,
      "frame": 2528,
      "draw": 2529,
      "Ġbeh": 2530,
      "NS": 2531,
      "ns": 2532,
      "args": 2533,
      "ĠĠĠĠĠĠĠĠĠĠĠĠĠĠĠĠĠĠĠĠĠĠĠĠĠĠĠĠĠĠĠ": 2534,
      "Ġocc": 2535,
      "ivity": 2536,
      "ithub": 2537,
      "ributes": 2538,
      "dir": 2539,
      "hether": 2540,
      "Ġprevious": 2541,
      "Instance": 2542,
      ".\"": 2543,
      "iple": 2544,
      "iod": 2545,
      "Ġproject": 2546,
      "inc": 2547,
      "stru": 2548,
      "expect": 2549,
      "romise": 2550,
      "Ġparticular": 2551,
      "Ġfunctions": 2552,
      "efore": 2553,
      "Ġproperties": 2554,
      "Ġmag": 2555,
      "Ġgu": 2556,
      "IP": 2557,
      "ibr": 2558,
      "page": 2559,
      "Ġstd": 2560,
      "ĠTo": 2561,
      "Ġcoun": 2562,
      "EX": 2563,
      "=\"../../": 2564,
      "hold": 2565,
      "Ġjava": 2566,
      "come": 2567,
      "Equal": 2568,
      "display": 2569,
      "ware": 2570,
      "ways": 2571,
      "Ġheight": 2572,
      "dt": 2573,
      "IL": 2574,
      "rl": 2575,
      "ead": 2576,
      "&\\": 2577,
      "CE": 2578,
      "Content": 2579,
      "bs": 2580,
      "Ġtable": 2581,
      "ĠRes": 2582,
      "Ġmuch": 2583,
      "ted": 2584,
      "signed": 2585,
      "prop": 2586,
      "ood": 2587,
      "client": 2588,
      "66": 2589,
      "ately": 2590,
      "Ġsrc": 2591,
      "Ġ((": 2592,
      "Ġspecified": 2593,
      "ience": 2594,
      "number": 2595,
      "Block": 2596,
      "icense": 2597,
      "bolds": 2598,
      "pose": 2599,
      "ene": 2600,
      "Ġworld": 2601,
      "Buffer": 2602,
      "frak": 2603,
      "json": 2604,
      "ters": 2605,
      "35": 2606,
      ".}": 2607,
      "boldsymbol": 2608,
      "It": 2609,
      "Parameter": 2610,
      "cap": 2611,
      "duct": 2612,
      "Resource": 2613,
      "lit": 2614,
      "][": 2615,
      "using": 2616,
      "ptr": 2617,
      "rel": 2618,
      "gest": 2619,
      "aper": 2620,
      "Ġdon": 2621,
      "ĠNULL": 2622,
      "Component": 2623,
      "find": 2624,
      "70": 2625,
      "Ġboolean": 2626,
      ")^": 2627,
      "uck": 2628,
      "Null": 2629,
      ">(": 2630,
      "orph": 2631,
      "Ġframe": 2632,
      "mod": 2633,
      "Ġproblem": 2634,
      "ensity": 2635,
      "Imp": 2636,
      "Sp": 2637,
      "Start": 2638,
      "github": 2639,
      "Ġpower": 2640,
      "Ġlaw": 2641,
      "Ġoriginal": 2642,
      "]$": 2643,
      "YPE": 2644,
      "Length": 2645,
      "Ġver": 2646,
      "Let": 2647,
      "gorithm": 2648,
      "lice": 2649,
      "Ġconf": 2650,
      "arning": 2651,
      "Ġfollows": 2652,
      "ands": 2653,
      "Ġstill": 2654,
      "Ġcontrol": 2655,
      "2015": 2656,
      "},\\": 2657,
      "29": 2658,
      "Ġincluding": 2659,
      "Ġargs": 2660,
      "US": 2661,
      "char": 2662,
      "Row": 2663,
      "Point": 2664,
      "Ġsimilar": 2665,
      "Ġdefine": 2666,
      "Filter": 2667,
      "unk": 2668,
      "can": 2669,
      "Ġsuper": 2670,
      "Ġshown": 2671,
      "reen": 2672,
      "Ġsuccess": 2673,
      "lt": 2674,
      "JS": 2675,
      "eps": 2676,
      "AME": 2677,
      "riter": 2678,
      "Ġelect": 2679,
      "OT": 2680,
      "flow": 2681,
      "Ġspect": 2682,
      "package": 2683,
      "sing": 2684,
      "wise": 2685,
      "Ġpoints": 2686,
      "ĠUniversity": 2687,
      "Ġcommun": 2688,
      "lang": 2689,
      "Override": 2690,
      "Ed": 2691,
      "ole": 2692,
      "Ġlabel": 2693,
      "Ġassoci": 2694,
      "hline": 2695,
      "Ġlimit": 2696,
      "izer": 2697,
      "Ġredu": 2698,
      "ording": 2699,
      "Ġgra": 2700,
      "Ġquant": 2701,
      "viron": 2702,
      "offset": 2703,
      "Ġ[]": 2704,
      "Ġpost": 2705,
      "raint": 2706,
      "Ġcharacter": 2707,
      "sw": 2708,
      ":\"": 2709,
      "Ġtotal": 2710,
      "Builder": 2711,
      "User": 2712,
      "HE": 2713,
      "Ġpossible": 2714,
      "Collection": 2715,
      "Ġagainst": 2716,
      "ij": 2717,
      "Ġ]": 2718,
      "Ġear": 2719,
      "ond": 2720,
      "valu": 2721,
      "Ġhelp": 2722,
      "alle": 2723,
      "Ġca": 2724,
      "bind": 2725,
      "Ġcolumn": 2726,
      "Ġtake": 2727,
      "mathfrak": 2728,
      "}}$": 2729,
      "ison": 2730,
      "Ã©": 2731,
      "amples": 2732,
      "arr": 2733,
      "Ġtri": 2734,
      "Lay": 2735,
      "Ġclear": 2736,
      "adata": 2737,
      "rec": 2738,
      "Oper": 2739,
      "Ġmodels": 2740,
      "circ": 2741,
      "Tag": 2742,
      "vis": 2743,
      "Ġbro": 2744,
      "vest": 2745,
      "isf": 2746,
      "Frame": 2747,
      "Ġmethods": 2748,
      "items": 2749,
      "lin": 2750,
      "ended": 2751,
      "Ġrema": 2752,
      "icro": 2753,
      "Ġet": 2754,
      "witch": 2755,
      "first": 2756,
      "verse": 2757,
      "Ġsequence": 2758,
      "private": 2759,
      "gener": 2760,
      "ges": 2761,
      "ibility": 2762,
      "Ġdue": 2763,
      "ored": 2764,
      "ldots": 2765,
      "src": 2766,
      "2016": 2767,
      "Ġquery": 2768,
      "update": 2769,
      "langle": 2770,
      "Ġserv": 2771,
      "refix": 2772,
      "Lambda": 2773,
      "ymme": 2774,
      "Ġsche": 2775,
      "google": 2776,
      "Ġterms": 2777,
      "Dec": 2778,
      "Ġoption": 2779,
      "01": 2780,
      "Ġinterest": 2781,
      "2014": 2782,
      "yc": 2783,
      "namespace": 2784,
      "Str": 2785,
      "Ġfour": 2786,
      "Ġder": 2787,
      "Ġavailable": 2788,
      "Gener": 2789,
      "Ġrequired": 2790,
      "}),": 2791,
      "Ġcollection": 2792,
      "Ġfilter": 2793,
      "abase": 2794,
      ",\"": 2795,
      "Ġiss": 2796,
      "Ġuint": 2797,
      "Ġmak": 2798,
      "parse": 2799,
      "write": 2800,
      "Ġplace": 2801,
      "Ġradi": 2802,
      "Ġstructure": 2803,
      "Ġjo": 2804,
      "Ass": 2805,
      "Ġsk": 2806,
      "ĠBy": 2807,
      "2019": 2808,
      "local": 2809,
      "Ad": 2810,
      "Ġiter": 2811,
      "hip": 2812,
      "Ġseries": 2813,
      "lied": 2814,
      "Ġ{@": 2815,
      "tex": 2816,
      "toc": 2817,
      "print": 2818,
      "cer": 2819,
      "olve": 2820,
      "34": 2821,
      "ĠÐ": 2822,
      "Ġalready": 2823,
      "Rec": 2824,
      ".\\": 2825,
      "appa": 2826,
      "Ġlay": 2827,
      "Ġaround": 2828,
      "lat": 2829,
      "verage": 2830,
      "Ġknown": 2831,
      "ĠSc": 2832,
      "ital": 2833,
      "Ġ``": 2834,
      "Ġprom": 2835,
      "Ġgraph": 2836,
      "Ġmatrix": 2837,
      "2017": 2838,
      "typeof": 2839,
      "endif": 2840,
      "sl": 2841,
      "2018": 2842,
      "Cache": 2843,
      "Ġupdate": 2844,
      "ĠHowever": 2845,
      "ĠReg": 2846,
      "ending": 2847,
      "ĠThen": 2848,
      "pol": 2849,
      "header": 2850,
      "Ġregion": 2851,
      "luster": 2852,
      "_.": 2853,
      "Window": 2854,
      "rowser": 2855,
      "Ġgood": 2856,
      "kit": 2857,
      "Ġdisplay": 2858,
      "Height": 2859,
      "ATE": 2860,
      "Ġservice": 2861,
      "otential": 2862,
      "mail": 2863,
      "Phi": 2864,
      "ypes": 2865,
      "ee": 2866,
      "ĉĠĠĠĠĠ": 2867,
      "55": 2868,
      "Ġdistribution": 2869,
      "kappa": 2870,
      "ĠPar": 2871,
      "ony": 2872,
      "Ġfull": 2873,
      "/\\": 2874,
      "OP": 2875,
      "Offset": 2876,
      "UI": 2877,
      "Version": 2878,
      "ategory": 2879,
      "af": 2880,
      "Ġemp": 2881,
      "ĠIN": 2882,
      "Ġgovern": 2883,
      "\\|": 2884,
      "container": 2885,
      "ĠEn": 2886,
      "ĠReturns": 2887,
      "Ġevents": 2888,
      "hes": 2889,
      "ĠĠĠĠĠĠĠĠĠĠĠĠĠĠ": 2890,
      "Json": 2891,
      "Ð°": 2892,
      "Ġ-->": 2893,
      "ordin": 2894,
      "otimes": 2895,
      "istic": 2896,
      "dependent": 2897,
      "bra": 2898,
      "Ġpage": 2899,
      "Read": 2900,
      "sf": 2901,
      "match": 2902,
      "Ġindic": 2903,
      "ii": 2904,
      "lished": 2905,
      "ires": 2906,
      "Ġcar": 2907,
      "open": 2908,
      "btn": 2909,
      "Ġhead": 2910,
      "OM": 2911,
      "lies": 2912,
      "Spec": 2913,
      "semb": 2914,
      "ailed": 2915,
      "Ġmov": 2916,
      "Ġ{};": 2917,
      "jor": 2918,
      "Ġnormal": 2919,
      "ĠAdd": 2920,
      "uary": 2921,
      "Equals": 2922,
      "mbox": 2923,
      "Listener": 2924,
      "nab": 2925,
      "mt": 2926,
      "UE": 2927,
      "Ġrule": 2928,
      "([": 2929,
      "Ġreport": 2930,
      "////////////////": 2931,
      "ury": 2932,
      "48": 2933,
      "Case": 2934,
      "Ġmean": 2935,
      "lags": 2936,
      "gt": 2937,
      "ĠDef": 2938,
      "ĠInd": 2939,
      "cast": 2940,
      "column": 2941,
      "irection": 2942,
      "Ġreturns": 2943,
      "Ġcour": 2944,
      "URL": 2945,
      "bottom": 2946,
      "ety": 2947,
      "CK": 2948,
      "pc": 2949,
      "2013": 2950,
      "off": 2951,
      "struction": 2952,
      "Ġgr": 2953,
      "ĉĉĉĉĉĉĉ": 2954,
      "AP": 2955,
      "âĢľ": 2956,
      "sole": 2957,
      "Ġclose": 2958,
      "ration": 2959,
      "citep": 2960,
      "Ġoffset": 2961,
      "Ġes": 2962,
      "aterial": 2963,
      "Ġtask": 2964,
      "Ġside": 2965,
      "ĠPh": 2966,
      "ĠArray": 2967,
      "omen": 2968,
      "Ġcopy": 2969,
      "split": 2970,
      "Factory": 2971,
      "Ġsever": 2972,
      "ideo": 2973,
      "licit": 2974,
      "36": 2975,
      "ession": 2976,
      "tool": 2977,
      "ĠAmerican": 2978,
      "Ġdiv": 2979,
      "untime": 2980,
      "Ġbas": 2981,
      "Ġaccess": 2982,
      "Ġwhether": 2983,
      "DI": 2984,
      "').": 2985,
      "uture": 2986,
      "Format": 2987,
      "atrix": 2988,
      "host": 2989,
      "Ġanother": 2990,
      "ĠAd": 2991,
      "Ġglobal": 2992,
      "go": 2993,
      "Be": 2994,
      "aded": 2995,
      "idden": 2996,
      "lip": 2997,
      "Ġgame": 2998,
      "ensuremath": 2999,
      "38": 3000,
      "aving": 3001,
      "Ġabs": 3002,
      "Ġshows": 3003,
      "ERT": 3004,
      "run": 3005,
      "Ġsatisf": 3006,
      "Ġperson": 3007,
      "Ġterm": 3008,
      "window": 3009,
      "ĠOr": 3010,
      "iff": 3011,
      "stro": 3012,
      "Mem": 3013,
      "vider": 3014,
      "change": 3015,
      "ĠList": 3016,
      "No": 3017,
      "})$": 3018,
      "Check": 3019,
      ";&": 3020,
      "Ġinf": 3021,
      "lev": 3022,
      "Ġbest": 3023,
      "rapper": 3024,
      "des": 3025,
      "Ġassume": 3026,
      "vironment": 3027,
      "Ġtechn": 3028,
      "ached": 3029,
      "ĠWh": 3030,
      "acity": 3031,
      "png": 3032,
      "nabla": 3033,
      "ensions": 3034,
      "onents": 3035,
      "Ġcap": 3036,
      "Ġtag": 3037,
      "oding": 3038,
      "sg": 3039,
      "Ġcontinu": 3040,
      "39": 3041,
      "TP": 3042,
      "Ġeither": 3043,
      "\\[": 3044,
      "ict": 3045,
      "ERR": 3046,
      "textit": 3047,
      "ially": 3048,
      "ograph": 3049,
      "Desc": 3050,
      "Web": 3051,
      "Ġstates": 3052,
      "Ġfail": 3053,
      "status": 3054,
      "ĠNo": 3055,
      "example": 3056,
      "Hel": 3057,
      ",âĢĿ": 3058,
      "Ð¾": 3059,
      "Sc": 3060,
      "'),": 3061,
      "Range": 3062,
      "vas": 3063,
      "FI": 3064,
      "ensor": 3065,
      "scope": 3066,
      "Ġlinear": 3067,
      "php": 3068,
      "Ġke": 3069,
      "quot": 3070,
      "=\"+": 3071,
      "MS": 3072,
      "alf": 3073,
      "ised": 3074,
      "Ġmedi": 3075,
      "scale": 3076,
      "AA": 3077,
      "clus": 3078,
      "Page": 3079,
      "2012": 3080,
      "Ġ[];": 3081,
      "xml": 3082,
      "dom": 3083,
      "Ġ->": 3084,
      "Module": 3085,
      "197": 3086,
      "?:": 3087,
      "ging": 3088,
      "Ġprovided": 3089,
      "tocol": 3090,
      "ĠAll": 3091,
      "CON": 3092,
      "Create": 3093,
      "Ġconstant": 3094,
      "Ġcomponent": 3095,
      "tx": 3096,
      "Label": 3097,
      "ina": 3098,
      "Ġge": 3099,
      "ĠUnited": 3100,
      "Ġstudy": 3101,
      "Valid": 3102,
      "ird": 3103,
      "buf": 3104,
      "OS": 3105,
      ">>": 3106,
      "only": 3107,
      "ention": 3108,
      "Ġclient": 3109,
      "TD": 3110,
      "description": 3111,
      "fill": 3112,
      "Ġlater": 3113,
      "Ġwrite": 3114,
      "Ġimportant": 3115,
      "Ġphase": 3116,
      "Callback": 3117,
      "ohn": 3118,
      "Ġcell": 3119,
      "root": 3120,
      "Ġinternal": 3121,
      "Ġcorresponding": 3122,
      "Ġcomb": 3123,
      "}}{": 3124,
      "Part": 3125,
      "Ġtransp": 3126,
      "Ġalong": 3127,
      "cell": 3128,
      "Mode": 3129,
      "posed": 3130,
      "nonumber": 3131,
      "Ġscal": 3132,
      "Ġobjects": 3133,
      "Container": 3134,
      "Ġmove": 3135,
      "Pre": 3136,
      "rist": 3137,
      "Ġpair": 3138,
      "Ġroot": 3139,
      "ialog": 3140,
      "ĠCan": 3141,
      "31": 3142,
      "tax": 3143,
      "Ġleg": 3144,
      "omic": 3145,
      "Pol": 3146,
      "Ġcomplet": 3147,
      "IM": 3148,
      "build": 3149,
      "\\%": 3150,
      "\").": 3151,
      "44": 3152,
      "Ġexists": 3153,
      "usic": 3154,
      "Sigma": 3155,
      "inst": 3156,
      "Ġspe": 3157,
      "ĠYou": 3158,
      "Ġpotential": 3159,
      "Sup": 3160,
      "iment": 3161,
      "Action": 3162,
      "Url": 3163,
      "Ġ~": 3164,
      "ĠMar": 3165,
      "iness": 3166,
      "small": 3167,
      "oment": 3168,
      "ĠRo": 3169,
      "mission": 3170,
      "Ġstrong": 3171,
      "Ġ\"\"\"": 3172,
      "font": 3173,
      "Ġstandard": 3174,
      "teger": 3175,
      "Ġalways": 3176,
      "oice": 3177,
      "ĠLet": 3178,
      "Ġscale": 3179,
      "ĠSo": 3180,
      "template": 3181,
      "Types": 3182,
      "Ġ>=": 3183,
      "Ġdetail": 3184,
      "05": 3185,
      "Ġsay": 3186,
      "Ġide": 3187,
      "ĠAt": 3188,
      "ev": 3189,
      "lap": 3190,
      "\".": 3191,
      "format": 3192,
      "fficient": 3193,
      "expected": 3194,
      "uro": 3195,
      "foot": 3196,
      "Ġintegr": 3197,
      "Ðµ": 3198,
      "Ġless": 3199,
      "now": 3200,
      "Ġvector": 3201,
      "2011": 3202,
      "37": 3203,
      "ls": 3204,
      "Ġload": 3205,
      "ssion": 3206,
      "Ġthink": 3207,
      "foo": 3208,
      "idual": 3209,
      "Ġfree": 3210,
      "nown": 3211,
      "uman": 3212,
      "ĠBut": 3213,
      "assed": 3214,
      "anch": 3215,
      "apply": 3216,
      "xis": 3217,
      "Ġintrodu": 3218,
      "Ġsolution": 3219,
      "(&": 3220,
      "Ġfields": 3221,
      "[\"": 3222,
      "erences": 3223,
      "asing": 3224,
      "Ġnear": 3225,
      "rule": 3226,
      ">&": 3227,
      "ustr": 3228,
      "Ġprotected": 3229,
      "params": 3230,
      "callback": 3231,
      "illi": 3232,
      "Ġinvest": 3233,
      "Ġremove": 3234,
      "\"),": 3235,
      "Ġlife": 3236,
      "fn": 3237,
      "Ġproduct": 3238,
      "Bar": 3239,
      "dat": 3240,
      "Ġcontains": 3241,
      "ET": 3242,
      "ĠShe": 3243,
      "Ġcalcul": 3244,
      "Ġfamily": 3245,
      "je": 3246,
      "Ġindu": 3247,
      "Ġdone": 3248,
      "Ġart": 3249,
      "ged": 3250,
      "Met": 3251,
      "Ġobtained": 3252,
      "menu": 3253,
      "bul": 3254,
      "Const": 3255,
      "Ġcatch": 3256,
      "Ġport": 3257,
      "Ġbook": 3258,
      "ram": 3259,
      "Ġfore": 3260,
      "apping": 3261,
      "Ġmargin": 3262,
      "\\!": 3263,
      "ĠEng": 3264,
      "illion": 3265,
      "Ġleast": 3266,
      "sm": 3267,
      "Task": 3268,
      "ĠUS": 3269,
      "{}": 3270,
      "\"]": 3271,
      "True": 3272,
      "aster": 3273,
      "Ġshort": 3274,
      "ball": 3275,
      "arm": 3276,
      "java": 3277,
      "cit": 3278,
      "INT": 3279,
      "ĠApp": 3280,
      "Ġcomplex": 3281,
      "Ġperiod": 3282,
      "itut": 3283,
      "rypt": 3284,
      "else": 3285,
      "Ġstatus": 3286,
      "uint": 3287,
      "Ġresource": 3288,
      "AM": 3289,
      "ĠHT": 3290,
      "Ġuntil": 3291,
      "Target": 3292,
      "mount": 3293,
      "2010": 3294,
      "Act": 3295,
      "Char": 3296,
      "Ġoperator": 3297,
      "}-": 3298,
      "Ġschool": 3299,
      "Ġhome": 3300,
      "Ġthrows": 3301,
      "SP": 3302,
      "Ġrandom": 3303,
      "Ġdefinition": 3304,
      "TO": 3305,
      "Ġtimes": 3306,
      ":(": 3307,
      "\\]": 3308,
      "instance": 3309,
      "CC": 3310,
      "replace": 3311,
      "ĠErr": 3312,
      "dots": 3313,
      "post": 3314,
      "Ġformat": 3315,
      "Next": 3316,
      "ĠThey": 3317,
      "Ġapply": 3318,
      "Ġrender": 3319,
      "Interface": 3320,
      "Ġ$.": 3321,
      "une": 3322,
      "Ġconnect": 3323,
      "Ġseveral": 3324,
      "process": 3325,
      "Ġzero": 3326,
      "Ġdensity": 3327,
      "stream": 3328,
      "Output": 3329,
      "Ġpack": 3330,
      "Ġexecut": 3331,
      "FA": 3332,
      "Link": 3333,
      "Ġmeans": 3334,
      "ĠJS": 3335,
      "ĠFr": 3336,
      "Column": 3337,
      "ĠMath": 3338,
      "Ġhost": 3339,
      "show": 3340,
      "Ġpaper": 3341,
      "Ġdiff": 3342,
      "Ġextends": 3343,
      "Ġbody": 3344,
      "EL": 3345,
      "II": 3346,
      "widetilde": 3347,
      "yntax": 3348,
      "command": 3349,
      "Ġinterface": 3350,
      "oto": 3351,
      "android": 3352,
      "Ġdeterm": 3353,
      "Ġapprox": 3354,
      "{-": 3355,
      "tle": 3356,
      "ĉĉĉĉĉĉĉĉ": 3357,
      "Ġlower": 3358,
      "=\"#": 3359,
      "Ġchildren": 3360,
      "Ġday": 3361,
      "Ġnone": 3362,
      "Ġconditions": 3363,
      "Ġorgan": 3364,
      "Aut": 3365,
      "su": 3366,
      "Position": 3367,
      "rain": 3368,
      "van": 3369,
      "Ġprop": 3370,
      "ĠSp": 3371,
      "Fe": 3372,
      "used": 3373,
      "Ġequation": 3374,
      "output": 3375,
      "Button": 3376,
      "each": 3377,
      "Ġbehav": 3378,
      "response": 3379,
      "Ġrow": 3380,
      "document": 3381,
      "PRO": 3382,
      "Fig": 3383,
      "Ġstep": 3384,
      "Ġsearch": 3385,
      "mbers": 3386,
      "Ġcirc": 3387,
      "skip": 3388,
      "urch": 3389,
      "Ġcare": 3390,
      "Ġbus": 3391,
      "Ġbuffer": 3392,
      "ĠState": 3393,
      "Ġanalysis": 3394,
      "Ġassociated": 3395,
      "Ġsepar": 3396,
      "TYPE": 3397,
      "render": 3398,
      "Top": 3399,
      "ĠWhen": 3400,
      "Ġsets": 3401,
      "Ġneg": 3402,
      "Ġdate": 3403,
      "Ġfew": 3404,
      "ĠĠĠĠĠĠĠĠĊ": 3405,
      "Ġturn": 3406,
      "aint": 3407,
      "NO": 3408,
      "Ġserver": 3409,
      "ĠEX": 3410,
      "Update": 3411,
      "iction": 3412,
      "Ġcases": 3413,
      "inner": 3414,
      "65": 3415,
      "izing": 3416,
      "amil": 3417,
      "stract": 3418,
      "Ġperformance": 3419,
      "Ġflu": 3420,
      "prime": 3421,
      "ĠAPI": 3422,
      "Sche": 3423,
      "istent": 3424,
      "drop": 3425,
      "sche": 3426,
      "ĠStates": 3427,
      "Controller": 3428,
      "ocket": 3429,
      "Ġpredi": 3430,
      "Ġdynam": 3431,
      "Ġtheory": 3432,
      "Ġsignific": 3433,
      "bb": 3434,
      "Ġrate": 3435,
      "Rep": 3436,
      "eded": 3437,
      "under": 3438,
      "zeta": 3439,
      "BU": 3440,
      "Ġcustom": 3441,
      "Ġaddress": 3442,
      "67": 3443,
      "Ġput": 3444,
      "wards": 3445,
      "Ġfont": 3446,
      "ĠLicense": 3447,
      "ving": 3448,
      "ocial": 3449,
      "webkit": 3450,
      "Ġinstead": 3451,
      "book": 3452,
      "ium": 3453,
      "Ġaccount": 3454,
      "Ġspecific": 3455,
      "ecess": 3456,
      "ites": 3457,
      "els": 3458,
      "ctx": 3459,
      "Ġarea": 3460,
      "stand": 3461,
      "operator": 3462,
      "\\{": 3463,
      "SC": 3464,
      "ai": 3465,
      "level": 3466,
      "apter": 3467,
      ")]": 3468,
      "********************************": 3469,
      "centering": 3470,
      "Ġmem": 3471,
      "Ġtypes": 3472,
      "ĠGe": 3473,
      "Ġspecial": 3474,
      "Ġfurther": 3475,
      "abs": 3476,
      "mar": 3477,
      "Ġtransform": 3478,
      "Ġbelow": 3479,
      "stack": 3480,
      "ĠâĢĶ": 3481,
      "uler": 3482,
      "ases": 3483,
      "Cl": 3484,
      "=\"../": 3485,
      "VER": 3486,
      "Ġrecent": 3487,
      "ĠMan": 3488,
      "Ġcreated": 3489,
      "Ġquest": 3490,
      "Ġsimple": 3491,
      "which": 3492,
      "Ġtemplate": 3493,
      "pth": 3494,
      "std": 3495,
      "ably": 3496,
      "ilt": 3497,
      "}+": 3498,
      "dist": 3499,
      "cache": 3500,
      "`.": 3501,
      "Ġreco": 3502,
      "ley": 3503,
      "Ġapproach": 3504,
      "cat": 3505,
      "ĠID": 3506,
      "olved": 3507,
      "ressed": 3508,
      "Ġexpl": 3509,
      "Ġscope": 3510,
      "Ġeas": 3511,
      "ĠFe": 3512,
      "Ġcr": 3513,
      "ĠType": 3514,
      "MO": 3515,
      "long": 3516,
      "Ġparse": 3517,
      "Ġplan": 3518,
      ";</": 3519,
      "close": 3520,
      "join": 3521,
      "Temp": 3522,
      "ĠSup": 3523,
      "Header": 3524,
      "Box": 3525,
      "Ġfilm": 3526,
      "tri": 3527,
      "Ġargument": 3528,
      "mid": 3529,
      "aced": 3530,
      "igation": 3531,
      "Ġcontribut": 3532,
      ";\\": 3533,
      "Ġprogram": 3534,
      "Ġoperation": 3535,
      "ĠCal": 3536,
      "uk": 3537,
      "river": 3538,
      "enter": 3539,
      "tml": 3540,
      "allel": 3541,
      "oriz": 3542,
      "Ġproof": 3543,
      "Ġtransition": 3544,
      "Ġrelations": 3545,
      "Ġauthor": 3546,
      "parameter": 3547,
      "Ġmight": 3548,
      "Ġcref": 3549,
      "ĠThese": 3550,
      "SI": 3551,
      "Ġresearch": 3552,
      "heet": 3553,
      "Ġcompar": 3554,
      "ĠMay": 3555,
      "values": 3556,
      "num": 3557,
      "Obj": 3558,
      "Ġempty": 3559,
      "Ġimpro": 3560,
      "Run": 3561,
      "Ġstream": 3562,
      "ĠDo": 3563,
      "Ġcoup": 3564,
      "Hash": 3565,
      "background": 3566,
      "Rem": 3567,
      "emma": 3568,
      "Document": 3569,
      "Ġlines": 3570,
      "Ġpassed": 3571,
      "Ġcenter": 3572,
      "meta": 3573,
      ")=\\": 3574,
      "Ġrespectively": 3575,
      "strong": 3576,
      "Ġequal": 3577,
      "Ġgovernment": 3578,
      "ories": 3579,
      "ade": 3580,
      "aged": 3581,
      "ips": 3582,
      "Max": 3583,
      "RL": 3584,
      "Ġcannot": 3585,
      "Ġphys": 3586,
      "Ġvia": 3587,
      "Ġ&=": 3588,
      "Ġmer": 3589,
      "ertain": 3590,
      "ĠTheorem": 3591,
      "Per": 3592,
      "ĠPol": 3593,
      "Ġpolit": 3594,
      "Ġtypeof": 3595,
      "omorph": 3596,
      "Ġ;": 3597,
      "Back": 3598,
      "empty": 3599,
      "Timeout": 3600,
      "should": 3601,
      "itude": 3602,
      "Ġtoo": 3603,
      "Ġrespon": 3604,
      "Ġdeg": 3605,
      "unit": 3606,
      "adow": 3607,
      "Ag": 3608,
      "tabular": 3609,
      "buffer": 3610,
      "Ð¸": 3611,
      "ĠCheck": 3612,
      "uggest": 3613,
      "Ġlight": 3614,
      "Ġhapp": 3615,
      "(-": 3616,
      "rest": 3617,
      "ĠJohn": 3618,
      "ĠGener": 3619,
      ")</": 3620,
      "Dep": 3621,
      "Min": 3622,
      "ops": 3623,
      "âĢĶ": 3624,
      "}=\\": 3625,
      "oke": 3626,
      "ursor": 3627,
      "utils": 3628,
      "Ġla": 3629,
      "04": 3630,
      "Ġtrack": 3631,
      "Render": 3632,
      "ias": 3633,
      "ological": 3634,
      "ze": 3635,
      "88": 3636,
      "Ġdiag": 3637,
      "2009": 3638,
      "float": 3639,
      "Ġrole": 3640,
      "DF": 3641,
      "Ġdel": 3642,
      "ABLE": 3643,
      "ied": 3644,
      "ĠEq": 3645,
      "acing": 3646,
      "Ġalgorithm": 3647,
      "ba": 3648,
      "Match": 3649,
      "patch": 3650,
      ")}\\": 3651,
      "thm": 3652,
      "tree": 3653,
      "Write": 3654,
      "Return": 3655,
      "Ġreference": 3656,
      "erature": 3657,
      "Ġcontainer": 3658,
      "Ġchannel": 3659,
      "ians": 3660,
      "gether": 3661,
      "DB": 3662,
      "ament": 3663,
      "Ġweight": 3664,
      "CL": 3665,
      "Ġestab": 3666,
      "Ġred": 3667,
      "Ġfixed": 3668,
      "Ġnodes": 3669,
      "ped": 3670,
      "istry": 3671,
      "Ġhandle": 3672,
      "Ġbetter": 3673,
      "Ġdr": 3674,
      "Ġreturned": 3675,
      "ĠTe": 3676,
      "Ġ{}": 3677,
      "izes": 3678,
      "sel": 3679,
      "normal": 3680,
      "Ġbu": 3681,
      "Ġpadding": 3682,
      "Ġmot": 3683,
      "Left": 3684,
      "ĠCar": 3685,
      "Ġparams": 3686,
      "Ġpub": 3687,
      "ths": 3688,
      "Ġsystems": 3689,
      "Ġcache": 3690,
      "///": 3691,
      "transform": 3692,
      "Ġmajor": 3693,
      "anged": 3694,
      "atio": 3695,
      "rem": 3696,
      "undle": 3697,
      "Ġrecord": 3698,
      "break": 3699,
      "Ġinit": 3700,
      "02": 3701,
      "Provider": 3702,
      "ks": 3703,
      "Ġapi": 3704,
      "Ġstrict": 3705,
      "ĠSection": 3706,
      "Ġindiv": 3707,
      "agement": 3708,
      "main": 3709,
      "Ġestim": 3710,
      "=\"../../../../": 3711,
      "ibrary": 3712,
      "49": 3713,
      "Ġins": 3714,
      "ĠAssert": 3715,
      "umpt": 3716,
      ")^{": 3717,
      "Ġhash": 3718,
      "cho": 3719,
      "pdf": 3720,
      "Ġremo": 3721,
      "API": 3722,
      "Ġvirtual": 3723,
      "Ġsupp": 3724,
      "sv": 3725,
      "mode": 3726,
      "EE": 3727,
      "Ġbit": 3728,
      "UM": 3729,
      "iving": 3730,
      "sa": 3731,
      "IO": 3732,
      "actions": 3733,
      "Psi": 3734,
      "Ġsignificant": 3735,
      "second": 3736,
      "Server": 3737,
      "formed": 3738,
      "Access": 3739,
      "range": 3740,
      "most": 3741,
      "Ġadded": 3742,
      "Ġreason": 3743,
      "alt": 3744,
      "}/": 3745,
      "47": 3746,
      "References": 3747,
      "entry": 3748,
      "oll": 3749,
      "ql": 3750,
      "Ġsm": 3751,
      "icker": 3752,
      "NAME": 3753,
      "cur": 3754,
      "Ġattribute": 3755,
      "Wh": 3756,
      "ĠSee": 3757,
      "Command": 3758,
      "imer": 3759,
      "unded": 3760,
      "urb": 3761,
      "ĠâĢĺ": 3762,
      "ĠNot": 3763,
      "Ġpositive": 3764,
      "gen": 3765,
      "Ġhigher": 3766,
      "Do": 3767,
      "ÑĤ": 3768,
      "Ġmultiple": 3769,
      "ĠNone": 3770,
      "cy": 3771,
      "byte": 3772,
      "before": 3773,
      "ĠCl": 3774,
      "2020": 3775,
      "Widget": 3776,
      "08": 3777,
      "Sec": 3778,
      "lug": 3779,
      "images": 3780,
      "ĠWorld": 3781,
      "ĠYork": 3782,
      "earch": 3783,
      "iddle": 3784,
      "gl": 3785,
      "$)": 3786,
      "Ġmembers": 3787,
      "ecute": 3788,
      "68": 3789,
      "Ġtree": 3790,
      "rie": 3791,
      "tact": 3792,
      "Pr": 3793,
      "ĠBo": 3794,
      "2008": 3795,
      "Ġ...": 3796,
      "Ġeng": 3797,
      "Ġfinite": 3798,
      "Empty": 3799,
      "debug": 3800,
      "PP": 3801,
      "Ġvert": 3802,
      "Ġcommand": 3803,
      "Ġnever": 3804,
      "Ġdesign": 3805,
      "Ġdouble": 3806,
      "Ġcla": 3807,
      "ĠCoun": 3808,
      "Ġauto": 3809,
      "{(": 3810,
      "idence": 3811,
      "tains": 3812,
      "Params": 3813,
      "There": 3814,
      "oder": 3815,
      "Ġdev": 3816,
      "Ġrelative": 3817,
      "reed": 3818,
      "hash": 3819,
      "Ġchanges": 3820,
      "Ġnumer": 3821,
      "Ġevalu": 3822,
      "notation": 3823,
      "Option": 3824,
      "Change": 3825,
      "Ġunit": 3826,
      "Ġnecess": 3827,
      "border": 3828,
      "ĠNational": 3829,
      "Ġfl": 3830,
      "Pl": 3831,
      "Ġseen": 3832,
      "ĠJan": 3833,
      "Ġelem": 3834,
      "Ġmoment": 3835,
      "Can": 3836,
      "though": 3837,
      "Kind": 3838,
      "}|": 3839,
      "Ġoffic": 3840,
      "Ġgrow": 3841,
      "Ġadditional": 3842,
      "icrosoft": 3843,
      "95": 3844,
      "pture": 3845,
      "pop": 3846,
      "Ġconsidered": 3847,
      "Ġpay": 3848,
      "ring": 3849,
      "iol": 3850,
      "Ġstore": 3851,
      "proto": 3852,
      "Tree": 3853,
      "Ġhistory": 3854,
      "Ġtoken": 3855,
      "Ġequival": 3856,
      "Ġdescribed": 3857,
      "then": 3858,
      "Ġbox": 3859,
      "ising": 3860,
      "ĠError": 3861,
      "Ġdistance": 3862,
      "uly": 3863,
      "linear": 3864,
      "after": 3865,
      "Ġsymme": 3866,
      "edia": 3867,
      "enn": 3868,
      "Ġlarg": 3869,
      "Ġwon": 3870,
      "cos": 3871,
      "handle": 3872,
      "Layout": 3873,
      "Ġindividual": 3874,
      "07": 3875,
      "Ġcontinue": 3876,
      "}^\\": 3877,
      "cel": 3878,
      "lemma": 3879,
      "Ġmet": 3880,
      "Ġfeatures": 3881,
      "Ġandroid": 3882,
      "42": 3883,
      "ribe": 3884,
      "based": 3885,
      "Ġweek": 3886,
      "oost": 3887,
      "that": 3888,
      "Ġprint": 3889,
      "Ġgoing": 3890,
      "Ġbegin": 3891,
      "thers": 3892,
      "Ġexpression": 3893,
      "Ġfn": 3894,
      "pher": 3895,
      "Ġgive": 3896,
      "erman": 3897,
      "cdots": 3898,
      "Ġgl": 3899,
      "widehat": 3900,
      "ently": 3901,
      "fil": 3902,
      "img": 3903,
      "webpack": 3904,
      "older": 3905,
      "special": 3906,
      "Vis": 3907,
      ".~": 3908,
      "iform": 3909,
      "imple": 3910,
      "ometry": 3911,
      "Po": 3912,
      "Ġteam": 3913,
      "yles": 3914,
      "Script": 3915,
      "known": 3916,
      "dev": 3917,
      "onal": 3918,
      "Ġactive": 3919,
      "ĠSouth": 3920,
      "Each": 3921,
      "FT": 3922,
      "Ġfrequ": 3923,
      "grid": 3924,
      "Ġsec": 3925,
      "Ġexact": 3926,
      "sembly": 3927,
      "scroll": 3928,
      "typ": 3929,
      "Entry": 3930,
      "__(": 3931,
      "Ġnamespace": 3932,
      "olute": 3933,
      "ĠĠĠĠĠĠĠĠĠĠĠĠĊ": 3934,
      "ĠCreate": 3935,
      "Ġthus": 3936,
      "Ġfiles": 3937,
      "Ġentry": 3938,
      "fs": 3939,
      "ours": 3940,
      "ĠNote": 3941,
      "dated": 3942,
      "Ġ['": 3943,
      "Ġtool": 3944,
      "ttps": 3945,
      "LASS": 3946,
      "project": 3947,
      "ĠSub": 3948,
      "Level": 3949,
      "sin": 3950,
      "`,": 3951,
      "ĠClass": 3952,
      "chan": 3953,
      "ĠRep": 3954,
      "Expression": 3955,
      "Ġcost": 3956,
      "resh": 3957,
      "Ġblack": 3958,
      "ategy": 3959,
      "ference": 3960,
      "Prop": 3961,
      "RA": 3962,
      "connect": 3963,
      "urope": 3964,
      "Ġonce": 3965,
      "%;": 3966,
      "chie": 3967,
      "gebra": 3968,
      "appro": 3969,
      "ĠAct": 3970,
      "servable": 3971,
      "Properties": 3972,
      "Selector": 3973,
      "Ġstat": 3974,
      "}_\\": 3975,
      "udio": 3976,
      "plit": 3977,
      "03": 3978,
      "Ġkind": 3979,
      "\\\\\\\\\\\\\\\\": 3980,
      "variant": 3981,
      "olutions": 3982,
      "atural": 3983,
      "win": 3984,
      "bound": 3985,
      "boolean": 3986,
      "imensional": 3987,
      "sets": 3988,
      "Ġ**": 3989,
      "bool": 3990,
      "Ġcross": 3991,
      "Pos": 3992,
      "Ġcrit": 3993,
      "Nav": 3994,
      "Ġapplication": 3995,
      "Ġdiscuss": 3996,
      "ula": 3997,
      "SO": 3998,
      "Ġflow": 3999,
      "Ð½": 4000,
      "reference": 4001,
      "Ġrelated": 4002,
      "Ġhttps": 4003,
      "ymp": 4004,
      "service": 4005,
      "2007": 4006,
      "Ġdom": 4007,
      "Ġfuture": 4008,
      "encies": 4009,
      "Ġtraining": 4010,
      "Ġgenerated": 4011,
      "Ġgroups": 4012,
      "alax": 4013,
      "Ġfactor": 4014,
      "ĠSince": 4015,
      "Ġconfiguration": 4016,
      "Ġlanguage": 4017,
      "pa": 4018,
      "uid": 4019,
      "indent": 4020,
      "ought": 4021,
      "06": 4022,
      "```": 4023,
      "token": 4024,
      "Unit": 4025,
      "TI": 4026,
      "board": 4027,
      "raction": 4028,
      "Ġhy": 4029,
      "<?": 4030,
      "ĠDis": 4031,
      "ĠĠĠĠĠĠĠĠĠĠĠĠĠĠĠĠĠĠĠĠĠĠĠĠĠĠĠĠĠĠĠĠĠĠĠ": 4032,
      "Ġsample": 4033,
      "Dir": 4034,
      "orig": 4035,
      "clo": 4036,
      "Ġrepresentation": 4037,
      "jection": 4038,
      "hel": 4039,
      "Utils": 4040,
      "ĠMin": 4041,
      "ĠFile": 4042,
      "ilities": 4043,
      "Que": 4044,
      "era": 4045,
      "Ġindependent": 4046,
      "}\\,": 4047,
      "Ġss": 4048,
      "Ġemb": 4049,
      "pped": 4050,
      "Ent": 4051,
      "Mod": 4052,
      "aging": 4053,
      "aries": 4054,
      "igen": 4055,
      "ship": 4056,
      "jav": 4057,
      "ional": 4058,
      "stroy": 4059,
      "clear": 4060,
      "Ġearly": 4061,
      "${": 4062,
      "ln": 4063,
      "author": 4064,
      "Ġ<=": 4065,
      "req": 4066,
      "Ġdomain": 4067,
      "First": 4068,
      "oog": 4069,
      "Ġcomplete": 4070,
      "ittle": 4071,
      "note": 4072,
      "Ġfar": 4073,
      "2000": 4074,
      "ĠOb": 4075,
      "Ġ\\{": 4076,
      "ĠSer": 4077,
      "ĠInst": 4078,
      "Ġlocation": 4079,
      "Ġdraw": 4080,
      "Copy": 4081,
      "Ġtemperature": 4082,
      "PO": 4083,
      "textwidth": 4084,
      "Com": 4085,
      "miss": 4086,
      "Ġkeys": 4087,
      "Ġphot": 4088,
      "09": 4089,
      "Ġinstanceof": 4090,
      "Ġrot": 4091,
      "ux": 4092,
      "}]": 4093,
      "()->": 4094,
      "Ġcorrect": 4095,
      "ims": 4096,
      "Ġsent": 4097,
      "Ġconstruct": 4098,
      ",-": 4099,
      "Ġhard": 4100,
      "Ġcertain": 4101,
      "sequ": 4102,
      "ĠUp": 4103,
      "Ġanaly": 4104,
      "Ġgreat": 4105,
      "Ġlik": 4106,
      "sort": 4107,
      "Ġfloat": 4108,
      "Load": 4109,
      "ĠTO": 4110,
      "Ġconnection": 4111,
      "hr": 4112,
      "Ġvariable": 4113,
      "PECT": 4114,
      "Ġable": 4115,
      "2006": 4116,
      "umbers": 4117,
      "ication": 4118,
      "ĠBe": 4119,
      "One": 4120,
      "ilit": 4121,
      "})\\": 4122,
      "Ġsettings": 4123,
      "bert": 4124,
      "VE": 4125,
      "Ġfit": 4126,
      "equiv": 4127,
      "Ident": 4128,
      "Ġaverage": 4129,
      "ĠChrist": 4130,
      "resource": 4131,
      "Ġedge": 4132,
      "Ġ*)": 4133,
      "ĉĠĠĠĠ": 4134,
      "lying": 4135,
      "Ġang": 4136,
      "Ġmember": 4137,
      "insert": 4138,
      "shift": 4139,
      "Ġwritten": 4140,
      "like": 4141,
      "fl": 4142,
      "ĠRef": 4143,
      "Ġpract": 4144,
      "raft": 4145,
      "SU": 4146,
      "Ver": 4147,
      "ĠWith": 4148,
      "&=": 4149,
      "ĠCont": 4150,
      "Open": 4151,
      "\"`": 4152,
      "aset": 4153,
      "âĢ¦": 4154,
      "}}(": 4155,
      "46": 4156,
      "subset": 4157,
      "legate": 4158,
      "Ġcoordin": 4159,
      "Names": 4160,
      "qquad": 4161,
      "Rule": 4162,
      "Ġcommon": 4163,
      "Ġpattern": 4164,
      "Direct": 4165,
      "VAL": 4166,
      "Ġappear": 4167,
      "ino": 4168,
      "<!--": 4169,
      "Ġsort": 4170,
      "57": 4171,
      "Ġreally": 4172,
      "Ġselected": 4173,
      "Ġtogether": 4174,
      "$(": 4175,
      "cup": 4176,
      "Ġhandler": 4177,
      "ĠWar": 4178,
      "control": 4179,
      "Settings": 4180,
      "Store": 4181,
      "gan": 4182,
      "settings": 4183,
      "ĠSte": 4184,
      "disabled": 4185,
      "ĠCor": 4186,
      "netic": 4187,
      "lems": 4188,
      "Ġitems": 4189,
      "SH": 4190,
      "Ġoften": 4191,
      "ĠSec": 4192,
      "Ġsubject": 4193,
      "Ġcluster": 4194,
      "CD": 4195,
      "Ġcountry": 4196,
      "Ġbecome": 4197,
      "ftware": 4198,
      "REF": 4199,
      "Ġsuggest": 4200,
      "Meta": 4201,
      "Control": 4202,
      "Address": 4203,
      "================================": 4204,
      "hover": 4205,
      "Ġobserved": 4206,
      "Operation": 4207,
      "Configuration": 4208,
      "KE": 4209,
      "ULT": 4210,
      "bullet": 4211,
      "Ġalign": 4212,
      "por": 4213,
      "ãģ": 4214,
      "mathsf": 4215,
      "Handle": 4216,
      "Ġtre": 4217,
      "toString": 4218,
      "ĠWest": 4219,
      "Ġunique": 4220,
      "Iter": 4221,
      "Right": 4222,
      "Ġmusic": 4223,
      "ĠFigure": 4224,
      "widget": 4225,
      "ica": 4226,
      "Ġlinks": 4227,
      "ĠAN": 4228,
      "Ġdetails": 4229,
      "Ġkeep": 4230,
      "ients": 4231,
      ".__": 4232,
      "Ġstop": 4233,
      "Ġassign": 4234,
      "undefined": 4235,
      "HTML": 4236,
      "Ġvarious": 4237,
      "oman": 4238,
      "Bind": 4239,
      "255": 4240,
      "Ġamong": 4241,
      "Ġjob": 4242,
      "keys": 4243,
      "cade": 4244,
      "Ġachie": 4245,
      "Ġprobability": 4246,
      "Ġsem": 4247,
      "iven": 4248,
      "direct": 4249,
      "ulations": 4250,
      "Ġerrors": 4251,
      "Ġque": 4252,
      "edge": 4253,
      "Ġfund": 4254,
      "_,": 4255,
      "Ġstack": 4256,
      "ĠRem": 4257,
      "ided": 4258,
      "lide": 4259,
      "^+": 4260,
      "LI": 4261,
      "43": 4262,
      "Ġhuman": 4263,
      "Ġenough": 4264,
      "ĠLemma": 4265,
      "}^{(": 4266,
      "Ġprior": 4267,
      "Ġaccording": 4268,
      "ONT": 4269,
      "ĠOne": 4270,
      "ĠDes": 4271,
      "mut": 4272,
      "'$": 4273,
      "ighb": 4274,
      "ado": 4275,
      "ĠMore": 4276,
      "Invalid": 4277,
      "Ġregular": 4278,
      "Ġsetting": 4279,
      "focus": 4280,
      "Ġhowever": 4281,
      "Process": 4282,
      "navbar": 4283,
      "Parent": 4284,
      "Ġprof": 4285,
      "ascript": 4286,
      "Ġdelete": 4287,
      "delete": 4288,
      "Ġ++": 4289,
      "Ġhealth": 4290,
      "Ġconstraint": 4291,
      "Ġchain": 4292,
      "Http": 4293,
      "ÑĢ": 4294,
      "(*": 4295,
      "'))": 4296,
      "Ġproposed": 4297,
      "ĉĠĠĠĠĠĠĠĠ": 4298,
      "eder": 4299,
      "Ġdoc": 4300,
      "CR": 4301,
      "trigger": 4302,
      "Âł": 4303,
      "bum": 4304,
      "Ġsing": 4305,
      "Ġaccept": 4306,
      "ada": 4307,
      "fg": 4308,
      "Ġapplic": 4309,
      "Ġemploy": 4310,
      "chart": 4311,
      "Ġdirection": 4312,
      "rum": 4313,
      "ĠEurope": 4314,
      "Ġsupported": 4315,
      "Ġamount": 4316,
      "Scope": 4317,
      "Dat": 4318,
      "aly": 4319,
      "creen": 4320,
      "iler": 4321,
      "Bytes": 4322,
      "Ġ$(\\": 4323,
      "tection": 4324,
      "Ġacross": 4325,
      "TER": 4326,
      "ĠEnd": 4327,
      "Ġxml": 4328,
      "ĠData": 4329,
      "irm": 4330,
      "rief": 4331,
      "dl": 4332,
      "gex": 4333,
      "Ġ})": 4334,
      "Ġhold": 4335,
      "Ġattr": 4336,
      "click": 4337,
      "{{\\": 4338,
      "oose": 4339,
      "Ġpur": 4340,
      "Ġwhose": 4341,
      "Ġ\"\\": 4342,
      "task": 4343,
      "ering": 4344,
      "ĠPart": 4345,
      "Ġsolid": 4346,
      "77": 4347,
      "ĠĠĠĠĠĠĠĠĠĠĠĠĠĠĠĠĠĠĠĠĠ": 4348,
      "system": 4349,
      "msg": 4350,
      "final": 4351,
      "Host": 4352,
      "Ġregister": 4353,
      "Rect": 4354,
      "Boolean": 4355,
      "SD": 4356,
      "Ġ('": 4357,
      "ĠPl": 4358,
      "Ġworks": 4359,
      "Ġdecl": 4360,
      "Ġsure": 4361,
      "Ġoverride": 4362,
      "ycle": 4363,
      "Ġpat": 4364,
      "}:": 4365,
      "Ġnote": 4366,
      "ones": 4367,
      "Ġenvironment": 4368,
      "Ġnames": 4369,
      "enumer": 4370,
      "Ġtaken": 4371,
      "just": 4372,
      "equal": 4373,
      "}\\\\": 4374,
      "ube": 4375,
      "store": 4376,
      "Ab": 4377,
      "Ġign": 4378,
      "(){": 4379,
      "Body": 4380,
      "Ġmaximum": 4381,
      "itory": 4382,
      "58": 4383,
      "Tool": 4384,
      "Last": 4385,
      "gment": 4386,
      "Mult": 4387,
      "Core": 4388,
      "ported": 4389,
      "aj": 4390,
      "etch": 4391,
      "ouch": 4392,
      "ragment": 4393,
      "ĉĠĠĠĠĠĠĠĠĠĠĠĠĠĠĠ": 4394,
      "RI": 4395,
      "ĠEXPECT": 4396,
      "Ptr": 4397,
      "Ġexception": 4398,
      "nap": 4399,
      "astic": 4400,
      ")-": 4401,
      "xspace": 4402,
      "ĠOct": 4403,
      "ORT": 4404,
      "Ġbind": 4405,
      "extend": 4406,
      "Ġho": 4407,
      "2005": 4408,
      "\"))": 4409,
      "ĠSchool": 4410,
      "icle": 4411,
      "Ġlim": 4412,
      "Serial": 4413,
      "Ġdoesn": 4414,
      "ĠSk": 4415,
      "ĠPres": 4416,
      "Ġhaving": 4417,
      "_;": 4418,
      "Ġcome": 4419,
      "ĠMon": 4420,
      "cs": 4421,
      "ĠDep": 4422,
      "internal": 4423,
      "ĠAb": 4424,
      "leted": 4425,
      "ĠDate": 4426,
      "Ġfocus": 4427,
      "Args": 4428,
      "istor": 4429,
      "andid": 4430,
      "more": 4431,
      "Rel": 4432,
      "Ġng": 4433,
      "coun": 4434,
      "Values": 4435,
      "Ġneeded": 4436,
      "AND": 4437,
      "ying": 4438,
      "greg": 4439,
      "Ġben": 4440,
      "Storage": 4441,
      "EQ": 4442,
      "ledge": 4443,
      "Ġmaterial": 4444,
      "Ġarch": 4445,
      "Ġvariables": 4446,
      "El": 4447,
      "Ġotherwise": 4448,
      "ides": 4449,
      "Ġdirectly": 4450,
      "ĠOF": 4451,
      "Ġaw": 4452,
      "PC": 4453,
      "59": 4454,
      "ĠAug": 4455,
      "copy": 4456,
      "ATION": 4457,
      "INE": 4458,
      "____": 4459,
      "(!": 4460,
      "MM": 4461,
      "utes": 4462,
      "Ġband": 4463,
      "ART": 4464,
      "citet": 4465,
      "Local": 4466,
      "ĠBrit": 4467,
      "ĠMe": 4468,
      "pass": 4469,
      "&&": 4470,
      "Ġboundary": 4471,
      "{{": 4472,
      ">,": 4473,
      "Ġcompany": 4474,
      "oom": 4475,
      "Ġprec": 4476,
      "ĠJSON": 4477,
      "ZE": 4478,
      "ussian": 4479,
      "lege": 4480,
      "Ġtypename": 4481,
      "}+\\": 4482,
      "Vert": 4483,
      "iding": 4484,
      "Ġliter": 4485,
      "mem": 4486,
      "Own": 4487,
      "Ġfoot": 4488,
      "Ġpolicy": 4489,
      "ĠPr": 4490,
      "Ge": 4491,
      "Ġquantum": 4492,
      "Ġselection": 4493,
      "types": 4494,
      "Ġsomething": 4495,
      "oung": 4496,
      "ike": 4497,
      "eloc": 4498,
      "Ġmedia": 4499,
      "After": 4500,
      "Ġconver": 4501,
      "Location": 4502,
      "super": 4503,
      "Ġrights": 4504,
      "Ġincluded": 4505,
      "Work": 4506,
      "Ġgalax": 4507,
      "ĠInter": 4508,
      "ffff": 4509,
      "Ġwomen": 4510,
      "comes": 4511,
      "|^": 4512,
      "rep": 4513,
      "Ġ&\\": 4514,
      "ynch": 4515,
      "Ġthird": 4516,
      "Ġbytes": 4517,
      "Port": 4518,
      "Ġcomponents": 4519,
      "arp": 4520,
      "ĠEvent": 4521,
      "Ġreceived": 4522,
      "ĠThat": 4523,
      "indexOf": 4524,
      "Down": 4525,
      "Current": 4526,
      "Ġexperiment": 4527,
      "abor": 4528,
      "ceed": 4529,
      "Ġword": 4530,
      "Ġrelation": 4531,
      "Thread": 4532,
      "ERROR": 4533,
      "External": 4534,
      "Ġlarger": 4535,
      "asic": 4536,
      "Ġworking": 4537,
      "\"));": 4538,
      "na": 4539,
      "Ġstar": 4540,
      "69": 4541,
      "Ġfunc": 4542,
      "ried": 4543,
      "ble": 4544,
      "ĠGr": 4545,
      "common": 4546,
      "Ġrather": 4547,
      "anges": 4548,
      "Ġunderstand": 4549,
      "Ġprovides": 4550,
      "Ġimages": 4551,
      "hent": 4552,
      "ĠNS": 4553,
      "tip": 4554,
      "Ġvolume": 4555,
      "ĉĉĊ": 4556,
      "ALL": 4557,
      "Ġwords": 4558,
      "scr": 4559,
      "tra": 4560,
      "Ġsurface": 4561,
      "Ġlate": 4562,
      "vector": 4563,
      "bin": 4564,
      "ĠFunction": 4565,
      "Ġoptim": 4566,
      "Async": 4567,
      "year": 4568,
      "urren": 4569,
      "ales": 4570,
      "Symbol": 4571,
      "quare": 4572,
      "operatorname": 4573,
      "Ġgot": 4574,
      "ĠĠĠĠĠĠĠĠĠĠĠĠĠĠĠĠĠĠĠĠ": 4575,
      "files": 4576,
      "Assert": 4577,
      "istration": 4578,
      "ĠEd": 4579,
      "ĠName": 4580,
      "Parameters": 4581,
      "star": 4582,
      "Ġbusiness": 4583,
      "Ġbehavior": 4584,
      "Ġmillion": 4585,
      "({\\": 4586,
      "Ġbecame": 4587,
      "ulture": 4588,
      "Ġcity": 4589,
      "ĠTrans": 4590,
      "reet": 4591,
      "ober": 4592,
      "ĠCounty": 4593,
      "Ġformer": 4594,
      "Ġexplicit": 4595,
      "QL": 4596,
      "ĠOR": 4597,
      "Ġpromise": 4598,
      "():": 4599,
      "Ġdevelopment": 4600,
      "Ġdenote": 4601,
      "met": 4602,
      "high": 4603,
      "ggle": 4604,
      "finished": 4605,
      "ACK": 4606,
      "Mon": 4607,
      "FO": 4608,
      "atal": 4609,
      "sy": 4610,
      "ictionary": 4611,
      ".)": 4612,
      "layer": 4613,
      "ĠGu": 4614,
      "Reference": 4615,
      "Ġgives": 4616,
      "Ġseem": 4617,
      "Ġcover": 4618,
      "approx": 4619,
      "Ġactual": 4620,
      "Ġlearning": 4621,
      "Ġnum": 4622,
      "istics": 4623,
      "Ġdeath": 4624,
      "Ġecon": 4625,
      "layout": 4626,
      "Ġmar": 4627,
      "'],": 4628,
      "None": 4629,
      "Ġallows": 4630,
      "Ġclasses": 4631,
      "aves": 4632,
      "aml": 4633,
      "Ġfac": 4634,
      "neq": 4635,
      "pk": 4636,
      "Ġloss": 4637,
      "hspace": 4638,
      "ĠThus": 4639,
      "ount": 4640,
      "orizont": 4641,
      "hood": 4642,
      "Ġfig": 4643,
      "iqu": 4644,
      "Helper": 4645,
      "Ġheader": 4646,
      "Connection": 4647,
      "GET": 4648,
      "Ġswitch": 4649,
      "Ġwin": 4650,
      "atform": 4651,
      "Promise": 4652,
      "Ġstory": 4653,
      "Pack": 4654,
      "cd": 4655,
      "tember": 4656,
      "Ġweak": 4657,
      "........": 4658,
      "erred": 4659,
      "Reader": 4660,
      "conf": 4661,
      "Ġspin": 4662,
      "Ġexisting": 4663,
      "lier": 4664,
      ")/": 4665,
      "Ġaccur": 4666,
      "Template": 4667,
      "STR": 4668,
      "Ġconc": 4669,
      "Ġdescription": 4670,
      "Ġbelie": 4671,
      "pril": 4672,
      "ĠjQuery": 4673,
      "56": 4674,
      "ĠIntern": 4675,
      "rip": 4676,
      "Ġbar": 4677,
      "rs": 4678,
      "Ġholds": 4679,
      "Ġmemory": 4680,
      "41": 4681,
      "Ġcommunity": 4682,
      "Ġarr": 4683,
      "prec": 4684,
      "Ġseason": 4685,
      "Ġthings": 4686,
      "enum": 4687,
      "Menu": 4688,
      "yl": 4689,
      "rew": 4690,
      "stop": 4691,
      "Pod": 4692,
      "Ġattack": 4693,
      "ids": 4694,
      "Ġsays": 4695,
      "500": 4696,
      "Ġtherefore": 4697,
      "87": 4698,
      "Ġdegree": 4699,
      "eter": 4700,
      "ĠLo": 4701,
      "Ġbutton": 4702,
      "]\\": 4703,
      "leased": 4704,
      "eptember": 4705,
      "Ġexcept": 4706,
      "icol": 4707,
      "}-\\": 4708,
      "Ġsocial": 4709,
      "CP": 4710,
      "Search": 4711,
      "Ġforce": 4712,
      "ĠException": 4713,
      "Ġpast": 4714,
      "ernel": 4715,
      "Ġsite": 4716,
      "eners": 4717,
      "radius": 4718,
      "ĠIS": 4719,
      "2004": 4720,
      "Ġselector": 4721,
      "Mark": 4722,
      "Ġcamp": 4723,
      "Ġexports": 4724,
      "global": 4725,
      "Ġmaking": 4726,
      "oted": 4727,
      "ĠMarch": 4728,
      "Ac": 4729,
      "Argument": 4730,
      "Ġapplied": 4731,
      "interface": 4732,
      "ooth": 4733,
      "---": 4734,
      "Ġfive": 4735,
      "Ġequations": 4736,
      "ured": 4737,
      "Ġsuccessful": 4738,
      "Ġcontaining": 4739,
      "Op": 4740,
      "Ġpers": 4741,
      "Ġfri": 4742,
      "Doc": 4743,
      "Ñģ": 4744,
      "Ġitself": 4745,
      "ulated": 4746,
      "umption": 4747,
      "ĠTHE": 4748,
      "Head": 4749,
      ")}{": 4750,
      "Ġagree": 4751,
      "step": 4752,
      "Rout": 4753,
      "acters": 4754,
      "ĠTra": 4755,
      "ĠJuly": 4756,
      "Ġobservable": 4757,
      "Ġill": 4758,
      "ĠJanuary": 4759,
      "Description": 4760,
      "ĠJo": 4761,
      "ĠTable": 4762,
      "ught": 4763,
      "Font": 4764,
      "serve": 4765,
      "collection": 4766,
      "Ġ(*": 4767,
      "97": 4768,
      "Ind": 4769,
      "icons": 4770,
      "Ġeduc": 4771,
      "Session": 4772,
      "Ġmakes": 4773,
      "SA": 4774,
      "ĠBl": 4775,
      "Ġsong": 4776,
      "Ġneeds": 4777,
      "}}{\\": 4778,
      "Ġquestion": 4779,
      "Ġpanel": 4780,
      "Ġfr": 4781,
      "ames": 4782,
      "Pi": 4783,
      "theorem": 4784,
      "Order": 4785,
      "bed": 4786,
      "ĠURL": 4787,
      "king": 4788,
      "stamp": 4789,
      "SL": 4790,
      "Ġdays": 4791,
      "Net": 4792,
      "cember": 4793,
      "Ġhalf": 4794,
      "PT": 4795,
      "Ð¾Ð": 4796,
      "CODE": 4797,
      "uple": 4798,
      "Sign": 4799,
      "allow": 4800,
      "Ġlayer": 4801,
      "Ġinfo": 4802,
      "omial": 4803,
      "Ġextension": 4804,
      "COL": 4805,
      "ĠNode": 4806,
      "Ġcoll": 4807,
      "Ġmatter": 4808,
      "Ġactiv": 4809,
      "ĠPer": 4810,
      "ĠÂ": 4811,
      "Graph": 4812,
      "ĠCity": 4813,
      "Ġsw": 4814,
      "Ġyield": 4815,
      "ĠJune": 4816,
      "fact": 4817,
      "achine": 4818,
      "Ġful": 4819,
      "Stack": 4820,
      "issing": 4821,
      "Func": 4822,
      "96": 4823,
      "dr": 4824,
      "ĠWeb": 4825,
      "Queue": 4826,
      "Ġbig": 4827,
      "Ġattemp": 4828,
      "Ġland": 4829,
      "lor": 4830,
      "orizontal": 4831,
      "Ġparts": 4832,
      "lines": 4833,
      "javascript": 4834,
      "rect": 4835,
      "mitted": 4836,
      "Ġthough": 4837,
      "children": 4838,
      "Ġfall": 4839,
      "aring": 4840,
      "CA": 4841,
      "Descript": 4842,
      "media": 4843,
      "Ġdest": 4844,
      "itable": 4845,
      "Ġ-\\": 4846,
      "enumerate": 4847,
      "rupt": 4848,
      "Ġconvert": 4849,
      "Ġnav": 4850,
      "atures": 4851,
      "Ġcurrently": 4852,
      "Ġrunning": 4853,
      "Ġdifference": 4854,
      "Bound": 4855,
      "free": 4856,
      "Ġentire": 4857,
      "Ġsymbol": 4858,
      "initial": 4859,
      "ovember": 4860,
      "Since": 4861,
      "hib": 4862,
      "Ġautom": 4863,
      "Pri": 4864,
      "Ġopp": 4865,
      "\\\"": 4866,
      "Events": 4867,
      "Ġexplo": 4868,
      "Ġyet": 4869,
      "ansport": 4870,
      "Schema": 4871,
      "Ġbyte": 4872,
      "Ġsolutions": 4873,
      "Ġtw": 4874,
      "Ġpopulation": 4875,
      "Ġuses": 4876,
      "ĠAfter": 4877,
      "events": 4878,
      "ĠNorth": 4879,
      "ued": 4880,
      "\\,\\": 4881,
      "aps": 4882,
      "98": 4883,
      "Ġscript": 4884,
      "Ġcame": 4885,
      "inally": 4886,
      "Ġpercent": 4887,
      "Ġlittle": 4888,
      "ĠNe": 4889,
      "Writer": 4890,
      "Ġimplies": 4891,
      "FONT": 4892,
      "Fn": 4893,
      "ae": 4894,
      "ssages": 4895,
      "Ġcoe": 4896,
      "Ġreview": 4897,
      "Arr": 4898,
      "otes": 4899,
      "ung": 4900,
      "cheduler": 4901,
      "exception": 4902,
      "Ġnatural": 4903,
      "cr": 4904,
      "Ġsignal": 4905,
      "ards": 4906,
      "agger": 4907,
      "ĠBOO": 4908,
      "Ġalbum": 4909,
      "Ġage": 4910,
      "plugin": 4911,
      "erc": 4912,
      "register": 4913,
      "Ġaxis": 4914,
      "Ġclosed": 4915,
      "ana": 4916,
      "JSON": 4917,
      "cover": 4918,
      "Note": 4919,
      "Ġcut": 4920,
      "Ġdem": 4921,
      "When": 4922,
      "Ġsources": 4923,
      "ixel": 4924,
      "tage": 4925,
      "Ġfailed": 4926,
      "attribute": 4927,
      "Ġgen": 4928,
      "Ġupper": 4929,
      "Scroll": 4930,
      "Policy": 4931,
      ")+": 4932,
      "term": 4933,
      "theme": 4934,
      "Ġind": 4935,
      "ustral": 4936,
      "1000": 4937,
      "Ġtakes": 4938,
      "Ste": 4939,
      "Ġbasis": 4940,
      "Attr": 4941,
      "Ġimplementation": 4942,
      "Ġant": 4943,
      "Ġnumbers": 4944,
      "NE": 4945,
      "Ġveloc": 4946,
      "ifact": 4947,
      "Ġactually": 4948,
      "Ġhom": 4949,
      "ĠTime": 4950,
      "Root": 4951,
      "Ġnecessary": 4952,
      "perp": 4953,
      "slice": 4954,
      "ĠRec": 4955,
      "weight": 4956,
      "Ġissue": 4957,
      "TEST": 4958,
      "Ġcommit": 4959,
      "Ġexplain": 4960,
      "ĠDE": 4961,
      "={": 4962,
      "ĠAugust": 4963,
      "Ġhtml": 4964,
      "ĠHTML": 4965,
      "important": 4966,
      "->_": 4967,
      "Ġlearn": 4968,
      "Ġprove": 4969,
      "reshold": 4970,
      "DS": 4971,
      "Ġopts": 4972,
      "duc": 4973,
      "urnal": 4974,
      "++;": 4975,
      "ticle": 4976,
      "Ġwater": 4977,
      ")}$": 4978,
      "Ġeffective": 4979,
      "Delete": 4980,
      "uri": 4981,
      "Ġ[],": 4982,
      "CS": 4983,
      "ĠMc": 4984,
      "icult": 4985,
      "itions": 4986,
      "osed": 4987,
      "ĠCour": 4988,
      "ĠApril": 4989,
      "IGN": 4990,
      "axis": 4991,
      "itemize": 4992,
      "resents": 4993,
      "selected": 4994,
      "Track": 4995,
      "ĠSeptember": 4996,
      "$}": 4997,
      "atively": 4998,
      "ĠChar": 4999,
      "ham": 5000,
      "ota": 5001,
      "xx": 5002,
      "tee": 5003,
      "Record": 5004,
      "ĠOctober": 5005,
      "ynchron": 5006,
      "ington": 5007,
      "Integer": 5008,
      "Ġdimension": 5009,
      "cp": 5010,
      "Ġstudents": 5011,
      "ĠGerman": 5012,
      "dimensional": 5013,
      "Ġviol": 5014,
      "Ġground": 5015,
      "Cal": 5016,
      "ils": 5017,
      "ĠSch": 5018,
      "panel": 5019,
      "85": 5020,
      "aff": 5021,
      "oney": 5022,
      "Ġbuilt": 5023,
      "Ġdevice": 5024,
      "ĠInt": 5025,
      "zz": 5026,
      "Ġeffects": 5027,
      "aches": 5028,
      "iation": 5029,
      "Ġplayers": 5030,
      "Ġdetect": 5031,
      "Ġmultip": 5032,
      "Ġallowed": 5033,
      "Ġwide": 5034,
      "Ġneighb": 5035,
      "Ġtrigger": 5036,
      "Ġothers": 5037,
      "Ġmechan": 5038,
      "ocr": 5039,
      "success": 5040,
      "Ġctx": 5041,
      "Ġwait": 5042,
      "isk": 5043,
      "ief": 5044,
      "urg": 5045,
      "auto": 5046,
      "Ġextra": 5047,
      "_(": 5048,
      "Ġalmost": 5049,
      "arguments": 5050,
      "unfinished": 5051,
      "Props": 5052,
      "Now": 5053,
      "ha": 5054,
      "peat": 5055,
      "Ġtreat": 5056,
      "Ġservices": 5057,
      "multi": 5058,
      "ĠMark": 5059,
      "mediate": 5060,
      "Ġ),": 5061,
      "'re": 5062,
      "parallel": 5063,
      "atives": 5064,
      "Nodes": 5065,
      "Ġmsg": 5066,
      "points": 5067,
      "ague": 5068,
      "noindent": 5069,
      "Then": 5070,
      "Ġchart": 5071,
      "########": 5072,
      "Ġunsigned": 5073,
      "Ġaff": 5074,
      "olver": 5075,
      "Ġinsert": 5076,
      "Ġaway": 5077,
      "ĠÃ": 5078,
      "URE": 5079,
      "Ġnamed": 5080,
      "Su": 5081,
      "results": 5082,
      "Ġrelease": 5083,
      "dere": 5084,
      "Ġdeep": 5085,
      "Ġexpress": 5086,
      "Ġcollect": 5087,
      "Ġche": 5088,
      "Ġnational": 5089,
      "picker": 5090,
      "CTION": 5091,
      "Ġ(_": 5092,
      "props": 5093,
      "ĠDefault": 5094,
      "mpl": 5095,
      "loor": 5096,
      "cret": 5097,
      "IR": 5098,
      "Ġreplace": 5099,
      "definition": 5100,
      "Keys": 5101,
      "Ġ\\|": 5102,
      "Ġleading": 5103,
      "ĠFirst": 5104,
      "ĠDecember": 5105,
      "Pointer": 5106,
      "Sk": 5107,
      "OL": 5108,
      "ixt": 5109,
      "Volume": 5110,
      "auth": 5111,
      "Ġdes": 5112,
      "Ġinteger": 5113,
      "Ġtook": 5114,
      "angular": 5115,
      "Parser": 5116,
      "}'": 5117,
      "Ġsend": 5118,
      "Ġshall": 5119,
      "Ġwar": 5120,
      "clusion": 5121,
      "Ġsix": 5122,
      "Project": 5123,
      "ĠSpec": 5124,
      "detail": 5125,
      "env": 5126,
      "Ġweb": 5127,
      "Ġcourse": 5128,
      "Ġcompared": 5129,
      "Ġpress": 5130,
      "Ġproblems": 5131,
      "selector": 5132,
      "Ġavoid": 5133,
      "Ġ<!--": 5134,
      "Inst": 5135,
      "ĠRE": 5136,
      "Ġchanged": 5137,
      "Impl": 5138,
      "Ġ'/": 5139,
      "ipher": 5140,
      "queue": 5141,
      "PS": 5142,
      "ancel": 5143,
      "tableblock": 5144,
      "ĠMy": 5145,
      "Definition": 5146,
      "Ġ::": 5147,
      "vspace": 5148,
      "Vari": 5149,
      "Elements": 5150,
      "make": 5151,
      "*)": 5152,
      "Ġprinc": 5153,
      "ĠLog": 5154,
      "MD": 5155,
      "Only": 5156,
      "ãĥ": 5157,
      "Ġgenerate": 5158,
      "Byte": 5159,
      "Ġbottom": 5160,
      "Ġmeet": 5161,
      "ĠPo": 5162,
      "Ġ$-": 5163,
      "ĠDOM": 5164,
      "ĠBar": 5165,
      "54": 5166,
      "Ġequivalent": 5167,
      "ĠĠĠĠĠĠĠĠĠĠĠĠĠĠĠĠĠĠ": 5168,
      "ĠUse": 5169,
      "Enabled": 5170,
      "\\}$": 5171,
      "rown": 5172,
      "nost": 5173,
      "dest": 5174,
      "Ġprevent": 5175,
      "ixin": 5176,
      "ĠNovember": 5177,
      "Ġangular": 5178,
      "Newton": 5179,
      "holder": 5180,
      "Ġaffect": 5181,
      "Ã¡": 5182,
      "LS": 5183,
      "aa": 5184,
      "Ġrank": 5185,
      "atory": 5186,
      "Ġinline": 5187,
      "blue": 5188,
      "Ġ(\"": 5189,
      "mathscr": 5190,
      "2003": 5191,
      "Ġ_.": 5192,
      "ĠFrom": 5193,
      "ners": 5194,
      "ered": 5195,
      "lugins": 5196,
      "Ġinside": 5197,
      "oundation": 5198,
      "ulate": 5199,
      "Descriptor": 5200,
      "ĠassertEquals": 5201,
      "rome": 5202,
      "itect": 5203,
      "Ġproces": 5204,
      "SET": 5205,
      "~$": 5206,
      "Active": 5207,
      "~~~~": 5208,
      "Ġimprove": 5209,
      "Ġdetermin": 5210,
      "ifies": 5211,
      "Ġjson": 5212,
      "ĠTherefore": 5213,
      "That": 5214,
      "Ġalgebra": 5215,
      "Us": 5216,
      "UB": 5217,
      "Ġdatabase": 5218,
      "Ġloop": 5219,
      "anded": 5220,
      "Ġpointer": 5221,
      "Namespace": 5222,
      "session": 5223,
      "}}_": 5224,
      "Vector": 5225,
      "Ġoperations": 5226,
      "Ġsession": 5227,
      "etime": 5228,
      "52": 5229,
      "Ġcompet": 5230,
      "Ġvideo": 5231,
      "Ġsitu": 5232,
      "Ġstarted": 5233,
      "HP": 5234,
      "Metadata": 5235,
      "Ġserial": 5236,
      "deed": 5237,
      "send": 5238,
      "bits": 5239,
      "gs": 5240,
      "force": 5241,
      "Ġdeal": 5242,
      "Init": 5243,
      "norm": 5244,
      "Ġpresented": 5245,
      "86": 5246,
      "component": 5247,
      "ously": 5248,
      "sd": 5249,
      "Ġchall": 5250,
      "Ġshape": 5251,
      "Ġpolitical": 5252,
      "2001": 5253,
      ")|": 5254,
      "iterator": 5255,
      "ORD": 5256,
      "Ġincrease": 5257,
      "Ġattributes": 5258,
      "unch": 5259,
      "False": 5260,
      "Ġdirectory": 5261,
      "Ġwhole": 5262,
      "){\\": 5263,
      "language": 5264,
      "HO": 5265,
      "inf": 5266,
      "oph": 5267,
      "reme": 5268,
      "Ġstars": 5269,
      "ĠHigh": 5270,
      "ĠPublic": 5271,
      "pg": 5272,
      "wrap": 5273,
      "Ġgas": 5274,
      "Ġlot": 5275,
      "ĠAfr": 5276,
      "teq": 5277,
      "Ġrecogn": 5278,
      "DD": 5279,
      "itute": 5280,
      "Ġbuilding": 5281,
      "Post": 5282,
      "Ġinterval": 5283,
      "elem": 5284,
      "Enc": 5285,
      "BC": 5286,
      "ĠCre": 5287,
      "ĠVal": 5288,
      "dereq": 5289,
      "underline": 5290,
      "Device": 5291,
      "Ġwriting": 5292,
      "Ġtaking": 5293,
      "Ġensure": 5294,
      "minus": 5295,
      "Ġestimate": 5296,
      "Ġflag": 5297,
      "ĠAg": 5298,
      "iag": 5299,
      "spect": 5300,
      "padding": 5301,
      "51": 5302,
      "reater": 5303,
      ")),": 5304,
      "ĠST": 5305,
      "Ġremoved": 5306,
      "PRE": 5307,
      "TEX": 5308,
      "Entity": 5309,
      "ĠCLASS": 5310,
      "Ġtests": 5311,
      "Ġeigen": 5312,
      "ama": 5313,
      "Ġmen": 5314,
      "margin": 5315,
      "shadow": 5316,
      ":</": 5317,
      "herit": 5318,
      "lus": 5319,
      "strap": 5320,
      "ãĤ": 5321,
      "serial": 5322,
      "ociety": 5323,
      "Ġprimary": 5324,
      "Ġsplit": 5325,
      "Ġincludes": 5326,
      "Ġshift": 5327,
      "styles": 5328,
      "GB": 5329,
      "Ġeff": 5330,
      "OwnProperty": 5331,
      "Ġscroll": 5332,
      "Ġoffer": 5333,
      "address": 5334,
      "Ġheld": 5335,
      "lers": 5336,
      "Ġ>>>": 5337,
      "Ġproduction": 5338,
      "Ġmagnetic": 5339,
      "ĠHis": 5340,
      "Fields": 5341,
      "Ġsense": 5342,
      "Ġembed": 5343,
      "thon": 5344,
      "ynamic": 5345,
      "ĠSome": 5346,
      "Ġbi": 5347,
      "PA": 5348,
      "Ġsimply": 5349,
      "tmp": 5350,
      "Ġcharacters": 5351,
      "XX": 5352,
      "Ġratio": 5353,
      "IF": 5354,
      "omb": 5355,
      "62": 5356,
      "Ġwhy": 5357,
      "oring": 5358,
      "ĠBase": 5359,
      "ĠPresident": 5360,
      "iet": 5361,
      "orter": 5362,
      "Transform": 5363,
      "toggle": 5364,
      "Ġdescribe": 5365,
      "Ġbir": 5366,
      "(:": 5367,
      "Ġhappen": 5368,
      ")))": 5369,
      "Ġdetermine": 5370,
      "NN": 5371,
      "Syntax": 5372,
      "cons": 5373,
      "Ġrequires": 5374,
      "aul": 5375,
      "ario": 5376,
      "Ġwave": 5377,
      "Click": 5378,
      "53": 5379,
      "ĠAustral": 5380,
      "Ġcandid": 5381,
      "bruary": 5382,
      "safe": 5383,
      "Ġask": 5384,
      "63": 5385,
      "Ġreported": 5386,
      "Ġchoice": 5387,
      "=(": 5388,
      "Ġsuff": 5389,
      "ategor": 5390,
      "Pattern": 5391,
      "Ġinner": 5392,
      "unity": 5393,
      "Ġconsole": 5394,
      "Wrapper": 5395,
      "'));": 5396,
      "Clo": 5397,
      "ĠQu": 5398,
      "}}}": 5399,
      "}},": 5400,
      "sql": 5401,
      "ĠCopy": 5402,
      "dim": 5403,
      "EXT": 5404,
      "OK": 5405,
      "Parse": 5406,
      "ights": 5407,
      "Ġbecomes": 5408,
      "PR": 5409,
      "dropdown": 5410,
      "ĠĠĠĠĠĠĠĠĠĠĠĠĠĠĠĠĠĠĠĠĠĠĠĠĠĠĠĠĠĠĠĠĠĠĠĠĠĠĠĠĠĠĠĠĠĠĠĠĠĠĠĠĠĠĠĠĠĠĠĠĠĠĠĠ": 5411,
      "89": 5412,
      "TA": 5413,
      "Ġreleased": 5414,
      "Ġappend": 5415,
      "zero": 5416,
      "gence": 5417,
      "ĠImp": 5418,
      "pict": 5419,
      "Ġcore": 5420,
      "ĠCON": 5421,
      "ucket": 5422,
      "----------------------------------------------------------------": 5423,
      "ĠPre": 5424,
      "Ġmetric": 5425,
      "ĠTrue": 5426,
      "ĠGets": 5427,
      "Ġpredict": 5428,
      "Ġorigin": 5429,
      "ĠII": 5430,
      "DOM": 5431,
      "ĠMap": 5432,
      "Ġdemon": 5433,
      "^-": 5434,
      "SSERT": 5435,
      "Ġissues": 5436,
      "dx": 5437,
      "constructor": 5438,
      "Ġpublished": 5439,
      "ping": 5440,
      "Mock": 5441,
      "alysis": 5442,
      "Ġabsolute": 5443,
      "Ġfa": 5444,
      "cut": 5445,
      "export": 5446,
      "Ġdistributed": 5447,
      "Newtonsoft": 5448,
      "Display": 5449,
      "Ġstatement": 5450,
      "Fail": 5451,
      "Ġsmaller": 5452,
      "ĠExt": 5453,
      "Ġ(-": 5454,
      "PL": 5455,
      "Ġdifficult": 5456,
      "napsh": 5457,
      "ĠMed": 5458,
      "seteq": 5459,
      "Ġmarket": 5460,
      "dule": 5461,
      "Ġreq": 5462,
      "dient": 5463,
      "gers": 5464,
      "ATA": 5465,
      "ĠReact": 5466,
      "Ġ${": 5467,
      "Ġscen": 5468,
      "Ġspectrum": 5469,
      "double": 5470,
      "Ġproper": 5471,
      "Ġep": 5472,
      "ORM": 5473,
      "$_": 5474,
      "osite": 5475,
      "Ġevolution": 5476,
      "endar": 5477,
      "remark": 5478,
      ".'": 5479,
      "Ġtell": 5480,
      "typedef": 5481,
      "Ġtransparent": 5482,
      "Ġdeb": 5483,
      "isting": 5484,
      "inline": 5485,
      "ynomial": 5486,
      "ĠHREF": 5487,
      "Observable": 5488,
      "finite": 5489,
      "Ġmulti": 5490,
      "Ġlikely": 5491,
      ":\\": 5492,
      "ĠĠĠĊ": 5493,
      "<\\": 5494,
      "aching": 5495,
      "Ġvisit": 5496,
      "ille": 5497,
      "multicol": 5498,
      "Ġrepl": 5499,
      "cing": 5500,
      "ĠForm": 5501,
      "ooks": 5502,
      "Ġdig": 5503,
      "Custom": 5504,
      "ĠNOT": 5505,
      "Ġnegative": 5506,
      "Ġwhite": 5507,
      "ĠAmerica": 5508,
      "Ġthread": 5509,
      "Ġstre": 5510,
      "subsc": 5511,
      "Long": 5512,
      "custom": 5513,
      "Selection": 5514,
      "Ġpref": 5515,
      "Ġreflect": 5516,
      "osen": 5517,
      "ĠValue": 5518,
      "Ġconstruction": 5519,
      "Before": 5520,
      "]]": 5521,
      "Ġphysical": 5522,
      "VG": 5523,
      "volution": 5524,
      "Ġ_{": 5525,
      "Items": 5526,
      "kens": 5527,
      "OD": 5528,
      "Ġperformed": 5529,
      "black": 5530,
      "Ġinflu": 5531,
      "allet": 5532,
      "ills": 5533,
      "Ġconnected": 5534,
      "Ġsens": 5535,
      "ĠTODO": 5536,
      "Ġ'<": 5537,
      "ilitary": 5538,
      "artment": 5539,
      "ĠRequ": 5540,
      "KEY": 5541,
      "textrm": 5542,
      "[$": 5543,
      "Ġupon": 5544,
      "multicolumn": 5545,
      "Xml": 5546,
      "Scale": 5547,
      "full": 5548,
      "coming": 5549,
      "Ġvol": 5550,
      "Windows": 5551,
      "rees": 5552,
      "See": 5553,
      "ĠDav": 5554,
      "Tra": 5555,
      "Ġair": 5556,
      "docs": 5557,
      "fields": 5558,
      "Param": 5559,
      "So": 5560,
      "ansion": 5561,
      "Ġfix": 5562,
      "Ġ\"\"": 5563,
      "help": 5564,
      "ocker": 5565,
      "Ġcompare": 5566,
      "Float": 5567,
      "Ġ\"/": 5568,
      "ĠIE": 5569,
      "Debug": 5570,
      "Ġos": 5571,
      "depth": 5572,
      "ĠCent": 5573,
      "Ġsl": 5574,
      "ĠBr": 5575,
      "classes": 5576,
      "Ġvelocity": 5577,
      "Title": 5578,
      "Ġvertex": 5579,
      "Ġrg": 5580,
      "ĠTH": 5581,
      "ifying": 5582,
      "Ġvers": 5583,
      "Bl": 5584,
      "Ġneut": 5585,
      "bitr": 5586,
      "primary": 5587,
      "Results": 5588,
      "Ġimpact": 5589,
      "Ġincreasing": 5590,
      "auge": 5591,
      "ĠHouse": 5592,
      "Plugin": 5593,
      "Ġminimum": 5594,
      "Ġdetermined": 5595,
      ")\">": 5596,
      "Ġoutside": 5597,
      "Ġcomment": 5598,
      "hide": 5599,
      "Ġcentral": 5600,
      "2002": 5601,
      "pret": 5602,
      "Ġauth": 5603,
      "uter": 5604,
      "{\"": 5605,
      "mic": 5606,
      "Ġdecre": 5607,
      "Ġdemonstr": 5608,
      "Decl": 5609,
      "Ġparticip": 5610,
      "(/": 5611,
      "track": 5612,
      "Ġscheme": 5613,
      "Ġrules": 5614,
      "\\'": 5615,
      "ĠBritish": 5616,
      "ilation": 5617,
      "Ġmeta": 5618,
      "Ġdep": 5619,
      "ĠKing": 5620,
      "Ġcompute": 5621,
      "Extension": 5622,
      "iki": 5623,
      "Ġrepresents": 5624,
      "prod": 5625,
      "ĠSan": 5626,
      "Ġvalign": 5627,
      "Ġinvestig": 5628,
      "ker": 5629,
      "ography": 5630,
      "ele": 5631,
      "Ġ$\\{": 5632,
      "Ġfun": 5633,
      "ĠEl": 5634,
      "Ġtalk": 5635,
      "Ġbinary": 5636,
      "Ġ^": 5637,
      "subseteq": 5638,
      "Ġstrings": 5639,
      "Ġradius": 5640,
      "Pass": 5641,
      "category": 5642,
      "Ġexperience": 5643,
      "oms": 5644,
      "Ġuseful": 5645,
      "Ġframework": 5646,
      "ellow": 5647,
      "card": 5648,
      "MB": 5649,
      "400": 5650,
      "wner": 5651,
      "Are": 5652,
      "area": 5653,
      "device": 5654,
      "Ġlive": 5655,
      "han": 5656,
      "orts": 5657,
      "ivil": 5658,
      "Num": 5659,
      "ĠMem": 5660,
      "Ġdataset": 5661,
      "Ġlonger": 5662,
      "Runtime": 5663,
      "matrix": 5664,
      "UP": 5665,
      "Ġcau": 5666,
      "Theta": 5667,
      "ĠRed": 5668,
      "Ġhouse": 5669,
      "application": 5670,
      "\",\"": 5671,
      "Ġextract": 5672,
      "ĠDr": 5673,
      "ĠHar": 5674,
      "Ġrem": 5675,
      "}^{-": 5676,
      "ĠDist": 5677,
      "Ġrespons": 5678,
      "Ġdim": 5679,
      "Ġ\\;": 5680,
      "transition": 5681,
      "Ġfrequency": 5682,
      "ĠIO": 5683,
      "Ġtheorem": 5684,
      "bytes": 5685,
      "Ġnative": 5686,
      "Ġess": 5687,
      "ĠEnglish": 5688,
      "256": 5689,
      "ested": 5690,
      "Ġreject": 5691,
      "NG": 5692,
      "framework": 5693,
      "nce": 5694,
      "crete": 5695,
      "Initial": 5696,
      "Ġadmin": 5697,
      "You": 5698,
      "iny": 5699,
      "ĠRead": 5700,
      "iments": 5701,
      "Me": 5702,
      "inv": 5703,
      "olic": 5704,
      "opts": 5705,
      "Has": 5706,
      "boot": 5707,
      "////////////////////////////////": 5708,
      "ĠĠĠĠĠĠĠĠĠĠĠĠĠĠĠĠĠĠĠĠĠĠĠĠĠĠĠĠĠĠĠĠĠĠĠĠĠĠĠ": 5709,
      "ĠFebruary": 5710,
      "Ġengine": 5711,
      "ervices": 5712,
      "cape": 5713,
      "inct": 5714,
      "Dictionary": 5715,
      "Ġtax": 5716,
      "Ġinternational": 5717,
      "Ġ{},": 5718,
      "models": 5719,
      "ertific": 5720,
      "moz": 5721,
      "Ġ$|": 5722,
      "vey": 5723,
      "Non": 5724,
      "Ġgrid": 5725,
      "handler": 5726,
      "ran": 5727,
      "gradient": 5728,
      "Ġcompact": 5729,
      "hs": 5730,
      "LL": 5731,
      "Iterator": 5732,
      "Ġtoday": 5733,
      "Channel": 5734,
      "mouse": 5735,
      "zone": 5736,
      "Ġinstall": 5737,
      "avor": 5738,
      "ĠPe": 5739,
      "shape": 5740,
      "sto": 5741,
      "SION": 5742,
      "ondon": 5743,
      "Ġface": 5744,
      "dapt": 5745,
      "Ġproced": 5746,
      "Ġprogra": 5747,
      "Ġregions": 5748,
      "ĠEast": 5749,
      "MC": 5750,
      "Ġcritical": 5751,
      "dec": 5752,
      "Ġutil": 5753,
      "ĠWindow": 5754,
      "{$": 5755,
      "CHE": 5756,
      "ITY": 5757,
      "}$\\": 5758,
      "Ġround": 5759,
      "Proto": 5760,
      "Editor": 5761,
      "Ġregard": 5762,
      "Ġbrowser": 5763,
      "usion": 5764,
      "Ġusers": 5765,
      "total": 5766,
      "elli": 5767,
      "sect": 5768,
      "Ġmatches": 5769,
      "svg": 5770,
      "Ġsecurity": 5771,
      "Ġtransfer": 5772,
      "ises": 5773,
      "Ġbegan": 5774,
      "61": 5775,
      "Application": 5776,
      "levant": 5777,
      "here": 5778,
      "Ġbroad": 5779,
      "ĠCourt": 5780,
      "Ġ_,": 5781,
      "Ġbits": 5782,
      "nes": 5783,
      "timeout": 5784,
      "access": 5785,
      "Ġresulting": 5786,
      "Ġuniform": 5787,
      "Ġencode": 5788,
      "Ġforward": 5789,
      "gu": 5790,
      "END": 5791,
      "cb": 5792,
      "equals": 5793,
      "lyph": 5794,
      "^{-\\": 5795,
      "iles": 5796,
      "Ġir": 5797,
      "=-": 5798,
      "ĠGroup": 5799,
      "Ġlistener": 5800,
      "Api": 5801,
      "Ġthought": 5802,
      "ĠPri": 5803,
      "road": 5804,
      "Ġsubst": 5805,
      "Ġlocated": 5806,
      "Bundle": 5807,
      "Ġplayed": 5808,
      "iber": 5809,
      "Ġresources": 5810,
      "Network": 5811,
      "Ġhar": 5812,
      "ipel": 5813,
      "dict": 5814,
      "assertEquals": 5815,
      "Attributes": 5816,
      "Ġbenef": 5817,
      "Ġsoftware": 5818,
      "Close": 5819,
      "Ġestablished": 5820,
      "Database": 5821,
      "aign": 5822,
      "fa": 5823,
      "omy": 5824,
      "uncil": 5825,
      "eh": 5826,
      "300": 5827,
      "Ġfilename": 5828,
      "resolve": 5829,
      "Ġconstructor": 5830,
      "(__": 5831,
      "ĠGa": 5832,
      "Ġfeel": 5833,
      "ewidth": 5834,
      "Ġcalls": 5835,
      "TC": 5836,
      "('.": 5837,
      "Ġconsistent": 5838,
      "Ġcounter": 5839,
      "ĠIm": 5840,
      "Ġmed": 5841,
      "prev": 5842,
      "Ġappropri": 5843,
      "deg": 5844,
      "Ġcurve": 5845,
      "limits": 5846,
      "ĠOpen": 5847,
      "editor": 5848,
      "sess": 5849,
      "imately": 5850,
      "Ġprogress": 5851,
      "Changed": 5852,
      "Ġraise": 5853,
      "=\"_": 5854,
      "lict": 5855,
      "Ġaltern": 5856,
      "isions": 5857,
      "ĠBOOST": 5858,
      "Ġqueue": 5859,
      "78": 5860,
      "Ġidea": 5861,
      "Ġflux": 5862,
      "omorphism": 5863,
      "Errorf": 5864,
      "Ġstarting": 5865,
      "uel": 5866,
      "ĠDirect": 5867,
      "Proxy": 5868,
      "Ġderiv": 5869,
      "Use": 5870,
      "footnote": 5871,
      "ederal": 5872,
      "EventListener": 5873,
      "unsigned": 5874,
      "taint": 5875,
      "ka": 5876,
      "enced": 5877,
      "Ġsufficient": 5878,
      "sure": 5879,
      "Ġconduct": 5880,
      "Ġtransport": 5881,
      "Ġmention": 5882,
      "Ġprefix": 5883,
      "ĠLO": 5884,
      "reset": 5885,
      "'>": 5886,
      "Ġproduced": 5887,
      "scal": 5888,
      "Ġcategory": 5889,
      "Ġoptional": 5890,
      "Ġyoung": 5891,
      "Ġnuc": 5892,
      "ĠHere": 5893,
      "IE": 5894,
      "Ġintroduced": 5895,
      "ACE": 5896,
      "Ġcomparison": 5897,
      "promise": 5898,
      "Second": 5899,
      "Ġprops": 5900,
      "Ġdrop": 5901,
      "ĠInternational": 5902,
      "SY": 5903,
      "Ġspeed": 5904,
      "contin": 5905,
      "Ret": 5906,
      "ĠSw": 5907,
      "Ġord": 5908,
      "Ġobserver": 5909,
      "Ġann": 5910,
      "Ġadv": 5911,
      "ority": 5912,
      "Ġstudies": 5913,
      "Lin": 5914,
      "oplus": 5915,
      "umin": 5916,
      "ĠAp": 5917,
      "ridge": 5918,
      "ĠInitial": 5919,
      ">.": 5920,
      "selves": 5921,
      "atically": 5922,
      "mask": 5923,
      "Struct": 5924,
      "Ġderived": 5925,
      "\\}": 5926,
      "Ġhidden": 5927,
      "pecially": 5928,
      "Ġtensor": 5929,
      "while": 5930,
      "Ġdiscus": 5931,
      "Ġ'';": 5932,
      "texttt": 5933,
      "Cre": 5934,
      "Ġetc": 5935,
      "dates": 5936,
      "Ġelection": 5937,
      "ĠService": 5938,
      "Ġanno": 5939,
      "Send": 5940,
      "Ġidentity": 5941,
      "ĠNow": 5942,
      "Ġoperators": 5943,
      "Ġmonth": 5944,
      "More": 5945,
      "forEach": 5946,
      "ĠDec": 5947,
      "Ġwent": 5948,
      "Job": 5949,
      "Ġmaps": 5950,
      "Lock": 5951,
      "jQuery": 5952,
      "Dialog": 5953,
      "Ġofficial": 5954,
      "dash": 5955,
      "Ġplayer": 5956,
      "Ġelectron": 5957,
      "Remove": 5958,
      "setminus": 5959,
      "Ġtransaction": 5960,
      "controller": 5961,
      "SIZE": 5962,
      "rench": 5963,
      "sequence": 5964,
      "ros": 5965,
      "ĠRegister": 5966,
      "ĠLaw": 5967,
      "Ġinvalid": 5968,
      "cmd": 5969,
      "car": 5970,
      "DA": 5971,
      "Ġcompan": 5972,
      "Ġcareer": 5973,
      "ccording": 5974,
      "Execut": 5975,
      "Ġpolynomial": 5976,
      "Ġdidn": 5977,
      "ĠVAL": 5978,
      "kind": 5979,
      "Red": 5980,
      "_*": 5981,
      "ius": 5982,
      "vm": 5983,
      "Ġrect": 5984,
      "ĠĠĠĠĠĠĠĠĠĠĠĠĠĠĠĠĠĠĠĠĠĠĠĠĠ": 5985,
      "since": 5986,
      "Ġ($\\": 5987,
      "_{(": 5988,
      "testing": 5989,
      "ecause": 5990,
      ":[": 5991,
      "Ġtmp": 5992,
      "izations": 5993,
      "Internal": 5994,
      "72": 5995,
      "ĠCollege": 5996,
      "128": 5997,
      "Ġsamples": 5998,
      "ĠOver": 5999,
      "Matrix": 6000,
      "Ġprofile": 6001,
      "alloc": 6002,
      "faces": 6003,
      "oral": 6004,
      "mock": 6005,
      "ĠAtt": 6006,
      "wedge": 6007,
      "rot": 6008,
      "Ġhence": 6009,
      "Jo": 6010,
      "Axis": 6011,
      "vision": 6012,
      "Ġnet": 6013,
      "abilities": 6014,
      "FAULT": 6015,
      "Ap": 6016,
      "zer": 6017,
      "Ġtown": 6018,
      "TRY": 6019,
      "Prefix": 6020,
      "_->": 6021,
      "Ġansw": 6022,
      "sters": 6023,
      "Ġinteraction": 6024,
      "ein": 6025,
      "Register": 6026,
      "ĠNumber": 6027,
      "Len": 6028,
      "ĠExp": 6029,
      "Build": 6030,
      "Ġdb": 6031,
      "Ġformula": 6032,
      "Loader": 6033,
      "SR": 6034,
      "74": 6035,
      "ĠCall": 6036,
      "Ġsequ": 6037,
      "Ġever": 6038,
      "Ġmanif": 6039,
      "ĠOut": 6040,
      "decl": 6041,
      "none": 6042,
      "Shared": 6043,
      "writ": 6044,
      "Ġobservations": 6045,
      "Ġcri": 6046,
      "ĠMo": 6047,
      "linewidth": 6048,
      "Ġfill": 6049,
      "Ġarbitr": 6050,
      "Ġclean": 6051,
      "ATH": 6052,
      "Ġcause": 6053,
      "ĠCenter": 6054,
      "Ġbasic": 6055,
      "ĠArg": 6056,
      "Ġ],": 6057,
      "Ġcomputed": 6058,
      "ĠSim": 6059,
      "className": 6060,
      "Ġ$[": 6061,
      "atial": 6062,
      "iting": 6063,
      "MENT": 6064,
      "ĠMethod": 6065,
      "Ġthing": 6066,
      "Ġcontinuous": 6067,
      "ĠLoc": 6068,
      "Ġdir": 6069,
      "ĠOther": 6070,
      "fail": 6071,
      "Var": 6072,
      "Ġdoing": 6073,
      "Ġnoise": 6074,
      "lapse": 6075,
      "Ġpod": 6076,
      "Ġ];": 6077,
      "ĠWork": 6078,
      "domain": 6079,
      "ociation": 6080,
      "Ġtradition": 6081,
      "ĠNO": 6082,
      "ository": 6083,
      "###": 6084,
      "Ġdeveloped": 6085,
      "1999": 6086,
      "tical": 6087,
      "LP": 6088,
      "'\\": 6089,
      "chain": 6090,
      "impl": 6091,
      "Section": 6092,
      "Media": 6093,
      "'.": 6094,
      "Headers": 6095,
      "Ġareas": 6096,
      "ria": 6097,
      "berg": 6098,
      "acc": 6099,
      "ensive": 6100,
      "ĠOur": 6101,
      "Ġcomes": 6102,
      "001": 6103,
      "pers": 6104,
      "ĠPark": 6105,
      "napshot": 6106,
      "save": 6107,
      "aran": 6108,
      ")));": 6109,
      "ĠGod": 6110,
      "ĠWilli": 6111,
      "Ġnorm": 6112,
      "Ġscreen": 6113,
      "ĠKey": 6114,
      "}}_{": 6115,
      "ĠGo": 6116,
      "produ": 6117,
      "IX": 6118,
      "Security": 6119,
      "Ġevidence": 6120,
      "Full": 6121,
      "antic": 6122,
      "avy": 6123,
      "neg": 6124,
      "progress": 6125,
      "ĉĠĠĠĠĠĠĠĠĠĠĠĠ": 6126,
      "Tab": 6127,
      "ĠCode": 6128,
      "Ġstage": 6129,
      "FILE": 6130,
      "Ġplot": 6131,
      "Ġcontract": 6132,
      "Ã³": 6133,
      "84": 6134,
      "Ġdebug": 6135,
      "Ġhel": 6136,
      "/***/": 6137,
      "adoop": 6138,
      "real": 6139,
      "Msg": 6140,
      "Ġnothing": 6141,
      "Ġscore": 6142,
      "ĠLondon": 6143,
      "ropy": 6144,
      "band": 6145,
      "colon": 6146,
      "Ġrob": 6147,
      "_+": 6148,
      "ĠMa": 6149,
      "ership": 6150,
      "urrency": 6151,
      "Ġfire": 6152,
      "hasOwnProperty": 6153,
      "dagger": 6154,
      "Ġdomin": 6155,
      "Ġemission": 6156,
      "Ġexport": 6157,
      "Cor": 6158,
      "Ġsubsc": 6159,
      "ĠConst": 6160,
      "ashed": 6161,
      ")).": 6162,
      "ymf": 6163,
      "goog": 6164,
      "isation": 6165,
      "rast": 6166,
      "rong": 6167,
      "ares": 6168,
      "Ġshared": 6169,
      "posable": 6170,
      "mas": 6171,
      "ymfony": 6172,
      "Ġclaim": 6173,
      "Ġbounded": 6174,
      "attice": 6175,
      "pare": 6176,
      ">::": 6177,
      "ĠLa": 6178,
      "radient": 6179,
      "Ġmut": 6180,
      "ancial": 6181,
      "Ġdepth": 6182,
      "pkg": 6183,
      "Ġfactory": 6184,
      "NotNull": 6185,
      "Ġpackage": 6186,
      "look": 6187,
      "Dist": 6188,
      "WE": 6189,
      "93": 6190,
      "txt": 6191,
      "amilton": 6192,
      "agraph": 6193,
      "Ġfmt": 6194,
      "Ġ```": 6195,
      "Pe": 6196,
      "Ġinteresting": 6197,
      "Ġda": 6198,
      "channel": 6199,
      "Ġspeak": 6200,
      "printf": 6201,
      "ford": 6202,
      "ĠHand": 6203,
      "Ġcapture": 6204,
      "Ġstorage": 6205,
      "amera": 6206,
      "Ġfootball": 6207,
      "iforn": 6208,
      "Ġfully": 6209,
      "Ġdecision": 6210,
      "COLOR": 6211,
      "Ġupdated": 6212,
      "modal": 6213,
      "Ġuncer": 6214,
      "hidden": 6215,
      "support": 6216,
      "Ca": 6217,
      "Ġgrav": 6218,
      "Ġexactly": 6219,
      "ican": 6220,
      "ĠStr": 6221,
      "Math": 6222,
      "Ġpartial": 6223,
      "Identifier": 6224,
      "attle": 6225,
      "structure": 6226,
      "Auth": 6227,
      "Ġasync": 6228,
      "Ġfront": 6229,
      "ĠWhile": 6230,
      "Ġfinally": 6231,
      "Draw": 6232,
      "ening": 6233,
      "ĠHer": 6234,
      "Ð»": 6235,
      "Ġampl": 6236,
      "Ġsegment": 6237,
      "92": 6238,
      "Ġsound": 6239,
      "ĠVer": 6240,
      "PAR": 6241,
      "comment": 6242,
      "Layer": 6243,
      "Ġstation": 6244,
      "Word": 6245,
      "served": 6246,
      "ipal": 6247,
      "Ġespecially": 6248,
      "ĠPy": 6249,
      "Memory": 6250,
      "switch": 6251,
      "respon": 6252,
      "Ġspan": 6253,
      "inder": 6254,
      "BA": 6255,
      "Ne": 6256,
      "Expect": 6257,
      "Ġrequests": 6258,
      "anger": 6259,
      "modules": 6260,
      "Ġbad": 6261,
      "||": 6262,
      "DIR": 6263,
      "Ġmis": 6264,
      "resses": 6265,
      "Ġvan": 6266,
      "ios": 6267,
      "ĠĠĠĠĠĠĠĠĠĠĠĠĠĠĠĠĠĠĠĠĠĠĠĠ": 6268,
      "ws": 6269,
      "metadata": 6270,
      "aligned": 6271,
      "Ġbal": 6272,
      "stry": 6273,
      "Ġdriv": 6274,
      "hom": 6275,
      "fit": 6276,
      "Ġled": 6277,
      "XML": 6278,
      "eries": 6279,
      "MAX": 6280,
      "prefix": 6281,
      "Ġfamil": 6282,
      "Ġbounds": 6283,
      ">();": 6284,
      "ico": 6285,
      "ĠWhat": 6286,
      "82": 6287,
      "addClass": 6288,
      "equality": 6289,
      "ifornia": 6290,
      "ITE": 6291,
      "}\"": 6292,
      "Ġchoose": 6293,
      "Ġanimation": 6294,
      "rael": 6295,
      "ĠGeneral": 6296,
      "ivial": 6297,
      "[:": 6298,
      "Ġcred": 6299,
      "Ġgain": 6300,
      "flags": 6301,
      "arded": 6302,
      "Ġmask": 6303,
      "Ġjud": 6304,
      "Ġ$$": 6305,
      "91": 6306,
      "loader": 6307,
      "ĉĉĉĊ": 6308,
      "Ġadvan": 6309,
      "ĠĠĠĠĠĠĠĠĠĠĠĠĠĠĠĠĠĠĠĠĠĠ": 6310,
      "Ġdiscussed": 6311,
      "Pool": 6312,
      "Ġresolution": 6313,
      "Ġ}\\": 6314,
      "Ġparty": 6315,
      "Ġlibrary": 6316,
      "Ġclick": 6317,
      "Ġinc": 6318,
      "Ġcentury": 6319,
      "Ġinvariant": 6320,
      "Ġplugin": 6321,
      "ollary": 6322,
      "Ġactions": 6323,
      "Opt": 6324,
      "Ġcharge": 6325,
      "ĠArm": 6326,
      "Ġlove": 6327,
      "ua": 6328,
      "rad": 6329,
      "short": 6330,
      "Flags": 6331,
      "inn": 6332,
      "Ġ).": 6333,
      "ipeline": 6334,
      "ÃŃ": 6335,
      "iders": 6336,
      "OF": 6337,
      "missions": 6338,
      "ĠProposition": 6339,
      "Ġspaces": 6340,
      "ashington": 6341,
      "Ġgalaxies": 6342,
      "Ġmatching": 6343,
      "Ġremains": 6344,
      "Ġinvoke": 6345,
      "Lower": 6346,
      "Ġhistor": 6347,
      "Ġmonths": 6348,
      "condition": 6349,
      "Ġpeak": 6350,
      "Ġsouth": 6351,
      "Ġstreng": 6352,
      "Ġbelong": 6353,
      "Global": 6354,
      "Ġtimeout": 6355,
      "atur": 6356,
      "mediately": 6357,
      "enabled": 6358,
      "asons": 6359,
      "ĠDepartment": 6360,
      "Ġlevels": 6361,
      "rise": 6362,
      "Ġextend": 6363,
      "Ġeasy": 6364,
      "utf": 6365,
      "och": 6366,
      "Ġshare": 6367,
      "Ġsymmetry": 6368,
      "newcommand": 6369,
      "94": 6370,
      "Ġvertices": 6371,
      "ĠMich": 6372,
      "emit": 6373,
      "Ġmotion": 6374,
      "Ġrelationship": 6375,
      "Ġdepends": 6376,
      "Ġwatch": 6377,
      "sol": 6378,
      "rypto": 6379,
      "123": 6380,
      "Ġknowledge": 6381,
      "ĠJap": 6382,
      "Ġstrategy": 6383,
      "Ġexamples": 6384,
      "ĠOper": 6385,
      "boost": 6386,
      "ĠDem": 6387,
      "ellar": 6388,
      "TED": 6389,
      "construct": 6390,
      "forms": 6391,
      "Ġencoding": 6392,
      "}%": 6393,
      "ĠAm": 6394,
      "Auto": 6395,
      "Ġconcern": 6396,
      "connection": 6397,
      "Ġquality": 6398,
      "idx": 6399,
      "createElement": 6400,
      "Ġsetup": 6401,
      "Ġarchitect": 6402,
      "Ġeducation": 6403,
      "'_": 6404,
      "Ġmiddle": 6405,
      "elf": 6406,
      "abbr": 6407,
      "Ġplatform": 6408,
      "BOO": 6409,
      "erturb": 6410,
      "Ġhyp": 6411,
      "Ġcontroller": 6412,
      "den": 6413,
      "Ġui": 6414,
      "exists": 6415,
      "Eq": 6416,
      "hest": 6417,
      "unic": 6418,
      "Ġgames": 6419,
      "Ġwalk": 6420,
      "ĠAir": 6421,
      "bsite": 6422,
      "isms": 6423,
      "Ġgreater": 6424,
      "eff": 6425,
      "ror": 6426,
      "Ġhyper": 6427,
      "Ġjoin": 6428,
      "Ġnovel": 6429,
      "Ġlargest": 6430,
      "itution": 6431,
      "brief": 6432,
      "Ġsteps": 6433,
      "Classes": 6434,
      "Ġcourt": 6435,
      "loyment": 6436,
      "Ġcountries": 6437,
      "\\\\\\\\\\\\\\\\\\\\\\\\\\\\\\\\": 6438,
      "Ġparticle": 6439,
      "ĠCO": 6440,
      "legal": 6441,
      "Ġestablish": 6442,
      "Ġ|\\": 6443,
      "ĠOption": 6444,
      "Ġfigure": 6445,
      "headers": 6446,
      "Ġalloc": 6447,
      "ĠArt": 6448,
      "expr": 6449,
      "pid": 6450,
      "ampion": 6451,
      "Ġillustr": 6452,
      "Ġgauge": 6453,
      "My": 6454,
      "Ġsatisfies": 6455,
      "\"\"\"": 6456,
      "Ġforms": 6457,
      "Ġeditor": 6458,
      "Eng": 6459,
      "Ġpresence": 6460,
      "shal": 6461,
      "Ġdestroy": 6462,
      "Ġrecently": 6463,
      "Ġusually": 6464,
      "aws": 6465,
      "sumer": 6466,
      "Ġwor": 6467,
      "white": 6468,
      "Print": 6469,
      ")}(": 6470,
      "ĠText": 6471,
      "Ġextended": 6472,
      "ĠPhil": 6473,
      "subfigure": 6474,
      "counter": 6475,
      "Ġresolve": 6476,
      "__)": 6477,
      "Ġer": 6478,
      "parameters": 6479,
      "wait": 6480,
      "schema": 6481,
      "aration": 6482,
      "seud": 6483,
      "artifact": 6484,
      "series": 6485,
      "attributes": 6486,
      "cases": 6487,
      "etes": 6488,
      "CF": 6489,
      "Ġedges": 6490,
      "Ġscatter": 6491,
      "some": 6492,
      "Ġfailure": 6493,
      "INS": 6494,
      "Here": 6495,
      "Generic": 6496,
      "yal": 6497,
      "Member": 6498,
      "Ġquite": 6499,
      "ToString": 6500,
      "Ġheaders": 6501,
      "Ġqual": 6502,
      "Ġarticle": 6503,
      "uit": 6504,
      "WS": 6505,
      "Ġopport": 6506,
      "Ġmoney": 6507,
      "fficients": 6508,
      "RAN": 6509,
      "Ġvisible": 6510,
      "random": 6511,
      "Ġmock": 6512,
      "orary": 6513,
      "maz": 6514,
      "Ġdisk": 6515,
      "ĠCopyright": 6516,
      "Ġcontact": 6517,
      "arily": 6518,
      "properties": 6519,
      "Mar": 6520,
      "Ġenabled": 6521,
      "Ġstudi": 6522,
      "Ġones": 6523,
      "Ġtab": 6524,
      "Pop": 6525,
      "Ġgoal": 6526,
      "ci": 6527,
      "ä¸": 6528,
      "Ġrgba": 6529,
      "Ġminim": 6530,
      "Ġdynamics": 6531,
      "),\\": 6532,
      "\\!\\!": 6533,
      "exec": 6534,
      "hadoop": 6535,
      "Ġtranslate": 6536,
      "Ġpairs": 6537,
      "Ġclassical": 6538,
      "addr": 6539,
      "Ġpick": 6540,
      "Ġchosen": 6541,
      "flag": 6542,
      "Ġpopular": 6543,
      "nil": 6544,
      ")_": 6545,
      "()).": 6546,
      "Ġcoordinates": 6547,
      "errors": 6548,
      "Microsoft": 6549,
      "Ġfast": 6550,
      "region": 6551,
      "Ġconcept": 6552,
      "diff": 6553,
      "ancy": 6554,
      "bon": 6555,
      "ĠAut": 6556,
      "ĠSD": 6557,
      "Ġdark": 6558,
      "screen": 6559,
      "Ġok": 6560,
      "ĠModel": 6561,
      "76": 6562,
      "Ġangle": 6563,
      "UID": 6564,
      "ĠHel": 6565,
      "STATE": 6566,
      "chor": 6567,
      "Ġinvolved": 6568,
      "Ġexternal": 6569,
      "Ġdelay": 6570,
      "Ġremaining": 6571,
      "network": 6572,
      "ĠSen": 6573,
      "ĠHol": 6574,
      "Ġem": 6575,
      "notations": 6576,
      "ategories": 6577,
      "clone": 6578,
      "Ġio": 6579,
      "Observer": 6580,
      "Ġcorrespond": 6581,
      "eler": 6582,
      "fd": 6583,
      "Ġproto": 6584,
      "Cluster": 6585,
      "ney": 6586,
      "Ġmilitary": 6587,
      "Grid": 6588,
      "Ġtold": 6589,
      "Ġconstraints": 6590,
      "LIC": 6591,
      "Ġnumerical": 6592,
      "yg": 6593,
      "Ġsmooth": 6594,
      "destroy": 6595,
      "large": 6596,
      "apped": 6597,
      "Ġadapt": 6598,
      "limit": 6599,
      "throw": 6600,
      "Ġpreviously": 6601,
      "bigg": 6602,
      "Ġprotocol": 6603,
      "Ġrelevant": 6604,
      "sheet": 6605,
      "Deta": 6606,
      "ĠGovern": 6607,
      "Ġapproximation": 6608,
      "Ġgrowth": 6609,
      "Ġskip": 6610,
      "110": 6611,
      "tegr": 6612,
      "Ġseems": 6613,
      "AGE": 6614,
      "when": 6615,
      "orge": 6616,
      "hy": 6617,
      "themes": 6618,
      "aved": 6619,
      "Animation": 6620,
      "Step": 6621,
      "Br": 6622,
      "_{{\\": 6623,
      "ndef": 6624,
      "umerable": 6625,
      "amel": 6626,
      "ĠQue": 6627,
      "ribution": 6628,
      "Ġappropriate": 6629,
      "Ġpersonal": 6630,
      "Ġoptimal": 6631,
      "done": 6632,
      "Show": 6633,
      "Ġblue": 6634,
      "Ġcontribution": 6635,
      "IB": 6636,
      "edit": 6637,
      "Ġscalar": 6638,
      "Ġ[[": 6639,
      "Ġspectral": 6640,
      "Ġdecomp": 6641,
      "ĠSy": 6642,
      "Ġunits": 6643,
      "rab": 6644,
      "Ġnature": 6645,
      "Ġradio": 6646,
      "Tests": 6647,
      "assertEqual": 6648,
      "Ġprocesses": 6649,
      "Interval": 6650,
      "ĠTrump": 6651,
      "det": 6652,
      "ĠEuropean": 6653,
      "Feature": 6654,
      "ĠJust": 6655,
      "ometric": 6656,
      "Ġslow": 6657,
      "ĠUN": 6658,
      "otal": 6659,
      "sider": 6660,
      "admin": 6661,
      "History": 6662,
      "('./": 6663,
      "FN": 6664,
      "Ġparticles": 6665,
      "Ġsave": 6666,
      "SSL": 6667,
      "Ġeasily": 6668,
      "Ġignore": 6669,
      "Rad": 6670,
      "Cap": 6671,
      "ĠCalifornia": 6672,
      "83": 6673,
      "Ġalthough": 6674,
      "Ġcharg": 6675,
      "Ġmessages": 6676,
      "dy": 6677,
      "_{-": 6678,
      "Ġduration": 6679,
      "}~~": 6680,
      "Ġhit": 6681,
      "*{": 6682,
      "Ġserved": 6683,
      "ĠRepublic": 6684,
      "iling": 6685,
      "ĠXML": 6686,
      "CHECK": 6687,
      "iffer": 6688,
      "Ġleads": 6689,
      "tor": 6690,
      "va": 6691,
      "Ġmagn": 6692,
      "**/": 6693,
      "Ġapplications": 6694,
      "Ġmid": 6695,
      "ĠGoogle": 6696,
      "Constraint": 6697,
      "Div": 6698,
      "Americ": 6699,
      "console": 6700,
      "ĠHence": 6701,
      "Ġperturb": 6702,
      "ĠVersion": 6703,
      "loaded": 6704,
      "Ġparser": 6705,
      "Ġreduce": 6706,
      "iverse": 6707,
      "contains": 6708,
      "Ġfilms": 6709,
      "loop": 6710,
      "Any": 6711,
      "onic": 6712,
      "ĠField": 6713,
      "ĠChurch": 6714,
      "Rest": 6715,
      "ENTRY": 6716,
      "'];": 6717,
      "unced": 6718,
      "gorithms": 6719,
      "Endpoint": 6720,
      "Ġchunk": 6721,
      "drag": 6722,
      "Ġlimited": 6723,
      "}}(\\": 6724,
      "Ġlock": 6725,
      "Ġloaded": 6726,
      "erve": 6727,
      "Ġsy": 6728,
      "Ġbuf": 6729,
      "Native": 6730,
      "pattern": 6731,
      "GR": 6732,
      "ĠChina": 6733,
      "Ġexecute": 6734,
      "ael": 6735,
      "covery": 6736,
      "ĠPal": 6737,
      "ĠMA": 6738,
      "Seg": 6739,
      "airs": 6740,
      "Ġfraction": 6741,
      "Mouse": 6742,
      "Ġmoved": 6743,
      "Ġstructures": 6744,
      "Ġ>>": 6745,
      "ĠUpdate": 6746,
      "GS": 6747,
      "Ġmeasured": 6748,
      "ket": 6749,
      "LINE": 6750,
      "Ġmapping": 6751,
      "Single": 6752,
      "Ġrad": 6753,
      "Ġrestrict": 6754,
      "Ġ'\\": 6755,
      "ĠMess": 6756,
      "PORT": 6757,
      "Ġuncertaint": 6758,
      "invalid": 6759,
      "Ġtherm": 6760,
      "TEXT": 6761,
      ")\\,": 6762,
      "Ġflags": 6763,
      "Ðº": 6764,
      "Ġsex": 6765,
      "=\"-": 6766,
      "Ġenable": 6767,
      "HTTP": 6768,
      "81": 6769,
      "Ġpush": 6770,
      "browser": 6771,
      "Av": 6772,
      "Ġcorresponds": 6773,
      "ertificate": 6774,
      "Ġonline": 6775,
      "fect": 6776,
      "Bit": 6777,
      "Ġgrant": 6778,
      "Ġplane": 6779,
      "2021": 6780,
      ")[": 6781,
      "Ġimmediately": 6782,
      "Condition": 6783,
      "Directory": 6784,
      "73": 6785,
      "dro": 6786,
      "Ġexpansion": 6787,
      "ris": 6788,
      "Te": 6789,
      "bold": 6790,
      "hentication": 6791,
      "Ġmomentum": 6792,
      "Ġworked": 6793,
      "lam": 6794,
      "letion": 6795,
      "ĠMet": 6796,
      "useum": 6797,
      "hi": 6798,
      "BUG": 6799,
      "Ġnews": 6800,
      "Ġtouch": 6801,
      "Ġcompleted": 6802,
      "ĠWindows": 6803,
      "'}": 6804,
      "Files": 6805,
      "DU": 6806,
      "Ġ~~\\": 6807,
      "Ġinequality": 6808,
      "Ġpriv": 6809,
      "forall": 6810,
      "Ġmissing": 6811,
      "Ġstudied": 6812,
      "plot": 6813,
      "Ġimplements": 6814,
      "ifndef": 6815,
      "typen": 6816,
      "Agent": 6817,
      "Ġdrag": 6818,
      "Ġcalculated": 6819,
      "URI": 6820,
      "multirow": 6821,
      "%,": 6822,
      "asure": 6823,
      "&#": 6824,
      "month": 6825,
      "record": 6826,
      "Ġtesting": 6827,
      "nodes": 6828,
      "trics": 6829,
      "Protocol": 6830,
      "Collections": 6831,
      "nthe": 6832,
      "irit": 6833,
      "sur": 6834,
      "Ġexperiments": 6835,
      "@\"": 6836,
      "Ġanim": 6837,
      "Failed": 6838,
      "stat": 6839,
      "izable": 6840,
      "Ġanything": 6841,
      "Ġdetection": 6842,
      "TS": 6843,
      "STAT": 6844,
      "typename": 6845,
      "Ġcoupling": 6846,
      "icen": 6847,
      "Ġprev": 6848,
      "But": 6849,
      "iate": 6850,
      "textbullet": 6851,
      "Logger": 6852,
      "encode": 6853,
      "llap": 6854,
      "NULL": 6855,
      "ĠResearch": 6856,
      "mi": 6857,
      "illed": 6858,
      "ĠRun": 6859,
      "rics": 6860,
      "Ġpropag": 6861,
      "Ġreceive": 6862,
      "Our": 6863,
      ")^{\\": 6864,
      "vex": 6865,
      "ALSE": 6866,
      "ixture": 6867,
      "Ġsus": 6868,
      "ĠBoolean": 6869,
      "Ġnetworks": 6870,
      "Ġreduced": 6871,
      "Rece": 6872,
      "Statement": 6873,
      "libr": 6874,
      "1998": 6875,
      "Ġnor": 6876,
      "master": 6877,
      "igr": 6878,
      "Ġfeed": 6879,
      "Ġassumption": 6880,
      "icator": 6881,
      "words": 6882,
      "duration": 6883,
      ">'": 6884,
      "Ġexponent": 6885,
      "Ġbeginning": 6886,
      "ĠCSS": 6887,
      "Ġvertical": 6888,
      "merge": 6889,
      "Ġmodules": 6890,
      "vention": 6891,
      "Ġbelieve": 6892,
      "onical": 6893,
      ")_{": 6894,
      "ĠHTTP": 6895,
      "uses": 6896,
      "oped": 6897,
      "entity": 6898,
      "JE": 6899,
      "FR": 6900,
      "}$}": 6901,
      "cf": 6902,
      "concat": 6903,
      "Perm": 6904,
      "ĠHow": 6905,
      "original": 6906,
      "Ġlost": 6907,
      "ĠInc": 6908,
      "ĠSm": 6909,
      "Ġdecay": 6910,
      "iece": 6911,
      "Ġessential": 6912,
      "Ġfollowed": 6913,
      "Ġprofession": 6914,
      "Ġarbitrary": 6915,
      "generate": 6916,
      "Ġunless": 6917,
      "StyleID": 6918,
      "Ġcompanies": 6919,
      "Ġcursor": 6920,
      "Ġhon": 6921,
      "Compar": 6922,
      "Ġimm": 6923,
      "Progress": 6924,
      "dep": 6925,
      "ifications": 6926,
      "oss": 6927,
      "Ġpaths": 6928,
      "Icon": 6929,
      "Ġbuilder": 6930,
      "Enum": 6931,
      "cloud": 6932,
      "volume": 6933,
      "checkbox": 6934,
      "product": 6935,
      "Socket": 6936,
      "What": 6937,
      "Ġicon": 6938,
      "ĠMr": 6939,
      "annotation": 6940,
      "Ġthroughout": 6941,
      "Ġcampaign": 6942,
      "Stop": 6943,
      "Ġindustry": 6944,
      "rices": 6945,
      "Ġ+\\": 6946,
      "ipe": 6947,
      "para": 6948,
      "Ġappears": 6949,
      ",\\,": 6950,
      "ĠIsrael": 6951,
      "Ġraw": 6952,
      "Orig": 6953,
      "Named": 6954,
      "79": 6955,
      "Sum": 6956,
      "}$-": 6957,
      "levision": 6958,
      "ĠDO": 6959,
      "ĠCouncil": 6960,
      "Ġtowards": 6961,
      "VERSION": 6962,
      "ĠFrench": 6963,
      "AV": 6964,
      "liance": 6965,
      "otion": 6966,
      "Ġattention": 6967,
      "Ġpolar": 6968,
      ">\\": 6969,
      "ĠPaul": 6970,
      "Ġalt": 6971,
      "related": 6972,
      "parser": 6973,
      "vs": 6974,
      "orest": 6975,
      "Dom": 6976,
      "rd": 6977,
      "Ġreve": 6978,
      "Ġadopt": 6979,
      "Children": 6980,
      "Ġ[\"": 6981,
      "protobuf": 6982,
      "subsubsection": 6983,
      "Ġoccur": 6984,
      "ĠPost": 6985,
      "manager": 6986,
      "Ġtypedef": 6987,
      "ĠHamilton": 6988,
      "licity": 6989,
      "Ġsituation": 6990,
      "Duration": 6991,
      "Ġaccuracy": 6992,
      "Ġisn": 6993,
      "DC": 6994,
      "Conf": 6995,
      "Ġecho": 6996,
      "ĠFoundation": 6997,
      "Ġten": 6998,
      "ĠWashington": 6999,
      "Ġproducts": 7000,
      "canvas": 7001,
      "Ġpractice": 7002,
      "Ġprobably": 7003,
      "resp": 7004,
      "Ġsimulations": 7005,
      "Ġproduce": 7006,
      "ONE": 7007,
      "rf": 7008,
      "ĠUser": 7009,
      "Sim": 7010,
      "ĠPromise": 7011,
      "Ġlatter": 7012,
      "Found": 7013,
      "peated": 7014,
      "DR": 7015,
      "Ġstand": 7016,
      "Account": 7017,
      "Panel": 7018,
      "Ġcoefficients": 7019,
      "uge": 7020,
      "Scal": 7021,
      "\\|_{": 7022,
      "Ġintegral": 7023,
      "ĠMoreover": 7024,
      "Ġrisk": 7025,
      "Ġrows": 7026,
      "Ġcast": 7027,
      "Ġinstances": 7028,
      "Ã¼": 7029,
      "selection": 7030,
      "wrapper": 7031,
      "Framework": 7032,
      "ishing": 7033,
      "rial": 7034,
      "Span": 7035,
      "iagnost": 7036,
      "Ġmeaning": 7037,
      "Ġmodified": 7038,
      "pub": 7039,
      "Ġbul": 7040,
      "Ġprocedure": 7041,
      "Ġmeasurements": 7042,
      "filename": 7043,
      "()));": 7044,
      "ifdef": 7045,
      "Ġrelig": 7046,
      "ĉĉĉĉĉĉĉĉĉ": 7047,
      "alo": 7048,
      "ymptot": 7049,
      "Ġtick": 7050,
      "ĠEar": 7051,
      "ĠFurther": 7052,
      "Ġjav": 7053,
      "password": 7054,
      "Ġquick": 7055,
      "[(": 7056,
      "ectors": 7057,
      ".*": 7058,
      "ĠUI": 7059,
      "protected": 7060,
      "nections": 7061,
      "Ñĥ": 7062,
      "Ġearlier": 7063,
      "throws": 7064,
      "ĠUK": 7065,
      "Ġpurpose": 7066,
      "ixels": 7067,
      "Ġexhib": 7068,
      "BE": 7069,
      "However": 7070,
      "embed": 7071,
      "Ġroute": 7072,
      "iring": 7073,
      "Dest": 7074,
      "71": 7075,
      "ida": 7076,
      "Ġbring": 7077,
      "Ġreading": 7078,
      "Ġexistence": 7079,
      "Ġretrie": 7080,
      "istr": 7081,
      "Adapter": 7082,
      "ĠIP": 7083,
      "Ġfactors": 7084,
      "Ġbehind": 7085,
      "Ġagreement": 7086,
      "isArray": 7087,
      "Ġbranch": 7088,
      "utable": 7089,
      "ading": 7090,
      "Ġspecies": 7091,
      "ĠNor": 7092,
      "Ġgets": 7093,
      "FUN": 7094,
      "reedom": 7095,
      "checked": 7096,
      "]:": 7097,
      "ighest": 7098,
      "FC": 7099,
      "Ġdual": 7100,
      "Ġways": 7101,
      "plugins": 7102,
      "Ġcolumns": 7103,
      "vc": 7104,
      "TRUE": 7105,
      "Drag": 7106,
      "Ġpul": 7107,
      "Ġson": 7108,
      "Limit": 7109,
      "ĠMicrosoft": 7110,
      "artifactId": 7111,
      "ova": 7112,
      "Inv": 7113,
      "roduction": 7114,
      "Ġoffice": 7115,
      "Ġstra": 7116,
      "precated": 7117,
      "NV": 7118,
      "ĠIndia": 7119,
      "ĠDavid": 7120,
      "storage": 7121,
      "ĠBer": 7122,
      "ĠAlso": 7123,
      "war": 7124,
      "atible": 7125,
      "Sync": 7126,
      "Ġcreating": 7127,
      "Trace": 7128,
      "Ġmetadata": 7129,
      "Ġreset": 7130,
      ".~(\\": 7131,
      "Uri": 7132,
      "bel": 7133,
      "Ġmodes": 7134,
      "ĠOff": 7135,
      "USE": 7136,
      "proxy": 7137,
      "Domain": 7138,
      "ĠHealth": 7139,
      "Ġhours": 7140,
      "Constants": 7141,
      "hesis": 7142,
      "trl": 7143,
      "rote": 7144,
      "Ġrepresented": 7145,
      "Browser": 7146,
      "Ġtasks": 7147,
      "Ġentries": 7148,
      "ini": 7149,
      "{$\\": 7150,
      "Ġtheore": 7151,
      "enable": 7152,
      "sime": 7153,
      "entials": 7154,
      ".[": 7155,
      "Sort": 7156,
      "email": 7157,
      "Ġ-=": 7158,
      "Ġblocks": 7159,
      "LOG": 7160,
      "well": 7161,
      "Ġlegal": 7162,
      "adr": 7163,
      "','": 7164,
      "ads": 7165,
      "ĠAL": 7166,
      "ocused": 7167,
      "Ġgenerally": 7168,
      "lates": 7169,
      "iency": 7170,
      "ĠTask": 7171,
      "ById": 7172,
      "'])": 7173,
      "pmatrix": 7174,
      "ĠRemove": 7175,
      "Ġentity": 7176,
      "Ġprecise": 7177,
      "simeq": 7178,
      "watch": 7179,
      "obile": 7180,
      "Ġlooking": 7181,
      "Ġnight": 7182,
      "UTF": 7183,
      "Selected": 7184,
      "%%": 7185,
      "dialog": 7186,
      "EV": 7187,
      "Ġachieve": 7188,
      "Ġborn": 7189,
      ")^{-": 7190,
      ")\"": 7191,
      "Ġfriend": 7192,
      "press": 7193,
      "ND": 7194,
      "Ġ=\\": 7195,
      "Ġeq": 7196,
      "complete": 7197,
      "Ġacqu": 7198,
      "burg": 7199,
      "Ġthemselves": 7200,
      "Ġ){": 7201,
      "tained": 7202,
      "Connect": 7203,
      "DEF": 7204,
      "=}": 7205,
      "Ġchalleng": 7206,
      "names": 7207,
      "lands": 7208,
      "Ġcalc": 7209,
      "yes": 7210,
      "Figure": 7211,
      "resize": 7212,
      "pay": 7213,
      "ogene": 7214,
      "omite": 7215,
      "Ġwriter": 7216,
      "Ġgeneration": 7217,
      "Ġindicates": 7218,
      "atches": 7219,
      "Ġlattice": 7220,
      "Ġgradu": 7221,
      "called": 7222,
      "assign": 7223,
      "Ġrecords": 7224,
      "Route": 7225,
      "fixed": 7226,
      "stylesheet": 7227,
      "ubern": 7228,
      "Ġmanagement": 7229,
      "Space": 7230,
      "riteria": 7231,
      "Ġmouse": 7232,
      "pod": 7233,
      "Ġorbit": 7234,
      "Ġnotice": 7235,
      "omitempty": 7236,
      "Ġlif": 7237,
      "WA": 7238,
      "elements": 7239,
      "ĠCom": 7240,
      "Ġclu": 7241,
      "ĠIOException": 7242,
      "Ġparam": 7243,
      ")\\\\": 7244,
      "cluster": 7245,
      "Ġcalling": 7246,
      "ĠRel": 7247,
      "ĠDon": 7248,
      "ĠCollection": 7249,
      "Ġpartition": 7250,
      "ĠFalse": 7251,
      "$).": 7252,
      "ingu": 7253,
      "ĠCanada": 7254,
      "ĠIndian": 7255,
      "born": 7256,
      "Ġbank": 7257,
      "groups": 7258,
      "ĠBG": 7259,
      "Ġsamp": 7260,
      "SER": 7261,
      "Ġmodern": 7262,
      "defer": 7263,
      "FE": 7264,
      "ĠĠĠĠĠĠĠĠĠĠĠĠĠĠĠĠĠĠĠĠĠĠĠĠĠĠ": 7265,
      "symbol": 7266,
      "groupId": 7267,
      "ROM": 7268,
      "Ġsubset": 7269,
      "HR": 7270,
      "bootstrap": 7271,
      "cknow": 7272,
      "=\"../../../../../": 7273,
      "160": 7274,
      "Ġrecomm": 7275,
      "Ġexpand": 7276,
      "witter": 7277,
      "ĠScience": 7278,
      "isted": 7279,
      "ĠArch": 7280,
      "Ġ\\(": 7281,
      "icies": 7282,
      "ĠEach": 7283,
      "zy": 7284,
      "forward": 7285,
      "BP": 7286,
      "Coun": 7287,
      "Ġfather": 7288,
      "ĠInstitute": 7289,
      "Ġexperimental": 7290,
      "Ġthreshold": 7291,
      "ĠEngland": 7292,
      "ierarch": 7293,
      "Ġestimated": 7294,
      "Transaction": 7295,
      "Ġdied": 7296,
      "Ġ''": 7297,
      "textsc": 7298,
      "Ġtrade": 7299,
      "tailed": 7300,
      "react": 7301,
      "Ġpresident": 7302,
      "Ġunderlying": 7303,
      "picture": 7304,
      "Ġago": 7305,
      "virtual": 7306,
      "Ġmind": 7307,
      "ĠLeague": 7308,
      "Delegate": 7309,
      "Shape": 7310,
      "tests": 7311,
      "ĠStud": 7312,
      "Mask": 7313,
      "Ġgetting": 7314,
      "Using": 7315,
      "animation": 7316,
      "ĠJava": 7317,
      "Ġ{{": 7318,
      "Ġguaran": 7319,
      "*}{": 7320,
      "prob": 7321,
      "optional": 7322,
      "$$\\": 7323,
      "scss": 7324,
      "Ġbey": 7325,
      "visible": 7326,
      "$^{-": 7327,
      "Ġtransformation": 7328,
      "Ali": 7329,
      "Binary": 7330,
      "Ġruns": 7331,
      "IST": 7332,
      "Ġsquare": 7333,
      "ĠNews": 7334,
      "Ġcorrelation": 7335,
      "security": 7336,
      "Ġincor": 7337,
      "ĠProject": 7338,
      "ĠInteger": 7339,
      "Ġtechnology": 7340,
      "argument": 7341,
      "wp": 7342,
      "React": 7343,
      "effect": 7344,
      "ĠĠĠĠĠĠĊ": 7345,
      "Ġcircle": 7346,
      "Ġgoog": 7347,
      "Ġlabels": 7348,
      "Ġbeyond": 7349,
      "Ġorient": 7350,
      "Ġanti": 7351,
      "Ġautomatically": 7352,
      "unique": 7353,
      "ubernetes": 7354,
      "ĠIndex": 7355,
      "Year": 7356,
      "ARY": 7357,
      "bi": 7358,
      "Ġeconomic": 7359,
      "Ġdesigned": 7360,
      "ifiers": 7361,
      "ĠPort": 7362,
      "alled": 7363,
      "ĠAR": 7364,
      "uted": 7365,
      "Off": 7366,
      "Ġgeometry": 7367,
      "Ġlicense": 7368,
      "Ġreader": 7369,
      "ĠCreates": 7370,
      "\"],": 7371,
      ")}{\\": 7372,
      "Ġmix": 7373,
      "Ġliving": 7374,
      "ĠPath": 7375,
      "install": 7376,
      "Ġabstract": 7377,
      "acro": 7378,
      "gg": 7379,
      "ara": 7380,
      "hav": 7381,
      "ishes": 7382,
      "wood": 7383,
      "olving": 7384,
      "NavBar": 7385,
      "Ġcompletely": 7386,
      "isode": 7387,
      "Ġhalign": 7388,
      "Ġcurves": 7389,
      ";->": 7390,
      "rey": 7391,
      "Ġstored": 7392,
      "Ġpressure": 7393,
      "Ġcancel": 7394,
      "runtime": 7395,
      "diag": 7396,
      "Ġvalidation": 7397,
      "ĠBen": 7398,
      "Ġsimulation": 7399,
      "ĠConfig": 7400,
      "}~~{": 7401,
      "OUT": 7402,
      "fmt": 7403,
      "enge": 7404,
      "ĠCong": 7405,
      "Ġvill": 7406,
      "parentNode": 7407,
      "Ġ\",": 7408,
      "ĠRet": 7409,
      "Ġund": 7410,
      "IND": 7411,
      "]))": 7412,
      "Ġwebsite": 7413,
      "Ġdynamic": 7414,
      "Tick": 7415,
      "family": 7416,
      "Ġconv": 7417,
      "ILE": 7418,
      "Ġcontrast": 7419,
      "gments": 7420,
      "inet": 7421,
      "lots": 7422,
      "audi": 7423,
      "Success": 7424,
      "Edit": 7425,
      "ENSE": 7426,
      "essor": 7427,
      "Ġslight": 7428,
      "identifier": 7429,
      "LOCK": 7430,
      "3333": 7431,
      "async": 7432,
      "Ġwidget": 7433,
      "href": 7434,
      "------------": 7435,
      "Ġdisabled": 7436,
      "READ": 7437,
      "Renderer": 7438,
      "Ġhot": 7439,
      "Ġlack": 7440,
      "Ġprocessing": 7441,
      "IMP": 7442,
      "ĠBel": 7443,
      "oked": 7444,
      "icture": 7445,
      "ech": 7446,
      "Ġ'\"": 7447,
      "thread": 7448,
      "ctu": 7449,
      "Ġdenotes": 7450,
      "ĠId": 7451,
      "Ġactivity": 7452,
      "Ġoverall": 7453,
      "Ġdistributions": 7454,
      "unn": 7455,
      "Ġmanager": 7456,
      "amental": 7457,
      "site": 7458,
      "helper": 7459,
      "Ġwrong": 7460,
      "Ġdescript": 7461,
      "Ġfinancial": 7462,
      "velopment": 7463,
      "protocol": 7464,
      "Constructor": 7465,
      "Ġboost": 7466,
      "akes": 7467,
      "Simple": 7468,
      "ifically": 7469,
      "MT": 7470,
      "Ġconsists": 7471,
      "High": 7472,
      "BS": 7473,
      "upload": 7474,
      "ĠDim": 7475,
      "Ġlayout": 7476,
      "omorphic": 7477,
      "Ġstable": 7478,
      "Ġ'',": 7479,
      "Ġrates": 7480,
      "1997": 7481,
      "While": 7482,
      "single": 7483,
      "EC": 7484,
      "Ġ\"$": 7485,
      "}}^": 7486,
      "Require": 7487,
      "ĠAng": 7488,
      "sequently": 7489,
      "ceptions": 7490,
      "prov": 7491,
      "Ġ\"<": 7492,
      "Ġdro": 7493,
      "erry": 7494,
      "1990": 7495,
      "Ġsupports": 7496,
      "Ġtrying": 7497,
      "Det": 7498,
      "ĠEqu": 7499,
      "Ġuintptr": 7500,
      "ya": 7501,
      "appendChild": 7502,
      "two": 7503,
      "|-": 7504,
      "Ġsil": 7505,
      "views": 7506,
      "Generator": 7507,
      "rapped": 7508,
      "Ġleave": 7509,
      "\\_": 7510,
      "iques": 7511,
      "numer": 7512,
      "Ġintroduce": 7513,
      "ano": 7514,
      "oting": 7515,
      "Ġvisual": 7516,
      "Ġsingular": 7517,
      "BR": 7518,
      "olar": 7519,
      "Ġopacity": 7520,
      "FLA": 7521,
      "Ġclub": 7522,
      "120": 7523,
      "IV": 7524,
      ")$-": 7525,
      "Profile": 7526,
      "Ġdimensions": 7527,
      "sass": 7528,
      "equence": 7529,
      "Ġparticularly": 7530,
      "JECT": 7531,
      "illa": 7532,
      "Ġpaint": 7533,
      "lood": 7534,
      "rev": 7535,
      "Move": 7536,
      "Ġdistinct": 7537,
      "VALUE": 7538,
      "HA": 7539,
      "Ġproxy": 7540,
      "Texture": 7541,
      "Mapping": 7542,
      "Ġexam": 7543,
      "Ġemer": 7544,
      "Ġclone": 7545,
      "fort": 7546,
      "toolbar": 7547,
      "Gr": 7548,
      "cccc": 7549,
      "Ġteach": 7550,
      "PU": 7551,
      "Ġcho": 7552,
      "spe": 7553,
      "Ġ\"-": 7554,
      "Common": 7555,
      "ĠMor": 7556,
      "Ġdirector": 7557,
      "trim": 7558,
      "joint": 7559,
      "Ġcli": 7560,
      "Ġformation": 7561,
      "Ġcoming": 7562,
      "Ġincreases": 7563,
      "uby": 7564,
      "urred": 7565,
      "ĠDistrict": 7566,
      "bers": 7567,
      "redu": 7568,
      "olec": 7569,
      "gi": 7570,
      ";}": 7571,
      "nov": 7572,
      "})$.": 7573,
      "Ġdiscussion": 7574,
      "Ġsymmetric": 7575,
      "ĉĠĠ": 7576,
      "ĠMod": 7577,
      "INSERT": 7578,
      "aled": 7579,
      "Ġkernel": 7580,
      "Ġidx": 7581,
      "ultural": 7582,
      "dependency": 7583,
      "Ġsaf": 7584,
      "Ġfood": 7585,
      "eds": 7586,
      "Db": 7587,
      "Ġexecution": 7588,
      "Ġconclude": 7589,
      "Ġmenu": 7590,
      "Ġready": 7591,
      "ĠMag": 7592,
      "Ġeverything": 7593,
      "Ġpolice": 7594,
      "Linq": 7595,
      "Ġinject": 7596,
      "$/": 7597,
      "erved": 7598,
      "Ġalgorithms": 7599,
      "Ġmixed": 7600,
      ")},": 7601,
      "Ġverify": 7602,
      "Ġcalculate": 7603,
      "Double": 7604,
      "Ġassumed": 7605,
      "Ġemail": 7606,
      "hell": 7607,
      "green": 7608,
      "Tags": 7609,
      "ĠĠĠĠĠĠĠĠĠĠĠĠĠĠĠĠĠĠĠĠĠĠĠĠĠĠĠĠĠ": 7610,
      "rian": 7611,
      "Ġwrote": 7612,
      "Ġ\"\",": 7613,
      "ĠBlack": 7614,
      "footer": 7615,
      "igration": 7616,
      "bu": 7617,
      "Ġunknown": 7618,
      "FS": 7619,
      "osp": 7620,
      "Visible": 7621,
      "^{+": 7622,
      "leep": 7623,
      "Ġhimself": 7624,
      "icate": 7625,
      "}~~{}$\\": 7626,
      "rb": 7627,
      "UES": 7628,
      "Thus": 7629,
      "ĠMax": 7630,
      "Ġobserve": 7631,
      "illing": 7632,
      "Ġidentify": 7633,
      "seconds": 7634,
      "Ġidentified": 7635,
      "ĠSO": 7636,
      "ACT": 7637,
      ":=": 7638,
      "Ġcloud": 7639,
      "Ġflat": 7640,
      "iversal": 7641,
      "ilib": 7642,
      "required": 7643,
      "aven": 7644,
      "ĠHash": 7645,
      "ibly": 7646,
      "ounded": 7647,
      "FL": 7648,
      "Registry": 7649,
      "Ġtreatment": 7650,
      "video": 7651,
      "Ġconstants": 7652,
      "cluded": 7653,
      "Ġtravel": 7654,
      "displayName": 7655,
      "nn": 7656,
      "Ġvict": 7657,
      "Ġcontained": 7658,
      "mag": 7659,
      "ĠJames": 7660,
      "Ġmatrices": 7661,
      "Ġspatial": 7662,
      "profile": 7663,
      "spaces": 7664,
      "asc": 7665,
      "ĠValid": 7666,
      "mous": 7667,
      "ville": 7668,
      "Ġsizeof": 7669,
      "arter": 7670,
      "Env": 7671,
      "Flow": 7672,
      "ĠRich": 7673,
      "'(": 7674,
      "Theorem": 7675,
      "Ġsignificantly": 7676,
      "Multi": 7677,
      "mc": 7678,
      "Ġextreme": 7679,
      "tools": 7680,
      "radio": 7681,
      "ĠUsing": 7682,
      "These": 7683,
      "ango": 7684,
      "Ġdistrict": 7685,
      "itch": 7686,
      "sys": 7687,
      "Ġhighly": 7688,
      "Ġforeach": 7689,
      "Ġnorth": 7690,
      "iteral": 7691,
      "===": 7692,
      "Ġfem": 7693,
      "Ġpositions": 7694,
      "Ġauthors": 7695,
      "Abstract": 7696,
      "iated": 7697,
      "ĠAc": 7698,
      "mapsto": 7699,
      "Ġseparate": 7700,
      "Ġreach": 7701,
      "ipp": 7702,
      "ette": 7703,
      "Ġcb": 7704,
      "Ġ'.": 7705,
      "Ġcapital": 7706,
      "Ġforces": 7707,
      "Ġiterator": 7708,
      ")->": 7709,
      "American": 7710,
      "ĠMal": 7711,
      "ĠAND": 7712,
      "DP": 7713,
      "ĠJew": 7714,
      "stable": 7715,
      "ĠBuild": 7716,
      "Ġscient": 7717,
      "pending": 7718,
      "RR": 7719,
      "tags": 7720,
      "ĠGreen": 7721,
      "Ġcoordinate": 7722,
      "}{*}{": 7723,
      "Ġoccurs": 7724,
      "}^*": 7725,
      "Ġdependence": 7726,
      "fx": 7727,
      "Ġquas": 7728,
      "Ġgeneric": 7729,
      "ĠMake": 7730,
      "mn": 7731,
      "mann": 7732,
      "Ġquestions": 7733,
      "1996": 7734,
      "\"/": 7735,
      "Flag": 7736,
      "Canvas": 7737,
      "clip": 7738,
      "Ġability": 7739,
      "ĠOnly": 7740,
      "getName": 7741,
      "Ġ'$": 7742,
      "~$\\": 7743,
      "Ġ&=&": 7744,
      "ander": 7745,
      "Ġspectra": 7746,
      "transp": 7747,
      "ĠBay": 7748,
      "Ġcanvas": 7749,
      "ĠStreet": 7750,
      "okie": 7751,
      "bad": 7752,
      "ĠSets": 7753,
      "Ġgoes": 7754,
      "Ġhighest": 7755,
      "Ġmicro": 7756,
      "ributed": 7757,
      "intelli": 7758,
      "ĠOf": 7759,
      "Ġagent": 7760,
      "ĠCommit": 7761,
      "Ġattempt": 7762,
      "Ġhighlight": 7763,
      "Ġsigned": 7764,
      "acle": 7765,
      "fire": 7766,
      "Ġvectors": 7767,
      "intellij": 7768,
      "nother": 7769,
      "Some": 7770,
      "ĠAustralia": 7771,
      "Package": 7772,
      "Ġestimates": 7773,
      ",$": 7774,
      "proposition": 7775,
      "DIT": 7776,
      "Ġdriver": 7777,
      "]+": 7778,
      "fi": 7779,
      "Ġefficient": 7780,
      "mma": 7781,
      "ĠAssociation": 7782,
      "Ġlib": 7783,
      "acket": 7784,
      "Ġmachine": 7785,
      "ĠDel": 7786,
      "Ġcivil": 7787,
      "ĠChe": 7788,
      "Find": 7789,
      "Ġreplaced": 7790,
      "Ġimplemented": 7791,
      "pping": 7792,
      "Ġstri": 7793,
      "-->": 7794,
      "________": 7795,
      "Ġprograms": 7796,
      "uming": 7797,
      "Ġyields": 7798,
      "150": 7799,
      "Ġwest": 7800,
      "TIME": 7801,
      "ĠHistory": 7802,
      "spring": 7803,
      "Ġaspect": 7804,
      "Ġindicate": 7805,
      "ĠGaussian": 7806,
      "Ġpure": 7807,
      "ĠView": 7808,
      "Ġreferences": 7809,
      "Html": 7810,
      "bal": 7811,
      "rg": 7812,
      "mitive": 7813,
      "Ġenum": 7814,
      "Ġdise": 7815,
      "imed": 7816,
      "validate": 7817,
      "ĠDemocr": 7818,
      "factory": 7819,
      "ollowing": 7820,
      "ctr": 7821,
      "Ġtrip": 7822,
      "ĠPat": 7823,
      "Ġcit": 7824,
      "RES": 7825,
      "Ġcells": 7826,
      "ĠBro": 7827,
      "Ġut": 7828,
      "Ġmorph": 7829,
      "ĠStart": 7830,
      "WR": 7831,
      "itz": 7832,
      "Subsc": 7833,
      "Ġdepart": 7834,
      "Ġbehavi": 7835,
      "omin": 7836,
      "ĠASSERT": 7837,
      "ĠBGCOLOR": 7838,
      "OB": 7839,
      "jquery": 7840,
      "800": 7841,
      "Ġclearly": 7842,
      "wt": 7843,
      "ĠDiv": 7844,
      "Rows": 7845,
      "ĠANY": 7846,
      "lated": 7847,
      "ky": 7848,
      "formance": 7849,
      "Ġbooks": 7850,
      "Ġmentioned": 7851,
      "Ã¤": 7852,
      "mal": 7853,
      "ATTR": 7854,
      "iral": 7855,
      "midrule": 7856,
      "Main": 7857,
      "tik": 7858,
      "!<": 7859,
      "Ġasked": 7860,
      "Ġmaster": 7861,
      "echo": 7862,
      "itional": 7863,
      "Vertex": 7864,
      "scill": 7865,
      "lia": 7866,
      "Ġreadonly": 7867,
      "onymous": 7868,
      "'ve": 7869,
      "contain": 7870,
      "Ġheart": 7871,
      "job": 7872,
      "Ġwanted": 7873,
      "Ġ{'": 7874,
      "\\{\\": 7875,
      "Ġscience": 7876,
      "BIT": 7877,
      "Ġcontributions": 7878,
      "odot": 7879,
      "tabs": 7880,
      "Ġmovie": 7881,
      "Binding": 7882,
      "elt": 7883,
      "Ġpool": 7884,
      "dicate": 7885,
      "Ġsatisfy": 7886,
      "REE": 7887,
      "outer": 7888,
      "Ġpa": 7889,
      "aker": 7890,
      "ih": 7891,
      "omas": 7892,
      "Ġexplicitly": 7893,
      "NOT": 7894,
      "circle": 7895,
      "ĠLong": 7896,
      "Ġincreased": 7897,
      "ĠĠĠĠĠĠĠĠĠĠĠĠĠĠĠĠĠĠĠĠĠĠĠĠĠĠĠĠĠĠĠĠĠĠĠĠĠĠĠĠĠĠĠ": 7898,
      "ĠResource": 7899,
      "NR": 7900,
      "lan": 7901,
      "fix": 7902,
      "!!": 7903,
      "ocation": 7904,
      "Ġanswer": 7905,
      "Ġhope": 7906,
      "istan": 7907,
      "Ġdesired": 7908,
      "Ġstraight": 7909,
      "ĠPress": 7910,
      "tc": 7911,
      "Ġdam": 7912,
      "Variable": 7913,
      "Ġregime": 7914,
      "Ġ{*}": 7915,
      "west": 7916,
      "ĠGeorge": 7917,
      "ye": 7918,
      "ĠLeg": 7919,
      "Author": 7920,
      "las": 7921,
      "ĠDay": 7922,
      "Ð°Ð": 7923,
      "ubble": 7924,
      "route": 7925,
      "Transport": 7926,
      "pointer": 7927,
      "Ġfamilies": 7928,
      "Region": 7929,
      "Ġvariety": 7930,
      "setup": 7931,
      "Ġadding": 7932,
      "alls": 7933,
      "Ġtrace": 7934,
      "execute": 7935,
      "Ġowner": 7936,
      "pool": 7937,
      "Ġgradient": 7938,
      "Ġtro": 7939,
      "plus": 7940,
      "=\"../../../../../../": 7941,
      "Ġresid": 7942,
      "Ġcombination": 7943,
      "ĠUnion": 7944,
      "Ġenter": 7945,
      "çļ": 7946,
      "NA": 7947,
      "ĠĠĠĠĠĠĠĠĠĠĠĠĠĠĠĠĠĠĠĠĠĠĠĠĠĠĠĠ": 7948,
      "ĠGra": 7949,
      "Depend": 7950,
      "uous": 7951,
      "inger": 7952,
      "Expr": 7953,
      "LowerCase": 7954,
      "MR": 7955,
      "poses": 7956,
      "ĠEmber": 7957,
      "grade": 7958,
      "ĠRequest": 7959,
      "çļĦ": 7960,
      "Ġmeasurement": 7961,
      "Sw": 7962,
      "Ġsaw": 7963,
      "ĠElement": 7964,
      "|_{": 7965,
      "Ġfair": 7966,
      "Ġasymptot": 7967,
      "Ġapproaches": 7968,
      "Ġcandidate": 7969,
      "alg": 7970,
      "Comment": 7971,
      "compare": 7972,
      "Ġexchange": 7973,
      "iences": 7974,
      "Ġmerge": 7975,
      "$;": 7976,
      "Ġliterature": 7977,
      "arc": 7978,
      "driver": 7979,
      "CI": 7980,
      "NT": 7981,
      "library": 7982,
      "Ġanalog": 7983,
      ".\");": 7984,
      "icensed": 7985,
      ".\",": 7986,
      "Ġstellar": 7987,
      "Ġsoon": 7988,
      "ĠMessage": 7989,
      "ĠZend": 7990,
      "SQL": 7991,
      "Look": 7992,
      "IGHT": 7993,
      "ĠAnt": 7994,
      "Ġlat": 7995,
      "Ġdiagram": 7996,
      "Ġsurv": 7997,
      "ĠChristian": 7998,
      "Ġmetal": 7999,
      "compile": 8000,
      "ĠParty": 8001,
      "sb": 8002,
      "ĠTR": 8003,
      "rium": 8004,
      "Ġrotation": 8005,
      "Complete": 8006,
      "Ġdetailed": 8007,
      "orded": 8008,
      "attach": 8009,
      "Ġcapacity": 8010,
      "rift": 8011,
      "Ġonto": 8012,
      "vertical": 8013,
      "Ġnotation": 8014,
      "Ġtrain": 8015,
      "coin": 8016,
      "Role": 8017,
      "EM": 8018,
      "zip": 8019,
      "requires": 8020,
      "Ġdiscover": 8021,
      "Ġculture": 8022,
      "ened": 8023,
      "ctors": 8024,
      "Ġjoint": 8025,
      "ĠINTO": 8026,
      "'m": 8027,
      "once": 8028,
      "\">&": 8029,
      "Ġformal": 8030,
      "ĠWilliam": 8031,
      "Ġinfinite": 8032,
      "Ġlives": 8033,
      "removeClass": 8034,
      "THOD": 8035,
      "Ġremain": 8036,
      "lg": 8037,
      "ateway": 8038,
      "ĠTV": 8039,
      "ĠTex": 8040,
      "ulator": 8041,
      "ago": 8042,
      "PATH": 8043,
      "Gen": 8044,
      "Ġconvergence": 8045,
      "WN": 8046,
      "asets": 8047,
      "details": 8048,
      "mitter": 8049,
      "tw": 8050,
      "Ġtermin": 8051,
      ";/": 8052,
      "****************************************************************": 8053,
      "Ġmeasures": 8054,
      "Ġmoving": 8055,
      "Ġ%}": 8056,
      "but": 8057,
      "sample": 8058,
      "Ign": 8059,
      "Ġsafe": 8060,
      "ki": 8061,
      "trace": 8062,
      "(@": 8063,
      "clean": 8064,
      "Ġrepresenting": 8065,
      "clusive": 8066,
      "-$": 8067,
      "osing": 8068,
      "ĠTechn": 8069,
      "operation": 8070,
      "CSS": 8071,
      "ĠKe": 8072,
      "ĠWil": 8073,
      "\\\\\\": 8074,
      "Arguments": 8075,
      "GLE": 8076,
      "tikz": 8077,
      "elastic": 8078,
      "enses": 8079,
      "touch": 8080,
      "logger": 8081,
      "Ġul": 8082,
      "Ġremark": 8083,
      ">\"": 8084,
      "Ġannounced": 8085,
      "ĠDet": 8086,
      "ĠAT": 8087,
      "TestCase": 8088,
      "ICE": 8089,
      "Completed": 8090,
      "irror": 8091,
      "cancel": 8092,
      "Ġdefaults": 8093,
      "Ġroom": 8094,
      "ĠProperty": 8095,
      "Ġmechanism": 8096,
      "Ġgreen": 8097,
      "loading": 8098,
      "ĠWAR": 8099,
      "ATED": 8100,
      "Ġgave": 8101,
      "Failure": 8102,
      "usiness": 8103,
      "GC": 8104,
      "expression": 8105,
      "PER": 8106,
      "Services": 8107,
      "Ġfinished": 8108,
      "Ġcontents": 8109,
      ";<": 8110,
      "Ġneighbor": 8111,
      "neut": 8112,
      "Ġperfect": 8113,
      "ĠAny": 8114,
      "}&": 8115,
      "Ġpen": 8116,
      "Ġinteractions": 8117,
      "Ġsecret": 8118,
      "Ġschema": 8119,
      "ĠExample": 8120,
      "ancer": 8121,
      "}}^{": 8122,
      "atalog": 8123,
      "Ġnearly": 8124,
      "Ġconflict": 8125,
      "ĠMat": 8126,
      "Ġarriv": 8127,
      "Ġparallel": 8128,
      "Ġcontinued": 8129,
      "owner": 8130,
      "Ġconfigure": 8131,
      "Ġdocuments": 8132,
      "1995": 8133,
      "disable": 8134,
      "Ġproceed": 8135,
      "Pers": 8136,
      "Ġexit": 8137,
      "observer": 8138,
      "icles": 8139,
      "('/": 8140,
      "Ġforeign": 8141,
      "changed": 8142,
      "ĠFrance": 8143,
      "cluding": 8144,
      "za": 8145,
      "ston": 8146,
      "ĠWhite": 8147,
      "SM": 8148,
      "Ġfight": 8149,
      "tick": 8150,
      "Ġcosm": 8151,
      "Ġthreat": 8152,
      "haps": 8153,
      "Ġil": 8154,
      "Drop": 8155,
      "ĠAfrica": 8156,
      "Ġstudent": 8157,
      "Ġcard": 8158,
      "uting": 8159,
      "Ġgap": 8160,
      "Ġoccup": 8161,
      "Ġinfluence": 8162,
      "fc": 8163,
      "sive": 8164,
      "apt": 8165,
      "Disposable": 8166,
      ")+\\": 8167,
      "VM": 8168,
      "CESS": 8169,
      "variance": 8170,
      "Stats": 8171,
      "displaystyle": 8172,
      "$~": 8173,
      "Ġreached": 8174,
      "home": 8175,
      "Ġclassification": 8176,
      "Ġwrapper": 8177,
      "pace": 8178,
      "itar": 8179,
      "Ġformed": 8180,
      "thern": 8181,
      "Ġproviding": 8182,
      "objects": 8183,
      "Ġboard": 8184,
      "Ġcycle": 8185,
      "Ġadjust": 8186,
      "supported": 8187,
      "\")]": 8188,
      "chunk": 8189,
      "yy": 8190,
      "setAttribute": 8191,
      "ĠRiver": 8192,
      "hips": 8193,
      "aking": 8194,
      "Ġspecify": 8195,
      "Ġcomments": 8196,
      "Ġversions": 8197,
      "Ġunderstanding": 8198,
      "Total": 8199,
      "Ġbinding": 8200,
      "elebr": 8201,
      "roke": 8202,
      "Ġcombined": 8203,
      "fficiency": 8204,
      "ĠCommission": 8205,
      "Ġbin": 8206,
      "km": 8207,
      "DT": 8208,
      "Ġobvious": 8209,
      "ĠDan": 8210,
      "extension": 8211,
      "ilibrium": 8212,
      "Ġplaying": 8213,
      "dispatch": 8214,
      "pu": 8215,
      "Ġwind": 8216,
      "Ġdesp": 8217,
      "Ġ'-": 8218,
      "BO": 8219,
      "ĠProv": 8220,
      "Ġmother": 8221,
      "Ġ([": 8222,
      "Ġprojects": 8223,
      "ĠImage": 8224,
      "WORD": 8225,
      "Ġion": 8226,
      "Ġlayers": 8227,
      "Ġrestri": 8228,
      "components": 8229,
      "toLowerCase": 8230,
      "La": 8231,
      "shared": 8232,
      "origin": 8233,
      "ĉĠĠĠĠĠĠĠĠĠ": 8234,
      "Library": 8235,
      "Ġconstructed": 8236,
      "FORM": 8237,
      "anchor": 8238,
      "Ġrock": 8239,
      "Ġreli": 8240,
      "ĠAward": 8241,
      "Ġvs": 8242,
      "ughter": 8243,
      "ĠDesc": 8244,
      "tiny": 8245,
      "RAY": 8246,
      "Ġste": 8247,
      "ĠclassName": 8248,
      "ĠSum": 8249,
      "uplic": 8250,
      "Ġcaused": 8251,
      "ena": 8252,
      "flu": 8253,
      "FNGL": 8254,
      "IVE": 8255,
      "Ġopened": 8256,
      "strument": 8257,
      "\"},": 8258,
      "stats": 8259,
      "ATCH": 8260,
      "Ġenv": 8261,
      "ĠLOG": 8262,
      "anned": 8263,
      ".$$": 8264,
      ")-\\": 8265,
      "ĠOptional": 8266,
      "Ġusage": 8267,
      "dig": 8268,
      "Ids": 8269,
      "ãĢ": 8270,
      "repeat": 8271,
      "Many": 8272,
      "Methods": 8273,
      "Ġschools": 8274,
      "Required": 8275,
      "DEBUG": 8276,
      "mical": 8277,
      "'ll": 8278,
      "Ro": 8279,
      "COMP": 8280,
      "Clear": 8281,
      "Background": 8282,
      "scape": 8283,
      "Ġconserv": 8284,
      "Import": 8285,
      "Ġviews": 8286,
      "HS": 8287,
      "ĠMult": 8288,
      "Focus": 8289,
      "warn": 8290,
      "pull": 8291,
      "Ġ\"'": 8292,
      "Ġdifferential": 8293,
      "Ġmolec": 8294,
      "bc": 8295,
      "Strategy": 8296,
      "DateTime": 8297,
      "abe": 8298,
      "decor": 8299,
      "account": 8300,
      "Ġstrength": 8301,
      "Ġodd": 8302,
      "Ġtor": 8303,
      "Ġtelevision": 8304,
      "Ġrace": 8305,
      "_);": 8306,
      "Ġdepending": 8307,
      "Ġrelatively": 8308,
      "Resources": 8309,
      "Ġgalaxy": 8310,
      "Ġparents": 8311,
      "inherit": 8312,
      "Ġtd": 8313,
      "ĠVis": 8314,
      "Ġcreation": 8315,
      "Ġfederal": 8316,
      "jac": 8317,
      "rate": 8318,
      "front": 8319,
      "Ġmedical": 8320,
      "Ġthick": 8321,
      "zure": 8322,
      "}({\\": 8323,
      "git": 8324,
      "ĠMart": 8325,
      "bose": 8326,
      "STRING": 8327,
      "Ġjoined": 8328,
      "ajax": 8329,
      "atomic": 8330,
      "Ġring": 8331,
      "Ġoscill": 8332,
      "Ġinverse": 8333,
      "Ġoptical": 8334,
      "Join": 8335,
      "abric": 8336,
      "issues": 8337,
      "Ġchurch": 8338,
      "................": 8339,
      "Ġfine": 8340,
      "Ġdoub": 8341,
      "fully": 8342,
      "ĠSche": 8343,
      "Ġtruth": 8344,
      "Ã¶": 8345,
      "Align": 8346,
      "ipage": 8347,
      "sn": 8348,
      "Ġinterpret": 8349,
      "what": 8350,
      "ĠMary": 8351,
      "istical": 8352,
      "Ġstyles": 8353,
      "Ġsignature": 8354,
      "Ġstaff": 8355,
      ":'": 8356,
      "Ġconcent": 8357,
      "bg": 8358,
      "Ġminutes": 8359,
      "Wait": 8360,
      "Ġapproximately": 8361,
      "Java": 8362,
      "Ġseconds": 8363,
      "Ġcop": 8364,
      "Ġsometimes": 8365,
      "RC": 8366,
      "ĠVALUES": 8367,
      "Ġbur": 8368,
      "Ġenjo": 8369,
      "isters": 8370,
      "Fil": 8371,
      "ĠTemp": 8372,
      "ignore": 8373,
      "ĠVir": 8374,
      "rier": 8375,
      "Ġouter": 8376,
      "Ġrev": 8377,
      "inese": 8378,
      "-(": 8379,
      "subscribe": 8380,
      "Ġprojection": 8381,
      "Ġ\"\";": 8382,
      "ologies": 8383,
      "mpt": 8384,
      "aN": 8385,
      "Ġimag": 8386,
      "Timer": 8387,
      "Ġfundamental": 8388,
      "stic": 8389,
      "release": 8390,
      "Fl": 8391,
      "Mer": 8392,
      "chmark": 8393,
      "ĠAccording": 8394,
      "udget": 8395,
      "aste": 8396,
      "found": 8397,
      "role": 8398,
      "etween": 8399,
      "Ġvalidate": 8400,
      "ussia": 8401,
      "latform": 8402,
      "Ġpages": 8403,
      "Ġshowing": 8404,
      "Ġresponsible": 8405,
      "urations": 8406,
      "Ġdetected": 8407,
      "Ġmovement": 8408,
      "undred": 8409,
      "eness": 8410,
      "Ġproved": 8411,
      "Py": 8412,
      "Ġeast": 8413,
      "Ġconversion": 8414,
      "Scheduler": 8415,
      "Ġtechniques": 8416,
      "Ġassist": 8417,
      "osity": 8418,
      "INTER": 8419,
      "ĠAlthough": 8420,
      "Fin": 8421,
      "Short": 8422,
      "Ġoptimization": 8423,
      "Ġassigned": 8424,
      "ationToken": 8425,
      "sey": 8426,
      "ĠJack": 8427,
      "ĠSVG": 8428,
      "Other": 8429,
      "xs": 8430,
      "ura": 8431,
      "Ġnoted": 8432,
      "PUT": 8433,
      "CALL": 8434,
      "ĠCompany": 8435,
      "Ġult": 8436,
      "Support": 8437,
      "LECT": 8438,
      "Ġappoint": 8439,
      "ĠAction": 8440,
      "Ġplaces": 8441,
      "warning": 8442,
      "FIG": 8443,
      "Ġwoman": 8444,
      ".<": 8445,
      "Ġpull": 8446,
      "ĠInput": 8447,
      "glyph": 8448,
      "ao": 8449,
      "})$,": 8450,
      "Sharp": 8451,
      "Ġsummary": 8452,
      "Ġtrust": 8453,
      "ĠHall": 8454,
      "such": 8455,
      "ymmetric": 8456,
      "CB": 8457,
      "prevent": 8458,
      "secut": 8459,
      "Ġstrongly": 8460,
      "Driver": 8461,
      "Ġmajority": 8462,
      "Ġruntime": 8463,
      "ups": 8464,
      "1980": 8465,
      "Ġreson": 8466,
      "=\"../../../": 8467,
      "Ġinstant": 8468,
      "Ġorganization": 8469,
      "Ġwife": 8470,
      "ĠClo": 8471,
      "Ġveh": 8472,
      "Ġamb": 8473,
      "&=&": 8474,
      "Ġjournal": 8475,
      "interval": 8476,
      "activ": 8477,
      "}}$,": 8478,
      "ĠWrite": 8479,
      "cursor": 8480,
      "ĠBra": 8481,
      "hbar": 8482,
      "century": 8483,
      "ĠFour": 8484,
      "Ġinsp": 8485,
      "ental": 8486,
      "lower": 8487,
      "ming": 8488,
      "ĠBack": 8489,
      "Ġcm": 8490,
      "brid": 8491,
      "Ġabsor": 8492,
      "cong": 8493,
      "irmed": 8494,
      "ĠSecond": 8495,
      "}}$.": 8496,
      "ĠRobert": 8497,
      "ĉĠĠĠĠĠĠĠĠĠĠĠĠĠĠĠĠĠĠĠ": 8498,
      "Ġjavax": 8499,
      "Basic": 8500,
      "Ġlimits": 8501,
      "ducation": 8502,
      "ko": 8503,
      "Ġshowed": 8504,
      "sync": 8505,
      "Ġexc": 8506,
      "opic": 8507,
      "Conver": 8508,
      "ĠSociety": 8509,
      "Ġexpressed": 8510,
      "abil": 8511,
      "roy": 8512,
      "anese": 8513,
      "ssl": 8514,
      "ĠBig": 8515,
      "ĠAppend": 8516,
      "highlight": 8517,
      "Ġfreedom": 8518,
      "Ġelectric": 8519,
      "REQ": 8520,
      "Ġexecuted": 8521,
      "ĠHamiltonian": 8522,
      "Ġdifferences": 8523,
      "Ġhypot": 8524,
      "Ġslightly": 8525,
      "Ġdead": 8526,
      "Ġvac": 8527,
      "maps": 8528,
      "Ġbrief": 8529,
      "ellig": 8530,
      "Ġscene": 8531,
      "FFFF": 8532,
      "builder": 8533,
      "ĠSQL": 8534,
      "Ġquadr": 8535,
      "DEFAULT": 8536,
      "ĠColor": 8537,
      "Category": 8538,
      "Ġtypically": 8539,
      "Ġsections": 8540,
      "lott": 8541,
      "ogeneous": 8542,
      "flex": 8543,
      "Ġworth": 8544,
      "ĠPRO": 8545,
      "Ġ$|\\": 8546,
      "Ġclusters": 8547,
      "180": 8548,
      "CLASS": 8549,
      "ĠLou": 8550,
      "Prototype": 8551,
      "haser": 8552,
      "inject": 8553,
      "IDE": 8554,
      "Assign": 8555,
      "Ġxmlns": 8556,
      "Area": 8557,
      "Touch": 8558,
      "ufact": 8559,
      "1994": 8560,
      "IA": 8561,
      "(.": 8562,
      "Marker": 8563,
      "ĠEmp": 8564,
      "ibling": 8565,
      "lig": 8566,
      "iro": 8567,
      "Annotation": 8568,
      "Ġcomputation": 8569,
      "Ġminimal": 8570,
      "Example": 8571,
      "ĠMer": 8572,
      "icode": 8573,
      "Ġmagnitude": 8574,
      "extra": 8575,
      "duled": 8576,
      "Ġfavor": 8577,
      "Ġprotect": 8578,
      "}$)": 8579,
      "sig": 8580,
      "Bool": 8581,
      "Ġstated": 8582,
      "junit": 8583,
      "Ġapplicable": 8584,
      "yr": 8585,
      "Ġdialog": 8586,
      "kubernetes": 8587,
      "anging": 8588,
      "Ġtraditional": 8589,
      "Ġsector": 8590,
      "Ġloading": 8591,
      "jpg": 8592,
      "@{": 8593,
      ">;": 8594,
      "ĠNetwork": 8595,
      "Serializer": 8596,
      "ĠBoard": 8597,
      "henomen": 8598,
      "Ġpublish": 8599,
      "omp": 8600,
      "hol": 8601,
      "Hz": 8602,
      "Append": 8603,
      "]}": 8604,
      "Ġreserved": 8605,
      "Labels": 8606,
      "Ñı": 8607,
      "ĠFinally": 8608,
      "Ġcss": 8609,
      "Ġremote": 8610,
      "DATA": 8611,
      "Sequence": 8612,
      "Blob": 8613,
      "Ġpret": 8614,
      "Ġstay": 8615,
      "Ġcy": 8616,
      "Ġsociety": 8617,
      "Ġaccomp": 8618,
      "Ġlang": 8619,
      "ĠProgram": 8620,
      "simple": 8621,
      "Ġcmd": 8622,
      "Ġscattering": 8623,
      "ĠResult": 8624,
      "Ġalternative": 8625,
      "Ġsett": 8626,
      "jango": 8627,
      "Ġreasons": 8628,
      "))$": 8629,
      "Ġfoo": 8630,
      "Ġepisode": 8631,
      "Ġpassword": 8632,
      "Ġdescriptor": 8633,
      "minipage": 8634,
      "ĠGermany": 8635,
      "Insert": 8636,
      "ordinate": 8637,
      "Finally": 8638,
      "ben": 8639,
      "oon": 8640,
      "Ġactivities": 8641,
      "camel": 8642,
      "dp": 8643,
      "Ġpseud": 8644,
      "ĠCommittee": 8645,
      "Ġunion": 8646,
      "rimin": 8647,
      "Ġdx": 8648,
      "Ġevaluate": 8649,
      "going": 8650,
      "Ang": 8651,
      "separ": 8652,
      "Stat": 8653,
      "provider": 8654,
      "ĠProf": 8655,
      "Ġfragment": 8656,
      "=\"/": 8657,
      "Ġdestination": 8658,
      "Ġattrs": 8659,
      "ArgumentException": 8660,
      "Bits": 8661,
      "resources": 8662,
      "Ġstarts": 8663,
      "ï¼": 8664,
      "anguages": 8665,
      "Operator": 8666,
      ")}}": 8667,
      "Ġbrought": 8668,
      "hemat": 8669,
      "material": 8670,
      "ummy": 8671,
      "Ġconven": 8672,
      "METHOD": 8673,
      "Ġideal": 8674,
      "Ġprovider": 8675,
      "Ġsynchron": 8676,
      "'].": 8677,
      "Ġindices": 8678,
      "Ġrequested": 8679,
      "Ġ{$": 8680,
      "ursive": 8681,
      "Ġharmon": 8682,
      "ĠBu": 8683,
      "locale": 8684,
      "ĠMichael": 8685,
      "']);": 8686,
      "Gu": 8687,
      "RT": 8688,
      "lesssim": 8689,
      "previous": 8690,
      ")}_{": 8691,
      "Normal": 8692,
      "transparent": 8693,
      "kw": 8694,
      "mix": 8695,
      "cref": 8696,
      "rase": 8697,
      "ĠTexas": 8698,
      "Ġpoor": 8699,
      "Ġdrug": 8700,
      "horizontal": 8701,
      "Ġsomeone": 8702,
      "PROC": 8703,
      "Ġoverflow": 8704,
      "adian": 8705,
      "Ġax": 8706,
      "Ġdelta": 8707,
      "Ġreduction": 8708,
      "Ġtour": 8709,
      "sidebar": 8710,
      "('<": 8711,
      "ĠRoman": 8712,
      "Ġ',": 8713,
      "ĠUnder": 8714,
      "AG": 8715,
      "olves": 8716,
      "Bounds": 8717,
      "tooltip": 8718,
      "Ġbug": 8719,
      "Ġrecall": 8720,
      "Bo": 8721,
      "Cred": 8722,
      "Ġqq": 8723,
      "VALID": 8724,
      "Fragment": 8725,
      "Ġgir": 8726,
      "ĠMac": 8727,
      "ĠRad": 8728,
      "ĠChild": 8729,
      "aily": 8730,
      "ĠFin": 8731,
      "iary": 8732,
      "Ġscenario": 8733,
      "Nullable": 8734,
      ":}": 8735,
      "Introduction": 8736,
      "mazon": 8737,
      "Ġstrateg": 8738,
      "Ġscaling": 8739,
      "kes": 8740,
      "$),": 8741,
      "Ġcalculation": 8742,
      "ĠAre": 8743,
      "ĠFind": 8744,
      ",\"./": 8745,
      "Ġbeg": 8746,
      "Ġdevices": 8747,
      "apis": 8748,
      "ĠFil": 8749,
      "Ġ'%": 8750,
      "TABLE": 8751,
      "ĠCath": 8752,
      "Ġreports": 8753,
      "CRE": 8754,
      "oration": 8755,
      "Ġinher": 8756,
      "have": 8757,
      "Public": 8758,
      "mass": 8759,
      "rons": 8760,
      "oday": 8761,
      "accept": 8762,
      "Day": 8763,
      "Ġtypical": 8764,
      "ĠGovernment": 8765,
      "Ready": 8766,
      "Ġhole": 8767,
      "unce": 8768,
      "}{|": 8769,
      "ĠExecut": 8770,
      "tk": 8771,
      "Ġprediction": 8772,
      "Ġprice": 8773,
      "Ġwarn": 8774,
      "ONG": 8775,
      "tensor": 8776,
      "popup": 8777,
      "Ġregistered": 8778,
      "eval": 8779,
      "('#": 8780,
      "Month": 8781,
      "Ġsequences": 8782,
      "ĠUtil": 8783,
      "Language": 8784,
      "Ġinterested": 8785,
      "Begin": 8786,
      "Ġscheduler": 8787,
      "Ġletter": 8788,
      "ope": 8789,
      "ald": 8790,
      "Ġleader": 8791,
      "Ġgiving": 8792,
      "Ġobservation": 8793,
      "250": 8794,
      "Ġescape": 8795,
      "Video": 8796,
      "ĠBlock": 8797,
      "QU": 8798,
      "atin": 8799,
      "Ġeight": 8800,
      "pective": 8801,
      "Ġdie": 8802,
      "Ġhol": 8803,
      "Ġplaced": 8804,
      "hbox": 8805,
      "Ġcommunication": 8806,
      "oser": 8807,
      "Pair": 8808,
      "feature": 8809,
      "Ġcalculations": 8810,
      "Ġlisted": 8811,
      "rim": 8812,
      "ensus": 8813,
      "Engine": 8814,
      "heel": 8815,
      "Ġbatch": 8816,
      "iller": 8817,
      "reek": 8818,
      "Product": 8819,
      "splice": 8820,
      "1970": 8821,
      "delay": 8822,
      "Ġprofessional": 8823,
      "Ġmodify": 8824,
      "extern": 8825,
      "Ġinduced": 8826,
      "Chunk": 8827,
      "Ġbundle": 8828,
      "ny": 8829,
      "Therefore": 8830,
      "Pref": 8831,
      "REG": 8832,
      "umptions": 8833,
      "Ġindividuals": 8834,
      "Ġwarning": 8835,
      "urable": 8836,
      "Ġfunctional": 8837,
      "/*!": 8838,
      "Ġproport": 8839,
      "ĠMusic": 8840,
      "Ġexcit": 8841,
      "ancell": 8842,
      "Ġtags": 8843,
      "flat": 8844,
      "DM": 8845,
      "Ġinj": 8846,
      "basic": 8847,
      "configuration": 8848,
      "Ġnormalized": 8849,
      "Batch": 8850,
      "Play": 8851,
      "Ġstrain": 8852,
      "attrs": 8853,
      "Ġsuccessfully": 8854,
      "Ġdirected": 8855,
      "Ġgraphs": 8856,
      "ĠSelect": 8857,
      "algorithm": 8858,
      "ĠMus": 8859,
      "ĠGlobal": 8860,
      "\"].": 8861,
      "cla": 8862,
      "Diagnost": 8863,
      "pref": 8864,
      "Ġnation": 8865,
      "Ġseven": 8866,
      "lementation": 8867,
      "SK": 8868,
      "Same": 8869,
      "Ġdegrees": 8870,
      "Watch": 8871,
      "ĠDocument": 8872,
      "uest": 8873,
      "ĠPDF": 8874,
      "#{": 8875,
      "dc": 8876,
      "################": 8877,
      "opacity": 8878,
      "ĠPlan": 8879,
      "Ġcodes": 8880,
      "socket": 8881,
      "Ġmatched": 8882,
      "ja": 8883,
      "Ġregex": 8884,
      "Ġpoly": 8885,
      "stein": 8886,
      "ĠSecret": 8887,
      "Ġpp": 8888,
      "platform": 8889,
      "Ġcarry": 8890,
      "ĠHAL": 8891,
      "plan": 8892,
      "Ġ..": 8893,
      "Ġiteration": 8894,
      "000000": 8895,
      "itudes": 8896,
      "DL": 8897,
      "ercial": 8898,
      "Ġamplitude": 8899,
      "zen": 8900,
      "Ġresp": 8901,
      "ORY": 8902,
      "ctrine": 8903,
      "Ġcomputer": 8904,
      "llegal": 8905,
      "Ġeventually": 8906,
      "Ġspent": 8907,
      "INFO": 8908,
      "ĠMex": 8909,
      "Convert": 8910,
      "ĠYear": 8911,
      "ji": 8912,
      "ĠĠĠĠĠĠĠĠĠĠĠĠĠĠĠĠĠĠĠĠĠĠĠĠĠĠĠĠĠĠ": 8913,
      "convert": 8914,
      "cpp": 8915,
      "Ġhor": 8916,
      "engine": 8917,
      "ĠArmy": 8918,
      "1993": 8919,
      "ĠIR": 8920,
      "Ġmasses": 8921,
      "125": 8922,
      "datepicker": 8923,
      "anks": 8924,
      "Idx": 8925,
      "ees": 8926,
      "owers": 8927,
      "ita": 8928,
      "ona": 8929,
      "))\\": 8930,
      "apers": 8931,
      "Loop": 8932,
      "HER": 8933,
      "reject": 8934,
      "Details": 8935,
      "Ġdecomposition": 8936,
      "ĠLocal": 8937,
      "ĠTur": 8938,
      "Ġconsidering": 8939,
      "Ġlatest": 8940,
      "Ġdraft": 8941,
      "ĠZe": 8942,
      "animate": 8943,
      "Ġsen": 8944,
      "()))": 8945,
      "jax": 8946,
      "Ġcomposition": 8947,
      "Ġparsed": 8948,
      "Ġserious": 8949,
      "{%": 8950,
      "Character": 8951,
      "Ġglob": 8952,
      "Ġroad": 8953,
      "generated": 8954,
      "Zone": 8955,
      "1992": 8956,
      "erial": 8957,
      "TT": 8958,
      "aret": 8959,
      "[-": 8960,
      "Ġdocumentation": 8961,
      "ĠMost": 8962,
      "Ġ!!": 8963,
      "Password": 8964,
      "Ġweights": 8965,
      "imated": 8966,
      "itivity": 8967,
      "pair": 8968,
      "ilarly": 8969,
      "getElement": 8970,
      "Ġrecorded": 8971,
      "bt": 8972,
      "DULE": 8973,
      "Edge": 8974,
      "Ġmassive": 8975,
      "slide": 8976,
      "MODULE": 8977,
      "Ġagreed": 8978,
      "Ġlumin": 8979,
      "sched": 8980,
      "ysics": 8981,
      "Ġwrap": 8982,
      "CM": 8983,
      "ĠDuring": 8984,
      "(\"./": 8985,
      "Ġconvex": 8986,
      "}{(": 8987,
      "ĠHttp": 8988,
      "Ġhide": 8989,
      "ORTED": 8990,
      "POST": 8991,
      "=\"\"": 8992,
      "ĠAfrican": 8993,
      "AAAA": 8994,
      "ĠAlex": 8995,
      "servers": 8996,
      "Pay": 8997,
      "Two": 8998,
      "Ġ@\"": 8999,
      "lymp": 9000,
      "cfg": 9001,
      "Ġtools": 9002,
      "![": 9003,
      "******/": 9004,
      "ĠProcess": 9005,
      "keyword": 9006,
      "Ġsys": 9007,
      "defaults": 9008,
      "esian": 9009,
      "Ġevaluation": 9010,
      "har": 9011,
      "apes": 9012,
      "sequent": 9013,
      "ĠPoint": 9014,
      "Ġ/*!<": 9015,
      "\\\\&": 9016,
      "sat": 9017,
      "Ġmeeting": 9018,
      "Ġ\"%": 9019,
      "afe": 9020,
      "Ġsql": 9021,
      "Ġfriends": 9022,
      "Ġsell": 9023,
      "Ġfluctu": 9024,
      "getAttribute": 9025,
      "}\\,\\": 9026,
      "Ġcitiz": 9027,
      "Ġchannels": 9028,
      "direction": 9029,
      "Objects": 9030,
      "ĠMedia": 9031,
      "Ġsubgroup": 9032,
      "ĠShow": 9033,
      "Ġkm": 9034,
      "ĠIter": 9035,
      "Ġrequirements": 9036,
      "Ġhundred": 9037,
      "Abs": 9038,
      "ĠOp": 9039,
      "Dev": 9040,
      "Ġ'_": 9041,
      "catch": 9042,
      "Validation": 9043,
      "Fr": 9044,
      "/(": 9045,
      "estival": 9046,
      "ĠWIT": 9047,
      "relation": 9048,
      "mutable": 9049,
      "isEmpty": 9050,
      "tfrac": 9051,
      "Ġintegration": 9052,
      "ski": 9053,
      ">:": 9054,
      "Ġener": 9055,
      "invert": 9056,
      "allery": 9057,
      "functions": 9058,
      "resentation": 9059,
      "Ġdecided": 9060,
      "{},": 9061,
      "Ġcyc": 9062,
      "bigl": 9063,
      "cross": 9064,
      "Ġcomplexity": 9065,
      "Cursor": 9066,
      "IPT": 9067,
      "$&": 9068,
      "ĠObservable": 9069,
      "acebook": 9070,
      "Ġpy": 9071,
      "structions": 9072,
      "native": 9073,
      "will": 9074,
      "constant": 9075,
      "ĠParameter": 9076,
      "}</": 9077,
      "How": 9078,
      "Unknown": 9079,
      "Ġopportunity": 9080,
      "Ġtheoretical": 9081,
      "blob": 9082,
      "PY": 9083,
      "Ġphenomen": 9084,
      "ĠAcade": 9085,
      "deep": 9086,
      "Chain": 9087,
      "antom": 9088,
      "Ġworkers": 9089,
      "Analysis": 9090,
      "yer": 9091,
      "Ġequip": 9092,
      "venue": 9093,
      "ĠVi": 9094,
      "Ġ\\]": 9095,
      "Ġstatistics": 9096,
      "Ġpiece": 9097,
      "Ġlegis": 9098,
      "ĠCongress": 9099,
      "abc": 9100,
      "ĠPHP": 9101,
      "Elem": 9102,
      "Ġentropy": 9103,
      "phone": 9104,
      "ĉĉĉĉĉĉĊ": 9105,
      "vee": 9106,
      "Ġserve": 9107,
      "scriptsize": 9108,
      "Ġcelebr": 9109,
      "Ġcollabor": 9110,
      "Ġmaintain": 9111,
      "finity": 9112,
      "Ġimg": 9113,
      "pan": 9114,
      "liament": 9115,
      "Attach": 9116,
      "Returns": 9117,
      "Ġachieved": 9118,
      "Ġlemma": 9119,
      "Ġthermal": 9120,
      "(\"/": 9121,
      "sych": 9122,
      "Raw": 9123,
      "Ġcoefficient": 9124,
      "Transition": 9125,
      "IONS": 9126,
      "Ġpixel": 9127,
      "aria": 9128,
      "rv": 9129,
      "Ġarchitecture": 9130,
      "kin": 9131,
      "Ġendpoint": 9132,
      "Ġfinding": 9133,
      "execut": 9134,
      "brace": 9135,
      "Ġflex": 9136,
      "Allow": 9137,
      "ani": 9138,
      "Ġrise": 9139,
      "ĠBY": 9140,
      "Ġrecover": 9141,
      "ĠTwo": 9142,
      "ontable": 9143,
      "Series": 9144,
      "ĠSM": 9145,
      "Ġsaying": 9146,
      "Addr": 9147,
      "Ġindeed": 9148,
      "Ġacceler": 9149,
      "LOW": 9150,
      "Ġheavy": 9151,
      "ĠLine": 9152,
      "Ġlogger": 9153,
      "lications": 9154,
      "Private": 9155,
      "Ġaggreg": 9156,
      "Ġease": 9157,
      "Ġsync": 9158,
      "Ġtokens": 9159,
      "ADD": 9160,
      "world": 9161,
      "Ġsolve": 9162,
      "Ġprinciple": 9163,
      "MIN": 9164,
      "Ġinputs": 9165,
      "ĠCommon": 9166,
      "Ġspread": 9167,
      "Repository": 9168,
      "Ġresolved": 9169,
      "ĠJournal": 9170,
      "Ġscales": 9171,
      "matic": 9172,
      "ito": 9173,
      "Ð´": 9174,
      "Ġens": 9175,
      "Ġpayload": 9176,
      "iar": 9177,
      "lations": 9178,
      "avel": 9179,
      "ĠBill": 9180,
      "plain": 9181,
      "^*$": 9182,
      "ĠOrder": 9183,
      "Activity": 9184,
      "flush": 9185,
      "MAP": 9186,
      "tbody": 9187,
      "quote": 9188,
      "Ġtail": 9189,
      "parts": 9190,
      "Ġsimpl": 9191,
      "FFER": 9192,
      "pf": 9193,
      "bigr": 9194,
      "NSString": 9195,
      "Ġpatterns": 9196,
      "Mixin": 9197,
      "']['": 9198,
      "variable": 9199,
      "Upload": 9200,
      "Ctx": 9201,
      "collapse": 9202,
      "igator": 9203,
      "Points": 9204,
      "ancis": 9205,
      "orial": 9206,
      "Ġappeared": 9207,
      "Ġlogic": 9208,
      "Car": 9209,
      "Ġcreates": 9210,
      "ĠFurthermore": 9211,
      "ĠOffice": 9212,
      "ARRAY": 9213,
      "eli": 9214,
      "toBe": 9215,
      "Ġ}).": 9216,
      "Ġ[\\": 9217,
      "Columns": 9218,
      "slider": 9219,
      "riptions": 9220,
      "ĠLie": 9221,
      "Ġkilled": 9222,
      "Ġpurposes": 9223,
      "ĠPub": 9224,
      "seq": 9225,
      "regex": 9226,
      "ĠRussian": 9227,
      "_)": 9228,
      "Ġquark": 9229,
      "Screen": 9230,
      "ĠMuseum": 9231,
      "ĠChinese": 9232,
      "Ġequality": 9233,
      "Ġmetrics": 9234,
      "Ġuncertainty": 9235,
      "Enumerable": 9236,
      "Ġstories": 9237,
      "Ġdiscrete": 9238,
      "}}}\\": 9239,
      "ĠAssembly": 9240,
      "Bal": 9241,
      "UD": 9242,
      "Ġrecon": 9243,
      "Ġnuclear": 9244,
      "mk": 9245,
      "ygon": 9246,
      "Ġdenoted": 9247,
      "Ġvote": 9248,
      "ĠLL": 9249,
      "ustain": 9250,
      "Ġpurch": 9251,
      "ANT": 9252,
      "Ġjs": 9253,
      "ĠTimes": 9254,
      "ĠWARRAN": 9255,
      "Ġtranslation": 9256,
      "pag": 9257,
      "Ġlisteners": 9258,
      "ĠassertThat": 9259,
      "Ġhosp": 9260,
      "Ġguide": 9261,
      "NC": 9262,
      "Ġscan": 9263,
      "/.": 9264,
      "bot": 9265,
      "ĠSource": 9266,
      "Bottom": 9267,
      "Ġmaterials": 9268,
      "Groups": 9269,
      "hook": 9270,
      "mac": 9271,
      "ĠHandle": 9272,
      "ĠAli": 9273,
      "Ġbeam": 9274,
      "ĠCustom": 9275,
      "ĠVol": 9276,
      "Ġsn": 9277,
      "services": 9278,
      "Ġdust": 9279,
      "_-": 9280,
      "opes": 9281,
      "Ġsongs": 9282,
      "ĠBecause": 9283,
      "getValue": 9284,
      "gies": 9285,
      "Ġdefines": 9286,
      "phase": 9287,
      "rams": 9288,
      "elect": 9289,
      "aur": 9290,
      "Folder": 9291,
      "batch": 9292,
      "ĠStep": 9293,
      "relative": 9294,
      "Ġsemi": 9295,
      "Ġrotate": 9296,
      "ENER": 9297,
      "clusions": 9298,
      "uffers": 9299,
      "Ġsatisfying": 9300,
      "Ġidentifier": 9301,
      "Ġ'#": 9302,
      "ĠRussia": 9303,
      "Ġneutr": 9304,
      "ĠDirector": 9305,
      "Ġ\".": 9306,
      "writer": 9307,
      "Ġprecision": 9308,
      "Enter": 9309,
      "Ġexpressions": 9310,
      "ĠMinister": 9311,
      "Ġ'[": 9312,
      "ĠSecurity": 9313,
      "ceeded": 9314,
      "Ġ^{": 9315,
      "ĠChampion": 9316,
      "Ġpriority": 9317,
      "Ġefficiency": 9318,
      "Ġflo": 9319,
      "ĠSeries": 9320,
      "ĠPet": 9321,
      "Errors": 9322,
      "Ġtrained": 9323,
      "bp": 9324,
      "ĠCup": 9325,
      "\\}$.": 9326,
      "Ġclock": 9327,
      "ctionary": 9328,
      "article": 9329,
      "oken": 9330,
      "ĠSur": 9331,
      "SF": 9332,
      "Ġdistingu": 9333,
      "standing": 9334,
      "mathop": 9335,
      "isset": 9336,
      "}],": 9337,
      "DIS": 9338,
      "Resolver": 9339,
      "Ġusual": 9340,
      "periment": 9341,
      "ĠImm": 9342,
      "ĠForce": 9343,
      "Ġaudio": 9344,
      "ifest": 9345,
      "Ġship": 9346,
      "Ġdeliver": 9347,
      "Ġapplying": 9348,
      "Ġpolicies": 9349,
      "available": 9350,
      "Cast": 9351,
      "ĠNAME": 9352,
      "Ġoccurred": 9353,
      "()`": 9354,
      "ĠCOM": 9355,
      "UND": 9356,
      "Ġrapid": 9357,
      "Ġordered": 9358,
      "cogn": 9359,
      "TF": 9360,
      "]$.": 9361,
      "Ġpixels": 9362,
      "Ġlocally": 9363,
      "$:": 9364,
      "Ġsch": 9365,
      "disc": 9366,
      "neutral": 9367,
      "Metrics": 9368,
      "1991": 9369,
      "Ġisol": 9370,
      "ĠMock": 9371,
      "ĠMain": 9372,
      "bd": 9373,
      "Cur": 9374,
      "}}_{\\": 9375,
      "Ġmus": 9376,
      "assertTrue": 9377,
      "ĠSmith": 9378,
      "Ġawait": 9379,
      "jet": 9380,
      "zoom": 9381,
      "Ġbirths": 9382,
      "phere": 9383,
      ">()": 9384,
      "expand": 9385,
      "vol": 9386,
      "ĠWhether": 9387,
      "Notification": 9388,
      "riend": 9389,
      "ĠHome": 9390,
      "ĠEducation": 9391,
      "Ġ|=": 9392,
      "rich": 9393,
      "bor": 9394,
      "ĠPen": 9395,
      "ĠApache": 9396,
      "Ġjump": 9397,
      "Ġ'')": 9398,
      "Ġturned": 9399,
      "extends": 9400,
      "Ġbillion": 9401,
      "Ġquickly": 9402,
      "orient": 9403,
      "MODE": 9404,
      "Expected": 9405,
      "Ġcarried": 9406,
      "Ġirre": 9407,
      "Contains": 9408,
      "username": 9409,
      "Ġsymp": 9410,
      "ĠSoftware": 9411,
      "Ġopening": 9412,
      "ĉĉĠĠĠ": 9413,
      "Ġpicture": 9414,
      "country": 9415,
      "Ġhappens": 9416,
      "Ġmor": 9417,
      "Ġdict": 9418,
      "matches": 9419,
      "MI": 9420,
      "Encoding": 9421,
      "ĠRob": 9422,
      "aren": 9423,
      "ĠKore": 9424,
      "Ġgenerator": 9425,
      "GroupName": 9426,
      "ĠClear": 9427,
      "ĠThomas": 9428,
      "paragraph": 9429,
      "Ġinitialize": 9430,
      "Ġintr": 9431,
      ",\\\\": 9432,
      "Ġattract": 9433,
      "ĠBit": 9434,
      "$_{": 9435,
      "addEventListener": 9436,
      "Messages": 9437,
      "Sql": 9438,
      "emon": 9439,
      "general": 9440,
      "Ġsites": 9441,
      "notes": 9442,
      "Cancel": 9443,
      "Ġsqu": 9444,
      "Environment": 9445,
      "ĠDat": 9446,
      "ĠJapan": 9447,
      "lapsed": 9448,
      "Ġeth": 9449,
      "Ġdisable": 9450,
      "Ġphysics": 9451,
      "translate": 9452,
      "ĠSE": 9453,
      "Free": 9454,
      "Ġinterpre": 9455,
      "Ġefforts": 9456,
      "messages": 9457,
      "azy": 9458,
      "Ġeffort": 9459,
      "Ã§": 9460,
      "hpp": 9461,
      "Ġhum": 9462,
      "ĠVirgin": 9463,
      "memory": 9464,
      "Ġzone": 9465,
      "Ġconj": 9466,
      "Ġsurvey": 9467,
      "+(": 9468,
      "ĠGal": 9469,
      "Admin": 9470,
      "Ġthous": 9471,
      "Validator": 9472,
      "pb": 9473,
      "power": 9474,
      "ysical": 9475,
      "Ġbg": 9476,
      ")})": 9477,
      "ien": 9478,
      "Ġfails": 9479,
      "alias": 9480,
      "BB": 9481,
      "Ġbtn": 9482,
      "Ġvillage": 9483,
      "conn": 9484,
      "ĠCG": 9485,
      "Pub": 9486,
      "odes": 9487,
      "amaz": 9488,
      "Ġconnections": 9489,
      "Ġpartners": 9490,
      "ĠAv": 9491,
      "iming": 9492,
      "Ġ\\!": 9493,
      "Ġlaws": 9494,
      "substr": 9495,
      "(\"%": 9496,
      "Cmd": 9497,
      "Ġrepeated": 9498,
      "ribed": 9499,
      "policy": 9500,
      "Ġencour": 9501,
      "Ġxhr": 9502,
      "Delay": 9503,
      "Ġchecked": 9504,
      "actor": 9505,
      "Ġce": 9506,
      "Sch": 9507,
[...]
