#version: 0.2
Ġ Ġ
Ġ t
ĠĠ ĠĠ
i n
Ġ a
e r
o n
h e
r e
a t
e n
o r
Ġt he
Ġ s
e s
a n
i t
Ġ c
i s
a l
a r
Ġ w
Ġ o
e d
Ġ f
in g
i on
Ġ p
ĠĠ Ġ
n d
l e
Ġ b
o u
i c
ĠĠĠĠ ĠĠĠĠ
a s
Ġ in
Ġo f
Ġ m
r o
Ġ d
Ġt o
Ġa nd
e t
c t
en t
Ġ h
s t
e l
Ġt h
i l
o m
a m
Ġ re
Ġ n
â Ģ
i d
Ġ S
Ġ l
u t
o l
c e
i m
Ġ T
Ġ e
u r
at ion
i g
o t
Ġ C
ĠĠĠĠ ĠĠĠ
Ġ A
i v
a d
s e
Ġ (
Ġ g
c h
Ġ is
Ġ I
u l
a y
o w
Ġ =
Ġf or
o d
a g
i f
t r
t h
ĉ ĉ
Ġ M
l y
< /
Ġ on
u n
er s
e m
u s
Ġ v
Ġb e
a c
it h
t er
= "
Ġ P
a b
i r
) ;
at e
p e
u m
Ġ B
- -
Ġs t
Ġth at
a v
es t
Ġ {
Ġ $
a p
q u
Ġc on
Ġ <
o c
v er
Ġw ith
âĢ Ļ
h t
Ġ D
es s
Ġ R
e w
Ġa s
Ġ \
2 0
Ġ y
/ /
ĠĠĠĠĠĠĠĠ ĠĠĠ
e x
as s
an d
Ġw h
Ġ F
Ġa n
re s
Ġ H
o p
ct ion
ou r
Ġa l
Ġ it
Ġp ro
č Ċ
is t
Ġ W
Ġ L
en d
Ġ N
or t
Ġ *
am e
a in
p t
il l
u b
Ġ E
o s
it y
er e
k e
Ġ r
o re
Ġ G
Ġd e
Ġe x
Ġc om
u p
u e
ĠT he
m ent
ro m
ag e
Ġc l
p l
Ġ }
ar t
i es
e ct
Ġa t
Ġ or
" >
Ġ "
Ġa re
r i
in e
l d
Ġth is
iv e
Ġb y
ig ht
al l
n t
an t
Ġ he
o g
Ġ âĢ
Ġ O
u re
. .
ac k
p ort
Ġs e
ĠĠĠĠĠĠĠĠ ĠĠĠĠĠĠĠĠ
Ġw as
i z
i al
u d
Ġf rom
at h
c l
ur n
Ġw e
Ġt r
ĠĠĠĠ Ġ
Ġ J
an s
( )
u st
ul t
i b
* *
av e
p er
c on
ex t
ab le
a ct
Ġs h
0 0
g e
Ġn ot
r ou
Ġc h
s p
f f
ou t
or m
a re
Ġy ou
ar d
o v
Ġ if
in d
el l
o st
i p
Ġ U
Ġcl ass
c om
Ġ &
as t
Ġ le
t urn
y pe
-- --
g et
a k
T he
in t
e g
o k
od e
a ce
ar y
as e
at ed
Ġh ave
= =
b er
id e
i le
i re
Ġ '
e f
ic e
or d
Ġ -
ou ld
_ {
âĢ Ŀ
it e
ion s
Ġc an
or k
im e
Ġ j
e p
e ar
ic al
re f
l i
ig n
Ġp l
ic h
on g
i a
Ġ us
at a
Ġh as
Ġin t
st r
1 9
Ġal l
Ġ K
Ġa b
I n
ĠI n
ĠĠĠĠĠĠĠĠ ĠĠĠĠĠĠĠ
p ro
en ce
c c
l ic
a il
Ġa d
Ġcom p
j ect
an ce
Ġn ew
an g
f orm
Ġ V
ĠT h
Ġ u
Ġ k
on e
Ġw ill
Ġ im
er v
en s
' s
o b
ation s
il d
e c
Ġ //
Ġre turn
th er
it ion
e v
ou s
Ġcon t
20 1
Ġ un
he n
ĠS t
Ġre s
) .
res s
ent s
Ġ [
al ue
Ġd o
ub lic
or y
om e
on t
a ch
oc k
p h
er t
: :
Ġo ut
ĉĉ ĉĉ
) ,
Ġ </
Ġa p
l l
Ġ en
- >
d u
ro w
Ġa r
{ \
Ġd is
Ġb ut
ĠâĢ ľ
o ok
g h
our ce
Ġ up
tr ing
s o
.. /
Ġwh ich
el f
f t
Ġh is
un ction
Ġthe ir
Ġg o
Ġm e
a ke
S t
1 0
ul l
u al
ar k
ow n
a w
Ġ @
o se
c ri
Ġm ore
Ġ$ \
in k
ar am
i ew
Ġ /
Ġthe y
or s
Ġon e
f er
ou nd
a u
" ,
Ġp r
ĠC h
p s
p le
r y
re e
iz e
h er
pt ion
Ġ Ċ
t e
m l
Ġ +
s et
Ġe v
m a
m ath
Ġs c
d iv
ou nt
Ġg et
Ġs u
Ġp er
Ġ Y
( "
Ġs o
c k
s s
( );
el y
n e
Ġ qu
et h
ess age
ter n
Ġm an
ol l
sp an
ic k
ir st
Ġp art
Ġs p
cl ud
ay s
ing s
Ġwh o
ol d
en c
y st
o ol
Ġw ere
er y
p ut
i an
> </
Ġn e
Ġab out
i el
Ġl i
pe ct
---- ----
le ct
Ġa g
Ġ .
en er
he d
f r
> <
Ġal so
Ġw ork
Ġit s
at es
Ġp re
Ġp ublic
20 2
Ġh er
in al
' ,
Ġo ver
Ġs tr
w e
u g
E x
ic t
l o
Ġde f
Ġo ur
er r
m er
c re
Ġy our
s h
f ig
iel d
pe c
} }
E R
Ġs et
is h
Ġbe en
nd er
p r
Ġt ime
** **
y s
Ġy ear
Ġs a
Ġn ame
Ġo ther
Ġ :
o int
e qu
t y
t ext
Ġt e
yst em
w o
../ ../
o ver
T h
Ġf unction
Ġ* /
ic s
Ġw hen
re at
Ġan y
r it
an c
v e
o id
Ġ ro
Ġ |
on s
Ġo b
n g
Ġth ere
i x
Ġv ar
ap p
ĠI t
v el
er m
f ter
is s
od el
Ġh ad
at ch
ĉĉ ĉ
Ġth an
^ {
Ġ #
l es
ĠĠĠĠĠĠĠĠ ĠĠĠĠĠĠĠĠĠĠĠ
i o
O N
== ==
on d
ht ml
Ġs up
P ro
ov e
g r
a x
1 2
Ġin ter
i e
if ic
Ġas s
I N
Ġd es
Ġint o
ĠĠĠĠĠĠĠĠ Ġ
n ame
( '
Ġad d
r a
} \
an ge
Ġof f
ig h
Ġh ref
ou n
Ġs ome
) )
r ay
} $
Ġre c
Ġa cc
l ine
Ġcom m
t o
Ġw ould
Ġthe m
at er
ĠâĢ ĵ
Ġd ata
th is
: //
Ġf irst
tr ib
rou nd
Ġp e
ab el
N ame
_ _
s ource
is e
p os
Ġk n
ar g
i ous
20 0
ĠW e
n ing
m essage
rou p
Ġn o
Ġli ke
at or
Ġsa id
i ent
ad e
l ation
i ed
tr ans
al ly
ar ch
Ġb et
ur re
al s
ĠH e
at ic
trib ut
c al
t t
u ild
Ġt ype
Ġf e
am es
ol og
T ype
Ġon ly
ĠTh is
at ive
u ct
ke y
im port
Ġt wo
Ġc ol
R E
ĠU n
Ġtr ans
Ġv alue
Ġin d
r ap
op le
it ies
Ġ end
1 1
u es
p aram
o y
ment s
Ġs he
en g
S tring
um ber
( \
d d
} ,
al se
I d
eg in
eth od
Ġe m
il ity
t d
Ġcon s
cri pt
l ock
r ight
at ing
Ġm y
ul ar
Ġa ct
ĠC om
Ġre g
n er
ation al
c ode
Ġin v
Ġo p
Ġre qu
c he
Ġ= >
id ent
Ġwh at
t he
Ġin clud
f o
Ġs ub
as ed
u nd
e ad
C on
re ad
as h
Ġb ack
Ġpro v
ĠP ro
em ber
S T
Ġl ine
Ġu se
Ġu nder
re turn
rou gh
Ġj ust
b egin
le t
Ġ el
Ġd if
ot h
ar s
or ld
o x
Ġh ow
c ess
1 6
Ġs elf
C ont
Ġm ay
Ġa m
Ġp os
âĢ ľ
A T
em ent
# #
Ġe ver
Ġres ult
ic es
/ >
ĠA r
u res
ib le
Ġd r
ow er
it s
au se
Ġ i
1 8
.. .
b r
Ġpe ople
b le
Ġwh ere
y m
Ġa c
Ġa fter
ĠN ew
C om
Ġst ud
e k
1 5
C h
. âĢĿ
t ing
o f
re d
Ġne ed
an k
ad d
w ard
ut h
c ol
I D
am p
R es
v ent
" />
Ġre l
y n
Ġre m
Ġm ost
pl ic
Ġcon st
ht t
Ġ !
ire ct
urre nt
a ult
oll ow
Ġpl ay
Ġp h
t s
Ġth rough
m s
Ġthe se
ou gh
d ef
w w
Ġc all
f ul
erv ice
ag es
ac he
oc ation
O R
l ed
in s
cl ass
t on
t a
t ype
h at
an n
e le
ĠT r
A R
o od
f ore
_{ \
Ġsh ow
ce ption
Ġ ent
Ġ _
Ġs pec
Ġsu ch
p on
ĠS e
) $
trans lation
at ure
id er
or g
Ġthe n
a ir
Ġin st
con d
res ent
Ġf l
L ist
ers ion
Ġ= =
3 0
it ed
ction s
im es
ur ing
d ay
Ġpro du
oc al
it le
Ġc ould
iv ers
as k
Ġb r
Ġt est
v iew
an y
il y
} {
Ġsh ould
W e
l abel
Ġor g
c o
iv ate
m in
) :
L E
Ġp ol
I t
Ġdif fer
Ġus ed
Ġe ff
s on
2 5
Ġc o
Ġh im
A r
re am
um ent
i er
d er
c ed
con t
form ation
Ġst art
Ġn ull
we en
Ġf ollow
Ġg r
Ġbe c
in es
et a
' t
1 4
p ress
Ġw ell
in ed
Ġfor m
Ġv oid
ĠS h
l and
if e
A L
s er
s elf
v al
od y
Ġkn ow
Ġever y
Ġn ow
b ack
Ġd et
tr y
id th
C l
b e
Ġv al
ĠA n
E N
iz ed
ot her
ĠA l
ers on
rap h
Ġyear s
w n
e q
1 3
Ġch ar
in ce
Ġ >
al th
Ġf il
v ar
Ġm ake
Ġtr ue
l og
ol ut
"> <
s um
Ġ `
a h
u ch
c ent
T r
m an
Ġat t
ĠE x
Ġs m
Ġl ong
et s
Ġg ener
fr ac
Ġbet ween
Ġs ystem
Ġs im
p re
f l
Ġs ign
l p
Ġr ight
e y
Ġc or
as on
Ġf alse
o le
Ġag ain
i ence
ak ing
Ġc re
Ġc ase
Ġ err
Ġ Q
ar get
Ġl ook
Ġre ad
Ġ --
00 0
it t
T o
u le
c ite
Ġse e
) );
, âĢĿ
re n
ist s
Ġel se
le ft
ĠC l
ĠĠĠĠĠĠĠĠ ĠĠĠĠĠ
u ff
ot e
y le
Ġh igh
1 7
y p
i k
Ġex per
iv es
str ing
-------- --------
" );
ant s
b ject
S S
is hed
Ġp oint
ĠA nd
iv er
Ġf inal
Ġev en
ce pt
**** ****
ĠĠĠĠĠĠĠĠĠĠĠĠĠĠĠĠ ĠĠĠĠĠĠĠ
w ork
Ġman y
Ġdo es
Ġe ach
Ġm odel
Ġm in
ĠF or
Ġs ur
av a
Ġd id
Ġsup port
en se
eng th
c es
ĠC on
r r
ire d
e ver
ch ool
le ment
// //
s c
Ġn umber
s ub
Ġ x
Ġm on
it em
b ar
202 2
a z
n b
oc i
Ġw ay
per ty
f or
o ot
Ġbe ing
h ip
Ġwh ile
Ġf r
gr am
Ġbec ause
er n
are nt
b f
olog y
Ġb l
Ġ )
d ata
Ġl ast
Ġl ist
r ic
A N
us s
op t
am ple
Ġ Z
are d
cc ess
Ġ id
Ġh and
in ess
Ġbe fore
ch n
. ,
is ion
he ck
Ġg u
d ate
Ġus ing
V alue
ro ll
if y
5 0
Ġ ed
D ata
iz ation
Ġw orld
Ġre sp
Ġg l
g y
p ar
al k
ou se
I T
ap t
Ġs er
al e
iv en
is m
3 2
et er
Ġar t
ĠA s
ro l
Ġv ery
w ay
Ġde c
it al
$ .
nb sp
vel op
mer ic
r al
u c
B y
enc y
$ ,
ĠY ou
ical ly
Ġle ad
Ġf ind
Ġd own
Ġde velop
ot t
at t
Ġm ed
ro ss
C ol
Ġs tring
le ction
Ġb el
Ġhe lp
ĠI nd
Ġdiffer ent
C T
ar n
ĠĠĠĠĠĠĠĠĠĠĠĠĠĠĠĠ ĠĠĠĠĠĠĠĠĠĠĠĠĠĠĠĠ
ĠR es
ro id
Ġs ame
S E
n ew
ain s
Ġm od
Ġf ound
Ġa v
ĠĠĠĠ ĠĠ
} )
Ġh ere
pl ay
g er
Ġr un
b y
g ht
Ġo per
ĠI f
Ġex t
w h
Ġth ose
f ile
r m
am b
} .
if ied
Ġb oth
ath er
Ġw ant
at us
n ot
S et
2 4
p p
lo ad
Ġst ate
p x
Ġ/ **
Ġin formation
a ction
v alue
ĠâĢ ĺ
t est
E n
Ġgo od
m ed
" )
as es
Ġap pro
f ace
Ġm ade
math cal
o h
Ġm uch
Ġc oun
ĠR e
Th is
Ġm ethod
, \
Ġo wn
Ġm ark
âĢ ¦
Ġd on
us iness
ĠD e
Ġpr ivate
1 00
Ġim port
Ex ception
Ġc urrent
l ocation
m e
Ġpro cess
n ess
D E
ent ial
Ġth ink
Ġo pt
Ġe qu
Ġdis c
==== ====
Ġre port
ot s
ivers ity
Ġre p
Ġ// /
] ;
Ġf am
A s
m ary
a j
com m
e e
rr or
A n
ion al
i ev
Ġst atic
he ad
Ġex pect
b s
se arch
Ġte am
ar m
O bject
( $
Ġc r
C O
M E
Ġ& &
ain ing
ĠâĢ Ķ
ak es
ual ly
ĠW h
Ġp ass
ĠA meric
Ġp at
Ġin cre
ĠI s
equ ation
b ers
t en
Ġth ree
Ġ X
ĠS c
le ar
Ġb o
Ġcomm un
Ġf act
Ġre al
Ġcont in
U n
ĠP h
tern al
o ad
Ġs l
F or
re qu
' )
l er
enc es
G et
Ġpart ic
end s
] ,
re g
qu e
Ġs erv
um n
A t
Ġper form
Ġ! =
p art
or th
uth or
Ġc ent
s ize
ĠP l
Ġt ake
r c
Ġob ject
u ary
Ġ %
re ak
Ġc ar
us h
Ġd uring
I m
2 2
ĠS tring
Ġap p
ind ow
is ter
u ck
Ġv is
ph a
ĠB ut
com e
ut e
ur al
Ġg reat
t ime
ord er
Ġf ield
r on
Ġst ill
ust om
Ġm em
ĠF r
ag er
Ġ key
in ter
d a
T est
Ġse cond
19 9
() .
Ġm ov
Ġeff ect
s cript
Ġb uild
or n
l ess
ain ed
it or
str uct
et work
Ġprov id
t il
Ġto p
l ink
} (
iss ion
Ġd irect
ect ed
ur s
Ġin s
Ġ ke
u se
r ite
b b
Ġhe ad
an e
I nd
~ \
Ġg ame
oc ument
el s
} _
p ace
Ġm ust
V iew
() );
S h
} ^
ut il
ab ility
Ġch ild
4 0
iv ing
at s
Ġn on
Ġh tt
Ġwe ek
Ġp erson
Ġa round
d is
Ġb est
op y
R O
Ġd el
f e
Ġs om
. "
cri ption
v ir
E rror
g o
ĠC ol
Ġall ow
l ist
it ions
202 1
ob al
A C
htt p
Ġop en
âĢ ĵ
re m
p i
Ġp ost
ĠĠĠĠ Ċ
et y
ect or
Ġw rit
] .
2 3
w it
ord s
Ġ est
v en
le x
Ġle vel
I C
âĢ Ķ
og le
ail able
v ious
Ġe ar
p ublic
f unction
Ġn ext
ĠP r
Ġd ay
ĠA d
I ON
Ġre le
ĠO n
Ġp aram
Ġa ut
ate g
Ġl ife
. _
Ġor der
Ġf ile
Ġm ain
ĉĉĉĉ ĉ
O n
"> </
j s
Cl ass
Ġinclud ing
al pha
t op
Ġg roup
ind ex
ĠH ow
L L
ro p
Ġar g
Ġ z
os s
al ity
n av
Ġc our
m od
Ġex pl
htt ps
Ġs ay
in a
. </
[ '
Ġpro gram
' );
20 20
ur l
K ey
Ġte chn
Ġ| |
pl oy
olut ion
un c
ĠCom m
a pe
Ġpos s
Ġm et
i um
in clud
Ġf in
f ield
Ġagain st
iv ely
iv ed
sum mary
" ;
ac y
ill ion
w idth
re en
6 4
R equ
l ang
Ġs ince
Ġl ocal
i or
A P
Ġm at
Ġpro ject
a it
um er
w are
b o
Ġg iven
el ta
ol v
Ġan al
ĠM ar
Ġ/ >
Ġre f
Ġc are
ur ation
d e
Ġev ent
ĠA ll
Ġdes ign
it ial
ĠS he
in ation
p ath
Ġt erm
ail s
Ġsm all
ww w
g round
Ġcont ent
ub l
T E
Ġs ing
se ction
Ġcons ider
Ġad v
Ġpro t
w ays
ĠT o
6 0
2 1
Ġinv est
Ġt itle
ver t
Ġfollow ing
Ġpl ace
l ing
2 7
Ġst and
Ġbe g
it er
ack age
Ġp ower
Ġtr y
ic le
Ġp op
Ġs ize
Ġt ri
id d
! --
Ġb ook
b ox
ir c
" :
Ġb usiness
amb da
Ġvar i
F ile
Ġwith out
tr act
ic y
T ime
um p
ess ion
Ġm ult
oc ial
t able
() ,
ir d
uff er
Ġre ce
pon se
oc us
tribut e
I nt
us ic
a ut
2 8
Ġis s
ĠUn iversity
R e
ul ation
3 3
ep end
i ents
em s
Ġle ft
p or
=" ../../
) \
F F
en e
ĠB l
Ġhe alth
o ff
ou th
act er
Ġp resent
u ro
ur ity
Ġrequ est
W ith
ĠThe y
av ing
ar ge
Ġmon th
as ter
it ive
plic ation
Ġt arget
ĠJ an
Ġgo ing
om en
ĠB r
ĠU S
Ġth row
if t
ac es
Ġle t
Ġt em
Ġp res
' ]
f il
ĠO r
or ies
Ġgo ver
ord ing
=" +
Ġv iew
S e
L A
ar i
ist ory
our ces
Ġs k
er ing
Ġcon f
Ġs ays
is tr
qu ot
iv ity
Ġd em
a ff
he s
am ma
A dd
P E
ition al
Ġacc ess
Ġan other
Ġre ally
at ely
= \
ĠTh ere
2 6
Ġ ident
con st
is ed
um an
Ġs pe
T R
Ġstr uct
us er
Ġto o
n ment
ific ation
le y
Ġan n
st and
M an
un e
d r
ĠC O
oh n
Ġs chool
ap s
Ġo ld
Ġcon d
vir on
Ġh app
Ġ ?
Ġinter est
al ign
U R
Ġh ome
Ġav ailable
Ġbe h
port s
Ġc heck
du ct
8 0
ig ma
Ġ et
Requ est
Ġch ang
Ġap pe
Ġprodu ct
ĠI m
en n
Q u
Ġ\ \
Ġg row
P ath
H E
m u
Ġorg an
ĠD r
202 3
Ġl aw
Ġass ert
ep s
Ġf ew
Ġch ange
A l
T ext
Ġresult s
_ \
ur y
s erv
ain er
ear ch
Ġde p
ĠB e
m d
Ġex p
u f
Ġf our
Ġ );
2 9
ĠM ay
Ġerr or
ag s
Ġpro ble
ar ray
um e
I S
In fo
ĠT e
ĠC ent
r ist
E vent
g roup
ent ly
l ay
Ġde v
Ġt ext
ĠA ss
Ġwith in
ic on
P aram
et ers
ĠE ng
Ġcre ate
W h
b ed
H e
Ġl og
Ġle g
ut ure
ag n
con om
Ġl im
ĠG r
ĠA t
ĠL e
per t
o pe
Ġb ig
th ing
ig inal
a i
/ *
N ode
Ġt yp
ight s
Ġt urn
ert ain
A S
d es
ĠM an
m y
itt le
I s
read y
ide o
eg a
A nd
b l
A ll
ĠE n
o ber
` `
Ġus er
ou ght
P h
Ġp ath
' :
ou ble
s w
/ **
ater ial
ĠF e
st ance
Ã ©
Ġcomp any
b ol
con fig
lect ed
A D
\ \
IN G
math bb
end ing
Ind ex
R ef
ag ement
() )
v oid
ĠM ed
= '
ames pace
Con fig
Ġc ell
ib r
20 19
Ġre search
Ġbet ter
St ate
ens ion
ec ut
b ut
Ġf ull
im ate
Ġp ut
Ġd ist
se c
en u
eth ing
ĠS p
201 8
ole an
a f
F ield
Ġstud y
and s
} ;
s ide
Ġb lock
O ver
Ġp ar
Ġqu est
E qu
g g
Ġb ased
D ef
r u
Ġd i
a im
press ion
Ġc ap
} _{
## ##
b ody
at ures
l ength
} ^{
n ext
Cont ext
is k
$ \
Ġe le
pt y
ul es
r ide
E S
o in
f in
M ap
d t
ard s
che s
I G
i ke
Ġm ight
Ġfam ily
Ġcom e
Ġ-- >
ev el
I f
viron ment
c d
Ġl ess
Ġb ro
201 7
ok en
anc es
i que
O r
U T
Ġcall ed
end ed
ĠĠĠĠĠĠĠĠĠĠĠĠĠĠĠĠ ĠĠĠĠĠĠĠĠĠĠĠ
ĠC an
E D
fer ence
Ġre t
F orm
Ġme as
ĠS o
Ġb reak
Ġne ver
Ġ/ *
com p
og raph
end er
w ord
iv al
ore d
il ar
ĠN o
ne y
Ġs ervice
ure d
b t
Ġse ver
on y
Ġar ray
our n
Ġa ff
Ġsu ccess
- \
ĠC ar
N ew
orm al
, "
ent ion
Ġal ways
Ġs it
n ode
ap i
ap ache
g ed
C ode
D es
Ġe as
S ervice
Ġ( !
//// ////
201 6
our s
Ġen g
N ot
tern ational
b ook
Ġp ay
ict ion
E lement
in c
Ar ray
Ġpl an
ur ther
ĠS ystem
F r
res ult
tr ue
Ġim p
ple ment
B ut
b lock
err or
is ing
" "
at ors
Ġdef ault
pro v
Ġadd ress
Ġf ree
pl es
Ġ es
Ġv ersion
ph i
aj or
Ġ Â
ob ject
pec ial
ĠA p
Ġimport ant
ym bol
Ġb u
Ġre st
Ġcont rol
m odel
f rom
L O
ys is
pl ace
c ast
col or
0 1
ab ly
Ġg ot
p oint
p m
4 5
i od
ab led
Ġ} );
d own
Ġas k
Ġo cc
******** ********
Ġth ings
ĠP ol
Ġs ol
Ġrep resent
u i
E T
M P
Ġsom ething
Ġp ur
Ġh ard
D e
Ġmark et
Ġrequ ire
Ġal ready
Ġex ample
math bf
Ġc ode
ul y
' ;
m ap
id es
ic ro
tr a
t itle
ĠN ov
ar r
g l
ir t
ac c
et urn
9 9
pl ate
pert ies
Ġst at
Ġsp ace
od es
Ġme an
ĠW ith
in put
Ġ __
Ġval ues
u age
Ġl ink
Ġ ide
m it
ab l
g ress
Ġl a
ou d
S ize
3 5
ne ction
[ ]
ap er
Ġoff ic
is on
yn c
ith er
ĠG et
Ġc ustom
Ġinclud e
m p
Ġn ear
s k
^ {\
W hat
201 5
Ġ â
Ġac ross
Ġw in
Ġc ost
n o
à ¤
B uild
ĠJ ohn
Ġ} ,
Ġse ason
Ġen c
o ice
u ction
Ġpro m
Ġof fer
ĠC o
Ġw he
Ġst ory
ĠAmeric an
ĠG u
; &
Ġen er
Ġb as
p en
re t
Ġn etwork
Ġp ot
l ambda
al f
Ġfe el
pon ent
v ersion
ri x
Ġsh ort
Ġre du
ain t
s m
O f
Ġl ittle
c er
lo at
ass ert
al es
Ġf ore
ĠTh at
Ġ{ \
at form
ĠC ont
on se
l t
Ġl ot
Ġto t
7 0
Ġcon fig
Ġprov ide
Ġm ax
U S
Ġl arge
t es
Ġal ong
Ġke ep
ward s
O T
Ġs ource
pro t
Ġc lear
Ġresp onse
Res ult
m b
Ġa ction
Ġe lect
s l
cre ate
Ġin put
H and
It em
ail ed
Ġopt ions
H ow
y l
th ers
Ġf ac
op er
pos ed
st ate
U N
ab les
p ed
ib ility
Ġs rc
Ġd ays
Ġp o
id ual
n ow
cont ent
M L
+ +
m et
Ġsing le
Ġse c
Ġb ase
Ġcommun ity
Ġs um
A B
Ġf ri
un g
Ġcl os
res p
Ġexper ience
Ġw ater
Ġser ies
Ġf ar
on es
h old
a us
Ġcont ext
g t
Ġs ocial
Ġpro f
and roid
b eta
="../../ ../../
7 5
il on
M essage
ref er
Ġposs ible
Ġh ig
Ġc al
ma x
he m
er o
n ect
Ġf und
F rom
b all
Ġc ount
ott om
ĠĠ Ċ
u k
U p
ĠIn st
ĠW orld
Ġl ove
re l
Ġm usic
> &
Ġchar acter
Ġres pect
ĠJan uary
s igma
ĠB y
h o
Ġ: =
ĠD is
Ġv ol
Tr ans
Ġj ava
Ġle ast
j ava
ĠM in
ar ning
ic a
ag ed
se e
Ġl ow
um ents
ar ing
Ġh old
one y
ad i
Ġt imes
Ġan t
M A
Ġcoun try
Ġex ist
L og
Ġli k
ot o
at ter
in fo
Ġgover nment
li ent
t ings
201 4
d o
R ead
er al
Ġind ust
im al
Ġpos ition
def ault
N A
ĠF l
Ġf uture
Ġ ,
Ġp ast
b ase
Ġd ue
Ġacc ount
Ġchild ren
Ġr ange
u x
Ġare a
r am
ĠS up
ĠA ust
ĠUn ited
ĠS er
Ġs ide
Ġass oci
le te
Ġener gy
ĠO ct
c all
Ġpr act
Ġind ex
Ġm illion
9 0
V al
cl us
Ġsign ific
Ġkn own
Ġf ocus
EN T
C E
ĠNew s
ĠSt ate
id ence
o ke
Ġpartic ular
Ġm ajor
s up
Ġab le
Ġstud ents
pos ition
Y ou
v es
I P
Ġdes cri
Ġinst ance
ĠG o
Ġh uman
Ġdis tribut
Ġab ove
S ystem
Ġm aking
wh ere
Ġpre vious
b ug
p ly
Ġc over
M odel
ab or
Ġstr ong
ix ed
Ġrec ord
S c
T D
ĠE d
---------------- ----------------
uro pe
roll er
Ġ Ð
T able
le ase
iev e
Ġspec ial
In ter
u ed
Ġme et
Ġst yle
Ġun til
Ġa way
3 1
Ġob serv
ĠY ork
st art
Ġp arent
Ġa uthor
ĠCh rist
ar row
Ġwork ing
ĠR ev
Ġj ob
O ut
ro du
i ans
Ġn ode
Ġb en
ĠN ational
ild e
ĠA b
Man ager
Ġint eg
m ber
S er
Ġmed ia
ra ft
includ e
P r
n ers
ign ed
ip le
re w
Ġmem bers
Ġwh y
i am
Ġcom b
g ing
3 4
Ġ= ==
Ġex c
Ġem ploy
Ġp age
Ġc rit
* }
Ġm om
Ġd ocument
19 8
Ġin itial
Ġl ight
Ġsever al
Ġto get
Ġg ive
Ġhtt ps
Ġtoget her
b it
Ġcol or
ri or
Ġre view
c ss
ĠA ug
Ġt able
math rm
6 6
F il
I R
sp ace
ĉĉĉĉ ĉĉ
ĠC al
Ġk ind
ag ing
id s
ĠS chool
Ġ( \
ĠW hat
c y
Ġpol it
w ith
U LL
Ġt alk
Ġl and
ff ic
Ġd om
A d
Ġor iginal
Ġin div
con text
Ġme ans
Ġunder stand
Ġdevelop ment
P l
O D
Ġl ater
Ġdisc uss
5 5
} {\
v ers
Ð °
U ser
in ary
un ity
Ġrequ ired
ĠHow ever
ent al
r ation
ĠW hen
Ġro le
Ġam ong
201 3
Ġpro b
; </
R eg
Ġob t
ĠM e
Ġear ly
re ate
val id
D is
Com m
I L
Ġm ass
u ation
Col or
pr int
C H
le g
ill s
ip s
3 6
ann el
ir l
ak en
Ġexpect ed
Ġw omen
av el
ĠR eg
ĠA pr
N o
C all
Ġb ody
Ġl oc
3 9
ĠC ity
def ine
g amma
Ġbe come
Ġim age
l ight
om an
Ġl arg
in it
Ġpot ential
t ab
Ġsim ilar
un ch
Ġsup er
im um
ĠG e
Ġt reat
ĠM c
Ġserv ices
m ost
rou ps
ig ation
Ġfil m
ĠI N
Ġm essage
Ġl ang
un k
b ig
Ġdet erm
Ġcomp let
ĠQ u
Ġtot al
it ut
Ġc ult
Ġsignific ant
p ackage
re c
Ġm atch
ist ic
Ġto day
Ġc ur
Ġd one
Ġpoint s
Ġs ure
og n
ĠB o
p ose
=" ../
V ID
Ġp ort
ĠR ep
am ed
ĠP art
^{ -
Ġst op
ĠN ot
Ġwhe ther
ĠI nt
Ġtr ad
Ġpre d
e h
Ġgl obal
Ġ} ;
Ġgener al
s el
Ġc ity
us ing
Ġh istory
+ \
f alse
Ġc reat
opt ion
Ġof ten
Ġproble m
Ġindiv idual
che ck
Ġyou ng
Ġpro perty
Ġb it
Ġth ought
ourn al
3 8
Ġt re
Ġperform ance
Ġm ove
er ed
Ġen ough
if ier
ĠĠĠĠĠĠĠĠ ĠĠĠĠ
b uild
ĠE urope
ĠĠĠĠĠĠĠĠ ĠĠ
ĠC ount
Ġnew s
T H
ce mber
Ð ¾
ĠM arch
d oc
Ġ$ (
Ġcon c
r ing
Ġe lement
Ġc amp
il t
Ġtr ack
ound s
i ol
er a
Ġa ir
pt ions
ĠD o
Ġm il
Ġt ell
C lient
Ġf urther
Ġhtt p
Ġback ground
Ġn il
Ġr a
and om
=" #
Ġdid n
it ing
Ġse en
Ġe conom
l im
> (
m ethod
Pro perty
p arent
A M
Ġth ough
em ic
c le
Ġh aving
^ \
ith ub
O S
Ġcour se
Th ere
201 2
3 7
as ing
pl it
ir m
Ġdoes n
Ġd at
Ġh ost
Ġper iod
d elta
Ġm akes
op h
] {
Ġin c
ĠS et
Ġon ce
fig ure
Res ponse
ad a
4 8
go ogle
st atic
um b
Ġb ool
yn am
b ased
st yle
ĠG l
d b
Ġcomp ut
Ġc oll
n amespace
str uction
ĠO ne
ĠThe se
Ġst d
Ġr isk
Ġs ite
) </
ĠW ill
il ities
Ġe ither
Ġp ubl
ĠD es
le q
act ory
m ark
Ġm ap
al t
ĠM ark
ĠSe pt
Ġs at
bs ite
ic ense
Ġc ertain
Ġann oun
re et
Qu ery
n et
ig ital
S ub
) }
s q
itt ed
' re
olog ical
R ec
am a
Ġp ress
am ples
Ġpat ients
resp ond
os p
ĠA ct
ĠS outh
Ġind ic
if f
we b
Ġth ing
C ount
ens ure
D r
Ġshow s
i ef
Ġcl aim
======== ========
M ethod
Ġy et
Ġar r
P I
ĠA dd
Ġch all
r ho
Ġu nd
arg in
ĠP res
Ġe p
ĠE l
Ġc ame
the ta
Ġo thers
4 4
ĠC or
g ithub
St ream
Ar g
Ð µ
y ear
d ev
c hed
Ġf ive
Over ride
ud e
Ġv ideo
an a
d om
< !--
M od
an el
Ġab s
re ed
r t
Ġm aterial
Ġ( $
Build er
wit ch
olv ed
l in
Ġd iv
Ġl ive
Ġfe atures
ĠA g
Ġle arn
Im age
Ġout put
ft ware
O P
0 5
Ġen vironment
or age
Ġev ents
Ġn ec
B ar
i j
ibr ary
en ame
ĠSt ud
ac hed
Ġand roid
C C
ver age
op s
e ch
t imes
im age
re ct
Ġl ay
Ġg ames
Ġrel ations
Ġed uc
act ive
$ -
in o
g en
in ition
le ge
ĠL ist
Ġre ason
l ib
ĠHe alth
] (
c ore
ĠJ une
at ory
ĠP er
D ate
Ġph ys
t au
ang le
ill ed
Ġb order
o o
E d
Ġcomm on
Ġhapp en
is es
oc ol
Ġv ia
ig ure
ĠT est
ĠSt ates
h and
ĠAust ral
ĠTr ans
eq ref
ĠDe cember
em ents
Ġimp act
ĠApr il
o on
Ġon line
A G
id ed
S P
Ġw on
E m
ĠCom p
Ġto ok
ĠP ar
h ib
Ġn ight
ĠD ep
x y
Ġm ot
Ġcl ose
k s
Ġbeg in
201 1
e ed
em plate
it es
ĠM ore
ĠM y
ĠNov ember
F l
Ġs w
Ġcontin ue
Ġf ood
Ġprovid ed
Ġa ud
Ġsu gg
Ġsugg est
Ġbel ow
Ġcomp on
ĠN orth
n ull
d ir
ĠJ uly
ew ork
ĠCount y
an ies
c ul
Ġact iv
A ction
st er
Ġth ird
ĠĠĠĠĠĠĠĠĠĠĠĠĠĠĠĠ ĠĠĠĠĠĠĠĠĠĠĠĠĠĠĠ
Ġcomp et
B e
ev ent
ĠU p
Ġop port
ic ation
E E
qu ad
Ġval id
E nd
p ing
G roup
Ġanal ysis
ĠE m
G ener
i res
Ġc ases
im ary
Ġm ar
co pe
qu ery
ĠAr t
Ġim plement
n a
Ġchang es
cl ient
} (\
] )
Ġr ate
Ġde ath
ĠOct ober
c urrent
ad es
oc r
Ġse arch
Ġdis play
Ġmonth s
Ġspec ific
opt ions
ĠR ec
ĠR uss
med i
ou ch
om et
ĠS m
at est
n own
Ġw idth
Ġacc ording
Ġcom es
n s
a ul
Ġterm s
A p
Ġadd ed
Ġdif f
y d
em pt
S C
art ment
Ġneed s
U til
Ġb ound
ĠG ener
th ough
Ġindust ry
ateg ory
part ial
ic ult
Ġf ace
Ġb i
ĠS ch
Ġs ent
ph p
Ġfe ature
av es
an ch
fin ished
a id
Ġto ol
Ġdef ined
Ġh ouse
G L
g or
iz ing
In put
Ġhig her
Ġmodel s
ĠSept ember
Ġinst all
irt ual
Ġ< <
f unc
ac ed
Ġg en
Ġd ate
Ġn um
S ource
cal e
201 0
Ġto ld
S tr
4 9
requ est
Ġben ef
Ġoffic ial
ON T
St atus
e ction
a ur
Ð ¸
am ework
Ġm iss
Ġatt ack
.. ..
Ġh alf
ĠS tr
ĠA m
( (
Ġstart ed
ĠP ark
Ġa ge
d f
Ġvis it
ĠAug ust
Ġst ep
y les
Ġl ength
Ġresp ons
ri ed
pl ied
br uary
anc ial
Ġl oad
ry pt
A ct
z e
el ine
at ural
re st
Ġm oney
Ġs ong
Ġappro ach
Ġlook ing
r s
x i
fl u
00 00
Ġsystem s
but ton
Ġs ix
Ġc y
ĠD av
arg s
Ġquest ion
ell ing
Ġm en
ĠĠĠĠĠĠĠĠĠĠĠĠĠĠĠĠ Ġ
idd le
Ġt ask
W hen
ef ore
Ġc ou
Ġtechn ology
ĠS ec
Ġact ually
se qu
h am
Ġf all
wit ter
d l
s y
Ġw atch
6 5
is try
0 8
r un
ĠW ar
Ġo ption
Ġpl atform
A pp
ars er
p age
ab ase
Ġe y
Ġper cent
row s
ĠN ULL
Ġint rodu
lo od
ĠW est
epend ent
c ount
id ay
O L
ĠCO VID
| \
g ener
B lock
}$ ,
ĉ Ċ
se mb
Ġl abel
Ġam ount
Ġd en
P os
N S
im ation
L ay
un finished
ov ed
gor ith
av or
g es
Ġcre ated
Ġpr int
Ġde al
Ġbr ing
Ġse ction
iz er
v is
g le
Ġperson al
ĠD ef
Ġro om
L ine
ĠB ar
ft y
ĠC oun
M S
Ġph ot
ser ver
Ġ- >
ful ly
ma z
m at
s im
Ġ ...
at al
Ġadd ition
he ight
Ġag o
ist or
ĠCl ass
Ġap plic
Y PE
Ġl ower
Ġn eg
A b
ic les
n u
ur ch
Ġpartic ip
istr ation
Ġsub ject
ĠA fr
H ead
Ġw ent
Ġf oot
AT E
Ġ( )
Ġst ream
7 7
Ġw ords
T oken
j av
head er
}$ .
Ġc irc
ag ue
0 2
F I
n ov
u el
U L
und le
apt ion
add ing
Ġt aken
o res
U E
Ġre fer
Ġ" ""
N av
Ġdo ing
In stance
c ase
ial og
ch ange
Ġwe bsite
E X
Ġbl ack
w ise
com ing
ar ter
f ect
D O
ac ing
F A
0 4
ĠIn ter
ĠA fter
Ġreport ed
Ġc ut
Ġbuild ing
Ġsh own
led ge
P re
Ġcomp lex
ĠH ouse
Ġim prov
st ream
pecial ly
Ġvar ious
Ġd est
ak er
Ġfor mer
Ġcomp anies
h as
Ġtr aining
in fty
Ġl o
Ġcor respond
Ġit em
I V
ce ed
Ġrele ase
Ġm or
x ml
c i
Ġf un
Ġt ax
ĠAmeric a
Ġbo olean
m ission
Ġiss ues
ĠV al
Ġent ire
h ing
t x
Ġrec ent
ĠCent er
op en
H T
Ġreg ion
m ember
pect ed
Ġre d
D elta
m on
Ġal most
Ġac cept
ust er
ir it
fl ow
t ilde
Ġl oss
anc ed
Ġpol icy
I M
p ng
Ġw indow
Ġsh are
ele te
Ġch o
tr ies
Ġst atus
Ġap plication
G r
Ġc he
Ġm ind
Ġlik ely
app end
u it
Ġc opy
ly ing
app ing
U s
Ġmom ent
Ġt w
av en
Ġim m
a ctions
ĠM on
Ġnec ess
Ġse em
Ġwork s
c il
Ġest abl
ad o
Ġget ting
Ġa ch
Ġcan not
R un
t arget
N ull
id ge
S p
Ġ čĊ
Ġcon tribut
om ega
Ġassoci ated
id get
O ff
B ase
Ġprot ected
Ġcond itions
A ss
Ġex ecut
( {
k en
P art
ast ic
Ġplay ers
le m
Ñ Ĥ
7 8
ank s
le an
Ġprodu ction
ug in
ĠInd ia
ĠP e
et ic
C K
) {
ens ive
Equ al
ĠPres ident
ish ing
Ġ+ =
O ne
Ġcl ient
Ġs ens
Ġse qu
O per
b or
ad ata
I I
Ġhe art
Ġdr aw
0 9
Ġfr ont
sel ves
ar ies
Ġwho le
S up
l ish
Ġf ail
o e
ing ton
Ġc atch
ĠFe bruary
[ "
Ġh om
rit er
row ser
n es
j oy
At tribute
Ġw ar
Hand ler
Com ponent
ap ter
ch an
c m
h ost
he l
T O
Ġproduct s
. )
i ences
Ġres ource
Ġc aus
Ġt aking
Ġw alk
" .
ch ild
0 6
Ġmethod s
C ell
au gh
St art
ĠL aw
Ġr ather
il le
ob ile
ĠH is
raph ics
Cont ent
c ell
ĠC r
Ġqu ick
ĠB ro
B uffer
ut es
un t
Ġh ours
N D
Ġart icle
Ġpro te
Com p
Ġb ar
Ġeff ort
a ign
b um
ur b
Ġfor ward
Ġv er
Ġus ers
O ptions
Ġup date
l ocal
Ġa verage
c ing
ac ity
pro perty
Ġlang uage
Ġhow ever
Ġbeh ind
j son
Ġte ach
Ġincre ase
Ġp aper
ĠB rit
Ġmult iple
Ġp rior
ur g
L ast
Ġw rite
ĠO ff
9 5
Ġsec urity
T S
) (
bt n
ĠO F
Ġst ates
a el
ire ction
' '
ĠW ork
Ġg round
Ġrece ived
Ġmeas ure
ĉĉĉĉ ĉĉĉĉ
ĠĠĠĠĠĠĠĠ Ċ
0 7
w ide
w rite
Ġp ick
Ġg roups
Ġrelations hip
ĠR ed
Ġn ormal
Ġ ill
se lect
Ġneed ed
ĠH ar
L ink
Ġd ouble
row n
Ġb ad
ad io
el t
ore m
V ER
oci ety
Ġstand ard
200 9
al y
4 7
Ġlim it
Ġm er
ĠH igh
Ġparam eters
dr aw
ĠA cc
ch ar
ĠĠĠĠĠĠĠĠ ĠĠĠĠĠĠ
Ġcont act
R A
in st
Th at
im g
fo ot
Ġinst ead
ĠN e
ĠRes earch
ot ype
Pro v
ĠT V
Ġin it
ĠM ich
Ġqu ality
F actory
Ð ½
Ġse par
Ġun ique
Ġev al
p ost
Ġcomp lete
4 6
r l
text bf
Ġde cl
ĠP at
0 3
at ur
Ġstruct ure
str ong
cd ot
N ext
is f
p tr
Ġp ers
idd en
S o
Ġc red
Ġh it
com es
ĠCh ar
RE F
Res ource
F irst
i et
f ind
LA SS
bo ard
y ing
ĠD ata
ĠBl ack
in ing
ver y
C heck
T ask
ĠN one
ĠS im
Ġprovid es
Ġadd itional
Ġman agement
} [
P oint
ap h
f ont
Ġt akes
d at
Ġdet ails
Ġrel ated
ow s
Ġc ross
ĠR eturn
st atus
b m
f irst
ĠA c
ĠĠĠĠĠĠĠĠ ĠĠĠĠĊ
Ġin ternal
Ġiss ue
e es
ĠD on
ĠU K
Ġex press
f ort
n on
Def ault
ĠG erm
Ġbeh av
r ies
Ġcol umn
ĠIn ternational
Ġexper im
c aption
Ġright s
4 2
am s
nav bar
B C
Ġm ember
ist ics
ate gy
ĠG roup
ĠO ut
Ġrec ogn
res h
Ġtyp es
tribut es
Ġin j
F unction
att le
olut ions
b ottom
yp es
Ġsa f
le vel
Ġinclud es
ĠF rom
d ated
p y
enc ies
P C
Ġinclud ed
Tr ue
Ġw ait
Ġn ational
ail y
li ke
pr ivate
Ġhe ight
eg er
Ġcom ing
Ġle arning
Ġes pecially
Ġele ments
ther n
m m
ĠO bject
Ġaut om
il i
e ff
ĠJ ust
a res
ĠD em
L abel
ĠA ng
Ġsim ple
ĠR ead
h ood
ĠU s
al d
ock et
am ily
ub e
Ġar ch
Ġbel ieve
Ġw r
ĠThe n
5 00
Ġw or
$ $
Ġv iol
E L
Ġqu ant
ĠO f
* /
s rc
evel op
ĠO ur
d et
Ġs ex
am ent
dis play
or ing
it ute
so ft
Ġeng ine
Ġd er
mod ule
Ġde ep
Ġlead ers
V ersion
H el
al let
A cc
Ġare as
osp ital
ond on
it ory
Ġs olution
Ġs ound
it ary
ĠC ons
str act
ĠG L
W indow
Ġp ack
Ġdis e
Ġf ire
Ġr out
s ymbol
ele br
L oad
Ġevery thing
us ed
s i
ĠD irect
" ]
ĠH er
6 8
m em
ens ity
ap an
P RO
Ġgr ad
ĠC our
Ġan sw
Ġse lect
and id
st d
Ġst re
ro om
des cription
Ġany thing
i qu
N umber
Ġcomm and
Ġthrow s
Ġmat ter
N O
at ives
a e
so le
P age
ord in
Ġrun ning
Ġs pect
ĠD ay
200 8
P ol
Ġad min
od ing
}} \
Ġgrow th
Ġs ym
ang er
Ġappe ar
Ġparam eter
O m
Ġcurrent ly
Ġnot hing
ĠK ing
Ñ Ģ
sh ip
T ER
ist ance
Ġreg ard
l ast
Ġis n
du c
Ġ{ @
lic k
Ġwrit ten
he et
ind ing
Ġde g
ĠL et
air s
Ġits elf
lay out
Ġb ox
Ġsh all
Ġwh ite
ache s
Ġtreat ment
i i
Ġconsider ed
Ġpos itive
ĠSer ies
ud d
P ost
U M
Ġhe ld
ĠGo ogle
ele ment
Ġwrit ing
Ġh ope
Ġaut o
Ġg e
Ġf ight
m eta
Ġin f
} );
Ġen joy
Ġro ad
ĠDep artment
p o
ig ger
p ol
it te
Ġs ense
ol ve
if act
$ {
Ġdiff icult
Ġh or
r is
j ust
eq n
Ġh ot
Ġtr avel
p ack
Ġst aff
ĠB ook
form at
Ġcent er
Ġdev ice
ĠG od
R eturn
ĠI D
Ġup on
pro ject
Ġf ul
end if
cl ose
Ġfri end
Ġlevel s
m ult
erv ices
Ġcons ist
Ġcol lection
s g
ĠF irst
ir us
if orn
Ġpro perties
ĠS k
Ġpop ular
h a
5 8
Ġpolit ical
Ġide a
p c
Ġl ocation
semb ly
ĠS an
c el
Ġcom ment
//////// ////////
as cript
Ġatt empt
Comm and
Ġc apt
p ush
Ġout side
iz es
ĠA ir
cent er
~ ~
A A
gr ad
Ġsc he
Ġconc ern
6 7
)$ .
b old
m ar
ain e
Ġre ve
Ġso ftware
ĠAustral ia
? âĢĿ
Ġe mer
P er
AB LE
Ġs us
b on
Ġeffect s
B l
Ġv ot
Ġd im
Ġl iter
f ord
Ġask ed
( &
ograph y
u ccess
ed eral
Ġtem per
C reate
ĠCh ina
Ġl ate
s igned
U I
ĠC E
ĠN ow
Ġdep end
Ġqu ite
Ġ( (
Equ als
ĠS en
I O
act ers
Ġst ay
Ġdistribut ion
Ġex act
Ġpre t
k nown
eps ilon
ĠRev iew
ent ry
ar a
Ġrele ased
Ġ ]
y nt
} _{\
Ġf requ
D o
Ġse ems
Ġin flu
c ap
ĠS ub
Ġa w
ps i
iss ions
Ġpubl ished
Ġv acc
ĠEng lish
5 9
' m
ul ations
gorith m
Ġchall eng
ĠS w
iforn ia
St yle
en ing
res ponse
m ing
cont ainer
c an
Ġb re
che ma
ĠY our
ĠAss oci
ĠPh il
i ant
8 8
R ep
Ex t
Ch ar
p ri
Ġpart y
Ġsc reen
Ġsome one
Ġbe aut
Ġpr ice
ri ef
A fter
M et
ĠR E
Ġfin ancial
Ġfunction s
F ONT
Ġm argin
Ġtry ing
Ġeas y
T P
u ge
Ġact ive
Ġext ends
Cont roller
Ġ ess
v est
Ġn av
\ ,
ag ram
Ġre comm
ĠTr ump
ver se
p ite
' ve
Ġbec ame
ell ow
Ġt im
S ON
ang ed
ĠG over
ro y
Om ega
Ġlong er
Ġn one
Ġevery one
ig in
F e
Ġstud ies
Ġlead ing
Ġ q
sm all
Ch ild
L et
Ġw ord
Ġcell s
Ġfil es
Ġg irl
Fil ter
u ate
Ġbro ad
Ġb and
Ġplay er
ER T
Ġl atest
ĠL a
ab s
Ġprof ess
ou l
Ġprob ably
M y
ĠS ome
> >
z z
ĠTe chn
param s
Ġ ir
Ġcon tract
Ġser ver
Ġv ert
// /
cre t
u id
Ġfollow s
ens ions
Ġv eh
Ġdec ision
for ce
Ġf a
5 7
Ġcon duct
Ġrec ently
es e
Ã ¡
ve y
ĠR em
AT ION
Ġeff ic
Ġ url
Ġcond ition
Ġbu ilt
T ag
Form at
ol ar
Ġw ays
Ġn atural
ach ine
19 7
Ref er
Ġpro gress
Ġb all
as c
Ġto wn
ĠL ondon
H O
Ġform at
it ch
ĠT HE
ĠP ost
Ġv irtual
Ġso on
he t
Ġsc ale
D et
erv e
i ers
Ġtrans form
Ġd igital
uf act
Ġannoun ced
Ġh on
B ox
ĠP re
4 3
Ġreg ular
Ġn ov
sq rt
Ġdel iver
We b
Ġpred ict
Ġeduc ation
Ġl ines
Ġr andom
s ervice
ch o
Ġpol ice
m enu
Ġconst ant
m ore
ĠH ol
p ass
in ner
fil ter
^ *
sub section
ch i
Ġwe b
A ut
Ġcoun tries
Ġcomp ared
Ġg raph
Ġcon struct
Ġdem on
Ġmin utes
ĠP ublic
Ġcon nection
Ġs ort
_ .
ĠL icense
B U
Ġspec ified
ex p
li er
Ġs em
Ġcamp aign
Ġsat isf
Ġquest ions
B ack
ĠIn c
l ong
" ).
at tr
in n
Ġl ost
ob j
tt p
ĠDav id
wo od
g n
jav ascript
ot a
Ġ ensure
Ġdisc over
Ġs n
Ġwh ose
Ġre ach
Ġ< !--
D A
Ġin ternational
Ġc ook
4 1
ĠE v
Ġspe ed
Ġcom pl
Ġc am
ps ilon
Ġal bum
enc ed
st yles
ĠR ef
Ġre ference
up date
q l
Ñ ģ
ter m
Ġmult i
Ġpop ulation
Ġwant ed
urre n
Ġre v
B ig
5 6
ir th
Ġm agn
List ener
Se lect
ess ages
Ġmod ule
n um
Ġex cept
Ġres ources
C L
Ġex pression
ĠJ apan
Ġthem selves
Ġreturn s
ed ia
ĠM r
ĠA re
ĠPro gram
Ġins ide
Ġfri ends
ict ure
ĠC LASS
T op
Ġs aw
pro cess
ill ing
Ġl iving
iv il
Ð¾ Ð
Ġplay ed
it ect
ĠSc ience
d ep
ĠH REF
I F
ot al
ref ix
Ġcor rect
Ġ Ã
C ON
Ġl ed
i as
Ġinter face
em ph
Ġm ode
Add ress
ic ip
Ġim medi
ĠE ar
R em
icro soft
ĠRep ublic
Ġem ail
Ġd am
Ġhim self
Ġpre vent
Ġpre c
he nt
Col umn
But ton
tern et
Ġproble ms
Ġgo al
Ġoff ice
S A
Ġcare er
Ġus es
Ġoper ation
Ġdirect ly
c r
I Z
Ġst age
L ength
Ġsol id
ĠD ec
ĠH T
ark s
Ġoff ers
ef ined
ic o
pro ve
20 00
Ġme chan
Ġpart ners
)$ ,
Ġd oc
al ed
ru pt
Ġent ry
ĠWh ile
Ġs il
on ly
200 7
Ġg as
Ġw oman
P O
in stance
Ġw ond
Ġfield s
6 9
ĠCal ifornia
Ġf it
Ġbeg an
Ġallow s
m t
Ġcon tr
v ant
i ation
n umber
Ġfl ow
Ġv ict
es tern
ie ce
C o
Lay out
Ġm ag
refer ence
l en
l or
P R
col umn
ĠWill iam
Ġplay ing
t ool
m ain
B undle
Ġchar acters
le ctions
Ġest im
erv ed
itte e
Out put
Ġcol lect
or ge
ĠCol lege
i os
C A
Ġcon nect
Ġde ad
Ġknow ledge
< ?
plic it
Ġim ages
ĠSt reet
v are
Ġl ives
" ),
ĠSe e
Ġst ore
Ġd ynam
ĠH ere
Val id
Ġev idence
pl ies
G amma
B A
Ġpat tern
ĠA pp
Ġinvest ig
app ed
ER R
Ġcont ains
o om
al ing
ĠE X
Ġst e
ace book
ĠS ervice
Ġnot e
Ġcal cul
Ġsim ply
and emic
rem ove
s pec
ĠF ound
sh ow
ĠT ime
' ll
n ected
Ġfor ce
NA ME
Ġass um
ro s
V is
UR L
ĉ ĠĠĠ
ĠO pen
Ġ` `
it ation
Ġf avor
Ġh y
ĠM od
Ġsur face
Ġm id
#### ####
Ġf ast
old er
st ant
as ons
rou ght
Ġanal y
Ġcontin u
: </
ĠT ype
er c
Ġcl in
t ag
set s
E nt
av y
Ġper fect
Ġc elebr
Ġav oid
ul a
r ics
Ġc ause
k it
`` `
eg raphics
includ egraphics
n y
Ġallow ed
Ġdemon str
it ude
k r
ĠF il
Ġwe ight
str ict
Ġs end
au ght
M ode
m itted
Ġstat ement
ĠA nt
S ec
Ġr ound
el se
Ġt our
Ġthrough out
u nder
S O
CO L
fil es
ann ot
Ġprot ect
ĠPl ay
am l
qu are
Ġreg ister
M in
Ġpres ident
id a
' ).
ust ain
ash ington
Ġn ames
Ġdescri bed
il er
S pec
Ġnecess ary
Ġsub s
r ated
U P
o z
Ġst ar
L ocal
if ul
u int
C ache
Ġm ention
g est
200 6
ĠCan ada
d im
ĠS T
Ġact ivity
ĠM et
w in
Ġcon v
out put
T arget
sup port
Ġv s
en ge
un it
^{ (
Ġcall back
ĠL og
C D
a uthor
Ġf ont
T YPE
G o
Ġro ot
Ġdevelop ed
Ġweek s
Ġun it
ex pected
A ccess
U rl
ĠAn n
ĠB en
Ġappro x
Ġbu y
Ġc andid
in ated
vare psilon
Ġleg al
c over
Ġ row
om b
Ġex tra
Ġp ain
Ġr at
ĠY ear
S D
Ġto wards
ag on
Up date
ĠN ame
Ġcomp os
Ġpre p
Ġg ives
Ser ver
5 1
ĠG reen
Ġass ess
Ġw orth
Ġse lected
m as
em y
iz ations
Ġa im
P A
ren ch
y a
ĠEurope an
Ġth reat
Ġrece ive
Ġch arg
Ġfil ter
Ġapp ly
a ud
ĠB usiness
Ġh istor
Ġ[ ]
ic an
**************** ****************
c s
Ġdr ug
Ġpret ty
Ġdiffer ence
ĠInd ian
Ġinv olved
Ġm is
Ġsaf ety
Ġset ting
M ax
Ġincre ased
Ġmed ical
ĠD i
ct or
util s
Fr ame
D I
. }
Ġ* *
ar ily
5 2
Ġpart s
ĠĠĠĠĠĠĠĠĠĠĠĠĠĠĠĠ ĠĠĠĠĠĠĠĠĠĠĠĠĠĠĠĠĠĠĠ
Ġbo ard
Ġnum bers
anc y
Ġdise ase
K E
ens or
Ġc lean
m ut
Ġread ing
Ġre li
ĠS ing
ous ly
Ġin sp
ify ing
ak ers
Ġeffect ive
C R
Ġmem ory
Ġincre asing
ra z
Ġj oin
ĠO ver
Ġmain t
R ow
Ġget s
b reak
ĠF in
d ec
ĠE ast
Ġit ems
id ing
Ġv ers
Ġdesign ed
ĠA PI
D B
pro of
Ġopport unity
Ġmat rix
++ )
Ġcomp ar
Ġbr and
Ġmov ie
Ġrem ove
im ately
Ġpract ice
ĠâĢ ¦
ĠWe b
Ġn umer
Ġd ark
Ġpur ch
Ġab ility
iv acy
Ġcompon ent
k a
Ġstud ent
Ġr adi
id ents
c or
Ġcult ure
ĠJ ack
Ġro ck
Ġreturn ed
Ġet c
Ġse ek
A V
ĠGener al
Ġst ories
Ġphys ical
5 3
Ġ$ {\
ber g
Ġf em
( _
Ġacc ur
Ġfe ed
Ġsh ared
he st
f loat
ul ated
Ġc ard
Ġn amed
ĠP aul
ir ing
M O
B r
ĠJ ournal
ĠM or
Ġne igh
is ions
b a
N E
l a
eqn array
ĠI r
g u
ur t
Prov ider
ã ģ
s cale
w rap
) =
Ġproject s
re ement
ĠD an
Ġh um
Ġobt ained
. ;
ĠB est
s f
W ork
P S
M em
cre en
ĠT ri
Ġle ave
Ġmod ern
ĠH am
Ġsc en
Ġexist ing
clus ion
Ġinter view
Ġsur pr
5 4
Ġr ules
opy right
il ies
Ġqu ery
Ġm icro
T ree
ĠS und
et t
Ġwork ed
D F
T ypes
w indow
Ġexp and
Ġ! ==
Ġpass ed
Ġcon cept
os h
Ġim prove
ĠCoun cil
Ġ ign
AP I
ĠT ex
! !
Ġte le
b oot
9 8
v ille
Ġstre ng
Ġgo es
Ġcour t
t emplate
ro te
} =
ag o
Ġhe l
evelop ment
ĠM at
am ing
w ner
Ġlink s
D ev
Ġset s
off set
; ->
Ġs ession
Ġmeet ing
T I
Ġstart ing
Ġpro p
ĠP ort
Ġs olutions
Ġbook s
Ġex am
f inal
Ġt ree
="../../../../ ../
ĠAr ch
O ur
R el
mer c
ĠD E
ĠD el
Ġac qu
Ġu int
O pen
Ġoper ations
CO DE
uct ure
Ġcons um
3 00
ĠJ ames
R I
a a
Ġpr imary
Ġsu ff
ro ot
}^ {\
Ġwr ong
is ode
Ġal tern
all s
ĠI I
U B
Ġpro posed
ain ts
land s
ĠFr iday
Ġobt ain
Ġlim ited
Ġp ull
Ġfinal ly
Ġl ack
prot otype
Ġcustom ers
Ġn ature
Ġhand le
Ġs on
âĢ ĺ
art ifact
Ġteam s
] [
C ase
Ġresp ond
Ġin nov
s cope
h aps
om s
ĠT witter
os ph
v ec
a fe
Ġwas n
le ep
s ign
Ġatt ention
Ġp lease
âĢĿ .
Ġph ase
b and
ĠPro ject
r angle
Ġf loat
Ġb al
Ġl ock
hed ul
ge q
Ġchang ed
return s
ĠInst itute
Ġob j
Ġth us
ond ay
M e
S he
P ar
M ore
ar io
con s
right arrow
ĠEng land
Off set
ĠM ac
Ġact ual
Ġpl ans
t hen
Ġs old
Ġch oice
c irc
en a
Ġf ans
lo or
Ġ ;
Ġthe ory
l ate
D ec
] );
S earch
Ġactiv ities
C an
Ġinterest ing
ĠN S
Ġsl ow
ĠE duc
merc ial
( [
v ision
ef t
str ap
B o
ad ow
ĠW ashington
use um
Ġrespect ively
c os
at ively
ĠM al
bold symbol
b in
ĠP al
comm on
ĠK e
Ġf ailed
Ġtrans port
ib er
ĠB uild
Ġany one
D irect
y ond
Ġpr inc
es ter
ĠR el
Ġsay ing
Ġj ud
W idth
Ġs ample
Ġtrans fer
Ġp andemic
ĠWh ite
Ġm other
Ġm us
ĠAfr ica
ĠBrit ish
200 5
Ġb uffer
Ġdist ance
s d
Ġsur v
Ġ\ ,
Ġh ol
F O
fr ame
ĠM ag
Ġr ace
Ġg ave
Ġt en
Config uration
Ġeconom ic
Ġt ag
. /
IG N
ĠDem ocr
p at
Ġful ly
Ġsupport ed
ic ine
over line
Ġse lection
t ask
Ġf air
iver se
F T
Ġdem and
V AL
Ġc ast
ĠW ed
g ment
Ġf ather
Ġman ufact
cl os
ĠF ile
S H
ĠE nd
un ities
ĠL ife
em pty
ĠM art
b uffer
Ġqu e
O b
Ġz ero
it able
) ]
epend ency
Param eter
=" -
ec ute
ĠF acebook
et ch
Ġfact or
Ġhand s
Ġoff set
tr ict
sk ip
ĠA ut
o ch
Ġlarg er
b ool
Ġach iev
el er
Ġin str
B O
d ocument
9 7
class es
Ġcl imate
ĠCour t
ig en
Ġl en
Ġcrit ical
H ome
ĠN or
var phi
S im
P o
Cont ainer
m atch
f ree
Ġsc ience
R ev
ĠC ap
ib ly
Pro cess
th on
we et
Ġear lier
ĠC heck
L e
Ġem pty
Ġser ious
Ġm ut
} ).
Ġopt im
Ġde part
Ġsc ient
ty p
Ġim ag
t ree
ot es
Ġrem ain
Ġarg s
c are
par se
cript or
. ~\
Ġbe yond
Ġ ::
ĠF orm
ĠV ol
atur day
ĉĉĉĉ ĉĉĉ
ĠS ur
olog ies
ĠR ich
i pe
Ġit er
ick s
wh ich
Ġus ually
En try
r ate
Ġ Î
Ġabs olut
ĠB er
ĠP ress
Ġdef ine
Head er
ĠO R
Ġdes cription
AR T
Ġb illion
Ġcoll abor
sh ould
ĠM il
ec ause
Ġon es
Ġb us
Ġr ule
k ind
o oth
ĠAr ray
if est
Ġd irection
Ġequ al
W rite
is ation
Ġ ~
Ġquick ly
im ages
M ar
pre t
ĠF ig
requ ire
N ow
Ġs ave
ĠC reate
ic ate
Ġreport s
ĠP M
Ġrec over
Ġa ward
Ġcl ub
cri be
ron ic
Param s
Ġother wise
Ġd ro
maz on
Ġlook s
ĠMich ael
Inter face
Ġex ception
Ġs witch
: "
Ġprogram s
ang es
Ġn et
ĠReturn s
Ġg reen
ul ate
Ġb ank
Un it
Ġrem ember
P L
Ġp le
L evel
ĠTh om
ĠN et
Ġcap ital
ĠS ervices
Pro ject
Ġqu al
F L
AC K
Ent ity
ĠD et
% %
Ġbas is
' >
Ġin fo
Ġapplic ations
Ø §
ĠL eg
ĠB ig
Ġloc ated
Cont rol
Ġmean ing
n or
ĠM em
Ġobject s
Ġt ouch
{ {
ant ic
L ocation
us ion
C S
AL L
Ġfr ame
M M
In st
Ġturn ed
od ay
en ed
h an
urs day
ĠR ober
Ġex ists
Ġey es
Ġro b
val ues
ĠH el
Ġre nder
Ġsa fe
uth ors
() ->
al le
r or
> ,
ra el
[ \
Util s
ines e
Ġn ation
Ġb rought
Ġpresent ed
ist an
Th read
con f
ĠS ince
augh ter
ĠB ay
IN T
on a
G l
Ġline ar
om ic
Ġcou ple
Ġv oice
j o
Ġparent s
6 3
Ġf elt
R L
Ġoper ator
Ġnear ly
ĠPl an
Ġcon str
Ġdirect or
co in
as tr
Ġch annel
Ġgener ated
ĠMark et
ã ĥ
artifact Id
Ġm ix
ell ig
Ġw ide
Ġcorrespond ing
Ġobserv ed
Ġread y
p atch
gr aph
C urrent
st on
ov ers
ĠS am
Ġ{ }
Ġbehav ior
ĠM us
Ġent er
pro p
N et
Ã Ń
="../../../../ ../../
e in
cont rol
ick et
Ġpl ant
ĠAng el
200 4
ffic ient
al ysis
om a
ĠSe ction
& \
p g
rel ated
' ),
Ġsuccess ful
b i
4 00
Ġtest ing
ert ific
Ġdr ive
a o
r d
Ġarg ument
Ġess ential
ing er
h line
Ġs ources
amp ions
ĠSund ay
M at
Ġcent ral
g an
Ġclos ed
ĠR ob
f s
Ã ³
Ġind ependent
6 2
Ġwork ers
Ġsit uation
N one
Ġstr ategy
Ġdeg ree
Ġan im
G e
E M
d rop
L ambda
R ange
Ġrel ative
: (
% ;
ĠĠĠĠĠĠĠĠĠĠĠĠĠĠĠĠ ĠĠĠĠĠ
ur ance
ot ion
Ġtemper ature
ab ilities
X X
ill er
Ġr ates
M on
Ġp m
Ġc ore
Ġp air
C P
Ġhigh ly
Call back
vent ion
ri a
Ġed ge
ues day
Ġb lood
Ġnov el
Ġstr ateg
fr ak
re es
Ġm iddle
olv ing
ag ment
S cript
Ġsequ ence
Ġs al
Ġtr ust
os is
Ġgreat er
Ġw rote
ple te
Ġmil itary
ĠC am
t ml
oun ter
Ġin form
l s
ĠTex as
Ġro t
ent y
ĠH all
Ġmax imum
ĠB i
Ġch ance
Ġv ector
ĠE conom
Ġtest s
h ol
D own
ap y
Ġfollow ed
}, \
Ġph one
ĠJ er
ri al
ĠO ther
Ġover all
ĠM usic
Ġan g
an o
ĠDirect or
Ġra ise
Ġspec ies
od ed
Ġant i
S l
Ġqu arter
ĠPro f
istr ict
f a
Ġtr ade
Ġshow ed
Ġsc ore
UL T
Ġperform ed
ateg ories
Ġinst itut
group Id
Ġsh ip
Ġlarg est
P at
A re
por ary
Ġcost s
is her
in i
anc ing
or ph
Ġpro per
Ġw ild
ent ity
p df
rom e
1 000
ĠD ate
h ouse
He ight
res ource
Ġtrans ition
Mod ule
Ġcall s
ĠAss ert
C ons
Ġcho ose
COL OR
Pos ition
Ġequ ip
t oken
Ġst ock
Ġrem ains
it iz
z er
Ġla unch
c ache
IZ E
Ġro ll
O p
ĠAssoci ation
Ġpro of
Ġbegin ning
Ġre pe
Ġhe ard
ĠC ong
Ġsc ene
ĠT op
Ġbeaut iful
} ),
ĠB el
Wh ile
ĠT om
Ġaff ect
od er
u a
Ġ* )
Ġappro pri
ĠMed ia
} /
Ġsc ope
Ġm ount
s pect
if orm
Em pty
ar p
ĠS l
Ġprodu ced
8 6
Ġschool s
P ort
AN D
ĠG reat
Ġenc our
ĠU se
Ġd ed
g ate
ig er
I ST
Ġfam ilies
ĠI S
w ell
et ime
nes day
Ġorgan ization
. $
s plit
text it
ĠOff ice
ĠS E
J son
Ġe arn
Ġcont ain
ĠS un
sy ch
ign ment
ĠA v
in y
re y
Q L
ĠM onday
Â ł
ĠO per
ont al
Ġp ark
Ġf ixed
Ġprovid ing
z a
ĠM ap
ct x
H ttp
Ġtool s
ĠSt ar
Ġhe ar
Ġindividual s
end ar
ud get
ĠUS A
Ġparticular ly
pon ents
t im
âĢ ī
The y
ult s
ult ure
) ^
Ġthere fore
model s
ind er
Rec ord
9 6
ĠU kr
Ġs en
t og
comm and
ĠO b
st ack
. \
id en
styles heet
Ġd og
ĠC D
Ġf ix
En c
D at
ĠS um
IN E
ĠGl obal
Ġr ap
clud e
in ct
Ġh op
Ch ange
yd ro
d ates
ri end
Ġg iving
G B
Ġcan cer
Ġfact ors
dev ice
ĠA M
av ed
f ill
Set tings
b ound
Ġrequ ires
ann ed
Ġcreat ing
Ġcomplet ely
n ormal
Ġconfig uration
Ġprofess ional
D D
ĠComp any
Ġcomm it
Ġcommun ities
ic ated
m ail
Ġsh ape
ar ant
Ġor d
" ))
CT ION
Ġprevious ly
ĠBo ard
H ash
R ed
Ġto ken
ĠR un
Ġgrow ing
ĠEduc ation
Ġs ales
b order
Ġeas ily
Ġsum mer
Ġh ous
iction ary
as et
p op
ĠF rench
g in
Ġpur pose
est ival
Ġvol ume
Ġsh oot
O ption
Ġh ospital
Ġsp read
re me
Ġn or
ig ration
Ġansw er
Ġredu ce
Ġp ush
Ġp refer
b ra
Ġb ur
Ġv ill
Ġcon struction
d s
ĠA lex
on ic
Ġpress ure
Ġd ou
Con nection
as y
de bug
ex ample
Pro t
I B
Ġth r
Ġexact ly
c lear
at ically
Ġtrad itional
c ar
ĠG old
Ġe ight
y r
Ġat tribute
e al
Ġth er
Ġarg uments
ĠS aturday
ĠC all
und red
Ġmov ing
ĠR oad
Ex ternal
ip p
Ġbel iev
and er
Ġs ymbol
ven ue
ms g
ĠN ote
Ġkn ew
ick er
Ġst ation
E l
Ġp ackage
Ġcompon ents
ĠPol icy
se y
ic ies
ĠB ank
Ġbe comes
ug ins
Ġset tings
6 1
ĠT imes
Ġtem plate
Ġ> =
Ġelect ric
ĠN etwork
Ġr ank
app a
h r
Ġj o
os ing
Ġal gorithm
Ġ util
W S
Ġpre m
8 5
Ġ" \
Ġse ven
anc er
Ġk ids
av er
t ers
Ġpro ced
ĠMan agement
Ġover ride
Ġlook ed
Ġvari able
and a
Ġd ensity
h ash
ĠM ost
Ġde cre
Ġj ournal
Ġpres ence
Ġsh ot
Ġen h
ĠG en
et imes
Ġlaw s
du le
wh ile
Ġimmedi ately
Pro perties
ens es
k y
Ġw el
im ent
ĠD evelopment
Ġunderstand ing
struct or
Ġcoun ter
r ange
Ġemploy ees
ad y
ĠD O
ĠIn formation
ĠC ON
Ġap plied
ri an
Ġc hem
yn ch
St at
Ġp ages
Ġre strict
Ġparam s
Ġw ants
Ġse cret
âĢĿ ,
Ġex hib
V ert
l ook
Ġx ml
D ep
8 7
Ġth read
ĠFound ation
I E
" ));
iz ontal
we ight
b al
Ġf irm
h i
ĠF ore
Ġbl ue
ĠWe ek
th at
Ġclass es
clus ive
ĸ º
Ġwond er
}} $
G E
Ġcom ments
ĠL ong
ĠU nder
Ġb irth
Ġp en
oy al
ad er
b efore
Ġestabl ished
Ġcent ury
ĠSm ith
urs or
Ġlet ter
Ġbas ic
ĠAp ple
ev e
E ng
c at
OR D
S ee
W E
se m
ĠD istrict
ĠGover nment
et te
Ġdev ices
ill a
trans form
D ir
mod al
S ign
lay er
Ġal though
il ed
leg al
Ġb ottom
Ġdef inition
math frak
lang le
ĠG ood
Ġre place
Ġth ous
ĠN O
Ġmor ning
ac cess
a ight
Ġvari ety
Ġwrit er
inter face
ĠFr anc
ĠS al
ĠTh ursday
Ġmov ed
Ġe lection
i ance
M atch
Ġh uge
ĠCh ild
d ing
Ġgr ant
ĠQ ue
c ard
Ġeffort s
ã Ĥ
I A
200 1
Ġpl aces
ur i
an i
Ġpo or
Ġdec ided
Ġed itor
ĠCh inese
ĉĉ Ċ
cite p
ä ¸
ĠLe ague
em p
b es
ĠE very
as ure
Ġp iece
Ġdom ain
ot ic
Ġs un
l am
à ¥
Ġref lect
R ight
D ocument
ap se
ol f
Ġal one
Ġb log
S ession
Ġsp ent
f it
=" _
T C
add ress
ĠRe port
Oper ation
\ %
Ġdat abase
Ġa ctions
M ult
as ic
Ġp adding
ĠH istory
Ġrel ig
ĠR equ
iv ery
K e
re al
Ġcl ick
ld ots
Ġsp irit
ĠComm ission
Des cription
Ġarch itect
b ind
Ġlead er
Ġs ustain
Ġmaterial s
ĠC A
ĠC amp
Ġs cript
Ġpat ient
200 3
typ es
boot strap
se cond
por ate
Ġcontin ued
ĠA L
ĠSh ow
j oin
ĠH ome
Ġcl oud
ĠC up
M ark
Col lection
ĠT re
r um
Ġneg ative
pl ing
Ġy ield
Im pl
Ser ial
T im
aw s
Ġstr ug
Ġbusiness es
ĉ Ġ
Ġdeterm ine
Ġinit i
ĠL ou
Ġprodu ce
Ġchar ge
ĠT uesday
Ġg un
Ġd ream
ĠB G
Ġf igure
-- -
O K
Ġc op
Ġsom etimes
erv ation
Ġc ool
ĠT able
Ġinv oke
Int eger
Ġp oll
St ore
Ġ icon
ð Ł
re nder
Ġco ordin
Ġdis trict
ĠA tt
M enu
Ġinvest ment
H ere
hen s
P ass
& #
Ġas pect
ĠIs rael
ic ons
Ġst orage
ov es
ĠC he
ĠGe orge
U RE
m ode
D on
Ġpart ner
abl a
Ġopport unities
Ġrec ords
H ost
U se
Ġt err
ĠRuss ia
F ont
Ġfil ename
il es
ash ion
ĠV iew
As ync
st ep
ĠS ocial
g ent
D IR
Ġd aily
ĠV is
vir t
Ġw ife
ĠA R
al ax
it ors
Ġo il
\ |
ST R
ĠA ND
ĠR iver
Ġmov ement
omet ry
Ġs ports
it ar
Ġcar ry
am m
Ġsk ills
Ġa ware
ic ations
Ġtre nd
' d
A m
N N
ang ing
Nav Bar
Ġstr aight
Ġman ager
Ġ ut
Ġequ ival
Ġcomput er
in ate
s v
ubl ished
ig r
ro ad
is is
Ġt al
OR T
v as
Ġs ell
Ġ er
d en
ĠI P
Ġdi agn
C ar
Ġf arm
o es
d elete
ĠFl or
ol ic
Ġw ind
Ġtrans action
Ġb ill
ĠSup er
ĠM iss
j ection
re q
Ġsup ply
Refer ence
Ġ eth
Ġspe ak
Ġh ar
ant a
b ing
our ney
ĠCh urch
ĠG ame
i able
PE CT
d irect
Ġw at
du ction
m es
Ġm ask
Ġcon vert
Ġuse ful
n ote
ĠM er
ĠEx ception
Ġass ist
fo o
Ġcom mercial
ole c
Ġfoot ball
Ġclin ical
Ġf ra
Ġbenef its
Ġvis ual
Ġtr ain
n abla
ed s
ĠM ary
Ġcap acity
P H
th m
ĠJ ul
Ġpr im
Ġhig hest
Ġrele vant
N on
ĠWed nesday
ec k
Ġchalleng es
Ġa x
Ġsh op
Ġst eps
Ġfor ms
doc s
ĠV ir
S L
Ġd ied
est s
ĠM ont
ber t
l n
i ency
Ġcon vers
ing le
ĠE ven
FF FF
ĠP ower
ĠTr ue
ĠAl so
ĠC are
ap ers
v ed
Ġimplement ation
Ġf ine
Ġsm art
( -
Ġhas h
Hel per
v m
Ġn uc
Ġch ain
g ency
Ġa head
L eft
w s
p ers
Wh y
Ġe cho
Ġadv ant
ĠPe ople
s end
ĠI d
ĠT im
__ __
Ġrecomm end
ir med
C lick
pos es
Ġrequire ments
d ot
m ake
Ġrun s
equ al
Ġhappen ed
E v
ĠIs land
ERR OR
or ation
roll ed
Ġm obile
{ }
w idget
Ġâ ĸº
Ġsh ift
ph one
Ġlay er
ev en
Ġgener ation
ner gy
Ph i
P RE
en um
7 2
Ġl ib
Ġs ociety
ĠâĢ ¢
ĠCar ol
ou thern
Ġnot ice
8 9
Ġâ Ĺ
med ia
I ter
Ġm aster
Ġcon nected
Ġsmall er
ĠD ev
F C
ĠA mazon
Ġsignificant ly
Ġg old
Ġset t
ĠV er
act or
Ġf ederal
cl ick
im inal
ĠCE O
go ing
Ġsit es
ĠM odel
g reg
or ter
Ġdescri be
p ower
Ġdown load
ab y
T e
web kit
P e
ĠRuss ian
c p
Ġsp ot
Ġv ote
Ġrest aur
Ġad apt
in ternal
c a
ĠM ad
k appa
Ġo wner
Ġm ur
ĠĠĠĠĠĠĠĠĠĠĠĠĠĠĠĠ ĠĠĠĠ
Ġf ear
os en
Ġc ivil
Ġs ector
ot ed
Ġin fr
V ector
B S
ff ect
Ġre pl
y an
ĠEng ine
S igma
Ġerr ors
Ex pression
L ong
sub set
Ġopen ing
An y
Ð »
ĠN OT
Param eters
ĠEar th
Ġgr and
urren cy
OR M
ĠS ociety
} )$
V ari
ĠD iv
Ġmeas ures
Ġcon cent
S k
Ġh yp
ans ion
Ġcomplet ed
back ground
Ġh undred
Ġund efined
Ġj av
C al
i us
Ġ( '
ĠU N
Ġdeterm ined
M D
Ġcont ainer
Ġ[ '
Ġde lete
T ool
h y
en v
Ġcred it
f ocus
Ar t
Ġsl ight
ĠJ ew
az ine
res ents
Ġtr uth
Ġm ill
h or
cent ering
ed y
T itle
ploy ment
ĠT or
are n
ĠâĹ ¼
E CT
reed om
Ġdes pite
s ession
Ġeconom y
Ġl ibrary
u y
ĠCl ub
P tr
ĠW indow
## #
f n
Hand le
ro ph
Ġgu id
Ġb orn
Ġident ity
Ġstreng th
param eter
Ġd rop
Ġp aid
om in
Ġthink ing
Ġchall enge
ĠF inal
ed ge
Ã ¼
to String
Ġmay be
ic ago
c ustom
Ġappe ars
Ġhold s
ĠComm unity
fr ont
' ],
ĠTechn ology
ĠChrist ian
d el
Ġm ys
ĠL O
ĠB ill
ĠSt ep
ĠB re
Ġup dated
Ġco ach
pect ive
v ector
ĠW il
if ies
Ġm achine
ĠM ethod
gl obal
Ġintrodu ced
() :
Ġappropri ate
================ ================
T emplate
Ġey e
h over
Ġhapp y
pl ugin
Ġdo or
h ere
Ġm ission
t n
a fter
7 9
Ġrepresent ation
ĠAc ad
Ġprocess es
v an
P M
Ġst ars
Ġob vious
ĠR ock
AT H
Ġn amespace
7 6
ĠS pe
x x
unc hed
Ġident ified
p ay
st ar
Ġexper t
he lp
ĠA N
C ore
virt ual
ĠK ey
Ġext rem
ĠS pr
Ġide as
ĠBG COLOR
ĠH ill
al a
Ġcontin ues
ĠL ead
IT Y
con nect
Ġveh icle
equ als
Ã ¤
n el
em ail
Ġal t
ack s
( :
h igh
Ġpower ful
De bug
n ap
A pi
Ġad vert
ĠM A
ĠA ward
200 2
P T
N ames
ĠPart y
Ġwe ak
az z
Ġvari ables
Ġident ify
ĠP y
Ġown ers
ot imes
K ind
ĠCong ress
25 5
Ġann ual
AC E
Ġmin imum
ĠComm ittee
Ġh arm
In valid
P arent
Ġtri al
8 2
ex port
Ġserv e
Con st
ĠIn s
c oll
up s
ĠWh y
ple t
R ect
Ġto ward
Ġp anel
Or der
Ġsur round
Ġill ust
m box
Ġup per
G ET
d i
Ġun its
Ġsign al
Ġr adio
Ġdistribut ed
Ġcould n
ad min
Ġgener ate
ĠE vent
stand ing
Ġop in
foot er
8 4
ĠM o
ĠF ree
Ġdr ink
or row
Ġb ul
Ġfund ing
Ġag ree
m id
SE T
Ġmon itor
Ġpro file
Ap plication
m en
Ġin tr
Ġ à¤
Ġrespons ible
Read er
ensure math
Ġbenef it
The se
pro duct
M ember
ix el
Ġp an
u ated
adi us
ĠC ode
est amp
ĠW ell
Ġcaus ed
el ess
F alse
ĠSc ott
Ġmiss ing
Ġst ress
P arser
A uthor
! âĢĿ
Ġpar se
ĠS il
ĠFr ance
Ġfl ag
Ġext ension
Ġag reement
Ġexc ell
Ġun less
Ġtr aff
Ġfe et
ĠCent ral
Ġfore ign
ĠV alue
ov ing
= {
Ġad just
d ouble
C I
w rit
sec urity
w id
Ġequ ation
c opy
Ġh our
ĠGerm any
hand le
Ġ} )
Ġf ig
Ġart ist
rom ise
Ġ( "
Dev ice
Ġp od
Ġreal ity
ĠFranc is
Ġinterest ed
ĠF und
Ġep isode
Ġhead er
ĠAcc ording
ĠB ack
ertific ate
Ġclaim s
iqu es
Ġre ached
gr ade
Ġn odes
it a
Ġst uff
Ġde b
ĠIn vest
$ (
Ġass ume
Q ue
De cl
lic t
b an
ang uage
s ystem
ĠO ffic
d est
astr ucture
B ook
Ġor igin
Ġbut ton
at in
ens ional
S ince
d ed
H as
s cal
A meric
m issions
Ġre asons
=" /
i en
ĠU ser
ĠT wo
et ry
ann els
res hold
a uth
ud io
d ependency
f ol
oth ing
ĠW omen
Ġfr amework
Ġplan ning
as er
Ĥ ¬
er ry
ad ian
ern el
ĠT H
Pol icy
org an
> .
ip eline
{ -
( *
sh ot
ĠMin ister
Ġyour self
ial ly
Ġorgan izations
Ġview s
Ġs amples
Ab out
ĠF ield
Ġtri ed
Ġk illed
l ines
ĠM ax
atal og
Ġr are
S ome
E ach
-------------------------------- --------------------------------
Ġsign ed
Ġgener ally
om y
S chema
AT A
? :
Ġofficial s
cre te
Ġcustom er
> ();
Ġcol lege
Ġac ad
Ġrem oved
ĠRober t
Ġd ig
Ġhelp ed
F ound
ĠFlor ida
is ms
Ġopen ed
Ġsus p
Ġcont aining
ĠM ath
if ically
Ð º
D L
ĠAb out
", "
Ġc ache
ĠGerm an
p adding
Ġgo als
Ġcor re
ĠSec urity
AG E
Ġfail ure
cl oud
ĠO p
p erson
Ġdet ail
Ġinc or
ĠUn ion
ol es
re place
ob s
Class es
l oc
Ġf resh
ĠAn y
ent ed
it ness
/ \
Ġprot ocol
id ers
R ender
_ ;
Ġp ool
r aw
Ġtalk ing
f ony
dis abled
ĠM ex
Ġexper i
En abled
Ġun c
Ass ert
at re
ig an
er ies
ree k
Ġaud ience
Ġal ign
E rr
ĠB et
b ur
Ġpro ve
ĠT O
Ġclear ly
Ġfavor ite
ĠHe ad
Ġcam era
ect ors
ĠL os
Ġjob s
ellig ence
ampions hip
ĠĠĠĠĠĠĠĠĠĠĠĠĠĠĠĠ ĠĠĠĠĠĠĠĠĠĠĠĠĠĠĠĠĠĠĠĠĠĠĠ
s uccess
F ig
it z
Ġbr ain
' .
Ġper haps
L S
Ġregard ing
Ġoffer ed
16 0
Ġbig gest
od ies
M ay
Ġw ave
R ule
Ġfor ces
Ġmention ed
\ [
Val ues
ĠSt at
ĠE qu
ĠE lect
Ġgover n
ĠHT ML
Ġstr ict
st ore
com ponent
Ġd anger
Ġdep th
ro t
Ġhe avy
15 0
hold er
u ce
og en
ĠH ot
Ġmajor ity
Ġw arm
Ġshow ing
ard en
ĠH uman
Ġv an
N um
Ġprocess ing
-- >
S m
Ġdr iver
ĠF igure
ĠThom as
set tings
S ION
g ar
Ġo s
Ġserv ed
plic ations
Ġredu ced
ym fony
Ġcertain ly
ĠTe am
D S
Ġap pre
Ġun signed
V er
ri z
c f
Ġen able
B ody
Ġn orm
Ġke pt
cl es
Arg ument
& &
i h
D om
j a
ĠFr ank
Ġre lation
199 9
c ut
Ġlead s
Ġf an
Ġby te
A ME
k er
7 4
Ġc ategory
` ,
7 3
s ite
le ments
ess or
Ġd oll
f ull
Ġg one
ĠO h
A c
ov id
Ġcon ver
wh ite
` .
Test s
Ġc at
Ġcom fort
p ool
fr amework
D oc
el ines
ĠF amily
ĠÂ £
ow ers
d ots
v ol
reg ister
Ġinflu ence
Ġfem ale
ĠD C
urre d
ate ver
field s
ĠL and
ĠEX PECT
b our
âĢ ¢
ĠE p
Ex p
Ġp or
M C
Tr ack
ĠB ase
9 3
Post ed
W riter
Ġs ynt
Met adata
ap pro
ide os
Ġleg is
sc ape
E Q
Arg s
Ġr ise
C or
ic ol
Ġt it
Ġex ternal
Ġse a
ĠA uthor
Ġmil es
} "
sec ut
Ġrep resents
Ġp urs
Ġpol icies
ific ations
Ġneigh bor
uck et
Ġw ood
Ġb ed
by te
l ife
ĠM icrosoft
ent er
} -
em pl
ĠTh us
Ġn orth
Ġon to
wid et
tab ular
ub y
ĠM ount
Ġmys elf
Ġc itiz
Ġin come
ic ed
ynch ron
on ym
9 4
im s
h ab
Ġcons ult
Ġsp in
ex ports
ke ys
ĠSt and
Ġn ative
Dr aw
m aterial
ĠM ur
Ġtr a
Ġbel ong
maz ing
ce an
ĠThe ir
u ke
Ġb rief
non umber
St ep
Ġapp oint
out e
ĠCol or
est ed
Ġf lex
Ġs ch
Ġa uthors
ĠP o
Ġadd ing
Ġold er
Ġcon sequ
Ġrout e
ĠN Y
ĠL ear
ĠDes ign
Sh ow
b uf
Ġin line
ĠSt art
Ġlist en
alle l
ple ments
ĠP eter
es h
ĠChrist mas
ĠE U
ĠW estern
c ur
ĠAngel es
Ġwe ap
ĠB ur
N ote
ĠF ire
ast e
Ġw all
ĠMed ical
The n
ĠM el
Ġcl ients
How ever
ĠE ach
or ial
p anel
Ġw ish
pl ugins
at tribute
C ustom
ĠT ur
pr ime
T ags
ĠK ore
Ġs plit
ut r
n ight
Ġl if
ĠAfr ican
Ġmarket ing
Ġpr ices
Ã ¶
d ict
Go ogle
7 1
Ġat tract
Ġrat io
block List
R oot
Ġprote ction
ograph ic
ĠH and
9 1
ĠL ake
ĠUkr aine
st op
Ġgu ide
8 3
ĠD own
ĠGr and
Ġra ised
St ack
On ly
ĠD en
tribut ion
ĠL ibrary
Ex ecut
ĠEn ter
Ġex tract
oper ator
k i
Ġare n
Ġf ol
call back
Ġsong s
inst all
Ġar m
ĠÂ »
Ġst ack
st at
Ġstart s
Ġp icture
widet ilde
Ġin her
ik i
Ġappe ared
Ġenvironment al
ĠM useum
Ġdirect ory
il s
By tes
Ġb udget
Ġreg ions
J ECT
ĠR et
Ġfil ms
Ġart ists
bo olean
Ġj ourney
}} {
M ENT
Ġhe at
Ġag ent
ĠPro v
in em
ne ctions
Ġm essages
ĠJ SON
Ġ& =
Ġr ac
oc ity
ĠC H
\ "
Ġb oy
ec es
b urg
Ġc row
Ġar rest
; <
c ategory
rap per
r ule
ĠJ oe
I con
os oph
f aces
ĠI O
D T
ĠJ ose
="../../ ../
ĠL ast
Ġcommun ication
Ġd aughter
ch ain
Ġr ich
tog gle
ut y
h ow
ĠCh icago
Ġme ant
Ġg ather
Ġocc ur
Ġreve aled
put e
) -
is hes
Bo olean
9 2
h s
Sup port
ĠAt l
Ġach ieve
ĠAd min
Ġleaders hip
ĠWh o
g s
Ġsepar ate
t ure
Ġh idden
Ġ ens
as ion
com ment
S um
all ow
all ery
Ġhel ps
Ġbo ost
D elete
Ġmin or
ĠS O
Ġw allet
Ġtr ail
Ġb attle
ĠĠĠĠĠĠĠĠĠĠĠĠĠĠĠĠ ĠĠ
b el
Ġfeel ing
se ct
Ġestabl ish
k ins
Ġby tes
H S
f riend
Ġfocus ed
cl aim
Ġcomb ination
ĠP et
ad s
Ġl icense
M ock
ĠCh ief
8 1
em porary
Ġsee ing
Ġsh ut
ĠA P
os es
L C
G u
ok es
ĠT ext
Ġ< =
Ġexper iences
D C
av irus
By te
pp ed
ĠM ass
Ġpl ays
em ma
rypt o
ĠF ood
Ġj son
Ġprob ability
Ġpl aced
ĠL ink
Ġcall ing
Ġcon sole
Ġcar bon
init ely
Ġs outh
Ġcr isis
Ġbal ance
N G
Ġoper ating
ĠVir gin
C opy
D ialog
Ġ ul
ĠT own
B R
ĠS pecial
Ġcl uster
est ic
sh ort
Ġrap id
Ġequip ment
ol ver
Ġr ad
att ers
M eta
Ġin fe
Ġal le
Ġm ock
P ackage
Ġpro test
Ġhigh light
Ġbe at
Ġex amples
ri er
ĠM ult
Ġdiscuss ion
Ġj oint
Ġknow s
ĠE nergy
ĠPh ys
Ġresult ing
ado op
St orage
Ġev olution
ĠThere fore
Ġla unched
ap plication
Ġph oto
FI LE
f ound
Ġat tr
ĠM ov
ĠU RL
} ]
m iss
Ġinter pret
Ġnot ed
ob uf
Ġp y
co q
Ġres idents
ĠUp date
Ġf loor
M T
Ġeffic ient
Ñ ĥ
Ġpartners hip
Ġb rowser
ur a
__ (
ĠL ee
ĠĠĠĠĠĠ Ċ
Ġaltern ative
Ġm sg
TE ST
Ġsur vey
ell a
Field s
S U
Ġv ision
Ġatt end
% )
am in
Ġpart ies
M I
tr ack
us band
ĠB iden
Def inition
ac le
equ iv
Ġsex ual
Ġfind ing
TE D
lem ma
ist ent
het ic
Ġdam age
Ġs leep
m ock
Ġgu y
ex ception
aut o
Ġnetwork s
Ġ ult
N e
ele ase
ins ert
Ġn ice
hent ication
Ġex plicit
Ġoffer ing
ĠL in
sq l
Ġjo ined
Ġfin ished
ĠN E
Ġv irus
Ġim press
\ ]
ĠS u
li e
up le
ĠC y
ck now
or a
Ġcompet ition
as hed
ĠAr ts
)) )
gr id
L java
ag ger
Ġrem ote
D i
ĠE rror
G S
Id ent
Ġcon ference
Ġex change
Ġdel ay
ing u
Ġ+ +
Ġpe ace
Ġtraff ic
ynam ic
Ġpl us
Ġpro pos
ĠB rown
ĠL ove
Ġfund s
Ġl abor
ĠA ction
art s
Ġdr iving
Ġdevelop ing
c ape
Ġpract ices
ĠWindow s
ĠOn ly
ĠSec ret
Ġrecord ed
ĠV ict
KE Y
ele ction
Act ive
ĠSe cond
Ġcompar ison
Ġent ity
l ig
Ġear th
Ġdef ense
Ġun known
Ġh ers
A tt
Pre vious
Ġ ur
AR Y
Ġpl ot
ĠM ake
on avirus
u zz
Ġan c
ing ly
Ġem b
ĠLou is
Ġdoc uments
W A
olv es
Ġ' /
ip al
Ġadmin istration
SS ERT
Ġem ot
Ġex erc
Ġst ated
c hen
M B
Ġtechn ical
j pg
Ġp p
1 20
ĠS ports
Ġmost ly
Ġlearn ed
G O
P erm
ri p
ĠL ike
ĠA ccess
ĠMed icine
s pe
in line
R C
! \
Ġv el
Ġman aged
Ġext ended
Ġadvant age
ri age
Ġjav ax
ĠSup port
Ġp i
form s
g ers
ĠJ o
P AR
ad ing
ĠJ ud
ip ped
item s
w ords
Ġb atter
sp ring
Ġl ic
EN D
Ġc ities
B efore
Ġcontr ast
ĠRe al
c b
u ing
Ġgu arant
pos s
Ġcomb ined
Ġke ys
Ġsp aces
) /
Ġthan k
Ġsche me
ĠI ll
ĠV ersion
Ġsecond s
Ġfrequ ency
ĠJ im
il ton
ĠRich ard
Ġthan ks
z en
S end
ĠAl though
Ġrem aining
av our
Result s
\ {
Ġsen ior
Sec urity
Ġf uel
Ġtri p
sp irit
b ul
EX T
ĠL im
J ohn
} +
ĠP ass
Ġfour th
Ġtr uly
X ml
ress ion
Ġdiffer ences
Ġch ief
lang uage
Ġwould n
u ations
ĠE q
Ġincre d
up load
Ġsom ew
r im
. '
Ġse gment
ĠT our
m argin
Ġf ill
% ,
Ġassert Equals
T A
=" "
FA ULT
ĠW ater
ĠGu ide
ĠA I
Ġp et
Ġc ars
Ġc ry
ell ed
ĠS ign
Ġread er
Ġmur der
ĠO l
Ġhapp ens
point s
pos ite
annot ation
ĠEx ecut
Ġdest roy
Acc ording
Ġcult ural
ĠC re
ĠW ood
Ġd ie
Ġseem ed
Ġanim als
Ġwh om
ul s
Ġdel ivery
Ġequival ent
25 6
Ġt ab
Ġcover ed
HT ML
ĠD igital
ĠP erson
ĠComm un
? ?
Ġw ww
c up
d x
re land
Ch anged
ack et
Ġocc up
N etwork
Ġap i
ar c
=" ">
Ġ$ {
RO M
Ġf ant
ĠM any
Ġis ol
u ctions
ce ived
ĠL ocal
ĠZ eal
reg ion
ĠL o
D R
ĠP age
n one
Ġmot ion
Ext ension
Ġstand ards
ĠOr gan
ĠMart in
Ġag reed
un te
In itial
LO G
ple x
y e
ĠP lease
in itial
Ġser ial
Ġviol ence
pass word
ER S
Ġannoun ce
text width
OD O
ak istan
ï ¼
Ġ( *
ass ets
k g
Ġpe ak
ĠĠĠĠĠĠĠĠĠĠĠĠĠĠĠĠ ĠĠĠĠĠĠĠĠĠ
ĠAnd roid
iven ess
ĠJohn son
Ġp sych
Ġm ental
.... ....
s ort
Ġall oc
ens ed
ts d
199 8
ĠVal ley
ur ies
if er
B I
w orld
ĠAs ia
Ġh ydro
Se cond
Ġabsolut e
and ra
Ġconsist ent
Ġle aving
_ ,
Ġwe ather
ĠIt s
Ġchang ing
ang o
Ġbe coming
Ġvacc ine
Ġprote in
ed er
ĠH en
Ġcandid ate
Ġc old
Gl obal
il ing
ĠBl ue
, -
Ġmass ive
Ġh air
let ter
Ġun ivers
IV E
ĠV AL
ot hes
th read
Ġso ft
Ġinteg r
Acc ount
w est
ĠI T
ay lor
ĠB ecause
ĠZeal and
Ed itor
Ġpro ceed
. *
Ġ" /
Ġsc hedul
ĠP oint
Ġinvest igation
ĠT erm
ĠEn vironment
Ġtr igger
ĠH or
Ġfin ite
Ġevent ually
ĠDef ault
ĠJ un
Ġret ail
al id
A v
eff ect
Ġdec ades
J an
h ome
ĠF ort
Î ±
Ġsp end
ĠCent re
Ġb an
Ġm yst
ĠO ld
h adoop
at o
S cope
ar ation
Ġno ise
Ġw arn
Ġres olution
ĠC ustom
Ġfam ous
ĠL ib
Ġn arr
Ġquant um
Ġp hen
M ain
sh ape
Ġunc ertain
O ther
Dis play
Ph one
Ġ il
or ney
L ock
W ill
P ool
s creen
form ance
Ġo dd
Ġthous ands
ult y
st itut
Ġp aint
Ġm ist
ç ļ
im pl
ili ar
ĠL ook
line ar
ob e
Ġweek end
Ġmark ets
Ġrequest s
Ġa mazing
ĠThe orem
Ġconf irmed
Ġdiscuss ed
Ġ ice
Ġallow ing
) =\
m o
aw n
ĠL i
; /
un signed
ĠAd v
Ġexpl ore
Ġg ain
Ġt end
Ġexcell ent
Ġcover age
Ġsym met
Ġstruct ures
un ately
ĠCh ris
çļ Ħ
ĠD uring
Trans action
P si
Ġwait ing
ĠYou ng
Ġdet ailed
Ġex port
ĠS y
erm an
us hed
z eta
? "
us es
al i
ĠW ay
Ġup dates
Ġestim ated
ĠSc iences
Ġw aves
t ics
ind s
re p
n ce
ic ians
Ġend ed
Ġnot es
m osph
Ġfor ced
Ġslight ly
Ġthem e
Ġsm ooth
T ab
n umer
Ġdet ect
ĠInd ust
c pp
ĠL android
TE X
Pat tern
N T
f ly
al ian
R AN
Ġad opt
Ġcreat ive
Ġw id
all oc
Ġ{ };
Ġloc ations
F ull
ĠF urther
Ġimport ance
Ġ ),
ĠJ on
iv ation
HE CK
Ġd b
ĠF unction
Ġcook ies
if fer
Ġsub sequ
sk i
Ġaff ected
ask et
D el
F S
ĠIn ternet
ĠH aw
ĠJ ones
Ġaud io
Act ivity
Ġm enu
Ġblock s
Ġconcern s
Ġpurch ase
} =\
Ġs quare
' ))
Ġacc eler
Ġpol y
Ġf ashion
Ġins ert
Ġm ale
ist ers
Ġo k
Ġem bed
M edia
enc ing
Des criptor
Ġs ale
he ll
"> &
r ick
ĠC oll
") ]
Ġb urn
ach ing
Ġspe ech
G en
Ġtyp ically
Ġgu ess
udd en
c md
con nection
; \
Ch annel
ĠP ac
Ġl ab
Ġdec isions
not ation
V E
Ġex pos
rou d
Ġappre ci
) }\
Ġj ump
Ġvis ible
ĠAmeric ans
In s
Ġhers elf
ĠR ights
Ġst reet
Fe ature
] ]
M ed
Ġde but
Time out
Ġcar ried
Ã ¢
Ġparticip ants
A U
do i
k w
as is
ĠE th
an ish
Ġsu fficient
ĠAr ab
Ġwin ning
um in
ĠP ath
Ġag ency
Ġbehav i
ĠCon ference
Ġch urch
f ire
ĠPol ice
a is
Ob j
add r
ĠAustral ian
pl ed
Ġle tt
. âĢĻ
th let
D P
d eg
Ġdist inct
et her
y es
k l
V ol
ĠP C
ĠC ard
pr ise
J ust
ĠB O
n ames
Ġinj ury
ĠO ption
J ob
ur er
Ġd ir
ential s
ul ner
g ame
Ð° Ð
ĠW atch
25 0
Ġfa ith
ict ures
Ġinter action
Ġapp arent
Ġhy per
Ġm ixed
urb an
Ġs y
Ġveh icles
Â ©
Ġbr ings
mat rix
Ġfin ish
Ġm olec
Ġhelp ing
ĠP op
} |
Ġprov ider
er g
Ġadv anced
Ġlist ed
Ġat tributes
w ait
ĠG ames
ĠJapan ese
ian a
Ġart icles
w ar
Ġgu ys
Ġfl ight
ind ent
Ġt un
ĠCont rol
Ġsh aring
pro file
st ats
ĠW he
Ġinfr astructure
Ġtask s
ĠM ike
ĠS ol
et ing
ĠS earch
Ġh tml
ĠL ord
ĠM ain
Ġextrem ely
ock er
m aster
ty ped
rec ord
Ġreg ul
ĠH y
Ġmet al
Ġincre ases
Ġcy cle
6 00
Ġcomp are
Ġconduct ed
Ġadv ance
ĠA S
Ġexperim ent
Ġg ender
Ġsupport s
12 8
Que ue
Ġk ill
Ġdynam ic
wide hat
* )
Ġs qu
pos itory
//////////////// ////////////////
Ġh usband
j ar
s ave
ĠF alse
ou ter
Ġ[ [
r adius
ĠInst agram
Ġcre ation
ath an
Ġcr iminal
uck y
ĠO N
ĠCan adian
VER SION
c am
sh all
ap es
Ġtell s
u an
ĠGe org
ick ets
Ġaw ait
Ġwatch ing
F ind
Ġin ternet
ut s
Ġexpl ained
ĠEx t
B it
drop down
==== ==
ĠA ff
W idget
Ġest imate
g ov
Ġbro ther
Ġded icated
em on
ord ers
ly ph
Ġc ash
Ġch osen
ge bra
Ġpost ed
Ġ\ {
ĠP an
Ġprof ession
J SON
let on
Ġinteg er
L IC
ON E
k in
[ :
Ġb ond
ost on
V ar
Ġmat ches
Ġpre par
Gr id
ĠI reland
iter al
est ion
ol a
Ġin ner
=" @
Ġeas ier
Ġinstance of
Ġexpl ain
F inal
ĠIm age
clud ed
Ġman age
Ġdef initely
ang ular
Ġsol ar
ĠĠĠĠĠĠĠĠĠĠĠĠĠĠĠĠ ĠĠĠĠĠĠĠĠ
Ġmeas ured
ĠT oday
Ġfac ilities
ĉĉĉ Ċ
ĠH ospital
Gener ic
at ible
}^ \
ĠK en
~~ ~~
ĠF estival
sc roll
ĠC opyright
Ġsupport ing
ĠN ext
ĠJ eff
Ġdef e
Ġexp ansion
l ers
Ġr ain
ĠStud ies
Ġph il
ess ions
Ġn om
result s
mod ules
Ġtele vision
ax is
ro ke
ĠM S
al o
ĠD aily
r ich
ir ation
ĠS af
e per
Ġd raft
Ġcrit er
ĠN umber
Ġsec ure
ele gate
IC E
Ġapprox imately
ĠSt e
W N
ĠB oth
br id
ĠIs lam
12 3
Ġliter ature
Ġmov ies
ĠPar is
( !
ĠB ob
Ġsh ock
Ġtre es
j query
T V
Ġgl ass
Ġturn s
ĠPol it
t ip
Ġad vent
ĠInd ex
k o
ĠC ast
Ġac id
Ġtre ated
f amily
Ġl oved
w p
} :
in ations
ĠS pace
Ġtechn iques
m ove
Log ger
que ue
c it
cont in
Ġpur poses
Ġpos itions
ĠCl in
as tern
ĠS ar
Ġtop ic
F loat
ĠL ine
fl ags
Ġr aw
Ġadv ice
8 00
Ġsk in
math sf
Ġ% }
Ġf if
Ġsym pt
r ine
B est
ĠL ive
Ġrel atively
ir al
Ġmaint ain
Ġ ip
() {
Ġtechn ologies
In it
Ġconf irm
ot ing
Ġdet ection
Ph oto
en umer
S ymbol
key word
By Id
Wh ere
Ġdepart ment
ĠN ight
Ġaff ord
ĠCarol ina
ell o
) "
@ "
Ġdat aset
Ġclass ic
Ġcrit ic
Ġopin ion
Ġin du
P P
er ial
Ġimprov ed
ĠM a
Americ an
Ġpass ion
U ID
Ġcor ner
199 0
Ġv ac
rec ated
it o
L oc
Ġfore st
r ase
ev ents
prot obuf
ĠF our
ic ing
s ur
and on
MA X
Ġdep ends
Ġsh ares
R S
Ġwh atever
Ġyou th
anc el
ĠP ay
Ġattack s
Ġn ine
Ġregister ed
Ġb right
b ad
g it
T ABLE
J ava
Ġre ject
oper ation
Ġcol lected
Ġexpress ed
ition ally
199 7
ĠA h
Ġlo op
new s
Con f
ual ity
ir a
ĠWilliam s
Ġapplic able
Ġoffic er
ĠR oman
Ġbound ary
p et
Ġprep ared
Ġk id
ĠS and
ĠB it
art icle
Ġhistor ical
ĠChar les
ell er
ĠW ild
cont roller
Ġb tn
dom ain
b orn
P ay
ĠEx per
om orph
Select or
cl ip
Ġv ideos
ĠÂ ©
Ġs s
Ġinstall ed
$ )
ap pe
Iter ator
######## ########
Ġth erm
ic ity
tx t
Ġgirl s
Ġexperi enced
T wo
A uth
Ġf reedom
Ġsc r
Ġd u
ĠW all
Ġfl at
ott en
ĠL ab
r id
sup er
Ġre tr
Ġiss ued
) ),
r ical
Ġphot os
F igure
ĠP akistan
)) );
ĠS pec
ov a
Ġpay ment
}_ \
L a
Ġan imal
f old
Ġs ounds
ĠK now
Ġcr ime
ens us
Ġgr id
li x
type of
Ġcons umer
C F
Ġresearch ers
y er
ĠFe b
n etwork
as m
$ /
ĠVirgin ia
g ence
in v
{ (
ĠP enn
H R
il it
P op
Ġp il
Ġcirc um
Ġen abled
Ġsign ature
ĠB ow
Ġdou bt
Ġco ast
f ast
igh ter
In ternal
ï ¿
fol io
ear s
Ġre nt
Ġrelationship s
R et
ĠR oyal
ors hip
irc raft
Ġs port
Ġf ish
ĠFor ce
Ġsuccess fully
Ġkeep ing
Fl ags
Ġp ure
Ġ ðŁ
Ġsim pl
Ġh aven
Ġle aves
T ube
_ ->
Ã §
Ġm ac
f ix
Ġpl ants
ist ant
ic ial
j i
es ome
Ġv ent
w ater
Direct ory
) ^{
Ġc as
L ook
Ġhealth y
S pe
s en
Ġun iform
act s
cd ots
Ġexper ts
Ġform ed
v a
B E
alax y
Ġmin im
Ġredu ction
at i
New s
Pr int
ak a
at ar
Ġh ab
Ġexc ited
Ġpers pective
d y
Ġpl ane
ĠP RO
Ġemer gency
ĠDan iel
ĠA wards
M sg
ĠOn line
Ġman ner
Ġfe els
red it
Ġautom atically
pro perties
Ġsp ring
anc he
ost ic
Pro xy
ĠJust ice
Ġstrug g
', '
ĠMex ico
Ġaccur acy
por ation
Ġcomm itted
Not Null
E very
ĠSe ason
Ġset up
an es
ĠF ederal
ĠSen ate
ed u
ER E
Ġcandid ates
u ages
It ems
Des c
ook ie
Ġ> >
ed it
t ical
() ));
Ġplan et
com pl
ad ium
Ġcl im
e ah
os itory
g a
Window s
Ġmot or
en abled
t witter
ĠT ask
ed itor
ak ed
at ial
Ġappro aches
G raph
ev in
co hol
Ġele m
ĠAs sembly
ĠW al
Ġem ph
Ġte ch
se lected
Ñ ı
pr imary
Ġreport ing
Ġpolit ics
out s
th rows
b re
Trans form
acc ount
Ġr ul
in f
Ġsur g
C ond
Ġcitiz ens
Ġpr ison
ĠW alk
s chema
T erm
Ġpr ivacy
Ġpi eces
Ġs an
z one
Ġex tr
ĠP aram
Ġw itness
Ġpo inter
ĠV an
Ġdim ension
ĠM en
ĠJ ava
Ġbeg ins
Ġpass word
ĠPro cess
p a
assert Equals
Ġl atter
Ġspect rum
man ager
Ġf ell
() ).
ĠN on
il ation
Ġd ress
Ġm aps
H igh
}} (
Ġbuild er
Ġb ird
des c
Ġre con
ï¿ ½
ĠAnd rew
Se ction
i ate
ĠL ight
ĠF ull
ĠN ode
Ġins urance
Ġat mosph
av ity
) ">
Ġstrateg ies
ĠAcad emy
Ed it
S ymfony
Ġp al
arg ument
S IZE
ag raph
Ġk m
Ġ Ø
ly wood
bl ack
ĠN iger
ĠM O
Ġ( @
sh op
ĠCh ange
Ġplatform s
ant ly
Ġhom es
n am
t ex
P U
Ġint ended
Ġacad emic
Ġhold ing
Ġre venue
W orld
Ġk ick
ik es
Ġv e
Ġnumer ous
Ġc aught
) ).
1 10
tool s
ĠC ath
Ġenc oding
Ġexperim ents
Ġdes c
Ġappro ved
Ġocc urred
Ġs am
Ġhand ler
Ġconsider ing
Ġ ing
Ġconf idence
ĠM ot
Ġa cknow
Ġf le
ĠV ideo
are a
ĠK im
Ġfac ility
Ġeven ing
Ġend s
c uss
Reg ister
ĠA T
sc r
Ġe at
Ġr ail
Ġm al
Ġexecut ive
}) \
Cl ose
IG HT
Ġp itch
G R
D ouble
Fil es
ĠF I
Ex pr
li k
P ATH
Ġtrans l
poss ible
mer ce
li ament
s in
Y es
} </
Prot ocol
Ġres erved
ĠP R
Ġmar ried
Ġchem ical
Ġsub stant
199 6
h ar
Ġar bit
il ly
] :
Ġ rom
ĠS ource
Ġread ers
e an
Dat abase
ag ers
Ġpart ial
Ġcomp re
Ġtr av
ir ms
ĠR am
iss ue
in her
. __
Ġ[ ];
Ad apter
ollow ing
ic ious
P lay
mon th
Ġstud ied
Ġt on
ĠĠĠĠĠĠĠĠĠĠĠĠĠĠĠĠ ĠĠĠĠĠĠ
ĠI ss
Ġz one
Â °
âĢĻ ,
Ġhous ing
ĠH on
ut f
eng ine
Ġinvest ors
Ġindic ate
config uration
Ġ{ '
ĠF oot
Ġ$ (\
Ġinv alid
it age
Ab stract
Ġrece iving
st ances
ĠUs ing
ĠAr my
Ġl ose
Ġther apy
print f
Ġ& \
iter ator
At tributes
end or
sh ift
u ilt
ĠRes ource
Ġappear ance
P anel
Re port
typed ef
Con str
Ġspec ifically
Ġinsp ired
B P
Ġf illed
ĠG ets
log ger
A F
s es
ic ian
Ġf unc
Ġv ary
Ġv ulner
Ġun iversity
Ġvill age
In v
Ġcontinu ous
Ġfam iliar
eng er
P ublic
l g
Ġas sets
Mat rix
Ġpattern s
ĠVict or
e ach
ĠPh oto
Ġsup posed
ĠT R
p icker
Ġnuc lear
Eng ine
Ġmom ents
dim ensional
" `
Ġadv oc
w an
Run time
Ġoper ators
Ġmod ified
Ġs now
Ġeval uation
Ġc os
C N
L P
Ġin n
l ights
Ġpre v
Ġvert ical
um es
Ġcon ven
ĠSo ftware
Ġreview s
Ġco e
F IG
Ġf n
def ined
Ġc ref
Ġfe e
Ġnav igation
Ġoption al
IN D
s afe
op l
ĠL emma
ult ural
P lease
i ro
Ġmed ium
assert Equal
ĠK ar
Ġw inter
hor izontal
pl us
b en
Ġeffic iency
Ġf at
ĠFil m
Ġp roud
ĠPh ot
Ġr ough
ĠFrancis co
bs erv
u ous
ĠF ar
R est
Ġed ition
pro to
S Y
Ġhe aring
Ġdiscover ed
Ġa f
}\ \
p arser
A CT
Ġfind ings
in et
Lay er
Ġf re
Ġsuggest s
Ġab stract
NavBar Cell
Ġvers ions
Ġst ored
res et
t otal
Ġproced ure
RE AD
import ant
Ġm ent
ĠL uc
Ġ ×
let ed
Ġtr uck
Ġs udden
Ġide al
Ġaccount s
++ ;
Ù Ħ
ĠJack son
Ġhouse hold
ĠCon fig
Pro p
Ġcontribut ion
Ġl ived
ly mp
ĠIr an
gener ated
Ġch annels
Ġrepl aced
Ġex it
ĠTr ust
Ġr ing
ĠF ind
let s
ĠH as
d em
Ġtest ed
Ġjust ice
X ML
Ġ( _
Ġel im
ĠF OR
Ġn g
Ġhot el
% .
Ġch air
ĠOb ama
cre d
Ev ents
ï »
pre ne
is er
. ~
ost er
Ġcaus es
Ġm ir
ĠSt ory
s witch
hens ive
p an
ĠĠĠĠĠĠĠĠĠĠĠĠĠĠĠĠĠĠĠĠĠĠĠĠĠĠĠĠĠĠĠĠ ĠĠĠĠĠĠĠĠĠĠĠĠĠĠĠĠĠĠĠĠĠĠĠĠĠĠĠĠĠĠĠĠ
L im
ĠH arr
E lements
ĠP A
w atch
i ples
Ġmechan ism
Ġform ation
Ġrepresent ed
t mp
ĠJ ac
m ann
Ġoffic ers
O M
Aut o
ã Ģ
Ġde bug
ĠEx pl
ĠOn ce
Ġconvers ation
d ist
Ġsum mary
Ġaspect s
Ġdep ending
Ġcon nections
Ġposs ibly
'] )
Ġexperim ental
Ġp un
Ġ io
force ment
M OD
Load er
Ġth ick
Ġbring ing
I MP
En um
ĠR est
ĠBe ach
\ '
ĠMich igan
ĠM P
ĠM aster
Ġconsum ers
et es
tr igger
To String
Ġexist ence
Ġscient ific
F unc
Î ¿
IN S
ch annel
aw a
Ġle ague
Ġcent re
Ġis land
ech o
ĠRepublic an
s che
Ġb inary
= (
ĠĠĠ Ċ
Ġder ived
m ond
Ġdeliver ed
ĠT aylor
! "
ĠC ross
Ġsche dule
re prene
ĠOr der
b log
Ġs we
st ein
ĠIn itial
IT E
tab s
ident ial
h idden
ĠCol lection
LE CT
Ġt error
Ġst able
Ġr an
Ġmagn etic
bl ue
ri ze
199 5
Ġbr anch
met adata
Ġaccept ed
Ġse at
Ġim plements
Ġsp ending
âĢĻ .
Ġsp an
ĠB ang
ĠK h
ĠJ es
ch or
in ity
Ġclos er
S ER
Ġg ene
Ġf ellow
Ġt um
Ġm el
UT F
ad or
ĠM iddle
Ġcapt ure
sub s
ĠPro duct
U LE
iz able
Ġind eed
Ġd ialog
Ġent ered
Ġs and
Ġim plies
Y our
M any
Ġtrans late
Ġmus ical
10 1
Ġcont roller
Ġmin ute
w ild
av id
IP T
ĠE V
ut ch
Ġ= ========
child ren
Ġre q
n orm
iz z
Ġfeed back
Ġacc ident
C ap
c ert
Ġrecover y
Ġm ort
Ġinc ident
ĠT w
ĠIt aly
ĠProf essor
Ġre action
Ġmet ric
ĠB oston
Ġimplement ed
Ġsign s
Ġwel come
Ġfact ory
Sc roll
ĠÂ ·
Ġrelig ious
W atch
ĠT ODO
ĠG irl
Ġwor se
Ġcal c
Ġcor porate
Ġf aster
q quad
om ial
t ons
Ġon going
el ly
G A
Pl ugin
Ġm and
if ts
Ġ" "
Ġarchitect ure
Ġbroad cast
Ġap ps
W ell
Ġap art
ĠC ase
> :
m ask
ĠChild ren
Ġcollabor ation
ion e
Ġsuggest ed
Ġd uration
ĠR en
r an
Ġg ap
ul f
= -
hand ler
| ^
oun try
app ly
M apping
ĠC ovid
ĠM id
ĠB lock
Ġt ight
ĠSc ot
Ġentire ly
Ġd iverse
ĠM ic
Po inter
Ġpass ing
at uring
ins on
f ail
com ponents
S w
x space
Ġus ual
ĠKing dom
ĠCom put
press ed
Ġexpl an
Ġreg ional
Ġc ert
appro x
raz il
ĠWh ere
Ġstop ped
Ġfind s
by tes
ĠAg ain
Ġben ch
ï» ¿
Ġs oul
ist ed
ĠT ele
Ġcons ists
Ġrec all
Ġassess ment
Ġdis s
det ails
e z
Ġmatch ing
ĠDiv ision
Ġro les
D uration
H istory
Ġpr iv
Ġtrans formation
Ġdest ination
Ġvol unte
-> _
ann a
Ġdem ocr
S pace
ynt ax
lim it
O UT
[ $
Ġstat ements
br idge
m ic
ĠEngine ering
Const ants
ĠW at
param eters
Ġ" <
Ġvict ory
Comm on
Ġinstitut ions
an ner
ans as
O pt
m i
Mem ory
Ġrestaur ant
F ix
call ed
N ULL
Ġfunction al
Ġcalcul ated
Ġw a
Ġas ync
Ġax is
for ward
Refer ences
our se
Ġteach ing
F ree
Ġfig ures
Ġli qu
fort unately
Ġcompl iance
ST AT
Ġachiev ed
M ake
ĠL abor
ĠF ac
Ġindic ates
ĠS ep
Ġrepe ated
Det ails
Ġus age
V ideo
Ġhon est
am ental
} '
Ġm ess
00 1
U SE
ex ists
Ġgu ard
mut able
Ġl it
ĠPr ivacy
ex ternal
B rowser
or al
Ġbuild ings
Ġord ers
pl atform
Ġsustain able
t ain
Ġp ed
id x
Ġtal ent
F R
ten ance
Ġsc al
Ġpost s
Ġask ing
ro le
it an
Stat ement
ĠF uture
ĠG ar
osoph y
Ġal ert
}\ ,
n il
Ġne ut
Ġprom ise
ier arch
Ġre new
Ġinnov ation
Ġwe ar
ĠIt alian
Ġconf lict
d p
is a
Ġp arser
Ġthought s
ĠN ick
Ġd ance
Ġput ting
g reen
S cale
Ġstud io
ap ore
ĠE nt
Ġg ar
ab eth
ĉĉĉĉ ĉĉĉĉĉ
ĠP H
Ġdirect ed
Em ail
ĠB E
ĠP rem
Ġwor st
Ġout comes
re port
Ġexc iting
prot ected
ĠI II
um a
U nder
19 80
Ġtyp ical
%% %%
N C
S uccess
od d
Ġtw ice
Ġenh ance
Ġrec ip
r andom
z ero
s ol
Ġc le
}^{ (
_ (
Ġxml ns
ĠY es
ĠM essage
gorith ms
r uby
Ġact or
M ut
Ġrec ru
Pro file
Ġwill ing
build er
dep th
Ġs ac
Ġk it
Ġ( -
ĠC ancer
Ġk ing
ĠYou Tube
b rowser
Ġequ ations
C re
d ependent
Ġfight ing
ĠĠĠĠĠĠĠĠĠĠĠĠĠĠĠĠĠĠĠĠĠĠĠĠĠĠĠĠĠĠĠĠ ĠĠĠĠĠĠĠĠĠĠĠ
rodu ction
S ync
Ġdeath s
cont ains
Ġbro ken
ĠN FL
b ell
Ġcont ained
Ġam b
Ġteach er
ĠPac ific
Ġaccur ate
ĠSp anish
{ {\
ly n
Ġb ow
ĠW AR
Ġdom in
hem at
j e
l ow
Ġexpos ure
ĠW rit
ĠU I
Ġexecut ion
Ġcharg es
h space
ĠReg ister
ig ate
RE S
Ke ys
Ġprom ote
ian o
VAL UE
Ġw arning
get Name
Ġdec ade
Ġapp end
Ġth reshold
Ġpro spect
w hen
ott ed
Ï Ħ
âĢ ĭ
Ġad ults
Ġcomp ute
P ORT
Ġinterest s
Ġcontrol s
tribut ed
Ġco ff
Ġoriginal ly
Ġrespons ibility
con n
ist ical
ident ifier
Ġ$ .
st one
BU G
ĠR ight
Ġshoot ing
ok ed
Ġan gle
ru ption
u able
ĠI L
ar ity
Ġdynam ics
Ġt x
< !
erv ative
az e
ĠP O
Ġs ides
Ġent ertain
ĠC S
t ags
v in
ĠIO Exception
Ġt or
â Ĥ¬
ch er
Ġd ict
h ide
å ı
Ġtarget s
Ġext ent
Q U
At tr
ĠBook s
Par se
wrap per
J oin
uss ian
il a
ĠS at
um s
Ġsympt oms
Ġpre gn
Ġver ify
Ġbr ands
Ġrem ark
C RE
AD D
ĠSch olar
T T
Ġdeg rees
Ġint ent
d ialog
Ġwe alth
T otal
Ġc raft
head ers
prov ider
S eg
ĠEd itor
Â ®
ĠS i
ĠC ost
Ġvel ocity
Ġext end
Ġlink ed
hold ers
erv es
ach ment
ĠE r
nav List
fil ename
] $
ĠJ r
Ġag ents
Ġneighbor hood
Ġf avour
Ġinstr ument
=" $
ong s
ĠI l
Ġwas te
Ġw est
19 70
D est
Ġlim its
Ġc art
F in
-------- ----
L INE
y cl
ĠH ash
C ategory
ĠG a
enumer ate
Ġfr ag
sh adow
D ay
Ġdocument ation
; )
i pl
im a
Ġsu c
^ +
os a
Sub s
ĠSe a
ĠJose ph
: \
Ġa ircraft
Ġcur ve
Ð ´
Ġbel ief
Wh o
y ou
Ġcharacter istics
W rapper
Ġteach ers
f lix
J S
w all
i at
F ailed
Ġunder lying
Ġgreat est
Ġpl enty
ont o
ĠCh ampionship
p refix
onym ous
Ġc ategories
Ġst orm
ĠSt eve
& =
Ġd ry
it ivity
Ġin tern
ĠF air
p ub
M ost
) +
Ġdanger ous
Col lections
Ġmet adata
b its
de cl
] \
ĠCl oud
un ting
ĠTh rough
sign ature
Ġden ote
Ġst ores
ĠC irc
Ġs ister
Ġstand ing
prot ocol
E C
Ġw ire
ĠA f
L android
ail ing
n i
Ġhum ans
Ġcommit ment
Ġt ough
gy pt
Ġe c
Ġcontribut ions
Ġv eter
ad el
ĠC reat
Ġauthor ities
ĠO lymp
asket ball
at tributes
Vari able
CE SS
Ġexerc ise
O B
C am
R R
p red
Ġobserv ations
C opyright
ĠC ur
L o
Rem ove
ĠP ut
Ġfl ags
ĠW in
Ġad j
ĠR o
up lic
ĠD at
Ġtype of
el i
Ġdr ag
ĠDis ney
Rep ository
n eg
Ġocc urs
Ġsize of
Ġin hib
Ġform al
}} {\
col Last
Ġst ret
Ġm it
Ġdr am
comp iler
Ġmark ed
Ġex ceed
ail ability
Ġb aby
En ter
do or
con trib
Ġ era
ĠĠĠĠĠĠĠĠĠĠĠĠĠĠĠĠ ĠĠĠĠĠĠĠĠĠĠĠĠĠ
ĠM u
ok ing
Ġsub mit
Ġint elligence
h av
O F
ĠS her
is c
Ġent ries
Hel p
Ġalle ged
Pro duct
Ġcharg ed
N OT
Ġinter actions
Ġcomm ittee
Ġpl anned
t body
Ġc ro
ars ed
b ro
Ġun ion
Ġarbit r
N ov
Ġtrans parent
P y
Ġaddress es
ĠMus lim
Ġseek ing
} +\
W R
Ġindust rial
V M
ĠA D
P od
Ġac comp
ap os
ĠM att
ĠJew ish
Ġm ach
ĠE st
Ġelect ronic
fin ite
Ã³ n
Ġestim ates
Ġauthor ity
Ġv en
Ġpr ay
Ġfeature d
Ġrisk s
Ġdec ide
Ġrespons es
pre v
Ġpotential ly
d one
R oute
in er
Ġind epend
l aw
se ud
ble m
An other
ĠAre a
oc aml
ĠC urrent
Ġadd s
Ġrecomm ended
ĠS us
det ail
Ġmov es
Ġt ail
ĠHen ry
mult icol
ik ing
ĠCh air
ĠExecut ive
ow nt
ĠM D
Ġsp ons
Ġworld wide
ab il
f all
Ġassoci ation
ĠM ah
">< !--
Ġconcern ed
Ġre ct
() </
Ġ{ {
cit et
Ġm atters
Ġcount y
i ot
pro du
ar on
ĠH ard
Ġcont rolled
ne q
ĠThe atre
Ġtrans actions
Ġelect ron
Ġcriter ia
col First
Ġor ient
199 4
ri e
Ġcor onavirus
o ices
ĠC hem
Ġdrug s
Ġhundred s
ĠD NA
m al
et ary
Ġanc ient
Ġdef end
Ident ifier
equ ence
Ġsever e
S QL
Ġcan cell
spec ific
Ġfor g
ĠR adio
ers hip
ĠRequ est
ĠK n
Tr ace
Ġqu iet
ĠBro ok
ĠH a
Ġprovid ers
Ġfor get
Ġal ter
Ġtr ained
S ocket
Ġele v
ĠR om
Ġ" ,
F ail
Ġres olve
Ġstand s
Ġd iversity
Ġ urban
12 5
Ġper mission
multicol umn
Ġcr uc
Ġbatter y
medi ate
ĠL ittle
t w
ĠAp plication
M r
ĠĠĠĠĠĠĠĠĠĠĠĠĠĠĠĠ ĠĠĠĠĠĠĠĠĠĠ
c raft
Ġprior ity
ĠMan ager
Ġpro port
ĠG i
Ġhealth care
if iers
U D
al g
Ġrepresent ing
op ed
ord an
end a
view s
Ø ±
the me
Ġfl u
Ġf lo
Ġmag ic
Ġc ards
Ġsuc ceed
Ġsk y
Ġarr ived
Ġform ula
ĠPro t
ev al
ĠM ember
ĠT urn
Ġy es
s pecial
Ġc er
ar ian
ĠS outhern
O h
P G
Ġtyp ename
Ġtrack s
ex ecut
ĠHT TP
Ġl ies
Ġ= ======
Ġabs or
Char acter
m aven
Ġr ide
Ġproper ly
TEX T
Ġdis k
Ġign ore
Ġadmin istr
B AR
are t
Com par
ĠA C
plic ated
Ð ²
Ġdro pped
ser ial
ĠGeorg ia
ort ion
Ġdiv ision
Ġconstr aints
Ġar ms
ĠTh ree
Ġposs ibility
play er
iss ues
Ġ ..
def inition
Ġ[ "
ĠN eed
Ġstrong ly
ĠD ocument
st able
ĠN AME
ĠW is
Ġeffect ively
ct rine
ĠCol umb
w riter
ĠC ond
Ġeval uate
Ġdef in
Ġes cape
On ce
Ġs aved
M icrosoft
ist ing
Ġrefer red
ĠD ar
ĠP S
ĠI E
pro ps
Ġcomm ission
comm od
Ġse ed
Ġst im
Ġen v
ĠCon f
Ġdr ivers
Al so
item ize
ĠPr ime
the orem
P D
Ġcre w
az y
Ġabsolut ely
ip ping
IT ION
Ġup coming
Ġexp ensive
Ġdi am
all classes
IN FO
ĠHam ilton
iz abeth
v space
Ġa id
ĠSh ould
Ġmain ly
Ġvisit ors
F E
j unit
ĠMore over
/ .
Cl oud
ĠCont act
Ġpro xy
Ġwin ner
Sim ple
pro gress
Ġsecond ary
Ġsc ores
ĠB ul
Ġprop ag
Ġmill ions
ĠAcc ount
Ġclaim ed
à ¸
Ġr iver
Ġengine ering
b at
Ġtop ics
ĠBro ad
Ġb odies
Ġag greg
m ac
Ġrequest ed
ĠInst ead
} -\
ĠCo ast
ug s
ĠT E
ĠO S
Ġcre ates
Ġque ue
f i
ĠAs ian
sh ared
Ġbeaut y
g ments
P i
Ġintrodu ce
Ġprep are
Pass word
Ġexpl ains
part y
aj ax
Ġinfe ction
Ġass ign
Ġs ending
ourn ament
Ġspe aking
Ġserv ing
Ar ch
}} _
ex pect
=" ${
Ġde leg
= >
U ST
AL SE
Ġin fl
ex tern
Ġst ick
Ġf ly
ind u
Ġg ift
coll apse
on al
Ġass igned
Ġl ots
Ġadvert ising
Ġsc ored
rop y
Ġstring s
ce ive
Ġhe nce
ĠRes ponse
j ango
ĠAn alysis
Ġj Query
ĠSt aff
ades h
Ġopt imal
Ġgu itar
f d
ib ilities
Ġde bt
ĠQue en
ast s
Com ment
> ::
ĠOh io
ab out
it i
ĠAd am
ĠK r
Ġcont ents
$ _
Ġlarg ely
M er
Dom ain
ou ston
t k
it ative
Ġwid ely
Ġsol ve
ĠCap ital
Ġto w
ĠRes p
Se lected
Ġdom estic
( {\
Ġad m
Ġmeasure ments
Ġm eta
C B
am az
A gent
Ä ģ
UR I
Ġclass ical
Reg istry
Ġmar riage
; }
col lection
ĠF ox
Ġper man
Ġchalleng ing
Down load
Ġm outh
O ct
nd ef
33 33
Ġbre ath
Ġel ig
Inst all
Ġout come
Res ources
ibr aries
Ġcl ust
Ġact s
ĠAr g
Ġp refix
Ġp ert
Ġcomp act
S election
Ġphen omen
Ġin struction
7 00
it u
Ġprom pt
Ġaccess ible
Ġhe av
Ġde ploy
ĠSt an
ĠF re
Ġs weet
Ġconc ert
ĠB oy
fe ature
Ġimprov ement
w a
Ġt ack
ist ence
Ġsp oke
ym met
cd n
ĠFin ancial
Ġ[ ],
ĠEconom ic
t wo
Ġt ro
Ġcamp us
f ixed
ĠSpr ing
ud es
Ġac compl
ub s
Ġinnov ative
Ġemot ional
(' .
log in
ester day
P refix
N odes
pre c
Ġt er
Ġtechn ique
os c
t le
be an
Ġ{ "
TI ME
18 0
Ġwalk ing
Back ground
ĠL A
Ġbig ger
Ġ' '
b les
T x
s ince
Ġrec ording
ĠDon ald
( __
St ud
IN TER
Ġrem ained
Ġse ctions
Ġm o
Ġg rew
Ġad ult
er ic
{ $
Ġcomp r
u h
F ORM
Ġport ion
Ġcho ices
ĠDemocr atic
y o
ĠC R
ĠA ud
Ġfor t
ateg or
Ġ" -
or ry
Ġf lood
ĠF ROM
Ġe ast
Ġown ed
Ġ ).
under line
Ġpod cast
Ġrecogn ized
serv ices
v s
, '
lo om
Ð ¼
Ġrel ax
Ġmonitor ing
Ġc e
ater n
Ġm apping
Ġag ric
Ġass istance
Ġconstruct or
Ġwonder ful
Ñ Į
ĠAn other
rior ity
Ġch art
oun ce
St op
ag ues
ĠS em
os ed
c ue
Ġlist ening
ĠU r
Ġid x
' $
ĠL td
Ġsurpr ise
Ġinter val
m oz
ĠR ay
ĠG al
Ġlay out
Ġcolumn s
ĠW IT
Ġdeb ate
C G
Ġu i
Ġfac ilit
ĠSystem s
Ġs ter
om es
ock s
ĠB ad
r ift
Ġneg ot
ĠA li
a ired
Ã ¨
Ġpercent age
Ġag encies
app oint
in ating
Ġb inding
Ġvert ex
ex pr
ĉ ĠĠĠĠĠ
or iginal
Mem bers
it is
ĠMc C
Ġy ards
sv g
Ġact ing
B B
Ġincreasing ly
en ess
ĠB as
E ar
id i
Ġtell ing
ĠB razil
Ġdis abled
Ġalong side
Gener ator
Ġ- \
S ervices
Ġ ],
Ġc ab
ĠT ax
requ ired
err ors
cept ions
ĠS om
Ġest ate
r f
ĠL com
Ġnew ly
ul ating
ĠC ore
ĠTe ch
Ġfac ing
d c
am i
iv ated
Ġinteg rated
ĠSecret ary
it als
P Y
Ġc tx
Î ¹
Ġf ake
ĠT ake
Ġpract ical
Reg ion
ict ed
iam i
st orage
ĠD ead
ĠB ox
Ġcap able
ĠA z
. <
el a
am ber
Ġanaly z
ent h
Pro ps
Ġclos ely
au ge
Ġindic ated
ĠĠĠĠĠĠĠĠĠĠĠĠĠĠĠĠ ĠĠĠĠĠĠĠĠĠĠĠĠ
ĠComm on
Ġemploy ee
E V
Ġfra ction
ĠNor thern
ĠKore a
Ġinst ances
Ġl at
ific ial
ĠB ern
Ġpor tr
Us ing
Child ren
ĠA sh
t ic
min us
Ġex ecute
B ound
Mult i
Ġtrans lation
o ir
Ġschedul ed
T ok
Ġres istance
is ition
ĠOr iginal
Ġrecogn ition
. ");
Ġan imation
Ġco al
Ġtalk s
if def
Ġdoll ars
Ġf aces
Ġco q
CO MP
Ġm ob
Ġtrans mission
ĠT em
ĠDo es
ix els
ĠSing apore
ĠB log
Ġlay ers
Ġcon tribute
ap ed
Ġmeasure ment
s ys
Ġenc ounter
RE E
) ->
ĠIm m
un icip
Ġobject ive
ell ar
L Y
Ġfor th
A ng
Ad min
and y
aw ay
ip her
ĠB efore
Ġpresent ation
Ġsurround ing
v ideo
li ance
Ġinteg ration
Ġs ad
ro vers
p u
M s
ĠC ivil
Ġm m
ĠH ave
Ġbeliev ed
Ġed ges
ĠN av
G ame
HT TP
n p
ast ers
Ġmanufact uring
Pl an
eng ers
H z
V D
ĠM ir
f lex
R ole
mult i
Ġv ast
g i
ĠRes ources
omet ric
un a
Ġn arrow
Ġfund amental
Ġlabel s
Ġdo ctor
P ER
PRO JECT
Ġprogram me
ĠAn th
ĠR od
ĠE ffect
Ġp airs
ell s
OR Y
ex ecute
Pe ople
Ġpartic les
Ġult imately
j ob
ĠAN Y
Ġdet ected
Ġpath s
AN T
M ath
tern oon
Ġweap ons
D uring
Ġsem i
M R
Ġmiss ed
Ġpublic ation
no indent
int on
ĠPro perty
ĠL ow
S ingle
Ġhappen ing
Ġsc atter
ĠPro te
ĠGu ard
Ġstat istics
in valid
Pro gress
ph ot
Ġst ake
ĠD ou
ĠR yan
AN CE
ĠCont ent
text tt
ĠC as
ĠS H
b ot
al ty
us ers
ĠA ge
ĠStud y
b rief
Ġal cohol
cond ition
Ġl es
Ġh ook
spring framework
Ġgood s
Head ers
Ġlog ger
199 3
yl van
Cont act
test s
Ġs izes
res ources
Ġs elling
Ġcirc le
th row
t c
ĠFinal ly
Ġsc roll
199 2
Ġserv es
P ress
ĠPr act
ry ption
Ġperform ing
en able
W rit
L I
Ġorder ed
amp ion
ĠS che
app y
Ġpr ime
Ġim possible
Ġsubject s
ĠSp ain
Ġcrow d
ĠCar l
Ġem issions
or ough
Ġw ins
Ġdi agram
includ ing
Ġland scape
align ed
ĠWil son
Ġnew sp
ak s
u its
n ic
Ñ ĭ
pt on
A I
resent ation
ĠCont in
ari ant
ell i
ĠSh ort
Ġs pl
b ury
1 30
Ġhead ers
Ġcoff ee
vent ional
un ique
x s
Ġf ab
Ġher o
g roups
EN SE
Ġimmedi ate
Ġr g
U ri
Ġsit ting
Ġun able
PO ST
Ġstream ing
Ġte en
Ġconst itut
l arge
M iss
Ġpartic le
Ġp ictures
(' #
ĠO x
Date Time
Im port
Ġreturn ing
ĠL u
Ġcompre hensive
Ġinv olving
nes ota
Vis ible
Ġturn ing
Ġphot ograph
pro d
st ood
Ġscen es
ps on
br ace
? >
) }{
Ġinitial ly
riz ona
nap shot
ĠS D
L en
ĠB on
Ġrob ust
Ġ' <
Ġcy cl
ane ous
Ġleg end
p act
equ ality
Ġso il
ĠT y
r at
D em
ĠRec ords
ĠP ers
St ats
S ur
Ġcol on
Ġpar allel
Ġvot ers
ĠDemocr ats
ĠW H
N V
Ġentertain ment
ĠRef er
Ġfe aturing
bs ites
or ient
Ġsch olar
Ġimag ine
Ġfe es
Str uct
qu ir
Con n
ĠR a
EE EE
Ġhon or
L ike
cept or
ĠH istor
ĠS ym
Ġh a
Ġfrequ ently
ĠIm ages
L iteral
as i
Ġcan cel
ĠL y
Ġop posite
Î ½
es is
Ġc m
Ù Ĩ
ad ed
user name
l ibrary
Ġli e
clos ed
Ġcour ses
ĠR og
par a
ĠE gypt
Ġ\ |
i ated
ĠCath olic
Ġb anks
web pack
eg o
}} ,
n odes
plement ation
Al though
Ġprim arily
cos ystem
Ù ħ
Ġc overs
e en
ĠSw ed
ĠC apt
Ġe q
p ag
Ġl osing
Ġwhere as
Ġcorre lation
Ġshe ll
ĠRe act
ov al
Ġdescri bes
Ġscient ists
r ations
em it
Ġv irt
com plete
N amespace
ĠD ark
Ġsim ulation
Text ure
LO CK
ĠCon nect
Ġour selves
S M
ĠS ite
Ġrestrict ions
Ġsus pect
Ġne uro
Ġfil ed
Con nect
fl ag
ĠDe ath
ĠS ir
cle an
Ġradi us
Ġs ph
Ġbr idge
Ġ( +
Ġa st
ĠSt ore
Ġpl ate
{ %
ĠE mer
Ġe igen
ĠS on
Be an
check ed
Ġsu it
D avid
om atic
Ġab use
CT YPE
M ask
Ġtem p
c ases
Ġval ign
bl ank
Ġ? >
Ġprov ed
Ġscen ario
ĠSt atus
. [
ĠAdmin istration
AT ED
Ġcont emporary
on om
}} }
Sh ort
ĠE lement
ure au
Re al
Ġtr ace
p icture
Ġpres ents
- $
ĠÐ ¿
um my
TR UE
an while
au g
Ġfore ach
Ġload ed
ĠF all
Ī Ĵ
Ġl ift
ious ly
Ġm g
pro xy
B en
F LA
Ġfound ed
as sembly
Ġpubl ish
ct ors
Ġcruc ial
ĠInt eger
Ġdes ired
RE G
Ġcol le
e a
ĠB ol
Ġb uf
ĠT ra
ĠM ajor
og ram
enn is
B egin
Ġcol ors
Ġeduc ational
Ġthe ore
ĠEd ition
ĠM oon
Sum mary
st al
wild fly
F P
. ",
ext ension
Ġt ensor
ĠHar ry
ĠV ill
Ġext ensive
Ġa thlet
Ġdevelop ers
Ġg iant
Ġal gorithms
t emp
Ġexpand ed
ĠTh ose
ĠLO G
TR Y
Ġcircum stances
Ġs yn
k top
ĠH ig
ĠP ot
Ġp owers
aly tics
ar se
ĠK ong
Ġmoment um
Ġfact s
sw arm
ĠP ubl
Ġsur ve
ĠA SSERT
Ġh ate
t or
ĠL anguage
ĠR O
Ġpol ar
( @
Ġclass ification
ĠIr ish
ĠSt ream
art ers
Ġf asc
ĠB Y
ĠMag azine
ĠLear ning
ĠH ttp
index Of
(' /
Ġant icip
Ġreg istration
ff ff
r ink
Ġhol iday
ĠE ric
M ich
) |
E ven
P erson
i per
rit ical
ĠBrit ain
is odes
in ch
Ġtrend s
Ġprofession als
ĠStud ents
Ġ rows
Y ear
lo op
Ġhe ll
oc y
Ġcons c
ad r
Ġcomp ens
ĠC ulture
ĠCoun try
Ġocc asion
Î µ
ĠD am
reg on
Ġinvestig ate
ch anged
Ġex cess
S I
ĠB all
ĠVal id
sem ble
Ġguid ance
Ġac commod
pp ing
ap ol
Ġmod er
Ġm ouse
Ġdraw n
Ġh ole
Ġexplan ation
AR D
h ard
rou te
Ġas sembly
A ug
\ }$
s ome
Ġr ising
ĠPart ners
ĠC ro
Ġsu itable
M ac
ag a
n ed
Ġb are
re ens
Vert ex
Ġstrateg ic
test ing
Ġparticip ate
us form
En vironment
numer usform
Ch rist
Ġvers us
B ind
as ync
op her
ĠS A
ĠOffic er
" /
Ġn p
Ġreason able
Ġwrit ers
) }$
ire ment
å Ī
he ast
Ġcoun cil
Ġe ase
im ated
ile y
Ġend ing
R T
Ġs av
ul ator
Ġrefer ences
Gener ated
En umer
Ġanal ys
Ġr id
ĠD om
Ġ âĢĻ
Ġs ight
ew idth
py thon
Ġso le
Return s
Ġhas n
ĠĠĠĠĠĠĠĠĠĠĠĠĠĠĠĠ Ċ
ĠComm and
ĠE s
bur gh
$ }
ĠB rian
ĠMay be
Ġdr iven
ylvan ia
Ġmin imal
Ġexpl o
Ġbehavi our
Ġb its
Ġstr ike
ert y
raz y
Ġdemonstr ated
Ġant ib
Ġhand ling
d ig
ag ent
D id
Method s
olog ist
w orth
He alth
get Element
x html
Ġcap abilities
Ġb oot
i ac
ivers ary
Cl uster
Ðµ Ð½
el lect
p ull
Ġeng agement
an th
ĠP ublished
G C
! [
old s
ĠRec ord
yn omial
Ġemploy ment
Ġwrit es
c n
te en
Ġb ag
c atch
Ġdes ire
Ġph arm
Ġlegis lation
ph ia
Rev iew
s n
ĠDav is
Ġstre ets
operator name
Ġex posed
Ġent r
ĠColor ado
h us
ĠPl ace
ant ed
ĠJer sey
Ġnecess arily
viron ments
m aking
P layer
Ġst ood
ĠV ector
act ic
' ));
Ġtri als
Ġchar set
iz on
eg as
Ġoper ate
W ait
() ))
ID TH
Ġsn ap
ri ers
Ġ_ .
Ġre ward
Ġp apers
W allet
sh ire
Ġgrow n
enn y
y ard
r ad
â Ħ
og rap
Ġimpress ive
anc ell
A g
ik a
Ġsubsequ ent
o or
ri ble
ĠSe lect
Ġb ott
Ġext reme
App end
S ep
B L
Fr agment
Ġsup erv
Ġh its
ST ATE
Ġp it
ĠL ev
Ġinf lation
Ġinter act
Ġtime out
ann y
Ġar ts
el come
pat tern
ak i
Ġh ur
Ġshe l
Ġcon j
P res
h u
l an
Ġspec ify
Ġne ither
Bl ack
Ġd ire
k m
Ġlimit ations
Ġtot ally
ĠArray List
ĠN C
Ġr ig
ĠL ew
Ġg ro
D ictionary
it ro
z ip
ĠW as
Ġtrad ing
face book
Ġyoung er
adel phia
pl ot
ĠMin istry
Ġg aming
S ave
ĠS QL
ino is
ĠK ent
L anguage
h ref
ach er
I X
Ġv oc
ub ble
print ln
Ġreg ulations
w ill
Ġatmosph ere
Ġappro val
pro fit
Ġincred ible
Ġch apter
Ġbre aking
G ER
Ġbi as
v c
Ġpart ition
cri bed
ĠS uch
ĠTh anks
Ġas set
Ġtem por
Ä ±
Ġlist ener
Ġdisc rim
ĠAg ency
ĠT ool
ĠK at
Ġlett ers
Ġarrest ed
che str
Ġcompet itive
LE D
Ġem ission
ra ham
ĠStand ard
ĠA k
Ġprodu cer
cons in
Ġdist ingu
ĠV en
vol ume
Ġaim s
Ñģ ÑĤ
Ġse es
Ġread only
Ġst ations
ĠSup reme
ĠN AS
Ġgu ests
Ġpers ons
Pro gram
s ample
F i
Ġsurpr ising
clos ure
on na
Ġpropos al
Ġcr ash
Ġsurg ery
ĠG reg
Sk ip
- (
Ġb ind
L in
ĠHot el
ur ers
R PC
Ġdemonstr ate
Ġencour age
St and
Ġaf ternoon
Us ers
3 60
D elegate
ĠE ND
T F
Ġb ought
ĠI V
DO CTYPE
Ġjud ge
ĠS P
Ġw er
ĠRes ults
ĠS anta
Ġl augh
Ġvict ims
Ġi Phone
~ $
Ġb atch
ĠC G
ĠCor poration
Fr amework
ĠC ru
o en
Ã £
Ġch unk
Ġenjoy ed
pe at
ĠS C
A pr
Ġen um
tes y
Ġlang uages
C lear
s a
Ġd ust
ĠB al
Ġwor ry
Ġal gebra
ĠF A
Ġman ifest
Ġproced ures
ass andra
Ġvalid ation
Ġbe ar
time out
L D
Ġb on
RE D
ut ter
ay a
put ation
< \
Ġcy ber
ow a
EL D
con sole
ĠCE LL
A nt
Label s
ow ed
ĠK evin
check box
Ġhistor ic
Ġele ctions
S R
y ers
circ le
pol icy
B ased
Ġwe aring
ĠC lient
Ġcon version
ĠCh annel
ĠTr avel
Ġcomplex ity
Ġnull ptr
ĠStep hen
Ġsing er
ost ics
ams ung
sh ips
an imation
Ġs ed
Ġany where
pl an
ĠM ill
F ore
Ġattempt s
un ter
iffer ent
A E
we ek
IE W
ĠC hen
... </
p are
Ġres et
Ġval uable
H L
ty pen
Ġb es
in x
Ġh ide
Ġbo ys
ĠPl us
P air
nov ation
Ġc md
Ġpl astic
Ġdise ases
Ġf iction
Are a
Ġcopy right
Ġl ux
ĠC ook
ĠM atch
Ġpred iction
ar ia
res olve
Ġw ine
ĠH ouston
clus ions
u z
Ġprinc ipal
math scr
199 1
Ġconsum ption
Ġliqu id
ĠB at
down load
Ð° Ð½
Ġd ual
se ason
Ġbeliev es
all as
Ġfl ux
Ġadopt ed
Ġg ate
Ġn ob
amaz on
Ġ ];
Ġdim ensions
Ġadv is
r ating
Gener al
S G
ang ers
Ġmod es
Ġt ou
Ġaut hent
if ndef
ĠSt ock
ĠP ack
Ġex clusive
I gn
ĠBuild ing
ĠF ord
Ġappe al
evel oper
Ġpl ugin
Ġb ands
ĠM aterial
ME TH
" ],
EEEE FF
ĠT ag
/ _
Ġdog s
bo ost
Ġinv ent
UN D
U ES
at omic
Cont in
ĠTrans port
Ġsomew hat
Ġinform ed
th rough
Ġacc ord
ĠHol lywood
Ġpay ments
Ġaware ness
op ts
Ġl ists
Ġconstruct ed
Id s
p ir
C r
ĠTh er
um ps
ĠUn ivers
ĠH u
Ġanal og
Ġwork er
Ġdo se
ĠP od
j ack
St ar
Ġassum ed
ĠJ osh
tain ment
Ġent reprene
f x
Ġcover ing
a ire
Ġtit les
og ene
ĠSaf ety
Ġmed icine
S ql
Ġprogram ming
ĠL atin
Ġmag azine
typen ame
he im
Ġpull ed
Ġsurv ival
à¤ ¾
Ġcomput ed
clud es
Fl ag
Ġcl ock
ĠN a
Ġnarr ative
Ġguid elines
cl uster
Ġil legal
igen ous
' \
Ġd a
g oto
i y
Ġconcent ration
Ġb in
S che
G ood
Ġe lected
Q UE
ĠA venue
s ylvania
H ub
Ġarbitr ary
Ġt sd
ĠMod ern
Ġke eps
ĠEl izabeth
ĠAL IGN
c ers
ac cept
C oll
ĠFurther more
Ġm ail
ul se
Ġst ability
op ic
S equence
Ġdr ama
Ġhab it
Ġvalid ate
p air
not es
Ġhard ware
Ġgrant ed
Ġfr agment
ĠV iet
Ġredu cing
ar ry
ĠCl imate
ĠPr int
Inter val
ĠTor onto
ĠSt ill
ĠAir port
ĠV irtual
âĦ ¢
^ ^
ĠS IZE
{ "
own er
Ġup load
æ ľ
Ġaward ed
P UT
ĠWhe ther
lin ewidth
Ġnear by
Ġto m
un ning
Ġsc an
support ed
h ot
Ġr ural
e lect
ial s
atur ally
ĠY et
ĠFoot ball
M IN
Not ification
ur able
ĠE astern
Ġdisplay ed
******************************** ********************************
ĠE mp
Û Į
ä »
Ġhous es
Ġg od
int eg
Ġgl ob
SC R
opt ional
it led
i est
An imation
ĠSum mer
ĠD og
ĠW rite
Ġcomplet ion
act ivity
| |
Ġintrodu ction
ĠR on
ĠR os
Ġexpect ations
Ġsp atial
Ġsens itive
Ġder iv
Ġm ine
ĠC at
ul ous
Ġtrack ing
N ET
t ar
AN G
fe ed
ĠBr ad
E ffect
ĠH ence
12 7
e b
Ġearn ed
D iv
ĠO DI
Ġinst ant
Ġgener ic
SE LECT
Ġst ats
Ġ" ",
ep ing
ag en
Ġdis appe
19 60
Ġmin ister
v ard
A li
C ard
ĠE ll
ĉ ĠĠĠĠĠĠĠ
rupt ed
D im
lim its
Ġroom s
ĠM iller
side bar
Ġ" $
d iff
ĠC redit
por ter
Ġm d
M ill
ĠIn put
ĠJ am
Ġd ates
ĠD id
, âĢĻ
ĠUn it
S ort
Ġb ounds
Ġ@ "
em an
re lease
Ġw alls
ĠH ong
ob by
Ġperform ances
ĠN ever
vis ible
sc ss
ĠPr ice
MOD ULE
ĠN AV
Ġpay ing
Ġmain tenance
Ġatt ached
Ġmet rics
ch a
Sh ape
Ġs ynchron
ĠH o
Ġdo i
Ġgu est
Ġste el
ĠScot land
Ġsk ip
D b
ĠD A
Ġcons ent
s ingle
ĠR ose
in ar
ON G
op es
Ġfound er
B inding
Ġslow ly
run time
ĠP en
uck s
ond er
Sh ould
"" "
Ġeng age
el le
Ġcont rovers
Ġradi ation
NavBar Font
ĠMin nesota
g lyph
y g
re v
C reat
Ġreal ize
Ġa wards
om ent
Ġt ags
ĠA rizona
Ġop ens
Ġfore cast
Ġal ive
Jan uary
comp ile
Ġinput s
Ġag gress
as p
as ets
ear ing
Ġthrow n
Ġcommun ications
Ġhy brid
aps ed
av ailable
off s
Ġcheck ed
Ġw ed
ĠR h
Ġcomfort able
Ġc rypt
ĠP DF
Ġcol our
Ġres on
Ġs in
Ġh all
DE FAULT
r ays
____ ____
Ġm useum
u v
Ġexpert ise
ĠA gr
Ġfra ud
Ġcop ies
ĠSm all
ĠB a
Ġreli able
Pr ivate
C ur
Ġdes tr
Ġgr ade
Ġb ath
h ang
p aper
Ġpick ed
ur ities
Ġpark ing
End point
F ocus
st age
Ġmount ain
or i
Ġsub mitted
Ġre verse
er as
c us
ĠJ ordan
comm ons
hes is
Ġt mp
METH OD
Ġall Classes
M ouse
ĉ ĠĠĠĠ
Ġt icket
Ġtr ouble
Ġdis appoint
Ġpoint ed
Ġto k
iv ial
m akers
A x
Ġansw ers
con struct
Ġm arg
ĠB ell
ĠallClasses Link
re ll
âĢ ¯
ĠMount ain
br and
un ct
Ġtyp ed
The ta
Ġobserv e
Ġassert That
MO DE
ĠAut o
Ġreg ime
W ORD
ĠStud ent
t f
Ġcomb at
S cal
Ġhead s
Ġstreng then
Ġvot ing
ic ide
ĠX ML
N P
w ing
Ġpro min
form ed
Ġact ors
ĠRepublic ans
Ġput s
t ok
und efined
ĠO regon
Ġn ic
ĠP os
pl ier
Ġwe bsites
ĠHe art
Ġe cosystem
âĢ¦ ]
Ġpredict ed
ĠCom ments
Ġdecl ared
ĠR elease
Ġt ables
ess ed
m ouse
Ġst ead
ĠD ise
U K
Ġcommon ly
w ik
B Y
b us
oc key
ĠTr ail
Ġunder stood
(" /
h om
Ġtemper atures
clip se
VAL ID
n c
yd ney
ĠOption al
Ġacqu ired
\ ,\
tr m
Ġb old
ĠT al
ĠG row
subset eq
F act
on ce
ap is
ĠP ur
T oday
sim ple
U C
: `
ch art
ro g
ĠE ver
Ġto x
Ġcompos ition
ĠD ream
ĠG reek
Ġsche ma
Ġstrug gle
es ian
Ġe gg
out ube
ir k
Ġ> >>
ser ies
ĠL oad
ĠCh all
N ative
ĠAp ache
ĠArt icle
f actory
ĠSen ior
Ġbus y
Requ ired
Ġlegis l
Ġmeet ings
Ġp ipeline
ĠT reat
cl one
Ġs ick
Ġrot ation
i ology
ownt own
ack ing
Ġacc um
Ġre in
vent ions
Ġin ject
the w
In formation
Ġs outhern
eli hood
Ġst ages
Ġad s
el d
Ġrestaur ants
kw args
ĠM L
ys ical
p aren
ĠR oom
Ġabs ence
ic ator
tex trm
select or
Ġpe er
Ġ$\ {
Ġev il
N ormal
Ġreve al
ov en
an z
Ġdel ight
Ġacknow led
Ġmor ph
Ġ ig
# {
ĠMon th
SS L
as hes
Ġth in
Ġcontinu ing
Ġj oy
ĠL ic
ĠW ars
Ġman ip
st e
Ġp ic
ĠF O
ĠL LC
Ġde pos
A SE
Ġinstr uctions
im m
j u
DE BUG
Ġr u
M ove
T HE
}} _{
gener ate
ill iant
Ġ ^
AR CH
Ġassum ption
Ġsim ult
ĠBo olean
cal endar
ask a
L ear
Ġf ib
Fl ow
ver ter
Ġwhe el
ĠPr ince
cuss ion
Ġhor se
tr ace
Ġimprov ing
Ġrev olution
Ġf ails
Ġcelebr ate
im ents
Ġk ernel
Ġdecre ase
w arning
ĠT alk
Ġprof it
se x
s uch
Ġsit uations
Ġtrad ition
Ġstr ange
ĠGr ant
Ġapparent ly
Ġregard less
Ġthe orem
Ġreli ef
OR K
Ġvict im
Ġsy nd
j d
Ġdiv ided
Ġprofess or
S ample
d ays
Ġst yles
on ical
se q
AT CH
Ã ±
Ġreal ized
b atch
Ã£ o
ell ite
Ġprinc iples
Ġvis ited
Ġconsequ ences
Ġuncertain ty
A udio
L eg
Ġde als
k t
Ġcomp atible
Ġapp lying
ç Ķ
Ġvert ices
at rix
ul um
foot note
ĠSk y
Ġo cean
' ];
m c
sub figure
ĠMethod s
m ad
get Value
Ġmod ify
ĠNet flix
ĠW ord
H is
v o
Ġamount s
Ġrapid ly
Ġun iverse
G P
cre ated
Ġoptim ization
; ">
Ġn urs
Ġen forcement
olut e
Ġsign als
Ġobserv ation
ĠPr inc
ĠB udd
ï¼ Į
Ġins ights
198 9
Ġorgan ized
con structor
Oper ator
ou st
ĠDes cription
osp itals
Ġstrong er
Ġk illing
arg o
Ġobvious ly
Ġst one
inher it
hel per
B asic
F N
y y
Ġar my
Ġgr ab
Ġeval uated
log o
æ ĸ
Ġab und
Vol ume
Ġm igr
st ers
se par
Ġf ault
Ġrecogn ize
plet ion
b d
Ġrepresent ative
Ġy esterday
ip edia
Ġcoordin ates
ank a
r g
Ġr ating
Ġf estival
l at
Ġopt s
re le
t an
Ġpil ot
Ġdiscover y
B IT
Ġbo at
N Y
ĠJes us
Ġin equality
Ġfl uid
Ġlog ic
Ġessential ly
omet imes
Ġkind s
Ġcont est
Ġass ault
er os
ĠB and
S erv
ane ously
Ġair port
var iant
ĠT ree
Ð¾Ð ²
US ER
ĠF red
int end
Ġv ital
ĠL ay
ri ends
mem ory
Ġinj uries
ag ic
Ġreve als
Ġep isodes
Ġo x
Ġfl ash
Ġs le
W I
room s
Ġch at
Ġtransport ation
pl ays
Ġb acter
ri ev
lic ense
or igin
Ġsim ulations
Ġeng aged
Ġinteg ral
Ġacc used
gg reg
Ġlow est
ĠM E
Ġse asons
Ġiniti ative
Ġnumer ical
M aster
Ġfr anch
A ST
Ġfac ulty
ĠDes pite
Ġs ys
D ATA
Ġrelig ion
stitut ion
Ġcaus ing
P red
ra q
ĠS ets
ĠM icro
Ġwat ched
h l
Ġvari ation
nt ario
iv als
ĠWis consin
v als
trans ition
ĠĠĠĠĠĠĠĠĠĠĠĠĠĠĠĠ ĠĠĠĠĠĠĠĠĠĠĠĠĠĠ
Ï ĥ
Ġfun ny
ĠEx p
Ġdraw ing
Ġt aught
Ġâ Ĩ
A ust
read er
Ġse ats
Ġbu ying
v y
Ġnuc le
N ational
sl ice
Ġt aste
g ood
u er
Ġsent ence
em ony
Ġknow ing
Con stant
Ġload ing
ĠPenn sylvania
Ġsh ots
Ġhyp othes
Ġt ickets
ĠM iami
Ġb at
s ync
ĠR ow
Ñ ĩ
ĠL iter
set minus
W arning
Ġdepend encies
Cons umer
ex ec
be ing
ĠSt ation
valid ate
Ġs essions
Ġgen es
Ġtw enty
cover y
g over
he ets
Ġfif th
ĠL E
d uration
Ġloss es
ĠEnvironment al
Lim it
ĠSim ilar
Ġequ ity
S ch
ierarch y
Ġtherm al
Ġb id
ĠEv ents
s ocket
Ġcalcul ate
Ġport folio
Ġ( [
ox y
Ġpro ps
Ġincor por
Ġhor ror
l ot
UT H
" },
ol ly
Ġfin ance
anche ster
ĠC ell
ess ional
Ġprefer red
H ave
Ġinter ior
Ġbe ach
Ġrespect ive
ct ic
ĠAdd ress
Ġcon clusion
ĠB C
and o
âĢ¦ .
Ġelig ible
ĠIll inois
Ġleg acy
Ġprov ision
ĠMem bers
ĠSm art
Ġins ight
Ġir on
Ġhop es
lik ely
Ġmechan isms
Ġdec or
ĠNAV BAR
O C
Ġfr uit
Ġf irms
ic i
Ġign ored
Ġc atalog
R aw
T X
Ġprodu cing
f c
au x
Ġaff ili
eg an
ĠPr ivate
Ġsil ver
Ġd uty
) [
Ġv ess
ĠPro p
Input Stream
Ġkn ock
ĠR ail
ĠR oll
Ġman aging
on omy
h our
Ġrequire ment
ĠWork ing
Ġcorrespond s
Ġf inger
Ġent hus
S creen
Ġgr ass
Ġrg ba
am ps
/ "
Ġpol ynomial
Ġarr ang
ĠNiger ia
Ġprinc iple
b et
ĠN ation
enn es
gh an
Ġs oc
1 12
OR TED
r b
is ely
p res
Ġsk ill
ĠPhil adelphia
B M
ex it
Ġindic ating
: [
Ġ _{
ro ck
Ù Ī
ĠTh ings
ĠSar ah
im b
re du
O wn
con v
Ġex ports
Ġmax im
enn a
u ating
C ity
Comp iler
end ers
Ġper missions
Ġche ap
att ice
NS String
ĠL ady
ĠS elf
Ġve get
Ġre str
grad le
ĠFore st
Ġvari ant
å ®
Final ly
ffic ients
ĠGover nor
s u
pro gram
ĠD u
h ave
ĠS aint
Ġfac ed
S N
ĠEconom ics
" ].
Ġfarm ers
Ġpop ulations
Ġserious ly
i ors
B D
Ġvot es
Di agn
Ġcorrect ly
sp ir
y cle
Ġcapt ured
mer ge
Ġen ables
Ġint ensity
ick en
Ġc ursor
Ġgen etic
Ġin clusion
ĠM I
Ġlik es
Ġa ver
ĠO k
Ġbro ke
Ġperfect ly
ari os
Ġfound ation
w d
Ġprov en
R elease
Ġbl ow
Ġg arden
book s
ĠAb stract
â Ĩ
Ġpass es
Ġcon n
ar ma
Ġclos ing
Ġout er
ĠHarr is
V P
Ġemer ging
S am
R ob
over ty
L ight
ĠTr aining
Valid ation
Ġ$ |
E q
L ower
if ting
Ġen vironments
ac ent
'] ['
Object s
us cript
ĠS ri
Ġcom edy
ĠIndust ry
Ġover l
Ġfair ly
Un known
Ï ģ
object s
ĠAnd erson
ĠPerson al
Ġh urt
ellect ual
Ġed it
Ġtem porary
Ġop position
cer ning
Ġsatisf ies
O ST
tr im
ch ant
se a
Ġb le
Ġv ice
Ġhelp ful
un ches
Ġadvent ure
Ġun expected
AR N
ĠH ay
Ġinv olves
alax ies
Ġab andon
ĠS ant
L ib
Ġnor thern
ĠL ind
Ġsubs cription
ĠG iven
P ublished
uff ers
Ġsudden ly
Sh are
ĠSer ver
T ex
ic ode
qu ote
ĠFin ance
Ġ\ (
Ġcut ting
ĠL ag
ol id
ĠT ok
ĠSt adium
Ġfall ing
an alysis
d epend
ĠD B
Ġmod ules
ĠReg ion
ĠS M
Ġmonth ly
ac er
w hat
Ġh ist
' }
C M
T ra
ĠS ound
ĠA G
ĠO bserv
ec ess
ver b
ĠMarket ing
or ne
p ot
_ );
aw are
Ġy ellow
ĠTr ade
aud i
Ġemploy ed
Ġsurpr ised
s is
ĠP rom
z o
I AL
et ies
over view
getElement ById
Ġrep ly
i ations
Ġfall s
Ġgovern ments
ĠT en
Ġmark s
ĠV ice
ĠAr m
S pr
Rem ote
Ġindu ced
Ġper mit
Ġcl ip
end ment
å Ĳ
Det ail
ãĢ Ĥ
Ġd ies
Ġc odes
Ex ample
Ġl ights
work s
H er
Ġexhib ition
Ġdec ay
ĠO pt
Ġvacc ines
n amed
ĠP red
Ġw estern
qu ality
Ġp ub
us et
link ed
ĠR at
* {
Ġopt ical
ĠP ed
Ġrepe at
ĠH D
Th row
Ġemph as
in os
Ġde cent
IO Exception
U AL
Ġt iny
ĠColumb ia
sk y
Dr iver
ou red
Ġexplicit ly
=\ "
Ġap plies
ĠSc ient
Ġs ync
d on
Event Listener
Us age
ac o
ĠAust in
ind ed
Ġ' \
Ġsol o
ĠAnt on
Ġrecommend ations
ĠCom ment
m n
ĠO ak
Ġto ler
Ġw arr
} %
Ġregular ly
ĠG ro
ĠAnn ual
Pre v
Ġ( âĢľ
Ġb asketball
N amed
A K
s un
198 8
Ġstat istical
Ġident ifier
Ġcheck s
op ens
}^{ -
S outh
Ġing red
Nav igation
h ook
az a
Ġwalk ed
Ġtarget ed
r ices
ation Token
is Empty
Ġcent ers
ish ment
Ġbas ically
ink ing
Ġinter vention
10 2
14 0
dr iver
Ġimm un
Ġpre ced
dest roy
Ġpay load
Argument Exception
int ell
Ġsens or
b g
Ġim pl
ĠGold en
Up dated
Ġre ly
Ġshop ping
Ġsp okes
() ),
as ma
Ġre b
STR ING
P ower
ĠM obile
n n
b c
ĠHel p
ĠEnter tainment
M arch
ĠSim ple
if i
ug g
Ġresult ed
Ġang ular
Ġf mt
List en
ĠS ix
Ġv ibr
ĠAg reement
Ġweek ly
Con structor
Ġjoin ing
Ġshould n
Ġatt ended
re tt
ĠPar liament
method s
cent ury
Ġwindow s
Ġregul atory
Ġtr ick
iz ers
P ers
Ġs oci
Ġsubstant ial
ĠAv ailable
pos ing
Ġperman ent
ĠO cean
Ġ" ";
Ġj s
Ġselect or
Ġcon crete
Ġwith draw
Ġp ace
ĠM oh
Ġdisc ipl
not ations
Ġmembers hip
Ġr um
Ġapprox imation
Ġw rap
con vert
Ġconstr aint
al ert
fl at
ac on
Y Y
> )
Ġill ness
Ġel if
Ġcomm ands
Ġt all
Ġparticip ation
> \
D an
% "
Rel ated
Ġrele ases
b asic
C ent
Ġt issue
ĠM ock
Ġre form
g ems
pl oad
ut ion
b inding
ĠR aj
The me
ĠFr ont
ĠS ab
Ġfr ust
display Name
Ġweap on
is set
th rift
ĠL at
ID E
Ġcollect ive
ĠAff airs
ĠC lear
ĠDr ive
Set ting
ĠAd vent
Ġdiagn osis
W ord
ul i
ĠO K
S yntax
b as
Ġb att
Ġfew er
C red
ĠN ature
ĠG allery
ĠM ars
C ross
l u
Ġdepend ent
Ġnot iced
roll ing
ym pt
is ations
ĠS quare
Ġro ots
Ġfriend ly
Ġsl ot
M c
ig ue
ĠI R
ĠM s
Ġgrad uate
S ite
Ġc ertificate
Ġconsider ation
Ġr ational
Ġout standing
="../../../../../../ ../
il ib
T Y
sh al
Ġguarant ee
oid s
Ġ} }
B et
Ġask s
Serial izer
N orth
Ġh int
Ġme at
å ħ
Ġacqu isition
Ġh at
us r
Com plete
10 5
Ġdis miss
ĠB BC
; "
ĠK it
m essages
Ġowners hip
is l
9 00
Ġbound ed
_{ (
text sc
nt il
at ile
ĠM rs
ĠH om
or er
Un iversity
xy gen
ĠPhil ipp
ud a
Ġannounce ment
F older
ter y
ĠH E
sub mit
ĠM ust
Ġd inner
Ġn od
Ġag es
( --
Ġf urn
IN ST
Ġyield s
ĠSh op
Ġs ought
Ġimprov ements
Ġlist ing
Ġn an
t ies
Ġorgan ic
anc hes
ur ations
ĠOx ford
Ġatt orney
H C
asc ular
ĠJ ob
M AP
intell ij
ifest yle
Po jo
Ġun f
Ġf old
em ia
ĠT ony
Ġge ometry
big g
Ġsing ular
Ġdeep ly
resp ons
Ġperson nel
ĠW inter
er on
Pl atform
ĠJ ay
Ġun us
Ġinj ured
ĠJ ason
rypt ed
_ +
DO M
ish op
Ġinstall ation
Ġpack ages
Ġre pository
ĠIN TO
ĠD ouble
set up
g if
Ġthink s
et al
Ġbre ast
An notation
Ġ\ "
sh a
Render er
H tml
Ġdeal ing
ĠDef ense
Ġexpl os
Ġloc ally
Ġpl ain
ĠL java
Ġlog ging
ub er
Ġbeh alf
Ġt ournament
trans action
ass ign
l ive
ĠSe attle
Ġro se
st o
p ages
Or iginal
Ġactiv ation
ha ust
L R
Ġtok ens
t re
Ġappoint ed
UM M
Ġwer en
AR S
ĠV egas
ĠYear s
ĠS av
ORD ER
f g
E val
he alth
b ow
w hel
Ġelect ro
C ast
Ġs b
ĠR ound
l ined
op ol
Ġcom plicated
ĠPl atform
ĠPat rick
Ġp ushed
ĠF arm
Ġbas eline
198 7
Ġdestroy ed
ĠRel ations
opl us
ĠLew is
Ġconstant ly
dat abase
IC ATION
Ġar c
Ġcomput ing
Ġwat ers
o ose
Ġany way
Ġinv ited
Ġfol ks
ge o
col on
Ġhost ed
w as
Ġsold iers
Ed ge
t ail
Con sole
Ġcut s
place ment
Execut ion
ĠIl legal
d ers
Ġn a
Ġch ose
ĠC art
un s
it ure
ĠN ative
s ig
j Query
Se pt
Ġmer ge
Ġund ert
out ing
Ġt ips
ach uset
Ġcolle agues
Map per
Ġsymmet ry
> "
ord on
Ġreplace ment
z y
ĠT og
Id entity
Form s
Ġhigh lights
achuset ts
high light
Ġhost s
ĠI raq
Ġchild hood
Ġnav bar
for all
j b
Ġmy th
Ġb ug
ext end
/ ">
St atic
Ġstret ch
inem a
r ank
dis able
W IN
Ġ' ';
ĠCons ider
Ġ' ./
Ġsequ ences
pl er
ĠRem ove
ĠAll en
RA Y
ĠEd ward
Ġvis iting
ĠAh med
Ġun s
Ġbe am
n ative
Ġtax es
Ġprec ision
Ins ert
Ġc rypto
En v
Ġ_ ,
V A
ele m
Ġb undle
Ġmagn itude
C ONT
riter ia
ĠWAR RAN
." ""
ĠC T
sh are
Ġn am
W H
bul let
D rop
Ġ" %
Ġdesign s
load er
198 6
ĠEx ample
Ġen emy
Ġbl ank
ĠC ab
ir ty
Ġrun time
ĠH ur
Ġsatisf y
11 1
re act
ĠAd vis
ex pression
wh o
ĠE ag
t ouch
er d
Ġcare fully
Ġimpact s
const ant
ack ed
Ġexecut ed
ĠM arg
es tr
Ġindust ries
C ALL
ĠWh ich
Ġshe et
E st
Ġcontribut ed
I ES
Ġcarry ing
Ġt weet
Ġp up
Ġcon ventional
Ġterm inal
ache l
Ġreach ing
comp are
ĠLim ited
Ġcons ervation
L ibrary
an ing
Str ategy
Mich ael
ĠD allas
": "
ĠO s
B al
B ecause
con str
ĠDi ego
ĉ čĊ
con nected
ak h
ĠT am
her lands
ĠD oc
Ġob lig
Ġbr illiant
ĠPer formance
Ġf lying
Ġread s
p ad
Test Case
Ġt ur
ĠO C
exp and
Ġp seud
nav igation
ĠP sych
ĠV ari
l as
Ġgrad ient
ĠArch itect
ĠS a
ĠCh apter
ĉĉĉĉ ĉĉĉĉĉĉ
comm it
N R
Process or
ĠR ad
are st
requ ency
Ġdecl ine
aur a
Ġl y
Ġsh arp
ĠÐ ²
ĠC C
ĠReview s
Ġdistribut ions
av is
ĠR ome
< <
ĠK elly
INS ERT
C LASS
l ower
ĠR oss
^{ -\
p b
for Each
i op
Â ·
ĠAm ong
ab etes
Ġheav ily
k et
m ay
Ġ( $\
Ġsub set
Ġpr a
S em
ĠL ie
Ġperiod s
ĠBit coin
ĠE P
ater al
'] );
ĠD un
assert True
ĠU l
ĠB urn
ĠL evel
ĠW ales
Ġend point
var iable
Ġm ice
ĠD er
LO C
roph y
c ounter
Ġf ired
Ġup grade
ĠSchool s
Ġsc hem
Ġrece iver
Run ner
friend ly
/ {
Ġequ ally
sc ore
U V
ĠK enn
at ibility
Ġsp r
th ur
sp acing
ĠS n
ĠY O
Res olver
vert ical
C apt
Apr il
w iki
Cond ition
ĠProte ction
Ġle ct
_ *
Ġelectric ity
Ġp ref
Ġgl ad
Ġthous and
less ly
direct ory
ĠS ong
ĠF L
Ġprem ium
Ð ¿
Ġscal ar
Ġaccord ance
J une
ĠA mb
tr l
Ġt ip
ĠG ard
Ġpurch ased
ab ling
ang el
Ġsepar ated
Ġpost er
Ġconcept s
Ġbul k
Ġut ility
Ġoff ices
lic enses
Ġav ailability
Ġlo an
Ġe ating
utr ition
ĠAlex ander
T ile
ri um
Ġdiscuss ions
scal a
Ġreg ulation
Ġg auge
Ġg alaxies
Not Found
B inary
ĠJ ean
Ġam id
Ġofficial ly
= [
Ġal leg
3 50
Ġmin i
ĠInt eg
G ui
h al
Ġch rom
F amily
B atch
spe ed
Ġmach ines
SCR IPT
Ġ' .
Ġme ets
Seg ment
Ġvulner able
Ġmet ab
Ġrout es
Ġop acity
Ġla id
Null able
Ġ| \
Ġnorm ally
ĠT err
pon ential
or able
Add r
P ut
ograp her
r adio
O k
ĠD im
u et
Ġinterpret ation
Ġsuff ered
ĠB ased
ĠReg ional
Ġstruct ural
ĠAnth ony
ĠR s
Ġmod al
F urther
ĠDe ep
Ġde com
O ld
u j
Ġlik ed
tr i
Ġdou b
S W
ĠB ry
G reen
D en
ĠH al
F UN
in formation
ĠL as
o a
\ }
Log in
Ġsw im
et ition
Ġr ub
Ġs oph
ens ing
ĠH ost
ag g
Ġf ro
ĠAgr icult
ĠI owa
Ġig et
Ġâ Ĥ¬
ĠN atural
Ser ies
Ġt ank
ĠPh D
ĠT arget
v ia
col lect
Ġse ar
xi ety
Ġpro hib
ĠP arent
_{ {\
Ø§ Ø
l adesh
H D
Ġfant astic
Ġcoordin ate
Ġm ath
Ġre ar
c ountry
ĠN avy
Ġn aturally
P ubl
ĠEar ly
P ad
ĠT ry
ĠN ations
Ġsh adow
Ġdo ors
Ġmolec ular
od ge
A bs
sub ject
fer red
grad ient
ĠAuthor ity
Ġcou pling
ĠPy thon
ren ce
Ġro of
ch arge
up id
Ġoff ensive
ĠW IDTH
ĠJ ane
o i
Ġgener ator
Ġrough ly
Ġch ronic
Ġref uge
(" #
Ġre act
ĠBer lin
C enter
th ere
Ġne ural
ĠIn v
198 4
Ġ$ [
ĠP aper
b est
ĠS ex
ĠP it
ur is
Ġfore ver
Ġb ull
ĠEx press
Ġsuff ering
Ġg ained
urren ce
Ġappreci ate
oen ix
Ġwhen ever
> ;
p ur
B order
Ġrob ot
AS H
Ġpriv ile
le tt
19 50
Ġinterview s
f etch
Ġp sy
res ize
10 4
s r
: @"
Ġsatisf ied
r ons
re po
Ġb oss
rop ol
ĠS end
ĠDown load
F ollow
to Be
EN TRY
Ġb ike
Ġpro secut
ĠL es
ĠAtl antic
Ġref ers
ĠIs lands
os ity
ri ent
ag an
Ġcook ie
other apy
DE F
s heet
Ġcirc uit
Ġb ars
Ġspect ral
Ġquant ity
PH P
win ning
Ġaim ed
ä ½
ĠK y
}} (\
Ġafford able
ĠRefer ence
ĠD ub
re ements
Ġspirit ual
AC H
Ġident ification
ĠT ai
Ġprodu ces
Ġind ices
ro it
iv a
ist a
ĠWith out
Ġcomput ation
ĠSil ver
Ġprocess ed
b ec
Ġk ne
Ġg enu
Ġmem ories
ĠSim on
iv ities
Ġident ical
ĠTh read
w t
Ġk il
Ġtr ies
ĠAdd itionally
ape ut
Ġneut ral
Ġl iv
ex tra
Ġt one
ĠĠĠĠĠĠĠĠĠĠĠĠĠĠĠĠĠĠĠĠĠĠĠĠĠĠĠĠĠĠĠĠ ĠĠĠĠĠĠĠĠĠĠĠĠĠĠĠ
ick ing
. -
Ġsomew here
Ġact ress
Ġtext ure
m aker
ol s
cy cle
Ġkit chen
ĠO ntario
Ġcoe fficients
er k
ĠJac ob
Ġad mitted
n ob
aud io
Ġphys ics
Ġp atch
ĠFore ign
Ġimm une
Ġdem ands
Ġbase ball
ant e
Ġcur ves
Valid ator
External Task
Ġfeel ings
c ity
ĠMov ie
part s
Ġhead ing
Ġbreak s
Ġliter ally
ĠH old
Ġde eper
arg uments
b id
Ġent ities
or se
f ake
ĠĠĠĠĠĠĠĠĠĠĠĠĠĠĠĠĠĠĠĠĠĠĠĠĠĠĠĠĠĠĠĠ Ġ
Ġconvert ed
Mon th
ul pt
Ġfl ights
ĠH art
st ud
ex per
Ġa uth
Ġenh anced
and al
HE AD
Ġterr itory
Ġsam pling
IL D
A Y
FI ELD
\ _
Ġ[ âĢ¦]
ĠSt one
ey ond
And roid
b ors
Over view
, ...
Ġsc oring
f mt
el astic
ĠM it
Ġanal yst
Ġmil k
A X
Ġs ql
] ))
ĠF un
ExternalTask Pojo
Ġmus cle
Sp an
ĠG ree
Ġsurv ive
Ġoff ense
om as
Ġstr ip
Ġsum mar
p rom
Ġcoll apse
Ġfunction ality
ĠB attle
Ġch ampionship
Ġc urrency
ort s
ph ones
re nt
F uture
Ġtalk ed
unicip al
ĠSt ories
M aterial
ä º
Ġg ay
ĠSt op
ĠInst itut
OP T
ĠB io
ĠL ang
Ġint ention
po inter
oper ative
hedul er
Ġperson ally
S pecial
Ġim per
Ġmed ian
ĠCont ext
Ġb ass
ĠPh arm
D IS
Ġlaw yer
Ġas ide
ĠDE FAULT
ĠC a
agon al
Ġs ocket
Ġim plied
stand ard
pt ic
Ġcoun sel
R ate
Ch ain
ĠAf ghan
Ġsustain ability
re pository
itar ian
Ex pl
cont ents
Ġevery where
Ġfocus es
ĠSe ver
ĠAtt orney
ath y
Ġcon clude
Ġconf ident
h ou
Ġf older
ĠK E
Ġdes cript
T ri
; |
Ġm eth
ĠG ab
Ġpan els
t ures
is cal
ĠH ope
Ġde leted
Ġent ering
Ġ{ },
w arn
Ġcon cerning
ĠGu id
Ġtheore tical
Ġrep orter
Ġunivers al
J uly
Err ors
Ġp ending
Ġarg ue
com b
ĠCl inton
Ġconsc ious
Ġcons ervative
GB T
Ġb one
Ġ' %
ĠClin ical
Ġsp ark
oll ary
) _
ĠM ess
Ġinvest ments
Ġpredict ions
OL D
ĠIm port
ĠGr ad
or ous
Ġhop ing
d ash
Ġretr iev
Ġdisc ount
ag ma
Ġsign ing
Th rough
Ġwe ights
Ġroad s
arr ing
Ġinvestig ated
av it
ĠPro position
enn ifer
Ġisol ated
w alk
C md
ess ment
M essages
ush ing
ĠLeg al
Ġcomp lement
Th anks
Ġequ ality
HO ME
Ġcompos ed
Ġ ">
Ġm igration
D ependency
t p
Ġpublic ly
ĠPal est
ĠTh ough
Ġbird s
Ġem it
i Ã³n
n ie
Ġ" .
ĠB ab
Ġan chor
ĠFe ature
ĠR ab
Sh ared
ĠB reak
d am
UR N
ĠAtl anta
ogn itive
Ġin ches
l ab
ĠTh ank
N UM
Res earch
ast y
Ġvot ed
on ia
ĠIn f
m obile
Cont ains
Ġg ent
P aul
ĠT er
ĠĠĠĠĠĠĠĠ ĠĠĊ
t ensor
ing ers
Ġch ampion
AS K
ĠMem orial
Ġcal endar
Ġcount s
ĠR oy
Pro f
ber ry
pol y
G roups
FF ER
B ER
Ġ$ _
V ICE
Ex port
iv idual
In ternational
Ġwe ird
Trans port
Ġop posed
Ï Ģ
ĠE ss
Ġdis order
ener gy
Ġ' ',
the less
function s
Ġo vers
ge on
Ġro y
198 5
Ġcheck ing
ĠOut put
Å ¡
Ġman ual
Ġn ations
Ġv ectors
ig e
Ġscreen ing
ĠD ave
Ġbe er
p id
igh th
Ġdo ctors
oun ced
ce iver
ĠVictor ia
Ġal pha
We ight
Ġaddress ed
R andom
W est
w r
ĠK ansas
Ġp ump
CON FIG
p kg
ĠMar vel
ĠP a
ĠStud io
V irtual
ab ama
Ġfranch ise
Ġw ound
Ġh ospitals
Ġ Ñģ
V C
Ġtra ject
D ATE
ĠSub s
m k
Ġdef ic
de ep
ĠC lick
ĠC orn
) ",
B ad
Des pite
dep recated
ĠâĨ Ĵ
Ġpro files
ĠClass es
rem ote
Ġpo etry
ĠC NN
ĠM anchester
Ġnewsp aper
Ġ ----------------------------------------------------------------
ĠNe uro
ĠPl ant
B el
Ġlux ury
ĠP romise
ĠH op
Ġexpress ions
sc ill
ĠBow l
Ġr aces
Ġs alt
AT OR
Tim er
iv o
p in
head ing
sequ ence
ĠPlan ning
ĠN BA
Ġc ached
ĠI C
Ġqual ified
Ġsup plied
Ġcr u
Ġdat asets
Ð ·
Ġl ung
il st
UR CE
equ ate
Ġdis able
h alf
r ar
com pute
R ich
' _
W he
Ġc razy
B ro
s ch
ph ant
Ġassist ant
ens itive
T w
RE SS
G reat
Enc oding
Ġte a
Ġgover ning
Ġman agers
Ġpack et
ĠG il
act ual
Ġp ri
Ġspe aker
ĠVAL UES
Aug ust
Ġ ion
ĠLe on
Ġcontract s
b p
ĠV in
ĠS ustain
ĠL ess
, $
Ġdef ensive
Ġoper ational
Ġh am
ace ut
Ġsac r
Am ount
ul p
), \
IN K
B eh
Ġexam ine
Ġb omb
Ġinstitut ion
ĠCommun ications
in ction
Ġclust ers
Ġarr ive
load ing
. ]
Ġfant asy
ĠS ales
rem arks
Ġw et
ennes see
P al
ous ing
int eger
H older
Ġstr uck
Ġr acing
Ġdire ctions
S en
ĠBr idge
! )
bl ob
ĠH um
ĠCl ark
Ġeng aging
oc hem
M F
ĠS ydney
ĠB uff
t ik
Stand ard
Ġvis its
Ġl oud
cf g
Ġmor al
Th us
ĠL anka
ĠAct ive
XX XX
ĠPort ug
ĠC reek
ĠD elete
Ġanalys es
C HECK
Pl ace
refer red
ord inary
ĠG arden
ĠConfig uration
w edge
Ġco inc
STAT US
ĠMass achusetts
est ions
ig ious
C ounter
> ()
ĠF ix
sub subsection
Ġf uck
g z
R NA
Ob server
d agger
ĠNet herlands
Ac cept
Ġprote ins
m ont
_ )
be at
66 66
rt l
olog ists
Ġt d
il ty
Ġm es
Enc oded
Ġmaint ained
am er
eral d
Ġp in
ay ed
C ategories
Av ailable
B usiness
ib l
Ġpromin ent
Ġw ake
form ing
Ġim aging
link s
ĠInd ones
Ġdream s
enc ode
ond s
Ġinsp iration
Ġt ied
Ġcalc ulation
;| &
ok er
ort ed
Ġres olved
Ġover whel
Ġam plit
ĠInd eed
j et
Ġnot ification
Th ank
ĠSh are
ĠLe ave
Fr ames
Ġover flow
ĠEx change
M AN
ĠCons ult
ĠMar ia
gener al
el and
plet ed
Th ree
ic ular
d irection
F n
Cont ents
Ġt ill
Dep th
ĠF ant
Ġprepar ation
ĠAl liance
ĠAp pro
empl ates
â ĪĴ
em bed
ex amples
irl ines
valid ation
Fail ure
es c
re lation
Ġl oves
Ad v
ache lor
Ġconven ient
ĠSp ot
j ax
ĠMo ore
ĠJ son
ĠYou th
le e
Ġqu eries
C ursor
Ġcon front
Ġsh ips
t l
A SSERT
roll ers
s quare
ĉ ĠĠ
ĠS in
Ġass ignment
Ġad mit
Ġmin ing
Ġgen re
Ġrep air
R ows
Met rics
in cess
Ġtyped ef
à ¦
T ouch
pro duction
0000 00
Ġre putation
ĠRes ult
Ġdepend ence
Ġany more
em ies
Ġart ificial
Ġleg it
bar a
ĠEmp ire
im ental
Ġreject ed
Ġle af
Ġprec isely
rel ative
Ġthreat s
Ġwed ding
Ġdef ines
ab c
te ch
LA Y
c in
ri k
ĠH an
d ark
Ġc up
Ġt act
Ġincred ibly
f b
Ġgover nor
mark s
P N
Ġ< -
m ates
clud ing
im p
ĠM C
writ ten
Ġ\ ;
Ġdes per
Ġre plic
ĠL iving
Ġocc as
as ant
m ount
h ill
Ġiniti atives
Oct ober
Ġfocus ing
\ /
An alysis
paren cy
11 5
_{ -
? )
ĠVol ume
ĠSing h
Ġthem es
Ġrout ine
Ġth orough
a os
Sign ature
Ġdrink ing
Sup er
r ame
ta h
Ġun likely
.* ;
UMM ARY
Ġres cue
Ex per
Ġnot ion
Ġpro jection
æ ķ
es la
Ġbound aries
De cember
ilib rium
ĠPro du
ĠKore an
et he
Wh ite
Ġdialog ue
d k
elf are
od a
Ġg ang
ĠE D
t i
Do es
m g
Ġcom ic
ĠBang ladesh
ke e
Ġi OS
ĠPolit ics
r ules
Ġsome how
ĠC ow
Ġembed ded
Ã© s
ĠC SS
ĠB uy
ĠB ull
ĠInst all
Ġsens itivity
et ics
ĠWalk er
ĠBuild er
10 24
se lection
ĠG h
Ġ{ %
agn etic
Ġd il
DE X
Error f
s pl
Ġag enda
ĠUkr ain
M ust
Ġencour aged
cl ine
Ġg ear
Ġman uscript
Ġpen alty
ĠB u
Ġmat ched
S plit
aceut ical
10 3
Ġliter al
Ġsuper ior
ĠB ush
Ġp ixel
ĠC over
Ġst uck
ĠF ive
Ġmov ements
UB LIC
Ġl ip
Ġs id
alt Color
Ġphil osophy
LO W
F OR
ĠLa ure
get Id
( .
ĠM ind
Ġord inary
Ġb io
ph y
AV E
C oin
Ġem power
Ġthe ories
uplic ate
Ġl aser
pm atrix
back s
ĠN othing
U G
cont act
Ġdel ta
dr iven
ph rase
Perm ission
Ġsimult aneously
ĠOrgan ization
ĠDel hi
eder ation
Ġautom atic
è ¯
reg ular
i ere
ĠO P
Ġpresident ial
bour ne
ĠDo ctor
ĠTur key
Ġanalyz ed
Sept ember
on i
Ġ$ $
Ġdemocr acy
c assandra
ĠS uccess
col n
Ġdesign er
B ottom
ĠD I
Ġvacc ination
Ġp ixels
ĠS port
Ġless ons
ĠC I
ip h
min ute
ĠD or
Ġcl ar
Ġqu ote
Tim estamp
og y
ill ance
em ed
Ġinher it
B ounds
ĠApp end
Ġarr ival
Ġden otes
che ll
ĠN orm
ĠB ody
Ġexpl oration
ĠIn novation
Ġor ig
can vas
omorph ism
ĠUS D
ĠS witch
P ack
Ġmass es
Ġin finite
id ays
**** **
Be en
Ġdevelop er
ĠTerm s
ul us
Ġes cap
ĠTh ird
Ġfr ames
Ġsc ales
S u
Ġelse where
grad uate
ĠN az
ch unk
Ġres id
Ġanaly ze
ĠA udio
G iven
Ġg est
ar o
Ġra ising
Ġfab ric
> '
im itive
L icense
rel ations
t em
Ġout door
Ġco ins
Draw ing
Array List
Ġrece ives
des ign
S an
w ind
Ġsynd rome
ele ments
S ame
Ex pected
ĠK han
Ġpar a
Ġdocument ary
ĠAnd re
Ġap artment
ĠViet nam
Ġgot o
ĠY an
Ġt rem
Ġcompet e
un es
Ġa fr
is ons
glyph icon
ĠR isk
Ġtum or
CO MM
if old
Ġover view
Dep recated
Ġsm ile
Ġmat rices
og a
L IST
Ġorient ation
EN V
Ġsup plies
Ġrest ore
Ġag ed
al ias
Ġmeaning ful
AT TR
Nov ember
ĠG alaxy
Ġstudy ing
ĠQu ery
om ed
Ġenter prise
Ġcer emony
ather ine
ĠW i
Ġw ider
Ġple ased
ig s
ĠKe ep
Ġf etch
Comp at
Ġrestrict ed
Option al
view port
Point s
ĠW orth
Arg uments
10 8
Ġb reed
ĠB an
ĠJon athan
b n
ĠR ace
Ġmer ely
ĠB ureau
Ġwin ners
re ach
Ġview ed
Y S
L ife
Int roduction
secut ive
Ġmyst ery
Ġm oon
ĠRead ing
ĠD J
ĠP as
Ass oci
ate ful
ph ase
f ish
oc om
Ġeffect iveness
LE MENT
st ock
Ġstart up
Ġunivers ities
Ġrespond ed
198 3
ordin ate
I ss
Ġv ocal
iz ard
ĠA LL
ĠFor um
ĠG un
erv ing
Ġsup plement
ĠVis it
ĠF a
Ġserv ers
ĠSing le
ing ham
R a
ĠM as
Ġcalcul ations
All oc
ĠLink ed
ĠHaw ai
ors es
Ġst ellar
Ġens uring
ĠElect ric
att ed
( ()
pe ction
lib s
Ġscen arios
F eed
ĠMult i
Ġst roke
B N
Ġb unch
pl ane
Ġexpand ing
Ù Ĭ
Ġse vent
S elf
Ġpain ting
ĠN ich
UN T
Ġcontr ad
ĠM organ
Un ited
ĠC P
u um
ap ing
ub a
Ġperson ality
anch or
el son
in th
Ġtom orrow
ars ing
itor ies
ug gest
T om
Ġcol lections
Ġsatisf ying
Don ald
( ['
198 2
v i
ff f
olv ement
ĠG O
ist ically
upload s
br ane
Ġconnect ing
Ġicon ic
top ic
Ġsymbol s
enc er
Ġpro pose
apol is
Ġintegr ity
ĠL eft
ĠS audi
Con vert
H A
Ġun lock
Ġhe ter
Ġb ucket
Z one
ĠHol y
P resent
Ġs ectors
Ġpush ing
A z
patch er
ĠS W
Ġpass engers
cre ens
Ġex haust
ang a
prov ed
qu arters
fin ity
A ggreg
TI ES
Ġnam ely
Ġgener ating
ĠCon stant
A lex
ĠB arn
ĠN ob
c ross
Ġl ands
LIC ENSE
rop ical
h istory
Ġs quad
Ġgener ations
im edia
Ġdis p
ÑĢ Ðµ
Ġpolit icians
Miss ing
M W
Ġs ke
ĠLear n
ol ph
ĠU RI
w i
pre vious
Ġconver gence
Ġd ad
× ķ
ĠCre ates
: '
re peat
Ġb rown
ĠD utch
n an
ĠA st
Ġt urb
r pc
Ø§ ÙĦ
Ġann iversary
P OS
ag u
w en
al so
Ġsupport ers
ĠCo q
Ġv oices
Ġint ense
Ġimm igr
p resent
SS ION
b one
Ġtr ou
Ax is
m apping
ĠM oney
b x
à¤ °
Ġinitial ize
[ (
Ġre ven
ĠR ele
id al
ĠPrem ier
w he
Ġh al
qu is
Ġequip ped
b urn
T AG
m ade
Sep ar
lo yd
v et
Ġnec k
> %
p ubl
Ġexpl oring
S witch
ĠJ ess
ĠH O
Ġrot ate
ĠIm pact
indu ced
ĠCO L
Decl aration
B oth
Ð° ÑĤ
Ġcare ful
NO DE
L ive
ur se
Ġv it
Ġp overty
} &
Ġtim estamp
F ire
Ġal ias
look ing
ĠE N
Sec ret
âĢĿ )
Ġspe akers
= %
wit zer
LE TE
Ġdefe at
Ġg alaxy
ĠRep resent
ĠH IV
ĠWe bsite
column s
ĠP ier
it udes
ĠE c
Dr ag
Ġdomin ant
[ -
ol k
String Builder
g ies
Ġhydro gen
Ġtro ops
Ġent itled
Ġep id
oc a
Ġ} \
Ã Ĥ
ĠDise ase
Ġinv ariant
ĠId ent
Ġqu adr
(" %
Man agement
B T
Ġpert urb
F ixed
Ġc ov
Ġdef ect
Ġple asure
Ġsignific ance
Ġult imate
Ġmechan ical
K it
Ġinstr uments
Column s
Ġpre val
ah oma
Ex ists
T ake
Ġfil ters
ric ulum
ym ph
ch anges
s hell
Ġcl one
Ġhor izontal
Ġsup pose
ap ple
RE CT
st ates
u uid
h d
ex pl
Ġhard er
ul ative
ĠF ellow
Ġcharacter istic
rem ark
Ġlif etime
Ġflex ible
10 7
s at
Line ar
ĠP ast
is an
ĠD ick
× Ļ
Ġleg s
Ġl unch
ĠS ize
ĠS UMMARY
th ird
ĠVAL IGN
Ġunus ual
Ġf ishing
Ġsc aling
b uilt
chi at
We ek
"> (
Ġl attice
ĠMat thew
Ġcompens ation
ĠR ule
ĠÐ ½
aver se
U pload
ĠSur vey
R ot
c ost
em ark
qu ant
b inary
m ma
Ġo scill
z ym
st an
) ^{\
Ġdescri bing
Ġ-- ></
Ġcomp iler
Ex pect
p end
Ġg onna
err a
ĠAg ent
cc a
Ġre vers
own ed
Ġdi et
plic ity
M achine
Ġreview ed
Ġh ang
ab stract
R UN
Ġsearch ing
ĠOper ation
Ġcampaign s
10 6
ĠC op
is en
th y
Ġd st
ĠM ut
ĠE T
Group Name
Ġgraph s
f older
Ġpubl ishing
ĠMc K
Ġsing ing
ĠE C
gener ator
LE S
ĠCapt ain
ĠST ART
e u
10 16
Ġrank ed
p iece
ĠG raph
IL ITY
Ġc ock
Ġpar ad
ĠPod cast
Ġth ro
Ġinter section
hy thm
ĠF ast
ass oci
ĠPh ill
Ġlog in
ĠSp irit
pro b
Ġjournal ist
[] {
Ġbi ological
Ġret ain
ĠD uke
(' <
T y
Ġdevelop ments
Ġo xygen
Ġun like
log ging
ĠInter est
k ing
Ġc ub
ĠWh it
........ ........
ss l
re ason
Ġout break
Ġaut hentication
oust ic
Ġa ria
hav ior
Constr aint
p oll
Ġimm igration
ĠBr and
ĠCol umn
ĠIslam ic
Ġw x
n l
Ġk in
struct ure
Ġse gments
umn i
) }(
ĠM B
an im
add ed
witzer land
ĠW ang
Ġor th
Ø ¯
row se
Ġim plicit
ut her
ab is
hemat ics
ĠT otal
Ph il
ĠCom par
11 4
ig ator
Ġover come
Ġbl ind
Part icip
ben ch
phot on
Ġclass ified
ĠD a
claim ed
BP ACK
Ġt ale
P romise
Ġdi pl
Ġblock chain
Ġmaint aining
Ġim plications
197 9
Ġinter active
sp ot
Ġdefin itions
Ġbox es
Ġspect ra
p od
W in
ĠC F
Ġclass Name
Com mit
Ġdifferent ial
Ġf iber
Ġint ellectual
ad v
* ,
Ġmult ip
ĠC ould
Ġab ortion
ig o
am ous
s ing
ĠW ik
V O
ĠMot or
Ġre actions
ĉĉ ĠĠĠ
Ġref used
iss a
un ior
Ġres ident
2 20
om al
Ġassum ptions
Ġsett lement
ib li
Ġ' ''
ĠWARRAN TIES
Ġ+ \
Ġher itage
Ġlock ed
tik z
ĠAss istant
th an
10 9
Ġrad ical
Part y
Ġf s
ĠT itle
Ġdecre ased
Ġconsist ently
Ġrem oval
u ates
à¥ į
Ġviol ent
H ook
Ġref lection
Ġle ts
Ġb read
ĠJ S
Table Row
ĠI ter
Ġglob ally
ĠM un
ĠEp isode
U CT
Ext ensions
/* !
ĠN um
Ġ-- -
ĠV otes
Ġdis ag
è ¿
j an
ur u
ard ing
å ¤
at on
Ġconvers ations
ĠL am
Ġcomb ine
oth ers
get Instance
ut ers
Ġfavour ite
Ġsystem atic
Ġc able
get s
II I
Ġne ur
Ġconst ants
ĠCon vert
Ġevery body
Ġoper ated
ĠS ession
Ġn ut
Ġsuff er
ĠS olutions
Ġuser name
Ġiter ation
ĠL oc
par agraph
BO OL
Ġdram atic
Task s
Ġcharg ing
Ġton ight
ĠO wn
Ġche st
T ech
40 4
Ġj u
Cre ated
ĠComput er
Ġmist ake
ile vel
Â »
ar ance
B ool
^ -
Ġ" '
ĠT ennessee
Ġtr im
os er
ia h
ip es
c ref
arn ings
qu al
Ġ" ${
Ġbro thers
et o
Ġen umer
jack son
Ġem otion
Ġcommun icate
od o
Ex tra
Ġinv olve
ĠO ptions
es a
u is
ĠR ick
ĠV ent
H y
ĠT OP
Ver ify
f loor
ĠIss ue
Ġr anging
CO M
var i
leg es
Ġl uck
aw esome
T M
>( <
ard o
Ġclub s
ĠS ide
ol en
ĠVill age
c ursor
Ġph osph
24 0
Ġprec ise
Ġs aving
ĠB lood
Ġfund ed
\| _{
File Name
ap l
ĠBe ing
Ġpack ed
def er
ot ive
Or gan
ĠEm ploy
Ġfrequ ent
ĠNAS A
Ġdecl are
met ic
Ġcomp ress
ĠCr ime
Ġres il
Ġd ating
Res et
ĠK al
) },
Ġd ump
ic ient
cre ment
Ġj et
Ġprint ed
Ġrecru it
Ġgun s
Ġconsequ ence
As set
ĠPe ace
st rip
Ġ` ``
Ġaccomp an
ĠM yst
} ",
ĠG as
per p
m ov
Ġhand led
ĠL GBT
w allet
ĠRev olution
ĠPro gress
ĠAl abama
Ġcho osing
Pr imary
ĠTr ack
Ġb rows
ĠE uro
Ġbirth day
c ourse
C ancel
Ġstr ain
cri ber
Ign ore
Ġhypothes is
J ames
Lo op
ĠIndian a
D M
t v
Ġan xiety
build ing
Ġgreat ly
tool tip
Ġlic ensed
ĠF ollowing
Ġcam eras
ail and
m ass
Aut hentication
ĠP u
Ġdeleg ate
com put
d jango
S V
Ġredu ces
mark et
... )
ĠG ov
Ġprom ot
}} ^
Ġstrugg ling
ĠM ission
ĠAr k
Ġexc it
Ġafr aid
ĠInt elligence
Execut or
C ertificate
it ol
Ġhead ed
Mon itor
Ġincor rect
gu ide
l int
ĠMal ays
Ġ| =
Des ign
ĠHer itage
Ġalbum s
pr ice
ct ree
Ġcan vas
St ub
ob serv
Wh ich
ate way
Ġspeak s
n os
Ġb ills
iver pool
Ġh az
Ġhuman ity
IM IT
á »
In ner
Ġt we
D iff
m iddle
ĠPlay er
Ã º
per iod
Ġcan n
ĠP rize
Dec imal
Support ed
ĠR oute
ĠB h
form er
i pt
Ġrec ycl
R ules
Ġa ug
v endor
Ġw idget
Ġden ied
Ġamong st
our i
Ġw ing
ĠD ue
ch arg
Ġsuggest ing
Ġcr imes
Ġc aut
ĠV i
Î ¼
Ġred irect
Ph ot
Ġst em
Col lect
mit ter
un lock
m ir
Ġl ov
Ġbelong s
ĠMe eting
Ġmir ror
Ġstop s
in ator
Ġde ck
Ġpregn ancy
T ry
ĠJew s
Ġposs ess
f ac
Ġrel ating
Ġdifficult y
ĠD est
Ġh unt
ĠW E
Ġde pression
Ġsu ite
is o
ĠRes erved
: #
ĠHow ard
ĠBe aut
ĠMay or
ĠSum mary
ĠSt ew
Z ero
Ġor bit
Ġin cent
Î ·
19 75
Ġsat ellite
S afe
HO UT
al gorithm
es ides
ĠK ind
Ġdis aster
ra ig
Ġexam ination
m its
Ġm ood
{ $\
ĠV ar
m f
li a
Ġgo ogle
Ġch ains
Ġrac ial
c ord
Ġmark er
Aust ral
R ober
Ġcoe fficient
ci pl
Ġch ances
Ġinfe ctions
s ym
ĠV iol
styles heets
Ġreg ression
ĠH R
w ich
create Element
A SS
Ġm ad
ĠThe ory
ĠH ans
Ġentr ance
Ġb orrow
str ings
Ġf ert
Ġremark able
Output Stream
ĠCam bridge
Ġprov ince
ĠN ev
Ġr anges
Ġ uri
Ġcon secutive
e clipse
ĠC ole
ĠP apers
ĠU til
Ġplace holder
Ġl oyal
s b
Con verter
s ass
__ )
Pro to
Ġdeliver ing
Ġper mitted
ĠSt age
Ġinfl amm
~~~~ ~~~~
Ġpr on
Ġtreat ments
ĠDet roit
D irection
ĠIn ternal
enc oding
if ference
G EN
Ġthe atre
ĠN ic
ath ers
Ġmac ro
ĠUs ed
Ġc ul
us al
is or
Ġdoll ar
ĠWork s
AR B
ĠB or
ĠC elebr
Ġac ute
Ġevery day
DE D
ĠH ub
arch ive
ĠNot es
ĠS ave
con sum
I ME
Ġexam ined
Ġd ial
ĠT el
A ctions
An n
Ġreported ly
FI X
QUE ST
Ù ĩ
WE BPACK
u ition
ĠG ib
sc ar
ĠG P
Ġdefe ated
ur d
J ack
Ġas ympt
Ġf est
ĠM IT
ĠP L
ĠOffic ial
ĠB asic
5 12
b oy
Ġter rible
Ġcon cluded
mem bers
Ġlog o
Name Link
ĠG all
te am
Ġrare ly
G F
set ting
Ġsp ots
Ġfl uct
Ġveter an
lim ited
Ġim g
Ġwr apped
ĠIns urance
m ms
Ġinv olvement
On line
ĠPolit ical
Ġest imation
L i
å Ĭ
ĠGree ce
Ġident ifying
Ġprevent ion
ĠHand le
Ġ& #
um ar
Ġm ild
ĠB us
TH ER
ĠĠĠĠĠĠĠĠĠĠĠĠĠĠĠĠĠĠĠĠĠĠĠĠĠĠĠĠĠĠĠĠ ĠĠĠĠĠ
Ġcol span
ĠUn less
pr iv
ĠAnd y
ĠAll ah
Ġg raphics
Ġorgan isation
ĠArch ives
Ġmodel ing
Ġc ow
Ġcour ts
Ġch ip
ĠOther wise
Ġattempt ed
) _{
ĠCon tract
ĠI F
ĠBy te
ut ies
class Name
ĠN at
Ġt ang
ĠF ollow
Ġvari ants
\ )
refer ences
ĠDO M
P acket
w ick
H ello
ĠA B
Ġoutput s
BU FFER
ĠAl tern
ĠD R
Ġex clus
get String
ĠMary land
m ate
Ġre produ
ĠSer ial
13 5
ĠB egin
h uman
c ancel
m atic
= $
Ġph ones
Ġaw esome
tim estamp
ict ions
dat etime
ĠE val
à ®
ĠAut om
L ead
Ġst upid
Ġnot ation
) ^{-
ĠCreat ive
Ġgather ed
Qu ant
est one
ĠM achine
Ġpres erve
the y
IMP ORTED
ĠJust in
) --
198 1
iv ia
NE W
pect ives
ĠB uffer
con duct
ĠD omin
Ġd ense
u ity
ĠB eng
Ġorgan isations
Ġproport ion
man agement
ash ing
Ġcl othes
ĠSt orage
Ġprom ising
ph ony
ĠLab our
Ġsl ide
ĠMar ine
>< !--
at ers
Ġsepar ation
Ġ{ $
Re ason
Ġaud iences
Fe atures
ĠB ird
Ï Ĥ
ĠP oll
ĠTur k
ĠW I
AP P
J o
ĠD ays
ĠB alt
M usic
et ric
ad oc
F our
h ire
le ans
Ġst unning
In f
ĠTog ether
ĠBel g
Ġp arsed
Ġl ens
ur an
Red uce
A ir
h pp
Ġpublic ations
U nd
AR G
Ġlaws uit
ĠDe an
Ġnews letter
Ġd owntown
Ġext ensions
Ġtransfer red
Ġdistrict s
Ġvolunte ers
19 78
Ġhad n
Eng lish
ĠThom pson
C ould
PRO C
Ġappoint ment
Ġm ile
Bl ue
ĠL ock
ong o
Ġpart ially
on z
Ġshould er
Ġsl ice
Ġrequ iring
Ġdis plays
Ġp rize
el ve
le ading
Ġlock down
he art
4 50
chn ology
ĉĉĉĉĉĉĉĉ ĉĉĉ
ov iet
ac les
ch at
ĠArg ument
ing e
com plex
-------- --
Ġmort ality
Ġd ictionary
Ġgr ants
Ġprom oting
ĠM other
Ġne utr
ĠH ad
Ġor al
Or igin
V IEW
hel le
ĠC L
B its
ĠLin ux
ellig ent
Ġvari ations
ĠS now
ĠS ay
C LA
ĠBe at
tim eline
ogene ous
ĠC lean
Will iam
ĠStr ategy
Ġed iting
RA ME
ĠAr gent
iss ip
be ans
Ġadvert is
ĠEm ail
Ġattract ive
ĠI ron
o il
t age
sur face
Ġship ping
Ġathlet es
Ġvary ing
Ġdestr uction
w ire
ĠU P
Ġelect rical
h ist
s he
ĠS ac
it ting
second ary
ow ski
ul in
Res p
tr ain
s elling
ĠIsrael i
H or
apt ers
Ġadministr ative
( /
Ġc b
Ġc ream
æ ĺ
T ON
om er
ĠChrist opher
C he
ĠG ordon
Ġsc reens
Ch ina
chestr a
= &
ĠMil itary
lin ux
ann on
ĠH ero
Ġp ounds
Ġinher ited
ĠKE Y
197 6
Ġmask s
Ch anges
ĠA V
Ġrem oving
AR K
sw ing
ĠDr ug
Ġopin ions
Ġtim ing
ĠĠĠĠĠĠĠĠĠĠĠĠĠĠĠĠĠĠĠĠĠĠĠĠĠĠĠĠĠĠĠĠ ĠĠ
à¥ ĩ
sd k
ĠTok yo
ĠR ole
E P
E urope
am ine
ĠH ell
ĠU TC
Ġent ert
Ñ ĸ
f p
Ġrul ing
ĠGa ussian
Ġexhib it
Ġtrail er
ut orial
ĠĠĠĠĠĠĠĠĠĠĠĠĠĠĠĠ ĠĠĠĠĊ
Int eg
Ġcred its
ĠP erm
M al
ĠCh rome
S ongs
h ort
CO VID
Ġsur faces
Ġcomp ound
Ġgu ilty
V ec
Ġcomp an
Ġh ack
at able
ĠL P
Ġres idential
N eed
ĠS amsung
ĠCy ber
Ġprepar ing
Ġp uzz
Ġmanufact urers
Ã ł
Ġassoci ate
N a
pl ant
Do ctrine
Ġg host
Ġact ively
LO AD
b ian
C ulture
Ġcharacter ized
ĠS olar
ĠC ry
Sc ore
s ure
With out
Ġadmin ister
e conom
H ard
ex cept
as a
ĠK l
ĠDat abase
ĠO il
Ġl ake
âĢ¦ âĢĿ
Ġde ployment
ĠD VD
Local e
ĠCustom er
Ġadv ers
M art
ĠJud ge
ĠUn fortunately
Ġh ip
Ġlabor atory
Ġm ic
ĠI de
Ġcelebr ation
TO M
pos al
ĠF ALSE
ĠC os
$ ).
Ġwarr ant
Ġdes criptor
F ac
ĠPer haps
Ġob st
ĠW y
Ġdr ives
ter ior
N I
Ġc ir
c od
cl ock
%%%% %%%%
ĠK ids
ick ed
!\ !\
i em
Ġco operation
D ynamic
E p
k ernel
m aps
Ġs ust
Ġl apt
f are
Ġh ub
Ġt ort
Ġinn oc
Ġsymmet ric
ĠUkrain ian
En able
m ix
it r
Ġassert True
BA SE
SO URCE
aa aa
Ġprodu cers
Ġmarg inal
Ġcl othing
Ġsc ulpt
Ġel der
}$ -
ond a
c apt
er ious
Ġex ponential
IC K
Ġlib eral
Ġf its
g p
ĠBr uce
Ġret ired
osc ow
Ġhar vest
Ġbare ly
cl s
ĉĉĉĉ Ċ
ĠRober ts
" ];
Ġsu gar
Ġpar agraph
Sh ader
ĠSwed en
Ġmusic ians
Ġconfig ured
ĠIm mutable
m oment
$ $\
unk nown
ĠMA X
ĠLead er
rou ter
ĠLead ership
pr agma
ol ars
ac ular
Ġr ival
Ġ( %
bre aking
ĠCol lect
Us es
ra h
] +
RO W
Ġodd s
B i
Î »
if iable
Ġsub stance
umb n
ĠM and
ou p
Ġut ter
ĠLin coln
Ġl iver
ourn als
ab a
Ġiter ator
G over
Ġp s
ir ates
EN CE
ibr ation
F ollowing
Ġfl ows
Ġpro be
14 4
cy cl
ĠExper ience
un ion
ous es
Ã ¥
v ars
or ce
ign ore
hip s
ĠN FT
Ġdr um
Ġlight ing
ĠLog ger
Enumer able
Ġg all
ĠTr ad
There fore
Ä į
19 2
qu es
Ġcou pled
S napshot
Ġvent ure
v ing
ĠD al
Ġ urg
Ġadj acent
ump y
ĠA ws
Ġflow ers
000 1
S ing
ĠH ung
Ġarg ued
Ġ um
D TD
ĠRun time
Cam era
ene ath
en vironment
Ġassum ing
197 3
Ġconsist ing
O wner
Ġpro l
Ġflo ating
Ġingred ients
google apis
Int ent
Ġl ibraries
Ġstead y
fr ag
j oint
ecess ary
Ġsaf ely
Ġ' _
fr agment
}^ *
Diagn ostics
Ġem ails
ĠRuss ell
Ġcred entials
kl ahoma
get Message
Ġtravel ing
Ġfl avor
st ory
ol i
Ġclos ure
ĠT ab
Ġ' @
ynam ics
ĠS oc
Ġret irement
ĠM ort
ĠÂ ±
Ġenthus i
ymmet ric
Ġdes ert
S un
iff s
ou ver
ĠâĢ Ŀ
ĠCor p
Ġrepresent ations
ĠEx pression
ĠOlymp ic
ĠN ik
Load ing
Ġn s
Ġev ident
hemat ical
Ġexp enses
Fe bruary
EN ABLE
Ġmain stream
G T
Ġfacilit ate
Ġconf lic
ĠD ak
load ed
197 2
ĠAn ne
i ov
(" \
ĠL I
ĠGirl s
d ating
)$ -
Ġmanufact urer
Ġfem in
Ġg otten
ĠM ail
Ġdis orders
l oss
Gr ad
Ġtouch down
Ge ometry
contin ue
RE T
! </
Run ning
Ġhol es
Ġx si
ĠInvest ment
< >();
over y
Ġparticip ating
ĠJava Script
iz za
Ġpro s
ath on
ops is
Ġdeterm ination
} )$.
ĠIt em
Ġover se
12 4
Con tract
ĠQu ant
ĠPar se
Te am
Work er
Ġcritic ism
Ġemot ions
2 13
Ġl ifestyle
Ġv m
ĠTri b
Ġt ie
ul k
/ )
level and
iam ond
Ġs orry
ĠK am
Ġtri b
Ġmind s
Ġtransform ed
Ġ- =
sy nt
ĠJ oin
================================ ================================
ĠF ed
Ġp ill
ĠÃ ¢
W r
out heast
ool s
Ġde let
ĠV eter
Ġag reements
Ġgl obe
Ġcrypt oc
ink s
ĠAfghan istan
ĠA F
ĠH it
comm un
Ġj ew
y outube
B rit
ĠĠĠĠĠĠĠĠĠĠĠĠĠĠĠĠĠĠĠĠĠĠĠĠĠĠĠĠĠĠĠĠ ĠĠĠĠ
Cons ider
çĶ ¨
Ġreflect s
Ġagric ultural
ol t
ĠA BC
CRE ATE
Ġdead line
Ġl ucky
Ġseek s
ĠE R
Ġse cre
r as
ĠCh ap
ĠSc i
ĠB loom
Ġ' "
SP AN
ĠKen ya
Ġvis ibility
Ġsc ream
ĠP ear
Par cel
Ġsal ary
ĠUp dated
) {\
Ġ$ -
w ave
re view
ut en
ĠAn na
up dated
urs ive
Ġhousehold s
ĠMag ic
Ġpro c
sol r
Ġp ione
ĠAgain st
ĠPhilipp ines
Ġwork force
) *
ĠW olf
Ġtack le
ĠT ik
Ġrepresent atives
trans port
annot ations
ĠF BI
H ar
} ))
Ġindepend ence
del ay
im ore
j or
SP ACE
ĠPhil ip
MP L
ĠEvery thing
ĠH unter
sw er
Ġpl asma
to ctree
Ġwork place
sl ide
M ail
Ġdiagn ostic
rop ic
Sub ject
ĠT an
202 4
11 7
ĠW oman
or ia
ĠRes erve
Ġ' #
Ġearn ings
Ġbl ame
I p
ĠFac ulty
ĠH ills
ĠDi agn
An im
Ġprogress ive
Ġprov isions
ĠPhys ics
dec ode
ĠB eck
Model s
med ium
Ġdom ains
ĠC ome
ĠS witzerland
ĠR ank
Ġcomp aring
ĠG round
get Class
Ġland ing
Ġpro x
Ġstream s
ĠF iction
t m
ĠL L
Ġcap ability
ut o
Ġpurs ue
run ner
Ġtal ented
Trans ition
L uc
g mail
ĠCo oper
b ird
Ġwarn ed
Ġsh it
, .
Ġview ers
P DF
19 68
Ġinter mediate
d anger
des criptor
B ACK
ĠS el
Ġillust rated
ĠChar lie
Ġre fr
d istance
d ocker
D ITION
Ġmix ing
ĠBO OST
Ġdist urb
Ġcompar able
Ġwarm ing
ne ed
Ġsett led
as ures
C ost
fe ction
ĠT a
om ething
ĠStr ateg
Ġaffect s
TableRow Color
me an
ĠPract ice
d st
fore ach
th al
ĠG OP
TER N
Ind ia
S K
ĠChair man
Ġlog ical
11 3
Ġeng ines
Ġstock s
Ġentreprene ur
T og
ys ics
55 5
f illed
ĠU g
Ġdis crete
on ed
ĠBet ter
T imes
io x
Ġadd r
ĠJ en
spir acy
Ġmoder ate
lear ning
19 77
Ġrom ance
ĠM illion
Ġun ve
S ocial
Ġver b
Ġul tr
ĠÎ ¼
not ify
ocol ate
Ø ª
ĠShe l
ise cond
1 19
ac co
Ġdel iber
I ll
ad ies
T yp
Ġin clusive
)\ \
ĠVis ual
ĠCon sole
Ġres erve
Ġap ilevel
17 0
ĠT oy
ĠT X
: /
ĠH ug
,\ ,
Ã© e
Ġbon us
intend o
Ġ[ \
ĠCent ury
197 4
Ġm i
ir atory
Ġeas tern
Ġin ev
r ang
ĠR ap
fl ush
ĠW ait
` )
ĠD M
æ Ī
Ġin verse
Ġmar ine
uet ooth
it ter
ĠAnton io
D ig
ime q
Ġindepend ently
Ġthread s
Sm all
Ġcour tesy
Ġatt itude
ow der
Ġph ases
g age
AR RAY
Ġlaw yers
Ġcent uries
Ġback up
display style
Ġvol umes
Ġpe ers
Ġan notation
Ġar med
TR AN
inn ed
Ġemer ged
Ġcorre ction
ip art
p read
ĠAl an
ĠInd ependent
A MP
ĠP E
get Type
The orem
ĠA aron
ĠK ate
Ġcompl aint
ĠPat ri
Ġground s
Ġcult ures
s imeq
Ġme al
ann ah
Re act
m x
fr ames
ĠN ull
Ġh ung
Ġold est
g ender
con current
Ġcelebr ated
ĠL ane
Mut able
Sup press
ĠWIT HOUT
oc he
S UB
Ġcell padding
Ġj uris
Per iod
Ġnot able
S ide
Â Ń
gl as
Ġt y
ĠS cript
ĠR ain
Ġep ic
neg ative
Ġre aches
Ġal arm
Ġextract ed
a que
PAR AM
Ġdom inated
ĠWrit ing
av i
Ġen emies
on ing
z ens
Ġdesign ated
SU C
Pres ident
ĠT ABLE
Ġnot ify
Ġhit ting
Ġad mission
od ot
st eps
cer pt
ii i
Ġscatter ing
| -
ĠN an
}} ^{
ĠM eta
ĠÃ ł
c amp
á ĥ
or ious
Ġf atal
c as
Ġpopular ity
ĠN ear
Ġanaly tics
ĠF em
ĠCom ponent
Ġbr ut
S chool
ĠSt ars
Sc ene
~ $\
ĠP il
Ġwalk s
EE E
ub ern
ĠR T
Ġt ens
stats models
k es
Ġprocess or
Ġextra ordinary
S n
ĠN ash
Ġad verse
ĠLouis iana
Ġv on
Ġs olving
ĠMus k
ĠW el
stat ement
Ġbur st
] }
ĠKent ucky
ĠI ce
s ocial
ĠPut in
ud ge
P ub
Ġc um
Ġg olf
Lear n
Ġwire less
Ġun n
Match er
am ount
end point
LA B
F ALSE
Ġsufficient ly
Ġtit led
Ġg ains
ĠS F
cc cc
ĠT esla
Ġv iral
Ġmount ains
M obile
Ġfit ness
Ġschem es
Ġroll ing
Sh arp
U A
ĠĠĠĠĠ Ċ
ĠLic ensed
Ġad option
Ġsusp ended
Ġa est
Ġequ als
Ġguarant eed
O FF
ĠM eg
Ġprom otion
ĠI gn
includ es
inter val
ĠA bb
Ġtrans it
ps y
Ġr ounds
. ',
ĠG R
Ġen abling
Ġrom antic
at io
Ġsure ly
Vis it
sp in
uck er
Ġc aps
av ors
c ookie
d ynamic
Ġgr avity
omorph ic
om ing
12 2
Ġ# {
P ush
US A
ud son
ĠG er
ĠQ uality
Ġin hab
ĠB ible
M ov
iat ric
issip pi
Ġfit ting
Ġun w
ĠAr thur
amb ling
Ġhost ing
writ ing
æķ °
log ical
ĠUr ban
o j
Serv let
ĠF DA
quir y
amazon aws
Ġin fer
Ġprom ises
ĠComm ons
ĠS pect
Ġexception al
ĠP ackage
Ch art
uk i
Rep ly
Part ition
ĠChall enge
list ener
ĠW ind
Ġaggress ive
Ġal ignment
ĠL abel
ĠE lection
ĠScott ish
ĠD ictionary
ĠTai wan
Ġadapt ation
Al pha
che m
Ġd iver
ĠU tah
a ac
Ġj e
ĠD elta
Ġaccompan ied
st ation
19 69
Com put
ĠA qu
ĠF al
ĠAd ams
Style ID
Ġautom ated
Ġ' -
Ġcomput ers
99 99
Ġphotograph s
Ġhel per
Ġansw ered
ĠCast le
ĠDet ails
ard ed
Ġt ension
M en
Ġl ying
ĠMaterial s
w er
ĠGrow th
Ġcr ack
Ġcell spacing
Ñ Ĩ
Ġdecl aration
Ġstake holders
it Hub
Ġst abil
Ġan th
l ad
Ġconcent rations
ĠOper ations
ĠIn iti
) }{\
ash i
Ġliter ary
th ree
Ġed ited
12 1
Ġh o
G RO
IN VALID
Ġview ing
Ġattr s
p ref
ides pread
Ġtarget ing
ĠF ight
Pr ice
Ġphenomen on
id el
Ġref lected
Ġw orship
ain ers
anc ouver
d n
b ucket
! (
Ġdi abetes
Ġwild life
Ġemb od
Ġnob ody
.~ (\
Pl us
am an
Ġsimilar ly
Ġbet a
qu er
ust ed
Ġt ar
ĠG ary
ubl in
May be
Ġsub mission
Ġdeterm in
p n
Ġprefer ences
C UR
ĠM erc
ĠPre vious
Ġoper ates
ĠB ron
p al
Ġ= \
ĠH im
ĠN eg
Ġkey board
Ġprom ised
ĠR ange
ir ts
Ġster e
> ${
ĠF ab
Ġbank ing
Ġmet ers
ogen ic
Ġestablish ment
k n
ĠM uch
ab ases
j amin
f red
** *
% "><
Ġconv ex
ke ep
Ġj azz
Ġfe as
ĠDr aw
S al
Ġr ally
B ucket
Ġstay ed
not ification
Ġl ady
per ature
ĠPol and
################ ################
ĠU lt
ĠL ot
Ġpass enger
Ġprotest s
11 8
ĠMem ory
W elcome
az el
3 20
ion ed
5 000
Ġprotect ing
av ers
Ġok ay
W ar
m ill
Ġgr ateful
Ġprotocol s
P ane
Sc an
Ġhighlight ed
ĠE state
E lect
Ġfollow ers
gener ation
L ang
Ġen orm
ĠD ur
Ġpos it
ĠMod ule
Ġens ures
ĠCon nection
S F
ĠQ ual
Ġsm oke
J ul
Ġseem ingly
Ġinflu enced
Ġcl s
Ġshort ly
OR S
k h
ĠAp pe
Ġemploy ers
Ġcomput ational
an ne
Ġchar ity
ĠX box
em a
() ">
(' ./
11 6
label s
Ġsav ings
è ®
Ġhard ly
Ġind irect
script ions
Ġvari ance
Ġcor ruption
m ers
lot te
h h
Ġvirt ually
**************************************************************** ********
Ġam pl
Ġres idence
Ġsur f
Ġm s
ĠW A
ip age
Ġj ail
en ue
0000 0000
ĠOC aml
ĠP ick
Ġreal istic
Ġw is
v ation
. ),
Ġb g
Ġph rase
Ġneigh bors
ĠPro duction
Id x
Ġposs ession
Ali as
20 30
G M
ĠM agn
au i
W ed
C ountry
con cat
ĠTechn ologies
ĠLaw rence
pro position
Data Type
P rom
Ġpo em
Ġfle et
Tag ged
D istance
l atest
ĠEnt ity
00 2
ĠPh oenix
ĠAdv anced
ĠA my
ĠBrook lyn
fo x
he x
Ġclos est
ĠB ed
ĠTh ailand
per cent
Ġk iss
ĠPro perties
Ġrem oves
fe atures
Ġdelay ed
no frame
l on
Ġab road
ĠH oll
As sembly
pi res
Ġgovern ance
A ff
amp ed
em ployment
Ġstrict ly
ĠIs rar
pag ination
ĠE RR
ĠDe cl
ĠTem ple
sh ops
Ġbr anches
graph ics
Ġsh apes
Ġcal m
um ption
Ġz oom
allow ed
Ġdef ining
Ġsole ly
in ian
Ġt uple
re nd
ĠC opy
\ {\
ĠT ob
Vis ual
Ġinv asion
Ġg allery
ĠÐ ¸
Ġsubsequ ently
Ġnav igate
2 30
list en
Ġt ies
ĠDe al
Ġlisten ers
e or
Ġnov els
Ġscr atch
ĠDate Time
Ġsil ent
Ġsix th
to o
Ġg ig
Ġrecover ed
Ð¾Ð »
ol o
Ġdev ast
Ġimplement ing
W rap
Ġmix ture
ĠEmer gency
ĠTre nd
ĠK IND
Ġrestr iction
ab e
Ġco in
$ ;
ĠC ape
hel sea
Ġfasc inating
^{ +
ĠRob inson
ĠPh ase
red irect
ĠK ings
Ġcas ual
Ġinj ection
Ġsp oken
I l
> .</
w estern
Ġres ort
Ġattack ed
Ðµ ÑĤ
L ow
AT O
ra ise
Ġperform s
Br idge
s am
ĠR ub
t ax
se cret
el ing
ed ly
ul ates
Ġob l
ac l
ĠDr agon
rou s
ph ab
Ġp our
ul u
Ġl on
ĠHash Map
f ather
subs cribe
ĠUS B
char acter
ĠIn valid
: }
B reak
Ġmolec ules
Ġdis patch
V I
Re ceived
ĠOr leans
us ive
ĠJ oh
Ġre cre
F acebook
vel ope
ident ity
ĠInt el
Art icle
Ġretr ieve
Hash Map
ĠStat ement
id o
Det ector
M IT
ĠF C
Ġagric ulture
[ <
C annot
ĠR ot
Ġexcept ions
ĠIndones ia
ĠEd ge
ic ut
sen al
Ġinvest ing
ic ates
vent ory
ĠEn c
Ġaccept able
g row
cul ate
Ġexclus ively
ĠF ather
uc lear
Ġrandom ly
Ġstay ing
un ate
}} $,
Ġem pir
ins ic
ĠCamp aign
Ġo w
Ġart istic
Ã¡ n
C are
Ġele g
po i
X Y
ĠDe bug
is p
path s
å Ń
Ġburn ing
st itute
vert ex
Ġwh ilst
Ġsub str
OT TOM
ĠN am
Ġlo ose
r ates
trans late
Ġdepend ency
Ġwork shop
ĠStud ios
Ġsmart phone
ver ify
Ġs ender
Ġbur den
r ass
opt im
ĠCl ose
== =
: -
Ġflex ibility
ĠM ade
Spe ed
ĠJ oy
ertific ates
S rc
h base
Read y
ĠJ e
ĠCamp us
B uf
end ors
ĠV A
f actor
Ġarch ive
Ġsurround ed
Ġpregn ant
oss il
apeut ic
ĠF reedom
Ġcoll ision
Ġa str
Ġobject ives
Ġaccept ance
z i
f our
M o
!! !
Ġm ales
Ġpl ug
L ite
Ġgather ing
W ORK
ĠV acc
ĠTR UE
c mp
Ġenc oded
. :
Ġlo ans
Ġc rop
ref resh
Ġbuild s
li est
Ġan ger
Ġt ast
ĠB ah
Â ±
ĠOr ange
45 6
d og
Ï ħ
Ġcor por
Ġinf ected
ĠOper a
ĠF isher
Ex ecute
T uple
ĠProf essional
Ġis instance
ol as
Ġassess ed
P riority
C our
op les
SH A
Ġor ange
SP AC
M ount
ar ms
id ges
ĠMar shall
ĠB AS
A mazon
amp a
ĠH aving
Ġdo zen
get Attribute
ĠD ig
Ġposs ibilities
ĠPh one
Ġconsider able
ĠSt even
| _{
Ġaddress ing
ĠSte el
Ġprint f
Ġd ys
ri el
enc il
ĠP el
ĠSt re
ograph ical
Ġviol ation
Ġjournal ists
Ġsort ed
ĠM om
Test ing
Ġpoll ution
ut ral
log y
Ġthere by
pr ises
Ġpass age
ĠE rr
ous el
ĠT i
Ġsil ence
ĠStr ucture
Ap ple
lo pe
fo od
ĠS R
Ġp iano
ĠWH ERE
pay load
Ġstraight forward
ĠBet ween
ĠG M
Ġd ining
ĠS cal
Ġab ilities
ategor ized
Ġlett ing
ut down
Ġnormal ized
ĠSen ator
Ġre plied
ĠF E
ur ches
ĠAl ber
Ġwor ried
ĠDen ver
Ġre ceptor
B us
S il
ADD ING
ing ing
t oc
Has Been
Ġdifferent ly
Ġtour ism
ad ows
Rel ative
ĠS N
Ġproject ed
ĠArab ia
Ġtown s
Ġsurv iv
Ġsnap shot
ĠO tt
' ].
ĠHar vard
ĠW right
$ ^{-
ts burgh
jav ax
ĠJ ennifer
}} $.
run ning
ME M
ĠQue ens
Ġc ited
S at
Ġal ien
P ixel
> ../
197 1
ĠJ O
local host
ol y
ĠG T
sh ore
FLA G
ĠSy ria
N eg
Ä ĩ
Ġf ut
ĠS urg
Ġarr ays
RES ULT
Ġout line
code c
sc ene
Ġlik elihood
ĠMov ies
Ġ======= =
ij ing
ĠR ules
Ġphot ography
f ailed
at om
19 30
Ġp arks
Pro of
Ġir r
Contin ue
Me anwhile
pop up
Ġf ought
tr action
Ġacqu ire
tim er
ĠCol lections
y ll
Ġd t
pe g
Ġaccount ing
ĠR ic
av icon
Ġang ry
ĠC le
ĠProt ocol
ol er
Ġy eah
Ġent ropy
och astic
D er
ĠF le
ĠL iverpool
ĠAl ice
Ġbroad er
Ġthe ater
__ ,
Dep artment
Ġequ ilibrium
ĠO UT
c urrency
nob r
Java Script
l arg
th a
Menu Item
ĠO cc
u pt
Compar ison
V T
Ġbut ter
Ġart ifact
add Class
Ġc ust
trans l
Ġsynt hetic
pe ople
Ġcook ing
Ġsh ops
inst ein
ĠS oviet
ot ypes
ĠV ery
ĠP UBLIC
V AR
air y
ĠCh ron
min ipage
Ġdig it
% ),
local e
Ġpropos als
Set up
Ġgr ace
ĠMe anwhile
ĠPH P
ĠC itiz
Ġappe aring
Ġpsych ological
mat ches
g re
p d
in ely
pro f
on line
ĠR andom
ĠI an
Ġbench mark
ĠM oscow
Ðµ ÑĢ
Ġpat ent
gl ob
ĠC M
Ġbeg un
ĠG re
ĠM ach
ap ps
Ġemph asis
ĠPubl ishing
Ġall ocation
ert o
Ġtext s
ĠMc G
Sh ift
Ġbrief ly
n m
ĠHigh way
ĠA ve
ĠG ot
f w
r in
] ).
Ġneigh bour
Ġatt ending
Ġinter ventions
Ġb ot
Ġsh orter
Ġun iqu
g un
ss on
avel ength
Ġdeterm ining
pi pe
Ġdirect ors
ĠS ale
ĠR ender
ib bean
AC HE
Ġven ue
ĠA le
ĠW ould
ĠFe atures
con sc
Ġengine er
Look up
Ġb eneath
map sto
] ->
ĠN A
onom ous
t iny
ĠO d
Ġprem ier
Ġf ingers
c x
Ġg ard
ĠF err
ĠProduct s
Del ay
ours es
Ġabandon ed
ir i
ĠAnt i
Ġbreak fast
F actor
Ġd ot
ĠO klahoma
Ġr ib
=" {{
vis it
19 67
f und
Ġs wit
> {
ĠB aker
Tool s
ow ing
Ġt ap
Ġfood s
Sim ilar
ur ious
or us
Ġw idespread
op ter
Al ert
Ġvoc als
ĠC z
d id
F oot
Control s
c ies
ol ine
ĠL aura
ĠClass ic
FA IL
PRO P
MA GE
HasBeen Set
Ġdis h
Ġmyst erious
" ])
b ank
Ġd ying
set Text
Ġn erv
f aster
Ġim pression
] </
å ľ
ac ies
Ġfor cing
ĠT oken
Ġcons ensus
sub Nav
Ġsoph istic
up per
Ġanim ated
ph oto
o ft
Ġsurve illance
Ġs el
M ix
s ources
m ine
ĠSt orm
ĠAl b
b rew
Ġwant ing
M il
' (
Ġm esh
ren a
Ġf iscal
ĠE li
Ġk w
Ġfr act
decl are
Ġ ĉ
CR IPT
Ġincre ment
Ġadvant ages
Ġc ognitive
Ġre dis
Ð ¹
Ġgener ates
AN N
Ġpick s
A ud
Ġport s
str ument
Ġdis ability
ĠHamilton ian
P ADDING
ĠSe an
Ġrepeated ly
Ġdis cret
In struction
Ġrid ic
ĠF el
Ġr iding
Ġ. =
Ġl l
ĠD ist
uff ix
execut ion
sp ired
ĠInd igenous
C irc
ah o
Ġs ends
Ġref resh
Met ric
Ġcon vention
max cdn
ĠNot ice
ort ex
C lean
Form atter
Ġcy cles
Ġh ired
Ġcross ing
se ed
erial ize
if ice
ĠS eg
tra ctions
ĠS ometimes
u els
ĠCl aim
op ing
N ONE
m os
L aw
p f
ĠGr id
ĠSpe ed
Ġpassion ate
L M
ĠCon stitution
value Of
Ġz ip
Ġcirc ular
pre pare
Ġlov ely
ens ively
Ġres erv
Ġgraph ic
IT LE
Ġquarter back
Ġte eth
ĠRe ports
ĠD evelop
WA RE
ĠM ET
Ġsp ir
Ġly rics
Â Ģ
Ġcon form
Mod ified
Ġrat ings
Ġw rapper
p ixel
') ->
Ġpath way
ĠThe ater
Ġcar ries
Ġtempor al
Ġacknow ledge
az ure
ID S
Ġver ification
ĠN ort
ĠMor ning
Track er
T witter
Ġc atal
ĠPhil osophy
item pty
ĠÐ º
Ġadapt ed
Ġphys ically
om eter
ĠAdd itional
Ġmob ility
elastic search
p ic
ew ise
ot ton
ĠCo al
Ġfem ales
Ġtrust ed
am med
script s
Ġamplit ude
ĠD ance
om itempty
Ġ&= &
ĠT ed
ric ane
19 20
ĠL ater
b age
ĠB eyond
Ġt el
Ġsph er
S ever
Mod ifier
Ġrender ed
S uch
ĠBen ef
Ġsens ors
ĠG C
separ ator
Rober t
Form er
ar ound
For ce
ĠB art
ĠPort land
Ġjo ins
c v
Ġwe igh
t own
Text View
ĠĠĠĠĠĠĠĠĠĠĠĠĠĠĠĠĠĠĠĠĠĠĠĠĠĠĠĠĠĠĠĠ ĠĠĠĠĠĠ
Ġd ens
Ġsu icide
ĠGener ated
ĠRem arks
Ġn ose
ĠS ET
19 65
Ġins pect
pl iers
Ġf i
Ġhar ass
ab we
F D
oun ces
dis patch
D one
ĉĉ čĊ
ĠMat rix
Ġbacter ia
oth y
) +\
Ġp ose
ĠCar ter
19 40
pre ced
process ing
al ia
Ġat om
Ġat omic
Ġmod ification
ĠS V
Ġsepar ately
Ġadjust ed
ĠAppend ix
m ys
Ġclaim ing
Ġconven ience
redu ce
Ġconsist ency
Ġbar riers
Ġrac ism
Ġimportant ly
fil ters
Ð¸ ÑĤ
ec ycle
Ġaccomp any
Ġn ights
Ġcry stal
ÂĢ Â
RE NT
Ġmagn et
US D
ĠMor ris
N ON
) }}
ĠP D
Ġle an
au er
Ġaffect ing
Ġ' ,
ĠWIT H
Ġpower ed
M AC
Ã ¸
ĠDef inition
C over
T emp
ĠV eh
ĠMel bourne
ot he
t z
al one
ĠChrist ians
RE QUEST
ĠPol y
ĠF an
ĠNS String
Ġpo et
ĠNS W
Ġrul ed
ĠMiss ouri
} )$,
Ch ris
imb abwe
Ġtransl ated
IC S
ropol itan
ĠV oice
ph ere
em ption
AT URE
Ġcool ing
O bserv
Ġre lying
av al
C amp
ik h
Ġh ire
Fix ture
b matrix
Ġalloc ated
ig a
am ination
ass ador
atter y
Âł Âł
Ġr anks
ell ers
Ġfall en
Add itional
Ġattempt ing
Ġd uties
ĠG ive
Cal endar
ĠR y
Access or
Ġdiscrim ination
ĠStew art
Ex it
Ã Ĺ
M ass
Ġdel ivers
ĠG A
pl ain
x FFFF
Ġpar liament
ĠPro file
19 64
Ġcur ious
P ipeline
Ġco her
ĠZ one
Ġshel ter
Ġel ite
" ?>
T ING
Ch unk
dr ag
ĠDemocr at
J O
Ġtem ple
ah a
ĠC leveland
Ġf er
="../ _
Ġenc ryption
Ġinstitut ional
Ġh ill
Separ ator
ĠA WS
ION S
ĠS oul
Ġbar rier
Ġexperi encing
ĠM is
ĠIn fo
ĠBr un
Ġd x
ĠB oot
Ġanticip ated
ill o
eth yl
Ġin fect
Ġvacc inated
qu estion
Ġas c
R uss
Ġdecl ined
Ġcapt ain
]( #
est ing
om i
ĠSimilar ly
Tr igger
Ġro ster
Ġplace ment
Ġemploy er
ĠS yn
Ġpoint ing
/ (
Ġhand les
gover nor
ĠEnter prise
ST ART
Ġin struct
ĠTest s
ĠĠ čĊ
Ġl umin
Ġcompet ing
ver e
ĠY ang
Ġtow er
Ġbut tons
Tr ump
z ing
` :
ĠF alls
N umer
ĠS ent
ro se
ĠN BC
project s
Ġcomp iled
Ġorder ing
Ã ª
Ġatt ach
Ġfol k
S eq
s chool
com fort
}{ |
D isk
tool bar
ul o
for ced
ant i
ĠCre ated
Ġform ats
Ġa uction
Ġpre view
Code c
) ?
Ġbelief s
Ġ} ).
Ġblock ed
b undle
ĠS K
7 50
Ġrepl acing
View Controller
ĠBuff alo
(" .
Ġlab our
Ġs urre
text ure
ord ination
ĠL ocation
CH AR
ri ors
Ġco aches
36 5
ĠG raham
ĠE le
ens on
D ry
H P
ound ing
Ġr ab
Ġen code
Ġat oms
H ot
Ġrun ner
Ġsh oes
Ġt ons
k ed
il itation
Constr aints
Ġtri ps
Int Literal
sequ ently
d td
L com
Trans lation
op am
Ġtox ic
ĠG ill
olog ically
ĠCor ps
ĠF riends
ct rl
Pro du
Ġfoot age
se ctions
ĠLabor atory
m art
ĠStat istics
depend encies
process or
Reg istration
Ġstep ped
ĠB ORDER
Ġjud gment
Ġproduct ivity
itu ency
it ual
ĠOr th
100 00
Ġhom eless
Ġrank ing
ĠE SP
Com b
ĠC ars
ĠDis play
Ġstr iking
Ġbel oved
Ġcar rier
respons ive
Ġap pl
ĠArch ive
ĠC row
Ġa qu
Ġcitiz en
umbn ail
w br
Ġth rew
Ġs ons
)\ ,
L IB
Ġvolunte er
Ġcompos er
des cribe
3 000
us hes
ĠAn imal
Ġdefault s
ib ling
cs v
st ri
Ġsm oking
ĠĠĠĠĠĠĠĠĠĠĠĠĠĠĠĠĠĠĠĠĠĠĠĠĠĠĠĠĠĠĠĠ ĠĠĠĠĠĠĠĠĠĠĠĠĠĠĠĠĠĠĠ
Ġf oo
Ġch amber
ĠS ony
cam el
Ġ" );
ĠT ro
Ġreg istry
F etch
ĠT YPE
ĠAdmin istr
Ġfail ing
ĠĠĠĠ čĊ
en o
ĠCamp bell
Ġcontrovers ial
L at
Ġs hed
Ġgold en
Å ¾
ĠB rew
it ical
tog ether
se en
Ġis ot
Ġcreat ivity
Ġembed ding
Ġper pet
Ġderiv ative
Ġline up
N AS
Ġres idual
U ntil
Ġw elfare
ĠVer ify
Ġpet ition
ĠCons umer
ĠBi ology
O cc
Ġs ig
db c
b oth
\\ \\
ĠL isa
ĠTechn ical
tribut ions
Ġst ub
ĠAb u
in ject
Ġsynt ax
Ġvis itor
ĠA thlet
EV ENT
Ġhe aling
E LEMENT
in fl
Ġbond s
N U
ĠGover n
cover ed
b led
ĠNE W
ĠDub ai
Ġver ified
Ġhor izon
Ġthreat ened
SS AGE
ĠR A
ĠR achel
ĠAl bum
ĠInter view
Ġper ception
Ġh unting
O G
ep age
Ġaff airs
set Attribute
atern al
ĠÐ ´
int age
it ations
id ad
oc on
In jection
Ġconfig urations
ĠB ond
Ġpost ing
Oper and
Ġactiv ists
aus es
ph an
d ue
mut ex
Ġ" )
par allel
ubern etes
ĠSt ev
n ik
com par
ĠGu y
row Color
Ġw rest
Ġsu ck
Ġf ate
Ġgrow s
Ġalleged ly
Ġn ick
ĠB uck
Ġform ing
St age
ag ine
andid ate
}( {\
Ġcert ified
Ġh orses
C V
Ġse eds
Function s
2 10
Mark er
ĠSt yle
Ġparticip ated
id y
Ġdeploy ed
ext ensions
Ġclass room
Ġb rew
ĠK rist
back end
Ġrest art
Ġengine ers
Ġmist akes
us age
ĠPr imary
Ġpr icing
Ġcreat or
ul ly
Ġdro ps
ĠHistor ical
t one
SUC CESS
R ay
Ġdim ensional
Ġg am
iv an
Bl ob
ĠTreat ment
re ck
dd ie
path y
ĠGL enum
Ġaug ment
ĠPal ace
ĠMur ray
Ġ/ ><
is y
man ifest
ul ent
p ending
Ġrefer ring
Ġder ive
ĠT ar
ĠC PU
Ġvar ied
ĠMet ro
Ġsp ell
Ġconnect ivity
Ġcloud s
Ġcan onical
Ġaccess ed
Ġspecial ist
int o
Ġe ager
Ġsh ifts
50 9
Ġheart s
Im ages
ĠC ut
ith metic
ĠCom plete
Oper ations
Ġcomp ounds
Ġg ross
Ġexpl ored
Ġle ak
+ "
cl i
Ġcomp elling
Ġcontribut ing
Ġg it
iev al
Ġdiam eter
Ġfrequ encies
Ġisol ation
s it
Ġad equate
Ġen zym
Th ose
ĠS Y
add le
Ġt anks
Ġconfig ure
Ġther ap
Ġminor ity
Ġchair man
ĠD IS
Ġregard ed
Ġl iber
Ġli ability
ĠSever al
Ġk iller
ĠMiss issippi
ĠMex ican
Ġcond em
ĠN elson
Le ave
V EL
sc an
Ġtrans f
Ġtrans parency
ĠBar bara
g ly
Ġtri ple
ĠTH IS
s ent
ĠChar acter
c ence
arg v
t ed
Ġ* ,
Ġpr ide
grad ed
Ġsur ge
Ġexpect ation
Ġst om
ĠH unt
and ed
Ġclean ing
w ear
â Ķ
Ġs ne
ĠV R
ĠFil ter
( `
Ġelim inate
Â «
G IN
T ip
S B
Ġpubl isher
Ġt ired
Ġquant ities
' },
Ġconv in
ĠL ore
iz ar
Q ual
ĠKenn edy
Ġbenef icial
new command
Ġefficient ly
Ġlegend ary
Ġs its
Ġl in
Ġcour age
jb oss
RO OT
Ġabund ance
iss on
Pe er
ĠP ap
in ery
he ld
Ġinvestig ations
Ġfor um
ĠF ish
T or
b usiness
i ating
r h
Ġin coming
inter pret
olec ular
ĠIllegal ArgumentException
ĠL uke
orne ys
ĠProgram s
Ġexpect s
Ġla unches
SPAC ING
t ility
with out
C redit
Ġ" #
Ġcomp ly
Ġend if
ĠW ard
ĠA ch
Ġpy thon
Ġre n
ari ance
eg u
Ġharm ony
ĠSus an
Ġf ool
IT H
id ity
ĠAgricult ure
Un iform
av ery
ĠK night
ist ol
Ġthrow ing
Ġde emed
ah oo
Ġd ash
ĠU SE
Ġtim er
ĠE ST
ĠCour se
gu ard
m or
Ġb ab
um ing
Ġdemonstr ates
Ġden oted
: &
> `
ĠC ou
ĠK ay
shall er
G old
faster xml
Ġan onymous
Ġ$ ('#
ass ion
Ġmem brane
Ġwh is
ĠZ ero
W ords
ĠE DT
ĠE u
all ing
Ġauthor ized
="@ +
ĠN ag
e i
ĠT ower
Ġless on
Z oom
ĠColl ins
Ġnot ing
ĠEn try
F ill
ĠMon itor
Ġgent le
z oom
art z
ĠMalays ia
J P
Ġac oustic
... ]
Ġsoc cer
ud o
oll ar
ĠGr ace
x it
Ġp reference
Ġpro to
Ġdet er
ĠH ousing
Ġenjoy ing
Î º
æ Ĺ
Ġch icken
ĠK ir
Ġeth nic
ess ing
AR GET
ĠResp ond
C trl
i q
PL ICATION
Ġmeas uring
Ġ" _
Ġgenu ine
Ġr c
ĠInd ies
ĠRest aur
Ġtrans itions
ock ets
Pay ment
pro c
Ġret ro
igh bor
Ġmetab ol
Ġd rew
Ġsuggest ions
sect s
sc ience
Re place
al ink
cam era
Ġdef ence
14 5
sub string
je ctions
ĠN intendo
ĠG ulf
Ġegg s
b ie
Ġcoach ing
Ġ" ;
Ġst adium
Ġdep ict
ĠWeek ly
sche mas
ĠW ire
Ġintrodu cing
L atest
h bar
Ġaggreg ate
ĠUn iverse
add er
Ġstop ping
Ġlook up
ĠCon struction
Top ic
ĠF ederation
ĠTh ink
et c
Ġanc est
itt ers
ĠMar c
Ġbott le
S us
Ġgrad ually
Ear ly
ordin ator
com merce
Ġrock s
an ia
olog ic
ĠG MT
Ġtest im
Ġcomp ile
ĠF ern
Ġd oses
Serial ization
ĠC old
Comp are
pan ic
aw t
Ex press
con g
ĠR ES
Ġdev iation
ĠS SL
] ),
Ġsub tle
block s
WR ITE
te le
Ġfl ower
ĠW W
Ġdes k
Ġb reat
Ġop ponent
ĠL yn
f uture
av an
Ġ( `
s ized
ĠS ER
ĠDC HECK
ĠFant asy
ĠM os
ĠTik Tok
P eter
cel ona
y our
Direct or
Ġst olen
Ġencour aging
ev a
D igital
W alk
t ot
ĠJ u
ĠDet erm
ap or
Ġ$ |\
Un ique
but tons
alt ies
C AP
---- ---
Ġsusp ension
ĠB irth
ĠCom plex
Ġtr ivial
ĠH erm
Ñ ħ
Ġexp ense
ĠV ancouver
r and
St ation
ĠTo o
L ines
inal s
ĠCap itol
In vest
FN GL
ate ur
Ġj unior
ĠWar ren
Ġdro ve
Ġb orders
File Path
ĠP un
ĠGL int
ect ive
Ġre open
Ġ\ (\
Ġprint ing
J ournal
Ġgr avit
Ġtr ains
dat aset
Ġg ray
car bon
An notations
Ġcomp ression
ĠN ep
âĢ¦ âĢ¦
uff icient
fr astructure
Ġwis dom
Ġm art
ab i
Ġrecon struction
ĠF ixed
ĠUn c
bo ards
ç »
Ġexpl ores
Ġaccompl ish
Ġbur ied
ĠPhys ical
ĠUs ers
Ġdepart ments
hell o
ĠL ux
ĠG ray
ic he
enn ial
h is
Ġinter vals
ĠParam eters
Ġt une
Ġcomb ining
Ar rays
Ġbo ards
the mes
ĠRef orm
ĠCELL PADDING
s amples
p k
ĠCELL SPACING
P ending
ĠJ obs
Ġmag ical
Ġm ature
ĠP si
e ing
ĠCon vention
ĠMod al
Ġrender ing
99 9
est ock
ogn ition
ĠSum mit
Mult iple
19 66
ĠL ost
hed ral
ĠBo ys
Writ ten
Ġex cluded
stream ing
ĠB R
ĠV ision
ĠEm ily
Ġenorm ous
ĠP resent
um ble
ĠEconom y
. (
ob i
ĠSE C
å ¯
ĠN i
ĠMit chell
ĠRog er
en z
Ġm unicipal
All ow
Ġ/* !
Ġsecre ts
draw able
Ġne arest
B ill
00 5
17 5
Ġr outer
ern ate
ĠCommission er
ĠÐ ¾
Ġp ipe
Ġher oes
Publ isher
ĠF ro
ĠEx cell
ĠAl bert
Ġcompl aints
2 25
gener ic
p aces
12 9
Ġt ent
Ġc a
ation ally
ĠEvery one
Ġhot els
Ġhum or
L and
ĠBroad way
l r
ĠPark er
Ġdead ly
ir able
ĠLet ter
Ġoccasion ally
pack ages
Ġdistingu ish
ĠLiter ature
hat tan
ĠAb d
ĠD ublin
Ġhand ed
Ġl ymph
Ġsome body
ĠCom b
Ġprior it
Ġhe lic
ĠAn alytics
W ARN
Ġdist ances
ĠF riend
ipher al
ĠC ass
l it
ĠA bs
ĠIn cre
sm art
Ġdecom position
Ġreal m
Ġa ux
ĠInitial ize
um ed
19 0
ĠC raig
ĠAssoci ate
ĠMe et
ĠTh an
O W
Ġbl ast
Ġback ed
ĠEv ans
Ġrecommend ation
h ai
uff le
ĠCon st
af ka
Ġc url
ĠComp anies
Ġachiev ing
ĠMed ic
Com ponents
E duc
Y eah
Ġg rap
ĠObserv able
over flow
D ao
app ings
T en
Ġem br
ĠSpe aker
work er
Ġtrigger ed
ĠRob in
ĠP ad
ĠH end
App ly
Ġc rown
ĠO scar
Ġjud ges
Ġsmall est
Ġvac uum
U UID
Ġb lo
ĠTransport ation
Ġex pr
Ġtraject ory
qu et
o ys
è ¡
Ġwork flow
Ġnon linear
. ")
ĠG ET
effect ive
W omen
Ġprot otype
ĠB aby
yg on
R adius
ĠCON DITION
Ġstr ikes
co res
ĠCommun ication
Ġforg otten
c ient
ĠF ocus
Ġtrem end
m other
flu id
GL enum
D ict
H I
Ġh iring
Ġmand atory
Ġauthent ic
Ġchem istry
w oman
ĠNO TE
e ast
Ġdes erve
FORM AT
ĠM aine
em et
Ġhe x
Ġs olved
Ġf o
Ġdeterm ines
ĠMuslim s
i ang
Ġpers istent
Ġlocal ized
T L
orient ed
Ġcollect ing
Ð¾ ÑĢ
Ġcl ause
act ors
V R
Fr ont
Ã¼ r
ĠB ou
um m
Ġp iv
to Equal
ĠA str
Str ucture
ð Ŀ
Ġim posed
qu ake
Ġt ub
Mer ge
ĠEag les
ed ing
Ġev olved
Ġop ponents
Ġper ceived
Ġdes ktop
us k
Dan iel
Ġr ice
V ote
Ġinvent ory
Ġarr anged
in itions
j ournal
16 8
Ġperiod ic
Ġsh ame
the ad
ĠSh ah
MS G
care t
12 6
Ġwond ering
Ġt ear
Ġw age
ĠW riter
preced ented
Ġportr ait
Ġrecip ient
$ ),
M a
m ag
op acity
Ġobt aining
ĠCar ibbean
ĠP sy
serv let
ĠIndust rial
am ents
ĠS ays
Ġdam aged
ĠSam uel
Ġl obby
ĠS S
Ġvess el
é Ģ
Ġpo ison
ĠResp ons
ĠBalt imore
ĠC ache
sc opy
Ġlabel ed
å Ľ
Fr iday
ĠRE G
Ġnerv ous
ab ad
Ġr hs
Block s
\ !
pl aced
Ġworld s
ĠK a
look up
ĠM aj
S ets
tr ait
b ounds
__ ["
Ġabsor ption
Ġoverwhel ming
Ġoccup ied
Ġde put
ĠCor porate
SD K
ĠRE AD
Ġener gies
Ġgr ain
ĠS ure
Ġport al
Ġess ay
Ġinvestig ating
ik o
Ass ign
ĠPart ner
custom er
ĠS B
Str ip
Ġqu otes
ĠPart icip
Ġprom oted
Ġown s
ĠZ imbabwe
. ).
ĠT s
Ġjournal ism
ĠY eah
ep per
> [
Fil ed
Ġs ake
Ġcom ics
Î ³
Path s
ĠR and
Ġforest s
i ota
Ġtw ist
Ġrenew able
Ġse am
CO UNT
Ch apter
Ġcorrespond ence
Ġinflu ences
ass es
Ġdet ector
ent ries
ac ial
Ġadv ised
Ġen semble
ĠWay ne
task s
ĠForm at
Ġb ases
O s
ĠRequ ired
Ġabs ent
ĠWith in
ĠAdd ed
attr s
mod ifier
11 11
art icles
Ġpartnership s
et r
Ġextr action
Pop up
Sur face
Lin q
N F
/ #
Ġprogress ion
En tries
Ġcollabor ative
Ġg ym
Dest ination
Ġgeneral ized
Ġnation wide
Ġf t
Ġqu ot
Ġtra uma
urch ase
ĠExt ension
ĠBat man
ĠR aw
Ġar ise
Ġpray er
Ġr hythm
Ġspeed s
Ġannoun ces
Ġem brace
f ight
Ġeth ical
M esh
Ġir re
N or
x sd
ĠM R
Ġco hort
tra its
ac ious
plement ed
ĠRem ember
H int
S ent
Ġpre lim
Ġmut ual
ancell ationToken
t ile
ĠM enu
ĠR NA
Ġind ent
] ['
RE Q
f ar
Ġbet ting
deg ree
Dest roy
d elegate
Ġt ears
Ġfound ing
Ġspec ification
Ġsph ere
ĠBe ijing
Pay load
power ed
tikz picture
s ame
ĠG host
Ġapprox imate
ĠH il
ĠA x
cipl inary
Ġtechn ological
ĠS ad
; %
Ġachiev ement
us c
Ġche ese
ĠZ hang
ĠSw iss
ex clude
sl ider
Ġme als
BU ILD
Ġle ver
Ġindic ator
se gment
Class Name
ĠCh arg
Al t
Ġdocument ed
Ġra ises
Ġcry st
P s
Ñ Ī
Ġimag ination
Ġbehavi ors
$ };
ĠD eg
Ġdraw s
ĠJ oint
Ġsurve ys
EN C
ĠEx hib
Ġful fill
ĠS creen
ever y
ĠJ azz
ĠArchitect ure
ĠC ategory
Ġalleg ations
Ġsup press
× ª
Ġconf used
ĠĠĠĠĠĠĠĠĠĠĠĠĠĠĠĠĠĠĠĠĠĠĠĠĠĠĠĠĠĠĠĠ ĠĠĠĠĠĠĠĠĠ
Ġtun nel
ĠM aking
ĠC er
Ġsign aling
Ġmer ch
Second s
am ilies
d eveloper
h ind
ik er
Ġprof ound
' =>
Ġconf usion
Ġb other
Ġsynt hesis
ĠR ing
J apan
ĠDep uty
Ġcrit ics
Ġcur riculum
cond itions
Ġm as
ke ley
: =
A UTH
Ġl os
Ġdiscuss ing
sl ash
Ġh anging
Ġaltern atives
Data Source
C art
ĠTr uth
ĠSt ein
Ġdesign ers
ĠP eters
ene z
Ġeffic acy
ĠDak ota
Ġdo zens
Ex cel
j ud
Load ed
ĠMin or
ow ell
Ġal igned
Ġhead quarters
dir name
br anch
_ -
) })
nos cript
S ig
2 60
Ã ĥ
Ġpick ing
ĠDou glas
reg istry
Ref lection
Ġinn ings
m icrosoft
F ar
27 0
Ġtem pl
Ap pe
st orm
Ġob s
ĠB OTTOM
ĠCONDITION S
) -\
ĠHawai i
Particip ant
Ġhe ating
l ists
Ġdist ant
Ġroll ed
Bit map
ab ul
Ð ±
Ġr h
Ġaccur ately
ĠOp port
t ake
âĢ ²
Ġg rey
ĠConnect icut
Ġc ig
ethe less
G raphics
+ -
Ġspect acular
Ġexpect ing
ĠVal ues
Ġappear ances
ĠPit tsburgh
U int
al ph
ref lect
Ġb anned
Ġdrink s
Ġmin istry
Ġs i
Ġn ested
ĠAdvent ure
ĠJ a
ĠString Builder
P an
Ġp ocket
Ġres ume
ro b
P icker
ĠDev ice
Check ed
ĠNor way
Ġt ile
Ġfin ancing
t elling
ol ate
oc o
AB ILITY
bel ow
ĠHig her
ish a
ĠCam eron
Ġth irty
> )</
ĠBr ain
SER VER
H AND
Ġcomp ilation
Ġswim ming
Ġball s
ĠSpr ings
og ue
ĠJim my
ĠD ir
isecond s
Ġt ends
ĠEm ma
f m
Ġm ere
bar rass
s creens
G uid
Ġor b
Ġf usion
Ġdifficult ies
ĠâĢ º
Ġbal anced
as ive
oxy gen
Ġund ers
Status Code
Ġunder ground
m outh
ĠF actory
mal ink
phab et
ĠTh row
Ġsec ured
initial ize
Ref resh
ĠB right
ĠTh or
order ed
L ove
ĠStr uct
RE AM
: %
âĢĶ âĢĶ
ant ics
Ġlaunch ing
ĠUnivers al
Conf irm
ĠW R
ĠK ap
ĠN ap
M ad
Ġl oving
- ">
Ġweak ness
ĠI o
Ġ< ?
19 63
Lower Case
Ġpers pectives
ĠAt tribute
pre view
ĠSet tings
" </
k le
Î ²
am ic
ĠP in
com ments
Ġin duction
Ġb om
ey er
=- =-
u ant
ĠCD C
Ġscript s
() [
Ġsecret ary
ĠM oz
v ature
f un
ãģ ®
ĠHealth care
à¤ ¿
vis ibility
Ġsatisf action
Ġgr an
ĠĠĠĠĠĠĠĠĠĠĠĠĠĠĠĠĠĠĠĠĠĠĠĠĠĠĠĠĠĠĠĠ ĠĠĠĠĠĠĠĠ
Sl ice
Ġc yl
Ġdesc end
ĠC B
ĠPat ients
Ġencounter ed
Ġscholar ship
! =
P K
C ookie
ĠIn j
Ġg aps
Ġto String
il inx
Ġf illing
ig ating
IC AL
Ġcont rolling
OB JECT
De ep
ĠM i
ĠEl se
ĠCom ics
Ġdir ty
ĠC ert
ĠEth iop
ĠAct ivity
ĠChar lotte
Ġoblig ations
ĠMur phy
m ust
ĠOlymp ics
B road
Ġarrang ements
Ġcoast al
Ġshift ed
iv ic
add y
att ach
)) $
ced es
An chor
cast le
ĠBAS IS
Ġun clear
Ġcell ular
Ġde ar
Ġj oke
ĠWal ter
Ġsh r
Ġinteg rate
S UP
es cape
gr pc
ĠFr amework
ĠSu ite
ĠA y
inc ipal
Ġ Ø§ÙĦ
Ġe a
Ġwind s
__ .
Ġcon vey
ĠCol on
ĠIn n
' ):
Ġfast est
ĠJun ior
Ġcount ies
R adio
Ġmay or
Ġaud it
}$ )
work ing
Ġr amp
ER Y
Ġmax imal
ĠCh amber
Ġsl ip
Off ice
Ġconvin ced
od ium
ĠV ert
Subs cription
d iction
N ING
Ġs ink
ĠI MP
h op
F ast
mac ro
Ġfriend ship
Ġdepart ure
Ġf ed
ĠM ove
ĠC ultural
cri bers
ĠW onder
Ġt ick
Ġp ad
F un
Ġpract ition
g reat
ĠCr iminal
aught ers
aus ed
Ġstrugg les
ĠR oot
19 45
Ġpresent ing
ĠA w
se p
Ġann ually
T ax
Ġb il
Ġle mma
Ġcontact s
ĠM all
ĠN urs
ĠMar ie
Ġin comp
Ġre hab
Ġb ags
et e
ov ic
M or
ĠS afe
Ġprior ities
Mill is
Ġfund ra
P adding
ĠH P
14 7
Ġcross ed
ĠTre as
, </
Ġlocal e
riev ed
f avicon
16 9
Qu estion
Custom er
r isk
M ike
Ġdev oted
v art
Ġhand ful
roll ment
ENT S
Ġincorpor ated
D ist
Ke ep
Ġaltern ate
ĠI M
Ġdis rupt
ĠCond itions
)-- (
Ġelev ated
Ġ æ
ĠPos ition
IN DEX
res olution
In ject
Ġint elligent
ĠPer iod
rep resent
ĠAss essment
ern ess
ex act
Ġresp iratory
ĠF ashion
Ġrem arks
TR A
ess a
19 62
Ġdecre ases
est y
member NameLink
="# "
ĠMet al
_ [
b ast
Ġart work
Reduce Action
Ġcons olid
Ġball ot
ĠTre k
qu o
first row
m ime
Ġlong est
loc als
Ġman ually
ex tract
Ġoffer ings
ĠY u
Ġ" +
ĠK o
Ġfil ing
Ġmed ic
NG TH
ĠZ e
ah n
C SS
fer ences
h aw
se ek
Ġmot ivated
ĠSur v
ĠTurk ish
//////////////////////////////// ////////////////////////////////
Ass ignment
Ġpl ots
() ]
ĠGi ants
S i
Ġsophistic ated
aged y
P ref
Ġhol idays
ĠT it
ÃŃ a
@ {
Ġconsult ation
B log
ele b
Ġd ancing
Ġ( <
Ġman ifold
ĠP f
}} )
M ir
Ġsus pected
Ġdemand ing
c ached
ad apter
Ġactiv ated
Ġdis tribute
Ġann oy
ĠNY C
ĠE asy
ug by
Ġbelong ing
f requency
ĠPre vention
Ġpack aging
hash Code
Ġinvest or
Up per
h aus
ĠQu ick
Ġis lands
ĠCon struct
Ġreli ability
Ġbl end
Ġneg lig
Ġv ec
| }{
G G
ĠW inn
ĠTh r
$ ~
dis k
Ġcontr ary
Ġcomment ary
Ġle verage
Ġsh ield
Ġcons iders
Ġinc idence
Ġsort s
J on
ĠPr incess
ipp et
h w
Ġwarn ings
ĠIniti ative
xFFFF FFFF
ĠP oss
Ch at
Ġcare ers
or ange
C s
Ġv ig
Ġtrans cript
N ever
Ġdark ness
Q t
r ant
ĠM T
Ġ} ),
Ġtrad itions
ĠC helsea
ĠGr am
ex isting
Ġ// -->
Ġinter rupt
-------------------------------- ----------------
Cred entials
Ġpre st
Ġex ec
Ġc ere
ĠS even
ĠP ic
non atomic
Ġrent al
ĠB enn
Ġdi agonal
Scal ar
met rics
Get ty
Ġj ury
ĠYO U
g ie
ĠCare er
Ġs our
Ġair line
land o
cp u
Ġprov es
Ġinterpret ed
Ġe uro
Sche me
u art
ĠC ertificate
CL U
Ġcon spiracy
ĠIP v
Ġaccompl ished
Ġd ip
More over
h p
Ġtw elve
ĠCurrent ly
Back end
Ġt s
Ġcount ing
Ġa apt
Sh adow
S ources
g iving
n able
ä¸ Ń
Ġin aug
15 5
ĠCl ar
Ġh ockey
ĠQu arter
em en
Ġz ones
ch rome
c op
ĠN HL
ĠO thers
n x
Ġcontinu ously
ĠK ath
over lay
ig gers
Ġinv ite
^* $
Ġfear s
K W
Ġd ub
text color
bal ance
Ġc od
Ġbuy ers
Ġd ated
ĠN J
Az ure
H ouse
Ġ} {
y aml
fig ures
Ġconflic ts
Ġad oles
J im
F und
H uman
Ġ" [
pack et
ĠAr c
D epend
ĠCr icket
Ġal ike
An aly
Ġt ape
en ium
IN IT
Qu ick
str uctions
Ġconscious ness
ĠC V
ĠAl aska
R eq
ext ype
Ġrem ind
spect or
ĠB eth
Ar r
Ġsim ulated
fil er
ĠN ord
Ġt f
Ġste ep
sh ots
ĠTE ST
c py
Ġfin ishing
STR UCT
E U
h ole
ĠTy ler
ĠS ymbol
ĠD raft
Ġnew est
ĠCon vers
+ (
R IGHT
Ġpreval ence
ĠBen jamin
multi row
ĠL anc
Ġres ign
Spr ing
ĠCON FIG
Us ed
ĠAz ure
E O
ĠPro b
ĉĉĉĉĉĉĉĉ ĉĉĉĉ
ĠL ex
Ġang les
ĠSche dule
A h
ĠA CT
Ġblock ing
TE GER
Ġover r
ĠL arry
Ġmet aph
sp ark
Ġs au
ĠAn al
ĠAcad emic
H ER
L F
ĠM ol
Ġcond itional
\ }$.
Ġcor rupt
in ion
ĉĉ Ġ
Ġcon gress
Ġnon profit
ĠF M
==== =
im mer
) }_{
ĠPlay ers
Ġrev ised
Ġfl our
ĠCar bon
ĠH AL
Ġvac ation
Ġun e
Ġprof its
FUN CTION
urren cies
E s
ĠAd vert
Ġd y
ĠA irlines
Ex tract
Ġintr ig
---- -
$ :
Ġrev ision
H ey
Ġle ase
ĠÎ ±
Ġout s
Ġu pt
ĠFor ces
iz ational
ge ometry
ĠMe chan
UP DATE
ĠC atalog
Ġsust ained
ĠCo ach
Ġj ack
Ġassoci ations
Ġre vel
ced ure
ĠCom mercial
AT T
T ele
dem o
FT WARE
Ġcomb inations
Ġestabl ishing
ĠB illy
O ffic
sc apes
Ġall ies
Ġcert ification
sp i
Ġsp arse
as ia
ĠFl ash
Ġoper a
asc ade
Sm art
s yn
Ġc inema
ĠH ind
ĠElement ary
d ump
Ġ/** <
ĠCirc uit
Ġp ink
Stack Trace
... "
ĠCru z
Call ed
'] ))
m is
anc ies
ot or
L ab
Ġman ages
N OS
Ġcon ce
sl ant
Ġto gg
Ġinitial ized
Ġfeed ing
ĠT ags
ĠInt o
Ġroy al
ĠK ill
Ġdis pute
Ġeditor ial
AA AA
Ġt ours
en ario
Ġg ifts
Ġappro ached
? </
tr aining
emet ery
Ġsynchron ized
Ġcomplet ing
× Ķ
L T
Ġcou ples
}{ (
Ġcompos ite
ick y
ĠFrank lin
Ġinter ference
umb ai
Ġf ossil
bor ne
D ash
In clude
/ '
Ġat tributed
16 5
ĠP i
Ġhe aven
H aving
ĠA ld
act iv
ĠT un
Ġcom ed
Subs cribe
ĠT yp
ĠB A
v ance
Ġup set
Ġdes cent
ist le
ĠIss ues
Ġint ens
p riority
ul er
Ġreport ers
end region
ad ic
Ġveter ans
ĠLeg isl
oc ate
ĠJer ry
id ency
sh arp
parent Node
sign al
per mission
Ġphil osoph
ĠComp etition
Ġcann abis
udd y
] <
Per cent
Ġcir cles
ĠB ound
Ġbe ings
"> &#
ĠRem ote
LO B
ĠR ate
13 6
Ġm akers
Ġentert aining
F ake
st roke
Ġd w
Ġrel ate
For ward
33 3
Beh av
n pm
Ġdon ations
ential ly
ib e
Ġpull ing
Ġlegit imate
ĠE M
Ġar row
subs cription
Ġcreat ures
Ġbe ating
= .
dis tribution
qu ire
ĠF ried
Ġmethod ology
Ġdel icious
default s
Ġelder ly
ch ing
qu arter
Ġinter pol
c ategories
ĠV el
) &
ili ary
pos itive
uct ive
Al gorithm
Ġch aos
Ġarrang ement
Whe ther
W C
ĠLa unch
Ġw avelength
Ġhapp iness
Ġd s
append Child
ĠE ve
ĠMan ufact
ĠC ash
Ġimpact ed
ĠM ode
uc le
Ġke en
Ġf ires
ĠH app
ĠArgent ina
d ensity
P ing
30 4
Ġs ail
Ġre ception
avor ite
met ric
Ġm arch
Ġ Ã©
p ipeline
ĠL ower
Ġadvoc ate
Vis itor
ĠR PC
Ġch arts
ĠV erm
Request s
ĠW u
ĠP rior
Ġas h
Stat istics
Ġoverl ap
ĠB ear
Ġgu ided
Ġcos m
r age
Ġdis closure
und les
Ġep och
å ¼
Ġag rees
Ġdiagn osed
INST ANCE
Ġ ì
ĠS TR
Ġqu oted
Ġscient ist
W arnings
ĠT ell
Valid ate
ĠP ain
Ġw ishes
ach ers
render er
Ġtrib ute
ass y
ĠF ace
W ater
Ġel abor
B ay
k now
ĠTurn er
Ġlapt op
Ġpart ly
std lib
Ġpseud o
Ġelement ary
? (
at ype
M ur
ĠZ end
M ag
ĠP anel
CE PT
unt ary
Ġsurg ical
Ġch ron
Ġan ime
ĠE ye
ul atory
Ġclin ic
ed a
ĠBase ball
,\ ,\
Re ceive
Ġg em
ĠH erald
au nd
sc opic
ĠAc cept
C y
Ġpro pri
Ġtruck s
Ġpaint ings
Ġun fold
Ġcol leges
Ġmark ers
Sl ot
Ġun precedented
ent o
Ġcru ise
ME SSAGE
Ġap olog
Vis ibility
Ġr ush
ust ers
ĠCons ervation
Ġkne e
script size
Ġconj unction
Ð¾Ð ´
9 78
Ġinter faces
Ġbi om
Ġdescript ions
Ġadv ances
com ed
iss ance
å Į
{ },
per formance
ma jor
K ernel
ĠS ud
is ot
Ġb uck
ĠIn side
Ġinc idents
Ġp ip
Ġback ing
Ġ"- //
Ġcreat ors
unt ed
St ill
ĠF ine
od ox
BY TE
is co
13 2
F ROM
gr ay
sec ure
go og
ac re
Key word
Ġmon ster
as ide
ĠMov ement
R outer
vert ed
Ġnurs ing
ĠS ox
Ġsh ore
19 61
ĠQu estions
Ġsch olars
Ġtra its
H ex
em ploy
Ġr m
^^ ^^
we ak
Ġinvest ed
DO CK
ĠD ie
Ġcor related
Ġther apeutic
ĠCon cert
Ġutil ize
Ġprogram mes
ĠS yntax
ĠT ips
Ġimpress ed
it ants
ĠSwed ish
ĠK yle
}} _{\
EN S
size i
it ud
om o
ĉĉĉĉĉĉ Ċ
if rame
Ġpaint ed
Ġsc ar
Ġlegisl ative
b ecause
t uple
Gener ate
ĠU nd
c art
ug ged
sem bl
econom ic
Ġp uls
Ġgr am
Ġp ulse
13 3
ĠCost a
ĠN ad
W D
ĠG olf
ind ices
Com pletion
Can vas
Ġgl uc
Back up
B re
Ġpath ways
Ġrat ios
re ply
Ġrac ist
ĠR acing
Ge orge
Ġmount ed
ĠSw ift
un ger
ast ro
ĠDis covery
Ġtele phone
}} .
Th ough
pos er
column width
Fore ign
ĠPlan et
found er
r v
Ġsum m
Ġbar rel
Rich ard
bo ys
Ġprevent ing
La unch
Su ite
Ġm apped
c rypto
Not es
ĠG PU
Ġpo ems
ass et
ĠCh ampions
Ġexcit ement
13 4
Ġreson ance
F M
L ess
f ive
M ajor
akes pe
ĠArt ist
Ġimmigr ants
ĠCh anges
we alth
Trans fer
20 5
H i
L arge
Ġext ending
consc ious
Ġl azy
Ġminim ize
" }
Ġcontain ers
ok u
Comp any
I FI
ĠP ope
Own Property
ĠM ason
Ġo c
Ġform ulation
R ock
product s
pro port
Ġempir ical
Ġal i
Ġhold er
Ġvol tage
Ġautom ation
part ition
R GB
Ġexp ed
Ġmet all
TEXT URE
} "/>
ĠB os
Ġprelim inary
Ġst y
her o
Ġproceed ings
dest ination
ĠCz ech
ĠStr ong
Ġintrodu ces
Ġc ats
Ġcomp atibility
ĠUn like
ĠMan hattan
Ġcomm ut
er ver
ĠWik ipedia
ĠB udget
Ġremember ed
Ġactiv ist
Ġloc als
l b
w eg
prec ision
Y P
s z
ĠP AR
r ator
R oom
att en
ĠMad rid
N orm
ĠStand ards
Ġrest ored
in burgh
B ank
; ,
Ġconduct ing
AP PLICATION
v d
U Int
ire ments
15 2
std err
ĠDen mark
ĠRod r
inc ial
C ert
ĠW a
iv ari
ĠMont real
b ling
Ġcall er
ĠJohn ny
Ġnetwork ing
ane an
ĠArt icles
Ġinsp ire
Ġ' ')
Ġsim plicity
ĠEx amples
int f
ĠMad ison
ĠGuard ian
ĠC arn
serial ize
ĠW r
Ġpl ates
ĠBelg ium
un iform
Ġdat etime
inv oke
ĠNew ton
Ġe ars
um bs
IR T
Ð¸ Ñı
ĠProject s
ĠFl ow
Ġsan ctions
erm ark
Ġdec ides
> ()</
Ġac res
Ġint im
Ġmut ation
ĠLeg end
Ġul tra
Ġwork shops
B ag
m und
14 3
] $.
ĠB B
r x
ites pace
go al
Dec oder
ĠPer ry
ynchron ous
ĠColl abor
k ar
we ather
ĠBr anch
Fr ank
Ġqu it
ek s
cons istent
ĠK id
Ġvess els
Ġsubstant ially
B LOCK
ĠB ag
! ]
Ñ İ
Ġres c
ĠS oph
Def ined
Error Code
ĠB ot
Ġfail ures
d frac
h int
Ġr if
ĠBar celona
ĠD od
ĠN ames
Ġcompet itors
Ġcancell ed
ĠU V
Ġr itual
off ee
ĠAssoci ated
ĠA part
Ġshut down
Ġde prec
ĠBar ry
ur ring
* >(
; ]
F B
Ġmot ivation
ĠKe ith
ĠE mb
Ġem barrass
ai ro
à¥ Ģ
M el
Ġl ap
ch anging
ĠAm endment
ĠMarg aret
Ġoverse as
per m
Ġins pection
Ġr s
bet ween
ĠO THER
ĠW ant
au kee
ĠTrans action
// ----------------------------------------------------------------
Th reshold
do es
Ġcorpor ations
Ġjust ify
less sim
Ġsurv ived
Ġam bit
res olved
rit is
Ġiter ations
d evelop
g em
] $,
over ride
Ġspread ing
Ġem p
am y
Ġob server
Ph ase
ĠStan ley
to LowerCase
focus ed
Ġretail ers
Ġsubs idi
ĠUg anda
yl an
o ons
Ġp c
ĠK le
H am
Ġdiv ide
Ġfix ture
Ġint imate
GL uint
appro pri
j obs
Ġi Pad
Ġs word
Ġinv oked
First Name
Ġoccur ring
ĠBl ues
Ġin cl
ĠCont ainer
PA SS
Ġimprov es
em ics
ĠT odd
="# ">
Ġlimit ation
m any
ĠScient ific
3 30
Ġland ed
Ġsequ el
ug ht
ĠFe ed
Ġc ensus
post s
ĠR u
Ġto ll
les h
akespe are
Ġrecord ings
ri en
Ġh orm
Ġexpl aining
Ġre nown
W ire
br as
ĠF if
Ġdat abases
ãĥ ¼
S ports
s il
B ob
Ġread ily
}[ \
ĠCh at
Ġcon clusions
Ġ(! (
l ass
../../ ../
Ġplay off
Ġtr unc
og s
Ġexecut ives
Ġvill ages
Ġauthor ization
40 1
help ers
O ps
ĠPortug al
S PE
ĠM ob
gr ades
H ol
Ġs v
ĠInd ians
ĠL arge
Ġprim itive
im ag
Ġp ig
pe er
Ġox id
Ġob sc
be cca
,\ \
ĠSh a
c ook
ĠWe ather
p ublished
Ġhope fully
ĠTest ing
Å Ĥ
Ġtable t
ĠIm Gui
ordin ates
ĠEffect s
> /
ĠCon n
( []
V IS
ps hire
B ur
ia o
Util ities
Ġm a
ID ENT
L INK
ĠL atest
Att empt
Ġsett le
20 4
ro d
Mod al
ac ion
Ġrespons ibilities
Ġaccept ing
L ondon
Ġsever ity
b idden
ĠF ont
(" -
By Name
Ġtax pay
Ġuncertain ties
Ġbel t
ĠC BS
Ġmechan ics
Ġspecial ized
C AR
Last Name
ot yp
A ge
ĠT ypes
st ub
ĠL ED
Ġstruct ured
Ġtrans cription
ĠBro thers
ĠN ATO
ĠParam eter
Sub mit
Ġprotect ive
ter ed
Ġqu asi
)) \
Ġthick ness
Ġd ashed
Ġdu o
it ely
ĠR adi
Ġmed ication
T ensor
ĠPro blem
D J
FFFF FF
Ġhigh way
M ary
ug ar
up iter
Ġcle ared
F ort
ĠLi u
------------ -
ĠS TE
Ġa pt
osp el
ĠOak land
ĠB row
ĠB rowser
ad just
ĠG ay
[ [
om on
St d
ĠFil es
ĠAdvis ory
Ġc ous
Ġcas ino
Ġsevent h
ĠC HECK
part icle
size of
20 3
Ġcomb ines
ĠCal endar
Ġgr at
Ġch urches
P ac
External Project
ĠChem ical
Ġhor r
Listen ers
Ġt ong
Ġentreprene urs
d ings
ĠJ ung
window s
Ġwood en
ĠModel s
ĠMic helle
reg ex
ĠF inn
Ġshow case
Ġex clude
ĠUp dates
mem Item
q q
Ġg lyph
Ġclim b
im plementation
ĠH udson
St yles
i ator
rient ation
ĠHistor ic
Are Equal
R etry
ĠProgram me
im o
pred ict
ĠA ur
ach t
Conn ector
heim er
\ }$,
Ġparticip ant
2 15
g ary
ĠF ail
ind a
Ġa z
Ġsimilar ity
Car thy
Ġdress ed
date picker
acc ur
Ġsh aped
itro gen
Ġf iring
ĠE ld
UT O
Ġprol ifer
Ġd ivers
ad vant
Ġsk i
Ġre ign
MA G
Ġoptim ize
Ġresil ience
ĠInd ividual
13 7
Ġcle ver
en es
Ġtr ap
Ġmod ifications
Ġt ennis
Ġle ather
ĠCom merce
ĠGet ty
Ã ´
Ġ' $
Ġcelebr ating
E ast
in verse
cont rolled
ĠH alf
d ale
:: $
F IN
M iddle
Look ing
ĠF ly
ke es
15 00
âĨ Ĳ
G od
Ġbed room
Ġcom plications
F oo
Ġimport ed
ĠJess ica
Ġt orn
!! !!
c odes
Ġg orge
CE P
t un
ar ith
ĠTele vision
ĠOl iver
Ġpress ed
Ġv endors
config ure
semb led
Ġdro pping
Tr ust
++ ++
ĠNev ada
R F
i ological
Î ¯
ĠC rown
Ġin ference
cor rect
Ġp ole
Prov ince
ĠAl ong
Al ignment
Ġdel ays
Ġcent ered
Record ed
os ome
Ġn ons
Co ord
at ility
um inate
R ank
ĠK an
Ġrel ies
ĠMar io
M ont
ang les
Ġfarm ing
m icro
Ġgrad uated
H on
Ù ģ
Ġlim iting
Ġtoler ance
Å Ł
Ġmem orable
ĠD rop
Ġc argo
t bl
ĠQu estion
Act or
is ible
Ġde code
ond e
umb led
Ġweight ed
à¤ ¨
Ġt ube
ĠC rit
ĠN ormal
ĠLGBT Q
F RAME
Ġg reet
14 9
Ġr ats
Ġend orse
ĠK az
Ġsh ar
Ġanaly tical
Th ird
Ġp owder
ud s
log ic
ĠP or
ĠEqu ity
ĠJ uan
is i
Ġo h
ĠAl ert
Ġcub ic
Ġr ings
Ġrele asing
Ġent ers
t ables
Ġdiscuss es
ĠKnow ledge
S IGN
ĠC urt
Ġun safe
Ġremain der
ĠB esides
Ġfurn iture
p ared
le ad
it ime
ĠC u
Ġsub group
File System
Ġend less
FLA GS
Ġes c
ĠH at
Ġrecon struct
Ġmiss ions
Ġspec ifies
unt u
ĠH em
ĠTrans itional
ĠB ishop
ĠS ymfony
s With
I LL
Ġw are
ĠChem istry
ĠN ancy
Ġdon ation
c ery
Ġinsp iring
ĠInter face
G a
c g
Ġw ise
per or
s izing
ok ia
ĠM ak
F ive
Ġl ambda
ĠCr isis
Ġcab in
Ġsus cept
Ġun ity
ĠB L
d m
Me et
ĠP ok
] >
Ġsw ing
ĠSustain able
ĠM ix
19 59
Ġking dom
G D
Ġmer ged
Ġcompan ion
] =
th ink
Ġm others
sl f
w aukee
13 8
ĠT D
ĠH indu
int ro
rupt cy
Ġn u
un stable
Ġeval uating
Ġsk illed
T LS
â ģ
Ġphys ician
ĠG B
Ġm amm
14 6
Can ada
ymmet ry
iz a
g ather
Ġacknowled ged
Ġtag ged
Ġv ir
e ctions
T ables
ĠC ONT
comp iled
rg b
Ġcl arity
Ġp ause
Ġh ierarchy
ĠAnn ounces
At trib
Ġphot on
Ġdemocr atic
Ġlift ed
ĠIm prov
Dis abled
Ġstrugg led
Ġnegot iations
ĠB rief
NotFound Exception
K ing
ĠO m
Ġinnoc ent
Ġcomment ed
Ġ/ ></
usal em
ĠT ampa
Ġinstrument al
Ġfro zen
tr ivial
Ġhop ed
19 00
or o
list ed
Ġrandom ized
ĠOver all
Ġl ane
inc inn
er ie
ĠGl ass
ju ana
Ġattend ance
ir s
ĠD ATA
Ġtreat ing
ĠS old
ĠTool s
Ġg ut
ĠV M
13 1
Ġlaw makers
20 8
Ġge ometric
e fficient
f ee
ĠB order
Equal To
Ġsent ences
ĠPark s
ig rate
ĠG aming
ĠK irk
pos able
Ġh iding
Ġ$ ,
Ġutil ized
LO AT
Rec ent
C at
ĠK umar
Ġeth ics
mult iple
ĠMin i
Pol ice
T urn
ĠDr ag
pl aces
LE ASE
Ġsh irt
Ġres ist
Ġpres erved
Ġadminister ed
In her
Ġany body
ari juana
Ġinteg ers
at iv
Ġfoot print
Un able
ac iÃ³n
Ġrep o
Ġmusic ian
G s
Pro c
Pre view
Th omas
Ġp unch
Ġn m
Ġsh a
ĠArk ansas
Z ip
ĠGener ation
ĠTr igger
Ġsubs cribe
ion ic
NO TE
Ġprivile ge
H idden
ĠS alt
ch oice
Ġpure ly
o ct
F ace
ĠAl gorithm
Ġclick ing
Ġsm ell
S ound
Ġs isters
2 12
um per
Ġm os
Ġbul let
ĠO t
H ide
or p
ĠW ol
IS O
Ġprospect s
ĠSt ay
Ġrail way
ĠG arc
} >
re strict
Ġbatt les
mod ified
LE NGTH
Ġbre ach
ĠTrans fer
Author ization
oot ing
ĠMult iple
C ong
Ġexist ed
ĠCo hen
ĠIm per
Ġtempl ates
tribut or
Ġfilter ed
Ġambit ious
whe el
le af
inter est
ĠK i
Pr imitive
op ath
ig ion
ĠAr n
Ġf itted
Ġload s
ĠCom ing
Ġval ued
o is
Ġen force
<? >
pre ter
input s
Ġre cept
Ġvalid ity
Ġdepos it
ĠHol iday
Behav ior
an aly
ens en
Ġwel comed
ve e
Ġmin eral
ific ant
ĠCO MP
Ġrad ial
il ia
; ;
Ġquant itative
13 9
Ġrest oration
Ġapplic ants
ĠEv idence
Ġtim eline
J oe
ke eper
J eff
Ġind oor
re verse
Ġval ley
Ġemer ge
e ur
s ender
Ġtim ely
vari ables
ĠAp plications
ment ioned
ĠP ictures
tr on
ĠCirc le
ĠWork ers
? âĢĻ
al gebra
Ġcor ners
Ġselect ing
Ġcro ps
Ġsc iences
Ġpl acing
ï¿½ ï¿½
Ġworth y
Ġattract ed
ash a
28 0
ĠEn able
incinn ati
ri b
cons ider
ĠJer emy
place holder
man aged
Ġderiv atives
Build ing
ĠSc ore
l est
Ġimm ers
ag greg
ar an
Ġam end
ul mon
ĠM aur
pre vent
ĠWar ner
Link ed
c ock
h box
19 58
Ġo ught
Ġf isher
Ġsec urities
inher ited
end um
P ages
B g
font s
X i
Ġprem iere
2 64
g al
t frac
s leep
ENT ER
R en
'' '
ĠEth ics
Ġover night
Ġs lope
Ġbi ology
ĠD ifferent
ĠT ak
A fr
Ġcryptoc urrency
R atio
Ð ³
Ġ utils
Ġinst antly
Ġincor porate
Ġproport ional
ä¸ Ģ
bal ena
Ġc ord
ip ment
00 3
ĠSand ers
Ġlog s
empty set
Ġst reak
ĠQ atar
Part s
Sc ott
rit ies
}) }
ĠP P
Ġfl ip
Ġsucceed ed
Ġtw in
* .
B as
Ġser um
And rew
A CTION
Ġal umin
Th an
LE N
---- --
Ġb ubble
ĠTr ain
Debug ger
ĠA uthors
Ġposter ior
Ġo ct
Ġdis hes
Ġillust rate
Ġgame play
ĠSec urities
Ġâ ī
ĠCl ay
sl ot
ĠWat son
Re ceiver
Ġcoal ition
Ġarr ives
Ġconfirm ation
ĠAust ria
Ġdest inations
Ġt ropical
ĠDef ine
Ġeconom ics
ĠSO FTWARE
Ġs ew
Ġback end
$ _{
ĠM ental
second s
ĠT u
ĠM atter
Ġup dating
mark er
Br anch
ĠR ah
miss ing
. ');
Ġcorre ctions
Ġear liest
ĠQ String
ĠC ad
MA IN
User name
ÑĢ Ð°Ð
UN K
ĠDocument ation
ia z
Ġy ard
Ġsw ap
Ġreason ably
Ġcam ps
Enc oder
Ġd ive
ĠS L
G ateway
) >
ĠCh oice
ĠCO MM
N ested
Ġrem inded
R M
Ġviol ations
Ġp ension
ĠG ene
Ġgu ides
ival ent
Ġpen et
ĠSo on
sh rink
short cut
Ġst ochastic
Ġswitch ing
ne um
ĠUp per
ne utral
Ġ\ ]
R oll
ĠL ives
AME TER
S ol
ĠF at
2 24
S ar
aff e
Ġtrad emark
Ġcop per
Americ a
Ġed itors
Cl aim
| }
ĠL ov
Ġmut ations
ĠS ter
trans fer
S und
ad os
Ġaccess ibility
pat ient
Ġ( #
Ġign or
Ġtremend ous
ĠV ik
Ġcomm od
ĠU C
app ers
Ġfre ely
ĠC arm
ĠFin land
Ġdesper ate
Ġc ave
TO OL
Ġrob ots
Ġon set
r ans
All owed
ĠJam ie
ic ating
im ity
Ġjump ed
S heet
conf irm
Ġreg ener
Ġs q
Dim ension
N ick
Ġfl ush
. &
Ġiniti ated
Ġ" ./
omin ations
N ER
RE L
Im mutable
ogen esis
Ġch ocolate
idd ing
Thread ing
Ġrefer enced
Ġdr unk
Ġimp ly
Ġpharm ac
z yn
Ġtop ological
Ġsurprising ly
: @
>: ]<
Ø ³
vious ly
sh ine
Ġaccommod ate
Ġb ol
ĠT ig
c opyright
T em
Part ial
H om
ĠU pon
ĠLe ban
i ary
ĠC N
ĠC ities
c ott
× ¨
Ġdis par
SET TING
t b
ĠY e
ĠId entity
&= &
g on
ĠL iber
/** */
\ ":
0 10
å º
Ġun set
Meta Data
Ġdim in
Ġcur vature
ew ay
Ġref use
Ang le
Ġkw args
Ġ" --
ĠVal ent
T i
Ġwat ches
Con struct
Ġindic ators
Ġre wards
bad ge
Ġrenown ed
Ġwhe els
ĠL ate
ĠContin ue
ĠN athan
Ġm im
16 6
Ġtour ists
ĠG onz
Me asure
PRE FIX
ĠD iamond
Ñ Ħ
lock ed
Ġmed al
D ER
Ġo l
li ed
Ġpres cription
Ġadm its
ĠM asters
DE P
ĠP ent
App Compat
CL I
pay ment
Ġm aj
ĠCom pl
Ġv endor
irm ingham
ĠW HO
Ġacceler ation
Ġdiff usion
W P
Work ing
ĠPol ish
ï ¸
ĠR ivers
Ġplay offs
ĠSub ject
d al
; -
ĠAr ctic
ĠY ellow
Ġproduct ive
ĠK aren
Ġle x
Ġgen ome
linked ExternalProject
ĠL uther
por al
by e
es ity
Ġdem o
Ġpurch asing
> ');
Ġim pr
M ASK
ĠFl ight
Ġpred omin
Ġprospect ive
h ub
v ect
comm end
Ġur ged
Ġneut ron
k ill
Ġkick ed
Ġsem antic
Ġtou ched
Ġdelight ed
Ġbirth s
ĠHarr ison
LE VEL
ok a
et on
Ġf ur
lo ating
or ic
Ġl od
in ical
ĠP ART
Ġin ad
Ġmet ast
Co V
U TE
ar ial
Ð¾Ð ¼
DI RECT
Ġrefuge es
Ġdr one
ĠSh ows
Ġb iod
J ac
re ts
hedul ed
Ġsc rew
Ġper f
et ta
aint ed
Ġep it
Ġcor n
Ġm eg
ĠPat tern
an ol
ack er
eng u
Ġsleep ing
] *
ĠR ather
all ed
Ġchalleng ed
et ed
Ġoccas ions
Ġdiscipl ine
Spe aking
ĠDis tribution
ĠW ag
Ġaccommod ation
Ġgr ave
Ġenc rypted
ham mad
Ġsacr ifice
Ġad apter
ĠIn it
Ġw ore
Ġcomp assion
Ġun employment
Ġtact ics
linkedExternalProject Path
H H
ell ular
Ġres erves
ele g
Ġpolit ician
Ġl ips
col ors
ĠC ool
Ġcon gr
DE LETE
Sc heduler
ĠGener ate
Tog gle
å °
Ġpass phrase
19 56
ĠGreat er
av atar
ipe g
Ġexcell ence
Ġbad ly
Ġdram atically
Ġrecruit ment
type param
r n
Ġindic ation
mon itor
ĠF R
Ġr ip
GRO UP
Ġr ated
Ġsold ier
F X
r ise
im ir
ĠI SO
ĠA ST
Cross Ref
Ġocc urrence
ĠCall ed
Ġw ages
ĠW or
Ġvibr ant
ĠE S
is ure
get Text
Ġb uff
;& #
d ro
Ġre nd
ĠT emplate
text area
Ġstom ach
ĠTh under
Ġaccept s
M onday
ĠH orn
ob b
Ġv i
Ġr ivers
ĠT on
Capt ure
Ġlog ged
ĠH AVE
15 1
Ø ¨
oun ge
p referred
Be ing
Ġsup pliers
Ġco at
ĠFa ith
ah l
Ġl as
Ġout lets
}} }\
Ġbr on
Ġcr icket
im ize
ĠL it
rom agnetic
res pect
Head ing
or ate
M us
ĠPr adesh
Ġtour ist
Ġp orn
Ġfluct uations
Ġn urse
F s
ose x
remove Class
Ġnom inated
dec oration
ĠCro at
FO RE
Ġpe pt
Ġqual ify
W T
Ġm k
co ins
ĠG ender
Ġsp y
HO ST
Ġcust ody
ĠH ERE
ĠNe il
2 11
ĠW alt
me asure
ĠNE WS
na ire
w al
Ġw it
CON NE
ĠBern ard
ĠT rophy
Ġ( );
ĠF ame
anc ers
Ġmat hematical
ĠGrad uate
iov ascular
ym an
Ġmar ry
ĠPar ad
K G
ĠAl ways
ĠA round
ter ms
Ġche aper
ĠAn im
tok ens
âĶ Ģ
Ġinflu ential
Ġhabit at
Ġal umni
ĠJ os
Com ments
Ġse aled
get Key
Ġinsert ed
ret val
ĠM aps
Ġtop ology
0 100
Arch ive
=" //
n io
Ġper mits
Ġinitial ization
\ |\
50 1
n ick
or acle
it err
Ġtestim ony
Ġdis put
ĠRead er
Ġnurs es
sh aped
Ġass ists
E ST
M icro
Ġsear ches
Ġde ferred
ĠR av
arm ing
Ġreven ues
Ġlength s
d ag
ict ional
Ġcelebr ity
4 80
Ġcons erv
Ġdecre asing
ĠTher apy
th ick
Ġst arring
Ġden y
Th ursday
Ġg ri
IT S
load s
Ġrece ipt
He ap
det erm
Ġc fg
ĠSh ang
og g
Ġacceler ate
Ġvulner ability
m el
Ġsystem ic
u ator
und ers
Ġbatter ies
n ut
Ġbro ker
ent ric
DO WN
im er
ĠPsych ology
ĠToy ota
Ġplan es
im it
Ġbath room
Ġcontext s
ĠN HS
EX PORT
Ġsit uated
c u
Ġoptim ized
Ġend e
// !
K S
ĠMe asure
r ain
ĠP I
ĠESP N
eleb rities
x l
ĠPhot os
rat io
ĠVin cent
% ).
æ ī
Ġ[ {
Ġven ues
Ġobl igation
ĠCon structor
">( </
int ent
ĠStan ford
D ue
She ll
ĠForm er
Ġst ays
um ph
Ġsl ave
s qu
ĠNever theless
Event Args
Ġsum mit
Ġchemical s
ĠS chema
Ġadvoc acy
Ã§ Ã£o
Ġalter ed
Ġst ating
ex press
Ġdiv id
Ġorig ins
Com pleted
Ġsup ern
Any Ref
Ġref res
W ild
Ġdist inction
IR ST
Ġhash Code
ĠSom ething
l iteral
un ts
22 2
Ġc aption
Ġunn ecessary
P oll
Ġw ings
T ick
Rec ords
Ġspons ored
Ġ# #
19 57
Ġac ids
Perm alink
T OP
Ġanalyst s
Ġatmosph eric
Ġre try
Ġv iv
Rev ision
Co ins
Ġbreath ing
Sm ith
ĠOr lando
Ġpers u
it us
b ial
Ġnom ine
Ġd jango
OD Y
Ġ ere
C MD
ibl ings
g ement
Un ion
cr im
ĠRes ort
/ ?
ĠR S
Ġp ays
ĠH appy
K now
Ġsub stitut
pro blem
az ines
C odes
pr ising
ĠCh i
Ġ. /
ĠR io
Ġdiam ond
\ }\
Ind icator
B uy
ĠTri al
Ġfl aw
Ġport ions
In line
ĠJ ake
ĠInt roduction
m r
ĠG D
Ġrec ipe
ah an
er als
sh iv
ĠI g
Ġconnect s
p ark
ĠV IEW
ĠBr ig
Ġfrag ments
Ġprec ious
IS H
per form
Ġc oding
Ġmand ate
Ġev olving
19 55
ĠJul ia
Ġg al
c ern
Ġto b
Ġresearch er
com press
Ġhaz ard
pt o
We bsite
Ġdiv orce
Ġste am
ĠM ans
R ound
ct l
ĠV e
add EventListener
Ġfun eral
g uid
Ġche er
Ġfar ms
Fil ters
Ġpoor ly
ĠTag ged
H ence
Ġbu zz
Ġgener ous
b u
comm ended
ĠBe havior
Tok ens
am ation
19 01
ĠBer keley
ĠTrend s
Cl ip
ĠSpec ifically
Ġarg v
S aturday
W ay
Ġ" ")
Ġpeak s
Ġshort age
S in
ĠTrans form
ag i
ĠApp ly
ĠA rena
Ġatt achment
Ġcontrovers y
Ġl un
ĠLinked In
ĠML B
ind ependent
String s
Ġcreat ure
Ġphot ographer
ĠLaw s
Ġcancell ation
Ġqual ities
Ġ" (
Ġadvoc ates
14 8
ĠCO M
Ġn utrition
Ġpeace ful
ĠE L
ĠT aking
Ġhar sh
O H
ĠD ocker
L emma
ĠC ox
St ates
Ġs lic
ĠP ub
ĠBro ther
Ġw orn
ĠR ud
Ġload er
ĠDirect ors
ĠThe me
foot notes
Am ong
, {\
ĠS ql
ep h
ĠIN T
Ġvot er
ĠHam pshire
ster dam
BU TE
Ġb os
Ġdam ages
Ġdr ain
G N
Ġnow here
Vari ant
ĠAl pha
t emplates
Ġf ighter
ĠM ine
sp aces
Ġtempor arily
Ġto ile
bound ed
ĠB in
ĠDe b
orient ation
Ġconsider ations
ĠEd wards
Ġsac red
Ġm arijuana
ĠM umbai
ht m
Ġreve aling
Ġrecip ients
Ġmot iv
ĠDirect ory
d v
y t
ĠRele ases
Ġp tr
ĠIn tern
Ġident ifies
Ġr ape
ĠĠĠĠĠĠĠĠ čĊ
Log ging
15 7
ulmon ary
Ġ ï
ĠC red
Ġ' ../
ed ges
St mt
Ġterror ist
in ces
__ _
W as
k ov
our t
math op
Ġdes erves
b read
er ick
pe ated
ĠFl ag
Comm unity
ocy tes
________ ________
ĠF loat
Ġadjust ment
ĠPar ish
Add ed
Ġto ss
y arn
Ġb ail
ab ove
ĠIn stance
sub str
Ġun fortunately
Aut om
Ġmo ist
ĠL en
Ġvari ability
he um
bor ough
Cent ral
Ġreason ing
Book s
Ġcart oon
Ġst ir
." ;
Ġcount less
aw l
Ġover head
Ġfe ver
ĠR idge
T alk
Iss ue
in el
****** /
B er
Ġam endment
Ġvar ies
Ġoff line
cc c
be it
Ġpat ri
z ier
Brit ish
est abl
19 5
Ġsw ift
"/ ><
Ġbrows ers
"> /
Ġintern ationally
ĠBr ady
p arsed
Ġd rought
ĠS ame
ĠFr ame
Ġrect angle
tr an
Ġce iling
ĠCom edy
3 75
Ġes cal
Ġà¤ ķ
Ġreg ards
Ġcr uel
Ġdesign ing
ĠRe yn
Ġste al
Ġd ign
ĠBr andon
Ġconsum ed
l uc
b ars
Ġb ay
h it
L if
Ġsh ifting
ĠFor ward
Ġvol can
ent e
=" ./
ĠP ri
im eter
Ġout lined
14 1
Ġc inem
Ġ(! $
ag ar
Ġab ort
Al tern
estr ian
ĠSh akespeare
ĠS erv
Ġ/ .
yst er
To o
Ġdig est
ĠR M
Ġprec ip
ĠHall ow
ov ld
Ġpurch ases
D ead
"> "
W O
g om
ĠÐ ·
Max imum
Ġgr ades
h ydro
ch annels
ĠP T
ari us
æĺ ¯
ful ness
ĠField s
Ġstrength s
Ġburn ed
Ġpurs uant
Ġid s
ĉĉĉĉĉ Ċ
Ġf are
Art ifact
epend ence
Ġen jo
ĠAp plied
Ġpan ic
ĠEx pect
You ng
Over lay
Ġsc andal
Ġimm unity
Ġlit igation
T ARGET
h ad
ĠSh ar
30 1
ĠÂ «
Ġp as
Ġag ing
ĠNetwork s
Ġbe ars
ĠCh ase
tract ed
Ag ain
Ġso vere
ĠR C
Ġsl ots
ĠS U
Ġcop ied
un its
RET URN
Ġform ally
ĠBut ton
19 52
2 32
Ġattack ing
mut ation
Ġpoly mer
Ġdis abilities
Al ign
ĠST AT
ĠMc Carthy
ĠJer usalem
T ITLE
Ġf erm
ĠB achelor
> -
Ġch ips
os i
C atalog
Person al
ĠAt omic
thread s
Ġapproach ing
[ _
[ ],
x ref
ĠM ask
Ġc ss
Read Only
numer ic
M id
Ġrad ar
ST EM
Ġkey word
Con version
\ ;
Ġspokes person
om eters
Ġsh rink
th ritis
ĠEd inburgh
C tx
Ġt ender
Ġc c
ĠS ARS
' +
ore st
A verage
Ġfin est
ĠS id
Ġcent res
are l
Mod ules
Ġspec im
Ġcolon ial
ĠSh adow
tab End
ĠT erry
og onal
Ġsup ers
HE D
abs olute
control s
Dependency Injection
ĠPf izer
Ġbe ef
ĠP icture
ĠGL uint
ĠM M
P ACK
ĠGr ade
ak u
ĠS ample
ix on
Ġconj ug
In side
}) =
Ġharm ful
ĠM ack
Z end
Ġint ake
ĠCh and
DOCK ED
ĠRen ew
rele vant
ĠP rec
Ġdist ress
t u
ĠC ant
Ġyour s
Ġref und
ĠH ydro
Fr ag
ĠImm un
M att
z ed
ĠC ritical
ĺ ħ
Perm issions
Ġ' </
N ay
h arm
Con v
ĠValue Error
g c
out ed
sh ake
Ġterm in
ĠLib eral
NAME SPACE
th lete
list ing
ĠCor onavirus
Dat aset
Ġdisappoint ed
ĠB att
Ġh alt
Ġl adies
Y et
ĠW allet
Ġdistinct ive
ĠP le
h um
inter action
ĠS nap
($ _
Ġexplos ion
ĠC IA
Sche dule
Ġsub stitute
Ġp arsing
Ġsc rap
ull ivan
V el
(" <
ĠR ams
Ġformer ly
re ports
ĠS or
in ja
iterr anean
Ġw ars
?? ??
} |\
Further more
br aska
Ġdam n
uls ion
Ġbes ides
L ittle
id ually
Ġess ence
Ġassum es
ĠRat ings
Icon Error
Ġpri est
ĠH ab
Ġcomp rom
Ġbl ob
H a
ĠEl li
re search
ĠMan aging
icy cle
Ġadvent ures
ble ms
c atalog
Ġre ck
comm ands
? !
D ot
Ġdistingu ished
in come
D a
Ġd in
E mitter
ĠF itz
hen g
L ONG
ĠGr an
e enth
ing o
Fil ename
19 53
uk a
"/ ></
ĠĠĠĠĠĠĠĠĠĠĠĠĠĠĠĠĠĠĠĠĠĠĠĠĠĠĠĠĠĠĠĠ ĠĠĠĠĠĠĠĠĠĠĠĠĠĠĠĠĠĠĠĠĠĠĠ
Ġkn ife
ox ic
sub sec
Bet ween
ĠĠĠĠĠĠĠĠĠĠĠĠĠĠĠĠĠĠĠĠĠĠĠĠĠĠĠĠĠĠĠĠ ĠĠĠĠĠĠĠĠĠĠ
Ġstat istically
Ġv iable
author ized
Link s
D ark
] -->
av in
Ġstr ains
ĠPalest inian
P OR
Austral ia
Ġc attle
ann es
Ġcapt ures
P aint
m are
Ex ec
Ġdr ift
s napshot
M Y
Write Line
UT C
0000 000
Europe an
ie u
L ev
I BUTE
bit coin
ring tone
ĠO H
R ad
ret ty
agon ist
00 4
) '
Ġg ly
ĠW es
Character Offset
Ġsw iper
Ġbus es
Ġd os
ĠLook ing
ant is
ig m
Ġbg color
C a
ĠSu z
Ġjuris diction
C op
ĠOr chestra
ĠK u
ĠS leep
ĠLib erty
Ġret reat
L ou
Ġdef ending
et itive
h im
Ġb ugs
ĠAr senal
ĠChampionship s
ĠSaf ari
ĠCent ers
io let
an try
ch t
ĠPartners hip
v r
ob a
ĠDis cussion
ĠZ oom
Is rael
Ġsl ower
Ġpe oples
An swer
Ġescap ed
H istor
ĠCont roller
Ġconsider ably
HO W
ang led
cel and
| _
ĠB UT
Ġfeas ible
ver ts
Ġtri angle
arant ine
J s
P aper
ĠN ar
5 50
Ġt issues
Int o
ĠAP Is
wik ipedia
á º
do ors
Ġhonest ly
Ġhe sit
Ġg aining
ĠL if
ĠCh ile
Des cribe
F IL
df s
ER N
ĠB S
Ġu h
Ġtem pt
× ľ
ĠL ion
Ġnew er
Ġaut onomous
ne apolis
T IM
f act
Ġrespond ing
hy per
ĠB illion
ere k
ans om
Ġhon ored
Ġpra ise
Un mar
Ġaest hetic
Ġconst itu
itte es
tr as
CD ATA
Hor izontal
D am
ĠY am
Ġh orn
at en
associ ated
Ġnot ifications
in is
Ġn ost
Found ation
Ġdec imal
valid ator
NOS CRIPT
ĠL ik
ob ic
Ġc p
c ritical
ĠR F
ĠGet ting
ĠForm ula
IconError Encoded
F ood
h n
ĠV I
Ġar ising
ĠAlber ta
ĠL IC
ĠD ialog
ios ity
] {\
Ġun t
Ġro ok
F all
G UI
Ġf oster
Pro b
ĠJeff erson
âĢ ³
Ġrespond ents
ĠM IN
Track ing
Ġet ern
/ -
s al
Ġp index
Ġmarket place
ĠWood s
CC CC
Cre ation
P ur
R outing
in yl
Ġpress ing
ĠEm ployment
am pton
for ge
qu ick
ĠSet ting
Sh op
Ġwitness ed
Py thon
Ġt v
Cap acity
Ġmod est
ari ans
Ġab normal
ĠSh aw
m ong
S ix
d h
Ġclim bing
ge bras
Ġnot ably
ĠReg istration
Ġdest ro
ĠG ate
plement ary
Ġdies el
Ġp b
Ġpoll s
ĠMerc ury
pos itions
Ġtogg le
P aired
rou t
Ġs ulf
ĠB MW
10 80
ARCH AR
Ġaver aged
ex ist
Dis patcher
ERT Y
Ġd aughters
ĠG em
Ġtr ails
ĠC rypto
Com plex
ĠRes et
Ġtr agedy
ĠB arr
Ġsqu ee
Ġequival ence
ĠPO ST
h ours
te chn
T ODO
Ġneutr ino
al tern
port folio
Ġb ones
ĠN ak
Ġbackground s
Ġas p
unit Pattern
Ġident ities
it ics
ar us
s ong
Ġguarant ees
Ġev ac
}) ^
( ",
ĠFl ore
ĠValid ate
M argin
ah u
Ġattr action
ĠT F
Ġridic ulous
Ġc ens
ĠM OD
Ġatt orneys
l if
ĠK el
Ġsing les
Ġconsult ing
Ġthe at
Ġph on
comp act
g iven
Ã ½
Ġsl ides
Ġexcess ive
ith ium
Ġr iders
en h
av ier
\% $
weg ian
oc co
log ue
I MAGE
or ig
Ġtrans mit
add on
ĠPet e
Ġhab its
K EN
\| _
w m
Ġthreat ening
ear ly
( @"
k ward
Ġ Å
Ġl t
Ġlic enses
Ġsa fer
Ġharm on
00 7
Ġsent iment
m un
off icial
amp ire
ĠFil ms
Ġgorge ous
Ġo d
ĠRog ers
PRO TO
F at
S yn
Ġcriter ion
ĠLay out
j q
product ive
Ġbo ats
ĠSp ider
ine a
Ġthorough ly
amp ing
Ġportr ay
The ir
r ases
ber y
Th rows
Ġspect ro
Ġ/*! <
Ġenc oder
ag h
ĠLo an
* >
ĠOr d
Ġcompar isons
Ġ\ &
C lock
P reference
ĠM otion
Ġsurviv ors
Ġproceed s
Cl os
ĠX ml
Ġexp end
Ġv o
Ġsp are
Ġhon our
Ġcontribut es
Ġ ÏĦ
re ject
Ġun ions
parent s
CON ST
Ġd Ã©
Ġshall ow
API ENTRY
ĠD ol
reat ment
abul ary
DA Y
Ġtong ue
ĠK in
ĠJ ar
ĠRe uters
Ġh i
19 48
Ġtr apped
ĠDr iver
ĠB ass
âĤ¬ âĦ¢
? .
Type Def
Sup pose
ĠG rey
f re
Y ea
ĠE E
footnotes ize
Russ ia
phant om
Ġev olve
fail ure
ĠEval uation
ĠRec ent
B s
ĠS outheast
Ġn erve
B oot
Ġelect rons
V S
Ä ĥ
Ġthe sis
ĠAn a
Ġche f
Ġon click
Ġass ass
AS C
Ġde ce
Ġpain ful
SE C
Ġan ten
ĠWe ight
Ġarchitect ural
Ġc ategor
ST O
Ġcelebr ates
k ers
Q R
ĠLe af
ĠProv ince
Ġretriev ed
Ġc oc
ed e
St ock
I r
Ġthere of
ĠYan kees
ĠRe ally
Ġam big
Ġdep icted
ĠF er
ĠD NS
ĠWild life
sche me
ĠScholar ship
Ġdeput y
16 2
/ $
T ur
Start ing
ĠO w
Ġgl ory
Ġdon ated
Ġlack ing
Ġc s
ĠMont e
ĠPu erto
Ġh ug
per ed
Cal ifornia
Ġtob acco
> $
lay ers
; =
ĠNich olas
Ġind igenous
UL AR
Ġmer ger
ĠNash ville
C ut
ill ery
ĠB U
Stud ents
J ose
20 6
ha o
ĠCond ition
ou bt
c ology
ĠReg ulation
ĠT IME
ĠM end
g ue
Ġper ipheral
Ġsegment ation
D Y
Ġconf idential
ĠCarl os
IF T
ĠHallow een
Ġcons ume
ĠSh im
ard i
ov y
Ġaccording ly
ĠÃ Ĺ
ĠHill ary
Å į
ĠSt ef
qu in
z el
ĠL ect
Ġar ithmetic
W ashington
ï¸ ı
}_{ -
Ġavoid ing
Ġwhere ver
rid or
ĠFI LE
ĠS TD
cred it
ou x
Ġpl ugins
ĠHel en
Event Handler
ĠN V
ĠY ES
Tool bar
Ġtrans mitted
ĠĠĠĠ ĉ
Check er
Ġf av
Ġcharacter ization
Ġlog istics
ĠLe o
ĠGener ic
Ġst iff
Un lock
Ġvol atile
Ġgirl friend
m ons
Ġm aker
Cl osed
om ics
E nergy
Ð Ł
s an
Ġsh ower
Ġuniqu ely
A RE
ç ½
Ġf uels
ĠS UV
Ġsp ray
b ach
ĠMET H
at ivity
Ġd uplic
ĠD ES
Ñģ Ðº
ce il
Ġtri o
Ġaff air
ĠA id
ĠEn sure
ĠBroad cast
Ġenjo ys
end ering
ĠK ash
ch air
Ġl ig
Ġint ensive
A IN
he ta
ues e
Ġ! !
MA KE
ĠB apt
ĠU AE
Ġf ights
M ON
ort ium
* }{
G AN
Ġsuff ix
Ġprov ing
lect ric
ING S
Ġneur ons
Ġg a
Cl ause
Car l
Ġachiev ements
M Q
od ic
ator ies
Ġvari eties
n ia
(' ../
Ġform ul
St eve
Ġc ater
ID s
Get String
Man ifest
ĠNC AA
16 7
Ġarr iving
Ġ- &
ĠL IMIT
Ġbes ide
Ġsoc io
ĠC au
ĠJ ets
ĠMO RE
Ġpharm aceutical
Ġbrut al
oper ations
Ġpass ive
Ġappreci ated
ut t
Ġpolar ization
Ġl overs
c id
cknow led
Ġple asant
Ġ ):
Ġbeautiful ly
Em ploy
Ġshock ed
M N
Ġleg ally
Vert ical
Ġphys icians
ĠCons ervative
S printf
ĠPhill ips
itt en
ĠCol omb
x r
std out
Ġvis a
v p
à¤ Ĥ
leg end
m achine
Ġstrong est
an imate
Ġc ake
ĠC atal
Ġcor relations
sw ap
ant om
ffff ff
å® ļ
ĠDel aware
IF Y
ge om
}$ }
big l
ĠHon or
az i
emph is
ĠMont ana
ĠCont emporary
get Property
ĠC incinnati
Ġst yl
M ic
ĠSol id
Ġaccompany ing
ĠWinn ipeg
Ġcor p
sl ug
Ð° Ð»
rang ian
Ġf et
O O
ĠC ub
Ġare na
Ġpurs uit
Ġnewsp apers
Ġll vm
S ex
K im
Des cript
rest ore
Ġoccup ation
Json Property
ret ch
Ã «
ĠN I
Ġdiagram s
Pred icate
Input s
ĠMil waukee
om aly
RE C
Ġliv estock
ĠT at
ĠNiger ian
n ai
Ġde grad
ism iss
Te chn
18 5
unicip ality
ochem ical
19 17
ĠAn imation
18 00
Ġcount ed
} `
âĢĻ :
ĠPro ceed
urs ion
ĠWork shop
ĠIran ian
ĠSt ack
Ġgreen house
Ġencour ages
ert on
) }_
Ġbab ies
ĠV ers
d w
Cl one
G I
fl ash
Ġthr illed
15 8
Ġcancell ationToken
S hip
sol id
t alk
Ġbehavior al
. $$
sup erv
ĠA A
ĠMar cus
Ġcast le
}\ ,\
Initial ize
Ġtransf ers
Ġrele vance
mys ql
å į
Ġover look
ĠDO I
Ġlast ing
l iter
Ġconstitut ional
ĠSh ip
vis ual
Ġhistor ically
ĠS aints
Ġconst itute
ĠL ions
Ġhead lines
U X
d type
ĠN icol
Ġmaint ains
Ġuniform ly
ĠH M
Ġwas h
Ġcontinu ity
amb ers
Creat or
Ġk g
Ġret ained
Ġharass ment
g ow
Ġear ning
Ġf ung
Ġch apters
Ġbreak down
Pol y
p romise
Red irect
an alytics
pos ium
Ġcar cin
ĠChristian ity
Ġwealth y
itud inal
m il
and ez
ĠHe at
m and
act ed
Ġconcept ual
) }.
F rench
N othing
Ġgener ators
Ġconsult ant
Ã ¦
umb ling
cc i
ĠQ t
unc an
ĠSo ft
Ġcontribut ors
AT IVE
semb les
NO WN
Ġdis contin
T uesday
ĠDoc uments
Ġ} ));
Ġ ÑĤ
Ġad her
Ġposition ed
Bo ard
Ġgard ens
Sever al
âĢ Ĭ
Ġpar as
Prot otype
R P
own ers
Ġret ention
CEP TED
Ġse q
Stud ent
Ġen rolled
ĠC WE
ĠHor se
}} ^{\
Ġshe ep
Ġnom ination
izar re
ĠC ategories
Ġpropag ation
ĠK il
View s
19 44
ĠK on
ĠS weet
Ġeigen values
act ivate
ri o
14 2
ĠDr ama
ĠGh ana
Ġquadr atic
Ġc and
Ġurg ent
E lem
ast ics
16 3
at ics
Ġcast ing
war f
MP TY
19 39
ĠCoal ition
R D
Ġexc use
ivari ate
enez uel
plic a
Ġ[ ...]
ĠCl uster
Ġassert ion
t cp
ĠBrazil ian
it ored
(" [
t ier
Ġ Ä
ng th
Ġprev ents
Operation Exception
V ict
Ġf el
ex ceptions
Ġgravit ational
Ġin ch
202 5
ĠRe ed
1 200
L iving
Ġeleg ant
Ġm eter
Ġth y
ĠE PA
Ġseason al
Rem ember
Ġv itro
Ġpsy chiat
6 50
=" <?
Ġtrad ed
ĠL oss
Ġthro at
Ġdisag ree
Ġasympt otic
se ver
Ġbe aring
ĠCas ino
ĠSup pose
big r
Ġcoordin ator
ĠLink s
Ġtrav elling
year s
Wed nesday
ĠTe aching
Ġinnov ations
> ";
Ġ$ ("#
ish i
F H
Ġpro position
or b
Ġshould ers
r w
Ġten ant
O l
m usic
Ġstory telling
Ġdismiss ed
op ard
p ent
Ġsc oped
Ġb arg
ĠT ouch
Ġco oper
15 3
ĠG az
fr action
Inst ances
I o
pret ty
Abs olute
Ġhead line
Ġrecogn ised
ĠN Z
ĠBO OL
ĠBre xit
Ġprest igious
æ İ
ens ation
Ġis omorphism
Ġsupport ive
Const ituency
ĠCh ain
roph ic
PAR AMETER
g ui
Ġexhib its
15 6
Ġque en
Every thing
H en
ov o
ĠJul ian
p ine
19 54
Vari ables
ĠIn frastructure
() `
ĠIn come
Ġunder graduate
constr aint
.. ...
Ġgluc ose
De ath
Ġfinger print
tr ust
ĠB irmingham
Ġimport s
Ġsp ont
Ġindiv idually
= </
Ġdynam ical
Ġadapt ive
g irl
ĠMil an
Ph ys
Ġâ ĪĴ
Ġinev itable
ĠR uth
conf irmed
claim er
Ġind ie
Ġhol y
Ġintr insic
l ord
Ġass ured
ĠF T
ne ys
ĠClin ic
car ousel
Ġstart ups
Ġtou ches
Ġview er
de ploy
Ġs ap
Ġrel ay
Ġj er
Ġpublish ers
Ġen comp
ĠSher iff
key words
Ġdisappe ared
Ġg i
Ġcar riers
Sc ience
Exp and
K nown
Ġex tern
Res olution
um ably
Ġm RNA
Ġreg ulated
es cope
ĠC AN
/ %
enc ia
er gy
is Array
ĠC atherine
ron ics
ĠAv iation
×Ļ ×
og an
^{ *
IG H
^* (
Suppress Warnings
Ġp el
Ex amples
ar ations
u itive
ft en
NE SS
Gover nment
m illion
Ġoccas ional
Ġjew el
ĠBut ler
ĠBl ake
m ans
ĠMark ets
Ġwond ered
Ġdemonstr ation
ĠMyst ery
' }),
A H
organ ization
Ġch lor
âĢĿ :
ĠR AM
v t
om ore
Ġmid field
ä¸ ª
ĠMed iterranean
? ,
n ol
Ġshe ets
flu ence
ãĢĤ </
R out
ç ±
ext ends
Ġf ade
adi ans
Ġsem ester
Ġj ournals
comp any
osh i
G reg
ĠSch w
ĠTreas ury
ĠTh ought
ex c
ĠR ice
"> ,</
el ia
ac a
ĠFund ing
ad en
ĠS cale
ĠU ntil
ĠK oh
ĠMc Donald
ĠP ush
n it
gr avity
ĠSh ared
Ġnot ified
Ġunder go
ach i
Tag Name
$ &
Ġsubs cribers
Serial izable
ĠSD K
Ġh oney
un i
g res
Ġrem ot
Recorded Vote
ew ard
ĠM N
Ġcat ast
Ġs inc
am ar
ĠWell s
Ġf lesh
Ġaddition ally
Default s
Ġappreci ation
Ġinfect ious
ch arts
Ġclust ering
ĠM es
Ġ} .
F W
as List
Ġ" ");
Ġgate way
ĠPre view
Ġport able
N il
Ġout look
15 9
equ ations
Inst ead
Educ ation
ĠB orn
Ġaccess key
ĠCoun sel
æĸ ĩ
Ġpred icate
Ġg rip
tr ained
Ġtransform ations
ĠDiagn ostic
hed ules
Ġrem inds
ĠĠĠĠĠĠĠĠĠĠĠĠĠĠĠĠĠĠĠĠĠĠĠĠĠĠĠĠĠĠĠĠ ĠĠĠĠĠĠĠĠĠĠĠĠ
ĠExcell ence
ĠG E
Ġhe d
Ġpsych ology
ĠFour ier
ic z
Ġwound ed
Ġout let
Ġexp ose
ÑĢ Ð¸
f iction
ĠPl aces
zyn ski
Ġcol ours
uss els
=' #
G erm
is se
} ~
ĠP ER
Is Null
Get ting
n ational
f v
Ġcomp romise
read only
Ġconv ince
m ile
Ġconc urrent
Dem o
ĠHar vey
spec ified
p aid
Ġthe ft
19 47
ĠHor ror
ĠW IN
ĠV P
Ġco ordination
Ġb ureau
Ġaccess ing
Ġconv icted
+ ,
Ġh ilar
Ġins ulin
ĠRestaur ant
ĠE t
n ih
vers ions
riter ion
Ġ iv
ot ics
ew ater
Ġstr at
Ġd yn
Ġtravel ed
Ġex terior
ter rit
ĠRich mond
IN PUT
am as
ĠHe ader
Ġact ed
Rel ations
ĠMer cedes
st mt
Ġre ass
Ġplan ets
Ġt ales
AN GE
Ġathlet ic
ĠBeaut y
MS earch
Ġpros per
it les
Ġaw ful
ĠMu hammad
ĠGard ens
ĠL an
"> #
pro per
Ġmaxim ize
Ġqu ark
Ġst arter
Ġback ward
ĠBl u
im iter
19 4
ĠAl t
Ġenter prises
inner HTML
ĠBel ow
Ġdevast ating
con tract
19 3
Ġact ivate
appropri ate
ĠVerm ont
in ement
S ink
min imum
ĠCh uck
Ġband width
Ġso ap
ĠS r
ĠLeg acy
Appe arance
Ġl ag
Ġart ic
Un its
c ou
yl um
ĠR aid
v id
wall paper
PI O
CO RE
he astern
15 4
Un expected
Ġfund ament
O rientation
Ġsp otted
he nd
ew s
M X
Ġf ame
ĠUlt imate
ann ers
Ġlist ened
Ġtwe ets
ĠN as
Ġdens ities
l c
ĠH ockey
' "
Ġspons or
el n
ĠC offee
Ġr ay
Over all
Draw able
Gr ant
aut hent
Dis tribution
Ġtravel ers
Ġbe ats
Ġto y
2 17
r vm
Ġacc idents
ĠÐ ¼
Ch oice
Ġrem inder
ĠGL sizei
duc ible
Ġgod s
o ard
Ġh ike
ast ore
Ġunder way
Christ ian
ĠSurg ery
ĠA SC
ular ity
ĠLook s
press ive
ĠCry stal
Ġinterview ed
LE T
ĠPot ter
ĠVi enna
CON F
Ġsc ary
Man aged
Ġcontribut or
Per formance
Ġquiet ly
ĠDef ence
nav Bar
Ġrelax ation
^{ (\
Ġex empl
ĠMedic are
> ';
"> {
Ġmess aging
ĠT S
En code
Ġmet als
Ġsimpl er
Ġn it
ot er
Ind ian
la unch
4 000
Ġserial ized
Ar n
Ġprom otes
Image View
cur r
Ad am
ĠEv olution
ast ed
get Elements
Ġdirect ive
Ġbr ick
Ġdevelop s
æ į
Ġn est
}} =
ever se
Ï ī
ins ula
ĠP ink
ĠBob by
H it
ĠV lad
ĠDom ain
Block ly
Ġvit amin
a uthors
m itt
Ġarg ues
Ġfilter ing
Ġpres cribed
TR ACE
Ġgen ius
ĠEv il
N L
ĠAdd s
n od
Ġh over
ĠR ise
Ġdr agon
ĠAnn iversary
P rem
q a
ĠW ays
Collect or
Ġantib ody
ĠAb raham
Inv oke
ĠW ine
ĠT ickets
ĠD ynamic
Ġpl ural
Ġspokes man
e er
Ġscr ut
Ġsport ing
19 51
Ġin complete
P ot
ĠI BM
ph ysical
Ġphenomen a
Ġterr ain
Ġdeprec ated
clos ing
ĠCommon wealth
s ix
Ġred shift
ag le
ĠTour ism
Ġdis closed
Ġafter wards
ĠCam era
Un fortunately
Ġsil ly
XML Schema
Ġtrav els
ĠC oin
ĠD eveloper
OP EN
Sp ot
Ġorb ital
, ,
Ġimag ery
ĠA K
Ġ ub
ro c
Ġg ates
k k
Ġb ite
ĠAll ow
Ġtun ed
Ġd irt
Ġpat ches
Ġhighlight ing
Ġex cerpt
Ġfuck ing
Ġrecycl ing
Ġ{ })
Ð¸ Ðµ
ç± »
V ers
ĠL uck
Ġte ens
Ġcontact ed
et erm
Ġ ../
Ġo ps
Ġhand lers
capt ure
z h
Ġchar ming
Ġdis advant
RO P
fin ish
Per haps
ĠCh ang
se min
br al
tri angle
Ġd ock
ĠD iversity
Ġdis charge
ic iency
Ġtal ents
ĠAd ult
Ġun stable
Ġj am
] ];
el ong
ĠCh art
han ie
ol ia
ĠCon cept
ĠN PR
ob ar
Ġb ump
ĠD S
Ð½ Ð¾
ber ger
b uck
Ġsign atures
Ġdon ors
Ġre build
Ġsam pled
x e
ĠT C
Ġf ier
duct or
Ġpurs uing
ĠP att
Ġrock et
ĠÐ ±
ĠLuc as
/ ,
So ft
Ġinflamm ation
ĠM Y
Ġmon ot
en za
ig g
hol m
Ġap ple
Ġavoid ed
Ġmurder ed
Sund ay
Ġfunction ing
Ġmanufact ured
Ġpropag anda
IP S
ope z
Ġdownload ed
Ġb ust
ĠÂ §
Ġinc ub
ĠHug hes
ay an
Ġsuggest ion
G H
ĠR ey
any on
ay er
N EXT
P en
Ġfif ty
Ġ\ ,\
P icture
ut ton
Ġinv ention
ĠS quad
Ġp aired
Ú ©
ĠB asketball
ĠBul gar
ĠC ensus
Ġimp ose
Ġtum ors
p es
y en
Ġf d
play back
m ess
Ġcapt uring
Ï Į
ĠViol ence
Ġsp o
Ġpun ishment
19 46
Ġexerc ises
proport ion
ag ain
ser if
ĠD anny
ĠCOL SPAN
al ter
le en
at ched
ro tt
th ood
ab b
ĠF est
ug u
ĠRet ail
ĠB ud
vis ions
rot ate
Ġdefic it
integ ration
ject ure
Ġ$\ {\
Ġbe an
Ġel astic
ur bed
Ġg ad
ĠRec overy
ic ion
à¤ ķ
t ick
Ġre forms
p ick
Ġtr agic
Ġd uplicate
ĠSc ene
Comm un
Ġenjoy able
2 18
Ġen rich
Ġimp air
ĠVeh icle
w so
ĠPo etry
Ġin quiry
Ġsoci eties
Ġd type
ĠL akes
Ind ent
ĠCh an
Ġpuzz le
ĠN om
ER O
ĠHar per
arn ess
ett i
ĠUnc ategorized
M LE
Ġaw s
S ender
hel ial
verb ose
ĠF ra
ĠR osen
el ist
Ġdem ographic
Ġarch ae
< >(
gom ery
ĠHy per
' ><
U kr
Ġr het
Not ify
Ġp H
ĠIs aac
R G
Ġpract ically
ĠD ylan
inter faces
Ch oose
Ġh ills
ĠR d
AC CEPTED
-------- -
ĠProv ider
A WS
J er
le arn
ic it
ĠEx tra
loc ations
é ĩ
c ov
Ġcomplet es
Ġspir its
v ier
ancell or
Ġsk etch
pers istence
Ġst ones
Ġpro jections
ling ton
le v
F LOAT
F ee
Pr iv
Ġch ampions
An onymous
n om
not ag
Ġ ^{
im an
ER IC
Ġl over
Ġpen alties
Ġbit coin
ĠCom pute
Res olve
arent ly
D AT
w y
Ġbow l
ism atch
ĉ ĠĠĠĠĠĠĠĠĠĠĠ
Ġaw kward
ĠOver view
ent ities
ĠEx pert
ĠNorth west
ĠA pi
N s
C riteria
SE D
ĠM ull
Ġcyber security
ĠSp encer
Rel ation
Ġunf air
I AN
Ġrespect ed
16 4
k el
*} [
ĠR oche
Ext ended
æ ³
ĠEthiop ia
M AT
20 9
ĠUn known
Ġp riz
Ġ// !
ific ent
mat ched
ĠW iki
Ġgu ards
ĠS qu
17 2
Ġcrit ically
Ġcycl ing
ĠAm sterdam
Ð½ Ñĭ
Ġthr iller
Ġcompr ises
ĠEag le
Ġal liance
ĠAs set
ĠTri p
ĠB ills
Ġless er
] ],
Block Index
Ġw and
ill ary
bro ok
ĠL em
i u
Ġelectron ics
Ġpop ulated
Ġmem orial
ĠS ongs
ĠBrook s
17 6
$ {\
ĠFellow ship
Ġgr pc
Ġsu ited
Ġlink ing
charg ed
ur istic
S ys
ĠAs ync
ĠCoun ter
mid t
Ġbe aches
ĠKar l
Ġcompr ising
R ussian
Ġrec ession
Ġloc ate
Ġexplo it
Ġdiscret ion
Ġ ell
ĠM ED
as se
Ġreg ret
Or d
Loc ator
al ways
ex e
: =\
Ġo mitted
Ġav iation
f ollow
med skip
ĠD aw
LO T
osph ere
Ġsub t
Ġi i
ĠCar r
ĠP ra
IT ER
ĠA RE
Ġpresent ations
ev es
ĠFound er
Ġb oring
ount ers
ok o
lin ing
^* \
Ġf right
uis ine
. \\
u u
ĠLaure n
ard less
Ġsu cc
Ġtable ts
Comm ands
Il legal
ĠP ool
Ġcontin ent
Ġsacr ific
ĠPal m
Ġan omal
s and
le w
ĠG DP
TR ACT
sup ports
navBar Cell
Ġwa ited
od b
Ġpro long
ĠMount ains
Ġrel atives
Ġsplit ting
-------- ---
ĠRail way
H ist
ĠJ et
Ġw ard
ag ination
ian e
k al
ĠTe ams
ĠP FNGL
ĠB uilt
ĠJ in
Â ´
Ġdemand ed
ĠGl as
Ġg ambling
Ġ( {
read s
[] )
ĠMe an
c z
ĠAr gs
u o
eng es
Ġp ale
B tn
Ġ" :
Ġe ighth
SY S
W all
l ift
re z
ĠL iv
Ġutil izing
Stud y
i otic
x ilinx
Ġunve iled
has OwnProperty
Ù Ĥ
Ġdys function
ĠRet rieved
ĠI celand
ri eve
atin um
ĠD ad
Ġtr aces
3 40
l ap
Ġl oses
NUM BER
Ġdisp ersion
Ġfert il
Ġadd iction
w ang
Ġv intage
Ġs aves
C LO
Ġu gly
ĠTrail er
B in
Min imum
Ġm u
ap on
ĠâĢ ĭ
Ġ' {
ra pe
( <
Ġh alo
th reshold
hl js
Tra its
[ ];
Ġen velope
I LED
à ½
ĠM UST
: **
av ia
in ent
Pl ot
Ġdoc s
itt est
Ġneighborhood s
D U
P ark
ĠGo ing
Ġcompr ised
ib les
Ġbill ions
ĠF ri
sim ilar
open api
Ġprevent ed
ron es
Ġadvis or
B and
ĠP RE
ĠK B
ĠPro test
ĠFI X
erg i
b ag
Ġcard iac
HEAD ER
ĠR ect
W M
Ġun comfort
ĠF acts
Ġcar ing
Ġwitness es
get Default
get Logger
19 49
p el
ast ing
SE CON
Ġde alt
const ants
> #
ĠLet ters
C ached
person al
ĠR oth
ivers al
Ġposit ively
is ive
ĠK re
oll o
itect ure
å ĩ
20 7
DE C
Ġantib odies
9 11
ĠS ources
-> {
Produ cer
% );
Ġc ure
Ġse al
ĠF LA
Ġsuper b
WARN ING
ĠI con
ocom plete
ĠHoll and
for um
ĠM AN
um i
Ġadvis ory
Ġclean up
ic ans
ĠOpt im
B F
let te
rec v
So ftware
Ġloyal ty
Observ able
Ġmiss ile
ĠQue bec
F it
E conom
j k
cl ide
Ġfr uits
Ġappro ve
ĠAr men
g ro
ĠLIC ENSE
ĠN amed
oler ance
cal c
ĠTe acher
ĠElect ronic
ĠC amb
ĠZ ach
th umb
Ġchar m
ĠPoint s
h all
Ġbit ter
ĠReyn olds
( -\
24 5
Ġobst acles
ĠG ift
ĠFI FA
Ġdis ruption
Pers istent
âģ ł
ĠMin neapolis
ĠB ald
Ġwood s
g b
ĠAn cient
25 2
be y
B AD
Ġacceler ated
Ġprolifer ation
url s
ĠAct or
ĠDou g
Ġtr ait
ĠMc L
us p
ĠFil ip
ĠAnt ar
z b
Ġ{ ?
Type Name
u ably
Ġperform ers
][ <
Ġfig ured
Ġscatter ed
Pac ific
Ġcontinu um
Ġpol ic
h ig
ĠSi erra
Ġmet res
idel ity
Ġorgan ised
bre v
ĠB anks
Rot ation
ĠF oster
N d
es ium
b ia
Ġsub section
ĠIns ert
Ġb out
ĠLead ers
Ġf led
C AT
æ ł
Instance Of
18 8
Sign al
territ ory
O bs
ici ary
ĠBrad ley
ist ency
Ap is
Ġillust rates
ĠFac ility
Ġbuy er
Process ing
v or
ĠS olution
ias m
j p
is ers
Project s
as per
ac i
sche dule
ĠV PN
o qu
ol ation
ĠSk ip
sp h
23 4
iox ide
sp ons
Ġacc us
ORM AL
Ġgest ure
Sup plier
Ġr am
mes h
ĠO bs
ĠD ennis
23 1
ĠF REE
Ġdis cre
Browser Detector
ter min
ĠNep al
ST REAM
get Current
Ġenc ounters
Ġimag ined
ĠR uby
Ġg rief
enc oded
Ġf reed
17 7
Ġeconom ies
ch r
ĠJosh ua
w right
Ġappe aling
Ġrenew ed
Ġexceed s
V ir
Ġsc aled
Ġis set
Ġpur ple
assert False
Ġcoll apsed
22 6
G erman
Ġp t
ĠEx ternal
Ġautom otive
Doc s
ĠCl aire
F ACE
W il
Ġext ensively
ĠH arm
Ġaccount ability
Ġtrad itionally
Wr ong
ur ally
ĠJ ourney
omin ator
Ġcancel ed
ĠIter ator
Ch ief
+- +-
Ġprison ers
ĠS ens
ĠPl ans
Ġconcent rated
Opt im
cl er
t om
Ġcon ferences
Ġexp ans
E r
ĠS PE
Ġmon etary
Ġinit With
| ^{
Ġpractition ers
Ġspot light
t ap
Prot os
request s
ĠBry an
ĠVeter ans
B rian
ĠBe hind
19 42
16 1
publ ish
30 8
Ġeth n
Ġsh ake
() "
Key board
ĠK os
Ġmus cles
ra f
Ġcap ac
ĠEgypt ian
ĠShang hai
Ġanalyz ing
m ur
m aml
fil tr
Ġwhere in
Ġprob abilities
B ot
U i
Ġrel ates
ci i
erc ise
ĠPrinc ipal
M ah
Ġb eds
Ġconstr ained
Typ ed
IRT UAL
ĠM akes
mid rule
ĠStrateg ic
22 1
bold math
ĠEnt reprene
Ġprox imity
De ployment
ĠPublic ations
get Time
synt ax
ab br
Ġdown stream
ĠTr ace
Ġtouch ing
D X
string ify
LE FT
ĠM ouse
ĠSy nd
< '
Ġ! (
Ġlearn s
High light
| $
or um
Ġfac ial
Ġgovern ed
ĠMot ors
23 5
Ġmer c
Char les
g ap
F inder
ĠIndust ries
19 41
w x
an ie
ĠHol mes
à¤ ¤
AB C
R N
30 2
Ġmag azines
Ġhint s
Ġreflect ing
Ġfle w
ĠMus ical
Ac ad
C ook
Ind ices
Ġbook ing
Ġ= ================================================================
Ġmem o
n r
ĠTown ship
=" {
Ġun ited
ĠWar riors
qu est
ĠE ither
ĠMat hematics
I ce
Ġch ol
Ġinflamm atory
Ġspeed test
Ġn aked
V s
ure ment
ĠMil es
3 10
Ġtr ash
-- ;
Ġsau ce
æľ ī
Ap pro
ro e
est e
St e
Ġassess ments
cred entials
ĠMETH OD
H u
Ġcallback s
Ġtw isted
t ec
Ġn itrogen
ĠFA Q
k b
ĠImper ial
R pc
ĠHe aven
x f
Ġ[ -
ĠNorm an
Di agram
mod ern
Ġad res
Ġs odium
Lear ning
andid ates
Ġmolec ule
dat ab
A W
cor ollary
B uilt
t ically
Ġc ute
17 1
b uffers
ĠH i
ĠK er
man uel
Ġorgan izational
ĠPatri ots
Ġd ol
s aved
Ġbet ray
LE X
Dis cover
ĠHe ights
gl ass
Pr incipal
c ents
Ġsm iled
char set
ON LY
arch y
Ġprohib ited
V ery
Ġveget ables
is ch
ĠA verage
ĠDer by
GR AM
Ġnecess ity
os ion
Linear Layout
un n
Ġelim inated
Im plementation
Ġdifferent iation
ĠERR OR
bast ian
ĠS election
Ġcor rel
Ġperturb ation
Ġlo ops
Ġsear ched
Ġcaut ion
Ġlocal ization
ĠCar lo
LOB AL
CH O
Ġtr illion
c aster
dr ive
Ġinvestig ators
Ġindu ce
ĠJul ie
Ġinher ent
/ ******/
cho ose
ĠW ords
ĠĠĠĠĠĠĠĠĠĠĠĠĠĠ Ċ
S y
AR M
Ġflood ing
Ph ysical
der ived
at ology
est inal
ĠH ob
Ġ\ |\
ĠN uclear
ĠAtt ack
Ġsubstr ate
t ol
Ä «
Ġn ort
Ġrelax ed
Ġdec oder
ĠMet ropolitan
" +
B ul
ĠT itan
ĠRev enue
ĠBro s
17 8
Ġrank ings
Ġg el
cat Desc
B UT
c end
Ġinst ability
ĠLaw yers
Ġmob il
ĠBenn ett
19 6
Ġinter cept
ĠRun ning
left arrow
Ġremot ely
Ġre use
ĠP ere
dis ciplinary
d ater
x ff
Ġatt itudes
ĠRe becca
ĠRev e
Inv ocation
r te
ut ed
so lete
Ġor chestr
Ġpoll ing
en ities
Ġnormal ize
l m
Ad just
ĠExpl orer
Ġcol ored
ok i
Ġas pir
ĠParent s
Ġr ises
ield s
r ors
ĠH ook
ĠL loyd
ĠLind a
Ch o
ĠZ el
Ġmanip ulation
B on
Ġrel uct
Ġpun ct
ĠD h
con struction
Ġmake up
ĠG PS
ĠNe braska
C ES
call s
Ġt at
Ġtweet ed
> ("
22 8
ans wer
ĠI RS
ĠImm igration
Trans l
Start ed
ĠMur der
ĠO NE
ĠNews letter
ĠPay ment
ĠD iet
Ġle ar
Ġthr ive
Ġterror ism
ĠTw enty
tribut ing
ĠCol in
Ġdebug ging
ed uc
ad apt
oca ust
ĠHar bor
Ġrecall ed
ĠCh ampion
ĠHe brew
Ġte aches
Ġchar ter
Ex change
Ġpol ym
Config ure
Ġnormal ization
hen e
Ġdon or
Ġback wards
d an
igue z
Ġded ication
av ern
role um
Mart in
Ġconf irms
Initial ized
Ġcum ulative
B io
ĠĠĠĠĠĠĠĠĠĠĠĠĠĠĠĠĠĠĠĠĠĠĠĠĠĠĠĠĠĠĠĠ ĠĠĠĠĠĠĠĠĠĠĠĠĠ
D ou
read ing
j ab
Ġback s
b ill
Ge o
ĠSustain ability
') ).
Ġqual itative
widget s
Ġkid ney
ĠKat ie
E ric
Ġsc ared
Ġmod elling
Dec ode
\ -
ĠAs k
ĠP ages
D ays
ĠBenef its
W ER
ĠA DD
n is
Ġprompt ed
omet own
Ġhom ogeneous
ĠPat ient
;\ ;\
Ġplay list
Qu ote
long rightarrow
Ġgrand father
quir ies
ĠArt ists
ĠCons erv
Ġp ec
ĠSpe ech
ĠT N
Reg ex
ĠTrib une
ĠW ere
ĠEd it
3 80
L os
Ġmil it
ĠC OR
Ġc otton
ĠNov el
ĠCh arter
Throw able
Ġcontrad ict
ro ots
l v
ĠSup ply
aug hed
in cre
ast ically
Ġdec iding
Ġcommand er
ĠB ath
Ġco res
Ġreprodu ce
per malink
Ġhook s
Ġbott les
Ġd f
Ġspecific ations
ĠF u
ĠF resh
Ġam ino
Ġreg isters
CK ET
Ġrout ing
ĠFr ances
Ġacc red
Ġreg istr
) (\
Ġredu nd
Ġpreced ing
S ens
Ġo ste
ĠPlay Station
ĠMor r
ĠStart ing
Ġtrail ing
Ġa fore
H AL
Ġ$ ('.
ĠO wner
Ġhold ers
B ODY
ĠU ber
Ġexpress ing
vart heta
Ġqu arters
ĠBloom berg
d evelopment
ĠIo T
screens aver
ĠH omes
ĠType Error
27 5
ĠSpot ify
ĠHop kins
Ġeduc ated
aver age
El se
set Value
Ġgar bage
Ġr ust
Ġfavor ites
m inded
Un ity
Ġestim ator
ĠIll ust
in vest
then Return
Ġalloc ate
Ġsup plier
Ar c
At l
ĠRel ated
Ġadjust ments
tr ad
ĠB our
Ġj unction
du al
Ind eed
Ex act
print StackTrace
Ġan not
ĠRe ality
ĠI CC
V oid
å Ĩ
ator ial
ynt hesis
ĠCr aw
* \
Ġin k
ĠE ight
Ġtr acing
back slash
ĠId aho
Let ter
ĠF ake
Ġiter ate
Ġkin etic
ĠP owell
MPL ATE
im i
Ġal together
ĠTop ics
N an
Ġcor poration
Ġexhib ited
re a
Ġun a
Ġreserv oir
um bo
Ġinteract ing
r ice
ĠL G
S amples
Ġsaf egu
Ġt abs
(( (
trans parent
sm ooth
18 7
Ġsimpl ified
ĠPhot ography
ch rom
Ġ* */
us ions
) ^\
CP U
pr act
K evin
Ġp a
ĠH ours
Ġc af
ä ¿
ĠN H
val ued
ĠW elcome
30 3
D NA
ĠPop ular
gover nment
Ġcirc ulation
Ġnorm s
æ ŀ
Ġur ge
Ġinhab itants
L ee
sk in
ĠUs age
Ġcoher ent
C ome
Ġin con
ine z
Ġpot ent
ĠInt ent
Ġt ire
Ġwithdraw al
ĠGuid elines
Cal c
A ws
ct uary
Dis patch
ĠSet up
ĠGl en
K ar
ab olic
bour g
B IN
Ġamb ient
ĠSal v
ĠQu inn
b ower
Ġs ock
Ġcomm em
he w
ĠGe V
Ġreven ge
Ġ* **
Ġinf ant
ADD RESS
Ġterm ination
if fin
Ġmanufact ure
Ġintrig uing
ĠS oci
ĠG roups
s ock
et ype
ĠG ates
OP ER
ĠChe f
Ġsp ite
Ġgar age
ke leton
Ġacc ret
s omething
prevent Default
ierarch ical
Ġr ides
in ars
ĠC ord
S and
Ġp neum
Ġstation ary
ĠInvest ig
Ġcorrect ed
> @
Ġfor ty
ĠP and
Ġfirm ly
on aut
Ġcivil ian
il ogy
ĠShe ll
Tw ig
Ġcompress ed
Ġg aze
Ġincent ives
n P
Ġdiv ine
ĠGarc ia
th s
Ġlect ure
ĠE aster
60 1
With in
Ġgrad uates
div ider
Ġcar b
Im g
Byte Array
Ġcos mic
Ġvill ain
ĠJo el
ar u
ĠPer fect
Ġl aughed
ĠUl tra
IS A
ĠB orrow
UM ENT
Ġrook ie
C AN
/ :
Ġd airy
ne ath
Ġd ummy
P ull
Ġgen res
Ġtrans ient
fol k
ĠFem ale
g allery
v n
ĠTom my
Tr avel
DE V
St ory
vel ocity
i ots
Ġsubs id
Ġlat ent
Ġint ro
field set
ĠGu est
Ġparse Int
ĠD awn
Ġneighbor ing
ĠH aven
ĠJ ama
C AL
ATION S
ĠTh ai
map per
Ġassist ed
b irth
] ));
Ġg re
ĠP K
åľ ¨
ĠO z
ĠSc ar
ĠChief s
leq slant
Ġf ancy
Ġevolution ary
> ",
Ġperman ently
if s
Ġfinal e
ĠObject s
Ġswit ched
Ġlumin osity
Ġwel coming
S af
Res ize
Ġstress ed
18 2
ĠCal gary
ĠT ow
get Context
Ġ" </
aw i
å ½
ĠP G
Ġcounter parts
ĠReg ulations
ĠSte am
P rec
ak y
Ġvalid ated
DE VICE
Ġcr ude
Ġdefect s
Over flow
uten ant
w b
ĠD P
ĠG oth
19 18
Ġinst inct
Ġout rage
Ġk ills
ĠPortug uese
oid al
ĠS ah
Ġp unk
ĠS equ
Ġinter fer
Ġbr ave
Ġimplement ations
B G
process ed
tem perature
m ne
Ġre ver
ur st
Ġinv isible
ros so
Ġmed ieval
ĠM igration
ip ient
C ref
es ar
ĠNor wegian
ãĥ ³
ĠPl ugin
Ġcoll isions
Ġ( {\
ĠH our
Ġassess ing
ĠCheck s
Sl ider
Ġsynt hes
ĠIn struction
Ġfest ivals
ĠL amb
v acc
D aily
V an
ĠRep orter
{ })
Ġb t
W W
L ex
b ay
Ġc iting
Ġex changes
Ġcal ibration
Ġc ad
ĠC raft
Ġhe al
Ġwell ness
Ġcompl iment
& =\
re ction
ĠR ou
Ġcrow ds
ĠTr avis
Ġtrans plant
C OR
Null Exception
ĠCh ad
V ars
Ġbeat en
b az
Ġb ell
ĠM BA
ap a
ĠR angers
rec ords
r ab
Ġopen ly
Sl ide
ĠI SS
be havior
bor o
UM N
ĠBer g
Tex as
Ġ nd
ĠT IM
ĠAl fred
Def ine
Ġtend ency
Ġcur r
Ġshare holders
Ġgrand mother
br is
ĠRepresent ative
z heimer
Ġun changed
Pro blem
ĠRed is
xx xx
U INT
un ge
Ġhospital ity
Ġfat igue
Î ¬
Ġb ub
ĠIn nov
ĠR ico
Ġshe er
the m
ĠF ans
en berg
ĠB ir
Ġpredict ive
Ġspec ifying
38 4
PO INT
Ġanth rop
Ġrender er
Ġemp ire
------------ --
Or g
ĠF loyd
ĠRead y
Ġbreak through
ĠAlex and
Com pute
ĠM AC
at omy
ĠM ann
v ik
19 1
getElements By
P in
CI AL
worth y
ĠT ib
Ġappropri ately
Ġment ions
V ED
P references
Ġp izza
Reg ular
BU IL
Ġret ros
Mark et
Ġ elli
Ġmit igate
ĠS ans
Ġhe ap
Ġp ile
ĠRuntime Exception
Med ical
Ġsuccess or
ĠEr n
(" ")]
Ġgl ance
block quote
Ġpersonal ized
Ġsub stances
Ġqual ifying
Ġ ))
Ġreg ex
28 8
ĠH H
b ash
Ġp ants
Ġplace bo
Ġabs urd
Ġec ological
clide an
ĠBeaut iful
ĠCitiz ens
ĠNurs ing
w ent
id is
Ġop am
Mat ches
ĠColumb us
Ø ©
17 9
Ġintegr ating
c out
Ġprotest ers
Ġdist ancing
Ġmid st
Ġmed ications
ĠC anyon
Ġf ond
Ġen rollment
Ðµ Ð»
Ġem itted
sub title
Ð½ Ð¸
ATTR IBUTE
A Z
l ag
ĠB T
Ġbl ink
Ġdig its
Ġcommission ed
Ġl ighter
ĠB ent
act ivation
Ġg reed
est ure
Ġdr ums
ĠPr ison
ĠTh reat
term inal
ĠP av
ĠW end
User Agent
ĠAdv ance
Ġafore mentioned
ĠM emphis
ine ar
ĠEqu ation
Ġl anes
Ġsu its
lo ose
ĠDis cover
Ġconstitut ion
Ġimpr ison
Ġan notations
ĠM ik
Ar row
ĠArab ic
ĠSup erv
Attr s
read able
Ġschedul ing
Ġfaith ful
Ġhor rible
ĠS cre
Com posite
Ġemb ry
Ġ Ùħ
Ġitem Members
Ġboy friend
Ġwe aken
Ġsoon er
ĠVen us
ĠH S
Ġthr ust
E F
ov an
aut hentication
= _
Em bed
or ian
ĠW ing
Http Request
ĠPier re
b road
Ġam ended
Ġfar mer
I ts
ad ers
ĠP am
Ġsurre nder
yl on
In stant
Ġun limited
ĠZ en
Ġreview ing
Aut hent
00 6
ĠR alph
Ġdisc ourse
P OL
o auth
Ġo m
ĠList en
equal ities
ĠL ed
Ġoper and
Ġquestion ed
âĢ Ĳ
back up
Im plemented
) ];
Ġde pr
Ġtechn ically
ĠE SG
ĠS ed
ĠC atch
add itional
)} (\
Ġf lick
ĠW on
ĠV enezuel
CO PY
Ġwork space
us b
ĠSh ape
ĠT iger
"> '
p ure
Com bo
25 4
Current ly
ĠOtt awa
{ |
Dis able
W ITH
$. }
ĠB ears
Ġmort gage
ĠKit chen
Ġv ic
ĠM ul
ĠU INT
Ġcre ep
Ġt ier
Ġt witter
ĠE A
ĠJ D
Ġrecip es
Ð ¶
ĠB ee
LE AN
fil m
ĠT error
Ġinject ed
ĠE du
ĠW ave
ĠAr r
Ġcatch ing
U tility
ĠGl enn
Ġflag ship
Ġcontrad iction
Ġorth ogonal
ĠØ ¨
ograph ics
Ġcompl ain
Ġvirus es
17 4
ag ne
Ġan ch
ĠE ddie
ĠMar x
Ġby pass
Ġconsist ed
PHP Excel
Ñ ī
Ġl ingu
ĠM ight
ĠOcc up
ĠA ri
ĠFr an
Ġsever ely
f ab
30 5
ĠB ak
Con nected
success ful
ĠFle et
Gr and
Ġmarg ins
C ss
q s
ch ars
Ġim pe
h orn
ĠGab riel
SER VICE
Ġpolit ically
Ġartifact s
omb ie
Â ¶
G al
d it
Ġm aternal
ĠSur face
om p
.. ">
Ġch ase
Gu ide
Att achment
quis ite
host name
ĠM olecular
Ġtri be
ĠAgricult ural
s ound
ffic iency
Ġsubsidi ary
ĠBul let
Ġar ises
Ġcous in
ce ans
op edia
ĠVacc ine
FA ILED
Ġto ys
ĠT ournament
ĠBo eing
Ġbr idges
ĠLu is
R o
comm unity
re ceive
XXXX XXXX
ĠI EEE
c nt
is Valid
Ġ ].
Ġpres ervation
Ġin ning
ĠSche me
ĠP ull
ME DI
S el
AC CESS
Ġbright ness
S ym
ĠD uncan
M IC
h art
View ById
Ġdis close
Pos itive
ĠNaz i
ĠGro ve
Ġham mer
Ġ( .
Ġst ance
ĠWall ace
Ġround ed
ĠL abs
Ġregul ators
table block
Ġsell s
op ting
ĠO FF
ĠBi ography
greg ation
n ested
Ġd ocker
LA S
root Scope
ĠSat urn
ĠPr ide
Ġcontract ors
ĠValid ation
Neg ative
str ategy
Ġob esity
18 3
AC L
mult ip
Ġlic ensing
Ġcab inet
M aps
Ġinv itation
ĠSp ark
] ",
h fill
te ction
)) {
ĠE sp
Ġsur pass
k ubernetes
in variant
Ġlat ency
Ġdecor ated
aw ays
ĠSe q
Ġneg lect
dim en
Ġt iles
Ġch rome
pack ed
Ġbl ues
ĠS ector
ĠS I
40 5
Ġintern ally
Ġalumin um
Ġrem ed
az ing
è ¦
Ġpress ures
ç Ľ
Dr ive
ĠMan ual
Ġc ort
Ġcalc ium
ĠRom ance
Ġglass es
Adv anced
Ġat tractions
Ġset Up
ST M
Ġh ood
P AGE
ov ich
play ers
Ġcost ly
EX P
ĠProcess ing
r ss
ĠD rew
Ġoff shore
Named Cell
Ġa eros
ur ated
Fin ished
Ġcolor ful
Ġcollabor ate
ĠH onda
Ġdiss ip
E ll
ĠR ET
consum er
ĠCh oose
Ġr ivals
Ġswe at
ĠC W
Ġne at
ĠBl uetooth
Ġin box
ĠN g
,... ,
Ġuncomfort able
Not ice
Ġint end
ãģ Ļ
) <
Ġsl avery
ĠB inary
19 43
Ġbl ade
W ould
ĠCru ise
Sen ior
ĠAm anda
ĠÎ ²
Ġro d
Ġspher ical
Ġfundra ising
ĠAr rays
Ch rome
ĠT akes
ĠHung ary
ĠT B
Ġsid ew
art en
Ġcompet itions
ĠB ug
play ing
Ġ icons
Ġexam ining
ĠEm irates
USE D
W ant
Ġc ement
Ġg ov
ĠN ine
Ġunderstand s
ros is
Ġtrou bles
reg istration
Ver b
ĠInj ury
Ġ*/ ;
Ġmigr ants
Ġdemonstr ating
ĠLuc y
40 3
Target s
Ġth umb
ĠFour th
tr uct
Associ ation
ĠR anch
start ed
Ġsp ac
Ġmon ument
Ġtr act
Col ors
Ġeduc ators
Ġsymbol ic
Ġjump ing
publ isher
sp r
LOC AL
Ġref ined
pl oys
}{ *}{
Ġcost ume
Ġgen us
Ġap par
Ġconcert s
ich i
Ġverb ose
ote chnology
Ġenthus iasm
s App
Ġus eless
Ġflu ores
ä» ¶
/ ************************************************************************
{ (\
Ġclos es
Dem ocr
Ġop posing
Ġc pu
ĉĉĉ ĠĠĠ
ĠB ever
Gu ard
Ġobserv ing
ĠLog in
ĠAssoci ates
Ġassign ments
Ġhelic opter
7 68
P et
Ġc elebrities
ĠTe a
ĠRel igion
ĠAct iv
G row
ĠB ra
Ġhe ated
Ġun used
Ġqu arantine
query Selector
ĠM ills
ĠV ideos
ĠRepresent atives
ul ators
Ġpack ets
s id
get Data
Spr ite
) ";
ĠCh ip
ĠJeff rey
d yn
re li
Ph aser
HAND LE
Ġv ivo
ĠP CR
ĠH BO
ĠOut look
( %
Ġsp ike
Ġscan ning
Ġd ent
Ġt il
Ġcontin ually
fort unate
Ear th
cont ainers
T s
Requ ire
2 14
ĠB oss
Ad s
Ġrespond s
ĠHur ricane
Ġrub ber
ĠF oo
Ġmon sters
ĠFlore nce
:// $
SD L
ol an
ĠF irm
Ġelev ation
ro v
ĠR out
the ir
ãĤ Ĵ
7 20
Ġdipl om
Ġp ound
Ġm p
ant on
Ġgro cery
He art
ĠWeek end
ĠG and
17 3
s ens
Ġillust ration
im ates
ĠH annah
Ġpl aint
if a
Ġc d
cont aining
Ġ< ![
O VER
ĠSy rian
oc c
23 3
Up dates
Ġland mark
ĠPresident ial
Rep o
ENABLE D
NY SE
Ġcheck point
Ġtranslate X
4 20
ĠS tra
Y A
ĠCo ordinator
Ġepid emic
Fr ance
ĠHig gs
es pecially
Ġb izarre
Opt s
ĠNav al
ĠCook ies
ĠG itHub
Ġy a
uc ceed
Ã µ
ian ces
Ġ\ [
EM ENT
ĠE ug
r us
Ġsh ook
Î ®
Ġconf using
r ative
ĠD ro
ov i
Ġacc ent
ĠQuant um
Ġspecial ists
Ġorgan ize
Ġrevolution ary
ĠST ATE
Ġrum ors
Na N
ĠM az
Filter Database
ĠPrem ium
Ġver se
Ġoptim istic
* (
Ġfr ank
Ġgrab bed
poll ing
ch ip
å Ģ
ĠS aw
ĠR ush
Ġste ering
s ites
ĠH ip
de leted
Ġlack s
Ġrun ners
Ġisol ate
Ġmetabol ism
Key words
Ġhung ry
S pl
Ġaver aging
em b
Ġdepos its
Ġass ay
ĠLog an
dig it
Ġdem ol
Ġhe pat
P a
Ġ ,\
Ġexam ines
PRE SS
ost ream
Work s
ĠN T
Ġs iblings
ĠD epend
Ġanaly tic
Similar ly
Ġn as
Ġour s
Ġvol untary
bel iev
Ġtransform s
ĠTam il
âĢĿ ).
Ġl akes
Ġdes irable
Cl imate
ĠEngine er
h ma
prot oc
PO SE
ĠL opez
up les
Ġemb ark
Ġmetab olic
Ġplant ed
ĠHold ings
ĠLeban on
ĠN y
Ġdis placement
Ġpar ish
im its
Ġmil estone
inherit Doc
c url
s nap
Ġg fx
Ġmon itored
Ġfight ers
Ġpron ounced
k an
ĠW itch
Ġin duct
f eld
In c
ï¼ ļ
Ġlaugh ing
19 38
ĠUn ity
Ġearth quake
Ġsimpl ify
IN LINE
Ġcontin uation
Ġroot ed
Ġch ore
ĠGl obe
document ation
ĠNic ole
le ave
Ġign oring
d ose
on er
Click Listener
Ļ Ĥ
Ġshock ing
List s
Ġv ine
Ġdegrad ation
ys ide
æ Ŀ
Ġas sembled
aw ait
ĠEduc ational
Ġsuperv ision
och ond
prot ect
Ġ{ :
ĠBar on
Ġ& $
M igration
r ac
v iol
ĠC uba
' ',
P rior
Ġc urs
Ġmid night
lett ers
g ot
Ġaggreg ation
Dis covery
Ġgrad uation
Ġkid n
Ch icago
hib ernate
ĠEm pty
22 9
24 7
Ġsmart phones
y ellow
ib us
Ġlater al
ĠÐ½ Ð°
! ");
ĠSt uart
Ġj okes
Ġsk ew
Ġbacter ial
ĠQueens land
el o
ĠV a
Hel pers
bin om
d ifferent
k u
Ġaccum ulation
Ex ist
Ġnation ally
6 55
Ġm ph
col s
Ġpolynomial s
ent i
OFF SET
Ġ ));
Ġarg uing
av o
no ise
Fl ush
old ing
ĠSer ge
yd ra
ĠBr istol
ill es
2 16
ĠC ertain
ĠG lock
ĠCO PY
18 9
render ing
Ġpos es
é ¡
ph al
US H
ch mark
ke eping
v v
ac ellular
Text Box
ĠCon v
m q
Ġtre asure
ĠC inema
Ġg amma
Ġexecut ing
[...]
