{
  "version": "1.0",
  "truncation": null,
  "padding": null,
  "added_tokens": [
    {
      "id": 0,
      "content": "[UNK]",
      "single_word": false,
      "lstrip": false,
      "rstrip": false,
      "normalized": false,
      "special": true
    }
  ],
  "normalizer": null,
  "pre_tokenizer": {
    "type": "Sequence",
    "pretokenizers": [
      {
        "type": "Digits",
        "individual_digits": false
      },
      {
        "type": "ByteLevel",
        "add_prefix_space": false,
        "trim_offsets": true,
        "use_regex": true
      }
    ]
  },
  "post_processor": null,
  "decoder": null,
  "model": {
    "type": "BPE",
    "dropout": null,
    "unk_token": "[UNK]",
    "continuing_subword_prefix": null,
    "end_of_word_suffix": null,
    "fuse_unk": false,
    "byte_fallback": false,
    "vocab": {
      "[UNK]": 0,
      "!": 1,
      "\"": 2,
      "#": 3,
      "$": 4,
      "%": 5,
      "&": 6,
      "'": 7,
      "(": 8,
      ")": 9,
      "*": 10,
      "+": 11,
      ",": 12,
      "-": 13,
      ".": 14,
      "/": 15,
      "0": 16,
      "1": 17,
      "2": 18,
      "3": 19,
      "4": 20,
      "5": 21,
      "6": 22,
      "7": 23,
      "8": 24,
      "9": 25,
      ":": 26,
      ";": 27,
      "<": 28,
      "=": 29,
      ">": 30,
      "?": 31,
      "@": 32,
      "A": 33,
      "B": 34,
      "C": 35,
      "D": 36,
      "E": 37,
      "F": 38,
      "G": 39,
      "H": 40,
      "I": 41,
      "J": 42,
      "K": 43,
      "L": 44,
      "M": 45,
      "N": 46,
      "O": 47,
      "P": 48,
      "Q": 49,
      "R": 50,
      "S": 51,
      "T": 52,
      "U": 53,
      "V": 54,
      "W": 55,
      "X": 56,
      "Y": 57,
      "Z": 58,
      "[": 59,
      "\\": 60,
      "]": 61,
      "^": 62,
      "_": 63,
      "`": 64,
      "a": 65,
      "b": 66,
      "c": 67,
      "d": 68,
      "e": 69,
      "f": 70,
      "g": 71,
      "h": 72,
      "i": 73,
      "j": 74,
      "k": 75,
      "l": 76,
      "m": 77,
      "n": 78,
      "o": 79,
      "p": 80,
      "q": 81,
      "r": 82,
      "s": 83,
      "t": 84,
      "u": 85,
      "v": 86,
      "w": 87,
      "x": 88,
      "y": 89,
      "z": 90,
      "{": 91,
      "|": 92,
      "}": 93,
      "~": 94,
      "¡": 95,
      "¢": 96,
      "£": 97,
      "¤": 98,
      "¥": 99,
      "¦": 100,
      "§": 101,
      "¨": 102,
      "©": 103,
      "ª": 104,
      "«": 105,
      "¬": 106,
      "®": 107,
      "¯": 108,
      "°": 109,
      "±": 110,
      "²": 111,
      "³": 112,
      "´": 113,
      "µ": 114,
      "¶": 115,
      "·": 116,
      "¸": 117,
      "¹": 118,
      "º": 119,
      "»": 120,
      "¼": 121,
      "½": 122,
      "¾": 123,
      "¿": 124,
      "Â": 125,
      "Ã": 126,
      "Ä": 127,
      "Å": 128,
      "Æ": 129,
      "Ç": 130,
      "È": 131,
      "É": 132,
      "Ê": 133,
      "Ë": 134,
      "Ì": 135,
      "Í": 136,
      "Î": 137,
      "Ï": 138,
      "Ð": 139,
      "Ñ": 140,
      "Ò": 141,
      "Ó": 142,
      "Ô": 143,
      "Õ": 144,
      "Ö": 145,
      "×": 146,
      "Ø": 147,
      "Ù": 148,
      "Ú": 149,
      "Û": 150,
      "Ü": 151,
      "Ý": 152,
      "Þ": 153,
      "ß": 154,
      "à": 155,
      "á": 156,
      "â": 157,
      "ã": 158,
      "ä": 159,
      "å": 160,
      "æ": 161,
      "ç": 162,
      "è": 163,
      "é": 164,
      "ê": 165,
      "ë": 166,
      "ì": 167,
      "í": 168,
      "î": 169,
      "ï": 170,
      "ð": 171,
      "ñ": 172,
      "ò": 173,
      "ó": 174,
      "ô": 175,
      "Ā": 176,
      "ā": 177,
      "Ă": 178,
      "ă": 179,
      "Ą": 180,
      "ć": 181,
      "Ĉ": 182,
      "ĉ": 183,
      "Ċ": 184,
      "ċ": 185,
      "Č": 186,
      "č": 187,
      "Ď": 188,
      "ď": 189,
      "Đ": 190,
      "Ē": 191,
      "ē": 192,
      "Ĕ": 193,
      "Ė": 194,
      "Ę": 195,
      "Ě": 196,
      "ě": 197,
      "Ĝ": 198,
      "ĝ": 199,
      "Ğ": 200,
      "Ġ": 201,
      "ġ": 202,
      "Ģ": 203,
      "ģ": 204,
      "Ĥ": 205,
      "ĥ": 206,
      "Ħ": 207,
      "ħ": 208,
      "Ĩ": 209,
      "ĩ": 210,
      "Ī": 211,
      "ī": 212,
      "Ĭ": 213,
      "ĭ": 214,
      "Į": 215,
      "į": 216,
      "İ": 217,
      "ı": 218,
      "Ĳ": 219,
      "ĳ": 220,
      "Ĵ": 221,
      "ĵ": 222,
      "Ķ": 223,
      "ķ": 224,
      "ĸ": 225,
      "Ĺ": 226,
      "ĺ": 227,
      "Ļ": 228,
      "ļ": 229,
      "Ľ": 230,
      "ľ": 231,
      "Ŀ": 232,
      "ŀ": 233,
      "Ł": 234,
      "ł": 235,
      "Ń": 236,
      "ĠĠ": 237,
      "Ġt": 238,
      "ĠĠĠĠ": 239,
      "in": 240,
      "Ġa": 241,
      "er": 242,
      "on": 243,
      "he": 244,
      "re": 245,
      "at": 246,
      "en": 247,
      "or": 248,
      "Ġthe": 249,
      "Ġs": 250,
      "es": 251,
      "an": 252,
      "it": 253,
      "Ġc": 254,
      "is": 255,
      "al": 256,
      "ar": 257,
      "Ġw": 258,
      "Ġo": 259,
      "ed": 260,
      "Ġf": 261,
      "ing": 262,
      "ion": 263,
      "Ġp": 264,
      "ĠĠĠ": 265,
      "nd": 266,
      "le": 267,
      "Ġb": 268,
      "ou": 269,
      "ic": 270,
      "ĠĠĠĠĠĠĠĠ": 271,
      "as": 272,
      "Ġin": 273,
      "Ġof": 274,
      "Ġm": 275,
      "ro": 276,
      "Ġd": 277,
      "Ġto": 278,
      "Ġand": 279,
      "et": 280,
      "ct": 281,
      "ent": 282,
      "Ġh": 283,
      "st": 284,
      "el": 285,
      "Ġth": 286,
      "il": 287,
      "om": 288,
      "am": 289,
      "Ġre": 290,
      "Ġn": 291,
      "âĢ": 292,
      "id": 293,
      "ĠS": 294,
      "Ġl": 295,
      "ut": 296,
      "ol": 297,
      "ce": 298,
      "im": 299,
      "ĠT": 300,
      "Ġe": 301,
      "ur": 302,
      "ation": 303,
      "ig": 304,
      "ot": 305,
      "ĠC": 306,
      "ĠĠĠĠĠĠĠ": 307,
      "ĠA": 308,
      "iv": 309,
      "ad": 310,
      "se": 311,
      "Ġ(": 312,
      "Ġg": 313,
      "ch": 314,
      "Ġis": 315,
      "ĠI": 316,
      "ul": 317,
      "ay": 318,
      "ow": 319,
      "Ġ=": 320,
      "Ġfor": 321,
      "od": 322,
      "ag": 323,
      "if": 324,
      "tr": 325,
      "th": 326,
      "ĉĉ": 327,
      "ĠM": 328,
      "ly": 329,
      "</": 330,
      "Ġon": 331,
      "un": 332,
      "ers": 333,
      "em": 334,
      "us": 335,
      "Ġv": 336,
      "Ġbe": 337,
      "ac": 338,
      "ith": 339,
      "ter": 340,
      "=\"": 341,
      "ĠP": 342,
      "ab": 343,
      "ir": 344,
      ");": 345,
      "ate": 346,
      "pe": 347,
      "um": 348,
      "ĠB": 349,
      "--": 350,
      "Ġst": 351,
      "Ġthat": 352,
      "av": 353,
      "est": 354,
      "Ġ{": 355,
      "Ġ$": 356,
      "ap": 357,
      "qu": 358,
      "Ġcon": 359,
      "Ġ<": 360,
      "oc": 361,
      "ver": 362,
      "Ġwith": 363,
      "âĢĻ": 364,
      "ht": 365,
      "ĠD": 366,
      "ess": 367,
      "ĠR": 368,
      "ew": 369,
      "Ġas": 370,
      "Ġ\\": 371,
      "20": 372,
      "Ġy": 373,
      "//": 374,
      "ĠĠĠĠĠĠĠĠĠĠĠ": 375,
      "ex": 376,
      "ass": 377,
      "and": 378,
      "Ġwh": 379,
      "ĠF": 380,
      "Ġan": 381,
      "res": 382,
      "ĠH": 383,
      "op": 384,
      "ction": 385,
      "our": 386,
      "Ġal": 387,
      "Ġit": 388,
      "Ġpro": 389,
      "čĊ": 390,
      "ist": 391,
      "ĠW": 392,
      "ĠL": 393,
      "end": 394,
      "ĠN": 395,
      "ort": 396,
      "Ġ*": 397,
      "ame": 398,
      "ain": 399,
      "pt": 400,
      "ill": 401,
      "ub": 402,
      "ĠE": 403,
      "os": 404,
      "ity": 405,
      "ere": 406,
      "ke": 407,
      "Ġr": 408,
      "ore": 409,
      "ĠG": 410,
      "Ġde": 411,
      "Ġex": 412,
      "Ġcom": 413,
      "up": 414,
      "ue": 415,
      "ĠThe": 416,
      "ment": 417,
      "rom": 418,
      "age": 419,
      "Ġcl": 420,
      "pl": 421,
      "Ġ}": 422,
      "art": 423,
      "ies": 424,
      "ect": 425,
      "Ġat": 426,
      "Ġor": 427,
      "\">": 428,
      "Ġ\"": 429,
      "Ġare": 430,
      "ri": 431,
      "ine": 432,
      "ld": 433,
      "Ġthis": 434,
      "ive": 435,
      "Ġby": 436,
      "ight": 437,
      "all": 438,
      "nt": 439,
      "ant": 440,
      "Ġhe": 441,
      "og": 442,
      "ĠâĢ": 443,
      "ĠO": 444,
      "ure": 445,
      "..": 446,
      "ack": 447,
      "port": 448,
      "Ġse": 449,
      "ĠĠĠĠĠĠĠĠĠĠĠĠĠĠĠĠ": 450,
      "Ġwas": 451,
      "iz": 452,
      "ial": 453,
      "ud": 454,
      "Ġfrom": 455,
      "ath": 456,
      "cl": 457,
      "urn": 458,
      "Ġwe": 459,
      "Ġtr": 460,
      "ĠĠĠĠĠ": 461,
      "ĠJ": 462,
      "ans": 463,
      "()": 464,
      "ust": 465,
      "ult": 466,
      "ib": 467,
      "**": 468,
      "ave": 469,
      "per": 470,
      "con": 471,
      "ext": 472,
      "able": 473,
      "act": 474,
      "Ġsh": 475,
      "00": 476,
      "ge": 477,
      "Ġnot": 478,
      "rou": 479,
      "Ġch": 480,
      "sp": 481,
      "ff": 482,
      "out": 483,
      "orm": 484,
      "are": 485,
      "Ġyou": 486,
      "ard": 487,
      "ov": 488,
      "Ġif": 489,
      "ind": 490,
      "ell": 491,
      "ost": 492,
      "ip": 493,
      "ĠU": 494,
      "Ġclass": 495,
      "com": 496,
      "Ġ&": 497,
      "ast": 498,
      "Ġle": 499,
      "turn": 500,
      "ype": 501,
      "----": 502,
      "get": 503,
      "ak": 504,
      "The": 505,
      "int": 506,
      "eg": 507,
      "ok": 508,
      "ode": 509,
      "ace": 510,
      "ary": 511,
      "ase": 512,
      "ated": 513,
      "Ġhave": 514,
      "==": 515,
      "ber": 516,
      "ide": 517,
      "ile": 518,
      "ire": 519,
      "Ġ'": 520,
      "ef": 521,
      "ice": 522,
      "ord": 523,
      "Ġ-": 524,
      "ould": 525,
      "_{": 526,
      "âĢĿ": 527,
      "ite": 528,
      "ions": 529,
      "Ġcan": 530,
      "ork": 531,
      "ime": 532,
      "Ġj": 533,
      "ep": 534,
      "ear": 535,
      "ical": 536,
      "ref": 537,
      "li": 538,
      "ign": 539,
      "Ġpl": 540,
      "ich": 541,
      "ong": 542,
      "ia": 543,
      "Ġus": 544,
      "ata": 545,
      "Ġhas": 546,
      "Ġint": 547,
      "str": 548,
      "19": 549,
      "Ġall": 550,
      "ĠK": 551,
      "Ġab": 552,
      "In": 553,
      "ĠIn": 554,
      "ĠĠĠĠĠĠĠĠĠĠĠĠĠĠĠ": 555,
      "pro": 556,
      "ence": 557,
      "cc": 558,
      "lic": 559,
      "ail": 560,
      "Ġad": 561,
      "Ġcomp": 562,
      "ject": 563,
      "ance": 564,
      "Ġnew": 565,
      "ang": 566,
      "form": 567,
      "ĠV": 568,
      "ĠTh": 569,
      "Ġu": 570,
      "Ġk": 571,
      "one": 572,
      "Ġwill": 573,
      "Ġim": 574,
      "erv": 575,
      "ens": 576,
      "'s": 577,
      "ob": 578,
      "ations": 579,
      "ild": 580,
      "ec": 581,
      "Ġ//": 582,
      "Ġreturn": 583,
      "ther": 584,
      "ition": 585,
      "ev": 586,
      "ous": 587,
      "Ġcont": 588,
      "201": 589,
      "Ġun": 590,
      "hen": 591,
      "ĠSt": 592,
      "Ġres": 593,
      ").": 594,
      "ress": 595,
      "ents": 596,
      "Ġ[": 597,
      "alue": 598,
      "Ġdo": 599,
      "ublic": 600,
      "ory": 601,
      "ome": 602,
      "ont": 603,
      "ach": 604,
      "ock": 605,
      "ph": 606,
      "ert": 607,
      "::": 608,
      "Ġout": 609,
      "ĉĉĉĉ": 610,
      "),": 611,
      "Ġ</": 612,
      "Ġap": 613,
      "ll": 614,
      "Ġen": 615,
      "->": 616,
      "du": 617,
      "row": 618,
      "Ġar": 619,
      "{\\": 620,
      "Ġdis": 621,
      "Ġbut": 622,
      "ĠâĢľ": 623,
      "ook": 624,
      "gh": 625,
      "ource": 626,
      "Ġup": 627,
      "tring": 628,
      "so": 629,
      "../": 630,
      "Ġwhich": 631,
      "elf": 632,
      "ft": 633,
      "Ġhis": 634,
      "unction": 635,
      "Ġtheir": 636,
      "Ġgo": 637,
      "Ġme": 638,
      "ake": 639,
      "St": 640,
      "10": 641,
      "ull": 642,
      "ual": 643,
      "ark": 644,
      "own": 645,
      "aw": 646,
      "Ġ@": 647,
      "ose": 648,
      "cri": 649,
      "Ġmore": 650,
      "Ġ$\\": 651,
      "ink": 652,
      "aram": 653,
      "iew": 654,
      "Ġ/": 655,
      "Ġthey": 656,
      "ors": 657,
      "Ġone": 658,
      "fer": 659,
      "ound": 660,
      "au": 661,
      "\",": 662,
      "Ġpr": 663,
      "ĠCh": 664,
      "ps": 665,
      "ple": 666,
      "ry": 667,
      "ree": 668,
      "ize": 669,
      "her": 670,
      "ption": 671,
      "ĠĊ": 672,
      "te": 673,
      "ml": 674,
      "Ġ+": 675,
      "set": 676,
      "Ġev": 677,
      "ma": 678,
      "math": 679,
      "Ġsc": 680,
      "div": 681,
      "ount": 682,
      "Ġget": 683,
      "Ġsu": 684,
      "Ġper": 685,
      "ĠY": 686,
      "(\"": 687,
      "Ġso": 688,
      "ck": 689,
      "ss": 690,
      "();": 691,
      "ely": 692,
      "ne": 693,
      "Ġqu": 694,
      "eth": 695,
      "essage": 696,
      "tern": 697,
      "Ġman": 698,
      "oll": 699,
      "span": 700,
      "ick": 701,
      "irst": 702,
      "Ġpart": 703,
      "Ġsp": 704,
      "clud": 705,
      "ays": 706,
      "ings": 707,
      "Ġwho": 708,
      "old": 709,
      "enc": 710,
      "yst": 711,
      "ool": 712,
      "Ġwere": 713,
      "ery": 714,
      "put": 715,
      "ian": 716,
      "></": 717,
      "Ġne": 718,
      "Ġabout": 719,
      "iel": 720,
      "Ġli": 721,
      "pect": 722,
      "--------": 723,
      "lect": 724,
      "Ġag": 725,
      "Ġ.": 726,
      "ener": 727,
      "hed": 728,
      "fr": 729,
      "><": 730,
      "Ġalso": 731,
      "Ġwork": 732,
      "Ġits": 733,
      "ates": 734,
      "Ġpre": 735,
      "Ġpublic": 736,
      "202": 737,
      "Ġher": 738,
      "inal": 739,
      "',": 740,
      "Ġover": 741,
      "Ġstr": 742,
      "we": 743,
      "ug": 744,
      "Ex": 745,
      "ict": 746,
      "lo": 747,
      "Ġdef": 748,
      "Ġour": 749,
      "err": 750,
      "mer": 751,
      "cre": 752,
      "Ġyour": 753,
      "sh": 754,
      "fig": 755,
      "ield": 756,
      "pec": 757,
      "}}": 758,
      "ER": 759,
      "Ġset": 760,
      "ish": 761,
      "Ġbeen": 762,
      "nder": 763,
      "pr": 764,
      "Ġtime": 765,
      "****": 766,
      "ys": 767,
      "Ġyear": 768,
      "Ġsa": 769,
      "Ġname": 770,
      "Ġother": 771,
      "Ġ:": 772,
      "oint": 773,
      "equ": 774,
      "ty": 775,
      "text": 776,
      "Ġte": 777,
      "ystem": 778,
      "wo": 779,
      "../../": 780,
      "over": 781,
      "Th": 782,
      "Ġfunction": 783,
      "Ġ*/": 784,
      "ics": 785,
      "Ġwhen": 786,
      "reat": 787,
      "Ġany": 788,
      "rit": 789,
      "anc": 790,
      "ve": 791,
      "oid": 792,
      "Ġro": 793,
      "Ġ|": 794,
      "ons": 795,
      "Ġob": 796,
      "ng": 797,
      "Ġthere": 798,
      "ix": 799,
      "Ġvar": 800,
      "app": 801,
      "ĠIt": 802,
      "vel": 803,
      "erm": 804,
      "fter": 805,
      "iss": 806,
      "odel": 807,
      "Ġhad": 808,
      "atch": 809,
      "ĉĉĉ": 810,
      "Ġthan": 811,
      "^{": 812,
      "Ġ#": 813,
      "les": 814,
      "ĠĠĠĠĠĠĠĠĠĠĠĠĠĠĠĠĠĠĠ": 815,
      "io": 816,
      "ON": 817,
      "====": 818,
      "ond": 819,
      "html": 820,
      "Ġsup": 821,
      "Pro": 822,
      "ove": 823,
      "gr": 824,
      "ax": 825,
      "12": 826,
      "Ġinter": 827,
      "ie": 828,
      "ific": 829,
      "Ġass": 830,
      "IN": 831,
      "Ġdes": 832,
      "Ġinto": 833,
      "ĠĠĠĠĠĠĠĠĠ": 834,
      "name": 835,
      "('": 836,
      "Ġadd": 837,
      "ra": 838,
      "}\\": 839,
      "ange": 840,
      "Ġoff": 841,
      "igh": 842,
      "Ġhref": 843,
      "oun": 844,
      "Ġsome": 845,
      "))": 846,
      "ray": 847,
      "}$": 848,
      "Ġrec": 849,
      "Ġacc": 850,
      "line": 851,
      "Ġcomm": 852,
      "to": 853,
      "Ġwould": 854,
      "Ġthem": 855,
      "ater": 856,
      "ĠâĢĵ": 857,
      "Ġdata": 858,
      "this": 859,
      "://": 860,
      "Ġfirst": 861,
      "trib": 862,
      "round": 863,
      "Ġpe": 864,
      "abel": 865,
      "Name": 866,
      "__": 867,
      "source": 868,
      "ise": 869,
      "pos": 870,
      "Ġkn": 871,
      "arg": 872,
      "ious": 873,
      "200": 874,
      "ĠWe": 875,
      "ning": 876,
      "message": 877,
      "roup": 878,
      "Ġno": 879,
      "Ġlike": 880,
      "ator": 881,
      "Ġsaid": 882,
      "ient": 883,
      "ade": 884,
      "lation": 885,
      "ied": 886,
      "trans": 887,
      "ally": 888,
      "arch": 889,
      "Ġbet": 890,
      "urre": 891,
      "als": 892,
      "ĠHe": 893,
      "atic": 894,
      "tribut": 895,
      "cal": 896,
      "tt": 897,
      "uild": 898,
      "Ġtype": 899,
      "Ġfe": 900,
      "ames": 901,
      "olog": 902,
      "Type": 903,
      "Ġonly": 904,
      "ĠThis": 905,
      "ative": 906,
      "uct": 907,
      "key": 908,
      "import": 909,
      "Ġtwo": 910,
      "Ġcol": 911,
      "RE": 912,
      "ĠUn": 913,
      "Ġtrans": 914,
      "Ġvalue": 915,
      "Ġind": 916,
      "rap": 917,
      "ople": 918,
      "ities": 919,
      "Ġend": 920,
      "11": 921,
      "ues": 922,
      "param": 923,
      "oy": 924,
      "ments": 925,
      "Ġshe": 926,
      "eng": 927,
      "String": 928,
      "umber": 929,
      "(\\": 930,
      "dd": 931,
      "},": 932,
      "alse": 933,
      "Id": 934,
      "egin": 935,
      "ethod": 936,
      "Ġem": 937,
      "ility": 938,
      "td": 939,
      "Ġcons": 940,
      "cript": 941,
      "lock": 942,
      "right": 943,
      "ating": 944,
      "Ġmy": 945,
      "ular": 946,
      "Ġact": 947,
      "ĠCom": 948,
      "Ġreg": 949,
      "ner": 950,
      "ational": 951,
      "code": 952,
      "Ġinv": 953,
      "Ġop": 954,
      "Ġrequ": 955,
      "che": 956,
      "Ġ=>": 957,
      "ident": 958,
      "Ġwhat": 959,
      "the": 960,
      "Ġinclud": 961,
      "fo": 962,
      "Ġsub": 963,
      "ased": 964,
      "und": 965,
      "ead": 966,
      "Con": 967,
      "read": 968,
      "ash": 969,
      "Ġback": 970,
      "Ġprov": 971,
      "ĠPro": 972,
      "ember": 973,
      "ST": 974,
      "Ġline": 975,
      "Ġuse": 976,
      "Ġunder": 977,
      "return": 978,
      "rough": 979,
      "Ġjust": 980,
      "begin": 981,
      "let": 982,
      "Ġel": 983,
      "Ġdif": 984,
      "oth": 985,
      "ars": 986,
      "orld": 987,
      "ox": 988,
      "Ġhow": 989,
      "cess": 990,
      "16": 991,
      "Ġself": 992,
      "Cont": 993,
      "Ġmay": 994,
      "Ġam": 995,
      "Ġpos": 996,
      "âĢľ": 997,
      "AT": 998,
      "ement": 999,
      "##": 1000,
      "Ġever": 1001,
      "Ġresult": 1002,
      "ices": 1003,
      "/>": 1004,
      "ĠAr": 1005,
      "ures": 1006,
      "ible": 1007,
      "Ġdr": 1008,
      "ower": 1009,
      "its": 1010,
      "ause": 1011,
      "Ġi": 1012,
      "18": 1013,
      "...": 1014,
      "br": 1015,
      "Ġpeople": 1016,
      "ble": 1017,
      "Ġwhere": 1018,
      "ym": 1019,
      "Ġac": 1020,
      "Ġafter": 1021,
      "ĠNew": 1022,
      "Com": 1023,
      "Ġstud": 1024,
      "ek": 1025,
      "15": 1026,
      "Ch": 1027,
      ".âĢĿ": 1028,
      "ting": 1029,
      "of": 1030,
      "red": 1031,
      "Ġneed": 1032,
      "ank": 1033,
      "add": 1034,
      "ward": 1035,
      "uth": 1036,
      "col": 1037,
      "ID": 1038,
      "amp": 1039,
      "Res": 1040,
      "vent": 1041,
      "\"/>": 1042,
      "Ġrel": 1043,
      "yn": 1044,
      "Ġrem": 1045,
      "Ġmost": 1046,
      "plic": 1047,
      "Ġconst": 1048,
      "htt": 1049,
      "Ġ!": 1050,
      "irect": 1051,
      "urrent": 1052,
      "ault": 1053,
      "ollow": 1054,
      "Ġplay": 1055,
      "Ġph": 1056,
      "ts": 1057,
      "Ġthrough": 1058,
      "ms": 1059,
      "Ġthese": 1060,
      "ough": 1061,
      "def": 1062,
      "ww": 1063,
      "Ġcall": 1064,
      "ful": 1065,
      "ervice": 1066,
      "ages": 1067,
      "ache": 1068,
      "ocation": 1069,
      "OR": 1070,
      "led": 1071,
      "ins": 1072,
      "class": 1073,
      "ton": 1074,
      "ta": 1075,
      "type": 1076,
      "hat": 1077,
      "ann": 1078,
      "ele": 1079,
      "ĠTr": 1080,
      "AR": 1081,
      "ood": 1082,
      "fore": 1083,
      "_{\\": 1084,
      "Ġshow": 1085,
      "ception": 1086,
      "Ġent": 1087,
      "Ġ_": 1088,
      "Ġspec": 1089,
      "Ġsuch": 1090,
      "pon": 1091,
      "ĠSe": 1092,
      ")$": 1093,
      "translation": 1094,
      "ature": 1095,
      "ider": 1096,
      "org": 1097,
      "Ġthen": 1098,
      "air": 1099,
      "Ġinst": 1100,
      "cond": 1101,
      "resent": 1102,
      "Ġfl": 1103,
      "List": 1104,
      "ersion": 1105,
      "Ġ==": 1106,
      "30": 1107,
      "ited": 1108,
      "ctions": 1109,
      "imes": 1110,
      "uring": 1111,
      "day": 1112,
      "Ġprodu": 1113,
      "ocal": 1114,
      "itle": 1115,
      "Ġcould": 1116,
      "ivers": 1117,
      "ask": 1118,
      "Ġbr": 1119,
      "Ġtest": 1120,
      "view": 1121,
      "any": 1122,
      "ily": 1123,
      "}{": 1124,
      "Ġshould": 1125,
      "We": 1126,
      "label": 1127,
      "Ġorg": 1128,
      "co": 1129,
      "ivate": 1130,
      "min": 1131,
      "):": 1132,
      "LE": 1133,
      "Ġpol": 1134,
      "It": 1135,
      "Ġdiffer": 1136,
      "Ġused": 1137,
      "Ġeff": 1138,
      "son": 1139,
      "25": 1140,
      "Ġco": 1141,
      "Ġhim": 1142,
      "Ar": 1143,
      "ream": 1144,
      "ument": 1145,
      "ier": 1146,
      "der": 1147,
      "ced": 1148,
      "cont": 1149,
      "formation": 1150,
      "Ġstart": 1151,
      "Ġnull": 1152,
      "ween": 1153,
      "Ġfollow": 1154,
      "Ġgr": 1155,
      "Ġbec": 1156,
      "ines": 1157,
      "eta": 1158,
      "'t": 1159,
      "14": 1160,
      "press": 1161,
      "Ġwell": 1162,
      "ined": 1163,
      "Ġform": 1164,
      "Ġvoid": 1165,
      "ĠSh": 1166,
      "land": 1167,
      "ife": 1168,
      "AL": 1169,
      "ser": 1170,
      "self": 1171,
      "val": 1172,
      "ody": 1173,
      "Ġknow": 1174,
      "Ġevery": 1175,
      "Ġnow": 1176,
      "back": 1177,
      "Ġdet": 1178,
      "try": 1179,
      "idth": 1180,
      "Cl": 1181,
      "be": 1182,
      "Ġval": 1183,
      "ĠAn": 1184,
      "EN": 1185,
      "ized": 1186,
      "other": 1187,
      "ĠAl": 1188,
      "erson": 1189,
      "raph": 1190,
      "Ġyears": 1191,
      "wn": 1192,
      "eq": 1193,
      "13": 1194,
      "Ġchar": 1195,
      "ince": 1196,
      "Ġ>": 1197,
      "alth": 1198,
      "Ġfil": 1199,
      "var": 1200,
      "Ġmake": 1201,
      "Ġtrue": 1202,
      "log": 1203,
      "olut": 1204,
      "\"><": 1205,
      "sum": 1206,
      "Ġ`": 1207,
      "ah": 1208,
      "uch": 1209,
      "cent": 1210,
      "Tr": 1211,
      "man": 1212,
      "Ġatt": 1213,
      "ĠEx": 1214,
      "Ġsm": 1215,
      "Ġlong": 1216,
      "ets": 1217,
      "Ġgener": 1218,
      "frac": 1219,
      "Ġbetween": 1220,
      "Ġsystem": 1221,
      "Ġsim": 1222,
      "pre": 1223,
      "fl": 1224,
      "Ġsign": 1225,
      "lp": 1226,
      "Ġright": 1227,
      "ey": 1228,
      "Ġcor": 1229,
      "ason": 1230,
      "Ġfalse": 1231,
      "ole": 1232,
      "Ġagain": 1233,
      "ience": 1234,
      "aking": 1235,
      "Ġcre": 1236,
      "Ġcase": 1237,
      "Ġerr": 1238,
      "ĠQ": 1239,
      "arget": 1240,
      "Ġlook": 1241,
      "Ġread": 1242,
      "Ġ--": 1243,
      "000": 1244,
      "itt": 1245,
      "To": 1246,
      "ule": 1247,
      "cite": 1248,
      "Ġsee": 1249,
      "));": 1250,
      ",âĢĿ": 1251,
      "ren": 1252,
      "ists": 1253,
      "Ġelse": 1254,
      "left": 1255,
      "ĠCl": 1256,
      "ĠĠĠĠĠĠĠĠĠĠĠĠĠ": 1257,
      "uff": 1258,
      "ote": 1259,
      "yle": 1260,
      "Ġhigh": 1261,
      "17": 1262,
      "yp": 1263,
      "ik": 1264,
      "Ġexper": 1265,
      "ives": 1266,
      "string": 1267,
      "----------------": 1268,
      "\");": 1269,
      "ants": 1270,
      "bject": 1271,
      "SS": 1272,
      "ished": 1273,
      "Ġpoint": 1274,
      "ĠAnd": 1275,
      "iver": 1276,
      "Ġfinal": 1277,
      "Ġeven": 1278,
      "cept": 1279,
      "********": 1280,
      "ĠĠĠĠĠĠĠĠĠĠĠĠĠĠĠĠĠĠĠĠĠĠĠ": 1281,
      "work": 1282,
      "Ġmany": 1283,
      "Ġdoes": 1284,
      "Ġeach": 1285,
      "Ġmodel": 1286,
      "Ġmin": 1287,
      "ĠFor": 1288,
      "Ġsur": 1289,
      "ava": 1290,
      "Ġdid": 1291,
      "Ġsupport": 1292,
      "ense": 1293,
      "ength": 1294,
      "ces": 1295,
      "ĠCon": 1296,
      "rr": 1297,
      "ired": 1298,
      "ever": 1299,
      "chool": 1300,
      "lement": 1301,
      "////": 1302,
      "sc": 1303,
      "Ġnumber": 1304,
      "sub": 1305,
      "Ġx": 1306,
      "Ġmon": 1307,
      "item": 1308,
      "bar": 1309,
      "2022": 1310,
      "az": 1311,
      "nb": 1312,
      "oci": 1313,
      "Ġway": 1314,
      "perty": 1315,
      "for": 1316,
      "oot": 1317,
      "Ġbeing": 1318,
      "hip": 1319,
      "Ġwhile": 1320,
      "Ġfr": 1321,
      "gram": 1322,
      "Ġbecause": 1323,
      "ern": 1324,
      "arent": 1325,
      "bf": 1326,
      "ology": 1327,
      "Ġbl": 1328,
      "Ġ)": 1329,
      "data": 1330,
      "Ġlast": 1331,
      "Ġlist": 1332,
      "ric": 1333,
      "AN": 1334,
      "uss": 1335,
      "opt": 1336,
      "ample": 1337,
      "ĠZ": 1338,
      "ared": 1339,
      "ccess": 1340,
      "Ġid": 1341,
      "Ġhand": 1342,
      "iness": 1343,
      "Ġbefore": 1344,
      "chn": 1345,
      ".,": 1346,
      "ision": 1347,
      "heck": 1348,
      "Ġgu": 1349,
      "date": 1350,
      "Ġusing": 1351,
      "Value": 1352,
      "roll": 1353,
      "ify": 1354,
      "50": 1355,
      "Ġed": 1356,
      "Data": 1357,
      "ization": 1358,
      "Ġworld": 1359,
      "Ġresp": 1360,
      "Ġgl": 1361,
      "gy": 1362,
      "par": 1363,
      "alk": 1364,
      "ouse": 1365,
      "IT": 1366,
      "apt": 1367,
      "Ġser": 1368,
      "ale": 1369,
      "iven": 1370,
      "ism": 1371,
      "32": 1372,
      "eter": 1373,
      "Ġart": 1374,
      "ĠAs": 1375,
      "rol": 1376,
      "Ġvery": 1377,
      "way": 1378,
      "Ġdec": 1379,
      "ital": 1380,
      "$.": 1381,
      "nbsp": 1382,
      "velop": 1383,
      "meric": 1384,
      "ral": 1385,
      "uc": 1386,
      "By": 1387,
      "ency": 1388,
      "$,": 1389,
      "ĠYou": 1390,
      "ically": 1391,
      "Ġlead": 1392,
      "Ġfind": 1393,
      "Ġdown": 1394,
      "Ġdevelop": 1395,
      "ott": 1396,
      "att": 1397,
      "Ġmed": 1398,
      "ross": 1399,
      "Col": 1400,
      "Ġstring": 1401,
      "lection": 1402,
      "Ġbel": 1403,
      "Ġhelp": 1404,
      "ĠInd": 1405,
      "Ġdifferent": 1406,
      "CT": 1407,
      "arn": 1408,
      "ĠĠĠĠĠĠĠĠĠĠĠĠĠĠĠĠĠĠĠĠĠĠĠĠĠĠĠĠĠĠĠĠ": 1409,
      "ĠRes": 1410,
      "roid": 1411,
      "Ġsame": 1412,
      "SE": 1413,
      "new": 1414,
      "ains": 1415,
      "Ġmod": 1416,
      "Ġfound": 1417,
      "Ġav": 1418,
      "ĠĠĠĠĠĠ": 1419,
      "})": 1420,
      "Ġhere": 1421,
      "play": 1422,
      "ger": 1423,
      "Ġrun": 1424,
      "by": 1425,
      "ght": 1426,
      "Ġoper": 1427,
      "ĠIf": 1428,
      "Ġext": 1429,
      "wh": 1430,
      "Ġthose": 1431,
      "file": 1432,
      "rm": 1433,
      "amb": 1434,
      "}.": 1435,
      "ified": 1436,
      "Ġboth": 1437,
      "ather": 1438,
      "Ġwant": 1439,
      "atus": 1440,
      "not": 1441,
      "Set": 1442,
      "24": 1443,
      "pp": 1444,
      "load": 1445,
      "Ġstate": 1446,
      "px": 1447,
      "Ġ/**": 1448,
      "Ġinformation": 1449,
      "action": 1450,
      "value": 1451,
      "ĠâĢĺ": 1452,
      "test": 1453,
      "En": 1454,
      "Ġgood": 1455,
      "med": 1456,
      "\")": 1457,
      "ases": 1458,
      "Ġappro": 1459,
      "face": 1460,
      "Ġmade": 1461,
      "mathcal": 1462,
      "oh": 1463,
      "Ġmuch": 1464,
      "Ġcoun": 1465,
      "ĠRe": 1466,
      "This": 1467,
      "Ġmethod": 1468,
      ",\\": 1469,
      "Ġown": 1470,
      "Ġmark": 1471,
      "âĢ¦": 1472,
      "Ġdon": 1473,
      "usiness": 1474,
      "ĠDe": 1475,
      "Ġprivate": 1476,
      "100": 1477,
      "Ġimport": 1478,
      "Exception": 1479,
      "Ġcurrent": 1480,
      "location": 1481,
      "me": 1482,
      "Ġprocess": 1483,
      "ness": 1484,
      "DE": 1485,
      "ential": 1486,
      "Ġthink": 1487,
      "Ġopt": 1488,
      "Ġequ": 1489,
      "Ġdisc": 1490,
      "========": 1491,
      "Ġreport": 1492,
      "ots": 1493,
      "iversity": 1494,
      "Ġrep": 1495,
      "Ġ///": 1496,
      "];": 1497,
      "Ġfam": 1498,
      "As": 1499,
      "mary": 1500,
      "aj": 1501,
      "comm": 1502,
      "ee": 1503,
      "rror": 1504,
      "An": 1505,
      "ional": 1506,
      "iev": 1507,
      "Ġstatic": 1508,
      "head": 1509,
      "Ġexpect": 1510,
      "bs": 1511,
      "search": 1512,
      "Ġteam": 1513,
      "arm": 1514,
      "Object": 1515,
      "($": 1516,
      "Ġcr": 1517,
      "CO": 1518,
      "ME": 1519,
      "Ġ&&": 1520,
      "aining": 1521,
      "ĠâĢĶ": 1522,
      "akes": 1523,
      "ually": 1524,
      "ĠWh": 1525,
      "Ġpass": 1526,
      "ĠAmeric": 1527,
      "Ġpat": 1528,
      "Ġincre": 1529,
      "ĠIs": 1530,
      "equation": 1531,
      "bers": 1532,
      "ten": 1533,
      "Ġthree": 1534,
      "ĠX": 1535,
      "ĠSc": 1536,
      "lear": 1537,
      "Ġbo": 1538,
      "Ġcommun": 1539,
      "Ġfact": 1540,
      "Ġreal": 1541,
      "Ġcontin": 1542,
      "Un": 1543,
      "ĠPh": 1544,
      "ternal": 1545,
      "oad": 1546,
      "Ġsl": 1547,
      "For": 1548,
      "requ": 1549,
      "')": 1550,
      "ler": 1551,
      "ences": 1552,
      "Get": 1553,
      "Ġpartic": 1554,
      "ends": 1555,
      "],": 1556,
      "reg": 1557,
      "que": 1558,
      "Ġserv": 1559,
      "umn": 1560,
      "At": 1561,
      "Ġperform": 1562,
      "Ġ!=": 1563,
      "part": 1564,
      "orth": 1565,
      "uthor": 1566,
      "Ġcent": 1567,
      "size": 1568,
      "ĠPl": 1569,
      "Ġtake": 1570,
      "rc": 1571,
      "Ġobject": 1572,
      "uary": 1573,
      "Ġ%": 1574,
      "reak": 1575,
      "Ġcar": 1576,
      "ush": 1577,
      "Ġduring": 1578,
      "Im": 1579,
      "22": 1580,
      "ĠString": 1581,
      "Ġapp": 1582,
      "indow": 1583,
      "ister": 1584,
      "uck": 1585,
      "Ġvis": 1586,
      "pha": 1587,
      "ĠBut": 1588,
      "come": 1589,
      "ute": 1590,
      "ural": 1591,
      "Ġgreat": 1592,
      "time": 1593,
      "order": 1594,
      "Ġfield": 1595,
      "ron": 1596,
      "Ġstill": 1597,
      "ustom": 1598,
      "Ġmem": 1599,
      "ĠFr": 1600,
      "ager": 1601,
      "Ġkey": 1602,
      "inter": 1603,
      "da": 1604,
      "Test": 1605,
      "Ġsecond": 1606,
      "199": 1607,
      "().": 1608,
      "Ġmov": 1609,
      "Ġeffect": 1610,
      "script": 1611,
      "Ġbuild": 1612,
      "orn": 1613,
      "less": 1614,
      "ained": 1615,
      "itor": 1616,
      "struct": 1617,
      "etwork": 1618,
      "Ġprovid": 1619,
      "til": 1620,
      "Ġtop": 1621,
      "link": 1622,
      "}(": 1623,
      "ission": 1624,
      "Ġdirect": 1625,
      "ected": 1626,
      "urs": 1627,
      "Ġins": 1628,
      "Ġke": 1629,
      "use": 1630,
      "rite": 1631,
      "bb": 1632,
      "Ġhead": 1633,
      "ane": 1634,
      "Ind": 1635,
      "~\\": 1636,
      "Ġgame": 1637,
      "ocument": 1638,
      "els": 1639,
      "}_": 1640,
      "pace": 1641,
      "Ġmust": 1642,
      "View": 1643,
      "());": 1644,
      "Sh": 1645,
      "}^": 1646,
      "util": 1647,
      "ability": 1648,
      "Ġchild": 1649,
      "40": 1650,
      "iving": 1651,
      "ats": 1652,
      "Ġnon": 1653,
      "Ġhtt": 1654,
      "Ġweek": 1655,
      "Ġperson": 1656,
      "Ġaround": 1657,
      "dis": 1658,
      "Ġbest": 1659,
      "opy": 1660,
      "RO": 1661,
      "Ġdel": 1662,
      "fe": 1663,
      "Ġsom": 1664,
      ".\"": 1665,
      "cription": 1666,
      "vir": 1667,
      "Error": 1668,
      "go": 1669,
      "ĠCol": 1670,
      "Ġallow": 1671,
      "list": 1672,
      "itions": 1673,
      "2021": 1674,
      "obal": 1675,
      "AC": 1676,
      "http": 1677,
      "Ġopen": 1678,
      "âĢĵ": 1679,
      "rem": 1680,
      "pi": 1681,
      "Ġpost": 1682,
      "ĠĠĠĠĊ": 1683,
      "ety": 1684,
      "ector": 1685,
      "Ġwrit": 1686,
      "].": 1687,
      "23": 1688,
      "wit": 1689,
      "ords": 1690,
      "Ġest": 1691,
      "ven": 1692,
      "lex": 1693,
      "Ġlevel": 1694,
      "IC": 1695,
      "âĢĶ": 1696,
      "ogle": 1697,
      "ailable": 1698,
      "vious": 1699,
      "Ġear": 1700,
      "public": 1701,
      "function": 1702,
      "Ġnext": 1703,
      "ĠPr": 1704,
      "Ġday": 1705,
      "ĠAd": 1706,
      "ION": 1707,
      "Ġrele": 1708,
      "ĠOn": 1709,
      "Ġparam": 1710,
      "Ġaut": 1711,
      "ateg": 1712,
      "Ġlife": 1713,
      "._": 1714,
      "Ġorder": 1715,
      "Ġfile": 1716,
      "Ġmain": 1717,
      "ĉĉĉĉĉ": 1718,
      "On": 1719,
      "\"></": 1720,
      "js": 1721,
      "Class": 1722,
      "Ġincluding": 1723,
      "alpha": 1724,
      "top": 1725,
      "Ġgroup": 1726,
      "index": 1727,
      "ĠHow": 1728,
      "LL": 1729,
      "rop": 1730,
      "Ġarg": 1731,
      "Ġz": 1732,
      "oss": 1733,
      "ality": 1734,
      "nav": 1735,
      "Ġcour": 1736,
      "mod": 1737,
      "Ġexpl": 1738,
      "https": 1739,
      "Ġsay": 1740,
      "ina": 1741,
      ".</": 1742,
      "['": 1743,
      "Ġprogram": 1744,
      "');": 1745,
      "2020": 1746,
      "url": 1747,
      "Key": 1748,
      "Ġtechn": 1749,
      "Ġ||": 1750,
      "ploy": 1751,
      "olution": 1752,
      "unc": 1753,
      "ĠComm": 1754,
      "ape": 1755,
      "Ġposs": 1756,
      "Ġmet": 1757,
      "ium": 1758,
      "includ": 1759,
      "Ġfin": 1760,
      "field": 1761,
      "Ġagainst": 1762,
      "ively": 1763,
      "ived": 1764,
      "summary": 1765,
      "\";": 1766,
      "acy": 1767,
      "illion": 1768,
      "width": 1769,
      "reen": 1770,
      "64": 1771,
      "Requ": 1772,
      "lang": 1773,
      "Ġsince": 1774,
      "Ġlocal": 1775,
      "ior": 1776,
      "AP": 1777,
      "Ġmat": 1778,
      "Ġproject": 1779,
      "ait": 1780,
      "umer": 1781,
      "ware": 1782,
      "bo": 1783,
      "Ġgiven": 1784,
      "elta": 1785,
      "olv": 1786,
      "Ġanal": 1787,
      "ĠMar": 1788,
      "Ġ/>": 1789,
      "Ġref": 1790,
      "Ġcare": 1791,
      "uration": 1792,
      "de": 1793,
      "Ġevent": 1794,
      "ĠAll": 1795,
      "Ġdesign": 1796,
      "itial": 1797,
      "ĠShe": 1798,
      "ination": 1799,
      "path": 1800,
      "Ġterm": 1801,
      "ails": 1802,
      "Ġsmall": 1803,
      "www": 1804,
      "ground": 1805,
      "Ġcontent": 1806,
      "ubl": 1807,
      "TE": 1808,
      "Ġsing": 1809,
      "section": 1810,
      "Ġconsider": 1811,
      "Ġadv": 1812,
      "Ġprot": 1813,
      "ways": 1814,
      "ĠTo": 1815,
      "60": 1816,
      "21": 1817,
      "Ġinvest": 1818,
      "Ġtitle": 1819,
      "vert": 1820,
      "Ġfollowing": 1821,
      "Ġplace": 1822,
      "ling": 1823,
      "27": 1824,
      "Ġstand": 1825,
      "Ġbeg": 1826,
      "iter": 1827,
      "ackage": 1828,
      "Ġpower": 1829,
      "Ġtry": 1830,
      "icle": 1831,
      "Ġpop": 1832,
      "Ġsize": 1833,
      "Ġtri": 1834,
      "idd": 1835,
      "!--": 1836,
      "Ġbook": 1837,
      "box": 1838,
      "irc": 1839,
      "\":": 1840,
      "Ġbusiness": 1841,
      "ambda": 1842,
      "Ġvari": 1843,
      "File": 1844,
      "Ġwithout": 1845,
      "tract": 1846,
      "icy": 1847,
      "Time": 1848,
      "ump": 1849,
      "ession": 1850,
      "Ġmult": 1851,
      "ocial": 1852,
      "table": 1853,
      "(),": 1854,
      "ird": 1855,
      "uffer": 1856,
      "Ġrece": 1857,
      "ponse": 1858,
      "ocus": 1859,
      "tribute": 1860,
      "Int": 1861,
      "usic": 1862,
      "aut": 1863,
      "28": 1864,
      "Ġiss": 1865,
      "ĠUniversity": 1866,
      "Re": 1867,
      "ulation": 1868,
      "33": 1869,
      "epend": 1870,
      "ients": 1871,
      "ems": 1872,
      "Ġleft": 1873,
      "por": 1874,
      "=\"../../": 1875,
      ")\\": 1876,
      "FF": 1877,
      "ene": 1878,
      "ĠBl": 1879,
      "Ġhealth": 1880,
      "off": 1881,
      "outh": 1882,
      "acter": 1883,
      "Ġpresent": 1884,
      "uro": 1885,
      "urity": 1886,
      "Ġrequest": 1887,
      "With": 1888,
      "ĠThey": 1889,
      "aving": 1890,
      "arge": 1891,
      "Ġmonth": 1892,
      "aster": 1893,
      "itive": 1894,
      "plication": 1895,
      "Ġtarget": 1896,
      "ĠJan": 1897,
      "Ġgoing": 1898,
      "omen": 1899,
      "ĠBr": 1900,
      "ĠUS": 1901,
      "Ġthrow": 1902,
      "ift": 1903,
      "aces": 1904,
      "Ġlet": 1905,
      "Ġtem": 1906,
      "Ġpres": 1907,
      "']": 1908,
      "fil": 1909,
      "ĠOr": 1910,
      "ories": 1911,
      "Ġgover": 1912,
      "ording": 1913,
      "=\"+": 1914,
      "Ġview": 1915,
      "Se": 1916,
      "LA": 1917,
      "ari": 1918,
      "istory": 1919,
      "ources": 1920,
      "Ġsk": 1921,
      "ering": 1922,
      "Ġconf": 1923,
      "Ġsays": 1924,
      "istr": 1925,
      "quot": 1926,
      "ivity": 1927,
      "Ġdem": 1928,
      "aff": 1929,
      "hes": 1930,
      "amma": 1931,
      "Add": 1932,
      "PE": 1933,
      "itional": 1934,
      "Ġaccess": 1935,
      "Ġanother": 1936,
      "Ġreally": 1937,
      "ately": 1938,
      "=\\": 1939,
      "ĠThere": 1940,
      "26": 1941,
      "Ġident": 1942,
      "const": 1943,
      "ised": 1944,
      "uman": 1945,
      "Ġspe": 1946,
      "TR": 1947,
      "Ġstruct": 1948,
      "user": 1949,
      "Ġtoo": 1950,
      "nment": 1951,
      "ification": 1952,
      "ley": 1953,
      "Ġann": 1954,
      "stand": 1955,
      "Man": 1956,
      "une": 1957,
      "dr": 1958,
      "ĠCO": 1959,
      "ohn": 1960,
      "Ġschool": 1961,
      "aps": 1962,
      "Ġold": 1963,
      "Ġcond": 1964,
      "viron": 1965,
      "Ġhapp": 1966,
      "Ġ?": 1967,
      "Ġinterest": 1968,
      "align": 1969,
      "UR": 1970,
      "Ġhome": 1971,
      "Ġavailable": 1972,
      "Ġbeh": 1973,
      "ports": 1974,
      "Ġcheck": 1975,
      "duct": 1976,
      "80": 1977,
      "igma": 1978,
      "Ġet": 1979,
      "Request": 1980,
      "Ġchang": 1981,
      "Ġappe": 1982,
      "Ġproduct": 1983,
      "ĠIm": 1984,
      "enn": 1985,
      "Qu": 1986,
      "Ġ\\\\": 1987,
      "Ġgrow": 1988,
      "Path": 1989,
      "HE": 1990,
      "mu": 1991,
      "Ġorgan": 1992,
      "ĠDr": 1993,
      "2023": 1994,
      "Ġlaw": 1995,
      "Ġassert": 1996,
      "eps": 1997,
      "Ġfew": 1998,
      "Ġchange": 1999,
      "Al": 2000,
      "Text": 2001,
      "Ġresults": 2002,
      "_\\": 2003,
      "ury": 2004,
      "serv": 2005,
      "ainer": 2006,
      "earch": 2007,
      "Ġdep": 2008,
      "ĠBe": 2009,
      "md": 2010,
      "Ġexp": 2011,
      "uf": 2012,
      "Ġfour": 2013,
      "Ġ);": 2014,
      "29": 2015,
      "ĠMay": 2016,
      "Ġerror": 2017,
      "ags": 2018,
      "Ġproble": 2019,
      "array": 2020,
      "ume": 2021,
      "IS": 2022,
      "Info": 2023,
      "ĠTe": 2024,
      "ĠCent": 2025,
      "rist": 2026,
      "Event": 2027,
      "group": 2028,
      "ently": 2029,
      "lay": 2030,
      "Ġdev": 2031,
      "Ġtext": 2032,
      "ĠAss": 2033,
      "Ġwithin": 2034,
      "icon": 2035,
      "Param": 2036,
      "eters": 2037,
      "ĠEng": 2038,
      "Ġcreate": 2039,
      "Wh": 2040,
      "bed": 2041,
      "He": 2042,
      "Ġlog": 2043,
      "Ġleg": 2044,
      "uture": 2045,
      "agn": 2046,
      "conom": 2047,
      "Ġlim": 2048,
      "ĠGr": 2049,
      "ĠAt": 2050,
      "ĠLe": 2051,
      "pert": 2052,
      "ope": 2053,
      "Ġbig": 2054,
      "thing": 2055,
      "iginal": 2056,
      "ai": 2057,
      "/*": 2058,
      "Node": 2059,
      "Ġtyp": 2060,
      "ights": 2061,
      "Ġturn": 2062,
      "ertain": 2063,
      "AS": 2064,
      "des": 2065,
      "ĠMan": 2066,
      "my": 2067,
      "ittle": 2068,
      "Is": 2069,
      "ready": 2070,
      "ideo": 2071,
      "ega": 2072,
      "And": 2073,
      "bl": 2074,
      "All": 2075,
      "ĠEn": 2076,
      "ober": 2077,
      "``": 2078,
      "Ġuser": 2079,
      "ought": 2080,
      "Ph": 2081,
      "Ġpath": 2082,
      "':": 2083,
      "ouble": 2084,
      "sw": 2085,
      "/**": 2086,
      "aterial": 2087,
      "ĠFe": 2088,
      "stance": 2089,
      "Ã©": 2090,
      "Ġcompany": 2091,
      "bol": 2092,
      "config": 2093,
      "lected": 2094,
      "AD": 2095,
      "\\\\": 2096,
      "ING": 2097,
      "mathbb": 2098,
      "ending": 2099,
      "Index": 2100,
      "Ref": 2101,
      "agement": 2102,
      "())": 2103,
      "void": 2104,
      "ĠMed": 2105,
      "='": 2106,
      "amespace": 2107,
      "Config": 2108,
      "Ġcell": 2109,
      "ibr": 2110,
      "2019": 2111,
      "Ġresearch": 2112,
      "Ġbetter": 2113,
      "State": 2114,
      "ension": 2115,
      "ecut": 2116,
      "but": 2117,
      "Ġfull": 2118,
      "imate": 2119,
      "Ġput": 2120,
      "Ġdist": 2121,
      "sec": 2122,
      "enu": 2123,
      "ething": 2124,
      "ĠSp": 2125,
      "2018": 2126,
      "olean": 2127,
      "af": 2128,
      "Field": 2129,
      "Ġstudy": 2130,
      "ands": 2131,
      "};": 2132,
      "side": 2133,
      "Ġblock": 2134,
      "Over": 2135,
      "Ġpar": 2136,
      "Ġquest": 2137,
      "Equ": 2138,
      "gg": 2139,
      "Ġbased": 2140,
      "Def": 2141,
      "ru": 2142,
      "Ġdi": 2143,
      "aim": 2144,
      "pression": 2145,
      "Ġcap": 2146,
      "}_{": 2147,
      "####": 2148,
      "body": 2149,
      "atures": 2150,
      "length": 2151,
      "}^{": 2152,
      "next": 2153,
      "Context": 2154,
      "isk": 2155,
      "$\\": 2156,
      "Ġele": 2157,
      "pty": 2158,
      "ules": 2159,
      "ride": 2160,
      "ES": 2161,
      "oin": 2162,
      "fin": 2163,
      "Map": 2164,
      "dt": 2165,
      "ards": 2166,
      "ches": 2167,
      "IG": 2168,
      "ike": 2169,
      "Ġmight": 2170,
      "Ġfamily": 2171,
      "Ġcome": 2172,
      "Ġ-->": 2173,
      "evel": 2174,
      "If": 2175,
      "vironment": 2176,
      "cd": 2177,
      "Ġless": 2178,
      "Ġbro": 2179,
      "2017": 2180,
      "oken": 2181,
      "ances": 2182,
      "ique": 2183,
      "Or": 2184,
      "UT": 2185,
      "Ġcalled": 2186,
      "ended": 2187,
      "ĠĠĠĠĠĠĠĠĠĠĠĠĠĠĠĠĠĠĠĠĠĠĠĠĠĠĠ": 2188,
      "ĠCan": 2189,
      "ED": 2190,
      "ference": 2191,
      "Ġret": 2192,
      "Form": 2193,
      "Ġmeas": 2194,
      "ĠSo": 2195,
      "Ġbreak": 2196,
      "Ġnever": 2197,
      "Ġ/*": 2198,
      "comp": 2199,
      "ograph": 2200,
      "ender": 2201,
      "word": 2202,
      "ival": 2203,
      "ored": 2204,
      "ilar": 2205,
      "ĠNo": 2206,
      "ney": 2207,
      "Ġservice": 2208,
      "ured": 2209,
      "bt": 2210,
      "Ġsever": 2211,
      "ony": 2212,
      "Ġarray": 2213,
      "ourn": 2214,
      "Ġaff": 2215,
      "Ġsuccess": 2216,
      "-\\": 2217,
      "ĠCar": 2218,
      "New": 2219,
      "ormal": 2220,
      ",\"": 2221,
      "ention": 2222,
      "Ġalways": 2223,
      "Ġsit": 2224,
      "node": 2225,
      "api": 2226,
      "apache": 2227,
      "ged": 2228,
      "Code": 2229,
      "Des": 2230,
      "Ġeas": 2231,
      "Service": 2232,
      "Ġ(!": 2233,
      "////////": 2234,
      "2016": 2235,
      "ours": 2236,
      "Ġeng": 2237,
      "Not": 2238,
      "ternational": 2239,
      "book": 2240,
      "Ġpay": 2241,
      "iction": 2242,
      "Element": 2243,
      "inc": 2244,
      "Array": 2245,
      "Ġplan": 2246,
      "urther": 2247,
      "ĠSystem": 2248,
      "Fr": 2249,
      "result": 2250,
      "true": 2251,
      "Ġimp": 2252,
      "plement": 2253,
      "But": 2254,
      "block": 2255,
      "error": 2256,
      "ising": 2257,
      "\"\"": 2258,
      "ators": 2259,
      "Ġdefault": 2260,
      "prov": 2261,
      "Ġaddress": 2262,
      "Ġfree": 2263,
      "ples": 2264,
      "Ġes": 2265,
      "Ġversion": 2266,
      "phi": 2267,
      "ajor": 2268,
      "ĠÂ": 2269,
      "object": 2270,
      "pecial": 2271,
      "ĠAp": 2272,
      "Ġimportant": 2273,
      "ymbol": 2274,
      "Ġbu": 2275,
      "Ġrest": 2276,
      "Ġcontrol": 2277,
      "model": 2278,
      "from": 2279,
      "LO": 2280,
      "ysis": 2281,
      "place": 2282,
      "cast": 2283,
      "color": 2284,
      "01": 2285,
      "ably": 2286,
      "Ġgot": 2287,
      "point": 2288,
      "pm": 2289,
      "45": 2290,
      "iod": 2291,
      "abled": 2292,
      "Ġ});": 2293,
      "down": 2294,
      "Ġask": 2295,
      "Ġocc": 2296,
      "****************": 2297,
      "Ġthings": 2298,
      "ĠPol": 2299,
      "Ġsol": 2300,
      "Ġrepresent": 2301,
      "ui": 2302,
      "ET": 2303,
      "MP": 2304,
      "Ġsomething": 2305,
      "Ġpur": 2306,
      "Ġhard": 2307,
      "De": 2308,
      "Ġmarket": 2309,
      "Ġrequire": 2310,
      "Ġalready": 2311,
      "Ġexample": 2312,
      "mathbf": 2313,
      "Ġcode": 2314,
      "uly": 2315,
      "';": 2316,
      "map": 2317,
      "ides": 2318,
      "icro": 2319,
      "tra": 2320,
      "title": 2321,
      "ĠNov": 2322,
      "arr": 2323,
      "gl": 2324,
      "irt": 2325,
      "acc": 2326,
      "eturn": 2327,
      "99": 2328,
      "plate": 2329,
      "perties": 2330,
      "Ġstat": 2331,
      "Ġspace": 2332,
      "odes": 2333,
      "Ġmean": 2334,
      "ĠWith": 2335,
      "input": 2336,
      "Ġ__": 2337,
      "Ġvalues": 2338,
      "uage": 2339,
      "Ġlink": 2340,
      "Ġide": 2341,
      "mit": 2342,
      "abl": 2343,
      "gress": 2344,
      "Ġla": 2345,
      "oud": 2346,
      "Size": 2347,
      "35": 2348,
      "nection": 2349,
      "[]": 2350,
      "aper": 2351,
      "Ġoffic": 2352,
      "ison": 2353,
      "ync": 2354,
      "ither": 2355,
      "ĠGet": 2356,
      "Ġcustom": 2357,
      "Ġinclude": 2358,
      "mp": 2359,
      "Ġnear": 2360,
      "sk": 2361,
      "^{\\": 2362,
      "What": 2363,
      "2015": 2364,
      "Ġâ": 2365,
      "Ġacross": 2366,
      "Ġwin": 2367,
      "Ġcost": 2368,
      "no": 2369,
      "à¤": 2370,
      "Build": 2371,
      "ĠJohn": 2372,
      "Ġ},": 2373,
      "Ġseason": 2374,
      "Ġenc": 2375,
      "oice": 2376,
      "uction": 2377,
      "Ġprom": 2378,
      "Ġoffer": 2379,
      "ĠCo": 2380,
      "Ġwhe": 2381,
      "Ġstory": 2382,
      "ĠAmerican": 2383,
      "ĠGu": 2384,
      ";&": 2385,
      "Ġener": 2386,
      "Ġbas": 2387,
      "pen": 2388,
      "ret": 2389,
      "Ġnetwork": 2390,
      "Ġpot": 2391,
      "lambda": 2392,
      "alf": 2393,
      "Ġfeel": 2394,
      "ponent": 2395,
      "version": 2396,
      "rix": 2397,
      "Ġshort": 2398,
      "Ġredu": 2399,
      "aint": 2400,
      "sm": 2401,
      "Of": 2402,
      "Ġlittle": 2403,
      "cer": 2404,
      "loat": 2405,
      "assert": 2406,
      "ales": 2407,
      "Ġfore": 2408,
      "ĠThat": 2409,
      "Ġ{\\": 2410,
      "atform": 2411,
      "ĠCont": 2412,
      "onse": 2413,
      "lt": 2414,
      "Ġlot": 2415,
      "Ġtot": 2416,
      "70": 2417,
      "Ġconfig": 2418,
      "Ġprovide": 2419,
      "Ġmax": 2420,
      "US": 2421,
      "Ġlarge": 2422,
      "tes": 2423,
      "Ġalong": 2424,
      "Ġkeep": 2425,
      "wards": 2426,
      "OT": 2427,
      "Ġsource": 2428,
      "prot": 2429,
      "Ġclear": 2430,
      "Ġresponse": 2431,
      "Result": 2432,
      "mb": 2433,
      "Ġaction": 2434,
      "Ġelect": 2435,
      "sl": 2436,
      "create": 2437,
      "Ġinput": 2438,
      "Hand": 2439,
      "Item": 2440,
      "ailed": 2441,
      "Ġoptions": 2442,
      "How": 2443,
      "yl": 2444,
      "thers": 2445,
      "Ġfac": 2446,
      "oper": 2447,
      "posed": 2448,
      "state": 2449,
      "UN": 2450,
      "ables": 2451,
      "ped": 2452,
      "ibility": 2453,
      "Ġsrc": 2454,
      "Ġdays": 2455,
      "Ġpo": 2456,
      "idual": 2457,
      "now": 2458,
      "content": 2459,
      "ML": 2460,
      "++": 2461,
      "met": 2462,
      "Ġsingle": 2463,
      "Ġsec": 2464,
      "Ġbase": 2465,
      "Ġcommunity": 2466,
      "Ġsum": 2467,
      "AB": 2468,
      "Ġfri": 2469,
      "ung": 2470,
      "Ġclos": 2471,
      "resp": 2472,
      "Ġexperience": 2473,
      "Ġwater": 2474,
      "Ġseries": 2475,
      "Ġfar": 2476,
      "ones": 2477,
      "hold": 2478,
      "aus": 2479,
      "Ġcontext": 2480,
      "gt": 2481,
      "Ġsocial": 2482,
      "Ġprof": 2483,
      "android": 2484,
      "beta": 2485,
      "=\"../../../../": 2486,
      "75": 2487,
      "ilon": 2488,
      "Message": 2489,
      "refer": 2490,
      "Ġpossible": 2491,
      "Ġhig": 2492,
      "Ġcal": 2493,
      "max": 2494,
      "hem": 2495,
      "ero": 2496,
      "nect": 2497,
      "Ġfund": 2498,
      "From": 2499,
      "ball": 2500,
      "Ġcount": 2501,
      "ottom": 2502,
      "ĠĠĊ": 2503,
      "uk": 2504,
      "Up": 2505,
      "ĠInst": 2506,
      "ĠWorld": 2507,
      "Ġlove": 2508,
      "rel": 2509,
      "Ġmusic": 2510,
      ">&": 2511,
      "Ġcharacter": 2512,
      "Ġrespect": 2513,
      "ĠJanuary": 2514,
      "sigma": 2515,
      "ĠBy": 2516,
      "ho": 2517,
      "Ġ:=": 2518,
      "ĠDis": 2519,
      "Ġvol": 2520,
      "Trans": 2521,
      "Ġjava": 2522,
      "Ġleast": 2523,
      "java": 2524,
      "ĠMin": 2525,
      "arning": 2526,
      "ica": 2527,
      "aged": 2528,
      "see": 2529,
      "Ġlow": 2530,
      "uments": 2531,
      "aring": 2532,
      "Ġhold": 2533,
      "oney": 2534,
      "adi": 2535,
      "Ġtimes": 2536,
      "Ġant": 2537,
      "MA": 2538,
      "Ġcountry": 2539,
      "Ġexist": 2540,
      "Log": 2541,
      "Ġlik": 2542,
      "oto": 2543,
      "atter": 2544,
      "info": 2545,
      "Ġgovernment": 2546,
      "lient": 2547,
      "tings": 2548,
      "2014": 2549,
      "do": 2550,
      "Read": 2551,
      "eral": 2552,
      "Ġindust": 2553,
      "imal": 2554,
      "Ġposition": 2555,
      "default": 2556,
      "NA": 2557,
      "ĠFl": 2558,
      "Ġfuture": 2559,
      "Ġ,": 2560,
      "Ġpast": 2561,
      "base": 2562,
      "Ġdue": 2563,
      "Ġaccount": 2564,
      "Ġchildren": 2565,
      "Ġrange": 2566,
      "ux": 2567,
      "Ġarea": 2568,
      "ram": 2569,
      "ĠSup": 2570,
      "ĠAust": 2571,
      "ĠUnited": 2572,
      "ĠSer": 2573,
      "Ġside": 2574,
      "Ġassoci": 2575,
      "lete": 2576,
      "Ġenergy": 2577,
      "ĠOct": 2578,
      "call": 2579,
      "Ġpract": 2580,
      "Ġindex": 2581,
      "Ġmillion": 2582,
      "90": 2583,
      "Val": 2584,
      "clus": 2585,
      "Ġsignific": 2586,
      "Ġknown": 2587,
      "Ġfocus": 2588,
      "ENT": 2589,
      "CE": 2590,
      "ĠNews": 2591,
      "ĠState": 2592,
      "idence": 2593,
      "oke": 2594,
      "Ġparticular": 2595,
      "Ġmajor": 2596,
      "sup": 2597,
      "Ġable": 2598,
      "Ġstudents": 2599,
      "position": 2600,
      "You": 2601,
      "ves": 2602,
      "IP": 2603,
      "Ġdescri": 2604,
      "Ġinstance": 2605,
      "ĠGo": 2606,
      "Ġhuman": 2607,
      "Ġdistribut": 2608,
      "Ġabove": 2609,
      "System": 2610,
      "Ġmaking": 2611,
      "where": 2612,
      "Ġprevious": 2613,
      "bug": 2614,
      "ply": 2615,
      "Ġcover": 2616,
      "Model": 2617,
      "abor": 2618,
      "Ġstrong": 2619,
      "ixed": 2620,
      "Ġrecord": 2621,
      "Sc": 2622,
      "TD": 2623,
      "ĠEd": 2624,
      "--------------------------------": 2625,
      "urope": 2626,
      "roller": 2627,
      "ĠÐ": 2628,
      "Table": 2629,
      "lease": 2630,
      "ieve": 2631,
      "Ġspecial": 2632,
      "Inter": 2633,
      "ued": 2634,
      "Ġmeet": 2635,
      "Ġstyle": 2636,
      "Ġuntil": 2637,
      "Ġaway": 2638,
      "31": 2639,
      "Ġobserv": 2640,
      "ĠYork": 2641,
      "start": 2642,
      "Ġparent": 2643,
      "Ġauthor": 2644,
      "ĠChrist": 2645,
      "arrow": 2646,
      "Ġworking": 2647,
      "ĠRev": 2648,
      "Ġjob": 2649,
      "Out": 2650,
      "rodu": 2651,
      "ians": 2652,
      "Ġnode": 2653,
      "Ġben": 2654,
      "ĠNational": 2655,
      "ilde": 2656,
      "ĠAb": 2657,
      "Manager": 2658,
      "Ġinteg": 2659,
      "mber": 2660,
      "Ser": 2661,
      "Ġmedia": 2662,
      "raft": 2663,
      "include": 2664,
      "Pr": 2665,
      "ners": 2666,
      "igned": 2667,
      "iple": 2668,
      "rew": 2669,
      "Ġmembers": 2670,
      "Ġwhy": 2671,
      "iam": 2672,
      "Ġcomb": 2673,
      "ging": 2674,
      "34": 2675,
      "Ġ===": 2676,
      "Ġexc": 2677,
      "Ġemploy": 2678,
      "Ġpage": 2679,
      "Ġcrit": 2680,
      "*}": 2681,
      "Ġmom": 2682,
      "Ġdocument": 2683,
      "198": 2684,
      "Ġinitial": 2685,
      "Ġlight": 2686,
      "Ġseveral": 2687,
      "Ġtoget": 2688,
      "Ġgive": 2689,
      "Ġhttps": 2690,
      "Ġtogether": 2691,
      "bit": 2692,
      "Ġcolor": 2693,
      "rior": 2694,
      "Ġreview": 2695,
      "css": 2696,
      "ĠAug": 2697,
      "Ġtable": 2698,
      "mathrm": 2699,
      "66": 2700,
      "Fil": 2701,
      "IR": 2702,
      "space": 2703,
      "ĉĉĉĉĉĉ": 2704,
      "ĠCal": 2705,
      "Ġkind": 2706,
      "aging": 2707,
      "ids": 2708,
      "ĠSchool": 2709,
      "Ġ(\\": 2710,
      "ĠWhat": 2711,
      "cy": 2712,
      "Ġpolit": 2713,
      "with": 2714,
      "ULL": 2715,
      "Ġtalk": 2716,
      "Ġland": 2717,
      "ffic": 2718,
      "Ġdom": 2719,
      "Ad": 2720,
      "Ġoriginal": 2721,
      "Ġindiv": 2722,
      "context": 2723,
      "Ġmeans": 2724,
      "Ġunderstand": 2725,
      "Ġdevelopment": 2726,
      "Pl": 2727,
      "OD": 2728,
      "Ġlater": 2729,
      "Ġdiscuss": 2730,
      "55": 2731,
      "}{\\": 2732,
      "vers": 2733,
      "Ð°": 2734,
      "User": 2735,
      "inary": 2736,
      "unity": 2737,
      "Ġrequired": 2738,
      "ĠHowever": 2739,
      "ental": 2740,
      "ration": 2741,
      "ĠWhen": 2742,
      "Ġrole": 2743,
      "Ġamong": 2744,
      "2013": 2745,
      "Ġprob": 2746,
      ";</": 2747,
      "Reg": 2748,
      "Ġobt": 2749,
      "ĠMe": 2750,
      "Ġearly": 2751,
      "reate": 2752,
      "valid": 2753,
      "Dis": 2754,
      "Comm": 2755,
      "IL": 2756,
      "Ġmass": 2757,
      "uation": 2758,
      "Color": 2759,
      "print": 2760,
      "CH": 2761,
      "leg": 2762,
      "ills": 2763,
      "ips": 2764,
      "36": 2765,
      "annel": 2766,
      "irl": 2767,
      "aken": 2768,
      "Ġexpected": 2769,
      "Ġwomen": 2770,
      "avel": 2771,
      "ĠReg": 2772,
      "ĠApr": 2773,
      "No": 2774,
      "Call": 2775,
      "Ġbody": 2776,
      "Ġloc": 2777,
      "39": 2778,
      "ĠCity": 2779,
      "define": 2780,
      "gamma": 2781,
      "Ġbecome": 2782,
      "Ġimage": 2783,
      "light": 2784,
      "oman": 2785,
      "Ġlarg": 2786,
      "init": 2787,
      "Ġpotential": 2788,
      "tab": 2789,
      "Ġsimilar": 2790,
      "unch": 2791,
      "Ġsuper": 2792,
      "imum": 2793,
      "ĠGe": 2794,
      "Ġtreat": 2795,
      "ĠMc": 2796,
      "Ġservices": 2797,
      "most": 2798,
      "roups": 2799,
      "igation": 2800,
      "Ġfilm": 2801,
      "ĠIN": 2802,
      "Ġmessage": 2803,
      "Ġlang": 2804,
      "unk": 2805,
      "big": 2806,
      "Ġdeterm": 2807,
      "Ġcomplet": 2808,
      "ĠQu": 2809,
      "Ġtotal": 2810,
      "itut": 2811,
      "Ġcult": 2812,
      "Ġsignificant": 2813,
      "package": 2814,
      "rec": 2815,
      "Ġmatch": 2816,
      "istic": 2817,
      "Ġtoday": 2818,
      "Ġcur": 2819,
      "Ġdone": 2820,
      "Ġpoints": 2821,
      "Ġsure": 2822,
      "ogn": 2823,
      "ĠBo": 2824,
      "pose": 2825,
      "=\"../": 2826,
      "VID": 2827,
      "Ġport": 2828,
      "ĠRep": 2829,
      "amed": 2830,
      "ĠPart": 2831,
      "^{-": 2832,
      "Ġstop": 2833,
      "ĠNot": 2834,
      "Ġwhether": 2835,
      "ĠInt": 2836,
      "Ġtrad": 2837,
      "Ġpred": 2838,
      "eh": 2839,
      "Ġglobal": 2840,
      "Ġ};": 2841,
      "Ġgeneral": 2842,
      "sel": 2843,
      "Ġcity": 2844,
      "using": 2845,
      "Ġhistory": 2846,
      "+\\": 2847,
      "false": 2848,
      "Ġcreat": 2849,
      "option": 2850,
      "Ġoften": 2851,
      "Ġproblem": 2852,
      "Ġindividual": 2853,
      "check": 2854,
      "Ġyoung": 2855,
      "Ġproperty": 2856,
      "Ġbit": 2857,
      "Ġthought": 2858,
      "ournal": 2859,
      "38": 2860,
      "Ġtre": 2861,
      "Ġperformance": 2862,
      "Ġmove": 2863,
      "ered": 2864,
      "Ġenough": 2865,
      "ifier": 2866,
      "ĠĠĠĠĠĠĠĠĠĠĠĠ": 2867,
      "build": 2868,
      "ĠEurope": 2869,
      "ĠĠĠĠĠĠĠĠĠĠ": 2870,
      "ĠCount": 2871,
      "Ġnews": 2872,
      "TH": 2873,
      "cember": 2874,
      "Ð¾": 2875,
      "ĠMarch": 2876,
      "doc": 2877,
      "Ġ$(": 2878,
      "Ġconc": 2879,
      "ring": 2880,
      "Ġelement": 2881,
      "Ġcamp": 2882,
      "ilt": 2883,
      "Ġtrack": 2884,
      "ounds": 2885,
      "iol": 2886,
      "era": 2887,
      "Ġair": 2888,
      "ptions": 2889,
      "ĠDo": 2890,
      "Ġmil": 2891,
      "Ġtell": 2892,
      "Client": 2893,
      "Ġfurther": 2894,
      "Ġhttp": 2895,
      "Ġbackground": 2896,
      "Ġnil": 2897,
      "Ġra": 2898,
      "andom": 2899,
      "=\"#": 2900,
      "Ġdidn": 2901,
      "iting": 2902,
      "Ġseen": 2903,
      "Ġeconom": 2904,
      "lim": 2905,
      ">(": 2906,
      "method": 2907,
      "Property": 2908,
      "parent": 2909,
      "AM": 2910,
      "Ġthough": 2911,
      "emic": 2912,
      "cle": 2913,
      "Ġhaving": 2914,
      "^\\": 2915,
      "ithub": 2916,
      "OS": 2917,
      "Ġcourse": 2918,
      "There": 2919,
      "2012": 2920,
      "37": 2921,
      "asing": 2922,
      "plit": 2923,
      "irm": 2924,
      "Ġdoesn": 2925,
      "Ġdat": 2926,
      "Ġhost": 2927,
      "Ġperiod": 2928,
      "delta": 2929,
      "Ġmakes": 2930,
      "oph": 2931,
      "]{": 2932,
      "Ġinc": 2933,
      "ĠSet": 2934,
      "Ġonce": 2935,
      "figure": 2936,
      "Response": 2937,
      "ada": 2938,
      "48": 2939,
      "google": 2940,
      "static": 2941,
      "umb": 2942,
      "Ġbool": 2943,
      "ynam": 2944,
      "based": 2945,
      "style": 2946,
      "ĠGl": 2947,
      "db": 2948,
      "Ġcomput": 2949,
      "Ġcoll": 2950,
      "namespace": 2951,
      "struction": 2952,
      "ĠOne": 2953,
      "ĠThese": 2954,
      "Ġstd": 2955,
      "Ġrisk": 2956,
      "Ġsite": 2957,
      ")</": 2958,
      "ĠWill": 2959,
      "ilities": 2960,
      "Ġeither": 2961,
      "Ġpubl": 2962,
      "ĠDes": 2963,
      "leq": 2964,
      "actory": 2965,
      "mark": 2966,
      "Ġmap": 2967,
      "alt": 2968,
      "ĠMark": 2969,
      "ĠSept": 2970,
      "Ġsat": 2971,
      "bsite": 2972,
      "icense": 2973,
      "Ġcertain": 2974,
      "Ġannoun": 2975,
      "reet": 2976,
      "Query": 2977,
      "net": 2978,
      "igital": 2979,
      "Sub": 2980,
      ")}": 2981,
      "sq": 2982,
      "itted": 2983,
      "'re": 2984,
      "ological": 2985,
      "Rec": 2986,
      "ama": 2987,
      "Ġpress": 2988,
      "amples": 2989,
      "Ġpatients": 2990,
      "respond": 2991,
      "osp": 2992,
      "ĠAct": 2993,
      "ĠSouth": 2994,
      "Ġindic": 2995,
      "iff": 2996,
      "web": 2997,
      "Ġthing": 2998,
      "Count": 2999,
      "ensure": 3000,
      "Dr": 3001,
      "Ġshows": 3002,
      "ief": 3003,
      "Ġclaim": 3004,
      "================": 3005,
      "Method": 3006,
      "Ġyet": 3007,
      "Ġarr": 3008,
      "PI": 3009,
      "ĠAdd": 3010,
      "Ġchall": 3011,
      "rho": 3012,
      "Ġund": 3013,
      "argin": 3014,
      "ĠPres": 3015,
      "Ġep": 3016,
      "ĠEl": 3017,
      "Ġcame": 3018,
      "theta": 3019,
      "Ġothers": 3020,
      "44": 3021,
      "ĠCor": 3022,
      "github": 3023,
      "Stream": 3024,
      "Arg": 3025,
      "Ðµ": 3026,
      "year": 3027,
      "dev": 3028,
      "ched": 3029,
      "Ġfive": 3030,
      "Override": 3031,
      "ude": 3032,
      "Ġvideo": 3033,
      "ana": 3034,
      "dom": 3035,
      "<!--": 3036,
      "Mod": 3037,
      "anel": 3038,
      "Ġabs": 3039,
      "reed": 3040,
      "rt": 3041,
      "Ġmaterial": 3042,
      "Ġ($": 3043,
      "Builder": 3044,
      "witch": 3045,
      "olved": 3046,
      "lin": 3047,
      "Ġdiv": 3048,
      "Ġlive": 3049,
      "Ġfeatures": 3050,
      "ĠAg": 3051,
      "Ġlearn": 3052,
      "Image": 3053,
      "Ġoutput": 3054,
      "ftware": 3055,
      "OP": 3056,
      "05": 3057,
      "Ġenvironment": 3058,
      "orage": 3059,
      "Ġevents": 3060,
      "Ġnec": 3061,
      "Bar": 3062,
      "ij": 3063,
      "ibrary": 3064,
      "ename": 3065,
      "ĠStud": 3066,
      "ached": 3067,
      "Ġandroid": 3068,
      "CC": 3069,
      "verage": 3070,
      "ops": 3071,
      "ech": 3072,
      "times": 3073,
      "image": 3074,
      "rect": 3075,
      "Ġlay": 3076,
      "Ġgames": 3077,
      "Ġrelations": 3078,
      "Ġeduc": 3079,
      "active": 3080,
      "$-": 3081,
      "ino": 3082,
      "gen": 3083,
      "inition": 3084,
      "lege": 3085,
      "ĠList": 3086,
      "Ġreason": 3087,
      "lib": 3088,
      "ĠHealth": 3089,
      "](": 3090,
      "core": 3091,
      "ĠJune": 3092,
      "atory": 3093,
      "ĠPer": 3094,
      "Date": 3095,
      "Ġphys": 3096,
      "tau": 3097,
      "angle": 3098,
      "illed": 3099,
      "Ġborder": 3100,
      "oo": 3101,
      "Ed": 3102,
      "Ġcommon": 3103,
      "Ġhappen": 3104,
      "ises": 3105,
      "ocol": 3106,
      "Ġvia": 3107,
      "igure": 3108,
      "ĠTest": 3109,
      "ĠStates": 3110,
      "hand": 3111,
      "ĠAustral": 3112,
      "ĠTrans": 3113,
      "eqref": 3114,
      "ĠDecember": 3115,
      "ements": 3116,
      "Ġimpact": 3117,
      "ĠApril": 3118,
      "oon": 3119,
      "Ġonline": 3120,
      "AG": 3121,
      "ided": 3122,
      "SP": 3123,
      "Ġwon": 3124,
      "Em": 3125,
      "ĠComp": 3126,
      "Ġtook": 3127,
      "ĠPar": 3128,
      "hib": 3129,
      "Ġnight": 3130,
      "ĠDep": 3131,
      "xy": 3132,
      "Ġmot": 3133,
      "Ġclose": 3134,
      "ks": 3135,
      "Ġbegin": 3136,
      "2011": 3137,
      "eed": 3138,
      "emplate": 3139,
      "ites": 3140,
      "ĠMore": 3141,
      "ĠMy": 3142,
      "ĠNovember": 3143,
      "Fl": 3144,
      "Ġsw": 3145,
      "Ġcontinue": 3146,
      "Ġfood": 3147,
      "Ġprovided": 3148,
      "Ġaud": 3149,
      "Ġsugg": 3150,
      "Ġsuggest": 3151,
      "Ġbelow": 3152,
      "Ġcompon": 3153,
      "ĠNorth": 3154,
      "null": 3155,
      "dir": 3156,
      "ĠJuly": 3157,
      "ework": 3158,
      "ĠCounty": 3159,
      "anies": 3160,
      "cul": 3161,
      "Ġactiv": 3162,
      "Action": 3163,
      "ster": 3164,
      "Ġthird": 3165,
      "ĠĠĠĠĠĠĠĠĠĠĠĠĠĠĠĠĠĠĠĠĠĠĠĠĠĠĠĠĠĠĠ": 3166,
      "Ġcompet": 3167,
      "Be": 3168,
      "event": 3169,
      "ĠUp": 3170,
      "Ġopport": 3171,
      "ication": 3172,
      "EE": 3173,
      "quad": 3174,
      "Ġvalid": 3175,
      "End": 3176,
      "ping": 3177,
      "Group": 3178,
      "Ġanalysis": 3179,
      "ĠEm": 3180,
      "Gener": 3181,
      "ires": 3182,
      "Ġcases": 3183,
      "imary": 3184,
      "Ġmar": 3185,
      "cope": 3186,
      "query": 3187,
      "ĠArt": 3188,
      "Ġimplement": 3189,
      "na": 3190,
      "Ġchanges": 3191,
      "client": 3192,
      "}(\\": 3193,
      "])": 3194,
      "Ġrate": 3195,
      "Ġdeath": 3196,
      "ĠOctober": 3197,
      "current": 3198,
      "ades": 3199,
      "ocr": 3200,
      "Ġsearch": 3201,
      "Ġdisplay": 3202,
      "Ġmonths": 3203,
      "Ġspecific": 3204,
      "options": 3205,
      "ĠRec": 3206,
      "ĠRuss": 3207,
      "medi": 3208,
      "ouch": 3209,
      "omet": 3210,
      "ĠSm": 3211,
      "atest": 3212,
      "nown": 3213,
      "Ġwidth": 3214,
      "Ġaccording": 3215,
      "Ġcomes": 3216,
      "ns": 3217,
      "aul": 3218,
      "Ġterms": 3219,
      "Ap": 3220,
      "Ġadded": 3221,
      "Ġdiff": 3222,
      "yd": 3223,
      "empt": 3224,
      "SC": 3225,
      "artment": 3226,
      "Ġneeds": 3227,
      "Util": 3228,
      "Ġbound": 3229,
      "ĠGener": 3230,
      "though": 3231,
      "Ġindustry": 3232,
      "ategory": 3233,
      "partial": 3234,
      "icult": 3235,
      "Ġface": 3236,
      "Ġbi": 3237,
      "ĠSch": 3238,
      "Ġsent": 3239,
      "php": 3240,
      "Ġfeature": 3241,
      "aves": 3242,
      "anch": 3243,
      "finished": 3244,
      "aid": 3245,
      "Ġtool": 3246,
      "Ġdefined": 3247,
      "Ġhouse": 3248,
      "GL": 3249,
      "gor": 3250,
      "izing": 3251,
      "Input": 3252,
      "Ġhigher": 3253,
      "Ġmodels": 3254,
      "ĠSeptember": 3255,
      "Ġinstall": 3256,
      "irtual": 3257,
      "Ġ<<": 3258,
      "func": 3259,
      "aced": 3260,
      "Ġgen": 3261,
      "Ġdate": 3262,
      "Ġnum": 3263,
      "Source": 3264,
      "cale": 3265,
      "2010": 3266,
      "Ġtold": 3267,
      "Str": 3268,
      "49": 3269,
      "request": 3270,
      "Ġbenef": 3271,
      "Ġofficial": 3272,
      "ONT": 3273,
      "Status": 3274,
      "ection": 3275,
      "aur": 3276,
      "Ð¸": 3277,
      "amework": 3278,
      "Ġmiss": 3279,
      "Ġattack": 3280,
      "....": 3281,
      "Ġhalf": 3282,
      "ĠStr": 3283,
      "ĠAm": 3284,
      "((": 3285,
      "Ġstarted": 3286,
      "ĠPark": 3287,
      "Ġage": 3288,
      "df": 3289,
      "Ġvisit": 3290,
      "ĠAugust": 3291,
      "Ġstep": 3292,
      "yles": 3293,
      "Ġlength": 3294,
      "Ġrespons": 3295,
      "ried": 3296,
      "plied": 3297,
      "bruary": 3298,
      "ancial": 3299,
      "Ġload": 3300,
      "rypt": 3301,
      "Act": 3302,
      "ze": 3303,
      "eline": 3304,
      "atural": 3305,
      "rest": 3306,
      "Ġmoney": 3307,
      "Ġsong": 3308,
      "Ġapproach": 3309,
      "Ġlooking": 3310,
      "rs": 3311,
      "xi": 3312,
      "flu": 3313,
      "0000": 3314,
      "Ġsystems": 3315,
      "button": 3316,
      "Ġsix": 3317,
      "Ġcy": 3318,
      "ĠDav": 3319,
      "args": 3320,
      "Ġquestion": 3321,
      "elling": 3322,
      "Ġmen": 3323,
      "ĠĠĠĠĠĠĠĠĠĠĠĠĠĠĠĠĠ": 3324,
      "iddle": 3325,
      "Ġtask": 3326,
      "When": 3327,
      "efore": 3328,
      "Ġcou": 3329,
      "Ġtechnology": 3330,
      "ĠSec": 3331,
      "Ġactually": 3332,
      "sequ": 3333,
      "ham": 3334,
      "Ġfall": 3335,
      "witter": 3336,
      "dl": 3337,
      "sy": 3338,
      "Ġwatch": 3339,
      "65": 3340,
      "istry": 3341,
      "08": 3342,
      "run": 3343,
      "ĠWar": 3344,
      "Ġoption": 3345,
      "Ġplatform": 3346,
      "App": 3347,
      "arser": 3348,
      "page": 3349,
      "abase": 3350,
      "Ġey": 3351,
      "Ġpercent": 3352,
      "rows": 3353,
      "ĠNULL": 3354,
      "Ġintrodu": 3355,
      "lood": 3356,
      "ĠWest": 3357,
      "ependent": 3358,
      "count": 3359,
      "iday": 3360,
      "OL": 3361,
      "ĠCOVID": 3362,
      "|\\": 3363,
      "gener": 3364,
      "Block": 3365,
      "}$,": 3366,
      "ĉĊ": 3367,
      "semb": 3368,
      "Ġlabel": 3369,
      "Ġamount": 3370,
      "Ġden": 3371,
      "Pos": 3372,
      "NS": 3373,
      "imation": 3374,
      "Lay": 3375,
      "unfinished": 3376,
      "oved": 3377,
      "gorith": 3378,
      "avor": 3379,
      "ges": 3380,
      "Ġcreated": 3381,
      "Ġprint": 3382,
      "Ġdeal": 3383,
      "Ġbring": 3384,
      "Ġsection": 3385,
      "izer": 3386,
      "vis": 3387,
      "gle": 3388,
      "Ġpersonal": 3389,
      "ĠDef": 3390,
      "Ġroom": 3391,
      "Line": 3392,
      "ĠBar": 3393,
      "fty": 3394,
      "ĠCoun": 3395,
      "MS": 3396,
      "Ġphot": 3397,
      "server": 3398,
      "Ġ->": 3399,
      "fully": 3400,
      "maz": 3401,
      "mat": 3402,
      "sim": 3403,
      "Ġ...": 3404,
      "atal": 3405,
      "Ġaddition": 3406,
      "height": 3407,
      "Ġago": 3408,
      "istor": 3409,
      "ĠClass": 3410,
      "Ġapplic": 3411,
      "YPE": 3412,
      "Ġlower": 3413,
      "Ġneg": 3414,
      "Ab": 3415,
      "icles": 3416,
      "nu": 3417,
      "urch": 3418,
      "Ġparticip": 3419,
      "istration": 3420,
      "Ġsubject": 3421,
      "ĠAfr": 3422,
      "Head": 3423,
      "Ġwent": 3424,
      "Ġfoot": 3425,
      "ATE": 3426,
      "Ġ()": 3427,
      "Ġstream": 3428,
      "77": 3429,
      "Ġwords": 3430,
      "Token": 3431,
      "jav": 3432,
      "header": 3433,
      "}$.": 3434,
      "Ġcirc": 3435,
      "ague": 3436,
      "02": 3437,
      "FI": 3438,
      "nov": 3439,
      "uel": 3440,
      "UL": 3441,
      "undle": 3442,
      "aption": 3443,
      "adding": 3444,
      "Ġtaken": 3445,
      "ores": 3446,
      "UE": 3447,
      "Ġrefer": 3448,
      "Ġ\"\"\"": 3449,
      "Nav": 3450,
      "Ġdoing": 3451,
      "Instance": 3452,
      "case": 3453,
      "ialog": 3454,
      "change": 3455,
      "Ġwebsite": 3456,
      "EX": 3457,
      "Ġblack": 3458,
      "wise": 3459,
      "coming": 3460,
      "arter": 3461,
      "fect": 3462,
      "DO": 3463,
      "acing": 3464,
      "FA": 3465,
      "04": 3466,
      "ĠInter": 3467,
      "ĠAfter": 3468,
      "Ġreported": 3469,
      "Ġcut": 3470,
      "Ġbuilding": 3471,
      "Ġshown": 3472,
      "ledge": 3473,
      "Pre": 3474,
      "Ġcomplex": 3475,
      "ĠHouse": 3476,
      "Ġimprov": 3477,
      "stream": 3478,
      "pecially": 3479,
      "Ġvarious": 3480,
      "Ġdest": 3481,
      "aker": 3482,
      "Ġformer": 3483,
      "Ġcompanies": 3484,
      "has": 3485,
      "Ġtraining": 3486,
      "infty": 3487,
      "Ġlo": 3488,
      "Ġcorrespond": 3489,
      "Ġitem": 3490,
      "IV": 3491,
      "ceed": 3492,
      "Ġrelease": 3493,
      "Ġmor": 3494,
      "xml": 3495,
      "ci": 3496,
      "Ġfun": 3497,
      "Ġtax": 3498,
      "ĠAmerica": 3499,
      "Ġboolean": 3500,
      "mission": 3501,
      "Ġissues": 3502,
      "ĠVal": 3503,
      "Ġentire": 3504,
      "hing": 3505,
      "tx": 3506,
      "Ġrecent": 3507,
      "ĠCenter": 3508,
      "open": 3509,
      "HT": 3510,
      "Ġregion": 3511,
      "member": 3512,
      "pected": 3513,
      "Ġred": 3514,
      "Delta": 3515,
      "mon": 3516,
      "Ġalmost": 3517,
      "Ġaccept": 3518,
      "uster": 3519,
      "irit": 3520,
      "flow": 3521,
      "tilde": 3522,
      "Ġloss": 3523,
      "anced": 3524,
      "Ġpolicy": 3525,
      "IM": 3526,
      "png": 3527,
      "Ġwindow": 3528,
      "Ġshare": 3529,
      "elete": 3530,
      "Ġcho": 3531,
      "tries": 3532,
      "Ġstatus": 3533,
      "Ġapplication": 3534,
      "Gr": 3535,
      "Ġche": 3536,
      "Ġmind": 3537,
      "Ġlikely": 3538,
      "append": 3539,
      "uit": 3540,
      "Ġcopy": 3541,
      "lying": 3542,
      "apping": 3543,
      "Us": 3544,
      "Ġmoment": 3545,
      "Ġtw": 3546,
      "aven": 3547,
      "Ġimm": 3548,
      "actions": 3549,
      "ĠMon": 3550,
      "Ġnecess": 3551,
      "Ġseem": 3552,
      "Ġworks": 3553,
      "cil": 3554,
      "Ġestabl": 3555,
      "ado": 3556,
      "Ġgetting": 3557,
      "Ġach": 3558,
      "Ġcannot": 3559,
      "Run": 3560,
      "target": 3561,
      "Null": 3562,
      "idge": 3563,
      "Sp": 3564,
      "ĠčĊ": 3565,
      "Ġcontribut": 3566,
      "omega": 3567,
      "Ġassociated": 3568,
      "idget": 3569,
      "Off": 3570,
      "Base": 3571,
      "Ġprotected": 3572,
      "Ġconditions": 3573,
      "Ass": 3574,
      "Ġexecut": 3575,
      "({": 3576,
      "ken": 3577,
      "Part": 3578,
      "astic": 3579,
      "Ġplayers": 3580,
      "lem": 3581,
      "ÑĤ": 3582,
      "78": 3583,
      "anks": 3584,
      "lean": 3585,
      "Ġproduction": 3586,
      "ugin": 3587,
      "ĠIndia": 3588,
      "ĠPe": 3589,
      "etic": 3590,
      "CK": 3591,
      "){": 3592,
      "ensive": 3593,
      "Equal": 3594,
      "ĠPresident": 3595,
      "ishing": 3596,
      "Ġ+=": 3597,
      "One": 3598,
      "Ġclient": 3599,
      "Ġsens": 3600,
      "Ġsequ": 3601,
      "Oper": 3602,
      "bor": 3603,
      "adata": 3604,
      "II": 3605,
      "Ġheart": 3606,
      "Ġdraw": 3607,
      "09": 3608,
      "Ġfront": 3609,
      "selves": 3610,
      "aries": 3611,
      "Ġwhole": 3612,
      "Sup": 3613,
      "lish": 3614,
      "Ġfail": 3615,
      "oe": 3616,
      "ington": 3617,
      "Ġcatch": 3618,
      "ĠFebruary": 3619,
      "[\"": 3620,
      "Ġhom": 3621,
      "riter": 3622,
      "rowser": 3623,
      "nes": 3624,
      "joy": 3625,
      "Attribute": 3626,
      "Ġwar": 3627,
      "Handler": 3628,
      "Component": 3629,
      "apter": 3630,
      "chan": 3631,
      "cm": 3632,
      "host": 3633,
      "hel": 3634,
      "TO": 3635,
      "Ġproducts": 3636,
      ".)": 3637,
      "iences": 3638,
      "Ġresource": 3639,
      "Ġcaus": 3640,
      "Ġtaking": 3641,
      "Ġwalk": 3642,
      "\".": 3643,
      "child": 3644,
      "06": 3645,
      "Ġmethods": 3646,
      "Cell": 3647,
      "augh": 3648,
      "Start": 3649,
      "ĠLaw": 3650,
      "Ġrather": 3651,
      "ille": 3652,
      "obile": 3653,
      "ĠHis": 3654,
      "raphics": 3655,
      "Content": 3656,
      "cell": 3657,
      "ĠCr": 3658,
      "Ġquick": 3659,
      "ĠBro": 3660,
      "Buffer": 3661,
      "utes": 3662,
      "unt": 3663,
      "Ġhours": 3664,
      "ND": 3665,
      "Ġarticle": 3666,
      "Ġprote": 3667,
      "Comp": 3668,
      "Ġbar": 3669,
      "Ġeffort": 3670,
      "aign": 3671,
      "bum": 3672,
      "urb": 3673,
      "Ġforward": 3674,
      "Ġver": 3675,
      "Ġusers": 3676,
      "Options": 3677,
      "Ġupdate": 3678,
      "local": 3679,
      "Ġaverage": 3680,
      "cing": 3681,
      "acity": 3682,
      "property": 3683,
      "Ġlanguage": 3684,
      "Ġhowever": 3685,
      "Ġbehind": 3686,
      "json": 3687,
      "Ġteach": 3688,
      "Ġincrease": 3689,
      "Ġpaper": 3690,
      "ĠBrit": 3691,
      "Ġmultiple": 3692,
      "Ġprior": 3693,
      "urg": 3694,
      "Last": 3695,
      "Ġwrite": 3696,
      "ĠOff": 3697,
      "95": 3698,
      "Ġsecurity": 3699,
      "TS": 3700,
      ")(": 3701,
      "btn": 3702,
      "ĠOF": 3703,
      "Ġstates": 3704,
      "ael": 3705,
      "irection": 3706,
      "''": 3707,
      "ĠWork": 3708,
      "Ġground": 3709,
      "Ġreceived": 3710,
      "Ġmeasure": 3711,
      "ĉĉĉĉĉĉĉĉ": 3712,
      "ĠĠĠĠĠĠĠĠĊ": 3713,
      "07": 3714,
      "wide": 3715,
      "write": 3716,
      "Ġpick": 3717,
      "Ġgroups": 3718,
      "Ġrelationship": 3719,
      "ĠRed": 3720,
      "Ġnormal": 3721,
      "Ġill": 3722,
      "select": 3723,
      "Ġneeded": 3724,
      "ĠHar": 3725,
      "Link": 3726,
      "Ġdouble": 3727,
      "rown": 3728,
      "Ġbad": 3729,
      "adio": 3730,
      "elt": 3731,
      "orem": 3732,
      "VER": 3733,
      "ociety": 3734,
      "Ġstandard": 3735,
      "2009": 3736,
      "aly": 3737,
      "47": 3738,
      "Ġlimit": 3739,
      "Ġmer": 3740,
      "ĠHigh": 3741,
      "Ġparameters": 3742,
      "draw": 3743,
      "ĠAcc": 3744,
      "char": 3745,
      "ĠĠĠĠĠĠĠĠĠĠĠĠĠĠ": 3746,
      "Ġcontact": 3747,
      "RA": 3748,
      "inst": 3749,
      "That": 3750,
      "img": 3751,
      "foot": 3752,
      "Ġinstead": 3753,
      "ĠNe": 3754,
      "ĠResearch": 3755,
      "otype": 3756,
      "Prov": 3757,
      "ĠTV": 3758,
      "Ġinit": 3759,
      "ĠMich": 3760,
      "Ġquality": 3761,
      "Factory": 3762,
      "Ð½": 3763,
      "Ġsepar": 3764,
      "Ġunique": 3765,
      "Ġeval": 3766,
      "post": 3767,
      "Ġcomplete": 3768,
      "46": 3769,
      "rl": 3770,
      "textbf": 3771,
      "Ġdecl": 3772,
      "ĠPat": 3773,
      "03": 3774,
      "atur": 3775,
      "Ġstructure": 3776,
      "strong": 3777,
      "cdot": 3778,
      "Next": 3779,
      "isf": 3780,
      "ptr": 3781,
      "Ġpers": 3782,
      "idden": 3783,
      "So": 3784,
      "Ġcred": 3785,
      "Ġhit": 3786,
      "comes": 3787,
      "ĠChar": 3788,
      "REF": 3789,
      "Resource": 3790,
      "First": 3791,
      "iet": 3792,
      "find": 3793,
      "LASS": 3794,
      "board": 3795,
      "ying": 3796,
      "ĠData": 3797,
      "ĠBlack": 3798,
      "ining": 3799,
      "very": 3800,
      "Check": 3801,
      "Task": 3802,
      "ĠNone": 3803,
      "ĠSim": 3804,
      "Ġprovides": 3805,
      "Ġadditional": 3806,
      "Ġmanagement": 3807,
      "}[": 3808,
      "Point": 3809,
      "aph": 3810,
      "font": 3811,
      "Ġtakes": 3812,
      "dat": 3813,
      "Ġdetails": 3814,
      "Ġrelated": 3815,
      "ows": 3816,
      "Ġcross": 3817,
      "ĠReturn": 3818,
      "status": 3819,
      "bm": 3820,
      "first": 3821,
      "ĠAc": 3822,
      "ĠĠĠĠĠĠĠĠĠĠĠĠĊ": 3823,
      "Ġinternal": 3824,
      "Ġissue": 3825,
      "ees": 3826,
      "ĠDon": 3827,
      "ĠUK": 3828,
      "Ġexpress": 3829,
      "fort": 3830,
      "non": 3831,
      "Default": 3832,
      "ĠGerm": 3833,
      "Ġbehav": 3834,
      "ries": 3835,
      "Ġcolumn": 3836,
      "ĠInternational": 3837,
      "Ġexperim": 3838,
      "caption": 3839,
      "Ġrights": 3840,
      "42": 3841,
      "ams": 3842,
      "navbar": 3843,
      "BC": 3844,
      "Ġmember": 3845,
      "istics": 3846,
      "ategy": 3847,
      "ĠGroup": 3848,
      "ĠOut": 3849,
      "Ġrecogn": 3850,
      "resh": 3851,
      "Ġtypes": 3852,
      "tributes": 3853,
      "Ġinj": 3854,
      "Function": 3855,
      "attle": 3856,
      "olutions": 3857,
      "bottom": 3858,
      "ypes": 3859,
      "Ġsaf": 3860,
      "level": 3861,
      "Ġincludes": 3862,
      "ĠFrom": 3863,
      "dated": 3864,
      "py": 3865,
      "encies": 3866,
      "PC": 3867,
      "Ġincluded": 3868,
      "True": 3869,
      "Ġwait": 3870,
      "Ġnational": 3871,
      "aily": 3872,
      "like": 3873,
      "private": 3874,
      "Ġheight": 3875,
      "eger": 3876,
      "Ġcoming": 3877,
      "Ġlearning": 3878,
      "Ġespecially": 3879,
      "Ġelements": 3880,
      "thern": 3881,
      "mm": 3882,
      "ĠObject": 3883,
      "Ġautom": 3884,
      "ili": 3885,
      "eff": 3886,
      "ĠJust": 3887,
      "ares": 3888,
      "ĠDem": 3889,
      "Label": 3890,
      "ĠAng": 3891,
      "Ġsimple": 3892,
      "ĠRead": 3893,
      "hood": 3894,
      "ĠUs": 3895,
      "ald": 3896,
      "ocket": 3897,
      "amily": 3898,
      "ube": 3899,
      "Ġarch": 3900,
      "Ġbelieve": 3901,
      "Ġwr": 3902,
      "ĠThen": 3903,
      "500": 3904,
      "Ġwor": 3905,
      "$$": 3906,
      "Ġviol": 3907,
      "EL": 3908,
      "Ġquant": 3909,
      "ĠOf": 3910,
      "*/": 3911,
      "src": 3912,
      "evelop": 3913,
      "ĠOur": 3914,
      "det": 3915,
      "Ġsex": 3916,
      "ament": 3917,
      "display": 3918,
      "oring": 3919,
      "itute": 3920,
      "soft": 3921,
      "Ġengine": 3922,
      "Ġder": 3923,
      "module": 3924,
      "Ġdeep": 3925,
      "Ġleaders": 3926,
      "Version": 3927,
      "Hel": 3928,
      "allet": 3929,
      "Acc": 3930,
      "Ġareas": 3931,
      "ospital": 3932,
      "ondon": 3933,
      "itory": 3934,
      "Ġsolution": 3935,
      "Ġsound": 3936,
      "itary": 3937,
      "ĠCons": 3938,
      "stract": 3939,
      "ĠGL": 3940,
      "Window": 3941,
      "Ġpack": 3942,
      "Ġdise": 3943,
      "Ġfire": 3944,
      "Ġrout": 3945,
      "symbol": 3946,
      "elebr": 3947,
      "Load": 3948,
      "Ġeverything": 3949,
      "used": 3950,
      "si": 3951,
      "ĠDirect": 3952,
      "\"]": 3953,
      "ĠHer": 3954,
      "68": 3955,
      "mem": 3956,
      "ensity": 3957,
      "apan": 3958,
      "PRO": 3959,
      "Ġgrad": 3960,
      "ĠCour": 3961,
      "Ġansw": 3962,
      "Ġselect": 3963,
      "andid": 3964,
      "std": 3965,
      "Ġstre": 3966,
      "room": 3967,
      "description": 3968,
      "Ġanything": 3969,
      "iqu": 3970,
      "Number": 3971,
      "Ġcommand": 3972,
      "Ġthrows": 3973,
      "Ġmatter": 3974,
      "NO": 3975,
      "atives": 3976,
      "ae": 3977,
      "sole": 3978,
      "Page": 3979,
      "ordin": 3980,
      "Ġrunning": 3981,
      "Ġspect": 3982,
      "ĠDay": 3983,
      "2008": 3984,
      "Pol": 3985,
      "Ġadmin": 3986,
      "oding": 3987,
      "}}\\": 3988,
      "Ġgrowth": 3989,
      "Ġsym": 3990,
      "anger": 3991,
      "Ġappear": 3992,
      "Ġparameter": 3993,
      "Om": 3994,
      "Ġcurrently": 3995,
      "Ġnothing": 3996,
      "ĠKing": 3997,
      "ÑĢ": 3998,
      "ship": 3999,
      "TER": 4000,
      "istance": 4001,
      "Ġregard": 4002,
      "last": 4003,
      "Ġisn": 4004,
      "duc": 4005,
      "Ġ{@": 4006,
      "lick": 4007,
      "Ġwritten": 4008,
      "heet": 4009,
      "inding": 4010,
      "Ġdeg": 4011,
      "ĠLet": 4012,
      "airs": 4013,
      "Ġitself": 4014,
      "layout": 4015,
      "Ġbox": 4016,
      "Ġshall": 4017,
      "Ġwhite": 4018,
      "aches": 4019,
      "Ġtreatment": 4020,
      "ii": 4021,
      "Ġconsidered": 4022,
      "Ġpositive": 4023,
      "ĠSeries": 4024,
      "udd": 4025,
      "Post": 4026,
      "UM": 4027,
      "Ġheld": 4028,
      "ĠGoogle": 4029,
      "element": 4030,
      "Ġwriting": 4031,
      "Ġhope": 4032,
      "Ġauto": 4033,
      "Ġge": 4034,
      "Ġfight": 4035,
      "meta": 4036,
      "Ġinf": 4037,
      "});": 4038,
      "Ġenjoy": 4039,
      "Ġroad": 4040,
      "ĠDepartment": 4041,
      "po": 4042,
      "igger": 4043,
      "pol": 4044,
      "itte": 4045,
      "Ġsense": 4046,
      "olve": 4047,
      "ifact": 4048,
      "${": 4049,
      "Ġdifficult": 4050,
      "Ġhor": 4051,
      "ris": 4052,
      "just": 4053,
      "eqn": 4054,
      "Ġhot": 4055,
      "Ġtravel": 4056,
      "pack": 4057,
      "Ġstaff": 4058,
      "ĠBook": 4059,
      "format": 4060,
      "Ġcenter": 4061,
      "Ġdevice": 4062,
      "ĠGod": 4063,
      "Return": 4064,
      "ĠID": 4065,
      "Ġupon": 4066,
      "project": 4067,
      "Ġful": 4068,
      "endif": 4069,
      "close": 4070,
      "Ġfriend": 4071,
      "Ġlevels": 4072,
      "mult": 4073,
      "ervices": 4074,
      "Ġconsist": 4075,
      "Ġcollection": 4076,
      "sg": 4077,
      "ĠFirst": 4078,
      "irus": 4079,
      "iforn": 4080,
      "Ġproperties": 4081,
      "ĠSk": 4082,
      "Ġpopular": 4083,
      "ha": 4084,
      "58": 4085,
      "Ġpolitical": 4086,
      "Ġidea": 4087,
      "pc": 4088,
      "Ġlocation": 4089,
      "sembly": 4090,
      "ĠSan": 4091,
      "cel": 4092,
      "Ġcomment": 4093,
      "////////////////": 4094,
      "ascript": 4095,
      "Ġattempt": 4096,
      "Command": 4097,
      "Ġcapt": 4098,
      "push": 4099,
      "Ġoutside": 4100,
      "izes": 4101,
      "ĠAir": 4102,
      "center": 4103,
      "~~": 4104,
      "AA": 4105,
      "grad": 4106,
      "Ġsche": 4107,
      "Ġconcern": 4108,
      "67": 4109,
      ")$.": 4110,
      "bold": 4111,
      "mar": 4112,
      "aine": 4113,
      "Ġreve": 4114,
      "Ġsoftware": 4115,
      "ĠAustralia": 4116,
      "?âĢĿ": 4117,
      "Ġemer": 4118,
      "Per": 4119,
      "ABLE": 4120,
      "Ġsus": 4121,
      "bon": 4122,
      "Ġeffects": 4123,
      "Bl": 4124,
      "Ġvot": 4125,
      "Ġdim": 4126,
      "Ġliter": 4127,
      "ford": 4128,
      "Ġasked": 4129,
      "(&": 4130,
      "ography": 4131,
      "uccess": 4132,
      "ederal": 4133,
      "Ġtemper": 4134,
      "Create": 4135,
      "ĠChina": 4136,
      "Ġlate": 4137,
      "signed": 4138,
      "UI": 4139,
      "ĠCE": 4140,
      "ĠNow": 4141,
      "Ġdepend": 4142,
      "Ġquite": 4143,
      "Ġ((": 4144,
      "Equals": 4145,
      "ĠSen": 4146,
      "IO": 4147,
      "acters": 4148,
      "Ġstay": 4149,
      "Ġdistribution": 4150,
      "Ġexact": 4151,
      "Ġpret": 4152,
      "known": 4153,
      "epsilon": 4154,
      "ĠReview": 4155,
      "entry": 4156,
      "ara": 4157,
      "Ġreleased": 4158,
      "Ġ]": 4159,
      "ynt": 4160,
      "}_{\\": 4161,
      "Ġfrequ": 4162,
      "Do": 4163,
      "Ġseems": 4164,
      "Ġinflu": 4165,
      "cap": 4166,
      "ĠSub": 4167,
      "Ġaw": 4168,
      "psi": 4169,
      "issions": 4170,
      "Ġpublished": 4171,
      "Ġvacc": 4172,
      "ĠEnglish": 4173,
      "59": 4174,
      "'m": 4175,
      "ulations": 4176,
      "gorithm": 4177,
      "Ġchalleng": 4178,
      "ĠSw": 4179,
      "ifornia": 4180,
      "Style": 4181,
      "ening": 4182,
      "response": 4183,
      "ming": 4184,
      "container": 4185,
      "can": 4186,
      "Ġbre": 4187,
      "chema": 4188,
      "ĠYour": 4189,
      "ĠAssoci": 4190,
      "ĠPhil": 4191,
      "iant": 4192,
      "88": 4193,
      "Rep": 4194,
      "Ext": 4195,
      "Char": 4196,
      "pri": 4197,
      "Ġparty": 4198,
      "Ġscreen": 4199,
      "Ġsomeone": 4200,
      "Ġbeaut": 4201,
      "Ġprice": 4202,
      "rief": 4203,
      "After": 4204,
      "Met": 4205,
      "ĠRE": 4206,
      "Ġfinancial": 4207,
      "Ġfunctions": 4208,
      "FONT": 4209,
      "Ġmargin": 4210,
      "Ġtrying": 4211,
      "Ġeasy": 4212,
      "TP": 4213,
      "uge": 4214,
      "Ġactive": 4215,
      "Ġextends": 4216,
      "Controller": 4217,
      "Ġess": 4218,
      "vest": 4219,
      "Ġnav": 4220,
      "\\,": 4221,
      "agram": 4222,
      "Ġrecomm": 4223,
      "ĠTrump": 4224,
      "verse": 4225,
      "pite": 4226,
      "'ve": 4227,
      "Ġbecame": 4228,
      "ellow": 4229,
      "Ġtim": 4230,
      "SON": 4231,
      "anged": 4232,
      "ĠGover": 4233,
      "roy": 4234,
      "Omega": 4235,
      "Ġlonger": 4236,
      "Ġnone": 4237,
      "Ġeveryone": 4238,
      "igin": 4239,
      "Fe": 4240,
      "Ġstudies": 4241,
      "Ġleading": 4242,
      "Ġq": 4243,
      "small": 4244,
      "Child": 4245,
      "Let": 4246,
      "Ġword": 4247,
      "Ġcells": 4248,
      "Ġfiles": 4249,
      "Ġgirl": 4250,
      "Filter": 4251,
      "uate": 4252,
      "Ġbroad": 4253,
      "Ġband": 4254,
      "Ġplayer": 4255,
      "ERT": 4256,
      "Ġlatest": 4257,
      "ĠLa": 4258,
      "abs": 4259,
      "Ġprofess": 4260,
      "oul": 4261,
      "Ġprobably": 4262,
      "My": 4263,
      "ĠSome": 4264,
      ">>": 4265,
      "zz": 4266,
      "ĠTechn": 4267,
      "params": 4268,
      "Ġir": 4269,
      "Ġcontract": 4270,
      "Ġserver": 4271,
      "Ġvert": 4272,
      "///": 4273,
      "cret": 4274,
      "uid": 4275,
      "Ġfollows": 4276,
      "ensions": 4277,
      "Ġveh": 4278,
      "Ġdecision": 4279,
      "force": 4280,
      "Ġfa": 4281,
      "57": 4282,
      "Ġconduct": 4283,
      "Ġrecently": 4284,
      "ese": 4285,
      "Ã¡": 4286,
      "vey": 4287,
      "ĠRem": 4288,
      "ATION": 4289,
      "Ġeffic": 4290,
      "Ġurl": 4291,
      "Ġcondition": 4292,
      "Ġbuilt": 4293,
      "Tag": 4294,
      "Format": 4295,
      "olar": 4296,
      "Ġways": 4297,
      "Ġnatural": 4298,
      "achine": 4299,
      "197": 4300,
      "Refer": 4301,
      "Ġprogress": 4302,
      "Ġball": 4303,
      "asc": 4304,
      "Ġtown": 4305,
      "ĠLondon": 4306,
      "HO": 4307,
      "Ġformat": 4308,
      "itch": 4309,
      "ĠTHE": 4310,
      "ĠPost": 4311,
      "Ġvirtual": 4312,
      "Ġsoon": 4313,
      "het": 4314,
      "Ġscale": 4315,
      "Det": 4316,
      "erve": 4317,
      "iers": 4318,
      "Ġtransform": 4319,
      "Ġdigital": 4320,
      "ufact": 4321,
      "Ġannounced": 4322,
      "Ġhon": 4323,
      "Box": 4324,
      "ĠPre": 4325,
      "43": 4326,
      "Ġregular": 4327,
      "Ġnov": 4328,
      "sqrt": 4329,
      "Ġdeliver": 4330,
      "Web": 4331,
      "Ġpredict": 4332,
      "Ġeducation": 4333,
      "Ġlines": 4334,
      "Ġrandom": 4335,
      "service": 4336,
      "cho": 4337,
      "Ġpolice": 4338,
      "menu": 4339,
      "Ġconstant": 4340,
      "more": 4341,
      "ĠHol": 4342,
      "pass": 4343,
      "inner": 4344,
      "filter": 4345,
      "^*": 4346,
      "subsection": 4347,
      "chi": 4348,
      "Ġweb": 4349,
      "Aut": 4350,
      "Ġcountries": 4351,
      "Ġcompared": 4352,
      "Ġgraph": 4353,
      "Ġconstruct": 4354,
      "Ġdemon": 4355,
      "Ġminutes": 4356,
      "ĠPublic": 4357,
      "Ġconnection": 4358,
      "Ġsort": 4359,
      "_.": 4360,
      "ĠLicense": 4361,
      "BU": 4362,
      "Ġspecified": 4363,
      "exp": 4364,
      "lier": 4365,
      "Ġsem": 4366,
      "Ġcampaign": 4367,
      "Ġsatisf": 4368,
      "Ġquestions": 4369,
      "Back": 4370,
      "ĠInc": 4371,
      "long": 4372,
      "\").": 4373,
      "attr": 4374,
      "inn": 4375,
      "Ġlost": 4376,
      "obj": 4377,
      "ttp": 4378,
      "ĠDavid": 4379,
      "wood": 4380,
      "gn": 4381,
      "javascript": 4382,
      "ota": 4383,
      "Ġensure": 4384,
      "Ġdiscover": 4385,
      "Ġsn": 4386,
      "Ġwhose": 4387,
      "Ġreach": 4388,
      "Ġ<!--": 4389,
      "DA": 4390,
      "Ġinternational": 4391,
      "Ġcook": 4392,
      "41": 4393,
      "ĠEv": 4394,
      "Ġspeed": 4395,
      "Ġcompl": 4396,
      "Ġcam": 4397,
      "psilon": 4398,
      "Ġalbum": 4399,
      "enced": 4400,
      "styles": 4401,
      "ĠRef": 4402,
      "Ġreference": 4403,
      "update": 4404,
      "ql": 4405,
      "Ñģ": 4406,
      "term": 4407,
      "Ġmulti": 4408,
      "Ġpopulation": 4409,
      "Ġwanted": 4410,
      "urren": 4411,
      "Ġrev": 4412,
      "Big": 4413,
      "56": 4414,
      "irth": 4415,
      "Ġmagn": 4416,
      "Listener": 4417,
      "Select": 4418,
      "essages": 4419,
      "Ġmodule": 4420,
      "num": 4421,
      "Ġexcept": 4422,
      "Ġresources": 4423,
      "CL": 4424,
      "Ġexpression": 4425,
      "ĠJapan": 4426,
      "Ġthemselves": 4427,
      "Ġreturns": 4428,
      "edia": 4429,
      "ĠMr": 4430,
      "ĠAre": 4431,
      "ĠProgram": 4432,
      "Ġinside": 4433,
      "Ġfriends": 4434,
      "icture": 4435,
      "ĠCLASS": 4436,
      "Top": 4437,
      "Ġsaw": 4438,
      "process": 4439,
      "illing": 4440,
      "Ġliving": 4441,
      "ivil": 4442,
      "Ð¾Ð": 4443,
      "Ġplayed": 4444,
      "itect": 4445,
      "ĠScience": 4446,
      "dep": 4447,
      "ĠHREF": 4448,
      "IF": 4449,
      "otal": 4450,
      "refix": 4451,
      "Ġcorrect": 4452,
      "ĠÃ": 4453,
      "CON": 4454,
      "Ġled": 4455,
      "ias": 4456,
      "Ġinterface": 4457,
      "emph": 4458,
      "Ġmode": 4459,
      "Address": 4460,
      "icip": 4461,
      "Ġimmedi": 4462,
      "ĠEar": 4463,
      "Rem": 4464,
      "icrosoft": 4465,
      "ĠRepublic": 4466,
      "Ġemail": 4467,
      "Ġdam": 4468,
      "Ġhimself": 4469,
      "Ġprevent": 4470,
      "Ġprec": 4471,
      "hent": 4472,
      "Column": 4473,
      "Button": 4474,
      "ternet": 4475,
      "Ġproblems": 4476,
      "Ġgoal": 4477,
      "Ġoffice": 4478,
      "SA": 4479,
      "Ġcareer": 4480,
      "Ġuses": 4481,
      "Ġoperation": 4482,
      "Ġdirectly": 4483,
      "cr": 4484,
      "IZ": 4485,
      "Ġstage": 4486,
      "Length": 4487,
      "Ġsolid": 4488,
      "ĠDec": 4489,
      "ĠHT": 4490,
      "arks": 4491,
      "Ġoffers": 4492,
      "efined": 4493,
      "ico": 4494,
      "prove": 4495,
      "2000": 4496,
      "Ġmechan": 4497,
      "Ġpartners": 4498,
      ")$,": 4499,
      "Ġdoc": 4500,
      "aled": 4501,
      "rupt": 4502,
      "Ġentry": 4503,
      "ĠWhile": 4504,
      "Ġsil": 4505,
      "only": 4506,
      "2007": 4507,
      "Ġgas": 4508,
      "Ġwoman": 4509,
      "PO": 4510,
      "instance": 4511,
      "Ġwond": 4512,
      "Ġfields": 4513,
      "69": 4514,
      "ĠCalifornia": 4515,
      "Ġfit": 4516,
      "Ġbegan": 4517,
      "Ġallows": 4518,
      "mt": 4519,
      "Ġcontr": 4520,
      "vant": 4521,
      "iation": 4522,
      "number": 4523,
      "Ġflow": 4524,
      "Ġvict": 4525,
      "estern": 4526,
      "iece": 4527,
      "Co": 4528,
      "Layout": 4529,
      "Ġmag": 4530,
      "reference": 4531,
      "len": 4532,
      "lor": 4533,
      "PR": 4534,
      "column": 4535,
      "ĠWilliam": 4536,
      "Ġplaying": 4537,
      "tool": 4538,
      "main": 4539,
      "Bundle": 4540,
      "Ġcharacters": 4541,
      "lections": 4542,
      "Ġestim": 4543,
      "erved": 4544,
      "ittee": 4545,
      "Output": 4546,
      "Ġcollect": 4547,
      "orge": 4548,
      "ĠCollege": 4549,
      "ios": 4550,
      "CA": 4551,
      "Ġconnect": 4552,
      "Ġdead": 4553,
      "Ġknowledge": 4554,
      "<?": 4555,
      "plicit": 4556,
      "Ġimages": 4557,
      "ĠStreet": 4558,
      "vare": 4559,
      "Ġlives": 4560,
      "\"),": 4561,
      "ĠSee": 4562,
      "Ġstore": 4563,
      "Ġdynam": 4564,
      "ĠHere": 4565,
      "Valid": 4566,
      "Ġevidence": 4567,
      "plies": 4568,
      "Gamma": 4569,
      "BA": 4570,
      "Ġpattern": 4571,
      "ĠApp": 4572,
      "Ġinvestig": 4573,
      "apped": 4574,
      "ERR": 4575,
      "Ġcontains": 4576,
      "oom": 4577,
      "aling": 4578,
      "ĠEX": 4579,
      "Ġste": 4580,
      "acebook": 4581,
      "ĠService": 4582,
      "Ġnote": 4583,
      "Ġcalcul": 4584,
      "Ġsimply": 4585,
      "andemic": 4586,
      "remove": 4587,
      "spec": 4588,
      "ĠFound": 4589,
      "show": 4590,
      "ĠTime": 4591,
      "'ll": 4592,
      "nected": 4593,
      "Ġforce": 4594,
      "NAME": 4595,
      "Ġassum": 4596,
      "ros": 4597,
      "Vis": 4598,
      "URL": 4599,
      "ĉĠĠĠ": 4600,
      "ĠOpen": 4601,
      "Ġ``": 4602,
      "itation": 4603,
      "Ġfavor": 4604,
      "Ġhy": 4605,
      "ĠMod": 4606,
      "Ġsurface": 4607,
      "Ġmid": 4608,
      "########": 4609,
      "Ġfast": 4610,
      "older": 4611,
      "stant": 4612,
      "asons": 4613,
      "rought": 4614,
      "Ġanaly": 4615,
      "Ġcontinu": 4616,
      ":</": 4617,
      "ĠType": 4618,
      "erc": 4619,
      "Ġclin": 4620,
      "tag": 4621,
      "sets": 4622,
      "Ent": 4623,
      "avy": 4624,
      "Ġperfect": 4625,
      "Ġcelebr": 4626,
      "Ġavoid": 4627,
      "ula": 4628,
      "rics": 4629,
      "Ġcause": 4630,
      "kit": 4631,
      "```": 4632,
      "egraphics": 4633,
      "includegraphics": 4634,
      "ny": 4635,
      "Ġallowed": 4636,
      "Ġdemonstr": 4637,
      "itude": 4638,
      "kr": 4639,
      "ĠFil": 4640,
      "Ġweight": 4641,
      "strict": 4642,
      "Ġsend": 4643,
      "aught": 4644,
      "Mode": 4645,
      "mitted": 4646,
      "Ġstatement": 4647,
      "ĠAnt": 4648,
      "Sec": 4649,
      "Ġround": 4650,
      "else": 4651,
      "Ġtour": 4652,
      "Ġthroughout": 4653,
      "under": 4654,
      "SO": 4655,
      "COL": 4656,
      "files": 4657,
      "annot": 4658,
      "Ġprotect": 4659,
      "ĠPlay": 4660,
      "aml": 4661,
      "quare": 4662,
      "Ġregister": 4663,
      "Min": 4664,
      "Ġpresident": 4665,
      "ida": 4666,
      "').": 4667,
      "ustain": 4668,
      "ashington": 4669,
      "Ġnames": 4670,
      "Ġdescribed": 4671,
      "iler": 4672,
      "Spec": 4673,
      "Ġnecessary": 4674,
      "Ġsubs": 4675,
      "rated": 4676,
      "UP": 4677,
      "oz": 4678,
      "Ġstar": 4679,
      "Local": 4680,
      "iful": 4681,
      "uint": 4682,
      "Cache": 4683,
      "Ġmention": 4684,
      "gest": 4685,
      "2006": 4686,
      "ĠCanada": 4687,
      "dim": 4688,
      "ĠST": 4689,
      "Ġactivity": 4690,
      "ĠMet": 4691,
      "win": 4692,
      "Ġconv": 4693,
      "output": 4694,
      "Target": 4695,
      "support": 4696,
      "Ġvs": 4697,
      "enge": 4698,
      "unit": 4699,
      "^{(": 4700,
      "Ġcallback": 4701,
      "ĠLog": 4702,
      "CD": 4703,
      "author": 4704,
      "Ġfont": 4705,
      "TYPE": 4706,
      "Go": 4707,
      "Ġroot": 4708,
      "Ġdeveloped": 4709,
      "Ġweeks": 4710,
      "Ġunit": 4711,
      "expected": 4712,
      "Access": 4713,
      "Url": 4714,
      "ĠAnn": 4715,
      "ĠBen": 4716,
      "Ġapprox": 4717,
      "Ġbuy": 4718,
      "Ġcandid": 4719,
      "inated": 4720,
      "varepsilon": 4721,
      "Ġlegal": 4722,
      "cover": 4723,
      "Ġrow": 4724,
      "omb": 4725,
      "Ġextra": 4726,
      "Ġpain": 4727,
      "Ġrat": 4728,
      "ĠYear": 4729,
      "SD": 4730,
      "Ġtowards": 4731,
      "agon": 4732,
      "Update": 4733,
      "ĠName": 4734,
      "Ġcompos": 4735,
      "Ġprep": 4736,
      "Ġgives": 4737,
      "Server": 4738,
      "51": 4739,
      "ĠGreen": 4740,
      "Ġassess": 4741,
      "Ġworth": 4742,
      "Ġselected": 4743,
      "mas": 4744,
      "emy": 4745,
      "izations": 4746,
      "Ġaim": 4747,
      "PA": 4748,
      "rench": 4749,
      "ya": 4750,
      "ĠEuropean": 4751,
      "Ġthreat": 4752,
      "Ġreceive": 4753,
      "Ġcharg": 4754,
      "Ġfilter": 4755,
      "Ġapply": 4756,
      "aud": 4757,
      "ĠBusiness": 4758,
      "Ġhistor": 4759,
      "Ġ[]": 4760,
      "ican": 4761,
      "********************************": 4762,
      "cs": 4763,
      "Ġdrug": 4764,
      "Ġpretty": 4765,
      "Ġdifference": 4766,
      "ĠIndian": 4767,
      "Ġinvolved": 4768,
      "Ġmis": 4769,
      "Ġsafety": 4770,
      "Ġsetting": 4771,
      "Max": 4772,
      "Ġincreased": 4773,
      "Ġmedical": 4774,
      "ĠDi": 4775,
      "ctor": 4776,
      "utils": 4777,
      "Frame": 4778,
      "DI": 4779,
      ".}": 4780,
      "Ġ**": 4781,
      "arily": 4782,
      "52": 4783,
      "Ġparts": 4784,
      "ĠĠĠĠĠĠĠĠĠĠĠĠĠĠĠĠĠĠĠĠĠĠĠĠĠĠĠĠĠĠĠĠĠĠĠ": 4785,
      "Ġboard": 4786,
      "Ġnumbers": 4787,
      "ancy": 4788,
      "Ġdisease": 4789,
      "KE": 4790,
      "ensor": 4791,
      "Ġclean": 4792,
      "mut": 4793,
      "Ġreading": 4794,
      "Ġreli": 4795,
      "ĠSing": 4796,
      "ously": 4797,
      "Ġinsp": 4798,
      "ifying": 4799,
      "akers": 4800,
      "Ġeffective": 4801,
      "CR": 4802,
      "Ġmemory": 4803,
      "Ġincreasing": 4804,
      "raz": 4805,
      "Ġjoin": 4806,
      "ĠOver": 4807,
      "Ġmaint": 4808,
      "Row": 4809,
      "Ġgets": 4810,
      "break": 4811,
      "ĠFin": 4812,
      "dec": 4813,
      "ĠEast": 4814,
      "Ġitems": 4815,
      "iding": 4816,
      "Ġvers": 4817,
      "Ġdesigned": 4818,
      "ĠAPI": 4819,
      "DB": 4820,
      "proof": 4821,
      "Ġopportunity": 4822,
      "Ġmatrix": 4823,
      "++)": 4824,
      "Ġcompar": 4825,
      "Ġbrand": 4826,
      "Ġmovie": 4827,
      "Ġremove": 4828,
      "imately": 4829,
      "Ġpractice": 4830,
      "ĠâĢ¦": 4831,
      "ĠWeb": 4832,
      "Ġnumer": 4833,
      "Ġdark": 4834,
      "Ġpurch": 4835,
      "Ġability": 4836,
      "ivacy": 4837,
      "Ġcomponent": 4838,
      "ka": 4839,
      "Ġstudent": 4840,
      "Ġradi": 4841,
      "idents": 4842,
      "cor": 4843,
      "Ġculture": 4844,
      "ĠJack": 4845,
      "Ġrock": 4846,
      "Ġreturned": 4847,
      "Ġetc": 4848,
      "Ġseek": 4849,
      "AV": 4850,
      "ĠGeneral": 4851,
      "Ġstories": 4852,
      "Ġphysical": 4853,
      "53": 4854,
      "Ġ${\\": 4855,
      "berg": 4856,
      "Ġfem": 4857,
      "(_": 4858,
      "Ġaccur": 4859,
      "Ġfeed": 4860,
      "Ġshared": 4861,
      "hest": 4862,
      "float": 4863,
      "ulated": 4864,
      "Ġcard": 4865,
      "Ġnamed": 4866,
      "ĠPaul": 4867,
      "iring": 4868,
      "MO": 4869,
      "Br": 4870,
      "ĠJournal": 4871,
      "ĠMor": 4872,
      "Ġneigh": 4873,
      "isions": 4874,
      "ba": 4875,
      "NE": 4876,
      "la": 4877,
      "eqnarray": 4878,
      "ĠIr": 4879,
      "gu": 4880,
      "urt": 4881,
      "Provider": 4882,
      "ãģ": 4883,
      "scale": 4884,
      "wrap": 4885,
      ")=": 4886,
      "Ġprojects": 4887,
      "reement": 4888,
      "ĠDan": 4889,
      "Ġhum": 4890,
      "Ġobtained": 4891,
      ".;": 4892,
      "ĠBest": 4893,
      "sf": 4894,
      "Work": 4895,
      "PS": 4896,
      "Mem": 4897,
      "creen": 4898,
      "ĠTri": 4899,
      "Ġleave": 4900,
      "Ġmodern": 4901,
      "ĠHam": 4902,
      "Ġscen": 4903,
      "Ġexisting": 4904,
      "clusion": 4905,
      "Ġinterview": 4906,
      "Ġsurpr": 4907,
      "54": 4908,
      "Ġrules": 4909,
      "opyright": 4910,
      "ilies": 4911,
      "Ġquery": 4912,
      "Ġmicro": 4913,
      "Tree": 4914,
      "ĠSund": 4915,
      "ett": 4916,
      "Ġworked": 4917,
      "DF": 4918,
      "Types": 4919,
      "window": 4920,
      "Ġexpand": 4921,
      "Ġ!==": 4922,
      "Ġpassed": 4923,
      "Ġconcept": 4924,
      "osh": 4925,
      "Ġimprove": 4926,
      "ĠCouncil": 4927,
      "Ġign": 4928,
      "API": 4929,
      "ĠTex": 4930,
      "!!": 4931,
      "Ġtele": 4932,
      "boot": 4933,
      "98": 4934,
      "ville": 4935,
      "Ġstreng": 4936,
      "Ġgoes": 4937,
      "Ġcourt": 4938,
      "template": 4939,
      "rote": 4940,
      "}=": 4941,
      "ago": 4942,
      "Ġhel": 4943,
      "evelopment": 4944,
      "ĠMat": 4945,
      "aming": 4946,
      "wner": 4947,
      "Ġlinks": 4948,
      "Dev": 4949,
      "Ġsets": 4950,
      "offset": 4951,
      ";->": 4952,
      "Ġsession": 4953,
      "Ġmeeting": 4954,
      "TI": 4955,
      "Ġstarting": 4956,
      "Ġprop": 4957,
      "ĠPort": 4958,
      "Ġsolutions": 4959,
      "Ġbooks": 4960,
      "Ġexam": 4961,
      "final": 4962,
      "Ġtree": 4963,
      "=\"../../../../../": 4964,
      "ĠArch": 4965,
      "Our": 4966,
      "Rel": 4967,
      "merc": 4968,
      "ĠDE": 4969,
      "ĠDel": 4970,
      "Ġacqu": 4971,
      "Ġuint": 4972,
      "Open": 4973,
      "Ġoperations": 4974,
      "CODE": 4975,
      "ucture": 4976,
      "Ġconsum": 4977,
      "300": 4978,
      "ĠJames": 4979,
      "RI": 4980,
      "aa": 4981,
      "Ġprimary": 4982,
      "Ġsuff": 4983,
      "root": 4984,
      "}^{\\": 4985,
      "Ġwrong": 4986,
      "isode": 4987,
      "Ġaltern": 4988,
      "alls": 4989,
      "ĠII": 4990,
      "UB": 4991,
      "Ġproposed": 4992,
      "aints": 4993,
      "lands": 4994,
      "ĠFriday": 4995,
      "Ġobtain": 4996,
      "Ġlimited": 4997,
      "Ġpull": 4998,
      "Ġfinally": 4999,
      "Ġlack": 5000,
      "prototype": 5001,
      "Ġcustomers": 5002,
      "Ġnature": 5003,
      "Ġhandle": 5004,
      "Ġson": 5005,
      "âĢĺ": 5006,
      "artifact": 5007,
      "Ġteams": 5008,
      "][": 5009,
      "Case": 5010,
      "Ġrespond": 5011,
      "Ġinnov": 5012,
      "scope": 5013,
      "haps": 5014,
      "oms": 5015,
      "ĠTwitter": 5016,
      "osph": 5017,
      "vec": 5018,
      "afe": 5019,
      "Ġwasn": 5020,
      "leep": 5021,
      "sign": 5022,
      "Ġattention": 5023,
      "Ġplease": 5024,
      "âĢĿ.": 5025,
      "Ġphase": 5026,
      "band": 5027,
      "ĠProject": 5028,
      "rangle": 5029,
      "Ġfloat": 5030,
      "Ġbal": 5031,
      "Ġlock": 5032,
      "hedul": 5033,
      "geq": 5034,
      "Ġchanged": 5035,
      "returns": 5036,
      "ĠInstitute": 5037,
      "Ġobj": 5038,
      "Ġthus": 5039,
      "onday": 5040,
      "Me": 5041,
      "She": 5042,
      "Par": 5043,
      "More": 5044,
      "ario": 5045,
      "cons": 5046,
      "rightarrow": 5047,
      "ĠEngland": 5048,
      "Offset": 5049,
      "ĠMac": 5050,
      "Ġactual": 5051,
      "Ġplans": 5052,
      "then": 5053,
      "Ġsold": 5054,
      "Ġchoice": 5055,
      "circ": 5056,
      "ena": 5057,
      "Ġfans": 5058,
      "loor": 5059,
      "Ġ;": 5060,
      "Ġtheory": 5061,
      "late": 5062,
      "Dec": 5063,
      "]);": 5064,
      "Search": 5065,
      "Ġactivities": 5066,
      "Can": 5067,
      "Ġinteresting": 5068,
      "ĠNS": 5069,
      "Ġslow": 5070,
      "ĠEduc": 5071,
      "mercial": 5072,
      "([": 5073,
      "vision": 5074,
      "eft": 5075,
      "strap": 5076,
      "Bo": 5077,
      "adow": 5078,
      "ĠWashington": 5079,
      "useum": 5080,
      "Ġrespectively": 5081,
      "cos": 5082,
      "atively": 5083,
      "ĠMal": 5084,
      "boldsymbol": 5085,
      "bin": 5086,
      "ĠPal": 5087,
      "common": 5088,
      "ĠKe": 5089,
      "Ġfailed": 5090,
      "Ġtransport": 5091,
      "iber": 5092,
      "ĠBuild": 5093,
      "Ġanyone": 5094,
      "Direct": 5095,
      "yond": 5096,
      "Ġprinc": 5097,
      "ester": 5098,
      "ĠRel": 5099,
      "Ġsaying": 5100,
      "Ġjud": 5101,
      "Width": 5102,
      "Ġsample": 5103,
      "Ġtransfer": 5104,
      "Ġpandemic": 5105,
      "ĠWhite": 5106,
      "Ġmother": 5107,
      "Ġmus": 5108,
      "ĠAfrica": 5109,
      "ĠBritish": 5110,
      "2005": 5111,
      "Ġbuffer": 5112,
      "Ġdistance": 5113,
      "sd": 5114,
      "Ġsurv": 5115,
      "Ġ\\,": 5116,
      "Ġhol": 5117,
      "FO": 5118,
      "frame": 5119,
      "ĠMag": 5120,
      "Ġrace": 5121,
      "Ġgave": 5122,
      "Ġten": 5123,
      "Configuration": 5124,
      "Ġeconomic": 5125,
      "Ġtag": 5126,
      "./": 5127,
      "IGN": 5128,
      "ĠDemocr": 5129,
      "pat": 5130,
      "Ġfully": 5131,
      "Ġsupported": 5132,
      "icine": 5133,
      "overline": 5134,
      "Ġselection": 5135,
      "task": 5136,
      "Ġfair": 5137,
      "iverse": 5138,
      "FT": 5139,
      "Ġdemand": 5140,
      "VAL": 5141,
      "Ġcast": 5142,
      "ĠWed": 5143,
      "gment": 5144,
      "Ġfather": 5145,
      "Ġmanufact": 5146,
      "clos": 5147,
      "ĠFile": 5148,
      "SH": 5149,
      "ĠEnd": 5150,
      "unities": 5151,
      "ĠLife": 5152,
      "empty": 5153,
      "ĠMart": 5154,
      "buffer": 5155,
      "Ġque": 5156,
      "Ob": 5157,
      "Ġzero": 5158,
      "itable": 5159,
      ")]": 5160,
      "ependency": 5161,
      "Parameter": 5162,
      "=\"-": 5163,
      "ecute": 5164,
      "ĠFacebook": 5165,
      "etch": 5166,
      "Ġfactor": 5167,
      "Ġhands": 5168,
      "Ġoffset": 5169,
      "trict": 5170,
      "skip": 5171,
      "ĠAut": 5172,
      "och": 5173,
      "Ġlarger": 5174,
      "bool": 5175,
      "Ġachiev": 5176,
      "eler": 5177,
      "Ġinstr": 5178,
      "BO": 5179,
      "document": 5180,
      "97": 5181,
      "classes": 5182,
      "Ġclimate": 5183,
      "ĠCourt": 5184,
      "igen": 5185,
      "Ġlen": 5186,
      "Ġcritical": 5187,
      "Home": 5188,
      "ĠNor": 5189,
      "varphi": 5190,
      "Sim": 5191,
      "Po": 5192,
      "Container": 5193,
      "match": 5194,
      "free": 5195,
      "Ġscience": 5196,
      "Rev": 5197,
      "ĠCap": 5198,
      "ibly": 5199,
      "Process": 5200,
      "thon": 5201,
      "weet": 5202,
      "Ġearlier": 5203,
      "ĠCheck": 5204,
      "Le": 5205,
      "Ġempty": 5206,
      "Ġserious": 5207,
      "Ġmut": 5208,
      "}).": 5209,
      "Ġoptim": 5210,
      "Ġdepart": 5211,
      "Ġscient": 5212,
      "typ": 5213,
      "Ġimag": 5214,
      "tree": 5215,
      "otes": 5216,
      "Ġremain": 5217,
      "Ġargs": 5218,
      "care": 5219,
      "parse": 5220,
      "criptor": 5221,
      ".~\\": 5222,
      "Ġbeyond": 5223,
      "Ġ::": 5224,
      "ĠForm": 5225,
      "ĠVol": 5226,
      "aturday": 5227,
      "ĉĉĉĉĉĉĉ": 5228,
      "ĠSur": 5229,
      "ologies": 5230,
      "ĠRich": 5231,
      "ipe": 5232,
      "Ġiter": 5233,
      "icks": 5234,
      "which": 5235,
      "Ġusually": 5236,
      "Entry": 5237,
      "rate": 5238,
      "ĠÎ": 5239,
      "Ġabsolut": 5240,
      "ĠBer": 5241,
      "ĠPress": 5242,
      "Ġdefine": 5243,
      "Header": 5244,
      "ĠOR": 5245,
      "Ġdescription": 5246,
      "ART": 5247,
      "Ġbillion": 5248,
      "Ġcollabor": 5249,
      "should": 5250,
      "ĠMil": 5251,
      "ecause": 5252,
      "Ġones": 5253,
      "Ġbus": 5254,
      "Ġrule": 5255,
      "kind": 5256,
      "ooth": 5257,
      "ĠArray": 5258,
      "ifest": 5259,
      "Ġdirection": 5260,
      "Ġequal": 5261,
      "Write": 5262,
      "isation": 5263,
      "Ġ~": 5264,
      "Ġquickly": 5265,
      "images": 5266,
      "Mar": 5267,
      "pret": 5268,
      "ĠFig": 5269,
      "require": 5270,
      "Now": 5271,
      "Ġsave": 5272,
      "ĠCreate": 5273,
      "icate": 5274,
      "Ġreports": 5275,
      "ĠPM": 5276,
      "Ġrecover": 5277,
      "Ġaward": 5278,
      "Ġclub": 5279,
      "cribe": 5280,
      "ronic": 5281,
      "Params": 5282,
      "Ġotherwise": 5283,
      "Ġdro": 5284,
      "mazon": 5285,
      "Ġlooks": 5286,
      "ĠMichael": 5287,
      "Interface": 5288,
      "Ġexception": 5289,
      "Ġswitch": 5290,
      ":\"": 5291,
      "Ġprograms": 5292,
      "anges": 5293,
      "Ġnet": 5294,
      "ĠReturns": 5295,
      "Ġgreen": 5296,
      "ulate": 5297,
      "Ġbank": 5298,
      "Unit": 5299,
      "Ġremember": 5300,
      "PL": 5301,
      "Ġple": 5302,
      "Level": 5303,
      "ĠThom": 5304,
      "ĠNet": 5305,
      "Ġcapital": 5306,
      "ĠServices": 5307,
      "Project": 5308,
      "Ġqual": 5309,
      "FL": 5310,
      "ACK": 5311,
      "Entity": 5312,
      "ĠDet": 5313,
      "%%": 5314,
      "Ġbasis": 5315,
      "'>": 5316,
      "Ġinfo": 5317,
      "Ġapplications": 5318,
      "Ø§": 5319,
      "ĠLeg": 5320,
      "ĠBig": 5321,
      "Ġlocated": 5322,
      "Control": 5323,
      "Ġmeaning": 5324,
      "nor": 5325,
      "ĠMem": 5326,
      "Ġobjects": 5327,
      "Ġtouch": 5328,
      "{{": 5329,
      "antic": 5330,
      "Location": 5331,
      "usion": 5332,
      "CS": 5333,
      "ALL": 5334,
      "Ġframe": 5335,
      "MM": 5336,
      "Inst": 5337,
      "Ġturned": 5338,
      "oday": 5339,
      "ened": 5340,
      "han": 5341,
      "ursday": 5342,
      "ĠRober": 5343,
      "Ġexists": 5344,
      "Ġeyes": 5345,
      "Ġrob": 5346,
      "values": 5347,
      "ĠHel": 5348,
      "Ġrender": 5349,
      "Ġsafe": 5350,
      "uthors": 5351,
      "()->": 5352,
      "alle": 5353,
      "ror": 5354,
      ">,": 5355,
      "rael": 5356,
      "[\\": 5357,
      "Utils": 5358,
      "inese": 5359,
      "Ġnation": 5360,
      "Ġbrought": 5361,
      "Ġpresented": 5362,
      "istan": 5363,
      "Thread": 5364,
      "conf": 5365,
      "ĠSince": 5366,
      "aughter": 5367,
      "ĠBay": 5368,
      "INT": 5369,
      "ona": 5370,
      "Gl": 5371,
      "Ġlinear": 5372,
      "omic": 5373,
      "Ġcouple": 5374,
      "Ġvoice": 5375,
      "jo": 5376,
      "Ġparents": 5377,
      "63": 5378,
      "Ġfelt": 5379,
      "RL": 5380,
      "Ġoperator": 5381,
      "Ġnearly": 5382,
      "ĠPlan": 5383,
      "Ġconstr": 5384,
      "Ġdirector": 5385,
      "coin": 5386,
      "astr": 5387,
      "Ġchannel": 5388,
      "Ġgenerated": 5389,
      "ĠMarket": 5390,
      "ãĥ": 5391,
      "artifactId": 5392,
      "Ġmix": 5393,
      "ellig": 5394,
      "Ġwide": 5395,
      "Ġcorresponding": 5396,
      "Ġobserved": 5397,
      "Ġready": 5398,
      "patch": 5399,
      "graph": 5400,
      "Current": 5401,
      "ston": 5402,
      "overs": 5403,
      "ĠSam": 5404,
      "Ġ{}": 5405,
      "Ġbehavior": 5406,
      "ĠMus": 5407,
      "Ġenter": 5408,
      "prop": 5409,
      "Net": 5410,
      "ÃŃ": 5411,
      "=\"../../../../../../": 5412,
      "ein": 5413,
      "control": 5414,
      "icket": 5415,
      "Ġplant": 5416,
      "ĠAngel": 5417,
      "2004": 5418,
      "fficient": 5419,
      "alysis": 5420,
      "oma": 5421,
      "ĠSection": 5422,
      "&\\": 5423,
      "pg": 5424,
      "related": 5425,
      "'),": 5426,
      "Ġsuccessful": 5427,
      "bi": 5428,
      "400": 5429,
      "Ġtesting": 5430,
      "ertific": 5431,
      "Ġdrive": 5432,
      "ao": 5433,
      "rd": 5434,
      "Ġargument": 5435,
      "Ġessential": 5436,
      "inger": 5437,
      "hline": 5438,
      "Ġsources": 5439,
      "ampions": 5440,
      "ĠSunday": 5441,
      "Mat": 5442,
      "Ġcentral": 5443,
      "gan": 5444,
      "Ġclosed": 5445,
      "ĠRob": 5446,
      "fs": 5447,
      "Ã³": 5448,
      "Ġindependent": 5449,
      "62": 5450,
      "Ġworkers": 5451,
      "Ġsituation": 5452,
      "None": 5453,
      "Ġstrategy": 5454,
      "Ġdegree": 5455,
      "Ġanim": 5456,
      "Ge": 5457,
      "EM": 5458,
      "drop": 5459,
      "Lambda": 5460,
      "Range": 5461,
      "Ġrelative": 5462,
      ":(": 5463,
      "%;": 5464,
      "ĠĠĠĠĠĠĠĠĠĠĠĠĠĠĠĠĠĠĠĠĠ": 5465,
      "urance": 5466,
      "otion": 5467,
      "Ġtemperature": 5468,
      "abilities": 5469,
      "XX": 5470,
      "iller": 5471,
      "Ġrates": 5472,
      "Mon": 5473,
      "Ġpm": 5474,
      "Ġcore": 5475,
      "Ġpair": 5476,
      "CP": 5477,
      "Ġhighly": 5478,
      "Callback": 5479,
      "vention": 5480,
      "ria": 5481,
      "Ġedge": 5482,
      "uesday": 5483,
      "Ġblood": 5484,
      "Ġnovel": 5485,
      "Ġstrateg": 5486,
      "frak": 5487,
      "rees": 5488,
      "Ġmiddle": 5489,
      "olving": 5490,
      "agment": 5491,
      "Script": 5492,
      "Ġsequence": 5493,
      "Ġsal": 5494,
      "Ġtrust": 5495,
      "osis": 5496,
      "Ġgreater": 5497,
      "Ġwrote": 5498,
      "plete": 5499,
      "Ġmilitary": 5500,
      "ĠCam": 5501,
      "tml": 5502,
      "ounter": 5503,
      "Ġinform": 5504,
      "ls": 5505,
      "ĠTexas": 5506,
      "Ġrot": 5507,
      "enty": 5508,
      "ĠHall": 5509,
      "Ġmaximum": 5510,
      "ĠBi": 5511,
      "Ġchance": 5512,
      "Ġvector": 5513,
      "ĠEconom": 5514,
      "Ġtests": 5515,
      "hol": 5516,
      "Down": 5517,
      "apy": 5518,
      "Ġfollowed": 5519,
      "},\\": 5520,
      "Ġphone": 5521,
      "ĠJer": 5522,
      "rial": 5523,
      "ĠOther": 5524,
      "Ġoverall": 5525,
      "ĠMusic": 5526,
      "Ġang": 5527,
      "ano": 5528,
      "ĠDirector": 5529,
      "Ġraise": 5530,
      "Ġspecies": 5531,
      "oded": 5532,
      "Ġanti": 5533,
      "Sl": 5534,
      "Ġquarter": 5535,
      "ĠProf": 5536,
      "istrict": 5537,
      "fa": 5538,
      "Ġtrade": 5539,
      "Ġshowed": 5540,
      "Ġscore": 5541,
      "ULT": 5542,
      "Ġperformed": 5543,
      "ategories": 5544,
      "Ġinstitut": 5545,
      "groupId": 5546,
      "Ġship": 5547,
      "Ġlargest": 5548,
      "Pat": 5549,
      "Are": 5550,
      "porary": 5551,
      "Ġcosts": 5552,
      "isher": 5553,
      "ini": 5554,
      "ancing": 5555,
      "orph": 5556,
      "Ġproper": 5557,
      "Ġwild": 5558,
      "entity": 5559,
      "pdf": 5560,
      "rome": 5561,
      "1000": 5562,
      "ĠDate": 5563,
      "house": 5564,
      "Height": 5565,
      "resource": 5566,
      "Ġtransition": 5567,
      "Module": 5568,
      "Ġcalls": 5569,
      "ĠAssert": 5570,
      "Cons": 5571,
      "Ġchoose": 5572,
      "COLOR": 5573,
      "Position": 5574,
      "Ġequip": 5575,
      "token": 5576,
      "Ġstock": 5577,
      "Ġremains": 5578,
      "itiz": 5579,
      "zer": 5580,
      "Ġlaunch": 5581,
      "cache": 5582,
      "IZE": 5583,
      "Ġroll": 5584,
      "Op": 5585,
      "ĠAssociation": 5586,
      "Ġproof": 5587,
      "Ġbeginning": 5588,
      "Ġrepe": 5589,
      "Ġheard": 5590,
      "ĠCong": 5591,
      "Ġscene": 5592,
      "ĠTop": 5593,
      "Ġbeautiful": 5594,
      "}),": 5595,
      "ĠBel": 5596,
      "While": 5597,
      "ĠTom": 5598,
      "Ġaffect": 5599,
      "oder": 5600,
      "ua": 5601,
      "Ġ*)": 5602,
      "Ġappropri": 5603,
      "ĠMedia": 5604,
      "}/": 5605,
      "Ġscope": 5606,
      "Ġmount": 5607,
      "spect": 5608,
      "iform": 5609,
      "Empty": 5610,
      "arp": 5611,
      "ĠSl": 5612,
      "Ġproduced": 5613,
      "86": 5614,
      "Ġschools": 5615,
      "Port": 5616,
      "AND": 5617,
      "ĠGreat": 5618,
      "Ġencour": 5619,
      "ĠUse": 5620,
      "Ġded": 5621,
      "gate": 5622,
      "iger": 5623,
      "IST": 5624,
      "Ġfamilies": 5625,
      "ĠIS": 5626,
      "well": 5627,
      "etime": 5628,
      "nesday": 5629,
      "Ġorganization": 5630,
      ".$": 5631,
      "split": 5632,
      "textit": 5633,
      "ĠOffice": 5634,
      "ĠSE": 5635,
      "Json": 5636,
      "Ġearn": 5637,
      "Ġcontain": 5638,
      "ĠSun": 5639,
      "sych": 5640,
      "ignment": 5641,
      "ĠAv": 5642,
      "iny": 5643,
      "rey": 5644,
      "QL": 5645,
      "ĠMonday": 5646,
      "Âł": 5647,
      "ĠOper": 5648,
      "ontal": 5649,
      "Ġpark": 5650,
      "Ġfixed": 5651,
      "Ġproviding": 5652,
      "za": 5653,
      "ĠMap": 5654,
      "ctx": 5655,
      "Http": 5656,
      "Ġtools": 5657,
      "ĠStar": 5658,
      "Ġhear": 5659,
      "Ġindividuals": 5660,
      "endar": 5661,
      "udget": 5662,
      "ĠUSA": 5663,
      "Ġparticularly": 5664,
      "ponents": 5665,
      "tim": 5666,
      "âĢī": 5667,
      "They": 5668,
      "ults": 5669,
      "ulture": 5670,
      ")^": 5671,
      "Ġtherefore": 5672,
      "models": 5673,
      "inder": 5674,
      "Record": 5675,
      "96": 5676,
      "ĠUkr": 5677,
      "Ġsen": 5678,
      "tog": 5679,
      "command": 5680,
      "ĠOb": 5681,
      "stack": 5682,
      ".\\": 5683,
      "iden": 5684,
      "stylesheet": 5685,
      "Ġdog": 5686,
      "ĠCD": 5687,
      "Ġfix": 5688,
      "Enc": 5689,
      "Dat": 5690,
      "ĠSum": 5691,
      "INE": 5692,
      "ĠGlobal": 5693,
      "Ġrap": 5694,
      "clude": 5695,
      "inct": 5696,
      "Ġhop": 5697,
      "Change": 5698,
      "ydro": 5699,
      "dates": 5700,
      "riend": 5701,
      "Ġgiving": 5702,
      "GB": 5703,
      "Ġcancer": 5704,
      "Ġfactors": 5705,
      "device": 5706,
      "ĠAM": 5707,
      "aved": 5708,
      "fill": 5709,
      "Settings": 5710,
      "bound": 5711,
      "Ġrequires": 5712,
      "anned": 5713,
      "Ġcreating": 5714,
      "Ġcompletely": 5715,
      "normal": 5716,
      "Ġconfiguration": 5717,
      "Ġprofessional": 5718,
      "DD": 5719,
      "ĠCompany": 5720,
      "Ġcommit": 5721,
      "Ġcommunities": 5722,
      "icated": 5723,
      "mail": 5724,
      "Ġshape": 5725,
      "arant": 5726,
      "Ġord": 5727,
      "\"))": 5728,
      "CTION": 5729,
      "Ġpreviously": 5730,
      "ĠBoard": 5731,
      "Hash": 5732,
      "Red": 5733,
      "Ġtoken": 5734,
      "ĠRun": 5735,
      "Ġgrowing": 5736,
      "ĠEducation": 5737,
      "Ġsales": 5738,
      "border": 5739,
      "Ġeasily": 5740,
      "Ġsummer": 5741,
      "Ġhous": 5742,
      "ictionary": 5743,
      "aset": 5744,
      "pop": 5745,
      "ĠFrench": 5746,
      "gin": 5747,
      "Ġpurpose": 5748,
      "estival": 5749,
      "Ġvolume": 5750,
      "Ġshoot": 5751,
      "Option": 5752,
      "Ġhospital": 5753,
      "Ġspread": 5754,
      "reme": 5755,
      "Ġnor": 5756,
      "igration": 5757,
      "Ġanswer": 5758,
      "Ġreduce": 5759,
      "Ġpush": 5760,
      "Ġprefer": 5761,
      "bra": 5762,
      "Ġbur": 5763,
      "Ġvill": 5764,
      "Ġconstruction": 5765,
      "ds": 5766,
      "ĠAlex": 5767,
      "onic": 5768,
      "Ġpressure": 5769,
      "Ġdou": 5770,
      "Connection": 5771,
      "asy": 5772,
      "debug": 5773,
      "example": 5774,
      "Prot": 5775,
      "IB": 5776,
      "Ġthr": 5777,
      "Ġexactly": 5778,
      "clear": 5779,
      "atically": 5780,
      "Ġtraditional": 5781,
      "car": 5782,
      "ĠGold": 5783,
      "Ġeight": 5784,
      "yr": 5785,
      "Ġattribute": 5786,
      "eal": 5787,
      "Ġther": 5788,
      "Ġarguments": 5789,
      "ĠSaturday": 5790,
      "ĠCall": 5791,
      "undred": 5792,
      "Ġmoving": 5793,
      "ĠRoad": 5794,
      "External": 5795,
      "ipp": 5796,
      "Ġbeliev": 5797,
      "ander": 5798,
      "Ġsymbol": 5799,
      "venue": 5800,
      "msg": 5801,
      "ĠNote": 5802,
      "Ġknew": 5803,
      "icker": 5804,
      "Ġstation": 5805,
      "El": 5806,
      "Ġpackage": 5807,
      "Ġcomponents": 5808,
      "ĠPolicy": 5809,
      "sey": 5810,
      "icies": 5811,
      "ĠBank": 5812,
      "Ġbecomes": 5813,
      "ugins": 5814,
      "Ġsettings": 5815,
      "61": 5816,
      "ĠTimes": 5817,
      "Ġtemplate": 5818,
      "Ġ>=": 5819,
      "Ġelectric": 5820,
      "ĠNetwork": 5821,
      "Ġrank": 5822,
      "appa": 5823,
      "hr": 5824,
      "Ġjo": 5825,
      "osing": 5826,
      "Ġalgorithm": 5827,
      "Ġutil": 5828,
      "WS": 5829,
      "Ġprem": 5830,
      "85": 5831,
      "Ġ\"\\": 5832,
      "Ġseven": 5833,
      "ancer": 5834,
      "Ġkids": 5835,
      "aver": 5836,
      "ters": 5837,
      "Ġproced": 5838,
      "ĠManagement": 5839,
      "Ġoverride": 5840,
      "Ġlooked": 5841,
      "Ġvariable": 5842,
      "anda": 5843,
      "Ġdensity": 5844,
      "hash": 5845,
      "ĠMost": 5846,
      "Ġdecre": 5847,
      "Ġjournal": 5848,
      "Ġpresence": 5849,
      "Ġshot": 5850,
      "Ġenh": 5851,
      "ĠGen": 5852,
      "etimes": 5853,
      "Ġlaws": 5854,
      "dule": 5855,
      "while": 5856,
      "Ġimmediately": 5857,
      "Properties": 5858,
      "enses": 5859,
      "ky": 5860,
      "Ġwel": 5861,
      "iment": 5862,
      "ĠDevelopment": 5863,
      "Ġunderstanding": 5864,
      "structor": 5865,
      "Ġcounter": 5866,
      "range": 5867,
      "Ġemployees": 5868,
      "ady": 5869,
      "ĠDO": 5870,
      "ĠInformation": 5871,
      "ĠCON": 5872,
      "Ġapplied": 5873,
      "rian": 5874,
      "Ġchem": 5875,
      "ynch": 5876,
      "Stat": 5877,
      "Ġpages": 5878,
      "Ġrestrict": 5879,
      "Ġparams": 5880,
      "Ġwants": 5881,
      "Ġsecret": 5882,
      "âĢĿ,": 5883,
      "Ġexhib": 5884,
      "Vert": 5885,
      "look": 5886,
      "Ġxml": 5887,
      "Dep": 5888,
      "87": 5889,
      "Ġthread": 5890,
      "ĠFoundation": 5891,
      "IE": 5892,
      "\"));": 5893,
      "izontal": 5894,
      "weight": 5895,
      "bal": 5896,
      "Ġfirm": 5897,
      "hi": 5898,
      "ĠFore": 5899,
      "Ġblue": 5900,
      "ĠWeek": 5901,
      "that": 5902,
      "Ġclasses": 5903,
      "clusive": 5904,
      "ĸº": 5905,
      "Ġwonder": 5906,
      "}}$": 5907,
      "GE": 5908,
      "Ġcomments": 5909,
      "ĠLong": 5910,
      "ĠUnder": 5911,
      "Ġbirth": 5912,
      "Ġpen": 5913,
      "oyal": 5914,
      "ader": 5915,
      "before": 5916,
      "Ġestablished": 5917,
      "Ġcentury": 5918,
      "ĠSmith": 5919,
      "ursor": 5920,
      "Ġletter": 5921,
      "Ġbasic": 5922,
      "ĠApple": 5923,
      "eve": 5924,
      "Eng": 5925,
      "cat": 5926,
      "ORD": 5927,
      "See": 5928,
      "WE": 5929,
      "sem": 5930,
      "ĠDistrict": 5931,
      "ĠGovernment": 5932,
      "ette": 5933,
      "Ġdevices": 5934,
      "illa": 5935,
      "transform": 5936,
      "Dir": 5937,
      "modal": 5938,
      "Sign": 5939,
      "layer": 5940,
      "Ġalthough": 5941,
      "iled": 5942,
      "legal": 5943,
      "Ġbottom": 5944,
      "Ġdefinition": 5945,
      "mathfrak": 5946,
      "langle": 5947,
      "ĠGood": 5948,
      "Ġreplace": 5949,
      "Ġthous": 5950,
      "ĠNO": 5951,
      "Ġmorning": 5952,
      "access": 5953,
      "aight": 5954,
      "Ġvariety": 5955,
      "Ġwriter": 5956,
      "interface": 5957,
      "ĠFranc": 5958,
      "ĠSal": 5959,
      "ĠThursday": 5960,
      "Ġmoved": 5961,
      "Ġelection": 5962,
      "iance": 5963,
      "Match": 5964,
      "Ġhuge": 5965,
      "ĠChild": 5966,
      "ding": 5967,
      "Ġgrant": 5968,
      "ĠQue": 5969,
      "card": 5970,
      "Ġefforts": 5971,
      "ãĤ": 5972,
      "IA": 5973,
      "2001": 5974,
      "Ġplaces": 5975,
      "uri": 5976,
      "ani": 5977,
      "Ġpoor": 5978,
      "Ġdecided": 5979,
      "Ġeditor": 5980,
      "ĠChinese": 5981,
      "ĉĉĊ": 5982,
      "citep": 5983,
      "ä¸": 5984,
      "ĠLeague": 5985,
      "emp": 5986,
      "bes": 5987,
      "ĠEvery": 5988,
      "asure": 5989,
      "Ġpiece": 5990,
      "Ġdomain": 5991,
      "otic": 5992,
      "Ġsun": 5993,
      "lam": 5994,
      "à¥": 5995,
      "Ġreflect": 5996,
      "Right": 5997,
      "Document": 5998,
      "apse": 5999,
      "olf": 6000,
      "Ġalone": 6001,
      "Ġblog": 6002,
      "Session": 6003,
      "Ġspent": 6004,
      "fit": 6005,
      "=\"_": 6006,
      "TC": 6007,
      "address": 6008,
      "ĠReport": 6009,
      "Operation": 6010,
      "\\%": 6011,
      "Ġdatabase": 6012,
      "Ġactions": 6013,
      "Mult": 6014,
      "asic": 6015,
      "Ġpadding": 6016,
      "ĠHistory": 6017,
      "Ġrelig": 6018,
      "ĠRequ": 6019,
      "ivery": 6020,
      "Ke": 6021,
      "real": 6022,
      "Ġclick": 6023,
      "ldots": 6024,
      "Ġspirit": 6025,
      "ĠCommission": 6026,
      "Description": 6027,
      "Ġarchitect": 6028,
      "bind": 6029,
      "Ġleader": 6030,
      "Ġsustain": 6031,
      "Ġmaterials": 6032,
      "ĠCA": 6033,
      "ĠCamp": 6034,
      "Ġscript": 6035,
      "Ġpatient": 6036,
      "2003": 6037,
      "types": 6038,
      "bootstrap": 6039,
      "second": 6040,
      "porate": 6041,
      "Ġcontinued": 6042,
      "ĠAL": 6043,
      "ĠShow": 6044,
      "join": 6045,
      "ĠHome": 6046,
      "Ġcloud": 6047,
      "ĠCup": 6048,
      "Mark": 6049,
      "Collection": 6050,
      "ĠTre": 6051,
      "rum": 6052,
      "Ġnegative": 6053,
      "pling": 6054,
      "Ġyield": 6055,
      "Impl": 6056,
      "Serial": 6057,
      "Tim": 6058,
      "aws": 6059,
      "Ġstrug": 6060,
      "Ġbusinesses": 6061,
      "ĉĠ": 6062,
      "Ġdetermine": 6063,
      "Ġiniti": 6064,
      "ĠLou": 6065,
      "Ġproduce": 6066,
      "Ġcharge": 6067,
      "ĠTuesday": 6068,
      "Ġgun": 6069,
      "Ġdream": 6070,
      "ĠBG": 6071,
      "Ġfigure": 6072,
      "---": 6073,
      "OK": 6074,
      "Ġcop": 6075,
      "Ġsometimes": 6076,
      "ervation": 6077,
      "Ġcool": 6078,
      "ĠTable": 6079,
      "Ġinvoke": 6080,
      "Integer": 6081,
      "Ġpoll": 6082,
      "Store": 6083,
      "Ġicon": 6084,
      "ðŁ": 6085,
      "render": 6086,
      "Ġcoordin": 6087,
      "Ġdistrict": 6088,
      "ĠAtt": 6089,
      "Menu": 6090,
      "Ġinvestment": 6091,
      "Here": 6092,
      "hens": 6093,
      "Pass": 6094,
      "&#": 6095,
      "Ġaspect": 6096,
      "ĠIsrael": 6097,
      "icons": 6098,
      "Ġstorage": 6099,
      "oves": 6100,
      "ĠChe": 6101,
      "ĠGeorge": 6102,
      "URE": 6103,
      "mode": 6104,
      "Don": 6105,
      "Ġpartner": 6106,
      "abla": 6107,
      "Ġopportunities": 6108,
      "Ġrecords": 6109,
      "Host": 6110,
      "Use": 6111,
      "Ġterr": 6112,
      "ĠRussia": 6113,
      "Font": 6114,
      "Ġfilename": 6115,
      "iles": 6116,
      "ashion": 6117,
      "ĠView": 6118,
      "Async": 6119,
      "step": 6120,
      "ĠSocial": 6121,
      "gent": 6122,
      "DIR": 6123,
      "Ġdaily": 6124,
      "ĠVis": 6125,
      "virt": 6126,
      "Ġwife": 6127,
      "ĠAR": 6128,
      "alax": 6129,
      "itors": 6130,
      "Ġoil": 6131,
      "\\|": 6132,
      "STR": 6133,
      "ĠAND": 6134,
      "ĠRiver": 6135,
      "Ġmovement": 6136,
      "ometry": 6137,
      "Ġsports": 6138,
      "itar": 6139,
      "Ġcarry": 6140,
      "amm": 6141,
      "Ġskills": 6142,
      "Ġaware": 6143,
      "ications": 6144,
      "Ġtrend": 6145,
      "'d": 6146,
      "Am": 6147,
      "NN": 6148,
      "anging": 6149,
      "NavBar": 6150,
      "Ġstraight": 6151,
      "Ġmanager": 6152,
      "Ġut": 6153,
      "Ġequival": 6154,
      "Ġcomputer": 6155,
      "inate": 6156,
      "sv": 6157,
      "ublished": 6158,
      "igr": 6159,
      "road": 6160,
      "isis": 6161,
      "Ġtal": 6162,
      "ORT": 6163,
      "vas": 6164,
      "Ġsell": 6165,
      "Ġer": 6166,
      "den": 6167,
      "ĠIP": 6168,
      "Ġdiagn": 6169,
      "Car": 6170,
      "Ġfarm": 6171,
      "oes": 6172,
      "delete": 6173,
      "ĠFlor": 6174,
      "olic": 6175,
      "Ġwind": 6176,
      "Ġtransaction": 6177,
      "Ġbill": 6178,
      "ĠSuper": 6179,
      "ĠMiss": 6180,
      "jection": 6181,
      "req": 6182,
      "Ġsupply": 6183,
      "Reference": 6184,
      "Ġeth": 6185,
      "Ġspeak": 6186,
      "Ġhar": 6187,
      "anta": 6188,
      "bing": 6189,
      "ourney": 6190,
      "ĠChurch": 6191,
      "ĠGame": 6192,
      "iable": 6193,
      "PECT": 6194,
      "direct": 6195,
      "Ġwat": 6196,
      "duction": 6197,
      "mes": 6198,
      "Ġmask": 6199,
      "Ġconvert": 6200,
      "Ġuseful": 6201,
      "note": 6202,
      "ĠMer": 6203,
      "ĠException": 6204,
      "Ġassist": 6205,
      "foo": 6206,
      "Ġcommercial": 6207,
      "olec": 6208,
      "Ġfootball": 6209,
      "Ġclinical": 6210,
      "Ġfra": 6211,
      "Ġbenefits": 6212,
      "Ġvisual": 6213,
      "Ġtrain": 6214,
      "nabla": 6215,
      "eds": 6216,
      "ĠMary": 6217,
      "Ġcapacity": 6218,
      "PH": 6219,
      "thm": 6220,
      "ĠJul": 6221,
      "Ġprim": 6222,
      "Ġhighest": 6223,
      "Ġrelevant": 6224,
      "Non": 6225,
      "ĠWednesday": 6226,
      "eck": 6227,
      "Ġchallenges": 6228,
      "Ġax": 6229,
      "Ġshop": 6230,
      "Ġsteps": 6231,
      "Ġforms": 6232,
      "docs": 6233,
      "ĠVir": 6234,
      "SL": 6235,
      "Ġdied": 6236,
      "ests": 6237,
      "ĠMont": 6238,
      "bert": 6239,
      "ln": 6240,
      "iency": 6241,
      "Ġconvers": 6242,
      "ingle": 6243,
      "ĠEven": 6244,
      "FFFF": 6245,
      "ĠPower": 6246,
      "ĠTrue": 6247,
      "ĠAlso": 6248,
      "ĠCare": 6249,
      "apers": 6250,
      "ved": 6251,
      "Ġimplementation": 6252,
      "Ġfine": 6253,
      "Ġsmart": 6254,
      "(-": 6255,
      "Ġhash": 6256,
      "Helper": 6257,
      "vm": 6258,
      "Ġnuc": 6259,
      "Ġchain": 6260,
      "gency": 6261,
      "Ġahead": 6262,
      "Left": 6263,
      "ws": 6264,
      "pers": 6265,
      "Why": 6266,
      "Ġecho": 6267,
      "Ġadvant": 6268,
      "ĠPeople": 6269,
      "send": 6270,
      "ĠId": 6271,
      "ĠTim": 6272,
      "____": 6273,
      "Ġrecommend": 6274,
      "irmed": 6275,
      "Click": 6276,
      "poses": 6277,
      "Ġrequirements": 6278,
      "dot": 6279,
      "make": 6280,
      "Ġruns": 6281,
      "equal": 6282,
      "Ġhappened": 6283,
      "Ev": 6284,
      "ĠIsland": 6285,
      "ERROR": 6286,
      "oration": 6287,
      "rolled": 6288,
      "Ġmobile": 6289,
      "{}": 6290,
      "widget": 6291,
      "Ġâĸº": 6292,
      "Ġshift": 6293,
      "phone": 6294,
      "Ġlayer": 6295,
      "even": 6296,
      "Ġgeneration": 6297,
      "nergy": 6298,
      "Phi": 6299,
      "PRE": 6300,
      "enum": 6301,
      "72": 6302,
      "Ġlib": 6303,
      "Ġsociety": 6304,
      "ĠâĢ¢": 6305,
      "ĠCarol": 6306,
      "outhern": 6307,
      "Ġnotice": 6308,
      "89": 6309,
      "ĠâĹ": 6310,
      "media": 6311,
      "Iter": 6312,
      "Ġmaster": 6313,
      "Ġconnected": 6314,
      "Ġsmaller": 6315,
      "ĠDev": 6316,
      "FC": 6317,
      "ĠAmazon": 6318,
      "Ġsignificantly": 6319,
      "Ġgold": 6320,
      "Ġsett": 6321,
      "ĠVer": 6322,
      "actor": 6323,
      "Ġfederal": 6324,
      "click": 6325,
      "iminal": 6326,
      "ĠCEO": 6327,
      "going": 6328,
      "Ġsites": 6329,
      "ĠModel": 6330,
      "greg": 6331,
      "orter": 6332,
      "Ġdescribe": 6333,
      "power": 6334,
      "Ġdownload": 6335,
      "aby": 6336,
      "Te": 6337,
      "webkit": 6338,
      "Pe": 6339,
      "ĠRussian": 6340,
      "cp": 6341,
      "Ġspot": 6342,
      "Ġvote": 6343,
      "Ġrestaur": 6344,
      "Ġadapt": 6345,
      "internal": 6346,
      "ca": 6347,
      "ĠMad": 6348,
      "kappa": 6349,
      "Ġowner": 6350,
      "Ġmur": 6351,
      "ĠĠĠĠĠĠĠĠĠĠĠĠĠĠĠĠĠĠĠĠ": 6352,
      "Ġfear": 6353,
      "osen": 6354,
      "Ġcivil": 6355,
      "Ġsector": 6356,
      "oted": 6357,
      "Ġinfr": 6358,
      "Vector": 6359,
      "BS": 6360,
      "ffect": 6361,
      "Ġrepl": 6362,
      "yan": 6363,
      "ĠEngine": 6364,
      "Sigma": 6365,
      "Ġerrors": 6366,
      "Expression": 6367,
      "Long": 6368,
      "subset": 6369,
      "Ġopening": 6370,
      "Any": 6371,
      "Ð»": 6372,
      "ĠNOT": 6373,
      "Parameters": 6374,
      "ĠEarth": 6375,
      "Ġgrand": 6376,
      "urrency": 6377,
      "ORM": 6378,
      "ĠSociety": 6379,
      "})$": 6380,
      "Vari": 6381,
      "ĠDiv": 6382,
      "Ġmeasures": 6383,
      "Ġconcent": 6384,
      "Sk": 6385,
      "Ġhyp": 6386,
      "ansion": 6387,
      "Ġcompleted": 6388,
      "background": 6389,
      "Ġhundred": 6390,
      "Ġundefined": 6391,
      "Ġjav": 6392,
      "Cal": 6393,
      "ius": 6394,
      "Ġ('": 6395,
      "ĠUN": 6396,
      "Ġdetermined": 6397,
      "MD": 6398,
      "Ġcontainer": 6399,
      "Ġ['": 6400,
      "Ġdelete": 6401,
      "Tool": 6402,
      "hy": 6403,
      "env": 6404,
      "Ġcredit": 6405,
      "focus": 6406,
      "Art": 6407,
      "Ġslight": 6408,
      "ĠJew": 6409,
      "azine": 6410,
      "resents": 6411,
      "Ġtruth": 6412,
      "Ġmill": 6413,
      "hor": 6414,
      "centering": 6415,
      "edy": 6416,
      "Title": 6417,
      "ployment": 6418,
      "ĠTor": 6419,
      "aren": 6420,
      "ĠâĹ¼": 6421,
      "ECT": 6422,
      "reedom": 6423,
      "Ġdespite": 6424,
      "session": 6425,
      "Ġeconomy": 6426,
      "Ġlibrary": 6427,
      "uy": 6428,
      "ĠClub": 6429,
      "Ptr": 6430,
      "ĠWindow": 6431,
      "###": 6432,
      "fn": 6433,
      "Handle": 6434,
      "roph": 6435,
      "Ġguid": 6436,
      "Ġborn": 6437,
      "Ġidentity": 6438,
      "Ġstrength": 6439,
      "parameter": 6440,
      "Ġdrop": 6441,
      "Ġpaid": 6442,
      "omin": 6443,
      "Ġthinking": 6444,
      "Ġchallenge": 6445,
      "ĠFinal": 6446,
      "edge": 6447,
      "Ã¼": 6448,
      "toString": 6449,
      "Ġmaybe": 6450,
      "icago": 6451,
      "custom": 6452,
      "Ġappears": 6453,
      "Ġholds": 6454,
      "ĠCommunity": 6455,
      "front": 6456,
      "'],": 6457,
      "ĠTechnology": 6458,
      "ĠChristian": 6459,
      "del": 6460,
      "Ġmys": 6461,
      "ĠLO": 6462,
      "ĠBill": 6463,
      "ĠStep": 6464,
      "ĠBre": 6465,
      "Ġupdated": 6466,
      "Ġcoach": 6467,
      "pective": 6468,
      "vector": 6469,
      "ĠWil": 6470,
      "ifies": 6471,
      "Ġmachine": 6472,
      "ĠMethod": 6473,
      "global": 6474,
      "Ġintroduced": 6475,
      "():": 6476,
      "Ġappropriate": 6477,
      "================================": 6478,
      "Template": 6479,
      "Ġeye": 6480,
      "hover": 6481,
      "Ġhappy": 6482,
      "plugin": 6483,
      "Ġdoor": 6484,
      "here": 6485,
      "Ġmission": 6486,
      "tn": 6487,
      "after": 6488,
      "79": 6489,
      "Ġrepresentation": 6490,
      "ĠAcad": 6491,
      "Ġprocesses": 6492,
      "van": 6493,
      "PM": 6494,
      "Ġstars": 6495,
      "Ġobvious": 6496,
      "ĠRock": 6497,
      "ATH": 6498,
      "Ġnamespace": 6499,
      "76": 6500,
      "ĠSpe": 6501,
      "xx": 6502,
      "unched": 6503,
      "Ġidentified": 6504,
      "pay": 6505,
      "star": 6506,
      "Ġexpert": 6507,
      "help": 6508,
      "ĠAN": 6509,
      "Core": 6510,
      "virtual": 6511,
      "ĠKey": 6512,
      "Ġextrem": 6513,
      "ĠSpr": 6514,
      "Ġideas": 6515,
      "ĠBGCOLOR": 6516,
      "ĠHill": 6517,
      "ala": 6518,
      "Ġcontinues": 6519,
      "ĠLead": 6520,
      "ITY": 6521,
      "connect": 6522,
      "Ġvehicle": 6523,
      "equals": 6524,
      "Ã¤": 6525,
      "nel": 6526,
      "email": 6527,
      "Ġalt": 6528,
      "acks": 6529,
      "(:": 6530,
      "high": 6531,
      "Ġpowerful": 6532,
      "Debug": 6533,
      "nap": 6534,
      "Api": 6535,
      "Ġadvert": 6536,
      "ĠMA": 6537,
      "ĠAward": 6538,
      "2002": 6539,
      "PT": 6540,
      "Names": 6541,
      "ĠParty": 6542,
      "Ġweak": 6543,
      "azz": 6544,
      "Ġvariables": 6545,
      "Ġidentify": 6546,
      "ĠPy": 6547,
      "Ġowners": 6548,
      "otimes": 6549,
      "Kind": 6550,
      "ĠCongress": 6551,
      "255": 6552,
      "Ġannual": 6553,
      "ACE": 6554,
      "Ġminimum": 6555,
      "ĠCommittee": 6556,
      "Ġharm": 6557,
      "Invalid": 6558,
      "Parent": 6559,
      "Ġtrial": 6560,
      "82": 6561,
      "export": 6562,
      "Ġserve": 6563,
      "Const": 6564,
      "ĠIns": 6565,
      "coll": 6566,
      "ups": 6567,
      "ĠWhy": 6568,
      "plet": 6569,
      "Rect": 6570,
      "Ġtoward": 6571,
      "Ġpanel": 6572,
      "Order": 6573,
      "Ġsurround": 6574,
      "Ġillust": 6575,
      "mbox": 6576,
      "Ġupper": 6577,
      "GET": 6578,
      "di": 6579,
      "Ġunits": 6580,
      "Ġsignal": 6581,
      "Ġradio": 6582,
      "Ġdistributed": 6583,
      "Ġcouldn": 6584,
      "admin": 6585,
      "Ġgenerate": 6586,
      "ĠEvent": 6587,
      "standing": 6588,
      "Ġopin": 6589,
      "footer": 6590,
      "84": 6591,
      "ĠMo": 6592,
      "ĠFree": 6593,
      "Ġdrink": 6594,
      "orrow": 6595,
      "Ġbul": 6596,
      "Ġfunding": 6597,
      "Ġagree": 6598,
      "mid": 6599,
      "SET": 6600,
      "Ġmonitor": 6601,
      "Ġprofile": 6602,
      "Application": 6603,
      "men": 6604,
      "Ġintr": 6605,
      "Ġà¤": 6606,
      "Ġresponsible": 6607,
      "Reader": 6608,
      "ensuremath": 6609,
      "Ġbenefit": 6610,
      "These": 6611,
      "product": 6612,
      "Member": 6613,
      "ixel": 6614,
      "Ġpan": 6615,
      "uated": 6616,
      "adius": 6617,
      "ĠCode": 6618,
      "estamp": 6619,
      "ĠWell": 6620,
      "Ġcaused": 6621,
      "eless": 6622,
      "False": 6623,
      "ĠScott": 6624,
      "Ġmissing": 6625,
      "Ġstress": 6626,
      "Parser": 6627,
      "Author": 6628,
      "!âĢĿ": 6629,
      "Ġparse": 6630,
      "ĠSil": 6631,
      "ĠFrance": 6632,
      "Ġflag": 6633,
      "Ġextension": 6634,
      "Ġagreement": 6635,
      "Ġexcell": 6636,
      "Ġunless": 6637,
      "Ġtraff": 6638,
      "Ġfeet": 6639,
      "ĠCentral": 6640,
      "Ġforeign": 6641,
      "ĠValue": 6642,
      "oving": 6643,
      "={": 6644,
      "Ġadjust": 6645,
      "double": 6646,
      "CI": 6647,
      "writ": 6648,
      "security": 6649,
      "wid": 6650,
      "Ġequation": 6651,
      "copy": 6652,
      "Ġhour": 6653,
      "ĠGermany": 6654,
      "handle": 6655,
      "Ġ})": 6656,
      "Ġfig": 6657,
      "Ġartist": 6658,
      "romise": 6659,
      "Ġ(\"": 6660,
      "Device": 6661,
      "Ġpod": 6662,
      "Ġreality": 6663,
      "ĠFrancis": 6664,
      "Ġinterested": 6665,
      "ĠFund": 6666,
      "Ġepisode": 6667,
      "Ġheader": 6668,
      "ĠAccording": 6669,
      "ĠBack": 6670,
      "ertificate": 6671,
      "Ġclaims": 6672,
      "iques": 6673,
      "Ġreached": 6674,
      "grade": 6675,
      "Ġnodes": 6676,
      "ita": 6677,
      "Ġstuff": 6678,
      "Ġdeb": 6679,
      "ĠInvest": 6680,
      "$(": 6681,
      "Ġassume": 6682,
      "Que": 6683,
      "Decl": 6684,
      "lict": 6685,
      "ban": 6686,
      "anguage": 6687,
      "system": 6688,
      "ĠOffic": 6689,
      "dest": 6690,
      "astructure": 6691,
      "Book": 6692,
      "Ġorigin": 6693,
      "Ġbutton": 6694,
      "atin": 6695,
      "ensional": 6696,
      "Since": 6697,
      "ded": 6698,
      "Has": 6699,
      "scal": 6700,
      "Americ": 6701,
      "missions": 6702,
      "Ġreasons": 6703,
      "=\"/": 6704,
      "ien": 6705,
      "ĠUser": 6706,
      "ĠTwo": 6707,
      "etry": 6708,
      "annels": 6709,
      "reshold": 6710,
      "auth": 6711,
      "udio": 6712,
      "dependency": 6713,
      "fol": 6714,
      "othing": 6715,
      "ĠWomen": 6716,
      "Ġframework": 6717,
      "Ġplanning": 6718,
      "aser": 6719,
      "Ĥ¬": 6720,
      "erry": 6721,
      "adian": 6722,
      "ernel": 6723,
      "ĠTH": 6724,
      "Policy": 6725,
      "organ": 6726,
      ">.": 6727,
      "ipeline": 6728,
      "{-": 6729,
      "(*": 6730,
      "shot": 6731,
      "ĠMinister": 6732,
      "Ġyourself": 6733,
      "ially": 6734,
      "Ġorganizations": 6735,
      "Ġviews": 6736,
      "Ġsamples": 6737,
      "About": 6738,
      "ĠField": 6739,
      "Ġtried": 6740,
      "Ġkilled": 6741,
      "lines": 6742,
      "ĠMax": 6743,
      "atalog": 6744,
      "Ġrare": 6745,
      "Some": 6746,
      "Each": 6747,
      "----------------------------------------------------------------": 6748,
      "Ġsigned": 6749,
      "Ġgenerally": 6750,
      "omy": 6751,
      "Schema": 6752,
      "ATA": 6753,
      "?:": 6754,
      "Ġofficials": 6755,
      "crete": 6756,
      "Ġcustomer": 6757,
      ">();": 6758,
      "Ġcollege": 6759,
      "Ġacad": 6760,
      "Ġremoved": 6761,
      "ĠRobert": 6762,
      "Ġdig": 6763,
      "Ġhelped": 6764,
      "Found": 6765,
      "ĠFlorida": 6766,
      "isms": 6767,
      "Ġopened": 6768,
      "Ġsusp": 6769,
      "Ġcontaining": 6770,
      "ĠMath": 6771,
      "ifically": 6772,
      "Ðº": 6773,
      "DL": 6774,
      "ĠAbout": 6775,
      "\",\"": 6776,
      "Ġcache": 6777,
      "ĠGerman": 6778,
      "padding": 6779,
      "Ġgoals": 6780,
      "Ġcorre": 6781,
      "ĠSecurity": 6782,
      "AGE": 6783,
      "Ġfailure": 6784,
      "cloud": 6785,
      "ĠOp": 6786,
      "person": 6787,
      "Ġdetail": 6788,
      "Ġincor": 6789,
      "ĠUnion": 6790,
      "oles": 6791,
      "replace": 6792,
      "obs": 6793,
      "Classes": 6794,
      "loc": 6795,
      "Ġfresh": 6796,
      "ĠAny": 6797,
      "ented": 6798,
      "itness": 6799,
      "/\\": 6800,
      "Ġprotocol": 6801,
      "iders": 6802,
      "Render": 6803,
      "_;": 6804,
      "Ġpool": 6805,
      "raw": 6806,
      "Ġtalking": 6807,
      "fony": 6808,
      "disabled": 6809,
      "ĠMex": 6810,
      "Ġexperi": 6811,
      "Enabled": 6812,
      "Ġunc": 6813,
      "Assert": 6814,
      "atre": 6815,
      "igan": 6816,
      "eries": 6817,
      "reek": 6818,
      "Ġaudience": 6819,
      "Ġalign": 6820,
      "Err": 6821,
      "ĠBet": 6822,
      "bur": 6823,
      "Ġprove": 6824,
      "ĠTO": 6825,
      "Ġclearly": 6826,
      "Ġfavorite": 6827,
      "ĠHead": 6828,
      "Ġcamera": 6829,
      "ectors": 6830,
      "ĠLos": 6831,
      "Ġjobs": 6832,
      "elligence": 6833,
      "ampionship": 6834,
      "ĠĠĠĠĠĠĠĠĠĠĠĠĠĠĠĠĠĠĠĠĠĠĠĠĠĠĠĠĠĠĠĠĠĠĠĠĠĠĠ": 6835,
      "success": 6836,
      "Fig": 6837,
      "itz": 6838,
      "Ġbrain": 6839,
      "'.": 6840,
      "Ġperhaps": 6841,
      "LS": 6842,
      "Ġregarding": 6843,
      "Ġoffered": 6844,
      "160": 6845,
      "Ġbiggest": 6846,
      "odies": 6847,
      "May": 6848,
      "Ġwave": 6849,
      "Rule": 6850,
      "Ġforces": 6851,
      "Ġmentioned": 6852,
      "\\[": 6853,
      "Values": 6854,
      "ĠStat": 6855,
      "ĠEqu": 6856,
      "ĠElect": 6857,
      "Ġgovern": 6858,
      "ĠHTML": 6859,
      "Ġstrict": 6860,
      "store": 6861,
      "component": 6862,
      "Ġdanger": 6863,
      "Ġdepth": 6864,
      "rot": 6865,
      "Ġheavy": 6866,
      "150": 6867,
      "holder": 6868,
      "uce": 6869,
      "ogen": 6870,
      "ĠHot": 6871,
      "Ġmajority": 6872,
      "Ġwarm": 6873,
      "Ġshowing": 6874,
      "arden": 6875,
      "ĠHuman": 6876,
      "Ġvan": 6877,
      "Num": 6878,
      "Ġprocessing": 6879,
      "-->": 6880,
      "Sm": 6881,
      "Ġdriver": 6882,
      "ĠFigure": 6883,
      "ĠThomas": 6884,
      "settings": 6885,
      "SION": 6886,
      "gar": 6887,
      "Ġos": 6888,
      "Ġserved": 6889,
      "plications": 6890,
      "Ġreduced": 6891,
      "ymfony": 6892,
      "Ġcertainly": 6893,
      "ĠTeam": 6894,
      "DS": 6895,
      "Ġappre": 6896,
      "Ġunsigned": 6897,
      "Ver": 6898,
      "riz": 6899,
      "cf": 6900,
      "Ġenable": 6901,
      "Body": 6902,
      "Ġnorm": 6903,
      "Ġkept": 6904,
      "cles": 6905,
      "Argument": 6906,
      "&&": 6907,
      "ih": 6908,
      "Dom": 6909,
      "ja": 6910,
      "ĠFrank": 6911,
      "Ġrelation": 6912,
      "1999": 6913,
      "cut": 6914,
      "Ġleads": 6915,
      "Ġfan": 6916,
      "Ġbyte": 6917,
      "AME": 6918,
      "ker": 6919,
      "74": 6920,
      "Ġcategory": 6921,
      "`,": 6922,
      "73": 6923,
      "site": 6924,
      "lements": 6925,
      "essor": 6926,
      "Ġdoll": 6927,
      "full": 6928,
      "Ġgone": 6929,
      "ĠOh": 6930,
      "Ac": 6931,
      "ovid": 6932,
      "Ġconver": 6933,
      "white": 6934,
      "`.": 6935,
      "Tests": 6936,
      "Ġcat": 6937,
      "Ġcomfort": 6938,
      "pool": 6939,
      "framework": 6940,
      "Doc": 6941,
      "elines": 6942,
      "ĠFamily": 6943,
      "ĠÂ£": 6944,
      "owers": 6945,
      "dots": 6946,
      "vol": 6947,
      "register": 6948,
      "Ġinfluence": 6949,
      "Ġfemale": 6950,
      "ĠDC": 6951,
      "urred": 6952,
      "atever": 6953,
      "fields": 6954,
      "ĠLand": 6955,
      "ĠEXPECT": 6956,
      "bour": 6957,
      "âĢ¢": 6958,
      "ĠEp": 6959,
      "Exp": 6960,
      "Ġpor": 6961,
      "MC": 6962,
      "Track": 6963,
      "ĠBase": 6964,
      "93": 6965,
      "Posted": 6966,
      "Writer": 6967,
      "Ġsynt": 6968,
      "Metadata": 6969,
      "appro": 6970,
      "ideos": 6971,
      "Ġlegis": 6972,
      "scape": 6973,
      "EQ": 6974,
      "Args": 6975,
      "Ġrise": 6976,
      "Cor": 6977,
      "icol": 6978,
      "Ġtit": 6979,
      "Ġexternal": 6980,
      "Ġsea": 6981,
      "ĠAuthor": 6982,
      "Ġmiles": 6983,
      "}\"": 6984,
      "secut": 6985,
      "Ġrepresents": 6986,
      "Ġpurs": 6987,
      "Ġpolicies": 6988,
      "ifications": 6989,
      "Ġneighbor": 6990,
      "ucket": 6991,
      "Ġwood": 6992,
      "Ġbed": 6993,
      "byte": 6994,
      "life": 6995,
      "ĠMicrosoft": 6996,
      "enter": 6997,
      "}-": 6998,
      "empl": 6999,
      "ĠThus": 7000,
      "Ġnorth": 7001,
      "Ġonto": 7002,
      "widet": 7003,
      "tabular": 7004,
      "uby": 7005,
      "ĠMount": 7006,
      "Ġmyself": 7007,
      "Ġcitiz": 7008,
      "Ġincome": 7009,
      "iced": 7010,
      "ynchron": 7011,
      "onym": 7012,
      "94": 7013,
      "ims": 7014,
      "hab": 7015,
      "Ġconsult": 7016,
      "Ġspin": 7017,
      "exports": 7018,
      "keys": 7019,
      "ĠStand": 7020,
      "Ġnative": 7021,
      "Draw": 7022,
      "material": 7023,
      "ĠMur": 7024,
      "Ġtra": 7025,
      "Ġbelong": 7026,
      "mazing": 7027,
      "cean": 7028,
      "ĠTheir": 7029,
      "uke": 7030,
      "Ġbrief": 7031,
      "nonumber": 7032,
      "Step": 7033,
      "Ġappoint": 7034,
      "oute": 7035,
      "ĠColor": 7036,
      "ested": 7037,
      "Ġflex": 7038,
      "Ġsch": 7039,
      "Ġauthors": 7040,
      "ĠPo": 7041,
      "Ġadding": 7042,
      "Ġolder": 7043,
      "Ġconsequ": 7044,
      "Ġroute": 7045,
      "ĠNY": 7046,
      "ĠLear": 7047,
      "ĠDesign": 7048,
      "Show": 7049,
      "buf": 7050,
      "Ġinline": 7051,
      "ĠStart": 7052,
      "Ġlisten": 7053,
      "allel": 7054,
      "plements": 7055,
      "ĠPeter": 7056,
      "esh": 7057,
      "ĠChristmas": 7058,
      "ĠEU": 7059,
      "ĠWestern": 7060,
      "cur": 7061,
      "ĠAngeles": 7062,
      "Ġweap": 7063,
      "ĠBur": 7064,
      "Note": 7065,
      "ĠFire": 7066,
      "aste": 7067,
      "Ġwall": 7068,
      "ĠMedical": 7069,
      "Then": 7070,
      "ĠMel": 7071,
      "Ġclients": 7072,
      "However": 7073,
      "ĠEach": 7074,
      "orial": 7075,
      "panel": 7076,
      "Ġwish": 7077,
      "plugins": 7078,
      "attribute": 7079,
      "Custom": 7080,
      "ĠTur": 7081,
      "prime": 7082,
      "Tags": 7083,
      "ĠKore": 7084,
      "Ġsplit": 7085,
      "utr": 7086,
      "night": 7087,
      "Ġlif": 7088,
      "ĠAfrican": 7089,
      "Ġmarketing": 7090,
      "Ġprices": 7091,
      "Ã¶": 7092,
      "dict": 7093,
      "Google": 7094,
      "71": 7095,
      "Ġattract": 7096,
      "Ġratio": 7097,
      "blockList": 7098,
      "Root": 7099,
      "Ġprotection": 7100,
      "ographic": 7101,
      "ĠHand": 7102,
      "91": 7103,
      "ĠLake": 7104,
      "ĠUkraine": 7105,
      "stop": 7106,
      "Ġguide": 7107,
      "83": 7108,
      "ĠDown": 7109,
      "ĠGrand": 7110,
      "Ġraised": 7111,
      "Stack": 7112,
      "Only": 7113,
      "ĠDen": 7114,
      "tribution": 7115,
      "ĠLibrary": 7116,
      "Execut": 7117,
      "ĠEnter": 7118,
      "Ġextract": 7119,
      "operator": 7120,
      "ki": 7121,
      "Ġaren": 7122,
      "Ġfol": 7123,
      "callback": 7124,
      "Ġsongs": 7125,
      "install": 7126,
      "Ġarm": 7127,
      "ĠÂ»": 7128,
      "Ġstack": 7129,
      "stat": 7130,
      "Ġstarts": 7131,
      "Ġpicture": 7132,
      "widetilde": 7133,
      "Ġinher": 7134,
      "iki": 7135,
      "Ġappeared": 7136,
      "Ġenvironmental": 7137,
      "ĠMuseum": 7138,
      "Ġdirectory": 7139,
      "ils": 7140,
      "Bytes": 7141,
      "Ġbudget": 7142,
      "Ġregions": 7143,
      "JECT": 7144,
      "ĠRet": 7145,
      "Ġfilms": 7146,
      "Ġartists": 7147,
      "boolean": 7148,
      "Ġjourney": 7149,
      "}}{": 7150,
      "MENT": 7151,
      "Ġheat": 7152,
      "Ġagent": 7153,
      "ĠProv": 7154,
      "inem": 7155,
      "nections": 7156,
      "Ġmessages": 7157,
      "ĠJSON": 7158,
      "Ġ&=": 7159,
      "Ġrac": 7160,
      "ocity": 7161,
      "ĠCH": 7162,
      "\\\"": 7163,
      "Ġboy": 7164,
      "eces": 7165,
      "burg": 7166,
      "Ġcrow": 7167,
      "Ġarrest": 7168,
      ";<": 7169,
      "category": 7170,
      "rapper": 7171,
      "rule": 7172,
      "ĠJoe": 7173,
      "Icon": 7174,
      "osoph": 7175,
      "faces": 7176,
      "ĠIO": 7177,
      "DT": 7178,
      "ĠJose": 7179,
      "=\"../../../": 7180,
      "ĠLast": 7181,
      "Ġcommunication": 7182,
      "Ġdaughter": 7183,
      "chain": 7184,
      "Ġrich": 7185,
      "toggle": 7186,
      "uty": 7187,
      "how": 7188,
      "ĠChicago": 7189,
      "Ġmeant": 7190,
      "Ġgather": 7191,
      "Ġoccur": 7192,
      "Ġrevealed": 7193,
      "pute": 7194,
      ")-": 7195,
      "ishes": 7196,
      "Boolean": 7197,
      "92": 7198,
      "hs": 7199,
      "Support": 7200,
      "ĠAtl": 7201,
      "Ġachieve": 7202,
      "ĠAdmin": 7203,
      "Ġleadership": 7204,
      "ĠWho": 7205,
      "gs": 7206,
      "Ġseparate": 7207,
      "ture": 7208,
      "Ġhidden": 7209,
      "Ġens": 7210,
      "asion": 7211,
      "comment": 7212,
      "Sum": 7213,
      "allow": 7214,
      "allery": 7215,
      "Ġhelps": 7216,
      "Ġboost": 7217,
      "Delete": 7218,
      "Ġminor": 7219,
      "ĠSO": 7220,
      "Ġwallet": 7221,
      "Ġtrail": 7222,
      "Ġbattle": 7223,
      "ĠĠĠĠĠĠĠĠĠĠĠĠĠĠĠĠĠĠ": 7224,
      "bel": 7225,
      "Ġfeeling": 7226,
      "sect": 7227,
      "Ġestablish": 7228,
      "kins": 7229,
      "Ġbytes": 7230,
      "HS": 7231,
      "friend": 7232,
      "Ġfocused": 7233,
      "claim": 7234,
      "Ġcombination": 7235,
      "ĠPet": 7236,
      "ads": 7237,
      "Ġlicense": 7238,
      "Mock": 7239,
      "ĠChief": 7240,
      "81": 7241,
      "emporary": 7242,
      "Ġseeing": 7243,
      "Ġshut": 7244,
      "ĠAP": 7245,
      "oses": 7246,
      "LC": 7247,
      "Gu": 7248,
      "okes": 7249,
      "ĠText": 7250,
      "Ġ<=": 7251,
      "Ġexperiences": 7252,
      "DC": 7253,
      "avirus": 7254,
      "Byte": 7255,
      "pped": 7256,
      "ĠMass": 7257,
      "Ġplays": 7258,
      "emma": 7259,
      "rypto": 7260,
      "ĠFood": 7261,
      "Ġjson": 7262,
      "Ġprobability": 7263,
      "Ġplaced": 7264,
      "ĠLink": 7265,
      "Ġcalling": 7266,
      "Ġconsole": 7267,
      "Ġcarbon": 7268,
      "initely": 7269,
      "Ġsouth": 7270,
      "Ġcrisis": 7271,
      "Ġbalance": 7272,
      "NG": 7273,
      "Ġoperating": 7274,
      "ĠVirgin": 7275,
      "Copy": 7276,
      "Dialog": 7277,
      "Ġul": 7278,
      "ĠTown": 7279,
      "BR": 7280,
      "ĠSpecial": 7281,
      "Ġcluster": 7282,
      "estic": 7283,
      "short": 7284,
      "Ġrapid": 7285,
      "Ġequipment": 7286,
      "olver": 7287,
      "Ġrad": 7288,
      "atters": 7289,
      "Meta": 7290,
      "Ġinfe": 7291,
      "Ġalle": 7292,
      "Ġmock": 7293,
      "Package": 7294,
      "Ġprotest": 7295,
      "Ġhighlight": 7296,
      "Ġbeat": 7297,
      "Ġexamples": 7298,
      "rier": 7299,
      "ĠMult": 7300,
      "Ġdiscussion": 7301,
      "Ġjoint": 7302,
      "Ġknows": 7303,
      "ĠEnergy": 7304,
      "ĠPhys": 7305,
      "Ġresulting": 7306,
      "adoop": 7307,
      "Storage": 7308,
      "Ġevolution": 7309,
      "ĠTherefore": 7310,
      "Ġlaunched": 7311,
      "application": 7312,
      "Ġphoto": 7313,
      "FILE": 7314,
      "found": 7315,
      "Ġattr": 7316,
      "ĠMov": 7317,
      "ĠURL": 7318,
      "}]": 7319,
      "miss": 7320,
      "Ġinterpret": 7321,
      "Ġnoted": 7322,
      "obuf": 7323,
      "Ġpy": 7324,
      "coq": 7325,
      "Ġresidents": 7326,
      "ĠUpdate": 7327,
      "Ġfloor": 7328,
      "MT": 7329,
      "Ġefficient": 7330,
      "Ñĥ": 7331,
      "Ġpartnership": 7332,
      "Ġbrowser": 7333,
      "ura": 7334,
      "__(": 7335,
      "ĠLee": 7336,
      "ĠĠĠĠĠĠĊ": 7337,
      "Ġalternative": 7338,
      "Ġmsg": 7339,
      "TEST": 7340,
      "Ġsurvey": 7341,
      "ella": 7342,
      "Fields": 7343,
      "SU": 7344,
      "Ġvision": 7345,
      "Ġattend": 7346,
      "%)": 7347,
      "amin": 7348,
      "Ġparties": 7349,
      "MI": 7350,
      "track": 7351,
      "usband": 7352,
      "ĠBiden": 7353,
      "Definition": 7354,
      "acle": 7355,
      "equiv": 7356,
      "Ġsexual": 7357,
      "Ġfinding": 7358,
      "TED": 7359,
      "lemma": 7360,
      "istent": 7361,
      "hetic": 7362,
      "Ġdamage": 7363,
      "Ġsleep": 7364,
      "mock": 7365,
      "Ġguy": 7366,
      "exception": 7367,
      "auto": 7368,
      "Ġnetworks": 7369,
      "Ġult": 7370,
      "Ne": 7371,
      "elease": 7372,
      "insert": 7373,
      "Ġnice": 7374,
      "hentication": 7375,
      "Ġexplicit": 7376,
      "Ġoffering": 7377,
      "ĠLin": 7378,
      "sql": 7379,
      "Ġjoined": 7380,
      "Ġfinished": 7381,
      "ĠNE": 7382,
      "Ġvirus": 7383,
      "Ġimpress": 7384,
      "\\]": 7385,
      "ĠSu": 7386,
      "lie": 7387,
      "uple": 7388,
      "ĠCy": 7389,
      "cknow": 7390,
      "ora": 7391,
      "Ġcompetition": 7392,
      "ashed": 7393,
      "ĠArts": 7394,
      ")))": 7395,
      "grid": 7396,
      "Ljava": 7397,
      "agger": 7398,
      "Ġremote": 7399,
      "Di": 7400,
      "ĠError": 7401,
      "GS": 7402,
      "Ident": 7403,
      "Ġconference": 7404,
      "Ġexchange": 7405,
      "Ġdelay": 7406,
      "ingu": 7407,
      "Ġ++": 7408,
      "Ġpeace": 7409,
      "Ġtraffic": 7410,
      "ynamic": 7411,
      "Ġplus": 7412,
      "Ġpropos": 7413,
      "ĠBrown": 7414,
      "ĠLove": 7415,
      "Ġfunds": 7416,
      "Ġlabor": 7417,
      "ĠAction": 7418,
      "arts": 7419,
      "Ġdriving": 7420,
      "Ġdeveloping": 7421,
      "cape": 7422,
      "Ġpractices": 7423,
      "ĠWindows": 7424,
      "ĠOnly": 7425,
      "ĠSecret": 7426,
      "Ġrecorded": 7427,
      "ĠVict": 7428,
      "KEY": 7429,
      "election": 7430,
      "Active": 7431,
      "ĠSecond": 7432,
      "Ġcomparison": 7433,
      "Ġentity": 7434,
      "lig": 7435,
      "Ġearth": 7436,
      "Ġdefense": 7437,
      "Ġunknown": 7438,
      "Ġhers": 7439,
      "Att": 7440,
      "Previous": 7441,
      "Ġur": 7442,
      "ARY": 7443,
      "Ġplot": 7444,
      "ĠMake": 7445,
      "onavirus": 7446,
      "uzz": 7447,
      "Ġanc": 7448,
      "ingly": 7449,
      "Ġemb": 7450,
      "ĠLouis": 7451,
      "Ġdocuments": 7452,
      "WA": 7453,
      "olves": 7454,
      "Ġ'/": 7455,
      "ipal": 7456,
      "Ġadministration": 7457,
      "SSERT": 7458,
      "Ġemot": 7459,
      "Ġexerc": 7460,
      "Ġstated": 7461,
      "chen": 7462,
      "MB": 7463,
      "Ġtechnical": 7464,
      "jpg": 7465,
      "Ġpp": 7466,
      "120": 7467,
      "ĠSports": 7468,
      "Ġmostly": 7469,
      "Ġlearned": 7470,
      "GO": 7471,
      "Perm": 7472,
      "rip": 7473,
      "ĠLike": 7474,
      "ĠAccess": 7475,
      "ĠMedicine": 7476,
      "spe": 7477,
      "inline": 7478,
      "RC": 7479,
      "!\\": 7480,
      "Ġvel": 7481,
      "Ġmanaged": 7482,
      "Ġextended": 7483,
      "Ġadvantage": 7484,
      "riage": 7485,
      "Ġjavax": 7486,
      "ĠSupport": 7487,
      "Ġpi": 7488,
      "forms": 7489,
      "gers": 7490,
      "ĠJo": 7491,
      "PAR": 7492,
      "ading": 7493,
      "ĠJud": 7494,
      "ipped": 7495,
      "items": 7496,
      "words": 7497,
      "Ġbatter": 7498,
      "spring": 7499,
      "Ġlic": 7500,
      "END": 7501,
      "Ġcities": 7502,
      "Before": 7503,
      "Ġcontrast": 7504,
      "ĠReal": 7505,
      "cb": 7506,
      "uing": 7507,
      "Ġguarant": 7508,
      "poss": 7509,
      "Ġcombined": 7510,
      "Ġkeys": 7511,
      "Ġspaces": 7512,
      ")/": 7513,
      "Ġthank": 7514,
      "Ġscheme": 7515,
      "ĠIll": 7516,
      "ĠVersion": 7517,
      "Ġseconds": 7518,
      "Ġfrequency": 7519,
      "ĠJim": 7520,
      "ilton": 7521,
      "ĠRichard": 7522,
      "Ġthanks": 7523,
      "zen": 7524,
      "Send": 7525,
      "ĠAlthough": 7526,
      "Ġremaining": 7527,
      "avour": 7528,
      "Results": 7529,
      "\\{": 7530,
      "Ġsenior": 7531,
      "Security": 7532,
      "Ġfuel": 7533,
      "Ġtrip": 7534,
      "spirit": 7535,
      "bul": 7536,
      "EXT": 7537,
      "ĠLim": 7538,
      "John": 7539,
      "}+": 7540,
      "ĠPass": 7541,
      "Ġfourth": 7542,
      "Ġtruly": 7543,
      "Xml": 7544,
      "ression": 7545,
      "Ġdifferences": 7546,
      "Ġchief": 7547,
      "language": 7548,
      "Ġwouldn": 7549,
      "uations": 7550,
      "ĠEq": 7551,
      "Ġincred": 7552,
      "upload": 7553,
      "Ġsomew": 7554,
      "rim": 7555,
      ".'": 7556,
      "Ġsegment": 7557,
      "ĠTour": 7558,
      "margin": 7559,
      "Ġfill": 7560,
      "%,": 7561,
      "ĠassertEquals": 7562,
      "TA": 7563,
      "=\"\"": 7564,
      "FAULT": 7565,
      "ĠWater": 7566,
      "ĠGuide": 7567,
      "ĠAI": 7568,
      "Ġpet": 7569,
      "Ġcars": 7570,
      "Ġcry": 7571,
      "elled": 7572,
      "ĠSign": 7573,
      "Ġreader": 7574,
      "Ġmurder": 7575,
      "ĠOl": 7576,
      "Ġhappens": 7577,
      "points": 7578,
      "posite": 7579,
      "annotation": 7580,
      "ĠExecut": 7581,
      "Ġdestroy": 7582,
      "According": 7583,
      "Ġcultural": 7584,
      "ĠCre": 7585,
      "ĠWood": 7586,
      "Ġdie": 7587,
      "Ġseemed": 7588,
      "Ġanimals": 7589,
      "Ġwhom": 7590,
      "uls": 7591,
      "Ġdelivery": 7592,
      "Ġequivalent": 7593,
      "256": 7594,
      "Ġtab": 7595,
      "Ġcovered": 7596,
      "HTML": 7597,
      "ĠDigital": 7598,
      "ĠPerson": 7599,
      "ĠCommun": 7600,
      "??": 7601,
      "Ġwww": 7602,
      "cup": 7603,
      "dx": 7604,
      "reland": 7605,
      "Changed": 7606,
      "acket": 7607,
      "Ġoccup": 7608,
      "Network": 7609,
      "Ġapi": 7610,
      "arc": 7611,
      "=\"\">": 7612,
      "Ġ${": 7613,
      "ROM": 7614,
      "Ġfant": 7615,
      "ĠMany": 7616,
      "Ġisol": 7617,
      "uctions": 7618,
      "ceived": 7619,
      "ĠLocal": 7620,
      "ĠZeal": 7621,
      "region": 7622,
      "ĠLo": 7623,
      "DR": 7624,
      "ĠPage": 7625,
      "none": 7626,
      "Ġmotion": 7627,
      "Extension": 7628,
      "Ġstandards": 7629,
      "ĠOrgan": 7630,
      "ĠMartin": 7631,
      "Ġagreed": 7632,
      "unte": 7633,
      "Initial": 7634,
      "LOG": 7635,
      "plex": 7636,
      "ye": 7637,
      "ĠPlease": 7638,
      "initial": 7639,
      "Ġserial": 7640,
      "Ġviolence": 7641,
      "password": 7642,
      "ERS": 7643,
      "Ġannounce": 7644,
      "textwidth": 7645,
      "ODO": 7646,
      "akistan": 7647,
      "ï¼": 7648,
      "Ġ(*": 7649,
      "assets": 7650,
      "kg": 7651,
      "Ġpeak": 7652,
      "ĠĠĠĠĠĠĠĠĠĠĠĠĠĠĠĠĠĠĠĠĠĠĠĠĠ": 7653,
      "ĠAndroid": 7654,
      "iveness": 7655,
      "ĠJohnson": 7656,
      "Ġpsych": 7657,
      "Ġmental": 7658,
      "........": 7659,
      "sort": 7660,
      "Ġalloc": 7661,
      "ensed": 7662,
      "tsd": 7663,
      "1998": 7664,
      "ĠValley": 7665,
      "uries": 7666,
      "ifer": 7667,
      "BI": 7668,
      "world": 7669,
      "ĠAsia": 7670,
      "Ġhydro": 7671,
      "Second": 7672,
      "Ġabsolute": 7673,
      "andra": 7674,
      "Ġconsistent": 7675,
      "Ġleaving": 7676,
      "_,": 7677,
      "Ġweather": 7678,
      "ĠIts": 7679,
      "Ġchanging": 7680,
      "ango": 7681,
      "Ġbecoming": 7682,
      "Ġvaccine": 7683,
      "Ġprotein": 7684,
      "eder": 7685,
      "ĠHen": 7686,
      "Ġcandidate": 7687,
      "Ġcold": 7688,
      "Global": 7689,
      "iling": 7690,
      "ĠBlue": 7691,
      ",-": 7692,
      "Ġmassive": 7693,
      "Ġhair": 7694,
      "letter": 7695,
      "Ġunivers": 7696,
      "IVE": 7697,
      "ĠVAL": 7698,
      "othes": 7699,
      "thread": 7700,
      "Ġsoft": 7701,
      "Ġintegr": 7702,
      "Account": 7703,
      "west": 7704,
      "ĠIT": 7705,
      "aylor": 7706,
      "ĠBecause": 7707,
      "ĠZealand": 7708,
      "Editor": 7709,
      "Ġproceed": 7710,
      ".*": 7711,
      "Ġ\"/": 7712,
      "Ġschedul": 7713,
      "ĠPoint": 7714,
      "Ġinvestigation": 7715,
      "ĠTerm": 7716,
      "ĠEnvironment": 7717,
      "Ġtrigger": 7718,
      "ĠHor": 7719,
      "Ġfinite": 7720,
      "Ġeventually": 7721,
      "ĠDefault": 7722,
      "ĠJun": 7723,
      "Ġretail": 7724,
      "alid": 7725,
      "Av": 7726,
      "effect": 7727,
      "Ġdecades": 7728,
      "Jan": 7729,
      "home": 7730,
      "ĠFort": 7731,
      "Î±": 7732,
      "Ġspend": 7733,
      "ĠCentre": 7734,
      "Ġban": 7735,
      "Ġmyst": 7736,
      "ĠOld": 7737,
      "hadoop": 7738,
      "ato": 7739,
      "Scope": 7740,
      "aration": 7741,
      "Ġnoise": 7742,
      "Ġwarn": 7743,
      "Ġresolution": 7744,
      "ĠCustom": 7745,
      "Ġfamous": 7746,
      "ĠLib": 7747,
      "Ġnarr": 7748,
      "Ġquantum": 7749,
      "Ġphen": 7750,
      "Main": 7751,
      "shape": 7752,
      "Ġuncertain": 7753,
      "Other": 7754,
      "Display": 7755,
      "Phone": 7756,
      "Ġil": 7757,
      "orney": 7758,
      "Lock": 7759,
      "Will": 7760,
      "Pool": 7761,
      "screen": 7762,
      "formance": 7763,
      "Ġodd": 7764,
      "Ġthousands": 7765,
      "ulty": 7766,
      "stitut": 7767,
      "Ġpaint": 7768,
      "Ġmist": 7769,
      "çļ": 7770,
      "impl": 7771,
      "iliar": 7772,
      "ĠLook": 7773,
      "linear": 7774,
      "obe": 7775,
      "Ġweekend": 7776,
      "Ġmarkets": 7777,
      "Ġrequests": 7778,
      "Ġamazing": 7779,
      "ĠTheorem": 7780,
      "Ġconfirmed": 7781,
      "Ġdiscussed": 7782,
      "Ġice": 7783,
      "Ġallowing": 7784,
      ")=\\": 7785,
      "mo": 7786,
      "awn": 7787,
      "ĠLi": 7788,
      ";/": 7789,
      "unsigned": 7790,
      "ĠAdv": 7791,
      "Ġexplore": 7792,
      "Ġgain": 7793,
      "Ġtend": 7794,
      "Ġexcellent": 7795,
      "Ġcoverage": 7796,
      "Ġsymmet": 7797,
      "Ġstructures": 7798,
      "unately": 7799,
      "ĠChris": 7800,
      "çļĦ": 7801,
      "ĠDuring": 7802,
      "Transaction": 7803,
      "Psi": 7804,
      "Ġwaiting": 7805,
      "ĠYoung": 7806,
      "Ġdetailed": 7807,
      "Ġexport": 7808,
      "ĠSy": 7809,
      "erman": 7810,
      "ushed": 7811,
      "zeta": 7812,
      "?\"": 7813,
      "uses": 7814,
      "ali": 7815,
      "ĠWay": 7816,
      "Ġupdates": 7817,
      "Ġestimated": 7818,
      "ĠSciences": 7819,
      "Ġwaves": 7820,
      "tics": 7821,
      "inds": 7822,
      "rep": 7823,
      "nce": 7824,
      "icians": 7825,
      "Ġended": 7826,
      "Ġnotes": 7827,
      "mosph": 7828,
      "Ġforced": 7829,
      "Ġslightly": 7830,
      "Ġtheme": 7831,
      "Ġsmooth": 7832,
      "Tab": 7833,
      "numer": 7834,
      "Ġdetect": 7835,
      "ĠIndust": 7836,
      "cpp": 7837,
      "ĠLandroid": 7838,
      "TEX": 7839,
      "Pattern": 7840,
      "NT": 7841,
      "fly": 7842,
      "alian": 7843,
      "RAN": 7844,
      "Ġadopt": 7845,
      "Ġcreative": 7846,
      "Ġwid": 7847,
      "alloc": 7848,
      "Ġ{};": 7849,
      "Ġlocations": 7850,
      "Full": 7851,
      "ĠFurther": 7852,
      "Ġimportance": 7853,
      "Ġ),": 7854,
      "ĠJon": 7855,
      "ivation": 7856,
      "HECK": 7857,
      "Ġdb": 7858,
      "ĠFunction": 7859,
      "Ġcookies": 7860,
      "iffer": 7861,
      "Ġsubsequ": 7862,
      "ski": 7863,
      "Ġaffected": 7864,
      "asket": 7865,
      "Del": 7866,
      "FS": 7867,
      "ĠInternet": 7868,
      "ĠHaw": 7869,
      "ĠJones": 7870,
      "Ġaudio": 7871,
      "Activity": 7872,
      "Ġmenu": 7873,
      "Ġblocks": 7874,
      "Ġconcerns": 7875,
      "Ġpurchase": 7876,
      "}=\\": 7877,
      "Ġsquare": 7878,
      "'))": 7879,
      "Ġacceler": 7880,
      "Ġpoly": 7881,
      "Ġfashion": 7882,
      "Ġinsert": 7883,
      "Ġmale": 7884,
      "isters": 7885,
      "Ġok": 7886,
      "Ġembed": 7887,
      "Media": 7888,
      "encing": 7889,
      "Descriptor": 7890,
      "Ġsale": 7891,
      "hell": 7892,
      "\">&": 7893,
      "rick": 7894,
      "ĠColl": 7895,
      "\")]": 7896,
      "Ġburn": 7897,
      "aching": 7898,
      "Ġspeech": 7899,
      "Gen": 7900,
      "Ġtypically": 7901,
      "Ġguess": 7902,
      "udden": 7903,
      "cmd": 7904,
      "connection": 7905,
      ";\\": 7906,
      "Channel": 7907,
      "ĠPac": 7908,
      "Ġlab": 7909,
      "Ġdecisions": 7910,
      "notation": 7911,
      "VE": 7912,
      "Ġexpos": 7913,
      "roud": 7914,
      "Ġappreci": 7915,
      ")}\\": 7916,
      "Ġjump": 7917,
      "Ġvisible": 7918,
      "ĠAmericans": 7919,
      "Ins": 7920,
      "Ġherself": 7921,
      "ĠRights": 7922,
      "Ġstreet": 7923,
      "Feature": 7924,
      "]]": 7925,
      "Med": 7926,
      "Ġdebut": 7927,
      "Timeout": 7928,
      "Ġcarried": 7929,
      "Ã¢": 7930,
      "Ġparticipants": 7931,
      "AU": 7932,
      "doi": 7933,
      "kw": 7934,
      "asis": 7935,
      "ĠEth": 7936,
      "anish": 7937,
      "Ġsufficient": 7938,
      "ĠArab": 7939,
      "Ġwinning": 7940,
      "umin": 7941,
      "ĠPath": 7942,
      "Ġagency": 7943,
      "Ġbehavi": 7944,
      "ĠConference": 7945,
      "Ġchurch": 7946,
      "fire": 7947,
      "ĠPolice": 7948,
      "ais": 7949,
      "Obj": 7950,
      "addr": 7951,
      "ĠAustralian": 7952,
      "pled": 7953,
      "Ġlett": 7954,
      ".âĢĻ": 7955,
      "thlet": 7956,
      "DP": 7957,
      "deg": 7958,
      "Ġdistinct": 7959,
      "ether": 7960,
      "yes": 7961,
      "kl": 7962,
      "Vol": 7963,
      "ĠPC": 7964,
      "ĠCard": 7965,
      "prise": 7966,
      "Just": 7967,
      "ĠBO": 7968,
      "names": 7969,
      "Ġinjury": 7970,
      "ĠOption": 7971,
      "Job": 7972,
      "urer": 7973,
      "Ġdir": 7974,
      "entials": 7975,
      "ulner": 7976,
      "game": 7977,
      "Ð°Ð": 7978,
      "ĠWatch": 7979,
      "250": 7980,
      "Ġfaith": 7981,
      "ictures": 7982,
      "Ġinteraction": 7983,
      "Ġapparent": 7984,
      "Ġhyper": 7985,
      "Ġmixed": 7986,
      "urban": 7987,
      "Ġsy": 7988,
      "Ġvehicles": 7989,
      "Â©": 7990,
      "Ġbrings": 7991,
      "matrix": 7992,
      "Ġfinish": 7993,
      "Ġmolec": 7994,
      "Ġhelping": 7995,
      "ĠPop": 7996,
      "}|": 7997,
      "Ġprovider": 7998,
      "erg": 7999,
      "Ġadvanced": 8000,
      "Ġlisted": 8001,
      "Ġattributes": 8002,
      "wait": 8003,
      "ĠGames": 8004,
      "ĠJapanese": 8005,
      "iana": 8006,
      "Ġarticles": 8007,
      "war": 8008,
      "Ġguys": 8009,
      "Ġflight": 8010,
      "indent": 8011,
      "Ġtun": 8012,
      "ĠControl": 8013,
      "Ġsharing": 8014,
      "profile": 8015,
      "stats": 8016,
      "ĠWhe": 8017,
      "Ġinfrastructure": 8018,
      "Ġtasks": 8019,
      "ĠMike": 8020,
      "ĠSol": 8021,
      "eting": 8022,
      "ĠSearch": 8023,
      "Ġhtml": 8024,
      "ĠLord": 8025,
      "ĠMain": 8026,
      "Ġextremely": 8027,
      "ocker": 8028,
      "master": 8029,
      "typed": 8030,
      "record": 8031,
      "Ġregul": 8032,
      "ĠHy": 8033,
      "Ġmetal": 8034,
      "Ġincreases": 8035,
      "Ġcycle": 8036,
      "600": 8037,
      "Ġcompare": 8038,
      "Ġconducted": 8039,
      "Ġadvance": 8040,
      "ĠAS": 8041,
      "Ġexperiment": 8042,
      "Ġgender": 8043,
      "Ġsupports": 8044,
      "128": 8045,
      "Queue": 8046,
      "Ġkill": 8047,
      "Ġdynamic": 8048,
      "widehat": 8049,
      "*)": 8050,
      "Ġsqu": 8051,
      "pository": 8052,
      "////////////////////////////////": 8053,
      "Ġhusband": 8054,
      "jar": 8055,
      "save": 8056,
      "ĠFalse": 8057,
      "outer": 8058,
      "Ġ[[": 8059,
      "radius": 8060,
      "ĠInstagram": 8061,
      "Ġcreation": 8062,
      "athan": 8063,
      "Ġcriminal": 8064,
      "ucky": 8065,
      "ĠON": 8066,
      "ĠCanadian": 8067,
      "VERSION": 8068,
      "cam": 8069,
      "shall": 8070,
      "apes": 8071,
      "Ġtells": 8072,
      "uan": 8073,
      "ĠGeorg": 8074,
      "ickets": 8075,
      "Ġawait": 8076,
      "Ġwatching": 8077,
      "Find": 8078,
      "Ġinternet": 8079,
      "uts": 8080,
      "Ġexplained": 8081,
      "ĠExt": 8082,
      "Bit": 8083,
      "dropdown": 8084,
      "======": 8085,
      "ĠAff": 8086,
      "Widget": 8087,
      "Ġestimate": 8088,
      "gov": 8089,
      "Ġbrother": 8090,
      "Ġdedicated": 8091,
      "emon": 8092,
      "orders": 8093,
      "lyph": 8094,
      "Ġcash": 8095,
      "Ġchosen": 8096,
      "gebra": 8097,
      "Ġposted": 8098,
      "Ġ\\{": 8099,
      "ĠPan": 8100,
      "Ġprofession": 8101,
      "JSON": 8102,
      "leton": 8103,
      "Ġinteger": 8104,
      "LIC": 8105,
      "ONE": 8106,
      "kin": 8107,
      "[:": 8108,
      "Ġbond": 8109,
      "oston": 8110,
      "Var": 8111,
      "Ġmatches": 8112,
      "Ġprepar": 8113,
      "Grid": 8114,
      "ĠIreland": 8115,
      "iteral": 8116,
      "estion": 8117,
      "ola": 8118,
      "Ġinner": 8119,
      "=\"@": 8120,
      "Ġeasier": 8121,
      "Ġinstanceof": 8122,
      "Ġexplain": 8123,
      "Final": 8124,
      "ĠImage": 8125,
      "cluded": 8126,
      "Ġmanage": 8127,
      "Ġdefinitely": 8128,
      "angular": 8129,
      "Ġsolar": 8130,
      "ĠĠĠĠĠĠĠĠĠĠĠĠĠĠĠĠĠĠĠĠĠĠĠĠ": 8131,
      "Ġmeasured": 8132,
      "ĠToday": 8133,
      "Ġfacilities": 8134,
      "ĉĉĉĊ": 8135,
      "ĠHospital": 8136,
      "Generic": 8137,
      "atible": 8138,
      "}^\\": 8139,
      "ĠKen": 8140,
      "~~~~": 8141,
      "ĠFestival": 8142,
      "scroll": 8143,
      "ĠCopyright": 8144,
      "Ġsupporting": 8145,
      "ĠNext": 8146,
      "ĠJeff": 8147,
      "Ġdefe": 8148,
      "Ġexpansion": 8149,
      "lers": 8150,
      "Ġrain": 8151,
      "ĠStudies": 8152,
      "Ġphil": 8153,
      "essions": 8154,
      "Ġnom": 8155,
      "results": 8156,
      "modules": 8157,
      "Ġtelevision": 8158,
      "axis": 8159,
      "roke": 8160,
      "ĠMS": 8161,
      "alo": 8162,
      "ĠDaily": 8163,
      "rich": 8164,
      "iration": 8165,
      "ĠSaf": 8166,
      "eper": 8167,
      "Ġdraft": 8168,
      "Ġcriter": 8169,
      "ĠNumber": 8170,
      "Ġsecure": 8171,
      "elegate": 8172,
      "ICE": 8173,
      "Ġapproximately": 8174,
      "ĠSte": 8175,
      "WN": 8176,
      "ĠBoth": 8177,
      "brid": 8178,
      "ĠIslam": 8179,
      "123": 8180,
      "Ġliterature": 8181,
      "Ġmovies": 8182,
      "ĠParis": 8183,
      "(!": 8184,
      "ĠBob": 8185,
      "Ġshock": 8186,
      "Ġtrees": 8187,
      "jquery": 8188,
      "TV": 8189,
      "Ġglass": 8190,
      "Ġturns": 8191,
      "ĠPolit": 8192,
      "tip": 8193,
      "Ġadvent": 8194,
      "ĠIndex": 8195,
      "ko": 8196,
      "ĠCast": 8197,
      "Ġacid": 8198,
      "Ġtreated": 8199,
      "family": 8200,
      "Ġloved": 8201,
      "wp": 8202,
      "}:": 8203,
      "inations": 8204,
      "ĠSpace": 8205,
      "Ġtechniques": 8206,
      "move": 8207,
      "Logger": 8208,
      "queue": 8209,
      "cit": 8210,
      "contin": 8211,
      "Ġpurposes": 8212,
      "Ġpositions": 8213,
      "ĠClin": 8214,
      "astern": 8215,
      "ĠSar": 8216,
      "Ġtopic": 8217,
      "Float": 8218,
      "ĠLine": 8219,
      "flags": 8220,
      "Ġraw": 8221,
      "Ġadvice": 8222,
      "800": 8223,
      "Ġskin": 8224,
      "mathsf": 8225,
      "Ġ%}": 8226,
      "Ġfif": 8227,
      "Ġsympt": 8228,
      "rine": 8229,
      "Best": 8230,
      "ĠLive": 8231,
      "Ġrelatively": 8232,
      "iral": 8233,
      "Ġmaintain": 8234,
      "Ġip": 8235,
      "(){": 8236,
      "Ġtechnologies": 8237,
      "Init": 8238,
      "Ġconfirm": 8239,
      "oting": 8240,
      "Ġdetection": 8241,
      "Photo": 8242,
      "enumer": 8243,
      "Symbol": 8244,
      "keyword": 8245,
      "ById": 8246,
      "Where": 8247,
      "Ġdepartment": 8248,
      "ĠNight": 8249,
      "Ġafford": 8250,
      "ĠCarolina": 8251,
      "ello": 8252,
      ")\"": 8253,
      "@\"": 8254,
      "Ġdataset": 8255,
      "Ġclassic": 8256,
      "Ġcritic": 8257,
      "Ġopinion": 8258,
      "Ġindu": 8259,
      "PP": 8260,
      "erial": 8261,
      "Ġimproved": 8262,
      "ĠMa": 8263,
      "American": 8264,
      "Ġpassion": 8265,
      "UID": 8266,
      "Ġcorner": 8267,
      "1990": 8268,
      "Ġvac": 8269,
      "recated": 8270,
      "ito": 8271,
      "Loc": 8272,
      "Ġforest": 8273,
      "rase": 8274,
      "events": 8275,
      "protobuf": 8276,
      "ĠFour": 8277,
      "icing": 8278,
      "sur": 8279,
      "andon": 8280,
      "MAX": 8281,
      "Ġdepends": 8282,
      "Ġshares": 8283,
      "RS": 8284,
      "Ġwhatever": 8285,
      "Ġyouth": 8286,
      "ancel": 8287,
      "ĠPay": 8288,
      "Ġattacks": 8289,
      "Ġnine": 8290,
      "Ġregistered": 8291,
      "Ġbright": 8292,
      "bad": 8293,
      "git": 8294,
      "TABLE": 8295,
      "Java": 8296,
      "Ġreject": 8297,
      "operation": 8298,
      "Ġcollected": 8299,
      "Ġexpressed": 8300,
      "itionally": 8301,
      "1997": 8302,
      "ĠAh": 8303,
      "Ġloop": 8304,
      "news": 8305,
      "Conf": 8306,
      "uality": 8307,
      "ira": 8308,
      "ĠWilliams": 8309,
      "Ġapplicable": 8310,
      "Ġofficer": 8311,
      "ĠRoman": 8312,
      "Ġboundary": 8313,
      "pet": 8314,
      "Ġprepared": 8315,
      "Ġkid": 8316,
      "ĠSand": 8317,
      "ĠBit": 8318,
      "article": 8319,
      "Ġhistorical": 8320,
      "ĠCharles": 8321,
      "eller": 8322,
      "ĠWild": 8323,
      "controller": 8324,
      "Ġbtn": 8325,
      "domain": 8326,
      "born": 8327,
      "Pay": 8328,
      "ĠExper": 8329,
      "omorph": 8330,
      "Selector": 8331,
      "clip": 8332,
      "Ġvideos": 8333,
      "ĠÂ©": 8334,
      "Ġss": 8335,
      "Ġinstalled": 8336,
      "$)": 8337,
      "appe": 8338,
      "Iterator": 8339,
      "################": 8340,
      "Ġtherm": 8341,
      "icity": 8342,
      "txt": 8343,
      "Ġgirls": 8344,
      "Ġexperienced": 8345,
      "Two": 8346,
      "Auth": 8347,
      "Ġfreedom": 8348,
      "Ġscr": 8349,
      "Ġdu": 8350,
      "ĠWall": 8351,
      "Ġflat": 8352,
      "otten": 8353,
      "ĠLab": 8354,
      "rid": 8355,
      "super": 8356,
      "Ġretr": 8357,
      "Ġissued": 8358,
      ")),": 8359,
      "rical": 8360,
      "Ġphotos": 8361,
      "Figure": 8362,
      "ĠPakistan": 8363,
      ")));": 8364,
      "ĠSpec": 8365,
      "ova": 8366,
      "Ġpayment": 8367,
      "}_\\": 8368,
      "La": 8369,
      "Ġanimal": 8370,
      "fold": 8371,
      "Ġsounds": 8372,
      "ĠKnow": 8373,
      "Ġcrime": 8374,
      "ensus": 8375,
      "Ġgrid": 8376,
      "lix": 8377,
      "typeof": 8378,
      "Ġconsumer": 8379,
      "CF": 8380,
      "Ġresearchers": 8381,
      "yer": 8382,
      "ĠFeb": 8383,
      "network": 8384,
      "asm": 8385,
      "$/": 8386,
      "ĠVirginia": 8387,
      "gence": 8388,
      "inv": 8389,
      "{(": 8390,
      "ĠPenn": 8391,
      "HR": 8392,
      "ilit": 8393,
      "Pop": 8394,
      "Ġpil": 8395,
      "Ġcircum": 8396,
      "Ġenabled": 8397,
      "Ġsignature": 8398,
      "ĠBow": 8399,
      "Ġdoubt": 8400,
      "Ġcoast": 8401,
      "fast": 8402,
      "ighter": 8403,
      "Internal": 8404,
      "ï¿": 8405,
      "folio": 8406,
      "ears": 8407,
      "Ġrent": 8408,
      "Ġrelationships": 8409,
      "Ret": 8410,
      "ĠRoyal": 8411,
      "orship": 8412,
      "ircraft": 8413,
      "Ġsport": 8414,
      "Ġfish": 8415,
      "ĠForce": 8416,
      "Ġsuccessfully": 8417,
      "Ġkeeping": 8418,
      "Flags": 8419,
      "Ġpure": 8420,
      "ĠðŁ": 8421,
      "Ġsimpl": 8422,
      "Ġhaven": 8423,
      "Ġleaves": 8424,
      "Tube": 8425,
      "_->": 8426,
      "Ã§": 8427,
      "Ġmac": 8428,
      "fix": 8429,
      "Ġplants": 8430,
      "istant": 8431,
      "icial": 8432,
      "ji": 8433,
      "esome": 8434,
      "Ġvent": 8435,
      "water": 8436,
      "Directory": 8437,
      ")^{": 8438,
      "Ġcas": 8439,
      "Look": 8440,
      "Ġhealthy": 8441,
      "Spe": 8442,
      "sen": 8443,
      "Ġuniform": 8444,
      "acts": 8445,
      "cdots": 8446,
      "Ġexperts": 8447,
      "Ġformed": 8448,
      "va": 8449,
      "BE": 8450,
      "alaxy": 8451,
      "Ġminim": 8452,
      "Ġreduction": 8453,
      "ati": 8454,
      "News": 8455,
      "Print": 8456,
      "aka": 8457,
      "atar": 8458,
      "Ġhab": 8459,
      "Ġexcited": 8460,
      "Ġperspective": 8461,
      "dy": 8462,
      "Ġplane": 8463,
      "ĠPRO": 8464,
      "Ġemergency": 8465,
      "ĠDaniel": 8466,
      "ĠAwards": 8467,
      "Msg": 8468,
      "ĠOnline": 8469,
      "Ġmanner": 8470,
      "Ġfeels": 8471,
      "redit": 8472,
      "Ġautomatically": 8473,
      "properties": 8474,
      "Ġspring": 8475,
      "anche": 8476,
      "ostic": 8477,
      "Proxy": 8478,
      "ĠJustice": 8479,
      "Ġstrugg": 8480,
      "','": 8481,
      "ĠMexico": 8482,
      "Ġaccuracy": 8483,
      "poration": 8484,
      "Ġcommitted": 8485,
      "NotNull": 8486,
      "Every": 8487,
      "ĠSeason": 8488,
      "Ġsetup": 8489,
      "anes": 8490,
      "ĠFederal": 8491,
      "ĠSenate": 8492,
      "edu": 8493,
      "ERE": 8494,
      "Ġcandidates": 8495,
      "uages": 8496,
      "Items": 8497,
      "Desc": 8498,
      "ookie": 8499,
      "Ġ>>": 8500,
      "edit": 8501,
      "tical": 8502,
      "()));": 8503,
      "Ġplanet": 8504,
      "compl": 8505,
      "adium": 8506,
      "Ġclim": 8507,
      "eah": 8508,
      "ository": 8509,
      "ga": 8510,
      "Windows": 8511,
      "Ġmotor": 8512,
      "enabled": 8513,
      "twitter": 8514,
      "ĠTask": 8515,
      "editor": 8516,
      "aked": 8517,
      "atial": 8518,
      "Ġapproaches": 8519,
      "Graph": 8520,
      "evin": 8521,
      "cohol": 8522,
      "Ġelem": 8523,
      "ĠAssembly": 8524,
      "ĠWal": 8525,
      "Ġemph": 8526,
      "Ġtech": 8527,
      "selected": 8528,
      "Ñı": 8529,
      "primary": 8530,
      "Ġreporting": 8531,
      "Ġpolitics": 8532,
      "outs": 8533,
      "throws": 8534,
      "bre": 8535,
      "Transform": 8536,
      "account": 8537,
      "Ġrul": 8538,
      "inf": 8539,
      "Ġsurg": 8540,
      "Cond": 8541,
      "Ġcitizens": 8542,
      "Ġprison": 8543,
      "ĠWalk": 8544,
      "schema": 8545,
      "Term": 8546,
      "Ġprivacy": 8547,
      "Ġpieces": 8548,
      "Ġsan": 8549,
      "zone": 8550,
      "Ġextr": 8551,
      "ĠParam": 8552,
      "Ġwitness": 8553,
      "Ġpointer": 8554,
      "ĠVan": 8555,
      "Ġdimension": 8556,
      "ĠMen": 8557,
      "ĠJava": 8558,
      "Ġbegins": 8559,
      "Ġpassword": 8560,
      "ĠProcess": 8561,
      "pa": 8562,
      "assertEquals": 8563,
      "Ġlatter": 8564,
      "Ġspectrum": 8565,
      "manager": 8566,
      "Ġfell": 8567,
      "()).": 8568,
      "ĠNon": 8569,
      "ilation": 8570,
      "Ġdress": 8571,
      "Ġmaps": 8572,
      "High": 8573,
      "}}(": 8574,
      "Ġbuilder": 8575,
      "Ġbird": 8576,
      "desc": 8577,
      "Ġrecon": 8578,
      "ï¿½": 8579,
      "ĠAndrew": 8580,
      "Section": 8581,
      "iate": 8582,
      "ĠLight": 8583,
      "ĠFull": 8584,
      "ĠNode": 8585,
      "Ġinsurance": 8586,
      "Ġatmosph": 8587,
      "avity": 8588,
      ")\">": 8589,
      "Ġstrategies": 8590,
      "ĠAcademy": 8591,
      "Edit": 8592,
      "Symfony": 8593,
      "Ġpal": 8594,
      "argument": 8595,
      "SIZE": 8596,
      "agraph": 8597,
      "Ġkm": 8598,
      "ĠØ": 8599,
      "lywood": 8600,
      "black": 8601,
      "ĠNiger": 8602,
      "ĠMO": 8603,
      "Ġ(@": 8604,
      "shop": 8605,
      "ĠChange": 8606,
      "Ġplatforms": 8607,
      "antly": 8608,
      "Ġhomes": 8609,
      "nam": 8610,
      "tex": 8611,
      "PU": 8612,
      "Ġintended": 8613,
      "Ġacademic": 8614,
      "Ġholding": 8615,
      "Ġrevenue": 8616,
      "World": 8617,
      "Ġkick": 8618,
      "ikes": 8619,
      "Ġve": 8620,
      "Ġnumerous": 8621,
      "Ġcaught": 8622,
      ")).": 8623,
      "110": 8624,
      "tools": 8625,
      "ĠCath": 8626,
      "Ġencoding": 8627,
      "Ġexperiments": 8628,
      "Ġdesc": 8629,
      "Ġapproved": 8630,
      "Ġoccurred": 8631,
      "Ġsam": 8632,
      "Ġhandler": 8633,
      "Ġconsidering": 8634,
      "Ġing": 8635,
      "Ġconfidence": 8636,
      "ĠMot": 8637,
      "Ġacknow": 8638,
      "Ġfle": 8639,
      "ĠVideo": 8640,
      "area": 8641,
      "ĠKim": 8642,
      "Ġfacility": 8643,
      "Ġevening": 8644,
      "Ġends": 8645,
      "cuss": 8646,
      "Register": 8647,
      "ĠAT": 8648,
      "scr": 8649,
      "Ġeat": 8650,
      "Ġrail": 8651,
      "Ġmal": 8652,
      "Ġexecutive": 8653,
      "})\\": 8654,
      "Close": 8655,
      "IGHT": 8656,
      "Ġpitch": 8657,
      "GR": 8658,
      "Double": 8659,
      "Files": 8660,
      "ĠFI": 8661,
      "Expr": 8662,
      "lik": 8663,
      "PATH": 8664,
      "Ġtransl": 8665,
      "possible": 8666,
      "merce": 8667,
      "liament": 8668,
      "sin": 8669,
      "Yes": 8670,
      "}</": 8671,
      "Protocol": 8672,
      "Ġreserved": 8673,
      "ĠPR": 8674,
      "Ġmarried": 8675,
      "Ġchemical": 8676,
      "Ġsubstant": 8677,
      "1996": 8678,
      "har": 8679,
      "Ġarbit": 8680,
      "illy": 8681,
      "]:": 8682,
      "Ġrom": 8683,
      "ĠSource": 8684,
      "Ġreaders": 8685,
      "ean": 8686,
      "Database": 8687,
      "agers": 8688,
      "Ġpartial": 8689,
      "Ġcompre": 8690,
      "Ġtrav": 8691,
      "irms": 8692,
      "ĠRam": 8693,
      "issue": 8694,
      "inher": 8695,
      ".__": 8696,
      "Ġ[];": 8697,
      "Adapter": 8698,
      "ollowing": 8699,
      "icious": 8700,
      "Play": 8701,
      "month": 8702,
      "Ġstudied": 8703,
      "Ġton": 8704,
      "ĠĠĠĠĠĠĠĠĠĠĠĠĠĠĠĠĠĠĠĠĠĠ": 8705,
      "ĠIss": 8706,
      "Ġzone": 8707,
      "Â°": 8708,
      "âĢĻ,": 8709,
      "Ġhousing": 8710,
      "ĠHon": 8711,
      "utf": 8712,
      "engine": 8713,
      "Ġinvestors": 8714,
      "Ġindicate": 8715,
      "configuration": 8716,
      "Ġ{'": 8717,
      "ĠFoot": 8718,
      "Ġ$(\\": 8719,
      "Ġinvalid": 8720,
      "itage": 8721,
      "Abstract": 8722,
      "Ġreceiving": 8723,
      "stances": 8724,
      "ĠUsing": 8725,
      "ĠArmy": 8726,
      "Ġlose": 8727,
      "Ġtherapy": 8728,
      "printf": 8729,
      "Ġ&\\": 8730,
      "iterator": 8731,
      "Attributes": 8732,
      "endor": 8733,
      "shift": 8734,
      "uilt": 8735,
      "ĠResource": 8736,
      "Ġappearance": 8737,
      "Panel": 8738,
      "Report": 8739,
      "typedef": 8740,
      "Constr": 8741,
      "Ġspecifically": 8742,
      "Ġinspired": 8743,
      "BP": 8744,
      "Ġfilled": 8745,
      "ĠGets": 8746,
      "logger": 8747,
      "AF": 8748,
      "ses": 8749,
      "ician": 8750,
      "Ġfunc": 8751,
      "Ġvary": 8752,
      "Ġvulner": 8753,
      "Ġuniversity": 8754,
      "Ġvillage": 8755,
      "Inv": 8756,
      "Ġcontinuous": 8757,
      "Ġfamiliar": 8758,
      "enger": 8759,
      "Public": 8760,
      "lg": 8761,
      "Ġassets": 8762,
      "Matrix": 8763,
      "Ġpatterns": 8764,
      "ĠVictor": 8765,
      "each": 8766,
      "ĠPhoto": 8767,
      "Ġsupposed": 8768,
      "ĠTR": 8769,
      "picker": 8770,
      "Ġnuclear": 8771,
      "Engine": 8772,
      "Ġmoments": 8773,
      "dimensional": 8774,
      "\"`": 8775,
      "Ġadvoc": 8776,
      "wan": 8777,
      "Runtime": 8778,
      "Ġoperators": 8779,
      "Ġmodified": 8780,
      "Ġsnow": 8781,
      "Ġevaluation": 8782,
      "Ġcos": 8783,
      "CN": 8784,
      "LP": 8785,
      "Ġinn": 8786,
      "lights": 8787,
      "Ġprev": 8788,
      "Ġvertical": 8789,
      "umes": 8790,
      "Ġconven": 8791,
      "ĠSoftware": 8792,
      "Ġreviews": 8793,
      "Ġcoe": 8794,
      "FIG": 8795,
      "Ġfn": 8796,
      "defined": 8797,
      "Ġcref": 8798,
      "Ġfee": 8799,
      "Ġnavigation": 8800,
      "Ġoptional": 8801,
      "IND": 8802,
      "safe": 8803,
      "opl": 8804,
      "ĠLemma": 8805,
      "ultural": 8806,
      "Please": 8807,
      "iro": 8808,
      "Ġmedium": 8809,
      "assertEqual": 8810,
      "ĠKar": 8811,
      "Ġwinter": 8812,
      "horizontal": 8813,
      "plus": 8814,
      "ben": 8815,
      "Ġefficiency": 8816,
      "Ġfat": 8817,
      "ĠFilm": 8818,
      "Ġproud": 8819,
      "ĠPhot": 8820,
      "Ġrough": 8821,
      "ĠFrancisco": 8822,
      "bserv": 8823,
      "uous": 8824,
      "ĠFar": 8825,
      "Rest": 8826,
      "Ġedition": 8827,
      "proto": 8828,
      "SY": 8829,
      "Ġhearing": 8830,
      "Ġdiscovered": 8831,
      "Ġaf": 8832,
      "}\\\\": 8833,
      "parser": 8834,
      "ACT": 8835,
      "Ġfindings": 8836,
      "inet": 8837,
      "Layer": 8838,
      "Ġfre": 8839,
      "Ġsuggests": 8840,
      "Ġabstract": 8841,
      "NavBarCell": 8842,
      "Ġversions": 8843,
      "Ġstored": 8844,
      "reset": 8845,
      "total": 8846,
      "Ġprocedure": 8847,
      "READ": 8848,
      "important": 8849,
      "Ġment": 8850,
      "ĠLuc": 8851,
      "Ġ×": 8852,
      "leted": 8853,
      "Ġtruck": 8854,
      "Ġsudden": 8855,
      "Ġideal": 8856,
      "Ġaccounts": 8857,
      "++;": 8858,
      "ÙĦ": 8859,
      "ĠJackson": 8860,
      "Ġhousehold": 8861,
      "ĠConfig": 8862,
      "Prop": 8863,
      "Ġcontribution": 8864,
      "Ġlived": 8865,
      "lymp": 8866,
      "ĠIran": 8867,
      "generated": 8868,
      "Ġchannels": 8869,
      "Ġreplaced": 8870,
      "Ġexit": 8871,
      "ĠTrust": 8872,
      "Ġring": 8873,
      "ĠFind": 8874,
      "lets": 8875,
      "ĠHas": 8876,
      "dem": 8877,
      "Ġtested": 8878,
      "Ġjustice": 8879,
      "XML": 8880,
      "Ġ(_": 8881,
      "Ġelim": 8882,
      "ĠFOR": 8883,
      "Ġng": 8884,
      "Ġhotel": 8885,
      "%.": 8886,
      "Ġchair": 8887,
      "ĠObama": 8888,
      "cred": 8889,
      "Events": 8890,
      "ï»": 8891,
      "prene": 8892,
      "iser": 8893,
      ".~": 8894,
      "oster": 8895,
      "Ġcauses": 8896,
      "Ġmir": 8897,
      "ĠStory": 8898,
      "switch": 8899,
      "hensive": 8900,
      "pan": 8901,
      "ĠĠĠĠĠĠĠĠĠĠĠĠĠĠĠĠĠĠĠĠĠĠĠĠĠĠĠĠĠĠĠĠĠĠĠĠĠĠĠĠĠĠĠĠĠĠĠĠĠĠĠĠĠĠĠĠĠĠĠĠĠĠĠĠ": 8902,
      "Lim": 8903,
      "ĠHarr": 8904,
      "Elements": 8905,
      "ĠPA": 8906,
      "watch": 8907,
      "iples": 8908,
      "Ġmechanism": 8909,
      "Ġformation": 8910,
      "Ġrepresented": 8911,
      "tmp": 8912,
      "ĠJac": 8913,
      "mann": 8914,
      "Ġofficers": 8915,
      "OM": 8916,
      "Auto": 8917,
      "ãĢ": 8918,
      "Ġdebug": 8919,
      "ĠExpl": 8920,
      "ĠOnce": 8921,
      "Ġconversation": 8922,
      "dist": 8923,
      "Ġsummary": 8924,
      "Ġaspects": 8925,
      "Ġdepending": 8926,
      "Ġconnections": 8927,
      "Ġpossibly": 8928,
      "'])": 8929,
      "Ġexperimental": 8930,
      "Ġpun": 8931,
      "Ġio": 8932,
      "forcement": 8933,
      "MOD": 8934,
      "Loader": 8935,
      "Ġthick": 8936,
      "Ġbringing": 8937,
      "IMP": 8938,
      "Enum": 8939,
      "ĠRest": 8940,
      "ĠBeach": 8941,
      "\\'": 8942,
      "ĠMichigan": 8943,
      "ĠMP": 8944,
      "ĠMaster": 8945,
      "Ġconsumers": 8946,
      "etes": 8947,
      "trigger": 8948,
      "ToString": 8949,
      "Ġexistence": 8950,
      "Ġscientific": 8951,
      "Func": 8952,
      "Î¿": 8953,
      "INS": 8954,
      "channel": 8955,
      "awa": 8956,
      "Ġleague": 8957,
      "Ġcentre": 8958,
      "Ġisland": 8959,
      "echo": 8960,
      "ĠRepublican": 8961,
      "sche": 8962,
      "Ġbinary": 8963,
      "=(": 8964,
      "ĠĠĠĊ": 8965,
      "Ġderived": 8966,
      "mond": 8967,
      "Ġdelivered": 8968,
      "ĠTaylor": 8969,
      "!\"": 8970,
      "ĠCross": 8971,
      "Ġschedule": 8972,
      "reprene": 8973,
      "ĠOrder": 8974,
      "blog": 8975,
      "Ġswe": 8976,
      "stein": 8977,
      "ĠInitial": 8978,
      "ITE": 8979,
      "tabs": 8980,
      "idential": 8981,
      "hidden": 8982,
      "ĠCollection": 8983,
      "LECT": 8984,
      "Ġterror": 8985,
      "Ġstable": 8986,
      "Ġran": 8987,
      "Ġmagnetic": 8988,
      "blue": 8989,
      "rize": 8990,
      "1995": 8991,
      "Ġbranch": 8992,
      "metadata": 8993,
      "Ġaccepted": 8994,
      "Ġseat": 8995,
      "Ġimplements": 8996,
      "Ġspending": 8997,
      "âĢĻ.": 8998,
      "Ġspan": 8999,
      "ĠBang": 9000,
      "ĠKh": 9001,
      "ĠJes": 9002,
      "chor": 9003,
      "inity": 9004,
      "Ġcloser": 9005,
      "SER": 9006,
      "Ġgene": 9007,
      "Ġfellow": 9008,
      "Ġtum": 9009,
      "Ġmel": 9010,
      "UTF": 9011,
      "ador": 9012,
      "ĠMiddle": 9013,
      "Ġcapture": 9014,
      "subs": 9015,
      "ĠProduct": 9016,
      "ULE": 9017,
      "izable": 9018,
      "Ġindeed": 9019,
      "Ġdialog": 9020,
      "Ġentered": 9021,
      "Ġsand": 9022,
      "Ġimplies": 9023,
      "Your": 9024,
      "Many": 9025,
      "Ġtranslate": 9026,
      "Ġmusical": 9027,
      "101": 9028,
      "Ġcontroller": 9029,
      "Ġminute": 9030,
      "wild": 9031,
      "avid": 9032,
      "IPT": 9033,
      "ĠEV": 9034,
      "utch": 9035,
      "Ġ=========": 9036,
      "children": 9037,
      "Ġreq": 9038,
      "norm": 9039,
      "izz": 9040,
      "Ġfeedback": 9041,
      "Ġaccident": 9042,
      "Cap": 9043,
      "cert": 9044,
      "Ġrecovery": 9045,
      "Ġmort": 9046,
      "Ġincident": 9047,
      "ĠTw": 9048,
      "ĠItaly": 9049,
      "ĠProfessor": 9050,
      "Ġreaction": 9051,
      "Ġmetric": 9052,
      "ĠBoston": 9053,
      "Ġimplemented": 9054,
      "Ġsigns": 9055,
      "Ġwelcome": 9056,
      "Ġfactory": 9057,
      "Scroll": 9058,
      "ĠÂ·": 9059,
      "Ġreligious": 9060,
      "Watch": 9061,
      "ĠTODO": 9062,
      "ĠGirl": 9063,
      "Ġworse": 9064,
      "Ġcalc": 9065,
      "Ġcorporate": 9066,
      "Ġfaster": 9067,
      "qquad": 9068,
      "omial": 9069,
      "tons": 9070,
      "Ġongoing": 9071,
      "elly": 9072,
      "GA": 9073,
      "Plugin": 9074,
      "Ġmand": 9075,
      "ifts": 9076,
      "Ġ\"\"": 9077,
      "Ġarchitecture": 9078,
      "Ġbroadcast": 9079,
      "Ġapps": 9080,
      "Well": 9081,
      "Ġapart": 9082,
      "ĠCase": 9083,
      ">:": 9084,
      "mask": 9085,
      "ĠChildren": 9086,
      "Ġcollaboration": 9087,
      "ione": 9088,
      "Ġsuggested": 9089,
      "Ġduration": 9090,
      "ĠRen": 9091,
      "ran": 9092,
      "Ġgap": 9093,
      "ulf": 9094,
      "=-": 9095,
      "handler": 9096,
      "|^": 9097,
      "ountry": 9098,
      "apply": 9099,
      "Mapping": 9100,
      "ĠCovid": 9101,
      "ĠMid": 9102,
      "ĠBlock": 9103,
      "Ġtight": 9104,
      "ĠScot": 9105,
      "Ġentirely": 9106,
      "Ġdiverse": 9107,
      "ĠMic": 9108,
      "Pointer": 9109,
      "Ġpassing": 9110,
      "aturing": 9111,
      "inson": 9112,
      "fail": 9113,
      "components": 9114,
      "Sw": 9115,
      "xspace": 9116,
      "Ġusual": 9117,
      "ĠKingdom": 9118,
      "ĠComput": 9119,
      "pressed": 9120,
      "Ġexplan": 9121,
      "Ġregional": 9122,
      "Ġcert": 9123,
      "approx": 9124,
      "razil": 9125,
      "ĠWhere": 9126,
      "Ġstopped": 9127,
      "Ġfinds": 9128,
      "bytes": 9129,
      "ĠAgain": 9130,
      "Ġbench": 9131,
      "ï»¿": 9132,
      "Ġsoul": 9133,
      "isted": 9134,
      "ĠTele": 9135,
      "Ġconsists": 9136,
      "Ġrecall": 9137,
      "Ġassessment": 9138,
      "Ġdiss": 9139,
      "details": 9140,
      "ez": 9141,
      "Ġmatching": 9142,
      "ĠDivision": 9143,
      "Ġroles": 9144,
      "Duration": 9145,
      "History": 9146,
      "Ġpriv": 9147,
      "Ġtransformation": 9148,
      "Ġdestination": 9149,
      "Ġvolunte": 9150,
      "->_": 9151,
      "anna": 9152,
      "Ġdemocr": 9153,
      "Space": 9154,
      "yntax": 9155,
      "limit": 9156,
      "OUT": 9157,
      "[$": 9158,
      "Ġstatements": 9159,
      "bridge": 9160,
      "mic": 9161,
      "ĠEngineering": 9162,
      "Constants": 9163,
      "ĠWat": 9164,
      "parameters": 9165,
      "Ġ\"<": 9166,
      "Ġvictory": 9167,
      "Common": 9168,
      "Ġinstitutions": 9169,
      "anner": 9170,
      "ansas": 9171,
      "Opt": 9172,
      "mi": 9173,
      "Memory": 9174,
      "Ġrestaurant": 9175,
      "Fix": 9176,
      "called": 9177,
      "NULL": 9178,
      "Ġfunctional": 9179,
      "Ġcalculated": 9180,
      "Ġwa": 9181,
      "Ġasync": 9182,
      "Ġaxis": 9183,
      "forward": 9184,
      "References": 9185,
      "ourse": 9186,
      "Ġteaching": 9187,
      "Free": 9188,
      "Ġfigures": 9189,
      "Ġliqu": 9190,
      "fortunately": 9191,
      "Ġcompliance": 9192,
      "STAT": 9193,
      "Ġachieved": 9194,
      "Make": 9195,
      "ĠLabor": 9196,
      "ĠFac": 9197,
      "Ġindicates": 9198,
      "ĠSep": 9199,
      "Ġrepeated": 9200,
      "Details": 9201,
      "Ġusage": 9202,
      "Video": 9203,
      "Ġhonest": 9204,
      "amental": 9205,
      "}'": 9206,
      "Ġmess": 9207,
      "001": 9208,
      "USE": 9209,
      "exists": 9210,
      "Ġguard": 9211,
      "mutable": 9212,
      "Ġlit": 9213,
      "ĠPrivacy": 9214,
      "external": 9215,
      "Browser": 9216,
      "oral": 9217,
      "Ġbuildings": 9218,
      "Ġorders": 9219,
      "platform": 9220,
      "Ġsustainable": 9221,
      "tain": 9222,
      "Ġped": 9223,
      "idx": 9224,
      "Ġtalent": 9225,
      "FR": 9226,
      "tenance": 9227,
      "Ġscal": 9228,
      "Ġposts": 9229,
      "Ġasking": 9230,
      "role": 9231,
      "itan": 9232,
      "Statement": 9233,
      "ĠFuture": 9234,
      "ĠGar": 9235,
      "osophy": 9236,
      "Ġalert": 9237,
      "}\\,": 9238,
      "nil": 9239,
      "Ġneut": 9240,
      "Ġpromise": 9241,
      "ierarch": 9242,
      "Ġrenew": 9243,
      "Ġinnovation": 9244,
      "Ġwear": 9245,
      "ĠItalian": 9246,
      "Ġconflict": 9247,
      "dp": 9248,
      "isa": 9249,
      "Ġparser": 9250,
      "Ġthoughts": 9251,
      "ĠNick": 9252,
      "Ġdance": 9253,
      "Ġputting": 9254,
      "green": 9255,
      "Scale": 9256,
      "Ġstudio": 9257,
      "apore": 9258,
      "ĠEnt": 9259,
      "Ġgar": 9260,
      "abeth": 9261,
      "ĉĉĉĉĉĉĉĉĉ": 9262,
      "ĠPH": 9263,
      "Ġdirected": 9264,
      "Email": 9265,
      "ĠBE": 9266,
      "ĠPrem": 9267,
      "Ġworst": 9268,
      "Ġoutcomes": 9269,
      "report": 9270,
      "Ġexciting": 9271,
      "protected": 9272,
      "ĠIII": 9273,
      "uma": 9274,
      "Under": 9275,
      "1980": 9276,
      "Ġtypical": 9277,
      "%%%%": 9278,
      "NC": 9279,
      "Success": 9280,
      "odd": 9281,
      "Ġtwice": 9282,
      "Ġenhance": 9283,
      "Ġrecip": 9284,
      "random": 9285,
      "zero": 9286,
      "sol": 9287,
      "Ġcle": 9288,
      "}^{(": 9289,
      "_(": 9290,
      "Ġxmlns": 9291,
      "ĠYes": 9292,
      "ĠMessage": 9293,
      "gorithms": 9294,
      "ruby": 9295,
      "Ġactor": 9296,
      "Mut": 9297,
      "Ġrecru": 9298,
      "Profile": 9299,
      "Ġwilling": 9300,
      "builder": 9301,
      "depth": 9302,
      "Ġsac": 9303,
      "Ġkit": 9304,
      "Ġ(-": 9305,
      "ĠCancer": 9306,
      "Ġking": 9307,
      "ĠYouTube": 9308,
      "browser": 9309,
      "Ġequations": 9310,
      "Cre": 9311,
      "dependent": 9312,
      "Ġfighting": 9313,
      "ĠĠĠĠĠĠĠĠĠĠĠĠĠĠĠĠĠĠĠĠĠĠĠĠĠĠĠĠĠĠĠĠĠĠĠĠĠĠĠĠĠĠĠ": 9314,
      "roduction": 9315,
      "Sync": 9316,
      "Ġdeaths": 9317,
      "contains": 9318,
      "Ġbroken": 9319,
      "ĠNFL": 9320,
      "bell": 9321,
      "Ġcontained": 9322,
      "Ġamb": 9323,
      "Ġteacher": 9324,
      "ĠPacific": 9325,
      "Ġaccurate": 9326,
      "ĠSpanish": 9327,
      "{{\\": 9328,
      "lyn": 9329,
      "Ġbow": 9330,
      "ĠWAR": 9331,
      "Ġdomin": 9332,
      "hemat": 9333,
      "je": 9334,
      "low": 9335,
      "Ġexposure": 9336,
      "ĠWrit": 9337,
      "ĠUI": 9338,
      "Ġexecution": 9339,
      "Ġcharges": 9340,
      "hspace": 9341,
      "ĠRegister": 9342,
      "igate": 9343,
      "RES": 9344,
      "Keys": 9345,
      "Ġpromote": 9346,
      "iano": 9347,
      "VALUE": 9348,
      "Ġwarning": 9349,
      "getName": 9350,
      "Ġdecade": 9351,
      "Ġappend": 9352,
      "Ġthreshold": 9353,
      "Ġprospect": 9354,
      "when": 9355,
      "otted": 9356,
      "ÏĦ": 9357,
      "âĢĭ": 9358,
      "Ġadults": 9359,
      "Ġcompute": 9360,
      "PORT": 9361,
      "Ġinterests": 9362,
      "Ġcontrols": 9363,
      "tributed": 9364,
      "Ġcoff": 9365,
      "Ġoriginally": 9366,
      "Ġresponsibility": 9367,
      "conn": 9368,
      "istical": 9369,
      "identifier": 9370,
      "Ġ$.": 9371,
      "stone": 9372,
      "BUG": 9373,
      "ĠRight": 9374,
      "Ġshooting": 9375,
      "oked": 9376,
      "Ġangle": 9377,
      "ruption": 9378,
      "uable": 9379,
      "ĠIL": 9380,
      "arity": 9381,
      "Ġdynamics": 9382,
      "Ġtx": 9383,
      "<!": 9384,
      "ervative": 9385,
      "aze": 9386,
      "ĠPO": 9387,
      "Ġsides": 9388,
      "Ġentertain": 9389,
      "ĠCS": 9390,
      "tags": 9391,
      "vin": 9392,
      "ĠIOException": 9393,
      "Ġtor": 9394,
      "âĤ¬": 9395,
      "cher": 9396,
      "Ġdict": 9397,
      "hide": 9398,
      "åı": 9399,
      "Ġtargets": 9400,
      "Ġextent": 9401,
      "QU": 9402,
      "Attr": 9403,
      "ĠBooks": 9404,
      "Parse": 9405,
      "wrapper": 9406,
      "Join": 9407,
      "ussian": 9408,
      "ila": 9409,
      "ĠSat": 9410,
      "ums": 9411,
      "Ġsymptoms": 9412,
      "Ġpregn": 9413,
      "Ġverify": 9414,
      "Ġbrands": 9415,
      "Ġremark": 9416,
      "CRE": 9417,
      "ADD": 9418,
      "ĠScholar": 9419,
      "TT": 9420,
      "Ġdegrees": 9421,
      "Ġintent": 9422,
      "dialog": 9423,
      "Ġwealth": 9424,
      "Total": 9425,
      "Ġcraft": 9426,
      "headers": 9427,
      "provider": 9428,
      "Seg": 9429,
      "ĠEditor": 9430,
      "Â®": 9431,
      "ĠSi": 9432,
      "ĠCost": 9433,
      "Ġvelocity": 9434,
      "Ġextend": 9435,
      "Ġlinked": 9436,
      "holders": 9437,
      "erves": 9438,
      "achment": 9439,
      "ĠEr": 9440,
      "navList": 9441,
      "filename": 9442,
      "]$": 9443,
      "ĠJr": 9444,
      "Ġagents": 9445,
      "Ġneighborhood": 9446,
      "Ġfavour": 9447,
      "Ġinstrument": 9448,
      "=\"$": 9449,
      "ongs": 9450,
      "ĠIl": 9451,
      "Ġwaste": 9452,
      "Ġwest": 9453,
      "1970": 9454,
      "Dest": 9455,
      "Ġlimits": 9456,
      "Ġcart": 9457,
      "Fin": 9458,
      "------------": 9459,
      "LINE": 9460,
      "ycl": 9461,
      "ĠHash": 9462,
      "Category": 9463,
      "ĠGa": 9464,
      "enumerate": 9465,
      "Ġfrag": 9466,
      "shadow": 9467,
      "Day": 9468,
      "Ġdocumentation": 9469,
      ";)": 9470,
      "ipl": 9471,
      "ima": 9472,
      "Ġsuc": 9473,
      "^+": 9474,
      "osa": 9475,
      "Subs": 9476,
      "ĠSea": 9477,
      "ĠJoseph": 9478,
      ":\\": 9479,
      "Ġaircraft": 9480,
      "Ġcurve": 9481,
      "Ð´": 9482,
      "Ġbelief": 9483,
      "Who": 9484,
      "you": 9485,
      "Ġcharacteristics": 9486,
      "Wrapper": 9487,
      "Ġteachers": 9488,
      "flix": 9489,
      "JS": 9490,
      "wall": 9491,
      "iat": 9492,
      "Failed": 9493,
      "Ġunderlying": 9494,
      "Ġgreatest": 9495,
      "Ġplenty": 9496,
      "onto": 9497,
      "ĠChampionship": 9498,
      "prefix": 9499,
      "onymous": 9500,
      "Ġcategories": 9501,
      "Ġstorm": 9502,
      "ĠSteve": 9503,
      "&=": 9504,
[...]
