#version: 0.2
Ġ Ġ
Ġ t
i n
ĠĠ ĠĠ
h e
Ġ a
o n
e r
r e
a t
Ġt he
e n
o r
Ġ s
a l
e s
i t
i s
a n
Ġ c
a r
Ġ o
i on
Ġ w
e d
Ġ f
l e
Ġ p
in g
Ġ b
n d
i c
r o
Ġ in
Ġo f
a s
ĠĠ Ġ
ĠĠĠĠ ĠĠĠĠ
Ġ d
Ġ m
e t
o u
c t
Ġa nd
Ġt o
en t
e l
s t
Ġ \
a m
i l
o m
Ġ h
Ġt h
Ġ $
Ġ re
i g
Ġ n
at ion
i m
a c
i d
o l
o t
Ġ (
Ġ e
Ġ S
Ġ l
Ġ T
u t
u r
i v
s e
Ġ is
Ġ C
Ġ A
a d
u l
Ġ g
ĠĠĠĠ ĠĠĠ
c e
Ġf or
o w
â Ģ
o d
Ġ =
Ġ I
a y
l y
i f
a g
a b
Ġ on
e m
t r
Ġ M
c h
u s
v er
u n
u m
q u
{ \
t er
Ġb e
it h
ĉ ĉ
č Ċ
a p
< /
i r
Ġ P
Ġth at
Ġc on
at e
Ġ B
Ġ v
= "
p e
h t
t h
Ġs t
2 0
Ġa s
en d
ct ion
a v
Ġw ith
e x
) ;
es t
er s
- -
o c
Ġ R
Ġ F
re s
Ġ D
Ġ <
Ġa l
Ġ H
at h
he r
Ġ {
an d
Ġa n
Ġp ro
u p
_ {
as s
is t
Ġ L
e w
o p
es s
e g
a in
ĠT he
u b
o s
Ġ W
Ġ N
ĠĠĠĠĠĠĠĠ ĠĠĠ
Ġ it
it y
Ġw h
Ġ$ \
ou r
Ġb y
Ġe x
p t
/ /
Ġ G
o re
am e
ro m
Ġd e
ig ht
Ġ &
Ġ E
or t
Ġ r
Ġc om
p l
r i
ar t
Ġa t
Ġ *
in e
u re
Ġ y
il l
Ġa re
m ath
u e
e ct
Ġc l
ag e
al l
Ġ "
a k
i es
Ġw as
Ġ }
Ġ or
Ġw e
re f
m ent
i al
iv e
Ġth is
an t
1 9
Ġ Ċ
âĢ Ļ
Ġ he
Ġf rom
Ġs e
ex t
i z
o g
" >
l d
g e
n t
Ġ O
u d
c l
ac k
. .
it e
ul t
i b
ĠĠĠĠĠĠĠĠ ĠĠĠĠĠĠĠĠ
} \
Ġ J
p er
Ġt r
an s
} $
^ {
c on
p h
p ort
or m
T he
a ct
e f
Ġs h
ĠĠĠĠ Ġ
0 0
av e
ab le
ur n
Ġn ot
el l
Ġc h
u st
s p
u nd
m a
in t
b er
i p
ar d
( )
Ġ -
at ed
20 1
o v
a re
ar y
Ġ k
Ġ U
ic h
f t
ig n
f f
Ġ le
it ion
Ġcl ass
ac e
ic al
Ġ if
Ġ âĢ
in d
p ro
e p
as t
* *
as e
ou t
} }
c om
o st
f r
( \
' s
an g
od e
or d
t o
u g
i re
im e
y pe
Ġc an
t ext
Ġcom p
en s
Ġh ave
Ġ K
id e
Ġ us
) ,
t urn
eg in
on g
g et
t a
st r
I n
b egin
c al
= =
ĠI n
o k
en ce
i a
Ġp l
i le
or k
Ġ '
-- --
ation s
ic e
Ġw he
) .
Ġal l
Ġre s
c c
ou ld
at a
l i
il d
ion s
Ġ j
_ {\
) $
e qu
f orm
Ġ V
an ce
e y
e c
Ġwh ich
Ġa b
er v
Ġ im
Ġh as
Ġy ou
e ar
j ect
Ġ un
t her
d u
} ,
Ġa d
Ġd is
ub l
ĠĠĠĠĠĠĠĠ ĠĠĠĠĠĠĠ
Ġa p
} {
ac h
u se
ro w
s o
ou s
ab el
en er
un ction
e v
r a
or y
f ig
e q
Ġ +
Ġa r
Ġ [
o b
r ight
ĠS t
fr ac
1 0
Ġn ew
en c
ĠT h
res s
ent s
al ue
f er
i an
Ġs tr
et a
Ġre turn
Ġh is
c ite
o ver
ow n
i k
Ġcon t
om e
ol l
Ġw ill
on e
l l
c ri
oc k
p le
er t
t he
ubl ic
ĉĉ ĉĉ
er e
Ġ //
Ġon e
ou nd
Ġb ut
math b
Ġm e
our ce
Ġ </
Ġo ut
s et
.. /
: :
o se
ar am
Ġ |
l abel
re e
or s
u al
Ġd o
C on
r m
p s
ol d
ar k
- >
20 0
ĠC h
el y
Ġs p
ir st
Ġ up
iz e
Ġs u
er m
in k
el f
Ġ qu
Ġp art
cl ud
ul l
âĢ Ŀ
ic t
Ġo b
ter n
Ġe v
pe ct
i el
c he
Ġm od
S t
o ok
s um
Ġal so
at es
r y
w e
$ ,
Ġthe ir
, \
w o
$ .
Ġs et
r ap
ou nt
t e
le ft
Ġde f
Ġ @
" ,
i ew
Ġ ro
ic s
is h
d iv
math cal
et h
pt ion
Ġp r
y st
iel d
ak e
ic k
Ġf unction
Ġ /
in al
p ut
} .
s s
Ġw ere
o int
Ġm ore
l ine
Ġ Y
r ay
Ġin t
equ ation
m l
c k
Ġp er
c re
} )
Ġp re
le ct
Ġthe y
ar i
a il
m er
Ġo ther
r it
Ġs o
ing s
( "
ess age
s h
Ġo ver
E x
1 2
Ġ en
Ġit s
yst em
Ġm an
i x
} (
~ \
1 8
p r
Ġt ime
( );
Ġg et
Ġn e
Ġa g
Ġin ter
} ^
pe c
sp an
> </
ro up
m b
' ,
} _
Ġ .
Ġ ver
am b
um ber
o ol
ul ar
l es
Ġd es
Ġf irst
Ġt wo
Ġwh o
p os
o od
ĠI t
Ġw ork
n g
n e
on d
a x
a w
> <
ph a
tr ib
o f
Ġbe en
im es
c ent
er r
at or
Ġan y
Ġp ublic
Ġ her
ap p
ut ion
tr ing
ĠâĢ ľ
is s
t y
at er
ay s
f ter
Ġ :
Ġwhe n
---- ----
al pha
Ġo ur
d a
../ ../
i e
h at
Ġab out
Ġthe re
i ed
rap h
Ġn ame
ig h
Ġh ad
u ct
Ġt e
ĠW e
s ub
oll ow
at ive
v el
on s
) \
if ic
ov e
Ġres ult
Ġon ly
ĠU n
y s
Ġb et
Ġs up
Ġth an
$ \
he d
r am
l o
Ġd if
ation al
1 1
Ġs ub
E R
Ġd ata
P ro
Ġ und
Ġin to
ro und
i ent
n ame
an ge
v e
o x
Ġtr ans
Ġs ome
ar g
Ġwhe re
el ta
ou g
ĠTh is
ĉĉ ĉ
== ==
an c
Ġ* /
ĠH e
i o
Ġy ear
is e
m s
) )
amb da
Ġad d
ĠâĢ ĵ
ht ml
id th
o id
c ol
ĠĠĠĠĠĠĠĠ Ġ
l ation
Ġl ine
an n
eth od
ĠĠĠĠĠĠĠĠ ĠĠĠĠĠĠĠĠĠĠĠ
Ġre g
o ot
ik e
ug h
at ing
Ġin d
Ġw ould
on t
Ġcom m
Ġs c
Ġf ollow
** **
Ġa cc
ou n
Ġcon s
u es
Ġn o
Ġ i
Ġh ref
as ed
Ġmod el
mathb b
Ġp os
Ġ #
1 6
Ġk n
Ġc ol
Ġb l
Ġsu ch
res ent
O N
( '
le t
1 5
_ \
le ment
Ġ\ \
tr ans
am ma
Ġthe n
Ġp e
s ource
en g
ad e
t ain
al s
at ic
Ġv alue
th is
= \
y n
Ġt ype
il ity
ur re
at ch
t d
Ġfor m
al ly
Ġof f
d ot
m essage
I N
Ġsh ow
cri pt
ut e
ar ch
ol og
op le
} _{
Ġ use
d er
d ef
Ġs im
m u
Ġre l
T h
Ġas s
id ent
ar s
Ġg ener
u res
} ^{
it s
N ame
ig ma
Ġf e
Ġ end
Ġp h
Ġund er
Ġa ct
u ild
id er
Ġpl ay
it ies
ib le
em ber
b ar
: //
Ġf l
Ġin clud
eg a
am es
n ing
Ġdif fer
Ġ= >
we en
Ġs he
a id
t t
s c
d d
_ _
ow er
o y
Ġc or
w ard
c ess
W e
con d
in ce
- \
Ġc o
h o
b le
T ype
ot h
as h
al se
Ġin v
ĠC om
Ġpro v
em ent
in ed
Ġy our
I d
Ġre qu
re d
at ure
im port
ĠP ro
m in
ĠS e
p aram
1 3
t on
Ġl oc
am p
Ġo p
ph i
Ġ| |
Ġcon st
ic es
b r
Ġus ed
^ {\
se ction
it em
Ġthe se
Ġthe m
1 4
Ġg o
Ġbet ween
Ġm ay
R E
pl ic
c ed
al ign
c ode
Ġ x
it ed
S T
Ġre c
mathb f
n er
an k
Ġb ack
i ous
Ġc ase
n ot
.. .
ire ct
Ġs ystem
Ġe qu
l ambda
ro ugh
Ġe ach
Ġa fter
S tring
# #
e ad
er y
l and
a use
19 9
1 7
p art
Ġp ol
Ġre m
C om
\ !
Ġ el
a ir
iv ers
p i
Ġs pec
2 5
ĠA r
Ġl ike
Ġg iv
t s
re ad
ction s
Ġf il
t ing
re turn
/ >
Ġp oint
Ġn umber
b f
Ġs elf
or ld
R es
in s
Ġc all
ĠN ew
urre nt
Ġst ud
Ġe ff
Ġ ent
Ġ {\
iz ed
A T
v ar
ist s
il y
ag es
ut h
Ġs m
m od
Ġv al
Ġm ost
oug h
ab l
Ġin st
Ġe ver
Ġ `
Ġpro du
Ġh ow
enc es
Ġpe ople
re at
Ġa m
C h
ur ing
cl ass
he re
i er
ad d
ht t
ĠA l
p on
f l
a ult
ac he
r ic
in es
as k
v ent
ap t
il on
Ġbe c
b l
Ġj ust
" />
Ġa c
ĠF or
am ple
3 0
Ġ Q
Ġg r
y m
s on
Ġwh at
r al
âĢ ĵ
Ġ --
Ġth rough
trans lation
f or
Ġc re
Ġch ar
Ġw ell
s igma
\ \
Ġs aid
C l
Ġ >
t ype
Ġs ol
s ion
Ġ !
Ġs ign
Ġm y
b e
s erv
y le
Ġse e
b eta
Ġ _
ment s
Ġus ing
} {\
p ar
iz ation
p ress
it le
um ent
L ist
ang le
Ġv ari
Ġne ed
v al
ce ption
Ġdiffer ent
w idth
w n
ild e
ep s
aram et
e ver
^{ -
A R
u le
he n
is hed
ar ray
ot e
ĠT r
Ġs ame
g y
Ġt est
m an
l oc
Ġ( \
mer ic
I t
form ation
math rm
* }
Ġs erv
o le
) :
v iew
b ack
w ork
u ch
A r
O R
Ġap pro
f o
y p
Ġh im
re n
or g
Ġre p
Ġ )
Ġat t
s elf
Ġo per
w w
ĠS h
Ġ Z
is ion
Ġ err
oc i
f ul
as on
Ġ= =
or n
] {
+ \
s er
an y
e e
Ġm on
ical ly
eng th
et s
Ġf ield
iv ate
Ġ est
p re
Ġm in
Ġm ethod
c es
ĠA s
Ġn ull
Ġc ould
l og
Ġor g
Ġsh ould
L E
g amma
fig ure
Ġb r
ĠC on
Ġe m
is m
Ġag ain
Ġ X
Ġst ate
Ġtr ue
ĠC l
Ġs ur
Ġn on
T r
Ġn ow
Ġst art
Ġh igh
2 2
Ġ ed
c o
' t
ĠĠĠĠĠĠĠĠĠĠĠĠĠĠĠĠ ĠĠĠĠĠĠĠĠĠĠĠĠĠĠĠĠ
^ \
Ġg roup
a h
00 0
Ġm at
Ġb oth
5 0
if e
Ġex t
iv er
Ġever y
Ġf inal
ire d
od y
"> <
le ction
er n
) }
ch ool
I D
T o
a z
Ġpart ic
ce pt
Ġf alse
Ġl ong
ĠA n
um n
Ġr ight
Ġs er
u c
tr y
the ta
Ġv ar
us s
t ed
f ore
t en
Ġwh ile
le q
S S
d elta
R ef
Ġv oid
Ġd et
Ġgiv en
b y
Ġyear s
Ġf ound
Ġf act
m e
ar get
c dot
r ho
2 4
E N
h ip
eq ref
Ġ z
ĠĠĠĠĠĠĠĠ ĠĠĠĠĠ
as es
ot her
in clud
ak ing
2 1
tern al
Ġdo es
per ty
enc y
r r
Ġbe ing
$ -
Ġor der
Ġd r
ĠE x
Ġde c
n ew
ers on
ta u
ĠĠĠĠ ĠĠ
Ġre ad
Ġper form
b ig
w ay
A L
Ġdis c
p m
e k
el s
}$ ,
Ġt erm
ent ial
o h
Ġc ent
g er
if y
str ing
ant s
a ction
Ġman y
}$ .
Ġfollow ing
are d
ir c
Ġo pt
re am
at her
Ġkn ow
u ff
Ġl ist
Ġse cond
t imes
Ġb el
ot s
al ity
Ġbec ause
Ġev en
p end
" )
F or
ivers ity
} (\
se c
Ġex per
3 2
Ġel se
ro ss
Ġth ree
if ied
ĠA meric
b ject
" );
. ,
e le
ou se
Ġcons ider
19 8
Ġh and
Ġm ake
pl ay
en se
ar row
Ġle ad
s y
ro l
r on
Ġf ind
d ay
ra w
f ace
Ġbe fore
Ġver y
av a
ion al
iv ely
il s
A s
olog y
d ata
cc ess
ter s
Ġs ing
ĠI f
a f
al e
ition s
-------- --------
ro p
Ġr un
an e
20 19
i qu
Ġpro cess
et work
part ial
Ġ id
A N
ect or
sp ace
are nt
Ġar t
k ey
C ol
Th is
ab ility
Ġw ay
v alue
Ġeff ect
Ġp aramet
ĠI nd
or th
âĢ ľ
Ġg u
ft y
ain s
a j
Ġsup port
Ġd id
D ata
op t
er ing
Ġob ject
Ġc he
g ram
in fty
ro ll
i ence
m ed
str uct
1 00
ain ing
con t
B y
l p
ur al
trib ut
' )
ĠĠĠĠĠĠĠĠĠĠĠĠĠĠĠĠ ĠĠĠĠĠĠĠ
Ġsm all
ch n
le ar
om ega
Ġ u
Ġd irect
d is
| \
d ate
ar ge
ĠD e
ri x
Ġl ast
Ġm ade
n b
qu ad
n u
t le
Ġresult s
i ev
Ġf am
n ess
ual ly
al k
Ġc urrent
re qu
. âĢĿ
ĠA nd
vel op
V alue
**** ****
2 3
Ġs l
t ilde
b ers
4 0
g or
s cript
l ed
Ġm ed
Ġde velop
Ġstr ing
Ġdes cri
Ġg l
ul ation
ar n
ot t
Ġan al
I T
Ġl ook
ĠS c
D elta
S E
f ile
Ġcont in
Ġm ain
Ġin formation
iv es
ro id
Ġre sp
Ġim port
Ġhe re
com m
le x
E n
S et
Ġcon d
Ġa v
ĠC ol
Ġto p
Ġf in
// //
Ġd uring
Ġth ose
Ġex pect
ou th
201 8
Ġf r
Ġ$ (
Ġk ey
Ġstr uct
mb ol
re g
Ġ/ **
u ary
Ġ& &
ep end
D E
C T
m ary
iss ion
ord er
Ġd own
at us
k e
==== ====
Ġc oun
Ġm et
nb sp
re m
res p
it ial
Ġin cre
ect ed
Ġs ince
p x
l er
l ess
loc ation
P h
U n
g r
w here
Ġte am
ĠI s
t able
o ad
Ġm ult
he ad
Ġm uch
ow s
t est
ĠR es
Ġpro ble
over n
] ;
Ġp resent
) );
Ġw rit
] ,
x i
Ġpos s
. "
19 7
Ġpr ivate
Ġm em
Ġm ov
6 0
ar m
Ġre al
ĠF r
iv ed
in ter
s q
rr or
Ġp ass
p ly
} [
Ġme as
Ġob tain
is ter
Ġst atic
Ġo wn
ore m
v ious
Ġre le
ag n
eq n
ak es
s ize
lo ad
ĠUn iversity
Ex ception
Ġw orld
Ġb ound
\ ,
um er
al th
t ime
b all
( $
ĠĠ Ċ
Ġg ood
t op
6 4
ĠR e
Ġ %
O n
201 7
Ġob serv
a u
ur y
201 6
t ab
i or
Ġb uild
g round
it al
ĠO n
Ġ čĊ
Con t
r ite
Ġar g
Ġle t
Ġrep resent
Ġloc al
Ã ©
Ġv is
ĠH ow
os s
il ar
Ġe lement
A n
m et
} }\
O bject
3 3
it ive
Ġop en
r t
)$ .
2 7
ac es
r c
Ġ// /
us h
Ġl ink
ĠP l
id es
Ref er
Ġt em
C O
I m
Ġc ar
M E
in ess
ĠĠĠĠ Ċ
re ak
2 8
col or
Ġchar act
ĠP h
Ġex pl
Ġb o
c m
T est
Ġs ize
Ġd ist
in a
Ġe ar
ĠS tring
Ġc r
Ġl im
Ġst ill
Ġm ust
Ġsp ace
cal e
O m
A t
l ink
d e
u ck
m it
Ġw ant
Ġin s
raph ics
uth or
Ġle vel
Ġt ri
us ic
I nd
ord s
Ġhe lp
ĠY ou
S h
Ġap pe
ĠL e
b s
htt p
Ġp op
s im
Ġres pect
Ġhe ad
} ;
p or
Ġle ft
at s
Ġd on
Ġval ues
M od
eps ilon
ener gy
Ġcomm un
com e
oc ument
Ġst and
Ġt ake
le m
$ $
Ġb ro
ver t
trib ution
Ġp res
G et
} _{\
Ġa round
Ġth ink
op y
ag er
resp ond
201 5
Ġor ig
ĠP r
Ġ ident
ap e
Ġ! =
2 6
g o
iv al
() .
Ġev ent
Ġre port
f unction
Om ega
ist ory
âĢ ¦
V iew
Ġl it
ĠF ig
t ies
Ġp ower
oh n
Ġm ark
A C
Ġm ass
ĠS he
f ield
ĠB l
Ġ ,
n av
b m
l ist
ol ution
pos ition
Ġb ased
K ey
iv ing
"> </
id d
Ġl arge
tr act
om en
t il
Ġbe g
en e
() );
Ġdes ign
orm al
am pl
ac y
c apt
Ġagain st
ur ation
Ġch ild
om et
Ġinclud ing
s m
ad i
E rror
S e
ur l
o pe
id ed
en n
] .
2 9
ific ation
ĉĉĉĉ ĉ
Ġf our
v en
f in
Ġa ut
o ber
Ġp ost
ind ex
p ace
ur ther
text bf
ur s
p ublic
ir d
ps i
^ *
ain ed
Ġn ext
Ġg ame
w h
end s
j s
Ġp at
Ġe lect
ĠB r
Cl ass
b ed
. </
ens ion
201 4
Ġb est
ĠM ar
A l
v ir
ĠA d
in ation
p oint
ap s
se arch
Ġd i
Ġt itle
et y
. _
Ġas sum
is ed
p ed
g roup
che d
le y
b o
)$ ,
us iness
b ox
I C
ition al
Ġre fer
Ġp ar
it or
ol v
Ġerr or
R e
capt ion
Ġc al
Ġgener al
" ;
at ely
ĠM ay
ĠAmeric an
o ff
R O
sub section
ord ing
20 20
R equ
Ġp erson
un e
n o
ob al
s w
Ġf ile
in c
4 5
ens ure
ang u
Ġn etwork
Ġre f
sum mary
du ct
L L
Ġex ample
Ġre ce
sq rt
Ġbe h
ĠA p
! --
s k
Ġwith out
l im
as ter
ĠB ut
[ '
ĠE ng
av ing
Ġab ove
Ġl ife
u ro
Ġb ook
se e
Ġpro gram
ĠO r
at t
A p
ap er
Refer ences
G amma
Ġ energy
og le
p ath
eqn array
Ġint eg
I nt
ack age
ps ilon
erv ice
I ON
Ġpro ject
Ġwith in
iv ity
ert ain
if t
ĠA ll
Ġte chn
qu ot
b old
Ġs ay
=" ../../
er o
our n
gor ith
Ġcor respond
Ġcall ed
ro du
Ġt yp
Ġv iew
s l
ĠâĢ Ķ
od es
ĠW h
201 3
a it
Ġt arget
includ eg
includeg raphics
ail able
a i
ĠT o
htt ps
is tr
Ġkn own
he s
Ġmeas ure
at ors
im al
ug g
Ġinter est
op er
Ġsing le
our ces
Ġc our
ma x
ĠâĢ ĺ
ust om
^{ (
8 0
f il
Ġpro t
pl it
, âĢĿ
pos ed
3 5
ĠJ an
Ġl og
ict ion
w ays
Ġcor re
un c
Ġest im
plic ation
Ġs um
' );
A P
ic le
E D
Ġm ax
at ures
b ut
is on
Ġde pend
d es
m p
ĠUn ited
Ġpl ace
Ġd ay
Ġd em
og raph
em ph
Ġp ath
pl oy
Ġs at
Ġd el
Ġcomp ut
per ties
=" +
() ,
ĠF e
9 9
um p
w ith
Ġh tt
Ġs chool
Ġde v
v are
201 2
w are
ĠS p
ĠThe y
H e
r ist
ĠA t
Ġ et
Ġan other
Ġex p
T ime
Ġse ver
A S
}^ {\
em s
Ġo cc
Ġfam ily
} =
trib ute
anc es
Ġsim ilar
con st
oc us
i od
us er
Ġt ext
sy mbol
' ]
Ġb as
che s
W ith
s up
ib r
vare psilon
pt y
Ġd en
pon se
ĠG r
Ġproble m
n ode
Ġcont ent
ys is
: \!
Ġch ang
i j
Ġpro b
iqu e
\! :\!
Ġser ies
P E
Ġk e
Ġpartic ular
cri ption
a ut
ef f
ĠM an
Ġis s
) =
Ġrequ est
a im
Ġl aw
I S
Ġ/ >
Ġtr y
ĠC ent
Ġth row
Ġd ue
Ġs k
d t
ww w
port s
Ġs pe
u ction
P l
Ġal ong
Ġto t
ul es
overn ment
F ile
. ~\
in ition
Ġwe ek
Ġ$ {\
n on
ver s
Q u
m at
right arrow
r angle
ĠJ ohn
' '
w it
Ġn ear
ix ed
m m
ent ion
Requ est
D ef
i um
Ġo ld
com p
et er
tern ational
lect ed
uff er
Ġf ew
A dd
yn am
Ġin itial
Ġall ow
Ġc ap
ĠC ar
0 1
Ġus er
Ġche ck
ic y
Ġcharact er
201 0
m ap
it her
M an
T ext
ĠU S
Ġ ?
Ġan n
Ġdef ined
Ġ\ ,
Ġl ater
u x
201 1
Ġver sion
Ġbl ock
" :
Ġg reat
ut il
ore d
Ġch ange
ĠN ov
L A
Ġt urn
Ġstud y
ge q
Ġme an
at ter
Ġsh own
st and
ess ion
Ġad v
ide o
pro of
Ġf ull
ch i
cent er
I f
ward s
Ġin put
Ġorg an
um an
Ġass ert
ĠCom m
Ġex ist
b it
Ġch o
press ion
Ġd om
Ġcon str
Ġinv est
ĠHow ever
Ġst at
B ig
Ġcl os
` `
Ġmodel s
ay er
7 5
U R
Ġre du
Ġ-- >
var phi
O r
T R
ĠJ ul
ĠT e
ĠB e
ple ment
ight s
Ġc are
aj or
Ġpre d
Ġh old
. }
Ġb u
ĠC an
ind ow
Ġl ow
Ġdet erm
c or
l ength
and om
ref ore
A ll
ab les
vir on
E vent
l ing
angu age
St ate
Ġc ur
Ġprodu ct
3 4
Ġto o
N ode
## ##
ial ly
Ġposs ible
N ot
Ġp ot
9 0
ic on
end ed
F F
ur ch
p ose
In fo
ate g
im um
Ġpoint s
s ide
Ġse ction
3 1
/ *
Ġn ode
Ġpre vious
Ġc a
Ġd eta
Ġsu ccess
' :
E lement
Ġse ason
Ġshow s
ater ial
st ance
th s
Ġass oci
ole an
ist ic
F ield
ill ion
& \
Ġl arg
Ġcont rol
m y
on y
bold symbol
im ent
Ġav ailable
Ġh ig
Ġs om
Ġ enc
P ath
6 6
Ġorig inal
oc ial
Ġqu ant
ens ity
Ġe as
pro v
Ġs pect
f rom
h line
Ġar ray
L et
A D
read y
ur ity
le g
b ody
ĠO ct
[ \
O ver
oug ht
ĠA ss
ĠE n
T E
res ult
Ġf ree
5 5
Ġ ide
con fig
B l
Ġl ess
Ġle g
Ġc ode
}, \
l in
u k
Ġs ource
ĠW orld
ay out
Ġfil m
epend ent
âĢ Ķ
Ġr ange
Ġs it
tr a
c ul
Ġqu est
ĠĠĠĠĠĠĠĠĠĠĠĠĠĠĠĠ ĠĠĠĠĠĠĠĠĠĠĠ
Ġare a
Ġm ap
ut ure
Ġh ome
Ġc over
re t
Ġ );
ĠP ol
Ġfollow s
Ġl a
ount y
ag s
Ġsever al
and s
D es
i ents
Ġimport ant
Con fig
Ind ex
over line
Ġa ff
Ġd at
w id
Ġcon f
ar r
Ġa ction
() )
ĠN o
Ġterm s
ĠThe re
Ġcre ate
E qu
ab ly
Ġun til
Ġstr ong
st yle
d f
Ġf oot
ĠN ational
en u
ou ble
ĠA ust
ĠA ug
Ġbet ter
I G
Ġh app
H E
" .
D e
ear ch
err or
g l
} ).
ver sion
A nd
re l
gorith m
Ġgo ing
ĠC o
3 6
Ġre ally
Ġg row
ĠB y
ain t
ott om
Ġt imes
3 7
/ **
Ġinclud e
is f
Ġtot al
ĠSt ates
tr ue
Ġcontin u
or ies
Ġpos ition
0 5
ard s
bl ock
Ġre st
Ġcom b
re en
Ġst yle
Ġsh ort
r ide
Ġcomp on
N ew
Ġc ell
Ġf ail
w ord
v ec
ĠG e
e ction
M P
i ans
ar ning
200 9
Ġd er
er al
Ġph ot
Ġparamet ers
A B
Ġ es
d own
Con text
Ġim age
al f
4 8
Ġacc ess
a ff
} }$
i am
un g
Ġm usic
3 9
Ġs ide
Ġb reak
m ult
st it
k s
x im
F orm
Ġ: =
) ^
Ġen g
ĠS ystem
h old
fr ak
v es
ampl es
is ing
t itle
nd er
M ap
in put
Ġ( $
id ual
Ġc rit
ne ction
Ġplay ers
Ġle ast
am ed
Ġc lear
Ġcon text
ap i
cl us
Ġw in
3 8
b um
ĠY ork
L O
IN G
u f
st ate
I s
Res ult
ip le
or ph
Ar ray
Ġserv ice
ud e
am ent
Ġb ase
ic ient
Ġrec ord
U T
Ġp ut
ĠS chool
pon ent
ĠG u
Ġb usiness
Ġdef ault
Ġ( !
Ġs ays
Ġstruct ure
o in
ĠA pr
s f
Ġ Â
Ġoff ic
Ġlink s
Ġpol it
Ġal ways
Ġm ight
Ġint rodu
d raw
ĠS up
v oid
Ġne ver
viron ment
ĠM ed
Ġrequ ire
ensure math
' ;
Ġsup er
ames pace
Ġpot ential
Ġv ol
ĠS o
Ġperform ance
et ic
Ġdis tribution
ev el
us ing
F rom
4 4
ld ots
Ġcomp let
c ast
Ġse qu
Ġ} );
our s
Ġadd ress
c er
Ġl ight
" "
ĠF l
ĠThe n
Ġ} ,
in ary
19 6
E S
Ġper iod
Ġp o
text it
ann el
et urn
om an
ĠM in
Ġest abl
Ġcon fig
ĠD r
p arent
Ġinst ance
ĠE d
Ġre cent
n ow
u i
l angle
se qu
Ġind ex
al es
+ +
b ook
th ing
os p
L ambda
on es
Ġb ig
S ervice
Ġsign ific
Ġm om
Ġpro perty
cite p
m d
math frak
g ress
O f
Ġal ready
uro pe
Ġpro m
ag ue
7 0
app a
g t
ou d
ac ed
end er
if f
p en
B uild
Ġd eg
ver age
[ ]
ag ement
eth ing
le te
Ġh ard
M L
E T
ym met
pl ate
C ode
m ber
c ap
ob ject
yn c
Ġind ic
ĠSt ate
ĠW ith
Ġcomp any
Ġc ou
Ġf urther
il t
Tr ans
l t
g es
200 8
ic a
c her
um e
ref er
ĠM arch
se mb
b t
ib ility
e ed
Ġst ates
ic ro
ap ache
ĠS outh
pt ember
Ġback ground
ĠJan uary
Ġlim it
= '
I I
Ġ/ *
con om
c it
abl ed
u ation
Ġcon n
ĠC al
ra ft
P r
ĠR eg
Ġm ajor
ag ed
Â ł
Ġsat isf
Ġparamet er
ĠA b
Ġprov ide
on se
It em
k en
z e
l ang
Ġf ore
S ize
c irc
ak en
um ents
L oc
F il
="../../ ../../
w ide
Ġst ory
Ġc ost
s i
Ġcomp lex
ĠW ar
U S
Ġresp onse
Ph i
Ġp aper
O T
B ut
D is
lo at
r ation
ĠP ar
t ings
c all
Ġear ly
k appa
Ġm agn
sub set
ĠCh rist
Ġm ot
Ġappro ach
Ġd iv
0 4
Ġreg ion
Ġl ength
Ġe ither
Ġg ot
le ge
M A
ut ions
Ġexpect ed
A d
Ġfunction s
Ġcol or
0 8
cre ate
ĠL et
id ence
ign ed
Ġacc ount
def ault
Ġpro f
Ġanal ysis
ĠC ity
Ġph ys
Ġ q
ĠJ une
Ġme ans
as ing
ass ert
\ |
Ġmem bers
Ġcom e
//// ////
Ġd im
Ġr ate
Ġg raph
\ %
M essage
ĠR ep
Ġre d
> &
in o
abl a
Ġg ive
Ġf ar
) (
Ġspec ial
t es
Ġ` `
~ ~
ri or
} ),
Ġsol ution
ĠC ounty
H and
olog ical
ur g
Ġc oll
us ed
f oot
ir t
i i
ce mber
Ð °
ĠOct ober
. \
Ġver t
Ġg overnment
Ġmat rix
ĠB rit
Ġm atch
n abla
Ġs rc
Ġrequ ired
} )$
Ġj ava
Ex ternal
I P
m ost
re c
******** ********
U N
Ġab s
ĠC he
ent ly
ĠJul y
; &
Ġs y
Ġl ik
ĠApr il
Ġsystem s
ĠThe se
c ell
Ġro le
Ġse en
d om
ĠAug ust
C C
In ter
b ase
Ġs ong
a e
ar ing
ur b
U p
end ing
0 9
V al
Ġdif f
ĉ Ċ
Ġt ask
in fo
Ġsignific ant
an el
5 9
cont ent
ĠP art
Ġp ubl
ĠE urope
ĠSe ptember
Ġchild ren
Ġw ater
il it
th ough
Ġl and
h am
Ġc ity
ĠG et
O ut
Ġde ath
Ġw omen
Ġmethod s
ip s
Ġc ount
Ġf ri
c le
Ġtr ack
erm an
Ġl ower
mod el
Ġac ross
che ck
Ġ Ð
Ġf und
r ing
Ġdisc uss
Ġan t
ugg est
ĠĠĠĠĠĠĠĠ ĠĠ
Ġfe atures
4 9
Ġpr act
Ġf ocus
ad a
Ġsom ething
Ġconst ant
ĠW ill
c y
Ġal bum
Ġlit tle
T able
Ġfe ature
}} {
iv en
an a
ĠM e
Col or
, "
Ġt able
Ġobtain ed
c ss
iev e
Ġin div
ĠM c
Ġw on
Ġw idth
Ġre pl
Ġl abel
Ġa uthor
Ġtr aining
ĠN orth
EN T
Ġbel ow
ist or
Ġm ar
ĠW hen
Ġout put
ĠĠĠĠĠĠĠĠ ĠĠĠĠ
Ġe p
Ġappro xim
op s
Com m
get her
cre en
Ġto gether
Ġrel ations
li ent
re w
Ġc irc
Ġpl an
R ec
Ġopt ions
200 7
F r
Ġh istory
roll er
Ġab le
0 2
L og
ĠNov ember
Ġsu ff
ĠAust ral
Ġ __
d im
I R
cent ering
pt ions
w ise
ĉĉĉĉ ĉĉ
Ġp arent
S er
0 6
ĠI m
0 7
m ark
Ġd ocument
Ġof ten
sm all
Ġh aving
y d
ĠC or
F ig
Ġam ong
Ġp air
ĠTh at
av es
ĠQ u
4 7
et ing
ĠB o
ma il
er a
Ġre search
ot imes
ers ion
T D
\ [
st art
Ġcl aim
ĠD is
ĠO ne
] (
ust er
st er
Ġen ough
Ġ= ==
Ġcomm on
Ġdescri bed
j ava
ew ork
Ġp ay
Ġd one
Ġn eg
S c
Ġbe come
p ackage
Ġev ents
S igma
Ġke ep
ec ess
b ased
ith ub
l ish
Ġhig her
Ġth ings
Ġhe alth
ri ed
ĠDe cember
her n
mb ox
n ext
Ġc y
l ight
O D
re ed
dot s
Ġcond itions
Ġex ec
def ine
Ġt re
og n
Ġinv olv
i ol
Ġr andom
p ing
Mod el
4 6
Ġas k
Ġh uman
wid et
Ġstand ard
Ġcorrespond ing
non umber
Ġc ases
Ġse c
Ġcal cul
Ġv ia
Ar g
Ġs cal
Ġst ep
d o
Ġa way
Ġd ays
u it
Ġse par
Ġp age
Ġf uture
U ser
Ġcon c
av el
n a
Ġindiv idual
ir l
c ount
at ural
R eg
Ġfor mer
I L
N o
ab or
Ġm essage
=" ../
C H
Ġre view
ĠD es
Ð ¾
Ġbl ack
Ġline ar
Ġthe ory
Ġc ross
Ġf ac
ateg ory
a ul
200 6
{ -
Ġs che
Ġcoun try
if ier
ĠS er
Ġcond ition
g ed
Ġ} ;
Ġm aking
pl ied
---------------- ----------------
Ġd ensity
; </
Ġh ost
Ġn um
con text
S P
G roup
Ġbec ame
Ġwhe ther
ig ation
Ġb ody
Ġth ird
/ \
widet ilde
n et
Ġim plement
Ġb i
br uary
ĠM on
pr int
ener al
g ithub
Ġn ormal
N A
0 3
m ethod
C all
al t
Ġpro perties
Ġassoci ated
and roid
val id
Ġcl ose
pro t
Man ager
re ate
Ġrespect ively
b ug
er ed
Ġval id
Ġhtt p
Ġs ite
le v
S ystem
n own
Ġre ason
ĠL ist
ĠN ot
re et
ĠC ont
Ġs uggest
includ e
Ġcommun ity
O S
Ġc ertain
.. ..
ĠA g
ĠG l
ug ht
Ġp ort
ĠR ec
ac hed
ex p
Ġim p
ĠS et
Ġf ive
Ġto ok
Ġth ough
tain er
ire ction
ure d
on al
Ġatt ack
C E
ĠE l
5 6
Ġa ir
ĠG o
ch an
Ġar r
tab ular
ĠM ore
e h
b ra
Ġtr ad
=" #
Ġre t
) {
ord in
an ch
Ġb and
go ogle
s ing
Ġfoot ball
fer ence
Ġof fer
Ġh om
Ġunder stand
em ents
W h
h and
ok en
Ġtem per
Ġb ir
ut es
Ġl oss
Ġg e
med i
Ġc amp
id s
S ub
} -
Ġyou ng
) </
Ġconsider ed
T H
op h
ĠR ev
d ev
Ġe mb
Ġp ast
Ġfe el
h ib
ĠP res
5 8
H ow
E E
Ġpr im
in it
st atic
R ead
il ities
Ġb en
U LL
i res
Ġg ames
f alse
Ġv ector
M S
ĠA fter
d b
ad io
em pt
Ġdevelop ment
Ġa verage
5 7
n ers
Ġequ ation
Ġd ynam
Ġpro of
Ġon ce
b uild
Ġan g
id ge
ĠW est
B ar
at rix
d oc
ir m
le ase
Ġprov ided
Ġmom ent
Ġcomp et
Ġelement s
Ġph ase
Ġk ind
F l
Ġs ent
im ate
Ġcons ist
Ġvari ous
re st
Ġbeh av
ĠP er
Ġa ch
< !--
g en
ag ing
at form
ĠO ff
ĠB ar
ok e
th m
Ġv ideo
Ġf requ
Ġc ustom
Ġc ult
======== ========
Ġem ploy
ĠAr t
Pro perty
ĠĠĠĠĠĠĠĠĠĠĠĠĠĠĠĠ ĠĠĠĠĠĠĠĠĠĠĠĠĠĠĠ
Ġse arch
Ġn il
ĠM od
ill ed
pl ies
Ġh ouse
Ġl ove
O P
Ġwork ing
Ġwh y
Res ponse
Ġsim ple
Ġj ob
iz ing
Ð µ
ch o
Ġgl obal
Ġs ocial
Ġl ot
d l
Ġb it
i ef
Ġgr ad
Ġev al
x y
b or
} +
Ġ( )
Ġpos itive
ĠI nt
ap an
ourn al
\ ]
> (
ri es
pro p
ĠA ct
c ore
ell ing
am a
ic ense
fl u
Ġand roid
ibr ary
ĠP ark
20 00
Ġl ines
n s
Ġs em
ĠFe bruary
al y
he ight
Ġar ch
act ive
pr ime
idd le
Ġal gorithm
Ġth ought
Ġm aterial
C lient
id ing
arg in
qu e
Ġm akes
m ar
Ġspec ific
p ol
ond on
ill s
Ġadd ition
Ġst d
Ġh alf
Ġs ix
Ġcon struct
4 2
Ġhow ever
o on
ĠK ing
Ġb ool
Ġm ember
Ġt w
um b
Y ou
Ġm illion
Ġp ress
Ġt aken
Ġcol umn
Ġf it
M ethod
Ġwork s
act ory
ĠD av
Qu ery
en ame
opt ion
Build er
ĠD o
ĠC oun
Ġm iss
\ {
ĠA ir
Ġmult i
is es
S p
Ġl o
ev ent
il le
( (
Ġcon v
ast ic
Ġb order
ĠSe ction
Ġt alk
Over ride
Ġex act
Ġdis play
we b
ĠS ch
el ine
Ġw rite
c urrent
is k
Ġr a
Ġth us
Ġa ge
E nd
im age
em ma
E d
oc ol
Ġrele ased
Ġpred ict
ĠA dd
Ġc ame
ĠS ec
Ġmed ia
n ull
ograph y
Ġbeg in
Ġcour se
s cale
ĠThe orem
ver se
Ġcre ated
ĠCom p
00 00
ĠA fr
Ġ ill
P I
Ġm en
N S
Ġg round
) ]
Ġind ust
a ctions
Ġdef ine
ul a
ĠR uss
The re
it er
S tr
Ġplay ed
dis play
Ġgroup s
Ġed uc
200 5
Ġappe ar
wh ich
ad em
un k
) =\
Ġex press
Ġwrit ten
g ing
or age
amp ions
Ġso ft
Ġcan not
Ġle arn
Ġst op
und er
u ed
Ġother s
und le
ĠCh ar
s pec
p ng
Ġacc ording
ic ation
Ġchang es
Ġind ependent
Ġr adi
C ount
Ġs ens
ĠS m
Ġg en
d r
Ġs ure
p df
8 8
Ġsur v
ĠE q
ce ed
Im age
ĠS im
bs ite
Ġm er
ĠM y
Ġle arning
ĠTr ans
Ġm ove
Ġex ists
ĠP e
ĠD ef
Ġbuild ing
Ġs cale
D ate
B C
Ġrel ated
, -
ĠM ark
m on
Ġn ecess
Ġquest ion
ac ing
qu ery
ĠB ro
A M
Ġbe com
A G
Ġrece ived
Ġexper ience
c il
ar ies
opt ions
} =\
c os
Ġserv ices
Ġstud ents
} ]
Ġ& =
ph p
Ġpro posed
Ġinst ead
Ġf ig
Ð ¸
Ġc ut
oc r
t em
In put
; \
n amespace
Ġen vironment
ef ore
Ġun it
l ib
ing ton
h a
Ġl oad
ĠS tr
Ġreg ular
Ġinclud ed
l ong
ĠH is
n ce
Ġ row
Ġr ather
Ã ¡
r un
f unc
j av
sk ip
ĠH ouse
Ġn umer
ul ations
text width
) }\
h ood
Ġt reat
ĠL a
Ġann oun
ache s
Ġz ero
li ke
Ġdoes n
Ġpop ulation
ab ase
Ġst ar
Ġs ound
Ġs w
ĠĠĠĠĠĠĠĠĠĠĠĠĠĠĠĠ Ġ
9 5
but ton
fin ished
Ġim prov
om orph
) ^{
Ġw ar
{ (
B e
Ġsequ ence
b b
Ġn ational
d ir
ch ange
Ġoper ator
ish ing
Ġcon ver
u el
Ġ ...
Ġy et
it es
m ore
St ream
Ġap ply
in ing
ul ly
A ct
Ġfin ite
p age
plic it
Ġstart ed
row n
Ġdid n
ĠA m
du c
app ing
7 8
Ġhe ld
Ġprodu ction
Ġsur face
Ġcon tr
un ity
r up
Ġmult iple
ĠL ondon
i et
Ġal most
S up
Ġ< <
Ġp ur
Ġfield s
Ġcomp os
y les
z eta
4 3
Ġto wn
ĠH igh
Ġinst all
}^ \
F A
es e
Ġsub ject
Ġam ount
ĠD ep
le vel
ĠC r
S C
t x
at al
Ġr at
W hat
Ġcont ains
Ġadd itional
ĠH ar
Ġfact or
200 4
ĠA ng
y ear
6 5
cdot s
C he
h as
ig en
ON T
y l
wide hat
in st
S ee
] )
Ġact iv
ĠBrit ish
O L
Ġobserv ed
ĠS ince
Ġl anguage
ic les
Ġdis tribut
ed d
cl ient
ĠV al
un ch
ĠCl ass
Ġent ire
Ġd est
( {
Ġcomp lete
c ase
x space
Ġadd ed
. )
lem ma
}_ \
$ )
Res ource
Ġto day
ak er
O ff
ist ics
led ge
4 1
ot o
il ed
Ġe conom
Ġl ive
Ġact ually
ot ed
f ord
ĠEng lish
ĠT est
ser ver
requ est
G r
al ax
7 7
ĠNew s
ad o
Ġbu ilt
p at
it ect
ĠW hat
Ġcont ain
Ġvis it
AT E
w ed
ĠH am
un finished
Ġf ixed
iz es
Ġs af
Ġp erm
A A
Ġnew s
e lement
ĠJ apan
Ġdist ance
Ġs ymmet
} |
Ġch all
Ġexper iment
o ch
Ġth ing
Ġin f
Ġ- >
p c
v is
ĠCol lege
oper ator
en ed
Ġw ent
ren ch
' re
Ġdeta ils
oci ety
oot h
F irst
P aramet
St atus
Ġf all
qu are
Bl ock
ict ure
Ġpre c
ĠFig ure
b ottom
and id
à ¤
O M
ens ional
ov ed
S ource
L ine
m id
r um
P os
Ġde al
ĠĠĠĠĠĠĠĠ Ċ
Ġt aking
N av
add ing
Ġh or
P si
Ġn ight
aram s
Ġs ample
y ing
p p
ĠF rom
Ġac cept
Ġequ ival
ĠAmeric a
Ñ Ĥ
ĠI N
Ġset s
arg s
is try
O ne
ĠIn ter
ĠSt ud
Ġa ud
] [
Ġacc ur
Ġb ar
Ġn amed
plic ations
Ġwh ose
Ġmat ter
idd en
ĠIn ternational
k nown
art ment
ĠĠĠĠĠĠĠĠ ĠĠĠĠĠĠ
H T
Ġpr int
Ġd ouble
Ġnot e
le ctions
Ġ\ {
ĠU p
Ġanal y
i ation
m ain
ĠN e
ic ult
Ġ ir
Ġd ate
il es
ab s
Ġwe ight
Y PE
T oken
at ory
G L
math sf
anc ed
P art
Ġcomm and
Ġw ords
E X
Ġpubl ished
I V
Ġgiv es
Ġtyp es
ĠI I
Ġeng ine
Ġplay er
om s
Ġbo olean
O per
Ġreport ed
Ġp rior
Ġlarg er
at tle
o o
Ġtrans form
Ġprob ability
ĠPres ident
ge bra
Ġresp ons
Ġeffect s
Ġal ign
}) \
app end
In stance
Ġcare er
d at
tribut es
s in
t arget
Ġto ol
W hen
Ġun ique
n ey
ĠR ef
head er
A ss
ad es
ial og
a el
iz er
Ġit em
6 8
ag ram
ens ions
& &
ĠF irst
Ġed ge
Ġfl ow
ĠA rm
Ġdat as
Ġcomp ar
c up
Ġmark et
Ġassum e
enc ies
ap ter
Ġn atural
ĠH er
ic an
fl ow
od ing
f irst
c an
h ost
ĠM ich
Ġro und
ele te
Ġbeg an
Ġwho le
Ġo ption
r l
A b
ari ant
U L
B ase
it ch
Ġf av
Ġcompon ent
Ġcou pl
Ġt akes
I M
Ġap plication
u z
un n
H ead
comm and
f ill
Ġcent er
Ġloc ated
Ġc opy
ars er
Ġme chan
st ream
Ġprov ides
RE F
ac ity
ob ile
s plit
nav bar
mod ule
not e
ch ild
Ġt ell
p ost
9 8
av y
5 2
Ġim ages
C D
o res
Ġneed s
ĠA c
Ġhe ight
}^{ (
pl ace
O ptions
| -
Ġpartic ip
at ives
rit er
Ġst ation
ou ch
. ~
5 1
irt ual
Ġ" ""
ã ģ
ar a
ilit ary
q quad
ens ive
Ġcorre ct
ens or
Ġatt empt
Ġtemper ature
it ude
Ġn ov
r s
Ġde p
Ġc apt
6 7
i ers
Ġloc ation
ot es
Ġ ]
av en
Ġpol icy
eg er
Ġf ram
Ġfr ont
ĠA cc
Ġneed ed
U E
A ction
y per
P ol
if orm
Ġf ace
a ign
str ong
min istr
Ġb ox
5 4
a ur
5 00
b ound
ank s
c ing
bo ard
Ġst atus
st ar
ĠN ULL
( -
ĠLe ague
ĠI r
con n
ĠPh il
Ġv iol
Ð ½
ĠS an
row ser
Ġcomm it
5 3
ĠP at
equ iv
ug in
N ull
200 3
ot a
Ġcl ient
Ġl at
Ġcomp an
Ġup date
ĠWill iam
Ġres ource
if orn
m ing
Ġ$ (\
ĠG roup
ĠC our
Ġmon ey
es tern
Ġbro ad
200 1
d en
Ġgener ated
ul ated
C K
}} (
Ġne igh
ĠĠĠĠĠĠĠĠ ĠĠĠĠĊ
Ġdiffer ence
Ġequ al
ampions hip
bt n
Ġdeg ree
Ġpro p
Ġcom es
Ġrec ogn
P re
ic ol
ub e
^ +
l a
Ġquant um
Ġincre ase
Ġproble ms
Ġcontin ue
Ġcomp ared
Ġimp act
t ic
ain ts
Ġsp in
loc al
inal ly
Ġrelations hip
ĠS k
ĠT V
Cont ent
p y
ch ar
en ing
} :
Ġde cl
ĠCent er
Ġst re
Hand ler
}\ ,
Ġsuccess ful
semb ly
G ener
ap pro
Ġse lect
Ġdem on
A fter
ĠL aw
A cc
P oint
ĠU K
Ġopt im
B ox
str uction
pect ed
}\ \
am ily
ver y
ari o
ĠL emma
Ġinclud es
Ġl ate
Ġm ode
L ink
he l
Ġs ense
Ġlik ely
se lect
& =
) -
Ġ+ =
col umn
o e
j son
Ġits elf
iforn ia
ad ata
Ġoper ation
Ġon line
Ġestabl ished
cit et
Ġwh ite
f ind
al le
Ġhtt ps
ĠD em
Ġdef inition
9 6
Ġwe bsite
s rc
ĠR ed
om b
r ated
Ġthe refore
Ġcl ub
h ing
Ġw alk
il i
Ġoffic ial
el oc
at ur
at ively
el ves
Ġd irection
Ġlead ing
P C
c i
Ġiss ue
Ġ& \
20 21
Ġset ting
N D
Com ponent
pro perty
Ġrele ase
9 7
Ġap p
ate gy
Ġdiff icult
Ġspec ies
Ġmon ths
Ġprof ess
Ġin flu
ou l
ro y
Ġrun ning
200 2
ĉĉĉĉ ĉĉĉĉ
x ml
b orn
L abel
Ġreg ard
Ġv ill
ell ow
[ "
ĠO bject
Ġrefer ence
P S
$ {
Ġp ers
Ġper cent
Ġcol lection
w rite
I F
or ing
Ġpresent ed
S pec
ig ger
wit ch
Ġdirect ly
ĠO b
R A
in n
N umber
Ġide a
Ġw ord
Ġeffect ive
Ġpolit ical
L ast
pec ially
LA SS
or ge
ind ows
m ember
Ġst ream
Ġ ),
B uffer
sc r
St art
Ġsign al
Ġiss ues
Ġb ad
ĠAss oci
Ġse em
t ex
V ert
cre t
tr ies
Ġe y
Ġfil ms
ĠR eturn
Def ault
stit ute
des cription
Ġt ax
Ġun c
ic o
ent ry
al let
pr ivate
ma z
Ñ Ģ
ĠE m
sh ip
Pro v
C ell
ly ing
Ġpat tern
S o
c el
} +\
Ġd ig
Ġg as
Ġprot ected
ot ype
At tribute
Equ al
ĠInd ia
ic ip
em pty
on ic
str act
Ġact ive
Ġc atch
Ġh on
Ġare as
ind ent
im g
Ã ³
G e
Ġin ternational
ĠTh us
u ccess
Ġan sw
ĠO ur
R un
ec k
ĠO F
Ġcon duct
Ġben ef
Ġclos ed
Ġbas is
Ġmax imum
A meric
ber g
m eta
H el
Ġbeh ind
op en
f ont
Ġit er
Ġco ordin
ach ine
f e
so ft
g ener
Ġsh all
M M
Ġre str
V ER
Ġin ternal
Ġsol utions
{ {\
s g
Ġf ood
F e
le an
Ġst age
pro ject
ct or
Ġm ention
Tr ue
l or
Ġro t
F unction
} );
ock et
Ġus es
N N
Ġto ld
F actory
ĠN one
Ġs ex
iv il
d s
e in
t ag
clus ion
Ġro ad
] $
Ġse lected
Ġsc en
Ġlook ing
g g
Ġdo ing
Ġde ep
Ġin c
Ġinvest ig
Ġdisc over
us es
a res
as cript
Ġfor ward
en umer
P er
Comm and
} /
Ġag o
use um
ol ve
Ġfor ce
Ġperson al
r is
Ġlit er
o ice
ĠN ote
Ġex pression
Ġext ends
p tr
Ġcont act
land s
ang ed
f ect
ar ily
Ġm ind
th at
Ġobject s
l ock
in ated
Ġform at
Ġnum bers
Ġall ows
st atus
Ġmon th
he et
Ġw indow
am s
cl ose
V ersion
Ġhold s
n es
}} {\
Ġdemon str
Ġqu ality
Ġg alax
m em
Ġpart y
Ġart icle
Ġcent ral
Ġrepresent ation
Ġp ick
ĠDav id
Ġbound ary
Ġpr inc
Ġy ield
Ġad j
Ġup on
Ġright s
ous ly
Ġaut om
ĠAustral ia
ach ing
Ġcompon ents
h space
Ġfil ter
b a
R ep
Ġl ed
y r
Ġpop ular
y a
Ġin it
Ġout side
u ate
ĠCal ifornia
ist ance
Ġrel ative
Ġthrow s
| ^
m t
Ġch annel
ĠI D
if act
ĠF il
Ġstud ies
Ġperform ed
n eq
Ġd raw
ĠRep ublic
Ġex cept
ĠT able
E L
Ġdev ice
ĠE ast
Ġc andid
Ġcon tract
Che ck
Ġsim ply
ĠS en
l n
Ġprodu ced
Ġcon nection
tr ict
Ġdevelop ed
ĠR em
u id
N O
Ġ ess
Ġden ote
Ġeff ort
un it
ĠH ol
Ġreturn ed
form at
T hat
} '
* /
Ġqu ite
Ġcho ice
Ġpro ve
ĠA nt
Ġcon tribut
ĠE ar
ri ef
yp es
ĠBl ack
Ġes pecially
in ner
Ġmod ule
ang er
ĠJ ust
Ġphys ical
o z
O b
B ack
Ġm ag
ob j
Ġspe ed
ĠM al
Ġbr ing
l ast
P ost
ĠD ata
l ayout
Ġr ank
Ġus ers
j ection
Ġconstr uction
Ġpart s
p ass
T ask
P P
Ġt im
Ġg re
ĠF rench
Ġqu ick
p ack
evel op
> >
P age
ĠP al
im ents
D B
Ġh istor
Ġup d
S I
ol ic
ĠC ons
Ġp ack
Ġcom ment
ic i
Ġindust ry
Ġd a
Ġinter face
} -\
el t
Ġst ars
wo od
b and
R eturn
Ġwrit ing
as c
Ġ< !--
ate gor
Ġap plied
= {
ĠSt reet
Ġs us
operator name
Ã Ń
b in
ĠInd ian
om ial
n um
Ġf em
Ġdom ain
e es
Ġl ost
Ġt ree
Ġcent ury
ĠS ub
Ġins ide
ann ing
Ġequ ations
Ġach iev
istr ict
p ush
D O
Ġf ire
Ġh it
us sion
Ġse ems
so le
ĠB ook
n ormal
Ġsh are
b urg
Ġv eloc
Ġsol id
Ġaut o
li er
8 6
ĠW ork
Ġcurrent ly
che ma
Ġser ver
ann ot
Ġtrans ition
L oad
Ġincre asing
Ġop port
S U
Ġfri end
E m
S ON
Ġc red
ĠCh ina
row s
T ER
Ġro b
ĠP aul
ĠO ut
ĠN ow
p ite
Ġbehav ior
ry pt
U I
res h
ĠG od
Ex t
S ince
Ġ Ã
c s
anc ial
enumer ate
Ġh ot
Ġtrans fer
i os
as ons
C reate
Ġvari ables
n umber
Ġd ark
ĉ ĠĠĠ
Ġep is
Ġb orn
k a
Ġs on
ri a
ĠB er
Ġup per
" ]
ĠRes earch
S im
Ġp ain
Ġbel ieve
p o
Ch ar
c r
Ġre ve
Ġspec ified
ĠEurope an
Ġget ting
j oy
us ion
omet ry
Ġcon sum
P e
ect ors
Ġ{ @
7 6
il ton
) }{
Ġf a
on ly
Ġw or
Ġhe art
ĠP ort
the orem
lo or
ra z
Ġlong er
Ġbecom es
Ġd rop
F ONT
Ġf ather
N ext
ĠĠĠĠĠĠĠĠĠĠĠĠĠĠĠĠ ĠĠĠĠĠĠĠĠĠĠĠĠĠĠĠĠĠĠĠ
Ġim medi
ã ĥ
ĠHe alth
id ay
un t
D F
// /
ir it
jav ascript
Ġw atch
ĠH ere
pro cess
wit ter
A ut
Ġh ours
Ġn one
ĠO f
item ize
M et
Ġsec urity
st d
n ov
il er
Ġf un
Ġco eff
ut ive
un s
Ġgo al
Ġtechn ology
Ġim m
ark s
C L
k i
Ġs creen
ĠG eneral
Ġb all
Ġcompan ies
d ec
Ġpres ident
ĠD irect
] \
ĠJ ames
ĠEng land
Ġl ayer
Ġnot hing
Ġknow ledge
Ġallow ed
Ġdescri ption
ed ia
ac her
Ġhim self
Ġb re
Ġ- \
The n
S O
d i
Ġver s
u ge
N ow
val ues
ify ing
Ġlevel s
~ $
R em
Ġre v
id a
v ille
Ġvari able
Ġn av
ĠP re
ĠD ay
Ġim plies
fil ter
Ġqu ery
r ule
ag ger
Ġro om
Ġcharact ers
Ġa w
Ġproduct s
Ġelect ron
Ġintrodu ced
ri ate
Ġm id
Ġs old
ro te
Ġnecess ary
gr ad
Ġeas y
Ġarg ument
Ġwe ak
Americ an
q l
h an
Ġsupport ed
Ġw ait
st yles
Ñ ģ
Ġpro te
ĠCoun cil
T P
P i
Ġsmall er
Ġprob ably
Ġs ources
Ġm argin
i ences
Ð¾ Ð
Ġm or
Ġa x
ĠCan ada
" ).
Ġd am
ot al
tt p
ĠWh ile
op l
Ġinterest ing
Ġev idence
Ġsoft ware
ĠD istrict
ay ers
Ġmem ory
Ġarch itect
Ġav oid
' m
os en
( {\
m es
ber t
$ }
m ission
f ort
Ġannoun ced
dim ensional
Ġan im
oy al
L e
math scr
v ant
res ponse
ĠS ome
U s
st ant
Ġdec ision
{ }
St yle
is ation
Com p
Ġ( (
( &
Ch ild
Ġs eg
fil es
Ġr isk
od ed
Ġs ort
r ate
B r
d ep
Ġv ict
ĠS pec
alle l
at tr
Ġin du
Equ als
Ġ ~
l en
AB LE
8 5
ĠThe refore
ac c
Ġcamp aign
M ore
Ġany thing
D r
Ġag re
ind ing
i as
Ġre lation
Ġcon cept
Ġinvolv ed
C A
st ack
ĠH all
Ġf ra
Ġfil es
C o
ro s
v space
ash ington
con tainer
a a
Ġs il
Ġto wards
199 9
up date
Ġpol ice
te e
refer ence
ĠDep artment
B U
: </
Ġt our
ĠR ober
m as
Ġse lection
cent ury
P T
Ġcom ing
Ġn ames
Ġc am
#### ####
Ġn odes
ie ce
e al
sup port
}} _
erv e
ĠE v
Ġev olution
Form at
to ol
Ġent ry
N et
P R
Cont roller
r ong
ĠM or
Ġconc ern
Ġ url
ĠSe e
Ġwork ed
ex ample
Ġde cre
c d
List ener
ill ing
tr m
line ar
Ġg irl
Ġgrow th
Ġm ix
Ġcrit ical
n orm
Ġreturn s
ĠB el
serv ice
m enu
Ġal tern
Ġman agement
Ġrecent ly
Ġs n
Ġfr ame
Ġf ight
N ote
S D
ess ages
AT ION
erv ed
in i
' $
S ec
\ ,\
P RO
ele br
in stance
Ġserv ed
ĠR ich
am l
enc ed
act er
ĠC LASS
ĠTh om
Ã ¼
tex trm
Ġpl atform
T op
) }$
g ence
T em
We b
Ġdim ension
set s
Ġro ot
C ON
. $
M em
ar p
F I
Ġr ule
E nt
ĠH REF
ag o
M e
Ġconn ected
b uf
8 7
Ġd ied
Ġmagn etic
ref ix
! !
Ġch arg
Ġro ck
f inal
ĠD i
ĠIn stitute
\ }$
ĠTr ump
ã Ĥ
mult icol
ĠTe chn
ot ic
p g
end if
Ġpro gress
ib er
Ġmov ed
I O
Ġeduc ation
is ions
Ġoff ice
ar ter
ĠF ound
ĠSc ience
Ġet c
sh ow
M ode
Ġstre ng
no indent
ans ion
Col umn
Ġbir ths
ĠM et
a ud
ĠR ead
ic ate
el i
{ {
ER T
< ?
text tt
Ġdesign ed
ĠG erman
Ġ\ |
od er
Out put
ed eral
multicol umn
it ing
oot str
Ġus ually
Ġestim ate
Ġpro ced
ĠJ ack
Ġplay ing
ĠC up
B A
Ġconfig uration
Ġa ward
| |
Ġread ing
in ct
Ġl iving
Ġclass es
But ton
U t
in y
Ġdis trict
param s
UR L
Val id
ĠH T
ĠS T
) +
S A
Ġt ro
" ),
Ġs aw
an i
clud e
b on
iz ations
Ġthrough out
d epend
Ġqu al
Ġpl ot
ĠS um
ĠD ec
Ġsome one
z er
Ġn orth
Fil ter
ĠM art
Ġoper ations
Ġun s
r d
Ġn uc
eta ils
Ġdeterm ined
Ġfe ed
ec ause
oc al
Ġf ast
in v
L ayout
Ġconn ect
Ġe mer
Ġm other
//////// ////////
ĠR iver
Ġask ed
Ġill ust
ms elves
is her
Ġrat io
Ġal gebra
Ġpat ients
ol ar
Ġme et
Ġte lev
ĠG reen
ĠM at
u a
Ġtry ing
ĠT ype
Ġt en
Ġchar ge
$ &
Add ress
Ġ ;
M y
Ġprim ary
ĠD on
Ġso on
Ġh ope
Ġal though
en ge
ĠM r
' ve
Ġlead ers
OR T
CO L
Ġin j
ĠAr ch
Ap p
ĠĠĠ Ċ
}} }
Se lect
8 9
ĠD iv
ĠC O
Ġnov el
appro x
ĠS y
ĠM usic
Ġa im
D o
Ġpre t
O ur
ul let
7 2
Ġen joy
Ġstart ing
T e
Ġthe mselves
ĠCour t
Ġw rote
w in
ootstr ap
rem ove
Ġspect rum
Ġmod ern
Ġequival ent
el se
3 00
an ish
Ġtr avel
rup t
Ġn ature
omet imes
uth ors
Ġcol lect
ched ul
Ġis n
ugh ter
he st
ant ic
H O
Ġw oman
ĠGo ogle
g s
Ġfrequ ency
Ġexist ing
Ġbook s
Ġrem ove
Ġstat ement
ĠS ervice
cre te
Ġv eh
Ġne ut
Ġe igen
pro ve
Ġex hib
C P
Ġatt ention
ĠL og
Ġtreat ment
6 9
Ġh ol
ĠB ay
Ġno ise
Ġf ully
Ġevery thing
ex ec
Ġf ont
et t
ĠT HE
Ġr ules
Ġneg ative
Ġrem ains
Ġveloc ity
Ġon es
an o
ĠP ost
Ġlim ited
ĠO pen
Ġt ag
Ġw all
Ġ ensure
Ġpract ice
Ġact ual
w rap
Ġ ign
ĠO ther
Ġin str
`` `
' ).
bl ack
Ġm ilitary
sc ope
g n
ĠP ublic
Ġac qu
Ġlarg est
ĠS ing
A V
Ġj ud
Ġsy mbol
ter m
Ġtrans port
and er
U rl
ĠJ er
Ġc ause
ail y
L ength
Ġf ix
out put
Ġmin utes
ef t
Ġc ast
ĠS w
ef ined
Ġpro per
est ival
ĠT ime
\ "
ĠP ress
Ġst ore
P O
osp ital
ĠCh urch
ĠPart y
ĠR oad
Ġdescri be
ang es
Ġhe l
for ce
W ork
Ġst aff
Ġquest ions
anc y
B undle
Ġfig ure
E M
iz ont
Ġinter pre
Ġother wise
Ġexact ly
erv ices
ĠQ ue
w ell
Ġd oc
b es
iver se
Ġj o
Ġfollow ed
it able
Ġcl uster
Ġex plicit
c a
Ġs outh
Ġv irtual
Ġreg ions
$ _
yn omial
ĠRev iew
ĠG erm
Ġcoun tries
ern el
ĠAssoci ation
M ax
Ġtelev ision
vent ion
ym pt
en a
Ġr ace
ĠC ap
ĠE X
r ics
Ġsh ape
el es
Ġwant ed
ĠL icense
min us
f ree
ĠCh ampionship
="../../../../ ../
Ġp anel
Ġabs ol
Ġe ight
Ġmov ie
V is
Ġbl ue
ĠW ashington
Ġor d
ond er
. /
iss ions
og g
Ġexp and
ĠY ear
ict ed
ĠS l
199 8
Ser ver
Ġex tra
ri an
st on
Ġ( -
a uss
ĠA ward
Ġg ave
$ (
Ġcho ose
Ġh yp
ĠFr ance
he nt
7 9
k it
Ġl ack
ĠM ag
g raph
Ġchall eng
ut ils
Ġsub s
Ġtr ain
Ġvol ume
ly mp
ĠC E
Ġs amples
old er
a uthor
Ġfram ework
S l
ĠAr ray
Ġfinal ly
Ġchang ed
the n
T YPE
air s
d et
g u
h i
u ated
Ġs end
il ies
Ġwe b
Ġst ay
Ġre comm
as hed
Ġmain tain
Ġdirect or
uf act
Ġmin imum
ĠV ol
Ġeas ily
ew idth
Ġsm ooth
Ġper fect
Ġcall back
om ic
Ġm is
Ġr adio
Ġunc ertain
ĠT ri
Ġb al
Ġdatas et
b reak
R el
Ġpres ence
: "
H ere
ĠMich ael
T ag
Up date
T O
Ġreg ister
s ign
Ġrequ ires
F O
tern et
res hold
pro to
g ent
B o
Ġw ays
Ġtrans l
Ġget s
ĠL eg
ĠGe orge
f loat
ip p
Ġres ources
R ow
Ġs plit
En c
C ase
oun ter
ul ate
Ġsuff icient
^ -
Ġear lier
ib ly
res ents
_ .
C an
Ġ er
Ġteam s
Ġresult ing
Ġh yper
Ġad apt
s pect
class es
Ġ â
Ġ$\ {
subset eq
t ical
Ġtr a
ĠWh ite
Ġrec over
ĠR E
out hern
Ġsche me
f it
t ask
it ory
Ġd ed
v ed
Ġc ore
ort hern
ĠB est
b our
Ġe lection
M in
ĠM ac
( [
Ġqu e
ole c
Ġover all
ic ial
Ġuse ful
S he
se y
ĠA PI
Ġrem ain
g in
199 0
Ġpe ak
Ġj oin
Ġfri ends
Ġbo ard
Ġem pty
s d
Ġestabl ish
Ġmet ric
c over
Ġcoun ter
izont al
f g
Ġcell s
Ġde ad
on a
1 000
v an
Ġap plications
we ight
it ar
ĠDem ocr
' ll
yn ch
F T
Ġfail ed
C R
im ages
Ġgo es
th on
icro soft
S H
Ġprevious ly
Ġ[ ]
k y
t ree
P ar
) /
8 4
pro d
ill er
ĠAfr ica
Ġ _{
er c
ĠIn c
Ġst e
Ġpass ed
Ġinter action
6 3
ot ion
ĠB en
ex pected
++ )
9 4
$\ {
com ple
ĠA re
et ime
ĠAn n
ines e
Ġn orm
re al
Ġh um
Ġm ut
Ġm icro
Ġbe aut
Ġerr ors
C S
Ġsl ow
ir ing
Ġdeterm ine
D ev
re es
Cont rol
par se
Ġre pe
C ache
Ġre li
M on
Ġle ave
ad ian
G B
N E
ĠT om
Ġun iform
Ġact ivity
a o
Ġcour t
um in
Ġl if
mer c
ĠA lex
M ar
et ers
Ġw ave
mit ted
O pen
Ġ* *
con f
U M
Ġ! ==
Ġw ide
cl os
K E
Ġ\ (
iqu es
ĠE nd
Ã ¶
Ġinter view
is ms
ĠO ver
ult ure
foot note
9 3
Ġde part
Ġstr ategy
ain e
Ġhand le
Ġnetwork s
Ġpro file
-- -
Ġmean ing
id ers
o om
Ġth reat
f a
ĠY our
}^{ -
W idth
NA ME
Ġstruct ures
D D
Ġcomplet ely
Ġpress ure
ĉĉ Ċ
Ġappro p
Ġreve al
ĠS am
Off set
Ġappe ars
ĠP o
R I
8 2
et ch
off set
? âĢĿ
Ġim prove
6 2
ĠD el
Ġext ension
Ġcom pl
Loc ation
Ã ¤
ĠC ong
R ev
Prov ider
Ġmot ion
ad ow
ĠR ob
mod els
pon ents
P A
a ight
it z
i us
T ypes
}} ,
The ta
Ġlead s
Ġthe orem
r or
ĠM ary
Ġf air
A ccess
S earch
B S
id ents
fr ame
Ġobserv ations
ĉĉĉĉ ĉĉĉ
h aps
Fr ame
Ġv s
g ate
ig inal
Ġsit uation
Ġvill age
ĠB uild
P o
=" -
Ġoper ators
Ġhe nce
Ġc op
Ġm ale
Ġb ur
Ġsc ient
Ġb ottom
re me
l s
art ifact
ĠD E
au ge
Ġprofess ional
Ġsc ore
ĠG old
Ġcontinu ous
AR T
9 2
Ġdiscuss ed
ty p
( _
d rop
Ġant i
ĠPro gram
Ġsl ight
Ġdis e
G o
Ġcompar ison
d ocument
prot otype
199 7
Ġad ministr
Ġab ility
Ġbel ong
< \
Ġ\ ;
f s
sub figure
Ġsh ip
Ġarg uments
Ġre ach
h ol
C opy
Ġs witch
Ġst eps
Ġhigh ly
sh ould
ag on
com ing
Ġbas ic
ail ed
Ġp ull
Ġin equ
199 6
Ġbe y
bit r
ĠT ex
Ġemb edd
R L
Ġder iv
Ġfav or
Ġm iddle
cont rol
Ġe mail
set minus
Ġsc ience
Ġfor ms
Ġcult ure
lin ewidth
Ġevery one
T ree
Ġm us
Ġc elebr
Ġit ems
ĠV ir
ro ot
7 4
oc ation
ur a
el er
ĠComp any
Ġbey ond
Ġun its
CO DE
z a
6 1
Ġincre ased
ĠD an
under line
ent al
ĠWe b
Config uration
evelop ment
ER R
Ġu int
ĠFr anc
T arget
ed y
Ġre con
H istory
Ø §
Ġw ife
h ouse
Ġex amples
Ġrel ig
ur t
Ġm aps
4 00
cri be
ĠIs ra
Ġredu ced
Ġr ates
S M
ĠĠĠĠĠĠĠĠĠĠĠĠĠĠĠĠ ĠĠĠĠĠ
ĠIs land
Ġrele vant
ĠL ou
Ġident ity
Ġw rong
ĠS ociety
Ġin fin
opl us
Ġin sp
al ysis
ing er
Ġ( $\
Ġcon sequ
f ess
Ġex ception
Ent ity
om in
ing u
) |
E ng
ĠIn st
ĠM ount
ab ilities
it t
g an
S cript
v ector
R ight
Ġw orth
not her
{ $
Ġpol ynomial
Ġstud ied
Ġess ential
UL T
Paramet er
Ġ$ |
c at
back ground
Ġob j
F L
D irect
Ġcur ve
Ġrep resents
Ġ\ },
i ant
ĠM em
h or
Ġleg al
ĠF in
ĠF orm
comm on
Ġc lean
ĠH el
Ġthe rm
Ġfact ors
b al
x x
Ġcomplet ed
Ġc ard
def inition
Ġch osen
Ġexper iments
Ġcap ital
Ġgre ater
ĠJ ew
ĠF ile
Ġprodu ce
h r
}} _{
7 3
Ġl ives
Ġpr ice
Ġoff set
Ġche m
ĠGerm any
if old
Ġprocess es
Ġr ap
ick s
Ġbegin ning
Ġbro ther
lim its
= (
Ġtr ade
b ool
Ġsur pr
ĉ Ġ
ĠAl so
ĠR el
Ġstr aight
et her
ro om
av ity
Ġclass ical
O p
Ġdi agram
Ġm ount
cl es
P at
Ġorig in
Ġfin ancial
ĠT ur
Ġmiss ing
align ed
Ġarg s
Ġopt imal
Ġvert ex
Ġv an
Ut ils
Ġsay ing
d eg
Ġp ert
sh ift
at ically
Ġat tribute
ac ement
ĠUn ion
En try
Ġlat est
ĠS al
s cal
ĠM us
Ġpret ty
ill a
Ġl en
duc ation
Ġex am
Ġs ession
por ary
mod al
Ġcontinu ed
Ġgener ally
Ġfl ux
**************** ****************
w ner
G l
Ġparticular ly
i pl
ĠS ur
st ep
ace book
ell ar
olv ed
I ST
d x
ĠA ut
ree k
yd ro
iv acy
Ġgener ate
Q L
se cond
8 3
Ġch ain
j o
9 1
tem plate
Ġcont aining
C M
Ġrun s
Ġpl ane
Ġc ategory
ĠHam ilton
ri z
t ml
ĠG reat
p are
Pro cess
' ),
ĠReturn s
ap se
Ġopen ed
Ġdynam ics
Ġext ended
return s
Ex ec
re ct
Ġf loat
ĠF ore
a fter
7 1
Ġpartic le
ĠCl ub
ag ment
Ġg reen
e ch
Ġcomp act
requ ire
ĠU s
Pro ject
D ec
b as
ĠM iss
ategor ies
] );
Ġrece ive
Ġpl aces
ic ated
Ġex tract
merc ial
omorph ism
Ġr ad
Ġschool s
act or
S L
Ġdel iver
b i
ol f
con s
ann ed
Ġh ous
ĠSer ies
r ange
* {
ad r
t im
Ġp en
D A
Ġpre vent
S y
IG N
Ġ{ }
Ġbro ught
ĠSup er
ĠN or
wed ge
ar ant
att ice
> ,
Ġb uffer
ro ad
ici ency
ĠÂ £
Ġaff ect
w indow
ĠAc adem
Ġl atter
Ġvis ual
im ary
Ġequ ip
Ġd ou
Ġsign ed
Ġaccur acy
m atch
Ġme eting
Ġp urch
ev en
ĠPro ject
Ġ$ -
Ġvari ety
AC K
om a
\ }
Ġc ook
ell ig
c ache
eta il
ĠSc ott
Ġap point
Loc al
to ken
8 1
Ġ$ [
^{ -\
Ġim ag
Des cription
ð Ł
Ġd ram
Ġcomput er
Ġmeasure d
Ġsong s
In st
Ġimplement ation
Ġsub sequ
" ))
Ġdr ug
artifact Id
g reg
at ial
ĠG L
Ġneigh bor
B O
ĠW il
uct ure
J son
Ġsc ope
E l
IN T
ound s
() ->
M O
C urrent
: \
Ġder ived
F C
res ource
Ġst ories
b efore
Ġimmedi ately
Ġconst it
ĠF urther
Ġk m
199 5
ĠH istory
Ġar bitr
ĠRober t
Ġnear ly
ä ¸
as ure
D at
P ort
Ġstud ent
col on
ri al
ĠK e
tr ack
T I
Ġdistribut ed
Ġw id
_{ (
Ġturn ed
ĠM useum
ĠM ex
Ġpartic les
Ġag ent
ĠAustral ian
Ġa ctions
l am
Ġagre ement
ĠPro v
= -
Ġsc ene
ĠT own
20 22
Ġ util
os ing
Ġhig hest
Ġshow ed
c ur
Z E
Ġansw er
et te
Ġmin im
wh ile
He ight
Inter face
b ootstrap
Ġfor ces
app ed
Ġoff ers
_ +
ĠC re
Ġin fo
ĠT op
Ġsim pl
198 0
styles heet
ĠFound ation
v est
reed om
Ġsy nt
Pe ople
Ġconsist ent
u ations
ĠB ig
_ *
Ġredu ce
="../../../../ ../../
Ġexp ansion
COL OR
Ġbound ed
Ġset tings
Ġsh ared
i h
Ġfam ilies
H ash
cript or
Ġc os
Ġpl ant
Ġsp aces
m c
ĠO per
b uffer
P L
az ine
Ġinst it
Ġj ournal
Ġm achine
Ġinteg r
gorith ms
Ġcon tribution
Ġtrad itional
ĠB usiness
al o
le ep
se ct
b order
iction ary
Pos ition
Ġgiv ing
Ġse ven
as er
ĠSt ar
G E
W rite
I A
or ation
ur i
rop y
R ange
k ind
Ġstr ict
al ian
Ġser ious
Ġmention ed
Ġres olution
ĠC reate
Ġsignificant ly
Ġform ula
Ġweek s
Ġcomp ute
ĠH ill
fl ict
ĠSm ith
W E
Ġmov ing
Ġ$ {
c ard
ĠChe ck
Ġjo ined
Head er
if ies
av ed
af e
d agger
ĠR oman
co pe
W indow
ist an
is hes
Ġn et
re y
Ġcou ple
Ġfl at
Un it
s ystem
) --
iv ial
ĠTex as
p op
in em
Ġwrit er
ak ers
b ing
AN D
atal og
oll ary
li ament
IN E
es ter
How ever
ĠO lymp
ĠCent ral
group Id
wh ite
k er
~~ ~~
Ġbir th
Ġany one
Ġtest ing
ĠChrist ian
ĠArm y
Ġepis ode
Ġde but
Ġs cript
it a
big g
ĠPe ople
Ġdepend s
Ġmed ical
Ġcontr ast
Ġdec ided
Ġestim ated
ick et
ĠN S
H ttp
Con tainer
if ically
Ġpur pose
M ult
Ġsurv ey
d el
Ġgener ation
ĠM er
Ġin cor
Ġform ed
as y
Ġp refer
Ġp ark
ind er
Em pty
Ġass ess
Ġtest s
ĠThom as
Ġident ified
pro du
ud d
omet ric
X X
ĠC all
Ġprot ect
ĠO R
Ġpol ar
os h
Ġwas n
ĠS und
rom e
Ġs en
Ġth read
Ġw ind
Ġinteg er
ĠU nder
ic ens
Ġk illed
param eter
ĠT or
ĠCh inese
dev ice
Ġal t
Ġt er
on om
text sc
Ġb ank
Ġrem aining
hes is
ĠL ife
auss ian
Ġcl oud
Ġse cret
Ġsymmet ry
Ġg overn
ev e
") );
w rit
w ar
Ġdet ection
Ġas pect
Ġsc atter
ĠA v
f aces
Ġproject s
Ch ange
Ġelect ric
AL L
ad y
% %
ig er
N one
or ial
Ġdat abase
c ar
olog ies
Ġp m
ĠR oyal
ĠCar ol
Ġs ometimes
Th read
at re
ent ity
Ġrepresent ed
ĠUS A
199 4
P arams
Ġpre m
Ġpo or
Ġrecord ed
es h
Rec ord
Ġgr ant
U til
Con n
al g
\ '
ĠJ ournal
sy ch
Ġmeasure ments
ĠFl or
ro t
it ation
ann els
Ġ ::
ĠD ev
Ġs ave
Ġt ouch
ĠI S
), \
Ġbel iev
Ġc ivil
z ero
ĠB ill
Ð° Ð
Ġactiv ities
ĠH ence
Ġradi us
ĠPro position
tain s
doc s
h igh
ĠAcc ording
Ġsh ot
ĠP M
p ers
Ġem ission
N e
Ġp iece
199 2
ag raph
Ġapproxim ation
Call back
ĠR ock
and a
Ġquick ly
Ġdisc ussion
k m
ow ers
Ġa uthors
ĠC amp
cher s
Ġcons ists
Ġen h
Ġf ine
al a
u int
L evel
c oll
Ġch urch
Oper ation
Ġconstr aints
Ġtem plate
Ġcalcul ated
Ġ* )
Ġg old
ĠL ong
Ġ( "
Ġprogram s
Ġp ackage
Ġra ise
Ġclear ly
Ġob vious
im ation
Ġcom ments
Ġm ur
E v
s ur
Ġbu y
ĠN etwork
s ol
ĠAfr ican
Ġr ail
Ġman ufact
m ode
Ġh op
s v
Ġp adding
Ġre ached
Ġ} \
ut ed
Ġrem oved
Ġrem ember
roll ed
Set tings
D ir
Ġsp ent
\! \!
ĠCom mit
ĠM ost
Ġj oint
ĠL at
Ġl ibrary
Ġexperiment al
Ġbl ood
: (
Ġproced ure
âĢĿ .
ĠB G
Result s
ĠT wo
ĠRuss ian
ul k
Ġapprop riate
h ash
ĠC D
Ġsatisf ies
D own
ĠFr ank
Ġman ager
ask et
Ġparent s
AP I
Ġass ist
ul y
if ul
c p
in f
C ore
Ġlead er
Ġappe ared
Ġcoll abor
Ġed ges
Ġnumer ical
Ġdem and
ĠFranc is
Ġ| \
Ġadv ant
ĠE qu
ent y
Ġang le
mat rix
Ġocc ur
Ġmar ried
Ġcon cent
ĠB re
Ġcoupl ing
t ure
Ġpol y
Ġs quare
Ġex cit
ad s
ĠV er
Ġh arm
Ġa mb
Ġc ool
erv ation
Col lection
The se
ress ion
ĠB i
ĠH en
ens us
Ġcomp are
}} (\
Ġset t
Wh ile
S ign
ug ins
Ġg auge
Ġb us
ic ients
Ġex ternal
M at
L P
Ġunderstand ing
L S
St at
Ġdeta il
v ari
Fig ure
b el
Ġ> =
m ake
Ġex c
Ġfem ale
ĠM ap
Ġro ll
de bug
Ġp ul
Ġs ampl
Ġh ar
A m
Ġreport s
ĠK ey
Ġin form
am ing
pos es
Ġcomb ination
V AL
y an
Ġorgan ization
und red
% ;
)\ ,
Ġgalax ies
Ġon to
Ġv oice
Ġdef e
Ġass ign
it iz
ict or
Ġrepl aced
r adi
Ġin ner
L eft
i pe
k r
ant a
Ġ ut
Ġm aster
Ġpart ners
w s
Ġmov ement
h om
Ġhand s
Ġhe avy
ĠGr and
ct x
' \
ĠComm ission
Ġent er
Ġeff icient
Ġinflu ence
ix el
ĠA M
c ases
az z
ogg le
trans form
E q
As ync
ĠG ener
Ġf elt
Ġp lease
result s
Ġdirect ed
Ġincre ases
ĠP eter
Ġlo op
Mod ule
d irect
Ġform ation
if fer
Ġeconom ic
Ġde b
ob s
rodu ction
ĠSh ow
ĠW estern
Ġmoment um
maz on
ĠG ood
ollow ing
aw s
ĠĠĠĠĠĠĠĠĠĠĠĠĠĠĠĠĠĠĠĠĠĠĠĠĠĠĠĠĠĠĠĠ ĠĠĠĠĠĠĠ
& #
A re
ĠM o
Ġcar ry
199 3
Ġvert ices
ap ers
Ġext rem
Ġfra ction
Ġed itor
Ġident ify
l anguage
Pro t
Ġspect ral
Ġliter ature
Ġun known
U P
ful ly
ĠMore over
Ġdig ital
k et
ad er
N on
ĠG ames
ck now
or ter
L ong
art s
se ud
) }(
Ġca used
ĠSe cond
ĠG overnment
Ġprov iding
ut able
Ġcall s
Ġda ughter
D ep
ang ing
ic ity
ed er
197 0
Ġcl ust
Ġlist ed
Ġl i
C al
b an
we et
25 5
Ġpl ans
Ġappro aches
ĠD uring
atur day
O ption
Ġp arams
Ġlook s
Con nection
Ġref lect
Ġsur round
ynam ic
Ġtechn iques
Ġopport unity
Ġl ib
Ġfin ished
Ġtask s
Ġb inary
ĠMin ister
Ġresp ond
Ġs al
v as
Ġsim ulations
ĠDiv ision
Ġexist ence
ĠS un
Ġl ock
ĠF acebook
ĠMed ia
T C
inter face
ĠR un
E C
Ġin tr
ĠE ach
Ġdep th
Ġb rief
ed s
ĠN ame
d elete
at o
c opy
ot ing
Ġdist inct
Ġassum ption
Nav Bar
_{ -
Ġhas h
Ġcorrespond s
Ġst ated
P ass
D S
ific ations
gl obal
st o
Ġsh oot
sub subsection
Ġsum mer
c ut
ĠW omen
Ġw ild
Ġsit es
Ġsepar ate
new command
ĠDirect or
ĠEar th
Ġpolit ic
all ery
Pro perties
er ies
ĠK ore
Ġocc up
T S
rel ated
C or
Def inition
Tr ack
onal d
Ġdeath s
r ices
it ors
ĠC am
ph one
Ġstr ateg
Ġgr and
ĠM ont
ĠM ax
D ocument
ig r
Ġshow ing
Ġfil ename
ĠL and
ig ration
Ġstreng th
Ġtr ust
Ġseg ment
Ġthe ore
C ar
b ullet
ĠBo ard
ell ed
S k
t n
Ġto ken
ynch ron
ic ago
T V
re q
for all
ĠU se
ĠP y
Ġm olec
ĠVir gin
n eg
ĠM el
Ġopen ing
s end
u y
S ession
M enu
' _
Ġal gorithms
ĠB ase
L iving
Ġ Î
Ġsim ulation
ĠJapan ese
p resent
Int eger
or a
du le
ĠT im
Ġpl aced
Ġcorre lation
Ġch ance
Ġover ride
ĠF our
Ġp le
com ponent
ĠH ot
ĠMod el
ĠF ield
ĠOff ice
Ġte acher
mult i
Ġart ist
ĠRich ard
Ġevent ually
Ġrec ords
r ad
est s
ult s
ic ons
w est
I B
M ark
Ġsp read
j oin
od ay
ang ular
U se
F ont
med ia
Or der
b ind
Ġdom in
Ġd ual
v ey
Ġprot ocol
Ġcap acity
j a
Ġdr ive
ud get
ip al
ĠM ethod
Ġre nder
Ġey es
cl ick
Ġsaf ety
Ġrec all
Ġmeas ures
Ġinequ ality
O K
ĠT imes
Ġco ach
) _{
Ġapproxim ately
ĠJ ose
en v
ĠG en
ir med
est ed
ick er
' d
ir al
ĠEx ception
ĠE ducation
( :
ĠĠĠĠĠĠĠĠĠĠĠĠĠĠĠĠ ĠĠĠĠ
Ġs ports
sh ot
bl ue
I con
ar c
Ġslight ly
Ġmin or
i en
leg al
Ġt it
15 0
Ġhe ard
Ex pression
ĠAl though
Ġnot ice
Ġnot ed
al d
Ġlaw s
ĠR equ
Ġ" \
Ġtrans action
ĠD en
Ġpair s
ac cess
CT ION
Ġp ure
wid get
pm atrix
U B
Ġag ree
ĠB ank
Ġst able
Ġf ans
struct or
Ġdev ices
ivers al
ĠRuss ia
Ġbl og
n cy
Ġcandid ate
ov ing
ĠG ame
Ġth r
S um
re land
ĠAss ert
typ es
ĠA tt
Ġam plit
ĠCong ress
Ġs qu
Ġindividual s
) ^{\
Ar t
St ore
foot er
ms g
Ġst ack
Ġe cho
Ġdec ay
Ġx ml
Ġf arm
ell a
Ġart ists
equ al
m ann
E Q
e an
Ġth reshold
Ġt ensor
Ġpl ays
urs or
Ġtr uth
ay lor
Ġp ush
Ġe arn
cont in
Ġp or
Ġinteg ral
f ull
Ġprop ag
Ġbr anch
Ġread y
Ġcoeff icients
Ġp an
Ġscal ar
Ġal one
he lp
v ol
Ġsp ot
Ġinterest ed
sh ire
ĠCh ild
c ategory
ĠAcadem y
a uth
Cl ick
k l
=" _
Ġbehav i
() :
Ġhapp en
W S
Ġcre ating
The y
' .
Ġsee k
P H
199 1
Ġcomput ed
u ce
ĠD ate
ri end
Ġst orage
ĠFlor ida
ĠL os
ament al
P tr
annot ation
Ġmajor ity
Ġtr aff
ĠEng ine
u an
che n
im in
th let
conn ect
Paramet ers
Ġr ing
oot ball
os is
og ene
g est
Se ction
Ġqu arter
}$ -
T im
ĠC ath
Ġb g
Ġintrodu ce
ĠA R
Ġrel atively
ert ific
Ġcompet ition
ĠTr ue
ĠS ol
An y
c lear
add ress
Ġc at
org an
Ġw at
__ __
H ost
pro duct
Ġcomb ined
ab it
ĠĠĠĠĠĠ Ċ
ri er
\| _{
Ġdise ase
Ser ial
p anel
Ġh idden
ĠS ervices
ĠL O
S m
D IR
Ġenc our
ĠBG COLOR
ash ion
en um
re v
p icture
Ġ$ .
ST R
b its
Ġp oll
ĠS il
Ġcol lege
ĠSund ay
O ther
def ined
ĠM ass
Ġsh ift
m iss
ĠCan adian
Ġl attice
1 20
Ġro ute
Ġf irm
T itle
ĠD evelopment
ĠB rown
~ $\
it tle
Ġth ous
================ ================
Ġdeta iled
ip eline
Ġcommun ication
ĠCommit tee
Ġpart ial
end ar
un icip
f ocus
Ġrespons ible
Ġover l
Ġdis k
Ġtool s
R ed
Com ple
ĠN OT
Ġfour th
ĠA ND
Ġfl ag
he mat
PE CT
="../../ ../
c f
ĠO p
ĠP et
Ġmor ning
sh ort
Ġgu arant
Ġv ote
,\ ,
Q ue
Ġclass ification
Ġcirc le
H S
ĠM ur
ĠAir port
Ġmaterial s
u ke
is l
Ġo dd
Ġbr and
S chema
Ġt or
pos ite
Ġlet ter
as tr
ĠJ un
Ġw aves
ĠT em
ĠN O
ĠV is
k in
l ig
ĠT ra
irc raft
pend ix
Ġarbitr ary
to String
equ als
ĠMan agement
ĠV iew
ĠPl ay
fr am
anc ing
ĠKing dom
ol a
' >
ac le
Ġdistribut ions
Tem plate
Ġform al
ĠE ven
Ġdest roy
C I
i ance
Ġcal c
Ġw onder
ĠI ll
Ġdes pite
Ġach ieve
_{ {\
Ġ[ '
it ness
Ġ+ \
Ġmod es
ĠLou is
ĠFil m
ĠC ON
Ġla un
Ġm ill
Ġpar allel
il ib
Ġabsol ute
Ġgrow ing
Refer ence
ov es
Ġdet ect
up le
ĠFr iday
Ġp ool
)\ \
Ġhe ar
Ġdiffer ences
ĠZ eal
Ġpert urb
ĠAr ts
Ġinter actions
Ġp ages
ab y
Ġprocess ing
a ver
ĠChar les
p ower
Ġex change
ĠB as
pos s
Im pl
ĠB ur
ĠSt ep
Ġmeasure ment
st at
j i
D P
Ġinter val
out e
h over
ic ations
Ġac com
Ġcl in
block List
Ġar m
D raw
Ġop in
Ġmost ly
-- >
Ġde lete
n y
Ġcy cle
li e
I ter
E ach
Ġkn ew
Ġs ector
Ġst ress
Hel per
Ġden otes
Ġocc urre
Ġcorre l
ĠIt s
Ġcost s
ry st
d est
Ġs ociety
ĠF estival
ven ue
v m
) ^{-
ic ine
ĠD et
co in
as tern
ĠS pr
D L
cl aim
s ime
Ġw rap
T ool
ĠL ake
ĠK n
M C
Ġax is
ĠH ome
Ġp icture
}^ *
ĠZeal and
M ain
sime q
V er
Ġre asons
Ġan c
ĠS ocial
Ġun less
est amp
Ġfail ure
16 0
form s
p ool
s ession
' }
ail s
ond ay
Ġm ission
k o
ĠPar is
Ð º
Ġph one
G ET
l ines
s pe
A c
ag onal
Ġw ants
ĠO h
m en
$ ).
ĠAng eles
Ġfore ign
N ames
ĠS pe
clus ive
? :
ic ies
pl ugin
ri p
ub y
Ġth ick
Ġn om
Ġ} )
pect ive
Ġestim ates
D R
Ġor ient
Ġh undred
Ġpos itions
Ġaltern ative
J ohn
fr ont
Ġcontribut ions
ic ed
' ],
Ġat tract
Ġs ch
ĠAt l
=" /
P arser
Ġc ache
S R
Ġupd ated
in ternal
Ġarchitect ure
Ġtyp ically
I E
ĠIn formation
; ->
ĠI P
Ġcommun ities
ut ing
B R
ĠB ob
) }{\
Ġund efined
as i
ist ical
198 9
AT A
Ġmat ches
m ic
ig an
ĠT our
im inal
ell er
Ġv ac
Ġassum ed
un ct
Ġm obile
Ġcom mercial
Ġexpress ed
Ġpro ceed
## #
ce an
Ġm ixed
Ġblock s
per p
ĠN umber
Ġh uge
Ġo il
ĠMart in
fram ework
ĠTe am
hand le
ĠPro fess
Ġw est
ĠS aturday
Ġtrans formation
n ap
Ġsp irit
V ari
Ġmechan ism
ploy ment
ock s
ĠCent re
vir t
com ment
N R
rem ark
25 6
j ust
ĠA L
ne ctions
U RE
}} ^
t ik
Ġgr id
ĠTechn ology
L a
.... ....
eff ect
ĠM ath
Dev ice
ourn ament
stand ing
ĠL ib
Ġw ood
ĠF ree
Ġr ise
Ġsub set
Ġide as
H as
Ġla unch
} %
Ġv ary
oth ing
ĠIsra el
h s
p atch
Ġsaf e
Ġobserv e
Ġcur ves
ĠL ine
Ġwork ers
cl oud
Ġb illion
v s
âĢ ĺ
up s
ab il
Ġ eth
set tings
Ġindic ates
Ġd og
Ġcar ried
âĢĿ ,
Ġde com
ĠGe org
Ġvert ical
Ġanal og
d ist
c are
Ġpower ful
k ins
point s
ĠI reland
Ġe ast
K ind
Ġpar se
ERR OR
AT H
ack et
stit ution
ĠL ee
Ġsp atial
al i
f ol
ĠâĢ ¦
ĠâĢ ¢
ĠSec ret
Ġg ap
) {\
ins ert
Ġdel ay
OR D
depend ency
ĠT witter
ĠL ove
ik i
Ġfind ing
Ġconstruct ed
Ġj av
Ġtre nd
V ector
Ġann ual
Ġac adem
ard en
ĠC ast
ov a
ĠJ ud
Ġcl ick
ap es
Ġd u
ĠP ower
Ġf ill
Ġserv e
ĠCh icago
Ġinterpre t
S ome
ĠPol icy
er g
ĠH istor
Ġadd ing
Ġhe at
m aterial
asket ball
web kit
ograph ic
sh ape
F alse
Ġcoordin ates
ubl ished
por ate
Ġredu ction
C re
Class es
Ġr are
Ġo wner
.~ (\
Ġin nov
Ġ{ };
r ich
Ġinv ariant
Ġre ct
ĠB ack
ĠO ld
ĠWe ek
f n
p adding
fo o
p a
ĠIr an
Ġ icon
ad ing
Ġconsider ing
T A
ri age
Ġmass ive
ĠE vent
rom ise
Ġeffort s
s ort
go ing
Ġins ert
Ġlook ed
d ouble
ol es
\ _
ĠL ibrary
el ess
Ġbut ton
ĠW ood
Ġcl imate
Ġrap id
Ġcontain er
Ġhead er
De cl
map sto
Ġabs or
Ġreg ime
ar ian
Arg s
c ustom
ĠM ad
re nder
Ð »
Ġcam era
OR M
Ġview s
ĠIt alian
ĠSc ot
st ein
Ġn ation
- $
Ġs ales
Ġdepend ence
Ġindic ate
Ġb attle
Ġbg color
ner gy
Ġgo als
ĠV ictor
Ġyield s
Ġhyp ot
Ġa ware
$ ^{-
Ġmat rices
id get
j pg
Ġse a
Ġtr ained
> ();
Ġinit i
ff ect
Ġ= \
P op
Ġspe ak
ĠM A
ĠYou ng
ĠW ed
ĠThe ir
ĠL in
F ound
ĠCol or
he tic
inst all
Ġl ayers
ist ent
Ġtyp ical
Ġtri al
M ENT
Ġal leg
A pi
put e
Ġprov ed
ell i
Ġke pt
Ġad op
Ġhapp ened
pre c
ĠJ im
Ġun ion
Ġcrit ic
Ass ert
Ġcan cer
Ap plication
hold er
un ities
ut y
ĠM il
ĠE very
$ $\
ĠJ SON
ĠAn y
hen omen
press ed
Ġmur der
} )$.
IT Y
if est
all ow
Ġf if
Ġopt ical
Ġst ellar
a us
st ore
Ġ> >
Ġre tr
Ġchall enge
field s
Ġcent re
Ġstart s
tik z
Ġide al
E CT
Th us
ex ports
p ir
Ġpro pos
Ġdef in
ĠSt and
Ġtri ed
Ġle ague
H z
Ġmod ified
ri um
N G
Ġclaim s
Ġbuild ings
ĠL i
ĠT er
Ġcont ained
ĠF re
19 60
c ape
) },
Ġin fr
Ġdown load
Ġap plic
D I
ĠHT ML
Ġsing ular
ĠU ser
Ġachiev ed
ent er
Val ues
ĠGl obal
ap plication
ta il
S ing
Ġra ised
for ward
Ġcrit er
ĠU sing
] ]
ĠH and
Ġper haps
Hand le
Arg ument
agn ost
Ġexpl ain
ud es
D oc
Ġo s
ĠĠĠĠĠĠĠĠĠĠĠĠĠĠĠĠ ĠĠ
ĠG aussian
ĠC A
mod ules
raz il
R ect
gr id
Ġstrong ly
M ed
on ym
Ġspect ra
P arent
cl ip
ĠT re
198 8
{ $\
Ġvis ible
r ical
ex port
ĠPl an
ĠSt at
Ġpart ition
In valid
Ġsom ew
se ar
Ġgu itar
ust ain
Ġold er
Ġwh om
ĠH aw
ĠAs sembly
as ion
ed ge
ĠE conom
he m
Ġcon flict
uz z
id el
ĠS O
pt on
dis abled
ourn ey
Ġadj ust
Ġap parent
og en
u ous
Ġdynam ic
Ġ+ +
el come
reg ion
n n
) _
M ay
od d
D om
Ġpart ner
Ñ ĥ
urs day
Ġn ative
Ġent ity
ĠM ov
Ġadvant age
Ġdo or
The orem
ec es
ĠU N
tr i
Ġoriginal ly
ĠB et
Ġocc urs
^{ +
M R
ĠM a
s uccess
Ġse ctions
Ġdr iver
Ġex tr
et ry
Ġ ice
at i
U sing
D i
E rr
Ã §
ĠA wards
B ody
m i
pon ential
im s
t oggle
u ing
orn ey
Ġeff iciency
ĠO l
on ical
Ġg ain
pl ot
ĠDes ign
am ely
ro ph
Ġby tes
Ġtraff ic
ĠE lect
> .
Ġh ydro
ĠV alue
Ġar rest
St ep
co q
in itial
Ġhelp ed
em ail
Ġfunction al
Ġk ernel
Ġcover ed
M B
gr ade
Ġrestr ict
m osp
Ġmet al
Ġown ers
ĠH ig
ĠFor ce
ĠAr ab
ĠEn ter
ellig ence
Ġ$ $
} "
Ġd ream
Ġm ys
Ġ ul
Met adata
Ġle aving
im a
r ick
pro position
ann er
G u
umn i
ĠEX PECT
Ġsymmet ric
Ġ' /
Ġf ol
( *
Ġregard ing
h bar
)$ -
h ow
Ġappear ance
ĠRec ords
Ġf reedom
h y
by te
ĠJ o
De bug
Ġh our
Ġp y
Ġmay be
um s
D C
ilib rium
Ġv ectors
Ġset up
Ġconver gence
Ġb ill
Ġas ympt
Ġstr ugg
Ġto ward
Ġcustom ers
ra wn
s che
Ġsem i
H ome
Ġlearn ed
AC E
ĠVirgin ia
s he
ide os
Ġthan k
ĠEx ec
S ION
Ġt al
ĠP enn
Ġeval uation
Ġpart ies
Ã ¨
ĠH or
Ã³ n
ĠVal ley
Ġind eed
ĠMex ico
Ġp aid
Ġn amespace
ud io
r ons
Ġm essages
sc ape
Ġtr igger
Ġdis s
ĠE rror
ues day
G S
SE T
R ender
Ġby te
v a
Ġd ie
pl ugins
Ġconstr aint
Ġwin ning
B ook
bo olean
ĠI d
W rap
_ ;
ĠB oth
ĠA mazon
Ġsh op
n umer
ĠC are
il ing
R ule
virt ual
Ġk ids
Ġbound s
Ġpred iction
Ġplan et
A tt
ĠF inally
A ME
Ġrequire ments
Ġpro port
12 8
Ġf ederal
ĠAs ia
aut o
Ġbeaut iful
Ġpl us
omorph ic
angu ages
sc ill
Ġdirect ory
ĠC opy
des c
' ))
r f
Pol icy
Ġc itiz
ĠA N
Se cond
iv ery
ĠE p
Ġb right
Ġfound ed
clud ed
Read er
ĠSpec ial
P ackage
ĠM ult
is ters
ĠW ell
Ġdifferent ial
; <
reg ister
radi us
Ġelect ed
Ġveh icle
Ġsecond s
Bo olean
Ġread er
ĠComm unity
-------------------------------- --------------------------------
F urther
it ivity
) +\
' (
ĠI II
ple ments
Ġm orph
On ly
ier arch
anc er
AG E
Ġres on
Ġf ear
Ġthink ing
St ack
key s
198 7
i ro
Ġobserv ation
Ġex cell
ĠR ail
l ers
Ġbe am
form ance
ĠOr der
Ġa ircraft
ĠJ ones
E ar
st op
am in
Ġch annels
Ġsatisf y
Ġst uff
ĠS ar
Ġpr ison
u ctions
ĠSt e
; /
Ġey e
g a
B efore
ĠRe port
ĠW ay
ing ly
HT ML
$& $\{
Ġdepend ing
Ġt end
Ġmin imal
Ġm apping
Ġre ality
Ġlim its
Ġcon vers
us band
ĠCon n
P aram
z en
Ġfund amental
Ġsm art
d iff
f ly
By tes
ian a
call ed
w a
g reen
ĠB ecause
il ation
F S
Ġexpl ained
nes day
y e
el a
F R
T ab
Ġn or
V ar
d ependent
Ġph il
re place
}} ^{
Ġoptim ization
Ġch ief
ĠS and
Ġus ual
ĠSum mer
Ġnuc lear
m o
od ot
ĠHe ad
12 3
St orage
Ġend ed
igh ter
sq l
N um
C ustom
sp ring
Ġfor ced
Ġlaun ched
en ess
$ ;
ult ural
S ym
` .
ĠH uman
Ġdr iving
j e
ri ze
Ġb in
Ġ\}, $&$\{
ĠIt aly
\ {\
c ref
od ies
ut ch
Ġb oy
FA ULT
Ġj son
ĠC ode
Ġl ies
ĠL ie
Ġwe ap
Ġallow ing
W A
1 10
ĠW al
Ġacc eler
Ġmatch ing
Ġin line
Ġrecomm end
Ġp henomen
k g
Ġcomp at
Ġp i
Ġ ^
cknow led
f old
art icle
f ony
Ġimport ance
V ol
Ġg un
Ġpre p
an es
Ġpl anning
Ġ ens
Ġcontin ues
ĠW all
s ite
) ),
Test s
call back
b ot
Ġbenef it
Ġre sear
Ġcomplex ity
d ated
m argin
$ ~
198 6
Sh ow
t wo
Ġcould n
ĠCh ief
ĠSp anish
Ġd aily
Ġw allet
D elete
Ġf an
Con s
ĠI O
Ġoffer ed
ad min
Ġbecom ing
F ram
Ġturn s
ĠU RL
ï ¼
% )
ĠIs lam
Ġscen ario
Ġman aged
| _{
Ġcall ing
` ,
$\ \
Ġcon sole
Ġuns igned
ĠM P
ĠJohn son
Ġrepl ace
ĠJ ac
ĠS U
ak a
ĠOn ly
ap pe
ig in
ĠK ar
ph as
ig ital
ĠM onday
ĠD own
Ġchem ical
Ġdam age
) ).
Ġm ask
Ġat tributes
Ġw ish
l at
ĠH on
Ġr ul
l ife
198 4
ĠP op
Ġsol ve
Ġloc ations
let on
Ġad vert
ĠChrist mas
ĠG al
ĠT aylor
r ase
L C
n one
ĠW ho
ĠAp p
d ict
ĠD C
By te
Ġp p
am m
Ġtechn ical
ĠP oint
r u
Ġl ab
Ġis ol
Ġm iles
In itial
Ġinvest igation
Ġro ugh
Ġdr ink
Ġat tr
ĠP an
Ġhapp y
ĠF ootball
Ġ&= &
I X
Ġgalax y
st able
Ġsk ills
Ġgrad ient
f ound
ĠHamilton ian
Ġsup ply
} &
ac ific
Ġen able
Ġcre ation
R oot
Ġattack s
b ad
ar se
ax is
f amily
D ialog
198 5
Ġs un
ĠPh ys
Ġr ac
Ġme ant
dom ain
b en
Ġhapp ens
ĠT ext
Ġtechn ique
Ġo scill
ĠC a
l ow
Ġmain ly
if ts
ut or
Ġa head
ĠA uthor
Ġindu ced
F inally
Ġart icles
ĠF ort
Ġstat istics
Ġchang ing
ĠPar liament
Ġco ast
Ġdeg rees
z z
Ġmon itor
ĠReg ister
erson al
Ġc row
n etwork
Field s
") ]
Ġtr ail
Ġimprov ed
ĠCath olic
Ġphot o
Ġcon clude
Ġst ations
ĠF amily
S end
Ġdim ensions
Ġs chedul
Ġed ition
Ġbroad cast
ĠCarol ina
Ġh ospital
ĠComm un
in et
Ġaud ience
Ġfe et
6 00
lo op
em y
Ġfam ous
Ġf loor
Ġd anger
W riter
ĠT H
b u
ĠS E
Ġrot ation
ertific ate
[ (
N etwork
ip age
sh all
P RE
Ġreveal ed
ĠFurther more
)-- (
ĠL ink
Ġh ole
ĠC y
En abled
u er
Ġ< =
ĠL im
Ġsen ior
ĠL ead
Ġalbum s
Ġle aves
M T
M eta
ir a
arg ument
al id
h ar
Ġman ifold
Ġrefer red
Acc ording
ly ph
X ml
EN D
Ġf lex
Ġoper ating
Ġrest aur
ition ally
medi ate
Ġre ject
i able
} }$,
Ġser ial
Ġbr ain
25 0
istr ation
B E
Ġag ents
Ġext end
Ġcertain ly
display style
Id ent
n el
Ġ ðŁ
Ġfore st
Ġuncertain ty
not ation
Ġappoint ed
Ġmagn itude
Ġbal ance
here nt
A v
Ġtherm al
Ġnot ation
Ex p
Ġfeature d
\ )
ass ets
her it
ĠW ater
ict ures
Ġimplement ed
ĠSec urity
Ġ ener
ĠC ard
ĠÂ »
ĠM ain
ce ived
ol ver
Ġkey s
Ġdist ingu
min ipage
Ġent ries
Ġsol ar
Ġcon ference
Ġ ult
ĠĠĠĠĠĠĠĠĠĠĠĠĠĠĠĠ ĠĠĠĠĠĠĠĠĠ
Ġpattern s
he t
Ġunder lying
Ġmass es
Ġhigh light
T wo
m aster
ĠHen ry
Ġag reed
Ġbe at
, $
TE ST
ach ment
Ġr ich
Ġtalk ing
Ġcon ven
ate ver
D on
W ill
s el
ĠS ports
Ġall oc
ĠT O
Ġrem ark
Ġfocus ed
Ob j
Ġrob ust
A uthor
Ġ( '
Ġv oc
Pat tern
b c
b ury
Ġneighbor hood
Ġp il
Ġthem e
ĠAp ple
Ġsum mary
ĠC P
ble m
con nection
}{ |
ĠP age
y es
s uch
} }$.
Ġeval uate
op ic
pass word
ĠW indows
AR Y
Ġs ell
Ġdes c
w an
Acc ount
ĠC ross
Ġinteg ration
S ch
ĠM any
Ġtre es
H R
item s
pro perties
cc cc
ian o
ĠF und
ĠL ord
ip ped
ado op
OD O
ĠS wed
li k
ĠĠĠĠĠĠĠĠĠĠĠĠĠĠĠĠĠĠĠĠĠĠĠĠĠĠĠĠĠĠĠĠ ĠĠĠĠĠĠĠĠĠĠĠĠĠĠĠĠĠĠĠĠĠĠĠĠĠĠĠĠĠĠĠĠ
D et
M edia
ĠA ction
Ġcult ural
av or
Ġinv oke
: }
D el
v ing
ĠG re
) -\
Ġwe ights
Ġcapt ure
ĠJ on
Ġcalcul ate
m ond
ĠL ab
w orld
p an
Ġman ner
ĠAb out
ĠB ow
R R
ĠL ight
ac ro
os oph
Ġw arm
Ġm ock
ul f
Ġd raft
Int roduction
ag r
Ġlabel s
Ġis land
uck et
D M
Ġk ill
ĠBl ue
t w
Ġcover age
urre ncy
av it
Ġhe ro
Wh y
l ate
Ġsuggest s
Ġpat ient
Ġp et
st one
ron ic
. '
Ġvers ions
sup er
Ġb ed
g ers
Ġn ice
Ch anged
Ġsex ual
D T
Ġg one
p ot
=" @
m ma
= #
in line
Ġoffic er
it an
Ġh usband
ĠCon ference
i ate
Ġ\ (\
overn or
urb an
Ġp urs
ĠP ass
Ġthan ks
Ġcandid ates
ĠM os
aw n
Ġf resh
Ġposs ibly
s creen
Ġsuccessful ly
Ġact s
Ġear th
Ab out
Ġmus ical
ogene ous
ang o
Ġr an
Ġexper t
ur ies
ĠM ike
ĠN ight
Pro p
pro file
Ġd ro
or row
Ġc ov
m ass
ft ware
Ġdes ired
} )$,
Ġge ometry
em porary
Ġspe ech
Ġtheore tical
? "
Ġinfin ite
Ġexpl an
Ġord ers
B B
= >
Ġcred it
u is
Ġc ars
Ġsum mar
w ords
Ġang ular
Ġfl ight
act ic
Ġeconom y
Ġbenef its
Ġgraph s
Ġgu ess
Ġp seud
ut er
Ġrem ained
P ool
st ats
Ġdiscover ed
Ġb tn
Ġat mosp
Ġextrem ely
Con d
Ġhistor ical
Ġst reet
Ġact or
Ġconf irmed
Ġorgan izations
if er
s ince
por ation
in ations
J ob
Ġb udget
M ock
Ġchalleng es
Ġc ities
ĠWh y
Ġtrack s
G R
Ġassert Equals
G en
8 00
w all
ĉĉĉ Ċ
uck y
ex ception
l as
Ġin come
âĢ ¢
c pp
Ġsuggest ed
Ġenc oding
Ġ$ |\
; "
n ames
Ġcoordin ate
. *
J SON
ist ed
Ġpol icies
it o
B P
f ix
Ġ il
Ġdis pl
ĠN Y
clus ions
ilar ly
por al
Ġl abor
ent ed
Ġaccur ate
ĠL ast
Ġnumer ous
}$ )
B I
Ġsh ock
Ġ[ \
iven ess
l ook
Ġorder ed
ost on
est ion
Ġrelig ious
semb le
Ġpath s
Ġcor ner
Ġconduct ed
b ro
Ġnuc le
ĠTh ursday
Sup port
Ġdoc uments
Ġobject ive
Ġe q
) )$
Ġh tml
Ġscatter ing
Ġjob s
Ġwhere as
v ision
al ing
ĠĠĠĠĠĠĠĠĠĠĠĠĠĠĠĠ ĠĠĠĠĠĠĠĠ
adi um
ĠC oll
Ġofficial s
f i
$ ),
w ait
and on
Ġrel ax
sec urity
w er
r g
hent ication
ĠB razil
Ġinitial ly
Ġn ine
Ġdiv ision
ĠC H
Ġver ify
ex ists
Ġm sg
aw a
Ġass igned
J ECT
it age
Ġs ides
Ġequip ment
es ian
P ublic
Ġcon j
Ġcalc ulation
un te
p et
ĠJose ph
F ull
198 3
Ġsign ature
Ġclust ers
Ġap i
ĠCh ris
s es
Ġatt end
Ġl ived
Ġend s
add r
Ġ" /
sc roll
Ġmed ium
Ġphys ics
ĠW ild
and ra
b ell
O pt
Ġdatas ets
Ġc m
G A
Ġinstall ed
est ic
l arge
ĠL uc
ĠR am
ĠAnd roid
ĠMed ical
Ġtop ic
r at
Ġaff ected
th read
el d
Ġdet ected
Ġent ered
Ġf le
Ġautom atically
per iment
par ison
drop down
ĠP ak
ath an
the me
ĠIn ternet
==== ==
Ġtra ject
Ġr aw
Ġb ond
KE Y
Ġp sych
anc el
Ġcomput ation
M atch
Ġrepresent ing
) }_{
Ġag greg
Ġcolumn s
Act ive
lim it
Ġknow s
Ġad m
ab eth
p red
is is
ĠPol ice
br id
Ġlist en
d em
all oc
Ġmot iv
f ast
ock ey
Ġcol lected
Ġinst ant
######## ########
Ġben ch
ele gate
ĠM en
Ġmark ed
con v
ĠT uesday
ĠF unction
ĠR ights
eng ine
Ġcalcul ations
ç ļ
tribut ed
con g
ĠE U
Ġsh ut
ar ation
Ġprote ction
j query
Ġcomput ational
Que ue
Ġor bit
u v
gy pt
ĠOb ama
Ġtell s
Ġaud io
ĠWilliam s
Ġst ock
ĠJ oe
P erm
ar ia
Ġamplit ude
Ġ[ [
ult ane
ĠM icrosoft
Ġk ing
ĠIr ish
ĠW he
un ately
Ġpr ime
du ction
Ġconf irm
Trans action
poss ible
ĠRe al
In v
ch annel
Ġvari ation
Ġdescri bes
Ġc old
cm d
ĠM iddle
Ġint ended
ĠAnd rew
Ġd ust
m ock
G C
T ags
Ġmys elf
ĠM ot
oper ation
[ :
ind s
çļ Ħ
Ġbi as
ish op
Post ed
Ġact ing
h ome
Ġgu y
__ (
Ĥ ¬
Ġ( *
ari ance
The refore
RO M
hen s
ĠS pace
Ġb rowser
g it
B it
Ġscal es
Ġcy cl
Ġexpl ore
Ġnot es
ĠI R
e ach
y er
ĠV ersion
com es
Ġsatisf ying
ĠUp date
Ġsub stant
Ġbehavi our
Ġdef ense
Ġ ion
og rap
param eters
ĠĠĠĠĠĠĠĠĠĠĠĠĠĠĠĠ ĠĠĠĠĠĠ
)) )
Ġcharg ed
Ġbig gest
ĠSen ate
Des criptor
Ġst ability
Ġfund ing
ĠW alk
Ġtre ated
ad or
P M
W idget
Ed itor
proto buf
os a
w hen
198 2
par agraph
" `
r an
Ġestim ation
sum e
Ġaward ed
Ġfin ish
() {
Ġz one
at tribute
ĠWed nesday
Time out
r ine
Ġsecond ary
Ġaw ait
astr ucture
Ġinvest ment
in ity
ĠIn itial
ch ain
Ġex ponential
ĠL o
m ove
Ġpur poses
os ity
ymmet ric
ĠT ele
Ġcons ult
al gorithm
Ġpredict ed
ĠK h
not es
ans as
Ġsu itable
Ä ģ
10 1
Ġded icated
Ġgu ide
12 5
Ġprinc iple
ele ase
ĠSt art
19 50
Ġcoeff icient
C F
Ġm ir
ĠOr gan
ĠJ eff
is ely
Ġfa ith
Ġf ashion
agn etic
Ġopin ion
Ġinstr ument
Ġir re
Ġcr ime
p ay
ĠB ern
V D
i y
l aw
eng er
iz able
ne ver
h adoop
Ġsampl ing
n am
_ -
Ġstat istical
ast e
A g
Ġwrit ers
ĠS ta
g ies
t otal
ult y
rec ated
ĠF alse
Ġjav ax
uns igned
ĠFrancis co
G O
Ġconv ex
Ä ±
Ġsc ored
Ġfeed back
197 9
Ġem phas
T erm
Ġf ant
il a
Ġ% }
Ġd ir
ĠA S
w ater
ĠSp ain
Trans form
ĠR adio
fl at
Ġf re
) }}
int on
Ch annel
A F
L ock
tx t
ĠW in
Ġinc ident
Ġinvestig ate
s quare
l g
Ġexec ution
By Id
, .
t ip
Ġr iver
Ġs port
pr imary
ell o
ĠR o
circ le
ĠD O
W orld
Ġa ver
Ġne ural
Ġemploy ees
ĠFe b
SS ERT
FI LE
ĠL ear
Ġres idents
ã Ģ
Ġaccept ed
rec ord
pl us
Ġpro jection
ĠE r
j ar
sum er
end or
S cope
br ace
Ġb urn
Ġch air
cond ition
Ġenvironment al
ĠAr g
Ġspec ifically
Ġapply ing
Ġab stract
Ġher self
Ġd oll
ĠA ff
Ġfig ures
Ġrequest s
F loat
ĠE nergy
Ġdepart ment
ĠCol umb
Ġh air
ĠN orthern
Gl obal
Con st
Ext ension
Ġtr ace
Ġden oted
Ġrepe ated
Ġ rom
test s
Ġb ands
ĠW at
Ġstud io
Ġgl ass
ĠBrit ain
Con str
HE CK
Ġexper i
Ġloc ally
Ġn arrow
Ġexplicit ly
ĠN E
Ġcon nections
Ġm ist
ĠL y
Ġdis crete
P AR
"> &
ion e
ĠL ocal
Ġscal ing
Ġwould n
Ġinst ances
ĠJew ish
ĠN on
Ġp owers
less sim
ĠDef ault
] }
es ome
Ġsupport s
à ¥
ur ations
per t
Ġdi am
Ġreview s
ĠDan iel
t an
ur er
import ant
ob e
Ġposs ibility
maz ing
Ġconf idence
v in
ĠC ase
ĠF all
ĠL ike
Y ear
o ir
Ġthe rap
Ġ ×
ĠS outhern
Ġtri p
Ġfl uct
B as
Ġadop ted
Ġd b
Ġhouse hold
Ġsee ing
m n
ĠJ es
im it
Ġl ie
ĠK en
Ġre action
Ġfind s
X T
: =
Ġm enu
Ġclaim ed
d etails
Ġ{ {
Ġsign als
g ame
ĠDemocr atic
ĠW ales
Ġperform ing
Ù Ħ
ĠS uch
Ġ Ø
il ly
Ġhand ler
ev ents
m ut
EX T
ĠIm age
ĠV an
ĠS M
Ġvict ory
Ġm yst
enn is
Ġleaders hip
ĠOlymp ics
w ild
ed it
ac count
Ġadministr ation
pos itory
ur ance
Ġap pre
ph ant
ack s
ential s
198 1
d frac
unn y
Ġyour self
tool s
ĠS aint
a is
ĠMus lim
Ġviol ence
s ave
Ġca ref
ĠN ext
ĠE mp
erv es
ĠSup port
C ap
ĠR ay
Ġbeg ins
iz on
ĠPol it
Ġopport unities
ors hip
@ "
C G
Ġst ored
ĠThe atre
ĠS ign
z one
Ev ents
it ative
ĠT R
Ġc ategories
M D
Ġpre par
d p
Ġare n
VER SION
ĠT w
Ġtw ice
ĠScot land
Ġdevelop ing
pe ople
ex ternal
Ġfavor ite
se lected
Ġexpl o
Ġsu c
s en
Ġanim als
ĠĠĠĠĠĠĠĠĠĠĠĠĠĠĠĠĠĠĠĠĠĠĠĠĠĠĠĠĠĠĠĠ ĠĠĠĠĠĠĠĠĠĠĠ
Ñ ı
IV E
ot on
c am
ĠF ire
ĠEx t
ĠM id
Go ogle
ĠP lease
A uth
Ġown ed
18 0
Ġop posite
G raph
hor izontal
Ġfe at
ĠF ar
ĠJack son
D uring
Ġpredict ions
ĠN et
ĠB O
Ġl icense
ĠR et
) "
Ġtrans mission
are a
ĠG i
ĠJust ice
ĠInd ust
ib li
Ġaspect s
us hed
or al
Dis play
Act ivity
ird s
Ġbo ost
bm atrix
[ -
ver b
. ;
LO G
H igh
eli hood
amp ion
Ġwid ely
$ /
Ġcomm ission
! "
Ġs izes
plic ity
ul ator
Ġpass ing
d y
}( {\
Ġse at
Ġp al
Sec urity
w p
() ));
ĠI l
init ely
J ust
ĠO FF
00 1
a ug
\ }$.
Ġpolit ics
ĠP rem
] :
f riend
Ġt ab
B est
Ġmom ents
f all
ra q
Log ger
Ġtrans lation
}{ (
fl ags
Ġw itness
Ġhel ps
ĠN av
Ġgener ic
Ġcr iminal
T ABLE
l ayer
Mem ory
Ġnew sp
ins on
um es
Ġsequ ences
ĠL ive
Ġcomput ing
is c
Ġab und
N T
ĠP ath
Ġent ropy
ĠG irl
s ch
Ġs leep
ord ers
ĠU kr
Ġiss ued
ev al
$ :
Ġ{ $
ĠJ ava
ĠA T
Ġl iqu
MA X
er ry
ĠIn vest
Ġj ourney
Ġwe ather
S w
. __
Ġexcell ent
Ġv ision
ul i
Ġr ain
dep th
F ix
Ġex erc
Ġt ail
iz abeth
ĠC R
Ġch art
In it
ĠCE O
ist ence
Ġoccurre d
Ġelectron ic
Ġsing er
Ġpi eces
( !
Ġmot or
ok es
Ġregister ed
Ġinvolv ing
r andom
Ġentire ly
Ġb undle
ON E
Ġqu adr
33 33
Ġbro ken
Ġadv ance
tain ed
on to
U ID
Ġl umin
Ġd ire
ĠM O
Ġinter act
Back ground
im ately
ĠS ep
Ġcharacter istic
h u
ud den
ĠBe ach
=" ">
que ue
Ġs ister
Ġr ational
og ram
&= &
Ġen abled
Ġrem ote
Ġex port
ĠA ge
Ġd uration
ĠL ittle
e z
] $.
ĠCo ast
Ġcont rolled
Des c
) ">
Ġrepresent ations
ĠInd ex
Ġn arr
IC E
if iers
Ġp od
key word
Ġshe ll
Ġrefer ences
p res
burg h
or ough
Ġstand ards
Ġsuc ceed
ĠGu ide
âĢ ĭ
M I
^* $
Ġo k
Ġpers pective
ĠD at
p ic
Ġoffic ers
k w
Ġcirc um
Ġdec ades
Ġwait ing
Ġun iversity
t frac
ĠP acific
Ġcompos ition
Ġn g
ĠQue en
ĠA nother
l f
uc ial
im m
ĠM ake
197 6
Ġv ir
Ġrec ording
Ġte le
ag ers
Ġfac ilities
Ġinter section
197 8
ili ar
ĠH a
Ġco inc
) })
M ember
$ };
h box
Ex pr
up load
int eg
Ġradi ation
com ponents
nt ax
rit ory
Ġinstance of
ĠGeorg ia
ev in
im pl
Ġcharg es
ix els
ĠR om
Ġal umni
van ia
$ _{
B ound
Ġt error
Ġs cre
r ank
ord an
t iny
Ġca uses
Ġle mma
Ġcont roller
, ...
Ġt ournament
Pro duct
Ġadv anced
tab s
ĠV ideo
f ire
r idge
un a
s a
L IC
Ġfund s
Ġgirl s
Ġconst ants
ut f
sk y
Ġinv alid
A nother
at ar
Ġupd ates
ĠS us
St op
> \
Ġstrateg ies
ĠT ask
j oint
Ġv ideos
cont roller
| }
Fil es
D em
ĠE st
er ial
ĠS ir
h ard
ad el
Ed it
Ġscient ific
am i
epend ence
config uration
Pro of
Ġsufficient ly
}} )
G eneral
ic ing
ĠJer sey
he ast
us al
Ġap pend
ĠCon fig
ĠJ r
ĠC amb
Ġcomp r
iffer ent
197 5
Ġoption al
ĠH ospital
Ġconsequ ence
e cho
ĠSc iences
Ġyou th
ĠProfess or
V M
Ġn amely
% ,
ĠS ong
Ġexec utive
Ġassum ptions
}} _{\
ĠS i
ick ets
Ġnav igation
Ġj ump
Ġsatisf ied
Ġequ ilibrium
Ġdram a
Ġem ot
Ġbuild er
Ġcustom er
Ġex pos
ER S
ĠI mm
om ent
ĠM aster
g ency
s u
Ġf uel
Ġprinc ipal
b re
ĠF ederal
ST ATE
IN FO
Ġt ight
ĠEn vironment
S uccess
Ġfeel ing
tr igger
Ġveh icles
Pr int
Ġreg ional
Ġcitiz ens
s chema
n ic
Ġf aster
ts d
ĠM u
ĠCar l
Ġsim ultane
F ind
up l
empty set
W indows
Ġw arn
Gr id
Ġ} }
Ġseem ed
ĠCom put
Ġsup posed
Ġin n
ch or
il bert
Ġs outhern
u um
ĠM ajor
ĠC ivil
Ad apter
os es
b p
Ġpass word
Ġcl ients
Ġbeliev ed
[ $
", "
)) );
ĠH arr
Ġr ig
,\ \
Ġcon vent
ent h
Ġmag azine
sy l
Ġf ellow
Ġin fer
el ly
Ġbusiness es
Direct ory
ov iet
ĠB oston
ĠC ro
ĠInd eed
ess ions
Ġout er
Ġprodu cer
ĠP R
ĠAp pendix
ĠOb serv
}[ \
let s
Ġcom fort
å ı
am ber
new s
Ġf illed
Mem bers
bl og
Ġpen al
g eneral
ac ent
Ġor th
op her
NavBar Cell
ist ant
Ġmax im
197 7
che ster
Ġcan cell
c ussion
Ġpost ed
Ġindic ated
sc ss
Ġthous ands
Ġin verse
ĠCont rol
b et
ĠS om
ĠF inal
Ġnecess arily
] $,
D etails
Ġm unicip
m al
V ideo
Element s
ĠE gypt
}\ ,\
comple te
Ġes cape
ĠS at
ĠÂ ©
sw itch
ibr ation
197 2
Fe ature
Ġh y
Ġkeep ing
ĠStud ies
ĠSt ory
Ġdisc r
197 4
os itory
b d
Ġl anguages
Ġclos er
SI ZE
Ġsub group
Ġanc ient
Ġsp an
Ġcompos ed
It ems
h ab
Ġdiv ided
Ġmet rics
! âĢĿ
M sg
ĠU r
Ġcontr ad
ĠD ar
ĠB ol
log ger
Ġs ym
Ġtr uly
ĠAs ian
Ġsupport ing
ari os
At tributes
ct ic
Ġs yn
ĠRepublic an
n ight
Dat abase
ĠA ccess
ĠD ir
ĠG ar
Ġinsp ired
ĠAg ain
M atrix
ak ed
h idden
Ġdecom position
Ġ= ========
ĠL ook
Gener ic
Cl uster
Ġpro pose
L o
ĠF ood
w riter
In ternal
Ġb ulk
Ġ[ ];
ĠAd v
pol y
ĠO x
ri e
Ġrecogn ition
ab out
* )
che str
ĠSe a
Ġd ress
plic ated
Ġint ensity
S pace
Ġd ot
Ġ\ ]
Ġc er
196 8
erv ative
R et
ĠAd ministr
type of
Ġnear by
ock er
_ ,
Ġb asketball
Ġad vent
Ġrow s
Ġclass ic
f ail
ly wood
IP T
H C
cre d
ĠBook s
Ġinteg rated
P ATH
og y
h ang
G N
ĠG iven
Ġ\ !
Ġhold ing
Ġeas ier
tikz picture
B rowser
-> _
ĠO ption
is a
assert Equals
ĠAmeric ans
Ġpre v
) )\
st ood
Ġ" "
Ġpl ants
Ġex ceed
ĠPhil ipp
T ra
ĠS D
ĠF air
Pl ay
ĠCopy right
ĠS earch
v als
Ġf ish
by tes
Ġk ick
//////////////// ////////////////
Ġc e
ĠWil son
Ġeffect ively
Ġconcern s
ĠS C
it ted
column width
ĠPr ince
Ġn orthern
Ġsk y
Ġd ance
e lect
atter y
ipl es
Ġim plements
n amed
ĠOn ce
t mp
G iven
Ġcar bon
Ġacadem ic
Ġassoci ation
Ġprec isely
Enc oded
Ġm el
Ġmark eting
D ouble
ĠH ard
h l
U nder
ut ely
ĠM ah
Ġinj ury
ro le
sim ple
Ġhot el
Ġrece iving
Ġf ell
P y
Ġse asons
Ġrelationship s
ro ke
b rowser
Ġmar riage
ĠC ustom
man ager
Ġsubsequ ent
W N
math op
Ġar my
ĠL ew
Ġatt ended
ĠCol lection
Ġk id
197 3
Ġapplic able
ino is
ĠSt an
ay a
ĠM as
e en
ĠK ong
Ġd rawn
ĠTr ust
I MP
Ġarr ived
ĠT erm
ub ble
Ġparticip ants
and y
', '
are t
Ġex it
Ġcharacter istics
Ġprec ision
Ġlarg ely
ĠMich igan
Ġac comp
++ ;
Ġsc ores
F IG
J ava
ul ating
Ġconc ert
Ġfootball ers
Ġserv ing
Ġbel ief
Ġrec ip
Ġap art
Ġde let
s ample
con str
Ġ" ,
=" "
Sum mary
Ġcol on
Ġmed al
In s
syl vania
Ġpract ical
! [
Ġtemper atures
ap l
S pe
Ñ Į
h av
ar ity
Ġd ialog
P anel
math it
Select or
ĠK im
Ġwatch ing
con tains
sl ant
Ġs ustain
V E
ĠTh ree
th rows
Ġl ayout
Ġtest ed
och astic
play er
ys ical
Ġstr ings
Inst all
pl atform
Ph one
ĠPro cess
Ġext ent
Ġc ounty
ad ed
Ġhe av
] {\
Ġ" <
P ay
Ġfact ory
T otal
Ġ ip
Al though
Ġgu ys
Ġbr idge
as et
IT E
> :
Ġc ryst
? ?
ĠB ell
her ited
ĠBro ad
}} .
Prot ocol
pl ane
Ġg ate
Ġwin ner
Ġorgan ized
Ġtyp ename
Iter ator
P lease
serv ices
Ġmov es
ret ch
or i
Cl ose
S Y
c b
Ġro les
Ġj et
er ior
assert Equal
Ġw ire
ĠI raq
N C
Ġclos ely
Ġpro min
pro b
IN D
Ġs an
Ġdi agonal
ograp her
BU G
D uration
U D
Ġ ..
Ġque ue
ann a
Ġv en
Ġemploy ed
k t
eg o
Aut o
m f
Î ±
em on
Ġfav our
t ons
ĠB ad
Ġweek end
Ġcon vert
Ġimprov ement
ĠSecret ary
ĠBro ok
To String
Ġport ion
: #
Po inter
big r
T T
ĠP C
ĠB u
Not Null
M any
Ġmov ies
Ġwh atever
Ġtr ivial
Sym fony
II I
Ġsp end
P D
J an
ed itor
n i
j d
ĠS her
ĠN avy
Ġf unc
ĠC irc
Ġprep ared
ĠRep resent
ĠOh io
Ġs ale
Ġclin ical
\ ;
res et
Ġder ive
Ġpe ace
Ġ ing
big l
ag g
s at
Ġequ ality
ĠM ir
L ook
Eng lish
se x
Ġm al
Ġdemonstr ate
un ing
Ġengine ering
Ġc ref
() ).
Ġsec ure
Ġoffer ing
Ġe lem
ap ol
pr ise
Ġar ms
Ġsup erv
rit ical
Ġfor t
id ae
ear s
ind u
A gent
Ġ$ ,
Ġembedd ing
Ġsp ring
ve e
Ġas ync
ug by
Ġar c
l ay
te en
are st
ĠK ent
Ġp aram
Ġe lections
Ab stract
Ġanaly z
Fl ags
Ġsound s
UT F
Ġp it
ĠSt eve
Ġstat ements
Ġbre aking
Ġnon linear
Ġexc ited
ag ent
ĠB oy
ak i
P ORT
nav List
ĠC ur
ps on
Ġus age
Ġprote in
N ational
Ġm ach
Ġthe ories
ĠN ode
196 9
a ught
Ar ch
R est
ĠS af
Ġcho ices
Â ©
Ġd ict
Ġg ender
Ġgr avit
B i
Ġcan onical
Ġcontrol s
S ER
et al
ĠT ODO
Ġvari ance
ĠC at
ĠV AL
Ġpr ivacy
ĠKore a
Con f
Ġcop ies
av id
Al so
Ġdepend ent
ĠR en
ĠR og
Ġprogram ming
| }{
am az
Ġmat hemat
Comm on
Ġenh ance
Ġ io
Ġexper iences
Ġfac ility
Ġwor se
Ġcl im
print f
/ _
W here
- (
Ġres erved
or iginal
Ġacc ident
w t
ou ter
ost er
c ert
in er
ĠB ang
Ġcommon ly
og ether
enc ing
Ġident ical
Ġtr av
Ġprim arily
,\ ,\
Ġca ught
Ġhypot hesis
U LE
Ġ era
Ġfl uid
atur ally
Ġdec isions
/ (
multi row
ik es
A ust
ĠH un
Ġsurround ing
Ġcre w
Ġeval uated
Pro xy
Ġch ampionship
coll apse
^{ *
ap ed
Ġnew ly
c raft
_ (
Ġstand s
ĠB a
ĠB all
197 1
F ailed
k ens
Ġexpand ed
sl ash
fol io
ĠM ic
F in
Ġp aint
IG HT
Ġd iver
iss ue
ĠG reek
pro gress
Sy mbol
Ġan imal
Ġexpress ions
e a
ĠC as
ĠR h
ook ie
ĠEmp ire
ist ing
Ġre produ
Ġmax imal
act s
Y es
ER E
Ġproper ly
ic er
Ġtop ological
ĠH om
Ġm arg
n il
fort unately
our se
ĠB BC
M apping
Load er
Ġneut r
S che
Ġrepresent ative
Ġw ww
Ġstop ped
ĠComm on
Ġb its
hand ler
L java
Ġexplan ation
ĠInst ead
Ġinput s
t ion
d etail
Ġprov ider
h ide
Ġact ors
ĠK enn
ens ities
ĠP RO
ag a
}) }
Ġpr iv
E V
Ġaccount s
Ġag ency
W R
ĠSo ftware
Ġpract ices
RE AD
Ġind ices
Ġpor tr
Ġcrow d
Ġgu ard
gener ated
Ġpl anned
Ġdou bt
avel ength
ĠT oday
Ġderiv ative
p air
Ġor b
Ġa mazing
Ġessential ly
ĠEd ward
ĠE lement
ĠB attle
Ġcapt ured
ign ment
Ġhous ing
clos ed
Ġact ress
}} ^{\
Ġcon clusion
Ġgr avity
Ġener gies
Ġm useum
S N
W ell
i em
ĠSt ation
app ly
Ġlink ed
Ġphot os
fe ature
v ature
reg ular
ĠW rit
Ġfight ing
Pl ugin
Ġl ens
pl an
Ã ¢
s ys
Cons ider
ual ity
Ġpurch ase
T ube
Not es
he red
Ġin ject
B L
Hel p
Ġreason able
ĠEngine ering
Ġgener ator
ident ial
fig ures
force ment
au x
ĠF I
Ġp apers
it ter
Ġpr ices
em ic
ĠS I
AN T
Ġwor st
L emma
Ġp ars
][ ]{
Ġeven ing
Ð ´
ip her
ĠW is
ĠE nt
exec ute
R T
m ask
G ame
the re
Ġse ed
Ġb os
LE CT
Ġsh aring
Ġh all
ĠEl izabeth
de cl
ater n
X ML
re lation
Ġintrodu ction
or ient
ĠA P
Ġvers us
ĠH y
ch a
ĠMc C
Par se
U SE
Ġb ow
M OD
Ġc atalog
Ġincor por
f ixed
;\ ;\
col Last
ĠF ox
Ġresear chers
y ou
ĠComm and
ou red
Ġlow est
196 7
Ã ±
Ġquant ity
Ġmult ip
if ted
ĠC ond
un es
Ġsup pose
Ġdest ination
B M
}) =
ur able
Ġf n
'] )
Ġtarget s
Re port
ĠE th
ra ise
\ }$,
N ULL
Ġp refix
ĠL td
L I
Ġcol our
Ġinter ior
Ġdef end
O h
Ġal ter
Ġun iversal
Ġillust r
Ġadv ice
Ã £
ĠPh ot
Ear ly
Ġpo inter
ĠChild ren
ĠS em
long rightarrow
=" ${
ĠAd am
Ġc art
ĠV ill
Ġcomp lement
Ġf erm
F unc
T x
op es
spec ific
Ġsens itive
Ġcomp re
Ph oto
Ġcriter ia
Ġpartners hip
ĠPenn sylvania
g ment
Ñ ĭ
Ġsomew hat
rop ic
equ ence
Pro file
S QL
ĠRequ est
Ð ¼
Ġcom edy
Ġacqu ired
v art
ĠD M
com b
ĠAre a
ĠA sh
ĠĠĠĠĠĠĠĠĠĠĠĠĠĠĠĠ ĠĠĠĠĠĠĠĠĠĠ
Ġcover s
Ġhelp ing
E very
Ġdel ivery
Ġl ose
Ġs udden
A ng
Ġm ental
se m
ĠP en
_ ->
tr ivial
R C
ĠS ource
ĠI T
Ġs ynchron
L in
en ant
ĠCom ple
Ð ²
Ġh aven
Ġassum ing
us ers
enn es
ĠS u
ĠS ym
J S
sw arm
}_{ -
child ren
Ġdeterm in
ab et
i ota
oc aml
Ġread ers
Ġ= ======
ra ham
qu ant
ĠW atch
r uby
tain ment
Ġcommit ted
t ics
Wrap per
col First
Se lected
ĠR ight
7 00
ĠP A
ST AT
d ash
Ġbr ings
C red
y o
includ ing
C are
ic ular
prot ected
sub s
Ġhous es
id x
n p
em an
Key s
Ġde leg
ĠSe ason
ed u
rupt ion
al so
Ġhum ans
Ġfeat uring
ar ters
Ġc as
ĠR est
Ġtype of
ĠĠĠĠĠĠĠĠĠĠĠĠĠĠĠĠ ĠĠĠĠĠĠĠĠĠĠĠĠĠ
Ġvalid ation
Ġdemonstr ated
Ġen v
Ass oci
Ġ ^{
ĠB on
Ġcre ative
}} }\
Ġign ore
Ġmin ute
ok ed
Ġp erman
w ing
all classes
ĠRes ource
he ta
Ġs we
Ġa f
Ġpotential ly
Ġm ent
ĠA li
ĠLat in
M ost
ou pl
Ġannoun ce
Sh ort
Ġl oved
unn el
tri angle
b ur
Ġenc ounter
us et
{ %
F P
Ä ĩ
st ances
Ġdet ector
19 40
@ @
p erson
i ated
t or
Ġdrop ped
\ }\
ĠD igital
, {\
ĉĉĉĉ ĉĉĉĉĉ
Ġadv oc
Ġcompat ible
pt ic
Ġsp ons
ĠE astern
N ov
t ags
Ġcon tribute
i ations
on ia
as m
Ġwe alth
Sc roll
Ġdef initely
Ġpolitic ian
p ub
Ġre ward
ĠS ab
is er
ĠIll inois
al gebra
Ġm eta
ĠN C
Mult i
ĠPr ime
ĠIO Exception
ĠB al
ĠI V
Ġw estern
Ġpres ents
wild fly
Ġserv es
A CT
ĠS N
Ġinterpret ation
W rit
Ġre q
ĠK r
C ategory
Ġstand ing
Ġc odes
ĠH ash
Ġm es
Ġsc r
re port
Ġconcern ed
ĠCh air
Com pat
al ities
Rem ove
ĠChampionship s
t body
Col lections
Reg ister
Ġs and
ub le
Ġmagn et
Ġepis odes
ch anged
Ġth in
Ġindust rial
iz z
Ġ( +
Ġman age
ĠA z
Ġst orm
Ġprof ession
Ġv ent
w ill
con trib
ĠH as
sing le
ĠW AR
cri bed
par a
En um
Ġun iverse
Ġsk in
Ġnot ion
Ġfe e
icens ed
en abled
an th
prot ocol
Ġabs ence
met adata
ĠC art
ask a
Ġco q
ĠH ong
N odes
H L
Ġcover ing
wrap per
Ġdisplay ed
Ġn ut
w orth
get Name
Ġasympt otic
Ġfam iliar
ĠF ull
Ġ ).
Î ¿
osoph y
Ġd x
ĠL abor
N OT
Ġsur g
pre v
az e
at on
Ġ( _
Ġdecre ase
iss on
h ref
d ialog
">< !--
H ence
iter ator
pro ps
ĠPak istan
Ġsent ence
Ġmix ing
Ġh un
Ġd ashed
V ID
Ġunder stood
ĠG ets
} |\
es ides
Ġb ug
Ġinstit utions
at tributes
sub sec
Ġcos m
ĠGu ard
C ast
ik ing
ap ore
Ġiter ation
iss ues
onom y
ibr aries
) }_
ir k
Ġdire ctions
Ġexperi enced
sh op
19 30
s ome
ĠN ever
Ġ{ '
Ġext reme
Com ment
Ġext ensive
Ġhon or
Ġ à¤
F ail
Copy right
Ġneg ot
Ġmod ules
ĠO N
D est
Ġattempt s
\ |\
Ġfl ags
Ġcirc uit
ĠT y
ĠE ll
Ġsat ell
ĠCons ider
Ġcr isis
M ath
form ed
Ġgener ating
Ġcap able
Ġp un
Ġjust ice
Ġcoun cil
Ġour s
@ {
sh adow
Ġsche dule
out s
Ġmolec ular
Ġgeneral ized
Ġcol ors
ĠSpr ing
Ġauthor ity
} </
ĠN ick
neg ative
ĠD ark
ĠAn th
F ree
Ġex cess
Run time
ip ping
Ġlog ic
Ġv ot
aj ax
S F
Ġa wards
Ġg rew
Ġb atch
Å ¡
Ġsign s
Ġaddress es
spec ial
¿ ½
) [
B AR
Ġ urban
fil ename
ĠD am
Ġin ternet
Ġrecogn ized
ĠH o
ĠCor poration
me an
Ġdr iven
Ġr g
Ġte aching
Ġ ],
& =\
un ique
br as
p refix
Ġspe aking
ĠW ars
g ood
p ull
ĠR os
v o
s n
Ġs ending
ib ilities
C am
ĠA k
Ġincre d
19 64
ĠF OR
-------- ----
comp iler
ĠCl ark
AD D
st orage
ĠN iger
Ġt x
ĠC ost
view s
ty ped
Ġxml ns
Rep ository
Ġhor izontal
Ġgreat est
L anguage
in os
se par
Ġdec ade
um ps
Ġa thlet
Ġspec ify
Ġhom es
Ġpost s
; }
ĠD onald
Ex ample
Ġinterest s
d c
ĠĠĠĠĠĠĠĠĠĠĠĠĠĠĠĠ Ċ
Ġinfr astructure
it led
Ġdr ag
Ġmet adata
al ed
Ġres olve
Ġfif th
Ġalong side
X i
Ġscen es
head ers
196 5
Ġred shift
Ġun able
ĠT urn
med skip
Ġtrans parent
D ay
+ (
Ġe lev
um my
Re al
Ġb ot
eng ers
ĠSup reme
Ġde ploy
: =\
à ¸
ĠF ind
an z
}$ }
y ard
Ġsepar ated
Ġc ert
Ø ±
Reg ion
Ġd ense
Ġhistor ic
Ident ifier
l ower
op ed
= .
O UT
n c
u ating
a ired
u its
ul ner
F E
Ġm o
Ġbas eline
Ġend ing
Ġdef ines
ĠW here
Ġs oul
Ġb odies
m aven
Ġf lo
ĠD NA
C ho
Ġpro xy
Ġco al
form al
Ġab use
ff ff
y cl
Ġst ead
ĠB and
Ġquant ities
id i
Ġperm ission
S ur
Ġpro files
ĠG ro
Ġne ither
Ġmed ian
g ov
B en
}} =
Ġload ed
() </
Ġphot on
e ah
Ġhe aring
Ġpublic ation
Ġapproxim ate
ĠI E
oun try
con duct
Ġa st
ok ing
ĠJ ean
Ġis omorphism
Ġp ed
Ġfind ings
Ġdem ocr
A nt
w atch
Ġg ar
build er
Ġc le
Sim ple
Vari able
r ink
! ]
Ġnormal ized
Ġw a
S cale
Ġcorre ction
ĠS oviet
ĠF uture
is or
Ġfact s
Ġas sembly
Ġdi agn
Ġt on
Ġt urb
S eg
Â °
19 20
A x
uset ts
ph ia
err ors
Ġimmedi ate
ten ance
Ġperform ances
ĠB E
Ġdec ide
ĠPro perty
Un iversity
Ġf ly
Ġvol unte
Stat ement
ach usetts
vart heta
Ġpl as
g ot
L i
Ġp ixel
pl ates
sh ared
( __
^{ (\
ĠL ev
Ġprom pt
yd ney
Ġqu asi
Ġst ochastic
Ġlet ters
j ob
ĠP O
ob serv
Ġrad ial
Ġfr ag
Ġmark ets
< !
Ġv on
Ġhon est
Ġl ists
ĠCh ange
C r
user name
ĠN AME
Ġcomplet ion
h ook
ĠF C
ex pect
ĠOn line
ir ation
cle an
Ġ? >
ĠĠ čĊ
TE XT
On ce
ĠSh ort
r ift
Ġdeb ate
L at
Ġalleg ed
Ġlist ing
Ġs ac
M r
Ġ( {\
Ġim possible
Ġdis p
Ġscen arios
ĠD om
ĠL android
prov ider
Ġal ert
L ayer
Char acter
H P
cl uster
amaz on
ii i
Ġcommit tee
d one
oc cer
Ġm m
ir th
u ency
con struct
Ġim ply
Reg istry
or ry
Ġcr ucial
are n
Ġvoc als
Ġs aved
ak s
Ġprofess or
ĠColumb ia
olv ing
Ġrespect ive
Ġres c
Ġsett lement
Ġ} {
Ġfrequ ently
19 45
Ġsepar ation
Ġcoupl ed
ant ly
col lection
Ġm ort
res ources
}\ |
p arser
Ġcook ies
ĠHot el
ur d
Ġatt ached
ĠU I
ĠInt eger
Ġent r
Ġearn ed
Ġprogram me
ct rine
ĠR od
R oute
Ã£ o
ĠIs lands
function s
^* \
olog ist
Eng ine
t witter
St and
ĠMed icine
h ave
co hol
Ġint ent
ï ¿½
Ġc tx
ĠM essage
hens ive
Ġliqu id
ĠTh rough
Ġt ack
13 0
3 60
Ġcont emporary
Pl ayer
Ġh ierarch
Ġy es
Ġauthor ities
et ies
En ter
Ġdis abled
A E
ĠÂ ·
adel phia
19 66
%% %%
UR I
script style
Ġsize of
Ġg ene
S outh
Ġf iction
Ġsp ac
L INE
ä »
Ġint elligence
ĠV iet
conn ected
ĠM ill
Ch rist
\% $
More over
Ġcont ents
tem p
Pro gress
Ġest ate
ir ms
ag en
O F
mon th
Ġgen us
Ġinvolv es
ĠM att
ĠG P
ĠB ox
ĠPro p
sequ ently
k es
Tr ace
viron ments
t z
Ġh abit
RE S
u able
Ġb ass
let ter
ro g
cd n
S cal
b g
}) ^
Ġout come
ĠD ocument
E mail
struct ure
ĠS on
Ġim press
tr im
log in
pat tern
D epend
v ideo
Ġs s
Ġfr agment
Ġlog ger
Ġw inter
l ights
Ġb an
Ġl osing
Ġent ertain
G P
Ġ Ù
Ġf aces
Ġc ash
as p
ĠOx ford
act iv
Ġprom ote
Ġro ut
own er
Ġconsum er
ar ry
Ġsh ips
Ġc reat
; ">
ĠM arg
th ur
ĠN AS
Ġdocument ation
Ġpass ion
ĠC urrent
par allel
Ġredu ces
ĠR O
Ġpl ate
ĠG R
Gener ator
Ġoper ated
the less
S ync
ĠMin istry
onym ous
ĠHig gs
Ġch apter
Ġcre ates
ab ric
Ġreturn ing
> ::
(' .
ĠHistor ic
Ġst ages
ge bras
Ġtransl ate
edd ing
Ġdeliver ed
cept ions
x s
Y our
th row
} ~
Ġg ather
Ġk in
Ġfor get
Ġrequest ed
ik a
ĠStep hen
M iss
S V
ĠA ud
Pass word
az y
}{ *
Ġ[ "
ĠM ember
cl ine
Ġl es
Ġ{ "
el le
Ġappro ved
Ġterm in
Ġdec or
ĠS ant
Ġstrong er
Ġdefin itions
Ġconsist ing
Ġdis appe
H is
ĠP ut
ĠReg ion
Ġ" -
Ġanal ys
st ates
Ġprom ise
Ġk it
ĠJ ordan
he im
x html
Ġc ab
Ġsens itivity
S ocket
P ER
Sub s
Ġappre ci
ĠS a
uck s
Ġdestroy ed
% .
not ag
Ġjud ge
ĠD ead
Ġpay ment
Ġag ric
ĠP ubl
agnost ic
Ġst ores
Ġcollabor ation
it i
Ġindic ating
ĠĠĠĠĠĠĠĠĠĠĠĠĠĠĠĠ ĠĠĠĠĠĠĠĠĠĠĠĠ
ĠV ari
. âĢĻ
ĠCoun try
ph ase
Ġs quad
se q
Ġneut ral
ymmet ry
en able
in ction
Ġhead ers
Ġconstruct or
ĠTor onto
Ġn ob
ĠAlex ander
Ġf ib
con sin
Ġwall s
Sup pose
ĠI ss
Ġp ri
ul pt
Ġw arning
Q U
Ġsubject s
j unit
Ġf at
. [
sc opic
Ġcl ock
ĉ čĊ
ĠG overnor
put ation
ĠP ay
Ġask ing
L eg
Ġ$\ {\
rop ical
Ġbring ing
R ole
Ġchalleng ing
Ï Ħ
f d
rior ity
Ġrough ly
Ġread s
ĠS anta
ĠP DF
Ġsh ares
ĠBr ad
Ġfl ood
St ud
test ing
Ġprodu ces
ĠA venue
Ġref ers
ĠH ttp
enn a
ar ith
Ġro ots
re ll
clud es
ĠR yan
Ġrespons ibility
Ġsch olar
ĠB efore
Ġpropos al
å Ī
ann y
M F
^* (
Ġdim ensional
Ġe at
New s
sv g
ĠGr ant
Ġpolitic ians
Ġult imately
= [
ĠVictor ia
Ġb inding
ov al
og onal
Ġtechn ologies
Ġpoint ed
Ġdo ctor
Ġadj acent
Ġu i
Ġman ip
o or
Ġm ess
ĠM L
Ġ' <
p u
Ġfram es
Ġj Query
Ġd ry
iev al
ĠPort ug
fl ag
Ġd iverse
Ġcont ro
ĠDav is
plement ation
Ġmag ic
ĠStand ard
ex tern
bl ank
face book
Ġf old
ow a
ĠR a
Ġsold iers
h fill
sk i
Ġinter mediate
E st
Sing le
') );
text color
er os
ser ies
Ġfe els
ut ation
Ġwill ing
ĠBl ock
ĠB it
Ġmod er
Ġpan els
ser ial
Ġtri ple
Ġtit les
f c
C B
Ġdynam ical
Ġput ting
ĠRef er
PO ST
s ig
CT YPE
n odes
ĠT am
Ġin clusion
C lear
h al
Ġad min
ou st
Ġres istance
H A
p aper
Ġconfig urations
t i
Ġmount ain
Ġcon sec
M icrosoft
od ge
Ġs pl
æ ľ
ĠK now
Ġh ist
ĠA D
ig ate
1 12
Ġm it
Ġorient ation
Ġh ook
ĠPh oto
Ġestablish ments
Ġf ake
M er
ĠS che
Ġw ins
Ġsubsequ ently
Ġlist ener
Const ants
y cle
Ġsil ver
Ġpercent age
om y
P res
Ġ ĉ
Ġocc asion
ĠF ac
Ġrecomm ended
ĠT E
c ross
h ot
ex pr
ĠOff icial
mer ce
ĠD aily
ail ability
Ġrecover y
be an
St ar
phant om
r id
Ġaccom pl
Ġdecl ared
Ġvari ations
Ġv irt
ce ive
Ġdefe ated
im ated
Ġrail way
ĠH ay
ĠL ady
Ġweap ons
ĠB log
eder ation
» ¿
Ġconcent ration
ar on
ow nt
Ġequival ence
Ġfail s
ĠB at
Ġeigen values
ĠM S
Ġs now
um a
reg on
g lyph
ĠD oug
Ġfl u
Ġprior ity
Ġr ural
) ^\
ow ed
Ġph ases
equ ations
inst ein
G M
Ġt err
ĠC ount
ĠIn s
anc ell
Ġcur vature
t ar
at iv
im ination
ï »¿
im p
ĠScott ish
j ango
ĠS QL
nap shot
æ ĸ
do or
ĠFore st
ly n
Ġrestr icted
Ġa id
Ġmodel ing
cor ollary
Bl ack
Ġarr ang
Ġabsol utely
Ġas sets
Ġleg end
Ġfac ilit
B rit
âĢĻ .
v c
ĠP ers
ĠAn alysis
Ġtot ally
Ġcorrect ly
=" $
Ġpresent ation
ĠG allery
P ress
lo pe
Ġshoot ing
bour ne
Ġanim ation
Res ources
Ġap plies
ĠTur key
Ġrob ot
ĠT ok
ĠExec utive
ĠCh annel
Ġl ay
c ounter
Ġn aturally
Ġso le
D iv
re present
ord on
ĠO nt
? >
ĠL ow
S em
ĠBer lin
ĠProv ince
Ġs ight
Ðµ Ð½
L R
Ġsu it
ĠY es
ap ters
ĠMass achusetts
Ġn p
duc ible
ĠLew is
th rough
a ire
f lex
b us
Ġan om
Ġcons ervation
Ġexec ute
Ġr ide
Ġcorre ctions
n ob
Ġtem p
IT ION
Ġhundred s
Ġm outh
ĠMag azine
Ġrestaur ant
Ġem pir
F ore
ivers ary
et ary
Ġcheck ed
ĠC reek
Ġgrant ed
Ġprec ise
Ġconvers ation
ĠMark et
ĠD u
tr ace
pre t
Ġyoung er
Ġdomin ant
O B
TR UE
ĠV en
ry ption
web pack
Ġad vers
Ġst one
10 2
Ġv otes
spring framework
Ġtrans actions
$ {\
Ġid x
Ġstrict ly
Ġp ixels
Ġmin ister
us form
. ");
U K
ĠF ollowing
trans ition
ĠO s
cer ning
Ġbench mark
Ġrespons es
osp it
numer usform
ĠPro t
Un ited
Ġgu est
Ġc raft
ĠN a
ĠR ose
rop ol
A Y
ĠD utch
O ct
ick ing
C oll
Ġident ification
F inal
K e
Ġb ought
/ .
ĠCh all
ĠEx ample
Ġmod ify
re du
ĠS ite
Ġg iant
Ġad ult
Å į
ĠSta ff
Ġfit ting
ul us
P refix
Ġsche mes
Ġ( [
Ġhor se
S ep
over s
Ġcamp us
Ġreal ized
ĠSk y
Ġmechan isms
back slash
"" "
Ġperiod ic
Head ers
Ġsn ap
im its
Ġtalk s
Ġqu ark
ph y
Ġdanger ous
Ġreport ing
Ġexp ensive
p icker
ĠC ore
j u
Ġir on
Ġbelong s
res ize
Ġexpos ure
FF FF
Ġconver ted
form ing
Ġm il
Ġw avelength
ĠDes pite
ac cept
ĠConn ect
requ ired
ort ion
Ġgravit ational
ĠM iller
ub s
ĠColor ado
Ġfl ows
Child ren
Ġcon version
Ġrelig ion
Ġac id
Text ure
D elegate
Im port
ort ed
Se lection
es is
196 3
Ġy ards
agr ang
ĠOr iginal
ĠB C
âĢĻ ,
Ġv eg
ĠT al
Ġar ts
W allet
Ġarrest ed
ĠB ul
Ġsimultane ously
Pl an
, '
Ġt um
ĠJac ob
ane ous
Ġh its
In ternational
it ely
E P
Ġaccom mod
and o
11 1
ĠC ook
DE FAULT
script size
J oin
ing ham
Ġdes cent
Ġdom estic
ĠRec ord
Ġtop ology
Ġre new
d ag
ou ston
Ġinvestig ated
Ġatmosp here
Ġdiscover y
ĠC ulture
Ġw ing
con ver
Ġk illing
... </
TI ME
Ġy ellow
ins ic
r uit
Ġm and
fin ite
riz ona
g on
pos ing
w ave
Ġexper ts
Ġaff ord
Ġhard ware
Ġb aby
Ġwhe never
ĠE u
Cont act
ĠS ydney
Ġfrequ encies
Ġte en
AL SE
Ġp ipeline
Ġ[ ],
ĠC NN
app oint
Ġclub s
Ġun ivers
Ġrestr iction
Ġn a
Ġnull ptr
Ġrecon struction
Ġv ast
Ġe le
ĠCl oud
Ġsol o
Ġdev iation
Ġin struction
ĠSystem s
sp in
se ason
Ġvis ited
set up
Ġcr ash
ĠMin nes
TER N
Ġperson nel
Ġperiod s
om atic
m oment
P Y
b ow
Ġsymbol s
Ġresult ed
Ġvary ing
Ġsol ving
ĠO S
ows ki
ĠD er
ap os
M ake
is ot
Ġpromin ent
ĠEx pl
erv ing
ĠP ot
Ġge ometric
Ġcan cel
Ġa ug
Ġmat ters
ac on
EE EE
l an
Ġf estival
14 0
Ġuncertain ties
ester day
Ġpop ulations
10 5
Pro gram
Ġposs ess
at omic
comm it
ynam ics
Ġexpl ains
Ġm ob
ĠL es
ig a
index Of
Cl oud
ĠBo olean
g ather
Ġrequire ment
Ġadd s
Ġr id
( -\
Ġschedul ed
Ġret ired
ire ment
Dom ain
H D
Ġde bug
ific ial
an aly
Ġprodu cing
lo om
Ġtem poral
ĠÐ ¿
b at
Ġpre ced
ile y
ĠTrans port
Ġ-- -
Ġd iversity
Ġchar set
Ġre tail
Ġfluct uations
Ġcon figure
Ġassist ant
Ġlumin osity
Ġturn ing
Ġre nt
ĠD or
Ġexec uted
ĠB rian
Conn ect
Ġis ot
Ġsystem atic
S W
Ġqu eries
des ign
(' #
ĠD ream
ĠMinnes ota
Sh ape
Ġbound aries
s un
requ ency
ĠN ether
as ync
de ep
Ġthought s
Ġreg ression
Ġconvent ional
Ġv ess
$. }
Ġillust rated
ail ing
12 7
Fram ework
Ġdiscuss ions
Ġsimilar ly
Ġl ang
Ġvac uum
w as
p ur
Ġtransfer red
Ġsur faces
. \\
Inter val
print ln
ĠSur vey
Ġab andon
S ervices
nd ef
ic ide
T F
St ats
as sembly
ĠO cean
ct ors
Ġstraight forward
ĠHT TP
Ġpro ud
per iod
Ġuniform ly
b rief
i Ã³n
Ġap ps
Ġanaly ze
m oz
iv als
Ġp arser
ĠB udd
d ig
ĠChe m
R ob
ID TH
ĠMe an
l ab
Ġassess ment
Î ½
Ġat oms
is ition
Method s
Ġfore ach
ĠL A
s ym
Ġsurpr ising
CO MP
Ġr is
ĠPro duct
Ġcom plicated
AN CE
down load
in valid
Sk ip
B ased
o es
Ġdrug s
Ġ ur
t c
ious ly
n m
ĠCont in
ĠCon f
Ġlimit ations
C RE
Are a
ĠE ND
is ode
ĠAN Y
Pr ivate
DO CTYPE
ĠCl in
qu ir
Ġwalk ing
Ġweight ed
ĠH ung
196 2
Date Time
ĠPr ivacy
ag ues
Ġl aser
N ormal
Ġcont est
Ġco ff
) ->
over view
ĠSt adium
AR D
Ġpro spect
ro c
U ST
Ġsit uations
P G
ĠHar ry
Ġw elcome
U C
vis ible
ĠSing apore
Ġb ath
Ġc ensus
F i
id al
sp irit
y y
Ġqu iet
Ġstr ike
Ġacc um
ĠA I
Ġnewsp aper
Ġrandom ly
const ant
Ġbase ball
roll ing
Ġs in
w arning
ag an
ident ifier
w ho
Ġp ictures
ĠMount ain
Ġv ice
y al
el lect
Ġcomp ens
Ġworld wide
Ġdeg ener
Ġbig ger
Ġinstit ution
cy cle
Ġcoll ision
Ġabsor ption
aps ed
Ġt ang
Ġtop ics
ĠF A
end a
Ġse es
Ġtrans itions
P air
Ġneigh b
L Y
Ġt ags
i ors
Ġtal ent
ee per
Ġoper ate
Ġseek ing
Ġre verse
ĠN AV
icens es
get s
is lation
B el
Ġhy brid
ject ure
se p
aw ay
Ġpass es
Ġc ub
Ġm ine
li x
t k
it eral
/ "
od s
Ġsens or
f eed
B egin
Ġdes tr
Ġhand ling
ĠB an
oun ce
ĠF ord
ĠSup pose
H om
L ike
(' /
Ġ" $
ĠL ind
Ġexerc ise
ĠIn put
*} [
SC R
ĠAnt on
Ä į
in ch
Ġpil ot
iam i
Ġtw enty
ĠUn it
ĠC lear
ĠCE LL
Ġvisit ors
H ub
Ġv eter
ĠBro ther
ĠD B
Ġres idual
Fl ow
Ġdom inated
L en
Ġb at
Ġs ad
Ġon going
Ġdef ect
Ġextract ed
ĠP aramet
b les
Ġscient ists
ĠT ro
ĠBuild ing
Ġb are
br and
Ġtro ops
Ġs ter
Ġembedd ed
Ġcl ip
At tr
writ ten
Ġcor porate
ĠD a
ĠDe ath
ĠM ari
Ġmiss ed
ap h
ik ip
ĠYou Tube
Be an
D avid
Ġv ulner
W H
ang ers
L ight
M usic
th ick
ĠHol lywood
Ġqu ot
ĠT ag
Ġa cknowled
ĠPol and
z y
u j
ĠN FL
Ġexpect ation
f x
Ġdepend encies
M s
Ġt ables
Pro ps
ĠVal id
Ġtrack ing
Gener ated
Ã© e
A ug
Ġpolar ization
Ġstruct ural
text up
Pre vious
pe at
Ġdr ivers
ĠR aj
Ġdom ains
Ġslow ly
Ġ ,\
Ġatt orney
M c
ĠIn f
Ġenjoy ed
Ð° Ð½
Ġterm inal
rup ted
ĠAl li
time out
ĉ ĠĠĠĠĠ
ĠW IT
arr ing
H er
. <
bl ed
support ed
Ġrapid ly
d k
Ġcharacter ized
ĠGold en
EEEE FF
U ri
t age
Ġres et
Ġhe ll
ic ian
ĠB arn
ĠE ric
Ġd ates
check ed
Ġincreasing ly
st age
ĠMan ager
re pre
ĠRes ults
) }.
pt o
ĠE P
ĠF ROM
Ġb omb
an alysis
â Ĥ¬
G G
Ġbo ys
Ġst im
{ (\
os ed
Ġad ults
pl ier
$\ ,
i ot
s ocket
Ġhost ed
ĠW H
Ġteacher s
ĠRes ponse
Ġc ir
Ġloss es
Return s
ĠJes us
ile vel
Ġbrief ly
ast y
ĠDes cription
Ġconv olution
Ġall Classes
Ġconcept s
AN G
G ood
Ġ' '
Ù Ĩ
it udes
Ġpl ugin
Ġrepl acement
method s
agrang ian
er as
Ġperturb ation
Ġgood s
Ġt elling
Ġsub mit
tern oon
Ġcoll apse
Ġapparent ly
Ġp atch
Ġop posed
Ġsp ending
ĠallClasses Link
hel per
Ġprefer red
ak h
Ġtime out
ĠL ater
qu ote
Ġrg ba
F ollowing
E ffect
ĠC orn
N ative
ers et
Ġsche ma
typed ef
ĠHe art
ĠĠĠĠĠĠĠĠĠĠĠĠĠĠĠĠ ĠĠĠĠĠĠĠĠĠĠĠĠĠĠ
ĠW inter
M ich
| ^{
ĠEnter tainment
Ġf its
Ġins urance
Ġan not
Ġaccess ible
Ġun iqu
ph an
Ġwrit es
ol ute
S equence
Ġsus pect
( @
check box
act ivity
ĠK at
ĠBel g
Ġop position
Ġre vers
R S
olv es
Ġvalid ate
repre ne
ĠS ound
Ġsing les
ĠH al
Ġ\ ,\
u h
ĠH art
Ġredu cing
Ġplatform s
Ġb att
Label s
ĠS to
DE BUG
ĠR oss
ext ension
Ġexpl os
Vert ex
Oper ator
form er
ĠCl inton
Ġphot ograph
aw are
sl ice
py thon
Ġhealth y
ĠArray List
ĠM D
Ġent ang
ikip edia
Ġd t
ay ed
Ġle ct
Ġread only
F amily
Ġalgebra ic
ĠDis ney
v ia
ĠNether lands
Ġen vironments
Ġdescri bing
her ical
Ġv o
ĠMal ays
Ġgl ob
Ġrece iver
Ġro of
ĠT ake
å ®
g i
ĠFore ign
Ġdecre ases
vol ume
Ġbl ow
r ig
Vol ume
side bar
Ġch ose
ast s
Ġlist ening
our i
ĠGe V
Ġlik elihood
Aust ral
con sole
Event Listener
Ġp ref
ĠT ony
Ġca using
ĠKore an
d on
Str uct
Ġe ase
ĠR ome
En vironment
ĠL ore
LO CK
ç Ķ
an ches
Ġform ulation
te ction
b ec
m k
Ġf ault
Ġ\ "
Ġland scape
ant e
Id s
it ting
az a
ĠN ations
D IS
Ġdis order
foot notes
m ad
Ġelect ro
iam ond
d am
Ġt mp
ĠSim ilarly
å ħ
group s
Ġview ed
pl es
m ag
Ġsp here
Ġl ots
Ġsp oke
Ġdef ining
Ġconven ient
n an
Ġse ats
off s
ĠWis consin
get Element
Ġappe al
exp and
196 1
NavBar Font
Ġemer gency
ĠC lient
Ġep och
Ġexhib ition
bin om
Ġsk ip
und efined
ĠAp plication
comple x
S ave
Ġvict ims
Ġorb ital
ĠG ree
Å Ĥ
} /\
Ġcopy right
Ð¾Ð ²
ĠRe act
ĠPal est
Ġconsum ption
ce il
Ġelect rons
Ġprov en
j et
ĠA SSERT
bas ic
Ġdiff usion
ĠSh ould
Ñģ ÑĤ
Ġinter pol
vari able
Ġout comes
Ġfor th
ĠEd ition
ĠPhil adelphia
Ġh ide
Ġobvious ly
Ġp itch
() ))
ennes see
| $
ĠAl gorithm
Ġg ained
~~~~ ~~~~
" ],
y ers
n ed
i est
& -
Ġpart ially
c u
ut s
Ġdist ances
Ġt aught
ĠH D
HT TP
Ġh a
ĠM oon
Ġeduc ational
h ou
F M
Ap pend
comp are
W est
ĠJ ane
Ġexhib it
Ġamount s
ĠL anguage
Ġguarant ee
19 44
ĠM oh
Ġwe ar
ĠG reg
B ecause
) >
Ġgu id
Î ¹
ĠC red
ades h
ĠAdministr ation
Ġb ars
Ġpre pare
Ġfound er
ĠPr inc
Ġim plicit
w ick
ri ers
ĠEd itor
Ġm ouse
Ġat omic
ĠCamb ridge
Fr agment
Ġw indows
ĠT ree
Ġsh arp
! \
Ob serv
. $$
is p
n ol
10 4
Ġup load
ĠSe lect
Ġfew er
Rev iew
Ġs elling
ĠRes p
Ġoffic ially
Ġquadr atic
Ġanaly tic
Ġsurpr ise
evel oper
sequ ence
ĠA mb
Ġsimilar ity
Ġb ind
Ġmet all
ĠFour ier
19 59
app y
Ġign ored
ug ar
. ",
ĠB or
} >
Ġpers ons
ĠK evin
M ill
ordin ate
Ġh alo
Ġmonitor ing
En umer
B ind
ĠBr idge
ĠV ector
r adio
i ac
Ġcon crete
footnotes ize
L ower
\! \
Ġfall s
i at
) (\
M ag
on ce
Ġleg isl
inem a
}. }
ĠJ am
Ġstre ets
ĠM rs
am ps
Ġderiv atives
Ġm d
Care er
ĠOlymp ic
or igin
r ather
Ġwin ners
\| _
Ġacc ord
Ġh al
ĠO regon
Ġre venue
19 58
Ġclos ure
Vis ible
ch ant
OR Y
Ġcut s
C ard
Ġh ate
Ġf asc
t ensor
ache l
ĠSim on
itect ure
ic he
Ġad opt
Ġb id
Ġev il
ĠAg ency
Ġf iber
c ers
Ġisol ated
ens es
Trans port
ĠAr gent
âĢ¦ .
Ġcompl iance
Ġsever e
Ġcomp aring
W ho
Ġn an
Ġaim s
ĠPr int
ĠTr aining
PRO JECT
m ay
object s
Ġ\ &
Ġconj ug
m ouse
Ġeas tern
ĠAcc ount
W ait
ph oton
Ġsim ulated
S ql
ĠUkr aine
Requ ired
Ġro oms
Ġproport ional
hed ral
k top
Q UE
ĠM it
com put
Ġplas ma
ĠR ow
ers hip
Ġex posed
e ctions
Ġel imin
Ġhom ogeneous
Ġinv ent
por ter
B D
sub ject
C ent
igr ants
ĠMod ern
~ (\
Us ers
Ġexcit ing
av ailable
Ġwhe el
ĠSt ock
comp at
Ġcons c
Ġgrow n
ey n
re lease
ĠAnd erson
aud i
Ġst yles
Ġhead s
19 56
ĠCont ent
ĠTh anks
ell s
Ġtrad ition
ĠRev olution
E val
ĠOnt ario
ĠH op
An imation
ĠC ab
opt ional
z ip
ist a
Ġr ating
Ã© s
Ġrev olution
Ġre aching
ĠT ai
ĠN orm
" ].
bu ilt
Ġst ood
ĠSt ore
em ony
k ing
ĠLe on
Ġstudy ing
C apt
Ġansw ers
iz ers
us cript
ĠP rize
stand ard
S ample
ob by
ĠD ue
ĠS P
ze ch
l u
Ġbo at
chestr a
Ġre in
Over view
Ġsit ting
R AN
Ġv align
ul er
Ġadvert ising
{ |
' _{
SE LECT
Ġcomb at
ĠR ad
W arning
Ġr anges
Ġsc ulpt
st ud
)} (\
F ocus
Ġin fl
L ib
Ġ\ |\
Fl ag
Ġwonder ful
Ġpl enty
Ġconsider ation
A bs
Ġut ility
ĠJ enn
Ġst abil
ĠS A
Ġen emy
Ġd ensities
Ġen semble
Ġreve als
ĠTh ose
r b
Ġ> >>
Ġch ampion
Ñ ĩ
ĠP os
w hat
ĠN eed
Y Y
er on
Ġdesign s
Ġtherap y
pro xy
Ġhor izon
E ven
mid rule
sh ips
sign ature
Ġcompre hensive
ĠJew s
part s
Ġpolynomial s
Ġparticip ate
Ġsuff ered
Ġpurch ased
por ters
Ã¡ n
qu arters
ĠSt one
le e
pro gram
Ġbro ke
Ġcompet itive
el astic
ĠA h
Ġproced ures
ĠP it
Ġstr ip
Ġle af
ï¼ Į
) &
L ife
m ix
Ġinter vals
ĠSy ria
ĠSm art
ud a
Ġne ur
Valid ation
ĠLear ning
Ġtraject ory
Ġair port
ĠT ax
Ġheav ily
$- $
D ictionary
t p
Ge V
b atch
ex pl
C ref
Ġneigh bour
Ġre form
Ġmer ge
ĠInd ones
her ic
EN SE
ĠMar c
Ġkind s
idel ines
11 5
19 57
Ġdraw ing
D im
] ^
M ac
ick y
å Ĳ
Ġc ards
b x
Ġequip ped
Ġ\ [
raz y
Ġb anks
w d
ĠB urn
k h
Ġcond itional
st an
Ġr aces
inv ariant
l ot
Ġext ensions
Ġload ing
,... ,
ĠW ord
od a
F ORM
l m
'] ['
Ġord inary
ul s
ĠS ix
EL D
: [
C ur
ĠR oll
is ations
Ġass istance
ĠPl ace
Fil ms
ch arge
ĠNAV BAR
Ġcomm ands
he ll
ĠK al
ĠW rite
=\ {
Ġcircum stances
l oss
pol icy
Ġrepe at
ĠV i
Ġpick ed
t re
19 48
Ġcorrel ations
clud ing
Ġprinc iples
we ak
ĠAff airs
N orth
S ol
ĠSe ver
ĠL iter
v ard
Ġtrans mit
ĠS av
s is
ri ble
Ġemot ional
Ġre ly
Ġwork er
Ġcount s
j an
Ġen ables
Ġpubl isher
e b
Ġfil ed
ĠD uke
Ġad mit
I AL
Ġoutput s
d ark
cover y
Ġconsec utive
Ġentertain ment
13 5
cept or
Ġb old
19 39
ĠP ack
ĠAtl antic
Ġtri es
Ġwas te
ren ce
Ġfac ulty
N amespace
S chedul
&& $\{
Con ver
Ġrect angle
Ġcompar able
ĠDef inition
d ensity
ãĢ Ĥ
D etail
Ġ{ $\
ert y
ĠQue ens
I gn
Ġrun time
Ġ\}, $\\
Ġfac ing
ĠSI ZE
Ġdes ire
ĠE V
br ane
Ġreli able
ul ous
Ġfair ly
cre ated
ĠT ool
Ġimag ine
run time
Ġassign ment
% "
b urn
Ġbre ath
ĠDo ctor
ĠDemocr ats
Ġs oci
rom agnetic
per ial
ri ends
ĠMem orial
D en
Ġ ];
Ġreal ize
h d
m issions
ic ians
Sh ould
Ġil legal
o i
Ġpseud o
VAL UE
Ġc md
Ġpack et
S ports
lear ning
Û Į
Ġag encies
AT CH
o a
ME TH
Ġsol ved
ĠA st
: `
Ġprov ince
Ġpain ting
Ġsubstant ial
var rho
(" /
US ER
Ġbeaut y
h ill
M ask
ub er
MOD ULE
qu es
ĠOff icer
Cond ition
M ove
ĠL em
Bas ic
Ġs ed
Ġw ine
Ġcommun ications
il st
h us
ĠA rizona
Ġshe et
Ġsp r
ep ing
ĠCor ollary
select or
l ined
ov en
M aster
ĠFr ont
fg han
Ġconsequ ences
if def
c ow
AT ED
lik ely
Ġrecon struct
ĠPhilipp ines
re ement
ass andra
Ġform ul
down arrow
Ġter ritory
ĠF ix
Ġto ler
R uss
$ ^{
ĠSar ah
ĠRail way
ĠS W
res olve
ĠG ib
ear ing
Ġsc oring
Ġcon cerning
l ibrary
Ġs weet
ĠL oad
v ect
ap is
ĠS quare
Ġmusic ians
Î µ
eg as
ĠLab our
f act
ĠN az
Ph ys
mem ory
Ġdocument ary
Ġdefe at
Ġop acity
S creen
Ġde pos
Ġindependent ly
Ġpul se
ro b
Ġhol es
ĠO pt
Ġw er
Ġfe as
clip se
{ "
P ack
is ons
Ġal cohol
In formation
left arrow
ĠMay be
the w
el ian
Ġmill ions
Ġarg ue
ĠRes ources
mer ge
Ġbu f
B Y
Ġre ar
re p
Ġaf ternoon
ĠR oute
Ġc ro
R out
ĠE ver
hold ers
part y
Ġval uable
3 50
Ġap ilevel
Ġrepl acing
ĠPat rick
w ich
mat htt
Ġdis miss
2 13
Ġse ar
Ġ$ ^{
clos ure
1 18
ang a
Ġv acc
Ġt ur
Ġorth ogonal
Â ®
ge o
Ġun us
}[ !
EE E
' ];
Ġpresident ial
Ġh at
ĠB ab
ĠO ak
0000 00
Ġperman ent
ĠE ffect
ut ter
Ġ Å
19 55
k ish
Ġre nd
b est
ens itive
vert ical
ĠAut o
D id
ri ev
s r
CE PT
ĠCap tain
Ġsim plicity
Brit ish
ic ode
E p
Ġequ ally
b ian
="../../../../../../ ../
g ray
leq slant
ĠC G
19 46
RE E
Ġd ip
Ġf lying
int ro
ĠD un
periment al
Ġdes cript
ĠH ouston
Ġat om
ic ator
Ġassert That
Ġste el
Ġpull ed
ä º
em pl
Ġal ive
Ġsw im
Ġpe er
Ġdevelop ers
tain ing
Ġrank ed
Ġde bt
Ġspect ro
O C
d irection
Ġcomp ress
& &\
Ġours elves
Dr iver
l ass
d ays
Ġcons ervative
Ġ{ {\
Ġneutr ino
Ġsignific ance
Ġind ependence
Ġref lection
ĠP ublished
erm i
Ġcontinu um
b one
ĠD ick
Ġw ond
ĠJ ay
L imit
Ġse vent
in cess
ĠCast le
as ters
ĠU V
Ġleg islation
Ġinstr uctions
s heet
ĠPl aces
nav igation
Ġin hib
ĠB ush
ex it
ine ar
ĠPrem ier
B al
Ġr u
R elease
Ġinteg ers
Ġch a
ĠK ansas
ĠĠĠĠĠĠĠĠĠĠĠĠĠĠĠĠĠĠĠĠĠĠĠĠĠĠĠĠĠĠĠĠ ĠĠĠĠĠĠĠĠĠĠĠĠĠĠĠ
Ġaug ment
Ġfound ation
comp ile
^ ^
Ġfl ash
9 00
grad ient
Ġpro be
mult line
A pr
p b
= $
ĠI C
ORT ED
ĠS H
op ts
Ġto m
Ġs ympt
Ġk il
\ [\
ut her
End point
P aul
dat abase
ĠSm all
Ġb attery
ĠG h
Ġacc used
stack rel
log o
ĠP rom
19 42
Ġass ault
Ġne arest
Ġfil ters
if ting
Ġbe ar
Ã º
Ġjoin ing
she ll
Ġrat ios
ĠR oy
up arrow
W atch
se a
ĠStud y
Ġvict im
F UN
ĠTe ch
high light
ĠAp ache
spe ed
Ġindu ction
Ġs ys
10 8
ĠN ative
A K
Ġ\ {\
Ġpro ps
\ /
ĠA C
Ġnot able
L D
Ġsurg ery
Ġh ockey
text sf
Ġs av
ĠAl ice
Not ification
Ġpre gn
Ġsup ers
ĠE mer
rel ative
Ġcy l
ĠR at
P erson
ĠS ets
Ġt all
Ġcross ing
ound ed
Ġpenal ty
NS String
as is
do i
rypt ed
d ynamic
ĠU l
ĠO t
Ġgr ade
Ġin tern
Ġen um
m atic
ph rase
B T
ĠAdd itionally
Ġseg ments
ul atory
u on
Ġrep ly
19 52
el ines
10 3
Ġcarry ing
ĠE s
Ġ' \
Input Stream
ĠMar ia
Ġregard less
Ġin ference
um ul
SS L
int eger
ic ates
dr iver
Ġcommit ment
$ ^
}{ {\
ownt own
C ity
ĠP S
ĠM ilitary
ĠDe ep
ich ol
ĠEqu ation
bold math
ĠSil ver
Ġstead y
A li
ĠH an
Set ting
P ower
Down load
Ġhost s
Ġsl ot
ĠR ic
Ġirre ducible
M IN
F uture
f b
ang el
ĠSen ior
/ {
alax y
AR N
Ġadapt ed
Ġdeal ing
Ġins ight
IO Exception
Ġhe ter
get Value
ĠM obile
Ġclass ified
Ġst ats
ĠSwed en
col n
ĠS n
ĠD IS
ĠB ry
ĠP ier
comm ons
Ġadministr ative
pl oad
ap y
Ġcent ers
Ġb on
Ġs ql
Ġfr uit
h ist
Ġperform s
OP T
Ad min
Ġident ifier
}^{ +
c ost
p in
ĠG ab
D b
g ments
Ġe gg
v y
Ġvari ant
j ack
Ġsub space
z o
Ġpro sec
Ġ urg
Ġex clusive
Ġed it
Ġreject ed
ul um
Ġpro test
sp ir
ab ama
all as
over ning
W in
ong o
Ġappe aring
Ġstr ange
\ },
Ġv it
Ġc ursor
ro it
ĠEx press
ĠAm ong
Ġent ities
ĠSt ream
Ġequ als
Ġup coming
ĠF arm
$ '
st e
Com parison
p ad
ĠJ oh
Ġres olved
Ġcho osing
B ro
ĠCap ital
sh al
Ġimprov ements
ĠN atural
Ġlabel ed
LE D
Ġdistingu ish
el son
Ġconsum ers
w eg
Ġâ Ĩ
Ġr acing
; )
Ġempir ical
Ġsatell ite
Ġhapp ening
ar ial
Ġperfect ly
Ġtro uble
up per
Ġfore cast
ous es
ĠT her
Ġf ired
m iddle
Ġcontribut ed
Ġman ifest
d istance
cl one
Con sumer
ĠDi ego
ol i
Ġro utes
Ġinv ited
resp ons
Ġpost erior
Ġthrow n
ĠAnth ony
Ġla ugh
STR ING
small skip
Ġmark s
ĠSc ient
part icle
Ġ elli
Ġdis appoint
ĠAll en
Ġke eps
Ġpl ots
s ync
19 47
Ġdis cret
ĠIslam ic
ip art
glyph icon
F LA
Ġhelp ful
D rop
v i
Ġmach ines
RE D
we ek
ol ly
Ġcollect ive
T w
ĠPol ish
if ndef
Ġim aging
d ates
P red
Ġcoff ee
ĠPy thon
pro fit
å ¤
Ġnav bar
Ġarr ive
C N
bo ost
ĠIsra eli
ub a
or ous
Ġappear ances
W ord
IN S
Ġactiv ation
ro ute
int end
\ }.
R PC
av is
ĠT reat
ĠTh ird
al ert
Ġang les
ic ious
Ġreal istic
ĠMan chester
Ġtem porary
Ġdi pl
Ġl yr
Ġmembers hip
ry ing
Draw ing
re str
ish ment
Ġsc roll
Ġreson ance
] =
and al
w en
ty pen
Ġwat ched
Ġlo an
UN D
g ar
Ġm esh
over ty
ag u
METH OD
Ġ ~\
Ġp up
Ġiter ations
ĠC T
P UT
Ġd uty
st ers
Ġqual ified
ĠG T
Ġf aced
ĠT ennessee
ĠD ouble
RE G
th rift
book s
big cup
br idge
ig e
ĠH um
it is
ĠH ave
Ġcol le
as hes
Ġen umer
ĠSt ill
A U
Ġs ought
19 41
f actor
Ġop ens
19 54
Ġmarg inal
Ġsmall est
AC H
Ġconnect ing
T ele
sp acing
ĠTr ade
ĠG ard
ĠHol y
r ating
Ġp ub
Ġdoll ars
10 7
E SS
fr ag
Ġprom oted
Ġo cean
Ġnorm ally
10 6
ĠS port
ili ary
pro pto
per ature
ex tra
ĠAd vent
R ate
Ġdiagram s
getElement ById
g oto
out ube
sub mit
ĠSt atus
ĠM iami
iem ann
ĠAb stract
ah oma
Ġenh anced
Ġto kens
d ing
Ġro yal
ĠT a
Ġdisp ersion
Ġ' ',
t b
v ars
Ġend point
ĠPr act
ĉ ĠĠĠĠĠĠĠ
ĠSer ver
Ġcheck s
om er
VAL ID
M al
19 43
}{* }{
Ġim pl
O ld
P N
in herit
ĠP a
ext end
Ġa ux
66 66
en berg
}$ \
ac o
Ġt ough
u ity
ĠEconom ic
Ġs b
The me
ĠW as
H tml
O ST
Ã ¸
im itive
ass oci
ellect ual
ĠB Y
A I
Object s
Ġmechan ical
bel ow
ĠEx per
ĠPro du
Ph il
Ġinnov ation
s ass
Ġs lope
Ġreg istration
Ġf mt
Ġo x
Ġvot ers
gress ive
19 53
old s
ĠReg ional
Ġfall ing
Ġopt s
5 12
ĠMon te
Ed ge
Ġent itled
Ġg arden
ack ing
Ġsp arse
ĠB ased
con structor
Ġtrans verse
sub equations
Ġant icip
el and
Ġthe atre
Ġselect or
ĠIndian a
agnost ics
C V
Ġcap abilities
R ich
Ġsum m
is Empty
Ax is
Ġmaintain ed
ORD ER
typen ame
H ar
Ġ" ",
Exec ution
Ġgu ests
Ġimprov ing
_{ +
Ġ" >
f actory
N V
ĠT en
Ġd elta
M obile
Ġorder ing
ĠF a
=\ "
ĠS in
m ont
ant ed
os ph
Ġv ocal
at hered
ĠRem ove
Ġtyp ed
valid ation
Ġc od
val ued
Ġperm issions
M AP
met ic
Further more
ĠPr ivate
Ġqu as
em et
Ġcomm ut
Ġmed icine
ĠAL IGN
w he
Ġd ies
Ġp iano
ac er
ang les
ha ust
text normal
Ġme ets
Ġregard ed
wit zer
á ĥ
ĠC S
ĠD id
B et
Ġim plied
Ġ@ "
ĠY outh
ĠD R
rg b
em bed
Ġtransform ations
U V
Or gan
Ġdep ict
d uration
Ð ¿
here nce
IN ST
Ġput s
iv idual
arg o
ĠV ice
Ġes cap
Argument Exception
L android
ĠCon stitution
Ġlaw yer
ass um
Ġcirc ular
sc ore
ĠAs sum
Ġsurv ival
Ġestim ator
ĠDo es
Ġbe ach
\ }_{
ex amples
Ġ Ø§
D ATA
Ġan chor
ĠY et
ĠMov ie
is set
Ġarr ival
kw args
ĠO k
K S
He alth
st ory
____ ____
Ġeng aged
Ġmod al
Ġ_ ,
Ġmanufact uring
re tt
Ġexpl oration
ol y
on i
Ġb rown
un ning
Ġre aches
Ġaut hent
Pro position
) }$.
is y
ar ance
ĠK it
Ġy esterday
Ġaff ili
Ġhol iday
h yper
vel ope
Associ ation
Ġlog ging
ĠM icro
Ġbur st
ĠW el
Ġmain tenance
Ġte ach
ĠTr avel
ind ependent
col lect
ab c
P resent
ĠSim ple
Pol it
Ġsepar ately
Ġarg ued
}) ^{
ĠF ellow
M ouse
Ġa uth
od o
nt il
oid s
N ET
d ers
ĠEv ents
S u
ĠCor ps
ĠMo ore
xy gen
Ġaccomp an
Ġtrad ing
Ġh am
Ġmat ched
ĠWith out
vert ex
Un known
th ree
Ġexam ine
ĠHarr is
ors es
ĠAr thur
ĠP ur
m ac
ĠJ osh
R andom
A udio
ĠK y
R aw
ey ond
Ġregular ly
S an
Rel ated
b undle
Ġkn ock
iv ation
id ity
ĠLa ure
Ġinj ured
ĠFin ancial
D iff
ĠD ave
Ġas set
ĠA thlet
() ),
Ġtri angle
&= &\
SCR IPT
Ġsh adow
Ġv oting
er k
ĠD VD
ure au
Ġattempt ed
Ġre plic
ard o
Th rough
Stand ard
t ures
19 49
P ers
ĠL agrangian
ur ches
Ġthous and
Ġv ort
ator ial
Ġdifficult y
Ġserious ly
sh arp
Ġpo etry
at ivity
witzer land
Comple te
Ġcontinu ing
ele m
ĠOption al
Pro to
ĠK han
Ġth ir
Ġc rypt
Ġ' ./
(" #
Ġnot iced
R a
Ġany where
Ġaddress ed
m essages
in cre
ather ine
Ġb ag
Ġv oted
Ġlif etime
Ġt sd
Ġsub mitted
Ġfr anch
Ġcon vention
Ġmorph ism
C enter
ĠX ML
Ġte ch
F N
Ġbeliev es
ĠLim ited
Ġjournal ist
in ian
Ġbas ically
oust ic
ur ric
Ġgener ates
cite alt
cl ide
Ġtri als
or er
ĠI owa
on na
Ġm acro
ĠF L
Ġanalyz ed
A SE
s b
MO DE
ache lor
Ġcy cles
ĠG all
ĠJ ason
19 00
tr ain
ĠN ob
ĠR ab
l b
iv a
ĠD al
ĠH IV
19 51
× ķ
UT H
refer red
Ġref uge
cc c
Ġcour ses
Ġcol span
tr l
ĠM un
( .
Ġres id
ĠMethod s
AS H
ur ers
ĠO C
Ġrece ives
ist ically
ĉ ĠĠ
ä ½
m aking
}} ,\
Ġmir ror
}{ }
Ġbreak s
ĠR on
LO C
B inary
Ġfit ted
ĠV irtual
ex pression
Ġknow ing
F OR
Ù ħ
tr ight
ar o
ag ination
ĠH ilbert
per or
AR CH
Ġ( @
Log in
Ñ ĸ
Ġveg et
Sp an
ick en
Ġemploy ment
Ġabund ance
G reen
il ty
pro blem
Ġnov els
nol imits
Ġf unny
Ġhor ror
Ġst retch
g re
d n
Sy ntax
Ġadapt ation
ĠAtt orney
Cont in
def n
Ġpl ain
Ġfriend ly
Will iam
Ġcomb ine
iss ip
******************************** ********************************
ment ion
â Ĩ
igen ous
n ie
Ġso il
Ġp a
Con stant
Ġd il
oun ced
Ġinstr uments
Ġdecre asing
× Ļ
10 9
An alysis
dis tribution
T ri
ut ies
ram a
olog ists
res pect
ass ign
ĠNew ton
ĠB ra
Sup er
Nav igation
Ġl aid
ch anges
ur is
cont act
dest roy
> )
Spec ial
ig ious
Data Type
ĠViet nam
R ober
24 0
Ġdiscr imin
> ;
ĠAl f
Ġman agers
Ġg uns
O k
dep recated
Ins ert
Ġel if
Ġinvest ors
ĠSwed ish
ĠR ound
ĠI mp
Ġcom ic
Ġsup plied
char acter
Ġalign ment
Ġimpress ive
load er
ĠIl legal
Ġt ip
p f
ink ing
ĠM ars
ĠC op
Ġprob abilities
bs ites
Big g
ĠTh ough
O wn
Ġoff ensive
ĠWhe ther
P al
B ottom
Ġbus y
trans action
ĠĠĠĠĠĠĠĠ ĠĠĊ
es tr
ĠBow l
h our
ĠMar ine
Ġref used
ĠAdd ress
Ġbox es
Ġg ay
ĠPart ners
ĠĠĠĠ ĠĊ
l arg
Ġpropag ation
anch or
Ġp ump
ĠMiss ouri
; |
Ġh int
out heast
Ġf urn
Ġtrend s
ĠI L
bound s
Ġb irds
L ear
os c
Ġany way
j k
) _{\
Ġpl astic
z i
Ġencour age
ox y
Ġor bits
Ġm ail
Ġcol lections
P ersonal
Ġag es
Ġinf lation
Ġwe aring
Ġcir cles
Id entity
11 4
Ġinv olve
S ite
Ġtr ains
valid ate
Ġdiam eter
W omen
Pl atform
av al
99 99
an try
bet ween
Ġshe l
H am
Ġl ift
Ġtit led
Ġag ed
new line
ĠL u
ĠGree ce
uff ers
ĠT alk
Ġs essions
Ġpark ing
che ll
Ã ¥
re nd
g ems
ank a
ri k
Ġhas n
ab ove
: @"
LE MENT
Ġbrother s
Ġlog ical
] +
ĠPhil ip
element s
ĠL oc
Ġenc oded
p us
urs ive
Ġ" ";
i per
emet ery
Ġtr unc
Not Found
qu ality
ĠV in
Ġprov ision
est abl
ation Token
Ġappro val
Ġmin i
M en
We ight
rest ling
Ġ& $
ĠC hen
19 36
ID E
ĠG er
Ġstation ary
Ġroad s
ro ck
clide an
Ġm ac
ĠĠĠĠĠĠĠĠĠĠĠĠĠĠĠĠĠĠĠĠĠĠĠĠĠĠĠĠĠĠĠĠ Ġ
c atch
ĠC ancer
Ġvol tage
ĠM organ
M aterial
Ġturb ul
ĠHow ard
leg es
ĠK elly
ĠPl ayer
f our
ol ph
ĠW IDTH
ĠMel bourne
Group s
F older
t ouch
el ve
ĠL eft
Ġun like
Ġing red
Ġinform ed
u u
Ġent ering
ĠWalk er
H or
ug s
head ing
Ġpay ing
âĢ ī
ne ut
ĠCom ments
Ġpres erve
Ġt iny
ri ent
10 24
Ġrec ruit
Ġdisc ipl
Control s
Ġleg acy
S pr
Con structor
T ax
Ġ[ -
ĠSchool s
Ġw av
w alk
ĠDef ense
Ġover view
Ġpro position
e per
um ped
Ġs ocket
Ġoff ices
D an
ĠW i
Constr aint
Ġrele ases
kl ahoma
Ġsynt hetic
}) =\
l icense
v endor
ĠMult i
Ġ' .
Ġgen etic
Ġcaref ully
ubl in
Pre v
an imation
Ġconsist ency
Ġneg lig
om as
est yle
or b
Ø ¯
Ġexpect ations
" },
ĠM C
Ġmin ing
Ġconver ges
Ġphenomen on
Ġ\ }
m aps
G EN
Ġbeh alf
Ġcon cluded
Ġtransform ed
ations hip
ĠG a
Form s
M essages
l ive
Ġwalk ed
ĠM ust
v dots
ativ istic
Cont ents
erv ised
Ġsub section
Am ount
th an
ĠB alt
Ġsus pend
Ġpar ad
Th anks
Ġp in
Ġmer ely
Ġs a
Ġar ise
/ ">
T HE
ĠHaw ai
Ġsuper ior
Ġ _{\
Ġprov iders
ĠA fghan
ĠLO G
Ġinnov ative
lim inary
ĠMary land
Ġstrugg le
riter ia
i op
Ġprof it
ĠPh ill
Ġdeterm ines
Ġpar liament
ĠD omin
Ġinterpre ted
Ġprocess ed
En v
ON G
an im
Ġpay load
Ġpack ages
Ġco herent
Ġm art
Ð° ÑĤ
Ġcl ar
) }$,
Ġowners hip
Ġassoci ate
K it
work s
Ġm ic
ĠÐ ²
w iki
C ONT
ĠN ev
ĠEar ly
Ġst ake
ill iant
nob r
Ġclust ering
Ġgreat ly
Ġnarr ative
Ġf i
ĠG arden
Ġrem oving
Ġeigen value
Ġman uscript
ĠRefer ence
Ġsk ill
Ġcontrad iction
Ġemploy ee
ĠRober ts
Icon Error
Ġgener ators
Ġoverl ap
ĠE mb
Ġne uro
ol k
Ġinstall ation
dis able
ta h
........ ........
Ġs ync
Ġg overning
ĠB ishop
Ġclos ing
Ġint ention
b oth
A gg
Ġr ising
cont ents
sol id
l ad
et he
ĠE uro
gener ate
ĉ ĠĠĠĠ
Ġocc as
se lection
et ition
Ġmeet ings
tright arrow
Ġcorrespond ence
ĠYear s
Ġdog s
Ġfun ctor
tr aining
c v
Ù Ĭ
Ġto wer
Ġaware ness
cy cl
\| ^
ĠAl abama
M o
Ġcool ing
Ġlik ed
Mich ael
S ort
p ages
vious ly
Ġinj uries
Ġs ick
Ġgrad uated
id en
'] );
Ġpublic ly
ĠD og
Ġgr ass
Ġcompet e
Ġcut ting
IconError Encoded
Ġad mitted
Ġvisit ing
Ġg ang
}^ +
ia h
Ġparticip ated
Ġc ertificate
Ġris ks
ter y
Ġtown s
m obile
ĠCh apter
ib l
ĠUn ivers
read er
ter ior
Ġbr anches
Ġinf ection
ĠMem bers
ĠF ant
Ġal pha
Ġsplit ting
Ġfr ust
h ire
nov ation
aud io
S erv
Ġphot ons
M art
ĠDr ive
Valid ator
Ġt ens
Ġg ift
Ġtr uck
if i
ĠCo oper
H ave
p rom
T y
Ġs oph
Ġreli ef
Ġsc an
And roid
Ġneut ron
ĠOther wise
Ġt icket
Ġtext ure
ĠF ederation
Ġdesign ated
ĠTra il
Rec all
Ġreg ulations
Ġlog arith
ĠChall enge
f mt
ĠH E
sh are
ĠCont act
F ollow
ĠL as
Ġengine er
in th
Ġ' ';
ĠC C
ĠTok yo
w arn
un iform
Ġun expected
Ġpo et
B N
19 38
Ġrecogn ize
Ġrestrict ions
Map per
Line ar
Ġprov es
me asure
ĠC OM
ĠL P
ol utions
arg uments
Ġautom atic
Rem ote
Ġproport ion
ce iver
Ġpro hib
J ames
not in
Ġs i
ĠSaf ety
ph ony
ĠB ah
Ġkin etic
Ġsy nd
Ġelement ary
Ġgrad uate
Ġw el
Ġevery where
ampl ing
Ġwat ers
Ġinter ference
Ġcer emony
Th row
am an
Man agement
Ġp ra
Ġsudden ly
Ġfra ud
Ġ" .
g z
ourn als
19 18
Ġh ospit
on line
un ed
Ġc up
Ġbl ind
ĠH ans
Ġweek ly
Ġsix th
ĠS elf
ro oms
14 4
Ġform ing
^+ $
Ġadm its
r ules
Ġas ks
ĠAnd re
ĠS ri
ann on
2 20
B oth
n ik
ĠInt eg
ĠNor way
g iven
Th ree
ĠP ed
bound ed
ad v
link s
ĠDe an
M arch
Ġfootball er
u ent
Us age
ĠCol umn
Ġmathemat ical
Test Case
Ġcoll isions
Wh ite
en ix
ĠM I
Ġgeneral ization
ĠP red
for Each
Qu ant
ĠTem ple
Ï ģ
Ġde als
Ġsurv ive
Ġt ickets
f lix
F D
ĠCh ap
ĠM and
ĠEq s
ĠS R
ĠVill age
ĠArt icle
ĠCo q
ĠPo isson
ĠM aterial
ĠF ive
Ġsett led
t l
Ġcompos er
Serial izer
ol o
b oot
è ¯
Ġ" %
ĠAr k
assert True
F n
Ð ·
ash i
lect ric
ĠSe attle
arch ive
Ġincor rect
st rip
ops is
HE AD
W I
ĠC ape
| _
T M
ing ers
Ġman ual
Ġsing ing
ĠBuild er
å Ĭ
ĠWe bsite
m ms
Ġweap on
Ġold est
view port
grad le
Ġexp at
ĠLin coln
k n
ĠC SS
Comp iler
tr action
ĠStud io
B ad
Ġanalys es
ĠN ature
Ġsurpr ised
Ġsign ing
ul p
end ment
Ġdispl ays
ĠPer formance
Ġacc ret
Ġoccup ied
Ġch ains
om ot
Ġsup plement
Ġ_ .
Ġacqu isition
ĉĉĉĉ ĉĉĉĉĉĉ
] ))
We ek
Ġco aches
$ }}
Ġre pository
Com par
omorph isms
ĠHigh way
Ġtransport ation
ĠAuthor ity
i ere
c op
Me an
L M
Ġs ke
_{ -\
Ġanaly tical
rem ote
st eps
ĠBr ig
can vas
ĠAn ne
U psilon
Ġf inger
Ġfant asy
Ġstrateg ic
Ġbl ank
weg ian
he ets
Ġinitial ize
Ġneighb ors
le ading
Ġconstit ution
B eh
Ġf ul
ard ing
Ġis omorphic
ĠR oom
ĠG ordon
Ġr um
ĠHer itage
Ġdis ag
Err ors
." ""
_ );
Ġguid ance
ropol itan
Ġdr um
Ġsl ice
Ġphil osophy
oc a
;| &
ĠB h
sh a
Ġdesign er
ĠNAS A
Ġfocus es
bl ing
Ġcomb ining
ĠMalays ia
fl ux
Ġprom otion
it ure
Ġdelet ed
Ġlit eral
Ġcheck ing
Ġpr on
H H
| _{\
Ġch unk
ĠVol ume
Z one
ĠS V
re nt
ok er
< <
Ġform ally
* \
ĠJun ior
J apan
S ources
ĠIn v
Ch ain
c od
w estern
ĠH erm
{ .
re pository
el m
p d
ĠN ash
Ġj un
Ġprofession als
' +
T oday
^* _
ĠMay or
Ġev ident
P ut
Ġentr ance
Ġpeak s
r as
ap ple
Ġb reed
11 7
Com b
Render er
at in
Ġprepar ation
C ounter
c n
ĠC L
Ġproject ed
An notation
ĠG ram
Ġw ider
ĠR ot
Ġhydro gen
19 37
}) )
Ġsp herical
us r
Ġtim estamp
C LASS
Ġs le
oc ent
ĠP erson
Ġf er
Ġn eck
ĠMex ican
Ġrecover ed
ĠF isher
ĠInst agram
sub stack
Ġex ports
ĠOper ation
und les
Ġchild hood
Pl ot
ĠG raph
? )
script scriptstyle
Ġplot ted
ĠS witzerland
> "
opt im
DE F
h alf
S ong
indu ced
Ġmolec ules
Ġm ath
Res olver
Ġintrodu cing
Ġin h
m ill
og a
ugg ing
Fil m
ul o
ams ung
ch arg
19 17
ĠIndust ry
ĠS ex
sp aces
ac ht
Ġintr insic
Ġattack ed
ĠL E
ĠGr ad
Ġal gebras
Ġadvent ure
A lex
Ġtr im
UN T
OR K
l on
ĠWh it
ho le
ĠP as
N amed
ĠC zech
ĠAg ric
ĠDE FAULT
Ġparticip ation
abl ing
Ġcryst al
Ġcov ariance
ĠS pect
Ġbur ied
Ġd war
is o
Ġh urt
ĠE ag
Ġgovern or
f etch
ĠConfig uration
Ġp ushed
b oy
Ġelse where
ĠSch olar
ĠF ermi
ĠY O
ĠR ap
Ī Ĵ
ĠMark ov
Ġin herit
Ġg ro
Right arrow
S plit
m ir
ex cept
List en
ĠP aper
Ġann iversary
ĠM eg
Ġmov ements
Ġcosm ological
Ġst ick
E urope
comm un
tt ing
b ib
ic ut
Ġrem oval
& $
S G
Fram es
}} )$
Ġt ied
Com put
f ac
Ġpass engers
cal cul
ĠE ss
k ov
N umer
oid al
enc ode
Ġel ig
ĠS el
Ġg rap
bar a
Seg ment
stit uency
p kg
Ġa str
n os
Ġrep orter
Ġgrow s
Ġdep icted
[ ]{
t v
process ing
Ex port
Ġi Phone
MM ARY
the y
Ġr ub
Ġpublic ations
Ġul tr
ĠS end
Ġcon e
ĠReview s
Ġfarm ers
W he
ĠB us
Ġcons ent
Ï ĥ
B atch
Ġun likely
J une
Ġaim ed
N P
ac ef
Ġstr uck
Ġshort ly
Ġpass enger
Ġexpand ing
Ġf ro
Ġt unnel
Ġhousehold s
ĠH ope
Ġcomb inations
Ġeffect iveness
Ġdecl ine
ĠD im
ĠCh ile
ĠAl tern
Ġsus p
o il
} &\
ĠRes ult
aut ore
direct ory
e or
ĠÃ ł
f ish
Ġb acter
Ġthink s
Ġ Ñģ
iver pool
B inding
Ġaver aged
am er
Ġth orough
ren a
} ~\
ĠH ug
11 6
oc he
display Name
ĠUn iverse
Ġillust rate
Ġclos est
ĠN ik
ne e
Ġinter sect
Dep th
Ġcorrel ated
e ast
Ġp rize
Ġt ank
lo yd
Ã¼ r
Ġsuff ering
Ġd s
Ġinflu enced
Ġl ux
Ġdise ases
Ġsub sets
c ov
Ġprem ier
LE S
Ġtarget ed
ĠM ission
ĠAust in
ĠMos cow
ĠNiger ia
In f
Ø ª
I Z
Ġgr ab
appro xim
ĠAtl anta
h h
ist ol
ĠC ell
P od
f ake
ĠTh ings
Ġident ifying
Ġdeterm ining
ut enant
ĠH ad
Ġlik es
Ġp ose
ater al
ĠQu ery
lib s
J uly
be at
at io
Ġmix ture
ĠPl us
Ġcoupl ings
ĠM s
ĠJud ge
ial s
Ġmod ification
Null able
ĠPl ant
i Äĩ
Ġs wit
Ġinter fer
Ġeng ines
Ġpar agraph
ĠB ron
Ġbr ands
D ATE
ff f
Ġfl av
scal a
ol ars
ĠB os
Ġmor al
Ġde eper
Ġfe es
T om
Ġm igration
00 5
Ġoper ational
Ġres erv
row th
end ers
ben ch
æ ķ
Ġl ad
ĠF O
ĠL com
int o
s pl
pr iv
ĠTh read
S en
ĠF ram
ement ia
T ex
ĠSt ew
ra ig
du al
# {
ĠC os
\, ,
Ġdo ors
fore ach
Ġaff ine
ĠOut put
Ser ies
ic it
ĠO P
Ġfocus ing
Ġresc ue
12 1
11 3
Ġg enu
L ibrary
Ġl ights
Ġens ures
b n
Ġrequ iring
Ġaccord ance
ĠL ane
Ġcompet ed
re act
ĠAng el
back s
enn y
dis c
F rench
as a
ot er
column s
D onald
ĠH ell
A ST
Ġr anging
Ac cept
Int eg
qu al
Ġcon front
Ġchair man
j ax
he ro
V irtual
Ġro se
ol t
Process or
Ġund ert
n ative
erm in
GB T
x it
Ġcomp ression
ĠFor um
Ġtraject ories
Ġaccret ion
ĠM other
ĠÐ ½
Ġf abric
ĠAl bert
Ġgen re
' $.
Ġcent ered
Ġsomew here
Ġdef ensive
k ernel
Ġf usion
ĠInd ependent
cor respond
res olution
Ġacceler ation
U pload
Ġs ends
Ġcaref ul
Ġman aging
19 35
ĠM ock
m ount
Ġrem ind
b ecause
} <
12 4
n l
Ġart ificial
Ġunus ual
Ġcomp iler
Ġshould n
ĠAl an
Ġsuggest ing
Ġlyr ics
Ġb oot
Ġnormal ization
Ġfem ales
Ġdeterm ination
Ġsympt oms
Ġch rom
ĠP sych
ush ing
dr iven
roll ers
t ically
F act
f p
s afe
R ot
A cknowled
Ġ ig
alt Color
F eed
Ġa ria
Ġart ifact
Ġun f
Lo op
Ġferm ion
ĠLeg isl
Ġch at
Depend ency
Con sole
ĠMc G
Ġcriter ion
S i
ĠB ull
* ,
Ġb il
Ġb le
Add r
link ed
ene z
ĠPro tection
S al
ĠC ole
Ġperson ally
Ġn ations
Ġre putation
Ġre act
elf are
ĠJ S
ĠâĨ Ĵ
ick ed
Ġsem antic
ĠT ab
ĠP ear
Ġconstr ained
f ar
itar ian
B H
Ġsh apes
Ġpos it
A X
Ġf uck
Ġd ictionary
Ġ' %
ad oc
ĠD elete
Ġre actions
ĠK E
Jan uary
}} =\
ĠMc K
Ġgen es
Ġsustain able
ĠCon text
Ġexpl ored
ĠO K
Ġent hus
CO MM
Ġdem ands
ĠB reak
Ġrank ing
B F
Ġ{ %
o is
Ġlat ent
ab e
C ALL
ĠCom ment
comp act
Ġd ating
ĠE T
ur ities
ab stract
| =
Ù Ī
Ġp ione
Ġsegment ation
math ds
S ame
l int
d ashed
00 2
Ġsh orter
Ġliter ary
Ġpure ly
Ġrep air
Apr il
IN TER
Ġex haust
ĠL iving
Ġeng age
ĠH ost
Ġhead ing
L ive
Ġleg s
B usiness
ard ed
Ġtransl ated
pl er
app ings
FF ER
BU IL
if ference
, (
ĠK ath
ĠL ock
ĠM E
Ġan th
sur face
ĉĉ ĠĠĠ
Ġr ival
ĠCol on
H on
ĠW y
we alth
ch art
l r
Ġdel ight
Ġharm onic
Ġpar a
ĠAlli ance
te am
Ġperson ality
Ġspe aker
Ġ$ _
Ġf ought
Ġeng agement
Ġp ole
Ġout standing
.* ;
irl ines
l icenses
ĠB eck
Ġd upl
Ġround s
Ġ< -
Ġb ird
Ġcent uries
Ap ply
ĠC F
le et
b inding
j or
cal endar
Ġclass Name
Ġinterview s
Ġspirit ual
ĠD ur
ĠL am
Ġto x
im ore
Ġstream ing
ĠEx p
Enc oding
Ã ł
St atic
deg ree
Ġd inner
ber ry
ĠJ son
cre ens
Ġhealth care
ĠBl ood
19 14
Ġobtain ing
ĠN eg
Ġvol umes
ag ma
com pute
AT OR
ate way
ĠPr ice
19 34
ĠStud ent
Ġvir us
u et
Ġdistrict s
ĠAp pe
uk i
\, {\
Ġhead ed
Ġmon ot
over set
SS ION
Ġunit ary
m ate
Ġt ends
ĠST ART
in x
ĠDat abase
US A
19 10
ĠH it
19 2
ĠL evel
A z
Ġob server
Ġmeas uring
iz ard
ĠN um
4 50
p id
Ġent reprene
Ġfle et
im b
ĠD A
A ir
Ġover come
}) _{
ail and
LA Y
b olic
Des pite
b inary
As set
" =>
ĠKent ucky
\| _{\
Ġcloud s
Des ign
Ġst up
tribut ions
ĠAnn ual
Dep recated
ĠS audi
f ather
Ġan isot
Ġconsider able
Str ategy
ig o
Ðµ ÑĢ
RA Y
cent ral
ĠB eng
Ġhand led
ĠT arget
Ġen forcement
Z ero
ĠA qu
ĠB ureau
ĠD oc
B IT
W ORD
e u
Ġt d
get Id
Ġcan vas
Ġcompos ite
G erman
amb ig
"> (
ict ions
ĠIt em
ĠBr uce
Ġdiss ip
ĠP romise
FI ELD
Ġw et
Ġmy th
ĠK a
Ġground s
inn ed
Ġed ited
equ ate
ab a
Ġcontract s
re ason
55 5
load ing
Ġall ocation
oc y
as ant
Ġscreen ing
ĠI ron
ĠR iemann
Ġpubl ishing
Ġrul ed
ĠB ible
ĠB uck
Ġshop ping
Ġas ide
ĠChrist opher
19 33
Ġinter vention
ĠAs sume
S elf
Aug ust
add le
N UM
Ġb ary
Ġemer ging
Ġ$ [\
Ġviol ation
r ations
Ġl ibraries
ĠK o
ĠR elease
claim ed
Ġph arm
g if
Ġm ales
Ġco ins
ĠClass es
ĠB ed
N a
id o
AS K
F our
ĠDet roit
BP ACK
Ġorgan isation
or se
Ġout per
s qu
T AG
ĠC ow
li est
Perm ission
D er
Z Z
label s
Ġremark able
L T
Ġl ying
Ġg od
19 19
ĠV o
ĠFe ature
ĠV egas
m ates
": "
R ows
Sh ared
al ia
Sec ret
ĠPe ace
ĠDir ac
Ġdis able
Ġpul s
eles cope
ĠSU MMARY
at ile
build ing
po inter
= %
r ame
( ()
ed uc
Ġconstant ly
Ġwe bsites
j Query
ĠHel p
ou ver
ir i
ĠEnvironment al
et ric
est ing
Ġdirect ors
Ġdeep ly
C HECK
ĠR ain
ĠSt op
Ġleg it
= &
ST M
Ġcrit ics
Ġj s
Ġres ort
Ġdepend ency
Ġbi ological
Ġcelebr ate
' }\
ĠD allas
ĠE C
G IN
Ġge odes
Ġamplit udes
B ool
Ġsome how
ĠC OL
17 0
B order
Ġrel ating
Ġrest ore
man ifold
" |
ĠO klahoma
Ġim plications
R ules
ĠP ersonal
ĠA GN
ĠB att
om i
mathbb m
ate ur
hom ology
Ġbr on
Part icip
ograph ical
Ġg host
Ġche ap
d z
ol id
omet er
Ġsampl ed
Ġentang lement
Ġch iral
Ġhop es
rat io
Ġcon clusions
ĠS quad
m outh
Ġcon formal
T or
gener ator
Ġiniti ative
T ok
Ġp ending
the ory
Array List
ant ics
(" %
ĠCred it
id ges
Ġliter ally
Ġremain der
Ġan ten
apol is
= -\
ik h
Ġf older
Ġfrequ ent
Ġthere by
ĠAb b
Ġt ill
Ġconsist ently
ÃŃ a
Ġrelax ation
ĠAl bum
ĠP od
Ġin duct
Pl ace
I ES
jav ax
! )
met ric
Ġun stable
Point s
D irection
M a
uc lear
IL ITY
Ġestablish ment
B ounds
ĠR ange
re po
Ap J
Ġfranch ise
e ing
sub float
inal s
Ġp sy
Ġcap tain
h istory
Ġretr iev
d anger
Ġ{ },
ack ed
. -
cons istent
iv o
ĠJon athan
ĠF ro
Ġmunicip ality
ĠP ho
As sume
Ġher itage
ĠAust ria
Ġde ployment
Ġb ases
Col lect
Ġp overty
ĠA BC
ĠChair man
D OM
rem arks
ĠCar lo
M ass
Table Row
ic ht
ig s
sup ervised
i ology
Ġref lected
ari ate
ĠĠĠĠĠĠĠĠĠĠĠĠĠĠĠĠĠĠĠĠĠĠĠĠĠĠĠĠĠĠĠĠ ĠĠ
Ġprint ed
ĠA le
Ġsup porters
J ack
t ot
UB LIC
ibli ography
Ġclass ifier
ĠMot or
in formation
os l
B ER
Tim er
on ed
an ies
ĠChar lie
Ġstr ain
ĠK am
C md
Ġfeel ings
G T
Ġh ip
ĠL ag
Ġim g
Ġap artment
eff icient
ĠL LC
Ġtim ing
Ġsuper conduct
ĠH ills
ĠI ter
t f
pl ain
ant i
Ġg ray
ĠF ather
Ġj azz
ĠN i
ĠM agn
ĠG il
ĠK az
d ale
Ġprom ising
ĠAnd y
in burgh
Ġemb r
Ġbu ying
Ġd y
Ġg ent
L IST
ĠJ ob
pend ing
ĠLaw rence
ĠTur kish
Ġ ----------------------------------------------------------------
Ġp ip
Ġt one
u ise
Ġb oss
19 29
) |\
ĠD J
) !
ĠAct ive
ĠComput er
Ġill ness
ĠWork s
M ust
5 000
an ia
Ġdialog ue
ĠPolit ics
ĠInst all
hy thm
iss a
prov ed
fe atures
Ġvan ishes
ĠSpec ifically
æ ĺ
Ġt issue
ĠB ound
Ġav ailability
bl ob
flu id
ab i
ĠN ichol
Ġwh ilst
Ġsearch ing
ĠH oll
M ount
ens ively
ãģ ®
Ġt act
' )$
ĠN ation
( ['
Ġwer en
d m
se en
tim estamp
ĠDr agon
level and
Ġdestr uction
be hav
Oct ober
di ag
ĠIm ages
ah n
an ne
ĠMar shall
ĠM achine
int ell
Ġaccompan ied
Ġt y
Ġproject ive
Ġw arr
ĠDoug las
Ġar med
Ġret irement
Ġpro to
g h
ĠRuss ell
Ġch arts
Ġfem in
je ctions
ĠSt ars
at ers
ĠC M
Ġincorpor ated
issip pi
Ġb one
è ¿
Ġfunction ality
Ġnon zero
be ing
Ġdecl are
Ġo xygen
AT TR
ential ly
Ġw edding
J o
ĠSt ories
ĠRepublic ans
Ġsuff er
Ġt ension
T uple
. }\
Ġk inem
ele g
al ph
Ġefficient ly
_{ [
Ġg ram
Ġpriv ile
Ġ å
ĠOrgan ization
OL D
with out
Ġelect rical
Ġin herited
eral d
ĠR achel
ĠThe ory
Ġweak ly
ĠSp irit
ĠNot ice
Ġser vers
19 28
UR N
Ġt ort
Ġl ake
**** **
Ġin cl
ef e
Be en
Ġgovern ments
ĠSh op
Ġins ights
re peat
ac l
st mt
am ount
ĠBer k
CON FIG
Ġanalog ous
Ġob st
ch at
Ġpubl ish
= (\
Ġbar rier
Ġlinear ly
Ġme at
Ġcl one
Ġqu ote
Ġenc oder
c fg
ĠN othing
ĠD ance
ĠL ess
Ġprim itive
Ġcomfort able
Ġabandon ed
Ġbe er
Ġrepresent atives
un ion
ro uter
> %
Ġre named
Ġplace holder
ĠW oman
he res
WE BPACK
ul ates
igh ters
Ġoper ates
Miss ing
ĠBase ball
Ġt aste
w hel
aa aa
ar ma
Ġindu ces
Ġcond ens
ge on
tes y
Ġsub str
ĠW right
ĠCommun ications
win ning
Ġmer ged
Ġvis its
ter ed
Ġlength s
ul se
le ans
ĠH old
All oc
qu est
ig ator
Ġover flow
ĠPe ak
m apping
it ud
Ġad s
Ġbr illiant
C s
r h
Ġfor got
ise cond
Ġgl ad
Ġsac r
R UN
P romise
) ",
w allet
ĠH u
Ġhigh lights
Group Name
Pol y
Ġconsc ious
ĠJ ess
Ġthem es
acc ur
Ġwire less
ĠTr ack
Ġperturb ations
Ġem issions
I ss
ĠR ace
ĠCr ime
writ ing
T ile
Ġcr imes
Ġ âĢĻ
Ġup grade
lf loor
Ġ$ <
Ġ$\ |
Ġfund ed
Ġincred ible
Ġs ons
ĠIndones ia
H older
c ourse
Ġex ponent
Ġsp okes
Ġdis joint
An aly
cl ock
Ġmem ories
Ġal ias
" /
ĠM ind
Ġspac etime
w i
Ġcontro vers
Ġsh ifts
ĠK ir
Ġv ibr
Fail ure
S am
Ġc able
19 32
t oc
_ )
rf loor
Ġm ile
Ġprodu cers
Ġdou b
Ġt uple
ĠVAL IGN
y ll
Ġport folio
Ġf est
or able
al ias
Ġsubs cription
act ual
ĠAd ams
Ġun ity
cc a
ĠMat thew
Av ailable
Ġ uri
Decl aration
Ġany more
Ġaffect s
Ġnom inated
ĠU RI
Ġar row
Ġmay or
ĠMic hel
f m
Con tains
b ul
Ġvill ages
ĠAn na
Ġf etch
ject ive
pos itions
Ġtax es
Ġpar ish
STAT US
F ac
Ġuser name
tra ctions
ĠBr un
~ (
Ġlocal ized
Ġver ified
ĠS ac
us ive
Ġt ou
ĠG raham
IMP ORTED
at ics
ĠTai wan
p ars
Ġgu ilty
ĠW ard
Sep ar
nt z
C ross
Ġbelong ing
S uch
ĠMark eting
styles heets
Ġrad ical
ath on
Ġst ops
NO DE
Big r
Ġrestaur ants
Ġb ike
ĠMur ray
ĠFin ance
ab olic
her s
em ies
ĠD ublin
ĠBe at
Ġgre y
Us es
ot hes
ips ch
)= (
Ġviol ent
Ġmut ual
: '
ĠC er
ts burgh
Ġanim ated
Ġb unch
ĠThom pson
ĠPol y
C ancel
ĠIm port
ĠStud ents
re view
Sign ature
M W
ĠM adr
sp ot
Ġmer ger
Ġs alt
)} _{\
le f
ort heast
Big l
> ()
ĠH ero
à ¦
T ouch
intell ij
Ġpres erved
ĠHistor ical
am ents
ig m
ĠAnton io
Ġas semb
PH P
T Y
Ġden ied
ĠTele vision
ĠPh D
cond itions
ĠPal ace
000 1
Ġc ited
ict ional
ĠAd vis
Ġpoint ing
Ġl ands
Error f
Ġv m
c ountry
produ ction
. (
Ġdot ted
ant on
Ġl os
Ġm s
Ġreg ulation
X Y
ĠCh o
ĠCent ury
V I
m ade
Ġob lig
ĠBas ic
stats models
Sim ilarly
cor rect
ĠS S
Ġb ul
z ym
r v
Se ptember
V ICE
Ġfol k
Ġcount ing
Ġguarant eed
Ġgu idelines
Ġfin ance
ap ing
T yp
Ġm oon
Bl ue
ac les
in ating
Ġquot ient
Form er
ĠAss istant
Ġtouch down
Agg reg
mark s
ĠWal ter
Ġres erve
Ġdis contin
C a
we ets
u uid
re ach
ĠF M
con vert
man agement
Ġcal ibration
p ref
ĉĉĉĉ Ċ
anc ouver
Ġc rop
ĠLin ux
ass ador
99 9
Te am
inter val
r pc
Ġsh ots
ĠZ e
ĠWh ich
ĠI ce
Ġnot ing
}} }$
opt imal
ĠP resent
Ġflex ible
G ER
LE TE
Ġfl avor
em ed
ĠN ag
3 20
uer to
pre vious
Ġh ill
h op
ro se
Ġveloc ities
ur bed
ĠSing h
u ates
ĠT OP
ĠRem ark
C art
amp ing
ĠB H
Ġj oy
str ings
ĠQu ant
Ġrare ly
Ġt ropical
Ġphys ically
s ocial
Ġwith draw
c x
ĠG alaxy
Ġtherm od
Ġwor ry
ith metic
V A
I ll
Ġextr action
sc ar
lim ited
ĠI F
40 4
UR CE
c assandra
em ale
f requency
, ~
onom ous
ut orial
ĠG ary
C oin
Ch anges
Mod els
def er
Ġorgan ic
Ġcam eras
' $,
ĠL ang
Y S
ĠPubl ishing
em it
Arg uments
Ġan notation
12 2
Ġhierarch y
Ġcomp ilation
ĠArch ives
H ook
ues e
Ġcritic ism
Ġdesc end
ĠRec all
Ġfeas ible
ig g
ĠMat hemat
Ġassert True
ĠCP U
ĠSever al
Ġpo em
Ġhead quarters
clus ively
Ġsp ark
Ġde formation
Ġdec ays
min ute
ipsch itz
W ar
v p
Ġretr ieve
Ġs ender
Ge ometry
ĠF ast
] ^{
Ġgener ations
pos itive
class Name
I ME
T ake
ĠG O
ĠCre ates
ĠP il
Pr imary
ĠA B
ĠH O
ld s
Run ner
Ġmar ine
Ġor ange
Ġembedd ings
j amin
Or iginal
ĠF al
ĠY ang
With out
Ġcub ic
log ging
Ġam pl
un lock
W IN
Ġge omet
Ġsh ifted
ĠF ried
Ġamong st
Met rics
Ġqu ad
h arm
ĠD ak
Ġcos mic
2 30
Ġhe ating
Ġ\, ,
c ancel
ĠR ick
TR Y
ĠKenn edy
Ġcour ts
ĠBr and
Ġplan ets
Ġn ick
uff icient
Ġmeaning ful
ĠD ub
Ġded uce
V S
;\ ;
Ġdevelop ments
Ġkit chen
Ġconven ience
p iece
×ķ ×
RE CT
ĠĠĠĠĠĠĠĠĠĠĠĠĠĠĠĠĠĠĠĠĠĠĠĠĠĠĠĠĠĠĠĠ ĠĠĠĠĠ
C ulture
Ġph on
\\ \
B us
Ġint ense
Ġint ellectual
ĠR ule
B s
Ġsucceed ed
LO W
ĠK ind
Ġmechan ics
Ġhop ing
ĠB uff
19 22
Ġattract ive
ĠN ap
( |
) |^
Ġrout ine
IC ATION
ĠF er
igh bor
. },
Ġsit uated
$& $
Ġh ired
Ï Ģ
Ġl oyal
ri el
P ad
Ġhe x
Ġn urs
ĠK ings
at om
Ġdist urb
AV E
Ġarr anged
equ ival
Ġ| =
D U
Ġsurround ed
Ġfavour ite
f av
Ġra ising
ĠSt age
V ec
Ġre fin
ĠD raw
Ġpay ments
ĠS ide
ĠD est
Ġmonth ly
ĠMor ris
Ġt ie
Ġa fr
Ġout line
Ġinvolv ement
Ġanom al
è ®
ĠH ub
create Element
a ho
fr ames
G s
me as
ellig ent
ab ad
Res et
art z
Ġ-- ></
HO ME
Ġr ugby
En able
pl acement
Ġsuff ices
Ġstream s
Ġelectric ity
s z
ĠIn ternal
ect ure
Ġse p
G D
c ity
um ar
enc er
L ow
ĠAl ber
ĠMar vel
}} }{
ĠP L
Ġc aps
Ġcomp eting
ĠQ CD
Ġre tain
Ġc urrency
olog ically
mem bers
Column s
Im m
ĠB ond
t m
Ġ" '
refer ences
ir ates
Ad v
d in
Ġim posed
Ġex cluded
row se
Ġinsp iration
S napshot
ĠG ray
Ġhard er
tr ained
}) (
run ning
Part y
Ġrem oves
v v
Ġ' ''
L icense
ĠTh or
Ġfol ks
ĠMed al
Ġre normal
. :
ss l
ĠHar vard
ĠTh ank
Ġv ital
Ġlimit ing
st ation
pat cher
Ġathlet es
ĠW ang
Ġthick ness
Ġdrink ing
ĠP ap
lin ux
Po jo
_{ {
19 24
>< !--
Ġsu icide
Ġrot ate
Ġreflect s
ĠPhys ics
â Ħ
Ġmet ers
Ġver b
und erset
Ġind irect
Name Link
19 27
ĠM ess
Ġrul ing
ĠM yst
ĠEx change
ey er
L IN
AP P
ĠM unicip
Ġlog in
Ġw ake
ou p
ord inary
Ġtw ist
S ever
Th ank
Ġvar ies
dat aset
In ner
Ġis lands
ĠF un
Ġc ogn
Ġem otion
C ost
O wner
Ġlo ops
s yn
19 31
ĠW ind
Ð ¹
Ġst em
Nov ember
or ia
Ġadapt ive
Ġpars ed
Run ning
ĠF red
et es
Ob server
Ġcon jecture
ĠM ix
L and
Ġexcit ation
Ġobserv able
tr on
Ġcal endar
Ġe c
ĠI an
Ġb es
m g
G F
ĠD I
set ting
A rm
if iable
çĶ ¨
ev a
à¤ ¾
Ġfore ver
ĠClass ic
De cember
B ur
no ise
ĠD ictionary
op am
te ch
oc om
om ed
urre nce
Ġ} {\
ĠNever theless
ĠN elson
Ġm ilit
Ġenc ode
m r
De ath
ro d
Ġunivers ities
ĠN ic
Ġdevelop er
Ġc razy
ĠC row
ĠRog er
qu estion
Ġcons ensus
inc ial
Al pha
(' <
top ic
P DF
Exec utor
ĠSing le
ĠPolit ical
ĠKn ight
Ġaggreg ate
M us
ĠM ach
V O
Ġsp ots
Ap pe
Ġpass age
ĠP ast
Ġel astic
ĠGu y
Ġrom antic
n ecess
t own
ĠJ os
al og
Option al
Ġat tributed
Ġfant astic
Rober t
Ġse cre
Ġrecommend ations
Ġtem ple
QUE ST
Ġmem brane
av i
tool tip
ĠS L
ĠGirl s
ĠT ry
ĠEu clidean
Ġe ating
Output Stream
aw esome
ect ive
Ġdram atic
ĠFre der
Ġthread s
> '
Ġph rase
ĠReg iment
Ext ensions
p ubl
con current
). }
Ġmaintain ing
w ind
ĠCh ampions
ĠFor ces
ma ils
ĠA udio
S n
Sh are
Ġf irms
Ġincre ment
1 19
Ġdisc ount
oper ative
ĠDef ine
ĠTh ailand
man y
ĠStud ios
f un
Ġcoun sel
Ġvari ants
M ajor
cos ystem
h uman
et o
ĠS cal
M AN
ĠT otal
get Instance
Ġcons iders
ĠM ort
ĠUn fortunately
< >();
Ġcontinu ity
R adi
Ġaccur ately
ĠRes erve
est ure
$ _{\
Ġdev oted
est one
ĠS r
Ġencour aged
Ġpaint ings
Ġc avity
Ġtri b
W arn
ĠL iverpool
ĠCon stant
or ange
en h
12 9
Ġcolle agues
S witch
iv ia
Ġf s
Ġre fr
ain ian
Dr ag
ĠMon th
Ġh o
B u
Ġte a
bo ards
vel oc
RE SS
enc oding
Ġc ock
Ġf ishing
Ġin coming
P OS
Ġchar ity
ĠSen ator
Ġexpert ise
ate ful
Ġint u
ĠSpe ed
Ġcomput ers
Ġdis aster
S K
Ġres ident
ĠD ays
ph ones
ĠT i
ub ern
Ġappreci ate
Ġexam ined
Ġinst ability
iv ities
Ġl oud
p mb
w ang
Ġbirth day
Ġch amber
ĠRob inson
TI ES
ĠB ou
od al
cl i
Ġext ending
Ġfor cing
19 21
ĠS F
ĠSe pt
G ui
Ex pected
Up dated
Ġbre ast
Ġdemonstr ates
Ġc ategor
C LA
al ion
ĠOC aml
ĠR andom
> ${
sc opy
sl ide
Part ition
[ <
Ex tra
Ġmotiv ated
Ġsens ors
ver ify
Ġcap ability
ĠE instein
' }$
Ġagric ultural
12 6
Ġflo ating
ĠA F
) *
Ù ĩ
ĠB art
ĠU tah
Serv let
Ġprot otype
Ġsu ite
' ',
Ġshe ar
Ġm apped
ĠAb d
! </
19 16
med ium
ĠCl imate
Ġg athered
ĠOr th
à ®
N Y
r ition
Ġwe ird
ĠĠĠĠĠĠĠĠĠĠĠĠĠĠĠĠĠĠĠĠĠĠĠĠĠĠĠĠĠĠĠĠ ĠĠĠĠ
Ġthreat s
le in
ĠP H
. ]
Ġsynt ax
ĠCamp bell
ĠW I
mention ed
Ġreview ed
Ġcar ries
Ġprote ins
Aut hentication
Ġcy ber
Ġs occer
27 0
ĠL java
P ublished
Å Ł
Per iod
ĠS ud
Ġeduc ated
fl ush
Ġcar rier
ump y
second ary
ink s
ĠLeg al
re le
æ Ī
ĠM IT
ĠU t
Ġaux iliary
s ame
Ġb ull
ss on
ĠEd inburgh
Ġth ro
3 000
Q ual
V C
Ġtext s
Ġg ear
ĠSw iss
Ġ& #
Ġver ification
Sh arp
f und
Ġpotential s
ĠElect ric
ĠS now
An n
autore f
19 25
it ro
Ġland ing
re ck
Ġaw esome
Ġgener ality
P ub
N eg
amazon aws
ĠF ame
qu er
z ing
Ġasympt ot
Ġred irect
rypt o
ed a
Gr ad
ĠF ly
ĠW olf
Ġant ib
str ument
oth y
as g
S ocial
ĠRead ing
IE W
Ġtrans it
% "><
TH ER
Ġperm it
ĠP eters
Ġr ib
to Be
col ogy
em en
OT T
n ia
ing e
sm ooth
Å ¾
ĠM atch
cknow ledge
Ġster e
ĠConnect icut
Ġd ial
am ination
Ġsp ell
ser vers
ĠE val
Task s
Ġst arring
RAN TIES
Ġnot ification
ĠJ e
Ġannounce ment
Pr ice
Al gorithm
r ac
A SS
ĠG un
ne ed
ĠAp ply
Ġdistingu ished
ĠL ower
sim ilar
ĠSum mary
Ġformul as
Bit map
a que
ĠOr leans
45 6
19 12
Ġb om
te chn
ĠDel hi
trans port
dd ie
trans l
Ġl in
Ġs aving
}) -
C irc
ess ed
Ġmyst ery
iff s
BU FFER
ĠS creen
N L
>( <
G old
DE X
Ġphotograph s
Ġ} $
ĠB S
ĠWar ren
P s
ĠT el
ident ity
Ġband width
Ġsure ly
eg u
et ics
19 26
Ġs ake
Ġmoder ate
ĠB R
Ġinfin ity
S il
11 11
S chool
ab ul
ĠL I
ex act
Ġb eta
ĠRepresent atives
Ġarrang ement
iss ance
Ġh ang
ĠO wn
Ġmet res
ĠInt elligence
Ign ore
}_{ (
ĠBet ween
Ġcor ruption
D ynamic
Ġst ating
ĠCon sequently
Ġac oustic
E ST
F ixed
}\ }$
ĠRes erved
ĠEconom ics
ĠC over
au i
Det ector
E r
ĠAp pro
ĠT an
Ex ists
Ġ$ $\
Ġmulti plication
Ġdes per
RA ME
ĠG ill
fig s
Com mit
Ġinter active
Ġdeleg ate
ev ens
Ġcelebr ated
Ġ` ``
ĠWAR RANTIES
ĠT ar
uch y
)} =
v skip
{ [
Ġs ectors
Ġas c
tract ed
Ġnumer ically
ĠStew art
ĠD ist
Ġr ings
ĠArgent ina
op ter
D TD
ol en
Ġsub stit
Ġdetermin istic
ĠR ub
Ġg all
ĠBelg ium
Ġdes criptor
Ġposs ibilities
Ġimag inary
V AR
ĠT s
ut t
ud son
ff ic
ĠT YPE
Ġexpat riate
K K
Ġ' "
Ġj u
Ġsort ed
Ġlocal ization
ĠSer ial
order ed
ĠTerm s
> $
Ġrel ies
G re
Ġ\ )
50 9
19 15
ĠCar ter
!! !
TableRow Color
M achine
Ġlib eral
sd k
æ Ĺ
Ġtw elve
âĦ ¢
ĠB ody
Ġphenomen a
Ġgrad ually
ĠCom b
qu et
Ġlock ed
ign ore
Ġdiagn osis
Ġpod cast
cm p
I l
ĠMA X
Ġres idential
stream ing
19 23
Ġde fer
ĠOper a
sw ing
() ">
Vis ual
Conver ter
Tim estamp
ãĥ ¼
ĠS witch
pe ction
/* !
i ang
Ġ( %
Ġjun ior
Ġc b
f are
Ġd yn
Ġd owntown
ĠJ en
bor ough
m ov
ĠAfghan istan
Ġglob ally
ĠSt orm
Ġco in
ĠBl ues
B bb
Ġo ct
Le ave
, âĢĻ
id ad
at en
ĠDown load
o ft
ad ic
ym n
tim er
ĠA LL
Ġsil ent
Ġhom ot
Ġvari ed
LIC ENSE
ĠR T
}\ )
ĠL anc
ĠN GC
Sm all
ĠM aur
h pp
App Compat
Ġ ^{\
TR AN
irm ingham
Ġde ck
Ġg ains
includ es
Ġle tting
ĠUs ed
urric ane
Ġminim ize
2 25
}_ +
Ġwrap per
âĢ¦ ]
Res p
ĠP oll
Ġal igned
Ġr anks
RE T
I r
Ġarch ive
\!\! \!\!
Can adian
redu ce
Ġs urn
Ġl icensed
Ġl unch
! (
ĠS ales
}= (
jack son
ĠMiss issippi
ĠM B
Ġst uck
ĠA ws
pos al
ĠC arn
he art
Ġsurvey s
ĠN BA
ele y
Ġar ises
################ ################
Ġm eth
ob i
del ay
Ġexpl oring
ĠBy te
at able
h yp
ugh ters
C amp
ĠPr imary
ĠQueens land
}( -
Ġrespond ed
j b
it Hub
Ġmusic ian
V R
ĠR y
Ġt ale
ĠM ason
PRO P
iv an
ĠS uccess
ĠD OM
Ġlog o
Ġlight ing
' },
Ġp ic
ĠR and
Ġphot ographer
Ð¾Ð »
uc le
2 10
bre aking
Ġm ad
Ġexception al
M or
d jango
Ġdo ctors
Ġdiver gence
ĠEn c
Ġstay ed
Ġfin ishing
oc c
t ake
Ġp our
up dated
grad uate
ĠT ower
Ġperm utation
) )$.
Ġc p
Ġpopular ity
et c
Ġspe akers
Ġopin ions
Ġlabor atory
t one
am ous
Mon th
ĠBo ys
Ġl ov
Ġev olved
ir s
St ation
ĠCom ics
ĠZ one
Ġtyped ef
S ide
Ðµ ÑĤ
om ething
Ġvulner able
Ġover whel
Dec imal
D ist
Ġre ven
Ġgo ogle
ĠT itle
lat est
ur u
Ġuniqu ely
\ }}
CC ESS
ĠB uffer
ĠD ise
Ġtalk ed
A ctions
ĠS ave
ĠN ull
================================ ================================
ĠG W
Ġm ild
c ence
oupl ing
quir y
dis k
Ġthe ater
ĠBe aut
d ifferent
a ac
Ġg al
Ġcontr ary
\, .
Ġrun ner
Ġsup plies
Ġlaw yers
Ġstop ping
}_{ {\
cast le
ĠBrook lyn
Ġg olf
Ġult imate
IM IT
Ġneglig ible
en o
ir able
P rom
ĠF ern
Ġguarant ees
Ġintrodu ces
Ġtom orrow
ĠL L
St age
Ġprocess or
Ġs urre
ĠP ope
=" {{
ill ery
en z
ĠE D
Ġre semb
Ġg allery
m ys
Ġst y
Ġdeploy ed
Ġmount ains
N I
-------- --
L ead
pr agma
Ġt ar
en vironment
ĠF inn
S PE
Ġsynt hesis
}. \
14 7
å Ń
ĠF reedom
ĠDep uty
Cre ated
Ġb ucket
Ġintegr als
f ailed
Ġsole ly
M ov
A SSERT
Ġg raphics
Ġbron ze
Re ason
Ġel der
cl s
Ġco operation
Ġsecret ary
ust ers
ren ew
0000 0000
amp ed
ĠNor wegian
lot te
Ver ify
} ",
ĠTown ship
Ġc ow
k ar
c ursor
Ġformer ly
Ġt ube
Ġwav ef
) <
Ġb read
ĠAn aly
C ould
ĠWork ing
Ġintegr ity
p ent
Sc ore
ĠG ot
ov o
ĠMon ey
ĠEp isode
Ġto w
ĠM i
T imes
ĠV iol
Exec ute
Ġindust ries
Ġorgan isations
add ed
XX XX
Ġexhib its
Ġj unction
Ġinteract ing
ĠM oz
ill o
ĠCro at
Ġmist ake
Ġp ace
Ġre ception
ur se
od el
Ġtr ick
Ġa cknowledge
ĠMag ic
Ġdis cre
ĠPar se
Ġdr ums
enc il
ĠP erm
s ong
Ġwind s
d or
ĠI SO
Ġagre es
$ --
Ind eed
Ġrecord ings
ĠHun ter
Ġrest ored
Ġoptim ized
Ġbal anced
Ġcontinu ously
C at
Ġig et
roph y
Ġcomp ound
Ġw orship
au er
Ġoccup ation
Ġven ue
... )
t uple
ĠSim ilar
Ġprint f
Ġche st
ĠS eg
Ġrac ial
w br
Ġeth nic
Austral ian
c ient
Ġd uties
Ġperm itted
Ġsh it
Ġspec ification
google apis
ey l
Rep resent
ĠJim my
sol r
Ġappoint ment
U nd
Ġl oves
Ġdes ert
Ġback ing
Ñ Ĩ
ac ular
in ces
Ġb ullet
}\ ;
per cent
Ġconfigure d
ĠMarg aret
ĠIn valid
Ġch urches
14 5
Al t
ĠTri b
File Name
r and
Ġart istic
l st
C ursor
Ġcook ie
Ġvalid ity
ĠW ait
Ã ª
th a
g un
pr ice
gu ide
Ġcomplet es
Ġh orses
Ġfin itely
Ġfr act
Ġrom ance
G AN
chi at
ĠUr ban
" ];
ĠS ay
G a
em a
ĠMari e
ar ound
Ap is
Ġbos on
im inated
ĠBar on
` )
100 00
Ġindic ator
ab b
Ġshould er
Ġdemocr acy
ĠKE Y
Ġ' _
less ly
load ed
u art
ĠPro f
ĠN ear
HO UT
ut o
Ġproof s
p al
ĠCon vention
ĠId ent
ĠCons ult
S at
Or igin
Ġsent ences
ĠUn less
it ations
Ġhad n
17 5
Ġar ising
let ed
ul u
ĠSam uel
P ID
ple ctic
Pro fess
ah a
O lymp
Ġlab our
l adesh
Ġpres um
ĠCl ick
Ġemer ged
@ {}
ĠPr incess
ĠEv ans
ĠCh amber
Ġphot ography
. (\
}} +
h ad
D ict
adi ents
Ġt ub
Ġassum es
Ġ( âĢľ
ĠT ob
itud inal
G reat
Ġjud ges
Ġoff ense
Ġ- =
ĠS olar
b ank
o j
Ġex clusively
he alth
gener ic
iv ariate
ta x
Ġconf ident
exec ution
Ġimm igration
Ġst roke
7 50
ĠO il
Id x
V P
Ġcomp iled
Ġwrap ped
ĠĠĠĠ čĊ
Ġsp oken
D ue
R adio
ĠMod ule
d ed
Ġtack le
h ai
c art
get Type
pe g
Ind ian
ĠChrist ians
spir acy
ĠMet ro
( /
Ã ´
Ġmil k
no frame
Ġt ennis
External Task
ĠL GBT
Ġgr ain
Ġsnap shot
id ays
Ġin herent
op les
ĠRef orm
ĠWrit ing
../../ ../
T ur
c ritical
Ġ Ã©
Ġen emies
op ing
asc ular
is an
ep age
Ġaut hentication
Sc ott
Ġval ley
Ġe leg
Ġins pect
ĠC ass
Ġde put
g al
ĠM atrix
l iving
ĠT ig
ĠPro duction
ash ing
19 0
Ġâ Ĥ¬
ĠAl b
ĠPort land
se cret
AB C
i pt
Ġderiv ation
ĠPer haps
Ġvis ibility
Ġcell padding
Ġg it
b ibli
ĠSt re
ĠLog ger
Ġstup id
13 6
Ġinh abit
ĠThe ater
ain er
Str ucture
Ġab elian
cel ona
ĠB aker
ov ak
Ġaccept able
for ced
ever y
Ġvari ability
ExternalTask Pojo
n est
SP AN
ĠB ag
ij ing
get String
Ġmark er
not ify
ĠP ad
ac ion
Ġt ips
Ġimprov es
Ġsl a
ha us
ĠNot es
effect ive
P acket
th umb
ps hire
ĠP ant
s amples
Ġal ien
Ġpro ton
grad ed
ĠNC AA
ĠMuslim s
or us
Ġelli ptic
Ġh az
ens is
ĠD etails
get Message
serv let
ĠG ulf
ĠPl anning
L arge
project s
Ġjournal ists
ĠP arent
}$ ).
MP L
dec ode
Ġrefer ring
. ',
sh aped
hes es
ĠĠĠĠĠĠĠ Ċ
ĠHand le
ĠPro file
Ġdiv or
Ġs orry
Ġdec oder
Ġdro ps
ĠP E
vent ory
ust ed
ric ulum
ĠKe ep
P an
cho ose
ĠUn iversal
R M
Ġtem por
g ap
ĠC her
Ġin aug
ĠDen mark
Ġdelay ed
ĠL apl
pare ncy
Ġsqu ares
Ġim pr
unk nown
Hash Map
c z
ĠPl atform
pol ar
Ġpart ly
Ġj uris
ond a
be ans
ke ep
max cdn
Ġp uzz
ĠLeg end
ĠWay ne
Ġcor ners
Ġb ins
ĠM is
Ġcell spacing
' ].
Ġanc est
> [
on z
Ġadvers arial
ĠB egin
m ust
ĠS ize
ĠV ancouver
sup p
G H
Ġcharacter ization
ĉĉ čĊ
ĠO cc
un ks
ĠL abel
= {\
Ġim per
Ġres idence
b rew
Ġmod ifications
ĠC leveland
Ġlong est
own ed
ac ies
19 11
Ġreason ing
Ġinequ alities
ĠM es
th ird
Ġsl ave
k ee
j ud
Ġs ust
che m
Ġdifferent ly
Ġcompan ion
M ix
Ġwalk s
d st
Ġaff airs
Ġag enda
ĠLouis iana
Ġsh r
Ġdam aged
Ġscal ed
å ľ
Ġdream s
top rule
Ġelig ible
R F
( --
ĠT it
Ġsimpl ified
Ġreprodu ce
m ers
ĠAnt i
yn n
ĠI gn
ĠG as
Ġsm ile
S B
Ġr ay
gl ob
' (\
Ġemb od
Re ceived
p read
Ġj ets
Ġhyper bolic
od ox
Ġback up
SP ACE
Ġatt itude
Ġpre liminary
ĠCom ponent
tem perature
Sh ader
Con tract
Ġflow ers
Ġut ter
ĠMem ory
Ġdifficult ies
OTT OM
Ġsup ern
y outube
Ġfound ing
ĠĠĠĠĠĠĠĠĠĠĠĠĠĠĠĠ ĠĠĠĠĊ
ind ices
ĠL isa
dat etime
ew ise
G RO
ĠS oul
Ġcommun icate
Ġregular ization
Ġre lying
ex per
EN V
Ï Ĥ
Ġn ested
ĠF BI
Ġsuspend ed
Load ing
list ed
ĠD ie
BA SE
×Ļ ×
Å «
Ġprov ing
get Class
bal ance
ĠW ol
ĠS ession
In spect
Ġpet ition
ĠMean while
ĠBalt imore
Ġconf usion
H ol
B its
ĠQ ual
gr avity
trans fer
er ious
Do ctrine
) }^
or o
D istance
ib bean
ĠProfess ional
^- $
ab ases
Ġmethod ology
L aw
ig inally
ĠCon vert
Ġrepeated ly
ĠS cript
Ġhigh way
Ġthreat ened
}^{ (\
Ġminor ity
Cam era
ane an
ĠI de
ĠW W
ĠJ uan
Ġoccasion ally
ĠS yn
miss ible
Te chn
ĠP un
Loc ale
lev ant
Ġattempt ing
IF I
ĠSt even
Ġexcept ions
s ent
ĠA ch
Ġmod ular
Ġw x
ĠN at
ĠInter est
i ating
ol er
ri ors
Ġkey board
Ġle ts
im edia
Ġobserv ational
Ġde pression
Ġadvant ages
g ue
19 13
Ġcommand er
}\ !
Â »
Not ice
ped ition
Ġc umul
In struction
Ġt ile
Ġclaim ing
ĠEar l
q q
Ġachiev es
ĠR ank
Ġ\ }$
g raphics
om es
(" \
ĠSh are
Ġswitch ing
in verse
ĠOr chestra
Ġfacilit ate
Ġfit ness
pro c
TERN AL
' =
Ġf ur
ĠAl aska
m x
Ġin jection
__ )
ĠVis it
se gment
ĠPat ri
}} -
ĠJava Script
Ġful fill
ous el
Ġa z
EV ENT
ĠMod al
h on
Up per
ond s
ĠWith in
Ġvo ices
fr agment
Ġton ight
pro j
Sl ot
Ġencounter ed
ĠF iction
â Ķ
intend o
Ġvan ishing
Ġdiscr imination
Ñ ħ
orient ed
ter ms
ĠArch ive
Ġj ew
oun ters
Mon itor
Ġd ose
Ġcred its
Ġdel iber
ass et
ann ah
Ġ======= =
Ġ' ,
Ġc oc
Ġpush ing
con struction
ĠJ u
Ġb ott
Ġch ronic
ID S
Ġprom oting
Ġimplement ing
19 08
ir ts
A MP
Ġed iting
ĠĠĠĠĠĠĠĠĠĠĠĠĠĠĠĠĠĠĠĠĠĠĠĠĠĠĠĠĠĠĠĠ ĠĠĠĠĠĠĠĠĠĠĠĠĠĠĠĠĠĠĠ
Ġquant itative
== =
Ex pl
ĠBul g
F ire
ĠF i
Ġm igr
o ys
ĠK ate
ĠPark er
Ġadd r
Ġless ons
andid ate
ĠSt ein
g ements
ĠM all
abet es
Ġsl ide
let t
R G
enez uel
Ġamb ig
rel ax
Ġd st
f w
M id
LO AD
Ġv ic
ĠVis ual
ĠSus an
ĠB ot
Ġinterpol ation
uff le
ĠImm utable
Ġsus cept
ab ol
Ġtr ap
13 4
ĠBrother s
ĠLib eral
Ġc oding
ĠPortug al
Ġdiv ide
Ġl ung
13 2
pi pe
Ġ( ;
é Ģ
sm art
h n
ah l
c g
ene ath
m ot
ch rome
ĠLe ban
Fe bruary
H ot
Ġrat ings
ĠV ery
Ġreported ly
Ġste ep
ĠO ptions
ĠIn n
ĉĉĉĉĉĉĉĉ ĉĉĉ
n ear
æķ °
ced ure
Ġ' @
Ġdef ence
Res earch
Ġcl othing
Ġimpact s
Pres ident
ĠBar ry
list en
Ġc ached
ĠH end
h is
ĠP ictures
Ġpoly mer
ĠFrank lin
Ġear liest
D ig
Ġanal yst
Ġcontribut ing
Ġdecre ased
sur ance
Ù İ
ĠCommon wealth
ia o
Support ed
ph ot
ĠBe ing
al ink
Ġste am
ĠD ementia
usal em
annot ations
Ġkil omet
ĠOper ations
}} +\
Ġvolunte ers
Ġst eal
ht bp
ĠParamet ers
' -
ĠL anka
Ġview ing
= }
Ġcas ual
Ġ ell
x rightarrow
ĠC el
A fr
vers ely
Ġens uring
Ġrender ed
N eed
ĠCon struction
Ġpropos als
ĠPho enix
op acity
13 1
Ġfl ights
An im
Ġre b
F ALSE
H ello
sc an
our t
us c
ess ment
ĠPro perties
Spe ed
P ush
Ġmanufact urer
Ex pect
Ġl uck
(' ./
Ġg aming
p k
Ġmain stream
ĠLore ntz
ĠNet flix
et r
Ġaccept ance
Ch art
uck er
' )\
ĠCl aim
Ġi i
Ġm g
Al ert
oth s
ĠF ine
âĢ¦ âĢ¦
am ic
Ġsequ el
ĠArab ia
ĠF err
ĠAg reement
Ġpurs ue
B reak
De ep
Ġalloc ated
Fe atures
}}\ \
] </
sub Nav
* {-
Ġun e
ĠCamp aign
Ġcoupl es
ĠUp per
add Class
ĠComm ons
Ġes c
}, {\
%%%% %%%%
script s
Ġsus pic
J ac
asg ow
im eter
is cal
Ġoper a
Ġess ay
ext ensions
Ġres ign
ci pl
oc hem
ok a
Ġvess el
ĠE lection
ens en
Ġobject ives
Ġsup press
task s
Ġhighlight ed
] _{
k k
ĠR ele
Ġcontrovers ial
ĠP ic
Ġ" [
Ġ$- $
D ry
O O
. ),
Ġsch olars
ĠEnt ity
Ġj e
Ġread ily
Ġinv asion
um ann
ref resh
Un ique
respons ive
="../ _
Sc an
L uc
): =\
Ġaccomp any
ĠG M
ous ing
Ġw ides
Ġformal ism
est im
P ubl
Ġcred entials
Ġs oc
Ġelimin ate
Ġg ates
it r
Ġun lock
Ġsummar ized
ma jor
(" .
od ic
Ġ# {
az ines
ĠBar bara
Do es
Ge orge
ĠMit chell
s lds
Ġfraction al
ĠE uler
trans late
ĠGener ated
Ġassert ion
ort s
Ġb orrow
Ġdr ift
op ol
Ġre ign
vent ions
Ġapprop ri
ĠG round
ore l
Text View
mat ches
\' {
Ġel abor
ve ill
ĠStr ucture
\ -
em ark
Sc ene
Ġparticip ating
k ip
he x
s ized
Ġd ad
h ig
ra f
ĠB loom
hat tan
b ach
ĠShe l
Ġover se
ĠE M
ĠE N
ĠC rown
Ġreg ulatory
ĠF ight
ĠBay esian
ĠP uerto
Ġorient ed
Ġcompens ation
Ġcl othes
16 8
Ġbare ly
^{ [
Trans lation
ĠPit tsburgh
Ġple ased
urre d
ĠCol omb
Ġk iss
S eq
AR K
ine a
br anch
Ġbeg un
ĠFin land
ĠØ§ ÙĦ
Ġrel ate
ĠHon or
Ġsoph istic
over y
Ġact ively
F actor
Ġt ies
om on
ĉĉĉĉĉĉ Ċ
olec ular
ay an
idel ity
Ġis instance
path s
Ġconver ge
d v
Ġv e
ĠCh ron
ĠG A
Ġinv ention
Ġple asure
str ict
Ġarray s
Ġf ed
ĠL iber
SP AC
Ġter rit
Ġl l
}| ^
Vis it
Ġafr aid
$ (\
/ )
Set up
ĠÐ º
allow ed
Ġdr ives
Ġsurv ived
ĠSte el
ĠAdv anced
Ġsurv iv
ut down
list ener
ĠColl ins
Bi ography
im ir
ryst al
ip per
ĠEm peror
vers al
ĠIss ue
ĠArg ument
Q t
Ġcross ed
ĠM aine
** *
ĠLead er
un i
DE D
tool bar
ĠÐ ´
st ock
Ġ" ${
asc ade
Ġz oom
RES ULT
ĠR F
ĠC raig
Ġcommission ed
ys ics
isecond s
Ġfor um
Ġbl ame
Mod ified
osp here
Ex press
Ã «
Ġcampaign s
Ġe cosystem
block s
Sup press
or ious
sign al
ĠUn like
ĠH ind
ĠPh arm
ĠQu est
ADD ING
f older
ver ted
um per
Ġestabl ishing
ĠArm en
ĠT ogether
red irect
met rics
K ing
sl ider
ver sy
con cat
Ġaltern ate
Ġtrigger ed
ĠH aving
ann es
ĠPh one
Ġiter ator
decl are
Ġob sc
Ġpre val
Ġhard ly
Ġprotocol s
] ).
Work er
Ġroll ing
H istor
k u
ĠS oc
ĠB uy
ĠC ultural
respect ively
res olved
Ġtang ent
Ġin struct
ĠJ azz
Ġcan n
ĠSt yle
Ġpe ers
op ath
ĠA x
Ġg ard
16 9
Ġconsist ed
Ġhuman ity
ĠT ak
im o
ĠRep ly
im ony
ĠSp ot
Ġqu oted
ĠS ony
b idden
ĠA rena
ĠR io
Ġemphas is
Ġbelief s
ri en
Ġsubstant ially
it err
CE SS
Ġtravel ing
m other
) ~\
__ ,
Î »
Ġinitial ized
veill ance
Ø ³
B ACK
Ġcomput ations
ro us
ac re
Tool s
Ġsevent h
s it
prec ision
ĠS K
)\ ,\
Ġ\ #
Ġpro tests
Br idge
Dis k
bor ne
ĠĠĠĠĠĠĠĠĠĠĠĠĠĠĠĠĠĠĠĠĠĠĠĠĠĠĠĠĠĠĠĠ ĠĠĠĠĠĠ
g tr
h p
Ġcelebr ation
ĠM ak
Ġter rible
Ġst ub
ĠP ackage
O s
Ġhist ogram
Ġposs ession
m icro
Con clusion
P eter
ĠÐ ¸
ĠP ick
og ue
s ure
ĠCon nection
Ġpat ent
ĠC atalog
st ri
ĠM ack
Ġpower ed
RE L
P riority
Ġab ilities
Ġinvestig ations
ĠP i
ĠH at
BO OL
Ġman ually
f uture
Ġf ool
Ġgr an
Ġprogress ive
Code c
we ather
ordin ates
ph abet
cell color
U A
ij k
ĠRem arks
Ġsear ches
ĠU pon
pre pare
Ġmodel ed
Ġp reference
ĠEd ge
if le
Ġab road
ĠT yp
tim eline
Ġco homology
O FF
ĠCre ative
c as
ĠRun time
bur st
ĠPortug uese
ĠSh ah
on ing
Ġn m
Ġm i
db c
M ot
R ay
CR IPT
Ġf illing
ĠN ep
ĠU P
Fig ures
Ġadv is
E ducation
C annot
ĠCh rome
15 5
ĠCol lect
S un
i u
NE W
ik o
se ed
Off icial
Ph ot
Ġscre ens
Ġep id
Ġc url
Ġi OS
p n
P ixel
W alk
Ġpain ted
St ub
Ġinter faces
ĠHash Map
Capt ure
Ġrem arks
CD ATA
s ources
to o
Con vert
cur ve
Ġobserv ables
ad ows
16 5
Olymp ic
ra h
ĠH R
Ġinv ariance
col og
Met ric
Rich ard
ĠK rist
ĠCl ose
ch unk
ĠP T
Ġj ail
Ġvari eties
ĠLe ave
A wards
ĠA verage
Ġsimpl er
S ound
ĠA str
P ane
ĠF riends
ĠL uke
18 90
Ġneur ons
ĠB irmingham
Ġinv ari
Ġbreak fast
M ut
ent ric
Ġt orn
Ġbon us
ĠC le
Ġillustr ates
inc ipal
L iteral
ĠR u
Ġchem istry
Ġs ail
contin ue
C ountry
I EEE
P ADDING
__ ["
IT LE
Ġcontrad ict
ĠOr ange
cess ion
pan ic
Sche me
Ġswim ming
ĠT oy
ĠBrazil ian
ars ity
Ġlux ury
Ġtro ubl
Ġdepart ure
t ile
ĠB rew
ĠEx pression
$ ^\
ĠJust in
g mail
Ġt weet
AR G
Ð¾ ÑĢ
og s
f ers
pi res
ĠGr id
Ġbehavi ors
f loor
[ [
s al
Ġplan es
Ġattract ed
code c
m art
Pl us
rot ate
Del ay
Ch ina
Ð ±
Ġimm un
An not
Com ponents
ĠM ail
Ġscr atch
K L
ĠTechn ical
f ollow
Ġover head
ĠVi enna
Ġmotiv ation
Ġconv ey
ĠB ORDER
Ġinstrument al
m akers
Ġun w
ĠGr ace
ĠMe V
veloc ity
Ġacqu ire
Ġdispl acement
ĠS even
Ġr aid
Ġar ithmetic
Ġen velope
ĠN A
Ġpo ison
ĠF R
Ġc ous
ĠM aj
g p
}$ ;
ĠY u
sp ired
Ġoccur ring
2 60
ĠN am
Ġre tained
ed ges
ĠDe cl
13 3
EN CE
R ound
prot ect
L ite
ĠH ockey
ĠMont real
Ġs hed
Ġinflu ences
Ġthir ty
U AL
Ġ' #
Ġin ev
ĠM ut
av ia
do es
Ġunder ground
Ġcompet itions
ĠMin or
ĠWIT HOUT
15 00
Ġb ubble
omin ations
ĠE mail
set Text
script ions
ĠP or
Ġca usal
Ġident ities
con j
CO M
ĠK an
ĠSy rian
l c
S ets
F ar
Ġin ches
set length
L ines
20 23
h um
Ġview ers
ĠF el
Ġ\\ [
S ent
ĠU g
ĠIn novation
est imate
ĠR A
ĠR aw
ad apt
13 7
Ġaccount ing
Ġsub stance
ge ometry
SO URCE
it ime
local host
Ġp ill
Ġfail ing
Ġsee ks
Def ine
EX PORT
ĠL ost
ri b
ĠFil ter
part ition
For ward
ug u
enn ial
Ġc rown
Ġout door
Ġsub tle
14 3
Ġt une
Ġenc ryption
en ario
ĠC emetery
14 6
Ġrecip ient
Ġevery body
> {
Ġk w
Sl ice
Ġdi et
Ġspeak s
Tr ump
op ens
Ġselect ing
Ġle an
ST ART
J ul
m illion
Ġeng aging
ot ton
O cc
Ġr iding
ĠBen jamin
w ik
.. ...
ĠP aram
ĠW a
dl ib
in itions
Ġs ugar
ĠMadr id
Ġle ak
R oman
ett i
ĠK u
Ġim pe
f aster
Ġcon fer
ĠB illy
ack er
Ġintr ig
Ġhit ting
ĠParliament ary
ĠLink ed
ĠA G
ĠB esides
in ject
> .</
ĠA my
Ġreserv oir
Ġt s
Ġforest s
ĠBO OST
ĠJ oy
Ġ' -
Ġse eds
yst yle
Ġactiv ists
h base
Ġexam ination
] ['
ĠP ain
it ary
m acro
Î ·
Ġf oss
á »
Ġ æ
Ġres ist
display math
constr aint
or ate
Ġhar vest
ĠH orn
Ġburn ing
ĠI o
ĠLabor atory
ĠC lean
ĠPro blem
Ġd rew
ĠSe an
ĠFant asy
Ġpro s
ern ate
acef ul
Ġp ipe
View Controller
T ip
Sub ject
Ġmanifold s
Ġsup pressed
Ġg amma
process or
ubern etes
M ail
h w
ĠFall s
ĠDak ota
h aw
Ġeval uating
19 05
ph ysical
is i
el ing
D ITION
}$ $
Ġsh ield
ĠIllegal ArgumentException
Ġl ip
ĠB ird
Ġb io
ĠK irk
] ),
ĠE state
Ġcycl ic
ĠKen ya
ĠS EC
ĠK l
b ast
ĠP UBLIC
not ification
V ote
: &
Ġm as
ĠN an
OR S
Ġgr ants
Ġd ub
Ġenter prise
Mat cher
ĠC atal
ugg ed
Fr ank
}{ $
AR RAY
Ġa qu
Ġdist ant
Ġpred omin
ul ators
ĠBern ard
ĠL ot
Ġp and
Ġhospit als
ĠV I
th in
he astern
ĠR ules
ors ion
L ab
C AP
l it
uff ix
Ġveter an
bottom rule
Ġferm ions
May be
ĠA ld
Ġconnect ivity
Ġd ots
fr action
des cribe
d ue
EN ABLE
Ġsubs cri
ur ring
Ġcom ed
Ġoscill ations
Ġs id
Ġhel per
ĠH im
2 11
Trans fer
ĠRob in
M IT
Ġmanufact urers
ab is
v n
all ing
con c
] <
Ġinitial ization
under brace
ĠFl ight
pot ential
cons ider
Â ·
ĠA y
ĠBre xit
Ġa uction
sh ots
Ġtw in
ĠP P
ĠL ad
Ġph ones
Ġabs ent
t bl
WA RE
Ġmus cle
Ġh ur
Ġann ih
ĠC elebr
B road
] _
Ġpri est
: -
}} }{\
e clipse
Ġent ers
Ġback ward
big oplus
ig ion
ĠC ars
ĠO UT
Ġingred ients
Ġwides pread
Cl os
C UR
Ġpain ter
ĠE li
C ategories
it ual
T L
Key word
Ġball s
ĠT ABLE
B orn
H ard
Ġcl ause
Ġcr icket
el o
E LEMENT
dem o
ur istic
ch t
ener ate
c amp
ĠB row
N ON
Ġch ip
Ġtor us
Ġincred ibly
z h
Ġ( #
Ġdec ides
ĠBroad way
ĠGr an
erm ined
N ever
ĠC ould
T i
ĠC ut
Ġsymmet ries
riev ed
ord ination
z oom
Ch apter
pack et
d td
vis it
ĠN HS
Ġprepar ing
Ġobserv ing
Rel ative
ĠN N
Ġsing ers
Trans ition
ĠF ed
ĠF riend
ack ets
ĠH em
P REF
Ġreconstruct ed
ĠS ent
man ifest
W W
ĠJer usalem
00 3
Ġin vert
15 2
C over
depend encies
ĠArch itecture
oc ese
Ġnot ably
In jection
Ġrock s
Ġvent ure
ĠP D
fil ters
ĠIm perial
T ry
ĠO d
ĠCon sole
draw able
ĠM uch
Ġinteg rate
run ner
="@ +
Ġco aching
H I
hib ition
Z oom
ĠBr anch
Ġcast le
Ġcancell ed
K ernel
ĠStan ley
E ast
V IEW
ĠBang ladesh
om ing
Ġqu bit
ap ps
the ad
separ ator
Ġch ampions
ç »
Ġsc rap
SPAC ING
Ġbound ing
he ld
oc o
Ġtrans mitted
Ġform ats
CRE ATE
Ġro uter
Ġprom ised
ĠDis c
am ilies
Th m
Ġstructure d
Ġatt ach
Has Been
Ġtrail er
loc ale
ĠInter view
leg end
0 10
Ġun ve
ĠWel sh
ĠF ALSE
' ,\
F s
Ġelect romagnetic
Ġcomp ounds
Ġcon gress
> ../
us k
ĠM ans
ĠY ank
Ġtour ism
subs cribe
Ġrid ic
comp ass
cal c
LA B
ĠCo al
bound ary
Ġl ady
ĠB AS
Ġdeg rad
iterr anean
ĠK il
ĠMov ement
Ġ[ #
Dis c
Ġf atal
ĠK ids
O W
Ġdescript ions
Ġan onymous
ĠCar ibbean
ĠArk ansas
ĠK on
ĠBo eing
Ġdecl aration
unit Pattern
> `
ĠW E
Ġmedal ists
Ġm ood
Ġdist inction
S us
ĠLa ura
v ectors
Ġatt ending
xim ity
Ġfl ower
Tr igger
L ondon
Ġcompl aint
Ġnob ody
b age
ĠC ategory
m ind
IN VALID
AB ILITY
duc ing
}}\ ,
Ġte eth
value Of
C SS
Ġen orm
Ġhun ting
C ertificate
Ġconf used
Ġagric ulture
Ġdig it
bibli ograph
ĠCre ated
ag i
b ia
big skip
co ordinate
D a
') ->
rows ers
ĠMur phy
Ġadvert is
L ove
Ġa ired
Ġcom ics
oot er
+ |
Ġbut ter
th y
Read y
ern els
Im ages
Ġt ape
ces ter
Mod ifier
Ġin cent
Ġ" ;
Menu Item
( `
C ert
Ġhand ed
Ġstr iking
Ġfilter ed
Ġwarr ant
p ublished
Ġbut tons
ĠA aron
ĠA the
Ġex clude
Enumer able
ĠC ensus
ad itional
ĠV eter
Ġtim er
ĠSub s
iz ar
Ġsynd rome
Ġc ul
ĠArt ist
ĠResp ond
Int ent
ĠR ing
bibliograph ystyle
pl ant
ĠM R
Ġarch ae
c ategories
ĠV ent
Ġh ub
TE S
) ?
big gl
D one
ay ing
Ġpar ity
s creens
Dis tribution
Ġim pression
STR U
N orm
Ġl ap
end point
ĠW or
Ġext ensively
}] $
Ġdiscre p
ig roup
di agram
U ES
Ex it
cs v
Ġv anish
Ġst adium
ĠCommission er
13 8
Look up
ĉĉ Ġ
B er
Ä «
ĠWH ERE
ag in
Ġadjust ed
Ġcoast al
Ġw elfare
Ġactiv ist
20 2
Ġdecl ined
Ġrend ering
Ġmount ed
Ġgraph ic
Ġmetall icity
power ed
is ible
Ġstreng then
Ġen abling
19 09
Ġop ponent
Ġrig id
section s
Ġachiev ing
Ġcult ures
s chool
Ġdet ectors
ĠCal cul
Ġengine ers
Ġmind s
ĠDen ver
I p
ur st
ĠAv ailable
ĠOl iver
" ?>
iv ated
xi ety
F W
Ġfilter ing
ow ell
Ġbright ness
Ġph osph
19 06
ĠIran ian
Ġatmosp heric
30 1
Ġbond s
Ġb orders
st ellar
ĠL arry
Ġmiss ions
or acle
As sembly
ĠCon tract
19 04
ĠL icensed
Ġcorrect ed
C NN
String Builder
Ġhistor ian
ĠC ox
'' '
Ġper ception
plement ed
] *
RE QUEST
Di agnostics
14 8
Ġvess els
W at
Ġgot o
io let
Ġep ic
ĠSpr ings
tra its
ĠNev ada
Ġass ass
Q UI
M esh
ĠR ud
Su ite
Ġexponential ly
ĠComple x
C trl
Ġequ ity
m aker
Ġport s
ĠC old
Ã© n
ĠF ab
Add itional
Ġconj unction
Ġtr aces
N U
; %
Ġ$ -\
Ġl iv
Ġprov isions
Ġmod elling
ĠTurn er
div ision
Ġcond em
Ä ĥ
ĠBar celona
ĠAgain st
ĠC rit
Ġel iminated
ĠEth iop
ee k
as ia
. ).
Test ing
{ +
Ġfall en
Ġdoll ar
mark et
ac co
Ġcr ick
Des cribe
Ġm ice
Ġsh ops
ew ay
center line
Ġl ic
B ucket
ag h
Ġseem ingly
mut ex
ĠW ire
è ¡
end um
Ġsum s
Pop up
Ġno isy
å Ľ
ĠStat istics
ical s
Ġal arm
19 07
Ġre cre
}} ^{(
Ġcont rolling
ĠO tt
renew command
Ġf ert
CH AR
Ġutil ize
AN N
Ġsaf ely
ethe less
Ġhost ing
ĠK IND
Ġlo ose
Ġhabit at
Ġc inema
Ġpl acement
Ġparamet riz
Ġexplo it
A ud
m usic
ak u
Ġn s
}] \
ĠSh a
ĠHawai i
Ġmod uli
Ġbuild s
Ġmob ility
Ġbr ut
al one
Ġde cent
Ġautom ated
qu ake
Ġprem ium
B ay
j ournal
Ġexist ed
!! !!
ĠCELL PADDING
br acket
ĠCELL SPACING
pay load
ĠTR UE
ock ets
quant um
Ġ" _
ĠChe l
Ġpro c
ĠGi ants
eg e
B re
act ers
Ġrepl ied
ĠG olf
item pty
Ġoptim ize
Ġevery day
Ġconsider ably
Ġwood en
row Color
Ġd ated
ĠEx amples
it ious
Ġwild life
Ġ< ?
HasBeen Set
or bit
ĠU TC
mod ified
Ġgr ateful
ĠDev ice
B ill
om itempty
IC K
in ced
J s
Ġrel ativistic
^ +\
ĠAr n
J ournal
A mazon
ĠT ib
ĠP rior
Ġprefer ences
ĠNav al
ĠP rix
conv ex
necess ary
Ġ um
Ġl iber
Ġwe aker
Ġcard inal
ĠDate Time
ĠSt orage
Ġpair ing
ĠC V
Ġcurrent s
Ġ Ä
tr ait
x e
Ġaver aging
Ġsingular ity
E mit
x ym
ar an
ĠV oice
Comp are
it atively
ĠF actory
ĠJohn ny
he ne
Ġblock ed
Tem p
ĠInitial ize
big gr
b ird
Ġsk ew
H a
Ġrobust ness
Ġl ucky
ĠR acing
Ġhar ass
ut ers
. ")
Ġfil mm
ÑĢ Ðµ
Ġ( `
Ġradi i
scal ar
erm ine
nos cript
R o
Ġvis itor
c in
ĠUkr ainian
Ġin sect
Ġsign atures
Ġext inction
ess a
Ġrest art
Ġoccurre nce
m und
S ig
ĠW orth
Ġgr adients
Ġ ions
3 30
friend ly
ash a
Ġ$ ('#
Ġdo i
Ġpo ems
ĠDr ug
ĠCO VID
eq q
Ġconsider ations
ich i
) /\
ĠU lt
ĠÃ ī
Con v
ec ycle
Ġimportant ly
ĠGl asgow
ĠMe eting
l ies
Ġharm ony
Al tern
Ġpack ed
Ġsusp ension
p agination
ĠHam pshire
s olution
\\ [
Ġen zym
ĠCh ampion
em in
Ġem it
ĠJenn ifer
ĠW ikipedia
For ce
Ġsu ck
Separ ator
3 75
am y
Art icle
ĠFac ulty
ul sion
Ġcap ac
Ġcommut ative
ĠLiter ature
Ġgeodes ic
et ta
id y
ĠT ol
pect ives
ass y
W elcome
le ad
ĠB enn
Ġgold en
ĠN BC
inter pret
Ag ain
ĠC BS
sche me
F ast
dr ag
Ġm im
i ov
n ut
St e
cons ist
ph oto
lef trightarrow
Ġc ry
E lect
ĠB io
gtr sim
), (
m ak
ĠBe ijing
ĠNe uro
Ġred und
Fore ign
Ġt ons
Ġcontact s
com parison
Ġda ughters
ĠB aby
Pr imitive
ad j
Ġop ponents
r ically
R ail
Ġh ung
Ġaud iences
ĠW R
ĠIn surance
ĠJ a
Ġim pose
Ð¸ ÑĤ
d ocker
eng u
W C
Ġdefault s
Ġre write
ĠF E
Th omas
Ġpy thon
R ank
v ation
ad just
ĠA w
Ġincor porate
ĠAr c
M el
Ġb ra
Ġmyst erious
S rc
cel and
s il
pack ages
ĠStr ateg
Ġshall ow
Ġhero es
Ġcollect ing
ĠMe chan
ĠE rr
}) }\
Ġtw isted
Europe an
ex isting
ĠMov ies
Ġlisten ers
Cal endar
ia z
Ġhand les
Ġbroad er
Ġinvestig ating
Ġexplos ion
v ance
Ġn ights
20 8
ĠT oken
st roke
Ġob ey
Ac adem
ĠKar l
ĠTe acher
ĠInd ians
L ie
AR GET
] ->
W ORK
Ġdo zen
Ġship ping
ĠCamp us
fav icon
Ġf ate
get Attribute
Ġdis patch
ac a
ol s
ĠB right
Ġar rows
ĠHung ary
Ġpro jections
akes pe
Ġhom omorphism
ĠS ad
N or
Scal ar
ĠCol lections
RE NT
Fix ture
Ġz ip
Ġf iring
18 00
33 3
Mult iple
ins ula
ipp et
ĠF itz
ov ich
r k
Ġg aps
Ġdiscuss ing
duc ational
Ġemot ions
Ġstart up
Sur face
uet ooth
ĠB ud
Pay ment
Ġtum or
FA IL
ĠL ion
Ġsp ins
cho ice
Ġdual ity
ro v
/ #
Ġfoot age
Ġok ay
ĠSquad ron
- ">
ĠG C
Ġg ross
14 9
ĠC oul
end ors
ĠW onder
Ġinflu ential
o ons
Ġco res
Rep ly
Ġgot ten
ik er
sc ene
Ã¨ re
Ġb eneath
ĠE SP
Ġcr ack
Ġinsert ed
Ġd ash
B log
ĠKe ith
e enth
ĠV a
Ġicon ic
Ġde emed
] ^{\
az ure
in ar
Ġreal ization
O H
Ġneg lect
per formance
ex tr
cor r
s elling
ĠCom edy
Ġd ump
Ġregular ity
Pro b
ĠS ET
Is ra
abil istic
ĠC u
Ġ* ,
ĠC I
if ice
ier ra
ĠCons ervative
ĠCo hen
S in
ĠS SL
Ex amples
âĢĿ )
Ġarrang ements
J im
Ġtal ented
f iction
ĠL arge
ĠMan hattan
sh ops
Ġansw ered
Ġvirt ually
Ġgenu ine
h skip
p ipeline
P ipeline
cos ity
ĠTer ry
Ġcompat ibility
ar ms
cast ing
]( #
d w
S afe
... ]
g overnor
cc entric
ĠL ux
Ġw ings
form ula
b ucket
l ic
od b
Ġang ry
ĠM erc
ĠQue bec
ĠP HP
M ir
Can vas
ar us
ht b
Ġlimit ation
ierarch y
Ġscient ist
Ġlov ely
Ġf oo
ib ling
Ġnot ify
i ator
Ġn ose
ĠForm at
Constr aints
ĠP le
l brace
ĠG host
m os
ĠC ome
18 80
Ġking dom
algorithm ic
ĠChar lotte
Ġpro l
ĠK ay
Ġz ones
M N
Ġsm oke
Ġan ger
L IB
}; \
L ou
ĠÐ ¾
ĠHill ary
13 9
Ġj ury
ĠIndust rial
Ġven ues
Ġfrag ments
pend icular
Ġevolution ary
Te ch
Ġ" )
Ġg onna
ĠF ollow
U ntil
W ARN
Stat istics
Ġflex ibility
Ġneighbour hood
ynchron ous
com ments
Un iform
ix on
20 5
xym atrix
p ixel
Ġle x
Ġ} ).
over e
il ia
ĠL HC
ace ut
ĠV ert
po i
sc ience
Ar r
post s
Ġcompar isons
Sche dule
E mb
iv ic
Ġdem ol
ĠB A
Ġ\ :
pop up
Ġp ounds
J P
Ġ\, .
Ġr ivers
Ġch ances
Ġneighbor ing
ĠA WS
Ġre n
Ġpick s
akespe are
c ookie
Russ ian
ĠPro of
ĠG ay
ĠAl ong
Form atter
ĠB OTTOM
ĠB apt
L ev
a verage
ist le
Ġmid field
ĠCam eron
ĠNS String
per m
Ġs ink
ĠB L
Ġr ally
UT C
Ġrob ots
T X
tab les
Ġtag ged
19 01
at ype
it on
pred ict
Ġdro ve
ĠDis play
Ġfre ely
Ġde prec
cer pt
ĠMount ains
Ġalleg ations
pos able
Ġcalcul ating
FLA G
Ġper pet
H en
id ency
ĠR ole
ĠChar acter
pe er
Ġp arks
ĠW es
stat ement
Ġro uting
t ick
Ġaccess ed
Ġt ap
Ġf ingers
V ill
com press
Ge ography
Ġiniti ated
ow der
Ġdis pute
ĠUs ers
ĠAlf red
T s
Ġ} .
ĠDe bug
^{ *}
neut ral
pg f
Ġ/ ></
Ġprom ises
[ ->
... "
Wh ich
Oper ations
ĠD anish
Ġsimpl ify
H aving
Ġsimpl est
Ġd ying
}$ ),
Ġscript s
im er
}} ^\
Ġab b
=- =-
H o
Ġ( {
Ġsuggest ions
ros so
e lection
20 4
Ġcomplet ing
Ġgrad ed
ĠMP s
compat ible
os hi
Ġ" #
in ely
str uctions
ĠN ormal
pre view
Ġ/ ><
RO OT
Ġimm une
C lean
Ġent ert
ing ing
ĠD S
Ġtr ig
arg v
Ġcoinc ides
row ing
Ġt ick
ĠP el
Ġsh rink
+ "
sat isf
Ġcor por
Ġlook up
mid t
ĠMor ning
ĠGal actic
ĠMad ison
Track er
15 6
IN IT
com position
ĠR eyn
ocol ate
Ġintegr ating
ow ing
Ġ[ âĢ¦]
ĠHor se
Ġdwar f
b ay
ĠMin i
cp u
list ing
hol m
Ġtr apped
Ġsound track
Ġ\| _{
**************************************************************** ********
ĠF IG
over lay
En tries
Ġutil ized
Ġappro ached
ĠCost a
Ġpart itions
gu ard
ĠCarl os
Ġsub stitute
Ġrest oration
r age
Ġwork shop
air y
On line
war z
Ġsk etch
ĠN ord
Ġprom ot
un ate
mar shall
Ġm ature
c ategor
Ġsophistic ated
Ġint elligent
atter ing
n atural
F ill
Ph ase
ud o
Ġk iller
uct ive
v d
pos er
Ġcharacter ize
ĠScient ific
ot ypes
B ibliography
ĠP ri
Pop ulated
Ġlong itudinal
ĠMed ic
Work s
Ġprison ers
$ ^{\
Ġextra ordinary
amp a
Ġl obby
Ġcol ored
Ġthrow ing
ĠC itiz
ĠMod els
ref lect
gl s
Ġper ceived
Ġdiff ers
ĠP in
d evelop
ĠB eyond
20 3
em e
erm ark
l ap
ĠR ugby
ĠD ig
Act ual
Ġr ated
ĠAdd itional
U int
22 4
Ġo c
Ġrot ating
Ġafter wards
ĠO scar
ĠM ol
Ġfollow ers
Ġcolon ial
ĠM ade
ä¸ Ń
ĠProt ocol
f ef
um m
Âł Âł
Ġhe m
Ġsub graph
Ġfast est
B a
ob a
Ġreal m
Ġspeed s
Ġn ic
Ġagre ements
: %
Ġlearn s
Ġupd ating
Ġpl acing
r x
uk a
g ender
Ġnucle us
M iddle
Ġm os
Ġsh a
es cape
Block s
Ġel ite
et e
ĠPer ry
ĠV ision
Ġob l
E nergy
in ery
Ġbr ick
ĠCirc uit
Ġenthus i
educ ation
C hat
Ġex terior
Ġsat ur
ĠG rey
first row
Ġegg s
Ġdev ast
ĠStr ategy
s ymmetric
å ¯
^* (\
'' .
care t
ĠSc i
ĠS ale
Ġconv inced
con figure
ĠN ad
Lin q
Ġb undles
ol ia
ĠL ith
Ġob s
Ġsubs idi
ĠGuard ian
as ive
Ġtele phone
Ġ ../
Ġred sh
Ġqu bits
d iction
mult iple
Ġf o
Ġe mails
osp el
MA GE
Top ic
ĠSh aw
ĠD rama
et on
; -
initial ize
Ġdip ole
Pe er
ĠVal ues
hell o
Att empt
m agn
ĠV enezuel
Ġpre vention
Ġarchitect ures
ĠT X
establ ished
ĠHar vey
Ġhel ic
ĠD iamond
ct rl
Ġprint ing
ĠA f
am med
Ġl on
H ouse
ĠFil ms
Ġp c
dis patch
ĠHig her
ond e
all s
H i
ME M
ĠWat son
ent o
ĠTr ain
IT H
Ġfasc inating
Ġbatt les
[ {\
Ġins pection
ĠCon struct
Al bum
Ġjo ins
ok ia
Ġ. =
ĠCl ay
Ġsym plectic
n ail
ari ans
Ġcut off
File Path
ĠRel ations
Ġ// -->
Ġst unning
Ġnewsp apers
ĠE R
Ġtoler ance
ĠC ov
Sports people
B uf
Ġcomment ed
por ated
P K
Ġdis ks
) },\
\ ":
Ġm amm
ham mad
av an
N ONE
ens ely
go al
Ġer g
pert urb
ĠN ut
Ġmeas urable
att ach
A h
w right
Ġcell ular
cor relation
Ġdocument ed
G al
an Ã§
u cc
us hes
qu o
Ġharm on
ĠLead ership
Ġarr ives
Ġlif estyle
Ġaffect ing
back end
Ġexpl aining
ĠĠĠĠĠĠĠĠĠĠĠĠĠĠĠĠĠĠĠĠĠĠĠĠĠĠĠĠĠĠĠĠ ĠĠĠĠĠĠĠĠ
Mark er
Ġconnect s
g ement
Ġm arch
ĠSol utions
Ġag gressive
d elegate
iz za
r n
ĠS NR
Ġsur f
ps y
22 2
ĠT D
Ġepoch s
Tele vision
ĠVin cent
B G
Per cent
ĠRequ ired
ĠD epend
ĠM om
Ġref resh
ĠG ET
Ġsp ir
Sm ith
Ġcitiz en
Ġin ert
Ġflux es
Rec ent
cam era
ĠSw ift
Ġrec ycl
im on
}} )\
L ittle
ION S
ĠGre ater
ĠClin ical
ĠP ref
F ootball
M ad
ind a
ĠElement ary
Ġapproxim ations
Ġwid get
==== =
tr ation
Ġeconom ics
ĠK os
ĠJer ry
c ill
ai ro
Ġr ab
est on
dim ension
ĠMet ropolitan
z ens
P ending
Ġcon gr
ĠN intendo
H F
Ġconvers ations
Ġconjug ate
ast ing
ĠIn fo
Ġtem plates
Ġreli ability
abul ary
Ġc ust
19 03
14 1
ĠA V
Ġhomot opy
A ff
Ġthe sis
30 4
SU CCESS
col head
Ġhol omorphic
L ater
es c
Ġconflict s
ĠR M
Ġinhabit ants
ud ge
Ġb ol
r in
ĠImp act
Ġhold er
d al
L ee
Ġw ounded
D ao
p oll
ĠU nd
Î ¼
br aska
ĠExper ience
w oman
| }{\
Back up
Ã ½
reed y
S hip
ĠS oph
un ting
log ical
Ġann ually
ĠâĢ Ŀ
Ġjud gment
ĠCustom er
amb ers
NG TH
ĠV A
M ur
en ch
Ali as
faster xml
ĠAb u
Ġt ent
Ġrot ational
Re act
ster dam
16 6
Ref lection
Ġsuperv ised
Data Source
H uman
Ġam id
Ġdeput y
ell ers
Ġpre st
}}{ (
Ġsem antics
ym ph
Ġpoor ly
b ie
ĠL ate
ĠF ont
erial ize
ĠBet ter
ĠR ender
iz a
Ġval ued
Ġrecommend ation
ĠDr ag
W ater
land o
ĠQ uality
Fr ont
G ateway
p od
ĠEx cell
Ġdefin ite
ĠHarr ison
Ġinfer red
Ġsp ont
ĠBill board
>: ]<
Ġth rew
ĠF ish
Ï ħ
Ġ )$
ĠZ hang
Ġstr at
Ġwant ing
Ġiniti atives
ĠK itt
the se
Ġpat ches
ĠComm ander
Ġspecial ist
Ļ Ĥ
B ob
}{ $\
Ġsil ence
Ġt uning
ĠB asketball
, }
Ġvari ational
sub string
av atar
; ,
w at
Requ ire
ast ed
Ġqual itative
Ġend if
Re place
Ġgather ing
Ġa fore
Ġenhance ment
Ġstep ped
ĠT on
R ad
Ġap par
Ch ris
ble ms
Ġdev iations
Ġdegener ate
is co
non atomic
M ilitary
Ġaccompl ished
Access or
ĠCom par
Ġpresent ing
+ $
urch ase
ĉĉĉĉĉĉĉĉ ĉĉĉĉ
fol k
Ġnom ination
Ġnucle i
erm ont
ach i
w al
ĠEm ploy
ĠC ant
at z
Ġcontext s
r brace
]{ ./
H int
15 7
Ġpsych ological
Ġin clusive
Ġdi agnostic
ÑĢ Ð°Ð
ĠAg ent
L u
Ġcapt ion
ĠOver all
ambig uation
ct ree
dir name
Ġt ours
Ġspec ifies
Ġcounter part
ĠPract ice
en ue
ĠI M
}, \\
Ġl as
Ġcapt ures
Ġinc idents
Ġadd itive
Ġa est
ĠJ oin
Ġt il
Ġal i
ĠL uther
al tern
ĠEm ily
ãĤ Ĵ
): =
SH A
ĠĠĠĠĠĠĠĠĠĠĠĠĠĠĠĠĠĠĠĠĠĠĠĠĠĠĠĠĠĠĠĠ ĠĠĠĠĠĠĠĠĠ
Ġhon ey
Ġn ons
* }\
R en
h it
Subs cription
Appe arance
Ġjust ify
vari ables
{ },
st orm
anc ies
hand ed
ĠTH IS
ĠN icol
ĠA irlines
Ġle ver
Ġactiv ated
Ġorig ins
Ġlaws uit
Ex tract
Ġpreced ing
Ġillust ration
Ġconvolution al
ĠJ oint
fl ows
rt l
& +
c ot
add y
it ol
Ġstrugg ling
ĠU SE
-------------------------------- ----------------
Ġsub mission
Ġcomb in
Ġcyl inder
Ġo mitted
Ġtarget ing
ĠWeek ly
Ġstreng ths
g c
uch i
g om
ce q
F ort
Ġwarn ed
ĠIn cre
Sim ilar
Ġadmin ister
correspond ing
ĠL ocation
w ire
inc or
pr ises
14 2
Ġrad ar
Ġcoal ition
" }
ĠTig ers
az el
qu is
art icles
conom ic
pl iance
mult ip
le af
). $$
Ġcharg ing
CO UNT
ĠEd wards
Ġpers istent
Ġc ave
00 4
ĠSh adow
ac iÃ³n
Ġb anned
ĠD rop
P a
S yn
Ġlogarith mic
Ġapproxim ated
Ġsh ore
ĠIn iti
Ġme al
" </
Ġident ifies
geq slant
e ur
Ġsynchron ized
ĠL ipschitz
Ġinf ected
ol ate
ĠRe ports
="# ">
ĠU E
Ġtreat ments
^ *}
resize box
Ġalleged ly
Ġw is
Sh adow
be it
Ġspecial ized
in herited
l ia
h ind
work er
c ock
Ġexec ut
Ġad equate
ĠPalest inian
ĠT aking
Ġr h
other apy
Ġbo ards
Ġunc lear
k now
ĠTh r
ĠNe il
s ens
Ġh yd
â ĪĴ
ogen ic
Per formance
: /
ack now
Ġad option
T ON
Ġb ab
Ġa xi
15 1
V T
Ġtrad itions
Ġprotect ing
Ġsec ured
ĠN ar
Ġfl ip
Ġcancell ation
ĠNorm an
Â «
ĠH indu
scale box
_{ (\
Ġwarm ing
ĠW ing
ĠS ometimes
Ġaddress ing
ĠSy mbol
Ġgovern ed
Oper and
Ġax es
Ġcoinc ide
n z
Ġmed ieval
19 02
T urn
T ensor
ĠF an
iffer ential
Ġmolec ule
Ġbe ating
ĠG ov
ĠBat man
Ġinv oked
Ġman ages
q a
ĠD elta
. &
{ |\
Ġmem orial
ĠEvery thing
ĠCam era
] }\
Ġr hythm
Ġpres erves
ag ation
der iv
Ġor al
Ġb ay
Ġoverl ook
() [
ĠD eg
" ])
Ġper f
Ġc f
d ump
Ġ! !
og raphics
hab ilit
ĠPh ase
d eveloper
av g
Ġcount ies
F re
min imum
Ġcompr ises
Ġt f
Ġun changed
Opt im
å ¼
? </
^{ {\
à¥ į
Bet ween
bour g
O G
ĠF if
ING S
ĠStr uct
_{ |
member NameLink
ĠEm ma
sl ot
Ġs el
or ters
ĠMas ters
C y
Ġf ires
Ġb rowsers
ĠSp ac
Ġachiev ement
Ø ¨
Ġsim ulate
ĠC arm
Ġcomb ines
pl iers
Ġsurn ame
look up
ĠUS B
Ġquarter back
- $\
Â ½
Ġcre ator
23 5
Ġinvest ments
Back end
Ġretriev ed
Ġd w
ess el
ĠTransport ation
ort on
Ġrev ised
x sd
Ġsummar ize
Ġm a
All ow
s outh
Ġcol ours
Ġdraw s
ĠD ifferent
ĠP anel
Ġdis orders
end region
ĠMed iterranean
Ġcal m
Book s
ent ries
Ġpoll ution
ĠMO RE
ĠD raft
Ġsold ier
U UID
! =
K im
im plementation
udd y
ĠN AT
but tons
Ġobtain s
ĠS Y
Ġhot els
Ð ³
ĠEgypt ian
ĠA ve
aw t
R oll
Ġbank ing
g ui
ĠInf antry
g iving
Ġas ymmetry
Ġfail ures
ĠCh art
ĠAlex and
ĠK id
attr s
ertific ates
Ġindu ce
ĠM ove
F un
sh ore
Ġasymptot ically
Ġmod ulation
}) :
ĠCr uz
ĠK ill
K n
Ġ" );
out ing
sche mas
moment um
ĠDemocr at
Comple ted
ĠG E
SER VER
ĠFil ip
Ġstay ing
æ ī
con sc
> ()</
Ġdiv isions
ĠVictor ian
Y eah
36 5
ĠAt tribute
eta iled
Ġassoci ations
"> &#
Schedul ed
Ġtransform s
Sever al
[] )
ĠMet al
Conf irm
Ġexp ense
Ġvolunte er
Dest roy
Class Name
ĠL ED
) ~
ari ous
Ġconcent rations
ĠString Builder
ĠCor p
C ookie
whe el
ĠE ve
second s
Ġt rem
Ex per
ĠLem mon
os opher
="# "
Us ed
Ġnegot iations
ĠPro b
TEXT URE
ju ana
Ġre ceptor
p riority
ĠB achelor
p q
Warn ings
Ġafore mentioned
Ġentreprene ur
ĠS amsung
ĠL ex
th reshold
ĠC apt
ĠC hern
Ġadj oint
Ġvort ex
2 12
sc apes
Ġpost ing
MS G
ol ine
and ed
Ġthere in
ĠLear n
Ġmulti plicity
Ġbackground s
Ñ Ī
Ġr hs
S to
q ed
ĠDe al
Direct or
ĠTo o
ced es
Ġdeliver ing
am pton
ĠEnter prise
Ġcontro versy
Lower Case
ĠT ed
ĠC e
orient ation
W il
text ure
Ġspons ored
colon eqq
is ch
pl ots
Ġloc omot
represent ation
raise box
ĠFram ework
Ġa ster
Ġmulti plic
) '
C op
_ [
ĠS id
ic z
ĠTre as
Ġro ster
Ġaccompl ish
Ġd ivers
st ead
}$ :
Valid ate
ancell ationToken
Ġpl ates
ĠRog ers
] \\
ĠCart esian
af ka
Ġimm igrants
ĠR ico
ĠE RR
ĠTh ink
Ġconcent rated
28 0
Ġcons olid
ĠF at
ph on
Ġscatter ed
ĠB orn
Ġh ab
Ġdis put
Ġorgan ised
ĠParamet er
ĠE S
Ġsub t
weight ed
Ġanom aly
Ġout lined
15 4
Ġprem iere
Ġcon spiracy
up les
an che
Ġsuff ix
am ine
class ical
Pro c
Ġpres erving
Ġj ournals
Ġco herence
om at
Ġconv icted
ĠSet ting
Ġwor ried
Ġjoint ly
Ġadv ances
Ġdef ending
act ing
Ġex pr
ĠWar ner
Ġcl s
ĠC ub
ĠJ ar
ular ity
ĠCon sumer
F acebook
ĠG arc
Ġmunicip al
R ock
short cut
l ag
f ive
Ġs ig
ent i
ĠM ET
sp ark
il o
ĠV ar
Ġvol can
Ġconstruct ing
y our
Ġpers u
Al ignment
Qu estion
B ot
W P
Second s
19 5
vis ual
Ġoccas ions
Ġn erv
Ġtrans ient
text style
15 9
mod ifier
H ig
ĠR ural
ĠAust rian
Load ed
Ñ İ
ĠSt evens
Ġpract ition
ĠY e
Ġspec im
ĠM T
Ġhon our
ĠN HL
Ġr ice
poly mer
M ike
ĠSong s
Ġdress ed
car bon
ER Y
ic ating
Ġw ishes
Ġdemand ing
Ġsuccess or
w l
Ġexp ans
Ġport al
UP DATE
us p
Ġbenef icial
Ġz eros
$ =
Ġconc aten
ĠStr ong
ĠTam il
ĠAgric ulture
Ġd Ã©
ĠDC HECK
WR ITE
âĶ Ģ
Ġsqu ared
Dep artment
Ġul tra
ĠW ould
Ġback ed
ĠSet tings
J ew
elastic search
ĠIn stit
Ġas h
ull ivan
ĠDef ence
Ġinvari ants
Ġrele vance
ĠMar x
Ġin set
ag ar
Ġr itual
um i
Ġfriend ship
p aces
ĠR C
Ġproceed s
Ġcon tributes
ber ger
ĠTe V
Ġcogn itive
ĠFe atures
Array s
P ref
à ´
ĠWe ather
Ġsl ower
' })
2 64
i q
ip es
ĠFl ash
Ġk nee
---- ---
int age
h ydro
append Child
17 6
Ġd ancing
ĠTE ST
Particip ant
15 8
fil er
Ġdesign ers
ĠFl ore
W D
Ġp ink
Act or
Ġfix ture
per mission
Serial ization
Ġqu art
IS H
id ually
An chor
Mill is
H ey
ĠP icture
ĠTr igger
Ġf ut
Ġsh ame
18 5
ĠB ath
ex ist
Ġcomp ile
Ġblock ing
FT WARE
ĠB eth
ak ov
ĠB ear
Ġt ear
Ġpr ayer
Ġdefect s
Ġev olve
Ġmort ality
Ġbe ams
Ġcal ibr
N OS
Ġst ret
ĠL en
Radi us
15 3
ĠR ey
Cred entials
Ġact ed
Ġunder go
it zer
Ġafford able
ĠClear ly
Stud ent
ĠN J
,- .
miss ing
Ġemploy er
^* ,
Ġisot ropic
ĠTr uth
Ġportr ait
å Į
Ġforgot ten
ph al
Ġpred ecess
ĠCons ervation
om o
b usiness
Japan ese
sw er
ond o
gener ation
Ġimplement ations
---- -
16 7
ĠF lo
Ġhum or
ĠCond ition
Ġp ad
Ġb ills
Ġst olen
Ġwith d
Mar shall
r ors
Ġoverse as
R atio
parent Node
Ġreg istry
ĠGl ass
Ġannot ations
Ġ[ {
Ġrep o
ĠNaz i
ĠAv iation
Ġs its
20 6
F B
Ġre dis
ad vant
Ġreg ret
* .
ĠS ustain
over flow
)$ }
ĠYork shire
Ġport ions
Ġtrib ute
Ġpra ised
NR AS
R NA
}) ^{\
R oom
amp ire
ĠFreder ick
ad os
i ab
Java Script
Ġem p
ĠA bs
Ġall ies
ĠAssoci ate
Ġan ime
Ġequival ently
Ġcol leges
Ġ. /
Pro du
Ġsh ar
Ġbo ats
Ġind igenous
Ġin complete
ele b
Comple tion
ĠTechn ologies
ap or
Path s
ring tone
ogn ition
ur ious
: **
Ġsynt hes
x ref
ĠCom merce
p referred
Ġartifact s
atern al
Ġh anging
Ġtr ump
Ap pro
æĸ ĩ
Ġmag ical
ĠProduct s
k le
Ġwhere in
it ian
Ġrel ay
Ġpick ing
Ġsup pression
sec ure
ĠCirc le
ĠR ivers
}} }}
ĠBr istol
ĠD oll
Ġb ipart
ĠH udson
Ð¾Ð ´
fef efe
)} =\
ĠE le
E u
oupl ed
enc ia
ĠRem ember
Dest ination
P adding
ĠC ob
H idden
Ġbar riers
Ġbur den
Ġout s
AS C
cam el
ĠR angers
az i
umin ate
ĠBit coin
ĠS occer
ou b
Ġmon ster
ĠB irth
Ġsc andal
Mod al
ĠTest s
Ġhyp ers
Ġscholar ship
D ark
R outer
Ġ( ,
ĠAz ure
Ġenorm ous
ĠY am
Ch unk
ĠDer by
G aussian
ĠAlber ta
; ]
ad apter
ĠStat ement
um ble
Ġgr ave
ĠS uz
IN DEX
ĠOak land
Ġdis pers
Ġcur ious
' =>
M ont
Cent ral
Ġmag azines
Ġpol es
Re ceive
h all
Ġind ent
Ġrel oc
ĠS ER
ch anging
ĠC atherine
W ild
ĠT ournament
Ġloc ality
ĠHel en
M ary
Ġ"- //
Ass ign
Ġterror ist
acknow led
ĠB urg
ĠChristian ity
__ .
ĠSh ip
> )</
Ġout break
ĠL loyd
Ġdead line
Ġpre view
ĠCh a
ME SS
Dat aset
ĠI celand
Ġle verage
ĠEl li
Ġsqu ee
Stack Trace
Ġdu o
Ġover s
inter action
Ġarbitr arily
IC S
Own Property
ordin ator
ĠInt el
ĠK ol
Let ter
Ġwh ites
Ġres igned
Ġpro ximity
Ġlegit imate
ĠH ob
Ġloc ale
Ġtrust ed
Ġsecre ts
Ġimpr ison
c ached
Ġattr action
ĠPier re
Ġcall er
ĠZ ero
ç ½
Ġw rest
ĠCont emporary
Ġper pendicular
OB JECT
Ġaccommod ate
ĠT un
In cre
N ING
ĠN L
Ġcont our
P ing
Ä Ł
Ġg lyph
Ġsh aped
Pro duction
J on
ĠV ik
}. $$
flu ence
Ġsus pected
Ġl iver
Ġinn ocent
Ġ )\
ĠP AR
Ġr ape
riter ion
Ġcompl aints
ĠN ancy
Ġmathemat ics
Ġtra its
ĠAl ban
ert on
4 80
N F
18 70
Ġg rip
Ġstr ikes
ut ton
Ġplan ar
Ġspread ing
us age
ĠG B
STRU CT
Ġ( ),
'] ))
f its
r ides
Ġbi ology
Ġwarn ings
oc co
Ġac res
v iol
ĠR oot
ä¸ Ģ
ĠQu arter
Ġaccording ly
Ġtri ps
~~ ~
ĠE ST
00 7
Ġ\\ \
Ġsust ained
H AND
ot he
Ġown s
elect ron
New ton
ĠCat hedral
D ash
Ġtri angles
Ġm ere
Ġh ire
hash Code
ĠBi ology
Beh av
ĠRest aur
r ates
in ite
}) }{
ĠEn try
Ġc s
to ctree
Function s
ĠCons erv
ĠAdvent ure
. ');
ĠÎ ¼
ĠTh an
Ġqu arks
ĠBerk eley
ĠPos ition
Check ed
Ġnom ine
ĠPro gress
ĠChar l
Ġrev ision
__ _
Ġwe igh
Ġw ars
Ġon click
int f
ĠLet ter
qu arter
ĠInter face
ĠR L
ĠG ene
ĠNichol as
ĠCon st
}) ^{-
Ġindic ation
ĠHall ow
M AC
Ġb atter
ĠH alf
ĠBe hav
Con clusions
Cl ub
ĠCon c
Ġ$\ |\
Prov ince
G raphics
u ator
Mean while
Ġbot tle
comp ose
Ġemphas ize
Dan iel
ĠD evelop
}} _\
Ġloc als
ĠQu estion
Ġconsequ ently
Ġper ipher
Ġcon ce
Ġarchitect ural
Ġt et
ag ain
Ġs isters
Ġb rew
ĠB arr
equ ilibrium
EN C
ĠPal m
le en
ĠPhys ical
Ġqual ify
ĠSh akespeare
Ġign or
S ar
em ption
ap prop
R GB
ĠD anny
Ġr ays
ĠK el
Ġap olog
r ans
ass o
ĠReyn olds
L F
conf irm
Ġsh oes
}{ !
h m
mb f
spec ified
P aint
e V
b ol
18 99
24 5
Ġaggreg ation
Ġcert ified
Ġto String
aj a
ĠCo ach
Ġmist akes
associ ated
- }
R IGHT
w y
18 8
DITION S
Ġsw ap
Ġrac ist
Ġcha os
Ġsingular ities
FORM AT
Record ed
am o
h int
First Name
}$ &
reg ex
Ġth umb
Ġdiscuss es
ĠComple te
Ġr m
g ie
ĠN ames
di agonal
ĠR ES
Ġe ccentric
Ġh orn
ab we
v et
Ġmaxim ize
G od
control s
Ġminim izing
Ġ ì
Ġpack ets
Ġcor rupt
TR A
final s
spec ies
ex tract
seud o
od ash
ĠPlan et
e igen
ew atch
mark er
Found ation
4 000
Ġsp iral
ĠK i
Ġ" +
CM D
th lete
re verse
Event Args
Ġdir ty
ul in
Status Code
ĠCall ed
Ġp unct
Ġworld s
ĠProgram me
l ists
ĠC ache
Ġa apt
Ġcyl ind
en es
ag ic
ĠCh and
ĠT u
ĠRail road
Ġd ining
Ġcumul ative
ĠW indow
ĠCom mercial
Ġradi ative
@{ }}
dat as
Ġclean ing
Ġcomment ary
N ER
Ġinn ings
Ġpregn ant
anc ers
INS ERT
Ġj oke
pr ising
Th ird
ĠCr iminal
t abl
ĠLi u
ĠI MP
te es
Ġconduct ing
$ }\
er gy
T LS
ĠE ight
Ġmin istry
ĠH unt
V s
ĠBuff alo
Ġdat etime
Ġpen et
Ġy eah
ĠWIT H
A UTH
c ue
g ro
Ġdat abases
Ġanten na
ong ue
ĠBatt alion
st ub
Ġpregn ancy
ĠRoman ia
Ġencour aging
Ġke V
18 98
Ġphot ometric
Me asure
Ġdis tribute
Ã© r
cont rolled
BUIL D
ĠLuc as
Ġv in
ĠD ennis
ific ant
by e
ag greg
Ġim pressed
Ġlegend ary
ĠR PC
Ġattr s
ym an
yst er
Ġto gg
Ġmand atory
) )$,
ĠA round
ĠNash ville
Request s
c atalog
Ġcompr ising
ĠM ann
ĠJer emy
Ġform ulated
Ã Ĺ
âĢ¦ âĢĿ
Ġexperiment ally
er ie
n r
ra ising
"> {
40 1
Ġcon form
Ġres ume
Ġgu ided
IF T
Ph aser
Ġpass phrase
Ġcop per
INST ANCE
ĠX box
ĠAnt ar
B on
Ġsav ings
ĠCon cert
Ġem itted
ĠCurrent ly
imb abwe
Ġgent le
D am
ext ype
Ġbranch ing
T ables
we i
work ing
Ġst iff
\ ).
ĠF P
Ġcour tesy
ĠV M
n orth
sw ap
Ġer up
}. $
n ick
Conn ector
Ġcon cludes
Ġdest ro
integ ration
Ġs word
Ġrail road
6 50
P icker
log y
ĠPlan ck
V ir
Ġsp at
d yn
ism atch
ĠFa ith
2 32
n om
18 97
ern ess
ÃŃ n
Ġe ject
ĠB our
ID ENT
W ang
r w
ĠP ent
em p
ĠW eyl
ĠMathemat ics
Ġh iding
path y
Ġsubstr ate
Ġreason ably
à¤ °
comp iled
W T
s ound
Ġret ro
ex press
In ject
v g
Ġreg imes
ĠSh ar
up iter
Ġnon trivial
G uid
Ġp ig
Icon Success
Ġcle ared
Ġnews letter
Ġquant ization
d og
m icrosoft
n pm
ri o
Ġmut ation
ie u
18 95
Ġset tle
} "/>
Ġaccept s
F ace
int ent
Ġbar rel
Ġan xiety
ĠSo on
ym p
ĠUp dated
Ġload s
Ġpres cription
Char les
Ġpost er
Str ip
Ġisol ation
b ai
v r
Ġch apters
Ġcreat ures
ĠSh ang
ĠIP v
om p
default s
contin uous
Ġf ighter
ĠAl t
Dis cussion
* (
B LOCK
P ars
Ġ} ),
Ġra ises
Se ason
ĠMil an
ĠLie utenant
Ġbacter ia
Ġb uck
ĠFig s
ĠAct or
ĠB rowser
Ġcomplet eness
Ġpredict ive
ĠTrans itional
ig ue
Ġneg lected
F ake
Ġescap ed
Ġox id
s chedul
37 0
FUN CTION
Ġsequ ential
ĠNetwork s
ĠÂ ±
Ġpe oples
Ġremember ed
Q R
ĠðŁ ĺ
ĠN ak
Ġen compass
ĠR isk
ĠG OP
Ġk ernels
Ġdepart ments
s an
Ġrec ru
Ġsur veillance
arr ass
Ġcompet itors
Ġbel t
Ġless on
Ġestim ating
Pay load
am ation
RO W
Ġad mission
Ġac ute
ĠW u
ĠG ive
PRO C
em ploy
ĠY uk
es ters
d g
Ġland ed
ĠMu hammad
Ġweak ness
ĠM otion
Ġenc rypted
ĠPhill ips
">( </
}\ |_{
Ġlog s
on ian
op edia
| {\
pro port
C ut
ĠVer ify
c odes
00 6
Ġqu otes
au kee
Ġdim in
I ENT
Ġb reat
Ġlif ted
pro per
Ġfarm ing
Ġcomm em
/ $
the ir
Ġart work
00 8
Ġaut onomous
ĠCh oice
Ġmod est
ĠR ou
Ġcam ps
hom ogeneous
Ġbug s
S heet
Ġir regular
v b
Ġcatalog ue
Ġpred icate
aged y
] }$
F G
oot ing
LE NGTH
ĠWell s
LO B
inc inn
ret ty
0 100
ĠP sy
Ġhom eless
ĠRich mond
Ġed itors
Ġdec oding
Ġche ese
HO ST
Ġfaith ful
Cal cul
ĠGP U
Ġrel ates
sh iv
ĠCour se
Ġch ron
2 16
Ã Ł
Ġoff line
J ose
sp i
18 60
ĠB B
Ġapproach ing
Ġsort s
Ġconstit ute
IconSuccess Encoded
fold ing
Last Name
Ðº Ð¸
des criptor
n od
Ġf ictional
Ġqu it
Ġl ingu
Ġfactor ization
ĠCr icket
ĠM N
Ġsp acing
), \\
st ad
Ġco arse
ffff ff
mem Item
Ġp s
Sub mit
ĠLegisl ative
pe ated
ĠSum mit
Ġsurv iving
Ġdecor ated
ĠAdd ed
Ġcounter parts
PA SS
as ide
Ġauthor ized
M NRAS
Custom er
Ġrelax ed
im an
ens on
Ġexp enses
A H
ĠK ap
Ġschedul ing
s ensitive
reg istry
ĠF u
ĠE E
Ġyour s
)} ]
Ġstrong est
C atalog
Ġgl obe
ĠC OP
d id
ĠF ashion
Ġy ard
ĠBrig ade
Ġthe at
ĠCON DITIONS
b ane
to LowerCase
V EL
M utable
s ender
umb ai
Ġthermod ynamic
Ġproceed ings
ĠS alt
Ġnorm s
-- \
ĠInvest ment
Not able
os er
Ġdesign ing
Ġsmart phone
ĠB omb
ĠCon v
ĠĠĠĠĠĠĠĠ čĊ
H ex
upload s
Comple x
ĠTre k
Ġburn ed
A ge
z ed
Ġc c
ĠL ov
Ġprogram mes
ins ky
var pi
Ġrecogn ised
)) =
ĠLib erty
Ġfeed ing
ĠFe ed
ĠResp ons
Ġdiv isor
ose x
Th an
ĠK in
ER N
Add ed
Ġfood s
Vis ibility
Ġanticip ated
Iss ue
K ar
k an
Ap ple
Ġeight h
ian ces
Ġodd s
Ġcontinu ation
ocr atic
Ġconscious ness
Ġen force
ĠG onz
' "
ĠThe ore
ĠN athan
math ord
ĠCond itions
Ġturbul ence
Ġann oy
to Equal
r ain
ĠT rophy
Ġev ac
oxy gen
Ġap pendix
ĠBer g
Ġs ubl
ĠLink s
ĠV ict
Enc oder
Az ure
Bl ob
AT URE
ish ops
ĠAm sterdam
~ {\
Ġpair wise
ĠPer iod
Ġpars ing
Ðº Ð°
Ġ' {
Ġdrop ping
ĠP oss
Are Equal
Ġwitness es
ĠM ario
Ġlat ency
ĠBAS IS
ĠSand ers
eth yl
ĠK er
Th ough
Ġextr apol
Ġenjoy ing
am ar
Ġk g
amb ling
DB LP
Ġconstit u
ĠGr ade
pot ent
Ġexceed s
Ġmaintain s
2 17
Ġoverwhel ming
ĠT odd
ĠHung arian
Ġrefuge es
incinn ati
ĠM enu
ĠH ook
Ġtr act
ĠM ick
Ġpass ive
Ġvis cosity
period ic
Mart in
Ġconc urrent
ĠL ik
(" -
ĠDes cribe
ĠS aints
bal ena
if rame
ĠS urg
Ġdon ated
Ġatt achment
font s
å į
Abs olute
Ġdram atically
L em
l ceil
ĠYO U
v k
qu in
Ġal phabet
p it
Ġp t
ĠCl are
Ġt ired
ch annels
ool s
r ceil
Ġf isher
- )
Ð°Ð »
Ġbl ues
ace ae
Ġ' ')
AC CEPT
att ices
ĠCommun ist
------------ -
Ġv ec
ox ide
dest ination
ĠC B
ĠM end
sin h
ĠHoll and
ĠT ell
Write Line
Ġbin aries
qu ark
com fort
Am ong
ĠIn side
ĠGu inea
ĠCont roller
ĠF leet
Ġmurder ed
d h
Ġcomp elling
Ġcour age
Ġmot ions
Ġch icken
User name
k ed
ĠL uis
F RAME
ter min
LE N
off icial
fit ting
ĠL ions
vers ions
ĠNe braska
Ref resh
ĠĠ ĉ
d an
idd ing
Ġstat istically
Spr ing
ĠV R
Ġdown stream
T W
ĠCl uster
ĠHallow een
}) +
L ess
m el
ĠR idge
sh ine
ha o
ch air
ĠTy ler
Ġindiv idually
Ġdemonstr ation
Ñ Ħ
Ġsc ar
ĠDe b
ĠFig ures
Ġanalyz ing
ĠR ever
Ġbad ly
ĠF ocus
Ġdemocr atic
Reg istration
Ġbe ings
T aking
ĠC HECK
ENT ER
Ġup set
ĠMax well
og an
ĠCh i
ĠR adi
Ġcross es
19 3
Ġmon ument
Com ments
Co ins
G overnment
() `
E lem
å º
Ġpl ug
ĠH P
ĠPat tern
Ġfro zen
Meta Data
ĠH yper
Ã© t
bas is
L AS
}\ |\
Part ial
Ġcre am
ĠE ye
agon ist
help ers
Ġcent res
j j
over ride
sen al
sup set
Ġdismiss ed
d ynamics
ĠC ad
Al ign
alth ough
; ;
m achine
Ġst ays
18 7
Ġref ined
ĠC WE
ĠSch w
Lear n
Ġtri be
Ġ/ .
Ġinvent ory
Ġre try
ĠCommun ication
ç Ľ
ĠU til
f ollowing
Ġl azy
Ġv iable
ĠSym phony
Ġh ack
ĠField s
Ġsum mit
Ġdetermin ant
× Ķ
ĠS ure
\" {
Ġexpect s
It alian
Ġst reak
Ġsk i
ĠSer ge
ĠMon itor
ĠD aw
Ġphys ician
K B
ĠTib et
T l
)} +
fr astructure
)$ $
Ġc argo
ĠJ ama
ere k
ĠC uba
ĠRE AD
Ġw age
ĠSpac ewatch
Ġsome body
dis ambiguation
LE T
ĠO THER
Ġg ig
gl ass
Ġtox ic
Ġappar atus
l if
Ġb esides
gom ery
as se
Gener ate
Ġl un
50 1
M icro
Ġle ar
Th reshold
AR B
Ġpop ulated
I ts
v ary
Ġvic inity
ĠCon stituency
Ġindex ed
ĠPar ish
dec oration
å °
Ġr am
ĠAn imal
Ġtour ist
Ġelev ation
Polit ical
G Hz
z ier
he w
Ġlink ing
ĠHug hes
ig rate
Ġkn ot
Ġqual ifying
Ġv i
E U
Ġspect acular
ĠS ect
Ġconfirm ation
Ġp ec
ĠGl en
SU B
St ates
ĠAthlet ic
re z
' }(
ĠE ld
Ġsm oking
E t
Pro blem
? (
ij i
Ġinter cept
Ġalter ed
Ġrandom ized
Ġpredict s
s igned
se ek
ro gate
Ġin version
\ ),
Ġtri angular
ĠGener ation
ac ian
rosso ver
Ġemer ge
CON ST
Ġeditor ial
ĠAssum ption
ĠF ace
ĠBl ake
ĠOrth odox
ĠS ter
cos h
ĠS old
18 96
C hen
w aukee
sl f
Ġcook ing
Ġl ambda
ĠSh im
M il
ep per
Ġcomplement ary
Ind ia
FO RE
check mark
ĠDise ase
ro ut
ac ements
s leep
Ġpull ing
Ġw it
ĠS yl
j obs
}$ ~
li um
Un ion
Ġsent iment
hook rightarrow
Ġb uff
ĠSt ef
k ill
Christ ian
text area
ĠIN TO
con e
remove Class
Ġhierarch ical
Ġw ound
Ġtre ating
H ER
ĠCl iff
f ee
ĠI da
col ors
Ġlegisl ative
B and
ĠL it
ut ors
tr uth
b eq
Ġmoment a
ĠDirect ory
estr ian
{ }\
Rec ords
Ġwis dom
ĠBob by
P en
Ð¾Ð ¼
bad ge
H ide
F ROM
ãĥ ³
Z ip
Ġcous in
Rel ation
be am
oper ating
Ġcons erved
Ġ' $
ĠR s
ĠColomb ia
des cr
}\, ,
with in
y aml
ent e
Ġfix ing
w ig
=" //
Ġ" ./
] >
ĠF oot
Ġarr iving
Ġparticip ant
ĠFl ow
){ $
Ġsol ver
1 200
p el
.\ ]
30 6
ĠFr ances
ex clude
ĠW riter
Ġto y
ĠN P
Ġuns uccess
AT T
size of
ĠArt ists
Ġretr ieval
Tag ged
ĠL INE
Ġtravel ed
ĠM aking
st retch
ĠG overn
Ġaccept ing
ĠB ass
ãģ Ļ
ich let
ĠMont ana
FFFF FF
Writ ten
S pect
ĠG oth
ĠForm ula
Ġco at
ĠForm er
ĠP rec
P ages
Ġtour ists
ah an
ĠSu ite
Th ose
ĠD ATA
ĠAp plied
Ġcritic ized
Ġpr icing
ÐµÐ½ Ð¸
Ġuniqu eness
n othing
qu ire
ĠS or
)$ )
Ġdel ivers
inv oke
les h
Ġair line
ield s
Ġf t
5 50
ĠP ra
fin ity
atern ion
Ġswit ched
Ġattack ing
c urrency
eh icle
Ġactress es
Ġn ortheast
S IGN
ĠR an
Ġad missible
SD K
Ġpr ide
ĠB og
ish a
Ġhom ology
Ġt idal
ro e
ĠD NS
Ġinc idence
t cp
Ġe V
Ġimport ed
( (\
Ġrac ism
ĠPark s
Ġacknowled ged
L U
ĠY ellow
v t
ĠC AN
Ġcomm od
ple te
ĠComp etition
ta wa
Ġkw args
Ġp iv
Ġpress ed
aur us
Ġassess ed
ĠGh ana
You ng
Ġtransl ations
ĠO bl
Ġtempor arily
b ard
ĠLeban on
æ ł
pre vent
ĠTrans form
o ard
Ġexhib ited
Ġpul ses
V V
he nd
Head ing
Ġcirc uits
' ):
cat Desc
Ġaccommod ation
ĠWood s
ĠStan ford
to kens
Def ined
al go
Ġinternational ly
}' $
b id
std err
B ank
eg an
ä» ¶
\, $
Ap pendix
T oggle
const ants
ĠPhilipp ine
A verage
Ġsatisf action
ĠFl ag
ĠInt roduction
av ier
n x
Ã§ Ã£o
Ġp index
harm onic
M X
Ġtrans parency
ĠAn cient
Ġre cept
N s
Ġd ys
18 88
scal ing
Ġdem o
St yles
g age
ĠL an
Ar n
Ġhop ed
N ested
ĠF ixed
ĠH ousing
the o
ogene ity
Ġw ard
set Attribute
Ġcor on
ĠCa uchy
Ġc ort
DO CK
ĠT ypes
ĠSO FTWARE
ĠTh row
ĠJeff erson
Ġelect oral
Listen ers
Ġinfr ared
ĠT es
* >(
con tract
ĠU SS
Vis itor
ĠK ur
ĠTrans action
ĠHol mes
ĠEag les
Ġcollabor ative
c ott
20 9
uss els
}= -
, </
ĠR GB
] -->
Ġsp y
tab End
ĠDis covery
ĠAr ctic
Ġst om
r p
ĠEv olution
b read
Ġdistinct ive
Ġturbul ent
Ġhe aling
UM ENT
In line
ĠPet e
Ġplay off
ley ball
pol it
ĠD ol
M ASK
tain ers
Over lay
AP PL
Ġprevent ing
g as
ĠNov a
con tr
CL U
assum ption
C odes
input s
Ġconcept ual
Ġvacc ine
Ġre nown
Î º
Ġfinal s
US Y
I J
Ġp ocket
m or
sm ith
ĠR S
ĠN ine
Ġcl arity
] _{\
Ġb uses
Ġ( <
Ġif f
ĠC urt
c url
e er
ĠR oche
Ġconduct ivity
Ġfun eral
ron es
St mt
Ġfib ers
ĠS ens
m ixed
Ġwond ering
ut ic
$ ~\
rient ation
2 15
Ġt ears
Ġcomp ass
Ġavoid ed
df s
S ir
U i
Ġex empl
Cho ice
Ġsc iences
jav ase
Behav ior
Ġdo zens
N ick
Ġunc over
h art
Ġsal ary
é ĩ
ĠS ak
ur sion
Ġdes irable
Ġshel ter
L if
ĠR uby
abs olute
k ern
ĠD ES
Ġaff air
l ov
or ig
And rew
e i
ast ore
T witter
W ay
re ts
Ġon set
IP S
Ġc ss
30 3
comm ands
Ġinvert ible
plic ial
Equal To
Equ ation
render er
M LE
Comp any
al most
Represent ation
n as
Ġf iscal
k el
Ġdist ortion
ĠAct ivity
ĠJ O
Rec ip
other wise
Dec oder
ok u
Ġcount ed
ĠA part
Ġdr ain
Ph ysical
( $\
Hor izontal
ĠThe me
ĠM eta
ard i
T ODO
append ix
Ġsustain ability
b ishop
Ġke en
L ang
ok i
ĠM ode
hold s
max imum
Ġcomplex es
Ex cel
Phys Rev
wall paper
ĠSp ider
` :
ĠF uel
Ġcompos itions
Ġadvoc ate
capt ure
ĠR uth
IC AL
writ ers
gr pc
Ġsurprising ly
ator ies
Gr and
U Int
Ġtest imony
ĠRepresent ative
Ġchalleng ed
comm ut
Ġdel ays
:: $
ĠRe ed
Ass ignment
f eld
ue z
Ġexpl ores
De ployment
Ang le
Ġfurn iture
Ġx si
ĠIn stance
dis crete
Ġvol unt
Ġpron ounced
ĠR ather
7 20
ov an
Ġa pt
W ashington
++ ++
3 80
ent ine
und ay
ĠV el
Ġadv ised
b os
H PP
Ġf ulf
CO PY
ĠB order
MA KE
ĠQ String
unc her
play back
Sm art
MA G
Ġjuris diction
al ong
Ġassist ed
ela ide
Ke ep
w indows
oll o
igr ant
un ted
Ġfil med
Ġsuggest ion
Ġavoid ing
s With
se ver
ĠPubl isher
S a
the mes
Ġcr uise
ĠR osen
add EventListener
Ġide als
ĠArch itect
Ġprof ound
\% ,
> =
17 4
Ġhand ful
Ġfra ctions
Ġres erves
} ''
ĠPl ayers
upl icate
ĠJ obs
V an
Ġc inem
ERT Y
ĠS ax
ĠIn it
ĠJess ica
mys ql
ĠLine ar
b ars
Ġal umin
<? >
Ġt uned
en ium
ĠV lad
place holder
cond itional
pre ced
o ct
Ġrock et
get Text
c aster
amb le
ĠM idd
ĠE ug
Ġind oor
U TE
ĠC inema
F und
ĠM ob
P atch
å ĩ
ĠâĢ ł
h im
Subs cribe
ic ans
As sum
pay ment
Ġch ap
+ -
Ġp orn
Un able
Mag ick
Ġle ase
ĠSym fony
Ġemb arrass
Ġpur ple
Ġab ol
log ic
Im p
act ical
ĠMaterial s
O ps
j p
Off ice
ĠCy ber
Ġare na
17 8
Ġp ale
Ġtechn ological
ĠMichel le
ĠV ic
Ġmark ers
Reg ular
Ġexpect ing
ĠF ail
ĠG ra
ĠAut om
}} -\
ĠPart icip
Ġv iral
ĠP ars
Ġwealth y
Ġlo ans
ĠS TR
c rit
Ġund ers
r ise
Ġrec ursive
Ġv ig
Ġsp anning
Ġcur riculum
DI RECT
u ced
Ġ= &
ĠB ir
ĠBut ler
Str ings
Ġtrav elling
ah u
Ġcop ied
Ġfest ivals
ĠLe o
ĠM illion
Ġabsor bed
the ore
ĠM iles
Lat est
Ġmetall ic
å Ĩ
ass er
ĠN y
Ġwe aken
Sc ience
Ġgovern ance
... ,
Ġaltern atives
Vert ical
Ġb is
mes h
ups ilon
> ');
F ive
ĠFI FA
0000 000
al p
Con struct
y arn
Ġ ug
ĠBapt ist
us a
Ġshow er
Ġe ager
Rem ark
Ġperturb ative
ĠS z
ĠD ou
Ġnav igate
Ġde form
Style ID
ĠEconom y
Prot os
fail ure
Con version
ĠH H
ĠPartners hip
SE C
L y
ĠI van
P oll
ĠF act
Author ization
Ġl ig
le igh
Ġprof its
I o
Ġ} (
com par
Ġd amping
ĠR av
ult an
18 4
bro ok
Ġwhe els
C AC
ĠC IA
ĠL oss
=" <?
Ġdark ness
ĠB ak
Ġr amp
h orn
p ark
t u
^^ ^^
ad ers
all ed
cipl inary
g allery
im ag
Ġirre levant
Ġfl ed
ĠWild life
ĠLith uan
subs cription
Ġs ne
F IN
ĠM ine
Ġsl ip
cover ed
ĠPer u
Dim ension
J oe
ĠJul ia
Ġb ij
Ġnerv ous
Ġconstr ain
Ġo mit
hib ernate
c xx
Ġ[ (
T own
ĠAd m
Ġ\ %
Ġpath way
16 4
Ġsent enced
Ġab ortion
H K
y ellow
Ġamb ient
ĠE ff
ib e
ĠObserv able
ĠBr ain
P ark
Ġfl our
Ġrep orters
Ġattend ance
St ill
iz ational
B in
F LO
dot ted
b is
ill ary
ĠUS D
Sign al
Ġ ÑĤ
ĠW A
Ġ" :
umb ent
ho e
V ariant
ĠAm endment
Ġsl aves
ibl ings
re ports
Ġbr acket
Ġviol ations
c py
18 9
product ive
ff ield
ĠAl ert
R oyal
f illed
Ġdomin ate
ĠL ud
ĠFellow ship
ĠFr ame
Call ed
ĠEmer gency
ĠRat ings
P ACK
Ġguitar ist
Austral ia
ch arts
}} ;
ĠJ ake
18 85
F K
_{\ {
Ġli ability
Ġsports people
Ġgrand father
H it
or ne
Ġl ane
18 50
Ġto ll
ĠS ob
Ġreg ards
N i
eg al
NotFound Exception
Ġaccompany ing
ĠAt omic
Com pute
Ġabund ances
Ġd jango
Ġm u
ĠP I
Ġneutr inos
Ġround ed
ancell or
Ġdi abetes
ĠNep al
File System
Cre ation
ĠW ant
ĠTr inity
/ '
Ġblock chain
Ġtrem end
Ġbr idges
MA IN
7 68
Ġl t
Ġep it
heim er
Ġelev ated
Ġde alt
ĠC raw
ĠB ach
Json Property
Ġsoci eties
Ġemploy ers
ĠA uthors
| ,
ng th
Ġrele asing
Ġt elescope
arch y
Ġ( .
Ġkey word
W ed
Fil ed
ĠG PS
}: \
Ġtrav els
ĠBut ton
oc on
ĠOr lando
ĠS outheast
un its
n f
)$ ;
3 40
Ġmer ch
). $
Ġele ven
ĠIniti ative
St d
Un lock
e eq
y u
Ġun ions
Ġredsh ifts
Cred it
Ġoutper forms
L im
O l
Ġdes erve
organ ization
ĠHe avy
is ure
Ġmon op
T ITLE
ĠL ayout
ĠD L
ĠSt uart
Ã³ w
Ġmanip ulation
16 1
Ġs q
ĠDIS PID
l iter
ari e
ĠComp anies
Ã¶ r
ex ceptions
View s
thread s
Ġbl ess
ĠC off
ĠG ate
Ġmagn itudes
yl an
uck land
Ġnorth west
ang led
Ġcompress ed
ĠF loat
Ġtrans cript
H y
ow ards
Ġcro ps
ĠL if
17 7
Ġcre ature
conf irmed
Ġcle ver
ref ox
? .
Ġviol in
l ater
ĠPr adesh
bo ys
ĠMus ical
ĠLeon ard
ĠL amb
Ġsuccess ive
ĠArt icles
Ġroll ed
Ġpolar ized
Ġse aled
ĠA U
w ikipedia
ĠP ART
Ġconstit uency
Ġgard ens
ĠE sp
ĠPhil osophy
AA AA
c ook
ĠIn stitution
UT O
ĠSpe aker
ent ropy
Ġr ic
r vert
Americ a
ĠValid ate
F oo
Ġhash Code
Ġinject ive
ĠTem plate
Ġpres cribed
ĠAll ah
Draw able
ĠTour ism
c X
ĠCoul omb
k b
ar u
Ġo l
a q
Ĺ ãģ
erg i
le w
z el
ĠSc ar
ĠM ul
ast rop
Q A
x c
ĠS ox
Schedul er
Ġrefer enced
ĠPro test
date picker
EN TRY
Ad apters
x r
av in
// ----------------------------------------------------------------
Ġstrugg les
Ġ(! (
Ġde code
ant om
ev ille
Ġstat istic
ĠStand ards
ĠColl abor
Ġd ummy
ok o
Ġsimultane ous
Ġfoss il
The ir
ĠB in
r ational
inter est
Ġc ant
Ġ ib
W ords
20 7
ĠIss ues
E ll
r ab
ans wer
Ġb er
ĠE L
Ġcor pus
ef ault
23 4
Ġc ig
Ġm k
ht m
Any Ref
Ġw restling
By Name
ĠPr im
ber y
if s
Ġun ified
Ġin ad
ĠE ddie
orm s
ĠCh ang
Ġcab inet
p ared
Pol ice
Ġnav al
LIN K
)\ |_{
All owed
Ġm ate
g b
ir us
Ġener get
Ġat tractions
Ġpat ri
look ing
ĠWork ers
ĠF ri
no align
Ġiter ative
ĠIll ust
g m
ĠAl pha
str a
Ġw orn
Ġprov incial
Ġconf ined
vis ibility
Ch inese
Ġgeneral ize
re ply
it us
16 2
Ġam ateur
Ġt anks
Ġr iders
Ġl oving
Ġcred ited
ĠExt ension
ĠM M
ĉĉĉĉĉ Ċ
Inst ead
x t
is en
N ay
Ġjournal ism
F ee
Ã¡ s
Ġportr ayed
F etch
ĠO ri
mod ern
Ġpassion ate
Ġoscill ation
3 25
Ġdisappe ared
ĠH appy
ĠĠĠĠĠĠĠĠĠĠĠĠĠĠĠĠĠĠĠĠĠĠĠĠĠĠĠĠĠĠĠĠ ĠĠĠĠĠĠĠĠĠĠ
ĠAb raham
ic ia
Ġw ore
product s
as ures
ĠJ in
Ġnull able
T OP
Ġfl ush
numer ic
ĠH app
ĠG ang
Project s
× ª
=" ./
MESS AGE
f re
ĠPod cast
Ġs ew
function al
P et
ap on
ĠD od
T ick
le ave
Cl aim
æ İ
Ã ¦
)- (
Ġdyn asty
enc oder
Ġdes k
|\ ,
P ot
Ġan ch
ĠM ong
Ġde ar
ors che
ast ro
17 2
port folio
Ġplay offs
Browser Detector
PREF IX
Ġclass room
em ployment
Ġexecut ives
Ġcivil ian
be cca
Ġbi ased
Mer ge
Ġsw ing
J O
ĠSer bia
Ġbe aring
ĠSur v
ex istence
Ġall iance
ĠTreat ment
j ac
eck er
Ġt orsion
Work ing
Ġsurre nder
ĠS ah
Ġ' ../
ĠMan ufact
te le
ĠCom pute
Input s
ĠM aps
Ġde ce
AS A
B ern
17 1
Ġdrink s
Ġinf ect
Ġprev ents
ĠS ample
Ä Ļ
19 4
RE C
M u
Ġprob abilistic
Link s
met er
Ġtrad ed
B ag
Fil ters
Cor ollary
Å Ħ
ast ically
D ot
ĠGener ate
Ġnom inal
M ah
ĠCh arg
PO INT
is se
bit coin
d ied
Ġst ocks
). \
ari um
Ġbe ars
Ġback end
ex c
ĠIn g
spect rum
Ġc attle
Ġbel oved
pret ty
ĠWall ace
Ġex tern
Ġpredict ing
. ][]{
in ion
ĠA ber
we ights
Ġ" ")
3333 3333
Ġav iation
am on
ĠP and
arch ar
ĠCont ainer
Ġcart oon
Ġad apter
ĠEvery one
n at
NOS CRIPT
ĠS weet
Ġcompos ers
% ),
Ġbl end
b uck
ĠB U
ĠHor ror
Ġsp ite
ĠX ia
9 78
Ġbl ob
ĠB P
Me V
Ġdiam ond
Ġspectro scopic
ME D
IR ST
Ġimag ination
Ġanomal ous
Ġess ence
Ġbos ons
H ist
Ġsubs ystem
ev olution
ĠColon el
Ġcomp ly
Ġc fg
' ^
ĠQ t
Ġdiscipl ine
ari juana
ps frag
18 93
ĠG rowth
Ġearth quake
k al
Ġsens ing
Ġspec ifying
ĠE asy
l vert
ĠTool s
ĠCar r
Ġbreak down
Ġa u
en os
re li
ĠTh under
Ġ- &
Ġspl its
L os
Ġwh is
Ġmuseum s
Song s
28 8
zer bai
Ġreveal ing
> ';
ĠS ame
Ġnetwork ing
PAR AM
Ham ilton
GRO UP
P rior
ĠM ills
ĠPar ad
W F
Ġor chestra
)} }\
27 5
IS O
unt u
Ġlect ure
Ġun necessary
Ġmar ry
Ġcompr ised
t alk
Ġsh ifting
label ed
Ġr s
}} /
****** /
DO WN
ĠYank ees
ĠDr iver
v dash
Ġsu ited
ĠGro ve
Ġresear cher
Ġap pl
Ġcons erv
ĠSal v
Ġheart s
Ġj umps
Ġquant ify
ĠMult iple
am as
18 89
A mb
GEN ER
d dot
H aw
ĠGard ens
ct l
ĠS ays
Link ed
ĠOpt im
T our
Ġr ip
ĠA ri
Ġconstitution al
ĠB und
Ġwork shops
^* _{
( []
Ġdon ations
rot ation
So ft
D u
load s
osoph ical
Ġsub stitution
ĠJul ian
Ġexcit ations
ĠB orel
ĠP av
fill draw
Ġprop ri
op al
ĠProdu ctions
c end
EN S
ĠProgram s
icens ing
el ia
ĠW restling
C tx
V IS
Ġg aining
Ġtrad itionally
ĠNY C
Max imum
C ong
C ritical
Ġdam n
c ir
Ġb ones
Ġsp o
//////////////////////////////// ////////////////////////////////
@@ @@
Start ing
"/ ></
Ġ( );
}, $
ph inx
ĠAR M
Ġal ike
Ġcont ours
habilit ation
f u
Vari ables
sub str
Perm issions
aval ry
ĠĠĠĠĠĠĠĠĠĠĠĠĠĠĠĠĠĠĠĠĠĠĠĠĠĠĠĠĠĠĠĠ ĠĠĠĠĠĠĠĠĠĠĠĠĠĠĠĠĠĠĠĠĠĠĠ
Ġfor g
Ġnot ions
ĠSt ack
ĠAd vert
Ġ utils
K A
ä ¿
ĠDom ain
p her
17 3
Ġbro ker
Art ifact
ĠArab ic
itro gen
ĠZ imbabwe
ma re
L com
Ä ħ
ĠC ool
ĠA ur
) _\
Ġh ull
ĠB ug
nt hesis
ats u
Ġbre ach
Ġrenown ed
el ist
æĺ ¯
fil m
cell s
Ġdynam ically
à¥ ĩ
Ġtact ics
}^{ *
Operation Exception
ĠNE W
ĠY ug
Ġconf irms
Ġlab elled
Ġdevelop s
D igital
n ces
r ases
TO OL
In clude
Ġpract ically
Ġbeh ave
Ġpun ishment
] ];
Ġcare ers
SE D
Ġsubgroup s
Ġend points
Ġthr iller
Ġany body
Ġline up
Ġc ad
Ġyoung est
Ġpsych ology
Ġre vel
ĠF oster
Ġsat uration
consc ious
ĠNO TE
Ġlast ed
ĠMarc us
ĠD yn
Ġsymbol ic
ĠBeng al
car ousel
ic acy
} --\
Ġnow here
Ġanalog y
18 2
RE AM
ĠFinn ish
Part s
ĠQuant um
Ġaut omorphism
G W
re ction
ĠK un
}) }{\
Re ceiver
Ġcontr action
lim in
Ġinfin itely
Ġdisag ree
)\ )
Ġtim eline
Ġres um
ĠAc cept
Ġn u
or ic
She ll
E s
loc als
Im plementation
Fr ag
Ġanaly tics
Ġcapt uring
charg ed
Ġmanufact ured
Ġdissip ation
DE P
iat ric
get Property
row ave
Ġabb rev
}: =\
× ¨
det ect
Ġf ame
ĠRef s
x ff
ĠCh anges
ĠSom ething
ĠK ash
ĠCor porate
Ġd f
ĠEd it
Ġs our
Ġpand emic
Ġf are
Ġinf ections
R D
)) ^
Ġs overe
ĠK umar
W all
Con figure
uli ar
ĠJos Ã©
Ġell ip
screens aver
Ġf ighters
und ers
ĠDocument ation
18 6
Ġworth y
ill ation
h ort
Ge o
ĠS afe
Al g
ĠS ierra
Is Null
Ġpil ots
Ġprogress ion
Ġv endor
ĠK err
ĠAthlet ics
Ġtrunc ated
ĠChel sea
in el
Ġcoll apsed
Ġanalog ue
Ġr ush
Ġless er
G allery
T alk
m orph
Ġterrit ories
h ub
n ell
Ġb icy
Ġmin isters
Ġg ifts
av our
ĠR ac
Dis abled
- {\
Ġm akers
Ġp as
Ġev olving
Ġend orse
Ġment ions
ant ine
Ġs addle
Ex pat
Ġparad igm
Cap acity
Ġc ats
Build ing
ĠD ialog
ĠU ntil
Ġacknowled ges
mar ine
18 92
Ġgr ains
Ġrep ublic
Organ ization
get Key
Ġjust ified
al ter
}\, .
ling ton
ĠV as
at ility
ĠT at
;" |
d ead
Ġn od
ut a
16 3
ĠEn able
@ {\
{- }
ĠTrans fer
' </
ĠBro ck
ĠSo ft
az ar
ĠJ ung
min or
Inter op
ĠĠĠĠ ĉ
ĠA A
Ġstat ue
Co ord
Ġmagnet ization
qu ick
Ġhe aven
ĠBel ow
' }{
st dlib
Ġpl aus
Ġsimilar ities
ray s
Ġload er
ĠTom my
Ġp raise
38 4
pl ays
ĠðŁ ĻĤ
; =
Ã ī
Ġd in
Ġcontain ers
Ġshut down
ĠBu ilt
ĠGener ic
Ġl ag
23 1
Ġdiff e
sat z
ĠG ilbert
c ool
ĠP si
nt hetic
OD Y
Ġsuperv ision
Cho ose
Ġ á
Ġphil osopher
Ġgate way
Ġmod ulo
][ <
ĠH ir
Ġcab in
s ided
Ġemploy ing
Ġ" --
custom er
ĠK as
os i
ĠR ect
ĠÐ ·
tr an
P ic
ur c
Ġun cle
ĠM umbai
Ġr c
Ġre wards
Ġcor n
Ġpremier ed
Ġassign ments
Ġfle w
act ed
Ġinstitution al
ĠK aren
Â Ģ
ĠSp encer
ĠBen ef
Ġimpe achment
ĠR ah
mon itor
Ġfif ty
ĠRiemann ian
m ons
18 94
I LL
ĠĠĠĠĠĠĠĠĠĠĠĠĠĠĠĠĠĠĠĠĠĠĠĠĠĠĠĠĠĠĠĠ ĠĠĠĠĠĠĠĠĠĠĠĠ
Ġconcert s
s ap
ĠF iles
Ġret reat
Ġsl ots
lear n
Can ada
Ġkick ed
im i
N M
17 9
\ (
y ang
18 91
or ro
Ġle ather
ob ar
ĠInd ividual
ĠD P
Call ing
can onical
ve ction
In c
L ists
Ġinter ventions
bell ion
p es
Ð Ł
int rodu
Ġstar red
Ġlack ing
Ġclim b
K M
Ġ& -
ĠH yp
Ġdivor ce
ĠMe et
rob ust
ĠM IN
tem plates
re ject
g irl
ĠBl u
Ð½ Ñĭ
Ġreflect ing
Ġcha otic
ĠAthe ns
, +
Ġo h
ĠQu ick
im plies
Ġentert aining
ĠN urs
Ġmin us
Tra its
Ġball ot
ov y
emph is
Ġaddition ally
Ġc rap
ĠRet rieved
W ould
Ġlaunch ing
B uy
P b
Ġb other
Ġproduct ivity
colog ical
Ġe ars
ĠT ouch
Ġpl ugins
co res
Ġre written
bi ased
Ġfl aw
andid ates
Ġterror ism
ĠHe aven
t ec
Ġ{ })
ĠSch r
K O
ĠR V
ĠAd S
Block ly
C as
Ġvisual ization
Ġsatell ites
ĠOther s
Re ception
Å Ļ
ĠG D
Ġf et
Ġ} _{
Ġclos es
Ġveter ans
ĠAssoci ated
h istor
in ja
ĠB orough
Ġdial ect
Ġelder ly
P aired
Î ³
10 16
Ġachiev ements
Ġconsum ed
St eve
Ġgrap hene
Ġperm its
Ġ' </
p w
ĠIm prov
tz mann
pers istence
ĠP apers
Ġten ure
> /
b v
ĠR ice
Ġres il
ĠAr gs
Ġdes ktop
ov ic
ĠMe asure
J eff
b ands
ill es
ĠHe at
Ġbusiness man
ĠHar per
make box
Ġlaun ches
g em
ann ers
Ġp aired
Ġhypot heses
Ġserial ized
Elements By
st own
ĠS chema
m un
field set
MS earch
ĠDel aware
ĠY ES
Tag Name
comb ination
p ure
Ġelectron ics
Ġe uro
n io
â ĸ
ĠE ston
ĠV ermont
Un its
Ġsouth west
t ap
Ġpers pectives
N B
ou x
ĠT S
ext ended
ĠK yle
ĠNorth west
Rout ing
Ġ{ (
l iteral
Ġg a
ĠB uch
Ġfr iction
( ",
ĠIn spect
Ġsurviv ors
Ġb ootstrap
ex change
Sp in
verb ose
Ġh unt
) ]{
Ġtri bes
ĠR NA
ĠGr ass
( @"
ĠAcadem ic
Ġce iling
ĠD ynamic
Ġsem igroup
Ġtend ency
Ġt weets
Ġmod ulus
Ġdefer red
t elling
pl aced
Ġcon greg
Ġp ian
per ture
Ar row
Ġdec imal
erg us
NO TE
DE LETE
() ]
($ _
Ġear ning
m ime
ĠAr r
unc an
ĠT OD
Ġpo ets
ĠI BM
R eq
d ll
So ftware
Ġeth ical
Y ea
Ġdig its
Ġdead ly
Ġdis par
Ġ$ ^
Ġn ominations
Qu ick
ĠRec ent
ĠM ik
ĠL is
te enth
em ia
Ġshort est
* {\
ĠA ub
ĠA ST
de ploy
18 3
oun ge
Ġprec ip
ĠMot ors
al bum
Ġw are
, [
ĠPhot os
Ġappropri ately
Ġwavelength s
Ġass ists
Thread ing
ĠChem istry
Ġdebut ed
P icture
a uc
Ġo ught
ĠÐ ¼
"> "
Ġindic ators
Ġb if
UN K
ç ±
ĠH ur
copy right
Ġterr ain
z hang
H u
R h
over rightarrow
ĠDec ision
Ġh ills
s ix
t odo
sh own
Ġnob le
M argin
Ġcol ony
Fr ance
ĠSud an
L ONG
n ational
Ġanth rop
Ġdiscrep ancy
print s
| }\
T ARGET
ĠF ra
ic ism
}), \
ĠCoun ter
is ors
Rec ently
ä¸ Ĭ
Ġb ags
"=> "
ĠRec ently
el n
Ġdou bles
Event Handler
prov ided
T B
uzz y
Ġthorough ly
22 3
ĠRod rig
che t
Tw ig
ĠR ate
add itional
Ġt body
Ġtr ails
Ar c
ĠAbb ey
Ġprevent ed
Ġaugment ed
ĠSc ore
ĠCan al
ĠG and
ä¸ ª
v on
ĠP ink
Ġshe ets
Ind icator
rel ations
cred ited
Ġspat ially
ĠP rest
min ster
ĠD ocker
^* )
Ġnot ations
Ġgu ards
ĠObserv atory
30 2
Ver b
ĠCol in
ĠN R
30 5
Ġfear s
ĠArn old
Ġnew er
ID s
ĠCal endar
sp here
ĠPut in
Ġk ills
ĠHar bor
Lear ning
Build ings
W as
man aged
å® ļ
r isk
ĠIN T
RET URN
es ium
æ ³
---- --
nav Bar
ur face
40 5
Ġhol idays
' _{\
ĠR alph
oy le
Ġrefin ement
ÂĢ Â
re a
ĠG uild
P rec
Pl ane
C AR
pt ical
g overnment
Ġincorpor ating
st ars
Through out
ace y
Cl osed
ĠV K
serial ize
pl oys
ĠS leep
il iation
Ġg em
che l
ĠPal mer
Ġrecall ed
n ucle
ĠBenn ett
ĠVenezuel a
Ġd ans
ĠB ald
FLA GS
Ġd ock
Ġchar m
ĠT as
Ġutil izing
ĠS oci
Ġch lor
ĠTest ing
Ġinvest ed
ĠHit ler
N ear
ĠS erv
Ġorig inated
Ġhar sh
Ġro oted
man uel
ĠPr ison
Ġdimension less
L B
yl um
Ġhon ors
Ġsubsidi ary
Ġby pass
Ġneighborhood s
F at
[ ];
Ġtable t
ĠT itan
ext ends
ĠC ord
dec ay
ĠEval uation
al in
Ġrem n
Ġqual ities
Ġ ÏĦ
ĠK re
ĠF est
Ġpoll s
Ġtor que
3 10
pe ak
Ġpropag anda
um ph
ĠC ert
Ġad iab
ĠLind a
incor porated
In vest
Ġtens ors
/** */
te in
Ġchar ter
elect ric
ĠN umer
Over all
Ġoccas ional
ĠD ame
Ġposit ively
Collect or
Ġdetect ing
ĠSe lection
al ways
get Default
ĠGab riel
ĠL S
play ing
Ġrec ipe
ĠInd ependence
vers ation
Fl at
Î ¯
Ġwork place
22 1
ĠAd elaide
sp arse
ĠCO MP
Te X
Ġdifferent iable
ĠD in
ĠJ ourney
Ġint im
Tr aining
ĠE t
2 14
es a
Inst ances
Trans l
for ge
Ġden y
ĠKnow ledge
' }}
I LED
Ġs outheast
Ġtem pt
Ġdisappoint ed
Ġintegr able
}$ };
S ens
Ġb ishop
unn able
Att achment
ist ani
Ġfif teen
0 11
Ġrespons ibilities
ĠGrad uate
Ġtou ched
Expat riate
Ġarg ues
With in
Ġin quiry
Ġtrans fers
ed ing
Ġsh irt
22 7
found er
D ead
Ġas ymmetric
Ġnation wide
Ġo vs
ĠH i
Contin ue
Ġun fortunately
ĠUg anda
Ġout going
ĠEffect s
an imate
Ġref use
Ġattack er
Ġreson ant
Ġad verse
N il
ĠC ONT
List View
Sp anish
ĠValue Error
Ġgr at
Mod ules
! }
G erm
Con stituency
23 3
Clos ure
J un
Ġestim ators
æ į
ĠS B
ST EM
Ġhand lers
ĠDis tribution
ĠPre vious
Ġgirl friend
y t
Ġdis advant
Ġl oses
LE ASE
ĠSh apes
ĠAl ways
ĠCon ver
Ġfar ms
AME TER
ĠGreg ory
ĠRes ort
Sw ift
g old
Ġsup rem
ĠBrook s
ĠCon structor
cover age
ĠPre Arg
Ġ(! $
Ġinstant ly
Ġw ise
Ġmiss ile
." ;
Ġaw s
Ġrenormal ization
Ġdis ability
Ġmet abol
Ġconv ince
ĠS tra
User Agent
^+ (
ĠT error
æľ ī
Ex act
Ġpat rol
Ġp ension
on er
request s
th us
rit ies
Ġoscill ator
Ġpredomin antly
" +
Ġpres ervation
M G
23 8
Ġdiagn osed
ACCEPT ED
ovak ia
R etry
}{ .
Cl ock
ĠĠĠĠĠĠĠĠĠĠĠĠĠĠ Ċ
l os
at est
any on
R ever
Ġlog ged
26 3
Ġt ongue
li ers
Ġse q
Ġwitness ed
at im
Ġ$ ("#
a uthors
F ood
pars ed
D ER
Ġaud it
., ][]{
ĠCOL SPAN
ĠO DI
12 34
Ġloc ate
E th
b road
Ġprior i
Red irect
18 65
ĠOtt oman
Fr iday
ĠRead er
Ġsculpt ure
D J
ĠE mm
O RE
Ġb ell
Ġro ok
ĠMont gomery
Bu ilt
com ed
Ġtogg le
d B
Ġemp ire
(" <
ther mal
CON NE
30 8
Ġc ube
To o
Ġcar riers
Fil ename
Ġkid n
r ag
A st
| $.
Ġst ones
Ad am
Ġrun ners
C U
Ġpar as
? !
ĠHe brew
B rown
Â Ń
ĠN uclear
Ġend e
analy tics
Ġelabor ate
{ }{
ĠBelg ian
, $$
m ans
Ġex pend
Ġem power
ĠM ig
Ġex pedition
Ġ# #
ĠCroat ia
Ġb ub
ing o
ĠM ull
Ġhope fully
Ġt iles
CC CC
Ġcom plications
Ġpeak ed
Cal ifornia
prob ability
ĠR us
22 6
Ġgu ides
Ġdeprec ated
} `
it ic
ĠSe bast
Ġrefer endum
read able
mit t
Ġdesper ate
Ġtr ucks
ĠAn im
Ġbank rupt
ĠSp ark
Ġhistor ically
Ġfin ishes
Ġgrad es
Ġun t
ĠCh an
ĠVen ice
Ġmer ging
Ġreson ances
ĠEag le
Ġstake holders
avor ite
Ġenc ounters
DOCK ED
st re
Ġaffili ated
ĠI v
approp riate
U r
ĠMun ich
ĠF T
W O
22 8
ĠTri al
T er
SU PP
Ġinterview ed
Ġsacr ifice
Initial ize
rid or
Ġl apt
ĠSet up
Annot ations
od ium
b ias
Log ging
s napshot
roll ment
inter faces
Ġque en
ĠJ et
ĠClark e
Ø ¹
ĠGu id
w ould
ĠB ent
Rep ublic
ĠProject s
ĠFour th
Ġ ub
Ġvirt ue
ĠP ool
ĠF resh
AN GE
D eg
Ġearn ings
effect s
ev es
Ġdam ages
Ġnew est
comp any
ĠTh ai
hem atic
); \
back up
Ġsever ely
Character Offset
Ġhaz ard
ian e
elling ton
ĠK or
z b
> ",
ĠVAL UES
Ġb out
ĠM az
Ġb ail
Ġshe af
oper ations
ĠDes ert
ÑĢ Ð¸
Initial ized
}$ \\
ĠNor folk
V ers
Ġhapp iness
key words
Ġcr uel
Ġacceler ated
m and
Ġion ization
ĠShang hai
ĠAmb assador
} ],
S printf
ĠRem ote
Ġoverl apping
Ġinv ite
ĠC incinnati
Ġdis hes
ĠCh uck
Ġs ax
ĠB udget
Ġlater al
br is
ĠSaf ari
Whe ther
8 50
sm ash
Ġcelebr ity
Ġsleep ing
Ġcust ody
olog ic
ri eve
ĠPo etry
Ġle pton
ited efault
mc itedefault
Ġtermin ology
or um
Ġl ob
che z
Ġid s
ĠS ed
Rev ision
triangle q
Ġcreat ivity
Ġsp ans
Ġpos es
itor ies
Ġview er
ĠRel igion
M ex
Ġp unch
is cher
K w
ourn aments
Ð½ Ð¸
ena issance
emph asis
if ully
comm ended
Ġprest igious
navBar Cell
.\ ,\
arc sec
Ġrecip ients
Ġrevers ed
Ġspectro scopy
act ivate
ĠBan ach
C ached
ĠSol id
ag le
Ġconsult ation
S ys
s izing
uis ine
Ø ©
Ġco ordination
AR S
be k
ĠPresident ial
ĠFI LE
ot yp
MP TY
NAME SPACE
Ġj ack
Ġrec urrent
Ġauthent ic
Ġc her
Ġcomp ares
ĠAdd s
s id
| <
rm k
ĠChem ical
ĠV ers
ism iss
ĠIns ert
å ½
ur as
are l
Perm alink
Afr ican
Ġreven ge
Ġdis charge
ĠE sc
ĠEv il
categor ized
Ġthro at
R N
S and
tr ust
ĠBr is
Ġcor ollary
Ġarg v
Ġmark ing
Ġcorpor ations
un ov
HO W
24 8
Ġab ort
Des cript
M Y
Ġinter rupt
bas eline
m ine
ĠElect ronic
ĠLook ing
l is
ĠNew castle
aut om
Ġdon ation
preced ented
Ġbow l
ĠR G
Ġleg ally
Process ing
ĠJam ie
/ %
Ġcont amination
Ġexperi encing
Ġf aint
Ġdr one
x l
Ġtr agedy
ĠLet ters
ĠH ey
spec ially
Ġcryst all
ĠBry an
Ġad res
Ġm arijuana
Ġback wards
Le ague
id is
f air
Ge org
Ġmer chant
Ġpat ron
equival ent
ĠH ubble
Bo ard
Ġalt itude
Ġn aming
eg el
Ġd ign
Ġshe ep
ĠFlore nce
Reg ex
Br anch
ĠR AM
ĠW it
ft en
ole v
loc ations
ĠÎ ±
ell ite
ç± »
N othing
Instance Of
~~~~~~~~ ~~~~~~~~
Ġt v
A WS
Ġign oring
Ġeth ics
F it
' /
V oid
co ins
parent s
ĠSD K
ĠStart ing
ĠTre nd
Ġh orm
Ġll vm
Ġmin eral
pare n
= </
ĠM ask
Recorded Vote
Ġiter ate
comm end
DE CL
ew ard
ll a
ĠGroup s
Ġoblig ations
Ġdemand ed
ĠO z
Ġkinem atic
Ġp tr
ĠDe ut
ĠDirect ors
Look ing
Ðµ Ð»
Ġstrugg led
Ġridic ulous
Ġclass ify
ing ale
Ġdes erves
inv est
to k
Ġcert ification
. }}
q w
B LE
Ġo d
aw i
sche dule
w ent
est e
st y
Ġland mark
æ Ŀ
cri ber
) }}{
d iamond
Ġsignal ing
ĠS ey
Ġmass less
Dis patcher
R P
Con current
ĠA uckland
Ġgl uon
i ological
or ption
l ayers
av o
comm unity
Ġbeat en
Ġanisot ropy
Ġsc anning
ĠPlay Station
ĠChap el
CP U
Ġpe aceful
ĠHol iday
im uth
ynam ical
std out
ĠPop ular
Suppress Warnings
ĠP ub
77 7
Ġclick ing
ĠG em
ĠTOD AY
Imm utable
ĠK nown
eleb rities
Ġdirect ive
ys ide
aster y
TE GER
plic a
Ġrespect ed
J D
ad joint
ĠÐ ±
ĠTag ged
APPL ICATION
ĠLe eds
El se
ĠC ities
LE VEL
ĠD eleg
Ġkn ife
mod es
Ġill um
b eck
ĠP ul
Ġmicro scopic
18 1
Ġbes ide
Ġins ufficient
Ġnormal ize
ĠG auss
the m
Ġmon omial
Eval uation
t om
18 87
Ġshock ed
Ġor chestr
23 7
has OwnProperty
6 40
18 61
Ġh i
e as
per ed
Ġdepict s
ob ic
Block Index
v id
ang ered
ĠBudd hist
Ġc ere
ocom plete
ĠH amb
Ġro d
depend ence
ĠM OD
ĠMil waukee
Ġinject ed
R B
Ġn inth
18 86
ĠM AC
ct uary
Ġrele g
year s
Ġcast ing
Inv oke
ĠC MB
bal anced
ĠK lein
ĠM aced
Ġfix es
Ġant is
ĠBer ry
ore n
ĠTh ir
sw ift
ãĢ ģ
Ġastr onom
] /
Ġfin est
G UI
= /
Ġtimes cale
Ġparamet ric
m ong
n or
Ġde ple
ĠSw an
ĠOt tawa
Ġa thlete
conver gence
bor o
et ype
Ġconfer ences
Ġm aker
ĠG az
Ġamb itious
Ġspace craft
[ ],
26 5
Ġbreed ing
ãĤ ĭ
00 9
Ġexp ose
ĠBro s
Comm un
B ERT
Sh op
Linear Layout
A W
k j
Ġposition ed
erc ise
Ġrig orous
Ġacc us
ices ter
Ġab oard
Ġint ro
aceut ical
ĠG Hz
Ġpath ways
ãĤ ¹
ig ating
ist on
Ġ... ,
> -
ag ine
Ġj er
p unct
Ġinv ented
Ġemer gence
Ġl ighter
ĠBrad ley
w b
ins ki
Ġconsult ant
Ġf u
Ġperform ers
z ig
ĠBr andon
r ice
Un fortunately
mat ched
ĠR af
è §
ĠP ush
Ġcur ved
Ġ" (
ys on
Ġhon ored
Ġlabel ing
pr im
Ġn ec
ĠS TE
ĠB UT
Ġcelebr ating
Ġen rolled
18 64
Ġcirc ulation
Ġtheore ms
r ison
raw l
Ġyield ing
n ai
Ġsepar able
in j
Ġf idelity
ĠD h
Ġgame play
Ġpsy chiat
+ {\
ish i
iv ially
}= -\
Pred icate
Qu ote
cur r
ig rated
USE D
L es
Ġca ution
ï¼ ļ
A IN
ĠT all
Ġg ods
Ġcomp rom
user Id
dim en
ac i
Ġdis h
Ġdefe ating
Ġ} ));
oin ters
ĠSy ntax
Ġchampionship s
Ġpublisher s
ĠExcell ence
^* $.
m ess
Ġdomin ates
ĠElect ron
Ġcov ariant
Ġo w
ĠN om
Ġhistor ians
4 20
co eff
T unes
Ġtrans cription
ograph s
norm als
Ġt ier
Ġmut ations
Ġin tra
ORM AL
ĠT ang
ĠLuc y
s ampling
ĠW ag
\% .
0 20
ĠHe ights
v ariant
Prot otype
> ("
str ategy
ĠDis cussion
s uggest
è ¦
ann i
Ġche er
ĠEV ENT
P F
er als
Ġlif ting
m otion
Serial izable
Ġre ver
S aint
][ "
Ġdemonstr ating
A CTION
Ġcontribut ors
ĠId entity
ici ary
clos ing
Ġbath room
Ġm anga
Ġreg iment
R U
Ġdiff use
B at
p ick
ric ia
ĠÃ Ĺ
9 11
ne um
IT S
Ġmed ic
)}\ \
Ġun set
Ġcou p
F all
al am
rec ords
P in
Ġdegrad ation
Ġsla very
ĠThrough out
oca ust
Ġt witter
Ġdraw ings
Ġtri ang
IS A
ĠCoal ition
Ġcomp romise
xx x
K now
Ġdef ender
plement ary
Ġtax p
Man ifest
Ð ¡
ĠRe id
ĠAtt ack
feed back
\ },\
eg en
Ġexpress ing
ĠLaw s
rele ased
Ġplanet ary
ĠVol unte
Ġse am
ĠEn cycl
he y
ĠI EEE
type param
Ġflat ten
' ><
ĠW ords
ĠSc ene
Ġnon negative
ĠAss essment
it les
ed e
Ġn est
if fin
TE X
ac s
ĠI g
Ġsp are
in tr
Type Name
sim pl
In side
Ġdupl icate
ol ith
Ġfor bidden
ĠZ ion
Ext ended
$ _\
Ġfac ial
jo ys
Ġgener a
ĠZ end
ĠIs aac
ĠPalest ine
W ood
-> {
sh ake
ĠJo an
verb atim
ĠPen insula
r us
Ġsl opes
22 9
Ġse al
}} }(
ĠPO ST
Ġet ern
Ġm ines
ĠM W
Col lege
âĨ ĳ
Ġmonot one
< >(
s and
Ġm aj
Ex perimental
ĠHe ader
Ġmart ial
ĠEthiop ia
Ġnecess ity
Ġsport ing
Ġspecific ations
Ġpresum ably
Ã ¯
Ġ// !
Ġed itions
ĠJosh ua
d ummy
char set
is Array
Ġp he
get Data
23 9
S aturday
in as
b il
Ð½ Ð¾
L ef
w ear
Ġfor ty
Ġshow case
E O
t ro
ĠB ullet
Ġphot ometry
Ġp ause
Ġpurs uit
Ġf ade
ĠU C
min o
Ġarg uing
c ro
j ab
Ġf ights
ĠS FR
Ġv el
oc cup
ĠAdvis ory
H AL
ĠRob ot
Ġimplicit ly
mu x
hel m
Ġthreat ening
ĠS cale
GL enum
constr ained
Ġ ĉĉ
ĠO wen
big cap
Ġre forms
Ġex otic
ĠMer cedes
g reat
en i
ob server
ĠNAT O
m aml
Ġop am
Or g
ram id
ĠSher iff
ut ations
Ġexc av
p romise
Ġl y
> ";
B all
Ġmet als
ch rom
rest rial
C pp
Ġw reck
read ing
Ġremind ed
ĠSub ject
Py thon
d ar
Ġconvent ions
ĠS aw
oph one
l Vert
ĠB ever
author ized
ĠH us
bm p
ĠCr isis
Ġ< ![
W rong
c rop
Ġto mb
se mi
Ġres cal
Ġout flow
CM C
Ġf ab
Sh ift
string ify
At l
w m
x b
Ġb a
Ġap ple
l ord
S ta
Ġpreval ence
ĠD eveloper
19 1
Ġsurg ical
Ġsever ity
24 7
- ,
om al
ĠE g
Ġterm ination
Ġanaly tically
Ġste ering
ĠEll is
th ink
Ġviol ated
ĠDev on
H W
ĠC rystal
Ġappreci ated
ĠH ugh
G I
K EN
se g
ĠHe ath
add on
ä ¹
Arch ive
ĠESP N
fl ash
: @
Ġvill ain
æ Ķ
Ġtour ing
Ġb ush
Ġdig est
ĠAnn iversary
Ġrect angular
WARN ING
Ġm eg
Tr avel
ĠDir ichlet
C ss
ent ities
Ġsumm ation
in z
[...]
