{"[UNK]":0,"!":1,"\"":2,"#":3,"$":4,"%":5,"&":6,"'":7,"(":8,")":9,"*":10,"+":11,",":12,"-":13,".":14,"/":15,"0":16,"1":17,"2":18,"3":19,"4":20,"5":21,"6":22,"7":23,"8":24,"9":25,":":26,";":27,"<":28,"=":29,">":30,"?":31,"@":32,"A":33,"B":34,"C":35,"D":36,"E":37,"F":38,"G":39,"H":40,"I":41,"J":42,"K":43,"L":44,"M":45,"N":46,"O":47,"P":48,"Q":49,"R":50,"S":51,"T":52,"U":53,"V":54,"W":55,"X":56,"Y":57,"Z":58,"[":59,"\\":60,"]":61,"^":62,"_":63,"`":64,"a":65,"b":66,"c":67,"d":68,"e":69,"f":70,"g":71,"h":72,"i":73,"j":74,"k":75,"l":76,"m":77,"n":78,"o":79,"p":80,"q":81,"r":82,"s":83,"t":84,"u":85,"v":86,"w":87,"x":88,"y":89,"z":90,"{":91,"|":92,"}":93,"~":94,"¡":95,"¢":96,"£":97,"¤":98,"¥":99,"¦":100,"§":101,"¨":102,"©":103,"ª":104,"«":105,"¬":106,"®":107,"¯":108,"°":109,"±":110,"²":111,"³":112,"´":113,"µ":114,"¶":115,"·":116,"¸":117,"¹":118,"º":119,"»":120,"¼":121,"½":122,"¾":123,"¿":124,"Â":125,"Ã":126,"Ä":127,"Å":128,"Æ":129,"Ç":130,"È":131,"É":132,"Ê":133,"Ë":134,"Ì":135,"Í":136,"Î":137,"Ï":138,"Ð":139,"Ñ":140,"Ò":141,"Ó":142,"Ô":143,"Õ":144,"Ö":145,"×":146,"Ø":147,"Ù":148,"Ú":149,"Û":150,"Ü":151,"Ý":152,"Þ":153,"ß":154,"à":155,"á":156,"â":157,"ã":158,"ä":159,"å":160,"æ":161,"ç":162,"è":163,"é":164,"ê":165,"ë":166,"ì":167,"í":168,"î":169,"ï":170,"ð":171,"ñ":172,"ò":173,"ó":174,"ô":175,"Ā":176,"ā":177,"Ă":178,"ă":179,"Ą":180,"ą":181,"Ć":182,"ć":183,"Ĉ":184,"ĉ":185,"Ċ":186,"ċ":187,"Č":188,"č":189,"Ď":190,"ď":191,"Đ":192,"đ":193,"Ē":194,"ē":195,"Ĕ":196,"ĕ":197,"Ė":198,"ė":199,"Ę":200,"ę":201,"Ě":202,"ě":203,"Ĝ":204,"ĝ":205,"Ğ":206,"ğ":207,"Ġ":208,"ġ":209,"Ģ":210,"ģ":211,"Ĥ":212,"ĥ":213,"Ħ":214,"ħ":215,"Ĩ":216,"ĩ":217,"Ī":218,"ī":219,"Ĭ":220,"ĭ":221,"Į":222,"į":223,"İ":224,"ı":225,"Ĳ":226,"ĳ":227,"Ĵ":228,"ĵ":229,"Ķ":230,"ķ":231,"ĸ":232,"Ĺ":233,"ĺ":234,"Ļ":235,"ļ":236,"Ľ":237,"ľ":238,"Ŀ":239,"ŀ":240,"Ł":241,"ł":242,"Ń":243,"ĠĠ":244,"Ġt":245,"in":246,"ĠĠĠĠ":247,"he":248,"Ġa":249,"on":250,"er":251,"re":252,"at":253,"Ġthe":254,"en":255,"or":256,"Ġs":257,"al":258,"es":259,"it":260,"is":261,"an":262,"Ġc":263,"ar":264,"Ġo":265,"ion":266,"Ġw":267,"ed":268,"Ġf":269,"le":270,"Ġp":271,"ing":272,"Ġb":273,"nd":274,"ic":275,"ro":276,"Ġin":277,"Ġof":278,"as":279,"ĠĠĠ":280,"ĠĠĠĠĠĠĠĠ":281,"Ġd":282,"Ġm":283,"et":284,"ou":285,"ct":286,"Ġand":287,"Ġto":288,"ent":289,"el":290,"st":291,"Ġ\\":292,"am":293,"il":294,"om":295,"Ġh":296,"Ġth":297,"Ġ$":298,"Ġre":299,"ig":300,"Ġn":301,"ation":302,"im":303,"ac":304,"id":305,"ol":306,"ot":307,"Ġ(":308,"Ġe":309,"ĠS":310,"Ġl":311,"ĠT":312,"ut":313,"ur":314,"iv":315,"se":316,"Ġis":317,"ĠC":318,"ĠA":319,"ad":320,"ul":321,"Ġg":322,"ĠĠĠĠĠĠĠ":323,"ce":324,"Ġfor":325,"ow":326,"âĢ":327,"od":328,"Ġ=":329,"ĠI":330,"ay":331,"ly":332,"if":333,"ag":334,"ab":335,"Ġon":336,"em":337,"tr":338,"ĠM":339,"ch":340,"us":341,"ver":342,"un":343,"um":344,"qu":345,"{\\":346,"ter":347,"Ġbe":348,"ith":349,"ĉĉ":350,"čĊ":351,"ap":352,"</":353,"ir":354,"ĠP":355,"Ġthat":356,"Ġcon":357,"ate":358,"ĠB":359,"Ġv":360,"=\"":361,"pe":362,"ht":363,"th":364,"Ġst":365,"20":366,"Ġas":367,"end":368,"ction":369,"av":370,"Ġwith":371,"ex":372,");":373,"est":374,"ers":375,"--":376,"oc":377,"ĠR":378,"ĠF":379,"res":380,"ĠD":381,"Ġ<":382,"Ġal":383,"ĠH":384,"ath":385,"her":386,"Ġ{":387,"and":388,"Ġan":389,"Ġpro":390,"up":391,"_{":392,"ass":393,"ist":394,"ĠL":395,"ew":396,"op":397,"ess":398,"eg":399,"ain":400,"ĠThe":401,"ub":402,"os":403,"ĠW":404,"ĠN":405,"ĠĠĠĠĠĠĠĠĠĠĠ":406,"Ġit":407,"ity":408,"Ġwh":409,"Ġ$\\":410,"our":411,"Ġby":412,"Ġex":413,"pt":414,"//":415,"ĠG":416,"ore":417,"ame":418,"rom":419,"Ġde":420,"ight":421,"Ġ&":422,"ĠE":423,"ort":424,"Ġr":425,"Ġcom":426,"pl":427,"ri":428,"art":429,"Ġat":430,"Ġ*":431,"ine":432,"ure":433,"Ġy":434,"ill":435,"Ġare":436,"math":437,"ue":438,"ect":439,"Ġcl":440,"age":441,"all":442,"Ġ\"":443,"ak":444,"ies":445,"Ġwas":446,"Ġ}":447,"Ġor":448,"Ġwe":449,"ref":450,"ment":451,"ial":452,"ive":453,"Ġthis":454,"ant":455,"19":456,"ĠĊ":457,"âĢĻ":458,"Ġhe":459,"Ġfrom":460,"Ġse":461,"ext":462,"iz":463,"og":464,"\">":465,"ld":466,"ge":467,"nt":468,"ĠO":469,"ud":470,"cl":471,"ack":472,"..":473,"ite":474,"ult":475,"ib":476,"ĠĠĠĠĠĠĠĠĠĠĠĠĠĠĠĠ":477,"}\\":478,"ĠJ":479,"per":480,"Ġtr":481,"ans":482,"}$":483,"^{":484,"con":485,"ph":486,"port":487,"orm":488,"The":489,"act":490,"ef":491,"Ġsh":492,"ĠĠĠĠĠ":493,"00":494,"ave":495,"able":496,"urn":497,"Ġnot":498,"ell":499,"Ġch":500,"ust":501,"sp":502,"und":503,"ma":504,"int":505,"ber":506,"ip":507,"ard":508,"()":509,"Ġ-":510,"ated":511,"201":512,"ov":513,"are":514,"ary":515,"Ġk":516,"ĠU":517,"ich":518,"ft":519,"ign":520,"ff":521,"Ġle":522,"ition":523,"Ġclass":524,"ace":525,"ical":526,"Ġif":527,"ĠâĢ":528,"ind":529,"pro":530,"ep":531,"ast":532,"**":533,"ase":534,"out":535,"}}":536,"com":537,"ost":538,"fr":539,"(\\":540,"'s":541,"ang":542,"ode":543,"ord":544,"to":545,"ug":546,"ire":547,"ime":548,"ype":549,"Ġcan":550,"text":551,"Ġcomp":552,"ens":553,"Ġhave":554,"ĠK":555,"ide":556,"Ġus":557,"),":558,"turn":559,"egin":560,"ong":561,"get":562,"ta":563,"str":564,"In":565,"begin":566,"cal":567,"==":568,"ĠIn":569,"ok":570,"ence":571,"ia":572,"Ġpl":573,"ile":574,"ork":575,"Ġ'":576,"----":577,"ations":578,"ice":579,"Ġwhe":580,").":581,"Ġall":582,"Ġres":583,"cc":584,"ould":585,"ata":586,"li":587,"ild":588,"ions":589,"Ġj":590,"_{\\":591,")$":592,"equ":593,"form":594,"ĠV":595,"ance":596,"ey":597,"ec":598,"Ġwhich":599,"Ġab":600,"erv":601,"Ġim":602,"Ġhas":603,"Ġyou":604,"ear":605,"ject":606,"Ġun":607,"ther":608,"du":609,"},":610,"Ġad":611,"Ġdis":612,"ubl":613,"ĠĠĠĠĠĠĠĠĠĠĠĠĠĠĠ":614,"Ġap":615,"}{":616,"ach":617,"use":618,"row":619,"so":620,"ous":621,"abel":622,"ener":623,"unction":624,"ev":625,"ra":626,"ory":627,"fig":628,"eq":629,"Ġ+":630,"Ġar":631,"Ġ[":632,"ob":633,"right":634,"ĠSt":635,"frac":636,"10":637,"Ġnew":638,"enc":639,"ĠTh":640,"ress":641,"ents":642,"alue":643,"fer":644,"ian":645,"Ġstr":646,"eta":647,"Ġreturn":648,"Ġhis":649,"cite":650,"over":651,"own":652,"ik":653,"Ġcont":654,"ome":655,"oll":656,"Ġwill":657,"one":658,"ll":659,"cri":660,"ock":661,"ple":662,"ert":663,"the":664,"ublic":665,"ĉĉĉĉ":666,"ere":667,"Ġ//":668,"Ġone":669,"ound":670,"Ġbut":671,"mathb":672,"Ġme":673,"ource":674,"Ġ</":675,"Ġout":676,"set":677,"../":678,"::":679,"ose":680,"aram":681,"Ġ|":682,"label":683,"ree":684,"ors":685,"ual":686,"Ġdo":687,"Con":688,"rm":689,"ps":690,"old":691,"ark":692,"->":693,"200":694,"ĠCh":695,"ely":696,"Ġsp":697,"irst":698,"Ġup":699,"ize":700,"Ġsu":701,"erm":702,"ink":703,"elf":704,"Ġqu":705,"Ġpart":706,"clud":707,"ull":708,"âĢĿ":709,"ict":710,"Ġob":711,"tern":712,"Ġev":713,"pect":714,"iel":715,"che":716,"Ġmod":717,"St":718,"ook":719,"sum":720,"Ġalso":721,"ates":722,"ry":723,"we":724,"$,":725,"Ġtheir":726,",\\":727,"wo":728,"$.":729,"Ġset":730,"rap":731,"ount":732,"te":733,"left":734,"Ġdef":735,"Ġ@":736,"\",":737,"iew":738,"Ġro":739,"ics":740,"ish":741,"div":742,"mathcal":743,"eth":744,"ption":745,"Ġpr":746,"yst":747,"ield":748,"ake":749,"ick":750,"Ġfunction":751,"Ġ/":752,"inal":753,"put":754,"}.":755,"ss":756,"Ġwere":757,"oint":758,"Ġmore":759,"line":760,"ĠY":761,"ray":762,"Ġint":763,"equation":764,"ml":765,"ck":766,"Ġper":767,"cre":768,"})":769,"Ġpre":770,"lect":771,"Ġthey":772,"ari":773,"ail":774,"mer":775,"Ġother":776,"rit":777,"Ġso":778,"ings":779,"(\"":780,"essage":781,"sh":782,"Ġover":783,"Ex":784,"12":785,"Ġen":786,"Ġits":787,"ystem":788,"Ġman":789,"ix":790,"}(":791,"~\\":792,"18":793,"pr":794,"Ġtime":795,"();":796,"Ġget":797,"Ġne":798,"Ġag":799,"Ġinter":800,"}^":801,"pec":802,"span":803,"></":804,"roup":805,"mb":806,"',":807,"}_":808,"Ġ.":809,"Ġver":810,"amb":811,"umber":812,"ool":813,"ular":814,"les":815,"Ġdes":816,"Ġfirst":817,"Ġtwo":818,"Ġwho":819,"pos":820,"ood":821,"ĠIt":822,"Ġwork":823,"ng":824,"ne":825,"ond":826,"ax":827,"aw":828,"><":829,"pha":830,"trib":831,"of":832,"Ġbeen":833,"imes":834,"cent":835,"err":836,"ator":837,"Ġany":838,"Ġpublic":839,"Ġher":840,"app":841,"ution":842,"tring":843,"ĠâĢľ":844,"iss":845,"ty":846,"ater":847,"ays":848,"fter":849,"Ġ:":850,"Ġwhen":851,"--------":852,"alpha":853,"Ġour":854,"da":855,"../../":856,"ie":857,"hat":858,"Ġabout":859,"Ġthere":860,"ied":861,"raph":862,"Ġname":863,"igh":864,"Ġhad":865,"uct":866,"Ġte":867,"ĠWe":868,"sub":869,"ollow":870,"ative":871,"vel":872,"ons":873,")\\":874,"ific":875,"ove":876,"Ġresult":877,"Ġonly":878,"ĠUn":879,"ys":880,"Ġbet":881,"Ġsup":882,"Ġthan":883,"$\\":884,"hed":885,"ram":886,"lo":887,"Ġdif":888,"ational":889,"11":890,"Ġsub":891,"ER":892,"Ġdata":893,"Pro":894,"Ġund":895,"Ġinto":896,"round":897,"ient":898,"name":899,"ange":900,"ve":901,"ox":902,"Ġtrans":903,"Ġsome":904,"arg":905,"Ġwhere":906,"elta":907,"oug":908,"ĠThis":909,"ĉĉĉ":910,"====":911,"anc":912,"Ġ*/":913,"ĠHe":914,"io":915,"Ġyear":916,"ise":917,"ms":918,"))":919,"ambda":920,"Ġadd":921,"ĠâĢĵ":922,"html":923,"idth":924,"oid":925,"col":926,"ĠĠĠĠĠĠĠĠĠ":927,"lation":928,"Ġline":929,"ann":930,"ethod":931,"ĠĠĠĠĠĠĠĠĠĠĠĠĠĠĠĠĠĠĠ":932,"Ġreg":933,"oot":934,"ike":935,"ugh":936,"ating":937,"Ġind":938,"Ġwould":939,"ont":940,"Ġcomm":941,"Ġsc":942,"Ġfollow":943,"****":944,"Ġacc":945,"oun":946,"Ġcons":947,"ues":948,"Ġno":949,"Ġi":950,"Ġhref":951,"ased":952,"Ġmodel":953,"mathbb":954,"Ġpos":955,"Ġ#":956,"16":957,"Ġkn":958,"Ġcol":959,"Ġbl":960,"Ġsuch":961,"resent":962,"ON":963,"('":964,"let":965,"15":966,"_\\":967,"lement":968,"Ġ\\\\":969,"trans":970,"amma":971,"Ġthen":972,"Ġpe":973,"source":974,"eng":975,"ade":976,"tain":977,"als":978,"atic":979,"Ġvalue":980,"this":981,"=\\":982,"yn":983,"Ġtype":984,"ility":985,"urre":986,"atch":987,"td":988,"Ġform":989,"ally":990,"Ġoff":991,"dot":992,"message":993,"IN":994,"Ġshow":995,"cript":996,"ute":997,"arch":998,"olog":999,"ople":1000,"}_{":1001,"Ġuse":1002,"der":1003,"def":1004,"Ġsim":1005,"mu":1006,"Ġrel":1007,"Th":1008,"Ġass":1009,"ident":1010,"ars":1011,"Ġgener":1012,"ures":1013,"}^{":1014,"its":1015,"Name":1016,"igma":1017,"Ġfe":1018,"Ġend":1019,"Ġph":1020,"Ġunder":1021,"Ġact":1022,"uild":1023,"ider":1024,"Ġplay":1025,"ities":1026,"ible":1027,"ember":1028,"bar":1029,"://":1030,"Ġfl":1031,"Ġinclud":1032,"ega":1033,"ames":1034,"ning":1035,"Ġdiffer":1036,"Ġ=>":1037,"ween":1038,"Ġshe":1039,"aid":1040,"tt":1041,"sc":1042,"dd":1043,"__":1044,"ower":1045,"oy":1046,"Ġcor":1047,"ward":1048,"cess":1049,"We":1050,"cond":1051,"ince":1052,"-\\":1053,"Ġco":1054,"ho":1055,"ble":1056,"Type":1057,"oth":1058,"ash":1059,"alse":1060,"Ġinv":1061,"ĠCom":1062,"Ġprov":1063,"ement":1064,"ined":1065,"Ġyour":1066,"Id":1067,"Ġrequ":1068,"red":1069,"ature":1070,"import":1071,"ĠPro":1072,"min":1073,"ĠSe":1074,"param":1075,"13":1076,"ton":1077,"Ġloc":1078,"amp":1079,"Ġop":1080,"phi":1081,"Ġ||":1082,"Ġconst":1083,"ices":1084,"br":1085,"Ġused":1086,"^{\\":1087,"section":1088,"item":1089,"Ġthese":1090,"Ġthem":1091,"14":1092,"Ġgo":1093,"Ġbetween":1094,"Ġmay":1095,"RE":1096,"plic":1097,"ced":1098,"align":1099,"code":1100,"Ġx":1101,"ited":1102,"ST":1103,"Ġrec":1104,"mathbf":1105,"ner":1106,"ank":1107,"Ġback":1108,"ious":1109,"Ġcase":1110,"not":1111,"...":1112,"irect":1113,"Ġsystem":1114,"Ġequ":1115,"lambda":1116,"rough":1117,"Ġeach":1118,"Ġafter":1119,"String":1120,"##":1121,"ead":1122,"ery":1123,"land":1124,"ause":1125,"199":1126,"17":1127,"part":1128,"Ġpol":1129,"Ġrem":1130,"Com":1131,"\\!":1132,"Ġel":1133,"air":1134,"ivers":1135,"pi":1136,"Ġspec":1137,"25":1138,"ĠAr":1139,"Ġlike":1140,"Ġgiv":1141,"ts":1142,"read":1143,"ctions":1144,"Ġfil":1145,"ting":1146,"return":1147,"/>":1148,"Ġpoint":1149,"Ġnumber":1150,"bf":1151,"Ġself":1152,"orld":1153,"Res":1154,"ins":1155,"Ġcall":1156,"ĠNew":1157,"urrent":1158,"Ġstud":1159,"Ġeff":1160,"Ġent":1161,"Ġ{\\":1162,"ized":1163,"AT":1164,"var":1165,"ists":1166,"ily":1167,"ages":1168,"uth":1169,"Ġsm":1170,"mod":1171,"Ġval":1172,"Ġmost":1173,"ough":1174,"abl":1175,"Ġinst":1176,"Ġever":1177,"Ġ`":1178,"Ġprodu":1179,"Ġhow":1180,"ences":1181,"Ġpeople":1182,"reat":1183,"Ġam":1184,"Ch":1185,"uring":1186,"class":1187,"here":1188,"ier":1189,"add":1190,"htt":1191,"ĠAl":1192,"pon":1193,"fl":1194,"ault":1195,"ache":1196,"ric":1197,"ines":1198,"ask":1199,"vent":1200,"apt":1201,"ilon":1202,"Ġbec":1203,"bl":1204,"Ġjust":1205,"\"/>":1206,"Ġac":1207,"ĠFor":1208,"ample":1209,"30":1210,"ĠQ":1211,"Ġgr":1212,"ym":1213,"son":1214,"Ġwhat":1215,"ral":1216,"âĢĵ":1217,"Ġ--":1218,"Ġthrough":1219,"translation":1220,"for":1221,"Ġcre":1222,"Ġchar":1223,"Ġwell":1224,"sigma":1225,"\\\\":1226,"Ġsaid":1227,"Cl":1228,"Ġ>":1229,"type":1230,"Ġsol":1231,"sion":1232,"Ġ!":1233,"Ġsign":1234,"Ġmy":1235,"be":1236,"serv":1237,"yle":1238,"Ġsee":1239,"beta":1240,"Ġ_":1241,"ments":1242,"Ġusing":1243,"}{\\":1244,"par":1245,"ization":1246,"press":1247,"itle":1248,"ument":1249,"List":1250,"angle":1251,"Ġvari":1252,"Ġneed":1253,"val":1254,"ception":1255,"Ġdifferent":1256,"width":1257,"wn":1258,"ilde":1259,"eps":1260,"aramet":1261,"ever":1262,"^{-":1263,"AR":1264,"ule":1265,"hen":1266,"ished":1267,"array":1268,"ote":1269,"ĠTr":1270,"Ġsame":1271,"gy":1272,"Ġtest":1273,"man":1274,"loc":1275,"Ġ(\\":1276,"meric":1277,"It":1278,"formation":1279,"mathrm":1280,"*}":1281,"Ġserv":1282,"ole":1283,"):":1284,"view":1285,"back":1286,"work":1287,"uch":1288,"Ar":1289,"OR":1290,"Ġappro":1291,"fo":1292,"yp":1293,"Ġhim":1294,"ren":1295,"org":1296,"Ġrep":1297,"Ġ)":1298,"Ġatt":1299,"self":1300,"Ġoper":1301,"ww":1302,"ĠSh":1303,"ĠZ":1304,"ision":1305,"Ġerr":1306,"oci":1307,"ful":1308,"ason":1309,"Ġ==":1310,"orn":1311,"]{":1312,"+\\":1313,"ser":1314,"any":1315,"ee":1316,"Ġmon":1317,"ically":1318,"ength":1319,"ets":1320,"Ġfield":1321,"ivate":1322,"Ġest":1323,"pre":1324,"Ġmin":1325,"Ġmethod":1326,"ces":1327,"ĠAs":1328,"Ġnull":1329,"Ġcould":1330,"log":1331,"Ġorg":1332,"Ġshould":1333,"LE":1334,"gamma":1335,"figure":1336,"Ġbr":1337,"ĠCon":1338,"Ġem":1339,"ism":1340,"Ġagain":1341,"ĠX":1342,"Ġstate":1343,"Ġtrue":1344,"ĠCl":1345,"Ġsur":1346,"Ġnon":1347,"Tr":1348,"Ġnow":1349,"Ġstart":1350,"Ġhigh":1351,"22":1352,"Ġed":1353,"co":1354,"'t":1355,"ĠĠĠĠĠĠĠĠĠĠĠĠĠĠĠĠĠĠĠĠĠĠĠĠĠĠĠĠĠĠĠĠ":1356,"^\\":1357,"Ġgroup":1358,"ah":1359,"000":1360,"Ġmat":1361,"Ġboth":1362,"50":1363,"ife":1364,"Ġext":1365,"iver":1366,"Ġevery":1367,"Ġfinal":1368,"ired":1369,"ody":1370,"\"><":1371,"lection":1372,"ern":1373,")}":1374,"chool":1375,"ID":1376,"To":1377,"az":1378,"Ġpartic":1379,"cept":1380,"Ġfalse":1381,"Ġlong":1382,"ĠAn":1383,"umn":1384,"Ġright":1385,"Ġser":1386,"uc":1387,"try":1388,"theta":1389,"Ġvar":1390,"uss":1391,"ted":1392,"fore":1393,"ten":1394,"Ġwhile":1395,"leq":1396,"SS":1397,"delta":1398,"Ref":1399,"Ġvoid":1400,"Ġdet":1401,"Ġgiven":1402,"by":1403,"Ġyears":1404,"Ġfound":1405,"Ġfact":1406,"me":1407,"arget":1408,"cdot":1409,"rho":1410,"24":1411,"EN":1412,"hip":1413,"eqref":1414,"Ġz":1415,"ĠĠĠĠĠĠĠĠĠĠĠĠĠ":1416,"ases":1417,"other":1418,"includ":1419,"aking":1420,"21":1421,"ternal":1422,"Ġdoes":1423,"perty":1424,"ency":1425,"rr":1426,"Ġbeing":1427,"$-":1428,"Ġorder":1429,"Ġdr":1430,"ĠEx":1431,"Ġdec":1432,"new":1433,"erson":1434,"tau":1435,"ĠĠĠĠĠĠ":1436,"Ġread":1437,"Ġperform":1438,"big":1439,"way":1440,"AL":1441,"Ġdisc":1442,"pm":1443,"ek":1444,"els":1445,"}$,":1446,"Ġterm":1447,"ential":1448,"oh":1449,"Ġcent":1450,"ger":1451,"ify":1452,"string":1453,"ants":1454,"action":1455,"Ġmany":1456,"}$.":1457,"Ġfollowing":1458,"ared":1459,"irc":1460,"Ġopt":1461,"ream":1462,"ather":1463,"Ġknow":1464,"uff":1465,"Ġlist":1466,"Ġsecond":1467,"times":1468,"Ġbel":1469,"ots":1470,"ality":1471,"Ġbecause":1472,"Ġeven":1473,"pend":1474,"\")":1475,"For":1476,"iversity":1477,"}(\\":1478,"sec":1479,"Ġexper":1480,"32":1481,"Ġelse":1482,"ross":1483,"Ġthree":1484,"ified":1485,"ĠAmeric":1486,"bject":1487,"\");":1488,".,":1489,"ele":1490,"ouse":1491,"Ġconsider":1492,"198":1493,"Ġhand":1494,"Ġmake":1495,"play":1496,"ense":1497,"arrow":1498,"Ġlead":1499,"sy":1500,"rol":1501,"ron":1502,"Ġfind":1503,"day":1504,"raw":1505,"face":1506,"Ġbefore":1507,"Ġvery":1508,"ava":1509,"ional":1510,"ively":1511,"ils":1512,"As":1513,"ology":1514,"data":1515,"ccess":1516,"ters":1517,"Ġsing":1518,"ĠIf":1519,"af":1520,"ale":1521,"itions":1522,"----------------":1523,"rop":1524,"Ġrun":1525,"ane":1526,"2019":1527,"iqu":1528,"Ġprocess":1529,"etwork":1530,"partial":1531,"Ġid":1532,"AN":1533,"ector":1534,"space":1535,"arent":1536,"Ġart":1537,"key":1538,"Col":1539,"This":1540,"ability":1541,"Ġway":1542,"value":1543,"Ġeffect":1544,"Ġparamet":1545,"ĠInd":1546,"orth":1547,"âĢľ":1548,"Ġgu":1549,"fty":1550,"ains":1551,"aj":1552,"Ġsupport":1553,"Ġdid":1554,"Data":1555,"opt":1556,"ering":1557,"Ġobject":1558,"Ġche":1559,"gram":1560,"infty":1561,"roll":1562,"ience":1563,"med":1564,"struct":1565,"100":1566,"aining":1567,"cont":1568,"By":1569,"lp":1570,"ural":1571,"tribut":1572,"')":1573,"ĠĠĠĠĠĠĠĠĠĠĠĠĠĠĠĠĠĠĠĠĠĠĠ":1574,"Ġsmall":1575,"chn":1576,"lear":1577,"omega":1578,"Ġu":1579,"Ġdirect":1580,"dis":1581,"|\\":1582,"date":1583,"arge":1584,"ĠDe":1585,"rix":1586,"Ġlast":1587,"Ġmade":1588,"nb":1589,"quad":1590,"nu":1591,"tle":1592,"Ġresults":1593,"iev":1594,"Ġfam":1595,"ness":1596,"ually":1597,"alk":1598,"Ġcurrent":1599,"requ":1600,".âĢĿ":1601,"ĠAnd":1602,"velop":1603,"Value":1604,"********":1605,"23":1606,"Ġsl":1607,"tilde":1608,"bers":1609,"40":1610,"gor":1611,"script":1612,"led":1613,"Ġmed":1614,"Ġdevelop":1615,"Ġstring":1616,"Ġdescri":1617,"Ġgl":1618,"ulation":1619,"arn":1620,"ott":1621,"Ġanal":1622,"IT":1623,"Ġlook":1624,"ĠSc":1625,"Delta":1626,"SE":1627,"file":1628,"Ġcontin":1629,"Ġmain":1630,"Ġinformation":1631,"ives":1632,"roid":1633,"Ġresp":1634,"Ġimport":1635,"Ġhere":1636,"comm":1637,"lex":1638,"En":1639,"Set":1640,"Ġcond":1641,"Ġav":1642,"ĠCol":1643,"Ġtop":1644,"Ġfin":1645,"////":1646,"Ġduring":1647,"Ġthose":1648,"Ġexpect":1649,"outh":1650,"2018":1651,"Ġfr":1652,"Ġ$(":1653,"Ġkey":1654,"Ġstruct":1655,"mbol":1656,"reg":1657,"Ġ/**":1658,"uary":1659,"Ġ&&":1660,"epend":1661,"DE":1662,"CT":1663,"mary":1664,"ission":1665,"order":1666,"Ġdown":1667,"atus":1668,"ke":1669,"========":1670,"Ġcoun":1671,"Ġmet":1672,"nbsp":1673,"rem":1674,"resp":1675,"itial":1676,"Ġincre":1677,"ected":1678,"Ġsince":1679,"px":1680,"ler":1681,"less":1682,"location":1683,"Ph":1684,"Un":1685,"gr":1686,"where":1687,"Ġteam":1688,"ĠIs":1689,"table":1690,"oad":1691,"Ġmult":1692,"head":1693,"Ġmuch":1694,"ows":1695,"test":1696,"ĠRes":1697,"Ġproble":1698,"overn":1699,"];":1700,"Ġpresent":1701,"));":1702,"Ġwrit":1703,"],":1704,"xi":1705,"Ġposs":1706,".\"":1707,"197":1708,"Ġprivate":1709,"Ġmem":1710,"Ġmov":1711,"60":1712,"arm":1713,"Ġreal":1714,"ĠFr":1715,"ived":1716,"inter":1717,"sq":1718,"rror":1719,"Ġpass":1720,"ply":1721,"}[":1722,"Ġmeas":1723,"Ġobtain":1724,"ister":1725,"Ġstatic":1726,"Ġown":1727,"orem":1728,"vious":1729,"Ġrele":1730,"agn":1731,"eqn":1732,"akes":1733,"size":1734,"load":1735,"ĠUniversity":1736,"Exception":1737,"Ġworld":1738,"Ġbound":1739,"\\,":1740,"umer":1741,"alth":1742,"time":1743,"ball":1744,"($":1745,"ĠĠĊ":1746,"Ġgood":1747,"top":1748,"64":1749,"ĠRe":1750,"Ġ%":1751,"On":1752,"2017":1753,"Ġobserv":1754,"au":1755,"ury":1756,"2016":1757,"tab":1758,"ior":1759,"Ġbuild":1760,"ground":1761,"ital":1762,"ĠOn":1763,"ĠčĊ":1764,"Cont":1765,"rite":1766,"Ġarg":1767,"Ġlet":1768,"Ġrepresent":1769,"Ġlocal":1770,"Ã©":1771,"Ġvis":1772,"ĠHow":1773,"oss":1774,"ilar":1775,"Ġelement":1776,"An":1777,"met":1778,"}}\\":1779,"Object":1780,"33":1781,"itive":1782,"Ġopen":1783,"rt":1784,")$.":1785,"27":1786,"aces":1787,"rc":1788,"Ġ///":1789,"ush":1790,"Ġlink":1791,"ĠPl":1792,"ides":1793,"Refer":1794,"Ġtem":1795,"CO":1796,"Im":1797,"Ġcar":1798,"ME":1799,"iness":1800,"ĠĠĠĠĊ":1801,"reak":1802,"28":1803,"color":1804,"Ġcharact":1805,"ĠPh":1806,"Ġexpl":1807,"Ġbo":1808,"cm":1809,"Test":1810,"Ġsize":1811,"Ġdist":1812,"ina":1813,"Ġear":1814,"ĠString":1815,"Ġcr":1816,"Ġlim":1817,"Ġstill":1818,"Ġmust":1819,"Ġspace":1820,"cale":1821,"Om":1822,"At":1823,"link":1824,"de":1825,"uck":1826,"mit":1827,"Ġwant":1828,"Ġins":1829,"raphics":1830,"uthor":1831,"Ġlevel":1832,"Ġtri":1833,"usic":1834,"Ind":1835,"ords":1836,"Ġhelp":1837,"ĠYou":1838,"Sh":1839,"Ġappe":1840,"ĠLe":1841,"bs":1842,"http":1843,"Ġpop":1844,"sim":1845,"Ġrespect":1846,"Ġhead":1847,"};":1848,"por":1849,"Ġleft":1850,"ats":1851,"Ġdon":1852,"Ġvalues":1853,"Mod":1854,"epsilon":1855,"energy":1856,"Ġcommun":1857,"come":1858,"ocument":1859,"Ġstand":1860,"Ġtake":1861,"lem":1862,"$$":1863,"Ġbro":1864,"vert":1865,"tribution":1866,"Ġpres":1867,"Get":1868,"}_{\\":1869,"Ġaround":1870,"Ġthink":1871,"opy":1872,"ager":1873,"respond":1874,"2015":1875,"Ġorig":1876,"ĠPr":1877,"Ġident":1878,"ape":1879,"Ġ!=":1880,"26":1881,"go":1882,"ival":1883,"().":1884,"Ġevent":1885,"Ġreport":1886,"function":1887,"Omega":1888,"istory":1889,"âĢ¦":1890,"View":1891,"Ġlit":1892,"ĠFig":1893,"ties":1894,"Ġpower":1895,"ohn":1896,"Ġmark":1897,"AC":1898,"Ġmass":1899,"ĠShe":1900,"field":1901,"ĠBl":1902,"Ġ,":1903,"nav":1904,"bm":1905,"list":1906,"olution":1907,"position":1908,"Ġbased":1909,"Key":1910,"iving":1911,"\"></":1912,"idd":1913,"Ġlarge":1914,"tract":1915,"omen":1916,"til":1917,"Ġbeg":1918,"ene":1919,"());":1920,"Ġdesign":1921,"ormal":1922,"ampl":1923,"acy":1924,"capt":1925,"Ġagainst":1926,"uration":1927,"Ġchild":1928,"omet":1929,"Ġincluding":1930,"sm":1931,"adi":1932,"Error":1933,"Se":1934,"url":1935,"ope":1936,"ided":1937,"enn":1938,"].":1939,"29":1940,"ification":1941,"ĉĉĉĉĉ":1942,"Ġfour":1943,"ven":1944,"fin":1945,"Ġaut":1946,"ober":1947,"Ġpost":1948,"index":1949,"pace":1950,"urther":1951,"textbf":1952,"urs":1953,"public":1954,"ird":1955,"psi":1956,"^*":1957,"ained":1958,"Ġnext":1959,"Ġgame":1960,"wh":1961,"ends":1962,"js":1963,"Ġpat":1964,"Ġelect":1965,"ĠBr":1966,"Class":1967,"bed":1968,".</":1969,"ension":1970,"2014":1971,"Ġbest":1972,"ĠMar":1973,"Al":1974,"vir":1975,"ĠAd":1976,"ination":1977,"point":1978,"aps":1979,"search":1980,"Ġdi":1981,"Ġtitle":1982,"ety":1983,"._":1984,"Ġassum":1985,"ised":1986,"ped":1987,"group":1988,"ched":1989,"ley":1990,"bo":1991,")$,":1992,"usiness":1993,"box":1994,"IC":1995,"itional":1996,"Ġrefer":1997,"Ġpar":1998,"itor":1999,"olv":2000,"Ġerror":2001,"Re":2002,"caption":2003,"Ġcal":2004,"Ġgeneral":2005,"\";":2006,"ately":2007,"ĠMay":2008,"ĠAmerican":2009,"off":2010,"RO":2011,"subsection":2012,"ording":2013,"2020":2014,"Requ":2015,"Ġperson":2016,"une":2017,"no":2018,"obal":2019,"sw":2020,"Ġfile":2021,"inc":2022,"45":2023,"ensure":2024,"angu":2025,"Ġnetwork":2026,"Ġref":2027,"summary":2028,"duct":2029,"LL":2030,"Ġexample":2031,"Ġrece":2032,"sqrt":2033,"Ġbeh":2034,"ĠAp":2035,"!--":2036,"sk":2037,"Ġwithout":2038,"lim":2039,"aster":2040,"ĠBut":2041,"['":2042,"ĠEng":2043,"aving":2044,"Ġabove":2045,"Ġlife":2046,"uro":2047,"Ġbook":2048,"see":2049,"Ġprogram":2050,"ĠOr":2051,"att":2052,"Ap":2053,"aper":2054,"References":2055,"Gamma":2056,"Ġenergy":2057,"ogle":2058,"path":2059,"eqnarray":2060,"Ġinteg":2061,"Int":2062,"ackage":2063,"psilon":2064,"ervice":2065,"ION":2066,"Ġproject":2067,"Ġwithin":2068,"ivity":2069,"ertain":2070,"ift":2071,"ĠAll":2072,"Ġtechn":2073,"quot":2074,"bold":2075,"Ġsay":2076,"=\"../../":2077,"ero":2078,"ourn":2079,"gorith":2080,"Ġcorrespond":2081,"Ġcalled":2082,"rodu":2083,"Ġtyp":2084,"Ġview":2085,"sl":2086,"ĠâĢĶ":2087,"odes":2088,"ĠWh":2089,"2013":2090,"ait":2091,"Ġtarget":2092,"includeg":2093,"includegraphics":2094,"ailable":2095,"ai":2096,"ĠTo":2097,"https":2098,"istr":2099,"Ġknown":2100,"hes":2101,"Ġmeasure":2102,"ators":2103,"imal":2104,"ugg":2105,"Ġinterest":2106,"oper":2107,"Ġsingle":2108,"ources":2109,"Ġcour":2110,"max":2111,"ĠâĢĺ":2112,"ustom":2113,"^{(":2114,"80":2115,"fil":2116,"Ġprot":2117,"plit":2118,",âĢĿ":2119,"posed":2120,"35":2121,"ĠJan":2122,"Ġlog":2123,"iction":2124,"ways":2125,"Ġcorre":2126,"unc":2127,"Ġestim":2128,"plication":2129,"Ġsum":2130,"');":2131,"AP":2132,"icle":2133,"ED":2134,"Ġmax":2135,"atures":2136,"but":2137,"ison":2138,"Ġdepend":2139,"des":2140,"mp":2141,"ĠUnited":2142,"Ġplace":2143,"Ġday":2144,"Ġdem":2145,"ograph":2146,"emph":2147,"Ġpath":2148,"ploy":2149,"Ġsat":2150,"Ġdel":2151,"Ġcomput":2152,"perties":2153,"=\"+":2154,"(),":2155,"ĠFe":2156,"99":2157,"ump":2158,"with":2159,"Ġhtt":2160,"Ġschool":2161,"Ġdev":2162,"vare":2163,"2012":2164,"ware":2165,"ĠSp":2166,"ĠThey":2167,"He":2168,"rist":2169,"ĠAt":2170,"Ġet":2171,"Ġanother":2172,"Ġexp":2173,"Time":2174,"Ġsever":2175,"AS":2176,"}^{\\":2177,"ems":2178,"Ġocc":2179,"Ġfamily":2180,"}=":2181,"tribute":2182,"ances":2183,"Ġsimilar":2184,"const":2185,"ocus":2186,"iod":2187,"user":2188,"Ġtext":2189,"symbol":2190,"']":2191,"Ġbas":2192,"ches":2193,"With":2194,"sup":2195,"ibr":2196,"varepsilon":2197,"pty":2198,"Ġden":2199,"ponse":2200,"ĠGr":2201,"Ġproblem":2202,"node":2203,"Ġcontent":2204,"ysis":2205,":\\!":2206,"Ġchang":2207,"ij":2208,"Ġprob":2209,"ique":2210,"\\!:\\!":2211,"Ġseries":2212,"PE":2213,"Ġke":2214,"Ġparticular":2215,"cription":2216,"aut":2217,"eff":2218,"ĠMan":2219,"Ġiss":2220,")=":2221,"Ġrequest":2222,"aim":2223,"Ġlaw":2224,"IS":2225,"Ġ/>":2226,"Ġtry":2227,"ĠCent":2228,"Ġthrow":2229,"Ġdue":2230,"Ġsk":2231,"dt":2232,"www":2233,"ports":2234,"Ġspe":2235,"uction":2236,"Pl":2237,"Ġalong":2238,"Ġtot":2239,"ules":2240,"overnment":2241,"File":2242,".~\\":2243,"inition":2244,"Ġweek":2245,"Ġ${\\":2246,"non":2247,"vers":2248,"Qu":2249,"mat":2250,"rightarrow":2251,"rangle":2252,"ĠJohn":2253,"''":2254,"wit":2255,"Ġnear":2256,"ixed":2257,"mm":2258,"ention":2259,"Request":2260,"Def":2261,"ium":2262,"Ġold":2263,"comp":2264,"eter":2265,"ternational":2266,"lected":2267,"uffer":2268,"Ġfew":2269,"Add":2270,"ynam":2271,"Ġinitial":2272,"Ġallow":2273,"Ġcap":2274,"ĠCar":2275,"01":2276,"Ġuser":2277,"Ġcheck":2278,"icy":2279,"Ġcharacter":2280,"2010":2281,"map":2282,"ither":2283,"Man":2284,"Text":2285,"ĠUS":2286,"Ġ?":2287,"Ġann":2288,"Ġdefined":2289,"Ġ\\,":2290,"Ġlater":2291,"ux":2292,"2011":2293,"Ġversion":2294,"Ġblock":2295,"\":":2296,"Ġgreat":2297,"util":2298,"ored":2299,"Ġchange":2300,"ĠNov":2301,"LA":2302,"Ġturn":2303,"Ġstudy":2304,"geq":2305,"Ġmean":2306,"atter":2307,"Ġshown":2308,"stand":2309,"ession":2310,"Ġadv":2311,"ideo":2312,"proof":2313,"Ġfull":2314,"chi":2315,"center":2316,"If":2317,"wards":2318,"Ġinput":2319,"Ġorgan":2320,"uman":2321,"Ġassert":2322,"ĠComm":2323,"Ġexist":2324,"bit":2325,"Ġcho":2326,"pression":2327,"Ġdom":2328,"Ġconstr":2329,"Ġinvest":2330,"ĠHowever":2331,"Ġstat":2332,"Big":2333,"Ġclos":2334,"``":2335,"Ġmodels":2336,"ayer":2337,"75":2338,"UR":2339,"Ġredu":2340,"Ġ-->":2341,"varphi":2342,"Or":2343,"TR":2344,"ĠJul":2345,"ĠTe":2346,"ĠBe":2347,"plement":2348,"ights":2349,"Ġcare":2350,"ajor":2351,"Ġpred":2352,"Ġhold":2353,".}":2354,"Ġbu":2355,"ĠCan":2356,"indow":2357,"Ġlow":2358,"Ġdeterm":2359,"cor":2360,"length":2361,"andom":2362,"refore":2363,"All":2364,"ables":2365,"viron":2366,"Event":2367,"ling":2368,"anguage":2369,"State":2370,"Ġcur":2371,"Ġproduct":2372,"34":2373,"Ġtoo":2374,"Node":2375,"####":2376,"ially":2377,"Ġpossible":2378,"Not":2379,"Ġpot":2380,"90":2381,"icon":2382,"ended":2383,"FF":2384,"urch":2385,"pose":2386,"Info":2387,"ateg":2388,"imum":2389,"Ġpoints":2390,"side":2391,"Ġsection":2392,"31":2393,"/*":2394,"Ġnode":2395,"Ġprevious":2396,"Ġca":2397,"Ġdeta":2398,"Ġsuccess":2399,"':":2400,"Element":2401,"Ġseason":2402,"Ġshows":2403,"aterial":2404,"stance":2405,"ths":2406,"Ġassoci":2407,"olean":2408,"istic":2409,"Field":2410,"illion":2411,"&\\":2412,"Ġlarg":2413,"Ġcontrol":2414,"my":2415,"ony":2416,"boldsymbol":2417,"iment":2418,"Ġavailable":2419,"Ġhig":2420,"Ġsom":2421,"Ġenc":2422,"Path":2423,"66":2424,"Ġoriginal":2425,"ocial":2426,"Ġquant":2427,"ensity":2428,"Ġeas":2429,"prov":2430,"Ġspect":2431,"from":2432,"hline":2433,"Ġarray":2434,"Let":2435,"AD":2436,"ready":2437,"urity":2438,"leg":2439,"body":2440,"ĠOct":2441,"[\\":2442,"Over":2443,"ought":2444,"ĠAss":2445,"ĠEn":2446,"TE":2447,"result":2448,"Ġfree":2449,"55":2450,"Ġide":2451,"config":2452,"Bl":2453,"Ġless":2454,"Ġleg":2455,"Ġcode":2456,"},\\":2457,"lin":2458,"uk":2459,"Ġsource":2460,"ĠWorld":2461,"ayout":2462,"Ġfilm":2463,"ependent":2464,"âĢĶ":2465,"Ġrange":2466,"Ġsit":2467,"tra":2468,"cul":2469,"Ġquest":2470,"ĠĠĠĠĠĠĠĠĠĠĠĠĠĠĠĠĠĠĠĠĠĠĠĠĠĠĠ":2471,"Ġarea":2472,"Ġmap":2473,"uture":2474,"Ġhome":2475,"Ġcover":2476,"ret":2477,"Ġ);":2478,"ĠPol":2479,"Ġfollows":2480,"Ġla":2481,"ounty":2482,"ags":2483,"Ġseveral":2484,"ands":2485,"Des":2486,"ients":2487,"Ġimportant":2488,"Config":2489,"Index":2490,"overline":2491,"Ġaff":2492,"Ġdat":2493,"wid":2494,"Ġconf":2495,"arr":2496,"Ġaction":2497,"())":2498,"ĠNo":2499,"Ġterms":2500,"ĠThere":2501,"Ġcreate":2502,"Equ":2503,"ably":2504,"Ġuntil":2505,"Ġstrong":2506,"style":2507,"df":2508,"Ġfoot":2509,"ĠNational":2510,"enu":2511,"ouble":2512,"ĠAust":2513,"ĠAug":2514,"Ġbetter":2515,"IG":2516,"Ġhapp":2517,"HE":2518,"\".":2519,"De":2520,"earch":2521,"error":2522,"gl":2523,"}).":2524,"version":2525,"And":2526,"rel":2527,"gorithm":2528,"Ġgoing":2529,"ĠCo":2530,"36":2531,"Ġreally":2532,"Ġgrow":2533,"ĠBy":2534,"aint":2535,"ottom":2536,"Ġtimes":2537,"37":2538,"/**":2539,"Ġinclude":2540,"isf":2541,"Ġtotal":2542,"ĠStates":2543,"true":2544,"Ġcontinu":2545,"ories":2546,"Ġposition":2547,"05":2548,"ards":2549,"block":2550,"Ġrest":2551,"Ġcomb":2552,"reen":2553,"Ġstyle":2554,"Ġshort":2555,"ride":2556,"Ġcompon":2557,"New":2558,"Ġcell":2559,"Ġfail":2560,"word":2561,"vec":2562,"ĠGe":2563,"ection":2564,"MP":2565,"ians":2566,"arning":2567,"2009":2568,"Ġder":2569,"eral":2570,"Ġphot":2571,"Ġparameters":2572,"AB":2573,"Ġes":2574,"down":2575,"Context":2576,"Ġimage":2577,"alf":2578,"48":2579,"Ġaccess":2580,"aff":2581,"}}$":2582,"iam":2583,"ung":2584,"Ġmusic":2585,"39":2586,"Ġside":2587,"Ġbreak":2588,"mult":2589,"stit":2590,"ks":2591,"xim":2592,"Form":2593,"Ġ:=":2594,")^":2595,"Ġeng":2596,"ĠSystem":2597,"hold":2598,"frak":2599,"ves":2600,"amples":2601,"ising":2602,"title":2603,"nder":2604,"Map":2605,"input":2606,"Ġ($":2607,"idual":2608,"Ġcrit":2609,"nection":2610,"Ġplayers":2611,"Ġleast":2612,"amed":2613,"Ġclear":2614,"Ġcontext":2615,"api":2616,"clus":2617,"Ġwin":2618,"38":2619,"bum":2620,"ĠYork":2621,"LO":2622,"ING":2623,"uf":2624,"state":2625,"Is":2626,"Result":2627,"iple":2628,"orph":2629,"Array":2630,"Ġservice":2631,"ude":2632,"ament":2633,"Ġbase":2634,"icient":2635,"Ġrecord":2636,"UT":2637,"Ġput":2638,"ĠSchool":2639,"ponent":2640,"ĠGu":2641,"Ġbusiness":2642,"Ġdefault":2643,"Ġ(!":2644,"Ġsays":2645,"Ġstructure":2646,"oin":2647,"ĠApr":2648,"sf":2649,"ĠÂ":2650,"Ġoffic":2651,"Ġlinks":2652,"Ġpolit":2653,"Ġalways":2654,"Ġmight":2655,"Ġintrodu":2656,"draw":2657,"ĠSup":2658,"void":2659,"Ġnever":2660,"vironment":2661,"ĠMed":2662,"Ġrequire":2663,"ensuremath":2664,"';":2665,"Ġsuper":2666,"amespace":2667,"Ġpotential":2668,"Ġvol":2669,"ĠSo":2670,"Ġperformance":2671,"etic":2672,"Ġdistribution":2673,"evel":2674,"using":2675,"From":2676,"44":2677,"ldots":2678,"Ġcomplet":2679,"cast":2680,"Ġsequ":2681,"Ġ});":2682,"ours":2683,"Ġaddress":2684,"cer":2685,"Ġlight":2686,"\"\"":2687,"ĠFl":2688,"ĠThen":2689,"Ġ},":2690,"inary":2691,"196":2692,"ES":2693,"Ġperiod":2694,"Ġpo":2695,"textit":2696,"annel":2697,"eturn":2698,"oman":2699,"ĠMin":2700,"Ġestabl":2701,"Ġconfig":2702,"ĠDr":2703,"parent":2704,"Ġinstance":2705,"ĠEd":2706,"Ġrecent":2707,"now":2708,"ui":2709,"langle":2710,"sequ":2711,"Ġindex":2712,"ales":2713,"++":2714,"book":2715,"thing":2716,"osp":2717,"Lambda":2718,"ones":2719,"Ġbig":2720,"Service":2721,"Ġsignific":2722,"Ġmom":2723,"Ġproperty":2724,"citep":2725,"md":2726,"mathfrak":2727,"gress":2728,"Of":2729,"Ġalready":2730,"urope":2731,"Ġprom":2732,"ague":2733,"70":2734,"appa":2735,"gt":2736,"oud":2737,"aced":2738,"ender":2739,"iff":2740,"pen":2741,"Build":2742,"Ġdeg":2743,"verage":2744,"[]":2745,"agement":2746,"ething":2747,"lete":2748,"Ġhard":2749,"ML":2750,"ET":2751,"ymmet":2752,"plate":2753,"Code":2754,"mber":2755,"cap":2756,"object":2757,"ync":2758,"Ġindic":2759,"ĠState":2760,"ĠWith":2761,"Ġcompany":2762,"Ġcou":2763,"Ġfurther":2764,"ilt":2765,"Trans":2766,"lt":2767,"ges":2768,"2008":2769,"ica":2770,"cher":2771,"ume":2772,"refer":2773,"ĠMarch":2774,"semb":2775,"bt":2776,"ibility":2777,"eed":2778,"Ġstates":2779,"icro":2780,"apache":2781,"ĠSouth":2782,"ptember":2783,"Ġbackground":2784,"ĠJanuary":2785,"Ġlimit":2786,"='":2787,"II":2788,"Ġ/*":2789,"conom":2790,"cit":2791,"abled":2792,"uation":2793,"Ġconn":2794,"ĠCal":2795,"raft":2796,"Pr":2797,"ĠReg":2798,"Ġmajor":2799,"aged":2800,"Âł":2801,"Ġsatisf":2802,"Ġparameter":2803,"ĠAb":2804,"Ġprovide":2805,"onse":2806,"Item":2807,"ken":2808,"ze":2809,"lang":2810,"Ġfore":2811,"Size":2812,"circ":2813,"aken":2814,"uments":2815,"Loc":2816,"Fil":2817,"=\"../../../../":2818,"wide":2819,"Ġstory":2820,"Ġcost":2821,"si":2822,"Ġcomplex":2823,"ĠWar":2824,"US":2825,"Ġresponse":2826,"Phi":2827,"Ġpaper":2828,"OT":2829,"But":2830,"Dis":2831,"loat":2832,"ration":2833,"ĠPar":2834,"tings":2835,"call":2836,"Ġearly":2837,"kappa":2838,"Ġmagn":2839,"subset":2840,"ĠChrist":2841,"Ġmot":2842,"Ġapproach":2843,"Ġdiv":2844,"04":2845,"Ġregion":2846,"Ġlength":2847,"Ġeither":2848,"Ġgot":2849,"lege":2850,"MA":2851,"utions":2852,"Ġexpected":2853,"Ad":2854,"Ġfunctions":2855,"Ġcolor":2856,"08":2857,"create":2858,"ĠLet":2859,"idence":2860,"igned":2861,"Ġaccount":2862,"default":2863,"Ġprof":2864,"Ġanalysis":2865,"ĠCity":2866,"Ġphys":2867,"Ġq":2868,"ĠJune":2869,"Ġmeans":2870,"asing":2871,"assert":2872,"\\|":2873,"Ġmembers":2874,"Ġcome":2875,"////////":2876,"Ġdim":2877,"Ġrate":2878,"Ġgraph":2879,"\\%":2880,"Message":2881,"ĠRep":2882,"Ġred":2883,">&":2884,"ino":2885,"abla":2886,"Ġgive":2887,"Ġfar":2888,")(":2889,"Ġspecial":2890,"tes":2891,"Ġ``":2892,"~~":2893,"rior":2894,"}),":2895,"Ġsolution":2896,"ĠCounty":2897,"Hand":2898,"ological":2899,"urg":2900,"Ġcoll":2901,"used":2902,"foot":2903,"irt":2904,"ii":2905,"cember":2906,"Ð°":2907,"ĠOctober":2908,".\\":2909,"Ġvert":2910,"Ġgovernment":2911,"Ġmatrix":2912,"ĠBrit":2913,"Ġmatch":2914,"nabla":2915,"Ġsrc":2916,"Ġrequired":2917,"})$":2918,"Ġjava":2919,"External":2920,"IP":2921,"most":2922,"rec":2923,"****************":2924,"UN":2925,"Ġabs":2926,"ĠChe":2927,"ently":2928,"ĠJuly":2929,";&":2930,"Ġsy":2931,"Ġlik":2932,"ĠApril":2933,"Ġsystems":2934,"ĠThese":2935,"cell":2936,"Ġrole":2937,"Ġseen":2938,"dom":2939,"ĠAugust":2940,"CC":2941,"Inter":2942,"base":2943,"Ġsong":2944,"ae":2945,"aring":2946,"urb":2947,"Up":2948,"ending":2949,"09":2950,"Val":2951,"Ġdiff":2952,"ĉĊ":2953,"Ġtask":2954,"info":2955,"Ġsignificant":2956,"anel":2957,"59":2958,"content":2959,"ĠPart":2960,"Ġpubl":2961,"ĠEurope":2962,"ĠSeptember":2963,"Ġchildren":2964,"Ġwater":2965,"ilit":2966,"though":2967,"Ġland":2968,"ham":2969,"Ġcity":2970,"ĠGet":2971,"Out":2972,"Ġdeath":2973,"Ġwomen":2974,"Ġmethods":2975,"ips":2976,"Ġcount":2977,"Ġfri":2978,"cle":2979,"Ġtrack":2980,"erman":2981,"Ġlower":2982,"model":2983,"Ġacross":2984,"check":2985,"ĠÐ":2986,"Ġfund":2987,"ring":2988,"Ġdiscuss":2989,"Ġant":2990,"uggest":2991,"ĠĠĠĠĠĠĠĠĠĠ":2992,"Ġfeatures":2993,"49":2994,"Ġpract":2995,"Ġfocus":2996,"ada":2997,"Ġsomething":2998,"Ġconstant":2999,"ĠWill":3000,"cy":3001,"Ġalbum":3002,"Ġlittle":3003,"Table":3004,"Ġfeature":3005,"}}{":3006,"iven":3007,"ana":3008,"ĠMe":3009,"Color":3010,",\"":3011,"Ġtable":3012,"Ġobtained":3013,"css":3014,"ieve":3015,"Ġindiv":3016,"ĠMc":3017,"Ġwon":3018,"Ġwidth":3019,"Ġrepl":3020,"Ġlabel":3021,"Ġauthor":3022,"Ġtraining":3023,"ĠNorth":3024,"ENT":3025,"Ġbelow":3026,"istor":3027,"Ġmar":3028,"ĠWhen":3029,"Ġoutput":3030,"ĠĠĠĠĠĠĠĠĠĠĠĠ":3031,"Ġep":3032,"Ġapproxim":3033,"ops":3034,"Comm":3035,"gether":3036,"creen":3037,"Ġtogether":3038,"Ġrelations":3039,"lient":3040,"rew":3041,"Ġcirc":3042,"Ġplan":3043,"Rec":3044,"Ġoptions":3045,"2007":3046,"Fr":3047,"Ġhistory":3048,"roller":3049,"Ġable":3050,"02":3051,"Log":3052,"ĠNovember":3053,"Ġsuff":3054,"ĠAustral":3055,"Ġ__":3056,"dim":3057,"IR":3058,"centering":3059,"ptions":3060,"wise":3061,"ĉĉĉĉĉĉ":3062,"Ġparent":3063,"Ser":3064,"06":3065,"ĠIm":3066,"07":3067,"mark":3068,"Ġdocument":3069,"Ġoften":3070,"small":3071,"Ġhaving":3072,"yd":3073,"ĠCor":3074,"Fig":3075,"Ġamong":3076,"Ġpair":3077,"ĠThat":3078,"aves":3079,"ĠQu":3080,"47":3081,"eting":3082,"ĠBo":3083,"mail":3084,"era":3085,"Ġresearch":3086,"otimes":3087,"ersion":3088,"TD":3089,"\\[":3090,"start":3091,"Ġclaim":3092,"ĠDis":3093,"ĠOne":3094,"](":3095,"uster":3096,"ster":3097,"Ġenough":3098,"Ġ===":3099,"Ġcommon":3100,"Ġdescribed":3101,"java":3102,"ework":3103,"Ġpay":3104,"Ġdone":3105,"Ġneg":3106,"Sc":3107,"Ġbecome":3108,"package":3109,"Ġevents":3110,"Sigma":3111,"Ġkeep":3112,"ecess":3113,"based":3114,"ithub":3115,"lish":3116,"Ġhigher":3117,"Ġthings":3118,"Ġhealth":3119,"ried":3120,"ĠDecember":3121,"hern":3122,"mbox":3123,"next":3124,"Ġcy":3125,"light":3126,"OD":3127,"reed":3128,"dots":3129,"Ġconditions":3130,"Ġexec":3131,"define":3132,"Ġtre":3133,"ogn":3134,"Ġinvolv":3135,"iol":3136,"Ġrandom":3137,"ping":3138,"Model":3139,"46":3140,"Ġask":3141,"Ġhuman":3142,"widet":3143,"Ġstandard":3144,"Ġcorresponding":3145,"nonumber":3146,"Ġcases":3147,"Ġsec":3148,"Ġcalcul":3149,"Ġvia":3150,"Arg":3151,"Ġscal":3152,"Ġstep":3153,"do":3154,"Ġaway":3155,"Ġdays":3156,"uit":3157,"Ġsepar":3158,"Ġpage":3159,"Ġfuture":3160,"User":3161,"Ġconc":3162,"avel":3163,"na":3164,"Ġindividual":3165,"irl":3166,"count":3167,"atural":3168,"Reg":3169,"Ġformer":3170,"IL":3171,"No":3172,"abor":3173,"Ġmessage":3174,"=\"../":3175,"CH":3176,"Ġreview":3177,"ĠDes":3178,"Ð¾":3179,"Ġblack":3180,"Ġlinear":3181,"Ġtheory":3182,"Ġcross":3183,"Ġfac":3184,"ategory":3185,"aul":3186,"2006":3187,"{-":3188,"Ġsche":3189,"Ġcountry":3190,"ifier":3191,"ĠSer":3192,"Ġcondition":3193,"ged":3194,"Ġ};":3195,"Ġmaking":3196,"plied":3197,"--------------------------------":3198,"Ġdensity":3199,";</":3200,"Ġhost":3201,"Ġnum":3202,"context":3203,"SP":3204,"Group":3205,"Ġbecame":3206,"Ġwhether":3207,"igation":3208,"Ġbody":3209,"Ġthird":3210,"/\\":3211,"widetilde":3212,"net":3213,"Ġimplement":3214,"Ġbi":3215,"bruary":3216,"ĠMon":3217,"print":3218,"eneral":3219,"github":3220,"Ġnormal":3221,"NA":3222,"03":3223,"method":3224,"Call":3225,"alt":3226,"Ġproperties":3227,"Ġassociated":3228,"android":3229,"valid":3230,"Ġclose":3231,"prot":3232,"Manager":3233,"reate":3234,"Ġrespectively":3235,"bug":3236,"ered":3237,"Ġvalid":3238,"Ġhttp":3239,"Ġsite":3240,"lev":3241,"System":3242,"nown":3243,"Ġreason":3244,"ĠList":3245,"ĠNot":3246,"reet":3247,"ĠCont":3248,"Ġsuggest":3249,"include":3250,"Ġcommunity":3251,"OS":3252,"Ġcertain":3253,"....":3254,"ĠAg":3255,"ĠGl":3256,"ught":3257,"Ġport":3258,"ĠRec":3259,"ached":3260,"exp":3261,"Ġimp":3262,"ĠSet":3263,"Ġfive":3264,"Ġtook":3265,"Ġthough":3266,"tainer":3267,"irection":3268,"ured":3269,"onal":3270,"Ġattack":3271,"CE":3272,"ĠEl":3273,"56":3274,"Ġair":3275,"ĠGo":3276,"chan":3277,"Ġarr":3278,"tabular":3279,"ĠMore":3280,"eh":3281,"bra":3282,"Ġtrad":3283,"=\"#":3284,"Ġret":3285,"){":3286,"ordin":3287,"anch":3288,"Ġband":3289,"google":3290,"sing":3291,"Ġfootball":3292,"ference":3293,"Ġoffer":3294,"Ġhom":3295,"Ġunderstand":3296,"ements":3297,"Wh":3298,"hand":3299,"oken":3300,"Ġtemper":3301,"Ġbir":3302,"utes":3303,"Ġloss":3304,"Ġge":3305,"medi":3306,"Ġcamp":3307,"ids":3308,"Sub":3309,"}-":3310,"Ġyoung":3311,")</":3312,"Ġconsidered":3313,"TH":3314,"oph":3315,"ĠRev":3316,"dev":3317,"Ġemb":3318,"Ġpast":3319,"Ġfeel":3320,"hib":3321,"ĠPres":3322,"58":3323,"How":3324,"EE":3325,"Ġprim":3326,"init":3327,"static":3328,"Read":3329,"ilities":3330,"Ġben":3331,"ULL":3332,"ires":3333,"Ġgames":3334,"false":3335,"Ġvector":3336,"MS":3337,"ĠAfter":3338,"db":3339,"adio":3340,"empt":3341,"Ġdevelopment":3342,"Ġaverage":3343,"57":3344,"ners":3345,"Ġequation":3346,"Ġdynam":3347,"Ġproof":3348,"Ġonce":3349,"build":3350,"Ġang":3351,"idge":3352,"ĠWest":3353,"Bar":3354,"atrix":3355,"doc":3356,"irm":3357,"lease":3358,"Ġprovided":3359,"Ġmoment":3360,"Ġcompet":3361,"Ġelements":3362,"Ġphase":3363,"Ġkind":3364,"Fl":3365,"Ġsent":3366,"imate":3367,"Ġconsist":3368,"Ġvarious":3369,"rest":3370,"Ġbehav":3371,"ĠPer":3372,"Ġach":3373,"<!--":3374,"gen":3375,"aging":3376,"atform":3377,"ĠOff":3378,"ĠBar":3379,"oke":3380,"thm":3381,"Ġvideo":3382,"Ġfrequ":3383,"Ġcustom":3384,"Ġcult":3385,"================":3386,"Ġemploy":3387,"ĠArt":3388,"Property":3389,"ĠĠĠĠĠĠĠĠĠĠĠĠĠĠĠĠĠĠĠĠĠĠĠĠĠĠĠĠĠĠĠ":3390,"Ġsearch":3391,"Ġnil":3392,"ĠMod":3393,"illed":3394,"plies":3395,"Ġhouse":3396,"Ġlove":3397,"OP":3398,"Ġworking":3399,"Ġwhy":3400,"Response":3401,"Ġsimple":3402,"Ġjob":3403,"izing":3404,"Ðµ":3405,"cho":3406,"Ġglobal":3407,"Ġsocial":3408,"Ġlot":3409,"dl":3410,"Ġbit":3411,"ief":3412,"Ġgrad":3413,"Ġeval":3414,"xy":3415,"bor":3416,"}+":3417,"Ġ()":3418,"Ġpositive":3419,"ĠInt":3420,"apan":3421,"ournal":3422,"\\]":3423,">(":3424,"ries":3425,"prop":3426,"ĠAct":3427,"core":3428,"elling":3429,"ama":3430,"icense":3431,"flu":3432,"Ġandroid":3433,"ibrary":3434,"ĠPark":3435,"2000":3436,"Ġlines":3437,"ns":3438,"Ġsem":3439,"ĠFebruary":3440,"aly":3441,"height":3442,"Ġarch":3443,"active":3444,"prime":3445,"iddle":3446,"Ġalgorithm":3447,"Ġthought":3448,"Ġmaterial":3449,"Client":3450,"iding":3451,"argin":3452,"que":3453,"Ġmakes":3454,"mar":3455,"Ġspecific":3456,"pol":3457,"ondon":3458,"ills":3459,"Ġaddition":3460,"Ġstd":3461,"Ġhalf":3462,"Ġsix":3463,"Ġconstruct":3464,"42":3465,"Ġhowever":3466,"oon":3467,"ĠKing":3468,"Ġbool":3469,"Ġmember":3470,"Ġtw":3471,"umb":3472,"You":3473,"Ġmillion":3474,"Ġpress":3475,"Ġtaken":3476,"Ġcolumn":3477,"Ġfit":3478,"Method":3479,"Ġworks":3480,"actory":3481,"ĠDav":3482,"Query":3483,"ename":3484,"option":3485,"Builder":3486,"ĠDo":3487,"ĠCoun":3488,"Ġmiss":3489,"\\{":3490,"ĠAir":3491,"Ġmulti":3492,"ises":3493,"Sp":3494,"Ġlo":3495,"event":3496,"ille":3497,"((":3498,"Ġconv":3499,"astic":3500,"Ġborder":3501,"ĠSection":3502,"Ġtalk":3503,"Override":3504,"Ġexact":3505,"Ġdisplay":3506,"web":3507,"ĠSch":3508,"eline":3509,"Ġwrite":3510,"current":3511,"isk":3512,"Ġra":3513,"Ġthus":3514,"Ġage":3515,"End":3516,"image":3517,"emma":3518,"Ed":3519,"ocol":3520,"Ġreleased":3521,"Ġpredict":3522,"ĠAdd":3523,"Ġcame":3524,"ĠSec":3525,"Ġmedia":3526,"null":3527,"ography":3528,"Ġbegin":3529,"Ġcourse":3530,"scale":3531,"ĠTheorem":3532,"verse":3533,"Ġcreated":3534,"ĠComp":3535,"0000":3536,"ĠAfr":3537,"Ġill":3538,"PI":3539,"Ġmen":3540,"NS":3541,"Ġground":3542,")]":3543,"Ġindust":3544,"actions":3545,"Ġdefine":3546,"ula":3547,"ĠRuss":3548,"There":3549,"iter":3550,"Str":3551,"Ġplayed":3552,"display":3553,"Ġgroups":3554,"Ġeduc":3555,"2005":3556,"Ġappear":3557,"which":3558,"adem":3559,"unk":3560,")=\\":3561,"Ġexpress":3562,"Ġwritten":3563,"ging":3564,"orage":3565,"ampions":3566,"Ġsoft":3567,"Ġcannot":3568,"Ġlearn":3569,"Ġstop":3570,"under":3571,"ued":3572,"Ġothers":3573,"undle":3574,"ĠChar":3575,"spec":3576,"png":3577,"Ġaccording":3578,"ication":3579,"Ġchanges":3580,"Ġindependent":3581,"Ġradi":3582,"Count":3583,"Ġsens":3584,"ĠSm":3585,"Ġgen":3586,"dr":3587,"Ġsure":3588,"pdf":3589,"88":3590,"Ġsurv":3591,"ĠEq":3592,"ceed":3593,"Image":3594,"ĠSim":3595,"bsite":3596,"Ġmer":3597,"ĠMy":3598,"Ġlearning":3599,"ĠTrans":3600,"Ġmove":3601,"Ġexists":3602,"ĠPe":3603,"ĠDef":3604,"Ġbuilding":3605,"Ġscale":3606,"Date":3607,"BC":3608,"Ġrelated":3609,",-":3610,"ĠMark":3611,"mon":3612,"Ġnecess":3613,"Ġquestion":3614,"acing":3615,"query":3616,"ĠBro":3617,"AM":3618,"Ġbecom":3619,"AG":3620,"Ġreceived":3621,"Ġexperience":3622,"cil":3623,"aries":3624,"options":3625,"}=\\":3626,"cos":3627,"Ġservices":3628,"Ġstudents":3629,"}]":3630,"Ġ&=":3631,"php":3632,"Ġproposed":3633,"Ġinstead":3634,"Ġfig":3635,"Ð¸":3636,"Ġcut":3637,"ocr":3638,"tem":3639,"Input":3640,";\\":3641,"namespace":3642,"Ġenvironment":3643,"efore":3644,"Ġunit":3645,"lib":3646,"ington":3647,"ha":3648,"Ġload":3649,"ĠStr":3650,"Ġregular":3651,"Ġincluded":3652,"long":3653,"ĠHis":3654,"nce":3655,"Ġrow":3656,"Ġrather":3657,"Ã¡":3658,"run":3659,"func":3660,"jav":3661,"skip":3662,"ĠHouse":3663,"Ġnumer":3664,"ulations":3665,"textwidth":3666,")}\\":3667,"hood":3668,"Ġtreat":3669,"ĠLa":3670,"Ġannoun":3671,"aches":3672,"Ġzero":3673,"like":3674,"Ġdoesn":3675,"Ġpopulation":3676,"abase":3677,"Ġstar":3678,"Ġsound":3679,"Ġsw":3680,"ĠĠĠĠĠĠĠĠĠĠĠĠĠĠĠĠĠ":3681,"95":3682,"button":3683,"finished":3684,"Ġimprov":3685,"omorph":3686,")^{":3687,"Ġwar":3688,"{(":3689,"Be":3690,"Ġsequence":3691,"bb":3692,"Ġnational":3693,"dir":3694,"change":3695,"Ġoperator":3696,"ishing":3697,"Ġconver":3698,"uel":3699,"Ġ...":3700,"Ġyet":3701,"ites":3702,"more":3703,"Stream":3704,"Ġapply":3705,"ining":3706,"ully":3707,"Act":3708,"Ġfinite":3709,"page":3710,"plicit":3711,"Ġstarted":3712,"rown":3713,"Ġdidn":3714,"ĠAm":3715,"duc":3716,"apping":3717,"78":3718,"Ġheld":3719,"Ġproduction":3720,"Ġsurface":3721,"Ġcontr":3722,"unity":3723,"rup":3724,"Ġmultiple":3725,"ĠLondon":3726,"iet":3727,"Ġalmost":3728,"Sup":3729,"Ġ<<":3730,"Ġpur":3731,"Ġfields":3732,"Ġcompos":3733,"yles":3734,"zeta":3735,"43":3736,"Ġtown":3737,"ĠHigh":3738,"Ġinstall":3739,"}^\\":3740,"FA":3741,"ese":3742,"Ġsubject":3743,"Ġamount":3744,"ĠDep":3745,"level":3746,"ĠCr":3747,"SC":3748,"tx":3749,"atal":3750,"Ġrat":3751,"What":3752,"Ġcontains":3753,"Ġadditional":3754,"ĠHar":3755,"Ġfactor":3756,"2004":3757,"ĠAng":3758,"year":3759,"65":3760,"cdots":3761,"Che":3762,"has":3763,"igen":3764,"ONT":3765,"yl":3766,"widehat":3767,"inst":3768,"See":3769,"])":3770,"Ġactiv":3771,"ĠBritish":3772,"OL":3773,"Ġobserved":3774,"ĠSince":3775,"Ġlanguage":3776,"icles":3777,"Ġdistribut":3778,"edd":3779,"client":3780,"ĠVal":3781,"unch":3782,"ĠClass":3783,"Ġentire":3784,"Ġdest":3785,"({":3786,"Ġcomplete":3787,"case":3788,"xspace":3789,"Ġadded":3790,".)":3791,"lemma":3792,"}_\\":3793,"$)":3794,"Resource":3795,"Ġtoday":3796,"aker":3797,"Off":3798,"istics":3799,"ledge":3800,"41":3801,"oto":3802,"iled":3803,"Ġeconom":3804,"Ġlive":3805,"Ġactually":3806,"oted":3807,"ford":3808,"ĠEnglish":3809,"ĠTest":3810,"server":3811,"request":3812,"Gr":3813,"alax":3814,"77":3815,"ĠNews":3816,"ado":3817,"Ġbuilt":3818,"pat":3819,"itect":3820,"ĠWhat":3821,"Ġcontain":3822,"Ġvisit":3823,"ATE":3824,"wed":3825,"ĠHam":3826,"unfinished":3827,"Ġfixed":3828,"izes":3829,"Ġsaf":3830,"Ġperm":3831,"AA":3832,"Ġnews":3833,"element":3834,"ĠJapan":3835,"Ġdistance":3836,"Ġsymmet":3837,"}|":3838,"Ġchall":3839,"Ġexperiment":3840,"och":3841,"Ġthing":3842,"Ġinf":3843,"Ġ->":3844,"pc":3845,"vis":3846,"ĠCollege":3847,"operator":3848,"ened":3849,"Ġwent":3850,"rench":3851,"'re":3852,"Ġdetails":3853,"ociety":3854,"ooth":3855,"First":3856,"Paramet":3857,"Status":3858,"Ġfall":3859,"quare":3860,"Block":3861,"icture":3862,"Ġprec":3863,"ĠFigure":3864,"bottom":3865,"andid":3866,"à¤":3867,"OM":3868,"ensional":3869,"oved":3870,"Source":3871,"Line":3872,"mid":3873,"rum":3874,"Pos":3875,"Ġdeal":3876,"ĠĠĠĠĠĠĠĠĊ":3877,"Ġtaking":3878,"Nav":3879,"adding":3880,"Ġhor":3881,"Psi":3882,"Ġnight":3883,"arams":3884,"Ġsample":3885,"ying":3886,"pp":3887,"ĠFrom":3888,"Ġaccept":3889,"Ġequival":3890,"ĠAmerica":3891,"ÑĤ":3892,"ĠIN":3893,"Ġsets":3894,"args":3895,"istry":3896,"One":3897,"ĠInter":3898,"ĠStud":3899,"Ġaud":3900,"][":3901,"Ġaccur":3902,"Ġbar":3903,"Ġnamed":3904,"plications":3905,"Ġwhose":3906,"Ġmatter":3907,"idden":3908,"ĠInternational":3909,"known":3910,"artment":3911,"ĠĠĠĠĠĠĠĠĠĠĠĠĠĠ":3912,"HT":3913,"Ġprint":3914,"Ġdouble":3915,"Ġnote":3916,"lections":3917,"Ġ\\{":3918,"ĠUp":3919,"Ġanaly":3920,"iation":3921,"main":3922,"ĠNe":3923,"icult":3924,"Ġir":3925,"Ġdate":3926,"iles":3927,"abs":3928,"Ġweight":3929,"YPE":3930,"Token":3931,"atory":3932,"GL":3933,"mathsf":3934,"anced":3935,"Part":3936,"Ġcommand":3937,"Ġwords":3938,"EX":3939,"Ġpublished":3940,"IV":3941,"Ġgives":3942,"Ġtypes":3943,"ĠII":3944,"Ġengine":3945,"Ġplayer":3946,"oms":3947,"Ġboolean":3948,"Oper":3949,"Ġreported":3950,"Ġprior":3951,"Ġlarger":3952,"attle":3953,"oo":3954,"Ġtransform":3955,"Ġprobability":3956,"ĠPresident":3957,"gebra":3958,"Ġrespons":3959,"Ġeffects":3960,"Ġalign":3961,"})\\":3962,"append":3963,"Instance":3964,"Ġcareer":3965,"dat":3966,"tributes":3967,"sin":3968,"target":3969,"Ġtool":3970,"When":3971,"Ġunique":3972,"ney":3973,"ĠRef":3974,"header":3975,"Ass":3976,"ades":3977,"ialog":3978,"ael":3979,"izer":3980,"Ġitem":3981,"68":3982,"agram":3983,"ensions":3984,"&&":3985,"ĠFirst":3986,"Ġedge":3987,"Ġflow":3988,"ĠArm":3989,"Ġdatas":3990,"Ġcompar":3991,"cup":3992,"Ġmarket":3993,"Ġassume":3994,"encies":3995,"apter":3996,"Ġnatural":3997,"ĠHer":3998,"ican":3999,"flow":4000,"oding":4001,"first":4002,"can":4003,"host":4004,"ĠMich":4005,"Ġround":4006,"elete":4007,"Ġbegan":4008,"Ġwhole":4009,"Ġoption":4010,"rl":4011,"Ab":4012,"ariant":4013,"UL":4014,"Base":4015,"itch":4016,"Ġfav":4017,"Ġcomponent":4018,"Ġcoupl":4019,"Ġtakes":4020,"IM":4021,"Ġapplication":4022,"uz":4023,"unn":4024,"Head":4025,"command":4026,"fill":4027,"Ġcenter":4028,"Ġlocated":4029,"Ġcopy":4030,"arser":4031,"Ġmechan":4032,"stream":4033,"Ġprovides":4034,"REF":4035,"acity":4036,"obile":4037,"split":4038,"navbar":4039,"module":4040,"note":4041,"child":4042,"Ġtell":4043,"post":4044,"98":4045,"avy":4046,"52":4047,"Ġimages":4048,"CD":4049,"ores":4050,"Ġneeds":4051,"ĠAc":4052,"Ġheight":4053,"}^{(":4054,"place":4055,"Options":4056,"|-":4057,"Ġparticip":4058,"atives":4059,"riter":4060,"Ġstation":4061,"ouch":4062,".~":4063,"51":4064,"irtual":4065,"Ġ\"\"\"":4066,"ãģ":4067,"ara":4068,"ilitary":4069,"qquad":4070,"ensive":4071,"Ġcorrect":4072,"ensor":4073,"Ġattempt":4074,"Ġtemperature":4075,"itude":4076,"Ġnov":4077,"rs":4078,"Ġdep":4079,"Ġcapt":4080,"67":4081,"iers":4082,"Ġlocation":4083,"otes":4084,"Ġ]":4085,"aven":4086,"Ġpolicy":4087,"eger":4088,"Ġfram":4089,"Ġfront":4090,"ĠAcc":4091,"Ġneeded":4092,"UE":4093,"Action":4094,"yper":4095,"Pol":4096,"iform":4097,"Ġface":4098,"aign":4099,"strong":4100,"ministr":4101,"Ġbox":4102,"54":4103,"aur":4104,"500":4105,"bound":4106,"anks":4107,"cing":4108,"board":4109,"Ġstatus":4110,"star":4111,"ĠNULL":4112,"(-":4113,"ĠLeague":4114,"ĠIr":4115,"conn":4116,"ĠPhil":4117,"Ġviol":4118,"Ð½":4119,"ĠSan":4120,"rowser":4121,"Ġcommit":4122,"53":4123,"ĠPat":4124,"equiv":4125,"ugin":4126,"Null":4127,"2003":4128,"ota":4129,"Ġclient":4130,"Ġlat":4131,"Ġcompan":4132,"Ġupdate":4133,"ĠWilliam":4134,"Ġresource":4135,"iforn":4136,"ming":4137,"Ġ$(\\":4138,"ĠGroup":4139,"ĠCour":4140,"Ġmoney":4141,"estern":4142,"Ġbroad":4143,"2001":4144,"den":4145,"Ġgenerated":4146,"ulated":4147,"CK":4148,"}}(":4149,"Ġneigh":4150,"ĠĠĠĠĠĠĠĠĠĠĠĠĊ":4151,"Ġdifference":4152,"Ġequal":4153,"ampionship":4154,"btn":4155,"Ġdegree":4156,"Ġprop":4157,"Ġcomes":4158,"Ġrecogn":4159,"Pre":4160,"icol":4161,"ube":4162,"^+":4163,"la":4164,"Ġquantum":4165,"Ġincrease":4166,"Ġproblems":4167,"Ġcontinue":4168,"Ġcompared":4169,"Ġimpact":4170,"tic":4171,"aints":4172,"Ġspin":4173,"local":4174,"inally":4175,"Ġrelationship":4176,"ĠSk":4177,"ĠTV":4178,"Content":4179,"py":4180,"char":4181,"ening":4182,"}:":4183,"Ġdecl":4184,"ĠCenter":4185,"Ġstre":4186,"Handler":4187,"}\\,":4188,"Ġsuccessful":4189,"sembly":4190,"Gener":4191,"appro":4192,"Ġselect":4193,"Ġdemon":4194,"After":4195,"ĠLaw":4196,"Acc":4197,"Point":4198,"ĠUK":4199,"Ġoptim":4200,"Box":4201,"struction":4202,"pected":4203,"}\\\\":4204,"amily":4205,"very":4206,"ario":4207,"ĠLemma":4208,"Ġincludes":4209,"Ġlate":4210,"Ġmode":4211,"Link":4212,"hel":4213,"Ġsense":4214,"Ġlikely":4215,"select":4216,"&=":4217,")-":4218,"Ġ+=":4219,"column":4220,"oe":4221,"json":4222,"Ġitself":4223,"ifornia":4224,"adata":4225,"Ġoperation":4226,"Ġonline":4227,"Ġestablished":4228,"citet":4229,"Ġwhite":4230,"find":4231,"alle":4232,"Ġhttps":4233,"ĠDem":4234,"Ġdefinition":4235,"96":4236,"Ġwebsite":4237,"src":4238,"ĠRed":4239,"omb":4240,"rated":4241,"Ġtherefore":4242,"Ġclub":4243,"hing":4244,"Ġwalk":4245,"ili":4246,"Ġofficial":4247,"eloc":4248,"atur":4249,"atively":4250,"elves":4251,"Ġdirection":4252,"Ġleading":4253,"PC":4254,"ci":4255,"Ġissue":4256,"Ġ&\\":4257,"2021":4258,"Ġsetting":4259,"ND":4260,"Component":4261,"property":4262,"Ġrelease":4263,"97":4264,"Ġapp":4265,"ategy":4266,"Ġdifficult":4267,"Ġspecies":4268,"Ġmonths":4269,"Ġprofess":4270,"Ġinflu":4271,"oul":4272,"roy":4273,"Ġrunning":4274,"2002":4275,"ĉĉĉĉĉĉĉĉ":4276,"xml":4277,"born":4278,"Label":4279,"Ġregard":4280,"Ġvill":4281,"ellow":4282,"[\"":4283,"ĠObject":4284,"Ġreference":4285,"PS":4286,"${":4287,"Ġpers":4288,"Ġpercent":4289,"Ġcollection":4290,"write":4291,"IF":4292,"oring":4293,"Ġpresented":4294,"Spec":4295,"igger":4296,"witch":4297,"Ġdirectly":4298,"ĠOb":4299,"RA":4300,"inn":4301,"Number":4302,"Ġidea":4303,"Ġword":4304,"Ġeffective":4305,"Ġpolitical":4306,"Last":4307,"pecially":4308,"LASS":4309,"orge":4310,"indows":4311,"member":4312,"Ġstream":4313,"Ġ),":4314,"Buffer":4315,"scr":4316,"Start":4317,"Ġsignal":4318,"Ġissues":4319,"Ġbad":4320,"ĠAssoci":4321,"Ġseem":4322,"tex":4323,"Vert":4324,"cret":4325,"tries":4326,"Ġey":4327,"Ġfilms":4328,"ĠReturn":4329,"Default":4330,"stitute":4331,"description":4332,"Ġtax":4333,"Ġunc":4334,"ico":4335,"entry":4336,"allet":4337,"private":4338,"maz":4339,"ÑĢ":4340,"ĠEm":4341,"ship":4342,"Prov":4343,"Cell":4344,"lying":4345,"Ġpattern":4346,"So":4347,"cel":4348,"}+\\":4349,"Ġdig":4350,"Ġgas":4351,"Ġprotected":4352,"otype":4353,"Attribute":4354,"Equal":4355,"ĠIndia":4356,"icip":4357,"empty":4358,"onic":4359,"stract":4360,"Ġactive":4361,"Ġcatch":4362,"Ġhon":4363,"Ġareas":4364,"indent":4365,"img":4366,"Ã³":4367,"Ge":4368,"Ġinternational":4369,"ĠThus":4370,"uccess":4371,"Ġansw":4372,"ĠOur":4373,"Run":4374,"eck":4375,"ĠOF":4376,"Ġconduct":4377,"Ġbenef":4378,"Ġclosed":4379,"Ġbasis":4380,"Ġmaximum":4381,"Americ":4382,"berg":4383,"meta":4384,"Hel":4385,"Ġbehind":4386,"open":4387,"font":4388,"Ġiter":4389,"Ġcoordin":4390,"achine":4391,"fe":4392,"soft":4393,"gener":4394,"Ġshall":4395,"MM":4396,"Ġrestr":4397,"VER":4398,"Ġinternal":4399,"Ġsolutions":4400,"{{\\":4401,"sg":4402,"Ġfood":4403,"Fe":4404,"lean":4405,"Ġstage":4406,"project":4407,"ctor":4408,"Ġmention":4409,"True":4410,"lor":4411,"Ġrot":4412,"Function":4413,"});":4414,"ocket":4415,"Ġuses":4416,"NN":4417,"Ġtold":4418,"Factory":4419,"ĠNone":4420,"Ġsex":4421,"ivil":4422,"ds":4423,"ein":4424,"tag":4425,"clusion":4426,"Ġroad":4427,"]$":4428,"Ġselected":4429,"Ġscen":4430,"Ġlooking":4431,"gg":4432,"Ġdoing":4433,"Ġdeep":4434,"Ġinc":4435,"Ġinvestig":4436,"Ġdiscover":4437,"uses":4438,"ares":4439,"ascript":4440,"Ġforward":4441,"enumer":4442,"Per":4443,"Command":4444,"}/":4445,"Ġago":4446,"useum":4447,"olve":4448,"Ġforce":4449,"Ġpersonal":4450,"ris":4451,"Ġliter":4452,"oice":4453,"ĠNote":4454,"Ġexpression":4455,"Ġextends":4456,"ptr":4457,"Ġcontact":4458,"lands":4459,"anged":4460,"fect":4461,"arily":4462,"Ġmind":4463,"that":4464,"Ġobjects":4465,"lock":4466,"inated":4467,"Ġformat":4468,"Ġnumbers":4469,"Ġallows":4470,"status":4471,"Ġmonth":4472,"heet":4473,"Ġwindow":4474,"ams":4475,"close":4476,"Version":4477,"Ġholds":4478,"nes":4479,"}}{\\":4480,"Ġdemonstr":4481,"Ġquality":4482,"Ġgalax":4483,"mem":4484,"Ġparty":4485,"Ġarticle":4486,"Ġcentral":4487,"Ġrepresentation":4488,"Ġpick":4489,"ĠDavid":4490,"Ġboundary":4491,"Ġprinc":4492,"Ġyield":4493,"Ġadj":4494,"Ġupon":4495,"Ġrights":4496,"ously":4497,"Ġautom":4498,"ĠAustralia":4499,"aching":4500,"Ġcomponents":4501,"hspace":4502,"Ġfilter":4503,"ba":4504,"Rep":4505,"Ġled":4506,"yr":4507,"Ġpopular":4508,"ya":4509,"Ġinit":4510,"Ġoutside":4511,"uate":4512,"ĠCalifornia":4513,"istance":4514,"Ġrelative":4515,"Ġthrows":4516,"|^":4517,"mt":4518,"Ġchannel":4519,"ĠID":4520,"ifact":4521,"ĠFil":4522,"Ġstudies":4523,"Ġperformed":4524,"neq":4525,"Ġdraw":4526,"ĠRepublic":4527,"Ġexcept":4528,"ĠTable":4529,"EL":4530,"Ġdevice":4531,"ĠEast":4532,"Ġcandid":4533,"Ġcontract":4534,"Check":4535,"Ġsimply":4536,"ĠSen":4537,"ln":4538,"Ġproduced":4539,"Ġconnection":4540,"trict":4541,"Ġdeveloped":4542,"ĠRem":4543,"uid":4544,"NO":4545,"Ġess":4546,"Ġdenote":4547,"Ġeffort":4548,"unit":4549,"ĠHol":4550,"Ġreturned":4551,"format":4552,"That":4553,"}'":4554,"*/":4555,"Ġquite":4556,"Ġchoice":4557,"Ġprove":4558,"ĠAnt":4559,"Ġcontribut":4560,"ĠEar":4561,"rief":4562,"ypes":4563,"ĠBlack":4564,"Ġespecially":4565,"inner":4566,"Ġmodule":4567,"anger":4568,"ĠJust":4569,"Ġphysical":4570,"oz":4571,"Ob":4572,"Back":4573,"Ġmag":4574,"obj":4575,"Ġspeed":4576,"ĠMal":4577,"Ġbring":4578,"last":4579,"Post":4580,"ĠData":4581,"layout":4582,"Ġrank":4583,"Ġusers":4584,"jection":4585,"Ġconstruction":4586,"Ġparts":4587,"pass":4588,"Task":4589,"PP":4590,"Ġtim":4591,"Ġgre":4592,"ĠFrench":4593,"Ġquick":4594,"pack":4595,"evelop":4596,">>":4597,"Page":4598,"ĠPal":4599,"iments":4600,"DB":4601,"Ġhistor":4602,"Ġupd":4603,"SI":4604,"olic":4605,"ĠCons":4606,"Ġpack":4607,"Ġcomment":4608,"ici":4609,"Ġindustry":4610,"Ġda":4611,"Ġinterface":4612,"}-\\":4613,"elt":4614,"Ġstars":4615,"wood":4616,"band":4617,"Return":4618,"Ġwriting":4619,"asc":4620,"Ġ<!--":4621,"ategor":4622,"Ġapplied":4623,"={":4624,"ĠStreet":4625,"Ġsus":4626,"operatorname":4627,"ÃŃ":4628,"bin":4629,"ĠIndian":4630,"omial":4631,"num":4632,"Ġfem":4633,"Ġdomain":4634,"ees":4635,"Ġlost":4636,"Ġtree":4637,"Ġcentury":4638,"ĠSub":4639,"Ġinside":4640,"anning":4641,"Ġequations":4642,"Ġachiev":4643,"istrict":4644,"push":4645,"DO":4646,"Ġfire":4647,"Ġhit":4648,"ussion":4649,"Ġseems":4650,"sole":4651,"ĠBook":4652,"normal":4653,"Ġshare":4654,"burg":4655,"Ġveloc":4656,"Ġsolid":4657,"Ġauto":4658,"lier":4659,"86":4660,"ĠWork":4661,"Ġcurrently":4662,"chema":4663,"Ġserver":4664,"annot":4665,"Ġtransition":4666,"Load":4667,"Ġincreasing":4668,"Ġopport":4669,"SU":4670,"Ġfriend":4671,"Em":4672,"SON":4673,"Ġcred":4674,"ĠChina":4675,"rows":4676,"TER":4677,"Ġrob":4678,"ĠPaul":4679,"ĠOut":4680,"ĠNow":4681,"pite":4682,"Ġbehavior":4683,"rypt":4684,"UI":4685,"resh":4686,"ĠGod":4687,"Ext":4688,"Since":4689,"ĠÃ":4690,"cs":4691,"ancial":4692,"enumerate":4693,"Ġhot":4694,"Ġtransfer":4695,"ios":4696,"asons":4697,"Create":4698,"Ġvariables":4699,"number":4700,"Ġdark":4701,"ĉĠĠĠ":4702,"Ġepis":4703,"Ġborn":4704,"ka":4705,"Ġson":4706,"ria":4707,"ĠBer":4708,"Ġupper":4709,"\"]":4710,"ĠResearch":4711,"Sim":4712,"Ġpain":4713,"Ġbelieve":4714,"po":4715,"Char":4716,"cr":4717,"Ġreve":4718,"Ġspecified":4719,"ĠEuropean":4720,"Ġgetting":4721,"joy":4722,"usion":4723,"ometry":4724,"Ġconsum":4725,"Pe":4726,"ectors":4727,"Ġ{@":4728,"76":4729,"ilton":4730,")}{":4731,"Ġfa":4732,"only":4733,"Ġwor":4734,"Ġheart":4735,"ĠPort":4736,"theorem":4737,"loor":4738,"raz":4739,"Ġlonger":4740,"Ġbecomes":4741,"Ġdrop":4742,"FONT":4743,"Ġfather":4744,"Next":4745,"ĠĠĠĠĠĠĠĠĠĠĠĠĠĠĠĠĠĠĠĠĠĠĠĠĠĠĠĠĠĠĠĠĠĠĠ":4746,"Ġimmedi":4747,"ãĥ":4748,"ĠHealth":4749,"iday":4750,"unt":4751,"DF":4752,"///":4753,"irit":4754,"javascript":4755,"Ġwatch":4756,"ĠHere":4757,"process":4758,"witter":4759,"Aut":4760,"Ġhours":4761,"Ġnone":4762,"ĠOf":4763,"itemize":4764,"Met":4765,"Ġsecurity":4766,"std":4767,"nov":4768,"iler":4769,"Ġfun":4770,"Ġcoeff":4771,"utive":4772,"uns":4773,"Ġgoal":4774,"Ġtechnology":4775,"Ġimm":4776,"arks":4777,"CL":4778,"ki":4779,"Ġscreen":4780,"ĠGeneral":4781,"Ġball":4782,"Ġcompanies":4783,"dec":4784,"Ġpresident":4785,"ĠDirect":4786,"]\\":4787,"ĠJames":4788,"ĠEngland":4789,"Ġlayer":4790,"Ġnothing":4791,"Ġknowledge":4792,"Ġallowed":4793,"Ġdescription":4794,"edia":4795,"acher":4796,"Ġhimself":4797,"Ġbre":4798,"Ġ-\\":4799,"Then":4800,"SO":4801,"di":4802,"Ġvers":4803,"uge":4804,"Now":4805,"values":4806,"ifying":4807,"Ġlevels":4808,"~$":4809,"Rem":4810,"Ġrev":4811,"ida":4812,"ville":4813,"Ġvariable":4814,"Ġnav":4815,"ĠPre":4816,"ĠDay":4817,"Ġimplies":4818,"filter":4819,"Ġquery":4820,"rule":4821,"agger":4822,"Ġroom":4823,"Ġcharacters":4824,"Ġaw":4825,"Ġproducts":4826,"Ġelectron":4827,"Ġintroduced":4828,"riate":4829,"Ġmid":4830,"Ġsold":4831,"rote":4832,"Ġnecessary":4833,"grad":4834,"Ġeasy":4835,"Ġargument":4836,"Ġweak":4837,"American":4838,"ql":4839,"han":4840,"Ġsupported":4841,"Ġwait":4842,"styles":4843,"Ñģ":4844,"Ġprote":4845,"ĠCouncil":4846,"TP":4847,"Pi":4848,"Ġsmaller":4849,"Ġprobably":4850,"Ġsources":4851,"Ġmargin":4852,"iences":4853,"Ð¾Ð":4854,"Ġmor":4855,"Ġax":4856,"ĠCanada":4857,"\").":4858,"Ġdam":4859,"otal":4860,"ttp":4861,"ĠWhile":4862,"opl":4863,"Ġinteresting":4864,"Ġevidence":4865,"Ġsoftware":4866,"ĠDistrict":4867,"ayers":4868,"Ġmemory":4869,"Ġarchitect":4870,"Ġavoid":4871,"'m":4872,"osen":4873,"({\\":4874,"mes":4875,"bert":4876,"$}":4877,"mission":4878,"fort":4879,"Ġannounced":4880,"dimensional":4881,"Ġanim":4882,"oyal":4883,"Le":4884,"mathscr":4885,"vant":4886,"response":4887,"ĠSome":4888,"Us":4889,"stant":4890,"Ġdecision":4891,"{}":4892,"Style":4893,"isation":4894,"Comp":4895,"Ġ((":4896,"(&":4897,"Child":4898,"Ġseg":4899,"files":4900,"Ġrisk":4901,"oded":4902,"Ġsort":4903,"rate":4904,"Br":4905,"dep":4906,"Ġvict":4907,"ĠSpec":4908,"allel":4909,"attr":4910,"Ġindu":4911,"Equals":4912,"Ġ~":4913,"len":4914,"ABLE":4915,"85":4916,"ĠTherefore":4917,"acc":4918,"Ġcampaign":4919,"More":4920,"Ġanything":4921,"Dr":4922,"Ġagre":4923,"inding":4924,"ias":4925,"Ġrelation":4926,"Ġconcept":4927,"Ġinvolved":4928,"CA":4929,"stack":4930,"ĠHall":4931,"Ġfra":4932,"Ġfiles":4933,"Co":4934,"ros":4935,"vspace":4936,"ashington":4937,"container":4938,"aa":4939,"Ġsil":4940,"Ġtowards":4941,"1999":4942,"update":4943,"Ġpolice":4944,"tee":4945,"reference":4946,"ĠDepartment":4947,"BU":4948,":</":4949,"Ġtour":4950,"ĠRober":4951,"mas":4952,"Ġselection":4953,"century":4954,"PT":4955,"Ġcoming":4956,"Ġnames":4957,"Ġcam":4958,"########":4959,"Ġnodes":4960,"iece":4961,"eal":4962,"support":4963,"}}_":4964,"erve":4965,"ĠEv":4966,"Ġevolution":4967,"Format":4968,"tool":4969,"Ġentry":4970,"Net":4971,"PR":4972,"Controller":4973,"rong":4974,"ĠMor":4975,"Ġconcern":4976,"Ġurl":4977,"ĠSee":4978,"Ġworked":4979,"example":4980,"Ġdecre":4981,"cd":4982,"Listener":4983,"illing":4984,"trm":4985,"linear":4986,"Ġgirl":4987,"Ġgrowth":4988,"Ġmix":4989,"Ġcritical":4990,"norm":4991,"Ġreturns":4992,"ĠBel":4993,"service":4994,"menu":4995,"Ġaltern":4996,"Ġmanagement":4997,"Ġrecently":4998,"Ġsn":4999,"Ġframe":5000,"Ġfight":5001,"Note":5002,"SD":5003,"essages":5004,"ATION":5005,"erved":5006,"ini":5007,"'$":5008,"Sec":5009,"\\,\\":5010,"PRO":5011,"elebr":5012,"instance":5013,"Ġserved":5014,"ĠRich":5015,"aml":5016,"enced":5017,"acter":5018,"ĠCLASS":5019,"ĠThom":5020,"Ã¼":5021,"textrm":5022,"Ġplatform":5023,"Top":5024,")}$":5025,"gence":5026,"Tem":5027,"Web":5028,"Ġdimension":5029,"sets":5030,"Ġroot":5031,"CON":5032,".$":5033,"Mem":5034,"arp":5035,"FI":5036,"Ġrule":5037,"Ent":5038,"ĠHREF":5039,"ago":5040,"Me":5041,"Ġconnected":5042,"buf":5043,"87":5044,"Ġdied":5045,"Ġmagnetic":5046,"refix":5047,"!!":5048,"Ġcharg":5049,"Ġrock":5050,"final":5051,"ĠDi":5052,"ĠInstitute":5053,"\\}$":5054,"ĠTrump":5055,"ãĤ":5056,"multicol":5057,"ĠTechn":5058,"otic":5059,"pg":5060,"endif":5061,"Ġprogress":5062,"iber":5063,"Ġmoved":5064,"IO":5065,"Ġeducation":5066,"isions":5067,"Ġoffice":5068,"arter":5069,"ĠFound":5070,"ĠScience":5071,"Ġetc":5072,"show":5073,"Mode":5074,"Ġstreng":5075,"noindent":5076,"ansion":5077,"Column":5078,"Ġbirths":5079,"ĠMet":5080,"aud":5081,"ĠRead":5082,"icate":5083,"eli":5084,"{{":5085,"ERT":5086,"<?":5087,"texttt":5088,"Ġdesigned":5089,"ĠGerman":5090,"Ġ\\|":5091,"oder":5092,"Output":5093,"ederal":5094,"multicolumn":5095,"iting":5096,"ootstr":5097,"Ġusually":5098,"Ġestimate":5099,"Ġproced":5100,"ĠJack":5101,"Ġplaying":5102,"ĠCup":5103,"BA":5104,"Ġconfiguration":5105,"Ġaward":5106,"||":5107,"Ġreading":5108,"inct":5109,"Ġliving":5110,"Ġclasses":5111,"Button":5112,"Ut":5113,"iny":5114,"Ġdistrict":5115,"params":5116,"URL":5117,"Valid":5118,"ĠHT":5119,"ĠST":5120,")+":5121,"SA":5122,"Ġtro":5123,"\"),":5124,"Ġsaw":5125,"ani":5126,"clude":5127,"bon":5128,"izations":5129,"Ġthroughout":5130,"depend":5131,"Ġqual":5132,"Ġplot":5133,"ĠSum":5134,"ĠDec":5135,"Ġsomeone":5136,"zer":5137,"Ġnorth":5138,"Filter":5139,"ĠMart":5140,"Ġoperations":5141,"Ġuns":5142,"rd":5143,"Ġnuc":5144,"etails":5145,"Ġdetermined":5146,"Ġfeed":5147,"ecause":5148,"ocal":5149,"Ġfast":5150,"inv":5151,"Layout":5152,"Ġconnect":5153,"Ġemer":5154,"Ġmother":5155,"////////////////":5156,"ĠRiver":5157,"Ġasked":5158,"Ġillust":5159,"mselves":5160,"isher":5161,"Ġratio":5162,"Ġalgebra":5163,"Ġpatients":5164,"olar":5165,"Ġmeet":5166,"Ġtelev":5167,"ĠGreen":5168,"ĠMat":5169,"ua":5170,"Ġtrying":5171,"ĠType":5172,"Ġten":5173,"Ġcharge":5174,"$&":5175,"Address":5176,"Ġ;":5177,"My":5178,"Ġprimary":5179,"ĠDon":5180,"Ġsoon":5181,"Ġhope":5182,"Ġalthough":5183,"enge":5184,"ĠMr":5185,"'ve":5186,"Ġleaders":5187,"ORT":5188,"COL":5189,"Ġinj":5190,"ĠArch":5191,"App":5192,"ĠĠĠĊ":5193,"}}}":5194,"Select":5195,"89":5196,"ĠDiv":5197,"ĠCO":5198,"Ġnovel":5199,"approx":5200,"ĠSy":5201,"ĠMusic":5202,"Ġaim":5203,"Do":5204,"Ġpret":5205,"Our":5206,"ullet":5207,"72":5208,"Ġenjoy":5209,"Ġstarting":5210,"Te":5211,"Ġthemselves":5212,"ĠCourt":5213,"Ġwrote":5214,"win":5215,"ootstrap":5216,"remove":5217,"Ġspectrum":5218,"Ġmodern":5219,"Ġequivalent":5220,"else":5221,"300":5222,"anish":5223,"Ġtravel":5224,"rupt":5225,"Ġnature":5226,"ometimes":5227,"uthors":5228,"Ġcollect":5229,"chedul":5230,"Ġisn":5231,"ughter":5232,"hest":5233,"antic":5234,"HO":5235,"Ġwoman":5236,"ĠGoogle":5237,"gs":5238,"Ġfrequency":5239,"Ġexisting":5240,"Ġbooks":5241,"Ġremove":5242,"Ġstatement":5243,"ĠService":5244,"crete":5245,"Ġveh":5246,"Ġneut":5247,"Ġeigen":5248,"prove":5249,"Ġexhib":5250,"CP":5251,"Ġattention":5252,"ĠLog":5253,"Ġtreatment":5254,"69":5255,"Ġhol":5256,"ĠBay":5257,"Ġnoise":5258,"Ġfully":5259,"Ġeverything":5260,"exec":5261,"Ġfont":5262,"ett":5263,"ĠTHE":5264,"Ġrules":5265,"Ġnegative":5266,"Ġremains":5267,"Ġvelocity":5268,"Ġones":5269,"ano":5270,"ĠPost":5271,"Ġlimited":5272,"ĠOpen":5273,"Ġtag":5274,"Ġwall":5275,"Ġensure":5276,"Ġpractice":5277,"Ġactual":5278,"wrap":5279,"Ġign":5280,"ĠOther":5281,"Ġinstr":5282,"```":5283,"').":5284,"black":5285,"Ġmilitary":5286,"scope":5287,"gn":5288,"ĠPublic":5289,"Ġacqu":5290,"Ġlargest":5291,"ĠSing":5292,"AV":5293,"Ġjud":5294,"Ġsymbol":5295,"term":5296,"Ġtransport":5297,"ander":5298,"Url":5299,"ĠJer":5300,"Ġcause":5301,"aily":5302,"Length":5303,"Ġfix":5304,"output":5305,"Ġminutes":5306,"eft":5307,"Ġcast":5308,"ĠSw":5309,"efined":5310,"Ġproper":5311,"estival":5312,"ĠTime":5313,"\\\"":5314,"ĠPress":5315,"Ġstore":5316,"PO":5317,"ospital":5318,"ĠChurch":5319,"ĠParty":5320,"ĠRoad":5321,"Ġdescribe":5322,"anges":5323,"Ġhel":5324,"force":5325,"Work":5326,"Ġstaff":5327,"Ġquestions":5328,"ancy":5329,"Bundle":5330,"Ġfigure":5331,"EM":5332,"izont":5333,"Ġinterpre":5334,"Ġotherwise":5335,"Ġexactly":5336,"ervices":5337,"ĠQue":5338,"well":5339,"Ġdoc":5340,"bes":5341,"iverse":5342,"Ġjo":5343,"Ġfollowed":5344,"itable":5345,"Ġcluster":5346,"Ġexplicit":5347,"ca":5348,"Ġsouth":5349,"Ġvirtual":5350,"Ġregions":5351,"$_":5352,"ynomial":5353,"ĠReview":5354,"ĠGerm":5355,"Ġcountries":5356,"ernel":5357,"ĠAssociation":5358,"Max":5359,"Ġtelevision":5360,"vention":5361,"ympt":5362,"ena":5363,"Ġrace":5364,"ĠCap":5365,"ĠEX":5366,"rics":5367,"Ġshape":5368,"eles":5369,"Ġwanted":5370,"ĠLicense":5371,"minus":5372,"free":5373,"ĠChampionship":5374,"=\"../../../../../":5375,"Ġpanel":5376,"Ġabsol":5377,"Ġeight":5378,"Ġmovie":5379,"Vis":5380,"Ġblue":5381,"ĠWashington":5382,"Ġord":5383,"onder":5384,"./":5385,"issions":5386,"ogg":5387,"Ġexpand":5388,"ĠYear":5389,"icted":5390,"ĠSl":5391,"1998":5392,"Server":5393,"Ġextra":5394,"rian":5395,"ston":5396,"Ġ(-":5397,"auss":5398,"ĠAward":5399,"Ġgave":5400,"$(":5401,"Ġchoose":5402,"Ġhyp":5403,"ĠFrance":5404,"hent":5405,"79":5406,"kit":5407,"Ġlack":5408,"ĠMag":5409,"graph":5410,"Ġchalleng":5411,"utils":5412,"Ġsubs":5413,"Ġtrain":5414,"Ġvolume":5415,"lymp":5416,"ĠCE":5417,"Ġsamples":5418,"older":5419,"author":5420,"Ġframework":5421,"Sl":5422,"ĠArray":5423,"Ġfinally":5424,"Ġchanged":5425,"then":5426,"TYPE":5427,"airs":5428,"det":5429,"gu":5430,"hi":5431,"uated":5432,"Ġsend":5433,"ilies":5434,"Ġweb":5435,"Ġstay":5436,"Ġrecomm":5437,"ashed":5438,"Ġmaintain":5439,"Ġdirector":5440,"ufact":5441,"Ġminimum":5442,"ĠVol":5443,"Ġeasily":5444,"ewidth":5445,"Ġsmooth":5446,"Ġperfect":5447,"Ġcallback":5448,"omic":5449,"Ġmis":5450,"Ġradio":5451,"Ġuncertain":5452,"ĠTri":5453,"Ġbal":5454,"Ġdataset":5455,"break":5456,"Rel":5457,"Ġpresence":5458,":\"":5459,"Here":5460,"ĠMichael":5461,"Tag":5462,"Update":5463,"TO":5464,"Ġregister":5465,"sign":5466,"Ġrequires":5467,"FO":5468,"ternet":5469,"reshold":5470,"proto":5471,"gent":5472,"Bo":5473,"Ġways":5474,"Ġtransl":5475,"Ġgets":5476,"ĠLeg":5477,"ĠGeorge":5478,"float":5479,"ipp":5480,"Ġresources":5481,"Row":5482,"Ġsplit":5483,"Enc":5484,"Case":5485,"ounter":5486,"ulate":5487,"Ġsufficient":5488,"^-":5489,"Ġearlier":5490,"ibly":5491,"resents":5492,"_.":5493,"Can":5494,"Ġer":5495,"Ġteams":5496,"Ġresulting":5497,"Ġhyper":5498,"Ġadapt":5499,"spect":5500,"classes":5501,"Ġâ":5502,"Ġ$\\{":5503,"subseteq":5504,"tical":5505,"Ġtra":5506,"ĠWhite":5507,"Ġrecover":5508,"ĠRE":5509,"outhern":5510,"Ġscheme":5511,"fit":5512,"task":5513,"itory":5514,"Ġded":5515,"ved":5516,"Ġcore":5517,"orthern":5518,"ĠBest":5519,"bour":5520,"Ġelection":5521,"Min":5522,"ĠMac":5523,"([":5524,"Ġque":5525,"olec":5526,"Ġoverall":5527,"icial":5528,"Ġuseful":5529,"She":5530,"sey":5531,"ĠAPI":5532,"Ġremain":5533,"gin":5534,"1990":5535,"Ġpeak":5536,"Ġjoin":5537,"Ġfriends":5538,"Ġboard":5539,"Ġempty":5540,"sd":5541,"Ġestablish":5542,"Ġmetric":5543,"cover":5544,"Ġcounter":5545,"izontal":5546,"fg":5547,"Ġcells":5548,"Ġdead":5549,"ona":5550,"1000":5551,"van":5552,"Ġapplications":5553,"weight":5554,"itar":5555,"ĠDemocr":5556,"'ll":5557,"ynch":5558,"FT":5559,"Ġfailed":5560,"CR":5561,"images":5562,"Ġgoes":5563,"thon":5564,"icrosoft":5565,"SH":5566,"Ġpreviously":5567,"Ġ[]":5568,"ky":5569,"tree":5570,"Par":5571,")/":5572,"84":5573,"prod":5574,"iller":5575,"ĠAfrica":5576,"Ġ_{":5577,"erc":5578,"ĠInc":5579,"Ġste":5580,"Ġpassed":5581,"Ġinteraction":5582,"63":5583,"otion":5584,"ĠBen":5585,"expected":5586,"++)":5587,"94":5588,"$\\{":5589,"comple":5590,"ĠAre":5591,"etime":5592,"ĠAnn":5593,"inese":5594,"Ġnorm":5595,"real":5596,"Ġhum":5597,"Ġmut":5598,"Ġmicro":5599,"Ġbeaut":5600,"Ġerrors":5601,"CS":5602,"Ġslow":5603,"iring":5604,"Ġdetermine":5605,"Dev":5606,"rees":5607,"Control":5608,"parse":5609,"Ġrepe":5610,"Cache":5611,"Ġreli":5612,"Mon":5613,"Ġleave":5614,"adian":5615,"GB":5616,"NE":5617,"ĠTom":5618,"Ġuniform":5619,"Ġactivity":5620,"ao":5621,"Ġcourt":5622,"umin":5623,"Ġlif":5624,"merc":5625,"ĠAlex":5626,"Mar":5627,"eters":5628,"Ġwave":5629,"mitted":5630,"Open":5631,"Ġ**":5632,"conf":5633,"UM":5634,"Ġ!==":5635,"Ġwide":5636,"clos":5637,"KE":5638,"Ġ\\(":5639,"iques":5640,"ĠEnd":5641,"Ã¶":5642,"Ġinterview":5643,"isms":5644,"ĠOver":5645,"ulture":5646,"footnote":5647,"93":5648,"Ġdepart":5649,"Ġstrategy":5650,"aine":5651,"Ġhandle":5652,"Ġnetworks":5653,"Ġprofile":5654,"---":5655,"Ġmeaning":5656,"iders":5657,"oom":5658,"Ġthreat":5659,"fa":5660,"ĠYour":5661,"}^{-":5662,"Width":5663,"NAME":5664,"Ġstructures":5665,"DD":5666,"Ġcompletely":5667,"Ġpressure":5668,"ĉĉĊ":5669,"Ġapprop":5670,"Ġreveal":5671,"ĠSam":5672,"Offset":5673,"Ġappears":5674,"ĠPo":5675,"RI":5676,"82":5677,"etch":5678,"offset":5679,"?âĢĿ":5680,"Ġimprove":5681,"62":5682,"ĠDel":5683,"Ġextension":5684,"Ġcompl":5685,"Location":5686,"Ã¤":5687,"ĠCong":5688,"Rev":5689,"Provider":5690,"Ġmotion":5691,"adow":5692,"ĠRob":5693,"models":5694,"ponents":5695,"PA":5696,"aight":5697,"itz":5698,"ius":5699,"Types":5700,"}},":5701,"Theta":5702,"Ġleads":5703,"Ġtheorem":5704,"ror":5705,"ĠMary":5706,"Ġfair":5707,"Access":5708,"Search":5709,"BS":5710,"idents":5711,"frame":5712,"Ġobservations":5713,"ĉĉĉĉĉĉĉ":5714,"haps":5715,"Frame":5716,"Ġvs":5717,"gate":5718,"iginal":5719,"Ġsituation":5720,"Ġvillage":5721,"ĠBuild":5722,"Po":5723,"=\"-":5724,"Ġoperators":5725,"Ġhence":5726,"Ġcop":5727,"Ġmale":5728,"Ġbur":5729,"Ġscient":5730,"Ġbottom":5731,"reme":5732,"ls":5733,"artifact":5734,"ĠDE":5735,"auge":5736,"Ġprofessional":5737,"Ġscore":5738,"ĠGold":5739,"Ġcontinuous":5740,"ART":5741,"92":5742,"Ġdiscussed":5743,"typ":5744,"(_":5745,"drop":5746,"Ġanti":5747,"ĠProgram":5748,"Ġslight":5749,"Ġdise":5750,"Go":5751,"Ġcomparison":5752,"document":5753,"prototype":5754,"1997":5755,"Ġadministr":5756,"Ġability":5757,"Ġbelong":5758,"<\\":5759,"Ġ\\;":5760,"fs":5761,"subfigure":5762,"Ġship":5763,"Ġarguments":5764,"Ġreach":5765,"hol":5766,"Copy":5767,"Ġswitch":5768,"Ġsteps":5769,"Ġhighly":5770,"should":5771,"agon":5772,"coming":5773,"Ġbasic":5774,"ailed":5775,"Ġpull":5776,"Ġinequ":5777,"1996":5778,"Ġbey":5779,"bitr":5780,"ĠTex":5781,"Ġembedd":5782,"RL":5783,"Ġderiv":5784,"Ġfavor":5785,"Ġmiddle":5786,"control":5787,"Ġemail":5788,"setminus":5789,"Ġscience":5790,"Ġforms":5791,"Ġculture":5792,"linewidth":5793,"Ġeveryone":5794,"Tree":5795,"Ġmus":5796,"Ġcelebr":5797,"Ġitems":5798,"ĠVir":5799,"root":5800,"74":5801,"ocation":5802,"ura":5803,"eler":5804,"ĠCompany":5805,"Ġbeyond":5806,"Ġunits":5807,"CODE":5808,"za":5809,"61":5810,"Ġincreased":5811,"ĠDan":5812,"underline":5813,"ental":5814,"ĠWeb":5815,"Configuration":5816,"evelopment":5817,"ERR":5818,"Ġuint":5819,"ĠFranc":5820,"Target":5821,"edy":5822,"Ġrecon":5823,"History":5824,"Ø§":5825,"Ġwife":5826,"house":5827,"Ġexamples":5828,"Ġrelig":5829,"urt":5830,"Ġmaps":5831,"400":5832,"cribe":5833,"ĠIsra":5834,"Ġreduced":5835,"Ġrates":5836,"SM":5837,"ĠĠĠĠĠĠĠĠĠĠĠĠĠĠĠĠĠĠĠĠĠ":5838,"ĠIsland":5839,"Ġrelevant":5840,"ĠLou":5841,"Ġidentity":5842,"Ġwrong":5843,"ĠSociety":5844,"Ġinfin":5845,"oplus":5846,"Ġinsp":5847,"alysis":5848,"inger":5849,"Ġ($\\":5850,"Ġconsequ":5851,"fess":5852,"Ġexception":5853,"Entity":5854,"omin":5855,"ingu":5856,")|":5857,"Eng":5858,"ĠInst":5859,"ĠMount":5860,"abilities":5861,"itt":5862,"gan":5863,"Script":5864,"vector":5865,"Right":5866,"Ġworth":5867,"nother":5868,"{$":5869,"Ġpolynomial":5870,"Ġstudied":5871,"Ġessential":5872,"ULT":5873,"Parameter":5874,"Ġ$|":5875,"cat":5876,"background":5877,"Ġobj":5878,"FL":5879,"Direct":5880,"Ġcurve":5881,"Ġrepresents":5882,"Ġ\\},":5883,"iant":5884,"ĠMem":5885,"hor":5886,"Ġlegal":5887,"ĠFin":5888,"ĠForm":5889,"common":5890,"Ġclean":5891,"ĠHel":5892,"Ġtherm":5893,"Ġfactors":5894,"bal":5895,"xx":5896,"Ġcompleted":5897,"Ġcard":5898,"definition":5899,"Ġchosen":5900,"Ġexperiments":5901,"Ġcapital":5902,"Ġgreater":5903,"ĠJew":5904,"ĠFile":5905,"Ġproduce":5906,"hr":5907,"}}_{":5908,"73":5909,"Ġlives":5910,"Ġprice":5911,"Ġoffset":5912,"Ġchem":5913,"ĠGermany":5914,"ifold":5915,"Ġprocesses":5916,"Ġrap":5917,"icks":5918,"Ġbeginning":5919,"Ġbrother":5920,"limits":5921,"=(":5922,"Ġtrade":5923,"bool":5924,"Ġsurpr":5925,"ĉĠ":5926,"ĠAlso":5927,"ĠRel":5928,"Ġstraight":5929,"ether":5930,"room":5931,"avity":5932,"Ġclassical":5933,"Op":5934,"Ġdiagram":5935,"Ġmount":5936,"cles":5937,"Pat":5938,"Ġorigin":5939,"Ġfinancial":5940,"ĠTur":5941,"Ġmissing":5942,"aligned":5943,"Ġargs":5944,"Ġoptimal":5945,"Ġvertex":5946,"Ġvan":5947,"Utils":5948,"Ġsaying":5949,"deg":5950,"Ġpert":5951,"shift":5952,"atically":5953,"Ġattribute":5954,"acement":5955,"ĠUnion":5956,"Entry":5957,"Ġlatest":5958,"ĠSal":5959,"scal":5960,"ĠMus":5961,"Ġpretty":5962,"illa":5963,"Ġlen":5964,"ducation":5965,"Ġexam":5966,"Ġsession":5967,"porary":5968,"modal":5969,"Ġcontinued":5970,"Ġgenerally":5971,"Ġflux":5972,"********************************":5973,"wner":5974,"Gl":5975,"Ġparticularly":5976,"ipl":5977,"ĠSur":5978,"step":5979,"acebook":5980,"ellar":5981,"olved":5982,"IST":5983,"dx":5984,"ĠAut":5985,"reek":5986,"ydro":5987,"ivacy":5988,"Ġgenerate":5989,"QL":5990,"second":5991,"83":5992,"Ġchain":5993,"jo":5994,"91":5995,"template":5996,"Ġcontaining":5997,"CM":5998,"Ġruns":5999,"Ġplane":6000,"Ġcategory":6001,"ĠHamilton":6002,"riz":6003,"tml":6004,"ĠGreat":6005,"pare":6006,"Process":6007,"'),":6008,"ĠReturns":6009,"apse":6010,"Ġopened":6011,"Ġdynamics":6012,"Ġextended":6013,"returns":6014,"Exec":6015,"rect":6016,"Ġfloat":6017,"ĠFore":6018,"after":6019,"71":6020,"Ġparticle":6021,"ĠClub":6022,"agment":6023,"Ġgreen":6024,"ech":6025,"Ġcompact":6026,"require":6027,"ĠUs":6028,"Project":6029,"Dec":6030,"bas":6031,"ĠMiss":6032,"ategories":6033,"]);":6034,"Ġreceive":6035,"Ġplaces":6036,"icated":6037,"Ġextract":6038,"mercial":6039,"omorphism":6040,"Ġrad":6041,"Ġschools":6042,"actor":6043,"SL":6044,"Ġdeliver":6045,"bi":6046,"olf":6047,"cons":6048,"anned":6049,"Ġhous":6050,"ĠSeries":6051,"range":6052,"*{":6053,"adr":6054,"tim":6055,"Ġpen":6056,"DA":6057,"Ġprevent":6058,"Sy":6059,"IGN":6060,"Ġ{}":6061,"Ġbrought":6062,"ĠSuper":6063,"ĠNor":6064,"wedge":6065,"arant":6066,"attice":6067,">,":6068,"Ġbuffer":6069,"road":6070,"iciency":6071,"ĠÂ£":6072,"Ġaffect":6073,"window":6074,"ĠAcadem":6075,"Ġlatter":6076,"Ġvisual":6077,"imary":6078,"Ġequip":6079,"Ġdou":6080,"Ġsigned":6081,"Ġaccuracy":6082,"match":6083,"Ġmeeting":6084,"Ġpurch":6085,"even":6086,"ĠProject":6087,"Ġ$-":6088,"Ġvariety":6089,"ACK":6090,"oma":6091,"\\}":6092,"Ġcook":6093,"ellig":6094,"cache":6095,"etail":6096,"ĠScott":6097,"Ġappoint":6098,"Local":6099,"token":6100,"81":6101,"Ġ$[":6102,"^{-\\":6103,"Ġimag":6104,"Description":6105,"ðŁ":6106,"Ġdram":6107,"Ġcomputer":6108,"Ġmeasured":6109,"Ġsongs":6110,"Inst":6111,"Ġimplementation":6112,"Ġsubsequ":6113,"\"))":6114,"Ġdrug":6115,"artifactId":6116,"greg":6117,"atial":6118,"ĠGL":6119,"Ġneighbor":6120,"BO":6121,"ĠWil":6122,"ucture":6123,"Json":6124,"Ġscope":6125,"El":6126,"INT":6127,"ounds":6128,"()->":6129,"MO":6130,"Current":6131,":\\":6132,"Ġderived":6133,"FC":6134,"resource":6135,"Ġstories":6136,"before":6137,"Ġimmediately":6138,"Ġconstit":6139,"ĠFurther":6140,"Ġkm":6141,"1995":6142,"ĠHistory":6143,"Ġarbitr":6144,"ĠRobert":6145,"Ġnearly":6146,"ä¸":6147,"asure":6148,"Dat":6149,"Port":6150,"Ġstudent":6151,"colon":6152,"rial":6153,"ĠKe":6154,"track":6155,"TI":6156,"Ġdistributed":6157,"Ġwid":6158,"_{(":6159,"Ġturned":6160,"ĠMuseum":6161,"ĠMex":6162,"Ġparticles":6163,"Ġagent":6164,"ĠAustralian":6165,"Ġactions":6166,"lam":6167,"Ġagreement":6168,"ĠProv":6169,"=-":6170,"Ġscene":6171,"ĠTown":6172,"2022":6173,"Ġutil":6174,"osing":6175,"Ġhighest":6176,"Ġshowed":6177,"cur":6178,"ZE":6179,"Ġanswer":6180,"ette":6181,"Ġminim":6182,"while":6183,"Height":6184,"Interface":6185,"bootstrap":6186,"Ġforces":6187,"apped":6188,"Ġoffers":6189,"_+":6190,"ĠCre":6191,"Ġinfo":6192,"ĠTop":6193,"Ġsimpl":6194,"1980":6195,"stylesheet":6196,"ĠFoundation":6197,"vest":6198,"reedom":6199,"Ġsynt":6200,"People":6201,"Ġconsistent":6202,"uations":6203,"ĠBig":6204,"_*":6205,"Ġreduce":6206,"=\"../../../../../../":6207,"Ġexpansion":6208,"COLOR":6209,"Ġbounded":6210,"Ġsettings":6211,"Ġshared":6212,"ih":6213,"Ġfamilies":6214,"Hash":6215,"criptor":6216,"Ġcos":6217,"Ġplant":6218,"Ġspaces":6219,"mc":6220,"ĠOper":6221,"buffer":6222,"PL":6223,"azine":6224,"Ġinstit":6225,"Ġjournal":6226,"Ġmachine":6227,"Ġintegr":6228,"gorithms":6229,"Ġcontribution":6230,"Ġtraditional":6231,"ĠBusiness":6232,"alo":6233,"leep":6234,"sect":6235,"border":6236,"ictionary":6237,"Position":6238,"Ġgiving":6239,"Ġseven":6240,"aser":6241,"ĠStar":6242,"GE":6243,"Write":6244,"IA":6245,"oration":6246,"uri":6247,"ropy":6248,"Range":6249,"kind":6250,"Ġstrict":6251,"alian":6252,"Ġserious":6253,"Ġmentioned":6254,"Ġresolution":6255,"ĠCreate":6256,"Ġsignificantly":6257,"Ġformula":6258,"Ġweeks":6259,"Ġcompute":6260,"ĠHill":6261,"flict":6262,"ĠSmith":6263,"WE":6264,"Ġmoving":6265,"Ġ${":6266,"card":6267,"ĠCheck":6268,"Ġjoined":6269,"Header":6270,"ifies":6271,"aved":6272,"afe":6273,"dagger":6274,"ĠRoman":6275,"cope":6276,"Window":6277,"istan":6278,"ishes":6279,"Ġnet":6280,"rey":6281,"Ġcouple":6282,"Ġflat":6283,"Unit":6284,"system":6285,")--":6286,"ivial":6287,"ĠTexas":6288,"pop":6289,"inem":6290,"Ġwriter":6291,"akers":6292,"bing":6293,"AND":6294,"atalog":6295,"ollary":6296,"liament":6297,"INE":6298,"ester":6299,"However":6300,"ĠOlymp":6301,"ĠCentral":6302,"groupId":6303,"white":6304,"ker":6305,"~~~~":6306,"Ġbirth":6307,"Ġanyone":6308,"Ġtesting":6309,"ĠChristian":6310,"ĠArmy":6311,"Ġepisode":6312,"Ġdebut":6313,"Ġscript":6314,"ita":6315,"bigg":6316,"ĠPeople":6317,"Ġdepends":6318,"Ġmedical":6319,"Ġcontrast":6320,"Ġdecided":6321,"Ġestimated":6322,"icket":6323,"ĠNS":6324,"Http":6325,"Container":6326,"ifically":6327,"Ġpurpose":6328,"Mult":6329,"Ġsurvey":6330,"del":6331,"Ġgeneration":6332,"ĠMer":6333,"Ġincor":6334,"Ġformed":6335,"asy":6336,"Ġprefer":6337,"Ġpark":6338,"inder":6339,"Empty":6340,"Ġassess":6341,"Ġtests":6342,"ĠThomas":6343,"Ġidentified":6344,"produ":6345,"udd":6346,"ometric":6347,"XX":6348,"ĠCall":6349,"Ġprotect":6350,"ĠOR":6351,"Ġpolar":6352,"osh":6353,"Ġwasn":6354,"ĠSund":6355,"rome":6356,"Ġsen":6357,"Ġthread":6358,"Ġwind":6359,"Ġinteger":6360,"ĠUnder":6361,"icens":6362,"Ġkilled":6363,"parameter":6364,"ĠTor":6365,"ĠChinese":6366,"device":6367,"Ġalt":6368,"Ġter":6369,"onom":6370,"textsc":6371,"Ġbank":6372,"Ġremaining":6373,"hesis":6374,"ĠLife":6375,"aussian":6376,"Ġcloud":6377,"Ġsecret":6378,"Ġsymmetry":6379,"Ġgovern":6380,"eve":6381,"\"));":6382,"writ":6383,"war":6384,"Ġdetection":6385,"Ġaspect":6386,"Ġscatter":6387,"ĠAv":6388,"faces":6389,"Ġprojects":6390,"Change":6391,"Ġelectric":6392,"ALL":6393,"ady":6394,"%%":6395,"iger":6396,"None":6397,"orial":6398,"Ġdatabase":6399,"car":6400,"ologies":6401,"Ġpm":6402,"ĠRoyal":6403,"ĠCarol":6404,"Ġsometimes":6405,"Thread":6406,"atre":6407,"entity":6408,"Ġrepresented":6409,"ĠUSA":6410,"1994":6411,"Params":6412,"Ġprem":6413,"Ġpoor":6414,"Ġrecorded":6415,"esh":6416,"Record":6417,"Ġgrant":6418,"Util":6419,"Conn":6420,"alg":6421,"\\'":6422,"ĠJournal":6423,"sych":6424,"Ġmeasurements":6425,"ĠFlor":6426,"rot":6427,"itation":6428,"annels":6429,"Ġ::":6430,"ĠDev":6431,"Ġsave":6432,"Ġtouch":6433,"ĠIS":6434,"),\\":6435,"Ġbeliev":6436,"Ġcivil":6437,"zero":6438,"ĠBill":6439,"Ð°Ð":6440,"Ġactivities":6441,"ĠHence":6442,"Ġradius":6443,"ĠProposition":6444,"tains":6445,"docs":6446,"high":6447,"ĠAccording":6448,"Ġshot":6449,"ĠPM":6450,"pers":6451,"Ġemission":6452,"Ne":6453,"Ġpiece":6454,"1992":6455,"agraph":6456,"Ġapproximation":6457,"Callback":6458,"ĠRock":6459,"anda":6460,"Ġquickly":6461,"Ġdiscussion":6462,"km":6463,"owers":6464,"Ġauthors":6465,"ĠCamp":6466,"chers":6467,"Ġconsists":6468,"Ġenh":6469,"Ġfine":6470,"ala":6471,"uint":6472,"Level":6473,"coll":6474,"Ġchurch":6475,"Operation":6476,"Ġconstraints":6477,"Ġtemplate":6478,"Ġcalculated":6479,"Ġ*)":6480,"Ġgold":6481,"ĠLong":6482,"Ġ(\"":6483,"Ġprograms":6484,"Ġpackage":6485,"Ġraise":6486,"Ġclearly":6487,"Ġobvious":6488,"imation":6489,"Ġcomments":6490,"Ġmur":6491,"Ev":6492,"sur":6493,"Ġbuy":6494,"ĠNetwork":6495,"sol":6496,"ĠAfrican":6497,"Ġrail":6498,"Ġmanufact":6499,"mode":6500,"Ġhop":6501,"sv":6502,"Ġpadding":6503,"Ġreached":6504,"Ġ}\\":6505,"uted":6506,"Ġremoved":6507,"Ġremember":6508,"rolled":6509,"Settings":6510,"Dir":6511,"Ġspent":6512,"\\!\\!":6513,"ĠCommit":6514,"ĠMost":6515,"Ġjoint":6516,"ĠLat":6517,"Ġlibrary":6518,"Ġexperimental":6519,"Ġblood":6520,":(":6521,"Ġprocedure":6522,"âĢĿ.":6523,"ĠBG":6524,"Results":6525,"ĠTwo":6526,"ĠRussian":6527,"ulk":6528,"Ġappropriate":6529,"hash":6530,"ĠCD":6531,"Ġsatisfies":6532,"Down":6533,"ĠFrank":6534,"Ġmanager":6535,"asket":6536,"Ġparents":6537,"API":6538,"Ġassist":6539,"uly":6540,"iful":6541,"cp":6542,"inf":6543,"Core":6544,"Ġleader":6545,"Ġappeared":6546,"Ġcollabor":6547,"Ġedges":6548,"Ġnumerical":6549,"Ġdemand":6550,"ĠFrancis":6551,"Ġ|\\":6552,"Ġadvant":6553,"ĠEqu":6554,"enty":6555,"Ġangle":6556,"matrix":6557,"Ġoccur":6558,"Ġmarried":6559,"Ġconcent":6560,"ĠBre":6561,"Ġcoupling":6562,"ture":6563,"Ġpoly":6564,"Ġsquare":6565,"Ġexcit":6566,"ads":6567,"ĠVer":6568,"Ġharm":6569,"Ġamb":6570,"Ġcool":6571,"ervation":6572,"Collection":6573,"These":6574,"ression":6575,"ĠBi":6576,"ĠHen":6577,"ensus":6578,"Ġcompare":6579,"}}(\\":6580,"Ġsett":6581,"While":6582,"Sign":6583,"ugins":6584,"Ġgauge":6585,"Ġbus":6586,"icients":6587,"Ġexternal":6588,"Mat":6589,"LP":6590,"Ġunderstanding":6591,"LS":6592,"Stat":6593,"Ġdetail":6594,"vari":6595,"Figure":6596,"bel":6597,"Ġ>=":6598,"make":6599,"Ġexc":6600,"Ġfemale":6601,"ĠMap":6602,"Ġroll":6603,"debug":6604,"Ġpul":6605,"Ġsampl":6606,"Ġhar":6607,"Am":6608,"Ġreports":6609,"ĠKey":6610,"Ġinform":6611,"aming":6612,"poses":6613,"Ġcombination":6614,"VAL":6615,"yan":6616,"Ġorganization":6617,"undred":6618,"%;":6619,")\\,":6620,"Ġgalaxies":6621,"Ġonto":6622,"Ġvoice":6623,"Ġdefe":6624,"Ġassign":6625,"itiz":6626,"ictor":6627,"Ġreplaced":6628,"radi":6629,"Ġinner":6630,"Left":6631,"ipe":6632,"kr":6633,"anta":6634,"Ġut":6635,"Ġmaster":6636,"Ġpartners":6637,"ws":6638,"Ġmovement":6639,"hom":6640,"Ġhands":6641,"Ġheavy":6642,"ĠGrand":6643,"ctx":6644,"'\\":6645,"ĠCommission":6646,"Ġenter":6647,"Ġefficient":6648,"Ġinfluence":6649,"ixel":6650,"ĠAM":6651,"cases":6652,"azz":6653,"oggle":6654,"transform":6655,"Eq":6656,"Async":6657,"ĠGener":6658,"Ġfelt":6659,"Ġplease":6660,"results":6661,"Ġdirected":6662,"Ġincreases":6663,"ĠPeter":6664,"Ġloop":6665,"Module":6666,"direct":6667,"Ġformation":6668,"iffer":6669,"Ġeconomic":6670,"Ġdeb":6671,"obs":6672,"roduction":6673,"ĠShow":6674,"ĠWestern":6675,"Ġmomentum":6676,"mazon":6677,"ĠGood":6678,"ollowing":6679,"aws":6680,"ĠĠĠĠĠĠĠĠĠĠĠĠĠĠĠĠĠĠĠĠĠĠĠĠĠĠĠĠĠĠĠĠĠĠĠĠĠĠĠ":6681,"&#":6682,"Are":6683,"ĠMo":6684,"Ġcarry":6685,"1993":6686,"Ġvertices":6687,"apers":6688,"Ġextrem":6689,"Ġfraction":6690,"Ġeditor":6691,"Ġidentify":6692,"language":6693,"Prot":6694,"Ġspectral":6695,"Ġliterature":6696,"Ġunknown":6697,"UP":6698,"fully":6699,"ĠMoreover":6700,"Ġdigital":6701,"ket":6702,"ader":6703,"Non":6704,"ĠGames":6705,"cknow":6706,"orter":6707,"Long":6708,"arts":6709,"seud":6710,")}(":6711,"Ġcaused":6712,"ĠSecond":6713,"ĠGovernment":6714,"Ġproviding":6715,"utable":6716,"Ġcalls":6717,"Ġdaughter":6718,"Dep":6719,"anging":6720,"icity":6721,"eder":6722,"1970":6723,"Ġclust":6724,"Ġlisted":6725,"Ġli":6726,"Cal":6727,"ban":6728,"weet":6729,"255":6730,"Ġplans":6731,"Ġapproaches":6732,"ĠDuring":6733,"aturday":6734,"Option":6735,"Ġparams":6736,"Ġlooks":6737,"Connection":6738,"Ġreflect":6739,"Ġsurround":6740,"ynamic":6741,"Ġtechniques":6742,"Ġopportunity":6743,"Ġlib":6744,"Ġfinished":6745,"Ġtasks":6746,"Ġbinary":6747,"ĠMinister":6748,"Ġrespond":6749,"Ġsal":6750,"vas":6751,"Ġsimulations":6752,"ĠDivision":6753,"Ġexistence":6754,"ĠSun":6755,"Ġlock":6756,"ĠFacebook":6757,"ĠMedia":6758,"TC":6759,"interface":6760,"ĠRun":6761,"EC":6762,"Ġintr":6763,"ĠEach":6764,"Ġdepth":6765,"Ġbrief":6766,"eds":6767,"ĠName":6768,"delete":6769,"ato":6770,"copy":6771,"oting":6772,"Ġdistinct":6773,"Ġassumption":6774,"NavBar":6775,"_{-":6776,"Ġhash":6777,"Ġcorresponds":6778,"Ġstated":6779,"Pass":6780,"DS":6781,"ifications":6782,"global":6783,"sto":6784,"Ġshoot":6785,"subsubsection":6786,"Ġsummer":6787,"cut":6788,"ĠWomen":6789,"Ġwild":6790,"Ġsites":6791,"Ġseparate":6792,"newcommand":6793,"ĠDirector":6794,"ĠEarth":6795,"Ġpolitic":6796,"allery":6797,"Properties":6798,"eries":6799,"ĠKore":6800,"Ġoccup":6801,"TS":6802,"related":6803,"Cor":6804,"Definition":6805,"Track":6806,"onald":6807,"Ġdeaths":6808,"rices":6809,"itors":6810,"ĠCam":6811,"phone":6812,"Ġstrateg":6813,"Ġgrand":6814,"ĠMont":6815,"ĠMax":6816,"Document":6817,"igr":6818,"Ġshowing":6819,"Ġfilename":6820,"ĠLand":6821,"igration":6822,"Ġstrength":6823,"Ġtrust":6824,"Ġsegment":6825,"Ġtheore":6826,"Car":6827,"bullet":6828,"ĠBoard":6829,"elled":6830,"Sk":6831,"tn":6832,"Ġtoken":6833,"ynchron":6834,"icago":6835,"TV":6836,"req":6837,"forall":6838,"ĠUse":6839,"ĠPy":6840,"Ġmolec":6841,"ĠVirgin":6842,"neg":6843,"ĠMel":6844,"Ġopening":6845,"send":6846,"uy":6847,"Session":6848,"Menu":6849,"'_":6850,"Ġalgorithms":6851,"ĠBase":6852,"Living":6853,"ĠÎ":6854,"Ġsimulation":6855,"ĠJapanese":6856,"present":6857,"Integer":6858,"ora":6859,"dule":6860,"ĠTim":6861,"Ġplaced":6862,"Ġcorrelation":6863,"Ġchance":6864,"Ġoverride":6865,"ĠFour":6866,"Ġple":6867,"component":6868,"ĠHot":6869,"ĠModel":6870,"ĠField":6871,"ĠOffice":6872,"Ġteacher":6873,"multi":6874,"Ġartist":6875,"ĠRichard":6876,"Ġeventually":6877,"Ġrecords":6878,"rad":6879,"ests":6880,"ults":6881,"icons":6882,"west":6883,"IB":6884,"Mark":6885,"Ġspread":6886,"join":6887,"oday":6888,"angular":6889,"Use":6890,"Font":6891,"media":6892,"Order":6893,"bind":6894,"Ġdomin":6895,"Ġdual":6896,"vey":6897,"Ġprotocol":6898,"Ġcapacity":6899,"ja":6900,"Ġdrive":6901,"udget":6902,"ipal":6903,"ĠMethod":6904,"Ġrender":6905,"Ġeyes":6906,"click":6907,"Ġsafety":6908,"Ġrecall":6909,"Ġmeasures":6910,"Ġinequality":6911,"OK":6912,"ĠTimes":6913,"Ġcoach":6914,")_{":6915,"Ġapproximately":6916,"ĠJose":6917,"env":6918,"ĠGen":6919,"irmed":6920,"ested":6921,"icker":6922,"'d":6923,"iral":6924,"ĠException":6925,"ĠEducation":6926,"(:":6927,"ĠĠĠĠĠĠĠĠĠĠĠĠĠĠĠĠĠĠĠĠ":6928,"Ġsports":6929,"shot":6930,"blue":6931,"Icon":6932,"arc":6933,"Ġslightly":6934,"Ġminor":6935,"ien":6936,"legal":6937,"Ġtit":6938,"150":6939,"Ġheard":6940,"Expression":6941,"ĠAlthough":6942,"Ġnotice":6943,"Ġnoted":6944,"ald":6945,"Ġlaws":6946,"ĠRequ":6947,"Ġ\"\\":6948,"Ġtransaction":6949,"ĠDen":6950,"Ġpairs":6951,"access":6952,"CTION":6953,"Ġpure":6954,"widget":6955,"pmatrix":6956,"UB":6957,"Ġagree":6958,"ĠBank":6959,"Ġstable":6960,"Ġfans":6961,"structor":6962,"Ġdevices":6963,"iversal":6964,"ĠRussia":6965,"Ġblog":6966,"ncy":6967,"Ġcandidate":6968,"oving":6969,"ĠGame":6970,"Ġthr":6971,"Sum":6972,"reland":6973,"ĠAssert":6974,"types":6975,"ĠAtt":6976,"Ġamplit":6977,"ĠCongress":6978,"Ġsqu":6979,"Ġindividuals":6980,")^{\\":6981,"Art":6982,"Store":6983,"footer":6984,"msg":6985,"Ġstack":6986,"Ġecho":6987,"Ġdecay":6988,"Ġxml":6989,"Ġfarm":6990,"ella":6991,"Ġartists":6992,"equal":6993,"mann":6994,"EQ":6995,"ean":6996,"Ġthreshold":6997,"Ġtensor":6998,"Ġplays":6999,"ursor":7000,"Ġtruth":7001,"aylor":7002,"Ġpush":7003,"Ġearn":7004,"contin":7005,"Ġpor":7006,"Ġintegral":7007,"full":7008,"Ġpropag":7009,"Ġbranch":7010,"Ġready":7011,"Ġcoefficients":7012,"Ġpan":7013,"Ġscalar":7014,"Ġalone":7015,"help":7016,"vol":7017,"Ġspot":7018,"Ġinterested":7019,"shire":7020,"ĠChild":7021,"category":7022,"ĠAcademy":7023,"auth":7024,"Click":7025,"kl":7026,"=\"_":7027,"Ġbehavi":7028,"():":7029,"Ġhappen":7030,"WS":7031,"Ġcreating":7032,"They":7033,"'.":7034,"Ġseek":7035,"PH":7036,"1991":7037,"Ġcomputed":7038,"uce":7039,"ĠDate":7040,"riend":7041,"Ġstorage":7042,"ĠFlorida":7043,"ĠLos":7044,"amental":7045,"Ptr":7046,"annotation":7047,"Ġmajority":7048,"Ġtraff":7049,"ĠEngine":7050,"uan":7051,"chen":7052,"imin":7053,"thlet":7054,"connect":7055,"Parameters":7056,"Ġring":7057,"ootball":7058,"osis":7059,"ogene":7060,"gest":7061,"Section":7062,"Ġquarter":7063,"}$-":7064,"Tim":7065,"ĠCath":7066,"Ġbg":7067,"Ġintroduce":7068,"ĠAR":7069,"Ġrelatively":7070,"ertific":7071,"Ġcompetition":7072,"ĠTrue":7073,"ĠSol":7074,"Any":7075,"clear":7076,"address":7077,"Ġcat":7078,"organ":7079,"Ġwat":7080,"____":7081,"Host":7082,"product":7083,"Ġcombined":7084,"abit":7085,"ĠĠĠĠĠĠĊ":7086,"rier":7087,"\\|_{":7088,"Ġdisease":7089,"Serial":7090,"panel":7091,"Ġhidden":7092,"ĠServices":7093,"ĠLO":7094,"Sm":7095,"DIR":7096,"Ġencour":7097,"ĠBGCOLOR":7098,"ashion":7099,"enum":7100,"rev":7101,"picture":7102,"Ġ$.":7103,"STR":7104,"bits":7105,"Ġpoll":7106,"ĠSil":7107,"Ġcollege":7108,"ĠSunday":7109,"Other":7110,"defined":7111,"ĠMass":7112,"Ġshift":7113,"miss":7114,"ĠCanadian":7115,"Ġlattice":7116,"120":7117,"Ġroute":7118,"Ġfirm":7119,"Title":7120,"ĠDevelopment":7121,"ĠBrown":7122,"~$\\":7123,"ittle":7124,"Ġthous":7125,"================================":7126,"Ġdetailed":7127,"ipeline":7128,"Ġcommunication":7129,"ĠCommittee":7130,"Ġpartial":7131,"endar":7132,"unicip":7133,"focus":7134,"Ġresponsible":7135,"Ġoverl":7136,"Ġdisk":7137,"Ġtools":7138,"Red":7139,"Comple":7140,"ĠNOT":7141,"Ġfourth":7142,"ĠAND":7143,"Ġflag":7144,"hemat":7145,"PECT":7146,"=\"../../../":7147,"cf":7148,"ĠOp":7149,"ĠPet":7150,"Ġmorning":7151,"short":7152,"Ġguarant":7153,"Ġvote":7154,",\\,":7155,"Que":7156,"Ġclassification":7157,"Ġcircle":7158,"HS":7159,"ĠMur":7160,"ĠAirport":7161,"Ġmaterials":7162,"uke":7163,"isl":7164,"Ġodd":7165,"Ġbrand":7166,"Schema":7167,"Ġtor":7168,"posite":7169,"Ġletter":7170,"astr":7171,"ĠJun":7172,"Ġwaves":7173,"ĠTem":7174,"ĠNO":7175,"ĠVis":7176,"kin":7177,"lig":7178,"ĠTra":7179,"ircraft":7180,"pendix":7181,"Ġarbitrary":7182,"toString":7183,"equals":7184,"ĠManagement":7185,"ĠView":7186,"ĠPlay":7187,"fram":7188,"ancing":7189,"ĠKingdom":7190,"ola":7191,"'>":7192,"acle":7193,"Ġdistributions":7194,"Template":7195,"Ġformal":7196,"ĠEven":7197,"Ġdestroy":7198,"CI":7199,"iance":7200,"Ġcalc":7201,"Ġwonder":7202,"ĠIll":7203,"Ġdespite":7204,"Ġachieve":7205,"_{{\\":7206,"Ġ['":7207,"itness":7208,"Ġ+\\":7209,"Ġmodes":7210,"ĠLouis":7211,"ĠFilm":7212,"ĠCON":7213,"Ġlaun":7214,"Ġmill":7215,"Ġparallel":7216,"ilib":7217,"Ġabsolute":7218,"Ġgrowing":7219,"Reference":7220,"oves":7221,"Ġdetect":7222,"uple":7223,"ĠFriday":7224,"Ġpool":7225,")\\\\":7226,"Ġhear":7227,"Ġdifferences":7228,"ĠZeal":7229,"Ġperturb":7230,"ĠArts":7231,"Ġinteractions":7232,"Ġpages":7233,"aby":7234,"Ġprocessing":7235,"aver":7236,"ĠCharles":7237,"power":7238,"Ġexchange":7239,"ĠBas":7240,"poss":7241,"Impl":7242,"ĠBur":7243,"ĠStep":7244,"Ġmeasurement":7245,"stat":7246,"ji":7247,"DP":7248,"Ġinterval":7249,"oute":7250,"hover":7251,"ications":7252,"Ġaccom":7253,"Ġclin":7254,"blockList":7255,"Ġarm":7256,"Draw":7257,"Ġopin":7258,"Ġmostly":7259,"-->":7260,"Ġdelete":7261,"ny":7262,"Ġcycle":7263,"lie":7264,"Iter":7265,"Each":7266,"Ġknew":7267,"Ġsector":7268,"Ġstress":7269,"Helper":7270,"Ġdenotes":7271,"Ġoccurre":7272,"Ġcorrel":7273,"ĠIts":7274,"Ġcosts":7275,"ryst":7276,"dest":7277,"Ġsociety":7278,"ĠFestival":7279,"venue":7280,"vm":7281,")^{-":7282,"icine":7283,"ĠDet":7284,"coin":7285,"astern":7286,"ĠSpr":7287,"DL":7288,"claim":7289,"sime":7290,"Ġwrap":7291,"Tool":7292,"ĠLake":7293,"ĠKn":7294,"MC":7295,"Ġaxis":7296,"ĠHome":7297,"Ġpicture":7298,"}^*":7299,"ĠZealand":7300,"Main":7301,"simeq":7302,"Ver":7303,"Ġreasons":7304,"Ġanc":7305,"ĠSocial":7306,"Ġunless":7307,"estamp":7308,"Ġfailure":7309,"160":7310,"forms":7311,"pool":7312,"session":7313,"'}":7314,"ails":7315,"onday":7316,"Ġmission":7317,"ko":7318,"ĠParis":7319,"Ðº":7320,"Ġphone":7321,"GET":7322,"lines":7323,"spe":7324,"Ac":7325,"agonal":7326,"Ġwants":7327,"ĠOh":7328,"men":7329,"$).":7330,"ĠAngeles":7331,"Ġforeign":7332,"Names":7333,"ĠSpe":7334,"clusive":7335,"?:":7336,"icies":7337,"plugin":7338,"rip":7339,"uby":7340,"Ġthick":7341,"Ġnom":7342,"Ġ})":7343,"pective":7344,"Ġestimates":7345,"DR":7346,"Ġorient":7347,"Ġhundred":7348,"Ġpositions":7349,"Ġalternative":7350,"John":7351,"front":7352,"Ġcontributions":7353,"iced":7354,"'],":7355,"Ġattract":7356,"Ġsch":7357,"ĠAtl":7358,"=\"/":7359,"Parser":7360,"Ġcache":7361,"SR":7362,"Ġupdated":7363,"internal":7364,"Ġarchitecture":7365,"Ġtypically":7366,"IE":7367,"ĠInformation":7368,";->":7369,"ĠIP":7370,"Ġcommunities":7371,"uting":7372,"BR":7373,"ĠBob":7374,")}{\\":7375,"Ġundefined":7376,"asi":7377,"istical":7378,"1989":7379,"ATA":7380,"Ġmatches":7381,"mic":7382,"igan":7383,"ĠTour":7384,"iminal":7385,"eller":7386,"Ġvac":7387,"Ġassumed":7388,"unct":7389,"Ġmobile":7390,"Ġcommercial":7391,"Ġexpressed":7392,"Ġproceed":7393,"###":7394,"cean":7395,"Ġmixed":7396,"Ġblocks":7397,"perp":7398,"ĠNumber":7399,"Ġhuge":7400,"Ġoil":7401,"ĠMartin":7402,"framework":7403,"ĠTeam":7404,"handle":7405,"ĠProfess":7406,"Ġwest":7407,"ĠSaturday":7408,"Ġtransformation":7409,"nap":7410,"Ġspirit":7411,"Vari":7412,"Ġmechanism":7413,"ployment":7414,"ocks":7415,"ĠCentre":7416,"virt":7417,"comment":7418,"NR":7419,"remark":7420,"256":7421,"just":7422,"ĠAL":7423,"nections":7424,"URE":7425,"}}^":7426,"tik":7427,"Ġgrid":7428,"ĠTechnology":7429,"La":7430,"........":7431,"effect":7432,"ĠMath":7433,"Device":7434,"ournament":7435,"standing":7436,"ĠLib":7437,"Ġwood":7438,"ĠFree":7439,"Ġrise":7440,"Ġsubset":7441,"Ġideas":7442,"Has":7443,"Ġlaunch":7444,"}%":7445,"Ġvary":7446,"othing":7447,"ĠIsrael":7448,"hs":7449,"patch":7450,"Ġsafe":7451,"Ġobserve":7452,"Ġcurves":7453,"ĠLine":7454,"Ġworkers":7455,"cloud":7456,"Ġbillion":7457,"vs":7458,"âĢĺ":7459,"ups":7460,"abil":7461,"Ġeth":7462,"settings":7463,"Ġindicates":7464,"Ġdog":7465,"Ġcarried":7466,"âĢĿ,":7467,"Ġdecom":7468,"ĠGeorg":7469,"Ġvertical":7470,"Ġanalog":7471,"dist":7472,"care":7473,"Ġpowerful":7474,"kins":7475,"points":7476,"ĠIreland":7477,"Ġeast":7478,"Kind":7479,"Ġparse":7480,"ERROR":7481,"ATH":7482,"acket":7483,"stitution":7484,"ĠLee":7485,"Ġspatial":7486,"ali":7487,"fol":7488,"ĠâĢ¦":7489,"ĠâĢ¢":7490,"ĠSecret":7491,"Ġgap":7492,"){\\":7493,"insert":7494,"Ġdelay":7495,"ORD":7496,"dependency":7497,"ĠTwitter":7498,"ĠLove":7499,"iki":7500,"Ġfinding":7501,"Ġconstructed":7502,"Ġjav":7503,"Ġtrend":7504,"Vector":7505,"Ġannual":7506,"Ġacadem":7507,"arden":7508,"ĠCast":7509,"ova":7510,"ĠJud":7511,"Ġclick":7512,"apes":7513,"Ġdu":7514,"ĠPower":7515,"Ġfill":7516,"Ġserve":7517,"ĠChicago":7518,"Ġinterpret":7519,"Some":7520,"ĠPolicy":7521,"erg":7522,"ĠHistor":7523,"Ġadding":7524,"Ġheat":7525,"material":7526,"asketball":7527,"webkit":7528,"ographic":7529,"shape":7530,"False":7531,"Ġcoordinates":7532,"ublished":7533,"porate":7534,"Ġreduction":7535,"Cre":7536,"Classes":7537,"Ġrare":7538,"Ġowner":7539,".~(\\":7540,"Ġinnov":7541,"Ġ{};":7542,"rich":7543,"Ġinvariant":7544,"Ġrect":7545,"ĠBack":7546,"ĠOld":7547,"ĠWeek":7548,"fn":7549,"padding":7550,"foo":7551,"pa":7552,"ĠIran":7553,"Ġicon":7554,"ading":7555,"Ġconsidering":7556,"TA":7557,"riage":7558,"Ġmassive":7559,"ĠEvent":7560,"romise":7561,"Ġefforts":7562,"sort":7563,"going":7564,"Ġinsert":7565,"Ġlooked":7566,"double":7567,"oles":7568,"\\_":7569,"ĠLibrary":7570,"eless":7571,"Ġbutton":7572,"ĠWood":7573,"Ġclimate":7574,"Ġrapid":7575,"Ġcontainer":7576,"Ġheader":7577,"Decl":7578,"mapsto":7579,"Ġabsor":7580,"Ġregime":7581,"arian":7582,"Args":7583,"custom":7584,"ĠMad":7585,"render":7586,"Ð»":7587,"Ġcamera":7588,"ORM":7589,"Ġviews":7590,"ĠItalian":7591,"ĠScot":7592,"stein":7593,"Ġnation":7594,"-$":7595,"Ġsales":7596,"Ġdependence":7597,"Ġindicate":7598,"Ġbattle":7599,"Ġbgcolor":7600,"nergy":7601,"Ġgoals":7602,"ĠVictor":7603,"Ġyields":7604,"Ġhypot":7605,"Ġaware":7606,"$^{-":7607,"Ġmatrices":7608,"idget":7609,"jpg":7610,"Ġsea":7611,"Ġtrained":7612,">();":7613,"Ġiniti":7614,"ffect":7615,"Ġ=\\":7616,"Pop":7617,"Ġspeak":7618,"ĠMA":7619,"ĠYoung":7620,"ĠWed":7621,"ĠTheir":7622,"ĠLin":7623,"Found":7624,"ĠColor":7625,"hetic":7626,"install":7627,"Ġlayers":7628,"istent":7629,"Ġtypical":7630,"Ġtrial":7631,"MENT":7632,"Ġalleg":7633,"Api":7634,"pute":7635,"Ġproved":7636,"elli":7637,"Ġkept":7638,"Ġadop":7639,"Ġhappened":7640,"prec":7641,"ĠJim":7642,"Ġunion":7643,"Ġcritic":7644,"Assert":7645,"Ġcancer":7646,"Application":7647,"holder":7648,"unities":7649,"uty":7650,"ĠMil":7651,"ĠEvery":7652,"$$\\":7653,"ĠJSON":7654,"ĠAny":7655,"henomen":7656,"pressed":7657,"Ġmurder":7658,"})$.":7659,"ITY":7660,"ifest":7661,"allow":7662,"Ġfif":7663,"Ġoptical":7664,"Ġstellar":7665,"aus":7666,"store":7667,"Ġ>>":7668,"Ġretr":7669,"Ġchallenge":7670,"fields":7671,"Ġcentre":7672,"Ġstarts":7673,"tikz":7674,"Ġideal":7675,"ECT":7676,"Thus":7677,"exports":7678,"pir":7679,"Ġpropos":7680,"Ġdefin":7681,"ĠStand":7682,"Ġtried":7683,"Ġleague":7684,"Hz":7685,"Ġmodified":7686,"rium":7687,"NG":7688,"Ġclaims":7689,"Ġbuildings":7690,"ĠLi":7691,"ĠTer":7692,"Ġcontained":7693,"ĠFre":7694,"1960":7695,"cape":7696,")},":7697,"Ġinfr":7698,"Ġdownload":7699,"Ġapplic":7700,"DI":7701,"ĠHTML":7702,"Ġsingular":7703,"ĠUser":7704,"Ġachieved":7705,"enter":7706,"Values":7707,"ĠGlobal":7708,"application":7709,"tail":7710,"Sing":7711,"Ġraised":7712,"forward":7713,"Ġcriter":7714,"ĠUsing":7715,"]]":7716,"ĠHand":7717,"Ġperhaps":7718,"Handle":7719,"Argument":7720,"agnost":7721,"Ġexplain":7722,"udes":7723,"Doc":7724,"Ġos":7725,"ĠĠĠĠĠĠĠĠĠĠĠĠĠĠĠĠĠĠ":7726,"ĠGaussian":7727,"ĠCA":7728,"modules":7729,"razil":7730,"Rect":7731,"grid":7732,"Ġstrongly":7733,"Med":7734,"onym":7735,"Ġspectra":7736,"Parent":7737,"clip":7738,"ĠTre":7739,"1988":7740,"{$\\":7741,"Ġvisible":7742,"rical":7743,"export":7744,"ĠPlan":7745,"ĠStat":7746,"Ġpartition":7747,"Invalid":7748,"Ġsomew":7749,"sear":7750,"Ġguitar":7751,"ustain":7752,"Ġolder":7753,"Ġwhom":7754,"ĠHaw":7755,"ĠAssembly":7756,"asion":7757,"edge":7758,"ĠEconom":7759,"hem":7760,"Ġconflict":7761,"uzz":7762,"idel":7763,"ĠSO":7764,"pton":7765,"disabled":7766,"ourney":7767,"Ġadjust":7768,"Ġapparent":7769,"ogen":7770,"uous":7771,"Ġdynamic":7772,"Ġ++":7773,"elcome":7774,"region":7775,"nn":7776,")_":7777,"May":7778,"odd":7779,"Dom":7780,"Ġpartner":7781,"Ñĥ":7782,"ursday":7783,"Ġnative":7784,"Ġentity":7785,"ĠMov":7786,"Ġadvantage":7787,"Ġdoor":7788,"Theorem":7789,"eces":7790,"ĠUN":7791,"tri":7792,"Ġoriginally":7793,"ĠBet":7794,"Ġoccurs":7795,"^{+":7796,"MR":7797,"ĠMa":7798,"success":7799,"Ġsections":7800,"Ġdriver":7801,"Ġextr":7802,"etry":7803,"Ġice":7804,"ati":7805,"Using":7806,"Di":7807,"Err":7808,"Ã§":7809,"ĠAwards":7810,"Body":7811,"mi":7812,"ponential":7813,"ims":7814,"toggle":7815,"uing":7816,"orney":7817,"Ġefficiency":7818,"ĠOl":7819,"onical":7820,"Ġgain":7821,"plot":7822,"ĠDesign":7823,"amely":7824,"roph":7825,"Ġbytes":7826,"Ġtraffic":7827,"ĠElect":7828,">.":7829,"Ġhydro":7830,"ĠValue":7831,"Ġarrest":7832,"Step":7833,"coq":7834,"initial":7835,"Ġhelped":7836,"email":7837,"Ġfunctional":7838,"Ġkernel":7839,"Ġcovered":7840,"MB":7841,"grade":7842,"Ġrestrict":7843,"mosp":7844,"Ġmetal":7845,"Ġowners":7846,"ĠHig":7847,"ĠForce":7848,"ĠArab":7849,"ĠEnter":7850,"elligence":7851,"Ġ$$":7852,"}\"":7853,"Ġdream":7854,"Ġmys":7855,"Ġul":7856,"Metadata":7857,"Ġleaving":7858,"ima":7859,"rick":7860,"proposition":7861,"anner":7862,"Gu":7863,"umni":7864,"ĠEXPECT":7865,"Ġsymmetric":7866,"Ġ'/":7867,"Ġfol":7868,"(*":7869,"Ġregarding":7870,"hbar":7871,")$-":7872,"how":7873,"Ġappearance":7874,"ĠRecords":7875,"Ġfreedom":7876,"hy":7877,"byte":7878,"ĠJo":7879,"Debug":7880,"Ġhour":7881,"Ġpy":7882,"Ġmaybe":7883,"ums":7884,"DC":7885,"ilibrium":7886,"Ġvectors":7887,"Ġsetup":7888,"Ġconvergence":7889,"Ġbill":7890,"Ġasympt":7891,"Ġstrugg":7892,"Ġtoward":7893,"Ġcustomers":7894,"rawn":7895,"sche":7896,"Ġsemi":7897,"Home":7898,"Ġlearned":7899,"ACE":7900,"ĠVirginia":7901,"she":7902,"ideos":7903,"Ġthank":7904,"ĠExec":7905,"SION":7906,"Ġtal":7907,"ĠPenn":7908,"Ġevaluation":7909,"Ġparties":7910,"Ã¨":7911,"ĠHor":7912,"Ã³n":7913,"ĠValley":7914,"Ġindeed":7915,"ĠMexico":7916,"Ġpaid":7917,"Ġnamespace":7918,"udio":7919,"rons":7920,"Ġmessages":7921,"scape":7922,"Ġtrigger":7923,"Ġdiss":7924,"ĠError":7925,"uesday":7926,"GS":7927,"SET":7928,"Render":7929,"Ġbyte":7930,"va":7931,"Ġdie":7932,"plugins":7933,"Ġconstraint":7934,"Ġwinning":7935,"Book":7936,"boolean":7937,"ĠId":7938,"Wrap":7939,"_;":7940,"ĠBoth":7941,"ĠAmazon":7942,"Ġshop":7943,"numer":7944,"ĠCare":7945,"iling":7946,"Rule":7947,"virtual":7948,"Ġkids":7949,"Ġbounds":7950,"Ġprediction":7951,"Ġplanet":7952,"Att":7953,"ĠFinally":7954,"AME":7955,"Ġrequirements":7956,"Ġproport":7957,"128":7958,"Ġfederal":7959,"ĠAsia":7960,"auto":7961,"Ġbeautiful":7962,"Ġplus":7963,"omorphic":7964,"anguages":7965,"scill":7966,"Ġdirectory":7967,"ĠCopy":7968,"desc":7969,"'))":7970,"rf":7971,"Policy":7972,"Ġcitiz":7973,"ĠAN":7974,"Second":7975,"ivery":7976,"ĠEp":7977,"Ġbright":7978,"Ġfounded":7979,"cluded":7980,"Reader":7981,"ĠSpecial":7982,"Package":7983,"ĠMult":7984,"isters":7985,"ĠWell":7986,"Ġdifferential":7987,";<":7988,"register":7989,"radius":7990,"Ġelected":7991,"Ġvehicle":7992,"Ġseconds":7993,"Boolean":7994,"Ġreader":7995,"ĠCommunity":7996,"----------------------------------------------------------------":7997,"Further":7998,"itivity":7999,")+\\":8000,"'(":8001,"ĠIII":8002,"plements":8003,"Ġmorph":8004,"Only":8005,"ierarch":8006,"ancer":8007,"AGE":8008,"Ġreson":8009,"Ġfear":8010,"Ġthinking":8011,"Stack":8012,"keys":8013,"1987":8014,"iro":8015,"Ġobservation":8016,"Ġexcell":8017,"ĠRail":8018,"lers":8019,"Ġbeam":8020,"formance":8021,"ĠOrder":8022,"Ġaircraft":8023,"ĠJones":8024,"Ear":8025,"stop":8026,"amin":8027,"Ġchannels":8028,"Ġsatisfy":8029,"Ġstuff":8030,"ĠSar":8031,"Ġprison":8032,"uctions":8033,"ĠSte":8034,";/":8035,"Ġeye":8036,"ga":8037,"Before":8038,"ĠReport":8039,"ĠWay":8040,"ingly":8041,"HTML":8042,"$&$\\{":8043,"Ġdepending":8044,"Ġtend":8045,"Ġminimal":8046,"Ġmapping":8047,"Ġreality":8048,"Ġlimits":8049,"Ġconvers":8050,"usband":8051,"ĠConn":8052,"Param":8053,"zen":8054,"Ġfundamental":8055,"Ġsmart":8056,"diff":8057,"fly":8058,"Bytes":8059,"iana":8060,"called":8061,"wa":8062,"green":8063,"ĠBecause":8064,"ilation":8065,"FS":8066,"Ġexplained":8067,"nesday":8068,"ye":8069,"ela":8070,"FR":8071,"Tab":8072,"Ġnor":8073,"Var":8074,"dependent":8075,"Ġphil":8076,"replace":8077,"}}^{":8078,"Ġoptimization":8079,"Ġchief":8080,"ĠSand":8081,"Ġusual":8082,"ĠSummer":8083,"Ġnuclear":8084,"mo":8085,"odot":8086,"ĠHead":8087,"123":8088,"Storage":8089,"Ġended":8090,"ighter":8091,"sql":8092,"Num":8093,"Custom":8094,"spring":8095,"Ġforced":8096,"Ġlaunched":8097,"eness":8098,"$;":8099,"ultural":8100,"Sym":8101,"`.":8102,"ĠHuman":8103,"Ġdriving":8104,"je":8105,"rize":8106,"Ġbin":8107,"Ġ\\},$&$\\{":8108,"ĠItaly":8109,"\\{\\":8110,"cref":8111,"odies":8112,"utch":8113,"Ġboy":8114,"FAULT":8115,"Ġjson":8116,"ĠCode":8117,"Ġlies":8118,"ĠLie":8119,"Ġweap":8120,"Ġallowing":8121,"WA":8122,"110":8123,"ĠWal":8124,"Ġacceler":8125,"Ġmatching":8126,"Ġinline":8127,"Ġrecommend":8128,"Ġphenomen":8129,"kg":8130,"Ġcompat":8131,"Ġpi":8132,"Ġ^":8133,"cknowled":8134,"fold":8135,"article":8136,"fony":8137,"Ġimportance":8138,"Vol":8139,"Ġgun":8140,"Ġprep":8141,"anes":8142,"Ġplanning":8143,"Ġens":8144,"Ġcontinues":8145,"ĠWall":8146,"site":8147,")),":8148,"Tests":8149,"callback":8150,"bot":8151,"Ġbenefit":8152,"Ġresear":8153,"Ġcomplexity":8154,"dated":8155,"margin":8156,"$~":8157,"1986":8158,"Show":8159,"two":8160,"Ġcouldn":8161,"ĠChief":8162,"ĠSpanish":8163,"Ġdaily":8164,"Ġwallet":8165,"Delete":8166,"Ġfan":8167,"Cons":8168,"ĠIO":8169,"Ġoffered":8170,"admin":8171,"Ġbecoming":8172,"Fram":8173,"Ġturns":8174,"ĠURL":8175,"ï¼":8176,"%)":8177,"ĠIslam":8178,"Ġscenario":8179,"Ġmanaged":8180,"|_{":8181,"Ġcalling":8182,"`,":8183,"$\\\\":8184,"Ġconsole":8185,"Ġunsigned":8186,"ĠMP":8187,"ĠJohnson":8188,"Ġreplace":8189,"ĠJac":8190,"ĠSU":8191,"aka":8192,"ĠOnly":8193,"appe":8194,"igin":8195,"ĠKar":8196,"phas":8197,"igital":8198,"ĠMonday":8199,"ĠDown":8200,"Ġchemical":8201,"Ġdamage":8202,")).":8203,"Ġmask":8204,"Ġattributes":8205,"Ġwish":8206,"lat":8207,"ĠHon":8208,"Ġrul":8209,"life":8210,"1984":8211,"ĠPop":8212,"Ġsolve":8213,"Ġlocations":8214,"leton":8215,"Ġadvert":8216,"ĠChristmas":8217,"ĠGal":8218,"ĠTaylor":8219,"rase":8220,"LC":8221,"none":8222,"ĠWho":8223,"ĠApp":8224,"dict":8225,"ĠDC":8226,"Byte":8227,"Ġpp":8228,"amm":8229,"Ġtechnical":8230,"ĠPoint":8231,"ru":8232,"Ġlab":8233,"Ġisol":8234,"Ġmiles":8235,"Initial":8236,"Ġinvestigation":8237,"Ġrough":8238,"Ġdrink":8239,"Ġattr":8240,"ĠPan":8241,"Ġhappy":8242,"ĠFootball":8243,"Ġ&=&":8244,"IX":8245,"Ġgalaxy":8246,"stable":8247,"Ġskills":8248,"Ġgradient":8249,"found":8250,"ĠHamiltonian":8251,"Ġsupply":8252,"}&":8253,"acific":8254,"Ġenable":8255,"Ġcreation":8256,"Root":8257,"Ġattacks":8258,"bad":8259,"arse":8260,"axis":8261,"family":8262,"Dialog":8263,"1985":8264,"Ġsun":8265,"ĠPhys":8266,"Ġrac":8267,"Ġmeant":8268,"domain":8269,"ben":8270,"Ġhappens":8271,"ĠText":8272,"Ġtechnique":8273,"Ġoscill":8274,"ĠCa":8275,"low":8276,"Ġmainly":8277,"ifts":8278,"utor":8279,"Ġahead":8280,"ĠAuthor":8281,"Ġinduced":8282,"Finally":8283,"Ġarticles":8284,"ĠFort":8285,"Ġstatistics":8286,"Ġchanging":8287,"ĠParliament":8288,"Ġcoast":8289,"Ġdegrees":8290,"zz":8291,"Ġmonitor":8292,"ĠRegister":8293,"ersonal":8294,"Ġcrow":8295,"network":8296,"Fields":8297,"\")]":8298,"Ġtrail":8299,"Ġimproved":8300,"ĠCatholic":8301,"Ġphoto":8302,"Ġconclude":8303,"Ġstations":8304,"ĠFamily":8305,"Send":8306,"Ġdimensions":8307,"Ġschedul":8308,"Ġedition":8309,"Ġbroadcast":8310,"ĠCarolina":8311,"Ġhospital":8312,"ĠCommun":8313,"inet":8314,"Ġaudience":8315,"Ġfeet":8316,"600":8317,"loop":8318,"emy":8319,"Ġfamous":8320,"Ġfloor":8321,"Ġdanger":8322,"Writer":8323,"ĠTH":8324,"bu":8325,"ĠSE":8326,"Ġrotation":8327,"ertificate":8328,"[(":8329,"Network":8330,"ipage":8331,"shall":8332,"PRE":8333,"Ġrevealed":8334,"ĠFurthermore":8335,")--(":8336,"ĠLink":8337,"Ġhole":8338,"ĠCy":8339,"Enabled":8340,"uer":8341,"Ġ<=":8342,"ĠLim":8343,"Ġsenior":8344,"ĠLead":8345,"Ġalbums":8346,"Ġleaves":8347,"MT":8348,"Meta":8349,"ira":8350,"argument":8351,"alid":8352,"har":8353,"Ġmanifold":8354,"Ġreferred":8355,"According":8356,"lyph":8357,"Xml":8358,"END":8359,"Ġflex":8360,"Ġoperating":8361,"Ġrestaur":8362,"itionally":8363,"mediate":8364,"Ġreject":8365,"iable":8366,"}}$,":8367,"Ġserial":8368,"Ġbrain":8369,"250":8370,"istration":8371,"BE":8372,"Ġagents":8373,"Ġextend":8374,"Ġcertainly":8375,"displaystyle":8376,"Ident":8377,"nel":8378,"ĠðŁ":8379,"Ġforest":8380,"Ġuncertainty":8381,"notation":8382,"Ġappointed":8383,"Ġmagnitude":8384,"Ġbalance":8385,"herent":8386,"Av":8387,"Ġthermal":8388,"Ġnotation":8389,"Exp":8390,"Ġfeatured":8391,"\\)":8392,"assets":8393,"herit":8394,"ĠWater":8395,"ictures":8396,"Ġimplemented":8397,"ĠSecurity":8398,"Ġener":8399,"ĠCard":8400,"ĠÂ»":8401,"ĠMain":8402,"ceived":8403,"olver":8404,"Ġkeys":8405,"Ġdistingu":8406,"minipage":8407,"Ġentries":8408,"Ġsolar":8409,"Ġconference":8410,"Ġult":8411,"ĠĠĠĠĠĠĠĠĠĠĠĠĠĠĠĠĠĠĠĠĠĠĠĠĠ":8412,"Ġpatterns":8413,"het":8414,"Ġunderlying":8415,"Ġmasses":8416,"Ġhighlight":8417,"Two":8418,"master":8419,"ĠHenry":8420,"Ġagreed":8421,"Ġbeat":8422,",$":8423,"TEST":8424,"achment":8425,"Ġrich":8426,"Ġtalking":8427,"Ġconven":8428,"atever":8429,"Don":8430,"Will":8431,"sel":8432,"ĠSports":8433,"Ġalloc":8434,"ĠTO":8435,"Ġremark":8436,"Ġfocused":8437,"Obj":8438,"Ġrobust":8439,"Author":8440,"Ġ('":8441,"Ġvoc":8442,"Pattern":8443,"bc":8444,"bury":8445,"Ġneighborhood":8446,"Ġpil":8447,"Ġtheme":8448,"ĠApple":8449,"Ġsummary":8450,"ĠCP":8451,"blem":8452,"connection":8453,"}{|":8454,"ĠPage":8455,"yes":8456,"such":8457,"}}$.":8458,"Ġevaluate":8459,"opic":8460,"password":8461,"ĠWindows":8462,"ARY":8463,"Ġsell":8464,"Ġdesc":8465,"wan":8466,"Account":8467,"ĠCross":8468,"Ġintegration":8469,"Sch":8470,"ĠMany":8471,"Ġtrees":8472,"HR":8473,"items":8474,"properties":8475,"cccc":8476,"iano":8477,"ĠFund":8478,"ĠLord":8479,"ipped":8480,"adoop":8481,"ODO":8482,"ĠSwed":8483,"lik":8484,"ĠĠĠĠĠĠĠĠĠĠĠĠĠĠĠĠĠĠĠĠĠĠĠĠĠĠĠĠĠĠĠĠĠĠĠĠĠĠĠĠĠĠĠĠĠĠĠĠĠĠĠĠĠĠĠĠĠĠĠĠĠĠĠĠ":8485,"Det":8486,"Media":8487,"ĠAction":8488,"Ġcultural":8489,"avor":8490,"Ġinvoke":8491,":}":8492,"Del":8493,"ving":8494,"ĠGre":8495,")-\\":8496,"Ġweights":8497,"Ġcapture":8498,"ĠJon":8499,"Ġcalculate":8500,"mond":8501,"ĠLab":8502,"world":8503,"pan":8504,"Ġmanner":8505,"ĠAbout":8506,"ĠBow":8507,"RR":8508,"ĠLight":8509,"acro":8510,"osoph":8511,"Ġwarm":8512,"Ġmock":8513,"ulf":8514,"Ġdraft":8515,"Introduction":8516,"agr":8517,"Ġlabels":8518,"Ġisland":8519,"ucket":8520,"DM":8521,"Ġkill":8522,"ĠBlue":8523,"tw":8524,"Ġcoverage":8525,"urrency":8526,"avit":8527,"Ġhero":8528,"Why":8529,"late":8530,"Ġsuggests":8531,"Ġpatient":8532,"Ġpet":8533,"stone":8534,"ronic":8535,".'":8536,"Ġversions":8537,"super":8538,"Ġbed":8539,"gers":8540,"Ġnice":8541,"Changed":8542,"Ġsexual":8543,"DT":8544,"Ġgone":8545,"pot":8546,"=\"@":8547,"mma":8548,"=#":8549,"inline":8550,"Ġofficer":8551,"itan":8552,"Ġhusband":8553,"ĠConference":8554,"iate":8555,"Ġ\\(\\":8556,"overnor":8557,"urban":8558,"Ġpurs":8559,"ĠPass":8560,"Ġthanks":8561,"Ġcandidates":8562,"ĠMos":8563,"awn":8564,"Ġfresh":8565,"Ġpossibly":8566,"screen":8567,"Ġsuccessfully":8568,"Ġacts":8569,"Ġearth":8570,"About":8571,"Ġmusical":8572,"ogeneous":8573,"ango":8574,"Ġran":8575,"Ġexpert":8576,"uries":8577,"ĠMike":8578,"ĠNight":8579,"Prop":8580,"profile":8581,"Ġdro":8582,"orrow":8583,"Ġcov":8584,"mass":8585,"ftware":8586,"Ġdesired":8587,"})$,":8588,"Ġgeometry":8589,"emporary":8590,"Ġspeech":8591,"Ġtheoretical":8592,"?\"":8593,"Ġinfinite":8594,"Ġexplan":8595,"Ġorders":8596,"BB":8597,"=>":8598,"Ġcredit":8599,"uis":8600,"Ġcars":8601,"Ġsummar":8602,"words":8603,"Ġangular":8604,"Ġflight":8605,"actic":8606,"Ġeconomy":8607,"Ġbenefits":8608,"Ġgraphs":8609,"Ġguess":8610,"Ġpseud":8611,"uter":8612,"Ġremained":8613,"Pool":8614,"stats":8615,"Ġdiscovered":8616,"Ġbtn":8617,"Ġatmosp":8618,"Ġextremely":8619,"Cond":8620,"Ġhistorical":8621,"Ġstreet":8622,"Ġactor":8623,"Ġconfirmed":8624,"Ġorganizations":8625,"ifer":8626,"since":8627,"poration":8628,"inations":8629,"Job":8630,"Ġbudget":8631,"Mock":8632,"Ġchallenges":8633,"Ġcities":8634,"ĠWhy":8635,"Ġtracks":8636,"GR":8637,"ĠassertEquals":8638,"Gen":8639,"800":8640,"wall":8641,"ĉĉĉĊ":8642,"ucky":8643,"exception":8644,"las":8645,"Ġincome":8646,"âĢ¢":8647,"cpp":8648,"Ġsuggested":8649,"Ġencoding":8650,"Ġ$|\\":8651,";\"":8652,"names":8653,"Ġcoordinate":8654,".*":8655,"JSON":8656,"isted":8657,"Ġpolicies":8658,"ito":8659,"BP":8660,"fix":8661,"Ġil":8662,"Ġdispl":8663,"ĠNY":8664,"clusions":8665,"ilarly":8666,"poral":8667,"Ġlabor":8668,"ented":8669,"Ġaccurate":8670,"ĠLast":8671,"Ġnumerous":8672,"}$)":8673,"BI":8674,"Ġshock":8675,"Ġ[\\":8676,"iveness":8677,"look":8678,"Ġordered":8679,"oston":8680,"estion":8681,"Ġreligious":8682,"semble":8683,"Ġpaths":8684,"Ġcorner":8685,"Ġconducted":8686,"bro":8687,"Ġnucle":8688,"ĠThursday":8689,"Support":8690,"Ġdocuments":8691,"Ġobjective":8692,"Ġeq":8693,"))$":8694,"Ġhtml":8695,"Ġscattering":8696,"Ġjobs":8697,"Ġwhereas":8698,"vision":8699,"aling":8700,"ĠĠĠĠĠĠĠĠĠĠĠĠĠĠĠĠĠĠĠĠĠĠĠĠ":8701,"adium":8702,"ĠColl":8703,"Ġofficials":8704,"fi":8705,"$),":8706,"wait":8707,"andon":8708,"Ġrelax":8709,"security":8710,"wer":8711,"rg":8712,"hentication":8713,"ĠBrazil":8714,"Ġinitially":8715,"Ġnine":8716,"Ġdivision":8717,"ĠCH":8718,"Ġverify":8719,"exists":8720,"Ġmsg":8721,"awa":8722,"Ġassigned":8723,"JECT":8724,"itage":8725,"Ġsides":8726,"Ġequipment":8727,"esian":8728,"Public":8729,"Ġconj":8730,"Ġcalculation":8731,"unte":8732,"pet":8733,"ĠJoseph":8734,"Full":8735,"1983":8736,"Ġsignature":8737,"Ġclusters":8738,"Ġapi":8739,"ĠChris":8740,"ses":8741,"Ġattend":8742,"Ġlived":8743,"Ġends":8744,"addr":8745,"Ġ\"/":8746,"scroll":8747,"Ġmedium":8748,"Ġphysics":8749,"ĠWild":8750,"andra":8751,"bell":8752,"Opt":8753,"Ġdatasets":8754,"Ġcm":8755,"GA":8756,"Ġinstalled":8757,"estic":8758,"large":8759,"ĠLuc":8760,"ĠRam":8761,"ĠAndroid":8762,"ĠMedical":8763,"Ġtopic":8764,"rat":8765,"Ġaffected":8766,"thread":8767,"eld":8768,"Ġdetected":8769,"Ġentered":8770,"Ġfle":8771,"Ġautomatically":8772,"periment":8773,"parison":8774,"dropdown":8775,"ĠPak":8776,"athan":8777,"theme":8778,"ĠInternet":8779,"======":8780,"Ġtraject":8781,"Ġraw":8782,"Ġbond":8783,"KEY":8784,"Ġpsych":8785,"ancel":8786,"Ġcomputation":8787,"Match":8788,"Ġrepresenting":8789,")}_{":8790,"Ġaggreg":8791,"Ġcolumns":8792,"Active":8793,"limit":8794,"Ġknows":8795,"Ġadm":8796,"abeth":8797,"pred":8798,"isis":8799,"ĠPolice":8800,"brid":8801,"Ġlisten":8802,"dem":8803,"alloc":8804,"Ġmotiv":8805,"fast":8806,"ockey":8807,"Ġcollected":8808,"Ġinstant":8809,"################":8810,"Ġbench":8811,"elegate":8812,"ĠMen":8813,"Ġmarked":8814,"conv":8815,"ĠTuesday":8816,"ĠFunction":8817,"ĠRights":8818,"engine":8819,"Ġcalculations":8820,"çļ":8821,"tributed":8822,"cong":8823,"ĠEU":8824,"Ġshut":8825,"aration":8826,"Ġprotection":8827,"jquery":8828,"Ġcomputational":8829,"Queue":8830,"Ġorbit":8831,"uv":8832,"gypt":8833,"ĠObama":8834,"Ġtells":8835,"Ġaudio":8836,"ĠWilliams":8837,"Ġstock":8838,"ĠJoe":8839,"Perm":8840,"aria":8841,"Ġamplitude":8842,"Ġ[[":8843,"ultane":8844,"ĠMicrosoft":8845,"Ġking":8846,"ĠIrish":8847,"ĠWhe":8848,"unately":8849,"Ġprime":8850,"duction":8851,"Ġconfirm":8852,"Transaction":8853,"possible":8854,"ĠReal":8855,"Inv":8856,"channel":8857,"Ġvariation":8858,"Ġdescribes":8859,"Ġcold":8860,"cmd":8861,"ĠMiddle":8862,"Ġintended":8863,"ĠAndrew":8864,"Ġdust":8865,"mock":8866,"GC":8867,"Tags":8868,"Ġmyself":8869,"ĠMot":8870,"operation":8871,"[:":8872,"inds":8873,"çļĦ":8874,"Ġbias":8875,"ishop":8876,"Posted":8877,"Ġacting":8878,"home":8879,"Ġguy":8880,"__(":8881,"Ĥ¬":8882,"Ġ(*":8883,"ariance":8884,"Therefore":8885,"ROM":8886,"hens":8887,"ĠSpace":8888,"Ġbrowser":8889,"git":8890,"Bit":8891,"Ġscales":8892,"Ġcycl":8893,"Ġexplore":8894,"Ġnotes":8895,"ĠIR":8896,"each":8897,"yer":8898,"ĠVersion":8899,"comes":8900,"Ġsatisfying":8901,"ĠUpdate":8902,"Ġsubstant":8903,"Ġbehaviour":8904,"Ġdefense":8905,"Ġion":8906,"ograp":8907,"parameters":8908,"ĠĠĠĠĠĠĠĠĠĠĠĠĠĠĠĠĠĠĠĠĠĠ":8909,")))":8910,"Ġcharged":8911,"Ġbiggest":8912,"ĠSenate":8913,"Descriptor":8914,"Ġstability":8915,"Ġfunding":8916,"ĠWalk":8917,"Ġtreated":8918,"ador":8919,"PM":8920,"Widget":8921,"Editor":8922,"protobuf":8923,"osa":8924,"when":8925,"1982":8926,"paragraph":8927,"\"`":8928,"ran":8929,"Ġestimation":8930,"sume":8931,"Ġawarded":8932,"Ġfinish":8933,"(){":8934,"Ġzone":8935,"attribute":8936,"ĠWednesday":8937,"Timeout":8938,"rine":8939,"Ġsecondary":8940,"Ġawait":8941,"astructure":8942,"Ġinvestment":8943,"inity":8944,"ĠInitial":8945,"chain":8946,"Ġexponential":8947,"ĠLo":8948,"move":8949,"Ġpurposes":8950,"osity":8951,"ymmetric":8952,"ĠTele":8953,"Ġconsult":8954,"algorithm":8955,"Ġpredicted":8956,"ĠKh":8957,"notes":8958,"ansas":8959,"Ġsuitable":8960,"Äģ":8961,"101":8962,"Ġdedicated":8963,"Ġguide":8964,"125":8965,"Ġprinciple":8966,"elease":8967,"ĠStart":8968,"1950":8969,"Ġcoefficient":8970,"CF":8971,"Ġmir":8972,"ĠOrgan":8973,"ĠJeff":8974,"isely":8975,"Ġfaith":8976,"Ġfashion":8977,"agnetic":8978,"Ġopinion":8979,"Ġinstrument":8980,"Ġirre":8981,"Ġcrime":8982,"pay":8983,"ĠBern":8984,"VD":8985,"iy":8986,"law":8987,"enger":8988,"izable":8989,"never":8990,"hadoop":8991,"Ġsampling":8992,"nam":8993,"_-":8994,"Ġstatistical":8995,"aste":8996,"Ag":8997,"Ġwriters":8998,"ĠSta":8999,"gies":9000,"total":9001,"ulty":9002,"recated":9003,"ĠFalse":9004,"Ġjavax":9005,"unsigned":9006,"ĠFrancisco":9007,"GO":9008,"Ġconvex":9009,"Ä±":9010,"Ġscored":9011,"Ġfeedback":9012,"1979":9013,"Ġemphas":9014,"Term":9015,"Ġfant":9016,"ila":9017,"Ġ%}":9018,"Ġdir":9019,"ĠAS":9020,"water":9021,"ĠSpain":9022,"Transform":9023,"ĠRadio":9024,"flat":9025,"Ġfre":9026,")}}":9027,"inton":9028,"Channel":9029,"AF":9030,"Lock":9031,"txt":9032,"ĠWin":9033,"Ġincident":9034,"Ġinvestigate":9035,"square":9036,"lg":9037,"Ġexecution":9038,"ById":9039,",.":9040,"tip":9041,"Ġriver":9042,"Ġsport":9043,"primary":9044,"ello":9045,"ĠRo":9046,"circle":9047,"ĠDO":9048,"World":9049,"Ġaver":9050,"Ġneural":9051,"Ġemployees":9052,"ĠFeb":9053,"SSERT":9054,"FILE":9055,"ĠLear":9056,"Ġresidents":9057,"ãĢ":9058,"Ġaccepted":9059,"record":9060,"plus":9061,"Ġprojection":9062,"ĠEr":9063,"jar":9064,"sumer":9065,"endor":9066,"Scope":9067,"brace":9068,"Ġburn":9069,"Ġchair":9070,"condition":9071,"Ġenvironmental":9072,"ĠArg":9073,"Ġspecifically":9074,"Ġapplying":9075,"Ġabstract":9076,"Ġherself":9077,"Ġdoll":9078,"ĠAff":9079,"Ġfigures":9080,"Ġrequests":9081,"Float":9082,"ĠEnergy":9083,"Ġdepartment":9084,"ĠColumb":9085,"Ġhair":9086,"ĠNorthern":9087,"Global":9088,"Const":9089,"Extension":9090,"Ġtrace":9091,"Ġdenoted":9092,"Ġrepeated":9093,"Ġrom":9094,"tests":9095,"Ġbands":9096,"ĠWat":9097,"Ġstudio":9098,"Ġglass":9099,"ĠBritain":9100,"Constr":9101,"HECK":9102,"Ġexperi":9103,"Ġlocally":9104,"Ġnarrow":9105,"Ġexplicitly":9106,"ĠNE":9107,"Ġconnections":9108,"Ġmist":9109,"ĠLy":9110,"Ġdiscrete":9111,"PAR":9112,"\">&":9113,"ione":9114,"ĠLocal":9115,"Ġscaling":9116,"Ġwouldn":9117,"Ġinstances":9118,"ĠJewish":9119,"ĠNon":9120,"Ġpowers":9121,"lesssim":9122,"ĠDefault":9123,"]}":9124,"esome":9125,"Ġsupports":9126,"à¥":9127,"urations":9128,"pert":9129,"Ġdiam":9130,"Ġreviews":9131,"ĠDaniel":9132,"tan":9133,"urer":9134,"important":9135,"obe":9136,"Ġpossibility":9137,"mazing":9138,"Ġconfidence":9139,"vin":9140,"ĠCase":9141,"ĠFall":9142,"ĠLike":9143,"Year":9144,"oir":9145,"Ġtherap":9146,"Ġ×":9147,"ĠSouthern":9148,"Ġtrip":9149,"Ġfluct":9150,"Bas":9151,"Ġadopted":9152,"Ġdb":9153,"Ġhousehold":9154,"Ġseeing":9155,"mn":9156,"ĠJes":9157,"imit":9158,"Ġlie":9159,"ĠKen":9160,"Ġreaction":9161,"Ġfinds":9162,"XT":9163,":=":9164,"Ġmenu":9165,"Ġclaimed":9166,"details":9167,"Ġ{{":9168,"Ġsignals":9169,"game":9170,"ĠDemocratic":9171,"ĠWales":9172,"Ġperforming":9173,"ÙĦ":9174,"ĠSuch":9175,"ĠØ":9176,"illy":9177,"Ġhandler":9178,"events":9179,"mut":9180,"EXT":9181,"ĠImage":9182,"ĠVan":9183,"ĠSM":9184,"Ġvictory":9185,"Ġmyst":9186,"ennis":9187,"Ġleadership":9188,"ĠOlympics":9189,"wild":9190,"edit":9191,"account":9192,"Ġadministration":9193,"pository":9194,"urance":9195,"Ġappre":9196,"phant":9197,"acks":9198,"entials":9199,"1981":9200,"dfrac":9201,"unny":9202,"Ġyourself":9203,"tools":9204,"ĠSaint":9205,"ais":9206,"ĠMuslim":9207,"Ġviolence":9208,"save":9209,"Ġcaref":9210,"ĠNext":9211,"ĠEmp":9212,"erves":9213,"ĠSupport":9214,"Cap":9215,"ĠRay":9216,"Ġbegins":9217,"izon":9218,"ĠPolit":9219,"Ġopportunities":9220,"orship":9221,"@\"":9222,"CG":9223,"Ġstored":9224,"ĠTheatre":9225,"ĠSign":9226,"zone":9227,"Events":9228,"itative":9229,"ĠTR":9230,"Ġcategories":9231,"MD":9232,"Ġprepar":9233,"dp":9234,"Ġaren":9235,"VERSION":9236,"ĠTw":9237,"Ġtwice":9238,"ĠScotland":9239,"Ġdeveloping":9240,"people":9241,"external":9242,"Ġfavorite":9243,"selected":9244,"Ġexplo":9245,"Ġsuc":9246,"sen":9247,"Ġanimals":9248,"ĠĠĠĠĠĠĠĠĠĠĠĠĠĠĠĠĠĠĠĠĠĠĠĠĠĠĠĠĠĠĠĠĠĠĠĠĠĠĠĠĠĠĠ":9249,"Ñı":9250,"IVE":9251,"oton":9252,"cam":9253,"ĠFire":9254,"ĠExt":9255,"ĠMid":9256,"Google":9257,"ĠPlease":9258,"Auth":9259,"Ġowned":9260,"180":9261,"Ġopposite":9262,"Graph":9263,"horizontal":9264,"Ġfeat":9265,"ĠFar":9266,"ĠJackson":9267,"During":9268,"Ġpredictions":9269,"ĠNet":9270,"ĠBO":9271,"Ġlicense":9272,"ĠRet":9273,")\"":9274,"Ġtransmission":9275,"area":9276,"ĠGi":9277,"ĠJustice":9278,"ĠIndust":9279,"ibli":9280,"Ġaspects":9281,"ushed":9282,"oral":9283,"Display":9284,"Activity":9285,"irds":9286,"Ġboost":9287,"bmatrix":9288,"[-":9289,"verb":9290,".;":9291,"LOG":9292,"High":9293,"elihood":9294,"ampion":9295,"Ġwidely":9296,"$/":9297,"Ġcommission":9298,"!\"":9299,"Ġsizes":9300,"plicity":9301,"ulator":9302,"Ġpassing":9303,"dy":9304,"}({\\":9305,"Ġseat":9306,"Ġpal":9307,"Security":9308,"wp":9309,"()));":9310,"ĠIl":9311,"initely":9312,"Just":9313,"ĠOFF":9314,"001":9315,"aug":9316,"\\}$.":9317,"Ġpolitics":9318,"ĠPrem":9319,"]:":9320,"friend":9321,"Ġtab":9322,"Best":9323,"Ġmoments":9324,"fall":9325,"raq":9326,"Logger":9327,"Ġtranslation":9328,"}{(":9329,"flags":9330,"Ġwitness":9331,"Ġhelps":9332,"ĠNav":9333,"Ġgeneric":9334,"Ġcriminal":9335,"TABLE":9336,"layer":9337,"Memory":9338,"Ġnewsp":9339,"inson":9340,"umes":9341,"Ġsequences":9342,"ĠLive":9343,"Ġcomputing":9344,"isc":9345,"Ġabund":9346,"NT":9347,"ĠPath":9348,"Ġentropy":9349,"ĠGirl":9350,"sch":9351,"Ġsleep":9352,"orders":9353,"ĠUkr":9354,"Ġissued":9355,"eval":9356,"$:":9357,"Ġ{$":9358,"ĠJava":9359,"ĠAT":9360,"Ġliqu":9361,"MAX":9362,"erry":9363,"ĠInvest":9364,"Ġjourney":9365,"Ġweather":9366,"Sw":9367,".__":9368,"Ġexcellent":9369,"Ġvision":9370,"uli":9371,"Ġrain":9372,"depth":9373,"Fix":9374,"Ġexerc":9375,"Ġtail":9376,"izabeth":9377,"ĠCR":9378,"Ġchart":9379,"Init":9380,"ĠCEO":9381,"istence":9382,"Ġoccurred":9383,"Ġelectronic":9384,"Ġsinger":9385,"Ġpieces":9386,"(!":9387,"Ġmotor":9388,"okes":9389,"Ġregistered":9390,"Ġinvolving":9391,"random":9392,"Ġentirely":9393,"Ġbundle":9394,"ONE":9395,"Ġquadr":9396,"3333":9397,"Ġbroken":9398,"Ġadvance":9399,"tained":9400,"onto":9401,"UID":9402,"Ġlumin":9403,"Ġdire":9404,"ĠMO":9405,"Ġinteract":9406,"Background":9407,"imately":9408,"ĠSep":9409,"Ġcharacteristic":9410,"hu":9411,"udden":9412,"ĠBeach":9413,"=\"\">":9414,"queue":9415,"Ġsister":9416,"Ġrational":9417,"ogram":9418,"&=&":9419,"Ġenabled":9420,"Ġremote":9421,"Ġexport":9422,"ĠAge":9423,"Ġduration":9424,"ĠLittle":9425,"ez":9426,"]$.":9427,"ĠCoast":9428,"Ġcontrolled":9429,"Desc":9430,")\">":9431,"Ġrepresentations":9432,"ĠIndex":9433,"Ġnarr":9434,"ICE":9435,"ifiers":9436,"Ġpod":9437,"keyword":9438,"Ġshell":9439,"Ġreferences":9440,"pres":9441,"burgh":9442,"orough":9443,"Ġstandards":9444,"Ġsucceed":9445,"ĠGuide":9446,"âĢĭ":9447,"MI":9448,"^*$":9449,"Ġok":9450,"Ġperspective":9451,"ĠDat":9452,"pic":9453,"Ġofficers":9454,"kw":9455,"Ġcircum":9456,"Ġdecades":9457,"Ġwaiting":9458,"Ġuniversity":9459,"tfrac":9460,"ĠPacific":9461,"Ġcomposition":9462,"Ġng":9463,"ĠQueen":9464,"ĠAnother":9465,"lf":9466,"ucial":9467,"imm":9468,"ĠMake":9469,"1976":9470,"Ġvir":9471,"Ġrecording":9472,"Ġtele":9473,"agers":9474,"Ġfacilities":9475,"Ġintersection":9476,"1978":9477,"iliar":9478,"ĠHa":9479,"Ġcoinc":9480,")})":9481,"Member":9482,"$};":9483,"hbox":9484,"Expr":9485,"upload":9486,"integ":9487,"Ġradiation":9488,"components":9489,"ntax":9490,"ritory":9491,"Ġinstanceof":9492,"ĠGeorgia":9493,"evin":9494,"impl":9495,"Ġcharges":9496,"ixels":9497,"ĠRom":9498,"Ġalumni":9499,"vania":9500,"$_{":9501,"Bound":9502,"Ġterror":9503,"Ġscre":9504,"rank":9505,"ordan":9506,"tiny":9507,"Ġcauses":9508,"Ġlemma":9509,"Ġcontroller":9510,",...":9511,"Ġtournament":9512,"Product":9513,"Ġadvanced":9514,"tabs":9515,"ĠVideo":9516,"fire":9517,"ridge":9518,"una":9519,"sa":9520,"LIC":9521,"Ġfunds":9522,"Ġgirls":9523,"Ġconstants":9524,"utf":9525,"sky":9526,"Ġinvalid":9527,"Another":9528,"atar":9529,"Ġupdates":9530,"ĠSus":9531,"Stop":9532,">\\":9533,"Ġstrategies":9534,"ĠTask":9535,"joint":9536,"Ġvideos":9537,"controller":9538,"|}":9539,"Files":9540,"Dem":9541,"ĠEst":9542,"erial":9543,"ĠSir":9544,"hard":9545,"adel":9546,"Edit":9547,"Ġscientific":9548,"ami":9549,"ependence":9550,"configuration":9551,"Proof":9552,"Ġsufficiently":9553,"}})":9554,"General":9555,"icing":9556,"ĠJersey":9557,"heast":9558,"usal":9559,"Ġappend":9560,"ĠConfig":9561,"ĠJr":9562,"ĠCamb":9563,"Ġcompr":9564,"ifferent":9565,"1975":9566,"Ġoptional":9567,"ĠHospital":9568,"Ġconsequence":9569,"echo":9570,"ĠSciences":9571,"Ġyouth":9572,"ĠProfessor":9573,"VM":9574,"Ġnamely":9575,"%,":9576,"ĠSong":9577,"Ġexecutive":9578,"Ġassumptions":9579,"}}_{\\":9580,"ĠSi":9581,"ickets":9582,"Ġnavigation":9583,"Ġjump":9584,"Ġsatisfied":9585,"Ġequilibrium":9586,"Ġdrama":9587,"Ġemot":9588,"Ġbuilder":9589,"Ġcustomer":9590,"Ġexpos":9591,"ERS":9592,"ĠImm":9593,"oment":9594,"ĠMaster":9595,"gency":9596,"su":9597,"Ġfuel":9598,"Ġprincipal":9599,"bre":9600,"ĠFederal":9601,"STATE":9602,"INFO":9603,"Ġtight":9604,"ĠEnvironment":9605,"Success":9606,"Ġfeeling":9607,"trigger":9608,"Ġvehicles":9609,"Print":9610,"Ġregional":9611,"Ġcitizens":9612,"schema":9613,"nic":9614,"Ġfaster":9615,"tsd":9616,"ĠMu":9617,"ĠCarl":9618,"Ġsimultane":9619,"Find":9620,"upl":9621,"emptyset":9622,"Windows":9623,"Ġwarn":9624,"Grid":9625,"Ġ}}":9626,"Ġseemed":9627,"ĠComput":9628,"Ġsupposed":9629,"Ġinn":9630,"chor":9631,"ilbert":9632,"Ġsouthern":9633,"uum":9634,"ĠMajor":9635,"ĠCivil":9636,"Adapter":9637,"oses":9638,"bp":9639,"Ġpassword":9640,"Ġclients":9641,"Ġbelieved":9642,"[$":9643,"\",\"":9644,")));":9645,"ĠHarr":9646,"Ġrig":9647,",\\\\":9648,"Ġconvent":9649,"enth":9650,"Ġmagazine":9651,"syl":9652,"Ġfellow":9653,"Ġinfer":9654,"elly":9655,"Ġbusinesses":9656,"Directory":9657,"oviet":9658,"ĠBoston":9659,"ĠCro":9660,"ĠIndeed":9661,"essions":9662,"Ġouter":9663,"Ġproducer":9664,"ĠPR":9665,"ĠAppendix":9666,"ĠObserv":9667,"}[\\":9668,"lets":9669,"Ġcomfort":9670,"åı":9671,"amber":9672,"news":9673,"Ġfilled":9674,"Members":9675,"blog":9676,"Ġpenal":9677,"general":9678,"acent":9679,"Ġorth":9680,"opher":9681,"NavBarCell":9682,"istant":9683,"Ġmaxim":9684,"1977":9685,"chester":9686,"Ġcancell":9687,"cussion":9688,"Ġposted":9689,"Ġindicated":9690,"scss":9691,"Ġthousands":9692,"Ġinverse":9693,"ĠControl":9694,"bet":9695,"ĠSom":9696,"ĠFinal":9697,"Ġnecessarily":9698,"]$,":9699,"Details":9700,"Ġmunicip":9701,"mal":9702,"Video":9703,"Elements":9704,"ĠEgypt":9705,"}\\,\\":9706,"complete":9707,"Ġescape":9708,"ĠSat":9709,"ĠÂ©":9710,"switch":9711,"ibration":9712,"1972":9713,"Feature":9714,"Ġhy":9715,"Ġkeeping":9716,"ĠStudies":9717,"ĠStory":9718,"Ġdiscr":9719,"1974":9720,"ository":9721,"bd":9722,"Ġlanguages":9723,"Ġcloser":9724,"SIZE":9725,"Ġsubgroup":9726,"Ġancient":9727,"Ġspan":9728,"Ġcomposed":9729,"Items":9730,"hab":9731,"Ġdivided":9732,"Ġmetrics":9733,"!âĢĿ":9734,"Msg":9735,"ĠUr":9736,"Ġcontrad":9737,"ĠDar":9738,"ĠBol":9739,"logger":9740,"Ġsym":9741,"Ġtruly":9742,"ĠAsian":9743,"Ġsupporting":9744,"arios":9745,"Attributes":9746,"ctic":9747,"Ġsyn":9748,"ĠRepublican":9749,"night":9750,"Database":9751,"ĠAccess":9752,"ĠDir":9753,"ĠGar":9754,"Ġinspired":9755,"ĠAgain":9756,"Matrix":9757,"aked":9758,"hidden":9759,"Ġdecomposition":9760,"Ġ=========":9761,"ĠLook":9762,"Generic":9763,"Cluster":9764,"Ġpropose":9765,"Lo":9766,"ĠFood":9767,"writer":9768,"Internal":9769,"Ġbulk":9770,"Ġ[];":9771,"ĠAdv":9772,"poly":9773,"ĠOx":9774,"rie":9775,"Ġrecognition":9776,"about":9777,"*)":9778,"chestr":9779,"ĠSea":9780,"Ġdress":9781,"plicated":9782,"Ġintensity":9783,"Space":9784,"Ġdot":9785,"Ġ\\]":9786,"Ġcer":9787,"1968":9788,"ervative":9789,"Ret":9790,"ĠAdministr":9791,"typeof":9792,"Ġnearby":9793,"ocker":9794,"_,":9795,"Ġbasketball":9796,"Ġadvent":9797,"Ġrows":9798,"Ġclassic":9799,"fail":9800,"lywood":9801,"IPT":9802,"HC":9803,"cred":9804,"ĠBooks":9805,"Ġintegrated":9806,"PATH":9807,"ogy":9808,"hang":9809,"GN":9810,"ĠGiven":9811,"Ġ\\!":9812,"Ġholding":9813,"Ġeasier":9814,"tikzpicture":9815,"Browser":9816,"->_":9817,"ĠOption":9818,"isa":9819,"assertEquals":9820,"ĠAmericans":9821,"Ġprev":9822,"))\\":9823,"stood":9824,"Ġ\"\"":9825,"Ġplants":9826,"Ġexceed":9827,"ĠPhilipp":9828,"Tra":9829,"ĠSD":9830,"ĠFair":9831,"Play":9832,"ĠCopyright":9833,"ĠSearch":9834,"vals":9835,"Ġfish":9836,"bytes":9837,"Ġkick":9838,"////////////////////////////////":9839,"Ġce":9840,"ĠWilson":9841,"Ġeffectively":9842,"Ġconcerns":9843,"ĠSC":9844,"itted":9845,"columnwidth":9846,"ĠPrince":9847,"Ġnorthern":9848,"Ġsky":9849,"Ġdance":9850,"elect":9851,"attery":9852,"iples":9853,"Ġimplements":9854,"named":9855,"ĠOnce":9856,"tmp":9857,"Given":9858,"Ġcarbon":9859,"Ġacademic":9860,"Ġassociation":9861,"Ġprecisely":9862,"Encoded":9863,"Ġmel":9864,"Ġmarketing":9865,"Double":9866,"ĠHard":9867,"hl":9868,"Under":9869,"utely":9870,"ĠMah":9871,"Ġinjury":9872,"role":9873,"simple":9874,"Ġhotel":9875,"Ġreceiving":9876,"Ġfell":9877,"Py":9878,"Ġseasons":9879,"Ġrelationships":9880,"roke":9881,"browser":9882,"Ġmarriage":9883,"ĠCustom":9884,"manager":9885,"Ġsubsequent":9886,"WN":9887,"mathop":9888,"Ġarmy":9889,"ĠLew":9890,"Ġattended":9891,"ĠCollection":9892,"Ġkid":9893,"1973":9894,"Ġapplicable":9895,"inois":9896,"ĠStan":9897,"aya":9898,"ĠMas":9899,"een":9900,"ĠKong":9901,"Ġdrawn":9902,"ĠTrust":9903,"IMP":9904,"Ġarrived":9905,"ĠTerm":9906,"ubble":9907,"Ġparticipants":9908,"andy":9909,"','":9910,"aret":9911,"Ġexit":9912,"Ġcharacteristics":9913,"Ġprecision":9914,"Ġlargely":9915,"ĠMichigan":9916,"Ġaccomp":9917,"++;":9918,"Ġscores":9919,"FIG":9920,"Java":9921,"ulating":9922,"Ġconcert":9923,"Ġfootballers":9924,"Ġserving":9925,"Ġbelief":9926,"Ġrecip":9927,"Ġapart":9928,"Ġdelet":9929,"sample":9930,"constr":9931,"Ġ\",":9932,"=\"\"":9933,"Summary":9934,"Ġcolon":9935,"Ġmedal":9936,"Ins":9937,"sylvania":9938,"Ġpractical":9939,"![":9940,"Ġtemperatures":9941,"apl":9942,"Spe":9943,"ÑĮ":9944,"hav":9945,"arity":9946,"Ġdialog":9947,"Panel":9948,"mathit":9949,"Selector":9950,"ĠKim":9951,"Ġwatching":9952,"contains":9953,"slant":9954,"Ġsustain":9955,"VE":9956,"ĠThree":9957,"throws":9958,"Ġlayout":9959,"Ġtested":9960,"ochastic":9961,"player":9962,"ysical":9963,"Ġstrings":9964,"Install":9965,"platform":9966,"Phone":9967,"ĠProcess":9968,"Ġextent":9969,"Ġcounty":9970,"aded":9971,"Ġheav":9972,"]{\\":9973,"Ġ\"<":9974,"Pay":9975,"Ġfactory":9976,"Total":9977,"Ġip":9978,"Although":9979,"Ġguys":9980,"Ġbridge":9981,"aset":9982,"ITE":9983,">:":9984,"Ġcryst":9985,"??":9986,"ĠBell":9987,"herited":9988,"ĠBroad":9989,"}}.":9990,"Protocol":9991,"plane":9992,"Ġgate":9993,"Ġwinner":9994,"Ġorganized":9995,"Ġtypename":9996,"Iterator":9997,"Please":9998,"services":9999,"Ġmoves":10000,"retch":10001,"ori":10002,"Close":10003,"SY":10004,"cb":10005,"Ġroles":10006,"Ġjet":10007,"erior":10008,"assertEqual":10009,"Ġwire":10010,"ĠIraq":10011,"NC":10012,"Ġclosely":10013,"Ġpromin":10014,"prob":10015,"IND":10016,"Ġsan":10017,"Ġdiagonal":10018,"ographer":10019,"BUG":10020,"Duration":10021,"UD":10022,"Ġ..":10023,"Ġqueue":10024,"anna":10025,"Ġven":10026,"Ġemployed":10027,"kt":10028,"ego":10029,"Auto":10030,"mf":10031,"Î±":10032,"emon":10033,"Ġfavour":10034,"tons":10035,"ĠBad":10036,"Ġweekend":10037,"Ġconvert":10038,"Ġimprovement":10039,"ĠSecretary":10040,"ĠBrook":10041,"ToString":10042,"Ġportion":10043,":#":10044,"Pointer":10045,"bigr":10046,"TT":10047,"ĠPC":10048,"ĠBu":10049,"NotNull":10050,"Many":10051,"Ġmovies":10052,"Ġwhatever":10053,"Ġtrivial":10054,"Symfony":10055,"III":10056,"Ġspend":10057,"PD":10058,"Jan":10059,"editor":10060,"ni":10061,"jd":10062,"ĠSher":10063,"ĠNavy":10064,"Ġfunc":10065,"ĠCirc":10066,"Ġprepared":10067,"ĠRepresent":10068,"ĠOhio":10069,"Ġsale":10070,"Ġclinical":10071,"\\;":10072,"reset":10073,"Ġderive":10074,"Ġpeace":10075,"Ġing":10076,"bigl":10077,"agg":10078,"sat":10079,"Ġequality":10080,"ĠMir":10081,"Look":10082,"English":10083,"sex":10084,"Ġmal":10085,"Ġdemonstrate":10086,"uning":10087,"Ġengineering":10088,"Ġcref":10089,"()).":10090,"Ġsecure":10091,"Ġoffering":10092,"Ġelem":10093,"apol":10094,"prise":10095,"Ġarms":10096,"Ġsuperv":10097,"ritical":10098,"Ġfort":10099,"idae":10100,"ears":10101,"indu":10102,"Agent":10103,"Ġ$,":10104,"Ġembedding":10105,"Ġspring":10106,"vee":10107,"Ġasync":10108,"ugby":10109,"Ġarc":10110,"lay":10111,"teen":10112,"arest":10113,"ĠKent":10114,"Ġparam":10115,"Ġelections":10116,"Abstract":10117,"Ġanalyz":10118,"Flags":10119,"Ġsounds":10120,"UTF":10121,"Ġpit":10122,"ĠSteve":10123,"Ġstatements":10124,"Ġbreaking":10125,"Ġnonlinear":10126,"Ġexcited":10127,"agent":10128,"ĠBoy":10129,"aki":10130,"PORT":10131,"navList":10132,"ĠCur":10133,"pson":10134,"Ġusage":10135,"Ġprotein":10136,"National":10137,"Ġmach":10138,"Ġtheories":10139,"ĠNode":10140,"1969":10141,"aught":10142,"Arch":10143,"Rest":10144,"ĠSaf":10145,"Ġchoices":10146,"Â©":10147,"Ġdict":10148,"Ġgender":10149,"Ġgravit":10150,"Bi":10151,"Ġcanonical":10152,"Ġcontrols":10153,"SER":10154,"etal":10155,"ĠTODO":10156,"Ġvariance":10157,"ĠCat":10158,"ĠVAL":10159,"Ġprivacy":10160,"ĠKorea":10161,"Conf":10162,"Ġcopies":10163,"avid":10164,"Also":10165,"Ġdependent":10166,"ĠRen":10167,"ĠRog":10168,"Ġprogramming":10169,"|}{":10170,"amaz":10171,"Ġmathemat":10172,"Common":10173,"Ġenhance":10174,"Ġio":10175,"Ġexperiences":10176,"Ġfacility":10177,"Ġworse":10178,"Ġclim":10179,"printf":10180,"/_":10181,"Where":10182,"-(":10183,"Ġreserved":10184,"original":10185,"Ġaccident":10186,"wt":10187,"outer":10188,"oster":10189,"cert":10190,"iner":10191,"ĠBang":10192,"Ġcommonly":10193,"ogether":10194,"encing":10195,"Ġidentical":10196,"Ġtrav":10197,"Ġprimarily":10198,",\\,\\":10199,"Ġcaught":10200,"Ġhypothesis":10201,"ULE":10202,"Ġera":10203,"Ġfluid":10204,"aturally":10205,"Ġdecisions":10206,"/(":10207,"multirow":10208,"ikes":10209,"Aust":10210,"ĠHun":10211,"Ġsurrounding":10212,"Ġcrew":10213,"Ġevaluated":10214,"Proxy":10215,"Ġchampionship":10216,"collapse":10217,"^{*":10218,"aped":10219,"Ġnewly":10220,"craft":10221,"_(":10222,"Ġstands":10223,"ĠBa":10224,"ĠBall":10225,"1971":10226,"Failed":10227,"kens":10228,"Ġexpanded":10229,"slash":10230,"folio":10231,"ĠMic":10232,"Fin":10233,"Ġpaint":10234,"IGHT":10235,"Ġdiver":10236,"issue":10237,"ĠGreek":10238,"progress":10239,"Symbol":10240,"Ġanimal":10241,"Ġexpressions":10242,"ea":10243,"ĠCas":10244,"ĠRh":10245,"ookie":10246,"ĠEmpire":10247,"isting":10248,"Ġreprodu":10249,"Ġmaximal":10250,"acts":10251,"Yes":10252,"ERE":10253,"Ġproperly":10254,"icer":10255,"Ġtopological":10256,"ĠHom":10257,"Ġmarg":10258,"nil":10259,"fortunately":10260,"ourse":10261,"ĠBBC":10262,"Mapping":10263,"Loader":10264,"Ġneutr":10265,"Sche":10266,"Ġrepresentative":10267,"Ġwww":10268,"Ġstopped":10269,"ĠCommon":10270,"Ġbits":10271,"handler":10272,"Ljava":10273,"Ġexplanation":10274,"ĠInstead":10275,"Ġinputs":10276,"tion":10277,"detail":10278,"Ġprovider":10279,"hide":10280,"Ġactors":10281,"ĠKenn":10282,"ensities":10283,"ĠPRO":10284,"aga":10285,"})}":10286,"Ġpriv":10287,"EV":10288,"Ġaccounts":10289,"Ġagency":10290,"WR":10291,"ĠSoftware":10292,"Ġpractices":10293,"READ":10294,"Ġindices":10295,"Ġportr":10296,"Ġcrowd":10297,"Ġguard":10298,"generated":10299,"Ġplanned":10300,"Ġdoubt":10301,"avelength":10302,"ĠToday":10303,"Ġderivative":10304,"pair":10305,"Ġorb":10306,"Ġamazing":10307,"Ġessentially":10308,"ĠEdward":10309,"ĠElement":10310,"ĠBattle":10311,"Ġcaptured":10312,"ignment":10313,"Ġhousing":10314,"closed":10315,"Ġactress":10316,"}}^{\\":10317,"Ġconclusion":10318,"Ġgravity":10319,"Ġenergies":10320,"Ġmuseum":10321,"SN":10322,"Well":10323,"iem":10324,"ĠStation":10325,"apply":10326,"Ġlinked":10327,"Ġphotos":10328,"feature":10329,"vature":10330,"regular":10331,"ĠWrit":10332,"Ġfighting":10333,"Plugin":10334,"Ġlens":10335,"plan":10336,"Ã¢":10337,"sys":10338,"Consider":10339,"uality":10340,"Ġpurchase":10341,"Tube":10342,"Notes":10343,"hered":10344,"Ġinject":10345,"BL":10346,"Help":10347,"Ġreasonable":10348,"ĠEngineering":10349,"Ġgenerator":10350,"idential":10351,"figures":10352,"forcement":10353,"aux":10354,"ĠFI":10355,"Ġpapers":10356,"itter":10357,"Ġprices":10358,"emic":10359,"ĠSI":10360,"ANT":10361,"Ġworst":10362,"Lemma":10363,"Ġpars":10364,"][]{":10365,"Ġevening":10366,"Ð´":10367,"ipher":10368,"ĠWis":10369,"ĠEnt":10370,"execute":10371,"RT":10372,"mask":10373,"Game":10374,"there":10375,"Ġseed":10376,"Ġbos":10377,"LECT":10378,"Ġsharing":10379,"Ġhall":10380,"ĠElizabeth":10381,"decl":10382,"atern":10383,"XML":10384,"relation":10385,"Ġintroduction":10386,"orient":10387,"ĠAP":10388,"Ġversus":10389,"ĠHy":10390,"cha":10391,"ĠMcC":10392,"Parse":10393,"USE":10394,"Ġbow":10395,"MOD":10396,"Ġcatalog":10397,"Ġincorpor":10398,"fixed":10399,";\\;\\":10400,"colLast":10401,"ĠFox":10402,"Ġresearchers":10403,"you":10404,"ĠCommand":10405,"oured":10406,"Ġlowest":10407,"1967":10408,"Ã±":10409,"Ġquantity":10410,"Ġmultip":10411,"ifted":10412,"ĠCond":10413,"unes":10414,"Ġsuppose":10415,"Ġdestination":10416,"BM":10417,"})=":10418,"urable":10419,"Ġfn":10420,"'])":10421,"Ġtargets":10422,"Report":10423,"ĠEth":10424,"raise":10425,"\\}$,":10426,"NULL":10427,"Ġprefix":10428,"ĠLtd":10429,"LI":10430,"Ġcolour":10431,"Ġinterior":10432,"Ġdefend":10433,"Oh":10434,"Ġalter":10435,"Ġuniversal":10436,"Ġillustr":10437,"Ġadvice":10438,"Ã£":10439,"ĠPhot":10440,"Early":10441,"Ġpointer":10442,"ĠChildren":10443,"ĠSem":10444,"longrightarrow":10445,"=\"${":10446,"ĠAdam":10447,"Ġcart":10448,"ĠVill":10449,"Ġcomplement":10450,"Ġferm":10451,"Func":10452,"Tx":10453,"opes":10454,"specific":10455,"Ġsensitive":10456,"Ġcompre":10457,"Photo":10458,"Ġcriteria":10459,"Ġpartnership":10460,"ĠPennsylvania":10461,"gment":10462,"Ñĭ":10463,"Ġsomewhat":10464,"ropic":10465,"equence":10466,"Profile":10467,"SQL":10468,"ĠRequest":10469,"Ð¼":10470,"Ġcomedy":10471,"Ġacquired":10472,"vart":10473,"ĠDM":10474,"comb":10475,"ĠArea":10476,"ĠAsh":10477,"ĠĠĠĠĠĠĠĠĠĠĠĠĠĠĠĠĠĠĠĠĠĠĠĠĠĠ":10478,"Ġcovers":10479,"Ġhelping":10480,"Every":10481,"Ġdelivery":10482,"Ġlose":10483,"Ġsudden":10484,"Ang":10485,"Ġmental":10486,"sem":10487,"ĠPen":10488,"_->":10489,"trivial":10490,"RC":10491,"ĠSource":10492,"ĠIT":10493,"Ġsynchron":10494,"Lin":10495,"enant":10496,"ĠComple":10497,"Ð²":10498,"Ġhaven":10499,"Ġassuming":10500,"users":10501,"ennes":10502,"ĠSu":10503,"ĠSym":10504,"JS":10505,"swarm":10506,"}_{-":10507,"children":10508,"Ġdetermin":10509,"abet":10510,"iota":10511,"ocaml":10512,"Ġreaders":10513,"Ġ=======":10514,"raham":10515,"quant":10516,"ĠWatch":10517,"ruby":10518,"tainment":10519,"Ġcommitted":10520,"tics":10521,"Wrapper":10522,"colFirst":10523,"Selected":10524,"ĠRight":10525,"700":10526,"ĠPA":10527,"STAT":10528,"dash":10529,"Ġbrings":10530,"Cred":10531,"yo":10532,"including":10533,"Care":10534,"icular":10535,"protected":10536,"subs":10537,"Ġhouses":10538,"idx":10539,"np":10540,"eman":10541,"Keys":10542,"Ġdeleg":10543,"ĠSeason":10544,"edu":10545,"ruption":10546,"also":10547,"Ġhumans":10548,"Ġfeaturing":10549,"arters":10550,"Ġcas":10551,"ĠRest":10552,"Ġtypeof":10553,"ĠĠĠĠĠĠĠĠĠĠĠĠĠĠĠĠĠĠĠĠĠĠĠĠĠĠĠĠĠ":10554,"Ġvalidation":10555,"Ġdemonstrated":10556,"Ġenv":10557,"Associ":10558,"Ġ^{":10559,"ĠBon":10560,"Ġcreative":10561,"}}}\\":10562,"Ġignore":10563,"Ġminute":10564,"oked":10565,"Ġperman":10566,"wing":10567,"allclasses":10568,"ĠResource":10569,"heta":10570,"Ġswe":10571,"Ġaf":10572,"Ġpotentially":10573,"Ġment":10574,"ĠAli":10575,"ĠLatin":10576,"Most":10577,"oupl":10578,"Ġannounce":10579,"Short":10580,"Ġloved":10581,"unnel":10582,"triangle":10583,"bur":10584,"Ġencounter":10585,"uset":10586,"{%":10587,"FP":10588,"Äĩ":10589,"stances":10590,"Ġdetector":10591,"1940":10592,"@@":10593,"person":10594,"iated":10595,"tor":10596,"Ġdropped":10597,"\\}\\":10598,"ĠDigital":10599,",{\\":10600,"ĉĉĉĉĉĉĉĉĉ":10601,"Ġadvoc":10602,"Ġcompatible":10603,"ptic":10604,"Ġspons":10605,"ĠEastern":10606,"Nov":10607,"tags":10608,"Ġcontribute":10609,"iations":10610,"onia":10611,"asm":10612,"Ġwealth":10613,"Scroll":10614,"Ġdefinitely":10615,"Ġpolitician":10616,"pub":10617,"Ġreward":10618,"ĠSab":10619,"iser":10620,"ĠIllinois":10621,"algebra":10622,"Ġmeta":10623,"ĠNC":10624,"Multi":10625,"ĠPrime":10626,"ĠIOException":10627,"ĠBal":10628,"ĠIV":10629,"Ġwestern":10630,"Ġpresents":10631,"wildfly":10632,"Ġserves":10633,"ACT":10634,"ĠSN":10635,"Ġinterpretation":10636,"Writ":10637,"Ġreq":10638,"ĠKr":10639,"Category":10640,"Ġstanding":10641,"Ġcodes":10642,"ĠHash":10643,"Ġmes":10644,"Ġscr":10645,"report":10646,"Ġconcerned":10647,"ĠChair":10648,"Compat":10649,"alities":10650,"Remove":10651,"ĠChampionships":10652,"tbody":10653,"Collections":10654,"Register":10655,"Ġsand":10656,"uble":10657,"Ġmagnet":10658,"Ġepisodes":10659,"changed":10660,"Ġthin":10661,"Ġindustrial":10662,"izz":10663,"Ġ(+":10664,"Ġmanage":10665,"ĠAz":10666,"Ġstorm":10667,"Ġprofession":10668,"Ġvent":10669,"will":10670,"contrib":10671,"ĠHas":10672,"single":10673,"ĠWAR":10674,"cribed":10675,"para":10676,"Enum":10677,"Ġuniverse":10678,"Ġskin":10679,"Ġnotion":10680,"Ġfee":10681,"icensed":10682,"enabled":10683,"anth":10684,"protocol":10685,"Ġabsence":10686,"metadata":10687,"ĠCart":10688,"aska":10689,"Ġcoq":10690,"ĠHong":10691,"Nodes":10692,"HL":10693,"Ġcovering":10694,"wrapper":10695,"Ġdisplayed":10696,"Ġnut":10697,"worth":10698,"getName":10699,"Ġasymptotic":10700,"Ġfamiliar":10701,"ĠFull":10702,"Ġ).":10703,"Î¿":10704,"osophy":10705,"Ġdx":10706,"ĠLabor":10707,"NOT":10708,"Ġsurg":10709,"prev":10710,"aze":10711,"aton":10712,"Ġ(_":10713,"Ġdecrease":10714,"isson":10715,"href":10716,"dialog":10717,"\"><!--":10718,"Hence":10719,"iterator":10720,"props":10721,"ĠPakistan":10722,"Ġsentence":10723,"Ġmixing":10724,"Ġhun":10725,"Ġdashed":10726,"VID":10727,"Ġunderstood":10728,"ĠGets":10729,"}|\\":10730,"esides":10731,"Ġbug":10732,"Ġinstitutions":10733,"attributes":10734,"subsec":10735,"Ġcosm":10736,"ĠGuard":10737,"Cast":10738,"iking":10739,"apore":10740,"Ġiteration":10741,"issues":10742,"onomy":10743,"ibraries":10744,")}_":10745,"irk":10746,"Ġdirections":10747,"Ġexperienced":10748,"shop":10749,"1930":10750,"some":10751,"ĠNever":10752,"Ġ{'":10753,"Ġextreme":10754,"Comment":10755,"Ġextensive":10756,"Ġhonor":10757,"Ġà¤":10758,"Fail":10759,"Copyright":10760,"Ġnegot":10761,"Ġmodules":10762,"ĠON":10763,"Dest":10764,"Ġattempts":10765,"\\|\\":10766,"Ġflags":10767,"Ġcircuit":10768,"ĠTy":10769,"ĠEll":10770,"Ġsatell":10771,"ĠConsider":10772,"Ġcrisis":10773,"Math":10774,"formed":10775,"Ġgenerating":10776,"Ġcapable":10777,"Ġpun":10778,"Ġjustice":10779,"Ġcouncil":10780,"Ġours":10781,"@{":10782,"shadow":10783,"Ġschedule":10784,"outs":10785,"Ġmolecular":10786,"Ġgeneralized":10787,"Ġcolors":10788,"ĠSpring":10789,"Ġauthority":10790,"}</":10791,"ĠNick":10792,"negative":10793,"ĠDark":10794,"ĠAnth":10795,"Free":10796,"Ġexcess":10797,"Runtime":10798,"ipping":10799,"Ġlogic":10800,"Ġvot":10801,"ajax":10802,"SF":10803,"Ġawards":10804,"Ġgrew":10805,"Ġbatch":10806,"Å¡":10807,"Ġsigns":10808,"Ġaddresses":10809,"special":10810,"¿½":10811,")[":10812,"BAR":10813,"Ġurban":10814,"filename":10815,"ĠDam":10816,"Ġinternet":10817,"Ġrecognized":10818,"ĠHo":10819,"ĠCorporation":10820,"mean":10821,"Ġdriven":10822,"Ġrg":10823,"Ġteaching":10824,"Ġ],":10825,"&=\\":10826,"unique":10827,"bras":10828,"prefix":10829,"Ġspeaking":10830,"ĠWars":10831,"good":10832,"pull":10833,"ĠRos":10834,"vo":10835,"sn":10836,"Ġsending":10837,"ibilities":10838,"Cam":10839,"ĠAk":10840,"Ġincred":10841,"1964":10842,"ĠFOR":10843,"------------":10844,"compiler":10845,"ĠClark":10846,"ADD":10847,"storage":10848,"ĠNiger":10849,"Ġtx":10850,"ĠCost":10851,"views":10852,"typed":10853,"Ġxmlns":10854,"Repository":10855,"Ġhorizontal":10856,"Ġgreatest":10857,"Language":10858,"inos":10859,"separ":10860,"Ġdecade":10861,"umps":10862,"Ġathlet":10863,"Ġspecify":10864,"Ġhomes":10865,"Ġposts":10866,";}":10867,"ĠDonald":10868,"Example":10869,"Ġinterests":10870,"dc":10871,"ĠĠĠĠĠĠĠĠĠĠĠĠĠĠĠĠĊ":10872,"Ġinfrastructure":10873,"itled":10874,"Ġdrag":10875,"Ġmetadata":10876,"aled":10877,"Ġresolve":10878,"Ġfifth":10879,"Ġalongside":10880,"Xi":10881,"Ġscenes":10882,"headers":10883,"1965":10884,"Ġredshift":10885,"Ġunable":10886,"ĠTurn":10887,"medskip":10888,"Ġtransparent":10889,"Day":10890,"+(":10891,"Ġelev":10892,"ummy":10893,"Real":10894,"Ġbot":10895,"engers":10896,"ĠSupreme":10897,"Ġdeploy":10898,":=\\":10899,"à¸":10900,"ĠFind":10901,"anz":10902,"}$}":10903,"yard":10904,"Ġseparated":10905,"Ġcert":10906,"Ø±":10907,"Region":10908,"Ġdense":10909,"Ġhistoric":10910,"Identifier":10911,"lower":10912,"oped":10913,"=.":10914,"OUT":10915,"nc":10916,"uating":10917,"aired":10918,"uits":10919,"ulner":10920,"FE":10921,"Ġmo":10922,"Ġbaseline":10923,"Ġending":10924,"Ġdefines":10925,"ĠWhere":10926,"Ġsoul":10927,"Ġbodies":10928,"maven":10929,"Ġflo":10930,"ĠDNA":10931,"Cho":10932,"Ġproxy":10933,"Ġcoal":10934,"formal":10935,"Ġabuse":10936,"ffff":10937,"ycl":10938,"Ġstead":10939,"ĠBand":10940,"Ġquantities":10941,"idi":10942,"Ġpermission":10943,"Sur":10944,"Ġprofiles":10945,"ĠGro":10946,"Ġneither":10947,"Ġmedian":10948,"gov":10949,"Ben":10950,"}}=":10951,"Ġloaded":10952,"()</":10953,"Ġphoton":10954,"eah":10955,"Ġhearing":10956,"Ġpublication":10957,"Ġapproximate":10958,"ĠIE":10959,"ountry":10960,"conduct":10961,"Ġast":10962,"oking":10963,"ĠJean":10964,"Ġisomorphism":10965,"Ġped":10966,"Ġfindings":10967,"Ġdemocr":10968,"Ant":10969,"watch":10970,"Ġgar":10971,"builder":10972,"Ġcle":10973,"Simple":10974,"Variable":10975,"rink":10976,"!]":10977,"Ġnormalized":10978,"Ġwa":10979,"Scale":10980,"Ġcorrection":10981,"ĠSoviet":10982,"ĠFuture":10983,"isor":10984,"Ġfacts":10985,"Ġassembly":10986,"Ġdiagn":10987,"Ġton":10988,"Ġturb":10989,"Seg":10990,"Â°":10991,"1920":10992,"Ax":10993,"usetts":10994,"phia":10995,"errors":10996,"Ġimmediate":10997,"tenance":10998,"Ġperformances":10999,"ĠBE":11000,"Ġdecide":11001,"ĠProperty":11002,"University":11003,"Ġfly":11004,"Ġvolunte":11005,"Statement":11006,"achusetts":11007,"vartheta":11008,"Ġplas":11009,"got":11010,"Li":11011,"Ġpixel":11012,"plates":11013,"shared":11014,"(__":11015,"^{(\\":11016,"ĠLev":11017,"Ġprompt":11018,"ydney":11019,"Ġquasi":11020,"Ġstochastic":11021,"Ġletters":11022,"job":11023,"ĠPO":11024,"observ":11025,"Ġradial":11026,"Ġfrag":11027,"Ġmarkets":11028,"<!":11029,"Ġvon":11030,"Ġhonest":11031,"Ġlists":11032,"ĠChange":11033,"Cr":11034,"username":11035,"ĠNAME":11036,"Ġcompletion":11037,"hook":11038,"ĠFC":11039,"expect":11040,"ĠOnline":11041,"iration":11042,"clean":11043,"Ġ?>":11044,"ĠĠčĊ":11045,"TEXT":11046,"Once":11047,"ĠShort":11048,"rift":11049,"Ġdebate":11050,"Lat":11051,"Ġalleged":11052,"Ġlisting":11053,"Ġsac":11054,"Mr":11055,"Ġ({\\":11056,"Ġimpossible":11057,"Ġdisp":11058,"Ġscenarios":11059,"ĠDom":11060,"ĠLandroid":11061,"provider":11062,"Ġalert":11063,"Layer":11064,"Character":11065,"HP":11066,"cluster":11067,"amazon":11068,"iii":11069,"Ġcommittee":11070,"done":11071,"occer":11072,"Ġmm":11073,"irth":11074,"uency":11075,"construct":11076,"Ġimply":11077,"Registry":11078,"orry":11079,"Ġcrucial":11080,"aren":11081,"Ġvocals":11082,"Ġsaved":11083,"aks":11084,"Ġprofessor":11085,"ĠColumbia":11086,"olving":11087,"Ġrespective":11088,"Ġresc":11089,"Ġsettlement":11090,"Ġ}{":11091,"Ġfrequently":11092,"1945":11093,"Ġseparation":11094,"Ġcoupled":11095,"antly":11096,"collection":11097,"Ġmort":11098,"resources":11099,"}\\|":11100,"parser":11101,"Ġcookies":11102,"ĠHotel":11103,"urd":11104,"Ġattached":11105,"ĠUI":11106,"ĠInteger":11107,"Ġentr":11108,"Ġearned":11109,"Ġprogramme":11110,"ctrine":11111,"ĠRod":11112,"Route":11113,"Ã£o":11114,"ĠIslands":11115,"functions":11116,"^*\\":11117,"ologist":11118,"Engine":11119,"twitter":11120,"Stand":11121,"ĠMedicine":11122,"have":11123,"cohol":11124,"Ġintent":11125,"ï¿½":11126,"Ġctx":11127,"ĠMessage":11128,"hensive":11129,"Ġliquid":11130,"ĠThrough":11131,"Ġtack":11132,"130":11133,"360":11134,"Ġcontemporary":11135,"Player":11136,"Ġhierarch":11137,"Ġyes":11138,"Ġauthorities":11139,"eties":11140,"Enter":11141,"Ġdisabled":11142,"AE":11143,"ĠÂ·":11144,"adelphia":11145,"1966":11146,"%%%%":11147,"URI":11148,"scriptstyle":11149,"Ġsizeof":11150,"Ġgene":11151,"South":11152,"Ġfiction":11153,"Ġspac":11154,"LINE":11155,"ä»":11156,"Ġintelligence":11157,"ĠViet":11158,"connected":11159,"ĠMill":11160,"Christ":11161,"\\%$":11162,"Moreover":11163,"Ġcontents":11164,"temp":11165,"Progress":11166,"Ġestate":11167,"irms":11168,"agen":11169,"OF":11170,"month":11171,"Ġgenus":11172,"Ġinvolves":11173,"ĠMatt":11174,"ĠGP":11175,"ĠBox":11176,"ĠProp":11177,"sequently":11178,"kes":11179,"Trace":11180,"vironments":11181,"tz":11182,"Ġhabit":11183,"RES":11184,"uable":11185,"Ġbass":11186,"letter":11187,"rog":11188,"cdn":11189,"Scal":11190,"bg":11191,"})^":11192,"Ġoutcome":11193,"ĠDocument":11194,"Email":11195,"structure":11196,"ĠSon":11197,"Ġimpress":11198,"trim":11199,"login":11200,"pattern":11201,"Depend":11202,"video":11203,"Ġss":11204,"Ġfragment":11205,"Ġlogger":11206,"Ġwinter":11207,"lights":11208,"Ġban":11209,"Ġlosing":11210,"Ġentertain":11211,"GP":11212,"ĠÙ":11213,"Ġfaces":11214,"Ġcash":11215,"asp":11216,"ĠOxford":11217,"activ":11218,"Ġpromote":11219,"Ġrout":11220,"owner":11221,"Ġconsumer":11222,"arry":11223,"Ġships":11224,"Ġcreat":11225,";\">":11226,"ĠMarg":11227,"thur":11228,"ĠNAS":11229,"Ġdocumentation":11230,"Ġpassion":11231,"ĠCurrent":11232,"parallel":11233,"Ġreduces":11234,"ĠRO":11235,"Ġplate":11236,"ĠGR":11237,"Generator":11238,"Ġoperated":11239,"theless":11240,"Sync":11241,"ĠMinistry":11242,"onymous":11243,"ĠHiggs":11244,"Ġchapter":11245,"Ġcreates":11246,"abric":11247,"Ġreturning":11248,">::":11249,"('.":11250,"ĠHistoric":11251,"Ġstages":11252,"gebras":11253,"Ġtranslate":11254,"edding":11255,"Ġdelivered":11256,"ceptions":11257,"xs":11258,"Your":11259,"throw":11260,"}~":11261,"Ġgather":11262,"Ġkin":11263,"Ġforget":11264,"Ġrequested":11265,"ika":11266,"ĠStephen":11267,"Miss":11268,"SV":11269,"ĠAud":11270,"Password":11271,"azy":11272,"}{*":11273,"Ġ[\"":11274,"ĠMember":11275,"cline":11276,"Ġles":11277,"Ġ{\"":11278,"elle":11279,"Ġapproved":11280,"Ġtermin":11281,"Ġdecor":11282,"ĠSant":11283,"Ġstronger":11284,"Ġdefinitions":11285,"Ġconsisting":11286,"Ġdisappe":11287,"His":11288,"ĠPut":11289,"ĠRegion":11290,"Ġ\"-":11291,"Ġanalys":11292,"states":11293,"Ġpromise":11294,"Ġkit":11295,"ĠJordan":11296,"heim":11297,"xhtml":11298,"Ġcab":11299,"Ġsensitivity":11300,"Socket":11301,"PER":11302,"Subs":11303,"Ġappreci":11304,"ĠSa":11305,"ucks":11306,"Ġdestroyed":11307,"%.":11308,"notag":11309,"Ġjudge":11310,"ĠDead":11311,"Ġpayment":11312,"Ġagric":11313,"ĠPubl":11314,"agnostic":11315,"Ġstores":11316,"Ġcollaboration":11317,"iti":11318,"Ġindicating":11319,"ĠĠĠĠĠĠĠĠĠĠĠĠĠĠĠĠĠĠĠĠĠĠĠĠĠĠĠĠ":11320,"ĠVari":11321,".âĢĻ":11322,"ĠCountry":11323,"phase":11324,"Ġsquad":11325,"seq":11326,"Ġneutral":11327,"ymmetry":11328,"enable":11329,"inction":11330,"Ġheaders":11331,"Ġconstructor":11332,"ĠToronto":11333,"Ġnob":11334,"ĠAlexander":11335,"Ġfib":11336,"consin":11337,"Ġwalls":11338,"Suppose":11339,"ĠIss":11340,"Ġpri":11341,"ulpt":11342,"Ġwarning":11343,"QU":11344,"Ġsubjects":11345,"junit":11346,"Ġfat":11347,".[":11348,"scopic":11349,"Ġclock":11350,"ĉčĊ":11351,"ĠGovernor":11352,"putation":11353,"ĠPay":11354,"Ġasking":11355,"Leg":11356,"Ġ$\\{\\":11357,"ropical":11358,"Ġbringing":11359,"Role":11360,"Ġchallenging":11361,"ÏĦ":11362,"fd":11363,"riority":11364,"Ġroughly":11365,"Ġreads":11366,"ĠSanta":11367,"ĠPDF":11368,"Ġshares":11369,"ĠBrad":11370,"Ġflood":11371,"Stud":11372,"testing":11373,"Ġproduces":11374,"ĠAvenue":11375,"Ġrefers":11376,"ĠHttp":11377,"enna":11378,"arith":11379,"Ġroots":11380,"rell":11381,"cludes":11382,"ĠRyan":11383,"Ġresponsibility":11384,"Ġscholar":11385,"ĠBefore":11386,"Ġproposal":11387,"åĪ":11388,"anny":11389,"MF":11390,"^*(":11391,"Ġdimensional":11392,"Ġeat":11393,"News":11394,"svg":11395,"ĠGrant":11396,"Ġpoliticians":11397,"Ġultimately":11398,"=[":11399,"ĠVictoria":11400,"Ġbinding":11401,"oval":11402,"ogonal":11403,"Ġtechnologies":11404,"Ġpointed":11405,"Ġdoctor":11406,"Ġadjacent":11407,"Ġui":11408,"Ġmanip":11409,"oor":11410,"Ġmess":11411,"ĠML":11412,"Ġ'<":11413,"pu":11414,"Ġframes":11415,"ĠjQuery":11416,"Ġdry":11417,"ieval":11418,"ĠPortug":11419,"flag":11420,"Ġdiverse":11421,"Ġcontro":11422,"ĠDavis":11423,"plementation":11424,"Ġmagic":11425,"ĠStandard":11426,"extern":11427,"blank":11428,"facebook":11429,"Ġfold":11430,"owa":11431,"ĠRa":11432,"Ġsoldiers":11433,"hfill":11434,"ski":11435,"Ġintermediate":11436,"Est":11437,"Single":11438,"'));":11439,"textcolor":11440,"eros":11441,"series":11442,"Ġfeels":11443,"utation":11444,"Ġwilling":11445,"ĠBlock":11446,"ĠBit":11447,"Ġmoder":11448,"Ġpanels":11449,"serial":11450,"Ġtriple":11451,"Ġtitles":11452,"fc":11453,"CB":11454,"Ġdynamical":11455,"Ġputting":11456,"ĠRefer":11457,"POST":11458,"sig":11459,"CTYPE":11460,"nodes":11461,"ĠTam":11462,"Ġinclusion":11463,"Clear":11464,"hal":11465,"Ġadmin":11466,"oust":11467,"Ġresistance":11468,"HA":11469,"paper":11470,"Ġconfigurations":11471,"ti":11472,"Ġmountain":11473,"Ġconsec":11474,"Microsoft":11475,"odge":11476,"Ġspl":11477,"æľ":11478,"ĠKnow":11479,"Ġhist":11480,"ĠAD":11481,"igate":11482,"112":11483,"Ġmit":11484,"Ġorientation":11485,"Ġhook":11486,"ĠPhoto":11487,"Ġestablishments":11488,"Ġfake":11489,"Mer":11490,"ĠSche":11491,"Ġwins":11492,"Ġsubsequently":11493,"Ġlistener":11494,"Constants":11495,"ycle":11496,"Ġsilver":11497,"Ġpercentage":11498,"omy":11499,"Pres":11500,"Ġĉ":11501,"Ġoccasion":11502,"ĠFac":11503,"Ġrecommended":11504,"ĠTE":11505,"cross":11506,"hot":11507,"expr":11508,"ĠOfficial":11509,"merce":11510,"ĠDaily":11511,"ailability":11512,"Ġrecovery":11513,"bean":11514,"Star":11515,"phantom":11516,"rid":11517,"Ġaccompl":11518,"Ġdeclared":11519,"Ġvariations":11520,"Ġvirt":11521,"ceive":11522,"Ġdefeated":11523,"imated":11524,"Ġrailway":11525,"ĠHay":11526,"ĠLady":11527,"Ġweapons":11528,"ĠBlog":11529,"ederation":11530,"»¿":11531,"Ġconcentration":11532,"aron":11533,"ownt":11534,"Ġequivalence":11535,"Ġfails":11536,"ĠBat":11537,"Ġeigenvalues":11538,"ĠMS":11539,"Ġsnow":11540,"uma":11541,"regon":11542,"glyph":11543,"ĠDoug":11544,"Ġflu":11545,"Ġpriority":11546,"Ġrural":11547,")^\\":11548,"owed":11549,"Ġphases":11550,"equations":11551,"instein":11552,"GM":11553,"Ġterr":11554,"ĠCount":11555,"ĠIns":11556,"ancell":11557,"Ġcurvature":11558,"tar":11559,"ativ":11560,"imination":11561,"ï»¿":11562,"imp":11563,"ĠScottish":11564,"jango":11565,"ĠSQL":11566,"napshot":11567,"æĸ":11568,"door":11569,"ĠForest":11570,"lyn":11571,"Ġrestricted":11572,"Ġaid":11573,"Ġmodeling":11574,"corollary":11575,"Black":11576,"Ġarrang":11577,"Ġabsolutely":11578,"Ġassets":11579,"Ġlegend":11580,"Ġfacilit":11581,"Brit":11582,"âĢĻ.":11583,"vc":11584,"ĠPers":11585,"ĠAnalysis":11586,"Ġtotally":11587,"Ġcorrectly":11588,"=\"$":11589,"Ġpresentation":11590,"ĠGallery":11591,"Press":11592,"lope":11593,"Ġshooting":11594,"bourne":11595,"Ġanimation":11596,"Resources":11597,"Ġapplies":11598,"ĠTurkey":11599,"Ġrobot":11600,"ĠTok":11601,"ĠExecutive":11602,"ĠChannel":11603,"Ġlay":11604,"counter":11605,"Ġnaturally":11606,"Ġsole":11607,"Div":11608,"represent":11609,"ordon":11610,"ĠOnt":11611,"?>":11612,"ĠLow":11613,"Sem":11614,"ĠBerlin":11615,"ĠProvince":11616,"Ġsight":11617,"ÐµÐ½":11618,"LR":11619,"Ġsuit":11620,"ĠYes":11621,"apters":11622,"ĠMassachusetts":11623,"Ġnp":11624,"ducible":11625,"ĠLewis":11626,"through":11627,"aire":11628,"flex":11629,"bus":11630,"Ġanom":11631,"Ġconservation":11632,"Ġexecute":11633,"Ġride":11634,"Ġcorrections":11635,"nob":11636,"Ġtemp":11637,"ITION":11638,"Ġhundreds":11639,"Ġmouth":11640,"ĠMagazine":11641,"Ġrestaurant":11642,"Ġempir":11643,"Fore":11644,"iversary":11645,"etary":11646,"Ġchecked":11647,"ĠCreek":11648,"Ġgranted":11649,"Ġprecise":11650,"Ġconversation":11651,"ĠMarket":11652,"ĠDu":11653,"trace":11654,"pret":11655,"Ġyounger":11656,"Ġdominant":11657,"OB":11658,"TRUE":11659,"ĠVen":11660,"ryption":11661,"webpack":11662,"Ġadvers":11663,"Ġstone":11664,"102":11665,"Ġvotes":11666,"springframework":11667,"Ġtransactions":11668,"${\\":11669,"Ġidx":11670,"Ġstrictly":11671,"Ġpixels":11672,"Ġminister":11673,"usform":11674,".\");":11675,"UK":11676,"ĠFollowing":11677,"transition":11678,"ĠOs":11679,"cerning":11680,"Ġbenchmark":11681,"Ġresponses":11682,"ospit":11683,"numerusform":11684,"ĠProt":11685,"United":11686,"Ġguest":11687,"Ġcraft":11688,"ĠNa":11689,"ĠRose":11690,"ropol":11691,"AY":11692,"ĠDutch":11693,"Oct":11694,"icking":11695,"Coll":11696,"Ġidentification":11697,"Final":11698,"Ke":11699,"Ġbought":11700,"/.":11701,"ĠChall":11702,"ĠExample":11703,"Ġmodify":11704,"redu":11705,"ĠSite":11706,"Ġgiant":11707,"Ġadult":11708,"Åį":11709,"ĠStaff":11710,"Ġfitting":11711,"ulus":11712,"Prefix":11713,"Ġschemes":11714,"Ġ([":11715,"Ġhorse":11716,"Sep":11717,"overs":11718,"Ġcampus":11719,"Ġrealized":11720,"ĠSky":11721,"Ġmechanisms":11722,"backslash":11723,"\"\"\"":11724,"Ġperiodic":11725,"Headers":11726,"Ġsnap":11727,"imits":11728,"Ġtalks":11729,"Ġquark":11730,"phy":11731,"Ġdangerous":11732,"Ġreporting":11733,"Ġexpensive":11734,"picker":11735,"ĠCore":11736,"ju":11737,"Ġiron":11738,"Ġbelongs":11739,"resize":11740,"Ġexposure":11741,"FFFF":11742,"Ġconverted":11743,"forming":11744,"Ġmil":11745,"Ġwavelength":11746,"ĠDespite":11747,"accept":11748,"ĠConnect":11749,"required":11750,"ortion":11751,"Ġgravitational":11752,"ĠMiller":11753,"ubs":11754,"ĠColorado":11755,"Ġflows":11756,"Children":11757,"Ġconversion":11758,"Ġreligion":11759,"Ġacid":11760,"Texture":11761,"Delegate":11762,"Import":11763,"orted":11764,"Selection":11765,"esis":11766,"1963":11767,"Ġyards":11768,"agrang":11769,"ĠOriginal":11770,"ĠBC":11771,"âĢĻ,":11772,"Ġveg":11773,"ĠTal":11774,"Ġarts":11775,"Wallet":11776,"Ġarrested":11777,"ĠBul":11778,"Ġsimultaneously":11779,"Plan":11780,",'":11781,"Ġtum":11782,"ĠJacob":11783,"aneous":11784,"Ġhits":11785,"International":11786,"itely":11787,"EP":11788,"Ġaccommod":11789,"ando":11790,"111":11791,"ĠCook":11792,"DEFAULT":11793,"scriptsize":11794,"Join":11795,"ingham":11796,"Ġdescent":11797,"Ġdomestic":11798,"ĠRecord":11799,"Ġtopology":11800,"Ġrenew":11801,"dag":11802,"ouston":11803,"Ġinvestigated":11804,"Ġatmosphere":11805,"Ġdiscovery":11806,"ĠCulture":11807,"Ġwing":11808,"conver":11809,"Ġkilling":11810,"...</":11811,"TIME":11812,"Ġyellow":11813,"insic":11814,"ruit":11815,"Ġmand":11816,"finite":11817,"rizona":11818,"gon":11819,"posing":11820,"wave":11821,"Ġexperts":11822,"Ġafford":11823,"Ġhardware":11824,"Ġbaby":11825,"Ġwhenever":11826,"ĠEu":11827,"Contact":11828,"ĠSydney":11829,"Ġfrequencies":11830,"Ġteen":11831,"ALSE":11832,"Ġpipeline":11833,"Ġ[],":11834,"ĠCNN":11835,"appoint":11836,"Ġclubs":11837,"Ġunivers":11838,"Ġrestriction":11839,"Ġna":11840,"Ġnullptr":11841,"Ġreconstruction":11842,"Ġvast":11843,"Ġele":11844,"ĠCloud":11845,"Ġsolo":11846,"Ġdeviation":11847,"Ġinstruction":11848,"ĠSystems":11849,"spin":11850,"season":11851,"Ġvisited":11852,"setup":11853,"Ġcrash":11854,"ĠMinnes":11855,"TERN":11856,"Ġpersonnel":11857,"Ġperiods":11858,"omatic":11859,"moment":11860,"PY":11861,"bow":11862,"Ġsymbols":11863,"Ġresulted":11864,"Ġvarying":11865,"Ġsolving":11866,"ĠOS":11867,"owski":11868,"ĠDer":11869,"apos":11870,"Make":11871,"isot":11872,"Ġprominent":11873,"ĠExpl":11874,"erving":11875,"ĠPot":11876,"Ġgeometric":11877,"Ġcancel":11878,"Ġaug":11879,"Ġmatters":11880,"acon":11881,"EEEE":11882,"lan":11883,"Ġfestival":11884,"140":11885,"Ġuncertainties":11886,"esterday":11887,"Ġpopulations":11888,"105":11889,"Program":11890,"Ġpossess":11891,"atomic":11892,"commit":11893,"ynamics":11894,"Ġexplains":11895,"Ġmob":11896,"ĠLes":11897,"iga":11898,"indexOf":11899,"Cloud":11900,"ĠBoolean":11901,"gather":11902,"Ġrequirement":11903,"Ġadds":11904,"Ġrid":11905,"(-\\":11906,"Ġscheduled":11907,"Ġretired":11908,"irement":11909,"Domain":11910,"HD":11911,"Ġdebug":11912,"ificial":11913,"analy":11914,"Ġproducing":11915,"loom":11916,"Ġtemporal":11917,"ĠÐ¿":11918,"bat":11919,"Ġpreced":11920,"iley":11921,"ĠTransport":11922,"Ġ---":11923,"Ġdiversity":11924,"Ġcharset":11925,"Ġretail":11926,"Ġfluctuations":11927,"Ġconfigure":11928,"Ġassistant":11929,"Ġluminosity":11930,"Ġturning":11931,"Ġrent":11932,"ĠDor":11933,"Ġexecuted":11934,"ĠBrian":11935,"Connect":11936,"Ġisot":11937,"Ġsystematic":11938,"SW":11939,"Ġqueries":11940,"design":11941,"('#":11942,"ĠDream":11943,"ĠMinnesota":11944,"Shape":11945,"Ġboundaries":11946,"sun":11947,"requency":11948,"ĠNether":11949,"async":11950,"deep":11951,"Ġthoughts":11952,"Ġregression":11953,"Ġconventional":11954,"Ġvess":11955,"$.}":11956,"Ġillustrated":11957,"ailing":11958,"127":11959,"Framework":11960,"Ġdiscussions":11961,"Ġsimilarly":11962,"Ġlang":11963,"Ġvacuum":11964,"was":11965,"pur":11966,"Ġtransferred":11967,"Ġsurfaces":11968,".\\\\":11969,"Interval":11970,"println":11971,"ĠSurvey":11972,"Ġabandon":11973,"Services":11974,"ndef":11975,"icide":11976,"TF":11977,"Stats":11978,"assembly":11979,"ĠOcean":11980,"ctors":11981,"Ġstraightforward":11982,"ĠHTTP":11983,"Ġproud":11984,"period":11985,"Ġuniformly":11986,"brief":11987,"iÃ³n":11988,"Ġapps":11989,"Ġanalyze":11990,"moz":11991,"ivals":11992,"Ġparser":11993,"ĠBudd":11994,"dig":11995,"ĠChem":11996,"Rob":11997,"IDTH":11998,"ĠMean":11999,"lab":12000,"Ġassessment":12001,"Î½":12002,"Ġatoms":12003,"isition":12004,"Methods":12005,"Ġforeach":12006,"ĠLA":12007,"sym":12008,"Ġsurprising":12009,"COMP":12010,"Ġris":12011,"ĠProduct":12012,"Ġcomplicated":12013,"ANCE":12014,"download":12015,"invalid":12016,"Skip":12017,"Based":12018,"oes":12019,"Ġdrugs":12020,"Ġur":12021,"tc":12022,"iously":12023,"nm":12024,"ĠContin":12025,"ĠConf":12026,"Ġlimitations":12027,"CRE":12028,"Area":12029,"ĠEND":12030,"isode":12031,"ĠANY":12032,"Private":12033,"DOCTYPE":12034,"ĠClin":12035,"quir":12036,"Ġwalking":12037,"Ġweighted":12038,"ĠHung":12039,"1962":12040,"DateTime":12041,"ĠPrivacy":12042,"agues":12043,"Ġlaser":12044,"Normal":12045,"Ġcontest":12046,"Ġcoff":12047,")->":12048,"overview":12049,"ĠStadium":12050,"ARD":12051,"Ġprospect":12052,"roc":12053,"UST":12054,"Ġsituations":12055,"PG":12056,"ĠHarry":12057,"Ġwelcome":12058,"UC":12059,"visible":12060,"ĠSingapore":12061,"Ġbath":12062,"Ġcensus":12063,"Fi":12064,"idal":12065,"spirit":12066,"yy":12067,"Ġquiet":12068,"Ġstrike":12069,"Ġaccum":12070,"ĠAI":12071,"Ġnewspaper":12072,"Ġrandomly":12073,"constant":12074,"Ġbaseball":12075,"rolling":12076,"Ġsin":12077,"warning":12078,"agan":12079,"identifier":12080,"who":12081,"Ġpictures":12082,"ĠMountain":12083,"Ġvice":12084,"yal":12085,"ellect":12086,"Ġcompens":12087,"Ġworldwide":12088,"Ġdegener":12089,"Ġbigger":12090,"Ġinstitution":12091,"cycle":12092,"Ġcollision":12093,"Ġabsorption":12094,"apsed":12095,"Ġtang":12096,"Ġtopics":12097,"ĠFA":12098,"enda":12099,"Ġsees":12100,"Ġtransitions":12101,"Pair":12102,"Ġneighb":12103,"LY":12104,"Ġtags":12105,"iors":12106,"Ġtalent":12107,"eeper":12108,"Ġoperate":12109,"Ġseeking":12110,"Ġreverse":12111,"ĠNAV":12112,"icenses":12113,"gets":12114,"islation":12115,"Bel":12116,"Ġhybrid":12117,"jecture":12118,"sep":12119,"away":12120,"Ġpasses":12121,"Ġcub":12122,"Ġmine":12123,"lix":12124,"tk":12125,"iteral":12126,"/\"":12127,"ods":12128,"Ġsensor":12129,"feed":12130,"Begin":12131,"Ġdestr":12132,"Ġhandling":12133,"ĠBan":12134,"ounce":12135,"ĠFord":12136,"ĠSuppose":12137,"Hom":12138,"Like":12139,"('/":12140,"Ġ\"$":12141,"ĠLind":12142,"Ġexercise":12143,"ĠInput":12144,"*}[":12145,"SCR":12146,"ĠAnton":12147,"Äį":12148,"inch":12149,"Ġpilot":12150,"iami":12151,"Ġtwenty":12152,"ĠUnit":12153,"ĠClear":12154,"ĠCELL":12155,"Ġvisitors":12156,"Hub":12157,"Ġveter":12158,"ĠBrother":12159,"ĠDB":12160,"Ġresidual":12161,"Flow":12162,"Ġdominated":12163,"Len":12164,"Ġbat":12165,"Ġsad":12166,"Ġongoing":12167,"Ġdefect":12168,"Ġextracted":12169,"ĠParamet":12170,"bles":12171,"Ġscientists":12172,"ĠTro":12173,"ĠBuilding":12174,"Ġbare":12175,"brand":12176,"Ġtroops":12177,"Ġster":12178,"Ġembedded":12179,"Ġclip":12180,"Attr":12181,"written":12182,"Ġcorporate":12183,"ĠDa":12184,"ĠDeath":12185,"ĠMari":12186,"Ġmissed":12187,"aph":12188,"ikip":12189,"ĠYouTube":12190,"Bean":12191,"David":12192,"Ġvulner":12193,"WH":12194,"angers":12195,"Light":12196,"Music":12197,"thick":12198,"ĠHollywood":12199,"Ġquot":12200,"ĠTag":12201,"Ġacknowled":12202,"ĠPoland":12203,"zy":12204,"uj":12205,"ĠNFL":12206,"Ġexpectation":12207,"fx":12208,"Ġdependencies":12209,"Ms":12210,"Ġtables":12211,"Props":12212,"ĠValid":12213,"Ġtracking":12214,"Generated":12215,"Ã©e":12216,"Aug":12217,"Ġpolarization":12218,"Ġstructural":12219,"textup":12220,"Previous":12221,"peat":12222,"Ġdrivers":12223,"ĠRaj":12224,"Ġdomains":12225,"Ġslowly":12226,"Ġ,\\":12227,"Ġattorney":12228,"Mc":12229,"ĠInf":12230,"Ġenjoyed":12231,"Ð°Ð½":12232,"Ġterminal":12233,"rupted":12234,"ĠAlli":12235,"timeout":12236,"ĉĠĠĠĠĠ":12237,"ĠWIT":12238,"arring":12239,"Her":12240,".<":12241,"bled":12242,"supported":12243,"Ġrapidly":12244,"dk":12245,"Ġcharacterized":12246,"ĠGolden":12247,"EEEEFF":12248,"Uri":12249,"tage":12250,"Ġreset":12251,"Ġhell":12252,"ician":12253,"ĠBarn":12254,"ĠEric":12255,"Ġdates":12256,"checked":12257,"Ġincreasingly":12258,"stage":12259,"ĠManager":12260,"repre":12261,"ĠResults":12262,")}.":12263,"pto":12264,"ĠEP":12265,"ĠFROM":12266,"Ġbomb":12267,"analysis":12268,"âĤ¬":12269,"GG":12270,"Ġboys":12271,"Ġstim":12272,"{(\\":12273,"osed":12274,"Ġadults":12275,"plier":12276,"$\\,":12277,"iot":12278,"socket":12279,"Ġhosted":12280,"ĠWH":12281,"Ġteachers":12282,"ĠResponse":12283,"Ġcir":12284,"Ġlosses":12285,"Returns":12286,"ĠJesus":12287,"ilevel":12288,"Ġbriefly":12289,"asty":12290,"ĠDescription":12291,"Ġconvolution":12292,"ĠallClasses":12293,"Ġconcepts":12294,"ANG":12295,"Good":12296,"Ġ''":12297,"ÙĨ":12298,"itudes":12299,"Ġplugin":12300,"Ġreplacement":12301,"methods":12302,"agrangian":12303,"eras":12304,"Ġperturbation":12305,"Ġgoods":12306,"Ġtelling":12307,"Ġsubmit":12308,"ternoon":12309,"Ġcollapse":12310,"Ġapparently":12311,"Ġpatch":12312,"Ġopposed":12313,"Ġspending":12314,"ĠallClassesLink":12315,"helper":12316,"Ġpreferred":12317,"akh":12318,"Ġtimeout":12319,"ĠLater":12320,"quote":12321,"Ġrgba":12322,"Following":12323,"Effect":12324,"ĠCorn":12325,"Native":12326,"erset":12327,"Ġschema":12328,"typedef":12329,"ĠHeart":12330,"ĠĠĠĠĠĠĠĠĠĠĠĠĠĠĠĠĠĠĠĠĠĠĠĠĠĠĠĠĠĠ":12331,"ĠWinter":12332,"Mich":12333,"|^{":12334,"ĠEntertainment":12335,"Ġfits":12336,"Ġinsurance":12337,"Ġannot":12338,"Ġaccessible":12339,"Ġuniqu":12340,"phan":12341,"Ġwrites":12342,"olute":12343,"Sequence":12344,"Ġsuspect":12345,"(@":12346,"checkbox":12347,"activity":12348,"ĠKat":12349,"ĠBelg":12350,"Ġopposition":12351,"Ġrevers":12352,"RS":12353,"olves":12354,"Ġvalidate":12355,"reprene":12356,"ĠSound":12357,"Ġsingles":12358,"ĠHal":12359,"Ġ\\,\\":12360,"uh":12361,"ĠHart":12362,"Ġreducing":12363,"Ġplatforms":12364,"Ġbatt":12365,"Labels":12366,"ĠSto":12367,"DEBUG":12368,"ĠRoss":12369,"extension":12370,"Ġexplos":12371,"Vertex":12372,"Operator":12373,"former":12374,"ĠClinton":12375,"Ġphotograph":12376,"aware":12377,"slice":12378,"python":12379,"Ġhealthy":12380,"ĠArrayList":12381,"ĠMD":12382,"Ġentang":12383,"ikipedia":12384,"Ġdt":12385,"ayed":12386,"Ġlect":12387,"Ġreadonly":12388,"Family":12389,"Ġalgebraic":12390,"ĠDisney":12391,"via":12392,"ĠNetherlands":12393,"Ġenvironments":12394,"Ġdescribing":12395,"herical":12396,"Ġvo":12397,"ĠMalays":12398,"Ġglob":12399,"Ġreceiver":12400,"Ġroof":12401,"ĠTake":12402,"å®":12403,"gi":12404,"ĠForeign":12405,"Ġdecreases":12406,"volume":12407,"Ġblow":12408,"rig":12409,"Volume":12410,"sidebar":12411,"Ġchose":12412,"asts":12413,"Ġlistening":12414,"ouri":12415,"ĠGeV":12416,"Ġlikelihood":12417,"Austral":12418,"console":12419,"EventListener":12420,"Ġpref":12421,"ĠTony":12422,"Ġcausing":12423,"ĠKorean":12424,"don":12425,"Struct":12426,"Ġease":12427,"ĠRome":12428,"Environment":12429,"ĠLore":12430,"LOCK":12431,"çĶ":12432,"anches":12433,"Ġformulation":12434,"tection":12435,"bec":12436,"mk":12437,"Ġfault":12438,"Ġ\\\"":12439,"Ġlandscape":12440,"ante":12441,"Ids":12442,"itting":12443,"aza":12444,"ĠNations":12445,"DIS":12446,"Ġdisorder":12447,"footnotes":12448,"mad":12449,"Ġelectro":12450,"iamond":12451,"dam":12452,"Ġtmp":12453,"ĠSimilarly":12454,"åħ":12455,"groups":12456,"Ġviewed":12457,"ples":12458,"mag":12459,"Ġsphere":12460,"Ġlots":12461,"Ġspoke":12462,"Ġdefining":12463,"Ġconvenient":12464,"nan":12465,"Ġseats":12466,"offs":12467,"ĠWisconsin":12468,"getElement":12469,"Ġappeal":12470,"expand":12471,"1961":12472,"NavBarFont":12473,"Ġemergency":12474,"ĠClient":12475,"Ġepoch":12476,"Ġexhibition":12477,"binom":12478,"Ġskip":12479,"undefined":12480,"ĠApplication":12481,"complex":12482,"Save":12483,"Ġvictims":12484,"Ġorbital":12485,"ĠGree":12486,"ÅĤ":12487,"}/\\":12488,"Ġcopyright":12489,"Ð¾Ð²":12490,"ĠReact":12491,"ĠPalest":12492,"Ġconsumption":12493,"ceil":12494,"Ġelectrons":12495,"Ġproven":12496,"jet":12497,"ĠASSERT":12498,"basic":12499,"Ġdiffusion":12500,"ĠShould":12501,"ÑģÑĤ":12502,"Ġinterpol":12503,"variable":12504,"Ġoutcomes":12505,"Ġforth":12506,"ĠEdition":12507,"ĠPhiladelphia":12508,"Ġhide":12509,"Ġobviously":12510,"Ġpitch":12511,"()))":12512,"ennessee":12513,"|$":12514,"ĠAlgorithm":12515,"Ġgained":12516,"~~~~~~~~":12517,"\"],":12518,"yers":12519,"ned":12520,"iest":12521,"&-":12522,"Ġpartially":12523,"cu":12524,"uts":12525,"Ġdistances":12526,"Ġtaught":12527,"ĠHD":12528,"HTTP":12529,"Ġha":12530,"ĠMoon":12531,"Ġeducational":12532,"hou":12533,"FM":12534,"Append":12535,"compare":12536,"West":12537,"ĠJane":12538,"Ġexhibit":12539,"Ġamounts":12540,"ĠLanguage":12541,"Ġguarantee":12542,"1944":12543,"ĠMoh":12544,"Ġwear":12545,"ĠGreg":12546,"Because":12547,")>":12548,"Ġguid":12549,"Î¹":12550,"ĠCred":12551,"adesh":12552,"ĠAdministration":12553,"Ġbars":12554,"Ġprepare":12555,"Ġfounder":12556,"ĠPrinc":12557,"Ġimplicit":12558,"wick":12559,"riers":12560,"ĠEditor":12561,"Ġmouse":12562,"Ġatomic":12563,"ĠCambridge":12564,"Fragment":12565,"Ġwindows":12566,"ĠTree":12567,"Ġsharp":12568,"!\\":12569,"Observ":12570,".$$":12571,"isp":12572,"nol":12573,"104":12574,"Ġupload":12575,"ĠSelect":12576,"Ġfewer":12577,"Review":12578,"Ġselling":12579,"ĠResp":12580,"Ġofficially":12581,"Ġquadratic":12582,"Ġanalytic":12583,"Ġsurprise":12584,"eveloper":12585,"sequence":12586,"ĠAmb":12587,"Ġsimilarity":12588,"Ġbind":12589,"Ġmetall":12590,"ĠFourier":12591,"1959":12592,"appy":12593,"Ġignored":12594,"ugar":12595,".\",":12596,"ĠBor":12597,"}>":12598,"Ġpersons":12599,"ĠKevin":12600,"Mill":12601,"ordinate":12602,"Ġhalo":12603,"Ġmonitoring":12604,"Enumer":12605,"Bind":12606,"ĠBridge":12607,"ĠVector":12608,"radio":12609,"iac":12610,"Ġconcrete":12611,"footnotesize":12612,"Lower":12613,"\\!\\":12614,"Ġfalls":12615,"iat":12616,")(\\":12617,"Mag":12618,"once":12619,"Ġlegisl":12620,"inema":12621,"}.}":12622,"ĠJam":12623,"Ġstreets":12624,"ĠMrs":12625,"amps":12626,"Ġderivatives":12627,"Ġmd":12628,"Career":12629,"ĠOlympic":12630,"origin":12631,"rather":12632,"Ġwinners":12633,"\\|_":12634,"Ġaccord":12635,"Ġhal":12636,"ĠOregon":12637,"Ġrevenue":12638,"1958":12639,"Ġclosure":12640,"Visible":12641,"chant":12642,"ORY":12643,"Ġcuts":12644,"Card":12645,"Ġhate":12646,"Ġfasc":12647,"tensor":12648,"achel":12649,"ĠSimon":12650,"itecture":12651,"iche":12652,"Ġadopt":12653,"Ġbid":12654,"Ġevil":12655,"ĠAgency":12656,"Ġfiber":12657,"cers":12658,"Ġisolated":12659,"enses":12660,"Transport":12661,"ĠArgent":12662,"âĢ¦.":12663,"Ġcompliance":12664,"Ġsevere":12665,"Ġcomparing":12666,"Who":12667,"Ġnan":12668,"Ġaims":12669,"ĠPrint":12670,"ĠTraining":12671,"PROJECT":12672,"may":12673,"objects":12674,"Ġ\\&":12675,"Ġconjug":12676,"mouse":12677,"Ġeastern":12678,"ĠAccount":12679,"Wait":12680,"photon":12681,"Ġsimulated":12682,"Sql":12683,"ĠUkraine":12684,"Required":12685,"Ġrooms":12686,"Ġproportional":12687,"hedral":12688,"ktop":12689,"QUE":12690,"ĠMit":12691,"comput":12692,"Ġplasma":12693,"ĠRow":12694,"ership":12695,"Ġexposed":12696,"ections":12697,"Ġelimin":12698,"Ġhomogeneous":12699,"Ġinvent":12700,"porter":12701,"BD":12702,"subject":12703,"Cent":12704,"igrants":12705,"ĠModern":12706,"~(\\":12707,"Users":12708,"Ġexciting":12709,"available":12710,"Ġwheel":12711,"ĠStock":12712,"compat":12713,"Ġconsc":12714,"Ġgrown":12715,"eyn":12716,"release":12717,"ĠAnderson":12718,"audi":12719,"Ġstyles":12720,"Ġheads":12721,"1956":12722,"ĠContent":12723,"ĠThanks":12724,"ells":12725,"Ġtradition":12726,"ĠRevolution":12727,"Eval":12728,"ĠOntario":12729,"ĠHop":12730,"Animation":12731,"ĠCab":12732,"optional":12733,"zip":12734,"ista":12735,"Ġrating":12736,"Ã©s":12737,"Ġrevolution":12738,"Ġreaching":12739,"ĠTai":12740,"ĠNorm":12741,"\"].":12742,"built":12743,"Ġstood":12744,"ĠStore":12745,"emony":12746,"king":12747,"ĠLeon":12748,"Ġstudying":12749,"Capt":12750,"Ġanswers":12751,"izers":12752,"uscript":12753,"ĠPrize":12754,"standard":12755,"Sample":12756,"obby":12757,"ĠDue":12758,"ĠSP":12759,"zech":12760,"lu":12761,"Ġboat":12762,"chestra":12763,"Ġrein":12764,"Overview":12765,"Ġsitting":12766,"RAN":12767,"Ġvalign":12768,"uler":12769,"Ġadvertising":12770,"{|":12771,"'_{":12772,"SELECT":12773,"Ġcombat":12774,"ĠRad":12775,"Warning":12776,"Ġranges":12777,"Ġsculpt":12778,"stud":12779,")}(\\":12780,"Focus":12781,"Ġinfl":12782,"Lib":12783,"Ġ\\|\\":12784,"Flag":12785,"Ġwonderful":12786,"Ġplenty":12787,"Ġconsideration":12788,"Abs":12789,"Ġutility":12790,"ĠJenn":12791,"Ġstabil":12792,"ĠSA":12793,"Ġenemy":12794,"Ġdensities":12795,"Ġensemble":12796,"Ġreveals":12797,"ĠThose":12798,"rb":12799,"Ġ>>>":12800,"Ġchampion":12801,"Ñĩ":12802,"ĠPos":12803,"what":12804,"ĠNeed":12805,"YY":12806,"eron":12807,"Ġdesigns":12808,"Ġtherapy":12809,"proxy":12810,"Ġhorizon":12811,"Even":12812,"midrule":12813,"ships":12814,"signature":12815,"Ġcomprehensive":12816,"ĠJews":12817,"parts":12818,"Ġpolynomials":12819,"Ġparticipate":12820,"Ġsuffered":12821,"Ġpurchased":12822,"porters":12823,"Ã¡n":12824,"quarters":12825,"ĠStone":12826,"lee":12827,"program":12828,"Ġbroke":12829,"Ġcompetitive":12830,"elastic":12831,"ĠAh":12832,"Ġprocedures":12833,"ĠPit":12834,"Ġstrip":12835,"Ġleaf":12836,"ï¼Į":12837,")&":12838,"Life":12839,"mix":12840,"Ġintervals":12841,"ĠSyria":12842,"ĠSmart":12843,"uda":12844,"Ġneur":12845,"Validation":12846,"ĠLearning":12847,"Ġtrajectory":12848,"Ġairport":12849,"ĠTax":12850,"Ġheavily":12851,"$-$":12852,"Dictionary":12853,"tp":12854,"GeV":12855,"batch":12856,"expl":12857,"Cref":12858,"Ġneighbour":12859,"Ġreform":12860,"Ġmerge":12861,"ĠIndones":12862,"heric":12863,"ENSE":12864,"ĠMarc":12865,"Ġkinds":12866,"idelines":12867,"115":12868,"1957":12869,"Ġdrawing":12870,"Dim":12871,"]^":12872,"Mac":12873,"icky":12874,"åĲ":12875,"Ġcards":12876,"bx":12877,"Ġequipped":12878,"Ġ\\[":12879,"razy":12880,"Ġbanks":12881,"wd":12882,"ĠBurn":12883,"kh":12884,"Ġconditional":12885,"stan":12886,"Ġraces":12887,"invariant":12888,"lot":12889,"Ġextensions":12890,"Ġloading":12891,",...,":12892,"ĠWord":12893,"oda":12894,"FORM":12895,"lm":12896,"']['":12897,"Ġordinary":12898,"uls":12899,"ĠSix":12900,"ELD":12901,":[":12902,"Cur":12903,"ĠRoll":12904,"isations":12905,"Ġassistance":12906,"ĠPlace":12907,"Films":12908,"charge":12909,"ĠNAVBAR":12910,"Ġcommands":12911,"hell":12912,"ĠKal":12913,"ĠWrite":12914,"=\\{":12915,"Ġcircumstances":12916,"loss":12917,"policy":12918,"Ġrepeat":12919,"ĠVi":12920,"Ġpicked":12921,"tre":12922,"1948":12923,"Ġcorrelations":12924,"cluding":12925,"Ġprinciples":12926,"weak":12927,"ĠAffairs":12928,"North":12929,"Sol":12930,"ĠSever":12931,"ĠLiter":12932,"vard":12933,"Ġtransmit":12934,"ĠSav":12935,"sis":12936,"rible":12937,"Ġemotional":12938,"Ġrely":12939,"Ġworker":12940,"Ġcounts":12941,"jan":12942,"Ġenables":12943,"Ġpublisher":12944,"eb":12945,"Ġfiled":12946,"ĠDuke":12947,"Ġadmit":12948,"IAL":12949,"Ġoutputs":12950,"dark":12951,"covery":12952,"Ġconsecutive":12953,"Ġentertainment":12954,"135":12955,"ceptor":12956,"Ġbold":12957,"1939":12958,"ĠPack":12959,"ĠAtlantic":12960,"Ġtries":12961,"Ġwaste":12962,"rence":12963,"Ġfaculty":12964,"Namespace":12965,"Schedul":12966,"&&$\\{":12967,"Conver":12968,"Ġrectangle":12969,"Ġcomparable":12970,"ĠDefinition":12971,"density":12972,"ãĢĤ":12973,"Detail":12974,"Ġ{$\\":12975,"erty":12976,"ĠQueens":12977,"Ign":12978,"Ġruntime":12979,"Ġ\\},$\\\\":12980,"Ġfacing":12981,"ĠSIZE":12982,"Ġdesire":12983,"ĠEV":12984,"brane":12985,"Ġreliable":12986,"ulous":12987,"Ġfairly":12988,"created":12989,"ĠTool":12990,"Ġimagine":12991,"runtime":12992,"Ġassignment":12993,"%\"":12994,"burn":12995,"Ġbreath":12996,"ĠDoctor":12997,"ĠDemocrats":12998,"Ġsoci":12999,"romagnetic":13000,"perial":13001,"riends":13002,"ĠMemorial":13003,"Den":13004,"Ġ];":13005,"Ġrealize":13006,"hd":13007,"missions":13008,"icians":13009,"Should":13010,"Ġillegal":13011,"oi":13012,"Ġpseudo":13013,"VALUE":13014,"Ġcmd":13015,"Ġpacket":13016,"Sports":13017,"learning":13018,"ÛĮ":13019,"Ġagencies":13020,"ATCH":13021,"oa":13022,"METH":13023,"Ġsolved":13024,"ĠAst":13025,":`":13026,"Ġprovince":13027,"Ġpainting":13028,"Ġsubstantial":13029,"varrho":13030,"(\"/":13031,"USER":13032,"Ġbeauty":13033,"hill":13034,"Mask":13035,"uber":13036,"MODULE":13037,"ques":13038,"ĠOfficer":13039,"Condition":13040,"Move":13041,"ĠLem":13042,"Basic":13043,"Ġsed":13044,"Ġwine":13045,"Ġcommunications":13046,"ilst":13047,"hus":13048,"ĠArizona":13049,"Ġsheet":13050,"Ġspr":13051,"eping":13052,"ĠCorollary":13053,"selector":13054,"lined":13055,"oven":13056,"Master":13057,"ĠFront":13058,"fghan":13059,"Ġconsequences":13060,"ifdef":13061,"cow":13062,"ATED":13063,"likely":13064,"Ġreconstruct":13065,"ĠPhilippines":13066,"reement":13067,"assandra":13068,"Ġformul":13069,"downarrow":13070,"Ġterritory":13071,"ĠFix":13072,"Ġtoler":13073,"Russ":13074,"$^{":13075,"ĠSarah":13076,"ĠRailway":13077,"ĠSW":13078,"resolve":13079,"ĠGib":13080,"earing":13081,"Ġscoring":13082,"Ġconcerning":13083,"library":13084,"Ġsweet":13085,"ĠLoad":13086,"vect":13087,"apis":13088,"ĠSquare":13089,"Ġmusicians":13090,"Îµ":13091,"egas":13092,"ĠLabour":13093,"fact":13094,"ĠNaz":13095,"Phys":13096,"memory":13097,"Ġdocumentary":13098,"Ġdefeat":13099,"Ġopacity":13100,"Screen":13101,"Ġdepos":13102,"Ġindependently":13103,"Ġpulse":13104,"rob":13105,"Ġholes":13106,"ĠOpt":13107,"Ġwer":13108,"Ġfeas":13109,"clipse":13110,"{\"":13111,"Pack":13112,"isons":13113,"Ġalcohol":13114,"Information":13115,"leftarrow":13116,"ĠMaybe":13117,"thew":13118,"elian":13119,"Ġmillions":13120,"Ġargue":13121,"ĠResources":13122,"merge":13123,"Ġbuf":13124,"BY":13125,"Ġrear":13126,"rep":13127,"Ġafternoon":13128,"ĠRoute":13129,"Ġcro":13130,"Rout":13131,"ĠEver":13132,"holders":13133,"party":13134,"Ġvaluable":13135,"350":13136,"Ġapilevel":13137,"Ġreplacing":13138,"ĠPatrick":13139,"wich":13140,"mathtt":13141,"Ġdismiss":13142,"213":13143,"Ġsear":13144,"Ġ$^{":13145,"closure":13146,"118":13147,"anga":13148,"Ġvacc":13149,"Ġtur":13150,"Ġorthogonal":13151,"Â®":13152,"geo":13153,"Ġunus":13154,"}[!":13155,"EEE":13156,"'];":13157,"Ġpresidential":13158,"Ġhat":13159,"ĠBab":13160,"ĠOak":13161,"000000":13162,"Ġpermanent":13163,"ĠEffect":13164,"utter":13165,"ĠÅ":13166,"1955":13167,"kish":13168,"Ġrend":13169,"best":13170,"ensitive":13171,"vertical":13172,"ĠAuto":13173,"Did":13174,"riev":13175,"sr":13176,"CEPT":13177,"ĠCaptain":13178,"Ġsimplicity":13179,"British":13180,"icode":13181,"Ep":13182,"Ġequally":13183,"bian":13184,"=\"../../../../../../../":13185,"gray":13186,"leqslant":13187,"ĠCG":13188,"1946":13189,"REE":13190,"Ġdip":13191,"Ġflying":13192,"intro":13193,"ĠDun":13194,"perimental":13195,"Ġdescript":13196,"ĠHouston":13197,"Ġatom":13198,"icator":13199,"ĠassertThat":13200,"Ġsteel":13201,"Ġpulled":13202,"äº":13203,"empl":13204,"Ġalive":13205,"Ġswim":13206,"Ġpeer":13207,"Ġdevelopers":13208,"taining":13209,"Ġranked":13210,"Ġdebt":13211,"Ġspectro":13212,"OC":13213,"direction":13214,"Ġcompress":13215,"&&\\":13216,"Ġourselves":13217,"Driver":13218,"lass":13219,"days":13220,"Ġconservative":13221,"Ġ{{\\":13222,"Ġneutrino":13223,"Ġsignificance":13224,"Ġindependence":13225,"Ġreflection":13226,"ĠPublished":13227,"ermi":13228,"Ġcontinuum":13229,"bone":13230,"ĠDick":13231,"Ġwond":13232,"ĠJay":13233,"Limit":13234,"Ġsevent":13235,"incess":13236,"ĠCastle":13237,"asters":13238,"ĠUV":13239,"Ġlegislation":13240,"Ġinstructions":13241,"sheet":13242,"ĠPlaces":13243,"navigation":13244,"Ġinhib":13245,"ĠBush":13246,"exit":13247,"inear":13248,"ĠPremier":13249,"Bal":13250,"Ġru":13251,"Release":13252,"Ġintegers":13253,"Ġcha":13254,"ĠKansas":13255,"ĠĠĠĠĠĠĠĠĠĠĠĠĠĠĠĠĠĠĠĠĠĠĠĠĠĠĠĠĠĠĠĠĠĠĠĠĠĠĠĠĠĠĠĠĠĠĠ":13256,"Ġaugment":13257,"Ġfoundation":13258,"compile":13259,"^^":13260,"Ġflash":13261,"900":13262,"gradient":13263,"Ġprobe":13264,"multline":13265,"Apr":13266,"pb":13267,"=$":13268,"ĠIC":13269,"ORTED":13270,"ĠSH":13271,"opts":13272,"Ġtom":13273,"Ġsympt":13274,"Ġkil":13275,"\\[\\":13276,"uther":13277,"Endpoint":13278,"Paul":13279,"database":13280,"ĠSmall":13281,"Ġbattery":13282,"ĠGh":13283,"Ġaccused":13284,"stackrel":13285,"logo":13286,"ĠProm":13287,"1942":13288,"Ġassault":13289,"Ġnearest":13290,"Ġfilters":13291,"ifting":13292,"Ġbear":13293,"Ãº":13294,"Ġjoining":13295,"shell":13296,"Ġratios":13297,"ĠRoy":13298,"uparrow":13299,"Watch":13300,"sea":13301,"ĠStudy":13302,"Ġvictim":13303,"FUN":13304,"ĠTech":13305,"highlight":13306,"ĠApache":13307,"speed":13308,"Ġinduction":13309,"Ġsys":13310,"108":13311,"ĠNative":13312,"AK":13313,"Ġ\\{\\":13314,"Ġprops":13315,"\\/":13316,"ĠAC":13317,"Ġnotable":13318,"LD":13319,"Ġsurgery":13320,"Ġhockey":13321,"textsf":13322,"Ġsav":13323,"ĠAlice":13324,"Notification":13325,"Ġpregn":13326,"Ġsupers":13327,"ĠEmer":13328,"relative":13329,"Ġcyl":13330,"ĠRat":13331,"Person":13332,"ĠSets":13333,"Ġtall":13334,"Ġcrossing":13335,"ounded":13336,"Ġpenalty":13337,"NSString":13338,"asis":13339,"doi":13340,"rypted":13341,"dynamic":13342,"ĠUl":13343,"ĠOt":13344,"Ġgrade":13345,"Ġintern":13346,"Ġenum":13347,"matic":13348,"phrase":13349,"BT":13350,"ĠAdditionally":13351,"Ġsegments":13352,"ulatory":13353,"uon":13354,"Ġreply":13355,"1952":13356,"elines":13357,"103":13358,"Ġcarrying":13359,"ĠEs":13360,"Ġ'\\":13361,"InputStream":13362,"ĠMaria":13363,"Ġregardless":13364,"Ġinference":13365,"umul":13366,"SSL":13367,"integer":13368,"icates":13369,"driver":13370,"Ġcommitment":13371,"$^":13372,"}{{\\":13373,"owntown":13374,"City":13375,"ĠPS":13376,"ĠMilitary":13377,"ĠDeep":13378,"ichol":13379,"ĠEquation":13380,"boldmath":13381,"ĠSilver":13382,"Ġsteady":13383,"Ali":13384,"ĠHan":13385,"Setting":13386,"Power":13387,"Download":13388,"Ġhosts":13389,"Ġslot":13390,"ĠRic":13391,"Ġirreducible":13392,"MIN":13393,"Future":13394,"fb":13395,"angel":13396,"ĠSenior":13397,"/{":13398,"alaxy":13399,"ARN":13400,"Ġadapted":13401,"Ġdealing":13402,"Ġinsight":13403,"IOException":13404,"Ġheter":13405,"getValue":13406,"ĠMobile":13407,"Ġclassified":13408,"Ġstats":13409,"ĠSweden":13410,"coln":13411,"ĠSn":13412,"ĠDIS":13413,"ĠBry":13414,"ĠPier":13415,"commons":13416,"Ġadministrative":13417,"pload":13418,"apy":13419,"Ġcenters":13420,"Ġbon":13421,"Ġsql":13422,"Ġfruit":13423,"hist":13424,"Ġperforms":13425,"OPT":13426,"Admin":13427,"Ġidentifier":13428,"}^{+":13429,"cost":13430,"pin":13431,"ĠGab":13432,"Db":13433,"gments":13434,"Ġegg":13435,"vy":13436,"Ġvariant":13437,"jack":13438,"Ġsubspace":13439,"zo":13440,"Ġprosec":13441,"Ġurg":13442,"Ġexclusive":13443,"Ġedit":13444,"Ġrejected":13445,"ulum":13446,"Ġprotest":13447,"spir":13448,"abama":13449,"allas":13450,"overning":13451,"Win":13452,"ongo":13453,"Ġappearing":13454,"Ġstrange":13455,"\\},":13456,"Ġvit":13457,"Ġcursor":13458,"roit":13459,"ĠExpress":13460,"ĠAmong":13461,"Ġentities":13462,"ĠStream":13463,"Ġequals":13464,"Ġupcoming":13465,"ĠFarm":13466,"$'":13467,"ste":13468,"Comparison":13469,"pad":13470,"ĠJoh":13471,"Ġresolved":13472,"Ġchoosing":13473,"Bro":13474,"ĠCapital":13475,"shal":13476,"Ġimprovements":13477,"ĠNatural":13478,"Ġlabeled":13479,"LED":13480,"Ġdistinguish":13481,"elson":13482,"Ġconsumers":13483,"weg":13484,"ĠâĨ":13485,"Ġracing":13486,";)":13487,"Ġempirical":13488,"Ġsatellite":13489,"Ġhappening":13490,"arial":13491,"Ġperfectly":13492,"Ġtrouble":13493,"upper":13494,"Ġforecast":13495,"ouses":13496,"ĠTher":13497,"Ġfired":13498,"middle":13499,"Ġcontributed":13500,"Ġmanifest":13501,"distance":13502,"clone":13503,"Consumer":13504,"ĠDiego":13505,"oli":13506,"Ġroutes":13507,"Ġinvited":13508,"respons":13509,"Ġposterior":13510,"Ġthrown":13511,"ĠAnthony":13512,"Ġlaugh":13513,"STRING":13514,"smallskip":13515,"Ġmarks":13516,"ĠScient":13517,"particle":13518,"Ġelli":13519,"Ġdisappoint":13520,"ĠAllen":13521,"Ġkeeps":13522,"Ġplots":13523,"sync":13524,"1947":13525,"Ġdiscret":13526,"ĠIslamic":13527,"ipart":13528,"glyphicon":13529,"FLA":13530,"Ġhelpful":13531,"Drop":13532,"vi":13533,"Ġmachines":13534,"RED":13535,"week":13536,"olly":13537,"Ġcollective":13538,"Tw":13539,"ĠPolish":13540,"ifndef":13541,"Ġimaging":13542,"dates":13543,"Pred":13544,"Ġcoffee":13545,"ĠPython":13546,"profit":13547,"å¤":13548,"Ġnavbar":13549,"Ġarrive":13550,"CN":13551,"boost":13552,"ĠIsraeli":13553,"uba":13554,"orous":13555,"Ġappearances":13556,"Word":13557,"INS":13558,"Ġactivation":13559,"route":13560,"intend":13561,"\\}.":13562,"RPC":13563,"avis":13564,"ĠTreat":13565,"ĠThird":13566,"alert":13567,"Ġangles":13568,"icious":13569,"Ġrealistic":13570,"ĠManchester":13571,"Ġtemporary":13572,"Ġdipl":13573,"Ġlyr":13574,"Ġmembership":13575,"rying":13576,"Drawing":13577,"restr":13578,"ishment":13579,"Ġscroll":13580,"Ġresonance":13581,"]=":13582,"andal":13583,"wen":13584,"typen":13585,"Ġwatched":13586,"Ġloan":13587,"UND":13588,"gar":13589,"Ġmesh":13590,"overty":13591,"agu":13592,"METHOD":13593,"Ġ~\\":13594,"Ġpup":13595,"Ġiterations":13596,"ĠCT":13597,"PUT":13598,"Ġduty":13599,"sters":13600,"Ġqualified":13601,"ĠGT":13602,"Ġfaced":13603,"ĠTennessee":13604,"ĠDouble":13605,"REG":13606,"thrift":13607,"books":13608,"bigcup":13609,"bridge":13610,"ige":13611,"ĠHum":13612,"itis":13613,"ĠHave":13614,"Ġcolle":13615,"ashes":13616,"Ġenumer":13617,"ĠStill":13618,"AU":13619,"Ġsought":13620,"1941":13621,"factor":13622,"Ġopens":13623,"1954":13624,"Ġmarginal":13625,"Ġsmallest":13626,"ACH":13627,"Ġconnecting":13628,"Tele":13629,"spacing":13630,"ĠTrade":13631,"ĠGard":13632,"ĠHoly":13633,"rating":13634,"Ġpub":13635,"Ġdollars":13636,"107":13637,"ESS":13638,"frag":13639,"Ġpromoted":13640,"Ġocean":13641,"Ġnormally":13642,"106":13643,"ĠSport":13644,"iliary":13645,"propto":13646,"perature":13647,"extra":13648,"ĠAdvent":13649,"Rate":13650,"Ġdiagrams":13651,"getElementById":13652,"goto":13653,"outube":13654,"submit":13655,"ĠStatus":13656,"ĠMiami":13657,"iemann":13658,"ĠAbstract":13659,"ahoma":13660,"Ġenhanced":13661,"Ġtokens":13662,"ding":13663,"Ġroyal":13664,"ĠTa":13665,"Ġdispersion":13666,"Ġ'',":13667,"tb":13668,"vars":13669,"Ġendpoint":13670,"ĠPract":13671,"ĉĠĠĠĠĠĠĠ":13672,"ĠServer":13673,"Ġchecks":13674,"omer":13675,"VALID":13676,"Mal":13677,"1943":13678,"}{*}{":13679,"Ġimpl":13680,"Old":13681,"PN":13682,"inherit":13683,"ĠPa":13684,"extend":13685,"Ġaux":13686,"6666":13687,"enberg":13688,"}$\\":13689,"aco":13690,"Ġtough":13691,"uity":13692,"ĠEconomic":13693,"Ġsb":13694,"Theme":13695,"ĠWas":13696,"Html":13697,"OST":13698,"Ã¸":13699,"imitive":13700,"associ":13701,"ellectual":13702,"ĠBY":13703,"AI":13704,"Objects":13705,"Ġmechanical":13706,"below":13707,"ĠExper":13708,"ĠProdu":13709,"Phil":13710,"Ġinnovation":13711,"sass":13712,"Ġslope":13713,"Ġregistration":13714,"Ġfmt":13715,"Ġox":13716,"Ġvoters":13717,"gressive":13718,"1953":13719,"olds":13720,"ĠRegional":13721,"Ġfalling":13722,"Ġopts":13723,"512":13724,"ĠMonte":13725,"Edge":13726,"Ġentitled":13727,"Ġgarden":13728,"acking":13729,"Ġsparse":13730,"ĠBased":13731,"constructor":13732,"Ġtransverse":13733,"subequations":13734,"Ġanticip":13735,"eland":13736,"Ġtheatre":13737,"Ġselector":13738,"ĠIndiana":13739,"agnostics":13740,"CV":13741,"Ġcapabilities":13742,"Rich":13743,"Ġsumm":13744,"isEmpty":13745,"Axis":13746,"Ġmaintained":13747,"ORDER":13748,"typename":13749,"Har":13750,"Ġ\"\",":13751,"Execution":13752,"Ġguests":13753,"Ġimproving":13754,"_{+":13755,"Ġ\">":13756,"factory":13757,"NV":13758,"ĠTen":13759,"Ġdelta":13760,"Mobile":13761,"Ġordering":13762,"ĠFa":13763,"=\\\"":13764,"ĠSin":13765,"mont":13766,"anted":13767,"osph":13768,"Ġvocal":13769,"athered":13770,"ĠRemove":13771,"Ġtyped":13772,"validation":13773,"Ġcod":13774,"valued":13775,"Ġpermissions":13776,"MAP":13777,"metic":13778,"Furthermore":13779,"ĠPrivate":13780,"Ġquas":13781,"emet":13782,"Ġcommut":13783,"Ġmedicine":13784,"ĠALIGN":13785,"whe":13786,"Ġdies":13787,"Ġpiano":13788,"acer":13789,"angles":13790,"haust":13791,"textnormal":13792,"Ġmeets":13793,"Ġregarded":13794,"witzer":13795,"áĥ":13796,"ĠCS":13797,"ĠDid":13798,"Bet":13799,"Ġimplied":13800,"Ġ@\"":13801,"ĠYouth":13802,"ĠDR":13803,"rgb":13804,"embed":13805,"Ġtransformations":13806,"UV":13807,"Organ":13808,"Ġdepict":13809,"duration":13810,"Ð¿":13811,"herence":13812,"INST":13813,"Ġputs":13814,"ividual":13815,"argo":13816,"ĠVice":13817,"Ġescap":13818,"ArgumentException":13819,"Landroid":13820,"ĠConstitution":13821,"Ġlawyer":13822,"assum":13823,"Ġcircular":13824,"score":13825,"ĠAssum":13826,"Ġsurvival":13827,"Ġestimator":13828,"ĠDoes":13829,"Ġbeach":13830,"\\}_{":13831,"examples":13832,"ĠØ§":13833,"DATA":13834,"Ġanchor":13835,"ĠYet":13836,"ĠMovie":13837,"isset":13838,"Ġarrival":13839,"kwargs":13840,"ĠOk":13841,"KS":13842,"Health":13843,"story":13844,"________":13845,"Ġengaged":13846,"Ġmodal":13847,"Ġ_,":13848,"Ġmanufacturing":13849,"rett":13850,"Ġexploration":13851,"oly":13852,"oni":13853,"Ġbrown":13854,"unning":13855,"Ġreaches":13856,"Ġauthent":13857,"Proposition":13858,")}$.":13859,"isy":13860,"arance":13861,"ĠKit":13862,"Ġyesterday":13863,"Ġaffili":13864,"Ġholiday":13865,"hyper":13866,"velope":13867,"Association":13868,"Ġlogging":13869,"ĠMicro":13870,"Ġburst":13871,"ĠWel":13872,"Ġmaintenance":13873,"Ġteach":13874,"ĠTravel":13875,"independent":13876,"collect":13877,"abc":13878,"Present":13879,"ĠSimple":13880,"Polit":13881,"Ġseparately":13882,"Ġargued":13883,"})^{":13884,"ĠFellow":13885,"Mouse":13886,"Ġauth":13887,"odo":13888,"ntil":13889,"oids":13890,"NET":13891,"ders":13892,"ĠEvents":13893,"Su":13894,"ĠCorps":13895,"ĠMoore":13896,"xygen":13897,"Ġaccompan":13898,"Ġtrading":13899,"Ġham":13900,"Ġmatched":13901,"ĠWithout":13902,"vertex":13903,"Unknown":13904,"three":13905,"Ġexamine":13906,"ĠHarris":13907,"orses":13908,"ĠArthur":13909,"ĠPur":13910,"mac":13911,"ĠJosh":13912,"Random":13913,"Audio":13914,"ĠKy":13915,"Raw":13916,"eyond":13917,"Ġregularly":13918,"San":13919,"Related":13920,"bundle":13921,"Ġknock":13922,"ivation":13923,"idity":13924,"ĠLaure":13925,"Ġinjured":13926,"ĠFinancial":13927,"Diff":13928,"ĠDave":13929,"Ġasset":13930,"ĠAthlet":13931,"()),":13932,"Ġtriangle":13933,"&=&\\":13934,"SCRIPT":13935,"Ġshadow":13936,"Ġvoting":13937,"erk":13938,"ĠDVD":13939,"ureau":13940,"Ġattempted":13941,"Ġreplic":13942,"ardo":13943,"Through":13944,"Standard":13945,"tures":13946,"1949":13947,"Pers":13948,"ĠLagrangian":13949,"urches":13950,"Ġthousand":13951,"Ġvort":13952,"atorial":13953,"Ġdifficulty":13954,"Ġseriously":13955,"sharp":13956,"Ġpoetry":13957,"ativity":13958,"witzerland":13959,"Complete":13960,"Ġcontinuing":13961,"elem":13962,"ĠOptional":13963,"Proto":13964,"ĠKhan":13965,"Ġthir":13966,"Ġcrypt":13967,"Ġ'./":13968,"(\"#":13969,"Ġnoticed":13970,"Ra":13971,"Ġanywhere":13972,"Ġaddressed":13973,"messages":13974,"incre":13975,"atherine":13976,"Ġbag":13977,"Ġvoted":13978,"Ġlifetime":13979,"Ġtsd":13980,"Ġsubmitted":13981,"Ġfranch":13982,"Ġconvention":13983,"Ġmorphism":13984,"Center":13985,"ĠXML":13986,"Ġtech":13987,"FN":13988,"Ġbelieves":13989,"ĠLimited":13990,"Ġjournalist":13991,"inian":13992,"Ġbasically":13993,"oustic":13994,"urric":13995,"Ġgenerates":13996,"citealt":13997,"clide":13998,"Ġtrials":13999,"orer":14000,"ĠIowa":14001,"onna":14002,"Ġmacro":14003,"ĠFL":14004,"Ġanalyzed":14005,"ASE":14006,"sb":14007,"MODE":14008,"achelor":14009,"Ġcycles":14010,"ĠGall":14011,"ĠJason":14012,"1900":14013,"train":14014,"ĠNob":14015,"ĠRab":14016,"lb":14017,"iva":14018,"ĠDal":14019,"ĠHIV":14020,"1951":14021,"×ķ":14022,"UTH":14023,"referred":14024,"Ġrefuge":14025,"ccc":14026,"Ġcourses":14027,"Ġcolspan":14028,"trl":14029,"ĠMun":14030,"(.":14031,"Ġresid":14032,"ĠMethods":14033,"ASH":14034,"urers":14035,"ĠOC":14036,"Ġreceives":14037,"istically":14038,"ĉĠĠ":14039,"ä½":14040,"making":14041,"}},\\":14042,"Ġmirror":14043,"}{}":14044,"Ġbreaks":14045,"ĠRon":14046,"LOC":14047,"Binary":14048,"Ġfitted":14049,"ĠVirtual":14050,"expression":14051,"Ġknowing":14052,"FOR":14053,"Ùħ":14054,"tright":14055,"aro":14056,"agination":14057,"ĠHilbert":14058,"peror":14059,"ARCH":14060,"Ġ(@":14061,"Login":14062,"Ñĸ":14063,"Ġveget":14064,"Span":14065,"icken":14066,"Ġemployment":14067,"Ġabundance":14068,"Green":14069,"ilty":14070,"problem":14071,"Ġnovels":14072,"nolimits":14073,"Ġfunny":14074,"Ġhorror":14075,"Ġstretch":14076,"gre":14077,"dn":14078,"Syntax":14079,"Ġadaptation":14080,"ĠAttorney":14081,"Contin":14082,"defn":14083,"Ġplain":14084,"Ġfriendly":14085,"William":14086,"Ġcombine":14087,"issip":14088,"****************************************************************":14089,"mention":14090,"âĨ":14091,"igenous":14092,"nie":14093,"Ġsoil":14094,"Ġpa":14095,"Constant":14096,"Ġdil":14097,"ounced":14098,"Ġinstruments":14099,"Ġdecreasing":14100,"×Ļ":14101,"109":14102,"Analysis":14103,"distribution":14104,"Tri":14105,"uties":14106,"rama":14107,"ologists":14108,"respect":14109,"assign":14110,"ĠNewton":14111,"ĠBra":14112,"Super":14113,"Navigation":14114,"Ġlaid":14115,"changes":14116,"uris":14117,"contact":14118,"destroy":14119,">)":14120,"Special":14121,"igious":14122,"DataType":14123,"ĠVietnam":14124,"Rober":14125,"240":14126,"Ġdiscrimin":14127,">;":14128,"ĠAlf":14129,"Ġmanagers":14130,"Ġguns":14131,"Ok":14132,"deprecated":14133,"Insert":14134,"Ġelif":14135,"Ġinvestors":14136,"ĠSwedish":14137,"ĠRound":14138,"ĠImp":14139,"Ġcomic":14140,"Ġsupplied":14141,"character":14142,"Ġalignment":14143,"Ġimpressive":14144,"loader":14145,"ĠIllegal":14146,"Ġtip":14147,"pf":14148,"inking":14149,"ĠMars":14150,"ĠCop":14151,"Ġprobabilities":14152,"bsites":14153,"Bigg":14154,"ĠThough":14155,"Own":14156,"Ġoffensive":14157,"ĠWhether":14158,"Pal":14159,"Bottom":14160,"Ġbusy":14161,"transaction":14162,"ĠĠĠĠĠĠĠĠĠĠĊ":14163,"estr":14164,"ĠBowl":14165,"hour":14166,"ĠMarine":14167,"Ġrefused":14168,"ĠAddress":14169,"Ġboxes":14170,"Ġgay":14171,"ĠPartners":14172,"ĠĠĠĠĠĊ":14173,"larg":14174,"Ġpropagation":14175,"anchor":14176,"Ġpump":14177,"ĠMissouri":14178,";|":14179,"Ġhint":14180,"outheast":14181,"Ġfurn":14182,"Ġtrends":14183,"ĠIL":14184,"bounds":14185,"Ġbirds":14186,"Lear":14187,"osc":14188,"Ġanyway":14189,"jk":14190,")_{\\":14191,"Ġplastic":14192,"zi":14193,"Ġencourage":14194,"oxy":14195,"Ġorbits":14196,"Ġmail":14197,"Ġcollections":14198,"Personal":14199,"Ġages":14200,"Ġinflation":14201,"Ġwearing":14202,"Ġcircles":14203,"Identity":14204,"114":14205,"Ġinvolve":14206,"Site":14207,"Ġtrains":14208,"validate":14209,"Ġdiameter":14210,"Women":14211,"Platform":14212,"aval":14213,"9999":14214,"antry":14215,"between":14216,"Ġshel":14217,"Ham":14218,"Ġlift":14219,"Ġtitled":14220,"Ġaged":14221,"newline":14222,"ĠLu":14223,"ĠGreece":14224,"uffers":14225,"ĠTalk":14226,"Ġsessions":14227,"Ġparking":14228,"chell":14229,"Ã¥":14230,"rend":14231,"gems":14232,"anka":14233,"rik":14234,"Ġhasn":14235,"above":14236,":@\"":14237,"LEMENT":14238,"Ġbrothers":14239,"Ġlogical":14240,"]+":14241,"ĠPhilip":14242,"elements":14243,"ĠLoc":14244,"Ġencoded":14245,"pus":14246,"ursive":14247,"Ġ\"\";":14248,"iper":14249,"emetery":14250,"Ġtrunc":14251,"NotFound":14252,"quality":14253,"ĠVin":14254,"Ġprovision":14255,"establ":14256,"ationToken":14257,"Ġapproval":14258,"Ġmini":14259,"Men":14260,"Weight":14261,"restling":14262,"Ġ&$":14263,"ĠChen":14264,"1936":14265,"IDE":14266,"ĠGer":14267,"Ġstationary":14268,"Ġroads":14269,"rock":14270,"clidean":14271,"Ġmac":14272,"ĠĠĠĠĠĠĠĠĠĠĠĠĠĠĠĠĠĠĠĠĠĠĠĠĠĠĠĠĠĠĠĠĠ":14273,"catch":14274,"ĠCancer":14275,"Ġvoltage":14276,"ĠMorgan":14277,"Material":14278,"Ġturbul":14279,"ĠHoward":14280,"leges":14281,"ĠKelly":14282,"ĠPlayer":14283,"four":14284,"olph":14285,"ĠWIDTH":14286,"ĠMelbourne":14287,"Groups":14288,"Folder":14289,"touch":14290,"elve":14291,"ĠLeft":14292,"Ġunlike":14293,"Ġingred":14294,"Ġinformed":14295,"uu":14296,"Ġentering":14297,"ĠWalker":14298,"Hor":14299,"ugs":14300,"heading":14301,"Ġpaying":14302,"âĢī":14303,"neut":14304,"ĠComments":14305,"Ġpreserve":14306,"Ġtiny":14307,"rient":14308,"1024":14309,"Ġrecruit":14310,"Ġdiscipl":14311,"Controls":14312,"Ġlegacy":14313,"Spr":14314,"Constructor":14315,"Tax":14316,"Ġ[-":14317,"ĠSchools":14318,"Ġwav":14319,"walk":14320,"ĠDefense":14321,"Ġoverview":14322,"Ġproposition":14323,"eper":14324,"umped":14325,"Ġsocket":14326,"Ġoffices":14327,"Dan":14328,"ĠWi":14329,"Constraint":14330,"Ġreleases":14331,"klahoma":14332,"Ġsynthetic":14333,"})=\\":14334,"license":14335,"vendor":14336,"ĠMulti":14337,"Ġ'.":14338,"Ġgenetic":14339,"Ġcarefully":14340,"ublin":14341,"Prev":14342,"animation":14343,"Ġconsistency":14344,"Ġneglig":14345,"omas":14346,"estyle":14347,"orb":14348,"Ø¯":14349,"Ġexpectations":14350,"\"},":14351,"ĠMC":14352,"Ġmining":14353,"Ġconverges":14354,"Ġphenomenon":14355,"Ġ\\}":14356,"maps":14357,"GEN":14358,"Ġbehalf":14359,"Ġconcluded":14360,"Ġtransformed":14361,"ationship":14362,"ĠGa":14363,"Forms":14364,"Messages":14365,"live":14366,"Ġwalked":14367,"ĠMust":14368,"vdots":14369,"ativistic":14370,"Contents":14371,"ervised":14372,"Ġsubsection":14373,"Amount":14374,"than":14375,"ĠBalt":14376,"Ġsuspend":14377,"Ġparad":14378,"Thanks":14379,"Ġpin":14380,"Ġmerely":14381,"Ġsa":14382,"Ġarise":14383,"/\">":14384,"THE":14385,"ĠHawai":14386,"Ġsuperior":14387,"Ġ_{\\":14388,"Ġproviders":14389,"ĠAfghan":14390,"ĠLOG":14391,"Ġinnovative":14392,"liminary":14393,"ĠMaryland":14394,"Ġstruggle":14395,"riteria":14396,"iop":14397,"Ġprofit":14398,"ĠPhill":14399,"Ġdetermines":14400,"Ġparliament":14401,"ĠDomin":14402,"Ġinterpreted":14403,"Ġprocessed":14404,"Env":14405,"ONG":14406,"anim":14407,"Ġpayload":14408,"Ġpackages":14409,"Ġcoherent":14410,"Ġmart":14411,"Ð°ÑĤ":14412,"Ġclar":14413,")}$,":14414,"Ġownership":14415,"Ġassociate":14416,"Kit":14417,"works":14418,"Ġmic":14419,"ĠÐ²":14420,"wiki":14421,"CONT":14422,"ĠNev":14423,"ĠEarly":14424,"Ġstake":14425,"illiant":14426,"nobr":14427,"Ġclustering":14428,"Ġgreatly":14429,"Ġnarrative":14430,"Ġfi":14431,"ĠGarden":14432,"Ġremoving":14433,"Ġeigenvalue":14434,"Ġmanuscript":14435,"ĠReference":14436,"Ġskill":14437,"Ġcontradiction":14438,"Ġemployee":14439,"ĠRoberts":14440,"IconError":14441,"Ġgenerators":14442,"Ġoverlap":14443,"ĠEmb":14444,"Ġneuro":14445,"olk":14446,"Ġinstallation":14447,"disable":14448,"tah":14449,"................":14450,"Ġsync":14451,"Ġgoverning":14452,"ĠBishop":14453,"Ġclosing":14454,"Ġintention":14455,"both":14456,"Agg":14457,"Ġrising":14458,"contents":14459,"solid":14460,"lad":14461,"ethe":14462,"ĠEuro":14463,"generate":14464,"ĉĠĠĠĠ":14465,"Ġoccas":14466,"selection":14467,"etition":14468,"Ġmeetings":14469,"trightarrow":14470,"Ġcorrespondence":14471,"ĠYears":14472,"Ġdogs":14473,"Ġfunctor":14474,"training":14475,"cv":14476,"ÙĬ":14477,"Ġtower":14478,"Ġawareness":14479,"cycl":14480,"\\|^":14481,"ĠAlabama":14482,"Mo":14483,"Ġcooling":14484,"Ġliked":14485,"Michael":14486,"Sort":14487,"pages":14488,"viously":14489,"Ġinjuries":14490,"Ġsick":14491,"Ġgraduated":14492,"iden":14493,"']);":14494,"Ġpublicly":14495,"ĠDog":14496,"Ġgrass":14497,"Ġcompete":14498,"Ġcutting":14499,"IconErrorEncoded":14500,"Ġadmitted":14501,"Ġvisiting":14502,"Ġgang":14503,"}^+":14504,"iah":14505,"Ġparticipated":14506,"Ġcertificate":14507,"Ġrisks":14508,"tery":14509,"Ġtowns":14510,"mobile":14511,"ĠChapter":14512,"ibl":14513,"ĠUnivers":14514,"reader":14515,"terior":14516,"Ġbranches":14517,"Ġinfection":14518,"ĠMembers":14519,"ĠFant":14520,"Ġalpha":14521,"Ġsplitting":14522,"Ġfrust":14523,"hire":14524,"novation":14525,"audio":14526,"Serv":14527,"Ġphotons":14528,"Mart":14529,"ĠDrive":14530,"Validator":14531,"Ġtens":14532,"Ġgift":14533,"Ġtruck":14534,"ifi":14535,"ĠCooper":14536,"Have":14537,"prom":14538,"Ty":14539,"Ġsoph":14540,"Ġrelief":14541,"Ġscan":14542,"Android":14543,"Ġneutron":14544,"ĠOtherwise":14545,"Ġticket":14546,"Ġtexture":14547,"ĠFederation":14548,"Ġdesignated":14549,"ĠTrail":14550,"Recall":14551,"Ġregulations":14552,"Ġlogarith":14553,"ĠChallenge":14554,"fmt":14555,"ĠHE":14556,"share":14557,"ĠContact":14558,"Follow":14559,"ĠLas":14560,"Ġengineer":14561,"inth":14562,"Ġ'';":14563,"ĠCC":14564,"ĠTokyo":14565,"warn":14566,"uniform":14567,"Ġunexpected":14568,"Ġpoet":14569,"BN":14570,"1938":14571,"Ġrecognize":14572,"Ġrestrictions":14573,"Mapper":14574,"Linear":14575,"Ġproves":14576,"measure":14577,"ĠCOM":14578,"ĠLP":14579,"olutions":14580,"arguments":14581,"Ġautomatic":14582,"Remote":14583,"Ġproportion":14584,"ceiver":14585,"Ġprohib":14586,"James":14587,"notin":14588,"Ġsi":14589,"ĠSafety":14590,"phony":14591,"ĠBah":14592,"Ġkinetic":14593,"Ġsynd":14594,"Ġelementary":14595,"Ġgraduate":14596,"Ġwel":14597,"Ġeverywhere":14598,"ampling":14599,"Ġwaters":14600,"Ġinterference":14601,"Ġceremony":14602,"Throw":14603,"aman":14604,"Management":14605,"Ġpra":14606,"Ġsuddenly":14607,
[...]
