#version: 0.2
Ġ Ġ
ĠĠ ĠĠ
i n
e r
Ġ t
o n
Ġ a
r e
h e
a t
ĠĠ Ġ
e n
s t
o r
ĠĠĠĠ ĠĠĠĠ
a l
a n
Ġt he
a r
l e
Ġ c
i t
i on
s e
Ġ f
i s
Ġ o
e s
e d
in g
r o
Ġ w
Ġ p
i c
Ġ s
c t
Ġ b
Ġ in
n d
d e
a m
en t
ĠĠĠĠ ĠĠĠ
a s
o u
Ġo f
e t
Ġ m
Ġ =
ĉ ĉ
Ġ re
Ġ n
Ġt o
i l
Ġa nd
Ġ (
o m
u r
) ;
c e
Ġ h
Ġ {
o l
Ġ S
Ġ d
Ġt h
u t
e l
i d
i m
Ġ <
at ion
i g
Ġ T
Ġ C
i f
Ġ *
- -
t h
l o
e x
a d
i v
Ġ A
= "
ĠĠĠĠĠĠĠĠ ĠĠĠ
/ /
a g
u n
c h
u l
p e
Ġ v
o t
r a
e m
at e
< /
u e
u m
Ġ l
Ġ }
Ġ st
c k
p t
Ġ g
er s
Ġ M
a b
Ġ is
Ġ I
Ġf or
am e
i st
ct ion
č Ċ
t er
t r
Ġ "
Ġ P
as s
u s
a y
l y
Ġ B
i r
ĠĠĠĠ Ġ
Ġ on
Ġc on
it h
e w
* *
ur n
Ġb e
o d
Ġ e
â Ģ
ĠĠĠĠĠĠĠĠ ĠĠĠĠĠĠĠĠ
Ġ se
( )
Ġ R
h t
o w
u b
Ġ $
v er
Ġ D
or t
Ġ de
an d
r i
" >
re s
u p
en d
a p
t urn
a v
Ġa s
2 0
o de
Ġ H
ag e
Ġ F
l ass
o p
Ġ L
n t
e ct
= =
Ġ N
q u
y pe
ou r
e st
ex t
Ġ '
Ġ G
es s
l i
m ent
Ġw ith
-- --
Ġ E
ro m
Ġ if
Ġa l
in e
Ġth is
Ġ W
Ġth at
1 9
ĠT he
Ġa n
c on
s p
Ġp ro
k e
ar t
a se
ab le
a in
i z
ul t
g et
Ġw as
Ġw h
it y
p ort
l ic
ĠĠĠĠĠĠĠĠ ĠĠĠĠĠĠĠ
o re
i le
Ġ it
a ck
er t
al l
Ġb y
Ġc om
Ġ //
pt ion
Ġ or
Ġ O
a c
Ġre turn
o c
o s
Ġ \
in t
. .
er e
at a
un ction
Ġa t
Ġc lass
0 0
I n
ig ht
an g
at h
Ġ ex
al ue
- >
i es
iv e
ĉĉ ĉĉ
an s
Ġ @
i al
Ġ J
Ġ r
b er
st r
f f
u re
Ġf rom
j ect
or m
R e
il l
Ġ y
ar y
l d
an t
: :
Ġ U
Ġ &
o g
u se
Ġ he
ar am
a st
i p
i re
C on
a re
u nd
or d
i b
" ,
c om
Ġc h
Ġ -
Ġa re
p l
Ġt r
) ,
at ed
re f
S t
p ro
o v
Ġ< /
a ce
in d
ou t
ar d
Ġ /
se t
u g
ub lic
im e
Ġ lo
' s
Ġn ew
( );
t o
Ġ +
Ġ Ċ
ig n
c l
( "
it ion
s s
Ġ* /
Ġ [
o st
Ġf unction
) .
Ġn ot
a ct
our ce
i a
Ġ le
p er
' ,
Ġs h
p h
ic e
u st
an ce
u d
Ġ |
er v
ul l
Ġ K
p le
o o
on g
p ut
it e
er r
l f
E x
a k
b ject
.. /
il d
---- ----
Ġa r
** **
Ġ V
T he
e f
iz e
tr ing
v ent
Ġcon t
th er
Ġ :
d d
or k
t e
ĠI n
th is
ic h
f orm
av e
c ri
Ġv ar
Ġ j
or y
ro w
l l
Ġp l
c c
m l
( '
Ġn ame
q ue
== ==
Ġw e
Ġ _
ĉĉ ĉ
Ġst r
Ġre s
g e
ĠĠĠĠĠĠĠĠ ĠĠĠĠĠĠĠĠĠĠĠ
âĢ Ļ
Ġ âĢ
s o
ĠĠĠĠĠĠĠĠ Ġ
e g
en c
s h
on e
f er
ra y
20 1
i de
ic al
ess age
p aram
Ġ .
lo w
ou nt
d iv
i el
re turn
N ame
im port
en s
p p
Ġp ublic
f t
en ce
c he
P ro
Ġ un
e c
a il
t ext
ou ld
) )
el l
n ame
ĠS t
o id
iel d
res s
a ch
> </
E R
sp an
e ar
ĠT h
in k
i an
c al
T ype
d u
ke y
et h
Ġh as
Ġ k
en er
le ment
i ew
Ġde f
en g
at or
ter n
e p
Ġ !
ation s
ow n
f ig
ĠC h
le ct
Ġ use
Ġh is
he n
a x
Ġc an
> <
Ġwh ich
t p
is h
al se
y st
in al
_ {
S tring
I N
O N
o ol
Ġ| |
p on
re e
Ġ #
ir st
20 0
Ġh ave
Ġse t
Ġg et
Ġv alue
ro up
er y
ou nd
que st
../ ../
r y
r iv
at ch
u al
1 0
pe c
i x
ent s
Ġa b
Ġt ype
1 8
t ype
le s
o b
Ġin t
ou s
e y
yst em
I d
ht ml
c re
ar k
se d
i o
de f
r it
Ġo ut
e b
o ver
ic t
Ġ el
a ult
Ġy ou
m er
e v
at ic
eth od
o k
le d
p ert
c ol
Ġd o
ac he
R E
ption s
o int
at es
pe ct
ar g
am es
ol d
Ġ up
Ġh ref
Ġ i
ing s
c ode
v ar
lo ck
Ġ ro
Ġw ill
Ġ im
Ġw ere
om e
Ġ us
a ke
em ber
Ġ err
s er
_ _
C om
Ġ= =
t d
Ġc ol
Ġal l
Ġcom p
R es
A r
Ġb ut
S T
Ġal so
Ġse lf
um ber
v al
u ct
ap p
ur re
Ġcon st
s um
ion s
ad d
on t
s ource
m essage
ode l
Ġd ata
tr ans
n g
Ġn ull
C h
se s
ang e
L ist
n e
u ild
Ġ= >
Ġ Y
f o
ut e
ce ption
eng th
p r
Ġon e
er m
Ġ `
Ġd is
f ter
l ation
A T
cri pt
t on
{ \
Ġv oid
Ġp art
ĠU n
or s
ic k
) );
str ing
# #
b ack
m a
. _
Ġ end
Ġ >
ad er
: //
c lass
Ġtr ue
l ine
qu al
at er
r r
n c
Ġf alse
Ġel se
de x
1 2
**** ****
Ġf irst
v el
Ġthe ir
/ >
Ġs u
ov e
is s
Ġp re
tr ib
Ġa dd
ab el
ic s
w o
Ġ& &
L E
ro und
y p
ar ch
um ent
} ,
a w
s on
O R
ers ion
an n
ĠI t
// //
le ction
urre nt
u le
d ata
Ġ )
con t
se lf
V alue
ĠĠĠĠĠĠĠĠĠĠĠĠĠĠĠĠ ĠĠĠĠĠĠĠ
I D
o ck
g r
ig h
Ġo ver
Ġ id
D ata
erv ice
Ġas s
1 6
] ;
ĠH e
b o
-------- --------
Con t
Ġwh o
if i
oo k
an y
Ġd es
" />
T h
A R
Ġstr ing
âĢ ĵ
i e
re ad
" );
Ġ und
Ġres ult
o f
Ġp er
riv ate
if ic
am p
v alue
A L
E N
Ġpl ay
y le
Ġt ime
c o
Ġ/ **
it le
w e
Ġw hen
Ġ$ \
Ġl ine
as h
as k
) :
i se
u es
Ġh ad
Ġt e
c ation
t em
in ed
Ġit s
Ġo ther
Ġc re
ĠâĢ ĵ
ht tp
Ġa g
u de
Ġw ork
Ġm e
at ive
c a
qu ire
ĠA r
id th
==== ====
Ġs p
Ġs up
T o
c es
ire ct
Ġcom m
Ġm ore
Ġ en
Ġv al
pert y
C ol
E rr
Ġs o
m s
ĠĠĠĠĠĠĠĠ ĠĠĠĠĠ
r ight
he d
Ġin ter
Ġa p
f ile
Ġin st
O bject
Ġn e
S et
li ent
Ġt est
Ġor g
"> <
ĠTh is
ation al
Ġ! =
v e
" )
tern al
m ath
d ate
an ag
Ġbe en
f unction
Ġthe y
Ġin cl
cc ess
ĠĠĠĠ ĠĠ
Ġc l
m ary
trans lation
u ff
ĠĠĠĠĠĠĠĠĠĠĠĠĠĠĠĠ ĠĠĠĠĠĠĠĠĠĠĠĠĠĠĠĠ
Ġof f
el y
ĠC om
con d
y m
Ġh er
ar get
Ġs pec
19 9
( $
os ition
p x
Ġre c
Ġa d
S e
Ġs ub
c ess
Ġa pp
S S
m in
it s
Ġy ear
Ġn o
enc es
t he
3 2
ut h
' );
A t
âĢ Ŀ
Ġc ase
] ,
in s
re am
or g
Ex ception
Ġre g
1 5
are nt
y s
Ġt wo
' )
p re
Ġt ra
d er
u i
t est
Ġan y
am ple
it ed
ase d
Ġin to
at us
Ġb o
} }
at ing
Ġa ct
l and
p s
or n
op le
av a
w ork
Ġf ile
Ġ key
Ġo bject
ra ph
Ġf il
Ġ x
K ey
ĠC on
Ġg o
ul ar
Err or
Ġ// /
ĠP ro
T est
v id
1 1
Ġon ly
ag es
I nd
od y
G et
ay s
he ck
sum mary
Ġtr ans
I T
ug h
n ew
er n
C T
Ġp e
ĠS e
Ġf inal
w ard
it em
Ġfor m
Ġuse d
Ġa fter
Ġb ack
t a
Ġst atic
p ar
Ġ em
t il
s ize
Ġl ist
b ut
i ous
le an
Ġ %
w n
ĠR e
l er
D E
Ġs c
T r
S E
b le
b ar
ĠN ew
E lement
Ġ qu
is hed
U n
Ġre m
Ġex p
an k
lo g
od ule
() .
Ġ ext
um n
() );
ou g
o se
et a
ĠS tring
ro ll
ind ow
mer ic
2 5
Ġe vent
Ġch ar
Ġc all
ĉĉĉĉ ĉ
c ent
Ġab out
^ {
str uct
v iew
Ġth ere
un c
on s
/ **
re n
1 7
l ength
g er
le t
Ġ ra
E vent
at ure
F ile
Ġn umber
Q u
Ġl i
Ġund er
Ġo b
n b
res ent
r ame
ib le
Ġp rivate
ol low
ur ing
it ies
f or
f ace
ar n
ra ct
E n
r c
Ġp r
in dex
I m
Ġ= ==
2 2
lo ad
ur l
Ġb et
ic es
b r
a de
Ġ ent
Re fer
} \
B y
ĠS h
N ode
Ġar g
ol og
1 4
iv ers
Ġ/ *
pl ay
re d
o ot
H e
oc ument
ĠE x
aram et
Ġ ?
le ft
n ot
Ġ );
p ace
u res
nb sp
t s
b e
} $
or ld
ut il
M E
is ion
Ġ --
A N
em ent
. </
l ink
p en
w w
ord er
Ġ} ,
ĠA l
Ġs er
r u
Ġst art
ist s
in ce
Ġthe n
C lass
1 3
ou n
1 00
U L
a ction
Ġwh ere
} ;
Ind ex
Ġth an
[ '
iz ed
f ore
t ime
Ġw ould
in ter
() ,
ment s
] .
ĠA n
Ġm ay
b y
at t
r ite
Ġf e
l ay
" :
" ;
Ġm ethod
v en
uff er
S h
Ġar ray
Ġs ome
l ist
il ity
if y
Ġp ol
a z
ĠâĢ ľ
/ *
Ġthe m
t tp
19 8
c ed
eg in
ĠĠĠĠĠĠĠĠ ĠĠĠĠ
Ġc o
T ime
Ġs he
Ar ray
port s
ro l
a ir
s ub
r ic
us h
C O
l abel
il y
re m
Ġ: =
ro ugh
Ġk n
ist er
p ath
6 4
al s
lo cation
j s
V iew
re ak
ro id
ifi ed
g round
Ġf ollow
Ġerr or
s c
Ġincl ud
m on
ut ion
con st
ou se
d is
Ġo per
Ġsh ould
Ġ( !
Ġa c
R O
Ġ Z
3 0
g o
we en
2 1
n er
Ġpe ople
v oid
as on
Ġf ield
f ield
Ġd ist
Ġst ate
p ublic
ain er
i ent
ch ool
lo b
Ġc urrent
tr y
P I
Ġg ener
pon se
Ġpro du
re g
Ġd if
oo lean
Ġ} );
P E
op y
P ath
' :
cri ption
p end
In fo
T E
y n
in es
Ġass ert
Ġre l
( \
ot t
oc i
' ]
trib ute
Ġin v
ĠA meric
D ef
Ġ/ >
T ext
ur ation
O n
Ġy our
b egin
Ġs a
Re quest
i k
en se
a h
a pt
Ġe lement
pon ent
A n
Ġp h
Ġr un
Ġth row
Ġre p
al ly
I nt
Ġcon s
p ack
pro t
Refer ences
ar s
it t
T R
ce pt
.. .
ra p
t op
Ġa m
h er
e k
cl ude
Ġf ound
ĠI f
I ON
are d
Ġ} ;
def ine
im es
Ġg roup
ĠA s
Ġst ud
anag er
"> </
Con fig
ĠD e
ĠC ol
f l
A dd
S ystem
ra c
Ġc al
t able
Ġsu ch
ri de
m p
' ;
ign ed
} )
Ġl ong
Ġ ed
it ial
Ġsh ow
Ġh and
19 7
A s
Ġth rough
() )
St ate
5 0
Ġ X
' t
Ġbet ween
Ġ_ _
b all
M ap
+ +
W ith
Con text
Ġm ost
Ġm in
N ot
E qual
F ield
s cript
00 0
m and
ap i
Ġn il
ames pace
A C
Ġre sp
Ġne ed
o ther
F or
Ġo ur
se arch
g roup
I tem
m an
Ġh igh
Ġre quire
//// ////
Ġwh ile
et s
Ġf l
m y
Ġag ain
F F
oug h
l ang
st ance
o h
pect ed
id ent
iz ation
Ġre quest
Ġa cc
f ul
n ode
n av
******** ********
w ay
ver t
ĠI nd
an e
if e
it or
m ed
" "
ivers ity
` `
ect ed
Ġl ink
2 4
ĠĠĠĠĠĠĠĠĠĠĠĠĠĠĠĠ ĠĠĠĠĠĠĠĠĠĠĠ
ĠF or
Ġp oint
m e
Ġt itle
ant s
ĠW e
pt y
col or
Ġs ize
Ġdef ault
Ġg iv
C ode
Ġus ing
ain s
ro p
Ġd irect
al e
ĠT r
m ember
yp es
us er
on d
S ize
sh ip
ers on
I C
Ġo ptions
2 3
m d
ĠL e
a j
Ġbe fore
p os
lo se
it er
Ġat t
U R
L A
o bject
Ã ©
Ġre ad
S ervice
con fig
pl ate
Ġc ent
r on
l ish
res ult
b ers
F orm
Ġh im
o od
ra w
il ter
A l
def ault
O f
H and
re at
Ġs ystem
w h
form ation
Ġ Q
et urn
cre ate
or th
Ġp ar
y nc
val id
ate g
t t
m ap
able d
Ġb uild
Ġe ach
ow er
ot e
gr am
tr ue
ou th
ur y
Ġyear s
o ff
in put
og le
n ing
enc y
d es
O r
V al
w idth
ot ype
bo x
w ord
Ġr ight
O ver
ress ion
D e
Ġg r
Ġs im
u f
_{ \
ass ert
Ġthe se
Ġli ke
! --
ect or
in clude
Ġ u
Ġse cond
Ġp os
[ ]
ap ache
m all
=" ../../
i er
an c
uth or
Ġcom ple
co pe
Ġa ut
c all
Ġdif fer
ust om
ic on
Ġm odel
Ġt ext
Ġs ame
$ .
ir t
Ġsup port
Ġh ow
Ġm y
id er
Ġe st
err or
s erv
Ġw rit
f unc
Ġl ast
Ġlo cal
e ver
} {
Ġw ell
Qu ery
ff ect
at s
Ġd uring
Ġs erv
ĉĉĉĉ ĉĉ
ne ction
ag s
Ġbe ing
o ptions
U T
od es
Ġh ttp
Ġ import
com p
c le
a f
ing le
Ġm em
n ext
le te
U p
le g
iv er
t ing
lo at
Ġj ust
Ġ z
lect ed
4 0
Res ult
l p
Ġm ake
D es
ut es
Ġin dex
t en
ĠI s
ar ray
Ġp ath
ens ion
Ġm ed
Ġc or
Ġe ver
L O
M A
Ġte am
vel op
ĉ ĠĠĠ
is m
Ġn ode
re ate
ist ory
st art
r ag
over n
Ġch ild
en u
19 6
Ġs ign
ĠAmeric an
Ġ( )
Ġre f
Ġc heck
Ġar t
Ġt arget
Ġb ase
Ġo wn
= '
et work
A D
id d
o x
B uild
p art
Ġstr uct
Ġre le
e vent
i ed
Ġinst ance
lic ation
f rom
end s
am ily
" .
M essage
iss ion
Ġcon fig
m b
M odel
======== ========
Ġn ow
ath er
G roup
I s
nd er
ur s
Ġth ree
M L
Ġdo es
ĠO n
w eb
u ch
http s
ical ly
N ew
um ents
Ġm on
In ter
am b
Ġt em
## ##
ĠUn iversity
ig inal
b lock
iv ed
Ġm ade
lob al
3 3
w it
ĠS c
f rac
Ġsa id
ĠĠĠĠ Ċ
p oint
Ġcre ate
ĠG et
UL L
Ġbo th
act ory
prot otype
st ate
t es
t ings
Ġs ur
Ġcont ent
p i
Ġpro vid
---------------- ----------------
E D
$ ,
Ġrec ord
in a
Ġb reak
ĠW h
C H
e qu
o y
ĠF r
. "
Ġwh at
Ġm any
Ġde c
Ġb r
Ġpro t
S er
Ġgiv en
L og
I G
Pro perty
t itle
Ġn on
as ses
C l
ist r
cal e
m it
O ut
Â ł
en ame
Ġp op
e q
ok en
Ġus er
b ase
pert ies
p o
IN G
v ersion
pl ace
ile d
am ed
Ġc ould
L oc
Ġlo g
Ġm od
Ġto p
ĠUn ited
Ġm et
E T
an sp
ro ss
C ount
Ġin put
I S
Ġit em
olog y
Ġc ode
he ad
=" +
Ġor der
Ġm ain
Ġcont ext
ĠC l
l ished
ĠP h
d ay
ou ble
C all
ĠM ar
i um
Ġs ol
s ide
Re g
Ġn ext
if t
Ġm ust
m ethod
Ġper form
Ġbe g
a use
us ic
b ody
Ġcont in
Ġo pen
M P
Ġfollow ing
a it
Ġal low
Ġv ersion
ur al
Ġj ava
Ġle ft
roll er
Ar g
Ġde velop
m odel
le ss
us s
Ġst yle
Ġm at
in fo
um er
u ck
C lient
che s
qu ot
o in
ĠA ss
Ġb ool
U N
d oc
ar ly
og raph
k en
ann el
ĠS ystem
F rom
u age
Ġb el
c ite
M anager
e lement
o ption
l ing
ca use
b ol
iv es
end er
im it
A pp
Ġs ource
Ġre ce
our ces
] )
ual ly
Ġm ov
Ġ-- >
it al
oh n
T able
f alse
Ġp osition
che ck
Ġin d
a i
aramet er
ĠE ng
cont ent
Ġval ues
Ġb lock
ph a
ĠĠĠĠĠĠĠĠ ĠĠ
al th
d a
D O
i ence
con text
Res ponse
Ġbe cause
D is
v ious
c ount
E S
l t
se e
m ax
m od
} .
d own
Ġcal led
id get
le y
Ex ternal
r m
Ġm an
2 7
b s
Tr ans
Ġf ind
ch n
2 8
ent ial
Ġs rc
en n
ific ation
b b
che d
t n
ast er
Th is
i or
Ġv is
Ġre t
Ġlink s
ĠS he
M ethod
ict ion
d ition
A B
Ġtr y
but ton
ar i
h as
i ev
ifi er
Ġm ark
ĠO r
un e
Ġinclud ing
Ġ< <
Ġagain st
s k
ction s
Ġpro cess
p or
19 4
Ġm ax
b ed
2 6
d b
In put
Ġ ,
ott om
oot ball
Ġb ro
Ġb l
ain ed
Ġever y
n o
ic y
EN T
f in
ĠA nd
Col or
il t
> (
T oken
St atus
A ll
ail able
ak ing
ra ck
lo c
ym bol
act er
a ut
ĠA t
ul ation
O ptions
St ream
W e
Ġle ad
Ġv iew
Ġresp on
c urrent
Ġd ocument
o ad
Ġpart ic
um e
ou nc
Ġin formation
th s
Ġd id
P l
Ġst d
lic k
ail s
im age
ac es
Ġap pro
E nd
Ġc oun
Ġp ass
b f
Ġdiffer ent
ĠR es
aramet ers
et er
g t
Ġm essage
d t
U ser
v ed
Ġl ater
ww w
n et
Ġback ground
Ġre fer
us ing
Ġd own
en e
Ġhe ad
( (
A S
lo y
lect or
Ġse e
Ġm atch
om en
Ġg u
Ġvar i
Ġap pe
ĠY ou
p an
ĠS et
ur ity
Ex p
a pe
qu ery
r am
2 9
al k
Ġdis c
u ro
se ction
pack age
Ġs ince
Ġc ar
Over ride
Ġa v
st atic
19 5
ir d
w are
Ġt erm
Ġ! ==
U til
aram s
irt ual
l ight
st yle
re t
Ġplay ers
ĠR eg
ĠM ay
Ġt able
ri x
r al
Ġ+ =
8 0
C ell
T H
in ation
c ore
ĠG L
; &
orm al
arg in
ess ion
ar ge
c ss
Ġf in
Ġf our
b um
ĠSt ates
u str
Ġser ies
r ad
ef ined
ith ub
> &
ar m
r un
ĠC an
U S
E X
iv ing
Ġm ap
le m
ĠN ULL
Ġkn own
Ġ enc
Ġle vel
Ġfil m
* /
equ ation
Ġse ason
ri but
A ME
c ast
ir on
m odule
( {
ple ment
Build er
A nd
Ġo ld
go ogle
Re f
ĠJ an
Ġcol or
00 00
Ġrespon se
Ġs chool
pr int
Ġm ult
I L
ĠL ist
b l
S ub
. ,
j ava
c lient
Ġc are
Ġp ost
h and
Ġe ven
D ate
o le
ĠA d
="../../ ../../
B ase
al ign
Ġcall back
ore d
Ġs ervice
Ġp rom
Ġpl ace
Ġpro ject
6 0
Ġpro gram
O T
s w
ak es
s up
n ull
Ġg ame
or age
f e
at ab
T D
Ġp at
C E
ount y
g ithub
Ġb oolean
Ġcomm un
ide o
tern ational
ĠT est
th ing
N ull
] (
Ġw idth
re quest
I P
In stance
Im age
At tribute
d om
ĠĠ Ċ
Ġw orld
Ġlo ok
and roid
ĠH ow
Ġb order
a u
q l
ar r
Ġo p
our n
G L
ĠP l
Ġp res
ĠJ ohn
du ct
S ource
Y PE
ref er
ff ic
Ġhe lp
ĠW orld
p ush
ĠT e
de v
n amespace
Ġim p
Ġw ay
ic ense
com e
ix ed
Ġlo w
B lock
o pt
m et
u les
ord s
\ \
Ġp arent
Ġch ang
li b
arg s
return s
ĠĠĠĠĠĠĠĠĠĠĠĠĠĠĠĠ ĠĠĠĠĠĠĠĠĠĠĠĠĠĠĠ
Ġh ere
ur ch
Ġsu ccess
in it
t x
Ġde t
et y
Def ault
Hand ler
ĠR eturn
ĠĠĠĠĠĠĠĠĠĠĠĠĠĠĠĠ Ġ
G ener
Ġ Ð
ch ild
Ġb ased
il li
R un
Ġp ort
overn ment
r id
b uild
F unction
ser ver
Ġun til
P ar
pt r
Ġth ose
Ġs mall
ĠA ll
end ed
Ġex ample
c ated
) $
Ġrep resent
Ġw ant
atab ase
Ġin itial
ag ue
Ġdes cri
ĠE n
ic ro
rit er
u k
Ġv ery
ire d
h old
9 9
Ġpro perty
re quire
Ġor iginal
O O
Ġin cre
ĠP ar
} (
ab ility
W h
S tr
L ay
ib r
add ing
ĠâĢ Ķ
ĠN ational
u ary
al pha
=" #
d ir
Ġ url
Cont ent
ĠB l
x y
E d
Ġout put
ĉ Ġ
p arent
Ġp resent
n ect
St yle
A d
; </
r ist
) {
in ess
ain ing
Ġs ingle
an ces
iv ity
} );
Ð °
t arget
ot s
se c
un k
B uffer
Ġr ange
v ision
g y
Ġe ffect
Ġkn ow
A A
, \
ev el
ition al
read y
Ġt ri
c ase
3 4
Ġc r
Ġex pect
Ġo cc
L ine
Ġl ife
str u
Ġle t
N S
w ith
che ma
de pend
ĠB e
ad ata
Ġl ength
iv ely
Ex t
Ġincl ude
Ġid ent
ug in
i que
l s
act ive
O per
ĠC ent
he ight
um p
on y
Ġp o
Ġan n
ĠC ar
Ġse ver
ĠN ov
g ress
Ġs k
er o
Ch ild
Res ource
Ġf amily
ĠP r
ĠJ ul
ĠU S
in c
D I
v iron
ob j
. $
Com ponent
Ġcon f
Com p
Ġre al
app end
Ġre port
20 22
ĠA dd
in ition
Ġb ook
ĠO bject
l en
row s
ĠI m
ir c
ator s
aj or
end if
ĠS chool
Ġresult s
math cal
V ersion
B e
so ft
ĠP ol
Ġwith in
om et
Re c
trib utes
Ġval id
Ġin s
S c
Ġ( $
at ures
ĠN o
Ġl a
Ð ¾
Ġex ec
Ġest ab
St art
ust er
Ġal bum
Ġcons ider
n ess
O ff
se mb
Ġorg an
Ġwith out
Ġ( (
C K
U E
and ard
A ct
] );
ĠC al
B ut
Ġp erson
ward s
he ader
wit ch
ĠG e
Ġf ootball
Ġst ill
Ġa round
p age
3 5
w ays
i ans
Ġ" ""
lo t
ĠY ork
ph p
j son
i us
v is
el s
i od
op er
Ġd on
u x
Form at
b ug
Ġt yp
H T
e e
=" ../
av ing
ain t
âĢ ľ
O b
Ġde v
Ġm odule
B ar
ON T
n s
A ction
al y
ater ial
oc us
A ss
pro perty
Ġcomm and
Ġp ub
) </
Ġa ccess
Ġw on
Ġc ount
at tr
p osition
Ġare a
is on
ĉ Ċ
Ġb us
e ad
ĠC ounty
20 20
ol ume
a iled
N o
cre en
l ast
le ase
e qual
Ġf act
at ely
ĠM in
c ame
op en
. âĢĿ
++ )
al t
g le
F actory
s rc
Ġo pt
ic le
ĠW est
Ġex per
rem ove
im ary
Ġcont rol
ĠI N
Ġw in
Equal s
m ber
vid er
W indow
O P
Ġbe came
le x
iv al
Ġl ang
R ow
ĠW ar
b tn
Ġl aw
a im
ef ore
F rame
re c
end ing
Ġoff ic
t al
P oint
Ġex pected
t ab
Col lection
3 9
Ð µ
ĠA ug
amb da
h ost
ch ar
Re ad
Ġpol it
ĠO ct
Ġ ->
6 6
in ary
P h
Ġd ay
ĠB rit
ĉ ĠĠĠĠĠĠĠ
} ^
r l
Ġ{ @
N umber
ache d
Ġav ailable
Ġis s
Ġt ake
F I
ĠG u
iz er
w rite
ĠĠĠĠĠĠĠĠ ĠĠĠĠĠĠ
Ġc ap
f low
W eb
ĠT o
201 5
ig ger
ĠS outh
s ible
ure d
lo cal
ord ing
i sed
Ġch ange
Ġm uch
ou d
201 4
P ol
F ilter
201 0
H E
f ind
Ġex ist
pec ial
Ġe qu
Ġde ath
Ġb ir
ĠJan uary
de l
eg er
P RO
201 6
A G
Ġa ction
ss ion
Ġ eng
ĠThe y
ĠSt ate
F A
d o
pt ember
i ag
or ies
L ength
Ġb u
Ġm usic
//////// ////////
( _
o ber
Ġp age
erm an
3 1
m ark
Ġand roid
ra in
al f
om an
ER T
F l
Ġw indow
P r
~ \
Ġs ong
Ġbe st
at form
x ml
H el
C reate
[ "
} _
201 7
oc ol
s g
arn ing
Ġc our
f rame
p rivate
l in
ial og
ĠC ont
( &
Ġlo ad
Ġ es
a e
pr il
y nt
oc ial
Ġpro v
st atus
O S
um b
viron ment
AT E
struct or
ill ion
Ġ[ ]
Ġan other
ĠM arch
cent er
ith er
T ask
ustr al
201 8
u ed
A P
3 7
un g
Ġf ull
c d
IN T
Ġpre vious
Ġh ome
9 0
Ġrequire d
ol ution
E m
Ġgo od
Ġn ear
< !--
Ġsh ort
Ġp ower
20 21
Ġle g
se lect
5 5
ref ix
C heck
f irst
al es
row ser
ĠTh ere
ĠR ep
c er
f ont
ex p
Con st
Ġthrow s
= \
s igned
Ġc lient
Ġh ost
ri or
Ġ et
m u
ER R
ib ility
stru ction
201 3
P art
Tr ue
Ġob j
u int
20 19
I t
Ġspec ified
Ġal ong
Ġim age
am ma
y les
_ .
Ġsever al
Ġcol umn
0 1
Ġo ption
p loy
3 6
Ġc ell
I M
ĠC o
ra ft
Ġdis play
201 1
up date
Ġhe ight
Ġbe h
ĠG ener
Ġsup er
Ġwe ek
ce mber
he s
201 2
Ġu int
le ar
Ġd iv
ip le
S P
m o
im ation
z e
it ive
Ġprot ected
: "
Com mand
ĠSe ptember
Ġde l
b uf
ent ly
ĠM ed
Ġ ke
amp ion
Ġl en
cont ainer
Ġcon dition
E L
n umber
m t
uro pe
3 8
ep s
Ã ¡
am ent
ĠĠĠĠĠĠĠĠ Ċ
le ge
op s
ĠAug ust
ĠI nt
) \
f ilter
st ream
Ġf ore
ter m
so le
he ther
Ġchar acter
List ener
UR L
P age
Ġass oci
ch o
ist or
ug g
m at
Ġmem bers
ur g
Ġl arge
ĠJ une
S ON
Ġl abel
" ),
im um
Ġd ue
P re
r an
form at
str ong
T O
n own
A M
N av
sp ace
s l
Ġchild ren
Ġup date
ĠOct ober
Ġst at
ĠS p
L abel
Ġc ity
L ink
Ġm ar
4 5
off set
v es
ĠĠĠĠĠĠĠĠĠĠĠĠ Ċ
to ol
I f
des cription
Ġto tal
Ġe arly
p c
ur ther
ut ure
re en
Ġdef ined
Ġte chn
ĠB y
ansp ort
ĠS er
" ).
p ost
Ġre st
> >
ĠC ity
Ġr ad
ĠA pril
ac ed
b it
ĠJul y
qu ence
W idth
er a
Ġd r
$ \
ot o
Ġc opy
param s
Ġc lo
um an
Ġal ready
Ġpro f
Val id
Ġst atus
and om
Ġevent s
re ct
ateg ory
semb ly
ca de
Ð ¸
b ottom
C C
ad a
ry pt
AB LE
il it
Ġcomp any
ĉĉĉĉ ĉĉĉĉ
" ]
and s
Ġs um
Ġs ide
im ate
ĠN orth
able s
re l
Ġb ody
ĠE d
Ġdes ign
S pec
M et
Ġcol lection
ud io
j av
Ġqu ery
g ener
Ġfor mer
Ġcre ated
Ġs pe
ĠE X
ĠS up
C ache
Ġn um
om ic
it es
Ġm ember
Ġrele ased
y l
7 5
ĠP art
ĠB o
dis play
ex ports
Ġp ack
ĠDe cember
Ġdist ribut
ĠNov ember
m enu
Ġund efined
M ode
Ġad v
T YPE
u c
k it
b ook
ĠD ef
st er
ĠN one
n ow
id es
Ġform at
| -
Ġres ource
yn am
im al
ra ce
Ġtra ck
Ġc ustom
st d
Ġadd ress
Ġarg s
Out put
il er
ac y
h ip
ĠF eb
od ing
V ER
âĢ Ķ
Ġc atch
S C
use d
Ġext ends
ĠM an
Ġd om
ro y
l a
st it
D el
Ġ$ (
res pon
200 8
d f
ĠA f
Cont roller
ent ry
anag ement
Ġg overnment
ig ma
he et
Cont ainer
ch ange
ist ry
und le
li ed
_ \
Ġde st
ĠB ut
if f
t ag
p ng
U I
Ch ar
t ed
re st
But ton
ex pected
J son
ĠHow ever
ĠA ustral
res ponse
s ol
idd en
m un
Ġm ajor
ru ary
200 9
Ġin ternal
er g
ys is
an a
Off set
) (
R eturn
Ġreg ion
ĠA b
ĠE urope
C ON
Ġal ign
Ġro le
RE F
// /
T P
h am
on es
our s
r s
c or
o ke
Ġsp ace
Ġg l
rap per
**************** ****************
Ġin te
Ġm argin
Se e
Ġplay ed
on ly
s i
Ġc lose
ĠC O
B U
ĠI I
riv er
Ġn etwork
p ol
Col umn
7 0
ad o
m em
Up date
ĠD es
' ).
b ind
Ġreturn s
Ġ ]
d l
Ġde pend
ibr ary
ĠG o
fin ished
ther n
ard s
ĠL icense
LA SS
ear ch
in stance
ograph y
ig ation
E E
t yp
ri ed
S up
ĠAr ray
col umn
T ag
al ysis
Ġreturn ed
, "
Ġt urn
Ġc ur
20 00
Ġn amed
tem plate
M O
p y
Ġa uthor
Ñ Ĥ
ĠReturn s
Ġb ound
$ {
Ġcom put
th ers
in o
a ff
li p
A ut
C ase
Ġarg uments
ou ch
v ers
w indow
m eta
ĠCh rist
Ġw omen
in st
Inter face
ĠA PI
4 4
Ġim plement
ĠA ct
D ep
eg a
st ract
Ġpr int
re w
Ġpro ble
Ġh istory
Ġst ream
N O
ap er
Call back
ĠV al
Ġoff set
~ ~
l ate
T em
n um
n a
u ccess
Ġd ate
p m
oug ht
ph i
Ġrece ived
Ser ver
out put
ct x
200 7
r ont
R ange
U rl
ĉ ĠĠĠĠĠĠĠĠĠĠĠ
Ġp ut
Ġser ver
Ġcomp et
b orn
ĠBrit ish
T ypes
Ġm ag
lic e
N AME
r t
il ar
ĠM c
ro ot
Ġl ay
ĠR ec
200 6
R em
Ġspec ial
Ġ\ \
Ġf ew
er ed
Ġc ert
nav bar
ex ample
c lose
ol ve
Ġinv est
ĠG r
Ġinter face
m atch
ra int
Ð ½
I O
Lay out
ĠD is
par se
ar row
Ġm ode
Ġl arg
ac ity
u id
ĠS te
Ġp arameter
T arget
Ġf ree
er ing
, âĢĿ
s ervice
ĠH igh
ĠA fter
im g
ĠFeb ruary
ĠK ing
Ġf re
Ġelement s
ĠW hen
ĠCom p
B ack
ent ion
Ġ q
in ing
F ONT
Ġpoint s
Ġper iod
Ġob serv
h o
el se
U M
ip p
idd le
( [
Ġh old
M em
Ġab ove
Pro vider
b eta
ight s
I Z
ĠH T
ro du
Ġprodu ct
i et
ĠM e
ĠS o
A g
re et
it ory
m ar
Ġgener al
A PI
un finished
Ġaut o
ang le
Ġinter est
C L
Ġprovid ed
Ġe ither
Ġt imes
- \
Ġcon nection
ens ions
Ġa nt
Ġf ont
m ission
ĠB ar
ed er
un it
pro ject
Ġc ause
c an
cript or
s cope
B ox
} ^{
ĠR ob
4 8
as ic
He ight
' ),
p ly
ann ot
im ent
Ġle ss
app ing
Ġl ate
w ise
f oo
ĠI D
pro cess
sh ould
Ġt ask
^ {\
W rite
< ?
am il
ĠC or
at al
Ġto wn
apt er
Ġme as
l or
T ree
i res
ampion ship
tem pt
ĠLe ague
back ground
ĠCh ar
as sed
Ġd ouble
f loat
icro soft
b ool
ĠU p
ex ec
Ġpos sible
Ġw hether
M od
itt le
} _{
? :
o ice
ic ation
Ġto ok
ren ch
Ġf ail
ft ware
gr ad
He ader
Ġp ay
ĠN ot
Ġb uffer
Ġse c
Ġ{ \
Ġ row
ĉĉĉĉ ĉĉĉ
ens or
ver se
s ing
id ual
L ast
ĠC lass
Ġh ouse
Ġfe ature
util s
0 5
respon d
M S
Ġre search
Ġ> =
ire ction
ang ed
Ġg ames
g ing
sh ow
P er
i j
P osition
ĠâĢ ĺ
m ic
Ġcare er
Ġth ink
at tern
Ġbu ilt
ri es
Ġf ac
og n
ĠAss ert
ĠT ype
u ation
bo ard
ug ht
Ġhe ld
Ġc amp
Ġto o
Config uration
itt ed
Ġs ite
l ap
Ġw rite
illi am
ig r
. /
Ġe lect
le vel
F e
b uffer
cle ar
M odule
se l
V is
A meric
Ġ* *
En try
Ġacc ount
ult ure
Ġin it
ĠA pp
as cript
F irst
Ġinclud ed
ig in
he l
Ġse arch
: (
M ax
math bb
Ġob t
M in
Ġg lobal
i ke
L oad
Ġa ge
Ġadd ed
op h
Ġre du
Ġcom b
Ġw ater
s v
r ing
get her
l ambda
H ash
A ccess
D B
Ġp arameters
Ġm ove
g en
200 5
N ext
ĠH is
Ġn one
que ue
de t
Ã ³
Ġind ic
cent ury
lay out
Ġc over
at ter
pon ents
Add ress
Ġv irtual
Ġe qual
d rop
Un it
Ġs ent
de st
Ġoper ation
il le
wh ere
Ġ{ }
P O
Ġal ways
T op
Ġd one
ase s
Ġs om
Ġ qual
le vision
P e
Ġs ay
ĠEng lish
Ġbir ths
PE CT
ĠF ile
Ñ Ģ
Ġs ing
Ġth ird
Ġne ver
ce ll
Ġfil ter
refer ence
Ġrem ove
Ġbeg an
ut ions
Ġv er
c ul
ĠAf ric
8 8
Ġf rame
Ġl and
S ec
Ġbus iness
`` `
Ġe p
ef t
row n
ĠD o
im ple
Ġstud y
Ġs s
p ri
pro to
ĠC heck
V AL
Ġ< !--
Ġa ir
Ġimport ant
W idget
Ġfil ms
ĠJ ap
ing ton
ĠĠĠĠĠĠĠĠĠĠĠĠĠĠĠĠ ĠĠĠĠĠĠĠĠĠĠĠĠĠĠĠĠĠĠĠ
ĠP res
s pec
Ġf ive
th ough
ĠW ith
rom ise
c ache
ĠP er
ab ly
Ġpro perties
is ing
g l
Ġn ational
A fter
i ol
Ġpartic ular
Ġde cl
ir m
Ġfile s
() ->
Ġs ix
U P
ĠS ub
6 5
] [
P arams
ond on
ĠP ark
Ġe v
i ef
ab or
ĠS k
* }
Q L
Ġro ot
if act
Ġf loat
t ree
Ġcl ub
o sp
Ġlang uage
ist ic
Ġ ...
Ã Ń
ĉ ĠĠĠĠĠ
ĠC reate
Ġap i
Ġpop ulation
cl ud
Ġar ch
h at
d ocument
A cc
Ġb it
ĠM on
id s
Ġd oc
com m
M atch
Ġcoun try
ct or
Ġhttp s
ed ef
0 4
Ġhe alth
ol ved
set s
UL T
f inal
Ġplay er
Ġappe ar
ition s
med i
Ġspec ific
Ġpub lished
Ġh app
ess ages
qu ad
D irect
b reak
âĢ ¦
y ear
nt ity
os s
Ġcon c
P arameter
Con nection
Ġlo cated
ĠL a
Ġre nder
D ocument
iction ary
ce ed
ĠAr t
R L
ĠA ir
st and
h a
CO L
iss ing
Util s
Ġinst ead
j e
g raph
im ages
ĠThe se
P ack
d ict
ĠD ep
D et
lic it
t ml
Ġent ry
ĠE rr
Ġbeg in
urs or
Ġt ag
ip al
P C
k nown
Ġg reat
b a
0 8
AR T
Ġp erm
D ev
he m
p ose
W ork
Ġof ten
Americ an
Ġv ideo
pp ed
a uthor
#### ####
Ġit er
ĠP e
V E
ri end
Ġoffic ial
Ġ čĊ
old er
Th read
v as
d ated
istr ict
res ource
Ġse ction
ĠH ar
ĠO ne
Em pty
Ġb and
che du
Ġt ypes
ĠE ast
Ġmethod s
ut able
Ġ* )
Ġmed ia
j oin
200 4
R A
O pen
p atch
P ort
ĠS w
M at
Ġle ast
CO DE
com mand
Ġprov ide
Ġcont ains
Ġestab lished
ĠA g
Ġon ce
ĠIn ter
ak en
ock et
O ption
Ġp arams
ĠD av
Ġtem plate
l ong
D ec
L evel
ub e
Ġc rit
Ġbuild ing
f ord
P os
res h
Cont rol
al let
K E
Ġcommun ity
type of
ener gy
n on
res sed
ynt ax
com mon
l it
se cond
Ġwrit ten
Ġd ays
Ġam ong
Ġcontin ue
p ass
att le
Exp ression
Ġsim ilar
jav ascript
Ġme an
ĠO F
trans form
h ash
A b
Ġv ill
ĠR uss
ĠR ev
ĠW eb
ra de
Ġl imit
Ġ( \
Ġdevelop ment
Ġj ob
y d
ĠB ro
Ġv ia
web kit
7 7
ourn al
an ch
ĠH REF
Ġm en
i i
de bug
Ġc lear
Ġst andard
ugg est
il on
ĠCol lege
Ġm ight
AT ION
================ ================
Ġn ames
Ġg en
Ġdescri bed
L o
N D
g ed
ounc il
Ġrem ov
Ġres pect
Ġ ide
f n
f s
Ġed u
Ġlo cation
Ġre d
ilit ary
Ġatt ack
P tr
B C
ĠC LASS
by te
Ġp ot
s igma
in ner
i ents
Ġ Ã
Ġre lation
ĠD ata
el ine
ĠEX PECT
id ed
Ġact iv
H ttp
Ġx ml
ĠH ouse
Ġm illion
Ð¾ Ð
" ))
g or
Ġbe come
ĠB r
ĠL ondon
a ul
Ġstart ed
Ġserv ices
ot al
Pro cess
0 2
ill s
Ġ Qu
OR T
ound s
ĠR em
Ġin div
Ġin f
ad ow
) }
Ġp an
Ġem pty
ĠR ed
Ġhand le
il ities
in n
Ġst op
t y
call back
ot ion
Ġac ross
ord in
ĠĠĠĠĠĠĠĠĠĠĠĠĠĠĠĠ ĠĠĠĠĠ
Ġn av
m ain
Ġfield s
Ġs w
fer ence
Ġa ff
s m
Ġim pro
ed ia
ĠS ch
200 1
Ġp assed
Ġh aving
Ġst ory
6 7
d at
Ex ec
Ġtr ad
to ken
st yles
Ġstr ong
am l
Ser ial
Ġcont ainer
K ind
H O
I ter
St ore
Q ue
Ġ quest
k s
ĠW illiam
Ġw ar
as ing
Ġyou ng
he nt
Ġl ight
Loc al
ar ies
ver age
: </
im er
^ \
n ap
var i
del ta
fo ot
Oper ation
Ġe lection
Ġcl aim
R ender
Ġgo ing
Ġs ocial
Ġs m
Ġst ation
Ġto ken
Id ent
al d
Ch ange
re nder
math bf
ĠM y
Ġn amespace
sup port
Ġv ol
^{ -
Ġact ive
Ġat tribute
S p
Ġp adding
ĠSe e
Ġpar se
Ġsign ific
Ġse par
Ġeng ine
C ore
ick er
Ġg row
ĠTr ans
Ġwork s
ĠA m
Ġme ans
p th
ance l
p op
eth ing
lay er
E Q
ic a
Ġke ep
Ġrefer ence
Ġ Â
ri ef
C urrent
Ġf urther
Ñ ģ
Ġc ref
c ap
T I
Ġchang es
Ġapp lication
R I
Ġc ost
ĠS ec
li es
oci ation
Loc ation
ms g
Ġd er
t ask
Ġro und
Ġs cope
em pty
Ġwork ing
S cript
L I
action s
Set tings
C opy
ĠH er
ĠIn ternational
Ġp ract
" ));
istr ation
Ġn ormal
S earch
Ġgr ad
em ents
iz ing
Ġhas h
Ġch annel
olog ical
Ġ ;
un ch
re place
Ġto gether
r ict
w ait
4 9
IG N
enc ies
l im
0 3
Ġbet ter
Ġex pl
ĠF rench
Ġof fer
Ġm ass
H ost
val ues
Ġbo x
Ġindiv idual
Ġac cept
m ost
M eta
N ames
av es
IZ E
Ġcomm on
S D
k a
or iz
Ġf und
ens ure
L eft
0 7
> ,
b order
Ġint rodu
Ġassoci ated
Ġrele ase
ĠA p
Ġvar ious
leg ate
Ġmult iple
Ġobject s
am a
B undle
g es
po sed
ĠN e
C o
Hand le
Ġcent er
P arameters
$ $
m ode
if orn
et ch
m i
eb ug
E nc
ut ed
ĠS an
Ġover ride
Ġc ache
St at
Ġm aking
0 9
Ġcent ury
Ġcom ponent
ers hip
( *
r ics
ounc ed
Ġ( "
' '
T ER
200 3
G e
Ġbel ow
Pro perties
Ġto ol
s mall
` .
de lete
U B
Ġfunction s
Ġh ard
Ġre view
ĠE nd
Ob j
em s
H istory
I F
med ia
af e
e le
Ġserv ed
b efore
Ġf ar
u el
b or
cont rol
one y
P o
Ġfe atures
Ġtrans form
Ġt w
Ġgroup s
Ġab le
Ġe as
Ġat tempt
Ġ{ };
m es
m ult
() :
ĠPh il
ĠL og
Ġ energy
N one
Ġse lected
0 6
ic o
% ;
Ġb ar
g amma
C an
gor ith
iforn ia
4 7
Ġc ame
O p
O ne
c s
ã ģ
ĠM ich
+ \
Ġcor respond
Ġ[ '
v an
Ġph ys
Ġb orn
n u
ĠD istrict
C R
G ET
ERR OR
oci ety
% %
ar ing
AL L
Ġspec ies
b ig
Ġ[ ];
act ers
Ġdif f
Ġh alf
Ã ¼
Ġperform ance
im est
Ġt re
ĠT O
ĠM ark
Ġh uman
i as
od er
Ġ" \
ĠS tr
4 2
Im pl
et ing
pl it
ir it
As ync
ru pt
Ġstruct ure
AN D
E ntity
Ġstud ents
cl us
Ġg ot
S O
ĠN or
Ġs cale
_ ;
Ġas sum
C D
hand le
Ġf uture
S ession
Pro ject
__ (
ob ile
Ġsuccess ful
Ġst ore
e h
Ass ert
9 5
Pro t
In valid
h ib
By tes
and id
ro s
ĠM ath
c opy
id ge
ca pe
in ternal
ĠG roup
ly ing
im ension
t imes
Ġreg ister
Refer ence
Ġc apt
n es
AC K
ar a
b oolean
ĠG erman
Ġd a
it ing
ĠE l
Ġin fl
ĠEx ception
S H
ĠQ ue
Ġv ert
re q
5 00
Ġprodu ction
iz es
S A
ers ist
Ġs at
s cri
Des cription
s ort
Ġ( '
ĠO R
Ġpro b
IN E
iev e
Ġs ample
ag ing
Ġm aterial
Ġg e
Ġshow s
Ġe ar
Ġpl an
iss ions
B ind
w idget
Ġcase s
F ont
ol l
to String
s ign
x is
Ġf ailed
h an
ank s
200 2
Hel per
ple te
R ect
i ation
pro p
ĠCh ampionship
Re ader
Ġdist rict
Ġen vironment
Int eger
o pe
ac c
ĠP ort
Ġs on
R el
ur i
ist ance
Ġk ind
il led
D ir
Ġ` `
ic ons
r is
til de
or ge
art ment
ateg y
Ġin du
og gle
iag n
se qu
B ody
ĠE m
c ing
ĠInd ian
Pol icy
ST R
Ġsignific ant
ec ess
g reg
Ġ ::
Ġinst all
lang uage
el low
Ġag re
Ġe con
tr ies
Ġpro p
M ult
T ool
ag ed
Ġp ast
inter face
g n
Ġf low
Ġar r
St orage
Ġb ig
Ġad min
ĠCal ifornia
file s
Ġn ov
Ġem ploy
Ġwe bs
rag ment
ly mp
ĠD r
li ke
Rec ord
` ,
s d
ak er
Ġse en
SE T
ĠR ef
M on
Del ta
X X
Ġadd itional
land s
ĠRep ublic
E CT
He ad
ist ics
F O
air s
D om
Ġc y
=" _
Arg s
ot a
Ġt ree
ĠC up
Ġcurrent ly
Ġn eg
8 5
ĠA cc
Ġs ays
Ġdef ine
="../../../../ ../
Ġcom e
Ġle d
ynam ic
Ġbl ack
Ġte levision
Ġa way
ĠĠĠĠĠĠĠĠĠĠĠĠĠĠĠĠ ĠĠĠĠ
st rap
Ġs ure
Ġdev ice
Ġse lect
Ġw ent
Ġin fo
Ġo pp
c m
ĠInd ia
Ġd ied
o om
M M
ĠN S
{ {
Ġconsider ed
b ased
Ġarg ument
a el
4 6
E ng
Ġin ternational
w ide
Time out
t hen
h over
li er
dis abled
P arent
Ġre ally
oun ter
en v
Ġsub ject
Ġf all
bo ot
Ġrun ning
Ġn orth
ĠPres ident
ch an
Ġhow ever
Ġadd ition
ur b
Ġs it
Ġcon vert
Ġs l
Ġdoes n
I I
cl asses
lo s
ansp arent
D own
st ack
en um
ĠErr or
ĠD ate
Ġli k
8 6
erv ices
part ial
Ġd en
ĠAmeric a
ĠR iver
app ly
sp lit
av en
ic les
ac ing
Ġde lete
M enu
Ġl ive
av y
T rack
Ġcan not
ip s
} {\
Ġcon trib
Val ues
Ġo thers
Ġitem s
imest amp
Ġmodel s
à ¤
ĠD E
b urg
Ġse ssion
Ġedu cation
Y ou
Ġm er
Tem plate
Or der
ĠO ut
ul a
at ural
se ssion
od ed
25 5
b in
Ġconfig uration
U s
ĠD iv
ĠM ap
{ }
Ġby tes
r ho
fig ure
iv il
Ġright s
W riter
Ġ< =
ession al
Ġl iter
Ġas k
Ġs uggest
Ġsur v
th on
V ector
ĠC our
S cope
art ifact
t ypes
St ack
d raw
Ġterm s
D F
a uth
Ġun it
c at
ĠB el
w in
OR D
r ange
gr id
L e
T C
Ġhe ader
Ġ( *
SS ERT
use um
it ect
Ġth ough
Ġs ort
P L
Ġp ur
B A
Ġmov ed
ĠM o
Ġb en
Ġset s
Th ere
Ġs witch
ĠF irst
ut or
ug ins
ĠGener al
Ġsupport ed
ĠC ON
4 3
COL OR
n ey
P RE
Ġam ount
Ġproble m
ach ine
Ġpot ential
Ġann ounced
h r
Ġpartic ip
math rm
dev ice
Ġex ception
( :
D oc
key s
' ],
con f
Ġd ig
Ġex cept
B oolean
st ore
ĠD em
ĠS m
Par ser
ĠEng land
Ġl ittle
Ġsom ething
ach ing
om b
c lick
Ġcomple te
R ight
Ġst ates
m m
Ġ} )
Ġreport ed
Ġf a
AT A
a a
Arg ument
Ġby te
Ġp rior
Ġf ire
a ign
ang es
Ġ+ +
Ġoper ator
199 9
$ -
S chema
Ġinstance of
c r
ins ert
Ġh istor
Ġexp ression
Ġ ign
Ġg raph
ĠD on
yn ch
B l
8 7
Ġ ~
c ial
9 7
" `
w s
ĠP ublic
com ing
Ġde term
ã ĥ
set tings
ĠB ase
S ign
z er
TE ST
v m
erv ed
Ġt reat
Ġs old
_ ,
9 6
ĠF orm
Ġg ive
g lobal
s cale
c p
Ġf em
a fter
av ior
Ġd atabase
s end
De lete
ĠM al
F alse
E l
Ġd raw
ile s
Ġassert Equals
erv e
ĠTh at
ic ult
Ġaut om
a ur
Ġde g
Ġlow er
at ory
In st
quire d
ĠO pen
Ġpolit ical
stit ute
Ġs outh
ĠR oy
Ġs end
al le
ĠT ime
S k
Ġre ason
R oot
20 23
un n
ĠH ol
=" -
Ġl im
ĠE vent
C A
) ">
doc s
ĠS ervice
h i
Ġprodu ced
ri p
om ent
u a
Ġinclud es
d irect
reg ister
ane se
Ġsol id
Ġallow ed
. )
c ard
f ocus
cre t
Ġun signed
un t
Ġt aken
Ġtype of
Ġwe b
Ġcomp an
Met adata
ra b
Ġchar acters
) ]
Ġl ines
web pack
l ines
ĠR E
ĠAustral ia
ĠPart y
ĠA nt
depend ent
j ust
om y
ĠD O
pl ugin
act or
U RE
Th at
En abled
as is
f a
Ġa verage
Pe ople
In s
Ġkey s
O wn
oc r
is k
E ach
Ġw ait
et ers
Ġcomple x
Ġsh own
' >
ĠS T
Ġcondition s
s im
Se lect
Ġvill age
al low
z on
Ġwh ite
DI R
Ġact ual
Ġwrit ing
the ta
id a
} /
Ġf ather
V ari
Ġj o
Ġsim ple
P od
Ġneed ed
ĠS en
oriz ont
ĠCan ada
ĉĉ Ċ
Ġc ou
Ġwebs ite
Ġmem ory
equal s
i os
Ġapp lic
Ġy et
r d
al led
S L
Ġpl atform
D D
Ġchang ed
s y
ĠF rom
omet ry
ĠCent er
Ġpat tern
-------------------------------- --------------------------------
Ġent ire
out e
EX T
ab s
ĠT ra
p ress
ar ter
ta u
param eter
Ġsystem s
Ġs cript
o e
Ã ¶
Ġp ress
Ġacc ording
By te
ĠW ork
Ġst ep
ĠC re
artifact Id
ĠS um
n ected
S ymbol
y a
ä ¸
ens ity
Ġf lo
Ġf unc
il m
ri a
nc y
ar p
ĠAr g
ĠJ SON
ĠRe ad
ex port
Ġbut ton
ig ure
Ġr ate
Ġth ings
5 7
P ost
ĠBl ack
un ic
Ġm anag
Ã ¤
Ġcons ist
De cl
Ġfor ce
P ass
s ymbol
ad ian
Ġdet ails
ĠM et
Ġrel ated
Ġf ront
str y
ĠP re
Ġset tings
Ġcor rect
Ġpol icy
Ġs creen
x x
199 0
Ġw est
j o
Ġpop ular
Ġcol l
Ġe val
Ġc ross
Ġhand ler
' re
Ġe lem
Ġdes cription
at ives
ĠP al
s ystem
ark s
Ġth read
ast ic
Ġen ough
Ġinte gr
Ġhigh er
ĠM at
am s
* )
Ġn ecess
Ġm sg
D o
' ))
5 6
ĠV alue
R ule
ff ff
ro te
Dev ice
Ġb ind
Ġso ftware
Ġmon ths
ic ate
P aram
sh ot
s uccess
ĠSt ud
ĠC ouncil
Ġestab lish
Ġuse s
Se lector
ug e
ens ive
N um
Ġse lection
Ġg round
Ġa ward
t rack
V ert
Ġpr imary
F unc
iagn ost
ul ated
v ector
Ġph ot
c ustom
te ction
", "
Ġep is
ac cess
Ġcert ain
enc ed
J S
ĠL aw
Ġm akes
if orm
ĠEurope an
i am
oun try
Ġre pl
add ress
ound ation
Ġoper ations
Ġstr ict
am era
W hen
A pi
we ight
8 9
-- -
G raph
ĠSt reet
orizont al
model s
Ġreg ular
ook s
] {
vent ion
Ġare as
Ġrec ogn
qu ires
ã Ĥ
en ed
ĠJ ames
Ġin line
sk ip
group Id
ĠA ward
M ock
Ġmon th
Ġm id
end ar
ĠM ag
ĠTr ue
Ġcom ment
ĠB uild
Ġro ad
s ite
b ert
Ġm ale
Def inition
Ġmat rix
k g
ĠRob ert
m ing
Field s
M ar
ĠDav id
L iving
com ponent
Ġun ique
ĠD irect
Ġo s
Ġcre d
T e
rom e
ap s
X ml
che me
ĠF l
TE X
at tribute
Ġmark et
V ID
ra z
Ġexist ing
ĠS im
je ction
Ġbro ad
ĠF unction
ĠU RL
re a
c ur
HT ML
Ġext ra
Ġpres ident
Pro p
Ġlo st
Ġn umer
v ille
Ġw ord
OR M
ĠTh om
Ġcomple ted
ĠĠĠĠĠĠĠĠĠĠĠĠĠĠĠĠ ĠĠĠĠĠĠĠĠĠĠĠĠĠĠĠĠĠĠĠĠĠĠĠ
sc roll
ĠReg ister
H ow
G E
ca ption
con nect
ot ed
D ebug
ĠCh urch
Ġc irc
n ormal
Ġpart y
O K
ĠN ame
Ġde al
EN D
H P
ix t
in ated
ad es
Que ue
Ġc a
d ouble
h ood
Ġ' /
| \
> .
item s
Ġdirect ory
Ġst ack
100 0
te e
. __
Ġfil ename
u z
u it
ĠG erm
ĠHT ML
H as
frame work
In it
Ġb i
Ġdeath s
Ġother wise
Ġtra ining
x i
ann er
Ġit self
wo od
ĠI S
="../../../../ ../../
Ġneed s
T itle
gorith m
av or
Ġro t
p adding
Ġpart s
ĠCh ina
im ated
c ert
L ong
Ġwork ed
Ġe ast
& #
ol ver
ĠI O
4 1
ĠAr my
Ġv iol
oo se
ĠT V
FF FF
Ġt ell
Ġexper ience
a id
oc al
le q
Ġ ),
over y
I R
ĠFr ance
; ->
Ġra ise
> ();
Ġan alysis
ĠR ich
s q
Ġvis it
up le
Ġrel ative
as ons
D atabase
c f
App lication
eq n
t oggle
s ql
ĠO ff
ĠR un
199 8
ĠP at
Ġc ut
qu are
ĠO lymp
D ialog
Ġse quence
f ill
h igh
Ġr ather
ĠK ey
Ġerr ors
Ġch art
Ġb g
5 9
ĠĠĠĠĠĠĠĠĠĠĠĠĠĠĠĠ ĠĠ
field s
w est
Ġw ide
N on
Ġm ilitary
Ġvari able
On ly
st on
_ ->
Ġf ace
Ġprovid es
Ġs cal
Ġfe el
ar io
ĠP y
v ing
u ate
C P
Des criptor
ĠO b
Ġw ords
om s
Ġj oin
Ġdef inition
Ġd at
ĠU se
ch i
U se
he lp
ex ception
ynch ron
styles heet
Ġcour se
}$ .
Ġcompan ies
Ġcont ain
Ġinfl u
Ch annel
ĠM ore
Ġperson al
Ġser ial
Ġfre qu
ed s
Ġc ast
J SON
Ġr ule
Ġlo ve
M ark
hold er
C ustom
un signed
ĠDef ault
} "
ĠS ome
or ph
b on
pan el
Act ive
c ar
mod al
Ġ" /
AT H
ag o
aut o
st op
c md
ĠR oman
V er
Nav Bar
d s
err y
her it
ĠDep artment
ash ington
P attern
C S
ber g
ĠT HE
ĠNew s
Window s
ad min
( -
m ake
res ses
Ġfl ag
ĠN OT
Ext ension
ut ive
Ġe ff
for ce
li de
pr imary
D raw
et t
} (\
Ġj son
ched ul
ang er
C re
Ġst age
Iter ator
Ġex ists
ĠAss ociation
G o
Ġcont ract
Ġa ch
F T
S ION
N etwork
Ġg re
in itial
Ġcon sum
str ict
d en
ĠCom mun
t ra
Result s
eder al
7 6
h s
CT ION
P R
f il
is f
Ġp ain
R ed
ĠD an
Ġper cent
ĠB G
Ġt en
}$ ,
P an
ĠAr ch
' .
C lick
en a
it ude
Ġconst ant
con s
i qu
m argin
Ġdevelop ed
Ġn odes
IT Y
Ġat tr
Ġiss ue
Ġlead ing
Ġst e
d r
ri an
ĠU K
Ġwho se
Ġth ought
Ġlo t
est ed
.. ..
uck et
d ist
Ġteam s
## #
P T
o sed
Ġwrit er
ou thern
W E
Ġdirect ly
ĠGe orge
ĠO per
Ġn ight
or ing
Ġcon v
Ġset ting
KE Y
AC E
ant ic
ĠA ng
c y
he st
Ġw rote
it ar
e ach
ĠH el
om ega
Ġsec urity
Ġapp oint
Ġnew s
Ġopen ed
4 00
Ġh on
ĠG ets
drop down
Ġperform ed
FA ULT
Ġcon nect
tr igger
Ġn ative
S end
it ch
9 8
ree k
Ġdistribut ion
5 8
Ch anged
Ġapp ly
CH E
w ik
Ġto day
Ġa void
-> _
ang ular
A V
g in
Ġiss ues
ol ic
t ip
Ġj av
ĠC opy
typ edef
P ORT
Ġde but
\ ,
In ternal
print f
col lection
b ra
ĠD el
R et
Ġout side
] ]
Ġtest s
pro ps
Ġresp ons
J ob
ĠO ver
Ġf n
ĠM art
Ġre place
Ð° Ð
ĠF ield
Ġmeas ure
198 0
//////////////// ////////////////
| |
M D
N G
ĠM em
)) )
Ġ ill
g ment
Ġal t
AG E
Ġs ym
Ġdirect or
Event s
k ind
ĠV er
ance ll
anc ial
w rap
Ġ( _
Item s
Ġexp and
ĠP aul
et ime
Ġmat ches
iter ator
ra v
Ġed itor
Ġt akes
Ġjo ined
el li
y es
Ġcon struct
Ġra ce
osp ital
_ (
Ġup on
Ġd b
Ġz ero
V olume
Ġreg ard
Ġr andom
por ary
f ree
se ss
ill a
ed it
Ġqu ant
FI LE
ce l
i pe
Ġf riend
ugh ter
M ENT
199 6
Ġlo ck
ĠJ ust
app lication
O D
in line
led ge
ĠUn ion
Ġs igned
Ġs ymbol
event s
Ġin side
ĠV AL
b and
Ġm ount
ver y
Ġh om
Trans form
199 7
Element s
Ġoff ice
L ock
L S
Ġs pect
ĠL ou
Ġc tx
Dis play
boot strap
f r
in i
ft y
the me
Ġin c
M ember
Ġh tml
se lected
Key s
ĠL O
P op
Ġre v
ĠJ e
Ġv ers
Ġclo sed
Ġp od
pos itory
Ġro ck
Ġcomm it
( !
Ġact ually
du cation
Not Null
ir cle
In itial
Ġ$ .
Run time
Ġcont aining
p ite
g u
at io
Ġpolit ic
ache s
++ ;
ado op
"" "
Ġunder stand
M y
st ep
t ion
Ġt alk
pr ing
Ġgener ated
m ock
Ġv ict
i ences
Ġra il
itt ing
Ġrelation ship
Wh at
Ġindu stry
ĠN ode
ine se
Sup port
ĠThe n
Cl asses
im ately
ĠA L
D L
child ren
ĠRoy al
P A
ĠM ount
Ġtyp ename
Ġappro x
sol ute
Ġtr ansport
Ġext ension
Ġins ert
Ġ util
Ġc andid
ĠO ther
5 1
Ġn g
put e
Ġus ers
Ġt ax
Ġprof essional
Ġremov ed
Ġch all
Ġcon sole
o on
Ġt our
Ġgo al
ro ad
w rit
Ġm ot
Ġ" "
con nection
ĠR oad
l n
P S
Ġf ood
ĠA ut
N amespace
Ġpre vent
ist an
Mat rix
ffic ient
pecial ly
ĠBG COLOR
fl ags
l ers
Ġallow s
[ :
ĠHe alth
Ġn et
f ra
Ġe cho
ĠĠĠĠĠĠĠĠĠĠĠĠĠĠĠĠ ĠĠĠĠĠĠĠĠĠ
a o
Ed it
N E
ore m
ĠIn stitute
use s
Ġcal cul
ĠD et
() {
Ġsu ff
b ound
in fty
ĠB er
ĠDiv ision
Ġtrans fer
ĠComp any
ĠGerm any
ĠC r
chedu le
rad ius
ĠW ashington
At tributes
\ "
Reg ister
Ġcl uster
t mp
Ġfollow s
3 00
ĠN ote
p ub
Ġcon duct
ps i
z a
al a
wit ter
Ġle arn
Ġs ound
Ġbg color
ĠD ay
add r
assert Equals
T ab
Sec urity
Ġset t
ĠGo ogle
197 0
Ġm issing
Ġm anager
i ber
und er
G B
Pro xy
Ġm anagement
ĠCour t
Pro ps
p are
F L
ĉ ĠĠĠĠĠĠĠĠ
all s
Ġmar ried
ĠM ac
C lose
unic ipal
M e
Ġs il
aw s
a res
Ġim medi
ch art
Ġal most
ĠB OO
an o
Ġw atch
ĠT ex
ĠM or
E O
N e
Fl ags
Ġt aking
iev ed
Test s
nap shot
M sg
ple ments
ĠM usic
av ed
5 4
p ed
Ġpack age
re al
ĠS am
Ġlong er
Ġcamp aign
ĉ ĠĠĠĠĠĠĠĠĠĠĠĠĠĠĠ
Ġf ul
ĠB est
F loat
Ġdef e
Ġeff ort
Ġf amil
A uth
Ġfor ward
Ġplay ing
n ov
ific ate
Ġmax imum
F ail
ock er
ann ing
Ġd ise
Ġf ight
ook ie
Ġf ocus
im pl
est ival
Ġinv oke
so ck
if ies
Ġl ibrary
ĉ ĠĠĠĠ
TE D
ĠJ ack
leg al
f ull
ĠZ e
Ġimplement ation
il ation
Gener ic
Ġd riv
Ġhim self
Ġcontin ued
Str uct
Ġt ro
en ing
Po inter
port un
P AR
ul ate
B ig
Ġl iving
Ġd am
Ġde part
Ġmod ern
Direct ory
com ment
pe at
( __
Ġv ector
ix el
Ġb ad
Ġp aper
index Of
al ed
ĠTO DO
199 5
sup er
f ony
by tes
Ġpos itive
Ġp ick
Ġwh y
Ġ io
Ġcl asses
com es
W S
TR Y
ub y
ĠM ary
und efined
m as
Ġon line
ask et
Ġh it
ict ure
F C
he t
uf act
Ġdistribut ed
se y
im s
Ġat tributes
ch annel
ĠL eg
Ġtrans action
ĠJap an
u ous
Ġc lean
Acc ount
=" "
s cription
Ġst and
ym fony
J ECT
Ġbeh ind
I E
P ool
Ġqu ick
ri al
Ġres ources
point s
wh ite
n ers
Ġsh ared
l as
Ġcall s
ĠH all
8 4
ĠV ir
depend ency
ill ing
ĠY ear
p resent
8 2
W rapper
ang uage
arg ument
en ers
ip eline
Ġquest ion
ĠA cade
eqn array
ify ing
ar ily
ĠN O
c ut
ore st
Se cond
p icker
N et
Ġdest roy
ent er
reg ion
B it
Ġdist ance
m ove
Ġ ensure
ick et
Ġr ank
S IZE
Ġrad io
ĠP ost
ĠD uring
ĠIs land
[ $
wh ich
)) );
Ġfollow ed
Ġconc ern
5 3
Ġs us
Ġread ing
ĠW indow
ĠP ress
U ID
Ġm oney
Ġd irection
5 2
Ġdes igned
At tr
Sc roll
sh ire
ĠF e
B efore
sh ape
ĠF re
ĠS ociety
N odes
Ġcomp ar
Ġsh ape
ĠG reen
C al
LO G
ĠA N
m en
cl oud
h adoop
ĠĠĠĠĠĠĠĠĠĠĠĠĠĠĠĠĠĠĠĠĠĠĠĠĠĠĠĠĠĠĠĠ ĠĠĠĠĠĠĠĠĠĠĠĠĠĠĠĠĠĠĠĠĠĠĠĠĠĠĠĠĠĠĠĠ
Ġv olume
id ents
MA X
Ġimp act
ly ph
if est
s ave
ĠB ay
ĠM er
el t
iv en
Ġincre ase
ra el
-- >
V ar
Ġlik ely
urre ncy
Ġtrans ition
$ (
ign ment
Ġexp ress
de pth
M an
D C
Ġappro ach
Ġb ottom
Par se
ĠH and
Ġhe l
foot er
Ġnov el
Lo ader
Ġfin ished
Ġst orage
ut f
ĠL ong
Ġrec ent
hent ication
ed y
ĠIn st
ot es
S cale
Ġ[ ],
ur a
Ġtem per
Ġst ar
st at
as c
ĠM ethod
ĠM ex
Ġwho le
199 4
c ategory
Ġm ock
ĠT ext
Ġsong s
IT E
Ġst aff
ĠAustral ian
y e
ĠW il
Ġh ar
Ġsh are
Ġw ife
; <
eq ref
Ġro ute
S QL
ĠAfric a
Ġcon struction
graph ics
Ġun its
Ġthe ory
I con
Ġde ep
es h
L IC
m utable
ĠWh ite
Ġh ours
Ġre q
pl ugins
ĠĠĠĠĠĠĠĠĠĠĠĠĠĠĠĠ ĠĠĠĠĠĠĠĠ
M edia
Ġm is
vid ence
overn or
ar ation
Ġch urch
25 6
b rief
Ġarch itect
Ġfinal ly
ess or
ĠEx t
="../../ ../
Ġlo ss
Ġdisc uss
m ail
li as
Ġr ules
Const raint
Ġc op
Ġne igh
ĠTe chn
M icrosoft
Ġstart ing
__ __
Ġn or
v irtual
Ġcont act
ĠĠĠĠĠĠĠĠĠĠĠĠĠĠĠĠ ĠĠĠĠĠĠ
ĠC ong
Ġrecord ed
ĠR ad
ĠA lex
S Y
ĠWh at
N A
ĠRe search
hand ler
Pl ugin
& &
ĠU ser
R est
9 1
u ated
S o
not ation
Ġcoun tries
or se
Ġin valid
sh ort
ens us
Ġm other
Ġbo ard
ĠM od
Ġs ave
Ġnum bers
Ġlo c
ĠWh ile
import ant
ter min
sq rt
not e
r ong
ĠPro ject
lap se
annot ation
s chema
( @
Ġex port
Ġ â
ĠB en
iz ations
Ġal loc
sel ves
n ames
Ġj Query
199 2
Ġre ve
Ġex act
ri ends
Ġpo inter
nd ef
Ġtra vel
ĠC am
Ġb al
Ġcom es
met adata
Ġm oment
Ġtechn ology
en abled
ĠV ersion
Ġthrough out
Ġ ri
Ġor igin
ase t
pass word
al loc
Ġpol ice
Ġpro gress
Sh ow
F ind
Ġ icon
Ġm iddle
and er
er ies
Ġsol ution
Pack age
ĠT own
o res
A p
d ates
Ġn atural
li ance
Ġsur face
us ion
em ail
. '
b our
T ra
Ġc ult
assert Equal
ĠT ur
In v
Ġa ud
s cal
th at
Log ger
ĠCl ub
) ),
Ġex ports
il i
Fe ature
P erm
le v
Ġben ef
Ġnecess ary
ĠH en
proto buf
Ġline ar
Ġus ually
Ġprevious ly
") ]
ĠC all
Ġes pecially
cont roller
Collection s
Ġan g
Ar r
D A
ĠRuss ian
ĠIn c
Ġal though
de c
Ġapp end
Ġph ase
Ġinv olved
Ġ' <
Ġoption al
umn i
Ġobt ain
ĠD ec
Ġmain t
us iness
om a
Ð »
at in
ĠMich ael
Pro file
}} \
Ġst re
Ġtr igger
lo od
s afe
ĠI d
ue st
Ġin j
Trans action
Rem ove
ern el
sec urity
ĠAfric an
Ġse x
Ġart icle
Ġcorrespond ing
rec ord
~~ ~~
ĠS ince
g an
ĠO ption
Ġan aly
b old
Ġlarg est
li ament
Ġet c
ĠF I
Ġas ync
id ing
() ));
CHE CK
Ġ> >>
Ġcent ral
Ġopt s
L in
ĠCent ral
Ġbr ing
ent ity
Ġm us
or a
co in
ĠG old
bo ost
mer cial
Ġschool s
ĠTex as
Ġbook s
T S
Ġwe ight
Ed itor
m itted
Frame work
199 3
p ing
R AN
m ask
Ġpre c
Ġth us
Lay er
I B
Ġw alk
Cl uster
des c
ĠCan adian
ul ations
To String
7 2
Con dition
th read
Ġtr ansparent
in ct
9 2
Ġbuild er
sv g
in v
() ).
tx t
Ġstud ies
ro t
P refix
Ġop portun
i ses
over ed
Re ce
are a
A v
= {
Ġg ave
Ġdeg ree
Ġe ight
al ity
G rid
Ġc ore
ĠC he
op ed
ĠJ ew
le ep
Ġrepresent ation
F ound
ĠI P
key word
Ġs aw
Ġsup p
ĠIt al
ĠS al
Ġdid n
ed itor
atal og
. *
Ġdiff icult
ĠT om
Com ple
Pr int
7 8
w ell
ĠE ar
ĠJ er
Ġf ixed
ĠSc ience
ST AT
def ined
v ec
if def
9 4
ĠB ig
Prot ocol
AR Y
ĠC ode
; /
Ġf actory
ĠG ames
) "
Ġh ot
Ġex c
ĠIn itial
Ġab s
p g
ĠJap anese
Ġde p
ro ke
r b
Ġappe ared
ON E
Y ear
ĠM a
=" /
Ġme chan
oo th
ç ļ
Ġco ordin
Ġs en
ĠG od
Aut o
D S
omet imes
ĠThom as
Ġgener ate
S he
anc is
Ġrece ive
7 4
ĠP an
6 8
VER SION
Ġpl aces
A c
res ents
Ġproduct s
ig en
çļ Ħ
ele br
Ġv eh
9 3
sh ift
sp ring
N ULL
ang o
RO M
Ġbeh avior
Ġal tern
Ġpart ial
c b
ick s
b es
Ġstat ement
Se lection
Ġto ld
> ::
id x
Ġ er
En um
Ġso on
s witch
par a
ĠAs sembly
P P
p ool
AD D
Ġt ab
ĠCar ol
Ġlay er
Ġpr inc
th rows
ĠT H
ĠD ev
at tributes
ut ing
h ere
ou l
r or
Ġj ud
Ġup dated
Ġcour t
ĠCh inese
line ar
pro du
res hold
Ġcon structor
S R
at ically
p ay
X ML
A m
Stat ement
k i
b t
ĠSc ott
lo ok
ĠUp date
de cl
Ġinst it
Ġa uth
Mem ory
Ġeffect s
az z
Ġar riv
L en
chedul er
Head ers
Ġth ing
} ),
Ġs ources
pan ish
Ġs ports
Ġp refix
eps ilon
ĠS ing
m ore
f ail
b al
ĠM useum
Ġc he
s creen
ĠDem ocr
Ġd ro
ĠKing dom
F ull
ie ce
el f
Ġ_ .
S ER
ex pr
Ñ ĥ
ĠF alse
ĠM us
} [
Ġlevel s
u an
ĠR el
ential s
ĠH istory
z one
Ġpat ients
ext end
ĠM ad
sh adow
Ġsa f
6 3
Ġn om
199 1
Ġm ask
m aster
ĠM iss
S ync
ab br
Ident ifier
' ));
inst all
ĠC ath
Ġlarg er
Ġbir th
re set
ĠRe act
Des c
Ġjav ax
ĠT em
. \
s ample
Ġg ir
Ġp air
l am
at ur
il ing
ĠChrist ian
ĠT or
ĠF in
D U
Ġpro file
az ine
Ġintrodu ced
M B
6 2
evel op
Ġsh ift
p id
ĠMin ister
"> &
F N
Ġj ournal
h idden
Ġed ge
il s
p refix
LA G
av i
Ġb rowser
Ġsat isf
R ad
Ġform ed
S um
ĠM ont
} ).
Ġen abled
ĠCol lection
Ġro om
Ġmin utes
Ġno thing
ann ed
oc ation
8 1
pro file
AA AA
se lector
Ġprom ise
Ġdirect ed
n one
ict or
ong s
ic ated
TEX T
test ing
Style ID
Ġcoun ter
Ġc ulture
struct ure
Ġrepl aced
asket ball
W A
ĠM icrosoft
ĠIO Exception
m anager
Ġ$ {
Ġbegin ning
mo z
ĠOr der
UT F
r ation
Ġdec ision
An y
G lobal
F il
cd ot
ic en
Ġpl ant
S ocket
h ide
ol f
Ġl ib
Ġim plements
'] )
st e
ĠA v
Mem bers
ĠL o
Ġ Î
Ġenc oding
ĠSup er
196 0
it a
D ictionary
oper ator
Ġstr ings
S yntax
Ġin dependent
Ġrel ig
an i
ol ar
result s
am el
al and
se ct
Ġch ain
wh ile
Ġde bug
ĠWest ern
Pan el
ĠV ol
Ġ queue
O m
Ġdescri be
; "
Ġexp lo
ĠVir gin
RE AD
ancell ation
Ġlist ener
Ġw oman
n il
li br
EN TRY
Ġcou ple
Con f
ĠK ore
A X
block List
Error f
Ġcom ponents
pro perties
Ã §
Ġproble ms
Ġspe ed
ĠSh ow
ĠAcade my
f amily
Ġsc ore
ĠS ur
ps ilon
ĠG reat
ri er
VAL UE
Ġf ast
ĠCom mit
rior ity
Ġst ri
c os
dom ain
ĠCom mand
Ġdo ing
tt y
i ra
Ġact ivity
m aterial
pre v
ill er
ĠE mp
ig hest
Ġapp lied
Ġinte ger
Ġre ject
ĠI r
s lice
Ġobt ained
Ġk illed
Ġfail ure
Act ivity
Ġme et
( /
ĠT ask
Ġse cret
ĠP o
grad ient
ent al
Ġfound ed
ĠCon fig
Ġ[ [
E C
ĠRec ords
ĠK e
anc y
j a
Ã³ n
Ġr isk
IN S
Ġ ],
Ġfor ces
t otal
Ġp ers
iter al
Ġk m
ĠL et
tool s
ir ing
at ively
e ch
if ndef
O UT
cont ains
ĠFr ancis
Ġre comm
ax is
Ð º
s f
Ø §
et te
S ingle
File s
em on
ĠSm ith
AL SE
Ġt ouch
Ġrecord s
ĠF lor
Ad apter
w atch
Ġse ven
all ery
By Id
Ġfl ags
rypt o
th let
ĠM ax
Ġrun s
y g
B OO
Ġd ram
ra ction
Ġda ughter
ĠAcc ording
8 3
Ġ ess
Ġim ages
ĠĠĠĠĠĠ Ċ
Ġdom ain
F R
ĠN ow
ĠLou is
Ġgr ant
Ġde m
er ial
F r
ip her
Ġpro ces
umer able
Ar t
Ġlook ing
ish ing
Ġt it
Ġor d
Ġcap ital
Ġsh ip
T erm
D est
Com mon
li a
ail y
i ers
ific ations
Ġhe art
S ervices
res olve
{ "
Ġte ach
Ġm ut
Ġ_ ,
G amma
P ATH
Ġlo op
at re
Ġe lected
D ouble
ĠCopy right
Ġt mp
Ġd i
S w
head ers
n etwork
Ġp urch
ĠPro gram
BU G
pe ed
Sh ared
M ain
Ġab solute
ĠF oundation
Ġle ague
Ġp aram
ĠIs rael
', '
] :
(' .
Ġqual ity
} _{\
v a
s pecial
Ġrequest s
Ġown er
= #
g ers
rel ated
B R
ĠT able
Ġde mon
is ation
L et
B rowser
Ġd ensity
St ep
Ġo k
6 1
Ġget ting
N amed
ĠH istor
Ġc lick
At t
TR UE
Ġc ivil
Ġf mt
Ġse lector
ixt ure
k er
c lo
ĠC amp
f aces
e es
ma zon
Ġsc ient
Ġconst it
Ġepis ode
ĠV iew
Ġexp licit
Ġ% }
ĠEx ec
Ġre ached
ĠItal ian
Ġalbum s
re land
Ġd river
Ġf oc
ur t
Ġfem ale
en ge
is l
Ġm aster
pro gress
mod ules
ourn ament
198 9
cri be
ident ifier
) /
re y
f d
ĠN umber
Ġto wards
ix in
ĠChar les
Ġnot e
Ġmat ter
C ert
ĠR ail
ĠFor ce
D uration
HT TP
C ap
Ġcomp ared
irc raft
) ).
Event Listener
r angle
Ġsub sequ
ist ant
Ex pr
Ġrespect ively
Ġvari ables
ĠL ine
b rowser
ĉĉĉĉ ĉĉĉĉĉ
ĠL os
Ġpro per
ud d
em ph
sub section
Ġ ip
Ġmet adata
UR I
O ther
k y
Ġc ard
Ġprob ably
ĠAn n
-------- ----
Ġup per
Ġtra de
Ġm essages
ic ago
Ġincre ased
time out
ĠGr and
Ġsim ply
ab ilities
Ġlim ited
LO CK
Ġ$ {\
ant a
=" @
7 9
Ġhead ers
S eg
Const ants
Ġfin ancial
Ġ{ '
tern et
ĠL ake
Ġcon cept
F ailed
Ġappoint ed
Ġcre ating
Se lected
fil ename
Ġent ity
Ġsign al
Ġh idden
198 8
pro duct
Ġdes c
W R
i h
ĠO f
w rapper
b ad
Ġb ank
ĠJ ose
Ġsc roll
Ġan sw
######## ########
ĠFr ank
in ate
Ġlist ed
p kg
st ats
ĠV is
par ser
Ġco ach
Ġg old
Ġrem ain
6 9
ĠJ ava
n umer
fl ag
orn er
ï ¼
ut er
cont in
Ġre quires
he ast
ĠO ffic
st orage
Ġear lier
s heet
y ing
Child ren
y r
j ob
Ġfact or
ĠP ath
16 0
d one
} =
ĠPro f
Ġd rop
Ġtime out
Ġd ir
M apping
Ġe vidence
Ġem ail
ĠCom mission
P ublic
b i
IN D
prot ocol
it ation
198 7
Ġst ay
con trib
c i
f ort
test s
ch ain
urre d
J ava
ous ly
N ow
Ġpro ps
get Name
o th
L P
C I
R oute
7 1
Ġorgan ization
ist ers
Ġs ens
Ġart ists
Ġpract ice
ĠA R
Ġsize of
ĠZe aland
Ġtreat ment
ĠI E
ĠU N
! [
T ABLE
Ġr g
Dom ain
! <
) =
Ġpos s
th row
ĠSe cond
Ġm ention
Ġcol lect
Ġcomp os
ĠInt eger
! \
Ġtrans late
on ym
Ġequ ival
U ri
err ors
a ud
opt s
Ġgu itar
Ġpro posed
A uthor
l g
id ay
f ect
d ot
d ed
Ġtest ing
RE G
Ġleg al
[ \
er c
ĠSum mer
Ġ" ,
Back ground
Ġle ader
L INE
ĠP eter
ig er
ĠB ill
ig an
param eters
Ġa xis
ac count
j query
ĠCO VID
Ġgrow th
Ġide a
Ġcell s
Ġex hib
sh al
Ġp ush
rem e
Ġlet ter
Ġde ad
it o
ĠPro v
) ->
F n
ĠĠĠĠĠĠĠĠĠĠĠĠĠĠĠĠ ĠĠĠĠĠĠĠĠĠĠĠĠĠ
Ġs low
igr ation
Ġstud io
at o
Ġad apt
ĠM el
ĠC ap
7 3
ĠB ook
Ġl ack
or ter
S U
S pace
in valid
P romise
app ed
Ġle ave
Gener ator
Ġsc ience
Ġpresent ed
Re p
j oy
ser ial
Ġ ui
ĠC ast
g it
Ġfamil ies
ĠT ri
P erson
ĠWindow s
Hel p
e cho
Ġcont roller
k m
ĠD i
ch or
sp irit
Ġdeterm ine
O pt
Ġpl aced
ĠCol or
lo ader
Ġf un
Ġg as
12 8
Ġman ufact
ĠĠĠĠĠĠĠĠĠĠĠĠĠĠĠĠ ĠĠĠĠĠĠĠĠĠĠ
I ST
Reg istry
act iv
ĠSer ies
Ġ> >
Ġa ctions
ĠInd ex
Ġthem selves
ĠT op
ĠRich ard
Ġfor ms
ion al
Ġde mand
Ġis n
ex pect
ĠR ock
r ule
l imit
Ġany thing
Ġphys ical
Ġcom ing
C F
Ġb uf
ĠM ass
Ġgre ater
k ens
" /
Ġpub lish
Ġpre dict
z ure
^ *
g rade
Ġn u
typ ename
R ole
d im
i ate
ĠPar is
Ã ¨
con structor
F IG
Ġ ];
Ġb asic
Ġevent ually
ĠH ill
Ġb its
ach ment
ĠG overnment
H igh
ol a
ist ribut
ĠL ife
Pro gress
check ed
ĠSt art
==== ==
os h
mat rix
riter ia
Om ega
ov ers
N V
n am
arg uments
L java
Ġf r
Ġp y
ĠM odel
ing u
Ġconst raint
O B
ĠA SSERT
form s
c pp
d x
are t
ĉĉĉ Ċ
Inter val
Ġse em
Ġask ed
Ġen able
Ġrem aining
check box
Ġexper iment
pre cated
ĠP lay
ĠT wo
Ab stract
let ed
ĠE ducation
Ag ent
Ġch arg
TI ME
U SE
Ġem erg
ĠW omen
ĠO p
Ġactiv ities
Ġ' \
ersist ent
S uccess
ĠS O
PRO C
ĠA ND
Ġl icense
log ger
ĠH ash
Ġ" <
Ġst ated
s ys
Ġinter view
Ġim m
ĠHT TP
Pro duct
st ant
Ġgiv es
Ġart ist
ĠA c
org an
M I
ĠP ub
L L
Ġimmedi ately
ĠGe org
Ġb re
M ath
ce ptions
Ġbro ught
et es
Ġc elebr
v are
T race
os en
S imple
Ġy ield
h ouse
Ġbuild ings
ĠI ll
Ġinvest ig
ĠF ootball
Ġmult i
Ġag o
ĠĠĠĠĠĠĠĠĠĠĠĠĠĠĠĠĠĠĠĠĠĠĠĠĠĠĠĠĠĠĠĠ ĠĠĠĠĠĠĠĠĠĠĠ
De legate
Ġ" -
ic ator
h y
Ä ģ
sh all
Ġd u
P lay
r um
pro xy
198 6
Ġdemon str
Ġeffect ive
ĠRuss ia
ou ter
Ġun known
Ġxml ns
T V
ã Ģ
d ialog
w riter
ro om
ton soft
Ġdec ided
Res ources
al i
Ġf oot
ex ists
k o
ĠEx p
Ġmov ement
Ġd ark
tab s
Ġm ind
ĠM r
he el
Ġoriginal ly
Ġpass word
Ġal umni
Ġincre asing
Ġth reat
Ġre ct
s ince
g s
the mes
Ġt im
re es
EN SE
f ound
Ġle arning
irt y
ĠSt ar
DO M
Ġw allet
ĠMed ia
ĠEng ine
Ġin cor
Ġproject s
Ġbroad cast
ĠN etwork
H R
id ence
Ġd ed
Ġs ense
A CT
Ġbro ther
rid ge
f ire
P ay
Ġen um
k w
Ġre tr
N OT
se m
ĠCommit tee
un ched
evelop ment
Ġtra in
Ġget s
ev al
con n
as ure
Ġent er
ov a
$ /
var phi
Ġs plit
alle l
or iginal
Ġun less
Ġprot ocol
Ġra w
I MP
Ġst ations
Ġse ll
Ġv s
and ra
Ġrem ains
ful ly
iz able
ĠA ust
Ġstud ent
: [
ĠD u
Ġex ternal
Ġb asis
Ġp ark
Ġgr id
Ġpl ugin
Eng ine
Ġmed ical
Ġe arn
ĠF ilm
} </
198 4
Ġ' ';
ut ch
ĠG en
Dep end
Ġg un
W ord
Ġh ighest
@ "
G en
Ġ[ "
str ument
ĠBo ard
config uration
Ġs ch
Ġweek s
pe ople
s ur
right arrow
F S
Ġsc en
en able
ver ter
Ġcall ing
End point
t ags
vari ant
tem p
as y
ĠB it
Ġ ir
ĠRe quest
B ound
cl one
b m
LE CT
ĠF inal
prot ected
Ġopen ing
Ġh um
Ġpar ser
Ġs n
Ġsp ent
serv able
ĠSec ret
Ġvis ible
ec ause
M C
Ġinv ol
D b
ĠM essage
ag er
ĠĠĠĠĠĠĠĠĠĠĠĠĠĠĠĠ ĠĠĠĠĠĠĠĠĠĠĠĠ
j unit
con sole
ex ternal
ĠBOO ST
Ġb ur
ĠS panish
un ique
Ġin sp
F LAG
ast e
) $.
ĠCath olic
Ġful ly
ĠM ake
Ġsh all
Ġsh ot
ĠCh ild
ĠM ost
Ġcom mercial
option al
f ix
Ġfootball ers
Ġwant ed
Ġm ur
Ġb tn
Ñ ı
an ced
Ġ ).
G R
198 5
Ġa wait
t im
Ġfe ed
e lem
B E
ir med
Ġfour th
Ġen v
F act
Ġant i
m ut
Ġdel iver
Ġrec ently
u ilt
m ouse
in y
: #
Ġtrad itional
N ative
ĠU nder
Date Time
Ġc ategory
ol k
sc ss
ĠFlor ida
Ġin ner
ge les
ed ge
ĠS QL
Ġsmall er
r ate
IC E
Ġdiffer ence
as sets
B inary
P si
Ġmean ing
ĠAl so
ĠD om
H ER
M ask
Ġobserv ed
b its
in et
Text ure
Ġrep resents
IT ION
int elli
load ed
%% %%
ĠI reland
ateg ories
Sh ape
Ġm enu
n amed
Ġan im
Ġevery thing
B O
ar ia
Ġcol lege
ĠOlymp ics
Ġf avor
CE SS
anc er
ar ian
exec ute
Ġch unk
Ġappro pri
de mic
ĠU k
ans ion
ib ly
M ed
F UN
Ġme eting
ollow ing
intelli j
Ġf ix
C ar
Ġm icro
com ponents
n el
ot ing
Ġ\ ,
is ions
Vari able
ĠM il
libr ary
Com ment
Ġfore ach
IP T
eng ine
ĠV ictor
br idge
Ġcause d
ĠY our
ĠP oint
Ġres olve
Ġqu arter
ĠL in
P UT
C or
it iz
ĠCh icago
St ats
ĠW AR
Vert ex
Ġmin or
Ġocc up
in clud
ĠS il
pro of
% ,
Ġopt im
Ġab stract
Ġp en
ad s
V G
ĠP enn
Ġecon omic
Ġrepresent ed
raz il
V ideo
ing er
Ġresp ond
Ġs ometimes
^{ (
> '
Ġd im
s ingle
r andom
pl atform
ĠU I
ock ey
Ġcompet ition
ĠAn geles
Ġtry ing
ĠVirgin ia
CO MP
New tonsoft
}^ {\
Ġ{ },
Ġf it
cre d
re v
I VE
' ll
RE S
ĠDO M
Ġcoll abor
Ġtyp edef
Ġeas y
de fer
p df
W N
Ġthere fore
B S
g a
Ġab ility
n y
An imation
Ġse ek
Ġbe comes
j ar
L imit
W orld
Ġcrit ical
Ġneg ative
ĠL u
wik i
ifi ers
ex tern
ĠO ur
Ġc le
ĠIt s
******************************** ********************************
trans ition
I V
19 50
ra se
ĠD en
Ġdig ital
Ġprogram s
Ġan imation
Ġuse ful
ĠB ank
ĠL android
Ġtem p
Ġcon nected
ĠVal id
Ġp ool
ab it
Tr ansport
Ġv oc
Ġlay out
Reg ion
ven ue
u ages
p od
ĠG al
Ġset up
p attern
ell ig
build er
P y
Ġgener ally
ĠIn v
Ġsepar ate
pro vider
pe ated
Ġb inary
Ġ" $
F inal
Ġsc ene
Ġm unicipal
Ġre strict
Ġold er
ĠH ere
vare psilon
Re pository
ĠAr ts
Ġmov ie
sh ared
Ġparent s
n ce
as ync
__ )
ĠOn ly
Ġcrit ic
Ġm ixed
. ");
o ch
E M
Ġover all
Ġprot ect
det ail
i ro
Not e
det ails
word s
h ol
Ġappe ars
ĠLO G
=" ">
F low
Ġgr and
b ot
Ġal gorithm
ou ses
N T
for Each
ak ers
G r
oun ce
Ġrem ained
Det ails
> :
sock et
Ġsum mer
Ġa ircraft
Ġlate st
r ift
Ġf riends
E V
Ġref lect
Ġ" ",
Ġn ature
Ġfeature d
ĠG ame
yd ro
Ġc md
Ġread y
ĠR et
S cal
j Query
re lation
NavBar Cell
C red
n odes
Ġpro xy
y an
M ouse
Ġdis abled
S ort
L a
p u
Ġpre d
Ġg reen
Ġtrans l
198 3
P ER
an imation
con struct
Test Case
ĠM ain
Ġre ach
f it
ov iet
Im port
Ġpro te
Ġinter pre
Ġsecond s
j ango
at ible
' ];
ĠDirect or
Ġh y
L D
ĠB ack
ĠS pec
Ġre set
Ġgo als
chedu led
Ġ{ {
IG HT
ate way
ĠC D
Ġse m
Ġf ill
ĠRev iew
ph one
ce ler
at ri
Ġexec ute
Se ction
ĠT imes
ĠAN Y
Ġblock s
ĠH ttp
Ġt x
ĠS ocial
SS L
ĠS ol
ish op
re lease
Ġchar ge
j i
Ġknow ledge
Ad min
ĠO h
ilt ers
en ses
her ited
Ġde lay
run time
Ġw ays
Ġsa fe
ĠE lement
se ll
Ġstruct ures
Pass word
ĠL ibrary
C RE
include graphics
Ġparticular ly
ĠRes ource
ĠI l
Ġbl ue
Com par
F ORM
ĠJ ournal
iss ues
ĠX ML
M ore
cre te
sum er
sy ch
' ve
od ay
ain ers
ĠTe am
pp ing
H A
ext ension
Ġtemper ature
ĠF estival
oc ity
h ome
F E
Ġw rong
ac ro
W ORD
it able
iver se
Ġbr anch
Ġre ader
P ub
Ġl ives
icen sed
Ġp ri
h orizontal
co q
Ġprodu ce
INT ER
ĠMex ico
Ġex it
Ġst ored
ĠL ocal
ĠS un
d ere
w ar
require d
f x
ĠHen ry
Ġcolumn s
it ors
Ġagre ed
e ffect
Ġst ars
ĠO ld
ĠA ction
Ġa cade
im a
Ġ que
U D
ic ies
198 2
Ġpan el
G u
T A
Ġp riv
and a
cl uster
S ince
. ~\
Ġstre ng
33 33
ĠB ur
equ iv
T ags
dest roy
S ample
ĠT our
am ing
. ",
St op
d river
ad ium
(' /
Vis ible
ĠCarol ina
v ant
i ated
Ġse ems
Ġsup ports
ron ic
Ġpr ice
Ġbo ost
Ar ch
u ing
Ġchall eng
f ixed
Ġm eta
ĠIt aly
in em
Ġext ended
/** */
ĠS y
Ġfore ign
Ġmin imum
de velop
ĠA S
Ġdr ug
MO DE
de g
Ġde ploy
Ġ eth
Ġact or
d p
Ġ/* !<
ran ch
Ġc ursor
ĠF ig
Ġign ore
Ġb attle
ĠP et
az y
Ġident ity
Ġm achine
Ġsign ature
Ġcap acity
> ()
Ġmed al
= &
Ġvers ions
' m
ĠSw ed
ĠF ire
Ġsur round
ĠK n
ian o
Fl ag
Ġval ign
v ey
em bed
Ġbel ieve
st ar
_ );
res ources
ain ment
side bar
ro le
Ġpre v
I gn
over line
C ast
Ġplay s
cl aim
ĠA tt
ic ine
Ġex am
Ġqu ite
Ġacc ur
ĠS pace
f actory
Ġaward ed
Ġpur pose
ceed ed
am ous
15 0
m id
Ġend ed
Ġsc ored
Ġp refer
RE Q
Ġwh om
ĠCong ress
Null able
Con structor
ĠP op
Ġext ract
b ing
D on
Ġcre ation
f ly
ad y
ĠK ar
D iv
st one
L ower
Ġla unch
Ġsp an
Ġp ages
support ed
Con n
v olume
Ġw or
A SSERT
å ı
ap pro
Mult i
C ategory
ian a
ĠH ot
Ġd rag
Ġinst alled
Ġapplic ations
Method s
Ġsh oot
ĠOff ice
r ine
Ġhouse hold
J ohn
s b
ra pped
ĠB i
rad io
ip l
Own Property
f c
Ġs chema
Ġdet ail
197 9
Ġwork ers
Ġch oice
L ook
em it
L ambda
y cle
Ġresult ing
ĠS und
Ġlog ger
end or
h ar
it z
ent y
ĠL and
ĠN AME
at i
Ġst ories
oper ation
Ġc li
ĠT im
U ES
Ġpres ence
Ġc hem
Ġmanag ed
iagnost ics
Ġrg ba
DE FAULT
Ġstr ategy
Ġse gment
Ġpl ans
ĠG lobal
Ġla unched
RE E
" ],
u ite
ĠSc ot
Ġdiv ision
ĠEx ample
ĠG l
o z
Ġt err
Ġv an
ĠRem ove
FN GL
Ġ ^
Re port
Ġp aint
Ġredu ce
Ġ' '
Se quence
" },
Ġturn ed
Ġre li
ic an
ĠM ur
Ġgo es
Ġ( [
Not es
) $,
Ġun ion
w hen
Ġm ix
M ove
ĠB oolean
Ġm ission
B IT
Ex ample
Ġrem ote
Ġnot ed
Ġst ra
P rivate
Ġsome one
gener ated
Con vert
orn ing
J oin
text bf
M ake
E arly
W ait
pl us
ipp ed
Ġmatch ing
Ġvert ical
Ġoff ers
C apt
ĠF ace
re du
ĠM ult
ĠE r
Ġra ised
ar ant
! !
ĠP ass
ĠJ un
v ideo
pl ing
ĠPe ople
T x
Ġocc ur
ĠAt l
Ġthem e
198 1
Ġquick ly
Ġcomple t
ĠP age
INS ERT
as ion
in f
ud get
T otal
Sh ort
Ġhigh light
com mit
b ul
Ġent ered
ĠMart in
t c
Lin q
ub ern
Ġf igure
ut s
Ġsing er
Ġcommun ities
ĠS pecial
Ġwin ning
Ġen joy
Ġsp read
ĠD im
imit ive
Ġnear ly
PO ST
lic t
s ync
Ġpolitic ian
ĠB lock
Oper ator
Ġsu c
Ġw ood
Ġmov ing
Ġde cre
hel per
d uration
Pro to
(' #
Ġag ent
I X
Ġload ed
Ġs al
Ġd imension
D uring
ov ed
Ġcomput er
Ġed ition
ĠP RO
ĠA wards
ac ific
ST ATE
ĠW ill
Ġinter val
k in
in herit
iv ery
Ġprovid er
Ġrespons ible
p a
Ġelect ric
Ġde termin
ĠN avy
Ġmod ified
Ġvari ety
D river
A xis
ĠM P
t k
ĠP ack
or ation
aj ax
Ġautom atically
Ġsay ing
Ġatt ention
aw a
clud ed
ro ute
Ġf arm
Ġad opt
Ġcomp are
ir us
ĠL ove
it an
ĠCom mon
ĠYou ng
**** **
app a
valid ate
ĠE ach
serv ices
Ġd uration
c lean
197 8
p ower
A F
on ce
ĠT R
. }
at omic
Bind ing
ME TH
Ġpro to
Ġassert That
Ġw arn
Ġindividual s
ĠAl though
F in
mon th
i en
() ))
are er
8 00
ĠRes ult
f g
com ple
ĠJ o
up lic
Ð ´
Ġbe aut
197 2
w arning
olog ies
iagnost ic
Ġapprox imately
in ity
ĠTr ump
ĠG ood
Render er
ĠCh ief
P air
ge q
Ġd ie
f mt
ĠOption al
IN FO
H ome
Ġ rows
scri be
ograph ic
Ġwrit ers
Ġin form
ĠB rown
pl ates
Ġhold s
z ip
ĠD evelopment
Ġprodu cer
cal led
ĠF ind
> "
p ull
Ġre ports
D T
um es
ĠSo ftware
Ġv oice
st ra
Ġid x
Ġ{ "
v s
Ġhigh ly
ĠIm age
C ALL
Ġmajor ity
Wh ile
ĠW al
Ġprocess ing
ĠN av
um my
Ã £
as sembly
Ġbr and
ĠA rab
yl van
ra st
Ġc ancel
ĠVal ley
B P
. <
up load
tr l
ap is
197 6
comp iler
AR G
Ġde pth
ang ing
L ibrary
met ric
ot imes
Ġcar ry
Ġent ries
p erson
own er
d ing
ĠS aint
ĠIn put
Ġdeterm ined
class Name
Ġocc urred
S pan
t ers
Ġb asketball
M ay
s a
ut ral
1 20
Ä ĩ
ĠO l
ĠH ome
R R
Go ogle
Ġgu ide
ap ers
m ir
Ġe q
ind ent
ĠA mazon
196 8
Ġass igned
ĠS ets
ĠF ort
Ġh ope
ri age
Ġview s
(" /
Ġd iag
Ġcandid ate
on a
id ae
Ġw ild
t or
us ers
ĠL ink
Ġco ast
ĠB usiness
anc ing
ĠS to
Ġnot ice
D em
Ġprovid ing
Ġt ournament
Ġf ederal
ĠAn y
ell ing
> ;
S ymfony
Ġ@ "
Ġcon version
Ġsaf ety
user name
ĠK h
ok ed
}, \
cond ition
Ġquest ions
w er
clus ion
Ġmult ip
h ref
G LE
ĠLe e
ĠSe ction
) ^
spring framework
Ġpr ison
c over
S K
Ġpe ak
Ġequival ent
ĠHe ad
ĠG ar
VAL ID
dere q
Ġex pert
Å ¡
ĠM ov
v c
Ġann ual
Ġtr ust
d ig
d y
Ġb all
: `
Ġs ql
form ance
Ġserv e
Al low
et ween
Ġpo et
ĠB re
197 5
ĠSte p
ĠEn ter
r uby
Ġn p
ĠF ree
Re quired
create Element
stit ution
log in
S ql
Ġsit uation
comp ile
w p
ic ip
Ġpr im
Id s
ak a
item pty
A rea
lang le
197 4
M er
we et
AT CH
Ġse qu
(' ./
om itempty
fra k
Ġcont ents
s ure
ĠW rite
li e
; }
Ġdise ase
r ich
mer ge
Ins ert
Ġon es
g est
197 7
S l
L anguage
z ero
k ins
Ġpress ure
p at
H tml
ier arch
ancellation Token
Ġstud ied
Ñ Į
ĠH AL
B egin
Ġh ospital
Ġin come
Eng lish
Ġcomplet ely
Ġv el
ed om
M T
c irc
Ġ il
Ġread only
Ġar m
ust rial
medi ate
ĠA uthor
ĠIn s
Ġver ify
m box
Ġtool s
t body
Ġk ing
ĠC ustom
Q U
ĠL i
ĠS ource
Ġse a
Valid ation
Ġ= ========
ell a
ĠPar liament
se quence
Ġestablish ments
CH AR
ylvan ia
ĠH aw
DE BUG
ĠC ross
por ation
Ġsk ip
os oph
ĠCre ates
ĠA li
# {
display Name
ĠG i
re port
Ġdoc uments
sk i
at ar
ĠH am
Ġph il
ĠJ im
Add r
re p
] ))
Ġident ified
Ġappropri ate
RA Y
Ġus age
Ġimpro ve
ip ment
us band
element s
z en
Ġa ffect
d ocker
Fail ure
Ġneigh bor
Ġw ind
Ġgiv ing
AN T
Ġgener ation
Cl oud
Ġw arning
Ġpo or
Not ification
Str ategy
Ġown ed
ĠSec urity
math frak
Ġregister ed
ĠSt at
ans as
ubern etes
ĠS ervices
Ġb ul
A re
ĠF ROM
Ġbe y
l at
l an
und red
ev en
sign ature
o les
ce an
ak istan
ĠT re
Ġreg ions
á ĥ
pect ive
ĠM anagement
App end
197 3
g reen
h line
METH OD
{ %
Ġexec ution
G ER
= (
Ġpro ced
Ġfor ced
Re lease
Ġl if
Ġa udio
ĠJose ph
En ter
ĠJ ud
group s
second s
A udio
Ġg al
Ġr iver
Ġv ote
Ġdocument ation
ĠP romise
che n
li z
ĠArray List
ĠW ood
pri se
ĠB razil
g ame
Char acter
lo op
Ġvalid ation
ĠĠĠĠĠĠĠĠĠĠĠĠĠĠĠĠ ĠĠĠĠĠĠĠĠĠĠĠĠĠĠ
N ET
D ATA
Ġ' ',
ĠB ul
Ġposition s
Ġsen ior
Ġex change
Ġframe work
Ġsuccessful ly
Ġp lot
Ġwe ak
Ġlaw s
ad or
Ġd ict
com plete
Ġch ief
Ġd raft
Ġsp irit
Ġmost ly
se ud
ĠM ock
Pro gram
dis able
Ġbey ond
? >
net ic
C md
stand ing
Re quire
Argument Exception
Ġ ul
m aven
Ph i
Ġd ialog
12 3
load ing
Ġs ites
col lapse
S ome
Ä ±
DE F
ĠIN TO
Ġp p
Ġmus ical
Ġs ync
Ġder ived
get Value
Ġpro of
ug by
ĠW ales
ĠE v
B asic
Ġh yp
Serial izer
Ġf le
Ġw idget
exp and
Ġrepresent ing
Ġch oose
s ass
Ġis land
y er
Ġiter ator
ole c
ex ist
Ġres erved
s ive
ĠPro perty
Ġrequest ed
pr ime
Un known
A ng
Ġp ull
ĠZ end
Ġdet ect
Ġhe avy
f ast
at ers
Ġn orm
ĠCont rol
Ġspec ify
< !
V M
is hes
ag ination
Return s
'] ['
Ð ²
as hed
ss l
=" ${
in ations
Ġmet al
vis ible
can vas
Ġcl in
gener ate
ore ign
ĠChampionship s
d i
ĠAp ache
Ġas sembly
ĠM iddle
M IN
Ob server
Com plete
on ic
ĠCol umb
Ġfin ish
Ġmur der
ĠC SS
: \
OR TED
ĠL em
LO C
Ġchar set
Ġnav igation
S creen
D rag
on al
197 1
Ġadmin istr
go ing
Group Name
Ġdest ination
ĠS D
19 40
is c
Ġoffic er
Be an
ĠE con
ĠD ocument
ost on
add Class
NS String
Ġb rief
Ñ ĭ
Î ±
Ġf ig
up s
Ġ- =
pend ing
ĠEar th
ĠU s
ĠUS A
F ree
Ġl atter
ard en
Ġg overn
R T
ad ing
R aw
ĠIr ish
F ragment
Ġp lease
En vironment
get Element
if ul
Ġbe coming
Ġass ign
Us ers
D IS
) [
Ġs ys
py thon
Ġm ouse
ĠSup port
Ã£ o
Ġp ul
Ġstart s
Comp iler
is Empty
Ġs ociety
D at
Ġlead ers
196 9
Ġf lex
s he
ĠRad io
Ġshow ed
ĠAd min
ĠJ S
Ġse asons
Ġvis ual
Ġ ult
B order
ĠM en
Ġequ ation
Ġadd ing
ĠS oviet
Ð ¼
ous ing
STR ING
lip se
s ome
Ġre b
AT ED
re act
ĠI ran
Gener ated
ch unk
H S
Ġredu ced
Ġappear ance
AT TR
ĠNor thern
ult y
s ylvania
ON G
n ab
Ġr an
Ġmer ge
ĠP ri
ĠAs ia
w arn
W rit
194 5
Object s
ou b
ĠII I
pl ain
Ġser ious
Ġf if
Ġvalid ate
fe ature
Ġdis k
ser ies
ab y
Ġinst ances
or igin
Ġdev ices
ĠPro cess
C B
c atch
ĠĠĠĠĠĠĠĠĠĠĠĠĠĠĠĠ Ċ
W atch
Ġal leg
w a
Sh arp
Ġ ice
Ġill ustr
OR Y
ĠV ector
St atic
Th row
Ġ' .
Ġcomm ission
o ir
Ġrun time
196 7
se lection
mon d
Ġcon cent
ic ations
ur er
B ook
Ġdes pite
ĠS ar
Ġle aving
ĠB ob
Ġ" %
ĠL L
rac y
ul y
as er
Å į
Ġsol utions
un ct
Ġinflu ence
Ġcom ments
Ġdepart ment
ĠH a
FF ER
Ġcent re
Ġmaterial s
view s
en ant
SE LECT
ĠCent re
Ġeas ily
Ġsurv ey
P layer
Ġorgan izations
D ay
m ann
Ġro ll
D rop
Ġd ynamic
ĠSt atus
x s
Ġar rest
ĠVAL UES
vert ical
Î ¿
Ġ" ";
Ġst eps
Ġint ended
">< !--
Ġs quare
; )
go og
'] );
Ġdr ive
Ġm d
w an
Ident ity
ĠBl ue
if fer
=" $
erv ation
Ġas pect
Ġs cheme
MO DU
Row s
MODU LE
Ġad just
Ġassum e
C ONT
por ter
Ġnew sp
s en
igh ter
ĠC ard
h aps
ĠP ower
Ġc b
con cat
% )
Ġsum mary
19 30
S ave
Ġf irm
R C
Ġagre ement
En v
object s
d rag
ID TH
od ies
ag ger
po ses
ra ine
Ġ' %
ĠJohn son
am az
ĠR est
aw n
C ursor
ãĢ Ĥ
> )
ĉĉĉĉĉĉ Ċ
Ġinitial ly
Ġatt ended
local host
ra it
N ormal
Ġcons ists
qu is
ĠEmp ire
Ġf air
Ġcomb ined
25 0
Ġnull ptr
air man
ĠW IT
T T
Input Stream
Ġl ived
est er
clus ive
Ġj s
Ġhelp ed
r ick
ĠIn formation
Ġs outhern
uff ers
d iff
Ġcan cer
Ġrefer ences
Ġs light
ix els
g lyph
ĠWAR RAN
b g
19 64
N C
t race
Ġop acity
Ġc at
}} $
ĠD own
set up
sub set
^ ^
Ġnor thern
Map per
ĠO S
Ġenc our
Ġn ation
Ġper fect
const ant
F older
Ġvoc als
Ġo il
ĠRe port
ĠSp ain
Ġch ampionship
Ġc itiz
ĠH on
å Ī
Ġh usband
LO W
eng er
def inition
ĠG re
; ">
An notation
ind er
Ġw orth
0000 00
con vert
Inst all
Ġexact ly
ĠS ir
Ġst ock
el astic
Ġo l
Ġcl imate
Ġr atio
CT YPE
ĠSh ort
Ġc ounty
res p
Ã ±
im p
Ġaccept ed
Ġon to
assert True
E ffect
Ġem b
ĠTechn ology
\ /
Ġb lood
Ġg a
ĠThe ir
Ġmag azine
ext ra
ac cept
Ġv acc
Ġde b
Ġimplement ed
Ġcar ried
Ġoper ating
ĠMich igan
al ias
Ġoffer ed
Ġeffort s
Ġcover ed
or ial
Arg uments
C lear
ĠB attle
, -
Ġbound ary
Con nect
Ġnumer ous
R ob
f lex
s imple
ĠC A
Ex pected
ĠG ir
B atch
Ġevery one
Lo op
Ġp i
bo se
Sum mary
im inal
Re v
Ġsp in
h l
um s
ec es
Ġopportun ity
6 00
Group s
k l
L Y
ic ode
Ġ" '
Pl atform
al o
Ġp il
B its
Ġc ensus
Ġs ynchron
Ġexample s
Ġsup ply
ĠS ign
ĠCon ference
I A
ĠDemocr atic
Not Found
ap h
ĠCh annel
T imer
ĉ ĠĠ
non umber
L android
Ġg uest
AR B
P U
ul ator
O F
d imension
Cont ains
col Last
ass ign
ĠB or
Ġmon itor
Ġocc urs
ash ion
ellig ence
ĠL ord
ta iled
print ln
S M
l arge
tr im
os is
AN CE
, '
Ed ge
is set
Ġapplic able
Ðµ Ð½
Ġtrack s
Ġf elt
Ġf ans
lo ts
uz z
Us age
iqu es
ĠProv ince
em porary
ĠFace book
y y
o ices
ch a
ĠPenn sylvania
19 20
Ġz one
Res olver
Rem ote
n ative
ĠWe ek
Ġh or
enn is
rem arks
ĠW ell
Ġtyp ically
al og
Ġlabel s
k appa
ĠP rem
Ġm erg
pop up
ĠT w
EE EE
ust ain
ĠB ow
ĠC lient
pe ar
196 5
C ur
ĠM ah
Ġc amera
ld ots
ĉ ĠĠĠĠĠĠĠĠĠĠĠĠ
Ġ\ "
on ed
ĠJ ones
al ing
Ġun iversity
Ġess ential
Acc ording
s id
Ġb illion
Id x
c ursor
Ġcomput e
Ġsample s
Ġ| =
EL D
ĠR am
ry ption
Ġbind ing
F ocus
im ents
ĠĠĠ Ċ
Ġs ales
Ġth r
Ġext end
Ġpath s
Act iv
Ġhapp en
de m
w ild
196 6
Pl ace
ord ers
I AL
em y
Ġident ifier
Ġ' "
rain ing
Ġ" .
ct rine
Ġad ult
plement ation
Ġ= ======
d ash
T wo
t ouch
ge bra
An alysis
ic ol
pon s
Ġcol on
B AR
Ġtask s
ĠS outhern
Exec ution
The lia
Ġc ities
ĠTh us
ĠM any
z z
Ġc ook
Ġs b
high light
col First
ĠG reek
Ġstr ateg
Ġac com
Ġfrequ ency
ĠP acific
Al loc
Ġj oint
_ )
Ġc ru
SC R
il a
tool bar
ex it
Ch art
B Y
S im
urb an
S erv
Ġt ags
" ].
Ġdes criptor
Ġperm issions
pol icy
ig a
ion e
i ar
rt l
Ġrelig ious
ay lor
M any
bl ank
Ġtri al
S ur
re peat
IO Exception
h pp
f lo
ĠL ab
Ġproces ses
ĠAb stract
= -
ĠE p
ĠPol ice
DO CTYPE
mem ory
C G
eth er
Pro du
Ġ ×
s n
ts d
Ġcl one
Ġiss ued
ino is
Ġp iece
C areer
b ro
Ġorder ed
Ġfore st
ur ies
D r
T F
ĠCommun ity
Ġrail way
Ġn ine
ĠÂ £
C LASS
ap es
Ġse at
F amily
Ġ ..
os itory
Ġansw er
stru ctions
ĠOh io
Ġpart ies
Valid ator
Ġs ocket
use t
Ġvict ory
to Be
» ¿
ĠCon vert
Ġcon n
. """
M essages
Ġcl oud
Ġpay load
() ),
M anagement
greg ate
Ġar my
Ġhistor ical
ĠM os
Enc oding
r g
p b
ivers al
En umerable
Ġst yles
US ER
} -
j d
ä »
Ġdist inct
Ġpart ner
ĠHistor ic
d c
p ared
cont ents
Ġdram a
anag ed
d atabase
Ġth ous
Ġfact ors
ĠP O
b en
ĠBrit ain
Ġang ular
ï »¿
Err ors
g oto
comp are
ĠĠĠĠĠĠĠĠĠĠĠĠĠĠĠĠĠĠĠĠĠĠĠĠĠĠĠĠĠĠĠĠ Ġ
S I
ĠS IZE
W arning
atri ate
ri ev
Const ant
UN D
ĠU til
ĠSund ay
art icle
L eg
ĠC ivil
av ailable
Ġrel ations
ĠH uman
Ġoffic ers
ĠI ter
Ġh ol
a ver
Ġc lock
bold symbol
ĠFrancis co
ent h
ic ed
Ġr u
S ep
B r
cal endar
is ms
om er
Pl an
Ġgrow ing
ĠI L
Met rics
Ġmention ed
Ġstra ight
Ã ¢
t w
re ce
Ġf amous
Ġt ensor
Ġend point
Ġdown load
S ame
v ol
c ountry
Ġra re
b atch
ĠL oad
Ġal one
c our
bl ack
aly t
j pg
Ġres idents
ĠW ater
Ġph one
Ġest imated
ut down
ĠJ ac
ow ers
ke e
enc ode
Ġ? >
Ġd ynam
uss ian
s r
Sk ip
ot ic
E mit
ĠWilliam s
as m
has OwnProperty
ĠA ff
N UM
ĠBo th
onym ous
ĠGeorg ia
BU FFER
po inter
Ġf iction
bl ue
amaz on
ĠS earch
ĠDe lete
w orld
s in
nav List
Ġclaim ed
Ġpre m
ĠR h
ra wn
HE AD
ĠAl bert
Ġm apping
Ġp le
ch anged
los ure
Ġdefe ated
Ġes cape
Ġreve aled
if ically
. ;
Em ail
ĠP akistan
Ġrecord ing
ĠS E
Ġd og
; \
ĠC ount
DE X
Cont ents
Ġch osen
Ġm obile
Ġt d
ĠIs lam
Ġexpand ed
ĠRes ponse
ch er
Run ner
ĠJer sey
sp i
u v
C M
EX PORT
ĠE lect
Ġcompar ison
B B
Ġr ates
ĠÐ ¿
Ġbel ong
Ġ ----------------------------------------------------------------
Ġb ug
ç Ķ
Ġreturn ing
k t
ĠQue en
". /
Ġj ourn
Ġdecl ared
ĠAL IGN
ð Ł
ay a
gy pt
ĠAs ian
n i
Ġclaim s
ĠV an
Ġrele vant
dis patch
Ġrefer red
all classes
ĠO x
ag ent
V irtual
O M
ĠSt andard
re ader
Ġres olution
Ch unk
Ġcapt ure
Ex port
Ġconstruct ed
Z one
Ġa im
Ġindic ates
Ġelection s
it age
Decl aration
CON FIG
Sh ould
ĠJew ish
ĠSt ream
alt y
Point s
Ġre asons
orn ey
Ġmark ed
ĠO N
Ġs y
= >
w all
Ch ain
ri e
ph y
Ġdam age
B ounds
ĠW rit
w ater
Ġserv ing
ĠW ay
(" %
Ġke pt
ĠPl an
Fil ms
Ġp al
ĠSen ate
Ġrequire ments
c ircle
ste in
T imestamp
B ool
ĠK ent
Ġlist ing
Ġallow ing
Ġaltern ative
qu ote
ĠD ig
un a
Ġflo or
G ame
ĠRef er
T Y
B i
op es
ĠGu ide
Ġf ragment
' d
Ġh undred
Ġcult ural
ĠH ospital
ĠOr gan
c ancel
Ġfl at
ĠPol icy
T ouch
u y
p et
Ġ` ``
Ġadmin istration
j et
Ġmod ify
V AR
il ly
Ġfe at
EEEE FF
Ġinterest ing
Seg ment
W IN
Ġl ab
atur day
ĠB oston
ĠM ember
ĠR os
burg h
ĠK en
Ġ ens
ĠE ND
n eg
sk y
lic ense
t f
ĠM aster
Ġf av
Ġh our
ĠM id
Ġsh op
t wo
Ġpan demic
be an
Ġem bed
ĠAnd roid
Ä į
int eger
res ize
ĠC EL
ĠE V
exp ression
R PC
L ight
P Y
se par
am m
Ġclass Name
Ġw aves
Ġ$ _
10 1
A ST
ĠCo ast
tr ansparent
uck y
196 3
um in
"/ ></
In formation
Ġadv ant
Gener al
ĠS l
m essages
Ġtra ffic
Ġev olution
ĠDes ign
vari able
p ad
Å Ĥ
ĠH as
: '
) ",
Ġbr idge
D iagnostics
(' <
Ġun iform
b ury
ert s
Ġ" ${
ĠN et
f ake
D ig
Ġf ish
Ġact ors
i Ã³n
ĠS ports
ĠC H
Ġwe ap
æ ľ
s ig
ĠF ar
ade l
} ]
Ġsp aces
pro gram
f old
/ {
å ®
ign ore
ab eth
Ġl ands
ĠF OR
cf g
Ġconnection s
uset ts
ach usetts
p romise
ĠS imple
Ġrest aur
Ġa lias
================================ ================================
cite p
ĠM ot
c li
ĠPro du
face book
Ġg ra
Ġregion al
kw args
ĠCon f
Ġb atch
w d
Re al
is er
j ac
Ġconf irmed
Ex pect
Ġch ance
A UT
E ST
Ġconvert ed
Ġin nov
v in
het ic
18 0
Ġident ify
on to
AT OR
AR RAY
r ical
ĠJ oe
Ġsing les
Column s
=\ "
Process or
ĠScot land
}) $
Ġlang uages
n ic
E val
196 2
Ġpre tty
b us
Ġtrans lation
B est
v ement
N ational
Ġatt ract
F ALSE
Ġcan vas
ĠRep resent
Ġrem ember
Ġfoc used
Ġpro tection
lic ations
ĠM ajor
Ġdisc us
STAT US
Ġload ing
Con sole
cre ated
in ject
ĠC apt
/ .
) -
B ottom
Ġcost s
m ac
ird s
g ments
PRO JECT
( .
et ic
ys ics
Ġl abor
FI X
de cor
ĠL ast
ĉĉĉĉ ĉĉĉĉĉĉ
ĠS and
U ST
Ġtri ed
ul f
Ġequ ipment
AR N
ĠA T
S m
LE D
ass andra
Ġsecond ary
< <
ĠA re
ĠD B
ĠR oute
a ught
Ġas sess
m ount
ĠSecret ary
Ġs aved
ĠB ad
' ].
Ġshow ing
pre vious
Ġc ouncil
ĠJ r
Ġup dates
art ers
ly n
i y
ag on
ĠT ro
M ount
Ġcontin ues
ĠThe atre
Ġp aid
Ġlook s
ORD ER
ĠP si
Ġover flow
method s
ĠA ccess
ff f
ĠN ight
act ual
Ġassoci ation
ĠIll inois
Ġp urs
Ġarchitect ure
Ġliter ature
194 4
ĠAnd rew
ĠJ on
/ _
/ "
Ġmain ly
pl an
Ġdepend s
Ġis ol
ĠB ern
ĠL uc
Ġofficial s
n p
IL D
a udio
ï¼ Į
Ext ensions
Ġe le
com pute
P red
Ġdisc overed
st rip
ĠC ro
L iteral
Ġdis able
b c
b lob
Ġd aily
Ġloc ations
down load
te en
play er
Ġs ister
D R
ĠPhil ipp
.. .</
Ġexec uted
Ġhand s
Ġm ill
B al
NavBar Font
Ġveh icle
Ġded icated
ip h
Ġc as
ĠC urrent
Ġcop ies
Task s
ĠL ight
b at
Ġcont ained
Ġnew ly
ĠW ild
ĠRe al
ĠF ederal
C ancel
Can vas
ĠSe a
Ġde legate
Cont act
Ġ' -
ĠG ra
MA P
Ġf rag
Ġnot es
g i
direct ory
Ġm otion
for ward
Ġexp ansion
Ġregard ing
Ġsh ips
Sign ature
og ram
Ġac id
Ġv m
ĠEd ward
C ounter
{ -
12 7
Ġse ctor
d ots
Ġindic ate
Ġb as
ĠDan iel
l ife
ĠK ong
S em
R out
Ġwest ern
v o
ĠW ed
Ġmod ules
Sh ader
AR D
ĠSer ver
eder ation
t ensor
Ġpar sed
ap y
Ġprof essor
Label s
D ATE
Ġs quad
ĠP FNGL
N N
ĠB ang
Ġle tt
tool tip
fin ite
ĠB Y
ĠReg ion
th rift
ĠH y
EN ABLE
ĠT witter
Re set
om orph
Serial ization
j ax
Ġro les
Ġb ass
Ġb ill
str ings
ag ma
in ent
put er
Ver ify
ĠW all
n ership
sub mit
S G
ĠB a
f ront
Ex ists
p air
Type Def
ĠIl legal
Ġperm ission
Ġin ject
p lot
i ency
ĠBro ad
pt on
% "
Ġfin ite
Ġrot ate
ĠAp ple
12 34
f etch
Ġr ing
Ġsett lement
bit r
ir ation
Ġexec utive
Ġt al
th m
or ient
Ġra pid
ru it
Ġcomb ination
pect or
Ġc ars
Ġm orning
Ġtra ce
/* !
ĠPar se
ĠS em
Ġcal c
Ġf ine
c amel
Ġel if
RE D
Ġcustom ers
ust ers
comm ons
Ġad vert
196 1
ĠR ow
AN G
not ations
ĠD utch
Ð° Ð½
amp ions
Dis c
am er
Ġprior ity
ĠG overnor
hes is
ĠPr ince
es ome
t ar
Mon th
low er
ĠSt an
atic s
Ġconduct ed
Ġsignificant ly
ic ial
Ġst ats
ater n
am in
Ġf ake
Ġcommand s
The se
Ġext rem
Ġrad ius
Ġunder lying
ĠL atin
12 5
R ate
Ġt ick
Ï Ħ
The n
p riv
ĠF C
Pack et
h avior
ĠOut put
B rit
Ġcon ference
] +
Ġlead ership
h ard
Ġinter rupt
Ġbu y
se x
ĠRepublic an
ĠMed ical
u ce
B lob
ĠJ es
F urther
ĠB al
Un ited
z ing
og en
Ġcy cle
b el
ĠPort ug
Ġp et
âĢĿ .
Ġmot or
Ġpe ace
ĠCor poration
Ġshe ll
ĠB ol
P has
Ġac comp
Ġbel ieved
ĠCont ent
Ñģ ÑĤ
ĠBy te
ĠApp lication
Ġyou th
Ġd st
ys ical
Ġgal ax
HER E
ial s
Ġform ation
Ġpass ing
ĠL ive
let s
Ġart icles
Ġan gle
A zure
Ġcom edy
Ġp ending
Ġcre ates
Ġle aves
Ġf ellow
Trans ition
st able
Ġw all
por ate
Depend ency
Ġemploy ees
ĠR ay
ĠBro ok
Ġb att
ist ed
ed u
Ġinitial ize
ĠJe ff
Ġmet ric
LIC ENSE
Vis ual
Ġinst ant
de precated
C lo
As sembly
Sec ret
: @"
ĠC G
che ster
NO DE
Ġinf ra
Ġoper ated
O ur
P resent
Ġim g
ck er
Ġlog ging
es ian
ipp ing
ce st
Perm ission
Ġend s
& \
Ġh ide
h u
OP T
Phas er
ĠN on
ĉĉ ĠĠĠ
lo v
Ġel im
Ġc orner
top ic
sw arm
Fe atures
ib li
V ICE
ĠMass achusetts
ap os
W allet
Ġm o
ep end
Ġcontin uous
P HP
e ed
s ym
de lay
LI ST
Ġpl us
1 10
trans action
x html
ĠS pring
ID E
Ġf s
ĠA M
ĠEast ern
ĠL ittle
IL ITY
Ġc ached
TI ES
Ġclass ical
amil ton
ĠC ore
Ġcomp osed
S igma
ĠDE FAULT
ĠEn vironment
ĠSc iences
ing ham
at ial
est ic
Ġadv ance
ĠC y
BOO L
Ġbo y
lo cale
lic enses
Ġtop ic
column s
ĠS af
Ġ' _
Ġ Å
Ġme ant
k es
ag raph
Ġhe ard
ĠCon s
Support ed
Ġw ire
Read y
IN ST
Ġpre par
Ġc er
Ġp sych
ond ay
Ġse ed
reate st
am i
ual ity
se q
Ġdel ta
Ġst reet
numer us
ĠRec ord
numerus form
f ol
ĠE very
ĠH arr
b log
194 2
= [
ĠN ext
T im
R ules
text it
oc cer
ship s
Ġc e
ĠHand le
Ġan c
Ġpolitic ians
Ġgu arant
195 8
Ġstat istics
ĠW in
ĠJack son
S napshot
ĠWARRAN TIES
ĠA ri
Ġpol y
ĠP lease
Dis patch
m ag
ĠM u
Con verter
el come
Ġac quired
B I
ĠConfig uration
B uf
ĠE q
Ġt imestamp
Graph ics
ĠCh ris
ensure math
} '
Ġfac ilities
H AL
RES ULT
Ġrec ip
ER S
pl er
per m
ines ses
Ġv en
g g
æ ĸ
ĠTh read
Ġlead s
in ion
Ġfl ight
Del ay
ĠL ib
Ġunderstand ing
ĠJust ice
ext ensions
id ers
t i
al ert
un te
ab c
ĠKore a
Ġsp ot
ĠFr iday
ab out
ĠCon text
P M
enc oding
elastic search
fer red
Ġ Query
195 6
ck now
Ġin strument
Ġ' ./
iss ue
Ġpart ition
Ġattack s
ath an
( ['
nab la
ip er
Ġdepend encies
Ġpower ful
ub ble
de p
W arn
Ġacade mic
Ġa head
å Ĳ
ĠM ike
sc r
W est
195 9
ĠF our
p res
append Child
Ġbe at
Ġadv anced
ition ally
ĠE st
Ġw ave
k ubernetes
is Array
Ġcommun ication
V O
Dep th
Ġtw ice
ro vers
let ter
Ġth er
rel ative
Ġtre es
Ġecon omy
Ġdestroy ed
H ere
Nav igation
h ow
c it
Ġa ware
Ġl at
ĠE ven
Ġauth ors
loy ment
y o
cept or
anch or
Ġp airs
ĠE gypt
Ġmeas ures
ĠUk raine
re cated
Ġwait ing
F OR
ĠCon serv
/ \
S ports
cd n
Ġk ill
S ite
Ġs port
ig ator
C ard
ĠCon nect
S witch
Ġs ending
IM IT
ĠW alk
U nder
od d
194 8
Ġs an
Ġe ase
b asic
Ġto kens
Ġor ient
ĠD ub
UR CE
Ġbound s
ĠN a
Ġt er
list ener
Ġwin ner
U nd
Ġret ired
Ġdefault s
cre ment
}} {
ĠV ari
Ġperson nel
ĠOr iginal
Option al
ĠColumb ia
Ġp ref
ĠP HP
> \
ĠD ar
ro g
ĠĠĠĠĠĠĠĠĠĠĠĠĠĠĠĠĠĠĠĠĠĠĠĠĠĠĠĠĠĠĠĠ ĠĠĠĠĠĠĠĠĠĠĠĠĠĠĠ
set Attribute
Ġv e
Up load
\ [
Ġany one
ĠPro t
Ġm useum
ĠCh ange
ĠRail way
194 3
in x
ĠN E
co res
Ġearn ed
ĠW is
ul pt
ierarch y
wild fly
por ated
nt ario
Ġpl ants
\ %
Ñ ĩ
Ġfor t
\ '
atter y
LE TE
ĠC R
Ġrece iving
Ġ' $
Ġbeg ins
fe ed
Ġf resh
Ġt or
() </
SCR IPT
Ġ Ø
Ġw rapper
Ġaud ience
ĠR ights
CD ATA
ak s
Ġfe et
ĠJe an
Ġf oo
valid ation
H ub
P riority
Ġmap s
d irection
not es
ĠT erm
greg ation
inter val
Ġaff ected
" ];
N d
ear s
fl at
getElement ById
Ġw ants
Ġm iles
ĠPol and
ĠThere fore
Re act
ĠF und
u ations
St andard
Ġa wards
A bs
Ġde tailed
ĠPr ime
ide os
Ġatt ached
ĠH ong
ĠAl b
Ġv on
ĠCl oud
Ġpro ve
19 39
it ical
ĠA rea
A SS
c n
AC H
Ġcomp osition
am ber
act ivity
Ġc os
ĉ ĠĠĠĠĠĠĠĠĠĠĠĠĠĠĠĠĠĠĠ
Ġassert True
out heast
ĠG a
Ġprob ability
al so
ĠF amily
Ġs ynt
Loc ale
C enter
ĠB ecause
ig ate
Ð¾Ð ²
Ġclub s
Ġadd resses
Ġin struction
attr s
Capt ure
fl ush
Ġto ward
Ġcont rast
f i
ict ures
Ġh ydro
Ġchannel s
Ser ies
M aterial
ge o
Ã ¸
on ia
ĠC reek
Ġcheck ed
part s
R andom
S plit
66 66
Ġgrant ed
Ġe yes
liz abeth
Ġh ouses
(" #
Look up
ĠTh ree
Ġcapt ured
ov es
ĠSt ation
ĠDes cription
LE MENT
or al
ar se
Ġpol icies
Ġg ather
m apping
Ġarriv ed
ĠB uffer
rem ote
Pre v
Ġgir l
Ã º
Î ¹
Ġslight ly
t witter
ĠPro p
o es
Ġprim arily
ĠProf essor
lap sed
F ig
194 1
Ġpur poses
Ġcomple tion
us hed
ĠR en
ĠD ouble
Lower Case
M ut
ĠOx ford
F ixed
istribut ion
get Instance
ĠP M
Ã¡ n
Ġb urn
T AG
Ġmar riage
ĠAb out
T uple
Ġcomp liance
Cert ificate
195 7
M ag
c up
à ¸
D P
Ġoper ators
194 6
t imestamp
Ġd ut
} +
Ġpl ane
Ġwas n
z eta
ĠA sh
At trib
Named Cell
S ources
nes ota
Ġquant um
M aster
] ->
id en
pos al
L ite
ell er
Ġpl anning
c urrency
\ |
Ġcre w
Ġg oto
ĠK im
on ical
Pre vious
Ġconf irm
Ġhand ling
ĠB as
L icense
ĠM AX
Ġ< -
We ight
ĠAir port
= %
Ġcon vers
Ġsuggest ed
is a
ĠD er
F uture
ĠN ative
ĠS us
att ers
Ġrel atively
Ġanc ient
Un iversity
Ġnear by
uplic ate
enn a
UN T
ĠT aylor
Ġconsist ent
The me
ĠP en
dis c
Ġal pha
ĉ ĠĠĠĠĠĠĠĠĠ
****** /
Ġri se
or i
**************************************************************** ********
In ner
ad r
ur able
t l
Scal ar
Ġs cheduled
Ġcons ult
PRO P
ĠUn it
Ġide as
ĠP erson
Ġacc ident
Ġb in
ĠĠĠĠĠĠĠĠĠĠĠĠĠĠĠĠĠĠĠĠĠĠĠĠĠĠĠĠĠĠĠĠ ĠĠ
k top
ĠChrist mas
li k
M usic
Ġcar bon
if er
Ġsupp lied
Ġign ored
ab ric
Ġim ag
Ġpl anned
Ġc ool
Ġjob s
Ġj ump
au x
th ur
Ass ociation
i Äĩ
Ġgen us
ĠMus lim
Filter Database
FI ELD
Ġdec or
B o
Ġopp os
à ¥
Ġhon or
Ġbeh avi
in er
b d
Ġvert ex
parent Node
____ ____
Ġpro ceed
RE CT
spec ific
ĠBer lin
ĠStud ies
194 7
sp acing
ĠGu ard
ĠAlex ander
ĠIs lands
H older
Ġse mi
ĠWil son
Ġanim als
Ġs and
Ġdat aset
R ot
Ġin depend
Ġcandid ates
Ġfootball er
ĠK enn
ĠL im
con nected
ĠR o
å ħ
olog ist
Ġdro pped
Ġ{ *}
Ġ' #
ru les
nav igation
rit ical
Ġ} ).
Î µ
u uid
Ġchall enge
h ab
st andard
over ning
L ike
195 2
b ute
\ ]
En able
Ġalong side
Ġa gr
us r
yd ney
Ġ era
Re place
J an
Ġlist s
Ġreview s
Ġw rap
Ġpat ient
Ġgu ard
Ġprov ince
Ġrecomm end
Ġs chedule
Ab out
Pro f
D ynamic
Ġout er
{ },
195 5
Ġso ft
ars ing
ren ce
ĠS aturday
Con sumer
Ġp itch
en umer
Ġveh icles
U sing
ak i
pos ite
urs day
Ġstreng th
oc aml
Ġse ctions
ĠPr int
Ġcause s
Ġsu fficient
Ġre peated
Ġp m
ĠB rad
w ill
On ce
Ph one
ĠF urther
Ġcol span
contin ue
ĠF il
re nt
B ad
Ġt ail
om ics
D irection
Im p
enc ing
pr ite
ĠC as
Ġl ies
Ġinterest ed
$ )
ĠR og
f ailed
m k
Ġh ousing
Ġtechn ical
S W
ĠScott ish
an z
Ġtro ops
ect ors
Ġsk ills
Ġenvironment al
Ġwon der
ĠL y
Ġp icture
Ġf etch
rypt ed
Ġa x
_ [
Av ailable
Ag IC
text ure
ĠP R
rop ol
ĠW hether
ĠDis c
Ġcr ime
Ġchang ing
Ġbus inesses
Ġsubsequ ently
bind ing
Ġdiv ided
yg on
Ġdis patch
ĠIm mutable
Ġthrow n
Ġ} }
Ġp erman
ok es
ĠS a
rav ity
p f
Aut hentication
ĠN AV
CO MM
Cont ract
Ġphot ograph
mat ches
ä ½
get Type
Ġcopy right
Ġv ac
put y
K e
Ġsubsequ ent
trans late
Output Stream
h ave
ĠU sing
on omy
T ile
Ġco q
M issing
Ġin herit
enn es
Ġepis odes
A nt
T ube
Brit ish
ĠJ ob
Ġear th
Or igin
ĠR om
Ġtell s
c ounter
Ġexp ressed
Ġinvest ment
Î ½
ur ance
ref resh
` )
u ent
j ack
K it
Ign ore
ĠOffic ial
N ov
Ġfeat uring
up dated
ib ling
ĠN C
ch ant
ĠB on
Ġcred it
re qu
ĠSup reme
os a
Ġcon vention
Ġbal ance
ĠB BC
L SP
ĠT ag
Ġfund s
Ġ uri
lic a
0000 0000
ĠL ay
ph ia
Ġpolit ics
Ġb udget
B L
Ġlo s
ac le
ĠSh ould
HO UT
. ',
Ġcol ors
Ġport ion
... )
G ui
D iff
ong o
ĠO s
ĠâĢ ¦
Ġprote in
Ġcol lected
E P
in ator
.* ;
ĠC at
Ġcon ver
ĠIn ternet
Ġf ails
Ġfif th
Ġdepend ing
ĠH ung
ĠL anguage
ut ter
Ġmag n
ĠF air
Ġinstit utions
ĠMin istry
( --
C tx
ĠR od
Ġinput s
ĠT y
Ġcomp iler
nt il
ar c
The y
ĠĠĠĠĠĠĠĠĠĠĠĠĠĠĠĠĠĠĠĠĠĠĠĠĠĠĠĠĠĠĠĠ ĠĠĠĠ
put ed
Ġtext ure
Ġem it
Ġp ra
ĠE RR
d on
h ook
ĠS ant
op her
ĠSer ial
* ,
Hash Map
Ġc art
Sep ar
Ġconf lict
Ġdes cent
Ġindic ating
V D
Ġhel per
Ġrep ository
!\ !\
Ġprogram ming
f b
Ġgener ic
ĠV ill
T ax
Ġd ictionary
van ced
Ġfund ing
Ġar bitr
Ġm olec
O ld
Ġimp lied
( []
CO M
Ġlog ic
umb n
E Y
Log in
Ġinj ury
194 9
Ġg ain
N a
ĠC EO
c are
ĠCor ps
RE SS
lo ss
p ur
Ġinit i
decl are
Ġbeaut iful
$ _
ĠL ew
p rom
g if
Ġal ert
ĠC art
Ġs pring
195 4
ĠF igure
e a
Ġb log
ut r
cont ainers
= }
Ġatt end
P res
ĠL ike
col lect
Ġh uge
W ill
Ġpol l
Ġa thlet
ĠTr ansport
Ġhapp ened
Ac cept
ĠU sed
y al
ĠE s
ĠC ase
Array List
Ġv ary
Ġfac ility
Ġhar mon
Ġcomp ilation
~~~~ ~~~~
Ġpar allel
at ibility
Ġtr uth
195 3
to LowerCase
ĠVictor ia
Ġliter al
ir ror
ĠC ountry
Ġind ent
Ġtransfer red
Z ero
\ {
ĠTr ust
Det ail
ĠN Y
Ġh ockey
ĠB ra
Ġcomm only
ĠD rag
Ġdiffer ences
Ġattr s
G C
Ġge ometry
Ġcoordin ates
ĠL iber
T ex
Ġdo or
Ġpack et
n ob
ĠBel g
s lide
p ages
g ems
annot ations
C SS
ĠV iet
Ġdr ink
Ġact ress
ch mark
Ġprop ag
Ġex erc
Dec imal
Ġ rom
ĠSe lect
ict ed
Ġent ert
Ġdisplay ed
D ITION
h istory
Ġvel ocity
Ġno ise
ze ch
ĠM ic
t ex
BP ACK
ĠA k
Ġs un
ĠB and
Tr igger
an try
Ġinter action
} ",
Ġdef ense
Ġadopt ed
pre c
in son
Format ter
tr ansport
Ġed it
Ġgo og
adel phia
BA SE
Ġlimit ations
ĠB C
att ed
Ġfig ures
look up
Ġcont est
Ġapp arent
Ġind ustrial
Ġan chor
ik i
ĠAn other
ibr aries
example s
Ġtre nd
Ġrecogn ized
Ġest im
ĠArg ent
ĠO ntario
Ġe lev
reg on
In ternational
per iment
ĠE th
ie ut
Ġnetwork s
it led
ĠS end
Ġre verse
Ġ! !
Ġth reshold
Ġeast ern
ĠH amilton
A I
Ø ±
ĠW IDTH
Ġmay be
} :
n n
U Int
Ġdes ired
Ġde leted
mer ce
Ġs ides
date picker
Ġcover age
ĠF rame
00 1
Ġsupport ing
a is
A ctions
Ġreal ity
Ġnu clear
} =\
ud a
SP ACE
ĠS pe
Ġexist ence
ĠCom ponent
ap ore
Ġsil ver
Ġtit les
Ġprinc ipal
pr agma
Ġwork er
L IN
Ã© e
ĠJ son
Exec utor
cl s
form ed
10 24
ĠGL int
Ġinsp ired
ĠT ABLE
Own er
lem ma
Ġ' ,
Nd Ex
Ġbase ball
ĠVer ify
cont act
ou red
Ġg rew
b inary
ĠM O
Ġattempt s
re po
EN ER
Ġexper i
Ġscient ific
ĠB et
c ers
Ge ometry
c ue
ĠBe ach
Ġsec ure
sub ject
ĠT urn
Ġsom ew
head ing
Ġd anger
x ff
Â °
um a
13 0
cons in
Ġc row
% .
? âĢĿ
Ġun able
Ġach iev
! "
T ok
Ġd ance
urs ive
ĠStep hen
T X
d st
Ġord ers
Ġproper ly
et c
Ġs yn
Ġinvest igation
Ġhold ing
ann a
Ġ& =
Ġposs ibly
re pository
O FF
Set ting
ĠT ok
Ġmed ian
ĠIn f
Ġdescri bes
ĠT er
Y Y
Com mun
LA PI
an im
D id
ca pt
ĠIn valid
Ġs leep
Ġf ashion
over view
Ġlink ed
com mun
Ġn arr
Ġcomput ed
Ġin vent
ĠP rivate
ak ed
Ġspe ech
label s
Ġwide ly
U int
ĠC F
Ĥ ¬
Ġconstraint s
Ġfind ing
de code
== =
? "
Ġro b
P H
ĠKore an
ĠSt ore
Ð ¿
ld s
Ġadvant age
c raft
ĠG ro
(" \
Ġe fficient
Ġpe er
How ever
Ġe ffic
Ġmed ium
ether lands
Ġres olved
Ġspect rum
p ic
ĠA D
ĠPl aces
map s
m obile
ĠL ater
Mark er
Constraint s
ĠCon st
Over view
uff ix
ast ers
ĠCol umn
get Attribute
Ġb rain
ĠL icensed
b ec
A SE
EN V
Ġm and
ra q
ore t
ĠSt adium
ĠK r
Ġg overning
ost er
are n
in ant
ow a
LO AD
ĠS VG
Ġnewsp aper
ĠV ideo
is is
Ġp hen
Ġengine ering
Ġcommit tee
Ġco e
Ġs pl
195 1
Ġact ing
ĠV irtual
L R
S afe
Ġa li
ap ed
l int
Part ition
FA IL
an th
0000 000
get Id
wide tilde
or row
Ġst ores
Ġenc ode
ĠM odule
Ġ utils
Ġdiscus sed
p aces
mult i
sh a
bour ne
c u
H AND
produ ction
Ġach ieved
sub string
St ub
Ġup load
ĠK el
7 00
im ize
Ġass istant
{ $
form er
/ ">
ĠB ell
y ard
Ä ĥ
) +
ĠInv est
ĠH un
A lias
Ġscal ar
ĠCol l
ĠPub lish
Ġw it
ail ability
G IN
Ġsm art
Ġr ich
d k
Ġn s
Ġhe at
ĠV en
nes day
n ight
Ġdevelop ing
ĠStr uct
ues day
Ġpattern s
EV ENT
Re ason
ĠE lizabeth
Ġtre ated
P OS
ĠMin nesota
Ġd ream
inc ipal
Ġv es
ĠEngine ering
Ġall Classes
ev in
Ġpi eces
ke ep
Ġauthor ity
B reak
ĠĠĠĠĠĠĠĠĠĠĠĠĠĠĠĠĠĠĠĠĠĠĠĠĠĠĠĠĠĠĠĠ ĠĠĠĠĠ
Ġro ut
med ium
S outh
S N
Ġdiscuss ion
ĠG raph
ĠH ard
ĠS yntax
ĠAn th
ro uter
Ġsex ual
remove Class
In struction
Ġmin ister
ĠAmeric ans
Ġfil led
ĠMc C
ĠB u
Ġend ing
ĠRefer ence
SH A
Ġsold iers
Ġlarg ely
="../../../../../../ ../
Ġneighbor hood
default s
File Name
D Y
get String
B ucket
C annot
ĠL com
ĠIn ternal
UE ST
Ġde tection
Ġcr iminal
Ġassum ed
Ġtechn iques
Ġteach er
ĠL at
Ġm iss
g z
ĠTor onto
ĠB oy
ĠallClasses Link
iz ers
l aw
Ã© s
G O
h d
Ġf uel
Ġsub stant
MP L
Ã ¥
ur se
Ġro ugh
Com mit
Ġra ces
ct ors
Ġconsum er
ĠNAV BAR
Ġserv es
log ging
Data Type
Ġplace holder
Load ing
Ġhe ar
br id
Ġform al
F ace
Ġcustom er
Ġun cert
âĢĿ ,
} |
Ġb ow
ĠS ong
Ġcli ents
Ġac celer
ĠS ydney
ĠB E
Ġl y
es cape
dimension al
ĠÐ ²
Ġdim ensions
ĠA venue
Or iginal
pre d
Ġ# {
Ġcheck s
XX XX
Ġprom oted
in vert
Ġph oto
S rc
ort heast
ĠN ations
C UR
Ġopportun ities
Ġest ate
ĠE ner
Ġbro ken
Bl ack
ask a
CRE ATE
ĠC HE
D MA
M o
ĠW at
Ġmark er
ou ri
ĠD CHECK
Ġdeg rees
ĠR aj
Ġequ ations
and o
w t
Form s
g ar
function s
att ach
ĠU RI
Match er
Dis k
19 36
p ref
Ġte le
Ġcomp act
Ġach ieve
SO URCE
} },
Ġf ell
tab ular
ag a
ĠT ree
Mod ified
Ġimpro ved
Ġperform ing
H L
arr ing
oc om
per or
Ġbenef its
Am ount
eg o
ĠR a
Ġmaint ain
re ason
Ġp ure
t imer
ĠWIT HOUT
19 18
Class Name
Ġmod al
Ġstandard s
Ġmechan ism
ĠI V
ĠPol ish
Ġmeas ured
f all
ĠOper ation
ĠC ub
des ign
L ib
Ġt s
ri ent
C CESS
con v
U AL
Ġmat ched
osoph y
Ġab ort
Person al
unn el
A ustral
Cont in
ĠS anta
Ġmunicipal ity
Ġcont rovers
button Element
P ixel
ĠM onday
S V
// !
Ġf older
S ide
appro x
Draw ing
Ġe ye
ĠAnt on
Ġper haps
ys ql
Ġres ident
icult ural
Second s
plement ed
Ġcorrect ly
Ġr ural
Copy right
ĠAct ive
AgIC AgIC
Ġwe ather
ĠR ender
Ġk new
P G
Ġcur ve
ĠVAL IGN
ĠPri ze
Ġw ish
ĠF ALSE
ĠP ut
Ġp ng
W in
Ref lection
Ġviol ence
P i
ĠM arg
WE BPACK
C trl
ĠS on
Wh ere
ĠF ox
qu arters
Ġ ig
br and
Ġcon ven
ĠT ool
ĠN iger
ly wood
att ing
Ġr at
Ġ" >
H is
Ġhost ed
Ġorgan ized
æ ķ
Ġin tr
or er
ver ify
ä º
/ ******/
view port
ieut enant
Ġappear ances
UM M
Valid ate
gle w
Ġrot ation
we ek
c les
ile vel
Rel ation
ĠLog ger
ĠW el
fol io
) }\
P ush
a ired
Dep recated
ersist ence
e z
IC ATION
Ġal ter
ĠP ay
alyt ics
ut ors
ot on
Ġfe e
ik a
Ġhistor ic
Ġest imate
ĠRev olution
Ġhapp ens
Ġreject ed
im b
C ountry
ĠRun time
Ġtyp ical
Ġappro ved
a ug
Ġs pons
ĠR ome
Ġexperiment al
LA Y
( ()
Ù Ħ
TER N
ĠP DF
Ġofficial ly
met ry
T IM
pre pare
log o
Ġinc ident
Ġpart nership
ĠF ix
ĠF ull
Ġin n
second ary
Ġdist ingu
Ġor ig
ĠN ick
Work er
ten ance
r ated
TR AN
media wiki
ĠT OP
ĠS SL
Ġmag netic
pos sible
Ġtable s
Cre ated
ixt ures
Ġimport ance
19 38
ll a
Ġsol o
Ġhy per
redu ce
Ġs ph
S UP
h om
Ġauthor ities
Ġbenef it
Ġt end
w ing
cd ots
Ġ urban
F ill
link s
ĠK EY
Ġs ustain
Ġ( ;
Ġmin ute
Un iform
o os
li bs
Ġ( -
Ġcompos er
Ġtem porary
ir k
ĠE val
Ġdet ected
Ġtarget s
Ġst uff
) =\
d jango
Ġext ensions
ĠSte ve
Ġfind s
ĠWh o
Pr imary
scri ber
op acity
PAR AM
ĠL ow
Ġc odes
p son
G LAPI
Ġadv oc
P ersistent
p in
ĠO P
T ick
Ġrecomm ended
i ant
Ġhousehold s
Ġr ul
over flow
dat etime
Ġf an
Ġlett ers
Ġsurround ing
Ġprom pt
M utable
ĠArg ument
ĠB ridge
ĠD ebug
iz z
ĠInd epend
Ġb ra
ĠOlymp ic
Ġn arrow
f ragment
j b
Ġsc oped
Ġcon sec
Ġcert ificate
j an
Ġexplicit ly
-------- --
ne utral
Ġm igr
Ġlim its
Mer ge
ĠB ooks
ang a
Ġturn s
Ġd iam
Ġob vious
r im
itor ies
ak h
Ġenc oded
Ġpr ime
M ost
Ġp ipeline
Ġcontrol led
ec lipse
ites pace
not ify
S elf
Ġcontrol s
n orm
de legate
P ut
d istance
ag ram
Ġwin ners
Ġem ph
Ġfre edom
Ġ(! (
ĠR us
ĠH an
ph rase
unk nown
Ġp atch
" |
Ġmount ain
Ġag ree
Ġc ss
ĠL abor
Path s
Ġspec ifically
Down load
ĠW ars
ĠChild ren
ĠG reg
Ġdef end
ĠSto ck
ĠM IT
We ek
ĠPy thon
Ġ" _
ble m
Ġport rait
f p
ĠColor ado
ĠO regon
m ad
Ġ à¤
Ġc ab
ret ch
Mon itor
B ACK
u et
sem ble
u er
ĠCHE CK
Ġact s
Ġdec ades
F ake
Ġ} ),
M ill
Ġm ail
Ġcompet ed
Ġjourn ey
Ġadministr ative
ĠM A
rop ical
D one
S UB
Ġchem ical
Ġb ed
m ix
se ason
Ġgo ogle
f older
ĠĠĠĠĠĠĠĠĠĠĠĠĠĠĠĠ ĠĠĠĠĊ
Ġco al
Ġ ðŁ
Ġexpl an
Ġcalcul ated
ct ree
ĠS om
Ġpre pared
ĠWis consin
BU ILD
ĠC ur
Ġre named
ĠIn it
Ġind ices
ordin ate
ĠC a
S pecial
put ation
ĠS at
ĠAdd ress
ĠT YPE
ure au
d ark
glyph icon
19 37
rop y
ĠD C
ĠH ou
ist ogram
ic ulture
ĠOn ce
Ext ra
fr ames
Ġcontrib ution
Ġsc ulpt
Per iod
ord an
Ġg lob
Ġ' ')
Ñ ĸ
gener ator
Status Code
Ġ' ''
Load ed
Ob servable
Ġinterpre t
ĠL es
Ġex pr
Ġprom inent
che stra
- (
ĠK IND
Ġbig gest
n of
Ġh ook
ĉ čĊ
M s
ĠExp ression
ĠHe art
ĠDate Time
P lot
N ONE
Ġman age
Ġenc ounter
F ac
Ġq q
Ġ å
av al
includ ing
ĠNS String
ĠDu ke
ast y
.... ....
Ġcle arly
Up dated
Ġv otes
Ġhel ps
M achine
ĠD ictionary
IN VALID
il arly
"> (
ĠF ollowing
rid es
d ynamic
ĠGL enum
cul ate
Ġro utes
AS H
ur ations
Ġst able
__ ,
ĠMark et
p aper
ĠC are
ĠAut o
int on
Ġlook ed
mo sp
DE D
ĠS i
ic ian
Û Į
zon a
Ġdis m
ĠI mp
Ġlook up
C r
s lds
Ġclin ical
Ġrece iver
per ial
Ġcomm itted
AP P
z h
Ġv ent
) ^{
ĠMed icine
Ġchalleng es
pre vent
arch ive
ĠDav is
o a
OR K
isl ative
ind s
Ġinfra structure
Ġpre pare
ext ends
F at
ĠS ab
em et
i ary
ĠN etherlands
f ilters
Ġleg end
Ġte aching
ĠD oug
Ġm al
Ġap ilevel
âĢ ĺ
s z
ĠBuild er
c x
ĠD am
Ġent r
w eg
Ġreplace ment
Ġm el
= $
Ġtest ed
Ġw arm
": "
Ġc lip
ĠB efore
ĠL ang
Ġconst ants
gorith ms
ĠE nc
Ġb ucket
c assandra
Ġth ick
IN IT
add EventListener
ron ze
Ġm ach
Ġlist eners
D istance
ĠO tt
ĠB udd
Ġt imer
ĠL td
Ġmerg ed
ĠN ull
re ject
ed ed
Ġcont emporary
ĠEd itor
g re
ĠD eb
Ġs yntax
C ent
UR N
M ac
ĠS W
ĠC orn
ĠT rack
RE T
Run ning
om atic
Ġcontrib utions
L ines
Ġa st
F etch
B el
Ġprom otion
int eg
Ġprom ote
Line ar
are st
he ets
center ing
Ġmet rics
con current
pol y
Dis abled
c lip
Ġdriv ing
c mp
Ġex cell
Ġtrans actions
av id
ĠCon sole
scal a
de ep
end point
Ġproced ure
Ġder iv
out s
Ġam b
Ġplatform s
as i
Ġb ond
Ġ{ %
pub lish
S printf
sc ore
ĠL ook
Ġcamp us
Ġfound er
Ġqual ified
Ġstop ped
Ï ĥ
Ġab and
. ~
19 19
Ġpay ment
Col l
pay load
ens itive
od o
r f
Ġvis ibility
ĠG er
Ġresult ed
size i
sub scribe
refer ences
ĠPhil adelphia
ĠEner gy
ament al
ĠĠĠĠĠĠĠĠĠĠ Ċ
Ġneg ot
Ġtrans formation
Ġgir ls
Ġs ale
Ġaut orest
ĠH al
Ġmusic ians
P al
lin ux
l ig
A U
C amera
Ġst one
ĠT al
Ġ" [
Ġag ency
J ust
ĠR on
an ia
c ow
H ook
Ġd ates
Ġext ent
h alf
an es
Ġh abit
b ucket
19 00
Ġg one
ate ver
d ays
Ð ·
Ġentire ly
Bit map
Ġsm ooth
B us
Ġpre ced
fe atures
Ġb old
t ail
ph ase
Ġf ired
s pect
r pc
k ing
Ġm ist
Function s
sub str
IMP ORTED
Ġp asses
Ġ iron
define Property
ĠT ry
Ġs izes
R UN
Al pha
r ank
vert ex
St ar
Ù Ĩ
Ġb undle
Ġ* ,
ĠH ay
Ġst orm
P ending
Ġse ss
Ġin fe
Ġpublic ation
Ġuser name
GL enum
ĠQue ens
Ġcirc um
ĠTh ursday
Ġvis ited
Ġpurch ased
C ity
link ed
ĠI ce
ĠT ai
Ġint ent
under line
Ġlo sing
ĠTur k
Ġs qu
ec ycle
Oper ations
Ġre action
A li
C ulture
ag en
ĠDes pite
ĠL java
ver al
ĠBr ig
Ġen h
ound ed
L T
ru ption
mult ip
ĠR ange
Ġgrad uated
ĠF lo
Ġcollection s
M ust
ert o
ĠPrem ier
He alth
iven ess
Ġacc um
uss ion
Ġre con
ĠL ady
Ch anges
ĠC ost
WA RE
l ab
inter pre
Ġpartic le
ĠW inter
Ġd oll
. ');
Ġfight ing
Ġcl s
refer red
P lease
ĠI gn
Ġtri p
ĠR ose
Ġnav bar
get Message
] *
Ġ" #
%%%% %%%%
jac ent
ĠM ust
19 35
ST ART
Ġ. =
Ġw a
R S
{ })
P adding
List eners
UB LIC
ĠThe orem
pro c
And roid
Pe er
Ġfac ulty
ĠOther wise
al g
Ġadd s
Ġch ampion
N ECT
Ġmass ive
Ġan imal
pro vid
IN DEX
ĠSt aff
H ave
Ex ist
Ġredu ction
M ixin
}^ \
Ġk ick
Be en
chart s
ĠD or
sl ider
Ġar ts
ick y
File Path
ss ue
Ġstat ements
Ġth erm
d am
Ġcr isis
Ġy ards
Ġpurch ase
ir th
Ġc m
ĠD a
on om
reg istry
T yp
az e
S lice
ĠH ind
li x
ĠT oken
Ġm yst
Ġwindow s
ĠL I
clud es
ret val
Prot otype
ĠL ock
Fr ames
Ġnot ification
illi seconds
Control s
Ġfil ters
eng ers
Ġw inter
Sup er
Rad ius
ad ed
Fe ed
grad le
Ġb an
s uch
Met ric
E s
Object Meta
emet ery
Ġsubstant ial
ĠP C
} %
Ġperform ances
D en
}) \
Ġadd r
Dest roy
Ġred irect
ĠI raq
L at
ĠGold en
dist ribut
I ME
Ġo dd
Ġdis s
}_ \
S cheme
T ry
t ainment
ĠF orest
Ex it
p icture
Ġdel ivery
Ġar ms
ĠM oh
erial ize
ĠL ear
Error Code
Ġincre ases
w orth
ĠD est
ĠF ood
ĠP ur
umbn ail
Ġcalcul ate
Ġsort ed
Ġtem ple
Exec ute
AT URE
Ġnot able
ĠCam bridge
Ġhot el
ĠB ox
Ġref resh
ĠReg iment
Ġw ing
ĠSt ory
ĠSing apore
TH ER
f riend
g ov
ĠDe ep
igen ous
Ġsepar ated
ĠB h
Ġlearn ed
sh are
Ġlocal e
Ġes cap
Ġsc r
MA GE
UMM ARY
Ġa f
ident ity
Ðµ ÑĢ
Model s
c ached
Ġb right
an alysis
Ġfrequ ently
HO ME
st age
ĠM atch
ic ing
Ġob server
ĠG allery
h our
Ġexpl ained
ĠS ym
Ġse ats
sh op
st roke
Ġterr itory
}\ ,
ĠS ize
Ġsub scription
Dec oder
ĠPl ace
D im
hel lo
An im
Ġobserv ations
Ġhe av
ĠG rid
Ġuint ptr
Ġextrem ely
ĠO ptions
O ct
s che
50 9
ĠEn able
Serv let
o or
Con s
Ġ\ {
av el
Ġcomp ile
Q ual
v endor
c op
m ay
q quad
H z
Ġcitiz ens
Ġdefe at
19 17
ĉĉĉĉ Ċ
G RO
e ff
al ion
E st
Ġoper ate
ĠP ers
' }
Z end
sd k
Ġaccount s
Ġoffer ing
^ +
W rap
Ġs lice
ĠF ac
P ress
ĠN orm
code c
ph an
Ġpro test
Ġlo ader
ĠB ru
Ġretr ieve
Ġform ula
Comple ted
Ġa ria
Ġarbitr ary
Ġprof ession
ennes see
Ġret ail
V ol
O C
çĶ ¨
Ġin de
19 33
G rad
ĠF oreign
Ġ( %
19 14
trans l
ĠT oday
Ï ģ
ir al
type param
Ġb omb
ct rl
Ġt uple
E ducation
Ġed ges
Ġc overs
ig gers
T ri
Ġsch olar
ĠK a
t le
S uite
Ġgener ator
99 99
Ġparticip ated
L ife
writ ten
Ġs ud
get Class
Ġad vent
Ġtr ansp
Ġm om
od a
Ġret ire
ĠInd ones
run ner
SS ION
19 34
En code
Ġpl ain
Ġk ernel
ĠW atch
Ġp in
AAAA AAAA
ĠĠĠĠĠĠĠĠĠĠĠĠĠĠĠĠĠĠĠĠĠĠĠĠĠĠĠĠĠĠĠĠ ĠĠĠĠĠĠ
Set s
Ġm ath
Ġcomp atible
Ġd rawn
Sup press
B en
z oom
an imate
ĠC lear
p ers
ress ions
des criptor
Ġsw im
Ġg ained
fore ach
at ile
è ¿
ĠTR UE
Ġ Ñģ
Ġw ins
ĠA thlet
Ġher self
s peed
Res pon
ul ner
Ġconcern s
ĠB att
ĠE ric
B ased
roll ers
CON ST
P ipeline
ĠâĢ ¢
Ġv ideos
ĠE U
Ġyoung er
ol o
se ls
ĠS P
Ġpract ices
Ġa cknow
Ġad vis
Ġsuff ered
he x
Ġdo ctor
Ġb odies
ar ry
Ġp seud
ad apter
Ġexp os
ĠAr m
Table Row
Ġcoordin ate
w as
App ly
od s
Ġm anner
ĠS ymfony
; |
render er
ge ometry
Ġexp atriate
el a
Ġsur g
Ġfem ales
Ġh orse
Ġas sets
Ġto String
m aml
S cheduler
ĠB asic
Ġexper iences
Ġf old
le ton
Ġprogram me
FORM AT
ĠDig ital
Ġr c
C LA
Ġre peat
ant e
mem bers
ĠSwed en
Ġ ĉ
ĠC ulture
Ġs in
Ġocc asion
Ġf aster
ĠN az
MA SK
Ġinv oked
b ell
% "><
j q
ĠA bb
and y
sp ark
Ġ-- ></
ĠG h
WR ITE
Ġsol ar
Ġthink ing
Ġh air
N U
Comp are
Ġc riteria
me an
Ġarray s
Ġare n
ĠMount ain
st o
ist ical
Ġtal ent
< >();
ĠCar l
[ ],
ĠF uture
H int
Ġal gebra
__ .
Ġ" )
ert y
Ġwrit es
omet ric
Ġf raction
S am
Ġc atalog
ĠIndian a
Ġstrong ly
at ched
not ification
Ġhapp y
Ġa w
rupt ed
ĠM ilitary
er al
Ġ( `
al ink
Ġfl ush
ur ches
ant asy
Ġ' </
se gment
>< !--
Ð° ÑĤ
AS C
Ġthous ands
Sub scription
-------------------------------- ----------------
Ġfile d
const raint
place holder
Ġsuc ceeded
è ¯
ĠO cean
1 12
pe ction
X Y
Ġst rip
Ġd oub
ust ed
API ENTRY
() [
ĠS u
Comple tion
U sed
Ġp iano
Ġconfig ured
Ġsk in
b ounds
ĠFr ont
ĠK ansas
s pe
Ġdeliver ed
P ower
de ploy
sc an
Ġm ac
ĠMar ia
St yles
cp u
F oo
Ġtechn ique
Ġdriv ers
qu es
Ġown ership
[ _
] ),
Ġs am
Un expected
ĠLew is
ĠP u
Ġg overnor
Ġv ot
Ġdocument ary
Ġg ap
(" .
off s
Ġintegr ation
19 29
to Equal
Ġclass ification
Ġf estival
Ġp ed
Ġelect ron
Ġ' @
SS AGE
Ġk ids
AR GET
Code c
Ġtit led
ĠJew s
á »
Rece ived
ĠR ight
ME M
Ġimp lies
col l
b uilt
Ġp ixels
Array s
ĠC hen
Ġga uge
Ġc ategories
Ġca ught
* >(
m iddle
ter rit
19 28
o en
Ġarrest ed
ĠSwed ish
Ġy ellow
ĠA ud
GL uint
ĠAcc ount
r ink
Ġm ental
De ep
Ġg ender
ip les
ĠF A
var s
sp lice
Ġprec ision
Sc an
Ġn ob
Ġsuggest s
Ġprot otype
tim eline
N I
Link ed
Ġsc an
Ġrecogn ition
Hel lo
Ġm odes
') ->
Ġconc ert
Ġsc oring
se cret
ĠB AS
u ency
w alk
Comp at
Ġm ent
flo or
Ġsh adow
ĠHar ry
Ġhe nce
weg ian
un lock
Ġe c
st ub
R GB
Y P
Ġc old
Ġjud ge
Ġlay ers
ĠS ymbol
ĠM anager
c ross
b one
Ġdef ines
gr pc
T w
Ġcould n
Ġrun ner
å ¤
to ctree
Ġt aught
to kens
ad i
el d
t ile
d n
ĠP ot
M AC
Ġtown s
ĠS UMMARY
ĠAtl antic
Enc oded
Ġp ixel
Ġoppos ite
arg v
ĠInitial ize
value Of
ĠA h
ĠCom ple
rest ling
Ġli ber
ĠE qu
Ġref ers
ĠF ord
ibli ography
E lem
{ (
ph ony
ĠAnd erson
Ġle ct
Ġabs or
erv es
Ġinstit ution
t re
Ġeval uate
Ġalleg ed
ĠAff airs
Pop up
19 32
sw ing
cit et
ĠH or
ell ar
ĠD ark
ĠWed nesday
ĠC ache
ĠNo thing
Ġann ounce
Ġst ress
us al
19 10
B LOCK
ĠT uesday
ĠK al
Cred entials
N orth
] ).
NG TH
Track er
In line
ĠRet riev
File System
En umer
path s
Ġd ry
ĠJac ob
Ġpost ed
Ġl it
Vis itor
Ġ' [
ĠC irc
ef e
Ġeas ier
cour se
æ ĺ
N eg
ivers ities
Ġsh ock
Ġis instance
ĠFI LE
Part s
AB ILITY
m ers
Ġk id
Ġt error
ĠCapt ain
W I
Ġfa ith
mut ex
Ġend if
est ure
ropol itan
ĠMiss ouri
Ġs lot
Ġap art
ĠB rian
SER VER
St age
B g
F rench
ffff ff
B ro
Ġproces sed
A ug
ĠS H
Ġlist en
× ķ
M ajor
pi pe
ĠG ree
or ough
Ġ ing
Ġg ene
Ġfavor ite
//////////////////////////////// ////////////////////////////////
Ġcharg es
inal s
rodu ction
add ed
ĠD MA
A MP
ĠN FL
-- ;
ĠJ oh
F ix
Ġf ear
] \
Tem p
D TD
Ġs napshot
Ġown ers
Int o
Un mar
fin ity
ĠS ound
button s
es sed
Ch rist
el i
] ['
y ou
Ġen force
ĠMod ern
cond itions
Ġv ec
Ġult imately
requ ency
Ġmark eting
igh th
ent ries
ĠSur vey
A ff
Block s
Ġf i
RE AM
CO UNT
V C
G erman
ab il
ult ural
F actor
Ġpercent age
Mod ifier
( {\
Key word
TEXT URE
Ġaut hentication
territ ory
ĠM un
ĠM att
Ġext ensive
Ġp owers
og y
Ġpers ons
ud es
CH AN
Ġcharg ed
> %
ott en
ap ple
Ġa id
IE W
ĠC zech
all enge
Ġm s
ĠK now
iev al
red irect
Back end
et ry
Ġbo ot
v ia
Ġst roke
iev es
N umer
e ast
Ġn ested
ĠA mb
Ġde precated
ĠĠĠĠĠĠĠĠĠĠĠĠĠĠĠĠĠĠĠĠĠĠĠĠĠĠĠĠĠĠĠĠ ĠĠĠĠĠĠĠĠ
>( <
vent h
Ġinvol ving
ĠMem orial
ĠLe on
F IL
, $
ah oma
ĠAss oci
ĠB all
Ġrespon ses
Ġtw enty
By Name
ĠST ART
ic ates
Ġv ice
aa aa
table block
Ġdom estic
Ġhom es
ĠCl asses
Ġm ort
ĠCon nection
ĠCont ainer
Tool s
ĠB at
am ount
initial ize
Ġc fg
/ )
S ch
pl ays
ĠAd am
ub le
Ġhand led
;| &
ĠAt tribute
Ġindic ated
(" ./
E very
com b
P ane
ĠCon structor
ÃŃ a
ĠBuild ing
5 12
ĠA lf
ĠTh rough
Ġexper iments
ĠH art
}^{ (
pos able
ĠC ov
ĠX ml
Ġpro ved
Ġworld wide
) |
ag ues
ĠMed al
ĠM iller
E LEMENT
3 60
ĠS ingle
ĠF ilter
ile y
part y
> `
100 00
Ġengine er
c ookie
Fat alf
Ã¼ r
ĠCast le
ĠRe lease
ĠAl low
Ġcollabor ation
sol r
Ġtr im
Ġres istance
Ġsc atter
W omen
p agination
ĠPro duct
Rece ive
Ġaspect s
Ġparticip ants
Ġre new
D ict
Ġrest ore
th rough
Ġcomb at
ar ity
Or gan
s un
Ġfunction al
W ARN
ĠGener ate
ach er
m ime
Ġ[ -
Ġnov els
ĠC ert
ob serv
pro d
ist a
Ġopp osition
ĠF ish
? (
p k
V EL
m ons
Ġvol unte
Ġig et
v ance
ĠWh y
ĠInst ead
ump y
Ġg lass
ĠUn less
Ġtem por
Pay load
19 24
Ġdisc over
ĠS C
æ Ī
ĠPhilipp ines
Ã ł
Th reshold
ĠTur key
ul ating
ivers ary
Ġb ought
ĠD A
Ġk illing
Ġt sd
ĠF all
REQ UEST
P rom
) _
process or
Ġopp on
B M
est ing
ĠG il
Ġc ircle
unn y
ĠP os
Ġrender ed
iffer ent
ĠT ennessee
() `
des cribe
ĠIt em
Cal endar
ang el
Ġv ision
Access or
ĠC op
Ġwe alth
, "./
ri k
11 1
Ġat trib
Ġspe ak
Ġpain ting
OB JECT
mark er
An chor
separ ator
late st
Ġjournal ist
B ER
Ġlo an
help ers
allow ed
C lean
Des ign
FT WARE
With out
O L
lic ated
ĠR eb
19 22
Ġimp licit
! =
ĠExec utive
im iter
F oundation
ar on
Ġass ist
Ġaff ili
Ġx hr
amb ig
LA B
Wh y
ĠJava Script
ub b
T imes
char acter
Ġpar liament
Ġtra ined
Ġpack ages
ĠO wn
Ġdecl are
ĠEnter tainment
ĠE P
Ġh its
Ġop inion
ir y
Ġprec ise
alt Color
Al though
be ans
ĠM S
ind icator
az ure
ĠMary land
ĠW ord
Tra its
18 43
Ret ry
Ġli qu
F ire
ĠP osition
ĠE ll
Ù ħ
ĠV i
Ġs ac
fo x
ĠIllegal ArgumentException
Ġsee ing
Ġem p
l on
MS G
class ic
work s
Ġpartic les
> .</
Set up
iam i
run ning
Ġca using
lim its
ĠP ier
st ances
Ġ// !
R IGHT
Ġclass ic
In ject
ul p
ĠA ge
Ġsup posed
ĠSh er
En tries
new s
ĠAr thur
ane ous
ĠF ederation
Ġm acro
J ap
n pm
te am
Ġsh ut
Ġsup erv
ĠYou Tube
ĠD atabase
M ail
1 18
ĠP arameters
b undle
Z oom
Ġeval uation
Ġexperi enced
ĠCon struct
f rag
Ġmark ets
t m
ĠU P
do or
ĠK han
H er
Ġth anks
ĠL ev
Menu Item
o i
Ġsh ares
ĠCon stant
Ġint elligence
Ġrespons ibility
Ġide al
ĠP a
SU CCESS
k h
I p
19 31
F P
U A
Ġlog in
ĠP it
ĠAri zona
set ting
ol is
Ġw rapped
r v
ĠSer b
" }
Ġvari ant
s With
Ġh all
Ġmov es
Ġstri ke
ill ery
ĠA uth
ĠC ab
id o
Ġcr ash
Ġ& #
ord on
Ġcom fort
v ard
Ġem ission
Ġsuc ceed
ĠI T
ĠSk y
Ġrepresent ative
Ġrec overy
Ġs urn
Ġpar ish
ĠCON DITION
Att achment
ĠHou ston
as hes
ĠB ishop
ĠM ill
over lay
Ġex ceed
Ġ' )
std err
u j
ĠW HERE
Ġplan et
ĠTown ship
V ec
Ġrelationship s
Ġweap ons
n ie
Ġra cing
ĉĉĉĉĉĉĉĉ ĉĉĉ
Separ ator
Ġqu eries
19 25
Å ¾
ĠHigh way
Ġpro port
met rics
present ation
order ed
Ġc ro
Ġclose ly
Ġhost s
Ġa ws
ĠA C
st ates
Event Args
clo sed
Sub ject
################ ################
ĠM D
in ery
Ġp un
err ing
Ġem otion
go od
LE NGTH
rain ian
ĠS ite
Ġreport ing
Ġrank ed
ĠOffic er
G P
19 27
Def ined
ĠSt op
az a
Ġattempt ed
Trans fer
RO OT
ĠP layer
String s
Ġpri est
Ġs v
S an
app ings
Ġin structions
Ġexplan ation
re verse
ol i
ol ute
Ġd ipl
ex cept
Ġb ands
Ġfl ux
Meta Data
N il
View s
wit zer
u ction
Ġclo sing
S lot
Ġshe et
Ġmanag ers
pos er
/ #
? ?
Im mutable
ĠH ost
Ġexpl ain
Ġdistrict s
Ġcon tr
P icker
Ġconfig ure
1 15
ic ians
Ġyour self
ok ing
N ON
inv oke
in ating
Ġag ents
ab stract
String Builder
Ġw x
ĠO C
C ookie
Ġbring ing
if ference
Ġman ifest
. ")
Ġdesign ated
Struct ure
m c
ad oc
ug ar
ich ol
um ps
iz ard
ĠU SE
z ed
19 21
om ial
ĠAg ain
it ivity
ĠMag azine
P DF
Ġg reatest
Ġelect ronic
po i
Ġshoot ing
F ilm
n os
Ġhum ans
An other
s ch
ĠÐ ½
Ġat mosp
Up per
Ġport ray
in fl
An notations
M LE
operator name
10 2
C alled
c us
Ġhelp ing
f ac
l u
Ġrec over
nob r
ĠS quad
ate st
z y
Ġ( ),
Ġk w
ĠL abel
col n
Ġemploy ed
FR AME
Ġf ly
Ġperman ent
Ġcl ause
w i
Ġsu itable
Ġopp osed
Ġan notation
A K
Ġreg istry
ow nt
L ang
19 26
Ġr ugby
ĠC ru
19 12
ref lect
Ġj un
Ġemerg ency
Ġintrodu ction
ĠP od
Se q
Ġjust ice
19 2
Ġcons erv
Int ent
Ġpr ices
task s
Ġexpress ions
ĠH O
set Text
M R
Ġvert ices
v et
text area
Ġpers pective
Ġus ual
Mult iple
Ġcon sequ
Ġaut hent
ĠV ar
ĠCONDITION S
a que
Ġkeep ing
ro it
Ġtrad ition
FUN CTION
ops is
l ad
ï ¿
over ride
pack ages
S ongs
att ice
Ġ= ================================================================
ouse l
Po jo
ĠS av
In f
witzer land
Ġin str
Rel ative
ĠAdmin istration
Ġm ales
Ġcell padding
ri se
BY TE
EO F
E qu
if ts
âĢ ¢
Ġ" );
Ġcre ative
andid ate
es is
As set
Ġp ert
ĠL oc
: -
Ġdisc overy
Ġreg istration
At A
Ġden ote
hed ral
S ender
ĠHash Map
Check ed
ĠCol on
Ġpost s
Ġh int
west ern
er d
includ es
Ġeffect ively
ĠĠĠĠĠĠĠĠĠĠĠĠĠĠĠĠĠĠĠĠĠĠĠĠĠĠĠĠĠĠĠĠ ĠĠĠĠĠĠĠĠĠ
Re q
oc racy
M al
Ġdiag ram
arg o
Sh adow
Ġde let
St d
ĠGL uint
O lymp
ĠĠĠĠĠĠĠĠĠĠĠĠĠĠĠĠĠĠĠĠĠĠĠĠĠĠĠĠĠĠĠĠ ĠĠĠĠĠĠĠĠĠĠĠĠĠĠĠĠĠĠĠ
ĠF ellow
Top ic
Ġ/** <
Ġobserv able
ĠT arget
ĠC C
wide hat
list eners
k ernel
pear ance
Ġstr ugg
Ġset Timeout
Test ing
N Unit
ĠBAS IS
ĠMal ays
ĠDe ath
U ntil
p riority
Pro c
i ator
ĠUS B
Ġd yn
ell ite
G T
sc ious
ĠBase ball
ox y
pend ed
w ire
le ased
S chedule
LO AT
Ġen emy
c lock
ou st
Ġass ignment
reg ex
Com ponents
Ġsh aring
Ġg ar
Ġbel ief
l iteral
10 4
Ġanaly t
P ref
e en
ĠA WS
ch anges
Ġ/ ><
Ġol dest
H C
ĠSe ason
ens is
P aint
}\ \
ĠDon ald
__ _
å Ĭ
ĠType Error
Ġexp osed
ig o
ĠR O
ch rome
ĠDet erm
ip edia
Ġen umer
Ġarr ang
Ġaccur acy
Ġapp s
ĠD raw
ĠSen ior
Ï Ģ
Ġso le
1 16
lo om
LO B
EN C
ĠA gr
ĠB arn
M AN
S ig
Ġconsec utive
P ages
u um
pe g
L ive
PO INT
ĠGener ated
is lation
ur st
ĠGr ant
ĠI F
Gener ate
Bi ography
Dep loyment
Ġsp end
] </
non atomic
os ity
inem a
ĠI R
For ward
Ġimmedi ate
Ġpil ot
Ġf d
ĠSt orage
Ġrep ly
Ġst ands
Ġprint f
dir name
Ġr hs
ĠReg ional
[ (
ext ract
Rec ords
Ġsever e
ĠG T
Ġinterest s
Ġprefer red
size of
Ġiter ate
" ?>
Ġleg acy
Reg istration
hold ers
ĠMos cow
ĠB an
init ely
Conn ector
ĠG ran
M obile
min us
++ ]
19 23
Ġan alog
gu ide
script s
ĠNor way
ur is
z o
aw ay
F IN
Ġparse Int
Un ique
Ġhe x
ĠI owa
Ġeducation al
×ķ ×
sample s
: %
per cent
F ixture
d anger
ĠT ab
Ġh un
Ġrelig ion
ort s
ĠD ream
Ġdepend ency
Allow ed
ĠM as
Ġg lyph
h int
ĠL iter
st an
Ġad m
ĠCont in
E v
ĠR ol
Ġpro vision
ĠJ am
ĠCl ark
pack et
ĠViet nam
ĠC red
- $
I l
R atio
w ick
æķ °
Ġs lo
Fil ename
ĠÃ ł
F ollowing
ĠS in
shall er
Ġpart ners
yst al
ĠOb servable
---- ---
place ment
em pl
O k
inter op
d ump
l av
Mod ules
PI O
ĠMat rix
c as
ĠB ab
em ony
ateg or
Ġbro ke
w ich
Y our
] $
Ġbehavi our
Ġphen omen
ĠPe ak
le e
d ating
Ġreg ex
ME SSAGE
r ons
ĠDe ad
OR S
14 0
'] ))
ĠZ h
ab ama
ĠW ait
Ġn ice
Ġs we
Ġre nt
ï¿ ½
> $
inc ial
ind ices
Ġdirect ive
Ġde cade
ĠN ev
ell s
act ic
open api
LE VEL
Ġaccess ible
Ġb lob
Ġcomp iled
ĠK at
Ġin herited
Ġh orizontal
}} (
Ġw alls
Ġbur ied
O cc
ĠR ound
Ġsub mit
Ġtrans mission
at able
S PE
( `
ĠEx press
d ers
Ġcontrib uted
un ately
ag ement
el led
Ðµ ÑĤ
m ixin
Ġknow s
ĠMex ican
u ating
ĠÂ ©
ĠT ony
Cl aim
ĠMel bourne
ĠS quare
> {
it als
ĠBar on
amazon aws
Ang le
Can adian
Ġdeploy ment
comple x
C art
vis ions
TableRow Color
RE NT
string ify
Ġinitial ized
iv als
U UID
Ġspec ifies
Block ly
Ġcall er
Ġequal s
Ġle af
ĠS ep
Ġstand ing
ĠK y
De ath
Ġcallback s
Ġfr ames
e lect
Ġscen es
ter ior
Wh ite
ann y
Ġrem ark
Ġappro aches
Ġs lide
ct ic
ĠAdd ed
Al ign
APIENTRY P
ĠMan chester
ne q
ĠFre der
Ġdec isions
P at
// ----------------------------------------------------------------
Ġc ookie
ĠM unicipal
S pe
prevent Default
ĠA P
ĠS M
ĠSim on
19 16
Ġn a
Ġthe atre
M en
Ġg it
C ss
' \
l b
ĠPhil ip
Ġfl uid
Ġcharacter istics
N EL
app s
Ass ign
Ġweek end
Ġmaint ained
Ġs ender
aw esome
ĠHot el
un es
db c
PRE FIX
Ġk il
ĠPro perties
U ses
W illiam
ĠFr an
Ġ" ;
Ġm ile
Ġv ocal
ĠB ah
ĠT IM
w allet
ĠGL sizei
Ġf ra
âĢ ī
ang ers
math sf
gener al
ĠB urn
Tag Name
Ġin h
Ġd ual
=" '
ul s
Ġz oom
Ġan imated
Ġtalk ing
i ac
s is
t oc
iv a
itect ure
ĠS ession
Ġdecl aration
ĠSO FTWARE
ĠT en
ĠA z
Ġst ages
" ])
Ġse gments
p n
if rame
x sd
Comp ilation
ĠJun ior
AUT H
Ġc ards
ĠO K
if old
ĠS ri
depend encies
Ġ[ {
i ang
Ġfav our
ĠH om
T y
A wards
Ġeven ing
she ll
sub scription
Mat ches
ĠKent ucky
us ive
Ġro of
ĠSh ared
Ġin variant
Ġrestaur ant
Ð ¹
ĠE ntity
Ġ[ #
Ġr anges
viron ments
19 15
Mill is
10 5
Ġadv ice
Ġinter actions
Ġsymbol s
ĠL ind
D ist
} ],
ĠDi ego
Ġprodu cing
i at
cript ors
ĠDis ney
Sc ene
View Controller
Ġcheck ing
pan ic
]( #
Ġ$ (\
Sur face
Ġeffic iency
exec ution
mb ed
Ġtransl ated
google apis
AR K
Ġposs ibility
ĠN um
P riv
Ġalloc ated
a us
Ġm m
uck s
ĠB alt
ĠMethod s
ĠV olume
D ash
ĠJ ane
r and
Ġhand lers
Ġreg ime
ue se
ache lor
Ġcom pl
40 4
he im
II I
Ġh op
TO M
M esh
we alth
Ġ" --
text width
Ġch airman
M ov
Ġpar a
el ve
Ġcol lapse
ĠTe ch
\ ,\
Ġdefinition s
us age
Ġair port
S core
root Scope
ĠRepresent atives
I ES
is o
ĠOn line
U K
Ġatt ach
! </
Ġ} ));
styles heets
Ġcred entials
Ġident ical
s ources
Ġmeasure ments
Ġl l
STR U
t uple
` :
ĠSil ver
=" {{
iv ial
Ġre ar
Ġcon j
Ġmot iv
E p
Warn ings
Ġvill ages
Int eg
R outer
jack son
Ġcertain ly
CR IPT
ĠS ix
ĠL evel
cl ing
r as
Des cribe
Ġ(! $
ĠIm port
Ġlocal ly
Emit ter
Qu ant
back end
ĠR yan
ĠValid ate
m n
Ġv irus
ĠM ir
Ġcell spacing
l iving
Ġcol our
ro tt
att en
ĠE D
ĠCh art
ĠC S
s izing
Ġcal endar
Ġ$ $
Request s
ĠE dition
ĠS chema
ĠA st
Ġexhib ition
IT ER
ĠRe set
Ġmeasure ment
C ould
ĠPl atform
ĠG C
Ġ_ {
Ġresearch ers
dest ination
Ġwhere as
Ġtri es
S el
ĠString Builder
ĠT EST
T ensor
Ġv eter
Ġinter ior
ĠS ET
Ġw ww
com ments
m ov
project s
Ġdraw ing
Ð¾Ð »
l ined
m ont
Oper and
Exp and
Ã© t
serv let
ĠJ ordan
ol ate
Ġunder st
Ġcap able
n an
Ġt ile
Rad io
> ${
Ġpresident ial
P RI
St ud
Ġcor re
Ġass istance
Ġparticip ate
Ġs now
Ġchart s
Ġst ub
Ġaccur ate
ĠTH REE
E nt
Ġconst expr
ynchron ous
In jection
ĠJ os
s at
Ġher o
Ġon going
pre ne
Per cent
() ">
Ġs ought
Arch ive
ĠS mall
ap el
olog ists
Ġclo ser
Ġuncert aint
ĠH o
ma zing
Ġex ceptions
s quare
Ġf aced
ĠE C
Part ial
G A
ĠHol y
Ġpro g
EN CE
HAND LE
ĠH u
Ī Ĵ
R ich
S ol
ac l
c py
D avid
Ġc raft
Ġpred icate
Ġste el
RO W
Ġw heel
ĠBr and
a ire
N ested
Ġch apter
ah o
ĠCon stitution
en vironment
Ge ography
M ich
ĠB ody
man ifest
Ġmov ies
Ref resh
Ġ! (
un safe
Ġintegr ated
Ġas set
Ù Ī
ĠT a
Ġto t
ST REAM
ĠTH IS
ĠA I
ĠNO TE
vis ibility
ADD ING
quis ition
R ound
Ġhand les
ĠLem ma
ĠTest s
Ġin ternet
] ];
D er
Ġr is
in ch
Ġman ip
ĠC lose
Ġprem ier
Ġlo se
kl ahoma
ĠR ule
G ateway
Ġcorrespond s
Ġfeel ing
Ġth ank
ĠPub lished
Co ord
Part y
Ġinter act
' },
ĠM it
ĠSt one
K ernel
Ġbel ongs
oc a
ĠAll en
å Ń
({ },
Ġfunction ality
Data Source
Pop ulated
Ġnom inated
Ġtra ins
rac ing
Ġpotential ly
9 00
() ]
OPT ION
Ġbro thers
ol ly
SY S
ĠT reat
Ġsix th
Ġphys ics
b est
ĠM i
Ġl ake
. (
l us
in cess
---- -
A f
re prene
ĠCh rome
19 13
At tempt
B ag
ĠT el
Ġexcell ent
it ics
Ġst arring
m oment
ĠC hem
Ġr ating
Ġsynchron ized
at on
Ġref used
ĠB eng
Re ply
f ish
config ure
Ġc ash
Na N
Ġs oci
ĠF T
ĠG ab
Ġsim pl
ic ide
Ġdynam ics
E q
inner HTML
Com b
ro ck
ĠG ET
ĠTem ple
ĠP rom
ĠSystem s
Ġmin imal
igr ants
Ġcr ick
x f
Ġsch ol
is ode
j u
ĠD NA
> ';
è ¡
Ġd ire
ess aging
ĠMo on
Ñ Ĩ
T OO
ĠJ ay
Ġconsider ing
/ '
D imension
ĠL eb
ĠAm ong
ch at
+ "
Ġhard ware
Ġconstit ution
ĠB us
Ġre try
Pr ice
Ġhyp ot
ĠWh ere
ĉĉ Ġ
Ġnot ify
Ġ( ((
ĠE uro
ĠN ever
develop er
ip pi
SQL ite
ag an
uth er
SD L
ub ic
ĠV ice
{ {\
numer ic
ĠO k
ĠAr k
ust ries
ERT Y
ĠAg ency
dis k
W ORK
Ġsub set
h or
Ġil legal
Olymp ic
as p
enumer ate
Ġexplo re
an ches
Ġpre mi
ard o
Java Script
IT LE
ĠLe ad
ĠS witzerland
Ġc ancellationToken
en o
C ross
ou ches
* >
Ġphot os
node Name
ta h
Ġscient ists
Ġlist ening
ĠPh ot
Ġag ed
Ġmoment um
R TC
interop Require
Ġs ock
jav ax
G it
qu ant
z i
è ®
ic ut
O ps
ĠT rade
ĠMar ine
ific ial
ĠP ed
Ġbreak ing
Ġcon crete
eg as
} +\
ĠG ib
Trans lation
Ġto wer
Ġ Ä
M r
ĠHol lywood
D an
Ġcl im
ĠD un
ym n
Ġterm inal
Ġfeed back
For ce
gener ic
ĠFinal ly
Ġint ention
F igure
Ġconsist ing
Ġsign s
in us
ra ined
j or
Ġhe aring
Ph il
Ġapp rec
le et
ĠE N
Ġfall s
â Ķ
Ġ@ {
ĠPal est
H idden
rypto JS
e in
Ġinter section
ĠReg Exp
Ġg rade
ĠF ixed
Ġ& \
on av
F ilters
ĠP NG
r ices
Ġv irt
get Time
Ġc ros
l ive
no indent
Ġb rows
Ġbo at
ç »
Ġv ulner
Ġsign ing
AC ING
ĠB run
Ġgood s
ĠL IC
ĠHow ard
Ġsym pt
x FFFF
ordin ates
Ġdec ide
Ġp it
ĠA ws
H ar
Ġmay or
Ġh ole
per iod
Ġres erve
w en
19 11
Ġincor rect
) *
lic as
UN K
pro v
ĠAf g
g p
B ul
em an
e led
the w
Ġtop ics
Ġstrateg ies
x FF
p ick
Ġcrit ics
Ġco aches
Ã ª
LE S
ĠCap ital
ĠAnth ony
Ġs ail
ĠTok yo
Th rough
m ust
Ph oto
Ġoff ices
Ġfound ation
b x
s ynt
Ġinv ited
ĠCheck s
Ġinstall ation
us cript
Ġcapt ain
g ence
ĠĠĠĠ čĊ
Ġrender er
h al
Ġde code
}} {\
Stat istics
ĠG rad
O G
Ġsett led
Ġs cre
sp in
ĠD oc
Ġcomp re
cl ine
ĠAust ria
ĠC ape
ĠTh ird
Ġtechn ologies
Ġatt orney
ĠL ank
case s
ĠFor ces
Pub lish
LE N
Ġrev olution
road cast
ĠPat rick
Å «
Ġra in
ĠPro file
External Task
L ow
AME TER
ĠLin coln
mult iple
Ġm ob
Ġr s
Ġhead quarters
Ġe g
b urn
aw are
Ġaccom mod
c amera
bra ins
dat aset
E urope
Ġscen ario
ur ric
Ġne ither
c aret
n ate
st ion
F M
Ġ ut
Ġmedal ists
kee per
Ġread s
LIN K
af ka
Ġteach ers
T ING
CE PT
Ġf olk
app y
' "
Ġeng aged
Ġre start
ĠP A
Ġthe orem
ĠM iami
V T
S peed
BOO ST
d td
exist ing
get Text
end a
Ġjoin ing
ĠH ans
Ġmod er
ĠMo ore
B ridge
ur d
read only
Ġwh atever
up per
Ġp tr
ĠB ureau
f uture
aly zer
Ġintegr al
he ap
and al
CT RL
ĠRes ources
e ction
ic ity
ĠK evin
ces sed
Ġvol umes
Ġserial ized
t ick
oc used
ĠâĢ ł
all as
ĠS uch
ig e
Ġlow est
iag ram
Al so
ce ived
work er
' ):
ĠTh row
ExternalTask Pojo
E ast
t v
Ġent itled
Dispatch er
Th an
[ ];
B ibliography
ĠAuthor ity
Ġin hib
pre view
Ġc orn
Ġpro jection
Ġl icensed
Ġm ine
M c
Ġ$ ('#
ul us
Ġl ift
ĠS el
ĠD aily
Ġe at
Ġiter ation
ĠBOO L
H orizontal
Sh are
ĠGree ce
Ġcommand er
Ġ" ")
N or
h w
AR CH
Ġheav ily
Ġformer ly
wh o
Ġun expected
in th
Ġleg islation
ĠÂ »
Ġad jacent
L C
ĠP as
Ġex cess
og ene
mark s
hem atics
H ex
Ġpl ate
ag u
i op
<? >
v i
Ġt ack
Elements By
Ġgr pc
Dest ination
Ġb ronze
ate ur
Over flow
he size
ac er
Ġpol ar
L ONG
TE GER
Ġsequ ences
h space
ĠL as
se a
Ġ ion
Ġedu cated
Ġdis ap
Ġlaw yer
ownt own
Ġd t
ĠB reak
ĠC lo
Default s
DE LETE
Ġm i
stat ement
ĠAl abama
M arch
node Type
Ġ( @
Ġincre ment
ĠM rs
li est
O ffic
Ġpro posal
fin ish
ĠIter ator
id i
Ġrece ives
pro f
ĠB os
F atal
ast s
ff ee
ĠEcon omic
Ġmembers hip
m anagement
------------ -
Ġ æ
ren a
C lock
Ġflo ating
Ġl ambda
PA SS
Do ctrine
ĠInitial izes
(' ../
Read Only
The ta
Ġgalax ies
ĠN ic
el lect
am an
Pr imitive
ĠD al
hen sive
ĠG ram
Ġd ump
BU TE
ĠLab our
jet brains
uet ooth
]] ></
sur face
Rout ing
Ġinj ured
Ġ[] *
UT C
Ġdepend ent
ĠO THER
H ide
ĠB ry
Ġde leg
[ -
Ġle s
Ġde comp
ĠO ak
Ġnorm ally
min ute
pr ising
b p
. #
the orem
Ġm outh
ĠIsrael i
Ġas ym
ar o
Sh ift
Ġapp lies
Y es
(" <
ĠIslam ic
' $
c ity
i NdEx
Enc oder
Prop ag
Ġco ins
Ġh a
ĠK itt
ir ms
Ġ urg
Cl ause
Ġly rics
J s
S heet
Ġde ferred
ustr y
Write Line
ap id
ĠÐ ´
u able
ĠIN T
å ľ
Pred icate
ĠLIC ENSE
l ades
Ġconf idence
Ġsu ite
Cl one
ĠMot or
ĠHarr is
Ġs alt
oc os
) }{
Ġs ounds
10 7
Ġaccom pl
p ause
ĠMem ory
Y S
s u
:: $
p ixel
Ġc c
B D
ĠForm at
ĠÐ ¸
Ġro uter
Ġrele ases
Ġoccup ied
Ġdeb ate
Ġcook ies
ĠP erm
Ġrender ing
Ġinde ed
Ġre venue
F D
Ġdec ay
ene z
Ġag encies
se ed
T ARGET
hen s
ĠAfg han
ĠR oss
ĠE ver
Ġv oted
Ġ- \
scri ptions
Ġintrodu ce
ĠR ey
Ġattack ed
Ġmed icine
hash Code
ĠS ave
Ġsud den
ĠJes us
K EN
row se
GRO UP
iss ippi
I BUTE
Ġfund amental
y aml
Ġfl ash
C lip
H on
ĠN ap
Ġenh ance
Ġbl ank
V IS
__ ["
ĠRe quired
Ġbo ys
Ġla id
Mod al
h us
19 08
F eb
ĠD IS
Ã «
de mo
ĠT err
Ex cel
ĠY outh
Get ter
=' #
Text View
pro fit
T LS
Ġcap abilities
Ġre aching
Ġcover ing
} -\
Ġacc used
Ġsp ending
it is
Ġs ons
fail ure
ĠN ik
Ġ) {
W ords
re ement
Ġs cores
Ġt f
Ġseem ed
Ø ¯
ab lished
OT TOM
Res ize
Ġconcern ed
Ġdr um
Ġvers us
sc ene
A E
Ġsell ing
A ud
Ġs cheduler
CL I
io ce
ord ova
G uid
lic ity
ro ph
math scr
i ations
× Ļ
qu o
Re view
Ġins urance
Ġshort ly
Ġent ities
Ġd ial
et ies
D ot
Ġret ain
par sed
Ġcirc uit
le ans
lock ed
m icrosoft
ĠB ORDER
onav irus
g gle
Ġcour ses
inn ed
Ġsubject s
Ġprovid ers
Volume Source
Ġretire ment
bum s
Ġback ing
Ġsub mitted
ott ed
Ġ ].
? )
Ġp arsing
Ġre form
s cheme
sign al
: **
Ġinsert ed
ĠP riv
df s
Vis ibility
Al ert
S n
Ġch air
Ġvisit ors
Ġnu cle
../../ ../
Stack Trace
ĠG iven
Debug ger
Mar shal
ai ses
ĠEm peror
Ġeng ines
d id
be at
Âł Âł
Ġch ose
rest ore
Ã ´
Ġm orph
Compar ison
cc cc
MP TY
Ġsuff ix
ĠE arly
Re vision
Ph ase
}} }
L uc
th ree
Ġm it
Ġsp atial
10 3
V IEW
han ced
Ġp apers
Ġ" :
ĠS U
Dec ode
g lob
ĠH old
Ġfac ilit
Ġex ponent
IT H
Direct ive
item ize
Ġsign als
ing ly
Ġregard less
sche mas
Sports people
ain ts
Ġappro val
IN LINE
ig ible
her its
ĠR ab
Ġgun s
. ";
Al gorithm
ĠWal ter
ĠD ue
ĠM obile
Ġvict ims
Ġsomew hat
window s
ol ves
Ġ" ./
ĠP UBLIC
ĠO UT
Ġr id
pp ers
the ad
ĠS n
urre nce
Ġgu id
Ġin finite
ĠHer itage
Ġb anks
Ġexerc ise
Res olve
ib ilities
Ġpoet ry
ĠD og
Ġsub group
lector al
Ġarch ive
ĠE ag
Ġsim ult
Ġwe ar
Å Ł
Ġread ers
w ind
enc il
ab solute
z ier
ĠTe levision
Ġf ru
ograph ical
gu ard
ffic ients
Ġd ense
ĠQ String
S IGN
Î ·
C oin
ĠW y
> ');
Ġ' {
n old
ĠDev ice
Ġcor relation
m g
ĠD I
Ġl ibraries
TR ACT
He ap
Ġthread s
F oot
Ġro oms
u lo
lov ak
Ġaccomp an
Ġbound aries
Ind icator
R M
TR A
ĠH E
end o
Al ignment
STAT IC
oot strap
ĠAn ne
Ġeth nic
Ġpain ter
q q
"> '
Ġconcent ration
ĠDef ense
Ġmag ic
ĠA V
18 90
Ġexp ensive
Ġcl usters
U TE
oret ical
t ol
Ġwatch ing
F LOAT
Ġd jango
at ype
Ġ( #
ug u
b as
IN CL
Ġw ine
ex clude
oen ix
Ġt ight
ĠG it
ĠMem bers
ĠV in
Ġestim ates
Ġsess ions
c v
Con version
Ġass ault
Ġb rown
ss on
Ġseek ing
Inv oke
DI RECT
ĠCo q
id ad
ĠG ard
Ġexpos ure
Ġincreasing ly
ant om
ocr atic
="# "
Ġ-- -
Ġp up
Ġb id
S ink
qual ity
r x
Ġsim ulation
\ ":
Ġcer emony
ambig uation
I tal
Are Equal
Ġsub sid
Name Link
in ces
Ġto ggle
qu iring
ou bt
Ġdr ums
ĠF M
A pril
ĠExt ension
ou sed
i pt
Ġb es
ver ts
Ġ" +
g ui
s leep
Ġro ots
Ġstre ets
Ġdescri bing
$ }
i ot
New s
Be havior
Has Been
ĠHaw ai
Ass ignment
F oreign
ĠA le
Ġliter ary
Det ector
iv idual
ĠQueens land
ĠMe an
Jan uary
O rient
ĠN ob
Ġstream ing
ĠT raining
f av
wh at
T oggle
ĠF a
') ).
Ġn ortheast
Ġpresent ation
t z
block s
ug gle
ip es
Table s
ĠNor wegian
st eps
S ent
Ġf ought
interopRequire Default
ĠDo ctor
ĠDo es
S ing
Ġsol ve
Ġprodu ces
uck ets
ed ing
ĠF arm
g able
nof rame
Ġo x
Th rows
Ġg ro
Ġa ver
Ġres cue
Ġx si
Ġcent uries
Ġte en
ĠA UT
Cre ation
un ion
m issing
Î »
r ating
Ġout line
ev t
Ġb irds
il st
pe er
ant ed
Ġsent ence
enn y
it ro
N P
HO ST
Austral ian
th od
str iction
ĠA udio
Ġdesc end
get Key
C ost
Ġ' ');
vent ions
S ys
Ġkn ock
N R
ĠS cript
input s
Ġorient ation
S F
Ext ract
ĠO klahoma
riter ion
Ġembed ded
> [
Ġsing ular
Ġ} .
INST ANCE
Ġbr ings
Ġadapt ed
Ġs ink
Ġassess ment
apt ers
Ġindepend ence
T ip
Ġre in
t ract
ĠD ur
end region
ur ers
ok er
ver bose
Ġbutton s
ĠF ound
un iform
ĠB rowser
Ġther apy
ĠVill age
F it
Post ed
ĠV AR
ĠMore over
br anch
Ġro yal
last ic
b az
Ġdrug s
Ex change
Ġb low
ĠWork s
reg ular
ĠAdd s
B AG
: &
I MAGE
serial ize
Ġst adium
ĠMult i
ra ise
Ġappear ing
ĠEvent s
S ound
Ġb attery
Ġd ot
Ġdirect ors
> ',
vis it
Ġlos ses
Ġtr uly
cons ist
y ers
M IT
ĠR andom
s ame
Ġmain tenance
Ġs ig
( ?:
A VE
in herited
Ġse d
Te am
Ġscript s
Ġup grade
O RE
| ^
Ġd iverse
k ube
ob server
Ġso il
1 32
ĠF loat
mod ifier
f actor
Ġdevelop ers
^^ ^^
}} _
im edia
14 4
command s
ĠF ame
ĠC ook
ĠT ake
direct ive
iv o
Ġentert ainment
ri bute
Reg ex
cri bed
ĠPro gress
ra k
Ġlands cape
om as
roll ing
es c
Ĩ Ĵ
Ġmanufact uring
le ave
Ġcor porate
, .
C a
ĠCom par
ĠBul g
com par
Log ging
S pring
ĠRes erve
Ġclo sure
Work s
p ot
ĠÐ º
Ġopt imal
ĠY an
al igned
=- =-
ĠQue bec
ĠCh ile
equal ity
Ġremov es
s am
Equal To
Ġne uro
ĠTurk ish
el son
Ġcount s
Ġabs ence
co hol
loy d
vel ope
ĠDet roit
che ll
Ġan cest
ipp et
ĠK er
FLAG S
m x
ĠB ound
Ġh ack
In clude
ĠCO MM
S VG
ãĢĤ </
f ef
h ill
Ġnumer ical
ĠEar l
Al t
Ġobserv ation
F ROM
tr as
Ġw ed
Ġequal ity
h ist
k ar
Ġst ood
M X
k et
Ġto ler
Ġund ert
Ġpol yn
Ġhundred s
Ġs che
Ġg fx
st ory
Ġrough ly
Ġed ited
ane ously
Con struct
ĠDe an
Over lay
ĠSt ew
ĠAnton io
Cap acity
Ġfle et
Ġpublic ations
Ġsu it
ĠN ichol
24 0
Ġt on
aud i
C ut
le af
Im ages
x e
Ind ian
ĠD at
Ġp or
ĠS ide
interpre t
Ġcon d
ĠD ick
ĠAs ync
Ġinitial ization
å ¯
Ġ======= =
G reen
ranch ise
Ġrestrict ions
ĠS TR
sc ill
Ġnormal ized
Ġmusic ian
as a
ĠD ave
Ġkey board
Ġmonitor ing
f lix
ĠĠĠĠĠ Ċ
D a
ĠM ut
ĠH amp
ĠF ont
table s
MLE lement
HasBeen Set
Ġt ip
ĠB iden
Ġt um
p ipeline
Ġarg ued
Ä «
h avi
Ġsit uated
Ġex clusive
_{ (
s cheduler
Ġn ick
Ġfac ing
Ġz ip
IN PUT
Ġpass enger
Ġc p
s yn
Ñ ħ
ĠU int
re tt
im ore
ig ious
Ġst y
Ġ# #
V ERR
const ants
et ition
Un able
ĠD ak
Ġfind ings
Ġalign ment
: =
D istribution
Ġmy self
19 09
GB T
ĠInter face
ĠC ow
ĠL eft
pr ice
Ġcon cluded
ĠLo op
LP ADDING
R ail
C AC
ĠW H
m aker
control s
ather ine
ĠA DC
ä¸ Ń
Part icip
ĠAn alysis
NotFound Exception
ĠRes pon
Ġsk y
Ġmin ing
Tok ens
Ġmet av
over ty
Ġh am
x c
ĠS ud
is ations
ĠCollection s
Ġfamil iar
ĠMay or
Ġdesign s
ĠSw iss
ĠCon dition
met ic
Ġun us
Ġw aters
es a
é Ģ
lection s
D X
Ġaband oned
Ġroad s
ĠR ot
ĠS port
g un
Ġspe aking
ĠN eg
ĠO pt
Ġregular ly
_ *
ĠBo ys
Ġr ig
or ig
ĠS cal
el lo
Ġl ic
Bl ue
ĠERR OR
ĠOb ama
ik h
ari os
A ir
ha us
ĠT F
Ġw aste
Ġaff ord
ĠCEL LPADDING
Ġtra il
Ġestablish ment
T L
ĠD iagnostic
level and
t ax
in os
Ġstream s
Thread ing
Ġexpert s
ĠDoug las
Aug ust
ĠĠĠĠĠĠĠĠĠĠĠĠĠĠĠĠĠĠĠĠĠĠĠĠĠĠĠĠĠĠĠĠ ĠĠĠĠĠĠĠĠĠĠ
, ,
Ġad apter
] ));
Ġp ray
Ġst im
en ario
ĠG on
ĠG ordon
j oint
CON NECT
b ow
Ġeval uated
ĠCEL LSP
ĠCELLSP ACING
Ġtrack ing
xy gen
sh ots
ĠN ag
R X
@ {
Ġpl ugins
Ġback end
ĠAdd itionally
field set
vent ory
Ġde pos
Operation Exception
STRU CT
ĠAd vent
Ġes c
ĠE mer
ĠE ffect
Ġgrad uate
G ood
Ġocc as
J une
Ġbul k
activ ate
ĠInf antry
C MD
V A
Ġprinc iple
M us
ĠA zure
Un lock
ĠD ie
Ġf urn
Check er
Red irect
pl ane
ĠSc ient
S PI
ĠL P
ĠDe cl
Ġb on
Ġgu ess
Ġcompet e
ĠP P
ĠB ind
get Property
log ic
x ffff
000 1
ĠBatt alion
19 05
respon sive
g ol
ĠM L
u h
ash i
2 13
Ġacc ord
Ġvacc ine
ev e
k ov
el and
ĠSt udio
Ġ( ,
ĠArgent ina
M argin
Ġdesign er
Ġmis sed
Ġdut y
ĠWh it
B etween
Ġentr ance
ver sed
Ġutil ity
Ð¾ ÑĢ
DY BAG
Ġecon om
neg ative
Ġal gorithms
Inst ances
Author ization
> /
Ġrep o
c sv
Ġfound ing
Ġr ival
lo tt
Ind ent
Ġoper a
alle st
app oint
Event Handler
ĠFurther more
Ġwor st
Ġ/// <
ĠL A
RE ST
S chool
S mall
Pro vid
p al
s ender
10 9
N Log
Ġed uc
Ġsurg ery
High light
ĠCON FIG
bul let
el le
we ak
Ġvari ation
ĠM ode
sect s
ĠZ one
b n
im plementation
bo ards
Ġsy nd
ov y
Ð ±
Ġclass ified
Ġask ing
qu ick
g uid
ĠConnect icut
v space
ĠA G
Ġk it
Ġman ual
==== =
Ġacknow led
Ġp ause
L ER
Ġm atters
Ġcom ic
char At
ic ient
Ġsens itive
ĠWalk er
mult icol
ch arge
Ġmom ents
Ġd x
on i
Ġm arg
ri ers
Ob serv
Hand lers
ĠF low
Ġperiod s
ol ph
ĠB uck
ĠR ace
ĠUk rainian
5 000
part ition
se ek
NE W
Ġinv asion
W ell
UM ENT
Ġf aces
OFF SET
t bl
Ġform ats
ĠPh illi
ĠW olf
Ġs ensor
em ploy
Ġent ering
) >
res olved
Ġpass ion
Ġinflu enced
Ġe igen
Ġcarry ing
is or
Ġpat ent
in ction
dis ambiguation
ĠGir l
Ġl in
Ġdriv en
e se
Ġch oices
ĠBut ton
Ġturn ing
d AtA
Ġsym metry
ac o
ase ts
Ð¸ ÑĤ
is Function
{ };
C odes
OP EN
LI B
Ġdo cker
un its
ail and
m outh
ĠD VD
fort unately
c odes
Ġhead s
Ġgrad ient
end ment
amp s
tr i
ram a
s ent
Ġim pl
---- --
ĠCal led
ab a
ĠP arameter
Ġexp los
S ibling
à ¦
Ġid s
ĠF ern
back s
Ġpre gn
ĠOper a
and box
he mat
Ġ( );
ĠSquad ron
Ġf lying
Vert ical
es Module
ĠVis ual
M F
ep age
J o
Ġimpro v
Ġdat etime
aut orest
at om
Ġarg v
leg es
Pro v
Ġhistor ian
Ġadult s
ĠI MP
und ef
iss ance
ĠAtl anta
Ġappe al
ĠFe ature
in verse
oc or
="@ +
ĠU r
Type Name
ĉĉ čĊ
am ar
Ġbe ar
Ġadvert ising
ĠEx change
Te levision
Ġab use
ĠH op
ĠCl uster
æ Ĺ
draw able
2 20
ĠKel ly
Ġliqu id
ĠĠĠĠĠĠĠĠĠĠĠĠĠĠĠĠĠĠĠĠĠĠĠĠĠĠĠĠĠĠĠĠ ĠĠĠĠĠĠĠĠĠĠĠĠ
Ġcon tribute
Ġpres erve
stats models
ĠBow l
Ġsql ite
Ġcent ers
Ġmagn itude
Ġwe ights
ĠDub lin
ĠIndones ia
ĠN atural
lic ts
Im g
Opt s
Ġdanger ous
19 06
ance led
Ġcontin uing
F ront
J ames
ĠĠ čĊ
ĠMiss issippi
3 50
ri ses
cur r
) }$
ĠH it
DO WN
valid ator
Ġext reme
ĠStud ios
ĠH ockey
ĠF inn
Ġrespect ive
ĠNav al
CP U
ĠM E
Ġinh abit
ĠLim ited
u ity
Ġbrief ly
Ġ* _
S prite
Ġv ast
ĠP ref
Clo sed
Produ ction
uk i
w so
he alth
J uly
g em
Ġsp oke
ol y
Ġ* */
in burgh
evel oper
ĠLin ux
ĠBill board
end ers
aw t
Ġr m
ĠP rix
u pt
er os
[] {
P K
Ġch urches
Ġrepl acing
t rain
Code Analysis
Ġb ot
W alk
o j
Ġj azz
FFFF FF
Ġ ur
it ative
Ġfriend ly
F B
ĠCl in
ĠC ra
NAME SPACE
Ġs outheast
I ll
f ather
p d
Ġweek ly
m ms
ĠId ent
Ġdep ict
ĠS R
10 6
a ui
Ï Ĥ
cy cle
Add ed
ul um
s lot
bar a
i able
="# ">
Ġput s
DI O
Ġremov ing
clud ing
Ã ¦
Ġcompet itions
tensor flow
) &
Ġflow s
Json Property
ific ates
sec ure
Ġ" (
ĠYear s
ĠS witch
Ġ/ ^
CL K
l ings
s chedule
Ġs occer
iam ond
19 07
v y
ke leton
ĠB art
with out
Ġbe am
Ġ/ ></
Ġcol le
fef efe
n l
P atch
Ġoutput s
Ġs wit
Ġc ov
ĠL IMIT
ic ht
Ġperm itted
er on
Ġsurn ame
Ġobject ive
ĠH ug
Ġback up
P aul
ĠIndepend ent
ĠPe ace
Ġrequire ment
u art
ĠH ills
St ates
ĠLa ure
ĠGir ls
Ġopt ical
Http Request
Conf irm
ĠP ope
Ġh aven
ĠC emetery
ĠOrgan ization
ort ed
Ġpass engers
Ġcancel led
Ġth in
il lo
ĠT ar
Ġar med
H istor
ĠDemocr ats
ul se
ud son
Ġpract ical
Ġre act
Ġprint ed
55 5
Sign al
ĠIn stance
il k
Ġpoint ed
Ġsing ers
Ġcomp ens
G a
Ġun iversities
Ġrest ored
multicol umn
Q t
ab ling
assert False
ioce se
Ġin verse
ĠPortug al
ĠC P
ĠJ uan
is ons
ant on
enc er
ĠTem plate
Ġdemonstr ated
Ġcomp ression
Ġtrad ing
Ġim possible
Ġcontain ers
resource GroupName
M iddle
ĠCom pute
Ġobserv e
Ġrep orter
ĠAr men
Ġh arm
19 04
Ġt ennis
ĠP ap
post s
list ed
MA IN
ĠPortug uese
d riv
ph ab
Ġdef ensive
Ġharmon y
| }
Ġpy thon
Ġp ione
Ġa ired
TO DO
new command
OUT PUT
Ġp s
Ġput ting
ĠM IN
Ġpublish ing
channel s
ĠB ush
Ġnumer ic
Ġj e
Ġart ifact
ĠHon or
ĠDis play
h ot
ot ive
ĠT ax
: /
Ġfin ishing
re ply
Ġse es
Ġra cial
Ġconsum ers
Vari ables
Initial ize
ĠCh ampions
x hr
vers ions
Ġquant ity
f are
ĠHe ader
ĠAb d
ĠSing h
sh ake
Ġcr icket
å Ľ
ĠPack age
ĠC ell
Ġlo com
ĠBelg ium
ĠPl ant
ic he
ĠF ive
Ġpain tings
Fl ush
WARN ING
ap olis
Ġassoci ate
ĠInst all
ĠDen mark
Not able
Ġpriv acy
n ed
per mission
Ġconnect ing
Ġin aug
ĠS eg
Ġmanag ing
Ġconvers ation
ĠLouis iana
ect ure
prec ision
Ġcommission ed
Ġinfe ction
rb an
Mult ip
Ġ< ?
10 8
Ġtemper atures
Ġinter mediate
Ġpop ulations
ĠP red
Ġregard ed
inc or
Ġimpro vement
capt ure
custom er
in ian
pr ings
ol ished
Ġcrow d
1234 5
ĠM organ
ĠSar ah
Ġve get
m ate
Ġdec imal
normal ize
ant ics
Ġt ank
ĠL ag
po ch
d type
Ġprocess or
ĠG arden
ĠCommon wealth
C our
Ġ} \
Attr s
Ġam plit
copy right
tem plates
Ġphil osophy
Ġrapid ly
a con
ress ive
ĠGener ic
on der
n ia
stream ing
mat ched
Ġv ectors
m f
ĠD ist
query Selector
ĠCh airman
ĠArt icle
ul ates
Ġhigh way
M ass
ol t
Ġsympt oms
Ġmin im
MA KE
foot note
Ġconsist ed
Ġincor porated
Ġkw args
Ins pector
DIS ABLE
ro zen
ĠI C
ĠCO MP
Ġnormal ize
h p
z ym
ĠRus sell
C y
Ġ\ ;
amil ies
W ire
ĠAl an
ĠO O
ab lish
char set
ĠAPI ENTRY
ifi able
l tr
Ġs ight
y arn
Ġp ad
n io
h base
periment al
uff le
Ġnot ation
std out
D M
Ġw el
Str ip
l ua
Ġbreak s
f w
Ġde bt
Ï ħ
Abs olute
Ġrestrict ed
Callback s
ĠF ore
Custom er
Ġbrows ers
ÑĢ Ðµ
Vari ant
D ao
lo be
hl js
ab ul
11 4
Ġbound ed
Ġf ranchise
Ġ{ !
ĠCo oper
ĠNC AA
ic ular
Pay ment
ĠDis able
Ġapp lying
Ġb t
ĠM ove
rack et
ĠI ron
Util ities
Byte Array
MA G
Ġg rown
USE D
V I
local s
Ġan th
Add itional
Cont ainers
Ġcircum stances
Ġcons ervation
S at
ĠAl liance
mod ified
Ġbr anches
\ }$
PAR AMETER
Ġman uscript
V P
Ġautom atic
bo y
Ġ( <
Ġis set
ab ad
Dis able
" </
eb r
Ġr ational
Ġc urrency
ĠSet tings
Reg Exp
BIT S
19 03
Ġad mitted
User name
Ġport s
st mt
ts burgh
Form er
P df
Ġb aby
Ġpro sec
n est
ack s
AS A
Ġwould n
Und efined
Ġtri ple
ber ry
ĠDef inition
Th ree
Ġc rypt
l r
ĠM aur
Ġserv ers
Ġd s
Ġd type
Rel ated
ĠP ear
å ¼
ĠEn sure
Ġt icket
Ġch rome
Ġoper ates
re quires
Ġal location
ĠK am
List s
Ġh ired
Bind er
Ġinter pol
Ġnecess arily
Ġt y
) ',
Ġsecret ary
Ġ ride
ĠK az
ĠBang lades
ig ue
Ġpartial ly
g ro
Ġfor g
ENT ER
ĠL ess
Ġrout ine
VERR IDE
US H
Ġdisc rim
ĠM icro
ĠPer formance
vari ables
c am
Ġprodu cers
11 7
Ġas c
Ind ices
Ġexpl ains
ĠM ission
ĠF al
f v
Ġm art
i q
Ġun iverse
Ġcur r
A cade
ĠM aterial
UP DATE
>() </
M ilitary
ĠL INE
ĠMalays ia
ElementsBy TagName
Ġb ias
Ch ars
Ġf ault
member Of
Ġsatisf y
il ib
sw ap
car bon
~ $
oust ic
m aking
Ġcomp atibility
Ġarriv al
Ñ Ī
ĠSam uel
ool s
Ġwarn ings
ĠBrig ade
Ġgr ass
ĠSchool s
Ġmy th
ĠApp end
SD K
synt hesize
ir i
ĠStud y
ĠÐ ¾
ct l
) {\
ellect ual
ĠH ence
ĠAust in
Ġincre d
Ġcalc ulation
Ġab und
ĠValue Error
V ill
Reg ular
ĠP arent
Ġlo ved
Ġann iversary
Att ach
! (
19 01
RET URN
) ?
Ġremov al
P ad
Ġru led
Ġd oubt
um ed
decor ation
Ġal ive
-------- ---
Ġv oting
row Color
ĠH D
ĠWeb site
Ġre ign
ĠAt omic
ter y
( ',
it i
Ġspec ification
Ġinstr uments
col ors
Ġis lands
Ġtouch down
Ġreli ef
ĠN u
te chn
ĠS A
Ġmark s
CO PY
C ached
Ġmet res
P ACK
lik ely
Ġl attice
ĠG un
Ġpro hib
ĠF actory
Ġp ipe
Help ers
Ġden ied
Oct ober
Ġ\ (
Ġgu y
s napshot
ĠM eta
% );
ĠCom ment
C he
ĠInt eg
Ġthem es
enc oded
param ref
Ġi i
Perm issions
jb oss
Ġfe els
Ġc url
ocom plete
Com pute
Don ald
o is
document ation
ĠB uff
* .
ĠSt age
Ke ep
Ġspect ral
Ġ"- //
i est
Ø ª
ol s
Ġro se
ĠLaw rence
M anaged
ĠPol y
conf irm
Ġinvol ves
Ġhor ror
B usiness
Sub mit
ĠOb serv
et he
et ary
12 4
ĠAng el
Ġbr ands
ĠHar vard
ĠSum mary
Ġst ating
Ġg ift
Ġhash Code
clus ions
ĠS DL
-------- -
Ġk ube
ADD R
Ġins pect
ys i
Ġpick ed
ĠFin ancial
O h
ug s
writ ing
Propag ation
DE P
99 9
is Valid
Ġsatisf ies
ipher al
ag g
ĠE nt
Ġoff ensive
m any
ut ely
B orn
/ %
Ġorgan isation
Ġemploy ment
Ġg ang
La unch
Ġb ars
Ġgener ating
F ootball
re ll
ĠMc G
ĠR TC
Ġpen alty
Ġpro c
g ate
ĠS lo
Ġr v
Ġinvestig ate
R G
cast le
> ../
um inate
Ġbeh alf
Ġcompet itive
Ġapprox imation
B in
Ġf ruit
sh ader
) '
S al
U G
. :
Ġpri ze
ĠCro at
ĠD ATA
Ġmod ification
le w
Ġclean up
ĠU lt
. (*
u ced
Ġn am
ĠP aram
cor rect
op am
th ere
VER TEX
IT S
ĠT yp
Par cel
ia h
Cl ub
bo th
Serial izable
ĠHistor ical
m anaged
Ġm igration
Ġmeet ings
18 80
Ġwill ing
Ġsit uations
Ġinj uries
Ġt ied
Ġc ipher
D ER
Ġcitiz en
Rot ation
ĠGL float
re ach
Ġhealth y
Ġemploy ee
ID ENT
Ġt ub
Ġme ets
PROP ERTY
Ġagr icultural
Ġsim ulations
De cember
n ik
Ġtrigger ed
Ġdise st
ĠL ower
! âĢĿ
ĠR oom
Ġst ability
NO WN
ers ions
ĠS ql
ĠD WORD
ĠResult s
Ġassum ption
ĠSe attle
Ġneigh bour
ĠF ight
Ġsp ark
ĠS elf
Start ed
Ġtransport ation
if ecycle
Ġcon clusion
Ġf est
om ething
ĠKe ep
ul atory
w heel
os lav
Ġar c
C N
ĠTe le
Ġcomput ation
s ong
ĠPro vid
U INT
ĠU tah
comp atible
Ġ um
l arg
an de
ĠLink ed
ced ure
ĠMet ro
")) );
Ġpredict ed
Ġen vironments
ĠA BC
dig est
ĠBru ce
ĠA B
ĠV egas
y ll
iver pool
ĠPh oto
(" [
oriz on
Numer ic
G re
as set
Ġsing ing
v p
Ġaccess key
âĶ Ģ
Ġr ising
ĠL E
(( (
Ġground s
st ers
ĠS ER
w edge
Ġwhen ever
od ge
M ATCH
ass ador
A CTION
Se ptember
ÑĢ Ð°Ð
She ll
Ġessential ly
19 02
Ġconsum ption
Ġemph as
ĠD allas
ĠCol omb
Ġmach ines
Ġcross ing
oc he
SET TING
the less
Rece iver
Ġtri als
Ġjun ior
Ġp ictures
Ġm k
ĠR aw
lay ers
ĠM eg
[] )
GLE W
ĠBrazil ian
Ġscal es
Ġo vers
â Ĥ¬
ĠH um
Ġcou pling
ĠN am
Ġsh a
ĠPr imary
rg b
ĠNiger ia
og a
D AT
rol led
ĠB egin
Inter op
ĠB erg
c ia
Ġre produ
Ġamount s
Ġj et
tag Name
N OS
W D
ĠM ET
x space
R oman
Ġdecre ase
ĠPublish ing
ĠS S
Ġst retch
Ġprinc iples
Ġp t
ĠL anc
arn er
ĠJ osh
Ġperm it
ĠK it
ĠSm art
2 10
ĠY e
Ġa mazing
ĠH il
LE FT
Ġscal ing
sub Nav
-- )
Alloc ator
m illion
Ġg iant
Ġf ib
se ctions
Ġrad iation
Ġfall ing
Dec or
Man ifest
ĠB etween
ĠEd inburgh
ĠĠĠĠĠĠĠĠ čĊ
Ġqu iet
t age
ĠDef ine
fl uid
c ost
ĠF ast
s ocial
u is
ĠPal ace
M ULT
å º
f aster
ĠPu erto
qu et
f our
ĠC OP
IS H
is sed
ch ars
ĠF ried
Ġ ));
Ġch ampions
Ġne utral
el ist
PL ICATION
ĠIP v
Ġg rav
St udio
d m
ĠT i
Ġinvest ors
ĠSpace watch
ma jor
DE C
ĠProt ocol
> )</
Ġb igger
) ];
at ches
Ġag gregate
Î ¼
url s
Ã© n
Ġdes ire
id al
- ">
Ġwalk ing
C atalog
ob i
k n
d ro
ĠC lean
ĠSh ah
Ġcomplex ity
az ines
ĠPro tection
ĠF oot
Ġin set
ph oton
ĠM ort
thod ox
ibr ation
p ow
ĠV ert
ĠS K
Ġout come
ar ound
Ġchild hood
] ",
">< ![
Ġl ie
it ations
ĠN BA
cent ral
ATTR IBUTE
L ater
Symbol s
Command s
PI X
th ird
Ġresource GroupName
Rob ert
+ '
az el
or acle
own ed
Ġ ener
Ġstrateg ic
Ġhe ap
Ġbe ach
b ors
quest ion
"> &#
? </
qu er
unit Pattern
W H
Ġparticip ation
S lide
ĠD ocker
Ġfilter ed
Ġfor th
Ġrel ax
Ġbeaut y
Ġcoe fficients
Ġcharacter istic
ĠRob inson
leg end
Ġvis iting
enez uel
Ġat omic
ĠCar ter
(@ "
Ġstr m
ĠJ ason
sol id
ĠTh ough
Ġgu ilt
A IN
r ans
ĠBit coin
ĠAtt orney
ĠChrist opher
ĠM achine
ĠAn na
Ġexc ited
Ġreg ulations
ĠHel p
h is
Ġra p
Ġ ì
ol ving
C over
Ġm es
3 000
St ation
Not ify
Ġvot ers
P HA
;" |
m al
comp ress
ses sed
ĠO t
Col ors
ĠCre ated
ÐµÐ½ Ð¸
Work space
] }
b age
t cp
ĠPat ri
ĠThom pson
am ents
ĠRes erved
bad ge
Ġen ables
claim ed
orient ation
Ġisol ated
Ġproced ures
Ġear liest
E ven
Ġmar ine
ĠDan ish
ON LY
Ġgraph ics
Ġmov ements
ĠFin land
ul i
H y
ĠM enu
ge on
st ud
ãģ ®
ĠM B
Ġpres ents
Ġcop ied
Ġres idence
ow ski
Ñ İ
list en
ĠOC aml
ĠK ings
ä¸ Ģ
Ġwith draw
Nov ember
K nown
ĠMov ie
Ġmet ers
Ġm ilit
ut o
ĠTh ailand
TIME OUT
m ass
e or
g c
g ra
Suppress Warnings
Ġres on
ens ors
att an
Ġw ra
ĠDom in
ul u
ĠB ull
ith metic
b id
e per
Ġathlet es
Ġapparent ly
ĠD ance
d w
\ .
Ġb acter
ÃŃ n
Ġd y
tern oon
FA I
Ġkey word
c atalog
ĠDefault s
ou ver
Pod s
Ã ½
13 5
Mich ael
Ġsports people
Orient ation
fl u
Ġb ott
Ġc up
ĠK on
ĠStew art
er red
Ġm apped
AT T
Ġhead ed
LOC AL
Ġmid field
Ġd ust
c art
ĠV ik
ĠOr chestra
Ġschol ars
load s
Ġdef initely
Ġg arden
Ġn ations
Ġgener ates
ĠMc K
r int
Ġpr imitive
Aut om
Ġpriv ile
Ġinterpret ation
ĠSe veral
Ġpan els
process ing
ĠEn try
J ack
ĠArg s
Ġb io
Ġte ch
Ġmin i
ou rier
en ess
ĠC E
ĠW as
C amp
Ġoper ational
osp itals
ĠP eters
child node
Ġcour ts
get Data
Ġrecip ient
success ful
UD ING
chedul ing
iv ot
ear ing
ĠTrans action
á º
Ġy es
Ġtw elve
ĠAd ams
Ġoptim ization
Ġmix ing
do es
Ġ. /
Con v
ĠP ad
Ġenc ryption
Tool bar
ĠB inary
Sup p
ĠTra il
C AP
Ġg ate
Ġro bot
Col lector
x a
st ock
Ġcur ves
d agger
ĠH ero
Ġqu ote
Ġreason able
T ITLE
pt s
ĠMar shall
Ġredu cing
Ġresident ial
="../ _
Ġ" ");
ĠH ave
ĠFrame work
Ġs i
ah n
Bal ancer
sess ment
inherit doc
Ġlog ical
mon itor
Back up
ĠB ou
Is Null
d ater
HEAD ER
ut t
ĠDe puty
Ġcommit ment
(" -
oid s
Fin ished
" ):
x d
ĠLiber al
================ ========
ĠNot es
Ġtool tip
Ġdecl ine
S il
IF T
[ @
ĠN ash
ĠH ell
sw er
ĠInd ustry
Im plemented
Ġqu adr
B ranch
ĠMont real
Im ports
Ġthe ories
Ġactiv ation
Ġatmosp here
Com posite
Ġa str
Ġcast le
Ġb om
th a
Un its
Ġmount ed
Ġ* **
N EXT
Ġadapt ation
Ġconserv ative
Ġ' ../
itar ian
ij it
ĠFreder ick
rot ate
; ,
ĠL ocation
DE VICE
ĠE ss
ĠSt yle
ĠW right
book s
ĠT ig
Ġdise ases
m iss
Ġclose st
Ġgalax y
N ING
ĠPl ugin
Ġup grad
Ġp ushed
Ġi OS
a ac
Ġp ersistent
Ġtalk s
ĠIm perial
ĠP ART
Find er
Ġpred iction
FO RE
in formation
ĠN ation
Ġstart up
read cr
ĠP rad
Cre ator
s yntax
ĠF red
ĠP ract
PRO TO
Ġd ress
å® ļ
Ġf asc
Ġf ixture
Initial ized
11 3
Ġco inc
Ġw elcome
Pl us
Ġstr uck
ann on
ck s
Ġun safe
host name
cho ice
CON F
Ġsatisf ied
ben ch
Exp licit
------------ --
Offic ial
ĠTh ose
w x
or ce
ĠS creen
int ent
ĠR PC
Ġset Up
Ġout standing
Ġhas n
Ġo scill
Content Type
Comple x
Ġo ps
ĠSD K
ab b
Typ ed
ĠMod al
Ġdam aged
Ġrecord ings
Get Type
Ġdistribut ions
Ġfor get
ĠS peed
Ġaccompan ied
A mazon
ams ung
AT IVE
Ġb are
Ġremain der
ine a
Ġop ens
ĠC PU
Get String
eli hood
Ġin coming
Ġl ap
ĠG ray
primary Key
Ġo cean
Ġenjoy ed
ĠÃ ī
Ġmat rices
H W
Ġ ray
Ġgovern ments
r in
Ġup coming
ma de
g mail
ĠT one
u its
19 0
Ġescap ed
R oy
ew idth
Ġrob ust
Ġg allery
Ġcommun ications
ecess ary
pan ies
xFFFF FFFF
S ym
ĠC er
Ð¾Ð ´
< \
Ġelect ro
Ġc ited
nov ation
Ġlif etime
FIL TER
Ġt all
ĠF oo
ĠL ieutenant
( ",
Ġas semb
/ ,
ĠM I
Ġpod s
ĠC L
int o
N AL
Ġsl ave
S olver
s aved
Ġse q
3 20
T ON
ĠW ard
ĠRE AD
Ġent reprene
Ch rome
ĠInst agram
f illed
Ġor bit
S us
I ce
c nt
Config ure
Ġd iversity
TH READ
SE CON
ĠDr ive
( %
ĠS ac
bl ast
eb rew
ĠC ole
Â ©
Ġlog s
Ġt ur
ĠN ep
v r
Ġlock ed
Ġstudy ing
Ġste am
f act
ĠKenn edy
Ġst ake
Ġim mun
ĠP in
Q UE
ov o
Ġcompre hensive
mem Item
Ġpro x
Ġher itage
11 11
F ast
ĠM C
AS K
g h
o auth
ir ates
Ġexp ed
ĠSen ator
Instance Of
> ("
ER Y
ĠP un
( <
hemat ical
ph ere
col on
ĠY es
en kins
ĠAct iv
Link s
V oid
Ġne arest
Ġf at
Ġtell ing
oci ated
Ġgen re
ĠSt ack
Ġs nap
mix ins
oper ations
nos cript
faster xml
ap im
has Class
t ls
Ġn an
Exp ressions
Ġcritic ism
Ġd ating
Ġp overty
Ġdoc s
R ussian
Ġw orse
ĠF el
ĠAd vis
St roke
rac le
Ġm or
Ġshould n
i u
widget s
ĉĉĉĉĉ Ċ
arr ant
ãĥ ¼
Ġrefer enced
ĠK ind
op lus
ex ceptions
Ġstreng then
ĠAl tern
ĠC leveland
Ġs ends
Ġmolec ular
18 98
Ġunderst ood
al gorithm
ĠT an
ĠF R
Ġman ually
nes ses
Null Exception
ĠG P
H D
at ivity
}^{ -
ĠB OTTOM
ĠC ensus
Ġenforce ment
Trans l
ĠArk ansas
ĠCamp bell
[ <
P ORTED
Ġret ained
ĠR ub
Key board
Ġthe oretical
pro b
Ġvis itor
ĠK ir
form ing
ograph ics
NUM BER
Ġw id
Ġsus pended
FUN C
max cdn
Ġleg isl
u ator
bar s
ĠQ t
font s
S uffix
m ysql
Ġstat istical
ĠV M
A lex
Ġincl usion
v ens
Ġt ar
Ġst ead
m ong
e i
og g
FE ATURE
(' \
Ġview ed
ext ype
ĠC arn
T om
Target s
Ġj uris
d al
f un
Ġun set
Ġreve als
ĠNe ed
ĠL ane
subset eq
ĠC os
ĠĠĠĠĠĠĠĠĠĠĠĠĠĠĠĠĠĠĠĠĠĠĠĠĠĠĠĠĠĠĠĠ ĠĠĠĠĠĠĠĠĠĠĠĠĠ
ab i
R pc
Ġw he
Ġhead ing
Ġinnov ation
ĠFrank lin
Ġann ounc
c ategories
ay an
ST EM
ĠUp per
Head ing
ater al
ĠAl loc
ĠCh amber
ĠR y
ĠN ature
ou ple
ĠU TF
j amin
ĠV o
Trans late
ar us
Sc ott
Ġgen etic
Ġinhabit ants
" +
ou p
ĠMin or
Af ric
ĠBe at
ch t
Re ception
m ates
, </
UL AR
H ard
Ġtem plates
Ġequ ipped
P reference
Ġpr on
get Default
Doc s
ĠRog er
Ġan al
Ġshe l
Ġdoll ars
Pre view
Ġ ----------------
Input Widget
Ġsp arse
Qu ota
Es cape
C ritical
Ġstr uggle
Imp licit
m acro
D ry
F i
Ġval ley
Project s
Ġcru cial
B T
Ġt urb
DEF IN
ĠFI X
id ency
vers al
ĠW ang
Ġwe aring
ĠStruct ure
> }
ID s
Ġpul led
ĠE T
Ġs weet
te ch
Ġ nd
) },
u ates
Ġre ception
ĠMon te
Ġ{ })
Ġfact s
ĠN elson
Ġre ward
grad uate
ĠEd ge
Ġf atal
I r
Ġs itting
car ousel
ĠS uccess
Ġfrequ ent
s lf
Ġsustain able
Ġ$ |
ĠKn ight
de cess
Ġlong est
ĠBrook lyn
to k
Tool Group
Ġtherm al
ĠAp pro
Ġres ize
Ġpres erved
B ur
Ġres ign
Ġpublic ly
ĠMat thew
ĠCont act
Ġpublish er
Ġra c
ĠIm Gui
et ype
op ic
lot te
d ied
ĠVal ues
Ġfem in
Ġdig est
ĠA DD
Ġt ill
Ġcharacter ized
Ġst ops
ĠLank a
Ġa ux
Pl ain
fav icon
Ġlo ts
build ing
ĠT ob
Ġal cohol
Ġh al
ĠPo inter
ĠS PI
ĠOr leans
ĠCon vention
z es
out ube
Ġre pe
Ġcomb ine
Ġlo go
ish ment
de ps
Ġacc essed
as List
man ual
; %
ĠDes cribe
ENABLE D
Jap anese
if ting
++ ++
ut ron
p es
ĠGu y
Ġtransform ed
ĠDel hi
cut s
ĠBalt imore
Un ion
inn ers
Ġarr anged
m ill
ĠT itle
F em
Art ifact
Ġsub str
Ġiniti ative
ĠM ess
istribut ed
ĠT otal
G ENER
Ġsurv ived
B IN
ĠPr ice
Ġt ropical
F Sharp
L ead
ap l
ĠJud ge
FAI LED
set Value
Loc ator
Ġdeal ing
initial ized
ĠP i
ik es
Ù ĩ
ri um
ĠH ope
Ġyield s
= _
h ai
Ġdevelop er
S uch
ĠP K
IC K
× ª
ĠSh ar
Ġl azy
ĠB ed
AL LOW
develop ment
V S
Ġdelay ed
18 99
\ _
he art
/ ************************************************************************
å °
Ġrec ru
sup ports
Ġland ing
Ġm illiseconds
W M
Ġnarr ative
Ġsat ellite
Ġsil ent
ĠMount ains
trans fer
ĠRef orm
irm ingham
en berg
ĠM and
ĠCom puter
pay ment
ĠTr igger
pub lished
bor ough
Re cent
Index Of
ro oms
GR AM
ĠCommand er
Final ly
urric ane
Ġimprov ements
p ent
ro b
Ġrestaur ants
p us
Ġappoint ment
Me asure
Rec ip
Ġbus y
Ġsum mar
ç ±
omorph ism
e lection
Ġ($ \
Ġf inger
ĠBroad cast
Ġun iversal
Ġaccomp any
ital ic
Ġs av
ĠElect ric
ĠMarg aret
l ists
ĠFl ag
ch arg
"/> .
ĠMa ine
ĠB ased
Max imum
Ġview port
ĠCom ics
ĠSet up
ane an
host s
ograph er
ot ions
check er
Ġint ensity
im m
Ġsupp lies
Ġdiv isions
Ġs urre
æ ī
ĠG ulf
ĉĉĉĉĉĉĉĉ ĉĉĉĉ
Ġcan onical
Ġa ims
Ġpay ments
Inv ocation
C li
it ure
Ġcalcul ations
Ġprote ins
at trib
Ġâ ĨĴ
mo ke
match er
ĠS TD
ĠB ey
cc a
ĠO d
ĠĠĠĠĠĠĠĠĠĠĠĠĠĠĠĠĠĠĠĠĠĠĠĠĠĠĠĠĠĠĠĠ ĠĠĠĠĠĠĠĠĠĠĠĠĠĠĠĠĠĠĠĠĠĠĠ
raz y
ĠD id
atur ally
Ġat om
ĠSt orm
Ġdom inant
F lo
g ow
win ning
Ġc s
n ested
ĠDak ota
_ +
ĠCent ury
ick en
Ġaccept s
ĠU TC
omorph ic
ĠC le
fr amed
distribut ion
RE C
TO KEN
Ġhy brid
Ġact resses
ĠExample s
ig s
ĠT amil
ĠCh allenge
Ġcirc ular
Ġse venth
Ġout comes
Ġconvention al
pol l
h dr
col s
Ġorder ing
Ġ$\ {
ith uan
ĠP L
Ġb lo
Ġke eps
Ġthous and
Ġdepend ence
ĠLem mon
Act or
final s
al ia
od ot
View port
ĠLeg islative
Ġrec all
ĠCommun ications
Dat aset
C op
Ġh ill
Ġd w
oc y
Ġac quisition
T or
Ġre putation
[ ^
RO P
em pt
do i
ĠSch olar
Ġ& =&
Ġdiffer ential
18 70
ul ative
first row
ens ing
ĠCar ib
Ġinform ed
ot er
Ġkind s
ĠM ars
t ake
Ġvict im
Comp ile
Ġconf ront
Ã¶ r
inherit Doc
Ġpra ised
Ġre vision
pt ic
hand lers
ver b
Ġbel ieves
Ġ iv
ĠS Y
Ġar row
map per
Ġb ird
anc ouver
Pol y
x l
18 95
ad just
log ical
Ġpopular ity
Ġemotion al
Il legal
Ġvary ing
ur u
ĠHamp shire
ĠD S
ĠFin ance
F rag
Ġstruct ural
C riteria
ĠTai wan
Ġ// -->
ĠHel per
Ġany where
Ġagre ements
Ġcomple ment
">( </
ĠJ u
ĠE sp
Ġguest s
LOB AL
ĠR ect
Feb ruary
Ġpro ud
ĠB SD
ĠMo z
R ank
r idden
l uc
ĠEV ENT
Ġcomput ing
Render ing
OD Y
P t
St mt
ĠA ch
Ġcoll ision
ĠJon athan
Ġslow ly
ar ations
12 2
iv ia
v est
pl aced
ne ed
et o
Input s
Ch oice
Ġflow ers
iagn osis
ĠEnvironment al
Ġll vm
b ai
Ġ ]);
Ġs sl
ĠSpec ifies
Produ cer
Ġaim ed
t own
Ġd iagnostic
a head
Ġjud ges
Ġrep air
Ġto x
fl ash
ĠOper ations
ç± »
k an
Key Value
Ġdis plays
c ocos
ct ype
Ġpop up
Ġres igned
Ġindex es
Te chn
ĠPh D
ĠT s
Ġdiam eter
ĠL iverpool
ĠStud ent
il inx
AC CESS
Art icle
Work flow
Ġhol iday
Ġse l
ĠN an
m usic
ĠS ample
CLI ENT
Ġse ar
ĠPr incess
Ġreve al
Ã³ w
ĠB ag
oc o
D ocker
l c
Ġsus pect
get Current
ĠM ail
E r
N orm
ĠC rown
cre ation
Ã§ Ã£o
L im
Ġre loc
Ġel igible
E t
pos ing
get Parent
} &
al ter
Ġcl er
ĠT ak
spec ified
Ġh ooks
G S
um ar
her ent
Ġst ellar
ĠAfghan istan
Ġthe ater
b an
Ġin equality
op les
file Name
Ġattempt ing
Res olution
expand ed
Ġjournal ists
ĠVi enna
' }),
T oday
R aises
V R
ĠTrans itional
Ġtrans f
Ġdom inated
Process ing
. &
ick ing
ĠCommun ist
sm art
Aut hent
Ġs aving
single ton
r at
an ne
Ġform atted
Ġweap on
ĠG ot
Ġtro uble
c rypto
ro se
ĠMag ic
Ġelse where
OP ER
out line
ĠWel sh
Ġencounter ed
TR ACE
Ġ ^{
request s
or ry
B N
n v
ĠSp irit
Ġround s
ĠW oman
Ġ* =
18 96
list ing
Ġm asses
d ale
on na
INTER NAL
t ap
ĠN ar
Ġspe aker
Ġdig it
Ġindu ced
Ġlength s
ĠL iving
ĠBanglades h
; "><
.$ $
ĠJim my
Ġse aled
ĠAss istant
B AD
Ġinter faces
ĠCon n
unc ate
Ġactiv ist
Ġaltern ate
ĠMar ie
ab e
Ġt m
Ġp b
D eb
Ġrec overed
Ġfew er
Ġp sy
Ġre striction
Ġ* (
Ġle x
ĠCall back
L ear
16 8
ĠQ ual
Ġident ification
con c
ĠSaf ety
ĠD rop
Ġconc at
ĠRuntime Exception
ĠAust rian
rom ium
Ġab sol
ĠMP s
il iation
æĺ ¯
ĠR T
Ġ( __
Ġhold er
18 97
. âĢĻ
Ge orge
> ",
ĠJ enn
se en
R ew
Ġ' &
ift y
Ġsimult aneously
ĠG las
ĠCl inton
Ġdemonstr ate
Ġinvol vement
ĠK o
ĠH erm
Ġf abric
Ġarch ae
C LE
O IN
ĠB aker
D ynam
R ay
C urrency
Ġform ally
Ġhealth care
IF Y
g ies
Ġcut s
^ -
Ġval uable
Ġ Ø§
Ġcolon ial
Ġsur prise
Ġreli able
urre nc
F ar
Ġgreat ly
Ġf ishing
pr ison
ĠPol itical
Ġsignific ance
Prop Types
i em
Ġt unnel
ĠClass ic
read able
Ġw ides
ĠM ong
Ġarg c
EN S
ĠD ays
ĠPit tsburgh
ob a
ĠDocument ation
od b
ĠSt ill
Ġwith d
V ars
: @
f link
Ġ| \
ley ball
add on
TH E
Ġsurv ival
Ġref lection
Ã¨ re
Ġfarm ers
Ġpo em
Ġd ummy
Ġmechan isms
F X
âĢĻ ,
ĠI Enumerable
Ġst em
$ ^{-
C LO
p read
EN UM
Ge o
F ore
Ġc ow
Ġm ess
user Agent
} ")
ĠB log
Ġvari ations
ĠB ot
ĠStud ents
Ġget ter
12 1
ĠUtil s
s an
ĠR oot
ĠG ary
Ġtr uck
Ġencour aged
ĠW ind
le ading
Ġs oul
ĠB ron
ĠR ain
res olver
b ank
ne e
m achine
Ġart ificial
phab et
U i
F all
Enumer ator
ĠLear ning
I Enumerable
Ġco ffee
rec ords
Ġform ing
Ch at
S y
re try
Ext ended
ĠMov ement
ĠIns ert
Ġant icip
urs ing
an on
Ġc line
}, {
ĠCont roller
S en
Ġexpect ations
Ġdut ies
Ġ================================================================= ========
å Į
Ġgu ys
un ing
Ġ' :
Ġdyn asty
sp l
ĠEx pl
Ġrect angle
M U
Do es
Vertex Attrib
inter faces
or ous
Ġeng agement
Ġnam ely
E mbed
as ma
ĠR ole
ĠH end
Ġw er
M art
Vis it
qu arter
Com bo
ook ies
Ġdef ining
incor porated
q a
ĠMor ris
ĠU l
ĠP sych
fix r
Ġas ks
ĠÐ ·
Ġev t
ĠBro thers
17 0
atern ion
ĠG all
ol ia
Ġpro files
Ġ" </
Ġproto buf
a ine
Ġel der
ĠTh or
Ġaware ness
om eter
d ns
Ġrail road
H it
Ġv ir
ĠR io
ĠWar ren
Ġde struction
ac iÃ³n
Exp atriate
** *
ant i
am d
L ess
WIN DO
Ġsu icide
dd ie
ĠMar shal
Ital ian
ĠB ranch
Lay ers
Ġguarant ee
Red uce
Ġspect ra
h it
Ġc rown
ĠGra ham
Ġunus ual
\ }
00 2
Tool tip
00 000
c amp
Ġshop ping
Ġguid ance
re strict
ĠN ormal
($ _
Lin ux
P TR
ĠA rena
ĠI SO
Ġsold ier
Ġ[- ]
Ġph arm
} "/>
ĠS erv
> ";
ĠB es
ĠT alk
w m
E MPTY
ĠC atal
Ð¾Ð ¼
Ġris ks
und les
Ġre ly
Ġprom ises
Ġd f
ins ic
33 3
Ġfe es
EX P
Ġex clude
call s
AD C
u ke
et al
MO VE
RA W
Ð ³
ĠU pon
Ġart istic
Ġven ues
m os
f ade
Ġperform s
T i
Ġmill ions
ser if
Contin ue
M AT
G UI
Ġcomp ound
Serial ize
ĠMet ropolitan
Ġc ubic
Ġ/ .
P FNGL
Ä Ļ
Ġav ailability
Ġsuff ering
get ElementsByTagName
ĠCont ract
Ġrecogn ize
sp ot
F ollow
ob e
Ġfall back
ĠP il
ĠCh ampion
ard ed
if le
Ġpaint ed
Ġequal To
ers h
em ed
Ġcollect ive
pred icate
Ġcelebr ated
Ġconcern ing
Ġover view
me asure
ĠA qu
Ġdefault Value
lo on
ĠPr inc
Ġcom ed
ĠEm pty
ĠAlf red
sort ed
ĠApp ly
Ġserial ize
b idden
"> {
ins ula
Ġt ort
BE GIN
w ave
ĠR ugby
for ced
ĠT ensor
Ġo ct
ĠCON ST
ĠF riend
Ġb uffers
Ġpass phrase
Dependency Injection
Ġb orders
ĠCh apter
H AS
ann es
âĢĻ .
ax y
get Logger
tra its
Ġsurround ed
av atar
Ġpod cast
CONT RO
Le ave
m akers
Ġr ub
Ġt ie
Ġfin ance
ij ing
ĠB UT
Index es
member of
Ġprofession als
ĠCom put
Ġed iting
un ning
ĠW IN
Ġconcept s
Ġg ay
Ġrom antic
Ġdef ence
Ġ Ã©
Ġg od
ĠV el
G allery
ĠCons ider
Wh o
ĠL GBT
b ach
Ġpersonal ity
Pr incipal
ĠJos Ã©
ĠAnd y
Depend encies
Leg acy
Mut ex
C losure
b re
c z
Ġencour age
Ġover lap
Ġtranslate X
ĠHun ter
U DE
ĠStan ley
C AN
Ġaf ternoon
* {
Ġsym metric
ĠC ancer
Ġves sels
20 2
so lete
Cur ve
Ġ' ;
Ġlocal s
æ ŀ
Spec ific
ĠP ush
Ġo mitted
elf are
Ġt act
comp iled
B oth
FAIL URE
L ab
}} </
Build ings
ĠB M
ĠW E
ĠSh ape
ĠK ath
opt im
Sl ider
Ġh i
re view
Ġl umin
C Sharp
Ġprepar ation
Ġuncertaint y
Request ed
ev a
cred entials
Im plementation
Ġsurv ive
ĠV erm
og s
} ))
B tn
ĠDE BUG
Ġh ip
pre dict
Ġmechan ical
ot he
L com
Ġkil omet
mar ine
ĠRE G
Ġcons ent
F ACE
Ġconsider able
Ġinit With
ĠMon th
Ġfoc uses
it ize
en z
job s
:: ~
ĠP S
ĠY ES
Ġthought s
? ,
al ways
Rec ogn
Ġb ath
ĠSaf ari
Ø ³
es ses
ĠP AR
ä¸ ª
In c
Ã© r
Des pite
asm ine
ĠBern ard
ĠA pr
r atio
G iven
Ġelse if
ĠR ing
Ġwh ilst
On line
Ġaff airs
om on
ĠF em
ĠCart esian
ĠB ible
With Error
member NameLink
ORM AL
ĠRepublic ans
Ã Ł
ĠĠĠĠĠĠĠĠĠĠĠĠĠĠĠĠĠĠĠĠĠĠĠĠĠĠĠĠĠĠĠĠ ĠĠĠĠĠĠĠĠĠĠĠĠĠĠ
Me an
is i
ĠTra vel
Ġbelong ing
x n
Throw able
Ġen umerable
ĠRoman ia
Ġlocal ized
NOS CRIPT
US B
os cal
ĠAdd itional
AP PLICATION
18 92
Ġre aches
Or d
Ġsupport ers
Z ip
h um
CONT ENT
Ġrepresent atives
XML Schema
ĠST AT
V ersions
Ġcl ar
W ar
Ġd owntown
] <
. [
Ġfra ud
Ġw et
ĠLay out
se p
De let
Ġmount ains
Ġ[ `
ĠCOP Y
ĠM aj
h attan
ĠAg ent
tr m
al one
Log ical
Re po
Ġh ierarchy
Ġrespond ed
m issions
Ñ Ħ
W ITH
al tern
ĠT ower
Ġr hy
ish ops
Ġden otes
A RE
Ġd ol
f iction
Ġtra iling
F s
Ä ħ
ĠFre edom
< >(
NE SS
ĠT am
Ġr ivers
ĠCh ron
or ange
Ġben ch
go al
S ocial
g b
ĠThe ater
Ġs q
ĠO cc
ĠElement ary
} `
+ -
Ġdeploy ed
ĠIn fo
ĠTh er
Ġspirit ual
Ġc trl
Ġtensor flow
Ġpop ulated
g ateway
t one
Ġem issions
________ ________
apt ist
ĠHung ary
Ġph osp
Ġord inary
Ġstay ed
p ension
ĠC ultural
ĠCom mons
Ġplace ment
Ġh at
Ġg ray
Ġpl astic
Ġrul ing
im o
Ġdog s
ĠP ow
ĠU rban
I ssue
Ġpost er
ard ing
thread s
ĠS audi
Com ments
PO SE
ĠT oy
ĠR ural
80 80
ĠD J
ĠNev ada
ĠN ord
18 89
Ġun lock
ĠAv ailable
ĠRe ce
err anean
Field Value
ism atch
ĠC T
R ST
ogene ous
ĠChar lie
d ummy
Ġant ib
Ġcr imes
Ġ{ ?
Ġcomp licated
MPL ATE
ĠI an
Ġg ravity
ĠL ore
it ime
p iece
14 7
Ar row
Ġc yl
Ġo xygen
st ri
get Context
18 60
"> "
ĠMay be
Ġde puty
P D
O s
ival ent
ĠPort land
b uffers
v oc
Ġind igenous
ĠCO L
ĠProf essional
ĠU ri
cal c
ĠUn iversal
ĠGre ater
4 50
Ġcoast al
zer bai
c lic
ĠCl ar
Ġdire ctions
ĠF alls
Ġwed ding
IL L
ious ly
=" //
Ġnot ably
en de
}) (
im ir
Track ing
Tr im
ach inery
Ġsam pling
Ġcap s
Ġadvent ure
Ġag es
Ġchalleng ing
aut hent
sl ug
set minus
ime q
ĠSt ars
ĠMar vel
Ġb ag
× Ķ
12 6
Ġsound track
as ant
Compar ator
ĠK u
or ia
W ater
=" ./
iv an
Ġrank ing
tex trm
Ġp ersist
ĠOr thodox
ĠH AVE
Ġmem orial
ĠFor um
! ");
gener ation
æ ł
Ġelect rical
ĠCirc uit
assert Raises
Ġ ../
callback s
ol en
Ġactiv ated
l ater
Ġelectric ity
' _
ĠB illy
ĠR at
Ġinnov ative
ac a
start ed
Sub scriber
del a
Ġdis p
Dis pose
Ġreal ized
Ġm esh
DO CK
ĠWith out
Ġev il
sequ ently
[ [
Id le
Ġdis appoint
G old
U V
s il
Ġt body
Ġsub div
Ġimport ed
Å Ħ
Ġtarget ed
ol id
ĠC ategory
ĠU ART
Ġcap ability
ĠA lice
sp aces
ĠValid ation
Ġv ic
Ġbi ological
g ent
ĠP attern
reg istration
ĠPar ser
Ġp ow
ĠY ang
DE CL
Ġfile Name
Ġd uplicate
G l
Â ·
rec v
B uffers
16 9
ĠV enezuel
ĠM yst
Ġoper and
D ie
R B
s imeq
G M
or us
Ġp ic
Ġhon est
are ncy
has Next
Ġh align
ig g
Number Of
H ot
Ġt c
' </
ĉ ĠĠĠĠĠĠĠĠĠĠĠĠĠĠĠĠĠĠĠĠĠĠĠ
Ġ" {
Ġon click
ĠEv ans
Ġben chmark
ĠĠĠĠĠĠĠĠĠĠĠĠĠĠĠĠĠĠĠĠĠĠĠĠĠĠĠĠĠĠĠĠĠĠĠĠĠĠĠĠĠĠĠĠĠĠĠĠĠĠĠĠĠĠĠĠĠĠĠĠĠĠĠĠ ĠĠĠĠĠĠĠĠĠĠĠĠĠĠĠĠĠĠĠĠĠĠĠĠĠĠĠĠĠĠĠĠĠĠĠĠĠĠĠĠĠĠĠĠĠĠĠĠĠĠĠĠĠĠĠĠĠĠĠĠĠĠĠĠ
b ie
c rc
ĠE qual
Ġw ounded
Ġc rypto
Ġe vid
ĠR ap
Ġdecl ined
Ġstrong er
18 93
Ġver ification
lo re
ĠEn um
SER VICE
LI ED
T ur
un used
ĠF light
Ġtranslate Y
Ġsuccess or
len ium
Al tern
o ct
P ur
Ġs ad
ass y
ĠMur ray
W ild
par er
dis pose
uff icient
CO RE
] /
ctx t
Ġb ishop
/* .
Ġpro be
App Compat
Ġout break
str m
Ġerr no
SE L
UM N
Ġcred its
B ecause
Ġsh utdown
ra ham
Ġves sel
uk a
Ġsuper ior
ĠB lood
Ġgl ad
ect s
Ġpre view
Grad ient
ĠM ak
ĠS occer
ĠRail road
Ġd ash
um bs
Ġconstit uency
ĠR and
ke ley
Out Of
Ġsp oken
Ġgen es
Ġguarant eed
Ġ' \\
sc ar
ĠHung arian
Ġvol atile
V el
ĠP ictures
clus ively
ĠCan vas
ĠR ank
ilib rium
Map s
ĠF ail
18 94
Ġind ustries
m und
Ġsepar ation
ĠB irmingham
F re
ĠSk ip
ĠAlbert a
Ġph rase
em en
Ġmatch er
w right
Ġt iny
for ge
Ġimpro ving
ub er
to Array
em p
Pol itical
Sort ed
Ġconf ident
ĠComple x
icen ses
E mp
d irty
ace ae
Ġretr ieved
Ġex tern
Ġpark ing
Ġ'/ '
f requency
text tt
p ine
or o
For Key
ĠCarib bean
R x
l azy
Ġnorth west
Draw able
re z
Ġoccasion ally
Ġindic ator
ĠMic hel
Ġex ha
à¤ ¾
We ak
Activ ities
ĠH orn
ĠE li
Ġpe ers
Pl ugins
Ä Ł
] ',
ik o
Ġmonth ly
p referred
Ġinterview s
S uggest
Ġd iet
ARG S
Europe an
d v
usal em
REQ UI
ĠConserv ative
inst ances
Ġint ellectual
Ġcor onavirus
ed a
bor ne
Ġattrib uted
L IMIT
sql ite
amp ed
Ġu uid
Min imum
CC CC
)) {
ĠA y
DE SC
Ġoccup ation
An n
ĠP ast
^{ -\
- '
Ġprof it
Rep lication
Ġc ous
Ġc rack
ath ers
R a
c id
d iction
DE V
UB LE
Ġref uge
Ġ{ $
ĠCar los
oll ary
c ipher
ĠRem arks
M icro
ĠR ES
ĠPh ysics
th reshold
Ġ) :
Ġf antasy
ĠCurrent ly
ĠBe ck
ul ly
ĠB ud
Ġf ol
}} _{
Ġb one
ro v
Ġpert urb
ĠG PIO
Ph ysics
ĠS ex
ier ra
ĠDirect ory
ĠU g
Ġne ck
rece ive
ĉĉĉ ĠĠĠ
È Ļ
18 85
ĠC ryptoJS
Ġconsequ ences
ug oslav
oth y
Î º
Ġsk ill
Initial izer
Ġmet ab
Ġeng age
M irror
ADD RESS
á ¹
ra ctions
Ġthreat ened
Ġp c
l ane
ç ½
col lapsed
Ġamong st
ĠS ay
al ph
Ġs z
http Request
Ġ" __
ID S
ĠR out
Ġne utr
End points
greg ator
Pro jection
Ġfl u
ç Ľ
Handle TypeDef
ever y
Ġc able
Ġactiv ists
Ġprison ers
r w
Ġdebug ging
Ġw rest
b ishop
ur ring
-> {
../../ ../../
Ġcontrovers ial
Ġass ass
ĠSal v
_ ('./
Ġcon sequence
ĠV iol
P ull
To Array
Ù Ĭ
Ġbase line
Ġcult iv
cl er
ili ary
ĠN ad
Ġ' --
Ġg olf
utor ial
Ġcompet ing
it udes
ĠS now
åľ ¨
] >
Ġvari ants
Any Ref
Ġto w
r hs
Ġhe lic
Ġh ist
th y
ĠM ind
op ens
ĠFac ulty
Ġassert ion
d up
ĠSt atic
ĠF ake
Ġsw ap
Ġbase s
R oom
U r
des cr
Ġexc iting
ĠE GL
inc inn
Ġexist ed
Ġme at
Ġorgan isations
div ider
tt ify
Ġf oss
Ġguide lines
ĠKar l
h ooks
cos ystem
ot ton
erv oir
Ap pearance
Q A
ĠC ONT
ĠX XX
ĠTra its
i ors
il ine
ĠMad rid
æ İ
Ġcut ting
Ġpro tests
ĠLINE AR
s uffix
e enth
ir l
ad os
Ġbr id
SUP PORTED
ul er
Ġind irect
n able
Vill ages
Ġb eta
collection s
am ine
ĠSh adow
Ġarr ive
18 91
Ġver bose
th umb
ĠR ud
th an
ĠAg reement
ess ions
UB E
ĠInt elligence
ĠD NS
i ative
Ġs ick
unic ode
Ġannounce ment
) }(
Ġim prison
Writ able
Ġorgan ic
Example s
Ġent hus
s nap
ĠM ack
ĠChar acter
M ARK
Co ins
p ressed
Ġw ider
ph oto
CA SE
r ant
ĠEcon omics
ĠBroad way
Ġcheck sum
lin ewidth
Ġh ub
> -
ĠW a
current Time
Ġpro ven
_{ -
ĠField s
h uman
P N
writ ers
Ġun used
ĠSyntax Kind
ĠH ad
str ategy
t om
Ġdemand s
Ġdes erial
ĠHawai i
ĠB asketball
] ],
p v
Ġfund ed
Ġillustr ated
Ġpremier ed
ĠUn ivers
ou ched
ĠSet ting
ĠForm ula
ab ort
Ġgre y
Ġre actor
Ġ{ });
ĠC atalog
ĠM ol
ĠAd vanced
ĠR acing
Ġimp ressive
CK ET
Ð Ł
ĠG LE
Ġprov incial
Ġtext s
Dis posable
L and
Re search
Th us
Ġ$ ("#
Ġph ases
ĠAnn ual
ĠP aper
rist ol
ign ite
Ġsh ots
Ġsph er
br ane
Ġch amber
Ġun like
Ġr um
ĠCov id
incinn ati
B ODY
ov al
Ġfail ing
ĠVis it
inst ein
Ġwides pread
Rect angle
] =
Ġagr iculture
() }
igh bor
ĠBl ues
18 88
Ġlocal ity
Ġp our
ĠF er
R oll
Ġreg isters
r h
Ġm eth
Ġde als
Ġen hanced
d yn
H ooks
Ġalloc ate
ĠExec ute
Ġt issue
net ty
ĠF err
2 30
parent s
ĠGo String
Ġauthor ization
/ (
opt er
Ġdetermin es
DEF INE
CHAN NEL
F our
Ġr anks
sk in
Ġreg ulation
par agraph
ĠT ournament
Ġfair ly
in crement
ught ers
c url
andid ates
ĠWIT H
lim ited
Ġinterpre ted
re nd
Ġinvestig ated
ĠU INT
De leted
per ature
xx xx
ĠM ask
open ed
S yn
Ġsearch ing
Ġa apt
SE D
ĠDown load
sh aped
ĠCred it
ĠSh a
per p
ĠCr ime
Ġcritic ized
= </
Ġdrop down
is an
ĠF ine
Ġref id
em a
Ġobt aining
Op acity
T own
Ġal igned
h ind
ĠS yn
Ġforest s
Ġap artment
Ġl ights
Ġdo ors
ĠPro position
×Ļ ×
Ġenc rypted
Ġl ux
ĠArch ives
Event Type
ester day
IN TEGER
A ge
Ġlaw yers
) `
ĠMit chell
ocor ro
ol er
Ġinter cept
Un icode
Ġhabit at
Ġconsider ation
Ġwit ness
b etween
Ġvis its
ĠG row
Ġpay ing
Ġreported ly
Ġadd ressed
F old
E lect
Ġ" *
Hand ling
Ġinf lation
Rail way
ok a
') [
EQ UAL
ĠF L
fe e
ster dam
ĠCamp aign
um per
") ).
Ġextract ed
ĠJ oin
An alyzer
Ġlog ged
ĠF un
ast ery
Ġp ump
ĠP ra
ĠSh op
ĠAl aska
Ġnewsp apers
Ġtyp ed
Ġabsol utely
Ġconfig urations
g row
ĠV ancouver
C AL
P references
Ġcompos ite
Particip ant
EN SION
Ġnav al
ĠS ocorro
d ue
ĠP rior
aut hentication
Ġd ated
Ġspec ifying
ĠM other
c aster
l ift
ĠB ond
ĠR ick
ur ities
=" <?
L arge
Ġrel ating
ath on
Ġreal m
la unch
D irty
ok u
sl ash
Ġvar s
Ġ ib
li us
ĠLIMIT ED
Ġnew Value
sv c
'' '
Ġfeel ings
ĠL amb
P in
ĠKen ya
Up dates
Bound ing
ĠT E
Ġemerg ed
ache l
... "
ac re
Ġany way
Ġw ake
27 0
ĠE S
Ġan onymous
iss a
Ġdocument ed
ĠTurn er
Py thon
ri el
Ġdis order
B IND
w br
rot ation
ĠWork ing
CAC HE
Ġco in
Ġ ------------------------------------------------
** :
B ob
Ġin duct
ĠH RESULT
BU F
ĠG ENER
ĠS ys
> *
17 5
Ġpar agraph
El se
ĠJ ess
Ġac oustic
. -
F ault
ent e
Ġcas ual
ers core
che m
] ])
Pub lished
Ġre ven
ĠIm ages
Ġre quiring
A W
P ause
ad ers
Ġspec im
d ijit
ex e
ĠC WE
ĠF ather
con duct
Ġill ness
/ $
format ter
ĠAut om
PRE SS
Ġp kg
Ġno op
Int roduction
Im mediate
c in
Ġexec utor
Ġqual ifying
Ġen zym
COM PI
ĠNov a
Ġcol leges
Off ice
ĠR u
Ġbr ick
mir al
' ><
ĠC arr
ĠRod r
Ġpredict ions
ĠNaz i
ĠR ico
Ġmanufact urer
ĠW ing
ĠP ick
jav ase
block quote
Å Ļ
ĠFI FA
og ue
ĠInd ians
Ġab b
Ġbeg un
Ð°Ð »
b ash
ĠRem ote
Table Name
â ĪĴ
g al
ĠCat hedral
friend ly
Med al
Ġwood en
first Child
Ġc ogn
ĠNorm an
L ng
Ġsh orter
t b
Ġdistingu ished
Hash Code
ond a
cap acity
Ġbox es
Ġpos sess
Ġob lig
Ġf er
Ġbl ind
ebr aska
P IN
De ad
fra structure
ĠLe ader
Cent ral
ĠK ash
key Code
Ġatt achment
Ġcount ies
Ġrare ly
Ġphot ography
ve led
Ġfl ights
te k
ĠO VERRIDE
sh arp
Ġdig its
Ġdifficult y
Ġtrend s
Ġpl enty
Ġtax es
p ag
è ¦
Ġassert False
per ience
cal culate
pi res
res olution
short cut
H ol
J ew
Ġa ug
LE ASE
ĠA F
Ġdiscuss ions
; -
), \
ĠMet adata
h op
ĠBar ry
ĠJ oy
Ġa de
ost ream
ĠCon cert
Ġc pu
Ġif rame
Con nected
typ ed
P ART
ant ly
en ium
Ġmed ieval
ĠAc cept
NO TE
ï¿½ ï¿½
æ Į
Ġt ough
it ational
Ġbre ath
m el
ĠHash Set
ĠPO ST
Ġover se
Ġsh allow
it ol
ĠE mb
18 87
loc ations
expect s
ak u
log ue
nc ient
Ġven ue
ham mad
ĠF leet
ĠWay ne
Ġm issions
re vision
C V
In crement
Ġport ions
ĠI ssue
urch ase
spec ies
scroll Top
Aff inity
_{ {\
Ġansw ers
40 1
à ®
ĠW restling
Ġg ard
Re ject
Ġview ers
Ġwebs ites
Ġd ub
Disc overy
g res
ĠC lick
SE SSION
Ġlo ose
se g
18 65
re load
att achment
ĠM ouse
Ġour selves
B and
ĠProdu ction
de leted
ĠPh oenix
comp act
ĠS prings
ĠLL C
ot or
Neg ative
D ays
Dem o
ry ing
Ġen demic
ĠSt re
Ġcouple s
. ')
Const it
m igration
Ġl t
ĠTrans form
Ġbuild s
ĠO B
ĠSe q
Ap pro
ĠColl ins
Ġann ually
Ġtot ally
Ġdisc ip
ex c
Ġdef ic
Inter faces
mes h
) ");
ĠUn icode
sl ides
20 4
ĠÂ ·
C at
ĠJ azz
ĠGLE W
T ake
é ĩ
Ġfore cast
iev ing
aval ry
m ma
Ġch at
A H
n om
18 00
ĠPark er
Ġad s
lic es
1 19
M a
P AGE
w rapped
ĠJ a
ĠS even
status Code
FO UND
:: _
Ġc ancellation
ĠB row
Component Model
Ġsh apes
ĠArch ive
R anges
ĠBen jamin
ĠNet flix
Ġamplit ude
å į
an alytics
Ġs oph
ĠK an
ĠIN CL
cel ona
+ (
18 50
Ġw atched
Ã µ
ER O
or ship
ĠD ynamic
ĠUS ART
Rem oved
Ġ ÑĤ
Ġsh arp
Ġsens itivity
f ixture
ĠColon el
f ocused
Pol ygon
ide l
g ression
Dim ensions
g ray
Ġup dating
Unmar shal
ĠR ic
ĠC ass
Ġsub scri
- "
Ġguilt y
ĠE mber
Ġking dom
ro uting
ĠEd it
filter ed
Sp acing
Ġscal ed
: ",
T OP
ĠN ames
As String
rop ic
ĠEx pect
Index ed
Ġman ifold
ĠPy Object
g iven
4 000
b u
Ġcon scious
Ġsur prising
ĠA ST
li ber
Ġserious ly
ĠD b
Sh ard
Ġsp y
Pres ident
Ġc v
Ġassum ing
Ġ utf
h h
Assert ion
Ġcompos ers
T oo
c orner
s ites
Ġinflu ential
et on
PE G
Ġp id
Ġrad ical
Ġswim ming
M igration
I o
Ġsh ipping
ĠOr ange
Ġdist ribute
B ooks
ĠSt ra
15 2
ĠD ialog
At Index
ĠM ER
ĠL en
f olk
Ġf t
ĠRead ing
ĠCommission er
back up
get C
Ġcontrovers y
G EN
ri ble
æ į
ĠGlas gow
æ Ń
ÑĢ Ð¸
ĠM ix
ĠCom b
un expected
DI V
Ġmem o
list item
Ġda ughters
Ġcred ited
ĠÐ ±
Ġm g
u o
Ġinter vention
Ġsepar ator
Ġs printf
Ġsouth west
ĠPl us
Ġconven ient
AR M
ĠTechn ical
G esture
it les
em ies
class List
Get Value
Ġgr am
Ġviol ent
Ġnull able
N s
Ġpolyn omial
al is
ter ms
Î ¯
as ide
Ġ` $
Ġmag azines
ib lings
cri ptions
be ing
(" ../
oxy gen
0 100
k ill
ch r
ĠF ab
Ġpaint ers
Ġwh itespace
Ġtrans itions
W IDTH
Ġtra v
child Nodes
on ian
IS O
ĠEx ternal
Ġcolle agues
oo led
erm ark
CL R
wik ipedia
Ġcelebr ate
Ġor th
20 8
Ġra ising
Ġm oral
Ġblock ed
EX CEPT
ĠDef ence
Ġliber al
IST ER
ĠI van
ĠMan hattan
Ġ\ |
p ersistence
St amp
ĠRem oves
e an
AgICAgIC AgICAgIC
Ġprepar ing
imit ives
n r
D iagnostic
Ġde mo
Ġsph ere
Ġsp ell
ĠCh air
ĠS EC
ĠB rew
LA SH
ĠUn like
T M
com puter
Ġco operation
Ġinsp iration
Ã Ĺ
ĠW R
und a
amp a
ĠCON TRACT
Ġre lay
Ġag gress
Ġsv g
ĠPrad esh
Ġfrag ments
uss ia
Ġconf licts
eval uate
m ixed
Â ½
te le
umb ent
Ġ= \
16 4
Ġhapp ening
ĠĠĠĠĠĠĠĠĠĠĠĠĠĠĠĠĠĠĠĠĠĠĠĠĠĠĠĠĠĠĠĠ ĠĠĠĠĠĠĠĠĠĠĠĠĠĠĠĠ
Ġ( +
ĠC hel
C am
s uite
Ġclaim ing
Ġj unction
Ġviol ation
Ġp ip
Ġgener a
Â ®
al am
Ġint ense
SE C
Ġch ains
12345 67
J ul
Ġt orn
ine e
Ġr anging
Ġfoc using
ert on
Ġens ures
ĠV a
Ġab road
Ġl hs
un ches
Ġtim ing
ĠAthlet ic
Ġadmin ister
pre tty
Un supported
Util ity
onom ous
r ising
Ġ$ [
Ġcle ared
Fin ish
ĠC BS
on ing
Ġout door
ĠS ort
ĠG as
Ġemerg ing
>: ]<
Ġcon current
Dig est
Ġn aturally
So ft
Ġindepend ently
ĠL ex
co ords
Ġnom ination
Print f
R oles
16 5
ĠY u
d ims
ens ively
enn ial
ĠM ade
ĠTo gether
ĠChrist ians
. ),
Ġh ospitals
ĠMed it
oper ative
ĠArray s
Ġd rew
Ġpre decess
ĠBar bara
ĠPriv acy
.~ (\
Ġo c
th umbnail
ĠA pi
") ),
Button s
mk dir
vert ed
Ġcomm em
P F
Î ³
Ġf irms
ĠO blast
ĠJer usalem
Ġreg iment
Value Type
U uid
cred it
r ub
ia o
H om
st reet
qu ate
Ġsp okes
Ġf itted
ĠB right
bit coin
d h
ä» ¶
Gener ation
it r
ĠA SC
ĠI ss
ĠN at
Ġc rop
UNK NOWN
Ġt one
L ou
ĠT un
Ġac quire
per formance
Ġfinal s
ĠSte el
el if
Ġex cluded
min imum
ĠAPI s
Persistent Volume
] -->
ĠRobert s
ĠÐ ¼
is cal
je ctions
ey er
Ġvalid ator
Ġpseud o
æ ³
Ġdec oder
Ġfiction al
ĠDrag on
ĠĠĠĠ ĉ
ĠDel ta
moz illa
CON TEXT
< >
ro ject
st ad
ach t
Ġform atting
Ġm irror
ĠS outheast
B UT
ĠCom plete
Ġsac r
is Object
Ġwork space
edit able
p ix
E ar
Ġsepar ately
UR POSE
Ġarrang ement
L M
L ex
as se
ĠT ed
Ġinte gers
ĠBe ijing
D K
Ð½ Ñĭ
Ġdebut ed
Ġc ul
First Name
scal ar
ASS IGN
Ġex clusively
Part icle
L aw
"> ,</
ĠC row
Ġsaf ely
Ġst ick
ĠG round
ĠHind u
Ġconven ience
key frames
LSP AN
ĠCO M
ĠCO LSPAN
ĠT LS
Ġcrick eters
ĠSy ria
ä¸ į
sub title
Ġch rom
ĠW i
ion ic
Ġb os
ĠO il
ĠED IT
g overnor
Ġ ))
ĠA ld
Ġpo ems
che str
Ġref lected
ED IT
Ġprint ing
Ġelim inated
rott le
ĠPier re
Ġgrad ually
ĠSt ories
Ġbre ast
Qu ick
Å Ľ
ĠV lad
Position s
ĠB order
Re porter
f ar
M ur
L azy
Ġv ital
unt u
] "
ĠB ug
Ġinit iated
IC S
18 86
/ :
State Exception
18 64
ĠP resent
ĠChar lotte
oos ing
ĠL ot
Ġfil med
Ġtr iggers
ĠÃ Ĺ
Ġcampaign s
Ġdepart ure
Ġwor ship
Ġfl uct
Ġpass age
K ing
ĠT race
ĠBe aut
ĠW ol
ĠJohn ny
Ġg rows
author ization
Ġâ Ĥ¬
Ġstrict ly
L ANG
ann ah
Ġg ear
Ġpos session
rupted Exception
Ġpack ed
ĠF unc
ĠOtt oman
Ġcon clude
G LOBAL
Ġoppon ent
Ġexpand ing
Ġexhib it
Ġinter active
Ġdom ains
Token Type
Ġstar red
ort ex
H ASH
er un
ge om
EE E
chi at
Match ers
ĠL ud
Ġport folio
Ġmanufact urers
ĠAl bum
Ġscr atch
ĠF E
ĠTh ings
Ġcomp aring
An swer
apim achinery
Connection s
add itional
M Q
Ġcontract s
q s
ĠS UB
Ġcoe fficient
Ġafter wards
Ġcar rier
ph al
Ġqu oted
14 5
Ġleg s
Le ague
Ġd iver
Ġterr itories
Ġe lectoral
ĠG URL
end l
ASC II
Ġtick ets
us k
Int Ptr
let t
or um
15 00
'] [
ĠRich mond
ĠC AN
ĠDer by
ĠD ra
ult an
Ġrec urs
t ot
ĠN i
Ġstr ange
Ġrad ial
ĠCra ig
Ġth irty
el n
Th omas
default Value
Port s
Ġco ord
ĠS ax
R en
Ġpro spect
Ġsim ilarly
Ġspecial ized
Prof iler
ĠS eb
Ġmaint aining
ĠS N
Ġsur pri
G lob
V ote
lo sed
ĠM is
ĠAn imation
ĠEx port
Ġt ap
Ġm p
rec ogn
8 000
So ftware
ĠV ent
æĸ ĩ
or f
Ġmag net
å Ģ
ro st
Ġnot ion
ĠSer ge
Ġcorre ction
ĠT ypes
Ġt ear
Ġ( []
vis ual
c ock
Ġunder ground
Ġb anned
AC L
Ġ[ ])
Ġqu ot
RO WS
event Name
start sWith
RA INT
ĠUn supported
ie ge
Ġequal ly
ĠD ol
Transform er
ĠCon struction
n m
Ġin fer
m igr
Err s
Ġpower ed
Ġoffset s
get User
ach i
=" {
ĠGon z
P B
Ġsh ore
Ġcomment ed
ĠCon verts
}$ -
per form
Ġf iring
ĠÂ §
. ]
ai ro
P icture
Ġtop ology
hib ition
ro ut
f re
vert ices
Ġb le
eh icle
Ġgl u
ĠGu inea
istr ative
ĠĠĠĠĠĠĠĠĠĠĠĠĠĠ Ċ
O Auth
ĠR C
18 61
Ġaccord ance
ĠN BC
clean up
ĠPl anning
Ġredu ces
Tw ig
ect ive
ĠSh are
b ian
Ġv a
ĠOl iver
Ġ' __
ĠCl imate
Ġ< ![
ri ors
Ġend l
Ġhypot hesis
S panish
Ġl icenses
Ġt ape
Re peat
âĶĢ âĶĢ
VAR I
ol ine
ir s
Watch er
Ġhelp ful
ri o
pl ating
iff s
ĠU nd
ĠYork shire
ina e
Ġdisap pe
ĠB achelor
Ġbit map
con sum
author ized
Bind ings
Ġp index
ces ses
T urn
empl ar
ĠH unt
M iss
get File
}) ();
Ġindex ed
Que stion
bl ur
IC AL
Ġin jection
ĠL yn
Ġ"/ "
ĠMuslim s
ĠP el
18 81
Ġp arks
Ġbirth day
ĠA w
ĠK ur
dec imal
c ussion
Ġfoot er
hol m
%%%%%%%% %%%%%%%%
ĠMedit erranean
G overnment
Ex ceptions
F W
ĠK os
off icial
Ġmon ument
ĠBuff alo
b ac
ix on
ĠAnd re
St e
Ġh ang
Ġdeep ly
) ^{-
ĠJ av
ĠS ync
parse Int
M acro
22 4
Ġprom oting
und o
ĠEl se
ĠLiter ature
37 5
up les
Ġm os
Ġdo se
Ġscen arios
is en
access or
N ORMAL
Ġ[ _
Ġ"\ "
Sample s
Or Empty
Ġchar s
ä¸ º
d iag
DA Y
7 50
Ġdep ression
A WS
Ġh r
ĠL ithuan
Ġl d
b ird
Ġdis aster
2 64
Ġre actions
Start ing
U C
ĠV ER
progress ive
g om
Dem ographics
Ġful fill
' ",
ce il
13 6
EX TERN
30 4
Th ird
Ġsub stitute
N ER
ĠAthlet ics
Image View
Ġnow rap
Ġre use
d og
over e
Mod ify
* (
IP v
std lib
ĠB loom
ad ies
ĠD raft
ĠW A
ĠDen ver
ĠC old
Ġscatter ing
cre ens
ush ing
Ġreview ed
t odo
it us
col ogy
Ġv ow
2 11
p aint
Ġbusiness man
Ġp x
ra h
(' :
Ġsur faces
ĠT u
ĠL ie
18 82
Ġguitar ist
Ġstr len
m icro
) ";
ĠSte ven
g ot
Ġan ime
M gr
V s
Ġl iv
D i
us c
Enc ryption
w hel
we ather
ac ion
Inf os
ĠT X
rece ived
ĠE SP
Cap ability
Ġsu cc
aj a
conf irmed
Ġflo od
Ġinc idents
Ġ+ \
M ont
ud o
**************** ********
key board
H I
Ġro uting
ĠUs age
Ġp reference
Ġauthor ized
Ġrepresent ations
ent ities
ĠS ongs
ĠI de
Br and
Ġas ynchronous
ĠE ug
Ġtra cing
ĠC arm
y t
Ġf ade
Ġimplement ing
Ġcom ics
Ġend points
az or
Ġpurs ue
Ġoppon ents
Ġre leg
18 84
æľ ī
l x
ĠY et
Ġexpl oration
Second ary
Ġatt ending
Ġmod ifier
Ġrecommend ations
h ub
re ports
ener ated
ĠVin cent
W T
Ġformat ter
Ġc inema
Ġre lying
om al
Co ordinate
Ġparticip ating
ĠD iamond
et ics
ĠIran ian
Ġgraph ic
Ġscient ist
Ġsec ured
uzz le
Ġf o
Ġconv icted
ĠMil an
R AM
s qu
Ġpl ural
13 1
Ġphotograph s
; ]
par allel
pos als
sp er
ud ge
H en
ĠN amespace
Ġmer ely
D ump
ĠIn n
Loc ations
Ġattract ed
ĠVari able
Out er
Ġengine ers
ĠB enn
Ġbr ig
ĠK ap
Te ch
Ġh opes
ub ect
ĠSerb ia
Ġres ume
ĠD ise
ĠG NU
I ss
Ġexponent ial
Ġblock ing
ĠRE ST
Ġs ust
pos itive
H F
Ġlo b
rem ark
an ian
Ġleg it
B ank
ĠB urg
om i
Ġdialog ue
Ġsudden ly
Ġto m
re ck
Sh utdown
x b
Ġv tk
Ġcomple ting
rit ic
then Return
ifest yle
A wait
ĠObject s
ref s
ig gs
conn ector
Ã¡ s
ãģ Ļ
ĠR FC
Ġcre ator
ĠRe ader
At omic
Ġgr an
log s
ĠBelg ian
00 5
ym ore
type Name
Text Field
ĠK il
ĠIm pro
Ġd il
ĠPre vious
B uilt
c out
14 3
Ġent ropy
ĠZ ero
Ġcompar able
ĠGi ants
SP AN
ĠW idget
Ġtown ship
18 63
Read Write
15 5
k u
integ ration
Ġspe akers
or able
ĠPh one
Ġelement ary
avel ength
F un
qu iry
20 3
at iv
pres erve
Ġtempor arily
Ġlabor atory
Ġinstrument al
Ġdefe ating
ubect l
P rec
k b
k le
Call s
ĠC oun
ĠN R
Ġun iqu
Col lect
Ġsm allest
m eth
m ics
Ġco aching
Ġclo thing
Ġre semb
comp ilation
ap on
por al
IT NESS
ĠArab ic
end um
13 4
ĠArt ist
M id
12 9
AL LOC
Ġun f
min or
h ad
Ġh oles
ĠF riends
ĠB ristol
Ġel li
bour g
ĠMunicipal ity
C ipher
Ġconfig urable
c ov
red is
am o
cover age
Ignore Case
Ġdistingu ish
ĠWith in
ov ld
ĠFr ances
ĠL is
ĠTig ers
l v
R CC
Ġrest oration
R ock
ĠN amed
ang les
Ġmon arch
ĠJ ama
Ġpre dom
EX PECT
ĠN ASA
Opt im
ĠR angers
ant astic
to o
om ed
tab End
Ġtr ivial
' ></
ro utes
ĠH at
Ġdes ert
QU ERY
Ġcontr ad
n ear
ĠA zerbai
ss h
ĠL ost
Ġgraph s
Ġhydro gen
Ġcon form
Cap abilities
(' [
Fl ash
ĠPro test
BO X
work space
Ad just
ĠF itz
ĠShe l
V ED
Ġgather ed
S B
y our
). </
ĠSe lection
Ġc um
TE MPLATE
ĠAlex and
Rep licas
l m
Ġre interpret
Ġh ate
ME DI
Pr inter
ĠCr icket
Ġd irty
ml ink
ounc ill
C AT
add All
ĠCost a
(' -
Ġviol in
ich i
Prototype Of
ĠY am
assert Same
Ġhor ses
Ġmark up
L ittle
Ġdist ances
Ġknow ing
ĠH udson
gol ang
ĠInd eed
ĠL uther
om ing
Ġv o
Ġsche mes
Se ason
alloc ate
it ual
Ġover lay
Ġw p
e ing
sub subsection
ĠFinn ish
Ġh o
ot ypes
ĠUn iverse
ĠConf eder
Ġth orough
Ġderiv ative
ĠPol itics
ĠComp are
Ġj q
Ġbur st
os hi
Ġsurv iv
T W
Ġgovern ed
Ġat oms
ĠB io
uck er
+ =
big g
ĠB ird
Ġe cosystem
ĠW ik
ad itional
Ġident ifying
Ġmer chant
col og
* \
get Path
ĠH orse
ĠAp pe
lic ate
Match ing
ĠS ad
ĠSt and
ĠColomb ia
Ġd Ã©
ĠC ob
{ }{
Str ict
comple tion
sp y
sh int
ym an
ĠDeep Copy
? .
ap sed
ĠJ erry
max imum
D lg
et ter
() "
ĠB ear
Con sum
au er
Inst ant
DEFIN ED
Property Name
ĠN ebraska
ĠG rey
ux er
Ġcontrib uting
st own
CH ANT
wik imedia
ar ith
~~~~~~~~ ~~~~~~~~
part icle
Cal c
Ġd ies
å ĩ
Ġs le
Ġg all
ĠLeg al
li ers
Ġp ian
h n
ĠRespon d
l ag
ĠHarr ison
as io
do jo
ĠGa ussian
Last Name
Ġprecise ly
print StackTrace
ĠD ES
Ġintegr ity
P eter
ĠM ason
Ġw arrant
Ġsurre nder
$ ).
ĠW arner
ĠThe ory
Ġcor rel
Ġdo ctors
comp ressed
US ART
Ġmer ger
N Y
Ġe ighth
TC P
ĠTro phy
Ġinv ocation
ĠEth iop
ĠS ony
S in
Ġdirect ories
g ender
Ġg amma
ĠP URPOSE
Ġcos m
t ies
ĠInd ustrial
st aging
Ġsup press
M ON
Ġqu ota
th al
6 55
Ġtra ject
C nt
R D
sw ift
S CHE
Ġphil osoph
Ġtr ick
ĠV ic
ĠAct or
ĠEd wards
ent o
Ġd rain
ri en
Ġt ies
oo f
Ġcare ful
g ency
Ġconstant ly
Sm art
Dev ices
Ġrock s
æ Ķ
if etime
Ġadd EventListener
) _{
bal ena
D ifference
Ġing red
Ġp ace
ext ended
DO C
ield s
Ġinv olve
Ð½ Ð¸
C ircle
he ld
Ġimplement ations
Ġexam ine
ĠEgypt ian
Ġbe an
Ġrepeated ly
ĠMu hammad
Ġdon ated
ĠSh ang
qu ake
auth ors
sh utdown
B US
ar ms
ĠN ear
prom pt
y ellow
sc ience
orient ed
Ġchar ity
Ag gregate
Ġcy cles
deploy ment
Ġrec ursive
st orm
user Id
T our
Ġanaly ze
ĠEm ail
AN Y
View er
Ġcom plain
ub a
Ġun likely
From String
ĠBar celona
ĠD h
18 62
Ġ$ -
G F
Ġcomp ounds
for um
in ja
Ġelev ation
Ġa qu
pro position
ĠIMP LIED
Def ine
ĠK irk
Ġcy cl
ĠGh ana
m atic
Ġmunicipal ities
Ġpoint ing
Ġreal ize
Ġsuggest ing
Ġg ateway
ĠP ic
Ġdem ocracy
Ġmand atory
ĠB our
Ġsynd rome
ht m
enc ia
C ategories
ĠS aints
ĠM ans
Ġ$ ('.
ĠE mit
Ġch ronic
the s
Ġb orrow
ĠV I
Ġbon us
port folio
Ġwonder ful
work ing
* ="
Ġ@ }
ĠArab ia
\ !
iv ic
/ ',
Ġf ires
ast ed
Ġ*/ ;
Ġsent enced
å Ĩ
Ġt ang
arr Index
Fr ank
F ee
icon Element
h bar
et e
ĠE ston
Ġch a
vet ica
dim en
Ġg ent
Ġstd out
B er
on er
publish er
Ġpo ets
lim inary
Ġserial izer
ĠFire fox
Ġminor ity
ĠM asters
Perm alink
Ġthreat s
ir ical
ĠNew ton
Ġdevelop ments
c riteria
Ġf its
get s
Re comm
x ref
provid ers
con sumer
er ver
hand led
ĠP le
Ar n
Definition s
g ravity
rom ag
ĠFunction s
Respon der
Ġestablish ing
ĠRob in
COMM AND
i ov
Ðº Ð°
Ġproport ion
AC CE
ĠPref ecture
Ġasym pt
g ulp
ro at
},{ "./
Ġd iagnosis
Ġmus cle
Ġtab index
R h
Ġhe ter
get Node
label Element
Ġaccompany ing
l is
ĠBer keley
Ġor ange
Ġchunk s
ĠSh ip
Ġsp ots
Record ed
Ġm anga
ĠU E
ĠAnt i
Des criptors
Ġin tern
ĠUn known
ĠFl ash
Ġhighlight s
g pu
p edia
Ġfl av
WE B
ĠMean while
re leased
Le af
ĠC I
Ġsystem atic
ĠP E
Ag gregation
J Token
XXXX XXXX
Al umni
Ġchar ter
ĠInt el
am pton
ĠH ub
ACT IVE
T icks
ĠB ath
Ġte a
Ġsequ el
ĠCub a
ãĤ Ĵ
Rich ard
Ġver b
Ġ âĢĻ
h ou
r ations
Ġgr ants
Ġvolunte ers
luc ene
Ġt abs
D st
Ġtrans mit
Ġinn ings
Ġoccas ions
C irc
p ane
s uggest
Ġun icode
ĠSp ark
it ter
ĠK ay
Def erred
ĠCol lect
ancell or
Ġdipl om
ord ion
Ġarg ue
ĠMer c
Ġthe at
t oday
{ $\
ĠBeng al
Ġc amer
Ġm a
ĠT ib
Ġcomp ressed
det ect
g ather
on line
ĠMont ana
ynam ics
Ġin struct
ari ans
ĠM uch
sh iv
ĠFile s
ĠAL L
output s
al ym
ĠQu ant
tim ing
Sem antic
Ġact ed
Ġpro visions
or b
err no
Pos itive
mark et
Ġgener ations
Hash Set
ĠM ach
I FI
Ġm ilk
Ð½ Ð¾
ĠU SS
ĠCOMM AND
ĠK le
Ġassoci ations
SA FE
>> >
her o
IAL IZ
Ġancest or
- %
art icles
ĠS id
he w
ĠD river
Ġhighlight ed
18 75
v ik
Ġcor ruption
Ġn est
AD ER
Ġleg islative
D TO
18 83
xx x
ĠAm sterdam
Ġdis contin
D NS
ĠU UID
no op
US A
Tem plates
ĠTre as
b readcr
d ensity
ĠB aptist
Coll ision
. {
Res erved
Ġle ts
Ġassum ptions
Ġdetermin ing
Ġbar rier
P ipe
Ð ¶
Serial ized
ĠSQL Exception
ch k
ĠCo al
Ġs la
Qual ified
Ã¼ n
f ollow
Ġc d
Ġpart ly
Thread s
æ Ŀ
Ġnot ifications
ĠSe an
ĠL ate
Ġsh ader
term inal
j dbc
Ã ī
ĠPar ish
ĠB uch
fore ign
Non Null
Field Name
sp rint
Block Index
oc hem
Ġj u
PRE C
y ml
ps is
C OR
m q
Ġenc oder
Ġ[ \
Ñ ī
ĠDep end
Ġcr ystal
Ġ' *
ok emon
A sc
_ '
ĠS ales
R U
w ig
38 4
Cred ential
Ġdrink ing
Ġt anks
Ġdis crete
ĠFIX ME
; ",
Ġsur f
Ġdis pute
Ġpl asma
Ġdu o
pt o
ut ton
Ġsufficient ly
ĠC K
ĠV oice
ĠG em
ĠY ugoslav
ĠC incinnati
Ġvol tage
W F
cell s
set Property
unc ated
Ġget Name
(/ \
seud o
A mb
tri angle
ĠNichol as
18 78
pl aces
Ġes lint
Cred it
Ġres id
18 76
m r
dash board
Ġhun ting
H alf
ĠTh ank
Ġm as
au kee
Ġlab our
M ad
Y ES
Ġre nd
to gether
ng doc
Ġco ords
pop over
ĠM oney
re peated
Ġor b
ĠV e
Ġfru str
ĠR ou
ĠBor ough
ew ay
ĠCh anges
ir ts
ATTR IB
16 6
Ġcontrib utors
SY NC
â ĸ
Ġdis ag
aw k
ĠPh arm
eb ook
W ER
im ity
sp ort
Per formance
ĠFe atures
E con
Ðµ Ð»
{ ``
ĠUp dates
Ġfrequ encies
real m
ov ing
ĠCon trib
ordin ator
ut a
ĠF UN
b ur
Ġc argo
ra f
lap sible
Ġ* );
Ġext ending
Gr ant
% ">
ĠGu id
Ġproject ed
ĠB und
ans wer
ĠCal endar
IM ARY
Ġsomew here
AL IGN
Ġpres sed
Ġs ugar
Ġshift ed
xffff ffff
Ġcondition al
f m
ĠJ ar
un ix
Ġphys ician
J NI
IC ULAR
Ġhost name
Ġt aste
Ġan imate
Ch inese
Ġmin isters
el ly
13 8
Ġhost ing
Ġtool bar
LE AN
Â »
ĠRep resents
ĠG rade
ĠEl li
Ġsurv iving
il ia
ĠS ocket
ert ext
ĠVictor ian
ĠPerson al
Ġad mission
l hs
Ġor chestra
Ġu id
ĠSw ift
ĠAUT H
Ġcheck point
: ]
In strument
Ġmod ifications
Ext ent
Ġcon dem
op al
ĠAct ivity
SY STEM
Ġcon verter
F G
ĠCh ain
anc ers
ĠIce land
ag ar
al gebra
is ch
Ġt p
ĠCh i
ĠC lay
ĠG race
13 7
bit map
en os
ĠCru z
Ġan notations
Ġnav igate
Ġne ur
SH ORT
ent ine
Ġ{ :
com poser
ve ill
min i
Ġpeak ed
Al bums
s ized
Ġse g
Ġ> ::
Ġch ron
ENT S
Ġb b
ĠH ob
In side
ĠPer u
Ġins ight
ĠId entity
ĠMer ge
re present
ro d
oc ent
Ġf p
Ġf ert
Ġlik es
ĠNep al
/ ?
Ġcar ries
un i
Re public
sh rink
Linear Layout
H uman
AL TER
ĠStat istics
May be
cred ited
Ġadjust ed
Ġorig ins
at ra
ĠL ar
Ġdecre ased
rem aining
ĠSym phony
ash a
ord inary
Ġun n
play ing
ĠC ircle
Ġde fer
iter ate
ĠCont emporary
Ġjourn als
M ixed
Ġt ons
Ġan ymore
> ");
ĠF S
h yd
ĠWrit es
Ġpre t
Ø ¨
Ġhelp ers
AUT O
ĠT ru
ex emplar
te enth
Is rael
Ġprogress ive
Ġres ort
Project Path
ĠM es
sp h
be zier
Ġr h
Ġmap per
Ġcommem or
Ġst abil
Ġact ively
ah l
Ġassum es
Ġf iber
us hes
Ġder ive
//////////////////////////////////////////////////////////////// ////////
Ġvulner able
op ol
Ġ( {
Ġhon our
Acade mic
Ġcous in
Stream ing
Ġexpert ise
Chart s
m itting
Ġref erring
CHANT ABILITY
Ġexec uting
Ġinternal ly
ĠLu is
ĠWrit ing
il o
ĠL am
ĠT on
Element Type
ĠThrow able
m other
Ä Ľ
play back
Ġdoub les
z end
as ia
ot ives
Ġliter ally
le arning
ent ed
P LAY
Ġf ighter
ĠR CC
}} (\
r ang
ĠLa ura
ĠV as
Syntax Kind
w art
http Response
Ġ" #{
comp at
h box
Word Array
; =
inter pol
Ġten ant
CUR RENT
n ets
keyword s
ij i
ĠSus an
Ġcons olid
Ġtw in
ĠPer iod
Ġn umpy
ĠR unn
Ġun e
Play ers
Account s
ĠSp ot
ST D
18 67
Ġ( &
14 2
Commun ity
d ictionary
ĠN UM
Ġver ified
Ġcy ber
} ));
F requency
14 1
Ġperson ally
ĠJust in
Ġanaly zed
Ġtrans it
A ws
Ġi Phone
Byte Buffer
Condition s
x t
Ġarchitect ural
Ġcomfort able
Da emon
RE L
Ġper ipheral
ĠS olar
R NA
Prov ince
Ġsus pension
Ġqual ify
ap ex
Ġexam ination
Ġg aming
ĠMad ison
s ound
,\ ,\
Ġp ole
Ġres olver
Char les
sell ing
Ġinterval s
c od
ĠLabor atory
ĠM ann
cc c
Ġdram atic
iss on
Ġf led
consist ent
get Item
Char acters
m ia
ĠR oll
ov an
Ġess ay
Gu ide
ĠAuth ors
> =
L ondon
n th
ĠMar c
Ġse cre
ĠRoman ian
Ex act
S ir
ĠH IV
ĠDom ain
ĠC M
Ġcab inet
Full Name
åı ĸ
Com puted
ĠFil ip
Ġj ury
Ġv node
H H
og o
ĠQue st
re start
S pl
Ġs ax
Ar c
z ant
Ġb link
enc oder
init With
Ġsl ider
Ġbe er
Ġabs ent
Ġglob ally
s us
ĠC urt
Ġsub mission
Ġbr illi
aw ait
lovak ia
ft en
Ġsk i
Ġcoal ition
Quant ity
E F
ST M
Ġden om
Ġde ck
ĠR x
ĠR uby
"> #
se lenium
Tr ust
ra ble
Ġuse Capture
Rest ore
product s
j ab
ĠT ang
Ġbut ter
Ġeg gs
Ġs ans
ĠF act
Ġj ack
her ic
Ġsynt hetic
port ion
ĠOff set
ĠEx pr
Ġr iding
hi ber
the y
Ġhistor ians
Ġmain stream
ĠSte vens
atern al
ĠB ir
ov iÄĩ
Ġpremi ere
Ġjuris diction
Ġe poch
ric ulum
S ensor
v irt
ĠP av
erv ing
Prof essional
Ġvent ure
le arn
ĠInter rupt
om o
ĠJ oint
Ġfail ures
L atest
W rong
Ġas ide
ĠV eter
Ġret val
Ġax es
align ment
Ġm utable
ĠS alt
Set ter
Al location
Ġjo ins
ex act
ĠST ATE
Ġcros sed
m or
Un ary
With in
Ġev olved
Ġst ere
ĠW allet
Add resses
Place holder
u cc
pro j
less ly
C andidate
ĠSE LECT
Ġse eds
bal ance
Work ing
â Ħ
up al
$ ;
th lete
ĠK rist
ĠĠĠĠĠĠĠĠĠĠĠĠĠĠĠĠĠĠĠĠĠĠĠĠĠĠĠĠĠĠĠĠ ĠĠĠĠĠĠĠĠĠĠĠĠĠĠĠĠĠ
akes pe
H ierarchy
register ed
Ġmoder ate
SO L
Ġimm igration
Ġlast ed
Ġown s
ĠD M
Ġsuper Class
V B
um ing
ĠM all
ĠImp act
ä ¿
MAG ES
w ant
Ġfor cing
Ġi NdEx
ST OP
Ġtri be
organ ization
(' _
v t
Ġm ixture
Ġen emies
Ġexped ition
U k
Ġro ster
(' ');
ĠP ain
Ġdecor ated
Buffer ed
ĠTra it
Seg ments
Ġcommun icate
ĠKe ith
Ġl p
op eng
Group Version
Ġscholar ship
im ap
Ġexpect s
Tree Node
~ $\
Ġw ings
det ach
f ive
ig ion
**** *
V iol
ĠAR M
w aukee
;& #
acc um
ĠArch itecture
U tf
is EqualTo
Ġincor por
he ll
Ġthere by
veill ance
Re presentation
hab ilit
13 3
14 9
ITE M
ĠP riority
Ġde emed
remove Child
P AT
Ġfast est
Col s
ĠS pect
Ġnot iced
ĠDemocr at
Ġbas ically
Ġm u
ĠE R
ĠK un
re ts
ĠThe me
In herited
X T
Ġ ])
arn ess
Ġcare fully
ĠPr im
aph it
)) :
um i
Ġexpect ation
ãĥ ³
bound ed
Ġdiag onal
ĠC annot
ĠC ant
names paces
DOCK ED
Stream s
PR INT
spi racy
ĠC ould
exec utor
F K
m alloc
r ice
ide a
Ġv it
s outh
s ink
User Agent
o ard
ĠA aron
Ġbo ats
ĠWat son
ĠL ions
ap k
14 6
Ġbu ying
ĠPART ICULAR
ul ous
Ġev ac
ĠT uple
Ġ\ &
Ġequ ity
ĠA bs
os c
Display Name
ç½ ®
Sc oped
light s
Or g
hiber nate
Ġb oss
ĠIn sur
ĠAir lines
Y LE
Assert ions
Ġquant ities
Comp any
Ġincl usive
Ġam id
ĠAb u
Ġrem ind
ĠPro xy
p assed
for all
ĠE le
Ch ina
in el
Ġget Default
18 79
Ġreg ulatory
Ġspons ored
om es
=" .
Ġl ung
Ġj ew
Ġmed als
$ $\
LO T
}) $.
ĠEx pected
Ġportray ed
G uest
22 2
Ġentreprene ur
ia z
ĠInd icates
ĠCon c
13 9
Ġpet ition
K ar
ort on
ĠG ay
ĠW u
Ġyoung est
Ġtri angle
S af
Ġz ones
Ġam ateur
Ġchampionship s
M el
d ag
t iny
Ġret Val
Ġexam ined
ĠTransport ation
C atch
ĠB og
Ġcol s
ĠLeg end
H ours
Ġmake up
Ġdec ides
Ġlaws uit
S un
SR C
ĠC amb
ĠB aby
ĠN HL
ment ion
ĠQue ue
ĠProp Types
Ġem itted
i ating
At om
ah a
ĠT CP
Ġda emon
ĠL arry
Ġcopy ing
Ġsem antic
Ġparliament ary
ĠBut ler
Ġconver gence
AT O
^{ +
att y
P rior
M sk
vel ocity
m is
eg an
Ġm ic
ĠB omb
Ġcert ified
char Code
min a
release s
ĠRog ers
Ġswit ched
S py
ĠS afe
we ights
AM D
h c
x r
Ġdepart ments
(" ",
Ġart illery
akespe are
B attle
ĠP H
set Name
Ġiter ations
ĠW es
Ġcontrib utor
}} )
å¯ ¹
Service Model
âĢ ĭ
ĠCustom er
if th
Ġcol lector
ast ro
ĠC atherine
ĠLI ABILITY
ĠMER CHANTABILITY
R ing
ĠY O
Ġtra veled
may be
wikimedia ui
8 75
ĠC ounter
Comp atible
Ġemph asis
Ġterm inated
ĠAnt ar
ĠA CT
track er
Ġperfect ly
Ġslo pe
ĠS ak
Ġse ctors
Ġ' );
TRAN S
Ġpar ad
Ġele ven
J ose
int endo
t ier
S ynchron
Ġl ip
Ġdis sol
Al ready
Ġdef ending
D ue
Ġtra its
Ġf ur
Ġflex ible
A st
ic i
Ġh alo
Ġla ugh
18 71
S ING
Ġle ase
18 68
ĠSim ilarly
2 25
Ġcouple d
Ġconsist ency
Ġinflu ences
us b
ĠL ion
36 5
ĠG OO
Ġwork flow
ĠMun ich
of ill
lo ose
Ġmanag es
tes y
Person nel
Ġplay offs
15 1
ĠAng ular
ot os
Writ ten
Ġen semble
Ġrev ised
c ordova
Byte String
ĠLi u
> @
add le
ĠL ux
assert That
() (
h m
Ġvari ance
ĠOver all
ĠW riter
Ġserial ization
Q Name
Ġfest ivals
Ġdev oted
Command Line
ĠA round
17 6
Ġtrad itions
Ġv oices
l ighter
ĠS ans
Ġrecip ients
ĠID s
b ecause
ling ton
N an
M or
é ¡
Ġb ubble
Ġh yd
ĠDeterm ine
Ġveter an
aphit pc
et ched
set State
ĠHigh er
Ġl aser
ĠB U
Ġcent ered
Ġpat rol
Ġobvious ly
T abs
r p
ĠRe place
ĠCl are
Job s
Ġc ust
Ġob st
dev ices
sen al
ĠConst ants
Code Attribute
c ible
Ġcomput ers
illi e
Ġtour ism
ĠWork ers
p matrix
ĠSh aw
at che
nav Bar
Ġover whel
Ġdism issed
ĠW orth
P referred
\ ",
de termin
x ilinx
26 0
SA MP
power ed
(" ")]
$ ~
om p
SL S
K ER
Ġp a
Des erial
Ġnegot iations
Ġun w
Ġcol lapsed
Ġphenomen on
D WORD
Ġent ers
Ġstat ue
W ay
Ph ysical
Ġe ating
Ġm arch
uck land
ĠTest ing
No thing
ĠTerr itory
ĠT rain
Ġb rew
unit test
oc co
Ġg em
ĠB A
ĠPr incipal
18 77
ro les
Ġnom inations
DE SCRIPT
Ġload s
Ġcult ures
AAAAAAAA AAAAAAAA
Ġ` --
CA ST
st y
Ġ( ).
Ġten ure
activ ated
Ġon Click
Check box
ĠMur phy
ĠLu ke
" \
ĠSh im
> {{
er ase
Ġ` _.
Ġimm igrants
L i
en sed
æĪ Ĳ
P s
30 3
serial izer
20 5
Ġcelebr ation
Ġw restling
ĠStat ement
ĠAgr iculture
Bl ur
Clean up
& =&
y outube
Ġp name
Data Set
ĠG ang
Document ation
C ycle
SE PAR
St eps
Ġen abling
Ġr b
Christ ian
al go
Ġsatisf ying
ĠAr c
Ġdifficult ies
Act ual
el m
è¦ ģ
ĠGuard ian
6666 66
ĠS ent
be havior
(_ .
ut ical
END ING
ĠK ill
Ġanaly ses
Ġaffect s
Ġpl ug
Ġab ilities
Ġconsist ently
Ġdecomp osition
Supp lier
= ${
ĠTr inity
Ġimag ine
ob s
insert Before
ĠConserv ation
ĠL loyd
ì Ŀ
CT OR
Priv ile
Ġfollow ers
Ġanal yst
Ġover write
Ġwind s
Ġconn ector
j ud
ĠCom ments
co ins
Ġrat ings
am ation
Ġcomp ress
15 7
Ġr ated
ĠSlo ven
n ick
w al
18 74
ĠP erry
com puted
K S
h ive
in herits
X HR
ap ing
} ',
RE SET
Ġcivil ian
Ã± a
Ġtri bute
F lex
Ġf printf
Ġlif ecycle
Ġmyst ery
! ');
D iagram
ĠAl ways
transl ated
Ġm ysql
ĠAl ong
ĠScient ific
io let
D ummy
id ays
d ie
Ġre ceptor
ĠE lection
Test er
Ġcheck box
Comp osition
asc ii
Wait For
LAB EL
ĠK ate
ĠExt ract
in ance
Char Field
ĠS uz
ra ils
dela ide
TR IG
ĠN g
Ġmat hematics
effect s
count s
Ġcompens ation
r ss
Roy al
ĠLay er
Upper Case
ĠL ists
Ġde eper
H istogram
ĠDisc overy
f ixtures
e ur
Ġc ock
Ġcomm une
ĠProvid es
B ill
ĠRepresent ative
\ )
Ġc f
ĠF u
Ed m
f und
rip ple
List en
Ġimpact s
Ġas p
Ġchem istry
< '
ist ically
mock ito
Ġrec ruit
poly mer
ĠCan al
Med iator
ĠS L
ul ators
F iction
W ed
emph asis
Ġgrad uating
ĠI M
Foot er
Ġb ull
Ġch ip
ĠDet ails
w y
ĠR an
D uplicate
B F
th ic
ĠF ITNESS
Ġpe oples
Ent ities
Ġ' .'
Ġsh ops
pro cessed
ĠForm er
A jax
Ġview ing
Ġconsum e
g wt
C rypto
m itt
ĠF BI
ĠPhilipp ine
P ing
LA ST
U ART
ĠCh an
Ġoff ense
Ġd inner
C as
k k
Ġde liber
ĠE u
add er
Ġca ption
Ġfilter ing
ä ¹
18 40
Afric an
P NG
ish a
track s
ĠD eveloper
ĠQu ick
ĠT erry
av ail
val s
........ ........
S aint
18 72
Ġsole ly
ĠH aving
ĠB uilt
ĠL an
====== =
ĠZh ang
ĠÎ ±
hel m
g log
att ack
Ġt ours
Ġclo ses
Ġtravel ing
Ġwalk ed
ĠCh ap
Ġback ward
Ġboot strap
N ever
Ġas h
in ions
V IC
ed ges
ym ph
md c
Ġdat asets
Ġpoint ers
sprint f
M ime
pre sto
Ġcomput ational
A ware
Ġb atter
ĠWeek ly
B ot
ĠLe ave
W il
IG H
ĠPh ys
Ġmark ers
Ġenter prise
perm issions
ĠR ivers
activ ation
sh ops
Pre pare
feed back
ĠTri b
Ġcompet itors
External ProjectPath
ĠNot Implemented
Channel s
Ġassert NotNull
claim er
ĠNot ification
Ġf ract
b ane
OB J
K ube
ĠS r
Ġfor wards
Ġens uring
ĠEag les
P ers
ĠP ont
SS ING
ĠTechn ologies
rece iver
g allery
mem item
ĠOper ator
T K
Ġsub stit
Ġlimit ation
Ġnew er
28 0
B son
4 80
dec oder
ch ard
ĠOtt awa
Ne eded
l iter
perm alink
un til
G lyph
Ġident ifies
ĠC es
ĠI con
hy per
Ġbrid ges
ĠPRO VID
subscription Id
_ -
target s
w b
="@ {
ĠS old
J av
Ġch oosing
ĠF ed
30 1
ĠExec ution
ĠM s
c rypt
ĠChristian ity
Ġt ips
PRO CESS
ĠHis panic
Ġfl avor
Ġl ens
P ID
ĠTh ink
Ap ple
Ġpre val
az ard
ett ers
ĠHand ler
d atab
j sp
ĠOpen SSL
ens on
reg exp
ellig ent
) ^{\
at um
re name
G N
Ġshel ter
ĠMet al
Ġe u
Ġsup plement
driv en
ĠIn stit
ĠR idge
Ġde ps
ĠE L
Ġlocom otives
linked ExternalProjectPath
Ġun cle
Compar er
Click Listener
ĠM orning
Ġaccept able
sp el
Ġconv ey
ĠC ancellationToken
ver ity
Ġpo ison
ull ivan
tr on
Ġpre st
ĠMult iple
MS earch
ĠSerb ian
Ġprotocol s
> #
im ag
fer ences
Ġsh ard
ell ion
ÏĦ Î¿
ĠG ene
Ġcons ensus
ĠMax imum
x sl
Ġass ists
Ð¾Ð ³
Ġener gies
Jew ish
ĠGe o
Cal cul
Ġ- &
WI SE
Ġn ut
Condition al
æĹ ¶
Ġthis Arg
Gre ater
n od
is olate
l ar
Ad s
ene ath
ĠE ld
m art
ĠPh ase
AB C
18 73
ĠC ris
Ġare na
LE T
Ġbe ating
Ġ è
. ).
Ġcom ma
ah an
Decl ared
ra co
Ġlight ing
ĠH H
ĠI o
Re quires
ĠA rr
ĠHol land
iph ertext
ĠP atch
ic ating
ĠAnd r
dim ensions
D ark
ov en
in ates
ib us
war f
Ġvac uum
Ġqu otes
Ġcontext s
ĠGil bert
ĠS ame
t lement
Ġvol can
ĠE g
ĠW alt
Ġel abor
Ġrom ance
15 9
Ġconv ex
Ġarrang ements
Ġar ithmetic
Ġsettlement s
Pre parer
ĠA MD
h istor
ref ptr
ind a
Ġ# ##
Ġexec ut
position s
is ers
60 1
B roadcast
æ Ģ
0 10
Ġpos it
S izes
REF ER
ĠF ly
In variant
con cept
ĠK id
Ġ ĉĉ
ĠCal culate
mar shal
f ork
Ġb at
ĠNe uro
Iter able
"> Â
ĠK ids
Ġt ube
get All
M vc
add y
MO D
r st
Inter ceptor
Ġorgan ised
! )
ass ignment
ĠCh am
Ġconnect s
Ġbroadcast ing
ĠFil ms
"> {{
Ġal liance
Ġport al
om it
ĠF iction
class path
ĠNe il
Ġdef late
G al
DO UBLE
Recip ients
ĠArt illery
Ġequ ilibrium
Ġtrad ed
ĠVerm ont
dd dd
Log s
18 66
Ġthink s
Ġconstit u
MEM ORY
>< ![
on Error
Par allel
ĠB P
Ġimm une
Ġstri king
ĠMET HO
J ac
S leep
ĠC LI
Ġoverse as
Ġg host
18 56
Tim eline
Ġiniti atives
L ove
Exist ing
Ġad res
>{ @
Ġh urt
å ½
Ġb ay
Ġcode c
"] :
ĠD od
tw ig
w l
Ġl ingu
Ġmart ial
ocol ate
Ġw s
âĦ ¢
read s
ĠVAL UE
') ),
Q R
ĠO Auth
No Error
Ġr ice
ĠQu arter
Ġconj unction
Ġhon ors
ring tone
ro c
av an
q tek
ourn aments
h ole
U IT
ody nam
ĠHamilton ian
SH OT
Ġv endor
ĠS HA
ĠB eth
up iter
rack ets
Ġsub class
Ġfoot age
OPTION S
Sc anner
Cor rect
t pl
Ġmem ories
RE SOURCE
3333 3333
Dr ive
Ġc hest
Ġconc erts
az i
Ġfore ver
Ġscreen ing
Pack ages
Ġm ime
ĠP ent
Ġc ave
Ġc anceled
ĠM aced
ir q
Tra it
cur ve
)} {\
s amp
as ures
READ Y
He art
sp rite
Ġrow span
r k
sub menu
hen g
ph ones
Ġpl acing
HE LP
Mo ths
ä ¼
ĠG olf
Ġdetermin ation
ĠH em
Ġback wards
Tax a
Ġcorn ers
Ġfacilit ate
"> @
ĠW onder
ĠTreat y
Ð¾Ð ±
azel cast
ĠR ah
ar an
} >
18 48
B ootstrap
ĠF O
Rest art
Ġless ons
Ġh over
che l
}} ^{
ĠG len
AT FORM
Doc uments
ĠCh and
(' $
ĠCom merce
Ġâ Ķ
ĠL isa
Ch an
ĠURL s
am y
Ġj oy
m v
ag ers
Or Update
!\!\ !\!\
ĠL ength
ator ial
form ula
Ġra bb
ĠD ennis
= */
M otion
IS ING
P TED
agon ist
K n
an iter
Ġre name
ape ut
Ġa pt
Ġpro l
land o
Ġkit chen
files ystem
Ġne ural
W heel
border ed
ĠAv iation
et aphitpc
ĠShe ll
is Null
go als
ĠMark eting
Ġtra iler
Ð¾ ÑĤ
up port
ĠInd igenous
ĠTest Class
Con current
ĠGENER ATED
M appings
Ġed itors
ent i
SN AP
ah oo
Ġlink ing
Ġexp ose
Ġdep icted
Drop down
ind uced
ĠT ouch
Ġaud iences
ĠPass word
ag h
append To
navBar Cell
Ġrecogn ised
ST ER
SC A
t ic
Ġt ale
Ġfavour ite
symbol s
Ġroll ing
Americ a
ĠCert ificate
Ġst ride
ierarch ical
o ons
Ġecon omics
Ġreg ression
G G
ipl inary
DI F
ĠCo ach
ĠJeff erson
ond s
Ġmut ual
ĠAgain st
ĠC itiz
Ġback ed
Qu ote
at em
Con cept
de ll
ĠCommun ication
ĠRetriev e
2 12
Node Type
Single ton
Gr and
M ale
ĠFor ward
ä½ ¿
J im
Ġm ature
def s
Ġbound ing
Ġv ibr
Ġmarg inal
Medal ists
get ter
ol ation
ĠT ol
Ġtri bes
ir r
M ongo
Ġiterate e
There fore
Ġm ice
ĠEnter prise
Form ats
Wh itespace
H ouse
find er
prov ide
ĠR ules
key down
Ġround ed
å ¾
Ġf itting
am ination
ĠM T
ĠH amb
Ġexp ired
ĠFish er
g ie
Ġper cussion
ĠLe eds
ad apt
`` .
25 2
Ġgold en
account s
ens en
OO P
Ġcamer as
Ġres c
__ );
look ing
in struction
Ġimport s
Ġb s
] ):
H old
Ġinfl ate
HO W
ĠÎ ¼
Hon ours
ace utical
ĠS oci
th ick
Dynam ically
ĠVAR CHAR
Ġgrand father
Ġaffili ated
Cons ider
18 69
Ġperiod ic
c ott
Ġg enu
Ġn ic
Ġh orn
ĠH alf
Ġprogram mes
Ã °
ĠBr is
effect ive
ar as
ens ities
Is Valid
ĠN ak
Ind ia
Ġdatabase s
b rowse
ĠX X
open ssl
B razil
ĠS ox
Ġth rew
Ġun ve
ĠT I
ĠCre ative
Co ordinates
Sw ift
ĠS ierra
Ġsub t
Ġmodel ing
Ġalter ed
d ll
Ġf usion
el o
ac les
Load Balancer
è¡ ¨
Ill uminate
Ġr itual
' (
ik ing
b uck
t an
Ġc ategor
ĠK in
Ġpre p
Ġpredom inant
ĠVenezuel a
ĠH im
Ġbind ings
te es
ic z
Ab ort
][ <
Bl ank
ĠNav igation
ä ¾
remove EventListener
38 8
Ġadvert ise
Ġdo ck
Ġqu it
sub figure
sc oped
field Layout
Ġmuseum s
** /
ok ia
sk a
Ġsurpri sed
Ġcl azz
Access ibility
ĠHug hes
Result Set
IB LE
over load
User Id
ĠM ul
ol utions
ph ysical
pe ek
Ġcor rupt
T reat
j p
Ġwor ry
ynt hetic
ĠA ber
Ġc attle
Ġprom ised
Foreign Key
ĠO scar
Ġrec y
Ġn aming
17 2
ME TA
ĠP au
ĠS cale
Ġim posed
commun ity
ĠBudd hist
ĠInsur ance
rem oved
ĠHe avy
Ġor al
(' %
N ear
R ol
14 8
pro logue
Ġad option
PRO T
ex change
ot yp
Ġsim p
Ġdet ector
Ġpers u
libr aries
Ġb uff
Ġac res
Ġd os
ĠPol l
j ournal
View ById
cept ors
ĠAt hens
PRO GRAM
ĠC ut
Ġde light
ĠW heel
ad ic
sp arse
ac ular
ĠNor folk
writ eln
CT L
air y
itor ial
': '
ĠPh ysical
ĠB lo
h ort
Ġappro ached
Ġreflect s
v iol
Ġsquad ron
tr ivial
vers ation
T el
ĠM ig
ĠB ool
un checked
flo ating
Fl ora
Ġcomb ining
flag ged
Ġprefer ences
ĠN athan
Fl at
gom ery
Ġevery where
ĠB ass
Gu ard
(" {
Bound ary
im ator
ĠE state
Ġnot ing
Ġins ights
Ġover come
umb ai
Ġim aging
ĠY ellow
be am
ĠSt ef
ĠS oph
TYPE S
Ġa jax
Ġmin istry
Ġm oon
normal ized
List View
Ġed itions
Ġtrust ed
A cl
f red
Ġf ut
s al
ĠS ah
Ġcirc les
ad v
ĠK i
Pro of
il ers
Ġrecon struction
ĠR ET
us a
Ġsubsid iary
Ġp d
s creens
Ġinvest ments
Ġthrow ing
Ap ache
Ġc amel
Object Type
m ine
q t
Ġsw iper
Prot ected
util ity
S olution
con g
$ &
n umpy
Se qu
ĠEx tra
ĠPan el
ĠS z
ins ide
not ated
Ġmurder ed
S ong
Ġactiv ate
clo pedia
mir ror
Eval uation
Ġelev ated
EX EC
Sec ure
Ġr pc
ĠCons ult
RE PL
å ±
Ĺ ãģ
el ing
ĠA CTION
Ú ©
ĠH ebrew
exemplar City
h im
Ġdata Type
ne z
stream s
Ġconsum ed
ig uous
Inter pol
t ain
Ġtim eline
abul ary
Ġ" ]
ĠRel ations
Ġtoler ance
Re peated
Ġover l
M ary
h all
h ls
20 6
Ġtext area
ĠStan ford
f oundation
get Int
76 8
ĠLeb anon
s ix
ĠS ask
iz ar
Ġfre ed
ĠGit Hub
at tempt
if s
d an
C tor
ĠH W
Ġg race
Ġmeas uring
ii i
ĠGal axy
S nap
LE X
Ð¾Ð º
Ġt ribut
Ð°Ð º
it elist
ĠC UR
Ð½ Ð°
Rep lica
Ġpack ets
Ġs f
J ournal
ATION S
Disc ography
Ġnav igator
ĠH tml
in ite
et ta
break ing
ĠP rag
L ifecycle
Ġconf used
Ġvalid ity
ĠPers ian
B ug
Ġhand ed
Q T
ĠFlo rence
ĠE asy
An onymous
H our
Ġr ally
ann i
Se ek
f ight
ĠT as
ĠE ncy
Ġdist inction
Feed back
) }_{
S IG
ĠC NN
Ġo d
Sw ap
ingu ished
3 30
ak o
Ġland ed
ACCE PTED
Num bers
ĠBob by
) \\
Integ ration
Ð¸ Ñģ
Ġs isters
Ġlik ed
Ġst olen
CLA RE
ph on
A thlet
b usiness
deg ree
ĠT imer
Ġcol ony
è¡ Į
Ã ®
ĠL iga
Ġtest Get
ĠCon figure
comp any
Up grade
s andbox
ĠSt uart
ĠP rest
pack ed
REG ISTER
id ity
Ġali en
Ġis Array
Ġoptim ized
Ġf unny
pri ses
Ġpat ron
ĠCh oice
,\ ,
ĠComp etition
H ung
Ġfor k
ĠDo ctrine
Ġnode Name
Ġpsych ological
ab etes
)$ -
Ġsl ides
Ġr t
ĠJul ian
ĠPer form
ĠAng lo
CHAN GE
" })
Ġatt itude
Token izer
S cheduled
ĠS or
P ixels
ĠMin i
Prop el
' =
ĠM otion
Ġne utron
W as
Ġbo ards
ç ¤
Ġle ak
set Timeout
ĠPlay ers
in ar
St ock
ĠS F
Ġdes ktop
Ġparse Float
Pub Key
ĠHer bert
sh im
ĠSh akespeare
Ġlux ury
Ġpal ace
utr ition
p ip
Term s
Mark up
Ġwid ow
ment ed
... ]
Ġe arning
Check point
Ġ" &
S i
I OS
ut ation
x si
Ġd d
RI X
ĠD rama
40 3
Ġprom ising
ĠWh ich
× ¨
acc ur
ĠS oul
Ġrep lication
Ġam pl
Ġt t
ĠS PE
ĠC over
Ġm eg
bel ow
ew ise
ĠSo ft
ĠEp isode
' })
Ġinternational ly
Ġin ches
Ġmolec ules
"> .</
Ġa est
eg u
Ġsuggest ions
An imated
\| _{
inst alled
Ġbank ing
PHP Excel
15 3
Ġapprox imate
ST AMP
Ġattract ive
P rem
or ious
m ile
Ġ Ñĥ
Ġdis orders
gr p
Ðº Ð¸
` ](
lo de
Ġprem ium
ĠA uckland
pro blem
Ġstart Time
lo sing
ĠUE FA
w g
Ġl iver
"> )</
Provid ers
Ġh unt
Ġe cc
ĠO ri
all Errs
æį ®
vis ited
, (
Ġex tr
Ġconstitution al
st ation
Ġr ings
View Model
Ġre load
n x
Ġcop per
Ġt ension
Runtime Exception
Ġvar ied
ĠBe ing
. %
Fr ance
ck o
ass igned
ĠTh under
Ġquarter back
int ro
Ġac ute
Play ing
ing ers
Ġcl an
Ġcont ested
ĠPerm ission
ĠMap s
Ġstop ping
Ġt ier
Ġmat hematical
Ġincred ible
ĠAr nold
ĠCam eron
Ġh itting
ĠGener ator
Ġh istogram
Ġeffect iveness
Ġarriv es
Ġdead line
Leg end
Error Message
ĠSe quence
ĠHel en
r te
ĠLine ar
Ġcool ing
ĠN om
Comp act
Binary Tree
ic us
Ġ} }</
Linked Library
D eg
Ġl ieutenant
Dynamically LinkedLibrary
Ġinject ed
Config s
Sw ed
if ace
ĠCon sumer
less sim
Block ing
ne eds
ĠPen insula
ĠBet ter
ĠSH ALL
Ġg ross
Sel enium
Ġst rain
Ġdifferent ly
ĠKash mir
Ġo prot
ov ich
18 5
ĠF ill
Ġimp lications
N ick
iz za
J ar
ST ORE
15 6
ĠUs ers
Ï ī
ĠLe o
z ig
Ġvar char
Ġm oth
X Path
? '
ĠA delaide
G reat
ĠThe od
cap s
ĠStr ategy
th anks
un set
Ġdem olished
Ġto mb
Ġatt ractions
il io
ĠLat ino
ĠCamp us
Ġphotograph er
ĠAl t
ĠW ag
lic an
comp ression
Ġdisc our
num bers
Ġsuff er
ĠBy tes
Organ ization
le ad
Ġdro ve
ĠE c
ĠM ine
Ġneigh bors
ular ity
j un
eng u
Ġc am
ig i
P aired
ĠSim pson
C ENTER
SH IFT
Ġover ridden
Ġorigin ated
Ġwarn ed
ĠNash ville
ĠN icol
Ġstead y
ĠP icture
Ġpr inter
ĠH av
ĠPhil osophy
Ġalleg ations
ĠTrans fer
Ġfun eral
1 200
er gy
Offset s
Ġrecon c
ish i
raw ler
g ap
ist le
oused own
Ġbro ker
ĠMe eting
Ġmer ch
ins ky
Ġtransl ations
Ġcollect ing
or ian
ĠB ak
ĉĉĉ Ġ
ĠProdu ctions
f ilm
Des ktop
ĠTh anks
Ġcomple tes
Ġ' +
ĠIm plement
CP P
on load
Ġsign atures
Start Time
Ġt ex
F LOW
il ateral
&& \
Ġaud it
er ious
Ġset ter
Qu eries
ru id
CO PE
S ock
ĠS plit
ĠM ills
Ġal arm
Austral ia
ĠAn imal
st a
ĠDel aware
cert ificate
Edit able
Ġfarm ing
Com m
ĠGreg ory
Ġp ale
SECON DS
iag o
Ð°Ð½ Ð¸
ĠK ra
sh ore
ĠAzerbai jan
L em
ĠSo on
18 57
18 59
Ġphys ically
ĠWAR NING
ed e
CI AL
2 32
t el
Ġattend ance
Ġn inth
Xml Element
Text Box
ĠEmp loy
Ġburn ed
Ġb read
ĠG host
The orem
Ġhop ing
lo dash
ĠR alph
Def unct
Type Info
hem atic
, ...
Mus ical
T s
Ġvar ies
Ġelim inate
AL PHA
ĠH ugh
Ġass isted
H over
Ġalleged ly
Ġclo thes
Print ln
Ġf lip
ĠA my
D ro
pod s
n P
greg ated
Ġ` <
A ust
ĠB ootstrap
id y
s it
im als
Ġj ail
Ġsus pected
ĠOwn er
x path
Pl ane
F ixtures
Ġ" ."
ĠStr ateg
Ġcontact s
ĠK ol
cal cul
Ad vanced
ĠPro vider
dir s
Ġm amm
Ġun a
fe ction
Min or
N L
bo ys
Ġthr iller
Ġwire Type
e con
ĠCh ang
ck e
Ġmax imal
Sp ot
M ix
ag n
Ġ ic
aut om
ĠMe chan
ĠRem ember
c xx
Ac celer
ĠGerm ans
C fg
Ġmanufact ured
WA IT
ĠS ultan
en burg
Read able
e o
if ice
C U
to UpperCase
Ġst uck
M EN
ic ast
Ġrun ners
Qu ad
c g
ĠT oo
level s
Ġper ceived
alt ies
) ")
ĠS ig
ĠC u
Ġ*/ ,
Ġexport ed
Ġremark able
× ľ
ep per
ĠHer z
Ġsort ing
Ġprevent ed
Ġmeaning ful
sp here
Ð ¡
ĠCont ains
ĠT es
en es
(" ");
ern ess
ĠSp ider
initial izer
M ah
ĠV ec
inter action
ION S
Lock ed
it ness
15 8
Ġaccess or
Ġdiv ide
M ex
ĠMon itor
Web Kit
Ġlab eled
ro ach
LAB LE
Ġl as
Ġ[ (
ĠIn novation
Start up
ĠCh apel
Ġs lots
Direct or
ĠBroadcast ing
path y
ĠAd ult
pr inter
16 7
Ġsus pic
fold ing
T er
Ġper pet
| .
Ġ$ ('
Ġ@ @
Ġ% (
ĠO m
nav igator
inv ocation
ĠImmutable List
s af
Relation ship
ĠM UST
ential ly
ourn ey
ĠTime out
Ġrad ar
Ġcorrespond ence
Ġbi ography
Ġinaug ural
ĠComp ile
ĠB ald
Ġm ixin
th ink
ĠGener ation
ĠLib erty
Ġp ounds
Ġart work
ĠAbb ey
Interop Services
close st
List Item
Ġpush ing
OR AGE
j as
00 3
B LE
/ ",
é Ļ
ag le
Ġpro posals
ST ACK
dr ive
Ġplay off
Effect s
r vm
Ġcont rolling
UN IF
found er
sup p
Ġdisest ablished
Ġtum or
arg c
render ed
Ġno se
Ġw ard
Ġw avelength
Ġd uplic
Ġpre liminary
ĠSeb ast
e lected
Unexpected EOF
ph is
Ġa uction
ĠS chedule
Ġ" @
Call able
K B
Ġsub scribe
ĠSecond ary
op ath
ĠInt ent
( ...
g ue
ĠSTD METHOD
IN X
ĠAl pha
lic h
Ġgeneral ized
Ġph p
Rout es
qual ified
defer red
30 2
ĠPlan et
sw iper
ĠBy zant
Ġco at
document Element
un shift
wall paper
Call ing
J O
ĠJenn ifer
Sm ith
ĠB lob
xi ety
apid ata
sp ons
ĠJ in
ins pect
ĠV ict
Ġl ying
Ġ( âĢľ
Con trib
Ġm ines
Ġpro pose
C XX
C amel
ĠC elt
Bal ance
Ġprov inces
d ma
Ġm ild
former ly
m ur
ol oad
F ort
Ġl n
ĠB ears
ena issance
Ġlo ops
Trans actions
sw ick
Ġpan ic
g dx
Ġres erves
Ġal lies
Ġbul let
Icon Error
Install ation
Ġin complete
n orth
ĠChe f
IR Q
PIX I
Ġaggress ive
B ol
Ð Ĵ
Ġreb uilt
de ad
Ġim perial
Cl s
RE SP
Ġdriv es
Ġbelief s
ĠBulg aria
Conf lict
B log
c ards
ick ets
Ġcent res
ĠN A
roll ment
Ġb ike
Ch anging
}} ^
an imated
Ġsup pose
ÑĨ Ð¸
oper ating
Ġair line
Ġinvent ory
p ersist
ĠS ang
ĠE sc
ĠUn fortunately
URI Component
Ġbatt les
} ">
Ġf illing
mod ern
lf riend
15 4
ĠSh in
ĠIns pector
Scott ish
av ef
inet ic
Ġanim ations
ND ER
" '
cre ase
Ġmist ake
N ay
ose x
control led
Ġw elfare
ĠK as
RE LEASE
ĠId aho
Ġpoll ution
iz a
Min utes
havi our
Ġre versed
r age
Ġte eth
Ġapp ended
ĠINCL UDING
ĠS ou
ĠPeters burg
i ya
ĠUp dated
Ġ; ;
ID R
ĠHe in
ĠPROVID ED
ĠNE W
Date Format
get Bytes
ĠSocial ist
Ġag enda
R azor
it he
cre st
ĠPhilli ps
ĠC ox
an che
ark er
ĠP RE
Con struction
ĠGro ve
c annot
Ġdo i
Err UnexpectedEOF
rt c
up grade
Ġoccur ring
ro sc
Ġim per
Ġdescri ptions
Ġeng aging
IST S
ĠAb raham
Ġspecial ist
Ġh orizon
Http Servlet
ĠE ither
ie u
Ġexec utable
ĠH ack
:// $
ĠCour se
writ able
D evelopment
Build ing
Ġdiscrim ination
F ULL
Ġlo ves
Ġconf usion
k al
ĠC elebr
Spe ech
oph one
ĠArch itect
ĠLead ership
23 4
Ġp df
un ed
ãĤ ¹
$ ),
s chool
ĠP ool
Ġexhib ited
ĠM az
oo thing
(" _
ĠPro to
Ġcount ing
Ġabsor ption
built in
c orn
Ġpreced ing
Cover age
Ġt a
Ï Į
B uff
pre ter
ke es
Ġden oted
Se veral
Ġl ane
display style
l ishes
ĠAl ger
At l
Ġcompan ion
SEPAR ATOR
b anner
Ġshould er
ING S
Ġam big
Ð» Ñı
ĠUg anda
Ġdec oded
Ġext ensively
ĠD aw
Ġwealth y
Ġdescend ants
Ġsal ary
er ie
Ġmut ation
Ġglyph icon
ĠNever theless
Ġaccommod ate
in as
S port
ail ing
Ġsl aves
J oint
ĠVen ice
ĠIgn ore
Ġg rain
Property Changed
ĠCH AR
all ing
" <
Ġg ains
it on
map sto
Ġest imation
ĠCONST RAINT
Ġt weet
ten ant
Ġfall en
Î ®
ĠCl one
Ġrep lica
Ġeditor ial
) ::
Ġinf antry
ee ee
Ġcomment ary
Ġsynt hesis
à¥ į
v ation
im eter
US BC
ĠAl ert
version ed
w ent
fo od
Ġjust ify
Ġc tor
ol ition
D N
NS Mutable
bound ary
IB ILITY
Ġdism iss
O VER
ĠG ust
Z ERO
ĠIllegal StateException
8 90
Ġd ip
ul in
Ġwe ird
ĠG lass
H i
Ġs ang
comple ted
Ġp ig
? ",
Ġel ite
RE EN
no sed
Activ ation
mark down
Ġvirt ually
ĠCOPY RIGHT
prot oc
Ġurl s
Ġdoll ar
re ction
Ġst reak
In ventory
Transl ator
Ð» Ð¸
har mon
Ġp as
Ġn ep
Can ada
S dk
alloc ator
L U
Co ords
50 1
Ġfiles ystem
Ġprevent s
Ġun successful
Compiler Services
Ġgather ing
ĠBro ther
__ ))
B K
ok o
field Name
P en
ĠT IME
ĠL ov
ĠW ire
ard own
Type Error
Ġswitch ing
Ġdraw s
Ġover rides
Ġx s
Ġstd err
ĠBel arus
in ced
uch i
Ġpop ulate
ĠDA MAGES
Ġc od
Ġburn ing
DF S
ĠTest Case
Ġfix es
Ġmem cpy
Ġ? ?
um ble
$ :
IconError Encoded
F H
V ERT
olog ically
ĠSp encer
Ġvolunte er
ash ing
Ġp g
B ubble
Ġse p
sp ired
ĠY ale
Sh op
66 6
null able
y ii
å ¹
ĠEx cell
Register ed
n ut
aaaa aaaa
Å ¼
18 30
) ](
un bind
ĠC amera
ĠR achel
ĠCh a
ET HER
B ay
Ġaver aged
re pos
Ġdist urb
Count s
end ent
ĠD eg
Ġtrad itionally
ĠDec ision
Ġ ----------
Ġpick s
Ġloc ate
W elcome
Ġtra p
ĠLeon ard
Glob als
Over load
Cart esian
erun ner
P arsing
Ġexha ust
Ã ¯
let es
Ġult imate
Ġcons iders
romag netic
( ["
ĠS che
Ġg rab
Ġ` '
From Range
inst ant
con version
Code Dom
UN IT
leg iate
Ġre construct
Ġ" ../
contains Key
he ses
any on
Or Default
Ġ{} ",
VO ID
ĠL ed
io x
Ġl oud
Ġse vent
cont aining
Pol icies
Ġal phabet
Ġdirect ives
AR S
res ume
ĠN ancy
Ġm im
Ġmax im
ĠB O
) })
Ġcomb inations
ĠMil waukee
S ale
Ġexc av
ä½¿ çĶ¨
OR IZ
Ġap ple
Ġproport ional
asc ular
Ġsub stance
Pol l
ĠF antasy
Ġy esterday
Ġsum mit
CONTRO L
ĠP D
ĠHar vey
Ġarriv ing
Ġt ent
Ch oose
orth and
cont rollers
bind ings
ĠSing les
ĠWell s
Ġisol ation
Ġnob le
ĠHar bor
ĠDeterm ines
ITER AL
Ret riev
Ġtele phone
Ġcamp s
Ġfor um
Ġle an
AT I
work flow
Ġtrack er
Ġisol ate
ĠEmer gency
Ġadvoc ate
Ġread able
Ð¾ Ð½
Und o
A w
ĠB S
return Value
D istrict
Ġenthus i
is String
UT IL
G i
ad vanced
ach ers
ĠSub ject
æĸ ¹
Ġfoss il
serv ers
Ġtack le
h agen
Ġmar ry
ĠWork er
Ġgoogle api
Ġc x
Ġsc iences
Ġcommand ed
ĠS I
Ġde grad
Cell s
min o
avor ite
Ġox id
Ġtour ist
SUP PORT
SPE C
ĠB orn
ĠDe uts
Ġsculpt ure
Q uality
SE QU
Ġpredecess or
ĠM ik
ĠRe quire
met av
Ã¶ n
Ġtable Name
ĠE ddie
Dep artment
}} $.
f h
ĠA str
ri sed
li ant
ut y
18 58
Git Hub
Ġaccount ing
Ġachiev ement
rg ba
Ġen comp
^ (
CT X
dig it
ĠArgent ine
h ydro
hes ized
D J
ĠIn ner
Ġintrodu cing
Ġjav adoc
Ġang les
Ġartifact s
Ġres idual
date Format
ĠM AC
ĠUn ity
MA IL
arr ison
ĠF oster
ĠL or
ĠTool s
Ġrefuge es
w ifi
Re verse
}} $,
Publish er
U OG
de b
provid ed
ĠW inn
Ġspe aks
% =
% ),
T riv
is ot
Ġb uses
ĠP I
Ġg c
18 7
Ġprodu ctions
enc rypted
oos er
ĠB rid
ry s
Non null
al bum
AV A
Ġa u
Pro vision
------------ ---
Ġacceler ation
Res ume
Buffer Size
Ġsk ipped
Ġep ide
Ġthr one
Ġy ard
ĠArt ists
ï¼ ļ
Ġswe ep
SNAP SHOT
). __
}{ |
ra ises
Ġdial ect
ĠSy rian
Real m
Ġdefend ers
ĠCar lo
B G
ĠĠĠĠĠĠĠĠĠĠĠĠĠĠĠĠĠĠĠĠĠĠĠĠĠĠĠĠĠĠĠĠ ĠĠĠĠĠĠĠĠĠĠĠĠĠĠĠĠĠĠ
Ġmaint ains
F riend
Ù ģ
é Ĺ
' =>
v b
DI ST
text Content
T rade
get Mock
Ġt ournaments
bro ok
un s
INT EN
WINDO W
sp inner
S parse
cont ract
H a
Ġaffect ing
ĠR oche
pat ched
ĠCroat ia
Ġabb rev
ĠF ailed
ĠB R
Ex ports
ĠR ams
Ġfriend ship
Ġexplo red
Ġreloc ated
18 8
_ "
con struction
Ġattack ing
RAN GE
Ġm ad
; ;
Ġplay list
ĠU V
Ġseek s
p it
Dan iel
C ause
ĠT ul
ĠNorth west
Pro b
Ġenc rypt
ĠCong o
ĠStr ong
b ower
Ġem er
ĠG ate
c ritical
res izable
Ġkey boards
ĠMan uel
Ġg ymn
Ġtro ub
ir teen
Ġsust ained
Ġun ions
ĠIndepend ence
Ġh alt
ĠPark s
Ġdev ast
ĠEag le
ĠR osen
source forge
Al ways
Ne ed
Ġ\ (\
ng th
ĠS ustain
ĠWell ington
constraint s
ĠS ter
ĠTh ai
ĠN umer
ĠB irth
Ġ? ></
ĠOr d
ific ant
COL UMN
ph antom
A verage
Ġinvestig ations
ess a
Ġt we
ĠA ncient
ber ger
ĠR av
oll ar
Order ed
am med
ĠT odd
EN O
Ġrele asing
Ġaccept ance
ĠShang hai
iter ation
ĠCap itol
id le
Ġfilm ing
D to
ĠL arge
Ġbank rupt
Ġexceed s
ĠB SLS
Ġs ap
im i
erg i
Ġre nov
log y
Cre ating
Ġbl end
CK S
plus plus
ĠVo iv
Ġcall able
Constit uency
h ours
ER E
Ġevery day
Ġconv inced
18 55
pre pend
oy age
ĠR uth
MODE L
Ġhe ll
Ġexpl oring
Ġlumin osity
A ES
16 1
} ";
Ġst mt
ĠH ook
Ġdo zen
ĠCom edy
flagged Element
ĠĠĠĠĠĠĠĠĠĠĠĠĠĠĠĠ ĠĠĠĠĠĠĠĠĊ
ĠK umar
55 55
cr im
ĠInput Stream
Ġer ected
Ġsens ors
Ġs ou
Ġd ish
ul ent
:: __
Ġadministr ator
ĠArmen ian
st udio
ENT IAL
Ġf rozen
get Child
20 24
cons ider
Ġche ap
ĠAt tributes
Web View
lo ys
ĠV ision
Ġs prite
Bl end
ĠPed ro
}$ )
Book mark
Ġcontin uation
Ġhuman ity
Ġb er
SP H
Ġ ist
oc c
ĠHen ri
18 2
Ġlik elihood
\ {\
ĠK l
Ġbelong ed
ĠJ OIN
Ġdes per
C ES
Ġexp enses
Ġobject ives
Ġvacc ines
able View
ĠTh an
m ul
he at
connection s
c ence
ve e
Vel ocity
Ġ< >
Ġbr ut
Col lege
min ster
Ġcheck er
struct ured
Ġtarget ing
Ġcontinuous ly
Ġb ills
ij a
Ã ĥ
el in
unt ary
ĠF F
Ġline up
ĠH ide
odes hip
Visual Studio
Ġdelet ion
/ </
Ġm v
Get s
cu ador
Ġre build
assembly data
G ap
W W
st ones
Ġpl ates
Ġun employ
Ġe gg
Ġep ic
R SA
ct est
Option Widget
V ATE
Ġ\ '
Ġsome how
ĠSc roll
Ġinfe ctions
Ġl ifestyle
)\ ,
Stop ped
S a
ĠG overn
Ġnumber Of
G OO
New Error
d istrict
t ips
ing e
& )
ph er
ax es
Character Offset
riv ing
Ġoption ally
t raining
Log ic
ĠChar ter
Ġdistinct ive
Ġac qu
ĠCor p
render ing
bo at
lect ric
Ġocc urrence
ann o
Ġrg b
Ġaccompl ish
ĠĠĠĠĠĠĠ Ċ
Ã© d
Ġcur v
B rows
ĠMar io
æĸ °
| _{
Ġhistor ically
G ar
P ATCH
Ġfl our
cn fn
m eter
Ġpol ling
ysi html
Un less
Ġbacter ia
c ro
Enc rypt
ĠEX PRESS
Ġwalk s
Ġacknowled ged
Al ive
p ersistent
Ġs overe
Ġre called
Of Type
Ġreal istic
Ġt il
Ġtempor al
M odes
Ġdis connect
ugg ed
Ġqu art
Ġwild life
ĠD ir
ator ies
ĠMar x
ĠDest roy
ĠPalest inian
> ")
y alty
uls ion
und ant
Ġch ances
Ġprotect ing
ĠHar old
Ġ` .
ron ym
Dep loy
Ġfif teen
qu in
ĠAn a
Ġalloc ator
Ġwer en
ur as
ĠC B
Prot os
Ġ" \\
Ġform ations
Return Type
ĠMag n
Ġtour ing
Ġs moke
up pet
ĠEvery thing
Bo ard
v node
Ġf ed
ĠL imit
co ord
br as
Ġthe sis
Ðµ Ð¼
> ]
Ġreg exp
âĢ¦ ]
Ġadminister ed
u pe
Ġ} {
ĠK or
dat as
Ġb eneath
Ġre nown
Ġderiv atives
Ġf erm
ĠAh med
ĠT ell
BUT TON
ĠO PT
XX X
å ·
Ġmetab ol
ĠI v
class name
ĠAm endment
Ġque en
Place ment
Ġcon ce
Ġc inem
Ġen rolled
ond o
Ġmem brane
De leg
INTER FACE
res erved
16 2
ĠPar alym
ç¤ º
stop Propagation
fac et
Y ea
Ġt une
Ġdesign ers
Ġsever ity
Ġpol ygon
Ġ// $
Der ived
Ġp ag
Ġor chestr
Ġfac et
ĠMont gomery
ĠBrook s
Ġpr ince
sw ith
Ġn pm
ĠPal mer
J P
Re actor
T a
a ude
è ¨
With Context
Ġrhy thm
code haus
ĠUnsupported OperationException
ĠR af
, âĢĻ
18 54
in dependent
Ġp lott
uch y
ĠSc ar
Ġrandom ly
Ġst er
'] :
sub scriptions
ĠB undle
UR ATION
Ġo m
Ġm ood
pect ives
Pro tection
atche wan
force ment
Ġk iller
Browser Detector
SCHE MA
19 3
Ġcharg ing
Ġb unch
CR YP
ĠWall ace
e u
ing o
tr ust
Action Bar
Ġpsych ology
Ġtransform s
: {
Â Ń
ST AR
b ag
Ġn od
TH ON
Ġstraight forward
flu ence
w ed
ĉĉ ĠĠĠĠĠĠĠ
}^ *
atin um
file path
ĠSte in
ĠR aid
Ant i
st or
Ġsp ac
Ġaff air
ĠAut hentication
ĠG ov
ĠHar per
Ġover head
Film ography
++ ){
oc ene
ced es
Ġclick ed
Ġd ashed
ĠB ach
Ġpregn ant
Ġgrav itational
ĠD yn
G erm
ĠU ntil
Ġfor Each
Ġexpect ing
W all
lev ant
struct ive
Ġwe igh
re tr
Ġch apel
Th anks
valid ators
ĠVlad imir
Ġf ate
Ġtr ump
rog ate
å ī
ĠR EQ
Ġgard ens
Spec ification
Ġmort ality
ĠClin ical
æ³ ķ
Ġwrit able
M Y
ĠH ousing
Ġconduct ing
Ġcogn itive
J un
Ġinf ected
Ġc emetery
Ġs iblings
fall back
Ġf Ã¼r
ĠV ery
ĠC riteria
h dfs
Ġsol ving
ĠCo hen
L os
Ġ icons
ict ions
Ġa thlete
J on
ĠQ uality
ĠC raft
N LS
à¤ °
HP P
new Value
E le
w oman
ĠAll ah
al in
Ġl ig
ĠIn side
Ġterm inate
Ġb orough
ĠF ollow
Ġd ying
ĠM anag
ĠTun is
P ersist
S u
Ġoptim ize
ç ī
Ġh ills
n f
Ġm b
Ġbond s
ĠClar ke
Field Location
c andidate
semb ler
p ager
Ġch oir
spec s
Ġcount ed
ĠN intendo
Ġperman ently
Face book
in ode
ĠTom my
get Content
ĠRe ed
ĠC V
Ġreprodu ce
Ġso ap
bus y
A x
Ġpre vention
w yn
ansp ose
Ġdev iation
ĠProduct s
Ġhe ating
ĠÃ ģ
Ġdimension al
amp ing
Unmar shaller
ĠF at
DL L
par s
full screen
m gr
el ines
ĠCom posite
G PU
o ses
Ġpul se
habilit ation
z ens
Ġfight ers
ĠInvest ment
17 9
uby te
Ġembed ding
Ġop inions
Configure Await
ph ant
¦ Ĥ
pr imitive
ĠWe ather
Ġf ung
ast ics
Ġtest im
bor o
B oot
get Column
ĠIn clude
Ch ris
è §
ĠM umbai
ĠS Ã£o
Ġcorre ctions
\ -
Ġun changed
ĠBo ost
es lint
ĠO pp
Ġste ep
Ġv iral
Ġred shift
est yle
Ġelect rons
Ġfit ness
Ġtreat ments
Ġce ased
ad vert
Ch apter
Ge org
Ġtreat y
ist ing
ĠSign al
Ġstrugg ling
G ate
ro e
Ġmechan ics
des ktop
Inter action
li pped
class v
comp ose
Aud it
Ġl akes
Top ology
ĠB B
ov sky
og onal
Ġbefore Each
="../../../../../../ ../../
Ġe leg
gr and
}( {\
Ġexception al
Ġwithd rew
Track s
ĠVoiv odeship
im mer
W P
Ġle agues
les cope
ĠRe ports
Work Item
r ust
ĠAR ISING
is NaN
g host
activ em
mask FromRange
Ġbe et
Ġsol ved
ĠGran de
Recorded Vote
Ġcomp rises
ĠF an
S v
Ġget Value
Ġinter sect
create Class
!! !!
ft p
Present ation
ĠPos sible
it ud
Par sed
Ġw orn
ĠB arr
ĠAr med
Ġfe as
f lip
ĠC lock
ĠColumb us
Ġexecut ives
iv ari
GL int
Ġprevent ing
}) $,
Ġlob by
b uff
d g
end ant
ĠI g
ip v
OR ITY
Mod ifiers
, &
be k
ere k
Ġaccess ing
Com panies
Ġsw ift
" &
) }}
Mod ern
Ġsp acing
charCode At
Ġdream s
topic data
Ġsc ar
ĠBenn ett
Ġn b
pre ced
ap a
Ġtra ces
z k
ĠAssert ion
C rypt
Ġsustain ability
Ed ges
Ġselect ing
Col on
lin ing
aur us
ĠFa ith
Ġp ist
Ġadv ised
5 50
C ERT
f eld
Ġview er
R W
year s
COMP RESS
ĠBey ond
T ASK
ĠPet e
Ġlo ans
Ġacc idents
Ġconfirm ation
ĠE ight
ry p
ĠBrun swick
Ġun clear
Ġac ids
ĠHit ler
ĠE du
Ġpar as
map reduce
c plusplus
Ġobserv ers
Lou is
Ġsub marine
ee per
Ġbuffer ed
Ġremember ed
R ivers
ĠBl ake
Ġ(! _
Ġ_ (
ĠWars aw
Ġv in
Return Value
Ġit al
sl ashed
ĠRef lect
ĠLI ABLE
b roadcast
Ġanth rop
) +\
_ ("./
An alytics
Ġabund ance
ĠU rl
Ġdiff ers
ĠB ent
ĠW ant
ĠLeg acy
B ra
Ġgovern ance
ĠIn stitution
Bl uetooth
Ġdrum mer
r anges
s omething
ab ove
bad logic
m aint
en i
str cmp
ĠReg istry
Com puter
Ġinter ference
f amilies
ĠAT TR
Ġdesign ation
Ġto ll
aw ks
20 7
ãĥ Ī
ĠN y
ugg ing
Ġearth quake
ĠF ri
Ġp ink
({ '
++ ];
ĠK yle
P et
is ible
Ġw ars
ur bs
Ġaccompl ished
ĠB ert
ĠCard inals
ĠD iocese
U X
ĠL akes
ĠC raw
c ats
Ġv i
Ġu k
L iter
ĠR ice
ĠRep ository
te in
ĠNap ole
Sub scribe
are l
ĠSim ilar
le z
cond itional
k afka
ag as
and ro
æİ ¥
åĲ į
ĠAl lied
ç §
Class Loader
Ġcov ari
Ġup loaded
Ġâ ĪĴ
Ġav iation
Check Box
Ã§ a
Ġwork shop
, %
Ġp ill
Ġpat ri
ĠS hen
pro g
An cest
system s
Cour se
ĠTib et
im an
un ting
Ġconcent rations
Ġthere after
av ia
ped o
Ġchalleng ed
P ersistence
Ġflow er
& =
17 1
ĠChem ical
ĠP ER
Ġweight ed
Dig ital
Ġro l
Ġjournal ism
art s
PT S
in variant
Spec ify
ĠX box
M ike
on ne
re pr
Ġsp ir
Ġdecl arations
Ġob sc
Ġg rap
data Type
bas ename
man age
Ad apt
url ing
number Of
Ġbi ology
Ġconduct or
depend s
e asy
ad en
=-=- =-=-
ogen ic
:: -
Ġch apters
Ġhard er
Ġdist ant
"> :
:" -
e ah
an other
Ġnav ig
m isc
Ġauto Convert
0000000 1
s lick
Line No
Ġd up
"> =</
ble ms
Ġph ones
Ġimp ression
g rav
ĠS ed
As sets
Ġf iscal
ĠD anny
20 9
ĠG M
Ġref ere
Ġautom ated
order By
Ġplan es
Type Symbol
String Utils
LA S
Clo sing
Ġexplos ion
aint ed
Î ¬
Heading Color
ĠB atch
AS N
ĠC OR
ĠPow ell
ĠĠĠĠĠĠĠĠĠĠĠĠĠĠĠĠĠĠĠĠĠĠĠĠĠĠĠĠĠĠĠĠ ĠĠĠĠĠĠĠĠĠĠĠĠĠĠĠĠĠĠĠĠĠĠĠĠĠĠĠ
Ġsim ulated
Ġge ometric
Ġen act
Ġag gregation
23 5
BIN ARY
Ġnot ified
ĠDe al
ĠG az
Ġan ch
Sc enario
Wire Format
Ġr x
Ġdecre ases
ĠSerial izable
i ology
design ated
multip ly
24 5
infl ate
ĠRunn able
table Name
Ir ish
ĠS ic
ine es
so ap
Ġtri ps
ĠRh ode
ĠOr lando
k ers
CALL TYPE
Ġbel t
Ġali ases
In fl
16 3
Ġtim ber
er i
Ġd ancing
he nd
ĠC inema
ĠEr nest
Ġqu asi
Del ivery
ĠArch bishop
ĠCr iminal
udd y
ĠAssoci ate
åŃ Ĺ
EX PR
Ġres ervoir
Ġ ud
ĉĉ ĠĠ
ĠPar ad
T ap
Ġneighbor ing
ĠTy ler
ĠBris bane
Ġc iting
Ġun ity
Ġpen et
Ġex terior
hand les
FI RST
Ġpro pri
z el
22 1
ĠRay mond
C MAKE
l ng
ff ield
N F
Ġab oard
Ġstri kes
Ġnation wide
ĠArgument NullException
ĠC atch
Ġplay wright
Mut ation
ĠCar bon
a verage
m otion
Ġcro ps
j ox
G I
ĠÐ½ Ð°
ĠĠĠĠĠĠĠĠ ĠĊ
ĠW ake
Ġtx t
TA IL
mag ic
up dates
i ance
ĠMar cus
am as
ĠS yl
Dec ision
ĠÐ °
ĠInter view
] '
Ġr and
Con serv
Mar shaller
istribut ions
acc ordion
Ġnick name
N u
ĠM issing
Ġp lots
Rec order
Ġnumer us
Ġsett lers
ĠPear l
Ġi e
Ġcart oon
= $(
Ġagre es
C ities
Ġthe ad
"> [
DE S
Ġmask s
Ġde ce
Ġret reat
ĠOak land
ĠS urg
ill on
ĠE ve
PO INTER
Ġphot on
imp licit
ĠTri ple
ĠP ul
ch romium
Wait ing
l iga
ĠPart ners
rack s
Fem to
ĠĠĠĠĠĠĠĠĠĠĠĠĠĠĠĠĠĠĠĠĠĠĠĠĠĠĠĠĠĠĠĠ ĠĠĠĠĠĠĠĠĠĠĠĠĠĠĠĠĠĠĠĠĠ
Bro ker
man uel
Spec ies
ĠWild life
s ynchron
ber y
ĠSc ene
e fficient
Ġc ele
ĠTerm s
Ġc oding
#### #
Ġa rise
n is
at an
Ġd iagnostics
LI BR
AIN ER
H op
iz ational
[...]
