{"[UNK]":0,"!":1,"\"":2,"#":3,"$":4,"%":5,"&":6,"'":7,"(":8,")":9,"*":10,"+":11,",":12,"-":13,".":14,"/":15,"0":16,"1":17,"2":18,"3":19,"4":20,"5":21,"6":22,"7":23,"8":24,"9":25,":":26,";":27,"<":28,"=":29,">":30,"?":31,"@":32,"A":33,"B":34,"C":35,"D":36,"E":37,"F":38,"G":39,"H":40,"I":41,"J":42,"K":43,"L":44,"M":45,"N":46,"O":47,"P":48,"Q":49,"R":50,"S":51,"T":52,"U":53,"V":54,"W":55,"X":56,"Y":57,"Z":58,"[":59,"\\":60,"]":61,"^":62,"_":63,"`":64,"a":65,"b":66,"c":67,"d":68,"e":69,"f":70,"g":71,"h":72,"i":73,"j":74,"k":75,"l":76,"m":77,"n":78,"o":79,"p":80,"q":81,"r":82,"s":83,"t":84,"u":85,"v":86,"w":87,"x":88,"y":89,"z":90,"{":91,"|":92,"}":93,"~":94,"¡":95,"¢":96,"£":97,"¤":98,"¥":99,"¦":100,"§":101,"¨":102,"©":103,"ª":104,"«":105,"¬":106,"®":107,"¯":108,"°":109,"±":110,"²":111,"³":112,"´":113,"µ":114,"¶":115,"·":116,"¸":117,"¹":118,"º":119,"»":120,"¼":121,"½":122,"¾":123,"¿":124,"Â":125,"Ã":126,"Ä":127,"Å":128,"Æ":129,"Ç":130,"È":131,"É":132,"Ê":133,"Ë":134,"Ì":135,"Í":136,"Î":137,"Ï":138,"Ð":139,"Ñ":140,"Ò":141,"Ó":142,"Ô":143,"Õ":144,"Ö":145,"×":146,"Ø":147,"Ù":148,"Ú":149,"Û":150,"Ü":151,"Ý":152,"Þ":153,"ß":154,"à":155,"á":156,"â":157,"ã":158,"ä":159,"å":160,"æ":161,"ç":162,"è":163,"é":164,"ê":165,"ë":166,"ì":167,"í":168,"î":169,"ï":170,"ð":171,"ò":172,"ó":173,"ô":174,"Ā":175,"ā":176,"Ă":177,"ă":178,"Ą":179,"ą":180,"Ć":181,"ć":182,"Ĉ":183,"ĉ":184,"Ċ":185,"ċ":186,"Č":187,"č":188,"ď":189,"Đ":190,"đ":191,"ē":192,"Ĕ":193,"ĕ":194,"Ė":195,"ę":196,"Ě":197,"ě":198,"Ĝ":199,"ĝ":200,"Ğ":201,"ğ":202,"Ġ":203,"ġ":204,"Ģ":205,"ģ":206,"Ĥ":207,"ĥ":208,"Ħ":209,"ħ":210,"Ĩ":211,"ĩ":212,"Ī":213,"ī":214,"Ĭ":215,"ĭ":216,"Į":217,"į":218,"İ":219,"ı":220,"Ĳ":221,"ĳ":222,"Ĵ":223,"ĵ":224,"Ķ":225,"ķ":226,"ĸ":227,"Ĺ":228,"ĺ":229,"Ļ":230,"ļ":231,"Ľ":232,"ľ":233,"Ŀ":234,"ŀ":235,"Ł":236,"ł":237,"Ń":238,"ĠĠ":239,"ĠĠĠĠ":240,"in":241,"er":242,"Ġt":243,"on":244,"Ġa":245,"re":246,"he":247,"at":248,"ĠĠĠ":249,"en":250,"st":251,"or":252,"ĠĠĠĠĠĠĠĠ":253,"al":254,"an":255,"Ġthe":256,"ar":257,"le":258,"Ġc":259,"it":260,"ion":261,"se":262,"Ġf":263,"is":264,"Ġo":265,"es":266,"ed":267,"ing":268,"ro":269,"Ġw":270,"Ġp":271,"ic":272,"Ġs":273,"ct":274,"Ġb":275,"Ġin":276,"nd":277,"de":278,"am":279,"ent":280,"ĠĠĠĠĠĠĠ":281,"as":282,"ou":283,"Ġof":284,"et":285,"Ġm":286,"Ġ=":287,"ĉĉ":288,"Ġre":289,"Ġn":290,"Ġto":291,"il":292,"Ġand":293,"Ġ(":294,"om":295,"ur":296,");":297,"ce":298,"Ġh":299,"Ġ{":300,"ol":301,"ĠS":302,"Ġd":303,"Ġth":304,"ut":305,"el":306,"id":307,"im":308,"Ġ<":309,"ation":310,"ig":311,"ĠT":312,"ĠC":313,"if":314,"Ġ*":315,"--":316,"th":317,"lo":318,"ex":319,"ad":320,"iv":321,"ĠA":322,"=\"":323,"ĠĠĠĠĠĠĠĠĠĠĠ":324,"//":325,"ag":326,"un":327,"ch":328,"ul":329,"pe":330,"Ġv":331,"ot":332,"ra":333,"em":334,"ate":335,"</":336,"ue":337,"um":338,"Ġl":339,"Ġ}":340,"Ġst":341,"ck":342,"pt":343,"Ġg":344,"ers":345,"ĠM":346,"ab":347,"Ġis":348,"ĠI":349,"Ġfor":350,"ame":351,"ist":352,"ction":353,"čĊ":354,"ter":355,"tr":356,"Ġ\"":357,"ĠP":358,"ass":359,"us":360,"ay":361,"ly":362,"ĠB":363,"ir":364,"ĠĠĠĠĠ":365,"Ġon":366,"Ġcon":367,"ith":368,"ew":369,"**":370,"urn":371,"Ġbe":372,"od":373,"Ġe":374,"âĢ":375,"ĠĠĠĠĠĠĠĠĠĠĠĠĠĠĠĠ":376,"Ġse":377,"()":378,"ĠR":379,"ht":380,"ow":381,"ub":382,"Ġ$":383,"ver":384,"ĠD":385,"ort":386,"Ġde":387,"and":388,"ri":389,"\">":390,"res":391,"up":392,"end":393,"ap":394,"turn":395,"av":396,"Ġas":397,"20":398,"ode":399,"ĠH":400,"age":401,"ĠF":402,"lass":403,"op":404,"ĠL":405,"nt":406,"ect":407,"==":408,"ĠN":409,"qu":410,"ype":411,"our":412,"est":413,"ext":414,"Ġ'":415,"ĠG":416,"ess":417,"li":418,"ment":419,"Ġwith":420,"----":421,"ĠE":422,"rom":423,"Ġif":424,"Ġal":425,"ine":426,"Ġthis":427,"ĠW":428,"Ġthat":429,"19":430,"ĠThe":431,"Ġan":432,"con":433,"sp":434,"Ġpro":435,"ke":436,"art":437,"ase":438,"able":439,"ain":440,"iz":441,"ult":442,"get":443,"Ġwas":444,"Ġwh":445,"ity":446,"port":447,"lic":448,"ĠĠĠĠĠĠĠĠĠĠĠĠĠĠĠ":449,"ore":450,"ile":451,"Ġit":452,"ack":453,"ert":454,"all":455,"Ġby":456,"Ġcom":457,"Ġ//":458,"ption":459,"Ġor":460,"ĠO":461,"ac":462,"Ġreturn":463,"oc":464,"os":465,"Ġ\\":466,"int":467,"..":468,"ere":469,"ata":470,"unction":471,"Ġat":472,"Ġclass":473,"00":474,"In":475,"ight":476,"ang":477,"ath":478,"Ġex":479,"alue":480,"->":481,"ies":482,"ive":483,"ĉĉĉĉ":484,"ans":485,"Ġ@":486,"ial":487,"ĠJ":488,"Ġr":489,"ber":490,"str":491,"ff":492,"ure":493,"Ġfrom":494,"ject":495,"orm":496,"Re":497,"ill":498,"Ġy":499,"ary":500,"ld":501,"ant":502,"::":503,"ĠU":504,"Ġ&":505,"og":506,"use":507,"Ġhe":508,"aram":509,"ast":510,"ip":511,"ire":512,"Con":513,"are":514,"und":515,"ord":516,"ib":517,"\",":518,"com":519,"Ġch":520,"Ġ-":521,"Ġare":522,"pl":523,"Ġtr":524,"),":525,"ated":526,"ref":527,"St":528,"pro":529,"ov":530,"Ġ</":531,"ace":532,"ind":533,"out":534,"ard":535,"Ġ/":536,"set":537,"ug":538,"ublic":539,"ime":540,"Ġlo":541,"'s":542,"Ġnew":543,"();":544,"to":545,"Ġ+":546,"ĠĊ":547,"ign":548,"cl":549,"(\"":550,"ition":551,"ss":552,"Ġ*/":553,"Ġ[":554,"ost":555,"Ġfunction":556,").":557,"Ġnot":558,"act":559,"ource":560,"ia":561,"Ġle":562,"per":563,"',":564,"Ġsh":565,"ph":566,"ice":567,"ust":568,"ance":569,"ud":570,"Ġ|":571,"erv":572,"ull":573,"ĠK":574,"ple":575,"oo":576,"ong":577,"put":578,"ite":579,"err":580,"lf":581,"Ex":582,"ak":583,"bject":584,"../":585,"ild":586,"--------":587,"Ġar":588,"****":589,"ĠV":590,"The":591,"ef":592,"ize":593,"tring":594,"vent":595,"Ġcont":596,"ther":597,"Ġ:":598,"dd":599,"ork":600,"te":601,"ĠIn":602,"this":603,"ich":604,"form":605,"ave":606,"cri":607,"Ġvar":608,"Ġj":609,"ory":610,"row":611,"ll":612,"Ġpl":613,"cc":614,"ml":615,"('":616,"Ġname":617,"que":618,"====":619,"Ġwe":620,"Ġ_":621,"ĉĉĉ":622,"Ġstr":623,"Ġres":624,"ge":625,"ĠĠĠĠĠĠĠĠĠĠĠĠĠĠĠĠĠĠĠ":626,"âĢĻ":627,"ĠâĢ":628,"so":629,"ĠĠĠĠĠĠĠĠĠ":630,"eg":631,"enc":632,"sh":633,"one":634,"fer":635,"ray":636,"201":637,"ide":638,"ical":639,"essage":640,"param":641,"Ġ.":642,"low":643,"ount":644,"div":645,"iel":646,"return":647,"Name":648,"import":649,"ens":650,"pp":651,"Ġpublic":652,"ft":653,"ence":654,"che":655,"Pro":656,"Ġun":657,"ec":658,"ail":659,"text":660,"ould":661,"))":662,"ell":663,"name":664,"ĠSt":665,"oid":666,"ield":667,"ress":668,"ach":669,"></":670,"ER":671,"span":672,"ear":673,"ĠTh":674,"ink":675,"ian":676,"cal":677,"Type":678,"du":679,"key":680,"eth":681,"Ġhas":682,"Ġk":683,"ener":684,"lement":685,"iew":686,"Ġdef":687,"eng":688,"ator":689,"tern":690,"ep":691,"Ġ!":692,"ations":693,"own":694,"fig":695,"ĠCh":696,"lect":697,"Ġuse":698,"Ġhis":699,"hen":700,"ax":701,"Ġcan":702,"><":703,"Ġwhich":704,"tp":705,"ish":706,"alse":707,"yst":708,"inal":709,"_{":710,"String":711,"IN":712,"ON":713,"ool":714,"Ġ||":715,"pon":716,"ree":717,"Ġ#":718,"irst":719,"200":720,"Ġhave":721,"Ġset":722,"Ġget":723,"Ġvalue":724,"roup":725,"ery":726,"ound":727,"quest":728,"../../":729,"ry":730,"riv":731,"atch":732,"ual":733,"10":734,"pec":735,"ix":736,"ents":737,"Ġab":738,"Ġtype":739,"18":740,"type":741,"les":742,"ob":743,"Ġint":744,"ous":745,"ey":746,"ystem":747,"Id":748,"html":749,"cre":750,"ark":751,"sed":752,"io":753,"def":754,"rit":755,"Ġout":756,"eb":757,"over":758,"ict":759,"Ġel":760,"ault":761,"Ġyou":762,"mer":763,"ev":764,"atic":765,"ethod":766,"ok":767,"led":768,"pert":769,"col":770,"Ġdo":771,"ache":772,"RE":773,"ptions":774,"oint":775,"ates":776,"pect":777,"arg":778,"ames":779,"old":780,"Ġup":781,"Ġhref":782,"Ġi":783,"ings":784,"code":785,"var":786,"lock":787,"Ġro":788,"Ġwill":789,"Ġim":790,"Ġwere":791,"ome":792,"Ġus":793,"ake":794,"ember":795,"Ġerr":796,"ser":797,"__":798,"Com":799,"Ġ==":800,"td":801,"Ġcol":802,"Ġall":803,"Ġcomp":804,"Res":805,"Ar":806,"Ġbut":807,"ST":808,"Ġalso":809,"Ġself":810,"umber":811,"val":812,"uct":813,"app":814,"urre":815,"Ġconst":816,"sum":817,"ions":818,"add":819,"ont":820,"source":821,"message":822,"odel":823,"Ġdata":824,"trans":825,"ng":826,"Ġnull":827,"Ch":828,"ses":829,"ange":830,"List":831,"ne":832,"uild":833,"Ġ=>":834,"ĠY":835,"fo":836,"ute":837,"ception":838,"ength":839,"pr":840,"Ġone":841,"erm":842,"Ġ`":843,"Ġdis":844,"fter":845,"lation":846,"AT":847,"cript":848,"ton":849,"{\\":850,"Ġvoid":851,"Ġpart":852,"ĠUn":853,"ors":854,"ick":855,"));":856,"string":857,"##":858,"back":859,"ma":860,"._":861,"Ġend":862,"Ġ>":863,"ader":864,"://":865,"class":866,"Ġtrue":867,"line":868,"qual":869,"ater":870,"rr":871,"nc":872,"Ġfalse":873,"Ġelse":874,"dex":875,"12":876,"********":877,"Ġfirst":878,"vel":879,"Ġtheir":880,"/>":881,"Ġsu":882,"ove":883,"iss":884,"Ġpre":885,"trib":886,"Ġadd":887,"abel":888,"ics":889,"wo":890,"Ġ&&":891,"LE":892,"round":893,"yp":894,"arch":895,"ument":896,"},":897,"aw":898,"son":899,"OR":900,"ersion":901,"ann":902,"ĠIt":903,"////":904,"lection":905,"urrent":906,"ule":907,"data":908,"Ġ)":909,"cont":910,"self":911,"Value":912,"ĠĠĠĠĠĠĠĠĠĠĠĠĠĠĠĠĠĠĠĠĠĠĠ":913,"ID":914,"ock":915,"gr":916,"igh":917,"Ġover":918,"Ġid":919,"Data":920,"ervice":921,"Ġass":922,"16":923,"];":924,"ĠHe":925,"bo":926,"----------------":927,"Cont":928,"Ġwho":929,"ifi":930,"ook":931,"any":932,"Ġdes":933,"\"/>":934,"Th":935,"AR":936,"Ġstring":937,"âĢĵ":938,"ie":939,"read":940,"\");":941,"Ġund":942,"Ġresult":943,"of":944,"Ġper":945,"rivate":946,"ific":947,"amp":948,"value":949,"AL":950,"EN":951,"Ġplay":952,"yle":953,"Ġtime":954,"co":955,"Ġ/**":956,"itle":957,"we":958,"Ġwhen":959,"Ġ$\\":960,"Ġline":961,"ash":962,"ask":963,"):":964,"ise":965,"ues":966,"Ġhad":967,"Ġte":968,"cation":969,"tem":970,"ined":971,"Ġits":972,"Ġother":973,"Ġcre":974,"ĠâĢĵ":975,"http":976,"Ġag":977,"ude":978,"Ġwork":979,"Ġme":980,"ative":981,"ca":982,"quire":983,"ĠAr":984,"idth":985,"========":986,"Ġsp":987,"Ġsup":988,"To":989,"ces":990,"irect":991,"Ġcomm":992,"Ġmore":993,"Ġen":994,"Ġval":995,"perty":996,"Col":997,"Err":998,"Ġso":999,"ms":1000,"ĠĠĠĠĠĠĠĠĠĠĠĠĠ":1001,"right":1002,"hed":1003,"Ġinter":1004,"Ġap":1005,"file":1006,"Ġinst":1007,"Object":1008,"Ġne":1009,"Set":1010,"lient":1011,"Ġtest":1012,"Ġorg":1013,"\"><":1014,"ĠThis":1015,"ational":1016,"Ġ!=":1017,"ve":1018,"\")":1019,"ternal":1020,"math":1021,"date":1022,"anag":1023,"Ġbeen":1024,"function":1025,"Ġthey":1026,"Ġincl":1027,"ccess":1028,"ĠĠĠĠĠĠ":1029,"Ġcl":1030,"mary":1031,"translation":1032,"uff":1033,"ĠĠĠĠĠĠĠĠĠĠĠĠĠĠĠĠĠĠĠĠĠĠĠĠĠĠĠĠĠĠĠĠ":1034,"Ġoff":1035,"ely":1036,"ĠCom":1037,"cond":1038,"ym":1039,"Ġher":1040,"arget":1041,"Ġspec":1042,"199":1043,"($":1044,"osition":1045,"px":1046,"Ġrec":1047,"Ġad":1048,"Se":1049,"Ġsub":1050,"cess":1051,"Ġapp":1052,"SS":1053,"min":1054,"its":1055,"Ġyear":1056,"Ġno":1057,"ences":1058,"the":1059,"32":1060,"uth":1061,"');":1062,"At":1063,"âĢĿ":1064,"Ġcase":1065,"],":1066,"ins":1067,"ream":1068,"org":1069,"Exception":1070,"Ġreg":1071,"15":1072,"arent":1073,"ys":1074,"Ġtwo":1075,"')":1076,"pre":1077,"Ġtra":1078,"der":1079,"ui":1080,"test":1081,"Ġany":1082,"ample":1083,"ited":1084,"ased":1085,"Ġinto":1086,"atus":1087,"Ġbo":1088,"}}":1089,"ating":1090,"Ġact":1091,"land":1092,"ps":1093,"orn":1094,"ople":1095,"ava":1096,"work":1097,"Ġfile":1098,"Ġkey":1099,"Ġobject":1100,"raph":1101,"Ġfil":1102,"Ġx":1103,"Key":1104,"ĠCon":1105,"Ġgo":1106,"ular":1107,"Error":1108,"Ġ///":1109,"ĠPro":1110,"Test":1111,"vid":1112,"11":1113,"Ġonly":1114,"ages":1115,"Ind":1116,"ody":1117,"Get":1118,"ays":1119,"heck":1120,"summary":1121,"Ġtrans":1122,"IT":1123,"ugh":1124,"new":1125,"ern":1126,"CT":1127,"Ġpe":1128,"ĠSe":1129,"Ġfinal":1130,"ward":1131,"item":1132,"Ġform":1133,"Ġused":1134,"Ġafter":1135,"Ġback":1136,"ta":1137,"Ġstatic":1138,"par":1139,"Ġem":1140,"til":1141,"size":1142,"Ġlist":1143,"but":1144,"ious":1145,"lean":1146,"Ġ%":1147,"wn":1148,"ĠRe":1149,"ler":1150,"DE":1151,"Ġsc":1152,"Tr":1153,"SE":1154,"ble":1155,"bar":1156,"ĠNew":1157,"Element":1158,"Ġqu":1159,"ished":1160,"Un":1161,"Ġrem":1162,"Ġexp":1163,"ank":1164,"log":1165,"odule":1166,"().":1167,"Ġext":1168,"umn":1169,"());":1170,"oug":1171,"ose":1172,"eta":1173,"ĠString":1174,"roll":1175,"indow":1176,"meric":1177,"25":1178,"Ġevent":1179,"Ġchar":1180,"Ġcall":1181,"ĉĉĉĉĉ":1182,"cent":1183,"Ġabout":1184,"^{":1185,"struct":1186,"view":1187,"Ġthere":1188,"unc":1189,"ons":1190,"/**":1191,"ren":1192,"17":1193,"length":1194,"ger":1195,"let":1196,"Ġra":1197,"Event":1198,"ature":1199,"File":1200,"Ġnumber":1201,"Qu":1202,"Ġli":1203,"Ġunder":1204,"Ġob":1205,"nb":1206,"resent":1207,"rame":1208,"ible":1209,"Ġprivate":1210,"ollow":1211,"uring":1212,"ities":1213,"for":1214,"face":1215,"arn":1216,"ract":1217,"En":1218,"rc":1219,"Ġpr":1220,"index":1221,"Im":1222,"Ġ===":1223,"22":1224,"load":1225,"url":1226,"Ġbet":1227,"ices":1228,"br":1229,"ade":1230,"Ġent":1231,"Refer":1232,"}\\":1233,"By":1234,"ĠSh":1235,"Node":1236,"Ġarg":1237,"olog":1238,"14":1239,"ivers":1240,"Ġ/*":1241,"play":1242,"red":1243,"oot":1244,"He":1245,"ocument":1246,"ĠEx":1247,"aramet":1248,"Ġ?":1249,"left":1250,"not":1251,"Ġ);":1252,"pace":1253,"ures":1254,"nbsp":1255,"ts":1256,"be":1257,"}$":1258,"orld":1259,"util":1260,"ME":1261,"ision":1262,"Ġ--":1263,"AN":1264,"ement":1265,".</":1266,"link":1267,"pen":1268,"ww":1269,"order":1270,"Ġ},":1271,"ĠAl":1272,"Ġser":1273,"ru":1274,"Ġstart":1275,"ists":1276,"ince":1277,"Ġthen":1278,"Class":1279,"13":1280,"oun":1281,"100":1282,"UL":1283,"action":1284,"Ġwhere":1285,"};":1286,"Index":1287,"Ġthan":1288,"['":1289,"ized":1290,"fore":1291,"time":1292,"Ġwould":1293,"inter":1294,"(),":1295,"ments":1296,"].":1297,"ĠAn":1298,"Ġmay":1299,"by":1300,"att":1301,"rite":1302,"Ġfe":1303,"lay":1304,"\":":1305,"\";":1306,"Ġmethod":1307,"ven":1308,"uffer":1309,"Sh":1310,"Ġarray":1311,"Ġsome":1312,"list":1313,"ility":1314,"ify":1315,"Ġpol":1316,"az":1317,"ĠâĢľ":1318,"/*":1319,"Ġthem":1320,"ttp":1321,"198":1322,"ced":1323,"egin":1324,"ĠĠĠĠĠĠĠĠĠĠĠĠ":1325,"Ġco":1326,"Time":1327,"Ġshe":1328,"Array":1329,"ports":1330,"rol":1331,"air":1332,"sub":1333,"ric":1334,"ush":1335,"CO":1336,"label":1337,"ily":1338,"rem":1339,"Ġ:=":1340,"rough":1341,"Ġkn":1342,"ister":1343,"path":1344,"64":1345,"als":1346,"location":1347,"js":1348,"View":1349,"reak":1350,"roid":1351,"ified":1352,"ground":1353,"Ġfollow":1354,"Ġerror":1355,"sc":1356,"Ġinclud":1357,"mon":1358,"ution":1359,"const":1360,"ouse":1361,"dis":1362,"Ġoper":1363,"Ġshould":1364,"Ġ(!":1365,"Ġac":1366,"RO":1367,"ĠZ":1368,"30":1369,"go":1370,"ween":1371,"21":1372,"ner":1373,"Ġpeople":1374,"void":1375,"ason":1376,"Ġfield":1377,"field":1378,"Ġdist":1379,"Ġstate":1380,"public":1381,"ainer":1382,"ient":1383,"chool":1384,"lob":1385,"Ġcurrent":1386,"try":1387,"PI":1388,"Ġgener":1389,"ponse":1390,"Ġprodu":1391,"reg":1392,"Ġdif":1393,"oolean":1394,"Ġ});":1395,"PE":1396,"opy":1397,"Path":1398,"':":1399,"cription":1400,"pend":1401,"Info":1402,"TE":1403,"yn":1404,"ines":1405,"Ġassert":1406,"Ġrel":1407,"(\\":1408,"ott":1409,"oci":1410,"']":1411,"tribute":1412,"Ġinv":1413,"ĠAmeric":1414,"Def":1415,"Ġ/>":1416,"Text":1417,"uration":1418,"On":1419,"Ġyour":1420,"begin":1421,"Ġsa":1422,"Request":1423,"ik":1424,"ense":1425,"ah":1426,"apt":1427,"Ġelement":1428,"ponent":1429,"An":1430,"Ġph":1431,"Ġrun":1432,"Ġthrow":1433,"Ġrep":1434,"ally":1435,"Int":1436,"Ġcons":1437,"pack":1438,"prot":1439,"References":1440,"ars":1441,"itt":1442,"TR":1443,"cept":1444,"...":1445,"rap":1446,"top":1447,"Ġam":1448,"her":1449,"ek":1450,"clude":1451,"Ġfound":1452,"ĠIf":1453,"ION":1454,"ared":1455,"Ġ};":1456,"define":1457,"imes":1458,"Ġgroup":1459,"ĠAs":1460,"Ġstud":1461,"anager":1462,"\"></":1463,"Config":1464,"ĠDe":1465,"ĠCol":1466,"fl":1467,"Add":1468,"System":1469,"rac":1470,"Ġcal":1471,"table":1472,"Ġsuch":1473,"ride":1474,"mp":1475,"';":1476,"igned":1477,"})":1478,"Ġlong":1479,"Ġed":1480,"itial":1481,"Ġshow":1482,"Ġhand":1483,"197":1484,"As":1485,"Ġthrough":1486,"())":1487,"State":1488,"50":1489,"ĠX":1490,"'t":1491,"Ġbetween":1492,"Ġ__":1493,"ball":1494,"Map":1495,"++":1496,"With":1497,"Context":1498,"Ġmost":1499,"Ġmin":1500,"Not":1501,"Equal":1502,"Field":1503,"script":1504,"000":1505,"mand":1506,"api":1507,"Ġnil":1508,"amespace":1509,"AC":1510,"Ġresp":1511,"Ġneed":1512,"other":1513,"For":1514,"Ġour":1515,"search":1516,"group":1517,"Item":1518,"man":1519,"Ġhigh":1520,"Ġrequire":1521,"////////":1522,"Ġwhile":1523,"ets":1524,"Ġfl":1525,"my":1526,"Ġagain":1527,"FF":1528,"ough":1529,"lang":1530,"stance":1531,"oh":1532,"pected":1533,"ident":1534,"ization":1535,"Ġrequest":1536,"Ġacc":1537,"ful":1538,"node":1539,"nav":1540,"****************":1541,"way":1542,"vert":1543,"ĠInd":1544,"ane":1545,"ife":1546,"itor":1547,"med":1548,"\"\"":1549,"iversity":1550,"``":1551,"ected":1552,"Ġlink":1553,"24":1554,"ĠĠĠĠĠĠĠĠĠĠĠĠĠĠĠĠĠĠĠĠĠĠĠĠĠĠĠ":1555,"ĠFor":1556,"Ġpoint":1557,"me":1558,"Ġtitle":1559,"ants":1560,"ĠWe":1561,"pty":1562,"color":1563,"Ġsize":1564,"Ġdefault":1565,"Ġgiv":1566,"Code":1567,"Ġusing":1568,"ains":1569,"rop":1570,"Ġdirect":1571,"ale":1572,"ĠTr":1573,"member":1574,"ypes":1575,"user":1576,"ond":1577,"Size":1578,"ship":1579,"erson":1580,"IC":1581,"Ġoptions":1582,"23":1583,"md":1584,"ĠLe":1585,"aj":1586,"Ġbefore":1587,"pos":1588,"lose":1589,"iter":1590,"Ġatt":1591,"UR":1592,"LA":1593,"object":1594,"Ã©":1595,"Ġread":1596,"Service":1597,"config":1598,"plate":1599,"Ġcent":1600,"ron":1601,"lish":1602,"result":1603,"bers":1604,"Form":1605,"Ġhim":1606,"ood":1607,"raw":1608,"ilter":1609,"Al":1610,"default":1611,"Of":1612,"Hand":1613,"reat":1614,"Ġsystem":1615,"wh":1616,"formation":1617,"ĠQ":1618,"eturn":1619,"create":1620,"orth":1621,"Ġpar":1622,"ync":1623,"valid":1624,"ateg":1625,"tt":1626,"map":1627,"abled":1628,"Ġbuild":1629,"Ġeach":1630,"ower":1631,"ote":1632,"gram":1633,"true":1634,"outh":1635,"ury":1636,"Ġyears":1637,"off":1638,"input":1639,"ogle":1640,"ning":1641,"ency":1642,"des":1643,"Or":1644,"Val":1645,"width":1646,"otype":1647,"box":1648,"word":1649,"Ġright":1650,"Over":1651,"ression":1652,"De":1653,"Ġgr":1654,"Ġsim":1655,"uf":1656,"_{\\":1657,"assert":1658,"Ġthese":1659,"Ġlike":1660,"!--":1661,"ector":1662,"include":1663,"Ġu":1664,"Ġsecond":1665,"Ġpos":1666,"[]":1667,"apache":1668,"mall":1669,"=\"../../":1670,"ier":1671,"anc":1672,"uthor":1673,"Ġcomple":1674,"cope":1675,"Ġaut":1676,"call":1677,"Ġdiffer":1678,"ustom":1679,"icon":1680,"Ġmodel":1681,"Ġtext":1682,"Ġsame":1683,"$.":1684,"irt":1685,"Ġsupport":1686,"Ġhow":1687,"Ġmy":1688,"ider":1689,"Ġest":1690,"error":1691,"serv":1692,"Ġwrit":1693,"func":1694,"Ġlast":1695,"Ġlocal":1696,"ever":1697,"}{":1698,"Ġwell":1699,"Query":1700,"ffect":1701,"ats":1702,"Ġduring":1703,"Ġserv":1704,"ĉĉĉĉĉĉ":1705,"nection":1706,"ags":1707,"Ġbeing":1708,"options":1709,"UT":1710,"odes":1711,"Ġhttp":1712,"Ġimport":1713,"comp":1714,"cle":1715,"af":1716,"ingle":1717,"Ġmem":1718,"next":1719,"lete":1720,"Up":1721,"leg":1722,"iver":1723,"ting":1724,"loat":1725,"Ġjust":1726,"Ġz":1727,"lected":1728,"40":1729,"Result":1730,"lp":1731,"Ġmake":1732,"Des":1733,"utes":1734,"Ġindex":1735,"ten":1736,"ĠIs":1737,"array":1738,"Ġpath":1739,"ension":1740,"Ġmed":1741,"Ġcor":1742,"Ġever":1743,"LO":1744,"MA":1745,"Ġteam":1746,"velop":1747,"ĉĠĠĠ":1748,"ism":1749,"Ġnode":1750,"reate":1751,"istory":1752,"start":1753,"rag":1754,"overn":1755,"Ġchild":1756,"enu":1757,"196":1758,"Ġsign":1759,"ĠAmerican":1760,"Ġ()":1761,"Ġref":1762,"Ġcheck":1763,"Ġart":1764,"Ġtarget":1765,"Ġbase":1766,"Ġown":1767,"='":1768,"etwork":1769,"AD":1770,"idd":1771,"ox":1772,"Build":1773,"part":1774,"Ġstruct":1775,"Ġrele":1776,"event":1777,"ied":1778,"Ġinstance":1779,"lication":1780,"from":1781,"ends":1782,"amily":1783,"\".":1784,"Message":1785,"ission":1786,"Ġconfig":1787,"mb":1788,"Model":1789,"================":1790,"Ġnow":1791,"ather":1792,"Group":1793,"Is":1794,"nder":1795,"urs":1796,"Ġthree":1797,"ML":1798,"Ġdoes":1799,"ĠOn":1800,"web":1801,"uch":1802,"https":1803,"ically":1804,"New":1805,"uments":1806,"Ġmon":1807,"Inter":1808,"amb":1809,"Ġtem":1810,"####":1811,"ĠUniversity":1812,"iginal":1813,"block":1814,"ived":1815,"Ġmade":1816,"lobal":1817,"33":1818,"wit":1819,"ĠSc":1820,"frac":1821,"Ġsaid":1822,"ĠĠĠĠĊ":1823,"point":1824,"Ġcreate":1825,"ĠGet":1826,"ULL":1827,"Ġboth":1828,"actory":1829,"prototype":1830,"state":1831,"tes":1832,"tings":1833,"Ġsur":1834,"Ġcontent":1835,"pi":1836,"Ġprovid":1837,"--------------------------------":1838,"ED":1839,"$,":1840,"Ġrecord":1841,"ina":1842,"Ġbreak":1843,"ĠWh":1844,"CH":1845,"equ":1846,"oy":1847,"ĠFr":1848,".\"":1849,"Ġwhat":1850,"Ġmany":1851,"Ġdec":1852,"Ġbr":1853,"Ġprot":1854,"Ser":1855,"Ġgiven":1856,"Log":1857,"IG":1858,"Property":1859,"title":1860,"Ġnon":1861,"asses":1862,"Cl":1863,"istr":1864,"cale":1865,"mit":1866,"Out":1867,"Âł":1868,"ename":1869,"Ġpop":1870,"eq":1871,"oken":1872,"Ġuser":1873,"base":1874,"perties":1875,"po":1876,"ING":1877,"version":1878,"place":1879,"iled":1880,"amed":1881,"Ġcould":1882,"Loc":1883,"Ġlog":1884,"Ġmod":1885,"Ġtop":1886,"ĠUnited":1887,"Ġmet":1888,"ET":1889,"ansp":1890,"ross":1891,"Count":1892,"Ġinput":1893,"IS":1894,"Ġitem":1895,"ology":1896,"Ġcode":1897,"head":1898,"=\"+":1899,"Ġorder":1900,"Ġmain":1901,"Ġcontext":1902,"ĠCl":1903,"lished":1904,"ĠPh":1905,"day":1906,"ouble":1907,"Call":1908,"ĠMar":1909,"ium":1910,"Ġsol":1911,"side":1912,"Reg":1913,"Ġnext":1914,"ift":1915,"Ġmust":1916,"method":1917,"Ġperform":1918,"Ġbeg":1919,"ause":1920,"usic":1921,"body":1922,"Ġcontin":1923,"Ġopen":1924,"MP":1925,"Ġfollowing":1926,"ait":1927,"Ġallow":1928,"Ġversion":1929,"ural":1930,"Ġjava":1931,"Ġleft":1932,"roller":1933,"Arg":1934,"Ġdevelop":1935,"model":1936,"less":1937,"uss":1938,"Ġstyle":1939,"Ġmat":1940,"info":1941,"umer":1942,"uck":1943,"Client":1944,"ches":1945,"quot":1946,"oin":1947,"ĠAss":1948,"Ġbool":1949,"UN":1950,"doc":1951,"arly":1952,"ograph":1953,"ken":1954,"annel":1955,"ĠSystem":1956,"From":1957,"uage":1958,"Ġbel":1959,"cite":1960,"Manager":1961,"element":1962,"option":1963,"ling":1964,"cause":1965,"bol":1966,"ives":1967,"ender":1968,"imit":1969,"App":1970,"Ġsource":1971,"Ġrece":1972,"ources":1973,"])":1974,"ually":1975,"Ġmov":1976,"Ġ-->":1977,"ital":1978,"ohn":1979,"Table":1980,"false":1981,"Ġposition":1982,"check":1983,"Ġind":1984,"ai":1985,"arameter":1986,"ĠEng":1987,"content":1988,"Ġvalues":1989,"Ġblock":1990,"pha":1991,"ĠĠĠĠĠĠĠĠĠĠ":1992,"alth":1993,"da":1994,"DO":1995,"ience":1996,"context":1997,"Response":1998,"Ġbecause":1999,"Dis":2000,"vious":2001,"count":2002,"ES":2003,"lt":2004,"see":2005,"max":2006,"mod":2007,"}.":2008,"down":2009,"Ġcalled":2010,"idget":2011,"ley":2012,"External":2013,"rm":2014,"Ġman":2015,"27":2016,"bs":2017,"Trans":2018,"Ġfind":2019,"chn":2020,"28":2021,"ential":2022,"Ġsrc":2023,"enn":2024,"ification":2025,"bb":2026,"ched":2027,"tn":2028,"aster":2029,"This":2030,"ior":2031,"Ġvis":2032,"Ġret":2033,"Ġlinks":2034,"ĠShe":2035,"Method":2036,"iction":2037,"dition":2038,"AB":2039,"Ġtry":2040,"button":2041,"ari":2042,"has":2043,"iev":2044,"ifier":2045,"Ġmark":2046,"ĠOr":2047,"une":2048,"Ġincluding":2049,"Ġ<<":2050,"Ġagainst":2051,"sk":2052,"ctions":2053,"Ġprocess":2054,"por":2055,"194":2056,"Ġmax":2057,"bed":2058,"26":2059,"db":2060,"Input":2061,"Ġ,":2062,"ottom":2063,"ootball":2064,"Ġbro":2065,"Ġbl":2066,"ained":2067,"Ġevery":2068,"no":2069,"icy":2070,"ENT":2071,"fin":2072,"ĠAnd":2073,"Color":2074,"ilt":2075,">(":2076,"Token":2077,"Status":2078,"All":2079,"ailable":2080,"aking":2081,"rack":2082,"loc":2083,"ymbol":2084,"acter":2085,"aut":2086,"ĠAt":2087,"ulation":2088,"Options":2089,"Stream":2090,"We":2091,"Ġlead":2092,"Ġview":2093,"Ġrespon":2094,"current":2095,"Ġdocument":2096,"oad":2097,"Ġpartic":2098,"ume":2099,"ounc":2100,"Ġinformation":2101,"ths":2102,"Ġdid":2103,"Pl":2104,"Ġstd":2105,"lick":2106,"ails":2107,"image":2108,"aces":2109,"Ġappro":2110,"End":2111,"Ġcoun":2112,"Ġpass":2113,"bf":2114,"Ġdifferent":2115,"ĠRes":2116,"arameters":2117,"eter":2118,"gt":2119,"Ġmessage":2120,"dt":2121,"User":2122,"ved":2123,"Ġlater":2124,"www":2125,"net":2126,"Ġbackground":2127,"Ġrefer":2128,"using":2129,"Ġdown":2130,"ene":2131,"Ġhead":2132,"((":2133,"AS":2134,"loy":2135,"lector":2136,"Ġsee":2137,"Ġmatch":2138,"omen":2139,"Ġgu":2140,"Ġvari":2141,"Ġappe":2142,"ĠYou":2143,"pan":2144,"ĠSet":2145,"urity":2146,"Exp":2147,"ape":2148,"query":2149,"ram":2150,"29":2151,"alk":2152,"Ġdisc":2153,"uro":2154,"section":2155,"package":2156,"Ġsince":2157,"Ġcar":2158,"Override":2159,"Ġav":2160,"static":2161,"195":2162,"ird":2163,"ware":2164,"Ġterm":2165,"Ġ!==":2166,"Util":2167,"arams":2168,"irtual":2169,"light":2170,"style":2171,"ret":2172,"Ġplayers":2173,"ĠReg":2174,"ĠMay":2175,"Ġtable":2176,"rix":2177,"ral":2178,"Ġ+=":2179,"80":2180,"Cell":2181,"TH":2182,"ination":2183,"core":2184,"ĠGL":2185,";&":2186,"ormal":2187,"argin":2188,"ession":2189,"arge":2190,"css":2191,"Ġfin":2192,"Ġfour":2193,"bum":2194,"ĠStates":2195,"ustr":2196,"Ġseries":2197,"rad":2198,"efined":2199,"ithub":2200,">&":2201,"arm":2202,"run":2203,"ĠCan":2204,"US":2205,"EX":2206,"iving":2207,"Ġmap":2208,"lem":2209,"ĠNULL":2210,"Ġknown":2211,"Ġenc":2212,"Ġlevel":2213,"Ġfilm":2214,"*/":2215,"equation":2216,"Ġseason":2217,"ribut":2218,"AME":2219,"cast":2220,"iron":2221,"module":2222,"({":2223,"plement":2224,"Builder":2225,"And":2226,"Ġold":2227,"google":2228,"Ref":2229,"ĠJan":2230,"Ġcolor":2231,"0000":2232,"Ġresponse":2233,"Ġschool":2234,"print":2235,"Ġmult":2236,"IL":2237,"ĠList":2238,"bl":2239,"Sub":2240,".,":2241,"java":2242,"client":2243,"Ġcare":2244,"Ġpost":2245,"hand":2246,"Ġeven":2247,"Date":2248,"ole":2249,"ĠAd":2250,"=\"../../../../":2251,"Base":2252,"align":2253,"Ġcallback":2254,"ored":2255,"Ġservice":2256,"Ġprom":2257,"Ġplace":2258,"Ġproject":2259,"60":2260,"Ġprogram":2261,"OT":2262,"sw":2263,"akes":2264,"sup":2265,"null":2266,"Ġgame":2267,"orage":2268,"fe":2269,"atab":2270,"TD":2271,"Ġpat":2272,"CE":2273,"ounty":2274,"github":2275,"Ġboolean":2276,"Ġcommun":2277,"ideo":2278,"ternational":2279,"ĠTest":2280,"thing":2281,"Null":2282,"](":2283,"Ġwidth":2284,"request":2285,"IP":2286,"Instance":2287,"Image":2288,"Attribute":2289,"dom":2290,"ĠĠĊ":2291,"Ġworld":2292,"Ġlook":2293,"android":2294,"ĠHow":2295,"Ġborder":2296,"au":2297,"ql":2298,"arr":2299,"Ġop":2300,"ourn":2301,"GL":2302,"ĠPl":2303,"Ġpres":2304,"ĠJohn":2305,"duct":2306,"Source":2307,"YPE":2308,"refer":2309,"ffic":2310,"Ġhelp":2311,"ĠWorld":2312,"push":2313,"ĠTe":2314,"dev":2315,"namespace":2316,"Ġimp":2317,"Ġway":2318,"icense":2319,"come":2320,"ixed":2321,"Ġlow":2322,"Block":2323,"opt":2324,"met":2325,"ules":2326,"ords":2327,"\\\\":2328,"Ġparent":2329,"Ġchang":2330,"lib":2331,"args":2332,"returns":2333,"ĠĠĠĠĠĠĠĠĠĠĠĠĠĠĠĠĠĠĠĠĠĠĠĠĠĠĠĠĠĠĠ":2334,"Ġhere":2335,"urch":2336,"Ġsuccess":2337,"init":2338,"tx":2339,"Ġdet":2340,"ety":2341,"Default":2342,"Handler":2343,"ĠReturn":2344,"ĠĠĠĠĠĠĠĠĠĠĠĠĠĠĠĠĠ":2345,"Gener":2346,"ĠÐ":2347,"child":2348,"Ġbased":2349,"illi":2350,"Run":2351,"Ġport":2352,"overnment":2353,"rid":2354,"build":2355,"Function":2356,"server":2357,"Ġuntil":2358,"Par":2359,"ptr":2360,"Ġthose":2361,"Ġsmall":2362,"ĠAll":2363,"ended":2364,"Ġexample":2365,"cated":2366,")$":2367,"Ġrepresent":2368,"Ġwant":2369,"atabase":2370,"Ġinitial":2371,"ague":2372,"Ġdescri":2373,"ĠEn":2374,"icro":2375,"riter":2376,"uk":2377,"Ġvery":2378,"ired":2379,"hold":2380,"99":2381,"Ġproperty":2382,"require":2383,"Ġoriginal":2384,"OO":2385,"Ġincre":2386,"ĠPar":2387,"}(":2388,"ability":2389,"Wh":2390,"Str":2391,"Lay":2392,"ibr":2393,"adding":2394,"ĠâĢĶ":2395,"ĠNational":2396,"uary":2397,"alpha":2398,"=\"#":2399,"dir":2400,"Ġurl":2401,"Content":2402,"ĠBl":2403,"xy":2404,"Ed":2405,"Ġoutput":2406,"ĉĠ":2407,"parent":2408,"Ġpresent":2409,"nect":2410,"Style":2411,"Ad":2412,";</":2413,"rist":2414,"){":2415,"iness":2416,"aining":2417,"Ġsingle":2418,"ances":2419,"ivity":2420,"});":2421,"Ð°":2422,"target":2423,"ots":2424,"sec":2425,"unk":2426,"Buffer":2427,"Ġrange":2428,"vision":2429,"gy":2430,"Ġeffect":2431,"Ġknow":2432,"AA":2433,",\\":2434,"evel":2435,"itional":2436,"ready":2437,"Ġtri":2438,"case":2439,"34":2440,"Ġcr":2441,"Ġexpect":2442,"Ġocc":2443,"Line":2444,"Ġlife":2445,"stru":2446,"Ġlet":2447,"NS":2448,"with":2449,"chema":2450,"depend":2451,"ĠBe":2452,"adata":2453,"Ġlength":2454,"ively":2455,"Ext":2456,"Ġinclude":2457,"Ġident":2458,"ugin":2459,"ique":2460,"ls":2461,"active":2462,"Oper":2463,"ĠCent":2464,"height":2465,"ump":2466,"ony":2467,"Ġpo":2468,"Ġann":2469,"ĠCar":2470,"Ġsever":2471,"ĠNov":2472,"gress":2473,"Ġsk":2474,"ero":2475,"Child":2476,"Resource":2477,"Ġfamily":2478,"ĠPr":2479,"ĠJul":2480,"ĠUS":2481,"inc":2482,"DI":2483,"viron":2484,"obj":2485,".$":2486,"Component":2487,"Ġconf":2488,"Comp":2489,"Ġreal":2490,"append":2491,"Ġreport":2492,"2022":2493,"ĠAdd":2494,"inition":2495,"Ġbook":2496,"ĠObject":2497,"len":2498,"rows":2499,"ĠIm":2500,"irc":2501,"ators":2502,"ajor":2503,"endif":2504,"ĠSchool":2505,"Ġresults":2506,"mathcal":2507,"Version":2508,"Be":2509,"soft":2510,"ĠPol":2511,"Ġwithin":2512,"omet":2513,"Rec":2514,"tributes":2515,"Ġvalid":2516,"Ġins":2517,"Sc":2518,"Ġ($":2519,"atures":2520,"ĠNo":2521,"Ġla":2522,"Ð¾":2523,"Ġexec":2524,"Ġestab":2525,"Start":2526,"uster":2527,"Ġalbum":2528,"Ġconsider":2529,"ness":2530,"Off":2531,"semb":2532,"Ġorgan":2533,"Ġwithout":2534,"Ġ((":2535,"CK":2536,"UE":2537,"andard":2538,"Act":2539,"]);":2540,"ĠCal":2541,"But":2542,"Ġperson":2543,"wards":2544,"header":2545,"witch":2546,"ĠGe":2547,"Ġfootball":2548,"Ġstill":2549,"Ġaround":2550,"page":2551,"35":2552,"ways":2553,"ians":2554,"Ġ\"\"\"":2555,"lot":2556,"ĠYork":2557,"php":2558,"json":2559,"ius":2560,"vis":2561,"els":2562,"iod":2563,"oper":2564,"Ġdon":2565,"ux":2566,"Format":2567,"bug":2568,"Ġtyp":2569,"HT":2570,"ee":2571,"=\"../":2572,"aving":2573,"aint":2574,"âĢľ":2575,"Ob":2576,"Ġdev":2577,"Ġmodule":2578,"Bar":2579,"ONT":2580,"ns":2581,"Action":2582,"aly":2583,"aterial":2584,"ocus":2585,"Ass":2586,"property":2587,"Ġcommand":2588,"Ġpub":2589,")</":2590,"Ġaccess":2591,"Ġwon":2592,"Ġcount":2593,"attr":2594,"position":2595,"Ġarea":2596,"ison":2597,"ĉĊ":2598,"Ġbus":2599,"ead":2600,"ĠCounty":2601,"2020":2602,"olume":2603,"ailed":2604,"No":2605,"creen":2606,"last":2607,"lease":2608,"equal":2609,"Ġfact":2610,"ately":2611,"ĠMin":2612,"came":2613,"open":2614,".âĢĿ":2615,"++)":2616,"alt":2617,"gle":2618,"Factory":2619,"src":2620,"Ġopt":2621,"icle":2622,"ĠWest":2623,"Ġexper":2624,"remove":2625,"imary":2626,"Ġcontrol":2627,"ĠIN":2628,"Ġwin":2629,"Equals":2630,"mber":2631,"vider":2632,"Window":2633,"OP":2634,"Ġbecame":2635,"lex":2636,"ival":2637,"Ġlang":2638,"Row":2639,"ĠWar":2640,"btn":2641,"Ġlaw":2642,"aim":2643,"efore":2644,"Frame":2645,"rec":2646,"ending":2647,"Ġoffic":2648,"tal":2649,"Point":2650,"Ġexpected":2651,"tab":2652,"Collection":2653,"39":2654,"Ðµ":2655,"ĠAug":2656,"ambda":2657,"host":2658,"char":2659,"Read":2660,"Ġpolit":2661,"ĠOct":2662,"Ġ->":2663,"66":2664,"inary":2665,"Ph":2666,"Ġday":2667,"ĠBrit":2668,"ĉĠĠĠĠĠĠĠ":2669,"}^":2670,"rl":2671,"Ġ{@":2672,"Number":2673,"ached":2674,"Ġavailable":2675,"Ġiss":2676,"Ġtake":2677,"FI":2678,"ĠGu":2679,"izer":2680,"write":2681,"ĠĠĠĠĠĠĠĠĠĠĠĠĠĠ":2682,"Ġcap":2683,"flow":2684,"Web":2685,"ĠTo":2686,"2015":2687,"igger":2688,"ĠSouth":2689,"sible":2690,"ured":2691,"local":2692,"ording":2693,"ised":2694,"Ġchange":2695,"Ġmuch":2696,"oud":2697,"2014":2698,"Pol":2699,"Filter":2700,"2010":2701,"HE":2702,"find":2703,"Ġexist":2704,"pecial":2705,"Ġequ":2706,"Ġdeath":2707,"Ġbir":2708,"ĠJanuary":2709,"del":2710,"eger":2711,"PRO":2712,"2016":2713,"AG":2714,"Ġaction":2715,"ssion":2716,"Ġeng":2717,"ĠThey":2718,"ĠState":2719,"FA":2720,"do":2721,"ptember":2722,"iag":2723,"ories":2724,"Length":2725,"Ġbu":2726,"Ġmusic":2727,"////////////////":2728,"(_":2729,"ober":2730,"Ġpage":2731,"erman":2732,"31":2733,"mark":2734,"Ġandroid":2735,"rain":2736,"alf":2737,"oman":2738,"ERT":2739,"Fl":2740,"Ġwindow":2741,"Pr":2742,"~\\":2743,"Ġsong":2744,"Ġbest":2745,"atform":2746,"xml":2747,"Hel":2748,"Create":2749,"[\"":2750,"}_":2751,"2017":2752,"ocol":2753,"sg":2754,"arning":2755,"Ġcour":2756,"frame":2757,"private":2758,"lin":2759,"ialog":2760,"ĠCont":2761,"(&":2762,"Ġload":2763,"Ġes":2764,"ae":2765,"pril":2766,"ynt":2767,"ocial":2768,"Ġprov":2769,"status":2770,"OS":2771,"umb":2772,"vironment":2773,"ATE":2774,"structor":2775,"illion":2776,"Ġ[]":2777,"Ġanother":2778,"ĠMarch":2779,"center":2780,"ither":2781,"Task":2782,"ustral":2783,"2018":2784,"ued":2785,"AP":2786,"37":2787,"ung":2788,"Ġfull":2789,"cd":2790,"INT":2791,"Ġprevious":2792,"Ġhome":2793,"90":2794,"Ġrequired":2795,"olution":2796,"Em":2797,"Ġgood":2798,"Ġnear":2799,"<!--":2800,"Ġshort":2801,"Ġpower":2802,"2021":2803,"Ġleg":2804,"select":2805,"55":2806,"refix":2807,"Check":2808,"first":2809,"ales":2810,"rowser":2811,"ĠThere":2812,"ĠRep":2813,"cer":2814,"font":2815,"exp":2816,"Const":2817,"Ġthrows":2818,"=\\":2819,"signed":2820,"Ġclient":2821,"Ġhost":2822,"rior":2823,"Ġet":2824,"mu":2825,"ERR":2826,"ibility":2827,"struction":2828,"2013":2829,"Part":2830,"True":2831,"Ġobj":2832,"uint":2833,"2019":2834,"It":2835,"Ġspecified":2836,"Ġalong":2837,"Ġimage":2838,"amma":2839,"yles":2840,"_.":2841,"Ġseveral":2842,"Ġcolumn":2843,"01":2844,"Ġoption":2845,"ploy":2846,"36":2847,"Ġcell":2848,"IM":2849,"ĠCo":2850,"raft":2851,"Ġdisplay":2852,"2011":2853,"update":2854,"Ġheight":2855,"Ġbeh":2856,"ĠGener":2857,"Ġsuper":2858,"Ġweek":2859,"cember":2860,"hes":2861,"2012":2862,"Ġuint":2863,"lear":2864,"Ġdiv":2865,"iple":2866,"SP":2867,"mo":2868,"imation":2869,"ze":2870,"itive":2871,"Ġprotected":2872,":\"":2873,"Command":2874,"ĠSeptember":2875,"Ġdel":2876,"buf":2877,"ently":2878,"ĠMed":2879,"Ġke":2880,"ampion":2881,"Ġlen":2882,"container":2883,"Ġcondition":2884,"EL":2885,"number":2886,"mt":2887,"urope":2888,"38":2889,"eps":2890,"Ã¡":2891,"ament":2892,"ĠĠĠĠĠĠĠĠĊ":2893,"lege":2894,"ops":2895,"ĠAugust":2896,"ĠInt":2897,")\\":2898,"filter":2899,"stream":2900,"Ġfore":2901,"term":2902,"sole":2903,"hether":2904,"Ġcharacter":2905,"Listener":2906,"URL":2907,"Page":2908,"Ġassoci":2909,"cho":2910,"istor":2911,"ugg":2912,"mat":2913,"Ġmembers":2914,"urg":2915,"Ġlarge":2916,"ĠJune":2917,"SON":2918,"Ġlabel":2919,"\"),":2920,"imum":2921,"Ġdue":2922,"Pre":2923,"ran":2924,"format":2925,"strong":2926,"TO":2927,"nown":2928,"AM":2929,"Nav":2930,"space":2931,"sl":2932,"Ġchildren":2933,"Ġupdate":2934,"ĠOctober":2935,"Ġstat":2936,"ĠSp":2937,"Label":2938,"Ġcity":2939,"Link":2940,"Ġmar":2941,"45":2942,"offset":2943,"ves":2944,"ĠĠĠĠĠĠĠĠĠĠĠĠĊ":2945,"tool":2946,"If":2947,"description":2948,"Ġtotal":2949,"Ġearly":2950,"pc":2951,"urther":2952,"uture":2953,"reen":2954,"Ġdefined":2955,"Ġtechn":2956,"ĠBy":2957,"ansport":2958,"ĠSer":2959,"\").":2960,"post":2961,"Ġrest":2962,">>":2963,"ĠCity":2964,"Ġrad":2965,"ĠApril":2966,"aced":2967,"bit":2968,"ĠJuly":2969,"quence":2970,"Width":2971,"era":2972,"Ġdr":2973,"$\\":2974,"oto":2975,"Ġcopy":2976,"params":2977,"Ġclo":2978,"uman":2979,"Ġalready":2980,"Ġprof":2981,"Valid":2982,"Ġstatus":2983,"andom":2984,"Ġevents":2985,"rect":2986,"ategory":2987,"sembly":2988,"cade":2989,"Ð¸":2990,"bottom":2991,"CC":2992,"ada":2993,"rypt":2994,"ABLE":2995,"ilit":2996,"Ġcompany":2997,"ĉĉĉĉĉĉĉĉ":2998,"\"]":2999,"ands":3000,"Ġsum":3001,"Ġside":3002,"imate":3003,"ĠNorth":3004,"ables":3005,"rel":3006,"Ġbody":3007,"ĠEd":3008,"Ġdesign":3009,"Spec":3010,"Met":3011,"Ġcollection":3012,"udio":3013,"jav":3014,"Ġquery":3015,"gener":3016,"Ġformer":3017,"Ġcreated":3018,"Ġspe":3019,"ĠEX":3020,"ĠSup":3021,"Cache":3022,"Ġnum":3023,"omic":3024,"ites":3025,"Ġmember":3026,"Ġreleased":3027,"yl":3028,"75":3029,"ĠPart":3030,"ĠBo":3031,"display":3032,"exports":3033,"Ġpack":3034,"ĠDecember":3035,"Ġdistribut":3036,"ĠNovember":3037,"menu":3038,"Ġundefined":3039,"Mode":3040,"Ġadv":3041,"TYPE":3042,"uc":3043,"kit":3044,"book":3045,"ĠDef":3046,"ster":3047,"ĠNone":3048,"now":3049,"ides":3050,"Ġformat":3051,"|-":3052,"Ġresource":3053,"ynam":3054,"imal":3055,"race":3056,"Ġtrack":3057,"Ġcustom":3058,"std":3059,"Ġaddress":3060,"Ġargs":3061,"Output":3062,"iler":3063,"acy":3064,"hip":3065,"ĠFeb":3066,"oding":3067,"VER":3068,"âĢĶ":3069,"Ġcatch":3070,"SC":3071,"used":3072,"Ġextends":3073,"ĠMan":3074,"Ġdom":3075,"roy":3076,"la":3077,"stit":3078,"Del":3079,"Ġ$(":3080,"respon":3081,"2008":3082,"df":3083,"ĠAf":3084,"Controller":3085,"entry":3086,"anagement":3087,"Ġgovernment":3088,"igma":3089,"heet":3090,"Container":3091,"change":3092,"istry":3093,"undle":3094,"lied":3095,"_\\":3096,"Ġdest":3097,"ĠBut":3098,"iff":3099,"tag":3100,"png":3101,"UI":3102,"Char":3103,"ted":3104,"rest":3105,"Button":3106,"expected":3107,"Json":3108,"ĠHowever":3109,"ĠAustral":3110,"response":3111,"sol":3112,"idden":3113,"mun":3114,"Ġmajor":3115,"ruary":3116,"2009":3117,"Ġinternal":3118,"erg":3119,"ysis":3120,"ana":3121,"Offset":3122,")(":3123,"Return":3124,"Ġregion":3125,"ĠAb":3126,"ĠEurope":3127,"CON":3128,"Ġalign":3129,"Ġrole":3130,"REF":3131,"///":3132,"TP":3133,"ham":3134,"ones":3135,"ours":3136,"rs":3137,"cor":3138,"oke":3139,"Ġspace":3140,"Ġgl":3141,"rapper":3142,"********************************":3143,"Ġinte":3144,"Ġmargin":3145,"See":3146,"Ġplayed":3147,"only":3148,"si":3149,"Ġclose":3150,"ĠCO":3151,"BU":3152,"ĠII":3153,"river":3154,"Ġnetwork":3155,"pol":3156,"Column":3157,"70":3158,"ado":3159,"mem":3160,"Update":3161,"ĠDes":3162,"').":3163,"bind":3164,"Ġreturns":3165,"Ġ]":3166,"dl":3167,"Ġdepend":3168,"ibrary":3169,"ĠGo":3170,"finished":3171,"thern":3172,"ards":3173,"ĠLicense":3174,"LASS":3175,"earch":3176,"instance":3177,"ography":3178,"igation":3179,"EE":3180,"typ":3181,"ried":3182,"Sup":3183,"ĠArray":3184,"column":3185,"Tag":3186,"alysis":3187,"Ġreturned":3188,",\"":3189,"Ġturn":3190,"Ġcur":3191,"2000":3192,"Ġnamed":3193,"template":3194,"MO":3195,"py":3196,"Ġauthor":3197,"ÑĤ":3198,"ĠReturns":3199,"Ġbound":3200,"${":3201,"Ġcomput":3202,"thers":3203,"ino":3204,"aff":3205,"lip":3206,"Aut":3207,"Case":3208,"Ġarguments":3209,"ouch":3210,"vers":3211,"window":3212,"meta":3213,"ĠChrist":3214,"Ġwomen":3215,"inst":3216,"Interface":3217,"ĠAPI":3218,"44":3219,"Ġimplement":3220,"ĠAct":3221,"Dep":3222,"ega":3223,"stract":3224,"Ġprint":3225,"rew":3226,"Ġproble":3227,"Ġhistory":3228,"Ġstream":3229,"NO":3230,"aper":3231,"Callback":3232,"ĠVal":3233,"Ġoffset":3234,"~~":3235,"late":3236,"Tem":3237,"num":3238,"na":3239,"uccess":3240,"Ġdate":3241,"pm":3242,"ought":3243,"phi":3244,"Ġreceived":3245,"Server":3246,"output":3247,"ctx":3248,"2007":3249,"ront":3250,"Range":3251,"Url":3252,"ĉĠĠĠĠĠĠĠĠĠĠĠ":3253,"Ġput":3254,"Ġserver":3255,"Ġcompet":3256,"born":3257,"ĠBritish":3258,"Types":3259,"Ġmag":3260,"lice":3261,"NAME":3262,"rt":3263,"ilar":3264,"ĠMc":3265,"root":3266,"Ġlay":3267,"ĠRec":3268,"2006":3269,"Rem":3270,"Ġspecial":3271,"Ġ\\\\":3272,"Ġfew":3273,"ered":3274,"Ġcert":3275,"navbar":3276,"example":3277,"close":3278,"olve":3279,"Ġinvest":3280,"ĠGr":3281,"Ġinterface":3282,"match":3283,"raint":3284,"Ð½":3285,"IO":3286,"Layout":3287,"ĠDis":3288,"parse":3289,"arrow":3290,"Ġmode":3291,"Ġlarg":3292,"acity":3293,"uid":3294,"ĠSte":3295,"Ġparameter":3296,"Target":3297,"Ġfree":3298,"ering":3299,",âĢĿ":3300,"service":3301,"ĠHigh":3302,"ĠAfter":3303,"img":3304,"ĠFebruary":3305,"ĠKing":3306,"Ġfre":3307,"Ġelements":3308,"ĠWhen":3309,"ĠComp":3310,"Back":3311,"ention":3312,"Ġq":3313,"ining":3314,"FONT":3315,"Ġpoints":3316,"Ġperiod":3317,"Ġobserv":3318,"ho":3319,"else":3320,"UM":3321,"ipp":3322,"iddle":3323,"([":3324,"Ġhold":3325,"Mem":3326,"Ġabove":3327,"Provider":3328,"beta":3329,"ights":3330,"IZ":3331,"ĠHT":3332,"rodu":3333,"Ġproduct":3334,"iet":3335,"ĠMe":3336,"ĠSo":3337,"Ag":3338,"reet":3339,"itory":3340,"mar":3341,"Ġgeneral":3342,"API":3343,"unfinished":3344,"Ġauto":3345,"angle":3346,"Ġinterest":3347,"CL":3348,"Ġprovided":3349,"Ġeither":3350,"Ġtimes":3351,"-\\":3352,"Ġconnection":3353,"ensions":3354,"Ġant":3355,"Ġfont":3356,"mission":3357,"ĠBar":3358,"eder":3359,"unit":3360,"project":3361,"Ġcause":3362,"can":3363,"criptor":3364,"scope":3365,"Box":3366,"}^{":3367,"ĠRob":3368,"48":3369,"asic":3370,"Height":3371,"'),":3372,"ply":3373,"annot":3374,"iment":3375,"Ġless":3376,"apping":3377,"Ġlate":3378,"wise":3379,"foo":3380,"ĠID":3381,"process":3382,"should":3383,"Ġtask":3384,"^{\\":3385,"Write":3386,"<?":3387,"amil":3388,"ĠCor":3389,"atal":3390,"Ġtown":3391,"apter":3392,"Ġmeas":3393,"lor":3394,"Tree":3395,"ires":3396,"ampionship":3397,"tempt":3398,"ĠLeague":3399,"background":3400,"ĠChar":3401,"assed":3402,"Ġdouble":3403,"float":3404,"icrosoft":3405,"bool":3406,"ĠUp":3407,"exec":3408,"Ġpossible":3409,"Ġwhether":3410,"Mod":3411,"ittle":3412,"}_{":3413,"?:":3414,"oice":3415,"ication":3416,"Ġtook":3417,"rench":3418,"Ġfail":3419,"ftware":3420,"grad":3421,"Header":3422,"Ġpay":3423,"ĠNot":3424,"Ġbuffer":3425,"Ġsec":3426,"Ġ{\\":3427,"Ġrow":3428,"ĉĉĉĉĉĉĉ":3429,"ensor":3430,"verse":3431,"sing":3432,"idual":3433,"Last":3434,"ĠClass":3435,"Ġhouse":3436,"Ġfeature":3437,"utils":3438,"05":3439,"respond":3440,"MS":3441,"Ġresearch":3442,"Ġ>=":3443,"irection":3444,"anged":3445,"Ġgames":3446,"ging":3447,"show":3448,"Per":3449,"ij":3450,"Position":3451,"ĠâĢĺ":3452,"mic":3453,"Ġcareer":3454,"Ġthink":3455,"attern":3456,"Ġbuilt":3457,"ries":3458,"Ġfac":3459,"ogn":3460,"ĠAssert":3461,"ĠType":3462,"uation":3463,"board":3464,"ught":3465,"Ġheld":3466,"Ġcamp":3467,"Ġtoo":3468,"Configuration":3469,"itted":3470,"Ġsite":3471,"lap":3472,"Ġwrite":3473,"illiam":3474,"igr":3475,"./":3476,"Ġelect":3477,"level":3478,"Fe":3479,"buffer":3480,"clear":3481,"Module":3482,"sel":3483,"Vis":3484,"Americ":3485,"Ġ**":3486,"Entry":3487,"Ġaccount":3488,"ulture":3489,"Ġinit":3490,"ĠApp":3491,"ascript":3492,"First":3493,"Ġincluded":3494,"igin":3495,"hel":3496,"Ġsearch":3497,":(":3498,"Max":3499,"mathbb":3500,"Ġobt":3501,"Min":3502,"Ġglobal":3503,"ike":3504,"Load":3505,"Ġage":3506,"Ġadded":3507,"oph":3508,"Ġredu":3509,"Ġcomb":3510,"Ġwater":3511,"sv":3512,"ring":3513,"gether":3514,"lambda":3515,"Hash":3516,"Access":3517,"DB":3518,"Ġparameters":3519,"Ġmove":3520,"gen":3521,"2005":3522,"Next":3523,"ĠHis":3524,"Ġnone":3525,"queue":3526,"det":3527,"Ã³":3528,"Ġindic":3529,"century":3530,"layout":3531,"Ġcover":3532,"atter":3533,"ponents":3534,"Address":3535,"Ġvirtual":3536,"Ġequal":3537,"drop":3538,"Unit":3539,"Ġsent":3540,"dest":3541,"Ġoperation":3542,"ille":3543,"where":3544,"Ġ{}":3545,"PO":3546,"Ġalways":3547,"Top":3548,"Ġdone":3549,"ases":3550,"Ġsom":3551,"Ġqual":3552,"levision":3553,"Pe":3554,"Ġsay":3555,"ĠEnglish":3556,"Ġbirths":3557,"PECT":3558,"ĠFile":3559,"ÑĢ":3560,"Ġsing":3561,"Ġthird":3562,"Ġnever":3563,"cell":3564,"Ġfilter":3565,"reference":3566,"Ġremove":3567,"Ġbegan":3568,"utions":3569,"Ġver":3570,"cul":3571,"ĠAfric":3572,"88":3573,"Ġframe":3574,"Ġland":3575,"Sec":3576,"Ġbusiness":3577,"```":3578,"Ġep":3579,"eft":3580,"rown":3581,"ĠDo":3582,"imple":3583,"Ġstudy":3584,"Ġss":3585,"pri":3586,"proto":3587,"ĠCheck":3588,"VAL":3589,"Ġ<!--":3590,"Ġair":3591,"Ġimportant":3592,"Widget":3593,"Ġfilms":3594,"ĠJap":3595,"ington":3596,"ĠĠĠĠĠĠĠĠĠĠĠĠĠĠĠĠĠĠĠĠĠĠĠĠĠĠĠĠĠĠĠĠĠĠĠ":3597,"ĠPres":3598,"spec":3599,"Ġfive":3600,"though":3601,"ĠWith":3602,"romise":3603,"cache":3604,"ĠPer":3605,"ably":3606,"Ġproperties":3607,"ising":3608,"gl":3609,"Ġnational":3610,"After":3611,"iol":3612,"Ġparticular":3613,"Ġdecl":3614,"irm":3615,"Ġfiles":3616,"()->":3617,"Ġsix":3618,"UP":3619,"ĠSub":3620,"65":3621,"][":3622,"Params":3623,"ondon":3624,"ĠPark":3625,"Ġev":3626,"ief":3627,"abor":3628,"ĠSk":3629,"*}":3630,"QL":3631,"Ġroot":3632,"ifact":3633,"Ġfloat":3634,"tree":3635,"Ġclub":3636,"osp":3637,"Ġlanguage":3638,"istic":3639,"Ġ...":3640,"ÃŃ":3641,"ĉĠĠĠĠĠ":3642,"ĠCreate":3643,"Ġapi":3644,"Ġpopulation":3645,"clud":3646,"Ġarch":3647,"hat":3648,"document":3649,"Acc":3650,"Ġbit":3651,"ĠMon":3652,"ids":3653,"Ġdoc":3654,"comm":3655,"Match":3656,"Ġcountry":3657,"ctor":3658,"Ġhttps":3659,"edef":3660,"04":3661,"Ġhealth":3662,"olved":3663,"sets":3664,"ULT":3665,"final":3666,"Ġplayer":3667,"Ġappear":3668,"itions":3669,"medi":3670,"Ġspecific":3671,"Ġpublished":3672,"Ġhapp":3673,"essages":3674,"quad":3675,"Direct":3676,"break":3677,"âĢ¦":3678,"year":3679,"ntity":3680,"oss":3681,"Ġconc":3682,"Parameter":3683,"Connection":3684,"Ġlocated":3685,"ĠLa":3686,"Ġrender":3687,"Document":3688,"ictionary":3689,"ceed":3690,"ĠArt":3691,"RL":3692,"ĠAir":3693,"stand":3694,"ha":3695,"COL":3696,"issing":3697,"Utils":3698,"Ġinstead":3699,"je":3700,"graph":3701,"images":3702,"ĠThese":3703,"Pack":3704,"dict":3705,"ĠDep":3706,"Det":3707,"licit":3708,"tml":3709,"Ġentry":3710,"ĠErr":3711,"Ġbegin":3712,"ursor":3713,"Ġtag":3714,"ipal":3715,"PC":3716,"known":3717,"Ġgreat":3718,"ba":3719,"08":3720,"ART":3721,"Ġperm":3722,"Dev":3723,"hem":3724,"pose":3725,"Work":3726,"Ġoften":3727,"American":3728,"Ġvideo":3729,"pped":3730,"author":3731,"########":3732,"Ġiter":3733,"ĠPe":3734,"VE":3735,"riend":3736,"Ġofficial":3737,"ĠčĊ":3738,"older":3739,"Thread":3740,"vas":3741,"dated":3742,"istrict":3743,"resource":3744,"Ġsection":3745,"ĠHar":3746,"ĠOne":3747,"Empty":3748,"Ġband":3749,"chedu":3750,"Ġtypes":3751,"ĠEast":3752,"Ġmethods":3753,"utable":3754,"Ġ*)":3755,"Ġmedia":3756,"join":3757,"2004":3758,"RA":3759,"Open":3760,"patch":3761,"Port":3762,"ĠSw":3763,"Mat":3764,"Ġleast":3765,"CODE":3766,"command":3767,"Ġprovide":3768,"Ġcontains":3769,"Ġestablished":3770,"ĠAg":3771,"Ġonce":3772,"ĠInter":3773,"aken":3774,"ocket":3775,"Option":3776,"Ġparams":3777,"ĠDav":3778,"Ġtemplate":3779,"long":3780,"Dec":3781,"Level":3782,"ube":3783,"Ġcrit":3784,"Ġbuilding":3785,"ford":3786,"Pos":3787,"resh":3788,"Control":3789,"allet":3790,"KE":3791,"Ġcommunity":3792,"typeof":3793,"energy":3794,"non":3795,"ressed":3796,"yntax":3797,"common":3798,"lit":3799,"second":3800,"Ġwritten":3801,"Ġdays":3802,"Ġamong":3803,"Ġcontinue":3804,"pass":3805,"attle":3806,"Expression":3807,"Ġsimilar":3808,"javascript":3809,"Ġmean":3810,"ĠOF":3811,"transform":3812,"hash":3813,"Ab":3814,"Ġvill":3815,"ĠRuss":3816,"ĠRev":3817,"ĠWeb":3818,"rade":3819,"Ġlimit":3820,"Ġ(\\":3821,"Ġdevelopment":3822,"Ġjob":3823,"yd":3824,"ĠBro":3825,"Ġvia":3826,"webkit":3827,"77":3828,"ournal":3829,"anch":3830,"ĠHREF":3831,"Ġmen":3832,"ii":3833,"debug":3834,"Ġclear":3835,"Ġstandard":3836,"uggest":3837,"ilon":3838,"ĠCollege":3839,"Ġmight":3840,"ATION":3841,"================================":3842,"Ġnames":3843,"Ġgen":3844,"Ġdescribed":3845,"Lo":3846,"ND":3847,"ged":3848,"ouncil":3849,"Ġremov":3850,"Ġrespect":3851,"Ġide":3852,"fn":3853,"fs":3854,"Ġedu":3855,"Ġlocation":3856,"Ġred":3857,"ilitary":3858,"Ġattack":3859,"Ptr":3860,"BC":3861,"ĠCLASS":3862,"byte":3863,"Ġpot":3864,"sigma":3865,"inner":3866,"ients":3867,"ĠÃ":3868,"Ġrelation":3869,"ĠData":3870,"eline":3871,"ĠEXPECT":3872,"ided":3873,"Ġactiv":3874,"Http":3875,"Ġxml":3876,"ĠHouse":3877,"Ġmillion":3878,"Ð¾Ð":3879,"\"))":3880,"gor":3881,"Ġbecome":3882,"ĠBr":3883,"ĠLondon":3884,"aul":3885,"Ġstarted":3886,"Ġservices":3887,"otal":3888,"Process":3889,"02":3890,"ills":3891,"ĠQu":3892,"ORT":3893,"ounds":3894,"ĠRem":3895,"Ġindiv":3896,"Ġinf":3897,"adow":3898,")}":3899,"Ġpan":3900,"Ġempty":3901,"ĠRed":3902,"Ġhandle":3903,"ilities":3904,"inn":3905,"Ġstop":3906,"ty":3907,"callback":3908,"otion":3909,"Ġacross":3910,"ordin":3911,"ĠĠĠĠĠĠĠĠĠĠĠĠĠĠĠĠĠĠĠĠĠ":3912,"Ġnav":3913,"main":3914,"Ġfields":3915,"Ġsw":3916,"ference":3917,"Ġaff":3918,"sm":3919,"Ġimpro":3920,"edia":3921,"ĠSch":3922,"2001":3923,"Ġpassed":3924,"Ġhaving":3925,"Ġstory":3926,"67":3927,"dat":3928,"Exec":3929,"Ġtrad":3930,"token":3931,"styles":3932,"Ġstrong":3933,"aml":3934,"Serial":3935,"Ġcontainer":3936,"Kind":3937,"HO":3938,"Iter":3939,"Store":3940,"Que":3941,"Ġquest":3942,"ks":3943,"ĠWilliam":3944,"Ġwar":3945,"asing":3946,"Ġyoung":3947,"hent":3948,"Ġlight":3949,"Local":3950,"aries":3951,"verage":3952,":</":3953,"imer":3954,"^\\":3955,"nap":3956,"vari":3957,"delta":3958,"foot":3959,"Operation":3960,"Ġelection":3961,"Ġclaim":3962,"Render":3963,"Ġgoing":3964,"Ġsocial":3965,"Ġsm":3966,"Ġstation":3967,"Ġtoken":3968,"Ident":3969,"ald":3970,"Change":3971,"render":3972,"mathbf":3973,"ĠMy":3974,"Ġnamespace":3975,"support":3976,"Ġvol":3977,"^{-":3978,"Ġactive":3979,"Ġattribute":3980,"Sp":3981,"Ġpadding":3982,"ĠSee":3983,"Ġparse":3984,"Ġsignific":3985,"Ġsepar":3986,"Ġengine":3987,"Core":3988,"icker":3989,"Ġgrow":3990,"ĠTrans":3991,"Ġworks":3992,"ĠAm":3993,"Ġmeans":3994,"pth":3995,"ancel":3996,"pop":3997,"ething":3998,"layer":3999,"EQ":4000,"ica":4001,"Ġkeep":4002,"Ġreference":4003,"ĠÂ":4004,"rief":4005,"Current":4006,"Ġfurther":4007,"Ñģ":4008,"Ġcref":4009,"cap":4010,"TI":4011,"Ġchanges":4012,"Ġapplication":4013,"RI":4014,"Ġcost":4015,"ĠSec":4016,"lies":4017,"ociation":4018,"Location":4019,"msg":4020,"Ġder":4021,"task":4022,"Ġround":4023,"Ġscope":4024,"empty":4025,"Ġworking":4026,"Script":4027,"LI":4028,"actions":4029,"Settings":4030,"Copy":4031,"ĠHer":4032,"ĠInternational":4033,"Ġpract":4034,"\"));":4035,"istration":4036,"Ġnormal":4037,"Search":4038,"Ġgrad":4039,"ements":4040,"izing":4041,"Ġhash":4042,"Ġchannel":4043,"ological":4044,"Ġ;":4045,"unch":4046,"replace":4047,"Ġtogether":4048,"rict":4049,"wait":4050,"49":4051,"IGN":4052,"encies":4053,"lim":4054,"03":4055,"Ġbetter":4056,"Ġexpl":4057,"ĠFrench":4058,"Ġoffer":4059,"Ġmass":4060,"Host":4061,"values":4062,"Ġbox":4063,"Ġindividual":4064,"Ġaccept":4065,"most":4066,"Meta":4067,"Names":4068,"aves":4069,"IZE":4070,"Ġcommon":4071,"SD":4072,"ka":4073,"oriz":4074,"Ġfund":4075,"ensure":4076,"Left":4077,"07":4078,">,":4079,"border":4080,"Ġintrodu":4081,"Ġassociated":4082,"Ġrelease":4083,"ĠAp":4084,"Ġvarious":4085,"legate":4086,"Ġmultiple":4087,"Ġobjects":4088,"ama":4089,"Bundle":4090,"ges":4091,"posed":4092,"ĠNe":4093,"Co":4094,"Handle":4095,"Ġcenter":4096,"Parameters":4097,"$$":4098,"mode":4099,"iforn":4100,"etch":4101,"mi":4102,"ebug":4103,"Enc":4104,"uted":4105,"ĠSan":4106,"Ġoverride":4107,"Ġcache":4108,"Stat":4109,"Ġmaking":4110,"09":4111,"Ġcentury":4112,"Ġcomponent":4113,"ership":4114,"(*":4115,"rics":4116,"ounced":4117,"Ġ(\"":4118,"''":4119,"TER":4120,"2003":4121,"Ge":4122,"Ġbelow":4123,"Properties":4124,"Ġtool":4125,"small":4126,"`.":4127,"delete":4128,"UB":4129,"Ġfunctions":4130,"Ġhard":4131,"Ġreview":4132,"ĠEnd":4133,"Obj":4134,"ems":4135,"History":4136,"IF":4137,"media":4138,"afe":4139,"ele":4140,"Ġserved":4141,"before":4142,"Ġfar":4143,"uel":4144,"bor":4145,"control":4146,"oney":4147,"Po":4148,"Ġfeatures":4149,"Ġtransform":4150,"Ġtw":4151,"Ġgroups":4152,"Ġable":4153,"Ġeas":4154,"Ġattempt":4155,"Ġ{};":4156,"mes":4157,"mult":4158,"():":4159,"ĠPhil":4160,"ĠLog":4161,"Ġenergy":4162,"None":4163,"Ġselected":4164,"06":4165,"ico":4166,"%;":4167,"Ġbar":4168,"gamma":4169,"Can":4170,"gorith":4171,"ifornia":4172,"47":4173,"Ġcame":4174,"Op":4175,"One":4176,"cs":4177,"ãģ":4178,"ĠMich":4179,"+\\":4180,"Ġcorrespond":4181,"Ġ['":4182,"van":4183,"Ġphys":4184,"Ġborn":4185,"nu":4186,"ĠDistrict":4187,"CR":4188,"GET":4189,"ERROR":4190,"ociety":4191,"%%":4192,"aring":4193,"ALL":4194,"Ġspecies":4195,"big":4196,"Ġ[];":4197,"acters":4198,"Ġdiff":4199,"Ġhalf":4200,"Ã¼":4201,"Ġperformance":4202,"imest":4203,"Ġtre":4204,"ĠTO":4205,"ĠMark":4206,"Ġhuman":4207,"ias":4208,"oder":4209,"Ġ\"\\":4210,"ĠStr":4211,"42":4212,"Impl":4213,"eting":4214,"plit":4215,"irit":4216,"Async":4217,"rupt":4218,"Ġstructure":4219,"AND":4220,"Entity":4221,"Ġstudents":4222,"clus":4223,"Ġgot":4224,"SO":4225,"ĠNor":4226,"Ġscale":4227,"_;":4228,"Ġassum":4229,"CD":4230,"handle":4231,"Ġfuture":4232,"Session":4233,"Project":4234,"__(":4235,"obile":4236,"Ġsuccessful":4237,"Ġstore":4238,"eh":4239,"Assert":4240,"95":4241,"Prot":4242,"Invalid":4243,"hib":4244,"Bytes":4245,"andid":4246,"ros":4247,"ĠMath":4248,"copy":4249,"idge":4250,"cape":4251,"internal":4252,"ĠGroup":4253,"lying":4254,"imension":4255,"times":4256,"Ġregister":4257,"Reference":4258,"Ġcapt":4259,"nes":4260,"ACK":4261,"ara":4262,"boolean":4263,"ĠGerman":4264,"Ġda":4265,"iting":4266,"ĠEl":4267,"Ġinfl":4268,"ĠException":4269,"SH":4270,"ĠQue":4271,"Ġvert":4272,"req":4273,"500":4274,"Ġproduction":4275,"izes":4276,"SA":4277,"ersist":4278,"Ġsat":4279,"scri":4280,"Description":4281,"sort":4282,"Ġ('":4283,"ĠOR":4284,"Ġprob":4285,"INE":4286,"ieve":4287,"Ġsample":4288,"aging":4289,"Ġmaterial":4290,"Ġge":4291,"Ġshows":4292,"Ġear":4293,"Ġplan":4294,"issions":4295,"Bind":4296,"widget":4297,"Ġcases":4298,"Font":4299,"oll":4300,"toString":4301,"sign":4302,"xis":4303,"Ġfailed":4304,"han":4305,"anks":4306,"2002":4307,"Helper":4308,"plete":4309,"Rect":4310,"iation":4311,"prop":4312,"ĠChampionship":4313,"Reader":4314,"Ġdistrict":4315,"Ġenvironment":4316,"Integer":4317,"ope":4318,"acc":4319,"ĠPort":4320,"Ġson":4321,"Rel":4322,"uri":4323,"istance":4324,"Ġkind":4325,"illed":4326,"Dir":4327,"Ġ``":4328,"icons":4329,"ris":4330,"tilde":4331,"orge":4332,"artment":4333,"ategy":4334,"Ġindu":4335,"oggle":4336,"iagn":4337,"sequ":4338,"Body":4339,"ĠEm":4340,"cing":4341,"ĠIndian":4342,"Policy":4343,"STR":4344,"Ġsignificant":4345,"ecess":4346,"greg":4347,"Ġ::":4348,"Ġinstall":4349,"language":4350,"ellow":4351,"Ġagre":4352,"Ġecon":4353,"tries":4354,"Ġprop":4355,"Mult":4356,"Tool":4357,"aged":4358,"Ġpast":4359,"interface":4360,"gn":4361,"Ġflow":4362,"Ġarr":4363,"Storage":4364,"Ġbig":4365,"Ġadmin":4366,"ĠCalifornia":4367,"files":4368,"Ġnov":4369,"Ġemploy":4370,"Ġwebs":4371,"ragment":4372,"lymp":4373,"ĠDr":4374,"like":4375,"Record":4376,"`,":4377,"sd":4378,"aker":4379,"Ġseen":4380,"SET":4381,"ĠRef":4382,"Mon":4383,"Delta":4384,"XX":4385,"Ġadditional":4386,"lands":4387,"ĠRepublic":4388,"ECT":4389,"Head":4390,"istics":4391,"FO":4392,"airs":4393,"Dom":4394,"Ġcy":4395,"=\"_":4396,"Args":4397,"ota":4398,"Ġtree":4399,"ĠCup":4400,"Ġcurrently":4401,"Ġneg":4402,"85":4403,"ĠAcc":4404,"Ġsays":4405,"Ġdefine":4406,"=\"../../../../../":4407,"Ġcome":4408,"Ġled":4409,"ynamic":4410,"Ġblack":4411,"Ġtelevision":4412,"Ġaway":4413,"ĠĠĠĠĠĠĠĠĠĠĠĠĠĠĠĠĠĠĠĠ":4414,"strap":4415,"Ġsure":4416,"Ġdevice":4417,"Ġselect":4418,"Ġwent":4419,"Ġinfo":4420,"Ġopp":4421,"cm":4422,"ĠIndia":4423,"Ġdied":4424,"oom":4425,"MM":4426,"ĠNS":4427,"{{":4428,"Ġconsidered":4429,"based":4430,"Ġargument":4431,"ael":4432,"46":4433,"Eng":4434,"Ġinternational":4435,"wide":4436,"Timeout":4437,"then":4438,"hover":4439,"lier":4440,"disabled":4441,"Parent":4442,"Ġreally":4443,"ounter":4444,"env":4445,"Ġsubject":4446,"Ġfall":4447,"boot":4448,"Ġrunning":4449,"Ġnorth":4450,"ĠPresident":4451,"chan":4452,"Ġhowever":4453,"Ġaddition":4454,"urb":4455,"Ġsit":4456,"Ġconvert":4457,"Ġsl":4458,"Ġdoesn":4459,"II":4460,"classes":4461,"los":4462,"ansparent":4463,"Down":4464,"stack":4465,"enum":4466,"ĠError":4467,"ĠDate":4468,"Ġlik":4469,"86":4470,"ervices":4471,"partial":4472,"Ġden":4473,"ĠAmerica":4474,"ĠRiver":4475,"apply":4476,"split":4477,"aven":4478,"icles":4479,"acing":4480,"Ġdelete":4481,"Menu":4482,"Ġlive":4483,"avy":4484,"Track":4485,"Ġcannot":4486,"ips":4487,"}{\\":4488,"Ġcontrib":4489,"Values":4490,"Ġothers":4491,"Ġitems":4492,"imestamp":4493,"Ġmodels":4494,"à¤":4495,"ĠDE":4496,"burg":4497,"Ġsession":4498,"Ġeducation":4499,"You":4500,"Ġmer":4501,"Template":4502,"Order":4503,"ĠOut":4504,"ula":4505,"atural":4506,"session":4507,"oded":4508,"255":4509,"bin":4510,"Ġconfiguration":4511,"Us":4512,"ĠDiv":4513,"ĠMap":4514,"{}":4515,"Ġbytes":4516,"rho":4517,"figure":4518,"ivil":4519,"Ġrights":4520,"Writer":4521,"Ġ<=":4522,"essional":4523,"Ġliter":4524,"Ġask":4525,"Ġsuggest":4526,"Ġsurv":4527,"thon":4528,"Vector":4529,"ĠCour":4530,"Scope":4531,"artifact":4532,"types":4533,"Stack":4534,"draw":4535,"Ġterms":4536,"DF":4537,"auth":4538,"Ġunit":4539,"cat":4540,"ĠBel":4541,"win":4542,"ORD":4543,"range":4544,"grid":4545,"Le":4546,"TC":4547,"Ġheader":4548,"Ġ(*":4549,"SSERT":4550,"useum":4551,"itect":4552,"Ġthough":4553,"Ġsort":4554,"PL":4555,"Ġpur":4556,"BA":4557,"Ġmoved":4558,"ĠMo":4559,"Ġben":4560,"Ġsets":4561,"There":4562,"Ġswitch":4563,"ĠFirst":4564,"utor":4565,"ugins":4566,"ĠGeneral":4567,"Ġsupported":4568,"ĠCON":4569,"43":4570,"COLOR":4571,"ney":4572,"PRE":4573,"Ġamount":4574,"Ġproblem":4575,"achine":4576,"Ġpotential":4577,"Ġannounced":4578,"hr":4579,"Ġparticip":4580,"mathrm":4581,"device":4582,"Ġexception":4583,"(:":4584,"Doc":4585,"keys":4586,"'],":4587,"conf":4588,"Ġdig":4589,"Ġexcept":4590,"Boolean":4591,"store":4592,"ĠDem":4593,"ĠSm":4594,"Parser":4595,"ĠEngland":4596,"Ġlittle":4597,"Ġsomething":4598,"aching":4599,"omb":4600,"click":4601,"Ġcomplete":4602,"Right":4603,"Ġstates":4604,"mm":4605,"Ġ})":4606,"Ġreported":4607,"Ġfa":4608,"ATA":4609,"aa":4610,"Argument":4611,"Ġbyte":4612,"Ġprior":4613,"Ġfire":4614,"aign":4615,"anges":4616,"Ġ++":4617,"Ġoperator":4618,"1999":4619,"$-":4620,"Schema":4621,"Ġinstanceof":4622,"cr":4623,"insert":4624,"Ġhistor":4625,"Ġexpression":4626,"Ġign":4627,"Ġgraph":4628,"ĠDon":4629,"ynch":4630,"Bl":4631,"87":4632,"Ġ~":4633,"cial":4634,"97":4635,"\"`":4636,"ws":4637,"ĠPublic":4638,"coming":4639,"Ġdeterm":4640,"ãĥ":4641,"settings":4642,"ĠBase":4643,"Sign":4644,"zer":4645,"TEST":4646,"vm":4647,"erved":4648,"Ġtreat":4649,"Ġsold":4650,"_,":4651,"96":4652,"ĠForm":4653,"Ġgive":4654,"global":4655,"scale":4656,"cp":4657,"Ġfem":4658,"after":4659,"avior":4660,"Ġdatabase":4661,"send":4662,"Delete":4663,"ĠMal":4664,"False":4665,"El":4666,"Ġdraw":4667,"iles":4668,"ĠassertEquals":4669,"erve":4670,"ĠThat":4671,"icult":4672,"Ġautom":4673,"aur":4674,"Ġdeg":4675,"Ġlower":4676,"atory":4677,"Inst":4678,"quired":4679,"ĠOpen":4680,"Ġpolitical":4681,"stitute":4682,"Ġsouth":4683,"ĠRoy":4684,"Ġsend":4685,"alle":4686,"ĠTime":4687,"Sk":4688,"Ġreason":4689,"Root":4690,"2023":4691,"unn":4692,"ĠHol":4693,"=\"-":4694,"Ġlim":4695,"ĠEvent":4696,"CA":4697,")\">":4698,"docs":4699,"ĠService":4700,"hi":4701,"Ġproduced":4702,"rip":4703,"oment":4704,"ua":4705,"Ġincludes":4706,"direct":4707,"register":4708,"anese":4709,"Ġsolid":4710,"Ġallowed":4711,".)":4712,"card":4713,"focus":4714,"cret":4715,"Ġunsigned":4716,"unt":4717,"Ġtaken":4718,"Ġtypeof":4719,"Ġweb":4720,"Ġcompan":4721,"Metadata":4722,"rab":4723,"Ġcharacters":4724,")]":4725,"Ġlines":4726,"webpack":4727,"lines":4728,"ĠRE":4729,"ĠAustralia":4730,"ĠParty":4731,"ĠAnt":4732,"dependent":4733,"just":4734,"omy":4735,"ĠDO":4736,"plugin":4737,"actor":4738,"URE":4739,"That":4740,"Enabled":4741,"asis":4742,"fa":4743,"Ġaverage":4744,"People":4745,"Ins":4746,"Ġkeys":4747,"Own":4748,"ocr":4749,"isk":4750,"Each":4751,"Ġwait":4752,"eters":4753,"Ġcomplex":4754,"Ġshown":4755,"'>":4756,"ĠST":4757,"Ġconditions":4758,"sim":4759,"Select":4760,"Ġvillage":4761,"allow":4762,"zon":4763,"Ġwhite":4764,"DIR":4765,"Ġactual":4766,"Ġwriting":4767,"theta":4768,"ida":4769,"}/":4770,"Ġfather":4771,"Vari":4772,"Ġjo":4773,"Ġsimple":4774,"Pod":4775,"Ġneeded":4776,"ĠSen":4777,"orizont":4778,"ĠCanada":4779,"ĉĉĊ":4780,"Ġcou":4781,"Ġwebsite":4782,"Ġmemory":4783,"equals":4784,"ios":4785,"Ġapplic":4786,"Ġyet":4787,"rd":4788,"alled":4789,"SL":4790,"Ġplatform":4791,"DD":4792,"Ġchanged":4793,"sy":4794,"ĠFrom":4795,"ometry":4796,"ĠCenter":4797,"Ġpattern":4798,"----------------------------------------------------------------":4799,"Ġentire":4800,"oute":4801,"EXT":4802,"abs":4803,"ĠTra":4804,"press":4805,"arter":4806,"tau":4807,"parameter":4808,"Ġsystems":4809,"Ġscript":4810,"oe":4811,"Ã¶":4812,"Ġpress":4813,"Ġaccording":4814,"Byte":4815,"ĠWork":4816,"Ġstep":4817,"ĠCre":4818,"artifactId":4819,"ĠSum":4820,"nected":4821,"Symbol":4822,"ya":4823,"ä¸":4824,"ensity":4825,"Ġflo":4826,"Ġfunc":4827,"ilm":4828,"ria":4829,"ncy":4830,"arp":4831,"ĠArg":4832,"ĠJSON":4833,"ĠRead":4834,"export":4835,"Ġbutton":4836,"igure":4837,"Ġrate":4838,"Ġthings":4839,"57":4840,"Post":4841,"ĠBlack":4842,"unic":4843,"Ġmanag":4844,"Ã¤":4845,"Ġconsist":4846,"Decl":4847,"Ġforce":4848,"Pass":4849,"symbol":4850,"adian":4851,"Ġdetails":4852,"ĠMet":4853,"Ġrelated":4854,"Ġfront":4855,"stry":4856,"ĠPre":4857,"Ġsettings":4858,"Ġcorrect":4859,"Ġpolicy":4860,"Ġscreen":4861,"xx":4862,"1990":4863,"Ġwest":4864,"jo":4865,"Ġpopular":4866,"Ġcoll":4867,"Ġeval":4868,"Ġcross":4869,"Ġhandler":4870,"'re":4871,"Ġelem":4872,"Ġdescription":4873,"atives":4874,"ĠPal":4875,"system":4876,"arks":4877,"Ġthread":4878,"astic":4879,"Ġenough":4880,"Ġintegr":4881,"Ġhigher":4882,"ĠMat":4883,"ams":4884,"*)":4885,"Ġnecess":4886,"Ġmsg":4887,"Do":4888,"'))":4889,"56":4890,"ĠValue":4891,"Rule":4892,"ffff":4893,"rote":4894,"Device":4895,"Ġbind":4896,"Ġsoftware":4897,"Ġmonths":4898,"icate":4899,"Param":4900,"shot":4901,"success":4902,"ĠStud":4903,"ĠCouncil":4904,"Ġestablish":4905,"Ġuses":4906,"Selector":4907,"uge":4908,"ensive":4909,"Num":4910,"Ġselection":4911,"Ġground":4912,"Ġaward":4913,"track":4914,"Vert":4915,"Ġprimary":4916,"Func":4917,"iagnost":4918,"ulated":4919,"vector":4920,"Ġphot":4921,"custom":4922,"tection":4923,"\",\"":4924,"Ġepis":4925,"access":4926,"Ġcertain":4927,"enced":4928,"JS":4929,"ĠLaw":4930,"Ġmakes":4931,"iform":4932,"ĠEuropean":4933,"iam":4934,"ountry":4935,"Ġrepl":4936,"address":4937,"oundation":4938,"Ġoperations":4939,"Ġstrict":4940,"amera":4941,"When":4942,"Api":4943,"weight":4944,"89":4945,"---":4946,"Graph":4947,"ĠStreet":4948,"orizontal":4949,"models":4950,"Ġregular":4951,"ooks":4952,"]{":4953,"vention":4954,"Ġareas":4955,"Ġrecogn":4956,"quires":4957,"ãĤ":4958,"ened":4959,"ĠJames":4960,"Ġinline":4961,"skip":4962,"groupId":4963,"ĠAward":4964,"Mock":4965,"Ġmonth":4966,"Ġmid":4967,"endar":4968,"ĠMag":4969,"ĠTrue":4970,"Ġcomment":4971,"ĠBuild":4972,"Ġroad":4973,"site":4974,"bert":4975,"Ġmale":4976,"Definition":4977,"Ġmatrix":4978,"kg":4979,"ĠRobert":4980,"ming":4981,"Fields":4982,"Mar":4983,"ĠDavid":4984,"Living":4985,"component":4986,"Ġunique":4987,"ĠDirect":4988,"Ġos":4989,"Ġcred":4990,"Te":4991,"rome":4992,"aps":4993,"Xml":4994,"cheme":4995,"ĠFl":4996,"TEX":4997,"attribute":4998,"Ġmarket":4999,"VID":5000,"raz":5001,"Ġexisting":5002,"ĠSim":5003,"jection":5004,"Ġbroad":5005,"ĠFunction":5006,"ĠURL":5007,"rea":5008,"cur":5009,"HTML":5010,"Ġextra":5011,"Ġpresident":5012,"Prop":5013,"Ġlost":5014,"Ġnumer":5015,"ville":5016,"Ġword":5017,"ORM":5018,"ĠThom":5019,"Ġcompleted":5020,"ĠĠĠĠĠĠĠĠĠĠĠĠĠĠĠĠĠĠĠĠĠĠĠĠĠĠĠĠĠĠĠĠĠĠĠĠĠĠĠ":5021,"scroll":5022,"ĠRegister":5023,"How":5024,"GE":5025,"caption":5026,"connect":5027,"oted":5028,"Debug":5029,"ĠChurch":5030,"Ġcirc":5031,"normal":5032,"Ġparty":5033,"OK":5034,"ĠName":5035,"Ġdeal":5036,"END":5037,"HP":5038,"ixt":5039,"inated":5040,"ades":5041,"Queue":5042,"Ġca":5043,"double":5044,"hood":5045,"Ġ'/":5046,"|\\":5047,">.":5048,"items":5049,"Ġdirectory":5050,"Ġstack":5051,"1000":5052,"tee":5053,".__":5054,"Ġfilename":5055,"uz":5056,"uit":5057,"ĠGerm":5058,"ĠHTML":5059,"Has":5060,"framework":5061,"Init":5062,"Ġbi":5063,"Ġdeaths":5064,"Ġotherwise":5065,"Ġtraining":5066,"xi":5067,"anner":5068,"Ġitself":5069,"wood":5070,"ĠIS":5071,"=\"../../../../../../":5072,"Ġneeds":5073,"Title":5074,"gorithm":5075,"avor":5076,"Ġrot":5077,"padding":5078,"Ġparts":5079,"ĠChina":5080,"imated":5081,"cert":5082,"Long":5083,"Ġworked":5084,"Ġeast":5085,"&#":5086,"olver":5087,"ĠIO":5088,"41":5089,"ĠArmy":5090,"Ġviol":5091,"oose":5092,"ĠTV":5093,"FFFF":5094,"Ġtell":5095,"Ġexperience":5096,"aid":5097,"ocal":5098,"leq":5099,"Ġ),":5100,"overy":5101,"IR":5102,"ĠFrance":5103,";->":5104,"Ġraise":5105,">();":5106,"Ġanalysis":5107,"ĠRich":5108,"sq":5109,"Ġvisit":5110,"uple":5111,"Ġrelative":5112,"asons":5113,"Database":5114,"cf":5115,"Application":5116,"eqn":5117,"toggle":5118,"sql":5119,"ĠOff":5120,"ĠRun":5121,"1998":5122,"ĠPat":5123,"Ġcut":5124,"quare":5125,"ĠOlymp":5126,"Dialog":5127,"Ġsequence":5128,"fill":5129,"high":5130,"Ġrather":5131,"ĠKey":5132,"Ġerrors":5133,"Ġchart":5134,"Ġbg":5135,"59":5136,"ĠĠĠĠĠĠĠĠĠĠĠĠĠĠĠĠĠĠ":5137,"fields":5138,"west":5139,"Ġwide":5140,"Non":5141,"Ġmilitary":5142,"Ġvariable":5143,"Only":5144,"ston":5145,"_->":5146,"Ġface":5147,"Ġprovides":5148,"Ġscal":5149,"Ġfeel":5150,"ario":5151,"ĠPy":5152,"ving":5153,"uate":5154,"CP":5155,"Descriptor":5156,"ĠOb":5157,"Ġwords":5158,"oms":5159,"Ġjoin":5160,"Ġdefinition":5161,"Ġdat":5162,"ĠUse":5163,"chi":5164,"Use":5165,"help":5166,"exception":5167,"ynchron":5168,"stylesheet":5169,"Ġcourse":5170,"}$.":5171,"Ġcompanies":5172,"Ġcontain":5173,"Ġinflu":5174,"Channel":5175,"ĠMore":5176,"Ġpersonal":5177,"Ġserial":5178,"Ġfrequ":5179,"eds":5180,"Ġcast":5181,"JSON":5182,"Ġrule":5183,"Ġlove":5184,"Mark":5185,"holder":5186,"Custom":5187,"unsigned":5188,"ĠDefault":5189,"}\"":5190,"ĠSome":5191,"orph":5192,"bon":5193,"panel":5194,"Active":5195,"car":5196,"modal":5197,"Ġ\"/":5198,"ATH":5199,"ago":5200,"auto":5201,"stop":5202,"cmd":5203,"ĠRoman":5204,"Ver":5205,"NavBar":5206,"ds":5207,"erry":5208,"herit":5209,"ĠDepartment":5210,"ashington":5211,"Pattern":5212,"CS":5213,"berg":5214,"ĠTHE":5215,"ĠNews":5216,"Windows":5217,"admin":5218,"(-":5219,"make":5220,"resses":5221,"Ġflag":5222,"ĠNOT":5223,"Extension":5224,"utive":5225,"Ġeff":5226,"force":5227,"lide":5228,"primary":5229,"Draw":5230,"ett":5231,"}(\\":5232,"Ġjson":5233,"chedul":5234,"anger":5235,"Cre":5236,"Ġstage":5237,"Iterator":5238,"Ġexists":5239,"ĠAssociation":5240,"Go":5241,"Ġcontract":5242,"Ġach":5243,"FT":5244,"SION":5245,"Network":5246,"Ġgre":5247,"initial":5248,"Ġconsum":5249,"strict":5250,"den":5251,"ĠCommun":5252,"tra":5253,"Results":5254,"ederal":5255,"76":5256,"hs":5257,"CTION":5258,"PR":5259,"fil":5260,"isf":5261,"Ġpain":5262,"Red":5263,"ĠDan":5264,"Ġpercent":5265,"ĠBG":5266,"Ġten":5267,"}$,":5268,"Pan":5269,"ĠArch":5270,"'.":5271,"Click":5272,"ena":5273,"itude":5274,"Ġconstant":5275,"cons":5276,"iqu":5277,"margin":5278,"Ġdeveloped":5279,"Ġnodes":5280,"ITY":5281,"Ġattr":5282,"Ġissue":5283,"Ġleading":5284,"Ġste":5285,"dr":5286,"rian":5287,"ĠUK":5288,"Ġwhose":5289,"Ġthought":5290,"Ġlot":5291,"ested":5292,"....":5293,"ucket":5294,"dist":5295,"Ġteams":5296,"###":5297,"PT":5298,"osed":5299,"Ġwriter":5300,"outhern":5301,"WE":5302,"Ġdirectly":5303,"ĠGeorge":5304,"ĠOper":5305,"Ġnight":5306,"oring":5307,"Ġconv":5308,"Ġsetting":5309,"KEY":5310,"ACE":5311,"antic":5312,"ĠAng":5313,"cy":5314,"hest":5315,"Ġwrote":5316,"itar":5317,"each":5318,"ĠHel":5319,"omega":5320,"Ġsecurity":5321,"Ġappoint":5322,"Ġnews":5323,"Ġopened":5324,"400":5325,"Ġhon":5326,"ĠGets":5327,"dropdown":5328,"Ġperformed":5329,"FAULT":5330,"Ġconnect":5331,"trigger":5332,"Ġnative":5333,"Send":5334,"itch":5335,"98":5336,"reek":5337,"Ġdistribution":5338,"58":5339,"Changed":5340,"Ġapply":5341,"CHE":5342,"wik":5343,"Ġtoday":5344,"Ġavoid":5345,"->_":5346,"angular":5347,"AV":5348,"gin":5349,"Ġissues":5350,"olic":5351,"tip":5352,"Ġjav":5353,"ĠCopy":5354,"typedef":5355,"PORT":5356,"Ġdebut":5357,"\\,":5358,"Internal":5359,"printf":5360,"collection":5361,"bra":5362,"ĠDel":5363,"Ret":5364,"Ġoutside":5365,"]]":5366,"Ġtests":5367,"props":5368,"Ġrespons":5369,"Job":5370,"ĠOver":5371,"Ġfn":5372,"ĠMart":5373,"Ġreplace":5374,"Ð°Ð":5375,"ĠField":5376,"Ġmeasure":5377,"1980":5378,"////////////////////////////////":5379,"||":5380,"MD":5381,"NG":5382,"ĠMem":5383,")))":5384,"Ġill":5385,"gment":5386,"Ġalt":5387,"AGE":5388,"Ġsym":5389,"Ġdirector":5390,"Events":5391,"kind":5392,"ĠVer":5393,"ancell":5394,"ancial":5395,"wrap":5396,"Ġ(_":5397,"Items":5398,"Ġexpand":5399,"ĠPaul":5400,"etime":5401,"Ġmatches":5402,"iterator":5403,"rav":5404,"Ġeditor":5405,"Ġtakes":5406,"Ġjoined":5407,"elli":5408,"yes":5409,"Ġconstruct":5410,"Ġrace":5411,"ospital":5412,"_(":5413,"Ġupon":5414,"Ġdb":5415,"Ġzero":5416,"Volume":5417,"Ġregard":5418,"Ġrandom":5419,"porary":5420,"free":5421,"sess":5422,"illa":5423,"edit":5424,"Ġquant":5425,"FILE":5426,"cel":5427,"ipe":5428,"Ġfriend":5429,"ughter":5430,"MENT":5431,"1996":5432,"Ġlock":5433,"ĠJust":5434,"application":5435,"OD":5436,"inline":5437,"ledge":5438,"ĠUnion":5439,"Ġsigned":5440,"Ġsymbol":5441,"events":5442,"Ġinside":5443,"ĠVAL":5444,"band":5445,"Ġmount":5446,"very":5447,"Ġhom":5448,"Transform":5449,"1997":5450,"Elements":5451,"Ġoffice":5452,"Lock":5453,"LS":5454,"Ġspect":5455,"ĠLou":5456,"Ġctx":5457,"Display":5458,"bootstrap":5459,"fr":5460,"ini":5461,"fty":5462,"theme":5463,"Ġinc":5464,"Member":5465,"Ġhtml":5466,"selected":5467,"Keys":5468,"ĠLO":5469,"Pop":5470,"Ġrev":5471,"ĠJe":5472,"Ġvers":5473,"Ġclosed":5474,"Ġpod":5475,"pository":5476,"Ġrock":5477,"Ġcommit":5478,"(!":5479,"Ġactually":5480,"ducation":5481,"NotNull":5482,"ircle":5483,"Initial":5484,"Ġ$.":5485,"Runtime":5486,"Ġcontaining":5487,"pite":5488,"gu":5489,"atio":5490,"Ġpolitic":5491,"aches":5492,"++;":5493,"adoop":5494,"\"\"\"":5495,"Ġunderstand":5496,"My":5497,"step":5498,"tion":5499,"Ġtalk":5500,"pring":5501,"Ġgenerated":5502,"mock":5503,"Ġvict":5504,"iences":5505,"Ġrail":5506,"itting":5507,"Ġrelationship":5508,"What":5509,"Ġindustry":5510,"ĠNode":5511,"inese":5512,"Support":5513,"ĠThen":5514,"Classes":5515,"imately":5516,"ĠAL":5517,"DL":5518,"children":5519,"ĠRoyal":5520,"PA":5521,"ĠMount":5522,"Ġtypename":5523,"Ġapprox":5524,"solute":5525,"Ġtransport":5526,"Ġextension":5527,"Ġinsert":5528,"Ġutil":5529,"Ġcandid":5530,"ĠOther":5531,"51":5532,"Ġng":5533,"pute":5534,"Ġusers":5535,"Ġtax":5536,"Ġprofessional":5537,"Ġremoved":5538,"Ġchall":5539,"Ġconsole":5540,"oon":5541,"Ġtour":5542,"Ġgoal":5543,"road":5544,"writ":5545,"Ġmot":5546,"Ġ\"\"":5547,"connection":5548,"ĠRoad":5549,"ln":5550,"PS":5551,"Ġfood":5552,"ĠAut":5553,"Namespace":5554,"Ġprevent":5555,"istan":5556,"Matrix":5557,"fficient":5558,"pecially":5559,"ĠBGCOLOR":5560,"flags":5561,"lers":5562,"Ġallows":5563,"[:":5564,"ĠHealth":5565,"Ġnet":5566,"fra":5567,"Ġecho":5568,"ĠĠĠĠĠĠĠĠĠĠĠĠĠĠĠĠĠĠĠĠĠĠĠĠĠ":5569,"ao":5570,"Edit":5571,"NE":5572,"orem":5573,"ĠInstitute":5574,"uses":5575,"Ġcalcul":5576,"ĠDet":5577,"(){":5578,"Ġsuff":5579,"bound":5580,"infty":5581,"ĠBer":5582,"ĠDivision":5583,"Ġtransfer":5584,"ĠCompany":5585,"ĠGermany":5586,"ĠCr":5587,"chedule":5588,"radius":5589,"ĠWashington":5590,"Attributes":5591,"\\\"":5592,"Register":5593,"Ġcluster":5594,"tmp":5595,"Ġfollows":5596,"300":5597,"ĠNote":5598,"pub":5599,"Ġconduct":5600,"psi":5601,"za":5602,"ala":5603,"witter":5604,"Ġlearn":5605,"Ġsound":5606,"Ġbgcolor":5607,"ĠDay":5608,"addr":5609,"assertEquals":5610,"Tab":5611,"Security":5612,"Ġsett":5613,"ĠGoogle":5614,"1970":5615,"Ġmissing":5616,"Ġmanager":5617,"iber":5618,"under":5619,"GB":5620,"Proxy":5621,"Ġmanagement":5622,"ĠCourt":5623,"Props":5624,"pare":5625,"FL":5626,"ĉĠĠĠĠĠĠĠĠ":5627,"alls":5628,"Ġmarried":5629,"ĠMac":5630,"Close":5631,"unicipal":5632,"Me":5633,"Ġsil":5634,"aws":5635,"ares":5636,"Ġimmedi":5637,"chart":5638,"Ġalmost":5639,"ĠBOO":5640,"ano":5641,"Ġwatch":5642,"ĠTex":5643,"ĠMor":5644,"EO":5645,"Ne":5646,"Flags":5647,"Ġtaking":5648,"ieved":5649,"Tests":5650,"napshot":5651,"Msg":5652,"plements":5653,"ĠMusic":5654,"aved":5655,"54":5656,"ped":5657,"Ġpackage":5658,"real":5659,"ĠSam":5660,"Ġlonger":5661,"Ġcampaign":5662,"ĉĠĠĠĠĠĠĠĠĠĠĠĠĠĠĠ":5663,"Ġful":5664,"ĠBest":5665,"Float":5666,"Ġdefe":5667,"Ġeffort":5668,"Ġfamil":5669,"Auth":5670,"Ġforward":5671,"Ġplaying":5672,"nov":5673,"ificate":5674,"Ġmaximum":5675,"Fail":5676,"ocker":5677,"anning":5678,"Ġdise":5679,"Ġfight":5680,"ookie":5681,"Ġfocus":5682,"impl":5683,"estival":5684,"Ġinvoke":5685,"sock":5686,"ifies":5687,"Ġlibrary":5688,"ĉĠĠĠĠ":5689,"TED":5690,"ĠJack":5691,"legal":5692,"full":5693,"ĠZe":5694,"Ġimplementation":5695,"ilation":5696,"Generic":5697,"Ġdriv":5698,"Ġhimself":5699,"Ġcontinued":5700,"Struct":5701,"Ġtro":5702,"ening":5703,"Pointer":5704,"portun":5705,"PAR":5706,"ulate":5707,"Big":5708,"Ġliving":5709,"Ġdam":5710,"Ġdepart":5711,"Ġmodern":5712,"Directory":5713,"comment":5714,"peat":5715,"(__":5716,"Ġvector":5717,"ixel":5718,"Ġbad":5719,"Ġpaper":5720,"indexOf":5721,"aled":5722,"ĠTODO":5723,"1995":5724,"super":5725,"fony":5726,"bytes":5727,"Ġpositive":5728,"Ġpick":5729,"Ġwhy":5730,"Ġio":5731,"Ġclasses":5732,"comes":5733,"WS":5734,"TRY":5735,"uby":5736,"ĠMary":5737,"undefined":5738,"mas":5739,"Ġonline":5740,"asket":5741,"Ġhit":5742,"icture":5743,"FC":5744,"het":5745,"ufact":5746,"Ġdistributed":5747,"sey":5748,"ims":5749,"Ġattributes":5750,"channel":5751,"ĠLeg":5752,"Ġtransaction":5753,"ĠJapan":5754,"uous":5755,"Ġclean":5756,"Account":5757,"=\"\"":5758,"scription":5759,"Ġstand":5760,"ymfony":5761,"JECT":5762,"Ġbehind":5763,"IE":5764,"Pool":5765,"Ġquick":5766,"rial":5767,"Ġresources":5768,"points":5769,"white":5770,"ners":5771,"Ġshared":5772,"las":5773,"Ġcalls":5774,"ĠHall":5775,"84":5776,"ĠVir":5777,"dependency":5778,"illing":5779,"ĠYear":5780,"present":5781,"82":5782,"Wrapper":5783,"anguage":5784,"argument":5785,"eners":5786,"ipeline":5787,"Ġquestion":5788,"ĠAcade":5789,"eqnarray":5790,"ifying":5791,"arily":5792,"ĠNO":5793,"cut":5794,"orest":5795,"Second":5796,"picker":5797,"Net":5798,"Ġdestroy":5799,"enter":5800,"region":5801,"Bit":5802,"Ġdistance":5803,"move":5804,"Ġensure":5805,"icket":5806,"Ġrank":5807,"SIZE":5808,"Ġradio":5809,"ĠPost":5810,"ĠDuring":5811,"ĠIsland":5812,"[$":5813,"which":5814,")));":5815,"Ġfollowed":5816,"Ġconcern":5817,"53":5818,"Ġsus":5819,"Ġreading":5820,"ĠWindow":5821,"ĠPress":5822,"UID":5823,"Ġmoney":5824,"Ġdirection":5825,"52":5826,"Ġdesigned":5827,"Attr":5828,"Scroll":5829,"shire":5830,"ĠFe":5831,"Before":5832,"shape":5833,"ĠFre":5834,"ĠSociety":5835,"Nodes":5836,"Ġcompar":5837,"Ġshape":5838,"ĠGreen":5839,"Cal":5840,"LOG":5841,"ĠAN":5842,"men":5843,"cloud":5844,"hadoop":5845,"ĠĠĠĠĠĠĠĠĠĠĠĠĠĠĠĠĠĠĠĠĠĠĠĠĠĠĠĠĠĠĠĠĠĠĠĠĠĠĠĠĠĠĠĠĠĠĠĠĠĠĠĠĠĠĠĠĠĠĠĠĠĠĠĠ":5846,"Ġvolume":5847,"idents":5848,"MAX":5849,"Ġimpact":5850,"lyph":5851,"ifest":5852,"save":5853,"ĠBay":5854,"ĠMer":5855,"elt":5856,"iven":5857,"Ġincrease":5858,"rael":5859,"-->":5860,"Var":5861,"Ġlikely":5862,"urrency":5863,"Ġtransition":5864,"$(":5865,"ignment":5866,"Ġexpress":5867,"depth":5868,"Man":5869,"DC":5870,"Ġapproach":5871,"Ġbottom":5872,"Parse":5873,"ĠHand":5874,"Ġhel":5875,"footer":5876,"Ġnovel":5877,"Loader":5878,"Ġfinished":5879,"Ġstorage":5880,"utf":5881,"ĠLong":5882,"Ġrecent":5883,"hentication":5884,"edy":5885,"ĠInst":5886,"otes":5887,"Scale":5888,"Ġ[],":5889,"ura":5890,"Ġtemper":5891,"Ġstar":5892,"stat":5893,"asc":5894,"ĠMethod":5895,"ĠMex":5896,"Ġwhole":5897,"1994":5898,"category":5899,"Ġmock":5900,"ĠText":5901,"Ġsongs":5902,"ITE":5903,"Ġstaff":5904,"ĠAustralian":5905,"ye":5906,"ĠWil":5907,"Ġhar":5908,"Ġshare":5909,"Ġwife":5910,";<":5911,"eqref":5912,"Ġroute":5913,"SQL":5914,"ĠAfrica":5915,"Ġconstruction":5916,"graphics":5917,"Ġunits":5918,"Ġtheory":5919,"Icon":5920,"Ġdeep":5921,"esh":5922,"LIC":5923,"mutable":5924,"ĠWhite":5925,"Ġhours":5926,"Ġreq":5927,"plugins":5928,"ĠĠĠĠĠĠĠĠĠĠĠĠĠĠĠĠĠĠĠĠĠĠĠĠ":5929,"Media":5930,"Ġmis":5931,"vidence":5932,"overnor":5933,"aration":5934,"Ġchurch":5935,"256":5936,"brief":5937,"Ġarchitect":5938,"Ġfinally":5939,"essor":5940,"ĠExt":5941,"=\"../../../":5942,"Ġloss":5943,"Ġdiscuss":5944,"mail":5945,"lias":5946,"Ġrules":5947,"Constraint":5948,"Ġcop":5949,"Ġneigh":5950,"ĠTechn":5951,"Microsoft":5952,"Ġstarting":5953,"____":5954,"Ġnor":5955,"virtual":5956,"Ġcontact":5957,"ĠĠĠĠĠĠĠĠĠĠĠĠĠĠĠĠĠĠĠĠĠĠ":5958,"ĠCong":5959,"Ġrecorded":5960,"ĠRad":5961,"ĠAlex":5962,"SY":5963,"ĠWhat":5964,"NA":5965,"ĠResearch":5966,"handler":5967,"Plugin":5968,"&&":5969,"ĠUser":5970,"Rest":5971,"91":5972,"uated":5973,"So":5974,"notation":5975,"Ġcountries":5976,"orse":5977,"Ġinvalid":5978,"short":5979,"ensus":5980,"Ġmother":5981,"Ġboard":5982,"ĠMod":5983,"Ġsave":5984,"Ġnumbers":5985,"Ġloc":5986,"ĠWhile":5987,"important":5988,"termin":5989,"sqrt":5990,"note":5991,"rong":5992,"ĠProject":5993,"lapse":5994,"annotation":5995,"schema":5996,"(@":5997,"Ġexport":5998,"Ġâ":5999,"ĠBen":6000,"izations":6001,"Ġalloc":6002,"selves":6003,"names":6004,"ĠjQuery":6005,"1992":6006,"Ġreve":6007,"Ġexact":6008,"riends":6009,"Ġpointer":6010,"ndef":6011,"Ġtravel":6012,"ĠCam":6013,"Ġbal":6014,"Ġcomes":6015,"metadata":6016,"Ġmoment":6017,"Ġtechnology":6018,"enabled":6019,"ĠVersion":6020,"Ġthroughout":6021,"Ġri":6022,"Ġorigin":6023,"aset":6024,"password":6025,"alloc":6026,"Ġpolice":6027,"Ġprogress":6028,"Show":6029,"Find":6030,"Ġicon":6031,"Ġmiddle":6032,"ander":6033,"eries":6034,"Ġsolution":6035,"Package":6036,"ĠTown":6037,"ores":6038,"Ap":6039,"dates":6040,"Ġnatural":6041,"liance":6042,"Ġsurface":6043,"usion":6044,"email":6045,".'":6046,"bour":6047,"Tra":6048,"Ġcult":6049,"assertEqual":6050,"ĠTur":6051,"Inv":6052,"Ġaud":6053,"scal":6054,"that":6055,"Logger":6056,"ĠClub":6057,")),":6058,"Ġexports":6059,"ili":6060,"Feature":6061,"Perm":6062,"lev":6063,"Ġbenef":6064,"Ġnecessary":6065,"ĠHen":6066,"protobuf":6067,"Ġlinear":6068,"Ġusually":6069,"Ġpreviously":6070,"\")]":6071,"ĠCall":6072,"Ġespecially":6073,"controller":6074,"Collections":6075,"Ġang":6076,"Arr":6077,"DA":6078,"ĠRussian":6079,"ĠInc":6080,"Ġalthough":6081,"dec":6082,"Ġappend":6083,"Ġphase":6084,"Ġinvolved":6085,"Ġ'<":6086,"Ġoptional":6087,"umni":6088,"Ġobtain":6089,"ĠDec":6090,"Ġmaint":6091,"usiness":6092,"oma":6093,"Ð»":6094,"atin":6095,"ĠMichael":6096,"Profile":6097,"}}\\":6098,"Ġstre":6099,"Ġtrigger":6100,"lood":6101,"safe":6102,"ĠId":6103,"uest":6104,"Ġinj":6105,"Transaction":6106,"Remove":6107,"ernel":6108,"security":6109,"ĠAfrican":6110,"Ġsex":6111,"Ġarticle":6112,"Ġcorresponding":6113,"record":6114,"~~~~":6115,"ĠSince":6116,"gan":6117,"ĠOption":6118,"Ġanaly":6119,"bold":6120,"Ġlargest":6121,"liament":6122,"Ġetc":6123,"ĠFI":6124,"Ġasync":6125,"iding":6126,"()));":6127,"CHECK":6128,"Ġ>>>":6129,"Ġcentral":6130,"Ġopts":6131,"Lin":6132,"ĠCentral":6133,"Ġbring":6134,"entity":6135,"Ġmus":6136,"ora":6137,"coin":6138,"ĠGold":6139,"boost":6140,"mercial":6141,"Ġschools":6142,"ĠTexas":6143,"Ġbooks":6144,"TS":6145,"Ġweight":6146,"Editor":6147,"mitted":6148,"Framework":6149,"1993":6150,"ping":6151,"RAN":6152,"mask":6153,"Ġprec":6154,"Ġthus":6155,"Layer":6156,"IB":6157,"Ġwalk":6158,"Cluster":6159,"desc":6160,"ĠCanadian":6161,"ulations":6162,"ToString":6163,"72":6164,"Condition":6165,"thread":6166,"Ġtransparent":6167,"inct":6168,"92":6169,"Ġbuilder":6170,"svg":6171,"inv":6172,"()).":6173,"txt":6174,"Ġstudies":6175,"rot":6176,"Prefix":6177,"Ġopportun":6178,"ises":6179,"overed":6180,"Rece":6181,"area":6182,"Av":6183,"={":6184,"Ġgave":6185,"Ġdegree":6186,"Ġeight":6187,"ality":6188,"Grid":6189,"Ġcore":6190,"ĠChe":6191,"oped":6192,"ĠJew":6193,"leep":6194,"Ġrepresentation":6195,"Found":6196,"ĠIP":6197,"keyword":6198,"Ġsaw":6199,"Ġsupp":6200,"ĠItal":6201,"ĠSal":6202,"Ġdidn":6203,"editor":6204,"atalog":6205,".*":6206,"Ġdifficult":6207,"ĠTom":6208,"Comple":6209,"Print":6210,"78":6211,"well":6212,"ĠEar":6213,"ĠJer":6214,"Ġfixed":6215,"ĠScience":6216,"STAT":6217,"defined":6218,"vec":6219,"ifdef":6220,"94":6221,"ĠBig":6222,"Protocol":6223,"ARY":6224,"ĠCode":6225,";/":6226,"Ġfactory":6227,"ĠGames":6228,")\"":6229,"Ġhot":6230,"Ġexc":6231,"ĠInitial":6232,"Ġabs":6233,"pg":6234,"ĠJapanese":6235,"Ġdep":6236,"roke":6237,"rb":6238,"Ġappeared":6239,"ONE":6240,"Year":6241,"ĠMa":6242,"=\"/":6243,"Ġmechan":6244,"ooth":6245,"çļ":6246,"Ġcoordin":6247,"Ġsen":6248,"ĠGod":6249,"Auto":6250,"DS":6251,"ometimes":6252,"ĠThomas":6253,"Ġgenerate":6254,"She":6255,"ancis":6256,"Ġreceive":6257,"74":6258,"ĠPan":6259,"68":6260,"VERSION":6261,"Ġplaces":6262,"Ac":6263,"resents":6264,"Ġproducts":6265,"igen":6266,"çļĦ":6267,"elebr":6268,"Ġveh":6269,"93":6270,"shift":6271,"spring":6272,"NULL":6273,"ango":6274,"ROM":6275,"Ġbehavior":6276,"Ġaltern":6277,"Ġpartial":6278,"cb":6279,"icks":6280,"bes":6281,"Ġstatement":6282,"Selection":6283,"Ġtold":6284,">::":6285,"idx":6286,"Ġer":6287,"Enum":6288,"Ġsoon":6289,"switch":6290,"para":6291,"ĠAssembly":6292,"PP":6293,"pool":6294,"ADD":6295,"Ġtab":6296,"ĠCarol":6297,"Ġlayer":6298,"Ġprinc":6299,"throws":6300,"ĠTH":6301,"ĠDev":6302,"attributes":6303,"uting":6304,"here":6305,"oul":6306,"ror":6307,"Ġjud":6308,"Ġupdated":6309,"Ġcourt":6310,"ĠChinese":6311,"linear":6312,"produ":6313,"reshold":6314,"Ġconstructor":6315,"SR":6316,"atically":6317,"pay":6318,"XML":6319,"Am":6320,"Statement":6321,"ki":6322,"bt":6323,"ĠScott":6324,"look":6325,"ĠUpdate":6326,"decl":6327,"Ġinstit":6328,"Ġauth":6329,"Memory":6330,"Ġeffects":6331,"azz":6332,"Ġarriv":6333,"Len":6334,"cheduler":6335,"Headers":6336,"Ġthing":6337,"}),":6338,"Ġsources":6339,"panish":6340,"Ġsports":6341,"Ġprefix":6342,"epsilon":6343,"ĠSing":6344,"more":6345,"fail":6346,"bal":6347,"ĠMuseum":6348,"Ġche":6349,"screen":6350,"ĠDemocr":6351,"Ġdro":6352,"ĠKingdom":6353,"Full":6354,"iece":6355,"elf":6356,"Ġ_.":6357,"SER":6358,"expr":6359,"Ñĥ":6360,"ĠFalse":6361,"ĠMus":6362,"}[":6363,"Ġlevels":6364,"uan":6365,"ĠRel":6366,"entials":6367,"ĠHistory":6368,"zone":6369,"Ġpatients":6370,"extend":6371,"ĠMad":6372,"shadow":6373,"Ġsaf":6374,"63":6375,"Ġnom":6376,"1991":6377,"Ġmask":6378,"master":6379,"ĠMiss":6380,"Sync":6381,"abbr":6382,"Identifier":6383,"'));":6384,"install":6385,"ĠCath":6386,"Ġlarger":6387,"Ġbirth":6388,"reset":6389,"ĠReact":6390,"Desc":6391,"Ġjavax":6392,"ĠTem":6393,".\\":6394,"sample":6395,"Ġgir":6396,"Ġpair":6397,"lam":6398,"atur":6399,"iling":6400,"ĠChristian":6401,"ĠTor":6402,"ĠFin":6403,"DU":6404,"Ġprofile":6405,"azine":6406,"Ġintroduced":6407,"MB":6408,"62":6409,"evelop":6410,"Ġshift":6411,"pid":6412,"ĠMinister":6413,"\">&":6414,"FN":6415,"Ġjournal":6416,"hidden":6417,"Ġedge":6418,"ils":6419,"prefix":6420,"LAG":6421,"avi":6422,"Ġbrowser":6423,"Ġsatisf":6424,"Rad":6425,"Ġformed":6426,"Sum":6427,"ĠMont":6428,"}).":6429,"Ġenabled":6430,"ĠCollection":6431,"Ġroom":6432,"Ġminutes":6433,"Ġnothing":6434,"anned":6435,"ocation":6436,"81":6437,"profile":6438,"AAAA":6439,"selector":6440,"Ġpromise":6441,"Ġdirected":6442,"none":6443,"ictor":6444,"ongs":6445,"icated":6446,"TEXT":6447,"testing":6448,"StyleID":6449,"Ġcounter":6450,"Ġculture":6451,"structure":6452,"Ġreplaced":6453,"asketball":6454,"WA":6455,"ĠMicrosoft":6456,"ĠIOException":6457,"manager":6458,"Ġ${":6459,"Ġbeginning":6460,"moz":6461,"ĠOrder":6462,"UTF":6463,"ration":6464,"Ġdecision":6465,"Any":6466,"Global":6467,"Fil":6468,"cdot":6469,"icen":6470,"Ġplant":6471,"Socket":6472,"hide":6473,"olf":6474,"Ġlib":6475,"Ġimplements":6476,"'])":6477,"ste":6478,"ĠAv":6479,"Members":6480,"ĠLo":6481,"ĠÎ":6482,"Ġencoding":6483,"ĠSuper":6484,"1960":6485,"ita":6486,"Dictionary":6487,"operator":6488,"Ġstrings":6489,"Syntax":6490,"Ġindependent":6491,"Ġrelig":6492,"ani":6493,"olar":6494,"results":6495,"amel":6496,"aland":6497,"sect":6498,"Ġchain":6499,"while":6500,"Ġdebug":6501,"ĠWestern":6502,"Panel":6503,"ĠVol":6504,"Ġqueue":6505,"Om":6506,"Ġdescribe":6507,";\"":6508,"Ġexplo":6509,"ĠVirgin":6510,"READ":6511,"ancellation":6512,"Ġlistener":6513,"Ġwoman":6514,"nil":6515,"libr":6516,"ENTRY":6517,"Ġcouple":6518,"Conf":6519,"ĠKore":6520,"AX":6521,"blockList":6522,"Errorf":6523,"Ġcomponents":6524,"properties":6525,"Ã§":6526,"Ġproblems":6527,"Ġspeed":6528,"ĠShow":6529,"ĠAcademy":6530,"family":6531,"Ġscore":6532,"ĠSur":6533,"psilon":6534,"ĠGreat":6535,"rier":6536,"VALUE":6537,"Ġfast":6538,"ĠCommit":6539,"riority":6540,"Ġstri":6541,"cos":6542,"domain":6543,"ĠCommand":6544,"Ġdoing":6545,"tty":6546,"ira":6547,"Ġactivity":6548,"material":6549,"prev":6550,"iller":6551,"ĠEmp":6552,"ighest":6553,"Ġapplied":6554,"Ġinteger":6555,"Ġreject":6556,"ĠIr":6557,"slice":6558,"Ġobtained":6559,"Ġkilled":6560,"Ġfailure":6561,"Activity":6562,"Ġmeet":6563,"(/":6564,"ĠTask":6565,"Ġsecret":6566,"ĠPo":6567,"gradient":6568,"ental":6569,"Ġfounded":6570,"ĠConfig":6571,"Ġ[[":6572,"EC":6573,"ĠRecords":6574,"ĠKe":6575,"ancy":6576,"ja":6577,"Ã³n":6578,"Ġrisk":6579,"INS":6580,"Ġ],":6581,"Ġforces":6582,"total":6583,"Ġpers":6584,"iteral":6585,"Ġkm":6586,"ĠLet":6587,"tools":6588,"iring":6589,"atively":6590,"ech":6591,"ifndef":6592,"OUT":6593,"contains":6594,"ĠFrancis":6595,"Ġrecomm":6596,"axis":6597,"Ðº":6598,"sf":6599,"Ø§":6600,"ette":6601,"Single":6602,"Files":6603,"emon":6604,"ĠSmith":6605,"ALSE":6606,"Ġtouch":6607,"Ġrecords":6608,"ĠFlor":6609,"Adapter":6610,"watch":6611,"Ġseven":6612,"allery":6613,"ById":6614,"Ġflags":6615,"rypto":6616,"thlet":6617,"ĠMax":6618,"Ġruns":6619,"yg":6620,"BOO":6621,"Ġdram":6622,"raction":6623,"Ġdaughter":6624,"ĠAccording":6625,"83":6626,"Ġess":6627,"Ġimages":6628,"ĠĠĠĠĠĠĊ":6629,"Ġdomain":6630,"FR":6631,"ĠNow":6632,"ĠLouis":6633,"Ġgrant":6634,"Ġdem":6635,"erial":6636,"Fr":6637,"ipher":6638,"Ġproces":6639,"umerable":6640,"Art":6641,"Ġlooking":6642,"ishing":6643,"Ġtit":6644,"Ġord":6645,"Ġcapital":6646,"Ġship":6647,"Term":6648,"Dest":6649,"Common":6650,"lia":6651,"aily":6652,"iers":6653,"ifications":6654,"Ġheart":6655,"Services":6656,"resolve":6657,"{\"":6658,"Ġteach":6659,"Ġmut":6660,"Ġ_,":6661,"Gamma":6662,"PATH":6663,"Ġloop":6664,"atre":6665,"Ġelected":6666,"Double":6667,"ĠCopyright":6668,"Ġtmp":6669,"Ġdi":6670,"Sw":6671,"headers":6672,"network":6673,"Ġpurch":6674,"ĠProgram":6675,"BUG":6676,"peed":6677,"Shared":6678,"Main":6679,"Ġabsolute":6680,"ĠFoundation":6681,"Ġleague":6682,"Ġparam":6683,"ĠIsrael":6684,"','":6685,"]:":6686,"('.":6687,"Ġquality":6688,"}_{\\":6689,"va":6690,"special":6691,"Ġrequests":6692,"Ġowner":6693,"=#":6694,"gers":6695,"related":6696,"BR":6697,"ĠTable":6698,"Ġdemon":6699,"isation":6700,"Let":6701,"Browser":6702,"Ġdensity":6703,"Step":6704,"Ġok":6705,"61":6706,"Ġgetting":6707,"Named":6708,"ĠHistor":6709,"Ġclick":6710,"Att":6711,"TRUE":6712,"Ġcivil":6713,"Ġfmt":6714,"Ġselector":6715,"ixture":6716,"ker":6717,"clo":6718,"ĠCamp":6719,"faces":6720,"ees":6721,"mazon":6722,"Ġscient":6723,"Ġconstit":6724,"Ġepisode":6725,"ĠView":6726,"Ġexplicit":6727,"Ġ%}":6728,"ĠExec":6729,"Ġreached":6730,"ĠItalian":6731,"Ġalbums":6732,"reland":6733,"Ġdriver":6734,"Ġfoc":6735,"urt":6736,"Ġfemale":6737,"enge":6738,"isl":6739,"Ġmaster":6740,"progress":6741,"modules":6742,"ournament":6743,"1989":6744,"cribe":6745,"identifier":6746,")/":6747,"rey":6748,"fd":6749,"ĠNumber":6750,"Ġtowards":6751,"ixin":6752,"ĠCharles":6753,"Ġnote":6754,"Ġmatter":6755,"Cert":6756,"ĠRail":6757,"ĠForce":6758,"Duration":6759,"HTTP":6760,"Cap":6761,"Ġcompared":6762,"ircraft":6763,")).":6764,"EventListener":6765,"rangle":6766,"Ġsubsequ":6767,"istant":6768,"Expr":6769,"Ġrespectively":6770,"Ġvariables":6771,"ĠLine":6772,"browser":6773,"ĉĉĉĉĉĉĉĉĉ":6774,"ĠLos":6775,"Ġproper":6776,"udd":6777,"emph":6778,"subsection":6779,"Ġip":6780,"Ġmetadata":6781,"URI":6782,"Other":6783,"ky":6784,"Ġcard":6785,"Ġprobably":6786,"ĠAnn":6787,"------------":6788,"Ġupper":6789,"Ġtrade":6790,"Ġmessages":6791,"icago":6792,"Ġincreased":6793,"timeout":6794,"ĠGrand":6795,"Ġsimply":6796,"abilities":6797,"Ġlimited":6798,"LOCK":6799,"Ġ${\\":6800,"anta":6801,"=\"@":6802,"79":6803,"Ġheaders":6804,"Seg":6805,"Constants":6806,"Ġfinancial":6807,"Ġ{'":6808,"ternet":6809,"ĠLake":6810,"Ġconcept":6811,"Failed":6812,"Ġappointed":6813,"Ġcreating":6814,"Selected":6815,"filename":6816,"Ġentity":6817,"Ġsignal":6818,"Ġhidden":6819,"1988":6820,"product":6821,"Ġdesc":6822,"WR":6823,"ih":6824,"ĠOf":6825,"wrapper":6826,"bad":6827,"Ġbank":6828,"ĠJose":6829,"Ġscroll":6830,"Ġansw":6831,"################":6832,"ĠFrank":6833,"inate":6834,"Ġlisted":6835,"pkg":6836,"stats":6837,"ĠVis":6838,"parser":6839,"Ġcoach":6840,"Ġgold":6841,"Ġremain":6842,"69":6843,"ĠJava":6844,"numer":6845,"flag":6846,"orner":6847,"ï¼":6848,"uter":6849,"contin":6850,"Ġrequires":6851,"heast":6852,"ĠOffic":6853,"storage":6854,"Ġearlier":6855,"sheet":6856,"ying":6857,"Children":6858,"yr":6859,"job":6860,"Ġfactor":6861,"ĠPath":6862,"160":6863,"done":6864,"}=":6865,"ĠProf":6866,"Ġdrop":6867,"Ġtimeout":6868,"Ġdir":6869,"Mapping":6870,"Ġevidence":6871,"Ġemail":6872,"ĠCommission":6873,"Public":6874,"bi":6875,"IND":6876,"protocol":6877,"itation":6878,"1987":6879,"Ġstay":6880,"contrib":6881,"ci":6882,"fort":6883,"tests":6884,"chain":6885,"urred":6886,"Java":6887,"ously":6888,"Now":6889,"Ġprops":6890,"getName":6891,"oth":6892,"LP":6893,"CI":6894,"Route":6895,"71":6896,"Ġorganization":6897,"isters":6898,"Ġsens":6899,"Ġartists":6900,"Ġpractice":6901,"ĠAR":6902,"Ġsizeof":6903,"ĠZealand":6904,"Ġtreatment":6905,"ĠIE":6906,"ĠUN":6907,"![":6908,"TABLE":6909,"Ġrg":6910,"Domain":6911,"!<":6912,")=":6913,"Ġposs":6914,"throw":6915,"ĠSecond":6916,"Ġmention":6917,"Ġcollect":6918,"Ġcompos":6919,"ĠInteger":6920,"!\\":6921,"Ġtranslate":6922,"onym":6923,"Ġequival":6924,"Uri":6925,"errors":6926,"aud":6927,"opts":6928,"Ġguitar":6929,"Ġproposed":6930,"Author":6931,"lg":6932,"iday":6933,"fect":6934,"dot":6935,"ded":6936,"Ġtesting":6937,"REG":6938,"Ġlegal":6939,"[\\":6940,"erc":6941,"ĠSummer":6942,"Ġ\",":6943,"Background":6944,"Ġleader":6945,"LINE":6946,"ĠPeter":6947,"iger":6948,"ĠBill":6949,"igan":6950,"parameters":6951,"Ġaxis":6952,"account":6953,"jquery":6954,"ĠCOVID":6955,"Ġgrowth":6956,"Ġidea":6957,"Ġcells":6958,"Ġexhib":6959,"shal":6960,"Ġpush":6961,"reme":6962,"Ġletter":6963,"Ġdead":6964,"ito":6965,"ĠProv":6966,")->":6967,"Fn":6968,"ĠĠĠĠĠĠĠĠĠĠĠĠĠĠĠĠĠĠĠĠĠĠĠĠĠĠĠĠĠ":6969,"Ġslow":6970,"igration":6971,"Ġstudio":6972,"ato":6973,"Ġadapt":6974,"ĠMel":6975,"ĠCap":6976,"73":6977,"ĠBook":6978,"Ġlack":6979,"orter":6980,"SU":6981,"Space":6982,"invalid":6983,"Promise":6984,"apped":6985,"Ġleave":6986,"Generator":6987,"Ġscience":6988,"Ġpresented":6989,"Rep":6990,"joy":6991,"serial":6992,"Ġui":6993,"ĠCast":6994,"git":6995,"Ġfamilies":6996,"ĠTri":6997,"Person":6998,"ĠWindows":6999,"Help":7000,"echo":7001,"Ġcontroller":7002,"km":7003,"ĠDi":7004,"chor":7005,"spirit":7006,"Ġdetermine":7007,"Opt":7008,"Ġplaced":7009,"ĠColor":7010,"loader":7011,"Ġfun":7012,"Ġgas":7013,"128":7014,"Ġmanufact":7015,"ĠĠĠĠĠĠĠĠĠĠĠĠĠĠĠĠĠĠĠĠĠĠĠĠĠĠ":7016,"IST":7017,"Registry":7018,"activ":7019,"ĠSeries":7020,"Ġ>>":7021,"Ġactions":7022,"ĠIndex":7023,"Ġthemselves":7024,"ĠTop":7025,"ĠRichard":7026,"Ġforms":7027,"ional":7028,"Ġdemand":7029,"Ġisn":7030,"expect":7031,"ĠRock":7032,"rule":7033,"limit":7034,"Ġanything":7035,"Ġphysical":7036,"Ġcoming":7037,"CF":7038,"Ġbuf":7039,"ĠMass":7040,"Ġgreater":7041,"kens":7042,"\"/":7043,"Ġpublish":7044,"Ġpredict":7045,"zure":7046,"^*":7047,"grade":7048,"Ġnu":7049,"typename":7050,"Role":7051,"dim":7052,"iate":7053,"ĠParis":7054,"Ã¨":7055,"constructor":7056,"FIG":7057,"Ġ];":7058,"Ġbasic":7059,"Ġeventually":7060,"ĠHill":7061,"Ġbits":7062,"achment":7063,"ĠGovernment":7064,"High":7065,"ola":7066,"istribut":7067,"ĠLife":7068,"Progress":7069,"checked":7070,"ĠStart":7071,"======":7072,"osh":7073,"matrix":7074,"riteria":7075,"Omega":7076,"overs":7077,"NV":7078,"nam":7079,"arguments":7080,"Ljava":7081,"Ġfr":7082,"Ġpy":7083,"ĠModel":7084,"ingu":7085,"Ġconstraint":7086,"OB":7087,"ĠASSERT":7088,"forms":7089,"cpp":7090,"dx":7091,"aret":7092,"ĉĉĉĊ":7093,"Interval":7094,"Ġseem":7095,"Ġasked":7096,"Ġenable":7097,"Ġremaining":7098,"checkbox":7099,"Ġexperiment":7100,"precated":7101,"ĠPlay":7102,"ĠTwo":7103,"Abstract":7104,"leted":7105,"ĠEducation":7106,"Agent":7107,"Ġcharg":7108,"TIME":7109,"USE":7110,"Ġemerg":7111,"ĠWomen":7112,"ĠOp":7113,"Ġactivities":7114,"Ġ'\\":7115,"ersistent":7116,"Success":7117,"ĠSO":7118,"PROC":7119,"ĠAND":7120,"Ġlicense":7121,"logger":7122,"ĠHash":7123,"Ġ\"<":7124,"Ġstated":7125,"sys":7126,"Ġinterview":7127,"Ġimm":7128,"ĠHTTP":7129,"Product":7130,"stant":7131,"Ġgives":7132,"Ġartist":7133,"ĠAc":7134,"organ":7135,"MI":7136,"ĠPub":7137,"LL":7138,"Ġimmediately":7139,"ĠGeorg":7140,"Ġbre":7141,"Math":7142,"ceptions":7143,"Ġbrought":7144,"etes":7145,"Ġcelebr":7146,"vare":7147,"Trace":7148,"osen":7149,"Simple":7150,"Ġyield":7151,"house":7152,"Ġbuildings":7153,"ĠIll":7154,"Ġinvestig":7155,"ĠFootball":7156,"Ġmulti":7157,"Ġago":7158,"ĠĠĠĠĠĠĠĠĠĠĠĠĠĠĠĠĠĠĠĠĠĠĠĠĠĠĠĠĠĠĠĠĠĠĠĠĠĠĠĠĠĠĠ":7159,"Delegate":7160,"Ġ\"-":7161,"icator":7162,"hy":7163,"Äģ":7164,"shall":7165,"Ġdu":7166,"Play":7167,"rum":7168,"proxy":7169,"1986":7170,"Ġdemonstr":7171,"Ġeffective":7172,"ĠRussia":7173,"outer":7174,"Ġunknown":7175,"Ġxmlns":7176,"TV":7177,"ãĢ":7178,"dialog":7179,"writer":7180,"room":7181,"tonsoft":7182,"Ġdecided":7183,"Resources":7184,"ali":7185,"Ġfoot":7186,"exists":7187,"ko":7188,"ĠExp":7189,"Ġmovement":7190,"Ġdark":7191,"tabs":7192,"Ġmind":7193,"ĠMr":7194,"heel":7195,"Ġoriginally":7196,"Ġpassword":7197,"Ġalumni":7198,"Ġincreasing":7199,"Ġthreat":7200,"Ġrect":7201,"since":7202,"gs":7203,"themes":7204,"Ġtim":7205,"rees":7206,"ENSE":7207,"found":7208,"Ġlearning":7209,"irty":7210,"ĠStar":7211,"DOM":7212,"Ġwallet":7213,"ĠMedia":7214,"ĠEngine":7215,"Ġincor":7216,"Ġprojects":7217,"Ġbroadcast":7218,"ĠNetwork":7219,"HR":7220,"idence":7221,"Ġded":7222,"Ġsense":7223,"ACT":7224,"Ġbrother":7225,"ridge":7226,"fire":7227,"Pay":7228,"Ġenum":7229,"kw":7230,"Ġretr":7231,"NOT":7232,"sem":7233,"ĠCommittee":7234,"unched":7235,"evelopment":7236,"Ġtrain":7237,"Ġgets":7238,"eval":7239,"conn":7240,"asure":7241,"Ġenter":7242,"ova":7243,"$/":7244,"varphi":7245,"Ġsplit":7246,"allel":7247,"original":7248,"Ġunless":7249,"Ġprotocol":7250,"Ġraw":7251,"IMP":7252,"Ġstations":7253,"Ġsell":7254,"Ġvs":7255,"andra":7256,"Ġremains":7257,"fully":7258,"izable":7259,"ĠAust":7260,"Ġstudent":7261,":[":7262,"ĠDu":7263,"Ġexternal":7264,"Ġbasis":7265,"Ġpark":7266,"Ġgrid":7267,"Ġplugin":7268,"Engine":7269,"Ġmedical":7270,"Ġearn":7271,"ĠFilm":7272,"}</":7273,"1984":7274,"Ġ'';":7275,"utch":7276,"ĠGen":7277,"Depend":7278,"Ġgun":7279,"Word":7280,"Ġhighest":7281,"@\"":7282,"Gen":7283,"Ġ[\"":7284,"strument":7285,"ĠBoard":7286,"configuration":7287,"Ġsch":7288,"Ġweeks":7289,"people":7290,"sur":7291,"rightarrow":7292,"FS":7293,"Ġscen":7294,"enable":7295,"verter":7296,"Ġcalling":7297,"Endpoint":7298,"tags":7299,"variant":7300,"temp":7301,"asy":7302,"ĠBit":7303,"Ġir":7304,"ĠRequest":7305,"Bound":7306,"clone":7307,"bm":7308,"LECT":7309,"ĠFinal":7310,"protected":7311,"Ġopening":7312,"Ġhum":7313,"Ġparser":7314,"Ġsn":7315,"Ġspent":7316,"servable":7317,"ĠSecret":7318,"Ġvisible":7319,"ecause":7320,"MC":7321,"Ġinvol":7322,"Db":7323,"ĠMessage":7324,"ager":7325,"ĠĠĠĠĠĠĠĠĠĠĠĠĠĠĠĠĠĠĠĠĠĠĠĠĠĠĠĠ":7326,"junit":7327,"console":7328,"external":7329,"ĠBOOST":7330,"Ġbur":7331,"ĠSpanish":7332,"unique":7333,"Ġinsp":7334,"FLAG":7335,"aste":7336,")$.":7337,"ĠCatholic":7338,"Ġfully":7339,"ĠMake":7340,"Ġshall":7341,"Ġshot":7342,"ĠChild":7343,"ĠMost":7344,"Ġcommercial":7345,"optional":7346,"fix":7347,"Ġfootballers":7348,"Ġwanted":7349,"Ġmur":7350,"Ġbtn":7351,"Ñı":7352,"anced":7353,"Ġ).":7354,"GR":7355,"1985":7356,"Ġawait":7357,"tim":7358,"Ġfeed":7359,"elem":7360,"BE":7361,"irmed":7362,"Ġfourth":7363,"Ġenv":7364,"Fact":7365,"Ġanti":7366,"mut":7367,"Ġdeliver":7368,"Ġrecently":7369,"uilt":7370,"mouse":7371,"iny":7372,":#":7373,"Ġtraditional":7374,"Native":7375,"ĠUnder":7376,"DateTime":7377,"Ġcategory":7378,"olk":7379,"scss":7380,"ĠFlorida":7381,"Ġinner":7382,"geles":7383,"edge":7384,"ĠSQL":7385,"Ġsmaller":7386,"rate":7387,"ICE":7388,"Ġdifference":7389,"assets":7390,"Binary":7391,"Psi":7392,"Ġmeaning":7393,"ĠAlso":7394,"ĠDom":7395,"HER":7396,"Mask":7397,"Ġobserved":7398,"bits":7399,"inet":7400,"Texture":7401,"Ġrepresents":7402,"ITION":7403,"intelli":7404,"loaded":7405,"%%%%":7406,"ĠIreland":7407,"ategories":7408,"Shape":7409,"Ġmenu":7410,"named":7411,"Ġanim":7412,"Ġeverything":7413,"BO":7414,"aria":7415,"Ġcollege":7416,"ĠOlympics":7417,"Ġfavor":7418,"CESS":7419,"ancer":7420,"arian":7421,"execute":7422,"Ġchunk":7423,"Ġappropri":7424,"demic":7425,"ĠUk":7426,"ansion":7427,"ibly":7428,"Med":7429,"FUN":7430,"Ġmeeting":7431,"ollowing":7432,"intellij":7433,"Ġfix":7434,"Car":7435,"Ġmicro":7436,"components":7437,"nel":7438,"oting":7439,"Ġ\\,":7440,"isions":7441,"Variable":7442,"ĠMil":7443,"library":7444,"Comment":7445,"Ġforeach":7446,"IPT":7447,"engine":7448,"ĠVictor":7449,"bridge":7450,"Ġcaused":7451,"ĠYour":7452,"ĠPoint":7453,"Ġresolve":7454,"Ġquarter":7455,"ĠLin":7456,"PUT":7457,"Cor":7458,"itiz":7459,"ĠChicago":7460,"Stats":7461,"ĠWAR":7462,"Vertex":7463,"Ġminor":7464,"Ġoccup":7465,"includ":7466,"ĠSil":7467,"proof":7468,"%,":7469,"Ġoptim":7470,"Ġabstract":7471,"Ġpen":7472,"ads":7473,"VG":7474,"ĠPenn":7475,"Ġeconomic":7476,"Ġrepresented":7477,"razil":7478,"Video":7479,"inger":7480,"Ġrespond":7481,"Ġsometimes":7482,"^{(":7483,">'":7484,"Ġdim":7485,"single":7486,"random":7487,"platform":7488,"ĠUI":7489,"ockey":7490,"Ġcompetition":7491,"ĠAngeles":7492,"Ġtrying":7493,"ĠVirginia":7494,"COMP":7495,"Newtonsoft":7496,"}^{\\":7497,"Ġ{},":7498,"Ġfit":7499,"cred":7500,"rev":7501,"IVE":7502,"'ll":7503,"RES":7504,"ĠDOM":7505,"Ġcollabor":7506,"Ġtypedef":7507,"Ġeasy":7508,"defer":7509,"pdf":7510,"WN":7511,"Ġtherefore":7512,"BS":7513,"ga":7514,"Ġability":7515,"ny":7516,"Animation":7517,"Ġseek":7518,"Ġbecomes":7519,"jar":7520,"Limit":7521,"World":7522,"Ġcritical":7523,"Ġnegative":7524,"ĠLu":7525,"wiki":7526,"ifiers":7527,"extern":7528,"ĠOur":7529,"Ġcle":7530,"ĠIts":7531,"****************************************************************":7532,"transition":7533,"IV":7534,"1950":7535,"rase":7536,"ĠDen":7537,"Ġdigital":7538,"Ġprograms":7539,"Ġanimation":7540,"Ġuseful":7541,"ĠBank":7542,"ĠLandroid":7543,"Ġtemp":7544,"Ġconnected":7545,"ĠValid":7546,"Ġpool":7547,"abit":7548,"Transport":7549,"Ġvoc":7550,"Ġlayout":7551,"Region":7552,"venue":7553,"uages":7554,"pod":7555,"ĠGal":7556,"Ġsetup":7557,"pattern":7558,"ellig":7559,"builder":7560,"Py":7561,"Ġgenerally":7562,"ĠInv":7563,"Ġseparate":7564,"provider":7565,"peated":7566,"Ġbinary":7567,"Ġ\"$":7568,"Final":7569,"Ġscene":7570,"Ġmunicipal":7571,"Ġrestrict":7572,"Ġolder":7573,"ĠHere":7574,"varepsilon":7575,"Repository":7576,"ĠArts":7577,"Ġmovie":7578,"shared":7579,"Ġparents":7580,"nce":7581,"async":7582,"__)":7583,"ĠOnly":7584,"Ġcritic":7585,"Ġmixed":7586,".\");":7587,"och":7588,"EM":7589,"Ġoverall":7590,"Ġprotect":7591,"detail":7592,"iro":7593,"Note":7594,"details":7595,"words":7596,"hol":7597,"Ġappears":7598,"ĠLOG":7599,"=\"\">":7600,"Flow":7601,"Ġgrand":7602,"bot":7603,"Ġalgorithm":7604,"ouses":7605,"NT":7606,"forEach":7607,"akers":7608,"Gr":7609,"ounce":7610,"Ġremained":7611,"Details":7612,">:":7613,"socket":7614,"Ġsummer":7615,"Ġaircraft":7616,"Ġlatest":7617,"rift":7618,"Ġfriends":7619,"EV":7620,"Ġreflect":7621,"Ġ\"\",":7622,"Ġnature":7623,"Ġfeatured":7624,"ĠGame":7625,"ydro":7626,"Ġcmd":7627,"Ġready":7628,"ĠRet":7629,"Scal":7630,"jQuery":7631,"relation":7632,"NavBarCell":7633,"Cred":7634,"nodes":7635,"Ġproxy":7636,"yan":7637,"Mouse":7638,"Ġdisabled":7639,"Sort":7640,"La":7641,"pu":7642,"Ġpred":7643,"Ġgreen":7644,"Ġtransl":7645,"1983":7646,"PER":7647,"animation":7648,"construct":7649,"TestCase":7650,"ĠMain":7651,"Ġreach":7652,"fit":7653,"oviet":7654,"Import":7655,"Ġprote":7656,"Ġinterpre":7657,"Ġseconds":7658,"jango":7659,"atible":7660,"'];":7661,"ĠDirector":7662,"Ġhy":7663,"LD":7664,"ĠBack":7665,"ĠSpec":7666,"Ġreset":7667,"Ġgoals":7668,"cheduled":7669,"Ġ{{":7670,"IGHT":7671,"ateway":7672,"ĠCD":7673,"Ġsem":7674,"Ġfill":7675,"ĠReview":7676,"phone":7677,"celer":7678,"atri":7679,"Ġexecute":7680,"Section":7681,"ĠTimes":7682,"ĠANY":7683,"Ġblocks":7684,"ĠHttp":7685,"Ġtx":7686,"ĠSocial":7687,"SSL":7688,"ĠSol":7689,"ishop":7690,"release":7691,"Ġcharge":7692,"ji":7693,"Ġknowledge":7694,"Admin":7695,"ĠOh":7696,"ilters":7697,"enses":7698,"herited":7699,"Ġdelay":7700,"runtime":7701,"Ġways":7702,"Ġsafe":7703,"ĠElement":7704,"sell":7705,"Ġstructures":7706,"Password":7707,"ĠLibrary":7708,"CRE":7709,"includegraphics":7710,"Ġparticularly":7711,"ĠResource":7712,"ĠIl":7713,"Ġblue":7714,"Compar":7715,"FORM":7716,"ĠJournal":7717,"issues":7718,"ĠXML":7719,"More":7720,"crete":7721,"sumer":7722,"sych":7723,"'ve":7724,"oday":7725,"ainers":7726,"ĠTeam":7727,"pping":7728,"HA":7729,"extension":7730,"Ġtemperature":7731,"ĠFestival":7732,"ocity":7733,"home":7734,"FE":7735,"Ġwrong":7736,"acro":7737,"WORD":7738,"itable":7739,"iverse":7740,"Ġbranch":7741,"Ġreader":7742,"Pub":7743,"Ġlives":7744,"icensed":7745,"Ġpri":7746,"horizontal":7747,"coq":7748,"Ġproduce":7749,"INTER":7750,"ĠMexico":7751,"Ġexit":7752,"Ġstored":7753,"ĠLocal":7754,"ĠSun":7755,"dere":7756,"war":7757,"required":7758,"fx":7759,"ĠHenry":7760,"Ġcolumns":7761,"itors":7762,"Ġagreed":7763,"effect":7764,"Ġstars":7765,"ĠOld":7766,"ĠAction":7767,"Ġacade":7768,"ima":7769,"Ġque":7770,"UD":7771,"icies":7772,"1982":7773,"Ġpanel":7774,"Gu":7775,"TA":7776,"Ġpriv":7777,"anda":7778,"cluster":7779,"Since":7780,".~\\":7781,"Ġstreng":7782,"3333":7783,"ĠBur":7784,"equiv":7785,"Tags":7786,"destroy":7787,"Sample":7788,"ĠTour":7789,"aming":7790,".\",":7791,"Stop":7792,"driver":7793,"adium":7794,"('/":7795,"Visible":7796,"ĠCarolina":7797,"vant":7798,"iated":7799,"Ġseems":7800,"Ġsupports":7801,"ronic":7802,"Ġprice":7803,"Ġboost":7804,"Arch":7805,"uing":7806,"Ġchalleng":7807,"fixed":7808,"Ġmeta":7809,"ĠItaly":7810,"inem":7811,"Ġextended":7812,"/***/":7813,"ĠSy":7814,"Ġforeign":7815,"Ġminimum":7816,"develop":7817,"ĠAS":7818,"Ġdrug":7819,"MODE":7820,"deg":7821,"Ġdeploy":7822,"Ġeth":7823,"Ġactor":7824,"dp":7825,"Ġ/*!<":7826,"ranch":7827,"Ġcursor":7828,"ĠFig":7829,"Ġignore":7830,"Ġbattle":7831,"ĠPet":7832,"azy":7833,"Ġidentity":7834,"Ġmachine":7835,"Ġsignature":7836,"Ġcapacity":7837,">()":7838,"Ġmedal":7839,"=&":7840,"Ġversions":7841,"'m":7842,"ĠSwed":7843,"ĠFire":7844,"Ġsurround":7845,"ĠKn":7846,"iano":7847,"Flag":7848,"Ġvalign":7849,"vey":7850,"embed":7851,"Ġbelieve":7852,"star":7853,"_);":7854,"resources":7855,"ainment":7856,"sidebar":7857,"role":7858,"Ġprev":7859,"Ign":7860,"overline":7861,"Cast":7862,"Ġplays":7863,"claim":7864,"ĠAtt":7865,"icine":7866,"Ġexam":7867,"Ġquite":7868,"Ġaccur":7869,"ĠSpace":7870,"factory":7871,"Ġawarded":7872,"Ġpurpose":7873,"ceeded":7874,"amous":7875,"150":7876,"mid":7877,"Ġended":7878,"Ġscored":7879,"Ġprefer":7880,"REQ":7881,"Ġwhom":7882,"ĠCongress":7883,"Nullable":7884,"Constructor":7885,"ĠPop":7886,"Ġextract":7887,"bing":7888,"Don":7889,"Ġcreation":7890,"fly":7891,"ady":7892,"ĠKar":7893,"Div":7894,"stone":7895,"Lower":7896,"Ġlaunch":7897,"Ġspan":7898,"Ġpages":7899,"supported":7900,"Conn":7901,"volume":7902,"Ġwor":7903,"ASSERT":7904,"åı":7905,"appro":7906,"Multi":7907,"Category":7908,"iana":7909,"ĠHot":7910,"Ġdrag":7911,"Ġinstalled":7912,"Ġapplications":7913,"Methods":7914,"Ġshoot":7915,"ĠOffice":7916,"rine":7917,"Ġhousehold":7918,"John":7919,"sb":7920,"rapped":7921,"ĠBi":7922,"radio":7923,"ipl":7924,"OwnProperty":7925,"fc":7926,"Ġschema":7927,"Ġdetail":7928,"1979":7929,"Ġworkers":7930,"Ġchoice":7931,"Look":7932,"emit":7933,"Lambda":7934,"ycle":7935,"Ġresulting":7936,"ĠSund":7937,"Ġlogger":7938,"endor":7939,"har":7940,"itz":7941,"enty":7942,"ĠLand":7943,"ĠNAME":7944,"ati":7945,"Ġstories":7946,"operation":7947,"Ġcli":7948,"ĠTim":7949,"UES":7950,"Ġpresence":7951,"Ġchem":7952,"Ġmanaged":7953,"iagnostics":7954,"Ġrgba":7955,"DEFAULT":7956,"Ġstrategy":7957,"Ġsegment":7958,"Ġplans":7959,"ĠGlobal":7960,"Ġlaunched":7961,"REE":7962,"\"],":7963,"uite":7964,"ĠScot":7965,"Ġdivision":7966,"ĠExample":7967,"ĠGl":7968,"oz":7969,"Ġterr":7970,"Ġvan":7971,"ĠRemove":7972,"FNGL":7973,"Ġ^":7974,"Report":7975,"Ġpaint":7976,"Ġreduce":7977,"Ġ''":7978,"Sequence":7979,"\"},":7980,"Ġturned":7981,"Ġreli":7982,"ican":7983,"ĠMur":7984,"Ġgoes":7985,"Ġ([":7986,"Notes":7987,")$,":7988,"Ġunion":7989,"when":7990,"Ġmix":7991,"Move":7992,"ĠBoolean":7993,"Ġmission":7994,"BIT":7995,"Example":7996,"Ġremote":7997,"Ġnoted":7998,"Ġstra":7999,"Private":8000,"Ġsomeone":8001,"generated":8002,"Convert":8003,"orning":8004,"Join":8005,"textbf":8006,"Make":8007,"Early":8008,"Wait":8009,"plus":8010,"ipped":8011,"Ġmatching":8012,"Ġvertical":8013,"Ġoffers":8014,"Capt":8015,"ĠFace":8016,"redu":8017,"ĠMult":8018,"ĠEr":8019,"Ġraised":8020,"arant":8021,"!!":8022,"ĠPass":8023,"ĠJun":8024,"video":8025,"pling":8026,"ĠPeople":8027,"Tx":8028,"Ġoccur":8029,"ĠAtl":8030,"Ġtheme":8031,"1981":8032,"Ġquickly":8033,"Ġcomplet":8034,"ĠPage":8035,"INSERT":8036,"asion":8037,"inf":8038,"udget":8039,"Total":8040,"Short":8041,"Ġhighlight":8042,"commit":8043,"bul":8044,"Ġentered":8045,"ĠMartin":8046,"tc":8047,"Linq":8048,"ubern":8049,"Ġfigure":8050,"uts":8051,"Ġsinger":8052,"Ġcommunities":8053,"ĠSpecial":8054,"Ġwinning":8055,"Ġenjoy":8056,"Ġspread":8057,"ĠDim":8058,"imitive":8059,"Ġnearly":8060,"POST":8061,"lict":8062,"sync":8063,"Ġpolitician":8064,"ĠBlock":8065,"Operator":8066,"Ġsuc":8067,"Ġwood":8068,"Ġmoving":8069,"Ġdecre":8070,"helper":8071,"duration":8072,"Proto":8073,"('#":8074,"Ġagent":8075,"IX":8076,"Ġloaded":8077,"Ġsal":8078,"Ġdimension":8079,"During":8080,"oved":8081,"Ġcomputer":8082,"Ġedition":8083,"ĠPRO":8084,"ĠAwards":8085,"acific":8086,"STATE":8087,"ĠWill":8088,"Ġinterval":8089,"kin":8090,"inherit":8091,"ivery":8092,"Ġprovider":8093,"Ġresponsible":8094,"pa":8095,"Ġelectric":8096,"Ġdetermin":8097,"ĠNavy":8098,"Ġmodified":8099,"Ġvariety":8100,"Driver":8101,"Axis":8102,"ĠMP":8103,"tk":8104,"ĠPack":8105,"oration":8106,"ajax":8107,"Ġautomatically":8108,"Ġsaying":8109,"Ġattention":8110,"awa":8111,"cluded":8112,"route":8113,"Ġfarm":8114,"Ġadopt":8115,"Ġcompare":8116,"irus":8117,"ĠLove":8118,"itan":8119,"ĠCommon":8120,"ĠYoung":8121,"******":8122,"appa":8123,"validate":8124,"ĠEach":8125,"services":8126,"Ġduration":8127,"clean":8128,"1978":8129,"power":8130,"AF":8131,"once":8132,"ĠTR":8133,".}":8134,"atomic":8135,"Binding":8136,"METH":8137,"Ġproto":8138,"ĠassertThat":8139,"Ġwarn":8140,"Ġindividuals":8141,"ĠAlthough":8142,"Fin":8143,"month":8144,"ien":8145,"()))":8146,"areer":8147,"800":8148,"ĠResult":8149,"fg":8150,"comple":8151,"ĠJo":8152,"uplic":8153,"Ð´":8154,"Ġbeaut":8155,"1972":8156,"warning":8157,"ologies":8158,"iagnostic":8159,"Ġapproximately":8160,"inity":8161,"ĠTrump":8162,"ĠGood":8163,"Renderer":8164,"ĠChief":8165,"Pair":8166,"geq":8167,"Ġdie":8168,"fmt":8169,"ĠOptional":8170,"INFO":8171,"Home":8172,"Ġrows":8173,"scribe":8174,"ographic":8175,"Ġwriters":8176,"Ġinform":8177,"ĠBrown":8178,"plates":8179,"Ġholds":8180,"zip":8181,"ĠDevelopment":8182,"Ġproducer":8183,"called":8184,"ĠFind":8185,">\"":8186,"pull":8187,"Ġreports":8188,"DT":8189,"umes":8190,"ĠSoftware":8191,"Ġvoice":8192,"stra":8193,"Ġidx":8194,"Ġ{\"":8195,"vs":8196,"Ġhighly":8197,"ĠImage":8198,"CALL":8199,"Ġmajority":8200,"While":8201,"ĠWal":8202,"Ġprocessing":8203,"ĠNav":8204,"ummy":8205,"Ã£":8206,"assembly":8207,"Ġbrand":8208,"ĠArab":8209,"ylvan":8210,"rast":8211,"Ġcancel":8212,"ĠValley":8213,"BP":8214,".<":8215,"upload":8216,"trl":8217,"apis":8218,"1976":8219,"compiler":8220,"ARG":8221,"Ġdepth":8222,"anging":8223,"Library":8224,"metric":8225,"otimes":8226,"Ġcarry":8227,"Ġentries":8228,"person":8229,"owner":8230,"ding":8231,"ĠSaint":8232,"ĠInput":8233,"Ġdetermined":8234,"className":8235,"Ġoccurred":8236,"Span":8237,"ters":8238,"Ġbasketball":8239,"May":8240,"sa":8241,"utral":8242,"120":8243,"Äĩ":8244,"ĠOl":8245,"ĠHome":8246,"RR":8247,"Google":8248,"Ġguide":8249,"apers":8250,"mir":8251,"Ġeq":8252,"indent":8253,"ĠAmazon":8254,"1968":8255,"Ġassigned":8256,"ĠSets":8257,"ĠFort":8258,"Ġhope":8259,"riage":8260,"Ġviews":8261,"(\"/":8262,"Ġdiag":8263,"Ġcandidate":8264,"ona":8265,"idae":8266,"Ġwild":8267,"tor":8268,"users":8269,"ĠLink":8270,"Ġcoast":8271,"ĠBusiness":8272,"ancing":8273,"ĠSto":8274,"Ġnotice":8275,"Dem":8276,"Ġproviding":8277,"Ġtournament":8278,"Ġfederal":8279,"ĠAny":8280,"elling":8281,">;":8282,"Symfony":8283,"Ġ@\"":8284,"Ġconversion":8285,"Ġsafety":8286,"username":8287,"ĠKh":8288,"oked":8289,"},\\":8290,"condition":8291,"Ġquestions":8292,"wer":8293,"clusion":8294,"Ġmultip":8295,"href":8296,"GLE":8297,"ĠLee":8298,"ĠSection":8299,")^":8300,"springframework":8301,"Ġprison":8302,"cover":8303,"SK":8304,"Ġpeak":8305,"Ġequivalent":8306,"ĠHead":8307,"ĠGar":8308,"VALID":8309,"dereq":8310,"Ġexpert":8311,"Å¡":8312,"ĠMov":8313,"vc":8314,"Ġannual":8315,"Ġtrust":8316,"dig":8317,"dy":8318,"Ġball":8319,":`":8320,"Ġsql":8321,"formance":8322,"Ġserve":8323,"Allow":8324,"etween":8325,"Ġpoet":8326,"ĠBre":8327,"1975":8328,"ĠStep":8329,"ĠEnter":8330,"ruby":8331,"Ġnp":8332,"ĠFree":8333,"Required":8334,"createElement":8335,"stitution":8336,"login":8337,"Sql":8338,"Ġsituation":8339,"compile":8340,"wp":8341,"icip":8342,"Ġprim":8343,"Ids":8344,"aka":8345,"itempty":8346,"Area":8347,"langle":8348,"1974":8349,"Mer":8350,"weet":8351,"ATCH":8352,"Ġsequ":8353,"('./":8354,"omitempty":8355,"frak":8356,"Ġcontents":8357,"sure":8358,"ĠWrite":8359,"lie":8360,";}":8361,"Ġdisease":8362,"rich":8363,"merge":8364,"Insert":8365,"Ġones":8366,"gest":8367,"1977":8368,"Sl":8369,"Language":8370,"zero":8371,"kins":8372,"Ġpressure":8373,"pat":8374,"Html":8375,"ierarch":8376,"ancellationToken":8377,"Ġstudied":8378,"ÑĮ":8379,"ĠHAL":8380,"Begin":8381,"Ġhospital":8382,"Ġincome":8383,"English":8384,"Ġcompletely":8385,"Ġvel":8386,"edom":8387,"MT":8388,"circ":8389,"Ġil":8390,"Ġreadonly":8391,"Ġarm":8392,"ustrial":8393,"mediate":8394,"ĠAuthor":8395,"ĠIns":8396,"Ġverify":8397,"mbox":8398,"Ġtools":8399,"tbody":8400,"Ġking":8401,"ĠCustom":8402,"QU":8403,"ĠLi":8404,"ĠSource":8405,"Ġsea":8406,"Validation":8407,"Ġ=========":8408,"ella":8409,"ĠParliament":8410,"sequence":8411,"Ġestablishments":8412,"CHAR":8413,"ylvania":8414,"ĠHaw":8415,"DEBUG":8416,"ĠCross":8417,"poration":8418,"Ġskip":8419,"osoph":8420,"ĠCreates":8421,"ĠAli":8422,"#{":8423,"displayName":8424,"ĠGi":8425,"report":8426,"Ġdocuments":8427,"ski":8428,"atar":8429,"ĠHam":8430,"Ġphil":8431,"ĠJim":8432,"Addr":8433,"rep":8434,"]))":8435,"Ġidentified":8436,"Ġappropriate":8437,"RAY":8438,"Ġusage":8439,"Ġimprove":8440,"ipment":8441,"usband":8442,"elements":8443,"zen":8444,"Ġaffect":8445,"docker":8446,"Failure":8447,"Ġneighbor":8448,"Ġwind":8449,"Ġgiving":8450,"ANT":8451,"Ġgeneration":8452,"Cloud":8453,"Ġwarning":8454,"Ġpoor":8455,"Notification":8456,"Strategy":8457,"Ġowned":8458,"ĠSecurity":8459,"mathfrak":8460,"Ġregistered":8461,"ĠStat":8462,"ansas":8463,"ubernetes":8464,"ĠServices":8465,"Ġbul":8466,"Are":8467,"ĠFROM":8468,"Ġbey":8469,"lat":8470,"lan":8471,"undred":8472,"even":8473,"signature":8474,"oles":8475,"cean":8476,"akistan":8477,"ĠTre":8478,"Ġregions":8479,"áĥ":8480,"pective":8481,"ĠManagement":8482,"Append":8483,"1973":8484,"green":8485,"hline":8486,"METHOD":8487,"{%":8488,"Ġexecution":8489,"GER":8490,"=(":8491,"Ġproced":8492,"Ġforced":8493,"Release":8494,"Ġlif":8495,"Ġaudio":8496,"ĠJoseph":8497,"Enter":8498,"ĠJud":8499,"groups":8500,"seconds":8501,"Audio":8502,"Ġgal":8503,"Ġriver":8504,"Ġvote":8505,"Ġdocumentation":8506,"ĠPromise":8507,"chen":8508,"liz":8509,"ĠArrayList":8510,"ĠWood":8511,"prise":8512,"ĠBrazil":8513,"game":8514,"Character":8515,"loop":8516,"Ġvalidation":8517,"ĠĠĠĠĠĠĠĠĠĠĠĠĠĠĠĠĠĠĠĠĠĠĠĠĠĠĠĠĠĠ":8518,"NET":8519,"DATA":8520,"Ġ'',":8521,"ĠBul":8522,"Ġpositions":8523,"Ġsenior":8524,"Ġexchange":8525,"Ġframework":8526,"Ġsuccessfully":8527,"Ġplot":8528,"Ġweak":8529,"Ġlaws":8530,"ador":8531,"Ġdict":8532,"complete":8533,"Ġchief":8534,"Ġdraft":8535,"Ġspirit":8536,"Ġmostly":8537,"seud":8538,"ĠMock":8539,"Program":8540,"disable":8541,"Ġbeyond":8542,"?>":8543,"netic":8544,"Cmd":8545,"standing":8546,"Require":8547,"ArgumentException":8548,"Ġul":8549,"maven":8550,"Phi":8551,"Ġdialog":8552,"123":8553,"loading":8554,"Ġsites":8555,"collapse":8556,"Some":8557,"Ä±":8558,"DEF":8559,"ĠINTO":8560,"Ġpp":8561,"Ġmusical":8562,"Ġsync":8563,"Ġderived":8564,"getValue":8565,"Ġproof":8566,"ugby":8567,"ĠWales":8568,"ĠEv":8569,"Basic":8570,"Ġhyp":8571,"Serializer":8572,"Ġfle":8573,"Ġwidget":8574,"expand":8575,"Ġrepresenting":8576,"Ġchoose":8577,"sass":8578,"Ġisland":8579,"yer":8580,"Ġiterator":8581,"olec":8582,"exist":8583,"Ġreserved":8584,"sive":8585,"ĠProperty":8586,"Ġrequested":8587,"prime":8588,"Unknown":8589,"Ang":8590,"Ġpull":8591,"ĠZend":8592,"Ġdetect":8593,"Ġheavy":8594,"fast":8595,"aters":8596,"Ġnorm":8597,"ĠControl":8598,"Ġspecify":8599,"<!":8600,"VM":8601,"ishes":8602,"agination":8603,"Returns":8604,"']['":8605,"Ð²":8606,"ashed":8607,"ssl":8608,"=\"${":8609,"inations":8610,"Ġmetal":8611,"visible":8612,"canvas":8613,"Ġclin":8614,"generate":8615,"oreign":8616,"ĠChampionships":8617,"di":8618,"ĠApache":8619,"Ġassembly":8620,"ĠMiddle":8621,"MIN":8622,"Observer":8623,"Complete":8624,"onic":8625,"ĠColumb":8626,"Ġfinish":8627,"Ġmurder":8628,"ĠCSS":8629,":\\":8630,"ORTED":8631,"ĠLem":8632,"LOC":8633,"Ġcharset":8634,"Ġnavigation":8635,"Screen":8636,"Drag":8637,"onal":8638,"1971":8639,"Ġadministr":8640,"going":8641,"GroupName":8642,"Ġdestination":8643,"ĠSD":8644,"1940":8645,"isc":8646,"Ġofficer":8647,"Bean":8648,"ĠEcon":8649,"ĠDocument":8650,"oston":8651,"addClass":8652,"NSString":8653,"Ġbrief":8654,"Ñĭ":8655,"Î±":8656,"Ġfig":8657,"ups":8658,"Ġ-=":8659,"pending":8660,"ĠEarth":8661,"ĠUs":8662,"ĠUSA":8663,"Free":8664,"Ġlatter":8665,"arden":8666,"Ġgovern":8667,"RT":8668,"ading":8669,"Raw":8670,"ĠIrish":8671,"Fragment":8672,"Ġplease":8673,"Environment":8674,"getElement":8675,"iful":8676,"Ġbecoming":8677,"Ġassign":8678,"Users":8679,"DIS":8680,")[":8681,"Ġsys":8682,"python":8683,"Ġmouse":8684,"ĠSupport":8685,"Ã£o":8686,"Ġpul":8687,"Ġstarts":8688,"Compiler":8689,"isEmpty":8690,"Ġsociety":8691,"Dat":8692,"Ġleaders":8693,"1969":8694,"Ġflex":8695,"she":8696,"ĠRadio":8697,"Ġshowed":8698,"ĠAdmin":8699,"ĠJS":8700,"Ġseasons":8701,"Ġvisual":8702,"Ġult":8703,"Border":8704,"ĠMen":8705,"Ġequation":8706,"Ġadding":8707,"ĠSoviet":8708,"Ð¼":8709,"ousing":8710,"STRING":8711,"lipse":8712,"some":8713,"Ġreb":8714,"ATED":8715,"react":8716,"ĠIran":8717,"Generated":8718,"chunk":8719,"HS":8720,"Ġreduced":8721,"Ġappearance":8722,"ATTR":8723,"ĠNorthern":8724,"ulty":8725,"sylvania":8726,"ONG":8727,"nab":8728,"Ġran":8729,"Ġmerge":8730,"ĠPri":8731,"ĠAsia":8732,"warn":8733,"Writ":8734,"1945":8735,"Objects":8736,"oub":8737,"ĠIII":8738,"plain":8739,"Ġserious":8740,"Ġfif":8741,"Ġvalidate":8742,"feature":8743,"Ġdisk":8744,"series":8745,"aby":8746,"Ġinstances":8747,"origin":8748,"Ġdevices":8749,"ĠProcess":8750,"CB":8751,"catch":8752,"ĠĠĠĠĠĠĠĠĠĠĠĠĠĠĠĠĊ":8753,"Watch":8754,"Ġalleg":8755,"wa":8756,"Sharp":8757,"Ġice":8758,"Ġillustr":8759,"ORY":8760,"ĠVector":8761,"Static":8762,"Throw":8763,"Ġ'.":8764,"Ġcommission":8765,"oir":8766,"Ġruntime":8767,"1967":8768,"selection":8769,"mond":8770,"Ġconcent":8771,"ications":8772,"urer":8773,"Book":8774,"Ġdespite":8775,"ĠSar":8776,"Ġleaving":8777,"ĠBob":8778,"Ġ\"%":8779,"ĠLL":8780,"racy":8781,"uly":8782,"aser":8783,"Åį":8784,"Ġsolutions":8785,"unct":8786,"Ġinfluence":8787,"Ġcomments":8788,"Ġdepartment":8789,"ĠHa":8790,"FFER":8791,"Ġcentre":8792,"Ġmaterials":8793,"views":8794,"enant":8795,"SELECT":8796,"ĠCentre":8797,"Ġeasily":8798,"Ġsurvey":8799,"Player":8800,"Ġorganizations":8801,"Day":8802,"mann":8803,"Ġroll":8804,"Drop":8805,"Ġdynamic":8806,"ĠStatus":8807,"xs":8808,"Ġarrest":8809,"ĠVALUES":8810,"vertical":8811,"Î¿":8812,"Ġ\"\";":8813,"Ġsteps":8814,"Ġintended":8815,"\"><!--":8816,"Ġsquare":8817,";)":8818,"goog":8819,"']);":8820,"Ġdrive":8821,"Ġmd":8822,"wan":8823,"Identity":8824,"ĠBlue":8825,"iffer":8826,"=\"$":8827,"ervation":8828,"Ġaspect":8829,"Ġscheme":8830,"MODU":8831,"Rows":8832,"MODULE":8833,"Ġadjust":8834,"Ġassume":8835,"CONT":8836,"porter":8837,"Ġnewsp":8838,"sen":8839,"ighter":8840,"ĠCard":8841,"haps":8842,"ĠPower":8843,"Ġcb":8844,"concat":8845,"%)":8846,"Ġsummary":8847,"1930":8848,"Save":8849,"Ġfirm":8850,"RC":8851,"Ġagreement":8852,"Env":8853,"objects":8854,"drag":8855,"IDTH":8856,"odies":8857,"agger":8858,"poses":8859,"raine":8860,"Ġ'%":8861,"ĠJohnson":8862,"amaz":8863,"ĠRest":8864,"awn":8865,"Cursor":8866,"ãĢĤ":8867,">)":8868,"ĉĉĉĉĉĉĊ":8869,"Ġinitially":8870,"Ġattended":8871,"localhost":8872,"rait":8873,"Normal":8874,"Ġconsists":8875,"quis":8876,"ĠEmpire":8877,"Ġfair":8878,"Ġcombined":8879,"250":8880,"Ġnullptr":8881,"airman":8882,"ĠWIT":8883,"TT":8884,"InputStream":8885,"Ġlived":8886,"ester":8887,"clusive":8888,"Ġjs":8889,"Ġhelped":8890,"rick":8891,"ĠInformation":8892,"Ġsouthern":8893,"uffers":8894,"diff":8895,"Ġcancer":8896,"Ġreferences":8897,"Ġslight":8898,"ixels":8899,"glyph":8900,"ĠWARRAN":8901,"bg":8902,"1964":8903,"NC":8904,"trace":8905,"Ġopacity":8906,"Ġcat":8907,"}}$":8908,"ĠDown":8909,"setup":8910,"subset":8911,"^^":8912,"Ġnorthern":8913,"Mapper":8914,"ĠOS":8915,"Ġencour":8916,"Ġnation":8917,"Ġperfect":8918,"constant":8919,"Folder":8920,"Ġvocals":8921,"Ġoil":8922,"ĠReport":8923,"ĠSpain":8924,"Ġchampionship":8925,"Ġcitiz":8926,"ĠHon":8927,"åĪ":8928,"Ġhusband":8929,"LOW":8930,"enger":8931,"definition":8932,"ĠGre":8933,";\">":8934,"Annotation":8935,"inder":8936,"Ġworth":8937,"000000":8938,"convert":8939,"Install":8940,"Ġexactly":8941,"ĠSir":8942,"Ġstock":8943,"elastic":8944,"Ġol":8945,"Ġclimate":8946,"Ġratio":8947,"CTYPE":8948,"ĠShort":8949,"Ġcounty":8950,"resp":8951,"Ã±":8952,"imp":8953,"Ġaccepted":8954,"Ġonto":8955,"assertTrue":8956,"Effect":8957,"Ġemb":8958,"ĠTechnology":8959,"\\/":8960,"Ġblood":8961,"Ġga":8962,"ĠTheir":8963,"Ġmagazine":8964,"extra":8965,"accept":8966,"Ġvacc":8967,"Ġdeb":8968,"Ġimplemented":8969,"Ġcarried":8970,"Ġoperating":8971,"ĠMichigan":8972,"alias":8973,"Ġoffered":8974,"Ġefforts":8975,"Ġcovered":8976,"orial":8977,"Arguments":8978,"Clear":8979,"ĠBattle":8980,",-":8981,"Ġboundary":8982,"Connect":8983,"Ġnumerous":8984,"Rob":8985,"flex":8986,"simple":8987,"ĠCA":8988,"Expected":8989,"ĠGir":8990,"Batch":8991,"Ġeveryone":8992,"Loop":8993,"Ġpi":8994,"bose":8995,"Summary":8996,"iminal":8997,"Rev":8998,"Ġspin":8999,"hl":9000,"ums":9001,"eces":9002,"Ġopportunity":9003,"600":9004,"Groups":9005,"kl":9006,"LY":9007,"icode":9008,"Ġ\"'":9009,"Platform":9010,"alo":9011,"Ġpil":9012,"Bits":9013,"Ġcensus":9014,"Ġsynchron":9015,"Ġexamples":9016,"Ġsupply":9017,"ĠSign":9018,"ĠConference":9019,"IA":9020,"ĠDemocratic":9021,"NotFound":9022,"aph":9023,"ĠChannel":9024,"Timer":9025,"ĉĠĠ":9026,"nonumber":9027,"Landroid":9028,"Ġguest":9029,"ARB":9030,"PU":9031,"ulator":9032,"OF":9033,"dimension":9034,"Contains":9035,"colLast":9036,"assign":9037,"ĠBor":9038,"Ġmonitor":9039,"Ġoccurs":9040,"ashion":9041,"elligence":9042,"ĠLord":9043,"tailed":9044,"println":9045,"SM":9046,"large":9047,"trim":9048,"osis":9049,"ANCE":9050,",'":9051,"Edge":9052,"isset":9053,"Ġapplicable":9054,"ÐµÐ½":9055,"Ġtracks":9056,"Ġfelt":9057,"Ġfans":9058,"lots":9059,"uzz":9060,"Usage":9061,"iques":9062,"ĠProvince":9063,"emporary":9064,"ĠFacebook":9065,"yy":9066,"oices":9067,"cha":9068,"ĠPennsylvania":9069,"1920":9070,"Ġzone":9071,"Resolver":9072,"Remote":9073,"native":9074,"ĠWeek":9075,"Ġhor":9076,"ennis":9077,"remarks":9078,"ĠWell":9079,"Ġtypically":9080,"alog":9081,"Ġlabels":9082,"kappa":9083,"ĠPrem":9084,"Ġmerg":9085,"popup":9086,"ĠTw":9087,"EEEE":9088,"ustain":9089,"ĠBow":9090,"ĠClient":9091,"pear":9092,"1965":9093,"Cur":9094,"ĠMah":9095,"Ġcamera":9096,"ldots":9097,"ĉĠĠĠĠĠĠĠĠĠĠĠĠ":9098,"Ġ\\\"":9099,"oned":9100,"ĠJones":9101,"aling":9102,"Ġuniversity":9103,"Ġessential":9104,"According":9105,"sid":9106,"Ġbillion":9107,"Idx":9108,"cursor":9109,"Ġcompute":9110,"Ġsamples":9111,"Ġ|=":9112,"ELD":9113,"ĠRam":9114,"ryption":9115,"Ġbinding":9116,"Focus":9117,"iments":9118,"ĠĠĠĊ":9119,"Ġsales":9120,"Ġthr":9121,"Ġextend":9122,"Ġpaths":9123,"Activ":9124,"Ġhappen":9125,"dem":9126,"wild":9127,"1966":9128,"Place":9129,"orders":9130,"IAL":9131,"emy":9132,"Ġidentifier":9133,"Ġ'\"":9134,"raining":9135,"Ġ\".":9136,"ctrine":9137,"Ġadult":9138,"plementation":9139,"Ġ=======":9140,"dash":9141,"Two":9142,"touch":9143,"gebra":9144,"Analysis":9145,"icol":9146,"pons":9147,"Ġcolon":9148,"BAR":9149,"Ġtasks":9150,"ĠSouthern":9151,"Execution":9152,"Thelia":9153,"Ġcities":9154,"ĠThus":9155,"ĠMany":9156,"zz":9157,"Ġcook":9158,"Ġsb":9159,"highlight":9160,"colFirst":9161,"ĠGreek":9162,"Ġstrateg":9163,"Ġaccom":9164,"Ġfrequency":9165,"ĠPacific":9166,"Alloc":9167,"Ġjoint":9168,"_)":9169,"Ġcru":9170,"SCR":9171,"ila":9172,"toolbar":9173,"exit":9174,"Chart":9175,"BY":9176,"Sim":9177,"urban":9178,"Serv":9179,"Ġtags":9180,"\"].":9181,"Ġdescriptor":9182,"Ġpermissions":9183,"policy":9184,"iga":9185,"ione":9186,"iar":9187,"rtl":9188,"Ġreligious":9189,"aylor":9190,"Many":9191,"blank":9192,"Ġtrial":9193,"Sur":9194,"repeat":9195,"IOException":9196,"hpp":9197,"flo":9198,"ĠLab":9199,"Ġprocesses":9200,"ĠAbstract":9201,"=-":9202,"ĠEp":9203,"ĠPolice":9204,"DOCTYPE":9205,"memory":9206,"CG":9207,"ether":9208,"Produ":9209,"Ġ×":9210,"sn":9211,"tsd":9212,"Ġclone":9213,"Ġissued":9214,"inois":9215,"Ġpiece":9216,"Career":9217,"bro":9218,"Ġordered":9219,"Ġforest":9220,"uries":9221,"Dr":9222,"TF":9223,"ĠCommunity":9224,"Ġrailway":9225,"Ġnine":9226,"ĠÂ£":9227,"CLASS":9228,"apes":9229,"Ġseat":9230,"Family":9231,"Ġ..":9232,"ository":9233,"Ġanswer":9234,"structions":9235,"ĠOhio":9236,"Ġparties":9237,"Validator":9238,"Ġsocket":9239,"uset":9240,"Ġvictory":9241,"toBe":9242,"»¿":9243,"ĠConvert":9244,"Ġconn":9245,".\"\"\"":9246,"Messages":9247,"Ġcloud":9248,"Ġpayload":9249,"()),":9250,"Management":9251,"gregate":9252,"Ġarmy":9253,"Ġhistorical":9254,"ĠMos":9255,"Encoding":9256,"rg":9257,"pb":9258,"iversal":9259,"Enumerable":9260,"Ġstyles":9261,"USER":9262,"}-":9263,"jd":9264,"ä»":9265,"Ġdistinct":9266,"Ġpartner":9267,"ĠHistoric":9268,"dc":9269,"pared":9270,"contents":9271,"Ġdrama":9272,"anaged":9273,"database":9274,"Ġthous":9275,"Ġfactors":9276,"ĠPO":9277,"ben":9278,"ĠBritain":9279,"Ġangular":9280,"ï»¿":9281,"Errors":9282,"goto":9283,"compare":9284,"ĠĠĠĠĠĠĠĠĠĠĠĠĠĠĠĠĠĠĠĠĠĠĠĠĠĠĠĠĠĠĠĠĠ":9285,"SI":9286,"ĠSIZE":9287,"Warning":9288,"atriate":9289,"riev":9290,"Constant":9291,"UND":9292,"ĠUtil":9293,"ĠSunday":9294,"article":9295,"Leg":9296,"ĠCivil":9297,"available":9298,"Ġrelations":9299,"ĠHuman":9300,"Ġofficers":9301,"ĠIter":9302,"Ġhol":9303,"aver":9304,"Ġclock":9305,"boldsymbol":9306,"ĠFrancisco":9307,"enth":9308,"iced":9309,"Ġru":9310,"Sep":9311,"Br":9312,"calendar":9313,"isms":9314,"omer":9315,"Plan":9316,"Ġgrowing":9317,"ĠIL":9318,"Metrics":9319,"Ġmentioned":9320,"Ġstraight":9321,"Ã¢":9322,"tw":9323,"rece":9324,"Ġfamous":9325,"Ġtensor":9326,"Ġendpoint":9327,"Ġdownload":9328,"Same":9329,"vol":9330,"country":9331,"Ġrare":9332,"batch":9333,"ĠLoad":9334,"Ġalone":9335,"cour":9336,"black":9337,"alyt":9338,"jpg":9339,"Ġresidents":9340,"ĠWater":9341,"Ġphone":9342,"Ġestimated":9343,"utdown":9344,"ĠJac":9345,"owers":9346,"kee":9347,"encode":9348,"Ġ?>":9349,"Ġdynam":9350,"ussian":9351,"sr":9352,"Skip":9353,"otic":9354,"Emit":9355,"ĠWilliams":9356,"asm":9357,"hasOwnProperty":9358,"ĠAff":9359,"NUM":9360,"ĠBoth":9361,"onymous":9362,"ĠGeorgia":9363,"BUFFER":9364,"pointer":9365,"Ġfiction":9366,"blue":9367,"amazon":9368,"ĠSearch":9369,"ĠDelete":9370,"world":9371,"sin":9372,"navList":9373,"Ġclaimed":9374,"Ġprem":9375,"ĠRh":9376,"rawn":9377,"HEAD":9378,"ĠAlbert":9379,"Ġmapping":9380,"Ġple":9381,"changed":9382,"losure":9383,"Ġdefeated":9384,"Ġescape":9385,"Ġrevealed":9386,"ifically":9387,".;":9388,"Email":9389,"ĠPakistan":9390,"Ġrecording":9391,"ĠSE":9392,"Ġdog":9393,";\\":9394,"ĠCount":9395,"DEX":9396,"Contents":9397,"Ġchosen":9398,"Ġmobile":9399,"Ġtd":9400,"ĠIslam":9401,"Ġexpanded":9402,"ĠResponse":9403,"cher":9404,"Runner":9405,"ĠJersey":9406,"spi":9407,"uv":9408,"CM":9409,"EXPORT":9410,"ĠElect":9411,"Ġcomparison":9412,"BB":9413,"Ġrates":9414,"ĠÐ¿":9415,"Ġbelong":9416,"Ġ----------------------------------------------------------------":9417,"Ġbug":9418,"çĶ":9419,"Ġreturning":9420,"kt":9421,"ĠQueen":9422,"\"./":9423,"Ġjourn":9424,"Ġdeclared":9425,"ĠALIGN":9426,"ðŁ":9427,"aya":9428,"gypt":9429,"ĠAsian":9430,"ni":9431,"Ġclaims":9432,"ĠVan":9433,"Ġrelevant":9434,"dispatch":9435,"Ġreferred":9436,"allclasses":9437,"ĠOx":9438,"agent":9439,"Virtual":9440,"OM":9441,"ĠStandard":9442,"reader":9443,"Ġresolution":9444,"Chunk":9445,"Ġcapture":9446,"Export":9447,"Ġconstructed":9448,"Zone":9449,"Ġaim":9450,"Ġindicates":9451,"Ġelections":9452,"itage":9453,"Declaration":9454,"CONFIG":9455,"Should":9456,"ĠJewish":9457,"ĠStream":9458,"alty":9459,"Points":9460,"Ġreasons":9461,"orney":9462,"Ġmarked":9463,"ĠON":9464,"Ġsy":9465,"=>":9466,"wall":9467,"Chain":9468,"rie":9469,"phy":9470,"Ġdamage":9471,"Bounds":9472,"ĠWrit":9473,"water":9474,"Ġserving":9475,"ĠWay":9476,"(\"%":9477,"Ġkept":9478,"ĠPlan":9479,"Films":9480,"Ġpal":9481,"ĠSenate":9482,"Ġrequirements":9483,"circle":9484,"stein":9485,"Timestamp":9486,"Bool":9487,"ĠKent":9488,"Ġlisting":9489,"Ġallowing":9490,"Ġalternative":9491,"quote":9492,"ĠDig":9493,"una":9494,"Ġfloor":9495,"Game":9496,"ĠRefer":9497,"TY":9498,"Bi":9499,"opes":9500,"ĠGuide":9501,"Ġfragment":9502,"'d":9503,"Ġhundred":9504,"Ġcultural":9505,"ĠHospital":9506,"ĠOrgan":9507,"cancel":9508,"Ġflat":9509,"ĠPolicy":9510,"Touch":9511,"uy":9512,"pet":9513,"Ġ```":9514,"Ġadministration":9515,"jet":9516,"Ġmodify":9517,"VAR":9518,"illy":9519,"Ġfeat":9520,"EEEEFF":9521,"Ġinteresting":9522,"Segment":9523,"WIN":9524,"Ġlab":9525,"aturday":9526,"ĠBoston":9527,"ĠMember":9528,"ĠRos":9529,"burgh":9530,"ĠKen":9531,"Ġens":9532,"ĠEND":9533,"neg":9534,"sky":9535,"license":9536,"tf":9537,"ĠMaster":9538,"Ġfav":9539,"Ġhour":9540,"ĠMid":9541,"Ġshop":9542,"two":9543,"Ġpandemic":9544,"bean":9545,"Ġembed":9546,"ĠAndroid":9547,"Äį":9548,"integer":9549,"resize":9550,"ĠCEL":9551,"ĠEV":9552,"expression":9553,"RPC":9554,"Light":9555,"PY":9556,"separ":9557,"amm":9558,"ĠclassName":9559,"Ġwaves":9560,"Ġ$_":9561,"101":9562,"AST":9563,"ĠCoast":9564,"transparent":9565,"ucky":9566,"1963":9567,"umin":9568,"\"/></":9569,"Information":9570,"Ġadvant":9571,"General":9572,"ĠSl":9573,"messages":9574,"Ġtraffic":9575,"Ġevolution":9576,"ĠDesign":9577,"variable":9578,"pad":9579,"ÅĤ":9580,"ĠHas":9581,":'":9582,")\",":9583,"Ġbridge":9584,"Diagnostics":9585,"('<":9586,"Ġuniform":9587,"bury":9588,"erts":9589,"Ġ\"${":9590,"ĠNet":9591,"fake":9592,"Dig":9593,"Ġfish":9594,"Ġactors":9595,"iÃ³n":9596,"ĠSports":9597,"ĠCH":9598,"Ġweap":9599,"æľ":9600,"sig":9601,"ĠFar":9602,"adel":9603,"}]":9604,"Ġspaces":9605,"program":9606,"fold":9607,"/{":9608,"å®":9609,"ignore":9610,"abeth":9611,"Ġlands":9612,"ĠFOR":9613,"cfg":9614,"Ġconnections":9615,"usetts":9616,"achusetts":9617,"promise":9618,"ĠSimple":9619,"Ġrestaur":9620,"Ġalias":9621,"================================================================":9622,"citep":9623,"ĠMot":9624,"cli":9625,"ĠProdu":9626,"facebook":9627,"Ġgra":9628,"Ġregional":9629,"kwargs":9630,"ĠConf":9631,"Ġbatch":9632,"wd":9633,"Real":9634,"iser":9635,"jac":9636,"Ġconfirmed":9637,"Expect":9638,"Ġchance":9639,"AUT":9640,"EST":9641,"Ġconverted":9642,"Ġinnov":9643,"vin":9644,"hetic":9645,"180":9646,"Ġidentify":9647,"onto":9648,"ATOR":9649,"ARRAY":9650,"rical":9651,"ĠJoe":9652,"Ġsingles":9653,"Columns":9654,"=\\\"":9655,"Processor":9656,"ĠScotland":9657,"})$":9658,"Ġlanguages":9659,"nic":9660,"Eval":9661,"1962":9662,"Ġpretty":9663,"bus":9664,"Ġtranslation":9665,"Best":9666,"vement":9667,"National":9668,"Ġattract":9669,"FALSE":9670,"Ġcanvas":9671,"ĠRepresent":9672,"Ġremember":9673,"Ġfocused":9674,"Ġprotection":9675,"lications":9676,"ĠMajor":9677,"Ġdiscus":9678,"STATUS":9679,"Ġloading":9680,"Console":9681,"created":9682,"inject":9683,"ĠCapt":9684,"/.":9685,")-":9686,"Bottom":9687,"Ġcosts":9688,"mac":9689,"irds":9690,"gments":9691,"PROJECT":9692,"(.":9693,"etic":9694,"ysics":9695,"Ġlabor":9696,"FIX":9697,"decor":9698,"ĠLast":9699,"ĉĉĉĉĉĉĉĉĉĉ":9700,"ĠSand":9701,"UST":9702,"Ġtried":9703,"ulf":9704,"Ġequipment":9705,"ARN":9706,"ĠAT":9707,"Sm":9708,"LED":9709,"assandra":9710,"Ġsecondary":9711,"<<":9712,"ĠAre":9713,"ĠDB":9714,"ĠRoute":9715,"aught":9716,"Ġassess":9717,"mount":9718,"ĠSecretary":9719,"Ġsaved":9720,"ĠBad":9721,"'].":9722,"Ġshowing":9723,"previous":9724,"Ġcouncil":9725,"ĠJr":9726,"Ġupdates":9727,"arters":9728,"lyn":9729,"iy":9730,"agon":9731,"ĠTro":9732,"Mount":9733,"Ġcontinues":9734,"ĠTheatre":9735,"Ġpaid":9736,"Ġlooks":9737,"ORDER":9738,"ĠPsi":9739,"Ġoverflow":9740,"methods":9741,"ĠAccess":9742,"fff":9743,"ĠNight":9744,"actual":9745,"Ġassociation":9746,"ĠIllinois":9747,"Ġpurs":9748,"Ġarchitecture":9749,"Ġliterature":9750,"1944":9751,"ĠAndrew":9752,"ĠJon":9753,"/_":9754,"/\"":9755,"Ġmainly":9756,"plan":9757,"Ġdepends":9758,"Ġisol":9759,"ĠBern":9760,"ĠLuc":9761,"Ġofficials":9762,"np":9763,"ILD":9764,"audio":9765,"ï¼Į":9766,"Extensions":9767,"Ġele":9768,"compute":9769,"Pred":9770,"Ġdiscovered":9771,"strip":9772,"ĠCro":9773,"Literal":9774,"Ġdisable":9775,"bc":9776,"blob":9777,"Ġdaily":9778,"Ġlocations":9779,"download":9780,"teen":9781,"player":9782,"Ġsister":9783,"DR":9784,"ĠPhilipp":9785,"...</":9786,"Ġexecuted":9787,"Ġhands":9788,"Ġmill":9789,"Bal":9790,"NavBarFont":9791,"Ġvehicle":9792,"Ġdedicated":9793,"iph":9794,"Ġcas":9795,"ĠCurrent":9796,"Ġcopies":9797,"Tasks":9798,"ĠLight":9799,"bat":9800,"Ġcontained":9801,"Ġnewly":9802,"ĠWild":9803,"ĠReal":9804,"ĠFederal":9805,"Cancel":9806,"Canvas":9807,"ĠSea":9808,"Ġdelegate":9809,"Contact":9810,"Ġ'-":9811,"ĠGra":9812,"MAP":9813,"Ġfrag":9814,"Ġnotes":9815,"gi":9816,"directory":9817,"Ġmotion":9818,"forward":9819,"Ġexpansion":9820,"Ġregarding":9821,"Ġships":9822,"Signature":9823,"ogram":9824,"Ġacid":9825,"Ġvm":9826,"ĠEdward":9827,"Counter":9828,"{-":9829,"127":9830,"Ġsector":9831,"dots":9832,"Ġindicate":9833,"Ġbas":9834,"ĠDaniel":9835,"life":9836,"ĠKong":9837,"Sem":9838,"Rout":9839,"Ġwestern":9840,"vo":9841,"ĠWed":9842,"Ġmodules":9843,"Shader":9844,"ARD":9845,"ĠServer":9846,"ederation":9847,"tensor":9848,"Ġparsed":9849,"apy":9850,"Ġprofessor":9851,"Labels":9852,"DATE":9853,"Ġsquad":9854,"ĠPFNGL":9855,"NN":9856,"ĠBang":9857,"Ġlett":9858,"tooltip":9859,"finite":9860,"ĠBY":9861,"ĠRegion":9862,"thrift":9863,"ĠHy":9864,"ENABLE":9865,"ĠTwitter":9866,"Reset":9867,"omorph":9868,"Serialization":9869,"jax":9870,"Ġroles":9871,"Ġbass":9872,"Ġbill":9873,"strings":9874,"agma":9875,"inent":9876,"puter":9877,"Verify":9878,"ĠWall":9879,"nership":9880,"submit":9881,"SG":9882,"ĠBa":9883,"front":9884,"Exists":9885,"pair":9886,"TypeDef":9887,"ĠIllegal":9888,"Ġpermission":9889,"Ġinject":9890,"plot":9891,"iency":9892,"ĠBroad":9893,"pton":9894,"%\"":9895,"Ġfinite":9896,"Ġrotate":9897,"ĠApple":9898,"1234":9899,"fetch":9900,"Ġring":9901,"Ġsettlement":9902,"bitr":9903,"iration":9904,"Ġexecutive":9905,"Ġtal":9906,"thm":9907,"orient":9908,"Ġrapid":9909,"ruit":9910,"Ġcombination":9911,"pector":9912,"Ġcars":9913,"Ġmorning":9914,"Ġtrace":9915,"/*!":9916,"ĠParse":9917,"ĠSem":9918,"Ġcalc":9919,"Ġfine":9920,"camel":9921,"Ġelif":9922,"RED":9923,"Ġcustomers":9924,"usters":9925,"commons":9926,"Ġadvert":9927,"1961":9928,"ĠRow":9929,"ANG":9930,"notations":9931,"ĠDutch":9932,"Ð°Ð½":9933,"ampions":9934,"Disc":9935,"amer":9936,"Ġpriority":9937,"ĠGovernor":9938,"hesis":9939,"ĠPrince":9940,"esome":9941,"tar":9942,"Month":9943,"lower":9944,"ĠStan":9945,"atics":9946,"Ġconducted":9947,"Ġsignificantly":9948,"icial":9949,"Ġstats":9950,"atern":9951,"amin":9952,"Ġfake":9953,"Ġcommands":9954,"These":9955,"Ġextrem":9956,"Ġradius":9957,"Ġunderlying":9958,"ĠLatin":9959,"125":9960,"Rate":9961,"Ġtick":9962,"ÏĦ":9963,"Then":9964,"priv":9965,"ĠFC":9966,"Packet":9967,"havior":9968,"ĠOutput":9969,"Brit":9970,"Ġconference":9971,"]+":9972,"Ġleadership":9973,"hard":9974,"Ġinterrupt":9975,"Ġbuy":9976,"sex":9977,"ĠRepublican":9978,"ĠMedical":9979,"uce":9980,"Blob":9981,"ĠJes":9982,"Further":9983,"ĠBal":9984,"United":9985,"zing":9986,"ogen":9987,"Ġcycle":9988,"bel":9989,"ĠPortug":9990,"Ġpet":9991,"âĢĿ.":9992,"Ġmotor":9993,"Ġpeace":9994,"ĠCorporation":9995,"Ġshell":9996,"ĠBol":9997,"Phas":9998,"Ġaccomp":9999,"Ġbelieved":10000,"ĠContent":10001,"ÑģÑĤ":10002,"ĠByte":10003,"ĠApplication":10004,"Ġyouth":10005,"Ġdst":10006,"ysical":10007,"Ġgalax":10008,"HERE":10009,"ials":10010,"Ġformation":10011,"Ġpassing":10012,"ĠLive":10013,"lets":10014,"Ġarticles":10015,"Ġangle":10016,"Azure":10017,"Ġcomedy":10018,"Ġpending":10019,"Ġcreates":10020,"Ġleaves":10021,"Ġfellow":10022,"Transition":10023,"stable":10024,"Ġwall":10025,"porate":10026,"Dependency":10027,"Ġemployees":10028,"ĠRay":10029,"ĠBrook":10030,"Ġbatt":10031,"isted":10032,"edu":10033,"Ġinitialize":10034,"ĠJeff":10035,"Ġmetric":10036,"LICENSE":10037,"Visual":10038,"Ġinstant":10039,"deprecated":10040,"Clo":10041,"Assembly":10042,"Secret":10043,":@\"":10044,"ĠCG":10045,"chester":10046,"NODE":10047,"Ġinfra":10048,"Ġoperated":10049,"Our":10050,"Present":10051,"Ġimg":10052,"cker":10053,"Ġlogging":10054,"esian":10055,"ipping":10056,"cest":10057,"Permission":10058,"Ġends":10059,"&\\":10060,"Ġhide":10061,"hu":10062,"OPT":10063,"Phaser":10064,"ĠNon":10065,"ĉĉĠĠĠ":10066,"lov":10067,"Ġelim":10068,"Ġcorner":10069,"topic":10070,"swarm":10071,"Features":10072,"ibli":10073,"VICE":10074,"ĠMassachusetts":10075,"apos":10076,"Wallet":10077,"Ġmo":10078,"epend":10079,"Ġcontinuous":10080,"PHP":10081,"eed":10082,"sym":10083,"delay":10084,"LIST":10085,"Ġplus":10086,"110":10087,"transaction":10088,"xhtml":10089,"ĠSpring":10090,"IDE":10091,"Ġfs":10092,"ĠAM":10093,"ĠEastern":10094,"ĠLittle":10095,"ILITY":10096,"Ġcached":10097,"TIES":10098,"Ġclassical":10099,"amilton":10100,"ĠCore":10101,"Ġcomposed":10102,"Sigma":10103,"ĠDEFAULT":10104,"ĠEnvironment":10105,"ĠSciences":10106,"ingham":10107,"atial":10108,"estic":10109,"Ġadvance":10110,"ĠCy":10111,"BOOL":10112,"Ġboy":10113,"locale":10114,"licenses":10115,"Ġtopic":10116,"columns":10117,"ĠSaf":10118,"Ġ'_":10119,"ĠÅ":10120,"Ġmeant":10121,"kes":10122,"agraph":10123,"Ġheard":10124,"ĠCons":10125,"Supported":10126,"Ġwire":10127,"Ready":10128,"INST":10129,"Ġprepar":10130,"Ġcer":10131,"Ġpsych":10132,"onday":10133,"Ġseed":10134,"reatest":10135,"ami":10136,"uality":10137,"seq":10138,"Ġdelta":10139,"Ġstreet":10140,"numerus":10141,"ĠRecord":10142,"numerusform":10143,"fol":10144,"ĠEvery":10145,"ĠHarr":10146,"blog":10147,"1942":10148,"=[":10149,"ĠNext":10150,"Tim":10151,"Rules":10152,"textit":10153,"occer":10154,"ships":10155,"Ġce":10156,"ĠHandle":10157,"Ġanc":10158,"Ġpoliticians":10159,"Ġguarant":10160,"1958":10161,"Ġstatistics":10162,"ĠWin":10163,"ĠJackson":10164,"Snapshot":10165,"ĠWARRANTIES":10166,"ĠAri":10167,"Ġpoly":10168,"ĠPlease":10169,"Dispatch":10170,"mag":10171,"ĠMu":10172,"Converter":10173,"elcome":10174,"Ġacquired":10175,"BI":10176,"ĠConfiguration":10177,"Buf":10178,"ĠEq":10179,"Ġtimestamp":10180,"Graphics":10181,"ĠChris":10182,"ensuremath":10183,"}'":10184,"Ġfacilities":10185,"HAL":10186,"RESULT":10187,"Ġrecip":10188,"ERS":10189,"pler":10190,"perm":10191,"inesses":10192,"Ġven":10193,"gg":10194,"æĸ":10195,"ĠThread":10196,"Ġleads":10197,"inion":10198,"Ġflight":10199,"Delay":10200,"ĠLib":10201,"Ġunderstanding":10202,"ĠJustice":10203,"extensions":10204,"iders":10205,"ti":10206,"alert":10207,"unte":10208,"abc":10209,"ĠKorea":10210,"Ġspot":10211,"ĠFriday":10212,"about":10213,"ĠContext":10214,"PM":10215,"encoding":10216,"elasticsearch":10217,"ferred":10218,"ĠQuery":10219,"1956":10220,"cknow":10221,"Ġinstrument":10222,"Ġ'./":10223,"issue":10224,"Ġpartition":10225,"Ġattacks":10226,"athan":10227,"(['":10228,"nabla":10229,"iper":10230,"Ġdependencies":10231,"Ġpowerful":10232,"ubble":10233,"dep":10234,"Warn":10235,"Ġacademic":10236,"Ġahead":10237,"åĲ":10238,"ĠMike":10239,"scr":10240,"West":10241,"1959":10242,"ĠFour":10243,"pres":10244,"appendChild":10245,"Ġbeat":10246,"Ġadvanced":10247,"itionally":10248,"ĠEst":10249,"Ġwave":10250,"kubernetes":10251,"isArray":10252,"Ġcommunication":10253,"VO":10254,"Depth":10255,"Ġtwice":10256,"rovers":10257,"letter":10258,"Ġther":10259,"relative":10260,"Ġtrees":10261,"Ġeconomy":10262,"Ġdestroyed":10263,"Here":10264,"Navigation":10265,"how":10266,"cit":10267,"Ġaware":10268,"Ġlat":10269,"ĠEven":10270,"Ġauthors":10271,"loyment":10272,"yo":10273,"ceptor":10274,"anchor":10275,"Ġpairs":10276,"ĠEgypt":10277,"Ġmeasures":10278,"ĠUkraine":10279,"recated":10280,"Ġwaiting":10281,"FOR":10282,"ĠConserv":10283,"/\\":10284,"Sports":10285,"cdn":10286,"Ġkill":10287,"Site":10288,"Ġsport":10289,"igator":10290,"Card":10291,"ĠConnect":10292,"Switch":10293,"Ġsending":10294,"IMIT":10295,"ĠWalk":10296,"Under":10297,"odd":10298,"1948":10299,"Ġsan":10300,"Ġease":10301,"basic":10302,"Ġtokens":10303,"Ġorient":10304,"ĠDub":10305,"URCE":10306,"Ġbounds":10307,"ĠNa":10308,"Ġter":10309,"listener":10310,"Ġwinner":10311,"Und":10312,"Ġretired":10313,"Ġdefaults":10314,"crement":10315,"}}{":10316,"ĠVari":10317,"Ġpersonnel":10318,"ĠOriginal":10319,"Optional":10320,"ĠColumbia":10321,"Ġpref":10322,"ĠPHP":10323,">\\":10324,"ĠDar":10325,"rog":10326,"ĠĠĠĠĠĠĠĠĠĠĠĠĠĠĠĠĠĠĠĠĠĠĠĠĠĠĠĠĠĠĠĠĠĠĠĠĠĠĠĠĠĠĠĠĠĠĠ":10327,"setAttribute":10328,"Ġve":10329,"Upload":10330,"\\[":10331,"Ġanyone":10332,"ĠProt":10333,"Ġmuseum":10334,"ĠChange":10335,"ĠRailway":10336,"1943":10337,"inx":10338,"ĠNE":10339,"cores":10340,"Ġearned":10341,"ĠWis":10342,"ulpt":10343,"ierarchy":10344,"wildfly":10345,"porated":10346,"ntario":10347,"Ġplants":10348,"\\%":10349,"Ñĩ":10350,"Ġfort":10351,"\\'":10352,"attery":10353,"LETE":10354,"ĠCR":10355,"Ġreceiving":10356,"Ġ'$":10357,"Ġbegins":10358,"feed":10359,"Ġfresh":10360,"Ġtor":10361,"()</":10362,"SCRIPT":10363,"ĠØ":10364,"Ġwrapper":10365,"Ġaudience":10366,"ĠRights":10367,"CDATA":10368,"aks":10369,"Ġfeet":10370,"ĠJean":10371,"Ġfoo":10372,"validation":10373,"Hub":10374,"Priority":10375,"Ġmaps":10376,"direction":10377,"notes":10378,"ĠTerm":10379,"gregation":10380,"interval":10381,"Ġaffected":10382,"\"];":10383,"Nd":10384,"ears":10385,"flat":10386,"getElementById":10387,"Ġwants":10388,"Ġmiles":10389,"ĠPoland":10390,"ĠTherefore":10391,"React":10392,"ĠFund":10393,"uations":10394,"Standard":10395,"Ġawards":10396,"Abs":10397,"Ġdetailed":10398,"ĠPrime":10399,"ideos":10400,"Ġattached":10401,"ĠHong":10402,"ĠAlb":10403,"Ġvon":10404,"ĠCloud":10405,"Ġprove":10406,"1939":10407,"itical":10408,"ĠArea":10409,"ASS":10410,"cn":10411,"ACH":10412,"Ġcomposition":10413,"amber":10414,"activity":10415,"Ġcos":10416,"ĉĠĠĠĠĠĠĠĠĠĠĠĠĠĠĠĠĠĠĠ":10417,"ĠassertTrue":10418,"outheast":10419,"ĠGa":10420,"Ġprobability":10421,"also":10422,"ĠFamily":10423,"Ġsynt":10424,"Locale":10425,"Center":10426,"ĠBecause":10427,"igate":10428,"Ð¾Ð²":10429,"Ġclubs":10430,"Ġaddresses":10431,"Ġinstruction":10432,"attrs":10433,"Capture":10434,"flush":10435,"Ġtoward":10436,"Ġcontrast":10437,"fi":10438,"ictures":10439,"Ġhydro":10440,"Ġchannels":10441,"Series":10442,"Material":10443,"geo":10444,"Ã¸":10445,"onia":10446,"ĠCreek":10447,"Ġchecked":10448,"parts":10449,"Random":10450,"Split":10451,"6666":10452,"Ġgranted":10453,"Ġeyes":10454,"lizabeth":10455,"Ġhouses":10456,"(\"#":10457,"Lookup":10458,"ĠThree":10459,"Ġcaptured":10460,"oves":10461,"ĠStation":10462,"ĠDescription":10463,"LEMENT":10464,"oral":10465,"arse":10466,"Ġpolicies":10467,"Ġgather":10468,"mapping":10469,"Ġarrived":10470,"ĠBuffer":10471,"remote":10472,"Prev":10473,"Ġgirl":10474,"Ãº":10475,"Î¹":10476,"Ġslightly":10477,"twitter":10478,"ĠProp":10479,"oes":10480,"Ġprimarily":10481,"ĠProfessor":10482,"lapsed":10483,"Fig":10484,"1941":10485,"Ġpurposes":10486,"Ġcompletion":10487,"ushed":10488,"ĠRen":10489,"ĠDouble":10490,"LowerCase":10491,"Mut":10492,"ĠOxford":10493,"Fixed":10494,"istribution":10495,"getInstance":10496,"ĠPM":10497,"Ã¡n":10498,"Ġburn":10499,"TAG":10500,"Ġmarriage":10501,"ĠAbout":10502,"Tuple":10503,"Ġcompliance":10504,"Certificate":10505,"1957":10506,"Mag":10507,"cup":10508,"à¸":10509,"DP":10510,"Ġoperators":10511,"1946":10512,"timestamp":10513,"Ġdut":10514,"}+":10515,"Ġplane":10516,"Ġwasn":10517,"zeta":10518,"ĠAsh":10519,"Attrib":10520,"NamedCell":10521,"Sources":10522,"nesota":10523,"Ġquantum":10524,"Master":10525,"]->":10526,"iden":10527,"posal":10528,"Lite":10529,"eller":10530,"Ġplanning":10531,"currency":10532,"\\|":10533,"Ġcrew":10534,"Ġgoto":10535,"ĠKim":10536,"onical":10537,"Previous":10538,"Ġconfirm":10539,"Ġhandling":10540,"ĠBas":10541,"License":10542,"ĠMAX":10543,"Ġ<-":10544,"Weight":10545,"ĠAirport":10546,"=%":10547,"Ġconvers":10548,"Ġsuggested":10549,"isa":10550,"ĠDer":10551,"Future":10552,"ĠNative":10553,"ĠSus":10554,"atters":10555,"Ġrelatively":10556,"Ġancient":10557,"University":10558,"Ġnearby":10559,"uplicate":10560,"enna":10561,"UNT":10562,"ĠTaylor":10563,"Ġconsistent":10564,"Theme":10565,"ĠPen":10566,"disc":10567,"Ġalpha":10568,"ĉĠĠĠĠĠĠĠĠĠ":10569,"******/":10570,"Ġrise":10571,"ori":10572,"************************************************************************":10573,"Inner":10574,"adr":10575,"urable":10576,"tl":10577,"Scalar":10578,"Ġscheduled":10579,"Ġconsult":10580,"PROP":10581,"ĠUnit":10582,"Ġideas":10583,"ĠPerson":10584,"Ġaccident":10585,"Ġbin":10586,"ĠĠĠĠĠĠĠĠĠĠĠĠĠĠĠĠĠĠĠĠĠĠĠĠĠĠĠĠĠĠĠĠĠĠ":10587,"ktop":10588,"ĠChristmas":10589,"lik":10590,"Music":10591,"Ġcarbon":10592,"ifer":10593,"Ġsupplied":10594,"Ġignored":10595,"abric":10596,"Ġimag":10597,"Ġplanned":10598,"Ġcool":10599,"Ġjobs":10600,"Ġjump":10601,"aux":10602,"thur":10603,"Association":10604,"iÄĩ":10605,"Ġgenus":10606,"ĠMuslim":10607,"FilterDatabase":10608,"FIELD":10609,"Ġdecor":10610,"Bo":10611,"Ġoppos":10612,"à¥":10613,"Ġhonor":10614,"Ġbehavi":10615,"iner":10616,"bd":10617,"Ġvertex":10618,"parentNode":10619,"________":10620,"Ġproceed":10621,"RECT":10622,"specific":10623,"ĠBerlin":10624,"ĠStudies":10625,"1947":10626,"spacing":10627,"ĠGuard":10628,"ĠAlexander":10629,"ĠIslands":10630,"Holder":10631,"Ġsemi":10632,"ĠWilson":10633,"Ġanimals":10634,"Ġsand":10635,"Ġdataset":10636,"Rot":10637,"Ġindepend":10638,"Ġcandidates":10639,"Ġfootballer":10640,"ĠKenn":10641,"ĠLim":10642,"connected":10643,"ĠRo":10644,"åħ":10645,"ologist":10646,"Ġdropped":10647,"Ġ{*}":10648,"Ġ'#":10649,"rules":10650,"navigation":10651,"ritical":10652,"Ġ}).":10653,"Îµ":10654,"uuid":10655,"Ġchallenge":10656,"hab":10657,"standard":10658,"overning":10659,"Like":10660,"1952":10661,"bute":10662,"\\]":10663,"Enable":10664,"Ġalongside":10665,"Ġagr":10666,"usr":10667,"ydney":10668,"Ġera":10669,"Replace":10670,"Jan":10671,"Ġlists":10672,"Ġreviews":10673,"Ġwrap":10674,"Ġpatient":10675,"Ġguard":10676,"Ġprovince":10677,"Ġrecommend":10678,"Ġschedule":10679,"About":10680,"Prof":10681,"Dynamic":10682,"Ġouter":10683,"{},":10684,"1955":10685,"Ġsoft":10686,"arsing":10687,"rence":10688,"ĠSaturday":10689,"Consumer":10690,"Ġpitch":10691,"enumer":10692,"Ġvehicles":10693,"Using":10694,"aki":10695,"posite":10696,"ursday":10697,"Ġstrength":10698,"ocaml":10699,"Ġsections":10700,"ĠPrint":10701,"Ġcauses":10702,"Ġsufficient":10703,"Ġrepeated":10704,"Ġpm":10705,"ĠBrad":10706,"will":10707,"Once":10708,"Phone":10709,"ĠFurther":10710,"Ġcolspan":10711,"continue":10712,"ĠFil":10713,"rent":10714,"Bad":10715,"Ġtail":10716,"omics":10717,"Direction":10718,"Imp":10719,"encing":10720,"prite":10721,"ĠCas":10722,"Ġlies":10723,"Ġinterested":10724,"$)":10725,"ĠRog":10726,"failed":10727,"mk":10728,"Ġhousing":10729,"Ġtechnical":10730,"SW":10731,"ĠScottish":10732,"anz":10733,"Ġtroops":10734,"ectors":10735,"Ġskills":10736,"Ġenvironmental":10737,"Ġwonder":10738,"ĠLy":10739,"Ġpicture":10740,"Ġfetch":10741,"rypted":10742,"Ġax":10743,"_[":10744,"Available":10745,"AgIC":10746,"texture":10747,"ĠPR":10748,"ropol":10749,"ĠWhether":10750,"ĠDisc":10751,"Ġcrime":10752,"Ġchanging":10753,"Ġbusinesses":10754,"Ġsubsequently":10755,"binding":10756,"Ġdivided":10757,"ygon":10758,"Ġdispatch":10759,"ĠImmutable":10760,"Ġthrown":10761,"Ġ}}":10762,"Ġperman":10763,"okes":10764,"ĠSa":10765,"ravity":10766,"pf":10767,"Authentication":10768,"ĠNAV":10769,"COMM":10770,"Contract":10771,"Ġphotograph":10772,"matches":10773,"ä½":10774,"getType":10775,"Ġcopyright":10776,"Ġvac":10777,"puty":10778,"Ke":10779,"Ġsubsequent":10780,"translate":10781,"OutputStream":10782,"have":10783,"ĠUsing":10784,"onomy":10785,"Tile":10786,"Ġcoq":10787,"Missing":10788,"Ġinherit":10789,"ennes":10790,"Ġepisodes":10791,"Ant":10792,"Tube":10793,"British":10794,"ĠJob":10795,"Ġearth":10796,"Origin":10797,"ĠRom":10798,"Ġtells":10799,"counter":10800,"Ġexpressed":10801,"Ġinvestment":10802,"Î½":10803,"urance":10804,"refresh":10805,"`)":10806,"uent":10807,"jack":10808,"Kit":10809,"Ignore":10810,"ĠOfficial":10811,"Nov":10812,"Ġfeaturing":10813,"updated":10814,"ibling":10815,"ĠNC":10816,"chant":10817,"ĠBon":10818,"Ġcredit":10819,"requ":10820,"ĠSupreme":10821,"osa":10822,"Ġconvention":10823,"Ġbalance":10824,"ĠBBC":10825,"LSP":10826,"ĠTag":10827,"Ġfunds":10828,"Ġuri":10829,"lica":10830,"00000000":10831,"ĠLay":10832,"phia":10833,"Ġpolitics":10834,"Ġbudget":10835,"BL":10836,"Ġlos":10837,"acle":10838,"ĠShould":10839,"HOUT":10840,".',":10841,"Ġcolors":10842,"Ġportion":10843,"...)":10844,"Gui":10845,"Diff":10846,"ongo":10847,"ĠOs":10848,"ĠâĢ¦":10849,"Ġprotein":10850,"Ġcollected":10851,"EP":10852,"inator":10853,".*;":10854,"ĠCat":10855,"Ġconver":10856,"ĠInternet":10857,"Ġfails":10858,"Ġfifth":10859,"Ġdepending":10860,"ĠHung":10861,"ĠLanguage":10862,"utter":10863,"Ġmagn":10864,"ĠFair":10865,"Ġinstitutions":10866,"ĠMinistry":10867,"(--":10868,"Ctx":10869,"ĠRod":10870,"Ġinputs":10871,"ĠTy":10872,"Ġcompiler":10873,"ntil":10874,"arc":10875,"They":10876,"ĠĠĠĠĠĠĠĠĠĠĠĠĠĠĠĠĠĠĠĠĠĠĠĠĠĠĠĠĠĠĠĠĠĠĠĠ":10877,"puted":10878,"Ġtexture":10879,"Ġemit":10880,"Ġpra":10881,"ĠERR":10882,"don":10883,"hook":10884,"ĠSant":10885,"opher":10886,"ĠSerial":10887,"*,":10888,"HashMap":10889,"Ġcart":10890,"Separ":10891,"Ġconflict":10892,"Ġdescent":10893,"Ġindicating":10894,"VD":10895,"Ġhelper":10896,"Ġrepository":10897,"!\\!\\":10898,"Ġprogramming":10899,"fb":10900,"Ġgeneric":10901,"ĠVill":10902,"Tax":10903,"Ġdictionary":10904,"vanced":10905,"Ġfunding":10906,"Ġarbitr":10907,"Ġmolec":10908,"Old":10909,"Ġimplied":10910,"([]":10911,"COM":10912,"Ġlogic":10913,"umbn":10914,"EY":10915,"Login":10916,"Ġinjury":10917,"1949":10918,"Ġgain":10919,"Na":10920,"ĠCEO":10921,"care":10922,"ĠCorps":10923,"RESS":10924,"loss":10925,"pur":10926,"Ġiniti":10927,"declare":10928,"Ġbeautiful":10929,"$_":10930,"ĠLew":10931,"prom":10932,"gif":10933,"Ġalert":10934,"ĠCart":10935,"Ġspring":10936,"1954":10937,"ĠFigure":10938,"ea":10939,"Ġblog":10940,"utr":10941,"containers":10942,"=}":10943,"Ġattend":10944,"Pres":10945,"ĠLike":10946,"collect":10947,"Ġhuge":10948,"Will":10949,"Ġpoll":10950,"Ġathlet":10951,"ĠTransport":10952,"Ġhappened":10953,"Accept":10954,"ĠUsed":10955,"yal":10956,"ĠEs":10957,"ĠCase":10958,"ArrayList":10959,"Ġvary":10960,"Ġfacility":10961,"Ġharmon":10962,"Ġcompilation":10963,"~~~~~~~~":10964,"Ġparallel":10965,"atibility":10966,"Ġtruth":10967,"1953":10968,"toLowerCase":10969,"ĠVictoria":10970,"Ġliteral":10971,"irror":10972,"ĠCountry":10973,"Ġindent":10974,"Ġtransferred":10975,"Zero":10976,"\\{":10977,"ĠTrust":10978,"Detail":10979,"ĠNY":10980,"Ġhockey":10981,"ĠBra":10982,"Ġcommonly":10983,"ĠDrag":10984,"Ġdifferences":10985,"Ġattrs":10986,"GC":10987,"Ġgeometry":10988,"Ġcoordinates":10989,"ĠLiber":10990,"Tex":10991,"Ġdoor":10992,"Ġpacket":10993,"nob":10994,"ĠBelg":10995,"slide":10996,"pages":10997,"gems":10998,"annotations":10999,"CSS":11000,"ĠViet":11001,"Ġdrink":11002,"Ġactress":11003,"chmark":11004,"Ġpropag":11005,"Ġexerc":11006,"Decimal":11007,"Ġrom":11008,"ĠSelect":11009,"icted":11010,"Ġentert":11011,"Ġdisplayed":11012,"DITION":11013,"history":11014,"Ġvelocity":11015,"Ġnoise":11016,"zech":11017,"ĠMic":11018,"tex":11019,"BPACK":11020,"ĠAk":11021,"Ġsun":11022,"ĠBand":11023,"Trigger":11024,"antry":11025,"Ġinteraction":11026,"}\",":11027,"Ġdefense":11028,"Ġadopted":11029,"prec":11030,"inson":11031,"Formatter":11032,"transport":11033,"Ġedit":11034,"Ġgoog":11035,"adelphia":11036,"BASE":11037,"Ġlimitations":11038,"ĠBC":11039,"atted":11040,"Ġfigures":11041,"lookup":11042,"Ġcontest":11043,"Ġapparent":11044,"Ġindustrial":11045,"Ġanchor":11046,"iki":11047,"ĠAnother":11048,"ibraries":11049,"examples":11050,"Ġtrend":11051,"Ġrecognized":11052,"Ġestim":11053,"ĠArgent":11054,"ĠOntario":11055,"Ġelev":11056,"regon":11057,"International":11058,"periment":11059,"ĠEth":11060,"ieut":11061,"Ġnetworks":11062,"itled":11063,"ĠSend":11064,"Ġreverse":11065,"Ġ!!":11066,"Ġthreshold":11067,"Ġeastern":11068,"ĠHamilton":11069,"AI":11070,"Ø±":11071,"ĠWIDTH":11072,"Ġmaybe":11073,"}:":11074,"nn":11075,"UInt":11076,"Ġdesired":11077,"Ġdeleted":11078,"merce":11079,"Ġsides":11080,"datepicker":11081,"Ġcoverage":11082,"ĠFrame":11083,"001":11084,"Ġsupporting":11085,"ais":11086,"Actions":11087,"Ġreality":11088,"Ġnuclear":11089,"}=\\":11090,"uda":11091,"SPACE":11092,"ĠSpe":11093,"Ġexistence":11094,"ĠComponent":11095,"apore":11096,"Ġsilver":11097,"Ġtitles":11098,"Ġprincipal":11099,"pragma":11100,"Ġworker":11101,"LIN":11102,"Ã©e":11103,"ĠJson":11104,"Executor":11105,"cls":11106,"formed":11107,"1024":11108,"ĠGLint":11109,"Ġinspired":11110,"ĠTABLE":11111,"Owner":11112,"lemma":11113,"Ġ',":11114,"NdEx":11115,"Ġbaseball":11116,"ĠVerify":11117,"contact":11118,"oured":11119,"Ġgrew":11120,"binary":11121,"ĠMO":11122,"Ġattempts":11123,"repo":11124,"ENER":11125,"Ġexperi":11126,"Ġscientific":11127,"ĠBet":11128,"cers":11129,"Geometry":11130,"cue":11131,"ĠBeach":11132,"Ġsecure":11133,"subject":11134,"ĠTurn":11135,"Ġsomew":11136,"heading":11137,"Ġdanger":11138,"xff":11139,"Â°":11140,"uma":11141,"130":11142,"consin":11143,"Ġcrow":11144,"%.":11145,"?âĢĿ":11146,"Ġunable":11147,"Ġachiev":11148,"!\"":11149,"Tok":11150,"Ġdance":11151,"ursive":11152,"ĠStephen":11153,"TX":11154,"dst":11155,"Ġorders":11156,"Ġproperly":11157,"etc":11158,"Ġsyn":11159,"Ġinvestigation":11160,"Ġholding":11161,"anna":11162,"Ġ&=":11163,"Ġpossibly":11164,"repository":11165,"OFF":11166,"Setting":11167,"ĠTok":11168,"Ġmedian":11169,"ĠInf":11170,"Ġdescribes":11171,"ĠTer":11172,"YY":11173,"Commun":11174,"LAPI":11175,"anim":11176,"Did":11177,"capt":11178,"ĠInvalid":11179,"Ġsleep":11180,"Ġfashion":11181,"overview":11182,"Ġlinked":11183,"commun":11184,"Ġnarr":11185,"Ġcomputed":11186,"Ġinvent":11187,"ĠPrivate":11188,"aked":11189,"Ġspeech":11190,"labels":11191,"Ġwidely":11192,"Uint":11193,"ĠCF":11194,"Ĥ¬":11195,"Ġconstraints":11196,"Ġfinding":11197,"decode":11198,"===":11199,"?\"":11200,"Ġrob":11201,"PH":11202,"ĠKorean":11203,"ĠStore":11204,"Ð¿":11205,"lds":11206,"Ġadvantage":11207,"craft":11208,"ĠGro":11209,"(\"\\":11210,"Ġefficient":11211,"Ġpeer":11212,"However":11213,"Ġeffic":11214,"Ġmedium":11215,"etherlands":11216,"Ġresolved":11217,"Ġspectrum":11218,"pic":11219,"ĠAD":11220,"ĠPlaces":11221,"maps":11222,"mobile":11223,"ĠLater":11224,"Marker":11225,"Constraints":11226,"ĠConst":11227,"Overview":11228,"uffix":11229,"asters":11230,"ĠColumn":11231,"getAttribute":11232,"Ġbrain":11233,"ĠLicensed":11234,"bec":11235,"ASE":11236,"ENV":11237,"Ġmand":11238,"raq":11239,"oret":11240,"ĠStadium":11241,"ĠKr":11242,"Ġgoverning":11243,"oster":11244,"aren":11245,"inant":11246,"owa":11247,"LOAD":11248,"ĠSVG":11249,"Ġnewspaper":11250,"ĠVideo":11251,"isis":11252,"Ġphen":11253,"Ġengineering":11254,"Ġcommittee":11255,"Ġcoe":11256,"Ġspl":11257,"1951":11258,"Ġacting":11259,"ĠVirtual":11260,"LR":11261,"Safe":11262,"Ġali":11263,"aped":11264,"lint":11265,"Partition":11266,"FAIL":11267,"anth":11268,"0000000":11269,"getId":11270,"widetilde":11271,"orrow":11272,"Ġstores":11273,"Ġencode":11274,"ĠModule":11275,"Ġutils":11276,"Ġdiscussed":11277,"paces":11278,"multi":11279,"sha":11280,"bourne":11281,"cu":11282,"HAND":11283,"production":11284,"Ġachieved":11285,"substring":11286,"Stub":11287,"Ġupload":11288,"ĠKel":11289,"700":11290,"imize":11291,"Ġassistant":11292,"{$":11293,"former":11294,"/\">":11295,"ĠBell":11296,"yard":11297,"Äĥ":11298,")+":11299,"ĠInvest":11300,"ĠHun":11301,"Alias":11302,"Ġscalar":11303,"ĠColl":11304,"ĠPublish":11305,"Ġwit":11306,"ailability":11307,"GIN":11308,"Ġsmart":11309,"Ġrich":11310,"dk":11311,"Ġns":11312,"Ġheat":11313,"ĠVen":11314,"nesday":11315,"night":11316,"Ġdeveloping":11317,"ĠStruct":11318,"uesday":11319,"Ġpatterns":11320,"EVENT":11321,"Reason":11322,"ĠElizabeth":11323,"Ġtreated":11324,"POS":11325,"ĠMinnesota":11326,"Ġdream":11327,"incipal":11328,"Ġves":11329,"ĠEngineering":11330,"ĠallClasses":11331,"evin":11332,"Ġpieces":11333,"keep":11334,"Ġauthority":11335,"Break":11336,"ĠĠĠĠĠĠĠĠĠĠĠĠĠĠĠĠĠĠĠĠĠĠĠĠĠĠĠĠĠĠĠĠĠĠĠĠĠ":11337,"Ġrout":11338,"medium":11339,"South":11340,"SN":11341,"Ġdiscussion":11342,"ĠGraph":11343,"ĠHard":11344,"ĠSyntax":11345,"ĠAnth":11346,"router":11347,"Ġsexual":11348,"removeClass":11349,"Instruction":11350,"Ġminister":11351,"ĠAmericans":11352,"Ġfilled":11353,"ĠMcC":11354,"ĠBu":11355,"Ġending":11356,"ĠReference":11357,"SHA":11358,"Ġsoldiers":11359,"Ġlargely":11360,"=\"../../../../../../../":11361,"Ġneighborhood":11362,"defaults":11363,"FileName":11364,"DY":11365,"getString":11366,"Bucket":11367,"Cannot":11368,"ĠLcom":11369,"ĠInternal":11370,"UEST":11371,"Ġdetection":11372,"Ġcriminal":11373,"Ġassumed":11374,"Ġtechniques":11375,"Ġteacher":11376,"ĠLat":11377,"Ġmiss":11378,"gz":11379,"ĠToronto":11380,"ĠBoy":11381,"ĠallClassesLink":11382,"izers":11383,"law":11384,"Ã©s":11385,"GO":11386,"hd":11387,"Ġfuel":11388,"Ġsubstant":11389,"MPL":11390,"Ã¥":11391,"urse":11392,"Ġrough":11393,"Commit":11394,"Ġraces":11395,"ctors":11396,"Ġconsumer":11397,"ĠNAVBAR":11398,"Ġserves":11399,"logging":11400,"DataType":11401,"Ġplaceholder":11402,"Loading":11403,"Ġhear":11404,"brid":11405,"Ġformal":11406,"Face":11407,"Ġcustomer":11408,"Ġuncert":11409,"âĢĿ,":11410,"}|":11411,"Ġbow":11412,"ĠSong":11413,"Ġclients":11414,"Ġacceler":11415,"ĠSydney":11416,"ĠBE":11417,"Ġly":11418,"escape":11419,"dimensional":11420,"ĠÐ²":11421,"Ġdimensions":11422,"ĠAvenue":11423,"Original":11424,"pred":11425,"Ġ#{":11426,"Ġchecks":11427,"XXXX":11428,"Ġpromoted":11429,"invert":11430,"Ġphoto":11431,"Src":11432,"ortheast":11433,"ĠNations":11434,"CUR":11435,"Ġopportunities":11436,"Ġestate":11437,"ĠEner":11438,"Ġbroken":11439,"Black":11440,"aska":11441,"CREATE":11442,"ĠCHE":11443,"DMA":11444,"Mo":11445,"ĠWat":11446,"Ġmarker":11447,"ouri":11448,"ĠDCHECK":11449,"Ġdegrees":11450,"ĠRaj":11451,"Ġequations":11452,"ando":11453,"wt":11454,"Forms":11455,"gar":11456,"functions":11457,"attach":11458,"ĠURI":11459,"Matcher":11460,"Disk":11461,"1936":11462,"pref":11463,"Ġtele":11464,"Ġcompact":11465,"Ġachieve":11466,"SOURCE":11467,"}},":11468,"Ġfell":11469,"tabular":11470,"aga":11471,"ĠTree":11472,"Modified":11473,"Ġimproved":11474,"Ġperforming":11475,"HL":11476,"arring":11477,"ocom":11478,"peror":11479,"Ġbenefits":11480,"Amount":11481,"ego":11482,"ĠRa":11483,"Ġmaintain":11484,"reason":11485,"Ġpure":11486,"timer":11487,"ĠWITHOUT":11488,"1918":11489,"ClassName":11490,"Ġmodal":11491,"Ġstandards":11492,"Ġmechanism":11493,"ĠIV":11494,"ĠPolish":11495,"Ġmeasured":11496,"fall":11497,"ĠOperation":11498,"ĠCub":11499,"design":11500,"Lib":11501,"Ġts":11502,"rient":11503,"CCESS":11504,"conv":11505,"UAL":11506,"Ġmatched":11507,"osophy":11508,"Ġabort":11509,"Personal":11510,"unnel":11511,"Austral":11512,"Contin":11513,"ĠSanta":11514,"Ġmunicipality":11515,"Ġcontrovers":11516,"buttonElement":11517,"Pixel":11518,"ĠMonday":11519,"SV":11520,"//!":11521,"Ġfolder":11522,"Side":11523,"approx":11524,"Drawing":11525,"Ġeye":11526,"ĠAnton":11527,"Ġperhaps":11528,"ysql":11529,"Ġresident":11530,"icultural":11531,"Seconds":11532,"plemented":11533,"Ġcorrectly":11534,"Ġrural":11535,"Copyright":11536,"ĠActive":11537,"AgICAgIC":11538,"Ġweather":11539,"ĠRender":11540,"Ġknew":11541,"PG":11542,"Ġcurve":11543,"ĠVALIGN":11544,"ĠPrize":11545,"Ġwish":11546,"ĠFALSE":11547,"ĠPut":11548,"Ġpng":11549,"Win":11550,"Reflection":11551,"Ġviolence":11552,"Pi":11553,"ĠMarg":11554,"WEBPACK":11555,"Ctrl":11556,"ĠSon":11557,"Where":11558,"ĠFox":11559,"quarters":11560,"Ġig":11561,"brand":11562,"Ġconven":11563,"ĠTool":11564,"ĠNiger":11565,"lywood":11566,"atting":11567,"Ġrat":11568,"Ġ\">":11569,"His":11570,"Ġhosted":11571,"Ġorganized":11572,"æķ":11573,"Ġintr":11574,"orer":11575,"verify":11576,"äº":11577,"/******/":11578,"viewport":11579,"ieutenant":11580,"Ġappearances":11581,"UMM":11582,"Validate":11583,"glew":11584,"Ġrotation":11585,"week":11586,"cles":11587,"ilevel":11588,"Relation":11589,"ĠLogger":11590,"ĠWel":11591,"folio":11592,")}\\":11593,"Push":11594,"aired":11595,"Deprecated":11596,"ersistence":11597,"ez":11598,"ICATION":11599,"Ġalter":11600,"ĠPay":11601,"alytics":11602,"utors":11603,"oton":11604,"Ġfee":11605,"ika":11606,"Ġhistoric":11607,"Ġestimate":11608,"ĠRevolution":11609,"Ġhappens":11610,"Ġrejected":11611,"imb":11612,"Country":11613,"ĠRuntime":11614,"Ġtypical":11615,"Ġapproved":11616,"aug":11617,"Ġspons":11618,"ĠRome":11619,"Ġexperimental":11620,"LAY":11621,"(()":11622,"ÙĦ":11623,"TERN":11624,"ĠPDF":11625,"Ġofficially":11626,"metry":11627,"TIM":11628,"prepare":11629,"logo":11630,"Ġincident":11631,"Ġpartnership":11632,"ĠFix":11633,"ĠFull":11634,"Ġinn":11635,"secondary":11636,"Ġdistingu":11637,"Ġorig":11638,"ĠNick":11639,"Worker":11640,"tenance":11641,"rated":11642,"TRAN":11643,"mediawiki":11644,"ĠTOP":11645,"ĠSSL":11646,"Ġmagnetic":11647,"possible":11648,"Ġtables":11649,"Created":11650,"ixtures":11651,"Ġimportance":11652,"1938":11653,"lla":11654,"Ġsolo":11655,"Ġhyper":11656,"reduce":11657,"Ġsph":11658,"SUP":11659,"hom":11660,"Ġauthorities":11661,"Ġbenefit":11662,"Ġtend":11663,"wing":11664,"cdots":11665,"Ġurban":11666,"Fill":11667,"links":11668,"ĠKEY":11669,"Ġsustain":11670,"Ġ(;":11671,"Ġminute":11672,"Uniform":11673,"oos":11674,"libs":11675,"Ġ(-":11676,"Ġcomposer":11677,"Ġtemporary":11678,"irk":11679,"ĠEval":11680,"Ġdetected":11681,"Ġtargets":11682,"Ġstuff":11683,")=\\":11684,"django":11685,"Ġextensions":11686,"ĠSteve":11687,"Ġfinds":11688,"ĠWho":11689,"Primary":11690,"scriber":11691,"opacity":11692,"PARAM":11693,"ĠLow":11694,"Ġcodes":11695,"pson":11696,"GLAPI":11697,"Ġadvoc":11698,"Persistent":11699,"pin":11700,"ĠOP":11701,"Tick":11702,"Ġrecommended":11703,"iant":11704,"Ġhouseholds":11705,"Ġrul":11706,"overflow":11707,"datetime":11708,"Ġfan":11709,"Ġletters":11710,"Ġsurrounding":11711,"Ġprompt":11712,"Mutable":11713,"ĠArgument":11714,"ĠBridge":11715,"ĠDebug":11716,"izz":11717,"ĠIndepend":11718,"Ġbra":11719,"ĠOlympic":11720,"Ġnarrow":11721,"fragment":11722,"jb":11723,"Ġscoped":11724,"Ġconsec":11725,"Ġcertificate":11726,"jan":11727,"Ġexplicitly":11728,"----------":11729,"neutral":11730,"Ġmigr":11731,"Ġlimits":11732,"Merge":11733,"ĠBooks":11734,"anga":11735,"Ġturns":11736,"Ġdiam":11737,"Ġobvious":11738,"rim":11739,"itories":11740,"akh":11741,"Ġencoded":11742,"Ġprime":11743,"Most":11744,"Ġpipeline":11745,"Ġcontrolled":11746,"eclipse":11747,"itespace":11748,"notify":11749,"Self":11750,"Ġcontrols":11751,"norm":11752,"delegate":11753,"Put":11754,"distance":11755,"agram":11756,"Ġwinners":11757,"Ġemph":11758,"Ġfreedom":11759,"Ġ(!(":11760,"ĠRus":11761,"ĠHan":11762,"phrase":11763,"unknown":11764,"Ġpatch":11765,"\"|":11766,"Ġmountain":11767,"Ġagree":11768,"Ġcss":11769,"ĠLabor":11770,"Paths":11771,"Ġspecifically":11772,"Download":11773,"ĠWars":11774,"ĠChildren":11775,"ĠGreg":11776,"Ġdefend":11777,"ĠStock":11778,"ĠMIT":11779,"Week":11780,"ĠPython":11781,"Ġ\"_":11782,"blem":11783,"Ġportrait":11784,"fp":11785,"ĠColorado":11786,"ĠOregon":11787,"mad":11788,"Ġà¤":11789,"Ġcab":11790,"retch":11791,"Monitor":11792,"BACK":11793,"uet":11794,"semble":11795,"uer":11796,"ĠCHECK":11797,"Ġacts":11798,"Ġdecades":11799,"Fake":11800,"Ġ}),":11801,"Mill":11802,"Ġmail":11803,"Ġcompeted":11804,"Ġjourney":11805,"Ġadministrative":11806,"ĠMA":11807,"ropical":11808,"Done":11809,"SUB":11810,"Ġchemical":11811,"Ġbed":11812,"mix":11813,"season":11814,"Ġgoogle":11815,"folder":11816,"ĠĠĠĠĠĠĠĠĠĠĠĠĠĠĠĠĠĠĠĠĊ":11817,"Ġcoal":11818,"ĠðŁ":11819,"Ġexplan":11820,"Ġcalculated":11821,"ctree":11822,"ĠSom":11823,"Ġprepared":11824,"ĠWisconsin":11825,"BUILD":11826,"ĠCur":11827,"Ġrenamed":11828,"ĠInit":11829,"Ġindices":11830,"ordinate":11831,"ĠCa":11832,"Special":11833,"putation":11834,"ĠSat":11835,"ĠAddress":11836,"ĠTYPE":11837,"ureau":11838,"dark":11839,"glyphicon":11840,"1937":11841,"ropy":11842,"ĠDC":11843,"ĠHou":11844,"istogram":11845,"iculture":11846,"ĠOnce":11847,"Extra":11848,"frames":11849,"Ġcontribution":11850,"Ġsculpt":11851,"Period":11852,"ordan":11853,"Ġglob":11854,"Ġ'')":11855,"Ñĸ":11856,"generator":11857,"StatusCode":11858,"Ġ'''":11859,"Loaded":11860,"Observable":11861,"Ġinterpret":11862,"ĠLes":11863,"Ġexpr":11864,"Ġprominent":11865,"chestra":11866,"-(":11867,"ĠKIND":11868,"Ġbiggest":11869,"nof":11870,"Ġhook":11871,"ĉčĊ":11872,"Ms":11873,"ĠExpression":11874,"ĠHeart":11875,"ĠDateTime":11876,"Plot":11877,"NONE":11878,"Ġmanage":11879,"Ġencounter":11880,"Fac":11881,"Ġqq":11882,"Ġå":11883,"aval":11884,"including":11885,"ĠNSString":11886,"ĠDuke":11887,"asty":11888,"........":11889,"Ġclearly":11890,"Updated":11891,"Ġvotes":11892,"Ġhelps":11893,"Machine":11894,"ĠDictionary":11895,"INVALID":11896,"ilarly":11897,"\">(":11898,"ĠFollowing":11899,"rides":11900,"dynamic":11901,"ĠGLenum":11902,"culate":11903,"Ġroutes":11904,"ASH":11905,"urations":11906,"Ġstable":11907,"__,":11908,"ĠMarket":11909,"paper":11910,"ĠCare":11911,"ĠAuto":11912,"inton":11913,"Ġlooked":11914,"mosp":11915,"DED":11916,"ĠSi":11917,"ician":11918,"ÛĮ":11919,"zona":11920,"Ġdism":11921,"ĠImp":11922,"Ġlookup":11923,"Cr":11924,"slds":11925,"Ġclinical":11926,"Ġreceiver":11927,"perial":11928,"Ġcommitted":11929,"APP":11930,"zh":11931,"Ġvent":11932,")^{":11933,"ĠMedicine":11934,"Ġchallenges":11935,"prevent":11936,"archive":11937,"ĠDavis":11938,"oa":11939,"ORK":11940,"islative":11941,"inds":11942,"Ġinfrastructure":11943,"Ġprepare":11944,"extends":11945,"Fat":11946,"ĠSab":11947,"emet":11948,"iary":11949,"ĠNetherlands":11950,"filters":11951,"Ġlegend":11952,"Ġteaching":11953,"ĠDoug":11954,"Ġmal":11955,"Ġapilevel":11956,"âĢĺ":11957,"sz":11958,"ĠBuilder":11959,"cx":11960,"ĠDam":11961,"Ġentr":11962,"weg":11963,"Ġreplacement":11964,"Ġmel":11965,"=$":11966,"Ġtested":11967,"Ġwarm":11968,"\":\"":11969,"Ġclip":11970,"ĠBefore":11971,"ĠLang":11972,"Ġconstants":11973,"gorithms":11974,"ĠEnc":11975,"Ġbucket":11976,"cassandra":11977,"Ġthick":11978,"INIT":11979,"addEventListener":11980,"ronze":11981,"Ġmach":11982,"Ġlisteners":11983,"Distance":11984,"ĠOtt":11985,"ĠBudd":11986,"Ġtimer":11987,"ĠLtd":11988,"Ġmerged":11989,"ĠNull":11990,"reject":11991,"eded":11992,"Ġcontemporary":11993,"ĠEditor":11994,"gre":11995,"ĠDeb":11996,"Ġsyntax":11997,"Cent":11998,"URN":11999,"Mac":12000,"ĠSW":12001,"ĠCorn":12002,"ĠTrack":12003,"RET":12004,"Running":12005,"omatic":12006,"Ġcontributions":12007,"Lines":12008,"Ġast":12009,"Fetch":12010,"Bel":12011,"Ġpromotion":12012,"integ":12013,"Ġpromote":12014,"Linear":12015,"arest":12016,"heets":12017,"centering":12018,"Ġmetrics":12019,"concurrent":12020,"poly":12021,"Disabled":12022,"clip":12023,"Ġdriving":12024,"cmp":12025,"Ġexcell":12026,"Ġtransactions":12027,"avid":12028,"ĠConsole":12029,"scala":12030,"deep":12031,"endpoint":12032,"Ġprocedure":12033,"Ġderiv":12034,"outs":12035,"Ġamb":12036,"Ġplatforms":12037,"asi":12038,"Ġbond":12039,"Ġ{%":12040,"publish":12041,"Sprintf":12042,"score":12043,"ĠLook":12044,"Ġcampus":12045,"Ġfounder":12046,"Ġqualified":12047,"Ġstopped":12048,"Ïĥ":12049,"Ġaband":12050,".~":12051,"1919":12052,"Ġpayment":12053,"Coll":12054,"payload":12055,"ensitive":12056,"odo":12057,"rf":12058,"Ġvisibility":12059,"ĠGer":12060,"Ġresulted":12061,"sizei":12062,"subscribe":12063,"references":12064,"ĠPhiladelphia":12065,"ĠEnergy":12066,"amental":12067,"ĠĠĠĠĠĠĠĠĠĠĊ":12068,"Ġnegot":12069,"Ġtransformation":12070,"Ġgirls":12071,"Ġsale":12072,"Ġautorest":12073,"ĠHal":12074,"Ġmusicians":12075,"Pal":12076,"linux":12077,"lig":12078,"AU":12079,"Camera":12080,"Ġstone":12081,"ĠTal":12082,"Ġ\"[":12083,"Ġagency":12084,"Just":12085,"ĠRon":12086,"ania":12087,"cow":12088,"Hook":12089,"Ġdates":12090,"Ġextent":12091,"half":12092,"anes":12093,"Ġhabit":12094,"bucket":12095,"1900":12096,"Ġgone":12097,"atever":12098,"days":12099,"Ð·":12100,"Ġentirely":12101,"Bitmap":12102,"Ġsmooth":12103,"Bus":12104,"Ġpreced":12105,"features":12106,"Ġbold":12107,"tail":12108,"phase":12109,"Ġfired":12110,"spect":12111,"rpc":12112,"king":12113,"Ġmist":12114,"Functions":12115,"substr":12116,"IMPORTED":12117,"Ġpasses":12118,"Ġiron":12119,"defineProperty":12120,"ĠTry":12121,"Ġsizes":12122,"RUN":12123,"Alpha":12124,"rank":12125,"vertex":12126,"Star":12127,"ÙĨ":12128,"Ġbundle":12129,"Ġ*,":12130,"ĠHay":12131,"Ġstorm":12132,"Pending":12133,"Ġsess":12134,"Ġinfe":12135,"Ġpublication":12136,"Ġusername":12137,"GLenum":12138,"ĠQueens":12139,"Ġcircum":12140,"ĠThursday":12141,"Ġvisited":12142,"Ġpurchased":12143,"City":12144,"linked":12145,"ĠIce":12146,"ĠTai":12147,"Ġintent":12148,"underline":12149,"Ġlosing":12150,"ĠTurk":12151,"Ġsqu":12152,"ecycle":12153,"Operations":12154,"Ġreaction":12155,"Ali":12156,"Culture":12157,"agen":12158,"ĠDespite":12159,"ĠLjava":12160,"veral":12161,"ĠBrig":12162,"Ġenh":12163,"ounded":12164,"LT":12165,"ruption":12166,"multip":12167,"ĠRange":12168,"Ġgraduated":12169,"ĠFlo":12170,"Ġcollections":12171,"Must":12172,"erto":12173,"ĠPremier":12174,"Health":12175,"iveness":12176,"Ġaccum":12177,"ussion":12178,"Ġrecon":12179,"ĠLady":12180,"Changes":12181,"ĠCost":12182,"WARE":12183,"lab":12184,"interpre":12185,"Ġparticle":12186,"ĠWinter":12187,"Ġdoll":12188,".');":12189,"Ġfighting":12190,"Ġcls":12191,"referred":12192,"Please":12193,"ĠIgn":12194,"Ġtrip":12195,"ĠRose":12196,"Ġnavbar":12197,"getMessage":12198,"]*":12199,"Ġ\"#":12200,"%%%%%%%%":12201,"jacent":12202,"ĠMust":12203,"1935":12204,"START":12205,"Ġ.=":12206,"Ġwa":12207,"RS":12208,"{})":12209,"Padding":12210,"Listeners":12211,"UBLIC":12212,"ĠTheorem":12213,"proc":12214,"Android":12215,"Peer":12216,"Ġfaculty":12217,"ĠOtherwise":12218,"alg":12219,"Ġadds":12220,"Ġchampion":12221,"NECT":12222,"Ġmassive":12223,"Ġanimal":12224,"provid":12225,"INDEX":12226,"ĠStaff":12227,"Have":12228,"Exist":12229,"Ġreduction":12230,"Mixin":12231,"}^\\":12232,"Ġkick":12233,"Been":12234,"charts":12235,"ĠDor":12236,"slider":12237,"Ġarts":12238,"icky":12239,"FilePath":12240,"ssue":12241,"Ġstatements":12242,"Ġtherm":12243,"dam":12244,"Ġcrisis":12245,"Ġyards":12246,"Ġpurchase":12247,"irth":12248,"Ġcm":12249,"ĠDa":12250,"onom":12251,"registry":12252,"Typ":12253,"aze":12254,"Slice":12255,"ĠHind":12256,"lix":12257,"ĠToken":12258,"Ġmyst":12259,"Ġwindows":12260,"ĠLI":12261,"cludes":12262,"retval":12263,"Prototype":12264,"ĠLock":12265,"Frames":12266,"Ġnotification":12267,"illiseconds":12268,"Controls":12269,"Ġfilters":12270,"engers":12271,"Ġwinter":12272,"Super":12273,"Radius":12274,"aded":12275,"Feed":12276,"gradle":12277,"Ġban":12278,"such":12279,"Metric":12280,"Es":12281,"ObjectMeta":12282,"emetery":12283,"Ġsubstantial":12284,"ĠPC":12285,"}%":12286,"Ġperformances":12287,"Den":12288,"})\\":12289,"Ġaddr":12290,"Destroy":12291,"Ġredirect":12292,"ĠIraq":12293,"Lat":12294,"ĠGolden":12295,"distribut":12296,"IME":12297,"Ġodd":12298,"Ġdiss":12299,"}_\\":12300,"Scheme":12301,"Try":12302,"tainment":12303,"ĠForest":12304,"Exit":12305,"picture":12306,"Ġdelivery":12307,"Ġarms":12308,"ĠMoh":12309,"erialize":12310,"ĠLear":12311,"ErrorCode":12312,"Ġincreases":12313,"worth":12314,"ĠDest":12315,"ĠFood":12316,"ĠPur":12317,"umbnail":12318,"Ġcalculate":12319,"Ġsorted":12320,"Ġtemple":12321,"Execute":12322,"ATURE":12323,"Ġnotable":12324,"ĠCambridge":12325,"Ġhotel":12326,"ĠBox":12327,"Ġrefresh":12328,"ĠRegiment":12329,"Ġwing":12330,"ĠStory":12331,"ĠSingapore":12332,"THER":12333,"friend":12334,"gov":12335,"ĠDeep":12336,"igenous":12337,"Ġseparated":12338,"ĠBh":12339,"Ġlearned":12340,"share":12341,"Ġlocale":12342,"Ġescap":12343,"Ġscr":12344,"MAGE":12345,"UMMARY":12346,"Ġaf":12347,"identity":12348,"ÐµÑĢ":12349,"Models":12350,"cached":12351,"Ġbright":12352,"analysis":12353,"Ġfrequently":12354,"HOME":12355,"stage":12356,"ĠMatch":12357,"icing":12358,"Ġobserver":12359,"ĠGallery":12360,"hour":12361,"Ġexplained":12362,"ĠSym":12363,"Ġseats":12364,"shop":12365,"stroke":12366,"Ġterritory":12367,"}\\,":12368,"ĠSize":12369,"Ġsubscription":12370,"Decoder":12371,"ĠPlace":12372,"Dim":12373,"hello":12374,"Anim":12375,"Ġobservations":12376,"Ġheav":12377,"ĠGrid":12378,"Ġuintptr":12379,"Ġextremely":12380,"ĠOptions":12381,"Oct":12382,"sche":12383,"509":12384,"ĠEnable":12385,"Servlet":12386,"oor":12387,"Cons":12388,"Ġ\\{":12389,"avel":12390,"Ġcompile":12391,"Qual":12392,"vendor":12393,"cop":12394,"may":12395,"qquad":12396,"Hz":12397,"Ġcitizens":12398,"Ġdefeat":12399,"1917":12400,"ĉĉĉĉĊ":12401,"GRO":12402,"eff":12403,"alion":12404,"Est":12405,"Ġoperate":12406,"ĠPers":12407,"'}":12408,"Zend":12409,"sdk":12410,"Ġaccounts":12411,"Ġoffering":12412,"^+":12413,"Wrap":12414,"Ġslice":12415,"ĠFac":12416,"Press":12417,"ĠNorm":12418,"codec":12419,"phan":12420,"Ġprotest":12421,"Ġloader":12422,"ĠBru":12423,"Ġretrieve":12424,"Ġformula":12425,"Completed":12426,"Ġaria":12427,"Ġarbitrary":12428,"Ġprofession":12429,"ennessee":12430,"Ġretail":12431,"Vol":12432,"OC":12433,"çĶ¨":12434,"Ġinde":12435,"1933":12436,"Grad":12437,"ĠForeign":12438,"Ġ(%":12439,"1914":12440,"transl":12441,"ĠToday":12442,"Ïģ":12443,"iral":12444,"typeparam":12445,"Ġbomb":12446,"ctrl":12447,"Ġtuple":12448,"Education":12449,"Ġedges":12450,"Ġcovers":12451,"iggers":12452,"Tri":12453,"Ġscholar":12454,"ĠKa":12455,"tle":12456,"Suite":12457,"Ġgenerator":12458,"9999":12459,"Ġparticipated":12460,"Life":12461,"written":12462,"Ġsud":12463,"getClass":12464,"Ġadvent":12465,"Ġtransp":12466,"Ġmom":12467,"oda":12468,"Ġretire":12469,"ĠIndones":12470,"runner":12471,"SSION":12472,"1934":12473,"Encode":12474,"Ġplain":12475,"Ġkernel":12476,"ĠWatch":12477,"Ġpin":12478,"AAAAAAAA":12479,"ĠĠĠĠĠĠĠĠĠĠĠĠĠĠĠĠĠĠĠĠĠĠĠĠĠĠĠĠĠĠĠĠĠĠĠĠĠĠ":12480,"Sets":12481,"Ġmath":12482,"Ġcompatible":12483,"Ġdrawn":12484,"Suppress":12485,"Ben":12486,"zoom":12487,"animate":12488,"ĠClear":12489,"pers":12490,"ressions":12491,"descriptor":12492,"Ġswim":12493,"Ġgained":12494,"foreach":12495,"atile":12496,"è¿":12497,"ĠTRUE":12498,"ĠÑģ":12499,"Ġwins":12500,"ĠAthlet":12501,"Ġherself":12502,"speed":12503,"Respon":12504,"ulner":12505,"Ġconcerns":12506,"ĠBatt":12507,"ĠEric":12508,"Based":12509,"rollers":12510,"CONST":12511,"Pipeline":12512,"ĠâĢ¢":12513,"Ġvideos":12514,"ĠEU":12515,"Ġyounger":12516,"olo":12517,"sels":12518,"ĠSP":12519,"Ġpractices":12520,"Ġacknow":12521,"Ġadvis":12522,"Ġsuffered":12523,"hex":12524,"Ġdoctor":12525,"Ġbodies":12526,"arry":12527,"Ġpseud":12528,"adapter":12529,"Ġexpos":12530,"ĠArm":12531,"TableRow":12532,"Ġcoordinate":12533,"was":12534,"Apply":12535,"ods":12536,"Ġmanner":12537,"ĠSymfony":12538,";|":12539,"renderer":12540,"geometry":12541,"Ġexpatriate":12542,"ela":12543,"Ġsurg":12544,"Ġfemales":12545,"Ġhorse":12546,"Ġassets":12547,"ĠtoString":12548,"maml":12549,"Scheduler":12550,"ĠBasic":12551,"Ġexperiences":12552,"Ġfold":12553,"leton":12554,"Ġprogramme":12555,"FORMAT":12556,"ĠDigital":12557,"Ġrc":12558,"CLA":12559,"Ġrepeat":12560,"ante":12561,"members":12562,"ĠSweden":12563,"Ġĉ":12564,"ĠCulture":12565,"Ġsin":12566,"Ġoccasion":12567,"Ġfaster":12568,"ĠNaz":12569,"MASK":12570,"Ġinvoked":12571,"bell":12572,"%\"><":12573,"jq":12574,"ĠAbb":12575,"andy":12576,"spark":12577,"Ġ--></":12578,"ĠGh":12579,"WRITE":12580,"Ġsolar":12581,"Ġthinking":12582,"Ġhair":12583,"NU":12584,"Compare":12585,"Ġcriteria":12586,"mean":12587,"Ġarrays":12588,"Ġaren":12589,"ĠMountain":12590,"sto":12591,"istical":12592,"Ġtalent":12593,"<>();":12594,"ĠCarl":12595,"[],":12596,"ĠFuture":12597,"Hint":12598,"Ġalgebra":12599,"__.":12600,"Ġ\")":12601,"erty":12602,"Ġwrites":12603,"ometric":12604,"Ġfraction":12605,"Sam":12606,"Ġcatalog":12607,"ĠIndiana":12608,"Ġstrongly":12609,"atched":12610,"notification":12611,"Ġhappy":12612,"Ġaw":12613,"rupted":12614,"ĠMilitary":12615,"eral":12616,"Ġ(`":12617,"alink":12618,"Ġflush":12619,"urches":12620,"antasy":12621,"Ġ'</":12622,"segment":12623,"><!--":12624,"Ð°ÑĤ":12625,"ASC":12626,"Ġthousands":12627,"Subscription":12628,"------------------------------------------------":12629,"Ġfiled":12630,"constraint":12631,"placeholder":12632,"Ġsucceeded":12633,"è¯":12634,"ĠOcean":12635,"112":12636,"pection":12637,"XY":12638,"Ġstrip":12639,"Ġdoub":12640,"usted":12641,"APIENTRY":12642,"()[":12643,"ĠSu":12644,"Completion":12645,"Used":12646,"Ġpiano":12647,"Ġconfigured":12648,"Ġskin":12649,"bounds":12650,"ĠFront":12651,"ĠKansas":12652,"spe":12653,"Ġdelivered":12654,"Power":12655,"deploy":12656,"scan":12657,"Ġmac":12658,"ĠMaria":12659,"Styles":12660,"cpu":12661,"Foo":12662,"Ġtechnique":12663,"Ġdrivers":12664,"ques":12665,"Ġownership":12666,"[_":12667,"]),":12668,"Ġsam":12669,"Unexpected":12670,"ĠLewis":12671,"ĠPu":12672,"Ġgovernor":12673,"Ġvot":12674,"Ġdocumentary":12675,"Ġgap":12676,"(\".":12677,"offs":12678,"Ġintegration":12679,"1929":12680,"toEqual":12681,"Ġclassification":12682,"Ġfestival":12683,"Ġped":12684,"Ġelectron":12685,"Ġ'@":12686,"SSAGE":12687,"Ġkids":12688,"ARGET":12689,"Codec":12690,"Ġtitled":12691,"ĠJews":12692,"á»":12693,"Received":12694,"ĠRight":12695,"MEM":12696,"Ġimplies":12697,"coll":12698,"built":12699,"Ġpixels":12700,"Arrays":12701,"ĠChen":12702,"Ġgauge":12703,"Ġcategories":12704,"Ġcaught":12705,"*>(":12706,"middle":12707,"territ":12708,"1928":12709,"oen":12710,"Ġarrested":12711,"ĠSwedish":12712,"Ġyellow":12713,"ĠAud":12714,"GLuint":12715,"ĠAccount":12716,"rink":12717,"Ġmental":12718,"Deep":12719,"Ġgender":12720,"iples":12721,"ĠFA":12722,"vars":12723,"splice":12724,"Ġprecision":12725,"Scan":12726,"Ġnob":12727,"Ġsuggests":12728,"Ġprototype":12729,"timeline":12730,"NI":12731,"Linked":12732,"Ġscan":12733,"Ġrecognition":12734,"Hello":12735,"Ġmodes":12736,"')->":12737,"Ġconcert":12738,"Ġscoring":12739,"secret":12740,"ĠBAS":12741,"uency":12742,"walk":12743,"Compat":12744,"Ġment":12745,"floor":12746,"Ġshadow":12747,"ĠHarry":12748,"Ġhence":12749,"wegian":12750,"unlock":12751,"Ġec":12752,"stub":12753,"RGB":12754,"YP":12755,"Ġcold":12756,"Ġjudge":12757,"Ġlayers":12758,"ĠSymbol":12759,"ĠManager":12760,"cross":12761,"bone":12762,"Ġdefines":12763,"grpc":12764,"Tw":12765,"Ġcouldn":12766,"Ġrunner":12767,"å¤":12768,"toctree":12769,"Ġtaught":12770,"tokens":12771,"adi":12772,"eld":12773,"tile":12774,"dn":12775,"ĠPot":12776,"MAC":12777,"Ġtowns":12778,"ĠSUMMARY":12779,"ĠAtlantic":12780,"Encoded":12781,"Ġpixel":12782,"Ġopposite":12783,"argv":12784,"ĠInitialize":12785,"valueOf":12786,"ĠAh":12787,"ĠComple":12788,"restling":12789,"Ġliber":12790,"ĠEqu":12791,"Ġrefers":12792,"ĠFord":12793,"ibliography":12794,"Elem":12795,"{(":12796,"phony":12797,"ĠAnderson":12798,"Ġlect":12799,"Ġabsor":12800,"erves":12801,"Ġinstitution":12802,"tre":12803,"Ġevaluate":12804,"Ġalleged":12805,"ĠAffairs":12806,"Popup":12807,"1932":12808,"swing":12809,"citet":12810,"ĠHor":12811,"ellar":12812,"ĠDark":12813,"ĠWednesday":12814,"ĠCache":12815,"ĠNothing":12816,"Ġannounce":12817,"Ġstress":12818,"usal":12819,"1910":12820,"BLOCK":12821,"ĠTuesday":12822,"ĠKal":12823,"Credentials":12824,"North":12825,"]).":12826,"NGTH":12827,"Tracker":12828,"Inline":12829,"ĠRetriev":12830,"FileSystem":12831,"Enumer":12832,"paths":12833,"Ġdry":12834,"ĠJacob":12835,"Ġposted":12836,"Ġlit":12837,"Visitor":12838,"Ġ'[":12839,"ĠCirc":12840,"efe":12841,"Ġeasier":12842,"course":12843,"æĺ":12844,"Neg":12845,"iversities":12846,"Ġshock":12847,"Ġisinstance":12848,"ĠFILE":12849,"Parts":12850,"ABILITY":12851,"mers":12852,"Ġkid":12853,"Ġterror":12854,"ĠCaptain":12855,"WI":12856,"Ġfaith":12857,"mutex":12858,"Ġendif":12859,"esture":12860,"ropolitan":12861,"ĠMissouri":12862,"Ġslot":12863,"Ġapart":12864,"ĠBrian":12865,"SERVER":12866,"Stage":12867,"Bg":12868,"French":12869,"ffffff":12870,"Bro":12871,"Ġprocessed":12872,"Aug":12873,"ĠSH":12874,"Ġlisten":12875,"×ķ":12876,"Major":12877,"pipe":12878,"ĠGree":12879,"orough":12880,"Ġing":12881,"Ġgene":12882,"Ġfavorite":12883,"////////////////////////////////////////////////////////////////":12884,"Ġcharges":12885,"inals":12886,"roduction":12887,"added":12888,"ĠDMA":12889,"AMP":12890,"ĠNFL":12891,"--;":12892,"ĠJoh":12893,"Fix":12894,"Ġfear":12895,"]\\":12896,"Temp":12897,"DTD":12898,"Ġsnapshot":12899,"Ġowners":12900,"Into":12901,"Unmar":12902,"finity":12903,"ĠSound":12904,"buttons":12905,"essed":12906,"Christ":12907,"eli":12908,"]['":12909,"you":12910,"Ġenforce":12911,"ĠModern":12912,"conditions":12913,"Ġvec":12914,"Ġultimately":12915,"requency":12916,"Ġmarketing":12917,"ighth":12918,"entries":12919,"ĠSurvey":12920,"Aff":12921,"Blocks":12922,"Ġfi":12923,"REAM":12924,"COUNT":12925,"VC":12926,"German":12927,"abil":12928,"ultural":12929,"Factor":12930,"Ġpercentage":12931,"Modifier":12932,"({\\":12933,"Keyword":12934,"TEXTURE":12935,"Ġauthentication":12936,"territory":12937,"ĠMun":12938,"ĠMatt":12939,"Ġextensive":12940,"Ġpowers":12941,"ogy":12942,"Ġpersons":12943,"udes":12944,"CHAN":12945,"Ġcharged":12946,">%":12947,"otten":12948,"apple":12949,"Ġaid":12950,"IEW":12951,"ĠCzech":12952,"allenge":12953,"Ġms":12954,"ĠKnow":12955,"ieval":12956,"redirect":12957,"Backend":12958,"etry":12959,"Ġboot":12960,"via":12961,"Ġstroke":12962,"ieves":12963,"Numer":12964,"east":12965,"Ġnested":12966,"ĠAmb":12967,"Ġdeprecated":12968,"ĠĠĠĠĠĠĠĠĠĠĠĠĠĠĠĠĠĠĠĠĠĠĠĠĠĠĠĠĠĠĠĠĠĠĠĠĠĠĠĠ":12969,">(<":12970,"venth":12971,"Ġinvolving":12972,"ĠMemorial":12973,"ĠLeon":12974,"FIL":12975,",$":12976,"ahoma":12977,"ĠAssoci":12978,"ĠBall":12979,"Ġresponses":12980,"Ġtwenty":12981,"ByName":12982,"ĠSTART":12983,"icates":12984,"Ġvice":12985,"aaaa":12986,"tableblock":12987,"Ġdomestic":12988,"Ġhomes":12989,"ĠClasses":12990,"Ġmort":12991,"ĠConnection":12992,"ĠContainer":12993,"Tools":12994,"ĠBat":12995,"amount":12996,"initialize":12997,"Ġcfg":12998,"/)":12999,"Sch":13000,"plays":13001,"ĠAdam":13002,"uble":13003,"Ġhandled":13004,";|&":13005,"ĠAttribute":13006,"Ġindicated":13007,"(\"./":13008,"Every":13009,"comb":13010,"Pane":13011,"ĠConstructor":13012,"ÃŃa":13013,"ĠBuilding":13014,"512":13015,"ĠAlf":13016,"ĠThrough":13017,"Ġexperiments":13018,"ĠHart":13019,"}^{(":13020,"posable":13021,"ĠCov":13022,"ĠXml":13023,"Ġproved":13024,"Ġworldwide":13025,")|":13026,"agues":13027,"ĠMedal":13028,"ĠMiller":13029,"ELEMENT":13030,"360":13031,"ĠSingle":13032,"ĠFilter":13033,"iley":13034,"party":13035,">`":13036,"10000":13037,"Ġengineer":13038,"cookie":13039,"Fatalf":13040,"Ã¼r":13041,"ĠCastle":13042,"ĠRelease":13043,"ĠAllow":13044,"Ġcollaboration":13045,"solr":13046,"Ġtrim":13047,"Ġresistance":13048,"Ġscatter":13049,"Women":13050,"pagination":13051,"ĠProduct":13052,"Receive":13053,"Ġaspects":13054,"Ġparticipants":13055,"Ġrenew":13056,"Dict":13057,"Ġrestore":13058,"through":13059,"Ġcombat":13060,"arity":13061,"Organ":13062,"sun":13063,"Ġfunctional":13064,"WARN":13065,"ĠGenerate":13066,"acher":13067,"mime":13068,"Ġ[-":13069,"Ġnovels":13070,"ĠCert":13071,"observ":13072,"prod":13073,"ista":13074,"Ġopposition":13075,"ĠFish":13076,"?(":13077,"pk":13078,"VEL":13079,"mons":13080,"Ġvolunte":13081,"Ġiget":13082,"vance":13083,"ĠWhy":13084,"ĠInstead":13085,"umpy":13086,"Ġglass":13087,"ĠUnless":13088,"Ġtempor":13089,"Payload":13090,"1924":13091,"Ġdiscover":13092,"ĠSC":13093,"æĪ":13094,"ĠPhilippines":13095,"Ãł":13096,"Threshold":13097,"ĠTurkey":13098,"ulating":13099,"iversary":13100,"Ġbought":13101,"ĠDA":13102,"Ġkilling":13103,"Ġtsd":13104,"ĠFall":13105,"REQUEST":13106,"Prom":13107,")_":13108,"processor":13109,"Ġoppon":13110,"BM":13111,"esting":13112,"ĠGil":13113,"Ġcircle":13114,"unny":13115,"ĠPos":13116,"Ġrendered":13117,"ifferent":13118,"ĠTennessee":13119,"()`":13120,"describe":13121,"ĠItem":13122,"Calendar":13123,"angel":13124,"Ġvision":13125,"Accessor":13126,"ĠCop":13127,"Ġwealth":13128,",\"./":13129,"rik":13130,"111":13131,"Ġattrib":13132,"Ġspeak":13133,"Ġpainting":13134,"OBJECT":13135,"marker":13136,"Anchor":13137,"separator":13138,"latest":13139,"Ġjournalist":13140,"BER":13141,"Ġloan":13142,"helpers":13143,"allowed":13144,"Clean":13145,"Design":13146,"FTWARE":13147,"Without":13148,"OL":13149,"licated":13150,"ĠReb":13151,"1922":13152,"Ġimplicit":13153,"!=":13154,"ĠExecutive":13155,"imiter":13156,"Foundation":13157,"aron":13158,"Ġassist":13159,"Ġaffili":13160,"Ġxhr":13161,"ambig":13162,"LAB":13163,"Why":13164,"ĠJavaScript":13165,"ubb":13166,"Times":13167,"character":13168,"Ġparliament":13169,"Ġtrained":13170,"Ġpackages":13171,"ĠOwn":13172,"Ġdeclare":13173,"ĠEntertainment":13174,"ĠEP":13175,"Ġhits":13176,"Ġopinion":13177,"iry":13178,"Ġprecise":13179,"altColor":13180,"Although":13181,"beans":13182,"ĠMS":13183,"indicator":13184,"azure":13185,"ĠMaryland":13186,"ĠWord":13187,"Traits":13188,"1843":13189,"Retry":13190,"Ġliqu":13191,"Fire":13192,"ĠPosition":13193,"ĠEll":13194,"Ùħ":13195,"ĠVi":13196,"Ġsac":13197,"fox":13198,"ĠIllegalArgumentException":13199,"Ġseeing":13200,"Ġemp":13201,"lon":13202,"MSG":13203,"classic":13204,"works":13205,"Ġparticles":13206,">.</":13207,"Setup":13208,"iami":13209,"running":13210,"Ġcausing":13211,"limits":13212,"ĠPier":13213,"stances":13214,"Ġ//!":13215,"RIGHT":13216,"Ġclassic":13217,"Inject":13218,"ulp":13219,"ĠAge":13220,"Ġsupposed":13221,"ĠSher":13222,"Entries":13223,"news":13224,"ĠArthur":13225,"aneous":13226,"ĠFederation":13227,"Ġmacro":13228,"Jap":13229,"npm":13230,"team":13231,"Ġshut":13232,"Ġsuperv":13233,"ĠYouTube":13234,"ĠDatabase":13235,"Mail":13236,"118":13237,"ĠParameters":13238,"bundle":13239,"Zoom":13240,"Ġevaluation":13241,"Ġexperienced":13242,"ĠConstruct":13243,"frag":13244,"Ġmarkets":13245,"tm":13246,"ĠUP":13247,"door":13248,"ĠKhan":13249,"Her":13250,"Ġthanks":13251,"ĠLev":13252,"MenuItem":13253,"oi":13254,"Ġshares":13255,"ĠConstant":13256,"Ġintelligence":13257,"Ġresponsibility":13258,"Ġideal":13259,"ĠPa":13260,"SUCCESS":13261,"kh":13262,"Ip":13263,"1931":13264,"FP":13265,"UA":13266,"Ġlogin":13267,"ĠPit":13268,"ĠArizona":13269,"setting":13270,"olis":13271,"Ġwrapped":13272,"rv":13273,"ĠSerb":13274,"\"}":13275,"Ġvariant":13276,"sWith":13277,"Ġhall":13278,"Ġmoves":13279,"Ġstrike":13280,"illery":13281,"ĠAuth":13282,"ĠCab":13283,"ido":13284,"Ġcrash":13285,"Ġ&#":13286,"ordon":13287,"Ġcomfort":13288,"vard":13289,"Ġemission":13290,"Ġsucceed":13291,"ĠIT":13292,"ĠSky":13293,"Ġrepresentative":13294,"Ġrecovery":13295,"Ġsurn":13296,"Ġparish":13297,"ĠCONDITION":13298,"Attachment":13299,"ĠHouston":13300,"ashes":13301,"ĠBishop":13302,"ĠMill":13303,"overlay":13304,"Ġexceed":13305,"Ġ')":13306,"stderr":13307,"uj":13308,"ĠWHERE":13309,"Ġplanet":13310,"ĠTownship":13311,"Vec":13312,"Ġrelationships":13313,"Ġweapons":13314,"nie":13315,"Ġracing":13316,"ĉĉĉĉĉĉĉĉĉĉĉ":13317,"Separator":13318,"Ġqueries":13319,"1925":13320,"Å¾":13321,"ĠHighway":13322,"Ġproport":13323,"metrics":13324,"presentation":13325,"ordered":13326,"Ġcro":13327,"Ġclosely":13328,"Ġhosts":13329,"Ġaws":13330,"ĠAC":13331,"states":13332,"EventArgs":13333,"closed":13334,"Subject":13335,"################################":13336,"ĠMD":13337,"inery":13338,"Ġpun":13339,"erring":13340,"Ġemotion":13341,"good":13342,"LENGTH":13343,"rainian":13344,"ĠSite":13345,"Ġreporting":13346,"Ġranked":13347,"ĠOfficer":13348,"GP":13349,"1927":13350,"Defined":13351,"ĠStop":13352,"aza":13353,"Ġattempted":13354,"Transfer":13355,"ROOT":13356,"ĠPlayer":13357,"Strings":13358,"Ġpriest":13359,"Ġsv":13360,"San":13361,"appings":13362,"Ġinstructions":13363,"Ġexplanation":13364,"reverse":13365,"oli":13366,"olute":13367,"Ġdipl":13368,"except":13369,"Ġbands":13370,"Ġflux":13371,"MetaData":13372,"Nil":13373,"Views":13374,"witzer":13375,"uction":13376,"Ġclosing":13377,"Slot":13378,"Ġsheet":13379,"Ġmanagers":13380,"poser":13381,"/#":13382,"??":13383,"Immutable":13384,"ĠHost":13385,"Ġexplain":13386,"Ġdistricts":13387,"Ġcontr":13388,"Picker":13389,"Ġconfigure":13390,"115":13391,"icians":13392,"Ġyourself":13393,"oking":13394,"NON":13395,"invoke":13396,"inating":13397,"Ġagents":13398,"abstract":13399,"StringBuilder":13400,"Ġwx":13401,"ĠOC":13402,"Cookie":13403,"Ġbringing":13404,"ifference":13405,"Ġmanifest":13406,".\")":13407,"Ġdesignated":13408,"Structure":13409,"mc":13410,"adoc":13411,"ugar":13412,"ichol":13413,"umps":13414,"izard":13415,"ĠUSE":13416,"zed":13417,"1921":13418,"omial":13419,"ĠAgain":13420,"itivity":13421,"ĠMagazine":13422,"PDF":13423,"Ġgreatest":13424,"Ġelectronic":13425,"poi":13426,"Ġshooting":13427,"Film":13428,"nos":13429,"Ġhumans":13430,"Another":13431,"sch":13432,"ĠÐ½":13433,"Ġatmosp":13434,"Upper":13435,"Ġportray":13436,"infl":13437,"Annotations":13438,"MLE":13439,"operatorname":13440,"102":13441,"Called":13442,"cus":13443,"Ġhelping":13444,"fac":13445,"lu":13446,"Ġrecover":13447,"nobr":13448,"ĠSquad":13449,"atest":13450,"zy":13451,"Ġ(),":13452,"Ġkw":13453,"ĠLabel":13454,"coln":13455,"Ġemployed":13456,"FRAME":13457,"Ġfly":13458,"Ġpermanent":13459,"Ġclause":13460,"wi":13461,"Ġsuitable":13462,"Ġopposed":13463,"Ġannotation":13464,"AK":13465,"Ġregistry":13466,"ownt":13467,"Lang":13468,"1926":13469,"Ġrugby":13470,"ĠCru":13471,"1912":13472,"reflect":13473,"Ġjun":13474,"Ġemergency":13475,"Ġintroduction":13476,"ĠPod":13477,"Seq":13478,"Ġjustice":13479,"192":13480,"Ġconserv":13481,"Intent":13482,"Ġprices":13483,"tasks":13484,"Ġexpressions":13485,"ĠHO":13486,"setText":13487,"MR":13488,"Ġvertices":13489,"vet":13490,"textarea":13491,"Ġperspective":13492,"Ġusual":13493,"Multiple":13494,"Ġconsequ":13495,"Ġauthent":13496,"ĠVar":13497,"ĠCONDITIONS":13498,"aque":13499,"Ġkeeping":13500,"roit":13501,"Ġtradition":13502,"FUNCTION":13503,"opsis":13504,"lad":13505,"ï¿":13506,"override":13507,"packages":13508,"Songs":13509,"attice":13510,"Ġ=================================================================":13511,"ousel":13512,"Pojo":13513,"ĠSav":13514,"Inf":13515,"witzerland":13516,"Ġinstr":13517,"Relative":13518,"ĠAdministration":13519,"Ġmales":13520,"Ġcellpadding":13521,"rise":13522,"BYTE":13523,"EOF":13524,"Equ":13525,"ifts":13526,"âĢ¢":13527,"Ġ\");":13528,"Ġcreative":13529,"andidate":13530,"esis":13531,"Asset":13532,"Ġpert":13533,"ĠLoc":13534,":-":13535,"Ġdiscovery":13536,"Ġregistration":13537,"AtA":13538,"Ġdenote":13539,"hedral":13540,"Sender":13541,"ĠHashMap":13542,"Checked":13543,"ĠColon":13544,"Ġposts":13545,"Ġhint":13546,"western":13547,"erd":13548,"includes":13549,"Ġeffectively":13550,"ĠĠĠĠĠĠĠĠĠĠĠĠĠĠĠĠĠĠĠĠĠĠĠĠĠĠĠĠĠĠĠĠĠĠĠĠĠĠĠĠĠ":13551,"Req":13552,"ocracy":13553,"Mal":13554,"Ġdiagram":13555,"argo":13556,"Shadow":13557,"Ġdelet":13558,"Std":13559,"ĠGLuint":13560,"Olymp":13561,"ĠĠĠĠĠĠĠĠĠĠĠĠĠĠĠĠĠĠĠĠĠĠĠĠĠĠĠĠĠĠĠĠĠĠĠĠĠĠĠĠĠĠĠĠĠĠĠĠĠĠĠ":13562,"ĠFellow":13563,"Topic":13564,"Ġ/**<":13565,"Ġobservable":13566,"ĠTarget":13567,"ĠCC":13568,"widehat":13569,"listeners":13570,"kernel":13571,"pearance":13572,"Ġstrugg":13573,"ĠsetTimeout":13574,"Testing":13575,"NUnit":13576,"ĠBASIS":13577,"ĠMalays":13578,"ĠDeath":13579,"Until":13580,"priority":13581,"Proc":13582,"iator":13583,"ĠUSB":13584,"Ġdyn":13585,"ellite":13586,"GT":13587,"scious":13588,"ĠBaseball":13589,"oxy":13590,"pended":13591,"wire":13592,"leased":13593,"Schedule":13594,"LOAT":13595,"Ġenemy":13596,"clock":13597,"oust":13598,"Ġassignment":13599,"regex":13600,"Components":13601,"Ġsharing":13602,"Ġgar":13603,"Ġbelief":13604,"literal":13605,"104":13606,"Ġanalyt":13607,"Pref":13608,"een":13609,"ĠAWS":13610,"changes":13611,"Ġ/><":13612,"Ġoldest":13613,"HC":13614,"ĠSeason":13615,"ensis":13616,"Paint":13617,"}\\\\":13618,"ĠDonald":13619,"___":13620,"åĬ":13621,"ĠTypeError":13622,"Ġexposed":13623,"igo":13624,"ĠRO":13625,"chrome":13626,"ĠDeterm":13627,"ipedia":13628,"Ġenumer":13629,"Ġarrang":13630,"Ġaccuracy":13631,"Ġapps":13632,"ĠDraw":13633,"ĠSenior":13634,"ÏĢ":13635,"Ġsole":13636,"116":13637,"loom":13638,"LOB":13639,"ENC":13640,"ĠAgr":13641,"ĠBarn":13642,"MAN":13643,"Sig":13644,"Ġconsecutive":13645,"Pages":13646,"uum":13647,"peg":13648,"Live":13649,"POINT":13650,"ĠGenerated":13651,"islation":13652,"urst":13653,"ĠGrant":13654,"ĠIF":13655,"Generate":13656,"Biography":13657,"Deployment":13658,"Ġspend":13659,"]</":13660,"nonatomic":13661,"osity":13662,"inema":13663,"ĠIR":13664,"Forward":13665,"Ġimmediate":13666,"Ġpilot":13667,"Ġfd":13668,"ĠStorage":13669,"Ġreply":13670,"Ġstands":13671,"Ġprintf":13672,"dirname":13673,"Ġrhs":13674,"ĠRegional":13675,"[(":13676,"extract":13677,"Records":13678,"Ġsevere":13679,"ĠGT":13680,"Ġinterests":13681,"Ġpreferred":13682,"sizeof":13683,"Ġiterate":13684,"\"?>":13685,"Ġlegacy":13686,"Registration":13687,"holders":13688,"ĠMoscow":13689,"ĠBan":13690,"initely":13691,"Connector":13692,"ĠGran":13693,"Mobile":13694,"minus":13695,"++]":13696,"1923":13697,"Ġanalog":13698,"guide":13699,"scripts":13700,"ĠNorway":13701,"uris":13702,"zo":13703,"away":13704,"FIN":13705,"ĠparseInt":13706,"Unique":13707,"Ġhex":13708,"ĠIowa":13709,"Ġeducational":13710,"×ķ×":13711,"samples":13712,":%":13713,"percent":13714,"Fixture":13715,"danger":13716,"ĠTab":13717,"Ġhun":13718,"Ġreligion":13719,"orts":13720,"ĠDream":13721,"Ġdependency":13722,"Allowed":13723,"ĠMas":13724,"Ġglyph":13725,"hint":13726,"ĠLiter":13727,"stan":13728,"Ġadm":13729,"ĠContin":13730,"Ev":13731,"ĠRol":13732,"Ġprovision":13733,"ĠJam":13734,"ĠClark":13735,"packet":13736,"ĠVietnam":13737,"ĠCred":13738,"-$":13739,"Il":13740,"Ratio":13741,"wick":13742,"æķ°":13743,"Ġslo":13744,"Filename":13745,"ĠÃł":13746,"Following":13747,"ĠSin":13748,"shaller":13749,"Ġpartners":13750,"ystal":13751,"ĠObservable":13752,"-------":13753,"placement":13754,"empl":13755,"Ok":13756,"interop":13757,"dump":13758,"lav":13759,"Modules":13760,"PIO":13761,"ĠMatrix":13762,"cas":13763,"ĠBab":13764,"emony":13765,"ategor":13766,"Ġbroke":13767,"wich":13768,"Your":13769,"]$":13770,"Ġbehaviour":13771,"Ġphenomen":13772,"ĠPeak":13773,"lee":13774,"dating":13775,"Ġregex":13776,"MESSAGE":13777,"rons":13778,"ĠDead":13779,"ORS":13780,"140":13781,"']))":13782,"ĠZh":13783,"abama":13784,"ĠWait":13785,"Ġnice":13786,"Ġswe":13787,"Ġrent":13788,"ï¿½":13789,">$":13790,"incial":13791,"indices":13792,"Ġdirective":13793,"Ġdecade":13794,"ĠNev":13795,"ells":13796,"actic":13797,"openapi":13798,"LEVEL":13799,"Ġaccessible":13800,"Ġblob":13801,"Ġcompiled":13802,"ĠKat":13803,"Ġinherited":13804,"Ġhorizontal":13805,"}}(":13806,"Ġwalls":13807,"Ġburied":13808,"Occ":13809,"ĠRound":13810,"Ġsubmit":13811,"Ġtransmission":13812,"atable":13813,"SPE":13814,"(`":13815,"ĠExpress":13816,"ders":13817,"Ġcontributed":13818,"unately":13819,"agement":13820,"elled":13821,"ÐµÑĤ":13822,"mixin":13823,"Ġknows":13824,"ĠMexican":13825,"uating":13826,"ĠÂ©":13827,"ĠTony":13828,"Claim":13829,"ĠMelbourne":13830,"ĠSquare":13831,">{":13832,"itals":13833,"ĠBaron":13834,"amazonaws":13835,"Angle":13836,"Canadian":13837,"Ġdeployment":13838,"complex":13839,"Cart":13840,"visions":13841,"TableRowColor":13842,"RENT":13843,"stringify":13844,"Ġinitialized":13845,"ivals":13846,"UUID":13847,"Ġspecifies":13848,"Blockly":13849,"Ġcaller":13850,"Ġequals":13851,"Ġleaf":13852,"ĠSep":13853,"Ġstanding":13854,"ĠKy":13855,"Death":13856,"Ġcallbacks":13857,"Ġframes":13858,"elect":13859,"Ġscenes":13860,"terior":13861,"White":13862,"anny":13863,"Ġremark":13864,"Ġapproaches":13865,"Ġslide":13866,"ctic":13867,"ĠAdded":13868,"Align":13869,"APIENTRYP":13870,"ĠManchester":13871,"neq":13872,"ĠFreder":13873,"Ġdecisions":13874,"Pat":13875,"//----------------------------------------------------------------":13876,"Ġcookie":13877,"ĠMunicipal":13878,"Spe":13879,"preventDefault":13880,"ĠAP":13881,"ĠSM":13882,"ĠSimon":13883,"1916":13884,"Ġna":13885,"Ġtheatre":13886,"Men":13887,"Ġgit":13888,"Css":13889,"'\\":13890,"lb":13891,"ĠPhilip":13892,"Ġfluid":13893,"Ġcharacteristics":13894,"NEL":13895,"apps":13896,"Assign":13897,"Ġweekend":13898,"Ġmaintained":13899,"Ġsender":13900,"awesome":13901,"ĠHotel":13902,"unes":13903,"dbc":13904,"PREFIX":13905,"Ġkil":13906,"ĠProperties":13907,"Uses":13908,"William":13909,"ĠFran":13910,"Ġ\";":13911,"Ġmile":13912,"Ġvocal":13913,"ĠBah":13914,"ĠTIM":13915,"wallet":13916,"ĠGLsizei":13917,"Ġfra":13918,"âĢī":13919,"angers":13920,"mathsf":13921,"general":13922,"ĠBurn":13923,"TagName":13924,"Ġinh":13925,"Ġdual":13926,"=\"'":13927,"uls":13928,"Ġzoom":13929,"Ġanimated":13930,"Ġtalking":13931,"iac":13932,"sis":13933,"toc":13934,"iva":13935,"itecture":13936,"ĠSession":13937,"Ġdeclaration":13938,"ĠSOFTWARE":13939,"ĠTen":13940,"ĠAz":13941,"Ġstages":13942,"\"])":13943,"Ġsegments":13944,"pn":13945,"iframe":13946,"xsd":13947,"Compilation":13948,"ĠJunior":13949,"AUTH":13950,"Ġcards":13951,"ĠOK":13952,"ifold":13953,"ĠSri":13954,"dependencies":13955,"Ġ[{":13956,"iang":13957,"Ġfavour":13958,"ĠHom":13959,"Ty":13960,"Awards":13961,"Ġevening":13962,"shell":13963,"subscription":13964,"Matches":13965,"ĠKentucky":13966,"usive":13967,"Ġroof":13968,"ĠShared":13969,"Ġinvariant":13970,"Ġrestaurant":13971,"Ð¹":13972,"ĠEntity":13973,"Ġ[#":13974,"Ġranges":13975,"vironments":13976,"1915":13977,"Millis":13978,"105":13979,"Ġadvice":13980,"Ġinteractions":13981,"Ġsymbols":13982,"ĠLind":13983,"Dist":13984,"}],":13985,"ĠDiego":13986,"Ġproducing":13987,"iat":13988,"criptors":13989,"ĠDisney":13990,"Scene":13991,"ViewController":13992,"Ġchecking":13993,"panic":13994,"](#":13995,"Ġ$(\\":13996,"Surface":13997,"Ġefficiency":13998,"execution":13999,"mbed":14000,"Ġtranslated":14001,"googleapis":14002,"ARK":14003,"Ġpossibility":14004,"ĠNum":14005,"Priv":14006,"Ġallocated":14007,"aus":14008,"Ġmm":14009,"ucks":14010,"ĠBalt":14011,"ĠMethods":14012,"ĠVolume":14013,"Dash":14014,"ĠJane":14015,"rand":14016,"Ġhandlers":14017,"Ġregime":14018,"uese":14019,"achelor":14020,"Ġcompl":14021,"404":14022,"heim":14023,"III":14024,"Ġhop":14025,"TOM":14026,"Mesh":14027,"wealth":14028,"Ġ\"--":14029,"textwidth":14030,"Ġchairman":14031,"Mov":14032,"Ġpara":14033,"elve":14034,"Ġcollapse":14035,"ĠTech":14036,"\\,\\":14037,"Ġdefinitions":14038,"usage":14039,"Ġairport":14040,"Score":14041,"rootScope":14042,"ĠRepresentatives":14043,"IES":14044,"iso":14045,"ĠOnline":14046,"UK":14047,"Ġattach":14048,"!</":14049,"Ġ}));":14050,"stylesheets":14051,"Ġcredentials":14052,"Ġidentical":14053,"sources":14054,"Ġmeasurements":14055,"Ġll":14056,"STRU":14057,"tuple":14058,"`:":14059,"ĠSilver":14060,"=\"{{":14061,"ivial":14062,"Ġrear":14063,"Ġconj":14064,"Ġmotiv":14065,"Ep":14066,"Warnings":14067,"Ġvillages":14068,"Integ":14069,"Router":14070,"jackson":14071,"Ġcertainly":14072,"CRIPT":14073,"ĠSix":14074,"ĠLevel":14075,"cling":14076,"ras":14077,"Describe":14078,"Ġ(!$":14079,"ĠImport":14080,"Ġlocally":14081,"Emitter":14082,"Quant":14083,"backend":14084,"ĠRyan":14085,"ĠValidate":14086,"mn":14087,"Ġvirus":14088,"ĠMir":14089,"Ġcellspacing":14090,"living":14091,"Ġcolour":14092,"rott":14093,"atten":14094,"ĠED":14095,"ĠChart":14096,"ĠCS":14097,"sizing":14098,"Ġcalendar":14099,"Ġ$$":14100,"Requests":14101,"ĠEdition":14102,"ĠSchema":14103,"ĠAst":14104,"Ġexhibition":14105,"ITER":14106,"ĠReset":14107,"Ġmeasurement":14108,"Could":14109,"ĠPlatform":14110,"ĠGC":14111,"Ġ_{":14112,"Ġresearchers":14113,"destination":14114,"Ġwhereas":14115,"Ġtries":14116,"Sel":14117,"ĠStringBuilder":14118,"ĠTEST":14119,"Tensor":14120,"Ġveter":14121,"Ġinterior":14122,"ĠSET":14123,"Ġwww":14124,"comments":14125,"mov":14126,"projects":14127,"Ġdrawing":14128,"Ð¾Ð»":14129,"lined":14130,"mont":14131,"Operand":14132,"Expand":14133,"Ã©t":14134,"servlet":14135,"ĠJordan":14136,"olate":14137,"Ġunderst":14138,"Ġcapable":14139,"nan":14140,"Ġtile":14141,"Radio":14142,">${":14143,"Ġpresidential":14144,"PRI":14145,"Stud":14146,"Ġcorre":14147,"Ġassistance":14148,"Ġparticipate":14149,"Ġsnow":14150,"Ġcharts":14151,"Ġstub":14152,"Ġaccurate":14153,"ĠTHREE":14154,"Ent":14155,"Ġconstexpr":14156,"ynchronous":14157,"Injection":14158,"ĠJos":14159,"sat":14160,"Ġhero":14161,"Ġongoing":14162,"prene":14163,"Percent":14164,"()\">":14165,"Ġsought":14166,"Archive":14167,"ĠSmall":14168,"apel":14169,"ologists":14170,"Ġcloser":14171,"Ġuncertaint":14172,"ĠHo":14173,"mazing":14174,"Ġexceptions":14175,"square":14176,"Ġfaced":14177,"ĠEC":14178,"Partial":14179,"GA":14180,"ĠHoly":14181,"Ġprog":14182,"ENCE":14183,"HANDLE":14184,"ĠHu":14185,"ĪĴ":14186,"Rich":14187,"Sol":14188,"acl":14189,"cpy":14190,"David":14191,"Ġcraft":14192,"Ġpredicate":14193,"Ġsteel":14194,"ROW":14195,"Ġwheel":14196,"ĠBrand":14197,"aire":14198,"Nested":14199,"Ġchapter":14200,"aho":14201,"ĠConstitution":14202,"environment":14203,"Geography":14204,"Mich":14205,"ĠBody":14206,"manifest":14207,"Ġmovies":14208,"Refresh":14209,"Ġ!(":14210,"unsafe":14211,"Ġintegrated":14212,"Ġasset":14213,"ÙĪ":14214,"ĠTa":14215,"Ġtot":14216,"STREAM":14217,"ĠTHIS":14218,"ĠAI":14219,"ĠNOTE":14220,"visibility":14221,"ADDING":14222,"quisition":14223,"Round":14224,"Ġhandles":14225,"ĠLemma":14226,"ĠTests":14227,"Ġinternet":14228,"]];":14229,"Der":14230,"Ġris":14231,"inch":14232,"Ġmanip":14233,"ĠClose":14234,"Ġpremier":14235,"Ġlose":14236,"klahoma":14237,"ĠRule":14238,"Gateway":14239,"Ġcorresponds":14240,"Ġfeeling":14241,"Ġthank":14242,"ĠPublished":14243,"Coord":14244,"Party":14245,"Ġinteract":14246,"'},":14247,"ĠMit":14248,"ĠStone":14249,"Kernel":14250,"Ġbelongs":14251,"oca":14252,"ĠAllen":14253,"åŃ":14254,"({},":14255,"Ġfunctionality":14256,"DataSource":14257,"Populated":14258,"Ġnominated":14259,"Ġtrains":14260,"racing":14261,"Ġpotentially":14262,"900":14263,"()]":14264,"OPTION":14265,"Ġbrothers":14266,"olly":14267,"SYS":14268,"ĠTreat":14269,"Ġsixth":14270,"Ġphysics":14271,"best":14272,"ĠMi":14273,"Ġlake":14274,".(":14275,"lus":14276,"incess":14277,"-----":14278,"Af":14279,"reprene":14280,"ĠChrome":14281,"1913":14282,"Attempt":14283,"Bag":14284,"ĠTel":14285,"Ġexcellent":14286,"itics":14287,"Ġstarring":14288,"moment":14289,"ĠChem":14290,"Ġrating":14291,"Ġsynchronized":14292,"aton":14293,"Ġrefused":14294,"ĠBeng":14295,"Reply":14296,"fish":14297,"configure":14298,"Ġcash":14299,"NaN":14300,"Ġsoci":14301,"ĠFT":14302,"ĠGab":14303,"Ġsimpl":14304,"icide":14305,"Ġdynamics":14306,"Eq":14307,"innerHTML":14308,"Comb":14309,"rock":14310,"ĠGET":14311,"ĠTemple":14312,"ĠProm":14313,"ĠSystems":14314,"Ġminimal":14315,"igrants":14316,"Ġcrick":14317,"xf":14318,"Ġschol":14319,"isode":14320,"ju":14321,"ĠDNA":14322,">';":14323,"è¡":14324,"Ġdire":14325,"essaging":14326,"ĠMoon":14327,"ÑĨ":14328,"TOO":14329,"ĠJay":14330,"Ġconsidering":14331,"/'":14332,"Dimension":14333,"ĠLeb":14334,"ĠAmong":14335,"chat":14336,"+\"":14337,"Ġhardware":14338,"Ġconstitution":14339,"ĠBus":14340,"Ġretry":14341,"Price":14342,"Ġhypot":14343,"ĠWhere":14344,"ĉĉĠ":14345,"Ġnotify":14346,"Ġ(((":14347,"ĠEuro":14348,"ĠNever":14349,"developer":14350,"ippi":14351,"SQLite":14352,"agan":14353,"uther":14354,"SDL":14355,"ubic":14356,"ĠVice":14357,"{{\\":14358,"numeric":14359,"ĠOk":14360,"ĠArk":14361,"ustries":14362,"ERTY":14363,"ĠAgency":14364,"disk":14365,"WORK":14366,"Ġsubset":14367,"hor":14368,"Ġillegal":14369,"Olympic":14370,"asp":14371,"enumerate":14372,"Ġexplore":14373,"anches":14374,"Ġpremi":14375,"ardo":14376,"JavaScript":14377,"ITLE":14378,"ĠLead":14379,"ĠSwitzerland":14380,"ĠcancellationToken":14381,"eno":14382,"Cross":14383,"ouches":14384,"*>":14385,"Ġphotos":14386,"nodeName":14387,"tah":14388,"Ġscientists":14389,"Ġlistening":14390,"ĠPhot":14391,"Ġaged":14392,"Ġmomentum":14393,"RTC":14394,"interopRequire":14395,"Ġsock":14396,"javax":14397,"Git":14398,"quant":14399,"zi":14400,"è®":14401,"icut":14402,"Ops":14403,"ĠTrade":14404,"ĠMarine":14405,"ificial":14406,"ĠPed":14407,"Ġbreaking":14408,"Ġconcrete":14409,"egas":14410,"}+\\":14411,"ĠGib":14412,"Translation":14413,"Ġtower":14414,"ĠÄ":14415,"Mr":14416,"ĠHollywood":14417,"Dan":14418,"Ġclim":14419,"ĠDun":14420,"ymn":14421,"Ġterminal":14422,"Ġfeedback":14423,"Force":14424,"generic":14425,"ĠFinally":14426,"Ġintention":14427,"Figure":14428,"Ġconsisting":14429,"Ġsigns":14430,"inus":14431,"rained":14432,"jor":14433,"Ġhearing":14434,"Phil":14435,"Ġapprec":14436,"leet":14437,"ĠEN":14438,"Ġfalls":14439,"âĶ":14440,"Ġ@{":14441,"ĠPalest":14442,"Hidden":14443,"ryptoJS":14444,"ein":14445,"Ġintersection":14446,"ĠRegExp":14447,"Ġgrade":14448,"ĠFixed":14449,"Ġ&\\":14450,"onav":14451,"Filters":14452,"ĠPNG":14453,"rices":14454,"Ġvirt":14455,"getTime":14456,"Ġcros":14457,"live":14458,"noindent":14459,"Ġbrows":14460,"Ġboat":14461,"ç»":14462,"Ġvulner":14463,"Ġsigning":14464,"ACING":14465,"ĠBrun":14466,"Ġgoods":14467,"ĠLIC":14468,"ĠHoward":14469,"Ġsympt":14470,"xFFFF":14471,"ordinates":14472,"Ġdecide":14473,"Ġpit":14474,"ĠAws":14475,"Har":14476,"Ġmayor":14477,"Ġhole":14478,"period":14479,"Ġreserve":14480,"wen":14481,"1911":14482,"Ġincorrect":14483,")*":14484,"licas":14485,"UNK":14486,"prov":14487,"ĠAfg":14488,"gp":14489,"Bul":14490,"eman":14491,"eled":14492,"thew":14493,"Ġtopics":14494,"Ġstrategies":14495,"xFF":14496,"pick":14497,"Ġcritics":14498,"Ġcoaches":14499,"Ãª":14500,"LES":14501,"ĠCapital":14502,"ĠAnthony":14503,"Ġsail":14504,"ĠTokyo":14505,"Through":14506,"must":14507,"Photo":14508,"Ġoffices":14509,"Ġfoundation":14510,"bx":14511,"synt":14512,"Ġinvited":14513,"ĠChecks":14514,"Ġinstallation":14515,"uscript":14516,"Ġcaptain":14517,"gence":14518,"ĠĠĠĠčĊ":14519,"Ġrenderer":14520,"hal":14521,"Ġdecode":14522,"}}{\\":14523,"Statistics":14524,"ĠGrad":14525,"OG":14526,"Ġsettled":14527,"Ġscre":14528,"spin":14529,"ĠDoc":14530,"Ġcompre":14531,"cline":14532,"ĠAustria":14533,"ĠCape":14534,"ĠThird":14535,"Ġtechnologies":14536,"Ġattorney":14537,"ĠLank":14538,"cases":14539,"ĠForces":14540,"Publish":14541,"LEN":14542,"Ġrevolution":14543,"roadcast":14544,"ĠPatrick":14545,"Å«":14546,"Ġrain":14547,"ĠProfile":14548,"ExternalTask":14549,"Low":14550,"AMETER":14551,"ĠLincoln":14552,"multiple":14553,"Ġmob":14554,"Ġrs":14555,"Ġheadquarters":14556,"Ġeg":14557,"burn":14558,"aware":14559,"Ġaccommod":14560,"camera":14561,"brains":14562,"dataset":14563,"Europe":14564,"Ġscenario":14565,"urric":14566,"Ġneither":14567,"caret":14568,"nate":14569,"stion":14570,"FM":14571,"Ġut":14572,"Ġmedalists":14573,"keeper":14574,"Ġreads":14575,"LINK":14576,"afka":14577,"Ġteachers":14578,"TING":14579,"CEPT":14580,"Ġfolk":14581,"appy":14582,"'\"":14583,"Ġengaged":14584,"Ġrestart":14585,"ĠPA":14586,"Ġtheorem":14587,"ĠMiami":14588,"VT":14589,"Speed":14590,"BOOST":14591,"dtd":14592,"existing":14593,"getText":14594,"enda":14595,"Ġjoining":14596,"ĠHans":14597,"Ġmoder":14598,"ĠMoore":14599,"Bridge":14600,"urd":14601,"readonly":14602,"Ġwhatever":14603,"upper":14604,"Ġptr":14605,"ĠBureau":14606,"future":14607,"alyzer":14608,"Ġintegral":14609,"heap":14610,"andal":14611,"CTRL":14612,"ĠResources":14613,"ection":14614,"icity":14615,"ĠKevin":14616,"cessed":14617,"Ġvolumes":14618,"Ġserialized":14619,"tick":14620,"ocused":14621,"ĠâĢł":14622,"allas":14623,"ĠSuch":14624,"ige":14625,"Ġlowest":14626,"iagram":14627,"Also":14628,"ceived":14629,"worker":14630,"'):":14631,"ĠThrow":14632,"ExternalTaskPojo":14633,"East":14634,"tv":14635,"Ġentitled":14636,"Dispatcher":14637,"Than":14638,"[];":14639,"Bibliography":14640,"ĠAuthority":14641,"Ġinhib":14642,"preview":14643,"Ġcorn":14644,"Ġprojection":14645,"Ġlicensed":14646,"Ġmine":14647,"Mc":14648,"Ġ$('#":14649,"ulus":14650,"Ġlift":14651,"ĠSel":14652,"ĠDaily":14653,"Ġeat":14654,"Ġiteration":14655,"ĠBOOL":14656,"Horizontal":14657,"Share":14658,"ĠGreece":14659,"Ġcommander":14660,"Ġ\"\")":14661,"Nor":14662,"hw":14663,"ARCH":14664,"Ġheavily":14665,"Ġformerly":14666,"who":14667,"Ġunexpected":14668,"inth":14669,"Ġlegislation":14670,"ĠÂ»":14671,"Ġadjacent":14672,"LC":14673,"ĠPas":14674,"Ġexcess":14675,"ogene":14676,"marks":14677,"hematics":14678,"Hex":14679,"Ġplate":14680,"agu":14681,"iop":14682,"<?>":14683,"vi":14684,"Ġtack":14685,
[...]
