#version: 0.2
Ġ Ġ
ĠĠ ĠĠ
Ġ t
i n
e r
o n
Ġ a
h e
r e
a t
e n
Ġt he
o r
s t
a l
a n
i t
Ġ c
a r
i on
l e
Ġ o
Ġ s
ĠĠ Ġ
e d
i s
ĠĠĠĠ ĠĠĠĠ
Ġ f
e s
Ġ w
Ġ p
i c
in g
Ġ in
r o
n d
Ġo f
Ġ b
a s
e t
c t
Ġ d
Ġ m
en t
Ġa nd
o u
e l
a m
Ġt o
i l
Ġ re
o m
Ġ h
Ġ \
Ġ n
i g
Ġt h
at ion
i d
Ġ $
o l
Ġ (
a c
i m
ĠĠĠĠ ĠĠĠ
Ġ S
Ġ e
u r
o t
Ġ T
u t
Ġ =
Ġ l
i v
Ġ C
s e
a d
Ġ A
ĉ ĉ
c e
u l
o d
Ġ is
< /
a g
t h
i f
= "
Ġf or
e m
) ;
u n
Ġ g
a b
c h
o w
u m
Ġ v
Ġ {
a y
Ġ M
u s
q u
Ġ I
Ġ st
er s
p e
l y
- -
at e
i st
č Ċ
Ġ on
a p
it h
Ġ <
i r
Ġb e
e x
Ġ P
Ġc on
Ġ B
t er
ct ion
t r
o c
ĠĠĠĠĠĠĠĠ ĠĠĠ
2 0
h t
Ġa s
as s
_ {
en d
v er
/ /
Ġ *
â Ģ
Ġth at
Ġ R
a v
p t
an d
Ġ H
re s
am e
at h
Ġ F
u b
Ġ D
e st
Ġw ith
Ġ L
Ġ "
e f
Ġa l
r i
1 9
Ġ }
e w
Ġp ro
a in
u p
Ġw h
Ġa n
Ġ N
o s
o p
ĠT he
u e
e g
es s
or t
Ġb y
" >
Ġ W
Ġ G
it y
Ġw as
l ass
ro m
ag e
Ġ E
{ \
e ct
in e
Ġ &
ar t
ou r
Ġe x
er e
ĠĠĠĠĠĠĠĠ ĠĠĠĠĠĠĠĠ
Ġc om
p l
o re
Ġ Ċ
Ġ r
ig ht
Ġ it
Ġa t
m ent
ex t
e c
n t
ĠĠĠĠ Ġ
Ġ$ \
u re
i z
i es
( )
Ġ or
ur n
al l
i al
o g
re f
l i
* *
ul t
Ġf rom
a k
s p
ab le
. .
g e
Ġa re
ac k
Ġth is
m ath
Ġ O
an t
iv e
e p
u d
Ġ J
p er
b er
il l
an s
Ġc lass
Ġt r
l d
i le
t urn
p ort
y pe
or m
0 0
st r
Ġw e
= =
in t
Ġ if
Ġ he
-- --
c on
it e
p h
ar y
Ġ U
od e
a ct
Ġ '
at ed
g et
a st
u nd
} \
Ġc h
o v
Ġ y
ar d
Ġ -
ig n
} $
' s
Ġ le
I n
a re
f f
i p
ic h
it ion
^ {
as e
i b
T he
p ro
) ,
ac e
or d
Ġn ot
el l
e v
20 1
Ġs h
ĠĠĠĠĠĠĠĠ ĠĠĠĠĠĠĠ
in d
m a
i re
l ic
at a
an g
t ext
f t
pt ion
k e
Ġs e
ic al
c l
Ġ K
c om
av e
t o
im e
u g
p le
i a
o st
) .
on g
j ect
ĠI n
ou t
f r
en s
il d
s er
Ġ //
Ġre turn
or k
Ġp l
} }
un ction
u st
al ue
id e
( \
ic e
c c
ation s
c al
- >
Ġ V
i an
en ce
Ġ us
Ġ |
Ġre s
ĉĉ ĉĉ
t a
eg in
Ġwh ich
: :
Ġ +
Ġ âĢ
f orm
en c
b egin
e qu
ub lic
Ġ </
d u
.. /
s o
Ġ [
C on
an ce
ar am
or y
Ġ un
Ġc an
Ġa r
l o
Ġ j
s s
ro w
th er
ĠS t
our ce
ac h
r a
f ig
p ut
ĠT h
l ow
en er
e ar
20 0
o k
Ġn ew
Ġa d
Ġh ave
Ġ im
c ri
Ġ @
" ,
Ġa p
Ġ k
S t
s et
) $
Ġh as
oc k
âĢ Ļ
res s
_{ \
u se
ab el
ou ld
} ,
Ġh is
iz e
ou s
ent s
el f
he n
is h
m l
ĠC h
ul l
r ight
E x
} {
Ġa b
Ġ /
o ver
on e
Ġcon t
( "
i el
Ġst r
ow n
( );
er m
d iv
et a
ir st
s h
1 0
ou nt
e q
on d
ou nd
Ġf unction
1 8
f er
ess age
cl ud
re e
Ġcom p
Ġd ef
iel d
m er
sp an
ol d
p s
> </
fr ac
t e
Ġal so
ter n
in k
' ,
er r
in al
l l
u al
at es
Ġal l
tr ing
ic t
et h
le s
r ay
at or
c he
Ġ .
er v
o b
---- ----
Ġo b
Ġs et
od el
Ġp art
Ġw ere
Ġs u
l abel
Ġin t
ar k
e le
Ġon e
w e
ion s
Ġd is
Ġp r
r ap
> <
y st
Ġ* /
Ġn ame
r it
Ġv ar
om e
i ew
t he
r m
ot h
Ġp ublic
w o
pe ct
le d
er t
l ine
Ġ :
../ ../
o int
** **
p r
math b
s um
ic s
ĉĉ ĉ
Ġo ut
n e
Ġe v
c ite
o ol
r y
Ġ ro
el y
== ==
Ġb ut
i x
le ft
Ġ qu
Ġ| |
c k
ro up
pe c
o se
) )
ĠĠĠĠĠĠĠĠ ĠĠĠĠĠĠĠĠĠĠĠ
Ġd e
yst em
n ame
P ro
ĠU n
en g
$ ,
ht ml
Ġf irst
um ber
i o
Ġs p
ĠĠĠĠĠĠĠĠ Ġ
Ġd o
( '
er y
o id
Ġw ill
$ .
Ġ up
Ġthe ir
Ġ Y
t y
_ _
ing s
Ġp er
Ġit s
or s
, \
a x
Ġm e
m b
th is
Ġp re
math cal
1 2
} .
c ol
Ġh ref
n g
ig h
N ame
E R
a il
le ct
he d
equ ation
} )
i ed
ĠI t
ak e
c re
f ter
Ġc ol
ke y
a w
ar g
at er
ation al
ĠH e
u ct
s ource
Ġo ver
Ġt wo
Ġg et
Ġc l
is s
l ation
c ent
Ġd es
m essage
p os
rap h
p aram
eth od
Ġm an
Ġin ter
Ġt ime
T ype
âĢ ĵ
\ \
tr ans
o f
Ġ #
at ic
19 9
Ġw ork
Ġt ype
ul ar
Ġh ad
Ġa g
am b
Ġv alue
O N
ap p
ut ion
o ok
Ġo ther
} (
im port
Ġy ou
am es
Ġd ata
S tring
Ġres ult
Ġwh o
d ef
Ġl ine
at ive
I N
ic k
~ \
v ar
I d
Ġpl ay
} ^
if ic
Ġm ore
} _
m s
al se
Ġbe en
at ch
1 6
s ub
v e
Ġs ub
T h
on t
an ge
id th
em ber
Ġ und
im es
re turn
o x
an n
u ild
cri pt
y s
Ġ= >
Ġcom m
ov e
ro und
Ġ i
ol low
Ġw hen
on s
ph a
ur re
t d
/ >
Ġthe y
d d
ĠâĢ ĵ
i e
Ġad d
Ġn e
t ain
ou n
f o
y n
d a
Ġre g
ar ch
an c
Ġs up
as ed
C om
Ġs o
al s
t on
l ock
ĠTh is
Ġcon st
al pha
Ġon ly
Ġy ear
c ode
u es
ut e
enc es
1 5
it ed
" />
am p
Ġ end
am ple
e b
Ġ el
R E
Ġwh ere
Ġb et
le ment
g r
Ġ !
res ent
Ġs elf
d er
Ġ en
Ġfor m
Ġin clud
Ġ id
Ġs c
Ġ _
c lass
t t
ad e
op le
t ype
# #
Ġf ollow
Ġp os
Ġin to
m in
ce ption
R es
C h
el ta
l and
Ġd if
is e
S T
er n
Ġan y
L ist
a ult
ad d
at ing
Ġp e
Ġth ere
b ar
âĢ Ŀ
1 1
Ġre qu
Ġtr ans
R ef
ug h
Ġsu ch
c ess
Ġre l
Ġl oc
amb da
w ard
Ġt e
ĠC om
Ġh er
Ġin d
p on
Ġa cc
ire ct
in ed
i ous
mer ic
trans lation
Ġth an
Ġa ct
Ġm odel
it le
Ġund er
ou g
tr ib
y le
: //
Ġg ener
Ġd ist
ac he
Ġd ec
h o
Ġthe n
) \
s c
ĠA r
Ġ `
it em
or n
as h
s on
id er
Ġof f
it ies
as k
ers ion
it s
in ce
Ġf il
Ġ= =
1 7
at ure
v al
Ġ x
Ġ\ \
urre nt
Ġ use
we en
re d
Ġg o
Ġc o
um ent
il ity
Ġn ull
iv ers
am ma
A T
Ġre c
Ġus ed
Ġp ol
Ġn o
Ġcon s
ol og
_ \
ay s
pl ic
u res
t s
w ork
Ġs pec
c ed
Ġab out
l oc
ib le
= \
Ġv al
tern al
Ġs ome
m u
Ġw ould
is hed
v ent
Ġc ase
A r
e ad
Ġa fter
1 3
re ad
r u
ut h
1 4
ĠN ew
ser v
b le
Ġin st
p i
ur ing
19 8
ist s
ĠP ro
$ \
Ġpro v
Ġ >
Ġn umber
ĠW e
Ġs im
em ent
"> <
d ot
Ġs ec
Ġk n
o y
ht t
Ġo p
ction s
iv ate
Ġbet ween
Ġ err
Ġsh ow
eng th
mathb b
Ġv oid
ig ma
Ġp h
O R
2 5
I D
} ^{
} _{
ag es
Ġre m
iz ed
o ot
h at
an k
Ġor g
b ack
) :
ep end
eg a
i er
Ġl i
e e
Ġo ur
ar n
or g
n ot
is ion
b f
al ign
A R
T r
ĠA l
w n
ĠĠĠĠĠĠĠĠĠĠĠĠĠĠĠĠ ĠĠĠĠĠĠĠĠĠĠĠĠĠĠĠĠ
or ld
i ent
Ġ )
Ġs erv
se ction
ĠâĢ ľ
L E
Ġdif fer
str ing
Ġtr ue
ption s
ic es
o le
Ġc re
- \
y m
Ġf alse
a ir
) );
f or
Ġ ent
al ly
Ġe qu
e y
Ġm ay
Ġbe c
t em
il y
ow er
b ject
Ġ Q
iv en
ap t
r r
l og
re n
Ġc or
Ġch ar
w h
Ġs ystem
Ref er
ĠĠĠĠĠĠĠĠ ĠĠĠĠĠ
ph i
Ġe ach
ro ugh
Ġf e
aram et
Ġt est
Ġpro du
Ġd ev
Ġ --
Ġf inal
^ {\
Ġg r
Ġpe ople
-------- --------
d ata
in es
ser t
ĠĠĠĠ ĠĠ
ĠA meric
e ver
b r
s elf
f ile
Ġst ud
ar s
ĠC on
" );
av a
Ġs he
Ġe st
an y
u le
l ambda
**** ****
Ġb ack
mathb f
T o
Ġh igh
per ty
ment s
Ġthe se
iz ation
a use
Ġp oint
D ata
m all
Ġel se
ĠA s
um n
Ġin v
Ġ{ \
p re
oc i
19 7
ch ool
y p
Ġc al
S S
ar get
in s
w idth
Ġa c
p ress
Ġo per
Ġm ost
3 0
m an
r ic
A L
Ġst ate
t ing
C ol
V alue
Ġm ethod
p art
ĠF or
ĠĠĠĠĠĠĠĠĠĠĠĠĠĠĠĠ ĠĠĠĠĠĠĠ
Ġf ield
E N
ĠA n
v el
3 2
us s
od y
v alue
Ġe ff
Ġ Z
ĠS h
as on
a z
oug h
t ed
2 1
Ġ ed
ire d
o h
Ġs ign
v iew
Ġm od
u ff
il on
ar ray
Ġthe m
a id
ot e
" )
p x
b e
Refer ences
Ġas s
Ġ/ **
Ġth rough
00 0
Ġre p
li ent
Ġs ol
S et
Ġstr ing
Ġ& &
c es
l ang
Ġa m
n ew
Ġex t
Ġg roup
i k
Ġus ing
ab l
// //
ĠS e
2 2
Ġs ame
Ġf ound
Ġc ent
Ġs er
==== ====
iv er
le ction
re am
n er
ĠT r
str uct
s igma
d ate
b all
b eta
5 0
pl ay
] ;
Ġm in
ivers ity
t est
ro l
t en
is m
ent ial
Ġw ell
in clud
Ġcom ple
ad er
Ġe m
Ex ception
Ġl ist
Ġ( \
g y
' )
Ġ X
ild e
con t
n b
are nt
p ar
Ġob ject
E n
W e
Ġap pro
g er
b y
Ġst art
a h
cc ess
el op
et s
Ġf ile
le t
ep s
Ġn on
p p
E rr
ri b
a ction
c o
at us
Ġyear s
19 6
D E
f ace
( $
w w
} {\
Ġag ain
Ġst atic
if ied
^{ -
if y
ou se
m e
Ġf l
ĠC ol
O bject
u c
oth er
if e
m ary
loc ation
Ġ// /
re qu
a j
ical ly
ĠE x
t il
fig ure
ord er
enc y
s ize
l er
ĠI nd
Ġwh ile
ir c
Ġb oth
Ġm at
* }
ro id
Ġor der
Ġg iven
math rm
Ġs ing
f ore
Ġpr ivate
nb sp
U n
over n
Ġsec ond
or th
r on
are d
al e
g amma
C T
ur y
Ġd irect
Ġfollow ing
S E
Ġ key
ce pt
Ġpart ic
A s
T est
+ \
ect or
] {
] ,
Ġ! =
iv es
m od
re at
Ġth ree
s cript
ou th
Ġh im
ers on
he ck
2 4
F or
Ġ %
ĠS tring
Ġl ong
Ġsh ould
w ay
. _
Ġl ink
Ġh ow
Ġt erm
Ġdiffer ent
Ġd r
ro ll
form ation
en se
I T
Ġper form
.. .
d is
Ġ z
f l
ant s
Con t
() .
B y
at t
tr y
^ \
r c
Ġd et
ist er
Ġne ed
re g
Ġs ur
u ch
id ent
d ition
t able
A t
b ers
Ġ u
se c
ra w
ĠAmeric an
as es
f ul
it ial
A N
d elta
ot t
I nd
ion al
Ã ©
Ġe ver
) }
G et
() );
Ġr un
Ġbe ing
Ġr ight
iv ed
Err or
Ġd uring
Ġf r
s y
1 00
Ġc urrent
the ta
f unction
Ġb r
t ime
Ġar g
Ġat t
in ter
l ink
Ġp aramet
ain s
Ġdes cri
le q
I m
O n
M E
g round
r ho
ut il
Ġsup port
ur al
t op
m ed
ta u
ar ly
Ġar t
Ġman y
Ġf act
Ġbe fore
lo b
et work
c dot
ĠĠĠĠ Ċ
A n
ath er
gr am
p ublic
4 0
C O
g o
r al
oc ument
ĉĉĉĉ ĉ
C lass
Ġf am
. "
ĠUn iversity
Ġcons ider
ro ss
$ -
col or
f ield
S h
ri x
re ak
ĠF r
p ace
Ġt itle
Ġw rit
ĠUn ited
F ile
an e
a f
ro p
ul ation
Ġse e
Ġdis c
}$ ,
Ġre le
ind ex
Ġc all
l ist
ag er
ect ed
ain ing
r ite
qu e
ar row
n av
mb ol
eq ref
Ġm ade
ur l
iss ion
Ġpro cess
Ġap p
l ay
Ġm ain
} (\
. </
Ġm ed
ar ge
re m
Ġh and
Ġc oun
2 3
ĠI s
Ġim port
ist ory
cent er
}$ .
t imes
j s
iv ely
Ġli ke
Ġb el
[ '
b ig
" ;
V iew
ĠI f
Ġb uild
al ity
sp ace
Ġstr uct
ind ow
iv ing
Ġre sp
Ġs aid
' );
K ey
"> </
Ġj ust
Ġm em
ot s
h er
Ġn ow
Ġe lement
p m
Ġs ize
com m
p ath
qu ad
sum mary
. ,
Ġex pect
Ġc ould
Ġdev elop
olog y
lo ad
Ġcont in
o ad
Ġm on
R equ
Ġwh at
ĠĠ Ċ
us h
htt p
m p
U L
in a
ĠL e
Ġbec ause
um er
ab ility
ĠS c
part ial
n ing
v oid
ef ore
} ;
ch i
Ġf in
Ġte am
us ic
erv ice
Ġp op
Ġor ig
' ]
per t
' t
ur ation
() ,
Ġo wn
Ġdo es
Ġle ad
Ġm et
Ġp ass
a u
ĠD e
6 4
Ġvar i
A C
Ġloc al
uth or
Ġs mall
ual ly
Ġresult s
og raph
Ġev ent
Ġs ince
Ġb o
Ġre ad
Ġeff ect
3 3
! --
Ġp ar
g or
g roup
Ġ$ (
se arch
ĠO n
| \
oh n
t ilde
Ġm ov
Ġl ast
op y
Ġrec ord
ĠCom m
Th is
n u
=" ../../
Â ł
s k
ac es
" :
Ġbe g
Ġerr or
res p
m et
sh ip
I nt
uff er
ft y
ist r
" .
Ġrep resent
le ss
i or
o ber
un c
in fty
qu ot
Ġm ake
it or
Ġever y
om ega
el s
2 7
ub l
con st
A l
Ġap pe
ĠE ng
19 4
T ime
R O
] .
Ġ );
p ack
Ġt em
Ġf ind
b o
om en
Ġto p
l p
s q
r t
a pe
it er
Ġex ample
l ack
e k
os s
Ġinclud ing
Ġg u
P h
ak ing
Ġkn own
t ab
D elta
o od
Ġm ult
=" +
Ġp resent
/ *
en n
ĠM ar
ĠSt ates
ch n
Ġ ,
u str
Ġb ro
v ious
port s
Ġf our
2 6
P E
2 8
Ġlink s
f in
l ength
Ġch ild
id d
m ap
D ef
ag n
pos ition
Ġal low
o ff
at s
Ġ ?
Ġb ound
/ **
ific ation
T ext
us er
19 5
p or
pon se
Ġp res
E lement
I ON
ar m
Ġob tain
E vent
Ġm y
Ġ/ >
ang le
ĠR es
Q u
ver t
Ġop en
i ence
Ġin cre
Ġl ater
un e
ĠC l
Ex ternal
N ode
' :
x i
trib ute
m d
Ġv ery
oot ball
Ġy our
ĠS he
T E
Requ est
Ġle ft
Ġb ased
Ġex per
act er
Ġval ues
ĠP h
wh ere
Ġg overn
P ath
` `
Ġa ut
id ed
d t
ĠH ow
n o
ur s
it al
ĠP r
og le
od es
Ġdist rib
ign ed
le y
cal e
Ġan al
Ġth row
n ode
im it
Ġas sert
I C
A dd
Ġev en
M an
Ġcal led
ens ion
ad i
n ess
Ġre fer
Ġpos s
id es
am ed
201 8
ain ed
Ġagain st
Ġfil m
Ġre ce
L A
201 6
N ot
Ind ex
Ġin formation
ole an
Ġre f
eq n
le m
b ed
St ate
Ġpro ble
Ġ/ *
I tem
le ar
o pe
eta il
st ance
pt y
201 7
In fo
Ġd id
Ġcon dition
orm al
b ut
trib ut
ar i
in c
ar ri
W ith
v ir
c it
F ield
} [
E qu
ol ution
iv al
tr act
() )
Ġs chool
Ġth ose
ore m
b um
Ġrequ est
h ip
cri ption
s ide
m odel
Ġm ust
d es
Ġt arget
a i
al th
b ox
re t
2 9
Ġe lect
u ro
Con text
ĠO r
ames pace
pert ies
res ult
Ġv is
Ġplay ers
Ġt ext
Ġex p
Ġcomm un
O r
Con fig
Ġl arge
plic ation
se e
T R
end s
Ġpos ition
ma x
M ap
Ġar ray
s im
ĠA t
ir d
201 5
ĠA nd
Ġle vel
lob al
Ġme as
F orm
resp ond
Ar ray
ĠB r
Ġcom put
Ġd ep
O ver
} }\
)$ .
d ay
om et
in ition
tern ational
Ġ-- >
ĠM ay
ount y
Ġser ies
Ġ( !
Ġw ay
ic on
201 4
ĠĠĠĠĠĠĠĠĠĠĠĠĠĠĠĠ ĠĠĠĠĠĠĠĠĠĠĠ
r ide
20 19
H e
\ ,
b s
en e
Ġid ent
in ation
text bf
$ $
con fig
u i
Ġl og
w ord
in put
il ter
ile d
O m
ĠJ ohn
ol v
ap i
ĠG r
u age
du ct
u f
ur ch
ess ion
is ed
6 0
Ġres pect
Ġpro gram
Ġw orld
ain t
ict ion
com e
our ces
pon ent
R e
c apt
Ġm ax
P I
com p
ur ther
Ġse ver
htt ps
Ġle t
th s
Ġt yp
f rom
al k
end ed
' ;
Ġc r
Ġgener al
Ġsing le
s w
S ervice
Ġp ath
Ġre al
raph ics
Ġest abl
ag ue
ĠN ational
Ġ} ,
Ġin put
Ġm ap
m at
tt p
ĠA d
Ġ} );
Ġl aw
Ġst and
ak es
Ġsp ace
err or
a it
et y
Ġv ersion
Om ega
D es
Ġn ext
pl it
Ġse ason
ĠW orld
ob ject
} _{\
Ġpro t
ast er
Ġex pl
is on
Ġ: =
.. ..
Ġm ark
eps ilon
en u
Ġd i
ener gy
Ġm ass
ĠS p
Ġo cc
if t
Ġdef ault
tr ue
i od
m it
b lock
p oint
er o
w ith
s up
Ġfam ily
in ess
S ize
F F
et er
he ad
ĠY ork
8 0
Ġkn ow
Res ult
Ġadd ition
ĠC an
Ġwith in
che s
it ive
at ely
ap ache
Ġin itial
t itle
201 0
c m
aj or
ps i
## ##
Ġorig inal
u ck
Ġst yle
ĠF ig
U R
ator s
201 3
Ġpro ject
Ġd own
t al
ro du
on y
capt ion
Ġus er
n ext
anc es
Ġb lock
Ġp ower
Ġcont ent
Ġo pt
val id
" "
ac y
ĠW h
Ġob serv
nd er
re l
******** ********
Ġv iew
F r
b ody
ass ert
ĠR e
ag s
il t
+ +
oc us
201 1
Ġc are
ust om
Ġn etwork
pl ate
ix ed
A D
H and
^ *
Ġn ode
201 2
Ġpol it
Ġl ife
iv ity
r ist
Ġun til
Ġa v
yn c
et urn
il ar
ord ing
B uild
Ġal bum
ĠC ent
Ġas sum
ĠJ ul
3 5
b old
Ġs um
m y
str u
gor ith
O f
Ġ čĊ
able d
ps ilon
C ode
ore d
Ġorg an
pl oy
)$ ,
L O
ĠJ an
ou ble
st ate
Ġint eg
sub section
Ġc ap
ĠC ar
sq rt
A S
l ing
Ġd ue
Ġc heck
ĠâĢ Ķ
ward s
pos ed
Ġhe ad
= '
Ġb reak
Ġa round
Ġpl ace
Ġcor respond
l ight
Ġsu ccess
i ans
g t
cre ate
Ġm uch
st yle
Ġ= ==
3 4
Ġb ook
l in
Ġh ere
Ġcon text
ap er
e ction
Ġbec ame
v ersion
s l
ĠB rit
ne ction
Ġp ost
Ġd epend
i um
a im
at ures
Ġst ill
I S
ĠP l
Ġc our
[ ]
av ing
it t
press ion
Ġt ri
he s
li am
Ġare a
im al
def ault
ic y
Ġp erson
sy mbol
Ġsever al
i j
Ġb ase
eqn array
M essage
ott om
Ġf ootball
Ġan n
a ut
Ġinst ance
9 0
Ġc ode
U T
it ch
//// ////
ĠW ar
Ġab ove
Ġcon f
="../../ ../../
ĠHow ever
ĠS chool
ĠA ll
A ll
Ġn ear
ple ment
Ġhe lp
Ġal ong
lo at
Ġre port
ĠG e
ĠS ystem
Ġest im
v are
Ġwith out
M L
b m
ef f
u ary
j ava
ĠW est
ail able
G amma
ill ion
us iness
Ġ Ð
V al
ug g
op er
l t
Ġdef ined
Ġex ist
Ġoff ic
re ate
C ell
Ġad v
Ġcre ate
ĠM an
ĠN ov
ĠC ounty
Ġm usic
Ġis s
Ġcon fig
an sp
I G
che d
. âĢĿ
ĠR ep
M odel
Ġind ex
Ġj ava
Ġo ld
st art
I s
I t
Ġg ame
Ġ energy
Ġch ang
vare psilon
Ġ __
d own
Ġd em
A B
erm an
200 9
ĠP ar
our n
Ġs ource
able s
ate g
re c
Ġb as
Ġ enc
ĠS outh
ĠP ol
ĠThe y
def ine
um p
b ase
Ġst at
Ġbe h
eg raphics
ĠE n
includ egraphics
ele ct
Ġt ake
ĠR eg
> &
n on
9 9
d om
Ġchar acter
d ev
Ġb ir
arn ing
Ġp at
u k
ord s
Ġs ong
Ġd en
7 5
Ð °
Ġpre vious
ic le
Ġpartic ular
L oc
Ġcont rol
Ġ} ;
ib r
u ed
um e
ur ity
E D
Ġs rc
t n
Ġinclud e
u les
M A
ww w
Ġl arg
yn am
Ġd om
w are
i que
Ġ$ {\
F rom
200 8
a us
ens ure
Ġde ath
in fo
b it
^{ (
ĠC al
h old
ug ust
M P
pt ember
and om
im ent
t es
ann el
ist or
roll er
N ew
o in
u x
Ġtr y
m ber
} =
se mb
um ents
ĠM in
ĠSt ate
l im
ĠU S
lect ed
ĠO ct
cont ent
3 1
ustr al
L og
t ings
ĠW il
O ut
Ġse ction
Ġs at
S er
Com m
IN G
P l
Ġto tal
3 9
Ġmeas ure
vir on
Ġass oci
k en
ĠY ou
UL L
E T
Ġinter est
om an
ide o
' '
---------------- ----------------
Ġit em
i ev
end er
4 5
Ġle g
ater ial
c ast
pr il
Ġd at
b l
im um
C H
em ph
o ption
Ġw ant
S ystem
ĠĠĠĠĠĠĠĠ ĠĠĠĠ
) =
3 6
ĠM arch
pro t
at ter
Ġte chn
includ e
Ġgovern ment
ar r
Ġ( )
}^ {\
ac ed
Ġbe st
U p
) (
Man ager
uro pe
ĉĉĉĉ ĉĉ
Ġpro perty
Ġc ur
Ġserv ice
oc ial
m ult
ĠT o
tain er
st it
Ġan other
r am
ut ions
d f
Ġd el
T D
Ġ( $
p en
ĠĠĠĠĠĠĠĠ ĠĠ
m m
d e
le ge
0 1
Ġa ction
ele te
um an
ĉ Ċ
Ġgo od
c ss
Ġp o
\\ \\
ith er
il it
20 20
lo se
Ġrequ ire
R ec
o pt
Ġ\ ,
Ġback ground
D is
Ð ¾
l ish
ĠG et
ĠG u
Ġl ang
stru ction
Ġproble m
a e
Ġsim ilar
Ġcomp on
200 7
Ġh old
ys is
v en
and s
c or
ĠJ une
ĠA ss
Ġl ook
and roid
m ethod
r angle
In ter
Col or
w ays
Ġmodel s
Ġs k
U ser
ĠSe ptember
ĠS ec
ip le
Ġsh ort
Ġc rit
Ġr ange
Ġpoint s
Ġdet erm
200 6
tr a
con text
w id
ĠB e
right arrow
ĠJul y
Ġch ange
ĠA ugust
Tr ans
Ġp ubl
Ġ eng
p ose
P r
Ġd iv
3 7
Ġw in
pro v
ĠB y
ert ain
ĠJan uary
ĠC o
Ġm atch
T able
Ġ et
pack age
ist ic
che ck
Ġcol or
Ġre du
G roup
Ġe arly
c ount
. ~\
Ġb u
Ġs pe
amp ion
if ier
Ġper iod
in ary
Ġfor mer
ic a
Ġsh own
over line
Qu ery
ev ent
c ore
6 6
un g
ĠOct ober
Ġmem bers
pr int
Ġn il
Ġd ay
ial ly
Ġc ity
se qu
Ġparamet ers
U N
Ġo ptions
R eg
ref er
Ġd er
. }
3 8
ear ch
c ul
Ġm ajor
; &
go ogle
=" ../
D O
on se
epend ent
Ġdes ign
C E
Ġim age
ff ic
Ġpro b
ur g
ge q
al es
======== ========
ent ion
Ġadd ress
ĠA pril
g ress
v ision
bold symbol
d oc
ens ity
ce mber
er efore
Ġa ff
re en
ok en
ĠC ity
ĠT e
Ġcl os
x im
Ġf ull
Ġresp onse
z e
ĠI I
Ġl ow
Ġqu ant
read y
g es
ĠN o
f ess
=" #
ĠN orth
us ing
f alse
v ec
var phi
| -
p ed
Ġpre d
gorith m
Ġs w
ĠL ist
st atic
Ġw on
Ġd ocument
Ar g
; </
M od
arg in
Pro perty
pro of
Ġl a
Ġout put
ĠE urope
ra ft
C l
ag ed
ĠS up
Ġpro m
Ġb ool
Ġl ength
Ð µ
Ġv ol
ard s
n ect
Ġterm s
Ġh ome
U S
Ġw omen
Ġposs ible
Ġsup er
Ġ es
ust er
end ing
Ġint rodu
we b
Ġinv est
C lient
d b
id ual
B ig
ĠA ustral
Ġc ar
Ġstud y
t ual
A d
5 5
T H
Ġshow s
Ġd on
Ġacc ess
Ġrele ased
7 0
A nd
viron ment
ther n
fr ak
n amespace
Ġfollow s
al f
c all
} ).
C ount
Ġch o
Ġw idth
ith ub
> (
h and
Ġcor re
le x
ad a
20 00
EN T
M ethod
Ġimport ant
u ation
Ġex ec
Over ride
Ġro le
Ġstruct ure
Ġparamet er
if f
Ġcom b
Ġf a
C all
Ġb order
s f
st and
Ġme an
ĠCh rist
] (
h line
c urrent
ol l
Ã ¡
Ġs ide
ĠNov ember
Ġplay ed
[ \
an el
ou d
s i
Build er
lic k
E S
c er
Ġa uthor
& \
ĠTh ere
h am
Ġst d
Ġav ailable
ut ure
Ġm ember
ĠDe cember
Ġb l
Ġst ates
Ġreg ion
Ġt imes
ĠS et
Ġd eg
Ġf ore
ĠB ut
m o
âĢ Ķ
ep ar
in o
etail s
I P
Ġs ample
Ġh istory
ĠBrit ish
Ġdisc uss
I f
Ġf ew
eb ru
is f
o ptions
ud e
}, \
< !--
act ory
ne y
con om
Res ponse
S ee
k n
Ġt able
ĠP art
Ġstr ong
b uild
Ġ ke
I L
Ġp ot
ebru ary
am a
Ġchild ren
Ġs it
) </
th ough
Ġcomp any
Ġt urn
il le
an ch
Ġl ay
e ed
Ġm essage
Ġs pect
Ġre search
Ġre pl
m ark
0 5
ĠM ed
S ub
en ame
l or
g ithub
ib ility
ri or
d raw
ĠB o
Ġp arent
Ġexpect ed
ener al
c ap
R ead
ĠA b
n ull
ograph y
cl us
ĠK ing
Ġt ask
) {
) ^
fo ot
Ġl abel
ĠE d
Ġdescri bed
ĠĠĠĠĠĠĠĠĠĠĠĠĠĠĠĠ ĠĠĠĠĠĠĠĠĠĠĠĠĠĠĠ
O T
Ġrequ ired
ac hed
4 8
Ġre t
~ ~
Ġand roid
Ġdistrib ution
or ph
Ġse qu
ĠR ec
al t
E nd
Ġ q
qu ery
ap an
g ed
f unc
200 5
00 00
L et
Ġcomp et
Ġs che
ym met
D ate
li b
Ġl and
Ġs y
Ġs ay
I R
b orn
Ġprodu ct
Ġfe ature
op s
Ġa ver
s mall
U til
Ġc ell
ad io
n et
math frak
ent ly
Ġw he
ed er
k s
Ġl imit
an a
Ġb and
Ġind ic
Ġval id
B ar
ab ase
St ream
âĢ ľ
id ge
im age
our s
E d
] )
st er
Ġre st
} }$
he ight
d ir
re w
ĠA ct
In put
ateg ory
Ġ< <
Ġ ide
Ð ¸
Ġfunction s
ĠĠĠĠĠĠĠĠĠĠĠĠĠĠĠĠ Ġ
B e
n ow
text it
( (
Ġb usiness
ight s
Ġf urther
ame work
Ġperform ance
S tr
ĠA fter
im ens
Ġf ree
ĠN ULL
v ers
Ġle ss
N A
l s
um b
x y
re st
er ed
B ut
ur b
Ġg row
ĠM c
Ġc ount
c irc
Ġwe ek
L ambda
Ġ` `
St yle
Ġsign ific
oug ht
ĠF ebruary
y c
Ġc irc
ad em
Ġtr ack
, âĢĿ
on es
i i
Ġph ot
Ġrece ived
th ers
S P
ch o
ĠC or
art ment
er ing
lang le
Im age
ld ots
Ġev ents
Ġn amed
cre en
und le
in it
Ġmethod s
ĠQ u
Ġth ink
In stance
P ar
m ember
Ġmat rix
Ġpop ulation
Ġc over
S c
St atus
Ġcare er
4 4
c lient
Ġcomm on
Ġv ert
is ing
P os
er a
Ġspec ial
Ġg raph
ĠLe ague
requ est
p ly
ĠS w
Ġn ational
olog ical
or ies
Ġal ign
ak en
ing ton
N o
Ġe ither
v es
ab ly
ON T
but ton
Ġph ys
Ġe p
h as
d ec
Ġar ch
Ġle ast
Ġhe ld
ren ch
d l
Ġcon c
ĠD r
ĠH is
200 4
et ic
Ġto ok
Ġ Ã
, "
Ġto wn
Ġh ost
Ġal ready
\ %
Ph i
app a
E E
ser ver
Ġappro xim
act ive
ĠThe se
ĠThe n
( {
dis play
ic ense
ampion ship
ĠP res
} ),
Ġappe ar
Ġp ort
N S
Y PE
y d
0 8
ex p
ĠA rm
Ġcoun try
Ġcomple x
cit ep
T oken
. \
Ġof ten
ic ro
ĠA p
Ġbeg an
og n
Ġcomm and
fin ished
r un
Ġin s
w ide
Ġsat isf
abl a
Ġacc ount
Ġgr ad
c il
Ġt ele
C C
A meric
Ġed uc
arg s
ph p
aram s
D ec
L ine
Ġcre ated
Com ponent
Ġpot ential
n s
F A
ansp ort
Ġre cent
ĠEng lish
re ed
ag ement
Ġf ive
Ġam ong
w ise
ĠS er
Ġm ot
A p
ch ild
Ġd est
ĠI m
Ġth ird
a ul
ig ation
Ġqu est
Ġs epar
im ary
Ġrel ations
p age
6 5
Ġar r
ĠW hen
Ġc ou
n abla
Ġtr aining
ĠA fr
ut ed
b tn
i ol
as ing
s pec
Ġs l
Ġdif f
M S
cent ury
add ing
Ġim plement
ĠĠĠĠĠĠĠĠ ĠĠĠĠĠĠ
ens or
Ġin div
Ġcl aim
Ġfil ms
Ġn um
Ġbo olean
Ġa ge
ĠE l
P aramet
ug ht
id ence
f low
or age
r ation
E L
ĠR uss
Ġf ac
t arget
Ġestabl ished
j av
Ġh ttp
A ct
Ġinclud ed
ĠC oun
L ay
B lock
A P
Ġatt ack
am ent
Ġs ix
Ġbu ilt
ĠH igh
ot ype
Ġcol umn
Ġinv olv
op h
p ng
pl ied
ĠB ar
n a
Ġs ent
Ġh ouse
Ġm illion
re et
i et
Ġl ight
ond on
ĠM e
d o
Ġc lose
Ġconsider ed
Ġprov ide
he ader
Com p
idd le
Ġbir ths
20 21
Ġcol l
row s
app end
N ull
mb ox
c ell
eb ug
Ġm agn
Ġ+ =
t x
ab or
ĠS o
Ġ- >
Ġcon struct
Ġab s
m ar
Ġp ut
ot imes
ĠB l
ap s
Ġp aper
O P
itt le
Ġloc ated
Ġl ower
Ġpro perties
a ff
k appa
ĠT est
av es
S ec
ĠCom p
Ġf ocus
ire ction
Ñ Ĥ
S ource
B ase
Ġc ost
ilit ary
al y
un finished
Ġappro ach
ch ar
es e
Ġpr act
ec ess
O ptions
Ġvar ious
Ġp age
Ġr ate
Ġ" ""
Hand ler
Ġwrit ten
Ġsol ution
Ġre d
RE F
9 5
Ġc amp
ĠJ apan
Ġbe come
0 7
S elect
Ġelement s
0 4
ĠA dd
Ġpubl ished
p ol
sub set
Ġprov ided
Ġl ate
} )$
S p
H ead
rit er
0 2
Ġf und
d r
Ġconst ant
Ġsignific ant
Ġthe ory
Ġn eg
i ef
d at
ĠCh ar
p arent
mod ule
Ġobtain ed
ĠO ne
ugg est
Ġp air
R ep
N av
se lect
Ġc ases
O S
ord in
Ġindiv idual
tribut es
ĠD es
b ottom
ug in
e ople
ĠD ef
B uffer
ensure math
o ke
Ġme ans
em ents
200 1
\ |
kn own
Res ource
A pp
fl u
ĠĠĠĠĠĠĠĠ Ċ
ĠL et
y l
ĠI nt
Ġsystem s
ĠE ast
A G
Ġfe atures
At tribute
y les
Ġb ody
O per
Ġc ross
200 3
Cont ent
Americ an
Ġst ation
Ġwhe ther
ial og
r ing
Ð ½
c ase
Ġbuild ing
Ġin du
m ost
eg er
[ "
Ġdis play
Ġal ways
var i
oc ol
0 6
g le
Ġcl ub
x ml
iz er
al d
p c
Ġb i
ĠD ep
ĠC lass
fer ence
at form
R un
Ġw ar
ition s
Ġv ir
A ction
g en
Ġcomp os
Ġw ater
ĠCol lege
Ġdevelop ment
Ġassoci ated
Ġcommun ity
F ilter
Equ al
om ent
P ol
ure d
Ġg ames
at ural
Ġstand ard
Ġanal ysis
center ing
Ġn ormal
chi ev
Ġh aving
Ġwork s
el ine
o op
al le
O L
E X
Ġg e
Ġs cal
ad ata
le vel
b ased
Ġf ail
Ġg reat
ĠAr t
S igma
op en
* /
Ġm er
o o
Ġp ack
ĠH ouse
Ġm en
pro p
Ġan t
semb ly
S up
Ġcorrespond ing
Ġd ensity
f ord
Ġhow ever
Ġaver age
f irst
Ġne ver
Ġr a
Ġg lobal
ĠL ondon
ic an
Ġcondition s
istr ict
r l
b or
ce ed
/ \
H T
ch ange
ĠD av
Ġv ia
un ic
Ġlang uage
Ġs em
Def ault
Ġcons ist
Ġbel ow
Ġbet ter
0 3
j son
Ġcent ury
O D
G ener
ĠPh il
AT E
Ġv ill
Ġr andom
U E
row n
ĠW ith
Ã ³
Ġcal cul
ir m
Ġtr ad
ly ing
li p
Ġcont ain
med i
b ook
Ġs ite
arri ed
ĠP ark
7 8
Ġto get
Ġse en
ĠO bject
ac ing
Ġf low
Ġv ector
Ġtoget her
F unction
ult ure
m on
L ink
Ġhigh er
U s
plic it
pro perty
200 2
Ġp ay
Ġb lack
}} {
ĠM on
p ost
nav bar
ul a
St art
Ġrespect ively
ĠB ro
ĠS ch
Ġe as
ĠC ont
Ġh uman
Ġv er
O ff
in st
Ġgroup s
Ñ Ģ
Ġa ir
le ctions
\ [
ĠA ir
Ġem ploy
il er
s g
non umber
v is
0 9
ĠWil liam
app ing
i res
S pec
Ġpl an
V ersion
Ġl oss
Ġt w
il ities
ist ry
s rc
Ġs om
Ġhe ight
att le
od ing
Ġplay er
Ġb orn
ut es
und er
min istr
Ġm ove
Ġserv ed
st ream
ver se
s u
it ect
iz ing
] [
C K
T ask
ar ies
F actory
Ġpr int
Ġs ocial
h ost
ĠL a
P oint
4 9
Ġd one
ĠA m
Ġm ight
w rite
P art
Ġe conom
ibr ary
Ġto o
ev en
wid et
str ong
pr ivate
Comm and
pl ace
Ġcont ains
$ {
Ġf ar
N umber
Ġl oad
Ġst ory
ĠH er
Ġac ross
he l
B C
8 8
st atus
I I
Ġfield s
con d
r ict
Ġspec ific
Ġbeg in
oci ety
LA SS
Ġh ard
un k
oc r
Ġw rite
ĠP er
Ġdef ine
Ġyou ng
Ġg en
sk ip
ele ment
p ush
che ma
ig ger
{ -
Ġst ep
Ġh app
p tr
Ġa chiev
Ġn umer
tab ular
A A
L abel
ĠF rench
loc al
ro y
Ġab le
Ġst atus
4 7
ĠR eturn
ch an
ĠIn ternational
idd en
} );
Ġf requ
ourn al
it ory
f ind
ri es
Ġann oun
Ġs s
dot s
Ġline ar
ĠN ot
ĠV al
at al
widet ilde
Ġgo ing
W h
m eta
ĉĉĉĉ ĉĉĉĉ
F l
c y
G r
os p
ob j
| |
g ing
h ib
m ain
ot o
Ġequ ation
I M
S C
Ġs uggest
ĠĠĠĠĠĠĠĠ ĠĠĠĠĊ
ĠH ar
Ã Ń
Ġhe alth
\ !
Ġph ase
F ig
i ke
Ġm iss
end if
Ġc lient
} -
Ġl ines
Ġd ouble
Ġf ri
Ġpro fess
b ra
c an
Ġreturn ed
y th
id ing
a ctions
R ow
l ast
ot ed
Ġse arch
Ġsim ple
Ġe mb
// /
Ġc lear
Ġev al
row ser
Ġun it
i ber
pl ies
Ġprot ected
Ġth us
so le
A ss
F irst
T O
oci ation
Ġspec ies
ĠN one
Ġcon v
ic i
Tr ue
Ġres ource
l en
Ġinst ead
iv il
if orn
Ġn ov
Ġc aus
ĠS im
Ġl im
Ġf uture
" ]
Ġd ynam
Ġt re
Ġd ays
Ġind ependent
Ġh om
Ġw indow
V ER
Ġal gorithm
adi us
F I
ma il
4 6
Ġex press
ĠD is
pect ed
Ġc ame
ĠC our
Ġstart ed
Ġ ]
Ġwork ing
Ġ( (
av y
im g
y ear
Ġdef inition
Ex t
Ġv ideo
ition al
Ġg ive
Ġprodu ction
st d
tem pt
Ġthrow s
Ġex ists
Ġt aken
pro ject
F ONT
) ]
ish ing
Ġreg ular
Ġbeh av
Ġpolit ical
C heck
Equ als
is es
bo ard
Ġm aking
ĠG erman
ĠA g
Ġdist rict
Ġli k
Ġpro posed
Ġin ternational
H el
iforn ia
Ġstud ents
b uf
ap ter
Ġmod ule
P age
Ġbe com
ic o
Ġe ar
" ).
Ġpro of
cl ose
yp es
A M
Ġre view
id s
m t
Ġpos itive
he m
Ġin ternal
ĠSe ction
le an
Ġc ertain
ĠI N
Ġm aterial
Ġmult iple
Ġim p
col umn
Ġg round
Ġext ends
ĠD istrict
b b
Ġserv ices
Ġcon str
Ġm argin
Ġc opy
Ġoper ator
A fter
serv ice
Ġon ce
P C
Ġp erm
Ġbel iev
he et
f ont
s cale
Ġ Â
e h
Ġro und
9 6
Ġs cale
Ġcon ver
7 7
du c
Ġadd ed
form at
ill s
Ġh istor
8 5
\ ]
if act
R eturn
enc ies
ann ot
av el
s igned
or iz
wh ich
ĠM ich
Ġh alf
Ġcompon ent
ĠS tr
Ġrel ated
Ġsub ject
B ox
ĠAmeric a
Ġo ption
W indow
ĠI r
Ġmult i
Ġre ason
q l
ĠN or
ĠâĢ ĺ
Ġaddition al
ud io
Ġeng ine
Ġtem per
Ġact iv
f ilter
ĠS an
ĠL em
ho od
r s
in n
im ate
Ġtele vision
O b
Form at
ac ity
ag ing
Ġd ate
Ġcan not
m enu
Ġ{ @
" ),
Ġb en
A cc
Ġcontin u
Pro v
and id
C reate
n umber
H E
g ener
199 9
ĠA c
Ġ url
ist ics
Ġ ill
Ġn ecess
one y
ache s
Ġcent er
Ġle d
pr ime
Ġtyp es
as cript
or ge
i ers
m em
Cont roller
lay out
Ġd ied
ĠPres ident
Ch ar
ĠE q
Ġat tempt
4 2
ft ware
n um
Ġcomp ar
Ġmed ia
ell ow
Ġme et
Ġ& =
ĠD o
use um
h a
ad es
ĠG o
List ener
} +
Ġtrans form
z eta
i qu
Ġspec ified
Ġl iter
des cription
Ġform at
Ġup date
ent ry
Ġj ob
( &
p df
str act
pro cess
Ġm ode
it te
c el
S ON
ĠCal ifornia
Ġacc ording
Ð¾ Ð
Ġoffic ial
ĉ ĠĠĠ
l ong
Ġprodu ced
Ġs on
at tr
li ke
ĠR ev
le g
Ġse em
up date
ĠF irst
ĠCh ampionship
t ag
\ {
f e
om b
o ch
IN T
ĠS ince
it es
Ġf ig
Ġac cept
Ġz ero
Ġchang es
Ñ ģ
ĠInd ian
E nt
tr ies
B U
s m
Ch ild
Ġn orth
ĠA cc
Ã ¼
con tainer
Ġen vironment
ex ample
iz es
Ġp ress
g l
9 8
ĠRep ublic
N O
Ġam ount
ig en
Ġw ent
ock et
S I
ĠInd ia
AB LE
7 6
prot otype
Ġsequ ence
G L
ang ed
Ġ row
G e
M et
land s
c os
B ack
ĠR ed
s in
Ġv iol
.... ....
Ġp ur
L ength
un it
u el
; \
oy al
P RO
ul ations
us ed
ref ix
al let
Ġc ustom
Ġo thers
ak er
f inal
5 6
M em
o on
ot a
as et
( -
ly mp
b urg
T em
Ġc atch
A ut
ul ated
Ġrem ov
ĠM ore
) =\
ĠC up
ast ic
Out put
ĠD ev
ar a
ĠR ef
Ġth ough
Ġcon tr
ĠEng land
ĠD iv
Ġst ar
ĠIn ter
ic ation
Ġwh ose
ab s
at ives
Ġr ank
T YPE
Ġsuccess ful
at rix
Ġle arning
} ]
Ġaut o
H istory
} =\
ER T
param s
s plit
Ġg l
P re
199 0
Ġse lect
Ġp rior
Ġ< !--
text width
ĠThe orem
Val id
Ġpartic ip
em pty
n ected
Ġoper ation
ĠR iver
a el
Ġd a
Ġpred ict
qu are
if orm
Ġp ast
Ġsur face
Ġcom e
Ġact ive
B undle
im ation
om orph
res ponse
ic ient
ef ined
imens ional
P er
Ġf it
Ġof fer
f ill
ĠH REF
Ġap plication
D at
Ġloc ation
ol ic
b a
eth ing
Ġdec l
in stance
D B
m ore
ER R
ol ve
M ode
il i
Ġit er
Ġm oment
rem ove
U M
Ġin it
Ġc apt
Ġmov ed
E m
_ .
Ġdeg ree
Ġreport ed
Ġf ixed
Ġst ream
Ġpro p
at io
O ne
ile s
L ast
in ated
Ġke ep
Ġs ymmet
el se
jav ascript
Ġdist ance
am ily
ers hip
, -
pl ing
Ġrec ogn
199 8
Ġa way
) }\
ou ch
ic les
on ly
to ol
Ġr ather
th m
D ev
Ġk ind
ic ult
il led
ĠH am
p ass
Ġqu ery
But ton
9 7
ĠG eneral
Ġpol icy
Ġs old
{ (
u id
//////// ////////
Ġright s
Ġse lected
Ġcomple te
Ġset s
U I
Ġfin ite
Ġin flu
T P
Ġsh ip
out put
Ġen ough
ĠU p
ĠTr ans
Ġex act
sh ow
Ġs outh
stit ute
Ġim prov
d ist
5 00
Ġas k
< ?
ĠE m
`` `
Ġcall back
ain ts
Ġequ al
ĠG overn
Ġfil ter
Ġ! ==
Ġre ally
: </
8 6
ĠI D
$ )
Ġresp ons
ĠTh at
b ound
W eb
not e
C D
Ġent ire
Ġf ather
Ġlarg er
ĠCh urch
ele g
ĠCoun cil
ĠH ol
l a
Ġcol lection
. $
refer ence
ian ce
ind ent
Lay out
Ġfact or
Ġrele ase
a ign
Th ere
ic ol
it z
ĠM ark
Col umn
Ġequ ival
Ġn one
ĠF rom
is k
Ġmark et
Ġst op
at ory
ĠAustral ia
h an
math sf
V ert
Ġt reat
ĠP al
Ġbro ad
Ġobject s
led ge
UR L
b in
ĠEurope an
y r
an ies
) ^{
Ġrefer ence
R em
Ġm ilitary
Ġle arn
ed d
p o
an ish
R A
m id
++ )
ing le
}^ \
C L
ĠPart y
Ġap plic
ĠD i
Ġexper iment
199 6
Ġde b
ĠC LASS
c r
Ġb ox
ĠV ir
Ġvill age
20 22
\\\\ \\\\
ry pt
ĠD em
A b
Ġf ont
ĠT ype
ell ing
8 7
Ġinter face
} /
Ġl ive
wide hat
> >
Ġw est
Ġgener ated
comm and
Ġ ...
ĠĠĠĠĠĠĠĠĠĠĠĠĠĠĠĠ ĠĠĠĠĠĠĠĠĠĠĠĠĠĠĠĠĠĠĠ
Ġpop ular
off set
Add ress
C ON
Ġobserv ed
ĠL icense
Ġn atural
}_ \
ĠCent er
ĠC r
Ġser ver
ach ine
ip al
Ġc ut
k a
ct or
Ġf em
Ġn av
y a
c i
ĠP aul
ict ure
( _
ash ington
m ing
Ġa ward
so ft
ĠS en
w rap
Ġs ays
ĠCour t
ĠCh ina
itte e
gr ad
. ~
ĠG roup
val ues
Ġne igh
P si
Ġf all
Ġlead ing
o res
st ant
Ġinclud es
Ġcontin ue
ĠS k
Ġdevelop ed
ro te
. )
C ache
Ser ver
ag on
ĠL aw
Ġl ittle
un ity
Ġwork ed
ge bra
p ing
ĠP ort
ĠB el
ri a
ri ef
ad ian
Ġunder stand
ĠCan ada
ber g
Up date
Ġb it
Ġcon nection
ĠA ward
al ax
Ġg ot
ĠS ub
Ġperform ed
Ġin f
i as
ar io
ĠB er
199 7
c s
ber t
Ġquest ion
Ġprob ability
Ġcon duct
ev el
n ce
CO L
anc ed
lem ma
âĢ ¦
ot es
ut ive
Ġb ig
oper ator
Ġ\ {
' ).
af e
W idth
Ġare as
4 3
cdot s
ate gy
im ension
Ġpr inc
Ġcon struction
ĠFig ure
} |
st yles
pro to
Ġwe ight
sc ope
Ġacc ur
eder al
ach ing
Ġal most
Ġestabl ish
it ude
P eople
back ground
ĠG erm
c ing
Ġcon tribut
equ iv
Ġj o
ag o
Ġ[ ]
Ġper cent
Ġannoun ced
Ġob j
ĠJ ames
N ext
b reak
I O
ri ate
ex ec
d epend
ot al
Ġfor ce
Ġcorre ct
Ġarch itect
ess ages
return s
ĠTh om
s d
Ġun c
ĠM y
Ġd etails
ĠA nt
4 1
ĠR ober
u a
b ool
un ch
ĠS m
util s
5 7
ve y
ĠFr ance
I V
Ġprov ides
e in
U rl
T ypes
M ax
ens ive
ed ia
in ner
c up
D e
k it
Ġcon tract
{ }
q quad
. /
Ġ ir
ar ily
v an
CO DE
Off set
le ase
Ġn ames
Ġpre c
un n
ĠN e
lay er
ĠP at
od er
S D
Ġclos ed
Ġset ting
M in
ĠQ ue
F e
Ġed ge
Ġch annel
id a
requ ire
Ġp ers
it ar
Ġsupport ed
ĠR em
ĠDep artment
}) \
Ġcurrent ly
C ase
N D
l n
c d
Ġe ast
th ing
ĠM al
Ġeduc ation
ĠH T
V is
Ã ¶
Ġreturn s
Ġits elf
n ormal
I F
ĠSt reet
Ġreg ard
st ack
r um
Ġcour se
**************** ****************
ĠDav id
ir it
S im
S y
E ng
Ent ity
Ġcent ral
ĠO F
198 0
Ġro ot
Ġm akes
ĠAr ray
sup port
Ġarg s
act ers
ul ly
b ind
av en
Ġim ages
Ġep is
Ġwe bs
Ġoff set
Ġfile s
ar ing
v ille
NA ME
Ġpart y
5 8
Ġun ique
u ate
Ġent ry
l ate
Ġwh ite
s ign
Ġt ree
Ġdirect ly
ĠE X
Ġe lection
Ġquant um
L iving
Ġde al
r d
En try
Ġrel ative
ap pro
: "
6 7
it ing
ĠR ich
Ġsom ething
st ar
Ġiss ue
ra el
Ġto ol
ĠArm y
Ġth erefore
Prov ider
Ġtrans fer
Ġm ale
b and
Ġopt im
ĠD on
Ġd irection
as ons
ĠS um
t ask
ĠAr ch
Ġth ings
Fr ame
Ġch all
Ġc andid
Ġassum e
f a
ĠA PI
Ġin c
T ree
Ġst age
Ġt aking
S U
Ġus es
Ġme chan
C o
T ag
Ġmax imum
om s
f loat
Ġre str
Ġnot e
& &
Ġtr a
Ġg ives
at ively
a ur
w in
B o
par se
on ic
i ation
{ {\
Ġco ordin
Ġro t
ru le
x space
Ġrepresent ation
Ġw ords
d i
Ġanal y
( [
Ġsh all
Ġu int
t ree
cript or
Ġconc ern
Ġpat tern
S O
ĠGe orge
inal ly
mat rix
Ġarg ument
Ġup on
Ġpart s
Ġeffect s
Ġm id
t ic
Ġrelations hip
199 5
Ġb g
omet ry
ĠSt ud
Ġdirect or
Ġ ~
N N
ĠW ashington
="../../../../ ../
Ġpresent ed
Ġ$ (\
Ġt ax
o ice
Ġfr ont
Ġintrodu ced
}} (
T arget
Ġrun ning
Ġincre ase
W hen
fr ame
P ack
D r
w est
d ocument
old er
UL T
Ġapp oint
am l
}\ ,
Ġw rote
ĠR oman
T op
Ġh on
Con tainer
Ġt im
Ġproble ms
Ġhold s
ou thern
5 9
Ġ( "
Ġvir tual
ree k
ark s
ef t
A g
R L
ĠF l
ĉĉĉĉ ĉĉĉ
B r
} :
C P
ĠAss ociation
art ifact
Ġsu ff
Ã ¤
Ġbas is
ĠO b
ĠW eb
i us
tem plate
Ġex ception
ĠA pp
e al
Ġgo al
Ġd raw
A ccess
Pro cess
Ġallow ed
j ection
d ep
Ġl ost
un t
Ġ& \
ĠUn ion
he st
#### ####
el oc
ĠO lymp
Ġneed ed
Ġsp in
Ġdeath s
Ġs eg
Ġdescri ption
Ġsol id
Ġm ag
Ġinst all
Ġs ound
il m
y per
ro ot
Ġcl uster
Ġvari able
Ġdiff icult
a uthor
' ),
] );
{ {
i os
Util s
O pen
ĉ Ġ
ra z
Ġl en
P O
^ +
w indow
m atch
str y
}\ \
Ġex cept
K E
om ic
() ->
ed ge
Cont rol
ĠD ata
Ġw ord
C A
ri an
g in
}^{ (
ĠLem ma
yc le
Ġ* *
ĠS ee
ĠB lack
enc ed
p at
u z
Ġr ule
Ġiss ues
cont rol
ĠTh us
Ġro ad
H ow
p y
ĠC O
Ġad j
res h
class es
p ite
B A
ĠH all
=" -
Ġfr ame
c ial
file s
Z E
u int
W ork
Ġrem ove
am s
He ight
Ġy et
on str
Ġcomp anies
Ġconfig uration
Ġcompon ents
199 4
Ġcomp ared
8 9
Ġt akes
st on
ĠN ote
Ġmon ths
Ġeffect ive
en a
g reg
& =
Ġde ep
Ġbound ary
ĠL ou
en ed
he nt
Ġtrans ition
d s
a a
od ed
) -
Ġtemper ature
Ġex pression
ob ile
ty p
Ġcoun tries
Ġc red
Ġwrit ing
Ġt en
and er
D F
S H
clus ion
Ġ ;
wo od
197 0
ub e
Ġoper ations
=" _
t hen
lic e
err y
ort s
ph er
Ġad ministr
an i
ĠP e
Ġqu al
en umer
Ġnum bers
comm on
] $
as c
d en
5 1
th at
et ch
Ġb uffer
Ġs m
__ __
Ġap plied
N et
A V
li er
sh ould
et ers
ag ram
ĠS pec
we ight
ad o
Ġv ict
R ange
ad ow
Ġnov el
ec k
Ġst re
w ait
ant ic
AT ION
ĠD irect
Ġvari ables
ĠM art
t ml
Ġmem ory
Ġf loat
Ġfa iled
ĠM et
con f
Ġcomple ted
ĠU s
f g
Ġy ield
Ġf av
Ġset t
Ġoff ice
Ġjo ined
ex pected
Ġarg uments
Config uration
Ġpolit ic
ã ģ
Ġal though
in i
u ated
L oad
Ġv ers
Ġallow s
ig r
ines e
Des cription
Ġdom ain
Ġre v
b uffer
Q L
in ing
Ġpass ed
Ġreg ister
ail way
ĠM ount
Paramet er
ou l
Ġmat ter
ĠIn stitute
199 2
Ġapp ly
pec ially
ĠGerm any
Ġth ought
5 4
oriz ont
Ġl ot
d ated
Ġr adio
et t
ru pt
Ġde but
Ġinteg r
Ġn odes
Ġup per
id get
Ġout side
Ġbg color
Ġcour t
ĠO ut
im ages
ĉĉ Ċ
Head er
ĠĠĠĠĠĠĠĠĠĠĠĠĠĠĠĠ ĠĠĠĠĠ
ĠJ ew
f it
Ġpres ident
ous ly
ĠT able
Ġrel ig
ĠReturn s
Inter face
p g
" ))
ĠS ome
r is
ĠF ile
Ġstud ies
t im
ĠS y
Ġl o
ĠU K
h space
Ġch urch
Ġd oc
ro s
m es
M M
ĠG od
line ar
Ġaut om
ĠDiv ision
ĠWh ile
f s
model s
Ġwebs ite
ĠL og
| ^
ag ment
is ions
H ttp
tain s
= {
$ (
ĠC ong
Ġf ire
Ex ec
S ince
Ġa x
ĠComp any
Ġimp act
tt ps
Ġlarg est
ugh ter
Ġdisc over
ĠP ress
ct x
Ġj ud
Ġcomple t
J son
W rite
Ġwho le
Ġb ank
ĠS ervice
Loc ation
im ents
il ton
anc ial
Ġopen ed
IG N
a res
199 3
Ġt alk
c ache
Ġdiffer ence
Ġsign ed
Ġag re
\ "
P R
Ġro ck
Mod ule
artifact Id
lang uage
L evel
ound ation
Ġcontin ued
Ġchar acters
oc al
no indent
c a
ĠR oyal
Ġsign al
Ġt ag
6 8
> ,
' $
Ġmod ern
m ission
it ter
Ġneed s
iz ations
ar p
Ġg as
g s
Ġdev ice
Ġac qu
Ġclass es
t ex
Ġm arried
ern el
Ġdem onstr
in ternal
Ġinvolv ed
ĠV ol
Ġto day
u it
Ġg alax
Ġexper ience
5 2
os en
clud e
b efore
Ġf lo
Ġact ually
Ġcamp aign
9 4
Ġb ar
Ġass ist
ent ity
L e
Ġdec ision
ĠT ime
c ur
Ġequ ations
or ing
Ġst ars
b order
tr ack
Ġg re
V AL
ĠB ay
Ġp ain
Ġc ast
Ġincre asing
Ġsc en
is ation
ult ural
Pos ition
Ġst ri
Ġse lection
g u
n eq
Ġre nder
R el
ĠO ff
Ġ{ }
cit et
y ing
ĠM ary
Ġprofess ional
orizont al
S cript
pon ents
M enu
; ->
Ġchang ed
Ġre lation
ĠM ex
Ġh ttps
Em pty
ĠM usic
} +\
="../../../../ ../../
Call back
h i
}} {\
r ics
P o
C urrent
ĠT V
Ġnecess ary
C an
Un it
Ġsy mbol
T I
Ġphys ical
p atch
ify ing
Ġbehav ior
S A
Th read
ans ion
ate gor
Ġhim self
Ġlik ely
9 3
alle l
S w
% ;
Ġa void
Ġs ens
ang es
S earch
yth on
Ġim medi
ĠRober t
Ġsong s
Ġn uc
ĠIs rael
Ġs ources
group Id
ĠD uring
yn ch
Ġsmall er
Ġfollow ed
Ġinvest ig
Ġden ote
P arams
s ystem
Ġs ure
ĠM or
ĠM od
Ġpr imary
o e
Ġhand le
9 2
ang er
Ġx ml
Ġ ess
Ġl iving
Ġlay er
Ġd ig
ain e
ĠJ ust
ĠP ublic
mo oth
v ant
ĠT ex
ĠG reen
Set tings
vent ion
L I
ect ors
En c
ĠA ng
5 3
Ġdef e
: (
Ġ* )
N one
Ġem pty
H ash
Loc al
Ġtr ansport
iss ions
ag ger
ut able
Ġes pecially
ĠAustral ian
ĠW ork
Ġw ife
ĠC reate
il ies
an o
el ves
Ġm ention
Ġdes igned
d rop
to ken
ĠAc adem
ar ter
Ġthrough out
Ġexist ing
Ġbecom es
Ġn or
Ġs creen
ĠFr anc
Ġco eff
Ġexp and
n es
Ġ> =
Ġus ually
Ġim m
est ival
St at
} -\
Ġsc ope
D irect
enumer ate
Ġben ef
s cal
com ple
ĠD E
Ġt ro
Ġt our
Ġpro ve
7 2
AC K
F O
Ġconst it
( {\
ĠAs sert
sc r
param eter
199 1
for ce
N ote
vari ant
ã ĥ
P S
se y
Tr ack
Ġv eloc
A PI
d ebug
a o
m ode
g n
Ġsol utions
om ial
air s
ser ve
ĠJ ack
Ġrecord ed
Ġteam s
D D
Ġ- \
n ap
z on
ix t
res ource
dev ice
v space
ST R
Ġm oney
oot str
Ġdoes n
styles heet
AR T
iction ary
E CT
ol ute
Ġform ed
ĠS ociety
ĠN S
Ġfe el
se cond
ĠPro v
liam ent
9 1
Con nection
Ġcon nect
3 00
ens us
Ġan g
COL OR
' re
Ġcou ple
D ocument
Ġr ace
osp ital
oun ter
H O
Ch ange
ad r
ĠT ur
mult icol
a fter
Ġp adding
ĠS T
Ġ ::
ĠJ er
ĠM o
Ġor d
ĠO pen
c ard
d imensional
Ġs ense
h r
Y ou
i ences
P ort
Ġlong er
8 4
8 2
b our
Ġdirect ed
p op
Ġmon th
Ġfor ward
Ġqu e
Ġf ight
h ash
ĠC ap
F T
v ector
et ime
ĠF orm
re a
the orem
ann ing
C R
Ġschool s
Ġal tern
in ct
Ġun its
item ize
B O
equ al
Ġs ex
multicol umn
ro ad
us ion
Ġs us
g raph
Pro perties
ĠH en
ĠAfr ican
d et
ĠC ath
Ġsec urity
P i
Int eger
ĠR oad
k ind
Ġplay ing
R ight
Ġspe ed
O ption
ĠIs land
urs or
b on
Ġim plies
Ġide a
Ġst ore
P T
all s
sh ire
Ġm ar
Ġvis it
E M
Ġinst it
ĠDem ocr
j o
Ġact ual
P ost
Ġsim ply
ĠChrist ian
r ange
Ġev idence
ĠĠĠ Ċ
l am
D ir
Ġcrit ical
Ġex hib
Ġsub sequ
Th at
Ġwh y
Ġtem plate
Or der
] \
M on
Ġinter pre
C S
Ġfri end
por ary
under line
Ġso ftware
ootstr ap
Ġpro gress
ĠAfr ica
ĠD ec
mod al
Ġfil ename
Ġpol ice
Ġfor ces
Ġcon cept
Ġl ove
al a
con struct
M ar
-- -
Ġindu stry
ĠS am
AL L
Ġp arams
" ));
Ġn om
ick er
ask et
Ġcon sum
ĠL eg
ur i
ĠM at
ic ate
Ġn ight
ĠM ac
Ġprevious ly
or ig
) }{
ĠWh ite
ĠĠĠĠĠĠĠĠĠĠĠĠĠĠĠĠ ĠĠĠĠ
Ġad apt
Ġm other
Ġf ace
Ġro b
Ġex plicit
e ch
Ġperson al
Ġe ight
uss ian
doc s
1 000
Ġcon nected
S k
Pro ject
C opy
Ġd am
Ġover ride
Ġwe ak
Ġsw itch
ing u
ĠB ook
ĠD ay
Ġin side
al led
d est
Ġs ession
Ġt ell
Ġother wise
re me
Ġs plit
St ore
Ġc ivil
Ġcom ment
co pe
i ents
ĠM iss
Ġwrit er
trans form
Ġerr ors
g ence
Ġcho ice
ĠAcc ording
4 00
ter m
ĠB uild
Ġappe ared
Ġ ign
Ġk m
Ġre ve
Ġcomm it
E Q
op l
Def inition
ov ers
inter face
ĠM useum
Ġbook s
Oper ation
d x
ĠTh erefore
196 0
F ont
Ġext ension
Ġr ules
Ġrem ains
Ġto wards
Ġh it
Ġsh ape
en ing
Ġbeh ind
E v
O p
ip p
ĠRes earch
Ġbo ard
a uth
P L
Ġs il
am era
id ents
}} _
Ġev olution
ĠCan adian
w s
f ree
st ep
Ð »
M e
ĠKing dom
as ic
Ġh ous
ĠE ar
Ġto ken
ĠM ag
ĠMich ael
ul ate
Ġdescri be
d el
at ur
L eft
$ }
typ es
ill a
Ġg ave
Ser ial
198 8
t og
ill ing
n orm
6 3
Ġart icle
S chema
Ġat tribute
d irect
erv ices
Hand le
M O
ĠSc ience
ĠEx ception
Col lection
% %
Ġequival ent
ĠCent ral
icro soft
ĠThom as
Ex pression
Rec ord
oc ation
IN E
198 9
ä ¸
Ġelect ron
) /
ĠO ther
c opy
ind ing
Ġa uth
ĠCh inese
Result s
ĠTex as
ĠRuss ian
pr ing
Ġstat ement
e es
Ġdat aset
ĠP o
ig hest
ot ion
Ġestim ate
c p
ĠO per
OR D
OR T
Ġsh are
re ct
s v
umn i
ex ports
ug ins
ĠG old
Ġmiss ing
ĠT own
Ġdec re
As ync
I ter
Ġstart ing
M atch
omet imes
6 2
Ġf ra
trib ution
Refer ence
Ġpro ced
n ov
ict ed
c at
================ ================
Ġcoun ter
Ġlim ited
cre te
X X
ed y
ĠY ear
re nder
ĠE nd
Ġne ut
ĠI S
Ġund efined
ĠE rr
Ġpract ice
out e
ĠNew s
res ents
Ġr atio
M ult
Ġvol ume
) }$
) +
6 1
ĠMin ister
ĠA lex
W E
on om
Ġhas h
K ind
Ġ er
ĠM us
? :
Ġj oin
Ġnew s
l ap
res hold
Ġpl ot
ms g
Ġin j
Ġdeterm ined
Ġlevel s
Ġc ause
wh ite
n ers
Ġs ort
D o
ĠIt al
Ġstruct ures
Ġe mer
ĠVir gin
() :
ĠM r
F L
Ġreg ions
Ġrepl aced
re al
S ign
Ġcap ital
Ġresult ing
Ġto ld
im s
Ġstud ied
ĠWest ern
art s
g lobal
N ames
ĠB est
ri al
w ell
v ed
Ġneg ative
re q
nt ax
ol ar
w rit
ver y
y e
b ul
Ġknow ledge
j oin
Ġcont aining
ĠCl ub
or se
Ġc a
ens ions
S ession
ĠP re
Im pl
it able
d elete
Ġcol lect
u ge
Ġitem s
ĠLou is
ĠT O
erv e
Ġpro te
o om
Ġus ers
Ġd ed
Ġbir th
7 4
olv ed
Ġad opt
Ġs end
Ġill ustr
eth er
Ġcom es
N ow
operator name
Ġpe ak
duc ation
appro x
ĠO R
Pro t
8 1
Ġon line
en v
ĠB ase
P P
Ġorig in
V ari
h igh
su ccess
ĠM em
ĠSc ott
is l
Nav Bar
Ġfor ms
} '
Ġf ood
P tr
PE CT
7 9
Ġte ach
( :
ĠM er
v as
h over
Ġd imension
Hel per
ĠK ore
Ġrequ ires
ĠB en
Ġal gebra
Ġsc ore
add ress
Ġsc ient
Ġman agement
Ġch arg
ĠB G
Tem plate
Ġs cript
ERR OR
z a
Ġfound ed
\ }$
Ġbel ong
P at
Ġgr ant
s ession
The n
8 3
Ġm us
ĠJapan ese
ĠC heck
Ġdistrib uted
Ġpl atform
ĠComm ission
Ġrepresent ed
wid get
Ġsur v
ĠH istor
ac cess
ĠS al
ĠH istory
s end
Ġm ount
Ġfr amework
Ġmagn etic
mit ted
D own
Ġcont act
T im
Ġpl aces
ist an
Ġelect ed
Ġj ournal
text tt
s ort
Par ser
s ite
T ER
7 1
ĠM ont
az ine
act or
N on
g an
Ġ ensure
. [
ã Ĥ
uf act
k m
7 3
F C
m as
K e
Ġre pe
eleg ate
ur a
Ġs aw
D om
ĠG L
Ġbegin ning
Ġfinal ly
x x
ĠT or
Ġres ources
ĠK e
Paramet ers
6 9
m ake
ĠT om
Ġe igen
f n
ac ement
A pi
Ġrem ain
Ġstr ict
fo o
Ġn ature
ic ons
Ġread ing
ĠAr g
L ong
ie ce
ĠAcadem y
to String
\ ,\
Ġgener ally
ĠGr and
ut or
Ġear lier
cl os
hand le
arg ument
ĠF ore
ffic ient
Ġwe b
Ġfrequ ency
Ġchar ge
el t
Ġtr ain
ict or
ec ause
Ġs even
}} }
Ġan sw
f ocus
Ġgrow th
Ġpro per
Ð º
R ev
ĠG reat
Ġstre ng
Q ue
med ia
R ender
T e
Ġpro file
198 7
ĠĠĠĠĠĠĠĠĠĠĠĠĠĠĠĠĠĠĠĠĠĠĠĠĠĠĠĠĠĠĠĠ ĠĠĠĠĠĠĠ
Ġc ore
annot ation
Ġs en
Ġ" \
Ġfig ure
P A
P ass
Ġmet ric
as hed
ĠFranc is
com ponent
Com ple
AN D
ĠHe alth
Ġ\ |
ĠFr ank
Ġc op
ĠG a
ĠF ield
S e
E l
ĠG ames
k i
ĠE v
Ġappoint ed
Ġrecent ly
Ġqu ality
bit r
Ġa ud
B S
au ge
Ġman ager
ym f
Ġ[ '
ĠCar ol
Dat abase
Ġspect rum
Ġfin ished
ĠP ost
Ġv eh
Ġed itor
Ġst ated
Ġop port
V ector
c lear
T ool
ymf ony
A m
ĠD ate
dis abled
Ġinteg er
25 5
v m
ĠĠĠĠĠĠ Ċ
Ġex tra
rel ated
Ġveloc ity
Ġclass ical
ĠG l
Ġst aff
Ġalbum s
c lick
Ġun iform
Ġw alk
Ġeconom ic
S o
Ġal t
Ġsub s
ĠG ener
In st
198 6
u an
Ġin fo
ot ic
Ġimplement ation
Ġb ad
c over
Ġatt ention
U se
ĠV er
Ġl ack
Ġext ended
M D
Ġk illed
ĠA L
ĠO ur
Ġ$\ {
asket ball
Ġp ick
ĠCong ress
Ġmean ing
it a
i h
Ġc ache
equ als
pl ugin
ĠL at
Ġset tings
ress ion
P op
Ġbr ing
ew idth
Ġmin imum
Ġj av
ĠO ver
est ed
Ġleg al
Ġc it
Dec l
ollow ing
=" /
web kit
Ġda ughter
anc y
Ġdid n
foot er
ou b
b lack
min us
ĠSm ith
re es
in y
\ '
def inition
ĠChar les
Ġsc ience
con dition
Ġfam ilies
Ġf ully
ĠR ob
Ġsu fficient
& #
Ġgener ate
ĠR ead
ĠComm ittee
Ġw ait
mer cial
ĠSec ond
Ġdest roy
Ġh ours
' ],
s ol
Ġp anel
= #
est amp
Ġn et
ic ago
ĠF lor
T itle
Val ues
Ġrun s
ĠM ap
Ġh ighest
Ġinv oke
Ġover all
math scr
Ġre ached
ĠRec ords
Ġpar se
ann ed
Ġb ottom
ĠB ill
-- >
Ġl atter
Ġn amespace
ir l
Ġdeterm ine
ĠF e
Ġocc up
Ġsample s
ex port
or ation
Ġpres ence
ĠN ow
t ers
Ġm iddle
ĠC re
Ġqu ick
ĠZ eal
D IR
Ġst e
al ed
Ġappe ars
ĠJ ose
Ġdo ing
Ġevent ually
Ġra ise
v ol
SE T
ms elves
Ġin cor
Ġe cho
ĠD an
The ta
G B
set s
G ET
ret ary
Ġmain tain
ĠS ing
ĠR un
In valid
cl oud
ĠSup er
ĠAs sembly
Ġtr ade
ĠC he
ĠD el
elop ment
$ _
Ġincre ased
tr m
Ġproduct s
Ġappro p
Ġ} )
re land
ĠTe chn
R I
ĠH el
Ġno ise
Ġd ro
Ġfin ancial
Ġle ague
om a
id ers
Ġgu itar
ĠBG COLOR
ĠCath olic
ĠItal ian
ele br
ĠZeal and
Ġsche me
H ost
Ġs ports
~~ ~~
k r
Ġlist ed
198 4
t ical
Ġc ategory
ynch ron
Ġ$ {
if ies
Ġn orm
k er
( *
## #
ex ception
Dev ice
Ġorgan ization
at re
Ġthe mselves
Ġremov ed
198 5
M ark
Ġl ibrary
con s
ĠM ass
Ġc ulture
S L
' >
ĠH ere
R ect
iver se
Ġtechn ology
ĠL ong
V er
k y
az z
um in
irc raft
f il
L o
Ġd elete
Ġh ot
ill er
Ġpre vent
D ep
end ar
N um
C ore
al ysis
tex trm
av ed
ir ing
F alse
{ $
yn omial
Ġc le
Ġemb edd
Ġtrans action
Ġcontain er
cri be
Ġmov ement
Ġdat abase
~ $
= (
re y
ip s
th let
Ġrep resents
Ġet c
Ġart ists
Ġrem aining
Ġr isk
ick et
Ġt err
Ġs low
ĠL os
p anel
ĠGovern ment
Ġbuild ings
B l
ĠW hat
Ġth ing
Ġp en
ĠTr ue
` .
y es
ĠC ON
depend ency
et te
ro t
Ġexample s
ph ere
}} ,
a iled
a ud
atal og
_ ;
Ġr adi
lin ewidth
Ġparticular ly
lo od
Ġb all
ĠRich ard
ourn ament
ĠEX PECT
ĠR el
Ġident ity
Ġbas ic
Ġso on
set tings
Ġder iv
ĠR E
= -
ab ilities
Ġb ur
Ġv an
Style ID
ic ated
Ap plication
fr amework
Ġd ark
p ers
}^{ -
Ġrec over
ent al
Ġbro ught
ĠIn c
Ġant i
c ustom
By tes
ĠM ath
ĠF in
ĠN ame
field s
: \
Ġmot ion
Ġtest s
ĠP eter
ĠM odel
W rap
Ġan im
G o
pro d
Ġder ived
P arent
h ing
Ġmat ches
ĠB ank
Ġstud ent
Ġpl aced
U P
con nect
pro du
ĠOr der
align ed
ĠS ur
C al
ou ri
ĠA ut
ĠO ffic
ym pt
Ġneigh bor
en ge
Ġr ad
Ġtr avel
at ically
> ();
Ġ _{
ĠB rown
- $
foot note
Ġredu ced
Ġepis ode
he lp
Ġro ute
f aces
} "
Ġch osen
Ġthe orem
Ġth read
he ast
w ar
ind er
ĠF oundation
Ġfem ale
r or
< \
mult i
form s
hold er
Ġagre ement
p resent
Ġdec ided
D raw
Ġoper ators
Ġuse ful
Ġre li
Ñ ĥ
Ġro om
ĠJ SON
Ġw oman
Ġprogram s
Ġestim ated
result s
Ġhe ader
p adding
ĠPar is
Ġpack age
el er
Ġ util
Ġapproxim ately
Ġprodu ce
Ġoriginal ly
Ġinter action
Ġcons ists
Ġun signed
t w
Ġle ader
-------------------------------- --------------------------------
M ore
Ġnetwork s
Ġact ivity
H as
sh ot
OR M
Ġh yp
rom ise
Ġbl ue
Ġt it
r ong
bo olean
Ġsp ent
Ġvert ex
Ġw ide
Arg ument
; "
Ġg old
ĠBo ard
ut y
D i
m i
B ody
Ġv ac
subset eq
Ġgre ater
St ack
' .
Ġman if
Ġpl ant
S l
O K
im in
Ġco ach
sh ift
vir tual
Ġw ave
ail y
Ġs mooth
ĠI ll
ert ific
G E
Ġr ap
re place
ĠR et
ant a
Ġp or
ond s
Ġcomput e
ĠĠĠĠĠĠĠĠĠĠĠĠĠĠĠĠ ĠĠ
s pect
P H
à ¤
all ery
am i
app ed
ĠHam ilton
Ġchall eng
le v
A c
S he
reed om
Ġf ast
Ġch ain
Ġexp ansion
Ġex tract
es h
By te
z er
ynam ic
Ã³ n
Read er
struct ure
Ġ+ +
se ct
D L
Ġart ist
pro ve
Ġar bitr
f ect
B R
Ġin fin
Class es
er ies
ĠR ock
av ity
ol f
ĠH ill
d eg
Ġst ations
En abled
Ġdiscuss ed
198 3
ĠT imes
Ġcompar ison
Ġa ctions
f ull
R ed
Ġstr ategy
> .
Ġass ign
19 50
Ġinter view
block List
Ġcon sequ
Ġbr anch
ĠS l
aw s
up le
h s
ag raph
W riter
c ategory
Pol icy
Ġp ert
Ġp urch
id ential
Ġmin or
Ġfe ed
Ġapplic ations
Ġby te
Ã §
ĠSp anish
Ġon es
ĠSum mer
Ġre comm
Ġth reat
As sert
ul er
Ġcontinu ous
Ġb al
ell a
E ach
call back
b es
Ġun known
a ver
wh ile
Ġby tes
P aram
sub figure
ĠVirgin ia
ix el
Ġmed ical
Ġh yper
U RE
Ġ( -
rop y
Ġtrad itional
Ġin line
att ice
Ġpre p
; <
Ġnot ed
}} _{
Ġcol lege
ĠReg ister
SS ERT
iqu es
ib ly
S u
L P
by te
yd ro
ur t
Ġcon serv
Ġqu ite
ĠFor ce
Test s
Ġbeliev e
ar ian
D ebug
Ġc hem
Ġs ch
opl us
M C
Ġlead s
h ad
Ġl if
ĠGe org
Ġ{ };
ge les
AT H
ĠW omen
D oc
agn ost
reg ister
ĠCh icago
ĠT w
Ġmap s
Ġfour th
D elete
ele ction
ov iet
Ġbro ther
ĠAl though
st at
Ġprob ably
Ġex ternal
Ġ$ |
ound s
ig an
Ġo s
all ow
E C
F il
se ud
="../../ ../
Bo olean
ĠC amp
com ment
ĠM ethod
ann els
Ġcur ve
Ar t
Ġsh ared
Ġhe nce
Ġask ed
at tribute
Ġcaus ed
S ION
Ġin str
Ġm unic
Ġm achine
Ġfootball ers
Ġfore ign
O ther
b i
raz il
Ġlet ter
li e
ud d
HT ML
Ġn ative
l ines
ĠF ootball
Ġ$ .
Ġcho ose
Ġfl ag
put e
co q
Ġal umni
ell ig
198 2
I con
Ġinterest ing
ĠRuss ia
AT A
M y
ĠD en
ĠA ust
Ġag ent
is ms
Ġm ut
ĠT wo
set minus
Ġactiv ities
d ouble
ap plication
ĠAn n
Ġre ach
__ (
Ġseem s
ĠAn geles
Ġrece ive
ip eline
S um
M eta
pp ed
ot ing
ig ration
ĠL O
rec ated
as ure
proto buf
D ialog
Ġexper iments
Ġmin im
Ġcrit ic
ing er
v est
Ġs ometimes
Ġobserv ations
Ġf un
Ġsepar ate
ĠFlor ida
Ġwant ed
Ġdis e
Ġm is
ĠB ig
at ial
Ġst eps
ang uage
ĠM ax
TE D
ĠAl so
ĠP enn
Met adata
Arg s
ĠM el
Ġpress ure
ri ev
Ġtreat ment
in itial
ĠErr or
ole c
Ġbroad cast
Ġeas y
Ġsit uation
z ero
Ġst ack
Ġmov ie
is hes
Ġm ur
c ut
ĠC D
r adius
point s
f ort
Ġcom pl
ĠI reland
j a
Ġprocess es
ĠR equ
C lick
ĠF re
197 9
Ġ( '
cont in
ĠPro ject
c ar
Ġrecord s
Ġpl ane
T ab
Ġvari ety
ĠL and
T C
Ġcom ing
Ġfl at
m argin
P erson
Ġcomp act
_ +
V ar
ĠOlymp ics
urre n
ĠU nder
ĠD u
M ain
Ġl ock
Ġp ri
n el
Ġmeet ing
_ *
or ter
stit ution
Ġdirect ory
Ġb inary
ir med
M ock
) |
Ġs af
Ġ( $\
ĠMex ico
ĠT em
Ġt ensor
Ġg un
ĠHen ry
sh ort
L S
St orage
ĠL ake
ĠSt ep
s pe
T V
Ġe arn
U B
Ġimmedi ately
al o
rom e
Ġinflu ence
as er
Ġpartic le
Ġseg ment
Ġhigh ly
Ã ¨
Ġdepend s
sq l
k in
Ġrem ained
Ġproject s
Ġ< =
Ġmajor ity
ĠAr ts
R oot
N e
k o
Ġc lean
Ġle ave
ish op
pro duct
d im
st ore
il arly
ul s
Ġaccur acy
or a
") ]
_{ (
Ġm ix
ĠHT ML
r ad
Ġpol ynomial
Ġtrans l
Ġnear ly
s ur
Ġeas ily
Ġw ays
ĠIt s
ĠÃ ĥ
h ouse
b ootstrap
Ġnot hing
Ġin sp
Ġgr and
Ġequ ip
al i
s ample
Ex p
ategor ies
Ġcon tribution
ĠE vent
Ġr adius
Ġv oc
ixt ure
KE Y
Ġfl ux
Ob j
ĠL ine
ar ant
Ġs quare
Ġf ederal
ist ance
er c
ri p
tern et
` ,
tog gle
* {
ĠPro gram
ut ch
Ġcompet ition
od ec
Ġab ility
ĠT im
ĠO f
Ġre serv
ĠV ictor
ect s
ĠF ilm
in sert
ĠAt l
if ically
EN D
T S
Ġs light
Ġj oint
Dis play
198 1
Ġ\ ;
gorith ms
Ġman ufact
ed it
Ġin her
Ġm sg
Ġl oop
Ġd u
pos es
m aterial
reg ion
Ġrele vant
Ġredu ce
ĠGo ogle
Ġex am
il ation
Ġres olution
ol k
Ġc elebr
Ġ' /
Ġcoll abor
Ġbound ed
' ))
Ġc ard
Ġw id
Ġess ential
Ġmin utes
Sh ow
el li
item s
ĠF urther
Ġliter ature
Ġexact ly
y g
im pl
ĠP an
Ġcontr ast
Ġl ives
16 0
O M
j i
ig er
il s
Ġconstr aints
l ers
du le
Ġun ion
Ġassert Equals
ĠM ost
aut o
key s
' \
org an
FA ULT
^{ -\
ĠAr ab
s che
Ġst ay
Ġc os
Ġh arm
Ġpr im
in line
Ġdynam ics
Ġident ified
Ġdi agram
ĠA v
Ġ ),
J ob
not ation
at o
Ġw rap
ific ations
ĠV alue
lim its
ist ers
in em
W idget
Ġm ind
C re
Trans action
pl ugins
Ġpur pose
Ġocc ur
Ġpr ison
ad y
Ġgener ation
AG E
Ġsymmet ry
\ }
re v
gr id
ab it
or al
Ġcandid ate
D A
em ail
Ġb ul
omorph ism
W hat
ĠL ife
u ages
ell ar
p ool
A ME
d agger
Ġpartic les
ĠK n
t ion
Ġg auge
Ġh tml
sk i
25 6
e an
Ġhe l
uck et
Ġfact ors
L java
ple ments
ĠU N
Ġm icro
CT ION
Ġ â
* )
Pro p
ĠSt ar
def ined
Ġaward ed
Des criptor
Ġc he
Ġin ner
Ġcall s
ĠU ser
m ock
S R
Ġcomplet ely
i pe
ĠI O
Ġelect ric
Ġac adem
Ġa ircraft
Ġb rief
R ule
197 6
pe ople
Ġsp aces
al g
imens ions
197 8
Ġsur round
Ġparent s
os ing
Ext ension
S ection
Ġj son
Ġat tr
197 2
Ġsc atter
c pp
Ġplay s
Ġmention ed
Ch anged
H ere
bl ue
In itial
ĠD et
ap ers
y an
Ġf ix
Ð° Ð
co in
V ol
Id ent
Ġf if
Ġform ula
ĠDirect or
Ġexist ence
Ġm aster
eta iled
Ġopt imal
os h
Ġ$ [
ĠB ur
Ġcomput er
N E
ĠC ast
Ġvis ual
ĠM ad
Ġh um
Ġtask s
Ġim prove
How ever
Ġun ivers
Ġconsist ent
n ames
ĠN etwork
Ġapproxim ation
Ġfeature d
ens es
Ġbe y
Ġform ation
ĠH and
en um
Ġwh om
b al
cal led
D I
ol a
Ġpol ar
ĠIn st
ĠSc ot
and a
á ĥ
c f
Ġhe avy
Ġs ociety
Ġmed al
Ġdis k
b ing
omet ric
ut ing
in f
Ġp ark
ĠE ducation
urre d
Ġa mb
ĠK ey
ĠC ons
ĠSw ed
ĠG en
n umer
Field s
Ġbey ond
Ġindividual s
Ġcomp are
Ġ ut
oc key
Ġdet ection
w a
id ay
r ich
Ġconstruct ed
Ġb us
equ ality
big g
sy ch
st op
text sc
Ġmeasure d
ĠF estival
ol ver
Ġth erm
u ations
Pack age
Ġopen ing
le ep
ĠIr an
und red
Ġapprop riate
m iss
Ġcom mercial
f ound
b u
197 7
ĠM il
Ġarchitect ure
Ġhe art
hes is
Act ive
ĠU se
AC E
ne ctions
Ġas pect
Ġw or
ĠIt aly
Ġact or
Ġst ra
Ä ģ
Ġconf lic
ish er
197 5
197 4
ĠS un
n y
c md
Que ue
X ml
Ġph il
Ġsatisf ies
\\\\\\\\ \\\\\\\\
O ur
Ġtest ing
n am
ici ents
Ġser ial
Ġcit iz
un ched
Ġf oot
J ECT
N G
p ay
sh ape
sp ring
ĠOff ice
Ġpr iv
ĠĠĠĠĠĠĠĠĠĠĠĠĠĠĠĠ ĠĠĠĠĠĠĠĠĠ
ent er
Ġ| \
n one
Ġan gle
Time out
Mem bers
B efore
mod ules
iv ial
d ict
ĠU RL
ad min
Ġm ission
Ġproced ure
Ġrelig ious
Ġvert ices
Ġh idden
Str uct
Ø §
w edge
Ġmov ing
15 0
ĠS ocial
R et
Ġdist inct
Ġsh ot
A tt
ĠO h
f amily
Ġg reen
Ġed ges
P RE
Ġ eth
Ġdec om
ĠIn itial
Ġposition s
d em
pass word
sup er
Ġr ates
Ġjav ax
196 8
ĠE ach
ian a
m ann
com ing
; /
pro perties
L a
for all
k et
y cl
Ġs ave
orn er
Ġlook ing
IT Y
rodu ction
E q
sc roll
Ġsum mer
ven ue
Ġpart ial
Ġag o
ĠCol or
Ġcar ry
,\ ,
M B
Y ear
Ġent ity
ar c
Ġrespons ible
Ġabs olute
[ :
C I
r b
Ġsc ene
Ġgo als
ar ation
id ae
v a
Ġcommun ities
ĠMart in
ian o
ĠT op
ĠPro position
Ġm ixed
he mat
Ġquest ions
ĠS aint
), \
) ).
ist ent
Ġc ref
L ock
ĠS il
Ġdr ug
An y
ĠO ld
Ġv ote
ĠSh ow
n eg
} %
Ġtr ansp
Ġm ock
Ġnumer ical
TE ST
C ustom
Ed it
J ohn
Ġtry ing
ĠEng ine
Ġkey s
Ġget ting
Ġcap acity
Ġde ad
type of
hent ication
' m
ĠA tt
Ġfail ure
b el
197 3
Ġexperiment al
Ġax is
print f
con nection
Ġpolitic ian
i en
}} (\
ĠE qu
inst all
os oph
ĠCarol ina
rec ord
ann er
Ġpo or
G u
Ġprot ocol
Ġend ed
Ġcon sole
D S
g a
Ġg iving
Ġst orage
On ly
Ġem ission
Ġpair s
c ases
Ġcon cent
pos ite
Ġgo es
ĉĉĉ Ċ
Ġsing er
if fer
_{ -
r ine
ĠP et
Ġsay ing
Ġw atch
Wh ile
ĠD om
ĠI d
S end
Ġblock s
I X
ir al
Ġdep th
Ġsignificant ly
in et
Ġcell s
F urther
Ġclass ification
Ġdiv ision
Ġ" /
un ct
Ġf air
Ġref lect
J SON
Ġb attle
Ġap i
Ġat tributes
W S
ĠJ ud
FI LE
N etwork
Ġ( *
ĠEx ec
In it
f lo
ck now
Ch annel
Ġfav or
in ant
........ ........
Ġthe ore
Ġcorrespond s
Ġall oc
l ig
ĠE mp
ĠPar liament
Sy mbol
Ġin sert
ak ers
Ġd etail
in v
u er
ist rib
Ġstra ight
1 20
Ġpro ceed
)) )
oll ary
S ymfony
Ġcalcul ated
Fe ature
Ġgalax ies
add r
Ġcomb ined
ĠPro fess
ov a
ly ph
Ġd ual
hen s
sub subsection
and ard
t ip
ĠN OT
ud get
Acc ount
Ġown er
_{ {\
un signed
Ġcomput ed
P erm
S cope
Ġrefer red
f ly
ĠH aw
Ġmost ly
Ġprop ag
Ev ents
p icture
ĠC ode
Ġinstance of
ĠK ar
G S
ad s
r ices
Ġfri ends
ust ers
ç ļ
ĠT HE
=" @
im a
Ġauth ors
at ible
Ġmoment um
ick s
Ġweek s
Ġc arried
197 1
ĠP ac
ĠSer ies
Ġtyp ically
as ion
Ġn ation
Ġw allet
Ġprov iding
ra q
Not es
M sg
BU G
and ra
ĠM ur
Item s
ĠH ence
Ġany thing
th read
Ġcou pling
ĠTr ump
Ġ icon
Ġin come
Ġex c
ĠS oviet
Ġd b
in ations
ĠĠĠĠĠĠĠĠĠĠĠĠĠĠĠĠĠĠĠĠĠĠĠĠĠĠĠĠĠĠĠĠ ĠĠĠĠĠĠĠĠĠĠĠĠĠĠĠĠĠĠĠĠĠĠĠĠĠĠĠĠĠĠĠĠ
ed s
pro file
ĠCol umb
it ation
Sup port
ĠA wards
çļ Ħ
van ia
ĠC opy
Ġch ief
196 9
ĠIs lam
r ate
b ad
st ats
on ym
() {
p ower
P ool
Ġfra ction
ĠL ibrary
in her
Ġwrit ers
m aster
E arly
ĠK h
D uring
" `
ro om
ĠP eople
Ġcontribut ions
Ġform al
it an
um s
em s
Ġarbitr ary
Ġch art
Ġcre ating
anc el
Ġwin ning
Ġserv e
assert Equals
ĠJ ournal
ĠYou ng
D et
k l
st o
12 8
Ġ[ ];
Ġshow ed
M edia
Iter ator
Ġcal c
Ġ\ (
Ġra ised
N amed
ĠL iber
Ġw ind
ow ers
ĠP lay
ĠĠĠĠĠĠĠĠĠĠĠĠĠĠĠĠ ĠĠĠĠĠĠĠĠ
^ -
t or
Ġassum ption
ĠM os
m c
Ġgr id
Ġsim ulations
B P
Ġp p
ĠMore over
RO M
Ġdec ay
ĠII I
ploy ment
Ġset up
Ġincre ases
ic ies
( !
i ro
M ember
ĠV is
Ġent ered
ĠC all
Ġn g
c ape
ĠL in
im inal
Ġsc ored
Ġsp read
n amed
are t
k ing
Ġco ast
ĠL i
. *
ĠN avy
k g
Ġbut ton
ĠN O
ak a
AD D
pr imary
arri age
" /
Ġst ories
ĠJose ph
Ġwork ers
Ġqu arter
Ġann ual
U ID
ĠĠĠĠĠĠĠĠĠĠĠĠĠĠĠĠ ĠĠĠĠĠĠ
Ġhand ler
se lected
M at
ĠDef ault
Ä ĩ
Ġscal ar
ev ents
Sec urity
ĠM iddle
Ġv s
C or
Ġf unc
==== ==
ament al
Ġun less
p a
Fl ags
Ġent er
. __
as y
Ġappro aches
ĠI P
th rows
m ove
p red
) ),
Ġtechn iques
ĠCh ief
ang o
Con st
Ġcomb ination
cont roller
Ġw aves
Ġk ing
ax is
dom ain
ĠF unction
drop down
Ġvis ible
Ġturn ed
ĠB razil
Ġa im
ĠL u
h om
St ep
key word
Ġin equality
Ġhouse hold
Ġm ask
Ġrel atively
Ġe lem
Ġappear ance
Ġadv ant
ĠE r
A F
] :
que ue
Ġt ournament
on a
196 7
ĠF ort
at i
cl aim
Log ger
Ġmus ical
Ġcirc le
A v
import ant
ev e
_ ,
sec urity
Ġal gorithms
Ġd ir
b ot
j ar
ĠL ee
Ġprodu cer
e ach
m en
o z
ĠB ob
SI ZE
pt on
sy l
m os
Ġ} \
Pat tern
ĠF alse
P lay
ĠT our
j oy
Ġsh ift
ens ed
Ġassum ed
Ġdes c
h av
st ein
j ust
) }(
' }
Ġcomm ission
ac count
Ġd raft
ĠJew ish
ï ¼
Ġth reshold
Ġsim ulation
Ġeff icient
ĠCh ild
ĠP oint
s ave
it o
ici ency
Ġdem and
Ñ ı
nap shot
ar ia
ĠL ie
At tributes
Ġestablish ments
Ġget s
Ġre ject
The se
Ġb tn
t otal
VER SION
b its
194 5
Ġb asketball
Ġpl ans
Ġold er
Ġvert ical
Ġl attice
ov ed
ĠV iew
por ation
ad or
Not Null
Ġp refer
Ġdiscuss ion
Ġex change
P AR
j query
Ġoffic er
Ġc ru
c ient
B it
w riter
er g
h aps
' _
sh all
19 40
fl ags
Ġcoeff icients
ĠM a
Ġpre m
pm atrix
F loat
Ġre tr
Ġsen ior
Ġnuc lear
od ay
Ġnew sp
ent y
clud ed
Ġdel ay
am er
Ġl ab
Ġnumer ous
ug by
Ġmeasure ments
"> &
Select or
Ġinitial ly
Ġam plit
Eng lish
: #
Ġpr ice
ĠA N
ust rial
as i
n etwork
air man
ĠT ext
os itory
Or ig
Ġed ition
Lo ader
Ġinter val
R est
Ġmeas ures
By Id
Ġcre ation
Ġin form
. '
Ġst able
web pack
' ve
ier arch
Back ground
C ar
ost on
Ġh us
Ġquick ly
Ġspect ral
O wn
Ġinteg ral
ook ie
Ġt ouch
Ġinit i
Con f
ans as
Ġis land
Ġ+ \
fr ont
ĠV ersion
Act ivity
Ġeff orts
struct or
Ġindic ates
Ġenc oding
ĠS ir
ub y
A uth
ip age
ĠW ood
hand ler
Ġp aint
Ġstud io
Ġag reed
Ġ% }
Ġs n
AR Y
per p
syl vania
Pro xy
ex ists
param eters
Ġd rop
Ġar rest
Ġr iver
ĠTe am
ĠW ales
MA X
p an
Ġ ul
Ġpert urb
Ġfor ced
Ġp ool
are er
CH E
ĠP ubl
tx t
app ly
Ġtr ained
F ound
Ġla unched
d ates
ĠNor thern
g reen
ĠEar th
Ġm ill
196 4
Ġident ify
Ġcent re
Ġcont ained
E O
Ġl ived
Ġass igned
o les
Ġ Î
s creen
Ġo il
et ween
Ġpart ies
Ġb illion
D on
Ġen h
ut er
ik i
) "
Ġsy nt
Ġmur der
Ġf irm
s chema
\! \!
ch annel
Ġact ress
Ġdes pite
st one
ir a
Ġdel iver
ĠS ol
Ġar m
ĠF ri
ĠH ot
Ġprot ect
ĠBrit ain
ograph ic
Ġrepl ace
bul let
Ġocc urs
Ġbecom ing
Ġup dated
19 30
) ^{\
ĠDev elopment
Ä ±
Ġcoordin ates
j e
olog ies
ĠJ im
stand ing
ĠL ove
M OD
ĠL ord
Ġh ope
w an
Ġd oub
ĠP ri
ĠJ ac
l imit
Ġown ed
str a
Ġs outhern
it ors
ts d
are a
Ġbuild er
ph one
ĠC ross
ĠC ivil
Ġsit es
Ġhelp ed
Ġhigh light
ac le
)\ ,
min ipage
ac ro
ang ular
Ġcorre lation
D el
{ $\
Ġorgan izations
Ġre ports
Ġunc ertain
ĠS und
Ġass ess
Ġintrodu ce
Ġatt ended
Ġser ious
Ġdep artment
ertific ate
Ġor ient
h ere
Ġf arm
ip ality
Ġmain ly
Ġgu arant
D C
Ġunderstand ing
ĠB i
Ġmod ified
Ġcl oud
Run time
ĠO l
In ternal
Ġorder ed
Ġexpress ed
Ġh undred
Ġnor thern
Fig ure
Ġhistor ical
had oop
ĠM ain
c b
Window s
ce an
ĠT ask
g g
ond er
Ġachiev ed
urren cy
ĠChampionship s
W A
Ġinterpre t
ĠA R
Ġnot ice
Ġm olec
Ġpart ition
Ġlead ers
am pling
M ed
ĠIr ish
gr ade
", "
Ġse a
ĠG reek
end ix
ib li
Ed itor
ĠMed ia
Ġon to
Ġstr ateg
G raph
ĠVal ley
Ġpres erv
Ġext rem
l arge
ĠEmp ire
at ers
P ublic
ĠI raq
y er
ook s
EX T
Ġsem i
ir ls
Ġin variant
() ));
P anel
Ġc ities
Ġe mail
ock er
ĠSec retary
for ward
T ABLE
ic ine
196 5
D P
C lose
ellig ence
r ical
j pg
ail s
assert Equal
oper ation
j ob
++ ;
lo ok
Ġtr ust
Ġin valid
Ġm essages
Trans form
adi um
ent h
pro ps
ĠM P
Ġprocess ing
ential s
Ġc li
Ġv ary
Ġsome one
it ness
Ġs ector
=" ">
Ġp urs
) ">
M ENT
is c
ĠG ame
ang ing
Ġestim ates
) ^{-
ĠO ption
or ial
ĠG al
M atrix
tr igger
Ġden otes
X T
Ġdistrib utions
Ġslight ly
test s
B E
Ġenc our
Ġpar allel
ĠAs ia
w er
Ġaltern ative
Ġ( _
man ager
Ġmatch ing
Direct ory
ĠG i
u ous
] ]
Ġd etailed
are n
Ġvers ions
Ġac com
ell er
Acc ording
el a
S QL
_ ->
D epend
k ins
196 6
agon al
Ġsp irit
Ġk ernel
Ġp ure
h orizontal
as ets
not es
Ġs al
)) );
ĠN ode
ĠSp ain
19 20
Ġtr igger
sw itch
Ġl at
Ġ io
@ "
ĠW al
ST AT
op es
h idden
Ġachiev e
des c
res et
col on
Ġsim pl
k w
Ġsh oot
Ġw orth
Ġdr iver
press ed
Ġreg ime
anc ing
st able
Ġrestr ict
N R
Ġse asons
Ġf le
I A
g it
Aut o
s he
ĠP ak
Ad apter
Ġf ine
Ex pr
Å į
f ri
Ġvoc als
ĠThe ir
tab s
sk y
I MP
Ġincor por
m ic
() ).
Ġshow ing
ĠB re
n n
R R
l as
Ġ" "
M T
Ġw rong
Ġansw er
ĠN av
Å ¡
ĠSt at
t ty
) _{
pl ot
Ġim ag
Ġstreng th
est s
l g
Ġadministr ation
all oc
an es
ĠPenn sylvania
At tr
istr ation
\ _
pos itory
Ġt ab
Ġg ap
m ond
U LE
Ġpo inter
C F
Ġp iece
ev al
Ġbehav i
Ġmod es
ĠJ o
Ġsum mary
ĠS pe
Ex ample
ac c
ce ived
Ġh ol
LO G
ĠM A
Ġevery thing
gy pt
orn ing
Ġhus band
ult y
Com par
Con str
Ġr an
er ial
am ing
t mp
child ren
ĠJ es
Ġat tract
Ġse ctions
Ġp ush
ist ical
Ġcle arly
RE S
//////////////// ////////////////
r ick
Ġre asons
Ġstat istics
Ġw ood
Select ed
Ġbound s
urb an
oth ing
Ġt or
P ATH
ĠÂ £
Ġprov ed
-> _
ay lor
ĠS O
Ġth r
D ouble
Ġex port
ĠB oth
Ġmag azine
Ġtrans formation
Ġper fect
Ġre ct
ĠHistor ic
Ġsu c
pos s
Ġth ous
Ġr ing
ĠRet riev
ĠDemocr atic
F ull
Ġar my
ĠH on
Ġindic ate
r andom
ĠTO DO
r ase
s el
Gener ic
I B
R AN
met adata
lo op
ut f
ĠG ood
ĠSpec ial
s ch
ab il
ĠM ov
ĠH uman
ar se
Ġch ampionship
Ġle aving
}$ -
Ġlabel s
Ġl ib
ĠC amb
Gr id
Ġsp atial
ĠR adio
igh ter
Ġman aged
Ġpo et
Ġcur ves
ĠO p
ĠS outhern
ĠCon fig
ul f
il ib
Ġh ar
com ponents
$ ).
og ene
Pro duct
Ġattack s
ĠProv ince
eff ect
W orld
ĠB attle
z z
^{ +
ex ternal
Ġf reedom
X ML
Ġp an
Ġdiffer ences
eng ine
}^ *
Ġn ine
Ġlaw s
N T
Ġc ultural
Ġinter actions
ĠT ri
Ġanal og
.~ (\
am m
Ġcolumn s
on ical
Ġconstr aint
ĠM any
ĠN umber
log ger
H igh
he tic
Ġcover ed
Ġp hen
Pl ugin
$ /
b en
t wo
Ġob serve
Ġcrit er
s ingle
Ġv oice
Ġre con
con tains
ĠT ra
Ġdise ase
FF FF
) _
Ġmaterial s
ĠW indow
Ġoffic ers
flo or
Ġmechan ism
Ġsuc ceed
L IC
Ġsing ular
f ail
Ġm apping
Ġun iversity
ĠG ets
Ġs qu
Ġmat rices
ĠCent re
ra wn
[ $
est ion
Ġim plements
Ġfam ous
b ury
Ġre ader
Ġadd ing
ino is
s ime
h ar
i ate
n ic
) {\
Ġresp ond
u v
B B
D em
Ġclaim ed
t ik
I E
go ing
Ġoffer ed
sime q
Ġrap id
medi ate
b as
H R
ĠV AL
Ġe q
Ġt rib
Ġsecond s
Ġ$ $
Ġrepresent ing
r idge
Ġc ounty
Ġsus p
ul y
ver b
Ġr ise
ult s
Ġaff ect
Ġgrow ing
Ġcompos ed
un ior
NavBar Cell
ĠOn ly
Ġlay ers
ty ped
S ample
d iff
M ay
ma zon
iz able
Ġinst alled
ON E
g ers
Prot ocol
ĠEn ter
Ġab stract
Ġcommun ication
H z
Ġin tr
ĠPac ific
Ġdis s
F ail
Ġ$ -
}} ^
S ingle
Ġr ailway
ĠT re
aw a
by tes
us et
Ġex tr
ĠJ ones
Ð ´
Ġent ries
Ġtri al
en ant
Eng ine
Pro file
ĠĠĠĠĠĠĠĠĠĠĠĠĠĠĠĠ ĠĠĠĠĠĠĠĠĠĠĠĠĠ
Ġdist ingu
clus ive
r ons
Ġclaim s
pect ive
Ġc at
form ance
config uration
Ġen joy
} </
Ġoption al
ĠJer sey
L L
G C
ĠU kr
Ġc ycle
Mem ory
ĠP op
ard en
Ġsub set
ĠB usiness
C ap
s ince
Ġocc urred
ĠOh io
Ġin fr
rem ark
M apping
m ut
Ġdig ital
ĠB ul
A uthor
Ġen able
ch or
Ġdet ect
', '
Ġf n
Ġwe ap
Element s
z en
Ġadopt ed
Ke ys
S eg
Ġen abled
D T
ĠCon ference
Ġc ensus
ank s
ĠSen ate
Ġl ies
ĠSec urity
tool s
Ġ ip
ĠS u
lap se
v s
UT F
S M
B rowser
Sc roll
Stat ement
ele ase
us es
z h
e cho
par a
S pace
equ ence
plic ations
el i
Ġimplement ed
196 3
ud es
To String
S che
! !
Ġmeasure ment
sum er
ĠOr ig
D uration
Ġas ync
\| _{
ĠO x
J ava
Ġa wait
ĠR o
ĠW ill
arri er
id x
get Name
Ġaccept ed
ion e
G lobal
ro le
ad ing
Ġstrong ly
Ġr are
ĠI l
Ġ= ========
sub s
Ġtrack s
ĠA ff
Ġdynam ic
ĠR h
ĠQue en
Ġeff ort
Ġr ail
ĠH ome
ph as
à ¸
Ġtype of
leg al
ĠB oston
ĠRep resent
T erm
Ġb in
Ġv ectors
ĠĠĠĠĠĠĠĠĠĠĠĠĠĠĠĠĠĠĠĠĠĠĠĠĠĠĠĠĠĠĠĠ ĠĠĠĠĠĠĠĠĠĠĠ
b rowser
col lection
ĠP ass
Ġcont em
Ġ ^
ĠJohn son
ast e
Ġpro f
196 2
Ġiss ued
ĠM essage
z one
å ı
P ay
Ġr ac
Ġsuccessful ly
Ġp aram
pl atform
spec ial
ĠP y
c uss
Ġal one
ĠComm on
Ġbeliev ed
it age
Par se
f i
Ġdiscover ed
Ġsaf ety
In v
Ġlang uages
ĠMus lim
Ġsec ret
ĠE lect
Ġfact ory
d p
Ġe lections
} )$.
enn is
Ġsymmet ric
Ġserv ing
S ome
D etails
En um
Ġint ended
S Y
Ġfore st
Con dition
ĠĠĠĠĠĠĠĠĠĠĠĠĠĠĠĠ ĠĠĠĠĠĠĠĠĠĠ
w hen
ad el
Ġview s
Th us
ĠComm and
ĠRev iew
Ġretr iev
######## ########
S ync
Ġpred iction
Ġmark ed
Ġopport unity
Ġgrad ient
Ġp il
Ġcol on
ĠMich igan
F R
ĉ ĠĠĠĠĠ
Ġrecord ing
Ġxml ns
Ġoptim ization
Us ing
Ġcall ing
) }{\
h ome
ĠS ong
Ġoff ers
Ġcont roller
op ed
D est
ĠM ajor
_ (
Ã £
Ġpro pos
F unc
Ġpro min
IC E
Ġredu ction
epend ence
Ġthem e
Ġdefe ated
ĠGa ussian
ro ke
ĠUp date
ell o
Ġcitiz ens
Ġdr ama
ic ip
ct rine
C ast
Ġ= \
ĠW ay
$ $\
ĠJust ice
Ġtyp ical
Rep ository
Ġl ic
Ġ> >
ĠS ar
B i
G eneral
Ġyield s
ass ets
Ġdev ices
ur ies
Ġis n
Ġver ify
Ð ¼
'] )
Comm on
Ġsur vey
Ġimport ance
ition ally
=" ${
O pt
Ġang ular
tain ed
Ġh ydro
Ġsur pr
M R
Ġabs or
n i
T A
sc ape
ta il
J S
w ild
ic ed
Ġconduct ed
Ġla unch
25 0
ã Ģ
ĠFrancis co
Ġw all
Ð ²
ĠP age
h l
Ġl abor
ĠR am
Ġinterest ed
Wrap per
ĠM ah
ĠB ern
Ġd imensions
burg h
ĠScot land
m ask
iter ator
File s
Pr int
il a
Ġcapt ure
omorph ic
Ġexec ution
RE AD
Ġ ice
Ġofficial s
Lay er
194 4
du led
Ġconver gence
ĠF ederal
Ġprofess or
Sec ond
od d
Ġh ospital
~ $\
ĠF ox
Ġr u
Ġreg ional
Ġoper ating
Ġch annels
Ġcl imate
Ġdepend ence
C areer
ful ly
in ity
il li
Ġvict ory
ĠJ ava
6 00
Ġpro port
Ġexec utive
G en
Ġhyp ot
196 1
the me
if iers
Ġf elt
Ġso ft
IP T
ĠE conom
Ġsett lement
Ġext end
pl us
Ġ{ '
Ġis ol
Ġ ens
C ategory
prot ected
Ġsign ature
N ULL
Ġrequire ments
Ġr aw
tik z
ag r
V ideo
ach uset
con n
Ġst ress
achuset ts
ĠA ND
cre d
Ġqu adr
par ser
tr i
Ġallow ing
O O
) },
Ġcost s
1 10
h ol
Ġtool s
we et
' ll
u ing
ĠV an
ĠIll inois
in ion
Pro ps
ĠC P
pon ential
Ġbe aut
Ġp ages
S ocket
ĠUS A
Ġneighbor hood
ĠB ack
pre v
Ġp seud
ĠB as
N OT
cknow led
Ġdepend ing
Ġ[ [
ĠEx t
Ġdeg rees
is er
ec es
n odes
Ġ&= &
od ot
circ le
Ġsatisf y
} &
ĠInd ex
Ġpre v
ĠGeorg ia
IN FO
Ġque ue
Ġl icense
ri um
)$ -
R oute
=" "
ĠCar l
ĠB ow
S ER
$ ^{-
Ġ{ {
per iment
ĠK ent
sh adow
v in
el d
Ġre q
Ġth ick
em y
S cale
Ã ±
em ic
Ġfund amental
ĠA ction
Ġst ock
ĠAs ian
od ies
ĠL android
Fil ms
h ard
i able
Ġob vious
ĠWilliam s
ĠHe ad
Ġloc ations
Ġstart s
fl at
Ġcoun cil
Ġgen us
o ir
Ġsuggest ed
}} ^{
f old
ĠC ard
Ġspect ra
ĠC ro
LE CT
comp iler
Des c
on to
ĠP ath
ĠBl ue
Ġact s
Ġlay out
Ġtr uth
ĠL ab
Con s
Ġrequest s
sc ill
ĠG lobal
ĠEx ample
ĠF inally
Ġb ill
ĠW all
Po inter
H ER
Ġlim its
t ags
Ġtr ace
Ġdep art
33 33
nav List
< !
Ġchem ical
Ġregard ing
Ġsing les
P ORT
Ġunder lying
ĠM i
du ction
ĉĉĉĉ ĉĉĉĉĉ
fil ename
ĠSup reme
Ġcan cer
ĠB ol
ĠC a
ash ion
[ (
Ġwid ely
G R
) \\
ĠE gypt
Ġfind ing
Ġke pt
H S
Ñ Į
w orld
h ide
Ġregister ed
Ġm arriage
ab y
ĠWil son
Ġp refix
ed itor
p refix
ys ical
Ġg ain
l aw
if def
Ġbr idge
Ġo dd
and on
wrap per
Ġnav igation
ph y
ĠB u
Ab stract
ĠEd ward
Ġeconom y
est ic
Ġadj ust
Ġle tt
Rem ove
ĠM ult
I ST
Reg ister
Ġag greg
Ġspe ech
8 00
Ġstr ugg
Vari able
ap pe
Ġmin imal
Ġs ales
ĠB ecause
ĠLat in
Ġstr ings
tem p
Ġp aid
on al
Ġ ult
ĠM en
Ġpath s
et o
Ġinstr ument
display style
ĠS I
f x
Ġpat ients
$ ;
Ġeval uation
map sto
p icker
Ġart icles
Ġide as
Ġf ill
Ġj Query
e z
se x
d ialog
ĠP ower
ĠUs ing
CHE CK
Ġact ors
Ġoper ated
ĠG re
eng er
iter al
F ailed
Ġexpand ed
ars ed
Ġlearn ed
ĠIO Exception
r an
at tributes
Ġrot ation
' (
ĠL uc
Ġm useum
Ġmanif old
ST ATE
ele vision
s uch
ĠIn formation
IN D
ĠKore a
Ġtra ffic
Ġb rowser
Sim ple
Ġdes ired
F low
Ġwest ern
-------- ----
li br
Ġpass word
Ġro ugh
ĉ ĠĠĠĠĠĠĠ
ĠTechn ology
ĠS ervices
Ġw ild
head ers
Ġres idents
Ġcon vert
build er
dec l
Ġdiv ided
Ġr at
Ġp i
ab eth
Ġst ellar
Ġfl ags
195 8
Ident ifier
Ġsex ual
pro position
os a
Ġge ometry
n il
Ġdoc uments
Ġfocus ed
Ġord ers
ĠS i
Ġsub stant
ff ff
s en
Ġapp arent
Ġinst ances
Ġr g
k es
Ġnot ation
ĠBro ad
ner gy
195 9
ay a
The orem
Ġp icture
con trib
> :
Ġded icated
Ġt x
b rief
art ers
ĠL ocal
art icle
Ġsize of
Ġpol icies
">< !--
ĠT ro
N ational
S ch
Ġphen omen
um es
Ġacqu ired
Ġphot ograph
ĠH ospital
ex pect
W R
ĠPl an
ĠSt an
am ely
Ġcalcul ate
w all
z ing
Ã£ o
f d
195 6
il ing
sim ple
Ġprim arily
Tr ace
ĠMass achusetts
ĠRe act
c ref
st orage
ur er
Ġp le
ĠEast ern
iv ation
F S
p u
Ġs afe
ĠM u
il ly
a ug
Ġse at
ĠRepublic an
Ġmass ive
Ġsp an
pro gress
Ġact ing
Ġadvant age
Ġpur poses
194 8
AL SE
ag ers
F IG
con v
Ġcandid ates
Ġpart ner
p et
Ġb lood
ic ial
Ġcon nections
j unit
\ {\
ĠColumb ia
ilib rium
T wo
Su ccess
ĠThe atre
Gener ator
Ġprinc ipal
() </
ĠJ r
c hen
Ġdescri bes
Ġpr ime
ĠPhil ipp
Ġobserv ation
oun try
em on
Ġmet al
O UT
ch mark
ĠP rem
DE BUG
Ġpol y
ap es
ĠK ong
ĠE p
Ġlead ership
194 2
ĠF C
sp irit
Ġrefer ences
Ġconstruct or
Ġas ympt
12 5
inal s
ĠA uthor
ĠCopy right
Ġ Å
Com ment
Ġf ellow
Ġide al
Ġs ister
Ġconsider ing
s ys
Ġread y
Ag ent
Ġem phas
Ġdis pl
Ġcomplex ity
comple te
Cl uster
ĠH arr
ĠS and
ĠD utch
or ough
ĠIm age
10 1
Ġal le
sign ature
d etails
P refix
ĠHamilton ian
Ġcontin ues
ĠCo ast
Ġm orph
Ġc tx
cl uster
Ġconf irmed
Ġconc ert
Ġp et
un ique
por al
en ers
Ġreve aled
Ġto ward
od s
Ġle aves
ch ain
is is
b ro
Ġb ass
ĠPol and
am ps
Ġcon ference
Ġo scill
Ġwe ights
Ġ" <
ĠW ell
Ġ= ======
Ġacadem ic
Ġautom atically
ĠY our
Ġopt ical
h ref
t an
ap os
Ġyou th
it ted
ch er
Ġpower ful
exec ute
Ġmet adata
ĠInt eger
ĠSe a
ĠR ay
Ġ ],
imit ive
ĠGovern or
Ġsecond ary
Å Ĥ
V D
Ġsubsequ ently
Ġ" ,
Ġship s
ĠComm unity
a ught
ĠAmeric ans
est er
p res
B ound
Col lections
t c
d y
cc cc
Ġtrans lation
Ġcom ments
ĠOr gan
ident ifier
19 39
te en
act ic
Ġb udget
Ġc ov
Ġprinc iple
{ %
ist ed
ble m
Ġearn ed
Ġphys ics
ĠA S
end or
Ġret ired
ĠF I
) [
stru ctions
ĠK r
col Last
ro vers
C M
ou ter
aj ax
rior ity
ĠE ven
Ġp ul
, $
Ġ' <
Ġdes cent
all classes
Ġfor t
ke ep
v ing
col lapse
Ġfunction al
Ġlist ing
Ġhapp en
195 7
> \
t body
Ġf re
gener ated
Ġb re
Ġshe ll
en able
Ġpor tr
og ram
mo z
Ġmagn itude
Ġpolitic ians
Ġfe at
Ġs ides
sv g
up lic
ĠProfess or
Ġexpl ained
S ql
Ġex cit
un a
Ġa udio
anc er
Ġorgan ized
| }
am ber
ĠN AME
av it
ĠOx ford
cre t
ĠJack son
ĠK en
ĠE st
Ġeff iciency
Ġcoordin ate
Ġ rows
semb le
ĠF ace
ĠPr ince
Ġchall enge
Ġinstit utions
ord ers
new command
d etail
Ġexplicit ly
E V
Ġsol ve
ĠMan agement
s afe
Ġscen ario
Ġd ele
ĠM id
ĠSt art
ĠP ack
S ervices
Ġlate st
Ġ ..
Ġacc eler
Ġres on
t ics
Pass word
Ġ[ ],
ĠW ater
ist ence
ĠPol ice
al ing
Ġauthor ity
S election
Ġp ull
p erson
Ġaff ected
B I
amp ions
V ID
Ġbe am
Ġro les
C RE
Ġcom edy
Ġhe at
ĠAd ministr
f ire
Ġfig ures
ĠE lement
Ġinvest igation
Ġc lick
ĠSt e
dep th
col First
G ame
Ġgraph s
ach ment
h u
aw n
Ġnuc le
Ġtri ed
Ġdr ive
Ġz one
Ġimprov ed
ul ator
Ġtheore tical
serv ices
Ġf lex
194 3
s n
anc ell
Ġc amera
Ġconflic t
Ġdecl ared
Ġt end
in ate
al gorithm
N odes
D R
Ġtre es
Ġnear by
Ġsupport s
Ġtechn ical
Ġapp end
v c
Reg istry
ĠFurther more
Ġex it
uck y
R ole
ĠD at
Ġrem ember
Ar ch
Ġ[ \
Ġcon clude
ĠJ eff
194 6
f ixed
Ġlarg ely
Ġperform ing
ĠSund ay
Ġm enu
Un ited
m ass
Ñ ĭ
Ġsup ply
Ġtechn ique
ĠF our
oc aml
M I
Ġs quad
Ġv on
ex tern
ĠH a
Ġprote ction
ign ment
Ġrepe ated
Ġexpl an
Ġst ored
? >
Ġrem ote
index Of
g ame
av or
ĠAnd rew
Ġpar ser
Ġfin ish
Ġuncertain ty
B rit
. ");
ĠC reek
ex pr
ĠBro ok
p ot
194 1
group s
Ġp sych
Ġd ict
Ġcr ime
ele d
ĠAl b
ot on
ser ial
Ġ" -
err ors
ĠH ash
ro g
Ġsubsequ ent
ĠPort ug
Ġu i
C G
% ,
TI ME
195 5
it ivity
% )
es ian
Ġcomput ation
N amespace
or ney
ĠW is
d one
12 3
Ġdiffer ential
U SE
pat tern
iv ery
V M
im ately
ĠRes ource
Mult i
sw arm
Ġnot es
Ġexpl ain
Ġveh icle
id el
) +\
( __
T T
ĠL ittle
ymmet ric
ĠB ang
Sum mary
Char acter
g est
Ġprogram ming
Ġplan et
Ġassoci ation
T otal
test ing
ĠCon serv
Ġ[ "
ĠI E
it ical
T x
Ġgalax y
Ġc er
Ġatt end
rop ol
Ġcl usters
Ġhand s
Ġrem ark
W il
Ġdat asets
Ġdam age
) ->
Ġfac ilities
li k
ĠF ree
ĠW he
Ġpolit ics
Int roduction
Ġcommon ly
TE XT
Ġarr ived
194 7
Ġtro ops
p ir
Ġmass es
195 2
Ġ ).
ĠF ar
Ġobject ive
Con n
Ġsp ot
Ä į
Ġbr and
up s
Ġcr iminal
Sh ort
os is
Ġpl anning
Ġinfin ite
Ġfa ith
l an
_ -
Ġd uration
uz z
fe ature
Ġcl in
un te
Ġst reet
en abled
F in
up load
typed ef
} )$,
. <
Ġdown load
al so
ĠCon f
reate st
Ġa wards
Ġcapt ured
Ġor th
am el
Pro gress
Const ants
Ġa ware
Ġsum mar
ĠĠĠĠĠĠĠĠĠĠĠĠĠĠĠĠ ĠĠĠĠĠĠĠĠĠĠĠĠ
Ġinteg ration
un ities
Ġman ner
Ġtw ice
wild fly
i Äĩ
par agraph
HT TP
R C
ic ity
nd ef
Ġeval uate
: }
UR I
Ġ" $
che ster
Ġscient ific
x s
Ġmed ium
ird s
F inally
} }$,
ĠA ri
Ġpro xy
Reg ion
Ġhon or
ĠM ot
p ub
C red
Ġme ant
Ġwhere as
IV E
Ġo k
ĠW AR
sh ared
| _{
' ));
B AR
CE SS
Ġs ust
b ell
orig inal
ĠN ight
Ġlog ger
Ġg irl
r g
am in
Ġmon itor
Ġpattern s
ĠAn y
A rea
Ġcop ies
Vis ible
ĠM ember
ip les
k ens
ĠT aylor
g ment
Ġb ands
Ġ era
at ar
Ġhe ard
ĠScott ish
Ġcomput ational
Ġ$ |\
: =
Ġbal ance
Ġli ber
Ġn arrow
ĠJ on
ĠW ild
$ ~
Ġviol ence
Ġcan cel
play er
Ġcalc ulation
18 0
Ġus age
Ġsuggest s
Ġperson nel
i ant
Ġtra ject
Ġf ru
G O
ĠH ung
th row
on ia
con str
Ġh ole
Ġp y
ĠStud ies
Ġnew ly
y o
ĠA li
Ġspe ak
t i
d ig
ĠC irc
enn es
ĠN ations
R PC
> ::
Ġgener ic
ĠT H
195 3
ĠÐ ¿
or i
ac ent
Ġsup erv
Ġscatter ing
prot ocol
} }$.
Ġconv ex
; )
Ġcon ven
spring framework
ĠH ong
}{ |
Ġsom ew
Ġflo or
[ -
Ġevery one
ĠV iet
Ġm iles
Head ers
int on
Ġpro jection
Ġmed ian
Ġcon j
Ġco q
C B
ĠL ight
w ater
in valid
m ma
v o
Ġrob ust
; }
ĠU I
ĠCor poration
s b
Ġad m
Ġcol lected
ur ations
out heast
ĠPr ime
ps on
Dom ain
olog ist
S equence
Ġend s
t ons
ĠAn other
Ġ{ $
194 9
Ġrec ip
Ġhous es
Ġconst ants
Ġapplic able
ĠA SSERT
Ġposs ibly
(' .
ĠDan iel
ĠK enn
ix els
Ġdet ected
ĠSt ation
os ity
Ġ ener
195 4
âĢĿ .
eder ation
Ġclub s
Ġd ialog
Ġdef end
Ġ ×
Ġcalcul ations
j ango
Ġan imation
] }
Ġb undle
ĠIs lands
Ġwin ner
Ġfund ing
Ġrecogn ized
Hel p
ĠJ ean
}( {\
Vol ume
it led
ĠMin istry
Ġsk ip
Ġs yn
U D
fl ag
Ġfootball er
ph ia
ĠR ights
Ġteach er
ĠL im
Ġemploy ed
us ers
Ġchang ing
Ġac comp
Ġcover age
L em
Ġsh if
Res ources
am az
IT E
=" $
ult ane
br ace
Ġphil osoph
Ġinvolv ing
A CT
ab out
Fr agment
Ðµ Ð½
19 18
th ur
F E
Ġro ll
iz abeth
ĠR og
ĠCor ps
Ġfif th
clus ions
Ġtransp arent
Ġtre nd
Sk ip
P layer
ĠMed ical
Ġc ool
Ġf ish
ĠS em
f c
trans ition
Ġpe ace
itz er
m aven
S em
Ġf ans
re port
Ġequip ment
Ġserv es
Ġind eed
L in
Ġspec ifically
Ġl ie
ul pt
Ġt error
Comp iler
ĠP en
ĠReg ion
ak i
Tr ansport
Ġsold iers
Ġch ance
A ng
Ġtrans late
oc cer
Ġamplit ude
Ġne ural
ĠOffic ial
M er
ĠRep ort
prov ider
Ġtransfer red
Ġhous ing
Ġgrant ed
adel phia
n ership
Ġhead ers
= >
) -\
$ ),
g al
ĠL com
ĠC H
Ġdevelop ing
Ġdec ades
S ports
Ġpass ing
ĠRetriev ed
Ġc ult
ĠD own
W N
Ġ? >
TR UE
v ideo
Ġscal es
MOD ULE
ĠB BC
Ġdis abled
ĠJ oe
ĠR ailway
ĠS om
VAL UE
ĠBer lin
Ġre ality
ĠL y
ĠB and
Ġnull ptr
Ġs port
An imation
Ġrec all
Ġcoeff icient
w t
ĠAlex ander
"/ ></
Ġcharg ed
ĠL o
Ġan cient
Ġc ars
l ife
Ġjob s
F LA
Ġexec ute
low er
Ġtem p
H ome
ĠH ttp
ĠF und
g eneral
Ġinput s
word s
Ġchar set
if ul
und efined
user name
ĠB a
b g
a structure
O B
P ER
Ġst ability
ĠA mazon
Ġr ich
Ġp erman
rit ical
ĠS ports
%% %%
L anguage
Ġcompos ition
Ġcirc um
ĠS pring
Ġcomm ittee
at omic
requ ired
Ġg rew
Be an
onom y
Ġadv ance
Ġus ual
LO CK
Ġbeg ins
Th erefore
Ġcaus es
y br
Ġrecogn ition
Fr amework
ĠB lock
down load
Go ogle
L en
Ġs an
lo ader
ĠS uch
Ġfore ach
ĠB ell
ĠS ta
d ependent
m n
Ġs izes
ĠD ar
ig a
Ġear th
Ġen v
ict ures
Fl ag
M ask
ou red
ĠP ers
us form
option al
numer usform
yd ney
ĠT R
um my
se m
U ri
Ġepis odes
nt ario
c ert
ĠPro cess
195 1
Ġout er
ĠLO G
; ">
Ġturn s
Ġsu itable
ĠGu ard
Gener ated
ĠM aster
ir ror
w p
P e
Ġindu ced
hel per
Ġinc ident
W ORD
Ġnewsp aper
EL D
Ġdeb ug
re pe
p ython
col l
Ġdi am
ME TH
Ġinvest ment
Ġc ategories
Event Listener
con g
RE Q
Ġtherm al
M ath
Ġloc ally
ĠWe ek
Ġconf irm
Ġper haps
ĠSc iences
Ġpl us
Ð° Ð½
log in
ogene ous
Ġv en
ĠTh ree
W est
Ġengine ering
Ġcol le
Ã¡ n
}$ )
f ix
Ġpre par
ĠI mm
r ank
p air
Ġbenef it
L INE
Ġlist ener
b ec
al m
OR TED
ĠL ater
Ġcons ult
p ubl
Ġsh ock
Ġag ents
c lean
Ġb right
Ġdis crete
L C
Ġcomp r
Ġco al
Ġn p
ĠL ew
lip se
Ġbase ball
Date Time
Id s
Ġtell s
l at
Ġad vert
res ources
Ġvalid ation
Ġd aily
Ġbo ost
an try
Ġp owers
ath an
Ġpl anned
Im port
Ġmat hemat
ĠI R
Ġs ynchron
Ġcon vent
Rep ort
E ST
ĠSup port
b p
Ġtime out
EN SE
Ġscal ing
ĠArg ent
n p
iven ess
Ġdestroy ed
eg r
atur day
d k
Ġapp lying
Ġtop ic
ĠHT TP
ag ent
Ġeast ern
ĠC ount
as ync
id i
ĠL ead
! [
Ġenvironment al
d ash
ap h
con sole
Ġsche ma
( @
agn etic
St ats
Ġm obile
ĠPol ish
Return s
) )$
ĠD ocument
ist ing
ind s
ĠCol lection
\ )
Al though
Ġdisc r
clos ed
Ġrece iving
Ġw arn
Ġread only
Ġm eta
Ġmin ister
Ġval ign
Ġaud ience
og en
as sembly
ĠRev olution
Ġb oy
Ġmot or
Ġaccur ate
EE EE
M usic
ð Ł
se par
s a
F ORM
mon th
Sub s
Ġfl uct
ĠDes ign
ĠB ad
ap is
Ġspec ify
Ġden oted
ĠRequ est
Ġcon sec
cd n
Ġpredict ed
Ġc orner
Ġemploy ees
sc ss
Ġport ion
Ġex erc
D elegate
Brit ish
ig gs
Ġj ump
ĠĠĠĠĠĠĠĠĠĠĠĠĠĠĠĠ Ċ
Ġ' \
ĠC at
s lice
H is
ĠF ollowing
Ġes cape
Ġb atch
ĠM ike
) --
Ġprov ider
Ġposs ibility
ĠM icrosoft
h ab
ĠA z
) }}
Ġ ];
Ġwas n
IT ION
ĠVictor ia
ys ics
ĠPak istan
h bar
im m
Ñģ ÑĤ
poss ible
ĠL ast
Ġex ceed
å Ī
ä »
Ġh our
Ġpromin ent
Ġg ather
Ġin nov
U nder
Ġalong side
pl ates
Ġexp at
ĠCh ris
Ġre form
print ln
ouri er
Named Cell
Ġadv oc
dist rib
tr im
Ġres olve
ĠPri ze
Ġb its
Ġcontrol led
C apt
att al
ron ic
iv ated
Ġin struction
ĠR om
ire ment
Ġconver ted
METH OD
ĠD O
rel ations
Ġinst ant
ĠW alk
ate way
B est
ĠS pace
ĠF ire
ag a
Ġbi as
' d
Ġm d
Ġauthor ities
Ġinsp ired
ĠG ar
ch anged
Ġstat istical
ze ch
b c
ĉ čĊ
The y
ĠJew s
au x
Child ren
s at
ater n
ĠN on
Ġmet rics
he im
ap ol
Ġadv anced
Ġfund s
Depend ency
S cal
Ġ urban
Ġte aching
Ġneut r
H P
CT YPE
ĠPl aces
Ġ{ "
ul i
Ġh ockey
ĠCh annel
side bar
Ġt ail
h ow
Ġpl ugin
ĠR oute
in son
Ġtyp ename
z ed
Ġt al
S pe
t ar
() ))
Ġc md
Ġop posite
p ull
ĠR ail
i Ã³n
Ġent ropy
T ra
ĠIn ternet
f ast
ext ension
Ġassist ant
ĠOlymp ic
Ġag ree
Ġind ustrial
x html
ĠCont rol
ch a
ï »
or ient
L android
Ġsatisf ying
set up
ĠWindow s
not ations
u um
ff ect
! \
Ġt mp
Ġfind s
Ġsurround ing
Ġex ponential
Filter Database
Ġn amely
Ġign ore
ĠUn ivers
ï» ¿
) }_{
ap ed
Ġexpl o
ĠIn put
Ġsh ut
c li
j oint
Ġsc roll
Ġdecom position
Ġag ric
Text ure
ĠBel g
Ġrepresent ative
IG HT
En umer
ĠB it
ĠB on
Ġind ices
Ġm orning
g ies
Ġor bit
Ġcharg es
Ġcor por
a is
S ort
az y
19 36
ĠMc C
Ġveh icles
on ce
Ġp od
Ġrg ba
ĠTor onto
... </
Ġreview s
ĠOb ama
Ġcont rovers
ĠC ase
Ġrecomm end
Ġin verse
ad ed
ul ing
Ġtr av
em an
ĠA k
ĠS QL
Ġprov ince
Ġsol ar
an z
Ġrepresent ations
ĠS ign
are st
ĠR os
al ty
less sim
ĠM ake
tr ace
Ġbr ain
D iv
iss ues
Ġhapp ened
Ġe le
ok ed
PO ST
B ind
Ġp itch
ĠP RO
pol y
an im
Ġsequ ences
N C
Ġvari ation
if er
ĠL ink
vol ume
M iss
M any
ĠF ROM
Ġbehavi our
Ġin fer
Ġassert That
$ :
Ġtre ated
H L
ant om
time out
object s
per ial
op ic
ack s
M icrosoft
Ġw itness
Ġs ym
Ġ} }
S V
Ġcharacter istic
Ġc e
Ġappear ances
Ġbe at
Ġadministr ative
er ence
res olve
Ġsp ac
Ġen um
ur ance
(' /
Ġdocument ation
amaz on
Sy ntax
bo ost
g oto
{ "
ĠBo olean
}{ (
Ġaspect s
L eg
Ġhe av
Ġin ject
ĠArray List
ched uler
ĠE nt
Ġest ate
W rit
Ġestim ation
Ġfl ight
Ġ ion
(" /
Ġfeat uring
DO CTYPE
Ġpre tty
Method s
ĠIn f
c oh
i ated
Ġconstit u
ĠD ir
ĠF amily
Ġas sembly
Ġreturn ing
ĠReg iment
v als
Ġcon vers
ĠR ome
Ġmunic ipality
Ġextrem ely
ac cept
Ġv ot
ĠS ant
er ior
ĠA sh
ether lands
Sh ould
ĠJac ob
ov es
w arning
iffer ent
ĠV ill
19 38
re le
ierarch y
ĠS E
se q
Ġse ed
support ed
Ġs ampling
Ġat mos
Ġload ed
t ensor
Ġpro ps
)) \
' ];
ĠF il
ge o
ress ed
ĠKore an
and o
Ġd ie
get Element
eli hood
Pr ivate
ĠPal est
ĠAL IGN
- (
Ġleg isl
A x
En vironment
ĠS us
f ol
ub ble
Ġprom oted
agnost ic
con sin
per or
Ã ¸
p ur
Ġd oll
Not ification
eg o
ĠB al
ĠM ic
(' #
ess ions
00 1
Requ ired
ĠVal id
Ġs ell
Inst all
pl ier
Ġdef ense
Ġattempt s
pl ane
il bert
Ġrequest ed
Ġc row
Inter val
ĠCamb ridge
N ative
ĠR est
Ġany one
Ġp ra
Ġd ire
ĠF air
H C
un ing
if est
be an
Ġcre w
im b
Ġhistor ic
^* $
Ġfr agment
Un iversity
Ġcont ents
ĠAir port
ĠEn vironment
ass andra
P y
In ternational
plic ity
ack et
c le
V ir
D M
ID TH
DE FAULT
Ġc m
ĠO ntario
ĠN C
check ed
Ġembedd ing
F ind
Ġa thlet
pl an
pl om
Ġpl ants
cuss ion
B L
ut enant
EEEE FF
check box
Ġk ill
Ġco inc
cri bed
unn el
ĠA venue
Ġb uf
Ġh uge
" ],
ĠB oy
M ove
ĠS ydney
b matrix
Ġex pert
f lex
ĠEl izabeth
ry ption
script size
S ur
p ag
Ġr ational
u ce
force ment
En ter
Ġd ust
Ã© e
ord an
it ative
G A
ow a
an th
Sh ape
arr ing
t f
b d
ch art
Ġsh op
Ġfr ag
ĠR en
Ġsol o
Ġsufficient ly
ĠC ur
L ower
op her
Ġj s
âĢĿ ,
ĠC EL
Ġgrad uated
g lyph
&= &
Ġsupport ing
Ġstat ements
Ġres et
S m
ĠL ev
ap se
Ass ociation
Ġthe ories
Ġkn ew
Ġfac ility
Ġd rawn
ĠD ig
Ġinterest s
Ġbenef its
Ġentire ly
m ouse
c u
A re
Ġ( [
T ags
t iny
19 37
"" "
ĠC ub
ĠSI ZE
bu ilt
N ov
view s
qu ant
grad ient
Ġsign als
ĠR od
qu arters
Ġconsequ ence
ĠE ND
\ }$.
Ġstand ards
Ġsepar ated
igr ants
ĠSh ort
Ġb omb
Ġinvestig ate
Ġfe et
Ġequ ality
ĠAnt on
t k
Ġexec uted
t frac
Ġsim ultane
ele m
'] ['
ĠPol icy
ist ant
St op
/ (
P air
ĠAN Y
re lation
Ġ\ (\
ĠD er
RE G
Ġclos ely
R elease
A li
is ely
d frac
ĠN ext
ilt ers
Ġneg ot
Ġsatisf ied
Ġopt s
ĠPhil adelphia
ast ers
v ature
pol icy
pro b
ĠB C
Ġr ural
r f
rel ative
ĠW el
ĠG P
Ġbel ief
ĠĠĠĠĠĠĠĠĠĠĠĠĠĠĠĠ ĠĠĠĠĠĠĠĠĠĠĠĠĠĠ
ost er
ser ies
Ġradi ation
ro ute
act s
pl er
pro xy
ĠI V
ĠO s
Ġbro ken
VAL ID
if ndef
Ġcomplet ion
Ġphot o
Ġtr ail
Ġext ent
el ly
Ġop inion
S outh
f all
Ġchalleng es
own er
ph ony
Ġlett ers
un es
T w
ra ham
b atch
ĠS D
Ñ ĩ
7 00
Ġcomput ing
d c
ind u
Ġd ot
ĠTr ust
p are
i y
Ġn arr
Ġdest ination
comp ile
Ġle mma
ĠCol l
ĠM S
Ġmusic ians
Pro gram
ĠT ok
A ustral
ĠCom put
istrib ution
æ ľ
Ġl umin
select or
an imation
libr ary
Ġf ear
ĠH ard
z ip
Ġd anger
ĠBe ach
agnost ics
Ġmax im
tr l
Ġref ers
h box
Ġag ency
ĠC A
ĠS anta
Ġcontr ad
P res
ĠAp ache
ybr id
Î ±
ĠInd eed
Ġd ance
Ġperform ances
ĠDes pite
ĠG iven
s ome
Ġall Classes
rop ical
Ġbul k
Ġexper i
Ã º
Ġar ms
reg ular
ation Token
Ġ_ .
Ġcred it
ort heast
D b
s quare
Ġintrodu ction
Ġun able
SE LECT
Ġcontem porary
æ ĸ
ĠA rea
19 17
End point
ĠallClasses Link
,\ \
Ġmod ules
Ġsil ver
ing ly
Ġunder st
19 19
ORD ER
aps ed
Ġap pre
Ġindic ated
Ġent r
Ġhold ing
ĠL abor
s ig
Oper ator
Ġm om
G N
Ġdr am
in er
ĠS a
}} )
em pt
ĠSo ftware
Ġpublic ation
D ictionary
art he
II I
B asic
ĠK ir
Ġsc ulpt
ades h
S creen
our se
che stra
Vert ex
ĠC am
Ġresult ed
ur ches
Ġaff ili
S erv
Ġassum ptions
19 14
ĠV ector
Ġf ashion
Ġconsist ing
ĠApp endix
INT ER
ĠW ho
res ize
ĠFace book
Ġar ts
Ġdr iving
M F
Ġrest aur
NavBar Font
ĠM arg
Ġident ical
Ġp lease
Ġaddress es
Ġeffect ively
ĠP aramet
Ġd imensional
Ġrelig ion
U K
w ing
h ave
bl ank
ct ic
ĠAn th
Ġtrans mission
ĠC ustom
M ouse
ĠN Y
le ts
Ġd og
Ġv otes
mer ce
ĠCon nect
( --
ĠS ource
ag g
Ġtit les
: [
ask a
vis ible
Ġdepend ent
as m
Ġw ants
ibr ation
Ġpredict ions
F inal
Ġext ensive
ĠK im
Ġm ys
ĠN AV
ide os
y ard
I gn
ext end
Ġ Ø
G iven
includ ing
Ġs pring
Ġnot able
Ġab und
c atch
L imit
Ġcon figure
******************************** ********************************
over view
he t
Ġe lev
Ġacc ident
Ġmunic ipal
ĠSt eve
vari able
ĠH om
ĠJes us
ur able
pre c
] $.
Ġf iction
Ġoffic ially
plement ation
N ormal
PRO JECT
qu ote
Pro of
Ġcl ock
H ub
12 7
f actory
ĠFore ign
Ġelectron ic
enn a
ĠOb serv
Ġselect or
ĠA re
Ġc ert
Ġpi eces
Ġl ists
Form s
c ounter
li ance
des ign
i ations
et ing
R T
r ift
sh al
,\ ,\
Ġcompet ed
r adio
in ator
Pro to
och astic
ver ter
ĠOption al
C ALL
plic ated
ĠB udd
B ook
F ore
Ġsk ills
Ġequ ilibrium
ĠM ond
Ġjud ge
get Value
i ota
Ġwe alth
ir ation
construct or
ĠPro perty
ann a
Ġdepend encies
Ġre action
g ency
c ow
, {\
ari os
u ating
Ġderiv ative
ĠE nergy
fig ures
Ð¾Ð ²
ĠN az
ĠG ro
Ġsp ons
Ġ' '
Î ¿
Ġdec or
, '
Ġdem ocr
19 35
Ġc ursor
stand ard
dest roy
Ġph one
w orth
13 0
SC R
ak h
. ",
exp and
est abl
em et
| }{
Ġc yc
$ _{
re lease
ed u
Ġa head
ar ity
ĠMin nes
ĠN a
ever al
Ġgu ard
ĠCom ple
ĠStep hen
C ur
ve e
Ġcomp atible
l ab
Ġgener ator
ĠBr idge
Ġc overs
method s
is or
Ġconcern s
vert ical
____ ____
m essages
Person al
igh th
i em
column width
ĠT am
Ġde ploy
ĠH ay
an aly
Ġfrequ ently
act ivity
Ġf ell
}) }
Ġatt ached
ap ore
bour ne
j an
ly wood
ĠMinnes ota
Ġli qu
k ish
y y
og y
Ġcommit ted
Ġpre ced
enc ing
19 33
] $,
CO MP
Ġs aved
Ġthan k
Ġwin ners
D ay
opt s
ron ze
Ġhapp ens
}[ \
Ġg ained
zon a
M s
Ġanim als
E st
Ġb urn
ĠN etherlands
ĠA ccess
Ġlow est
Ġvalid ate
ĠW ars
Ġ$ ,
const ant
Dr iver
Argument Exception
w eg
Q U
Ġpro pose
Cl oud
19 00
\ ;
ĠWis consin
L ook
qu es
Ġ\ ]
k t
run time
P UT
Ġs ys
ĠD oug
Ġhe ar
ĠDu ke
F amily
tain ment
ĠCon stitution
Ġiter ation
ic ator
multi row
}} _{\
C ard
us hed
$ };
ï¼ Į
ĠQue ens
Ġnecess arily
ĠB at
and y
T F
ur st
Ġbu y
function s
ĠL ive
/ {
ĠL es
US ER
" ].
Ġfac ulty
Re ce
b asic
pp ing
our ney
Ġdisplay ed
MO DE
B inary
å Ĳ
= .
ĠN ative
Ġin n
Ġexpress ions
C r
o es
ĠW rit
ĠL ady
Ġweap ons
s es
Ġterr itory
b at
com put
Ġreserv ed
s ocket
Ġmod ify
Ġt sd
s ync
Ð ¿
tikz picture
empty set
V E
ĠS M
ĠW in
Ġlink ed
Ġvis ited
dr iver
valid ate
Ġdef ines
ĠH as
B egin
G P
Ġjust ice
Ġlook s
Ġrel ax
ĠD or
ĠS aturday
Ġhost ed
Ġd iver
Valid ation
ĠColor ado
Ġc art
ĠRe al
me an
A nt
Ġappro ved
v ard
S ources
j et
d uration
ĠA M
Ġp al
Ġb ind
W ait
Ġtyp ed
ĠR aj
Ġprec ision
Ġth er
( .
Ġcon clusion
Ġh or
Ġcamp us
Ġsuff ered
Ġcon n
m ad
ĠFr iday
Ġult imately
}} .
st ances
ce st
ĠH un
IN S
Ġend ing
Ġfight ing
Ġ\ "
19 34
z o
Ġinter section
ĠDav is
F ocus
Con stant
or row
is a
ĠG reg
Ġd x
con nected
ĠE th
Ġthous ands
j Query
: `
Over view
F ollowing
Ġconf idence
Ġperm ission
ret ch
Ġdom estic
}) =
ĠR a
arg uments
clud es
Ġmer ge
F ree
ĠEngine ering
Ġdro pped
Ġw arning
big l
ĠC urrent
Ġ' ';
Ġquant ity
Ġc atalog
Ġr aces
Ġch ampion
G ER
T ax
Ġmix ing
Ġt aught
ĠX ML
Ġgr avit
ĠRec ord
Ġexplan ation
Ġr ig
Ġad min
Ġmount ain
D av
ĠV ari
hed ral
Ġphys ic
ĠAff airs
ag an
ĠV en
M ake
Ġpers pective
inher it
ĠAb out
Ġab andon
ing ham
ĠL ike
Ġpol l
Ġprom ise
Id entity
Ġsee k
Ġin vent
st ates
C LASS
os ed
Ġparticip ated
Ġex ports
ĠH o
ĠN et
Ġar c
Ġcon form
Ġop position
ennes see
ĠF inal
Ġbusiness es
Ġt ags
w d
ĠAd v
big r
orig in
Ġm arg
Ġv ision
ĠV i
Ġdi agonal
Ġsche duled
spec ific
p aper
ap l
Ġdocument ary
ĠUn it
Ġsent ence
et al
Ġd ense
ĠNAV BAR
en ess
Ġinterpret ation
, ...
Ġ> >>
Ġf mt
ee k
Ġh abit
emet ery
comp are
ĠO t
Ġv ice
iss ue
Ġindic ating
oriz on
Ġint elligence
STR ING
ĠS at
Ġcontrol s
ĠTur key
Ġcan onical
w atch
M IN
mer ge
ag en
F act
Ġpurch ased
å ®
ĠCoun try
Â °
Ġtarget s
Ġre named
dat abase
let ter
sequ ence
Ġsch olar
Ġinstit ution
Ġr ain
Ġint ensity
Ġinter ior
Ġpro test
ĠSt andard
ĠR ow
ound ed
Ġinj ury
Ġ_ ,
Ġre produ
par allel
ĠChrist mas
dev elop
et es
Ġpro to
Un known
E P
Ġ ille
ex it
= [
ph ase
Ã ¢
ĠM ir
ĠT y
ĠA D
Ġm and
w ill
19 10
Ġcompos er
ĠW at
tribut ed
is Empty
cre ated
ĠG allery
Ġop posed
Al low
os l
D ATA
HER E
RES ULT
An other
E mail
= $
P ers
Ġgovern or
re du
sl ash
ĉ ĠĠ
D IS
19 29
S ave
is lation
/ "
Ġf resh
Ġal ter
ĠInst ead
Con structor
OR Y
S W
fg han
0000 0000
= &
NS String
% .
k h
19 28
ĠM ilitary
Ġp apers
ĠFore st
al ias
ĠS ab
Ġfil led
Ġarrest ed
Ġdo ctor
Ġalle ged
onym ous
S F
av ailable
Ad min
Ġsc ores
W allet
Ġder ive
rop ic
an ia
IO Exception
ĠPe ak
Ġtri ple
e a
ĠB ru
hav ior
ship s
Ġnon linear
ĠS ets
al ert
ĠGold en
/ .
ĠSt ock
ok es
ul ating
Ġadj acent
ty pen
ropol itan
Ġg ender
Ġfound er
ĠR on
ill is
" |
å ħ
Ġpar liament
Ġp ref
ĠSt adium
ĠG ree
@ {
Con nect
Ġdr ink
Ġcon version
ç Ķ
m oment
Ġlimit ations
ĠC art
="../../../../../../ ../
ur is
Ġtw enty
Ġpers ons
Ġfl uid
ĠChild ren
10 5
Object s
ĠT urn
el astic
ĠSwed en
ĠG er
En v
ut ation
Ġhousehold s
i pher
Ġintegr ated
ibli ography
re act
ik a
per m
Ġp iano
Ġdec isions
19 32
Ġprom ote
Ġs pher
ĠMed al
Ġconstit ution
ĠExec utive
Ġv ess
Ġcr isis
ĠW rite
fri end
Valid ator
Ġc odes
ent ed
An notation
Ġpart nership
e en
ĠB ush
Ġexpat riate
ĠS elect
Ġw ing
ĠBook s
Ġs un
Ġunivers al
Ġdefe at
Ġa id
Ġcharacter istics
Ġb ow
ĠPr inc
ĠAg ain
the less
ar ry
Ġs ql
DO M
ordin ate
Ġor b
}) ^
) }_
ĠB efore
Ġaccount s
ob serv
L ight
ĠC as
Ġyoung er
dis able
Ġprep ared
Ġb inding
Ġw ish
f p
> )
_ );
ĠP os
Ġrelationship s
;\ ;\
Ġpract ical
Ġdef orm
Ġessential ly
Ġ rom
Ġstand s
W arning
mem ory
un ately
F P
ĠK ansas
D en
math op
ĠDes cription
Ġgr avity
in os
Ã© s
AN T
ly n
ri e
ĠAtl antic
A SSERT
se ason
ĠS earch
Ġprec isely
Ġcriter ia
Ġex cell
go od
}_{ -
ĠMiss ouri
end ment
attal ion
Ġid x
Ġprom pt
W ord
Ġp ixel
Ġcol span
Ġpain ting
Ġproper ly
de ep
pl oad
B el
A bs
erv ed
cl ine
Ġexpl ore
Ã «
Ġbig gest
Input Stream
Ġm ach
Ġind ependence
] {\
typen ame
Ġl osing
ĠD B
Ġabs ence
ĠC lient
Ġle s
ĠTr ansport
Ġ-- -
ĠE U
ord on
er os
ĠSur vey
kw args
ĠSwed ish
u y
Ġ" ";
Ġop acity
p b
Ġopport unities
Ġresearch ers
ĠB all
ĠAd am
Ġp un
Ġhypot hesis
neg ative
high light
Ġarr ang
o or
Ġb os
L i
Ġfail s
Ġprior ity
Con sumer
\\\\\\\\\\\\\\\\ \\\\\\\\\\\\\\\\
pos ing
Ġint ent
ĠLew is
Ġnot ion
ĠOn ce
'] );
Ġf aster
ĠH ou
Ġ\ &
im ination
ĠPrem ier
Ġdefinition s
Ġdemonstr ate
ĠW IT
Ġm es
ang a
Ġ" %
U C
ile vel
}} ^{\
R aw
Ġb odies
J an
Ġg lass
w br
ak ed
ĠO cean
Ed ge
Ġm ist
Ġlog ic
# {
c ross
Ġvar iance
Ġeval uated
ymmet ry
t z
Ġs b
ĠS on
Ġnov els
sub mit
ĠL ow
ĠGu ide
amb ig
ass ign
ĠAnd roid
ĠTh rough
ĠA P
Ġgener ating
\ }$,
Ġtem ple
Ġtrans actions
at iv
M ost
19 22
ĠIslam ic
Ġreject ed
in us
Ġh orizontal
Ġs ending
Ġtemper atures
Ġmax imal
Ġenc ounter
ĠRem ove
Ġs event
ĠE ll
Ġf erm
is set
reg on
Ġdo or
ĠP M
Ġrough ly
ĠD C
ell ite
ĠN orm
ens ities
LO C
ĠIndian a
Ġb log
/ _
Ġex cess
Ġd st
ĠW inter
trans action
19 27
FI ELD
Ġsec ure
BP ACK
uff ers
Ġn ob
ĠIn vest
s ym
Ġcur vature
Ġocc asion
rupt ed
G erman
Ġtr ivial
Ġca ref
ĠC orn
Ġa st
ĠC EO
Ġf ee
br and
ĠN iger
A udio
ĠA thlet
DE F
Ġcol ors
ev in
ĠT ai
in ction
m k
ef e
Ġimprov ement
iv als
s un
H tml
L at
itor ies
pr ise
}} }\
Ġimmedi ate
Ġener gies
ĠRes ponse
Ġg reatest
an ches
N ET
Ġnormal ized
F n
Str ategy
AN CE
Ġthink ing
av al
19 24
b log
Ġperm issions
Ġc as
Ġg irls
tr ivial
sequ ently
ap y
n ative
Ġquant ities
ĠMem orial
ist ogram
In sert
al gebra
ibr aries
ĠE P
sp in
ĠS C
Us age
it i
Ġ' ./
ĠM iller
ĠBr ad
Ġ" ",
assert True
Ġtrad ition
Not Found
ĠPro t
19 16
Ġconsec utive
Ġrun time
Ġcertain ly
f mt
old s
for Each
Ġfeed back
Ġst yles
Ġconcern ed
ĠIsrael i
Ġel if
B M
ĠD am
Ġstrateg ies
19 12
ic ing
P red
ut ies
Ġj et
Ġgeneral ized
ĠH art
d am
getElement ById
per iod
Ġcli ents
Ġbrief ly
Cons ider
} ))
A E
Ġrad ial
E val
Pl an
Ġto t
Ġcan cell
Ġbreak ing
ĠM oh
alle st
Res olver
=\ "
s r
19 31
ĠT oday
ĠC ore
Ġpract ices
Pl atform
Ġmov es
ĠA mb
Ġcover ing
n ight
ĠL ay
ĠC R
sub ject
form er
}\ ,\
Ġrestr icted
S ong
ivers ary
f eed
Ġ' ',
We ight
Ġm ent
l u
ĠL anguage
ĠB ishop
lic ense
Ġb ug
Ġinter act
Rem ote
d on
J oin
Lem ma
Ġrank ed
Ġres c
ĠMary land
Ġrespons ibility
ĠP R
ĠAdministr ation
r uby
face book
19 26
ĠC zech
Ġqu ark
Ġcont est
se lection
B lack
1 15
ast y
Ġqual ified
ĠL eb
Ab out
Null able
cl one
ĠT ennessee
Ġw el
out s
cre ens
F rench
Ġim plicit
az a
Ġ ig
Ġtit led
Exec ution
Ġmod al
R ate
Ġc y
Ġst ores
ĠI ss
gener ate
s heet
avel ength
ĠBr ig
t le
ĠCh ange
y al
ĠL java
O F
Ġm el
Ġgu est
weg ian
anch or
c are
er al
Ġso le
Ġup dates
Ġe ye
Ã ¥
Ġwe ather
() ),
h d
Am ount
Ġpat ient
Ġparticip ants
p end
Ġtop ological
Ġsup posed
load ing
Ġengine er
Ġs and
Ġext reme
Ġle ct
Ġm yst
col n
% "
! <
On ce
dep recated
ĠF ellow
19 25
." ""
ail ability
Pl ot
Ġtown s
Ġcomm ands
om ot
Ġse ats
Ġst one
Ġ@ "
Ġpar ish
CH AR
et ies
Ġf uel
west ern
M aterial
} |\
Ġdec ade
Ġf estival
Ġch apter
}{ *
Ġsche dule
Ġs ale
Ġal ert
Ġapproxim ate
b us
Seg ment
P od
ic ular
d ark
ĠT err
ĠS che
ĠS P
11 1
Ġh ers
ure au
+ (
Serial izer
writ ten
ĠOrig inal
~~~~ ~~~~
Comple te
arthe ta
Ġsomew hat
P ubl
\% $
ot ional
Ð ·
ĠL ear
M essages
ob s
v artheta
ĠC G
Ġ ^{
ar ith
ĠCast le
ĠIl legal
\ |\
Q ual
ĠInd ones
\ }\
B al
Ġw arm
Ġphot on
Fail ure
Ġident ifier
Ġf an
l oss
pt ic
ov ing
ãĢ Ĥ
Ġs ac
ĠH an
ĠM un
Ch rist
19 21
App end
pro gram
ĠViet nam
eng ers
ĠAnd erson
ĠLe on
Ġd ream
fol io
ag ues
ĠSt atus
comm ons
ĠAss oci
ĠP ot
we alth
ĠP erson
D etail
ĠC hen
Ġflow s
ĠL oad
ĠO N
Ġvers us
a ired
us al
Ġcorrect ly
ĠP ut
ir th
br as
66 66
ĠSt ory
Ġhom es
ĠB et
ĠS af
ĠAr thur
rypt ed
Ä ĥ
F older
Ġtest ed
Sign ature
Ġh all
ay ed
f etch
iz ers
ĠSer b
um a
Ġassum ing
L ib
Ġb at
Ġprodu cing
ĠM ill
sp acing
Ġcol our
ĠDon ald
Ġarg ued
Ġt urb
Ġdistrict s
Ġdemonstr ated
ĠÐ ²
ru ption
ĠF ord
ort ion
PH P
ĠR ose
Ġhel ps
scal a
Ġst ats
Z one
Ġcar bon
Ġconsum er
Ġpropos al
Ġbas eline
ten ance
Ġcirc uit
ĠAri zona
Ġdis p
Ġjournal ist
an alysis
ĠK al
nav igation
Ġclos er
SS L
is en
ang el
Ġm al
ex tra
ah oma
Ġcon tribute
Ġcre ates
Ġp ipeline
com b
riter ia
E p
ac on
part s
ĠGr ant
Ġpay ment
ĠMount ain
O W
Ġlo an
Test Case
Ġprodu ces
St atic
Ġn a
Ġas sets
ĠR oss
ĠH al
1 12
ĠDE FAULT
Ġinfr astructure
St ar
Process or
Ġst orm
elli j
B atch
Ġr ugby
ele ments
ĠTown ship
ĠWAR RAN
ĠĠĠĠĠĠĠĠĠĠĠĠĠĠĠĠĠĠĠĠĠĠĠĠĠĠĠĠĠĠĠĠ ĠĠĠĠĠĠĠĠĠĠĠĠĠĠĠ
AC H
N UM
) })
Ġattempt ed
Ġcos m
ĠJ oh
F UN
w ik
B Y
P resent
w arn
ĠSing apore
An aly
ant e
Ġst ages
19 15
Ġinter mediate
ĠHol y
WE BPACK
Ġsepar ation
Map per
ĠMar ia
Ġreason able
Ġeduc ational
c lip
ĠW ed
um ps
Ġbelong s
I tal
C ONT
Ġ" >
agr ang
off s
Ġc ab
new s
Ġsc r
Render er
Ġdr ag
AR N
Ġap plies
comm it
ĠC ost
iss on
Ġdecre ase
Ġcommun ic
valid ation
ĠCap tain
ĠR ight
ver age
Ġinvolv es
Ġprof ession
Re al
Ġcon d
viron ments
ĠFr ont
Ġw ins
U ST
cal endar
int ellij
ĠAp ple
Ġpass es
Ġc ycl
19 23
Ġleg islation
pl ain
ĠAp plication
p kg
Ġp ed
ow nt
Ø ±
int eger
om er
C lear
! "
In formation
Ġfav our
AS K
Ġgovern ing
ĠMex ican
Ġdesign ated
ĠE u
Ġre verse
B inding
ĉ ĠĠĠĠ
Ġv ent
ĠPhilipp ines
ur d
ĠM att
Ġperman ent
B IT
Ġsc oring
ĠA fghan
Ġcontribut ed
sl ant
10 2
sub sec
es ome
em bed
ong o
Ġvol unte
Ġent itled
ĠP it
Ġcr yst
Ġdire ctions
Ġload ing
Ġy ellow
Ġen umer
ĠR ad
ĠLeg isl
ĠUkr aine
Ġrev olution
ex pression
Ġch airman
Pre v
Ġrequire ment
ĠOffic er
A I
col lect
can vas
V ICE
ig ate
ĠN ever
ĠN E
P ower
Ġpercent age
Ġc old
Nav igation
ro it
Ġend point
ĠMos cow
el le
ĠD ue
p in
Col l
Err ors
B ottom
atur ally
requ ency
ĠL ic
Ġnav bar
inst ein
STAT US
cri ptions
ĠD eb
re ll
ou st
Arg uments
Ġsymbol s
Ġcollabor ation
L R
Ġtri p
ĠA T
Set ting
ab c
Ġconfig urations
C ent
Ġst ochastic
Ġcomp ens
g i
Ġir re
Sp an
Ġenh ance
ĠAb stract
Ġs ought
Y Y
ĠL ind
Ġclass ic
P M
Ġmer ged
IMP ORTED
ĠO S
g ather
re present
es ides
pr iv
fin ite
ĠB an
ĠE very
log o
olv ing
Ġworld wide
e ast
Ġp ixels
$ {\
Ġgu ide
Ġexper iences
ĠT al
Ġrespect ive
ĠL td
Ġap art
ĠOut put
Ġap ilevel
Ġasympt otic
ĠAl f
ate ver
Ġdom inant
w as
Th row
rt l
Ġm ental
in ian
Ġd ates
ĠMod ern
pt o
Ġprogram me
ĠCol on
ĠM ock
Ġunderst ood
V AR
b lob
Ġw ire
F M
0000 00
ĠD a
Ġs leep
B its
" },
itect ure
Ġcomp re
Ġun iverse
12 34
Ġre new
Ġb ought
Ġcheck ed
][ ]{
enc ode
Ġsubject s
ĠS av
LO W
Ġpres idential
ĠT ag
Ġg one
ĠP ier
}$ }
Ġm ouse
ĠF ac
w x
P Y
H er
ĠĠĠĠĠĠĠĠĠĠĠĠĠĠĠĠĠĠĠĠĠĠĠĠĠĠĠĠĠĠĠĠ Ġ
direct ory
Ġscen es
) &
ab ric
ch ant
W omen
Ġlog ging
ud a
ĠS ym
ĠâĢ ¦
ĠA h
Ġc ub
ĠHigh way
m ix
Ġcopy right
ĠV ice
Wil liam
Ġc ook
Ġfem ales
UM M
Ġcorre ction
c ers
> ;
Ġsens itive
ul us
Ġregard ed
Ġ' %
Ġcap able
M r
Ġco her
Ġign ored
Ġcho ices
z y
Ġl yr
Ġd ashed
ĠComm unic
RE D
Ġoccup ied
ag ma
ach er
or ne
Ġgood s
ĠS quad
dist ance
Ġleg end
UN D
Ġf ake
Ġe yes
Ġh op
ĠPro p
Ġan om
id ges
Ġsch ol
Ġ} {
HE AD
Ġan chor
OP T
Ġcoll apse
ache lor
Ġkeep ing
Ġmom ents
Ġorient ation
X i
Ġsh ares
__ _
Ġadv ers
ä º
Ġthan ks
Ġ Ñģ
ff f
atter y
d irection
14 0
is ot
Ġwork er
Ġs urn
Ġfr ames
Ġro ots
ĠSta ff
iss ip
)-- (
ge bras
Ġpay load
ĠC SS
ĠE ver
ib ilities
uth er
n c
ip art
lo pe
ĠC y
ĠC ab
w ho
Ġconserv ation
Ġwait ing
] ))
ĠF ederation
O ct
Con sole
Group s
ĠCons ider
d ynamic
se p
F uture
ut s
ĠO regon
Ġim plied
ĠG h
Ġ| ____
display Name
Ġ' .
ile y
B en
Ġs oci
g ar
19 13
H ence
Ġdep os
ĠRepresent atives
Sh ared
! ]
Ġ" .
R andom
AN G
Ġpack et
Ġdi plom
Ġsucceed ed
Ġhers elf
ER S
Ġvary ing
Ġsk y
Ġqu eries
Ġw alls
Ġqu asi
ĠT er
Ġmay be
Ġconv olution
Ġth ir
ĠBuild ing
Ġrec ru
Ġbound aries
ĠW IDTH
W arn
ĠPhil ip
Bi ography
long rightarrow
Ġrecomm ended
ĠJ ordan
o a
Ch ain
Ġdescri bing
ĠMed icine
cont ents
j ack
Ġcomp iler
L ife
: @"
ul ner
? "
SCR IPT
Ġ ing
Ġrepl acement
; |
Ġref uge
act ual
Ġcompl iance
Ġmark ets
St andard
Ġoper ate
Ġaccom pl
comple x
Ġim ply
Ġread s
Ġg lob
m ay
Ġan imal
2 13
o i
Ġdeb ate
Ġh orse
Ġne ither
D ATE
Ġcomb at
at om
ĠTw itter
load ed
: =\
M ag
Ob server
Ġph ases
Ġstop ped
B order
Ġy ards
Ġre ward
ĠG ib
Ñ ĸ
ĠSim ple
Ġ{ },
os es
ĠT erm
B ool
c ountry
Add r
Ġnom inated
urre nce
Ġperiod ic
ĠAm ong
st an
The me
C ursor
UR CE
Ġcaus ing
aw are
Ġcustom ers
Ġconcent ration
u j
Ġs ud
Ġr h
Ġposs ess
Ġvari ant
Ġp m
Ġvir t
A z
Ġtem porary
Ġinitial ize
Ġb old
Ġpurch ase
ĠF OR
sh op
Ġdom inated
Ex port
ĠP ython
em ony
Ġpotential ly
I AL
B ased
$ &
O C
foot notes
Ġis omorphism
Ġhand ling
ĠBar on
Ġcharacter ized
Ġexperi enced
arch ive
} ~
ä ½
ĠS ound
ĠOper ation
) ",
ĠO ak
Ġdiscover y
> "
Ġhot el
M ount
ĠC are
own ed
Ġc lip
ĠB alt
ON G
Ðµ ÑĢ
B ro
Ġref used
Ġold est
J apan
ren ce
Ġres istance
ĠHar ry
Ġeas ier
Ġthe atre
^{ (\
Ġhum ans
ov en
Ġstand ing
Ġacc um
}} =
ĠMag azine
Ġk illing
bound s
Ġscient ists
ĠS H
rypt o
ĠD ark
ĠStr uct
r ated
re p
Ġat oms
ic ide
l ot
Ġperiod s
h al
at ibility
ol i
ph oton
h ook
Ġb an
pos ure
Ġrec urs
Log in
L Y
Ġs ocket
Ġ ðŁ
Point s
Ġrecon struction
read er
SP AN
c fg
More over
ow ski
Ġdet ector
Ser ies
^* (
Ġdynam ical
Ġs ync
Ġv ideos
.* ;
L ibrary
Ġbro thers
Ġadapt ed
19 11
Ġcomple ment
ĠQu ery
Ġoutput s
ear s
ĠF ind
ĠM unic
^{ *
ic ut
ill ery
urs day
Ġneut ral
er red
Ġs pl
com es
LE TE
w ick
por ter
ĠConfig uration
Ġassign ment
ĠDef inition
th ere
Ġpres ents
3 60
ĠAl bert
Ġexhib ition
ĠFre der
NO DE
Ġst arring
AR D
Ġpart ially
Ġdr iven
Ġsm art
Ã¼ r
Ġim g
ii i
Ġbur ied
ĠB ox
Met rics
h ang
hens ive
Ġ( ;
ĠEnter tainment
she ll
ĠE ric
j ax
**** **
) >
æ ķ
Ġst uff
ĠN ick
th rough
^ ^
em it
Ġman agers
Ġpe er
Ġd t
ues e
to Be
ĠI owa
Ġpl ate
Ġmaintain ed
Ġwrit es
Ġre aching
ro ph
, .
J ust
Group Name
l ad
In f
Ġpil ot
ĠSh er
Ġv ocal
ĠNor way
N orth
agrang ian
Ġth in
ĠT ony
Ġrepl acing
Ġredu ces
M c
O lymp
Ġv eter
P romise
at on
ac o
ĠM it
Ġag encies
id al
C enter
ĠBy te
Ġscen arios
Ġsub group
med skip
in x
r ink
In ner
itzer land
Cont ents
Ġsim ilarly
not ag
ĠCl oud
ĠF uture
Ġdis miss
l iving
Ġheav ily
u uid
ĠB ah
Ġ( {\
Ob serv
st age
F OR
ĠA ge
c assandra
Ġdep ict
ĠMond ay
S ol
com pute
MA P
Ġc arri
> '
Ġch ose
ĠC ulture
ars ing
All oc
Û Į
Ġvict ims
/* !
Ġcorre ctions
footnotes ize
Ġt ables
str ings
Ġcru cial
m ont
Ġcouple d
Ġro ut
ĠSim on
ab ama
Ġpubl ish
Ġmagn et
ins ic
ist a
ĠL ore
Ġ\ !
od ox
us cript
R ob
ĠM L
LE D
Ġcould n
Ġw rest
ene z
Ġ ĉ
glyph icon
m f
ĠBase ball
li a
Ġsol ving
Pl ace
Ġm ort
/ ">
Ġsubstant ial
Ï Ħ
get Id
over ty
O ld
Ġfac ilit
Ġclass Name
cover y
at ivity
D iff
ĠSk y
aint ies
Sw itch
w ave
ĠS V
Ġel li
Ġmin ute
ĠBuild er
lic enses
Ġvac uum
}\ |
class Name
S elf
Ġlook ed
ÃŃ a
Ġmolec ular
periment al
q q
t ile
con vert
Ġfound ation
Ġsust ain
10 24
Ġenc oded
ĠC ru
o is
ne ut
ĠLin coln
S ame
equ ations
ĠKent ucky
Ġproport ional
a udio
ĠComm un
Ġstrict ly
Ġsett led
] +
ĠAr k
Ġro utes
Ġprov ision
ĠD OM
Ġbro ke
Error f
column s
Ġillustr ated
An im
Ax is
og onal
ĠD ouble
. \\
od o
Ġcrit ics
ĠAg ency
el lect
> ()
Tim er
Ġa cknowled
Ġcomp ilation
Ġdis appe
Ġw inter
;| &
Ġ( ),
Ġbeaut iful
Ġsimultane ously
Ġfile d
um ption
Decl aration
D ig
ĠB rian
z i
Ġd elta
Ġover flow
ĠDef ense
Ġ| =
Ġem pir
Ġd yn
D rop
Ġ$ _
Ġcon cluded
ĠN AS
Ac cept
Draw ing
Ġeth nic
Ġdeliver ed
re pository
li bs
Ġvari ations
AT ED
Ġwindow s
j d
Ġt ight
ĠDi ego
ĠCre ates
Ġext ensions
Ph one
Can adian
Constr aint
ane ous
Ġh its
ĠTh ird
} >
Ġen emy
L ike
Wh ere
Ġclass ified
Sup pose
ĠÐ ½
view port
Ġsup pose
Ġvill ages
ĠCon text
A wards
Array List
repe at
ĠP A
Ġben chmark
Ġexpl os
ĠCl ark
sc ore
ap el
Ġincreasing ly
ph antom
LI ST
IN ST
Ġal ias
Ġge ometric
å ¤
al ink
Ġ' @
ĠSen ior
Ġtalk ing
BU IL
inc ial
ĠC ond
^* \
Ġ\ ,\
sh a
sol r
Ġ$\ {\
Ġeigen values
ues day
g ov
R S
Ġman ip
ĠDo ctor
Ġpro sec
nt il
refer red
Ġab use
ĠS quare
it als
ĠS to
Ġliqu id
U CT
H older
Ġat omic
(" #
k ernel
te ction
ĠP layer
Ġassist ance
ĠHaw ai
Ġspe aking
pre vious
Ġsee ing
ynam ics
Ġcol lections
Ġtrans itions
10 4
Ġwor st
S plit
S epar
con duct
Ġin h
ang ers
Ġf aced
r ame
Ġs i
ĠL ib
ĠH iggs
Ġsup plied
Ġ& #
Enc oding
ĠH op
Ġir on
Ġacc used
Ġtop ology
m iddle
ac er
ĠDe ep
Ġthrow n
Ġm igr
Ġprom otion
ĠD elete
mit ter
el led
ĠGree ce
ĠC S
Tim estamp
w ich
( ()
N V
Ġmay or
ph rase
1 16
Î ¹
Ġre vers
t ouch
Ġw a
Ġad vent
le ton
Ġres olved
U pload
ĉĉ ĠĠĠ
Ġk ick
text color
ĠV o
head ing
s z
h ot
Ġsix th
(" %
è ¯
ĠLab our
Ġhelp ing
UN T
ĠJ unior
1 18
Ġr anges
W IN
v ia
Ġpro files
ĠF ame
m ac
ag u
ĠU l
Ġloss es
Ġa ux
ers et
Ġcross ing
nes day
Ġto wer
form ed
Ġmembers hip
ial s
Ð° ÑĤ
kl ahoma
Ġequival ence
An alysis
Ġstudy ing
olog ists
Ġed it
ĠJ ane
Ġlaw yer
arg o
Ġtr ains
Ġview ed
Ġst ead
Ġad ult
B ounds
Ġdev iation
ĠĠ čĊ
igen ous
ĠSt ream
ar iance
it ely
Ġinter pol
Ġjoin ing
Ġident ification
m ount
el ve
Perm ission
ict ional
Ġcoll ision
i pl
k ov
}^ +
ĠS ri
T ube
Ġgravit ational
B N
Ġe ase
Ġseg ments
Ġmodel ing
Ġre pository
Row s
ort ed
in th
Ġin clusion
Ġl it
b urn
L iteral
Ġeduc ated
ĠM as
Ġpain ter
ĠRes ult
Ġc ro
ĠP ay
ĠO C
ich ol
A UT
Ġgrad uate
Ġoff ices
ĠL ang
Ġsur faces
ĠP i
Compar ison
part y
ug ment
ĠHou ston
Ġr acing
Ġquadr atic
ant asy
Å ¾
ĠA ud
Ġdirect ors
Ġrestr iction
Fr ames
ĠĠĠĠĠĠĠĠ ĠĠĊ
ĠK at
inem a
Ġh ide
Ġa ria
Ġt d
ĠFor ces
Ġinher it
str ict
Ġown ers
ĠS in
Ġhead quarters
M ac
Ġpen alty
Con tains
R out
ĠSer ver
Ġk il
19 08
Ġcent uries
ili ar
create Element
Ġw onder
A SE
ĠK han
g z
uplic ate
ĠB lo
Ġfil ters
*} [
ĠT a
B ad
( -\
ĠL iter
Ġliter al
ac ew
ub b
ĠK a
ĠGe V
Enc oded
ert ainties
od a
ĠHol lywood
d ag
Ġt ack
Dep th
Ġconvent ional
5 12
Ġc ached
on i
G a
Ġle af
CON FIG
ĠSt one
dis patch
ĠMal ays
Ġneigh bour
ĠE RR
Ġim possible
Ġpolar ization
y ers
com par
ĠP a
Ġk id
rem arks
ĠD ream
ĠF ull
Ġp atch
Ġto kens
Olymp ic
= %
Ġstri ke
Ġappe al
Ġb ed
Ġmedal ists
Ġcrow d
Ġca ught
ig ious
ili ary
el son
ĠWh it
ĠH y
is ition
ĠTem ple
Ġperturb ation
Ġfluct uations
Name Link
re po
Ġfr anch
L oop
f ake
vert ex
ate ur
mat htt
ĠD aily
ir ms
Ġout come
Ġshort ly
yg on
C ounter
Ġg ene
Ġ` ``
p ages
Ġcr ick
Ġ ,\
om m
Ġappear ing
b inary
Ġprem ier
Label s
ri ed
Ġch unk
Ġman age
Dep recated
Ġdef ining
F ixed
ĠHow ard
Ġes cap
ĠP lease
Ġsur g
AT CH
Ġprinc iples
k top
Ġacc ord
Ġformer ly
Ġmod er
Ġextract ed
Ġre tain
Ġep och
ĠA C
r id
Line ar
Ġpoint ed
ĠN ev
Ġinflu enced
Ver ify
ĠB os
we ak
Ġdr ivers
ta h
pro fit
Ġfrequ encies
Ġexpect ation
De ath
Ġm ales
ĠTur kish
ish ment
L icense
ce il
put ation
u able
ĠT ree
sc ious
Ġtransl ated
Ġtem poral
Ġpan els
example s
b one
Ġparticip ate
br idge
ĠMar ine
fort unately
C md
ous es
Ġw idget
Ġt ang
_ )
ĠR eb
Ġform ulation
script style
Ġb low
ĠB ureau
Ġ ----------------------------------------------------------------
Ġ< -
ĠReg ional
< <
Pop ulated
p rom
ain ian
ĠMan chester
Ġeng aged
el and
ĠC NN
Ġig et
A ST
Ġent ertain
Ġrece iver
Ġgo ogle
RE E
Ġred shift
we ek
Ġpop ulations
F ilm
Ġch arts
ĉĉĉĉ ĉĉĉĉĉĉ
UMM ARY
Ġres idual
Ġcommand er
ver ted
ĠC ape
ĠMe an
ĠB ra
ĠB urn
Ġsign s
Ġd uty
Ġfit ting
Ġteach ers
Ġb ond
Ġmov ies
ĠV ideo
rem ote
Ġprec ise
ĠN FL
eg ration
String Builder
Ph il
ĠMel bourne
Ġp ub
Us ers
po inter
h istory
Ġcircum stances
ul p
Ġstrong er
N P
Ġequ als
Ġb ronze
m ag
c ancel
ĠR oy
li est
ĠD ick
ann y
c raft
ĠL oc
18 90
Ġtyped ef
th ick
Ġsp end
ĠAdd itionally
U AL
Ġv o
ĠJ os
AT TR
Ġembedd ed
ro b
ĠSim ilarly
n ie
Task s
Ġhe aring
Ġlumin osity
ĠC le
sd k
or er
) ^\
ĠF ourier
Ġinv ited
æ ĺ
in cess
Ġins urance
ĠĠĠĠ ĠĊ
Ġd iverse
Ġre in
Res et
ĠAust ria
E ffect
Column s
ĠCo q
Ġrecover y
Ġbank s
AT OR
c od
ub le
grad le
ad oc
Ġm o
u ction
cont act
Ġcon crete
ĠHe art
Ġhundred s
oun ce
az e
Ġcon vention
et ary
Ġv m
Ġs ons
Ġdis able
ĠAll en
. $$
spe ed
Ġestablish ment
aud i
Ġmat ters
Ġneutr ino
a ire
at en
ĠS ix
ific ial
Ġm it
Ġis ot
( ['
ĠC op
f b
t p
ĠMo ore
Ġpro hib
as p
inter pre
Ġtim estamp
gener ator
T Y
D irection
ĠMar c
ĠHarr is
Ġattack ed
Ġ{ %
Ġpr ices
Ġcour ts
C ancel
Ġm acro
ĠB OO
l arg
ĠE uro
map s
n m
Ġh air
Ġprep are
Ġa w
M al
Ġrapid ly
enn y
ĠPat rick
Ġprote in
Dav id
$. }
Ġdecl are
Ġprefer red
ĠRef erence
overn ment
i ors
Ġm ob
Ex pected
Ġaccom mod
back slash
cor ollary
s is
Ġuniform ly
LIC ENSE
char acter
Ġs we
sh are
iv a
Ġf olk
Ġp ray
11 4
ĠRes p
s ens
E Y
Re act
K it
st rip
"> (
Ġdi agn
ĠSup pose
ĠA st
ĠTok yo
r ig
b est
I Z
Ġ" '
Ġdes criptor
Cont act
p ic
Ġcap tain
d ays
__ )
Ġown ership
Ġhapp y
G IN
ĠLouis iana
10 3
) }.
Ġsl ot
F N
ik h
Man agement
issip pi
M aster
ĠP romise
b ug
qu al
G M
Å Ł
es is
Ġair port
K n
Ġdec ide
le arning
Ġoffer ing
ĠT reat
ĠC OL
Ġpseud o
Ġcorpor ate
ubl in
Or gan
ĠAl gorithm
ĠAl abama
tw itter
Ġreg ression
Ġhard ware
n l
Ġplace holder
Ġf ought
ĠS ite
it ics
s pl
S ite
Ġincorpor ated
Ġn ations
Ġro of
Exec utor
Ġcent ers
W ill
duc ible
Ġsche mes
Ġpost ed
Ġliter ary
ĠT en
Ġcondition al
Ġd elegate
ĠH ans
fr ag
t l
ens is
n os
ixt ures
th rift
v ect
ĠHand le
: '
Î µ
ĠH or
) (\
ograph ical
T AG
ar on
ĠD un
all as
Ġfl u
im its
Ġw avelength
st ud
Ġk ids
Ġsever e
Ġ ri
ĠVAL IGN
Ġconsider ation
get Instance
bind ing
ĠSw itzerland
Ġr ating
Ġrandom ly
Ġadd s
j u
ail ing
b ors
Ġass ault
Ġch urches
RA Y
Re ason
Ex ists
Ġrob ot
tr ansport
Ġfind ings
Aut hentication
resp ons
Ġin ference
Ġchalleng ing
Ġlyr ics
is ons
Copy right
G EN
M o
Ġamount s
ĠĠĠĠĠĠĠĠĠĠĠĠĠĠĠĠĠĠĠĠĠĠĠĠĠĠĠĠĠĠĠĠ ĠĠ
Ġtext ure
ĠDis ney
clud ing
annot ations
TI ES
B ibliography
Ġweight ed
d n
f ef
Ġv oted
t re
y ou
Ġn aturally
ĠJ son
Con verter
Ġshoot ing
M en
Sup er
Ġj azz
Ġs phere
Ġj ourney
Ġsp ending
Ġbring ing
Sh ift
Ġte en
Ġm ile
Ġform ally
M ich
Ġstri p
it udes
um ul
Ġcom plicated
Ġsh aring
Ġret irement
ĠI ter
te am
Ġent ities
T L
Ð ¹
ĠCh ile
Ġfact s
M ajor
R UN
alt Color
Ġcre ative
ro uter
Ġdr um
ĠPro du
tim estamp
Ġsw im
top ic
I ss
F eed
all enge
Ġdiscuss ions
link ed
Ag greg
Po jo
ener ate
Ġcour ses
ownt own
Ġunc ertainties
ĠM oon
T yp
Ġclin ical
g if
ĠEm peror
iev al
Ġco aches
ĠM C
Ġclos ure
Ġphilosoph y
20 23
Ġd ictionary
ĠF ix
F ix
Ġsup ers
do or
Ġsens itivity
g ments
Ġw at
ĠJ ay
Ġconcern ing
ĠPr int
d ers
ĠB ab
it ched
ard o
Ġpriv acy
Ġinvestig ated
Ġstraight forward
p id
ur ric
Ġbr anches
Ġdom ains
ĠWal ter
is ode
ĠST ART
Ġut ility
end a
Ġcount s
> %
d ensity
qu ir
Do ctrine
Ġille gal
Ġtr unc
ĠDe ath
ov ak
is o
Al so
UE ST
ip edia
h our
× ķ
ĠF le
ĠOr th
Å «
ĠL ank
Ġdist ances
ĠB arn
Ge ography
T ile
Ġisol ated
se ctions
Ġf i
Option al
Ġ/* !<
) *
Z ero
R ot
Ġdr ums
ĠT elevision
Miss ing
ĠB h
ĠTr ade
10 6
Ġmat ched
P ut
ug ar
Ġassoci ate
link s
ject ure
fore ach
Ġappre ci
ĠK itt
Ġsee king
ĠS UMMARY
Ã© t
ĠJ am
ĠK y
enc oding
oth s
Ġl aid
uer to
ĉ ĠĠĠĠĠĠĠĠĠĠĠ
FF ER
Ġmusic ian
ĠWARRAN TIES
Ġfound ing
ĠHar vard
Menu Item
ĠM and
Ġsu it
ĠVir tual
Ġqu ot
int ro
med ium
od ge
Ù Ħ
ĠMat the
ĠB eng
ym n
in cre
ĠAnth ony
log ging
Ġpublic ations
Orig in
Ġf etch
ĠF ood
Ġadv ice
Ù Ĩ
con tain
F ALSE
sc opic
' _{
v i
form ing
19 05
Ġf ired
Be en
ĠSil ver
ĠF all
ri ent
Ġk in
ĠHer itage
19 09
Ġexerc ise
Ġexhib it
Ġj uris
ĠS ud
Ġl ose
Ġ- =
Sports people
Ġwhen ever
N or
ust ries
ĠCommon wealth
ĠV ar
Ġord inary
Î ½
ĠP as
Ġdiff usion
Ġreal ized
( /
{ |
C ity
ĠN ob
ĠEar l
ĠCont ent
ĠMon te
H om
ct ors
ĠP O
mid rule
h fill
Ġp ending
ĠAn ne
Ã ł
Ġv ast
Ġg oto
ĠPl ace
Ġanim ated
B uf
è ¿
g ray
l ined
j b
Ġexc ited
Ġorb ital
Ġaccess ible
Ġ Ä
ambig uation
Ġel imin
Ġexcell ent
Ġre construct
ĠG R
Ġterm inal
r pc
ĠB ible
W atch
unn y
Ġg ate
c ursor
Ġat om
(' <
C ulture
ĠG all
Ġsimilar ity
Ġelect rons
Ġcer emony
Ġre venue
ĠB or
b x
p ad
el ines
te le
Ġmarket ing
it ic
10 7
Ġh al
ĠHot el
================================ ================================
Ext ensions
Ġ' "
is ations
Ġexp ensive
Ġm art
IC ATION
Ġemploy ment
Di agnostics
Ġf ly
Ġadapt ation
En able
D id
b oot
Ġ-- ></
ap ple
ĠR ic
Ġsit uated
Ġsystem atic
Ġru led
Ġhost s
im ore
ain er
Ġdis order
Ġredu cing
Ġhistor ian
get String
ĠÂ »
decl are
Ġf aces
w iki
up per
met ic
Run ner
CRE ATE
Ġderiv atives
T ouch
end o
Ġcont roll
S an
cl s
Ġrespons es
aut ore
ĠDet roit
Ġch air
Ġcustom er
Ġcheck s
ĠAut o
? âĢĿ
ru les
Part ition
Ġgun s
Ġperform s
ad v
Ġannoun ce
inter val
re ement
Ġ' _
ĠCont in
ĠE arly
in ces
ĠF a
Ġstruct ural
Ġl ob
Ġun iqu
Ġmanif est
Ġsignific ance
| $
bold math
Ġp arsed
Ġ uri
St ub
Ġconnect ing
ig e
n ol
Ġpart ners
oc ese
Ġpl as
ĠS W
Ġconserv ative
Vir tual
Ġdel ivery
clos ure
Ġm m
ĠO klahoma
Ġsur ve
Ġregular ly
] =
Dr ag
Ġanaly ze
CO MM
W in
H on
ĠK now
ĠB Y
\| _
M illis
Comp at
ĠD al
re pre
ops is
Ġag ed
Ġa str
ren a
ĠConnect icut
Ġdele ted
ed a
h ist
Con vert
t b
ĠPr ivate
Th rough
Ġd ip
ĠWh ere
re ason
ar ial
olv es
Us es
Pre vious
ID E
ĠClass es
iv idual
Ġcarry ing
ĠR ab
Ġh ybrid
ĠM rs
Ġdesign s
Ġdraw ing
Ġf s
ic ode
get s
C oin
ign ore
? ?
Sh ader
level and
19 06
tool tip
Table Row
Ġdis patch
\! \
m obile
Ġpl ain
sw ing
part icle
ens ing
Ġinteg ers
ĠT ab
Ġp ione
ĠD ictionary
ari ant
down arrow
Ġsit uations
N a
C V
Ġt ick
Des ign
ĠM O
met ric
Ġaccomp an
Ġlik elihood
Support ed
N umer
Ġpaint ings
ĠTh read
Ġpresent ation
U A
g re
ĠB E
Ġsub mit
R ich
Ġreport ing
m ms
Ġc b
ĠAdd ress
EN V
Ġarr ival
And roid
stack rel
Ġmed icine
ĠP ope
tim eline
SO URCE
ĠD ead
Ġdecre ases
R ober
n ed
ĠQueens land
am an
pr agma
ĠDig ital
n est
th ree
Ġs in
Ġsim ulated
Ġunivers ities
Ġtri es
Col lect
un lock
edd ing
U V
repre ne
................ ................
be ans
Ġb id
Ġconj ug
c ost
Ġconcept s
Ġex posed
P al
ĠS pr
Ġindependent ly
Ġen semble
Output Stream
Ġmechan isms
ok ing
|| ||
Ġanaly tic
Ge ometry
Ġknow s
Ġf ib
Ġan notation
Ġt er
v p
Ġfall s
$ ^
ĠY outh
fl ush
ĠE V
ĠCom ponent
ĠDoug las
ru ction
f actor
ĠG ab
ĠO tt
ĠD M
cal cul
Ġar med
ĠS R
ĠB ry
con current
Ġman uscript
item pty
eg et
ĠCh airman
Ġsp arse
fef efe
Ð¾Ð »
Ġd eleg
Ġsub mitted
Ġtop ics
un iform
Ġsol ved
Ġplatform s
Ġphot os
}. }
om itempty
LE MENT
H D
ĠBul g
c v
l int
am ount
ĠNor wegian
Ġemer gency
O ffic
Ġgr ade
ĠG ard
$ '
ĠR yan
Ġtraject ory
EE E
,... ,
Ġdistingu ish
ĠL P
Ġsk in
DE X
ĠCl inton
Ġn ortheast
Ñ ħ
Ġequip ped
Ġd ry
ĠR ol
| ^{
ug u
ĠM adr
ĠU RI
)} (\
Ġal pha
u on
Ġguarant ee
Ġen vironments
h us
ĠArm en
OR K
m apping
Ġcr ash
hold ers
St ud
A X
F ace
ub ern
ĠT rib
Ġon going
Ġmin ing
Qu ant
Ġun us
Austral ian
R a
Ġne arest
Ġreg istration
Ġh alo
Ġstre ets
Ġs ed
Ġf ault
m utable
Ġin duct
l on
ell s
T ok
Ġinstr uments
google apis
Ġgu ess
ĠTh ursday
Vis ual
Ġdrug s
Ġ å
Ġour s
Ġste el
Ġinj ured
ĠBr un
Ġa f
ĠN ik
ĠĠĠĠĠĠĠĠĠĠĠĠĠĠĠĠĠĠĠĠĠĠĠĠĠĠĠĠĠĠĠĠ ĠĠĠĠĠ
Ġtrack ing
Ġim pl
ĠEconom ic
ĠPar se
Ġ$ ^{
ub er
ĠF er
=\ {
ĠCon stant
ĠAcc ount
ĠBOO ST
up arrow
Ġare n
19 07
Ġv ulner
ĠSc ient
File Name
ĠL ook
ĠB uffer
local host
ĠG ordon
n ik
ĠD ur
Ġinh abit
IL ITY
ĠArgent ina
Ġcl one
r at
IN VALID
Ġro yal
E ast
Ġst abil
Ġ urg
Ġoper a
in ch
Ġdeb t
ar o
Ġp uls
Ġrepe at
acew atch
ĠJ S
Dis patch
Ġ\ |\
D er
Ch anges
19 04
if ts
Ġground s
am ond
Ġf old
ĠD ave
Ġinterpre ted
9 00
ro ck
Ġmult ip
Ġw av
ĠVill age
Ġl ake
Ġpoet ry
ellect ual
not ify
Ġver b
Ġc ertificate
ĠF A
oc a
ri k
Ġm ilit
ĠEx press
id o
c ity
Ġanal ys
Ġw ww
d anger
v endor
Ġf older
con cat
text sf
ĠP C
BA SE
Ġ( #
B reak
ĠSer ial
ĠĠĠĠĠĠĠĠĠĠĠĠĠĠĠĠĠĠĠĠĠĠĠĠĠĠĠĠĠĠĠĠ ĠĠĠĠ
AR G
left arrow
h ir
ĠR ound
as is
__ ["
op ol
ĠA le
E urope
in ite
Ġd ensities
R ules
Ġh un
Ġinher ited
ĠW y
Ġre nt
HO ME
M arch
ock s
10 8
includ es
n ob
Ġpost erior
in variant
bum s
mult line
} ",
ĠP ur
B T
ĉĉĉĉ Ċ
Id x
ul um
aa aa
D ynamic
ex cept
bel ow
Ġiter ator
ĠMiss issippi
f am
Ġsub section
Ġp overty
Ġvol umes
Ġher o
ĠTr aining
19 2
Ġf iber
Ġc ash
lo yd
ts burgh
UB LIC
b oth
Ġseem ed
Ġre serve
ool s
p ref
ĠN atural
Ġcompar ing
ĠH erm
ĠSp acewatch
ĠEd itor
-------- --
ĠAnton io
Ġeven ing
Ġsm allest
u h
ĠInf antry
Ġocc as
Ġis lands
ps line
ĠRun time
Ġabandon ed
var iance
ĠSquad ron
p f
_{ +
label s
h pp
Ġ\ [
Ġorder ing
Ġabsor ption
D TD
ĠD NA
r as
Ġs elling
Ġ( ,
Ġelect ro
ump ed
t age
S ing
}^{ +
" ];
Ġland scape
ep er
ĠMi ami
ĠVol ume
& =\
re ce
Ġsat ellite
Com mit
l ive
t v
ia h
RE SS
w en
Ġcommission ed
! (
S eq
ĠLem mon
ĠSh ould
Ġdesc end
ĠOther wise
B orn
ol ut
g ate
Ġt uple
S G
L IN
Ġcompet itive
tri angle
Ġatmos phere
ĠSt ew
ĠCol umn
ĠN ash
ĠK er
ĠS N
jav ax
get Type
d m
iss ance
RE CT
Mon th
Av ailable
ĠS el
ĠK evin
aw ay
H ol
Ġc od
Ġalgebra ic
ant on
2 20
fe atures
Ġiter ations
st e
ĠN um
m aking
h ill
HO UT
work s
ourn als
LA Y
{ (\
second ary
External Task
Ġac id
ick y
get Class
Ġco ins
fl ux
ĠS mall
Ġsud den
w i
ĠNav al
Ġim pr
PRO P
~ (\
j or
Ign ore
ĠSy ria
cl ide
ĠBill board
ĠS end
Ġex posure
s ong
ol ished
ex pl
Ġbo ys
ĠPe ace
ĠHon or
P aul
n an
C amera
F ac
d st
G reen
Ġsec retary
Ġs lice
Ġb rown
ĠK EY
Ġinter vals
dis ambiguation
ĠW HERE
ĠT uesday
3 50
As sembly
Ġelement ary
ĠM aur
] ->
Ġpres erve
Ġ' #
W eek
Ġann iversary
ĠD VD
Ġ" ${
Ġcirc ular
ĠG T
Ðµ ÑĤ
c x
Ġcontinu um
if i
Ġrece ives
ĠWed nesday
Ġremain der
Ġassert True
×ķ ×
C trl
il st
Ġd ial
CO M
Own er
oust ic
Ġenc ode
Ch art
Ġin structions
Serv let
ĠA gr
ĠO P
Ġuser name
Ġpar a
ĠN ap
B ER
Ġre tail
Ġback ing
dat aset
ugg ing
ar ance
ĠWhe ther
ir i
qu est
usal em
ĠV in
Ġpublic ly
c ycle
Ġsh adow
Ġgovern ments
am ar
ĠAl an
Ġrestrict ions
" </
âĢ ¢
Ġcompar able
Pack et
P riority
d jango
init ely
11 7
Ġc yl
Per iod
amazon aws
Ex tra
lik ely
r and
Ġexpl ains
ss l
itar ian
Ġs ensor
v et
>< !--
del ay
ĠPubl ished
ĠGr am
h alf
Ġcan vas
ExternalTask Pojo
oc or
Ġent ering
Ġ' -
var s
im p
X Y
process ing
Ġassess ment
< >();
set ting
Sup press
Ġc raft
Ġst ating
Ġse es
Ge V
enez uel
Ġmys elf
tool bar
Ġan th
f our
ĠMay or
ab ad
se a
rom agnetic
Ġ( %
ĠJ un
fr agment
Ġcl im
Ġincor rect
ĠCap ital
Ï ģ
ĠNC AA
dis k
ĠâĢ ¢
Ġtransform ed
TR Y
ĠInd ependent
c odec
Ġcom ic
cept or
Ġdoll ars
ĠC emetery
app ings
æ Ī
Ġconsist ed
Ġsp oke
Ġpro fit
Ġfeel ing
ĠE dition
ĠO wn
ĠLa ure
ĠSw iss
Ġcut s
ĠAuthor ity
Ġtechn ologies
Ġentr ance
ass ador
(" \
Ġcompet e
Ġa ired
it ting
ust ed
Ġcollect ive
sl ide
Ġent ang
S napshot
Ġp up
P lease
Ġa ugment
ors es
Ġalign ment
Cre ated
Capt ure
in ating
ĠAfghan istan
Ġcompre hensive
Ġwh atever
ĠI F
L ang
ch anges
eg as
ĠArg ument
Ġsem antic
Ġre aches
50 9
ĠL as
Ġrun ner
iem ann
ĠIn ternal
refer ences
å Ĭ
pro pto
$- $
Ġsepar ately
ĠB attalion
le ans
Ġsign ing
Ġsing ers
tr ain
Ġproced ures
Ġprocess ed
19 01
ah n
gress ive
Ġfavor ite
Ġsum m
Ġpolynomial s
Ġpar agraph
Loc ale
Ġconsum ption
h p
V ill
ĠQ ual
ĠL anc
Ġm esh
Ġpro position
E ducation
Ġleg acy
erm i
Ġd iversity
plement ed
Ġform ul
Ġform ing
pro c
Cont in
get Message
opt im
w allet
in istic
ĠBelg ium
et he
el ian
ke e
Com put
Ġtransform ations
Ã ´
ĠNew ton
Ġre ception
Ġeng ines
Ġm ine
J uly
ĠWalk er
Ġad mitted
mem bers
f ather
ist ol
Te am
Ġed ited
S am
Ġh orizon
ĠM D
Ġappro val
ag le
á »
ac ht
Spec ial
Ġregard less
un known
Ġbo at
t oc
G it
ĠArt icle
RA ME
Ph oto
Pr imary
clide an
est im
Ġinv asion
Ġdisc ipl
sh arp
add Class
U ES
ĠSec ret
t ol
ĠL agrangian
> ${
h um
GB T
Ġhead s
Ġs occer
Ġexper ts
Ġdiam eter
Ġhom ogeneous
Ġnorm ally
ĠLog ger
Ġturn ing
Ù ħ
Ġfle et
Ġclos ing
Ġre ly
14 4
ĠMethod s
flu id
ĠR ot
Ġcor relations
TR AN
C ref
in burgh
Ġspirit ual
Ġreg ulations
Ġh am
ĠM IT
Ġd ies
ĠAb b
us r
Ġpack ages
ĠMan ager
Ġdoub t
ĠF M
ĠC C
oun ced
il ine
ĠH ills
10 9
Ġprint f
ĠD im
at ile
T elevision
Ġfe as
Load ing
B ucket
T y
Dis k
19 02
EN CE
ĠKenn edy
ĠN eg
Ġ" [
pl acement
ĠN ichol
Ï ĥ
Ġbr ings
Ġref lection
M us
C odec
bar a
Fe atures
J une
stats models
op ter
ĠPortug uese
ĠB uck
Ġgener ates
Ġlist en
ĠD ak
Ġtr im
A SS
Ġcompet itions
arn er
ĠPh ot
Ġpri est
H ar
ĠJ uan
Ġtr uck
T l
Ġw aters
ĠI T
ĠK az
produ ction
T ex
J ames
ĠE s
ĠQue bec
Ġmet all
ĠSe ason
Ġl ands
}[ !
EN ABLE
Ġwill ing
ĠRes erve
B ecause
om as
ĠWh y
Ġrot ate
BO OL
Ġd im
Ġconsider able
sol id
il k
f av
ĠR ange
ĠCO VID
Sh arp
Br idge
M ust
ĠPro duct
Ġlab eled
24 0
ĠLiber al
ĠCro at
Ġin aug
Ġm ail
re tt
math it
ather ine
ĠP rix
Ġr ival
Dec imal
Ġgrow n
c oc
ĠRes ults
ĠA lice
Ġs outheast
ĠCo oper
Ġdiagram s
P ane
Struct ure
b ow
ang les
ĠCon vention
Mark er
list ener
Wh ite
Ġgreat ly
Ġo vers
Trans ition
19 03
ĠY an
g p
ĠSystem s
d ing
sur face
Ġre ar
Ġoper ates
Ġcommunic ations
() ">
vel ope
Ġcontinu ing
Ġmanufact uring
Ġh ired
ĠLaw rence
bin om
* ,
Ġen forcement
He alth
g iven
ĠG irl
b t
18 80
Ġfit ted
Ġaff ord
$ ^{
Ġint ention
Ġden ied
Ġpr on
Ġ\ {\
Model s
cast ing
in ject
T ensor
ĠMot or
Ġl aser
Ġread ers
Ġtrans verse
Ġweek end
ĠĠĠĠĠĠĠĠĠĠĠĠĠĠĠĠĠĠĠĠĠĠĠĠĠĠĠĠĠĠĠĠ ĠĠĠĠĠĠ
ĠDate Time
Ġorth ogonal
IM IT
Ġf its
Ġrest ore
Ġconven ient
ĠP ed
av ia
ĠM ission
Ġs ight
ĠK elly
Ġfor th
Ġc orn
as a
LO AD
Form er
R oman
Ġsim plicity
Ġschol ars
st ory
ĠU r
condition s
99 99
c n
O FF
contin ue
__ ,
M utable
Ġt ip
per ature
SP ACE
Ġpubl ishing
Ġremov ing
å Ń
Ġc ited
Ġconsequ ences
ĠTai wan
Ġvot ers
Ġkind s
ĠDat abase
Ġdepend ency
ĠB us
ident ity
Ġw orse
Ġg ar
ĠSy mbol
c ill
C irc
Ġrank ing
Ġshe et
Ġv oting
ĠH ug
Ġdeal ing
inc or
re nt
Post ed
TO M
tim er
ash i
f ac
Ġparticip ation
if ference
ĠCol omb
ĠAn alysis
Ġn ick
i ac
l b
ig ator
T ri
Ġst ood
ĠM ust
G T
al ph
ĠÐ ´
Ġto ler
à ¥
ĠT og
FLA G
Ġa ims
coh ol
ĠG raph
ect ure
Ġre plic
BU FFER
Ġtr uly
ss on
Ġapparent ly
small skip
A pril
AV E
ĠSe attle
Ġfam iliar
Ġimprov ements
Ġroad s
{ .
Ġt ennis
ĠS everal
}{* }{
ĠO k
Ġen ables
ĠL ock
Pr ice
H istor
Ġfranch ise
m atic
ver ify
ĠR ap
Ġpost s
Ġpass enger
st eps
ĠMA X
Tr igger
ĠAtl anta
ĠDen mark
Ġres id
Ġin ternet
Ġ' ''
Ġrat ios
Ġstreng then
Ġpreserv ed
script s
ĠOrgan ization
fr ames
pro blem
Ġhand led
M ix
Ġn s
is y
ĠS port
(' ./
Ġarg ue
int o
ĠÂ §
ĠM organ
text up
ĠD est
ĠBow l
An notations
Ġgu id
ĠC hem
B D
Ind ian
ĠSt ore
f older
ĠG arden
lin ux
d ocker
çĶ ¨
12 1
ĠH amp
Ġh osp
Ġfew er
est yle
Ġmov ements
ĠN ull
Ġmet res
Ġs now
ĠF ALSE
ail and
ĠI L
ĠGener ated
Ġprov en
Ġsynt hetic
ĠT OP
des criptor
55 5
EV ENT
ĠU tah
ĠAl ber
C N
ĠBe at
Ġatt orney
ĠOr leans
dec ode
ĠThom pson
Ġhigh way
ĠJud ge
ĠS S
Ġdifficult y
ĠHistor ical
Ġindu ction
c ov
ĠH um
Ġpre gn
Ġcr imes
me asure
Ġsh arp
Ġaut hent
Ĥ ¬
av ers
W I
Ġh oles
et c
ĠCh ampions
UR N
ĠP DF
ĠB O
ĠT ABLE
h yper
Ġsing ing
id ad
Ġsegment ation
ĠEx pression
B bb
ĠU til
ĠMem bers
Ġre ign
Ġb om
Ġad ults
Ġart ifact
Ġear liest
or ce
Ġb ars
Ø ¯
cc c
Ġhe lic
ĠE mer
Ġloc omot
Down load
Ġlocal ized
ĠGr ad
ĠJer usalem
Ġsurn ame
Ġoccup ation
} /\
ob i
Ġdiscr imin
Ġover lap
Con tract
Ġagric ultural
Ġb ot
pi pe
. ;
li ed
str ument
ĠTr ack
! </
Not able
Track er
Ġmy th
op am
Ġs lope
$ \\
\ /
ort ex
11 3
li ps
ĠC it
es a
AR GET
Ġemploy ee
process or
Ġaccompan ied
OL D
Ġrecord ings
app y
ĠA BC
ĠU rb
\ }.
ĠStud ios
dat etime
}{ {\
w he
Ġcl s
> `
ab stract
ĠIn valid
Ġsc an
L ite
Ġbeh alf
ĠP uerto
Ġempir ical
def er
ĠÐ ¸
ĠP ear
; ,
Ġrestaur ant
inher ited
and al
iz z
ĠTh ough
13 5
ol o
ĠD A
ĠWork s
ĠIt em
Ġmeet ings
Ġc ards
et ition
Ġang les
u ity
Ġtransport ation
Ġdesign er
ĠSen ator
ref resh
Ġdec line
Ġres idence
../../ ../
ĠRef orm
new line
Ġcomp iled
Ġreson ance
un ion
Ġput ting
Mod ified
ĠG ulf
d in
oc om
Ġcell padding
}{ }
Res p
G ui
h y
li x
ĠU P
ri z
not ification
Ġpropag ation
ĠMar shall
Ġtri angle
ĠC ow
}) ^{
ĠD ist
Ġrac ial
Ġf ul
as hes
en vironment
ma zing
ch arge
b undle
umb n
Ġdeterm ines
b n
op acity
b etween
40 4
cy cl
ĠS n
Ġt ens
RE T
Ġpro be
il ty
oc he
') ->
R adio
ĠRuss ell
Ġvisit ors
TableRow Color
r uct
L ive
Ã ª
Ar r
Ġis instance
end point
ĠDemocr ats
A ugust
pre pare
tr aining
Ġv ic
ĠAb d
bo ards
ĠSam uel
ĠE mb
ĠC ensus
Match er
Ġstrugg le
ch at
D istance
ĠL eft
Ġwrap per
ĠWIT HOUT
âĢ ĺ
ec lipse
Ġviol ation
ĠH it
Ġtrad ing
k ar
an ion
Ġg iant
Ġfin ishing
trans l
\ },
u is
ind ependent
Ġfac ing
ĠCent ury
Ġh ook
H am
U nd
ĠÐ º
Ġdisp ersion
Ġmark er
Ġcell spacing
ĠN ag
ĠQu ick
ĠEqu ation
Ġmain tenance
Ġrest ored
app oint
che ll
uff ix
P REF
ig ible
g lob
em pl
ir t
ĠG il
ro se
L D
ast s
Ġbe ar
Ġreve als
pan ic
ĠD ublin
p us
Ġrecover ed
0000 000
ĠP ap
Ġm ath
ĠOrth odox
Ġsy ntax
Ġp and
ĠC ole
Ġlif etime
ater al
au i
ol t
tra its
iber n
sect s
> [
Ġask ing
Ġprodu cers
Ġprot otype
Ñ Ĩ
Ġpl ots
ut t
Ġadd r
ĠIm perial
Ġpass ion
Ġfocus es
Ġm ac
ĠIndones ia
Ġcluster ing
ĠF arm
se cret
br ane
Re pe
Ġlist ening
Ġhe ter
g h
olut ely
. ',
S ide
Ġdis establ
Ġaddress ed
i ang
f are
em en
Ġdecl aration
ĠOper a
z oom
M ass
Ġt ank
ĠOC aml
if old
ĠO pt
Ġreli ef
Ġexp ed
og a
Ġdanger ous
Ġim press
D ITION
c amel
r atio
Ex pect
& &\
STR UCT
L arge
Ġcommit ment
ĠCor ollary
por ated
m aker
pl ings
pag ination
Ġlic ensed
Ġsound s
Ġstation ary
ĠBrazil ian
Ġdep icted
ĠBang l
M ilitary
no frame
Mod ifier
ĠF ern
pop up
] ^
ol ph
Control s
ĠAust in
Ġtw elve
ĠAct ive
Ġn ice
Ġj unior
ct ree
P G
un s
ĠC leveland
Ġirre ducible
i est
ĠC E
loc ale
ĠBrig ade
p d
Ġcom fort
ĠLic ensed
Ġobtain ing
s ing
l r
ay an
Ġst im
Ġsub space
Ġt ied
Ġmathemat ical
ĠM achine
B us
ĠFri ed
val ued
Ġb irds
ĠIn v
ĠSt and
Ġro oms
ĠTh ose
ĠD allas
ĠOr chestra
>( <
ĠB ou
D istribution
ĠT ele
c op
distrib ution
ĠF inn
ĠÃ ł
ĠAd ams
s ass
Ġdes ire
ĠPortug al
sup erv
ak s
Ġmod ification
Ġmark s
Ġred irect
Ġbelong ing
Ġd uties
ul o
ĠDe an
Run ning
F ootball
f ish
ĠN ic
Ġ _{\
Big g
Ġmechan ical
Ġpri ze
Str ip
Ä «
ĠRog er
ab ul
}} ,\
gener ic
def n
ĠDep uty
int s
el m
jack son
az ines
ele ted
onom ous
% "><
Ġe c
ram a
du al
Ġdis cre
ĠMult i
ter y
ĠAl liance
ĠP eters
Ġround s
ĠS ingle
ĠA I
12 4
ĠP rom
Ġf lying
Ġcr icket
run ning
Met ric
Ġd s
W H
æķ °
Ġas set
ustr y
Ġaver aged
ĠLear ning
ate st
om ing
Ġl ibraries
ion ic
A ctions
Ġw x
Ġmonitor ing
Ġr is
mat ches
var rho
g ent
/** */
Ġsports people
P ress
18 98
Ġprob abilities
Ġman ual
Ġconsist ency
ĠI ron
ĠP HP
text normal
' },
DE D
ev a
pack ages
Ġcap abilities
qu et
== =
ol utions
det erm
Ġcent ered
Ġcl ar
ĠK o
Ġcritic ism
Ġhel per
è ®
ĠBru ce
Data Type
Ġ ~\
bor ough
ĠEd inburgh
ĠDom in
task s
Work er
) _{\
Ġn an
ur ers
r v
ĠL ower
A MP
Ġstrateg ic
lo be
Ġmarg inal
ĠB asic
Ġover se
Ġestim ator
Bit map
ĠB uff
ho le
ĠYear s
ĠT ry
ĠLie utenant
s ure
ĠH u
iz ard
19 0
Ġp ole
ĠB eck
Ġenc oder
Ġdecre asing
or b
ĠR ule
Ġfem in
ĠK IND
Ġund ert
FFFF FF
Ġcomp ression
ho en
it ches
ab i
Rober t
p al
Ġvict im
Ġorgan isation
ĠPubl ishing
Ġs pr
C annot
eg e
ox y
j amin
=" {{
ut ter
ant i
or ous
}) =\
Com ponents
ab ove
en o
Ġgener ators
ÑĢ Ðµ
Ġme ets
Del ay
Ġ======= =
Ġpass engers
Exec ute
ĠD anish
Cl ub
XX XX
ĠK am
fa iled
SU C
b ucket
Ġvac c
sub equations
M achine
Ġf urn
ĠFrank lin
[ ]{
Ġ' ,
i at
Ġwhe el
Ġinv olve
ancell ationToken
Ġcl er
ol ly
AP P
ĠF red
Ġoper ational
T uple
ĠW right
Ġinhabit ants
ĠK it
ĠH ilbert
ĠYou Tube
set Text
d iction
TER N
le e
late st
xy gen
è ¡
he x
Hash Map
comp act
ĠFreder ick
Ġb ucket
SS ION
Ġautom atic
ĠBalt imore
ant ics
ĠH ockey
Al gorithm
Ġt ropical
Ġdistingu ished
Ġ# {
Ġn ested
Ġprison ers
claim ed
S i
ĠE ss
I l
Don ald
Ġshe l
12 2
path s
LE S
ab e
Ġp in
man agement
apt ers
ant ed
Further more
ĠT ax
ĠD og
Ġch ampions
N ONE
Ġbeliev es
Ġphot ons
ĠCamp bell
div ision
Ġinstall ation
St age
Ġcriter ion
ment ion
Comple tion
ĠB ased
Ġphenomen on
Ġ æ
Int ent
Ġt ort
or us
ext ensions
pher ic
Ġsort ed
elf are
ĠEx pl
g ot
Ġm igration
Pro position
Orig inal
] </
Ġentertain ment
Ġrepresent atives
ref lect
Ġwith draw
ĠI gn
Form atter
N eg
small matrix
&= &\
w alk
A rm
Ġrender ed
ĠC ook
P an
Ġaff airs
Ġmag ic
Ġarr anged
Ġsurv ived
se ed
i op
Ġmer ger
ev ens
Ġpro spect
Access or
Ġt unnel
Ġprov isions
Ġat tributed
ĠSchool s
ĠG on
ST M
With out
cript ors
met rics
INS ERT
Ġrequ iring
S n
g raphics
Ġnot ification
Ġlog ical
c mp
T og
m al
ol id
Ġgeneral ization
M ut
Ġconvers ation
cast le
' +
Ch o
In jection
ĠAd vent
d ale
Ġh a
id en
add le
Ġcho osing
y ll
ĠImm utable
Ġyour self
ut down
tr ight
s ocial
\ }_{
ĠAtt orney
sp aces
Ġal leg
Ġremov es
ĠH ad
) }$.
Det ector
Ali as
apol is
c urrency
ĠChrist opher
m ate
D ict
ann on
ĠW ord
Ġtouch down
ĠS audi
Ġdevelop ers
Ġcomb ine
K S
up dated
Ġk w
Ġne ur
ĠIllegal ArgumentException
ĠS U
V O
Work s
Ġdest ruction
Ġthous and
Ġexception s
Ġpriv ile
L and
F D
ĠUkr ainian
ĠMc G
Ġreli able
ĠMark et
t bl
Ġequ ally
ĠEnt ity
Gr ad
T ry
sample s
H ave
E lect
F ixture
Sec ret
pay load
Ġslow ly
min ute
s ources
qu estion
Ġover view
exec ution
Rel ated
F actor
ĠW atch
Ġres idential
project s
I ME
ad ic
ĠA ws
cri ber
f act
ĠCh amber
ĠSar ah
ĠJ ob
ump y
Ġactiv ation
P rom
="../ _
r x
Ġse ar
Ġre tained
Enumer able
Ac adem
ĠĠĠĠ čĊ
Ġinf lation
Ġs ink
N ECT
Ġcon front
Ġsurpr ising
× Ļ
big cup
Ġjud ges
18 70
Ġoff ensive
Ġr aid
se gment
Rev iew
list ed
ith metic
Ġretriev e
ĠB etween
um ing
$\ ,
ĠMont real
Ġr uling
Ġall ocation
m outh
OT TOM
ĠStew art
Set up
Ġgen re
Own Property
Ġstr uck
ĠW ard
ĠArk ansas
V P
/ )
ĠComm ander
ĠKn ight
h arm
Ġexpl oration
grad uate
L ines
sub Nav
Ġover l
Ġm s
Dis c
Ġ} ).
C LA
ab a
Oct ober
at able
Ī Ĵ
rg b
est ure
d td
Vis itor
Ġeigen value
Ġremov al
ĠT el
Ġcomm ut
100 00
Ġneg lig
Ġchild hood
Ġre putation
ĠD IS
R ound
ĠF ive
Ġb on
sp ir
ĠMark ov
**************************************************************** ********
ra ig
Dat aset
}$ \
Ġlog arith
B ACK
t ot
Al pha
Ġprint ed
Ð ±
b oy
M esh
ĠMod ule
F etch
ativ istic
run ner
P OS
ĠF ilter
appro xim
Ġco operation
ĠPit tsburgh
L SP
en z
ĠAng el
ud son
18 99
ĠOn line
ĠD ance
Class Name
Ġob server
Ġdefault s
Ġas c
Ġsuper ior
O k
des cribe
Ġgrow s
bound ed
ĠMc K
und les
leq slant
View Controller
w hat
Ġval uable
Ġimprov ing
Ġnot ably
iv ia
s yn
\ [\
ĠFin land
elect ric
ab b
gu ide
am ents
ĠB art
ĠCon vert
Ġcyc les
V ec
ĠPal ace
ĠL INE
B F
Look up
ĠMor ris
d ied
) }$,
get Attribute
ab et
ĠN ep
Ġinvolv ement
ĠP ref
ĠCom par
ĠM obile
h ai
av is
Ġpick ed
AS H
Ġsurg ery
SS AGE
ĠR andom
Ġs essions
f m
ĠS eg
() [
B lob
Test ing
Ġaggreg ate
ĠK ings
ir ates
writ ing
P ush
V R
Ġclose st
Ġrecogn ize
ur se
ĠG ray
ÑĢ Ð¸
Ġm outh
âĢ¦ âĢ¦
ĠCommun ist
Ġthe ater
Ġcal endar
Ġacc ret
im ir
_{ [
M art
Ġcirc les
Ġs ender
back s
Ġex clusive
ĠPl ant
tright arrow
Ġthem es
ul atory
Ġex pr
with out
Ġher itage
Ġar ise
ĠR PC
Ġim posed
Ġmar ine
re view
ens ively
5 000
Ġreve al
om atic
ĠQ CD
ĠRes ources
Stat istics
IN IT
Ġtext s
ADD ING
Ġ" )
Ġf at
Ġde ployment
ĠY e
ut r
;" |
Ġadvert ising
ÃŃ n
Ġg ro
Ġelse where
Ġcorrespond ence
S core
t m
C he
Ġcub ic
Ġcontrad iction
Ġcast le
Ġmach ines
ĠEx change
ĠB AS
Ġs ympt
G G
AC ING
Up per
ĠS ac
ĠL I
max cdn
es c
Ġ& $
tr ansp
le tt
Spe ed
Ġmiss ed
ĠU V
Ġenjoy ed
ok er
w ind
B oth
Ġrel ating
Ġhead ed
Ġlog in
Ġcolon ial
Ġs oul
Ġrele ases
Ġspher ical
Ġg ang
spect or
Ġun like
ĠInd ians
ĠDec l
Ġreal istic
ĠT ar
": "
Ġnormal ization
Ġf est
eb ox
Ġbreak s
Ġwould n
Ġalloc ated
ick ing
elastic search
c ou
ch unk
ĠCar lo
Ġcheck ing
Sc ene
Ġst adium
Ġsy nd
ĠV enezuel
Az ure
ic ates
Ġcov ariance
Ġd y
iver pool
Ġb ases
Ġhe x
ĠN elson
Ġdiv isions
im inated
Ġplas ma
Ġs urre
m illion
cl ock
ĠĠĠĠĠĠĠĠĠĠĠĠĠĠĠĠĠĠĠĠĠĠĠĠĠĠĠĠĠĠĠĠ ĠĠĠĠĠĠĠĠĠĠĠĠĠĠĠĠĠĠĠ
Ĩ Ĵ
ag h
C SS
cor respond
stat ement
Th ree
Ġval ley
Ġm ess
c as
ĠL ad
Oper ations
Ġpass age
Ġjournal ists
ĠN eb
ace ae
Ñ Ī
Ġarr ive
ĠB ull
member NameLink
ĠF el
N eed
ĠMalays ia
18 96
s qu
b re
ij ing
Ġpopular ity
B ur
it ure
ubern etes
Ġre n
Ġsevent h
ith uan
RE NT
value Of
Trans lation
Ġproject ed
ter ior
t uple
Ġresc ue
ard ed
Ġfair ly
Ġc p
Ġv eget
LA B
Ġexam ine
Ġtal ent
a que
ĠAp pe
Ġsplit ting
separ ator
mod ifier
ĠPro perties
Al ert
18 95
ro v
ge ometry
ĠTh ailand
db c
> $
CR IPT
Ġenh anced
ĠP ad
Ġend if
redu ce
ĠT ake
sc an
ĠLeb an
ĠCar ter
Ġb are
REQ UEST
'] .
Ġweek ly
Bl ue
o j
Ġt on
ĠPro file
ĠSing h
to ctree
^+ $
ĠUn less
Ġf asc
Ġge odes
b rew
abl ing
Ġcosm ological
Ġ\ }
uk i
Rec all
Open Tl
00 2
Ġmet ers
ĠC rown
red irect
cp u
Ġ" #
ĠRob inson
Ġal gebras
Serial ization
Ġm oth
ĠN i
Ġbi ological
u art
Ġincre ment
Ġunit ary
ous el
Ġm ixture
Ġtri als
ou ver
Trans fer
Ġres igned
ĠMet ropolitan
Tem p
ins ula
> .</
br anch
Ġan isot
Ġwatch ing
Ġacqu isition
Lower Case
ST ART
Ġ" _
Ġm apped
- ">
ish ops
Ġtot ally
h aus
ĠH ell
sub string
Ġgr ass
File Path
op les
Ġs napshot
AR RAY
Ġcelebr ated
Ġd il
res pect
Ġaut hentication
" ?>
Ġaim ed
p k
ĉĉ čĊ
Ġtalk s
Scal ar
v y
Ġp ictures
Ġkn ock
Ġconver ges
Ġpr imitive
Ġref lected
part ition
az el
ĠCh apter
Se ptember
Jan uary
ep age
Des pite
j k
ĠA ug
ill o
Ġprepar ation
S ig
R ussian
Has Been
ĠCon sole
ne ed
ig o
Ġmin i
CO UNT
E very
ch arg
Ġis omorphic
cons istent
um ed
e enth
Lin q
E ven
ĠB ed
Ġimpr ison
ĠM ars
pr ice
Mich ael
Ġh ierarchy
build ing
A ir
ĠMatthe w
f ilters
M IT
I p
Ex press
Ġkil omet
%%%% %%%%
inn ed
Ġ\ }$
ĠC arn
ĠT oken
ff ee
add ed
ĠN BA
Ġw ider
Ġr ising
ĠEq s
C UR
ĠB reak
ĠMuslim s
Ġsu icide
l m
Ġst roke
ĠVer ify
ĠPat ri
end ers
Valid ate
ĠMarg aret
Ġres ign
Ġrail road
ĠÃ ī
Ġneut ron
ĠLegisl ative
Read y
B ul
T imes
Ġp ip
(" .
Ġperm itted
s ame
attr s
Ġne uro
Ġdise ases
e u
dr ag
Ġlong est
le ading
Ġint ellectual
ĠIm port
f ar
ĠD ub
Ġg ay
Up dated
Ġfrequ ent
Ġt ile
Ġrep orter
ĠS cal
trans late
Ġb reed
ĠBro thers
Ġqu as
Ġrecip ient
ĠBrook lyn
ĠD raw
Ġrad ical
or o
Ġdef ensive
ĠM atch
Ġp sy
Ġvis iting
ĠB ORDER
ĠTR UE
oid s
ur ities
Ġdeterm ining
p ending
ĠDef ine
ĠParamet ers
yth ing
Wh y
M AN
S al
Ġco oper
Ġfall ing
ĠHung ary
T X
res olution
ĠBo ys
cor rect
ear ing
Error Code
Ġconfigure d
uch y
uc lear
ç »
ĠN eed
Ġs ke
ĠSp irit
4 50
Ġb att
Ġintr insic
ĠM aine
ĠF ound
Ġup load
u its
pe g
ĠL abel
Ġt s
. âĢĻ
F lor
les cope
ĠAn na
uff icient
ĠChrist ians
ĠC atal
sp ot
17 0
ĠVi enna
c ord
Art icle
P ixel
Ġill ness
Ġappoint ment
18 97
Ġmill ions
Ġexpand ing
Ġfund ed
act iv
Ġfru it
cs v
ĠL am
Ġt elling
Ġactress es
order ed
th ird
Ġor bits
Ġthere by
Ġphotograph s
ĠLim ited
ĠGr id
Ġsus pect
Ġd ress
Ġabund ance
Ġdis contin
\ -
Ã ¦
Ġtraject ories
ĠUn iverse
TH ER
Ġcomb ining
Ġem otional
Ġmorph ism
S N
Ex pat
L ow
Ġb igger
Ġsuff ering
Ġcompet ing
b ach
d ating
ĠHung arian
ĠN ation
ĠR io
omorph isms
Cal endar
deg ree
math ds
. :
De ep
u ates
Ġmer ely
serv let
spec ies
S uch
ĠPol itical
Y our
h ou
Ġout line
mult iple
erial ize
ch t
f un
Ġintrodu cing
. ),
ĠMet ro
Ġt all
ĠM agn
ĠV ik
^* _
final s
Ġm oral
Ġun ity
FORM AT
L com
T ur
irm ingham
Me an
} <
Ġbl ank
Ġstead y
os er
Ġr anging
ĠG irls
ĠWith out
M a
Ġh ip
ĠSh ah
op edia
C s
St ation
Ital ian
( `
m ates
Ġh ill
Function s
Ġgen etic
hat tan
Ġdam aged
Ġhor ror
EX PORT
ort on
Ġs ep
Ġneigh bors
Right arrow
Ġgu y
é Ģ
ĠAust rian
not in
Ġch ains
apt ist
c art
Sc ott
Ġex ponent
sp er
ĠC red
Ġ" );
al og
ĠStud y
p read
g ow
Ġliber al
ĠG raham
Ġathlet es
ĠUs ed
ĠRel ations
Ġf oo
Ġsub stit
å ľ
ey ond
ĠC F
: &
Al t
ĠHash Map
an Ã§
sche mas
A lex
d ashed
ĠSt op
Ġl oved
G ood
L T
ĠUp per
ĠC lear
R ank
Ġinter ference
L M
Ã© r
Ġcoll isions
Ġvari ants
un ed
Ġstream s
ac ef
ec onds
ME M
ĠD R
ĠMP s
G RO
Ġb aby
ĠS ide
ĠÂ ©
ĠBern ard
Re ception
Ġro se
: %
p aces
="@ +
Ġaccord ance
Expat riate
ograph ics
enc er
Ap J
Ð ³
Separ ator
New ton
a ac
T i
Ġnot ing
equ ate
Ġwe ar
sc ar
ĠC os
ĠCon nection
Ġlength s
L ater
ĠMount ains
Ġadm its
ov o
Offic ial
... )
Ġinitial ized
Ġb ishop
ĠMov ement
W ARN
Ġpeak s
A K
ĠL ag
################ ################
E r
ĠW oman
] ).
Ġarray s
IT LE
ĠAd vis
Mer ge
gr pc
ĠIN TO
Ġwalk ing
ĠW ol
Ġob lig
D ry
HasBeen Set
ĠHamp shire
Ġgrad ually
Ġsample d
Ġdispl ays
Sh adow
Ġunus ual
Ġfin ance
_{ -\
H ello
Nov ember
Ġturb ul
G l
| _
pg f
Ġcl ause
om p
Ex it
Ph ase
sp i
I r
trans fer
Ġh at
"> "
Ġsh orter
Tool s
ĠWel sh
Ġspect ro
Ġfriend ly
Ġaccret ion
S rc
ĠJ ason
P D
Ġdev oted
ĠRail road
Re ceived
st ri
Ġcomp ile
US A
f requency
ĠMar ie
Ġmolec ules
ar us
Data Source
Ġart istic
v dots
man ifest
Ġdeterm ination
F ill
Ġch iral
Ġdep uty
Ġ{ $\
Ġmid field
ĠNS String
ĠInitial ize
autore f
WA RE
Ġg ray
Ġencour aged
Ġaux iliary
Ġev ident
} ~\
ĠC T
ĠM ess
an ian
Japan ese
Ġes c
Ġt f
Ġout per
Ã© n
ĠA uth
ĠD ebug
ĠĠĠĠĠĠĠĠĠĠĠĠĠĠĠĠĠĠĠĠĠĠĠĠĠĠĠĠĠĠĠĠ ĠĠĠĠĠĠĠĠĠ
constr aint
Song s
Ġun expected
ĠS F
Con v
Ġout standing
ĠZ one
I ll
Ġspec ification
Ġo cean
urric ane
Ġhydro gen
G D
ai ro
Sche dule
Ġfl ash
ĠÐ ¾
Ġs a
=- =-
d elegate
ph an
3 000
ĠSt age
Ġout comes
Ġinform ed
K ernel
Ġent reprene
Ġpubl isher
ath on
F it
] ['
prov ed
ĠD ie
]( #
Ġrank s
P ending
ĠFin ancial
Ġtax es
ĠP rior
ĠPro tection
Ġart ificial
c z
Ġsubs cription
eff icient
set Attribute
p od
Ġan cest
k k
S mall
ĠPer formance
A cknowled
ent ries
ant ly
Build ings
ĠEn c
Ã³ w
ĠR iemann
ĉĉ Ġ
18 60
P icker
> ../
Ġactiv ist
N ON
Ġs av
for ced
D ist
ĠS ession
es cape
ow s
}} )$
FA IL
Ġw aste
Rel ative
m acro
ĠH old
ĠY es
Ġre act
ĠFe ature
c py
Ġillustr ate
allow ed
ival ent
qu er
ograph er
! =
m ov
Ġarch ae
Ġdyn asty
Ġcou plings
win ning
Ġpain ted
Ġin coming
ĠF ro
initial ize
ĠK on
S K
Ġinv oked
Ġinflu ential
ge on
Ġj unction
over flow
MA GE
ist ically
Ġfocus ing
ĠF ight
Ch unk
Ġinj uries
Rec ip
Ġ" ;
ect ive
Ġsp oken
m r
Pe er
Ġe g
Ġal ive
ĠDak ota
po i
Ge orge
ĠU pon
text ure
w ang
inn ers
Ġiniti ative
H AND
et ry
ĠS r
clus ively
res olved
Ġant icip
ib ling
ĠE C
sh aped
ĠN othing
over e
æ Ĺ
\, {\
ĠWeb site
ane an
-------------------------------- ----------------
ĠMod al
incor porated
ĠT i
ĠNiger ia
U UID
Ġpul se
Ù Ī
ĠT ig
th a
Ġfun ctor
ĠG ary
ĠSt udio
Ġrel oc
ard ing
ĠBroad way
' $.
Ġm or
Ġelectric ity
Ġmut ual
3 20
F oot
' ',
ĠMem ory
F ire
ke ley
ĠAlf red
C ertificate
em ed
Ġop ens
ides pread
con figure
â Ķ
ta x
hoen ix
Ġdecl ined
ĠS cript
ĠT an
ĠF al
De cember
18 92
t ies
ĠF ather
Ġre normal
Ġconform al
Ġr id
R oyal
Ex tract
iff s
pt s
Ġgu ilty
Ġb ath
qu ality
interpre t
M obile
sign al
ĠNever theless
Ġre nov
in verse
Ad v
us c
Ġplot ted
H ook
anc ouver
su it
S chool
ĠH ost
Ġspe aker
ĠE dd
Ġex cluded
ul ates
Ġun stable
Ġdeploy ed
SUC CESS
N I
D an
Ġad mit
if iable
ĠL ane
vis it
Ġh aven
Ġsurround ed
ĠBangl adesh
Ġlist eners
ĠCom ics
Pro fess
ex tract
SH A
S ent
ĠCh art
Ġph on
Can vas
ĠP sych
ine a
cite alt
Ġnewsp apers
et on
Ġas semb
Ġins pect
O cc
ĠCar ib
ic he
Ġlat ent
ĠERR OR
ct rl
* \
Ġlook up
18 88
18 89
Ġland ing
D ao
Ġpra ised
Ġpet ition
sl ider
Ġpar ad
Ġmem orial
Ġag es
C amp
Ġwith d
render er
, (
b ai
} &\
Con tain
ĠKar l
2 30
Ġst ub
T or
Y es
Ġst em
. }\
ĠMadr id
Ġsl ave
overs et
Dest roy
18 93
ĠH end
Ġnarr ative
re str
e or
Ġo x
Ġperm it
Ġb lo
ĠP UBLIC
d al
Ġl ift
book s
ĠAr n
ĠPos ition
V I
Pay ment
B usiness
P ipeline
it ud
Z oom
ĠJ u
Ġcon e
ibern ate
Y S
Ġsuccess or
Ġcomb inations
Mult iple
Ġsh apes
Ġ* ,
h is
ĠLank a
m ust
ĠC ache
C art
ĠC BS
LP ADDING
f uture
Ġd owntown
Ġf usion
comm unic
look up
Ġsusp ended
ĠPo isson
Ġm irror
em ale
Ġconstr ained
> {
ĠM aj
ann es
. (
Ġ< ?
Ġelect rical
ĠCon struct
t ically
Ġencour age
ĠH ind
ĉĉĉĉĉĉ Ċ
Ġstay ed
Ġl l
depend encies
Ġexpl ored
sc ene
ĠSpec ifically
is i
V C
N orm
Path s
umbn ail
rol led
ĠCEL LPADDING
W ORK
Ġch a
A fr
ĠF low
aw esome
ĠCEL LSP
ĠCELLSP ACING
Ġg allery
ĠBr anch
Ġ ur
Ġtem por
Ġgre y
B u
gr avity
Ġput s
_ [
append Child
Ġharm onic
T M
O h
Ġ} ),
ma jor
the ory
ĠM ak
ĠCommunic ations
P ref
ĠAss istant
ĠNaz i
Pro duction
mut ex
ordin ates
ĠRem arks
at ype
;\ ;
M ail
Conn ector
ac les
Ġman aging
ĠRoman ia
Text View
or ate
Ġclass ifier
Ġal cohol
ĠStan ley
ind ices
un i
Ġens ures
on na
Ġcancel led
Ġab road
` )
s ent
re ach
Ġcontract s
Ġperson ality
on line
St mt
ĠJ osh
Ġt ie
ĠMin or
Pop up
Ġpure ly
Ġt y
ĠS ize
Ġweak ly
Ġsu ite
P aint
Ġpos it
Mon itor
D one
Ġkin etic
ĠJ azz
shall er
Ġtrans mit
P DF
Ġanalog ous
ĠR ugby
ĠM E
prec ision
ul u
Ġident ifying
Ġestabl ishing
* >(
ĠK ur
Ġim aging
Part icip
} "/>
c ookie
; %
Ġshif ted
ĠP un
andid ate
J ack
Rep resent
En tries
ĠS elf
ĠB ag
Ġr s
T om
ext ype
L ead
ĠE instein
ĠTam il
Ġb ott
Ġdis ag
ĠCirc uit
B H
ĠP si
27 0
Ġemer ged
pred icate
ĠF ermi
t one
. ")
ich i
Warn ings
to LowerCase
dom inant
T ip
ĠF reedom
ĠCP U
the ad
ĠMur ray
superv ised
] ),
Ä Ł
C lean
Ġrep ly
ĠR y
Ġw ine
Ġexist ed
au er
back end
Over flow
| =
ĠPr incess
ĠJim my
Ġs oph
Ġso il
Ġreal ize
Ġw ounded
ĠG it
k an
ĠĠĠĠĠĠĠĠĠĠĠĠĠĠĠĠĠĠĠĠĠĠĠĠĠĠĠĠĠĠĠĠ ĠĠĠĠĠĠĠĠ
q a
ĉĉĉĉĉĉĉĉ ĉĉĉ
ĠL evel
ĠWar ren
Ġeffect iveness
st ation
Ġs ends
ĠM aterial
Un ique
ĠS ho
Ġ. =
Ġproport ion
f w
ĠĠĠĠĠĠĠĠĠĠĠĠĠĠĠĠ ĠĠĠĠĊ
}} =\
Requ ire
t ility
ĠL iverpool
ĠY ang
nol imits
G old
op ens
ĠW ik
18 85
ĠP red
n x
Ġlaw yers
Ġthread s
Ġansw ers
ra f
ĠR ub
Ġmon ot
hib ition
Ġb orders
ĠA rena
Ġanaly tical
ĠEv ans
Å Ħ
ĠU E
Sche me
lot te
Ġcool ing
Ġimm igration
Ġst ake
\| ^
ĠPh ys
sub float
ĠAl tern
ĠC ultural
1 19
Ã¶ r
i ph
Ġcouple s
vis ibility
l st
ug osl
on ian
Ġweap on
Ġd ating
ot ions
Sec onds
ĠH D
ĠJava Script
18 91
ob a
Sur face
Ġp ose
}) (
tr ait
Ġcom ed
c ached
Set s
ĠL iving
MP L
Ġsurv ive
Ġref resh
Ġsub sets
parent Node
m ys
ĠComput er
ben ch
Ġst retch
Ġc up
igh bor
Ġtim er
J o
Constr aints
Ï Ģ
Ġpre lim
Ġdef ence
SD K
ĠConserv ative
le in
Ġtarget ed
Ġbox es
ath ers
Ġvar ies
==== =
Ġsit ting
Java Script
Ass ign
ĠB aker
un ks
ic ht
arg v
nos cript
ĠIran ian
ex act
ĠO ptions
= -\
C ross
d or
Ġviol ent
n ia
CL I
ari ate
PRO C
is cal
ĠR ain
ĠT arget
Ġc urrency
C ost
ĠW ind
Ġre start
Ġsupport ers
Vill ages
P adding
Ġcolle ges
ĠCh air
ĠC er
Ġspac etime
ic ious
over ride
Ġarch ive
Ġarrang ement
ĠM ack
it is
IP S
Ġanaly zed
m iral
ĠT ower
us age
ĠB illy
ass y
cho ose
E LEMENT
LO B
Ġminor ity
Ġinstrument al
Ġr c
18 94
Ġactiv ists
d z
ur ring
dir name
Comp are
at in
Sl ot
Ġven ues
Ph ys
tr action
i ot
oth y
ĠR ender
Ġr ivers
ĠAss ume
Ġ[ {
)= (
ĠBl ues
F B
ber ry
ĠComm ons
Load ed
ÑĢ Ð°Ð
Ġdec ays
h w
dem o
Ġcoher ent
Ġdem ands
Ġabs olutely
ĠD CHECK
Check ed
Ġleg it
Ġamplit udes
us p
Ġperturb ations
B er
ĠOtt oman
Un iform
ĠCON DITION
U int
p ipeline
ĠP erm
Ġincre d
Ġphot ography
ĠK u
st ub
Ġconv icted
J ew
In struction
C ountry
13 6
d v
az ure
tr ained
Ġaware ness
ish ments
F i
te chn
For ward
r floor
in formation
ught ers
ĠString Builder
hl js
Ġac oustic
W he
p ixel
Ġthreat ened
Ġdiss ip
ĠR ud
Ġch rom
Ġm ir
en ario
f aster
mark s
ĠChar lie
Ġdialog ue
12 6
Dec oder
Ġwrap ped
ĠI C
ME SSAGE
Ġinitial ization
Ġc ous
ĠMo z
Ġg arden
Ġab b
Ġwor ship
Ġf o
ĠB OTTOM
Re place
b olic
Ġw idespread
New s
row Color
on ed
Ġob st
ĠL GBT
Ġjuris diction
b ishop
L U
no ise
CE PT
ĠT s
Ġc rown
ĠCh ampion
Ġobserv able
ĠR and
Ġel der
hel lo
) |\
Ġext ending
14 5
ym an
Ġt ends
ĠT YPE
ĠDel hi
Ġins ight
ĠAt tribute
Ġch amber
Ġc ategor
idel ines
Ġg it
ers h
U ntil
mark er
g un
Ġflo ating
Ġf ol
t own
Ġcons iders
ig s
ĠDir ac
w right
Ġmulti plication
ĠGl as
Ġvol tage
Ġl in
Ġconstitu ency
S il
ĠInt elligence
Ġph rase
ä¸ Ń
__ .
or ange
al ia
ham mad
å Ľ
ĠW ang
draw able
Ġcred entials
ĠBAS IS
( []
Un ivers
Ġcoun sel
le f
R ailway
Ġvis ibility
an ne
ass oci
? </
ĠZ e
Ġcon gress
ĠId ent
act ical
ĠT ob
ĠS yn
se en
ĠCl ar
\, ,
Ġel iminated
x e
ĠHawai i
g ui
ad apter
ĠThe ory
Ġking dom
iv an
Ġsound track
M iddle
ĠZ end
AT URE
H A
pi res
pack et
| _{\
comp atible
Ġk it
Top ic
Ġpro ud
ĠConf eder
Ġprov iders
ak u
Ġ$ ('#
ĠMov ie
ey er
stream ing
Ġours elves
ĠLINE AR
Ġcon clusions
Ġres ident
place holder
Ġreg ulation
RO OT
Ġa z
Ġpro tests
d ed
pos er
ue z
Ġcoast al
ĠBe ijing
Ġhealth y
l if
oid al
Ġobvious ly
NG TH
Ġcritic ized
F ebruary
block s
r ides
Ġc arrier
Ġpo em
ĠN ature
Ġar row
Ġhelp ful
ĠAnd y
b ib
Ġpart ly
bl ast
Ġs ail
Ġinter rupt
ĠN am
Ġbeaut y
Ġvess els
inc ipal
l ings
Ġ// !
Ġharm ony
ĠUrb an
ynchron ous
ĠSum mary
um ar
aw t
Ġrep air
Ġre b
Ġal igned
ĠCONDITION S
An n
Ġsl a
le af
'] ))
Ġguarant eed
ĠB egin
ĠMan hattan
ĠBen jamin
Ġnot ify
Ġqu iet
I ES
help ers
$ }}
ĠY et
Ġb ary
alax y
c amera
et r
2 10
et ric
Ġre semb
th an
ĠH ero
Ġpurs ue
Ġnom ination
Ġt ies
Ġfunction ality
Ġcontrovers ial
Ġind irect
ĠSh ar
Subs cription
ocor ro
fav icon
Ġhand les
Ġcontribut ing
. -
ĠS ave
Ġsynchron ized
Status Code
tra ctions
ĠK l
st ers
ac cur
Ġnorth west
D ue
Ġcomm em
publ ished
Ġp ushed
f iction
Ġb io
Ġfor get
ĠFin ance
Ġt ur
Ġf er
L ab
Ġe cc
Ġprov es
An chor
ul se
ĠJon athan
ĠH ope
neut ral
h op
Ġamong st
our t
at ics
Ġattr s
ĠP S
Ġhon est
ĠC lose
Ġd ated
it ime
ĠS ocorro
Ġwh ilst
ĠV egas
reg istry
Ġx si
ĠL uther
st roke
ĠJos Ã©
Ġste am
ĠSh ip
first row
Ã¨ re
h n
mathbb m
Ġg olf
ĠV I
af ka
ĠEu clidean
N ested
ĠSt ill
Example s
Ġpremier ed
Ġdiscr imination
aval ry
Ġdifficult ies
im er
ĠThe ater
sub stack
Ġsubs idi
b ecause
cent ral
sim ilar
Ġagric ulture
18 65
over lay
oc ent
Med al
vari ables
ĠCh allenge
Ġembedd ings
SER VER
Ġrect angle
Ġw et
Ġinst ability
Ġ// -->
en berg
Ġattract ed
u ent
Pro du
dr iven
Enc oder
ĠB irmingham
T ick
S PE
ĠVis ual
Ġdevelop ments
Ġrom antic
Im ages
Sc an
iv o
s mooth
ĠT otal
c ourse
Ġto String
B etween
Ġris ks
Ġsent ences
S lice
Ġdef initely
Al ign
Ġge omet
Ass ume
inv oke
IE W
ĠR ico
ĠGu y
) '
~ (
err anean
ug s
Sub ject
Ġconsist ently
Q t
l ua
ĠPh D
ĠP or
Ġmiss ions
ĠC HE
com ments
Ġcon fer
non atomic
Ð¾Ð ´
c ategories
Europe an
Ġbeg un
Ġthir ty
F W
Ġass ass
u eto
Ġb arrier
ac re
p riority
Ġnav al
OB JECT
="# "
Ġcompens ation
per cent
ter ms
ĠF err
Ġd war
Ġexpect ations
l floor
id ity
m usic
og ue
Ġre lying
Ø ª
ĠPalest inian
i ator
ĠA ld
Ġver ified
ir k
Ġind ent
ĠP ictures
per iments
ĠDef ence
mar ine
Ġp ython
Ï Ĥ
Ġo ct
adi ents
sm art
ex isting
me as
ĠCre ated
z es
Ġda ughters
Ġsurpr ise
Ġoccasion ally
Ġ" +
ĠAm endment
Ġcontrovers y
list ing
ĠPol y
ĠOper ations
Ñ İ
log ic
\ ":
ĠAl low
Ù ĩ
Ġex ha
ĠB achelor
Ġ/ ><
C ould
Pol itical
Ġt icket
ar ound
Ġattempt ing
W alk
S ound
Ġcompos ers
ĠW as
B in
Ġev il
ĠVAL UES
Ġacceler ation
18 50
Ġdemocr acy
Ġc able
Ġprocess or
ĠCommission er
ĠA GN
16 9
ĠB ody
mod ified
ĠW olf
AR CH
Ġb acter
che str
Ġcompos ite
Ġther apy
Ġinnov ation
Ã ½
ow ed
le te
Ġfe els
Ġstar red
Ġre ven
Conf irm
lic t
respons ive
vari ants
Ġpay ments
Ġefficient ly
Ġproject ive
P ub
00 5
Ġvan ishes
hash Code
ĠC ass
ĠK an
:: $
Ġkey board
Ref lection
m und
Ġsuggest ing
Ġforest s
je ctions
H en
att ach
Ġpred ecess
develop er
Ġsub str
å ¯
Ġb ird
Ġtrans it
ĠPr iv
Ġver ification
u pt
ĠN ord
Block s
Ġsuff ix
amp ed
Ġspec ifies
ĠT ak
Ġfra ud
_{ {
om on
ĠW ait
}_{ {\
' $,
ĠCat hedral
Ġ$ $\
12 9
Ġden om
mult ip
Ġnon zero
ĠQ String
' )$
Ap pe
Ang le
ites pace
Ġdom in
input s
if le
Ġ' ')
ĠInd ustry
Ġf ishing
ent i
the mes
d yn
pos itive
R adius
Ġeng age
rot ate
subs cribe
Fore ign
ĠTe ch
Î ·
18 61
comp ass
Ġre fin
Ġind ustries
ĠForm at
ĠSt ein
Ġb attery
ĠS ET
WR ITE
18 87
Ġremark able
ĠMic hel
Ġinsert ed
Ġconsum ers
vel oc
ĠUn like
post s
Ġ! !
ĠI ce
Ġded uce
ĠB ud
Ġmaintain ing
Ġsub stitute
Ġann ually
ĠCarib bean
R G
ĠPh ysics
Ġcon scious
Ġprov incial
Ġmount ains
Ġun success
d eb
p iece
Ġsup plies
String s
Ġsil ent
r h
ĠI mp
ĠF ish
Ġ} {\
{ },
ĠK ath
f und
AB C
Ġmeas uring
ĠPhil osoph
ast ery
ĠJ enn
ĠPro test
ĠWay ne
B road
ĠEx p
Stack Trace
Ġreg iment
È Ļ
St yles
aus es
f iler
k u
Ġcred ited
duc ational
d ifferent
ĠT EST
" }
ueto oth
ĠM atrix
Th omas
Ġdis put
M LE
Ġi i
AB ILITY
iv ic
ĠBar ry
ĠD oc
ĠCon st
Ġs alt
art z
Ġfor cing
Ġas ks
tr on
Ġatt ach
Me asure
ĠS chema
Ġinvest ors
Ġhabit at
is an
Ġenc ryption
x sd
ID S
ĠMit chell
m any
Ġy es
Al ignment
Ġcred its
Ð¸ ÑĤ
HO ST
ĠA qu
M AC
ĠElect ric
work er
end region
Ġex clusively
Ġgener ations
) |^
ĠUnivers al
14 7
Ġimm igrants
Ġf ixture
Ġj ury
Ġstr ain
Ġth orough
Ġemer ging
ĠN BC
ĠMat hemat
' }\
Ġ$ <
sp ark
Ġp ian
Back end
pe ction
Ġcount ies
Per cent
OR S
ĠEnvironment al
h h
) <
ched uling
Vari ant
Ġdeform ation
Ġqu ote
S afe
Ġinterview s
ĠF ast
Ġcons ent
Ġrelax ation
Ġrender ing
second s
U psilon
' =>
Sim ilarly
Ġdepart ure
Part ial
Ġ$\ |
ĠDev ice
ĠResp ond
ĠF light
Ġcap ability
ĠSpe ed
ĠT yp
Big l
Ġdelay ed
Ġsympt oms
ĠW rest
Ġdist inction
Ġmechan ics
Ġv ec
Ġencounter ed
ĠSer ge
ĠD J
Comple ted
$ _{\
ĠO K
hol m
ĠT itle
Ġro uter
zer bai
ic ulture
Ġbur st
), (
writ ers
/ '
Ġcoal ition
tern oon
m ir
Ġc ogn
Ġr ide
T oday
qu is
Ġaff ects
ĠL L
Ġ à¤
Ġem issions
Part y
Ġst ops
In ject
}_ +
ĠColon el
7 50
ĠN ad
Ġguitar ist
ĠCr ime
ĠJohn ny
Ġpand emic
ĠSt ars
ĠM eg
Ġsk ill
Ġadvers arial
ĠC L
ec ycle
Ġaccess ed
R GB
Ġrare ly
Ġextr action
F ar
Ġc c
Ġcons ensus
ential ly
Ġlegisl ative
ĠPack age
? (
c aret
am o
g c
17 5
Ġt ar
ĠH indu
Ġdis joint
Pol y
ĠExample s
er en
nt z
IN DEX
Ġgener a
Ġmag azines
ĠS A
Ġc oc
p n
For ce
List eners
ĠPr ice
pl o
Ġover come
ĠPh oto
Su ite
Ġa mazing
33 3
ĠBar bara
"> &#
Ġc url
ĠWith in
ĠS pect
cons ider
Sh are
ĠCont ainer
Ass et
ĠStruct ure
nob r
ĠF ine
ĠEgypt ian
Pay load
m x
Ġav ailability
Ġext ensively
Ġanom al
Ġfeas ible
ĠK os
conf irmed
ĠArab ia
v skip
table s
18 86
ĠDet erm
Ġra ising
umin ate
erm ont
In line
sw ap
S en
ĠC atalog
Ġev olved
Ġchar ter
std lib
C over
ecess ary
Ġul tr
: -
Ġr hs
T own
Ġ' $
Ġ"- //
Ġaff ine
s creens
B G
re ck
om y
ĠMag ic
loc als
Ġh orses
Ġpaint ers
al ter
Ġreg istry
S ym
Ġun likely
TE S
ĠM ach
Ġassum es
Ġbr ick
et ics
Ġto w
ĠM other
Ġan ten
Gener ate
ĠG ot
H ex
Ġk inem
orient ed
Ġinfin ity
it ian
Ġmount ed
ĠW ing
ok a
ĠNorm an
re z
Ġel igible
E mb
os ph
F oundation
subs cription
reg ex
= (\
Add ed
Array s
he alth
ĠV ancouver
Ã Ł
CH AN
R M
F ROM
ĠAl aska
hes es
Ġclaim ing
R atio
Ġ ì
Ġlimit ing
ĠParamet er
Ġexhib its
Ġfarm ers
Mod al
m akers
Ġterm in
ffff ff
18 64
ĠTurn er
Ġem it
St e
av i
ley ball
ĠSt orm
13 2
Ġar ithmetic
ĠF lo
}| ^
@ {}
ne e
Ret ry
ur bed
ĠH us
Ġaltern ate
Ġa apt
co ordinate
Ġim plications
Ġline arly
Ġconstitution al
FT WARE
Ġmon ument
Ġguid ance
ess ment
. ');
Ġf oss
Ġup coming
ĠSal v
Ġdeterm inistic
Ġdeep ly
ĠFl ore
A ud
Ġrh yth
ot ton
ab br
ĠI van
Ġbe ach
C a
Ġlo ops
Dis abled
G raphics
Ġcos mic
Ġcolle agues
ĠM I
ĠR AF
Ġmed ieval
Ġrespond ed
P ages
ĠR aw
ĠPr imary
re verse
R outer
ĠD I
ier ra
Ġserious ly
. ).
Ġdec oder
Def ined
omet er
ĠPort land
Ġposs ession
Ġd ub
ĠL E
ĠCarl os
Ġconven ience
ĠEn cycl
ĠW H
S yn
m issions
Ġjud gment
Ġcomp ound
il o
ĠSu ccess
}) -
ierarch ical
T ARGET
ant ine
to Equal
W ell
size of
ipp et
ĠNot ice
leg end
}. \
Ġcor related
Ġp ump
Ġre actions
bour g
Ġt ension
ĠR ace
ĠOr ange
di ag
ĠColl ins
Ġvalid ity
uss ia
Ġmon arch
Ġbl ind
LE V
ir s
Ġp s
Ġinter vention
be at
ĠBr and
ĠB asketball
ĠW a
& -
ĠE N
ĠO d
Ġcor ruption
ĠRich mond
" ])
ĠN GC
erv ation
Ġmathemat ics
ĠNev ada
ĠH AL
ĠCh ron
C ookie
13 1
Ġp ipe
Ġdis cret
= }
ĠH E
ĠF alls
ĠTh er
Big r
l ater
Ġgr am
C at
ĠS outheast
// ----------------------------------------------------------------
Ġ" ./
ĠĠĠĠĠĠĠĠ čĊ
Ð¾ ÑĢ
ut o
Ġrepeated ly
ĠO cc
hen g
ik o
Ġco in
ĠSh a
Ġtro uble
ĠR oom
Ġscal ed
k ern
Ġshe ar
F oo
Ġsent enced
Ġsequ el
keep er
Cred entials
Ġl ens
. (\
ĠE li
Ġde als
Pro c
ĠChristian ity
Ġm ic
13 3
Ġterr itories
18 00
Ġvis its
Ġcontr ary
Ġout break
Ġle x
Ġhead ing
i u
n ear
ĠL A
Ġex clude
Ġcontinu ity
ĠR ick
x path
, </
Ġpat ent
Ġaccomp any
do es
Ġmod ifications
ĠCub a
ush ing
Ġw arr
id ency
ĠR ural
Ġdis pute
Ġf ictional
Ġcut ting
const ants
Ġiniti ated
rit ic
Ġs ectors
ac a
Ġcal ibration
ĠI an
Ġloc ale
text area
S pring
re ts
ur u
ced ure
A ff
Ġemphas is
Ġc ss
ch rome
Ref resh
Ġvess el
ĠG ET
ix on
Ġfe es
Ġ(! (
16 5
ult an
Ġcaref ul
ĠCl uster
ac ion
ĠĠĠĠĠĠĠ Ċ
u ke
ĠR O
Ġtrigger ed
g em
Ġlog o
uk a
ĠNAS A
Ġ( `
v g
Vis ibility
Ġlab our
ĠB row
m achine
c ook
ĠS now
AA AA
Ġsole ly
> ()</
ĠCon n
Ġpred icate
ot er
. },
Ġminim ize
Ġsp okes
ĠCon sequently
ĠAdd ed
B LOCK
Ġg ross
ĠL apl
Ġsac r
LO AT
Ġprom oting
Ġf ro
Ġph arm
Ġf irms
16 8
ĠM ans
ĠR oll
h yp
Reg ular
M ASK
14 3
Ġdat etime
Ġbusiness man
Dest ination
PA SS
pred ict
te ch
ĠClass ic
MS G
default s
eg u
Ġserv ers
PREF IX
ĠF un
Ġcon jecture
ĠStud ent
ĠSt yle
18 84
âĢĻ ,
ĠF ont
osp el
Ġdevelop er
ol ate
Î »
O s
K ing
ĠM ind
ĠA V
olog ically
Ġoptim ized
um ann
FUN CTION
ĠShe l
List s
ol ia
++ ++
Ġfl av
ĠArab ic
fr action
ĠD id
ĠPark er
h uman
ex clude
ĠV a
opt imal
Ġin cl
Ð¾Ð ¼
Ġsouth west
ĠO UT
R F
m is
Ġkw args
cel ona
ĠA x
Ġorgan isations
J ac
ĠSim ilar
uff le
ro d
ĠRober ts
ĠElement ary
Ġapprop ri
Ġ{ {\
Ġind igenous
Ġl ambda
( |
Thread ing
ĠT ournament
ĠSy ntax
Add itional
st ock
15 5
ĠF eb
ow ell
Ġloc ality
Ġelect oral
faster xml
ĠL ithuan
2 25
T ables
ator ial
Ġs ig
mention ed
× ª
bor ne
Ġpay ing
ĠT ib
ch itz
Ġanalys es
Ġup grade
Ġconflic ts
b ank
ĠG un
ov ich
Ġpl astic
B as
Ġap artment
ĠH orn
Ġre try
18 63
18 81
ĠT u
å ¼
sche me
Ġd rew
Ġprom ising
ĠP AR
Ġdebut ed
+ "
Ġphys ically
s leep
ele ss
ĠRepublic ans
qu arter
go al
r aska
ãģ ®
Ġb lob
ĠM ong
lock ed
Ġin fl
Ġz oom
ĠW arner
Sp anish
Ġperm utation
Abs olute
ĠT ool
s ender
ĠP in
Ġwe aring
s With
âĢĻ .
Ġwel come
Ġg all
d ump
Ġr ay
ĠAnn ual
Ġfinal s
Ġt um
chi at
E lem
Ġmot ivated
control s
M ot
Reg istration
IL L
Ġ$ [\
ĠHarr ison
qu o
remove Class
Ġcrick eters
if rame
ĠTest s
vious ly
' ):
L ou
------------ -
iv ities
inc inn
æ ł
Ġing red
ĠMean while
ten ess
ĠM s
Ñ Ħ
Ġdes ert
urs ive
fig s
Ġel astic
L ear
Ġback up
Ġatt ending
Ġshif ts
Ġcitiz en
ic it
m ill
L uc
Ġreflect s
Ġcaref ully
Ġchar ity
** *
Ġrel ies
p referred
Ch at
Ġcryst al
Ġphenomen a
ĠB ound
Rec ords
ĠR ank
I FI
Mod ules
ĠMu hammad
AUT H
asc ade
ĠDo es
Ġcarri es
W ar
ĠGre ater
Ġtherm od
=" ./
ĠCom ment
ch arts
Ġpul led
ĠDr ive
Ġearth qu
ĠM all
Ġp our
LE NGTH
Pr imitive
ĠMed it
User name
dest ination
Ġviol in
ave led
l ag
ro tt
ac co
Ġman ually
ĠStud ents
ĠC arm
Ġport s
Ġveloc ities
Ġg od
ĠTreat y
) }^
out line
ĠM ut
ID ENT
ĠGlas gow
Ġsup press
Ġar ises
h base
Ġw ake
ĠP il
Ġmoder ate
ĠAthlet ic
ĠN icol
Ġreported ly
C ritical
ut ors
con ver
d w
sat isf
ĠL ud
Ġ} .
MA IN
Ġven ue
UT C
SU B
ĠFI FA
S at
Ġâ ĨĴ
Ġgener ality
ĠCHE CK
Ġt orn
ro oms
iss a
equal ities
Ġg a
Ġqual ifying
ĠRequ ired
15 00
Ġplan ets
w ig
Link ed
Are Equal
Ġf antasy
Ġap ps
l iteral
Ġcontrad ict
Ġguarant ees
Ġgr ants
Ġke eps
ĠProfess ional
op ing
20 2
ret val
ord inary
Ġam pl
ren ew
Ġpro c
ION S
c ritical
ĠH RESULT
ĠTre as
ag greg
Ġdis appoint
tem perature
Ġrefer ring
18 82
99 9
ĠM icro
Ġcas ual
Ġexcit ation
Ġper ception
ĠV iol
Ġ[ -
")) );
ph ysical
S ink
B ob
ĠB urg
P s
ĠM ol
Ġnumer ically
NotFound Exception
ĠFac ulty
std err
ig gers
us ive
Event Args
m v
icult ural
ĠF oot
Ġagre ements
Ġl oyal
Ġf abric
dec oration
incinn ati
Ġany where
Ġsurv ival
Ġqu oted
ĠPl atform
im iter
L aw
ĠS aints
ĠC old
Ġsup plement
ĠJ e
Ġimag inary
Ġs el
ĠBe aut
Ġauthor ized
cho ice
grad ed
14 6
ĠF i
ph abet
] ^{
Ġben ch
Ġstream ing
Ġfil med
ĠSh ang
Ġachiev es
F RAME
13 7
Ġinflu ences
per mission
ĠFor um
quir y
Ex cel
ĠR T
() ]
F ake
}} }$
ĠIm ages
Us ed
Ġpe ers
Ġaccur ately
Ġt ape
im edia
ĠB ron
Ġor ange
bad ge
ĠDev elop
om es
Ġg lyph
ĠLin ux
N OS
y ellow
te enth
ĠYork shire
Ð° Ð»
Ġderiv ation
ĠFle et
Ġobserv ables
, ~
t u
18 62
Ġsurv iving
Ġquot ient
Be havior
ĠColomb ia
Back up
am pton
Ġrest oration
ĠB og
** :
}) _{
it r
Ġafter wards
Ġdec ode
Ġprelim inary
& $
ĠV ic
R IGHT
Ġentang lement
Ġt ill
ĠPr adesh
ĠSw itch
ad apt
30 4
* >
SD L
000 1
go og
o ft
or ia
ĠR u
H idden
pre vent
Ġswim ming
Ġsuper conduct
Ġgovern ed
Ġsuff ices
ĠP ic
ĠN an
ĠP ast
B s
ĠS SL
ia o
st ad
p ine
U Int
L ONG
ĠJ ama
ĠTh row
g ap
ig uous
Ġre cre
im plementation
Ġact ed
Ġ( {
ri el
ĠR ing
Ġh istogram
Ġpeak ed
á º
Ġo xygen
Ġhon our
Ġneighbor ing
Ġinc idents
ĠF ixed
ĠĠĠĠĠĠĠĠĠĠĠĠĠĠĠĠĠĠĠĠĠĠĠĠĠĠĠĠĠĠĠĠ ĠĠĠĠĠĠĠĠĠĠĠĠ
mo ke
C alled
ster dam
tog ether
F our
ĠC raig
pos al
ãĥ ¼
ass et
Th reshold
ĠS ax
). }
R ay
ĠS even
Tw ig
F ast
ĠA WS
ĠF itz
ĠNov a
umb ent
ĠTrans itional
Ġdocument ed
Act or
Ġsold ier
ov iÄĩ
enn ial
Ġregular ization
PAR AM
G uid
ext ends
Ġparticip ating
tele phony
l it
ig ion
port let
ĠKe ith
Ġrout ine
ĠB aptist
cel and
ok u
Ġcap s
ĠInitial ized
Ġunder ground
G allery
ĠS ex
m icrosoft
Ġadv is
s outh
13 4
has OwnProperty
S ens
ĠL yn
Ġvar ied
Ġcon dem
', \
ĠRem ark
Ġrefuge es
---- ---
H F
Fil ename
he art
Author ization
st mt
Ġ" ")
ĠTrans action
Ġindic ator
Rece ive
Ġform ats
ĠEv ents
ou p
row th
Ġbr ig
ĠAt omic
ĠRec all
min imum
}} }{
ocr atic
Ġhealth care
Ġscient ist
ING S
Ġtrend s
Ġdiv ide
St ates
b et
****** /
ĠPier re
add EventListener
V A
ĠProt ocol
Ġel abor
Ġed iting
P K
Ġscript s
Ġgu ys
on aut
Ġl ingu
effect ive
Fr ag
ol s
ab olic
Ġsurv iv
ĠCamp aign
Exp and
Ġl os
ĠAnd re
Ġhapp ening
Ġrele g
e ing
ĠEn able
ĠSpr ings
b ie
miss ing
H ard
Ġg ift
Ġreprodu ce
pro j
S cheduler
Ch ina
date picker
Ġadmin ister
S ocial
Ġr ub
as ant
ĠC row
ĠF actory
ĠU SS
Ġtim ing
Ġf inger
ĠQu ant
Ġdram atic
ĠD ays
ĠA udio
ĠE ston
out ube
Ġfilter ed
Ġacqu ire
Ġnegot iations
pos able
Ġtang ent
å °
Ġo mitted
ĠH em
Ġcontinu ously
ĠSt orage
Ġindu ces
Part s
}_{ (
H orizontal
ew ise
Ġflow ers
Ġsuff er
ast rop
App ly
Ġelli ptic
ay er
ĠForm ula
Ġhosp itals
est ing
Ġphysic ian
ĠCal cul
Ġdiver gence
Ġlabor atory
M W
m icro
ap ps
Allow ed
w hel
Ġpro ton
}\ ;
b idden
ĠArch ives
ĠBer keley
ÐµÐ½ Ð¸
ĠP hoenix
Rout ing
/ #
u ator
Is rael
Ġhistor ians
r ub
Ġcount ing
C MD
u u
Ġp reference
Ġpass phrase
Ġpropos als
Ġdo ctors
Ġdo ors
ĠCol lections
ĠÐ ·
amer as
." ;
ĠS ymfony
ĠP od
m ot
un is
ĠA y
oc c
ĠChar lotte
P eter
over y
Ġcomple tes
Ġcard inal
Ġc amps
ĠâĢ ł
em ies
ĠH unt
18 75
Ġeng agement
ä¸ Ģ
Meta Data
[ <
ield s
ĠSt even
S heet
ĠM ix
ĠJeff erson
//////////////////////////////// ////////////////////////////////
g om
im ony
ord ination
ĠĠĠĠĠĠĠĠĠĠĠĠĠĠĠĠĠĠĠĠĠĠĠĠĠĠĠĠĠĠĠĠ ĠĠĠĠĠĠĠĠĠĠ
Ġknow ing
ĠSerb ia
ĠAl bum
ĠL ess
Ġcampaign s
G AN
---- -
Ġent hus
uc le
ancell or
Ġdist urb
> ');
r ac
ĠS id
N ING
Ġview ers
Ġgather ed
ĠLiter ature
ĠT alk
ĠTra il
the y
i per
en h
G ateway
pre view
Dec ode
S in
s amp
15 2
DE LETE
ĠHun ter
Ġtown ship
il ateral
Ġc ust
ĠF BI
Ġsqu ares
Ġin tern
ir able
f ollow
ĠJ erry
ĠMar vel
script scriptstyle
Write Line
BUIL D
j ud
ĠU SE
ĠDer by
c am
ĠSte el
D imension
G s
ĠJ oint
veloc ity
l v
Ġ utils
ache l
Ġb es
Ġdispl acement
ĠC lay
Ġfail ing
S B
sub str
ĠDen ver
ĠArch itecture
ĠAlex and
ĠAthlet ics
Ġsurre nder
Ġ Ø§
Ġinsp iration
ach i
ĠCh rome
Ġpotential s
Ġf atal
ĠAct or
or acle
Ġan not
G re
Ġspecial ized
CL U
In her
Ġp arsing
E ar
Ġcall er
}= (
p el
Ġc rypt
ĠGener ate
Not ice
ĠV lad
od al
ERT Y
ĠInst all
v r
Ġon click
raz y
pe er
ĠBuff alo
top rule
Ġformul as
\\\\\\\\\\\\\\\\\\\\\\\\\\\\\\\\ \\\\\\\\\\\\\\\\\\\\\\\\\\\\\\\\
ĠAlber ta
p q
Ġdig it
ĠD epend
ĠCh o
Ġvir us
ĠCl in
og s
Ġe ighth
Ġrel ay
ĠF ly
ra is
short cut
vent ory
Ġbos on
f hir
æĺ ¯
Ġr m
Se ason
18 83
Ġcross ed
Ġess ay
; ]
f olk
Ġj ournals
Ġstr ange
ĠVin cent
Ġe at
lin ing
Ġdemonstr ates
Ġt ough
c yc
m ade
Ġwav ef
CD ATA
Ġarchitect ural
Type Name
Rich ard
/ $
ch annels
sh ots
ĠGr an
Ġ/ ></
Ġse q
Ġasympt ot
ol en
but tons
ab ases
ĠL ate
ac iÃ³n
18 76
ĠU g
Ġcomp atibility
ĠN ar
Ġfin itely
Ġc ul
ĠR angers
ack ed
Ġbelief s
z ym
AS C
Ġmunicipal ities
O rient
Ġcomple ting
ĠGu inea
im o
iline ar
n r
ĠTig ers
Ġc fg
Ġintegr als
Ġg host
[ [
Ġp tr
Ġt ub
ĠB H
aj a
ĠMunic ipality
M argin
Ġcloud s
S pr
Fig ures
Ġst y
end um
Ġreview ed
ĠV AR
ah l
Ġfl avor
ĠMil an
ra ise
ĠF L
ĠSong s
Ġ) {
Ġportr ait
18 78
e ctions
ĠN ormal
Request s
ĠInter face
O RE
Ġdis aster
ĠT ol
ĠY ugosl
D a
Ġsearch ing
int egr
FLA GS
ĠF if
Dem ographics
Ġlocal ization
Ġpo ems
Ġdep ression
Any Ref
Ġtr aveled
ĠB omb
Ġexped ition
File System
at z
for ge
(" -
)} _{\
Ġpoint ing
Ġsimpl ified
ep he
ĠOl iver
Ġrep o
Un able
Over lay
ĠKen ya
Ġb orrow
Ġg ains
un its
RO W
ĠS occer
Ġs ick
ĠCont em
cal c
I EEE
ĠE val
âĶ Ģ
ĠP aper
Ġdot ted
Ġde emed
ĠMedit erranean
Ġm os
Ġleg s
` :
m ers
if ted
Cal cul
Fr ank
Ġsl ide
Ġ\ #
ĠC WE
ĠIn n
Ġformal ism
MA KE
<? >
Ġreason ing
op enc
umul ative
ĠC el
ĠG C
ĠC hel
lim ited
is ch
ag les
ĠCon structor
ĠC ov
Ġtrad itions
M ov
ad just
Ġsol it
ĠCon struction
get Text
M or
Ġfru str
Ġmain stream
Ġhighlight ed
ci pl
Con figure
Ġb le
Ġele ven
poly mer
N U
Ġg ates
Ġpre mi
ĠM ason
Ġm arch
ric ulum
ĠP ent
n io
Ġorig ins
TO OL
car bon
tri ang
Ġprofession als
ĠM es
Ġcivil ian
ĠS ample
15 7
ĠArch ive
f air
re ply
sl f
ĠSt re
Ġor chestra
ĠPar ish
ĠSy rian
it ual
LEV EL
Ġv it
Ġmar ry
Ġneglig ible
ĠEn try
Ġoccas ions
ĠR acing
; ;
Ġz ip
ĠInd ustrial
Ġevery where
Ġpop ulated
t ick
Ġent ers
is b
be ing
compar ison
Ġassert ion
ig g
Ġglob ally
ĠPer u
il ia
ag ar
Ġproof s
Ġmin isters
Ġescap ed
f ive
ĠF am
ĠE uler
Ġh ub
Ġparliament ary
He ap
Ġdon ated
ĠR elease
Ġexam ined
Ġ' </
Ġsp ark
Th an
ro c
Ġb oot
analy tics
Ġr um
Sign al
Ä Ļ
ĠBelg ian
Ġ ÑĤ
ra h
ĠSO FTWARE
Ġfacilit ate
PI O
C AC
ĠSym phony
Ġsubstant ially
ĠG round
Ġspe akers
Ġarrang ements
g ls
ĠO blast
ious ly
LI B
al is
Ġabs ent
ta wa
Ġdeep er
Ġthreat s
field set
ina e
Ġcyc lic
Ġimplement ing
ĠArt ist
ĠL arry
enc il
ym p
Ġthe at
Ġc avity
Ġcomp ress
Ġgr an
Ġmed als
Ġdefe ating
20 3
ĠSh adow
Ġin equalities
ĠAp pro
' =
G UI
ĠB rowser
urs ing
B ot
ĠH udson
Ġsustain able
Rece iver
Ġinter faces
Ġmill is
to kens
ĠFr ances
ĠSch olar
Ġcomm une
M X
Ġact ively
ĠTog ether
os hi
Draw able
ĠEconom ics
Ġs overe
Vert ical
Ġspons or
> /
Ġwood en
">( </
Ġfrag ments
Ġn eck
ĠM asters
ĠTh or
conf irm
ips chitz
ri ble
Ġs ad
Ġw edding
Equal To
Ġful fill
' )\
ĠO il
Ġagre es
Ġc inema
Ġc ookie
S printf
Ġeconom ics
vis ual
Ġpe oples
Perm issions
ĠKir k
Ñģ Ðº
ens en
ĠPro duction
F at
center line
Ġ/** <
M AR
18 67
b ibli
N EL
ĠAb u
ĠG W
ĠRob in
Ġmod ular
ag i
ĠE ug
ik es
act ed
Ġlast ed
in ery
is Array
ple d
13 9
abs olute
e ur
IT H
ĠAz ure
V K
comm ands
LIN K
ĠJ en
\, .
Ġsummar ized
ĠA B
orient ation
est imate
AME TER
ĠI da
> ';
Te chn
Ġan notations
ĠT E
Def ine
D eb
D MA
ri er
Ġ( );
Ġ\\ [
cur r
Ġ. /
18 71
ĠF ab
Ġaf ternoon
Ġop ponents
Or g
Ġuniqu ely
v v
Ġpre dominant
ĠB ot
ĠB ir
Char les
ĠS erv
H ide
Ġchem istry
ĠB rew
{ [
ĠCh ap
F ri
ick en
Tag Name
) )$.
Ġperfect ly
Pred icate
ĠPol itics
Co ord
ett i
Le ague
up les
ĠLead er
i q
Ġint ense
amp ing
G overnment
w ire
valid ator
ent ine
Ġg raphics
Ġoverse as
d h
Ġmeaning ful
Ġ' ../
: **
Ġp arks
="# ">
ĠB orn
Ġtw in
Ġh opes
scal ar
Ġimpress ive
CON NECT
ĠCo al
ĠC ell
ĠLabor atory
im eter
ist ani
Ġpark ing
Ġpo ets
Ġ ../
Ġar ising
Ġin struct
ĠVenezuel a
l c
job s
set length
Ġcomput ers
Ġaccept ance
Ġl ots
Ġcous in
R eq
P ACK
Ġ il
he ets
ĠBar celona
æ ī
ĠM enu
Pr iv
ĠDis play
Ġelev ation
Ġprogress ive
Ġsynt hesis
}( -
Pres ident
ĠHe brew
Ġorient ed
Ġconj unction
' "
f ers
ĠS ay
Ġg ard
Ġt ou
Ġwind s
C AP
av an
Al tern
C op
ut ton
CON ST
20 4
Ġhold er
ing e
)} =
ĠPref ecture
E u
( ",
13 8
] >
K EN
Ġcomment ed
' }$
}, {\
V T
Typ ed
l ies
Ġcl othing
Ġlock ed
Ġhe ating
PL ICATION
Ġfest ivals
col ors
bal ance
ĠW i
cknow ledge
ond a
Ġd jango
amp a
get Key
ĠU TC
ser ts
ĠComple x
; -
W el
] *
}} +
ĠC IA
eg ral
Å Ļ
å º
ĠE sp
ĠB our
Ġcons olid
Ġb anned
Ġtr aces
Ġ' {
Ġto x
bal ena
ĠNeb raska
r df
ĠC ant
am ination
Vari ables
Ġdismiss ed
r ace
Ġinterpol ation
ĠS z
Ġcomp anion
Ġm as
DI RECT
ack ets
Ap is
Ġop ponent
Ġoccur ring
Ġport ions
sy ntax
ĠL loyd
sl ot
g ements
op al
ĠJ a
CO PY
ĠOver all
Un mar
Ġw elfare
Ġ Ã©
SU PP
Ġsurve ys
Ġmode led
Ġsup ern
ĠFinn ish
ĠAnt ar
u cc
ĠB R
Ġkey word
LE N
ar an
ĠB lood
Ch oice
L F
a ho
Ġan onymous
ĠValid ate
Br anch
ĠTro phy
ĠS eb
Ġf led
Ġv ital
Ġthick ness
get Property
Ġ ib
Att empt
Ch inese
ĠCan al
AC CE
C odes
St d
In s
Ph aser
Ġrecommend ations
F K
ĠNot es
S ir
() `
ĠTem plate
ĠBr istol
T ake
Ġst ere
und erset
Ġback ward
}\ }$
bound ary
miss ible
ij k
×Ļ ×
b ird
s olution
A W
ĠB enn
P N
ĠIn s
gu ard
Ġlo ader
ad os
H I
Ġj ets
Ġvan ishing
t cp
ose x
ĠFil ip
Ġaccept able
ĠTr igger
ĠLeg end
ĠS creen
ĠK ap
ĠP le
av atar
Ġsec ured
She ll
Ġflo od
Â ½
INST ANCE
ĠNichol as
akes pe
Ġaccount ing
ĠRepresent ative
Ġexcit ing
ĠAd miral
ĠMad ison
Ġband width
Ġplan es
Ġcancell ationToken
STAT IC
ĠH ann
ĠTechn ical
ac l
Al umni
ĠR ou
comp iled
H ot
ĠC M
Con struct
vers ions
mem Item
Ġattract ive
Ġb ag
ĠTr inity
bit coin
Ġl ad
ex press
Ġadapt ive
ĠIn it
18 68
CON F
NE W
ĠM B
Ġintrodu ces
ĠB S
Ġbas ically
Ġin jection
Ġmanufact urer
Ġfraction al
v t
ins ky
Ġchampionship s
Ġgrad uating
Res earch
vel t
ĠS K
ri en
Ġo c
ĠT erry
t ake
in ions
read cr
=" //
d imension
m g
he ld
ĠF loat
G F
H H
18 77
ĠIraq i
Ġfilter ing
cred ited
Ġsh ore
ject ive
Ġvulner able
i am
Ã§ Ã£o
Ġportr ayed
Al bums
Inst ances
ate ful
ast ore
Ġhom ot
sh iv
man aged
ĠV as
ĠD ATA
sc ience
Ġannounce ment
ĠA zerbai
iev e
sup p
ĠSaf ety
DE VICE
Âł Âł
coc os
J ul
Ġnot iced
Ġdepart ments
ĠM ET
Ġsup pressed
Ġam ateur
br acket
ovak ia
ST RE
define Property
Ġinnov ative
ĠM aced
Ġint u
r adi
Ġnom inations
Ġart illery
* .
im ize
ent e
ĠA UT
big gr
Ġl ying
Prot otype
Ġterror ist
ĠAnt i
ev t
Ġreconstruct ed
Ġpers u
ĠVictor ian
Elements By
em in
ĠIn stance
it ol
26 0
form al
on omic
15 1
ĉĉĉĉĉ Ċ
access or
Ġt one
ist ency
ĠCost a
ph oto
ĠCom merce
C ert
Ġv e
Ġcelebr ate
}^{ (\
ĠFri ends
c atalog
uck er
roll ers
Ġ} ));
App Compat
Ġyoung est
B ag
Ġco hom
ĠCo hen
serial ize
Ġten ure
Ġpreced ing
re ject
ĠH ob
Ġtravel ing
E mitter
C atalog
Ġcon current
conv ex
Ġelimin ate
Ġ{ })
Ġim per
Ġinter sect
ĠP erry
View s
Ġthought s
ep h
prot ect
Ġg enu
Ġfeel ings
Ġnom ine
Ġhash Code
Ġas ide
Ġproceed ings
iv ot
om ed
(" <
14 1
K ar
ĠF isher
ak ov
Oper and
az i
ĠWrest ling
war z
ep ing
ĠÐ ¼
ĠI MP
Ġsymmet ries
Ġdec ides
Ġhyper bolic
Ind icator
U TE
et ta
n orth
amer on
Ġhol iday
ac ies
ĠL is
ĠV ert
equ e
Ġin set
NAME SPACE
Ġre vision
Ġintegr ity
ĠJ oy
z ier
00 3
Ġstop ping
Ġinteract ing
ĠSet tings
Input s
ĠI SO
14 9
y aml
ol ition
ex ist
hem atic
Ġdiff ers
ance led
ĠDr agon
Ġg rap
Ġmem or
40 1
18 79
ĠCl are
xim ity
50 1
Un ion
tab End
ĠEth iop
ĠSt evens
ĠRe yn
Dispatch er
ĠB ond
inter action
Ġco ffee
Ġcancell ation
M ont
DO CK
TO DO
En code
ĠDr ag
Ġtreat y
Ġs aving
ĠC oul
Ġdel iber
Ġ\, ,
as ia
en ium
Get String
Debug ger
Im mutable
Co ins
Ġco aching
TE GER
Ġback end
Ġconver ge
it us
Ġgu ests
Comm ands
Ġobject ives
é ĩ
fail ure
ĠPr im
Ġsuperv ised
th y
osex ual
> )</
ĠC ategory
ĠA str
Suppress Warnings
ĠT F
Ġdeg ener
iv ariate
Ġengine ers
Ġc s
ĠW alt
og ical
Ġmer chant
Ġste ep
power ed
Ġrem arks
ĠBer g
Com pute
ĠN ear
st ellar
J s
Ġvot er
al tern
TEXT URE
Ġretriev ed
break ing
Sw ift
, [
Ġgr ain
em a
S IGN
act ing
capt ure
i ology
Ġcom ics
ĠH amb
big skip
n pm
Ass ignment
Ġinvestig ations
se ek
font s
2 11
Cl aim
^{ [
akespe are
In clude
Ġscholar ship
F ilters
st own
Ġf d
itud inal
Ġbr ands
ĠAg reement
ĠG rey
å Į
Person nel
Ġch ron
Ġgeodes ic
Ġbirth day
p romise
Ġmin istry
ĠG as
ĠGP U
ĠS ad
Ġscreen ing
Ġg al
i ating
TR A
Ġimprov es
Ġt iny
ç ½
Comple x
h skip
Ġimag ine
Leg acy
ĠH ave
at che
ĠA pi
enc oder
18 72
16 6
Ġhon ors
CC CC
rele ased
) ~\
ple ctic
Ġtr ump
ar ations
tem plates
3 30
com press
U r
Ġbound ing
ĠIP v
M el
ĠEd ge
window s
ĠVal ues
Ġun w
ĠScient ific
ĠL ost
Ġreserv oir
. ]
s napshot
bar s
big gl
ring tone
ĠTerr itory
ĠB arr
ĠE mber
Ġident ities
Ġconstant ly
Ġtem plates
ĠH IV
Ġb eta
b an
Un its
f ee
AR B
Ġt issue
ot ypes
ĠO THER
ĠRog ers
18 74
bin ing
ew ay
P rior
bottom rule
Ġexplos ion
ĠQu arter
Collect or
un ning
ĠN HL
Ġsens ors
b urst
Ġshop ping
Ġ( <
' -
Ã¡ s
v n
Ġconc aten
Ġmonth ly
B razil
ENT S
th reshold
18 66
V IEW
ADD R
Ġt ons
Ġev ac
cess ion
ĠUn fortunately
= {\
Per formance
Ġport folio
Cent ral
Ġep id
ĠJ ess
Ġbus y
Log ging
Ġoscill ations
ĠM yst
ĠO scar
v ectors
Ġr ings
d ue
ct l
Ġorgan ised
Ġwarn ings
ĠIn nov
Ġs ax
Ġachiev ing
ĠÃ Ĺ
Ġ rib
Ġcab inet
ĠN A
ose velt
ĠE le
ĠGuard ian
" +
ĠLore ntz
ĠL ions
Ġbr idges
Ġs le
Ġover whel
ad ers
ĠP arent
ari ans
Ġspons ored
Ġgen es
ag ation
ĠI o
U G
ĠĠĠĠ ĉ
Rel ation
ĠLu ke
ic z
Ġread ily
ĠD raft
ĠGon z
K K
Ġtr ap
ĠGi ants
ĠK ol
spec ified
pay ment
ĠStan ford
ĠGerm ans
Ġrestaur ants
ĠP aram
Ġcomput ations
Ġconf usion
× Ķ
Ġover head
Ġstat ue
ĠAnd r
UN K
p arsed
P ython
ĠCr icket
Ġ# #
Ġpl acement
ĠBay esian
Ġdoub les
w b
ad itional
ĠB ird
Tog gle
Fr ont
Ġlimit ation
ub a
Ġrev ised
[ _
inner HTML
Ġprote ins
Ġperson ally
ethe less
Ã ī
Ġ( âĢľ
ack er
Ġpre st
Jew ish
ĠP L
Cl ause
ĠDemocr at
ĠAt hens
ĠÐ ±
å į
---- --
}$ ).
Ġpl acing
ĠK i
Ġportr ay
Ġf ighter
Ġjoint ly
ĠV el
W ho
A mb
C tx
Ġl ap
Ġadvant ages
ela ide
Des cribe
ertific ates
indu ced
ĠAdv anced
Ġinf ection
Ġim pose
oxy gen
\ }}
ĠHigh er
ĠDi agnostic
ĠContem porary
um i
Com b
inter faces
ĠMe V
Ġsw ap
ĠAr c
Ġres ort
log ical
Ġqual ify
r ain
Ġshall ow
> -
col ogy
Ġmuseum s
ĠG ay
ĠCurrent ly
ĠM ann
ĠB uch
Ġab elian
Ġbright ness
Ġrock s
om ething
ĠCru z
Ġs ock
Ġgr adients
ĠM uch
Ġ} $
lic es
14 8
ro at
ĠCom pute
EN TRY
s an
et e
ij i
Ġal i
Ġexception al
ĠIS BN
ENT ER
ĠCh and
Ġpremi ere
ĠHol land
ĠNO TE
Ġflex ible
Ġ( .
Ġassoci ations
n it
Ġim perial
numer ic
Dependency Injection
æĸ ĩ
l brace
ĠCol lect
DO WN
ĠS ep
Ġtr ick
Ġconcent rated
Ï ħ
o ard
su ite
Con clusion
Red irect
yst al
C lip
pot ential
V S
18 73
] _{
m other
ers ions
ĠMont ana
ĠBeng al
m el
ĠÂ ·
ĠI celand
ĠB right
TH E
c amp
18 40
Ġtrad ed
ĠL LC
> ("
S everal
x l
Ġ" (
Ġsimpl er
Ġb one
Ġg amma
ĠE D
get Default
at ra
Ġm k
Ġprint ing
R o
at im
): =\
Ġanal yst
quant um
ĠL en
P TED
NOS CRIPT
con j
Ġvari ability
Ġdef ending
Ġhand lers
Ġveter an
custom er
ĠC ad
atern al
Ġp index
Ġbehavi ors
ĠĠĠĠĠĠĠĠĠĠĠĠĠĠĠĠĠĠĠĠĠĠĠĠĠĠĠĠĠĠĠĠ ĠĠĠĠĠĠĠĠĠĠĠĠĠĠĠĠĠĠĠĠĠĠĠ
itor ial
oph one
ĠEd wards
ĠDE BUG
ĠCal led
ĠMunic ipal
)\ ,\
ĠH orse
ĠPro gress
over ed
ĠMon th
re nd
L ittle
ĠInd ependence
ĠN ames
Ġarg c
sw er
mes h
an imate
is se
Ġfl ush
Serial izable
14 2
r ically
ĠPro f
Ġtri be
? )
Ġprov ing
Head ing
Ð ¶
Ġ* _
mu x
Read Only
ĠC lean
ĠB orough
rele vant
Ġlocomot ives
=" <?
B attle
Ġ um
gener ation
Ġper pet
[ ],
oth ic
dev elopment
ä» ¶
/ %
ĠMay be
Ġcaus al
Ġatt itude
as ide
ĠGr ace
Ġj e
Th rows
Ġcert ified
N il
arri ors
ĠG arc
I BU
C Y
ash a
($ _
Ġa cknowledge
av g
Ġsettlement s
ĠPers ian
ĠSerb ian
Ġc f
Ġdemocr atic
ĠS or
rel ax
Î ¼
ĠExt ension
Ġdip ole
ĠW es
18 69
J ose
ĠAl ong
Ġtrans mitted
Ġvis itor
c ern
ex c
ĠL ion
F IN
Ġconsider ably
Ġmanufact urers
ĠC ob
Ġem p
ĠLeg al
] -->
Check er
F s
ĠT on
Ġad apter
h istor
ĠRoman ian
ĠField s
20 8
^ -$
Ġsingular ity
9 78
D ash
ore l
G LE
Ġs cre
g ender
Ġimport ed
ĠN AT
Ġ(! $
ĠLu is
T ITLE
Art ifact
ter rit
lef trightarrow
thread s
qu ark
Ġtrib es
'' '
f lix
T ON
Initial ize
Ġcop ied
om o
ĠStat istics
respect ively
Ġinn ings
ĠST AT
________ ________
Ġw ings
ĠBy z
) !
ap ing
22 4
hand ed
act ivate
ĠH aving
ec raft
Ind eed
Ġfore cast
ĠPr act
arri ers
ĠAm sterdam
Ġl t
Ġexam ination
3 75
ĠQ t
A CTION
Ġinter active
Ġvari eties
row se
T urn
Ġun e
Ġbut tons
Ġtempor arily
et erm
jb oss
Ð Ł
h ind
ĠL ux
ĉĉĉĉĉĉĉĉ ĉĉĉĉ
Ġshould n
Ġse eds
L ondon
Ġquant itative
Ġvolunte ers
Ġfr act
ack ing
Key word
11 11
Ġm i
Ġharm on
ex tr
f eld
lic al
pro port
L ie
s il
qu ire
Ġconnect s
ĠY ale
ĠCh ern
Ġadvent ure
Analy tics
Ġb ins
Sm ith
iz a
ĠY u
y arn
Ġliter ally
b age
S un
ĠR out
Ġl iv
Ġwat ched
per formance
itte es
UP DATE
ĠC incinnati
Ġf iscal
g mail
al one
ipher al
In cre
Ġpat rol
ent o
ĠPalest ine
ĠL ex
riter ion
15 8
ous ing
Rec ent
Ġc argo
ĠC atherine
L ev
d ro
Ġme at
var pi
Ġmurder ed
l ift
ism atch
Ġsus cept
Ar n
Ġbro ader
ĠBudd hist
Ġab ortion
Rep ly
Ġassist ed
BO O
uls ion
em e
ĠIn stit
ert on
G al
W ater
Ġper ceived
Ġre write
Ġdu o
H int
M id
Ġpar ity
Ġc ameras
copy right
lay ers
Ġpower ed
ev ille
Ġrefer enced
Ġsl aves
cell color
ors ion
fl ash
R en
n od
N s
ST EM
Rec ogn
Sup plier
di agram
Ġbi ography
Ġserial ized
ĠObserv able
Ġobserv ing
seud o
Ġinter cept
Ġhighlight s
m ak
Medal ists
Ġcon greg
ff ects
ĠMun ich
DE P
ul ous
con tract
Ġdeg rad
Ġaccept s
H a
re ports
Ġno isy
Ġbo ats
mys ql
ĠW u
string ify
Ġlaw suit
15 6
Im g
Ã¼ n
ĠAdd itional
Â »
met er
spir acy
ht bp
ĠS alt
Ġvent ure
ur istic
g gle
d ummy
Ġdual ity
Ġb oss
ĠGh ana
}$ ;
mon itor
Ġequ ity
am ation
ĠL IC
ĠB order
elect ron
v ik
OP EN
Academ ic
Ġposs ibilities
Ġs am
Ġdifferent ly
Event Handler
Ġimplement ations
ĠS Y
Is Null
Par cel
Ġadjust ed
. &
cur ve
os c
Ġdescri ptions
ge om
istrib uted
o ct
Ġprotocol s
ĠL ot
Ġvol can
Ġstri king
Christ ian
Icon Error
ĠS ah
ĠLeban on
$ --
std out
Ġun n
ever y
pert urb
ĠSV G
enc ia
s izing
2 32
Ġpl ugins
sec ure
con tribut
ĠPhilipp ine
ĠSh im
ot he
system s
Perm alink
C ss
'' .
Ġinternational ly
PO INT
\| _{\
Ġm anga
Ġall ies
Ø ³
Ġd w
Ġthe sis
ĠV eter
Ġab ort
Type Def
Ġenc rypted
is ible
uzz le
' })
Ġpo ison
Ġrot ating
ĠM ort
ĠS ox
yst yle
ĠC ancer
Ġoptim ize
Ġfast est
Ġobserv ational
ill ance
Con version
Ġb rows
ĠBroad casting
d type
ĠB eth
Ġswitch ing
Ġbroadcast ing
al am
ĠC u
min a
form ula
Ġcallback s
Ġrel ate
ĠS ER
acef ul
B and
eng u
Ġcur r
Ġdrink ing
Ġpers istent
W W
m agn
ce q
Ġsh a
ob e
* {-
Cl osed
Ġ )$
Ġens uring
om i
Ġmethod ology
Ġ- &
Ġcontext s
ĠMer c
T IM
Pers istent
Ġmod uli
ĠJ umped
Ġsum mit
Ġaver aging
ĠGener ic
ĠD ocker
display math
Ġhol omorphic
ĠSus an
ch rom
Ġj ail
exception s
ull ivan
Ġrat ings
Ġimpact s
ĠGal actic
Ġcond ens
ĠG len
Ġappro ached
ĠMur phy
B ill
ĠMe chan
Q UE
Ġqu arks
Ġf iring
Ġen emies
ĠCit iz
Ġgrand father
B ooks
Ġt ube
ĠS ans
Ġconcert s
Ġexpert ise
ov an
ĠCar r
ç ±
ĠSm art
15 3
ĠIN T
Ġun em
Ġdr ift
Ġunc le
}}\ ,
Ġcross es
ĠD ennis
ĠBut ton
N ever
s id
: /
18 48
}} -
ĠRes et
car ousel
Ġselect ing
Key board
d an
ĠO ri
Ext ended
gom ery
Q Name
r brace
\\ \
ĠBlo om
Ġstructure d
Ġsynt hes
vent ions
Ġconcent r
Ġp c
}] $
E conom
ple te
Ġlearn s
ĠG ra
che m
Ġentreprene ur
alt ies
abul ary
Ġdecre ased
Ġid s
ah an
ĠE M
au kee
28 0
Ġbank ing
Ġin variance
en os
el n
ĠCont roller
Ġbank rupt
; =
Ð½ Ð¸
ĠP ra
Ġs isters
Ġarg v
P ID
Ġsk etch
ĠS urre
Ġreg isters
Ġen compass
Int o
Ġneg lect
}}\ \
ĠFI LE
ĠM ul
Ġal liance
Ġphotograph er
æ į
Ġp t
aren cy
Ġtrib ute
Ġd ump
Ġelect romagnetic
ĠRead ing
uck land
H uman
+ -
IconError Encoded
Ġb ubble
ĠSud an
Ġcompos itions
F re
Ex change
Ġtransl ations
map per
By Name
eg en
n om
Ġun changed
fin ity
ĠSch w
Ġw ars
$ (\
ĠS TD
ur ated
bibli ograph
Ġsudden ly
Ġm eth
ĠK ay
Ġpart itions
Ġlog s
s ized
ĠL an
Ġh int
Ġro uting
c odes
ht b
ph on
ĠV ermont
Ġbon us
ĠS ony
ra ction
Ġinter fer
^ +\
s ymmetric
18 59
Ġz ones
Ġre fr
Ġsubsidi ary
elect ed
nap shots
Ġdep recated
ĠSh aw
ĠW onder
char set
MS earch
Ġal ien
act ics
ĠSocial ist
f oundation
Custom er
Ã± a
Ġtele phone
log ue
ar ms
ĠH O
Ġneighbour hood
Ġalleg ations
ĠB und
d id
ĠD NS
ĠAl ger
ĠTransport ation
}\ !
mark et
bibliograph ystyle
Ġen force
F LOAT
High light
ĠB ath
Ġdec imal
list en
Ġb onds
Ġdef erred
Ġe arning
ĠNe il
c aster
ĠSt uart
ĠY am
Ġreal m
p ure
th in
Th ird
st orm
N Y
od ic
W M
RET URN
Ġprepar ing
Ġhas n
Ġsp ell
ical s
Ġsquad ron
' (\
ĠT ang
Ġcol ony
Max imum
get Time
h int
Ġblock ed
Ġv ibr
ĠM ail
ĠPen insula
/ ******/
assert False
verb ose
N L
P ad
b uffers
ĠD elta
Ġorgan ic
Operation Exception
s aved
b uck
Ġin vert
ind a
Ġdist ant
Ġper cussion
Ġcounter part
ĠConserv ation
ĠR idge
Ġorig inated
Ġgu idelines
Ġsc iences
Ġax es
ĠCl aim
ĠFri end
Ġwealth y
ĠB ass
r ans
ĠValue Error
renew command
AT T
MA G
p ick
hel m
Ġdis ks
b usiness
h or
Ġaffili ated
A WS
B a
io let
M oths
um per
Con cept
Ġinfer red
// !
Default s
ĠM is
(" [
organ ization
Ġcompr ises
{ })
ĠR us
ĠHer bert
] ];
h m
col one
ĠB esides
ĠK rist
W P
ĠBut ler
Ġgraph ic
Ġartifact s
Ä ħ
ON LY
ĠDocument ation
al go
Ġprom ised
ular ity
Not ify
Ġ/ .
Ġ\| _{
M ad
ĠNash ville
v b
Ġdet ectors
Ġcharacter ization
r us
Ġm ild
ĠHel p
Ġnob le
nav Bar
Ġd type
id y
CK ET
-- ;
Ġscr atch
ĠTrans form
Rel ations
x ref
uch i
x ff
Ġillustr ates
ĠSh akespeare
Ġanom aly
) /\
ĠEncycl opedia
Sw ed
Ġmanifold s
IF Y
Ġ= &
ĠAr gs
Ġocc urrence
15 4
Ġradi i
Afr ican
T our
p ow
ĠSt ories
Ġen abling
Ġl ights
Ġob sc
ph ot
Ġsem antics
iv odes
Rev ision
set Value
^^ ^^
Ġbre ast
Ġlie utenant
Ġun ions
wall paper
F all
Ġa xi
Ġrecogn ised
or bit
J ud
Ġcult ures
Ġmain tains
ĠR ole
Ġ ^{\
Ġcommun icate
ĠPro blem
ĠE T
Ġs ake
18 30
sl ashed
th lete
hen e
ĠRo osevelt
Ġgr ave
Ġ$ ("#
Ġown s
Ġpat ches
ĠD etails
Ġrig id
contain ers
ed ges
Cre ation
C riteria
R ock
Ġh ate
fin ish
Ġplay offs
s ock
Ġdecor ated
Ġr itual
M ex
Ġs hed
k ubernetes
Ġp ill
ĠS L
ĠS ent
ĠI con
( @"
Orient ation
pol ar
L if
i pt
ĠC urt
Hon ours
che l
Ġsum s
Ġincorpor ate
Ġen velope
Ġunc lear
Ġf illing
Ġsusp ension
å Ģ
ov al
Ġm amm
2 12
ĠCl imate
ter min
ĠT ru
ag ination
Ġdiscre p
ivodes hip
Ġch at
Observ able
ĠTib et
x f
resize box
2 64
b ur
Ġtrav ers
amb ers
F IL
OFF SET
FO RE
Ġre nd
IN LINE
ç Ľ
Loc ator
Ġ ].
in ced
Ġcollect ing
Att achment
s it
Qu estion
Ġrecommend ation
Un lock
ĠAb raham
Ġsub tract
Ġrad ar
moment um
territ ory
Mat ches
Ġferm ions
im en
ie u
Ġreg ulatory
ĠX ml
ĠCl iff
30 1
oc o
Ġup dating
b id
Ġadvoc ate
Ġstart up
S aint
}} +\
AP PLICATION
ĠAn im
Ġsp ots
Ġcelebr ation
ĠUE FA
Ġf ert
ĠC apt
Ġutil ized
ĠT ags
aver age
================================================================ ========
( <
ĠD ol
Ġarchitect ures
ens on
A ws
Iss ue
Ġarg ues
ĠR oot
OD Y
Ġop inions
ĠPl anning
H ung
+ |
ĠE SP
Ġwonder ful
aut hentication
M ur
Ġv anish
Cl one
Ġnucle i
transp arent
ester day
oc co
ĠCirc le
ent ric
Play ers
ĠB A
} `
str ategy
ĠA round
20 5
Ġsim ulate
R ad
Ð½ Ñĭ
Tok ens
Ġiter ate
ĠForm er
ĠP E
Ġdem olished
Ġbl ues
XML Schema
F un
g tr
cover age
Im plementation
------------ --
ç± »
B ank
ĠSet ting
ĠHis panic
Ġpsych ological
ĠIss ue
openc v
nt hetic
Spr ite
im an
Initial ized
ĠNep al
Tax a
C am
ir ts
to o
ĠOt tawa
ĠWat son
Ġsear ches
ĠV M
p ip
B AD
Represent ation
Sh ip
ber ger
Ġprov inces
dim en
w aukee
Ġconsider ations
Ġbal anced
p mb
av ier
Ġfl ights
Ġfail ures
Ġmart ial
Ġto ggle
und a
and box
Ġen orm
Ġg ent
Ġvari ational
Ġt anks
Res olution
Ġpreserv ing
Å Ľ
ex plicit
18 57
K L
ol lo
ĠAng lo
* (
Z end
Ġvirt ually
ĠC OP
La unch
Gr and
ĠThe od
der iv
sc opy
M u
S ender
22 2
MP TY
Ġrecurs ive
Ġs ang
e eq
D AT
mid t
Ġrel ativistic
Ġll vm
Ġhuman ity
document ation
Ġmake up
NR AS
algorithm ic
WARN ING
we ights
sche dule
Ġdistrib ute
Sample s
as se
ling ton
ĠColumb us
SE C
Ġed itions
Ð½ Ð¾
ĠHit ler
ĠP resent
ĠAd elaide
ĠMah ar
Ġconvolution al
> ";
t pl
ĠS TR
Ġre forms
Recip ients
d g
External Project
Ġexhib ited
Ġutil ize
ĠDel aware
Ġrender er
tensor flow
Ġcontroll ing
Ġaccompl ished
ĠLink ed
ĠT IM
Inv oke
Ġgr pc
') ).
Ġeval uating
Ġem otion
ann i
Ġs weet
Ġpat ron
! âĢĿ
ĠHer z
N F
æ ³
Disc ography
}, \\
Sub mit
å® ļ
Ġaccommod ate
Ġconduct ing
sh ops
el ing
Ġan ime
ĠGr ade
)( -
ĠVo ivodeship
Ġd Ã©
Ġabb rev
D ot
ĠArn old
[ ];
an che
ĠR ivers
Ġtour ism
if ice
ĠEl li
ĠTh ings
Z Z
Ġa qu
Ġrobust ness
ĠR ules
Ġtack le
C LO
T reat
Ġad option
andid ates
Ġtransform s
Ġsp iral
ĠCO M
ĠK un
play back
Ġs ugar
k le
... "
Ġspec ifying
Ġaud iences
w oman
ĠAs ync
ĠMar x
ex perimental
}} }{\
ern els
Ġc oding
Ġsign atures
Ġsc rap
Ind ia
] <
pers istence
ĠPro of
ac ements
Ġconv inced
Ġcl ot
Ġac res
open api
LA S
ACCE PTED
ĠR ect
Byte Array
ĠR alph
Ġto mb
ĠBro ther
ĠFl ag
pre tty
Ġconstruct ing
w so
Ġsub t
Ġscatter ed
flu ence
ĠCr iminal
Flor a
Ġcalcul ating
Newton soft
c ence
< >(
it atively
Il legal
colone qq
ĠL ocation
Ġrep ublic
Ġre called
Ġcompet itors
S ys
ĠS ultan
ĠP ick
Ġut ter
Arch ive
ĠM ove
ĠB inary
correspond ing
Ġneutr inos
C ut
ĠLay out
se g
16 7
ĠCOL SPAN
a uc
ĠD ialog
az ar
cu ador
ä ¿
od b
Ġship ping
Ġexplo it
x rightarrow
Ġiniti atives
ĠS ierra
ĠHe avy
ĠHel en
Ġdi agnostic
Ġcompar isons
x c
ĠM eta
ĠV k
Ġd ots
Ġcent res
IS H
Ġin cent
PRO TO
r ag
navBar Cell
ver ts
ĠLe o
W ords
"> Â
az ard
m art
Ġbe ating
Ġdef inite
ĠShang hai
) ',
Ġex terior
ĠModel s
ĠCh apel
on er
ĠJ ar
In c
ä¸ ª
Ġin complete
ĠL ar
We ak
r n
ĠF R
Ġemploy er
idel ity
Ġdiplom atic
ic ian
load s
ĠPeters burg
Rep o
\!\! \!\!
ĠBat man
Ġ ))
Def unct
oss ible
Ġob l
ĠV oice
Ġnucle us
Ġt body
Ġann ih
Ġad res
Ġastr onom
Ass oci
Ġt il
Ġ$ -$
sens itive
ĠLIC ENSE
}} _\
la unch
ORM AL
Ġsimple st
ena issance
b ol
be am
C lock
~~ ~
NUM BER
ĠCh i
o ons
Ġm ines
Ġmot ivation
ĠS oul
Ġb less
æ İ
rest ore
ourn aments
ind ed
Ġbuild s
Ð¾Ð ³
ĠAv iation
â ĪĴ
os ure
Ar row
Ġpredecess or
ĠC ox
ut a
Ġdirect ive
Ġtrad itionally
Ġ! (
m ess
hab ilit
ĠWrit ing
Ġen zym
harm onic
Ġland ed
Ind ices
Ġrot ational
aus ed
min or
ĠP ont
Fr ance
ĠCon v
qu ick
V oid
Ã µ
Ġal phabet
ĠSe an
l ists
å ĩ
Json Property
ĠP ub
Ġident ifies
Ġd ash
ib lings
Ġachiev ement
ĠL arge
Ġf ed
Ġfun eral
Ġ" --
A U
int ent
ĠSw ift
Ġdog s
ĠT oy
Ġdec oding
Am ong
Ġproceed s
Ġd f
GRO UP
Ġexha ust
min ster
Cap acity
Ġ nd
ĠF u
16 4
Ġf ur
Ġsub stance
Ġcut off
j ena
is p
Ġunder graduate
Ġdem o
Rep ublic
Ġbre ath
Ġsw itched
abil istic
g uid
) ?
I MAGE
17 6
ĠC V
Ġsh ots
ĠLiber ty
x t
Ġprogram mes
Ġsust ained
ĠAgr iculture
ĠH ugh
C NN
H ouse
y u
Ġaut onomous
position s
F ee
} ],
ĠPhilosoph y
get Data
Ġsoci eties
table block
Ġintegr ate
Ġexponential ly
ob ar
Ġco arse
ID s
ĠAn aly
Ġexec ut
im i
Ġany way
Ġsk ew
Ġjud icial
Ġen roll
look ing
M ale
leg iate
Ver b
und o
Ġsimpl ify
DB LP
0 10
I o
r p
Ġval ued
Ġparse Int
æ Ŀ
Ġc ave
Ġm oon
Trans l
g res
Ġr ated
ext ended
ide a
ĠCroat ia
n f
ĠB ear
get Logger
ond o
18 5
class path
im on
ec ca
ĠM ode
W ild
A IN
ĠAbb ey
am ic
utor ial
sp arse
Ġout door
prevent Default
ĠWeek ly
S dk
und ef
TH READ
Ġins ights
Ġinf antry
add itional
Ġcou p
erm ark
urch ase
Ġdown stream
ĠAgain st
Ġepoch s
U i
n ested
Ġlegisl ature
!! !!
(' ../
product s
ĠK il
Ġj u
at em
sp h
get Current
open ed
he ap
ĠWork ers
Ġbo ards
max imum
ĠG host
Austral ia
A ge
Ġc ry
ĠFr amework
Ga ussian
t abl
Ġb read
Ġtor us
ĠTr avel
ĠT ed
Ġsuperv ision
whe el
reed y
@{ }}
ĠW or
> ',
Start ing
ok ia
ĠM ig
Ġterror ism
ri o
Ġend points
IC K
Ġpair ing
Ġs f
Ġer ected
ĠFlore nce
ĠType Error
sh ore
= </
ĠS olar
zh ou
Ġult imate
FA I
ust ain
PAR AMETER
] _
ĠL iga
erg i
Ġt ours
ĠSh ared
P en
le arn
r age
ĠF ed
at um
Ġass ists
Spec ific
col s
Ġtw ist
Ġrecip ients
Ġc ow
k ip
ĠI M
up iter
Man ifest
Ġviol ations
n v
Ġm a
b ay
h orn
el o
ĠU lt
Ġpsych ology
NO WN
K O
Ġp ad
- }
g as
p ared
}] \
j ab
Ġconduct or
get ElementsBy
Ġref ere
% );
On line
Ġsol ver
Ġlight ing
) ~
arr ison
$ =
Ġdescend ants
Res olve
Com posite
Ġsee ks
enc oded
Ġir regular
}} ^{(
ov sky
Comp ilation
W F
Ġwrest ling
' </
00 4
ĠK in
Ġle ase
Ġinaug ural
Ġsoph istic
Ġ| ___
Ġvo ices
Ġb ay
y ang
request s
Z ip
Ġhistor ically
ent ities
ĠĠĠĠĠĠĠĠĠĠĠĠĠĠĠĠĠĠĠĠĠĠĠĠĠĠĠĠĠĠĠĠ ĠĠĠĠĠĠĠĠĠĠĠĠĠ
Ġman ages
stit u
Ġin hib
Ġcon ce
sk a
Instance Of
cos ystem
Ġadvert is
Ġcomp ounds
ace ut
Ġacknowled ged
ingu ished
it ious
ĠE agles
Ph ot
det ect
Ġ( +
ĠSet up
ĠN ak
P in
Ġad equate
man ifold
Ġâ Ĥ¬
M i
lic an
}) }\
ĠHar vey
Ġcre ator
h dr
Ġred und
ellig ent
Ġ$ -\
Ġfre ely
M ary
Ġactiv ated
O IN
Ġvic inity
Ġsla very
Ġrow span
Ġch apel
C le
Ġend emic
Ġpract ition
end ent
Ġped est
C ached
ator ies
Ġexpl oring
Reg ex
Ġwebs ites
Ġs id
Ġconnect ivity
ĠHar old
ĠSl oven
ĠSt ack
Ġab ilities
isb ane
ĠB aby
Ġ* **
Ġn it
Block Index
ĠAg ent
GEN ER
ĠP anel
Ġm im
ĠV ent
h art
h ibernate
Ent ities
Ġ( ((
ĠA f
ĠD yn
15 9
ĠHe ader
ĠChar acter
Ġcorrect ed
co ins
m un
] ));
et ype
sl ug
the se
pl ant
18 58
Ġto m
Ġcomp ressed
Ġre built
DOCK ED
Ġsp y
Ġnormal ize
ĠPhil lips
Ġm p
ĠAl lied
ars ity
Ġvol unt
s elling
Ġ )\
big oplus
-------- ---
Browser Detector
Ġm ilk
Ġn inth
æ ŀ
am med
ĠA uckland
ĠCon vers
Ġcontin uation
ĠLi u
u o
Ġa u
Ġarr iving
is Valid
Ġless ons
4 80
c ot
ĠI de
Ġaccess key
weight ed
Ġfoot age
Ġn inet
ĠCON FIG
P ac
st retch
col our
Ġsaf ely
Ġsub mission
Ġem itted
clos ing
Byte String
ĠD od
Ðµ Ð»
y t
ĠB P
df s
Ġwire less
Ġtrans ient
Ġsculpt ure
Ġtoler ance
Ġsomew here
Q R
v dash
Ġg aps
Number Of
ig m
Ġcont ested
Ġatmos pheric
Ġn m
[] )
Sim ilar
HEAD ER
n P
Ar c
represent ation
Ñ ī
plic a
cred entials
em p
e i
Ġprodu ctions
Ġmem ories
Ġb undles
pl ays
+ $
Ġsc oped
D ER
ĠRuntime Exception
Ġarr ives
ĠNor folk
cor relation
s ix
n at
}$ $
con tr
add on
Ġext inction
Ġwalk s
Ġor chestr
ĠA ber
Ġaffect ing
el ist
ĠĠĠĠĠĠĠĠĠĠĠĠĠĠ Ċ
Ġburn ing
en burg
Ġer g
Ġpro jections
Pl us
Te X
or um
ĠWell s
rot ation
W C
v iol
Spec ies
Ġl od
ĠLeon ard
Ġdisestabl ished
Ġc ad
ĠC ameron
ĠV K
ble ms
Ġmyst ery
Ġsett lers
g ro
Ġconsequ ently
Ġcon cludes
Ġsk i
18 54
ĠReyn olds
Ġinvest ments
ro us
erv es
ĠBob by
f ilm
g b
Ġs q
int egration
ast ed
ĠInter est
Off ice
FN GL
sp ired
IR T
ĠAir lines
4 000
ac ian
ĠH im
W T
Ġcurrent s
Ġcivil ians
Ġ( ).
Ġwarr ant
ĠK ind
rec v
Ġcoll apsed
Ġcoinc ide
i ab
Ġcor rel
Profess ional
& +
Ġthere after
n ick
Ġtour ing
M NRAS
k ill
Ġmetall icity
{ |\
int endo
Ġpreserv es
Ġsqu ared
Ġalleged ly
ack now
it ations
Ġmanufact ured
Ġst ick
ĠB ug
Ġany more
ĠBit coin
Throw able
oper ations
Ġbut ter
query Selector
S PI
Ġar rows
ĠArgent ine
Ġexceed s
ĠB ach
38 4
t odo
[ {\
ĠDis c
$ ^{\
v ance
Ġhard er
c ott
Ġwe aker
T OP
s ound
ĠConfeder ate
e er
Ġhand ed
AC CESS
ĠArch bishop
ĠLat ino
Ġt ale
ou x
class ical
h ydro
Ġconf used
A thlet
ĠN at
ĠWe yl
_{ (\
Ġreserv es
sup ports
Ġin ert
IS O
R eb
Ġpat ri
ĉ ĠĠĠĠĠĠĠĠĠĠĠĠĠĠĠ
ĠBulg aria
be it
OP ER
M icro
Ġb ull
}} )\
16 2
Block ly
ĠEr nest
ĠG olf
ark er
L ove
V IS
Ġd ummy
Ġl as
}$ ),
W D
m ixed
M ah
ĠN athan
Ġsec ular
ĠM orning
ocom plete
"> ,</
Neg ative
ĠK el
Ġdef ect
B ay
R oom
c url
ĠK id
Th m
Ġapproxim ated
Ġthr one
ĠG O
Ġdial ect
ĠB ald
Ġindex ed
o auth
ĠProtest ant
read able
Ġv ortex
Ġpro l
23 5
ps y
Ġquant ization
L ess
ĠJust in
IF T
ĠHug hes
Ġh yd
Ġad s
Ġevolution ary
H it
F inder
Ġa fore
Ġfif teen
Or d
r w
Ġ[ (
ĠB log
Ġconstit ute
Ġpun ishment
Ġcohom ology
he ll
Ġnull able
19 3
ĠPar al
Ġm ature
Ġ" ");
18 56
Ġ" :
Ġvolunte er
en i
RO P
Ġdi et
Cur ve
Ġearthqu ake
con sum
ĠA w
HAND LE
H op
ĠP H
L ex
Ġdev ast
ĠArmen ian
R P
Ġbatt les
ĠA F
Ġisot ropic
Ġsub graph
: @
E nergy
Ġjo ins
Ġel ite
c out
ĠIter ator
Ġcommand ed
Ġcoinc ides
z ens
Inv ocation
Ġh ang
g ement
ĠP ain
US Y
Fl at
F atal
z ig
). $$
Mix in
Ġattend ance
ĠS uz
cos ity
linked ExternalProject
p es
ĠR L
be havior
Map s
oc on
ĠCon tract
ĠGreg ory
Ġsh ops
Ġdraft ed
Ġbr illi
off icial
o il
uss els
S to
Ġl azy
h all
Ġdev iations
Ã© d
R pc
Na N
J im
Ġdeg enerate
s am
h ub
ol ine
v ation
ess el
ov y
sw ick
}$ :
Ġpal ace
ĠH at
ĠF P
â Ĩ
Ġ} (
Ġalter ed
CLI ENT
ĠWik ipedia
tr unc
type param
ĠEx cell
Ġobtain s
ĠPh ase
Ġbomb ing
20 6
get Context
Ġtalk ed
Ġdrum mer
Ġunsuccess ful
Ġprevent ed
Ġch ip
Ġmod elling
Linear Layout
mod ern
Ġform ulated
Ġcon vey
}} ;
de ploy
oca ust
with in
Ġbelong ed
Ġhun ting
Ġt uning
ĠG az
ph al
Scott ish
Ġreloc ated
ant astic
): =
ĠRE AD
Ġclean up
16 3
url s
ĠM ask
port folio
ĠS ask
h it
USE D
ĠFa ith
Link s
Ġcor rupt
linkedExternalProject Path
ĠR ele
}{ $
P reference
ĠSk ip
Ġexc av
ĠClar ke
Ġfor wards
r k
s uggest
por ate
Ġis set
Ġcharacter ize
ĠG ene
ern ess
Ch arts
Ġe u
A ust
Ġz eros
ĠL ov
ĠKe ep
Ġkey boards
Comp any
Aut hent
ĠD rop
ĠY uk
Ġfollow ers
Ġjust ify
igr ant
W ire
play ing
Ġaggreg ation
Ġspeak s
m q
ist le
C AL
Ġsurpr ised
ĠF IX
17 2
Mus ical
ĠArm ed
| }{\
Ġtrunc ated
^{ {\
ĠProdu ctions
ĠF iction
Ġout lined
Ġag enda
F ACE
Ġgr ab
Ġbi ology
PROP ERTY
um bs
O ps
Ġfall en
}\ )
former ly
al in
ib us
Ġwrit ings
âĶĢ âĶĢ
Ġmiss ile
Ġconjug ate
ĠFour th
}{ !
ĠIda ho
ans wer
Appe arance
ĠT as
Ġr iding
Ġle ak
Ġro ster
feed back
NA P
Ġabsor bed
Ġadj oint
=" {
un stable
-> {
Ġsus pected
Ġfaith ful
ĠSD K
18 55
ĠMont gomery
p oll
sub title
Ġlob by
us k
ĠR oche
ĠLa ura
ĠT ensor
hand lers
Ġcapt ion
Ġhar ass
ĠP el
Ġun lock
Ġdro ps
LE FT
Ġwork flow
ĠS ak
pr ises
ĠEp isode
Ġgold en
Ġt une
Ġchalleng ed
em ption
So ft
D im
he nd
Ġout flow
ĠS NR
ĠR uth
Ġsh rink
le ad
Ġanth rop
Ġgo og
Ðº Ð°
Ġshel ter
Ġpredominant ly
Ġdec k
G i
~ {\
Ġp it
Ġa ster
Ġh orn
b eq
Ġatt achment
Ġcyl ind
B tn
]{ ./
Rot ation
Ġhom omorphism
Util ities
ĠTh ir
A Y
print StackTrace
Ġferm ion
^ *}
p ent
ĠDe ut
Ge o
à ¹
Ġ\ :
Qu ote
MLE lement
urs es
ĠAmb assador
IC S
re b
\' {
im plicit
Ġcontact s
Ġrem n
ĠCred it
Ġb orough
ĠA aron
Ġdistinct ive
20 9
18 7
R D
F ort
Ġdeb ugging
Ġaccompany ing
c id
Call ing
ĠT odd
Ġpre t
per ience
ĠS yl
Ġa uction
screens aver
Ġp b
Ġce ased
ĠWall ace
Ġarbitr arily
Ä Ľ
As String
Ġin clusive
ĠD h
ond e
under brace
work ing
Start ed
Ġk ernels
Ġreal ization
Ġafore mentioned
ĠS oci
up grade
ĠSh op
Ġcy ber
ĠWork ing
gtr sim
M N
æľ ī
Ġblock ing
SE D
B on
ĠSing les
ref ox
ĠComp etition
ĠFil ms
ad j
B ODY
Ġco res
IT ER
g ulp
agon ist
Ġcol ored
prov ided
ĠDi ocese
period ic
ĠB ak
F X
ĠAn cient
ĠZ hang
ĠP rest
w yn
Ġveter ans
we ets
und ers
STRE AM
Aut om
ĠDirect ory
ĠR ey
Ġview ing
ploy ee
Ġcyl inder
Circ le
Ġ iv
Im plemented
Ġburn ed
Ġpoor ly
Ġins pection
ĠK ash
Ġcop per
Ġpre val
Ġintegr ating
Ġmem brane
ĠSo on
jav ase
f red
Ġsp ins
Ġwor ry
ĠK ate
H AL
styles heets
? }
ĠSt atic
n atural
Process ing
ĠLe eds
' }(
Ù Ĭ
List View
c nt
Ġcontain ers
ĠE ffect
block quote
ĠPer iod
Ġfight ers
dash board
Ġse aled
Publ ished
Ġcommut ative
g ue
Ġc rop
ing o
Un expected
ĠArch itect
Y P
rec ogn
sp ort
Opt im
}) :
BE GIN
ud o
ĠL IMIT
ĠSt ef
ĠSe pt
Ġlik ed
LOB AL
ĠE ld
ĠMed ic
Ġin variants
ĠP icture
Transform er
Ġc odec
eg al
Ġexp ense
Ġpack ets
Particip ant
ĠS EC
Ġregular ity
ĠM ills
ĠY ES
pend icular
em b
Ġlogarith mic
it les
Min imum
H EL
( %
ĠG ust
Null Exception
Ġapproxim ations
ĠL if
Ġat tractions
Ġch apters
t alk
um m
Ġlik es
C li
Ġqu bit
Ġl ux
Ġcor poration
ĠV ict
Ġcomment ary
Ġloc als
Ġdwar f
Ġo mit
Ġenhance ment
Ġd imin
Ġsh aped
Ġdis pers
ism iss
sp r
Tra its
ĠPat tern
)$ }
> =
Ġcompl aint
] /
Ġdiagn osis
Hel pers
ĠAzerbai jan
ĠComple te
Ġeg gs
ĠCart esian
Ġisol ation
ĠHel per
ST AR
ĠFr ame
ĠPerson al
) ";
requ ires
sur ance
in z
adem ark
Ġneur ons
Ġw ard
DE V
overn or
Ġmand atory
0 100
pect ives
Ġdec ent
ENABLE D
L ee
ke es
F lo
Ġg ear
Ġqu art
Http Request
Ġres ist
Ġcur riculum
ĠR at
ink s
Ġlat ency
ne z
iffer ential
ĠSp encer
Doc s
verb atim
5 50
ĠUS B
() "
cell s
Ġm u
ĠEnter prise
Ġst eal
Ġr ally
Bo ard
b os
Ġ ):
l uc
ess a
ha o
P ull
ĠG ate
Fin ished
Ġfarm ing
ĠG ang
"> {
ib lical
}) ^{\
ï ¿
rog ate
al ways
Ġpl ural
Ġdro ve
re ction
ĠL oss
sw ift
Pre view
FAI LED
Ġpro ximity
ĠG uild
track s
D u
Pro b
Ġset Up
sin h
-> ]
ĠArt illery
Ġform ations
we bs
Ġremember ed
ur as
ĠR osen
file Name
Ġ" {
ink ing
incre ment
Ġsuccess ive
ĠCont act
Ġd uplic
ĠN g
fold ing
ĠH av
Ġdr ives
ĠArch ived
Ġshut down
utr ition
V ote
Ġsong writer
di agonal
Ġcompr ising
ĠAuth ors
}} ^\
ĠC I
Ġdiscuss ing
Kn own
d ynamics
ad vant
Com bo
Ġ ions
Ġcitizens hip
|||| ||||
Ġfif ty
Ġch ronic
Ġtens ors
W rong
q w
Ġcapt ures
ĠTr ain
ĠGener ation
k el
ĠW E
ĠG ilbert
ish i
Ġreg ex
Ġlong itudinal
ron es
ass o
Ġadv ances
Ġnorm s
ĠM otion
lo ose
T s
ĠHar bor
ĠAssoci ate
W ashington
Ġd ol
ĠI v
Ġla ugh
Ġminim izing
en es
ĠY ellow
Ġtrib ut
16 1
Ġam endment
ing en
m otion
Ġexhib itions
Ġillustr ation
17 1
Ġnumer ic
Ġsynd rome
ĠDi amond
. #
S us
Ġplay off
1234 56
S a
Ġcomb inator
ach ers
Ġunder go
Ġin ev
Ġr ab
Ġaddress ing
ĠArt ists
R h
ĠS old
Ġgrad ed
ĠM OD
ĠE S
class v
sole te
ul ators
d ater
e igen
ig ue
CP U
ĠK or
Ġav iation
Ġpray er
G erm
ĠC ycl
ĠVen ice
b road
publ ish
Ġpron ounced
ser if
ĠR ice
Ġpl enty
C AN
Ġop am
76 8
lig a
L ER
Ã¶ n
' /
NO TE
ul ers
IN PUT
Ġhost ing
Ġdraw s
F ollow
w al
Ġr ape
)$ $
mod es
ĠRe ed
;& #
pr us
17 4
Ġdefend ers
! ");
Ġexec utor
Ã Ĺ
g overnment
Ġp ace
Ġsp ont
RE C
ĠP ush
Ġbackground s
28 8
Ġaff air
ĠS oph
in as
ĠStat ement
Ġcon tributes
}. $$
sc atter
st ead
rec ords
ent ropy
}} }}
Cred it
ĠCong o
Ġprefer ences
Ġaccording ly
Ġdoll ar
ĠIn iti
ĠN om
ĠHen ri
ĠM oney
Un ity
Can ada
Ġt oured
Ġe ating
ĠG alaxy
ĠDr iver
Ph ysical
ert y
Ġb ipart
Hen ry
ĠPh ysical
ĠPl ugin
- $\
() }
Ġrun ners
> *
ĠAn imation
Ġtr act
Ġcle ared
Ġdiv orce
Ġachiev ements
ĠSub s
Ġtr apped
Ġmed ic
Ġcounter parts
ĠBu ilt
all ing
(" ")]
ur bs
Ġsent iment
Ġback ed
Ġtick ets
ĠD rama
aw k
Ġrecru it
ĠN y
ĠR ever
S eed
ĠQu est
Ġsymbol ic
g lib
Ġim pression
Ġcorn ers
)) {
ff bb
on ing
ĠP av
View ById
] \\
UM N
With in
"> '
Ġem peror
resource GroupName
ĠN ancy
Ġset Timeout
ĠA SC
Ġsp acing
control led
Ġ è
Fl ush
P atch
R ivers
eg an
De ployment
vir t
ah u
pl aced
Ġequival ently
Ġsummar ize
lo ver
Ġtour ist
Dis able
azel cast
Ġ" </
ĠTh under
Ġbr ut
Ġcan n
Ġdo zen
Ġadd itive
sc apes
Ġdesign ation
Ġt ournaments
Ġeditor ial
b org
ĠC K
="../ ..
ĠS ang
Ġtest imony
ĠK ill
Grad ient
ĠNob el
ĠW R
ĠU nd
^{ *}
b ash
ĠA my
ĠIn cre
os opher
ä¸ į
ĠM az
Ġte lescope
) },\
pl ots
ĠĠĠĠĠĠĠĠĠĠĠĠĠĠĠĠĠĠĠĠĠĠĠĠĠĠĠĠĠĠĠĠ ĠĠĠĠĠĠĠĠĠĠĠĠĠĠ
anc ers
ro gen
ĠA G
Im p
root Scope
Ġprotect ing
17 9
ĠAdd s
SE CON
w l
Ġc attle
ĠEn sure
ĠEdd ie
U INT
min imal
Ġecc entric
Ġcol ours
Ġare na
] }\
w char
ress es
ĠMax well
design ated
Ġ$\ |\
s chool
get C
Ġinit With
), $
Ġb ootstrap
ĠT unis
Ġmulti plic
i ya
ĠW allet
ĠE ight
] "
Ġle agues
Ġed itors
Ġemphas ize
ä ¹
ĠChar ter
ĠN P
Ġbr acket
Ġver se
div ider
ĠMan uel
á ¹
å Ĩ
co res
Ġmet ropolitan
dat ab
ĠCh ang
ĠLine ar
acknow led
ĠR enaissance
al ong
parent s
Ġh i
Ġauthor ization
Ġtw isted
Ġb alls
Ch apter
Ġsequ ential
oper ating
ĠC raw
Ġfor ty
Ġpresent ing
ac ional
D ark
Ġlo ans
y outube
Ġexp enses
names e
Ġenter prise
' }),
if s
l ov
am y
ub ert
ĠN N
Ġprom ises
can onical
Ġcer emon
3 40
ac ular
Ġen rolled
^* ,
Ġun con
g ie
ĠCh a
Ġwalk ed
t ec
ĠP ART
Ġd uplicate
add y
Ex ist
Ġten ant
is cher
ĠL it
Ġbranch ing
dis c
dec om
ĠS eq
00 000
pro per
17 8
ĠAss umption
Ġdo ctrine
V k
Ġun set
m ob
Î º
EX CEPT
Ġinvestig ating
Ġmolec ule
j p
Ġfoss il
P AGE
ĠÐ½ Ð°
yl um
n or
Ġlegit imate
Ġplay wright
expand ed
At trib
Pr incipal
Ġbus es
Ġalt itude
Cre ator
A verage
Ġcont our
Numer ic
ĠJ in
I ts
l ar
ĠF E
Ġthink s
Ġf reed
ĠTest ament
ĠPlan et
c rypto
ĠBO OL
Le ave
Ag ain
Ġj ew
im ag
Ġbe er
Ġ' [
fr astructure
ĠFellow ship
At l
ĠT D
18 8
less ly
Ġfit ness
Ġverb ose
"> #
it ars
Click Listener
P a
Ġby pass
St udio
ĠBe ing
IR ST
c riteria
ex change
ĠW orth
-------- -
User Agent
Ġtra its
Ñ į
ene ath
ĠPrinc eton
ĠS ter
N ORMAL
Ġp ow
ff ield
18 2
ĠNap ole
ĠB av
Ġp ale
ia z
Ġsome how
Ġdisc ount
M ON
P OL
Alloc ator
ĠStr ateg
Ġsym plectic
ĠC ut
ĠG em
r ab
Ġw ond
publ isher
ros so
ĠB ened
Ġdiv isor
ĠDom ain
18 52
param ref
ĠEx ternal
Ġattack ing
ER Y
å ½
Ġfriend ship
ĠObserv atory
Ġmer ch
enti eth
Res ize
re ceived
ch air
Ġpo les
erm al
cap acity
ĠBr isbane
h ls
Ġslow er
IC AL
Ġprevent ing
alth ough
Ġneg lected
ok o
Man aged
auth ors
Con nected
n ell
unit Pattern
ĠDirect ors
Code Dom
Film ography
Ġcogn itive
Ġc emetery
j q
Ġhit ting
ĠPar ser
Ex pl
pl ating
Ġmulti plicity
ĠWars aw
Ġem igrants
Â ·
ĠNew castle
ass er
le ave
Ġper pendicular
ĠCom b
ĠO m
Ġthere in
unt u
Ġbel t
j dbc
ic us
ĠD MA
Ġflat ten
Ġattr action
Ġto ll
Ġh urt
Ġwe aken
ell ers
Ġmat hematic
ĠR C
Ġb ol
Content Type
ĠE state
l ived
Hand lers
Ġund ers
Ġle ver
Ġart work
open h
Mag ick
ĠH H
}) }{
gle w
umb ai
ĠÃ ģ
18 49
1 200
Ġthr iller
wik ipedia
Ġoper and
eloc ity
ĠC rit
ĠR F
Sm art
Jose ph
{ }\
id ays
= _
f ade
Ġsp anning
ed e
Ġb ishops
ab we
Ġs z
Ġsub urb
Ġvol atile
' ^
ĠG lass
Ġgrad es
ele t
Ġoff ense
U tility
ĠBrun swick
Ġth rew
Compar ator
ex e
Pro blem
Ġmeas urable
Ġgather ing
W ang
class ification
18 51
Ġmus cle
ĠD ise
constr aints
S pect
re try
ĠH MS
Ð¾Ð º
Ġ{ !
border ed
Ġ\ \\
R ew
Ġt et
ĠRay mond
m ile
se ver
? .
ĠAl t
br ains
m ong
Ġ] );
Ġpregn ant
ĠS Ã£o
Ġpl ates
17 7
tes y
Ġmod est
Ġpoll ution
Ġsp ir
Ġcrick eter
s ap
Ġinter change
Ġst olen
Ġtravel led
=' #
Americ a
Ġdat abases
ĠP T
SER VICE
f ollowing
Ġlink ing
Ġhonor ary
Ġreg imes
ĠNorth west
ĠVis it
Ġh ierarchical
ap prop
Tool bar
Ġcart oon
Ġdig its
Ġasymptot ically
eg ree
text style
Ġn aming
Col lege
Ġas ymmetry
}. $
Ġemp ire
c orner
Ġag gressive
Ġresearch er
Fat alf
P ak
Ġd inner
In stant
ÑĨ Ð¸
Ġor al
Ġhyp ers
Ġhomot opy
Ġsuggest ions
ĠGro ve
w ent
ï¿ ½
}; \
Ġt ent
Ġ< ![
Ġcal ibr
Ġnumber ed
Ġfactor ization
Ġc umulative
Ġr ays
Do es
heim er
ĠL amb
inherit Doc
=" '
sm ith
ams ung
Ġextra ordinary
] ^{\
ĠVlad imir
he size
Class ification
ĠOut standing
ĠJul ian
ĠX XX
fit ting
for rest
d istrict
ĠB io
ll a
Ġelev ated
ĠLay er
Ġor n
ĠHar per
| {\
EX P
ĠByz antine
H aving
../../ ../../
unc an
D istrict
Im plicit
Ġqual itative
ĠR ah
atern ion
Ġcust ody
ĠJo an
and le
Ġc am
ĠA ST
ath y
Ġtri angular
ĠG amb
A mazon
B g
Ġte a
ĠZ ero
Ġsup pression
Ġ' )
24 5
Ġpitch er
à ¦
Ġoutper forms
18 47
read only
". /
ĠDis covery
N ER
ob server
Ð¾ Ð½
in ar
ro e
Ġsever ely
ot yp
found er
ĠS ql
Ġenorm ous
i ast
LE AN
ĠTh ank
Callback s
ĠStr ong
\ .
, }
r ases
Ġsc andal
ĠPed ro
Ġf ires
Ġde ce
eb ook
Ġtrav els
back up
~~~~~~~~ ~~~~~~~~
Ġb is
ordin ator
bro ok
R X
P AC
^* (\
ik ing
C AR
ap on
Ġ{ (
Ð° ÑĢ
Ġrevolution ary
Ġhous ed
end l
ĠP ul
widget s
Ġextr apol
ĠEd it
Ġrevers ed
Ġan ce
ĠCor respond
ry s
Ġdeterm inant
Ġjav adoc
Ġsingular ities
ici ary
> ",
ber y
comp any
f ork
8 75
Ġun ified
Ġexecut ives
ĠIn fo
40 3
B IN
ĠS PI
ĠId entity
ĠOak land
Log ical
tr an
Ġhon ored
Ġb ra
ĠR GB
Ġfilm ing
ĠBel arus
ĠCheck s
ĠU ri
is co
Ġf ate
Ġun used
Ġam end
inst ances
E t
æ Ķ
Serial ize
$ }\
Col ors
Ġcount ed
Ġpri ests
ĠThrough out
Ġt ier
ĠT S
ĠA bs
Direct ive
ĠCh oice
Ġg ymn
land o
ĠL ipschitz
equ ivalent
Ġke V
ĠInt el
pr ising
}$ &
So ftware
ol er
Com ments
Ġmot iv
Ap pro
y i
ĠTh ai
struct ures
get User
Ġfl our
ĠBulg arian
åľ ¨
17 3
ph ant
is che
Ġmem oir
a qu
Ġa est
Pos itive
aff e
Ġsett le
tw ig
y our
ĠPal mer
append ix
Ġmillis econds
N EXT
ĠB eyond
her o
bas is
c g
r ise
arn ess
Ġdemonstr ation
oc hem
Ġwithd rew
Ġcheck sum
t om
get Parent
Dem o
ĠW riter
ĠV II
Ġhe ap
Ġflux es
Ø ¨
eh icle
ĠS ob
W all
ĠDec ision
l vert
ĠS ic
ĠMil waukee
Ġh oped
Ġfore ver
Ġpair wise
id ually
sp here
Ġspecial ist
ĠFl ash
Ġradi ative
imb abwe
con cept
Ġrhyth m
Opt s
ĠSurre y
Ġb achelor
Ġdef ended
ĠX X
Ad ministr
ĠLuc as
ol ics
>: ]<
l attice
ADD RESS
Dev elopment
ĠF oster
Ġgovern ance
Ġcap ac
(' \
INTER N
D ays
n ut
ur face
ific ant
Ġtri angles
D U
Ġv in
ĠWood s
Get ter
ĠMus ical
print s
bo ys
Ġmob ility
m ne
t lement
ĠB il
ĠK ra
Definition s
Ġf ulf
ĠCoul omb
ĠBro s
Ġcl an
Ir ish
Ġb ills
t ou
j vm
ĠKn ights
ĠIs aac
ĠSpec ifies
f urt
ĉ ĠĠĠĠĠĠĠĠĠ
ĠPet e
)) =
Ġb atter
aut hent
ĠF O
M igration
Ġ) );
dis crete
ĠCo ach
El se
T ele
Ġcon gr
Ġa ws
ĠJul ia
Ð¾Ð ±
ĠH ait
ĠE cuador
oy age
A RE
Ġan ch
}) ^{-
eff ects
Ġpass ive
b ours
r ice
ĠSpe aker
Ġhop ing
IT S
Image View
TO KEN
d og
Ġqu it
normal ize
ish a
Ġamb assador
ĠM ouse
00 7
ĠBrook s
loc ations
H o
ĠC ome
18 53
Ġresign ation
ĠHol mes
f ixture
on so
* }\
L es
23 4
Ġexperiment ally
ĠPlay ers
bor o
ĠCab inet
er ious
Ġas h
col head
gr and
Ġ\, .
Ġavoid ed
ç½ ®
" ):
as List
ĠTom my
Bu ilt
Ġe cosystem
le igh
Ġdis band
Ġco at
, +
LOC AL
Ġwitness es
\\ [
ĠSeb ast
> #
v ary
Ġterm inated
Or Empty
Bal ance
ĠK as
Ġrel ates
ĠSc ar
Football ers
M Q
P et
Ġc d
Ġapp endix
D roid
ĠC B
ĠD anny
Id le
Ġmist ake
ĠD aw
ĠPan ama
TR ACT
Ġpreserv ation
ĠAdvis ory
Ġst er
Qu ick
Ġc iting
cor r
( $\
Ġnon trivial
ĠRod rig
Ġel dest
then Return
EQ UAL
Non null
Attr s
ĠH ur
ĠK re
ij a
TIME OUT
g ol
sk in
pot ent
Ġs or
40 5
Ġinc umbent
Ġpres cribed
ĠTH IS
Ġsophistic ated
ass umption
ich let
un al
Ġbu ying
} ")
Ġcomple teness
Ġcomb ines
Ġexpl aining
ĠWell ington
Ġwarn ed
Ġst ret
Ġr ice
Ġa thlete
ĠT X
sh ake
ht m
SY S
ĠF iles
ĠN u
UL AR
ĠMET H
song writer
ĠPr ison
K im
Dan iel
D utch
Ġtri ps
G W
Ġa pt
ĠD ifferent
Ġb rew
type Name
f v
ĠT ypes
ĠGen eva
}} </
Ret riev
Ġgram mar
ĠS ou
Ġindu ce
w y
ĠB ent
Ġperman ently
Ġh ull
Ġr uler
S ensor
ME DI
l ceil
ĠM ik
Ġsurviv ors
æį ®
Ġ$ ('.
ĠD WORD
icy cle
ig roup
Mar shal
Ġalloc ate
ow ards
Ġround ed
t ier
Ġg fx
ĠCond ition
Ġal arm
Ġrele vance
é Ļ
ch ars
b readcr
ĠF ighter
ĠCard inals
CO RE
Ġindex es
Ġparticip ant
T LS
l os
ĠCom ments
PT S
6 55
chi ef
ĠC over
zh ang
k al
l ane
Ġn ut
h im
ĠStock holm
or ator
perm alink
P IN
ĠRE G
West ern
Ġper f
xy z
dec oder
Death s
G Hz
Ġd ying
ĠIn stitution
Ġrespons ibilities
ĠOt to
Ġp unct
Ġqu ota
x a
Comp anies
S port
Ġd ocker
ĠRevolution ary
- {\
30 2
Ġ[] *
ĠIn sert
Ġun ve
Sl ider
20 7
"> /
ĠObject s
ĠB B
Ġmot ions
Text Field
Non Null
Equ ation
ĠL HC
olec ular
ĠFried rich
ĠW ag
depend s
ĠCommunic ation
b ias
anc ies
Ġbenef icial
ãĢĤ </
NE SS
ĠSaf ari
ĠBenn ett
ATTR IBU
ple t
Ġnom inal
ĠPrinc ipal
ab etes
Ġisol ate
x it
ĠE g
ĠLet ter
Ġg aining
Ġso ap
ĠRe ce
Ġcon spiracy
Ġnew er
Ġcompr ised
Ġsure ly
Ġdepict s
Ġadministr ator
Through out
Ġf ut
ĠE lection
ĠR ac
Ġw age
Ġout going
ĠDes ert
m or
ĠL isa
ss h
Ġimport s
ĠGab riel
Ġsh ar
Ġif f
ĠC ONT
og g
ĠâĢ Ļ
ĠH ir
att ices
Ġbrows ers
d eps
Ġrefer endum
G reat
et ched
ĠD S
åı ĸ
Ġ@ {
ĠJ ung
Ġreason ably
N ear
ì Ŀ
oc cup
ĠR even
row ing
ĠCour se
Ġclot hes
imm ers
Ġb unch
ĠM R
current Time
s ess
Lou is
è¡ Į
C WE
$& $
Ġf unny
comm unity
ĠPear l
Ġ*/ ;
L iber
K ER
} '$
reg ation
). $
Ġautom ated
ĠAssoci ated
ĠHamb urg
ro les
ĠM T
ap k
Ġpl aint
b anner
ĠM ine
UM ENT
ĠE ve
ah a
G esture
Ġw eren
anc o
ĠThe me
Ġvar s
ĠDur ham
ĠCatalog ue
f re
f illed
al most
Ġment ions
ĠCre ative
ersh ire
ĠS DL
Ġmys ql
Ġin ad
filter ed
-- \
Ġwar fare
red is
Ġgrad uation
pe st
ĠEm pty
æĹ ¶
m eth
em bourg
Ġcirc ulation
by ter
node Type
Ġpian ist
è ¦
Ġgard ens
P TR
Ġmoment a
ab ol
Up dates
dec ay
Ġbar rel
Ġsuggest ion
Ġpod cast
iz ar
ell ites
Part icle
ĠSecond ary
D TO
Ġf ame
ĠG A
Ġte eth
ĠFr anÃ§
ĠC ou
ĠHer ald
mat ched
ĠPark s
) ];
b is
Ġst reak
ĠPol l
Ġj oy
ĉĉĉ ĠĠĠ
ĠR ams
av ian
Ġsal ary
}} /
rec ip
r idden
)) :
Ġplan ar
ĠVari able
ĠPO ST
Ġdiscipl ine
Ġcan al
REQ UI
Ġpsy chiat
d eleted
url ing
Ġconf ined
prob ability
ĠE agle
ĠK err
atche wan
Comp ile
r in
18 9
call s
ĠRon ald
V an
Ex act
B all
ro ut
ĠR ather
the ore
Ġevery body
Ġadminister ed
Ġlog ged
Ġpione er
jet brains
Ġpil ots
ĠAng lican
Ge org
ab ic
30 3
)} =\
Ġaut ore
Ġhard ly
ĠAng els
g auge
Component Model
Ġret reat
Ġdefend ant
ĠSp ot
Project s
c ock
ang ered
Ġmaxim ize
ĠNAT O
Mart in
Ġfor got
Ġl y
ĠEn um
u ant
P references
ĠA er
ting ham
pr im
Ġi OS
emph is
ĠRev ival
Organ ization
ĠS ig
Sh ard
Ġren owned
Ġsub marine
On Search
U IL
Ġt ear
ĠF T
man uel
go als
g allery
Ġresource GroupName
18 6
ĠCon cert
Dis covery
\% ,
ĠCamp us
Ġconsult ant
in tr
ull ah
ĠChe ster
Ġexp ans
18 43
direct ive
Ġperturb ative
A H
ĠP and
ore n
V ars
ĠPar ad
make box
ĠCub an
Ġp id
Mut ex
2 14
s uffix
t ap
Ġair line
level s
Ġtim ber
ĠN amed
Produ cer
é ¡
Ġf ade
ict ions
ard i
ch ip
are l
Ġb uck
st ed
Ġdam ages
Ġflex ibility
Ġtro ub
B ern
ĠPlan ck
S ar
2 15
Ġde alt
Ġpush ing
c ue
Ġa fr
Ġun safe
ĠSh ir
IT EM
Con struction
Ġtermin ology
n as
ĠGrand e
Ġc inem
Ġlett ing
ĠÅ ł
}) +
ĠPaul o
M acro
ĠD y
IFI ER
un ix
({ },
ĠInt ent
ol in
q ed
start ed
ĠMarc us
oc ene
Ġr he
Ġqu ad
ĠCons ult
6666 66
e o
ĠA chiev
Ġred sh
ag ain
ĠR av
ĠGu id
Ġb er
Ġh ills
"> .</
Ġconf ident
G od
Ġh ooks
ere k
ĠScot ia
un ches
other wise
Ġball ot
found ed
Ġconvent ions
Ġassign ments
ĠL ak
Ġ" __
Ex plicit
Ġtrail ing
ke leton
rec ision
Ġfle w
Ġrenew ed
Ð° Ðº
ĠS election
ĠU ntil
3 25
ĠLanc aster
ac i
Ã ¯
ĠFig s
Î ¯
ĠJama ica
ĠEvent ually
DEF IN
6 50
Ġexec uting
Ġcapt uring
char At
Ð» Ð¸
og an
umber land
ĠAl pha
Ġancest or
, âĢĻ
Ġtr aff
spl ice
Ġvol leyball
Ġbur den
L y
or f
Ġs cheduler
Ġv el
ap a
Ġsurve illance
ĠUtil s
ĠH alf
cos h
36 5
R oad
c ially
Ġ Ñĥ
Ġprest igious
Ġend l
ĠValid ation
ĠWIT H
ĠEV ENT
Ġc hest
Ġrel atives
Ġc ant
el ia
ĠP owell
Ġ@ @
Ġsub tle
Ġeng aging
ĠCh an
Ġch ore
Ġevent ual
ĠI BM
18 4
Ġviol ated
R am
Ġt rem
P LAY
ct ype
ĠR unn
lev ard
b az
ĠIn surance
S oviet
ĠRes erved
CA SE
Ġmut ation
Ġs cheduling
host name
mk dir
att ers
ï¼ ļ
y ml
b h
ĠW inn
ãĤ Ĵ
P ic
Ġseem ingly
j l
ĠPh arm
First Name
fam ilies
il io
ĠS tra
Ð¾ ÑĤ
ch ing
ĠR af
Mod ern
comput er
Ġgu ided
Ġstreng ths
). </
Ġbas in
yl an
D ele
Ġdefault Value
ĠR an
ens itive
Ð ¡
er i
Î ³
Ġestim ating
kn ow
Eval uation
Ġcommem or
ĠMathemat ics
P B
Ġjournal ism
Ġcorpor ations
ĠHop kins
18 1
ĠKer ala
Ġl ung
est one
Ġstand ings
Ġmer ging
ĠGram my
Ġ* =
Ġprev ents
Ġex empl
Ġacc red
ĠP ars
Ġdis orders
Ġfoot er
Comm unes
ĠN umer
ĠP om
Ġev t
tr uth
Ġconfer ences
n able
int rodu
s al
sh rink
Ġvis cosity
ĠSim pson
× ľ
p v
Ġmod ulation
Ġp ounds
ĠR S
Ġfile Name
sen al
19 1
cipl inary
Ġn ephe
æ Ń
ĠSh in
Ġcro ps
Ġinf ected
Record ed
m ine
des cr
ĠFunction s
Ġw ishes
Ġrele asing
ĠC inema
un ate
erg us
ĠM IN
Ġ* */
ĠĠĠĠĠĠĠĠĠĠĠĠĠĠĠĠĠĠĠĠĠĠĠĠĠĠĠĠĠĠĠĠ ĠĠĠĠĠĠĠĠĠĠĠĠĠĠĠĠ
ari us
Ġinstit ute
charg ed
ĠG ent
Ġad mission
ãĥ ³
Ġcomfort able
U uid
Dis cussion
Ġdynam ically
\" {
ĠN ine
Ġinv ersion
)- (
Ġre written
27 5
re ng
ĠP att
arri or
prom pt
G lob
Play ing
ĠRh ode
] ",
Ġh o
art icles
Ġprof its
ĠCOP Y
à ®
and ro
aw i
ĠMor r
G H
p it
Ġsh ield
Ġdoc s
ĠG and
ĠT error
CT RL
C OR
Ġv ow
) )$,
Ġs creens
Ġpre view
ĠJenn ifer
Ġt aste
Con clusions
Ġab oard
Ġdr ain
ĠSw an
sh ader
C ategories
ĠDiv is
å ¾
Ġstrong est
> }
ĠMethod ist
Ġmark ers
Lin ux
Ġdes irable
O VER
ĠD ES
ĠWest minster
ĠApp ly
ch r
Trans actions
ĠAct ivity
Rect angle
Ġimplicit ly
ĠA DD
us hes
ĠLeg ion
ĠH R
ĠWild life
j in
Ġtreat ments
Ġgr ateful
associ ated
ĠRe ich
contrib s
FUN C
M gr
Ġrob ots
Ġp unk
ill on
Ġev olve
Ġcoher ence
^ (
Ġbe an
res olver
C ities
li um
ĠPr ague
Ġf lip
ĠR uby
Ġspl its
Ġu uid
ĠSum mit
Ġo ps
ĠT ong
ĠAh med
Ġo l
At Index
ri ans
}{ $\
has Next
ĠCap itol
Ġconsum ed
ch anging
"> :
Sp in
ĠOrig inally
FE ATURE
ĠĠĠĠĠĠĠĠ ĠĊ
ĠB SD
ph ib
)) ^
Table Name
Get Type
iff e
hab ited
CL UD
D K
Ġpro sper
Ġaccept ing
ĠYan kees
Des erial
May be
ĠR ES
Ġmon astery
ĠQu estion
Ġspeed s
g ems
er ent
Ġn u
Ġstri kes
Ġdemand ed
Ġnation wide
ĠT all
ĠTreas ury
ov ina
In spector
ĠCoun ter
rupted Exception
Ġdig est
Ġathlet ic
TE X
Ġimportant ly
ĠS weet
Git Hub
D X
Ġsem if
ĠHol ocaust
Ġx hr
ĠThe ore
CLUD ING
}= -
am as
00 6
align ment
Ġevery day
ex istence
Ġp ec
Ġindic ation
u pe
Ġgenu ine
c ro
At omic
vet ica
Ġsim plic
Ġide als
ĠF oo
Ġcontribut ors
Thread s
n ational
ä ¼
ĠF ake
list eners
P ot
Ġst uck
re vision
d ac
in ely
contin uous
Ġnational ly
ag ic
nt on
Ġcontribut or
Det ection
Ġan ger
Ġfavour ite
Ġanisot ropy
Ġe ject
Ch ief
ĠAcadem ic
w c
V L
18 46
condition al
a ude
Ġb uffers
Ġr v
oun cy
ĠW rap
Ġload s
fe at
Ġbul let
ĠEngine ers
ap or
ĠTrans it
produ ced
CONT ENT
Ġland mark
keyword s
um ably
Ġpregn ancy
Ġre un
ret ty
ic ion
ĠG lobe
Ġadv ised
Ġinterview ed
Ġdram atically
Ġmark ing
Ġdemand ing
ĠCy prus
m ans
r vert
Ġbe aring
Enumer ator
S el
W ITH
the ir
ĠUn ity
q s
Ġqu bits
ick ets
================ ========
comple tion
Ġinject ed
t ls
Ġdec ou
Ġlif estyle
n othing
Ġinfr ared
Ġep ic
Ġuniqu eness
ĠT aking
ĠD ame
B log
Ġsimilar ities
int endent
D IV
ĠA pr
work space
Ġlegend ary
Ignore Case
+ }
ĠSh are
r ceil
am ine
ĠF lying
Ġconcept ual
Ġr am
ĠDes cribe
Ġformat ted
Ġto b
ĠR achel
ĠCon sumer
Est im
un ivers
Ġgr ains
Ġn umpy
Ġdesign ers
inherit doc
S uffix
ĠEll is
CAC HE
Doc uments
ĠÐ °
ĠG ol
Ġreli ability
ĠSalv ador
K B
Ġann ex
tr ip
erv ing
ats u
st ars
Ġanaly zing
ev olution
ĠLegisl ature
Ġre bell
air y
ĠUg anda
getElementsBy TagName
oc ate
ĠRh odes
Ú ©
ĠPak istani
ĠRec on
{ }{
user Agent
} ',
Ġun anim
_{ |
Con nections
27 3
ĠR M
Sem antic
Ġad missible
Ġattack er
ĠSch r
Ġem otions
80 80
ed uc
Ġind oor
J ournal
R oll
ĠAl ert
Ġdepart ed
Ġnick name
ĠM umbai
ĠVol unte
FIL TER
b ian
re load
30 6
aged y
Ġra ises
Ġneighborhood s
ĠBry an
A MS
Ġte ch
Ġpress ed
Ġgu ards
G ed
Ġaddition ally
Ġpick s
we ather
ĠM AC
ĠL oop
Ġdes per
Ġpoly mer
G reek
Th ough
Ġcomplement ary
ĠPubl ish
Ġa er
sh i
Ġen larg
he y
ing ing
ĠTr uth
State Exception
ĠIm Gui
ĠS plit
ĠF olk
Ġant ib
ĠA ur
ĠPer th
Ġp ic
Ġcomplex es
ĠO ber
im ited
Ġcollect or
4 20
ceed ed
en stein
Ġins ufficient
] }$
openh agen
O H
Ġsub stitution
NN s
repe ated
ĠBudd h
Ġw orn
ĠCard inal
Ġconserv ed
), \\
co eff
ĠS part
ĠA ges
Ġon Click
ĠCom edy
Ġwork shop
H yper
ĠNetwork s
Ġphil anth
Ġd ancing
ĠCor p
ĠC ec
ĠN uclear
Comp atible
Ġpack ed
Vis it
Att ach
V ersions
on ne
i our
Ġexpect s
Rem oved
Ġas ynchronous
ST D
F ixtures
W ay
r ust
ĠS ales
Ġb attalion
Ġre interpret
pro logue
min i
ĠBr ussels
But tons
Ġin fe
Ġs iblings
cover ed
rece ive
ĠMar io
et ter
PR INT
s cheduler
ĠD in
Ġquarter back
m pi
ind icator
25 4
aaaa aaaa
22 6
Last Name
f u
r ors
ĠU int
E F
M ULT
Ġstud ios
ĠDist inguished
Transport ation
18 45
Ġpre vention
er ie
un til
Ġterm inate
child node
Tr aining
Build ing
d up
Ġd ivers
ist on
Ġincorpor ating
Ġlo ose
Ġ{ *}
ĠMan ila
ĠSol omon
à¤ ¾
/ ,
ab ar
Ġwork space
dot ted
ĠCol in
bit map
Render ing
ĠMig uel
d ij
Sort ed
Ġanomal ous
Ġbe ars
Ġcirc uits
Ġdisappe ared
c ategor
ĠTh anks
An swer
Ġrock et
Ġoscill ation
M arg
ĠL ik
CONT RO
ĠPsych ology
prot oc
us a
ĠH ousing
Col umb
Ġcul min
Ad s
Ġanten na
ke V
)$ )
num bers
alloc ate
ĠS uff
Ġsi ege
ĠCle arly
l Vert
Ġt orsion
source forge
H W
act ivation
Y ES
L oss
Ġ\ %
Ġinstitution al
ĠInnov ation
ĠJ ak
Ġrac ism
Ġres umed
Ġnovel ist
d ims
ĠB in
áĥ Ĳ
ve ction
ĠFe atures
writ eln
ĠGard ens
Ġs its
Ġres iding
anc a
ĠTe V
\ ).
ape st
FO UND
p ager
Ġc ube
q t
ĠN R
Ġcollabor ated
J ean
Ġstat istic
D G
Ġcan on
18 3
sat z
L iter
He art
Ġequal To
Ġo m
Code Attribute
Ġincred ible
Ġs ailed
Ġmem o
45 6
Ġsan ctions
Ġf printf
Prov ince
... ]
Ġon set
ĠMar shal
View port
âĢĿ )
H K
ĠV ern
Ind ividual
Ġtechn ological
="../../../../../../ ../../
v d
mid i
Ġ" \"
/ ************************************************************************
ĠB ert
( ',
equ ilibrium
32 1
ĠA part
ĠV illa
ĠAn a
18 37
I sl
l iter
Writ ers
p ane
J et
n ai
ĠF at
For Key
Ġkid n
z el
ĠL iv
str action
f its
g age
You ng
ĠEs sex
Ġtool tip
M Y
M il
Ġstrugg ling
ĠU TF
Dev elop
ĠHe ights
IG H
Ġemploy ers
Ġoverwhel ming
con sumer
sup ers
ĠC ork
ens ely
we i
; "><
ct uary
Ġdel ays
\ ",
B at
Ġcho ir
ĠInt roduction
Mark et
g rey
Ġ' --
ost ream
dig est
Ġc ele
un used
ĠD ynamic
C U
single ton
ĠMet al
ĠNot able
DE CL
ĠM ull
S uggest
j j
ok i
scal ing
spect rum
DIS ABLE
ãģ Ļ
Ġ{ :
ĠL akes
os phere
Ġrem ix
}} -\
Ġphil osopher
hip s
ĠL ac
Ġwe igh
atin um
Ġbe et
="@ {
ĠMult iple
qual ified
Get Value
ĠArray s
Depend encies
Ġingred ients
l od
Ġbacter ia
Ġleg ally
}\, ,
ĠProgram me
Ġ ç
P icture
ĠArm strong
30 8
ĠSh ape
ĠO wen
ĠMal ay
ĠMer it
w m
ĠF ul
Ra ises
ĠH arm
be k
Ġindiv idually
Ġd ign
eck er
Ġturbul ence
n ucle
Ġ ../../../
BY TE
ĠCroat ian
ĠFif th
ĠTy ler
Tr im
Ġbin aries
Ġun s
ĠL or
ä¸ º
ĠM end
ĠW inds
P t
S equ
Ġconscious ness
ol y
Ġl akes
16 00
Ġpredict ive
ĠF ail
rele ases
initial ized
Ġinduct ed
ĠB irth
ĠG ill
Sing les
\ `
Ġconfirm ation
Ġanticip ated
Ġsp ite
comp atibility
rais ebox
Ġup stream
Ġm ere
Ġdest ruct
ĠCO MP
) ](
Ġcomm enced
ĠSE LECT
ĠM M
Ġencour aging
ib a
. {
Ġap pl
N atural
ch apter
ak ef
Ġprohib ited
ĠRiemann ian
Ġy ard
ĠTre k
Ġl oud
Ġv ig
Ad apt
author ized
R oles
. ')
Ġs ung
Ġshould er
mem item
Ġwild life
L os
n st
SE SSION
Ġconvers ations
calcul ate
LE ASE
× ¨
aut om
ĠBaron et
Ġnumer us
B IND
Ġmod ulo
ĠJer emy
C hen
ĠG or
ed ed
D J
Ġcook ies
os cal
Cal c
rosso ver
Ham ilton
Ġdesign ing
Cor rect
Ġthermod ynamic
ĠTas man
H AS
ĠE L
aw ait
Ind ent
O l
term inal
| ,
}\ |_{
ER ENCE
ĠCO MM
$ ]
x FF
um bo
sp ons
et ches
habilit ation
P rel
ĠM N
aur us
stitu ency
ĠL ip
ight ed
Ġsur f
Pack ages
Ġmanip ulation
ing ers
un ting
') [
Work flow
Ġport al
Ġun ited
18 12
å ·
Ġ ic
Ġtre ating
Ġtrav elling
p ause
geq slant
Ġgl uon
Ġcatalog ue
P F
Ġrev ival
ĠRem ote
ĠBos nia
Ġt u
60 1
distrib uted
ĠV ery
ĠAct ress
Ġarchitect s
Ġinvent ed
ĠA ires
ĠMe asure
Ad just
U kr
ag in
Ġbe ings
ĠWAR NING
ĠIn spector
SV G
ĠC od
Ġg em
23 1
ram id
ĠAc cept
Ġpredict s
Ġgeneral ize
ĠGe off
ĠB UT
ĠKenn eth
r ating
tr ation
Ġreflect ing
ĠS ullivan
ĠI B
Ġiter ative
ĠDomin ican
EO F
ĠSom erset
Ġc ipher
um en
Ġb arriers
18 44
ED IT
ĠBrad ley
g m
Ġkilomet ers
Ġreg ret
Me V
att ention
Ġfavor able
Ġs ou
2 16
av o
ĠWil helm
Ġhom osexual
ĠNe umann
Ġm oll
che z
ĠEm my
Ġ( @
Ġtend ency
ĠS ometimes
Ġemb ark
ath a
ĠCON ST
Ġspread ing
l is
ĠMETH OD
"> )</
ĠMe eting
}}{ (
Ġdro pping
V s
ic ans
plo ys
Ġque en
). \
hom ogeneous
Ġsp ans
$ ^\
Ġche ss
se min
author ization
G ram
ĠCh anges
if fin
Ġmin us
cred it
ĠD oll
TR ACE
ĠRe id
Ġemer ge
Tool tip
Ġcontr action
- %
ĠInitial ly
s ites
il ian
ĠCa uchy
Ġinject ive
const it
[...]
