{
  "version": "1.0",
  "truncation": null,
  "padding": null,
  "added_tokens": [
    {
      "id": 0,
      "content": "[UNK]",
      "single_word": false,
      "lstrip": false,
      "rstrip": false,
      "normalized": false,
      "special": true
    }
  ],
  "normalizer": null,
  "pre_tokenizer": {
    "type": "Sequence",
    "pretokenizers": [
      {
        "type": "Digits",
        "individual_digits": false
      },
      {
        "type": "ByteLevel",
        "add_prefix_space": false,
        "trim_offsets": true,
        "use_regex": true
      }
    ]
  },
  "post_processor": null,
  "decoder": null,
  "model": {
    "type": "BPE",
    "dropout": null,
    "unk_token": "[UNK]",
    "continuing_subword_prefix": null,
    "end_of_word_suffix": null,
    "fuse_unk": false,
    "byte_fallback": false,
    "vocab": {
      "[UNK]": 0,
      "!": 1,
      "\"": 2,
      "#": 3,
      "$": 4,
      "%": 5,
      "&": 6,
      "'": 7,
      "(": 8,
      ")": 9,
      "*": 10,
      "+": 11,
      ",": 12,
      "-": 13,
      ".": 14,
      "/": 15,
      "0": 16,
      "1": 17,
      "2": 18,
      "3": 19,
      "4": 20,
      "5": 21,
      "6": 22,
      "7": 23,
      "8": 24,
      "9": 25,
      ":": 26,
      ";": 27,
      "<": 28,
      "=": 29,
      ">": 30,
      "?": 31,
      "@": 32,
      "A": 33,
      "B": 34,
      "C": 35,
      "D": 36,
      "E": 37,
      "F": 38,
      "G": 39,
      "H": 40,
      "I": 41,
      "J": 42,
      "K": 43,
      "L": 44,
      "M": 45,
      "N": 46,
      "O": 47,
      "P": 48,
      "Q": 49,
      "R": 50,
      "S": 51,
      "T": 52,
      "U": 53,
      "V": 54,
      "W": 55,
      "X": 56,
      "Y": 57,
      "Z": 58,
      "[": 59,
      "\\": 60,
      "]": 61,
      "^": 62,
      "_": 63,
      "`": 64,
      "a": 65,
      "b": 66,
      "c": 67,
      "d": 68,
      "e": 69,
      "f": 70,
      "g": 71,
      "h": 72,
      "i": 73,
      "j": 74,
      "k": 75,
      "l": 76,
      "m": 77,
      "n": 78,
      "o": 79,
      "p": 80,
      "q": 81,
      "r": 82,
      "s": 83,
      "t": 84,
      "u": 85,
      "v": 86,
      "w": 87,
      "x": 88,
      "y": 89,
      "z": 90,
      "{": 91,
      "|": 92,
      "}": 93,
      "~": 94,
      "¡": 95,
      "¢": 96,
      "£": 97,
      "¤": 98,
      "¥": 99,
      "¦": 100,
      "§": 101,
      "¨": 102,
      "©": 103,
      "ª": 104,
      "«": 105,
      "¬": 106,
      "®": 107,
      "¯": 108,
      "°": 109,
      "±": 110,
      "²": 111,
      "³": 112,
      "´": 113,
      "µ": 114,
      "¶": 115,
      "·": 116,
      "¸": 117,
      "¹": 118,
      "º": 119,
      "»": 120,
      "¼": 121,
      "½": 122,
      "¾": 123,
      "¿": 124,
      "Â": 125,
      "Ã": 126,
      "Ä": 127,
      "Å": 128,
      "Æ": 129,
      "Ç": 130,
      "È": 131,
      "É": 132,
      "Ê": 133,
      "Ë": 134,
      "Ì": 135,
      "Í": 136,
      "Î": 137,
      "Ï": 138,
      "Ð": 139,
      "Ñ": 140,
      "Ò": 141,
      "Ó": 142,
      "Ô": 143,
      "Õ": 144,
      "Ö": 145,
      "×": 146,
      "Ø": 147,
      "Ù": 148,
      "Ú": 149,
      "Û": 150,
      "Ü": 151,
      "Ý": 152,
      "Þ": 153,
      "ß": 154,
      "à": 155,
      "á": 156,
      "â": 157,
      "ã": 158,
      "ä": 159,
      "å": 160,
      "æ": 161,
      "ç": 162,
      "è": 163,
      "é": 164,
      "ê": 165,
      "ë": 166,
      "ì": 167,
      "í": 168,
      "î": 169,
      "ï": 170,
      "ð": 171,
      "ò": 172,
      "ó": 173,
      "ô": 174,
      "Ā": 175,
      "ā": 176,
      "Ă": 177,
      "ă": 178,
      "Ą": 179,
      "ą": 180,
      "Ć": 181,
      "ć": 182,
      "Ĉ": 183,
      "ĉ": 184,
      "Ċ": 185,
      "ċ": 186,
      "Č": 187,
      "č": 188,
      "Ď": 189,
      "ď": 190,
      "Đ": 191,
      "đ": 192,
      "Ē": 193,
      "ē": 194,
      "Ĕ": 195,
      "ĕ": 196,
      "Ė": 197,
      "ė": 198,
      "Ę": 199,
      "ę": 200,
      "Ě": 201,
      "ě": 202,
      "Ĝ": 203,
      "ĝ": 204,
      "Ğ": 205,
      "ğ": 206,
      "Ġ": 207,
      "ġ": 208,
      "Ģ": 209,
      "ģ": 210,
      "Ĥ": 211,
      "ĥ": 212,
      "Ħ": 213,
      "ħ": 214,
      "Ĩ": 215,
      "ĩ": 216,
      "Ī": 217,
      "ī": 218,
      "Ĭ": 219,
      "ĭ": 220,
      "Į": 221,
      "į": 222,
      "İ": 223,
      "ı": 224,
      "Ĳ": 225,
      "ĳ": 226,
      "Ĵ": 227,
      "ĵ": 228,
      "Ķ": 229,
      "ķ": 230,
      "ĸ": 231,
      "Ĺ": 232,
      "ĺ": 233,
      "Ļ": 234,
      "ļ": 235,
      "Ľ": 236,
      "ľ": 237,
      "Ŀ": 238,
      "ŀ": 239,
      "Ł": 240,
      "ł": 241,
      "Ń": 242,
      "ĠĠ": 243,
      "ĠĠĠĠ": 244,
      "Ġt": 245,
      "in": 246,
      "er": 247,
      "on": 248,
      "Ġa": 249,
      "he": 250,
      "re": 251,
      "at": 252,
      "en": 253,
      "Ġthe": 254,
      "or": 255,
      "st": 256,
      "al": 257,
      "an": 258,
      "it": 259,
      "Ġc": 260,
      "ar": 261,
      "ion": 262,
      "le": 263,
      "Ġo": 264,
      "Ġs": 265,
      "ĠĠĠ": 266,
      "ed": 267,
      "is": 268,
      "ĠĠĠĠĠĠĠĠ": 269,
      "Ġf": 270,
      "es": 271,
      "Ġw": 272,
      "Ġp": 273,
      "ic": 274,
      "ing": 275,
      "Ġin": 276,
      "ro": 277,
      "nd": 278,
      "Ġof": 279,
      "Ġb": 280,
      "as": 281,
      "et": 282,
      "ct": 283,
      "Ġd": 284,
      "Ġm": 285,
      "ent": 286,
      "Ġand": 287,
      "ou": 288,
      "el": 289,
      "am": 290,
      "Ġto": 291,
      "il": 292,
      "Ġre": 293,
      "om": 294,
      "Ġh": 295,
      "Ġ\\": 296,
      "Ġn": 297,
      "ig": 298,
      "Ġth": 299,
      "ation": 300,
      "id": 301,
      "Ġ$": 302,
      "ol": 303,
      "Ġ(": 304,
      "ac": 305,
      "im": 306,
      "ĠĠĠĠĠĠĠ": 307,
      "ĠS": 308,
      "Ġe": 309,
      "ur": 310,
      "ot": 311,
      "ĠT": 312,
      "ut": 313,
      "Ġ=": 314,
      "Ġl": 315,
      "iv": 316,
      "ĠC": 317,
      "se": 318,
      "ad": 319,
      "ĠA": 320,
      "ĉĉ": 321,
      "ce": 322,
      "ul": 323,
      "od": 324,
      "Ġis": 325,
      "</": 326,
      "ag": 327,
      "th": 328,
      "if": 329,
      "=\"": 330,
      "Ġfor": 331,
      "em": 332,
      ");": 333,
      "un": 334,
      "Ġg": 335,
      "ab": 336,
      "ch": 337,
      "ow": 338,
      "um": 339,
      "Ġv": 340,
      "Ġ{": 341,
      "ay": 342,
      "ĠM": 343,
      "us": 344,
      "qu": 345,
      "ĠI": 346,
      "Ġst": 347,
      "ers": 348,
      "pe": 349,
      "ly": 350,
      "--": 351,
      "ate": 352,
      "ist": 353,
      "čĊ": 354,
      "Ġon": 355,
      "ap": 356,
      "ith": 357,
      "Ġ<": 358,
      "ir": 359,
      "Ġbe": 360,
      "ex": 361,
      "ĠP": 362,
      "Ġcon": 363,
      "ĠB": 364,
      "ter": 365,
      "ction": 366,
      "tr": 367,
      "oc": 368,
      "ĠĠĠĠĠĠĠĠĠĠĠ": 369,
      "20": 370,
      "ht": 371,
      "Ġas": 372,
      "ass": 373,
      "_{": 374,
      "end": 375,
      "ver": 376,
      "//": 377,
      "Ġ*": 378,
      "âĢ": 379,
      "Ġthat": 380,
      "ĠR": 381,
      "av": 382,
      "pt": 383,
      "and": 384,
      "ĠH": 385,
      "res": 386,
      "ame": 387,
      "ath": 388,
      "ĠF": 389,
      "ub": 390,
      "ĠD": 391,
      "est": 392,
      "Ġwith": 393,
      "ĠL": 394,
      "Ġ\"": 395,
      "ef": 396,
      "Ġal": 397,
      "ri": 398,
      "19": 399,
      "Ġ}": 400,
      "ew": 401,
      "Ġpro": 402,
      "ain": 403,
      "up": 404,
      "Ġwh": 405,
      "Ġan": 406,
      "ĠN": 407,
      "os": 408,
      "op": 409,
      "ĠThe": 410,
      "ue": 411,
      "eg": 412,
      "ess": 413,
      "ort": 414,
      "Ġby": 415,
      "\">": 416,
      "ĠW": 417,
      "ĠG": 418,
      "ity": 419,
      "Ġwas": 420,
      "lass": 421,
      "rom": 422,
      "age": 423,
      "ĠE": 424,
      "{\\": 425,
      "ect": 426,
      "ine": 427,
      "Ġ&": 428,
      "art": 429,
      "our": 430,
      "Ġex": 431,
      "ere": 432,
      "ĠĠĠĠĠĠĠĠĠĠĠĠĠĠĠĠ": 433,
      "Ġcom": 434,
      "pl": 435,
      "ore": 436,
      "ĠĊ": 437,
      "Ġr": 438,
      "ight": 439,
      "Ġit": 440,
      "Ġat": 441,
      "ment": 442,
      "ext": 443,
      "ec": 444,
      "nt": 445,
      "ĠĠĠĠĠ": 446,
      "Ġ$\\": 447,
      "ure": 448,
      "iz": 449,
      "ies": 450,
      "()": 451,
      "Ġor": 452,
      "urn": 453,
      "all": 454,
      "ial": 455,
      "og": 456,
      "ref": 457,
      "li": 458,
      "**": 459,
      "ult": 460,
      "Ġfrom": 461,
      "ak": 462,
      "sp": 463,
      "able": 464,
      "..": 465,
      "ge": 466,
      "Ġare": 467,
      "ack": 468,
      "Ġthis": 469,
      "math": 470,
      "ĠO": 471,
      "ant": 472,
      "ive": 473,
      "ep": 474,
      "ud": 475,
      "ĠJ": 476,
      "per": 477,
      "ber": 478,
      "ill": 479,
      "ans": 480,
      "Ġclass": 481,
      "Ġtr": 482,
      "ld": 483,
      "ile": 484,
      "turn": 485,
      "port": 486,
      "ype": 487,
      "orm": 488,
      "00": 489,
      "str": 490,
      "Ġwe": 491,
      "==": 492,
      "int": 493,
      "Ġif": 494,
      "Ġhe": 495,
      "----": 496,
      "con": 497,
      "ite": 498,
      "ph": 499,
      "ary": 500,
      "ĠU": 501,
      "ode": 502,
      "act": 503,
      "Ġ'": 504,
      "ated": 505,
      "get": 506,
      "ast": 507,
      "und": 508,
      "}\\": 509,
      "Ġch": 510,
      "ov": 511,
      "Ġy": 512,
      "ard": 513,
      "Ġ-": 514,
      "ign": 515,
      "}$": 516,
      "'s": 517,
      "Ġle": 518,
      "In": 519,
      "are": 520,
      "ff": 521,
      "ip": 522,
      "ich": 523,
      "ition": 524,
      "^{": 525,
      "ase": 526,
      "ib": 527,
      "The": 528,
      "pro": 529,
      "),": 530,
      "ace": 531,
      "ord": 532,
      "Ġnot": 533,
      "ell": 534,
      "ev": 535,
      "201": 536,
      "Ġsh": 537,
      "ĠĠĠĠĠĠĠĠĠĠĠĠĠĠĠ": 538,
      "ind": 539,
      "ma": 540,
      "ire": 541,
      "lic": 542,
      "ata": 543,
      "ang": 544,
      "text": 545,
      "ft": 546,
      "ption": 547,
      "ke": 548,
      "Ġse": 549,
      "ical": 550,
      "cl": 551,
      "ĠK": 552,
      "com": 553,
      "ave": 554,
      "to": 555,
      "ime": 556,
      "ug": 557,
      "ple": 558,
      "ia": 559,
      "ost": 560,
      ").": 561,
      "ong": 562,
      "ject": 563,
      "ĠIn": 564,
      "out": 565,
      "fr": 566,
      "ens": 567,
      "ild": 568,
      "ser": 569,
      "Ġ//": 570,
      "Ġreturn": 571,
      "ork": 572,
      "Ġpl": 573,
      "}}": 574,
      "unction": 575,
      "ust": 576,
      "alue": 577,
      "ide": 578,
      "(\\": 579,
      "ice": 580,
      "cc": 581,
      "ations": 582,
      "cal": 583,
      "->": 584,
      "ĠV": 585,
      "ian": 586,
      "ence": 587,
      "Ġus": 588,
      "Ġ|": 589,
      "Ġres": 590,
      "ĉĉĉĉ": 591,
      "ta": 592,
      "egin": 593,
      "Ġwhich": 594,
      "::": 595,
      "Ġ+": 596,
      "ĠâĢ": 597,
      "form": 598,
      "enc": 599,
      "begin": 600,
      "equ": 601,
      "ublic": 602,
      "Ġ</": 603,
      "du": 604,
      "../": 605,
      "so": 606,
      "Ġ[": 607,
      "Con": 608,
      "ance": 609,
      "aram": 610,
      "ory": 611,
      "Ġun": 612,
      "Ġcan": 613,
      "Ġar": 614,
      "lo": 615,
      "Ġj": 616,
      "ss": 617,
      "row": 618,
      "ther": 619,
      "ĠSt": 620,
      "ource": 621,
      "ach": 622,
      "ra": 623,
      "fig": 624,
      "put": 625,
      "ĠTh": 626,
      "low": 627,
      "ener": 628,
      "ear": 629,
      "200": 630,
      "ok": 631,
      "Ġnew": 632,
      "Ġad": 633,
      "Ġhave": 634,
      "Ġim": 635,
      "cri": 636,
      "Ġ@": 637,
      "\",": 638,
      "Ġap": 639,
      "Ġk": 640,
      "St": 641,
      "set": 642,
      ")$": 643,
      "Ġhas": 644,
      "ock": 645,
      "âĢĻ": 646,
      "ress": 647,
      "_{\\": 648,
      "use": 649,
      "abel": 650,
      "ould": 651,
      "},": 652,
      "Ġhis": 653,
      "ize": 654,
      "ous": 655,
      "ents": 656,
      "elf": 657,
      "hen": 658,
      "ish": 659,
      "ml": 660,
      "ĠCh": 661,
      "ull": 662,
      "right": 663,
      "Ex": 664,
      "}{": 665,
      "Ġab": 666,
      "Ġ/": 667,
      "over": 668,
      "one": 669,
      "Ġcont": 670,
      "(\"": 671,
      "iel": 672,
      "Ġstr": 673,
      "own": 674,
      "();": 675,
      "erm": 676,
      "div": 677,
      "eta": 678,
      "irst": 679,
      "sh": 680,
      "10": 681,
      "ount": 682,
      "eq": 683,
      "ond": 684,
      "ound": 685,
      "Ġfunction": 686,
      "18": 687,
      "fer": 688,
      "essage": 689,
      "clud": 690,
      "ree": 691,
      "Ġcomp": 692,
      "Ġdef": 693,
      "ield": 694,
      "mer": 695,
      "span": 696,
      "old": 697,
      "ps": 698,
      "></": 699,
      "frac": 700,
      "te": 701,
      "Ġalso": 702,
      "tern": 703,
      "ink": 704,
      "',": 705,
      "err": 706,
      "inal": 707,
      "ll": 708,
      "ual": 709,
      "ates": 710,
      "Ġall": 711,
      "tring": 712,
      "ict": 713,
      "eth": 714,
      "les": 715,
      "ray": 716,
      "ator": 717,
      "che": 718,
      "Ġ.": 719,
      "erv": 720,
      "ob": 721,
      "--------": 722,
      "Ġob": 723,
      "Ġset": 724,
      "odel": 725,
      "Ġpart": 726,
      "Ġwere": 727,
      "Ġsu": 728,
      "label": 729,
      "Ġint": 730,
      "ark": 731,
      "ele": 732,
      "Ġone": 733,
      "we": 734,
      "ions": 735,
      "Ġdis": 736,
      "Ġpr": 737,
      "rap": 738,
      "><": 739,
      "yst": 740,
      "Ġ*/": 741,
      "Ġname": 742,
      "rit": 743,
      "Ġvar": 744,
      "ome": 745,
      "iew": 746,
      "the": 747,
      "rm": 748,
      "oth": 749,
      "Ġpublic": 750,
      "wo": 751,
      "pect": 752,
      "led": 753,
      "ert": 754,
      "line": 755,
      "Ġ:": 756,
      "../../": 757,
      "oint": 758,
      "****": 759,
      "pr": 760,
      "mathb": 761,
      "sum": 762,
      "ics": 763,
      "ĉĉĉ": 764,
      "Ġout": 765,
      "ne": 766,
      "Ġev": 767,
      "cite": 768,
      "ool": 769,
      "ry": 770,
      "Ġro": 771,
      "ely": 772,
      "====": 773,
      "Ġbut": 774,
      "ix": 775,
      "left": 776,
      "Ġqu": 777,
      "Ġ||": 778,
      "ck": 779,
      "roup": 780,
      "pec": 781,
      "ose": 782,
      "))": 783,
      "ĠĠĠĠĠĠĠĠĠĠĠĠĠĠĠĠĠĠĠ": 784,
      "Ġde": 785,
      "ystem": 786,
      "name": 787,
      "Pro": 788,
      "ĠUn": 789,
      "eng": 790,
      "$,": 791,
      "html": 792,
      "Ġfirst": 793,
      "umber": 794,
      "io": 795,
      "Ġsp": 796,
      "ĠĠĠĠĠĠĠĠĠ": 797,
      "Ġdo": 798,
      "('": 799,
      "ery": 800,
      "oid": 801,
      "Ġwill": 802,
      "$.": 803,
      "Ġup": 804,
      "Ġtheir": 805,
      "ĠY": 806,
      "ty": 807,
      "__": 808,
      "ings": 809,
      "Ġper": 810,
      "Ġits": 811,
      "ors": 812,
      ",\\": 813,
      "ax": 814,
      "Ġme": 815,
      "mb": 816,
      "this": 817,
      "Ġpre": 818,
      "mathcal": 819,
      "12": 820,
      "}.": 821,
      "col": 822,
      "Ġhref": 823,
      "ng": 824,
      "igh": 825,
      "Name": 826,
      "ER": 827,
      "ail": 828,
      "lect": 829,
      "hed": 830,
      "equation": 831,
      "})": 832,
      "ied": 833,
      "ĠIt": 834,
      "ake": 835,
      "cre": 836,
      "fter": 837,
      "Ġcol": 838,
      "key": 839,
      "aw": 840,
      "arg": 841,
      "ater": 842,
      "ational": 843,
      "ĠHe": 844,
      "uct": 845,
      "source": 846,
      "Ġover": 847,
      "Ġtwo": 848,
      "Ġget": 849,
      "Ġcl": 850,
      "iss": 851,
      "lation": 852,
      "cent": 853,
      "Ġdes": 854,
      "message": 855,
      "pos": 856,
      "raph": 857,
      "param": 858,
      "ethod": 859,
      "Ġman": 860,
      "Ġinter": 861,
      "Ġtime": 862,
      "Type": 863,
      "âĢĵ": 864,
      "\\\\": 865,
      "trans": 866,
      "of": 867,
      "Ġ#": 868,
      "atic": 869,
      "199": 870,
      "Ġwork": 871,
      "Ġtype": 872,
      "ular": 873,
      "Ġhad": 874,
      "Ġag": 875,
      "amb": 876,
      "Ġvalue": 877,
      "ON": 878,
      "app": 879,
      "ution": 880,
      "ook": 881,
      "Ġother": 882,
      "}(": 883,
      "import": 884,
      "Ġyou": 885,
      "ames": 886,
      "Ġdata": 887,
      "String": 888,
      "Ġresult": 889,
      "Ġwho": 890,
      "def": 891,
      "Ġline": 892,
      "ative": 893,
      "IN": 894,
      "ick": 895,
      "~\\": 896,
      "var": 897,
      "Id": 898,
      "Ġplay": 899,
      "}^": 900,
      "ific": 901,
      "Ġmore": 902,
      "}_": 903,
      "ms": 904,
      "alse": 905,
      "Ġbeen": 906,
      "atch": 907,
      "16": 908,
      "sub": 909,
      "ve": 910,
      "Ġsub": 911,
      "Th": 912,
      "ont": 913,
      "ange": 914,
      "idth": 915,
      "ember": 916,
      "Ġund": 917,
      "imes": 918,
      "return": 919,
      "ox": 920,
      "ann": 921,
      "uild": 922,
      "cript": 923,
      "ys": 924,
      "Ġ=>": 925,
      "Ġcomm": 926,
      "ove": 927,
      "round": 928,
      "Ġi": 929,
      "ollow": 930,
      "Ġwhen": 931,
      "ons": 932,
      "pha": 933,
      "urre": 934,
      "td": 935,
      "/>": 936,
      "Ġthey": 937,
      "dd": 938,
      "ĠâĢĵ": 939,
      "ie": 940,
      "Ġadd": 941,
      "Ġne": 942,
      "tain": 943,
      "oun": 944,
      "fo": 945,
      "yn": 946,
      "da": 947,
      "Ġreg": 948,
      "arch": 949,
      "anc": 950,
      "Ġsup": 951,
      "ased": 952,
      "Com": 953,
      "Ġso": 954,
      "als": 955,
      "ton": 956,
      "lock": 957,
      "ĠThis": 958,
      "Ġconst": 959,
      "alpha": 960,
      "Ġonly": 961,
      "Ġyear": 962,
      "code": 963,
      "ues": 964,
      "ute": 965,
      "ences": 966,
      "15": 967,
      "ited": 968,
      "\"/>": 969,
      "amp": 970,
      "Ġend": 971,
      "ample": 972,
      "eb": 973,
      "Ġel": 974,
      "RE": 975,
      "Ġwhere": 976,
      "Ġbet": 977,
      "lement": 978,
      "gr": 979,
      "Ġ!": 980,
      "resent": 981,
      "Ġself": 982,
      "der": 983,
      "Ġen": 984,
      "Ġform": 985,
      "Ġinclud": 986,
      "Ġid": 987,
      "Ġsc": 988,
      "Ġ_": 989,
      "class": 990,
      "tt": 991,
      "ade": 992,
      "ople": 993,
      "type": 994,
      "##": 995,
      "Ġfollow": 996,
      "Ġpos": 997,
      "Ġinto": 998,
      "min": 999,
      "ception": 1000,
      "Res": 1001,
      "Ch": 1002,
      "elta": 1003,
      "land": 1004,
      "Ġdif": 1005,
      "ise": 1006,
      "ST": 1007,
      "ern": 1008,
      "Ġany": 1009,
      "List": 1010,
      "ault": 1011,
      "add": 1012,
      "ating": 1013,
      "Ġpe": 1014,
      "Ġthere": 1015,
      "bar": 1016,
      "âĢĿ": 1017,
      "11": 1018,
      "Ġrequ": 1019,
      "Ġtrans": 1020,
      "Ref": 1021,
      "ugh": 1022,
      "Ġsuch": 1023,
      "cess": 1024,
      "Ġrel": 1025,
      "Ġloc": 1026,
      "ambda": 1027,
      "ward": 1028,
      "Ġte": 1029,
      "ĠCom": 1030,
      "Ġher": 1031,
      "Ġind": 1032,
      "pon": 1033,
      "Ġacc": 1034,
      "irect": 1035,
      "ined": 1036,
      "ious": 1037,
      "meric": 1038,
      "translation": 1039,
      "Ġthan": 1040,
      "Ġact": 1041,
      "Ġmodel": 1042,
      "itle": 1043,
      "Ġunder": 1044,
      "oug": 1045,
      "trib": 1046,
      "yle": 1047,
      "://": 1048,
      "Ġgener": 1049,
      "Ġdist": 1050,
      "ache": 1051,
      "Ġdec": 1052,
      "ho": 1053,
      "Ġthen": 1054,
      ")\\": 1055,
      "sc": 1056,
      "ĠAr": 1057,
      "Ġ`": 1058,
      "item": 1059,
      "orn": 1060,
      "ash": 1061,
      "son": 1062,
      "ider": 1063,
      "Ġoff": 1064,
      "ities": 1065,
      "ask": 1066,
      "ersion": 1067,
      "its": 1068,
      "ince": 1069,
      "Ġfil": 1070,
      "Ġ==": 1071,
      "17": 1072,
      "ature": 1073,
      "val": 1074,
      "Ġx": 1075,
      "Ġ\\\\": 1076,
      "urrent": 1077,
      "Ġuse": 1078,
      "ween": 1079,
      "red": 1080,
      "Ġgo": 1081,
      "Ġco": 1082,
      "ument": 1083,
      "ility": 1084,
      "Ġnull": 1085,
      "ivers": 1086,
      "amma": 1087,
      "AT": 1088,
      "Ġrec": 1089,
      "Ġused": 1090,
      "Ġpol": 1091,
      "Ġno": 1092,
      "Ġcons": 1093,
      "olog": 1094,
      "_\\": 1095,
      "ays": 1096,
      "plic": 1097,
      "ures": 1098,
      "ts": 1099,
      "work": 1100,
      "Ġspec": 1101,
      "ced": 1102,
      "Ġabout": 1103,
      "loc": 1104,
      "ible": 1105,
      "=\\": 1106,
      "Ġval": 1107,
      "ternal": 1108,
      "Ġsome": 1109,
      "mu": 1110,
      "Ġwould": 1111,
      "ished": 1112,
      "vent": 1113,
      "Ġcase": 1114,
      "Ar": 1115,
      "ead": 1116,
      "Ġafter": 1117,
      "13": 1118,
      "read": 1119,
      "ru": 1120,
      "uth": 1121,
      "14": 1122,
      "ĠNew": 1123,
      "serv": 1124,
      "ble": 1125,
      "Ġinst": 1126,
      "pi": 1127,
      "uring": 1128,
      "198": 1129,
      "ists": 1130,
      "ĠPro": 1131,
      "$\\": 1132,
      "Ġprov": 1133,
      "Ġ>": 1134,
      "Ġnumber": 1135,
      "ĠWe": 1136,
      "Ġsim": 1137,
      "ement": 1138,
      "\"><": 1139,
      "dot": 1140,
      "Ġsec": 1141,
      "Ġkn": 1142,
      "oy": 1143,
      "htt": 1144,
      "Ġop": 1145,
      "ctions": 1146,
      "ivate": 1147,
      "Ġbetween": 1148,
      "Ġerr": 1149,
      "Ġshow": 1150,
      "ength": 1151,
      "mathbb": 1152,
      "Ġvoid": 1153,
      "igma": 1154,
      "Ġph": 1155,
      "OR": 1156,
      "25": 1157,
      "ID": 1158,
      "}^{": 1159,
      "}_{": 1160,
      "ages": 1161,
      "Ġrem": 1162,
      "ized": 1163,
      "oot": 1164,
      "hat": 1165,
      "ank": 1166,
      "Ġorg": 1167,
      "back": 1168,
      "):": 1169,
      "epend": 1170,
      "ega": 1171,
      "ier": 1172,
      "Ġli": 1173,
      "ee": 1174,
      "Ġour": 1175,
      "arn": 1176,
      "org": 1177,
      "not": 1178,
      "ision": 1179,
      "bf": 1180,
      "align": 1181,
      "AR": 1182,
      "Tr": 1183,
      "ĠAl": 1184,
      "wn": 1185,
      "ĠĠĠĠĠĠĠĠĠĠĠĠĠĠĠĠĠĠĠĠĠĠĠĠĠĠĠĠĠĠĠĠ": 1186,
      "orld": 1187,
      "ient": 1188,
      "Ġ)": 1189,
      "Ġserv": 1190,
      "section": 1191,
      "ĠâĢľ": 1192,
      "LE": 1193,
      "Ġdiffer": 1194,
      "string": 1195,
      "Ġtrue": 1196,
      "ptions": 1197,
      "ices": 1198,
      "ole": 1199,
      "Ġcre": 1200,
      "-\\": 1201,
      "ym": 1202,
      "Ġfalse": 1203,
      "air": 1204,
      "));": 1205,
      "for": 1206,
      "Ġent": 1207,
      "ally": 1208,
      "Ġequ": 1209,
      "ey": 1210,
      "Ġmay": 1211,
      "Ġbec": 1212,
      "tem": 1213,
      "ily": 1214,
      "ower": 1215,
      "bject": 1216,
      "ĠQ": 1217,
      "iven": 1218,
      "apt": 1219,
      "rr": 1220,
      "log": 1221,
      "ren": 1222,
      "Ġcor": 1223,
      "Ġchar": 1224,
      "wh": 1225,
      "Ġsystem": 1226,
      "Refer": 1227,
      "ĠĠĠĠĠĠĠĠĠĠĠĠĠ": 1228,
      "phi": 1229,
      "Ġeach": 1230,
      "rough": 1231,
      "Ġfe": 1232,
      "aramet": 1233,
      "Ġtest": 1234,
      "Ġprodu": 1235,
      "Ġdev": 1236,
      "Ġ--": 1237,
      "Ġfinal": 1238,
      "^{\\": 1239,
      "Ġgr": 1240,
      "Ġpeople": 1241,
      "----------------": 1242,
      "data": 1243,
      "ines": 1244,
      "sert": 1245,
      "ĠĠĠĠĠĠ": 1246,
      "ĠAmeric": 1247,
      "ever": 1248,
      "br": 1249,
      "self": 1250,
      "file": 1251,
      "Ġstud": 1252,
      "ars": 1253,
      "ĠCon": 1254,
      "\");": 1255,
      "ava": 1256,
      "Ġshe": 1257,
      "Ġest": 1258,
      "any": 1259,
      "ule": 1260,
      "lambda": 1261,
      "********": 1262,
      "Ġback": 1263,
      "mathbf": 1264,
      "To": 1265,
      "Ġhigh": 1266,
      "perty": 1267,
      "ments": 1268,
      "Ġthese": 1269,
      "ization": 1270,
      "ause": 1271,
      "Ġpoint": 1272,
      "Data": 1273,
      "mall": 1274,
      "Ġelse": 1275,
      "ĠAs": 1276,
      "umn": 1277,
      "Ġinv": 1278,
      "Ġ{\\": 1279,
      "pre": 1280,
      "oci": 1281,
      "197": 1282,
      "chool": 1283,
      "yp": 1284,
      "Ġcal": 1285,
      "SS": 1286,
      "arget": 1287,
      "ins": 1288,
      "width": 1289,
      "Ġac": 1290,
      "press": 1291,
      "Ġoper": 1292,
      "Ġmost": 1293,
      "30": 1294,
      "man": 1295,
      "ric": 1296,
      "AL": 1297,
      "Ġstate": 1298,
      "ting": 1299,
      "Col": 1300,
      "Value": 1301,
      "Ġmethod": 1302,
      "part": 1303,
      "ĠFor": 1304,
      "ĠĠĠĠĠĠĠĠĠĠĠĠĠĠĠĠĠĠĠĠĠĠĠ": 1305,
      "Ġfield": 1306,
      "EN": 1307,
      "ĠAn": 1308,
      "vel": 1309,
      "32": 1310,
      "uss": 1311,
      "ody": 1312,
      "value": 1313,
      "Ġeff": 1314,
      "ĠZ": 1315,
      "ĠSh": 1316,
      "ason": 1317,
      "az": 1318,
      "ough": 1319,
      "ted": 1320,
      "21": 1321,
      "Ġed": 1322,
      "ired": 1323,
      "oh": 1324,
      "Ġsign": 1325,
      "view": 1326,
      "Ġmod": 1327,
      "uff": 1328,
      "ilon": 1329,
      "array": 1330,
      "Ġthem": 1331,
      "aid": 1332,
      "ote": 1333,
      "\")": 1334,
      "px": 1335,
      "be": 1336,
      "References": 1337,
      "Ġass": 1338,
      "Ġ/**": 1339,
      "Ġthrough": 1340,
      "000": 1341,
      "Ġrep": 1342,
      "lient": 1343,
      "Ġsol": 1344,
      "Set": 1345,
      "Ġstring": 1346,
      "Ġ&&": 1347,
      "ces": 1348,
      "lang": 1349,
      "Ġam": 1350,
      "new": 1351,
      "Ġext": 1352,
      "Ġgroup": 1353,
      "ik": 1354,
      "Ġusing": 1355,
      "abl": 1356,
      "////": 1357,
      "ĠSe": 1358,
      "22": 1359,
      "Ġsame": 1360,
      "Ġfound": 1361,
      "Ġcent": 1362,
      "Ġser": 1363,
      "========": 1364,
      "iver": 1365,
      "lection": 1366,
      "ream": 1367,
      "ner": 1368,
      "ĠTr": 1369,
      "struct": 1370,
      "sigma": 1371,
      "date": 1372,
      "ball": 1373,
      "beta": 1374,
      "50": 1375,
      "play": 1376,
      "];": 1377,
      "Ġmin": 1378,
      "iversity": 1379,
      "test": 1380,
      "rol": 1381,
      "ten": 1382,
      "ism": 1383,
      "ential": 1384,
      "Ġwell": 1385,
      "includ": 1386,
      "Ġcomple": 1387,
      "ader": 1388,
      "Ġem": 1389,
      "Exception": 1390,
      "Ġlist": 1391,
      "Ġ(\\": 1392,
      "gy": 1393,
      "')": 1394,
      "ĠX": 1395,
      "ilde": 1396,
      "cont": 1397,
      "nb": 1398,
      "arent": 1399,
      "par": 1400,
      "Ġobject": 1401,
      "En": 1402,
      "We": 1403,
      "Ġappro": 1404,
      "ger": 1405,
      "by": 1406,
      "Ġstart": 1407,
      "ah": 1408,
      "ccess": 1409,
      "elop": 1410,
      "ets": 1411,
      "Ġfile": 1412,
      "let": 1413,
      "eps": 1414,
      "Ġnon": 1415,
      "pp": 1416,
      "Err": 1417,
      "rib": 1418,
      "action": 1419,
      "co": 1420,
      "atus": 1421,
      "Ġyears": 1422,
      "196": 1423,
      "DE": 1424,
      "face": 1425,
      "($": 1426,
      "ww": 1427,
      "}{\\": 1428,
      "Ġagain": 1429,
      "Ġstatic": 1430,
      "ified": 1431,
      "^{-": 1432,
      "ify": 1433,
      "ouse": 1434,
      "me": 1435,
      "Ġfl": 1436,
      "ĠCol": 1437,
      "Object": 1438,
      "uc": 1439,
      "other": 1440,
      "ife": 1441,
      "mary": 1442,
      "location": 1443,
      "Ġ///": 1444,
      "requ": 1445,
      "aj": 1446,
      "ically": 1447,
      "ĠEx": 1448,
      "til": 1449,
      "figure": 1450,
      "order": 1451,
      "ency": 1452,
      "size": 1453,
      "ler": 1454,
      "ĠInd": 1455,
      "Ġwhile": 1456,
      "irc": 1457,
      "Ġboth": 1458,
      "Ġmat": 1459,
      "*}": 1460,
      "roid": 1461,
      "Ġorder": 1462,
      "Ġgiven": 1463,
      "mathrm": 1464,
      "Ġsing": 1465,
      "fore": 1466,
      "Ġprivate": 1467,
      "nbsp": 1468,
      "Un": 1469,
      "overn": 1470,
      "Ġsecond": 1471,
      "orth": 1472,
      "ron": 1473,
      "ared": 1474,
      "ale": 1475,
      "gamma": 1476,
      "CT": 1477,
      "ury": 1478,
      "Ġdirect": 1479,
      "Ġfollowing": 1480,
      "SE": 1481,
      "Ġkey": 1482,
      "cept": 1483,
      "Ġpartic": 1484,
      "As": 1485,
      "Test": 1486,
      "+\\": 1487,
      "ector": 1488,
      "]{": 1489,
      "],": 1490,
      "Ġ!=": 1491,
      "ives": 1492,
      "mod": 1493,
      "reat": 1494,
      "Ġthree": 1495,
      "script": 1496,
      "outh": 1497,
      "Ġhim": 1498,
      "erson": 1499,
      "heck": 1500,
      "24": 1501,
      "For": 1502,
      "Ġ%": 1503,
      "ĠString": 1504,
      "Ġlong": 1505,
      "Ġshould": 1506,
      "way": 1507,
      "._": 1508,
      "Ġlink": 1509,
      "Ġhow": 1510,
      "Ġterm": 1511,
      "Ġdifferent": 1512,
      "Ġdr": 1513,
      "roll": 1514,
      "formation": 1515,
      "ense": 1516,
      "IT": 1517,
      "Ġperform": 1518,
      "...": 1519,
      "dis": 1520,
      "Ġz": 1521,
      "fl": 1522,
      "ants": 1523,
      "Cont": 1524,
      "().": 1525,
      "By": 1526,
      "att": 1527,
      "try": 1528,
      "^\\": 1529,
      "rc": 1530,
      "Ġdet": 1531,
      "ister": 1532,
      "Ġneed": 1533,
      "reg": 1534,
      "Ġsur": 1535,
      "uch": 1536,
      "ident": 1537,
      "dition": 1538,
      "table": 1539,
      "At": 1540,
      "bers": 1541,
      "Ġu": 1542,
      "sec": 1543,
      "raw": 1544,
      "ĠAmerican": 1545,
      "ases": 1546,
      "ful": 1547,
      "itial": 1548,
      "AN": 1549,
      "delta": 1550,
      "ott": 1551,
      "Ind": 1552,
      "ional": 1553,
      "Ã©": 1554,
      "Ġever": 1555,
      ")}": 1556,
      "Get": 1557,
      "());": 1558,
      "Ġrun": 1559,
      "Ġbeing": 1560,
      "Ġright": 1561,
      "ived": 1562,
      "Error": 1563,
      "Ġduring": 1564,
      "Ġfr": 1565,
      "sy": 1566,
      "100": 1567,
      "Ġcurrent": 1568,
      "theta": 1569,
      "function": 1570,
      "Ġbr": 1571,
      "time": 1572,
      "Ġarg": 1573,
      "Ġatt": 1574,
      "inter": 1575,
      "link": 1576,
      "Ġparamet": 1577,
      "ains": 1578,
      "Ġdescri": 1579,
      "leq": 1580,
      "Im": 1581,
      "On": 1582,
      "ME": 1583,
      "ground": 1584,
      "rho": 1585,
      "util": 1586,
      "Ġsupport": 1587,
      "ural": 1588,
      "top": 1589,
      "med": 1590,
      "tau": 1591,
      "arly": 1592,
      "Ġart": 1593,
      "Ġmany": 1594,
      "Ġfact": 1595,
      "Ġbefore": 1596,
      "lob": 1597,
      "etwork": 1598,
      "cdot": 1599,
      "ĠĠĠĠĊ": 1600,
      "An": 1601,
      "ather": 1602,
      "gram": 1603,
      "public": 1604,
      "40": 1605,
      "CO": 1606,
      "go": 1607,
      "ral": 1608,
      "ocument": 1609,
      "ĉĉĉĉĉ": 1610,
      "Class": 1611,
      "Ġfam": 1612,
      ".\"": 1613,
      "ĠUniversity": 1614,
      "Ġconsider": 1615,
      "ross": 1616,
      "$-": 1617,
      "color": 1618,
      "field": 1619,
      "Sh": 1620,
      "rix": 1621,
      "reak": 1622,
      "ĠFr": 1623,
      "pace": 1624,
      "Ġtitle": 1625,
      "Ġwrit": 1626,
      "ĠUnited": 1627,
      "File": 1628,
      "ane": 1629,
      "af": 1630,
      "rop": 1631,
      "ulation": 1632,
      "Ġsee": 1633,
      "Ġdisc": 1634,
      "}$,": 1635,
      "Ġrele": 1636,
      "index": 1637,
      "Ġcall": 1638,
      "list": 1639,
      "ager": 1640,
      "ected": 1641,
      "aining": 1642,
      "rite": 1643,
      "que": 1644,
      "arrow": 1645,
      "nav": 1646,
      "mbol": 1647,
      "eqref": 1648,
      "Ġmade": 1649,
      "url": 1650,
      "ission": 1651,
      "Ġprocess": 1652,
      "Ġapp": 1653,
      "lay": 1654,
      "Ġmain": 1655,
      "}(\\": 1656,
      ".</": 1657,
      "Ġmed": 1658,
      "arge": 1659,
      "rem": 1660,
      "Ġhand": 1661,
      "Ġcoun": 1662,
      "23": 1663,
      "ĠIs": 1664,
      "Ġimport": 1665,
      "istory": 1666,
      "center": 1667,
      "}$.": 1668,
      "times": 1669,
      "js": 1670,
      "ively": 1671,
      "Ġlike": 1672,
      "Ġbel": 1673,
      "['": 1674,
      "big": 1675,
      "\";": 1676,
      "View": 1677,
      "ĠIf": 1678,
      "Ġbuild": 1679,
      "ality": 1680,
      "space": 1681,
      "Ġstruct": 1682,
      "indow": 1683,
      "iving": 1684,
      "Ġresp": 1685,
      "Ġsaid": 1686,
      "');": 1687,
      "Key": 1688,
      "\"></": 1689,
      "Ġjust": 1690,
      "Ġmem": 1691,
      "ots": 1692,
      "her": 1693,
      "Ġnow": 1694,
      "Ġelement": 1695,
      "pm": 1696,
      "Ġsize": 1697,
      "comm": 1698,
      "path": 1699,
      "quad": 1700,
      "summary": 1701,
      ".,": 1702,
      "Ġexpect": 1703,
      "Ġcould": 1704,
      "Ġdevelop": 1705,
      "ology": 1706,
      "load": 1707,
      "Ġcontin": 1708,
      "oad": 1709,
      "Ġmon": 1710,
      "Requ": 1711,
      "Ġwhat": 1712,
      "ĠĠĊ": 1713,
      "ush": 1714,
      "http": 1715,
      "mp": 1716,
      "UL": 1717,
      "ina": 1718,
      "ĠLe": 1719,
      "Ġbecause": 1720,
      "umer": 1721,
      "ability": 1722,
      "ĠSc": 1723,
      "partial": 1724,
      "ning": 1725,
      "void": 1726,
      "efore": 1727,
      "};": 1728,
      "chi": 1729,
      "Ġfin": 1730,
      "Ġteam": 1731,
      "usic": 1732,
      "ervice": 1733,
      "Ġpop": 1734,
      "Ġorig": 1735,
      "']": 1736,
      "pert": 1737,
      "'t": 1738,
      "uration": 1739,
      "(),": 1740,
      "Ġown": 1741,
      "Ġdoes": 1742,
      "Ġlead": 1743,
      "Ġmet": 1744,
      "Ġpass": 1745,
      "au": 1746,
      "ĠDe": 1747,
      "64": 1748,
      "Ġvari": 1749,
      "AC": 1750,
      "Ġlocal": 1751,
      "uthor": 1752,
      "Ġsmall": 1753,
      "ually": 1754,
      "Ġresults": 1755,
      "ograph": 1756,
      "Ġevent": 1757,
      "Ġsince": 1758,
      "Ġbo": 1759,
      "Ġread": 1760,
      "Ġeffect": 1761,
      "33": 1762,
      "!--": 1763,
      "Ġpar": 1764,
      "gor": 1765,
      "group": 1766,
      "Ġ$(": 1767,
      "search": 1768,
      "ĠOn": 1769,
      "|\\": 1770,
      "ohn": 1771,
      "tilde": 1772,
      "Ġmov": 1773,
      "Ġlast": 1774,
      "opy": 1775,
      "Ġrecord": 1776,
      "ĠComm": 1777,
      "This": 1778,
      "nu": 1779,
      "=\"../../": 1780,
      "Âł": 1781,
      "sk": 1782,
      "aces": 1783,
      "\":": 1784,
      "Ġbeg": 1785,
      "Ġerror": 1786,
      "resp": 1787,
      "met": 1788,
      "ship": 1789,
      "Int": 1790,
      "uffer": 1791,
      "fty": 1792,
      "istr": 1793,
      "\".": 1794,
      "Ġrepresent": 1795,
      "less": 1796,
      "ior": 1797,
      "ober": 1798,
      "unc": 1799,
      "infty": 1800,
      "quot": 1801,
      "Ġmake": 1802,
      "itor": 1803,
      "Ġevery": 1804,
      "omega": 1805,
      "els": 1806,
      "27": 1807,
      "ubl": 1808,
      "const": 1809,
      "Al": 1810,
      "Ġappe": 1811,
      "ĠEng": 1812,
      "194": 1813,
      "Time": 1814,
      "RO": 1815,
      "].": 1816,
      "Ġ);": 1817,
      "pack": 1818,
      "Ġtem": 1819,
      "Ġfind": 1820,
      "bo": 1821,
      "omen": 1822,
      "Ġtop": 1823,
      "lp": 1824,
      "sq": 1825,
      "rt": 1826,
      "ape": 1827,
      "iter": 1828,
      "Ġexample": 1829,
      "lack": 1830,
      "ek": 1831,
      "oss": 1832,
      "Ġincluding": 1833,
      "Ġgu": 1834,
      "Ph": 1835,
      "aking": 1836,
      "Ġknown": 1837,
      "tab": 1838,
      "Delta": 1839,
      "ood": 1840,
      "Ġmult": 1841,
      "=\"+": 1842,
      "Ġpresent": 1843,
      "/*": 1844,
      "enn": 1845,
      "ĠMar": 1846,
      "ĠStates": 1847,
      "chn": 1848,
      "Ġ,": 1849,
      "ustr": 1850,
      "Ġbro": 1851,
      "vious": 1852,
      "ports": 1853,
      "Ġfour": 1854,
      "26": 1855,
      "PE": 1856,
      "28": 1857,
      "Ġlinks": 1858,
      "fin": 1859,
      "length": 1860,
      "Ġchild": 1861,
      "idd": 1862,
      "map": 1863,
      "Def": 1864,
      "agn": 1865,
      "position": 1866,
      "Ġallow": 1867,
      "off": 1868,
      "ats": 1869,
      "Ġ?": 1870,
      "Ġbound": 1871,
      "/**": 1872,
      "ification": 1873,
      "Text": 1874,
      "user": 1875,
      "195": 1876,
      "por": 1877,
      "ponse": 1878,
      "Ġpres": 1879,
      "Element": 1880,
      "ION": 1881,
      "arm": 1882,
      "Ġobtain": 1883,
      "Event": 1884,
      "Ġmy": 1885,
      "Ġ/>": 1886,
      "angle": 1887,
      "ĠRes": 1888,
      "Qu": 1889,
      "vert": 1890,
      "Ġopen": 1891,
      "ience": 1892,
      "Ġincre": 1893,
      "Ġlater": 1894,
      "une": 1895,
      "ĠCl": 1896,
      "External": 1897,
      "Node": 1898,
      "':": 1899,
      "xi": 1900,
      "tribute": 1901,
      "md": 1902,
      "Ġvery": 1903,
      "ootball": 1904,
      "Ġyour": 1905,
      "ĠShe": 1906,
      "TE": 1907,
      "Request": 1908,
      "Ġleft": 1909,
      "Ġbased": 1910,
      "Ġexper": 1911,
      "acter": 1912,
      "Ġvalues": 1913,
      "ĠPh": 1914,
      "where": 1915,
      "Ġgovern": 1916,
      "Path": 1917,
      "``": 1918,
      "Ġaut": 1919,
      "ided": 1920,
      "dt": 1921,
      "ĠHow": 1922,
      "no": 1923,
      "urs": 1924,
      "ital": 1925,
      "ĠPr": 1926,
      "ogle": 1927,
      "odes": 1928,
      "Ġdistrib": 1929,
      "igned": 1930,
      "ley": 1931,
      "cale": 1932,
      "Ġanal": 1933,
      "Ġthrow": 1934,
      "node": 1935,
      "imit": 1936,
      "Ġassert": 1937,
      "IC": 1938,
      "Add": 1939,
      "Ġeven": 1940,
      "Man": 1941,
      "Ġcalled": 1942,
      "ension": 1943,
      "adi": 1944,
      "ness": 1945,
      "Ġrefer": 1946,
      "Ġposs": 1947,
      "ides": 1948,
      "amed": 1949,
      "2018": 1950,
      "ained": 1951,
      "Ġagainst": 1952,
      "Ġfilm": 1953,
      "Ġrece": 1954,
      "LA": 1955,
      "2016": 1956,
      "Not": 1957,
      "Index": 1958,
      "Ġinformation": 1959,
      "olean": 1960,
      "Ġref": 1961,
      "eqn": 1962,
      "lem": 1963,
      "bed": 1964,
      "State": 1965,
      "Ġproble": 1966,
      "Ġ/*": 1967,
      "Item": 1968,
      "lear": 1969,
      "ope": 1970,
      "etail": 1971,
      "stance": 1972,
      "pty": 1973,
      "2017": 1974,
      "Info": 1975,
      "Ġdid": 1976,
      "Ġcondition": 1977,
      "ormal": 1978,
      "but": 1979,
      "tribut": 1980,
      "ari": 1981,
      "inc": 1982,
      "arri": 1983,
      "With": 1984,
      "vir": 1985,
      "cit": 1986,
      "Field": 1987,
      "}[": 1988,
      "Equ": 1989,
      "olution": 1990,
      "ival": 1991,
      "tract": 1992,
      "())": 1993,
      "Ġschool": 1994,
      "Ġthose": 1995,
      "orem": 1996,
      "bum": 1997,
      "Ġrequest": 1998,
      "hip": 1999,
      "cription": 2000,
      "side": 2001,
      "model": 2002,
      "Ġmust": 2003,
      "des": 2004,
      "Ġtarget": 2005,
      "ai": 2006,
      "alth": 2007,
      "box": 2008,
      "ret": 2009,
      "29": 2010,
      "Ġelect": 2011,
      "uro": 2012,
      "Context": 2013,
      "ĠOr": 2014,
      "amespace": 2015,
      "perties": 2016,
      "result": 2017,
      "Ġvis": 2018,
      "Ġplayers": 2019,
      "Ġtext": 2020,
      "Ġexp": 2021,
      "Ġcommun": 2022,
      "Or": 2023,
      "Config": 2024,
      "Ġlarge": 2025,
      "plication": 2026,
      "see": 2027,
      "TR": 2028,
      "ends": 2029,
      "Ġposition": 2030,
      "max": 2031,
      "Map": 2032,
      "Ġarray": 2033,
      "sim": 2034,
      "ĠAt": 2035,
      "ird": 2036,
      "2015": 2037,
      "ĠAnd": 2038,
      "Ġlevel": 2039,
      "lobal": 2040,
      "Ġmeas": 2041,
      "Form": 2042,
      "respond": 2043,
      "Array": 2044,
      "ĠBr": 2045,
      "Ġcomput": 2046,
      "Ġdep": 2047,
      "Over": 2048,
      "}}\\": 2049,
      ")$.": 2050,
      "day": 2051,
      "omet": 2052,
      "inition": 2053,
      "ternational": 2054,
      "Ġ-->": 2055,
      "ĠMay": 2056,
      "ounty": 2057,
      "Ġseries": 2058,
      "Ġ(!": 2059,
      "Ġway": 2060,
      "icon": 2061,
      "2014": 2062,
      "ĠĠĠĠĠĠĠĠĠĠĠĠĠĠĠĠĠĠĠĠĠĠĠĠĠĠĠ": 2063,
      "ride": 2064,
      "2019": 2065,
      "He": 2066,
      "\\,": 2067,
      "bs": 2068,
      "ene": 2069,
      "Ġident": 2070,
      "ination": 2071,
      "textbf": 2072,
      "$$": 2073,
      "config": 2074,
      "ui": 2075,
      "Ġlog": 2076,
      "word": 2077,
      "input": 2078,
      "ilter": 2079,
      "iled": 2080,
      "Om": 2081,
      "ĠJohn": 2082,
      "olv": 2083,
      "api": 2084,
      "ĠGr": 2085,
      "uage": 2086,
      "duct": 2087,
      "uf": 2088,
      "urch": 2089,
      "ession": 2090,
      "ised": 2091,
      "60": 2092,
      "Ġrespect": 2093,
      "Ġprogram": 2094,
      "Ġworld": 2095,
      "aint": 2096,
      "iction": 2097,
      "come": 2098,
      "ources": 2099,
      "ponent": 2100,
      "Re": 2101,
      "capt": 2102,
      "Ġmax": 2103,
      "PI": 2104,
      "comp": 2105,
      "urther": 2106,
      "Ġsever": 2107,
      "https": 2108,
      "Ġlet": 2109,
      "ths": 2110,
      "Ġtyp": 2111,
      "from": 2112,
      "alk": 2113,
      "ended": 2114,
      "';": 2115,
      "Ġcr": 2116,
      "Ġgeneral": 2117,
      "Ġsingle": 2118,
      "sw": 2119,
      "Service": 2120,
      "Ġpath": 2121,
      "Ġreal": 2122,
      "raphics": 2123,
      "Ġestabl": 2124,
      "ague": 2125,
      "ĠNational": 2126,
      "Ġ},": 2127,
      "Ġinput": 2128,
      "Ġmap": 2129,
      "mat": 2130,
      "ttp": 2131,
      "ĠAd": 2132,
      "Ġ});": 2133,
      "Ġlaw": 2134,
      "Ġstand": 2135,
      "akes": 2136,
      "Ġspace": 2137,
      "error": 2138,
      "ait": 2139,
      "ety": 2140,
      "Ġversion": 2141,
      "Omega": 2142,
      "Des": 2143,
      "Ġnext": 2144,
      "plit": 2145,
      "Ġseason": 2146,
      "ĠWorld": 2147,
      "object": 2148,
      "}_{\\": 2149,
      "Ġprot": 2150,
      "aster": 2151,
      "Ġexpl": 2152,
      "ison": 2153,
      "Ġ:=": 2154,
      "....": 2155,
      "Ġmark": 2156,
      "epsilon": 2157,
      "enu": 2158,
      "Ġdi": 2159,
      "energy": 2160,
      "Ġmass": 2161,
      "ĠSp": 2162,
      "Ġocc": 2163,
      "ift": 2164,
      "Ġdefault": 2165,
      "true": 2166,
      "iod": 2167,
      "mit": 2168,
      "block": 2169,
      "point": 2170,
      "ero": 2171,
      "with": 2172,
      "sup": 2173,
      "Ġfamily": 2174,
      "iness": 2175,
      "Size": 2176,
      "FF": 2177,
      "eter": 2178,
      "head": 2179,
      "ĠYork": 2180,
      "80": 2181,
      "Ġknow": 2182,
      "Result": 2183,
      "Ġaddition": 2184,
      "ĠCan": 2185,
      "Ġwithin": 2186,
      "ches": 2187,
      "itive": 2188,
      "ately": 2189,
      "apache": 2190,
      "Ġinitial": 2191,
      "title": 2192,
      "2010": 2193,
      "cm": 2194,
      "ajor": 2195,
      "psi": 2196,
      "####": 2197,
      "Ġoriginal": 2198,
      "uck": 2199,
      "Ġstyle": 2200,
      "ĠFig": 2201,
      "UR": 2202,
      "ators": 2203,
      "2013": 2204,
      "Ġproject": 2205,
      "Ġdown": 2206,
      "tal": 2207,
      "rodu": 2208,
      "ony": 2209,
      "caption": 2210,
      "Ġuser": 2211,
      "next": 2212,
      "ances": 2213,
      "Ġblock": 2214,
      "Ġpower": 2215,
      "Ġcontent": 2216,
      "Ġopt": 2217,
      "valid": 2218,
      "\"\"": 2219,
      "acy": 2220,
      "ĠWh": 2221,
      "Ġobserv": 2222,
      "nder": 2223,
      "rel": 2224,
      "****************": 2225,
      "Ġview": 2226,
      "Fr": 2227,
      "body": 2228,
      "assert": 2229,
      "ĠRe": 2230,
      "ags": 2231,
      "ilt": 2232,
      "++": 2233,
      "ocus": 2234,
      "2011": 2235,
      "Ġcare": 2236,
      "ustom": 2237,
      "Ġnetwork": 2238,
      "plate": 2239,
      "ixed": 2240,
      "AD": 2241,
      "Hand": 2242,
      "^*": 2243,
      "Ġnode": 2244,
      "2012": 2245,
      "Ġpolit": 2246,
      "Ġlife": 2247,
      "ivity": 2248,
      "rist": 2249,
      "Ġuntil": 2250,
      "Ġav": 2251,
      "ync": 2252,
      "eturn": 2253,
      "ilar": 2254,
      "ording": 2255,
      "Build": 2256,
      "Ġalbum": 2257,
      "ĠCent": 2258,
      "Ġassum": 2259,
      "ĠJul": 2260,
      "35": 2261,
      "bold": 2262,
      "Ġsum": 2263,
      "my": 2264,
      "stru": 2265,
      "gorith": 2266,
      "Of": 2267,
      "ĠčĊ": 2268,
      "abled": 2269,
      "psilon": 2270,
      "Code": 2271,
      "ored": 2272,
      "Ġorgan": 2273,
      "ploy": 2274,
      ")$,": 2275,
      "LO": 2276,
      "ĠJan": 2277,
      "ouble": 2278,
      "state": 2279,
      "Ġinteg": 2280,
      "subsection": 2281,
      "Ġcap": 2282,
      "ĠCar": 2283,
      "sqrt": 2284,
      "AS": 2285,
      "ling": 2286,
      "Ġdue": 2287,
      "Ġcheck": 2288,
      "ĠâĢĶ": 2289,
      "wards": 2290,
      "posed": 2291,
      "Ġhead": 2292,
      "='": 2293,
      "Ġbreak": 2294,
      "Ġaround": 2295,
      "Ġplace": 2296,
      "Ġcorrespond": 2297,
      "light": 2298,
      "Ġsuccess": 2299,
      "ians": 2300,
      "gt": 2301,
      "create": 2302,
      "Ġmuch": 2303,
      "style": 2304,
      "Ġ===": 2305,
      "34": 2306,
      "Ġbook": 2307,
      "lin": 2308,
      "Ġhere": 2309,
      "Ġcontext": 2310,
      "aper": 2311,
      "ection": 2312,
      "Ġbecame": 2313,
      "version": 2314,
      "sl": 2315,
      "ĠBrit": 2316,
      "nection": 2317,
      "Ġpost": 2318,
      "Ġdepend": 2319,
      "ium": 2320,
      "aim": 2321,
      "atures": 2322,
      "Ġstill": 2323,
      "IS": 2324,
      "ĠPl": 2325,
      "Ġcour": 2326,
      "[]": 2327,
      "aving": 2328,
      "itt": 2329,
      "pression": 2330,
      "Ġtri": 2331,
      "hes": 2332,
      "liam": 2333,
      "Ġarea": 2334,
      "imal": 2335,
      "default": 2336,
      "icy": 2337,
      "Ġperson": 2338,
      "symbol": 2339,
      "Ġseveral": 2340,
      "ij": 2341,
      "Ġbase": 2342,
      "eqnarray": 2343,
      "Message": 2344,
      "ottom": 2345,
      "Ġfootball": 2346,
      "Ġann": 2347,
      "aut": 2348,
      "Ġinstance": 2349,
      "90": 2350,
      "Ġcode": 2351,
      "UT": 2352,
      "itch": 2353,
      "////////": 2354,
      "ĠWar": 2355,
      "Ġabove": 2356,
      "Ġconf": 2357,
      "=\"../../../../": 2358,
      "ĠHowever": 2359,
      "ĠSchool": 2360,
      "ĠAll": 2361,
      "All": 2362,
      "Ġnear": 2363,
      "plement": 2364,
      "Ġhelp": 2365,
      "Ġalong": 2366,
      "loat": 2367,
      "Ġreport": 2368,
      "ĠGe": 2369,
      "ĠSystem": 2370,
      "Ġestim": 2371,
      "vare": 2372,
      "Ġwithout": 2373,
      "ML": 2374,
      "bm": 2375,
      "eff": 2376,
      "uary": 2377,
      "java": 2378,
      "ĠWest": 2379,
      "ailable": 2380,
      "Gamma": 2381,
      "illion": 2382,
      "usiness": 2383,
      "ĠÐ": 2384,
      "Val": 2385,
      "ugg": 2386,
      "oper": 2387,
      "lt": 2388,
      "Ġdefined": 2389,
      "Ġexist": 2390,
      "Ġoffic": 2391,
      "reate": 2392,
      "Cell": 2393,
      "Ġadv": 2394,
      "Ġcreate": 2395,
      "ĠMan": 2396,
      "ĠNov": 2397,
      "ĠCounty": 2398,
      "Ġmusic": 2399,
      "Ġiss": 2400,
      "Ġconfig": 2401,
      "ansp": 2402,
      "IG": 2403,
      "ched": 2404,
      ".âĢĿ": 2405,
      "ĠRep": 2406,
      "Model": 2407,
      "Ġindex": 2408,
      "Ġjava": 2409,
      "Ġold": 2410,
      "start": 2411,
      "Is": 2412,
      "It": 2413,
      "Ġgame": 2414,
      "Ġenergy": 2415,
      "Ġchang": 2416,
      "varepsilon": 2417,
      "Ġ__": 2418,
      "down": 2419,
      "Ġdem": 2420,
      "AB": 2421,
      "erman": 2422,
      "2009": 2423,
      "ĠPar": 2424,
      "ourn": 2425,
      "Ġsource": 2426,
      "ables": 2427,
      "ateg": 2428,
      "rec": 2429,
      "Ġbas": 2430,
      "Ġenc": 2431,
      "ĠSouth": 2432,
      "ĠPol": 2433,
      "ĠThey": 2434,
      "define": 2435,
      "ump": 2436,
      "base": 2437,
      "Ġstat": 2438,
      "Ġbeh": 2439,
      "egraphics": 2440,
      "ĠEn": 2441,
      "includegraphics": 2442,
      "elect": 2443,
      "Ġtake": 2444,
      "ĠReg": 2445,
      ">&": 2446,
      "non": 2447,
      "99": 2448,
      "dom": 2449,
      "Ġcharacter": 2450,
      "dev": 2451,
      "Ġbir": 2452,
      "arning": 2453,
      "Ġpat": 2454,
      "uk": 2455,
      "ords": 2456,
      "Ġsong": 2457,
      "Ġden": 2458,
      "75": 2459,
      "Ð°": 2460,
      "Ġprevious": 2461,
      "icle": 2462,
      "Ġparticular": 2463,
      "Loc": 2464,
      "Ġcontrol": 2465,
      "Ġ};": 2466,
      "ibr": 2467,
      "ued": 2468,
      "ume": 2469,
      "urity": 2470,
      "ED": 2471,
      "Ġsrc": 2472,
      "tn": 2473,
      "Ġinclude": 2474,
      "ules": 2475,
      "MA": 2476,
      "www": 2477,
      "Ġlarg": 2478,
      "ynam": 2479,
      "Ġdom": 2480,
      "ware": 2481,
      "ique": 2482,
      "Ġ${\\": 2483,
      "From": 2484,
      "2008": 2485,
      "aus": 2486,
      "ensure": 2487,
      "Ġdeath": 2488,
      "info": 2489,
      "bit": 2490,
      "^{(": 2491,
      "ĠCal": 2492,
      "hold": 2493,
      "ugust": 2494,
      "MP": 2495,
      "ptember": 2496,
      "andom": 2497,
      "iment": 2498,
      "tes": 2499,
      "annel": 2500,
      "istor": 2501,
      "roller": 2502,
      "New": 2503,
      "oin": 2504,
      "ux": 2505,
      "Ġtry": 2506,
      "mber": 2507,
      "}=": 2508,
      "semb": 2509,
      "uments": 2510,
      "ĠMin": 2511,
      "ĠState": 2512,
      "lim": 2513,
      "ĠUS": 2514,
      "lected": 2515,
      "ĠOct": 2516,
      "content": 2517,
      "31": 2518,
      "ustral": 2519,
      "Log": 2520,
      "tings": 2521,
      "ĠWil": 2522,
      "Out": 2523,
      "Ġsection": 2524,
      "Ġsat": 2525,
      "Ser": 2526,
      "Comm": 2527,
      "ING": 2528,
      "Pl": 2529,
      "Ġtotal": 2530,
      "39": 2531,
      "Ġmeasure": 2532,
      "viron": 2533,
      "Ġassoci": 2534,
      "ken": 2535,
      "ĠYou": 2536,
      "ULL": 2537,
      "ET": 2538,
      "Ġinterest": 2539,
      "oman": 2540,
      "ideo": 2541,
      "''": 2542,
      "--------------------------------": 2543,
      "Ġitem": 2544,
      "iev": 2545,
      "ender": 2546,
      "45": 2547,
      "Ġleg": 2548,
      "aterial": 2549,
      "cast": 2550,
      "pril": 2551,
      "Ġdat": 2552,
      "bl": 2553,
      "imum": 2554,
      "CH": 2555,
      "emph": 2556,
      "option": 2557,
      "Ġwant": 2558,
      "System": 2559,
      "ĠĠĠĠĠĠĠĠĠĠĠĠ": 2560,
      ")=": 2561,
      "36": 2562,
      "ĠMarch": 2563,
      "prot": 2564,
      "atter": 2565,
      "Ġtechn": 2566,
      "include": 2567,
      "Ġgovernment": 2568,
      "arr": 2569,
      "Ġ()": 2570,
      "}^{\\": 2571,
      "aced": 2572,
      "Ġbest": 2573,
      "Up": 2574,
      ")(": 2575,
      "Manager": 2576,
      "urope": 2577,
      "ĉĉĉĉĉĉ": 2578,
      "Ġproperty": 2579,
      "Ġcur": 2580,
      "Ġservice": 2581,
      "ocial": 2582,
      "mult": 2583,
      "ĠTo": 2584,
      "tainer": 2585,
      "stit": 2586,
      "Ġanother": 2587,
      "ram": 2588,
      "utions": 2589,
      "df": 2590,
      "Ġdel": 2591,
      "TD": 2592,
      "Ġ($": 2593,
      "pen": 2594,
      "ĠĠĠĠĠĠĠĠĠĠ": 2595,
      "mm": 2596,
      "de": 2597,
      "lege": 2598,
      "01": 2599,
      "Ġaction": 2600,
      "elete": 2601,
      "uman": 2602,
      "ĉĊ": 2603,
      "Ġgood": 2604,
      "css": 2605,
      "Ġpo": 2606,
      "\\\\\\\\": 2607,
      "ither": 2608,
      "ilit": 2609,
      "2020": 2610,
      "lose": 2611,
      "Ġrequire": 2612,
      "Rec": 2613,
      "opt": 2614,
      "Ġ\\,": 2615,
      "Ġbackground": 2616,
      "Dis": 2617,
      "Ð¾": 2618,
      "lish": 2619,
      "ĠGet": 2620,
      "ĠGu": 2621,
      "Ġlang": 2622,
      "struction": 2623,
      "Ġproblem": 2624,
      "ae": 2625,
      "Ġsimilar": 2626,
      "Ġcompon": 2627,
      "2007": 2628,
      "Ġhold": 2629,
      "ysis": 2630,
      "ven": 2631,
      "ands": 2632,
      "cor": 2633,
      "ĠJune": 2634,
      "ĠAss": 2635,
      "Ġlook": 2636,
      "android": 2637,
      "method": 2638,
      "rangle": 2639,
      "Inter": 2640,
      "Color": 2641,
      "ways": 2642,
      "Ġmodels": 2643,
      "Ġsk": 2644,
      "User": 2645,
      "ĠSeptember": 2646,
      "ĠSec": 2647,
      "iple": 2648,
      "Ġshort": 2649,
      "Ġcrit": 2650,
      "Ġrange": 2651,
      "Ġpoints": 2652,
      "Ġdeterm": 2653,
      "2006": 2654,
      "tra": 2655,
      "context": 2656,
      "wid": 2657,
      "ĠBe": 2658,
      "rightarrow": 2659,
      "ĠJuly": 2660,
      "Ġchange": 2661,
      "ĠAugust": 2662,
      "Trans": 2663,
      "Ġpubl": 2664,
      "Ġeng": 2665,
      "pose": 2666,
      "Pr": 2667,
      "Ġdiv": 2668,
      "37": 2669,
      "Ġwin": 2670,
      "prov": 2671,
      "ĠBy": 2672,
      "ertain": 2673,
      "ĠJanuary": 2674,
      "ĠCo": 2675,
      "Ġmatch": 2676,
      "Table": 2677,
      "Ġet": 2678,
      "package": 2679,
      "istic": 2680,
      "check": 2681,
      "Ġcolor": 2682,
      "Ġredu": 2683,
      "Group": 2684,
      "Ġearly": 2685,
      "count": 2686,
      ".~\\": 2687,
      "Ġbu": 2688,
      "Ġspe": 2689,
      "ampion": 2690,
      "ifier": 2691,
      "Ġperiod": 2692,
      "inary": 2693,
      "Ġformer": 2694,
      "ica": 2695,
      "Ġshown": 2696,
      "overline": 2697,
      "Query": 2698,
      "event": 2699,
      "core": 2700,
      "66": 2701,
      "ung": 2702,
      "ĠOctober": 2703,
      "Ġmembers": 2704,
      "print": 2705,
      "Ġnil": 2706,
      "Ġday": 2707,
      "ially": 2708,
      "Ġcity": 2709,
      "sequ": 2710,
      "Ġparameters": 2711,
      "UN": 2712,
      "Ġoptions": 2713,
      "Reg": 2714,
      "refer": 2715,
      "Ġder": 2716,
      ".}": 2717,
      "38": 2718,
      "earch": 2719,
      "cul": 2720,
      "Ġmajor": 2721,
      ";&": 2722,
      "google": 2723,
      "=\"../": 2724,
      "DO": 2725,
      "onse": 2726,
      "ependent": 2727,
      "Ġdesign": 2728,
      "CE": 2729,
      "Ġimage": 2730,
      "ffic": 2731,
      "Ġprob": 2732,
      "urg": 2733,
      "geq": 2734,
      "ales": 2735,
      "================": 2736,
      "ention": 2737,
      "Ġaddress": 2738,
      "ĠApril": 2739,
      "gress": 2740,
      "vision": 2741,
      "boldsymbol": 2742,
      "doc": 2743,
      "ensity": 2744,
      "cember": 2745,
      "erefore": 2746,
      "Ġaff": 2747,
      "reen": 2748,
      "oken": 2749,
      "ĠCity": 2750,
      "ĠTe": 2751,
      "Ġclos": 2752,
      "xim": 2753,
      "Ġfull": 2754,
      "Ġresponse": 2755,
      "ze": 2756,
      "ĠII": 2757,
      "Ġlow": 2758,
      "Ġquant": 2759,
      "ready": 2760,
      "ges": 2761,
      "ĠNo": 2762,
      "fess": 2763,
      "=\"#": 2764,
      "ĠNorth": 2765,
      "using": 2766,
      "false": 2767,
      "vec": 2768,
      "varphi": 2769,
      "|-": 2770,
      "ped": 2771,
      "Ġpred": 2772,
      "gorithm": 2773,
      "Ġsw": 2774,
      "ĠList": 2775,
      "static": 2776,
      "Ġwon": 2777,
      "Ġdocument": 2778,
      "Arg": 2779,
      ";</": 2780,
      "Mod": 2781,
      "argin": 2782,
      "Property": 2783,
      "proof": 2784,
      "Ġla": 2785,
      "Ġoutput": 2786,
      "ĠEurope": 2787,
      "raft": 2788,
      "Cl": 2789,
      "aged": 2790,
      "ĠSup": 2791,
      "Ġprom": 2792,
      "Ġbool": 2793,
      "Ġlength": 2794,
      "Ðµ": 2795,
      "Ġvol": 2796,
      "ards": 2797,
      "nect": 2798,
      "Ġterms": 2799,
      "Ġhome": 2800,
      "US": 2801,
      "Ġwomen": 2802,
      "Ġpossible": 2803,
      "Ġsuper": 2804,
      "Ġes": 2805,
      "uster": 2806,
      "ending": 2807,
      "Ġintrodu": 2808,
      "web": 2809,
      "Ġinvest": 2810,
      "Client": 2811,
      "db": 2812,
      "idual": 2813,
      "Big": 2814,
      "ĠAustral": 2815,
      "Ġcar": 2816,
      "Ġstudy": 2817,
      "tual": 2818,
      "Ad": 2819,
      "55": 2820,
      "TH": 2821,
      "Ġshows": 2822,
      "Ġdon": 2823,
      "Ġaccess": 2824,
      "Ġreleased": 2825,
      "70": 2826,
      "And": 2827,
      "vironment": 2828,
      "thern": 2829,
      "frak": 2830,
      "namespace": 2831,
      "Ġfollows": 2832,
      "alf": 2833,
      "call": 2834,
      "}).": 2835,
      "Count": 2836,
      "Ġcho": 2837,
      "Ġwidth": 2838,
      "ithub": 2839,
      ">(": 2840,
      "hand": 2841,
      "Ġcorre": 2842,
      "lex": 2843,
      "ada": 2844,
      "2000": 2845,
      "ENT": 2846,
      "Method": 2847,
      "Ġimportant": 2848,
      "uation": 2849,
      "Ġexec": 2850,
      "Override": 2851,
      "Ġrole": 2852,
      "Ġstructure": 2853,
      "Ġparameter": 2854,
      "iff": 2855,
      "Ġcomb": 2856,
      "Ġfa": 2857,
      "Call": 2858,
      "Ġborder": 2859,
      "sf": 2860,
      "stand": 2861,
      "Ġmean": 2862,
      "ĠChrist": 2863,
      "](": 2864,
      "hline": 2865,
      "current": 2866,
      "oll": 2867,
      "Ã¡": 2868,
      "Ġside": 2869,
      "ĠNovember": 2870,
      "Ġplayed": 2871,
      "[\\": 2872,
      "anel": 2873,
      "oud": 2874,
      "si": 2875,
      "Builder": 2876,
      "lick": 2877,
      "ES": 2878,
      "cer": 2879,
      "Ġauthor": 2880,
      "&\\": 2881,
      "ĠThere": 2882,
      "ham": 2883,
      "Ġstd": 2884,
      "Ġavailable": 2885,
      "uture": 2886,
      "Ġmember": 2887,
      "ĠDecember": 2888,
      "Ġbl": 2889,
      "Ġstates": 2890,
      "Ġregion": 2891,
      "Ġtimes": 2892,
      "ĠSet": 2893,
      "Ġdeg": 2894,
      "Ġfore": 2895,
      "ĠBut": 2896,
      "mo": 2897,
      "âĢĶ": 2898,
      "epar": 2899,
      "ino": 2900,
      "etails": 2901,
      "IP": 2902,
      "Ġsample": 2903,
      "Ġhistory": 2904,
      "ĠBritish": 2905,
      "Ġdiscuss": 2906,
      "If": 2907,
      "Ġfew": 2908,
      "ebru": 2909,
      "isf": 2910,
      "options": 2911,
      "ude": 2912,
      "},\\": 2913,
      "<!--": 2914,
      "actory": 2915,
      "ney": 2916,
      "conom": 2917,
      "Response": 2918,
      "See": 2919,
      "kn": 2920,
      "Ġtable": 2921,
      "ĠPart": 2922,
      "Ġstrong": 2923,
      "build": 2924,
      "Ġke": 2925,
      "IL": 2926,
      "Ġpot": 2927,
      "ebruary": 2928,
      "ama": 2929,
      "Ġchildren": 2930,
      "Ġsit": 2931,
      ")</": 2932,
      "though": 2933,
      "Ġcompany": 2934,
      "Ġturn": 2935,
      "ille": 2936,
      "anch": 2937,
      "Ġlay": 2938,
      "eed": 2939,
      "Ġmessage": 2940,
      "Ġspect": 2941,
      "Ġresearch": 2942,
      "Ġrepl": 2943,
      "mark": 2944,
      "05": 2945,
      "ĠMed": 2946,
      "Sub": 2947,
      "ename": 2948,
      "lor": 2949,
      "github": 2950,
      "ibility": 2951,
      "rior": 2952,
      "draw": 2953,
      "ĠBo": 2954,
      "Ġparent": 2955,
      "Ġexpected": 2956,
      "eneral": 2957,
      "cap": 2958,
      "Read": 2959,
      "ĠAb": 2960,
      "null": 2961,
      "ography": 2962,
      "clus": 2963,
      "ĠKing": 2964,
      "Ġtask": 2965,
      "){": 2966,
      ")^": 2967,
      "foot": 2968,
      "Ġlabel": 2969,
      "ĠEd": 2970,
      "Ġdescribed": 2971,
      "ĠĠĠĠĠĠĠĠĠĠĠĠĠĠĠĠĠĠĠĠĠĠĠĠĠĠĠĠĠĠĠ": 2972,
      "OT": 2973,
      "Ġrequired": 2974,
      "ached": 2975,
      "48": 2976,
      "Ġret": 2977,
      "~~": 2978,
      "Ġandroid": 2979,
      "Ġdistribution": 2980,
      "orph": 2981,
      "Ġsequ": 2982,
      "ĠRec": 2983,
      "alt": 2984,
      "End": 2985,
      "Ġq": 2986,
      "query": 2987,
      "apan": 2988,
      "ged": 2989,
      "func": 2990,
      "2005": 2991,
      "0000": 2992,
      "Let": 2993,
      "Ġcompet": 2994,
      "Ġsche": 2995,
      "ymmet": 2996,
      "Date": 2997,
      "lib": 2998,
      "Ġland": 2999,
      "Ġsy": 3000,
      "Ġsay": 3001,
      "IR": 3002,
      "born": 3003,
      "Ġproduct": 3004,
      "Ġfeature": 3005,
      "ops": 3006,
      "Ġaver": 3007,
      "small": 3008,
      "Util": 3009,
      "Ġcell": 3010,
      "adio": 3011,
      "net": 3012,
      "mathfrak": 3013,
      "ently": 3014,
      "Ġwhe": 3015,
      "eder": 3016,
      "ks": 3017,
      "Ġlimit": 3018,
      "ana": 3019,
      "Ġband": 3020,
      "Ġindic": 3021,
      "Ġvalid": 3022,
      "Bar": 3023,
      "abase": 3024,
      "Stream": 3025,
      "âĢľ": 3026,
      "idge": 3027,
      "image": 3028,
      "ours": 3029,
      "Ed": 3030,
      "])": 3031,
      "ster": 3032,
      "Ġrest": 3033,
      "}}$": 3034,
      "height": 3035,
      "dir": 3036,
      "rew": 3037,
      "ĠAct": 3038,
      "Input": 3039,
      "ategory": 3040,
      "Ġ<<": 3041,
      "Ġide": 3042,
      "Ð¸": 3043,
      "Ġfunctions": 3044,
      "ĠĠĠĠĠĠĠĠĠĠĠĠĠĠĠĠĠ": 3045,
      "Be": 3046,
      "now": 3047,
      "textit": 3048,
      "((": 3049,
      "Ġbusiness": 3050,
      "ights": 3051,
      "Ġfurther": 3052,
      "amework": 3053,
      "Ġperformance": 3054,
      "Str": 3055,
      "ĠAfter": 3056,
      "imens": 3057,
      "Ġfree": 3058,
      "ĠNULL": 3059,
      "vers": 3060,
      "Ġless": 3061,
      "NA": 3062,
      "ls": 3063,
      "umb": 3064,
      "xy": 3065,
      "rest": 3066,
      "ered": 3067,
      "But": 3068,
      "urb": 3069,
      "Ġgrow": 3070,
      "ĠMc": 3071,
      "Ġcount": 3072,
      "circ": 3073,
      "Ġweek": 3074,
      "Lambda": 3075,
      "Ġ``": 3076,
      "Style": 3077,
      "Ġsignific": 3078,
      "ought": 3079,
      "ĠFebruary": 3080,
      "yc": 3081,
      "Ġcirc": 3082,
      "adem": 3083,
      "Ġtrack": 3084,
      ",âĢĿ": 3085,
      "ones": 3086,
      "ii": 3087,
      "Ġphot": 3088,
      "Ġreceived": 3089,
      "thers": 3090,
      "SP": 3091,
      "cho": 3092,
      "ĠCor": 3093,
      "artment": 3094,
      "ering": 3095,
      "langle": 3096,
      "Image": 3097,
      "ldots": 3098,
      "Ġevents": 3099,
      "Ġnamed": 3100,
      "creen": 3101,
      "undle": 3102,
      "init": 3103,
      "Ġmethods": 3104,
      "ĠQu": 3105,
      "Ġthink": 3106,
      "Instance": 3107,
      "Par": 3108,
      "member": 3109,
      "Ġmatrix": 3110,
      "Ġpopulation": 3111,
      "Ġcover": 3112,
      "Sc": 3113,
      "Status": 3114,
      "Ġcareer": 3115,
      "44": 3116,
      "client": 3117,
      "Ġcommon": 3118,
      "Ġvert": 3119,
      "ising": 3120,
      "Pos": 3121,
      "era": 3122,
      "Ġspecial": 3123,
      "Ġgraph": 3124,
      "ĠLeague": 3125,
      "request": 3126,
      "ply": 3127,
      "ĠSw": 3128,
      "Ġnational": 3129,
      "ological": 3130,
      "ories": 3131,
      "Ġalign": 3132,
      "aken": 3133,
      "ington": 3134,
      "No": 3135,
      "Ġeither": 3136,
      "ves": 3137,
      "ably": 3138,
      "ONT": 3139,
      "button": 3140,
      "Ġphys": 3141,
      "Ġep": 3142,
      "has": 3143,
      "dec": 3144,
      "Ġarch": 3145,
      "Ġleast": 3146,
      "Ġheld": 3147,
      "rench": 3148,
      "dl": 3149,
      "Ġconc": 3150,
      "ĠDr": 3151,
      "ĠHis": 3152,
      "2004": 3153,
      "etic": 3154,
      "Ġtook": 3155,
      "ĠÃ": 3156,
      ",\"": 3157,
      "Ġtown": 3158,
      "Ġhost": 3159,
      "Ġalready": 3160,
      "\\%": 3161,
      "Phi": 3162,
      "appa": 3163,
      "EE": 3164,
      "server": 3165,
      "Ġapproxim": 3166,
      "active": 3167,
      "ĠThese": 3168,
      "ĠThen": 3169,
      "({": 3170,
      "display": 3171,
      "icense": 3172,
      "ampionship": 3173,
      "ĠPres": 3174,
      "}),": 3175,
      "Ġappear": 3176,
      "Ġport": 3177,
      "NS": 3178,
      "YPE": 3179,
      "yd": 3180,
      "08": 3181,
      "exp": 3182,
      "ĠArm": 3183,
      "Ġcountry": 3184,
      "Ġcomplex": 3185,
      "citep": 3186,
      "Token": 3187,
      ".\\": 3188,
      "Ġoften": 3189,
      "icro": 3190,
      "ĠAp": 3191,
      "Ġbegan": 3192,
      "ogn": 3193,
      "Ġcommand": 3194,
      "finished": 3195,
      "run": 3196,
      "Ġins": 3197,
      "wide": 3198,
      "Ġsatisf": 3199,
      "abla": 3200,
      "Ġaccount": 3201,
      "Ġgrad": 3202,
      "cil": 3203,
      "Ġtele": 3204,
      "CC": 3205,
      "Americ": 3206,
      "Ġeduc": 3207,
      "args": 3208,
      "php": 3209,
      "arams": 3210,
      "Dec": 3211,
      "Line": 3212,
      "Ġcreated": 3213,
      "Component": 3214,
      "Ġpotential": 3215,
      "ns": 3216,
      "FA": 3217,
      "ansport": 3218,
      "Ġrecent": 3219,
      "ĠEnglish": 3220,
      "reed": 3221,
      "agement": 3222,
      "Ġfive": 3223,
      "Ġamong": 3224,
      "wise": 3225,
      "ĠSer": 3226,
      "Ġmot": 3227,
      "Ap": 3228,
      "child": 3229,
      "Ġdest": 3230,
      "ĠIm": 3231,
      "Ġthird": 3232,
      "aul": 3233,
      "igation": 3234,
      "Ġquest": 3235,
      "Ġsepar": 3236,
      "imary": 3237,
      "Ġrelations": 3238,
      "page": 3239,
      "65": 3240,
      "Ġarr": 3241,
      "ĠWhen": 3242,
      "Ġcou": 3243,
      "nabla": 3244,
      "Ġtraining": 3245,
      "ĠAfr": 3246,
      "uted": 3247,
      "btn": 3248,
      "iol": 3249,
      "asing": 3250,
      "spec": 3251,
      "Ġsl": 3252,
      "Ġdiff": 3253,
      "MS": 3254,
      "century": 3255,
      "adding": 3256,
      "Ġimplement": 3257,
      "ĠĠĠĠĠĠĠĠĠĠĠĠĠĠ": 3258,
      "ensor": 3259,
      "Ġindiv": 3260,
      "Ġclaim": 3261,
      "Ġfilms": 3262,
      "Ġnum": 3263,
      "Ġboolean": 3264,
      "Ġage": 3265,
      "ĠEl": 3266,
      "Paramet": 3267,
      "ught": 3268,
      "idence": 3269,
      "flow": 3270,
      "orage": 3271,
      "ration": 3272,
      "EL": 3273,
      "ĠRuss": 3274,
      "Ġfac": 3275,
      "target": 3276,
      "Ġestablished": 3277,
      "jav": 3278,
      "Ġhttp": 3279,
      "Act": 3280,
      "Ġincluded": 3281,
      "ĠCoun": 3282,
      "Lay": 3283,
      "Block": 3284,
      "AP": 3285,
      "Ġattack": 3286,
      "ament": 3287,
      "Ġsix": 3288,
      "Ġbuilt": 3289,
      "ĠHigh": 3290,
      "otype": 3291,
      "Ġcolumn": 3292,
      "Ġinvolv": 3293,
      "oph": 3294,
      "png": 3295,
      "plied": 3296,
      "ĠBar": 3297,
      "na": 3298,
      "Ġsent": 3299,
      "Ġhouse": 3300,
      "Ġmillion": 3301,
      "reet": 3302,
      "iet": 3303,
      "Ġlight": 3304,
      "ondon": 3305,
      "ĠMe": 3306,
      "do": 3307,
      "Ġclose": 3308,
      "Ġconsidered": 3309,
      "Ġprovide": 3310,
      "header": 3311,
      "Comp": 3312,
      "iddle": 3313,
      "Ġbirths": 3314,
      "2021": 3315,
      "Ġcoll": 3316,
      "rows": 3317,
      "append": 3318,
      "Null": 3319,
      "mbox": 3320,
      "cell": 3321,
      "ebug": 3322,
      "Ġmagn": 3323,
      "Ġ+=": 3324,
      "tx": 3325,
      "abor": 3326,
      "ĠSo": 3327,
      "Ġ->": 3328,
      "Ġconstruct": 3329,
      "Ġabs": 3330,
      "mar": 3331,
      "Ġput": 3332,
      "otimes": 3333,
      "ĠBl": 3334,
      "aps": 3335,
      "Ġpaper": 3336,
      "OP": 3337,
      "ittle": 3338,
      "Ġlocated": 3339,
      "Ġlower": 3340,
      "Ġproperties": 3341,
      "aff": 3342,
      "kappa": 3343,
      "ĠTest": 3344,
      "aves": 3345,
      "Sec": 3346,
      "ĠComp": 3347,
      "Ġfocus": 3348,
      "irection": 3349,
      "ÑĤ": 3350,
      "Source": 3351,
      "Base": 3352,
      "Ġcost": 3353,
      "ilitary": 3354,
      "aly": 3355,
      "unfinished": 3356,
      "Ġapproach": 3357,
      "char": 3358,
      "ese": 3359,
      "Ġpract": 3360,
      "ecess": 3361,
      "Options": 3362,
      "Ġvarious": 3363,
      "Ġpage": 3364,
      "Ġrate": 3365,
      "Ġ\"\"\"": 3366,
      "Handler": 3367,
      "Ġwritten": 3368,
      "Ġsolution": 3369,
      "Ġred": 3370,
      "REF": 3371,
      "95": 3372,
      "Ġcamp": 3373,
      "ĠJapan": 3374,
      "Ġbecome": 3375,
      "07": 3376,
      "Select": 3377,
      "Ġelements": 3378,
      "04": 3379,
      "ĠAdd": 3380,
      "Ġpublished": 3381,
      "pol": 3382,
      "subset": 3383,
      "Ġprovided": 3384,
      "Ġlate": 3385,
      "})$": 3386,
      "Sp": 3387,
      "Head": 3388,
      "riter": 3389,
      "02": 3390,
      "Ġfund": 3391,
      "dr": 3392,
      "Ġconstant": 3393,
      "Ġsignificant": 3394,
      "Ġtheory": 3395,
      "Ġneg": 3396,
      "ief": 3397,
      "dat": 3398,
      "ĠChar": 3399,
      "parent": 3400,
      "module": 3401,
      "Ġobtained": 3402,
      "ĠOne": 3403,
      "uggest": 3404,
      "Ġpair": 3405,
      "Rep": 3406,
      "Nav": 3407,
      "select": 3408,
      "Ġcases": 3409,
      "OS": 3410,
      "ordin": 3411,
      "Ġindividual": 3412,
      "tributes": 3413,
      "ĠDes": 3414,
      "bottom": 3415,
      "ugin": 3416,
      "eople": 3417,
      "ĠDef": 3418,
      "Buffer": 3419,
      "ensuremath": 3420,
      "oke": 3421,
      "Ġmeans": 3422,
      "ements": 3423,
      "2001": 3424,
      "\\|": 3425,
      "known": 3426,
      "Resource": 3427,
      "App": 3428,
      "flu": 3429,
      "ĠĠĠĠĠĠĠĠĊ": 3430,
      "ĠLet": 3431,
      "yl": 3432,
      "ĠInt": 3433,
      "Ġsystems": 3434,
      "ĠEast": 3435,
      "AG": 3436,
      "Ġfeatures": 3437,
      "Attribute": 3438,
      "yles": 3439,
      "Ġbody": 3440,
      "Oper": 3441,
      "Ġcross": 3442,
      "2003": 3443,
      "Content": 3444,
      "American": 3445,
      "Ġstation": 3446,
      "Ġwhether": 3447,
      "ialog": 3448,
      "ring": 3449,
      "Ð½": 3450,
      "case": 3451,
      "Ġbuilding": 3452,
      "Ġindu": 3453,
      "most": 3454,
      "eger": 3455,
      "[\"": 3456,
      "Ġdisplay": 3457,
      "Ġalways": 3458,
      "vari": 3459,
      "ocol": 3460,
      "06": 3461,
      "gle": 3462,
      "Ġclub": 3463,
      "xml": 3464,
      "izer": 3465,
      "ald": 3466,
      "pc": 3467,
      "Ġbi": 3468,
      "ĠDep": 3469,
      "ĠClass": 3470,
      "ference": 3471,
      "atform": 3472,
      "Run": 3473,
      "Ġwar": 3474,
      "itions": 3475,
      "Ġvir": 3476,
      "Action": 3477,
      "gen": 3478,
      "Ġcompos": 3479,
      "Ġwater": 3480,
      "ĠCollege": 3481,
      "Ġdevelopment": 3482,
      "Ġassociated": 3483,
      "Ġcommunity": 3484,
      "Filter": 3485,
      "Equal": 3486,
      "oment": 3487,
      "Pol": 3488,
      "ured": 3489,
      "Ġgames": 3490,
      "atural": 3491,
      "Ġstandard": 3492,
      "Ġanalysis": 3493,
      "centering": 3494,
      "Ġnormal": 3495,
      "chiev": 3496,
      "Ġhaving": 3497,
      "Ġworks": 3498,
      "eline": 3499,
      "oop": 3500,
      "alle": 3501,
      "OL": 3502,
      "EX": 3503,
      "Ġge": 3504,
      "Ġscal": 3505,
      "adata": 3506,
      "level": 3507,
      "based": 3508,
      "Ġfail": 3509,
      "Ġgreat": 3510,
      "ĠArt": 3511,
      "Sigma": 3512,
      "open": 3513,
      "*/": 3514,
      "Ġmer": 3515,
      "oo": 3516,
      "Ġpack": 3517,
      "ĠHouse": 3518,
      "Ġmen": 3519,
      "prop": 3520,
      "Ġant": 3521,
      "sembly": 3522,
      "Sup": 3523,
      "Ġcorresponding": 3524,
      "Ġdensity": 3525,
      "ford": 3526,
      "Ġhowever": 3527,
      "Ġaverage": 3528,
      "first": 3529,
      "Ġnever": 3530,
      "Ġra": 3531,
      "Ġglobal": 3532,
      "ĠLondon": 3533,
      "ican": 3534,
      "Ġconditions": 3535,
      "istrict": 3536,
      "rl": 3537,
      "bor": 3538,
      "ceed": 3539,
      "/\\": 3540,
      "HT": 3541,
      "change": 3542,
      "ĠDav": 3543,
      "Ġvia": 3544,
      "unic": 3545,
      "Ġlanguage": 3546,
      "Ġsem": 3547,
      "Default": 3548,
      "Ġconsist": 3549,
      "Ġbelow": 3550,
      "Ġbetter": 3551,
      "03": 3552,
      "json": 3553,
      "Ġcentury": 3554,
      "OD": 3555,
      "Gener": 3556,
      "ĠPhil": 3557,
      "ATE": 3558,
      "Ġvill": 3559,
      "Ġrandom": 3560,
      "UE": 3561,
      "rown": 3562,
      "ĠWith": 3563,
      "Ã³": 3564,
      "Ġcalcul": 3565,
      "irm": 3566,
      "Ġtrad": 3567,
      "lying": 3568,
      "lip": 3569,
      "Ġcontain": 3570,
      "medi": 3571,
      "book": 3572,
      "Ġsite": 3573,
      "arried": 3574,
      "ĠPark": 3575,
      "78": 3576,
      "Ġtoget": 3577,
      "Ġseen": 3578,
      "ĠObject": 3579,
      "acing": 3580,
      "Ġflow": 3581,
      "Ġvector": 3582,
      "Ġtogether": 3583,
      "Function": 3584,
      "ulture": 3585,
      "mon": 3586,
      "Link": 3587,
      "Ġhigher": 3588,
      "Us": 3589,
      "plicit": 3590,
      "property": 3591,
      "2002": 3592,
      "Ġpay": 3593,
      "Ġblack": 3594,
      "}}{": 3595,
      "ĠMon": 3596,
      "post": 3597,
      "navbar": 3598,
      "ula": 3599,
      "Start": 3600,
      "Ġrespectively": 3601,
      "ĠBro": 3602,
      "ĠSch": 3603,
      "Ġeas": 3604,
      "ĠCont": 3605,
      "Ġhuman": 3606,
      "Ġver": 3607,
      "Off": 3608,
      "inst": 3609,
      "Ġgroups": 3610,
      "ÑĢ": 3611,
      "Ġair": 3612,
      "lections": 3613,
      "\\[": 3614,
      "ĠAir": 3615,
      "Ġemploy": 3616,
      "iler": 3617,
      "sg": 3618,
      "nonumber": 3619,
      "vis": 3620,
      "09": 3621,
      "ĠWilliam": 3622,
      "apping": 3623,
      "ires": 3624,
      "Spec": 3625,
      "Ġplan": 3626,
      "Version": 3627,
      "Ġloss": 3628,
      "Ġtw": 3629,
      "ilities": 3630,
      "istry": 3631,
      "src": 3632,
      "Ġsom": 3633,
      "Ġheight": 3634,
      "attle": 3635,
      "oding": 3636,
      "Ġplayer": 3637,
      "Ġborn": 3638,
      "utes": 3639,
      "under": 3640,
      "ministr": 3641,
      "Ġmove": 3642,
      "Ġserved": 3643,
      "stream": 3644,
      "verse": 3645,
      "su": 3646,
      "itect": 3647,
      "izing": 3648,
      "][": 3649,
      "CK": 3650,
      "Task": 3651,
      "aries": 3652,
      "Factory": 3653,
      "Ġprint": 3654,
      "Ġsocial": 3655,
      "host": 3656,
      "ĠLa": 3657,
      "Point": 3658,
      "49": 3659,
      "Ġdone": 3660,
      "ĠAm": 3661,
      "Ġmight": 3662,
      "write": 3663,
      "Part": 3664,
      "Ġeconom": 3665,
      "ibrary": 3666,
      "Ġtoo": 3667,
      "even": 3668,
      "widet": 3669,
      "strong": 3670,
      "private": 3671,
      "Command": 3672,
      "place": 3673,
      "Ġcontains": 3674,
      "${": 3675,
      "Ġfar": 3676,
      "Number": 3677,
      "Ġload": 3678,
      "Ġstory": 3679,
      "ĠHer": 3680,
      "Ġacross": 3681,
      "hel": 3682,
      "BC": 3683,
      "88": 3684,
      "status": 3685,
      "II": 3686,
      "Ġfields": 3687,
      "cond": 3688,
      "rict": 3689,
      "Ġspecific": 3690,
      "Ġbegin": 3691,
      "ociety": 3692,
      "LASS": 3693,
      "Ġhard": 3694,
      "unk": 3695,
      "ocr": 3696,
      "Ġwrite": 3697,
      "ĠPer": 3698,
      "Ġdefine": 3699,
      "Ġyoung": 3700,
      "Ġgen": 3701,
      "skip": 3702,
      "element": 3703,
      "push": 3704,
      "chema": 3705,
      "igger": 3706,
      "{-": 3707,
      "Ġstep": 3708,
      "Ġhapp": 3709,
      "ptr": 3710,
      "Ġachiev": 3711,
      "Ġnumer": 3712,
      "tabular": 3713,
      "AA": 3714,
      "Label": 3715,
      "ĠFrench": 3716,
      "local": 3717,
      "roy": 3718,
      "Ġable": 3719,
      "Ġstatus": 3720,
      "47": 3721,
      "ĠReturn": 3722,
      "chan": 3723,
      "ĠInternational": 3724,
      "idden": 3725,
      "});": 3726,
      "Ġfrequ": 3727,
      "ournal": 3728,
      "itory": 3729,
      "find": 3730,
      "ries": 3731,
      "Ġannoun": 3732,
      "Ġss": 3733,
      "dots": 3734,
      "Ġlinear": 3735,
      "ĠNot": 3736,
      "ĠVal": 3737,
      "atal": 3738,
      "widetilde": 3739,
      "Ġgoing": 3740,
      "Wh": 3741,
      "meta": 3742,
      "ĉĉĉĉĉĉĉĉ": 3743,
      "Fl": 3744,
      "cy": 3745,
      "Gr": 3746,
      "osp": 3747,
      "obj": 3748,
      "||": 3749,
      "ging": 3750,
      "hib": 3751,
      "main": 3752,
      "oto": 3753,
      "Ġequation": 3754,
      "IM": 3755,
      "SC": 3756,
      "Ġsuggest": 3757,
      "ĠĠĠĠĠĠĠĠĠĠĠĠĊ": 3758,
      "ĠHar": 3759,
      "ÃŃ": 3760,
      "Ġhealth": 3761,
      "\\!": 3762,
      "Ġphase": 3763,
      "Fig": 3764,
      "ike": 3765,
      "Ġmiss": 3766,
      "endif": 3767,
      "Ġclient": 3768,
      "}-": 3769,
      "Ġlines": 3770,
      "Ġdouble": 3771,
      "Ġfri": 3772,
      "Ġprofess": 3773,
      "bra": 3774,
      "can": 3775,
      "Ġreturned": 3776,
      "yth": 3777,
      "iding": 3778,
      "actions": 3779,
      "Row": 3780,
      "last": 3781,
      "oted": 3782,
      "Ġsearch": 3783,
      "Ġsimple": 3784,
      "Ġemb": 3785,
      "///": 3786,
      "Ġclear": 3787,
      "Ġeval": 3788,
      "rowser": 3789,
      "Ġunit": 3790,
      "iber": 3791,
      "plies": 3792,
      "Ġprotected": 3793,
      "Ġthus": 3794,
      "sole": 3795,
      "Ass": 3796,
      "First": 3797,
      "TO": 3798,
      "ociation": 3799,
      "Ġspecies": 3800,
      "ĠNone": 3801,
      "Ġconv": 3802,
      "ici": 3803,
      "True": 3804,
      "Ġresource": 3805,
      "len": 3806,
      "Ġinstead": 3807,
      "ivil": 3808,
      "iforn": 3809,
      "Ġnov": 3810,
      "Ġcaus": 3811,
      "ĠSim": 3812,
      "Ġlim": 3813,
      "Ġfuture": 3814,
      "\"]": 3815,
      "Ġdynam": 3816,
      "Ġtre": 3817,
      "Ġdays": 3818,
      "Ġindependent": 3819,
      "Ġhom": 3820,
      "Ġwindow": 3821,
      "VER": 3822,
      "Ġalgorithm": 3823,
      "adius": 3824,
      "FI": 3825,
      "mail": 3826,
      "46": 3827,
      "Ġexpress": 3828,
      "ĠDis": 3829,
      "pected": 3830,
      "Ġcame": 3831,
      "ĠCour": 3832,
      "Ġstarted": 3833,
      "Ġ]": 3834,
      "Ġworking": 3835,
      "Ġ((": 3836,
      "avy": 3837,
      "img": 3838,
      "year": 3839,
      "Ġdefinition": 3840,
      "Ext": 3841,
      "Ġvideo": 3842,
      "itional": 3843,
      "Ġgive": 3844,
      "Ġproduction": 3845,
      "std": 3846,
      "tempt": 3847,
      "Ġthrows": 3848,
      "Ġexists": 3849,
      "Ġtaken": 3850,
      "project": 3851,
      "FONT": 3852,
      ")]": 3853,
      "ishing": 3854,
      "Ġregular": 3855,
      "Ġbehav": 3856,
      "Ġpolitical": 3857,
      "Check": 3858,
      "Equals": 3859,
      "ises": 3860,
      "board": 3861,
      "Ġmaking": 3862,
      "ĠGerman": 3863,
      "ĠAg": 3864,
      "Ġdistrict": 3865,
      "Ġlik": 3866,
      "Ġproposed": 3867,
      "Ġinternational": 3868,
      "Hel": 3869,
      "ifornia": 3870,
      "Ġstudents": 3871,
      "buf": 3872,
      "apter": 3873,
      "Ġmodule": 3874,
      "Page": 3875,
      "Ġbecom": 3876,
      "ico": 3877,
      "Ġear": 3878,
      "\").": 3879,
      "Ġproof": 3880,
      "close": 3881,
      "ypes": 3882,
      "AM": 3883,
      "Ġreview": 3884,
      "ids": 3885,
      "mt": 3886,
      "Ġpositive": 3887,
      "hem": 3888,
      "Ġinternal": 3889,
      "ĠSection": 3890,
      "lean": 3891,
      "Ġcertain": 3892,
      "ĠIN": 3893,
      "Ġmaterial": 3894,
      "Ġmultiple": 3895,
      "Ġimp": 3896,
      "column": 3897,
      "Ġground": 3898,
      "Ġextends": 3899,
      "ĠDistrict": 3900,
      "bb": 3901,
      "Ġservices": 3902,
      "Ġconstr": 3903,
      "Ġmargin": 3904,
      "Ġcopy": 3905,
      "Ġoperator": 3906,
      "After": 3907,
      "service": 3908,
      "Ġonce": 3909,
      "PC": 3910,
      "Ġperm": 3911,
      "Ġbeliev": 3912,
      "heet": 3913,
      "font": 3914,
      "scale": 3915,
      "ĠÂ": 3916,
      "eh": 3917,
      "Ġround": 3918,
      "96": 3919,
      "Ġscale": 3920,
      "Ġconver": 3921,
      "77": 3922,
      "duc": 3923,
      "Ġadded": 3924,
      "format": 3925,
      "ills": 3926,
      "Ġhistor": 3927,
      "85": 3928,
      "\\]": 3929,
      "ifact": 3930,
      "Return": 3931,
      "encies": 3932,
      "annot": 3933,
      "avel": 3934,
      "signed": 3935,
      "oriz": 3936,
      "which": 3937,
      "ĠMich": 3938,
      "Ġhalf": 3939,
      "Ġcomponent": 3940,
      "ĠStr": 3941,
      "Ġrelated": 3942,
      "Ġsubject": 3943,
      "Box": 3944,
      "ĠAmerica": 3945,
      "Ġoption": 3946,
      "Window": 3947,
      "ĠIr": 3948,
      "Ġmulti": 3949,
      "Ġreason": 3950,
      "ql": 3951,
      "ĠNor": 3952,
      "ĠâĢĺ": 3953,
      "Ġadditional": 3954,
      "udio": 3955,
      "Ġengine": 3956,
      "Ġtemper": 3957,
      "Ġactiv": 3958,
      "filter": 3959,
      "ĠSan": 3960,
      "ĠLem": 3961,
      "hood": 3962,
      "rs": 3963,
      "inn": 3964,
      "imate": 3965,
      "Ġtelevision": 3966,
      "Ob": 3967,
      "Format": 3968,
      "acity": 3969,
      "aging": 3970,
      "Ġdate": 3971,
      "Ġcannot": 3972,
      "menu": 3973,
      "Ġ{@": 3974,
      "\"),": 3975,
      "Ġben": 3976,
      "Acc": 3977,
      "Ġcontinu": 3978,
      "Prov": 3979,
      "andid": 3980,
      "Create": 3981,
      "number": 3982,
      "HE": 3983,
      "gener": 3984,
      "1999": 3985,
      "ĠAc": 3986,
      "Ġurl": 3987,
      "istics": 3988,
      "Ġill": 3989,
      "Ġnecess": 3990,
      "oney": 3991,
      "aches": 3992,
      "Ġcenter": 3993,
      "Ġled": 3994,
      "prime": 3995,
      "Ġtypes": 3996,
      "ascript": 3997,
      "orge": 3998,
      "iers": 3999,
      "mem": 4000,
      "Controller": 4001,
      "layout": 4002,
      "Ġdied": 4003,
      "ĠPresident": 4004,
      "Char": 4005,
      "ĠEq": 4006,
      "Ġattempt": 4007,
      "42": 4008,
      "ftware": 4009,
      "num": 4010,
      "Ġcompar": 4011,
      "Ġmedia": 4012,
      "ellow": 4013,
      "Ġmeet": 4014,
      "Ġ&=": 4015,
      "ĠDo": 4016,
      "useum": 4017,
      "ha": 4018,
      "ades": 4019,
      "ĠGo": 4020,
      "Listener": 4021,
      "}+": 4022,
      "Ġtransform": 4023,
      "zeta": 4024,
      "iqu": 4025,
      "Ġspecified": 4026,
      "Ġliter": 4027,
      "description": 4028,
      "Ġformat": 4029,
      "Ġupdate": 4030,
      "entry": 4031,
      "Ġjob": 4032,
      "(&": 4033,
      "pdf": 4034,
      "stract": 4035,
      "process": 4036,
      "Ġmode": 4037,
      "itte": 4038,
      "cel": 4039,
      "SON": 4040,
      "ĠCalifornia": 4041,
      "Ġaccording": 4042,
      "Ð¾Ð": 4043,
      "Ġofficial": 4044,
      "ĉĠĠĠ": 4045,
      "long": 4046,
      "Ġproduced": 4047,
      "Ġson": 4048,
      "attr": 4049,
      "like": 4050,
      "ĠRev": 4051,
      "leg": 4052,
      "Ġseem": 4053,
      "update": 4054,
      "ĠFirst": 4055,
      "ĠChampionship": 4056,
      "tag": 4057,
      "\\{": 4058,
      "fe": 4059,
      "omb": 4060,
      "och": 4061,
      "INT": 4062,
      "ĠSince": 4063,
      "ites": 4064,
      "Ġfig": 4065,
      "Ġaccept": 4066,
      "Ġzero": 4067,
      "Ġchanges": 4068,
      "Ñģ": 4069,
      "ĠIndian": 4070,
      "Ent": 4071,
      "tries": 4072,
      "BU": 4073,
      "sm": 4074,
      "Child": 4075,
      "Ġnorth": 4076,
      "ĠAcc": 4077,
      "Ã¼": 4078,
      "container": 4079,
      "Ġenvironment": 4080,
      "example": 4081,
      "izes": 4082,
      "Ġpress": 4083,
      "gl": 4084,
      "98": 4085,
      "ĠRepublic": 4086,
      "NO": 4087,
      "Ġamount": 4088,
      "igen": 4089,
      "Ġwent": 4090,
      "ocket": 4091,
      "SI": 4092,
      "ĠIndia": 4093,
      "ABLE": 4094,
      "76": 4095,
      "prototype": 4096,
      "Ġsequence": 4097,
      "GL": 4098,
      "anged": 4099,
      "Ġrow": 4100,
      "Ge": 4101,
      "Met": 4102,
      "lands": 4103,
      "cos": 4104,
      "Back": 4105,
      "ĠRed": 4106,
      "sin": 4107,
      "Ġviol": 4108,
      "........": 4109,
      "Ġpur": 4110,
      "Length": 4111,
      "unit": 4112,
      "uel": 4113,
      ";\\": 4114,
      "oyal": 4115,
      "PRO": 4116,
      "ulations": 4117,
      "used": 4118,
      "refix": 4119,
      "allet": 4120,
      "Ġcustom": 4121,
      "Ġothers": 4122,
      "aker": 4123,
      "final": 4124,
      "56": 4125,
      "Mem": 4126,
      "oon": 4127,
      "ota": 4128,
      "aset": 4129,
      "(-": 4130,
      "lymp": 4131,
      "burg": 4132,
      "Tem": 4133,
      "Ġcatch": 4134,
      "Aut": 4135,
      "ulated": 4136,
      "Ġremov": 4137,
      "ĠMore": 4138,
      ")=\\": 4139,
      "ĠCup": 4140,
      "astic": 4141,
      "Output": 4142,
      "ĠDev": 4143,
      "ara": 4144,
      "ĠRef": 4145,
      "Ġthough": 4146,
      "Ġcontr": 4147,
      "ĠEngland": 4148,
      "ĠDiv": 4149,
      "Ġstar": 4150,
      "ĠInter": 4151,
      "ication": 4152,
      "Ġwhose": 4153,
      "abs": 4154,
      "atives": 4155,
      "Ġrank": 4156,
      "TYPE": 4157,
      "Ġsuccessful": 4158,
      "atrix": 4159,
      "Ġlearning": 4160,
      "}]": 4161,
      "Ġauto": 4162,
      "History": 4163,
      "}=\\": 4164,
      "ERT": 4165,
      "params": 4166,
      "split": 4167,
      "Ġgl": 4168,
      "Pre": 4169,
      "1990": 4170,
      "Ġselect": 4171,
      "Ġprior": 4172,
      "Ġ<!--": 4173,
      "textwidth": 4174,
      "ĠTheorem": 4175,
      "Valid": 4176,
      "Ġparticip": 4177,
      "empty": 4178,
      "nected": 4179,
      "Ġoperation": 4180,
      "ĠRiver": 4181,
      "ael": 4182,
      "Ġda": 4183,
      "Ġpredict": 4184,
      "quare": 4185,
      "iform": 4186,
      "Ġpast": 4187,
      "Ġsurface": 4188,
      "Ġcome": 4189,
      "Ġactive": 4190,
      "Bundle": 4191,
      "imation": 4192,
      "omorph": 4193,
      "response": 4194,
      "icient": 4195,
      "efined": 4196,
      "imensional": 4197,
      "Per": 4198,
      "Ġfit": 4199,
      "Ġoffer": 4200,
      "fill": 4201,
      "ĠHREF": 4202,
      "Ġapplication": 4203,
      "Dat": 4204,
      "Ġlocation": 4205,
      "olic": 4206,
      "ba": 4207,
      "ething": 4208,
      "Ġdecl": 4209,
      "instance": 4210,
      "DB": 4211,
      "more": 4212,
      "ERR": 4213,
      "olve": 4214,
      "Mode": 4215,
      "ili": 4216,
      "Ġiter": 4217,
      "Ġmoment": 4218,
      "remove": 4219,
      "UM": 4220,
      "Ġinit": 4221,
      "Ġcapt": 4222,
      "Ġmoved": 4223,
      "Em": 4224,
      "_.": 4225,
      "Ġdegree": 4226,
      "Ġreported": 4227,
      "Ġfixed": 4228,
      "Ġstream": 4229,
      "Ġprop": 4230,
      "atio": 4231,
      "One": 4232,
      "iles": 4233,
      "Last": 4234,
      "inated": 4235,
      "Ġkeep": 4236,
      "Ġsymmet": 4237,
      "else": 4238,
      "javascript": 4239,
      "Ġdistance": 4240,
      "amily": 4241,
      "ership": 4242,
      ",-": 4243,
      "pling": 4244,
      "Ġrecogn": 4245,
      "1998": 4246,
      "Ġaway": 4247,
      ")}\\": 4248,
      "ouch": 4249,
      "icles": 4250,
      "only": 4251,
      "tool": 4252,
      "Ġrather": 4253,
      "thm": 4254,
      "Dev": 4255,
      "Ġkind": 4256,
      "icult": 4257,
      "illed": 4258,
      "ĠHam": 4259,
      "pass": 4260,
      "Ġquery": 4261,
      "Button": 4262,
      "97": 4263,
      "ĠGeneral": 4264,
      "Ġpolicy": 4265,
      "Ġsold": 4266,
      "{(": 4267,
      "uid": 4268,
      "////////////////": 4269,
      "Ġrights": 4270,
      "Ġselected": 4271,
      "Ġcomplete": 4272,
      "Ġsets": 4273,
      "UI": 4274,
      "Ġfinite": 4275,
      "Ġinflu": 4276,
      "TP": 4277,
      "Ġship": 4278,
      "output": 4279,
      "Ġenough": 4280,
      "ĠUp": 4281,
      "ĠTrans": 4282,
      "Ġexact": 4283,
      "show": 4284,
      "Ġsouth": 4285,
      "stitute": 4286,
      "Ġimprov": 4287,
      "dist": 4288,
      "500": 4289,
      "Ġask": 4290,
      "<?": 4291,
      "ĠEm": 4292,
      "```": 4293,
      "Ġcallback": 4294,
      "aints": 4295,
      "Ġequal": 4296,
      "ĠGovern": 4297,
      "Ġfilter": 4298,
      "Ġ!==": 4299,
      "Ġreally": 4300,
      ":</": 4301,
      "86": 4302,
      "ĠID": 4303,
      "$)": 4304,
      "Ġrespons": 4305,
      "ĠThat": 4306,
      "bound": 4307,
      "Web": 4308,
      "note": 4309,
      "CD": 4310,
      "Ġentire": 4311,
      "Ġfather": 4312,
      "Ġlarger": 4313,
      "ĠChurch": 4314,
      "eleg": 4315,
      "ĠCouncil": 4316,
      "ĠHol": 4317,
      "la": 4318,
      "Ġcollection": 4319,
      ".$": 4320,
      "reference": 4321,
      "iance": 4322,
      "indent": 4323,
      "Layout": 4324,
      "Ġfactor": 4325,
      "Ġrelease": 4326,
      "aign": 4327,
      "There": 4328,
      "icol": 4329,
      "itz": 4330,
      "ĠMark": 4331,
      "Column": 4332,
      "Ġequival": 4333,
      "Ġnone": 4334,
      "ĠFrom": 4335,
      "isk": 4336,
      "Ġmarket": 4337,
      "Ġstop": 4338,
      "atory": 4339,
      "ĠAustralia": 4340,
      "han": 4341,
      "mathsf": 4342,
      "Vert": 4343,
      "Ġtreat": 4344,
      "ĠPal": 4345,
      "Ġbroad": 4346,
      "Ġobjects": 4347,
      "ledge": 4348,
      "URL": 4349,
      "bin": 4350,
      "ĠEuropean": 4351,
      "yr": 4352,
      "anies": 4353,
      ")^{": 4354,
      "Ġreference": 4355,
      "Rem": 4356,
      "Ġmilitary": 4357,
      "Ġlearn": 4358,
      "edd": 4359,
      "po": 4360,
      "anish": 4361,
      "RA": 4362,
      "mid": 4363,
      "++)": 4364,
      "ingle": 4365,
      "}^\\": 4366,
      "CL": 4367,
      "ĠParty": 4368,
      "Ġapplic": 4369,
      "ĠDi": 4370,
      "Ġexperiment": 4371,
      "1996": 4372,
      "Ġdeb": 4373,
      "ĠCLASS": 4374,
      "cr": 4375,
      "Ġbox": 4376,
      "ĠVir": 4377,
      "Ġvillage": 4378,
      "2022": 4379,
      "\\\\\\\\\\\\\\\\": 4380,
      "rypt": 4381,
      "ĠDem": 4382,
      "Ab": 4383,
      "Ġfont": 4384,
      "ĠType": 4385,
      "elling": 4386,
      "87": 4387,
      "Ġinterface": 4388,
      "}/": 4389,
      "Ġlive": 4390,
      "widehat": 4391,
      ">>": 4392,
      "Ġwest": 4393,
      "Ġgenerated": 4394,
      "command": 4395,
      "Ġ...": 4396,
      "ĠĠĠĠĠĠĠĠĠĠĠĠĠĠĠĠĠĠĠĠĠĠĠĠĠĠĠĠĠĠĠĠĠĠĠ": 4397,
      "Ġpopular": 4398,
      "offset": 4399,
      "Address": 4400,
      "CON": 4401,
      "Ġobserved": 4402,
      "ĠLicense": 4403,
      "Ġnatural": 4404,
      "}_\\": 4405,
      "ĠCenter": 4406,
      "ĠCr": 4407,
      "Ġserver": 4408,
      "achine": 4409,
      "ipal": 4410,
      "Ġcut": 4411,
      "ka": 4412,
      "ctor": 4413,
      "Ġfem": 4414,
      "Ġnav": 4415,
      "ya": 4416,
      "ci": 4417,
      "ĠPaul": 4418,
      "icture": 4419,
      "(_": 4420,
      "ashington": 4421,
      "ming": 4422,
      "Ġaward": 4423,
      "soft": 4424,
      "ĠSen": 4425,
      "wrap": 4426,
      "Ġsays": 4427,
      "ĠCourt": 4428,
      "ĠChina": 4429,
      "ittee": 4430,
      "grad": 4431,
      ".~": 4432,
      "ĠGroup": 4433,
      "values": 4434,
      "Ġneigh": 4435,
      "Psi": 4436,
      "Ġfall": 4437,
      "Ġleading": 4438,
      "ores": 4439,
      "stant": 4440,
      "Ġincludes": 4441,
      "Ġcontinue": 4442,
      "ĠSk": 4443,
      "Ġdeveloped": 4444,
      "rote": 4445,
      ".)": 4446,
      "Cache": 4447,
      "Server": 4448,
      "agon": 4449,
      "ĠLaw": 4450,
      "Ġlittle": 4451,
      "unity": 4452,
      "Ġworked": 4453,
      "gebra": 4454,
      "ping": 4455,
      "ĠPort": 4456,
      "ĠBel": 4457,
      "ria": 4458,
      "rief": 4459,
      "adian": 4460,
      "Ġunderstand": 4461,
      "ĠCanada": 4462,
      "berg": 4463,
      "Update": 4464,
      "Ġbit": 4465,
      "Ġconnection": 4466,
      "ĠAward": 4467,
      "alax": 4468,
      "Ġgot": 4469,
      "ĠSub": 4470,
      "Ġperformed": 4471,
      "Ġinf": 4472,
      "ias": 4473,
      "ario": 4474,
      "ĠBer": 4475,
      "1997": 4476,
      "cs": 4477,
      "bert": 4478,
      "Ġquestion": 4479,
      "Ġprobability": 4480,
      "Ġconduct": 4481,
      "evel": 4482,
      "nce": 4483,
      "COL": 4484,
      "anced": 4485,
      "lemma": 4486,
      "âĢ¦": 4487,
      "otes": 4488,
      "utive": 4489,
      "Ġbig": 4490,
      "operator": 4491,
      "Ġ\\{": 4492,
      "').": 4493,
      "afe": 4494,
      "Width": 4495,
      "Ġareas": 4496,
      "43": 4497,
      "cdots": 4498,
      "ategy": 4499,
      "imension": 4500,
      "Ġprinc": 4501,
      "Ġconstruction": 4502,
      "ĠFigure": 4503,
      "}|": 4504,
      "styles": 4505,
      "proto": 4506,
      "Ġweight": 4507,
      "scope": 4508,
      "Ġaccur": 4509,
      "ederal": 4510,
      "aching": 4511,
      "Ġalmost": 4512,
      "Ġestablish": 4513,
      "itude": 4514,
      "People": 4515,
      "background": 4516,
      "ĠGerm": 4517,
      "cing": 4518,
      "Ġcontribut": 4519,
      "equiv": 4520,
      "Ġjo": 4521,
      "ago": 4522,
      "Ġ[]": 4523,
      "Ġpercent": 4524,
      "Ġannounced": 4525,
      "Ġobj": 4526,
      "ĠJames": 4527,
      "Next": 4528,
      "break": 4529,
      "IO": 4530,
      "riate": 4531,
      "exec": 4532,
      "depend": 4533,
      "otal": 4534,
      "Ġforce": 4535,
      "Ġcorrect": 4536,
      "Ġarchitect": 4537,
      "essages": 4538,
      "returns": 4539,
      "ĠThom": 4540,
      "sd": 4541,
      "Ġunc": 4542,
      "ĠMy": 4543,
      "Ġdetails": 4544,
      "ĠAnt": 4545,
      "41": 4546,
      "ĠRober": 4547,
      "ua": 4548,
      "bool": 4549,
      "unch": 4550,
      "ĠSm": 4551,
      "utils": 4552,
      "57": 4553,
      "vey": 4554,
      "ĠFrance": 4555,
      "IV": 4556,
      "Ġprovides": 4557,
      "ein": 4558,
      "Url": 4559,
      "Types": 4560,
      "Max": 4561,
      "ensive": 4562,
      "edia": 4563,
      "inner": 4564,
      "cup": 4565,
      "De": 4566,
      "kit": 4567,
      "Ġcontract": 4568,
      "{}": 4569,
      "qquad": 4570,
      "./": 4571,
      "Ġir": 4572,
      "arily": 4573,
      "van": 4574,
      "CODE": 4575,
      "Offset": 4576,
      "lease": 4577,
      "Ġnames": 4578,
      "Ġprec": 4579,
      "unn": 4580,
      "ĠNe": 4581,
      "layer": 4582,
      "ĠPat": 4583,
      "oder": 4584,
      "SD": 4585,
      "Ġclosed": 4586,
      "Ġsetting": 4587,
      "Min": 4588,
      "ĠQue": 4589,
      "Fe": 4590,
      "Ġedge": 4591,
      "Ġchannel": 4592,
      "ida": 4593,
      "require": 4594,
      "Ġpers": 4595,
      "itar": 4596,
      "Ġsupported": 4597,
      "ĠRem": 4598,
      "ĠDepartment": 4599,
      "})\\": 4600,
      "Ġcurrently": 4601,
      "Case": 4602,
      "ND": 4603,
      "ln": 4604,
      "cd": 4605,
      "Ġeast": 4606,
      "thing": 4607,
      "ĠMal": 4608,
      "Ġeducation": 4609,
      "ĠHT": 4610,
      "Vis": 4611,
      "Ã¶": 4612,
      "Ġreturns": 4613,
      "Ġitself": 4614,
      "normal": 4615,
      "IF": 4616,
      "ĠStreet": 4617,
      "Ġregard": 4618,
      "stack": 4619,
      "rum": 4620,
      "Ġcourse": 4621,
      "********************************": 4622,
      "ĠDavid": 4623,
      "irit": 4624,
      "Sim": 4625,
      "Sy": 4626,
      "Eng": 4627,
      "Entity": 4628,
      "Ġcentral": 4629,
      "ĠOF": 4630,
      "1980": 4631,
      "Ġroot": 4632,
      "Ġmakes": 4633,
      "ĠArray": 4634,
      "support": 4635,
      "Ġargs": 4636,
      "acters": 4637,
      "ully": 4638,
      "bind": 4639,
      "aven": 4640,
      "Ġimages": 4641,
      "Ġepis": 4642,
      "Ġwebs": 4643,
      "Ġoffset": 4644,
      "Ġfiles": 4645,
      "aring": 4646,
      "ville": 4647,
      "NAME": 4648,
      "Ġparty": 4649,
      "58": 4650,
      "Ġunique": 4651,
      "uate": 4652,
      "Ġentry": 4653,
      "late": 4654,
      "Ġwhite": 4655,
      "sign": 4656,
      "Ġtree": 4657,
      "Ġdirectly": 4658,
      "ĠEX": 4659,
      "Ġelection": 4660,
      "Ġquantum": 4661,
      "Living": 4662,
      "Ġdeal": 4663,
      "rd": 4664,
      "Entry": 4665,
      "Ġrelative": 4666,
      "appro": 4667,
      ":\"": 4668,
      "67": 4669,
      "iting": 4670,
      "ĠRich": 4671,
      "Ġsomething": 4672,
      "star": 4673,
      "Ġissue": 4674,
      "rael": 4675,
      "Ġtool": 4676,
      "ĠArmy": 4677,
      "Ġtherefore": 4678,
      "Provider": 4679,
      "Ġtransfer": 4680,
      "Ġmale": 4681,
      "band": 4682,
      "Ġoptim": 4683,
      "ĠDon": 4684,
      "Ġdirection": 4685,
      "asons": 4686,
      "ĠSum": 4687,
      "task": 4688,
      "ĠArch": 4689,
      "Ġthings": 4690,
      "Frame": 4691,
      "Ġchall": 4692,
      "Ġcandid": 4693,
      "Ġassume": 4694,
      "fa": 4695,
      "ĠAPI": 4696,
      "Ġinc": 4697,
      "Tree": 4698,
      "Ġstage": 4699,
      "Ġtaking": 4700,
      "SU": 4701,
      "Ġuses": 4702,
      "Ġmechan": 4703,
      "Co": 4704,
      "Tag": 4705,
      "Ġmaximum": 4706,
      "oms": 4707,
      "float": 4708,
      "Ġrestr": 4709,
      "Ġnote": 4710,
      "&&": 4711,
      "Ġtra": 4712,
      "Ġgives": 4713,
      "atively": 4714,
      "aur": 4715,
      "win": 4716,
      "Bo": 4717,
      "parse": 4718,
      "onic": 4719,
      "iation": 4720,
      "{{\\": 4721,
      "Ġcoordin": 4722,
      "Ġrot": 4723,
      "rule": 4724,
      "xspace": 4725,
      "Ġrepresentation": 4726,
      "Ġwords": 4727,
      "di": 4728,
      "Ġanaly": 4729,
      "([": 4730,
      "Ġshall": 4731,
      "Ġuint": 4732,
      "tree": 4733,
      "criptor": 4734,
      "Ġconcern": 4735,
      "Ġpattern": 4736,
      "SO": 4737,
      "ĠGeorge": 4738,
      "inally": 4739,
      "matrix": 4740,
      "Ġargument": 4741,
      "Ġupon": 4742,
      "Ġparts": 4743,
      "Ġeffects": 4744,
      "Ġmid": 4745,
      "tic": 4746,
      "Ġrelationship": 4747,
      "1995": 4748,
      "Ġbg": 4749,
      "ometry": 4750,
      "ĠStud": 4751,
      "Ġdirector": 4752,
      "Ġ~": 4753,
      "NN": 4754,
      "ĠWashington": 4755,
      "=\"../../../../../": 4756,
      "Ġpresented": 4757,
      "Ġ$(\\": 4758,
      "Ġtax": 4759,
      "oice": 4760,
      "Ġfront": 4761,
      "Ġintroduced": 4762,
      "}}(": 4763,
      "Target": 4764,
      "Ġrunning": 4765,
      "Ġincrease": 4766,
      "When": 4767,
      "frame": 4768,
      "Pack": 4769,
      "Dr": 4770,
      "west": 4771,
      "document": 4772,
      "older": 4773,
      "ULT": 4774,
      "Ġappoint": 4775,
      "aml": 4776,
      "}\\,": 4777,
      "Ġwrote": 4778,
      "ĠRoman": 4779,
      "Top": 4780,
      "Ġhon": 4781,
      "Container": 4782,
      "Ġtim": 4783,
      "Ġproblems": 4784,
      "Ġholds": 4785,
      "outhern": 4786,
      "59": 4787,
      "Ġ(\"": 4788,
      "Ġvirtual": 4789,
      "reek": 4790,
      "arks": 4791,
      "eft": 4792,
      "Ag": 4793,
      "RL": 4794,
      "ĠFl": 4795,
      "ĉĉĉĉĉĉĉ": 4796,
      "Br": 4797,
      "}:": 4798,
      "CP": 4799,
      "ĠAssociation": 4800,
      "artifact": 4801,
      "Ġsuff": 4802,
      "Ã¤": 4803,
      "Ġbasis": 4804,
      "ĠOb": 4805,
      "ĠWeb": 4806,
      "ius": 4807,
      "template": 4808,
      "Ġexception": 4809,
      "ĠApp": 4810,
      "eal": 4811,
      "Ġgoal": 4812,
      "Ġdraw": 4813,
      "Access": 4814,
      "Process": 4815,
      "Ġallowed": 4816,
      "jection": 4817,
      "dep": 4818,
      "Ġlost": 4819,
      "unt": 4820,
      "Ġ&\\": 4821,
      "ĠUnion": 4822,
      "hest": 4823,
      "########": 4824,
      "eloc": 4825,
      "ĠOlymp": 4826,
      "Ġneeded": 4827,
      "Ġspin": 4828,
      "Ġdeaths": 4829,
      "Ġseg": 4830,
      "Ġdescription": 4831,
      "Ġsolid": 4832,
      "Ġmag": 4833,
      "Ġinstall": 4834,
      "Ġsound": 4835,
      "ilm": 4836,
      "yper": 4837,
      "root": 4838,
      "Ġcluster": 4839,
      "Ġvariable": 4840,
      "Ġdifficult": 4841,
      "author": 4842,
      "'),": 4843,
      "]);": 4844,
      "{{": 4845,
      "ios": 4846,
      "Utils": 4847,
      "Open": 4848,
      "ĉĠ": 4849,
      "raz": 4850,
      "Ġlen": 4851,
      "PO": 4852,
      "^+": 4853,
      "window": 4854,
      "match": 4855,
      "stry": 4856,
      "}\\\\": 4857,
      "Ġexcept": 4858,
      "KE": 4859,
      "omic": 4860,
      "()->": 4861,
      "edge": 4862,
      "Control": 4863,
      "ĠData": 4864,
      "Ġword": 4865,
      "CA": 4866,
      "rian": 4867,
      "gin": 4868,
      "}^{(": 4869,
      "ĠLemma": 4870,
      "ycle": 4871,
      "Ġ**": 4872,
      "ĠSee": 4873,
      "ĠBlack": 4874,
      "enced": 4875,
      "pat": 4876,
      "uz": 4877,
      "Ġrule": 4878,
      "Ġissues": 4879,
      "control": 4880,
      "ĠThus": 4881,
      "Ġroad": 4882,
      "How": 4883,
      "py": 4884,
      "ĠCO": 4885,
      "Ġadj": 4886,
      "resh": 4887,
      "classes": 4888,
      "pite": 4889,
      "BA": 4890,
      "ĠHall": 4891,
      "=\"-": 4892,
      "Ġframe": 4893,
      "cial": 4894,
      "files": 4895,
      "ZE": 4896,
      "uint": 4897,
      "Work": 4898,
      "Ġremove": 4899,
      "ams": 4900,
      "Height": 4901,
      "Ġyet": 4902,
      "onstr": 4903,
      "Ġcompanies": 4904,
      "Ġconfiguration": 4905,
      "Ġcomponents": 4906,
      "1994": 4907,
      "Ġcompared": 4908,
      "89": 4909,
      "Ġtakes": 4910,
      "ston": 4911,
      "ĠNote": 4912,
      "Ġmonths": 4913,
      "Ġeffective": 4914,
      "ena": 4915,
      "greg": 4916,
      "&=": 4917,
      "Ġdeep": 4918,
      "Ġboundary": 4919,
      "ĠLou": 4920,
      "ened": 4921,
      "hent": 4922,
      "Ġtransition": 4923,
      "ds": 4924,
      "aa": 4925,
      "oded": 4926,
      ")-": 4927,
      "Ġtemperature": 4928,
      "Ġexpression": 4929,
      "obile": 4930,
      "typ": 4931,
      "Ġcountries": 4932,
      "Ġcred": 4933,
      "Ġwriting": 4934,
      "Ġten": 4935,
      "ander": 4936,
      "DF": 4937,
      "SH": 4938,
      "clusion": 4939,
      "Ġ;": 4940,
      "wood": 4941,
      "1970": 4942,
      "ube": 4943,
      "Ġoperations": 4944,
      "=\"_": 4945,
      "then": 4946,
      "lice": 4947,
      "erry": 4948,
      "orts": 4949,
      "pher": 4950,
      "Ġadministr": 4951,
      "ani": 4952,
      "ĠPe": 4953,
      "Ġqual": 4954,
      "enumer": 4955,
      "Ġnumbers": 4956,
      "common": 4957,
      "]$": 4958,
      "asc": 4959,
      "den": 4960,
      "51": 4961,
      "that": 4962,
      "etch": 4963,
      "Ġbuffer": 4964,
      "Ġsm": 4965,
      "____": 4966,
      "Ġapplied": 4967,
      "Net": 4968,
      "AV": 4969,
      "lier": 4970,
      "should": 4971,
      "eters": 4972,
      "agram": 4973,
      "ĠSpec": 4974,
      "weight": 4975,
      "ado": 4976,
      "Ġvict": 4977,
      "Range": 4978,
      "adow": 4979,
      "Ġnovel": 4980,
      "eck": 4981,
      "Ġstre": 4982,
      "wait": 4983,
      "antic": 4984,
      "ATION": 4985,
      "ĠDirect": 4986,
      "Ġvariables": 4987,
      "ĠMart": 4988,
      "tml": 4989,
      "Ġmemory": 4990,
      "Ġfloat": 4991,
      "Ġfailed": 4992,
      "ĠMet": 4993,
      "conf": 4994,
      "Ġcompleted": 4995,
      "ĠUs": 4996,
      "fg": 4997,
      "Ġyield": 4998,
      "Ġfav": 4999,
      "Ġsett": 5000,
      "Ġoffice": 5001,
      "Ġjoined": 5002,
      "expected": 5003,
      "Ġarguments": 5004,
      "Configuration": 5005,
      "Ġpolitic": 5006,
      "ãģ": 5007,
      "Ġalthough": 5008,
      "ini": 5009,
      "uated": 5010,
      "Load": 5011,
      "Ġvers": 5012,
      "Ġallows": 5013,
      "igr": 5014,
      "inese": 5015,
      "Description": 5016,
      "Ġdomain": 5017,
      "Ġrev": 5018,
      "buffer": 5019,
      "QL": 5020,
      "ining": 5021,
      "Ġpassed": 5022,
      "Ġregister": 5023,
      "ailway": 5024,
      "ĠMount": 5025,
      "Parameter": 5026,
      "oul": 5027,
      "Ġmatter": 5028,
      "ĠInstitute": 5029,
      "1992": 5030,
      "Ġapply": 5031,
      "pecially": 5032,
      "ĠGermany": 5033,
      "Ġthought": 5034,
      "54": 5035,
      "orizont": 5036,
      "Ġlot": 5037,
      "dated": 5038,
      "Ġradio": 5039,
      "ett": 5040,
      "rupt": 5041,
      "Ġdebut": 5042,
      "Ġintegr": 5043,
      "Ġnodes": 5044,
      "Ġupper": 5045,
      "idget": 5046,
      "Ġoutside": 5047,
      "Ġbgcolor": 5048,
      "Ġcourt": 5049,
      "ĠOut": 5050,
      "images": 5051,
      "ĉĉĊ": 5052,
      "Header": 5053,
      "ĠĠĠĠĠĠĠĠĠĠĠĠĠĠĠĠĠĠĠĠĠ": 5054,
      "ĠJew": 5055,
      "fit": 5056,
      "Ġpresident": 5057,
      "ously": 5058,
      "ĠTable": 5059,
      "Ġrelig": 5060,
      "ĠReturns": 5061,
      "Interface": 5062,
      "pg": 5063,
      "\"))": 5064,
      "ĠSome": 5065,
      "ris": 5066,
      "ĠFile": 5067,
      "Ġstudies": 5068,
      "tim": 5069,
      "ĠSy": 5070,
      "Ġlo": 5071,
      "ĠUK": 5072,
      "hspace": 5073,
      "Ġchurch": 5074,
      "Ġdoc": 5075,
      "ros": 5076,
      "mes": 5077,
      "MM": 5078,
      "ĠGod": 5079,
      "linear": 5080,
      "Ġautom": 5081,
      "ĠDivision": 5082,
      "ĠWhile": 5083,
      "fs": 5084,
      "models": 5085,
      "Ġwebsite": 5086,
      "ĠLog": 5087,
      "|^": 5088,
      "agment": 5089,
      "isions": 5090,
      "Http": 5091,
      "tains": 5092,
      "={": 5093,
      "$(": 5094,
      "ĠCong": 5095,
      "Ġfire": 5096,
      "Exec": 5097,
      "Since": 5098,
      "Ġax": 5099,
      "ĠCompany": 5100,
      "Ġimpact": 5101,
      "ttps": 5102,
      "Ġlargest": 5103,
      "ughter": 5104,
      "Ġdiscover": 5105,
      "ĠPress": 5106,
      "ctx": 5107,
      "Ġjud": 5108,
      "Ġcomplet": 5109,
      "Json": 5110,
      "Write": 5111,
      "Ġwhole": 5112,
      "Ġbank": 5113,
      "ĠService": 5114,
      "Location": 5115,
      "iments": 5116,
      "ilton": 5117,
      "ancial": 5118,
      "Ġopened": 5119,
      "IGN": 5120,
      "ares": 5121,
      "1993": 5122,
      "Ġtalk": 5123,
      "cache": 5124,
      "Ġdifference": 5125,
      "Ġsigned": 5126,
      "Ġagre": 5127,
      "\\\"": 5128,
      "PR": 5129,
      "Ġrock": 5130,
      "Module": 5131,
      "artifactId": 5132,
      "language": 5133,
      "Level": 5134,
      "oundation": 5135,
      "Ġcontinued": 5136,
      "Ġcharacters": 5137,
      "ocal": 5138,
      "noindent": 5139,
      "ca": 5140,
      "ĠRoyal": 5141,
      "Ġsignal": 5142,
      "Ġtag": 5143,
      "68": 5144,
      ">,": 5145,
      "'$": 5146,
      "Ġmodern": 5147,
      "mission": 5148,
      "itter": 5149,
      "Ġneeds": 5150,
      "izations": 5151,
      "arp": 5152,
      "Ġgas": 5153,
      "gs": 5154,
      "Ġdevice": 5155,
      "Ġacqu": 5156,
      "Ġclasses": 5157,
      "tex": 5158,
      "Ġmarried": 5159,
      "ernel": 5160,
      "Ġdemonstr": 5161,
      "internal": 5162,
      "Ġinvolved": 5163,
      "ĠVol": 5164,
      "Ġtoday": 5165,
      "uit": 5166,
      "Ġgalax": 5167,
      "Ġexperience": 5168,
      "52": 5169,
      "osen": 5170,
      "clude": 5171,
      "before": 5172,
      "Ġflo": 5173,
      "Ġactually": 5174,
      "Ġcampaign": 5175,
      "94": 5176,
      "Ġbar": 5177,
      "Ġassist": 5178,
      "entity": 5179,
      "Le": 5180,
      "Ġdecision": 5181,
      "ĠTime": 5182,
      "cur": 5183,
      "Ġequations": 5184,
      "oring": 5185,
      "Ġstars": 5186,
      "border": 5187,
      "track": 5188,
      "Ġgre": 5189,
      "VAL": 5190,
      "ĠBay": 5191,
      "Ġpain": 5192,
      "Ġcast": 5193,
      "Ġincreasing": 5194,
      "Ġscen": 5195,
      "isation": 5196,
      "ultural": 5197,
      "Position": 5198,
      "Ġstri": 5199,
      "Ġselection": 5200,
      "gu": 5201,
      "neq": 5202,
      "Ġrender": 5203,
      "Rel": 5204,
      "ĠOff": 5205,
      "Ġ{}": 5206,
      "citet": 5207,
      "ying": 5208,
      "ĠMary": 5209,
      "Ġprofessional": 5210,
      "orizontal": 5211,
      "Script": 5212,
      "ponents": 5213,
      "Menu": 5214,
      ";->": 5215,
      "Ġchanged": 5216,
      "Ġrelation": 5217,
      "ĠMex": 5218,
      "Ġhttps": 5219,
      "Empty": 5220,
      "ĠMusic": 5221,
      "}+\\": 5222,
      "=\"../../../../../../": 5223,
      "Callback": 5224,
      "hi": 5225,
      "}}{\\": 5226,
      "rics": 5227,
      "Po": 5228,
      "Current": 5229,
      "ĠTV": 5230,
      "Ġnecessary": 5231,
      "Can": 5232,
      "Unit": 5233,
      "Ġsymbol": 5234,
      "TI": 5235,
      "Ġphysical": 5236,
      "patch": 5237,
      "ifying": 5238,
      "Ġbehavior": 5239,
      "SA": 5240,
      "Thread": 5241,
      "ansion": 5242,
      "ategor": 5243,
      "Ġhimself": 5244,
      "Ġlikely": 5245,
      "93": 5246,
      "allel": 5247,
      "Sw": 5248,
      "%;": 5249,
      "Ġavoid": 5250,
      "Ġsens": 5251,
      "anges": 5252,
      "Search": 5253,
      "ython": 5254,
      "Ġimmedi": 5255,
      "ĠRobert": 5256,
      "Ġsongs": 5257,
      "Ġnuc": 5258,
      "ĠIsrael": 5259,
      "Ġsources": 5260,
      "groupId": 5261,
      "ĠDuring": 5262,
      "ynch": 5263,
      "Ġsmaller": 5264,
      "Ġfollowed": 5265,
      "Ġinvestig": 5266,
      "Ġdenote": 5267,
      "Params": 5268,
      "system": 5269,
      "Ġsure": 5270,
      "ĠMor": 5271,
      "ĠMod": 5272,
      "Ġprimary": 5273,
      "oe": 5274,
      "Ġhandle": 5275,
      "92": 5276,
      "anger": 5277,
      "Ġxml": 5278,
      "Ġess": 5279,
      "Ġliving": 5280,
      "Ġlayer": 5281,
      "Ġdig": 5282,
      "aine": 5283,
      "ĠJust": 5284,
      "ĠPublic": 5285,
      "mooth": 5286,
      "vant": 5287,
      "ĠTex": 5288,
      "ĠGreen": 5289,
      "Settings": 5290,
      "vention": 5291,
      "LI": 5292,
      "ectors": 5293,
      "Enc": 5294,
      "ĠAng": 5295,
      "53": 5296,
      "Ġdefe": 5297,
      ":(": 5298,
      "Ġ*)": 5299,
      "None": 5300,
      "Ġempty": 5301,
      "Hash": 5302,
      "Local": 5303,
      "Ġtransport": 5304,
      "issions": 5305,
      "agger": 5306,
      "utable": 5307,
      "Ġespecially": 5308,
      "ĠAustralian": 5309,
      "ĠWork": 5310,
      "Ġwife": 5311,
      "ĠCreate": 5312,
      "ilies": 5313,
      "ano": 5314,
      "elves": 5315,
      "Ġmention": 5316,
      "Ġdesigned": 5317,
      "drop": 5318,
      "token": 5319,
      "ĠAcadem": 5320,
      "arter": 5321,
      "Ġthroughout": 5322,
      "Ġexisting": 5323,
      "Ġbecomes": 5324,
      "Ġnor": 5325,
      "Ġscreen": 5326,
      "ĠFranc": 5327,
      "Ġcoeff": 5328,
      "Ġexpand": 5329,
      "nes": 5330,
      "Ġ>=": 5331,
      "Ġusually": 5332,
      "Ġimm": 5333,
      "estival": 5334,
      "Stat": 5335,
      "}-\\": 5336,
      "Ġscope": 5337,
      "Direct": 5338,
      "enumerate": 5339,
      "Ġbenef": 5340,
      "scal": 5341,
      "comple": 5342,
      "ĠDE": 5343,
      "Ġtro": 5344,
      "Ġtour": 5345,
      "Ġprove": 5346,
      "72": 5347,
      "ACK": 5348,
      "FO": 5349,
      "Ġconstit": 5350,
      "({\\": 5351,
      "ĠAssert": 5352,
      "scr": 5353,
      "parameter": 5354,
      "1991": 5355,
      "force": 5356,
      "Note": 5357,
      "variant": 5358,
      "ãĥ": 5359,
      "PS": 5360,
      "sey": 5361,
      "Track": 5362,
      "Ġveloc": 5363,
      "API": 5364,
      "debug": 5365,
      "ao": 5366,
      "mode": 5367,
      "gn": 5368,
      "Ġsolutions": 5369,
      "omial": 5370,
      "airs": 5371,
      "serve": 5372,
      "ĠJack": 5373,
      "Ġrecorded": 5374,
      "Ġteams": 5375,
      "DD": 5376,
      "Ġ-\\": 5377,
      "nap": 5378,
      "zon": 5379,
      "ixt": 5380,
      "resource": 5381,
      "device": 5382,
      "vspace": 5383,
      "STR": 5384,
      "Ġmoney": 5385,
      "ootstr": 5386,
      "Ġdoesn": 5387,
      "stylesheet": 5388,
      "ART": 5389,
      "ictionary": 5390,
      "ECT": 5391,
      "olute": 5392,
      "Ġformed": 5393,
      "ĠSociety": 5394,
      "ĠNS": 5395,
      "Ġfeel": 5396,
      "second": 5397,
      "ĠProv": 5398,
      "liament": 5399,
      "91": 5400,
      "Connection": 5401,
      "Ġconnect": 5402,
      "300": 5403,
      "ensus": 5404,
      "Ġang": 5405,
      "COLOR": 5406,
      "'re": 5407,
      "Ġcouple": 5408,
      "Document": 5409,
      "Ġrace": 5410,
      "ospital": 5411,
      "ounter": 5412,
      "HO": 5413,
      "Change": 5414,
      "adr": 5415,
      "ĠTur": 5416,
      "multicol": 5417,
      "after": 5418,
      "Ġpadding": 5419,
      "ĠST": 5420,
      "Ġ::": 5421,
      "ĠJer": 5422,
      "ĠMo": 5423,
      "Ġord": 5424,
      "ĠOpen": 5425,
      "card": 5426,
      "dimensional": 5427,
      "Ġsense": 5428,
      "hr": 5429,
      "You": 5430,
      "iences": 5431,
      "Port": 5432,
      "Ġlonger": 5433,
      "84": 5434,
      "82": 5435,
      "bour": 5436,
      "Ġdirected": 5437,
      "pop": 5438,
      "Ġmonth": 5439,
      "Ġforward": 5440,
      "Ġque": 5441,
      "Ġfight": 5442,
      "hash": 5443,
      "ĠCap": 5444,
      "FT": 5445,
      "vector": 5446,
      "etime": 5447,
      "ĠForm": 5448,
      "rea": 5449,
      "theorem": 5450,
      "anning": 5451,
      "CR": 5452,
      "Ġschools": 5453,
      "Ġaltern": 5454,
      "inct": 5455,
      "Ġunits": 5456,
      "itemize": 5457,
      "BO": 5458,
      "equal": 5459,
      "Ġsex": 5460,
      "multicolumn": 5461,
      "road": 5462,
      "usion": 5463,
      "Ġsus": 5464,
      "graph": 5465,
      "Properties": 5466,
      "ĠHen": 5467,
      "ĠAfrican": 5468,
      "det": 5469,
      "ĠCath": 5470,
      "Ġsecurity": 5471,
      "Pi": 5472,
      "Integer": 5473,
      "ĠRoad": 5474,
      "kind": 5475,
      "Ġplaying": 5476,
      "Right": 5477,
      "Ġspeed": 5478,
      "Option": 5479,
      "ĠIsland": 5480,
      "ursor": 5481,
      "bon": 5482,
      "Ġimplies": 5483,
      "Ġidea": 5484,
      "Ġstore": 5485,
      "PT": 5486,
      "alls": 5487,
      "shire": 5488,
      "Ġmar": 5489,
      "Ġvisit": 5490,
      "EM": 5491,
      "Ġinstit": 5492,
      "ĠDemocr": 5493,
      "jo": 5494,
      "Ġactual": 5495,
      "Post": 5496,
      "Ġsimply": 5497,
      "ĠChristian": 5498,
      "range": 5499,
      "Ġevidence": 5500,
      "ĠĠĠĊ": 5501,
      "lam": 5502,
      "Dir": 5503,
      "Ġcritical": 5504,
      "Ġexhib": 5505,
      "Ġsubsequ": 5506,
      "That": 5507,
      "Ġwhy": 5508,
      "Ġtemplate": 5509,
      "Order": 5510,
      "]\\": 5511,
      "Mon": 5512,
      "Ġinterpre": 5513,
      "CS": 5514,
      "Ġfriend": 5515,
      "porary": 5516,
      "underline": 5517,
      "Ġsoftware": 5518,
      "ootstrap": 5519,
      "Ġprogress": 5520,
      "ĠAfrica": 5521,
      "ĠDec": 5522,
      "modal": 5523,
      "Ġfilename": 5524,
      "Ġpolice": 5525,
      "Ġforces": 5526,
      "Ġconcept": 5527,
      "Ġlove": 5528,
      "ala": 5529,
      "construct": 5530,
      "Mar": 5531,
      "---": 5532,
      "Ġindustry": 5533,
      "ĠSam": 5534,
      "ALL": 5535,
      "Ġparams": 5536,
      "\"));": 5537,
      "Ġnom": 5538,
      "icker": 5539,
      "asket": 5540,
      "Ġconsum": 5541,
      "ĠLeg": 5542,
      "uri": 5543,
      "ĠMat": 5544,
      "icate": 5545,
      "Ġnight": 5546,
      "ĠMac": 5547,
      "Ġpreviously": 5548,
      "orig": 5549,
      ")}{": 5550,
      "ĠWhite": 5551,
      "ĠĠĠĠĠĠĠĠĠĠĠĠĠĠĠĠĠĠĠĠ": 5552,
      "Ġadapt": 5553,
      "Ġmother": 5554,
      "Ġface": 5555,
      "Ġrob": 5556,
      "Ġexplicit": 5557,
      "ech": 5558,
      "Ġpersonal": 5559,
      "Ġeight": 5560,
      "ussian": 5561,
      "docs": 5562,
      "1000": 5563,
      "Ġconnected": 5564,
      "Sk": 5565,
      "Project": 5566,
      "Copy": 5567,
      "Ġdam": 5568,
      "Ġoverride": 5569,
      "Ġweak": 5570,
      "Ġswitch": 5571,
      "ingu": 5572,
      "ĠBook": 5573,
      "ĠDay": 5574,
      "Ġinside": 5575,
      "alled": 5576,
      "dest": 5577,
      "Ġsession": 5578,
      "Ġtell": 5579,
      "Ġotherwise": 5580,
      "reme": 5581,
      "Ġsplit": 5582,
      "Store": 5583,
      "Ġcivil": 5584,
      "Ġcomment": 5585,
      "cope": 5586,
      "ients": 5587,
      "ĠMiss": 5588,
      "Ġwriter": 5589,
      "transform": 5590,
      "Ġerrors": 5591,
      "gence": 5592,
      "Ġchoice": 5593,
      "ĠAccording": 5594,
      "400": 5595,
      "term": 5596,
      "ĠBuild": 5597,
      "Ġappeared": 5598,
      "Ġign": 5599,
      "Ġkm": 5600,
      "Ġreve": 5601,
      "Ġcommit": 5602,
      "EQ": 5603,
      "opl": 5604,
      "Definition": 5605,
      "overs": 5606,
      "interface": 5607,
      "ĠMuseum": 5608,
      "Ġbooks": 5609,
      "Operation": 5610,
      "dx": 5611,
      "ĠTherefore": 5612,
      "1960": 5613,
      "Font": 5614,
      "Ġextension": 5615,
      "Ġrules": 5616,
      "Ġremains": 5617,
      "Ġtowards": 5618,
      "Ġhit": 5619,
      "Ġshape": 5620,
      "ening": 5621,
      "Ġbehind": 5622,
      "Ev": 5623,
      "Op": 5624,
      "ipp": 5625,
      "ĠResearch": 5626,
      "Ġboard": 5627,
      "auth": 5628,
      "PL": 5629,
      "Ġsil": 5630,
      "amera": 5631,
      "idents": 5632,
      "}}_": 5633,
      "Ġevolution": 5634,
      "ĠCanadian": 5635,
      "ws": 5636,
      "free": 5637,
      "step": 5638,
      "Ð»": 5639,
      "Me": 5640,
      "ĠKingdom": 5641,
      "asic": 5642,
      "Ġhous": 5643,
      "ĠEar": 5644,
      "Ġtoken": 5645,
      "ĠMag": 5646,
      "ĠMichael": 5647,
      "ulate": 5648,
      "Ġdescribe": 5649,
      "del": 5650,
      "atur": 5651,
      "Left": 5652,
      "$}": 5653,
      "types": 5654,
      "illa": 5655,
      "Ġgave": 5656,
      "Serial": 5657,
      "1988": 5658,
      "tog": 5659,
      "illing": 5660,
      "norm": 5661,
      "63": 5662,
      "Ġarticle": 5663,
      "Schema": 5664,
      "Ġattribute": 5665,
      "direct": 5666,
      "ervices": 5667,
      "Handle": 5668,
      "MO": 5669,
      "ĠScience": 5670,
      "ĠException": 5671,
      "Collection": 5672,
      "%%": 5673,
      "Ġequivalent": 5674,
      "ĠCentral": 5675,
      "icrosoft": 5676,
      "ĠThomas": 5677,
      "Expression": 5678,
      "Record": 5679,
      "ocation": 5680,
      "INE": 5681,
      "1989": 5682,
      "ä¸": 5683,
      "Ġelectron": 5684,
      ")/": 5685,
      "ĠOther": 5686,
      "copy": 5687,
      "inding": 5688,
      "Ġauth": 5689,
      "ĠChinese": 5690,
      "Results": 5691,
      "ĠTexas": 5692,
      "ĠRussian": 5693,
      "pring": 5694,
      "Ġstatement": 5695,
      "ees": 5696,
      "Ġdataset": 5697,
      "ĠPo": 5698,
      "ighest": 5699,
      "otion": 5700,
      "Ġestimate": 5701,
      "cp": 5702,
      "ĠOper": 5703,
      "ORD": 5704,
      "ORT": 5705,
      "Ġshare": 5706,
      "rect": 5707,
      "sv": 5708,
      "umni": 5709,
      "exports": 5710,
      "ugins": 5711,
      "ĠGold": 5712,
      "Ġmissing": 5713,
      "ĠTown": 5714,
      "Ġdecre": 5715,
      "Async": 5716,
      "Iter": 5717,
      "Ġstarting": 5718,
      "Match": 5719,
      "ometimes": 5720,
      "62": 5721,
      "Ġfra": 5722,
      "tribution": 5723,
      "Reference": 5724,
      "Ġproced": 5725,
      "nov": 5726,
      "icted": 5727,
      "cat": 5728,
      "================================": 5729,
      "Ġcounter": 5730,
      "Ġlimited": 5731,
      "crete": 5732,
      "XX": 5733,
      "edy": 5734,
      "ĠYear": 5735,
      "render": 5736,
      "ĠEnd": 5737,
      "Ġneut": 5738,
      "ĠIS": 5739,
      "Ġundefined": 5740,
      "ĠErr": 5741,
      "Ġpractice": 5742,
      "oute": 5743,
      "ĠNews": 5744,
      "resents": 5745,
      "Ġratio": 5746,
      "Mult": 5747,
      "Ġvolume": 5748,
      ")}$": 5749,
      ")+": 5750,
      "61": 5751,
      "ĠMinister": 5752,
      "ĠAlex": 5753,
      "WE": 5754,
      "onom": 5755,
      "Ġhash": 5756,
      "Kind": 5757,
      "Ġer": 5758,
      "ĠMus": 5759,
      "?:": 5760,
      "Ġjoin": 5761,
      "Ġnews": 5762,
      "lap": 5763,
      "reshold": 5764,
      "Ġplot": 5765,
      "msg": 5766,
      "Ġinj": 5767,
      "Ġdetermined": 5768,
      "Ġlevels": 5769,
      "Ġcause": 5770,
      "white": 5771,
      "ners": 5772,
      "Ġsort": 5773,
      "Do": 5774,
      "ĠItal": 5775,
      "Ġstructures": 5776,
      "Ġemer": 5777,
      "ĠVirgin": 5778,
      "():": 5779,
      "ĠMr": 5780,
      "FL": 5781,
      "Ġregions": 5782,
      "Ġreplaced": 5783,
      "real": 5784,
      "Sign": 5785,
      "Ġcapital": 5786,
      "Ġresulting": 5787,
      "Ġtold": 5788,
      "ims": 5789,
      "Ġstudied": 5790,
      "ĠWestern": 5791,
      "arts": 5792,
      "global": 5793,
      "Names": 5794,
      "ĠBest": 5795,
      "rial": 5796,
      "well": 5797,
      "ved": 5798,
      "Ġnegative": 5799,
      "req": 5800,
      "ntax": 5801,
      "olar": 5802,
      "writ": 5803,
      "very": 5804,
      "ye": 5805,
      "bul": 5806,
      "Ġknowledge": 5807,
      "join": 5808,
      "Ġcontaining": 5809,
      "ĠClub": 5810,
      "orse": 5811,
      "Ġca": 5812,
      "ensions": 5813,
      "Session": 5814,
      "ĠPre": 5815,
      "Impl": 5816,
      "itable": 5817,
      "delete": 5818,
      "Ġcollect": 5819,
      "uge": 5820,
      "Ġitems": 5821,
      "ĠLouis": 5822,
      "ĠTO": 5823,
      "erve": 5824,
      "Ġprote": 5825,
      "oom": 5826,
      "Ġusers": 5827,
      "Ġded": 5828,
      "Ġbirth": 5829,
      "74": 5830,
      "olved": 5831,
      "Ġadopt": 5832,
      "Ġsend": 5833,
      "Ġillustr": 5834,
      "ether": 5835,
      "Ġcomes": 5836,
      "Now": 5837,
      "operatorname": 5838,
      "Ġpeak": 5839,
      "ducation": 5840,
      "approx": 5841,
      "ĠOR": 5842,
      "Prot": 5843,
      "81": 5844,
      "Ġonline": 5845,
      "env": 5846,
      "ĠBase": 5847,
      "PP": 5848,
      "Ġorigin": 5849,
      "Vari": 5850,
      "high": 5851,
      "success": 5852,
      "ĠMem": 5853,
      "ĠScott": 5854,
      "isl": 5855,
      "NavBar": 5856,
      "Ġforms": 5857,
      "}'": 5858,
      "Ġfood": 5859,
      "Ptr": 5860,
      "PECT": 5861,
      "79": 5862,
      "Ġteach": 5863,
      "(:": 5864,
      "ĠMer": 5865,
      "vas": 5866,
      "hover": 5867,
      "Ġdimension": 5868,
      "Helper": 5869,
      "ĠKore": 5870,
      "Ġrequires": 5871,
      "ĠBen": 5872,
      "Ġalgebra": 5873,
      "Ġscore": 5874,
      "address": 5875,
      "Ġscient": 5876,
      "Ġmanagement": 5877,
      "Ġcharg": 5878,
      "ĠBG": 5879,
      "Template": 5880,
      "Ġscript": 5881,
      "ERROR": 5882,
      "za": 5883,
      "Ġfounded": 5884,
      "\\}$": 5885,
      "Ġbelong": 5886,
      "Pat": 5887,
      "Ġgrant": 5888,
      "session": 5889,
      "Then": 5890,
      "83": 5891,
      "Ġmus": 5892,
      "ĠJapanese": 5893,
      "ĠCheck": 5894,
      "Ġdistributed": 5895,
      "Ġplatform": 5896,
      "ĠCommission": 5897,
      "Ġrepresented": 5898,
      "widget": 5899,
      "Ġsurv": 5900,
      "ĠHistor": 5901,
      "access": 5902,
      "ĠSal": 5903,
      "ĠHistory": 5904,
      "send": 5905,
      "Ġmount": 5906,
      "Ġframework": 5907,
      "Ġmagnetic": 5908,
      "mitted": 5909,
      "Down": 5910,
      "Ġcontact": 5911,
      "Tim": 5912,
      "Ġplaces": 5913,
      "istan": 5914,
      "Ġelected": 5915,
      "Ġjournal": 5916,
      "texttt": 5917,
      "sort": 5918,
      "Parser": 5919,
      "site": 5920,
      "TER": 5921,
      "71": 5922,
      "ĠMont": 5923,
      "azine": 5924,
      "actor": 5925,
      "Non": 5926,
      "gan": 5927,
      "Ġensure": 5928,
      ".[": 5929,
      "ãĤ": 5930,
      "ufact": 5931,
      "km": 5932,
      "73": 5933,
      "FC": 5934,
      "mas": 5935,
      "Ke": 5936,
      "Ġrepe": 5937,
      "elegate": 5938,
      "ura": 5939,
      "Ġsaw": 5940,
      "Dom": 5941,
      "ĠGL": 5942,
      "Ġbeginning": 5943,
      "Ġfinally": 5944,
      "xx": 5945,
      "ĠTor": 5946,
      "Ġresources": 5947,
      "ĠKe": 5948,
      "Parameters": 5949,
      "69": 5950,
      "make": 5951,
      "ĠTom": 5952,
      "Ġeigen": 5953,
      "fn": 5954,
      "acement": 5955,
      "Api": 5956,
      "Ġremain": 5957,
      "Ġstrict": 5958,
      "foo": 5959,
      "Ġnature": 5960,
      "icons": 5961,
      "Ġreading": 5962,
      "ĠArg": 5963,
      "Long": 5964,
      "iece": 5965,
      "ĠAcademy": 5966,
      "toString": 5967,
      "\\,\\": 5968,
      "Ġgenerally": 5969,
      "ĠGrand": 5970,
      "utor": 5971,
      "Ġearlier": 5972,
      "clos": 5973,
      "handle": 5974,
      "argument": 5975,
      "ĠFore": 5976,
      "fficient": 5977,
      "Ġweb": 5978,
      "Ġfrequency": 5979,
      "Ġcharge": 5980,
      "elt": 5981,
      "Ġtrain": 5982,
      "ictor": 5983,
      "ecause": 5984,
      "Ġseven": 5985,
      "}}}": 5986,
      "Ġansw": 5987,
      "focus": 5988,
      "Ġgrowth": 5989,
      "Ġproper": 5990,
      "Ðº": 5991,
      "Rev": 5992,
      "ĠGreat": 5993,
      "Ġstreng": 5994,
      "Que": 5995,
      "media": 5996,
      "Render": 5997,
      "Te": 5998,
      "Ġprofile": 5999,
      "1987": 6000,
      "ĠĠĠĠĠĠĠĠĠĠĠĠĠĠĠĠĠĠĠĠĠĠĠĠĠĠĠĠĠĠĠĠĠĠĠĠĠĠĠ": 6001,
      "Ġcore": 6002,
      "annotation": 6003,
      "Ġsen": 6004,
      "Ġ\"\\": 6005,
      "Ġfigure": 6006,
      "PA": 6007,
      "Pass": 6008,
      "Ġmetric": 6009,
      "ashed": 6010,
      "ĠFrancis": 6011,
      "component": 6012,
      "Comple": 6013,
      "AND": 6014,
      "ĠHealth": 6015,
      "Ġ\\|": 6016,
      "ĠFrank": 6017,
      "Ġcop": 6018,
      "ĠGa": 6019,
      "ĠField": 6020,
      "Se": 6021,
      "El": 6022,
      "ĠGames": 6023,
      "ki": 6024,
      "ĠEv": 6025,
      "Ġappointed": 6026,
      "Ġrecently": 6027,
      "Ġquality": 6028,
      "bitr": 6029,
      "Ġaud": 6030,
      "BS": 6031,
      "auge": 6032,
      "Ġmanager": 6033,
      "ymf": 6034,
      "Ġ['": 6035,
      "ĠCarol": 6036,
      "Database": 6037,
      "Ġspectrum": 6038,
      "Ġfinished": 6039,
      "ĠPost": 6040,
      "Ġveh": 6041,
      "Ġeditor": 6042,
      "Ġstated": 6043,
      "Ġopport": 6044,
      "Vector": 6045,
      "clear": 6046,
      "Tool": 6047,
      "ymfony": 6048,
      "Am": 6049,
      "ĠDate": 6050,
      "disabled": 6051,
      "Ġinteger": 6052,
      "255": 6053,
      "vm": 6054,
      "ĠĠĠĠĠĠĊ": 6055,
      "Ġextra": 6056,
      "related": 6057,
      "Ġvelocity": 6058,
      "Ġclassical": 6059,
      "ĠGl": 6060,
      "Ġstaff": 6061,
      "Ġalbums": 6062,
      "click": 6063,
      "Ġuniform": 6064,
      "Ġwalk": 6065,
      "Ġeconomic": 6066,
      "So": 6067,
      "Ġalt": 6068,
      "Ġsubs": 6069,
      "ĠGener": 6070,
      "Inst": 6071,
      "1986": 6072,
      "uan": 6073,
      "Ġinfo": 6074,
      "otic": 6075,
      "Ġimplementation": 6076,
      "Ġbad": 6077,
      "cover": 6078,
      "Ġattention": 6079,
      "Use": 6080,
      "ĠVer": 6081,
      "Ġlack": 6082,
      "Ġextended": 6083,
      "MD": 6084,
      "Ġkilled": 6085,
      "ĠAL": 6086,
      "ĠOur": 6087,
      "Ġ$\\{": 6088,
      "asketball": 6089,
      "Ġpick": 6090,
      "ĠCongress": 6091,
      "Ġmeaning": 6092,
      "ita": 6093,
      "ih": 6094,
      "Ġcache": 6095,
      "equals": 6096,
      "plugin": 6097,
      "ĠLat": 6098,
      "Ġsettings": 6099,
      "ression": 6100,
      "Pop": 6101,
      "Ġbring": 6102,
      "ewidth": 6103,
      "Ġminimum": 6104,
      "Ġjav": 6105,
      "ĠOver": 6106,
      "ested": 6107,
      "Ġlegal": 6108,
      "Ġcit": 6109,
      "Decl": 6110,
      "ollowing": 6111,
      "=\"/": 6112,
      "webkit": 6113,
      "Ġdaughter": 6114,
      "ancy": 6115,
      "Ġdidn": 6116,
      "footer": 6117,
      "oub": 6118,
      "black": 6119,
      "minus": 6120,
      "ĠSmith": 6121,
      "rees": 6122,
      "iny": 6123,
      "\\'": 6124,
      "definition": 6125,
      "ĠCharles": 6126,
      "Ġscience": 6127,
      "condition": 6128,
      "Ġfamilies": 6129,
      "Ġfully": 6130,
      "ĠRob": 6131,
      "Ġsufficient": 6132,
      "&#": 6133,
      "Ġgenerate": 6134,
      "ĠRead": 6135,
      "ĠCommittee": 6136,
      "Ġwait": 6137,
      "mercial": 6138,
      "ĠSecond": 6139,
      "Ġdestroy": 6140,
      "Ġhours": 6141,
      "'],": 6142,
      "sol": 6143,
      "Ġpanel": 6144,
      "=#": 6145,
      "estamp": 6146,
      "Ġnet": 6147,
      "icago": 6148,
      "ĠFlor": 6149,
      "Title": 6150,
      "Values": 6151,
      "Ġruns": 6152,
      "ĠMap": 6153,
      "Ġhighest": 6154,
      "Ġinvoke": 6155,
      "Ġoverall": 6156,
      "mathscr": 6157,
      "Ġreached": 6158,
      "ĠRecords": 6159,
      "Ġparse": 6160,
      "anned": 6161,
      "Ġbottom": 6162,
      "ĠBill": 6163,
      "-->": 6164,
      "Ġlatter": 6165,
      "Ġnamespace": 6166,
      "irl": 6167,
      "Ġdetermine": 6168,
      "ĠFe": 6169,
      "Ġoccup": 6170,
      "Ġsamples": 6171,
      "export": 6172,
      "oration": 6173,
      "Ġpresence": 6174,
      "ĠNow": 6175,
      "ters": 6176,
      "Ġmiddle": 6177,
      "ĠCre": 6178,
      "Ġquick": 6179,
      "ĠZeal": 6180,
      "DIR": 6181,
      "Ġste": 6182,
      "aled": 6183,
      "Ġappears": 6184,
      "ĠJose": 6185,
      "Ġdoing": 6186,
      "Ġeventually": 6187,
      "Ġraise": 6188,
      "vol": 6189,
      "SET": 6190,
      "mselves": 6191,
      "Ġincor": 6192,
      "Ġecho": 6193,
      "ĠDan": 6194,
      "Theta": 6195,
      "GB": 6196,
      "sets": 6197,
      "GET": 6198,
      "retary": 6199,
      "Ġmaintain": 6200,
      "ĠSing": 6201,
      "ĠRun": 6202,
      "Invalid": 6203,
      "cloud": 6204,
      "ĠSuper": 6205,
      "ĠAssembly": 6206,
      "Ġtrade": 6207,
      "ĠChe": 6208,
      "ĠDel": 6209,
      "elopment": 6210,
      "$_": 6211,
      "Ġincreased": 6212,
      "trm": 6213,
      "Ġproducts": 6214,
      "Ġapprop": 6215,
      "Ġ})": 6216,
      "reland": 6217,
      "ĠTechn": 6218,
      "RI": 6219,
      "ĠHel": 6220,
      "Ġnoise": 6221,
      "Ġdro": 6222,
      "Ġfinancial": 6223,
      "Ġleague": 6224,
      "oma": 6225,
      "iders": 6226,
      "Ġguitar": 6227,
      "ĠBGCOLOR": 6228,
      "ĠCatholic": 6229,
      "ĠItalian": 6230,
      "elebr": 6231,
      "ĠZealand": 6232,
      "Ġscheme": 6233,
      "Host": 6234,
      "Ġsports": 6235,
      "~~~~": 6236,
      "kr": 6237,
      "Ġlisted": 6238,
      "1984": 6239,
      "tical": 6240,
      "Ġcategory": 6241,
      "ynchron": 6242,
      "Ġ${": 6243,
      "ifies": 6244,
      "Ġnorm": 6245,
      "ker": 6246,
      "(*": 6247,
      "###": 6248,
      "exception": 6249,
      "Device": 6250,
      "Ġorganization": 6251,
      "atre": 6252,
      "Ġthemselves": 6253,
      "Ġremoved": 6254,
      "1985": 6255,
      "Mark": 6256,
      "Ġlibrary": 6257,
      "cons": 6258,
      "ĠMass": 6259,
      "Ġculture": 6260,
      "SL": 6261,
      "'>": 6262,
      "ĠHere": 6263,
      "Rect": 6264,
      "iverse": 6265,
      "Ġtechnology": 6266,
      "ĠLong": 6267,
      "Ver": 6268,
      "ky": 6269,
      "azz": 6270,
      "umin": 6271,
      "ircraft": 6272,
      "fil": 6273,
      "Lo": 6274,
      "Ġdelete": 6275,
      "Ġhot": 6276,
      "iller": 6277,
      "Ġprevent": 6278,
      "Dep": 6279,
      "endar": 6280,
      "Num": 6281,
      "Core": 6282,
      "alysis": 6283,
      "textrm": 6284,
      "aved": 6285,
      "iring": 6286,
      "False": 6287,
      "{$": 6288,
      "ynomial": 6289,
      "Ġcle": 6290,
      "Ġembedd": 6291,
      "Ġtransaction": 6292,
      "Ġcontainer": 6293,
      "cribe": 6294,
      "Ġmovement": 6295,
      "Ġdatabase": 6296,
      "~$": 6297,
      "=(": 6298,
      "rey": 6299,
      "ips": 6300,
      "thlet": 6301,
      "Ġrepresents": 6302,
      "Ġetc": 6303,
      "Ġartists": 6304,
      "Ġremaining": 6305,
      "Ġrisk": 6306,
      "icket": 6307,
      "Ġterr": 6308,
      "Ġslow": 6309,
      "ĠLos": 6310,
      "panel": 6311,
      "ĠGovernment": 6312,
      "Ġbuildings": 6313,
      "Bl": 6314,
      "ĠWhat": 6315,
      "Ġthing": 6316,
      "Ġpen": 6317,
      "ĠTrue": 6318,
      "`.": 6319,
      "yes": 6320,
      "ĠCON": 6321,
      "dependency": 6322,
      "ette": 6323,
      "rot": 6324,
      "Ġexamples": 6325,
      "phere": 6326,
      "}},": 6327,
      "ailed": 6328,
      "aud": 6329,
      "atalog": 6330,
      "_;": 6331,
      "Ġradi": 6332,
      "linewidth": 6333,
      "Ġparticularly": 6334,
      "lood": 6335,
      "Ġball": 6336,
      "ĠRichard": 6337,
      "ournament": 6338,
      "ĠEXPECT": 6339,
      "ĠRel": 6340,
      "Ġidentity": 6341,
      "Ġbasic": 6342,
      "Ġsoon": 6343,
      "settings": 6344,
      "Ġderiv": 6345,
      "ĠRE": 6346,
      "=-": 6347,
      "abilities": 6348,
      "Ġbur": 6349,
      "Ġvan": 6350,
      "StyleID": 6351,
      "icated": 6352,
      "Application": 6353,
      "framework": 6354,
      "Ġdark": 6355,
      "pers": 6356,
      "}^{-": 6357,
      "Ġrecover": 6358,
      "ental": 6359,
      "Ġbrought": 6360,
      "ĠInc": 6361,
      "Ġanti": 6362,
      "custom": 6363,
      "Bytes": 6364,
      "ĠMath": 6365,
      "ĠFin": 6366,
      "ĠName": 6367,
      "fields": 6368,
      ":\\": 6369,
      "Ġmotion": 6370,
      "Ġtests": 6371,
      "ĠPeter": 6372,
      "ĠModel": 6373,
      "Wrap": 6374,
      "Ġanim": 6375,
      "Go": 6376,
      "prod": 6377,
      "Ġderived": 6378,
      "Parent": 6379,
      "hing": 6380,
      "Ġmatches": 6381,
      "ĠBank": 6382,
      "Ġstudent": 6383,
      "Ġplaced": 6384,
      "UP": 6385,
      "connect": 6386,
      "produ": 6387,
      "ĠOrder": 6388,
      "aligned": 6389,
      "ĠSur": 6390,
      "Cal": 6391,
      "ouri": 6392,
      "ĠAut": 6393,
      "ĠOffic": 6394,
      "ympt": 6395,
      "Ġneighbor": 6396,
      "enge": 6397,
      "Ġrad": 6398,
      "Ġtravel": 6399,
      "atically": 6400,
      ">();": 6401,
      "Ġ_{": 6402,
      "ĠBrown": 6403,
      "-$": 6404,
      "footnote": 6405,
      "Ġreduced": 6406,
      "Ġepisode": 6407,
      "help": 6408,
      "Ġroute": 6409,
      "faces": 6410,
      "}\"": 6411,
      "Ġchosen": 6412,
      "Ġtheorem": 6413,
      "Ġthread": 6414,
      "heast": 6415,
      "war": 6416,
      "inder": 6417,
      "ĠFoundation": 6418,
      "Ġfemale": 6419,
      "ror": 6420,
      "<\\": 6421,
      "multi": 6422,
      "forms": 6423,
      "holder": 6424,
      "Ġagreement": 6425,
      "present": 6426,
      "Ġdecided": 6427,
      "Draw": 6428,
      "Ġoperators": 6429,
      "Ġuseful": 6430,
      "Ġreli": 6431,
      "Ñĥ": 6432,
      "Ġroom": 6433,
      "ĠJSON": 6434,
      "Ġwoman": 6435,
      "Ġprograms": 6436,
      "Ġestimated": 6437,
      "results": 6438,
      "Ġheader": 6439,
      "padding": 6440,
      "ĠParis": 6441,
      "Ġpackage": 6442,
      "eler": 6443,
      "Ġutil": 6444,
      "Ġapproximately": 6445,
      "Ġproduce": 6446,
      "Ġoriginally": 6447,
      "Ġinteraction": 6448,
      "Ġconsists": 6449,
      "Ġunsigned": 6450,
      "tw": 6451,
      "Ġleader": 6452,
      "----------------------------------------------------------------": 6453,
      "More": 6454,
      "Ġnetworks": 6455,
      "Ġactivity": 6456,
      "Has": 6457,
      "shot": 6458,
      "ORM": 6459,
      "Ġhyp": 6460,
      "romise": 6461,
      "Ġblue": 6462,
      "Ġtit": 6463,
      "rong": 6464,
      "boolean": 6465,
      "Ġspent": 6466,
      "Ġvertex": 6467,
      "Ġwide": 6468,
      "Argument": 6469,
      ";\"": 6470,
      "Ġgold": 6471,
      "ĠBoard": 6472,
      "uty": 6473,
      "Di": 6474,
      "mi": 6475,
      "Body": 6476,
      "Ġvac": 6477,
      "subseteq": 6478,
      "Ġgreater": 6479,
      "Stack": 6480,
      "'.": 6481,
      "Ġmanif": 6482,
      "Ġplant": 6483,
      "Sl": 6484,
      "OK": 6485,
      "imin": 6486,
      "Ġcoach": 6487,
      "shift": 6488,
      "virtual": 6489,
      "Ġwave": 6490,
      "aily": 6491,
      "Ġsmooth": 6492,
      "ĠIll": 6493,
      "ertific": 6494,
      "GE": 6495,
      "Ġrap": 6496,
      "replace": 6497,
      "ĠRet": 6498,
      "anta": 6499,
      "Ġpor": 6500,
      "onds": 6501,
      "Ġcompute": 6502,
      "ĠĠĠĠĠĠĠĠĠĠĠĠĠĠĠĠĠĠ": 6503,
      "spect": 6504,
      "PH": 6505,
      "à¤": 6506,
      "allery": 6507,
      "ami": 6508,
      "apped": 6509,
      "ĠHamilton": 6510,
      "Ġchalleng": 6511,
      "lev": 6512,
      "Ac": 6513,
      "She": 6514,
      "reedom": 6515,
      "Ġfast": 6516,
      "Ġchain": 6517,
      "Ġexpansion": 6518,
      "Ġextract": 6519,
      "esh": 6520,
      "Byte": 6521,
      "zer": 6522,
      "ynamic": 6523,
      "Ã³n": 6524,
      "Reader": 6525,
      "structure": 6526,
      "Ġ++": 6527,
      "sect": 6528,
      "DL": 6529,
      "Ġartist": 6530,
      "prove": 6531,
      "Ġarbitr": 6532,
      "fect": 6533,
      "BR": 6534,
      "Ġinfin": 6535,
      "Classes": 6536,
      "eries": 6537,
      "ĠRock": 6538,
      "avity": 6539,
      "olf": 6540,
      "ĠHill": 6541,
      "deg": 6542,
      "Ġstations": 6543,
      "Enabled": 6544,
      "Ġdiscussed": 6545,
      "1983": 6546,
      "ĠTimes": 6547,
      "Ġcomparison": 6548,
      "Ġactions": 6549,
      "full": 6550,
      "Red": 6551,
      "Ġstrategy": 6552,
      ">.": 6553,
      "Ġassign": 6554,
      "1950": 6555,
      "Ġinterview": 6556,
      "blockList": 6557,
      "Ġconsequ": 6558,
      "Ġbranch": 6559,
      "ĠSl": 6560,
      "aws": 6561,
      "uple": 6562,
      "hs": 6563,
      "agraph": 6564,
      "Writer": 6565,
      "category": 6566,
      "Policy": 6567,
      "Ġpert": 6568,
      "Ġpurch": 6569,
      "idential": 6570,
      "Ġminor": 6571,
      "Ġfeed": 6572,
      "Ġapplications": 6573,
      "Ġbyte": 6574,
      "Ã§": 6575,
      "ĠSpanish": 6576,
      "Ġones": 6577,
      "ĠSummer": 6578,
      "Ġrecomm": 6579,
      "Ġthreat": 6580,
      "Assert": 6581,
      "uler": 6582,
      "Ġcontinuous": 6583,
      "Ġbal": 6584,
      "ella": 6585,
      "Each": 6586,
      "callback": 6587,
      "bes": 6588,
      "Ġunknown": 6589,
      "aver": 6590,
      "while": 6591,
      "Ġbytes": 6592,
      "Param": 6593,
      "subfigure": 6594,
      "ĠVirginia": 6595,
      "ixel": 6596,
      "Ġmedical": 6597,
      "Ġhyper": 6598,
      "URE": 6599,
      "Ġ(-": 6600,
      "ropy": 6601,
      "Ġtraditional": 6602,
      "Ġinline": 6603,
      "attice": 6604,
      "Ġprep": 6605,
      ";<": 6606,
      "Ġnoted": 6607,
      "}}_{": 6608,
      "Ġcollege": 6609,
      "ĠRegister": 6610,
      "SSERT": 6611,
      "iques": 6612,
      "ibly": 6613,
      "Su": 6614,
      "LP": 6615,
      "byte": 6616,
      "ydro": 6617,
      "urt": 6618,
      "Ġconserv": 6619,
      "Ġquite": 6620,
      "ĠForce": 6621,
      "Tests": 6622,
      "Ġbelieve": 6623,
      "arian": 6624,
      "Debug": 6625,
      "Ġchem": 6626,
      "Ġsch": 6627,
      "oplus": 6628,
      "MC": 6629,
      "Ġleads": 6630,
      "had": 6631,
      "Ġlif": 6632,
      "ĠGeorg": 6633,
      "Ġ{};": 6634,
      "geles": 6635,
      "ATH": 6636,
      "ĠWomen": 6637,
      "Doc": 6638,
      "agnost": 6639,
      "register": 6640,
      "ĠChicago": 6641,
      "ĠTw": 6642,
      "Ġmaps": 6643,
      "Ġfourth": 6644,
      "Delete": 6645,
      "election": 6646,
      "oviet": 6647,
      "Ġbrother": 6648,
      "ĠAlthough": 6649,
      "stat": 6650,
      "Ġprobably": 6651,
      "Ġexternal": 6652,
      "Ġ$|": 6653,
      "ounds": 6654,
      "igan": 6655,
      "Ġos": 6656,
      "allow": 6657,
      "EC": 6658,
      "Fil": 6659,
      "seud": 6660,
      "=\"../../../": 6661,
      "Boolean": 6662,
      "ĠCamp": 6663,
      "comment": 6664,
      "ĠMethod": 6665,
      "annels": 6666,
      "Ġcurve": 6667,
      "Art": 6668,
      "Ġshared": 6669,
      "Ġhence": 6670,
      "Ġasked": 6671,
      "attribute": 6672,
      "Ġcaused": 6673,
      "SION": 6674,
      "Ġinstr": 6675,
      "Ġmunic": 6676,
      "Ġmachine": 6677,
      "Ġfootballers": 6678,
      "Ġforeign": 6679,
      "Other": 6680,
      "bi": 6681,
      "razil": 6682,
      "Ġletter": 6683,
      "lie": 6684,
      "udd": 6685,
      "HTML": 6686,
      "Ġnative": 6687,
      "lines": 6688,
      "ĠFootball": 6689,
      "Ġ$.": 6690,
      "Ġchoose": 6691,
      "Ġflag": 6692,
      "pute": 6693,
      "coq": 6694,
      "Ġalumni": 6695,
      "ellig": 6696,
      "1982": 6697,
      "Icon": 6698,
      "Ġinteresting": 6699,
      "ĠRussia": 6700,
      "ATA": 6701,
      "My": 6702,
      "ĠDen": 6703,
      "ĠAust": 6704,
      "Ġagent": 6705,
      "isms": 6706,
      "Ġmut": 6707,
      "ĠTwo": 6708,
      "setminus": 6709,
      "Ġactivities": 6710,
      "double": 6711,
      "application": 6712,
      "ĠAnn": 6713,
      "Ġreach": 6714,
      "__(": 6715,
      "Ġseems": 6716,
      "ĠAngeles": 6717,
      "Ġreceive": 6718,
      "ipeline": 6719,
      "Sum": 6720,
      "Meta": 6721,
      "pped": 6722,
      "oting": 6723,
      "igration": 6724,
      "ĠLO": 6725,
      "recated": 6726,
      "asure": 6727,
      "protobuf": 6728,
      "Dialog": 6729,
      "Ġexperiments": 6730,
      "Ġminim": 6731,
      "Ġcritic": 6732,
      "inger": 6733,
      "vest": 6734,
      "Ġsometimes": 6735,
      "Ġobservations": 6736,
      "Ġfun": 6737,
      "Ġseparate": 6738,
      "ĠFlorida": 6739,
      "Ġwanted": 6740,
      "Ġdise": 6741,
      "Ġmis": 6742,
      "ĠBig": 6743,
      "atial": 6744,
      "Ġsteps": 6745,
      "anguage": 6746,
      "ĠMax": 6747,
      "TED": 6748,
      "ĠAlso": 6749,
      "ĠPenn": 6750,
      "Metadata": 6751,
      "Args": 6752,
      "ĠMel": 6753,
      "Ġpressure": 6754,
      "riev": 6755,
      "Ġtreatment": 6756,
      "initial": 6757,
      "ĠError": 6758,
      "olec": 6759,
      "Ġbroadcast": 6760,
      "Ġeasy": 6761,
      "Ġsituation": 6762,
      "zero": 6763,
      "Ġstack": 6764,
      "Ġmovie": 6765,
      "ishes": 6766,
      "Ġmur": 6767,
      "cut": 6768,
      "ĠCD": 6769,
      "radius": 6770,
      "points": 6771,
      "fort": 6772,
      "Ġcompl": 6773,
      "ĠIreland": 6774,
      "ja": 6775,
      "Ġprocesses": 6776,
      "ĠRequ": 6777,
      "Click": 6778,
      "ĠFre": 6779,
      "1979": 6780,
      "Ġ('": 6781,
      "contin": 6782,
      "ĠProject": 6783,
      "car": 6784,
      "Ġrecords": 6785,
      "Ġplane": 6786,
      "Tab": 6787,
      "Ġvariety": 6788,
      "ĠLand": 6789,
      "TC": 6790,
      "Ġcoming": 6791,
      "Ġflat": 6792,
      "margin": 6793,
      "Person": 6794,
      "Ġcompact": 6795,
      "_+": 6796,
      "Var": 6797,
      "ĠOlympics": 6798,
      "urren": 6799,
      "ĠUnder": 6800,
      "ĠDu": 6801,
      "Main": 6802,
      "Ġlock": 6803,
      "Ġpri": 6804,
      "nel": 6805,
      "Ġmeeting": 6806,
      "_*": 6807,
      "orter": 6808,
      "stitution": 6809,
      "Ġdirectory": 6810,
      "Ġbinary": 6811,
      "irmed": 6812,
      "Mock": 6813,
      ")|": 6814,
      "Ġsaf": 6815,
      "Ġ($\\": 6816,
      "ĠMexico": 6817,
      "ĠTem": 6818,
      "Ġtensor": 6819,
      "Ġgun": 6820,
      "ĠHenry": 6821,
      "short": 6822,
      "LS": 6823,
      "Storage": 6824,
      "ĠLake": 6825,
      "ĠStep": 6826,
      "spe": 6827,
      "TV": 6828,
      "Ġearn": 6829,
      "UB": 6830,
      "Ġimmediately": 6831,
      "alo": 6832,
      "rome": 6833,
      "Ġinfluence": 6834,
      "aser": 6835,
      "Ġparticle": 6836,
      "Ġsegment": 6837,
      "Ġhighly": 6838,
      "Ã¨": 6839,
      "Ġdepends": 6840,
      "sql": 6841,
      "kin": 6842,
      "Ġremained": 6843,
      "Ġprojects": 6844,
      "Ġ<=": 6845,
      "Ġmajority": 6846,
      "ĠArts": 6847,
      "Root": 6848,
      "Ne": 6849,
      "ko": 6850,
      "Ġclean": 6851,
      "Ġleave": 6852,
      "ishop": 6853,
      "product": 6854,
      "dim": 6855,
      "store": 6856,
      "ilarly": 6857,
      "uls": 6858,
      "Ġaccuracy": 6859,
      "ora": 6860,
      "\")]": 6861,
      "_{(": 6862,
      "Ġmix": 6863,
      "ĠHTML": 6864,
      "rad": 6865,
      "Ġpolynomial": 6866,
      "Ġtransl": 6867,
      "Ġnearly": 6868,
      "sur": 6869,
      "Ġeasily": 6870,
      "Ġways": 6871,
      "ĠIts": 6872,
      "ĠÃĥ": 6873,
      "house": 6874,
      "bootstrap": 6875,
      "Ġnothing": 6876,
      "Ġinsp": 6877,
      "Ġgrand": 6878,
      "Ġequip": 6879,
      "ali": 6880,
      "sample": 6881,
      "Exp": 6882,
      "ategories": 6883,
      "Ġcontribution": 6884,
      "ĠEvent": 6885,
      "Ġradius": 6886,
      "Ġvoc": 6887,
      "ixture": 6888,
      "KEY": 6889,
      "Ġflux": 6890,
      "Obj": 6891,
      "ĠLine": 6892,
      "arant": 6893,
      "Ġsquare": 6894,
      "Ġfederal": 6895,
      "istance": 6896,
      "erc": 6897,
      "rip": 6898,
      "ternet": 6899,
      "`,": 6900,
      "toggle": 6901,
      "*{": 6902,
      "ĠProgram": 6903,
      "utch": 6904,
      "Ġcompetition": 6905,
      "odec": 6906,
      "Ġability": 6907,
      "ĠTim": 6908,
      "ĠOf": 6909,
      "Ġreserv": 6910,
      "ĠVictor": 6911,
      "ects": 6912,
      "ĠFilm": 6913,
      "insert": 6914,
      "ĠAtl": 6915,
      "ifically": 6916,
      "END": 6917,
      "TS": 6918,
      "Ġslight": 6919,
      "Ġjoint": 6920,
      "Display": 6921,
      "1981": 6922,
      "Ġ\\;": 6923,
      "gorithms": 6924,
      "Ġmanufact": 6925,
      "edit": 6926,
      "Ġinher": 6927,
      "Ġmsg": 6928,
      "Ġloop": 6929,
      "Ġdu": 6930,
      "poses": 6931,
      "material": 6932,
      "region": 6933,
      "Ġrelevant": 6934,
      "Ġreduce": 6935,
      "ĠGoogle": 6936,
      "Ġexam": 6937,
      "ilation": 6938,
      "Ġresolution": 6939,
      "olk": 6940,
      "Ġcelebr": 6941,
      "Ġ'/": 6942,
      "Ġcollabor": 6943,
      "Ġbounded": 6944,
      "'))": 6945,
      "Ġcard": 6946,
      "Ġwid": 6947,
      "Ġessential": 6948,
      "Ġminutes": 6949,
      "Show": 6950,
      "elli": 6951,
      "items": 6952,
      "ĠFurther": 6953,
      "Ġliterature": 6954,
      "Ġexactly": 6955,
      "yg": 6956,
      "impl": 6957,
      "ĠPan": 6958,
      "Ġcontrast": 6959,
      "Ġlives": 6960,
      "160": 6961,
      "OM": 6962,
      "ji": 6963,
      "iger": 6964,
      "ils": 6965,
      "Ġconstraints": 6966,
      "lers": 6967,
      "dule": 6968,
      "Ġunion": 6969,
      "ĠassertEquals": 6970,
      "ĠMost": 6971,
      "auto": 6972,
      "keys": 6973,
      "'\\": 6974,
      "organ": 6975,
      "FAULT": 6976,
      "^{-\\": 6977,
      "ĠArab": 6978,
      "sche": 6979,
      "Ġstay": 6980,
      "Ġcos": 6981,
      "Ġharm": 6982,
      "Ġprim": 6983,
      "inline": 6984,
      "Ġdynamics": 6985,
      "Ġidentified": 6986,
      "Ġdiagram": 6987,
      "ĠAv": 6988,
      "Ġ),": 6989,
      "Job": 6990,
      "notation": 6991,
      "ato": 6992,
      "Ġwrap": 6993,
      "ifications": 6994,
      "ĠValue": 6995,
      "limits": 6996,
      "isters": 6997,
      "inem": 6998,
      "Widget": 6999,
      "Ġmind": 7000,
      "Cre": 7001,
      "Transaction": 7002,
      "plugins": 7003,
      "Ġpurpose": 7004,
      "Ġoccur": 7005,
      "Ġprison": 7006,
      "ady": 7007,
      "Ġgeneration": 7008,
      "AGE": 7009,
      "Ġsymmetry": 7010,
      "\\}": 7011,
      "rev": 7012,
      "grid": 7013,
      "abit": 7014,
      "oral": 7015,
      "Ġcandidate": 7016,
      "DA": 7017,
      "email": 7018,
      "Ġbul": 7019,
      "omorphism": 7020,
      "What": 7021,
      "ĠLife": 7022,
      "uages": 7023,
      "ellar": 7024,
      "pool": 7025,
      "AME": 7026,
      "dagger": 7027,
      "Ġparticles": 7028,
      "ĠKn": 7029,
      "tion": 7030,
      "Ġgauge": 7031,
      "Ġhtml": 7032,
      "ski": 7033,
      "256": 7034,
      "ean": 7035,
      "Ġhel": 7036,
      "ucket": 7037,
      "Ġfactors": 7038,
      "Ljava": 7039,
      "plements": 7040,
      "ĠUN": 7041,
      "Ġmicro": 7042,
      "CTION": 7043,
      "Ġâ": 7044,
      "*)": 7045,
      "Prop": 7046,
      "ĠStar": 7047,
      "defined": 7048,
      "Ġawarded": 7049,
      "Descriptor": 7050,
      "Ġche": 7051,
      "Ġinner": 7052,
      "Ġcalls": 7053,
      "ĠUser": 7054,
      "mock": 7055,
      "SR": 7056,
      "Ġcompletely": 7057,
      "ipe": 7058,
      "ĠIO": 7059,
      "Ġelectric": 7060,
      "Ġacadem": 7061,
      "Ġaircraft": 7062,
      "Ġbrief": 7063,
      "Rule": 7064,
      "1976": 7065,
      "people": 7066,
      "Ġspaces": 7067,
      "alg": 7068,
      "imensions": 7069,
      "1978": 7070,
      "Ġsurround": 7071,
      "Ġparents": 7072,
      "osing": 7073,
      "Extension": 7074,
      "Section": 7075,
      "Ġjson": 7076,
      "Ġattr": 7077,
      "1972": 7078,
      "Ġscatter": 7079,
      "cpp": 7080,
      "Ġplays": 7081,
      "Ġmentioned": 7082,
      "Changed": 7083,
      "Here": 7084,
      "blue": 7085,
      "Initial": 7086,
      "ĠDet": 7087,
      "apers": 7088,
      "yan": 7089,
      "Ġfix": 7090,
      "Ð°Ð": 7091,
      "coin": 7092,
      "Vol": 7093,
      "Ident": 7094,
      "Ġfif": 7095,
      "Ġformula": 7096,
      "ĠDirector": 7097,
      "Ġexistence": 7098,
      "Ġmaster": 7099,
      "etailed": 7100,
      "Ġoptimal": 7101,
      "osh": 7102,
      "Ġ$[": 7103,
      "ĠBur": 7104,
      "Ġcomputer": 7105,
      "NE": 7106,
      "ĠCast": 7107,
      "Ġvisual": 7108,
      "ĠMad": 7109,
      "Ġhum": 7110,
      "Ġtasks": 7111,
      "Ġimprove": 7112,
      "However": 7113,
      "Ġunivers": 7114,
      "Ġconsistent": 7115,
      "names": 7116,
      "ĠNetwork": 7117,
      "Ġapproximation": 7118,
      "Ġfeatured": 7119,
      "enses": 7120,
      "Ġbey": 7121,
      "Ġformation": 7122,
      "ĠHand": 7123,
      "enum": 7124,
      "Ġwhom": 7125,
      "bal": 7126,
      "called": 7127,
      "DI": 7128,
      "ola": 7129,
      "Ġpolar": 7130,
      "ĠInst": 7131,
      "ĠScot": 7132,
      "anda": 7133,
      "áĥ": 7134,
      "cf": 7135,
      "Ġheavy": 7136,
      "Ġsociety": 7137,
      "Ġmedal": 7138,
      "Ġdisk": 7139,
      "bing": 7140,
      "ometric": 7141,
      "uting": 7142,
      "inf": 7143,
      "Ġpark": 7144,
      "ĠEducation": 7145,
      "urred": 7146,
      "Ġamb": 7147,
      "ĠKey": 7148,
      "ĠCons": 7149,
      "ĠSwed": 7150,
      "ĠGen": 7151,
      "numer": 7152,
      "Fields": 7153,
      "Ġbeyond": 7154,
      "Ġindividuals": 7155,
      "Ġcompare": 7156,
      "Ġut": 7157,
      "ockey": 7158,
      "Ġdetection": 7159,
      "wa": 7160,
      "iday": 7161,
      "rich": 7162,
      "Ġconstructed": 7163,
      "Ġbus": 7164,
      "equality": 7165,
      "bigg": 7166,
      "sych": 7167,
      "stop": 7168,
      "textsc": 7169,
      "Ġmeasured": 7170,
      "ĠFestival": 7171,
      "olver": 7172,
      "Ġtherm": 7173,
      "uations": 7174,
      "Package": 7175,
      "Ġopening": 7176,
      "leep": 7177,
      "ĠIran": 7178,
      "undred": 7179,
      "Ġappropriate": 7180,
      "miss": 7181,
      "Ġcommercial": 7182,
      "found": 7183,
      "bu": 7184,
      "1977": 7185,
      "ĠMil": 7186,
      "Ġarchitecture": 7187,
      "Ġheart": 7188,
      "hesis": 7189,
      "Active": 7190,
      "ĠUse": 7191,
      "ACE": 7192,
      "nections": 7193,
      "Ġaspect": 7194,
      "Ġwor": 7195,
      "ĠItaly": 7196,
      "Ġactor": 7197,
      "Ġstra": 7198,
      "Äģ": 7199,
      "Ġconflic": 7200,
      "isher": 7201,
      "1975": 7202,
      "1974": 7203,
      "ĠSun": 7204,
      "ny": 7205,
      "cmd": 7206,
      "Queue": 7207,
      "Xml": 7208,
      "Ġphil": 7209,
      "Ġsatisfies": 7210,
      "\\\\\\\\\\\\\\\\\\\\\\\\\\\\\\\\": 7211,
      "Our": 7212,
      "Ġtesting": 7213,
      "nam": 7214,
      "icients": 7215,
      "Ġserial": 7216,
      "Ġcitiz": 7217,
      "unched": 7218,
      "Ġfoot": 7219,
      "JECT": 7220,
      "NG": 7221,
      "pay": 7222,
      "shape": 7223,
      "spring": 7224,
      "ĠOffice": 7225,
      "Ġpriv": 7226,
      "ĠĠĠĠĠĠĠĠĠĠĠĠĠĠĠĠĠĠĠĠĠĠĠĠĠ": 7227,
      "enter": 7228,
      "Ġ|\\": 7229,
      "none": 7230,
      "Ġangle": 7231,
      "Timeout": 7232,
      "Members": 7233,
      "Before": 7234,
      "modules": 7235,
      "ivial": 7236,
      "dict": 7237,
      "ĠURL": 7238,
      "admin": 7239,
      "Ġmission": 7240,
      "Ġprocedure": 7241,
      "Ġreligious": 7242,
      "Ġvertices": 7243,
      "Ġhidden": 7244,
      "Struct": 7245,
      "Ø§": 7246,
      "wedge": 7247,
      "Ġmoving": 7248,
      "150": 7249,
      "ĠSocial": 7250,
      "Ret": 7251,
      "Ġdistinct": 7252,
      "Ġshot": 7253,
      "Att": 7254,
      "ĠOh": 7255,
      "family": 7256,
      "Ġgreen": 7257,
      "Ġedges": 7258,
      "PRE": 7259,
      "Ġeth": 7260,
      "Ġdecom": 7261,
      "ĠInitial": 7262,
      "Ġpositions": 7263,
      "dem": 7264,
      "password": 7265,
      "super": 7266,
      "Ġrates": 7267,
      "Ġjavax": 7268,
      "1968": 7269,
      "ĠEach": 7270,
      "iana": 7271,
      "mann": 7272,
      "coming": 7273,
      ";/": 7274,
      "properties": 7275,
      "La": 7276,
      "forall": 7277,
      "ket": 7278,
      "ycl": 7279,
      "Ġsave": 7280,
      "orner": 7281,
      "Ġlooking": 7282,
      "ITY": 7283,
      "roduction": 7284,
      "Eq": 7285,
      "scroll": 7286,
      "Ġsummer": 7287,
      "venue": 7288,
      "Ġpartial": 7289,
      "Ġago": 7290,
      "ĠColor": 7291,
      "Ġcarry": 7292,
      ",\\,": 7293,
      "MB": 7294,
      "Year": 7295,
      "Ġentity": 7296,
      "arc": 7297,
      "Ġresponsible": 7298,
      "Ġabsolute": 7299,
      "[:": 7300,
      "CI": 7301,
      "rb": 7302,
      "Ġscene": 7303,
      "Ġgoals": 7304,
      "aration": 7305,
      "idae": 7306,
      "va": 7307,
      "Ġcommunities": 7308,
      "ĠMartin": 7309,
      "iano": 7310,
      "ĠTop": 7311,
      "ĠProposition": 7312,
      "Ġmixed": 7313,
      "hemat": 7314,
      "Ġquestions": 7315,
      "ĠSaint": 7316,
      "),\\": 7317,
      ")).": 7318,
      "istent": 7319,
      "Ġcref": 7320,
      "Lock": 7321,
      "ĠSil": 7322,
      "Ġdrug": 7323,
      "Any": 7324,
      "ĠOld": 7325,
      "Ġvote": 7326,
      "ĠShow": 7327,
      "neg": 7328,
      "}%": 7329,
      "Ġtransp": 7330,
      "Ġmock": 7331,
      "Ġnumerical": 7332,
      "TEST": 7333,
      "Custom": 7334,
      "Edit": 7335,
      "John": 7336,
      "Ġtrying": 7337,
      "ĠEngine": 7338,
      "Ġkeys": 7339,
      "Ġgetting": 7340,
      "Ġcapacity": 7341,
      "Ġdead": 7342,
      "typeof": 7343,
      "hentication": 7344,
      "'m": 7345,
      "ĠAtt": 7346,
      "Ġfailure": 7347,
      "bel": 7348,
      "1973": 7349,
      "Ġexperimental": 7350,
      "Ġaxis": 7351,
      "printf": 7352,
      "connection": 7353,
      "Ġpolitician": 7354,
      "ien": 7355,
      "}}(\\": 7356,
      "ĠEqu": 7357,
      "install": 7358,
      "osoph": 7359,
      "ĠCarolina": 7360,
      "record": 7361,
      "anner": 7362,
      "Ġpoor": 7363,
      "Gu": 7364,
      "Ġprotocol": 7365,
      "Ġended": 7366,
      "Ġconsole": 7367,
      "DS": 7368,
      "ga": 7369,
      "Ġgiving": 7370,
      "Ġstorage": 7371,
      "Only": 7372,
      "Ġemission": 7373,
      "Ġpairs": 7374,
      "cases": 7375,
      "Ġconcent": 7376,
      "posite": 7377,
      "Ġgoes": 7378,
      "ĉĉĉĊ": 7379,
      "Ġsinger": 7380,
      "iffer": 7381,
      "_{-": 7382,
      "rine": 7383,
      "ĠPet": 7384,
      "Ġsaying": 7385,
      "Ġwatch": 7386,
      "While": 7387,
      "ĠDom": 7388,
      "ĠId": 7389,
      "Send": 7390,
      "Ġblocks": 7391,
      "IX": 7392,
      "iral": 7393,
      "Ġdepth": 7394,
      "Ġsignificantly": 7395,
      "inet": 7396,
      "Ġcells": 7397,
      "Further": 7398,
      "Ġclassification": 7399,
      "Ġdivision": 7400,
      "Ġ\"/": 7401,
      "unct": 7402,
      "Ġfair": 7403,
      "Ġreflect": 7404,
      "JSON": 7405,
      "Ġbattle": 7406,
      "Ġapi": 7407,
      "Ġattributes": 7408,
      "WS": 7409,
      "ĠJud": 7410,
      "FILE": 7411,
      "Network": 7412,
      "Ġ(*": 7413,
      "ĠExec": 7414,
      "Init": 7415,
      "flo": 7416,
      "cknow": 7417,
      "Channel": 7418,
      "Ġfavor": 7419,
      "inant": 7420,
      "................": 7421,
      "Ġtheore": 7422,
      "Ġcorresponds": 7423,
      "Ġalloc": 7424,
      "lig": 7425,
      "ĠEmp": 7426,
      "ĠParliament": 7427,
      "Symbol": 7428,
      "Ġinsert": 7429,
      "akers": 7430,
      "Ġdetail": 7431,
      "inv": 7432,
      "uer": 7433,
      "istrib": 7434,
      "Ġstraight": 7435,
      "120": 7436,
      "Ġproceed": 7437,
      ")))": 7438,
      "ollary": 7439,
      "Symfony": 7440,
      "Ġcalculated": 7441,
      "Feature": 7442,
      "Ġgalaxies": 7443,
      "addr": 7444,
      "Ġcombined": 7445,
      "ĠProfess": 7446,
      "ova": 7447,
      "lyph": 7448,
      "Ġdual": 7449,
      "hens": 7450,
      "subsubsection": 7451,
      "andard": 7452,
      "tip": 7453,
      "ĠNOT": 7454,
      "udget": 7455,
      "Account": 7456,
      "Ġowner": 7457,
      "_{{\\": 7458,
      "unsigned": 7459,
      "Ġcomputed": 7460,
      "Perm": 7461,
      "Scope": 7462,
      "Ġreferred": 7463,
      "fly": 7464,
      "ĠHaw": 7465,
      "Ġmostly": 7466,
      "Ġpropag": 7467,
      "Events": 7468,
      "picture": 7469,
      "ĠCode": 7470,
      "Ġinstanceof": 7471,
      "ĠKar": 7472,
      "GS": 7473,
      "ads": 7474,
      "rices": 7475,
      "Ġfriends": 7476,
      "usters": 7477,
      "çļ": 7478,
      "ĠTHE": 7479,
      "=\"@": 7480,
      "ima": 7481,
      "Ġauthors": 7482,
      "atible": 7483,
      "Ġmomentum": 7484,
      "icks": 7485,
      "Ġweeks": 7486,
      "Ġcarried": 7487,
      "1971": 7488,
      "ĠPac": 7489,
      "ĠSeries": 7490,
      "Ġtypically": 7491,
      "asion": 7492,
      "Ġnation": 7493,
      "Ġwallet": 7494,
      "Ġproviding": 7495,
      "raq": 7496,
      "Notes": 7497,
      "Msg": 7498,
      "BUG": 7499,
      "andra": 7500,
      "ĠMur": 7501,
      "Items": 7502,
      "ĠHence": 7503,
      "Ġanything": 7504,
      "thread": 7505,
      "Ġcoupling": 7506,
      "ĠTrump": 7507,
      "Ġicon": 7508,
      "Ġincome": 7509,
      "Ġexc": 7510,
      "ĠSoviet": 7511,
      "Ġdb": 7512,
      "inations": 7513,
      "ĠĠĠĠĠĠĠĠĠĠĠĠĠĠĠĠĠĠĠĠĠĠĠĠĠĠĠĠĠĠĠĠĠĠĠĠĠĠĠĠĠĠĠĠĠĠĠĠĠĠĠĠĠĠĠĠĠĠĠĠĠĠĠĠ": 7514,
      "eds": 7515,
      "profile": 7516,
      "ĠColumb": 7517,
      "itation": 7518,
      "Support": 7519,
      "ĠAwards": 7520,
      "çļĦ": 7521,
      "vania": 7522,
      "ĠCopy": 7523,
      "Ġchief": 7524,
      "1969": 7525,
      "ĠIslam": 7526,
      "rate": 7527,
      "bad": 7528,
      "stats": 7529,
      "onym": 7530,
      "(){": 7531,
      "power": 7532,
      "Pool": 7533,
      "Ġfraction": 7534,
      "ĠLibrary": 7535,
      "inher": 7536,
      "Ġwriters": 7537,
      "master": 7538,
      "Early": 7539,
      "ĠKh": 7540,
      "During": 7541,
      "\"`": 7542,
      "room": 7543,
      "ĠPeople": 7544,
      "Ġcontributions": 7545,
      "Ġformal": 7546,
      "itan": 7547,
      "ums": 7548,
      "ems": 7549,
      "Ġarbitrary": 7550,
      "Ġchart": 7551,
      "Ġcreating": 7552,
      "ancel": 7553,
      "Ġwinning": 7554,
      "Ġserve": 7555,
      "assertEquals": 7556,
      "ĠJournal": 7557,
      "ĠYoung": 7558,
      "Det": 7559,
      "kl": 7560,
      "sto": 7561,
      "128": 7562,
      "Ġ[];": 7563,
      "Ġshowed": 7564,
      "Media": 7565,
      "Iterator": 7566,
      "Ġcalc": 7567,
      "Ġ\\(": 7568,
      "Ġraised": 7569,
      "Named": 7570,
      "ĠLiber": 7571,
      "Ġwind": 7572,
      "owers": 7573,
      "ĠPlay": 7574,
      "ĠĠĠĠĠĠĠĠĠĠĠĠĠĠĠĠĠĠĠĠĠĠĠĠ": 7575,
      "^-": 7576,
      "tor": 7577,
      "Ġassumption": 7578,
      "ĠMos": 7579,
      "mc": 7580,
      "Ġgrid": 7581,
      "Ġsimulations": 7582,
      "BP": 7583,
      "Ġpp": 7584,
      "ĠMoreover": 7585,
      "ROM": 7586,
      "Ġdecay": 7587,
      "ĠIII": 7588,
      "ployment": 7589,
      "Ġsetup": 7590,
      "Ġincreases": 7591,
      "icies": 7592,
      "(!": 7593,
      "iro": 7594,
      "Member": 7595,
      "ĠVis": 7596,
      "Ġentered": 7597,
      "ĠCall": 7598,
      "Ġng": 7599,
      "cape": 7600,
      "ĠLin": 7601,
      "iminal": 7602,
      "Ġscored": 7603,
      "Ġspread": 7604,
      "named": 7605,
      "aret": 7606,
      "king": 7607,
      "Ġcoast": 7608,
      "ĠLi": 7609,
      ".*": 7610,
      "ĠNavy": 7611,
      "kg": 7612,
      "Ġbutton": 7613,
      "ĠNO": 7614,
      "aka": 7615,
      "ADD": 7616,
      "primary": 7617,
      "arriage": 7618,
      "\"/": 7619,
      "Ġstories": 7620,
      "ĠJoseph": 7621,
      "Ġworkers": 7622,
      "Ġquarter": 7623,
      "Ġannual": 7624,
      "UID": 7625,
      "ĠĠĠĠĠĠĠĠĠĠĠĠĠĠĠĠĠĠĠĠĠĠ": 7626,
      "Ġhandler": 7627,
      "selected": 7628,
      "Mat": 7629,
      "ĠDefault": 7630,
      "Äĩ": 7631,
      "Ġscalar": 7632,
      "events": 7633,
      "Security": 7634,
      "ĠMiddle": 7635,
      "Ġvs": 7636,
      "Cor": 7637,
      "Ġfunc": 7638,
      "======": 7639,
      "amental": 7640,
      "Ġunless": 7641,
      "pa": 7642,
      "Flags": 7643,
      "Ġenter": 7644,
      ".__": 7645,
      "asy": 7646,
      "Ġapproaches": 7647,
      "ĠIP": 7648,
      "throws": 7649,
      "move": 7650,
      "pred": 7651,
      ")),": 7652,
      "Ġtechniques": 7653,
      "ĠChief": 7654,
      "ango": 7655,
      "Const": 7656,
      "Ġcombination": 7657,
      "controller": 7658,
      "Ġwaves": 7659,
      "Ġking": 7660,
      "axis": 7661,
      "domain": 7662,
      "ĠFunction": 7663,
      "dropdown": 7664,
      "Ġvisible": 7665,
      "Ġturned": 7666,
      "ĠBrazil": 7667,
      "Ġaim": 7668,
      "ĠLu": 7669,
      "hom": 7670,
      "Step": 7671,
      "keyword": 7672,
      "Ġinequality": 7673,
      "Ġhousehold": 7674,
      "Ġmask": 7675,
      "Ġrelatively": 7676,
      "Ġelem": 7677,
      "Ġappearance": 7678,
      "Ġadvant": 7679,
      "ĠEr": 7680,
      "AF": 7681,
      "]:": 7682,
      "queue": 7683,
      "Ġtournament": 7684,
      "ona": 7685,
      "1967": 7686,
      "ĠFort": 7687,
      "ati": 7688,
      "claim": 7689,
      "Logger": 7690,
      "Ġmusical": 7691,
      "Ġcircle": 7692,
      "Av": 7693,
      "important": 7694,
      "eve": 7695,
      "_,": 7696,
      "security": 7697,
      "Ġalgorithms": 7698,
      "Ġdir": 7699,
      "bot": 7700,
      "jar": 7701,
      "ĠLee": 7702,
      "Ġproducer": 7703,
      "each": 7704,
      "men": 7705,
      "oz": 7706,
      "ĠBob": 7707,
      "SIZE": 7708,
      "pton": 7709,
      "syl": 7710,
      "mos": 7711,
      "Ġ}\\": 7712,
      "Pattern": 7713,
      "ĠFalse": 7714,
      "Play": 7715,
      "ĠTour": 7716,
      "joy": 7717,
      "Ġshift": 7718,
      "ensed": 7719,
      "Ġassumed": 7720,
      "Ġdesc": 7721,
      "hav": 7722,
      "stein": 7723,
      "just": 7724,
      ")}(": 7725,
      "'}": 7726,
      "Ġcommission": 7727,
      "account": 7728,
      "Ġdraft": 7729,
      "ĠJewish": 7730,
      "ï¼": 7731,
      "Ġthreshold": 7732,
      "Ġsimulation": 7733,
      "Ġefficient": 7734,
      "ĠChild": 7735,
      "ĠPoint": 7736,
      "save": 7737,
      "ito": 7738,
      "iciency": 7739,
      "Ġdemand": 7740,
      "Ñı": 7741,
      "napshot": 7742,
      "aria": 7743,
      "ĠLie": 7744,
      "Attributes": 7745,
      "Ġestablishments": 7746,
      "Ġgets": 7747,
      "Ġreject": 7748,
      "These": 7749,
      "Ġbtn": 7750,
      "total": 7751,
      "VERSION": 7752,
      "bits": 7753,
      "1945": 7754,
      "Ġbasketball": 7755,
      "Ġplans": 7756,
      "Ġolder": 7757,
      "Ġvertical": 7758,
      "Ġlattice": 7759,
      "oved": 7760,
      "ĠView": 7761,
      "poration": 7762,
      "ador": 7763,
      "NotNull": 7764,
      "Ġprefer": 7765,
      "Ġdiscussion": 7766,
      "Ġexchange": 7767,
      "PAR": 7768,
      "jquery": 7769,
      "Ġofficer": 7770,
      "Ġcru": 7771,
      "cient": 7772,
      "Bit": 7773,
      "writer": 7774,
      "erg": 7775,
      "haps": 7776,
      "'_": 7777,
      "shall": 7778,
      "1940": 7779,
      "flags": 7780,
      "Ġcoefficients": 7781,
      "ĠMa": 7782,
      "Ġprem": 7783,
      "pmatrix": 7784,
      "Float": 7785,
      "Ġretr": 7786,
      "Ġsenior": 7787,
      "Ġnuclear": 7788,
      "oday": 7789,
      "Ġnewsp": 7790,
      "enty": 7791,
      "cluded": 7792,
      "Ġdelay": 7793,
      "amer": 7794,
      "Ġlab": 7795,
      "Ġnumerous": 7796,
      "ugby": 7797,
      "Ġmeasurements": 7798,
      "\">&": 7799,
      "Selector": 7800,
      "Ġinitially": 7801,
      "Ġamplit": 7802,
      "English": 7803,
      ":#": 7804,
      "Ġprice": 7805,
      "ĠAN": 7806,
      "ustrial": 7807,
      "asi": 7808,
      "network": 7809,
      "airman": 7810,
      "ĠText": 7811,
      "ository": 7812,
      "Orig": 7813,
      "Ġedition": 7814,
      "Loader": 7815,
      "Ġinterval": 7816,
      "Rest": 7817,
      "Ġmeasures": 7818,
      "ById": 7819,
      "Ġcreation": 7820,
      "Ġinform": 7821,
      ".'": 7822,
      "Ġstable": 7823,
      "webpack": 7824,
      "'ve": 7825,
      "ierarch": 7826,
      "Background": 7827,
      "Car": 7828,
      "oston": 7829,
      "Ġhus": 7830,
      "Ġquickly": 7831,
      "Ġspectral": 7832,
      "Own": 7833,
      "Ġintegral": 7834,
      "ookie": 7835,
      "Ġtouch": 7836,
      "Ġiniti": 7837,
      "Conf": 7838,
      "ansas": 7839,
      "Ġisland": 7840,
      "Ġ+\\": 7841,
      "front": 7842,
      "ĠVersion": 7843,
      "Activity": 7844,
      "Ġefforts": 7845,
      "structor": 7846,
      "Ġindicates": 7847,
      "Ġencoding": 7848,
      "ĠSir": 7849,
      "uby": 7850,
      "Auth": 7851,
      "ipage": 7852,
      "ĠWood": 7853,
      "handler": 7854,
      "Ġpaint": 7855,
      "Ġstudio": 7856,
      "Ġagreed": 7857,
      "Ġ%}": 7858,
      "Ġsn": 7859,
      "ARY": 7860,
      "perp": 7861,
      "sylvania": 7862,
      "Proxy": 7863,
      "exists": 7864,
      "parameters": 7865,
      "Ġdrop": 7866,
      "Ġarrest": 7867,
      "Ġriver": 7868,
      "ĠTeam": 7869,
      "ĠWales": 7870,
      "MAX": 7871,
      "pan": 7872,
      "Ġul": 7873,
      "Ġperturb": 7874,
      "Ġforced": 7875,
      "Ġpool": 7876,
      "areer": 7877,
      "CHE": 7878,
      "ĠPubl": 7879,
      "txt": 7880,
      "apply": 7881,
      "Ġtrained": 7882,
      "Found": 7883,
      "Ġlaunched": 7884,
      "dates": 7885,
      "ĠNorthern": 7886,
      "green": 7887,
      "ĠEarth": 7888,
      "Ġmill": 7889,
      "1964": 7890,
      "Ġidentify": 7891,
      "Ġcentre": 7892,
      "Ġcontained": 7893,
      "EO": 7894,
      "Ġlived": 7895,
      "Ġassigned": 7896,
      "oles": 7897,
      "ĠÎ": 7898,
      "screen": 7899,
      "Ġoil": 7900,
      "etween": 7901,
      "Ġparties": 7902,
      "Ġbillion": 7903,
      "Don": 7904,
      "Ġenh": 7905,
      "uter": 7906,
      "iki": 7907,
      ")\"": 7908,
      "Ġsynt": 7909,
      "Ġmurder": 7910,
      "Ġfirm": 7911,
      "schema": 7912,
      "\\!\\!": 7913,
      "channel": 7914,
      "Ġactress": 7915,
      "Ġdespite": 7916,
      "stone": 7917,
      "ira": 7918,
      "Ġdeliver": 7919,
      "ĠSol": 7920,
      "Ġarm": 7921,
      "ĠFri": 7922,
      "ĠHot": 7923,
      "Ġprotect": 7924,
      "ĠBritain": 7925,
      "ographic": 7926,
      "Ġreplace": 7927,
      "bullet": 7928,
      "Ġoccurs": 7929,
      "Ġbecoming": 7930,
      "Ġupdated": 7931,
      "1930": 7932,
      ")^{\\": 7933,
      "ĠDevelopment": 7934,
      "Ä±": 7935,
      "Ġcoordinates": 7936,
      "je": 7937,
      "ologies": 7938,
      "ĠJim": 7939,
      "standing": 7940,
      "ĠLove": 7941,
      "MOD": 7942,
      "ĠLord": 7943,
      "Ġhope": 7944,
      "wan": 7945,
      "Ġdoub": 7946,
      "ĠPri": 7947,
      "ĠJac": 7948,
      "limit": 7949,
      "Ġowned": 7950,
      "stra": 7951,
      "Ġsouthern": 7952,
      "itors": 7953,
      "tsd": 7954,
      "area": 7955,
      "Ġbuilder": 7956,
      "phone": 7957,
      "ĠCross": 7958,
      "ĠCivil": 7959,
      "Ġsites": 7960,
      "Ġhelped": 7961,
      "Ġhighlight": 7962,
      "acle": 7963,
      ")\\,": 7964,
      "minipage": 7965,
      "acro": 7966,
      "angular": 7967,
      "Ġcorrelation": 7968,
      "Del": 7969,
      "{$\\": 7970,
      "Ġorganizations": 7971,
      "Ġreports": 7972,
      "Ġuncertain": 7973,
      "ĠSund": 7974,
      "Ġassess": 7975,
      "Ġintroduce": 7976,
      "Ġattended": 7977,
      "Ġserious": 7978,
      "Ġdepartment": 7979,
      "ertificate": 7980,
      "Ġorient": 7981,
      "here": 7982,
      "Ġfarm": 7983,
      "ipality": 7984,
      "Ġmainly": 7985,
      "Ġguarant": 7986,
      "DC": 7987,
      "Ġunderstanding": 7988,
      "ĠBi": 7989,
      "Ġmodified": 7990,
      "Ġcloud": 7991,
      "Runtime": 7992,
      "ĠOl": 7993,
      "Internal": 7994,
      "Ġordered": 7995,
      "Ġexpressed": 7996,
      "Ġhundred": 7997,
      "Ġnorthern": 7998,
      "Figure": 7999,
      "Ġhistorical": 8000,
      "hadoop": 8001,
      "ĠMain": 8002,
      "cb": 8003,
      "Windows": 8004,
      "cean": 8005,
      "ĠTask": 8006,
      "gg": 8007,
      "onder": 8008,
      "Ġachieved": 8009,
      "urrency": 8010,
      "ĠChampionships": 8011,
      "WA": 8012,
      "Ġinterpret": 8013,
      "ĠAR": 8014,
      "Ġnotice": 8015,
      "Ġmolec": 8016,
      "Ġpartition": 8017,
      "Ġleaders": 8018,
      "ampling": 8019,
      "Med": 8020,
      "ĠIrish": 8021,
      "grade": 8022,
      "\",\"": 8023,
      "Ġsea": 8024,
      "ĠGreek": 8025,
      "endix": 8026,
      "ibli": 8027,
      "Editor": 8028,
      "ĠMedia": 8029,
      "Ġonto": 8030,
      "Ġstrateg": 8031,
      "Graph": 8032,
      "ĠValley": 8033,
      "Ġpreserv": 8034,
      "Ġextrem": 8035,
      "large": 8036,
      "ĠEmpire": 8037,
      "aters": 8038,
      "Public": 8039,
      "ĠIraq": 8040,
      "yer": 8041,
      "ooks": 8042,
      "EXT": 8043,
      "Ġsemi": 8044,
      "irls": 8045,
      "Ġinvariant": 8046,
      "()));": 8047,
      "Panel": 8048,
      "Ġcities": 8049,
      "Ġemail": 8050,
      "ocker": 8051,
      "ĠSecretary": 8052,
      "forward": 8053,
      "TABLE": 8054,
      "icine": 8055,
      "1965": 8056,
      "DP": 8057,
      "Close": 8058,
      "elligence": 8059,
      "rical": 8060,
      "jpg": 8061,
      "ails": 8062,
      "assertEqual": 8063,
      "operation": 8064,
      "job": 8065,
      "++;": 8066,
      "look": 8067,
      "Ġtrust": 8068,
      "Ġinvalid": 8069,
      "Ġmessages": 8070,
      "Transform": 8071,
      "adium": 8072,
      "enth": 8073,
      "props": 8074,
      "ĠMP": 8075,
      "Ġprocessing": 8076,
      "entials": 8077,
      "Ġcli": 8078,
      "Ġvary": 8079,
      "Ġsomeone": 8080,
      "itness": 8081,
      "Ġsector": 8082,
      "=\"\">": 8083,
      "Ġpurs": 8084,
      ")\">": 8085,
      "MENT": 8086,
      "isc": 8087,
      "ĠGame": 8088,
      "anging": 8089,
      "Ġestimates": 8090,
      ")^{-": 8091,
      "ĠOption": 8092,
      "orial": 8093,
      "ĠGal": 8094,
      "Matrix": 8095,
      "trigger": 8096,
      "Ġdenotes": 8097,
      "XT": 8098,
      "Ġdistributions": 8099,
      "Ġslightly": 8100,
      "tests": 8101,
      "BE": 8102,
      "Ġencour": 8103,
      "Ġparallel": 8104,
      "ĠAsia": 8105,
      "wer": 8106,
      "Ġalternative": 8107,
      "Ġ(_": 8108,
      "manager": 8109,
      "Ġmatching": 8110,
      "Directory": 8111,
      "ĠGi": 8112,
      "uous": 8113,
      "]]": 8114,
      "Ġdetailed": 8115,
      "aren": 8116,
      "Ġversions": 8117,
      "Ġaccom": 8118,
      "eller": 8119,
      "According": 8120,
      "ela": 8121,
      "SQL": 8122,
      "_->": 8123,
      "Depend": 8124,
      "kins": 8125,
      "1966": 8126,
      "agonal": 8127,
      "Ġspirit": 8128,
      "Ġkernel": 8129,
      "Ġpure": 8130,
      "horizontal": 8131,
      "asets": 8132,
      "notes": 8133,
      "Ġsal": 8134,
      ")));": 8135,
      "ĠNode": 8136,
      "ĠSpain": 8137,
      "1920": 8138,
      "Ġtrigger": 8139,
      "switch": 8140,
      "Ġlat": 8141,
      "Ġio": 8142,
      "@\"": 8143,
      "ĠWal": 8144,
      "STAT": 8145,
      "opes": 8146,
      "hidden": 8147,
      "Ġachieve": 8148,
      "desc": 8149,
      "reset": 8150,
      "colon": 8151,
      "Ġsimpl": 8152,
      "kw": 8153,
      "Ġshoot": 8154,
      "Ġworth": 8155,
      "Ġdriver": 8156,
      "pressed": 8157,
      "Ġregime": 8158,
      "ancing": 8159,
      "stable": 8160,
      "Ġrestrict": 8161,
      "NR": 8162,
      "Ġseasons": 8163,
      "Ġfle": 8164,
      "IA": 8165,
      "git": 8166,
      "Auto": 8167,
      "she": 8168,
      "ĠPak": 8169,
      "Adapter": 8170,
      "Ġfine": 8171,
      "Expr": 8172,
      "Åį": 8173,
      "fri": 8174,
      "Ġvocals": 8175,
      "ĠTheir": 8176,
      "tabs": 8177,
      "sky": 8178,
      "IMP": 8179,
      "Ġincorpor": 8180,
      "mic": 8181,
      "()).": 8182,
      "Ġshowing": 8183,
      "ĠBre": 8184,
      "nn": 8185,
      "RR": 8186,
      "las": 8187,
      "Ġ\"\"": 8188,
      "MT": 8189,
      "Ġwrong": 8190,
      "Ġanswer": 8191,
      "ĠNav": 8192,
      "Å¡": 8193,
      "ĠStat": 8194,
      "tty": 8195,
      ")_{": 8196,
      "plot": 8197,
      "Ġimag": 8198,
      "Ġstrength": 8199,
      "ests": 8200,
      "lg": 8201,
      "Ġadministration": 8202,
      "alloc": 8203,
      "anes": 8204,
      "ĠPennsylvania": 8205,
      "Attr": 8206,
      "istration": 8207,
      "\\_": 8208,
      "pository": 8209,
      "Ġtab": 8210,
      "Ġgap": 8211,
      "mond": 8212,
      "ULE": 8213,
      "Ġpointer": 8214,
      "CF": 8215,
      "Ġpiece": 8216,
      "eval": 8217,
      "Ġbehavi": 8218,
      "Ġmodes": 8219,
      "ĠJo": 8220,
      "Ġsummary": 8221,
      "ĠSpe": 8222,
      "Example": 8223,
      "acc": 8224,
      "ceived": 8225,
      "Ġhol": 8226,
      "LOG": 8227,
      "ĠMA": 8228,
      "Ġeverything": 8229,
      "gypt": 8230,
      "orning": 8231,
      "Ġhusband": 8232,
      "ulty": 8233,
      "Compar": 8234,
      "Constr": 8235,
      "Ġran": 8236,
      "erial": 8237,
      "aming": 8238,
      "tmp": 8239,
      "children": 8240,
      "ĠJes": 8241,
      "Ġattract": 8242,
      "Ġsections": 8243,
      "Ġpush": 8244,
      "istical": 8245,
      "Ġclearly": 8246,
      "RES": 8247,
      "////////////////////////////////": 8248,
      "rick": 8249,
      "Ġreasons": 8250,
      "Ġstatistics": 8251,
      "Ġwood": 8252,
      "Selected": 8253,
      "Ġbounds": 8254,
      "urban": 8255,
      "othing": 8256,
      "Ġtor": 8257,
      "PATH": 8258,
      "ĠÂ£": 8259,
      "Ġproved": 8260,
      "->_": 8261,
      "aylor": 8262,
      "ĠSO": 8263,
      "Ġthr": 8264,
      "Double": 8265,
      "Ġexport": 8266,
      "ĠBoth": 8267,
      "Ġmagazine": 8268,
      "Ġtransformation": 8269,
      "Ġperfect": 8270,
      "Ġrect": 8271,
      "ĠHistoric": 8272,
      "Ġsuc": 8273,
      "poss": 8274,
      "Ġthous": 8275,
      "Ġring": 8276,
      "ĠRetriev": 8277,
      "ĠDemocratic": 8278,
      "Full": 8279,
      "Ġarmy": 8280,
      "ĠHon": 8281,
      "Ġindicate": 8282,
      "random": 8283,
      "ĠTODO": 8284,
      "rase": 8285,
      "sel": 8286,
      "Generic": 8287,
      "IB": 8288,
      "RAN": 8289,
      "metadata": 8290,
      "loop": 8291,
      "utf": 8292,
      "ĠGood": 8293,
      "ĠSpecial": 8294,
      "sch": 8295,
      "abil": 8296,
      "ĠMov": 8297,
      "ĠHuman": 8298,
      "arse": 8299,
      "Ġchampionship": 8300,
      "Ġleaving": 8301,
      "}$-": 8302,
      "Ġlabels": 8303,
      "Ġlib": 8304,
      "ĠCamb": 8305,
      "Grid": 8306,
      "Ġspatial": 8307,
      "ĠRadio": 8308,
      "ighter": 8309,
      "Ġmanaged": 8310,
      "Ġpoet": 8311,
      "Ġcurves": 8312,
      "ĠOp": 8313,
      "ĠSouthern": 8314,
      "ĠConfig": 8315,
      "ulf": 8316,
      "ilib": 8317,
      "Ġhar": 8318,
      "components": 8319,
      "$).": 8320,
      "ogene": 8321,
      "Product": 8322,
      "Ġattacks": 8323,
      "ĠProvince": 8324,
      "effect": 8325,
      "World": 8326,
      "ĠBattle": 8327,
      "zz": 8328,
      "^{+": 8329,
      "external": 8330,
      "Ġfreedom": 8331,
      "XML": 8332,
      "Ġpan": 8333,
      "Ġdifferences": 8334,
      "engine": 8335,
      "}^*": 8336,
      "Ġnine": 8337,
      "Ġlaws": 8338,
      "NT": 8339,
      "Ġcultural": 8340,
      "Ġinteractions": 8341,
      "ĠTri": 8342,
      "Ġanalog": 8343,
      ".~(\\": 8344,
      "amm": 8345,
      "Ġcolumns": 8346,
      "onical": 8347,
      "Ġconstraint": 8348,
      "ĠMany": 8349,
      "ĠNumber": 8350,
      "logger": 8351,
      "High": 8352,
      "hetic": 8353,
      "Ġcovered": 8354,
      "Ġphen": 8355,
      "Plugin": 8356,
      "$/": 8357,
      "ben": 8358,
      "two": 8359,
      "Ġobserve": 8360,
      "Ġcriter": 8361,
      "single": 8362,
      "Ġvoice": 8363,
      "Ġrecon": 8364,
      "contains": 8365,
      "ĠTra": 8366,
      "Ġdisease": 8367,
      "FFFF": 8368,
      ")_": 8369,
      "Ġmaterials": 8370,
      "ĠWindow": 8371,
      "Ġofficers": 8372,
      "floor": 8373,
      "Ġmechanism": 8374,
      "Ġsucceed": 8375,
      "LIC": 8376,
      "Ġsingular": 8377,
      "fail": 8378,
      "Ġmapping": 8379,
      "Ġuniversity": 8380,
      "ĠGets": 8381,
      "Ġsqu": 8382,
      "Ġmatrices": 8383,
      "ĠCentre": 8384,
      "rawn": 8385,
      "[$": 8386,
      "estion": 8387,
      "Ġimplements": 8388,
      "Ġfamous": 8389,
      "bury": 8390,
      "Ġreader": 8391,
      "Ġadding": 8392,
      "inois": 8393,
      "sime": 8394,
      "har": 8395,
      "iate": 8396,
      "nic": 8397,
      "){\\": 8398,
      "Ġrespond": 8399,
      "uv": 8400,
      "BB": 8401,
      "Dem": 8402,
      "Ġclaimed": 8403,
      "tik": 8404,
      "IE": 8405,
      "going": 8406,
      "Ġoffered": 8407,
      "simeq": 8408,
      "Ġrapid": 8409,
      "mediate": 8410,
      "bas": 8411,
      "HR": 8412,
      "ĠVAL": 8413,
      "Ġeq": 8414,
      "Ġtrib": 8415,
      "Ġseconds": 8416,
      "Ġ$$": 8417,
      "Ġrepresenting": 8418,
      "ridge": 8419,
      "Ġcounty": 8420,
      "Ġsusp": 8421,
      "uly": 8422,
      "verb": 8423,
      "Ġrise": 8424,
      "ults": 8425,
      "Ġaffect": 8426,
      "Ġgrowing": 8427,
      "Ġcomposed": 8428,
      "unior": 8429,
      "NavBarCell": 8430,
      "ĠOnly": 8431,
      "Ġlayers": 8432,
      "typed": 8433,
      "Sample": 8434,
      "diff": 8435,
      "May": 8436,
      "mazon": 8437,
      "izable": 8438,
      "Ġinstalled": 8439,
      "ONE": 8440,
      "gers": 8441,
      "Protocol": 8442,
      "ĠEnter": 8443,
      "Ġabstract": 8444,
      "Ġcommunication": 8445,
      "Hz": 8446,
      "Ġintr": 8447,
      "ĠPacific": 8448,
      "Ġdiss": 8449,
      "Fail": 8450,
      "Ġ$-": 8451,
      "}}^": 8452,
      "Single": 8453,
      "Ġrailway": 8454,
      "ĠTre": 8455,
      "awa": 8456,
      "bytes": 8457,
      "uset": 8458,
      "Ġextr": 8459,
      "ĠJones": 8460,
      "Ð´": 8461,
      "Ġentries": 8462,
      "Ġtrial": 8463,
      "enant": 8464,
      "Engine": 8465,
      "Profile": 8466,
      "ĠĠĠĠĠĠĠĠĠĠĠĠĠĠĠĠĠĠĠĠĠĠĠĠĠĠĠĠĠ": 8467,
      "Ġdistingu": 8468,
      "clusive": 8469,
      "rons": 8470,
      "Ġclaims": 8471,
      "pective": 8472,
      "Ġcat": 8473,
      "formance": 8474,
      "configuration": 8475,
      "Ġenjoy": 8476,
      "}</": 8477,
      "Ġoptional": 8478,
      "ĠJersey": 8479,
      "LL": 8480,
      "GC": 8481,
      "ĠUkr": 8482,
      "Ġcycle": 8483,
      "Memory": 8484,
      "ĠPop": 8485,
      "arden": 8486,
      "Ġsubset": 8487,
      "ĠBusiness": 8488,
      "Cap": 8489,
      "since": 8490,
      "Ġoccurred": 8491,
      "ĠOhio": 8492,
      "Ġinfr": 8493,
      "remark": 8494,
      "Mapping": 8495,
      "mut": 8496,
      "Ġdigital": 8497,
      "ĠBul": 8498,
      "Author": 8499,
      "Ġenable": 8500,
      "chor": 8501,
      "Ġdetect": 8502,
      "','": 8503,
      "Ġfn": 8504,
      "Ġweap": 8505,
      "Elements": 8506,
      "zen": 8507,
      "Ġadopted": 8508,
      "Keys": 8509,
      "Seg": 8510,
      "Ġenabled": 8511,
      "DT": 8512,
      "ĠConference": 8513,
      "Ġcensus": 8514,
      "anks": 8515,
      "ĠSenate": 8516,
      "Ġlies": 8517,
      "ĠSecurity": 8518,
      "tools": 8519,
      "Ġip": 8520,
      "ĠSu": 8521,
      "lapse": 8522,
      "vs": 8523,
      "UTF": 8524,
      "SM": 8525,
      "Browser": 8526,
      "Scroll": 8527,
      "Statement": 8528,
      "elease": 8529,
      "uses": 8530,
      "zh": 8531,
      "echo": 8532,
      "para": 8533,
      "Space": 8534,
      "equence": 8535,
      "plications": 8536,
      "eli": 8537,
      "Ġimplemented": 8538,
      "1963": 8539,
      "udes": 8540,
      "ToString": 8541,
      "Sche": 8542,
      "!!": 8543,
      "Ġmeasurement": 8544,
      "sumer": 8545,
      "ĠOrig": 8546,
      "Duration": 8547,
      "Ġasync": 8548,
      "\\|_{": 8549,
      "ĠOx": 8550,
      "Java": 8551,
      "Ġawait": 8552,
      "ĠRo": 8553,
      "ĠWill": 8554,
      "arrier": 8555,
      "idx": 8556,
      "getName": 8557,
      "Ġaccepted": 8558,
      "ione": 8559,
      "Global": 8560,
      "role": 8561,
      "ading": 8562,
      "Ġstrongly": 8563,
      "Ġrare": 8564,
      "ĠIl": 8565,
      "Ġ=========": 8566,
      "subs": 8567,
      "Ġtracks": 8568,
      "ĠAff": 8569,
      "Ġdynamic": 8570,
      "ĠRh": 8571,
      "ĠQueen": 8572,
      "Ġeffort": 8573,
      "Ġrail": 8574,
      "ĠHome": 8575,
      "phas": 8576,
      "à¸": 8577,
      "Ġtypeof": 8578,
      "legal": 8579,
      "ĠBoston": 8580,
      "ĠRepresent": 8581,
      "Term": 8582,
      "Ġbin": 8583,
      "Ġvectors": 8584,
      "ĠĠĠĠĠĠĠĠĠĠĠĠĠĠĠĠĠĠĠĠĠĠĠĠĠĠĠĠĠĠĠĠĠĠĠĠĠĠĠĠĠĠĠ": 8585,
      "browser": 8586,
      "collection": 8587,
      "ĠPass": 8588,
      "Ġcontem": 8589,
      "Ġ^": 8590,
      "ĠJohnson": 8591,
      "aste": 8592,
      "Ġprof": 8593,
      "1962": 8594,
      "Ġissued": 8595,
      "ĠMessage": 8596,
      "zone": 8597,
      "åı": 8598,
      "Pay": 8599,
      "Ġrac": 8600,
      "Ġsuccessfully": 8601,
      "Ġparam": 8602,
      "platform": 8603,
      "special": 8604,
      "ĠPy": 8605,
      "cuss": 8606,
      "Ġalone": 8607,
      "ĠCommon": 8608,
      "Ġbelieved": 8609,
      "itage": 8610,
      "Parse": 8611,
      "fi": 8612,
      "Ġdiscovered": 8613,
      "Ġsafety": 8614,
      "Inv": 8615,
      "Ġlanguages": 8616,
      "ĠMuslim": 8617,
      "Ġsecret": 8618,
      "ĠElect": 8619,
      "Ġfactory": 8620,
      "dp": 8621,
      "Ġelections": 8622,
      "})$.": 8623,
      "ennis": 8624,
      "Ġsymmetric": 8625,
      "Ġserving": 8626,
      "Some": 8627,
      "Details": 8628,
      "Enum": 8629,
      "Ġintended": 8630,
      "SY": 8631,
      "Ġforest": 8632,
      "Condition": 8633,
      "ĠĠĠĠĠĠĠĠĠĠĠĠĠĠĠĠĠĠĠĠĠĠĠĠĠĠ": 8634,
      "when": 8635,
      "adel": 8636,
      "Ġviews": 8637,
      "Thus": 8638,
      "ĠCommand": 8639,
      "ĠReview": 8640,
      "Ġretriev": 8641,
      "################": 8642,
      "Sync": 8643,
      "Ġprediction": 8644,
      "Ġmarked": 8645,
      "Ġopportunity": 8646,
      "Ġgradient": 8647,
      "Ġpil": 8648,
      "Ġcolon": 8649,
      "ĠMichigan": 8650,
      "FR": 8651,
      "ĉĠĠĠĠĠ": 8652,
      "Ġrecording": 8653,
      "Ġxmlns": 8654,
      "Ġoptimization": 8655,
      "Using": 8656,
      "Ġcalling": 8657,
      ")}{\\": 8658,
      "home": 8659,
      "ĠSong": 8660,
      "Ġoffers": 8661,
      "Ġcontroller": 8662,
      "oped": 8663,
      "Dest": 8664,
      "ĠMajor": 8665,
      "_(": 8666,
      "Ã£": 8667,
      "Ġpropos": 8668,
      "Func": 8669,
      "Ġpromin": 8670,
      "ICE": 8671,
      "Ġreduction": 8672,
      "ependence": 8673,
      "Ġtheme": 8674,
      "Ġdefeated": 8675,
      "ĠGaussian": 8676,
      "roke": 8677,
      "ĠUpdate": 8678,
      "ello": 8679,
      "Ġcitizens": 8680,
      "Ġdrama": 8681,
      "icip": 8682,
      "ctrine": 8683,
      "Cast": 8684,
      "Ġ=\\": 8685,
      "ĠWay": 8686,
      "$$\\": 8687,
      "ĠJustice": 8688,
      "Ġtypical": 8689,
      "Repository": 8690,
      "Ġlic": 8691,
      "Ġ>>": 8692,
      "ĠSar": 8693,
      "Bi": 8694,
      "General": 8695,
      "Ġyields": 8696,
      "assets": 8697,
      "Ġdevices": 8698,
      "uries": 8699,
      "Ġisn": 8700,
      "Ġverify": 8701,
      "Ð¼": 8702,
      "'])": 8703,
      "Common": 8704,
      "Ġsurvey": 8705,
      "Ġimportance": 8706,
      "itionally": 8707,
      "=\"${": 8708,
      "Opt": 8709,
      "Ġangular": 8710,
      "tained": 8711,
      "Ġhydro": 8712,
      "Ġsurpr": 8713,
      "MR": 8714,
      "Ġabsor": 8715,
      "ni": 8716,
      "TA": 8717,
      "scape": 8718,
      "tail": 8719,
      "JS": 8720,
      "wild": 8721,
      "iced": 8722,
      "Ġconducted": 8723,
      "Ġlaunch": 8724,
      "250": 8725,
      "ãĢ": 8726,
      "ĠFrancisco": 8727,
      "Ġwall": 8728,
      "Ð²": 8729,
      "ĠPage": 8730,
      "hl": 8731,
      "Ġlabor": 8732,
      "ĠRam": 8733,
      "Ġinterested": 8734,
      "Wrapper": 8735,
      "ĠMah": 8736,
      "ĠBern": 8737,
      "Ġdimensions": 8738,
      "burgh": 8739,
      "ĠScotland": 8740,
      "mask": 8741,
      "iterator": 8742,
      "Files": 8743,
      "Print": 8744,
      "ila": 8745,
      "Ġcapture": 8746,
      "omorphic": 8747,
      "Ġexecution": 8748,
      "READ": 8749,
      "Ġice": 8750,
      "Ġofficials": 8751,
      "Layer": 8752,
      "1944": 8753,
      "duled": 8754,
      "Ġconvergence": 8755,
      "ĠFederal": 8756,
      "Ġprofessor": 8757,
      "Second": 8758,
      "odd": 8759,
      "Ġhospital": 8760,
      "~$\\": 8761,
      "ĠFox": 8762,
      "Ġru": 8763,
      "Ġregional": 8764,
      "Ġoperating": 8765,
      "Ġchannels": 8766,
      "Ġclimate": 8767,
      "Ġdependence": 8768,
      "Career": 8769,
      "fully": 8770,
      "inity": 8771,
      "illi": 8772,
      "Ġvictory": 8773,
      "ĠJava": 8774,
      "600": 8775,
      "Ġproport": 8776,
      "Ġexecutive": 8777,
      "Gen": 8778,
      "Ġhypot": 8779,
      "1961": 8780,
      "theme": 8781,
      "ifiers": 8782,
      "Ġfelt": 8783,
      "Ġsoft": 8784,
      "IPT": 8785,
      "ĠEconom": 8786,
      "Ġsettlement": 8787,
      "Ġextend": 8788,
      "plus": 8789,
      "Ġ{'": 8790,
      "Ġisol": 8791,
      "Ġens": 8792,
      "Category": 8793,
      "protected": 8794,
      "Ġsignature": 8795,
      "NULL": 8796,
      "Ġrequirements": 8797,
      "Ġraw": 8798,
      "tikz": 8799,
      "agr": 8800,
      "Video": 8801,
      "achuset": 8802,
      "conn": 8803,
      "Ġstress": 8804,
      "achusetts": 8805,
      "ĠAND": 8806,
      "cred": 8807,
      "Ġquadr": 8808,
      "parser": 8809,
      "tri": 8810,
      "Ġallowing": 8811,
      "OO": 8812,
      ")},": 8813,
      "Ġcosts": 8814,
      "110": 8815,
      "hol": 8816,
      "Ġtools": 8817,
      "weet": 8818,
      "'ll": 8819,
      "uing": 8820,
      "ĠVan": 8821,
      "ĠIllinois": 8822,
      "inion": 8823,
      "Props": 8824,
      "ĠCP": 8825,
      "ponential": 8826,
      "Ġbeaut": 8827,
      "Ġpages": 8828,
      "Socket": 8829,
      "ĠUSA": 8830,
      "Ġneighborhood": 8831,
      "ĠBack": 8832,
      "prev": 8833,
      "Ġpseud": 8834,
      "ĠBas": 8835,
      "NOT": 8836,
      "cknowled": 8837,
      "Ġdepending": 8838,
      "Ġ[[": 8839,
      "ĠExt": 8840,
      "Ġdegrees": 8841,
      "iser": 8842,
      "eces": 8843,
      "nodes": 8844,
      "Ġ&=&": 8845,
      "odot": 8846,
      "circle": 8847,
      "Ġsatisfy": 8848,
      "}&": 8849,
      "ĠIndex": 8850,
      "Ġprev": 8851,
      "ĠGeorgia": 8852,
      "INFO": 8853,
      "Ġqueue": 8854,
      "Ġlicense": 8855,
      "rium": 8856,
      ")$-": 8857,
      "Route": 8858,
      "=\"\"": 8859,
      "ĠCarl": 8860,
      "ĠBow": 8861,
      "SER": 8862,
      "$^{-": 8863,
      "Ġ{{": 8864,
      "periment": 8865,
      "ĠKent": 8866,
      "shadow": 8867,
      "vin": 8868,
      "eld": 8869,
      "Ġreq": 8870,
      "Ġthick": 8871,
      "emy": 8872,
      "Scale": 8873,
      "Ã±": 8874,
      "emic": 8875,
      "Ġfundamental": 8876,
      "ĠAction": 8877,
      "Ġstock": 8878,
      "ĠAsian": 8879,
      "odies": 8880,
      "ĠLandroid": 8881,
      "Films": 8882,
      "hard": 8883,
      "iable": 8884,
      "Ġobvious": 8885,
      "ĠWilliams": 8886,
      "ĠHead": 8887,
      "Ġlocations": 8888,
      "Ġstarts": 8889,
      "flat": 8890,
      "Ġcouncil": 8891,
      "Ġgenus": 8892,
      "oir": 8893,
      "Ġsuggested": 8894,
      "}}^{": 8895,
      "fold": 8896,
      "ĠCard": 8897,
      "Ġspectra": 8898,
      "ĠCro": 8899,
      "LECT": 8900,
      "compiler": 8901,
      "Desc": 8902,
      "onto": 8903,
      "ĠPath": 8904,
      "ĠBlue": 8905,
      "Ġacts": 8906,
      "Ġlayout": 8907,
      "Ġtruth": 8908,
      "ĠLab": 8909,
      "Cons": 8910,
      "Ġrequests": 8911,
      "scill": 8912,
      "ĠGlobal": 8913,
      "ĠExample": 8914,
      "ĠFinally": 8915,
      "Ġbill": 8916,
      "ĠWall": 8917,
      "Pointer": 8918,
      "HER": 8919,
      "Ġlimits": 8920,
      "tags": 8921,
      "Ġtrace": 8922,
      "Ġdepart": 8923,
      "3333": 8924,
      "navList": 8925,
      "<!": 8926,
      "Ġchemical": 8927,
      "Ġregarding": 8928,
      "Ġsingles": 8929,
      "PORT": 8930,
      "Ġunderlying": 8931,
      "ĠMi": 8932,
      "duction": 8933,
      "ĉĉĉĉĉĉĉĉĉ": 8934,
      "filename": 8935,
      "ĠSupreme": 8936,
      "Ġcancer": 8937,
      "ĠBol": 8938,
      "ĠCa": 8939,
      "ashion": 8940,
      "[(": 8941,
      "Ġwidely": 8942,
      "GR": 8943,
      ")\\\\": 8944,
      "ĠEgypt": 8945,
      "Ġfinding": 8946,
      "Ġkept": 8947,
      "HS": 8948,
      "ÑĮ": 8949,
      "world": 8950,
      "hide": 8951,
      "Ġregistered": 8952,
      "Ġmarriage": 8953,
      "aby": 8954,
      "ĠWilson": 8955,
      "Ġprefix": 8956,
      "editor": 8957,
      "prefix": 8958,
      "ysical": 8959,
      "Ġgain": 8960,
      "law": 8961,
      "ifdef": 8962,
      "Ġbridge": 8963,
      "Ġodd": 8964,
      "andon": 8965,
      "wrapper": 8966,
      "Ġnavigation": 8967,
      "phy": 8968,
      "ĠBu": 8969,
      "Abstract": 8970,
      "ĠEdward": 8971,
      "Ġeconomy": 8972,
      "estic": 8973,
      "Ġadjust": 8974,
      "Ġlett": 8975,
      "Remove": 8976,
      "ĠMult": 8977,
      "IST": 8978,
      "Register": 8979,
      "Ġaggreg": 8980,
      "Ġspeech": 8981,
      "800": 8982,
      "Ġstrugg": 8983,
      "Variable": 8984,
      "appe": 8985,
      "Ġminimal": 8986,
      "Ġsales": 8987,
      "ĠBecause": 8988,
      "ĠLatin": 8989,
      "Ġstrings": 8990,
      "temp": 8991,
      "Ġpaid": 8992,
      "onal": 8993,
      "Ġult": 8994,
      "ĠMen": 8995,
      "Ġpaths": 8996,
      "eto": 8997,
      "Ġinstrument": 8998,
      "displaystyle": 8999,
      "ĠSI": 9000,
      "fx": 9001,
      "Ġpatients": 9002,
      "$;": 9003,
      "Ġevaluation": 9004,
      "mapsto": 9005,
      "picker": 9006,
      "Ġarticles": 9007,
      "Ġideas": 9008,
      "Ġfill": 9009,
      "ĠjQuery": 9010,
      "ez": 9011,
      "sex": 9012,
      "dialog": 9013,
      "ĠPower": 9014,
      "ĠUsing": 9015,
      "CHECK": 9016,
      "Ġactors": 9017,
      "Ġoperated": 9018,
      "ĠGre": 9019,
      "enger": 9020,
      "iteral": 9021,
      "Failed": 9022,
      "Ġexpanded": 9023,
      "arsed": 9024,
      "Ġlearned": 9025,
      "ĠIOException": 9026,
      "ran": 9027,
      "attributes": 9028,
      "Ġrotation": 9029,
      "'(": 9030,
      "ĠLuc": 9031,
      "Ġmuseum": 9032,
      "Ġmanifold": 9033,
      "STATE": 9034,
      "elevision": 9035,
      "such": 9036,
      "ĠInformation": 9037,
      "IND": 9038,
      "ĠKorea": 9039,
      "Ġtraffic": 9040,
      "Ġbrowser": 9041,
      "Simple": 9042,
      "Ġdesired": 9043,
      "Flow": 9044,
      "Ġwestern": 9045,
      "------------": 9046,
      "libr": 9047,
      "Ġpassword": 9048,
      "Ġrough": 9049,
      "ĉĠĠĠĠĠĠĠ": 9050,
      "ĠTechnology": 9051,
      "ĠServices": 9052,
      "Ġwild": 9053,
      "headers": 9054,
      "Ġresidents": 9055,
      "Ġconvert": 9056,
      "builder": 9057,
      "decl": 9058,
      "Ġdivided": 9059,
      "Ġrat": 9060,
      "Ġpi": 9061,
      "abeth": 9062,
      "Ġstellar": 9063,
      "Ġflags": 9064,
      "1958": 9065,
      "Identifier": 9066,
      "Ġsexual": 9067,
      "proposition": 9068,
      "osa": 9069,
      "Ġgeometry": 9070,
      "nil": 9071,
      "Ġdocuments": 9072,
      "Ġfocused": 9073,
      "Ġorders": 9074,
      "ĠSi": 9075,
      "Ġsubstant": 9076,
      "ffff": 9077,
      "sen": 9078,
      "Ġapparent": 9079,
      "Ġinstances": 9080,
      "Ġrg": 9081,
      "kes": 9082,
      "Ġnotation": 9083,
      "ĠBroad": 9084,
      "nergy": 9085,
      "1959": 9086,
      "aya": 9087,
      "Theorem": 9088,
      "Ġpicture": 9089,
      "contrib": 9090,
      ">:": 9091,
      "Ġdedicated": 9092,
      "Ġtx": 9093,
      "brief": 9094,
      "arters": 9095,
      "ĠLocal": 9096,
      "article": 9097,
      "Ġsizeof": 9098,
      "Ġpolicies": 9099,
      "\"><!--": 9100,
      "ĠTro": 9101,
      "National": 9102,
      "Sch": 9103,
      "Ġphenomen": 9104,
      "umes": 9105,
      "Ġacquired": 9106,
      "Ġphotograph": 9107,
      "ĠHospital": 9108,
      "expect": 9109,
      "WR": 9110,
      "ĠPlan": 9111,
      "ĠStan": 9112,
      "amely": 9113,
      "Ġcalculate": 9114,
      "wall": 9115,
      "zing": 9116,
      "Ã£o": 9117,
      "fd": 9118,
      "1956": 9119,
      "iling": 9120,
      "simple": 9121,
      "Ġprimarily": 9122,
      "Trace": 9123,
      "ĠMassachusetts": 9124,
      "ĠReact": 9125,
      "cref": 9126,
      "storage": 9127,
      "urer": 9128,
      "Ġple": 9129,
      "ĠEastern": 9130,
      "ivation": 9131,
      "FS": 9132,
      "pu": 9133,
      "Ġsafe": 9134,
      "ĠMu": 9135,
      "illy": 9136,
      "aug": 9137,
      "Ġseat": 9138,
      "ĠRepublican": 9139,
      "Ġmassive": 9140,
      "Ġspan": 9141,
      "progress": 9142,
      "Ġacting": 9143,
      "Ġadvantage": 9144,
      "Ġpurposes": 9145,
      "1948": 9146,
      "ALSE": 9147,
      "agers": 9148,
      "FIG": 9149,
      "conv": 9150,
      "Ġcandidates": 9151,
      "Ġpartner": 9152,
      "pet": 9153,
      "Ġblood": 9154,
      "icial": 9155,
      "Ġconnections": 9156,
      "junit": 9157,
      "\\{\\": 9158,
      "ĠColumbia": 9159,
      "ilibrium": 9160,
      "Two": 9161,
      "Success": 9162,
      "ĠTheatre": 9163,
      "Generator": 9164,
      "Ġprincipal": 9165,
      "()</": 9166,
      "ĠJr": 9167,
      "chen": 9168,
      "Ġdescribes": 9169,
      "Ġprime": 9170,
      "ĠPhilipp": 9171,
      "Ġobservation": 9172,
      "ountry": 9173,
      "emon": 9174,
      "Ġmetal": 9175,
      "OUT": 9176,
      "chmark": 9177,
      "ĠPrem": 9178,
      "DEBUG": 9179,
      "Ġpoly": 9180,
      "apes": 9181,
      "ĠKong": 9182,
      "ĠEp": 9183,
      "Ġleadership": 9184,
      "1942": 9185,
      "ĠFC": 9186,
      "spirit": 9187,
      "Ġreferences": 9188,
      "Ġconstructor": 9189,
      "Ġasympt": 9190,
      "125": 9191,
      "inals": 9192,
      "ĠAuthor": 9193,
      "ĠCopyright": 9194,
      "ĠÅ": 9195,
      "Comment": 9196,
      "Ġfellow": 9197,
      "Ġideal": 9198,
      "Ġsister": 9199,
      "Ġconsidering": 9200,
      "sys": 9201,
      "Ġready": 9202,
      "Agent": 9203,
      "Ġemphas": 9204,
      "Ġdispl": 9205,
      "Ġcomplexity": 9206,
      "complete": 9207,
      "Cluster": 9208,
      "ĠHarr": 9209,
      "ĠSand": 9210,
      "ĠDutch": 9211,
      "orough": 9212,
      "ĠImage": 9213,
      "101": 9214,
      "Ġalle": 9215,
      "signature": 9216,
      "details": 9217,
      "Prefix": 9218,
      "ĠHamiltonian": 9219,
      "Ġcontinues": 9220,
      "ĠCoast": 9221,
      "Ġmorph": 9222,
      "Ġctx": 9223,
      "cluster": 9224,
      "Ġconfirmed": 9225,
      "Ġconcert": 9226,
      "Ġpet": 9227,
      "unique": 9228,
      "poral": 9229,
      "eners": 9230,
      "Ġrevealed": 9231,
      "Ġtoward": 9232,
      "ods": 9233,
      "Ġleaves": 9234,
      "chain": 9235,
      "isis": 9236,
      "bro": 9237,
      "Ġbass": 9238,
      "ĠPoland": 9239,
      "amps": 9240,
      "Ġconference": 9241,
      "Ġoscill": 9242,
      "Ġweights": 9243,
      "Ġ\"<": 9244,
      "ĠWell": 9245,
      "Ġ=======": 9246,
      "Ġacademic": 9247,
      "Ġautomatically": 9248,
      "ĠYour": 9249,
      "Ġoptical": 9250,
      "href": 9251,
      "tan": 9252,
      "apos": 9253,
      "Ġyouth": 9254,
      "itted": 9255,
      "cher": 9256,
      "Ġpowerful": 9257,
      "execute": 9258,
      "Ġmetadata": 9259,
      "ĠInteger": 9260,
      "ĠSea": 9261,
      "ĠRay": 9262,
      "Ġ],": 9263,
      "imitive": 9264,
      "ĠGovernor": 9265,
      "Ġsecondary": 9266,
      "ÅĤ": 9267,
      "VD": 9268,
      "Ġsubsequently": 9269,
      "Ġ\",": 9270,
      "Ġships": 9271,
      "ĠCommunity": 9272,
      "aught": 9273,
      "ĠAmericans": 9274,
      "ester": 9275,
      "pres": 9276,
      "Bound": 9277,
      "Collections": 9278,
      "tc": 9279,
      "dy": 9280,
      "cccc": 9281,
      "Ġtranslation": 9282,
      "Ġcomments": 9283,
      "ĠOrgan": 9284,
      "identifier": 9285,
      "1939": 9286,
      "teen": 9287,
      "actic": 9288,
      "Ġbudget": 9289,
      "Ġcov": 9290,
      "Ġprinciple": 9291,
      "{%": 9292,
      "isted": 9293,
      "blem": 9294,
      "Ġearned": 9295,
      "Ġphysics": 9296,
      "ĠAS": 9297,
      "endor": 9298,
      "Ġretired": 9299,
      "ĠFI": 9300,
      ")[": 9301,
      "structions": 9302,
      "ĠKr": 9303,
      "colLast": 9304,
      "rovers": 9305,
      "CM": 9306,
      "outer": 9307,
      "ajax": 9308,
      "riority": 9309,
      "ĠEven": 9310,
      "Ġpul": 9311,
      ",$": 9312,
      "Ġ'<": 9313,
      "Ġdescent": 9314,
      "allclasses": 9315,
      "Ġfort": 9316,
      "keep": 9317,
      "ving": 9318,
      "collapse": 9319,
      "Ġfunctional": 9320,
      "Ġlisting": 9321,
      "Ġhappen": 9322,
      "1957": 9323,
      ">\\": 9324,
      "tbody": 9325,
      "Ġfre": 9326,
      "generated": 9327,
      "Ġbre": 9328,
      "Ġshell": 9329,
      "enable": 9330,
      "Ġportr": 9331,
      "ogram": 9332,
      "moz": 9333,
      "Ġmagnitude": 9334,
      "Ġpoliticians": 9335,
      "Ġfeat": 9336,
      "Ġsides": 9337,
      "svg": 9338,
      "uplic": 9339,
      "ĠProfessor": 9340,
      "Ġexplained": 9341,
      "Sql": 9342,
      "Ġexcit": 9343,
      "una": 9344,
      "Ġaudio": 9345,
      "ancer": 9346,
      "Ġorganized": 9347,
      "|}": 9348,
      "amber": 9349,
      "ĠNAME": 9350,
      "avit": 9351,
      "ĠOxford": 9352,
      "cret": 9353,
      "ĠJackson": 9354,
      "ĠKen": 9355,
      "ĠEst": 9356,
      "Ġefficiency": 9357,
      "Ġcoordinate": 9358,
      "Ġrows": 9359,
      "semble": 9360,
      "ĠFace": 9361,
      "ĠPrince": 9362,
      "Ġchallenge": 9363,
      "Ġinstitutions": 9364,
      "orders": 9365,
      "newcommand": 9366,
      "detail": 9367,
      "Ġexplicitly": 9368,
      "EV": 9369,
      "Ġsolve": 9370,
      "ĠManagement": 9371,
      "safe": 9372,
      "Ġscenario": 9373,
      "Ġdele": 9374,
      "ĠMid": 9375,
      "ĠStart": 9376,
      "ĠPack": 9377,
      "Services": 9378,
      "Ġlatest": 9379,
      "Ġ..": 9380,
      "Ġacceler": 9381,
      "Ġreson": 9382,
      "tics": 9383,
      "Password": 9384,
      "Ġ[],": 9385,
      "ĠWater": 9386,
      "istence": 9387,
      "ĠPolice": 9388,
      "aling": 9389,
      "Ġauthority": 9390,
      "Selection": 9391,
      "Ġpull": 9392,
      "person": 9393,
      "Ġaffected": 9394,
      "BI": 9395,
      "ampions": 9396,
      "VID": 9397,
      "Ġbeam": 9398,
      "Ġroles": 9399,
      "CRE": 9400,
      "Ġcomedy": 9401,
      "Ġheat": 9402,
      "ĠAdministr": 9403,
      "fire": 9404,
      "Ġfigures": 9405,
      "ĠElement": 9406,
      "Ġinvestigation": 9407,
      "Ġclick": 9408,
      "ĠSte": 9409,
      "depth": 9410,
      "colFirst": 9411,
      "Game": 9412,
      "Ġgraphs": 9413,
      "achment": 9414,
      "hu": 9415,
      "awn": 9416,
      "Ġnucle": 9417,
      "Ġtried": 9418,
      "Ġdrive": 9419,
      "Ġzone": 9420,
      "Ġimproved": 9421,
      "ulator": 9422,
      "Ġtheoretical": 9423,
      "services": 9424,
      "Ġflex": 9425,
      "1943": 9426,
      "sn": 9427,
      "ancell": 9428,
      "Ġcamera": 9429,
      "Ġconflict": 9430,
      "Ġdeclared": 9431,
      "Ġtend": 9432,
      "inate": 9433,
      "algorithm": 9434,
      "Nodes": 9435,
      "DR": 9436,
      "Ġtrees": 9437,
      "Ġnearby": 9438,
      "Ġsupports": 9439,
      "Ġtechnical": 9440,
      "Ġappend": 9441,
      "vc": 9442,
      "Registry": 9443,
      "ĠFurthermore": 9444,
      "Ġexit": 9445,
      "ucky": 9446,
      "Role": 9447,
      "ĠDat": 9448,
      "Ġremember": 9449,
      "Arch": 9450,
      "Ġ[\\": 9451,
      "Ġconclude": 9452,
      "ĠJeff": 9453,
      "1946": 9454,
      "fixed": 9455,
      "Ġlargely": 9456,
      "Ġperforming": 9457,
      "ĠSunday": 9458,
      "Ġmenu": 9459,
      "United": 9460,
      "mass": 9461,
      "Ñĭ": 9462,
      "Ġsupply": 9463,
      "Ġtechnique": 9464,
      "ĠFour": 9465,
      "ocaml": 9466,
      "MI": 9467,
      "Ġsquad": 9468,
      "Ġvon": 9469,
      "extern": 9470,
      "ĠHa": 9471,
      "Ġprotection": 9472,
      "ignment": 9473,
      "Ġrepeated": 9474,
      "Ġexplan": 9475,
      "Ġstored": 9476,
      "?>": 9477,
      "Ġremote": 9478,
      "indexOf": 9479,
      "game": 9480,
      "avor": 9481,
      "ĠAndrew": 9482,
      "Ġparser": 9483,
      "Ġfinish": 9484,
      "Ġuncertainty": 9485,
      "Brit": 9486,
      ".\");": 9487,
      "ĠCreek": 9488,
      "expr": 9489,
      "ĠBrook": 9490,
      "pot": 9491,
      "1941": 9492,
      "groups": 9493,
      "Ġpsych": 9494,
      "Ġdict": 9495,
      "Ġcrime": 9496,
      "eled": 9497,
      "ĠAlb": 9498,
      "oton": 9499,
      "serial": 9500,
      "Ġ\"-": 9501,
      "errors": 9502,
      "ĠHash": 9503,
      "rog": 9504,
      "Ġsubsequent": 9505,
[...]
