#version: 0.2
Ġ Ġ
Ġ t
i n
h e
Ġ a
o n
e r
r e
a t
Ġt he
ĠĠ ĠĠ
e n
o r
a l
Ġ s
a n
i s
i t
e s
Ġ o
a r
e d
Ġ c
i on
Ġ w
Ġ f
Ġo f
Ġ in
n d
i c
Ġ p
l e
Ġ b
a s
in g
r o
Ġa nd
Ġ d
Ġ m
c t
Ġ \
e t
en t
Ġt o
e l
a m
o u
i l
s t
Ġ $
ĠĠ Ġ
Ġ S
i g
o m
ĠĠĠĠ ĠĠĠĠ
Ġ re
o l
Ġ (
Ġ h
Ġ T
at ion
r a
Ġ C
Ġ n
i m
Ġ A
Ġt h
o t
Ġ e
i d
Ġ l
c e
u r
i v
Ġ is
c h
u t
Ġ M
u s
Ġf or
u l
a d
e m
Ġ g
o w
{ \
er s
Ġ B
l y
Ġ P
2 0
Ġ on
u m
Ġ I
u n
1 9
a b
o d
i r
t er
it h
Ġs t
q u
s e
a g
Ġ H
i f
Ġa s
is t
t h
Ġ v
Ġb e
a y
Ġ R
Ġc on
Ġ F
Ġ L
Ġ D
Ġ =
Ġw as
Ġw ith
ĠT he
č Ċ
an d
p e
ĠĠĠĠ ĠĠĠ
en d
at h
Ġa l
v er
at e
r i
Ġth at
_ {
a c
ct ion
Ġb y
Ġ N
es t
Ġ G
he r
e g
o c
Ġ W
Ġ Ċ
re s
h t
Ġp ro
o p
Ġa n
o s
e x
Ġ E
a p
Ġ$ \
ro m
u b
u p
it y
a v
Ġd e
Ġa t
ĉ ĉ
a in
ar t
m ath
Ġw h
p h
Ġc om
e w
Ġ "
al l
â Ģ
Ġ J
Ġf rom
Ġ &
) ;
or t
Ġe x
in e
as s
i es
o re
ig ht
es s
Ġ <
p t
u re
am e
Ġ {
r an
Ġ O
p l
= "
i al
Ġs e
g e
Ġ it
Ġa re
b er
- -
u d
' s
u e
n t
il l
Ġ or
} \
i an
m ent
it e
} $
Ġ he
iv e
re f
^ {
e f
a k
o g
i z
e ct
Ġ U
at ed
Ġ K
an t
ou r
c l
T he
ic h
ar d
ex t
ĠĠĠĠĠĠĠĠ ĠĠĠ
ar y
Ġc l
ag e
20 1
i p
ul t
Ġw e
< /
l d
o v
p er
/ /
i a
Ġ *
) ,
âĢ ĵ
el l
ig n
Ġc h
u nd
0 0
Ġ r
Ġp l
f t
m a
ic al
ĠS t
ra c
it ion
or m
in t
c on
Ġ }
ĠI n
} }
( \
Ġth is
Ġ us
t a
Ġs h
on g
as t
p ort
ac k
Ġcom p
Ġ le
a re
u st
or d
u g
i re
eg in
f f
20 0
Ġ V
b egin
en s
e p
Ġre s
) .
ur n
c al
Ġ -
Ġwh ich
en c
d u
ab le
o st
s o
Ġ k
Ġn ot
Ġ |
I n
p ro
ation s
ĠĠĠĠĠĠĠĠ ĠĠĠĠĠĠĠĠ
_ {\
a ce
) $
or k
Ġh is
t ext
t o
av e
1 8
is h
c c
im e
as e
ĠC h
an g
er e
t her
er v
Ġ y
en ce
r ic
id e
ion s
ĠĠĠĠ Ġ
e c
Ġ un
il d
i b
} {
r m
m er
Ġw he
l ow
r y
e ar
" >
e qu
a ct
} ,
Ġal so
r u
Ġcon t
e q
ter n
i le
f rac
in d
r ight
a ch
Ġa p
Ġc an
ou s
e y
ic e
o k
s p
ab el
or y
ir st
Ġw ere
od e
en er
Ġ if
ou t
* *
c ite
ou nt
f orm
t urn
Ġh as
Ġa d
ub l
c om
ow n
f er
r ing
Ġa r
Ġcl ass
o ver
Ġ im
ou nd
er m
Ġh ave
y pe
r it
ĠT h
math b
Ġ| |
ran s
e v
w o
t he
ro w
at a
S t
re e
ol d
cl ud
l i
at es
ri b
f ig
Ġ j
Ġp art
. .
g et
am p
et a
k s
an ce
l abel
ent s
Ġs u
or s
1 0
j ect
Ġ +
ĠU n
res s
Ġ '
Ġa b
un ction
er t
he d
19 9
$ ,
, \
( )
Ġf irst
o b
ĠH e
math cal
$ .
Ġon e
in al
Ġpl ay
ou ld
w e
le ft
Ġ ro
-- --
Ġs p
i el
s s
Ġd is
el y
ation al
Ġm od
u al
Ġ Y
n g
ĠI t
t e
l l
} .
ic s
Ġal l
equ ation
enc es
Ġt wo
= =
} )
Ġo b
ar k
Ġn ew
f ter
om e
o se
Ġit s
am b
p s
Ġ âĢĵ
ubl ic
at er
Ġre turn
iel d
or n
} (
oc k
Ġde f
E x
Ġs et
al ue
o int
le ct
Ġh ad
c ent
Ġs c
Ġp er
Ġb ut
Ġthe ir
} ^
o ol
Ġin t
l es
pe ct
s um
ĠĠĠĠĠĠĠĠ ĠĠĠĠĠĠĠ
} _
ar am
Ġd es
Ġt e
~ \
Ġe v
ra y
ra d
s h
Ġ qu
i ed
iz e
s et
i k
l ine
ra ph
on t
i x
i o
y st
Ġp re
l and
on e
ul ar
pe c
o ot
ph a
is s
s c
Ġo ut
p on
d a
Ġ [
Ġo ther
R ef
" ,
ol low
Ġf unction
a w
an y
y m
1 2
al pha
em ber
ig h
as ed
mer ic
im es
um ber
i e
19 8
Ġo ver
it ed
ut ion
ul l
Ġa g
ro up
Ġm e
n e
) \
Ġ up
Ġcon st
Ġ //
yst em
r am
Ġc ol
ic t
v el
Ġw ork
Ġwh o
Ref er
en g
et h
Ġt ime
p os
iv ers
p ut
Ġfor m
pt ion
c ed
o f
Ġv ar
el f
op le
a il
Ġs ub
Ġin d
: :
Ġf ollow
at ive
Refer ences
Ġin clud
Ġbe en
1 6
le ment
amb da
Ġin ter
il m
- >
ing s
a x
w ard
und er
Ġcom m
Ġ her
el ta
an n
Ġb et
1 7
d er
res ent
Ġwhe re
Ġre g
c k
s ub
Ġres ult
p r
1 5
le t
meric an
if ic
l o
r al
h o
ur ing
c re
Ġd ist
ro und
Ġy ear
ĠS e
am ma
Ġp r
Ġcon s
$ \
ak e
v i
Ġon ly
in ce
mathb b
on s
Ġ .
Ġl oc
c he
in ed
_ \
our ce
19 7
e ople
Ġsu ch
Ġt rans
Ġ @
ug h
er y
an s
Ġin to
we en
Ġc o
ĉĉ ĉĉ
= \
Ġ\ \
o y
con d
d ot
} _{
Ġ /
ĠTh is
Ġd if
ol og
am es
Ġ< /
Ġs up
b all
} ^{
Ġre l
ru ct
o x
m u
Ġre c
Ġwhe n
ĠC om
ĠN ew
Ġm ore
ic k
a us
Ġthe n
ar g
Ġmod el
Ġg ener
ĠA l
ig ma
ab l
ou g
c es
Ġa fter
ist s
al s
c ol
al ign
ot h
Ġa cc
ar ch
at or
Ġn ame
Ġp ol
re d
Ġp os
Ġbet ween
at ing
Ġat t
Ġa ct
Ġl in
eg a
- \
re n
e b
Ġw ill
Ġ under
Ġthe y
i ent
id ent
Ġd o
Ġas s
Ġn e
e e
t y
h at
ph i
le m
is ion
t s
id th
it ies
is hed
Ġus ed
ĠA r
y n
Ġof f
o ok
Ġp ublic
2 1
' ,
^ {\
t on
Ġ est
u res
Ġpro v
ar s
t ain
d ition
ch ool
Ġs im
tern al
w ay
Ġthe re
it s
Ġs o
1 3
19 6
is e
Ġp h
Ġ :
y s
ad e
l ambda
ov e
1 4
Ġb u
Ġsh ow
p i
er r
u es
t t
in s
Ġpro du
at ure
v ar
( "
Ġth an
ap p
Ġs erv
id er
ĠP ro
( );
p art
Ġf ilm
.. /
b f
Ġ Z
ut e
Ġd ata
m in
Ġl ine
ire ct
C on
Ġs pec
il y
Ġm at
Ġt ra
Ġk n
mathb f
b ar
eth od
Ġe qu
ou th
Ġ end
or ld
il ity
Ġn umber
at ic
Ġ {\
w n
Ġs he
P ro
o h
Ġbe c
g an
Ġ en
as on
Ġst ud
Ġdif fer
h ip
ur y
a ir
oc i
at t
Ġ i
1 1
iz ed
Ġs ome
Ġin st
ivers ity
Ġc or
Ġe ach
as h
il on
Ġw ould
) )
Ġ Q
Ġs ystem
ĠA merican
Ġo p
i er
Ġre m
m l
se ction
le ction
em b
2 2
ro ugh
Ġg iv
e ver
Ġp eople
Ġex t
ow er
Ġf e
Ġan y
ib le
ou n
Ġin v
ild e
o id
2 5
ap t
or th
n ing
Ġn o
ĠW e
Ġc ent
---- ----
s igma
Ġ x
ĠF or
m an
al ly
d ef
ĠS h
Ġ* /
19 4
n ot
a h
Ġ ed
ĠĠĠĠĠĠĠĠ Ġ
is m
Ġ( \
Ġc all
Ġo per
ess age
r on
c ess
Ġ ent
Ġm ost
Ġp oint
} {\
b eta
Ġ ra
Ġe m
m all
sp an
v e
a z
19 5
\ \
it em
Ġc ur
Ã ©
re nt
Ġv alue
Ġt r
Ġc ase
^{ -
Ġs ing
Ġf ound
** **
d iv
al e
s on
er n
oug h
ĠC ol
* }
3 0
Ġb l
aram et
T h
ĠL e
Ġus e
on d
Ġre p
ĠI nd
> </
Ġs ign
Ġg o
Ġm an
Â ł
math rm
ra ct
y le
Ġg roup
Ġthe se
Ġe ff
em ent
Ġm ay
Ġse cond
Ġth ree
us s
+ \
g amma
Ġch ar
Ġab out
er ies
iz ation
pl ic
it t
a j
ĉĉ ĉ
oot ball
ric t
Ġth rough
C h
Ġa m
Ġag ain
Ġg et
ĠUn ited
l in
u c
Ġpro b
Ġs ol
] {
ion al
Ġre qu
ar ray
ag es
p ar
ĠĠĠĠĠĠĠĠ ĠĠĠĠĠĠĠĠĠĠĠ
Ġw ell
he n
Ġs ame
Ġm in
Ġf l
ĠD e
ep s
Ġc re
Ġfollow ing
Ġst ate
Ġ X
Ġt ype
ou se
ĠC on
ĠC l
Ġd uring
if e
Ġf ield
le q
Ġap pro
E R
Ġv al
Ġthe m
ĠUn iversity
Ġdes c
ri pt
Ġex p
^ \
) }
ow ever
amp le
ar ly
Ġvar i
Ġb oth
th is
Ġlin ks
s erv
g y
C om
ut h
the ta
ic es
Ġte am
Ġa c
Ġh im
Ġn on
b ig
w idth
f or
fig ure
Ġdiffer ent
as k
t r
ĠA n
Ġ _
n er
> <
Ġper form
t en
ire d
Ex ternal
Ġpart ic
Ġre le
c dot
Ġ âĢ
k e
Ġus ing
ir c
Ġyear s
Ġ #
( '
Ġs ur
Ġo ur
d elta
r ho
N ame
v ent
ical ly
ta u
== ==
Ġwh ile
$ -
Ġb ack
over n
00 0
Ġplay ers
Ġf am
iv ed
Ġf inal
Ġt erm
iv er
Ġh igh
W e
}$ ,
eq ref
um n
ĠA s
b y
p le
Ġd irect
ac he
ot e
ment s
y p
I N
}$ .
w ork
a u
Ġor der
he re
Ġgiv en
r id
ur al
Ġ el
T ype
ction s
re at
ers ion
2 4
qu ad
ul ation
ĠS c
us ic
} (\
Ġle ad
o ber
Ġar t
aus e
in a
t imes
ĠE ng
o le
. "
n ame
../ ../
ot t
2 3
ar row
ist ory
Ġde c
i ew
e ad
O N
l ation
Ġm on
Ġd et
Ġp op
at her
Ġkn own
b um
iv ing
Ġm ade
Ġ ran
Ġcons ider
oh n
f ore
et s
Ġm ethod
ch i
ro ss
b l
ĠM ar
Ġ `
ers on
im port
Ġw rit
ro p
cent er
Ġm ain
S T
iv ely
Ġbe ing
old s
in es
al se
um ent
ĠSt ates
t il
eng th
re ad
" .
Ġm ed
as es
Ġ z
le y
I d
b ack
m od
Ġl ater
v al
ĠS p
are d
se c
ft y
en n
t ilde
R es
part ial
an ge
ht ml
u ch
in fty
m p
ar ge
el s
om ega
og raph
5 0
ot s
Ġs mall
ĠS he
ay s
Ġst art
f l
Ġs elf
re turn
al ity
ce ption
Ġc ount
om en
ĠO n
in clud
r t
ĠC ount
C l
is ter
Ġf our
Ġf in
m e
olog y
Ġrec ord
d d
Ġb ir
St ring
n u
Ġdis c
Ġf ootball
Ġap pe
ag ue
if ied
Ġor ig
19 3
t rans
ce pt
Ġad d
ĠI s
| \
p m
Ġse ason
b ol
es c
enc y
p aram
iss ion
Ġst r
Ġbe fore
Ġt est
un e
Ġl ong
Ġ err
at ch
it le
ad d
sp ace
th s
Ġh ref
Ġm any
a ult
Ġf act
t d
o od
ot her
an c
i or
Ġr un
rib ut
Ġy ou
Ġ !
vel op
Ġde p
b ox
l og
ran g
A R
l ang
Ġl ist
ik e
ain s
an e
ore m
ri x
Ġest abl
Ġrep resent
A T
Ġde velop
Ġs ince
Ġb ro
Ġs eries
Ġal bum
Ġinclud ing
ar ri
ra w
eq n
t ype
D elta
ĠCom m
cl ass
. ,
) :
ĠF ran
s ource
i qu
O n
vi ew
Ġp aramet
ĠE x
a i
et work
Ġm ov
ep end
cc ess
Ġm et
Ġcont in
c o
âĢ Ļ
ent ial
g ram
Ġ )
le x
Ġap p
Ġresult s
Ġb el
l ed
Ġe lect
Ġdesc rib
res pon
Ġbu ild
u le
ĠW orld
Ġsup port
I t
Ġ >
ĠN ational
in ing
s k
Ġst ruct
ĠJ ohn
L ist
m essage
Ġeff ect
R E
form ation
ĠM ay
ĠA ust
Ġpro per
ĠP h
Ġs chool
ĠĠ Ċ
Ġ$ (
ĠP l
Ġb ased
2 7
Ġ ,
ym bol
Ġ= >
ar n
g or
le v
Ġbec ame
Ġob tain
Ġb ound
ver y
2 8
x i
Ġp resent
iv al
Ġagain st
} [
u ro
ĠA ss
2 6
iv es
\ ,
ĠĠĠĠĠĠĠĠĠĠĠĠĠĠĠĠ ĠĠĠĠĠĠĠĠĠĠĠĠĠĠĠĠ
ak ing
F or
Ġo pt
an k
c ode
ab ility
ĠW ar
g er
iv ate
an u
Ġloc al
col or
} }\
op t
201 0
it ial
ro l
s q
od y
tern ational
os s
)$ .
am ed
if y
Ġpro cess
ĠA d
i am
A r
s elf
ch n
ual ly
r and
ur ch
rac k
a f
1 00
ĠCount y
w here
Ġse ver
S S
Ġchar act
Ġob serv
ver t
Ġdes ign
Ġop en
a id
l er
Ġn ull
Ġl arge
ĠC ar
ĠB rit
ĠB l
U n
Ġcall ed
re g
Ġo wn
m ed
Ġm ult
ag n
Ġp res
T o
Ġ --
in c
or g
pl ay
Ġg u
$ $
Ġim p
st r
f o
Ġan al
Ġfam ily
g round
201 7
i um
ĠS chool
ĠC an
Ġob ject
Ġre ce
ĠY ork
Ġ čĊ
re m
4 0
ian s
f ul
| -
Ġd r
m et
ĠJ ul
p p
um er
Ġ= =
p or
emb ers
re t
2 9
Ġr ight
Ġ u
P h
Ġcur rent
I D
ant s
Ġme as
: //
it al
Ġtr ue
} _{\
Ġun til
ĠG erm
ur ther
port s
Ġre fer
Ġn ow
Ġs ong
rib ution
amp ions
re am
Ġp ar
Ġgener al
f ace
Ġst at
201 6
ward s
ac es
Ġde ath
201 4
v ers
vi ous
re qu
ps i
id ed
ĠS outh
Ġto p
Ġh and
ĠN ov
us e
re en
t ing
Ġpro f
201 5
ect ed
s im
O m
Ġcon dition
201 8
201 1
ug ust
Ġin cre
ar get
r ist
eps ilon
in k
Ġex per
A s
b orn
pos ition
Ġsing le
ect or
ol ution
l oc
are er
201 2
r is
Ġse e
en se
ĠO r
3 2
Ġres pect
ir d
pt ember
a e
il t
overn ment
um b
Ġt em
Ġ rad
ro du
Ġp ass
ĠG e
ĠA t
# #
Ġne ed
Ġev ent
respon d
f ield
Ġd ue
Ġpol it
201 3
Ġsp ace
Ġe lement
Ġal low
ĠF ig
aj or
Om ega
Ġl im
Ġle ft
Ġare a
text bf
r r
A l
n ew
om et
/ >
Ġprob lem
20 19
Ġpos s
)$ ,
Ġre f
anu ary
ps ilon
Ġsever al
C ol
ct ober
Ġm ass
" )
raph ics
am ent
Ġo cc
ĠP ar
i j
Ġc ould
Ġv oid
eqn array
end ed
ĠC ent
O R
d is
it ive
ĠT e
L E
Ġorig inal
^ *
is ed
o ad
Ġbe com
ar m
ist or
Ġan n
200 8
Ġw in
200 9
v en
Ġal ong
c m
20 20
ĠA ugust
sq rt
et y
Ġcomm un
Ġbec ause
Ġm usic
Ġre st
n ess
l ish
Ġn ear
t ab
_ _
Ġim port
m ber
ĠH owever
st ring
it er
id es
ĠSe ptember
ĠM arch
ro ll
f ra
con t
o ard
ener gy
en e
r ation
Th is
sub section
u ild
v are
ith m
Ġhe ad
v ed
ĠR e
b m
Ġe very
ord er
Ġch ild
are nt
Ġg ame
pr il
G amma
at s
ĠP ol
con st
Ġl ast
om an
im ens
il ar
c apt
Ġst ring
Ġad dition
s ide
Ġsh ould
v alue
Ġs ize
ĠJ anuary
Ġf alse
ĠO ctober
le ge
k ey
i od
Ġor gan
ĠĠĠĠ ĠĠ
Ġst and
vare psilon
Ġf ind
ĠI I
O b
un c
i ence
ĠP r
Ġ ident
ht t
Ġas sum
he s
Ġplay ed
200 7
b le
" />
C ont
ĠAust ral
A L
' )
ĠJ une
Ġre ad
Ġw on
Ġcor respond
Ġpro gram
od es
Ġc he
ĠA ll
Ġfor mer
ific ation
s er
at ely
Ġrele ased
^{ (
che s
as ter
ce mber
l im
c ur
Ġoff ic
er o
t ime
b e
200 6
Ġle vel
t able
Ġwith in
uth or
19 0
S ee
Ġc ap
at ors
Ġbir ths
ĠJul y
capt ion
Ġs cal
am pl
id d
Ġa v
Ġest im
V alue
o ff
ore d
t ies
w h
includ eg
includeg raphics
d ata
d e
Ġval ues
Ġl ife
ĠM in
ĠR eg
ĠA pril
} ;
end s
S e
if t
}^ {\
l ing
Ġp ower
cent ury
ampions hip
com m
ord ing
ord s
a pe
} =
l ess
u ed
ĠW h
Ġb and
6 4
a ction
gor ithm
Ġpos ition
E N
Ġpl ace
ĠN orth
Ġar g
**** ****
A n
Ġv ery
ur g
ĠE uro
3 3
Ġn etwork
av a
ĠLe ague
b s
un g
right arrow
ra p
ĠBrit ish
ĠĠĠĠĠĠĠĠ ĠĠĠĠĠ
// //
Ġel se
pos ed
Ġdo es
u age
ĠNov ember
z e
orm al
se e
Ġres pon
ĠC al
Ġs um
i ous
6 0
D ata
ĠC ity
Ġ\ ,
ĠG u
trans lation
t al
Ġl arg
in ation
ĠI f
ĠR es
us h
Ġk ey
H e
ap er
Ġv is
le g
Ġe arly
Ġab ove
ograph y
u k
Ġc al
Ġ& &
ĠDe cember
Ġp ubl
Ġd i
Ġm ap
Ġd en
Ġre al
ĠM an
rang le
ra g
Ġ$ {\
u ff
-------- --------
Ġex pl
ain ed
em ph
) =
ak es
Ġ id
t est
"> <
ĠSt ate
Ġcharact er
Ġex ample
x im
il it
av ing
ap an
Ġint eg
du ct
20 00
Ġa round
ge q
Ġt ri
Ġev en
Ġex pect
ĠâĢ Ķ
Ġl aw
y l
D E
8 0
Ġhe l
il s
Ġ energy
I nd
eb ru
ĠThe y
im ent
ĠB e
t op
Ġpr ivate
Ġg l
S E
Ġb ook
Ġmeas ure
Ġsu ccess
al es
in ition
Ġt yp
ri ption
ebru ary
var phi
at ures
in ter
ac ed
Ġc ity
is on
B ig
h am
p ed
Ġt itle
re l
Ġfilm s
B y
epend ent
Ġs l
R e
Ġpre vious
re ak
Ġl ike
Ġg ra
ĠK ing
Ġin itial
an ces
18 9
ress ion
n on
lev ision
m ary
" );
Ġth ose
al th
Ġcomp ut
m m
A C
lect ed
a im
Ã ¡
Ġs at
il es
c er
le ar
Ġm ake
S h
S et
sc ript
Ġdescrib ed
Ġcomp et
. ~\
n o
he ad
ru ction
w ith
Ġd id
i us
ĠCan ad
pro of
b ut
ĠW ill
.. .
A merican
Ġj ust
Ġ/ **
] ,
s ize
em pt
ren ch
v es
r ite
Ġsim ilar
in o
ĠA nd
Ġc rit
Ġto tal
Ġm embers
at ter
Ġass oci
ĠEuro pe
ĠA f
ix ed
Ġpartic ular
Ġd er
im al
Ġst yle
ens ure
Ġcl os
Ġ eng
g in
200 5
over line
our n
Ġc areer
20 21
ĠĠĠĠĠĠĠĠĠĠĠĠĠĠĠĠ ĠĠĠĠĠĠĠ
st it
4 5
ag er
ef f
Ġd om
. }
Ġst atic
Ġdef ined
Ġto wn
Ġd em
Ġint rodu
ĠF ebruary
Ġw omen
Ġn amed
' '
Ġt rad
op er
in ess
Ġinclud e
Ġin formation
es e
ĠC o
Ġp ost
Ġb as
ĠA rm
on y
Ġd iv
d ate
ens ity
oc ument
ff ic
Ġd own
Ġsh ort
) );
Ġsh own
pl it
Ġpoint s
Ġm ember
Ġa ut
an a
it or
g es
ĠA fter
Ġfollow s
Ġper iod
ĠR ep
Ġl and
P l
Ġcomp let
Ġm ax
N ot
ri es
fra k
d om
& \
Ġm ajor
ial ly
3 5
Ġse ction
b olds
Ġh ig
ĠP art
ind ow
p re
our ces
ref ore
}, \
l or
Ġestabl ished
bolds ymbol
Ġpop ulation
le te
Ġpro ject
] ;
A N
b ra
u x
ist ic
se qu
Ġle t
o pe
I T
c ul
Ġbe h
ĠD ist
Ġw orld
ĠS w
Ġm ark
Ġre t
c or
ar i
ide o
ra ft
Ġo ld
Ġte chn
Ġbe gan
ĠE d
Ġv ersion
Ex ception
p x
( $
ug g
ur s
Ġn ext
Ġcl ub
[ \
Ġloc ated
ert ain
ain t
Ġex ist
Ġre port
Ġqu ant
Ġst ill
7 5
v ec
g o
Ġmodel s
yn am
200 4
ĠU S
Ġs pect
Ġl ow
ĠA m
Ġp erson
ur ation
Ġg overnment
h line
et er
ict ion
Ġhe ld
th ough
ĠS up
Ġst ation
e ction
ĠB y
w w
Ġerr or
al k
ur b
Ġre du
Ġw ay
Ġal ign
Ġd eg
pl oy
} ).
Ġ! =
Ġp at
rr or
M od
ĠEng lish
ĠB ar
er ed
) ^
s l
Ġch ang
Ġshow s
math frak
iqu e
Ġv ill
er ing
ĠJ apan
Ġm ust
oun c
ĠH ar
Ġ// /
ĠW est
Ġin f
n abl
Ġb est
Ġcom b
Ob ject
T est
ĠH is
erv ice
Ġle g
} }$
ir on
Ġreg ion
iv ity
Ġp o
ĠCh rist
Ġad v
or ph
' t
Ġh ome
9 9
se arch
Ġwith out
f unction
C O
. _
M E
n b
st er
L et
ad em
us iness
f ord
ĠSt ring
Ġdet erm
Ġstud y
re w
I nt
ld ots
Ġrece ived
ĠM c
Ġv ol
Ġs aid
y d
ill ion
ys is
Ġstruct ure
ond on
ener al
Ġe p
Ġl a
ym met
Ġs ide
n ode
Ġs k
ol l
Ġa ver
7 0
C T
oc ial
Ġc our
f ile
Ġg ames
Ġdist ribution
Ġterm s
==== ====
Ġpro m
ĠE l
um e
Ġto ok
Ġbu ilt
Ġj o
Ġh ouse
Ġ %
Ġan other
un ic
3 1
s f
lang le
Ġpro t
Ġre pl
Ġc ar
app a
9 0
il le
d ay
al f
ĠC or
L ambda
Ġappe ar
m at
w id
Ġv iew
ent ion
Ġs pe
Ġcomp any
ĠR ec
ent ly
Ġa ff
b it
Ġfe ature
ĠM ed
Ġ et
a ul
os p
Ġcon f
Ġis s
Ġserv ice
row n
is f
Ġm uch
K ey
Ġd el
r ary
Ġt ext
ro id
re st
Ġwh at
Ġf r
it her
olog ical
im um
ab les
Ġpubl ished
ĠCh ampionship
c ast
( ).
ĠCol lege
Ġpre d
Ġa ge
ĠAf ric
ed er
Ġh ow
Ġar ch
200 3
ĠA b
ĠE n
m ult
id ual
Ġl ang
lo ad
e k
ric k
Ġn ational
Ġp ath
ma x
Ġth ird
ĠĠĠĠ Ċ
Ġappro xim
Ġinter est
ĠN o
Ġinclud ed
Ġserv ed
() );
Ġor g
Ġse qu
Ġmat ch
Ġst ates
i et
on es
Ġb orn
arri ed
g roup
r um
ĠR uss
oc us
ĠF rench
A S
Ġh istory
l ist
n a
Ġt ake
Cl ass
Ġp e
ĠH igh
Ġp ort
s up
Ġt imes
G et
ud e
Ġcent ury
Ġs ix
Ġ enc
end ing
et ic
ay er
ĠL ondon
ĠT o
Ġstr ong
u ck
cite p
Ġran ge
Ph i
Ġb ase
Ġprof ess
Ġspec ies
3 4
Ġcomp on
Ġl og
Ġal gorithm
Ġf ive
op y
ĠA ir
nb sp
p ath
op s
ĠThe re
b r
Ġcont rol
a ut
es tern
D e
200 2
Ġcomp os
Ġch o
6 5
Ġt arget
rib ute
Ġf ull
ilit ary
Ġe lection
Ġd ay
Ġplay er
al d
p ose
Ġparamet ers
18 8
200 1
k appa
il ter
i i
ĠM e
op h
ail able
st yle
ĠWill iam
um an
ob al
\ |
Ġinv ol
Ġf urther
Ġposs ible
Ġte levision
I m
Ġperform ance
text it
lin k
ip le
ĠCh ar
) (
Ġdisc uss
ĠGerm an
P s
Ġp ot
Ġs w
ann el
S c
ly mp
at us
ard s
ight s
plic ation
ĠY ou
ian t
Q u
nabl a
E rror
u ation
Ġt urn
sub set
Ġin put
Ġw ar
Ġn ode
Ġm en
Ġc over
ampl es
D ef
Ġcomm on
W ith
m ap
Ġro le
Ġg raph
} )$
d raw
Ġv ert
ĠDist rict
ensure math
sum mary
Ġsign ific
p ace
r c
Ġcor re
ic le
\ %
Ã ³
Ġed uc
ĠC up
re et
ĠIt al
Ġme an
Ġconsider ed
u f
O r
Ġph ys
Ġl ength
a ff
Ġcomp lex
Ġm agn
Ġc ou
ĠThe n
Ġimport ant
w ide
ing ton
ot imes
Ġph ot
ain ing
Ġre d
p oint
I C
Ġc amp
20 22
ĠS ch
] .
ĠThe se
} ),
Ġa ction
Ġchild ren
Ġfunction s
ind ex
Ġvari ous
ĠAr t
c irc
ĠH er
Ġobtain ed
Ġam ong
Ġf ile
Ġind ic
3 8
rid ge
Ġof ten
S igma
row s
ounc il
Ġsat isf
if f
. \
way s
in ary
Ġwrit ten
n ow
ate g
4 8
Ġf ail
ĠA ng
Ġthe ory
Ġbuild ing
ol ic
or ies
ĠD av
con om
ĠCom p
sh ip
Ġmat rix
Ġm ot
ĠH ouse
ur l
ĠP ark
ĠB ro
" ;
A P
Ġa uthor
Ġs ource
Ġinv est
m box
L L
cl us
Ġatt ack
Ġ` `
Ġs it
Ġ q
Ġp ri
L iving
w are
c her
i ber
oci ation
al t
p ublic
ac hed
Ġd ensity
Ġspec ial
Ġe as
d f
Ġf ew
Ġcon v
ĠC he
our s
Ġd at
and om
Ġse par
v iron
Ġn orth
Ġprodu ct
ct or
Ġ( $
av y
3 6
i ef
m ar
Ġ: =
per ty
an ish
wid et
Ġ( )
Ġf ore
Ġtra ining
Ġc ross
dot s
ĠM on
Ġev ents
ak en
Ġlim it
Ã ¼
R equ
Ġa rm
ure d
Ġa ir
Ġd ied
Ġl ower
ĠQ u
ater ial
in n
Ġp aper
ition s
iv idual
Ġpr im
ĠL et
Ġw ater
\ [
ul a
Ġparamet er
Ġin s
st ate
ul es
Ġrespect ively
ug ht
htt p
ĠPh il
Ġaver age
E n
com p
ĠP res
4 4
Ã Ń
[ '
Ġf ac
ĠL a
Ġim pro
ĉĉĉĉ ĉ
Ġcon n
ĠD iv
ĠL ist
ex p
widet ilde
Ġro und
Ġd eta
non umber
loc ation
ĠO ne
' );
Ġl ess
c ap
âĢ Ŀ
ĠP er
ra in
5 5
Ġsup er
ou ble
ĠIn ternational
Ġvill age
ign ed
P eople
Ġc irc
3 7
ite ct
att le
Ġcre ated
Ġf low
P E
Ġf ree
Ġb o
Ġfe atures
" :
ag ed
er a
ab or
s cal
i ents
m s
ut ions
R O
Ġp air
Ġsol ution
Ġrel ations
3 9
nd er
Ġs em
Ġrequ est
Ġh ost
( ),
l ength
Ġass ert
em s
ĠR iver
H istory
Ġann oun
oug ht
199 0
Ġst ar
Ġcons ist
if orn
Ġim age
ĠG l
6 6
it ch
Ġcol l
ĠInd ian
/ \
r im
Ġ/ >
I I
}} {
ut il
as ing
Ġl ight
Ġ Ð
center ing
Ġch ange
Ġsystem s
199 9
fl u
Ġc ell
Ġav ailable
Ġwork s
T E
Ġpot ential
oy al
ar a
i ev
is c
iforn ia
b urg
Ġs on
Ġ ide
Ġsignific ant
ot ed
Ġh owever
St ate
Ġr ate
Ġn ov
Ġkn ow
g l
Ġs outh
o on
re ed
Ġg en
Ġprodu ced
at ural
Ġconst ant
Ġcl aim
ĠS an
N ew
Ġhe re
Ġcomm and
F F
m on
B C
or ge
ir t
ĠEng land
M an
Ġproper ty
Ġcorrespond ing
Ġg e
ĠA g
use um
d own
fer ence
Ġt w
V iew
E qu
land s
Ġs ent
{ -
og n
h old
s w
Ġappro ach
Ġgroup s
Ġstand ard
ĠL em
ic o
f rom
Ġdif f
A ss
T ime
Ġle ast
k en
chi ev
ĠM ich
Ġanal ysis
k n
Ġc ode
om b
c it
Ġl ed
A ll
Ġk ill
Ġl abel
Ġf requ
Ġan t
Ġgo od
Ġbecom e
Ġestabl ish
F ile
her n
' ]
a it
ens ion
Ġb i
Ġh aving
Ġb usiness
Ġcon text
B l
oci ety
du c
Ġ );
0 1
ĠB r
th m
Ġe ither
A t
Ġde v
Res ult
. </
Ġs ite
ly ing
ĠD ep
Ġequ ation
Ġc ases
} -
Ġh istor
L A
o ch
Ġbl ack
Ġex ec
ĠCal ifornia
is ing
M ap
Ġs er
ĠA c
st and
ĠPart y
c le
Ġconst ruct
N ode
ĠAustral ia
ĠW hen
Ġmethod s
A d
Ġprodu ction
199 8
ic a
ack age
Ġhig her
er g
qu e
m y
am a
ĠT r
Ġind ependent
ust om
F orm
h ib
Ġback ground
Ġp ract
Ġth us
Ġmov ed
ĠA ct
4 9
end er
Ġset t
res ult
Ġ ?
m ost
ev el
F ig
Ġl oss
Ġcount ry
tab ular
Ġassoci ated
E lement
Ġdeath s
id ence
Ġcon fig
h a
Ġd imens
b or
Ġk e
I S
u i
Ġn eg
F rom
ab ly
Ġm ale
Ġsh ip
ourn al
p en
Ġdist rict
Ġe ar
Ġeng ine
Ġph ase
c y
n av
Ġind ividual
ess ion
0 5
"> </
Ġcondition s
/ *
viron ment
ĠV al
ĠThe orem
Ġinst ance
\ ]
T R
Ġimp lement
\ !
Ġv ideo
Ġcal cul
ĠO lymp
18 7
Ġbl ock
ĠRep ublic
Ġind ex
Ġrequ ire
b ased
ott om
ugg est
Ġline ar
~ ~
ĠA ward
Ġc ult
ut ure
iv il
Ġv ia
ĠE ast
ell ow
og le
ran t
ne ction
Ġar ray
i ol
in ated
O ver
Ġhel p
ĉ Ċ
Ġn umer
in st
Ġdevelop ment
ĠP ort
Ġproper ties
Ġl ate
ĠArm y
Ġreg ular
Ġm iss
iv en
Ġf em
ib ility
ch an
e h
In fo
Ġbel ow
\ {
R ec
pl ied
Ġf ather
Ġs old
Ġr andom
Ġin ternational
Ġtem per
Ġreturn ed
Ġb reak
re c
ress ed
E vent
Ġv ector
âĢ Ķ
itt ed
get her
Ġto gether
P ath
| |
Requ est
Ġc aus
4 7
I f
Ġpro of
v an
Ġre search
pon ent
Ġcre ate
et t
198 0
ĠInd ia
Ġh om
Ġlin es
oc al
Ġh alf
199 6
min ist
Ð °
A tt
ĠS ystem
Ġf ocus
j s
Ġa chiev
Ġstart ed
f oot
Ġacc ess
Ġab s
Ġd est
h an
} +
z eta
Ġcommun ity
Ġc ost
m ing
I s
it z
ĠS ec
ĠâĢ ľ
A D
pl ies
ot a
ĠB el
read y
ĠFran ce
Ġpro posed
Ġelement s
T ext
ĠW ith
ĠR ed
Ġdep end
Ġyou ng
ear ch
A fter
Ġpos itive
Ġannoun ced
Ġus er
r ide
b b
idd le
ĠCh urch
ĠA meric
Ġsc he
199 7
ap i
ar ies
Ġse en
ĠS im
ra int
ĠM al
Ġd a
av es
err or
C C
ire ction
Ã ¶
Ġc y
/ **
ole an
Ġg round
y a
Ġrequ ired
itt le
Ð ¾
Ġcontin u
ac y
ce ed
l s
Ġpolit ic
Ġa ward
g color
ĠS ince
ort hern
ian ce
Ġbro ad
ĠO b
i ers
s in
I ON
A dd
Ġprov ide
Ġcol or
g ress
Ġexpect ed
F ield
um p
} =\
) }\
M P
ĠSe ction
oun ter
med i
Ġacc ount
ĠR oman
Ġ& =
w ise
ĠE q
Ġlang uage
Ġm illion
om orph
Ġ und
) =\
T rans
pr ime
ames pace
Ġs uggest
ic ro
d s
it ar
ord in
Ġep is
Ġsur v
as c
u ra
in put
; \
kn own
ec ess
ĠH am
Ġcont ains
cc ording
ĠA nt
Ġan g
Con fig
{ (
Ġche ck
Ġ} ,
Ġde but
Ġn ormal
a el
d t
S ystem
Ġre cent
ĠF irst
() )
Ġout put
c ell
199 5
om ent
S p
e ed
Ġcont ent
ul ated
Ġcon c
wh ich
ar ning
` `
Ġm y
m ark
Ġg reat
Ġp erm
Ġs m
ib rary
Ġpl an
Ġcl ose
Con text
Ind ex
Ġf und
Ġ ill
Ġc ame
Ġm em
ache s
ĠR ev
Ġt rack
Ġmult i
L O
ĠA p
c is
ĠE m
0 9
unic ip
Ġrespon se
Ġfin ite
Ġs ymmet
Ġre view
he l
Ġ/ *
Ġprov ided
} ]
Ġd ocument
s ing
6 7
il ities
ĠEurope an
b ed
Ġb gcolor
c os
n ey
em ents
Ġb ody
ho od
Ġac ross
Ġdeg ree
Ġf lo
ĠCanad a
Ġdef ine
B uild
Ġem ploy
u el
ĠG eneral
Ġatt empt
ĠS um
ig en
ĠQ ue
ĠC ouncil
Ġoffic ial
lem ma
6 8
and id
text width
ree k
ĠDiv ision
ber g
ĠAmeric a
ther n
Ġd ynam
id ing
er b
=" ../../
ro te
pro p
il ed
ĠJ ames
Ġact iv
ĠTh om
[ ]
ĠP al
9 5
ĠS m
Ġt aken
Ġw ent
um ents
U R
ĠH ol
Ġpop ular
Ġme ans
S ervice
ut es
r ated
Ġpolit ical
Ġl o
Ġapp oint
ĠC ont
Ġperform ed
g en
Ġf ri
esc ription
}_ \
' :
ĠM or
Ġex ists
Ġdef ault
M A
) ^{
0 8
ist ics
Ġpartic ip
ĠR ober
199 4
Ġun it
ĠC our
}^ \
ou thern
ber t
Ġconst ruction
199 2
Ġc r
A A
v ille
l t
cdot s
! --
b and
ĠP aul
ĠĠĠĠĠĠĠĠ ĠĠĠĠ
ic on
il i
v oid
ot es
i res
Ġreport ed
ĠF l
art ment
ag ement
e an
Ġ Ã
Ġdevelop ed
k ed
pl ate
Ġ( !
$ )
Ġs ocial
ag o
tr ue
Ġm arried
Ġrel ated
E D
ran ch
s mall
y ear
k a
G e
stit ute
k y
Ġsequ ence
et urn
iz ing
c up
Ġbe gin
Ar ray
197 0
M L
ĠPres ident
Ġl iter
//// ////
ĠR oyal
it te
Ġt re
ĠSt reet
ap ache
ĠGe orge
ens or
e al
ateg ory
tt p
ge bra
Ġarch itect
Ġdef e
Ġdef inition
at al
ob ject
Ġw idth
at ives
con fig
Ġwork ed
ust er
U S
ĠB ra
st ruct
Ġin flu
emb ly
ĠD i
ak er
ĠI m
ref er
Ġsur face
Ġz ero
+ +
o e
ĠĠĠĠĠĠĠĠĠĠĠĠĠĠĠĠ ĠĠĠĠĠĠĠĠĠĠĠ
Ġm ilitary
, -
ribut ed
wide hat
Ġl ook
p ly
Ġaddition al
c all
ĠD ef
Ġdist ance
Ġbeh av
qu are
ĠAss ociation
Ġjo ined
Ġg row
) ]
Ð µ
ĠD es
Ġ\ {
ag s
Ġd ays
ĠF rom
Ġst ep
umn i
ay out
Ġinst ead
Ġcomp ar
bl ock
ĠS en
ĠM od
f in
ĠM ount
Ġlarg er
Ġf ig
at rix
Ġoper ator
S P
ĠR ich
n s
Ġt able
Ġr at
li ke
}} (
Ġm aterial
ew ork
ĠD em
m en
b ody
Ġserv ices
Ġp arent
ro y
q quad
Ġal ready
Ġfield s
an el
ĠB er
Ġra il
U T
O ut
In st
ass ert
ĠSt ud
Ġcent ral
an i
ĠL ou
Ġ} );
yn c
Ġm aking
Ġobserv ed
ul ations
ĠH all
Ġt ry
ĠT rans
us er
ic y
Ġcol lection
Ġequ ival
4 6
Ġintrodu ced
S ize
v ing
18 5
Ġf ixed
ĠUn ion
ribut ions
oc r
199 3
y nt
ĠAustral ian
ri an
I G
ĠM ore
Com p
ĠGerm any
Ġcol umn
Ġwh ose
" "
Ġc apt
b oard
Ġmult iple
Ġinvest ig
Ġh uman
Ġscal e
if ier
F A
h and
o o
math sf
Ġw ant
ĠCl ass
******** ********
n ers
Ġm id
r up
ist ry
R eg
Ġev al
Ġclos ed
Ġst ory
}) \
al ax
Ġcou pl
ram ework
Ġw rote
A B
ic ol
Ps i
id a
} |
ad o
ĠDav id
Ġexper iment
ill s
p df
Ġde cl
r d
Ġfact or
ri ate
Ġsim ple
s pec
e in
' ;
c hed
c ount
Ġare as
ĠD uring
if orm
Ġab le
ask et
Ġprob ability
T r
ic les
H and
Ġstud ents
Ġpres ident
ĠFig ure
Ġh old
Ġval id
C ode
ĠP at
Ġl ik
Ġ-- >
and er
Ġne igh
O f
Ġm ag
Ġbet ter
}^{ (
pt ions
w rit
ĠP e
ĠG roup
199 1
8 8
Ġgra du
Ġopen ed
E T
Ġspec ific
sk ip
ĠBl ack
ch ange
0 7
es h
Ġteam s
Ġ= ==
S C
Ġcon duct
m it
& =
Ġpred ict
Ġp ut
Ġlead ing
ĠD r
Ġsuccess ful
ra ction
Ġar r
4 2
Ġocc ur
as ons
ic ient
ast ic
n el
V al
Ġcent er
Ġind ust
wo od
l a
ap s
ĠN or
Ġcomplet ed
in i
Ġwe bs
0 3
an ies
Ġqu est
Ġro ad
. ~
Ġ$ (\
def ine
o z
m id
htt ps
Ġl ost
all s
g ed
Ġrec ogn
ĠM art
st ar
In ter
Ġprofess ional
G roup
ip p
Ġe conom
ĠN e
Ġset s
Ġon ce
w ord
ash ington
E nd
Ġs ay
T e
g s
=" +
ĠĠĠĠĠĠĠĠ ĠĠ
plic it
Ġch urch
uff er
rac y
not e
ra b
ĠCh ina
ĠB ut
Ġn atural
ĠPro v
Ġm ar
Ġrele ase
mod el
le vel
r ate
Ð ¸
Ġsong s
Ġ rac
ens ive
Ġdirect or
Ġdirect ed
al le
ĠAc adem
x space
ap pro
0 6
Ġadd ed
r un
Ġacc ording
Ġwork ing
ens us
Ġnov el
^ +
Ġ_ _
Ġle arning
ĠM ark
at ory
ish ing
{ {\
}\ ,
ĠLem ma
Ġne ver
Ġtrans fer
Ġst age
}\ \
Ġed ge
Ġh on
It em
ut ive
Ġother s
Ġb order
a ign
Ġy our
ugh ter
Ġrad io
Ġform ed
cre ate
Ġn il
8 5
N A
Ġcontin ued
Ġp ress
ĠI nt
it es
Ġg ive
Ġpart y
Ġrecord ed
Ġquant um
rad e
che ck
E S
t itle
196 0
Ġ es
ĠM ary
oot h
li ament
Ġp ur
pro t
ĠM ex
ant ic
ou d
ĠG ames
M S
Ġh ard
ĠCent er
itt ing
ĠM y
Ġinclud es
itte e
5 00
ok e
Ġent ire
ĠR oad
ĠH en
C H
ok en
) {
Ġre v
b o
Ġcomp lete
l ight
ĠComp any
Ġbro ther
ĠM usic
I P
a ur
ines e
Ġcont ract
0 2
iz es
Ġth ough
com e
Ġof fer
U p
Ġc andid
Ġtrad ition
Ġsp in
u z
inal ly
ĠCl ub
f ill
qu ot
4 3
Ġtrans form
im ate
Ġpresent ed
Ġm oment
y t
ĠIn ter
Ġr ather
ĠL aw
Ġal though
i os
Ġme et
Ġt en
T able
el ine
scal e
O S
overn or
Ġsign ed
Ġex act
Ġc ut
x y
198 9
Ġdat as
Ġ& \
r ame
ĠS ociety
198 8
Ġme chan
us ed
Ġbound ary
Ġeduc ation
I R
A nd
ar ily
Ġalbum s
ĠD on
st on
4 1
) -
Ġassum e
, "
al a
ĠB ay
ĠR ef
} :
6 9
Ġal ways
Ġpri or
Ġpr inc
Ġso ft
p ite
at ively
Ġwe ek
ĠCour t
m ore
C ount
ĠKing dom
Ġn ecess
Ġsub ject
ec k
asket ball
pl ace
d en
un k
vers e
Ġv iol
ĠT own
a ctions
Qu ery
Ġs ample
umb ers
Ġqu al
ĠM et
M essage
at form
ĠT ra
C D
Ġa way
ar io
ĠG reen
ĠV ir
Ġtemper ature
S ub
Ġact ive
ĠCanad ian
f lo
ed ge
Ġrem ov
7 7
Ex p
P r
Ġc ertain
Ġf ar
Ã ¤
pon se
ell ing
Ġh or
Ġ} ;
us ing
E E
ĠH istor
includ e
Ġwe ight
pr int
Ġv ers
Ġfootball ers
E ng
= '
o res
ri a
ol it
il ton
Mod el
Ġh olds
ĠAr ch
Ġco ach
li ent
The re
Ġwhe ther
in fo
ĠW ashington
ĠG et
cit et
b ase
ĠIs land
= #
## ##
ĠTh us
m d
] $
Ġopt ions
F ilm
Ġf uture
d imens
b t
enc ies
Ġcont ain
Ġwebs ite
Ġm er
Com m
equ iv
ind ent
Ġchang es
b ound
re y
Ġfound ed
ĠIn stitute
dis play
on ic
Ġac cept
pt y
s u
Ġcompon ent
ĠS ing
Ġsu ff
Ġelect ed
Ġgiv es
d ist
Ġk m
Ġgo al
S up
Ġequ al
E nt
ww w
ic ult
Ġthe refore
est ival
ĠM iss
Ġw rite
Ġra ce
ĠS o
Ġt reat
Ġappe ared
roll er
Ġw ife
ĠC ath
0 4
Ġadd ress
c an
st art
irt ual
it ude
ĠDep artment
ch o
9 8
Ġd irection
m ethod
Ġv ict
ĠM ont
ĠS am
Ġal most
Ġpart s
Ġse lected
}} {\
sh ire
ĠJ ack
on al
ĠAfric an
Ġappoint ed
Ġbel iev
Ġeffect s
Ġl ive
} +\
ĠV ol
Ġdi ag
Ġb ox
Ġtyp es
Ġfr ont
ro s
h space
Ġre n
A p
ou l
ĠG o
B ar
Ġup per
Ġst ars
g t
c el
ĠJapan ese
Ġc ast
y per
ĠP ress
el oc
ĠT est
Ġlarg est
Ġal umni
Ġb en
L og
n eq
O T
Ġj ava
Ġden ote
ĠRec ords
Ġ row
id s
c ial
E d
Ġfollow ed
h i
l ong
Ġle ague
on a
en ed
ĠT ur
u an
def ault
ĠT V
9 7
f low
Ġt ask
Ġch annel
. )
om s
U LL
Ġgl obal
Ġb ar
ĠCent ral
Ġsub sequ
198 7
Ġdis play
r ast
om ial
ĠM useum
ĠS l
Ġc lear
Ġd ouble
s plit
Ġde part
C all
Ġloc ation
Ġstud ies
Ġcan not
aramet er
Ġe ast
ĠAcadem y
c ase
00 00
n et
Ġbas is
T D
t ra
ac ity
ĠB est
r ish
the orem
d o
ĠR ail
ol s
val id
g ing
abl ed
ĠM ad
U N
k i
en a
od ing
Ġcomp ared
Ġg alax
Ġn om
S ince
ĠAng el
ĠG rand
Ġmax imum
ĠA lex
Ġac qu
ef ore
Ġse arch
Ġmed ia
Ġdesign ed
' $
ad a
Ġad minist
Ġpro p
Ġgener ated
Ġm essage
un t
Ġc le
Ġequ ations
ĠItal ian
r s
Ġrepresent ation
Ġfor ce
Ġoff ice
Ġm other
sc r
ĠRober t
Ġass ist
b our
Ġcon ver
Ġen vironment
ĠC O
ĠSum mer
ĠRuss ian
Ġro t
en umer
Ġmod ern
Ġrespon s
Ġconst raint
n ext
Ġd one
u a
enc ed
IN G
Ġre ason
S er
Ġun its
Ġto o
} -\
( (
ĠThom as
t es
is es
198 6
cur rent
eder al
Ġin c
Ġw est
arg in
Ġmet ric
v ersion
Ġus es
ĠD o
we b
act ory
ĠT ex
Man ager
ĠS al
ed y
Ġwh ite
n ce
Ġbir th
ta ct
Ġsupport ed
ĠL eg
Ġim ages
w est
ac ing
Ġc e
k m
s el
ĠOlymp ics
ag ing
cre t
ĠS et
198 4
ĠC ap
Ġear li
ĠC ong
th let
ĠZ eal
Col or
k ing
ĠG reat
| ^
Ġun c
t em
h as
ĠM ac
ang le
5 8
os en
ict or
Ġus ually
ĠR ad
Ġe ight
ĠC ons
ĠM at
ĠW estern
con tain
v is
Ġt aking
---------------- ----------------
plic ations
ĠZeal and
Ġstat us
ar ter
Ġad j
ĠWh ile
led ge
) }{
Ð ½
Ġdirect ly
ĠF ootball
Ġf ire
oc ks
c ing
Ġstud ied
p ret
oc ation
ran ge
ĠL and
cont ent
Ġs ound
Ġprov ides
Ġm ight
Ġeffect ive
re ate
ĠAfric a
Ġh ous
198 5
Ġro ck
ĠSc ott
Ġreg ard
Ġcomp anies
Ġp ers
op l
( -
5 7
Ġhim self
it ing
Ñ Ĥ
Ġ- \
Ġam ount
ĠE ar
m ember
Ġconst it
Ġst re
Ġd raw
Ġschool s
{ }
erv e
Ġsmall er
ov ers
Ġoper ation
9 6
Ġrepl aced
he st
Ġmark et
O D
Ġp age
] \
Ġopt im
ĠChar les
=" #
Ġm ove
b ook
; &
or age
item ize
ĠW il
im ents
ĠF ilm
p c
S pec
Ġhe alth
ur ity
Ġp ay
Ġgu itar
f unc
Ġt er
Ġim plies
on str
am s
ĠS ub
ol f
b a
Ġa ud
ic an
Ġex hib
Ġst ri
p ng
ol ar
C E
ab s
Ġdisc over
ing u
ĉĉĉĉ ĉĉ
Ġap plied
Ġv eloc
Ġg as
he ight
Ġallow ed
Ġco ordin
Ġd on
re land
( {\
W h
ĠU K
Ġplay ing
Ġfor ces
irc raft
ict ure
Pro perty
F C
ĠLou is
in ct
ĠY ear
st atic
Ġrelations hip
ous ly
Ġobject s
ch ild
Ġsign al
Res ponse
Ġproblem s
Ġs ports
Ġen ough
n es
Ġthrough out
Ġincre ase
M ethod
Ġ( "
ev ent
ĠVir gin
am ily
ĠM ag
Ġin j
Ġpr int
Ġstruct ures
Ġt ro
6 3
Ġb ool
Ġp ast
go ogle
ans ion
b uild
Ġda ughter
us ical
ĠCh inese
osp ital
app ing
ĠWh ite
ra el
il ies
d ag
Ġw indow
enumer ate
act ive
P I
Ġoper ations
Ġits elf
g ent
N o
iz er
Ġco eff
dimens ional
Ġrepresent ed
ĠG old
Ġcurrent ly
i ation
Ġtrans ition
> &
Ġnot e
Ġinvol ved
Ġl iving
az ine
Ġd ate
Ġcompon ents
ĠN ot
198 3
s y
ic ense
v space
Ġy ield
Ġmed al
Ġd ram
Ġ\ |
T H
ul ly
ac her
ĠMin ister
ĠK ore
i ra
Ġrest rict
it a
ir m
Ġmon ths
e lement
du ction
Ġdiff icult
Ġst ations
Ġto urn
Ch ar
Ġup on
Ġs ources
w ell
iz ations
A M
Ġepis ode
c ore
Ġcamp aign
Ġn umbers
ri ef
Ġbecom es
Ġprov e
f inal
ar p
Ġpe ak
d ev
8 7
ru le
ĠChrist ian
C lient
Ġprim ary
Ġl oad
f alse
ĠM er
con text
195 0
Ġal gebra
ic ation
d ec
Ġs il
in it
ĠCar ol
Ġst op
Ġbuild ings
ar ian
Ġset ting
ĠTex as
Ġs rc
Ġt ree
Ġrel ation
ĠP et
at re
ĠMich ael
arn ed
lect or
ĠJ ew
Ġb oard
Ġm unicip
ro ad
Ġprevious ly
N S
Ġhe ight
is l
Ġdom ain
Ñ Ģ
Ġst ated
Ġg ave
ĠT om
Ġad apt
oper at
) }$
~ $
ach ing
Ġfl u
I L
clus ion
m ain
\ ,\
] (
h ost
Ġright s
ab ase
erm an
ollow ing
Ġspe ed
p ing
Ġfin ished
V ert
j o
ĠL at
Ġrefer ence
Ġcharact ers
Ġun ique
as tern
math scr
Ġincre asing
ĠS ur
j ava
Ġvari ables
p age
operat orn
Ġs ens
Ġm ode
Ġsc en
Ġdem onstr
p ackage
w in
omorph ism
O ne
Ġlist ed
opt ion
Ġphys ical
198 2
Ġpat tern
Ġpl aces
or ing
Ġan im
ar ing
z il
he t
Ġt akes
ĠU p
operatorn ame
id ae
pe ople
lang uage
is k
6 2
Ġit er
Ġthe orem
="../../ ../../
comm and
$ }
no indent
d ing
a res
ĠCath olic
Ġsol utions
& &
} /
z a
F irst
Ġf av
un s
opt ions
ov iet
ĠT able
duc ation
Ġmagn etic
u it
Ġrel ative
R ead
E C
Ġf ight
197 9
Ġfem ale
ĠB ook
Ġout side
ribut es
Ġj ournal
> (
y ing
Ġin ternal
Over ride
d i
Ġre ve
Ġm ention
}} _
\ }$
ĠS pec
Ġs eg
ĠD an
rup t
ĠS ome
av al
ĠSe cond
L e
Ġn ames
ĠPar is
Ġrun ning
Ġmiss ing
Ġoriginal ly
Ġallow s
Ġt rac
Ġdiffer ence
Ġtrans l
ĠB o
Ġj ud
ip s
I M
ĠThe refore
Ġw ords
Ġal tern
ell a
Ġtrans port
ĠJ ose
n y
B A
th at
P S
Ġth row
6 1
is ions
ock ey
id ents
et her
ĠN ote
Ġn uc
ub e
art s
is ation
Ġev olution
] [
Ġkill ed
Ġd am
ĠT or
Ġpolitic ian
Ġm ount
P i
Ġconn ected
ĠO ther
alle l
N N
C he
Ġevent ually
Ġse ven
ĠD ay
a ud
pec ially
evel op
back ground
Ġt it
ch ar
Ġart ists
Ġelect ron
l n
s m
Ġto wards
ĠSp anish
r as
ĠFran cis
St ream
EN T
Ġestim ate
Ġto ur
air s
Ġchang ed
Ġag re
Ġpol icy
ĠM el
Ġor d
en ame
om a
F L
ĠSup er
line ar
i ences
d b
Ġde al
au ge
ĠB ill
198 1
an o
c ss
ser ver
ĠSm ith
Ġinst all
======== ========
ish op
g ence
d oc
Ġdeta ils
Ġm ix
Ġreg ions
Ġill ust
Ġa x
A G
Ġde cre
un ity
mult icol
ri al
und le
Ġbook s
ĠA ccording
ĠB en
M ed
] )
Ġst d
f ess
ot ype
Ġacc om
i as
n amespace
ĠF ore
ĠS ervice
el t
ot o
ify ing
H ead
Ġwrit er
Ġrel ig
ĠDem ocr
Ġst e
stand ing
Ġclass ical
Ġch all
st ream
multicol umn
ĠS er
ĠD irect
T V
ap ter
Ġrem ains
ĠP eter
Ġc ustom
empt y
U ser
Ġcorre ct
ay ers
Ġre ached
ĠP o
Ġresult ing
ut ch
Ġl atter
Ġexp and
) +
A ct
Ã ¨
Ġcrit ical
Ġap plication
Ġne ut
Ġv er
N ote
ĠG ra
B e
us ion
Ġv oc
ĠFran k
var iant
Build er
197 2
}} }
Ġex cept
Ġbel ong
Ġwe ak
197 6
B ack
a o
ĠM ass
ĠRich ard
ĠD el
Ä ģ
O per
Ġim medi
r ig
Ġw ord
yn omial
ĠL ake
Ġke ep
ic ago
S U
appro x
Ġm ach
ĠV ictor
ĠF lor
L ine
E arly
p ass
t x
Ġg rad
Ġocc up
Ġrun s
O ff
b ul
Ġp ain
ĠI reland
ĠSc ience
Ġun ivers
oc ol
Ġd rop
197 8
ĠW ork
Ġst ream
Ġequival ent
C o
Ġro b
ĠO ut
Ġrem ained
C an
ĠĠĠĠĠĠĠĠĠĠĠĠĠĠĠĠ Ġ
Ġbehav ior
Ġrat io
Ġm akes
Ġcon clud
loc al
ĠF ound
ol k
Ġc ivil
Ġge omet
P C
Ġvari able
A pp
st ant
ĠS ant
ĠO ff
Ġfrequ ency
Ġestablish ments
Ġinst it
Ġclass es
f irst
ĠL os
5 9
ĠP ri
r ont
Ġcon cept
du ced
St atus
Ġgener ally
n orm
Ġpl aced
ĠFor ce
or ial
Ġcount ries
Ġspect rum
Ġs ymbol
Ġtra vel
y e
197 4
idd en
ĠGe org
Ġaward ed
Ġexp ression
Ġsc ore
Ġfour th
U til
ĠSw ed
S ource
( {
T oken
ĠH istory
Ġeff ort
Ġfri end
l en
re me
b on
Ġf all
re ater
ill a
B ase
P er
ĠOr der
7 8
y r
Ġext ended
Ġr ule
Ġn odes
ĠA pp
aus s
ig an
; "
Ġs en
ĠW omen
Ġcons ists
ad es
ĠHen ry
ĠR ob
Ġfeature d
er ia
por ary
ric e
Ġdimens ion
Ġ ess
ĠP enn
Ġaut om
Ġpl ant
ith ub
Ġs us
D is
Ġeval u
Ġh app
i h
ĠD u
ĠH ill
ĠT er
Ġe igen
ĠP ublic
197 7
Ġmod ule
Ġg old
Ġdeterm ined
Ġes pecially
d r
Ġd ig
text rm
we ight
; </
Ġorig in
Ġwrit ing
S O
M ar
min us
197 5
ĠChampionship s
under line
S im
Ġapproxim ately
In put
Ġa ircraft
mod ule
Ġveloc ity
5 1
ell s
Not es
Ġmain tain
ug by
omet imes
Ñ ģ
^ -
ĠS k
Ġpol ice
n ect
Ġlim ited
Ġs om
Ġd ed
Ġcour t
P ar
Ex t
ĠE mp
ot ic
big g
Ġj ob
p ol
5 4
un ch
Ġcompet ition
Ġ< <
Ġ ir
n ull
F T
W hen
w ar
op en
ĠJ ust
Ġo ption
ĠR ock
Ġpro te
196 8
Ġcour se
ĠO ffic
5 6
AT E
Ġcho ice
ĠB ur
Ġhig hest
197 3
Ġad opt
Ġb ig
}^{ -
Ġw id
5 2
col umn
ann ing
ĠComm ission
M C
Ġform at
is her
Ġtra in
Ġlead ers
Ġiss ue
ĠC amp
Ġtourn ament
Ġ$\ {
Ġad m
text tt
Ġd u
ĠN ULL
d ir
ĠIs rael
ect ors
o ice
The n
Ġp aint
Ġl ittle
B S
Ġsing er
Ġmat ter
Ġbroad cast
Inst ance
le ase
ĠVirgin ia
pect ed
al ed
Ã³ n
Ġb ur
N ull
ur rent
subset eq
Ġart ist
ĠIt s
ann ed
Ġcrit ic
Ġb all
Ġstart ing
Ġover all
aramet ers
ir it
Ġun iform
8 9
ou ri
ĠD en
P art
Ġneed ed
y les
Ġform s
D ate
im age
P os
ĠĠĠĠĠĠĠĠ ĠĠĠĠĠĠ
Ġexp ress
mer cial
ĠĠĠ Ċ
Ġappe ars
cre te
Ð¾ Ð
f e
S I
ĠW eb
Ġmat ches
ist an
Ġlong er
5 3
as ks
G L
Ġchar ge
ic i
ffic ient
qu ery
Ġde ep
Ġiss ues
g ener
ĠO per
ĠI ll
Ġsc ored
Ġb asketball
Ġse lection
pro d
Ġl ayer
g ithub
ĠTe chn
ric es
ĠRes earch
requ est
Ġrem aining
Ġquest ion
m es
Im age
Ġ Â
Ġfam ilies
Ġin it
ĠItal y
ĠE v
g reg
Ġcon nection
Ġimp act
Ġbeh ind
Ġpract ice
g u
Ġpro ced
R un
197 1
Ä ĩ
ĠC ast
cl ient
in os
Ġf it
Ġsc reen
Ġ _{
l ib
ĠHam ilton
and s
Ġch arg
Ġearli er
} '
ĠMex ico
O P
Ġk ind
Ġe mer
per ties
Ġcom e
ĠTh at
ĠK h
< \
Ġs aw
Ġdesc ription
p ost
F l
ĠS aint
ew idth
c a
Ġdest roy
Ġbegin ning
ĠSt ar
Ġdec ision
P re
str ong
ĠG od
app end
Ġs af
yd ro
Ġv eh
t arget
Ġav oid
ĠAr ts
ĠAt l
Ġim m
at o
Ġredu ced
cl es
Ġcol lege
az z
Ġn ight
Ġit em
Ġst aff
O ptions
Ġder ived
F I
196 9
ĠT wo
194 5
d et
Ġt im
ĠO pen
ĠCh icago
bl ack
Eng lish
Ġread ing
Ġlik ely
Ġact ress
Ġpol ynomial
Ġc red
Ġvol ume
Ġneg ative
b ottom
ĠM o
Ġsu fficient
ĠR em
Ġder iv
Ġ\ ;
od er
H T
ĠC D
ON T
Ġex plicit
Ġ esc
ad ata
ab it
Ġfr ame
ĠB rown
ĠS un
Ġran k
B ut
Ġapp ly
Ġs ch
{ $
Ġunc ertain
}} ,
194 0
ĠĠĠĠĠĠĠĠĠĠĠĠĠĠĠĠ ĠĠĠĠĠĠĠĠĠĠĠĠĠĠĠ
ĠSc ot
Ġplay s
rick et
G ener
ĠM us
ult ure
Ġem bed
ore t
Ġoper ators
Y PE
Ġch osen
U E
f ont
ĠAss embly
S he
E m
ri z
8 6
foot note
ect s
Ġun ion
k o
Ġno ise
set minus
ĠF orm
ĠN avy
ot ion
Ġsche me
Ġpres ence
Ġc ounter
ĠAngel es
il er
Ġsc ient
E X
ir l
Ġpre m
Ġ- >
Ġw ide
ĠP an
sk i
l am
ĠD is
ĠK ar
Ġrem ain
ĠAl though
ĠReg ister
aram s
Ġestim ated
vent ion
iqu es
Ġh ttp
Ġcontinu ous
Ġd ark
u racy
9 4
Ġnot ed
Ġsh ape
Ġwrit ers
r ative
Ġin equ
i en
as hed
ĠComm ittee
in y
L T
r l
at riate
R A
Ġin cor
Ġstre ng
Ġnecess ary
ir al
anc ial
. $
Ġfig ure
The ta
ian o
k er
ĠK n
s g
Ġ$ |
ym pt
Å į
eg er
196 7
oy s
Ġ( -
Ġc opy
Ġmem ory
Ġprot ected
C areer
Ġcap ital
= {
Ġmov ement
3 00
F urther
Ġlevel s
ĠPar liament
res h
i ro
ĠF re
Ġdec ided
Ġin side
Ġpass ed
att ice
st ack
Ġs ex
Ġw ave
19 30
and roid
" ).
Ġfl ux
Ġt ax
Ġc op
ol a
Ġl ack
Ġ ]
ĠProv ince
and a
ev e
ĠF estival
ian a
Ġhe nce
Ġf ilter
yl van
Ġconfig uration
ĠS oviet
C P
Ġdiv ision
s ort
Ġ ens
Ġfail ed
Ġinter pret
e es
Ġon line
Ġact or
Equ al
j ection
P erson
Ġincre ased
Ġneigh bor
Ġpre c
Ġan c
ĠCong ress
so ft
et te
ĠT ime
p an
" ),
st ra
b in
im a
Ġbound ed
st ract
Ġf if
I V
Ġvoc als
r ich
lin ewidth
Ġwho le
it ors
Ġdatas et
or a
Ġlead er
196 4
A m
s ol
Ġmin or
ĠFlor ida
res ents
ĠM a
arg s
ĠM il
Ġv ac
w rite
in em
Ġvert ex
ĠBra zil
opl us
p o
ĠH on
9 3
Ġrec over
i pl
ĠG overnment
R ep
Ġf ramework
Ġtradition al
ann er
Ġh yp
$ _
Ġliter ature
v a
Ġp en
Ġconstruct ed
unc hed
ul ed
Ġg auge
ĠHistor ic
ĠA wards
Ġbo olean
Ġinteg ral
Ġh it
Ġpl atform
F unction
add ing
Hand ler
Ġgra v
ĠR eturn
Ġev idence
w edge
sub figure
ud d
ut ed
ĠW ales
the n
}} _{
ĠF in
Bl ock
M M
Ġmap s
re al
Ġro ute
A b
O ther
av en
Ġexp ansion
Ġs yn
Ġgo ing
un ct
^{ -\
d ep
Ġsm ooth
Ġrepl ace
Ġbl ue
ĠRuss ia
Ġcaus ed
ĠH el
an ks
Ġarg ument
ĠB ase
eb ug
Ġobserv ations
Ġr ules
Ġ" ""
Ġn orm
Ġ( $\
Ġ+ =
Ġg rand
Ġform ation
r at
9 2
t rack
ylvan ia
Cont ent
P oint
k et
Ġsol id
Ġent ry
Ġh yper
\ }
Ġman ager
Ġnetwork s
Ġrail way
Ġse lect
Ġf ace
Ã §
pt r
Ġext ends
pro cess
val ues
uf act
N et
p arent
8 4
Film s
Ġspec ified
in ner
Ġc ensus
Ġper cent
Ġsim ply
Att ribute
ur t
Ġa uth
ial og
c s
St art
Ġmean ing
Ġse asons
ob ile
196 5
=" ../
Ġinter action
Ġext ension
ĠU nder
all ery
Ġth ought
Ġ ~
7 2
C L
ot al
rel ated
Ġb ranch
Ġp urch
Ġindust ry
ren ce
7 6
Ġperson al
ic ated
F e
in f
Ġs quare
ph p
Ġcur ve
D uring
he ast
ĠAn n
re a
Ġcomp act
ĠCarol ina
ars er
ĠO h
Ġ ;
ind ing
Ġcontin ue
al o
ĠH ow
Ġche m
) |
ec ause
ĠL u
C A
j a
P R
19 20
Ġexist ing
Ġa im
not her
Ġmot ion
Ġcult ure
ell ar
Ġknow ledge
ug in
Ġ\ (
S ec
S w
Ġmin imum
Ġn ature
Ġcon vert
at ur
P op
al i
def inition
ĠOb ject
p id
Ġc ategory
ĠL ine
Ġorgan ization
Ġst ra
196 6
B ox
ill er
Ġsymmet ry
Ġb ank
on ly
p ress
Ġm ur
ĠM ain
F actory
p resent
Ġ$ [
re es
Ġsc ience
Ġe ver
ĠD ev
Ġs amples
g raph
m ission
ĠSp ace
w a
Ġdescrib e
Res ource
Ġtrad e
ĠK e
_{ (
it able
ĠT our
ĠS il
Ġres ource
ig ation
Ġmon th
p at
Ġant i
erv ation
) </
W indow
ĠG ar
Ġch ampionship
Ġprof ile
os ing
Ġbro ught
Ġh ot
p y
ĠV er
Ġro ot
Ġide a
Ġwin ning
ĠEmp ire
Ġf ast
os h
ĠS eries
Ġman ufact
ĠI rish
ĠII I
v ant
Ġup date
Ġprodu cer
Ġs ynt
Ġr iver
fl ict
yp es
M et
Ġre pe
ad ium
Ġcont aining
Ġs ense
il arly
Ġp ark
but ton
Ġand roid
B uffer
ĠL ie
ĠH aw
Ġed itor
act er
ers ey
ent al
ate gor
n ormal
ĠO ver
Ġatt ended
is hes
m ann
Ġb ring
Ġ er
Ġprodu ce
Ġed ition
Ġb re
Ġf ood
Ġsoft ware
Ġequ ip
ell ed
ĠO l
out e
ĠF e
lim its
Ġmechan ism
Ġdiscuss ed
v ey
Com ponent
he m
ĠSec ret
Ġf ully
ig ger
Ġf ill
Ġcl ient
4 00
Ġident ity
Ġc are
ĠO ld
N O
Ġso on
Ġparticular ly
9 1
Ġex amples
Ġlead s
_ *
Ġsur round
Ġvari ety
ĠMart in
n umber
ĠL ong
Ġstud io
) /
Ġthe rm
Ġn orthern
ĠF urther
W ork
Pro v
Ġp ack
g n
Ġform ula
< !--
ern el
Ġhe avy
l ock
ib li
Ġp anel
Ġdefe ated
ir ing
ul s
ĠP ac
N e
Ġs ometimes
Ġs outhern
Ġexper iments
Ġfor ward
y an
w an
Ġf arm
ip al
ex ample
om y
d at
ed s
ans as
Ġth rows
pro perty
Ġar bit
s ylvania
in ite
Ġy et
8 2
evelop ment
C ell
Ġsub set
sh ift
ĠN orthern
Ġs low
ĠF ort
Ġsh ift
amp ion
p ush
_ +
Ġp ert
ĠJose ph
8 3
Ġman agement
Ġdiag ram
en ge
Ġqu ality
J ohn
g rad
$ (
ock et
k l
ĠYou ng
Ġinitial ly
Ġco ast
Ġ{ @
as ion
* {
ro t
oll ary
anc y
n um
Ġm iddle
Ġrep resents
ĠI N
ĠM ur
Ġ ...
A ction
T P
Result s
Ġcont rast
Ġm usical
Ġapproxim ation
Ġappear ance
en ing
ĠS ir
Ġarchitect ure
b reak
ie ce
Ġpl ane
ĠF ield
ĠL iber
ĠCol umb
ĠM ost
N umber
Ġqu ick
Def ault
= (
ĠB as
Ġelect ric
D B
ĠM os
Ġ$ -
ĠM ax
E l
g ra
dag ger
om ic
Ġsl ight
Ġfinal ly
Ġm argin
rop y
ĠW ood
or ation
Ġconc ern
erv ed
* /
ĠB oard
Ġac adem
Ġj oint
D F
se ud
ee k
Ġsh ot
in ant
em ic
at i
ĠB ig
Ġend ed
Ġgrow th
Ġcandid ate
un ior
Ġopt imal
\ "
Ġint ers
Ġsepar ate
), \
Ġv an
an ced
it ter
Ġcl uster
C S
Ġ( (
Ġpr ison
Ġpress ure
j av
A ut
H el
auss ian
Ġgen us
align ed
Ġb rief
D esc
ul ate
N av
Ġk ing
ĠFound ation
Ġcon tact
Ġs n
Ġagre ement
Equ als
ĠG r
Ġatt ention
Ġinflu ence
hes is
sel ves
Ġpartic les
196 2
a ught
Ġis land
Ġpo et
end if
D O
Ġmajor ity
Ġpartic le
V ersion
L S
Ġg rant
head er
Ġcont ribution
ĠC am
pt on
he mat
Ġvert ices
St yle
Ġremov ed
196 3
d eg
ĠSp ain
Ġcoll abor
ĠPro position
Ġsing les
7 4
ol es
Tr ue
Ġreturn s
194 4
if act
ĠH ere
ric s
ef ul
ĠEng ine
ig a
lo od
ev en
Ġben ef
Ġem ission
Ġse cret
H E
Ġ ult
d l
Ġsp ent
Y ear
Ġdeterm ine
Ġcon sequ
Ġrequ ires
Ġc it
ĠW al
T O
iv ial
Ġla unched
Ġdist inct
Ġcompar ison
B U
8 1
ĠJ o
Ġcon sum
Ġmon ey
Ġcent re
ĠU k
ov a
Ġus ers
ĠR h
k ins
ak a
Ġsc atter
Ġproduct s
Ġce le
Ġman if
ĠL ove
col on
Ġart icle
ĠĠĠĠĠĠĠĠ Ċ
con s
ĠG reek
Ġqu ery
at ial
th ing
ap ers
Ġgo als
Ġnew sp
Ġ| \
for ce
ult ural
ĠA dd
Ġde b
ĠO ur
ref ix
ĠC ross
7 9
Ġw oman
id ers
) _{
R em
Ġse cur
)\ ,
ĠN one
ĠPenn sylvania
Ġinter face
Ġter rit
Ġcol lect
Ġun known
Ġident ified
ĠTe am
Ġed ges
Ġc atch
M embers
ĠB attle
Ġsem i
Ġw ood
ad ow
ef t
i ography
Ġwh om
ĠT imes
m ond
j son
j i
ĠG al
ad y
ĠP re
M en
ER T
ar ks
: \
Ġrefer red
Ġpol ar
Ġcom ment
Ġl at
fin ished
Ġrad ius
7 3
Ġopen ing
h ouse
Ġph il
et ime
Ġcom mercial
Ġc ore
ĠS y
Ġdynam ics
ĠA rab
Ġf a
RE F
Ġmention ed
ven ue
Ġc arried
Ġc ause
Ġmost ly
l ast
od ed
Ġc os
Ġacc uracy
reed om
} );
Ġnew s
Ġlin k
Ġg ot
Ġap plications
Ġh ours
ĠR o
al g
ĠJ ac
ĠA tt
ar ia
Ġdist ributed
G B
Ġspect ral
I F
Ġsh all
Ġs plit
k in
Ġre li
f ree
f ind
Ġmeasure d
d escription
Ġst ore
Ġpert urb
Ġexist ence
Ġdram a
N ow
' _
Ġactiv ities
Ġown ed
Ġmag azine
Ġstud ent
Ġgalax ies
Ġser ver
ate gy
Ġhigh ly
$ {
ĠĠĠĠĠĠĠĠ ĠĠĠĠĊ
Ġcomp ute
ĠVal ley
}} (\
Ġpre vent
ĠAl so
ob j
M in
Ġnumer ical
x ml
ĠT w
ĠT im
ĠE nd
Ġsatisf ies
t ings
m t
ĠL in
b uf
196 1
Ġfootball er
Ġext ra
Ġerr ors
ib ly
in et
ĠH ot
ĠL ife
ple te
R el
ĠB ob
ĠH ence
ĠCh ief
i y
LA SS
ent h
Ġmain ly
Ġm ission
s pect
Ġb al
U s
ĠD om
D ec
Ch ild
Ġcomm ission
ĠL ee
Ġexperiment al
et ts
: #
Ġch ief
ĠI ran
p ack
u ages
inal s
Ġeas ily
M on
Ġ }\
Ġm aster
Ġclass ification
aw a
R eturn
Ġsp aces
Ġre b
in ity
Ġprocess es
Ġreg ister
Ġup d
Ġre ach
Ġprogram s
ĠE ducation
Ġneed s
un it
Ġf ix
) }(
in ations
Ġbu ff
enn is
[ "
b i
Ġinter view
Ġm icro
ĠT em
us band
ic ients
el er
Ġsim pl
A ust
ma il
b an
ĠI D
Ġus eful
ist ers
Ġsum mer
ent ry
b ury
Ar g
S D
194 2
Ġse c
rib e
Ġb attle
Ġent ered
st atus
m as
air man
Ġcoupl ing
Ġcom es
ter m
ri p
7 1
Ġmed ical
a fter
ell i
if ically
R ow
d im
195 6
Ġd ual
res hold
ĠP ost
arri age
ay a
z ero
Ġtyp ically
ĠB ank
F O
ĠS ol
ino is
lection s
ĠNew s
u ge
Ġsecur ity
Ġcomb ined
ic ks
st ein
Ġar rang
Ġch ain
ĠC amb
ĠPro fess
ĠG en
ĠBel g
Ġact ivity
Ġt ensor
Ġin sp
sk y
195 8
//////// ////////
N ext
T op
Ġarm y
1 000
or ter
roll ed
Ġcho ose
Ġb ul
D escription
Ġbas ic
= -
Ġres olution
ĠS ocial
Ġl ove
Ġc ard
Ġdet ection
d x
Ġleg al
out put
epend ence
Ġl attice
Ġdr um
_{ {\
ĠSt ep
ĠB ul
Ġact ually
Ġcorrespond s
Ġother wise
Ġconstraint s
Ġm ixed
L abel
for all
Ġmin utes
ĠE r
Ġincor por
Ġconn ect
L ink
ĠT ype
Ġres ol
Ġcon cent
Ġcount y
' \
Ġold er
n am
W rit
ĠF C
T em
ĠC ivil
Ġoffic er
Ġcap acity
c f
il ing
Ġdev ice
g g
Ġmoment um
Ġtechn ology
Ġnumer ous
P age
S che
stit ution
Ġp ick
{ {
194 8
ĠL ibrary
Ġcl ust
195 9
M ax
Ġimmedi ately
ĠHe alth
c ases
Ġro om
Ġposition s
Ġb ottom
S A
Ġrecord s
ĠUn ivers
h ar
Comm and
ang er
est ed
ost on
Ġfact ors
ĠC E
rodu ction
T rack
Ġm ut
Ġl ived
ach us
ĠM em
ain er
il a
ĠM en
L P
ĠS outhern
C ase
Ġelection s
or al
ĠN ow
Ġn ative
Ġcompos ed
bt n
per p
text sc
Ġrecent ly
Ġinequ ality
Ġc orn
sub subsection
il ation
L oad
Ġbecom ing
pro ject
ĠJ im
W eb
ĠO x
ĠBrit ain
se lect
li e
ur i
Ġet c
or ig
Ġg reater
cont in
ĠL i
P O
ĠS ong
r or
v ol
193 9
Ġg reen
l ad
Ġm ole
Ġproced ure
e ch
Ġv irtual
Ġpl ot
P ort
_{ -
Ġfore st
a ver
ĠA z
ĠMore over
ran ts
im g
F ilter
Ġaut o
ĠMich igan
Ġsen ior
ĠDemocr atic
ĠA ut
ic ate
Ġb us
i Äĩ
Ġ url
sc he
Ġin ner
Ġform al
so le
,\ ,
er ry
ĠCar l
Off set
Ġte acher
Ġstat ement
Ġthem selves
f ilter
pr ivate
Ġexper ience
Ġsurv ey
C ar
T ask
S ports
ĠAs ian
Ġon es
194 3
ĠF ri
Ġsim ulations
Ġch art
ef ined
Ġang le
t ag
as i
m eta
Ġp refer
form at
M B
d es
c r
_ .
ĠPol and
ĠSe e
195 7
ĠC ro
D ist
ĠD utch
Ġdec ay
ang ed
r ical
pon ents
F ONT
Ġnear ly
achus etts
Ġext ract
C reate
Ġs quad
Ġtreat ment
T ra
Ġconsist ent
AB LE
ĠR am
el se
Ġcell s
Å ¡
) ^{\
Ġf raction
ad or
ĠS ar
H owever
ann els
ĠR el
ĠOh io
ĠJ ud
ĠP ak
ĠD et
}$ -
Ġvis ual
Ġstra ight
row ser
Ġassum ption
Ġn one
Ġsignificant ly
s en
ĠRad io
ĠPac ific
Ġb att
s rc
ad er
Ġmeasure ments
ĠT op
Con st
Ġw ind
vi ation
Ġtechn iques
194 1
Ġdis e
burg h
ĠE ach
Ġmin im
c d
Ġag ent
Ġoper ated
Ġle arn
st o
Ġbe g
ĠB uild
ĠP eople
Ġsh are
Ġh um
// /
s ur
wh ite
Ġcont ributions
en ant
Ġ+ \
Form at
E q
Ġpol y
Ġst eps
Ġc am
( [
Ġinteg er
Ġcalcul ated
ific ations
ĠDirect or
Ġex am
Ġscal ar
ĠJ ersey
ry pt
Out put
Ġam plit
194 6
Ġeconom ic
S ing
ab ilities
Che ck
ic ity
che n
Ġdep ends
ol ute
Ġstr ategy
Ġvict ory
contain er
( &
n eg
ĠP rem
Ġassum ed
if fer
N ational
Ġth reat
ĠN etwork
w er
Ġfin ancial
Ġf un
u er
t ree
ĠEd ward
Ġact ual
A ccording
Ġcomput er
ĠScot land
Ġfe ed
Ġindividual s
ers e
Ġse a
Ġrel atively
Ġth ink
Ġclaim ed
Ġh usband
ĠRep resent
" ]
Ġdes cent
Ġde com
st one
Ġpair s
e ks
ound s
195 5
Ġgener ate
Ġqu arter
ir med
at ers
ĠB ow
f ect
Ġex ception
r ons
Ġin n
flo at
Ġs ampl
Ġann ual
B rit
d ed
ar ant
Ġpolitic ians
Ġcommun ities
Ġb ass
Ġv s
Ġr ing
Ġmach ine
ĠT ro
Ġgener ation
ĠD ata
con f
Ġfor ced
const ruct
Ġsit uation
Ġcar ry
Ġcoeff icients
195 2
ard en
ĠIn c
Ġalgorithm s
}^ *
Ġpo or
el a
L ength
Ġarg uments
ĠEar th
Ġrem ove
Ġal t
b as
ĠE X
A rt
ce an
Ġp sy
Ġe lev
lin es
ĠIll inois
sh ow
Ġst rict
Ġqu e
Ġse at
Ġact ors
cl ose
Ġshow ed
ĠJ ones
Ġcomplet ely
ess ages
Ġ ice
Ġess ential
Ġpro gress
er em
ail y
ĠAs ia
Ġb it
un finished
Ġd oc
Ġcol on
Ġdis k
ĠL og
ĠSh ow
Ġcall back
Ġmov ing
ER R
Ġship s
ĠL ord
ĠM ajor
respon se
A c
Ġden otes
ri um
M ore
iz ont
Ġ util
Ġsubsequ ently
prot otype
Ġpro min
Ġst able
Ġorder ed
IN T
Ġto day
Ġf iles
Ġle ave
ĠQue en
H ere
Ġqu ad
Ġseg ment
ĠM ah
ail ed
ĠK ent
Ġst ay
ĠR os
eth ing
h om
ris on
c at
ĠCon ference
j e
194 7
Ġw estern
Ġf il
ĠPhil ipp
ut y
st d
ad el
Ġauth ors
ot ing
Ġsp read
ir ls
al y
ult y
Ġmur der
se cond
Ġsim ulation
Ġprov ed
Ġra ised
M e
G u
it ation
og ene
ay lor
gy pt
l ers
Ġchall eng
Ġincre ases
Ġt un
on ia
Ġt or
Ġrecord ing
S l
m iss
Ġcomb ination
Ġtrac ks
Ġrespons ible
i able
ĠRail way
ian ts
ĠMass achusetts
ĠThe ir
S R
ĠR un
Ġn ine
Ġachiev ed
Ġl if
)\ \
\ '
Ġr ates
195 4
Ġredu ce
Ġcorre lation
Ġdepart ment
Ġdist ributions
Ġ Å
s he
Ġrelig ious
ell ig
I O
Ġprop ag
ĠOff ice
ĠL ang
' ).
ĠCent re
Ġv on
P P
ĠJ ournal
et ween
ĠPort ug
c ript
Ġret ired
Ġhistor ical
L a
Ġmeet ing
ĠSp ring
em porary
p es
> >
ant ry
Ġappro p
A F
up date
il ib
Ġstat istics
Ġf oot
ĠB ern
Ã ±
Ġle aving
Ġa ctions
Ġd ou
d y
Ġdep ict
in ate
Ġanal y
Ġl ies
Ġem pty
Ġserv ing
195 3
ĠB oth
ĠG overnor
Ġar rest
Ġ ign
ĠJ an
ow ers
Ġmod es
l as
ind er
Ġun iversity
ing er
) ^{-
wh ile
f aces
Ġsit es
Ġsett lement
D es
194 9
Ġass igned
a uthor
sc ope
IN E
Ġcomput ed
Ġserv e
) }{\
ĠPl aces
Ġappro aches
a a
og rap
Ġtra ined
Ġslight ly
Ġp il
p ers
ĠC reek
Ġcy cl
Ġclub s
end ix
c ks
q l
M D
ĠK ong
Ġ ensure
Ġfl at
Ġin come
atal og
s i
Ġc ru
t ure
ĠGeorg ia
mat rix
Ġoff set
Ġocc urs
Å Ĥ
U I
Ġ eth
v est
urb an
h r
ĠM u
Ġcirc le
Ġres ources
C ON
Ġw alk
ĉ ĠĠĠ
$ $\
ĠH ung
Ġg rid
Ġcom edy
y b
mult i
Ġf ont
cl os
ĠFrancis co
Ġab ility
ĠH a
ĠD ec
H z
\! \!
P T
Ġrele vant
Ġwe eks
Ġex ternal
p a
param s
ĠE qu
) {\
ens ions
s ystem
C ache
ap ed
N R
serv ice
ol t
Ġb inary
ĠSt e
ph y
Ġexp ressed
Ġimplement ation
Ġsc ript
Ġimpro ve
Ġf ederal
S L
Ġ$ {
ĠC re
ĠP y
$ ).
Ġwe b
nav bar
Ġfore ign
ĠPr ince
ĠThe atre
r ong
if ies
d el
Ġparent s
ĠPro ject
195 1
iction ary
f it
ĠWilliam s
ab eth
ĠIn st
Ġsh oot
Un ited
Ġsit u
writ er
v ector
Ġdes pite
Brit ish
{ $\
Ä ±
Ġh ockey
s ign
pro b
Ġintrodu ce
ĠO f
à ¤
ist ical
Ġsu c
ament al
~ $\
Ġpar allel
igh ter
Ġ! ==
ĠCo ast
ex pected
Ġs ister
UR L
men u
re ct
port ed
Ġl ibrary
ĠBl ue
Ġ[ ]
bul let
ic ens
Ġacqu ired
ĠScott ish
w ait
o ir
Ġre comm
Ġexact ly
ent y
Ġas pect
Ġanal og
art ers
rem ove
R L
S ON
ĠL y
Cont roller
ran ce
Ġthe oret
s em
pro v
Ġmat rices
c ard
D on
A V
ĠPro gram
. /
\ _
15 0
ĠJohn son
Ġor ient
Ġor b
Ġin variant
ĠB oston
ĠJew ish
Ġcover ed
ĠL uc
d esc
Ġpur pose
Ġcont ained
let s
el i
ã ģ
Ġcur ves
Ġf le
.~ (\
Ġsc ene
ĉĉĉĉ ĉĉĉĉ
on ym
Ġarbit rary
Ġfl ag
op ed
ici ency
V is
b ass
Val id
ion e
ĠC r
ĠE astern
Ġsuc ceed
ĠOx ford
M ode
ĠPol ish
Ġsw itch
c ar
Ġh ydro
por ation
}} ^
now led
Ġit ems
Ġfe at
P RO
P o
Fig ure
ann ot
Ġh arm
R ev
Ġsp atial
Ġadopt ed
os oph
E L
ĠB al
Ġv ary
inst ance
at ically
att r
s ime
ĠHe ad
)$ -
} )$.
pos es
D em
Ġass ign
pro to
sime q
a ug
pp ed
Ġbeliev ed
old er
rem ark
l ap
izont al
Ġv ote
P arameter
ĠSt an
Ġdiv ided
ag raph
ruct ure
Ġproject s
oc cer
Ġcompet ed
act or
Ġn am
S M
ĠG ood
Ġmunicip ality
Ġlo op
Ġ â
Ġdep th
Ġth ick
Ġadv ant
ĠS and
ĠB re
Ġoffic ers
Ġb ad
pm atrix
erv ices
The orem
E v
Ġperson nel
p op
tern et
L ocal
Ġb rand
y er
Ð »
d ependent
Ġpart ial
ak ers
it age
Ġ= \
ĠM r
Ġhel ped
Ġm useum
C R
ĉĉ Ċ
ĠL ater
ĠP op
im er
Ġprofess or
ĠB ang
Ġon to
Ġc ities
ell er
Ġbe y
Ġdiscover ed
193 6
Ġb ridge
ĠColumb ia
Ġturn ed
ric ts
Ġcon flict
ĠCor ps
th on
Ġconduct ed
ĠH ig
ĠC ard
Ġdist ingu
Ġstreng th
Ġestim ates
on to
D isc
Ġel im
ĠLat in
Ġeas y
Ġc ricket
\| _{
Ġsymmet ric
Ġfam ous
Ġinterest ing
ĠM id
ch ron
b old
Ġcal c
Ġlang uages
Ġs ession
C ons
w s
Ġse ctions
x x
Ġnear by
he nt
Ġre tain
Ġgiv ing
eder ation
O L
b ro
f ort
L ast
h u
Ġsh ared
et ch
N D
ple x
form s
ul er
off set
g r
Ġc ategor
ĠJ ean
$ ^{-
O ur
Ġanal yt
cl aim
Ġan sw
ĠEn ter
Ġg overn
ograph ic
und red
e z
ĠJ r
ul pt
ĠG ame
ĉ Ġ
ra wn
ã ĥ
y es
t ri
Ġ&= &
~~ ~~
ry st
un a
oc ated
p g
Ġcit iz
Th us
19 18
Ġbey ond
ch or
ul f
l aw
Ġsing ular
am m
Ġmet al
Ġcy cle
Ġsc hed
ĠSen ate
ĠH T
Ġpro ceed
ze ch
icro soft
Ġmeas ures
Ġr isk
Ġorgan izations
Ġmed ian
' .
bl ue
ĠH or
Ġ$ $
h or
th ur
B o
cher s
Ġindic ates
193 8
Ġt ag
ĠL ab
Ġhand le
ĠBer lin
ĠW ay
ran sp
al ysis
m b
R ight
Ġrec all
Ã¡ n
ĠCh ild
Ġlet ter
or ough
ĠĠĠĠĠĠĠĠĠĠĠĠĠĠĠĠ ĠĠĠĠĠĠĠĠĠĠĠĠĠĠĠĠĠĠĠ
Ġoffer ed
Ġp i
eng er
ĠH REF
Add ress
Ġpart ies
asc ript
Ġax is
it ory
map sto
Ġcomp are
ĠV an
a is
ĠS pe
Ġjo in
Ð º
ĠA v
Ġatt ract
pos ite
ĠR ay
ĠSpec ial
Ġeff icient
ex ec
Ġs qu
Ġp an
z o
ĠCol or
Ġt asks
ĠIn f
Ġex change
te en
Ġcoordin ates
ĠM iddle
Ġreg ional
Ġabs or
Ġ{ }
| }
Ġpre p
-- -
b ot
ac c
ĠSt ation
List ener
Ġreg ime
u int
Col umn
s ite
ĠF ar
n i
ib r
Ġvers ions
Se ction
' }
C urrent
Ġinter actions
ĠM any
as ure
ĠSe a
ĠPl ay
m c
sh ould
g a
V ER
S ch
p ool
ĠG aussian
Ġra pid
Ġe arned
Ġde ad
T ypes
T YPE
Ġappear ances
M at
Ġimpro v
ĠE gypt
) _
ig er
h olds
Ġas ked
ĠBro ad
ĠIs lam
Ġinter val
Wh ile
t ik
AR T
Ġtyp ical
" |
Ã £
comm on
Ġn av
C ast
ĠM ov
W orld
Ġmov ie
Ġsc ope
Ġyield s
Ser ver
Ġaltern ative
Cont ainer
ab il
Ġhyp ot
Ġpart ition
ĠB u
D ev
Ġtrans formation
Ġstrong ly
ĠW is
Ġmeasure ment
ĠH ong
Ġa wards
ĠT re
Ġspect ra
st ep
Ġquick ly
yd ney
Ġconver gence
ĠSecret ary
su ccess
al ities
Ġqu ite
ĠS T
Ġman aged
Ġfor t
ĠMod el
}} ^{
ĠS u
1 20
Ġprov iding
ud es
return s
Ġrece ive
Ġs ociety
ĠAlex ander
Ġmark ed
Ġy outh
Ġdepend ence
z y
Ġp ure
Ġeas tern
Ġa st
Ġpl ans
ynam ic
Ġepis odes
++ )
Ġcommon ly
emb le
Ġdem and
ĠD ar
Ġtest s
ĠC y
R ed
ĠAr gent
Ġ ut
olog ist
ut enant
I A
ur ies
Ġsup p
pro position
ĠS i
Ġw all
Ġbase ball
Ġprim arily
ĠAr ray
Ġreve aled
193 7
as y
ĠL icense
che ster
Back ground
f ound
Ġobserv e
Prov ider
NA ME
ĠO p
omorph ic
Ġcele br
Ġle aves
Ġl en
ĠD evelopment
< ?
ect ive
ĠT am
Ġsus p
Ġf re
Ġd raft
Ġv ectors
The se
Ġconc ert
E M
ĠP oint
c ut
Ġwid ely
**************** ****************
Ġto uch
G eneral
ĠE st
Ent ry
per or
as er
ĠVictor ia
But ton
M usic
ĠT ri
Ġh ar
od ot
Ġm is
ĠComm on
ĠN ight
Ã ¸
ĠN S
Ġtransfer red
ott ed
Ġm arriage
ĠKore a
Ġprom oted
f s
Ġexp atriate
m em
ĠReg ion
Ġbuff er
U rl
ĠC LASS
Ġpr iv
Ġc at
ic ine
Aust ral
or i
V ID
itz er
Ġfif th
C al
ĠIs lands
Ġhous es
ĠA D
im ation
est s
ograp her
$ ;
ĠK ey
ript or
M ult
k it
flo or
il ly
Ġs ort
Ġtro ops
Ä į
Ġref lect
Ġpro test
P ol
ĠL ittle
v in
Ġst ellar
ĠĠĠĠĠĠĠĠĠĠĠĠĠĠĠĠ ĠĠĠĠĠ
Ġprob ably
Ġwin ner
Ġindic ate
Ġw av
W ill
Ġcre ation
Ġorgan ized
sc ill
ro vers
anc ing
ĠU r
Ġwork ers
Ġf air
ĠB ir
Config uration
W idth
ram es
Ġtest ing
V ar
Ġm erg
par se
V D
Ġm orph
enn es
Ġdiffer ences
Ġbl ocks
ĠOlymp ic
ĠH ospital
Ġas ympt
Ass ociation
ron ze
ĠWil son
ru ck
ĠEl iz
ic ed
Ġth r
Ġsuggest ed
Un iversity
Q L
d est
ĠC orn
ĠJ es
Ġdiscuss ion
y o
Ġsecond ary
ĠAnd rew
result s
' (
ĠM ot
Ġcom ing
olic y
ĠSt and
ro om
it o
Ġal leg
p icture
Ġprogram ming
Ġown er
b re
Ġh ospital
ro ot
tik z
ĠF our
Ġsay ing
ĠW all
am ber
Person al
Ġdifferent ial
Ġassoci ation
ĠB ell
ip age
Ġact ing
ĠA PI
w eg
ĠK en
Ġto ld
M R
ĠAss ert
mod els
Ġmod ified
Ġwant ed
Ġhe art
s or
ĠOffic ial
P A
Ex ec
du le
) },
op her
ran k
ĠB C
Ġfri ends
Ġdeta iled
i ated
A cc
Ġop port
ĠReg iment
Ġopt ical
193 5
S o
Ġdr ug
Ġun s
h igh
hen omen
ĠF ollowing
av ed
ĠJack son
} %
G C
let on
Ġent er
Ġg un
min ipage
( _
l ayout
Ġst ories
ĠBro ok
im ages
\ {\
d epend
Ġ< !--
Ġrepresent ing
pon ential
Ġconstit u
new command
19 19
Ġ Î
C K
H O
Ġgo es
ilib rium
Ġfav or
P at
ĠPol ice
em et
og g
ct u
C or
T ag
Ġcommun ication
Y ou
m ode
Ġiss ued
Ġident ify
Ġneighbor hood
Ġfe el
not es
T arget
St at
L ayout
Ġcult ural
Ġu int
Up date
ph ia
Ġint ended
P olit
ĠP ubl
u ous
Ġconf irmed
z er
are t
Ġmaterial s
Ġf ellow
Ġprov ince
ĠC at
Ġch annels
: "
Ġcapt ured
Ġp ix
i ate
^{ +
ĠP en
ĠE lect
cont rol
Ġnot ation
om er
z h
T C
Ġp ra
W rite
ĠB BC
Ġres ist
T I
al so
) "
Pro cess
medi ate
b al
ĠW ild
ĠRepublic an
Ġnuc lear
t wo
L ocation
Ġdeg rees
Ġp p
Ġcompos ition
uck y
s uch
Ġdel ay
p ir
con n
Ġaccept ed
F rame
Ġded icated
Ġc ert
Ġarg s
nt ario
ether lands
st able
ag ers
tem plate
Ġinst r
Ġc ouncil
Ġachiev e
ut ing
ĠG ener
ĠR aj
Ġallow ing
ĠW ater
to ken
ĠC all
jav ascript
Ġh ol
rom e
B O
ĠB a
Ġattack s
ĠâĢ ĺ
19 14
$ ~
ĠB oy
Ġatt ribute
Ġo scill
ig ration
Ġs al
ĠV ill
b ool
Un it
Ġalong side
Ġ{ };
ĠL ight
' ),
al ion
rop ical
ĠR ead
Ġv oice
ak i
ĠB i
) +\
ĠTechn ology
Ġl ives
arri er
ins on
adel phia
Ġpro port
N on
Ġacc ur
Ġs ays
Ġo il
m atch
Ġf irm
ibli ography
Ġl ayers
ĠB and
Ġext rem
ash ion
form ed
G l
Ġgradu ated
ĠM ap
Ġbehav i
Ġexec utive
ĠPri ze
ĠS ydney
} &
ĠMin istry
M O
ar c
an th
ad ian
P L
Ġnewsp aper
ĠH ome
Ġsatisf y
Ġth reshold
ĠB on
ĠB att
d irect
Ġoper ating
on ical
} }$,
% )
ta ch
Ġarr ived
n ic
D irect
cal e
Ġro ugh
() ->
L eft
Ġprinc ipal
Ġfeat uring
Ġmagn itude
L ong
ac ent
b ec
Ġcon sec
ĠV iet
ĠT aylor
Ġinstr ument
Ġm ill
Ã£ o
Ġtechn ique
Ġoptim ization
f rame
p arameter
Ġoccur red
Ġp seud
} }$.
Ġg ap
erv ative
Or der
Ġassist ant
ĠH and
h y
Ġide al
Ġcos m
\ )
s ch
w indow
Ġredu ction
refer ence
19 29
ĠA ff
ĠKore an
Ġconv ex
Ġse ctor
ĠF ile
Ġra re
Ġshow ing
ra ine
ak h
Ġobserv ation
M y
`` `
t an
ĠM ethod
Ġl ot
19 28
Ġsett ings
f a
en ess
Util s
Ġmin imal
ĠS ports
am i
} )$,
ĠL im
ĠS und
requ ire
193 3
CO L
Ġown ers
Ġlist ing
ma z
Ġsold iers
Ġapprop riate
ĠBr ig
Inter face
Ġeffort s
Ġgu arant
est abl
ĠDan iel
Ġpromin ent
Ġtra ffic
Ġtri al
Ġf rag
olog ies
s pe
ĠHamilton ian
d ocument
Ġn arrow
ct x
Ġsil ver
20 23
193 4
Ġdis s
Ġw ays
Ġtem plate
ĠS om
ĠK enn
w atch
ĠP ower
ĠR od
ĠÂ £
def ined
Ġfail ure
t ask
19 17
Call back
ĠL ag
f ri
Ġn et
ĠAir port
ĠComm and
Ġact s
) -\
se ct
Ġpred iction
Ġdig ital
) }_{
ĠE p
Ġsc ulpt
Ġvert ical
ĠL o
v as
Ġgraph s
ĠF inally
m itted
Ġloc ations
19 10
S outh
p ower
Ã© e
Sc ript
Ġnuc le
Ġhon or
Ġart icles
| _{
ĠReturn s
Ġk ernel
ĠSc iences
bour ne
Ġgrad ient
orn ing
Ġwin ners
ĠA k
ap es
con sin
D at
ĠR og
ject ed
u v
ĠTh ree
ĠL es
Ġsom ething
D i
app ed
Ġres idents
Ġs pl
omet ry
ym p
d rop
Ġg ain
Ġbound s
% ;
Ġres on
ph as
S um
ĠJ eff
f n
rap per
c ular
Ġb omb
CO DE
Ġob j
com ing
Ġdep ending
Q ue
193 2
P U
el d
ĠJust ice
Ġcre w
Ġcandid ates
ĠIn itial
che stra
ĠF I
eta ils
Ġflo at
od ies
Ġle tt
cc cc
Ġs end
m ake
ĠSup reme
ĠFurther more
N E
B undle
ĠQue ens
Ġexpand ed
Ġr ise
Ġhe at
ĠPl an
Ġanc ient
Ġth ings
er c
O p
A g
Cont rol
ĠO t
19 00
Ġs port
s d
ã Ĥ
R ange
s v
Ġbe am
Se cond
ĠA nother
Ġag reed
se x
Ġord ers
Ġa thlet
L em
Ġp urs
M ark
ĠCor poration
Ġde ploy
ĠE conom
Ġ$ .
En c
per ial
Ġtheoret ical
Ġf ine
D S
A ccess
os l
ĠF ederal
N one
ĠMed ia
ĠR oute
Ġv en
ĠA venue
] );
ĠO ntario
Ġdimens ions
st yles
ĠSwed ish
ĠB ab
Ġin duced
E Q
w ater
D A
Ġin h
h ol
ĠAnt on
ran e
Ġse em
Ġacadem ic
ĠO s
qu arters
Ġdescrib es
m ma
Ġdat abase
Ġse ems
Ġh tt
k es
Ġpart ners
Ġ era
Ġs ides
ĠJ oe
Ġg r
19 22
im ary
_ -
Ġd iam
ĠA sh
ant a
Ġren amed
ĠR ome
Ġr ugby
Head er
Ġpl anned
all ow
ĠCamb ridge
Ġcapt ure
Ġf reedom
ad s
Ġrot ation
t w
Ġphys ics
ĠGu ard
olit an
Ġlarg ely
weg ian
D o
ĠRev olution
Ġtw ice
ors hip
T hat
Ġp henomen
omet ric
Ġcle an
Ġ ..
ĠEliz abeth
Ġadminist rative
Ġw or
display style
Ġp it
Ġwe ap
Ġcre ating
: </
ĠL ew
Ġnot able
25 0
19 27
ĠPr ime
ĠA thlet
P ost
ĠN ame
Ġsubsequ ent
ĠMed al
con g
ogene ous
Ġro les
h bar
ĠT ok
19 24
op es
D P
Ġang ular
ĠJ on
Ġemploy ed
y al
ĠB ad
Ġrac es
leg ate
ĠT od
O pen
il bert
ĠN ations
193 1
c p
j an
Rec ord
Ġtrans lation
h ard
less sim
: }
Ġb in
Ġmusic ians
Ġchem ical
T ree
Ġcomplex ity
Ġlim its
Ġvis it
Ġadminist ration
ĠN etherlands
b uffer
isl ative
Ġc a
Ġdise ase
Ġparticip ated
Z E
ut t
c i
Ġc ov
Ġgalax y
ult s
Ġmount ain
Ġdestroy ed
amb ig
Ġimport ance
ow a
Ġwhere as
Ġst orage
I ST
Ġconclud e
H is
Ġperform ing
Ġl ie
}{ |
Ġhouse holds
ĠH uman
Oper ation
Ġst ack
im b
ĠM arg
Ġtre es
Ġtherm al
G erman
h ing
em an
Pro perties
Ġwh y
ĠN C
T S
m ass
Ġabs olute
ĠO F
P ublic
Ġw ing
Int roduction
Ġimpro ved
B iography
Ġoffic ially
ck nowled
ĠTor onto
In ternational
Def inition
Ġfund amental
ath an
#### ####
Ġhtt ps
[ (
ĠV en
Ġoff ers
hed ral
$ ),
call ed
on ed
ec es
ĠP ass
Ġh undred
c ref
ĠPe ak
Ġw ait
Ġstr ateg
ĠPrem ier
Ġo dd
ĠU sing
ĠD er
Ġfig ures
Ġs urn
ier arch
Ġgeomet ry
S ong
us es
dis c
bra ce
Ġunder stand
Ġband s
Ġreview s
put e
Ġr ural
Ġco al
hold er
Ġpr ime
ĠS a
Ġcon j
Ġcle arly
Ġcom pl
) )$
ud io
Ġmass es
ĠĠĠĠĠĠĠĠĠĠĠĠĠĠĠĠ ĠĠĠĠ
Ġv otes
Ġ ::
b el
S k
Ġn ation
ur er
Ġcou ple
const ruction
ĠC reate
Id ent
ĠC a
het ic
Ġre pro
ĠMus lim
ĠV is
Ġcomput ation
Ġch ampion
Ġre ct
Ġ$ |\
Ġdev ices
af e
for ward
ĠG ro
Ġsol o
Ġp ull
Ġpro pos
m i
Ġt al
Ġflo or
Ġdel iver
ĠOr gan
Ġex c
ĠA cc
Mod ule
II I
}( {\
Ġenc ou
Ġscatter ing
ian g
Ġdecl ared
ra q
Ġengine ering
Ġp iece
Ġpart ner
Ġag greg
ĠM aster
O lymp
Ġfl ight
u ing
Ġl abor
Ġmat hemat
Ġal one
ĠComm unity
ang a
H S
Ġinf inite
ob s
}$ )
Ġsuccessful ly
oot st
Ġpar ish
) --
Ġl y
ĠS erb
] }
Ġp al
ellig ence
ĠUS A
ly n
Ġass ess
F rench
Ġshe ll
v o
ag on
ar se
ĠWis consin
19 25
K E
Ġser ial
19 12
Ġcall s
D R
ĠK al
ĠProfess or
ĠR en
emet ery
Ġmin ister
Ġ> =
Ġins ert
ĠTur k
nes ota
ĠD E
ri ev
l an
ĠA st
cl ip
Pos ition
Ġro ll
Ġra ise
Ñ ĥ
ud get
ask a
Ġre ports
ro g
it ness
ri e
au x
os a
ĠDes pite
re nder
Ġnew ly
ĠC ub
og en
pos s
X X
Ġserv es
eg o
Ġke pt
Pro t
Ġadd ing
Ġis ol
19 21
are n
G o
Ġamplit ude
Ġt ail
19 26
point s
H ttp
Ent ity
Ġg rew
Ġfunction al
ĠB rad
ĠMin nesota
U sing
Ġor th
ap pe
Ġl um
ĠM ember
Ġcomput ational
ell o
Ġden oted
op ic
Ġfac ilities
PE CT
form er
ĠDu ke
Em pty
Ġscal es
res ource
Ġcap tain
ĠU s
al gorithm
Ġdecom position
cond ition
. âĢĿ
ymmet ric
or gan
ĠĠĠĠĠĠĠĠĠĠĠĠĠĠĠĠĠĠĠĠĠĠĠĠĠĠĠĠĠĠĠĠ ĠĠĠĠĠĠĠĠĠĠĠĠĠĠĠĠĠĠĠĠĠĠĠĠĠĠĠĠĠĠĠĠ
Ġsurround ing
D ocument
d frac
ĠS ab
in ternal
W omen
se y
ootst rap
Ġadvant age
ĠG L
ĠU N
Con nection
Ġst reet
d em
Ġdeta il
H P
ĠC ur
ĠFore st
Ġmed ium
ĠSant a
Ġsp ring
ĠS her
Ġtit les
ĠF air
The refore
um es
J son
Ġtechn ical
D ir
ef e
L evel
Ġconsist ing
ĠPh ys
ĠH ay
Ġequip ment
D om
, $
Ġmass ive
w orth
Ġcharacter istic
Ġor bit
Ġcan cer
Ġprocess ing
Ġpl ants
Ġext end
Ġmedal ists
ĠPak istan
it led
le ep
ul i
Ġunder standing
Ġeff iciency
Ġdr iver
o or
f ull
ik i
sh ot
ĠW alk
D r
AT ION
ĠPhil adelphia
A wards
ol is
Ġperm an
Ġlabel s
Ġp ool
S ome
Ġs ure
Ġre asons
Ġtem por
Ġfin ish
ang es
big l
Ġsp irit
leg al
ang ular
ĠB ol
l ig
Th read
ĠD isc
}{ (
it ivity
ra ge
ĠA R
D D
ĠS us
ur ches
Ġb r
Ġimplement ed
Ġpsy ch
Ġhost ed
Ġapp arent
est ic
ĠC irc
z en
lement ary
go ing
ĠT ai
Ġcol lected
Ã º
: =
ĠC zech
ult ane
As ync
ĠBar on
Ġmot or
Ġd ance
ne ctions
ar r
% %
Ġuncertain ty
Ġcop ies
Ġcon ference
Ġcalc ulation
Ġrepresent ative
Ġcont rovers
19 23
ĠStep hen
ast y
ĠL ady
and ra
Ġinvol ving
am in
ĠM ath
Ġconsider ing
agn etic
Ġp et
am l
form ance
ĠSwed en
ĠP ers
os is
&= &
$ :
ĠA li
ĠB ishop
E ach
y ard
Ġsub group
ĠEx t
l iving
ĠSt adium
ĠEx ec
Ġto ken
S H
ĠInd ust
Olymp ic
He ight
Ġdefe at
Exp ression
Ġper fect
ĠK ir
Ġstart s
Ġem phas
IG N
ĠR om
Ġresult ed
Ġclust ers
Ġperform ances
Ġ ener
ĠTown ship
p et
oth ing
ĠS em
Ġvis ible
Ġmatch ing
ĠMar sh
Ġrob ust
19 16
Ġloc ally
in us
ĠB ridge
Ġpol ic
uss ion
O ption
Ġprinc iple
id el
ist ent
Ġl ab
Ġp rice
1 10
Ġag ric
m ad
Ġm apping
Ġdatas ets
Ġdam age
art ifact
sh ort
al let
spec ial
h s
c ache
Ġ[ \
Ġcitiz ens
Ġnam ely
Ġg irl
ĠS quad
igh th
Ġinc ident
> ,
Ġinstit utions
reg on
ĠI V
Col lection
Ġget s
ĠM ike
Ġcoeff icient
Ġwe ights
Ġh ole
Ġsw im
Ġeval uation
p ot
ĠD oug
H ash
ty pes
Ġ* *
Ġhistor ic
Ġvari ation
V AL
Ġaff ect
Ġcalcul ations
ĠB ecause
Ġsum mar
Ġdes ired
ag a
ip eline
" ))
Ġend s
C ent
F inally
se ar
Ġt alk
Ġle mma
H ost
Ġatt end
) }}
gl obal
Ġbeg ins
t frac
Ġto ol
Ġl ock
ĠB usiness
im ately
M ay
om ot
Ġh idden
C F
big r
6 00
M ain
Ġrecogn ition
ĠC as
=" _
ĠStud ies
sc ape
end ar
rest ling
field s
Ġcompos er
orn ey
Ġaff ili
ĠOr ig
ĠCon f
Ġfem ales
Im pl
Refer ence
ic ial
Ġgrow ing
he rent
Ġsuggest s
Ġthem e
Ġdis crete
19 15
Ch ange
' re
g reen
ĠO R
H L
P arams
ch a
Ġout er
Ġtra ject
D own
Ġg ained
Ġengine er
ĠRev iew
Ġth ous
ĠCh ris
Ġcoordin ate
w ing
Ġla unch
Ġtown s
pect ive
ĠW inter
k h
con v
Ġover ride
j oint
ĠF inal
Ġc ars
ĠD am
] $.
Ġpurch ased
ĠJ oh
F ollowing
Ġc ache
Ġex ponential
ann a
N ov
c ow
rop olitan
ĠAd dition
ill ery
Ġinsp ired
m aster
ĠMc C
b en
ĠK im
B L
Ġveh icles
Ġcan cell
Ġrecogn ized
}\ ,\
ou ch
s end
ĠW at
ĠMiss ouri
Ġb lood
rit ical
Ġt end
ĠW in
ph ant
Ġbe at
Ġfind ing
V ol
Ġhe av
Ġindust rial
Ġterrit ory
riz ona
out heast
Ġclaim s
Ġp iano
Ġsecond s
R ad
se ason
Ġacc eler
Ġdet ect
ĠF ire
Ġpe ace
Ġ ion
ĠEx ception
ennes see
Ġser ious
Ġtit led
12 8
Ġregard ing
al ing
Ġst ability
Ġcontain er
Ġsaf ety
Ġnov els
Ġsol ve
un te
B E
Ġ{ $
b efore
Ġfocus ed
S u
a uth
let ed
Ġw ild
ĠSt at
Ġveh icle
re q
Ġpar liament
Ġent ries
Ġpro jection
Ġrefer ences
Ġz one
p ur
AP I
B efore
Ġpen al
Ġstat istical
ä ¸
Ġp ackage
Ã ¢
h box
ĠI l
Ġcon vent
Ġset up
k g
D ep
Ġtr ust
ĠV i
Ġobject ive
Ġsatisf ying
Ġcolumn s
Ġrepresent ations
Ø §
\ }$.
sh ape
g ies
Ġrem ark
Ġcalcul ate
ps on
ĠAn th
rim inal
Ġrepe ated
Ġunder lying
ĠCl ark
ast ers
ĠH o
b u
n ames
Ġsub stant
Ġhous ing
Al though
ost er
25 5
ĠH an
od s
b les
Ġc erem
ĠT y
Ġinterest ed
Ġaff ected
ĠOn ly
im s
Ġest ate
Ġop posite
Ġscal ing
dev ice
at ible
Sports people
Ġexpl ained
ĠF ree
Ġleaders hip
ik a
19 13
ĠCap tain
Ġen em
ĠInd ones
ut f
Ġ urban
B ibliography
r ine
Ġsub t
Ġscen ario
Ġem b
Ġb right
ĠGold en
S ources
sc ription
ĠMed ical
Ġlaw s
Ġconvert ed
EN D
R I
Ġinteg ration
ĠB udd
ĠL ev
M T
ĠM ilitary
ĠM un
- $
enn a
Ġcharg ed
ap ore
id i
}} )
ĠL ind
iss ions
Pro ject
Ġport ion
di ag
^* $
Ġth read
ad ing
P arameters
Ġco inc
ĠM ill
ru it
s ince
Ġpass ing
ord an
Ġdet ected
ĠN az
ĠH un
Ġquest ions
ner gy
set s
Ġscient ific
Ġent ropy
Ġestim ation
lo op
par agraph
ĉĉĉĉ ĉĉĉ
ĠS on
ĠW ars
Ġm ac
,\ \
ĠMount ain
ĠCol on
Ġev ol
P tr
ĠB ack
ĠB h
Ġgrant ed
ĠD own
Ġre ally
Ġh abit
ĠW el
are st
Ġcontin ues
cre d
Ġus ual
Ġb ill
form al
Ġs ales
$ };
Ġdo ing
Ġrad iation
Ġc ool
ens is
Ġre sear
Ġap i
Ġpower ful
ĠEX PECT
U P
T wo
] $,
empty set
\ ;
Ġsu itable
Ġp adding
ut able
ĠE ll
Ġin her
m osp
ĠRepresent atives
styles he
Ġm ind
ax is
Ġ ^
Ġj ourn
ĠBe ach
ĠB G
Ġv ess
Ġcont est
Ġnot es
Ġdr ive
Can adian
Ġadv anced
Ġse ats
est amp
ĠK ansas
B R
ĠIndian a
Ġfound er
ĠSur vey
du ce
ron ic
Ġposs ibly
ĠG ree
B M
ul y
ĠAr thur
Ġplan et
u um
G E
re ll
Or ig
ĠMar ia
="../../../../ ../
ĠF ox
act ic
ĠK el
Ġab and
T ax
m ers
ict ures
com ponent
S ign
Ġcorn er
Ġrec ip
v ard
Ġref ers
( *
t iny
ĠH ard
osoph y
Ġund efined
at on
ĠDav is
ĠT al
Ġspec ifically
D raw
och astic
Ġir re
H ar
Pop ulated
ĠCast le
Ġdis p
Ġs ave
we et
ick er
Ġtri ed
f i
) ).
ur ations
if ts
Ġst one
ĠA h
ĠA rea
Ġex cit
Ġran ked
Ġfac ulty
ĠD un
16 0
Ġcr ime
Ġne ural
Ġconsequ ence
Ġres ident
Ġdi pl
g ers
Ġp owers
19 11
ĠĠĠĠĠĠĠĠĠĠĠĠĠĠĠĠ ĠĠ
ĠAtl antic
Ġinvestig ation
Ġspe ech
F R
Ġw aves
ol i
t ml
Ġn amespace
Ge ography
G S
ce ived
Ġw orth
yb rid
ĠCO VID
Ġsuff ered
ĠTr ue
Ġst ress
ĠM unicip
Ġdist ricts
Ġcont emporary
ĠHigh way
") );
fo o
St ore
Ġthe ories
ĠW eek
Ġf elt
Ġexplicit ly
Ġtrans mission
h ash
Ġsum mary
Ġsup erv
Ġdocument ary
Ġcategor ies
ist ed
Ġfind s
}[ \
=" -
ym ph
ĠI raq
Ġsex ual
Ġpolit ics
we alth
O M
Ġsc oring
.. ..
clus ive
B ook
i ota
ĠM oh
ĠB all
er ior
Ġb ow
ic ian
j oy
Ar ch
B ody
is a
AT A
ĠI d
P ass
Ġcon ven
t ers
z i
ĠD ig
Ġnot ice
Ġ ),
Ġe q
ST R
Ġmix ing
Ġinter ior
Ġb ronze
: (
class es
y g
ta il
Ġsampl ing
Ser ial
ĠEngine ering
Ġg ar
equ al
per iment
w estern
G R
ĠO regon
Ġequ ilibrium
Ġl iber
Ġt ells
ÃŃ a
ut ils
Ġprot ect
ord on
Ġx ml
Ġpredict ed
S earch
W E
Ġc overs
_ ;
[ -
V ideo
v s
ĠDes ign
ĠG allery
Ġpath s
Ġis omorphism
Ġ\ (\
b p
ĠMex ican
J apan
f iles
Ġadj acent
up le
) )\
Ġsequ ences
ĠPhilipp ines
ĠAl f
i Ã³n
Ġdoes n
ĠNor way
ĠF ederation
Ġim ag
ĠJ unior
Ġf iction
ĠP ier
F ont
ĠTur key
ĠComm un
if er
G N
Ġs y
ĠMan agement
ĠE vent
ire ment
ĠG er
b ind
8 00
Ġrequire ments
ĠL ocal
ĠE nt
Ġturn s
Ġview s
ĠR on
O K
ĠS uch
N ames
l arge
Ġcomm ittee
Ġfact ory
Ġarm s
ĠCount ry
Ġpar se
Ġattempt s
I ter
Ġb oy
Ġdynam ic
t im
ĠSl ov
Ð ²
st at
Ġfrequ ently
Ġt ransp
Ġc art
an es
Ġ* )
Ġport ray
C M
}} _{\
co pe
ĠAd minist
p res
Ã¼ r
Ġbrief ly
w all
Ġy ards
Ġintrodu ction
Ġp aid
Ġofficial s
Ġapp lying
ĠT ennessee
clus ions
Ġsufficient ly
Ġf ish
ĠCh annel
ĠB ru
ĠM ult
Ġp ages
ĠCol l
S ession
Ġstr ugg
K ind
Ġevalu ate
Ġsim ultane
Ġl osing
Ġp icture
Ġconsec utive
Ġconst ants
Ġpattern s
Ġse vent
bm atrix
AC K
pr ise
ig rants
ambig uation
Ġpre par
ater n
,\ ,\
Ġpublic ation
m n
Ġy ellow
Ġ( ;
com ment
g est
c lear
ĠW rit
Ġm iles
Ġd iver
Ġp arams
Ġ\ ]
pro duct
rac ks
ĠJac ob
ĠI R
Ġreturn ing
190 8
is er
int on
jo in
Ġinstall ed
ĠG h
Ġexec ution
B B
Ġto ols
ĠH art
Ġjournal ist
W est
Ġar ts
25 6
ĠSh ort
qu es
Ġclos ely
ĠM P
iv ated
ain e
ĠM ic
COL OR
ĠSec urity
ph ys
art he
m f
Ġf ell
plic ity
c opy
ĠMem orial
Ġbeliev e
ĠC ON
ouri er
) })
ac cess
Ġj et
ĠL ive
Ġdef end
ĠCon st
artifact Id
s n
ĠSt eve
Ġinters ection
ad ed
ĠColor ado
Ġcont rolled
Ġpain ting
d ebug
Ġn um
ĠG re
ynt ax
ĠBase ball
i ative
Ġab und
b at
ap el
r Ã©
H igh
ĠY our
M ember
b order
d iff
Ġderiv ative
v ee
ĠP it
C opy
ĠF amily
Ġg overnor
Ġdimens ional
h ire
Ġlett ers
ord ers
ilt ers
ĠW hat
Ġag ents
B est
iz on
ĠR oss
per t
F alse
ĠUk raine
Ġsup ply
ues e
yn asty
Ġc ab
ro ke
S m
rain ian
in v
Ġle arned
o is
sequ ently
ict ional
Ġsch olar
Ġyoung er
12 3
ĠO cean
l ife
Ġsol ar
inc ial
it ational
ĠApp endix
Ġadv ance
Ġesc ape
trans form
18 0
Ġext ensive
ear s
C ore
Ġinv erse
Ġupd ated
og ram
ĠCon nect
Ġear th
Ġbi as
ĠL abor
ĠS D
agn ost
Ġfac ility
br as
Ġbur ied
ĠS av
tain ment
ĠFre der
ĠH al
par ison
Ġsp ons
Set tings
De ath
Ġme ant
ag u
U M
ĠK han
og s
Men u
sl ant
Ġm anner
Ġto ward
s es
f amily
w ick
p arameters
Ġ( ,
t i
Ġt urb
Ġch airman
Ġd rawn
Ġnom inated
Ġpat ients
Ġelectron ic
Ġrece iving
Austral ian
up s
Ġsepar ated
Ġnot hing
ing ham
Ġcl imate
off s
Ġ rom
Hel per
h l
St ack
C I
Ġf ashion
Ġhas h
m o
( :
and y
rom ise
Ġeduc ated
ar ation
C ap
M em
Ġad vert
Ġ( '
H on
Ġex clud
Ġembed ding
ĠA uthor
Ġvill ages
Ġun able
$ _{
ĠMary land
ĠRe al
ĠS at
pl ot
ri or
Ġv ice
ĠM ir
ĠA rizona
Pro of
M atch
Ġneut r
AL L
ĠLe on
& $
Ġsub s
g eneral
iv ation
Ġprote ction
ut or
ĠLew is
ĠPol it
Ġcomput ing
Å «
Ġb ra
ERR OR
Ġd ie
ĠL O
Ġcaus es
Ġadj ust
iv als
AN D
ĠMos cow
Ġacc ident
Ġdiag onal
Ġinvestig ate
ĠV o
Ġrest aur
ad i
Ġindic ated
Ġt aught
ain ts
ag en
ym n
e en
ĠSt ock
}} .
T ool
c ategory
eli hood
itzer land
i em
Ġflow s
ĠBook s
ĠMel bourne
sl ash
Ġcont rad
Ġdec or
Ġb ond
ic ip
à ¸
Ġtr igger
Ġident ical
Ġ iron
Ġre action
Ġbro ken
ĠMal ays
ut er
Ġread er
Ġd ust
eta il
Ġthe atre
Ġcor rel
Ġstar ring
L eg
Ġauthor ities
Trans port
Ġgener ic
Ġide as
Ġtra ce
G A
Ġprot ocol
ĠGo ogle
Ġ il
ap l
ĠBro ther
}) }
con nect
math op
ĠB os
;\ ;\
h aps
Ġexpl ain
Ġsh op
ĠD ue
ful ly
id ge
ĠW indow
uss ian
ĠK itt
Ġdesign ated
ĠIn formation
ah oma
Tem plate
Ġ+ +
v m
Ġtra ins
D av
V ector
ĠE s
oper ation
' ],
ĠL eb
Ġlo an
ĠE u
col n
Ġind eed
ĠR a
M I
dis ambiguation
ĠT el
Ġcamp us
v ature
Ġcomp ris
' >
ĠI S
Ġent ity
Ġro yal
in itial
H C
k ind
Ġcover age
anc er
ĠD or
R ail
Ġexpl o
St ep
l at
Ġf erm
j ar
Pl ot
Â °
Ġar c
ent ed
ĠN a
D oc
group Id
ĠJ os
f act
T im
B el
Ġpur poses
G en
Ġquad r
aw n
ĠD rag
Ġsom ew
b ad
mod al
ou red
Ġlook ing
f ocus
ort heast
ĠM ach
ound ed
Ġsucceed ed
Ġd aily
Ġassum ptions
s ive
Te levision
Ġop posed
ak s
Ġhand s
inter face
column width
ly wood
web kit
equ als
Will iam
U LT
; ->
Ġcam era
og ether
ge bras
T ER
ms g
script style
oc ese
E rr
TE ST
Ġsat ell
Ġaud io
Ġinj ury
ĠF ellow
ĠB an
Ġatt ributes
ĠS ervices
Ġcharg es
Ñ ı
ĠAust ria
out s
ĠFore ign
d ouble
f ef
st ore
ĠS ri
tikz picture
L ife
ĠEm peror
b ell
he im
er al
includ ing
T A
Ġth in
Ġtw enty
Ġend ing
Ġaccur ate
Ġcommand er
n etwork
Ð ´
De cl
Ġan not
Ġn or
ru ctions
Hand le
k ov
ĠG i
Ġdo ctor
Ġarrest ed
ĠNor wegian
Ġdrop ped
] {\
Ġpl anning
ĠB arn
' m
\ }$,
Ġ" \
ĠAl bert
com plete
Ġe lem
Ġind ependence
ĠB ah
Ġh all
Ġw ins
ĠOb serv
| }{
Ġpl us
ĠSe ver
10 1
ism s
Ġ\ !
190 5
ĠM as
reg ular
ĠJew s
ph one
ĠN orm
R R
Ġb urn
Int eger
ire ctions
in ator
Ġto wer
Ġposs ibility
Ġco aches
Ġcall ing
av or
ĠAr k
> \
un es
12 5
ĠAff airs
ĠPhil ip
d on
Ġbul k
}} }\
}_{ -
Ġ( ),
Ġdrum s
add ress
Ġb illion
Ġint ensity
Ġcrit ics
Ġw atch
ob e
ĠW he
Ġcl oud
) ),
Ġb ran
Ġbehavi our
Ġsatisf ied
^{ *
ĠL ow
ĠH ur
189 0
L in
ĠTr ust
Ġab stract
kl ahoma
ant on
in ion
ic ut
Ġaspect s
de lete
script size
al ian
Ġchall enge
ĠZ h
ou st
Ġoccup ied
erv es
al gebra
Ġprem ier
L oc
V ari
f old
Ġte aching
ĠE ven
Ġpi eces
Ġformer ly
Ġmax im
Ġrac ing
iss ip
int eg
Ġsign als
Ġhypot hesis
Ġm ales
Lem ma
g rid
Pro p
Ġdr iving
Ġmax imal
res ol
190 9
Ġj ump
ĠChe ck
el ength
Ġst ock
) }_
Ġl iqu
190 7
ĠInf antry
Ġob vious
Ġv ocal
Ġbe aut
Ġre ar
Ġder ive
ab ama
ĠQueens land
ag h
Ġpredict ions
/ (
r ations
im p
}) =
rop ic
oth s
A nt
ĠS C
cl ick
ĠSquad ron
ĠâĢ ł
ĠChar l
ra ined
ĠJ er
? :
ĠF ront
Ġnon linear
Ġvis ited
Ġlow est
ĠE th
Ġat mosp
Ġd ens
Ġun less
D C
Ġin fer
& =\
T itle
Ġben ch
eng ers
ĠInd eed
Ġdevelop ing
t n
ĠSing apore
Ġmanif old
ous es
190 6
Ġp le
ĠC ab
Ġf estival
Ġm essages
F M
ĠO tt
Nav Bar
ĠI owa
Ġregister ed
ĠC ase
Ġtr ivial
ĠTrans port
fef efe
G iven
dom ain
Ġanim als
ĠN on
g ment
reg ion
ut her
to String
N etwork
Ġtry ing
Ġte le
Ġtop ological
s at
ĠChrist mas
multi row
ĠT a
Ġrough ly
}} ^{\
Ġop position
f il
ĠViet nam
Ġsix th
Ġcan onical
H as
ok ing
Ġgrav ity
Ġse ed
Ġre nd
================ ================
hand le
pl ane
Ġjud ge
F S
ĠEnter tainment
Ġs izes
F inal
Ġb undle
cis ely
Ġposs ess
Ġold est
ĠT urn
ĠS U
Ap plication
Ġen h
Ġ[ '
Ġinteg rated
ĠT ext
Ġdoc uments
ĠR E
ĠLem mon
r ub
)-- (
ĠA L
Ġcost s
ĠS ound
Ġgu est
w hen
ĠS M
Ġenvironment al
Ġlum inos
Ġgl ass
, {\
ĠI O
ĠF ord
Ġtemper atures
med ia
ĠGl obal
Ġcharacter istics
Ġentire ly
Ġpain ter
Ġansw er
Ġsupport ing
ĠS ky
][ ]{
st an
ĠM it
it ative
ĠC ode
ĠN ative
Ġtre nd
long rightarrow
ĠS O
g ar
by te
In itial
ĠH ou
N C
doc s
Ġattempt ed
w ich
ro it
Pl ay
ate ur
ul se
ĠAd am
ug ins
D et
ra it
Ġchang ing
ĠAmerican s
ul ing
Ġocc asion
ĠAnd erson
Ġap plic
Ġflu id
ant e
M eta
Ġe cho
olog ists
Ġauthor ity
u y
N orth
Ġgeneral ized
ĠPr inc
E uro
Ġs ail
Ġfight ing
ĠEar l
ĠSpace watch
Ġhigh light
og onal
j ust
Ġvar iance
Ġb os
Ġget ting
Ġult imately
ĠCh ile
ide os
ĠG ib
Ġr ational
In valid
er ial
n n
F lo
e lect
Ġadapt ed
Ġsurn ame
re place
w orld
Ġflu ctu
ĠB at
C re
aw s
ic ular
Ġde lete
IN FO
U se
d am
ĠKent ucky
Ġrad ial
Ġres c
Ġvers us
ĠC ape
ĠB eng
= .
ee per
Ġsched uled
bum s
h over
: =\
Ġequ ality
X ml
Ġch arts
u j
ĠB alt
ĠR et
l ayer
is or
math it
ĠD a
Ġinst ances
Ġin fo
ĠGree ce
L ang
Ġhead quarters
the less
Ġver ify
. '
Ġtri p
e ach
Ġfe et
Ġhead er
ĠSw itzerland
Ġn ob
Con n
Ġr ig
ĠBill board
on i
Ġv ir
iffer ent
rib ed
Ġcol our
ĠM iller
if iers
r ating
Ġcover ing
Ð ¼
Ġb udget
Ġprom otion
Ġdis establ
{ |
ure au
ĠBatt alion
put er
}) ^
ĠS che
Ġtrans action
ers et
sup port
Ġmerg ed
190 4
D M
Ġinter act
st op
ch annel
Se lected
OR T
V er
ren cy
sq l
ĠM A
Ġc atalog
sup er
ĠF ame
P arser
Not able
ub ble
Ġj av
ex ists
atter y
Ġc row
ĠR ose
ific ate
bo olean
fig ures
iven ess
el ve
ĠE P
ubl in
\ }\
Ġpro pose
Ġf ans
Ġhor se
Ġquant ities
Ev ents
Sche ma
Ġener gies
Ġst orm
Ġcl in
ĠT an
low er
Ġen joy
() :
Ġcon nections
} |\
ĠN av
H ence
On ly
Met adata
Cons ider
Ġdipl om
Ġsports people
Ġp apers
ĠB et
Ġpass es
ĠL ore
Ġpre cisely
Ġappro ved
ed ia
Ġ ^{
i pe
G ET
Ġw alls
ag an
Ġp y
ĠSt aff
ow ski
ĠK y
igen ous
Ġpolic ies
Ġs ust
rad ius
in ction
ache lor
Ġdisc rim
Ġmay or
Ġ( *
ymmet ry
R C
ĠTok yo
Ġgu ard
Ġexpl an
ug u
Ġsing ers
ĠJ ane
Ġby tes
rec ord
Ġcompet itions
ill ing
ĠN ap
z z
Ġmusic ian
ĠSim on
Ġd ivers
not ag
ĠHol y
ok es
Ġman agers
v ect
Ġsitu ated
ĠFor ces
et ies
ĠE ric
Ġhouse hold
p red
Ġaud ience
Ġextrem ely
ĠF er
} ~
ang o
Ġarg ued
u id
ĠL iter
r ase
in er
ĠR oy
Ġhistor ian
ĠN Y
Med ia
ĠL ast
W S
nabl ed
Ġl ists
Ġrel ax
Ġeffect ively
oc ate
Ġabs ence
Ch rist
Ass ert
ĠE rror
ref ect
ĠHar ry
R S
Ġapproxim ate
Val ues
med skip
ĠCol omb
uer to
ib ration
m ont
es ian
P olicy
Ã ¥
ir ty
B I
Ġsp ot
rid ges
Read er
ist ence
ro ps
Ġ Ä
A f
pt ic
Ġasympt otic
f ramework
ene z
es ter
^{ (\
el ess
ris is
in cess
Ġpil ot
Ġdef ense
ro sc
hip s
Ġc ryst
Ġcont ribut
Ġc m
ĠG iven
âĢ ľ
ot on
="../../../../ ../../
Ġm el
ĠL ank
ĠSund ay
Ġs an
Ġcirc um
F ootball
iv a
Ġprodu cing
Ġm ask
wid get
clos ed
ict ed
A v
Ġdepend ent
Ġf lex
Ġsupport s
Ä ĥ
ĠIn ternet
Ġst ages
Ġeconom y
Ġencou rag
ĠMod ern
c raft
ĠAm ong
\ |\
ĠR equ
p anel
ev in
Ġhold ing
ut ation
ar o
ĠWal ter
ĠT ony
P RE
ist a
Ġs ons
Ġphot on
V ill
ogg le
.. .,
L i
Ġf uel
ic ians
ĠF red
\% $
ĠL ike
r ins
ĠH y
sub sec
ĠB or
Ġm arg
ĠS ix
D el
and o
Ind ian
arthe ta
dis abled
Ġtre ated
Ġsett led
ap plication
By tes
v artheta
Ġatt ached
Ġby te
ĠG reg
O ffic
Ġref used
Ġle ct
Ġb ought
in th
U nder
Ġbrother s
Ġdec ades
Ġex ceed
P res
b urn
ĠLin coln
E ducation
Ġd ense
ĠAl abama
Ġcomb at
ĠD ate
F ound
Ġp ush
Dev ice
Ġcirc uit
al id
Ġst ochastic
ol ished
iz able
}} =
p erson
> ();
B orn
rast ructure
ok ed
ĠN ick
t or
ĠĠĠĠĠĠĠĠĠĠĠĠĠĠĠĠĠĠĠĠĠĠĠĠĠĠĠĠĠĠĠĠ ĠĠĠĠĠĠĠ
ne ver
OR D
ĠTh rough
Ġly rics
Ġenc oding
Ġcont ributed
Ġ} {
Ġg ate
ĠK at
ĠD at
Ġa ired
Arg ument
Ġregard ed
ĠBG COLOR
ey n
Ġcharacter ized
w t
anc ell
Char acter
Ġl i
li k
ĠB urn
190 3
Ġrestrict ed
ĠC le
Ã© t
H er
ĠV alue
inem a
Ġinter mediate
ĠW olf
Ġdom inant
ul us
Ġin line
ĠBuild ing
ĠL td
ado op
ĠSt one
Ġexpress ions
ĠR ow
Ġp ed
Ġqual ified
n ie
ĠG rant
190 1
Ġneg ot
an ia
Ġcons ult
Ġid x
P y
AC E
Ġre aching
Ġcon clusion
Ġass embly
Ġuns igned
et al
Ġv ent
ĠN umber
P arent
Ã© s
om ents
ur st
ĠF und
Ġt rib
ĠC ost
Ġs and
ĠU se
ic ons
pl es
Ġassert Equals
ĠB efore
T ab
od d
Ġm ock
s ession
Ġe c
Ġdom inated
mod ules
ĠJ am
neg ative
ĠG ram
over y
ĠT rum
R ect
Ġstring s
Ġperman ent
A ng
Ġstand s
Ġre ality
Ġf olk
ĠG ab
ern ame
ex ports
ĠMan chester
Ġrepl acing
ĠN FL
styleshe et
ap se
E CT
ik h
Ġm orning
Ġconsist ed
ĠN ev
form ing
c ert
en um
B as
text color
Ġexec uted
Ġr ich
SE T
ĠMag azine
ĠC art
call back
Ġtem ple
on omy
ov ed
l ate
ile y
Ġro of
ĠP ot
Ġshort ly
issip pi
Ġen able
ĠTe levision
Ġm obile
ĠCommon wealth
Ġoper a
Ġsch ol
ĠH op
ĠCon stitution
res p
ari os
Ġcaus ing
ura ble
Se lect
Cl ub
ĠC H
Ġneigh bour
ĠJ ordan
re v
Ġ} )
ĠO klahoma
ĠS quare
ĠW ell
M ilitary
190 2
Ġcross ing
Ġmult ip
pl ugin
Ġquant ity
v als
Ph il
Ġ rows
Ġautom atically
ĠSo ft
Ġmagn et
ul ator
Ġpre ced
ĠS oc
key s
Ġtr uth
us cript
ĠM L
B ra
Ġunivers al
ag ues
Ġkey s
ST ATE
ĠD ark
R T
ĠCol lection
Ġinterpret ation
ut ies
R et
Ġsign ature
ap h
R ule
ĠConnect icut
Ġfund ing
ĠH ans
Ġcur vature
ĠMar ine
Writ er
` .
Ġcomplet ion
S em
ivers ary
n ight
Window s
let ion
ĠLab our
Ġmon itor
Ġc odes
Ġl ayout
R oot
enn y
ĠTurk ish
Ġen abled
maz on
ĠBul g
eb ox
Ġwin ter
Bl ack
ĠP rix
Ġsepar ation
Ġcommission ed
Ġmole cular
ĠHow ard
id get
}\ |
Ar gs
S ym
18 80
Ġbro ke
iss on
Ġprodu ces
ipl es
ĠP ur
ĠW ind
c ustom
Ġattack ed
en ia
S cope
D IR
qu est
ri k
n one
Ġqu asi
St orage
Ġb odies
g ency
ch ant
Ġt ennis
Ġm and
if ul
o a
Ġvari ations
N G
L I
E nabled
ĠT en
Ġal ter
Ġiter ation
Ġd rag
um a
ĠA ction
ra v
P ool
Ġmet res
D ebug
orig inal
L o
Ġprote in
Ġs un
Ġd ashed
ex port
ĠI P
Ġdynam ical
ĠNC AA
Ġsome one
ĠN ich
f ly
Sup pose
Desc riptor
Ġra w
Ġneut ral
Ġhe ro
St ar
% .
Ġdet ector
M ost
Ġsh ock
ĠAll en
Ġdom estic
Ġd uration
ta h
Ġkey board
ĠBrig ade
e le
rack et
HT ML
l ay
Ġind ices
ĠSen ior
Ġresist ance
ĠK am
Ġw itness
ĠF inn
circ le
ĠRec ord
Ġconfig urations
Ġc arri
Ġl ake
Ġincorpor ated
en v
Ġd x
iev al
Ġ$ ,
R est
Ġso le
Ġassum ing
ĠC ru
Ġf resh
por ated
ĠN ever
Ġillust rated
Ġp and
ship s
ĠBr un
ex ception
az a
ĠS in
ĠC op
Ġm art
ĠTh ird
}$ }
en berg
ĠP a
Ġs s
put ation
iam i
ĠReg ional
ĠN ag
d ens
Ġo s
Ġpresident ial
Ġdirect ory
ĠCro at
Ġsp an
Ġexhib ition
ĠN O
inc or
ĠH u
Ġprec ision
ĠH om
S F
Ġcons ervation
- (
z ed
ard o
Ġinflu enced
E p
"> &
ĠM att
Ġf ought
BU G
con nection
ĠH amp
in ces
Ġheav ily
Ġscen es
plic ated
ev al
Ġexper i
@ {
b ootstrap
Ġl icense
ĠM oon
Ġhor izontal
Ġh ierarch
pro file
ĠHaw ai
lad esh
Ġcov ar
N um
Test s
ĠDi ego
reg ister
Ġbre aking
r in
' ))
f ast
ul ating
ĠD ream
Ġre nder
Ġnot ion
proto buf
ĠG all
Ġ$\ {\
ĠN aval
Ġfound ing
Ġform ally
Ġwe alth
Ġ\ ,\
ĠMar c
Ġappear ing
ĠA ge
ĠChild ren
lim it
ĠArgent ina
ay an
Ġc as
Ġex cess
ss on
r ates
Ġh our
ĠHe art
Re ception
ĠAb out
ĠPortug uese
="../../ ../
Ġclass ified
Ph ys
t otal
ĠAg ain
ĠSt ory
aw are
ĠV iew
Ġd irections
m al
Ġinh abit
ĠV ar
icens ed
Ġequival ence
Ġgeomet ric
Ġf aced
Ġbelong s
ĠCh ampions
;" |
aut o
Ġgener ator
AT H
Sec urity
V M
P aram
ĠB rian
ĠF ac
-------------------------------- --------------------------------
Ġevalu ated
More over
Ġinv oke
I con
Bo olean
Ġa id
Ġcomm it
final s
Ġloc omot
Ġg irls
A E
ĠD C
ĠDo ctor
}{ *
d ict
A pi
d ied
Ġ< =
ĠCh all
set tings
ĠAn ne
Ġch ose
ĠC emetery
Ġdemonstr ated
Ġactress es
iam ond
Ġred shift
re lation
us hed
ĠF unction
l ass
ĠI r
Ġliter ary
Ġviol ence
Ġg uns
op ter
Ġtop ology
ĠQue bec
ĠĠĠĠĠĠĠĠĠĠĠĠĠĠĠĠ ĠĠĠĠĠĠĠĠĠ
Ġdecre ase
ĠE nergy
Ġlin ked
ra ctions
ol o
osl av
c oh
] ]
ĠB rand
Ġbel ief
Ġfil ename
ĠN ik
_ ->
ins ert
Ġqu ark
Ġessential ly
ĠSil ver
ograph ical
Song s
ĠH ockey
Ġag ed
F amily
ct ors
m argin
k w
ĠSw iss
Ġmaintain ed
ow nt
D L
ĠP as
D I
Ġdef ines
M ock
ĠN AS
our se
ĠOffic er
A nother
Ġpract ical
poss ible
Ġgener ating
D en
Ġent itled
Ġkill ing
Ġst ored
back slash
Exp atriate
Ġbal ance
ash i
F ix
ĠE c
Ġk il
Ġdirect ors
Ġcollabor ation
Ġpart ially
Ġconstit ution
ĠR ab
ĠK az
Ġtransl ated
Ġl ens
ĠS n
ĠF a
cre en
Ġded u
ĠStand ard
ick et
el son
By te
am ing
Ġconclud ed
Ġalleg ed
Ġre construction
Ġdid n
r ator
er ion
Ġus age
Ġrespect ive
Ġc old
Ġstand ards
du ate
port ing
( -\
ĠC ook
par allel
Ġs ought
ĠEn vironment
ĠTem ple
ĠDen mark
ab ric
ud a
Ġsim ilarly
ĠOn ce
H om
phant om
im it
Ġopport unity
Ġret irement
g han
Ġinvol ves
Ġre form
Ġj azz
Ġher self
att ribute
Ġnormal ized
OR M
ĠBelg ium
c ers
00 1
AG E
anc el
pl us
v c
iv ery
Ġch urches
! \
Ġeigen values
v irtual
^* \
ĠJ ava
ent ity
ol ver
R oman
ink ing
Ġfund s
+ (
ch anged
. \\
h adoop
Ġsymbol s
Ġv ideos
Ġgrav itational
` ,
enc ing
ĠTer rit
s quare
ĠD ur
ĠJ SON
Ġsc ores
Ġenc ounter
Ġdemonstr ate
cor ollary
Ġs occer
ĠS el
Ġprogram me
Ġsent ence
ĠK er
b ey
ĠHon or
Ġd ates
od a
ĠF lo
M c
De lete
ĠB ureau
ĠC ra
ĠW y
Ġm es
189 8
Ġsk y
ab ad
ĠJ ay
h ist
Ġa ware
ĠPat rick
Ġinst ant
Ġcon sole
ĠN ext
arg o
ĠHar ris
Ġimprov ement
ĠĠ čĊ
ĠW ho
ĠT ask
Ġweap ons
! ]
Ġph ases
ar ry
ist ration
Ġcent uries
foot notes
rec ated
ch t
Ġh op
Ġmetric s
O pt
f ix
pro perties
Ġsomew hat
s is
ĠAl b
ĠIsrael i
ing ly
ĠĠĠĠĠĠĠĠĠĠĠĠĠĠĠĠ ĠĠĠĠĠĠĠĠ
Ġcoupl ed
ĠO ak
Ġreplace ment
Ġst ating
od ec
ĠIn n
w as
k t
ĠDoug las
ĠD al
ĠG ordon
ĠV ice
Ġro ots
W A
a ired
f ire
Ġsyn chron
ĠR eb
ĠAl gorithm
ĠAddition ally
, .
duc ible
ĠD anish
ou pl
Ġdesign s
Ġhot el
Ġair port
13 0
import ant
depend ency
Ġproport ional
Ġis ot
Ġch ampions
Ġvac uum
cl ine
Ġ ,\
ren a
ĠF M
> .
ĠM and
Com mon
Ġoption al
Ġhand ler
sp ring
ĠU RL
in burgh
ĠBrazil ian
Ġs ac
Ã ´
ĠS ign
an im
Ġent ertain
Ġconcent ration
$ {\
od ox
Ġlaw yer
Ġanc est
) ^\
s a
Ġcar bon
b c
Ġoper ate
ver b
Ġindic ating
ot te
ist ant
Ġcorre ction
Ġnecess arily
cl oud
Ġbound aries
at ar
Ġcol ors
be an
Ġh air
es ides
ĠP ope
ĠP age
Ġprom ote
Ġb rown
ĠR ights
Ġg ene
ĠAr g
M ajor
FA ULT
Ġredu ces
ram a
ĠN A
m outh
footnotes ize
Ġext ent
ĠS ud
Ġw ire
pos ing
st ood
ĠWindow s
S ymbol
k ern
Ġk in
ĠTai wan
id al
W hat
ĠEx press
ĠG ard
ĠWh it
M any
ĠY outh
Ac adem
Ġluminos ity
un n
l u
ak ed
Ġ icon
i eg
R ender
P D
Ġt ab
y ers
} "
M ac
ĠAl ber
ĠV ersion
ch ain
-- >
C ustom
Ġcomp ilation
Ġan imal
Ġperiod s
ur ance
Ġfill ed
ĠPl ayer
Ġsimultane ously
Ġw rong
ĠComm unic
Ġf ranch
Ġfa ith
n umer
Ġtest ed
ĠHou ston
ĠK o
Ġin aug
Ġtouch down
v ia
ĠMo ore
) [
y ll
C B
Ġin var
od ge
p air
iss ance
Ġre jected
ĠPh ill
J o
SS ERT
Ġpl ate
Ġenem y
Ġst ores
189 9
ĠF le
par a
Ġdown load
Ġmid field
w en
at in
qu ant
ob serv
ĠP uerto
7 00
ith uan
Ġj ur
Ġsur faces
in line
pl an
os es
ĠMiss issippi
c ross
Ġwav elength
Ġoff ices
Ġparticip ants
ĠD ak
am ents
p adding
Ġg ender
rand om
ĠPl ace
G raph
on om
Ġemploy ees
ĠÃ ī
ĠL am
Ġwe ather
lo pe
el and
ĠAnth ony
ock er
$. }
r g
ĠA N
sc reen
at he
' _{
Ġinstit ution
Ġvary ing
ĠStud ios
equ ations
ĠM i
s ong
ĠI mp
Ġc ub
Ġsaf e
b its
Ġf aster
Ġcont roller
AC T
Ġconf idence
Ġpoet ry
o om
Ġrelig ion
ocr atic
G M
Ġstudy ing
ov ation
inst ein
atur ally
ĠB us
ĠPal est
Ġdisplay ed
ĠHot el
Ġeduc ational
ĠD eb
Ġinput s
ĠMon te
Ġperiod ic
ĠLie utenant
Ġin duct
Ġfrequ encies
Ġestablish ment
Ġ( {\
Ġworld wide
Ġs oci
ĠP ath
Field s
Ġan om
Ä «
Ġuniform ly
d ash
Ġhigh way
Build ings
Ġfluctu ations
18 70
the re
com b
Ġprof iles
S ION
ĠH erm
Ġaband oned
## #
cy cl
I E
Ġp ione
Ġmod ules
ĠM icrosoft
Act ive
ĠPortug al
P rim
Ġpaint ings
ĠExec utive
Ġpl as
Ġjo ining
ang el
ject ure
L C
ah n
Ġdescrib ing
ĠR est
in ating
Ġpop ulations
Ġconv ersion
Ġpublic ations
ant asy
ĠLeg islative
Ġem pir
ĠVill age
Ġorb ital
% ,
Ġimmedi ate
Ġperturb ation
I mp
ourn ament
el le
ĠJ uan
Ġr ival
ordin ate
_ (
w ig
Ġconcern s
ĠIslam ic
ĠAnton io
level and
ĠUk rainian
Ġpand emic
um ption
ÃŃ n
Ġext reme
ess ions
Ġste el
Ġfle et
c over
ar on
Ġad vent
Ġcom ments
ĠHer itage
Ġent rance
S pe
ce il
w ords
ph ase
Ġv anish
ĠLouis iana
P AR
Å Ł
An y
Ġstri ke
P M
Ġadapt ation
Ġm ent
Ġexpl os
ĠN ig
che ll
ĠInst ead
l on
writ ten
Ġst adium
ĠD ick
Ġcorre ctions
conn ected
uns igned
Ġhum ans
est yle
Ġres erve
M al
itect ure
Ġb rain
__ (
hent ication
down arrow
her ical
Ġm sg
ĠDet roit
_ ,
ret ch
Ġvar iant
189 5
Ġag o
Ġens emble
j pg
en z
item s
Ġd ynasty
ĠUn it
Ġre ign
Ġa head
ĠF il
Euro pe
m ock
Ġh ybrid
Ġread y
)) )
ĠĠĠĠĠĠĠĠĠĠĠĠĠĠĠĠ ĠĠĠĠĠĠ
Ġfin ishing
ili ary
Ġstrict ly
Ġr uled
Ġtra v
fri end
Ġm yst
Ġc riminal
ĠN OT
ĠB uck
Ġis lands
struct ure
Ġp od
Ġat oms
ĠE ag
Ġloss es
ĠSt art
Que ue
ĠD ublin
ut s
Ġsp ac
ĠB ou
at iv
ĠF A
Ġsche mes
P e
S pace
z one
im pl
F lor
Ch annel
Ġcap able
ĠP ed
Ġacc ret
ĠU l
Ġch ance
ts burgh
force ment
Ġfound ation
ĠSup pose
Ġfeed back
Ġsur g
ject ive
incor porated
con duct
U K
189 6
Ġde put
Ġap art
Ġmodel ing
X i
G r
Ġ\ &
Ġro utes
Ġeng ines
ip her
Ob j
Ġpolynomial s
av i
atur day
se lected
189 7
Ġj son
Dis play
d ale
ic ide
ĠOr chestra
ã Ģ
Ġinv ited
Ġbenef it
ĠJes us
Ġdefinition s
ĠA re
ĠF ourier
Ġcor por
ac le
in ch
ĠIm perial
Ġview ed
ĠHig gs
W R
e ast
ĠCont rol
Ġconj ug
St r
Ġcerem ony
U RE
Ġsens itive
Ġad ult
bor ough
Ġv o
Ġclos ure
ĠH as
Ġk ick
Ġpre v
Ġv oted
ĠN et
Ġin clusion
ab y
an al
h ome
ĠLiber al
ac on
Ġinstance of
ĠF ern
ĠAb d
Ġrem ote
Ġmov es
Ġcontrol s
Ġd ry
ap shot
ĠSt r
Ġliqu id
Ġinv asion
Ġo vers
Ġex cell
^* (
ig e
Ġres idual
Ġaccount s
Ġorient ation
S end
ĠR ub
ĠSim ilarly
Ġt ight
Ġm ist
Ġdiam eter
ĠB ry
a ire
up l
Ġpass enger
gress ive
cul es
ĠA le
ad min
Class es
tx t
Pl ace
ĠRes erve
Ġf itting
ĠK u
Ġaccom pan
Ġunivers e
Ġpol l
rang ian
ĠC ow
Ġdr ivers
ĠInd ependent
Ġn ick
ĠU ser
Ġequip ped
im ore
ĠCons ider
Ġsol ving
ĠWalk er
Ġorth ogonal
Ġres igned
ĠV in
us al
ĠAdminist ration
ĠN am
ab et
Time out
g ate
g rade
ĠC hen
ĠF ace
Ġt all
ĠĠĠĠ ĠĠĊ
ĠHar vard
Ġpan els
Ġmod er
It alian
Japan ese
Ġpolar ization
ii i
Ġl aid
Form er
h ab
ĠP ap
Med al
R ober
ĠEd inburgh
Ġinj ured
ol id
Ġp refix
ĠD VD
Ġt ropical
assert Equals
Ġman uscript
ĠE very
EC K
n ik
or ro
ĠIndones ia
Ġm us
are a
Ġquadr atic
ĠM rs
Ġprom pt
enez uel
ĠFreder ick
ro c
or er
Ġany thing
Ġl ay
Ġpropos al
he astern
Ġp un
S n
Ġback ing
Ġdist ances
P Y
z ing
ĠBow l
pl ays
Not Null
Ġt ack
bold math
ug ar
D iv
E st
Ġr ating
S an
Ã «
Ġdr iven
Ġ$ ^{
Ġhe ard
Ġsup ers
ĠHT ML
ĠT un
w ill
Offic ial
Ġf rames
Ġanim ated
ĠAl an
ĠIm age
Ġcompet e
em ail
IT Y
ĠMe an
Ġrecomm end
w rap
is ot
az ines
b lem
\| _
Ġde viation
Ġdis appe
Ġalgebra ic
Ġe ye
Ġpubl isher
ĠSing h
| $
ĠGe V
Ġtyp ename
ĠFin land
ĠM aur
Ġbran ches
ĠT ar
ĠOper ation
fin ite
Ġst ead
Ġj unior
B P
iss ue
Ġconv olution
Ġbo at
) (\
Ġdo or
Ġconvent ional
Rail way
) }.
Ġform ing
ĠAust rian
Ġc yl
GB T
ĠH ills
ub er
Ġdeg ener
ĠOr th
Ġexper t
or f
ĠAn y
oc he
Ġ ).
Ġ elli
| ^{
pr imary
Re lease
Ġrecord ings
Ġgreat est
ĠSam uel
ĠLang uage
Ġl ift
Ġwindow s
W idget
Ġs ale
Ġdiscover y
f ather
Vill ages
ĠSt ew
Ñ ĭ
Ġad vers
Ġcrit eria
Ñ Į
H istor
Ġper haps
L ock
ĠG a
Ġs ell
b us
Ī Ĵ
d in
oust ic
ĠB lo
all as
ĠE arly
ird s
Ġcl ock
rins ic
Ġform ulation
-> _
ors es
FF FF
Ġcast le
re present
ĠC ensus
n ol
Î ±
cm d
ĠLa ure
*} [
ĠR ic
Ġ{ {
ĠRober ts
Ġinhabit ants
ynam ics
ist ing
In ternal
Ġenh ance
ĠFri ed
Ed itor
foot er
ĠR ol
ĠArk ansas
Ġb atch
ĠTod ay
Ġprec ise
l arg
D T
in ian
ir i
uz z
G ame
ĠK ur
Ġhom es
or ient
m illion
Ġclos er
Dav id
w ave
Ġcon vention
ĠK a
ĠDon ald
as a
Ġh its
Ġrev olution
M ich
Ġh ired
Flo at
Ġ' /
Sh ort
or us
Ġarr ival
OD O
ĠBang ladesh
n amed
Ġac id
M iss
~ (\
Ġinvestig ated
ownt own
annot ation
Ġcoll ision
Ã ł
own ed
Ġinterest s
Ġloc ality
inst all
ĠB erg
int end
uk i
ĠMat the
Ġuncertain ties
Ġscen arios
ĠH ug
Ġen v
Ġexpl ore
Ch anged
Ġcomp atible
du ces
Ġsubject s
me an
Ġrequest s
ĠL anc
ĠC ulture
Ġb an
Ġv align
ĠT ig
Ġm oments
Att ributes
up arrow
Ġvol unte
Ġcont ribute
ĠR ang
Ġran ges
Fe ature
o i
Ġag ree
Ġtri es
Ġque ue
}$ \
ĠM S
Ġf itted
Ġh ur
Ġt el
ĠComm ander
Ext ension
ĠA ud
ĠHol lywood
ĠHistor ical
Ġmet all
Ġan th
Ġsup pose
ĠInd ex
im its
Ġphot o
Ġelect ro
Ġweight ed
Ġex port
[ $
Ġh am
M F
Ġident ification
Ġprep ared
Ġ" /
mer ce
ĠG arden
sing le
Ġtw elve
leg es
Ġre in
G P
mult line
Ġbo ost
ĠF alse
Ġaccom mod
Ġisol ated
Ġeng aged
ĠDef ault
ar ithm
Ġsecret ary
ĠGu ide
ĠG irl
Ġtop ic
Ġsystem atic
ĠB uff
g ame
Ġbas eline
( !
ĠM iami
w ho
Ġsens itivity
ug ment
p atch
ĠHung arian
ig ious
Ġag ency
ail and
ĠF arm
Ġstand ing
//////////////// ////////////////
Ġderiv atives
Ġb its
Ġcom ic
Work s
d ers
T T
Ġelect rons
F unc
Ġ" "
Ġhost s
$ }}
Ġc ref
Ġrapid ly
ĉĉĉ Ċ
Ġcon crete
Ġdis order
ĠTam il
U V
ĠMalays ia
ĠS E
ĠMay or
Ġpra ised
, âĢĿ
se p
Ġne arest
ĠR ugby
Run time
Ġpenal ty
ov es
Ġanim ation
ot he
Ġvalid ation
Ġre ward
Pat tern
ĠN E
Ġex it
Ġexpect ation
ish ops
co in
add r
ten ance
et ing
ĠA S
play er
O O
ĠN ob
pt o
ĠN ar
Ġconstitu ency
Ġtempor al
Ġast ron
ev ents
Ġstrateg ies
y cl
Ġp aram
Ġrelationship s
Ġpers pective
ĠCE O
f all
n m
Ġexp ed
ĠS N
ĠL INE
Ġint elligence
ĠLaw rence
cy cle
{ (\
ĠF all
Ġcomm itted
In it
ro le
Ġmunicip al
Ġsk ills
Ġhom ogeneous
Ġbut ton
MA X
Ġparticip ate
en ian
ly ph
188 9
cer ning
Ġt ang
ot ional
Ġm ir
Ġocc as
ĠB art
it als
oc a
Ġtarget s
) ">
1 15
} /\
Ġ\ |\
Ġsatell ite
Ġdeliver ed
; <
. *
Sh ow
do or
f ony
) _{\
C N
189 2
ĠL yn
$ ^{
m ut
Ġpix el
ĠC R
Ġrestrict ion
ĠN atural
189 4
Ġtrans itions
ĠW ard
ĠM Ps
Ġcommun ic
Ġb ishop
Ġcollection s
Pro duction
Ġdom ains
ĠC opy
Ġat omic
ĠPet ers
. $$
Ġle af
Ġearli est
The y
th read
Ġth ing
met adata
Ġval ley
ph al
F ull
ĠT reat
189 3
ĠMc K
text up
ĠPro p
Ġex pos
Ġread s
um ps
e ctions
ĠSever al
Ġf ly
Ġprofess ion
th ick
Ġdecre ases
ploy ment
Ġsec ure
ĠTra ining
em en
ĠD ave
put ed
Ġstraight forward
Ġa ux
Ġd anger
refect ure
ra k
B ur
dep th
[ :
B egin
H ow
Ġdis miss
J ob
Ġf an
Ġevery thing
c am
ol as
Ġsever e
Ġdec ade
Ġexhib it
Or gan
rum ents
ĠR ound
Ġinst ruments
Ġinv alid
Ġbir ds
ĠHung ary
ĠI ron
P erm
Ġsh ut
Ġinvest ment
Ġsp here
ograph ics
Ġmin ing
B it
type of
ĠI mm
Ġpres ents
ĠS R
Ġre new
Ġpers ons
ar ity
ort ion
188 5
ĠU tah
s ym
sc roll
R ussian
ent er
J ECT
m ag
ol ph
ĠRail road
om as
ap olis
S ur
erv ing
Ġindependent ly
Ġste am
er on
at en
Ġfav our
Ġremain der
ĠR ot
ct ic
ĠDef ense
Ġcol span
n est
R oute
Ġh ope
it udes
D ialog
Ġrequire ment
Ġarch ae
ra ble
ĠPal ace
pr ising
Ġf ib
F ran
ĠIn vest
dition al
Ġcon vers
ĠM C
re tt
child ren
Ġcricket ers
ĠPro cess
Ġbuild er
text sf
ĠAf ghan
ir cles
Ġabsor ption
cast ing
Ġunder stood
Ġcoll apse
ĠOtt oman
ĠB ox
re nd
at ivity
c b
á »
ann y
}. }
ĠR ap
ĠN ode
ition al
Ġd ialog
ĠDig ital
ĠCommun ist
ather ine
Ġclass ic
Ġarm ed
1 12
10 5
ĠP ear
Ġf alls
ĠV ideo
Ġl es
Ġacc used
ĠS af
ĠAl ban
f ail
$ '
Ex ample
ĠAg ency
ual ity
Ġstop ped
u is
H R
Ġsignific ance
Ġdiff usion
Ġb ed
rom agnetic
Ġland s
ĠH ind
18 60
14 0
ill ed
L R
Ġleg end
ĠAd vent
Ġmembers hip
=\ {
in variant
e a
ĠL ib
et he
Ġsimilar ity
Ġch apter
T otal
ĠDe ad
Ġv ision
f ol
s eries
ĠDep uty
O F
Ġre construct
ĠTrum p
f r
TE D
is ode
ip ped
FI LE
l oss
) >
Ġt ell
que ue
ĠMed icine
ĠM anu
Ġd ies
ĠP rad
Ġcirc ular
Ġdesc end
ĠT it
b ach
ĠJ un
stack rel
dist ance
ĠMont real
m aterial
Ġm ort
h fill
b ridge
Ġm al
Ġoccup ation
ĠO bl
)} (\
Ã³ w
Ġto t
Ġgood s
rap y
S eg
Ġcarry ing
ĠWel sh
RO M
C am
ĠAtl anta
eg et
Ġpremier ed
ĠP ad
Ġd im
ĠK on
Ġrequest ed
\! \
") ]
ĠDe ath
ĠR yan
unic ode
ĠA mazon
Ġd t
mon th
Ġ( _
aval ry
ĠS I
M er
Ġ io
Ġoper ates
ST AT
is lation
e lection
Element s
ĠMet ro
Sing le
ĠJoh ann
bin om
Se lector
ĠN ash
ĠAn na
Ġcru cial
ir ation
Polit ical
Ġgener a
Ġw arm
Ġqu ot
Ġconnect ing
189 1
ph an
Ġne ither
Ġvol umes
Ġdiv isions
math tt
J ames
ĠL as
Ġpri ze
Gener ic
Ġp up
e o
erv oir
p ubl
ĠG on
as et
ĠLINE AR
M arch
vert ed
Ġm ob
st ates
R ich
ane ous
Ġextract ed
} >
F IG
s ymbol
=" /
ĠPe ace
Ġround s
Ġent ang
fl at
Ġdepict ed
ĠAss oci
&= &\
ĠSc ient
man if
Ġroad s
oc racy
J SON
It ems
sche ma
Ġseg ments
KE Y
Ġn ortheast
rupt ion
Sum mary
li ed
el ian
Ġd ial
Ġpurch ase
Ġpercent age
th rough
ke ep
Ġregular ly
Ġexperi enced
=" ">
ib l
Ġed ited
han ced
Ġre vers
ĠB ed
Ġ _{\
M ount
Sc ott
In v
ĠSh ah
app ly
Ġt ank
Ġmin ute
ĠK evin
p in
ĠU E
AR Y
Ġre ception
Ġd ict
Ġdesign er
ĠOper a
Ġeth nic
il st
sp in
Ġjob s
Ġrecover ed
Ġarrang ed
h ave
Ġn aturally
ĠDom in
ĠAl ice
Ġfrag ment
s ample
P aul
Cl ick
ĠVi enna
ĠS S
bl ed
Ġb reed
O wn
assert Equal
ĠDe ep
Ġelement ary
pre c
is ition
Ġassoci ate
ug oslav
ĠCor ollary
Ġform ul
ĠP i
Ġcondition al
Ġlik elihood
Ġneutr ino
Ġv ot
Ġstruct ural
X T
bar a
ĠCh ampion
ĠF ight
Ġdens ities
Ġd oll
Ġsevent h
un ities
ĠJos Ã©
Ġtrans verse
prob lem
F iles
ĠPubl ishing
Ġprodu cers
188 8
es is
ĠDis ney
Ġ[ ];
ĠR ick
pl ugins
le ased
Ġsim ulated
il k
left arrow
erm i
ine a
Ġ ray
lem an
St and
print f
P ackage
L en
1 13
Ġretain ed
Ġaccom pl
Ġrandom ly
function s
Ġfac ilit
ĠP un
" `
Ġ-- -
T erm
viron ments
is ations
Å Ħ
Ġun iqu
Ġw aters
Ġground s
U ID
ĠP sy
Ġst abil
leq slant
ast e
h h
ĠD M
Log ger
Ġpass engers
place ment
Ge V
ĠDef inition
iver pool
t oggle
d ig
Ġschol ars
Ġch air
ĠC P
DE BUG
bass ador
Ġt error
Ġs ed
ĠSoc orro
ĠC atal
ĠL ear
ĠC A
Ġsche dule
H am
$ /
ri ed
ins ula
Ġresear chers
T F
Ã© n
Ġst yles
Ġun us
et ry
ĠB oys
' ve
fl ags
ĠF al
ific ial
ic he
Key s
ON E
requ ency
Ġstrong er
S QL
ĠNew ton
Ġphil osophy
Ġirre ducible
un ing
Ġf ired
SI ZE
F ore
Ġagric ultural
A ugust
Ġres idence
ĠBl ock
Ġcan cel
spec ific
Ġcent ers
Ġpres erved
Ġman ip
pass word
Ġmar ine
ĠMet ropolitan
Ġnot ably
' d
ĠM es
th rows
du cer
Ġsubstant ial
$\ \
Ġv irt
ĠR ace
b d
Ġplatform s
Ġj Query
Ġre aches
( @
sh aped
Ġb inding
Ġimplement s
ĠWork s
Ġf lying
Ġpaint ers
Ġg rade
Ġsee k
pos itory
ob a
ĠC urrent
Ġdistingu ish
Ġran king
ĠPro t
ĠAlf red
am an
mar ks
ĠMount ains
ill o
ĠRoman ia
to ol
Ġaccompan ied
ty ped
Ġh tml
ĠR io
Ġacc um
ley ball
Ġ\ [
ĠM ission
Fl ags
ming ham
ĠCon fig
ĠKar l
Ġsub space
s un
18 65
ĠSe attle
Ġcontinu um
ĠCh amber
Ġop inion
ĠTh ailand
] ^
ok a
Ġkeep ing
Ġcounter part
Ġpr on
Ġmechan ical
Trans action
Ġinv ent
Ġf n
ov ing
Ġl ib
st ances
Ġbusiness es
Pro xy
t ensor
Ġrun ner
or row
Acc ount
iem ann
T ube
ĠC S
Ġchalleng es
contain s
Ġwith d
Ġtem porary
erb ai
Ġpartners hip
Ġa u
ĠD NA
() ).
Ġep och
ĠKn ight
Ġp ars
Ġthan k
Ġgradu ate
ang ing
Ġinf rastructure
g ow
Ġ} }
g ray
h ai
Ġfl ags
Ġshoot ing
Ġbelong ing
ĠD ie
ĠB etween
Ġreg ression
cl uster
ish ment
; /
Ġinter pol
Ġanalyt ic
Ġn g
Ġphot ograph
Ġc risis
Ġam b
Ġload ed
t age
Ã¨ re
) &
ĠHamp shire
ĠC leveland
ĠEx p
g ather
ug s
È Ļ
Ġsmall est
Ġcompos ers
ĠMar ie
)) );
f ixed
Ġunivers ities
1 14
Mem ory
Eng ine
Ġa wait
$ ^
Ġb low
Ġrest ored
ĠMor gan
ed ding
LO G
c ia
ĠN ic
ĠT ag
Ġscient ists
Ġcolon ial
ĠF ull
Ġpri est
l ia
Ġp uls
ĠAd ams
ĠB ull
sim ple
Ġdef ining
\ },
d p
ĠD ance
Ġw rest
Ġjav ax
Ġres ign
ĠCh airman
Ġcho ices
or ous
Ġqu as
l g
ĠRuss ell
on ian
Ġh alo
ĠMarg aret
In s
ĠCont in
u on
ĠO ri
m el
ential s
Ġsurv ived
Ġ ri
art icle
Ġres id
os ed
ĠDe an
188 7
ho en
Ġbenef its
ov iÄĩ
Ġsing ing
th a
hel p
Ġpat ient
ĠKel ly
Ġs ter
ib ilities
Ġrail road
Ðµ Ð½
() ));
isl ature
ĠH ilbert
A ir
U L
, ...,
ĠMc G
Pro position
ĠT ak
n ia
m ac
Ġfranch ise
Ġlog ic
}[ !
k ens
Act ivity
Ġsup posed
Ñģ ÑĤ
b one
ĠV ik
ĠS ac
ĠC rown
ident ifier
Ġa cknowled
Ġcomp ens
ĠĠĠĠĠĠĠĠĠĠĠĠĠĠĠĠ ĠĠĠĠĠĠĠĠĠĠĠĠĠ
u h
ĠK ings
Ġowners hip
m ask
C ur
Å ¾
Ġv ic
ĠG R
Ġpost erior
Ġmed icine
L ayer
ĠP C
sum er
script scriptstyle
Ġthous ands
ĠN i
to ols
E P
config uration
ad ers
Dat abase
m ove
Ġcour ses
hib ition
Ġtun nel
K n
Ġin ference
Ġsol ved
mid rule
Cl ose
Ġstat ements
ĠM agn
ĠG irls
pr ison
Ġ\ {\
}^{ +
oun ced
f ront
b ow
F ail
Ġal gebras
in her
ut ative
Ġembed ded
Ġm ilit
g overnor
Ġdam aged
ĠN eb
Ġs we
$- $
ĠAll iance
Ġlat est
ibr aries
Ġm ig
ĠMain e
ip er
ĠA BC
Ġcompar able
] :
m iral
ĠVol ume
og y
in du
Ġtransform ations
ĠĠĠĠĠĠĠĠĠĠĠĠĠĠĠĠ ĠĠĠĠĠĠĠĠĠĠ
Ġc rown
n il
Ġh uge
Ġnorth west
CT ION
Ġmet ers
ev a
Ġpotential ly
Ġw a
s ome
Ġm it
ĠE dition
ĠCon stant
ar us
M ag
ĠL ower
now ledge
ï ¼
d ensity
ĠKenn edy
ĠK l
L ater
Ġass ault
ĠR ural
im ir
con c
table block
Ġpro position
Ġpract ices
' ll
P rior
ĠRog er
188 6
ult an
ex pect
Ġconf irm
rupt ed
cl ide
ct rine
Iter ator
Ġexplan ation
Ġassist ance
ort on
11 1
Ġpoint ed
aw ay
ran ean
ĠM ol
Ġatt ributed
Ġin duction
Ġ ~\
um ar
ĠPit tsburgh
Ġc ited
ĠA P
Ġrecomm ended
ĠThom pson
big cup
i op
Gl obal
ĠM ong
Ġcl er
Ġra in
ĠBru ce
b ishop
Ġconsider able
Ġret riev
s ave
ĠCom ics
Par se
ch y
ĠR ud
Ġdis contin
Ġdisp ersion
ĠT HE
Ġincreasing ly
Ġd b
ĠCo oper
ĠUp per
O C
Ġprefer red
cept ions
An not
gra v
com plex
. __
Ġathlet es
ĠDak ota
ĠF ive
Ġap plies
inn ers
Ġneigh b
S equ
Ġdef ensive
ĠR an
Ġc aught
ĠH orn
Ġde pos
eg as
Ġm ine
ĠE ver
s ys
Ġcorrel ations
Ġd uty
ĠC are
ĠN ep
ĠH ell
ĠStew art
1 17
Ġcred it
Ġpopular ity
st ats
ĠL ithuan
pat tern
ed it
Ġdeput y
\ }.
Ġk id
Ġj unction
Ġh un
Ġre verse
iter ator
Ġca ref
ĠL P
Ġproper ly
Ġmechanism s
col l
Ġspec ify
Af ric
Ġjourn ey
}) ^{
Re al
Ġtri angle
com ponents
amp s
ĠG ran
ĠV enezuel
lim inary
Ġg ran
Ġhard ware
ĠC arn
Reg ion
ĠAg ric
sec urity
ĠU lt
Ġadm itted
ĠU V
Ġlabel ed
ĠUp date
Mult i
er os
Ġnav igation
Ġrob ot
Ġreg iment
overs et
S ocket
list ed
ĠBrother s
ov o
Big g
re hen
Ġsign s
ĠAr n
y y
18 64
ĠT R
Ġdest ination
Ġf unc
3 60
Ġc av
vol ume
ĠRe port
Ð¾Ð ²
Aut o
cent ral
w p
sp irit
Ġann iversary
ver age
D ouble
Ġm eta
ĠBe at
man ager
ev ens
t mp
ĠC NN
ed itor
Ġc od
d ated
j et
Ġjust ice
Ġw at
T L
A uth
Ġinterpret ed
Ġinteg ers
Ġconcern ed
Ġd og
Ob serv
ĠA M
Ġdistingu ished
ĠJ u
pro pto
Ġrece iver
IC E
K e
10 2
Ġa ugment
Reg ister
Ġb id
Ġl aser
Ġbig gest
ĠColon el
& &\
H D
Ġinter vals
Ġpubl ishing
{ .
t ed
u able
r b
Ġredu cing
Ġtraject ory
P ack
ĠC ass
Ġim plicit
Ġph one
umb ent
Ġgu ide
il ine
Ġaver aged
ĠO d
or o
Ġrecover y
M sg
Ġperm ission
Ġvict ims
in ist
Ġhor izon
Con f
w right
drop down
Ġapplic able
ĠZ e
Ġmy th
Ġwhe el
Ġrespons ibility
roll ing
clide an
ĠA rena
Ġsy nd
over ty
Ġb oys
Î ¿
ĠM aj
ĠG ets
ast s
Ġsepar ately
Ġh ill
Ġleg islation
Ġd ip
10 4
âĢ ¦
Ġven ues
ĠOrth odox
++ ;
Ġdraw ing
ĠS aturday
Ġg ather
Ġanal ys
ĠN eg
ĠCh art
ĠT ol
ĠY ang
apt ist
Ġgreat ly
ĠR ight
C ref
ĠG ulf
var rho
Ġex erc
ĠChe m
ĠG ray
ar ma
r f
Ġs lope
Ġdebut ed
Ġrat ios
ĠBalt imore
ĠH end
ĠPr incess
Ġcritic ized
VER SION
Ġg rows
ĠM ond
Ġs now
Ġhead s
ĠV AL
ĠGl as
p ay
A rm
) }$.
eng ine
ĠN ord
Ġresident ial
ir ates
Ġdiscuss ions
Ġv eter
Pro file
m oment
Ġent ering
ç ļ
Ġrac ial
Ġelim inated
ter ior
et ary
188 4
Ġro oms
ĠT s
val ued
Ġf iber
Ġpo inter
ĠLag rangian
Ġstation ary
her ic
Ġro ut
os itory
ĠObl ast
le e
ro b
Ġd ir
I B
Ġreason able
C red
Pl ugin
G rid
P al
Ġhel ps
Ġbring ing
k ee
ac count
18 50
18 61
ĠAust in
pp ing
ĠK an
Ġunit ary
aps ed
i ere
se q
ina e
le ans
ĠD ub
E V
Ġ ip
des ign
EE E
um ed
yn chron
Ġjud ges
Ġterm inal
G reen
}{ {\
Ġperform s
ĠMad rid
ĠSe ason
Ġs ud
ĠC it
S Y
ĠSoft ware
ÑĢ Ð°
Ġsuccess or
Ġthan ks
tr ivial
Ġsim plicity
Ġfe as
Ġkil omet
h al
bo ost
ass ets
hand ler
99 99
Ġn a
ĠTh ough
c ounter
Ġcompar ing
ĠÐ ¿
Ġestim ator
le an
os c
Ð ·
j amin
Ġh al
n an
al ph
ĠCamp bell
Ã ª
() {
o es
Ġr u
re p
ĠN elson
ĠO ption
t ry
Ġmathemat ical
Ġs elling
Ġmov ements
C ategory
Sup er
Ġanaly ze
f d
duc ational
se par
p u
ĠAuthor ity
oper ator
Ġempir ical
Ġord inary
ro v
ĠSen ator
ia h
ĠChrist opher
_{ +
ĠL iverpool
an ion
ĠEx ample
Ġconver ges
ĠRob inson
ou ver
Ġtown ship
Ġreson ance
Ġfinal s
Ġpseud o
Ġpix els
over ning
if le
ĠG ill
Ġp ole
ĠIO Exception
ĠH ash
g ments
ĠMunicip ality
ĠLank a
Ġm o
J une
! "
T ABLE
Ġactiv ist
ativ istic
ig ate
Ġad min
i ac
ĠPol icy
188 1
ĠAthlet ics
Ġn ar
ab out
? "
ĠU pon
p end
ĠL ane
ish ments
ĠYear s
Ġrec urs
Ġresol ve
ĠS mall
ĠW on
Ġapp end
Ġcons ervative
lear ning
se a
per iod
Ġaccret ion
Ġgener ators
}{* }{
Ġkn ock
as m
Ġdiagram s
ĠMor ris
ĠC rit
ĉ čĊ
Ġ{ $\
th an
Ġat om
Dem ographics
ol ia
ymph ony
Ġsu it
ĠD ocument
Ġsk in
S N
ic ht
\ }_{
Ġp itch
onym ous
ĠEqu ation
P H
Ġstar red
Ad apter
ĠP ack
ĠFrank lin
Ġimp ly
Ġf old
Ġrem ember
Ġsh ares
ĠB ud
az e
Ġinst ruct
Ġoffer ing
Ġfail s
ĠBern ard
un ately
ĠMarsh all
Ġint ent
Ġext ensions
mar ine
Ġdecre asing
op al
A pril
N ULL
ĠW right
f ish
cite alt
Ġut ility
Ġs ym
ĠAthlet ic
Al umni
g i
ou ter
En um
Head ers
Ġim prison
ĠE dd
Ġsw it
u ct
Ġhapp ens
gener ated
Ġcompet itive
ĠWeb site
Ġexper iences
Ġstre ets
ĠB ush
Col lections
Const raint
Ġref uge
h idden
sub equations
Ġspe aking
ign ment
Se ason
ĠBrook lyn
Ġoff ensive
ar ial
188 2
Ġcred ited
Ġm ile
ĠCar lo
nt il
ĠCar ter
Ġwhe never
ĠB asketball
Ġb rig
small skip
Ġtype of
Ġhapp en
n p
Ġn aval
ĠN ad
M art
u ilt
ĠT rade
Ġb ars
ort ed
] =
Tra ce
Ġdefe ating
çļ Ħ
Ex pr
Ġte en
Ġconcept s
h ill
Ġd ating
Ġm outh
/ .
ĠLeb an
stand ard
key word
h alf
de ep
ĠC er
ĠR ico
cont roller
Pro fess
Ġsouth west
g it
iter ranean
lap se
ĠPat ri
Ġcour ts
ĠStan ley
Ġr ivers
iz ers
Ġcom plicated
18 62
ĠS port
Ġt ied
Ġb anks
in istic
\ [\
Pr int
T own
ĠB omb
M atrix
ĠP A
periment al
ro ve
Ge orge
Ġun success
F ree
m und
ĠĠĠĠĠĠĠĠĠĠĠĠĠĠĠĠ ĠĠĠĠĠĠĠĠĠĠĠĠ
Ġrestaur ant
B ound
Ġmer ger
! [
C ert
Over view
by tes
ĠCar ib
Ġcomp lement
ĠD aily
ial s
ĠFI FA
18 63
Ġassign ment
ĠRef orm
iv an
& #
van ced
Un ivers
Ġas ync
ĠSchool s
Ġplas ma
tr im
pro fit
Direct ory
Ġb ases
Ġs outheast
Ġmanufact uring
Ġg ang
Ġhead ed
O ctober
sw itch
t ar
Sp anish
Ed it
ens ively
Rober t
ag ger
. :
e enth
pan ic
Ġe yes
ĠF ood
not in
}^ +
ĠB orn
Ġang les
Ġreve als
Ġbusiness man
Ġcompet ing
f iction
ĠMov ement
ra pped
Pl ayer
Ġcritic ism
R ob
Ġpaint ed
10 3
ĠCon vention
ĠPri or
Ġh oles
Ġf iled
if def
Ġprison ers
og a
'] )
Ġtri ple
res ize
Ġcont ents
ĠT ournament
Ġst ood
Rec ip
Ġc ous
new line
writ ers
N T
ĠY an
Com ment
m ay
Se ptember
ĠF uture
ĠMur ray
ab i
J uly
M oths
m ate
ĠM ake
Ġw ounded
Ġeigen value
ant i
Ġdi agn
Ġlog arithm
ĠSt age
el lect
Ġtransl ate
F in
ĠBir mingham
Ġt ables
ex pr
B en
Ġre q
part icle
p refix
ĠK it
ĠW oman
ick ing
th ree
Ġp ipeline
Ġen vironments
ĠP refecture
sc ious
ĠOr leans
S yntax
Ñ ĩ
F E
( __
W eek
Ġprov incial
P anel
st e
Ġgr ass
O ld
ĠP ut
Ġjournal ists
sort Value
Ġcom ed
Ġland scape
st ory
Ġsem antic
Pro duct
1 16
ĠD allas
Ġtr unc
Ġs ending
ĠE mer
r int
b oth
is en
ĠBelg ian
Ġcomp rehen
ĠSar ah
ĠRef er
ĠS ite
", "
ĠEconom ic
M ass
Ġhe ter
Ġra p
$\ ,
athe red
get Name
ĠS ax
ĠDef ence
h arm
id ay
) }$,
rid ay
Ġcon cerning
n odes
ĠSup port
Ġf est
ĠCat hedral
B i
Ġ\ }
Al bums
text normal
Ġs aved
ul u
ri el
A li
Ġdec isions
__ __
ĠCap ital
tr igger
Ġ Ø
appro xim
l b
Don ald
Ġcent ered
Load er
er as
pl ates
vert ex
ĠO k
ĠCarl os
Ġf ruit
UT F
Ġgl ob
Ġmem orial
Rec all
al ymp
Ġwrit es
sequ ence
Ġme ets
Ġinst ruction
ĠGra ham
block List
Ab stract
h us
N odes
os opher
r ift
Ġphot ons
ĠM ack
Ġiter ations
ĠV ari
Ġmark ets
Cl uster
om p
ĠGu y
ĠCent ury
RE AD
ĠR y
Ġweek ly
Ġspl itting
B r
Ġdifficult y
Ġrele g
Al so
In f
v ideo
ho ok
Ġw ish
$ &
up per
12 7
Ġwor st
web pack
Ġthe ater
Ġchalleng ing
Le ague
tri angle
c z
ann on
Ġ å
Ġcorrespond ence
ĠOrgan ization
Ġreal ized
en able
D est
ĠM ars
Ġ ĉ
187 8
ĠAp ple
St ation
ĠH um
}) =\
ter y
Ġpeak ed
est one
Ġupd ates
def n
Ġas k
Ġag encies
Ġorder ing
Ġse es
A uthor
S V
l ater
Ġsp herical
Ġorgan isation
Ġc ards
ot an
ĠMark ov
ĠW ing
ĠJ e
id o
Ġc ircles
Ġmorph ism
Ġs ight
D b
f our
et ition
onom ous
bel ow
Ã ¦
X ML
h um
ĠW restling
Ġsh arp
ab a
f are
Ġexpos ure
ĠSystem s
ĠNaz i
ĠH it
Ġcorrect ly
nol imits
ail ability
aud i
k ar
Ġsh aring
ĠL ud
Ġd uties
De cember
Ġher itage
Ġamount s
G O
Ġv oting
Big l
ĠA the
os ph
Person nel
hol m
end ment
ĠC ricket
Ġm ental
N amespace
ak ia
ĠRes ource
Ġwork er
is p
bound s
d ings
A z
iv ia
ĠA GN
ĠYork shire
s ig
ĠYou Tube
Europe an
Ġf ul
S al
N or
it ime
Ġhabit at
D ay
ĠChall enge
ĠT erm
Ġpriv acy
Ġcoast al
Ġhapp ened
Ġland ing
vious ly
ĠA qu
ĠP erson
ĠL ock
188 3
Ġdivers e
ĠZ one
Ġfun ctor
E ff
Ap J
ĠPr im
Ġpropag ation
agnost ic
Ġc tx
st age
ix el
m ill
P ATH
Ġw el
Medal ists
H ol
33 33
Ġr g
ne ur
ĠPh ot
O B
Ġdis abled
m aker
Further more
Ġb rick
| _
S cale
Ġdiv or
Ġnorm ally
^+ $
h our
l ined
Ġw allet
Ġelect oral
ag ram
Ġteacher s
em ale
Ġde leg
Ġgeneral ization
ĠMot or
Ġqual ifying
ĠW ang
Ġemer gency
Ġhydro gen
' =
Ġcre ates
d k
ĠAz erbai
ud son
ĠĠĠĠĠĠĠĠĠĠĠĠĠĠĠĠĠĠĠĠĠĠĠĠĠĠĠĠĠĠĠĠ ĠĠĠĠĠĠĠĠĠĠĠ
Ġcount s
Ġoper ational
t re
v ance
Ġpl ots
ul ner
ĠEv ans
Ġprinc iples
Vol ume
ĠLim ited
Ġjur is
Ġsum m
ĠB aker
ĠR ain
em or
Ġresol ved
Ġvess els
Ġout come
Ġguitar ist
ĠP ictures
uk a
H ome
ĠSerb ia
ops is
ĠE lementary
re z
Con dition
P an
Ġinter ference
c are
if ting
Ġrestrict ions
aut ore
um in
Ġdeb ate
ĠT ODO
Ġatt orney
Ġcomm une
}} ,\
Con struct
Ġl it
Ġnewsp apers
Th rough
ĠFinn ish
18 75
S ER
W ar
Ġsign ing
ĠNig eria
ĠPrad esh
Ġtop ics
ĠTro phy
Ġo x
Ġvac c
Ġcoupl ings
L iter
ught ers
J anuary
Ġcontrad iction
ĠE ston
H M
om ing
Ġw ants
Ġrec ru
ĠT rad
Ġturb ul
M ill
') );
ak u
Ġf its
Ġg arden
Ġinher ited
arn ings
Ġf ictional
Ġpublic ly
187 6
W AR
ind ependent
cept or
Ġs leep
Ġv eget
Ġsp arse
Ġan chor
Ġneut ron
ĠHawai i
L and
Ġpo em
ĠBroad way
M apping
Ġ[ [
Ġf aces
c ussion
Ġtransform ed
Ġ ],
ĠJim my
ĠCons ervative
ĠB illy
Ġis omorphic
ĠS hip
M a
ĠConf eder
ey er
ĠRes ults
com es
anc ouver
v v
Ġm m
Ġmet adata
sub stack
hat tan
Ã Ł
Ġmed ieval
Ġl ob
li er
v ement
is ons
ĠA C
Ġcoupl es
Ġch iral
lo ok
Ġcr ash
Ġsub section
ur ers
h ide
ro ck
ĠNorm an
Ġlong est
| _{\
usal em
S chool
Ġpre t
int ro
esc ope
Ġsitu ations
ĠE ss
Ġt ie
Ġd war
ĠY ugoslav
al ia
Ġg rey
E ast
hoen ix
ĠSt ars
U C
i u
Ġferm ion
A x
ail s
own er
pl er
Ġac oustic
work s
By Id
r v
UR I
r us
ac o
id x
ij ing
ul um
ĠT rib
cred ited
Ġg ram
J ew
ĠEq s
Ġart istic
ort ex
ling ton
Sim ple
ĠA ld
Ġtrad ing
init ely
ĠB eck
ĠU SS
Ġeven ing
id ad
av ior
ue z
f am
Ġconsum ption
Ġas c
Ġcrit erion
al is
ĠC os
ĠI van
G G
Ġoutput s
ĠPort land
ĠP ay
or b
ra ce
ĠJud ge
get s
Ġge odes
187 9
ham mad
en ers
trans ition
Ġmag azines
Ġgradu ally
Ġp ian
Ġlimit ations
Ġprob abilities
I MP
Ġalign ment
Ġso il
Ġmarg inal
ook ie
3 50
Nov ember
Ġpro sec
spe ed
Ġim possible
p us
sh op
Vari able
Ġcustom ers
Ġas sets
ĠH ad
hem atic
ĠF ather
ĠS occer
ĠD ictionary
Ġpro xy
on ce
ĠP R
\, {\
Ġtrack ing
bound ed
S cal
Ġg iant
sp i
Ġc up
I X
H ER
h n
NavBar Cell
ĠJ ason
Ġfrequ ent
TR UE
Po inter
ir ms
comp are
ĠTig ers
ĠDel hi
u art
ĠStud io
C ho
Ġcelebr ated
ĠT rack
Ġe mail
Ġro se
Ġconven ient
lement ation
const ant
Ġphenomen on
Ġrepresent atives
Ġren ormal
b etween
Ġexp ensive
Ġdecl ine
ĠMil an
u ity
10 7
ĠD J
U D
* )
oid s
inem at
res pect
h aus
Ġcy cles
ĠR u
ub b
Ġfind ings
Ġforest s
Sc roll
Pl an
> :
y cle
pl atform
ang les
Ġturn ing
Ġwith draw
Ġch amber
Ġdesc ript
\| ^
b es
um my
j query
Ġnom ination
Ġs ensor
Ġb ind
l floor
av an
Ġorb its
Ġtransp arent
ĠPier re
he rence
Ġlook s
Ġsusp ended
ĠGlas gow
B ecause
Ġf ault
ĠS earch
ĠV ic
et on
Ġaccess ible
claim ed
dom inant
ĠT ower
ĠT ob
sh adow
." );
Ġob st
ĠV I
ĠP os
Ġd ress
ĠP rom
Ġappe al
Ġda ughters
ĠDer by
f x
ĠB urg
rate gy
el astic
i ations
Ġchild hood
Ġin form
id en
ĠR and
c ient
count ry
Ġimprov ements
Ġpeak s
Ġn ations
ĠF el
ĠThe ater
ĠSt orm
Ġre nt
de cl
Ġv erb
ĠF ermi
Ġcovar iance
Sh ape
ric ane
Dist ribution
Su ccess
Ġmin i
Ġrece ives
d ashed
Ġst ruck
Ġhelp ing
Ġb on
te ction
Ġinf lation
Ġind igenous
ĠS eg
==== ==
nt z
Ġch rom
Tax a
Ġparticip ation
Ġne ur
p read
Ġprov ider
oth y
sh a
back s
ĠL ink
Ident ifier
Ġn an
Ġab use
sem antic
ou ds
ĠC ultural
ĠI ce
} ~\
ĠT ab
Ġh ook
Ġmix ture
Ġmod ify
9 00
Ġat tach
187 7
st ad
Ġsynt hes
V P
Ġmon ot
Ġprov ision
Ġpo ets
SC R
ĠUnivers e
^* _
T ur
ĠH ero
Ġpres erve
r floor
Ġfilm ed
ĠInd ians
Flor a
Ġcount ies
Ġil legal
J ust
Col l
Ġmiss ions
ĠJ azz
tem p
Ġsud den
Ġm esh
D etails
U ri
Ġres emb
f g
LE CT
ĠBl ues
t own
we ak
Ġrom antic
ĠT ree
ĠG un
d ynamic
ir k
op les
iz z
ent ric
Ġex posed
Ġcon dens
F ailed
Ġover lap
res et
Ġhand ling
Ġmain tenance
ĠPer u
Ġdeploy ed
187 1
ace ae
ĠP ra
Ġpresent ation
w he
_{ -\
ĠN ation
Ġinflu ential
J ava
clud e
Ġmunicip alities
Ġsurround ed
Ġfocus es
Ġatmosp here
h ow
Ġal coh
b rief
cel and
ĠG ary
Ġprint ed
om on
ĠF ine
lo yd
j k
St ruct
Ð ¿
Ġst im
aster y
Hon ours
" /
187 4
Ġtransport ation
18 67
re pe
v dots
ch arge
Ġtext s
Ġeas ier
Ġstead y
Ġde vi
Ġsize of
Ġ% }
Ġkin etic
IV E
Ġmed als
ĠF r
Ġpl otted
head ers
ge on
ik o
' $.
Ġreli ef
Child ren
Ġinstrument al
Ġsuper ior
ĠB orough
ick ets
P od
Ġstri p
du al
ĠOn line
m aking
enc er
Ġe g
Ġf ear
Ġflow ers
H en
Big r
Ġtrans mit
Ġcon e
Ġacc ord
Ġb rowser
ex pl
ip art
b oy
Ġp overty
ĠB ranch
est im
w ang
S ervices
au ra
F P
d etails
ĠM ak
Const ants
}} =\
Ġelect rical
ri eve
N OT
Ġo verse
ov ich
she ll
um ul
ĠM all
Ġint ention
ast rop
mathbb m
ĠAl aska
M o
Ġend emic
Ġd ated
ĠF ab
Ġco ok
W N
ot ton
A lex
un ique
ĠN BA
To String
18 68
au er
Ġvol tage
ĠN icol
ĠMatthe w
Ġp ulse
Ġguarant ee
Lang uage
cast le
ĠPro test
Ð ¹
l p
ĠSal v
el ines
rist ol
Ġc raft
att ributes
c pp
ĠRang ers
b est
10 9
c ost
ĠWar ren
Ġsound track
######## ########
int o
Ġcosm ological
ub le
Ġhundred s
ĠWay ne
Stat ement
Ġwar ning
st orage
ĠPr imary
Rem ove
) ->
ce iver
ĠF u
Ġtri als
Ġabund ance
Ġaggreg ate
B ased
om atic
hy thm
Ġass ass
Ġstay ed
ĠCarib bean
ant ine
Ġautom atic
Ġperson ality
Ġspe ak
r aska
ĠGu inea
ĠS P
et o
D epend
ĠA y
Ġa f
ĠT u
ff ff
ĠJohn ny
Ġmon ument
ĠL iga
C ity
Ġhistor ians
Ġchampionship s
Ġcancell ed
typed ef
ĠL GBT
ro d
Ġm oth
G old
v y
erm ont
P ers
tab s
}} )$
187 2
ĠL ad
Ġf ilters
ĠF itz
ĠElect ric
ĠMit chell
F act
rict ion
J ack
e cho
cor respond
Ġmole cules
Ġden ied
clip se
l m
Ġmach ines
ĠM other
Ġbu y
C rit
Ġrele ases
Ġc ounc
Ġcomb ining
P ER
Ġre tail
ĠR iemann
AL SE
L ou
AD D
Ġcollect ive
Ġph on
Ġrow span
Ġexped ition
Ġevery one
ĠAlber ta
og ue
Gener ator
ĠR ange
Ġaux iliary
ig o
EX T
Ġdis joint
gra duate
Ġ" ,
å ı
Ġp atch
ĠNever theless
Ġsurg ery
it ely
ĠDi rac
Ġ{ '
}\ ;
Ġexcell ent
} <
Ġweak ly
ĠS aints
ĠK os
ĠSte el
P refix
ĠV as
Pro gram
Ġentertain ment
let t
;\ ;
M OD
Ġcol leges
Ġdocument ation
ĠR acing
Ġref lection
$ _{\
Ġign ored
ho le
ĠC her
ĠC ustom
ides pread
fe ature
Ġsynt hetic
t b
h ot
bol ic
Ġaff airs
Te am
Ġequ als
Ġover l
Ġran ging
i at
187 3
h yper
Disc ography
ĠB ron
op ts
Ġ[ ],
Ġd ream
ĠPo isson
Ġvar ies
R ole
clus ively
Ġdisc ipl
Ã¶ r
err ors
ĠB achelor
B al
j u
ĠRoman ian
Ġvar iants
an alysis
ĠC ore
Ġg overning
fol io
Ġun like
per ature
Ġconf ront
IP T
Ġparliament ary
St ats
Ġ$\ |
prot ected
Ġsl ot
CH ECK
em pl
ĠPro perty
Ġconstruct or
Ġphot ographer
Ġresc ue
an ne
Ġconsider ation
U SE
Ġdou bles
IT E
ĠP ant
ĠRich mond
ĠB ased
10 8
ĠJer usalem
fra red
ĠChar lie
13 5
um ing
ab e
ĠSer ge
Ġportray ed
ĠU g
Ġh ist
Ġcon formal
Ġb old
var iable
fil ename
S ever
ro se
Ġterrit ories
Ġarrang ement
S W
g ood
Ġar ise
ĠC ov
ĠF ro
Ġpost ed
{ %
Ġenc oded
Ġsup plied
Ġcho osing
Ġh osp
L java
Ġcl ients
ĠSerb ian
Ġconsist ency
Ġre plic
ĠA ND
ĠA ccess
ok er
Ġign ore
Ġ& $
rosc opic
Ġp ref
Ġappoint ment
Q ual
Ġbe ar
eff ect
18 66
Ġshift ed
Ġsubs idi
\, ,
F low
S ync
ĠY u
Rad io
ĠFl ore
ĠM ind
Ġman age
Ġdel ivery
ĠQ CD
ĠM eg
le w
Ġart illery
Ġg rown
N P
it i
sh arp
Com parison
th row
Ġsh orter
En vironment
l ag
Ġnot ing
Right arrow
Ġsquad ron
pre v
Ġcommunic ations
Ġon going
) |\
iss ues
ĠColomb ia
ĠTra il
ĠIran ian
char acter
Mich ael
ĠEgypt ian
Ġmount ains
%% %%
ĠB it
tra ce
Ġmer ge
B H
ĠR AF
Ġb ath
Ġf ishing
Ġdec ide
Ġd il
qu er
Th omas
ĠW a
ĠS ource
Ġdecl ined
R ound
Ġf urn
ĠNov a
ĠSt ein
ex amples
Ġexist ed
Ġattract ed
Ġarr ive
ĠPolit ical
ĠI an
Ġ ×
S am
Ġvess el
Ġt mp
math ds
re pre
nd ef
AN T
ĠNev ada
Ġsu icide
IN D
10 6
ĠAnd y
Ġswim ming
ac re
ĠFle et
je ctions
j unit
Ġf oss
Ġv ast
M s
ĠM essage
sv g
Ġnormal ization
d irection
Ġsubset s
ĠPl ant
| =
ĠMic hel
Ġexec ute
B rowser
ĠH ttp
us k
ĠAlex and
D an
Ġclin ical
ĠMark et
ag re
ĠS r
Recip ients
at io
P ay
Ġanalog ous
Ġwood en
ĠAnd re
Ġmar ks
ĠBar ry
Ġsurv iving
Ġaim s
ĠG il
ĠClass ic
Ġassert That
De legate
ĠM ans
her s
Ġremov al
lect ic
Ġf usion
Ġse lector
Ġrequ iring
Ġopport unities
ĠPark er
Ġslow ly
Des pite
L ower
Ġappro val
g iven
Ġor chestra
az y
Ġsm art
cel ona
t ons
Ġart ifact
ĠBen jamin
Ġpass age
d n
Ġcrow d
Ġgen re
Ġran ks
le in
ĠP av
M ENT
Ġf ee
Ġintrodu cing
Ġsynt hesis
T or
Ġlif etime
oped ia
Ġking dom
Ġm anga
Ġcontinu ing
Ġinvol vement
Ġcomp iled
Ġremov ing
Ġ" <
_{ [
Ass ume
M icrosoft
U LE
ab ove
ĠB und
d one
ur u
Ġint rinsic
O UT
and al
ĠLand roid
C G
u its
ili ar
Wh ite
lement s
ich i
Ġclust ering
born e
t f
icens es
ĠAfghan istan
det erm
Ġdev oted
ĠPar ish
Def unct
ĠG P
D ue
ĠInt eger
sup p
ĠS even
ĠC BS
ĠH D
te am
ens es
z ym
ier ra
ĠC F
Ġcontrovers y
W in
Ġhor ror
RE G
Ġharm onic
Spec ial
Ġun ity
Ġprom ise
Ġcheck ed
Ġt ur
Ġen hanced
Ġun stable
Ġtraject ories
On ce
Ġel der
Se lection
ag ar
A cknowled
Ġpe er
~~~~ ~~~~
Ġco herent
Ġdiss ip
iv odes
ĠP ow
. ;
Ġmin isters
Ġse p
Ġdis cret
Ġcut s
p f
Ġgener ates
ĠHun ter
C ritical
Ġin fl
aj a
Ġthere by
ĠMan hattan
ac cept
ĠG iants
. },
T ok
z eg
elf are
F rag
Ġsp oken
ĠO range
Ġamplit udes
ela ide
sup erv
pol y
m ix
Prot ocol
B D
ĠColl ins
V E
ack s
k an
ĠMat hemat
ĠVictor ian
Ġcol le
Ġdepart ure
ĠEx pl
Ġxml ns
ĠL iving
cc a
d z
Ġaff ine
Ġannoun ce
Pro to
18 00
* \
Ġmon arch
N ative
h ref
Ġadm its
qu ote
Ġnom inations
LO CK
ent e
ĠM D
ĠH indu
Ġd owntown
Ġp ray
hel m
Ġunus ual
ĠD ouble
ĠN ature
Ġreal istic
ĠArt illery
Ġdisestabl ished
Ġdef ence
Ġemer ged
( .
hor izontal
our t
Ġaddress es
b rowser
ion ed
Ġp rices
ellect ual
Ġlength s
ĠB ey
Academ ic
qu al
ĠE ug
Ġprob e
st ud
m ic
Ġb attery
ĠL ook
Ġadd ressed
ĠProfess ional
Trans form
p ine
xy gen
}_{ {\
r h
ĠHT TP
ĠUE FA
E val
ĠTerrit ory
Ġproject ed
uc lear
18 40
Ġprior ity
ĠSong s
Ġl ose
Ġre putation
Ġfund ed
Char les
Ġh ip
ĠI F
ĠM ix
Ġprov en
ĠBar bara
Ġent ities
ĠAss istant
ĠPer formance
D er
}{ }
ĠMin or
@ {}
Ġoccasion ally
qu ir
Ġpo ems
Ġwait ing
ME TH
)= (
ut o
Ġmathemat ics
Ġprepar ation
ĠV ancouver
w rapper
Ġcub ic
Ġh orses
Ġse ar
ĠJ ama
Ġelev ation
o j
app y
Ġo cean
ĠCh ron
Ġconv icted
ĠK ath
in ates
l ab
Ġaim ed
Ġthem es
M ath
uck et
Rep ository
ĠBeng al
Ġneg lig
18 69
Ġsub stitute
Ġo k
ĠW or
Ġcancell ation
Ġgen etic
Ġpro hib
c ov
pro ps
Ġclos ing
un iform
te enth
ĠHar rison
ĠCommission er
Ġs ax
Ġext ending
Ġam ateur
prov ider
ĠF alls
Ġpart ly
ĠS QL
ĠB ible
Ġwh ilst
our g
Ġdeterm ines
Ġvis itors
Sym fony
Ġinvol ve
Ġgradu ating
Ġw idespread
ĠMu hammad
ĠG reater
ĠMed iterranean
ĠAtt orney
ĠGr iff
Ġmen u
b ib
Ġphot ography
H A
Ġ$ $\
Ġlocomot ives
os hi
Ġst em
. }\
ĠF isher
deg ree
Ġwe ar
ivodes hip
Ġen ables
c rit
TI ME
Ġne uro
writ ing
Ġw ine
Ġd iversity
ig ible
inc inn
S i
m ir
ĠJ osh
Ġpack et
ĠHe b
n ed
Ġre ly
ator ial
cc c
Ġ' <
D uration
b g
Ġshe l
as p
ĠBo olean
ĠIn v
ĠV a
Ġconsum er
ĠFran ces
in ement
rick eter
Pr ivate
ĠSpe ed
ag g
ĠB og
Ġlie utenant
ĠC SS
Ġres erved
Ġobtain ing
ĠTe le
Ġf at
Ġproced ures
Ġb ary
Ġext ensively
Ġproject ive
ra is
Ġe ighth
ĠPol y
Ġcoll isions
ĠSh ang
oph one
in cre
sh ared
ĠSt ra
, ~
Ø ±
ster dam
Ġsche ma
Ġcl ar
ĠP ic
ĠL uther
fl ag
m ates
ĠY am
En umer
B F
ex ternal
' )$
be h
Ġund ert
ĠV el
& -
Ġan ten
Ġb tn
Ġenc oder
Ġsent enced
K S
Ġearth qu
Ġt ens
R oyal
e lected
pm b
Ï Ħ
bas ic
ĠAl bum
ke ley
Ġvan ishes
ĠM embers
Ġful fill
ĠEu clidean
Ġw ider
Ġthreat ened
Ġcous in
Ġex ponent
ĠB enn
A thlet
il ia
Ġelev en
Ġre act
Ġrel ay
ĠFace book
METH OD
Ġ" -
und efined
Ġkn ew
ĠGh ana
ĠAss ume
Ġt ribe
us ers
h ad
Ġcommand s
J S
Ġpass word
ĠCopy right
ĠK r
var i
Ġestablish ing
ĠAd miral
Ġinj uries
d al
incinn ati
ampl ing
Ġd s
Ġpred ecess
t p
li x
Ġan isot
Ġg one
Ġsold ier
Ġactiv ists
' $,
S il
Ġthe at
Ġm ic
Ġacqu isition
group s
F ebruary
S ol
M or
oc ols
Ġpre gn
i ya
} &\
ĠVo ivodeship
Ġbatt les
Ġin g
P G
ut ter
Con ver
= [
ĠK ap
oun sel
Ġre cre
M usical
cle an
Ġsub mitted
Ġtrans it
Ġmanif est
Ġthous and
Ġvis iting
ĠUn like
T om
Ġcomb inations
Ġapparent ly
Pro ps
Ġanalyt ical
Ġlat ent
d ays
Ġh at
Ġcr imes
p aper
Th ree
ĠBe ijing
Ġreli able
Ġass emb
ir s
ĠP il
ĠCh ange
=" ${
L ive
Ä Ł
Dom ain
= -\
Ġarg ue
Ġs essions
ĠWar ner
ĠP O
ĠM ust
fort unately
ĠF reedom
Ġmiss ed
Î ¹
Ġw et
-------- ----
d c
Ġf ake
ĠG ot
Ġann ually
Ġcele b
Ġf er
Ġmeas uring
en abled
p ull
ent i
Ġcre ative
Ġfew er
Ġh a
Ġprotest s
Ġl icensed
ĠS ah
ow s
ĠB aptist
ĠG ate
Ġrespons es
am o
comm unic
ĠAng l
Ġsh adow
ser ial
Ġfall ing
Ġr uling
ĠT H
ĠK un
Ġspac etime
ĠS ultan
Ġpl ain
Ġexpl ored
ĠH unt
Ġperturb ations
Ġillust rate
win ning
Reg istry
f p
ĠOrig inal
j or
Ġnon zero
ĠSh a
or ia
Ġqu eries
em a
Ġphil osopher
Ġsequ el
ĠD est
is o
min ute
ĠV lad
ĠR ing
Ġp ub
N L
Ġrep air
ist ani
the ory
Ġre venue
Ġadvert ising
d ark
ĠAn alysis
ĠĠĠĠ ĠĊ
ĠL eft
const raint
' ',
ut r
Ġactiv ation
ic ing
ĠM aced
Ã¡ s
ul p
Ġto w
Ġrec ur
Ġcool ing
itar ian
T M
Ġconst rained
HT TP
ĠJon athan
ĠP ont
Ġre un
m atic
sc ar
Ġart ificial
L ight
m usic
Ġins urance
185 9
Ġdis plays
ĠPro file
Ġsust ain
] ^{
e lem
Ġs in
Im port
ext ension
Ġm ail
Ġexpl ains
Ġcon fer
Ġunder ground
K ing
ĠB ert
ĠCommunic ations
ĠCan al
z es
Ġsampl ed
\| _{\
ĠS ett
ĠNich olas
ĠH old
Ġclos est
ne e
Ġ urg
Ġemploy ment
ĠNeb raska
Ġhead ers
sub float
Res ources
am pton
}) _{
ĠÃ ł
} </
M ale
k k
Ġsegment ation
Ġsee ing
co q
Ġref lected
t ures
Ġex clusively
Ġsub div
is y
ĠIn put
Ġcon jecture
Ġcav ity
at omic
ĠAp pe
add le
im od
oth ic
ad ic
col lapse
uck land
Ġmarket ing
il ty
1 18
> ::
Ġdec ays
Ġch ains
ĠD esc
Ġsee king
A gent
Ġlast ed
me asure
ĠMach ine
j Query
ĠM ess
}) )
Profess ional
met ic
Ġany one
equ ival
Ġcomprehen sive
Ġfac ing
build er
ĠCharl otte
L ike
Ġcontrovers ial
s pl
> $
f olk
qu et
@ "
Ġsil ent
Ġdon ated
G allery
. ),
Afric an
Ġcl ip
f actor
Ġ$ [\
t z
Ġim aging
Ġarchitect ural
Ġline arly
5 12
Ġre ject
Ġdedu ce
Ġcomm emor
st ers
A re
ĠD ol
ĠS pect
Ġcab inet
t ex
end or
ĠTurn er
Ġact ed
Ġdem olished
ĠN BC
int ers
ĠS W
ĠA SSERT
Ġbe ach
ĠE U
ĠCh and
Ġbreak s
i ors
Ġtechn ologies
he ll
Ġspe aker
Ġmat ters
ĠTw itter
Ġexerc ise
ĠUnivers al
ĠBuff alo
exec ute
f lex
Ġper cussion
ĠUr ban
it is
Method s
)} _{\
=" "
ĠY e
prot ocol
Ġpick ed
s b
ow ed
Ġfriend ly
18 48
Ġlaw yers
Ġche cks
as hes
ar as
ash a
. <
requ ired
ĠB ristol
Ġagric ulture
G overnment
R a
Ġl ap
sol id
ĠCon sequently
Ġmeet ings
N ormal
phys ical
H ung
Ġmat ched
Ġop acity
ĠCl are
Ġp ump
Ġcomb ine
Ġco hom
Ġamong st
ia o
Ġbi ological
ĠI celand
Ġbench mark
all ing
ĠJ enn
2 20
Ġdrug s
Ġg olf
ĠSp irit
Ġinf antry
load ed
Ġd rew
Ġd y
Ġmod ification
en os
ĠPhilipp ine
sup ported
Ġgovern ments
ar l
ĠL loyd
' }\
Ġvalid ate
am er
ak ov
oid al
Ġt y
Ġshe ar
u ke
Sequ ence
Ġinn ings
Ġmount ed
Ġf abric
index Of
log ger
ard ed
Ġw restling
ĠD ra
Ġrest oration
sl ice
End point
b n
ĠOver all
she et
iz ard
ĠB ris
Ġcomp ression
ĠT ed
ul o
we ek
Bra zil
w d
ĠTe ch
ĠSt evens
ĠBar celona
L D
ĠL ions
Ġ( .
ch itz
M ont
Ġprot otype
u ated
Ġbir d
Ġc arrier
ĠI ss
f c
qu arter
ĠP hoenix
ett i
l iter
Ġt ends
Ġyoung est
spect or
Ġanaly zed
Ġill ness
amp a
ĠAnt ar
Ġmut ual
ann i
U psilon
ĠCom puter
Ġexpl oration
x s
ĠE li
alax y
Ġ( ).
Ġafter wards
ĠS ymphony
ĠB ass
Ġmart ial
Ġpure ly
; }
Ġto ler
ĠĠĠĠĠĠĠĠĠĠĠĠĠĠĠĠ Ċ
I gn
Film ography
ĠAd elaide
Sim ilarly
h op
at ibility
ex tern
CO MP
orig in
Ġmar ry
set up
Ġdest ruction
P et
Ġs ke
Ġcon gress
D ig
Ġcor related
Ġcontribut ing
Ġmov ies
Ġth irty
Ġc oc
view s
Ġim posed
at che
Ġg allery
l ights
Ġco oper
ĠV egas
ĠE instein
B oth
du ctions
Ġte ach
time out
Ġs ympt
Ġsp oke
Ġinst ability
Ġcap s
U B
Ġin duces
C ard
Ġout per
Scott ish
ab ul
Ġfore ach
Ġcircum stances
b ane
re lease
Ġsuff ices
ĠMean while
B ad
ry ption
g un
ĠE sp
B er
Ġd ub
M el
min a
b atch
ĠLear ning
p olicy
ĠF riday
Ġbeaut iful
bu ilt
Ġb arrier
ĠArab ic
P red
Ġtyp ed
ĠF err
Ġneighbor ing
Ø§ Ù
Ġde formation
ĠPr ivate
Ġlo ops
Ġdepend encies
Des ign
F ramework
ĠFl ight
ĠS id
ber ry
ĠTreat y
P ower
ĠTr inity
p arser
Ġen um
i est
Bas ic
Att r
ĠMun ich
ra ud
Ġexhib its
t ags
ce ive
und erset
ĠN an
ĠWith in
Sw ed
Ġout break
Ġvot ers
ĠKir k
S ep
ĠC ob
Ġ} {\
Ġl ingu
Ġexc ited
ĠCub a
Û Į
um ann
Ġven ue
C V
ĠH amb
ĠT ib
ĠD O
Ġsub stit
con ver
B ul
ĠB rew
Ġprep are
ha ust
ĠWith out
ĠR ank
cons istent
H F
Ġhon ors
Ġbu ck
ĠS ym
Ġtherm od
ĠFac ulty
Ġelli ptic
av ailable
Ġtem p
Ġd ot
ĠH ope
Ġf ighter
Ġbeh alf
Ġtime out
pl aced
Ġsup plies
se lector
Jew ish
Ġview ers
ed a
24 0
W rapper
Ġup grad
185 7
em on
is ch
ĠM ig
m ount
á ¹
Ġcontinu ity
ĠH av
Ġg ard
Ð° Ð½
ij i
ĠSing les
greg ation
ĠM asters
uss ia
ĠP el
ag i
B usiness
Ġw ings
ta wa
ĠIs a
ĠCr ime
est on
Ġencourag ed
ĠJ a
Ġmer chant
enn ial
et ta
Î ½
ĠL ate
SS L
ĉ ĠĠĠĠĠ
ĠS A
od ay
ĠA x
= $
ĠP DF
uff icient
m k
Ġregard less
Ġoccas ions
Ġpres c
r ise
0000 00
Ġu i
ĠAl tern
ĠCost a
St op
Ġstat ue
al am
iline ar
ĠShe l
Ġc argo
SCR IPT
. (\
superv ised
at ri
Ġad ults
ĠRequ est
Ġquot ient
Ġv ulner
Ġcarri es
ĠVin cent
ĠD raft
DE F
Ġinc idents
at z
ips chitz
Ġsuper conduct
Ġen umer
ari ate
Ġperm utation
em ed
ĠSt re
Ġhon our
all oc
Football ers
im et
ens en
Ġadv ice
ins ky
ir th
serv ices
ist ically
ĠG round
autore f
Ġs alt
ĠAp ache
}) -
Ġprov es
Ġbo ats
ĠE ff
Ch inese
c est
app oint
cell color
he w
Com plete
. ",
ro ph
VAL UE
pro gress
Oper ator
Ġtw in
ĠDrag on
Com b
Ġr ising
ĠT ang
ĠW es
ar an
Ġcon figure
Ġ{ {\
~ (
ĠVal id
ĠLu is
[ ]{
me as
Ġg ray
ch arg
Ġsh apes
sur face
ĠR oll
Ġreve al
Ġdifficult ies
olog ically
Ġfl av
Ġm emb
lect ric
ĠC ad
ens itive
Ġb are
it ure
Ġmechan ics
Ġchar ter
ĠK ol
ĠSpec ifically
Ġsh ore
Ġinit iated
ĠHe avy
j ango
Ġpos it
Ġreport ing
Ġleg s
Ġformul as
Ġn p
object s
f requency
ear ing
Ġweap on
d ialog
cur sor
D IS
Ġcoal ition
Ġb ridges
Ġaccom p
Ġcryst al
Rich ard
Ġrun time
Ġshe et
Ġopt s
Ġtra il
end ers
p are
vel ope
test ing
ĠB uch
ed u
Ġdist urb
ĠAnd roid
á º
ĠMor oc
us c
ĠStud y
Ġval uable
Ġexpand ing
re ens
ĠLiter ature
Ġres ort
pro xy
Ġleg acy
RE Q
ĠT i
p ub
Ġc inema
ĠLore ntz
ĠOl iver
omorphism s
d etail
Ġaltern ate
rad io
ĠB ath
g ot
Ġpl ugin
18 30
\ /
Ġelse where
Ġsp ending
ater al
str ument
v skip
Ġ\, ,
ph oton
E t
om es
ĠI E
Ġb io
ush ing
C RE
Ġexcit ation
B bb
Ġdelay ed
Ġd elta
Ġg ay
it ations
ĠO pt
Ġcross ed
ĠEx change
ĠO S
ix on
ath on
Ġrepe at
Ġcont ested
ĠIndust ry
ĠS ad
Ġcorpor ate
ĠBy z
col lection
, '
ĠAm sterdam
Ġsk ip
Ġscient ist
Ġwind s
æ ľ
}$ $
Ġsupport ers
Ġplan ets
as ync
ell ion
ĠAb bey
dist ribution
ĠI C
= (\
e or
Ġch a
at ra
Ġbroadcast ing
ĠSpring s
sect s
N amed
Ĩ Ĵ
Ġveloc ities
Ġtravel ed
ey l
Ġc able
Ġfocus ing
Ġtrib es
ĠL is
Ġre actions
Ġhe aring
M ake
s outh
ĠF ind
ĠI da
ĠDemocr ats
Ġexam ine
Ġb ott
mem ory
in valid
Ġhierarch y
d ue
p n
ĠCon n
Ġres et
ĠĠĠĠ čĊ
Ġall ocation
Ġpar ad
Ġevol ved
ĠAthe ns
ch anges
ĠAzerbai jan
re ck
Ġcomplet ing
Ġneighb ors
Ġev ident
Ġdise ases
p d
iv ic
N ET
Ġjourn als
=" @
B ro
Ġcoach ing
ine e
Ġt ub
17 0
Ġimpro ving
Ġclaim ing
ĠD B
load ing
Ġsettlement s
at om
}_{ (
F LA
g om
ew ay
ab olic
ed ed
ĠD ays
Ġhom ot
Ġb orders
Ġgener ality
ĠF ix
it ud
Ġasympt ot
Date Time
ĠT on
Ġbox es
Ġco ins
Ġman ual
an chor
Ġem igrants
(' .
Ġfor cing
Ġmonitor ing
grad ient
Ġqu art
ĠT ogether
ass embly
apt ers
Ġt ribut
Ġste ep
Ġentang lement
ic z
T x
W F
Rep ublic
Ġcas ual
Ġden om
l ibrary
ĠConst ruction
). }
Ġrad ical
ĠL an
ext end
Ġab road
ĠLeg end
Ġsurv ive
ĠSocial ist
ĠDat abase
Ġan ime
Ġim plied
vis ible
ĠDi ocese
h aw
Ġminor ity
Ġrg ba
build ing
Ġam pl
imens ion
C r
b ast
ĠN GC
ĉĉĉĉ ĉĉĉĉĉ
b ie
Ġrecip ient
p icker
Ġo xygen
185 4
ĠArt ist
ĠL en
pert urb
Ġt um
Ġres ervoir
i ology
d iction
ig s
Ġpro xim
Ġequ ally
ĠH udson
Ġsuff ering
p b
h is
ĠThe ory
Ġprim itive
Ġmulti plication
Ġpre dominant
Ġdeal ing
ri en
Ġviol ation
Ġfest ivals
Ġprote ins
ĠForm ula
N a
up t
}} }{
S ample
Ġbeg un
ĠOper ations
Ġinf inity
N umer
à ¥
{ [
\, .
Ġcl imb
Ġw orship
ĠSh aw
ĠW rite
EN SE
ĠCl ay
ĠMov ie
T our
ĠW AR
ĠS now
miss ions
M ask
ĠSt ream
S ir
Ġp arser
Ġbur st
o ons
Ġmir ror
Ġtr im
Ġ Ñģ
Ġorgan ised
Ġpost s
ĠPhys ics
Ġreported ly
ĠP le
ĠEn cycl
Ġsqu ares
ĠL apl
Ġcons iders
Ġ= ========
Ġform ations
ĠU I
th y
Ã¶ n
ĠM idd
ĠC old
ĠArgent ine
Ġn urs
Ġde bt
Ġob server
ĠM yst
ancell or
( |
Ġcom ics
ĠComm ons
Ġspirit ual
Ġsl ave
ag ent
m aven
Ġex clusive
Ġfact s
us p
Ġfl ed
Ed ge
ĠCh apter
M ad
V I
Ġgu id
Ġcap abilities
ĠB lood
Ġacceler ation
L at
if ndef
, (
ĠN iger
f ar
Ġplay offs
Ġt ip
Ġl oyal
Ġclass ifier
S eries
Ġas ks
S G
18 55
ĠM oz
ĠF un
Ġch apel
ors ion
Ġcl im
ĠCra ig
ĠÐ ²
ar iant
Ġinst ructions
Ġg all
is i
E very
Ġmoder ate
V R
V A
Ch arts
St ud
ĠG rey
ĠJeff erson
sp aces
Ġdis sol
Ġun cle
Ġfin itely
ĠO ct
ĠMan ager
ĠM ann
comp act
P resent
Ġ rib
Ġ ];
Ġt act
Ġop ponents
sk a
ĠK now
ĠS z
method s
Ġcomp ound
id ency
v ars
he res
Ġag es
Ġpat rol
) )$.
ĠR aw
Ġphys ician
ĠCh i
ach i
Ġ$ <
Ġm igration
Ġimp ress
ore l
ov sky
arri ors
w i
as ant
ĠA uckland
}} }$
ĠVenezuel a
ĠS F
for ced
ev ille
L ibrary
ĠS ay
)} =
id ity
ĠA T
inn ed
L aw
ĠPar alymp
ĠHer bert
ym an
H or
ĠFil ip
ĠM ason
ap ing
Ġover view
Ã± a
âĢĿ .
ĠB A
tra ining
t k
sim ilar
ĠRob in
Ġcred its
az on
Ġcol ony
) |^
ĠĠĠĠĠĠĠĠĠĠĠĠĠĠĠĠ ĠĠĠĠĠĠĠĠĠĠĠĠĠĠ
}. \
Ġ ^{\
E conom
Ġcosm ic
P eter
Ġfeas ible
Ġkeyboard s
R ivers
int ell
ĠG raph
ess ed
Ġt x
7 50
make box
Ġal ias
ĠN HL
ĠB ird
Ġatt r
L INE
Ġnumer ically
C AR
2 30
) !
ov an
ik ip
ĠAd vis
ull ivan
ĠAl ger
Ġdes ert
Exec ution
ĠW ed
s qu
Ġis n
ĠM ock
Ġcompos ite
n c
ĠM ut
ĠS audi
el in
um i
j ob
Ġlog ger
ipp ing
Ġcopy right
ĠF if
Ġcomment ed
Ġprem iere
ĠPers ian
tri ang
ĠP RO
ĠTh or
Pro gress
ph abet
Ġ\\ [
ĠC ole
rat io
à ¦
ĠPun j
ĠL ost
te chn
ĠBroad casting
En ter
ĠH em
Ġc ricketer
Ġ[ "
}= (
Ġlimit ing
Fl ag
ĠPen insula
Ġload ing
ĠB H
Ġ" [
ĠDiv is
Ġt orn
Ġer ected
g h
ĠA ber
ĠBe aut
Text ure
ĠBer keley
Ġembed dings
K L
Ġproport ion
ĠMuslim s
Ġinflu ences
ĠJ erry
Ġe arn
P ORT
185 8
ent o
Book s
en burg
Ġcal ibration
Ġdef ending
â ĪĴ
Ġcard inal
Ã ī
it ary
ai ro
le ading
ĠGon z
C amp
Ġdes ire
R AN
ĠC row
ĠA I
ĠNA ME
i ot
Ġk it
Ġor ange
Ġcross es
Ġdu o
ĠRepresent ative
A rea
15 00
Ġphot os
ĠJ oy
Ġliber al
Ġm ouse
Ġg host
pl ier
M AP
F uture
Ġbu f
ĠHis panic
F ind
L ook
hel per
iss a
' }$
Ġdeterm ining
ĠS ang
Ġhe ar
intell ij
Ġco operation
ĠS ak
opt ional
element s
res ources
ĠEd itor
ĠCl oud
ĠIndust rial
Ġformal ism
the me
Ġten ure
Ġvol can
Ġs oph
> ()
Ġd ictionary
cal cul
ty pen
Ġst retch
Ġpre liminary
Ġent ers
á ĥ
it ual
Ġr ings
Ġmake up
Ġens ures
e u
ĠW here
Ġqual ify
ĠD ou
Ġassess ment
Ġaffili ated
igh bor
ĠChe l
Ġstream s
Ġinn ov
IG HT
ĠS Ã£o
F n
ĠC ou
ĠCirc uit
ĠC u
ĠEth iop
Ġsuggest ing
Death s
ring ton
opt imal
Gener ated
Ġc ash
ĠIn s
K O
L imit
Ġp or
z ig
ĠD iamond
Ã¼ n
ĠX ML
Ġadv oc
um s
Ġcustom er
hes es
Ġr hythm
Ġinaug ural
Ġ@ "
Ġo ct
U r
ĠMag ic
ingu ished
Sche dule
h ang
leg iate
ĠG rade
check ed
ĠD R
Ġhyper bolic
ĠL ion
M aster
ĠPh D
Ġread ers
ces ter
ĠV ector
ĠTechn ical
re leased
Ġcommand ed
ĠN R
pro gram
ĠHol land
Ġrelax ation
l r
ĠArray List
Ġ( [
rel ative
J ac
lik ely
Ġimag inary
ĠC atherine
Ġev ac
Ġspec ification
y ou
ĠN ak
Ġend point
Ġstrugg le
Ġg ymn
Inter val
Ġp ictures
w ild
run time
arg ument
over e
aud io
ĠGerm ans
Ġhel ic
ĠMont ana
ĠCons erv
ĠA B
Ġtrans c
it on
', '
F ac
}\ }$
Ġmuseum s
yt ic
Ġlook ed
ĠCom b
ĠCroat ia
ĠM end
former ly
Vis ible
ĠNAS A
Ġapp rec
Ġincor rect
Ġeffect iveness
Ġ ul
}| ^
Ġfor wards
Ġap artment
ĠPsy ch
ĠB right
ĠDe ut
Ġref ere
ĠW u
185 6
Ġt et
Ġtrans actions
Ġt ort
Ġpar ks
ĠKen ya
Ġal ert
Ġm as
ĠT as
ĠCl inton
ic ates
19 2
ĠH ann
ĠE C
Ġconsequ ences
Ġlocal ization
us ername
ĠBulg aria
Ġs ends
Ġpay ment
atern al
test s
over ed
? >
Ġmin es
N U
ĠCont emporary
ment ioned
() ))
Ġf antasy
ric ks
Ġreb uilt
no ise
+ $
Ġrel ocated
ĠRem ark
se lection
}\ !
Ġanom al
Ġe ase
f actory
un known
Ġorgan isations
Ġdiver gence
res olution
ĠCh ap
Ġtang ent
Ġident ifying
resol ve
agnost ics
ĠS ide
W ait
T reat
ĠGl en
Ġphotograph s
P air
S aint
arch ive
Ġed itions
m iddle
Ġobserv able
ĠCon struct
al ks
tra ined
Ġrel ating
Ġchem istry
D rag
Ġlocal ized
ans k
4 50
side bar
Ġband width
h ou
check box
ĠThe od
Ġorig ins
ĠSy ria
Ġinstall ation
ĠP in
\ }}
und les
Ġt ube
ĠT E
ĠB ond
Ġn eck
Ġreg istration
typen ame
Ġto kens
Ġt ags
Com par
m oz
ij k
cur s
Ġel abor
ikip edia
eff icient
Bl ue
ĠD og
Ġr is
Ġviol in
Ġident ifier
DE FAULT
ĠNor folk
Go ogle
Sh arp
x rightarrow
? }
ĠI gn
Ġsc roll
cl one
Ġcompos itions
Ġvar ied
^- $
out ing
Ġsp end
Ġalcoh ol
ĠR ey
Ġ? >
Ġmodel ed
an imation
Ġall oc
Ġext raction
sub ject
Ġc rypt
Vis ual
iv ities
c aster
Ġintegral s
ĠBe h
Ġdeterm inistic
ĠPr int
ĠEd wards
B etween
Ġdist inction
ĠA ctor
ĠRog ers
Ġexc av
Ġelectric ity
ib n
Ġkind s
Ġexhib ited
Ġhand led
Ġmanufact urer
il o
Ġsc r
ĠHor se
Ġatt ending
Ġvict im
ĠAng lo
iv id
Ġdeb ug
d uration
r ink
ro at
ic ious
L ib
vert ical
r ically
Ġdec ides
Ġcons ensus
ĠH ob
ĠH ugh
Ĥ ¬
Ġf mt
ĠP ast
Ġvir us
Pass word
ĠB our
h skip
en o
ST M
ĠMunicip al
ma xim
ĠSh adow
ĠDr ive
ul ates
Ġwe aring
F our
ĠF am
Ġposs ession
Ġsymmet ries
ĠKe ith
Ġdefend ers
f ilm
Ġgrand father
ĠD od
K K
ĠC incinnati
end a
Ġ ur
Ġout standing
Ġop ponent
">< !--
J ose
ĠSt atus
exp and
ĠS ep
Sup port
Ġwav ef
ĠA viation
Ġall ocated
Ġfair ly
st roke
ĠS ox
f eld
Ġb at
Ġtourn aments
Ġenjoy ed
ĠEag les
Ġst ops
Ġnull ptr
T w
ĠS or
Ġpurs ue
on ies
Ġl ibraries
Ġen zym
ĠCo al
over view
Ġco ord
Ġphenomen a
rag ue
Ġ }$
ĠS H
re ction
Ġstrateg ic
k u
sc ore
185 2
B inary
Ġport rait
Ġconcert s
V C
h all
Ġr ub
Ġlabor atory
Ġin vert
Ġin cl
spec ies
ol y
Ġ\ }$
IC ENSE
Ġrare ly
Ġbe et
Ġvis its
w alk
Pl ayers
Ġengine ers
= }
5 000
Ġ æ
Ġ\ #
Ġcon clusions
u ador
Ġperm itted
IN S
en eg
Ġc md
el ia
Ġdis band
bra ham
14 4
em e
Ġbi ography
ĠL ux
Requ ired
Id s
ĠR eyn
Con stant
L ie
ĠNep al
B T
av ier
ĠÅ ł
ar is
Ġth rown
' )\
ress es
Ġexclud ed
TE XT
An alysis
Ġpotential s
as ia
th lete
Vert ex
Ġp ose
ub ern
******************************** ********************************
ĠFin ance
F rank
hold ers
Ġm or
Ġj ets
Ġalign ed
( --
Ġinit iative
ĠTer ry
B ob
Ġneighbour hood
PO ST
ĠQu est
Ġs oul
Ġsubsidi ary
t body
ĠG ust
Ġderiv ation
mid t
Ġex ports
au kee
Ġcontinu ously
r n
Ġg od
: [
Ġpro spect
ĠV ermont
12 4
Ġe le
dr iver
F il
Ġar ises
ĠMur phy
ab c
Ġreg ulations
ĠC C
el o
Ġsculpt ure
ĠSt ore
Qu ant
Ġleg islative
uc ks
Ġpro to
}, {\
Ġpro ps
}) (
P OS
ĠSim ilar
Ġsurv iv
! !
ub a
und a
Ġsh ifts
Ġtrad ed
ĠAl ong
dr iven
opt im
B AR
omet er
12 1
ĠC urt
ĠArch ive
ard ing
t c
ĠS ask
G rand
Ġrest ore
su it
ĠAut o
Ġdem ands
in ery
Ġin ternet
}}\ ,
process ing
Ġpay load
ĠSer ver
Ġcl othing
Ġorig inated
Ġhe x
ĠSt even
with out
u in
Ġman aging
ac a
ĠHen ri
left rightarrow
Fe atures
ĠScient ific
ĠÃ ģ
op ing
Ġparticip ating
per m
Ġsec ured
Ġfraction al
l ive
) }^
ĠCru z
ĠPer ry
iv o
Ġweek end
ĠT ake
Ġcl an
aj ax
ĠLO G
ts d
Al gorithm
r if
clos ure
Ġg al
war z
ĠPro tection
m un
respect ively
Ġst rain
3 000
Ġadmin ister
ro e
Ġlist ener
ut ton
ĠE uler
." ""
Ġel astic
Ġf ro
ĠCh apel
amp ed
cons ider
Ġrespon ded
ĠJ en
Ġab elian
comp iler
Ġh ide
ĠPeters burg
ĠHig her
Ġde legate
Ġ' '
ri er
Ġspecial ized
Ġattempt ing
ĠI SO
Ġgu ilty
ĠBudd hist
Ġco ff
per iments
ĠDel aware
display math
Ġcal endar
Ġadd s
Ġinequ alities
am ination
Ġconn ects
Ġn inth
Ġpro g
ĠC ox
Ġrun ners
Valid ation
ol en
ĠK ra
Ġmat hematic
Ġneglig ible
Ġre ven
ĠRec all
Ġinvar iance
ĠChrist ians
Ġsk i
Ġorient ed
ĠMar vel
S ocial
B ind
Ġsound s
$ (\
ĠJ ess
Ġen forcement
Sing les
SE LECT
part y
Character Offset
Ġw edding
g on
ĠG ay
Ä Ļ
ĠMad ison
qu ality
ĠLat ino
ok u
ff ield
Ġ' \
ĠL arry
ing en
S creen
185 1
c n
Ġconduct or
D utch
ro ute
)\ ,\
ĠInt elligence
Ġ\ "
ĠS ou
R ot
Ġmag ic
oun ce
ĠArch bishop
Ġvari eties
ĠL oad
ĠInd ependence
27 0
ĠP rice
Ġph rase
Ġtal ent
Î µ
it ro
ov en
Ġint ellectual
Ġpat ron
Ġstand ings
ft en
ĠPro blem
Null able
Ġthick ness
Ġex haust
co ordinate
ymp lectic
Ġspons ored
ĠB av
chi at
Ġprocess ed
Ġop ens
Ident ity
Ġcivil ian
gom ery
ĠP od
ĠOther wise
Sever al
Ġim perial
ĠBut ler
ĠInt eg
ential ly
ryst al
Cl oud
Hel p
u cc
r ust
}( -
t ot
W here
AR G
Ġ{ "
}$ ).
< !
m itt
w art
hand ed
Ġdismiss ed
In formation
ĠC ant
ill es
Ġadvers arial
R andom
bass y
Ġgovern ed
Is rael
mer ge
qu is
_ );
Ġc ogn
equ ate
ĠGra ce
Ġlab our
ĠR idge
b x
l iga
Ġfl ash
Ġefficient ly
ĠEl li
ĠS uz
ĠL oc
Ġr ated
I rish
ig m
Ġ' ';
Ġr id
ĠVen ice
run ner
EE EE
f eed
log in
) <
ad r
ĠFri ends
Ġaccomp any
IT ION
ant ics
w aukee
Ġce ased
Ġrespon d
Ġfarm ers
M ex
ark ed
Ġagre es
ĠTh ose
Ġt ension
Christ ian
Ġb anned
ĠA round
Ġobserv ables
Ġcount ing
in x
ĠN at
ĠCamp aign
oupl ing
B ottom
ith metic
ĠHe in
= &
h orn
Ġg ift
Ġprov inces
ĠC PU
ĠArn old
ĠS yn
Ġphys ically
repre neur
Ġmaintain ing
Ġregular ization
] +
ĠW ol
Ġassist ed
h istor
Ġthink ing
Con nect
Ġplay wright
ĠS elf
ĠEconom ics
ĠT otal
Ġb om
Ġd otted
Ġachiev es
od ic
por al
' (\
P UT
om o
10 24
ĠSh ar
ĠWat son
Ġle agues
S ide
ĠD escription
ID TH
ĠCE LL
ĠR av
Ġsup ern
ĠChristian ity
ĠCh air
pos itive
d ifferent
Ġt ies
Ġpe oples
Ñ ĸ
F ictional
display Name
ĠNot able
t racks
Ġdis pute
ibli ograph
Ġinher it
is che
18 49
ov ina
ty p
ĠT oy
=" $
Ġsur prising
ĠMe V
ur ated
Ġ_ ,
ĠHel en
Ġt ruck
ĠO il
D iff
C AL
c ity
ou x
Ġind irect
Ġsub str
/ {
'] ['
ĠY ale
Ġprom ising
c op
Ðµ ÑĢ
Ġreconstruct ed
Ġfam iliar
G T
ĠDef ine
= {\
ĠG as
ĠLe ader
uls ion
ĠCong o
C at
OP T
inter pret
ĠCh o
Ġa ster
VAL ID
ĠJ oint
Ġcl ick
}} +
Ġ" ",
c ule
ĠHar old
Ins ert
ĠAcc ount
ĠSt uart
ĠDen ver
A udio
Ġfor th
M ove
Ġcampaign s
ĠRes ponse
Ġspe akers
ĠK ay
az ar
Comp anies
"" "
c ourse
un i
ond o
F OR
st own
Ġwithd rew
Ã ½
ran o
Ġencounter ed
D ictionary
c v
w ind
Ġcert ificate
ip per
ĠMult i
An im
Ġrect angle
Ġpro ton
Ad min
h agen
ĠF oot
Ġ= ======
M aterial
ĠM icro
bl ank
ĠS oph
Ġchar ity
ach t
ar ance
ĠAN Y
Ġvol leyball
ĠAnt i
Ġdeploy ment
Ġbos on
rid es
ĠS alt
h in
ĠLe o
Return s
ĠZh ang
ĠW as
ĠArm enian
h ig
ĠR ivers
ena issance
Ġfast est
n ear
(' /
t l
Ġhonor ary
Ġinter fer
18 47
Ï ģ
pl ant
Ġing red
ĠSing le
map s
Ġear ning
Ġsurvey s
C ulture
Ġwas te
zh ou
ĠSt ef
Ġcon dem
ĠRefer ence
i ating
Ġpower ed
up load
Ġcomp anion
ĠF low
az i
MO DE
F rance
Ġt anks
Ġanalys es
An imation
in ology
S oviet
ĠF ROM
00 5
bl ing
ĠOt tawa
h d
ig ion
av ia
Ġsummar ized
al og
ract ed
Ġhe ating
Ġwalk ing
Ġsympt oms
ah an
Ġsimpl ified
ĠLe eds
Ġpop ulated
P rom
Un known
Ġmurder ed
l ift
Ġbl ind
L android
ĠEn s
Ġsupp ressed
un credited
ĠFran Ã§
ĠO g
Ġbelong ed
Ġcycl ic
Ġth ir
ĠBris bane
Ġg ross
rub y
Ġcompet itors
Ġproof s
v or
ĠM Ã©
INT ER
ĠQ ual
): =\
Ġin formed
b ecause
B N
f ers
Ġvanish ing
Ġsent ences
Ġobserv ational
B Y
ars on
Ġpal ace
Ġb es
cre ated
12 2
ot ions
Ð ±
Ġminim ize
Ġswit ched
å ®
ah l
ĠS oul
l ies
cc entric
Ġsole ly
Ġmot ivated
h m
Ġrep orter
Ġpl acing
ĠRo om
q q
Argument Exception
G al
Ġbl og
ĠSi eg
akes pe
met ric
Ġrel ies
ĠM ik
L y
185 3
ĠB reak
Ġel dest
Ġs ql
Ġthr one
n orth
Ġsub urb
f m
Ġdr ift
inher it
ut a
ĠM ort
ĠSt ill
Ġoccur ring
ĠF ighter
construct or
ĠArch itecture
Ġp ale
Ġc ul
sh all
C ross
ert on
ĠSim ple
Ġrefer ring
com pute
ĠLabor atory
act ivity
ĠS ierra
Ġg rap
] }\
Ġprodu ctions
Ġdevelop ments
Ġg ates
ĠEr nest
ĠWars aw
Ġdanger ous
Ġsong writer
R aw
A I
< <
ĠQu arter
ĠAp pro
EEEE FF
ĠPed ro
ĠB ach
if inals
ĠCh a
E ducational
ĠG T
Ġp ip
ĠMer c
R ugby
Ġf asc
ĠG ilbert
Ġvari ability
rt l
por ter
Ġexper ts
Ġtrad itions
M ouse
Ġp ushed
Ġcom fort
urs or
ĠL ov
G ood
Ġunsuccess ful
Ġfin ance
ĠPy thon
is an
ĠFried rich
ä º
) *
An n
Ġse eds
ĠC hern
ĠTh under
Ġp in
Ġm os
Ġgeodes ic
ĠP S
center line
ĠM ick
Sp an
get Value
Ġconsist ently
Ġall iance
Ġviol ent
m other
fl ux
c od
ĠRev ival
ĠV iol
ĠI T
ic us
Ġimm igrants
ĠS outheast
ĠHeb rew
ĉ ĠĠĠĠĠĠĠ
ĠTh ai
Ġb orough
Ġferm ions
ĠB S
Ġ" $
Ġeconom ics
ĠB ald
^{ [
pro duction
ache l
Ġdrum mer
F ocus
ex act
Ġstream ing
Ġbe ating
Ġb ishops
3 20
Ġdeterm ination
Ġjuris diction
Ġdis placement
ĠStan ford
f ac
Ġdec oder
S yn
Ġelect romagnetic
w al
Ġg raphics
17 5
T y
ew ise
tem perature
Ġt ill
B ean
top rule
ex cept
con j
ĠO cc
}} -
sm ooth
c ritical
Ġver ified
Ġtreat y
Comm unes
Ġlearn s
ĠFlore nce
T ri
) ",
ĠD ennis
Ġto ured
Ġbatt alion
Cent ral
ĠG ang
ĠS ets
ĠM obile
scal ebox
Ġem peror
W il
Ġcohom ology
ĠD h
Ġdraft ed
M ot
Ġwor se
ĠBob by
S erv
Q U
Ġchar set
ĠDemocr at
Ġs ang
Ġmod ular
Ġnar rative
Ġcl ouds
ĠIn ternal
Ġstat s
spring framework
act eria
print ln
valid ate
ĠM ul
ĠBulg arian
uck er
b ank
c ord
Ġr ide
] _
ro oms
Ġinteract ing
eq q
Ġenc om
Ġfl ights
ĠAngl ican
}} ^{(
big gl
^ +\
ieg e
ĠE mm
] _{
Ġdeg rad
Writ ers
Ġt icket
ĠPro duction
Ġdisestabl ishments
Ġb ay
comp ile
Ġbeaut y
d or
itud inal
sw ick
H ouses
Ġbring s
im eter
out heastern
Ġaver aging
ic ode
Ġmanufact urers
on line
So ft
ĠLu ke
ĠN g
n ob
' ];
Ġsett lers
dest roy
isc opal
Ġout comes
ĠO wn
ish a
OR Y
st ation
in duced
Ġch ron
ĠR alph
Ġdepend ency
{ "
ĠHug hes
at um
nav List
v ision
ap is
Ġant icip
ass oci
ant ly
Ġ> >
12 6
H ub
C LASS
}}\ \
ĠVis ual
$ &$
ĠF is
ĠCh ang
Ġtempor arily
ĠW ald
L ondon
Stand ard
Ġconcent rated
ac ional
Ġdevelop ers
å ħ
Ġthe sis
Ġdecor ated
ĠAl lied
Ġprom oting
Ġdiff ers
all classes
ĠPro ductions
ĠShang hai
Ġdiam ond
: `
Ġconver ge
Ġa z
ĠD elta
amb ers
ren ew
Ġcur sor
he v
conv ex
Ġinterview s
ĠLi u
it ol
Ġw ard
Ġenc ode
Ġcomp ounds
st ellar
ĠMe chan
Ġtarget ed
ol ition
ĠR oche
ĠK i
Ġann ih
exp ression
(" /
ĠPro f
aur us
F re
akespe are
ĠY uk
is set
Ar gent
ĠRel ations
ĠAl t
ĠAL IGN
ĠK rist
Fig ures
}^{ (\
Ġex terior
Ġscholar ship
ch art
g ements
ĠAb u
s ync
agon ist
Ġrepeated ly
Ġinc umbent
N il
ĠR us
; ">
eg u
L ittle
h im
ma ch
ens on
if ference
Leg acy
ĠB egin
ĠT O
fig s
Ġflo od
Ġrev ised
ĠCard inals
th ird
Ġmer ely
Ġcontract s
Ġatt ractions
ext ra
Ġinf ection
v et
ĠNe il
ĠW alt
ap est
Ġcomput ations
Line ar
D ATA
Ġput ting
S ound
o il
is Empty
F B
L M
abl ing
^ ^
p kg
Ġfor b
ong o
ĠRes ources
Ġorgan ic
O h
Test Case
ĠWell ington
it ars
ĠD rum
ht bp
Ġcontrad ict
We ight
ĠRe act
ĠB ak
f b
py thon
Ġoscill ations
Reg ular
Ġtim estamp
Ġintrodu ces
ĠArt ists
y ch
00 2
Ġconsider ably
Ġi i
ĠC elt
ĠForm er
B road
ĠL A
cur rency
Ġguarant ees
Z Z
f urt
MOD ULE
s ocket
Ġren ov
' -
k top
Ġmod ifications
M ur
it an
ĠProtest ant
ĠSI ZE
osp el
isher s
Ġbeliev es
d m
ĠIn stit
F oot
M ean
intend o
Ġover come
H a
z ip
ber ger
Ġm apped
Ġexplos ion
arm s
B eh
Ġcou p
cont rib
orient ed
ĠLeban on
Ġassum es
Ġres p
Ġjoint ly
X Y
ic ator
Ġmanufact ured
ĠD ir
h yp
ĠEnvironment al
' +
ar ound
At l
U k
fra g
ĠE SP
big skip
Ġam big
ĠTre as
Ġesc aped
L uc
EL D
ĠGuard ian
Ġcap ability
ats u
Ġal ive
Ġinsp iration
pe ction
ĠBaron et
Ã Ĺ
Ġpers u
âĢĿ ,
G s
C lear
ĠAb stract
Rel ated
Ġrad ar
Ġtradition ally
Austral ia
) ~\
Ġinter change
read er
Ï ĥ
ĠCom plex
min ster
ĠOut put
G ra
ĠBel arus
ä »
Ã© r
13 2
Ġguarant eed
ĠGreg ory
ĠL ac
ĠArt icle
R ate
ĠConfeder ate
olt z
a qu
p iece
ar u
Ġal pha
Ġconj unction
Ġbright ness
Ġreview ed
osl ov
Ġcompris es
S ave
ĠInitial ized
Ġb aby
ĠG olf
Ġpreced ing
Ġassoci ations
ĠIn it
V ec
et es
ĠJ in
RE E
+ |
em ark
Ġcomplet es
Ġdo ors
ĠMax well
Ġc emetery
d v
Ġplay off
Ġcertain ly
ĠP M
Ġfl avor
in formation
Ġabs ent
Ġa w
T ex
Ġed it
S ame
S un
ĠMal ay
ĠC M
ĠDev on
P ubl
ç Ķ
con sole
ĠSus an
w arning
inem atic
Ñ ħ
ĠN ear
NavBar Font
Ġsub graph
Ġappro ached
ĠL com
Ġin coming
Ġel igible
Ġb oot
Ġra ising
ĠPhill ips
Ġde emed
Col lege
Ġsurv ival
ĠChe ster
ĉ ĠĠ
ap os
fore ach
ĠÃ Ĺ
im o
Inst all
Ġsup press
om i
get Element
Ġnucle i
Pres ident
Ġa qu
Ġre organ
_{ {
OR TED
ĠC oul
Ġrecogn ize
Re port
ĠArab ia
Object s
Ġmod uli
s per
Sm ith
ind a
STR ING
ID E
th in
Ġr itual
y u
% "
I EEE
ĠO m
Ġdis cre
M IN
Ġess ay
Ġtext ure
ĠCons ervation
ĠWil helm
Frag ment
R ock
ĠS ic
18 46
i ph
pr us
Ġpull ed
), (
Ġt on
ĠAd vanced
ist ance
Ġab bre
ĠPro duct
ĠMer it
ĠÐ ½
Ġs isters
G rad
Ġt ons
ĠQu ant
ĠGro ve
yst yle
if i
ĠP ick
2 10
d an
set length
Ġvic inity
Ġin comp
15 5
ĠFin ancial
ĠPaul o
Ġ erg
io let
Ġs ocket
rem arks
Ġaccur ately
Ġrad ii
ĠQu ery
Ġarrang ements
St age
ĠH at
Ġarch ive
comm ons
ĠHar vey
Ġcomp iler
l st
s ay
ish i
ĠGal actic
ĠKer ala
B s
W ORD
Ġport s
as is
n as
}} +\
Ġbut ter
New ton
Ġsp ots
Ġlog o
ry s
Ġadvent ure
}, \\
Ġpubl ish
Ġn ep
ir ts
ÅĤ aw
Ġrepro duce
Ġthe rapy
Ġencom pass
\ -
Ġ Ù
Ġsp rint
Orig inal
atche wan
sh al
iff s
al ter
" ],
ĠR andom
Ġdou b
Ġwas n
ĠMond ay
Ġlog ging
Ġto uring
ĠWork ers
Ġtor us
Ġj ury
Ġob sc
Ġcomm utative
harm onic
ĠL ess
Ġsusp ension
å ¤
Ġc oding
C ities
R ay
Ġf i
A bs
N orm
ĠT yp
uc le
]{ ./
bigg r
Ġass ists
Ġscal ed
Ġthr iller
cho ose
ĠJ ar
ar th
Ġgra in
Ġearthqu ake
enc ia
Cont in
H ig
Ġsub marine
M r
Ġdep ression
'' .
p rom
amp ing
an che
Ġir regular
Th row
au chy
ĠL evel
}$ ;
Ġthere after
ĠTun is
Ġf iring
Al low
Ġnovel ist
song writer
am ic
ĠS ony
Ġtra p
Ġtim ber
Ġuniqu ely
G a
dis able
Ġr um
Ġtravel ing
}; \
}] \
le igh
Te chn
Ġun expected
St rategy
Ġfem in
ĠP aper
ĠÐ ¸
ĠP red
ĠL ot
Ġplan es
Ex amples
Ġtot ally
Ġvis ibility
; )
Ġl ad
ĠN y
Sec ret
ĠCroat ian
ie u
Ġbrand s
ĠOb ama
Group Name
# {
Ġext inction
Public ations
Ġcurrent s
am y
ers hire
Ġphys ic
Ġpl astic
ĠAr c
ĠA ra
script ions
ĠBay esian
}) }\
ĠOption al
l brace
ĠB ear
ĠLeon ard
ĠBas ic
K A
Ġnegot iations
ĠR O
Ġswitch ing
F ar
Ġ\ :
Transport ation
t m
Ġparamet riz
Ġfavor ite
Ġeg gs
re view
ĠD as
p ent
Ġor n
Ġaff ects
Ġcor on
Ġcamp s
Ġdig it
ĠW i
oc ene
Ġin hib
Ġsc an
Ġcop per
ĠD raw
et ter
book s
ff bb
Ġcut ting
Ġrecall ed
Ġc umul
Ġcompl iance
Ġm ild
Z ero
w ent
Ġbon us
C ost
Ġvalid ity
H I
Ġh align
Not ification
ĠI o
x html
ĠT ong
Ġindust ries
Å Ľ
D rop
ĠY ellow
Ġexam ined
b ibliograph
Ġt ribute
Ġro cks
F ORM
prot ect
Ġdebut s
Ġro ster
Ġshop ping
ĠG host
T ile
put ing
ĠSe an
Ġsl a
ĠP aram
Ġdescend ants
Ġmon astery
es ome
ex it
ĠMont gomery
Ġdwar f
Ġde leted
ĠWon der
vel t
Con clusion
Ġas king
Ġg athered
eth yl
Ġoverse as
F i
ĠW ells
ic ia
Us age
names e
Ġs itting
Ġobserv ing
ĠDivis iÃ³n
ĠN eed
Add r
ĠM az
S ql
S elf
CT YPE
Ġh orn
play ing
Ch art
Ġwealth y
Ġsk etch
bibliograph ystyle
ER S
w yn
stit u
Ġarr iving
ĠManu el
ĠBrun swick
Ġconven ience
F ort
St ructure
vel oc
Ġrecogn ised
ĠE M
Ġrel ativistic
Ġsl ice
run ning
Ġdiv ide
Pl atform
con tact
_ )
Ġcomput ers
ĠĠĠĠĠĠĠĠĠĠĠĠĠĠĠĠĠĠĠĠĠĠĠĠĠĠĠĠĠĠĠĠ ĠĠĠĠĠĠĠĠĠĠĠĠĠĠĠ
ĠStud ents
Ġhous ed
ĠT ax
Ġterm inus
Cent er
c atch
Un incorporated
Ġm d
Ġr iding
ĠS oon
Ġdet ectors
umb le
valid ation
f ake
Ġt ier
Ġf ur
Ġh ull
Ġg ro
ira ble
ĠS ex
ĠG or
ĠG uild
pl oad
ĠM ills
Ġadapt ive
Ġmanif olds
ĠWall ace
C apt
Ġleg it
he ro
Ã© g
Ġread only
ĠAp plication
ĠW atch
Ġsyn onym
Ġsus pect
Ġresign ation
Ġ ell
S uch
Ġar row
Ġpredecess or
Ġdiplom atic
Ġrestaur ants
Ġ\\ \
ĠS ey
Map per
oc o
Ġsh ield
Spec ies
rais ebox
ir us
Ġmet ropolitan
Tax onomy
16 5
S en
a que
ĠG C
Ġcyl ind
pr iv
na issance
14 5
k ernel
st ed
Ġdialog ue
Ġd upl
pot ential
Ġhun ting
Ġc attle
s ized
Ġr uler
ĠK ash
ON G
c ott
Dr iver
ont r
ĠN athan
Ġdocument ed
Ġshall ow
Ġt uple
del ay
Ġhist ogram
assert True
im en
ch ing
ph ib
Ġexhib itions
æ ĸ
ĠEdd ie
ĠL ex
Ġf raud
Ġco in
ĠR ams
Ġpre st
b ird
}} }{\
Ġl ying
ĠNash ville
Z one
L ow
e per
M W
(' #
Count ry
i ast
Ġfun eral
Ġpit cher
ur as
Ġst roke
ĠArm ed
Ġrat ings
Ġcons olid
Ġland ed
Ġrem ix
Ass embly
el ing
Ġ\| _{
Ġreflect s
ï »
ĠU C
cont ents
Ġtrav elled
ĠByz antine
L U
Ġm oral
12 9
Ġcan vas
P aint
ĠGab riel
Lou is
Ġinternational ly
g oto
Stat istics
ag ination
ĠC lear
Ġsens ors
Ġreason ing
Ġth orough
Ġsl aves
Ġarr ives
AN G
Ġvent ure
olt ip
Ġkid n
Ġal phabet
ol ation
Ġremark able
F ace
m ouse
Ġm arch
ĠReyn olds
C a
}] $
ĠM uch
for Each
L ead
m ade
Ġfilm ing
Ġcharacter ization
Ġbas in
ĠEc uador
Ġmidfield er
Ġport ions
Ġhom omorphism
ener ate
Res olver
he ne
ĠAn cient
Ġpet ition
Ġsimpl er
Ġdip ole
21 1
Ġemphas is
b rand
Ġaware ness
13 6
g tr
rel ax
Ġ$ _
Ġpriv ile
I reland
Ġgener ations
Ġ\, .
Ġconstitu encies
m ith
C irc
idel ity
B us
ath i
ard i
ĠA j
ĠK id
Ġ$- $
ĠNap ole
re port
Ġgu ests
b inary
ĠP rest
ott ingham
ĠSh akespeare
Not ice
ĠNot ice
by ter
ĠIl legal
p q
18 39
ĠM IT
Ġs ailed
Ġcyl inder
Annot ation
ĠM atch
it ian
ĠR ah
ob tain
ĠW ag
Ġbus es
Ġdepart ments
Ġst ake
ĠT rain
Ġident ities
ĠNew castle
b ur
at em
Ġlog ical
Ġm ess
b oys
ĠV illa
Ġcent res
am ation
ĠC lient
Ġl os
Ġhapp y
Ġ$ -\
ĠHamb urg
r ators
ĠE sc
Ġc ad
18 45
Th m
F W
Ġprov ing
He alth
Ġsubstant ially
ĉĉ ĠĠĠ
Ġaccommod ate
Ġrend ered
ĠP and
Ġhighlight ed
b inding
> '
ategor ies
act ers
Ġprint ing
En v
uss els
Ġs av
Ġav ailability
Ġfif teen
Serial izer
Ġint ens
M ah
v ectors
ĠCom merce
ĠC ork
Ġext inct
13 3
u ate
h istory
int s
P ut
Ġoptim ized
Swed ish
Ax is
ĠA ires
n ov
Ġconjug ate
gener ate
Ġrot ating
' ,\
ĠOt to
ĠG az
Ġdesign ation
Ġsingular ity
ob i
m g
Ġa viation
Ġcol ours
Ġemer ging
grav ity
Ġb ins
ĠS of
er i
ĠR osen
ĠD A
Ġconstitution al
ĠĠĠĠĠĠĠĠĠĠĠĠĠĠĠĠĠĠĠĠĠĠĠĠĠĠĠĠĠĠĠĠ Ġ
Fail ure
Ġtyped ef
Ġbre ast
cor rect
) /\
UN D
Ġfail ing
ae us
ĠP eng
Ġdecre ased
~ {\
ĠR ou
se en
Form s
Ġcert ified
Ġrobust ness
Ġun incorporated
eff ective
Ġg amma
sign ature
L ove
$ --
th al
ac les
Rev iew
Sk ip
Ġpredominant ly
am azon
G reek
Ġnucle us
ĠAct ress
Ġast ro
Ġdiscrim ination
h ydro
ent in
tern oon
ĠScot ia
Ġsuperv ised
ĠP rague
DO CTYPE
Ġcor ruption
ĠPalest ine
ick en
ĠS yl
In ner
ĠJo an
ĠBab y
ĠV il
ĠOut standing
ĠE ND
G D
18 37
s r
ĠTransport ation
> "
Ġdef ended
M ary
Ġm amm
ĠRay mond
ĠA braham
Ġbl ues
ib a
ĠSe lect
Ġmetall icity
ass ign
Ġaut hent
G AN
il ateral
arg uments
dat abase
Ġfeel ing
Ġar ising
der iv
Ġdis aster
Ġme at
t rain
ĠAir lines
Ġrem n
Ġf ract
ha o
ĠArch itect
B a
l it
Ġtrac es
] ^{\
ij a
iv ariate
Group s
M ach
ros so
Ad ditional
Ġdram atic
ill on
Ġover flow
Ġal le
Ġscatter ed
ĠTib et
l ov
ĠM orning
ĠCar r
at ile
ĠRh ode
Ġpar ity
Ġse ctors
end um
ĠK as
om ed
duc ing
Ġde ck
Ġconflict s
ĠK ill
Hen ry
Ġint u
W ire
on na
ĠShe ffield
ĠL oss
Ġann ex
Ġt issue
W alk
ĠFe ature
ĠBos nia
Ġdoll ars
n ative
ĠSecond ary
Ġacqu ire
ĠIda ho
z el
fra ction
zeg ovina
Ġhosp itals
Ġgen es
ĠEs sex
Ġmemb rane
ĠF i
ĠS uff
ugg ing
ĠS oci
Ġhelp ful
ĠB eth
ĠKn ights
J ud
et ics
Ġto x
ĠS ig
Process or
Ġ ions
Ġtal ks
ĠSh in
ll er
ĠStud ent
Ġcol ored
ĠIndones ian
ĠSe bast
Ġre pository
ĠJ ak
u et
ĠF ast
ĠFor um
ĠFilm s
ĠT all
Ġc avalry
E SS
Ġdis pers
ĠGu ards
Ġdial ect
Ġpropos als
g lyph
Ġelev ated
Ġ" %
DB LP
B ounds
Ñ Ĩ
Ġread ily
Ġhomot opy
Ġcont rary
Ġp ending
ol ly
Ġem otional
f ive
ĠP ract
ĠTas man
colon eqq
n l
bottom rule
or ious
ĠSud an
il ian
Ġinters ect
im an
ur se
L ee
ĠArch ives
I ll
ĠAnn ual
ĠR enaissance
Ġinduct ed
ĠS V
ĠKaz akh
M id
d ie
ĠCirc le
U int
ĠSom erset
ĠFran co
Ġto urs
Ġcan al
Ġdual ity
ate ver
ĠB ag
ass o
dis k
}\ )
lector al
Ð° ÑĤ
Ġtra ct
um m
ĠStock holm
ol ut
1 19
ĠPl ayers
Pr inc
W estern
ig ator
int eger
Ġs ugar
col Last
R ank
Ġover head
oy age
ĠCon text
Ġt ape
ĠR uth
Ġutil ized
lim ited
. ).
P F
Ġ )$
Ġinterpol ation
Ġt rick
Ġsupp lement
Ġor che
b urst
abil istic
ĠK re
Ġcoinc ide
p olar
ĠRe ed
C ounter
Ġinter vention
ĠM usical
L ists
ond e
ĠEd ge
Ġconstruct ing
R PC
umber land
ĠE le
Ġout door
Ġsus cept
Ġb one
18 44
Ġreg ulation
). $$
F UN
ĠEx amples
Ġmicro sc
ĠV ent
ĠEncycl opedia
t bl
Ġa thlete
ad ier
Ġbirth day
ĠJac ques
ul atory
Ġco at
Ġimpro ves
ĠClark e
The me
Ġvari ational
Ġsum mit
ĠC T
Ġcoinc ides
ose velt
Ġpair ing
eg al
st ock
Ġout flow
ov anni
Ġburn ed
f air
Ġmidfield ers
ar v
ĠL ak
Ġout line
ĠColumb us
b ing
var pi
Point s
ĠO ber
big oplus
x ym
Ã ¯
ort heastern
Ġdemonstr ates
Ind eed
I SE
m akers
ĠS NR
Ġins ight
B ill
ĠF ly
bro ok
Ġinj ection
Input Stream
ĠGrand e
s ame
flu ence
Ð ³
al ias
ĠAnd rÃ©
Ġsuff ix
ĠV irtual
ed ges
Jo in
s afe
Ġn est
ethe less
Ġincre ment
top ic
Ġflux es
us a
ĠFri end
I l
g rim
ĠP att
Error f
US ER
N V
& +
ĠR at
Ġaff ord
Ġcollabor ated
ĠD im
ĠE lement
B atch
Polit icians
ab we
Ġindic ator
Ġfacilit ate
ĠL amb
Construct or
B inding
b ug
pro j
M il
j ack
Ġsp ell
Ġmain stream
J im
}{ $
ĠCam eron
Pol ish
Lo op
Ġint ense
Ġqu oted
Rem ote
ĠM O
g p
Ġ" '
Ġsc iences
Ġdist ant
umb ai
a ude
ĠH ost
ĠYugoslav ia
ac co
cond itions
Ø ¯
s ymmetric
Ġe ccentric
est rian
idel ines
ĠCl if
ĠF ont
ia z
Ġdistinct ive
Ġguid ance
ĠRevolution ary
ox y
st eps
ĠTom my
T er
Ġabsor bed
ĠB ened
ĠBenn ett
Ġemploy ee
ĠâĢ ¢
Ġb alls
ĠF lying
row th
ĠUg anda
ĠT F
in as
l ived
Ġleg islature
fam ilies
ath a
ĠJ ung
ĠD rama
Ġcaus al
Jose ph
Ġt enth
Ġflo ating
algorithm ic
m art
be k
ĠPunj ab
Ġtrans mitted
f mt
Ġsub sc
Ġmin istry
col lect
Ġinvestig ations
Ġper ceived
ĠCy prus
L arge
Ġn inet
ile vel
ĠRem ove
IO Exception
h art
on so
Ġmonth ly
b ay
ĠJ erem
ĠDec ision
col First
Ġconf usion
Ġt ram
66 66
] \\
pr ises
i ago
Ġdevelop er
Ġrot ational
Ġprot ocols
Ġle x
> ;
load er
ose x
Ġt one
Ġpl ates
ĠĠĠĠĠĠĠ Ċ
Ġrig id
Â ½
ĠW IT
let ter
Set ting
Ġf inger
E ven
Ġs ys
18 20
ĠSw an
Ġexec ut
ĠHar bor
Ġachiev ing
Con sumer
Ġins pect
he ld
f un
Ġprof it
ĠSy rian
pend icular
ĠRh odes
Ġs iege
ed o
Ġend ors
publ ished
Ġ> >>
St atic
ĠAgric ulture
st ead
Ġadv is
quant um
Ġdepart ed
Ġde als
=\ "
Ġseem ed
ri ke
ĠFran z
ĠBu enos
ĠConfig uration
ĠK in
ĠK om
ID S
ĠB esides
asc ade
ĠWeek ly
ok o
ORD ER
Ð¾Ð »
NR AS
Ġ ì
13 7
ĠCo ach
em it
De ep
ĠT ool
Ġl iv
}_ +
est imate
ĠPer th
e i
) },\
ĠPal mer
sin h
Ġg ains
Ġbel t
Ġmaintain s
I ts
n ell
ust rated
ash ire
ĠC ec
Ġathlet ics
Ġgold en
ĠAh med
C ursor
ĠMar x
oun s
ĠOrig inally
p rior
ĠS ho
Ġwill ing
C andid
J an
n ecess
Ġfill ing
el ly
ĠSp encer
18 41
Ġcitiz en
): =
ĠE ld
Ġelim inate
18 35
ĠHer zegovina
Ġc ave
ĠE ight
get Id
W ord
Ġexception al
Int eg
ĠI BM
it us
Ġpione er
ce q
Ġquant itative
nes day
Ġpsych ology
å Ī
ad apt
ĠK umar
\!\! \!\!
PRO JECT
imb abwe
ï» ¿
ĠV ict
Dem ocratic
Seg ment
ĠObserv atory
O l
ĠMil waukee
ĠSus sex
Ġl ic
13 4
Ġgard ens
Ġdecl aration
leg raph
sche me
ĠH aving
Ġab ilities
Col umb
ĠK rish
Decl aration
15 2
Ġannot ation
ĠF actory
Ġr ice
ĠS olar
ĠK il
. -
Ġun ions
16 8
ll a
ĠS ob
ĠM aterial
en i
Ġsynd rome
ur bs
Ġpoint ing
ĠO w
ĠMan it
ĠS ul
Ġalt itude
ĠP ent
ol ine
Ġh yd
Ġ[ -
F older
Ġanth rop
Ġmon op
Ġg rants
rac le
ĠLithuan ia
Ġ" ";
ht b
Ġtor ped
orn e
ĠSask atchewan
Ġ{ },
ĠMc L
Ġke V
Ġcart oon
m r
Ġph osph
18 43
Ġs a
ĠB ody
Ġfight ers
U ST
g ap
le z
ĠC L
AN CE
Ġaccord ance
)$ }
Ġact ively
'] );
Ġa er
ĠD aw
b racket
gtr sim
l icense
ĠCo hen
gener ic
ĠS old
Ġres umed
r arily
ĠL aura
Ġreleg ated
ess a
ĠEngine ers
osoph ical
S B
. (
Cont ents
Ġpark ing
open hagen
-> ]
Ġknow s
lev ant
AS H
ĠJ unction
Ġlist ings
od o
}$ ),
ric ulum
ĠD ame
18 38
STAT US
ĠM B
Ġperm issions
ĠDE FAULT
oc aml
Ġsum s
Ġgrad ients
renew command
an ch
st ance
ĠM I
cl ock
Ġdou bt
Ï Ĥ
che m
ĠH az
ordin ates
Ġn s
ĠV oice
Ġfarm ing
av ian
å Ń
Ġen velope
G EN
Ġsuccess ive
^ *}
Ġpres erves
ĠDist inguished
Not Found
Ġult ra
Ġdissol ved
ĠPro of
W C
Ġen rolled
Ġpart itions
W ater
Ġau ction
op ened
ĠDur ham
Ġinh ab
h uman
Ġob lig
ĠSc ar
vers ely
Ġz ones
f red
ter ms
sh i
E mail
Ġret rieve
Brazil ian
Ġb oss
ĠCont ent
ĠA aron
ĠF ish
Ġprefer ence
t ol
ĠO scar
| }{\
ontr ivial
Ġs b
Ġim plications
att ices
diag ram
T ags
xym atrix
it atively
S port
ĠBro s
Ġg ear
Ġent hus
Ġproxim ity
Ġcat hedral
g ie
ĠAct ive
ro us
moment um
M essages
Ġdef ender
B uff
he art
G erm
Ġbal anced
Ġartifact s
Ġâ Ĥ¬
ĠR af
off icial
Ġinitial ize
ĠMethod ist
ĠG Ã¶
Ġconsequ ently
Ġp ist
Con vert
r brace
Ġâ ĨĴ
S at
Ġw elfare
Ġcon current
Ġpat ent
}. $
correspond ing
ĠL L
emb ed
d g
inter val
CON FIG
Ġdevi ations
Ġtri angular
F ire
ĠS part
ol in
Ġb ug
us form
Ġm s
ĠK or
re ason
W arning
Def ine
S K
Ġt elling
Ġhistor ically
ĠG W
Th ird
Style ID
Sh ould
numer usform
ff f
ĠV and
in ance
ĠPr iv
ach ment
... </
Ġhol omorphic
manif old
Ġdis ks
ĠMig uel
Ġnick name
Ġincorpor ate
Ġgraph ic
Ġexponential ly
Ġac res
Ġv ow
Up per
Ġencou rage
}$ :
) ~
Ġc rop
Ġglob ally
Ġqual ification
Ġtun ing
Event Listener
ĠPan ama
Ðµ ÑĤ
Ġattend ance
ĠF olk
ĠRon ald
ub ert
c ats
ĠB un
ĠBr as
Ġadvant ages
As ian
Prim ary
ĠB ears
Ġl akes
St udio
Ġform ats
ĠC raw
ĠAng els
l ceil
ĠL or
Ġperm it
p ages
Ġart work
r ceil
Ġwrit ings
Ġsust ained
on ing
ĠV e
\' {
ĠFour th
Ġobtain s
Ġdiscre p
ĠW inn
z ier
Ġsimpl est
13 1
Ġp ap
Al tern
h p
p ire
Ġqu bit
refer red
ĠForm ation
, }
Ġed itors
Ġres iding
ĠG ene
ĠS cal
Ġunc lear
E u
Ġobject ives
bl og
ĠD in
LE D
oc hem
c ass
ĠPhil osophy
u ary
Ġcolle agues
Ġexcept ions
ĠMar io
Ġasymptot ically
Ġattack ing
13 8
Ġtr ump
Ġpian ist
Ġs oc
or um
Ġexam ination
ĠVlad imir
ma jor
Ġattract ive
18 42
ĠInd ies
ĠR ule
MP L
Ġsk ill
Ġmark er
Ġs ync
Ġlogarithm ic
ĠRes ult
ĠDav ies
f und
N ER
ĠNorth west
Ġv e
T imer
Ġnovel ists
Am ong
Ġs hed
18 12
Ġdis appoint
iss ible
ĠJohann es
Ġfrag ments
ars ity
/ "
part s
ĠIsa ac
Ġcor ps
ĠProv incial
Ġbig ger
osp here
18 36
Ġvis cos
ĠIn g
H H
Ġapproxim ations
veloc ity
Ġhe m
* ,
18 32
Ġarchae ological
m any
he ng
ĠEx ped
Ġdegener ate
å Ĳ
Ġdisband ed
}} )\
ben ch
er k
Ġhouse holder
ĠR aid
ĠF lem
ĠN u
ĠLuc as
Ab out
H ard
Ġtransl ations
100 00
ĠĠĠĠĠĠĠĠĠĠĠĠĠĠĠĠĠĠĠĠĠĠĠĠĠĠĠĠĠĠĠĠ ĠĠ
ĠLeg ion
Ġnumber ed
sat isf
ent on
Res earch
Ġanom aly
ĠG amb
Ġun likely
part ition
emb ourg
Ġs ymplectic
le af
g al
ĠF oster
the y
s z
order ed
at ics
Ġqu arks
ig roup
Âł Âł
ellow s
ĠStat istics
R M
* {-
Ġb is
ĠPart ners
ĠLiber ty
With out
p al
ess es
Valid ator
Ġadd itive
R oad
ĠRod rig
ĠO N
Ġapproxim ated
ĠInitial ly
Ġpron ounced
Ġh ub
ĠRet riev
Ġd ots
ĠSt ories
Ġr iders
Ġtour ism
rypt ed
Ġpil ots
Ġup coming
Ġeng agement
ĠF at
S ite
ĠW ord
NS String
- $\
Ġwe aker
ced ure
ĠS L
Ġprocess or
Ġev il
Ġassert ion
16 9
ĠS creen
Ġb achelor
Ġsp ins
Ġp lease
ĠC inema
Ġdr ink
Ġn arr
H aw
Ð¾ ÑĢ
ĠFellow ship
Ġ' ',
gl s
stan bul
ore n
Ġ' .
Ġstri king
po inter
pl ain
ĠRo osevelt
ag onal
Ġin tern
ĠDes ert
orm s
Ġbelief s
R F
ĠRead ing
ĠB E
face book
ĠAm bassador
Ġaff air
$ =
flu id
Ġfeel ings
iz a
Ġrout ine
ol ve
b ian
Ġmeas urable
Ġconduct ing
lev ard
vers al
Ġel if
Ġcomp ress
Ġep id
Ġpoor ly
Ġsh ops
Ġf ert
@{ }}
resize box
ĠR T
St e
ĠC ert
B IT
Ġhead ing
Ġgu itars
urs day
ĠSalv ador
S plit
and ro
Ġ Ã©
geq slant
Ġpo ison
Ġdecl are
S y
ĠSt op
Ex ists
Ġo mitted
AT O
P ac
quir y
Ġcomb inator
ĠCon dition
Ġb eta
Ġevolution ary
r k
ĠV II
> )
ĠG ren
Ġcho ir
bor o
ĠUr ugu
Ġwon der
ĠRail ways
Ġstreng then
ĠHit ler
ĠL ok
ĠJama ica
Ġm i
evel oper
Ġdepict s
22 5
^{ {\
unc an
Ġ( #
B on
ĠY a
u o
Conver ter
Ġmac ro
ĠH AL
Ġpres erving
Ġadj oint
C ONT
ĠMaur ice
Ġab oard
Ġs ou
G aussian
col span
ĠL arge
Ġregular ity
Ġdef inite
down load
iffer ential
Ġisot ropic
S a
t v
() ),
s yn
k al
Ġreal ization
Ġper pendicular
Ġunder go
ĠIm port
Ġj u
M NRAS
ĠS ullivan
14 3
ĠP si
q ed
Ġr h
Ġsur prise
ĠMal ta
app ings
m apping
ĠJ ur
ĠK arn
Ge org
Ġcon g
sl ide
ĠE V
Ġstop ping
Ġaccept ance
ra h
cl i
ator ies
M N
Ġc iting
P HP
ĠCit iz
cur ve
l icenses
lin ks
Ġneg lect
ĠI ter
M Hz
and i
S to
ail ing
ĠHind i
ass er
Ġcompris ing
n om
ĠP ul
direct ory
Ġaut onomous
Const ruction
^* (\
Ġstud ios
Ġh ills
ĠCol umn
Ġmem or
Ġbrig ade
Ġab olished
ĠSl av
Å Ļ
ĠCh an
' }(
Ġb ubble
Ġdescript ions
^{ *}
ĠV ern
ĠA w
ic it
Ġdiv is
Ġa xi
Ġmethod ology
Ġpack ages
ĠOak land
sh ifts
Ġtim ing
or ers
Ġcheck ing
chi ef
O s
Ġmulti plic
ĠN AV
ĠAss umption
ĠWrit ing
Ġbank rupt
Ġre con
Ġfoot age
ĠTod d
rack ets
E lect
T yp
Ġst reak
oe ing
M ix
ĠG y
m embers
Ġred es
Ġprogress ive
Ġtax es
ĠTh read
ĠMem ory
ĠCab inet
000 1
e ur
AT TR
Ġin ject
Ġcon scious
Ġharm on
ĠL if
Ġatt raction
Ġfle w
Ġcounc ill
Sp ring
Ġsp iral
/ _
Ġre write
Depend ency
Ġall ies
AS K
M u
ĠC G
ĠD anny
ĠB Y
cos h
Ġres erves
ĠHol mes
ot er
anc ers
mont on
om m
Ġb orrow
ĠVol unte
ĠL ipschitz
anim ous
S mall
Ġsoci eties
trans fer
ĠEn c
scal ar
C itations
itte es
bound ary
Ġno isy
W at
Ġs ung
ĠEp isode
Ġquarter back
Ġpro jections
ĠPlan et
V irtual
uis ine
ĠM ade
man uel
Ġbranch ing
Ġ ig
ĠM ine
Ġ" .
power ed
Ġtravel s
D evelopment
Ġconvolution al
Ġn ested
an ian
Ġphot ometric
Ġenem ies
Ġas ymmetry
kw args
Ġw orn
Ġacadem y
Ġin herent
nd ez
ull ah
ĠO wen
Ġtribut ary
ĠJ ob
Ġcharacter ize
column s
m essages
Ġconsider ations
Ġtack le
__ )
ap a
AT CH
cons ist
i q
att ed
Ġback ward
Ġb atter
ĠÃ ĸ
Ġbomb ing
ĠS ter
pro duced
ĠL isa
ĠEx hibition
Ġwe aken
Ġc atal
ĠAst ron
al ong
ĠF OR
Ġequival ently
Ġax es
Ġcomplex es
land o
ĠExp ression
rel ations
b org
ĠMan ila
j in
Ġatmosp heric
* }\
un ning
Ġtour ist
Ġs overe
Ġtrend s
Ġb otan
ort s
ĠH ass
ri ber
Ġflex ible
Athlet es
Ġform ulated
á Ģ
Ġc ow
ast ics
Ġbound ing
ac ian
text style
roll ers
Ġcut off
Ġimm igration
ĠB O
ĠCy cl
ath y
Ġcomm enced
App end
ĠN ormal
Ġgrad ed
Tim estamp
r ity
ĠP resent
Ġpri ests
um ped
Ġlong itudinal
g auge
Ġsearch ing
H o
ĠF R
}) ^{\
Ġoccur rence
he x
ust ers
ĠC red
Ġannounce ment
W el
second ary
aj i
Ġsynt ax
Ġf irms
ĠHar per
Ġarg ues
ĠA ur
ne ut
}{ $\
Ġhand ed
ï¼ Į
}} _\
Ġb racket
Ġmem oir
v p
ĠK ate
ras er
ĠN ottingham
an z
_{ (\
Ġa fore
I mm
kins on
ĠC openhagen
ĠR overs
se gment
Sc hed
ĠB rid
ĠShort ly
iff e
[ {\
)} =\
Ġcorrect ed
Render er
in ia
J ean
Ġvolunte ers
Ġqu iet
$ ^{\
ĠN N
Mod els
ĠL iv
ĠComp etition
ident ity
Con v
Ob server
Ġ$\ |\
ĠThrough out
ik es
art a
Ġtel escope
ĠL HC
ord inary
Ġsuff er
c us
Ġhol iday
at tach
tr l
Ġcollect ing
ibl ings
ĠJust in
Ġneutr inos
Per iod
Ġsl opes
ĠSaf ety
Ġplan ar
A X
pred ict
Ġmod elling
Ġas set
" },
Ġdel iber
ĠDe cl
c orn
atin um
ap ur
ĠW eyl
Ġsever ely
Ġ| =
ĠLanc ashire
g ov
Ġprevent ed
aus es
Ġbond s
S ort
ol ics
ĠP ain
Ġd rain
ur d
Ġt ru
á ¸
T i
rg b
ĠP romise
Ġ ----------------------------------------------------------------
ĠCon v
Ġphil anth
ĠG alaxy
A U
ĠS end
ĠO z
m agn
if iable
or bit
Ġc ant
Ġexpect ations
g ems
Ġsp ont
)$ $
ĠP rison
Ġrem arks
Ġveter an
Ġob ey
n os
Ġy ard
Ġm ilk
ĠO P
Ġcl one
Ġsp anning
Man agement
Sign ature
ous ing
ĠM umbai
Cont ract
ĠAndrew s
Ġt ile
Ġadv ocate
Ġh unt
Ġaccess ed
W W
W allet
sub mit
Ġactiv ated
b is
Ġpr ince
Mod ern
Ġmole cule
Un ique
resol ved
Ġsingular ities
d rag
ig ue
Ph ase
Ġconvers ation
Arg uments
Ä ħ
Un ion
\\ [
Ġarchitect s
Ġcaref ully
ĠCorn wall
}. $$
Ġprogram mes
Ġtransform s
K it
Ġam bassador
' },
ĠN ine
ĠM is
Orig in
b os
l ated
Enc oding
abul ary
eck er
Sup ported
p ref
33 3
Ġpit ched
] }$
HER E
Ġa ck
}) }{
ĠGl ou
found er
g em
rot ate
found ed
ur istic
Y Y
n ai
ĠN intendo
ĠIn stitution
path s
Ġpol es
mult ip
c ock
ĠM ang
n Ã©e
Ġrot ate
Ġdis able
Us ers
Ġchalleng ed
U ntil
Ġin frared
Ġval ued
Ġmer ch
ĠIraq i
Ġun changed
ter bury
ĠA ub
L iber
Ġt orsion
Ġcons erved
byter ian
r ar
Ġimp ose
Perm ission
L ab
Ġb ag
Ġplace ment
ĠR F
sp ired
ĠMet al
Ġfound ers
ĠTra vel
ĠT ir
ĠAbd ul
on ial
Ġimprison ed
ĠD oc
Ġcam eras
R h
che l
Ġship ping
ĠEag le
ĠF inals
Cont ains
ran es
{ |\
18 34
Mart in
Ġim per
Ġst ick
Ġillust rates
ĠDomin ican
Ġutil ize
Ġc ust
Ġepoch s
op a
Ġconf used
Ġin complete
un ion
com parison
Ġen larg
cd n
A st
ĠSant iago
r ules
Ġre forms
Ġinsert ed
ig rated
Ġto ll
R en
}) :
Err ors
y on
AR CH
Ġcult ures
ĠC lin
Ġver ification
Ġdo ctors
es a
ĠI v
\\ \
Ġl ights
ĠPalest inian
ĠAl bums
Ġback up
ĠT ry
Ġafore mentioned
B ern
Al t
p ars
ar in
ĠB elf
Ġsu ite
h pp
Ġp c
R o
Ġsort ed
ĠSt yle
loc ks
ĠPl ate
Run ner
ĠG othic
Ġret reat
P romise
}\, ,
Ġtrigger ed
ĠL akes
ĠA ges
ĠC avalry
qu ark
Ġinfer red
Ġlocomot ive
ĠPar ks
Ġstructure d
ĠRepublic ans
N orthern
am ine
Ġcirc ulation
CD ATA
Ġfre estyle
ĠMot ors
Ġind oor
Ġblock ed
Ñģ Ðº
ever y
ĠWest minster
Comp iler
B ool
Ġman ages
r ass
Ġinstit ute
ĠF ul
ra its
head ing
ĠEll is
Sim ilar
Ġed iting
ĠRe ich
Ġche ss
y c
Ġb undles
Ã¨ s
Ġair line
Ġfl ank
ĠBlo om
Ġvocal ist
ul ers
Ġviscos ity
j d
( $\
ĠK E
}) ^{-
Ġpass ion
Ġgrad es
ing o
enc oding
Music ians
ĠEd mund
40 4
Ġ )\
Ġadvert is
Ġbl ank
fe atures
G reat
Ġfactor ization
Ġpro l
Ġmiss ile
US A
] ))
Ġrev ival
pot ent
ĠT alk
ĠK em
class ical
ĠPear l
whe el
Base ball
Ġwire less
N eg
Ġdec oding
ĠC ut
dist rict
Enumer able
Ġfilter ing
ĠPrinc eton
ern ess
ĠIs le
Ġn ontrivial
ĠR as
Ġsp ur
ĠArch ae
Part icip
Ġhyp ers
sp acing
Ġr ifle
B order
Ġf is
w ik
Ġcasual ties
E r
ĠAn im
Row s
ol lo
Ġw alks
con vert
Ġso ap
HE AD
Ġshel ter
Ġround ed
inter action
rem ote
ant om
ep age
ĠS aw
ĠA chiev
Ġrecru ited
ĠA ch
I AL
Ġdist ribut
m ot
re ement
R ules
Ġadminister ed
Ġin ert
Ġare na
ern els
ig i
ĠN ancy
Ġtri angles
ĠGram my
Ġb ull
Ġnep hew
Ġinvar iants
Ġf ed
ich let
H tml
ĠViet namese
ĠP icture
RE SU
al ert
ĠG and
rac ing
at ta
ĠPar ad
p her
ĠDe lete
ĠJul ian
oy le
Ġquant ization
Ġsk ew
ĠH us
Ġco q
Ġbehavi ors
Ġ à¤
ab ol
Ġc ounsel
ĠR i
ĠS SL
Ġspeed s
ĠPak istani
Ġneighbour ing
om ar
Ġvers e
p ic
alk eeper
14 7
ĠMon ey
s olution
Ġconclud es
ĠGe off
Ġenhance ment
ack nowled
under brace
Ġw ake
K im
ĠT ennis
Ġcap ac
ĠEvent ually
Ġmoment a
Ġal ien
amb a
ĠTrans it
emph is
Ġrecip ients
Ġsuperv ision
ĠManit oba
G F
ĠB od
H older
- {\
Ġarbit rarily
g art
ĠH ir
n or
Ġp ill
ĠSh ield
ĠN as
Ġent repreneur
pos able
AT ED
Ġalter ed
t ip
Ġsport ing
ri ans
Republic an
}} }}
ĠC yr
hom ogeneous
ĠB orel
Ġlight ing
Ġill um
c ancel
Ġtw ist
Ġapprop ri
Ġserious ly
Ġneur ons
ĠLe aders
26 0
D a
spe aking
t uple
Ġh ind
BA SE
Ġto mb
ĠTw enty
cf g
spi racy
Ġcorn ers
es ar
ĠA u
ĠSh im
arri ers
Ġwid ow
Ġ! !
Ġcompens ation
Ġtouchdown s
Ġcont rolling
Ġceleb ration
ĠCard inal
cl s
Sh ared
ĠW ait
Ġtw isted
im edia
Can ada
Ġinit i
Ġfoss il
repe at
ĠMoroc co
18 15
ĠPlay Station
Ġconc aten
ĠMarc us
N ING
ĠBr ussels
ĠD y
Ġpret ty
n od
P ak
in j
ĠM old
trans action
ow der
def er
W he
}{ !
ĠFl ag
Ġarchitect ures
form ula
Ġpar agraph
et e
Ġcalcul ating
ĠLore n
Ġover w
Ġsim ulate
Ġd rops
Ġinteg rating
Ġsuccess ion
act ing
c as
t ouch
ss l
ĠB ark
Ġred und
ĠPet e
Ġsh ots
Ġevent ual
Ġar ithmetic
ĠGr ass
Ġillust ration
ĠGard ens
H ouse
ĠS weet
28 0
am med
TR Y
ist le
Ġm oll
Ġdr inking
ĠP ars
Ġke eps
Ġsimpl ify
Ġco ached
oupl ed
d ynamics
Ext ensions
ĠM ull
Ġch apters
Ġsqu ared
à ®
Ġbroadcast s
Ġcur rency
ĠEx cell
Ġcap ita
ĠCa uc
W ang
ĠP ink
| {\
ke es
Ġfe ud
Ġment ions
ĠM TV
ĠM ales
bo at
Pre vious
Ġeng age
Ġjo ins
ro uter
G IN
y i
Ġserv ers
Ġscreen ing
" ].
ĠFa ith
ĠHe ights
Ġbi ology
)) =
ĠWood s
Ġgrand son
K h
ĠNiger ian
weight ed
ab atic
olut ely
h urst
ĠHop kins
Ġvict ories
Ġarray s
Ġcomment ary
Ġsp okes
sen al
pos er
uff le
rag ma
be it
Ġmulti plicity
Array List
Ġcommit ment
G ate
Ġfollow ers
ĠM E
Nav igation
ĠC V
ĠInter est
er ious
us r
Ġapp endix
Through out
Polit ics
in ced
Ġv ortex
16 6
ĠHer ald
Ġport folio
inf all
ĠSm art
Ex pected
ve ction
ĠCub an
Ġput s
ĠH im
Ġrend ering
pre vious
to Be
ĠTr in
LO W
Ġcolon ies
Ġm im
Ġfunction ality
Ġque en
}} ^\
ĠLin ux
V ir
ĠM ail
ap or
Ġsculpt or
ph rase
Ġdiv isor
enti eth
Ġs ick
ern er
Ch ain
pat cher
In c
Ġaccount ing
Can vas
d ates
Ġp our
Ġpars ed
Ġb ell
ĠExped ition
Ġbreed ing
ild a
Ġaffili ate
cess ion
Tur k
13 9
Ã °
d evelop
Ġpi pe
er ie
ĠS K
can vas
n is
ĠC auchy
Ġrefere e
i ens
ĠA ws
Ġexperiment ally
C le
ic ism
Ġaccompl ished
ĠBelg rade
Ġsurn ames
Ä Ĺ
Ġsear ches
diag onal
Ġv in
Ġburn ing
Ġinter cept
Ġexplo it
ĠR ut
P ier
Per formance
es ch
ĠF ut
ĠPol l
ĠW IDTH
ang ered
ign ore
Ġmod ulation
**** **
Ġf atal
gener ator
Ġdown stream
Ġmod al
ĠCzech oslov
ues day
Ġaf ternoon
Pop ulation
Ġray s
m os
ene ath
ĠC av
tr ation
IN ST
ĠSh ould
Ġ uri
ĠArm enia
ĠH ale
ĠL ar
ah a
ĠH ess
ĠV ers
col head
ĠMethod s
Ġd ogs
Ġnam ing
Ġs weet
pe z
Ġrect angular
ipart ite
re ne
B rown
ĠC rist
id y
ĠX X
ĠTe V
intend ent
oot ing
Ġtra pped
FI ELD
cho ice
A K
ri o
am as
Ġfor ty
ĠE lection
Ġpre val
ĠParalymp ics
Ġar rows
Option al
Ġp unk
Ġtr ig
comm it
ĠBuild er
Ġcontin uation
Ġpat ri
ol ith
Ġprov iders
ĠO st
Ġinitial ization
M unicip
) )$,
Ġflow er
tim estamp
ĠU tt
Ġte eth
Ġg aining
)} ]
\" {
din and
ĉĉĉĉ Ċ
ĠWild life
Ġproceed s
ĠSh op
ĠSt akes
ĠGener ation
en ario
ĠD ale
ĠCon cert
Ġgra ve
dec om
og an
ĠAddition al
Ġdesc riptor
re ach
pt s
n atural
Ġcomed ian
ĠIn spector
Ġf ram
H uman
ĠSch olar
F K
y ang
-- \
U pload
u pe
ov i
Ġpract ition
ĠK ot
ly m
ĠP lease
Ar thur
ĠR ib
Ġperman ently
S erb
Treat ies
c ially
ĠAd v
Ġz eros
ow ards
fl ush
m ak
the se
H ot
og o
Ġauthor ized
$ }\
Ġin duce
20 5
ĠMon th
ĠP HP
ĠH arm
Ġco herence
Ġlaw suit
Ġdem ocracy
acher s
: @"
ĠCelt ic
M iddle
Ġde eper
Ġfre ely
. }}
Ġf ung
Ġsign atures
ar ab
Ġcaref ul
label s
pi res
Con sole
ĠBl ake
ĠT arget
ĠH aus
Ġdeep ly
rest rial
ĠR M
ĠN om
Ġem pire
ĠNob el
Ġc ached
CO MM
ĠN L
Ġdiscontin ued
n ut
Ġp unct
cf c
Ġj ew
( (\
ĠPow ell
ĠE ve
}= -
Ġpen et
Ġfre ight
0 10
ĠR ice
Ġ ibn
Ġnot iced
Bel g
G Hz
Ġh az
f rames
ec a
alth ough
Ġsh aped
È Ľ
dep recated
Ġcompar isons
Ġunder graduate
ĠCre ates
Ġpsych ological
F ALSE
ar ians
ul ous
ĠSw ift
Ġtem ples
ĠGu ang
Fore ign
ĠPo etry
Ġche st
ĠNad u
Ġcommun ist
h on
ĠAh mad
s ix
cor relation
ien ne
J ul
class Name
Ġcoll apsed
Ac cept
ot ypes
Ġsim plic
Hung arian
Ġgl ac
15 4
Ġterm inology
Nov els
itt en
Ind ividual
Ġtheat rical
Ġdeterm inant
ĠCom edy
Ġ' "
Ġalleged ly
bre aking
t ility
Ġ' ./
ĠSer ial
ogn ition
Ġd rove
Ġwar fare
A UT
Ġselect ing
Ġc f
Ġminim izing
ĠB ound
Ġkilomet ers
Ġcoff ee
D etail
O cc
add ed
18 33
getElement ById
hab ilit
ĠMont eneg
amm ad
ĠPlan ck
Bur ials
rosso ver
med ium
H ook
ĠJ son
ĠSt rong
Ġachiev ements
V ICE
elect ric
ĠClass ical
Ch anges
ĠÐ º
Ġd ancer
Ġd Ã©
ĠB OO
ĠHe aven
add y
ĠCurrent ly
Ġqu bits
ĠC atalog
q a
ell ers
ĠSD SS
Ġevalu ating
RESU LT
l is
Ġdesign ers
Ġsubgroup s
ĠBudd h
Ġcl ause
Ġch ore
Ġeth n
Ġboard s
Ġsus pected
ĠTy ler
ĠFig s
Ġ' %
D ynamic
Ġman ually
Ġinteg rate
W IN
all a
0000 0000
Dep th
ass umption
ĠMathemat ics
ĠF iction
ph ot
Ġstr at
Ġassert True
}, $
reg ation
Ġcontact s
ĠP orter
Ġfif ty
enc il
N I
Con tact
ĠPh ase
Ġposs ibilities
o que
ĠH od
p aces
Ġde fer
Run ning
Lin q
L es
Ġvirt ually
Ġemphas ize
bl ob
Ġliter al
_{ |
), \\
con cat
'' '
Ġgradu ation
f uture
Ġevery where
Ġb ats
Ġr idge
L ite
U ES
Ġinitial ized
Ġb rew
Ġreal ize
cor r
Ġun w
do es
Part ition
Ġe V
Ġw ars
ĠJul ia
Ġcivil ians
ett es
Ġfriend ship
ĠN acional
Ġsec ular
w oman
le ys
ancell ation
N atural
am ount
ĠT iger
ĠĠĠĠĠĠĠĠĠĠĠĠĠĠĠĠĠĠĠĠĠĠĠĠĠĠĠĠĠĠĠĠ ĠĠĠĠĠ
ĠFilip ino
link ed
Ġhon ours
Ġpres ervation
ere k
C zech
un ivers
50 9
arri or
Ġsculpt ures
Ġdemand ed
sw arm
Ġ`` `
00 3
ĠGen eva
s amples
} '$
Ġup grade
wild fly
a ft
A ff
Nor wegian
ac iÃ³n
B asketball
b undle
Ġcatalog ue
Ġby pass
oy e
Ġ_ .
ĠG ael
u u
Ġw ore
Ġthreat s
ĠE g
ĠR S
high light
Ġexecut ives
C md
(" %
ĠG rad
ĠGl ass
Ġansw ers
ĠNAV BAR
B G
ĠBou levard
Ġen abling
ĠK ind
Ġall Classes
4 80
j ud
ĠF L
Ġdiplom at
Ġvo iced
Ġaddition ally
15 6
ĠT at
Ġg ent
ĠAll an
AT OR
ep ing
Ġmain land
Ġprov isions
Ġo w
Ġrad iative
ĠC ay
pr im
ĠEston ia
Ġdr ives
Ġinvest ors
ĠC i
ĠG ol
Ġathlet ic
ĠPl anning
C s
st rip
F D
ĠIndian apolis
Mon th
ĠFern ando
ĠZ imbabwe
Ġhold er
B ir
be at
Ġalleg ations
> [
Ġf etch
Ġbox ing
f u
e V
Ġt idal
Ġc rops
Ï Ģ
ĠW orth
ĠÐ ´
B ay
Draw ing
}) +
ĠF eder
in ions
ev o
ĠL ip
Ġconv inced
14 6
ĠH alf
Ġun ified
re ts
ĠBrook s
Ġp m
list ing
re pository
ch air
ise cond
Ġsupp ression
Ġj ail
Ġgu ards
ĠAb b
d h
ĠAn a
Ġrest art
}$ ~
ĠallClasses Link
Ġfle e
ãĢ Ĥ
Ind ia
Ġtr uly
ĠLeg islature
Ġperturb ative
Ġth rew
Ġan onymous
Ġrenew ed
ĠP or
Ġf s
c u
Ġsurviv ors
.. ."
V O
enc ode
Ġm ath
ĠKenn eth
sp ot
ĠEngine er
Ġrenormal ization
ĠC e
ĠCamp us
An chor
aver age
ĠPolit ics
ĠL abel
ĠW ak
15 7
th rift
Ġeditor ial
Ġan ch
ä ½
Ġmot ivation
C AC
Ġtele phone
ĠW ool
ĠB ess
Ġfl our
Ġtalk ing
Ġtro uble
I Z
w hat
ĠF ra
M ut
ical s
Ġad option
ĠA er
Ġcounterpart s
T asks
ĠW ant
Ġun ve
Re pe
A ST
Ġthread s
Ġ< -
Ġcur ved
Ġown s
14 1
ĠEm ma
ĠG em
Ġacknowled ged
ĠFight ing
Ch ief
trans port
Ġhost ing
ĠR iv
P N
any on
ĠCol in
× Ļ
Ġcount ed
ĠV eter
ĠS hen
ÑĢ Ðµ
integ ral
ĠPrinc ipal
Ġpat ches
ĠB R
Miss ing
ĠHe at
14 2
ynchron ous
Ġb read
ch at
Ġdim in
sh ore
ab ases
ĠPhys ical
ĠQu art
Ġperform ers
be ing
Ġhom ology
Ġbeet le
ĠD OM
sc hed
ĠI de
col m
ĠFrank furt
oy a
Ġa erial
Dan iel
st en
Id x
ups ilon
W ood
Ġn ut
ĠM uk
all ed
Ġsub mit
Ġrefer endum
Ġwebs ites
ĠSol omon
am oto
Ġneg lected
ĠF ed
ident ial
21 3
in aries
g ender
ĠRichard son
att en
ourn ey
ĠPro perties
Ġinv ersion
us ive
al gebras
ole cular
ĠLou ise
Ġrefuge es
li um
Ġnom inal
ĠAdd ress
.* ;
Ġprofession als
Ġconv ey
P a
Ġw x
W ashington
al one
Ġcont our
Ġrep ublic
ĠVal ent
ĠGer ald
or p
Ġl ig
Ġem issions
Pre v
im m
ne z
k el
Ġgener als
D irection
che z
e eq
Ġcre ator
ot hes
Ġuniqu eness
ĠDisc overy
Ġfore cast
BL IC
SP ACE
ĠAl pha
ographer s
Re ason
20 2
Ġcontext s
). $
)$ )
ex isting
Ġunder went
al in
Ġinvert ible
ĠAp ost
min imum
Ġgo ogle
B reak
Ġinter faces
dat aset
^* ,
ĠD um
sh an
b ers
mark et
M G
ĠSur rey
U nd
Ign ore
esc u
S ig
ĠAdvent ures
ĠSim pson
Ġprom ised
ĠS ize
hard t
ump y
ĠS qu
L Y
A SSERT
ĠD id
18 31
Ġupgrad ed
ik ing
ip zig
L F
u uid
pop up
Ã© m
ĠPar se
ray s
Sh ader
g as
Ġrap per
Ġdraw s
ĠLy on
T rad
Ġspecial ist
Ġs ake
S om
ve ill
Ġturbul ence
St ub
H u
Ġin scription
Ġcul min
Ġco res
dimens ion
Ġsummar ize
ĠD ob
re po
ly mouth
ott i
Ġmark ing
Î »
ĠM ead
)} }\
) _\
DO M
Ġf Ã¼r
nav igation
Ġconfer ences
Ġprison er
ĠESP N
ĠH ab
Ġwatch ing
ĠT D
Ġp ink
ĠP om
F ellows
Ġs le
M ir
* {\
I ss
ĠK ab
C NN
ug a
Ġco arse
ĠHend erson
ĠCh oice
design ated
n ick
ĠB ran
Ġhe ir
ĠWhe ther
ibl ical
ch in
Ph one
Ap pro
ian ces
B rien
sh ops
w arn
ĠD uncan
Ġk nee
Ġper pet
16 7
Ġimport ed
ide a
icy cle
it ic
ĠCon vert
n at
ĠRol ling
ĠG mina
Ġgram mar
aw i
S el
Ġaccept able
Ham ilton
Ġl ung
Ġret iring
22 4
I ce
Ġhigh lights
Ġpair wise
ĠAm y
l ore
ĠP erm
Art icles
ĠCr us
Ġanten na
arm ac
Ġd ancing
Ġj s
Ġh itting
ĠĠĠĠĠĠĠĠĠĠĠĠĠĠĠĠĠĠĠĠĠĠĠĠĠĠĠĠĠĠĠĠ ĠĠĠĠ
L ICENSE
s an
Ġperfect ly
p it
ra f
Ġhierarch ical
ĠC ategory
)- (
ĠEr n
You ng
G ui
Ġif f
ĠD ynam
ĠBy te
ĠG rid
ĠDi pl
ĠArm strong
eg an
\, $
ĠAm endment
th us
ĠE RA
ĠBer ry
Ġpresent er
Ġb er
ĠP rec
ĠBrad ley
17 75
pe x
Ġbuck et
Ġpar a
US Y
Ġg aps
FLA G
Ġp icks
Ġk ernels
Ġcont ributes
= |
Ġinter active
f ollow
20 8
C art
he nd
ĠH ook
ĠE val
ĠC ell
And roid
Ġachiev ement
}\, .
ĠU ntil
enz ie
l c
Ġharm ony
utt le
Ġdemonstr ation
Ġâ ĪĴ
clud ing
act ual
RE D
b v
Ġconf ined
Con clusions
15 3
ĠV ert
ĠW ikipedia
Ġbeat en
Ġprepar ing
Ġhand les
or ange
ole v
string s
Ġide als
Ġadminist rator
S ta
ĠChar ter
ĠBa iley
> {
ĠS equ
Ġap ilevel
14 8
d eb
in ject
rest rict
ĠB iography
\% ,
un ar
L ev
Ġbos ons
ĠCont est
Ġwrest ler
Dist rict
k ers
Ġsequ ential
g rand
d w
m obile
Ġel ite
set ting
ĠWy oming
are l
Ã¤ r
ĠRem ix
ĠB row
ĠB order
ĠH els
ĠPro gress
V S
F ixed
BU IL
Us es
Ġbe ars
uzz le
ĠOs lo
Ġsudden ly
ĠCan terbury
Ġst olen
Ġcomp atibility
FFFF FF
Ġmyth ology
Ġt une
ag le
ĠGi ovanni
15 1
reed y
Ġ' _
C ALL
Ġ} (
Ġcon qu
ĠDev il
ĠK urt
Ġsub scription
ĠRe id
Ġthermod ynamic
Ġext rap
ĠU til
Comp at
Ġrel ate
ad j
Ġlist ening
ho ff
ers en
g io
al an
Ch ina
grad le
C ath
Ġor al
Me V
Ġn ice
ric a
× ķ
sc atter
Ġch unk
ĠCom ponent
ĠP Ã©
ĠKing ston
Ġthere in
contin uous
Ġcelebr ate
Ġrec ruit
Ġfavor able
Ġslow er
veill ance
15 8
ke V
Sw itch
ĠC apt
Ġkill s
ĠB anks
G it
ĠW arriors
Ġbroad er
im mer
Ġst ret
ĠD w
ĠBey ond
ĠR ush
Ġsem antics
FF ER
Ġcons ent
ed e
T ry
ĠE t
Ġch ronic
ĠT ales
Ġadv isor
Ġfit ness
system s
Ġon wards
Ġmetall ic
d dot
ĠR achel
c amp
IM IT
Ġestim ating
ĠS ons
B its
C hen
Ġcomplet eness
ĠM ob
ĠPop ular
Ġrele asing
od ia
h ra
ĠG ent
erg us
Ġh alt
Ġins pection
ĠAlban ia
ad oc
NO DE
it he
ĠĠĠĠĠĠĠĠ ĠĠĊ
ĠAlban ian
Ġsimilar ities
erm ark
Ġra infall
V ictor
18 28
aid en
Ġd ock
ĠS ession
Ġexp ans
Ġadm issible
ĠP L
EN ABLE
Ġdies el
el ong
P rice
Ġra id
Ġdisc overs
ĠYan kees
f itting
en vironment
Output Stream
INS ERT
ack ed
Ġimpress ive
Ġident ifies
get Instance
re duce
ĠI L
Ġv ault
Ġfall en
Ġs ender
un ks
Ġsc andal
Ġpresent ing
Ġbackground s
Ġconsum ers
ĠGib son
Ġoptim ize
Ġagre ements
ĠMax im
Ġv m
g ins
ĠCh ase
ĠLet ters
Ġdivor ce
ĠH i
{- }
Ġbar rel
Ġadjust ed
Ġsax ophone
3 75
et erm
ĠE state
Met rics
Ġhead quarter
ĠD epend
Part y
Ġst uff
Ġinv ented
ĠMar in
ĠCoul omb
Ġf ame
MM ARY
| ,
() </
Ġc er
}} -\
Ġcle ared
N ever
ĠChe ss
Av ailable
ier i
C ancel
(" #
Ġleg isl
ĠD oll
Ġg oto
yt ics
ĠD j
ĠInter state
Ġimplement ing
v iv
ĠP irates
Ġinn ovation
ract or
Ġresear cher
Econom y
@ {\
Ġsur render
Ġcitizens hip
ĠN atal
Ġlin king
Play ing
="../../../../../../ ../
Ġvo ices
Ġa est
ĠN P
up iter
ctu ary
uk u
ĠNik ol
) '
ar ag
Ġqual itative
Ġelim ination
Ġcovar iant
que z
Ġtow ers
seud o
ad al
ĠH ait
op us
Ġprec ip
Ġremov es
b eck
18 25
ext ensions
Ġfilter ed
ĠK ang
Ġp s
DE X
oca ust
Ġack nowledge
ĠLux embourg
Pro b
Ġmeaning ful
en za
% ),
ĠR L
_{\ {
ov al
pl ots
ĠK err
ell ation
ĠLe op
il is
annot ations
ym ology
Ã± o
Port ug
land ers
cal endar
Ġspec imens
ĠContin ental
St an
Ġtransport ed
rit z
ĠN othing
al most
un ov
get Type
Ġfa una
bas is
ĠT ampa
Ġnorm s
Ġincorpor ating
L IN
ho e
I p
Ġc uisine
)) ^
Ġthir teen
new s
Ġrev ol
Ġanal yst
stad t
Ġpurs ued
Ġdepos its
ĠTh an
Ġre conc
Ġst eal
ĠHead quarters
Ġdraw ings
min is
Ġaut hentication
sol r
ĠGu atem
ĠC ord
position s
Column s
ĠH aven
Ù Ĩ
ĠU RI
ĠH es
per formance
or ate
T ouch
ĠField s
Pro blem
ĠA A
zh ang
Ġrock et
duct ive
Ġmot if
ad vant
RA Y
ĠLiber ation
Ġrecommend ations
Ġsoph istic
F G
ĠPublic ations
ah u
ĠBund es
en es
let te
Ġto m
ĠA ri
ĠUn fortunately
Ġball ot
){ $
SO UR
Ñ Ī
log ging
ĠBry an
ĠCl ose
other wise
Ġen act
Ġreb ellion
Exec utor
ht ra
math rel
-\ !
ĠG PU
Ġconstant ly
Comp et
Ġturbul ent
Ġdimension less
the o
ĠAgain st
b eq
ĠWed nesday
ĠA G
Ġaccompany ing
f etch
ĠC ann
rosc opy
Ali as
ĠPres byterian
1 200
Ġpsy chiat
E nergy
ĠC ele
at ially
gener ation
Ġvulner able
ĠLes lie
ĠLud wig
script s
k le
v g
mod ern
}}{ (
4 000
section s
ver ify
18 14
ress ions
ĠS event
Ġbur ial
v ary
T ake
ĠTri ple
elect ron
Ġn od
c mp
At tach
Ġdub bed
B and
Ġc rack
Ġgo alkeeper
ĠEm ily
Ġb out
Ġas h
ĠC ort
Ġpack ets
Ġconnect ivity
P rem
ĠEu rop
Ġnom inee
Ġs iblings
Ġte a
^* _{
ĠF O
ĠV III
Ġcompris ed
w ald
omet own
Ġm ature
Ġimplement ations
Ġo l
Ġvol unt
Ġlab elled
iling ual
( ()
ab stract
ĠMod ule
Ġoscill ation
20 4
Ġrecommend ation
ia e
BP ACK
Ġperson ally
ĠM iles
ĠS yntax
ĠAb original
Ge ometry
Ġstation ed
Ġm a
ĠFran c
Ġvolunte er
"/ ></
F s
V an
Ġren owned
Ġrevolution ary
Ġc b
ĠT rent
Ġaggreg ation
g ue
)$ ;
ins k
ĠRoberts on
ĠMA X
ph on
18 18
ĠTan z
be am
Ġde form
Ġant is
Ġin jective
Ġcan n
met er
Ġmyst ery
Ġshould er
ĠÐ ¾
if les
ĠUs ed
Ġmob ility
e igen
j b
ĠI stanbul
ĠB il
ĠX I
ST AR
asc ar
ri ent
Ġtransmit ter
sh are
represent ation
pos al
Ġl ux
ĠBat man
ĠEmm y
( /
Ġdef ect
ĠFer dinand
oc on
Ġgl uon
ivid ually
sup set
Be en
FI X
ĠBOO ST
d st
g if
w on
LA Y
re act
Control s
Ġsynchron ized
ĠBed ford
Ġdiff e
ĠI sh
ust ration
ipher al
Comp letion
ĠCh ad
}$ &
UN T
ĠA FC
Ġs aving
Ġs id
ĠU nd
ĠH ey
Ġmon omial
ĠF raser
Ġexclud e
Ġcr ashed
im plies
Ġremember ed
m icro
ĠAg reement
L IST
20 3
Eff ect
Ġf older
ĠD S
ĠJ i
ge ometry
equ ilibrium
M ust
ĠHe ath
ĠQ ing
Ġcell ular
est e
Ġ" >
T oday
Ġdisappe ared
Ġb if
Ġsix teen
Ġend ings
Ġcirc uits
ĠFif th
ĠNew port
Ð½ Ð¸
Disc ussion
Ġv ital
Ġon set
ĠL enn
j ee
ant le
H K
Ġ& -
ĠSh ir
. ]
ĠP arameters
Ġwrest lers
T ensor
Ġatt itude
Cor ollary
ĠM W
S hips
g ary
l vert
ro tt
Ġ// !
ĠGl obe
Ġper ception
Ġbusiness people
rang er
Ġscript s
Ġlater al
Sc ore
Ġsched uling
phys ics
C orn
ĠSer ie
F N
Ġ= &
ĠA part
anc a
oc ent
Ġcl ay
Ġaccept s
CO M
q w
c yl
U pon
ĠA ug
Ġavoid ed
ĠStaff ord
Ġout lined
15 9
ĠEp iscopal
ĠWh y
Ġn m
Ġmod est
+ }
S hip
Ġcomb ines
Ġ Âł
ĠK ad
Ġhealth care
ĠSlov enia
ĠU FC
Ġmur ders
ĠMarsh al
3 30
Ġt ar
Ġt ent
Ġcapt ures
Ġobvious ly
ĠL I
Ġdifferent ly
refer ences
Enc oded
Ġeduc ator
Ex port
ĠVer ify
Sep ar
ĠCommunic ation
equival ent
as se
Ġr ally
ĠGeorg ian
g raphics
Ġgu ess
b ranch
f ollowing
}} ;
ĠA udio
ĠCath olics
Ġprob abilistic
Ġabbre vi
est ure
ent ropy
Ġstrong est
Ġh ang
Ġd ra
ipe g
D u
in verse
quest ion
Ġb acteria
Ġant ib
18 29
Ġcapt uring
ĠH ull
Ġe at
ĠCurt is
Ġjud icial
Ġtrav elling
Ġd st
ep per
ĠSu ccess
G ER
rid or
ĠCl aim
ab lo
E th
H op
Ġthe or
Ġc otton
ĠConstant in
Ġconduct ivity
L ines
Ġ- =
Ġfe els
Ġhealth y
ĠD ud
ĠNe umann
Ġconstit ute
ĠT ABLE
L os
( ['
Ġl od
Ġmus cle
ce ased
ir ie
ac ion
ellig ent
M AC
at able
ĠF emale
Ġpay ments
)\ |_{
Ġswim mers
E c
k ok
14 9
Sn apshot
99 9
Ġcan on
Ġra bb
Rec ords
r vert
ĉĉ Ġ
ĠCh in
Ġmin eral
ent a
im i
IL ITY
av g
Ġbank ing
ad ors
Ġreg imes
om ical
Ġcon form
air y
sat z
ĠFranÃ§ ois
Ġmot ions
Car l
cont rolled
) ||
Ġk ings
Ġmerg ing
Ġf oo
ĠG overn
ĠCom bat
ĠW ick
f av
Ġm il
$ ~\
pr ised
te ch
ian i
sc ience
Ġpay ing
Ġiter ative
ĠAntar ctic
Ġt d
Ġs ulf
Log in
ĠAdvis ory
Ä Ľ
Ġdist ortion
m ons
ĠGu itar
ĠK lein
ular ity
Ġun e
}: \
Ġtack les
ib ling
16 00
UT C
allow ed
Ġpar as
+ {\
18 24
bal ance
ĠS ymbol
Ġsp ir
ĠSlov akia
ĠLeg al
. ][]{
ĠL omb
Ã§ a
cos ystem
Aut hentication
Town s
Ġsail ing
add Class
] _{\
ĠEd monton
{ }\
Ġcumul ative
ĠL av
Ġinf ected
ĠTest ament
an ions
Ġspec ifies
ĠAd rian
sc apes
ĠOr lando
! ,
sh ots
cer to
ĠB ot
Ġf ate
Ġw rapped
Ġch orus
put es
Ġliter acy
ĠR ifle
he y
En able
ĠRiemann ian
6 50
ĠA way
Ex pect
sign al
necess ary
ĠG rim
Ġch ip
ĠClass es
Ap pe
Ġmagn itudes
p ixel
ĠSh ore
Ġadv ances
ĠCom plete
per ture
ĠCh al
iber n
Mult iple
. \,
ip ur
Ã§ Ã£o
Start ing
Histor ic
Ġtorn ado
V AR
int rodu
Ġem itted
ĠF BI
ĠEnter prise
f mf
n othing
t ake
Î ·
ĠC el
ĠCom par
p od
ĠLuther an
ĠD ong
ĠU z
en ic
17 90
R am
A meric
ĠW end
Ġad mit
ĠZ end
Ġinvestig ating
ram id
55 5
Ġaud iences
g ang
ĠAd S
t ile
ĠĠĠĠĠĠĠĠĠĠĠĠĠĠĠĠĠĠĠĠĠĠĠĠĠĠĠĠĠĠĠĠ ĠĠĠĠĠĠ
Ġinteg rable
Un iform
ounc ing
ĠColon ial
al tern
rit ory
Ġwavelength s
Ġrel atives
check mark
Ġpoly mer
Ġsur pass
p ad
Ġd ish
Ġtri o
d anger
ĠCle arly
ĠBas il
ĠLog ger
23 5
Ġtrunc ated
Ġpro c
All oc
Ġoutper forms
Ġimprison ment
oc cup
C ultural
ul ators
ĠH E
ac ular
.\ ]
append ix
' })
C ycl
ĠE ye
RE CT
Ġabund ances
ĠL t
'' $
ĠR oot
ros se
ĠCarol ine
amb o
ĠLithuan ian
End emic
ĠM ing
found land
establ ished
T s
histor ic
Ġex ile
Ġfour teen
ĠCal gary
ĠIt em
item pty
Ġiter ator
Pol y
ĠSp ider
in ar
con e
m ust
Ġacc red
il ion
con current
Serial ization
Ġt f
Ġsett le
a uc
Ġprot agonist
Ġpur ple
Ġanalog ue
ĠP U
ra z
Ġretriev ed
Ġflo ors
li o
Ġview ing
~~ ~
Ġpra ise
Ġrep ly
ur c
Ġ} .
ĉĉ čĊ
includ es
Ġknow ing
ĠEug ene
ĠBelf ast
om itempty
ĠPer iod
Ġcogn itive
T a
ĠC anyon
ĠEv angel
ĠMaced onia
Al pha
pr inc
Ġem it
Ġsens ing
c ot
{ },
Ġpun ishment
Ġre bounds
Ġh oped
cha ft
Ġenzym e
ĠH off
ĠAchiev ement
g re
ĠR egin
f ilters
18 26
ĠRes pon
ad h
ĠBud apest
Ġlocal ities
ĠSil va
(' <
ro ught
18 10
Ġs ink
ĠInter ior
ĠBur ke
Ġnob le
s igned
Ġcomm ut
Di agnostics
Ġdem ocratic
Im ages
Del ay
" ];
al p
Ġre ceptor
Ver ify
: -
Ġle ak
dot ted
ĠSher iff
Ġsp acing
Ġint ra
MB ER
ĠE k
Q CD
ĠH IV
Ġl ag
, $$
Ġsatell ites
S on
un ed
TI ES
Ġpregn ant
ĠJenn ifer
., ][]{
al ions
Ġse ized
Spe ed
Ù Ī
Ġ" ${
rac es
T AG
Equ ation
M useum
ins ki
Ġimpact s
che ss
ĠSpe aker
clud ed
ĠPubl ished
Ø ª
ĠM otion
ĠS ect
yl an
= %
ĠZ ero
Ġscreen writer
Ġ{ ?}
pi pe
if a
ind ices
w at
AR E
Ġnational ly
Ġl ip
ĠL il
Ġannot ations
Ġm ys
Ġfe es
R P
} --\
Set up
m ixed
ĠK aw
ĠCar roll
ĠBel le
ne um
g ement
Ġ è
atri ates
ĠM emphis
enn ium
Ġpre y
ĠC B
to o
e clipse
Ġexcit ations
ĠH yper
Ġr am
ĠIN TO
ĠWork ing
Ġs addle
Ġpass ive
ĠEthiop ia
F rames
Ġst range
ell ite
RAN TIES
s ocial
der r
Tem p
Ġanomal ous
Ġbe aring
ĠN ATO
ĠSt rat
Ġtens ors
Ġlist eners
l ic
ð Ł
Ġter rain
ĠI X
iers hip
ĠUSS R
ĠBas in
Ġrefer enced
Ġshell s
Ġrevers ed
as aki
Ġcont raction
: '
A MP
Ġaffect ing
Ġsh ar
Ġsn apshot
t imer
ĠParliament ary
Prior ity
ĠBened ict
Ã¡ ndez
ĠSch warz
Ġmanuscript s
Ġris ks
ĠF ay
fe at
ĠA ircraft
Argent ine
ur an
Ġspl its
ĠPal m
A SE
Ġland mark
Mod ified
period ic
ĠS ed
Ġim pl
s ided
Res et
ĠVAL IGN
Ñ İ
W D
ex istence
Ġen roll
ĠR ac
ian e
.... ....
I sl
Ġst aged
Ġdet erior
ĠSU MMARY
Ġlect ures
Ġserv ant
Ġens uring
Ġcomp lementary
Ġj ack
st re
Ġe gg
24 5
ĠPop ulation
an mar
Ġst ones
ĠD ifferent
Ġindex ed
L ag
Ġpost hum
Ġinf initely
Ad minist
ĠF an
Ġf ol
ĠL az
Ġsymbol ic
ĠP iano
Ġshort est
D IF
Ġdi ocese
to oltip
Ġisol ation
ĠBarn es
rend ered
Ġlock ed
p ragma
Ġconsult ant
ĠAmeric as
ĠHand le
Ġaut umn
ĠWAR RANTIES
ĠB CE
UE ST
ĠCap itol
cest ershire
Ġmot iv
ĠJ S
}: =\
Ġassemb led
Ġle pton
sub sc
O k
Ġf o
J on
ĠSant os
Ġbe er
Ġpe ers
al go
Ġro uting
| }\
Ġstat istic
Ġfor get
ard e
Part ial
Ġelli pt
ĠWag ner
Ġt iny
Ġprest igious
ĠGar c
prec ision
od el
ag ne
T Y
ĠWrit ers
in z
Ġas ide
Ġfarm s
ĠHur ricane
Ġm oon
ĠD eg
ad joint
Ġtheorem s
}) }{\
at aka
WE BPACK
| $.
5 50
ĠL odge
Ġmod ulo
Ġpar abolic
Ġemploy ing
Ġion ization
ot yp
ĠT aking
Ġk pc
ĠC rystal
ĠY et
Ã¡ r
ĠGl enn
PRO P
ry ing
ĠSe oul
s ent
Ġroll ing
D id
on ne
ĠPl aza
ĠK end
Ġf ractions
E ll
Ġback ed
Ġtrans ient
Ġdis orders
ĠH ern
att ing
18 21
p olit
Ġgeneral ize
oret ical
ĠP lymouth
p k
log o
ĠHard y
ĠI g
âĢ ¢
Ġmill ions
Ġhelic opter
Ġoverw hel
ĠRef s
Ġim g
M icro
op acity
t u
ous el
LE TE
j j
glyph icon
create Element
ĠN ull
Ġdissip ation
z on
ĠR ican
Ġlimit ation
Serv let
all i
ĠInd igenous
Ġdivor ced
Ġnot ations
ĠStr ateg
17 7
triang leq
Ġst y
ĠWes ley
ĠK ann
ĠChile an
00 4
Ġmer c
ĠNot re
ĠEston ian
ĠC ome
ĠL ik
Ġtransl ator
tw itter
ific ant
ĠLe ipzig
Ġ\ %
Ġf ires
Ġ\ )
ĠBurn s
ĠS Ã©
ĠMc Donald
ä¸ Ń
Ġred shifts
ed ar
ric ia
re ceiver
A BC
IC ATION
Ġprevent ing
ad just
ĠRe in
g overnment
Dist ance
17 8
anish ing
< >();
c odec
ĠCon nection
Rep resent
Ġlat ency
ĠRun time
Table Row
Ġrev ision
Ġelabor ate
Ġf reed
un ches
ĠTh ir
ĠGram mar
Ġ{ %
Ġexp atriates
16 3
Ġch lor
ĠLind a
G W
m inton
f lix
Ġamb ient
Ġspace craft
N i
Ġwh atever
B uf
T X
Ã ®
Ġconfigure d
ĠB ever
ĠD und
Ġlob by
ĠCour se
d iamond
Ġind ent
ĠStef an
Ġgrap hene
w av
Ġmass less
Ġgather ing
ĠS erv
}^{ *
p aramet
f ootball
Ġp ace
ura i
F eed
Oper ations
ĠKazakh stan
Ġc ock
ak k
un al
ĠNap les
mach ine
Ġcongress ional
Ġmyst erious
20 6
ĠTh ings
Ġsw ord
ist o
d ocker
}$ \\
Am ount
Ġaugment ed
ĠMor rison
Ġaltern ating
rell a
ev olution
____ ____
Ġreven ge
Ġh opes
n h
(" \
Ġcur riculum
). \
Ġcould n
Ġinhab ited
ĠUtt ar
ĠInd ividual
Ġins ufficient
ĠM ale
ĠD ow
ĠBur ton
ĠKE Y
t oc
Ġcommun icate
v card
ĠG A
view port
Ġconvent ions
IMP ORTED
} ",
et les
ierarch y
ĠF act
F ast
Ġb ol
ĠK iss
ĠFig ures
Ġaut omorphism
Trans fer
ĠH ack
,\ ;
ĠNew man
Ġsl ide
am ar
18 4
tim eline
ĠAber de
Ġun em
ik k
Ġnation wide
Ġw ickets
Ġr ivals
ĠCard iff
ynt hesis
im uth
aras htra
Ġsat uration
Ġabs olutely
en ko
ĠBan ach
F a
Ġjournal ism
ĠU P
|\ ,
ĠPl atform
arc sec
ĠH ave
H AL
Ġautom ated
Ġal umin
Mat ches
M ixed
s elling
ĠBrad ford
ink i
m x
s ens
u ine
ĠB ac
eyn man
Ġb eneath
Ġdiagn osis
ĠH iro
u chi
^+ (
ĠR out
}} %
ce ut
ĠH ood
mod ified
Ġliter ally
cp u
Ġbre ath
ogen ic
Scal ar
i ator
ĠLyn n
ĠR oc
est y
F actor
ĠAgric ultural
ĠB AS
Ġb ij
Ġline up
**************************************************************** ********
yg on
ĠB j
Ġdepict ing
22 2
ĠMy anmar
aff e
Ġs ubl
With in
Ġk ids
17 6
to ok
16 4
Sc ience
pro c
met rics
AV E
================================ ================================
mark er
sur ance
Ġig et
Ġperform er
ĠMic he
ĠO C
ĠMar ÃŃa
Ġterrit orial
Ġhel per
Ġflo oding
; |
Ġdesign ing
ĠMc N
g z
ak o
Ġdevelop s
ĠP u
ĠChel sea
Ġl attices
Ġref ined
ĠC riminal
ĠN urs
LE MENT
Ġspect roscopic
Ġf erry
Ġle ver
ĠM R
... ]
Ġpriv ately
Ġc rim
Met ric
Ġs its
Ġlift ed
sc an
ĠPrest on
Rem ark
osp ace
Ġhypot heses
arma ceut
Ġgu ided
Ġblock ing
ct uation
W ild
ain es
ĠCol lections
18 13
ram ento
ĠArg ument
Ġdel ays
Ġgu idelines
ĠML B
ĠF ilter
æ ķ
/ ">
Ġwid get
ĠS Y
ili ation
T urn
Ġtorped o
D isk
ĠStart ing
L V
is odes
atern ity
Ġwithd rawn
i ary
AC CE
m us
ĠT ru
Uk rainian
F ri
ĉĉĉĉ ĉĉĉĉĉĉ
iev e
A ctions
Ġv ort
vari ables
Ġpred icate
ĠDev ice
ĠRos a
im ming
Ġbe ams
Ġfaith ful
ĠDod gers
ĠM ilton
M arg
LE S
um ably
Ġsp anned
uch y
Ġh ometown
Ġmission ary
Ġl oved
CRE ATE
ĠV ale
gl ob
ĠLiter ary
art e
ew ard
Dep recated
n r
th ouse
Ġreg ret
am on
HO ME
{- .
Ġdev ast
Ġoscill ator
Ġcor ollary
Ġst yl
Liter al
L icense
dec ay
p rice
ĠElli ott
P lease
op rano
b k
ĠG B
ne apolis
ĠCub s
P ark
RE SS
ĠS ED
Ġr ises
Ġexpl oring
Ġaccording ly
il io
20 9
go og
contin ue
Ġmathematic ian
Ġn ose
r ud
Ã© l
IN VALID
ĠWind sor
Ġv oyage
r ina
Ġmaxim ize
ubern etes
ĠDir ichlet
G er
Ph ot
Ġb rackets
Ġam mun
ĠPubl ishers
st rict
Loc ale
ĠS FR
Ġsub stitution
Ġfix ing
Ð¾Ð ´
ĠT ropical
ĠD ew
Ġdifferent iable
ok i
ĠV ij
Ġpup ils
UR N
ĠÄ Į
und o
v dash
pe g
' "
if ax
Ð¸ ÑĤ
ĠSw itch
TR AN
Ġs outheastern
ĠB ee
Ġ' -
ĠSub sequently
ĠB oh
Ġfar mer
Turk ish
b h
s ources
ĠSh i
Ġdem o
ch urch
Ġfail ures
Ġless er
Ġemer gence
ĠInt el
Ġspread ing
r pc
ĠC ly
' ')
Ġs ew
ut i
ĠB ronze
Ġvacc ine
ig raph
Ġatt ained
Ġpolar ized
ĠJerem y
App endix
ag ation
se cret
18 01
Ch icago
}\ |_{
ys on
w iki
per cent
u ce
ĠEd gar
at ro
ĠSc ript
Ġhon ored
Ġrecurs ive
lym pi
ĠRetriev ed
C SS
app le
K B
Ġf ru
ĠR az
ĠR ica
rew s
ĠRh ine
it Ã©
the ir
BO OL
Ġin sects
ĠV ision
v id
uc a
Ġtest im
Ġw arn
ĠG it
RA ME
Ġle ase
S eq
ogene ity
Ġdi et
ar re
vent ions
Ġwe igh
IP S
ul in
ĠRec ording
oid es
Ġless ons
ĠProgram me
Cl imate
Ã¼ ller
Ġres cal
v ens
Sw iss
Ġcol lector
ĠG Hz
ik er
Ġle pt
Ġt ale
L ear
ĠM N
Ġreb els
conver gence
{ }{
ĠL ed
row ing
Rec ent
ter ritory
ĠL ey
f ailed
Ġe leg
b et
e er
ĠAlger ia
Ġin ad
Ġre cept
ĠF em
tabular newline
ĠMidd les
Ġd ressed
Ġterm inated
sm outh
ĠAlb any
, -\
w y
Ġhon ey
D eb
with in
ĠBav aria
Ġmes on
Ġdef ects
k ip
30 4
Ġt s
T uple
ĠCal cul
o ine
Ġclass Name
l ua
P ress
ĠTh ursday
Ġmand atory
cam el
Ð½ Ð°
yl um
g ae
L im
ass is
Ġheadquarter ed
mm s
Ġfix ture
ĠMal colm
Ġrom ance
Ġdoctor ate
ĠD ynasty
f bb
ĠK yle
Ġplace holder
}), \
Ġinter im
Ġsp ite
v ity
ĠC ache
Ġun con
ĠP ool
Ġsn ap
Mach ine
up les
as an
Ġp iv
Ġre written
Ġcomp ressed
ĠSch r
ĠF ergus
Ġred irect
m ov
27 5
ĠHug o
ĠJane iro
Ġsla very
Ġammun ition
ĠNew foundland
Ġlist en
ag ascar
Ġc ube
Ġfib ers
cl ub
ĠExcell ence
Ġg rate
se ed
ap o
product s
ĠAn at
(' ./
d jango
Î ¼
Ġconst rain
' ^
ĠP AR
pro ved
id an
var iance
Ġcarri ers
ĠLanc aster
Ġpres idency
Ġen listed
." )
Ġord ained
Ġlect urer
ĠNetwork s
x t
ĠN T
30 3
ĠHar bour
Ġreli ability
Ġm eth
ut ations
Ġr ulers
16 2
Ġproceed ed
Ġgar rison
Ġsustain able
Ġsp atially
Ġpost pon
ĠIn side
Ġreal m
Ð ¶
ĠF antasy
Ġfeed ing
CC ESS
p ure
mar ines
Israel i
Ġdiscuss ing
Ġsimultane ous
n of
Ġf ran
ĠMod els
}\ |\
Po jo
ĠV iv
I o
U CT
Ġad i
is le
Ġw ww
ĠA FL
ĠPresident ial
ĠP ine
ĠSerge ant
Ġrel ates
E s
ĠG ur
Ġterror ist
Pack et
inst on
ĠDay ton
ĠGust av
at oon
ĠGra duate
ĠAtt ribute
Ġcab in
ine q
ĠBar b
P DF
Ġsc ar
lock ed
Ġ-- ></
Trans ition
ĠLuc y
he imer
get String
Ġexpl aining
m ile
ĠBul ld
ĠS ave
over rightarrow
B attle
ices ter
Ad dition
Ġcor pus
Ġprompt ed
Ġox id
}$ };
O FF
ĠCh uck
En code
Ġcritic ised
ĠN umer
ĠB end
SP AN
] ).
20 7
comm ission
Exec ute
ĠSab ha
ĠM Äģ
Ġcon ce
ĠGael ic
er als
ograph ies
Ġsent iment
ĠU TC
Class Name
ĠK ids
16 1
Ġneighborhood s
ĠH ert
Ġcolon el
oph yll
y ellow
Ġp aired
et z
mult iple
Ġcontract ed
ud i
s it
st retch
ĠB har
ĠG an
Ġtro ubl
st ri
BU FFER
3 65
arv ae
Cre ated
K ar
ĠL ect
ĠM BA
ĠP D
Conn ector
scal ing
Ġsaf ely
Ġc c
Ġrob ots
Ġafter math
ĠId ent
Ġexceed s
ĠHonor ary
Ġcombinator ial
S and
ĠB alk
Ġas ymmetric
Ġquad rup
t abl
get Message
Ġell ip
ĠR ole
os er
m itting
Ġwhe els
comm utative
ĠBright on
ĠMar ion
mat ches
Ġinnov ative
Ġmon uments
ĠTre k
G h
Ġb le
V s
Ġind ividually
ĠJohn s
Ġcl othes
J ones
Ġro ok
Ġop inions
ĠWe i
ĠS isters
Ġreson ant
Ġpoll ution
id ian
rac use
Ġfem inist
Dec imal
ĠB oeing
ĠL LC
21 4
Ġw are
17 58
lim sup
A rab
ole y
M us
Ġins ights
Ġre he
und ers
Ġmass acre
om ers
ĠT ot
ĠT itle
ell es
c ence
oc om
charg ed
ĠL ah
Ġinv oked
æ ĺ
ov ic
Ġp ig
Ġag gressive
depend encies
Hash Map
Ġj e
ath am
Phys Rev
ep pe
Ġf action
Ġcycl ing
inc ar
H aving
j ax
pect ives
og on
Ġpers istent
t ransp
Ġs el
ĠBe ing
Ġa ria
ĠT roy
){ $\
end point
Ġprior i
ĠBol ivia
Ġparticip ant
Comp leted
ĠG auss
Ġanaly zing
Ġhar vest
ĠI z
Ġcl s
ĠMan or
Ġmed ic
V V
le en
ĠCO L
0 25
emb les
ĠBir th
ĠAlexand ria
Ġinter ven
Ġref inement
Ġsem igroup
rypt o
ĠRaid ers
Columb ia
... )
ME M
spect rum
ĠRoche ster
ta iled
Que en
G od
m bf
ĠK Ã¶
)}\ \
Ġ.. .,
Ġsophistic ated
Ġd amping
ob iography
ut z
K ernel
t el
au f
ĠEll en
Ġm all
ĠM ink
ĠB ord
ust ain
18 22
Ġminim ization
\ @
Ġad equate
,- .
Ġdes irable
ol an
i w
Ġmotor cycle
ĠHeavy weight
ĠCorn ell
ir ate
ount ers
Ġop posing
ĠB rent
H ello
Ġpredict s
let es
ĠFl ash
LO AD
Ï ħ
23 4
ĠSup p
ĠY es
Ġd ying
Ġpurs uit
Ã µ
fer m
ĠMar l
Ġmod ulus
ĠRoman ized
f w
;\;\ ;\;\
ĠVar ious
Own er
Ġreg istry
Ġdom inate
ĠM ell
ĠN in
ĠPar agu
3 40
ĠBra h
Be etles
C as
is enberg
Germ any
26 4
Ġsubstr ate
Americ a
r ÃŃ
Ġfurn iture
rog ate
ĠV id
Ġreflect ing
ev es
ĠEnt ry
Ġd w
Ġcon gregation
Ar ts
Re ceived
Ġrank ings
anc ies
Ġapproach ing
ĠAdvent ure
Ġlo ose
Ġdiscipl ine
ig rant
Ġup load
ĠLet ter
b uff
en ary
Ġoccas ional
ĠW inner
Ġmo ist
Ġb ore
Ġpl ural
30 1
l um
leg end
Ġtri ps
ĠP on
I J
ir cl
r p
ĠG M
pre pare
Ġw reck
ĠN uclear
d ependence
not ify
gu ard
Sh ift
Ā Ā
Ġbul let
Ġmorph isms
\ ),
ĠB eg
) }}{
haus en
ĠB ec
ĠSt okes
Ġcont ours
if old
Ġnot ification
Ex tra
bl ocks
Ġgen res
2 12
Ġreson ances
Ġnob ility
C hat
18 09
ĠWe ather
Ġmut ation
Ġkn ot
elastic search
Mer ge
ĠC ool
Ġn ortheastern
ĠN um
Ġwat ched
Ġfavour ite
Ġutil izing
Ġde alt
HO UT
d ou
eg ie
om at
18 27
ĠCh ancellor
Ġp ec
de legate
Ġ* ,
C ivil
iv ially
ĠW inners
bass adors
ĠInt roduction
ĠImp act
For ce
head ed
Ġh i
ĠN iel
Ġcons ort
Ġgra ins
Ġcondem ned
cass andra
Ġevol ve
Te ams
Alex ander
^* $.
Ã¼ ck
if est
Ġhigh ways
Ġf riction
th umb
ĠAcadem ic
Ġl ac
Ġsen ators
L u
ĠH MS
Ġut ter
Ġ umb
an an
17 3
ĠG ross
Ġproceed ings
Ġundert aken
Ġfin ishes
Foot notes
d ad
ĠMin i
Ġto y
ĠChem ical
Ġc rossover
ĠV or
ip es
ĠNapole on
Ġdefault s
ĠC od
ĠTest s
i ade
et ches
ce ae
LA B
W inners
ĠS uk
ĠJul ius
al con
Ġw rap
Ġeng ra
ĠJo el
Ġpar ishes
Ġl ighter
opter a
ov sk
}= -\
os o
Ġh o
(" .
p el
Ġdrop ping
ĠW im
ĠEx per
Ġtre as
Ġstreng ths
sd k
Ġhur ricane
Ġstory line
Ch apter
ĠĠĠĠĠĠĠĠĠĠĠĠĠĠĠĠĠĠĠĠĠĠĠĠĠĠĠĠĠĠĠĠ ĠĠĠĠĠĠĠĠĠĠĠĠĠĠĠĠĠĠĠ
Test ing
S ar
ĠH R
ĠN ames
- ,
Ġarm ies
Ġcancel ed
17 4
ĠN otes
Ġ( +
ĠMin isters
Ġsepar able
Ġingred ients
ĠDet erm
associ ated
. ',
ĠC MB
art en
}{ .
Ġtim er
B LOCK
ĠPro gressive
Ð¸ Ñı
man agement
not ation
LO C
os ion
ĠCop a
et c
ĠD iana
contain ers
ong s
Ġconcent rations
ighth ouse
ĠMalays ian
Ġham let
fin ity
Ġd ella
Ġcont amination
the m
ĠSol id
m and
s al
Ġcon spiracy
ĠSof ia
%%%% %%%%
Ġen closed
vis ual
E lections
âĢ ł
Sl ov
Ġg odd
Ġfinal e
17 2
h w
Ġorigin ating
prob ability
S outhern
17 1
File Name
Ġtoler ance
G i
Work er
cl air
cal c
! }
Ġdo zen
fri ed
Ġout going
Ġsee ks
AP P
ĠÄ Ĳ
New s
communic ations
? )
ĠL ines
t ec
__ ,
ass ic
Ġcar ved
Qu est
Ġhom osex
Ġpredict ive
Ġa perture
Ġdemand ing
ĠGu jar
}{ -
SE C
ĠBo hem
Dec oder
ĠP ione
ĠK oh
Ġstri kes
Ġru ins
ĠS ag
ant o
maz ing
ĠGib bs
Ġe cosystem
ĠR he
ĠLank an
Ġsp ans
ĠCD P
ĠB ug
Ð¾Ð ¼
ĠK um
T imes
Ġpro sper
ĠProt ocol
rop olis
ĠImm utable
Ġimp ression
ĠBe au
ĠM eyer
b ons
Ġm arri
ĠK aren
Ġus ername
y x
18 23
k r
ĠAn al
Re place
Ġb ipartite
Ġestim ators
Ġwithdraw al
ĠInter view
Ġcontest ants
u ction
che t
Ġt ut
RE T
r x
Ġo wing
Ġm ad
ĠAg ent
Ġab st
Ġdo ctrine
fra gment
E astern
eb e
Ġgirl friend
Ġst ems
ge ons
ĠLog an
Ġin set
ĠMar ian
A h
l int
Ref lection
Ġpray er
D ATE
s il
Ġhar ass
ĠJes se
Ġthe olog
ĠL java
Ġel ong
Ġster e
b age
ĠZ en
dis patch
^* $,
Pac ific
ĠP ere
}=\ {
Ġoverl apping
ir ling
J P
Ù ħ
Ġsol ver
Ġpod cast
Ġp ent
amp ire
F un
ĠL icensed
18 08
Ġcal ib
ĠW W
) ]{
Ġ\ ,\,
any a
Ġsw ing
Ġbatt ing
V en
ely n
Ġre lying
ĠP arameter
Ġ( `
ĠT uesday
Ġrecur ring
ou rable
Ġdig its
| <
Ġt sd
Ġsup porter
ĠAnd rea
clud es
ĠW olver
Ġretriev al
Ġincl ination
c in
ĠT ank
Ġdram at
Q A
ĠTe h
dec ode
K er
Ġt iles
ast ed
ĠMar cel
ĠInitial ize
ĠB erm
ubb ard
os ity
ĠHay es
Ġdiscrep ancy
Ġg ods
ĠK w
d ar
D ark
Ġenc ounters
Ġflex ibility
ĠAr ctic
Ġdisc ount
Read y
Ġsouth western
ap on
ĠMon ument
ĠT ensor
ĠHol ocaust
` )
ram er
Ġannih ilation
ĠW ings
h ouses
ĠMon roe
Ġdiff use
Ġl ith
M ic
Ġd ash
ant es
Copy right
18 16
ĠBor is
Ġmem ories
ĠHein rich
Ġsur f
Ġesc ort
Ġpuls es
ric ing
ĠArm s
Ġbad ly
ĠChem istry
J ournal
ĠAm ateur
ber y
18 06
Ag ain
St ates
Ġge ographical
r ases
Ġ{ (
Ġnav bar
second s
; ,
K M
I ran
Ġbin aries
Ġmagnet ization
Ġs i
ĠL ords
Ġmicrosc opic
C over
R os
is se
ĠTh ames
Ġto pped
ĠSch midt
end e
Ġ[ (
Ġwork shop
ak is
Ġp ounds
ĠP iet
B ridge
ĠV oc
Ġacceler ated
_ [
M ov
se at
Ġnot ions
ĠL E
Ġrev ived
ĠHun ting
ro ft
greg ate
S pect
Ġkill er
ĠTr uth
Ġra pe
ĠG lor
ĠDor othy
ĠW R
ah i
Ġsk ull
ĠL on
$ ]
esc ape
Ġwitness es
ĠP ret
Down load
ident ified
ch rom
no align
loc ale
Cal ifornia
pt iles
Ġveget ation
ĠPant hers
od i
pro f
Ġj umps
17 9
Ġkit chen
Ġd ors
Ġpol o
ĠAssoci ate
Ġassass ination
Ġquant ify
b oot
Ġnick named
ĠDra ke
ĠTasman ia
ĠG ul
Ġcor poration
Ġadv ised
Ġviol ations
od ium
ĠE D
Ġbass ist
s ymmetry
af a
ĠR C
ĠP omer
Ġtri ang
ĠErn st
Ġphot ometry
Ġe ating
ĠST ART
up ta
Ġtem plates
ĠSpring field
A SS
P en
l ar
m ud
Ġmorph ology
label ed
w ire
SOUR CE
bra him
Mat cher
g reat
ond s
ĠRich ards
Ġnever theless
ĠMah arashtra
ps frag
Ġmin us
ĠNS W
lo oking
Ġep it
ĠV ery
Ġd ancers
C annot
Z hang
ile e
ĠWinn ipeg
Ġrele vance
ĠCoal ition
ĠIllegal ArgumentException
er cis
part icular
ĠÂ «
f older
Ġport raits
Ġtub es
ĠChron icle
Ġl as
18 19
ĠAp ollo
Ġreplic a
ount ain
Ġanisot ropy
, +
Ġelectron ics
Ġstrugg led
Ġ' #
Ġrem ind
Ġant iqu
ĠF ramework
Ġmay be
Ġillust rations
post s
v ac
Ġen force
Ġyield ing
Ġsub stance
Ġexp ense
ĠAn imal
Ġfort ress
ĠAr senal
50 1
lin ux
Ġexp elled
Ġvis itor
y log
ĠC anton
ĠLapl acian
ĠT YPE
w ings
Ġspecific ations
Ġgame play
lim inaries
Ġp t
uff ix
ĠMar qu
ĠIndust ries
Su ite
P ush
Ġflow ering
ĠF ALSE
ĠF ant
ge om
Ġshe ep
18 03
pe i
Ġwork shops
t asks
Ġspec imen
Ġsumm ation
Ġmonot one
2 15
Ġtrib al
log ical
ĠVAL UES
ĠA uth
ĠCre ative
Ġre ass
ì Ŀ
ic her
ĠS ard
pon ym
lement ed
G raphics
- )
ru ce
Ġloc als
Ġmed all
G H
] ->
ĠOther s
ĠR ules
Ġcontin ental
Ġapp rent
ĠC ounc
f orth
ĠC lement
ĠJam ie
it ches
Ġ# {
Ġprohib ited
') ->
K en
d yn
Ġg amb
ĠR ever
ĠDem ocracy
Ġmission aries
get Attribute
Ġsub mission
aa aa
ĠCom mercial
ĠSebast ian
Ġancest or
ĠDep ression
)) }
P ot
ĠP T
Ġnon negative
oph on
Ġpersonal ities
al bum
um per
big cap
' }{
C y
Pe er
B ell
p ipeline
em por
ĠG ir
rif ice
Res pon
eb ook
Ġresemb les
ĠA F
ĠB in
olog ne
Ġw ound
erial ize
/* !
EV ENT
ad os
-------- --
Ġam id
itt ers
Ġavoid ing
Ġhypers ur
v t
ĠBal let
c ourt
ter min
Par cel
Ġprefer ences
ĠCl aude
ĠĠĠĠĠĠĠĠĠĠĠĠĠĠĠĠ ĠĠĠĠĊ
ĠSte phan
ĠChief s
Te X
23 1
Ġmet er
Ex perimental
t ier
Ġz oom
=\ ,
ract ing
ĠE rr
Sche me
ĠLyn ch
Ġguitar ists
Ġtet ra
Label s
Ġest ates
process or
N Y
ĠBl u
n ar
== =
.\ ,\
ĠC ond
ĠSt ructure
Ġsub species
Ġro d
ĠMar tha
Ġarg uing
Sc ot
Ġp ion
Ġnew er
ĠÅ ģ
or ic
ĠIn surance
Ġcomp ile
ĠY uan
Ġparamet ric
Arch itecture
ip el
ch annels
ĠO K
Ġport al
æ Ī
00 7
ign er
Comp are
ĠD I
Ġassign ments
Dat aset
R UN
ĠChe ng
}}( {\
ĠKn ox
Ġcryst all
ĠRed s
can onical
ato es
ĠUrugu ay
Ñ Ħ
ĠH ousing
ĠD awn
Ġbatter ies
Ġinter rupt
Pr iv
Ġmilit ia
Ġdi agnostic
}^{ -\
The ir
ĠBalt ic
ĠW WE
ĠFor bes
$ _\
ur ring
Ġ& #
go al
Inst ruction
fill ed
F ish
Ġenter prise
Constraint s
ĠS tern
ĠP am
Ġprop ri
b ucket
ific ates
ĉĉĉĉĉĉ Ċ
ill i
Ġany where
;| &
Ġtrac ed
is ers
ant is
ast ings
Ġpract iced
cles iast
Ġbary on
Ġb acter
log y
Menu Item
ĠOr d
ĠWhit ney
D ar
\ ).
Ġimp ressed
Pl aces
exp ansion
Ġvin yl
Z oom
ag ain
Ġsem ifinals
wart z
Ġren ovation
Ed ward
N s
ĠB io
Ġforb idden
S in
ther mal
ĠSouth west
Ġac claim
Int ent
' ].
Ġthe ology
ĠD IS
Ġ" _
Ġrel uct
ĠL al
ĠJ ake
T aking
Ġhand ball
exec ution
up dated
Function s
Ã© d
ĠAn imation
Ġen orm
Ġro uter
spec ified
c ategories
Ġv i
ĠV it
ĠĠĠĠĠĠĠĠĠĠĠĠĠĠĠĠĠĠĠĠĠĠĠĠĠĠĠĠĠĠĠĠ ĠĠĠĠĠĠĠĠ
Ġplate au
Ġdeleg ates
Ġl ord
us ually
value Of
Ġlett ing
as ium
Ġ' ,
ĠM ask
Ġm ansion
ĠC ancer
pre ter
ĠSte am
ĠMar ines
th reshold
Ġbuild s
ĠJ ourney
ill ation
AR D
Ġrival ry
Mex ican
Y our
s om
and ed
ercis es
ĠA bs
ĠH ubble
ĠJ ag
Ġthrough put
ĠR oth
ĠV all
vent h
Sl ot
Ġm u
ĠD L
00 8
Az ure
ĠPr ussia
us hes
Tr igger
Ġw rapper
Ġan arch
att rs
q t
12 34
ĠN orton
Ġsur geon
Ġse cre
Ġem otion
isc ount
print s
Ġcontribut or
l ot
em ann
Ġphilanth rop
ĠA sc
Th ough
Type Def
Ġconcept ual
ĠGarc ÃŃa
H ave
Ġcomputational ly
da ughter
V erb
Ġmanip ulation
Det ector
Ep isode
] ),
ron ics
H all
Ġbroad caster
ĠGriff ith
ex ist
m or
att ention
18 17
ob ar
t uning
ĠC and
]{ @{}
ĠMin neapolis
Ġscreen play
as ta
ĠR id
eh icle
ĠSuper ior
w u
Ġqu it
m ind
am ous
ĠMad agascar
18 3
C ss
Ġtend ency
Ġrelax ed
Ġk inematic
Ġflu ctuation
Ġst air
w ere
18 6
Ġmet als
ĠEd win
&& &&
ĠMar co
\% .
c ached
styleshe ets
Ġdiagn osed
ar ium
Ġfound ations
ikh ail
Ġacc idents
ĠAr d
Ġtra ff
Ġprem ises
ĠG av
op ens
il ogy
ĠBut ter
)\ )
ĠBl air
$\ %
ĠBul let
B re
ĠM atrix
Ġax ial
Ġsac red
Ġep ic
_+ $
Ġplanet ary
Ġspect roscopy
sw ing
N eed
ol ate
resh olds
Ġex ponents
Ġult imate
M esh
Ġcom plications
approxim ation
Ġninet eenth
Ġf aint
df s
ĠRab bi
Ġadv ocated
ĠKu wait
ed uc
s chool
Ġdeleg ation
M obile
Ġterm ed
z an
hor se
ĠExt ension
o ft
A k
ĠPort smouth
Ġaccident ally
c ours
ĠCraw ford
l ane
Ġcon d
Ġcust ody
S ets
Ġconst ructions
and in
() [
{ #
ĠCrit ics
ĠIn valid
p ark
K G
Ġ( %
j q
local host
Desc ribe
ĠEv olution
Ġbankrupt cy
Ġinf in
Ġflow n
ĠGar cia
ard ment
es p
Ġdisp atch
D TD
è ¯
oc es
W OR
M IT
ĠJohn ston
inn aeus
Ġ. =
ĠElect ronic
Ġp el
ĠL ap
Ġess ays
st ars
Ġw ishes
ess ment
Ġfro zen
Ġreleg ation
N F
ann ers
duct or
ĠBas el
ĠTh anks
Ġenc ryption
ĠWeb b
z t
Ġperm utations
isecond s
ĠM AC
Ġbenef icial
c art
en h
p unct
ĠSing er
Mount ains
ĠBuddh ism
ing ale
ĠP E
Ã ²
ĠSuff olk
ĠCol lect
D ict
Ġstep ped
ĠCon sole
R G
ĠH appy
For ward
Prot ected
att i
Ġsail ors
pay load
ĠB attery
ĠW aters
ĠJul ie
zo om
Ġfore ground
hook rightarrow
Ġv it
Ġdiv iding
Ġsub spaces
ĠZ amb
ĠPl us
Ġleg ally
ĠKenn y
ĠTheod ore
um en
ĠSem inary
Ġex pr
Ġoff ense
Ġacadem ics
uv ian
Ġaband on
min im
Ġtrump et
18 2
ct ica
D oug
ĠR GB
Lower Case
Ġimp lying
Ġconsum ed
TableRow Color
C U
Ġ um
ĠT I
Ġ[ {
Ġinters ects
Ġinterview ed
Ġsepar ating
Cert ificate
un its
)\, ,
ĠI TV
Ġtour ists
ad ia
ylog en
desc ribe
Ġcon ceived
Ġse aled
E lection
rit ic
Ġdynam ically
Writ ing
Ġref resh
Ġend points
ĠMerc ury
ill iant
"> (
sq cup
Ġinteg rity
ĠUl ster
Ġinaug urated
ch ard
ĠP ok
Ġlegend ary
Ġv ig
å Ĭ
ĠM oss
omet ime
lat est
T am
18 05
Ġex empl
ab ar
Do ctrine
ĠCol ony
ĠH erman
Ġb apt
TER N
Ġcler gy
Ġle ar
17 94
ĠEuro vision
^+ _
integ ration
Ġemploy s
Ġder ives
ĠC airo
Ġanalog y
ĠNAS CAR
> %
Ġh int
Ġcoordin ator
habilit ation
Ġteam mate
B ank
y en
ref resh
const it
ĠJ et
Ġl arvae
ĠPal omar
Pier re
or get
yt es
wh ose
Ġemer ge
y re
SS ION
Ġpossess es
v able
Ġboard ing
Cath olic
V T
sp here
/ $
com ments
Ġcardinal ity
mer cially
Ù ĩ
40 1
ĠGreen e
ĠWal sh
ĠL Ã©
Ġr amp
ĠH ydro
Ã¨ res
C op
Ġd iving
Ġwild life
Ġmanufact ure
ĠPoint s
J oe
og l
Ġund ers
Ġsocial ist
S afe
n ucle
Ġener get
Ġunve iled
yl on
Ġclass ify
Ġsub marines
re li
so lete
Ġgroup ed
p enter
SP AC
ĠAnn ie
ers hip
ott ing
Ġrev olt
v b
ih ar
Ġv iable
M X
Ġup set
ĠD iet
Ġdist ribute
ĠB ent
W all
b rown
n ational
Ġbreak down
H ong
Ġsp y
fl ies
Ã¢ te
ĠVict ory
Ġfac ade
8 50
Ġbal let
oltz mann
W atch
ĠSax ony
Ġprev ents
oh an
23 2
Ġcustom s
ĠS ent
ĠR up
ĠL ep
Com mit
ten ham
Ġphysic ist
sp arse
Art ists
em i
ĠD ylan
ĠH ank
ick y
Ġc ro
ĠE isen
Ġserv ants
ĠD ry
ĠY emen
ĠS it
m esh
Ġlegit imate
P ic
ĠMad h
dor ff
serv let
ĠLad ies
B all
Ġreg iments
Sc ene
lo o
Ġbox er
math ring
Ġgar ner
Ġair ing
r ors
ĠIs abel
om al
work er
Ġor thon
Ch ris
External Task
log ic
ret val
ĠReg ular
Mon itor
un til
ĠH O
18 07
Ġred ist
Ġly ric
Ġr ider
ĠBang kok
Ġc ere
ĠBra ves
ansk rit
ĠM ey
Ġseem ingly
Ġl aps
ĠD rop
ĠLand au
Ġd inner
ĠDub ai
Ġ( {
ĠSt ruct
ĠAt omic
Ġcon quest
Ġsen ator
ĠMonteneg ro
B ang
K al
sp ark
th ood
ign e
ĠClif ford
ĠSum mit
Ġviol ated
Ġtrans fers
oph ys
ĠD P
Sp in
ĠBet ty
ĠT OP
text ure
ĠAm b
Ġprom otional
. }.
Ġdemonstr ating
Ġsur jective
Ġdescend ant
parent Node
w ara
Ġre dd
ra ise
ĠP itt
Ġnorth western
EN V
ĠThom son
Ġcop ied
ĠJen kins
Ġin tact
ĠF uj
Ġinstruct or
ĠR ig
Â »
ĠB rom
Ġplant ed
Dest roy
å Ľ
F all
Ġab ortion
ĠInd o
)} +
ĠE du
M as
Ġse al
Ġan ger
ĠUlt imate
Ġorche str
= >
ut down
Ġ" )
car bon
âĢ ĺ
Ġman or
ĠAtl as
Rel ations
2 16
Ġb ones
li u
^* )
| (
ĠA TP
ill ary
Ġsu ited
ĠStat istical
ĠMar itime
Ġmach inery
ĠKarn ataka
enc oder
ba um
ĠS ugar
ĠA E
role um
olith ic
head s
Ġp ul
ĠG ymn
Ġref uses
ales e
Ġup stream
Ġn ights
Mark er
Ġ& =\
Sc an
ĠJoh an
K P
Histor ical
Ġsit com
Ġincorpor ates
3 80
ME SS
ae a
ĠLat via
ra e
ÑĢ Ð¸
ĠW H
Ġtransl ates
Ġhuman ity
ĠTrin idad
Ġsol ves
ann ah
ĠRaj a
A W
un ting
Ġgrand mother
ĠCow boys
r ific
in ks
ĠM am
ĠY osh
Ġcomput es
Ġanisot ropic
ĠLouis ville
Ġpropag ator
Imp lementation
Com ponents
ĠGreat est
Ġs ab
Ġarch ives
Ġcomp ares
ĠE yes
ĠChar acter
Bit map
ĠEv ents
Ġorgan isms
)^{ -\
it ives
Enc oder
Spe aker
}) \\
Ġmet eor
Ġs unk
eta iled
ing ers
Ġmultiplic ative
Char acters
M ike
ĠT ian
dec re
s ampling
% "><
gu ide
Car thy
ADD ING
le ad
Ġhum or
Ġo c
list ener
Ġmar ble
Ġbr ut
erv ille
Ġhot els
ExternalTask Pojo
Ġis instance
ust ed
lass ical
ev ol
Ġaccept ing
cy cles
Ġsimplic ial
Ġdat abases
Ġdetect ing
Ġb esides
Ġcomm ittees
k ill
ron d
23 8
Ġlif estyle
Ġo mit
ot ta
ĠKy iv
H AND
Status Code
Ġenlarg ed
l f
Ġcommand ing
m ys
n able
ĠO rt
28 8
ĠK ok
erm o
sup ers
S rc
Ġquestion ed
por a
Ġrail ways
Ġserial ized
ĠC IA
WAR E
Ġgal actic
qu o
Array s
Tool s
ĠCom ment
scal a
ãģ ®
ĠWIT HOUT
Ġa rose
ĠS ara
ref lect
'' (
Ġanth ology
A sh
)} +\
Ġm asks
on el
Rel ative
Ø§Ù Ħ
got ten
Ġcoord ination
Ø§ Ø
Ġcast ing
ĠC I
ĠCl ara
Ġst iff
Ġdis advant
Ġobserv ers
ites pace
R D
at u
ĠQ atar
maxim um
ĠCl aire
y ield
ĠHal ifax
M anu
ĠTanz ania
ĠNorth ampton
ĠHash Map
Ġdom inates
Ġrespons ibilities
ĠW er
sh ine
Ġtra its
Ġsur veillance
Ext ended
e astern
{ -\
ĠG ian
Fix ture
Acknowled gements
IE W
C lean
a um
Ġrun way
Ġer upt
ĠAg u
ri ot
ack er
Ġl l
L iga
Cal endar
Ass ign
)$ :
ĠPro ducer
az ure
Tour ist
ĠGuatem ala
q i
ĠM iy
Ġrenov ated
fact uring
b ars
put ational
ĠX V
Ġreve aling
Up dated
Ġaddress ing
ĠBrown s
Comb ining
å ľ
ĠA us
ĠRes Net
Ġpropag anda
ĠPrim era
ge ometric
Ġsal ary
Ġfin anc
ĠSpec ies
\ :
Ġprint f
Ġaver ages
Ġbow l
A H
Ġfact ories
deg enerate
Ġiniti atives
ĠPatri ots
Ġprotect ing
Ġb ot
Ġbus y
ĠBrun o
ĠSt orage
Ġsh rub
Ġfl ip
Me asure
ĠConstitution al
Ġfold ed
ev iÄĩ
22 7
ans on
Ġimplicit ly
_* $
d B
ĠDar win
G RO
ĠIss ue
ĠC raft
const rained
18 11
Ġdiscuss es
ĠS EC
ĠR ao
p ole
Ġc ens
Ġto b
cl iffe
ho o
hen ce
ĠTreas ury
* (
ĠW ander
j iang
ra pe
Ġatt ain
! (
Ġn urse
Ġacknowled ges
obtain ed
ĠSac ramento
Ġorgan ize
Ġdef in
un stable
Ġb lo
AA F
po i
ĠT ul
re ation
hed ron
Ġten or
ighbor hood
/ )
| ^{\
im on
ĠF ork
Ġfermion ic
Ġacc us
ari at
ĠAp plied
ĠHero es
graph s
ĠKos ovo
Ġsubdiv ision
ĠCam ero
v ian
Ġspons or
sem i
Ġdram atically
bat im
as ympt
sh own
Ġhabit ats
et ric
ipl inary
ĠMong ol
Ġc ra
Ġk w
asc ular
Ġp ine
ĠK le
), $
Ġmon ks
R atio
min o
ĠPl ain
C odec
Ġin cent
ST ART
im ar
ĠM ile
get Class
)\, .
School s
ĠHels inki
ĠT ucker
ĠF alk
Com plex
v anishing
ĠH ers
ver batim
tab les
board s
em y
Ġanalyt ically
ĠEmer gency
s man
ynam ical
ĠBel t
B ag
D ITION
è ¡
ĠR ag
Ġhe ct
Ðº Ð°
Tra ining
ĠInn ovation
Ġp ic
ow itz
set Attribute
ĠRel igion
Ġjud gment
let cher
Ġqu arters
d ong
ĠR G
ĠW ave
ary a
An th
OB JECT
ocol ate
T LS
ĠH its
ĠG O
ert s
dis crete
ĠGener ated
Ġredes ign
P ipeline
ef ault
com par
ĠQu int
G re
trans late
com puter
Ð» Ð¸
pe er
ĠRom ans
Ġcooper ative
3 25
Ġrep airs
ĠD CHECK
T ip
Ġc ass
B rand
re verse
om ore
Ġloc ale
ĠAberde en
Ġlog s
b right
Ġsuperconduct ing
3 45
Ġequ ity
ĠMid lands
Ġtor que
U A
ĠE ducational
mod es
Organ izations
Ġmonot onic
Ġret ire
ES CO
Ġpec uli
B ACK
Ġ ÑĤ
Ġup ris
Ġpen insula
Ġt ickets
el ic
}} }(
Ġtru cks
Ġt aste
c io
ĠB agh
aw t
ĠLeban ese
A bb
P ad
ĠG ospel
ab br
sc hem
sub string
Ġinters ections
ad v
Ex it
Ġupd ating
ĠSc ots
17 93
( []
Ġm aternal
Ġst ays
Over all
Ġk inemat
l ord
ĠC over
ĠM ode
row ave
ĠShe ll
Ġprinc ip
Ġvac ant
Ġin clusive
ta x
ĠL S
Ġposit ively
Ġt il
uet ooth
Ġpro gen
Ã©t ico
è ¿
Ġsp heres
ĠAl low
TO M
pe ak
Ġend angered
Ġlook up
keep ing
qu in
ĠRe lease
ent ries
small matrix
D anish
}\ {
itro gen
ĠL und
17 98
ĠSe lection
Ġjust ified
eg en
22 6
Ġcred entials
ĠQuart et
Ġwidth s
$ ^\
ĠP P
Ġancest ry
R oy
Ġin ches
ĠCl aud
ĠCharl eston
ĠL af
rel ativistic
Ġmet re
Ġhard er
| +
ĠM are
ĠTrans form
Per cent
ĠSpeed way
ap prop
Ġbi ased
iform es
^{- (
>< !--
col sep
ĠWill ie
Ġfil tration
ĠD re
Ġb ilinear
ĠCl uster
isp here
ĠB ren
K ore
EN TRY
Ġfl ora
ĠBald win
O x
Ġte lev
AR RAY
ra j
over flow
b ins
Ġdec ode
ze k
Ġaccum ulated
Ġdirect ing
Ġap ps
Ġfav ored
print ed
S ix
ĠF ur
Ġsh aft
Ġstat istically
ĠT ell
ĠC yp
hell o
clesiast ical
Ġmos que
poss ibly
' _{\
Ġfilm maker
ĠRic ci
utr ition
] ,\
int roduction
Ġce iling
Ġd z
ĠB ORDER
Ġtact ics
Ġmut ually
ĠMos es
Load ing
ast ro
Ġk iss
Ġequ iv
ĠMoh ammad
[...]
